۔ 1
کے 1
میں 1
، 1
کی 1
ہے 1
اور 1
سے 1
کا 1
اس 1
نے 1
پر 1
کو 1
ایک 1
ہیں 1
) 0.8843791466294639
( 0.8662199900850168
. 0.15709317587083757
جو 1
کیا 1
ان 1
کہ 1
یہ 1
&quot; 0.32429853835959727
تھا 1
واقع 1
بھی 1
کر 1
وہ 1
تھے 1
@-@ 0.385552904893415
لیے 1
گیا 1
و 1
بعد 1
: 1
جس 1
یا 1
آبادی 1
ہو 1
ساتھ 1
بن 1
تھی 1
نہیں 1
مجموعی 1
افراد 1
کرنے 1
; 1
تک 1
دیا 1
اپنے 1
تفصیلات 1
مشتمل 1
&amp; 1
طور 1
کاؤنٹی 1
جاتا 1
ہوئے 1
تو 1
آپ 1
پاکستان 1
ہی 1
ہوا 1
نام 1
متحدہ 1
شہر 1
اللہ 1
زیادہ 1
امریکا 1
ضلع 1
انہوں 1
اپنی 1
گئے 1
علاقہ 1
سطح 1
ریاستہائے 1
شپ 1
میٹر 1
گئی 1
جب 1
دی 1
حاصل 1
محمد 1
لیکن 1
کرتے 1
دو 1
مربع 1
رقبہ 1
نہ 1
ہوئی 1
ٹاؤن 1
بہت 1
بلندی 1
کیلومیٹر 1
اسے 1
سب 1
سال 1
وقت 1
کہا 1
پہلے 1
ہونے 1
شامل 1
ہوتا 1
والے 1
کچھ 1
/ 1
کسی 1
gt 1
رہے 1
lt 1
خان 1
وجہ 1
آباد 1
طرح 1
‘ 1
حکومت 1
رہائشی 1
جنگ 1
کام 1
علی 1
جن 1
اسی 1
سی 1
طرف 1
سو 1
سمندر 1
دور 1
کوئی 1
خلاف 1
لیا 1
شاہ 1
استعمال 1
حضرت 1
کم 1
فلم 1
’ 0.7176811017849641
انہیں 1
زبان 1
تعلیم 1
بھارت 1
مطابق 1
شروع 1
صوبہ 1
پیدا 1
دے 1
زندگی 1
رہا 1
پھر 1
لے 1
والی 1
تھیں 1
تمام 1
دوران 1
ہر 1
صرف 1
عام 1
ملک 1
کرکٹ 1
مقام 1
ی@@ 1
مشہور 1
یہاں 1
کتاب 1
لئے 1
پ@@ 1
کیے 1
کئی 1
ہوتی 1
تین 1
اے 1
کرنا 1
کرتا 1
خود 1
پیش 1
لوگوں 1
اب 1
مختلف 1
جہاں 1
غیر 1
عبد 1
موجود 1
اسلام 1
تاریخ 1
حصہ 1
ک@@ 1
&#124; 1
گا 1
جاتی 1
دنیا 1
امام 1
بے 1
عمر 1
فرانسیسی 1
لا 1
ہم 1
قائم 1
دوسرے 1
اہم 1
پہلی 1
جائے 1
آف 1
سینٹ 1
ابن 1
ہوائی 1
احمد 1
دونوں 1
ریاست 1
گ@@ 1
وفات 1
&#93; 1
دریا 1
اور@@ 1
اردو 1
جنوبی 1
&#91; 1
بی 1
علاوہ 1
ہ@@ 1
جا 1
یعنی 1
ہزار 1
لی 1
چ@@ 1
بڑے 1
جانے 1
ای@@ 1
of 0.04176472468008812
؛ 1
&apos; 0.38317026599143433
ٹی 1
می@@ 1
الدین 1
فوج 1
دیگر 1
بین 1
فہرست 1
س@@ 1
وں 1
بی@@ 1
پاس 1
سی@@ 1
علیہ 1
بات 1
یونیورسٹی 1
ہ 1
جیسے 1
اسٹیشن 1
بڑا 1
لوگ 1
سلطنت 1
بڑی 1
ہندوستان 1
ایران 1
لی@@ 1
رہی 1
- 0.6458664139426665
دن 1
ہوتے 1
جبکہ 1
کی@@ 1
, 0.009828499751136976
اگر 1
دار 1
ڈی 1
بار 1
لا@@ 1
خاندان 1
سید 1
ہوں 1
ن@@ 1
صدی 1
خواتین 1
اڈا 1
پی 1
ڈ@@ 1
علم 1
ابو 1
ریلوے 1
دوسری 1
قومی 1
شمالی 1
ری@@ 1
و@@ 1
پور 1
مگر 1
ر@@ 1
ان@@ 1
صدر 1
اپنا 1
ٹ@@ 1
مغربی 1
جاری 1
بارے 1
ار@@ 1
عدد 1
پنجاب 1
بیان 1
ابتدائی 1
درمیان 1
آئی 1
کو@@ 1
تا 1
لینڈ 1
خاص 1
ِ 1
د@@ 1
بنا 1
تعلق 1
ٹیسٹ 1
عمل 1
ب@@ 1
جسے 1
آغاز 1
نی@@ 1
فرانس 1
کرتی 1
تاہم 1
والد 1
ج@@ 1
علاقے 1
نیو 1
ش@@ 1
حسین 1
آ@@ 1
جاتے 1
وی@@ 1
سر 1
والا 1
کردار 1
ز@@ 1
کالج 1
نظر 1
رو@@ 1
ے 1
الاقوامی 1
ک 1
وی 1
تعمیر 1
چار 1
امریکی 1
گی 1
گاؤں 1
سیاسی 1
ٹیم 1
گھر 1
گے 1
عرب 1
– 0.28406456527523094
انگریزی 1
گن 1
صاحب 1
جگہ 1
ممالک 1
تعداد 1
سکتا 1
شادی 1
مسجد 1
پیدائش 1
چین 1
2 0.47720529035566916
کیونکہ 1
شیخ 1
مسلم 1
مکمل 1
ٹ 1
کہتے 1
پی@@ 1
“ 0.43693369455318204
ل@@ 1
قریب 1
لاہور 1
اسلامی 1
کار 1
وزیر 1
م@@ 1
حیثیت 1
سن 1
تر 1
یونین 1
عربی 1
پر@@ 1
1 0.39261280697169876
ال@@ 1
نا 1
مشرقی 1
سلطان 1
قبل 1
مولانا 1
ذریعہ 1
جی 1
مدد 1
قدیم 1
آئے 1
ھ 1
الینوائے 1
رکھا 1
ایس 1
قتل 1
را@@ 1
نظام 1
عظیم 1
شائع 1
ون 1
حملہ 1
س 1
فرمایا 1
کل 1
وہاں 1
بر@@ 1
” 1
رہ 1
3 0.5157019739756082
بلکہ 1
علاقوں 1
واپس 1
آیا 1
ذکر 1
بعض 1
ختم 1
کر@@ 1
ڈی@@ 1
تحریک 1
فتح 1
بنایا 1
ہو@@ 1
میچ 1
شخص 1
فوجی 1
قرآن 1
اختیار 1
زمین 1
ت@@ 1
پہلا 1
فی 1
یوں 1
انی 1
کوشش 1
مو@@ 1
ادا 1
تقسیم 1
نو 1
ف@@ 1
مزید 1
دی@@ 1
برطانوی 1
پاکستانی 1
ایم 1
رسول 1
انھوں 1
اس@@ 1
رنز 1
ری 1
جانب 1
دینے 1
وغیرہ 1
لکھا 1
م 1
ن 1
آخری 1
خدمات 1
مل 1
اعظم 1
اسکول 1
ہی@@ 1
تیار 1
کاونٹی 1
بھائی 1
مارچ 1
ترکی 1
پانی 1
ائی 1
پانچ 1
كاونٹي 1
كاؤنٹي 1
تی 1
جمہوریہ 1
بولا 1
شی@@ 1
آج 1
چند 1
قرار 1
ا 1
ور 1
بنیاد 1
ایسے 1
حسن 1
ی 1
20 0.8402758683276378
کبھی 1
4 0.5221580073214762
خیال 1
کراچی 1
مسلمانوں 1
خدا 1
ین 1
جان 1
ام@@ 1
ترقی 1
ترین 1
موجودہ 1
انجام 1
مرکزی 1
این 1
شمار 1
متعلق 1
جی@@ 1
لو@@ 1
وا@@ 1
عالم 1
من@@ 1
ڈ 1
کونسل 1
آزاد 1
تحت 1
10 0.5995795405778092
مینیسوٹا 1
5 0.5904764267946196
او@@ 1
سندھ 1
حدیث 1
بادشاہ 1
عالمی 1
نی 1
ایسا 1
آزادی 1
کرکے 1
گی@@ 1
بنیادی 1
ذیل 1
یں 1
اگست 1
روس 1
مقامی 1
قیام 1
سلسلہ 1
متعدد 1
ل 1
گروپ 1
پارٹی 1
سرکاری 1
اہل 1
انڈیانا 1
رکھنے 1
کس 1
قانون 1
رکھتے 1
جنوری 1
ادب 1
سفر 1
بھ@@ 1
سنگھ 1
آخر 1
حکم 1
تم 1
مشی 1
موت 1
دیتے 1
اکتوبر 1
قسم 1
مسلمان 1
دسمبر 1
قبضہ 1
دل 1
ور@@ 1
دوبارہ 1
جون 1
انتخابات 1
مئی 1
اصل 1
ذریعے 1
بیٹے 1
سر@@ 1
ہاتھ 1
قابل 1
اعلان 1
نا@@ 1
پوری 1
جدید 1
ستمبر 1
شمال 1
سو@@ 1
ہند 1
6 0.5784849949117533
رکن 1
قوم 1
ٹی@@ 1
کھ@@ 1
بھارتی 1
جولائی 1
ز 1
ا@@ 1
درجہ 1
ش 1
ح@@ 1
کافی 1
زیر 1
نومبر 1
گئیں 1
دہلی 1
لاطینی 1
ویں 1
منتخب 1
آسٹریلیا 1
ملا 1
بہترین 1
سامنے 1
صورت 1
مذہبی 1
عوامی 1
کیریئر 1
سکتے 1
ون@@ 1
جانا 1
دین 1
اکثر 1
لفظ 1
جرمنی 1
لندن 1
تی@@ 1
آنے 1
بنانے 1
خ@@ 1
حق 1
کار@@ 1
تے 1
تھ@@ 1
اسمبلی 1
شکست 1
بو@@ 1
ایسی 1
ڈاکٹر 1
جنوب 1
با@@ 1
دان 1
اب@@ 1
روسی 1
کیں 1
اپریل 1
فارسی 1
انتقال 1
مین 1
برطانیہ 1
بطور 1
؟ 1
ر 1
کریں 1
فن 1
بنائے 1
آ 1
سوویت 1
فروری 1
مقرر 1
تقریباً 1
جامعہ 1
تحصیل 1
جنرل 1
قبول 1
هٔ 1
جات 1
15 0.7187149109248295
کامیاب 1
فی@@ 1
سن@@ 1
کرے 1
12 0.6415664651485643
تاریخی 1
دہائی 1
دیکھا 1
عہد 1
ؓ 1
ٹاون 1
ظاہر 1
بچوں 1
چھ 1
شاعری 1
روایت 1
شام 1
ہوئیں 1
چنانچہ 1
حالات 1
مرکز 1
شریف 1
زی@@ 1
نئی 1
شاعر 1
مذہب 1
امیر 1
نو@@ 1
آئیووا 1
صلی 1
السلام 1
رائے 1
اندر 1
ھ@@ 1
اثر 1
پسند 1
گو@@ 1
7 0.58306382451045
شکل 1
خانہ 1
بھر 1
8 0.5974448104341035
سیاست 1
غلام 1
دھ@@ 1
چھوٹا 1
نتیجے 1
بنی 1
موقع 1
مشرق 1
دیں 1
بند 1
سین 1
فیصد 1
اسرائیل 1
جماعت 1
_ 0.722255556672302
افغانستان 1
معلوم 1
قصبہ 1
ق@@ 1
نئے 1
الگ 1
حصے 1
اِس 1
000 1
نگ 1
تاکہ 1
اگرچہ 1
یہی 1
ابی 1
ما@@ 1
ۃ 1
کلومیٹر 1
اری 1
سکے 1
درج 1
از 1
دریائے 1
11 0.6938043315166829
ع@@ 1
ترک 1
ائے 1
لیگ 1
ٹن 1
انسان 1
اول 1
اُس 1
فیصلہ 1
نمبر 1
انسانی 1
ہندو 1
شدہ 1
19 0.8372019381253848
دس 1
داخل 1
مر@@ 1
اوہائیو 1
ترجمہ 1
دو@@ 1
9 0.6326580716203658
علامت 1
حقوق 1
کردیا 1
انداز 1
ملی 1
آر 1
ولی 1
پائی 1
کنساس 1
مصر 1
خواجہ 1
جواب 1
میر 1
را 1
فراہم 1
چی@@ 1
کردہ 1
ایل 1
میری 1
وا 1
والوں 1
جمع 1
پ 1
چھ@@ 1
او 1
کتب 1
رکھی 1
ہندوستانی 1
باہر 1
14 0.7675081229676314
مقصد 1
اُن 1
معروف 1
کمپنی 1
اداکارہ 1
حد 1
سات 1
زمانے 1
گ 1
بہ 1
وسلم 1
مراد 1
رات 1
شاہی 1
اں 1
30 0.6767407925138799
ادارہ 1
سابق 1
لگا 1
اجازت 1
محل 1
اک@@ 1
دوسرا 1
باوجود 1
سیریز 1
جو@@ 1
من 0.9569424660069751
حال 1
وسطی 1
ثابت 1
سا 1
قلعہ 1
مرتبہ 1
تشکیل 1
حمایت 1
چکے 1
دیے 1
عوام 1
ت 1
اتحاد 1
باقی 1
تنظیم 1
واشنگٹن 1
حملے 1
چھوڑ 1
می 1
ضرورت 1
برائے 1
16 0.6975757708162089
ہونا 1
بغیر 1
تعلیمی 1
ء 1
مغرب 1
رنگ 1
غ@@ 1
زمانہ 1
یہودی 1
مدینہ 1
ام 1
13 0.7521324391746343
18 0.6268868821543031
مار@@ 1
تو@@ 1
منتقل 1
کیلیفورنیا 1
دہ 1
فٹ 1
25 0.7613088146213881
پڑا 1
سمجھا 1
علامہ 1
کشمیر 1
انگلینڈ 1
کمیون 1
خدمت 1
الفاظ 1
ك@@ 1
کھیل 1
کھلاڑی 1
17 0.7527630358865883
سری 1
حالت 1
Saint 0.8269263386685749
انا 1
خلافت 1
ق 1
جڑواں 1
بغاوت 1
اعلیٰ 1
نماز 1
اد@@ 1
فلموں 1
! 0.9000522787196648
میرے 1
تر@@ 1
ج 1
آگے 1
ال 1
یورپ 1
اگ@@ 1
چھوٹے 1
رام 1
ناول 1
سينٹ 1
ایف 1
افواج 1
اولاد 1
پس 1
حلقہ 1
جلد 1
تعلقات 1
حوالے 1
میدان 1
پاک 1
ایوارڈ 1
طاقت 1
ہوگا 1
مقابلہ 1
کامیابی 1
ار 1
سماجی 1
اپ@@ 1
رہتے 1
سکتی 1
سخت 1
تبدیل 1
دیتا 1
لو 1
د 1
نسل 1
رہنے 1
بار@@ 1
متاثر 1
گر@@ 1
خاتون 1
= 0.8008189336448611
دیکھ 1
انتہائی 1
نہایت 1
ٹس 1
یت 1
پنسلوانیا 1
جے 1
ولادت 1
پولینڈ 1
جرمن 1
سائنس 1
کن@@ 1
اضافہ 1
ادبی 1
مصنف 1
باعث 1
گڑھ 1
ص@@ 1
ڈے 1
جنہوں 1
ما 1
مملکت 1
سنہ 1
نقل 1
کہانی 1
تربیت 1
عثمانی 1
ہدایت 1
لہ 1
نیشنل 1
بتایا 1
ط@@ 1
لینے 1
واقعہ 1
سٹ@@ 1
انھیں 1
کن 1
ذیلی 1
رو 1
کپ 1
بلند 1
باز 1
علمی 1
میل 1
ٹیلی 1
ي@@ 1
نامی 1
معنی 1
موسیقی 1
یو 1
کلاس 1
جیسا 1
چونکہ 1
بندی 1
لگے 1
the 0.00674869635195888
گنتی 1
چکی 1
نور 1
گھ@@ 1
مثال 1
خط 1
یاد 1
ہلاک 1
محبت 1
چینی 1
وسیع 1
مالک 1
انہ 1
در@@ 1
سعودی 1
مابین 1
بیٹی 1
انڈیا 1
Canton 1
چ 1
چلے 1
عراق 1
منظر 1
واقعات 1
لاکھ 1
ﷺ 1
روزہ 1
ہر@@ 1
محمود 1
ول@@ 1
حوالہ 1
کاری 1
روز 1
مت 1
مہم 1
اقبال 1
پہنچ 1
قدر 1
بنگلہ 1
اعزاز 1
بل@@ 1
دیش 1
24 0.7253522394836889
بنے 1
مسائل 1
دا 1
ویسٹ 1
شریک 1
ماں 1
مجھے 1
1,@@ 1
اضلاع 1
پورے 1
نگ@@ 1
الی 1
جارجیا 1
گر 1
وری 1
تسلیم 1
21 0.71903548253318
ب 1
کیوں 1
ماہ 1
مکہ 1
پردیش 1
عددی 1
بانی 1
طویل 1
ف 1
قیادت 1
22 0.7777714161450354
شہروں 1
نبی 1
بجائے 1
ورلڈ 1
ائ@@ 1
جزیرہ 1
جن@@ 1
ایرانی 1
ہسپانوی 1
نیا 1
واضح 1
تقریبا 1
ميں 1
سردار 1
پیر 1
چاہیے 1
پھ@@ 1
ذمہ 1
افریقہ 1
ای 1
امن 1
قبیلہ 1
23 0.8182282368611934
ٹیکساس 1
لکھی 1
عباس 1
علوم 1
ہندی 1
لحاظ 1
داری 1
مس@@ 1
نظاموں 1
ئ@@ 1
ٹر 1
نگار 1
آل 1
شہری 1
پولیس 1
گو 1
انتخاب 1
پایا 1
ۂ 1
بلحاظ 1
خلیفہ 1
مقابلے 1
والدہ 1
مقبول 1
آٹھ 1
تحریر 1
اینڈ 1
ہائی 1
نمایاں 1
کینیڈا 1
اہمیت 1
انے 1
ٹا 1
فرسٹ 1
یو@@ 1
کتابیں 1
جاپان 1
وطن 1
ملکی 1
محفوظ 1
جھ@@ 1
علما 1
توجہ 1
ول 1
اقوام 1
یورپی 1
پا 1
رکھتا 1
مضامین 1
چلا 1
شکار 1
صوبے 1
ِ@@ 1
ریکارڈ 1
مسیح 1
وادی 1
مطلب 1
فلمی 1
گروہ 1
حکمران 1
ڈگری 1
رہیں 1
ایشیا 1
وسکونسن 1
بہتر 1
مقامات 1
ابھی 1
لڑائی 1
صحیح 1
County 0.6670565679069256
سک@@ 1
مخصوص 1
مختار 1
بچے 1
زی 1
رے 1
آتا 1
گورنر 1
پیمانے 1
حقیقت 1
تحقیق 1
شیعہ 1
ہمیشہ 1
مہ@@ 1
راج 1
کردی 1
گاہ 1
زبانوں 1
معاہدے 1
ہجرت 1
بنائی 1
موسم 1
بیٹا 1
کلام 1
2018 0.4561191986572918
ريلوے 1
جسم 1
ابراہیم 1
اظہار 1
یوسف 1
مجموعہ 1
کل@@ 1
ماہر 1
پو@@ 1
چھوٹی 1
اش@@ 1
مار 1
آتے 1
وس@@ 1
اسٹيشن 1
پورا 1
اوسط 1
ضروری 1
شہرت 1
صحت 1
اي@@ 1
عمارت 1
انکار 1
ممتاز 1
در 1
بلے 1
ذاتی 1
معاہدہ 1
الم@@ 1
لائن 1
پہاڑ 1
یارک 1
بن@@ 1
نواب 1
کنٹرول 1
سمیت 1
.@@ 1
شی 1
ي 1
پیچھے 1
معلومات 1
چیز 1
حیات 1
26 0.8038644933794395
مختصر 1
نتیجہ 1
بال 1
ات@@ 1
گرد 1
عیسوی 1
قانونی 1
طریقہ 1
كے 1
پروگرام 1
ورجینیا 1
مان@@ 1
مبنی 1
تباہ 1
دولت 1
شخصیت 1
روڈ 1
27 0.8140222268907383
زندہ 1
پنجابی 1
جنگی 1
کا@@ 1
اقتدار 1
یونانی 1
بیوی 1
جہاز 1
کہیں 1
آیت 1
اتی 1
انقلاب 1
کتابوں 1
28 0.7889089920889103
e 0.45962650651981657
ثقافت 1
باپ 1
سارے 1
واحد 1
الی@@ 1
ٹو@@ 1
مل@@ 1
وار 1
توں 1
نصف 1
انعام 1
کھیلے 1
District 0.9835378599554422
نیز 1
طالب 1
وال@@ 1
سعید 1
دورہ 1
عرصہ 1
بینک 1
شہید 1
فیلڈ 1
ذ@@ 1
فر@@ 1
نسب 1
ریاستوں 1
ٹو 1
نگر 1
سلسلے 1
حافظ 1
آواز 1
لیک 1
عرصے 1
روانہ 1
ایچ 1
ملین 1
بد@@ 1
تصور 1
طرز 1
ملتا 1
محکمہ 1
اف@@ 1
برس 1
بیت 1
جائیں 1
چکا 1
كي 1
اوپر 1
شرح 1
لکھتے 1
پروفیسر 1
ست@@ 1
بڑھ 1
پہنچا 1
مندرجہ 1
کھیلا 1
بر 1
بننے 1
وجود 1
الحکومت 1
عورت 1
مطالعہ 1
ں 1
عبداللہ 1
شرکت 1
آر@@ 1
منصوبہ 1
ویب 1
مرزا 1
نیوزی 1
فرماتے 1
لنکا 1
بھیجا 1
نمائندگی 1
ہمارے 1
ع 1
وکٹیں 1
کمی 1
ویل 1
اداکار 1
تلاش 1
با 1
روم 1
از@@ 1
سیزن 1
مہ 1
بخش 1
سان 1
نامہ 1
معاشی 1
اصطلاح 1
پائے 1
بیعت 1
حصوں 1
سربراہ 1
پار@@ 1
جاسکتا 1
مال 1
مدرسہ 1
ابتدا 1
سم@@ 1
کون@@ 1
دریافت 1
انتظام 1
ثقافتی 1
ے@@ 1
سامنا 1
قبائل 1
روایات 1
50 0.7252453695121023
کہنا 1
29 0.8157920374998845
3@@ 1
نما 1
نقصان 1
استاد 1
رین 1
ہاں 1
ہیپلو 1
تخت 1
مشترکہ 1
شدید 1
0 0.5912748330358131
تجارت 1
خصوصی 1
رہتا 1
زائد 1
سبب 1
امریکہ 1
2019 0.4156620820165887
الہ 1
مرد 1
آدمی 1
اخبار 1
روایتی 1
اُ@@ 1
ممکن 1
چی 1
بیس 1
پارک 1
عہدے 1
سالوں 1
ترتیب 1
یل 1
لگایا 1
ئی 1
عملی 1
عثمان 1
فقہ 1
ازاں 1
درس 1
ادارے 1
9@@ 1
مجبور 1
یر 1
اکبر 1
برقرار 1
بیشتر 1
کیرولائنا 1
زور 1
ویژن 1
% 0.12653260983979828
تا@@ 1
شہنشاہ 1
قاضی 1
ناکام 1
عدالت 1
نجی 1
بدھ 1
قید 1
اگلے 1
صوبائی 1
اننگز 1
شیر 1
2013 0.35450939853828584
مضبوط 1
گرفتار 1
ؒ 1
نس 1
پیشہ 1
خون 1
مع@@ 1
کمیونٹی 1
کان@@ 1
دوم 1
خبر 1
وے 1
بلوچستان 1
in 0.008521704168272247
ڑ 1
تیز 1
100 0.5449703596902807
کری@@ 1
دار@@ 1
باب 1
کرکٹر 1
رضا 1
نظم 1
جنسی 1
کور@@ 1
رہنما 1
تجارتی 1
model 1
سٹ 1
حل 1
اعلی 1
دہشت 1
پہنچے 1
چو@@ 1
ns 1
تعریف 1
رکھ 1
کمیٹی 1
فضل 1
ٹر@@ 1
کنارے 1
حالانکہ 1
سٹی 1
سل@@ 1
ه@@ 1
ژ@@ 1
مخالف 1
انٹرنیشنل 1
ڈو 1
format 1
ئے 1
بہار 1
contributor 1
timestamp 1
مغل 1
وابستہ 1
بہ@@ 1
کوڈ 1
کوٹ 1
فوجیوں 1
ہاتھوں 1
روں 1
مش@@ 1
13@@ 1
راستے 1
زمرہ 1
موضوع 1
‌ 1
کانگریس 1
بری@@ 1
لکھے 1
روشنی 1
تفسیر 1
ڈھ@@ 1
نس@@ 1
ہجری 1
حکمرانی 1
ڈا 1
ملاقات 1
راہ 1
پورٹ 1
کلی@@ 1
مسوری 1
نظریہ 1
مستقل 1
گل 1
username 1
طلبہ 1
وس 1
ملے 1
بہن 1
سرحد 1
بنگال 1
br 1
نامزد 1
فیض 1
رکھتی 1
راجا 1
شعبہ 1
دینا 1
سابقہ 1
-@@ 0.7968984649233312
گری@@ 1
حیدرآباد 1
عطا 1
تبدیلی 1
رضی 1
باغ 1
راست 1
نیچے 1
ٹری@@ 1
میچوں 1
نوازا 1
برابر 1
مح@@ 1
ہوگئے 1
نوں 1
7@@ 1
بحیرہ 1
جنہیں 1
اختتام 1
بارہ 1
پناہ 1
دنوں 1
اعداد 1
8@@ 1
اباد 1
خیبر 1
2@@ 1
دینی 1
اسٹ@@ 1
نز 1
یافتہ 1
40 0.7371261462246436
وار@@ 1
مبارک 1
مشکل 1
نسبت 1
کرو 1
انتظامی 1
سزا 1
منعقد 1
پری@@ 1
ڈو@@ 1
طے 1
بل 1
ہوکر 1
یمن 1
وہی 1
بری 1
تعالیٰ 1
دوست 1
مر 1
مزار 1
میاں 1
گیند 1
میرا 1
مد@@ 1
خوش 1
ساری 1
بلدیہ 1
جیت 1
کان 1
2018ء 1
mtDNA 1
امور 1
مالی 1
نزدیک 1
است@@ 1
فری@@ 1
انگلستان 1
آئین 1
بالکل 1
بنت 1
نیٹ 1
خطے 1
کلب 1
جھیل 1
چک 1
2,@@ 1
سنی 1
فلسطین 1
تیں 1
معمولی 1
لہذا 1
سلیمان 1
مخالفت 1
دفاع 1
آتی 1
2015 0.3112780747140336
اِ@@ 1
مندر 1
2013ء 1
comment 1
بورڈ 1
وسط 1
2014 0.3035941413640618
جان@@ 1
6@@ 1
ارکان 1
تنقید 1
محدود 1
ند@@ 1
شر@@ 1
دیتی 1
ملتان 1
دعوت 1
میڈیا 1
جامع 1
موسیٰ 1
راستہ 1
بازی 1
تصنیف 1
مدت 1
حاضر 1
لوک 1
بیگم 1
پرو@@ 1
سپ@@ 1
تھی@@ 1
وکٹ 1
دا@@ 1
آبشار 1
الزام 1
بازار 1
اداکاری 1
پتہ 1
اختلاف 1
دفتر 1
اشاعت 1
سنت 1
مون@@ 1
اداروں 1
کارکردگی 1
مجلس 1
سعد 1
کریم 1
حامل 1
اوقات 1
تشدد 1
اصول 1
لین 1
مثلاً 1
تیسری 1
دیر 1
مقدس 1
جاپانی 1
مت@@ 1
سورج 1
ملتی 1
العلوم 1
بحری 1
شماری 1
آن 1
وزارت 1
ٹھ@@ 1
عبادت 1
انگ@@ 1
تعاون 1
Gmina 1
پابندی 1
ات 1
ساز 1
مي@@ 1
شن 1
ذات 1
شخصیات 1
امی@@ 1
حضور 1
کون 1
31 0.7248708279877139
کشی 1
جنھوں 1
اندازہ 1
ذرائع 1
اکثریت 1
لقب 1
اہ@@ 1
پیداوار 1
کمال 1
شو@@ 1
مضمون 1
محسوس 1
formula 0.37890329398541706
کثیر 1
اعتبار 1
فروغ 1
لشکر 1
منسلک 1
مند 1
چل 1
کوریا 1
قوت 1
خطاب 1
اقسام 1
لگ 1
نٹ 1
مفتی 1
مک@@ 1
سکی 1
بیرونی 1
جیسی 1
تخلیق 1
سائٹ 1
بزرگ 1
فیصل 1
ثانی 1
وم@@ 1
رہ@@ 1
ري@@ 1
حقیقی 1
ولا 1
شوہر 1
كا 1
2008 0.28806231491580514
نائب 1
کرو@@ 1
مطالبہ 1
4@@ 1
and 0.00795727454090458
رہتی 1
parentid 1
دشمن 1
جزائر 1
فکر 1
سکھ 1
اوائل 1
ریاستی 1
تذکرہ 1
فرق 1
ملازمت 1
ووڈ 1
ہوگی 1
انگریزوں 1
درخواست 1
روک 1
منٹ 1
پور@@ 1
مور@@ 1
لال 1
نيو 1
آب 1
ڈراما 1
مردم 1
نشان 1
پہاڑی 1
مسلسل 1
تہذیب 1
رقم 1
انگ 1
لائے 1
دفعہ 1
نک@@ 1
ایئر 1
گور@@ 1
2012 0.27112707340641423
اج@@ 1
علاقائی 1
ڈن 1
ریڈیو 1
آذربائیجان 1
شہادت 1
منظور 1
آگ 1
قی@@ 1
محض 1
چلی 1
آرمی 1
تب 1
لائ@@ 1
لیں 1
لوں 1
تشریف 1
والدین 1
ونگ 1
ہار@@ 1
مقیم 1
وَ@@ 1
بابا 1
2010 0.21781966921688248
عبد@@ 1
ساحل 1
5@@ 1
خوبصورت 1
غازی 1
برو@@ 1
باقاعدہ 1
مان 1
وو@@ 1
تجویز 1
سي@@ 1
معاشرے 1
سکا 1
پشاور 1
یقین 1
ڑا 1
بغداد 1
عنوان 1
آسٹریا 1
لوٹ 1
عدم 1
ڈالر 1
عثمانیہ 1
وال 1
آثار 1
مسیحی 1
اچھی 1
معاملات 1
پل 1
تہ 1
تیزی 1
چیف 1
زخمی 1
اکیڈمی 1
قدم 1
َ@@ 1
رد 1
قبیلے 1
ڈویژن 1
2017 0.29285158908847087
انڈین 1
طریقے 1
یم 1
روحانی 1
کول@@ 1
پزیر 1
رہائش 1
ماؤنٹ 1
پال 1
ستان 1
سہ 1
صحابہ 1
2016 0.27258129841855244
آمد 1
شناخت 1
ہا 1
تحفظ 1
جارج 1
سامان 1
شو 1
چاہتے 1
ایئرپورٹ 1
برا@@ 1
تھ 1
٪ 1
صنعت 1
سونے 1
میونسپل 1
ؤ 1
بالا 1
شہرستان 1
شاید 1
جلال 1
شمولیت 1
ریہ 1
فروخت 1
سب@@ 1
نور@@ 1
پتھر 1
بخاری 1
ڑ@@ 1
الا 1
لیتے 1
خالد 1
الح@@ 1
نکل 1
كي@@ 1
آئیں 1
دائیں 1
نسلی 1
صبح 1
عمرو 1
واپسی 1
بدر 1
پالیسی 1
0ء 1
ورک 1
ہمیں 1
دربار 1
گجرات 1
دیکھنے 1
سالہ 1
بورو 1
کرا@@ 1
اطلاع 1
ایمان 1
2011 0.2338923824684982
غالب 1
نشانہ 1
حرکت 1
اتر 1
ہزاروں 1
فائدہ 1
ہار 1
ونی 1
دارالحکومت 1
اک 1
رن 1
بنو 1
وان 1
60 0.8126896864367724
رخ 1
براہ 1
بولی 1
ٹورنامنٹ 1
ڈیبیو 1
2008ء 1
x 0.7947536969433265
شاخ 1
12@@ 1
قیمت 1
مج@@ 1
نوجوان 1
بالآخر 1
الحق 1
دوں 1
سازی 1
ح 1
فارس 1
رپورٹ 1
موجودگی 1
اسکور 1
خصوصیات 1
حروف 1
سفید 1
آہستہ 1
بدل 1
کے@@ 1
الرحمن 1
داخلہ 1
سا@@ 1
ض@@ 1
یکم 1
وي@@ 1
4,@@ 1
ٹاؤنشپ 1
آؤٹ 1
تصانیف 1
برگ 1
جعفر 1
ساتھی 1
غلط 1
حفاظت 1
بحر 1
بچپن 1
شان 1
ملکہ 1
سوال 1
فلپائن 1
مردوں 1
ڈز 1
ڈائریکٹر 1
فائز 1
ائی@@ 1
ند 1
وج@@ 1
ہوگئی 1
بحث 1
افغان 1
ہوگیا 1
قدرتی 1
مقدار 1
کھانے 1
سرزمین 1
وفاقی 1
ئ 1
انڈیز 1
متعارف 1
نیویارک 1
چہ 1
ئی@@ 1
خانے 1
ممبئی 1
جر@@ 1
نوبل 1
دستخط 1
رس 1
کوہ 1
حج 1
رفتار 1
سٹی@@ 1
مجھ 1
میکسیکو 1
جدوجہد 1
لان@@ 1
ڈکوٹا 1
بي@@ 1
مسیسپی 1
سمجھتے 1
خی@@ 1
سلیم 1
آئرلینڈ 1
وہیں 1
مسلح 1
پاشا 1
اسماعیل 1
اثرات 1
یہودیوں 1
اتفاق 1
بلوچ 1
خواہش 1
بکر 1
دراصل 1
فو@@ 1
ماؤنٹین 1
چرچ 1
کہہ 1
شعر 1
علاج 1
کپتان 1
2ء 1
3,@@ 1
پہ 1
بس 1
وڈ 1
ڑی 1
ندی 1
قہ 1
یک 1
سربراہی 1
قوانین 1
دورے 1
تیسرے 1
رسم 1
صلاحیت 1
حملوں 1
ارا 1
خاتمہ 1
اق@@ 1
مسئلہ 1
ثبوت 1
3ء 1
بہادر 1
جنس 1
لي@@ 1
کمیشن 1
البتہ 1
اتنا 1
منصوبے 1
الس@@ 1
ڈال 1
برصغیر 1
لایا 1
شمس 1
وت@@ 1
18@@ 1
2020 0.2867061361711581
غور 1
متعلقہ 1
کینٹکی 1
جانوروں 1
وب@@ 1
الع@@ 1
کولمبیا 1
انی@@ 1
دل@@ 1
کربلا 1
الب@@ 1
de 0.004480894744969451
تصویر 1
خاتمے 1
قبرص 1
احادیث 1
نڈ 1
بو 1
ہائے 1
اسرائیلی 1
الجزائر 1
آپریشن 1
صوفی 1
ماہرین 1
مق@@ 1
کوفہ 1
سندھی 1
2009 0.23358657249532946
تکمیل 1
خ 1
کرلی 1
ث@@ 1
مُ@@ 1
پختونخوا 1
پوچھا 1
پیرس 1
ڈر 1
کہ@@ 1
لاس 1
ئر 1
نگرانی 1
روح 1
کرایا 1
ورا 1
ہل 1
رب@@ 1
کارروائی 1
انگریز 1
حصول 1
ـ 1
مارشل 1
1ء 1
2007 0.24655249271799762
مال@@ 1
کرام 1
طلب 1
نیپال 1
عورتوں 1
خوف 1
اَ@@ 1
دلچسپی 1
ّ@@ 1
80 0.8829439888436009
کمپیوٹر 1
2019ء 1
ہتھیار 1
عمران 1
سالانہ 1
لان 1
تاج 1
ص 1
منہ 1
جیل 1
فاطمہ 1
لز 1
قطب 1
کانفرنس 1
عرض 1
14@@ 1
تیاری 1
صفحات 1
تیل 1
ضد 1
دفن 1
گرم 1
نڈ@@ 1
یاں 1
خوب 1
کام@@ 1
دعا 1
اتنی 1
اشارہ 1
پیک 1
5ء 1
انسٹی 1
ماضی 1
پرست 1
مواد 1
اٹلی 1
معیشت 1
آرکنساس 1
سرخ 1
مولوی 1
ہٹ 1
فاصلے 1
پے 1
کور 1
ٹے 1
عنہ 1
دیوی 1
بیماری 1
کاروبار 1
خارجہ 1
درست 1
سوانح 1
فورڈ 1
منظم 1
ٰ 1
دیو 1
سینٹر 1
ٹیکنالوجی 1
ولی@@ 1
عزیز 1
لر 1
سائنسی 1
مرتب 1
4ء 1
بائیں 1
عائد 1
چے 1
ماحول 1
6ء 1
ٹیوٹ 1
نیبراسکا 1
200 0.7278792065452584
فرار 1
اجلاس 1
چاہتا 1
یزید 1
نظریات 1
رکھے 1
ك 1
خاں 1
La 0.06764038322909482
صاف 1
پرستی 1
ئن 1
لکھنے 1
ونا 1
چلتا 1
مہاراشٹر 1
سنگ 1
70 0.914359321098288
تصدیق 1
جانی 1
دستیاب 1
عروج 1
قریبی 1
گیت 1
رانی 1
لکھنؤ 1
15@@ 1
اح@@ 1
سرمایہ 1
قی 1
وف@@ 1
کش 1
غزل 1
قبضے 1
ء@@ 1
ہنگری 1
اسٹیٹ 1
انتظامیہ 1
حاجی 1
تفصیل 1
جزیرے 1
معاویہ 1
بلا 1
ریڈ 1
ہمراہ 1
وم 1
خفیہ 1
ووٹ 1
آس 1
ُ@@ 1
رس@@ 1
انہی 1
تیس 1
رز 1
سان@@ 1
کورٹ 1
کس@@ 1
35 0.9106557797163445
اص@@ 1
لگی 1
عہدہ 1
حرارت 1
ى 1
بجلی 1
10@@ 1
ائیں 1
قاسم 1
ڈبلیو 1
اری@@ 1
ساؤتھ 1
معاشرتی 1
آلہ 1
کال@@ 1
نقطہ 1
کھا 1
اساتذہ 1
حی@@ 1
شہریوں 1
یونان 1
پرا@@ 1
ادی 1
ایسوسی 1
سار@@ 1
باشندوں 1
مارٹن 1
منسوب 1
توانائی 1
وف 1
16@@ 1
رومی 1
مسعود 1
احتجاج 1
ایسٹ 1
لڑکی 1
دادا 1
روپے 1
8ء 1
انصاف 1
متحرک 1
انوں 1
انیس 1
نامور 1
اسلامیہ 1
ایشن 1
وو 1
الق@@ 1
سربیا 1
2015ء 1
زہ 1
برادری 1
فلوریڈا 1
وضاحت 1
2006 0.23038453467274606
نگاری 1
پڑے 1
احساس 1
نواز 1
جیتا 1
موضوعات 1
2021 0.3241538135785743
امداد 1
ایا 1
لباس 1
لن 1
بیچ 1
کھانا 1
گاندھی 1
انتخابی 1
کہلاتا 1
2016ء 1
بال@@ 1
روشن 1
طالبان 1
دروازہ 1
سند 1
گانے 1
سنچری 1
نتائج 1
ایڈ@@ 1
لیس 1
1.@@ 1
مست@@ 1
چاند 1
ہری 1
وقوع 1
کائنات 1
پارلیمنٹ 1
اٹ@@ 1
وین 1
ملنے 1
نار@@ 1
لانے 1
کنگ 1
الج@@ 1
اہتمام 1
نام@@ 1
ایشیائی 1
کھیلی 1
سلوک 1
آنحضرتﷺ 1
مصروف 1
مظاہرہ 1
2014ء 1
آئ@@ 1
حمل 1
مستقبل 1
خطرہ 1
5,@@ 1
قلعے 1
كو@@ 1
کھیلنے 1
اہ 1
تھائی 1
فرائض 1
مز@@ 1
وائٹ 1
سروس 1
تدریس 1
حیدر 1
روکنے 1
قائد 1
نٹ@@ 1
ریلویز 1
کروڑ 1
کھلاڑیوں 1
ؤ@@ 1
تن@@ 1
جرسی 1
گرو@@ 1
زبردست 1
صحافی 1
خیر 1
ہسپتال 1
بور@@ 1
یار 1
سڑک 1
معیار 1
پھیل 1
گھروں 1
9ء 1
کمزور 1
ریلیز 1
محافظہ 1
مَ@@ 1
​ 1
7ء 1
آنحضرت 1
برج 1
جنم 1
ملتے 1
مٹی 1
دکھائی 1
abad 1
توسیع 1
ہال 1
فورس 1
ادیب 1
کھیلوں 1
گردی 1
ابہام 1
ﯽ 1
ظ@@ 1
گفتگو 1
گنج 1
عہ 1
مہدی 1
اسد 1
درد 1
ادی@@ 1
دباؤ 1
کلو 1
گا@@ 1
نر 1
امر 1
قبرستان 1
وق@@ 1
زر@@ 1
طب 1
بھیج 1
راولپنڈی 1
سیاہ 1
ویلز 1
کمیونسٹ 1
باری 1
خلیج 1
سلام 1
جیکسن 1
ایوان 1
بالی 1
وائ@@ 1
نکال 1
منی 1
ارہ 1
خواب 1
کین 1
اع@@ 1
طبی 1
اشعار 1
تجربہ 1
آبائی 1
زید 1
کمانڈر 1
شوق 1
ڈالا 1
گلی@@ 1
تِ 1
شے 1
ﺎ@@ 1
کھڑے 1
تھیٹر 1
درجے 1
جناب 1
حکمت 1
مناسب 1
2017ء 1
ه 1
2000 0.2432196860213172
شعبے 1
دم 1
غریب 1
500 0.7910632911883986
زبانیں 1
عقائد 1
موں 1
رشتہ 1
لینا 1
ين@@ 1
0@@ 1
خاطر 1
اندرونی 1
قول 1
ماڈل 1
کاروں 1
رجوع 1
صادق 1
ین@@ 1
برٹش 1
بھاری 1
درخت 1
عامر 1
ریل 1
پہلو 1
سوار 1
عین 1
کرلیا 1
خراسان 1
نافذ 1
مائ@@ 1
خیل 1
گرین 1
یات 1
جمال 1
ظلم 1
حزب 1
فل@@ 1
ائي 1
دیکھتے 1
عی@@ 1
فرد 1
مہارت 1
گورنمنٹ 1
قر@@ 1
آسان 1
عموماً 1
مب@@ 1
جموں 1
پندرہ 1
ہماری 1
45 0.7953605568555241
کوششوں 1
اخ@@ 1
برعکس 1
اختر 1
الاباما 1
زوال 1
سرگرمیوں 1
2.@@ 1
دروازے 1
عباسی 1
مارے 1
یادگار 1
حکام 1
شمالي 1
ؔ 1
شا 1
یوم 1
گھریلو 1
6,@@ 1
الت@@ 1
ني@@ 1
2011ء 1
آیات 1
اد 1
کٹ 1
ائیر 1
بلا@@ 1
ہاؤس 1
مارا 1
ٹوئنٹی 1
پي@@ 1
چچا 1
Z 1
بولنے 1
پہنچنے 1
جا@@ 1
شریعت 1
شہزادہ 1
اسم 1
کابل 1
انجمن 1
بلی@@ 1
حدود 1
صدیوں 1
20@@ 1
کرنسی 1
فلمیں 1
اصلاح 1
اول@@ 1
جین 1
دعویٰ 1
فارم 1
اردن 1
بک 1
گار@@ 1
کہنے 1
سائ@@ 1
مزاحمت 1
سال@@ 1
انقلابی 1
بند@@ 1
تمہارے 1
چر 1
اتے 1
حبیب 1
حکیم 1
الله 1
ين 1
ڑے 1
فلسفہ 1
سکول 1
مراکش 1
جائزہ 1
صحابی 1
پرانے 1
اقدامات 1
لي 1
مصری 1
چار@@ 1
جانور 1
سیرت 1
سکیں 1
وک 1
+ 0.5108368429789529
اسحاق 1
اپ 1
بلغاریہ 1
بھی@@ 1
تینوں 1
جہاد 1
17@@ 1
اورا@@ 1
صوبوں 1
دہی 1
بشمول 1
ناتھ 1
نادر 1
ارشاد 1
مجید 1
نج@@ 1
تمل 1
ریاضی 1
معاون 1
کاموں 1
کوچ 1
بیگ 1
مہینے 1
سام@@ 1
میک 1
راؤ 1
ناک 1
اعتماد 1
حاکم 1
واں 1
دہ@@ 1
ناصر 1
نشر 1
ٰ@@ 1
سوسائٹی 1
مص@@ 1
نیم 1
کیوبک 1
کولوراڈو 1
wiki 1
استنبول 1
90 0.7661900574522044
سنسکرت 1
ٹل 1
فرمائی 1
يہ 1
گل@@ 1
حر@@ 1
لينڈ 1
امید 1
انڈونیشیا 1
جسمانی 1
text 1
تحقیقی 1
رون 1
فار@@ 1
گیارہ 1
رسائی 1
عشق 1
افسر 1
فائنل 1
فرزند 1
فیصلے 1
ود 1
کش@@ 1
سکندر 1
نیوز 1
سين 1
آسٹریلوی 1
افریقی 1
سلی@@ 1
وکٹوریہ 1
راس 1
قبر 1
تیسرا 1
خیالات 1
اصلاحات 1
حکمرانوں 1
محنت 1
مشن 1
مقاصد 1
شاندار 1
عائشہ 1
1,0@@ 1
رہنماؤں 1
قلم 1
Rural 1
اسکواڈ 1
رب 1
کلا@@ 1
بیک 1
شاگرد 1
پیغام 1
اکرم 1
سمجھ 1
ولیم 1
پڑھنے 1
کمار 1
بِ@@ 1
نہ@@ 1
2005 0.22888618136593153
رومانیہ 1
غرض 1
نوٹ 1
بمطابق 1
نک 1
يا 1
کامل 1
فون 1
ممکنہ 1
حساب 1
اوریگون 1
رواج 1
دعوی 1
ارادہ 1
سپر 1
انڈيانا 1
چر@@ 1
امیدوار 1
عزت 1
سہ@@ 1
سیر 1
فرقہ 1
گان 1
لائی 1
لس 1
محلہ 1
مہر 1
جانشین 1
زا 1
تعارف 1
ہیمپشائر 1
2009ء 1
شا@@ 1
وز@@ 1
ٹینیسی 1
معاملہ 1
توڑ 1
اصحاب 1
جناح 1
امتحان 1
اِن 1
شاہ@@ 1
باضابطہ 1
32 0.789929652804861
سون@@ 1
نازل 1
حوصلہ 1
محدث 1
2004 0.2371448536401733
وزن 1
زیارت 1
کٹ@@ 1
رَ@@ 1
سول 1
امین 1
گروہوں 1
آندھرا 1
فوری 1
2012ء 1
revision 1
اعتراف 1
اتا 1
لکھ 1
33 0.9882440998925045
wikitext 1
داس 1
معاملے 1
نش@@ 1
نارتھ 1
بم 1
چلنے 1
ڈیل 1
3.@@ 1
پن 1
یہود 1
داؤد 1
سکور 1
صدیق 1
1990 0.32095012593522637
اطالوی 1
ط 1
لکھ@@ 1
ٹری 1
تبلیغ 1
مقدمہ 1
ناقابل 1
پہاڑوں 1
تقریب 1
ﻣ@@ 1
داروں 1
اؤں 1
خطوط 1
شدت 1
گوئی 1
رائ@@ 1
ڈرامے 1
اوہائيو 1
علماء 1
قادری 1
داد 1
ارب 1
دیوار 1
پیپلز 1
چا 1
رقص 1
کرم 1
کوم@@ 1
اچھا 1
پرورش 1
اسٹی@@ 1
عراقی 1
2020ء 1
قریش 1
پڑی 1
بلدیات 1
پیری 1
2007ء 1
زراعت 1
تصوف 1
بان@@ 1
زر 1
ندر 1
اروں 1
بھگ 1
پڑتا 1
اؤ 1
2010ء 1
کارکن 1
27@@ 1
شرف 1
T@@ 0.1900913934164198
پانچویں 1
‎ 1
300 0.8802200805094502
دي@@ 1
عبرانی 1
َ 1
خاندانی 1
شک 1
صنعتی 1
مساوات 1
الو@@ 1
اون@@ 1
منافع 1
بنگالی 1
جرم 1
عم@@ 1
مس 1
پشتو 1
مداخلت 1
مشورہ 1
منصور 1
گون@@ 1
ہوگئیں 1
عبور 1
لگتا 1
انصاری 1
مکان 1
ڈیزائن 1
گھنٹے 1
23@@ 1
ye 1
4.@@ 1
مذاہب 1
5.@@ 1
دری 1
امت 1
جنت 1
بوسنیا 1
township 1
پار 1
پریس 1
کیفیت 1
زار 1
اچھے 1
غزوہ 1
نبوی 1
پا@@ 1
چارلس 1
گری 1
ہارون 1
کروں 1
ﻮ@@ 1
نز@@ 1
ائن 1
سوی@@ 1
کوں 1
انور 1
انڈ@@ 1
تم@@ 1
ملکیت 1
a 0.005067992025238545
عل@@ 1
نکاح 1
بڑھا 1
ترا@@ 1
تہران 1
رک 1
نیک 1
مو 1
36 0.9561761632587713
امارات 1
حامی 1
سٹن 1
وصول 1
34 1
ممبر 1
1@@ 1
بچ 1
مول@@ 1
6.@@ 1
الن@@ 1
تار@@ 1
روزنامہ 1
دائرہ 1
ؤں 1
اك@@ 1
مونٹانا 1
گنی 1
30@@ 1
وسائل 1
اٹھایا 1
* 0.26602198824513795
28@@ 1
اسٹیڈیم 1
ریاستیں 1
مرحوم 1
فرما 1
کھو 1
گھرانے 1
اقتصادی 1
کاروباری 1
زئی 1
میہ 1
7,@@ 1
زون 1
مری 1
گرو 1
1947ء 1
الينوائے 1
فہ 1
ناموں 1
لَ@@ 1
آکر 1
نے@@ 1
ست 1
لار@@ 1
لبنان 1
جنگل 1
ساتھیوں 1
لن@@ 1
چندر 1
گوشت 1
ایل@@ 1
سادہ 1
شراکت 1
عمان 1
مرض 1
s 0.08391243701685225
دیہی 1
ماسٹر 1
پرچم 1
سور@@ 1
عمومی 1
نوعیت 1
چالیس 1
آور 1
رومن 1
پرانی 1
2006ء 1
اتحادی 1
سسٹم 1
كر@@ 1
ُ 1
29@@ 1
مقبرہ 1
اخلاق 1
الحسن 1
باب@@ 1
پن@@ 1
پہچان 1
خراب 1
سبھا 1
ماسکو 1
یقینی 1
وفد 1
ٹوں 1
ہیڈ 1
خالی 1
مقبولیت 1
الف 1
الف@@ 1
بحریہ 1
شائر 1
فَ@@ 1
نشین 1
دمشق 1
سنا 1
مانی 1
بھائیوں 1
انس@@ 1
فضائی 1
امتیاز 1
امی 1
برازیل 1
برقی 1
رحمہ 1
پریفیکچر 1
چاندی 1
کنیت 1
کیسے 1
The 0.011988685841767082
آرٹ 1
اعزازات 1
شعرا 1
ران 1
طبیعیات 1
قابو 1
نر@@ 1
چینل 1
فا@@ 1
پانے 1
75 1
دور@@ 1
مین@@ 1
تباہی 1
دکھایا 1
ویل@@ 1
چوتھی 1
کثرت 1
گرام 1
گیس 1
آسانی 1
اسک@@ 1
بڑھتی 1
گن@@ 1
بائی 1
گرا@@ 1
آدم 1
ترمیم 1
ماتحت 1
میڈیکل 1
کئے 1
آغا 1
تش@@ 1
محاصرہ 1
وآلہ 1
یحییٰ 1
زے 1
پھی@@ 1
پیغمبر 1
رائج 1
پول@@ 1
انسانوں 1
بلیک 1
دکن 1
زن 1
آپس 1
ازبکستان 1
جیمز 1
ضرور 1
لم 1
ہند@@ 1
جمہوری 1
ڈیم 1
بچہ 1
رمضان 1
مانا 1
پڑھا 1
آمدنی 1
خوشی 1
کریک 1
بستی 1
26@@ 1
بد 1
دست 1
پچاس 1
گناہ 1
ہوجاتا 1
سفیر 1
شور 1
وعدہ 1
یہیں 1
احترام 1
عناصر 1
علمائے 1
ملا@@ 1
ٹرز 1
عقیدہ 1
مے 1
نبوت 1
55 1
برف 1
نمائش 1
بت 1
سیف 1
زرعی 1
گول 1
38 0.9607354855276404
افریقا 1
فارغ 1
فوجوں 1
مواقع 1
2003 0.24589032830628416
بازو 1
جہلم 1
فر 1
مسترد 1
مینار 1
ٹیکس 1
2004ء 1
وجوہات 1
جنوبي 1
خطہ 1
رسالہ 1
ڈر@@ 1
الاسلام 1
جوہر 1
مستحکم 1
بھٹو 1
تَ@@ 1
انٹرنیٹ 1
روابط 1
ٹک 1
سوا 1
سپرد 1
ریس 1
ویلی 1
انانکارپوریٹڈ 1
دودھ 1
دہلوی 1
سمت 1
خو@@ 1
مجمع 1
42 1
اوکلاہوما 1
یون@@ 1
بچ@@ 1
تقریر 1
رکھنا 1
عَ@@ 1
شب 1
منفرد 1
کھڑا 1
بندرگاہ 1
تنظیموں 1
یس 1
سکھوں 1
ویڈیو 1
بھاگ 1
تنازع 1
ظفر 1
جنگوں 1
وت 1
چن 1
رحمت 1
منزل 1
پارلیمان 1
آسمان 1
اشیاء 1
سوم 1
سے@@ 1
یے 1
بحال 1
دوسروں 1
وان@@ 1
7.@@ 1
خصوصیت 1
دیکھیے 1
اٹھا 1
تحقیقات 1
سُ@@ 1
گائے 1
حکومتی 1
کلاسیکی 1
اسپین 1
ڈیرہ 1
an 0.018555344134817863
اف 1
بادشاہت 1
رسوخ 1
فوراً 1
معیاری 1
بارش 1
دیوان 1
طاقتور 1
8.@@ 1
سرگرم 1
مرا@@ 1
ایوب 1
باہمی 1
معین 1
ؑ 1
ایڈیشن 1
بیرون 1
رابطہ 1
8,@@ 1
37 1
جانتے 1
فاتح 1
پوسٹ 1
بحالی 1
نان 1
یروشلم 1
کہتا 1
متن 1
غم 1
ہا@@ 1
ﺑ@@ 1
خان@@ 1
عالیہ 1
پڑھ 1
ادائیگی 1
جار@@ 1
مساجد 1
وسی 1
ملکوں 1
بح@@ 1
بصرہ 1
بنانا 1
دیوبند 1
سلا@@ 1
سماج 1
مورخین 1
تعلیمات 1
یوکرین 1
1990ء 1
افسانہ 1
محبوب 1
ہسپانیہ 1
2002 0.228968496987007
پہنچی 1
کابینہ 1
تصاویر 1
فعال 1
سور 1
وصال 1
ٰی 1
فعل 1
لکڑی 1
لگ@@ 1
اولین 1
راضی 1
وش@@ 1
لائبریری 1
نق@@ 1
ولا@@ 1
2005ء 1
راج@@ 1
فری 1
لڑکے 1
چودہ 1
شامی 1
آب@@ 1
عصر 1
لڑکیوں 1
پاكستان 1
جغرافیائی 1
لڑنے 1
اخذ 1
تور@@ 1
جاوید 1
خواہ 1
داستان 1
پلا@@ 1
1980 0.34166963077622786
اٹھ@@ 1
مرکوز 1
پھول 1
فراہمی 1
تع@@ 1
حیرت 1
پڑ 1
چکوال 1
کری 1
الملک 1
محاذ 1
اشرف 1
صدارتی 1
قرض 1
متبادل 1
24@@ 1
نشست 1
چیئرمین 1
کاس@@ 1
شار@@ 1
ماس@@ 1
گاڑی 1
بیٹنگ 1
کاؤنٹیاں 1
سفیان 1
عی 1
فرو@@ 1
چیت 1
شہ@@ 1
صدیقی 1
طلاق 1
47 1
65 0.6756049160874629
وری@@ 1
گنا 1
ائمہ 1
تنگ 1
جذبات 1
جل@@ 1
سنیما 1
عارضی 1
رضوی 1
44 0.8931999588189852
بحرین 1
لیتا 1
مشرف 1
وز 1
پسندوں 1
کھی@@ 1
زیریں 1
قطر 1
بون@@ 1
ربیع 1
قبائلی 1
نیل 1
جگ@@ 1
تس@@ 1
راجہ 1
سعود 1
منایا 1
باتیں 1
عربوں 1
أَ@@ 1
بیل 1
روی 1
مہیا 1
کالم 1
میر@@ 1
ایکٹ 1
تنازعات 1
منصب 1
منفی 1
48 0.9951445819411175
52 1
سلم 1
شراب 1
فخر 1
ﺍ@@ 1
خشک 1
موسی 1
بان 1
جمعہ 1
طریقوں 1
ٹوٹ 1
حالیہ 1
ہوجاتی 1
اٹک 1
جوہری 1
ملائیشیا 1
9,@@ 1
9.@@ 1
جوش 1
فرض 1
لِ@@ 1
لگانے 1
نوا@@ 1
عمدہ 1
ومی 1
39 1
ڈچ 1
کپور 1
گار 1
پیار 1
ہیرو 1
41 1
آتش 1
اتحادیوں 1
محروم 1
مور 1
کروایا 1
گیم 1
اڈے 1
زم 1
0.@@ 1
زي@@ 1
فرا@@ 1
مہاجرین 1
نکلا 1
ویتنام 1
اخبارات 1
اسلحہ 1
خاک 1
خوراک 1
عقیدت 1
ہوا@@ 1
راوی 1
مشي 1
ونی@@ 1
ڈین 1
فور@@ 1
پھانسی 1
حسب 1
پردہ 1
بائبل 1
کوس@@ 1
دانوں 1
43 1
سرور 1
آرٹس 1
بہاؤ 1
تہوار 1
فوت 1
لنگ 1
بمبئی 1
جنازہ 1
واٹر 1
2021ء 1
واقعے 1
سمندری 1
العزیز 1
خارج 1
شہ 1
عبید 1
وائرس 1
تیرہ 1
چاروں 1
58 1
الخ@@ 1
ناٹ 1
ٹاونشپ 1
آئینی 1
بھرپور 1
علیحدگی 1
ود@@ 1
ڈالی 1
برداشت 1
برسوں 1
بٹ 1
ساتویں 1
ظاہری 1
اُسے 1
جماعتوں 1
شمسی 1
فنون 1
سورت 1
عسکری 1
لازمی 1
پوزیشن 1
ﺟ@@ 1
دفاعی 1
ریت 1
شن@@ 1
گلی 1
حرام 1
رحمۃ 1
34@@ 1
بول@@ 1
سہولت 1
تعینات 1
نعت 1
شاہراہ 1
صالح 1
آلات 1
اختیارات 1
ث 1
مارکیٹ 1
میوزک 1
400 0.7535673041877495
منورہ 1
بحران 1
ٹي 1
پان@@ 1
ڈالنے 1
احکام 1
اني 1
بت@@ 1
سرے 1
مپ@@ 1
گلوکار 1
ائر 1
آنکھوں 1
ریجنل 1
گزر 1
ایک@@ 1
جگہوں 1
زین 1
فائ@@ 1
منظوری 1
گویا 1
شاہد 1
عبدالرحمن 1
عیسائی 1
وقف 1
انت@@ 1
سوچ 1
ابشار 1
بادشاہوں 1
ناروے 1
کیمپ 1
کیو 1
ایجاد 1
گرامی 1
46 1
سین@@ 1
ماخذ 1
نمونہ 1
پنسلوانيا 1
1945 0.32796313643844843
حارث 1
حضرات 1
سولہ 1
سٹر 1
کالونی 1
صوبهٔ 1
وہ@@ 1
2001 0.20967101462940319
محقق 1
دلیل 1
پھیلا 1
صی@@ 1
طبقے 1
القرآن 1
مقابلوں 1
85 1
دراز 1
چیک 1
33@@ 1
54 1
اخلاقی 1
انِ 1
ایوارڈز 1
ایڈیٹر 1
باشندے 1
خانقاہ 1
57 1
جہ@@ 1
میوزیم 1
آصف 1
ئي 1
مخ@@ 1
یعقوب 1
محرم 1
ﺳ@@ 1
سك@@ 1
ظہور 1
عجائب 1
مِ@@ 1
جرائم 1
جہازوں 1
کیلئے 1
بجے 1
نسخہ 1
ٹائ@@ 1
گاوں 1
نژاد 1
جم@@ 1
کپڑے 1
پلی@@ 1
گانا 1
مفہوم 1
روپ 1
سادات 1
عمر@@ 1
ہفتہ 1
الے 1
خرچ 1
ریوں 1
قط@@ 1
مصنفین 1
چیزوں 1
صلح 1
چاہے 1
95 1
ھی 1
ﺎ 1
2000ء 1
جوان 1
مک 1
ﻧ@@ 1
الک@@ 1
گھوڑے 1
ref 1
ریا 1
في 0.11286744108022456
عبدالعزیز 1
عصمت 1
مبتلا 1
مثبت 1
پون@@ 1
پیروی 1
آفس 1
ران@@ 1
رُ@@ 1
صحافت 1
جیتنے 1
رجحان 1
مادہ 1
پک@@ 1
2002ء 1
انو 1
بَ@@ 1
تنازعہ 1
مراکز 1
مڈل 1
وبا 1
فیروز 1
مریم 1
پہ@@ 1
ارد 1
شرائط 1
فطرت 1
پٹ@@ 1
ءمیں 1
زو@@ 1
عمرؓ 1
آرمینیائی 1
ورانہ 1
بول 1
سارا 1
سي 1
ڈری@@ 1
انعقاد 1
راک 1
سوں 1
لڑی 1
کُ@@ 1
1980ء 1
کم@@ 1
ائیوں 1
تجزیہ 1
تہ@@ 1
ریاض 1
فرمان 1
مشکلات 1
مظفر 1
ٹرافی 1
ٹنگ 1
گراؤنڈ 1
اما 1
تالیف 1
سپریم 1
ماد@@ 1
ارے 1
خر@@ 1
محیط 1
کاشت 1
ﯿ@@ 1
انس 1
تری@@ 1
طاقتوں 1
فار 1
میساچوسٹس 1
گریجویشن 1
انگلش 1
سویڈن 1
مون 1
سپی@@ 1
ائل 1
ابوبکر 1
دلی 1
سلو@@ 1
مذکورہ 1
کوئٹہ 1
لائنز 1
کیپ 1
فلسطینی 1
تازہ 1
خاندانوں 1
ستی 1
قاری 1
يو@@ 1
53 1
سنچریاں 1
شری 1
علی@@ 1
کرناٹک 1
کرنل 1
فاؤنڈیشن 1
منڈی 1
نجات 1
امکان 1
بلی 1
کیتھولک 1
ہول@@ 1
ہوم 1
یار@@ 1
الص@@ 1
پروڈیوسر 1
49 1
ئم 1
بون 1
حرف 1
انڈر 1
eh 1
دری@@ 1
61 1
انیسویں 1
تن 1
... 0.29049310467643996
سبز 1
to 0.00496124612222737
المعروف 1
پسندی 1
کرداروں 1
ایجنسی 1
تک@@ 1
ورا@@ 1
کلکتہ 1
استفادہ 1
ترجیح 1
سینئر 1
قصبے 1
مشاہدہ 1
منگ 1
مينيسوٹا 1
56 1
وٹ 1
اط@@ 1
پیٹ 1
کویت 1
اطراف 1
تیمور 1
جہانگیر 1
راجپوت 1
شعبوں 1
2001ء 1
عوض 1
ہان 1
افسران 1
انگیز 1
رہنمائی 1
سک 1
صلاحیتوں 1
25@@ 1
اقدام 1
مخدوم 1
پل@@ 1
72 1
شعری 1
صفحہ 1
وقار 1
علاحدہ 1
ّ 1
تبادلہ 1
رشید 1
مجموعے 1
لیہ 1
نم@@ 1
وکیل 1
افزائی 1
تیلگو 1
سفارتی 1
طاہر 1
کیچ 1
فنی 1
مذاکرات 1
51 1
اجتماعی 1
باد 1
بوس 1
دیکھی 1
زب@@ 1
مسیحیت 1
چوتھے 1
صد 1
وارث 1
2003ء 1
مرحلے 1
اٹھارہ 1
بروز 1
زمینی 1
سافٹ 1
قیس 1
پورہ 1
دخل 1
رسمی 1
ري 1
ریسرچ 1
اين 1
بدولت 1
فاصلہ 1
ہیلی 1
بیٹھے 1
حکومتوں 1
انفرادی 1
سرحدی 1
لہٰذا 1
بچانے 1
وکٹوں 1
گولی 1
64 0.7038578678965502
الر@@ 1
رائل 1
سانتا 1
سون 1
طبقہ 1
بُ@@ 1
ٹیموں 1
پیرو 1
الش@@ 1
برلن 1
بلو@@ 1
ہے- 1
86 1
خرید 1
1970ء 1
بائ@@ 1
بیٹوں 1
زمبابوے 1
ترا 1
ینی 1
سہولیات 1
فتوحات 1
88 1
اضافی 1
مرہ 1
ہائ@@ 1
آرام 1
سورہ 1
انٹرویو 1
دیوتا 1
سرو@@ 1
مغ@@ 1
کوششیں 1
— 0.026439045839385517
خیز 1
نائ@@ 1
نگی 1
ہتھیاروں 1
اراکین 1
فورسز 1
عارف 1
دماغ 1
ستر 1
سرا@@ 1
فض@@ 1
قدیمہ 1
ْ@@ 1
آرڈر 1
قسطنطنیہ 1
گیر 1
ہيں 1
اچانک 1
نان@@ 1
احاطہ 1
سعادت 1
فاضل 1
اترپردیش 1
ترکوں 1
شہزادی 1
قرون 1
مرشد 1
پاس@@ 1
1970 0.3131119510722145
68 1
87 1
الز@@ 1
L@@ 0.1308050204489077
لمبائی 1
لہ@@ 1
مہمان 1
پبلک 1
کٹر 1
حمید 1
ڑہ 1
فاروق 1
درمیانی 1
کشن 1
عجیب 1
درا@@ 1
سفارت 1
عمری 1
پچھلے 1
کات@@ 1
1992 0.2596315737341493
66 1
سلمان 1
پاؤں 1
96 1
انکا 1
بالخصوص 1
بیٹھ 1
تلوار 1
دي 1
چشتی 1
1991 0.2666991985681382
تناسب 1
جاسکے 1
جغرافیہ 1
جمہوریت 1
سالار 1
لات 1
1948ء 1
1999 0.20924439556171995
باؤلنگ 1
باغی 1
بنتا 1
متوفی 1
گیری 1
بوں 1
مظہر 1
ٹاور 1
ورثہ 1
پرویز 1
اتنے 1
اوی@@ 1
جوزف 1
سنائی 1
فقیہ 1
جر 1
ٹور@@ 1
چوٹی 1
چوں 1
کرنی 1
انحصار 1
محمد@@ 1
نیو@@ 1
اء 1
امیہ 1
درہ 1
رنگ@@ 1
شرط 1
آن@@ 1
علي 1
فت@@ 1
موبائل 1
نت@@ 1
اطلاعات 1
زیاد 1
چترال 1
الحدیث 1
سترہ 1
مذکور 1
پکڑ 1
ہاشم 1
یونس 1
ایام 1
سکونت 1
طبع 1
لغت 1
میگزین 1
ٹرو@@ 1
63 1
جاسکتی 1
جسٹس 1
ہندوؤں 1
تخ@@ 1
تعالی 1
داخلی 1
اکی@@ 1
حرم 1
سلامتی 1
کہلاتے 1
منی@@ 1
چلانے 1
قریشی 1
قیامت 1
پڑ@@ 1
آگیا 1
ریٹائرمنٹ 1
عظمت 1
مورخ 1
کہانیاں 1
1960 0.3373317078280325
99 1
بہاولپور 1
سل 1
شافعی 1
شیو 1
ﺮ@@ 1
دُ@@ 1
ماہی 1
62 1
تج@@ 1
سیالکوٹ 1
عقل 1
عیسیٰ 1
محسن 1
نوجوانوں 1
تل@@ 1
1950 0.36801817884390725
دِ@@ 1
صدارت 1
مدیر 1
92 1
تیر 1
جملہ 1
دان@@ 1
شر 1
ضبط 1
Municipality 1
دست@@ 1
قدرت 1
زمان 1
صنف 1
طوفان 1
عر@@ 1
غزنوی 1
مراٹھی 1
سول@@ 1
بناتے 1
بھال 1
وسكونسن 1
ئیر 1
اوا 1
بیسویں 1
ذہن 1
فرید 1
فضائیہ 1
مزاحیہ 1
آی@@ 1
الخط 1
طی@@ 1
ٹيكساس 1
تری 1
حفظ 1
ہوسکتا 1
67 1
ناظم 1
1947 0.49947417599289234
باللہ 1
رت 1
لسانی 1
نہر 1
آنکھ 1
غ 1
فورٹ 1
مزاج 1
پوجا 1
کرد 1
کہاں 1
گرما 1
اغ@@ 1
زیب 1
پال@@ 1
پٹی 1
جائز 1
وارڈ 1
پرانا 1
93 1
قدمی 1
نڈر 1
بدلے 1
تکلیف 1
جام 1
ساخت 1
في@@ 1
لاکھوں 1
میت 1
اسکولوں 1
الغ@@ 1
مدار 1
آرمینیا 1
مسند 1
1999ء 1
ذخیرہ 1
شہاب 1
مبینہ 1
گلگت 1
ایڈاہو 1
جایا 1
فضا 1
نامے 1
ویک 1
گنگا 1
ہل@@ 1
جنگجو 1
دامن 1
زبیر 1
غی@@ 1
150 0.8452277067976107
اعمال 1
قیاس 1
77 1
جام@@ 1
جہ 1
رابرٹ 1
سیریل 1
عید 1
اؤ@@ 1
تمہیں 1
دون@@ 1
74 1
بیش 1
سیکرٹری 1
فرینکلن 1
ڈیوڈ 1
گیٹ 1
جارجيا 1
سنی@@ 1
نگاہ 1
وائی 1
پھل 1
ڈراموں 1
73 1
سری@@ 1
پلیٹ 1
کنیکٹیکٹ 1
اجداد 1
مات@@ 1
گزار 1
امان 1
اوراس 1
مرنے 1
راجستھان 1
کلو@@ 1
امراض 1
سیاحت 1
عثمانیوں 1
98 1
۱@@ 1
اڑ@@ 1
ایکشن 1
سرپرستی 1
صفر 1
نصب 1
چیزیں 1
یونٹ 1
59 1
قاہرہ 1
لنکن 1
مغربي 1
نکلے 1
يارك 1
جنگلات 1
سیٹ 1
مصنوعات 1
ڈبلن 1
ہوسکتی 1
الْ@@ 1
بھیجے 1
ضیاء 1
ولہ 1
کہانیوں 1
جنکشن 1
نظامی 1
کارکنوں 1
1998ء 1
97 1
چیمپئن 1
کشتی 1
یر@@ 1
1998 0.21472514490182518
ورہ 1
یسوع 1
امہ 1
جون@@ 1
دہائیوں 1
مغلیہ 1
نفس 1
ولید 1
یل@@ 1
اوری@@ 1
حی 1
ورجينيا 1
کشمیری 1
ہوچکی 1
ریو 1
زوں 1
فورا 1
ویئر 1
کلی 1
یکساں 1
1960ء 1
دیہات 1
سرد 1
نت 1
ٹائم 1
کبیر 1
ھا 1
76 1
طر@@ 1
پڑھی 1
ﮐﮯ 1
اصولوں 1
اطالیہ 1
تلامذہ 1
خالص 1
خلیل 1
دِ 1
78 1
اچ@@ 1
متحد 1
ورو 1
وي 1
پتی 1
83 1
اختلافات 1
اخراجات 1
روزانہ 1
نین 1
84 1
تعین 1
جي@@ 1
سمجھنے 1
شین 1
قفقاز 1
کینیا 1
گنبد 1
03 1
Q@@ 0.5384714366202569
خراج 1
سلمہ 1
ضروریات 1
ماخوذ 1
پنج@@ 1
کمان 1
خانوں 1
لمبی 1
مرے 1
مفید 1
ں@@ 1
یور@@ 1
» 0.020857701814902894
اننگ 1
تب@@ 1
سازش 1
ژاں 1
گلیشیر 1
گہری 1
برا 1
ترو@@ 1
کمپنیوں 1
d 0.07226848859973488
باغیوں 1
سرکار 1
لیتی 1
منصوبوں 1
ڈھانچے 1
بقول 1
خام 1
کوی@@ 1
89 1
94 1
نوری 1
کیمیائی 1
تابعین 1
جزوی 1
عرف 1
ٹیک 1
چھٹی 1
گزشتہ 1
گول@@ 1
جوا@@ 1
ماہنامہ 1
آنا 1
خاموش 1
سبھی 1
عمارتوں 1
فل 1
پائ@@ 1
ڈیٹا 1
district 0.24691257310554235
دوستی 1
عنصر 1
خطرے 1
سڈنی 1
لسٹ 1
نوآبادیاتی 1
کھیلتے 1
آٹھویں 1
انتہا 1
بچنے 1
ذوق 1
شعور 1
فحش 1
لک 1
موہن 1
پو 1
کوا@@ 1
اصلی 1
بالائی 1
رفتہ 1
عہدوں 1
غالباً 1
لون@@ 1
مط@@ 1
ﻠ@@ 1
ابی@@ 1
سوائے 1
سورۃ 1
معمول 1
نفرت 1
بگ 1
دیئے 1
صلاح 1
عب@@ 1
مربوط 1
لاک 1
کونسلیں 1
گہرا 1
الحال 1
تف@@ 1
رک@@ 1
مِ 1
پرواز 1
مذمت 1
مہینوں 1
ورژن 1
1,4@@ 1
لارڈ 1
نگٹن 1
پشتون 1
انصار 1
فسادات 1
انڈسٹری 1
راز 1
ساحلی 1
سوشل 1
قرارداد 1
ليك 1
پریشان 1
چودھری 1
اہلیہ 1
ریٹائر 1
لگائے 1
1ھ 1
انتداب 1
وین@@ 1
82 1
ذہنی 1
شروعات 1
صارفین 1
کھو@@ 1
ہرات 1
69 1
81 1
ایلن 1
سینکڑوں 1
کیس 1
تاجر 1
تجربات 1
سنگ@@ 1
سپاہی 1
غلطی 1
فیئر 1
71 1
اکائی 1
جلا 1
رن@@ 1
چھوڑنے 1
جہان 1
سَ@@ 1
پوتے 1
کین@@ 1
ئل 1
بلایا 1
دستاویزات 1
علوی 1
قلب 1
کاٹ 1
میڈیسن 1
United 0.09412400590377332
ابوال@@ 1
خلائی 1
پھیلی 1
ہنری 1
1989 0.26340636646947074
شری@@ 1
آفتاب 1
امامت 1
تلفظ 1
ولے 1
گرانٹ 1
انتظار 1
تحریری 1
تدفین 1
مز 1
پہنچایا 1
چوک 1
1997 0.22080448169545436
مشیر 1
نمائندہ 1
ویر 1
یان 1
بسر 1
میزبانی 1
یوگنڈا 1
حتمی 1
شوکت 1
کت@@ 1
تھامس 1
کلارک 1
گلوکارہ 1
ہوچکا 1
ارجنٹائن 1
الزامات 1
بابر 1
رم 1
سرگودھا 1
میجر 1
ہن@@ 1
تي 1
دشمنی 1
اُردو 1
حلقوں 1
واقف 1
گز 1
گھاٹ 1
1,6@@ 1
امارت 1
مدارس 1
پڑھتے 1
کوب@@ 1
تح@@ 1
جج 1
رِ@@ 1
زاد 1
سونا 1
لطف 1
پلے 1
ہرزیگووینا 1
ادھر 1
برآمد 1
بھو@@ 1
توپ 1
باتوں 1
بط@@ 1
جم 1
آئی@@ 1
خزانہ 1
اموات 1
ایلی@@ 1
وچ 1
ٹز 1
پوپ 1
minor 1
ادہ 1
فا 1
ہٹلر 1
ﺭ@@ 1
ابھ@@ 1
جل 1
ﮯ 1
سمجھے 1
چاہئے 1
حلقے 1
ریز 1
ڈنگ 1
1992ء 1
جیفرسن 1
ہفتے 1
1940 0.3686123404554106
ایشیاء 1
حیاتیات 1
نصیر 1
یہودیت 1
بھرتی 1
تار 1
تمہاری 1
نَ@@ 1
کالا 1
کالی 1
تقی 1
تھوڑی 1
ستارے 1
معاشیات 1
يَ@@ 1
رہنا 1
پچیس 1
ﻨ@@ 1
1950ء 1
شکر 1
مساوی 1
ٹائمز 1
کھڑی 1
municipality 0.7674500693238085
آگاہ 1
احد 1
اسلوب 1
الیہ 1
سمجھی 1
ہاکی 1
اسلم 1
غلامی 1
کرسکتے 1
1996 0.21347257146108814
انسانیت 1
جمعیت 1
ويل 1
الدين 1
انجن 1
علا@@ 1
میڈ@@ 1
پیٹر 1
اولمپکس 1
جاؤ 1
دستور 1
يك@@ 1
پرتگالی 1
گان@@ 1
ہمارا 1
این@@ 1
بولتے 1
قائل 1
یک@@ 1
ادوار 1
اپنایا 1
بزرگوں 1
بش@@ 1
رانا 1
فیڈریشن 1
مرکب 1
ناکامی 1
وسعت 1
جوڑے 1
١@@ 1
91 1
A 0.04772673597944257
جاکر 1
پت 1
کمرے 1
آز@@ 1
دوستوں 1
1918 0.44269025633470893
الیکشن 1
اوس@@ 1
سیل 1
ورزی 1
کینٹ 1
ﻭ@@ 1
بلتستان 1
میزائل 1
ڈي@@ 1
یاب 1
مثالیں 1
يل 1
کرا 1
استحکام 1
اصفہان 1
سز@@ 1
فطری 1
لف@@ 1
مالیاتی 1
ٹرین 1
اثنا 1
رنجیت 1
موسیقار 1
79 1
بوس@@ 1
فیس 1
وما 1
ٹي@@ 1
عنایت 1
لیبیا 1
مائل 1
ہاشمی 1
النہار 1
تاب@@ 1
ریاں 1
نثر 1
ﺮ 1
سم 1
ﮐ@@ 1
انو@@ 1
ڈھاکہ 1
کارپوریشن 1
05 1
دوا 1
رول 1
مسٹر 1
ar 0.11872919027843834
بلقان 1
حجر 1
کہلاتی 1
الاسکا 1
الحاق 1
اٹ 1
توقع 1
قیمتی 1
ملوث 1
منتقلی 1
ير 1
ڈاک 1
ہوچکے 1
افضل 1
اڈ@@ 1
اگلی 1
بٹلر 1
موقف 1
گراف 1
تراجم 1
محققین 1
مری@@ 1
نگا 1
کانگ 1
پیرش 1
کرہ 1
گایا 1
ریٹ 1
لک@@ 1
مراحل 1
مسافر 1
چک@@ 1
گرینڈ 1
1997ء 1
رکھ@@ 1
والہ 1
دیکھے 1
پریمیئر 1
اوی 1
تحریروں 1
غلبہ 1
لوئس 1
ندا 1
چون@@ 1
گرجا 1
ہوٹل 1
1993 0.22941311147417853
تسلط 1
خطیب 1
داد@@ 1
نذر 1
ٹھیک 1
02 1
الام@@ 1
نظریاتی 1
ڈون@@ 1
آسام 1
اوران 1
بازنطینی 1
جیک 1
ذی 1
عن@@ 1
مارکس 1
مثلا 1
ملت 1
کرمان 1
کلیسیا 1
ترقیاتی 1
دسویں 1
شجرہ 1
ملی@@ 1
يت 1
علامات 1
لکھیں 1
پرائمری 1
چکر 1
تیرے 1
جوڑ 1
روزگار 1
مایا 1
1920 0.38530709417747405
بادشاہی 1
مات 1
مینی@@ 1
گیلانی 1
بیر@@ 1
جیو 1
قدامت 1
قص@@ 1
مستعمل 1
موثر 1
کارروائیوں 1
اضافے 1
تیری 1
لارنس 1
موضع 1
وائیومنگ 1
شک@@ 1
مع 0.8546997411445932
ولایت 1
آپ@@ 1
خطرناک 1
ساوتھ 1
طارق 1
نصاب 1
کپتانی 1
States 0.12195373673711417
امجد 1
اونٹ 1
دیہ 1
مند@@ 1
مچھلی 1
06 1
تخمینہ 1
جلدوں 1
حجاز 1
نمودار 1
واس 1
لیکر 1
کیرئیر 1
گزرنے 1
1993ء 1
Ohio 0.6996184080133444
اسی@@ 1
سروے 1
سوڈان 1
قم 1
چند@@ 1
قیدیوں 1
کاک@@ 1
1971ء 1
ایکسپریس 1
شرعی 1
طیارے 1
گرفتاری 1
1996ء 1
انیوں 1
جنگجوؤں 1
قربانی 1
مث@@ 1
نفاذ 1
sur 0.0446832755906734
الٰہی 1
بع@@ 1
ستارہ 1
قد 1
مانتے 1
میری@@ 1
نکالا 1
المومنین 1
بحیثیت 1
جدا 1
دیکھیں 1
كو 1
مریض 1
مشغول 1
ناز 1
کارڈ 1
600 0.8616579958676186
الان@@ 1
سود 1
مسلک 1
ندہ 1
نقشہ 1
یوٹاہ 1
on 0.00926130221986997
تشریح 1
تي@@ 1
وانی 1
دوب@@ 1
دگی 1
ستاروں 1
سیلاب 1
فوجیں 1
ضرب 1
ہوجائے 1
طبقات 1
میٹرک 1
ناڈو 1
اوبلاست 1
دکھ@@ 1
سختی 1
ماجد 1
چوری 1
ڈان 1
07 1
250 0.9167816642338501
بخارا 1
بقیہ 1
بي 1
ڈس 1
کرائی 1
کعب 1
08 1
ازیں 1
منع 1
مکتب 1
چا@@ 1
ھے 1
ہمہ 1
جد 1
متعین 1
کنی@@ 1
تکنیکی 1
خصوصاً 1
خلفاء 1
روز@@ 1
1941 0.328262460672954
بالترتیب 1
بوجھ 1
بڑھانے 1
قلمی 1
قو@@ 1
1,3@@ 1
تعالٰی 1
ٹیاں 1
کھول 1
تاجکستان 1
جبل 1
رحیم 1
کلنٹن 1
ﻤ@@ 1
1988ء 1
} 1
تحلیل 1
حامد 1
مدنی 1
مقالہ 1
مکی 1
ہمت 1
ہٹا 1
1,8@@ 1
روا@@ 1
نون 1
ہرا 1
جب@@ 1
رسالت 1
لکھنا 1
مجاہدین 1
کمی@@ 1
افسانے 1
بہتری 1
حمد 1
طریقت 1
فقیر 1
نقش 1
تائید 1
طلباء 1
مسئلے 1
گرا 1
گز@@ 1
باد@@ 1
لمبے 1
مزدور 1
ٹین 1
پایہ 1
800 0.86252348878978
انچ 1
فرنٹ 1
لون 1
کرشن 1
1,7@@ 1
جذبہ 1
كار@@ 1
وابستگی 1
کیمبرج 1
1988 0.2471664774424884
جلاوطنی 1
خلیات 1
صاحبزادے 1
کرن 1
کیلی 1
سیا 1
ورنہ 1
کرانے 1
1977ء 1
اصرار 1
بلاک 1
ساٹھ 1
ماری@@ 1
04 1
البم 1
مریخ 1
چوہدری 1
ڈنمارک 1
اورنگ 1
رئیس 1
لیڈر 1
ملازم 1
01 1
شیا 1
فلکیات 1
مسوري 1
ورمونٹ 1
پڑھائی 1
کیٹ 1
گولڈ 1
بز@@ 1
بھر@@ 1
دشمنوں 1
ستم 1
شکایت 1
لاتے 1
نقاد 1
چراغ 1
1,5@@ 1
آئندہ 1
دیو@@ 1
شت 1
نویں 1
نکلنے 1
09 1
1985ء 1
آسٹریلیائی 1
جنگلی 1
حمزہ 1
رش@@ 1
زینب 1
معرکہ 1
نصیب 1
پیچیدہ 1
الاول 1
اوور 1
بتاتے 1
حقائق 1
خی 1
شیعوں 1
وجے 1
پینے 1
کلمہ 1
راہ@@ 1
کلے 1
2ھ 1
امتیازی 1
اُنہوں 1
سرگرمیاں 1
سزائے 1
مفت 1
اسود 1
منسوخ 1
اث@@ 1
جانتا 1
سرائیکی 1
سکریٹری 1
شیطان 1
فائر 1
is 0.007562788211918326
غز@@ 1
مائیکل 1
مستند 1
1995ء 1
سیکیورٹی 1
لیو 1
ڈپٹی 1
کاپ@@ 1
بڑھ@@ 1
حنفی 1
خوا@@ 1
سمی@@ 1
سنبھال 1
ض 1
عورتیں 1
قواعد 1
نظمیں 1
پابند 1
پٹ 1
ہوجاتے 1
پارلیمانی 1
پوائنٹ 1
چوبیس 1
کھلے 1
h 0.22254768385746482
عد@@ 1
منقسم 1
میلبورن 1
نفسیات 1
وَ 1
باکس 1
عالمگیر 1
اسباب 1
اوب@@ 1
سند@@ 1
صحبت 1
لِ 1
چہرے 1
گروپوں 1
اسٹریٹ 1
رسائل 1
زادہ 1
ڑوں 1
1939 0.3320627952722154
بیڑے 1
ستہ 1
فانی 1
مرید 1
ٹکڑے 1
1971 0.3010106692919799
y 0.008668231409397965
انکشاف 1
دستے 1
رحم 1
ونیا 1
کعبہ 1
1944 0.28921228272400934
1982ء 1
خطبہ 1
پیر@@ 1
کسانوں 1
ہزارہ 1
ﮐﯽ 1
فوائد 1
مجدد 1
مف@@ 1
مونٹ 1
ڈرامہ 1
1989ء 1
name 0.11315845727103896
سکی@@ 1
گنے 1
ﻋ@@ 1
بزنس 1
جاوا 1
رخصت 1
وصیت 1
وِ@@ 1
الرحمٰن 1
سرائے 1
سنگاپور 1
پروڈکشن 1
کاس 1
گرہن 1
براعظم 1
سرگرمی 1
قمر 1
چوتھا 1
ہیم 1
جوں 1
روپیہ 1
مہاراجا 1
یْ@@ 1
« 0.01692929318059263
فرقے 1
کنگ@@ 1
ﮧ 1
اء@@ 1
زو 1
نفسیاتی 1
پین 1
کھل 1
الد@@ 1
دھی 1
مخلوق 1
نازی 1
ير@@ 1
کرائے 1
ہن 1
1995 0.19430239181505862
باس@@ 1
بیمار 1
جز 1
لانگ@@ 1
نیدرلینڈز 1
ڈي 1
ﮨ@@ 1
# 0.40534037095509595
اوهایو 1
تنقیدی 1
خد@@ 1
فرعون 1
نمونے 1
کھلی 1
کیپر 1
ہانگ 1
الو 1
اُنہیں 1
سس 1
سما@@ 1
شہر@@ 1
وئی 1
ویکیپیڈیا 1
پتا 1
یری 1
الدولہ 1
دیستریک 1
قابض 1
منگول 1
1979ء 1
جھنگ 1
دلچسپ 1
دیسی 1
میٹروپولیٹن 1
ناگ@@ 1
نظریے 1
گریڈ 1
1948 0.3525316600802224
ارک 1
اموی 1
قادر 1
لم@@ 1
ڈیلاویئر 1
کانتی 1
93.@@ 1
تنہا 1
راشد 1
رِ 1
سینا 1
سیکنڈ 1
نغمہ 1
ویر@@ 1
گردش 1
ینگ 1
180@@ 1
آگرہ 1
اٹھ 1
اہلِ 1
زد 1
ماحولیاتی 1
موسوم 1
کورس 1
ید 1
ﺩ@@ 1
ابو@@ 1
انت 1
مد 1
درآمد 1
ستانی 1
لہجہ 1
نصر 1
چنا 1
الط@@ 1
امرتسر 1
تیوں 1
قیدی 1
وید 1
ویو 1
کب 1
ایریزونا 1
جائداد 1
دھرم 1
کھلا 1
اغوا 1
تارکین 1
كھ@@ 1
لطیف 1
وک@@ 1
دول@@ 1
سارہ 1
صورتحال 1
قَ@@ 1
مالا 1
مطالعے 1
کھوار 1
120 0.8719816063309698
اصطلاحات 1
العلماء 1
بینڈ 1
مائی 1
ناد@@ 1
پیمائش 1
1974ء 1
استحصال 1
بائیس 1
قصہ 1
اسپتال 1
ایتھوپیا 1
رجب 1
زن@@ 1
غار 1
ہے@@ 1
غربت 1
لیٹ 1
مناظر 1
1994 0.19007861930637812
ترجمان 1
تل 1
جابر 1
دفاتر 1
رویہ 1
سراج 1
شوں 1
لل@@ 0.8619090985489855
مجاہد 1
ندوی 1
چاہتی 1
انج@@ 1
دستاویز 1
عن 0.8159002677937969
فے 1
قل@@ 1
مخالفین 1
ویت 1
ٹاپ 1
پورٹو 1
عذاب 1
میزبان 1
پونچھ 1
پڑھ@@ 1
700 1
ارتقا 1
ایکس 1
باقر 1
دھا 1
ٹیوب 1
گوجرانوالہ 1
احسان 1
بظاہر 1
بلین 1
قندھار 1
مطلق 1
وراثت 1
وکالت 1
اپیل 1
تبدیلیاں 1
توحید 1
مرحلہ 1
پروگراموں 1
ہمایوں 1
ملٹری 1
مي 1
اعوان 1
ایڈورڈ 1
دیواروں 1
رکاوٹ 1
بنائیں 1
ذی@@ 1
ریکو 1
زلزلے 1
برتن 1
داعش 1
سکاٹ 1
وري 1
چھت 1
ڈیجیٹل 1
کوئ@@ 1
گرمی 1
بڑھنے 1
خالق 1
سپاہیوں 1
فنڈ 1
نِ 1
وضع 1
کال 1
2022 0.3916444818815923
افسوس 1
انٹر 1
بناتا 1
حجاج 1
حَ@@ 1
شي@@ 1
لب 1
ﺗ@@ 1
1984ء 1
village 0.14176866866153012
درحقیقت 1
متنازع 1
نذیر 1
وع@@ 1
پاور 1
1930 0.337059717629972
افتتاح 1
بہرائچ 1
بیٹھا 1
سچ 1
ماہ@@ 1
مدھ@@ 1
ورڈ 1
گہرائی 1
2,0@@ 1
آدمیوں 1
غائب 1
نف@@ 1
ّی 1
امرا 1
ایہ 1
بڑھتے 1
داغ 1
ملازمین 1
میں@@ 1
1965ء 1
بہادری 1
تدریسی 1
زبانی 1
قب@@ 1
نعیم 1
چہرہ 1
22@@ 1
سائز 1
ڈیموکریٹک 1
1972ء 1
الہ@@ 1
رل 1
عت 1
كنساس 1
مصطفی 1
پیروکار 1
چیچن 1
کھاتے 1
بردار 1
خوبصورتی 1
عکاسی 1
وارانہ 1
ڈار@@ 1
ہالی 1
بنتی 1
1975ء 1
خور 1
زدہ 1
سوشلسٹ 1
لڑکا 1
مشین 1
الیون 1
فال@@ 1
فن@@ 1
لاش 1
محترم 1
پرتگال 1
چنگ 1
I 0.06369428126818254
الا@@ 1
انکی 1
شہریت 1
فلسفی 1
پولی@@ 1
کمانڈ 1
الذکر 1
اواخر 1
جنھیں 1
حہ 1
فاروقی 1
گاڑیوں 1
1000 0.6433813012068773
اتھ 1
بھٹی 1
سڑکوں 1
عادل 1
معزول 1
سرداروں 1
متفق 1
میئن 1
چھتیس 1
ارت 1
دینار 1
ربی 1
صحرا 1
لگائی 1
مارک 1
گریجویٹ 1
B@@ 0.08947108186667589
تفصیلی 1
يں 1
ڈور 1
کیوبا 1
گاہوں 1
بیری 1
تامل 1
تشیع 1
روسیوں 1
شیں 1
لفظی 1
نزول 1
نسی 1
ٹکٹ 1
کارنامہ 1
آبی 1
اِسی 1
درانی 1
مؤرخ 1
آرتھر 1
بچا 1
زکریا 1
لوزیانا 1
َّ@@ 1
بج@@ 1
بغ@@ 1
سواری 1
قصور 1
مض@@ 1
چاول 1
گلو@@ 1
1984 0.2415808858233092
آمادہ 1
الوں 1
خاصی 1
سیارے 1
عقبہ 1
مرضی 1
ہائی@@ 1
10,@@ 1
1986 0.2354535596261527
اسٹالن 1
اکی 1
ﺘ@@ 1
ایگزیکٹو 1
بازوں 1
روٹی 1
وجی 1
ّہ 1
1956ء 1
بصری 1
رار 1
نجف 1
الہی 1
سائی@@ 1
موڑ 1
تبریز 1
تہجی 1
خمینی 1
درہم 1
صفائی 1
عزم 1
ہوش 1
ہہ 1
استدلال 1
اندازے 1
جادو 1
دوچار 1
ماننے 1
يس 1
گرافی 1
ﮔ@@ 1
دبئی 1
دع@@ 1
رچرڈ 1
سیال 1
ممالك 1
نسن 1
وروں 1
کسان 1
کھ 1
1979 0.25791198459268916
بیل@@ 1
دھماکے 1
فائرنگ 1
لیون 1
الرشید 1
خلاصہ 1
معصوم 1
پڑتی 1
احکامات 1
رسومات 1
پھر@@ 1
1,9@@ 1
اطاعت 1
بے@@ 1
نوح 1
1991ء 1
تعبیر 1
تمغا 1
شاخیں 1
پرنسپل 1
1987ء 1
by 0.009238362203839768
تھر@@ 1
جدہ 1
دوڑ 1
لگیں 1
مدھیہ 1
ندیم 1
نیت 1
ونسب 1
کاغذ 1
کلیدی 1
ہدف 1
ہشام 1
1994ء 1
بندر 1
تلاوت 1
تیر@@ 1
ستون 1
شور@@ 1
كيرولائنا 1
لز@@ 1
یا@@ 1
آرتھوڈوکس 1
نقوی 1
وند 1
چو 1
کورونا 1
رہائی 1
ٹھ 1
پودوں 1
چلتے 1
گندم 1
ارڈ 1
افسانوں 1
افسانوی 1
اہی 1
بگ@@ 1
تاہے 1
انجیل 1
اٹھانے 1
اینٹی 1
جشن 1
دلائل 1
جلیل 1
قحط 1
ني 1
ڈل 1
ھر 1
ہدایات 1
en 0.004210030760646808
اکیس 1
بابل 1
بنگ@@ 1
عالم@@ 1
لازم 1
ٹرک 1
ڈومیسٹک 1
کشش 1
اعتراض 1
اً 1
ایجوکیشن 1
بشیر 1
سہارا 1
سیدنا 1
مردہ 1
نپولین 1
وارن 1
چلائی 1
بڑ@@ 1
بیٹیاں 1
شاگردوں 1
مجسمہ 1
پلی 1
1985 0.23331703637352796
اتھارٹی 1
ضم 1
فتنہ 1
فلی@@ 1
مصنوعی 1
{ 0.7998050952661867
اسٹار 1
الاس@@ 1
زیادتی 1
عدی 1
متصل 1
پیشکش 1
گیندوں 1
اندلس 1
تص@@ 1
سجاد 1
كيليفورنيا 1
لوئر 1
چڑھ 1
کمشنر 1
بنتے 1
بولنگ 1
تاجروں 1
سپہ 1
فیشن 1
پہنچانے 1
کیرولینا 1
ہیملٹن 1
اقدار 1
اقوال 1
اکٹھا 1
تق@@ 1
ذ 1
ساڑھے 1
مروان 1
میانمار 1
يو 1
ابلاغ 1
اصغر 1
النجوم 1
بڑھایا 1
واک 1
ٹون@@ 1
D@@ 0.09145341206553266
جاتاہے 1
رکھیں 1
نیازی 1
ڈائ@@ 1
1986ء 1
New 0.04891079570610314
بنیں 1
عرفان 1
مفادات 1
نامعلوم 1
وائس 1
ﻣﯿﮟ 1
سرپرست 1
نظیر 1
نہرو 1
کیپٹن 1
K@@ 0.0985713426153124
آنکھیں 1
بارگاہ 1
عابد 1
مسیحیوں 1
چلتی 1
گم 1
10.@@ 1
1930ء 1
رشتے 1
سوات 1
سینٹرل 1
فراغت 1
وژن 1
ہالینڈ 1
مترجم 1
وول@@ 1
آئس 1
انیہ 1
باؤلر 1
بٹ@@ 1
تون@@ 1
دوری 1
لیوں 1
ماریون 1
ٹون 1
11@@ 1
ایٹمی 1
بانو 1
تبصرہ 1
حتی 1
لام 1
نمائندے 1
ننگ 1
ووڈ@@ 1
کروائی 1
گہرے 1
اونچی 1
جائ@@ 1
جد@@ 1
دید 1
لٹن 1
مقدونیہ 1
ورٹ 1
ہجوم 1
اگر@@ 1
براؤن 1
تعمیرات 1
روکا 1
محی 1
نسواں 1
وحید 1
1987 0.2206528164984487
راغب 1
فقہی 1
مؤ@@ 1
چائے 1
گرے 1
ہموار 1
J@@ 0.13139599177575817
انٹر@@ 1
بمباری 1
تصادم 1
سیاحوں 1
قوتوں 1
وحی 1
گھنٹہ 1
00 0.5018891475448276
1978ء 1
1981ء 1
اسٹاک 1
بنا@@ 1
رومیوں 1
سننے 1
فصل 1
منشی 1
یز 1
اجزاء 1
تقویت 1
جلدی 1
سولہویں 1
مقبرے 1
کیا@@ 1
آزادانہ 1
اخراج 1
اري 1
خود@@ 1
مزاح 1
ٹہ 1
چھوڑا 1
1975 0.23985447931915488
36@@ 1
الشان 1
امریکیوں 1
تردید 1
جٹ 1
خط@@ 1
معافی 1
پسندیدہ 1
1919 0.3681007357088245
48@@ 1
آل@@ 1
ئس 1
ادھ@@ 1
اطلاق 1
تاب 1
خسرو 1
دیوبندی 1
سخن 1
سنبھالا 1
كس 1
معنوں 1
ندے 1
پاتے 1
کوت@@ 1
کِ@@ 1
گس 1
انجینئری 1
تحسین 1
عار@@ 1
قیصر 1
ڈینس 1
کہے 1
الزبتھ 1
تقویم 1
جوانی 1
شاهٔ 1
لٹ 1
لیاں 1
پتے 1
پشت 1
۲@@ 1
باقیات 1
جَ@@ 1
حجم 1
صف@@ 1
غلاموں 1
مام 1
مکانی 1
چہارم 1
گيا 1
ہلال 1
اتِ 1
اض@@ 1
اچھ@@ 1
تھوڑا 1
حلقهٔ 1
سینٹی 1
غزنی 1
نانا 1
35@@ 1
ایڈی@@ 1
درکار 1
غزوات 1
فین 1
قازقستان 1
وبی 1
179@@ 1
T20 1
بجٹ 1
تبت 1
نویس 1
پذیر 1
پول 1
گنجائش 1
ہری@@ 1
1958ء 1
تسمیہ 1
دَ@@ 1
عامہ 1
لت 1
موزوں 1
نمک 1
پھیلاؤ 1
گارڈ 1
1974 0.24780005452245768
آکسفورڈ 1
سرحدوں 1
كان@@ 1
لہر 1
ٹرا@@ 1
پختہ 1
1942 0.28300789369585644
زمرے 1
شرما 1
عوامل 1
لیفٹیننٹ 1
مائے 1
مقدمے 1
مگر@@ 1
11,@@ 1
اذ@@ 1
ایبٹ 1
عطیہ 1
تمہارا 1
دیل 1
سہیل 1
مومن 1
ولد 1
ڈكوٹا 1
یونی@@ 1
ﭘ@@ 1
A@@ 0.09569119682405074
تختہ 1
رابطے 1
رح@@ 1
سائنسز 1
شاپیل 1
عص@@ 1
پرستوں 1
کیمپس 1
station 0.12147448337944146
ایکڑ 1
ترغیب 1
رسالے 1
سوئ@@ 1
پنڈ@@ 1
کوس 1
1982 0.23314710486067095
دانی 1
دستاویزی 1
عقیل 1
لیاقت 1
مواصلات 1
٭ 1
چل@@ 1
184@@ 1
1976ء 1
اینگلو 1
بدلہ 1
تسلسل 1
سیر@@ 1
كى 1
ھو 1
1949ء 1
1978 0.2455512272521359
بیانات 1
جاننے 1
دھمکی 1
سیل@@ 1
عکس 1
لمبا 1
مختاری 1
ہٹ@@ 1
شاد 1
غوث 1
موری@@ 1
ناب@@ 1
1983 0.2318661850221278
M@@ 0.09571610400458909
عز@@ 1
معاشرہ 1
منعقدہ 1
منگ@@ 1
مکانات 1
آخرت 1
ارض 1
بِ 1
سار 1
سوالات 1
لمیٹڈ 1
نرم 1
گوا 1
1973ء 1
حالی 1
قسمت 1
پیرا 1
ائیاں 1
بعید 1
تقریبات 1
دھن 1
شاعروں 1
مانے 1
محدثین 1
بنیادوں 1
تخلص 1
سکو 1
شیر@@ 1
لبرل 1
مارنے 1
مسل@@ 1
نیہ 1
کلاں 1
S@@ 0.07612033122173949
آبنائے 1
اعلٰی 1
بدن 1
بولے 1
دت 1
دستہ 1
سمتیہ 1
مجرم 1
مشق 1
نظموں 1
گروو 1
اسکاٹ 1
جانسن 1
مرو@@ 1
نکالنے 1
ائیووا 1
الل@@ 1
سنگین 1
شرا@@ 1
قدس 1
مظاہرے 1
آئيووا 1
آفیسر 1
ائيووا 1
افعال 1
فام 1
لارا 1
برز@@ 1
فنکار 1
مگ@@ 1
ناقدین 1
چال 1
گولڈن 1
ہلاکتوں 1
at 0.010510900543119747
انقرہ 1
ستائیس 1
عنہا 1
غزہ 1
محافظ 1
معتبر 1
نٹس 1
ڈھانچہ 1
کوش@@ 1
تُ@@ 1
جنگیں 1
رومانوی 1
صفات 1
قوموں 1
لونگ 1
لیز 1
معانی 1
نائٹ 1
عمارتیں 1
قابلِ 1
for 0.007116982357766749
lu 1
ایٹ 1
تھو@@ 1
دستوں 1
صلیبی 1
عقیدے 1
فکری 1
ٹیل 1
پولس 1
1946ء 1
1969ء 1
38@@ 1
افتخار 1
باطنی 1
توازن 1
رقبے 1
سراہا 1
شبہ 1
لانا 1
مناسبت 1
نقشبندیہ 1
ہي@@ 1
ۃ@@ 1
اسماء 1
بھیجی 1
جنتا 1
زہر 1
فو 1
قین 1
پریم 1
ہاتھی 1
اٹھائیس 1
بنوں 1
دیشی 1
سف@@ 1
صف 1
فضیلت 1
لڑے 1
مقصود 1
کفر 1
گي@@ 1
1962ء 1
است 1
باغات 1
جمیل 1
مانند 1
ہور@@ 1
1973 0.24197839932233453
G@@ 0.08469506364832609
آئرش 1
ابواب 1
لاگو 1
محور 1
پنڈت 1
پڑھے 1
سپر@@ 1
يم@@ 1
يْ@@ 1
گوا@@ 1
ہانی 1
1983ء 1
اونچائی 1
اگو 1
تھر 1
جرمنوں 1
خاکہ 1
خت@@ 1
عموما 1
مثل 1
کیرلا 1
اسٹیج 1
بریلوی 1
جارحیت 1
رج@@ 1
سنہری 1
طبیعت 1
عملے 1
فق@@ 1
نل 1
کیہ 1
1917 0.3803109223994498
جڑے 1
زاہد 1
ظہیر 1
نال 1
وسی@@ 1
چیلنج 1
ﻗ@@ 1
اناطولیہ 1
لائٹ 1
واس@@ 1
ّت 1
کنی 1
ریور 1
سرفراز 1
ٹرسٹ 1
پین@@ 1
کرسکتا 1
1920ء 1
اکا 1
برپا 1
جبر 1
صفوی 1
مورگن 1
میک@@ 1
نشریات 1
همپشائر 1
ڑیوں 1
1967ء 1
N@@ 0.09243859356414669
ئو 1
برما 1
بري@@ 1
تان 1
جاں 1
حیران 1
دھ 1
زبردستی 1
سماعت 1
سوری 1
عاشق 1
قُ@@ 1
مظاہرین 1
ممبروں 1
پارہ 1
گزارا 1
گیمز 1
ﯾ@@ 1
سز 1
محاصرے 1
مدراس 1
٫ 1
کالے 1
کبھار 1
ئرز 1
بنگلور 1
جانچ 1
جي 1
دکان 1
سینے 1
نص@@ 1
نظ@@ 1
ویٹ 1
ﮩ@@ 1
برکت 1
ثانوی 1
جواہر 1
خلق 1
عبارت 1
مجاز 1
وب 1
چلایا 1
چي@@ 1
ڈیا 1
الاح@@ 1
امر@@ 1
تخلیقی 1
حامیوں 1
لُ@@ 1
مدی@@ 1
مضامين 1
1940ء 1
احسن 1
بھوپال 1
شجاع 1
كيرولينا 1
پادری 1
پیرا@@ 1
کاش@@ 1
کاغذی 1
کافر 1
کوف 1
1954ء 1
جگر 1
ربط 1
غذا 1
قرآنی 1
مثنوی 1
پالیسیوں 1
استقبال 1
1956 0.2866400295135302
جلاوطن 1
جُ@@ 1
راکٹ 1
پیشے 1
ڈسٹرکٹ 1
کراس 1
افکار 1
المطلب 1
جتنی 1
دعوے 1
سورۂ 1
صفت 1
صفی 1
لور@@ 1
لیت 1
نُ@@ 1
وفاق 1
يونين 1
کفار 1
ہون 1
1967 0.25054033036880907
1969 0.24658532970608263
اسکالر 1
خطوں 1
درختوں 1
ونگ@@ 1
چھبیس 1
گجراتی 1
ہرے 1
1952ء 1
la 0.002706352011852225
اشرافیہ 1
برہمن 1
جھوٹ 1
سانس 1
مزدوروں 1
37@@ 1
اسپی@@ 1
ببر 1
تصنیفات 1
سید@@ 1
لکشمی 1
چن@@ 1
ڈرا 1
انجی@@ 1
بریگیڈ 1
تصورات 1
صح@@ 1
عیسائیوں 1
لینن 1
وش 1
پیروکاروں 1
1972 0.2189758418444979
ئر@@ 1
اتھ@@ 1
ازی 1
جیتے 1
راستوں 1
ویانا 1
ویوں 1
يون@@ 1
ڈیڑھ 1
کاربن 1
i 0.10530005421084261
ایندھن 1
جنگ@@ 1
سلاطین 1
عسکریت 1
لیل 1
ملیالم 1
ڈاک@@ 1
اتار 1
اعجاز 1
تبدیلیوں 1
پرنس 1
ہفتوں 1
آگئے 1
اند@@ 1
بتیس 1
بڑھے 1
بھیجنے 1
جتنا 1
دائرے 1
روئے 1
رواں 1
زل 1
سالگرہ 1
سرطان 1
سوا@@ 1
متعلقهٔ 1
مڈ@@ 1
پڑنے 1
ہوسکتے 1
باز@@ 1
سکھر 1
مؤثر 1
میسر 1
پڑھیں 1
چونتیس 1
بیچلر 1
حریف 1
درو@@ 1
مذ@@ 1
نعمت 1
پش@@ 1
اشوک 1
ایڈمز 1
سرما 1
سنٹر 1
عدالتی 1
غصہ 1
پاک@@ 1
ہستی 1
ہوجائیں 1
ﺍﻭﺭ 1
11.@@ 1
الثانی 1
سِ@@ 1
ملاحظہ 1
نْ@@ 1
گزاری 1
al 0.02470374443983615
الکاہل 1
بتائی 1
جزیروں 1
دیوتاؤں 1
سمجھتا 1
عالی 1
علاء 1
مہمات 1
وفادار 1
… 0.27571360061974537
ﺖ 1
1914 0.3547031507604319
19@@ 1
تجربے 1
رز@@ 1
متی 1
ٹروں 1
چڑھ@@ 1
گنگ@@ 1
Airport 0.6654399619651357
بس@@ 1
تناؤ 1
تہائی 1
جامعات 1
حسینی 1
زیر@@ 1
متوجہ 1
منحصر 1
پتھروں 1
q 0.6538557784194449
اسرار 1
اوسی@@ 1
اکتیس 1
بھری 1
خادم 1
صبر 1
عق@@ 1
ٹینک 1
پری 1
پھینک 1
پیدائشی 1
کوارٹر 1
انتیس 1
دانش 1
ضمانت 1
غوری 1
قطع 1
نڈی 1
نگز 1
ویہ 1
پکارا 1
چھپ 1
ڈبل 1
1981 0.2130938409525223
40@@ 1
اسٹوڈیو 1
اطمینان 1
بائی@@ 1
توا@@ 1
حادثے 1
فيلڈ 1
لڑ@@ 1
میڈیم 1
يني 1
1955ء 1
II 0.08740127751835837
تحریکوں 1
نسلوں 1
کنندہ 1
کول 1
آگئی 1
اسا 1
التحصیل 1
الیاس 1
عمومًا 1
لنگ@@ 1
لوہے 1
مہاجر 1
اسسٹنٹ 1
اولیاء 1
حلف 1
لانگ 1
پرساد 1
کھولا 1
ﺴ@@ 1
12,@@ 1
185@@ 1
ارِ 1
بچھ@@ 1
بہرحال 1
سایہ 1
سفارش 1
سلطنتوں 1
كور@@ 1
متوقع 1
معاش 1
موا@@ 1
نوی@@ 1
واجب 1
وتی 1
ٹیوں 1
گوتم 1
as 0.006470693515851717
اہلکار 1
برے 1
خلا@@ 1
دف@@ 1
زاب@@ 1
واقعی 1
یلی 1
یونیورسٹیوں 1
ﺍﻟ@@ 1
آرٹیکل 1
اراضی 1
خبروں 1
دھر@@ 1
عمارات 1
پاپ@@ 1
پروجیکٹ 1
چاہا 1
چھو@@ 1
3ھ 1
International 0.1355224340437941
انڈی@@ 1
بین@@ 1
تقلید 1
جاندار 1
خلجی 1
دام@@ 1
دکھائے 1
ذرا 1
قد@@ 1
لڈ 1
متاثرہ 1
ٹار@@ 1
کروز 1
گور 1
ہلاکت 1
Ch@@ 0.14749341974012034
بخ@@ 1
تخلیقات 1
تفریح 1
سیاح 1
الي@@ 1
ایشین 1
بیماریوں 1
عطاء 1
فاسو 1
لالہ 1
لغوی 1
مرثیہ 1
مینا 1
گردن 1
ھو@@ 1
باغ@@ 1
فہم 1
ماری 1
مولا 1
میٹرکس 1
ناراض 1
ورس 1
ٹک@@ 1
پہاڑیوں 1
12.@@ 1
اولی@@ 1
سویڈش 1
شواہد 1
عہدِ 1
قے 1
مصنفہ 1
کٹی@@ 1
130 1
اداکاروں 1
رجمنٹ 1
سائی 1
عہدیداروں 1
وْ@@ 1
کسی@@ 1
1968ء 1
ضائع 1
فون@@ 1
لڑکوں 1
چیسٹر 1
39@@ 1
ئیں 1
رفیع 1
رومان@@ 1
سج@@ 1
سنن 1
پڑھنا 1
چھی@@ 1
گواہی 1
ہنگ@@ 1
P@@ 0.07618936893308738
رحمان 1
رق@@ 1
نوب@@ 1
نوع 1
ولو 1
ونس 1
ویمن 1
کروا 1
1949 0.2793556472575131
1951ء 1
ارجن 1
اسپورٹس 1
الرحمان 1
الٹ 1
تعاقب 1
جوابی 1
رف@@ 1
زیدی 1
نگاروں 1
ورم 1
ٹھی 1
کاسٹ 1
13,@@ 1
بھوک 1
تجدید 1
ضلعی 1
قت 1
لسانیات 1
لیم 1
مشورے 1
نج 1
نیواڈا 1
پہنچ@@ 1
13.@@ 1
اجتماع 1
انجینئر 1
اوورز 1
جال 1
خلا 1
سینہ 1
میئر 1
کمپلیکس 1
1976 0.213882313519737
1977 0.22611313004149083
° 0.17468939102738404
آگ@@ 1
دریاؤں 1
ذيلي 1
رونما 1
روی@@ 1
عمروبن 1
میا 1
نیاز 1
وشنو 1
ٹھوس 1
پولش 1
پیشوا 1
کھائی 1
1946 0.25722875456050426
آرا 1
دلائی 1
ذخائر 1
رکنیت 1
شان@@ 1
طول 1
مدر@@ 1
مشائخ 1
کالی@@ 1
کونے 1
گذشتہ 1
ہیر 1
1964ء 1
آئوٹ 1
انبیا 1
بیورو 1
ریزرو 1
ریں 1
شہزادے 1
ظ 1
ماؤ@@ 1
مای@@ 1
پٹنہ 1
گھنٹوں 1
ہنر 1
؁ 1
اشتراکی 1
بیوہ 1
ترویج 1
تینتیس 1
رورل 1
زلزلہ 1
عیسی 1
لکھتا 1
مقدمات 1
نقصانات 1
urban 0.7923788210028492
بلوچی 1
رند 1
زمینوں 1
كينٹكي 1
مدرس 1
مصوری 1
ﮑ@@ 1
حویلی 1
داخلے 1
زند@@ 1
وکمال 1
ٹیز 1
ہیئت 1
110 0.9590300492338967
1965 0.23986182630641262
List 0.3329743615353245
Z@@ 0.11203195403503419
افی 1
بااثر 1
تز@@ 1
دارالعلوم 1
درگاہ 1
دھی@@ 1
لاگت 1
معاف 1
موصول 1
کینسر 1
183@@ 1
1958 0.2656317975881616
اعزازی 1
بات@@ 1
خار@@ 1
خت 1
خل@@ 1
لہجے 1
موازنہ 1
ولسن 1
ٹیلر 1
پُ@@ 1
کمزوری 1
45@@ 1
اودھ 1
حُ@@ 1
صغیر 1
لائف 1
مودی 1
نم 1
چشم 1
کتابت 1
النساء 1
بٹالین 1
بہرائچی 1
حاضری 1
دادی 1
علیا 1
قابلیت 1
مغلوں 1
مقابل 1
ناممکن 1
وط@@ 1
پائلٹ 1
پڑوسی 1
پکڑنے 1
ہیکل 1
اولمپک 1
اونٹاریو 1
توثیق 1
دوس@@ 1
شیرازی 1
لائی@@ 1
وك@@ 1
کاظم 1
H@@ 0.08881884003838467
بارہویں 1
ثانیہ 1
فران@@ 1
كيوبك 1
پوس@@ 1
کپ@@ 1
49@@ 1
زہرہ 1
سين@@ 1
سکون 1
عظمی 1
فِ@@ 1
قات 1
میچز 1
ورتھ 1
کمپ@@ 1
یام@@ 1
Qeshlaq 1
توبہ 1
دستی 1
صنفی 1
پہلوی 1
کچ@@ 1
کہتی 1
گلے 1
1936 0.2846759400459433
www.@@ 1
برٹ 1
تھک 1
جلوس 1
جواز 1
خبریں 1
راحت 1
زمیندار 1
سرا 1
غنیمت 1
مخلوط 1
نوم@@ 1
نیس 1
کامیڈی 1
کک 1
کیتھرین 1
راں 1
مظالم 1
نقشبندی 1
نٹی 1
چشمہ 1
کاٹ@@ 1
1962 0.25013880969597446
البرٹا 1
جدول 1
حنیف 1
سوم@@ 1
مدفون 1
وینی@@ 1
پیس 1
چانسلر 1
گرفت 1
جاگیر 1
سوس 1
فِ 1
نشینی 1
نمبر@@ 1
ٹرانس@@ 1
کیر 1
یونانیوں 1
65@@ 1
ایرانیوں 1
باندھ 1
تعمیراتی 1
حلال 1
شع@@ 1
شکوہ 1
لاتی 1
مبر 1
مضافات 1
وص@@ 1
پیش@@ 1
ڈیز 1
گھوڑوں 1
ہفت 1
ﺳﮯ 1
امری@@ 1
اکھ@@ 1
راء 1
شاہکار 1
موصوف 1
میموریل 1
or 0.01945718254036435
انتقام 1
جڑی 1
سرفہرست 1
كہ 1
مك@@ 1
مونٹگمری 1
میٹرو 1
نچلے 1
کرسکے 1
کولی@@ 1
یال 1
یش 1
ﺷ@@ 1
Province 0.4586382788535117
جور@@ 1
جوڑی 1
زخم 1
سمجھ@@ 1
شورش 1
گوہر 1
یی@@ 1
ﻟ@@ 1
اسٹاف 1
جوڑا 1
ذو 1
سحر 1
فائل 1
فقہا 1
لیبر 1
مدرسے 1
کیرول 1
سام 1
سيد 1
فلسفے 1
مالٹا 1
مظاہروں 1
کمپنیاں 1
ہریانہ 1
العاص 1
اینڈ@@ 1
بریلی 1
تیرا 1
قاسمی 1
نما@@ 1
نچ 1
واہ 1
يري 1
چم@@ 1
چھپا 1
یکا 1
● 1
q@@ 0.5788342667455264
امپھؤ 1
دلوں 1
ریشم 1
صومالیہ 1
لعل 1
کیر@@ 1
60@@ 1
u 0.12043746621618806
اریوں 1
ازم 1
اسلامک 1
بای@@ 1
سکو@@ 1
0,@@ 0.6341308595528209
اعظمی 1
بھتیجے 1
بیر 1
تان@@ 1
جمہوريہ 1
حنبل 1
سالم 1
شل 1
غزوۂ 1
پروان 1
چادر 1
کتے 1
کنز 1
یوروپی 1
V@@ 0.08765582491471566
ساسانی 1
شفیع 1
ضمن 1
عادت 1
فت 1
هُ 1
پیسے 1
کمائی 1
گزارے 1
900 1
اجرا 1
اہے 1
بہبود 1
خانم 1
ربیعہ 1
ساہیوال 1
سیدہ 1
شمار@@ 1
شماریات 1
لْ@@ 1
نکتہ 1
پھولوں 1
کیف 1
ہاک@@ 1
ﮨﮯ 1
بالغ 1
جعفری 1
سردیوں 1
سنبھالنے 1
فریڈرک 1
لٹل 1
مایوس 1
معزز 1
منیر 1
وسطیٰ 1
ینگ@@ 1
Y@@ 0.15967034695797375
اجی 1
احمد@@ 1
ایٹم 1
جاسوسی 1
جونز 1
حد@@ 1
سٹون 1
غیر@@ 1
مادی 1
مونٹ@@ 1
وفا 1
کھی 1
گاہیں 1
ﺒ@@ 1
ﺧ@@ 1
19.@@ 1
Regional 0.7979926513215523
اجاگر 1
جعفرآباد 1
حادثہ 1
خور@@ 1
رفت 1
فور 1
پرندوں 1
ڑو 1
گزرے 1
1945ء 1
خلی@@ 1
دنی@@ 1
ربانی 1
زیرِ 1
سیکریٹری 1
لگاتے 1
et 0.0057776754946684
آقا 1
اشی 1
برکینا 1
دارا 1
غسل 1
فلاح 1
میدانوں 1
نمائندوں 1
گوگل 1
اکادمی 1
باطل 1
بکثرت 1
تنخواہ 1
جارجیائی 1
خطرات 1
زہد 1
عملہ 1
فنکشن 1
مرمت 1
مسافروں 1
مظاہر 1
کمان@@ 1
کڑی 1
گلاب 1
ارو 1
برآں 1
تول@@ 1
توہین 1
جذب 1
ذہبی 1
سینی@@ 1
سیّد 1
طل@@ 1
قیہ 1
لف 1
مامور 1
مہینہ 1
نسخے 1
واسطہ 1
ڈرا@@ 1
گوی@@ 1
آریائی 1
ائس 1
باقاعدگی 1
حک@@ 1
دیس 1
رین@@ 1
لڑ 1
ماریہ 1
مزدوری 1
منسٹر 1
منگولوں 1
میانوالی 1
نصرت 1
نيبراسكا 1
پوشیدہ 1
کہی 1
گپتا 1
ہالٹ 1
بڑھتا 1
خز@@ 1
سد@@ 1
شعبان 1
قلی 1
مختص 1
مدعو 1
معاہدوں 1
ڈگلس 1
بک@@ 1
جبری 1
جمادی 1
حص@@ 1
حیاتیاتی 1
سیمی 1
لح@@ 1
مکرمہ 1
میز 1
نکات 1
نیکوسیا 1
وای@@ 1
کاظمی 1
ہدایتکار 1
1963ء 1
آفاق 1
اشیا 1
تلے 1
قاتل 1
مادے 1
مسلمہ 1
مینی 1
میٹ@@ 1
چنے 1
کزن 1
گري@@ 1
ھم 1
اسکرین 1
اق 1
القاعدہ 1
انسداد 1
تائیوان 1
حراست 1
حسینؑ 1
دیکھنا 1
عظ@@ 1
نایاب 1
ومن@@ 1
پہل 1
چھوڑ@@ 1
یونیسکو 1
بینٹن 1
رخ@@ 1
شیلڈ 1
لاحق 1
میلہ 1
ہوتاہے 1
ہونی 1
14.@@ 1
أ@@ 1
احوال 1
جاہلیت 1
جک@@ 1
دائ@@ 1
درا 1
راب 1
راسخ 1
زینت 1
سیکھنے 1
مصطفٰی 1
مطالبات 1
ناس@@ 1
نشستیں 1
چٹ@@ 1
چھین 1
ہلز 1
1957 0.2613762834944432
1968 0.19589048094329464
20.@@ 1
Olya 1
town 0.11811164079810917
افتتاحی 1
الي 1
اوس 1
تناظر 1
جوئی 1
خوبی 1
غہ 1
قلیل 1
موومنٹ 1
پنگ 1
کمیت 1
् 0.013786578030625126
-دے 1
آنند 1
ایش@@ 1
تقرری 1
درویش 1
شرو@@ 1
فرانسس 1
پاگئے 1
کیری@@ 1
46@@ 1
اﷲ 1
دون 1
رفیق 1
فائیٹ 1
فیسٹیول 1
قادریہ 1
نسی@@ 1
وات 1
وسا 1
پانچواں 1
چارج 1
کارل 1
یاد@@ 1
178@@ 1
ادارت 1
اقلیت 1
اورنج 1
حب 1
قائ@@ 1
قبیلوں 1
مطلع 1
بخشی 1
جاس@@ 1
فورنیا 1
كر 1
وقفے 1
ٹکنالوجی 1
پکوان 1
پیدل 1
کوک 1
18.@@ 1
المقدس 1
باؤ@@ 1
خداوند 1
سست 1
سیوں 1
معرفت 1
منص@@ 1
منگولیا 1
میرزا 1
ڈور@@ 1
کنارہ 1
1964 0.2158972658001853
47@@ 1
ODI 1
اسماعیلی 1
اڑ 1
تورات 1
دیکھتا 1
سبزی 1
عیسائیت 1
چور 1
کائ@@ 1
کرشنا 1
آہنگی 1
جونیئر 1
دانت 1
سیلی@@ 1
كين@@ 1
ڈالے 1
ڈن@@ 1
گذر 1
X 0.18837754728305503
برباد 1
رتی 1
شام@@ 1
طبیب 1
لائق 1
پہلوؤں 1
ڈیپارٹمنٹ 1
ڑھی 1
1963 0.23126127698831458
50@@ 1
اوڈیشا 1
تدوین 1
خطاطی 1
سٹر@@ 1
طلحہ 1
فس@@ 1
لوس 1
متغیر 1
مردان 1
گرنے 1
گین 1
اکابر 1
سجدہ 1
سوریہ 1
فرمائے 1
للہ 1
مہا 1
میڈی@@ 1
ولز 1
ویز 1
آباد@@ 1
جيكسن 1
خاموشی 1
زوجہ 1
ساب@@ 1
ساو@@ 1
سوچا 1
لگنے 1
نشو 1
وسیم 1
پیرو@@ 1
کندہ 1
Sofla 1
ؐ 1
اين@@ 1
اکہ 1
قاصر 1
لس@@ 1
لڑتے 1
مقناطیسی 1
موٹر 1
نوے 1
نیوں 1
ویس 1
چارٹر 1
ہیں- 1
14,@@ 1
ملیشیا 1
ڑیاں 1
گولہ 1
1935 0.29163071462399576
city 0.0888673262025204
انگا 1
بلیو 1
تھام 1
سبی 1
شنکر 1
شیوخ 1
مونرو 1
نعمان 1
نن 1
پونے 1
ڈوب@@ 1
15,@@ 1
17.@@ 1
180 1
ارٹ 1
ایان 1
برن 1
جیلانی 1
خوشبو 1
داریاں 1
روا 1
عبوری 1
لانی 1
ۓ 1
1961ء 1
https 1
آئینہ 1
بجا 1
جاہ 1
خرا@@ 1
داں 1
لیول 1
مشرکین 1
منڈ 1
میسور 1
نسیم 1
يات 1
پٹھان 1
کمر 1
codice 1
انتشار 1
بالوں 1
جارحانہ 1
راہی 1
سبق 1
سدھ@@ 1
مادری 1
نجم 1
وگ@@ 1
کھیلتا 1
گبول 1
گرمیوں 1
گریز 1
1953ء 1
اورنگزیب 1
اکثریتی 1
دائی 1
دات 1
دھات 1
صحن 1
ضی 1
مائع 1
مشہد 1
ناولوں 1
نوکری 1
ٌ 1
گوس@@ 1
ہِ 1
1943 0.21301776525950364
القادر 1
ایتھنز 1
تالاب 1
تحصيل 1
سمرقند 1
لاگ 1
معاوضہ 1
میوں 1
ڑنے 1
140 1
اندرون 1
بدعنوانی 1
بلال 1
خوزستان 1
سلے 1
سکھ@@ 1
شنز 1
ظالم 1
فورم 1
وارد 1
چاہ@@ 1
کانگو 1
W@@ 0.0811973612772124
آئل 1
آوروں 1
اش 1
انجینئرنگ 1
تفریحی 1
سمتھ 1
شجاعت 1
صاحبزادہ 1
ضمیر 1
محلے 1
مول 1
گران@@ 1
ہؓ 1
1937ء 1
R@@ 0.07099319586454468
تکنیک 1
رگ 1
سلووینیا 1
ملحقہ 1
منانے 1
يل@@ 1
پھوٹ 1
پہنچتا 1
• 0.7947304160907533
آندرے 1
اٹھائے 1
بولر 1
بھیڑ 1
تفویض 1
شعیب 1
متاثرین 1
مریضوں 1
.com 0.8006558576627802
170 1
بینکوں 1
سنٹرل 1
سوس@@ 1
قوی 1
منتشر 1
مندروں 1
پنے 1
پودے 1
کیل 1
گزارنے 1
گزرا 1
گود 1
16,@@ 1
16.@@ 1
ایکسچینج 1
بش 1
بیدار 1
تاخیر 1
خاک@@ 1
سکوں 1
لینگ@@ 1
مرگ 1
ونٹ 1
ﺪ 1
1935ء 1
البر@@ 1
اللهٔ 1
النبی 1
اندراج 1
اوپن 1
روش 1
عامل 1
فنکاروں 1
پریشانی 1
15.@@ 1
1953 0.26128158594606105
1966ء 1
an@@ 0.07471111327343737
ازبک 1
بھول 1
بینی 1
شب@@ 1
شق 1
فضائل 1
قرہ 1
ً 1
پرفارمنس 1
ہینری 1
ﻦ 1
آری@@ 1
ارکنساس 1
ایئر@@ 1
بیج 1
جذباتی 1
طیارہ 1
عام@@ 1
ـ@@ 1
لینڈز 1
منور 1
نکلتا 1
ٹیمیں 1
کوو 1
الناس 1
انفنٹری 1
تحری@@ 1
جارہی 1
سینیٹ 1
شوال 1
طیاروں 1
فیئر@@ 1
لال@@ 1
مرجع 1
کروانے 1
کشف 1
شَ@@ 1
عاصم 1
فلپ 1
قبلہ 1
معطل 1
میراث 1
ودی@@ 1
وہب 1
يم 1
ﯼ 1
C 0.10793449547365931
اپور 1
ایڈز 1
سٹي 1
شیخوپورہ 1
فوں 1
نسبتا 1
وغ@@ 1
ٹریفک 1
پھیلانے 1
کت 1
ارباب 1
استعفیٰ 1
اسپیکر 1
الیگزینڈر 1
اوقیانوس 1
اہداف 1
باریک 1
تفتیش 1
سامعین 1
شاخوں 1
علاقهٔ 1
مامون 1
معاصر 1
ناجائز 1
پاپوا 1
چي 1
ژو 1
گُ@@ 1
ہرا@@ 1
3,0@@ 1
دیت 1
رحمتہ 1
روانی 1
فلٹن 1
مبی@@ 1
مقبوضہ 1
وح@@ 1
کارٹون 1
کیمیا 1
Central 0.18952962190505188
اسامہ 1
برہ@@ 1
تلنگانہ 1
خری@@ 1
دانشور 1
عوف 1
مام@@ 1
منطق 1
ڈھوک 1
کوسٹ 1
گردوں 1
B 0.10206900550139793
n 0.09578094108296749
آسٹ@@ 1
خیالی 1
سنبھالی 1
صارف 1
گواہ 1
1957ء 1
ترکیب 1
خرابی 1
خریدا 1
دھر 1
رنگین 1
لين@@ 1
مخاطب 1
وتھ 1
کوٹ@@ 1
le 0.0056428481669314546
اٹھاتے 1
ایجنٹ 1
بوت@@ 1
تض@@ 1
دھوکا 1
شم@@ 1
مرتفع 1
وایا 1
پھیلے 1
چان@@ 1
کریمیا 1
برانچ 1
بق@@ 1
بناتی 1
جتوئی 1
رائٹ 1
رْ@@ 1
سدھنوتی 1
سٹار 1
قلندر 1
مجسمے 1
ملیں 1
ویکی 1
کتنی 1
یب 1
ئین 1
ابدالی 1
ادریس 1
اشخاص 1
البی@@ 1
بخت 1
بھارتیہ 1
تھوڑے 1
حتیٰ 1
داعی 1
روایتوں 1
رچلینڈ 1
سرحدیں 1
صحافیوں 1
صد@@ 1
قلات 1
كلي@@ 1
ورکس 1
وٹ@@ 1
پگھ@@ 1
ہادی 1
160 1
احتمال 1
ادے 1
اقدس 1
برتری 1
تھری 1
جارہا 1
جزو 1
حفاظتی 1
خیمہ 1
دوپہر 1
دھماکا 1
فیکلٹی 1
معی@@ 1
میڈل 1
نسبتاً 1
نقاب 1
وقتی 1
ویلی@@ 1
پتلی 1
پي 1
کنونشن 1
ہنگامی 1
80@@ 1
آمیز 1
ابویوسف 1
القاسم 1
اون 1
ایر@@ 1
باکو 1
ترجمے 1
خا 1
سردی 1
فلا@@ 1
قال 1
لبرٹی 1
لوئیس 1
لگانا 1
مفصل 1
مين@@ 1
نائجیریا 1
کیشن 1
گھاس 1
ﻌ@@ 1
2022ء 1
بعد@@ 1
بہر 1
جوانوں 1
دیہاتوں 1
ریڈ@@ 1
قربان 1
ماس 1
مروی 1
مشتاق 1
وئ@@ 1
ویچ 1
ٔ 1
ٹینس 1
چیر@@ 1
یتیم 1
یکجا 1
1937 0.25364887423997706
اع 1
اینڈرسن 1
بھرا 1
تنوع 1
خَ@@ 1
راگ 1
زیل 1
ليے 1
مصدر 1
منا 1
منقطع 1
نشانات 1
کانسی 1
گذر@@ 1
ہیٹ 1
101 1
برک 1
بندہ 1
ربی@@ 1
فرقوں 1
کردستان 1
کرکٹرز 1
گاڑیاں 1
گون 1
1951 0.26367488271402595
ائیڈ 1
استونیا 1
انضمام 1
بستیوں 1
خدیجہ 1
طاری 1
كول@@ 1
نوآبادیات 1
du 0.008963454594236019
اسکی@@ 1
بوی@@ 1
تشویش 1
جری@@ 1
حلب 1
دیکھو 1
فریم 1
قلعوں 1
ماموں 1
نشستوں 1
يك 1
ﺎﺭ@@ 1
1952 0.23846091116188675
68@@ 1
6ھ 1
بنادیا 1
ترکمانستان 1
خزانے 1
خوانی 1
ساس@@ 1
لائیں 1
لارنٹ 1
مقالے 1
مینے 1
نتی@@ 1
ٹین@@ 1
کھدائی 1
کیریبین 1
اجتہاد 1
احتیاط 1
ادیا 1
اعانت 1
دکھ 1
رائی@@ 1
ریپبلکن 1
شفقت 1
کنبہ 1
گانوں 1
1932ء 1
h@@ 0.10850420983395956
بين 0.8287178999827377
توب@@ 1
خودمختاری 1
سیم 1
نازک 1
ڈیو@@ 1
ہت 1
یہ@@ 1
ﮭ@@ 1
Kh@@ 0.4282204105402277
ثم 1
دال@@ 1
ذہانت 1
ریم 1
ستا 1
غیاث 1
قارئین 1
مطبوعہ 1
نصیحت 1
ٹا@@ 1
پام@@ 1
کوالا 1
اندازی 1
انکو 1
تحریریں 1
جز@@ 1
حماد 1
ناد 1
ولر 1
کانوں 1
1959ء 1
350 1
ااور 1
ربہ 1
عليہ 1
قطعی 1
ﮦ 1
ﻧﮯ 1
1912 0.30996267248056064
1959 0.22536783746616007
Republic 0.2819444092979034
ابہ 1
اج 1
املاک 1
تاثر 1
تغلق 1
رض@@ 1
سیکڑوں 1
عبدالقادر 1
نیر 1
ورِ 1
ویسٹ@@ 1
گریٹر 1
گیتوں 1
ہندو@@ 1
ہول 1
1857ء 1
1938 0.22272016560242372
E@@ 0.07343757756049402
بہرام 1
جرات 1
حنفیہ 1
دہائي 1
رنگوں 1
سمو@@ 1
عون 1
محفل 1
مسی@@ 1
نِ@@ 1
گڈ@@ 1
گیارہویں 1
1944ء 1
63@@ 1
اینجلس 1
تربیتی 1
تفریق 1
ساک@@ 1
سنگم 1
سہرا 1
غان 1
فرانسسکو 1
مثالی 1
مستحق 1
مسکن 1
پوچھ@@ 1
1936ء 1
1961 0.21628627537032105
اشتراک 1
حصار 1
سروسز 1
فیڈرل 1
مصور 1
معاذ 1
چوٹ 1
ڈار 1
ہڑتال 1
1938ء 1
20ء 1
بننا 1
حم@@ 1
دئے 1
ذوالفقار 1
سفلی 1
سویں 1
متع@@ 1
مقالات 1
مہی@@ 1
نیند 1
ڈائی@@ 1
کیاں 1
گریٹ 1
یحیی 1
20,@@ 1
آرائی 1
ائ 1
المع@@ 1
جاپانیوں 1
دماغی 1
روٹ 1
فیہ 1
لت@@ 1
مظ@@ 1
وفاداری 1
کھیلتی 1
گراں 1
ہنگامہ 1
۳@@ 1
70@@ 1
O 0.12159599246124755
O@@ 0.06981458246520589
العابدین 1
رسل 1
سیارہ 1
عدل 1
فریق 1
محترمہ 1
ولن 1
وکی 1
ہمدان 1
یان@@ 1
1933 0.2373783336755548
44@@ 1
اوزار 1
ة 1
تیا 1
حسين 1
خودکار 1
سنبھ@@ 1
طہ 1
لوی 1
لڑکیاں 1
لگتے 1
مآخذ 1
ملحق 1
نکولس 1
نگل 1
ونڈ 1
ویسے 1
ٹریک 1
کوری@@ 1
یکے 1
T20I 1
الذ@@ 1
بخوبی 1
بنارس 1
ترکستان 1
جِ@@ 1
سٹو@@ 1
فلک 1
قمری 1
لوی@@ 1
متوسط 1
منقول 1
نط@@ 1
پران 1
ہیریسن 1
198@@ 1
http 1
الطاف 1
ایٹ@@ 1
باہم 1
جملے 1
جینی@@ 1
دستبردار 1
روف 1
سیکھا 1
شاه 1
شخصی 1
قدرے 1
لمپور 1
مہاراجہ 1
میل@@ 1
ناقص 1
پوش 1
ڈانس 1
ڈیوس 1
1954 0.2319318175674329
5ھ 1
اسلا@@ 1
اعی 1
البانیا 1
الیا 1
امکانات 1
اہلکاروں 1
تیونس 1
زاویہ 1
سط@@ 1
سوامی 1
سپین 1
علموں 1
فٹ@@ 1
پزیرائی 1
گرمائی 1
گوشہ 1
ﺍ 1
1921 0.29863954247128577
اردگرد 1
برو 1
حدیثیں 1
خورشید 1
دش@@ 1
شہباز 1
طبری 1
مؤرخین 1
کاب@@ 1
کیپ@@ 1
یرہ 1
67@@ 1
امریکن 1
اُٹھ@@ 1
بلديہ 1
جلوہ 1
حنیفہ 1
ریٰ 1
ندوں 1
پاتا 1
گوں 1
III 0.16320155574101852
تشخیص 1
تنہائی 1
خضر 1
زان 1
سہل 1
شیل 1
عُ@@ 1
قاعدہ 1
مانگ 1
مینڈ@@ 1
ْ 1
پالی 1
ڈاؤن 1
بھاگ@@ 1
توڑنے 1
ثی 1
خارجی 1
خواص 1
علیؓ 1
فنا 1
موصل 1
نٹن 1
واج@@ 1
يور@@ 1
ٹائی 1
پنجم 1
پکڑے 1
کنگز 1
کَ@@ 1
کیمی@@ 1
کیمیاء 1
گرلز 1
اسپ@@ 1
اسکندریہ 1
اعتدال 1
الک 1
ترمذی 1
خوان 1
خوشحالی 1
رال 1
ساہتیہ 1
فساد 1
كركٹ 1
پیسہ 1
55@@ 1
؍ 1
إِ@@ 1
اصلاحی 1
المن@@ 1
بہا 1
داریوں 1
سیستان 1
طی 1
فاط@@ 1
فیملی 1
لینڈ@@ 1
ٹنے 1
کلر 1
کنڈ@@ 1
کیمرون 1
یوری@@ 1
1942ء 1
8ھ 1
amp 0.05422354110960493
ارات 1
المبارک 1
انخلا 1
بلاشبہ 1
تد@@ 1
توم@@ 1
خودکشی 1
روش@@ 1
زائرین 1
لوپ 1
نسائیت 1
وینس 1
کلیم 1
کوچنگ 1
کیل@@ 1
ہیل@@ 1
177@@ 1
\ 0.9283451430353483
تابع 1
تجھ 1
طیب 1
لکھنوی 1
نانک 1
چارہ 1
گھانا 1
ہڈی 1
انواع 1
ایس@@ 1
بادل 1
جڑ 1
خواندگی 1
فیکٹری 1
قران 1
لوٹ@@ 1
مبر@@ 1
مینجمنٹ 1
نبھایا 1
کتنے 1
گي 1
ہمسایہ 1
یوراگوئے 1
‏ 1
اسٹریٹجک 1
اندرا 1
انفارمیشن 1
اوم@@ 1
تسا 1
شیئر 1
فاسٹ 1
مرو 1
پدم 1
گوئ@@ 1
گیندیں 1
بلخ 1
تال@@ 1
تنظیمیں 1
جائی@@ 1
شرقی 1
مراعات 1
پت@@ 1
کوت 1
Sainte 0.7078287586183312
ar@@ 0.0856167575412457
آراستہ 1
ثقافتوں 1
حسنی 1
ذبح 1
ذہین 1
فتویٰ 1
قدر@@ 1
لارڈز 1
لوٹا 1
مانچسٹر 1
پيري 1
کتوں 1
گشت 1
گوریلا 1
b 0.12930842537495543
d@@ 0.08828684904438912
z@@ 0.08850938908899132
تحفہ 1
حت@@ 1
سیار@@ 1
میسن 1
ڈاکٹریٹ 1
ڈون 1
ہمالیہ 1
1931ء 1
59@@ 1
j@@ 0.1234335530852829
اجرت 1
اسٹو@@ 1
بتاتا 1
ساختہ 1
سرنگ 1
سیس 1
پوٹ@@ 1
گلا@@ 1
۲ 1
176@@ 1
1928ء 1
58@@ 1
خصوصا 1
خوفناک 1
فري@@ 1
فس 1
فلاحی 1
قان 1
معراج 1
ورز 1
ٹھا 1
پردے 1
پروٹسٹنٹ 1
پیدا@@ 1
1966 0.18686370949551043
بیلاروس 1
بیہ 1
دریں 1
سائے 1
سروں 1
لوگن 1
ميري 1
نات@@ 1
ٍ 1
پروین 1
ڈزنی 1
ڈیس 1
ڈیوک 1
کاشی 1
کریٹ 1
کوی 1
کھڑ@@ 1
کیش 1
$ 0.07151914980898698
ابا 1
اتوار 1
اوصاف 1
بھا 1
جاب@@ 1
حض@@ 1
خریداری 1
خوشگوار 1
روان 1
رویے 1
سینڈ@@ 1
شیراز 1
ضی@@ 1
عط@@ 1
لنگر 1
معاونت 1
یٹ 1
۰ 1
ﻞ 1
23.@@ 1
75@@ 1
البانی 1
بہتا 1
خاصا 1
دیواریں 1
رح 1
سنجیدہ 1
سیراب 1
عصری 1
نجیب 1
ٹرمپ 1
پولی 1
یوکرائن 1
Sh@@ 0.1630776958958447
c 0.12342613953121168
اظہر 1
اقلیتوں 1
بتوں 1
بذریعہ 1
ترسیل 1
تھل 1
سالی 1
قسمیں 1
منظ@@ 1
نگے 1
ٹور 1
گزرتا 1
ہارڈ 1
ہیری 1
الیک@@ 1
ایڈمرل 1
بابو 1
بتا 1
بھوٹان 1
زگور@@ 1
زیوں 1
سٹیشن 1
شرک 1
صدر@@ 1
ضعیف 1
لیات 1
مسيسپي 1
پرندے 1
کردیتے 1
کرچکے 1
کھایا 1
ہمدانی 1
یلا 1
175@@ 1
بھگوان 1
تارا 1
تقرر 1
خانی 1
خزاں 1
راجن 1
راد 1
سات@@ 1
سادگی 1
محب 1
نارائن 1
ﻮﮞ 1
21.@@ 1
بتاتی 1
بریک 1
بين@@ 1
تند@@ 1
جال@@ 1
جہنم 1
رياست 1
قلت 1
ماء 1
ماہانہ 1
پسماندہ 1
اسمتھ 1
اسٹائل 1
اسپن 1
انیا 1
اوول 1
بدوش 1
تبلیغی 1
نوشتہ 1
ٹیڈ 1
چون 1
کینڈا 1
125 0.9490489798609371
1929ء 1
1955 0.21960107089995384
199@@ 1
N 0.195822206934204
انعامات 1
بنگ 1
بورن 1
جرنیل 1
دلہن 1
زرخیز 1
زنا 1
سیکولر 1
صدام 1
طرفہ 1
كري@@ 1
لگتی 1
نعرہ 1
واسطے 1
ونڈ@@ 1
ویسٹرن 1
کلچر 1
1921ء 1
1922ء 1
1934ء 1
خیر@@ 1
رود 1
سویل 1
قافلہ 1
قومیت 1
لطیفہ 1
ماننا 1
محصول 1
مطلوبہ 1
منتظم 1
میو 1
پای@@ 1
چشتیہ 1
ڈوب 1
گرمین 1
ہیرو@@ 1
بچایا 1
بہنے 1
ثالث 1
حاتم 1
خودمختار 1
سائیڈ 1
سرکردہ 1
فصیل 1
ٹوکیو 1
پیری@@ 1
ژ 1
ہنس 1
ہولی 1
,@@ 1
4ھ 1
7ھ 1
اتھا 1
اعضاء 1
اناج 1
جبو@@ 1
ذمے 1
لودھی 1
مطمئن 1
مَا 1
نشاندہی 1
نصی@@ 1
نفیس 1
ونڈوز 1
پروڈیوس 1
کرافورڈ 1
یونی 1
۰@@ 1
F@@ 0.059644127187825434
القادری 1
بیداری 1
تاشقند 1
جانبدار 1
راش@@ 1
زیشن 1
طلائی 1
طنز 1
فکشن 1
قوں 1
لیث 1
نویسی 1
ورن 1
ورے 1
ویا 1
چنگ@@ 1
کیک 1
گھوڑا 1
یاسر 1
57@@ 1
باس 1
بھگت 1
سنتے 1
منیسوٹا 1
نفوس 1
وزیراعظم 1
چھاپے 1
کتنا 1
کرامت 1
کروائے 1
197@@ 1
آبادیوں 1
ابادی 1
اترا 1
اولڈ 1
اوکاڑہ 1
اینٹوں 1
برخلاف 1
تام@@ 1
تذ@@ 1
توت@@ 1
رتن 1
فرمائیں 1
نمٹنے 1
نیٰ 1
وظیفہ 1
ٹریننگ 1
1919ء 1
1934 0.2445481071037212
22.@@ 1
آکسیجن 1
ارتی 1
الکریم 1
دنیاوی 1
شہد 1
كل 1
لاؤ 1
لك@@ 1
لوڈ 1
نظر@@ 1
نوک 1
نگران 1
وسکی 1
ِّ@@ 1
٢@@ 1
ٹرانسپورٹ 1
پائی@@ 1
پچھلی 1
گوری@@ 1
ﺪ@@ 1
105 1
اجسام 1
ادي 1
بشپ 1
دورِ 1
متوازی 1
مرا 1
مين 1
نبھ@@ 1
نقوش 1
کوہ@@ 1
کپڑا 1
186@@ 1
2,8@@ 1
66@@ 1
اتي 1
راجیہ 1
زگ@@ 1
مایوسی 1
وجا 1
گھڑی 1
۵@@ 1
2,5@@ 1
اجر 1
تجھے 1
خوشحال 1
سپاہ 1
سگ@@ 1
شاعرہ 1
عش@@ 1
چھٹے 1
ہوجانے 1
ہیڈ@@ 1
18,@@ 1
24.@@ 1
with 0.005354301190685414
اركنساس 1
البانیہ 1
بڑھی 1
بیکر 1
جمشید 1
سیاستدان 1
سیکس 1
فرانسیسیوں 1
وحدت 1
پتھ@@ 1
کاش 1
کڑ@@ 1
ہرن 1
ہیلتھ 1
1924ء 1
1932 0.2561769916793712
L 0.10945679213663524
بحق 1
خص@@ 1
داماد 1
رسوم 1
رضامندی 1
ستلج 1
سراغ 1
سلسلۂ 1
سماع 1
عباسیہ 1
عروہ 1
مذاق 1
منشیات 1
ً@@ 1
پائیں 1
پلو@@ 1
.. 0.4550465732964355
99@@ 1
احمر 1
ادوں 1
اموں 1
اونچا 1
جرسي 1
سائنسدانوں 1
مانی@@ 1
محراب 1
مصطفیٰ 1
ٹیکنیکل 1
پکڑا 1
پہننے 1
ڈول@@ 1
کارا 1
کارنامے 1
کرسمس 1
یع@@ 1
آپؒ 1
استاذ 1
الشیخ 1
برائی 1
جات@@ 1
جماعتیں 1
روانڈا 1
سانحہ 1
سکہ 1
لانڈ@@ 1
متفقہ 1
نحو 1
گیتا 1
ہز@@ 1
ﻓ@@ 1
اتر@@ 1
اریہ 1
المر@@ 1
ترانہ 1
حکومتیں 1
دلکش 1
علیحدہ 1
مفسرین 1
مکتبہ 1
نَ 1
وسٹا 1
ى@@ 1
کشمکش 1
گارڈن 1
گیاں 1
تلقین 1
رف 1
ریڈی 1
صوفیہ 1
غنی 1
نغمے 1
نوا 1
102 1
194@@ 1
بشر 1
بغدادی 1
بیو@@ 1
دوستانہ 1
صفدر 1
ضہ 1
فیئرفیلڈ 1
متضاد 1
نیوٹن 1
هِ 1
وخ@@ 1
ٹیو 1
پلانٹ 1
یز@@ 1
یوتھ 1
یوگوسلاویہ 1
آرا@@ 1
آرمینی 1
آگاہی 1
آہنگ 1
اکرام 1
بارود 1
بمقابلہ 1
بیجنگ 1
تس 1
تعصب 1
دھو@@ 1
دیکھ@@ 1
ساز@@ 1
سفی@@ 1
غیب 1
مانہ 1
مددگار 1
نسائی 1
ٹھے 1
پک 1
l 0.02691511738573761
m 0.054778263025656596
اہلسنت 1
بندوں 1
تانبے 1
جلا@@ 1
حبشہ 1
حر 1
دشت 1
دلیپ 1
سنگھ@@ 1
شف@@ 1
فرش 1
فقی@@ 1
لڑائیوں 1
مائی@@ 1
معلم 1
ممنوع 1
موتی 1
مہر@@ 1
ناس 1
نظرانداز 1
چیچنیا 1
کبڈی 1
ہینکوک 1
ﭼ@@ 1
آد@@ 1
بطن 1
بہنوں 1
خزرج 1
رچمنڈ 1
صداقت 1
عدالتوں 1
عزی@@ 1
مقررہ 1
نافع 1
نوش 1
نڈا 1
ٹينيسي 1
کلمات 1
کوالیفائر 1
کیمپوں 1
Region 0.248280023280761
اقلیتی 1
الوی 1
بقا 1
جیٹ 1
رجحانات 1
سیدھے 1
قار@@ 1
مثلًا 1
منو@@ 1
میلے 1
نواح 1
وضو 1
ّا 1
کاہ@@ 1
گیر@@ 1
ہیرا 1
ﺯ@@ 1
1926ء 1
ad 0.17323373959664162
آدھی 1
بیٹھنے 1
تعظیم 1
دانشوروں 1
سانپ 1
سترہویں 1
سجادہ 1
عبدالملک 1
معمر 1
موسمی 1
ورثے 1
پائن 1
پرائیویٹ 1
ڈھائی 1
یانگ 1
17,@@ 1
1913 0.29570871759165557
اؤن@@ 1
برانڈ 1
تزئین 1
توج@@ 1
خوارزم 1
رموز 1
ریزی 1
ریلی 1
زمانۂ 1
سہارنپور 1
سیاحتی 1
سیاروں 1
شاہین 1
صنعتوں 1
ماب@@ 1
متح@@ 1
موہ@@ 1
کیلے 1
گمان 1
یَ@@ 1
۱۹@@ 1
آند@@ 1
امانت 1
بیٹیوں 1
تاتار 1
جتنے 1
خوش@@ 1
دخ@@ 1
سواں 1
عالمي 1
فلو@@ 1
فیر 1
نڈے 1
چناب 1
ادویات 1
اوّل 1
بشارت 1
طلوع 1
لڑا 1
چرا@@ 1
کھنڈ 1
یی 1
kh@@ 0.26490352216780255
خودی 1
خوشاب 1
ذرات 1
رام@@ 1
سوئٹزرلینڈ 1
سوئی 1
ندوۃ 1
نیں 1
ٹائٹل 1
چھا 1
کہلائے 1
گال 1
ہارٹ 1
۱ 1
1922 0.2598002800430315
1927ء 1
انوار 1
اوک 1
اپر 1
بیٹ@@ 1
جرا@@ 1
خورد 1
خٹک 1
روایتیں 1
شیوں 1
علیہم 1
عِ@@ 1
مشتق 1
معمار 1
ملایا 1
ّے 1
پلاٹ 1
پُر 1
25.@@ 1
C@@ 0.06230465842686715
آسٹریلین 1
اذان 1
بہنیں 1
ترے 1
حجاب 1
شادیاں 1
كل@@ 1
مشترک 1
مفاد 1
مقد@@ 1
مندی 1
مِنْ 1
مکرر 1
مہتمم 1
ڈرز 1
کامیابیوں 1
۷@@ 1
1923ء 1
1941ء 1
آنسو 1
ابوالحسن 1
اقرار 1
برادریوں 1
تاً 1
درسگاہ 1
دلانے 1
سیکھ@@ 1
شیائی 1
عظمیٰ 1
فلاں 1
منہاج 1
نعتیہ 1
نوی 1
نیپالی 1
ڈیلٹا 1
کامران 1
۳ 1
90@@ 1
اط 1
امیدواروں 1
انص@@ 1
برق 1
بیڑا 1
جرائد 1
راؤنڈ 1
سہروردی 1
شنل 1
متنوع 1
مہار@@ 1
میگ@@ 1
ٹیلی@@ 1
ﻴ@@ 1
آخ@@ 1
ازدواجی 1
الحسین 1
اوا@@ 1
بھا@@ 1
تھم 1
ثقہ 1
قازق 1
لیڈی 1
نقد 1
نوس 1
پہنچتی 1
ڈویلپمنٹ 1
کولا 1
گھو@@ 1
19,@@ 1
220 1
9ھ 1
آسمانی 1
الٹی 1
جہیز 1
داء 1
زاہ@@ 1
فات 1
قضا 1
قیمتوں 1
مادر 1
ويسٹ 1
چٹان 1
174@@ 1
ادبیات 1
ادیبوں 1
اشارے 1
امتزاج 1
بام@@ 1
تئیس 1
تہذیبی 1
ثر 1
رين 1
زویل 1
سبی@@ 1
سنہ@@ 1
سٹس 1
سیکنڈری 1
عات 1
فرینک 1
فصلوں 1
ناش@@ 1
کوریائی 1
۹@@ 1
اسیر 1
انتظامات 1
اڑا 1
جریدے 1
ذوال@@ 1
ساگر 1
شیواجی 1
فال 1
لغ@@ 1
مانسہرہ 1
منت 1
ولي 1
پھو@@ 1
گھی@@ 1
ہات 1
یوحنا 1
2,6@@ 1
240 1
5000 1
Mazraeh 1
n@@ 0.07744166119433012
امدادی 1
اه@@ 1
اڈوں 1
بچی 1
تیرہویں 1
جذبے 1
جلی 1
جمع@@ 1
رستم 1
ستی@@ 1
قدیمی 1
نیٹو 1
چغتائی 1
کاف@@ 1
کاٹنے 1
کھیتی 1
ﮐﺎ 1
1931 0.24962849258456216
ارادے 1
اساس 1
ایڈیلیڈ 1
باء 1
تاثیر 1
تعمیل 1
جنیوا 1
عج@@ 1
فیت 1
لار 1
مرہٹہ 1
مشرقي 1
مطابقت 1
مٹ@@ 1
میٹ 1
نثار 1
نڈل 1
2,4@@ 1
43@@ 1
Kandi 1
آرٹسٹ 1
افت 1
بتائے 1
توق@@ 1
جاگ@@ 1
جمعرات 1
سْ@@ 1
فاس@@ 1
مارٹل 1
موج 1
ناگپور 1
ٹم 1
ڈائی 1
ڈنٹ 1
ڑھ 1
کیوبیک 1
گہ 1
۴@@ 1
ﻢ 1
1933ء 1
2,7@@ 1
I@@ 0.08275055736269503
JarBot 1
am 0.021949843467736093
اعدادوشمار 1
ایتھ@@ 1
خر 1
دانہ 1
سچائی 1
عم 1
لگاتار 1
مجیب 1
مرک@@ 1
نیکی 1
ينا 1
پانڈ@@ 1
پچھ@@ 1
ڈاٹ 1
کات 1
گام@@ 1
آمنہ 1
القدر 1
تال 1
حجت 1
شایع 1
لائسنس 1
لتا 1
ماڈلنگ 1
منگل 1
میامی 1
وور@@ 1
ویدک 1
چوڑائی 1
انک 1
بھرے 1
سوز 1
فوٹو 1
لانچ 1
لیب 1
مانگی 1
کنو 1
گروں 1
ہیومن 1
آرائش 1
انڈے 1
بدقسمتی 1
بندوق 1
راجپوتوں 1
زي 1
سنے 1
شم 1
ضابطہ 1
قرا@@ 1
لیلی 1
مایہ 1
مبلغ 1
مکران 1
واری 1
ٹیبل 1
کرسکتی 1
کھنڈر 1
کیت 1
گنگ 1
یارکشائر 1
ﷲ 1
ah 0.2130446601888871
اجل 1
اٹھانا 1
بھٹ 1
ثعلبہ 1
جذ@@ 1
حافظہ 1
حساس 1
خدشہ 1
سلا 1
فیصلوں 1
لوگو 1
مجاہ@@ 1
منڈل 1
نباتات 1
پود@@ 1
پھیلنے 1
پیٹ@@ 1
کتابی 1
کھیلنا 1
ہمدردی 1
ہُ@@ 1
اخلاقیات 1
الرحیم 1
بھکر 1
تھو 1
ستے 1
سپلائی 1
قسط 1
قصیدہ 1
مالی@@ 1
ماچ@@ 1
مجتہد 1
مهٔ 1
وزڈن 1
ووو 1
وینزویلا 1
چینگ 1
ڈومینیکن 1
کررہی 1
1939ء 1
r 0.17342541415735005
s@@ 0.05279849032671574
تجاویز 1
جسامت 1
صفہ 1
قافلے 1
كون@@ 1
لڑاکا 1
مردانہ 1
ونَ 1
پہنچتے 1
چھاپہ 1
ڈین@@ 1
کلائ@@ 1
کوئینز 1
یونٹوں 1
بوسٹن 1
جالندھر 1
جک 1
جھنڈے 1
دوا@@ 1
فیئرویو 1
قرضوں 1
قصر 1
كام@@ 1
مہلک 1
نَا 1
وارانسی 1
کتا 1
کرسکیں 1
کنڑ 1
گلہ 1
گنیز 1
یونائیٹڈ 1
1929 0.22195634088816732
2,9@@ 1
آلو 1
ادراک 1
ارد@@ 1
العین 1
المص@@ 1
حا 1
خوں 1
رسد 1
زیورات 1
كَ 1
كَ@@ 1
مکھی 1
میدانی 1
نستعلیق 1
ڈرامائی 1
کررہا 1
کنو@@ 1
یمنی 1
1914ء 1
27.@@ 1
Iowa 0.5632675788205651
استوار 1
البرٹ 1
تھانہ 1
ثناء 1
غصے 1
لنے 1
ناظرین 1
نگو 1
وزراء 1
پان 1
چرچل 1
چمپ@@ 1
ڈونگ 1
کتاب@@ 1
کز@@ 1
ﻝ 1
193@@ 1
California 0.12412846274714388
k 0.10208911359932177
استع@@ 1
باڈی 1
شہرہ 1
عبدالمطلب 1
علامتی 1
غربی 1
قومي 1
لنک 1
لکیر 1
مشاہدات 1
مضبوطی 1
يُ@@ 1
ٹام 1
کثافت 1
کردیتا 1
108 1
115 1
187@@ 1
اعتراضات 1
اپوزیشن 1
ایشز 1
بالٹک 1
بلو 1
تھے@@ 1
درپیش 1
دنیائے 1
طفیل 1
طیبہ 1
فقط 1
منزلیں 1
مپ 1
مۃ 1
والی@@ 1
پچ@@ 1
ڈھان@@ 1
کاؤ@@ 1
ہدایتکاری 1
ﺕ 1
1917ء 1
U@@ 0.09140759552927982
اشتہارات 1
بدنام 1
دروازوں 1
ذر@@ 1
لش@@ 1
نسر 1
نیول 1
پہنا 1
190 1
آلپ 1
افسروں 1
اورحضرت 1
اینی@@ 1
بندوبست 1
تبتی 1
حفیظ 1
رشد 1
سنایا 1
شوگر 1
شکاگو 1
عدنان 1
میٹنگ 1
نڈز 1
کرایہ 1
کردیئے 1
کھجور 1
ہان@@ 1
ہما 1
56@@ 1
Ar@@ 0.09081604650693988
ايڈ@@ 1
باڑی 1
جس@@ 1
ریٹائرڈ 1
سچے 1
صوفیا 1
عمیر 1
فریضہ 1
ماریا 1
منصف 1
منہدم 1
والم@@ 1
چائنا 1
چمک@@ 1
کاو@@ 1
گزرتی 1
1925ء 1
· 0.06494933530120581
آئرن 1
آركنساس 1
آزمائش 1
اك 1
اٹھارویں 1
تغ@@ 1
تونس 1
جاسکتے 1
حْ@@ 1
دیوں 1
شائ@@ 1
صاحبِ 1
فرخ 1
مالیت 1
میرا@@ 1
نار 1
نبرگ 1
وق 1
ٹریڈ 1
پڑھایا 1
کووڈ 1
South 0.061202094463605465
آدھے 1
اظ@@ 1
الرا@@ 1
ايل 1
بخار 1
بصیرت 1
شفیق 1
شکلوں 1
فجر 1
مضافاتی 1
معذور 1
منبر 1
پرتاپ 1
ڈوں 1
کلیئر 1
کماری 1
گراڈ 1
ﺎﻧ@@ 1
1924 0.23022581410646828
1943ء 1
امل 1
بایزید 1
بوٹ 1
تشہیر 1
خندق 1
دوڑ@@ 1
دکھانے 1
رضاکارانہ 1
ساہ@@ 1
سیو 1
شوٹنگ 1
شيخ 1
قرطبہ 1
لوا 1
ملتانی 1
میلا 1
نہاد 1
نہيں 1
ينگ 1
پرامن 1
پینل 1
ڈھیر 1
کشیدگی 1
کمونے 1
کوفی 1
ہلکی 1
ہندوستانیوں 1
یقیناً 1
130@@ 1
54@@ 1
D 0.1186396107089722
f 0.18003017691686157
اسناد 1
اکر 1
برس@@ 1
برفانی 1
تخت@@ 1
حج@@ 1
دوم@@ 1
ذائقہ 1
روزمرہ 1
رینج 1
سامی 1
شعبۂ 1
طبعی 1
عرس 1
لفظوں 1
لیو@@ 1
متنازعہ 1
میتھ@@ 1
ونت 1
پیچھا 1
کھیتوں 1
‍ 1
1500 0.6095871082179354
195@@ 1
آداب 1
آراء 1
اصفہانی 1
انگو 1
جریدہ 1
خونی 1
دبانے 1
رونا 1
سٹین 1
فلسطینیوں 1
لکی 1
مترادف 1
مشنری 1
مڈوے 1
104 1
اتباع 1
المعارف 1
امتحانات 1
بز 1
تمغے 1
طائف 1
غل@@ 1
فلوريڈا 1
قض@@ 1
قي 1
معارف 1
میلان 1
ناگ 1
وين@@ 1
کاک 1
کردوں 1
یوٹیوب 1
64@@ 1
E 0.1488453243799166
e@@ 0.0708463657639192
امیر@@ 1
بارڈر 1
ثقل 1
حاملہ 1
خش@@ 1
غریبوں 1
قرار@@ 1
قصے 1
قل 1
كتاب 1
محكمہ 1
مناف@@ 1
میکس 1
وقفہ 1
ٹیپو 1
پسندانہ 1
ہسپانویوں 1
آرگنائزیشن 1
اوت 1
ایت 1
اینڈریو 1
حارثہ 1
رحمانی 1
ردعمل 1
سائیکل 1
سلی 1
سیالوی 1
سیکشن 1
شیشے 1
طبر@@ 1
فلسفیانہ 1
كُ@@ 1
لب@@ 1
نش 1
پلٹ 1
پہلوان 1
ڈاکٹروں 1
کھینچ 1
کیسل 1
گذ@@ 1
78@@ 1
ارشد 1
اسکے 1
الاع@@ 1
اونچے 1
بدترین 1
جنوں 1
خُ@@ 1
داستانوں 1
رہو 1
ستھ@@ 1
سمجھنا 1
ضیا 1
فرات 1
مطالعات 1
پارے 1
چنگیز 1
ڈال@@ 1
گلستان 1
۶@@ 1
ﻼ@@ 1
👈 1
155 1
1912ء 1
360 0.9517138341142539
y@@ 0.08961655467281933
آس@@ 1
ائیت 1
ارون 1
جزيرہ 1
حاوی 1
رئ@@ 1
رائٹس 1
رکنی 1
سخی 1
شل@@ 1
شوز 1
لیف@@ 1
مماثلت 1
مورس 1
مہاتما 1
میرٹھ 1
نیلی 1
کمرہ 1
ہور 1
94.@@ 1
اسکو@@ 1
اوپری 1
جعلی 1
خریدنے 1
درستی 1
ریاضت 1
سولو 1
صحرائے 1
عتبہ 1
محمدی 1
مصیبت 1
موم 1
وزی@@ 1
٢ 1
پیشرفت 1
چھٹا 1
گجر 1
114 1
Minnesota 0.42154612718036466
افری@@ 1
الحرام 1
الم 1
بیٹ 1
تمیم 1
جیانگ 1
خروج 1
درجنوں 1
رعایا 1
روزے 1
رومانی 1
فرح 1
فول@@ 1
قرب 1
محتاط 1
نامکمل 1
نانی 1
ٹري@@ 1
ٹڈ 1
کاپی 1
گراہم 1
ید@@ 1
235 1
انڈرگراؤنڈ 1
بیٹھ@@ 1
تیزاب 1
جانداروں 1
جین@@ 1
خم 1
دادو 1
دب 1
علالت 1
لنا 1
ليس 1
ماؤ 1
مخت@@ 1
وینا 1
ڈیفنس 1
۵ 1
112 1
الك@@ 1
امپائر 1
اڑیسہ 1
تھلگ 1
دیاں 1
ریکارڈنگ 1
سفر@@ 1
لمحہ 1
مجالس 1
وتوں 1
وج 1
پذیری 1
گذرے 1
گناہوں 1
25,@@ 1
450 1
ایلی 1
برڈ 1
تاتاری 1
تحصیلوں 1
تہذیبوں 1
جلسہ 1
سوراخ 1
شہزاد 1
غذائی 1
لاہوری 1
مملوک 1
پنڈی 1
کث@@ 1
کینی@@ 1
g 0.11115703897287868
آبادکاری 1
آپری@@ 1
ائٹ 1
اسٹڈیز 1
السّلام 1
املا 1
انسائیکلوپیڈیا 1
بلوم 1
بچاؤ 1
بیروت 1
حات 1
خالصہ 1
روانگی 1
رکوع 1
سیداں 1
شبلی 1
طوسی 1
عدلیہ 1
كن@@ 1
مبصرین 1
معقول 1
نجد 1
٣@@ 1
پابندیوں 1
پولو 1
گرد@@ 1
یقینا 1
یٰ 1
1918ء 1
آئلینڈ 1
افہ 1
انگلی 1
اگ 1
تعجب 1
خانیوال 1
راشدی 1
رانہ 1
رج 1
شاپ@@ 1
شکلیں 1
پسپا 1
چش@@ 1
چھپی 1
کیری 1
a@@ 0.10565153323308793
اندوز 1
انسپکٹر 1
اِسے 1
اٹھے 1
اہلیت 1
بسا 1
بنگلا 1
بور 1
جنید 1
حسد 1
خواہشات 1
دک 1
سپرنگ 1
سیون 1
شیفیلڈ 1
صَ@@ 1
وٹو 1
ٹرائے 1
پہن@@ 1
ڈا@@ 1
کالجوں 1
commune 0.07974856240130414
ابنِ 1
اِن@@ 1
ایکسپ@@ 1
تالیفات 1
جید 1
صوتی 1
ممبران 1
پہچانا 1
چاکر 1
کولمبس 1
ہٹانے 1
۸@@ 1
امپیریل 1
اوتار 1
بخود 1
بروک 1
بفیلو 1
جھارکھنڈ 1
جیتی 1
حصّہ 1
صدقہ 1
ملر 1
نفی 1
ٹرانس 1
پرکاش 1
پیا 1
چھوڑے 1
کیلنڈر 1
گرجاگھر 1
ہرگز 1
یاتی 1
106 1
ak 0.17069153057028832
اجمیر 1
الحارث 1
الکبیر 1
انچارج 1
به 1
زرداری 1
سمٹ 1
عماد 1
فرڈ 1
قائدین 1
مستعفی 1
منظوم 1
مڈ 1
نریندر 1
ٹنڈ@@ 1
ٹیس 1
پالی@@ 1
پطرس 1
کاتھولک 1
کسر 1
کوہستان 1
گورن@@ 1
گوری 1
ہلیری 1
32@@ 1
t 0.05225105966451207
ابِ 1
اسٹر@@ 1
اصناف 1
ایریا 1
برہم 1
بنک 1
تمباکو 1
تنزانیہ 1
توسط 1
جیا 1
صورتوں 1
كرو@@ 1
مدتی 1
مروجہ 1
مہاراج 1
واب 1
ٹھہر@@ 1
پروٹوکول 1
پست 1
پنچ@@ 1
پیارے 1
کرۂ 1
ہنی 1
یئ@@ 1
ﮐﺮ@@ 1
ﻡ 1
1908ء 1
آجائے 1
ارو@@ 1
المح@@ 1
اوكلاہوما 1
اوپننگ 1
تاجک 1
سرب 1
سینما 1
شادیوں 1
ضمنی 1
طباعت 1
طر 1
عقلی 1
محکمے 1
منائی 1
منبع 1
واقفیت 1
وامی 1
وعظ 1
وين 1
ٹومب 1
پس@@ 1
چیمپیئن 1
گلوکاروں 1
یہو@@ 1
1915ء 1
جھنڈا 1
دبا 1
درجن 1
دکھا 1
شیروں 1
فارسٹ 1
فضاء 1
قاجار 1
لاء 1
لعنت 1
ماسٹرز 1
نوٹس 1
نکی 1
وکا 1
يز 1
ٹکڑوں 1
پہن 1
ڈارون 1
کوہاٹ 1
ہوت 1
107 1
اشاریہ 1
باں 1
خراسانی 1
ریشن 1
ریٹ@@ 1
ستر@@ 1
صحیفہ 1
طریق 1
عمار 1
لق@@ 1
لگاؤ 1
مسودہ 1
ملاپ 1
ولوجی 1
پاتی 1
پاپ 1
پیشاب 1
کرک 1
گرل 1
53@@ 1
T 0.13402671814256903
are 0.010522509574399257
o 0.026621247391081942
اپا 1
بتدریج 1
برطرف 1
بستر 1
تمنا 1
دائر 1
سائیں 1
سع@@ 1
شعر@@ 1
عزاداری 1
غزلیں 1
فریقین 1
فہمی 1
لادن 1
نون@@ 1
ها 1
واڑ 1
وُ@@ 1
ٹیں 1
پندرہویں 1
پکا 1
کانپور 1
کوئنز 1
ﺁ@@ 1
ﺣ@@ 1
126 1
3000 0.7025292602555274
آئر 1
آبادي 1
الرحمہ 1
بھلا 1
بہاؤالدین 1
بیور 1
تمدن 1
تِ@@ 1
دريا 1
دیپ 1
رشوت 1
سنجر 1
صفین 1
طواف 1
مشابہت 1
منزلہ 1
واٹ 1
ڈھال 1
گلزار 1
گھرا 1
NA 1
افغانی 1
الث@@ 1
اکائیوں 1
تسخیر 1
جنی@@ 1
دال 1
راتی 1
شي 1
عْ@@ 1
مدح 1
مود 1
نوشی 1
پہنے 1
چمک 1
چُ@@ 1
کپڑوں 1
۴ 1
196@@ 1
اسم@@ 1
اسٹیل 1
ايك@@ 1
ایڈ 1
بھگ@@ 1
تشبیہ 1
روزگاری 1
سد 1
سمر 1
سنان 1
طالبات 1
فرضی 1
قرأت 1
مزارات 1
مفسر 1
ممانعت 1
مویشی 1
مویشیوں 1
نامزدگی 1
وریا 1
وفضل 1
ہاک 1
28.@@ 1
b@@ 0.08009075634124221
الاش@@ 1
ایلیٹ 1
بنی@@ 1
جمالی 1
جوی@@ 1
دالہ 1
سرب@@ 1
شاعرانہ 1
صابر 1
مشابہ 1
نجر 1
وارسا 1
وبائی 1
وزرائے 1
ووس@@ 1
پنڈ 1
کاتب 1
ہائیڈروجن 1
ہڈسن 1
ہڑ@@ 1
109 1
1915 0.25556251563191873
ch@@ 0.056864496609895315
p 0.11328844722490207
آرزو 1
افادیت 1
تقویٰ 1
رؤ@@ 1
روزویلٹ 1
زہ@@ 1
ساؤ 1
صفیہ 1
صل 1
فالز 1
فرحت 1
مديرية 1
نقشے 1
ورما 1
کلثوم 1
گزین 1
گیلری 1
ﺎﻥ 1
116 1
128 1
21,@@ 1
76@@ 1
79@@ 1
98@@ 1
V 0.1260118731780425
احاطے 1
باک 1
جاؤں 1
جمنا 1
درباری 1
سلطانہ 1
سڑکیں 1
عبدالحمید 1
فیچر 1
قبی@@ 1
قطعہ 1
مبارکہ 1
متون 1
مودودی 1
مُ 1
نووی 1
چوتھائی 1
ہوائي 1
29.@@ 1
ICC 1
Mar@@ 0.0841592209322837
ادات 1
استعفی 1
الض@@ 1
بیوں 1
جیب 1
خدا@@ 1
روکنا 1
رگ@@ 1
زنگ 1
زنی 1
شانہ 1
على 0.1231570708096465
عے 1
غداری 1
فیفا 1
كن 1
لاڑکانہ 1
لیون@@ 1
مٹ 1
نواحی 1
وائے 1
وجوہ 1
ٹوپی 1
پٹن 1
چٹانوں 1
کامرس 1
کھانوں 1
122 1
260 1
G 0.15227114795628344
that 0.005365682706692337
ئیل 1
احباب 1
ايئر 1
باطن 1
جوار 1
جڑیں 1
حوزہ 1
دھول 1
رانجھا 1
مجوزہ 1
مرہٹوں 1
منٹو 1
منڈے 1
نارتھ@@ 1
کریڈٹ 1
گائوں 1
گھڑ 1
ہڈیوں 1
ﺍﺱ 1
165@@ 1
22,@@ 1
23,@@ 1
اتراکھنڈ 1
بیاہ 1
بیلی 1
تعامل 1
رمز 1
ريس 1
طورپر 1
لهٔ 1
مشاہ@@ 1
ٹیو@@ 1
پابندیاں 1
پارسی 1
چڑیا 1
103 1
اکٹھے 1
بائیکاٹ 1
بزرگوار 1
تحائف 1
تحویل 1
تیاں 1
حاشیہ 1
داود 1
دھوپ 1
رت@@ 1
رپور@@ 1
ریک 1
صوف@@ 1
صوفیانہ 1
عمرہ 1
كولمبيا 1
كُمْ 1
معل@@ 1
ٹران@@ 1
پٹیل 1
پھلوں 1
کھولی 1
کیرو@@ 1
F 0.13371636309303916
al@@ 0.05871492398038341
برابری 1
برتاؤ 1
بْ@@ 1
جامی 1
حرکات 1
رساں 1
سائبیریا 1
سالم@@ 1
عائ@@ 1
غیرت 1
قری@@ 1
لٹ@@ 1
مقدسہ 1
ملانے 1
واق@@ 1
وفیات 1
ویلنگٹن 1
پومیرانیان 1
کانام 1
گریس 1
گزرتے 1
280 1
74@@ 1
railway 0.20689844228410928
آق@@ 1
انیت 1
باش@@ 1
بھ 1
بینی@@ 1
تعلقہ 1
تلا@@ 1
خاصہ 1
دھار 1
سوب@@ 1
شباب 1
ظاہ@@ 1
غارت 1
قِ 1
لوئی 1
مْ@@ 1
نکس 1
وائسرائے 1
پائیدار 1
پروگرامنگ 1
پریری 1
کامی@@ 1
ہیکٹر 1
135 1
88@@ 1
آبا 1
ادر 1
النسل 1
الوجی 1
اھ@@ 1
تدبیر 1
تفہیم 1
حسرت 1
خدائی 1
خرد 1
ساحہ 1
شنوں 1
فتاویٰ 1
فوج@@ 1
منڈ@@ 1
پاکپتن 1
پلس 1
Bar@@ 0.1148228856380844
اوت@@ 1
اچی@@ 1
تقاریب 1
تمغہ 1
جعفراباد 1
رش 1
علمِ 1
قزوین 1
مکالمہ 1
میرپور 1
نقطۂ 1
نوائے 1
نڈہ 1
پلان@@ 1
پوک 1
چاہیں 1
چوہان 1
کمالات 1
کھولنے 1
کھین@@ 1
ہیر@@ 1
ہیڈکوارٹر 1
یکجہتی 1
100@@ 1
164@@ 1
افغانوں 1
الاق@@ 1
المسلمین 1
برہان 1
جملوں 1
جولی@@ 1
حس@@ 1
درک 1
روحانیت 1
سقوط 1
قطار 1
وض@@ 1
وفی 1
ولِ 1
يوسف 1
ٹھٹہ 1
کارہ 1
کلیہ 1
ﷺ@@ 1
0,000 1
آث@@ 1
الار@@ 1
اونٹوں 1
بدر@@ 1
بیلجیم 1
جمیکا 1
جوابات 1
خالہ 1
سٹوڈیو 1
شاکر 1
فرشتہ 1
مشاہیر 1
معبود 1
نمو 1
واست@@ 1
پورم 1
پیٹرو@@ 1
کنواں 1
کوٹی 1
کپاس 1
ھویں 1
1857 0.5757962471239262
des 0.0033565726767051515
آشنا 1
ائي@@ 1
ابان 1
ابت 1
ادو 1
اقامت 1
اقتصادیات 1
اندا@@ 1
تصادفی 1
جلتی 1
جڑا 1
سیکٹر 1
شائقین 1
شبیر 1
عینی 1
قبولیت 1
مشتعل 1
مچ@@ 1
نکلتی 1
ونز 1
ونہ 1
پاکیزہ 1
پوں 1
چاڈ 1
یخ 1
175 1
1916 0.2519201977065731
26.@@ 1
آستانہ 1
ادیوں 1
بسنے 1
تاکید 1
جرو@@ 1
جریر 1
خبردار 1
دھیان 1
سرسید 1
سواروں 1
صاحبزادی 1
صغ@@ 1
ضل@@ 1
لاز@@ 1
مسرت 1
میرین 1
میز@@ 1
مینٹ 1
وك 1
ٹرا 1
پیٹری@@ 1
ہلاکتیں 1
ﺭ 1
132 1
21@@ 1
g@@ 0.0633540622366389
آوری 1
اسپر@@ 1
اوے 1
بکری 1
بیویوں 1
علاؤ 1
ماحولیات 1
واش@@ 1
ڈرائیور 1
گوس 1
گھون@@ 1
210 1
230 1
270 1
29,@@ 1
87@@ 1
العل@@ 1
بمقام 1
تلی 1
جوڑ@@ 1
داڑھی 1
سلط@@ 1
قونصل 1
لیوس 1
مرسر 1
نعرے 1
پاناما 1
پرتھ 1
پیادہ 1
چوان 1
کرانی 1
کرپ@@ 1
گڑھی 1
گھس 1
ہيمپشائر 1
یادو 1
124 1
170@@ 1
18ء 1
1923 0.21364238416182504
320 1
ab 0.06218394999422899
آپریٹنگ 1
اجمل 1
اربعہ 1
انٹرٹینمنٹ 1
انٹیلی 1
اوور@@ 1
اٹل 1
اپی@@ 1
اگلا 1
ایلس 1
برتنوں 1
بص@@ 1
بلوچوں 1
بندے 1
جلیں 1
زریں 1
شاع@@ 1
طالب@@ 1
متقی 1
موس 1
نابینا 1
ناپید 1
ورت 1
ومن 1
َا 1
پارٹیوں 1
پاگل 1
پکڑ@@ 1
چوکی 1
ءکو 1
آغ@@ 1
اسکالرز 1
الین 1
اولی 1
اچ 1
تعدد 1
تنا 1
تواریخ 1
جبر@@ 1
جھيل 1
حلیف 1
خودکش 1
درود 1
دسترس 1
دشوار 1
سخ@@ 1
سلفی 1
سیب 1
شیریں 1
صاحبز@@ 1
صر 1
فراموش 1
فیاض 1
قالین 1
قربت 1
لائیڈ 1
لبنانی 1
لیلیٰ 1
منسک 1
نافرمانی 1
نکاراگوا 1
نگیں 1
وزیرستان 1
ووٹوں 1
پرستش 1
چول@@ 1
کرافٹ 1
گھٹ@@ 1
ﺠ@@ 1
2.5 0.9163758801037456
Ali 0.3556993387518232
اکیلے 1
ایشی@@ 1
ایکواڈور 1
توس@@ 1
ثواب 1
حلیم 1
خانیت 1
دورانیہ 1
ریج 1
سازوں 1
سیری@@ 1
صحافتی 1
عوں 1
فتہ 1
قند@@ 1
لوہا 1
ملنا 1
مولی 1
وانگ 1
واٹ@@ 1
وینی 1
ٹائی@@ 1
ٹوبا 1
ٹھنڈا 1
ٹھی@@ 1
پرائ@@ 1
ڈینی@@ 1
ڑھ@@ 1
کِ 1
گولیاں 1
یوروپ 1
129 1
ay 0.14855554296847961
اجماع 1
اسکرپٹ 1
اسکوائر 1
الیکٹرک 1
انٹ@@ 1
ایری@@ 1
بدری 1
بیب 1
تیہ 1
جند 1
حفظہ 1
خو 1
رائن 1
رگبی 1
عہدیدار 1
ملالہ 1
مندوں 1
نوابی 1
نواں 1
وبی@@ 1
ولف 1
ولین 1
ٹرینیڈاڈ 1
پڑھانے 1
چٹاگانگ 1
کالونیوں 1
ہاری 1
ہد 1
10ء 1
1926 0.20197661327670152
3,5@@ 1
am@@ 0.08964387403621994
z 0.09105741146961523
اجزا 1
اکمل 1
بارٹن 1
برمنگھم 1
دہندگان 1
رد@@ 1
سنچریوں 1
ظہر 1
عادی 1
قِ@@ 1
محرک 1
معدوم 1
مورا@@ 1
میدی 1
نووا 1
واح@@ 1
پڑھاتے 1
ڈالتے 1
کینیڈین 1
گوپال 1
117 1
160@@ 1
1906ء 1
آلے 1
الاعتقاد 1
انحراف 1
ایوبی 1
بوائے 1
تقدیر 1
جاو@@ 1
جلسے 1
حنبلی 1
روضہ 1
سپرنگز 1
سچ@@ 1
شہی@@ 1
مکھ@@ 1
پبل@@ 1
چیانگ 1
ڈان@@ 1
ڈیو 1
Township 0.3399510150772783
was 0.002209927043442828
ارتھ 1
الخلافہ 1
اورینٹل 1
ایپ 1
بالی@@ 1
بغاوتوں 1
بوڑھے 1
تاک@@ 1
جلی@@ 1
حي@@ 1
خلل 1
خوفزدہ 1
دیگرے 1
زیرقیادت 1
سرہندی 1
شناسی 1
فریب 1
فعالیت 1
مریدین 1
مظلوم 1
منیلا 1
نیشن 1
ووا 1
ویری 1
پرہیز 1
چپ@@ 1
کنویں 1
گنی@@ 1
ﺩ 1
1900 0.21361221863744984
1905ء 1
اراؤنڈڈسمنٹ 1
اللّٰہ 1
ايک 1
بالواسطہ 1
بیا 1
تجاوز 1
ربا 1
ساجد 1
سبکدوش 1
ستار 1
سطحی 1
شکیل 1
فروشی 1
مسو@@ 1
معتدل 1
مناتے 1
ناگزیر 1
وپ@@ 1
کاز@@ 1
کلیسا 1
یزد 1
ﮐﻮ 1
121 1
19ء 1
24,@@ 1
69@@ 1
اترے 1
اینٹی@@ 1
بمعنی 1
تائی 1
جار 1
دنا 1
دونگ 1
راہب 1
رحلت 1
سلجوق 1
سلہٹ 1
طاس 1
فتوی 1
فقدان 1
فیکس 1
قصبوں 1
مجلہ 1
مناف 1
وسیلہ 1
ٹیچر 1
پیکر 1
چڑھائی 1
چھاؤنی 1
ڈرون 1
کمانڈروں 1
ہتھ@@ 1
ہلکے 1
ہود 1
ینہ 1
یورو 1
ﻣﺎ@@ 1
140@@ 1
1913ء 1
3,6@@ 1
3,8@@ 1
Martin 0.133781909076573
el@@ 0.05712151106136048
اسلحے 1
اسمِ 1
بنام 1
حاجت 1
دلایا 1
دوس 1
شاذ 1
شنگھائی 1
شیلبی 1
مؤلف 1
مشروط 1
میم 1
نارمن 1
نن@@ 1
ودی 1
وگ 1
پروا 1
پين@@ 1
کاپٹر 1
کرامات 1
کشور 1
کینٹن 1
ﮕ@@ 1
ﮞ 1
111 1
144 1
1911ء 1
1916ء 1
77@@ 1
اتو 1
انھ@@ 1
اوج@@ 1
بدلنے 1
ترک@@ 1
حق@@ 1
خوآن 1
دھو 1
رحم@@ 1
ریف 1
علمیہ 1
نول 1
هم 1
چھڑ@@ 1
کررہے 1
گزینوں 1
گھیر 1
ہماچل 1
۷ 1
الوداع 1
انٹاریو 1
تبصرے 1
تخیل 1
تور 1
جئے 1
جائزے 1
دانتوں 1
ذرہ 1
رضوان 1
سانگ 1
سیت 1
سیو@@ 1
طبع@@ 1
طرابلس 1
لغاری 1
مرمر 1
معتمد 1
معجزہ 1
موافق 1
موسوی 1
میونسپلٹی 1
نات 1
ٹائپ 1
ٹانگ 1
ٹکڑا 1
کشا 1
کناروں 1
کہو 1
گزار@@ 1
گلوکاری 1
ہوپ 1
113 1
118 1
137 1
26ء 1
آؤ 1
الفضل 1
خدشات 1
خرم 1
داران 1
دوروں 1
رتبہ 1
رجال 1
شطرنج 1
عبرت 1
ماؤں 1
مازندران 1
مالکان 1
مشیل 1
ملز 1
پیاس 1
ڈیئر 1
کُل 1
کھیت 1
یہوداہ 1
ﺻ@@ 1
26,@@ 1
t@@ 0.05562116417462315
اختصار 1
الحمید 1
برونائی 1
تغیر 1
تیموری 1
جوڑوں 1
شارجہ 1
عي@@ 1
لاپتہ 1
منو 1
نورجہاں 1
نکلتے 1
وزیرِ 1
ٹورنٹو 1
پرو 1
چڑ@@ 1
کائی 1
کھے 1
گامزن 1
گورو 1
گینگ 1
یلو 1
ation 0.04412521070502111
آش@@ 1
ابوع@@ 1
المال 1
امِ 1
انڈس 1
انکے 1
بھٹ@@ 1
جاٹ 1
حِ@@ 1
روڈ@@ 1
زمانی 1
سائن 1
سالک 1
سٹوں 1
سیاسیات 1
سیرین 1
سیہ 1
شت@@ 1
شفا 1
غروب 1
مالیہ 1
مراقبہ 1
مصائب 1
موریس 1
مونی 1
وبر@@ 1
چین@@ 1
کنول 1
گلوبل 1
ہارورڈ 1
ہیل 1
138 1
4,0@@ 1
آخرکار 1
ئہ 1
اطلا@@ 1
اُسی 1
بیٹری 1
تاج@@ 1
تسلی 1
حنا 1
دارانہ 1
راؤنڈر 1
ريا 1
سریہ 1
سسیکس 1
سنو 1
سٹک 1
سیلم 1
شوری 1
صبا 1
ضوابط 1
فلورنس 1
فنڈز 1
معدنیات 1
مہمانوں 1
نجوم 1
نشانی 1
هُمْ 1
پرتشدد 1
پولا@@ 1
ڈک 1
کامبیٹ 1
کراتے 1
کردیے 1
کرس 1
کیتھیڈرل 1
131 1
150@@ 1
ائیرلائنز 1
ازواج 1
ایمن 1
ایکس@@ 1
بنوایا 1
تحقیقاتی 1
تمغاجات 1
جھگڑا 1
سلور 1
سیشن 1
شوریٰ 1
غزلوں 1
كرا@@ 1
لنکاشائر 1
لٹویا 1
مؤخر 1
متواتر 1
مشقت 1
ناز@@ 1
ولادیمیر 1
کارناموں 1
کھوج 1
1.5 0.7398834617365394
145 1
30ء 1
الکلام 1
اپنانے 1
بریگی@@ 1
تائ@@ 1
ترجمانی 1
حائل 1
حل@@ 1
دیار 1
راتوں 1
سلاسل 1
شکریہ 1
صلیب 1
عاشورا 1
فردوس 1
قصد 1
قي@@ 1
نمونوں 1
نورانی 1
ورنن 1
وہاڑی 1
ڈوم@@ 1
کفالت 1
کھال 1
گرہ 1
گست@@ 1
یوکرینی 1
ing 0.02341939937478971
اعتقاد 1
ایسڈ 1
برادران 1
توڑ@@ 1
تھا- 1
حمی@@ 1
خطابت 1
سرشار 1
سیدھا 1
شغف 1
شکن 1
عمال 1
غضب 1
فیروز@@ 1
قز@@ 1
مفکر 1
مقدم 1
مورو 1
مینیجر 1
ٹیج 1
کرز 1
کلیان 1
کوثر 1
کہاجاتا 1
گذرا 1
گوٹھ 1
گھی 1
85@@ 1
community 0.1038381894654648
poem 0.519156586047488
آبپاشی 1
آنس 1
ائف 1
احمدیہ 1
اران 1
ازی@@ 1
بسم 1
تسمانیہ 1
تقریبًا 1
دیہاتی 1
رازی 1
رای@@ 1
زرد 1
سبیل 1
سوگ 1
سیری 1
ضا 1
فرم@@ 1
لاو 1
لمحے 1
لیلا 1
مْ 1
نائجر 1
ورسٹی 1
پیمانہ 1
چوب@@ 1
چھوڑی 1
ڈونلڈ 1
کاشتکاری 1
کرسی 1
گوپی 1
گھنے 1
ہب 1
ہمدرد 1
ﮨﯿﮟ 1
ﻘ@@ 1
750 0.8905197998210513
North 0.060685843305664434
آفریدی 1
اشعری 1
بلدیاتی 1
بینر 1
تاريخ 1
تبع 1
تھن 1
ثالثی 1
جامہ 1
خلفائے 1
رجسٹرڈ 1
شاد@@ 1
شد 1
عثمانؓ 1
فلیٹ 1
مبا 1
مثلث 1
معاشروں 1
منشور 1
موجد 1
نسا 1
نیلے 1
وصف 1
ومہ 1
ونڈسر 1
ٹیگور 1
پرل 1
پینتیس 1
کمک 1
گرافر 1
ہمس@@ 1
19ویں 1
Khan 0.3952826783987733
territorial 0.8733509840780003
آذری 1
استغ@@ 1
اعلامیہ 1
انجم 1
اکبری 1
بندرگاہوں 1
بھلائی 1
جستجو 1
جھیلوں 1
حت 1
حثیت 1
خرقہ 1
درسی 1
شرم 1
صر@@ 1
طرزِ 1
ناسا 1
يت@@ 1
پٹیالہ 1
کوچک 1
کٹو 1
123 1
142 1
City 0.04982062986964609
entity 1
الاب@@ 1
اڈی@@ 1
بانگ 1
تجرباتی 1
خدائے 1
عدہ 1
عشرے 1
غر@@ 1
لغات 1
موج@@ 1
ونو 1
ٖ@@ 1
چھوڑنا 1
کچی 1
ڪ@@ 1
گلیوں 1
ہندومت 1
ہین 1
۶ 1
119 1
27,@@ 1
region 0.11011215667736104
آباؤ 1
ازاد 1
الرحمه 1
برطان@@ 1
بیلا 1
تبادلے 1
تمغ@@ 1
جہادی 1
جہد 1
حمام 1
خوار 1
راڈ 1
رضویہ 1
رچ@@ 1
ساحلوں 1
شمع 1
عبدالمجید 1
قح@@ 1
لاناؤ 1
مباحث 1
مخفف 1
مطالبے 1
مغیرہ 1
موروثی 1
مہابھارت 1
ونک 1
يكا 1
ٹوی@@ 1
ٹکرا 1
پائیک 1
پارك 1
پتوں 1
پرجوش 1
پرنٹ 1
ڈراپ 1
کٹھ 1
r@@ 0.06382969606362213
آدھا 1
انیان 1
اپن@@ 1
بانیوں 1
بدعت 1
بہاری 1
ختہ 1
داغستان 1
راف 1
رکعت 1
سعد@@ 1
سلجوقی 1
سپورٹ 1
شماریاتی 1
عاش@@ 1
عضو 1
لٹی 1
مجددیہ 1
منصفانہ 1
میس 1
وتر 1
ویبسٹر 1
ٹیا 1
پرندہ 1
پنج 1
پیام 1
پیشانی 1
چڑھا 1
کاراباخ 1
کاری@@ 1
کسویل 1
کوتا@@ 1
گپت 1
گیان 1
ھی@@ 1
133 1
25ء 1
3,7@@ 1
330 1
Al@@ 0.07048077830522258
R 0.10568275400445108
m@@ 0.08490753968361482
آئن 1
ابادي 1
ابتد@@ 1
بدستور 1
بلڈ 1
بیلے 1
تنویر 1
جانشینی 1
جینیاتی 1
جیکب 1
حلیہ 1
ریب 1
ریفرنڈم 1
شکاری 1
شہداء 1
عبیداللہ 1
كی 1
لیٹر 1
محمدیہ 1
مشتبہ 1
نخ@@ 1
نوشت 1
چینیوں 1
کنگسٹن 1
گمراہ 1
گوانگ@@ 1
۲۰@@ 1
134 1
86@@ 1
آزمائی 1
آہ@@ 1
اسکیم 1
ايس 1
به@@ 1
بودھ 1
تاریک 1
جند@@ 1
دهٔ 1
سچا 1
سیکورٹی 1
فشاں 1
فہد 1
منطقی 1
ناپسند 1
نند@@ 1
نچلی 1
نکلی 1
يان 1
پروردگار 1
پسپائی 1
پلان 1
پُر@@ 1
گند@@ 1
ہواں 1
یلغار 1
ﻻ@@ 1
28,@@ 1
3,9@@ 1
ol 0.18493745735155095
آتش@@ 1
آوازیں 1
ؤن 1
ئرنگ 1
برداری 1
ثہ 1
جانبداری 1
دائمی 1
زہرا 1
سائڈ 1
سلامت 1
سٹری 1
صدی@@ 1
عربیہ 1
غرناطہ 1
لَّ@@ 1
مخلص 1
نسکی 1
ویک@@ 1
ٹیشن 1
ٹیک@@ 1
پیٹر@@ 1
گمنا 1
ہاربر 1
12ء 1
1878 0.38288607654739065
1905 0.22262963181939144
201@@ 1
Y 0.2228801616399509
sh@@ 0.08993556824338049
ارتریا 1
ارتکاب 1
بیگ@@ 1
تاحال 1
شیف 1
كوئ@@ 1
لبریشن 1
مراٹھا 1
مستقیم 1
مسلط 1
مشاورت 1
مشاورتی 1
ولیمز 1
وڈ@@ 1
ویٹ@@ 1
ًا 1
پوتا 1
ڈیلی 1
گورڈن 1
1910 0.1973052564513774
1910ء 1
H 0.17472913206796314
آبن 1
آجاتا 1
آلودگی 1
ائب 1
اجن@@ 1
بلغ@@ 1
بھرت 1
دب@@ 1
درجات 1
درگا 1
سندھو 1
صدمہ 1
قراقرم 1
مکالمے 1
نائی 1
نٹل 1
ٹائیگر 1
پرا 1
چترالی 1
چرن 1
کمبوڈیا 1
کمیونسٹوں 1
کہکشاں 1
گواتیمالا 1
ھل 1
ہسٹری 1
17ء 1
1925 0.18588276263016984
205 1
es 0.007856127256608381
باندھ@@ 1
بروس 1
بریڈفورڈ 1
تاثرات 1
جدیدیت 1
جلتے 1
حسان 1
دھماکوں 1
صی 1
طاعون 1
علمبردار 1
لوٹنے 1
مجرمانہ 1
محافظوں 1
معاویہؓ 1
ملو@@ 1
منتظر 1
موجو@@ 1
موٹی 1
ٹینی@@ 1
پاسپورٹ 1
پنا 1
چشمے 1
ڈم 1
ڈویژنوں 1
ژی@@ 1
گلشن 1
ﺮﺍ@@ 1
1901ء 1
from 0.0050312298231849325
it 0.008520946255643579
آمریت 1
اجنبی 1
اختراع 1
بھیم 1
خام@@ 1
دیم 1
رسی 1
رونے 1
ریات 1
سعيد 1
سنکیانگ 1
سوریا 1
شمیم 1
غلہ 1
قسمتی 1
لکھاری 1
لکیری 1
مذہ@@ 1
نح@@ 1
نری@@ 1
نشہ 1
نَّ 1
نکالی 1
نکالے 1
نیلا 1
ٹھہرایا 1
پرس 1
پلیزینٹ 1
پٹنم 1
چين 1
ڈش 1
کٹائی 1
کچل 1
گیورگس 1
ہارس 1
ہندسہ 1
203 1
آذرب@@ 1
ا- 1
ارورا 1
اسلامي 1
افزائش 1
الہند 1
ایاز 1
جنگِ 1
دختر 1
دوار 1
رایا 1
طا 1
عبدالح@@ 1
عبدالرحمٰن 1
ــ 1
فریقوں 1
مانس 1
معر@@ 1
میات 1
ٹیکسٹائل 1
چوپڑا 1
کرنٹ 1
کوڑے 1
کیولری 1
گورنری 1
ہء 1
۸ 1
ﺋ@@ 1
1900ء 1
re@@ 0.026375492855514104
احتجاجی 1
اخوان 1
اسو 1
الهٔ 1
انوالہ 1
اہو 1
اینگ@@ 1
ترن 1
تنے 1
تونسوی 1
جنكشن 1
روزی 1
سرز 1
سرچ 1
سلطانی 1
مثالوں 1
محلات 1
مٹھ@@ 1
نرمی 1
وؤں 1
واٹسن 1
ویران 1
ينگ@@ 1
پري@@ 1
پھنس 1
کنبے 1
گیوں 1
ہراساں 1
یتی@@ 1
192 1
1927 0.18195253591097327
o@@ 0.05825333704773885
آریہ 1
آپکی 1
امام@@ 1
بجھ@@ 1
تحصیلیں 1
تسکین 1
جدت 1
جلدیں 1
داغ@@ 1
ریکارڈز 1
زیور 1
سرہند 1
سنا@@ 1
سیتا 1
سیکھی 1
فرشتے 1
قوس 1
لاتا 1
مپی@@ 1
نازیوں 1
وولگا 1
پچپن 1
پھینکیں 1
چلاتے 1
گیانا 1
1928 0.1637178417815207
206 1
232 1
k@@ 0.0660749207447784
level 0.10426763364588688
الرسول 1
الفقار 1
اٹھارہویں 1
برگ@@ 1
بہو 1
جھڑپوں 1
دعائیں 1
رضاکار 1
رود@@ 1
سویا 1
سينٹر 1
عد 1
عقد 1
كولوراڈو 1
ماتم 1
ماندہ 1
متنبہ 1
مفل@@ 1
ملٹن 1
منجمد 1
نَّ@@ 1
نیلسن 1
وون 1
ٹکس 1
کانہ 1
کز 1
کولکاتا 1
کیاہے 1
ہد@@ 1
ہلا@@ 1
ﺎﺋ@@ 1
136 1
146 1
in@@ 0.033353864571321515
ów 0.6172407328744269
اورایک 1
اویس 1
ایئ@@ 1
ایتھنول 1
ایمان@@ 1
بلڈنگ 1
بوز@@ 1
بھون 1
تابعی 1
تختی 1
جاسوس 1
جرمانہ 1
جڑ@@ 1
جیو@@ 1
حاضرین 1
حالاں 1
درجهٔ 1
سٹاف 1
شہدائے 1
ضخیم 1
مانیہ 1
مرح@@ 1
نری 1
نْ 1
هَ@@ 1
وادیوں 1
پینتالیس 1
چوڑی 1
ڈیکیٹر 1
کتی 1
کلاؤڈ 1
کلبوں 1
کیرن 1
گوم@@ 1
گھومتی 1
یورو@@ 1
201 1
225 1
India 0.0911650142879651
؎ 1
اوکلینڈ 1
اکیسویں 1
جاپ@@ 1
جول@@ 1
درمیانے 1
سیدی 1
شیبہ 1
لتے 1
ماریو 1
مظفر@@ 1
مکاتب 1
ناٹک 1
ندھ@@ 1
نیوی@@ 1
چودہویں 1
ﯿﮟ 1
185 1
94@@ 1
An@@ 0.0615853383101305
آخوند 1
احیاء 1
اخباری 1
الائی 1
اکاؤنٹ 1
برد 1
بکتر 1
تلا 1
جلو@@ 1
جیک@@ 1
حیوانات 1
دانش@@ 1
دھکیل 1
سسر 1
سندھ@@ 1
صادر 1
صہ 1
لپیٹ 1
معائنہ 1
مپٹن 1
نمائ@@ 1
نڈر@@ 1
والد@@ 1
ٹرس@@ 1
کالعدم 1
کالہون 1
کشی@@ 1
کوٹلی 1
کھول@@ 1
کیم@@ 1
ہیلی@@ 1
159 1
1908 0.21959919602492609
97@@ 1
i@@ 0.0742537538920767
اجارہ 1
اسقاط 1
اعشاریہ 1
بولا@@ 1
تھامسن 1
ثق@@ 1
جوتے 1
حصص 1
خیام 1
رئی@@ 1
راویوں 1
رجسٹر 1
مدنظر 1
مرتضیٰ 1
مشاعروں 1
مناقب 1
منگنی 1
مير 1
مکئی 1
میڈیسون 1
نثری 1
وئے 1
وني 1
پہنتے 1
پینا 1
پینٹ 1
چھپے 1
کورین 1
کولکتہ 1
گھرانہ 1
ہم@@ 1
یاف@@ 1
یلے 1
158 1
167 1
1870 0.3009516110857008
1911 0.21125865417737466
256 1
انڈو 1
ایلک 1
ایچی 1
بالادستی 1
بہاول 1
تلمذ 1
جنگلوں 1
حوض 1
ریفری 1
زہری 1
سعی@@ 1
سونگ 1
سیما 1
صابری 1
طب@@ 1
طف@@ 1
لیونگسٹن 1
ماج@@ 1
مبل 1
مرکبات 1
مشاہدے 1
مشعر 1
مناظرہ 1
مکتوبات 1
نتھ 1
وینیزویلا 1
پرفارم 1
پلا 1
پہچان@@ 1
پیرینے 1
گراس 1
153 1
193 1
650 1
K 0.13594447380287428
الحاج 1
اوٹ 1
بکھر 1
جنسیت 1
حمص 1
رقاصہ 1
سونی 1
عبیدہ 1
فلمز 1
لاگ@@ 1
لبیک 1
مبذول 1
ملتوی 1
مکھرجی 1
ناں 1
ندیوں 1
نگار@@ 1
نیوی 1
وکلا 1
يرا 1
يز@@ 1
پارکر 1
ڈس@@ 1
کرسٹل 1
کرگئے 1
ہاپ@@ 1
ہلکا 1
1,000 0.6166969551154324
190@@ 1
30.@@ 1
el 0.0030388766373571773
ur 0.1605250081059694
آست@@ 1
احمدی 1
ارسلان 1
الغنی 1
المی@@ 1
بوری 1
بیری@@ 1
تاش 1
تصویریں 1
تھا@@ 1
جنون 1
جھا 1
جھلک 1
دائرۃ 1
دیدہ 1
رافع 1
زِ@@ 1
ششم 1
علت 1
فرنچائز 1
كريك 1
مرات 1
مرتب@@ 1
معاشرت 1
ورکنگ 1
پشتونوں 1
چپ 1
کاست@@ 1
کردیں 1
ہیٹی 1
00@@ 0.6759444447296653
184 1
1848 0.36212521165539374
1890 0.2756247644807692
192@@ 1
Pakistan 0.29110725850167096
اجے 1
اشفاق 1
الامام 1
القاب 1
بازاروں 1
بخش@@ 1
برآمدات 1
ذاکر 1
زیڈ 1
سکینہ 1
سیاق 1
شاستری 1
فریمونٹ 1
فوڈ 1
قا 1
لورین 1
ملٹی 1
موز@@ 1
مڈغاسکر 1
نظروں 1
وجی@@ 1
ویکسین 1
پراگ 1
پڑتال 1
پیٹرزبرگ 1
پیٹرک 1
چھپن 1
کیلی@@ 1
کیٹ@@ 1
گٹ 1
گڑھے 1
گھیرے 1
ہج@@ 1
ہرمز 1
ہي 1
ہیروئن 1
یکسر 1
155@@ 1
262 1
Jean 0.07182005774714574
العارفین 1
اوکسفرڈ 1
بارباڈوس 1
برائن 1
بسمل 1
جبل@@ 1
دۂ 1
رك@@ 1
ریاضیاتی 1
شیم 1
عفان 1
قومیں 1
مسافت 1
معظمہ 1
مورتی 1
مونٹی 1
نرگس 1
نسوانی 1
واد 1
واکیا 1
يلي 1
ٹھاکر 1
ٹیر 1
پیروں 1
چکن 1
چیری 1
کروا@@ 1
کھر@@ 1
گائ@@ 1
ہام 1
ﮐﮧ 1
ﺸ@@ 1
159@@ 1
1907 0.2266066373108698
المدارس 1
تعیناتی 1
خیرپور 1
رائٹر 1
رَ 1
ریان 1
عریض 1
عیت 1
فیل@@ 1
لڑائیاں 1
مجرموں 1
مدمقابل 1
مست 1
مسلموں 1
مصطف@@ 1
موسی@@ 1
وکے 1
١ 1
ٹوباگو 1
پوت@@ 1
پیٹھ 1
چاہ 1
چوراسی 1
کھٹ@@ 1
یُ@@ 1
یگ@@ 1
ﮨﻮ@@ 1
165 1
168@@ 1
1904ء 1
255 1
Air 0.10498568794563565
ابتداء 1
اطفال 1
اللطیف 1
اکو 1
برکات 1
تقاریر 1
تواس 1
جوشی 1
دانیال 1
دفتری 1
سلسل@@ 1
عبادات 1
علیٰ 1
عیش 1
فان@@ 1
لائنوں 1
لاً 1
لين 1
متناسب 1
يني@@ 1
ٗ 1
ٹوٹنے 1
پات 1
پرت 1
چھو 1
ڈویژنل 1
کیجئے 1
کیرالہ 1
گاما 1
ﻔ@@ 1
124@@ 1
152 1
186 1
1880 0.30468498364312546
top 0.07880353809548452
اردو@@ 1
افراط 1
الرزاق 1
السید 1
الڈ 1
اۃ 1
ثروت 1
جرح 1
جلتا 1
درشن 1
دعوٰی 1
راشدین 1
سوت@@ 1
شینا 1
عادات 1
عنوانات 1
لَا 1
مالے 1
محتاج 1
وادئ 1
والٹ 1
پودا 1
پوچھ 1
کمل 1
کچھی 1
گیاہے 1
یاسین 1
129@@ 1
Dar@@ 0.3018217823996871
M 0.11028282667180421
اردبیل 1
اوٹاوا 1
اژ@@ 1
براڈ 1
ته@@ 1
جنا 1
خاتمی 1
ده 1
رسم@@ 1
رون@@ 1
ریچھ 1
سسٹ@@ 1
شعراء 1
غالبا 1
لائل 1
لاشوں 1
لوویزیانا 1
لیپ 1
مجموعوں 1
مسجد@@ 1
معبد 1
نسٹ 1
نظارہ 1
نظمی 1
ورد 1
پختون 1
کنڈ 1
گریگوری 1
181 1
29ء 1
550 1
x@@ 0.1375915608766167
الت 1
ايران 1
تاسیس 1
تکرار 1
جرنل 1
جوبلی 1
حقانی 1
دھارے 1
سح@@ 1
سلاو 1
سلیمانی 1
سوتیلے 1
شرافت 1
صدور 1
طریقۂ 1
قدموں 1
كال@@ 1
مصلح 1
مہربان 1
میعاد 1
نارووال 1
ناٹ@@ 1
نع@@ 1
نوبت 1
وبر 1
وکرم 1
ویٰ 1
يار@@ 1
٣ 1
ڈیر 1
کیتھ@@ 1
کیم 1
کیمسٹری 1
کیڑے 1
گنجان 1
ہیو 1
149 1
163 1
173@@ 1
187 1
ابوحنیفہ 1
اترنے 1
ارم 1
القر@@ 1
بازی@@ 1
بالشویک 1
براڈ@@ 1
بید 1
بیڈ 1
توڑا 1
جرأت 1
جیش 1
دق 1
ذری@@ 1
سیکھ 1
غی 1
فرشتوں 1
لاہ@@ 1
لوٹے 1
لیکچر 1
نسخوں 1
نٹی@@ 1
وراث@@ 1
وقاص 1
ٹاک 1
ٹوم@@ 1
کنعان 1
کیفیات 1
یف 1
156 1
194 1
92.@@ 1
96@@ 1
er@@ 0.03817683505753177
اقی 1
الن 1
الیں 1
اوزاعی 1
ایسٹ@@ 1
جراثیم 1
حیا 1
خشکی 1
دیدی 1
ذخیرے 1
ربن 1
روپ@@ 1
رياستيں 1
سرہ 1
صحی@@ 1
طَ@@ 1
كان 0.3379613045180633
لینی 1
مالیات 1
مرچ 1
مقننہ 1
ملزم 1
میزان 1
نڈن 1
هن@@ 1
يان@@ 1
پہلو@@ 1
پیما 1
چلو 1
چھاپ@@ 1
ڈوگرہ 1
کارکنان 1
کاریوں 1
کوشاں 1
گانہ 1
گڑ@@ 1
141 1
166@@ 1
84@@ 1
China 0.08856853079067666
U 0.08930227170155648
آئیوری 1
آبرو 1
آوٹ 1
اخیر 1
اسکا 1
اصولی 1
اوہ@@ 1
اڑتالیس 1
برادر 1
بزم 1
بھوشن 1
تصریح 1
ثن@@ 1
جنوو 1
حنین 1
خلیہ 1
زبور@@ 1
شناختی 1
طاقتیں 1
عبدالحق 1
فہ@@ 1
كوم@@ 1
لبر@@ 1
لونگ@@ 1
لہروں 1
ماتا 1
مزین 1
معاش@@ 1
میلاد 1
نڈو 1
پئی 1
چلائے 1
ڈرو@@ 1
کلیسی@@ 1
کنور 1
کیپلر 1
گنج@@ 1
162 1
183 1
247 1
265 1
D8 1
آغاخان 1
الشام 1
اٹھی 1
بتانے 1
برٹ@@ 1
بلد 1
بلز 1
بہانے 1
بیاں 1
ثی@@ 1
جستر@@ 1
حرب 1
حرمین 1
حیدری 1
دڑو 1
دیرینہ 1
زمیں 1
سرانجام 1
سیمی@@ 1
سیٹلائٹ 1
شِ@@ 1
شہزادوں 1
عقی@@ 1
فق 1
فیلو 1
قاد@@ 1
لوا@@ 1
مائیکروسافٹ 1
مالدیپ 1
مرغ@@ 1
میانداد 1
میشن 1
ندیاں 1
واح 1
واز 1
واہ@@ 1
ٸ@@ 1
پچاسی 1
پیداواری 1
پیغامات 1
چمن 1
کیسا 1
کیشنز 1
ہارا 1
ہوئے@@ 1
یوان 1
171 1
ابدی 1
اتاترک 1
اشتعال 1
ایٹیینے 1
بالعموم 1
بچن 1
بگٹی 1
بھار@@ 1
بیالیس 1
تبر@@ 1
حذیفہ 1
رائی 1
راز@@ 1
زبر 1
سانی 1
سومرو 1
سکر@@ 1
مینز 1
نگوں 1
يش@@ 1
پولیٹیکل 1
چری 1
چینلز 1
گوت 1
ہیوسٹن 1
یاقوت 1
۱۳@@ 1
۱۸@@ 1
221 1
West 0.05769316291050878
unincorporated 1
اسپیس 1
الاقوامي 1
العباس 1
العرب 1
الیکٹرانک 1
اند 1
برلنگٹن 1
تعل@@ 1
جبیر 1
جھوٹے 1
دفعات 1
زائ@@ 1
سائٹس 1
ساخت@@ 1
فارمیٹ 1
لداخ 1
لے@@ 1
مبصر 1
منازل 1
منطقہ 1
نیوٹرون 1
پراجیکٹ 1
پڑتے 1
پکار@@ 1
پہر 1
پینٹنگ 1
چھاپ 1
چیل@@ 1
چیپل 1
ڈھونڈ 1
کاوشوں 1
ہاٹ 1
ہیڈلی 1
176 1
23ء 1
3.5 0.9525968885150464
ed 0.025145592896013667
آم 1
اسٹیفن 1
العلم 1
الوہاب 1
انقلابات 1
انٹرمیڈیٹ 1
اونی 1
باتھ 1
برہما 1
بناکر 1
تجزیے 1
جمل 1
حرمت 1
حس 1
رضاکاروں 1
رقمی 1
روشناس 1
روک@@ 1
رویوں 1
رینی 1
زخموں 1
زور@@ 1
سورتوں 1
سکم 1
صلہ 1
عدن 1
عری@@ 1
فرماں 1
كنيكٹيكٹ 1
مالکی 1
محافظهٔ 1
مصعب 1
مضر 1
ميڈ@@ 1
نوازی 1
نوج@@ 1
وئیر 1
ٹیری 1
پادریوں 1
پوتی 1
پیچ 1
چاک 1
چیئر 1
کف@@ 1
کلیٹن 1
کوئی@@ 1
گزر@@ 1
ہزار@@ 1
148 1
154 1
1860 0.3206711337850625
195 1
27ء 1
28ء 1
آکلینڈ 1
ائیہ 1
ابي 1
ادت 1
انوی 1
انٹی@@ 1
اوڈی@@ 1
اوک@@ 1
تلافی 1
جانیں 1
رابعہ 1
سجاوٹ 1
سوتیلی 1
سکار@@ 1
سیٹ@@ 1
غزالی 1
لکھتی 1
لکی@@ 1
مخطوطہ 1
معاملوں 1
معظم 1
نب@@ 1
نوشہرہ 1
واب@@ 1
وافر 1
وست@@ 1
ٓ@@ 1
ٹلی 1
چونسٹھ 1
کاوش 1
گالی@@ 1
یائے 1
۹ 1
ﻭ 1
13ء 1
147 1
156@@ 1
189 1
1909 0.22145475415955015
197 1
268 1
World 0.031356778078514565
ارسطو 1
اہلیا 1
بئیر 1
باگ@@ 1
براؤ@@ 1
بلان@@ 1
توپوں 1
خلوص 1
دین@@ 1
رعایت 1
رکھو 1
ساکھ 1
سٹری@@ 1
سٹیج 1
قسط@@ 1
مرتضی 1
موریا 1
مچل 1
مہذب 1
وکی@@ 1
٤@@ 1
ٹرو 1
پانڈے 1
پرز 1
پیپر 1
ڈک@@ 1
ژوو 1
کرویئشا 1
کشتیوں 1
کیسی 1
ہائٹس 1
ﺭﺍ@@ 1
204 1
Department 0.12940039570510864
Jersey 0.2311274831477971
p@@ 0.053636873498574454
آبادیاتی 1
ائیے 1
استقلال 1
اسدی 1
الفریڈ 1
المد@@ 1
اوز@@ 1
اینی 1
ایوی 1
ایڈمنسٹریشن 1
باون 1
بھاگنے 1
بیدی 1
تقری@@ 1
حقیق@@ 1
دکانیں 1
رائس 1
رادھا 1
سري@@ 1
سلامی 1
سنگیت 1
سویت 1
فالج 1
فیٹ 1
قر 1
لالچ 1
لین@@ 1
معدن 1
میمن 1
نظامت 1
نظامیہ 1
نیدرلینڈ 1
والٹر 1
وتو 1
ورجن 1
ڈیلاس 1
کتیں 1
کروشیا 1
کلیات 1
کمرشل 1
گالی 1
ہبی 1
139 1
168 1
89@@ 1
Pierre 0.13220044699395195
ad@@ 0.06187009970827074
اذرب@@ 1
اسیری 1
اشک@@ 1
افت@@ 1
الموت 1
الوج@@ 1
اندرے 1
ایڈن 1
تط@@ 1
دانے 1
دلت 1
دہانی 1
ریاضیات 1
ریکھ 1
شیخ@@ 1
صفا 1
فرن@@ 1
فلمساز 1
لتھووینیا 1
لینڈنگ 1
ماہِ 1
میان 1
نورمنڈی 1
وع 1
پروفی@@ 1
پلاسٹک 1
ڈالنا 1
کتب@@ 1
کرلیتے 1
ہوتیں 1
00ء 1
227 1
275 1
c@@ 0.06496582323845161
الزماں 1
ایمی@@ 1
برج@@ 1
بیں 1
تماش@@ 1
ثبت 1
جھڑپیں 1
حقدار 1
خاصیت 1
داً 1
دستبرداری 1
زاری 1
سازشوں 1
سونیا 1
سچی 1
شمارہ 1
شنگ 1
عیاں 1
فوٹو@@ 1
فُ@@ 1
لاری@@ 1
لمی 1
لکس 1
مباحثہ 1
متحدهٔ 1
نکا 1
ویلا 1
پرنسٹن 1
پہون@@ 1
پیج 1
پینسٹھ 1
کود 1
کوٹلہ 1
کَ 1
22ء 1
5,0@@ 1
آبادیات 1
آکسائیڈ 1
ابھر 1
اطہر 1
التا 1
انقلابیوں 1
ایمرجنسی 1
بدھ@@ 1
بست@@ 1
تبسم 1
خلاء 1
رسانی 1
ریجن 1
زمینیں 1
زَ@@ 1
سانگ@@ 1
سنجیدگی 1
سڈ@@ 1
شیما 1
فنکارانہ 1
قرضے 1
لنڈ@@ 1
ممل@@ 1
ناص@@ 1
وارثی 1
واچ 1
ودہ 1
٠ 1
ٹوک 1
پرنس@@ 1
چائلڈ 1
کرائسٹ 1
گلاس 1
ہوشیار 1
15ء 1
166 1
191 1
209 1
259 1
اسکی 1
اقساط 1
بذات 1
بیتی 1
خوارج 1
دنی 1
دھاتی 1
رياستہائے 1
زرا@@ 1
سبا 1
سرہٗ 1
سنگل 1
صنع@@ 1
عتیق 1
غرق 1
غفلت 1
فزکس 1
فصلیں 1
قاب@@ 1
قاصد 1
كاس@@ 1
لوئ@@ 1
لونڈی 1
ملہ 1
نوادرات 1
نوید 1
ورڈی 1
وعدے 1
پرسکون 1
چوالیس 1
چہار 1
کمانے 1
گنتي 1
ہنزہ 1
ﺐ 1
ﺑﺎ@@ 1
207 1
ology 0.18114965628453655
اساطیر 1
انا@@ 1
اندھا 1
انسؓ 1
انق@@ 1
ایمی 1
باری@@ 1
بربر 1
جوائنٹ 1
جوڑنے 1
حجۃ 1
رایڈر 1
ساس 1
سعدیہ 1
عاشور 1
علیم 1
عکرمہ 1
لگر 1
مانوں 1
مخطوطات 1
منیجر 1
نعمانی 1
وزیر@@ 1
ٹاس 1
پرتگالیوں 1
پلین 1
پھول@@ 1
پیٹا 1
چنئی 1
ڈلی 1
ڈٹ 1
کاد@@ 1
که 1
گوالیار 1
161 1
164 1
1907ء 1
241 1
24ء 1
domain 0.6814521126427836
id 0.1635204224962196
no 0.01579959823684242
ائز 1
اسٹیشنوں 1
الائنس 1
اللَّهِ 1
المست@@ 1
الیکٹرو@@ 1
اگیا 1
برززننے 1
بیرہ 1
تروں 1
تقاضا 1
تقاضوں 1
تھانوی 1
ثوری 1
جزیہ 1
جست 1
جونپور 1
دام 1
ذاتوں 1
راشدہ 1
ستوں 1
شرکاء 1
شفاف 1
فیض@@ 1
قمی 1
للی 1
مزاحمتی 1
مستفید 1
ملك 1
نامیاتی 1
ناکہ 1
نغمات 1
ٹریٹ 1
ٹنڈو 1
ڈیری 1
کلہو@@ 1
کھرل 1
کھلا@@ 1
گرتا 1
گھر@@ 1
گیل@@ 1
ہیرس 1
یاس@@ 1
182 1
1897 0.2639863781414688
253 1
32.@@ 1
bot 0.8217782457392881
les 0.004842184309577537
é 0.03824231733907171
آمی@@ 1
الفر@@ 1
انفرادیت 1
بناوٹ 1
بولتا 1
بیچنے 1
تھام@@ 1
جرگہ 1
جھگڑے 1
حوصلے 1
رہائشیوں 1
ساج@@ 1
سودا 1
سوي@@ 1
سوی 1
سیوطی 1
شمارے 1
عتی 1
فصیح 1
لاج 1
مرتکب 1
میڈرڈ 1
نمیبیا 1
واڑہ 1
پکچرز 1
پہچانے 1
چھی 1
ڈائری 1
ڈیزائنر 1
کسب 1
کلیر 1
کہلایا 1
گائی@@ 1
گوبند 1
گڈ 1
2.2 1
London 0.057912624200270144
الاز@@ 1
اوقاف 1
اینٹ@@ 1
باجی 1
باط@@ 1
تاری@@ 1
توس 1
جلانے 1
جیم 1
داز 1
دریا- 1
دیوا 1
رور@@ 1
رہبر 1
زمینداروں 1
ساؤ@@ 1
ستیہ 1
سمین 1
سینٹ@@ 1
شائستہ 1
فلکی 1
لَ 1
مالدووا 1
مخفی 1
ندو 1
نیشابور 1
وردی 1
ٹیکل 1
چتر@@ 1
چمڑے 1
کرسچین 1
کمپیو@@ 1
کمیٹیوں 1
کي 1
کھنہ 1
ہرہ 1
یونگ@@ 1
127 1
1895 0.2639813395036089
v@@ 0.06676768947933728
ائیل 1
استح@@ 1
اکائیاں 1
اکابرین 1
ایسٹرن 1
اینٹ 1
بانہ 1
بلہ 1
بپتسمہ 1
تات@@ 1
تلخ 1
ثور 1
حری@@ 1
حوی@@ 1
رینا 1
سوچ@@ 1
شارٹ 1
شس 1
شکتی 1
فیم 1
قوالی 1
قوتیں 1
كمپ@@ 1
له 0.8394972856003697
مارگریٹ 1
مٹھی 1
نال@@ 1
وطنی 1
ولیا 1
وڑ 1
ُّ@@ 1
پالا 1
پھٹ 1
کارخانے 1
کٹو@@ 1
کھاتا 1
ﻤﺎ@@ 1
178 1
1909ء 1
245 1
305 1
ur@@ 0.08210100710197657
آئي 1
آمدورفت 1
الاسد 1
المجید 1
امنی 1
حذف 1
حضرموت 1
حیاتی 1
خریدی 1
خلف 1
دجلہ 1
دوان 1
ستاون 1
سخاوت 1
سرجری 1
سرِ 1
صنعاء 1
عمرانیات 1
فرزند@@ 1
فرماتا 1
قتادہ 1
لاب 1
مابعد 1
مدن 1
مم@@ 1
نتیجتاً 1
نسلیں 1
نگری 1
وظائف 1
ّر 1
ٹھہرے 1
پروٹین 1
پوم@@ 1
ڈوم 1
کرانا 1
کشیدہ 1
کلید 1
212 1
217 1
30,@@ 1
county 0.17767625965407896
j 0.1975314104719765
آرکی@@ 1
ابت@@ 1
انارکلی 1
ایونٹ 1
بط 1
تلہ 1
تہواروں 1
جك@@ 1
جمال@@ 1
جونی@@ 1
خواہاں 1
رملہ 1
زبر@@ 1
سامراج 1
سرخ@@ 1
شبہات 1
مید 1
نائی@@ 1
ٹرنر 1
پھینکنے 1
چروکی 1
کبار 1
کھوکھر 1
یادداشت 1
یاسمین 1
218 1
272 1
at@@ 0.06241490634380686
tube 0.8097434286785382
ؒ@@ 1
ابر 1
ابھری 1
اسٹون 1
اکاؤنٹس 1
ایش 1
ایو 1
ایگل 1
بھاشا 1
تنقی@@ 1
جع@@ 1
جنووو 1
جھوٹا 1
خوبیوں 1
خوردہ 1
دوزخ 1
راہیں 1
رع@@ 1
زڈ 1
ستاسی 1
سفار@@ 1
سمندروں 1
سورس 1
صحرائی 1
طاہ@@ 1
طوف@@ 1
لیک@@ 1
ماونٹ 1
مینگ@@ 1
ناگوار 1
نگہداشت 1
٦@@ 1
کشائر 1
کمن@@ 1
کیب 1
ہیون 1
1200 0.7086257977735239
120@@ 1
202 1
222 1
254 1
Sea 0.22971361250944491
ani 0.1440650233419776
آجاتی 1
انتی 1
اڑتیس 1
اہلی 1
اینج@@ 1
بااختیار 1
باگ 1
جنی 1
حز@@ 1
خامنہ 1
رائٹرز 1
راو 1
زت 1
سرسوتی 1
سمر@@ 1
سینتالیس 1
صاح@@ 1
فوقیت 1
مملكت 1
میناروں 1
نجفی 1
١٩@@ 1
پکی 1
چندی 1
چوڑا 1
ڈرہم 1
کمیونزم 1
ہاب@@ 1
ﻬ@@ 1
1876 0.3349941914646587
242 1
370 1
4000 0.9869851855165019
ءکے 1
آٹو@@ 1
اشکال 1
افق 1
امبیڈکر 1
اکتالیس 1
بالر 1
بیویاں 1
جواد 1
حماس 1
خبر@@ 1
راکھ 1
رواداری 1
ستونوں 1
سعدی 1
سونپی 1
صوب@@ 1
غلا@@ 1
قائداعظم 1
مبالغہ 1
مرویات 1
مفاہمت 1
مَنْ 1
میگھ@@ 1
ويا 1
ٹیکسلا 1
پالتو 1
پربھ@@ 1
پیڈیا 1
چائ@@ 1
چیبا 1
ڈھونڈنے 1
کورسز 1
کیو@@ 1
کیچز 1
یوس@@ 1
ﻲ 1
117@@ 1
11ء 1
38.@@ 1
Qaleh 1
S 0.09950672119346643
University 0.023786116912063907
ari 0.18143317006013887
on@@ 0.053868285102258474
ادیان 1
انسٹ@@ 1
اڑی 1
اگے 1
ایمیزون 1
بري 1
بریج 1
بوب@@ 1
جبوتی 1
جیون 1
حبان 1
حدی@@ 1
حفص 1
درو 1
شار 1
عیال 1
لکشمن 1
موسمیاتی 1
مہاج@@ 1
نمائندگان 1
نیاں 1
نیلم 1
ویمنز 1
ّوں 1
٠@@ 1
ٹرن 1
پات@@ 1
پروفیشنل 1
چاب@@ 1
چور@@ 1
چوہتر 1
چھپنے 1
کشتیاں 1
کنفیڈریشن 1
کوٹا 1
169 1
1901 0.2251172749734773
? 0.08353919912425556
آفندی 1
آپکے 1
اثناء 1
ارتقائی 1
اشی@@ 1
المج@@ 1
الوا@@ 1
برسبین 1
ترکمان 1
ستانوے 1
سٹا 1
سیلون 1
ضلع- 1
عِ 1
لاؤس 1
مؤقف 1
متوازن 1
موریہ 1
میوزیکل 1
نمازِ 1
نمی 1
هر 1
وکٹر 1
چچ@@ 1
گھڑسوار 1
ہروں 1
ﺰ@@ 1
172 1
area 0.036717549434270816
ائیرویز 1
اریاں 1
انگور 1
اڑنے 1
بابری 1
باسلام 1
بدلا 1
برسٹل 1
بندش 1
بود 1
بہہ 1
تاریخِ 1
ترج@@ 1
حديث 1
خال@@ 1
دلا@@ 1
دھاتوں 1
روح@@ 1
زیو 1
ساغر 1
سستی 1
سونپ 1
سکولوں 1
شعار 1
شکایات 1
عمل@@ 1
غَ@@ 1
متا@@ 1
مشر@@ 1
مطلوب 1
مہنگی 1
ناکافی 1
نڈوں 1
وائی@@ 1
ویرا 1
چھیالیس 1
ڈائری@@ 1
ڈکنسن 1
کلوگرام 1
کنج@@ 1
کوم 1
کونسلوں 1
گلین 1
گھرانوں 1
ﻥ 1
143 1
21ء 1
284 1
اخلاص 1
اسٹوڈیوز 1
البا@@ 1
القدس 1
امبر 1
اندی@@ 1
اي 1
اٹھاون 1
ایز@@ 1
بدلتے 1
بیلجیئم 1
تبوک 1
رشتوں 1
زاوی@@ 1
زبی@@ 1
ساؤنڈ 1
سمجھتی 1
سویلین 1
سکیورٹی 1
شاپيل 1
شمارندی 1
شِ 1
عَلَ@@ 1
ــ@@ 1
فیل 1
قبروں 1
مبادلہ 1
مسلمان@@ 1
ندگی 1
ندی@@ 1
نفع 1
هُ@@ 1
ویڈیوز 1
پنی 1
پِ@@ 1
پیلے 1
چرچا 1
ڈب 1
ڈوی@@ 1
ڈہ 1
کمروں 1
ے- 1
ﺩﯾ@@ 1
169@@ 1
1880ء 1
196 1
198 1
Japan 0.09653533914108929
ab@@ 0.04175953731772407
na 0.05471799338829761
us 0.04159602968650452
ائر@@ 1
اتارا 1
اجا 1
افروز 1
البلا@@ 1
الما 1
اناسی 1
اٹھائی 1
اہل@@ 1
برن@@ 1
برہنہ 1
بوائز 1
بینظیر 1
ترجی@@ 1
حان 1
دريائے 1
دود 1
سازگار 1
سمیع 1
سینتیس 1
شاہجہاں 1
شنا@@ 1
شناس 1
شنبہ 1
فرائ@@ 1
قبریں 1
كوٹ 1
لاح@@ 1
لد 1
لنگٹن 1
لوي 1
مبہم 1
متص@@ 1
متفرق 1
مریخی 1
موز 1
موق@@ 1
ناکھون 1
نووڈ 1
وث@@ 1
ََ 1
پرائز 1
پچانوے 1
ڈریگن 1
ڈیٹ 1
کرلیتا 1
کوئلے 1
کوال@@ 1
کوپر 1
کیمبل 1
ہون@@ 1
یمی 1
ۡ@@ 1
1876ء 1
1906 0.19551641662487537
95@@ 1
X@@ 0.11675825204721953
اخ 1
استعداد 1
انتالیس 1
انجین@@ 1
اندیشہ 1
انگلیوں 1
اولا@@ 1
ایما 1
ایگزی@@ 1
باش 1
بدایونی 1
تابکاری 1
تاریکی 1
توت 1
تھریس 1
رکاوٹوں 1
رہن 1
زیبا 1
سیلز 1
صحاب@@ 1
صوبیدار 1
طلبا 1
عمو@@ 1
فيئرفيلڈ 1
مالوہ 1
منابع 1
میڈ 1
وسٹ 1
ينَ 1
ٹوبہ 1
پافوس 1
پرہ@@ 1
پڑھتا 1
پیلس 1
پینٹنگز 1
ڈیوٹی 1
ڈیڈ 1
کنندگان 1
کوا 1
کہلانے 1
گاتے 1
گنیش 1
ﺮﯾ@@ 1
145@@ 1
173 1
213 1
244 1
ia 0.05954889553020224
اسٹری@@ 1
اسپیشل 1
بران@@ 1
بٹھ@@ 1
بیئر 1
تنبیہ 1
ثنا 1
حسی@@ 1
خلیجی 1
راجندر 1
رغبت 1
سعی 1
سوئس 1
شق@@ 1
عباد 1
فِي 1
كس@@ 1
لاشیں 1
لڑنا 1
مقتول 1
ملن 1
نوس@@ 1
پروشیا 1
پریشانیوں 1
چلاتی 1
چھیاسی 1
کثیر@@ 1
گھوش 1
یوپی 1
14ء 1
177 1
1812 0.4711142436600295
1902ء 1
er 0.005725328022867414
آٹا 1
انشاء 1
ایف@@ 1
باسی 1
بکھ@@ 1
تہتر 1
جاگیردار 1
دینیہ 1
روئی 1
سائنسدان 1
ساحر 1
ساگ@@ 1
صنم 1
عض@@ 1
عیب 1
لاج@@ 1
لور 1
مائیکرو 1
مکاؤ 1
مکے 1
میگا 1
نوار 1
هملٹن 1
ولوں 1
پروڈ@@ 1
پڑوس 1
کایا 1
کرسچن 1
کند 1
کوالیفائی 1
کوکا 1
گام 1
ھوا 1
139@@ 1
151 1
163@@ 1
1896 0.24472699750994684
271 1
310 1
34.@@ 1
آٹو 1
اسپنر 1
العالم 1
بازاری 1
باسٹھ 1
بلاگ 1
بوقت 1
بولتی 1
جنو@@ 1
جوق 1
دند@@ 1
راول 1
رینڈولف 1
زچگی 1
سامراجی 1
سوئی@@ 1
سوچنے 1
سویر 1
سیڈر 1
شاء 1
شکوک 1
فنانس 1
قطبی 1
ملیہ 1
موہڑہ 1
ناکارہ 1
نیکو@@ 1
ويلي 1
پاؤنڈ 1
پیٹرسن 1
ڈيا 1
گروپس 1
گوج@@ 1
ہڈیاں 1
یاس 1
154@@ 1
302 1
36.@@ 1
ئے@@ 1
افرادی 1
العاصؓ 1
انط@@ 1
اوم 1
اٹھاسی 1
اکنامکس 1
اکو@@ 1
بوئ@@ 1
بیاسی 1
تریسٹھ 1
جھون@@ 1
خالص@@ 1
ختی 1
خون@@ 1
دلی@@ 1
دکنی 1
دہے 1
دیدار 1
رسالوں 1
زہیر 1
سباق 1
سمجھوتہ 1
سنٹ 1
شارع 1
شکنی 1
فان 1
فرہنگ 1
قان@@ 1
لاکر 1
موٹ 1
نڈنگ 1
ٹونی 1
پالیسیاں 1
پینٹ@@ 1
چیمبر 1
گارڈز 1
گریہ 1
ہیں@@ 1
158@@ 1
1903ء 1
269 1
299 1
As@@ 0.12482172675395935
Se@@ 0.09476699881190798
اجتناب 1
الغفار 1
الہی@@ 1
اڈ 1
بیونا 1
تحصی@@ 1
تسے 1
تھیا 1
جرن@@ 1
جسون@@ 1
جعفریہ 1
دہر@@ 1
دہندہ 1
ذلت 1
رض 1
روما 1
زندگیوں 1
شتی 1
صفوں 1
طبیعی 1
عطارد 1
فاعل 1
لوف 1
لٰ@@ 1
ماہرِ 1
معیارات 1
ميكسيكو 1
میٹھے 1
نرس@@ 1
نہی 1
ویدوں 1
ٴ 1
پورٹر 1
چرز 1
چلنا 1
چھیاسٹھ 1
ڈالیں 1
کرین 1
کلیولینڈ 1
گلا 1
ﭘﺮ 1
ﻮ 1
ﻮﺍ@@ 1
ﻮﺭ 1
1- 1
174 1
1877 0.3292100447202863
1904 0.1982002395946994
199 1
252 1
380 1
39.@@ 1
420 1
ate 0.036364524196208795
أُ@@ 1
اسلامیات 1
اضطراب 1
انچاس 1
اولادیں 1
اوہ 1
بهی 1
بوسنیائی 1
بیراج 1
تینتالیس 1
حجرہ 1
حریت 1
دُنیا 1
ذوالحجہ 1
رسیدہ 1
رشی 1
سربوں 1
سٹو 1
سینیٹر 1
صہیونیت 1
عر 1
عرب@@ 1
علیؑ 1
فاطمی 1
فردوسی 1
فرنگی 1
فش 1
فيئرويو 1
فیلڈنگ 1
مولان@@ 1
موٹروے 1
موٹے 1
میانی 1
میٹم 1
واعظ 1
يس@@ 1
ٹوٹ@@ 1
ٹیگ 1
پروں 1
پيداوار 1
چھیانوے 1
کلنگ 1
کولمبو 1
گورباچوف 1
یونگ 1
1898 0.2308812645551946
215 1
228 1
249 1
290 1
326 1
340 1
P 0.12593513019579672
W 0.16331939603662296
اذیت 1
اطی 1
الہام 1
اکہتر 1
ایئرپارک 1
ایری 1
بخارات 1
برنزوک 1
بوج@@ 1
بینکنگ 1
تالی@@ 1
تھری@@ 1
ثاقب 1
جزيرهٔ 1
جزیرهٔ 1
جہت 1
خلائق 1
دؤ@@ 1
دشواری 1
دن@@ 1
رنگت 1
رچرڈسن 1
ریکار@@ 1
سائمن 1
سادھ@@ 1
ساکن 1
ستگی 1
سیاں 1
شال 1
صفوان 1
عرفی 1
عمودی 1
فاش 1
فلکیاتی 1
فواد 1
قامت 1
كا@@ 1
مدفن 1
مروت 1
نالی 1
نعم@@ 1
نیشاپور 1
ولم 1
ویسی 1
يلا 1
ینا 1
2- 1
224 1
Es@@ 0.1868163098956599
י@@ 1
آسٹن 1
الاف@@ 1
الصمد 1
ایو@@ 1
بنجر 1
بولو 1
تصفیہ 1
جھے 1
درے 1
دستکاری 1
رم@@ 1
رویل 1
سینی 1
سیک@@ 1
شوٹ 1
عباسیوں 1
فریدی 1
فلمور 1
مادھ@@ 1
مبار@@ 1
مشکوک 1
مقر@@ 1
موسیقاروں 1
مہنگا 1
میٹھا 1
ندي 1
نسق 1
نظریۂ 1
نوف 1
نیزہ 1
ويك 1
وچی 1
يونيورسٹي 1
ٹینکوں 1
پاول 1
پراسرار 1
پہنچانا 1
پہنچیں 1
ڑیا 1
کائناتی 1
کانگ@@ 1
کتبہ 1
کرمانشاہ 1
کند@@ 1
کونکورڈ 1
گرين 1
گندھارا 1
گوئٹے 1
گوادر 1
ہیو@@ 1
157 1
188 1
1895ء 1
216 1
37.@@ 1
Sar@@ 0.18314835858888692
ism 0.11601442823132652
اسباق 1
اسي 1
الزمان 1
اڑسٹھ 1
اکیاسی 1
بھروسا 1
بھون@@ 1
تصویری 1
تنظیمی 1
توفیق 1
جائیداد 1
حدیبیہ 1
ذا 1
سائل 1
سہی 1
صلیبیوں 1
عشری 1
قوتِ 1
لبلن 1
لوط 1
مب 1
محصولات 1
معالج 1
مودود 1
موشن 1
مہاراشٹرا 1
مہارانی 1
واللہ 1
وزرا 1
ٹرپل 1
پانا 1
چورانوے 1
کڈ@@ 1
گزری 1
ہاتھیوں 1
﴾ 1
16ء 1
273 1
اجیت 1
اسکالرشپ 1
الٹا 1
اٹھانوے 1
باسکٹ 1
تعطیلات 1
تنا@@ 1
تیمیہ 1
جما 1
جمہور 1
جگن 1
خاکی 1
سرکشی 1
سرکل 1
سما 1
سمن@@ 1
كيم@@ 1
لاؤ@@ 1
مباحثے 1
مش 1
مشہور@@ 1
منڈو 1
مچھ@@ 1
ناشر 1
نظامِ 1
وبہ 1
ولس 1
ٰۃ 1
ٹاسک 1
پاؤ 1
پرے 1
پنچ 1
پٹو@@ 1
پیسیفک 1
چنا@@ 1
چنیوٹ 1
ڈوک 1
کٹک 1
کٹی 1
ہاوس 1
ﻮﺭ@@ 1
1800 0.3953084486146707
211 1
223 1
239 1
251 1
National 0.02822282542541304
ak@@ 0.08783951586975665
w@@ 0.061402708113752966
آٹھواں 1
احساسات 1
المغ@@ 1
النہر 1
انیاں 1
ایرو@@ 1
بلندیوں 1
بنیادیں 1
بگڑ 1
تاس 1
جبریل 1
جیس 1
زبیدہ 1
ستتر 1
سرکٹ 1
صباح 1
غدر 1
فيصل 1
فیضان 1
كوس@@ 1
لدھیانہ 1
مائکرو@@ 1
محکموں 1
مصلحت 1
معجز@@ 1
نزد 1
نشاۃ 1
نشتر 1
نوحہ 1
وحشی 1
ويل@@ 1
چولا 1
گائیکی 1
گروس 1
گِ@@ 1
گھٹنے 1
یادگاروں 1
277 1
4.5 1
ans 0.03334551147165214
da 0.024707540552266673
es@@ 0.05243360304907709
آسکر 1
أ 1
اح 1
اشک 1
افرا@@ 1
اکے 1
ایی 1
بخشا 1
بنوری 1
تعالٰیٰ 1
تمیز 1
تپ@@ 1
جاننا 1
جرنیلوں 1
جزی@@ 1
جیر@@ 1
حوں 1
دکانوں 1
ذکر@@ 1
روہ@@ 1
زیتون 1
ساتواں 1
سفرنامہ 1
سموئیل 1
سڑسٹھ 1
شُ@@ 1
فاتحین 1
فیر@@ 1
لائیو 1
لڈ@@ 1
ماڑی 1
متصادم 1
نائیڈو 1
نسبی 1
نشریاتی 1
نقیب 1
وه 1
ٹویٹر 1
ٹی20 1
پورٹ@@ 1
پوشی 1
پڑاؤ 1
پھوپھی 1
پیکی@@ 1
چانگ@@ 1
چڑھنے 1
چھتری 1
کروڑوں 1
کلار@@ 1
ہاؤ@@ 1
243 1
291 1
35,@@ 1
Park 0.05792653249613189
ir 0.1300523500869952
اثاثوں 1
استوائی 1
اشکنازی 1
اقلی@@ 1
انار 1
اوريگون 1
اولمپكس 1
اوں 1
ايم 1
ایجنسیوں 1
بائیو 1
برائٹن 1
بریڈ 1
بونے 1
بہاولنگر 1
بیلی@@ 1
ججوں 1
جنتی 1
خروش 1
خض@@ 1
زبرگ 1
زوج@@ 1
سوز@@ 1
سٹریٹ 1
شہز@@ 1
طور@@ 1
غنم 1
فلپس 1
لط@@ 1
مظلو@@ 1
مولوتوف 1
مونٹینیگرو 1
ناچ 1
وجہہ 1
پٹی@@ 1
پگ 1
کانت 1
کانی 1
کلا 1
کیمڈن 1
کینیڈی 1
گاؤ 1
گرافک 1
گزرگاہ 1
گزی@@ 1
ہیلن 1
ہےـ 1
1.6 1
1899 0.22744030190349307
آفاقی 1
ائى 1
ابدال 1
ارسال 1
اشتہار 1
امريكي 1
انتباہ 1
انسٹھ 1
انیتا 1
اوي@@ 1
اٹھنے 1
اکسٹھ 1
بابائے 1
برہمنوں 1
بیسٹ 1
تھال 1
تیئیس 1
حمد@@ 1
خطاط 1
خواجهٔ 1
دہستان 1
زکوٰۃ 1
ساو 1
سرسبز 1
سنگی 1
شیبانی 1
شیل@@ 1
ضے 1
عرفات 1
قیمتیں 1
لابی 1
مشنوں 1
موف 1
نقادوں 1
ولي@@ 1
ينہ 1
پاروں 1
چودھویں 1
چھوٹ 1
ڈاکو 1
کاشف 1
کيا 1
ہُ 1
116@@ 1
2.3 1
208 1
279 1
301 1
ابیلا 1
اتی@@ 1
اسٹور 1
اشت 1
انبوہ 1
اڈہ 1
اکس@@ 1
ایجنٹوں 1
ایرک 1
بولیویا 1
بکھرے 1
بیڈفورڈ 1
بیکٹیریا 1
تسم@@ 1
تقابلی 1
تیاریاں 1
دلو@@ 1
دیال 1
رونِ 1
ستان@@ 1
سجایا 1
سرکوبی 1
سلمی 1
سنجے 1
شیڈول 1
ظہ 1
عالمِ 1
قرضہ 1
مانع 1
محسود 1
معالج@@ 1
میکان@@ 1
نیات 1
وران 1
ویرا@@ 1
يهٔ 1
َّ 1
چيسٹر 1
کارآمد 1
کولن 1
کینز 1
گرنتھ 1
گلوسٹر 1
ہذا 1
1.2 0.9206533205269986
233 1
Chapelle 1
aq 1
as@@ 0.05797650909391654
un@@ 0.023101856501218945
آق 1
آڈیو 1
افري@@ 1
الات@@ 1
اکاون 1
بخار@@ 1
بسایا 1
بہاء 1
ترپن 1
تکیہ 1
جمی 1
جور 1
خاصے 1
دیوالی 1
دیکھتی 1
روتے 1
زاں 1
زنجیر 1
سالی@@ 1
سوٹ 1
عا 1
عبادہ 1
فتح@@ 1
فروش 1
فریاد 1
فزی@@ 1
لازوال 1
لانی@@ 1
لیکچرر 1
مارش 1
محاذوں 1
مراکشی 1
مسمار 1
مسن 1
نشیں 1
هَا 1
وریوں 1
ٹیری@@ 1
پرکشش 1
چاہی 1
چتا 1
ڈیزائ@@ 1
ڈیکلب 1
کاز 1
کاسٹ@@ 1
کاہن 1
کرتاہے 1
کرلے 1
گاری 1
گوب@@ 1
ہرمز@@ 1
ہوگ@@ 1
ﺎﺗ@@ 1
ﻣﯿ@@ 1
231 1
248 1
292 1
430 1
San 0.03407847468594839
Tolombeh 1
il@@ 0.0760053184614767
الوطنی 1
اندازوں 1
انک@@ 1
ایڈورڈز 1
بابت 1
بختیار 1
تاتاریوں 1
تباد@@ 1
توان 1
جوس 1
جہان@@ 1
دادوں 1
درجۂ 1
ذب 1
رضیہ 1
ساروس 1
سالمات 1
سالماتی 1
سرخی 1
سماوی 1
سگنل 1
سیئ@@ 1
شاگردی 1
صلے 1
صہیونی 1
فائدے 1
فرڈینینڈ 1
كلا@@ 1
محلوں 1
مدافعت 1
مزاری 1
معذرت 1
نائیجیریا 1
نشی@@ 1
واجد 1
واصل 1
واضع 1
وَلَ@@ 1
ٹرانزٹ 1
پالیا 1
پریش 1
پيرش 1
پڑیں 1
پیپ@@ 1
کریمین 1
کمیونل 1
کیساتھ 1
گولیوں 1
ہیرے 1
1890ء 1
un 0.002939117784289423
آنرز 1
افیون 1
انفیکشن 1
انڈر@@ 1
اکیانوے 1
تکلف 1
خواں 1
خوری 1
دربارِ 1
دلا 1
دیوم@@ 1
رزمیہ 1
روہ 1
سلمیٰ 1
شکی 1
شیری 1
طوائف 1
قادی@@ 1
لفی 1
مانگا 1
مجتہدین 1
مدین 1
مصادر 1
مہموں 1
نوکر 1
واؤں 1
ورکرز 1
وست 1
وڈا 1
ویژیول 1
پائپ 1
چانگ 1
کٹوں 1
گیئ@@ 1
گیا- 1
ہوس 1
ہینڈ 1
یوکرائنی 1
114@@ 1
214 1
263 1
285 1
286 1
be 0.007565776496265249
آشا 1
ابوبکرؓ 1
اتم 1
اسٹونیا 1
الہیات 1
انیائی 1
اوٹر 1
اکیلا 1
بختیاری 1
بڑھانا 1
بینکاری 1
بیٹھتے 1
تائی@@ 1
تعطل 1
تعمیری 1
جما@@ 1
جماع 1
جھڑپ 1
حیان 1
خاوند 1
رجی 1
رفع 1
رہؓ 1
ریز@@ 1
زنجان 1
سیڑھی 1
شملہ 1
صوابی 1
صہی@@ 1
عاب@@ 1
عاشورہ 1
غدیر 1
فصاحت 1
فوجداری 1
فک 1
قلبی 1
كلنٹن 1
لکے 1
مغلوب 1
نسک 1
نواز@@ 1
واڑی 1
وقی 1
پلیس 1
پچہتر 1
پیاز 1
کاغذات 1
کانفرنسوں 1
کلبی 1
کلچرل 1
کھائے 1
کیلا 1
ہين@@ 1
﴿ 1
1893ء 1
234 1
Qarah 1
اسما 1
اسن 1
الواحد 1
الين@@ 1
اگنی 1
بولٹ 1
بوٹ@@ 1
تحفے 1
ثریا 1
جامعهٔ 1
جانوں 1
جمی@@ 1
حاج@@ 1
خانق@@ 1
دورانِ 1
ذِ@@ 1
رپورٹر 1
سرنگوں 1
سیز 1
شیک 1
طاہرہ 1
عزائم 1
عشرت 1
فلپائنی 1
كپ 1
لاتعداد 1
مکروہ 1
ناف 1
ناو 1
نشانیاں 1
وعہ 1
پاگ@@ 1
پرب@@ 1
پیدائ@@ 1
پیٹرز 1
پیچی@@ 1
چھلانگ 1
کارلٹن 1
کامکس 1
کامیابیاں 1
کرچکا 1
کنے 1
گنا@@ 1
ﻳ@@ 1
1830 0.35987544516877473
1885ء 1
20ویں 1
283 1
288 1
303 1
33.@@ 1
Pennsylvania 0.17964739341739247
f@@ 0.043863677597930514
آرکیٹی@@ 1
ائم 1
ابل 1
ابوموسیٰ 1
اثاثہ 1
الحجہ 1
اللَّهُ 1
الور@@ 1
امیگریشن 1
انہتر 1
اوراق 1
بوئنگ 1
بہمنی 1
بیات 1
ترامیم 1
تقسيم 1
تما 1
ثقفی 1
جوئے 1
جیسپر 1
حواس 1
خاکے 1
داخ@@ 1
دھانی 1
رونق 1
زبانيں 1
سیرو 1
سیلسیان 1
سیکی@@ 1
شیکھر 1
صفحے 1
طنزیہ 1
فجی 1
قافیہ 1
لیڈ 1
مرلی 1
مسرور 1
ملاز@@ 1
منظر@@ 1
میسوپوٹیمیا 1
نظری 1
نیش@@ 1
وٹامن 1
ٹھٹھہ 1
چربی 1
ڑي 1
کؤ@@ 1
کنال 1
گارفیلڈ 1
ہچک@@ 1
یکل 1
1897ء 1
33,@@ 1
eh@@ 0.14482872425156096
آشوب 1
ابھی@@ 1
اجائے 1
اخباروں 1
افوا@@ 1
انبیاء 1
ایمر@@ 1
بانٹ 1
برخاست 1
بوا 1
تنخوا@@ 1
جھٹ@@ 1
جہانیاں 1
جینا 1
خطی 1
راما 1
رتھ 1
ریڈی@@ 1
ریکا 1
زع@@ 1
زلی 1
سدرن 1
سزوو 1
سلطنتیں 1
طبقوں 1
فرمائش 1
فریڈ 1
قومی@@ 1
لرز 1
لپ@@ 1
لگن 1
مکتوب 1
ناطق 1
وجاہت 1
ٹنٹ 1
پرديش 1
پھیر 1
چھہتر 1
کفن 1
گلو 1
ہڑپہ 1
یادوں 1
149@@ 1
200@@ 0.8489852010352902
219 1
35.@@ 1
l@@ 0.04435914861413372
آزاد@@ 1
آغوش 1
آفات 1
ائيجان 1
ابوالفضل 1
الناصر 1
الِ@@ 1
اندھیرے 1
اهٔ 1
بادشاہ@@ 1
حسن@@ 1
حواشی 1
دئیے 1
دعویدار 1
رابن 1
راجیو 1
رفی@@ 1
رنج 1
روت 1
سلہ 1
سوفٹ 1
شمر 1
شمشیر 1
شهد 1
علومِ 1
عليا 1
غیبت 1
فاتحہ 1
فرغانہ 1
فرہ 1
فونٹ 1
قلمبند 1
لدھیانوی 1
متِ 1
مرتے 1
مرز@@ 1
مصالحت 1
معاوضے 1
معجزات 1
نالہ 1
نجار 1
نقاط 1
واء 1
وھ@@ 1
ٖ 1
پانیوں 1
پاکر 1
پرتی@@ 1
پريفيكچر 1
پلیئر 1
پیو@@ 1
کامن 1
کرسٹوفر 1
کوریج 1
کوز@@ 1
گانگ@@ 1
گمنام 1
گھو 1
گھٹ 1
ﮬ@@ 1
2.6 1
238 1
ic 0.07568148321668991
is@@ 0.06289571687386337
اخبار@@ 1
افراتفری 1
البر 1
التر@@ 1
التے 1
الفا 1
انٹلیجنس 1
اوریہ 1
اڈیہ 1
برتھ@@ 1
بسی 1
بونٹ 1
بہائی 1
ترہ 1
تصرف 1
حب@@ 1
خذ@@ 1
خلوت 1
دِل 1
راجو 1
ربیہ 1
زینہ 1
سونپا 1
شعوری 1
شوقین 1
ضر@@ 1
طبقاتی 1
طوالت 1
عباد@@ 1
علیہا 1
فتاوی 1
فراز 1
لاری 1
لتھوانیا 1
لڑیں 1
لیکچرار 1
معرکے 1
مفروضہ 1
نقی 1
ووں 1
وکٹورین 1
يوم 1
٥ 1
ٹیمز 1
پاداش 1
پرتگیزی 1
پلندری 1
ڈائمنڈ 1
ڈارک 1
ڈول 1
ڈھول 1
کدہ 1
کفیل 1
کمب@@ 1
گرینویل 1
گمشدہ 1
گیل 1
ہاسن 1
ﻃ@@ 1
ﻋﻠ@@ 1
1882 0.28273803878328463
2.7 1
Par@@ 0.07941785748836658
human 0.11582528370442584
ئیے 1
احرار 1
احرام 1
اشتیاق 1
الستار 1
المیہ 1
الیس 1
اٹھتر 1
بئی 1
بجانے 1
برائ@@ 1
بزر@@ 1
بھتیجا 1
بینن 1
تفاسیر 1
تون 1
دھرتی 1
رومانٹک 1
سیان 1
سیلواڈور 1
شاف@@ 1
شاپور 1
صاحبہ 1
صالح@@ 1
عبدالکریم 1
فقر 1
لوہار 1
لٹریچر 1
لیبارٹری 1
مانتا 1
معاصرین 1
ندر@@ 1
نوال 1
نوٹوں 1
نيو@@ 1
نٹو 1
ٹرائ@@ 1
پرتھوی 1
پوائنٹس 1
پیل 1
چارے 1
ڈیاں 1
کرسٹ@@ 1
کونی 1
کھر 1
کینٹ@@ 1
کیڈ@@ 1
گرتی 1
گینی 1
125@@ 1
1892 0.2429313924951133
257 1
293 1
Ab@@ 0.06259694905960271
ah@@ 0.1387735740553399
language 0.08280510695118838
li 0.17070009447398904
us@@ 0.07392130805730765
ؓ@@ 1
آرنلڈ 1
ابھرا 1
ارادت 1
انٹیلیجنس 1
انگوٹھی 1
اگروال 1
ایسیکس 1
براستہ 1
بناء 1
بولان 1
بیلٹ 1
بیماریاں 1
بینائی 1
تخمینے 1
جوضلع 1
جھکاؤ 1
حادثات 1
حوال@@ 1
دیوانہ 1
راکی 1
رحی@@ 1
رٹ 1
زہری@@ 1
سویٹزرلینڈ 1
شعب@@ 1
عاجز 1
غازي 1
فارمنگٹن 1
قادین 1
ماگوئنداناؤ 1
مجسٹریٹ 1
منزلت 1
مھ@@ 1
مینڈیٹ 1
نشاط 1
نٹری 1
وائل 1
وتع@@ 1
٧ 1
ٸی 1
ٹائن 1
ٹرم 1
پیشن 1
ڈائجسٹ 1
ڈسن 1
کوسوو 1
گیلی@@ 1
ہمزہ 1
ہیا 1
ﺍﻧ@@ 1
1896ء 1
297 1
ag@@ 0.06111885359811962
آبادیاں 1
آرڈیننس 1
آو 1
ابجد 1
ابخاز@@ 1
اماموں 1
اچھو@@ 1
برمی 1
بروئے 1
بکر@@ 1
بھڑک@@ 1
بھیرہ 1
تاؤ 1
تحریف 1
تصویروں 1
تھیوری 1
جانتی 1
جماعتی 1
جنین 1
جوہ@@ 1
حوالوں 1
دد 1
دھان 1
دھڑوں 1
راحیل 1
رفاقت 1
رمے 1
ریپ@@ 1
زادے 1
زنانہ 1
سالٹ 1
سسلی 1
سیرا@@ 1
صدا 1
صل@@ 1
طالبہ 1
عاد@@ 1
عجب 1
فلائٹ 1
موافقت 1
میخائل 1
نث 1
نرز 1
نمبروں 1
نیکا 1
وتری 1
ورائی 1
ولٹ 1
پٹرول 1
پیو 1
چارسدہ 1
چوہ@@ 1
چھاپوں 1
کرسکا 1
کروفٹ 1
کشادہ 1
کفایت 1
کواپ@@ 1
گیج 1
ہجومی 1
1.1 0.9588357093039801
246 1
258 1
281 1
295 1
89.@@ 1
Morocco 1
آرک 1
آسیہ 1
آہنی 1
ابوالقاسم 1
ابھرتی 1
اثر@@ 1
ارقم 1
استعفا 1
اعضا 1
افی@@ 1
انگوش 1
اٹلانٹا 1
اپی 1
اہی@@ 1
ایسٹونیا 1
برازیلی 1
بزرگان 1
بسے 1
بلاد 1
تریاسی 1
جول 1
خطبات 1
خیمے 1
دلف@@ 1
دما@@ 1
راست@@ 1
ریڑھ 1
زد@@ 1
سرمائی 1
سکری@@ 1
سیدھی 1
غر 1
فینگ 1
فینیش 1
لٹک@@ 1
لیان 1
مجازی 1
محلول 1
مروج 1
منيسوٹا 1
موقوف 1
موی 1
مہران 1
نف 1
نقاشی 1
نیوکلیئر 1
واٹر@@ 1
ٹن@@ 1
ٹوئ@@ 1
پتر 1
پکانے 1
کارو@@ 1
کافروں 1
کرغیزستان 1
کوئین 1
کوہستانی 1
یات@@ 1
یاک@@ 1
া@@ 1
189@@ 1
2.9 1
226 1
278 1
306 1
307 1
34,@@ 1
Bot 1
آشرم 1
آمر 1
ازدواج 1
اسعد 1
اسنے 1
اظہار@@ 1
التی 1
اللّٰ@@ 1
اکبر@@ 1
ایئرفیلڈ 1
ایجن@@ 1
باندھا 1
بعثت 1
بندگی 1
بیاس 1
تحریکیں 1
تقوی 1
توقعات 1
جھیلیں 1
حالتوں 1
حسنؓ 1
حش@@ 1
خداداد 1
ذر 1
راؤ@@ 1
رائفل 1
رکی 1
ریحان 1
صاب@@ 1
صلى 1
فخ@@ 1
قْ@@ 1
لنکاسٹر 1
مخلوقات 1
مشغلہ 1
مقدر 1
مواصلاتی 1
مِنَ 1
مچھلیاں 1
نیشیا 1
وسط@@ 1
ٹول@@ 1
ٹھہر 1
پورٹلینڈ 1
پون 1
چھے 1
ڈاون 1
گیار@@ 1
گیلو@@ 1
167@@ 1
37,@@ 1
آپﷺ 1
اض 1
الشہ@@ 1
انخلاء 1
اندر@@ 1
انشورنس 1
اوسط@@ 1
اُن@@ 1
ایجادات 1
ایمپائر 1
ایون@@ 1
باف@@ 1
بریڈمین 1
بعہ 1
بلائ@@ 1
بوم@@ 1
بہرہ 1
تریانوے 1
جالندھری 1
جدی@@ 1
حضور@@ 1
خستہ 1
داتا 1
دوہری 1
دینہ 1
روداد 1
ریشمی 1
زیں 1
سبزیوں 1
سنہا 1
سورا@@ 1
سیکریٹریٹ 1
شات 1
شنگ@@ 1
عاتی 1
علا 1
عک@@ 1
غرور 1
قبرصی 1
قریباً 1
قصی 1
لاڈ@@ 1
مائیک 1
متناسق 1
مجددی 1
مرتد 1
مشرک 1
مطبوعات 1
ملامت 1
ملکیوں 1
مماثل 1
وارا 1
وینک@@ 1
وینکوور 1
يون 1
٦ 1
ٹھنڈی 1
پارس 1
پرشیا 1
پچ 1
چندہ 1
کران 1
کٹس 1
کیسپین 1
گرامر 1
گود@@ 1
یْ 1
ﮍ@@ 1
ﺏ 1
179 1
1881 0.26807421987729013
1894 0.236895716521575
264 1
آچکا 1
ائع 1
اجناس 1
البحر 1
السلطنت 1
النَّ@@ 1
اندھی@@ 1
ایر 1
ایودھیا 1
بك@@ 1
بکریاں 1
بھوج 1
بیانوے 1
جوہی 1
جہالت 1
جیوں 1
حکومتِ 1
خال 1
درد@@ 1
دوربین 1
دين 1
روبوٹ 1
رُ 1
زاد@@ 1
سلسلوں 1
سیٹھ 1
ظفر@@ 1
عشرہ 1
فاؤنڈ 1
فالی@@ 1
فرمان@@ 1
فرنچ 1
قاتلوں 1
لیڈز 1
مئی@@ 1
مادھو 1
مخالف@@ 1
مونٹی@@ 1
مکھن 1
ناراضی 1
ناظ@@ 1
ناٹنگھم 1
نکھ@@ 1
نیئر 1
وحد@@ 1
وراثہ 1
وسک 1
ویدی 1
ٹاٹا 1
پارا 1
پکار 1
پہاڑیاں 1
پیغمبر@@ 1
ڈھا 1
کوز 1
کیمرا 1
کینٹربری 1
گاس 1
گدھے 1
گلابی 1
ہومز 1
ﻣﺤ@@ 1
2.0 0.6636074448463655
266 1
312 1
Airlines 0.46825744209181974
ka 0.07351586545143575
om@@ 0.0709827925817386
آلو@@ 1
آوارہ 1
استعمار 1
اسکائی 1
اكي 1
انگو@@ 1
اورآپ 1
اوستا 1
اویسی 1
ايك 1
اگا 1
بالہ 1
بسا@@ 1
بسمارک 1
تاحیات 1
تربت 1
تعزی@@ 1
ثقاہت 1
جواہرات 1
خرید@@ 1
داستانیں 1
دھوکہ 1
ذلیل 1
راس@@ 1
سبرگ 1
سكي 1
سلجوق@@ 1
سلف 1
سوپر 1
سڈ 1
صومالی 1
عاص@@ 1
عیہ 1
فشانی 1
لیف 1
لیما 1
ملاتی 1
مکی@@ 1
مہلت 1
ناف@@ 1
نيا 1
وانا 1
٨@@ 1
ٹران 1
ٹماٹر 1
پاز 1
چلاتا 1
ڈاج 1
ڈرائی@@ 1
کرچکی 1
کوئے 1
ہیبت 1
1871 0.25100388382018646
1889ء 1
1902 0.18400158802506664
325 1
Autonomous 1
Kingdom 0.12145646292392882
section 0.09358017296067776
ابھرے 1
اداكارہ 1
اسٹیٹس 1
انند 1
انگیزی 1
برزے@@ 1
برنسوک 1
بٹھا 1
تجوید 1
تقریباً@@ 1
توضیح 1
تیغ 1
جری 1
حجری 1
دورا@@ 1
رفتاری 1
رینچ 1
زار@@ 1
زلز@@ 1
زنو 1
سدا 1
سرت 1
سفارشات 1
سمن 1
سورة 1
سینیگال 1
سیکا 1
شْ@@ 1
عباسؓ 1
عظيم 1
فیلڈر 1
قیات 1
لائبیریا 1
لوقا 1
ماجہ 1
مبرگ 1
مراٹھ@@ 1
منتر 1
مچھلیوں 1
نٹائن 1
هو@@ 1
وادي 1
وسطي 1
وشی 1
وكے 1
ولک 1
٤ 1
ٹانگوں 1
پد@@ 1
پوٹھوہار 1
چام@@ 1
ڈیویس 1
کاگ@@ 1
کوئنسی 1
کوچی 1
کہکش@@ 1
کیمیکل 1
گریگ 1
ہواؤں 1
10,000 0.48500014467220937
157@@ 1
236 1
294 1
31.@@ 1
Bal@@ 0.10568526730458791
Voivodeship 0.4881447541143599
u@@ 0.06453770997035421
v 0.1253584870695087
أبو 1
الجن@@ 1
الظ@@ 1
الیوں 1
انانوے 1
انتی@@ 1
اکتساب 1
اکس 1
بجانب 1
بہتے 1
تئیں 1
تاو 1
تاویل 1
تت@@ 1
تغیرات 1
تھیری@@ 1
دردی 1
دستار 1
دستیابی 1
دیکر 1
رر 1
رشک 1
روبی 1
سنسنی 1
سوری@@ 1
سپاہ@@ 1
طرہ 1
طوط@@ 1
فاری@@ 1
لوہ@@ 1
مئو 1
مارکس@@ 1
محرا@@ 1
مرحمت 1
منٹس 1
مچھ 1
نبی@@ 1
نصابی 1
والٹن 1
وقوف 1
ٹیٹ 1
پانچوں 1
پتن 1
پورٹیج 1
پیتے 1
پیڈ@@ 1
کاٹھ@@ 1
کوان 1
کچلنے 1
126@@ 1
46.@@ 1
Kar@@ 0.11060201812662422
ai 0.08117579693511726
آخر@@ 1
آپریشنل 1
ئى 1
اجتماعات 1
ارنسٹ 1
ازو 1
استقامت 1
اسمارٹ 1
اقتباس 1
المنصور 1
ایشلنڈ 1
ایمسٹرڈیم 1
بلجئیم 1
بندھن 1
بوہول 1
بٹھایا 1
بڈ@@ 1
بگاڑ 1
تانگ 1
تقسی@@ 1
جداگانہ 1
جمعیۃ 1
دانا 1
دز@@ 1
راہل 1
سبحان 1
سطحوں 1
سوشلزم 1
شیرون 1
صدوق 1
طي@@ 1
ــــــــ@@ 1
فیلکس 1
لیوا 1
مئ@@ 1
محافل 1
مداح 1
مشتری 1
ملكي 1
مۂ 1
میراتھن 1
میکی@@ 1
نبات@@ 1
نجن 1
نسخ 1
وولٹیج 1
٧@@ 1
ٹرمینل 1
ٹینا 1
ٹیکا 1
پریکٹس 1
پنگ@@ 1
پہنایا 1
پیالہ 1
چاک@@ 1
چروا@@ 1
چندرا 1
چھکے 1
ڈفورڈ 1
کارروائیاں 1
کیبل 1
گولا 1
ہرزیگوینا 1
10ھ 1
153@@ 1
188@@ 1
1903 0.17858664415806916
229 1
267 1
311 1
In 0.003511139950039615
ac 0.1590962941535813
administrative 0.16189701483295788
borough 0.38424276917839867
آرمسٹرانگ 1
آلود 1
الجیریا 1
امبی@@ 1
بازیافت 1
باورچی 1
بدسلوکی 1
برمودا 1
بستیاں 1
بکس 1
بھرنے 1
بیسن 1
بیٹھی 1
تحفظات 1
تقدس 1
تلک 1
تکبیر 1
جاتیں 1
جیف 1
حسنین 1
دسواں 1
دھمکیاں 1
دھوم 1
رجسٹریشن 1
رکاوٹیں 1
رہوں 1
ریڈر 1
سازوسامان 1
سٹیٹ 1
سیلی 1
سیول 1
صحابہؓ 1
عرو@@ 1
عکاس 1
فارچون 1
فاض@@ 1
فاکس 1
فریڈم 1
فیظ 1
قیوں 1
كم 1
لائي 1
مرع@@ 1
مزہ 1
مفعول 1
منکر 1
موزمبیق 1
نرسنگ 1
های 1
وبن 1
وریہ 1
ووٹنگ 1
ویزا 1
پولیو 1
پومر@@ 1
پیکار 1
چپکے 1
ڈاف@@ 1
ڈری 1
کزئی 1
کلز 1
کوئلہ 1
کیانی 1
گھاٹی 1
ہلاکو 1
ہیپ@@ 1
1815 0.3933701971236873
1887 0.25035124467473563
289 1
ang 0.11200446309183082
آزما 1
ارنا 1
اسکواڈرن 1
الحکیم 1
العظ@@ 1
اوچ 1
ایوان@@ 1
بحيرہ 1
برنارڈ 1
بلغاریائی 1
بوسہ 1
بھجن 1
بہاماس 1
بیانیہ 1
بیدہ 1
تعلی@@ 1
جمہوری@@ 1
جنازے 1
حلو@@ 1
خاد@@ 1
خزیمہ 1
خیرات 1
خیزی 1
دیوان@@ 1
راہبوں 1
رنجی 1
ساسکچیوان 1
سامانی 1
سچن 1
سینگ 1
عیینہ 1
فارسیوں 1
لوری 1
مارسیل 1
ماورائے 1
ماہر@@ 1
مدینے 1
مردار 1
مستی 1
مسقط 1
مصباح 1
مغفرت 1
ملبوسات 1
میسا 1
نکالنا 1
پرچ@@ 1
پوئ@@ 1
پگ@@ 1
پہنچائی 1
پہنچنا 1
پیراگوئے 1
چھڑی 1
چیتا 1
چیکوسل@@ 1
کاپیاں 1
کندھے 1
ہاش@@ 1
ہندکو 1
ہیہ 1
۱۵@@ 1
1.7 1
1877ء 1
276 1
Ag@@ 0.16914086407076204
Kal@@ 0.148760774405945
um 0.01705553465673747
اعظ@@ 1
الحمد 1
الخالق 1
المؤمنین 1
النا 1
امو 1
امیتابھ 1
انگی@@ 1
اکسایا 1
اگرا 1
ایتھلی@@ 1
بحی@@ 1
بھیجتے 1
بہانہ 1
بیکار 1
تونسہ 1
جلال@@ 1
جواں 1
جوز@@ 1
حے 1
خاص@@ 1
خلوی 1
دعاؤں 1
دیوانی 1
ذَ@@ 1
زدگی 1
زیاد@@ 1
ساد 1
ستو 1
سك 1
شبنم 1
عاد 1
عصبی 1
عۃ 1
غا 1
فرمای@@ 1
فرو 1
فۃ 1
فیاضی 1
كار 1
لنک@@ 1
مارکسی 1
مخز@@ 1
مکعب 1
میاہ 1
میون@@ 1
نانوتوی 1
نکو@@ 1
نیلامی 1
نینی 1
وند@@ 1
ِل 1
٥@@ 1
پکارتے 1
پیڈ 1
ڈاگ 1
کاندھلوی 1
کرمانی 1
کمیونٹیز 1
کوج@@ 1
گاو 1
گنڈا 1
ہفتم 1
ہوئى 1
ہوی 1
1884ء 1
Deh 1
ו@@ 1
آرٹلری 1
اجز@@ 1
ادیہ 1
الایمان 1
العمل 1
امروہوی 1
اناؤ 1
انتقامی 1
ایکٹر 1
بانس 1
بوا@@ 1
تاریخوں 1
تضاد 1
تنگی 1
جسم@@ 1
جیانگ@@ 1
حفصہ 1
دھڑے 1
راہداری 1
رزق 1
رید 1
ریور@@ 1
زام@@ 1
ساد@@ 1
ساں 1
سرم@@ 1
سفلي 1
سکھایا 1
ماح@@ 1
مارکیٹنگ 1
محصور 1
مطیع 1
معترف 1
معنوی 1
منتظمین 1
ميساچوسٹس 1
میمون 1
نمکین 1
وآ@@ 1
ودا 1
وڑ@@ 1
پارٹ@@ 1
پٹھ@@ 1
پیشتر 1
چائی 1
چیکہ 1
کریگ 1
کنیز 1
کھوئے 1
کیا- 1
ہما@@ 1
ہورہا 1
ہیمپٹن 1
ﻄ@@ 1
1.8 1
1884 0.25018815540662703
1898ء 1
1899ء 1
261 1
296 1
365 1
410 1
Chah 1
ki 0.13668458448212034
ol@@ 0.05305694014588215
ville 0.03823422284083923
ءسے 1
آوازوں 1
آڑ 1
استعمالات 1
اسفار 1
الحکم 1
الفق@@ 1
الوقت 1
ايڈاہو 1
اینا 1
بدخشاں 1
برسر 1
بشریات 1
بیع 1
تاتھا 1
جاگیرداروں 1
جھاڑ@@ 1
دبا@@ 1
رمزِ 1
سرٹیفکیٹ 1
شريف 1
شمش@@ 1
شہناز 1
شہنشاہوں 1
طِ 1
عاز@@ 1
فرانز 1
فرمانے 1
فعلیات 1
فوق 1
فْ@@ 1
قاتلانہ 1
مانگنے 1
مجروح 1
محال 1
مغز 1
ملائشیا 1
مورث 1
نااہل 1
نسب@@ 1
نوشی@@ 1
واکر 1
پریڈ 1
پلوں 1
پیئ@@ 1
چارلی 1
چیس 1
ڈيلاويئر 1
کوار@@ 1
ہنس@@ 1
ہیرالڈ 1
298 1
DNA 0.29419988844967
Lower 0.43795587877660064
Mal@@ 0.08796855647833614
Wisconsin 0.24244605242681827
one 0.008471464046191184
آمیزش 1
ئیف 1
اتوں 1
احب 1
اشا 1
الشی@@ 1
انتھونی 1
باربرا 1
بدیع 1
برقی@@ 1
برکلے 1
برین 1
بعدازاں 1
بونی 1
تاریخ@@ 1
تخفیف 1
تلسی 1
حبشی 1
خلیے 1
خیراتی 1
دُ 1
دہرایا 1
راجاؤں 1
رقمطراز 1
رنگا 1
زک 1
سوتے 1
شکر@@ 1
شیرانی 1
صحاح 1
صلا@@ 1
فدا 1
قسموں 1
لالی 1
لودھراں 1
لول 1
متروک 1
مثلا@@ 1
مختصراً 1
مریدوں 1
مکس 1
نبویﷺ 1
واج 1
وتربیت 1
وشو 1
ووك@@ 1
ٹیمپل 1
پنیر 1
پھرتے 1
چیوان 1
چیکو 1
کای@@ 1
کمز@@ 1
کنس@@ 1
کیسٹر 1
گورا 1
ھن 1
ہارٹفورڈ 1
ہیوں 1
1.3 0.9816622395652763
115@@ 1
237 1
282 1
309 1
England 0.05289535294169892
os@@ 0.06726532706307797
ادیاں 1
اسٹینڈ 1
اشعث 1
اصطلاحی 1
البیان 1
المق@@ 1
الیکٹرون 1
انات 1
انف@@ 1
اوراپنے 1
ایج 1
ایجوکیشنل 1
ایمپ@@ 1
اینڈی 1
بارودی 1
بالشویکوں 1
بخت@@ 1
بولڈ 1
بھڑک 1
تاوان 1
تعری@@ 1
جولین 1
جہل 1
حار@@ 1
ديا 1
رپورٹس 1
ریکٹر 1
زروی@@ 1
سنانے 1
سوہ@@ 1
صور 1
علانیہ 1
فرينكلن 1
فلائی 1
قدو@@ 1
قَالَ 1
لوزيانا 1
متعدی 1
متھ@@ 1
محر@@ 1
معاہ@@ 1
منوں 1
مہتا 1
نادیہ 1
نیگرو 1
وائلڈ 1
وقائع 1
ومح@@ 1
يڈ 1
ٹھہ 1
ٹھہرا 1
پالنے 1
پسندیدگی 1
چتے 1
چس 1
ڈیوں 1
کارپوریٹ 1
کنفیوشس 1
کنٹری 1
گائی 1
گانی 1
گردے 1
گوار@@ 1
گوجر 1
ہنو@@ 1
ﮐﺮ 1
1.4 1
2.4 1
ir@@ 0.06251097630455392
province 0.10064426529316163
آمد@@ 1
اعلا@@ 1
الینڈ 1
امینی 1
اوموری 1
اونٹ@@ 1
اکاؤن@@ 1
ایلچی 1
باع@@ 1
بڑ 1
تنگ@@ 1
جبرائیل 1
جرز 1
خطابات 1
خن 1
داک 1
روکے 1
ریلی@@ 1
سغد 1
سلیکٹر 1
سندھیا 1
سوانحی 1
شھ@@ 1
شہابی 1
شیاں 1
شیمپیئن 1
طلعت 1
فہرستیں 1
قطعات 1
لائبری@@ 1
لگاتا 1
لیڈروں 1
مرغ 1
مولف 1
مير@@ 1
مَ 1
مینگل 1
نفےس 1
يوان 1
ّم 1
ٹيم 1
پاد@@ 1
پیشین 1
چمکدار 1
چیخ 1
ڈسک 1
ڈومین 1
کاسٹر 1
کسٹم 1
کوسٹا 1
کولون 1
کینال 1
گای@@ 1
گوارا 1
گوش 1
گھبرا@@ 1
گھوم 1
ھوں 1
ہنور 1
ہونڈوراس 1
ﮮ 1
2.1 1
2.8 1
287 1
36,@@ 1
local 0.0361844038303004
ارنے 1
اشرفیہ 1
الازہر 1
امامیہ 1
انڈیکس 1
بیانی 1
ةِ 1
تها 1
جانشینوں 1
جیلان 1
حسام 1
حشر 1
دشمن@@ 1
دیوناگری 1
سبھاش 1
سيل@@ 1
سکس 1
شاست@@ 1
شبیہ 1
شتر 1
شير 1
علامتیں 1
عنہم 1
فرانکو 1
فیوض 1
قدی@@ 1
قلند@@ 1
لاك 1
مدائن 1
مدھو 1
مصالحہ 1
منہ@@ 1
مچ 1
میٹر@@ 1
نظارے 1
نیست 1
وجن 1
ووی@@ 1
ويك@@ 1
ٹھو@@ 1
پورن 1
پیشرو 1
چیچک 1
ڈویل 1
ڈگریاں 1
کشوں 1
کیدار 1
گوو 1
ہائر 1
ہال@@ 1
یادگاریں 1
ﺅں 1
0.7 1
138@@ 1
1879 0.2560537134895113
850 1
East 0.057547666370296624
Sal@@ 0.1157285388531099
ine 0.04640712901117363
ابیب 1
الحان 1
الفطر 1
المت@@ 1
انتونیو 1
اوان 1
بریٰ 1
بلبل 1
بمشکل 1
بینگ@@ 1
تبریزی 1
تھے- 1
جسی@@ 1
جلن 1
جمہوريهٔ 1
جمہوریهٔ 1
دائم 1
راہنمائی 1
رقیہ 1
ساقی 1
سبک 1
سلیس 1
سنو@@ 1
سوال@@ 1
سوپ 1
سٹیل 1
سیال@@ 1
سیلا 1
شیوا 1
عباس@@ 1
غاروں 1
قبیلۂ 1
قذافی 1
كوو 1
لاں 1
لسن 1
مالاکنڈ 1
مسز 1
مٹا 1
مڑ 1
ندو@@ 1
نوب 1
نوت@@ 1
والي 1
ولڈ 1
وَأَ@@ 1
پروازیں 1
پیلا 1
پیلی@@ 1
چبو@@ 1
چیمہ 1
ڈالتا 1
کردی@@ 1
کلین 1
کمبرلینڈ 1
کیرئر 1
گردوارہ 1
ھوئے 1
ہارے 1
یۃ 1
ﺤ@@ 1
---- 1
113@@ 1
1882ء 1
274 1
321 1
Le 0.008878559321001877
River 0.04567526142332919
man 0.01986532073909597
آبرن 1
آگہی 1
آں 1
ئرفیلڈ 1
ائیرپورٹ 1
انسٹیٹیوٹ 1
اکلوتی 1
ایجیئن 1
ایڈونچر 1
باج@@ 1
بتا@@ 1
برق@@ 1
بلغراد 1
بیٹن 1
تراش 1
تقریبا@@ 1
توان@@ 1
تُ 1
جوم@@ 1
خانقاہوں 1
خلدون 1
خلي@@ 1
دآباد 1
دریائی 1
دلاور 1
دکھاتا 1
راجر 1
سفارت@@ 1
سوویتوں 1
سٹارک 1
شازیہ 1
شخصی@@ 1
طیف 1
عرق 1
غلطیوں 1
فلوئڈ 1
لیسٹر 1
مصریوں 1
مه@@ 1
مونا 1
وفود 1
وہی@@ 1
يشن 1
ٹیلے 1
پالم@@ 1
پام 1
پریا 1
پریشد 1
ڈسپ@@ 1
ڈیک 1
کاج@@ 1
کلرک 1
کھجور@@ 1
گارڈنر 1
گرز 1
گزارتے 1
گورے 1
ہنوں 1
یونیور@@ 1
یوگا 1
ﺎﻟ@@ 1
ﻣﻨ@@ 1
1870ء 1
8.5 1
has 0.007050937025997769
ابوج@@ 1
اشاع@@ 1
البلد 1
البیرونی 1
امار@@ 1
انجری 1
اکر@@ 1
برائیوں 1
بورژ@@ 1
ثنائی 1
جراح 1
حسنہ 1
حفاظ 1
خداوندی 1
خرگوش 1
دعائے 1
رامپور 1
رفعت 1
ریڈنگ 1
زبیرؓ 1
سکرین 1
سیڑھیاں 1
شد@@ 1
شرح@@ 1
شعلہ 1
شید 1
صریح 1
صنعتیں 1
صورتیں 1
ضیاء@@ 1
فیضی 1
قصبات 1
كاري 1
لر@@ 1
مارنا 1
مجنوں 1
مستنصر 1
مشروب 1
مشنریوں 1
مقروض 1
موجب 1
موسٰی 1
مَیں 1
میگنی@@ 1
ناراین 1
يوٹاہ 1
ٹول 1
پند@@ 1
پولے 1
پوٹر 1
پُل 1
چیمپئنز 1
کمیونیکیشن 1
کنواری 1
کینڈی 1
گندھ@@ 1
ہینڈرسن 1
18ویں 1
2500 0.9666453031283406
She@@ 0.40663333424162923
ana 0.05510017050492505
ائٹس 1
ادم 1
اردشیر 1
اصط@@ 1
السل@@ 1
اناجیل 1
انگولا 1
اگوا 1
بادلوں 1
بام 1
تاروں 1
جمن@@ 1
جگہیں 1
حرب@@ 1
حور 1
خوان@@ 1
خي@@ 1
دکھاتے 1
دیواری 1
رچلينڈ 1
رہم 1
زرتشت 1
سرکس 1
سفیروں 1
سنتا 1
سنیل 1
صال 1
علقمہ 1
فائن 1
فع@@ 1
فلور@@ 1
لہریں 1
لینس 1
ماد 1
مبارک@@ 1
مرکزے 1
مشکو@@ 1
منادی 1
مورخہ 1
موقعوں 1
میمی 1
ناء 1
نایا 1
نمازیں 1
نگن 1
هیں 1
واقع@@ 1
ودیا 1
وقتاً 1
يار 1
پاکستانیوں 1
ڈاکٹر@@ 1
ڈیشن 1
ڈینیئل 1
ڑوی 1
کنڈی 1
کواس 1
کیفے 1
کیمرے 1
یؒ 1
یحیٰی 1
1886 0.22941846269078145
1891 0.21502454094553786
1892ء 1
type 0.06918238035902982
מ@@ 1
آلودہ 1
ابراهم 1
اجمعین 1
اسید 1
اشار@@ 1
الخیر 1
الصباح 1
العقیدہ 1
انڈمان 1
اویہ 1
اُٹھ 1
بالاتر 1
بروقت 1
بسٹر 1
بنالیا 1
بورک 1
بھیس 1
تابوت 1
تين 1
جامشورو 1
جگت 1
حسینہ 1
حمایتی 1
خواہ@@ 1
رجعت 1
ریو@@ 1
زحل 1
زخمیوں 1
سبزیاں 1
سربراہان 1
سرجن 1
سوئے 1
شعلے 1
شیام 1
عاص 1
عاطف 1
فاء 1
فائن@@ 1
فرز@@ 1
قضاء 1
ماف@@ 1
متشدد 1
محرکات 1
موری 1
میکسی@@ 1
نای@@ 1
نوعمر 1
نینگ 1
ويت 1
يوك@@ 1
پاؤ@@ 1
پارلی@@ 1
پرنٹنگ 1
پروپیگنڈا 1
پریشر 1
پہنچائے 1
ڑھا 1
کردیتی 1
کروانا 1
کولوم@@ 1
کیرالا 1
گزٹ 1
گوار 1
گڑھ@@ 1
ھیں 1
ہسپان@@ 1
ہَ@@ 1
یڈمز 1
ﺼ@@ 1
11ھ 1
128@@ 1
313 1
460 1
Hose@@ 1
Mohammad 0.9173057185732002
az@@ 0.11541820863982134
آئیوس 1
ابتدا@@ 1
ارن 1
ازمیر 1
اسلاف 1
اسکندر 1
المط@@ 1
انیکا 1
اونٹنی 1
اوکا@@ 1
برانڈ@@ 1
براہِ 1
بریا 1
بریل 1
بغاوتیں 1
بھیجنا 1
تث@@ 1
تخریج 1
تصغیر 1
تیک 1
جادوئی 1
جلسوں 1
جھوٹی 1
حا@@ 1
خطا 1
خنجر 1
خوشخبری 1
دھماکہ 1
ذیب 1
ريل 1
رُخ 1
ریئ@@ 1
ریپبلک 1
زری 1
زيادہ 1
سوخ 1
شہاد@@ 1
صاحبؒ 1
صحارا 1
عتی@@ 1
فوکس 1
لکسمبرگ 1
لیئے 1
محاورے 1
مرقع 1
مصحف 1
مصدقہ 1
مولی@@ 1
نظرب@@ 1
وري@@ 1
وزیراعلیٰ 1
ويلز 1
وْ 1
ٹوڈ 1
پلہ 1
چشموں 1
چوم@@ 1
چیچ@@ 1
ڈوور 1
ڈیئ@@ 1
کارگو 1
کثیف 1
کرادیا 1
کریز 1
کفارہ 1
کلینک 1
گھا@@ 1
ہستیوں 1
یورپین 1
் 1
333 1
375 1
Islands 0.20418897689676202
geographic 1
were 0.004701955250931339
آکسائڈ 1
آگسٹا 1
ئیس 1
ائزیشن 1
ابلیس 1
ابوہریرہ 1
ابیوں 1
اريو 1
اشاعتی 1
اشع@@ 1
الواقدی 1
امي 1
اوروہ 1
اکیتین 1
ایگ@@ 1
جھنگ@@ 1
حن@@ 1
دہرا@@ 1
راك 1
رامائن 1
رومان 1
رين@@ 1
ریمنڈ 1
سلطانوں 1
سیرا 1
سیں 1
عیل 1
فاقہ 1
فرہاد 1
فوقتاً 1
لامہ 1
لطی@@ 1
لنڈا 1
ماروں 1
معزولی 1
مفر@@ 1
مینو@@ 1
ناطے 1
ناپاک 1
نلی 1
نوزائیدہ 1
واش 1
ورق 1
يد 1
ٹنا 1
پرائیوٹ 1
پھاڑ 1
چنی 1
کلاب 1
کوری 1
کیون 1
گولے 1
ہبل 1
یادگاری 1
یرغمال 1
یوری 1
134@@ 1
1864 0.23565774384253785
329 1
6000 1
People 0.14440074278995674
or@@ 0.037363110879052114
ء- 1
ابھرنے 1
ادر@@ 1
اریٹیریا 1
اسرائیلیوں 1
اضی 1
الٹنے 1
اندور 1
انوش@@ 1
اوباما 1
اوق@@ 1
ایاں 1
ایڈگر 1
بارک 1
باصلاحیت 1
بحر@@ 1
بود@@ 1
بیجاپور 1
بیرین 1
بیلہ 1
جاز 1
جاگی@@ 1
جیول 1
حساب@@ 1
دھرا 1
دیوالیہ 1
دیول 1
سانچہ 1
سخت@@ 1
شتہ 1
شہریار 1
صاحبان 1
صن@@ 1
ظالمانہ 1
عاملہ 1
عبدالرحمان 1
عبدالرشید 1
عدالتیں 1
فارن 1
فنِ 1
فیری 1
لاب@@ 1
لاد 1
لام@@ 1
مافوق 1
ماڈ@@ 1
متری 1
مطبع 1
معاذؓ 1
معصومہ 1
منحرف 1
نجران 1
نقص 1
نوفل 1
نیپ@@ 1
هْ@@ 1
والو 1
وتدریس 1
ٹیلنٹ 1
پاكستاني 1
پست@@ 1
پھیلایا 1
چنار 1
ڈربی 1
ڈھونڈ@@ 1
کردو 1
کساد 1
کمبل 1
یزیدی 1
0.8 1
109@@ 1
144@@ 1
1856 0.304314093768031
1885 0.20475791385018124
Am@@ 0.09270732833445358
ra 0.03959980237297362
آرامی 1
آف@@ 1
اثبات 1
احناف 1
اداکاراؤں 1
افطار 1
الحسینی 1
الحک@@ 1
الہٰی 1
امپائرنگ 1
بازو@@ 1
بيت 1
بھنگ@@ 1
بھڑ@@ 1
تجسس 1
تولید 1
تھان 1
جاسک@@ 1
جولی 1
جیکی 1
حسینؓ 1
خوبیاں 1
خول 1
دارالحكومت 1
دارفور 1
رحمن 1
رسن 1
رعنا 1
ریڈار 1
زیوس 1
شاہجہان 1
ضعف 1
عطار 1
علما@@ 1
فرماتی 1
فوس@@ 1
فہر@@ 1
لل 1
ماجدہ 1
مانچو 1
مراتب 1
مقناطی@@ 1
ملاقاتیں 1
مٹھن 1
میتھیو 1
میراں 1
ناردرن 1
نصوص 1
نہروں 1
وارنر 1
ویز@@ 1
يرو 1
ٹين 1
ٹھن 1
ٹیل@@ 1
پاکیزگی 1
چارلسٹن 1
کارٹر 1
کارگل 1
کانگرس 1
کرپشن 1
کریئر 1
کلامی 1
کچر 1
گفت 1
گوام 1
گوڈا 1
گھومتے 1
گھومنے 1
ےش 1
ﺑﮭﯽ 1
1813 0.43813539085502173
3- 1
308 1
316 1
317 1
334 1
390 1
In@@ 0.05234009576127677
Q 0.2289796331390928
Qu@@ 0.09265211993432836
en@@ 0.02230827254946958
ł@@ 0.3267156040653902
آئرس 1
آفری@@ 1
آفرین 1
افسر@@ 1
الغفور 1
انچی 1
اولاً 1
باشی 1
برسی 1
تعریفیں 1
تھیو@@ 1
جلایا 1
جوی 1
حكومت 1
خریدے 1
خوب@@ 1
دھند 1
زِ 1
زیہ 1
ساح@@ 1
سرہ@@ 1
شارک 1
عسقلانی 1
عظام 1
عنا@@ 1
عنقریب 1
فلائ@@ 1
قع 1
كھيل 1
لیتھ@@ 1
لیموں 1
ماہو@@ 1
متق@@ 1
محکوم 1
معدہ 1
معذوری 1
مقت@@ 1
ملیر 1
منت@@ 1
مکر@@ 1
نفورڈ 1
واٹرلو 1
پرجاتیوں 1
پروازوں 1
پلٹن 1
پکایا 1
پیمائی 1
ڈرو 1
ڈنگ@@ 1
کابی@@ 1
کاکیشین 1
کعب@@ 1
گاتا 1
گھات 1
ہات@@ 1
ہاروے 1
ہزاری 1
ہلا 1
ہولوکاسٹ 1
ہید 1
ہیری@@ 1
یع 1
146@@ 1
1814 0.3833310462969605
324 1
ec@@ 0.06856310821158801
احتساب 1
اشتراکیت 1
اكي@@ 1
السَّ@@ 1
اندو@@ 1
انیمیشن 1
اِخت@@ 1
اپس 1
ایم@@ 1
باخبر 1
بساط 1
بندر@@ 1
بیرن 1
تاتارستان 1
تفاعل 1
توزیع 1
حصّے 1
دلالت 1
دوار@@ 1
دھیرے 1
زيد 1
زیمبیا 1
سدو@@ 1
سزائیں 1
سلاوی 1
سواتی 1
سہارے 1
شای@@ 1
طاق 1
طاقم 1
طباطبائی 1
طبی@@ 1
عذر 1
عشر 0.9575900883904304
فراق 1
فوف 1
فوک 1
فيئر@@ 1
قاس@@ 1
قریظہ 1
مالدار 1
مبلغین 1
مجد@@ 1
محم@@ 1
محو 1
مدر 1
مندانہ 1
مکالم@@ 1
نه@@ 1
نواسے 1
نوو 1
نیشنلسٹ 1
وجد 1
ولو@@ 1
وه@@ 1
وَالْ@@ 1
ویڈ 1
ویژ@@ 1
يد@@ 1
يش 1
پلانے 1
پولينڈ 1
پیلی 1
پیکا 1
چاریہ 1
چلن 1
ڈریم 1
ڈل@@ 1
کباب 1
کردینا 1
کشت 1
کنڑا 1
کونڈ@@ 1
گبسن 1
گنان 1
گڑ 1
ہاسٹل 1
یرا 1
یری@@ 1
یون 1
۱۲@@ 1
304 1
315 1
Mississippi 0.2858270365418299
ed@@ 0.07754556428816764
آذربائیجانی 1
ئیم 1
اداس 1
الائ@@ 1
اللہﷺ 1
ایئرفورس 1
برتر 1
بھان@@ 1
بیسارابیہ 1
جبار 1
جہتی 1
جیکل 1
حام 1
داست@@ 1
دْ@@ 1
دگیوں 1
دھرن 1
دھچکا 1
رصدگاہ 1
رومی@@ 1
روہنگیا 1
رہاہے 1
زات 1
زیک 1
سترو@@ 1
ستری 1
سفری 1
سنیوں 1
سگے 1
شاپنگ 1
صاد@@ 1
صالحہ 1
صقلیہ 1
طہ@@ 1
علي@@ 1
غلاف 1
فرمانروا 1
فیو@@ 1
كيا 1
لای@@ 1
لبریز 1
لوسی 1
لُ 1
مارٹی 1
متھرا 1
مخزن 1
مرث@@ 1
ملازمتوں 1
میونخ 1
نانوے 1
نکی@@ 1
هن 1
ووا@@ 1
ویلفیئر 1
يٹ 1
ٔ@@ 1
٨ 1
پاب@@ 1
پاسداری 1
چوکے 1
چیمبر@@ 1
ڑتے 1
کاولی 1
کتبے 1
گیو 1
ہارنے 1
ہندوکش 1
ہوتو 1
یائی 1
یوز@@ 1
148@@ 1
32,@@ 1
Al 0.05543839305696424
country 0.04994796820392703
this 0.009597003343695657
آٹے 1
ابوداؤد 1
اتارنے 1
اتیں 1
ارضیات 1
اعہ 1
الملوک 1
اینکر 1
باً 1
بتانا 1
بصارت 1
بع 1
بمبار 1
بولی@@ 1
بیتھ@@ 1
تھانے 1
جاوی 1
جوا 1
جْ@@ 1
جھل@@ 1
خمیر 1
خیموں 1
دوہرا 1
زئے 1
زیدؓ 1
سعیدہ 1
سوڈانی 1
سٹاک 1
سکائی 1
شبی@@ 1
شوقیہ 1
طہارت 1
عملداری 1
عود 1
قبطی 1
قطر@@ 1
قور@@ 1
كوي@@ 1
لوے 1
لٹکا 1
مادوں 1
مجارستان 1
معمولات 1
مفکرین 1
مملوکوں 1
موس@@ 1
مہنگے 1
میٹرو@@ 1
نانجنگ 1
نکو 1
ونسٹن 1
ووڈلینڈ 1
ووکے 1
وَإِ@@ 1
وکیع 1
٬ 1
ٹھنڈے 1
پروٹو 1
پڑوسیوں 1
پھینکا 1
پہا@@ 1
پینگ@@ 1
چوٹیوں 1
چھان 1
چھپانے 1
ڈگ@@ 1
کبری 1
کردے 1
کي@@ 1
کٹن 1
گرتے 1
گورنروں 1
گیریژن 1
ھار 1
ہتے 1
ہنٹ@@ 1
ۡ 1
ﯿﺎ@@ 1
135@@ 1
16ویں 1
1850 0.23679585419039104
1888ء 1
480 1
787 1
AD 0.26107130668919604
Germain 0.6695284534413594
اسمائے 1
افس@@ 1
الرجال 1
الفقہ 1
النے 1
الْمُ@@ 1
امویوں 1
انشا 1
اُنھوں 1
بئ@@ 1
بئر 1
بالٹیمور 1
باکسنگ 1
بلاغت 1
بني 1
تلگو 1
توا 1
جراحی 1
جمیعت 1
جودھ 1
ره 1
سوزش 1
سٹائل 1
سپرنگفیلڈ 1
شاٹ 1
شوا@@ 1
شیشہ 1
عمارہ 1
غافل 1
مجسموں 1
مصروفیات 1
میدانِ 1
ناؤ 1
ناب 1
نفس@@ 1
نيويارك 1
نگھم 1
نینیانوے 1
ودھ@@ 1
وشال 1
چیل 1
چینائی 1
کرتیں 1
کوئل 1
گرایا 1
گرس 1
ہمی@@ 1
یدہ 1
یکی 1
1886ء 1
1894ء 1
680 1
Shah@@ 0.7636562004668837
ong 0.11494025029672418
ابوح@@ 1
ادرنہ 1
اریں 1
الخطاب 1
الغ 1
امات 1
انار@@ 1
انفراسٹرکچر 1
انچیف 1
انڈونیشی 1
بوت 1
بہنوئی 1
تاس@@ 1
توصیف 1
خلیوں 1
ذات@@ 1
ذیابیطس 1
رڈ 1
رۂ 1
سوق 1
شیلا 1
طار 1
طرز@@ 1
عاقل 1
عالمگیری 1
غوثیہ 1
فاس 1
فونی@@ 1
قراء 1
قریہ 1
لوح 1
متوالیہ 1
مقبر@@ 1
منز 1
ناروی@@ 1
نث@@ 1
نزار 1
نشے 1
ننجا 1
نہریں 1
ورث@@ 1
ومو 1
وومن 1
ٹریوں 1
ٹیسٹوں 1
پَ@@ 1
پیشگی 1
چینگ@@ 1
ڙ@@ 1
کرن@@ 1
کمتر 1
کمپوز 1
کورو 1
گراف@@ 1
گیلان 1
یش@@ 1
یمان 1
ﺍﭘﻨ@@ 1
0.5 0.8193877189408015
1.9 1
520 1
Mor@@ 0.07919239623933834
Re@@ 0.05372743951120703
di 0.0626511087955104
ins 0.048887473687264614
́ 0.0431079867223759
ؔ@@ 1
آجاتے 1
آسمانوں 1
آفت 1
آہ 1
ئا 1
ابوب@@ 1
ابوسفیان 1
اریا 1
اسمگلنگ 1
اسٹرائی@@ 1
اسٹین 1
اشوکا 1
اعز@@ 1
الاولیاء 1
الشریعہ 1
انرجی 1
انڈا 1
انہدام 1
اوسطا 1
اوپیرا 1
اِرقام 1
اپری@@ 1
ایپل 1
ایڈمن@@ 1
بدامنی 1
برہ 1
بیور@@ 1
بیکانیر 1
تپہ 1
جسٹ 1
جمود 1
جيمز 1
حادثاتی 1
حیدر@@ 1
خار 1
خدایا 1
ده@@ 1
راہِ 1
رباط 1
رنے 1
ریؒ 1
ریئر 1
سکرپٹ 1
سہروردیہ 1
شہدا 1
صدمے 1
فاشسٹ 1
قبر@@ 1
لؤ@@ 1
ليا 1
مارکی@@ 1
مالائی 1
مجلسی 1
مرغی 1
منافقین 1
ناواقف 1
نگراں 1
ٹونٹی 1
ٹیپ 1
پلاؤ 1
چونگ 1
ڈيل 1
کیپیٹل 1
گستاخی 1
ہارٹ@@ 1
ۃً 1
ﮢﻲ 1
ﺣﻤ@@ 1
1889 0.1918140128486593
2,000 0.5101712858142831
314 1
322 1
323 1
Be@@ 0.06637337278103304
Man@@ 0.07744720715887
state 0.027919850701316577
ר@@ 1
آباء 1
أبي 1
ائو 1
ائير 1
ارجمند 1
اري@@ 1
اسٹوری 1
اسٹینڈرڈ 1
اقہ 1
الانصاری 1
الدر@@ 1
القابات 1
الوجود 1
اير@@ 1
اھل 1
ایکسی@@ 1
بابی 1
بالڈون 1
برد@@ 1
بلاول 1
بچت 1
تحار@@ 1
تحریکِ 1
تركي 1
تصنی@@ 1
تولیدی 1
جاچکے 1
جمش@@ 1
جھلی 1
جھنج@@ 1
جیفری 1
حضر 1
داس@@ 1
دسیوں 1
دینیات 1
راط 1
رالدین 1
راہنما 1
رور 1
ریگولی@@ 1
سالا 1
سلوواکیہ 1
سليمان 1
سنز 1
سگریٹ 1
شیش 1
شیعیت 1
صدیقہ 1
عتِ 1
عند@@ 1
قادیانی 1
قتیبہ 1
قیص@@ 1
لتی 1
لیے@@ 1
متک@@ 1
محمّد 1
مذید 1
مرق@@ 1
مشینوں 1
مطالب 1
میلوں 1
مینن 1
نض@@ 1
نغموں 1
نکاسی 1
نگورنو 1
نیتی 1
ودھان 1
وصولی 1
ولکر 1
وّ@@ 1
ٹریس 1
ٹوس@@ 1
ٹولی@@ 1
ٹھکانے 1
پاٹ 1
پیرزادہ 1
چوس@@ 1
چھیڑ 1
چیئرپرسن 1
کھانسی 1
گوشے 1
ھُ@@ 1
ہالہ 1
ہدیہ 1
ہیرا@@ 1
۱۷@@ 1
← 1
1860ء 1
1861ء 1
1893 0.19132127677567312
39,@@ 1
York 0.021828446016770572
im@@ 0.0453763796096052
آئ 1
الان 1
البخاری 1
الٰہ 1
اڈو@@ 1
اگی@@ 1
باور 1
تمھیں 1
جمیلہ 1
جکار@@ 1
جیوتی 1
حلیمہ 1
خوابوں 1
دبستان 1
ذکی 1
رافیل 1
رامن 1
رق 1
روائی 1
رَسُ@@ 1
زش 1
سانت@@ 1
سبت 1
سماٹرا 1
سٹرا 1
صیہونیت 1
ضامن 1
فرم 1
فٹی 1
قلمرو 1
كالج 1
لشکر@@ 1
لنكن 1
لۃ 1
لیلہ 1
لیور 1
ماً 1
میزائلوں 1
میکر 1
نڈم 1
وزر 1
پختونخواہ 1
پونہ 1
پوچھنے 1
پیشِ 1
پیچیدگی 1
چارٹ 1
ڈیلا 1
کاؤنٹ 1
کسیوں 1
کنیسہ 1
کچھو@@ 1
گاؤ@@ 1
گرن@@ 1
ہاو@@ 1
ہِ@@ 1
یاترا 1
یهٔ 1
4.2 1
Gol@@ 0.2463469474617937
ary 0.0775470607364929
han 0.07279571633834825
آزمائ@@ 1
ابول@@ 1
ادار@@ 1
ادبا 1
ارتداد 1
اصح@@ 1
اعادہ 1
اعل@@ 1
اغ 1
اقتباسات 1
الرو@@ 1
الرَّ@@ 1
العلی 1
الہامی 1
امد 1
امروہہ 1
انوکھا 1
انوکھی 1
انگري@@ 1
ايشيائي 1
اِست@@ 1
اپون 1
اڑان 1
ایپی 1
برسلز 1
برنی 1
برینڈن 1
بنوائی 1
تہرانی 1
تیت 1
جدائی 1
جسد 1
حالت@@ 1
حوا 1
خوئی 1
داع@@ 1
دباو 1
درویشوں 1
دعو@@ 1
دوش 1
دَ 1
دیانت 1
رحمی 1
روپوش 1
رپورٹنگ 1
رینکنگ 1
زمروں 1
سانہ 1
سوان@@ 1
سہگل 1
شج@@ 1
صار 1
عفت 1
علامتوں 1
قالب 1
قونیہ 1
لیزر 1
ماوراء 1
مبو 1
مصی@@ 1
مطالع@@ 1
موضوع@@ 1
نالے 1
نعی@@ 1
ينے 1
يٹ@@ 1
ٹلینڈ 1
پریفیکچور 1
چلا@@ 1
کالموں 1
کانٹے 1
کرشمہ 1
کروئی 1
کشنز 1
کمایا 1
کولا@@ 1
گھڑ@@ 1
ہمی 1
یادیں 1
ﺍﺳ@@ 1
1867 0.2270054444897034
1878ء 1
332 1
Bo@@ 0.08038874987496136
State 0.02989994302020146
آدتیہ 1
آشوری 1
آکس@@ 1
احتی@@ 1
ادیو 1
اراونڈڈسمنٹ 1
ارجن@@ 1
ارف 1
اسلو@@ 1
اسیا 1
الاص@@ 1
الفتح 1
اللَّ@@ 1
اللہ@@ 1
اليہ 1
اننت 1
انورا@@ 1
انیل 1
اورابن 1
اچی 1
اہواز 1
ایڈم 1
بؤ@@ 1
برگزیدہ 1
بوری@@ 1
بڑوں 1
بہشت 1
بیہقی 1
تفر@@ 1
تنی 1
جیساکہ 1
حقیر 1
حکمراں 1
حین 1
دروس 1
دیاگیا 1
دیوی@@ 1
ذن 1
ساع@@ 1
سكو 1
سمع@@ 1
سٹرا@@ 1
سکردو 1
سیک 1
شاپ 1
شاہانہ 1
شرعیہ 1
شون 1
طائ@@ 1
عجمی 1
عہدی 1
فخر@@ 1
فلاڈیلفیا 1
فنان@@ 1
قانون@@ 1
كميونٹي 1
ماگ@@ 1
مجلسِ 1
مختلط 1
معلوماتی 1
منگو 1
منگیشکر 1
مونی@@ 1
مہیش 1
نجاشی 1
واد@@ 1
ورمان 1
ورکشاپ 1
وْنَ 1
وہیل 1
پنچایت 1
پير 1
ڈومی@@ 1
ڈپلومہ 1
ژوب 1
کارواں 1
کبوتر 1
کسے 1
کنا 1
کوسٹاریکا 1
کووکے 1
ہري 1
ہورہی 1
یانگ@@ 1
یانہ 1
یوگ 1
ﯾﮧ 1
137@@ 1
1888 0.19858654407553983
1891ء 1
440 1
ot@@ 0.04938955551400386
א@@ 1
آرکٹک 1
آفیشل 1
افواہ 1
الینیوائے 1
امیروں 1
اوز 1
باجوہ 1
برطرفی 1
بستہ 1
بمب@@ 1
بينٹن 1
بہتی 1
بیوکینن 1
ترکی@@ 1
تھرو 1
حریفوں 1
حسی 1
حنظلہ 1
خاقان 1
خونریزی 1
ذَا 1
رباعی 1
رورسائیڈ 1
روزنام@@ 1
روکتا 1
سرائیوو 1
سیمینار 1
شانگ@@ 1
شاہنواز 1
شعاع 1
شمعون 1
عدت 1
عرش 1
فخرالدین 1
قصاص 1
لشکروں 1
لگائیں 1
لگام 1
لیبل 1
لیری 1
محفلوں 1
ملکر 1
موریتانیہ 1
مومنین 1
میانہ 1
میرٹ 1
نغ@@ 1
نند 1
نڈنٹ 1
وعدوں 1
وكا 1
ويں 1
ِن 1
ٹري 1
پدما 1
پرسنل 1
پروانہ 1
پٹھانوں 1
پیسوں 1
ڈسپلے 1
ڈيم 1
ڈين@@ 1
کازان 1
کرب 1
کروزر 1
کوفیوں 1
کولم 1
گرانے 1
ہتھی@@ 1
ﮏ 1
110@@ 1
1867ء 1
1881ء 1
6,0@@ 1
Parish 0.47906334323373795
ard 0.07800235949150375
bdi 1
government 0.03118338237777419
not 0.008044413426597147
style 0.04925332339170474
آبا@@ 1
اتح@@ 1
اخی@@ 1
البانوی 1
الفطرت 1
القیس 1
الپ 1
امرا@@ 1
انٹار@@ 1
اولیا 1
اوٹو 1
اٹارنی 1
ایوی@@ 1
بامیان 1
بينك 1
ةَ 1
تبلیسی 1
ثیت 1
جلے 1
جوب@@ 1
جولیا 1
جوڑتا 1
حافظ@@ 1
حاک@@ 1
خانان 1
دانستہ 1
دتہ 1
دھمکیوں 1
دہانے 1
راشٹریہ 1
راہول 1
ریزہ 1
زری@@ 1
زماں 1
زنجی@@ 1
زون@@ 1
سفارتخ@@ 1
سکالر 1
شاداب 1
شاہان 1
شیت 1
صلاحیتیں 1
عہدۂ 1
فاص@@ 1
كلارك 1
لوسیا 1
لوکل 1
مالو@@ 1
متمول 1
مثل@@ 1
مقدار@@ 1
ملحوظ 1
منح@@ 1
مہاکاوی 1
میٹک 1
ناپا 1
ناہید 1
وسنت 1
٩ 1
ٹرینوں 1
پروڈی@@ 1
پیوں 1
چاندنی 1
کاؤنٹیوں 1
کریوں 1
کونا 1
کوٹہ 1
کھوسہ 1
کھولے 1
کھوپڑی 1
ہلچل 1
ہوائیں 1
ہوجانا 1
ہولی@@ 1
ہین@@ 1
ﺗﮯ 1
ﺪﺍ@@ 1
1858ء 1
328 1
352 1
40,@@ 1
7.5 0.895674091259678
Mah@@ 0.16962380337507887
اخت@@ 1
اسٹاپ 1
اعتکاف 1
افقی 1
الحافظ 1
اوتی 1
اوغلو 1
اپولس 1
ایون 1
باتی 1
بدلی 1
بھکش@@ 1
بھیڑ@@ 1
بیئ@@ 1
تہہ 1
حدیثوں 1
خطۂ 1
دقیق 1
دُور 1
رومال 1
سریانی 1
سرینگر 1
سیکرٹریٹ 1
شرع 1
شوع 1
شہو@@ 1
صفد 1
ضابوا@@ 1
طاؤس 1
ظر 1
فرینڈ 1
فشر 1
فلورایڈا 1
قوم@@ 1
لاشاری 1
لذت 1
لفورڈ 1
لہو 1
محوری 1
مذکر 1
میمہ 1
ناتھن 1
نارا 1
ندن 1
وبت 1
وشا 1
يع@@ 1
يلي@@ 1
يوس 1
ُو 1
ٹکر 1
ٹیکسی 1
پشین 1
پڑھیے 1
چِ@@ 1
ڈھالا 1
ژی 1
کاؤ 1
کاردار 1
کاٹن 1
کشائی 1
کوڑا 1
گئے@@ 1
گاہک 1
گدی 1
ہدایہ 1
ہراسانی 1
ہشتم 1
ہوسکے 1
1700 0.5820456616620234
1887ء 1
327 1
40.@@ 1
48.@@ 1
D9 1
Nebraska 0.44544569671763057
U.S. 0.044366688922513366
آو@@ 1
ئوں 1
ائیجان 1
ابوطالب 1
احترا@@ 1
افلاطون 1
الائیڈ 1
المشائخ 1
المہدی 1
امرت 1
امیرالمؤمنین 1
ایں 1
بالش@@ 1
بربادی 1
بلیغ 1
بوڑھا 1
بوہی@@ 1
بير@@ 1
بھجوا@@ 1
بہم 1
ةً 1
تجرب@@ 1
تسبیح 1
تے@@ 1
ثمر 1
جوئ@@ 1
جوان@@ 1
جھیل- 1
حیفا 1
دين@@ 1
دھنی 1
رابع 1
رسی@@ 1
روض@@ 1
زیات 1
سٹوری 1
سیکول@@ 1
سیکھنا 1
شعاعیں 1
شيا 1
شیطانی 1
عساکر 1
عقب 1
فرج 1
قسطنطین 1
قنوج 1
قیں 1
مباہلہ 1
متب@@ 1
متعہ 1
مرچنٹ 1
مرکزیت 1
مستطیل 1
معالجہ 1
معہ 1
موتھ 1
مونگ 1
مکاں 1
نبیل 1
نزا 1
وصی 1
ولندیزی 1
ویسا 1
ّد 1
پجاری 1
پرسی 1
پستول 1
پھینک@@ 1
چہار@@ 1
ڈرائنگ 1
ڈیموکریٹس 1
کرائیں 1
کى 1
کھڑکی 1
کینی 1
گرانڈ 1
گولا@@ 1
ہنٹنگٹن 1
ہنڈ@@ 1
ہووارڈ 1
ہیگ 1
ﺍﯾﮏ 1
ﻠﮧ 1
1883ء 1
335 1
38,@@ 1
381 1
45.@@ 1
Darreh 1
^ 1
ul@@ 0.057789270443633245
آرمینیائیوں 1
ابراہیمی 1
ارطغرل 1
اسکوا@@ 1
الآثار 1
الجھن 1
الشر@@ 1
العزی@@ 1
انطاکیہ 1
اوون 1
اٹا 1
اہیں 1
ایلسورتھ 1
باسفورس 1
بدو 1
بربریت 1
بھاپ 1
بھومی 1
تَ 1
تکالیف 1
جاناں 1
جف@@ 1
جہانگ@@ 1
حراستی 1
حلق 1
حمیدہ 1
دکی 1
دھواں 1
رودبار 1
رونی 1
ریخ 1
سائرس 1
سبقت 1
سدھو 1
سمرسیٹ 1
سپردِ 1
صرا@@ 1
عبدالوہاب 1
عس@@ 1
عقیق 1
غار@@ 1
فورڈشائر 1
كْ@@ 1
لاحقہ 1
لوتھ@@ 1
لوتھر 1
مالك 1
مجبوراً 1
مجسم 1
مم 1
منزلوں 1
ميہ 1
میلکم 1
ننھا 1
والہانہ 1
واہن 1
ولوج@@ 1
وني@@ 1
وودز 1
ٹتے 1
ٹوری 1
ٹیلا 1
پاؤڈر 1
چھوڑیں 1
کوئنزلینڈ 1
کڈ 1
گھن@@ 1
ہام@@ 1
ہٹنے 1
ﭽ@@ 1
ﺩﻭ@@ 1
ﻑ 1
ﻫ@@ 1
0.6 1
ali 0.1747293567260129
ā@@ 0.14651242571026196
آبدوز 1
آرہی 1
آسودۂ 1
ابرار 1
ابوظ@@ 1
اتفاقی 1
اخوت 1
ادان 1
اراک@@ 1
ارضی 1
اروناچل 1
اسد@@ 1
الجام@@ 1
اُم 1
اٹلانٹک 1
اکنامک 1
اید 1
باگو 1
بسنت 1
بسیں 1
بطلیموس 1
بنسی 1
بڑھیں 1
بینکس 1
تاپ@@ 1
تریپورہ 1
تشریحات 1
تہجد 1
جادو@@ 1
جمنٹ 1
خزر@@ 1
خطبے 1
خیرمقدم 1
رهٔ 1
ريو 1
ریال 1
ساپ@@ 1
سرداری 1
سرینام 1
سنبھل 1
سنکی 1
سکاٹش 1
سکھانے 1
سہار@@ 1
سہولتیں 1
سیمینری 1
شہنش@@ 1
ضَ@@ 1
عبدالحکیم 1
عبدالرحیم 1
عشریہ 1
علاؤالدین 1
عوامي 1
فارمیٹس 1
فروع 1
فورک 1
قریبا 1
قزاقوں 1
لات@@ 1
لامحدود 1
لۂ 1
لیکس 1
معتقد 1
موریسن 1
موچی 1
ننکانہ 1
نٹوں 1
واکیہ 1
ودر@@ 1
وٹا 1
وڈی@@ 1
ٹوو 1
پرسن 1
پرچار 1
پنس@@ 1
پہنچاتے 1
چاقو 1
چہ@@ 1
چہل 1
ڈیل@@ 1
کنانہ 1
کھن@@ 1
کھنڈرات 1
کینڈل 1
گرمائي 1
ہاؤسنگ 1
র@@ 1
ﺩﺍ@@ 1
345 1
372 1
395 1
41.@@ 1
560 1
BC 0.15374047494882462
Indian 0.06438044022522821
world 0.03751846534879546
ارغون 1
استنباط 1
استور 1
اضافیت 1
الباری 1
الوا 1
امیں 1
اولیٰ 1
اُٹھا 1
اہر 1
باہ 1
برونڈی 1
بروک@@ 1
بورا 1
بولیوں 1
بیز 1
تیروں 1
جاب 1
جوناگڑھ 1
حرفی 1
خزر 1
خوشبو@@ 1
خیبرپختونخوا 1
دستِ 1
رابن@@ 1
ربڑ 1
روئ@@ 1
رچ 1
ریزی@@ 1
رینگ@@ 1
سؤ@@ 1
سوفی 1
شاہراہوں 1
عاف@@ 1
عجم 1
عزوجل 1
غذائیت 1
غرب 1
فرما@@ 1
فرنیچر 1
فلاس@@ 1
قاع@@ 1
قلعهٔ 1
لزبن 1
لزم 1
ماڈرن 1
مبا@@ 1
مسع@@ 1
مشرا 1
معرو@@ 1
معن@@ 1
منگٹن 1
موسموں 1
میلی 1
مینیا 1
ناگا 1
نصراللہ 1
نوجوانی 1
نکالتے 1
هَ 1
وریج 1
وولف 1
وڑی 1
ينز 1
ٹیکسوں 1
پبلی 1
پلایماؤت 1
پونڈ 1
پوچھتے 1
پہچانی 1
ڈیزل 1
ڈیموکری@@ 1
کاح@@ 1
کاروان 1
کالنگ 1
کتھ@@ 1
کرغیز 1
کھم 1
کھینچا 1
کہف 1
گلاسگو 1
ں- 1
ﭩ@@ 1
1856ء 1
az 0.16464412412103963
ha 0.029019524966965336
ous 0.05432907638892853
rural 0.13012662012344006
آتشیں 1
آپکا 1
اختتامی 1
ادگان 1
اسمبلیوں 1
اغراض 1
افزا 1
الجبار 1
الجبرا 1
اوسطاً 1
اوقیان@@ 1
اوي 1
اکیڈ@@ 1
اگرا@@ 1
ایٹن 1
ایڈوبی 1
ایڈولف 1
باہو 1
برسات 1
بھیجتا 1
تارڑ 1
تدابیر 1
تلو@@ 1
تیاریوں 1
جلنے 1
حشرات 1
حقان@@ 1
خضدار 1
دلیر 1
ذہ 1
رابطوں 1
رضاعت 1
روپیے 1
رکے 1
رہو@@ 1
رہوڈ 1
ریستوران 1
ریسٹ 1
زارا 1
زاویے 1
زمان@@ 1
سدقباد 1
سدھارتھ 1
سري 1
سلیکٹرز 1
سماں 1
سمجھیں 1
سودہ 1
سیڈ@@ 1
شه@@ 1
شوی@@ 1
شیکسپیئر 1
صوت@@ 1
عابدہ 1
عشروں 1
عیاض 1
فائٹر 1
قهٔ 1
كنگ@@ 1
كيرو@@ 1
لاٹھی 1
لیاری 1
محمول 1
مرتض@@ 1
معط@@ 1
ملاح 1
مونٹگمري 1
نب 1
نمائی 1
نہج 1
نینا 1
نیوکلی@@ 1
نیپچون 1
وتا 1
وكٹوريہ 1
ولت 1
ٹانک 1
ٹکراؤ 1
ٹیلیفون 1
پارٹي 1
پھیلتی 1
چھاڑ 1
کاشغر 1
کاشمیری 1
کالجز 1
کرسٹی@@ 1
کنار 1
کنسرٹ 1
کوک@@ 1
کھان 1
کھپت 1
کےلئے 1
گوان 1
گودام 1
گوٹ 1
ہیروشیما 1
یورینس 1
یگانہ 1
318 1
336 1
354 1
44,@@ 1
47.@@ 1
Khan@@ 1
Mon@@ 0.06999031229320299
Santa 0.0687203108554501
ש@@ 1
آک@@ 1
ارون@@ 1
اساطیری 1
اسکولی 1
الأ@@ 0.7144861808293714
المناک 1
الوار@@ 1
اوکی@@ 1
اگن 1
ایرو 1
ایمیٹ 1
بتاریخ 1
بھنج 1
تاز@@ 1
تایا 1
تبی@@ 1
تحمل 1
تفاوت 1
توکل 1
تڑ@@ 1
ثَ@@ 1
حروفِ 1
خانپور 1
خواجگان 1
دوی@@ 1
دھونے 1
دہا 1
دہانہ 1
راجیش 1
رسولوں 1
رصد 1
رضي 1
سبر@@ 1
سردار@@ 1
سوئز 1
سوسائ@@ 1
سویرے 1
سٹائن 1
سیچیلیس 1
شمارندہ 1
ضاب@@ 1
عبدالم@@ 1
عليه 1
غِ 1
فالو 1
فع 1
فیف 1
قرص 1
قیم 1
كوك 1
متمکن 1
محرومی 1
ملو 1
مہات@@ 1
میش 1
میلو@@ 1
مینہ 1
میٹھی 1
ناوا 1
ناپسندیدہ 1
نظامات 1
نمازوں 1
ننگ@@ 1
وادی@@ 1
وتق@@ 1
ومنٹ 1
ونيا 1
ٹزر 1
ٹیکنالوج@@ 1
پاروتی 1
پاپولر 1
پنوں 1
پیکارڈی 1
پیکٹ 1
چلڈرن 1
چینج 1
ڈائریکٹرز 1
کاؤنٹی- 1
کرواتے 1
کندھوں 1
کوبھی 1
کڑا 1
کھلونے 1
گارڈنز 1
گرڈ 1
گنگوہی 1
گھڑت 1
ہاس 1
ہالی@@ 1
ہخامنشی 1
یثرب 1
۰۰ 1
ﮩﺎ@@ 1
1850ء 1
1869ء 1
1879ء 1
338 1
348 1
Gu@@ 0.09450453149601304
ay@@ 0.09907624489553327
du@@ 0.12471119854848871
states 0.08955148570516111
ابھرتے 1
اتری 1
اربعین 1
استوا 1
اشاروں 1
اعراب 1
اعمش 1
الجزیرہ 1
المرتضی 1
الپس 1
انبار 1
انڈہ 1
انکل 1
اچاریہ 1
بوٹسوانا 1
بینٹ@@ 1
تانی 1
تحريك 1
ترانے 1
تز 1
تصحیح 1
تعزیت 1
توراۃ 1
توپ@@ 1
تیکا 1
ثقۃ 1
جامعۃ 1
حبش 1
حرکیات 1
ختنہ 1
خطِ 1
خمی@@ 1
دربار@@ 1
دري@@ 1
دوحہ 1
دۃ 1
راولاکوٹ 1
ستیں 1
سناتے 1
صراحت 1
ضاء 1
ضدابہام 1
عبدالرزاق 1
عداوت 1
فارمولا 1
فتوے 1
فلمایا 1
قیوم 1
كام 1
لوری@@ 1
ماخ@@ 1
مالک@@ 1
مانک 1
مبے 1
مجبوری 1
مختص@@ 1
مسلئہ 1
مشروبات 1
مشیروں 1
معجم 1
ملاح@@ 1
منشا 1
منق@@ 1
منگو@@ 1
مينے 1
مڈل@@ 1
نانپارہ 1
نضر 1
نیے 1
هر@@ 1
واردات 1
وانگ@@ 1
وفی@@ 1
ویلو 1
ياتي 1
ياں 1
ٹال 1
ٹاک@@ 1
پختگی 1
پروٹون 1
پریت 1
پلي@@ 1
پوزی@@ 1
پھیپھڑوں 1
پیانو 1
پینی@@ 1
چاؤ 1
چیمپین 1
چیون@@ 1
چیکوسلو@@ 1
ڈرتے 1
کرنا@@ 1
کلئیر 1
کووو 1
گئی@@ 1
گھوٹکی 1
گہوارہ 1
گیسوں 1
ہنومان 1
-- 0.5515516550429735
1849 0.27504181204410777
20,000 0.6121455193184467
339 1
45,@@ 1
College 0.032047945687812246
John 0.018064069296649762
ne 0.01700935049641426
ائوں 1
اختیاری 1
ارز 1
اساسی 1
اعصاب 1
الاسلامیہ 1
الغرض 1
الوحید 1
انڈیپینڈینس 1
ايا 1
بارشوں 1
برٹن 1
بشار 1
بقرہ 1
بولیاں 1
بوک 1
بھوجپوری 1
بھگا 1
بہاد@@ 1
بیریا 1
بیونس 1
تعطیل 1
تلاشی 1
تواتر 1
تولی@@ 1
ثقاف@@ 1
جامع@@ 1
جنجوعہ 1
جنٹ 1
جوہن 1
جکبو@@ 1
حالاتِ 1
خاتم 1
خلف@@ 1
درپے 1
دیود@@ 1
راہوں 1
رحجان 1
روو 1
ريكو 1
ریق 1
ریلے 1
زٹاؤن 1
سالمیت 1
سرو 1
سلوا 1
شریان 1
شریفین 1
شیئرڈن 1
عبداللهٔ 1
عۂ 1
غبار 1
قدامہ 1
قرشی 1
قلہ 1
قن 1
لوب 1
لہسن 1
لیجنڈ 1
مائیں 1
مصرو@@ 1
معاون@@ 1
مکلین 1
مہؓ 1
مہندی 1
میلی@@ 1
میکانی@@ 1
نذرانہ 1
نمونۂ 1
ورر 1
ولیج 1
ٗ@@ 1
ٹوگو 1
پالو 1
پکے 1
چك 1
چورا@@ 1
چھونے 1
کاریں 1
کما 1
کولونیا 1
گم@@ 1
یابی 1
یمامہ 1
31@@ 1
Sa@@ 0.15144647527405464
ap@@ 0.04507556953523412
ers 0.021017011033850876
jeh 1
آرلنگٹن 1
آسامی 1
آپریشنز 1
ائجان 1
ابر@@ 1
احتشام 1
اخوند 1
اصلاً 1
الحکوم@@ 1
الدع@@ 1
الٰ@@ 1
الکو@@ 1
اویلر 1
ایاس 1
ایوانِ 1
ایڈری@@ 1
برادرز 1
بلوں 1
بٹن 1
ة@@ 1
جیر 1
حصین 1
حوثی 1
حیدراباد 1
داب@@ 1
درمیاں 1
دریافتوں 1
راجوری 1
رتِ 1
رشی@@ 1
ريں 1
سانتو 1
سرچشمہ 1
سوائی 1
شائد 1
صدي 1
صیغہ 1
طین 1
علاقائي 1
علاقہ- 1
فتو@@ 1
فقہاء 1
فنک@@ 1
قائمہ 1
قادسیہ 1
قدسیہ 1
قضیہ 1
لیونارڈ 1
مناظ@@ 1
مورتیاں 1
نشا 1
نیروبی 1
وزو 1
وفائی 1
ونے 1
ويس 1
وْا 1
ویٹیکن 1
ٹوٹے 1
ٹيك@@ 1
چونے 1
کاج 1
کافور 1
کاکی@@ 1
کلاسیکل 1
کنگمین 1
کنہیا 1
کیتھ 1
کیلاش 1
گرمين 1
گني 1
ہاروی 1
ہربرٹ 1
ہسپتالوں 1
ہمرکاب 1
ہےاور 1
یوسفی 1
17ویں 1
1858 0.26662640293779016
1a 1
357 1
363 1
49.@@ 1
5,000 0.4251498812620885
570 1
8000 1
Korea 0.17013885567241435
ל@@ 1
آلبیون 1
آپکو 1
ارس 1
اسر@@ 1
اسمعیل 1
اسپار@@ 1
الجامع 1
الجھ@@ 1
انڈونی@@ 1
انگری@@ 1
اوسلو 1
اوگ@@ 1
بورس 1
بڑھاتے 1
بھانجے 1
بھوت 1
بیحہ 1
تذکرے 1
تعليم 1
توپیں 1
توی@@ 1
تھوں 1
جوزی 1
جھک 1
جینس 1
حول 0.9694687344698731
حیات@@ 1
خوار@@ 1
دروز 1
دير 1
رالف 1
رط@@ 1
رنس 1
ریری 1
زح@@ 1
زنگی 1
سرورق 1
سمجھانے 1
سننا 1
سیفی 1
شریح 1
صبیح 1
ضحاک 1
طلی@@ 1
عثمان@@ 1
عطیات 1
غل 1
فقرے 1
فینکس 1
قاف 1
كتب 1
لائنیں 1
مالوا 1
مبیا 1
مشی@@ 1
مصنف@@ 1
مفقود 1
ملائی@@ 1
ممنوعہ 1
موا 1
مہمند 1
نرس 1
نص 1
نورزئی 1
نیلوفر 1
نیوپورٹ 1
وارک 1
واپ@@ 1
وبین 1
ولان 1
ونل 1
ونیت 1
پورٹل 1
چنائی 1
کلف@@ 1
کلیئرواٹر 1
کھلایا 1
کہنہ 1
گردانا 1
گزارش 1
گلبرٹ 1
ہرش 1
ہزاروی 1
ہضم 1
یاگ@@ 1
یول@@ 1
ﺍﯾ@@ 1
1840 0.24381095360346003
344 1
362 1
540 1
Bolagh 1
aj 0.3388525528780489
cities 0.13730540404665056
id@@ 0.05271630262541477
ְ@@ 1
آسی@@ 1
أن 0.11128541706645971
ئت 1
ابلا@@ 1
ابوعبداللہ 1
اترتے 1
اجلاسوں 1
ادائی@@ 1
التجا 1
العصر 1
الور 1
الھ@@ 1
الیکس 1
انچیون 1
اوٹ@@ 1
اہت 1
ایلو@@ 1
برززن@@ 1
برطانویوں 1
بكر 1
بنہ 1
بویہ 1
بچیوں 1
تراشی 1
تعزیرات 1
تقابل 1
تمر 1
تول 1
تیان 1
جھ 1
حام@@ 1
حنی@@ 1
خا@@ 1
خانوا@@ 1
خلفا 1
خْ@@ 1
زرین 1
ساسانیوں 1
سلو 1
سینڈ 1
سیڈجویک 1
شجر@@ 1
شفاعت 1
شیعی 1
طلال 1
عجائبات 1
عزیر 1
عَلَى 1
فص@@ 1
فضلا 1
فوزیہ 1
فولاد 1
قرط@@ 1
كول 1
لامتناہی 1
لمحات 1
لوار 1
لہری 1
لینز 1
مارتے 1
مستثنیٰ 1
مسکرا@@ 1
مصر@@ 1
مورد 1
میکن@@ 1
ناظر 1
نوابوں 1
نگاہوں 1
وائيومنگ 1
وانہ 1
وقتا 1
ولینی 1
ومی@@ 1
وہابی 1
وۃ 1
ٽ@@ 1
پٹسبرگ 1
پیشوں 1
پینانگ 1
کرائ@@ 1
کروائیں 1
کریاں 1
کوکو 1
کوہلی 1
کپل 1
کھنڈ@@ 1
کھونے 1
گرائمر 1
گراد 1
گنبد@@ 1
ہست@@ 1
یاج@@ 1
یارڈ 1
یرے 1
یوز 1
ﯾﺎ 1
0.9 1
1873 0.207744059142145
319 1
331 1
337 1
355 1
5.5 0.9204626695135626
59.@@ 1
Ab 0.10232670702296176
Laurent 0.37904680911675287
chi 0.09710229048539037
th@@ 0.04200305543898037
yn@@ 0.22183104309586402
ère 0.10814344087491333
ؑ@@ 1
آرائیں 1
آگئیں 1
اتفاق@@ 1
اثباتی 1
ارتکاز 1
اسب 1
اسکری@@ 1
الیکٹرانکس 1
اگون 1
ایروکواے 1
بٹگرام 1
بھارتي 1
بھنڈ@@ 1
بیون 1
تفری@@ 1
تواضع 1
تھور@@ 1
جلالی 1
جود 1
جیمس 1
خانوادہ 1
دلدل 1
دواؤں 1
دوشی 1
دَور 1
رازم 1
راون 1
راک@@ 1
رجسٹ@@ 1
رفقا 1
زرتش@@ 1
زیرو 1
سرائی 1
سرگر@@ 1
سوئنگ 1
شاہنامہ 1
شبانہ 1
شعبی 1
شما 1
عتاب 1
عیادت 1
عید@@ 1
غدار 1
غير 0.4620421159153453
فارمیسی 1
فلو 1
فیڈری@@ 1
قافلوں 1
لالی@@ 1
لانس 1
لدار 1
لگادی 1
لیوری 1
لیکا 1
مآب 1
محمدﷺ 1
مرز 1
مقتل 1
موٹ@@ 1
موی@@ 1
ميٹروپوليٹن 1
مَّ@@ 1
مہربانی 1
میسی 1
ناصری 1
ندرا 1
نوٹ@@ 1
وحدیث 1
وسن 1
ولیت 1
٢٠@@ 1
پرعزم 1
پریزیڈنسی 1
پوتن 1
پوميرانيان 1
پٹھوں 1
پھیلتا 1
ڈرل 1
کندی 1
کوانٹم 1
کونسل@@ 1
کھاد 1
گرین@@ 1
یرموک 1
یوک 1
ਰ@@ 1
ﮐﻮ@@ 1
ﮫ 1
1300 0.6596789788895129
147@@ 1
3.3 1
364 1
530 1
Hajji 1
man@@ 0.07243954385279064
ni 0.05637039083631313
os 0.024655825670526384
آئینے 1
آرچ 1
آم@@ 1
ائری 1
ارمینی 1
اشتقاقیات 1
اعلام 1
الصلو@@ 1
امکانی 1
انمول 1
اوو 1
اکرمؐ 1
اگستیہ 1
اینگلز 1
ایکٹن 1
باآسانی 1
باربوڈا 1
بحیرۂ 1
بدایوں 1
بدلتی 1
براعظموں 1
بوتل 1
بھٹائی 1
تك@@ 1
تووہ 1
جبران 1
جینی 1
جینیفر 1
خرافات 1
دجال 1
دنے 1
رجز 1
رقوم 1
ريك@@ 1
زُ@@ 1
سرپسکا 1
سیاہی 1
شانی 1
شخ@@ 1
صدا@@ 1
صدق 1
ضر 1
طغرل 1
عملدرآمد 1
عیاش 1
غور@@ 1
فراست 1
فوق@@ 1
فیلی 1
قبہ 1
كت 1
لئے@@ 1
مانگ@@ 1
مراسم 1
مستقر 1
مصط@@ 1
معد@@ 1
معرض 1
ملازمتیں 1
ملبوس 1
ملفوظات 1
مناس@@ 1
ناانصافی 1
نابالغ 1
ناریل 1
ننگرہار 1
نہم 1
وزنی 1
وود@@ 1
وہم 1
پروپیگنڈے 1
پرہیز@@ 1
پنشن 1
چال@@ 1
چھتوں 1
ڈائر 1
ڈرافٹ 1
کاٹا 1
کٹری 1
کھود 1
کےلیے 1
گئ@@ 1
گاتی 1
گزرنا 1
گیانگ 1
ہیبسبرگ 1
یومِ 1
ﮐﮭ@@ 1
ﺁﭖ 1
ﺎﻡ 1
0.2 0.9904463738747178
1840ء 1
1849ء 1
1861 0.19185492674264337
1868ء 1
351 1
356 1
Qar@@ 1
Tar@@ 0.12851989380332146
Time 0.12799078567314665
Ur@@ 0.11673255920424985
w 0.09265807981575085
آمدی 1
ابراہيم 1
اسٹونین 1
اسٹوڈنٹس 1
الانوار 1
امامہ 1
انوی@@ 1
انٹو 1
اه 1
اوند 1
اکان@@ 1
ایورسٹ 1
بازنطینیوں 1
بالغوں 1
باڑ 1
براہوئی 1
بروں 1
بریٹن 1
بيل 1
تبی 1
تخریب 1
تعی@@ 1
تیلی 1
جھانسی 1
جینوا 1
حسنِ 1
خاران 1
خدوخال 1
درخوا@@ 1
دیپالپور 1
راہو@@ 1
رولز 1
ریستوراں 1
ریوی@@ 1
زمانوں 1
زمين 1
سدھن 1
سندی@@ 1
شگاف 1
صار@@ 1
ضرر 1
عذرا 1
غو@@ 1
فلیچر 1
فۂ 1
قرابت 1
قرامطہ 1
لہر@@ 1
مائیکرو@@ 1
مجھ@@ 1
مراجع 1
مسابقتی 1
مستشرق 1
ملک@@ 1
مناجات 1
منبہ 1
موئانگ 1
مولا@@ 1
مِنْ@@ 1
مچا 1
مہار 1
نالیوں 1
ننگے 1
واپڈا 1
وزہ 1
پھوڑ 1
چچان@@ 1
چیوں 1
ڈنڈی 1
ڈوز 1
ڈپو 1
ڈکشنری 1
ڈیولپمنٹ 1
کاایک 1
کارخانہ 1
کروسٹوفے 1
کلوں 1
کمپیوٹنگ 1
کہا@@ 1
کیز 1
کیمپ@@ 1
کیڈٹ 1
گرافٹن 1
گریناڈا 1
گفت@@ 1
گوجرہ 1
گورنرز 1
ہندسیات 1
یوجین 1
یوگوسلا@@ 1
یوگی@@ 1
ﭘﯿ@@ 1
ﺭﻭ@@ 1
-سر 1
13ھ 1
3.4 1
3.6 1
6.5 0.9686279342575925
640 1
del 0.00311931949579865
end 0.02078154553537937
ic@@ 0.056653297880142575
آمنے 1
آچکی 1
ازت 1
اسماعیلیوں 1
اقبالیات 1
امارکا 1
انوس 1
اولمپ@@ 1
اویر 1
ایات 1
ایمنسٹی 1
ایگری@@ 1
اۓ 1
بآسانی 1
بج 1
بحرالکاہل 1
براؤزر 1
بھاگتے 1
بہلول 1
بہو@@ 1
ترنم 1
تعزیہ 1
تےہیں 1
جڑانوالہ 1
جیرہ 1
حیض 1
خصائص 1
خصوص@@ 1
خیرباد 1
دادیں 1
داشتہ 1
دانشور@@ 1
درس@@ 1
دوئی 1
دورۂ 1
رسوا 1
رونالڈ 1
روپڑ 1
ریکھا 1
سڑ@@ 1
سیسی 1
سیمہ 1
شون@@ 1
صائمہ 1
صفاتی 1
عشاء 1
عطا@@ 1
عمار@@ 1
فرحان 1
فرنس 1
فرنی@@ 1
فرینکفرٹ 1
قات@@ 1
قن@@ 1
قیامِ 1
لیکسنگٹن 1
ماو 1
مدون 1
مران 1
مرج 1
مسیب 1
مشعل 1
مضحکہ 1
موروس 1
میلا@@ 1
نذر@@ 1
نصر@@ 1
نگر@@ 1
وسہ 1
ٹرائی 1
ٹھٹوی 1
پامیر 1
پاٹ@@ 1
پرائم 1
پروانس 1
پلاننگ 1
پیپل 1
چھوڑتے 1
چیر 1
ڈسٹ 1
ڈوئ@@ 1
کلاسک 1
کلن 1
کمال@@ 1
کنٹریکٹ 1
کھیر 1
گذرنے 1
گردی@@ 1
گڑھا 1
گیری@@ 1
ہنسی 1
ہیپی 1
یین 1
1875 0.20075286100819342
347 1
366 1
396 1
57.@@ 1
Bagh 1
Prefecture 0.5888916274568315
ch 0.05320507155660645
em@@ 0.04302675124526826
ity 0.05517305938042401
ּ@@ 1
آپنے 1
اجازہ 1
اداکار@@ 1
ازہر 1
اسدآباد 1
اشتر 1
اص 1
افغ@@ 1
الَّذِ@@ 1
الَّذِينَ 1
الہادی 1
انٹ 1
انڈ 1
انڈسٹریل 1
ایوانوں 1
براون 1
برگنڈی 1
بونڈ 1
بکھری 1
تانگ@@ 1
تصوراتی 1
تعلقی 1
تمثیل 1
تپ 1
جنا@@ 1
حفظ@@ 1
حکی@@ 1
حیدہ 1
خدی@@ 1
دریغ 1
راٹھور 1
رومانیت 1
روچیسٹر 1
زگرو@@ 1
سامری 1
ساکی 1
سلطنتِ 1
شاہدہ 1
شکستہ 1
شیٹی 1
صِ@@ 1
طعن 1
ظن 1
عظم 1
غال 1
غری 1
فیکٹریوں 1
قلع 1
كير@@ 1
لكھ@@ 1
لونی 1
ماقبل 1
محبوبہ 1
مرادآباد 1
مرجانی 1
مزاجی 1
مسابقت 1
موہنجو@@ 1
ناسخ 1
نانپاروی 1
نشوونما 1
نيواڈا 1
وانس@@ 1
وراثی 1
وزار@@ 1
ویٹی 1
ينو 1
يوں 1
ٹانگیں 1
ٹاورز 1
پروویڈنس 1
پنی@@ 1
پوٹھ@@ 1
پویلین 1
پہننا 1
چاہنے 1
چلیں 1
چھڑ 1
چہروں 1
ڈرسن 1
ڈوس 1
ڈینش 1
ڈینٹل 1
ڈینیل 1
کالم@@ 1
کانا 1
کتھا 1
کلیمنٹ 1
کوریو@@ 1
کوش 1
کولمبی@@ 1
کولو 1
گراونڈ 1
گوجران@@ 1
گیٹس 1
ہوئ@@ 1
ہیبس 1
ہیما 1
ہیوران 1
ینگجیہ 1
ﺷﺎ@@ 1
0.3 0.8946265531322576
1804 0.4449183809747575
490 1
Loire 0.26737544020334886
Shuaib 1
ang@@ 0.07562374775616612
jan 0.4520012932468752
lu@@ 0.12196945906933031
object 0.3123583552527377
ءِ 1
آغاز@@ 1
آمدید 1
آمرانہ 1
اربابِ 1
اربوں 1
استم@@ 1
اشتہاری 1
اصلیت 1
اناط@@ 1
انجلی 1
اونی@@ 1
اوپنر 1
اينڈ 1
اہِ 1
برہمو 1
بطریق 1
بلانے 1
بورین 1
بینکاک 1
ةٍ 1
تالپور 1
ترتی@@ 1
تْ 1
جای@@ 1
جعفر@@ 1
جیلوں 1
حلقۂ 1
خرو@@ 1
دعوتِ 1
دقت 1
دھڑ 1
رویا 1
زکوۃ 1
سادھو 1
سسی 1
صابن 1
صبغ@@ 1
طراز 1
طنجہ 1
ظت 1
عراقیوں 1
غدود 1
فانہ 1
فریزر 1
فسط@@ 1
فکر@@ 1
قتال 1
كات@@ 1
كراچي 1
لق 1
لمہ 1
محنتی 1
محکم 1
مستعار 1
مشینری 1
منے 1
مہند@@ 1
میان@@ 1
مینوفیکچرنگ 1
نارو 1
نقشبند 1
نورس 1
نکہ 1
نیش 1
والق@@ 1
وسو 1
ويو 1
پارٹنر 1
پرگنہ 1
چغ@@ 1
چندر@@ 1
چڑھایا 1
چیدہ 1
چیپ@@ 1
ڈپلوما 1
کائی@@ 1
کلمین 1
کویتی 1
کیئر 1
گارڈین 1
گولڑہ 1
گیشن 1
ہشت 1
ہوئ 1
ہوانگ 1
ہیت 1
یومیہ 1
ﯿﮧ 1
ﺅ@@ 1
127@@ 1
346 1
367 1
385 1
40ھ 1
48,@@ 1
639 1
Con@@ 0.04997203773569973
Mi@@ 0.14225952408459022
Shah 0.40469908530459
af@@ 0.06769459882525887
au 0.004660751946335364
ek 0.096634595380983
il 0.0056720747206837644
le@@ 0.04370627504768457
آجائیں 1
اؤٹ 1
ابرہ@@ 1
استی@@ 1
اسحٰق 1
اسور 1
اعت 1
الارض 1
البي@@ 1
انور@@ 1
اورنہ 1
ايسٹ 1
اں@@ 1
بارسلونا 1
باغی@@ 1
بتی 1
بحیرهٔ 1
بدھا 1
بصورت 1
بڑھاوا 1
بھلے 1
بھورے 1
بۃ 1
بیرو@@ 1
بیضوی 1
ةُ 1
ترو 1
تقاض@@ 1
تقریباََ 1
تقریریں 1
تلواریں 1
جاگ 1
جاگیر@@ 1
جاگیردارانہ 1
جیکٹ 1
جیے 1
حاش@@ 1
داشت 1
درانہ 1
دقیقہ 1
دھام 1
دھوکے 1
دیرپا 1
راشن 1
راقم 1
رسولؐ 1
رسولﷺ 1
ریس@@ 1
ریلیف 1
زرہ 1
سلک 1
سٹیڈیم 1
سہارن@@ 1
سیزر 1
صیہونی 1
عمرو@@ 1
عين 1
فتنے 1
فلاور 1
فہمی@@ 1
قزلباش 1
قصائد 1
قفق@@ 1
كوہ 1
لول@@ 1
لکا 1
لہب 1
لینگ 1
متعل@@ 1
مسودے 1
مقتدر 1
مقص@@ 1
ملیح 1
ملیریا 1
مونہ 1
نيٹ 1
نیابت 1
والس 1
ورزیوں 1
وسان 1
وسیا 1
وکٹوریا 1
ٹين@@ 1
ٹیمپ@@ 1
پارٹ 1
پراکرت 1
پولین 1
پہنتی 1
پیئر 1
پیز 1
چرل 1
چشت 1
ڈانسر 1
کارٹون@@ 1
کسٹن 1
کچا 1
کچے 1
کیلیڈونیا 1
کیٹی@@ 1
گفتار 1
گمراہی 1
گوت@@ 1
گولن 1
ہوئی@@ 1
یونیورسل 1
﻿ 1
1830ء 1
1864ء 1
3.1 1
342 1
343 1
7,0@@ 1
9,0@@ 1
Gar@@ 0.11564717070363631
Kand 1
Th@@ 0.060030757634939445
ie 0.03467784530608991
× 0.1335119922701394
آدی 1
آریا 1
آلا@@ 1
آچکے 1
ابراھیم 1
ابھر@@ 1
ادھم 1
اردوئے 1
ارِ@@ 1
اشرفی 1
الحرمین 1
العنان 1
الیکٹریکل 1
انتساب 1
اورال 1
اورکہا 1
ايف 1
اگاوا 1
اہا 1
ایوا 1
باسی@@ 1
بالاجی 1
بجار 1
بحيرهٔ 1
برحق 1
بروجردی 1
بعنوان 1
بونیر 1
بوٹیوں 1
بہا@@ 1
تمھ@@ 1
تُو 1
تکریم 1
ثین 1
جوڈی@@ 1
خلعت 1
خيل 1
دیسائی 1
ذہنیت 1
راجی@@ 1
روج 1
روحوں 1
روس@@ 1
زند 1
زين 1
ساق@@ 1
شتری 1
شش@@ 1
صدف 1
طرا@@ 1
طعام 1
فادر 1
فرانس@@ 1
فري 1
فز@@ 1
قلا@@ 1
لاش@@ 1
لما 1
لند@@ 1
مارس 0.756799171905778
مرثیے 1
مسیسیپی 1
ممتا 1
مٹی@@ 1
میے 1
نشیبی 1
نورا 1
نيشنل 1
نُ 1
نیشا 1
وحشیانہ 1
وزے 1
ٴ@@ 1
ٹیلہ 1
پرور 1
پوکیمون 1
پگڑی 1
پینسلوانیا 1
پینٹر 1
چلانا 1
چھترپتی 1
ڈریک 1
ڈینٹ 1
کانگریسی 1
کومب 1
کونسلر 1
گروندے 1
گوہاٹی 1
ہریش 1
ہنٹر 1
ہوبارٹ 1
ہیز 1
یشن 1
ینی@@ 1
8,0@@ 1
Hajj 1
av@@ 0.05751078507866955
آرہا 1
آلِ 1
آنگن 1
ئونگ 1
ائیر@@ 1
ابے 1
ارادوں 1
اروی 1
البغ@@ 1
الخوارزم 1
الطیف 1
ايو@@ 1
اپٹ@@ 1
بدی 1
برکی 1
بشرطیکہ 1
بقاء 1
بلخی 1
بلند@@ 1
بلیئر 1
بورصہ 1
بھیجیں 1
بھینس 1
بیروٹ 1
بیمار@@ 1
تلمی@@ 1
تمھارے 1
تمیمی 1
توف 1
جين@@ 1
جڑوں 1
حضر@@ 1
خلیق 1
خوروں 1
دازور 1
دقی@@ 1
دیث 1
رؓ 1
رتنا@@ 1
رودر 1
رچی 1
رگڑ 1
زلی@@ 1
سراسر 1
سطر 1
سنگر 1
سکند@@ 1
سہن 1
سیریلز 1
سیڈ 1
شنائی 1
عمرنے 1
قبا@@ 1
قدروں 1
قلی@@ 1
قمی@@ 1
كين 1
لچک 1
مجذوب 1
محک@@ 1
مداحوں 1
مرتکز 1
مستونگ 1
منوج 1
مڈلینڈ 1
میلفورڈ 1
میند@@ 1
میو@@ 1
نسل@@ 1
نمائے 1
نیوویل 1
ورزش 1
ورو@@ 1
ووکا 1
وں@@ 1
ویش 1
يہ@@ 1
پبلشنگ 1
پسند@@ 1
پنک@@ 1
پڑھانا 1
پھلی 1
پھٹنے 1
چتور 1
ڈکسن 1
ڈھل 1
ڑتی 1
کارنی@@ 1
کردینے 1
کھوئی 1
کہوٹہ 1
کیفی 1
کیپنگ 1
گدھا 1
گروزنی 1
گورڈو 1
گیلی 1
ہلمند 1
ہوشی@@ 1
ہیمپ@@ 1
ینگی 1
۱۴@@ 1
ﮐﯿﺎ 1
ﺨ@@ 1
1400 0.6739440028493408
1839 0.3063432485952249
1872 0.1962401792606591
349 1
Tal@@ 0.1654540125774328
ge@@ 0.04390794653993292
hi 0.1824116717886201
ئیوں 1
اؤن 1
ابیؓ 1
اسمعی@@ 1
اشاعتوں 1
اقوامِ 1
الاض@@ 1
الصَّ@@ 1
المش@@ 1
انسٹی@@ 1
انٹون@@ 1
اٹیک 1
اپنے@@ 1
اکیتا 1
اگنے 1
ایسپ@@ 1
باط 1
بدنامی 1
بصی@@ 1
بوستان 1
بير 1
بَعْ@@ 1
بڑھاپے 1
بینا 1
تاجپوشی 1
تانا 1
تماشا 1
تنازعے 1
تنصیب 1
ثمینہ 1
ثوں 1
جابجا 1
جسٹن 1
دراوڑ 1
درعیہ 1
دوآب 1
دیا@@ 1
دیجئے 1
ذرے 1
رة 1
رفاہی 1
روق 1
زکات 1
سائٹوں 1
سبزہ 1
سرن 1
سفا@@ 1
سكا 1
سمجھایا 1
سٹل 1
سینگ@@ 1
شرق 1
شنید 1
شکارپور 1
شگفتہ 1
ضابط@@ 1
ظرف 1
عبر@@ 1
عث@@ 1
عہد@@ 1
عیس@@ 1
فارمول@@ 1
فاش@@ 1
فلکس 1
فوربس 1
فوقتا 1
فیلڈز 1
لاما 1
لاہی@@ 1
مدان 1
مسوویاں 1
مسی 1
مشاعرے 1
معز 1
منقولہ 1
مونو 1
نیتا 1
وقتوں 1
ونِ 1
وولٹ 1
ویش@@ 1
يول@@ 1
ِّ 1
ّن 1
ٹائٹ@@ 1
ٹرجی 1
ٹرنٹن 1
ٹوئنٹی20 1
پانگ 1
پذیرائی 1
پوج@@ 1
پیغ@@ 1
چسپی 1
چوو 1
چھٹکارا 1
ڈچی 1
ڈھلوان 1
کرائم 1
کرگیا 1
کریمیائی 1
کلر@@ 1
کومتے 1
کوپ 1
کھلنا 1
کہوں 1
کیڑوں 1
گاروں 1
گوداوری 1
گولکنڈہ 1
گونج 1
ہاورڈ 1
ہمبولٹ 1
ہمدر@@ 1
یتی 1
یوگ@@ 1
یکشاری 1
ﺌﮯ 1
ﺣﻀ@@ 1
ﺮﻭ@@ 1
ﺲ 1
￼ 1
1600 0.4254048830015327
369 1
96.@@ 1
99.@@ 1
Lan@@ 0.2695963735790433
آسودہ 1
ئون 1
ائیس 1
ابومسلم 1
ارضیاتی 1
اسٹیبلشمنٹ 1
اقب@@ 1
اكا 1
البقیع 1
الحقی@@ 1
اننا 1
انوکی 1
اني@@ 1
ايلن 1
ایشیائے 1
ایور@@ 1
ایونیو 1
باتانگاس 1
بانڈ 1
بروکلین 1
بزدار 1
بسوں 1
بکریوں 1
بیم 1
تسری 1
تفقہ 1
تناس@@ 1
توسی@@ 1
تیراکی 1
حبی@@ 1
حسین@@ 1
حيدر 1
خانات 1
دہم 1
دہند@@ 1
راحمد 1
راض@@ 1
رضاعی 1
روبرو 1
روہی@@ 1
سالئین 1
ساک 1
ستائش 1
سمتوں 1
سنگت 1
سوتی 1
سوج@@ 1
سٹمپ 1
شرق@@ 1
شرمندہ 1
شینگ@@ 1
صول 1
عبار@@ 1
غض@@ 1
فائی@@ 1
فام@@ 1
فرانسی@@ 1
فطر@@ 1
قرآ@@ 1
قرات 1
قربانیاں 1
لمح@@ 1
لپور 1
لکہ 1
لیورپول 1
متلا@@ 1
مركزي 1
مسئ@@ 1
مشاغل 1
منافی 1
منذر 1
منسوخی 1
مپل 1
مکھ 1
نتھ@@ 1
نوافل 1
واسطوں 1
ومر 1
ٹرینٹ 1
ٹك 1
پدر 1
پروٹ@@ 1
پشتوں 1
پورس 1
پوسٹر 1
پوچھے 1
پیارا 1
چان 1
چھولس 1
ڈوبا 1
ڈیگو 1
کارن 1
کاریگروں 1
کاکا 1
کسار 1
کورٹس 1
کٹا 1
کیااور 1
گاہکوں 1
گردانہ 1
گلڈ 1
گنوں 1
گولی@@ 1
گھومتا 1
ہائیر 1
ہوٹلوں 1
یحی@@ 1
ینے 1
یوسفزئی 1
یکطرفہ 1
ﺿ@@ 1
ﻣﻮ@@ 1
1865 0.18043697775990386
353 1
359 1
368 1
42.@@ 1
44.@@ 1
9.7 1
Ham@@ 0.16657427393401988
It 0.005839323878299956
Per@@ 0.0526143889833352
Poland 0.12334292527448756
system 0.027573074871986233
آئتکن 1
آرکائیوز 1
آیتیں 1
ائیات 1
ابراہم 1
اختلاط 1
ارانہ 1
اسٹریلیا 1
افسردگی 1
الاد@@ 1
الاصل 1
الدنیا 1
الفت 1
المقد@@ 1
اماں 1
امتی 1
امراء 1
انجمنوں 1
اودے 1
اکٹن 1
اگوا@@ 1
ایبر@@ 1
ایج@@ 1
ایڈی 1
ایکو@@ 1
بحرینی 1
بلي 1
بيا 1
بیلج@@ 1
بینگ 1
بیکن 1
تدبی@@ 1
تذکروں 1
تکامل 1
تکلم 1
تھمے 1
ثاني 1
جرمانے 1
جوکہ 1
حاطب 1
حبيب 1
حسبِ 1
خدام 1
دیگر@@ 1
راتیں 1
روای@@ 1
رہٹ 1
سائبر 1
سانتی@@ 1
سدوزئ 1
سلواڈور 1
سمہ 1
سنبھالے 1
سنگلز 1
سولیوان 1
سومن@@ 1
شاہو 1
صحابیہ 1
صعوب@@ 1
طاق@@ 1
عقل@@ 1
غیبی 1
قبا 1
لدین 1
لَّا 1
لینکس 1
لیڈیا 1
لیکچرز 1
ماروی 1
ماون@@ 1
مطل@@ 1
مفروضے 1
مقبوضات 1
ملاکا 1
منوا 1
موور 1
مووی 1
نازیہ 1
نفا@@ 1
وام 1
وثوق 1
وسي@@ 1
ونیو 1
ویٹلینڈ 1
پریشن 1
پشاوری 1
پوزیشنوں 1
پھرا 1
پیٹریا@@ 1
پیٹنٹ 1
چانڈیو 1
چرا 1
چوہے 1
چیری@@ 1
ڈائریکٹ 1
ڈرائیو 1
کاروب@@ 1
کالون@@ 1
کامنز 1
کنوں 1
کنٹرو@@ 1
کوب 1
کُمْ 1
کچھ@@ 1
گنر 1
ہاجرہ 1
ہارپر 1
ہٹنا 1
یئے 1
یسار 1
یمین 1
یورپیوں 1
ݨ 1
ਾ@@ 1
་ 1
ﺗﮭ@@ 1
ﻏ@@ 1
ﻱ 1
1839ء 1
1866ء 1
378 1
5.2 1
Ber@@ 0.06456775217110346
Russia 0.09961628465449163
Sub@@ 0.13412050249166735
ac@@ 0.045107707759872405
آسمانِ 1
آفی@@ 1
آمین 1
ؤنگ 1
ائین 1
اثاثے 1
اختیار@@ 1
ادا@@ 1
ادویہ 1
الای@@ 1
الیگزینڈ@@ 1
امتیازات 1
انجمن@@ 1
اوزاروں 1
اکث@@ 1
باشندہ 1
بالاکوٹ 1
بشانہ 1
بلائے 1
بنای@@ 1
بوبی 1
بوشہر 1
بچھا 1
بھتی@@ 1
بہانی 1
تبا@@ 1
جزئیات 1
جولو 1
حال@@ 1
حجازی 1
خامیوں 1
خطر 1
خند@@ 1
خوشن@@ 1
درخواستوں 1
دلاتا 1
دنيا 1
دورانیے 1
راماین 1
رباعیات 1
رمیز 1
رنا 1
ریش@@ 1
رینو 1
ریگستان 1
زبور 1
زنگ@@ 1
زوو 1
ساء 1
سائیٹ 1
ساتھ@@ 1
سرائی@@ 1
سمپسن 1
سومرسیٹ 1
سوچتے 1
سيا 1
سٹیڈ 1
سیمنٹ 1
شانتی 1
شیرمین 1
ظل@@ 1
عملاً 1
فاہ 1
فیو 1
قار 1
لاسیل 1
لدھا 1
لرستان 1
لسی 1
لگری 1
مانگتا 1
مسر@@ 1
مصرع 1
معیت 1
ملاقاتوں 1
ملبورن 1
ممالیہ 1
ميڈيسن 1
مکات@@ 1
میٹری 1
ناظرہ 1
نجکاری 1
واصف 1
وبے 1
ورنگ 1
وص 1
ومي 1
ویاس 1
يام@@ 1
ٹارزن 1
ٹیرین 1
پٹرولیم 1
پیئرس 1
پیتل 1
چين@@ 1
ڈونی@@ 1
ڈچوں 1
ڈینیوب 1
کرونا 1
کلانگ 1
کلون 1
کوئس 1
کوے 1
کٹے 1
کھیلیں 1
کیٹی 1
گوڈ@@ 1
گھبرا 1
ہمام 1
ہیئ@@ 1
ہینڈ@@ 1
یاء 1
یق 1
یول 1
ﺅ 1
ﺗﻮ 1
1.0 0.7405474789630203
107@@ 1
123@@ 1
386 1
Shahrak 1
آئبیریا 1
آئیے 1
آرم 1
آزر 1
آمدن 1
آوی@@ 1
ادین 1
ارمان 1
اسپتالوں 1
انحطاط 1
اوٹاگو 1
اٰ@@ 1
اکتفا 1
اینڈروئیڈ 1
ایڈمنسٹریٹر 1
ایڈنبرا 1
بالم@@ 1
باہ@@ 1
بدتر 1
بسی@@ 1
بم@@ 1
بنگش 1
بھجوا 1
توحی@@ 1
توریت 1
جادوگر 1
جنات 1
جھگڑوں 1
جینے 1
حیدرآبادی 1
خانگی 1
دبیر 1
دلیری 1
دنیوی 1
دھند@@ 1
روشے 1
روپئے 1
روہیلہ 1
رياست@@ 1
ریلو@@ 1
رینجرز 1
زائل 1
ستار@@ 1
ستارا 1
سدر@@ 1
سرکردگی 1
سوان 1
شش 1
شیو@@ 1
صوفیوں 1
طان@@ 1
ظریف 1
عز 1
عہ@@ 1
فائيٹ 1
فارمز 1
فرصت 1
فریدہ 1
فسانہ 1
فقراء 1
قتل@@ 1
قصیدے 1
لاف 1
لاق 1
لڑکپن 1
ماز@@ 1
مدعا 1
مدعی 1
مدلل 1
مزار@@ 1
مسعود@@ 1
معدنی 1
معمور 1
منصورہ 1
منقبت 1
میتھین 1
میپل 1
نابود 1
نخلستان 1
نشیب 1
وبار 1
ویرو 1
ٸے 1
ٹائر 1
ٹینٹ 1
ٹیوشن 1
پراسیکی@@ 1
پربت 1
پروگرامز 1
پير@@ 1
پیاری 1
پید@@ 1
چناں 1
ڈالٹن 1
ڈومینیکا 1
ڈپارٹمنٹ 1
کالو@@ 1
کمبوہ 1
کمسن 1
کنسل@@ 1
کوآرڈینی@@ 1
کورنگی 1
کووی@@ 1
کھلونا 1
کیات 1
ھر@@ 1
ہوسکیں 1
ہیمبرگ 1
۱۶@@ 1
্ 1
0.1 0.7572119718899107
106@@ 1
3,000 0.46449526332635993
379 1
403 1
470 1
630 1
999 1
Lab@@ 0.3017072453280309
department 0.1227253397788352
ri@@ 0.06270843172568252
آرو@@ 1
آنگ 1
اتن 1
ارتق@@ 1
ازار 1
السع@@ 1
العظیم 1
القیوم 1
المنان 1
امب 1
امرناتھ 1
امس 1
انجنی@@ 1
انهٔ 1
انڈسٹریز 1
اُستاد 1
اپر@@ 1
باسیوں 1
باو@@ 1
بھاٹ@@ 1
بھو 1
بھوسلے 1
بیڈمنٹن 1
تدبر 1
تعالى 1
تعم@@ 1
تفسی@@ 1
تونگ 1
ثے 1
جاسم 1
جسپر 1
جنڈ 1
جوس@@ 1
جوگی 1
جھرمٹ 1
حو 1
دائرة 1
دولہا 1
رئیل 1
رافت 1
ریگن 1
ساف@@ 1
سجا 1
سریندر 1
سنتوں 1
سوسن 1
سولی@@ 1
سپور 1
شعراء@@ 1
شفا@@ 1
طس 1
ظلہ 1
عقاب 1
عمیق 1
فائی 1
فرا 1
فين@@ 1
فہؒ 1
قصص 1
قطیف 1
كيلي 1
كہ@@ 1
لائبریریوں 1
لارناکا 1
لاہور@@ 1
لسان 1
لڑتا 1
لیسی@@ 1
ماتحتی 1
متو@@ 1
متوں 1
مدا@@ 1
مدارج 1
مذا@@ 1
مستشرقین 1
معائ@@ 1
معلق 1
نسیا 1
نفسی 1
نك@@ 1
نواس 1
وتی@@ 1
ورین 1
وینڈ@@ 1
ينس 1
ٹولی 1
پتلا 1
پوشاک 1
چاغ@@ 1
چندا 1
چود@@ 1
چوکوں 1
چڑھاؤ 1
کالو 1
کشتہ 1
کلائی 1
کوپن 1
کھا@@ 1
کہلائی 1
گاہ@@ 1
گرف@@ 1
گواہوں 1
ھڑ 1
ہاف 1
ہرمن 1
ہمشیرہ 1
ہیتھ 1
یئن 1
یزدانی 1
یونٹس 1
− 0.13607685160054578
ﺍٓ@@ 1
15ھ 1
1828 0.33073536681881766
1845ء 1
1848ء 1
1859 0.2037036871820543
1862 0.17661760272046353
1883 0.17923716301970025
341 1
393 1
5.4 1
6,000 0.7187498233242429
Hasan 0.8538278937627803
Mir@@ 0.1778186953779479
Un@@ 0.05813262484347299
ara 0.05639526848632393
ian 0.11372143434179499
it@@ 0.041889137729407756
its 0.005858969303176558
ti@@ 0.04092408006732798
ə@@ 0.7150928078397397
ءت 1
آبدو@@ 1
آرمینیوں 1
اتالیق 1
ادِ 1
الاعظم 1
التمش 1
امروہی 1
انبالہ 1
انتظامي 1
انسی 1
انڈوں 1
اکتوبر@@ 1
بادام 1
بارنیٹ 1
بجنور 1
برقناطیسی 1
بلي@@ 1
بیمہ 1
بینکر 1
تاوی 1
جٹ@@ 1
حاضرہ 1
حیوان 1
دستک 1
رستہ 1
ریختہ 1
زیز 1
سبط 1
سلوواک 1
سولی 1
سٹي@@ 1
سکوشیا 1
شاہي 1
شاہِ 1
شفٹ 1
صدرالدین 1
عروض 1
فرید@@ 1
فیلو@@ 1
قابیل 1
قبائلیوں 1
قرن 1
قصوں 1
كت@@ 1
ماؤس 1
مارٹر 1
مباحثوں 1
مزبرگ 1
مستحب 1
مطابق@@ 1
مناصب 1
مونس 1
موڈ 1
مگدھ 1
میاو 1
میرو@@ 1
نبھا 1
نخعی 1
نقط@@ 1
نگس 1
نگہ@@ 1
هِ@@ 1
ورع 1
وناتھ 1
وير 1
وٹی 1
وکر@@ 1
ویت@@ 1
يرے 1
يف@@ 1
ُوا 1
٩@@ 1
ٹرائی@@ 1
ٹرانسکاکی@@ 1
ٹوف 1
ٹونک 1
پامال 1
پروسیسنگ 1
پروٹی@@ 1
چاہئیں 1
ڈروم 1
ڈوبنے 1
ڈومینی@@ 1
ڈيو@@ 1
ڈیسک 1
ڈیٹ@@ 1
کلاسوں 1
گرانڈے 1
ہاس@@ 1
ہیوگو 1
ہیوی 1
ہیڈن 1
یافتگان 1
یزی 1
یعقوبی 1
یونین@@ 1
ﮨﻮﺋ@@ 1
ﺎﺭ 1
ﻓﺮ@@ 1
ﻨﺪ@@ 1
1838 0.2843830894102163
371 1
376 1
391 1
4- 1
4.0 1
46,@@ 1
88.@@ 1
Far@@ 0.13761052199827484
J 0.10823890120974
Lake 0.0612061619123589
Peru 0.3119633184680885
ant 0.022751771465671655
di@@ 0.03716032116297863
do 0.022645906684096762
ina 0.03861117985819514
people 0.01773195229058894
ton 0.04158504868094097
آرکائیو 1
آشو@@ 1
ئروں 1
ابرا@@ 1
اثیر 1
اجمیری 1
ادارتی 1
ازالہ 1
استعماری 1
اسٹي@@ 1
اسٹیون 1
اقبال@@ 1
الرؤف 1
اللو 1
المهدي 1
الکندی 1
انز@@ 1
انٹارکٹیکا 1
انگلیاں 1
اوساکا 1
ايريزونا 1
اپارٹمنٹ 1
اڑھائی 1
اکشے 1
اینٹیگوا 1
بالمقابل 1
بدعات 1
برض@@ 1
بلوغ 1
بنار@@ 1
بوئی 1
بچانا 1
بچنا 1
تاما 1
تجہیز 1
ترکیبی 1
تلخیص 1
توران 1
جارہے 1
جاٹوں 1
جاہل 1
جمان 1
جمست@@ 1
جیات 1
حبیبہ 1
خمس@@ 1
خوارزمی 1
دایاں 1
درم 1
دروی@@ 1
دسمبر@@ 1
دیباچہ 1
رات@@ 1
رفسن@@ 1
رنزوں 1
رہواں 1
ریحانہ 1
ریسلنگ 1
زمینداری 1
زکی 1
زہریلے 1
سرمائے 1
سفرنامے 1
سلاد 1
سلیکشن 1
سودا@@ 1
سيان 1
سیکرٹ 1
شبیہہ 1
شرز 1
صوت 1
ضین 1
عاجزی 1
فاق 1
فاونڈیشن 1
فلسفی@@ 1
قت@@ 1
كاس 1
كريم 1
لمے 1
لنڈن 1
لچکدار 1
لیبار@@ 1
مائنر 1
مدا 1
مدیحہ 1
مسعودؓ 1
معتزلہ 1
معززین 1
ملائ@@ 1
ممد@@ 1
مندرجات 1
مندوب 1
موجی 1
ميڈيسون 1
مہندر 1
ناحیہ 1
نامناسب 1
نورالدین 1
نیزے 1
واری@@ 1
واسطی 1
وفاقي 1
ولیس 1
ويٹ@@ 1
وڈیو 1
وکو 1
ویکیمیڈیا 1
ٹراٹسکی 1
ٹرینیں 1
ٹھکرا 1
پیتا 1
پیتھی 1
پینگ 1
پیڈرو 1
پیڈی@@ 1
چوڑیاں 1
چوکیوں 1
چھن 1
ڈاؤ 1
ڈینی 1
کنت 1
کنزرویٹو 1
گاں 1
گرفتار@@ 1
ہڈ 1
یادداشتوں 1
یرغ@@ 1
یلی@@ 1
ﯿﺎ 1
136@@ 1
1872ء 1
384 1
Nord 0.07923775739724867
UTC 0.435832692613075
آویزاں 1
اده 1
ارام 1
اشرا@@ 1
الآ@@ 1
الثاني 0.9208474394943322
الفی@@ 1
المسیح 1
المصنفین 1
الْمَ@@ 1
الکتاب 1
الیکٹ@@ 1
انان 1
انٹرنيشنل 1
ایلومینی@@ 1
بانا 1
بانس@@ 1
بلچ 1
بورڈنگ 1
بھاگے 1
تجزیاتی 1
تحفۃ 1
ترس 1
تزک 1
توجیہ 1
جاد@@ 1
جدی 1
جنکی 1
جيفرسن 1
حیلہ 1
خاور 1
دتا 1
دربھنگ@@ 1
رابرٹس 1
رفاعہ 1
رك 1
روڑ 1
ریشہ 1
زنجبار 1
زیا 1
سرشپ 1
سلنڈر 1
سمرق@@ 1
سونامی 1
سپورٹس 1
سینٹی@@ 1
شاری 1
صندوق 1
طری@@ 1
عرفہ 1
عقب@@ 1
عَلَيْ@@ 1
فضول 1
فکس@@ 1
قيس 1
قیت 1
لتھو@@ 1
لفٹ 1
لنڈسے 1
لینگویج 1
مارہروی 1
مانڈ 1
مدثر 1
مراد@@ 1
مرسل 1
مصداق 1
ملبے 1
ممب@@ 1
منس 1
مِّ@@ 1
میکوپن 1
نادرہ 1
ناقابلِ 1
نباتیات 1
نونگ 1
نکلنا 1
وائرل 1
والسلام 1
وكي 1
ویگو 1
َّا 1
ٹرس 1
ٹریز 1
پادشاہ 1
پانوس 1
پریوں 1
پنک 1
چنوں 1
چوڑ 1
چوکور 1
چڑھے 1
ڈیکسٹر 1
کاؤنٹر 1
کامبریا 1
کاوا@@ 1
کاوشیں 1
کرلو 1
کسوٹی 1
کنش@@ 1
کوہِ 1
کڑھائی 1
گذری 1
گرچہ 1
ہران 1
ہندستان 1
ہولمز 1
ہونگ 1
یمہ 1
یوا@@ 1
یڈ 1
ﺍﻭ@@ 1
ﺘﮯ 1
1832 0.2863573892440064
1853 0.24449627202819843
50,@@ 1
79.@@ 1
Gen@@ 0.15425992167576197
Georges 0.18305178850488024
languages 0.1491642940769407
their 0.005646029170495859
ya 0.017282750977169227
ˈ@@ 1
ַ@@ 1
آرائشی 1
احنف 1
اسکر@@ 1
اشتغ@@ 1
اعتمادی 1
المثل 1
الٹر 1
انتون 1
انتھک 1
باشعور 1
بانے 1
بخارسٹ 1
براہمن 1
بردہ 1
بندوقیں 1
بھرو@@ 1
بھول@@ 1
بیبرس 1
تات 1
تري@@ 1
تشبی@@ 1
توش 1
تیار@@ 1
جائی 1
جروں 1
جولا@@ 1
حانہ 1
ذخی@@ 1
رسید 1
رنر 1
ریکن 1
زاک@@ 1
ساسک@@ 1
سسرال 1
سٹرلنگ 1
سہیلی 1
سیّ@@ 1
شجر 1
شعاعوں 1
صحيح 1
صْ@@ 1
عمامہ 1
فرانک 1
فراوانی 1
قدسی 1
قرۃ 1
قناعت 1
قوال 1
لانڈی@@ 1
لاگرتھم 1
لد@@ 1
مائن 1
مانوس 1
متوکل 1
محاورہ 1
مرکزہ 1
مستوی 1
مسخ 1
معدے 1
مغازی 1
منہاس 1
مگین 1
میثاق 1
میرٹھی 1
نعتیں 1
نویوں 1
نکلسن 1
نیال 1
ورچوئل 1
يرہ 1
ٹاڈ 1
ٹوڈے 1
پردادا 1
پروگری@@ 1
پوز@@ 1
چٹنی 1
چھاتی 1
چیرمین 1
ڈسٹ@@ 1
ڈوي@@ 1
کالاش 1
کانیں 1
کاون@@ 1
کرنسیوں 1
کیجیے 1
کینن 1
کیونکر 1
گاڈ 1
گونگ 1
گوکہ 1
ھائی 1
ہارن 1
یٰ@@ 1
ﻒ 1
000@@ 0.7664825669296184
143@@ 1
1863 0.17140026977274084
1871ء 1
23ھ 1
404 1
5.6 1
54,@@ 1
660 1
960 1
IV 0.07283042478180708
geographical 0.7888036178317883
have 0.006721344032386892
ly 0.03853096282532765
lès 0.7375555461599941
noinclude 1
ow@@ 0.12304039352574796
ב@@ 1
آئر@@ 1
آسٹريليا 1
آسٹری@@ 1
ئير 1
ئینز 1
اجی@@ 1
اختلافی 1
ادھی@@ 1
ادھیائے 1
استعارہ 1
استف@@ 1
افتاء 1
الحاد 1
انتھ@@ 1
انٹرپرائز 1
اوغ@@ 1
اگرام 1
اگی 1
ایثار 1
ایسٹر 1
ایمانی 1
بارہا 1
بخشش 1
برنار@@ 1
بریسٹ 1
بشری 1
بلتی 1
بلوغت 1
بنکی 1
بھانجی 1
تحف@@ 1
تڑپ 1
تھوک 1
جاتیہ 1
جلالت 1
جهٔ 1
جوآن 1
جوتوں 1
حاص@@ 1
حصولِ 1
حلی 1
خوج@@ 1
داہر 1
درباریوں 1
دعووں 1
دِن 1
رامپ@@ 1
زوما 1
ساکا 1
ستمبر@@ 1
ستھ 1
سدوزئی 1
سق@@ 1
سنسد 1
سٹور@@ 1
شیرا@@ 1
صورتِ 1
ضرورتوں 1
عالیشان 1
غذ@@ 1
غنہ 1
فرینک@@ 1
فلوری@@ 1
قاض@@ 1
قديم 1
قوی@@ 1
لابو@@ 1
لاگرینج 1
لبرگ 1
لتوں 1
لوئی@@ 1
لگا@@ 1
مخلص@@ 1
مخیر 1
معصومین 1
مقب@@ 1
مقدونیائی 1
منصفین 1
منط@@ 1
منٹوں 1
مولود 1
مٹر 1
مہتاب 1
مہروں 1
میکڈونلڈ 1
نارڈ 1
ناہ 1
نحوی 1
ندل 1
نوبیل 1
نوروز 1
نویہ 1
والش 1
وتے 1
ورنا 1
وندی 1
وير@@ 1
وَلَا 1
وٹر 1
ویات 1
ویٹر@@ 1
ٹورنام@@ 1
پانگ@@ 1
پرمشتمل 1
پریاگ 1
پوسٹل 1
پيراڈائز 1
پیکج 1
چیرا 1
چیلنجوں 1
چیٹ 1
ڈاكٹر 1
ڈای@@ 1
ڈنکن 1
ڈھون@@ 1
کاشان 1
کاکڑ 1
کذاب 1
کشمی@@ 1
کوٹری 1
کوڈی@@ 1
کویہ 1
کیڈ 1
گت 1
گرینووڈ 1
ہجے 1
ہلزڈیل 1
ہندسی 1
ہوسٹنگ 1
ہیسٹنگز 1
یورینیم 1
یونیورسٹیاں 1
یوکوہاما 1
یکہ 1
-دو 1
1837ء 1
1866 0.1461584971252566
398 1
405 1
412 1
5.8 1
610 1
720 1
Har@@ 0.062269961284950985
Kor@@ 0.10223353883888782
et@@ 0.03677339422433392
he 0.0028409817891170462
آرٹ@@ 1
آنچ 1
ابرا 1
اتسو 1
اتلان@@ 1
اردنی 1
اسٹريليا 1
اشبیلیہ 1
اشچی@@ 1
التفسیر 1
العالمین 1
المتوکل 1
النہرین 1
الیت 1
اورن 1
اپنائی 1
ایغور 1
باربر 1
بعث 1
بليك 1
بولنا 1
بونا 1
بیرسٹر 1
بیلف@@ 1
بیو 1
تاراج 1
تام 1
تاوی@@ 1
تروی@@ 1
تکلی@@ 1
تھیوڈور 1
جامد 1
جہانگیری 1
جیوری 1
حيدر@@ 1
خانهٔ 1
خوا 1
خہ 1
دح@@ 1
دوآب@@ 1
دھے 1
ذہنوں 1
رندھ@@ 1
سرسوں 1
سمتھفیلڈ 1
سندر 1
سیلف 1
شرقیہ 1
صہ@@ 1
عتیں 1
علاق@@ 1
غن@@ 1
فرمائیے 1
فلسف@@ 1
فیکٹ@@ 1
قند 1
قون@@ 1
قيہ 1
لاپورٹ 1
لورا 1
لچ@@ 1
لکھن@@ 1
مئے 1
ماتی 1
متزلزل 1
مدرسۃ 1
مرگیا 1
مصنع 1
مطہرات 1
مفرد 1
مندرج 1
منطق@@ 1
منوایا 1
منڈا 1
مکرم 1
مینس 1
ناؤ@@ 1
ناصرالدین 1
نساء 1
نقشوں 1
هِمْ 1
واز@@ 1
والع@@ 1
ورکش@@ 1
وریاس 1
وصی@@ 1
ووٹر 1
١٣@@ 1
ٰن 1
ٹنل 1
ٹیکسٹ 1
پاؤلو 1
پاونڈ 1
پد 1
پرم 1
پٹسٹ 1
پھٹا 1
پینگوئن 1
پیوریا 1
پیٹی 1
چھاونی 1
چیاں 1
ڈويژن 1
ڈیرے 1
کارلوس 1
کاریگر 1
کاشتکار 1
کرزیسکئی 1
کرلیے 1
کلاسی@@ 1
کٹیو 1
کیسی@@ 1
کیچڑ 1
گنت 1
گنوا 1
گومل 1
گچھ 1
ہوشنگ 1
ہيملٹن 1
ہیروز 1
ﺗﮭﺎ 1
05@@ 1
1,200 1
14ھ 1
1806 0.29702100167430123
373 1
399 1
435 1
481 1
49,@@ 1
510 1
58,@@ 1
60,@@ 1
Empire 0.06994293404026304
Maryland 0.16981250545563215
Paul 0.031040163873770895
aw@@ 0.08198542378029507
qi 0.8679182594319539
آذ@@ 1
آروہی 1
آچے 1
إِنَّ@@ 1
ائِ@@ 1
ابودر@@ 1
ابون@@ 1
ابیح 1
اجرام 1
احص@@ 1
اخلا@@ 1
استرا@@ 1
افشار 1
الاخبار 1
العزيز 1
المظفر 1
الیگزنڈر 1
امريكہ 1
امواج 1
انٹرویوز 1
انڈورا 1
اہرام 1
اینیمیٹڈ 1
ایوب@@ 1
ایڈا 1
ایڈوائ@@ 1
باسکی 1
بانن 1
باکمال 1
بذ@@ 1
بغض 1
بلقیس 1
بنف@@ 1
بنوا@@ 1
بوي@@ 1
بيل@@ 1
بيور 1
بھروسہ 1
تاجدار 1
تجریدی 1
تعیین 1
تنصیبات 1
تھی- 1
ثلث 1
جورڈن 1
جھی 1
حزم 1
خارجیوں 1
داتو 1
درسِ 1
دشوار@@ 1
دوام 1
دوست@@ 1
دھاند@@ 1
دیہاتیوں 1
رخص@@ 1
رخی 1
رومین 1
روہڑی 1
رگوں 1
ریاض@@ 1
ریش 1
ریوڑ 1
ریکی 1
سازشی 1
ساون 1
سبھ@@ 1
سرگ@@ 1
سوداگر 1
سوہنی 1
سُن 1
سپیکر 1
سیفیہ 1
سینچری 1
شینگ 1
صع@@ 1
طانی 1
طلحہؓ 1
ظالم@@ 1
علیه 1
فلز 1
فنگ 1
قہ@@ 1
كز@@ 1
لئی 1
لاناو 1
لسبیلہ 1
لفظ@@ 1
لنڈ 1
لیشن 1
ماب 1
مارلبورو 1
مارول 1
مالڈو@@ 1
ماکون 1
مبرا 1
محاسن 1
مرت@@ 1
مصرعے 1
مظفرآباد 1
مفاہیم 1
مٹانے 1
میموری 1
مینا@@ 1
نائف 1
ناگاساکی 1
نسلو 1
وارنٹ 1
وروی 1
وشا@@ 1
ویان 1
پاز@@ 1
پاشی 1
پتنگ 1
پرستانہ 1
پسماندگان 1
پناہی 1
پیوا 1
پیوند 1
چاو 1
چوڑے 1
ڈیوائس 1
ژن 1
کابلی 1
کنڈی@@ 1
کھلنے 1
کہلا 1
کیوجہ 1
گجرا@@ 1
گد@@ 1
گلوب 1
گوندل 1
گھل 1
گیاتھا 1
ہارڈن 1
ہرم 1
ہمعصر 1
ےگا 1
ﺴﺘ@@ 1
100,000 0.3958329739874385
13ویں 1
1826 0.32563929848497697
1846 0.2445539785305157
1851 0.2280397676235867
1865ء 1
1869 0.18302138210645194
3.2 1
361 1
401 1
408 1
55,@@ 1
760 1
91.@@ 1
Julien 0.558884824804577
Ma@@ 0.06956645902376601
St. 0.030532686109138476
Tr@@ 0.04197927193629571
dan 0.11057945525311634
ul 0.14881559808297193
آرتی 1
ئرڈ 1
ائیڈر 1
ارك 1
اسٹیو 1
اسکند@@ 1
اشارات 1
اعصابی 1
الحلیم 1
الرضا 1
اللحم 1
انساني 1
انکشافات 1
انگوشی@@ 1
اوڈ@@ 1
اپو 1
اڑے 1
ایبل 1
ایوں 1
ایڈوانس 1
باجگ@@ 1
بارنس 1
بارگاہِ 1
بدلتا 1
بنیامین 1
بیٹھتا 1
تبھی 1
تکنی@@ 1
تھرڈ 1
تھیم 1
تہمت 1
جالب 1
جحش 1
جزا 1
جليں 1
جھٹکے 1
حکایت 1
دُعا 1
دیش@@ 1
رگھون@@ 1
زانوئے 1
ستاں 1
سجاد@@ 1
سریش 1
سنس 1
سکتیں 1
سیکسن 1
سیہون 1
شیطان@@ 1
ضِ 1
غضنفر 1
فوسٹر 1
كلے 1
كون 1
كھلاڑي 1
لومڑی 1
لگان 1
متش@@ 1
متعصب 1
متیں 1
مسکی@@ 1
مشاع@@ 1
موتیوں 1
موخر 1
مونت@@ 1
موٹا 1
میگن@@ 1
ناراض@@ 1
نامزد@@ 1
نجا 1
نزاکت 1
نظرثانی 1
نگلے 1
نگہبان 1
نہال 1
واقعتا 1
وضاح@@ 1
وغی@@ 1
ولادی@@ 1
ومو@@ 1
ووڈی 1
وپ 1
يمن 1
ٹرام 1
پارکس 1
پرواہ 1
پروپیگ@@ 1
پمپ 1
پھینکے 1
چئیرمین 1
ڈاکوؤں 1
ڈرتا 1
ڈلے 1
کارڈ@@ 1
کریسنٹ 1
کلرکہار 1
کونی@@ 1
کوٹے 1
کھلتا 1
گئى 1
گندھک 1
گوتھک 1
گوروں 1
گوشوں 1
گڑیا 1
گہرائیوں 1
ھان 1
ہجوں 1
ہوری 1
.pk 1
12ویں 1
425 1
78.@@ 1
Mas@@ 0.08668114459797162
all 0.008985703240209107
land 0.023327835139792086
si 0.03501789114776545
te 0.017923339821243105
ès 0.15993782038625656
آئمہ 1
آرکیڈیا 1
آشکار 1
آنتوں 1
ؤٹ 1
ائير@@ 1
ابخ@@ 1
ابین 1
ادری 1
ازل 1
اسٹرا@@ 1
التح@@ 1
الخلیل 1
المدینہ 1
المنذر 1
اناو 1
اندازِ 1
انيا 1
اوج 1
اوراسی 1
اولیور 1
اڑہ 1
اکھاڑ 1
ایجنڈے 1
ایشور 1
ایچیسن 1
بائیو@@ 1
بدہ 1
براء 1
بیاء 1
بیشک 1
تقیہ 1
تلواروں 1
توما 1
تھرا@@ 1
تےتھے 1
جگ 1
حاج 1
حاکمیت 1
حکایات 1
خات@@ 1
خمس 1
خولہ 1
خویلد 1
دارلحکومت 1
رانوں 1
رضامند 1
ریوس 1
ریٹنگ 1
زرنے 1
سبک@@ 1
سرکلر 1
سنڈے 1
سوف 1
سکتاہے 1
سیڑھیوں 1
شربت 1
شہيد 1
شیعیان 1
شیٹ 1
صوم@@ 1
ضلعے 1
طوس 1
عبدالقیوم 1
عنی 1
غلطی@@ 1
فرانش 1
قرآنِ 1
قش@@ 1
كونكور@@ 1
لوم@@ 1
لکیر@@ 1
لیسلی 1
مانتی 1
مانگتے 1
مجلسوں 1
مرسین 1
مروں 1
مزے 1
معتقدین 1
معرکوں 1
ملحد 1
منگلا 1
میکانیات 1
نزدیکی 1
نسوان@@ 1
نفاست 1
ننھے 1
نگي 1
نیوٹرینو 1
وائٹسائڈ 1
وادب 1
وتہ 1
وریاضت 1
وسي 1
وشوں 1
وطی 1
وقعت 1
ومت 1
ومع@@ 1
وۡ@@ 1
ٌ@@ 1
ٹائلر 1
ٹال@@ 1
ٹریکٹر 1
پردا@@ 1
پيرس 1
پھرا@@ 1
چاول@@ 1
چٹانیں 1
ڈالتی 1
ڈينس 1
ڈھانپ 1
ڈھی@@ 1
ڈینو 1
کاظ@@ 1
کمپوزر 1
کڑپہ 1
کھاتی 1
گاہے 1
گوجری 1
گکھڑ 1
ہائي 1
ہنٹن 1
یکس@@ 1
ﭨ@@ 1
ﺮﺕ 1
108@@ 1
1854ء 1
358 1
387 1
394 1
406 1
47,@@ 1
Sol@@ 0.0964312462559217
ane 0.06994285020251216
aux 0.01127036758662362
ey@@ 0.1667790087911302
pur 0.21657884825855644
re 0.03167516557408579
se 0.0023436906238693636
ה@@ 1
آچاریہ 1
ابوذر 1
ابوہری@@ 1
استثنا 1
اشعاع 1
اشم 1
اعلم 1
افر 1
اقوامی 1
الشری@@ 1
المذاہب 1
النور 1
امان@@ 1
اندھے 1
انم 1
انگل@@ 1
انیو 1
اوڈر 1
اپورم 1
اپوری 1
اکلوتے 1
اگوستا 1
باوا 1
برنولی 1
بستے 1
بعل@@ 1
بندو 1
بوط 1
بیسار@@ 1
بیلمونٹ 1
بینسن 1
بیٹھنا 1
جارج@@ 1
جت 1
جوت@@ 1
جوناتھن 1
حرمتی 1
خالدہ 1
خانزادہ 1
خن@@ 1
خونریز 1
داؤدی 1
درستگی 1
دگنا 1
دینِ 1
ذائ@@ 1
ذہب 1
راجپوتانہ 1
رباب 1
ربورن 1
ردیف 1
رمیش 1
روپا 1
روڈس 1
زید@@ 1
سرکش 1
سستا 1
سستے 1
سمیر 1
سوزا 1
سپرنگ@@ 1
سیلا@@ 1
سیٹی 1
شوب@@ 1
شیہ 1
صحیفوں 1
طیار 1
ظری@@ 1
عشقیہ 1
غفاری 1
ــــ@@ 1
فدیہ 1
قطرہ 1
كلين@@ 1
مارتا 1
مانو 1
ماور@@ 1
مبی 1
متی@@ 1
محص@@ 1
محمو@@ 1
مسجدوں 1
مسٹیڈ 1
معد 1
معماری 1
ملہوترا 1
منچوریا 1
مکتب@@ 1
مہینا 1
مینسفیلڈ 1
نارتھمپٹن 1
ناوت 1
نعمتوں 1
نودی 1
نوي@@ 1
نٹین 1
نگین 1
نہروان 1
نین@@ 1
نیکل 1
والجماعت 1
وانیا 1
وزا 1
وطہ 1
وَسَ@@ 1
وکان 1
ویلتھ 1
ویلمینگٹن 1
ویلے 1
وینے 1
ّل 1
ٹنی 1
پبلیکیشنز 1
پراپر@@ 1
پرایک 1
چز 1
چلائیں 1
چم 1
چول 1
چھپائی 1
ڈربن 1
ڈکیتی 1
ڑک@@ 1
کامپٹن 1
کرد@@ 1
کریمہ 1
کلیسیائی 1
کووا 1
کھاتہ 1
گلبرگہ 1
گلف 1
ھجری 1
ہاڑی 1
ہمکنار 1
″ 1
 1
ﺍﻥ 1
ﺗﮭﮯ 1
1834 0.2722484998664804
1854 0.21090197870610433
382 1
388 1
50,000 0.5665968169837632
525 1
620 1
661 1
830 1
Arabic 0.33472860515277136
Bois 0.44878758752292314
Bor@@ 0.08205931364170455
Br@@ 0.05223168554509237
Stadium 0.12003436806711473
aj@@ 0.11112495355993494
ma@@ 0.10014192898922582
ta 0.03610462322269986
ָ@@ 1
آئنسٹائن 1
آرگن@@ 1
ائت 1
ادرک 1
اسٹمپ 1
الحمرا 1
اندلسی 1
انوف 1
اوزون 1
اویغور 1
ایبک 1
ایشور@@ 1
ایمبولی@@ 1
ایپلی 1
بالاخر 1
باولنگ 1
بستری 1
بوڑھی 1
تھیلی 1
ثُمَّ 1
جگود@@ 1
جیسکا 1
حِ 1
خِ@@ 1
ددئر 1
دلدادہ 1
دلس 1
دم@@ 1
دوپ@@ 1
دیبا@@ 1
ربو 1
رھے 1
زال 1
زرتشتی 1
سنگِ 1
سوتا 1
سپ 1
سکٹ 1
سیپ@@ 1
شاو@@ 1
شرط@@ 1
شلوار 1
شوئی 1
صحراؤں 1
فاؤنٹین 1
فائیو 1
فتا@@ 1
فقرہ 1
قا@@ 1
كعب 1
لقمان 1
لوازمات 1
مبل@@ 1
مجموعۂ 1
محاص@@ 1
مشین@@ 1
مقامِ 1
مقتول@@ 1
مقداری 1
مقرب 1
ممن@@ 1
مناظرے 1
منڈیوں 1
منگل@@ 1
نارتھی@@ 1
ناکام@@ 1
نعیمی 1
نقطے 1
نوتی 1
نوو@@ 1
نٹر 1
نڈي 1
ٹیکنی@@ 1
پریزی@@ 1
پکھ@@ 1
چاہئیے 1
ڈیٹن 1
ڈیٹنگ 1
ڑھوں 1
کاشانی 1
کاونٹیاں 1
کتابچے 1
کتابیات 1
کناڈا 1
کڑ 1
گوشین 1
گڑھوال 1
گھٹنوں 1
ہائلینڈ 1
ہنگامے 1
ہومیو@@ 1
ہک 1
ہےکہ 1
یوآن 1
یکتا 1
یہودا 1
ﺗﻌ@@ 1
ﻭﺍ@@ 1
0.4 0.9346084410192124
21ھ 1
377 1
392 1
69.@@ 1
730 1
English 0.03018509987711183
Is@@ 0.10590246685159094
Mont@@ 0.15545793870601998
Union 0.03222553724958956
gh@@ 0.2577665374148746
ءتک 1
آئٹم 1
آزرب@@ 1
اربن 1
ارغ@@ 1
اسٹیڈ 1
الیگزینڈریا 1
امینہ 1
اندرا@@ 1
انش@@ 1
اَ 1
اٹھتا 1
اڈئیر 1
ایذا 1
بدین 1
برزے 1
بَّ@@ 1
تانے 1
تخصیص 1
تقریروں 1
تُمْ 1
جونگ 1
خاندانِ 1
خراش 1
دارومدار 1
دواں 1
ديش 1
دھڑکن 1
ذیشان 1
رہنما@@ 1
رینہ 1
ریپڈ 1
سپارٹا 1
سھ@@ 1
سہولتوں 1
سینیکا 1
سیوا 1
شغل 1
شك@@ 1
صائم 1
صدقات 1
عابدی 1
عطر@@ 1
غازی@@ 1
غوطہ 1
فاف 1
فوبیا 1
قاعدے 1
قانی 1
قمیض 1
كاؤنٹياں 1
كونسل 1
كيو 1
لائم 1
لامار 1
لوم 1
ماجوج 1
مالاب@@ 1
مسند@@ 1
مصالحے 1
مقتدرہ 1
مقدون@@ 1
مقلد 1
ملکیتی 1
منٹگمری 1
منگی@@ 1
مٰی 1
مکانوں 1
مکھی@@ 1
نائیک 1
ناپ 1
نبو@@ 1
نعتوں 1
نکلیں 1
وائن 1
وادیاں 1
ورل 1
ٹرڈ 1
ٹھل 1
ٹھکانوں 1
ٹینینٹل 1
پاش@@ 1
پسن 1
پواتو 1
پوري 1
پینی 1
چاہو 1
چلہ 1
ڈیور@@ 1
ڑیں 1
کلف 1
کلینڈ 1
کوٹھ@@ 1
کٹنگ 1
کیران@@ 1
کیوب@@ 1
گردانتے 1
گرینچ 1
گلگ@@ 1
گورکھپور 1
گوٹ@@ 1
گٹار 1
یاہو 1
یقی@@ 1
ﺣﺎ@@ 1
0,0@@ 0.9976275243824542
1831 0.2743866470580644
1875ء 1
397 1
424 1
452 1
590 1
7.7 1
Ver@@ 0.027869934591121404
de@@ 0.0328266233002325
deh 1
ik@@ 0.0548853877919301
more 0.00951004727864085
oli 0.22420382395853317
you 0.06004302851297336
آرک@@ 1
آوار@@ 1
آڈیشن 1
ابیہ 1
اجد 1
ارشادات 1
استفسار 1
اسر 1
اسماعيل 1
اسمٰ@@ 1
اطت 1
اعلانات 1
الروا@@ 1
الفرج 1
المس@@ 1
المو@@ 1
الْحَ@@ 1
امے 1
انسٹر@@ 1
اوگل 1
اڑانے 1
ایلا 1
باؤنڈری 1
باندھے 1
بانگ@@ 1
برگن 1
بریانی 1
بمبار@@ 1
بموں 1
بکنگ@@ 1
بہشتی 1
بیجوں 1
تاریہ 1
تانی@@ 1
تبصروں 1
ترز@@ 1
تعمیر@@ 1
تلمود 1
تناول 1
تیز@@ 1
ثقیف 1
ثلاثہ 1
جاء 1
جديد 1
جوسف 1
جونپوری 1
حذ@@ 1
حواری 1
رامن@@ 1
رامنٹو 1
روتھ 1
روغن 1
روکتے 1
ریاست@@ 1
ریر 1
ریمی 1
ریون 1
زنج@@ 1
زیدان 1
سرمد 1
سقراط 1
سنگٹن 1
سٹیف@@ 1
سینگامون 1
شاعت 1
شنو 1
شگ@@ 1
طانیہ 1
طوب 1
عبدالسلام 1
عنبر 1
عَلَيْهِ 1
فائق 1
فضلاء 1
قازان 1
قانہ 1
قبولِ 1
قطبین 1
قندھ@@ 1
كاونٹياں 1
كش@@ 1
كشمير 1
لوث 1
لّ@@ 1
مارن 1
ماسوائے 1
مانٹریال 1
مبین 1
مجموع@@ 1
مدینۃ 1
مشار@@ 1
مشہدی 1
مصاح@@ 1
مفتوحہ 1
ملاتا 1
منعکس 1
منٹری 1
موسو@@ 1
میرو 1
میور@@ 1
میڈم 1
نتاشا 1
نوعمری 1
ولنگ 1
ونگا 1
وور 1
ويسٹ@@ 1
وَّ@@ 1
پرزور 1
چراگاہ 1
چرڈ 1
چورنگی 1
ڈویل@@ 1
کاتالونیا 1
کاپی@@ 1
کروشین 1
کورش 1
کوپ@@ 1
کھوں 1
گھیرا 1
ہریرہ 1
ہیلم 1
یاری 1
یہودیہ 1
ﺪﯾ@@ 1
ﺳﺮ@@ 1
ﻟﯿ@@ 1
1821 0.2675760884394526
1835 0.2506361324278908
1859ء 1
26ھ 1
383 1
4,000 0.5453665776147126
428 1
441 1
445 1
Av@@ 0.12841694834492295
Az@@ 0.14273898920017442
Com@@ 0.06574219417075657
Mo@@ 0.06994898069627152
San@@ 0.09902801796465345
آسائ@@ 1
آور@@ 1
ئٹ 1
ابوسعید 1
ازوف 1
استقب@@ 1
اسقف 1
الانس@@ 1
الزبیر 1
الشمس 1
الطبی@@ 1
القضاۃ 1
الٹن 1
امون 1
انوے 1
اوشا 1
ایجو@@ 1
اے@@ 1
بندوق@@ 1
بورنیو 1
بولیور 1
بوہرہ 1
ةٌ 1
تطوان 1
تنفس 1
توم 1
جامعیت 1
حذی@@ 1
خاش@@ 1
خدانے 1
دري 1
دز 1
دف 1
رغ@@ 1
رکنے 1
ریجنٹ 1
زمزم 1
زنک 1
سائرہ 1
سانچے 1
سرٹیفی@@ 1
سمند@@ 1
سنٹی 1
سنگھا 1
سکر 1
سیاست@@ 1
شداد 1
صدائے 1
صلو@@ 1
غزنہ 1
فاروق@@ 1
فتوں 1
قمہ 1
قینٹین 1
ليري 1
مئر 1
مبعوث 1
مساکین 1
معیشتوں 1
مفتاح 1
منف@@ 1
مه 1
مولیٰ 1
موٹو 1
مٹھائی 1
نائٹروجن 1
نائٹس 1
ناقد 1
نتی 1
نجو 1
نفر 1
نوریہ 1
نڈک 1
وزير 1
ٹان 1
ٹرانسوال 1
ٹل@@ 1
پونا 1
پیلو 1
پیٹرو 1
چارینتے 1
چیخ@@ 1
ڈمین 1
ڈين 1
ڈیتھ 1
ڑنا 1
کاتی 1
کانی@@ 1
کرشنن 1
کولنز 1
کھودنے 1
ہجو 1
ہوۓ 1
یزی@@ 1
1790 0.3151148478224384
17ھ 1
1818 0.298605964336409
1820 0.19198434619519017
1845 0.2313713220165715
3.9 1
374 1
4.7 1
56,@@ 1
93@@ 1
Bon@@ 0.13539706585198785
COVID 0.12910978604728854
InternetArchiveBot 1
ala 0.07854262703830862
br@@ 0.04408993588739097
division 0.04901060429328996
pap 1
population 0.01760629268596026
ائد 1
ادارۂ 1
ادیت 1
ادیں 1
ارتا 1
اسٹنگ 1
اسٹینلے 1
الاسكا 1
التو 1
المپور 1
الْأَ@@ 1
انٹرفیس 1
انید 1
اورفرمایا 1
اوزان 1
اٹلان@@ 1
اینٹینٹ 1
بالمعروف 1
بح 1
برنز@@ 1
بہاول@@ 1
بیط 1
بیلو@@ 1
تشخص 1
تورا 1
تْ@@ 1
تھلہ 1
جینز 1
حاض@@ 1
خفا 1
روبینہ 1
ريز 1
زائدہ 1
زه 1
ساك@@ 1
سراپا 1
سربیائی 1
سمنان 1
سونو 1
سوڈا 1
شرمناک 1
صیر 1
ضیافت 1
غات 1
فاتح@@ 1
قرا 1
قربانیوں 1
لاچ@@ 1
لمور 1
لومبار@@ 1
لِّ@@ 1
ماي@@ 1
محاس@@ 1
محمود@@ 1
مظاہ@@ 1
معص@@ 1
معي@@ 1
مك 1
ملائکہ 1
ملوک 1
میٹریا 1
میڈیکا 1
ناخوش 1
نذ@@ 1
نمر 1
نچلا 1
نیلا@@ 1
وزارتِ 1
ولاد 1
وپر 1
ویرمیلین 1
ّس 1
ٕ@@ 1
ٹرینی@@ 1
پروسی@@ 1
پروہت 1
پھنسے 1
چرو@@ 1
چکرورتی 1
ڈولی 1
کامک 1
کنک 1
گائیڈ 1
گلکرسٹ 1
ہائیڈرو 1
ہاگ 1
ہروی 1
ہیوز 1
یزدی 1
ۖ 1
ﺑﯿ@@ 1
ﺟﻮ 1
07@@ 1
09@@ 1
1874 0.15951323453165733
423 1
438 1
Bol@@ 0.14311981926358094
Carniola 1
IABot 1
Lar@@ 0.1970041844079475
Now 0.2105103289455279
also 0.00385053748210523
ek@@ 0.06729418981895463
estan 0.715215385765993
v2.@@ 1
which 0.00324636765417497
آذر 1
آنہ 1
ؤْ@@ 1
اداسی 1
ارتعاش 1
البق@@ 1
الرز 1
الِ 1
الٰہیات 1
امال 1
اندام 1
اگوں 1
ایالت 1
بست 1
بفي@@ 1
تاخت 1
تاند@@ 1
تمن@@ 1
جزء 1
جماع@@ 1
حوثیوں 1
خالد@@ 1
داللہ 1
دوارہ 1
دیک 1
ذہ@@ 1
ربيع 1
روسو 1
رکش@@ 1
زبورو 1
سوار@@ 1
سٹنگ 1
سکئی 1
شوار@@ 1
شیان 1
صا 1
ضِ@@ 1
عائشہؓ 1
عبدالله 1
عطر 1
عنو@@ 1
فح@@ 1
قَدْ 1
قیق 1
لافیت 1
لبس@@ 1
لخت 1
مارو 1
ماريون 1
ماز 1
مبشر 1
مدافعتی 1
مدينہ 1
مساف@@ 1
مسطح 1
مسم@@ 1
ملال 1
ناموس 1
نول@@ 1
نیشنز 1
نیوآرک 1
وحشت 1
وسل@@ 1
وہاب 1
وہر@@ 1
ویکی@@ 1
يشيا 1
ينڈ 1
ٹیئر 1
ٹیرا 1
پہنی 1
ڈائر@@ 1
کاشتکاروں 1
کریا 1
گندگی 1
ہائیڈرو@@ 1
یۡ@@ 1
1809 0.32153114153093
1868 0.15636387310868294
415 1
433 1
493 1
495 1
6.4 1
950 1
97.@@ 0.9754438765161282
Council 0.037760829311604086
Or@@ 0.0496247316005728
Ow@@ 0.5183604622285689
Ph@@ 0.10936315873942422
Si@@ 0.11604348657067189
bar@@ 0.05694943954405383
ji@@ 0.33869579045698894
single 0.02262235691372596
إِنَّ 1
ابوس@@ 1
ازدی 1
اصطلاح@@ 1
اطلاقی 1
الاست@@ 1
الر 1
القران 1
المنتظر 1
النص@@ 1
الوہ@@ 1
برمن 1
بقدر 1
بیلیز 1
بیوروکریسی 1
تاح 1
تسی@@ 1
حساسیت 1
حم 1
خد 1
خرین 1
دات@@ 1
دھما@@ 1
زفر 1
زکو@@ 1
سامووا 1
ساگ 1
سبن@@ 1
سبکتگین 1
سنگا 1
سوط 1
شمل 1
صراط 1
ضوں 1
فرنٹیئر 1
فند@@ 1
قوط 1
لج@@ 1
لوج 1
لْ 1
مالِ 1
ملعون 1
منرو 1
موسا 1
مولد 1
ميا 1
مکینیکل 1
نروان 1
نزر 1
نقاش 1
وأ@@ 0.45708560178131064
وجود@@ 1
وفن 1
ٹاؤن@@ 1
گولڈ@@ 1
ہاج@@ 1
ہنوز 1
1799 0.38038239155435655
389 1
426 1
473 1
5.9 1
656 1
670 1
7000 0.9298004732090449
Bel@@ 0.06444648515736859
Island 0.04557125271771434
Lam@@ 0.17136902055690947
Mosque 0.9575232803396583
T09 1
ais 0.0983177238171971
em 0.0466158695463907
ent 0.0206530029876098
rah@@ 1
آج@@ 1
اؤنڈ 1
ابن@@ 1
اسرائيل 1
اسٹ 1
اظ 1
الاسلامی 1
امير 1
انسا 1
انکارپو@@ 1
انکوائری 1
ایلم 1
بعل 1
بوق@@ 1
دلچ@@ 1
راي@@ 1
ربل 1
رعب 1
زارو 1
سعودي 1
سلنگور 1
سواد 1
سيل 1
شرمند@@ 1
عیات 1
غری@@ 1
قبض 1
قشت@@ 1
لغز@@ 1
لواح@@ 1
مدبر 1
مروہ 1
میگو@@ 1
نظري@@ 1
ٍ@@ 1
ٹرل 1
ٹکرا@@ 1
پوٹی@@ 1
چھتر@@ 1
ڈنٹس 1
کسنگ 1
کھینچنے 1
گورکھ@@ 1
₹ 1
ﮪ 1
432 1
442 1
455 1
57,@@ 1
58.@@ 1
8.1 1
978 1
Bi@@ 0.06686909651333671
Dasht 1
Haute 0.24474000218920133
Hilaire 1
Kam@@ 0.14244481753194843
Su@@ 0.08050528944935571
Tang 0.4028796313863949
Western 0.049749098795254534
ash@@ 0.15830495151906523
ni@@ 0.07043543497105882
ou@@ 0.05405975310213349
ئری 1
اجمالی 1
استحقاق 1
الشعر@@ 1
الع 1
العب@@ 1
المعتصم 1
الوت 1
باتو 1
تقال 1
توآپ 1
جالوت 1
جہاز@@ 1
حدث 1
خرطوم 1
خشاں 1
رمن 1
ريشن 1
سبح@@ 1
سیات 1
عفر 1
غْ@@ 1
قاء 1
قاف@@ 1
لتھ@@ 1
لطائف 1
لگو@@ 1
متجاو@@ 1
مرش@@ 1
مسا@@ 1
مصالح@@ 1
موئل 1
نفی@@ 1
نمل 1
نیشن@@ 1
وذ@@ 1
ونسو 1
يب 1
يزيد 1
پمنٹ 1
چیمپ@@ 1
ڈرن 1
ڑھے 1
کارپو@@ 1
کٹرز 1
کیپی@@ 1
ہدای@@ 1
ি@@ 1
3.0 0.6899798221420279
30,000 0.6349133096472526
4.6 1
418 1
456 1
En@@ 0.05008842154133764
Games 0.06583123829616407
MCC 1
Sar 1
ash 0.1697028298704671
og@@ 0.07513773047725264
ot 0.06115741377080172
ou 0.009381186297591102
tic 0.0827009935550812
ائیو 1
احزاب 1
افز@@ 1
الحج 1
الحجاج 1
العرف@@ 1
المغرب 1
باخ 1
برادری@@ 1
برکی@@ 1
بیڈ@@ 1
تخلی@@ 1
تقرب 1
تنظی@@ 1
ثار 1
جدو 1
جوتا 1
حضرت@@ 1
حيات 1
خات 1
دائر@@ 1
دوغ@@ 1
دیہ@@ 1
رابی 1
رباح 1
زرق@@ 1
سترا 1
سرعت 1
سہر@@ 1
شاذ@@ 1
شخصيات 1
شروحات 1
طبیعیاتی 1
عصا 1
عنان 1
فریڈ@@ 1
كوا@@ 1
معام@@ 1
معدو@@ 1
مقرن 1
موسي@@ 1
نوت 1
نکھ 1
وانوں 1
ولون 1
ُن 1
چاند@@ 1
ڈنسی 1
ڊ@@ 1
کیون@@ 1
409 1
43.@@ 1
465 1
7.6 1
Aliabad 1
Borough 0.3349816444741235
Car@@ 0.03769257905235089
Dynasty 0.5353390316892679
Gal@@ 0.08775078620054924
Her@@ 0.058387870605634495
Tappeh 1
lar 0.12294670530728943
mar@@ 0.06106318101200637
اؤس 1
ارن@@ 1
ازان 1
استث@@ 1
السّ@@ 1
الفار@@ 1
القدوس 1
المسلمون 1
بعمر 1
بوب 1
تدار 1
تنز@@ 1
توی 1
جيك 1
داؤ@@ 1
راً 1
روبن 1
ریدی 1
زیت 1
ساوا 1
سبزوار 1
سمو 1
شخص@@ 1
شنو@@ 1
صفح@@ 1
صلي 1
صنف@@ 1
صُ@@ 1
عات@@ 1
عال@@ 1
ماند 1
محافظات 1
مصح@@ 1
مقاتل 1
ملقب 1
ممبر@@ 1
ندور 1
وتم 1
وکٹ@@ 1
پنسلو@@ 1
کستان 1
کوالی@@ 1
یونیورسٹی@@ 1
ਸ@@ 1
001 0.7291875224249341
133@@ 1
14.9 1
3.7 1
4.9 1
439 1
444 1
545 1
586 1
786 1
860 1
940 1
980 1
AM@@ 0.20790410126073014
Agh@@ 1
Gol 1
Great 0.05401882991002955
History 0.02309477882442612
Islamic 0.18459477153081721
Tazeh 1
US 0.01764634698212623
and@@ 0.05489106237624093
bi@@ 0.037219664958498926
esh@@ 0.20838988076154552
ica 0.05071216178946243
ish 0.06382283672029879
over 0.00919162262159356
ti 0.07013961423636003
tion 0.06926042330130974
Étienne 0.32597508366172556
آسٹریلی@@ 1
آلا 1
اشتم@@ 1
الاحد 1
المُ@@ 1
الوس 1
اليك@@ 1
امبا 1
امپ@@ 1
ایڈور@@ 1
باح 1
باخت@@ 1
برار 1
برخ@@ 1
بریت 1
بعین 1
بنات 1
بني@@ 1
بِّ@@ 1
تنظيم 1
جه@@ 1
حوار@@ 1
خلاص@@ 1
رست 1
زعفران 1
سیکر@@ 1
طول@@ 1
عنص@@ 1
عَ 1
غت 1
فش@@ 1
كِ@@ 1
كِتَ@@ 1
لش 1
مترا 1
مرجان 1
مرغوب 1
مزاحم 1
معتد@@ 1
معصو@@ 1
موئ@@ 1
مَّا 1
میثم 1
نمون@@ 1
والیس 1
واو 1
وسلا@@ 1
وَمَا 1
پرت@@ 1
گریشن 1
گمن@@ 1
گھوٹ@@ 1
ہدی 1
️ 1
105@@ 1
1100 0.568861484251242
1855 0.18599131933146623
3.8 1
411 1
485 1
543 1
6.1 1
6.3 1
Char@@ 0.10294827415729266
DB 0.3825897385404177
Ne@@ 0.06155282750513671
System 0.08085043962022204
UN@@ 0.18487507171063677
ator 0.05426933150670935
ghost 0.8123363366971893
qu@@ 0.05060910827889153
sa 0.009100505579363745
space 0.06166067841666395
yn 0.17093042918622037
اجراء 1
استثناء 1
استخ@@ 1
الس 1
اوش 1
بلور 1
بھیج@@ 1
تخصص 1
تراب 1
تیب 1
جگان 1
خدمت@@ 1
خصوصًا 1
خيبر 1
دراباد 1
دلال 1
روزا 1
شود 1
ظروف 1
عي 1
مجتمع 1
مسان 1
مسدود 1
معقل 1
موح@@ 1
نفوذ 1
ورخ 1
وينا 1
ٹرول 1
پروگرا@@ 1
یروش@@ 1
1,500 0.7138999809894324
1789 0.29237433004539726
413 1
421 1
422 1
446 1
454 1
737 0.807099629987
elle 0.010479698626323326
he@@ 0.08074543294746254
la@@ 0.11525511591058073
number 0.015164505478069227
ائش 1
ادیث 1
ارفع 1
اسکالر@@ 1
بسم@@ 1
تالا 1
تلف 1
ته 0.5179887534190433
داول 1
روب 1
رًا 1
رَّ@@ 1
سوت 1
سٹرک@@ 1
طوم@@ 1
عمی@@ 1
غام@@ 1
فد@@ 1
فرق@@ 1
فلور 1
قوا@@ 1
لالا 1
لاه@@ 1
لٹری@@ 1
ماق 1
مبو@@ 1
موش 1
ميري@@ 1
ناک@@ 1
ندار 1
ندگان 1
نفل 1
هُوَ 1
واسط 1
والون 1
وذ 1
ورون 1
ڈنس 1
ਦ@@ 1
1801 0.2815598024821237
1847 0.20430459855466218
4.8 1
402 1
416 1
417 1
448 1
484 1
580 1
68.@@ 1
7,000 0.7126742814739991
André 0.1369052089679307
Co@@ 0.05111511621263883
De@@ 0.039725278639790744
Em@@ 0.12453474708034022
Lahore 0.8919564958004805
Li@@ 0.07682259140861854
Me@@ 0.06370249824926225
Nas@@ 0.27296357107319974
Pal@@ 0.08996464684547778
Sey@@ 0.6320398085571538
Spain 0.08428328658254292
most 0.01062819968551292
pi@@ 0.06782137390451516
ה 1
נ@@ 1
آمدات 1
اختراعات 1
ارل 1
ازي 1
اقب 1
الاث@@ 1
البشر 1
الجز@@ 1
الحديث 1
الخوارز@@ 1
الصادق 1
اورات 1
باح@@ 1
باختر 1
بیح 1
تران 1
تعداد@@ 1
جعل 1
جين 1
حط@@ 1
داوری 1
دربند 1
رزاق 1
شنری 1
شوق@@ 1
طرب 1
عرا@@ 1
عْلَ@@ 1
غز 1
غي@@ 1
قبل@@ 1
كاك@@ 1
كوك@@ 1
ماربل 1
ماسول 1
مجتہ@@ 1
مري@@ 1
نه 1
هـ 1
ْتَ@@ 1
پارٹمنٹ 1
ہاتھ@@ 1
़ 0.03338289135310577
ক@@ 1
ﭙ@@ 1
ﯽ@@ 1
103@@ 1
1837 0.2170551217567135
300@@ 0.889272834353022
407 1
414 1
437 1
5- 1
515 1
64,@@ 1
930 1
975 1
Ah@@ 0.23457771539270972
Bad@@ 0.17505370754980745
Deh@@ 0.684605824032293
Ha@@ 0.11792500626569753
Romania 0.25549909399934784
VI 0.11167002035450094
Zum@@ 1
ama 0.07708834430269826
non 0.020268797186948906
ro@@ 0.039833424073504146
آندھ@@ 1
اجتہ@@ 1
اسما@@ 1
اشد 1
اغا 1
السنن 1
الشاف@@ 1
العوام 1
امپائ@@ 1
انعام@@ 1
انقلا@@ 1
انکو@@ 1
ایتی 1
بعض@@ 1
تاد@@ 1
تبہ 1
ترين 1
جغرافي@@ 1
جھگ@@ 1
خليج 1
ربع 1
رزم 1
زان@@ 1
زز 1
زق 1
سلر 1
سیاس@@ 1
شاء@@ 1
عار 1
عبی@@ 1
قباد 1
قطعاً 1
لك 1
لوزان 1
ليون 1
متھ 1
مسيح 1
نورا@@ 1
وانان 1
وتن@@ 1
وشن 1
يق@@ 1
ڈمز 1
کمو@@ 1
گمش@@ 1
1810 0.24320413572114896
1817 0.28550655495481475
419 1
427 1
494 1
499 1
5.3 1
548 1
6.9 1
642 1
652 1
740 1
790 1
Jon@@ 0.419671805083639
Muhammad 0.21066171193912128
Ser@@ 0.07358142931201433
Valley 0.06994142638005627
ice 0.049873147474303325
lam@@ 0.13670726059213117
osis 0.17196313030942123
parish 0.10458668954088408
za 0.06285767695393028
ارتقاء 1
ازہ 1
اضاف@@ 1
الاخ@@ 1
الادب 1
البل@@ 1
الصح@@ 1
انتان@@ 1
انتظ@@ 1
انسائی@@ 1
بادی 1
بالغ@@ 1
برون 1
بُعد 1
تالوں 1
تبحر 1
ثال 1
جارا 1
حدیث@@ 1
خزی@@ 1
زوب@@ 1
زوم 1
زين@@ 1
سيف 1
شعائر 1
ضي 1
فرانسي@@ 1
فورا@@ 1
لانہ 1
لَهُ 1
مرہ@@ 1
ميڈي@@ 1
مًا 1
میٰ 1
وح 1
ولینڈ 1
وندا 1
ُل 1
پروا@@ 1
چھٹ@@ 1
کاؤن@@ 1
ੀ 1
ﻊ 1
08@@ 1
112@@ 1
1829 0.2528723877501157
1842 0.21448570207972095
459 1
468 1
486 1
544 1
632 1
8,000 0.5779605594504511
Est 0.14663794196651783
House 0.02536799388825482
Hungary 0.18863380070753585
Las 0.029408797159918645
Sab@@ 0.15200288569838824
ada 0.019394057309732964
ite 0.04115984011099141
oma 0.1421838227121802
settlements 0.3423966590816416
إلى 0.04521897724737272
الزور 1
القاس@@ 1
باران 1
بالت@@ 1
بلوا 1
تسو@@ 1
جاذب 1
جمي@@ 1
جندب 1
حرا 1
داع 1
دفع 1
دود@@ 1
دوز 1
دوز@@ 1
رامان@@ 1
روبل 1
ریح 1
زاب 1
سوشل@@ 1
شح@@ 1
شنر 1
شیدہ 1
صنا@@ 1
ضال 1
عجلت 1
فیوں 1
لیور@@ 1
مشغ@@ 1
معز@@ 1
موئیل 1
نابلس 1
نى 1
هو 0.07991883042557926
وتي 1
وظ 1
وعمل 1
پید 1
1520 0.8431467682960538
1844 0.21247524271120413
436 1
457 1
483 1
507 1
51.@@ 1
549 1
6.6 1
840 1
Bur@@ 0.06349969539642385
Di@@ 0.04518796106510287
Haj@@ 0.9373661754358741
Hu@@ 0.09659105297322472
Jan@@ 0.14313153013534202
ja 0.05735667181009162
oc@@ 0.03937434299443888
ons 0.03009590625849176
will 0.01589308137091561
ע@@ 1
اسحق 1
اشتراكي 1
افل 1
الجو@@ 1
الزرق@@ 1
العباد 1
المز@@ 1
النعمان 1
امتح@@ 1
اونا 1
اُ 1
بیلار@@ 1
تؤ@@ 1
تناسل 1
تنو@@ 1
تى 1
حدگی 1
حيات@@ 1
داو 1
زیاں 1
سارس 1
سنار 1
صلح@@ 1
علاؤ@@ 1
فاق@@ 1
كوب@@ 1
لى 1
ماري 1
متم@@ 1
محق@@ 1
مخد@@ 1
مرص@@ 1
منتج 1
نوف@@ 1
پسمان@@ 1
کمر@@ 1
ہوٹہ 1
1807 0.2861496436148126
429 1
5.1 0.8977423803449798
527 1
565 1
59,@@ 1
6.2 1
810 1
910 1
Aubin 1
Ban@@ 0.09938085263684612
Bey@@ 0.997991722335287
Gor@@ 0.10575651742686559
Kah@@ 0.41954694073647214
T10 1
T14 1
Ta@@ 0.125642517428881
core 0.1473045271021667
countries 0.05292422875634464
der 0.0006234590994229095
ez@@ 0.10558981115379518
ical 0.051923318744895315
rate 0.06700120845264661
time 0.006448915318434793
width 0.2532558617043381
ą@@ 0.40928474889729205
ءَ 1
ائص 1
اسس 1
اعترا@@ 1
الاغ@@ 1
الجراح 1
السن@@ 1
القطان 1
القلوب 1
المنتصر 1
اوپ@@ 1
اگری 1
بارات 1
باسو 1
باو 1
بروج 1
تش 1
تًا 1
ثا 1
حما@@ 1
دمش@@ 1
راگوئے 1
روان@@ 1
ريت 1
ريم 1
سالو@@ 1
ستو@@ 1
سى 1
سِ 1
صائب 1
عب 1
عزرا 1
فاسد 1
فصی@@ 1
فغ@@ 1
فیٰ 1
فیں 1
متاع 1
مجرد 1
محصن 1
معن 1
مفرو@@ 1
منتظ@@ 1
منز@@ 1
ناقل 1
نبوي 1
نورد 1
نڈری 1
والہ@@ 1
وظی@@ 1
يحي@@ 1
يكي 1
کرش@@ 1
کمش@@ 1
ﮈ@@ 1
ﺀ 1
ﺯ 1
ﻈ@@ 1
1,100 1
4.3 1
447 1
512 1
555 1
7.3 1
870 1
Dow@@ 0.3522618709488425
El 0.005260585253956649
Ro@@ 0.05382619784138774
Road 0.03872001582827304
Sad@@ 0.28679591970783075
age 0.011713750048289177
alism 0.12523394302011293
class 0.038499431546308166
ey 0.049638840098909925
his 0.0018207334797653123
ip 0.7341382301506204
od@@ 0.057384301649358795
two 0.005064389447694379
war 0.003690069781598179
آرتھو@@ 1
ئِ@@ 1
ئیر@@ 1
اتذ@@ 1
اسماعی@@ 1
اعتب@@ 1
اعتق@@ 1
اعتقادات 1
اعض@@ 1
بسط@@ 1
بغ 1
بندي 1
تبات 1
تسو 1
تمش 1
ثعل@@ 1
جلو 1
حاجي 1
حزن 1
خلق@@ 1
دوج@@ 1
ديه 1
دّ@@ 1
رائز 1
راد@@ 1
رجم 1
زرز 1
سرائ@@ 1
سنبل 1
شتوں 1
شفاء 1
صب 1
صدي@@ 1
طلق 1
فورنيا 1
كاب@@ 1
لاف@@ 1
متر 1
معتر@@ 1
ميك@@ 1
ميل 1
ميني 1
نعر@@ 1
نمرود 1
نين 1
ياد@@ 1
يي 1
ٹیکن@@ 1
ﷲ@@ 1
434 1
466 1
497 1
516 1
518 1
643 1
83@@ 1
Cor@@ 0.04224252022916256
Sav@@ 0.1510820248193694
VII 0.14216593186041
Val@@ 0.0700115765039935
able 0.01538505001944501
gu@@ 0.06299095414150224
had 0.0033098396474397092
ik 0.08097194676676012
iyeh 1
li@@ 0.03563571818092905
life 0.013937091672251573
owo 0.4033180427210057
s.@@ 0.46543421004575425
uy@@ 0.2665479823639286
آٹھ@@ 1
احت 1
البرو@@ 1
الشَّ@@ 1
المل@@ 1
بانج@@ 1
تاد 1
ترقي@@ 1
تکمی@@ 1
خير@@ 1
راع 1
شاخ@@ 1
شاق 1
شيما 1
ضرور@@ 1
طلاح 1
طن 1
عدالت@@ 1
عرص@@ 1
فلمس@@ 1
فلوئ@@ 1
قادر@@ 1
قرب@@ 1
قزاق 1
كَانَ 1
لَّمَ 1
مباش@@ 1
مدي@@ 1
مصارف 1
معذ@@ 1
موريس 1
ناسور 1
واجبات 1
وبي 1
وفو 1
وليم 1
ویج 1
يَا 1
پرور@@ 1
چیون 1
کسٹ@@ 1
کنزروی@@ 1
ہاء 1
ہمد@@ 1
ਿ@@ 1
ﭖ 1
ﭦ 1
1000@@ 1
1707 0.7474590425206188
449 1
458 1
463 1
478 1
5.0 1
551 1
602 1
625 1
674 1
780 1
CEO 0.1692242753865568
Mac@@ 0.06220485807064712
Mur@@ 0.08993535340580545
Netherlands 0.12629335023764152
Tak@@ 0.1364907404495982
can 0.009600181307559841
line 0.01831216042351765
ph@@ 0.0464396135757119
they 0.006367309846474301
yan 0.16617401999128617
ִ@@ 1
أَنْ@@ 1
ابوی@@ 1
اشي 1
اصف@@ 1
النبو@@ 1
الْعَ@@ 1
اولا 1
ايم@@ 1
بالن@@ 1
بدا@@ 1
بوز 1
بولي@@ 1
بوم 1
تست@@ 1
تعلم 1
توقف 1
ثم@@ 1
دامت 1
دس@@ 1
راجستان 1
راجستھ@@ 1
رويز 1
سوش@@ 1
سوڈ@@ 1
شنی@@ 1
ضرار 1
طریق@@ 1
عج 1
عضلات 1
فانوس 1
فلا 1
لًا 1
متر@@ 1
محظ@@ 1
محفل@@ 1
مني 1
ندم 1
نکے 1
وتن 1
وسر 1
يلو 1
يَّ@@ 1
کارانہ 1
کمیون@@ 1
ہوما 1
ہيم@@ 1
․ 1
🔹 1
--- 1
06@@ 1
1526 0.9881582795999971
467 1
5.7 1
572 1
726 1
820 1
970 1
AR@@ 0.13695227785090444
Pro@@ 0.0601860611318113
Rud 1
cell 0.11054049249098395
im 0.0022317646149940585
ish@@ 0.09888932947045385
ma 0.0440192479566594
me 0.029672749139121053
me@@ 0.07389653116381356
settlement 0.10256946231042179
urdu 1
É@@ 0.07486799561433703
é@@ 0.03321047084813602
ś@@ 0.33237398711794364
ת 1
آوا@@ 1
إ@@ 0.4131226938648514
ارتباط 1
اكت@@ 1
الباس@@ 1
الجما@@ 1
المرا@@ 1
الملك 1
انیے 1
بالاتفاق 1
بدخ@@ 1
بروا@@ 1
بروسا 1
ترکمان@@ 1
تعص@@ 1
تمث@@ 1
تولد 1
ثبات 1
جاج@@ 1
جنسي 1
جھی@@ 1
دارل@@ 1
دج@@ 1
رحمة 1
روجا 1
سالت 1
سترا@@ 1
شوم@@ 1
طْ@@ 1
عند 0.5387937145977475
فط@@ 1
قبور 1
كلو@@ 1
مؤلف@@ 1
مؤمن 1
مارك 1
مالد@@ 1
محبوب@@ 1
مسن@@ 1
مقط@@ 1
مماث@@ 1
وئي 1
ولاس 1
وناس 1
پوی@@ 1
ন 1
ﮌ@@ 1
ﺫ@@ 1
03@@ 1
431 1
453 1
475 1
536 1
6.7 1
651 1
7.2 1
76,@@ 1
93.2 1
AL@@ 0.16894445990044163
Bas@@ 0.08725058965759358
CO@@ 0.13977840994202828
Cheshmeh 1
Ger@@ 0.06543132811878127
Hill 0.05148736190474231
La@@ 0.07793957884762363
Now@@ 0.35195767409586015
Punjab 0.37543104446123965
Quebec 0.16097103532566467
TV 0.027839665848041782
aki 0.12652151181414273
eb@@ 0.04026345005377009
quot 0.245539136962797
to@@ 0.047102227938113084
اخر 1
استطاعت 1
الإمام 1
البن 1
المعظم 1
المقت@@ 1
النج@@ 1
الون 1
بداد 1
جارجی@@ 1
جدل 1
حازم 1
حرج 1
داء@@ 1
داش 1
ذُ@@ 1
رچر@@ 1
سفاح 1
سكي@@ 1
سلز 1
سمتھ@@ 1
شاک 1
شري@@ 1
شنا 1
صوم 1
عشر@@ 1
غام 1
غفار 1
كمي@@ 1
كور 1
لسان@@ 1
لونا 1
مجاز@@ 1
مردو@@ 1
مرقس 1
مى 1
مہاک@@ 1
نعم 1
واك 1
والح@@ 1
ويد 1
يمي 1
يي@@ 1
ِي 1
پندر@@ 1
ڈپلو@@ 1
کھون 1
118@@ 1
1770 0.3924708661221287
1819 0.262737680062456
4.4 1
482 1
511 1
552 1
589 1
594 1
6.8 1
65,@@ 1
7.9 1
98.@@ 0.8293365067495689
Ad@@ 0.055922480397292716
American 0.00869123868400025
Bah@@ 0.24407658249991454
Burkina 0.555833449375748
Hasan@@ 1
Les 0.008110497203760886
Rayon 1
Sweden 0.1255100743590341
T18 1
agh 0.3534698881312392
ari@@ 0.08797521808643585
bar 0.05215514263839666
begin 0.1270181749973542
dar@@ 0.14148920536625834
function 0.08761285741801428
ig@@ 0.04067899869564046
ing@@ 0.04548658869518814
son 0.0034519936465896724
ve 0.007180487398353947
yg@@ 0.30676981359406774
ykh 1
ze 0.060997976831042675
اجات 1
اسرائی@@ 1
اشتہ@@ 1
افات 1
الثق@@ 1
الفان@@ 1
المصط@@ 1
الواقع 1
الَ@@ 1
اندا 1
انچ@@ 1
برش@@ 1
ترقی@@ 1
ترن@@ 1
ثنا@@ 1
حلول 1
دیر@@ 1
دیوار@@ 1
راء@@ 1
روي@@ 1
ريكا 1
سطور 1
سني 1
سومر@@ 1
سْتَ@@ 1
شاب@@ 1
شرقي 1
طِ@@ 1
كيني@@ 1
لاند 1
لوز 1
مخر@@ 1
مرفو@@ 1
مسح 1
مقاب@@ 1
نجز 1
وزیرا@@ 1
ومات 1
پرگ@@ 1
چودھ@@ 1
کب@@ 1
کردگی 1
گستاخ@@ 1
ਤ@@ 1
104@@ 1
1795 0.27109763404656656
1824 0.23164447973853527
25,000 0.5812794617446778
43,@@ 1
462 1
469 1
479 1
505 1
508 1
539 1
672 1
717 1
777 1
880 1
British 0.016018638404045923
Col@@ 0.0522780614688374
Faso 0.5537705265474598
IC@@ 0.17076445721782735
No@@ 0.09810836335627997
T16 1
adi 0.1917673407569048
als 0.0028582483315347774
ette 0.044413133434835356
istan 0.36359724979360686
par@@ 0.03330017129435983
reh 1
va 0.0444588697899412
wa 0.04077744485444262
£ 0.07364670713237646
آنج@@ 1
ازن 1
اسط@@ 1
الاسلا@@ 1
التص@@ 1
الجزائ@@ 1
الخلا@@ 1
الشيخ 1
باست@@ 1
باع 1
بنج@@ 1
بيان 1
تاء 1
تقر@@ 1
ثِ 1
حوادث 1
خير 1
دورا 1
دھڑ@@ 1
سائنس@@ 1
سپی 1
شير@@ 1
ضخ@@ 1
ظل 1
عان 1
فات@@ 1
قبي@@ 1
ماما 1
متقد@@ 1
متناہی 1
مجد 1
مشک@@ 1
هون 1
واتس 1
ورات 1
ّات 1
پشتون@@ 1
کانفرنس@@ 1
ۂ@@ 1
ﺑﮭ@@ 1
ﺱ 1
1453 1
15,000 0.6015888482184093
1783 0.348765415352736
1836 0.18914711733240488
4.1 0.996531171833775
42@@ 1
451 1
477 1
506 1
521 1
522 1
6- 1
612 1
711 1
72.@@ 1
911 0.832547844575401
Ge@@ 0.049204244109456056
Le@@ 0.03581301237066246
Pi@@ 0.07436817578779764
XI 0.17815151520458064
ano 0.03500422587262823
eg@@ 0.037334940498390715
ko 0.05569242690076201
ley 0.02719564936130609
st@@ 0.022774580813890364
اختر@@ 1
ازب@@ 1
استر@@ 1
اضل 1
الرب 1
الصدر 1
القض@@ 1
براق 1
بلدي@@ 1
بَ 1
جمہ@@ 1
خول@@ 1
دق@@ 1
رینڈ@@ 1
صفي 1
عاً 1
عَنْ 1
غرا@@ 1
قَ 1
قیب 1
لاق@@ 1
لکش@@ 1
مؤرخ@@ 1
مخط@@ 1
مستث@@ 1
ميت 1
مِن 1
ناج@@ 1
نتیج@@ 1
نساس 1
نّ@@ 1
نکل@@ 1
هرو@@ 1
واخ@@ 1
واڈور 1
وسٹن 1
ویاں 1
ڈیز@@ 1
کندھ@@ 1
گرائ@@ 1
ہوٹ@@ 1
۞ 1
ﮯ@@ 1
1803 0.22642396151835237
1833 0.20351007500715393
3166 1
501 0.6777621690524114
509 1
532 1
542 1
559 1
603 1
685 1
705 1
718 1
722 1
914 1
Chak 1
Go@@ 0.07065651221263454
Jar@@ 0.212822809035243
Khar@@ 0.7639951765259014
Mad@@ 0.08960207582253847
Seine 0.0485990518231296
`@@ 0.6860260203995957
list 0.03677345512400391
national 0.01688067241918124
ubi 1
اختبار 1
ادل 1
التار@@ 1
الحسن@@ 1
امي@@ 1
ایمب@@ 1
بب 1
جاد 1
جاس 1
جھو@@ 1
حص 1
خوس@@ 1
دوت@@ 1
رسال@@ 1
زرلینڈ 1
ساؤل 1
سایا 1
سبع 1
سیع 1
غوا@@ 1
لازما 1
لحم 1
ماني 1
متہ 1
مخبر 1
مغالط@@ 1
موسم@@ 1
موغ@@ 1
مَن 1
ناق 1
نتن 1
نزاع 1
وزي@@ 1
ينا@@ 1
ّق 1
٘ 1
ٹار 1
ٹھہرا@@ 1
کنون@@ 1
01@@ 1
04@@ 1
1793 0.21581334962931292
491 1
500@@ 0.6974588350685074
502 1
517 1
52.@@ 1
524 1
534 1
576 1
577 1
585 1
588 1
66,@@ 1
67,@@ 1
69,@@ 1
690 1
7.1 1
70,@@ 1
745 1
868 1
AB@@ 0.2328622524692552
Ba@@ 0.09477762633608154
Bab@@ 0.15319336561602506
Colombia 0.1131525728081843
George 0.02206712781450751
Kur@@ 0.06579604663943295
Land@@ 0.05890678964475748
Maurice 0.13471488581299762
Portugal 0.08088502615461504
St@@ 0.027514151640472002
Sur@@ 0.0852023888261345
This 0.0074183216495544956
botul@@ 1
meh 1
qa 0.6491929966235045
tr@@ 0.02554826285952055
ā 0.22325170950862072
ę@@ 0.3603447273359368
ارتفاع 1
استر 1
التن@@ 1
الحوز 1
الرح@@ 1
الطار@@ 1
النفس 1
انتق@@ 1
بلدی@@ 1
بُ 1
تریا 1
تصف 1
تصوّر 1
تورا@@ 1
تیش 1
جليل 1
جورج 1
حمدان 1
حمل@@ 1
درج@@ 1
راف@@ 1
رْ 1
زخ@@ 1
ساور@@ 1
سرح 1
سووی@@ 1
سويل 1
ضُ@@ 1
غزو@@ 1
غون 1
غُ@@ 1
فلي@@ 1
فول 1
لمع@@ 1
لَمْ 1
مسدس 1
مفتوح 1
مقابر 1
مولر 1
ميامي 1
میخ@@ 1
نشر@@ 1
نوي 1
ولاية 0.6589306557941846
وکٹو@@ 1
يرس 1
يوس@@ 1
ڏ@@ 1
ڙ 1
کاندھ@@ 1
کانے 1
کھود@@ 1
10000 1
1788 0.3401046034182113
474 1
528 1
537 1
557 1
584 1
604 1
609 1
659 1
775 1
844 1
920 1
Asian 0.07666131595106267
At@@ 0.07371712966073522
Azerbaijan 0.2840587176982643
European 0.025823184270275888
IW@@ 0.9138378212004395
ME@@ 0.18565857962113014
So@@ 0.07033889168938515
Sor@@ 0.10526742256642618
Sud 0.07562225576623278
WT@@ 0.7199912056101032
ci@@ 0.05449722756560979
ng@@ 0.11821965614398147
ze@@ 0.13544335038675664
ó@@ 0.07329184666012752
إِلَ@@ 1
ابات 1
اداء 1
ارستان 1
الحر@@ 1
الدار@@ 1
الفردوس 1
المقاصد 1
انیات 1
اوست@@ 1
اکلو@@ 1
ایتھو@@ 1
بِهِ 1
بگا@@ 1
تك 1
جانبد@@ 1
خليل 1
دوسو 1
ديل 1
دًا 1
رست@@ 1
رضوي 1
ستي@@ 1
سليم 1
صَلَّى 1
طاب 1
طیات 1
عالی@@ 1
عل 1
عَبْ@@ 1
غالبًا 1
فيض 1
قیع 1
للت 1
لیٰ 1
مادورو 1
مدرس@@ 1
مشتر@@ 1
مَّ 1
ناصر@@ 1
نافر@@ 1
واث@@ 1
واف@@ 1
وتا@@ 1
وتر@@ 1
ونین 1
ويلا 1
ٶ 1
کالن@@ 1
1792 0.23759501883462775
1843 0.1856950042413216
1852 0.15479501644104937
461 1
464 1
533 1
558 1
60.@@ 1
601 1
626 1
636 1
644 1
673 1
683 1
746 1
815 1
86,@@ 1
A. 0.03973114294599752
Company 0.029327839354421775
Division 0.023593195448493004
Egypt 0.14446714692348686
Hey@@ 0.2834076951766118
Islam 0.1659912856820407
Khal@@ 0.5828350637219928
[...]
