de 50295515
, 48353031
. 39964851
la 25224316
et 20175854
le 17959730
à 17103910
en 14665626
&quot; 13607370
l&apos; 13581477
des 12607945
est 12505053
@-@ 12464928
du 11722729
les 10898235
d&apos; 10331005
un 9159010
( 8317844
) 8314780
une 8098238
dans 6949164
par 6376179
au 6061953
’ 5444266
pour 5175792
il 5021565
qui 4605504
a 4396703
Le 4241614
que 4005334
sur 3960289
Il 3430050
avec 3360359
son 3359963
La 3259896
se 3118760
: 3033021
plus 2798152
sont 2631001
l 2581030
En 2543225
ou 2279777
Les 2242115
aux 2230414
sa 2173110
« 2095312
» 2090741
été 2077675
d 1885398
s&apos; 1882348
elle 1846098
qu&apos; 1780421
comme 1712692
ce 1690277
ses 1674690
deux 1600754
L&apos; 1563116
ne 1446302
pas 1426834
ont 1348560
fait 1319951
; 1293331
entre 1260663
mais 1242408
Elle 1189968
cette 1148551
é 1125419
sous 1110142
y 1069507
même 1031781
était 1009340
ée 1007559
lui 1003844
n&apos; 994991
être 993938
on 977851
dont 976350
après 975276
leur 953939
% 948493
où 941027
également 904597
commune 900403
France 896658
és 885740
alors 846616
aussi 825662
autres 825118
ainsi 815207
Saint 814934
ville 803217
ans 797777
&apos; 787185
partie 786211
ées 782773
premier 779382
fut 777173
nom 771007
première 755582
ant 736970
lors 713716
À 712148
dé@@ 706227
puis 701767
ent 694881
années 685538
peut 675986
contre 668064
trois 654124
s 653978
ces 650082
depuis 633818
avant 602137
groupe 600183
er 599570
plusieurs 596946
Cette 581977
né 579097
très 576505
Dans 574055
ils 552832
jusqu&apos; 543404
vers 538401
année 528156
/ 527765
fin 527184
fois 524522
avoir 522278
Paris 516916
mort 507605
Jean 507359
avait 507285
tout 506878
français 505844
2 502809
De 502060
- 498537
ait 492400
notamment 490464
temps 489642
famille 487784
Ce 482687
sans 475628
Au 474156
monde 472475
é@@ 466979
saison 464467
équipe 460213
1 460148
place 459467
Après 458199
sud 447747
leurs 446384
pays 438814
ré@@ 437506
nord 437231
lieu 435345
suite 432442
Biographie 418485
autre 418251
États 416250
grand 415851
Une 415691
région 415624
titre 414414
cours 413967
partir 411618
peu 411023
faire 410175
bien 408023
&amp; 405998
devient 405711
Un 404588
non 396056
guerre 392839
quatre 392829
soit 392075
ci 391234
C&apos; 387186
film 387124
es 386881
encore 386555
nouveau 383676
moins 382879
in@@ 381720
pendant 380121
3 379118
Son 379001
in 378337
re@@ 373862
général 373547
tous 372633
politique 370980
eau 368506
an 365982
série 365512
forme 362181
ligne 356408
début 353685
située 351249
ie 349726
Unis 348641
vie 345085
État 344067
elles 340889
tant 340340
aire 339821
celle 339234
celui 336329
fils 336079
nombre 335851
française 335676
grande 334497
club 329526
donc 327153
selon 327035
village 325407
Pour 323347
ouest 322287
On 321855
album 320177
tard 319314
4 319166
L 315209
trouve 315041
age 314628
nouvelle 314588
ation 313466
histoire 313239
Histoire 309578
ensuite 309511
quelques 309409
qu 308709
département 308069
compte 305902
eux 305307
c&apos; 303593
président 303580
époque 303305
deuxième 301646
étaient 300181
ayant 296967
si 296430
dernier 295858
centre 295392
population 295018
situé 293887
part 291878
étant 291554
période 291047
père 291029
2010 290762
environ 286049
aient 285520
roi 281572
ement 281563
près 279744
église 279439
n 279077
nombreux 278894
mois 276144
tour 275524
origine 273891
el 273070
ale 272522
Ils 271541
gouvernement 270606
Ces 270261
Europe 267751
face 267401
S@@ 266895
Pierre 266681
L@@ 266421
nationale 264487
espèce 264215
chez 263752
service 262623
ensemble 261961
car 261450
6 261366
cinq 260612
of 259736
homme 259269
The 256071
e 255958
chef 255745
ations 254930
permet 253895
communes 253763
afin 253077
ancien 251647
Louis 251408
ons 251206
ine 250869
2018 250262
ère 248123
hui 247242
souvent 246531
reste 245314
5 245228
carrière 245100
prend 244813
F@@ 244674
durant 243879
cas 243666
nommé 243303
effet 242771
armée 242167
études 241282
al 240622
Nord 240365
membre 240352
niveau 239617
jour 239405
ch@@ 238104
doit 237205
société 237151
jeu 236090
T@@ 235944
rue 235692
ants 235689
èrent 234872
rôle 233762
national 233264
membres 233080
ou@@ 232858
is 232125
te 231613
D@@ 230702
peuvent 230205
américain 229969
ité 229838
B@@ 229833
habitants 229815
projet 228620
chaque 227266
C@@ 227198
P@@ 226831
us 226631
sera 225318
ailleurs 225043
ante 224361
at 223872
Sa 223353
dit 223184
Selon 222262
mondiale 221963
V@@ 221949
présente 221761
territoire 221386
aires 220280
point 220115
troisième 219970
2011 219464
système 218901
premiers 218452
R@@ 218442
pré@@ 218153
Par 217495
dès 217464
finale 217054
O@@ 217037
exemple 216765
toujours 216652
G@@ 216347
travail 216306
Sud 216214
Mais 216126
base 215781
2000 215270
10 214948
œuvre 214248
poste 213968
droit 213864
2014 213549
_ 213266
match 213121
toute 211785
Charles 210579
personnes 210187
sein 209893
site 209390
enfants 209163
Guerre 209028
mise 208036
jours 207742
iste 207417
cet 206378
nombreuses 206014
2015 205470
toutes 205434
2009 205389
porte 205385
Lors 204886
long 203735
M@@ 203575
eur 203342
certains 203306
A@@ 203223
Des 203197
château 202128
isme 201845
│ 200991
p@@ 200688
ordre 200566
six 200504
succès 200251
New 198906
prix 198732
2008 198574
tête 198160
rapport 197810
université 197499
ar@@ 197267
maison 197212
école 196924
or 196618
construction 196478
née 196263
siège 195730
championnat 195550
raison 195360
2012 195092
fille 194930
musique 194043
type 193675
7 193374
Grand 192910
connu 192804
É@@ 192768
N@@ 192591
mer 192164
grâce 192023
province 191963
art 191775
s@@ 191620
jeune 191467
écrit 191421
points 191406
2013 191276
île 190765
hommes 189300
laquelle 189010
développement 188469
remporte 188227
Marie 187953
agit 187605
production 187499
2020 187454
état 186970
ministre 186837
principale 186212
femme 185542
– 185417
enne 184868
istes 184480
participe 184314
g@@ 184147
eu 183968
pouvoir 183871
II 183859
c@@ 183529
âge 183082
joue 182428
aujourd&apos; 182286
corps 181604
mis 181460
c 181410
rencontre 180564
public 180456
Depuis 180420
moyenne 180297
8 180192
création 179626
i 178796
Paul 178715
2016 178631
loi 178584
en@@ 178383
but 177801
u 177749
formation 177594
2007 177400
Allemagne 177306
2017 177249
able 176034
demi 175992
commence 175873
r@@ 175812
version 175542
formula 175383
o 175382
era 175108
joueur 174875
côté 174811
2006 174453
Coupe 174282
dernière 174129
François 173879
femmes 173478
suivante 173353
ette 172574
the 172421
football 172402
A 172026
seul 171867
tes 171623
ancienne 171436
ques 171436
va 171400
n@@ 171326
route 171039
grands 170891
zone 170598
ceux 170504
plan 170378
furent 170268
1990 169852
devant 169710
petit 168301
déjà 168000
t 167742
travaux 166974
or@@ 166806
retour 166555
ères 165882
Ch@@ 165803
obtient 165227
militaire 164707
met 164620
direction 164598
République 163800
différentes 163793
Italie 163630
terme 163537
Ar@@ 163279
élections 163264
passe 162960
ins 162859
Mar@@ 162774
date 162733
and 162718
John 162611
chanson 162358
anglais 162252
an@@ 162174
mère 161969
ens 161840
produit 161204
parmi 160816
on@@ 160797
Avec 160792
o@@ 160691
D&apos; 160322
genre 159309
réseau 159268
milieu 158822
gt 158707
tandis 158681
con@@ 158182
H@@ 158122
parti 158117
abord 158041
I@@ 157948
espèces 157927
20 157770
ages 157183
dix 156686
2005 156390
frère 156334
parfois 156240
eurs 156207
ales 155742
2019 155706
ais 155673
communauté 155660
liste 155370
Cependant 155307
sols 155029
b@@ 154934
donne 154704
ateur 154644
seulement 154583
utilisé 154345
Sur 154151
particulier 154032
15 153748
Description 153224
édition 153161
cadre 152906
beaucoup 152215
britannique 152120
ers 151755
huit 151662
directeur 151546
sur@@ 151376
v@@ 150905
zones 150720
par@@ 150561
York 150480
im@@ 150225
ise 150185
américaine 150113
aurait 149913
Ses 149812
ér@@ 149731
différents 149654
l@@ 149531
Union 149468
Jacques 149441
recherche 149251
division 149212
E@@ 149204
second 149129
créé 148819
international 148630
scène 148483
réalisé 148404
font 148371
sorti 148324
bataille 146679
fonction 146673
épouse 146464
ite 146300
sept 146214
me 145965
K@@ 145939
co@@ 145633
as 145602
occupation 145495
ique 145329
sens 145213
aide 145125
principalement 144932
auteur 144911
autour 144847
2004 144770
victoire 144573
9 144511
existe 144267
Z@@ 144258
t@@ 143973
... 143906
cependant 143846
al@@ 143762
objet 143751
surtout 143298
ni 143250
premières 142878
Canada 142533
livre 142441
rivière 142381
di@@ 142048
m 142011
petite 141921
équipes 141604
publié 141420
plupart 141018
d@@ 141015
mouvement 140985
millions 140899
seconde 140541
12 140511
Jeux 140497
ard 140448
J@@ 140421
bois 140400
1999 140177
ure 140042
ables 139905
rejoint 139663
style 139611
ad@@ 139331
Université 139223
Conseil 139147
allemand 138984
is@@ 138983
cause 138614
C 138595
activité 138272
Espagne 137735
lt 137726
quartier 137316
mesure 137132
domaine 136890
entreprise 136836
langue 136699
comté 136611
demande 136475
lequel 136426
là 136055
reçoit 136007
f@@ 135870
juin 135693
avaient 135443
haut 135410
ag@@ 134780
Afrique 134690
gare 134669
marque 133599
œuvres 133419
Parti 132838
Angleterre 132708
élu 132630
proche 132492
données 132357
appelé 132325
seule 132302
classe 132106
el@@ 131818
roman 131814
manière 131687
ue 131484
ap@@ 131412
finalement 131317
z@@ 131157
fer 130945
antes 130117
gauche 129918
suivant 129917
jamais 129912
conseil 129880
station 129870
propre 129171
2002 129152
mai 129050
européenne 129013
historique 128983
étude 128883
lorsque 128814
té 128689
os 128611
j@@ 128575
important 128466
tels 128426
nouvelles 128380
mars 128233
eaux 128156
possède 128133
position 127939
1998 127821
septembre 127763
moment 127726
article 127670
dire 127166
voir 126927
donné 126920
présence 126723
certaines 126144
h@@ 125422
matchs 125287
2003 125204
Robert 125155
principal 125074
Ligue 124870
occasion 124775
ane 124756
1980 124737
groupes 124425
Henri 124371
ot 124286
cela 124004
parc 123981
référence 123981
quand 123806
2001 123783
&#91; 123773
annonce 123430
voit 123274
&#93; 123062
jeunes 123006
juillet 122991
Historique 122919
généralement 122892
! 122873
octobre 122856
Tour 122842
° 122780
canton 122522
per@@ 122328
Carrière 122045
Al@@ 121955
ti@@ 121848
inter@@ 121786
travers 121690
théâtre 121646
permettant 121481
re 121480
classement 121472
ab@@ 121471
Géographie 121417
grandes 121017
ets 120802
po@@ 120799
= 120704
terre 120698
Joseph 120543
ements 119840
construit 119738
mé@@ 119723
amp 119659
av@@ 119645
professeur 119629
capitale 119626
course 119595
sort 119497
Michel 119378
Ainsi 119256
Londres 119008
taux 118917
Est 118810
Québec 118473
y@@ 118403
em@@ 118223
1970 118206
Japon 118140
30 118114
culture 117991
villes 117928
politiques 117877
11 117730
Nouvelle 117647
én@@ 117476
compétition 117380
voie 117331
vue 117228
bi@@ 117215
bâtiment 117042
16 116986
e@@ 116896
ac@@ 116267
celles 116157
compagnie 116147
administration 116117
rapidement 116035
organisation 116007
ès 115860
2021 115824
composé 115777
0 115738
janvier 115491
meurt 115448
district 115446
action 115392
it 115334
résultats 115272
termine 115233
mètres 115016
décide 115014
am@@ 114933
internationale 114848
i@@ 114631
retrouve 114585
musée 114514
meilleur 114504
18 114463
14 114457
importante 114384
ir@@ 114305
I 114207
troupes 113897
prendre 113851
avril 113718
services 113637
ol@@ 113555
activités 113552
1950 113356
Liste 113341
auprès 112922
ét@@ 112723
serait 112687
San 112597
entrée 112457
campagne 112422
Empire 112340
décembre 112218
films 112178
climat 112123
Pays 112111
euse 112088
août 112071
comprend 112042
Grande 111656
ceinture 111612
sortie 111354
carte 111259
che 110867
créée 110835
Si 110792
it@@ 110519
programme 110402
Pendant 109860
Église 109677
novembre 109610
comte 109590
actuelle 109486
19 109159
unique 109151
at@@ 109049
droite 108892
a@@ 108726
fort 108479
populaire 108396
supérieur 108196
tr@@ 108187
h 108172
ennes 108069
Rome 107899
atteint 107637
li@@ 107637
13 107558
générale 107432
faisant 107111
droits 106940
lac 106929
isation 106814
économique 106772
17 106771
m@@ 106694
voix 106484
forces 106453
br@@ 106144
Pologne 106084
Seconde 106046
total 106040
départ 106005
argent 105990
Comme 105869
sou@@ 105744
Chine 105687
ï@@ 105683
terres 105604
Car@@ 105507
ance 105453
Sainte 105384
ot@@ 105312
cinéma 105206
particulièrement 105180
association 105115
om@@ 105055
contrôle 104831
modèle 104727
possible 104710
B 104697
découvert 104676
russe 104652
1960 104608
honneur 104594
x 104438
ia 104008
nous 103951
ar 103904
produits 103787
car@@ 103781
Dé@@ 103606
pris 103493
intérieur 103470
espace 103215
mon@@ 103129
champion 102980
Ouest 102959
ents 102830
W@@ 102772
nouveaux 102689
Belgique 102636
ille 102580
na 102485
port 102434
25 102398
désormais 102364
façon 102315
ines 102302
large 102274
semble 101655
? 101652
u@@ 101528
etc. 101483
municipalité 101440
Prix 101414
… 101166
territoires 101101
critique 101067
ène 101067
Cet 100979
Russie 100971
— 100971
arrivée 100970
Ré@@ 100775
1991 100755
Philippe 100728
axe 100584
Deux 100558
signe 100523
éléments 100346
personnage 100283
Royaume 100246
Plusieurs 99947
combat 99680
Bar@@ 99344
joueurs 99337
aucun 99220
mettre 99139
da 99038
élection 99005
il@@ 98986
titres 98901
centrale 98733
février 98574
sol 98456
Amérique 98247
contrat 98147
ic@@ 98090
altitude 98069
David 98049
importance 98034
vingt 97763
accès 97737
dessus 97625
olympiques 97571
assez 97547
Centre 97475
chemin 97406
er@@ 97377
ter 97348
tique 97200
U@@ 96999
oc@@ 96909
terrain 96907
ain 96733
ence 96674
1997 96655
allemande 96417
An@@ 96351
devenu 96297
publie 96291
mission 96127
els 96120
ton 96088
teur 96074
double 95988
ex@@ 95941
historiques 95866
ier 95843
court 95796
di 95750
duc 95732
attaque 95720
Con@@ 95656
température 95624
astéroïdes 95567
1995 95533
outre 95425
Durant 95377
évolution 95312
École 95210
émission 95183
1996 95171
travaille 95152
évêque 95098
trop 95074
surface 95026
quitte 94884
ateurs 94762
situation 94759
maire 94757
prise 94644
quatrième 94582
devenir 94452
journal 94174
vient 94165
libre 94118
Mon@@ 94082
24 94077
quant 94029
marché 93961
III 93869
passage 93807
100 93762
situe 93719
artistes 93618
rouge 93575
dis@@ 93536
kilomètres 93356
pont 93149
affaires 93098
bas 93090
Martin 93048
publique 93031
es@@ 92907
us@@ 92832
z 92826
bord 92740
f 92628
connue 92558
ologie 92556
ay 92482
anciens 92479
personne 92328
gr@@ 92318
apparaît 92296
In@@ 92231
inscrit 92166
Bien 92131
majorité 92117
ur@@ 91951
as@@ 91875
um 91817
italien 91801
salle 91740
lignes 91688
isé 91577
principaux 91566
rend 91400
santé 91273
ra 91182
Y@@ 91112
1992 90911
source 90616
Cor@@ 90614
compris 90472
pièces 90329
parties 90320
représente 90229
technique 90175
intérêt 90164
astéroïde 89958
utilisation 89947
plutôt 89906
ouvrage 89865
+ 89852
bourg 89851
fit 89797
1994 89759
ités 89711
D 89704
Georges 89576
heures 89511
gu@@ 89446
saint 89410
Première 89387
taille 89195
Société 89116
os@@ 89036
montre 88979
divers 88956
toutefois 88905
ire 88889
ill@@ 88877
ro@@ 88724
50 88674
derniers 88643
vidéo 88579
recensement 88570
charge 88521
cor@@ 88504
idée 88504
ites 88503
ul@@ 88498
man 88438
faible 88324
one 88288
agricoles 88279
arrière 88234
télévision 88101
unité 88094
reçu 88077
valeur 88074
vallée 88065
ami 88046
FC 88007
Du 87878
air 87866
simple 87852
force 87677
sécurité 87671
telle 87575
ente 87545
arts 87524
côtés 87090
malgré 87086
cour 86970
ass@@ 86898
1981 86873
mar@@ 86719
km 86685
qu@@ 86665
Bretagne 86659
sciences 86608
Parmi 86500
jeux 86413
ate 86222
op@@ 86188
Thomas 86136
chapelle 86130
peintre 85966
aucune 85931
longueur 85790
considéré 85658
André 85455
forte 85438
pratique 85425
tournoi 85328
mariage 85322
issue 85297
Bou@@ 85285
pu 85276
21 85269
clubs 85198
secteur 85194
1993 85168
savoir 85167
vice 84949
Suisse 84744
moitié 84711
vi@@ 84666
ver@@ 84637
ac 84476
conditions 84465
Or@@ 84457
ues 84418
bande 84291
livres 84255
William 84223
petits 84122
formes 83957
passé 83904
Club 83873
propose 83798
ade 83758
Elles 83728
ir 83663
reprises 83658
au@@ 83644
Ver@@ 83640
utilisée 83623
section 83602
mo@@ 83518
alité 83515
buts 83462
acteur 83350
Plus 83180
presse 83098
maître 83033
abbaye 83005
célèbre 82817
chaîne 82662
police 82656
influence 82580
défense 82553
erie 82537
représentant 82519
régions 82456
fonctions 82420
proximité 82380
1975 82339
lorsqu&apos; 82299
longue 82275
catholique 82191
1988 82140
hauteur 82120
nuit 82105
ta 82099
comptait 82029
presque 81960
faut 81911
neuf 81883
qualité 81873
mes 81831
ai 81753
empereur 81746
secrétaire 81715
moteur 81714
Par@@ 81677
sujet 81656
main 81625
1971 81624
ent@@ 81544
député 81461
médaille 81459
commerce 81410
Mal@@ 81406
Institut 81371
Dès 81308
nes 81307
pi@@ 81257
sélection 81111
Per@@ 81106
évolue 81087
ettes 81070
22 81038
accord 81017
enseignement 80793
armes 80791
vitesse 80746
tableau 80736
entreprises 80724
personnages 80711
types 80698
jusqu 80688
ka 80673
trans@@ 80629
Claude 80591
k@@ 80501
onne 80456
protection 80446
cr@@ 80443
anti@@ 80436
réalise 80407
Bas 80364
mot 80360
soutien 80339
suit 80205
royaume 80115
certain 80047
lieux 79923
doivent 79866
arrondissement 79707
iser 79704
Académie 79678
relations 79560
artiste 79490
prince 79479
mêmes 79429
siècle 79407
cité 79400
hiver 79212
fondé 79157
actuel 79040
James 78958
enfant 78892
iques 78886
nature 78859
Ber@@ 78740
gestion 78704
permis 78670
sé@@ 78641
man@@ 78614
major 78559
Entre 78552
pierre 78537
principales 78529
Mor@@ 78508
voïvodie 78457
George 78410
Uni 78405
ve 78369
appelée 78334
orbite 78289
épisode 78233
hors 78232
Tr@@ 78227
probablement 78045
id@@ 77996
ner 77911
ina 77890
moyen 77877
Championnat 77795
continue 77752
structure 77741
débuts 77726
ts 77723
ph@@ 77479
militaires 77430
ég@@ 77382
Bo@@ 77368
23 77360
1989 77336
Gu@@ 77320
monuments 77220
Loire 77114
fondée 76957
professionnel 76931
mode 76841
alisation 76776
Australie 76705
Nicolas 76702
to 76648
tel 76627
ures 76605
parents 76395
localité 76359
composée 76267
arrive 76259
joué 76037
décrit 75916
naissance 75906
offre 75894
cré@@ 75871
ies 75850
cour@@ 75763
haute 75749
pièce 75730
sociale 75709
Lyon 75702
blanc 75638
bâtiments 75497
rendre 75463
ides 75392
appel 75371
th@@ 75342
régime 75325
En@@ 75300
Premier 75295
circonscription 75251
pied 75182
ren@@ 75171
ouverture 75165
patrimoine 75022
dispose 74999
présent 74971
nommée 74964
traité 74957
navire 74926
jouer 74873
énergie 74869
noms 74832
-@@ 74828
év@@ 74785
obtenir 74732
X 74717
lance 74714
enfin 74681
minutes 74607
chansons 74565
teurs 74441
éducation 74379
bou@@ 74267
phase 74228
mal@@ 74181
diverses 74177
chargé 74169
tournée 74148
concernant 74146
derrière 74138
question 74109
figure 74089
mont 74052
locale 74008
moderne 73995
forêts 73963
îles 73959
catégorie 73929
vit 73911
bo@@ 73883
atif 73752
pr@@ 73693
texte 73688
40 73600
élève 73569
classique 73532
von 73522
feu 73345
transport 73271
garde 73263
découverte 73220
classé 73199
tions 73114
lettres 73079
techniques 73016
Berlin 72831
capitaine 72751
ministère 72670
écrivain 72665
directement 72656
vu 72583
Br@@ 72479
lo@@ 72410
choix 72398
portant 72368
belge 72302
è@@ 72300
camp 72291
créer 72192
courant 72175
autant 72125
bon 72122
eut 72003
Richard 71959
caractéristiques 71939
et@@ 71909
usage 71875
pl@@ 71861
constitue 71801
pourrait 71789
couleur 71784
coup 71723
statut 71605
noir 71578
quement 71536
cher 71522
donner 71495
Th@@ 71459
k 71425
res 71422
reprend 71311
via 71148
cu@@ 71147
1986 71134
ni@@ 71012
bar@@ 70850
so@@ 70791
Terre 70763
passer 70743
ma@@ 70724
utilise 70695
bassin 70622
com@@ 70595
économie 70575
vol 70508
Association 70434
Alors 70315
revient 70224
ig@@ 70096
navires 70059
crée 70056
désigner 70053
puissance 70041
use 69978
actuellement 69946
frères 69890
conseiller 69762
dernières 69711
Révolution 69710
occupe 69699
social 69662
hôtel 69644
000 69619
théorie 69619
Caractéristiques 69601
exploitation 69491
voyage 69468
bonne 69378
Synopsis 69358
collection 69286
stade 69253
suivantes 69246
peuple 69184
V 69030
26 69003
problèmes 68939
sert 68923
pe 68904
emploi 68876
industrie 68862
architecte 68860
latin 68803
scientifique 68717
participation 68712
numéro 68707
essentiellement 68705
ler 68650
opération 68646
seront 68629
sœur 68581
actions 68572
cœur 68558
soldats 68514
1984 68426
frontière 68341
mondial 68307
Ro@@ 68263
entraîneur 68137
objectif 68128
exposition 68023
image 68004
record 67941
construite 67932
défaite 67919
auteurs 67897
Guillaume 67886
chant 67855
décision 67763
sources 67762
officiellement 67709
br 67596
él@@ 67579
suivi 67540
cartes 67518
1987 67436
Mont@@ 67418
supérieure 67392
ing 67386
saisons 67354
Com@@ 67338
devait 67337
langues 67322
ellement 67308
der 67263
Re@@ 67198
palais 67195
sub@@ 67157
je 67091
mal 67064
gouverneur 66988
ains 66950
col@@ 66891
1985 66881
central 66874
arrêté 66863
Malgré 66860
commencé 66843
rien 66831
ec@@ 66767
conduit 66693
sites 66651
obtenu 66633
soviétique 66603
ob@@ 66568
littérature 66535
1930 66523
Qu@@ 66442
actrice 66405
1968 66383
déclare 66370
rec@@ 66351
fond 66349
naturel 66201
remporté 66201
existence 66157
revue 66154
Antoine 66080
formé 66054
Haute 66014
am 65981
Seine 65973
ché 65955
mi 65893
aise 65829
Montréal 65806
loin 65759
Di@@ 65743
Ma@@ 65741
retraite 65590
concours 65556
single 65542
importants 65525
Val@@ 65472
r 65470
ini 65459
1945 65393
g 65356
propriété 65355
Alexandre 65340
pape 65328
épreuve 65327
R 65291
physique 65275
opposition 65267
européen 65263
étape 65256
del 65241
environnement 65193
mieux 65132
changement 65066
Moyen 65061
aine 65018
telles 65007
tiques 64969
tours 64951
indépendance 64943
largement 64888
1940 64854
densité 64811
ém@@ 64810
F 64779
disposition 64776
lie 64769
1982 64726
critiques 64711
meilleure 64622
b 64617
objets 64584
Dame 64548
établissement 64541
can@@ 64465
studio 64305
National 64242
semaine 64236
françaises 64231
28 64208
Cela 64182
remplacé 64180
to@@ 64167
architecture 64133
ois 63958
tiers 63905
si@@ 63880
Assemblée 63834
vol@@ 63809
côte 63796
recherches 63782
ice 63776
mor@@ 63734
ri@@ 63685
un@@ 63624
semaines 63615
Californie 63614
tu@@ 63601
permettent 63593
ci@@ 63587
magazine 63576
27 63548
Gr@@ 63539
suivants 63502
aller 63484
Royal 63356
Autriche 63257
relation 63236
familles 63227
montagne 63213
commandant 63163
tient 63119
lutte 63016
Français 62994
Anne 62993
rejoindre 62988
regroupe 62975
textes 62954
capacité 62936
religieux 62910
japonais 62909
1983 62865
peinture 62860
communication 62831
─ 62831
coupe 62808
personnel 62794
maisons 62791
processus 62753
matière 62738
championnats 62678
forêt 62649
M 62542
extérieur 62462
limite 62455
prison 62384
char@@ 62355
journaliste 62327
le@@ 62310
ats 62277
Co@@ 62272
superficie 62269
1972 62242
éditions 62167
commun 62154
ouvrages 62150
longtemps 62138
couleurs 62120
distance 62087
régulièrement 62080
utiliser 62076
projets 62069
Mexique 62014
constitué 62009
né@@ 62008
Notre 62001
ici 61962
utilisés 61911
T 61908
Dieu 61907
ouvert 61882
gmina 61867
ter@@ 61839
tradition 61819
ates 61787
Mo@@ 61771
El 61652
animaux 61628
royale 61604
règne 61582
marquée 61550
Col@@ 61523
Bernard 61514
x@@ 61494
radio 61490
Maurice 61472
éch@@ 61396
diamètre 61345
durée 61339
Albert 61281
U 61267
sommet 61217
locaux 61216
1973 61078
H 61073
label 61067
devint 61054
cinquième 61014
éc@@ 60985
Toutefois 60984
intitulé 60977
ore 60906
men@@ 60848
quelque 60831
ana 60802
af@@ 60767
espagnol 60767
isée 60757
atteindre 60690
Del@@ 60686
dollars 60659
signifie 60641
veut 60629
couple 60625
faveur 60619
ème 60618
information 60605
autorités 60512
régiment 60438
écoles 60434
1976 60429
seigneur 60391
lois 60369
Sous 60341
Mé@@ 60337
crise 60300
réalisée 60286
bronze 60274
lettre 60250
réserve 60240
perd 60222
1979 60211
rive 60206
édifice 60179
comporte 60136
end@@ 60125
ex 60117
IV 60112
caractère 60087
1920 60081
paroisse 60079
E 60070
1977 60065
Enfin 60021
1974 59987
importantes 59967
trouver 59962
originaire 59951
séries 59939
plantes 59930
inc@@ 59865
Certains 59824
Vienne 59811
américains 59716
paix 59672
Am@@ 59639
contient 59614
expérience 59598
débute 59591
ches 59583
alement 59547
connaît 59435
responsable 59403
chacun 59384
ach@@ 59382
comité 59374
entes 59308
entièrement 59286
trouvent 59274
répartition 59259
ski 59243
train 59239
chambre 59186
affaire 59154
cimetière 59153
événements 59098
1978 59061
former 59045
Inde 59002
faisait 58981
conflit 58967
nouvel 58952
rurale 58924
ole 58851
participé 58776
Le@@ 58758
aliste 58742
Michael 58700
étudiants 58684
acte 58673
articles 58644
Vi@@ 58643
Festival 58631
Sal@@ 58584
anti 58497
Los 58464
Avant 58415
civile 58406
ouvre 58391
Parlement 58341
M. 58318
Bruxelles 58316
appartient 58246
.@@ 58222
tre 58203
Trois 58076
déroule 58068
privée 58063
apparition 58051
juste 58027
Henry 57977
Leur 57958
néanmoins 57946
Fédération 57868
attraction 57866
Asie 57846
filles 57799
dessous 57768
ile 57766
powiat 57755
no 57732
ressort 57681
p 57558
traitement 57557
commandement 57554
ma 57546
gé@@ 57524
parvient 57488
lycée 57483
Brésil 57282
marine 57260
petites 57240
no@@ 57239
ey 57231
bal@@ 57229
installe 57219
urbaine 57178
romaine 57169
ser@@ 57137
Lorsque 57120
maladie 57119
épisodes 57112
hockey 57111
réalité 57089
lumière 57043
construire 57004
usine 56990
ano 56945
artistique 56888
difficile 56855
mains 56787
N 56779
Chambre 56727
lieutenant 56566
variables 56556
informations 56552
uses 56488
ba@@ 56465
hôpital 56441
unités 56437
Man@@ 56419
totale 56402
dite 56399
1967 56376
élevé 56280
co 56278
principe 56257
féminin 56244
faits 56216
explique 56137
pression 55992
analyse 55897
maintenant 55893
étudie 55887
italienne 55835
indique 55805
Po@@ 55791
amis 55774
van 55747
ative 55731
cro@@ 55715
anciennes 55630
commission 55616
ch 55598
diffusée 55558
jeunesse 55551
local 55524
organisé 55522
diffusion 55513
Se@@ 55480
professionnelle 55450
problème 55422
sal@@ 55392
ien 55391
infanterie 55389
Âge 55377
champ 55342
mandat 55332
approche 55268
Cour 55265
vont 55234
couronne 55226
ball 55205
poids 55150
fonds 55122
aud 55120
vous 55106
fr@@ 55044
armées 55033
29 55018
doute 55008
passant 54999
appelle 54992
issant 54955
amour 54936
compositeur 54920
vente 54918
décret 54914
cathédrale 54901
porté 54893
opérations 54884
publiée 54874
permettre 54866
rugby 54866
Sou@@ 54837
villages 54825
fortement 54805
60 54794
200 54792
futur 54770
justice 54760
lendemain 54741
propriétaire 54726
municipal 54688
Pr@@ 54672
finit 54641
code 54613
victoires 54596
manque 54491
enc@@ 54472
score 54454
ang@@ 54439
alisme 54408
développé 54397
ol 54366
déc@@ 54365
El@@ 54353
absence 54351
élèves 54347
devenue 54314
nos 54291
chinois 54267
termes 54237
for@@ 54199
1969 54080
uniquement 54067
collaboration 54055
publication 54047
our@@ 54045
Al 54039
étend 54030
Puis 53962
meilleurs 53962
Char@@ 53957
pouvant 53879
voiture 53776
connaissance 53758
Bel@@ 53757
Alpes 53754
systèmes 53749
mémoire 53745
qué 53721
basé 53652
ge 53652
Laurent 53594
illes 53557
tombe 53500
ète 53500
ani 53482
écriture 53460
ut 53453
dirige 53430
ru@@ 53419
agriculture 53394
fleuve 53392
tif 53385
ad 53342
éri@@ 53327
soient 53312
appartenant 53304
morts 53285
mesures 53246
su@@ 53239
sorte 53237
régionales 53236
its 53226
modèles 53130
res@@ 53093
expression 53077
grec 53062
outil 53038
établir 53019
risque 53009
fondateur 53005
réalisateur 52992
De@@ 52988
candidat 52960
ép@@ 52944
fonde 52922
NGC 52906
liberté 52837
dispute 52808
Bal@@ 52745
Maison 52664
publics 52632
Moscou 52631
oux 52604
portée 52604
festival 52589
bureau 52581
journée 52574
régional 52517
douze 52477
euses 52452
plein 52436
S 52423
st@@ 52420
lesquels 52409
ino 52264
socialiste 52256
80 52254
cal@@ 52236
propres 52226
issement 52223
parcours 52222
rang 52209
1964 52175
Commission 52169
Sh@@ 52147
résultat 52122
tente 52119
Algérie 52110
agricole 52107
mari 52084
poursuit 52069
1962 52030
Daniel 52017
esprit 52013
fondation 52004
As@@ 52000
éviter 51989
Marseille 51972
fer@@ 51941
Be@@ 51937
chute 51911
valeurs 51900
note 51884
philosophie 51820
1944 51806
St@@ 51731
vote 51727
participer 51695
nécessaire 51689
naturelle 51676
enquête 51660
éré 51657
parce 51651
lit 51639
visite 51608
lier 51607
effectue 51586
application 51567
peine 51545
proches 51545
avion 51517
véritable 51516
composition 51494
médecine 51482
rock 51475
actif 51447
aines 51446
Irlande 51405
Art 51404
Sch@@ 51404
tri@@ 51394
ises 51372
basse 51371
suisse 51333
reprise 51306
désigne 51285
Championnats 51282
dou@@ 51281
ira 51254
présenté 51249
Vie 51240
ov@@ 51218
ti 51199
1965 51185
dû 51131
ak@@ 51121
scientifiques 51079
méthode 51065
City 51005
travailler 50999
relativement 50965
fusion 50925
tion 50824
1966 50808
reine 50789
son@@ 50723
Q@@ 50718
annuelle 50684
lu@@ 50667
iss@@ 50649
Marc 50639
de@@ 50624
collège 50611
gaz 50602
portes 50570
cheval 50552
rée 50501
ev@@ 50491
places 50461
do 50421
officier 50411
conception 50407
Peter 50393
officiel 50360
ta@@ 50357
pilote 50344
législatives 50302
vin 50220
onn@@ 50206
René 50145
moyens 50134
chanteur 50078
caractérisée 50062
Des@@ 50042
photos 50028
puisque 50023
ov 50021
all@@ 49988
ff@@ 49962
World 49951
sport 49949
promotion 49938
thème 49908
ell@@ 49872
assurer 49865
ata 49811
31 49798
communiste 49782
euros 49758
Distribution 49723
domicile 49713
Toulouse 49692
monument 49669
voire 49633
domaines 49628
vis 49617
Quelques 49604
agent 49593
Ab@@ 49588
juge 49588
O 49573
ciel 49550
voies 49546
For@@ 49525
G 49469
Et 49415
masse 49374
éd@@ 49335
Chaque 49319
1939 49272
trente 49247
laisse 49243
complexe 49242
Bor@@ 49220
fs 49189
X@@ 49173
sa@@ 49170
Tout 49122
raisons 49072
vert 49065
pouvait 49063
rapide 49051
diocèse 49039
disque 49033
aï@@ 49003
seur 48999
Maria 48960
biens 48943
atique 48912
engage 48911
footballeur 48882
arabe 48870
polonais 48855
intègre 48852
procès 48850
ferroviaire 48848
écrite 48809
autorité 48805
économiques 48789
Aux 48788
avions 48706
gros 48701
arrêt 48700
1958 48666
Musée 48661
P 48617
science 48605
sauf 48599
étranger 48599
Angeles 48582
élus 48518
bl@@ 48493
w@@ 48482
tor@@ 48398
Li@@ 48386
Comité 48355
résistance 48348
la@@ 48337
aériennes 48321
isant 48302
Land 48235
&#124; 48225
dirigé 48210
auparavant 48150
députés 48130
naît 48081
hommage 48080
sait 48071
1866 48026
réaliser 48009
lé@@ 48004
illé 48003
Celui 47999
Lo@@ 47998
contexte 47987
Har@@ 47974
Démographie 47947
og@@ 47934
Gar@@ 47923
heure 47889
gi@@ 47854
ades 47837
and@@ 47816
populations 47777
télé@@ 47746
concept 47744
ment 47738
endémique 47725
perdu 47640
officielle 47601
Étienne 47598
ve@@ 47595
utilisant 47546
matériel 47542
semi 47541
universitaire 47500
ant@@ 47482
Suède 47456
1963 47426
ologique 47370
atrice 47369
effets 47357
don 47352
littéraire 47352
porter 47352
Cal@@ 47340
ing@@ 47295
albums 47281
Pi@@ 47278
canal 47255
découvre 47226
be 47210
décédé 47202
naturels 47169
parle 47164
ences 47157
électrique 47147
kh@@ 47123
communale 47119
Frédéric 47114
ots 46982
cou@@ 46944
eff@@ 46892
acteurs 46890
dés@@ 46882
organise 46878
rou@@ 46871
mouvements 46799
aura 46781
culturel 46759
ances 46681
ati@@ 46648
producteur 46632
pan@@ 46623
esse 46622
climats 46602
ne@@ 46587
ordres 46544
initialement 46512
distribution 46505
Arts 46492
besoin 46485
glace 46483
ez 46475
compose 46474
échelle 46472
Bi@@ 46426
Nouveau 46370
développe 46336
façade 46335
aéroport 46294
respectivement 46283
mi@@ 46278
grille 46265
est@@ 46255
Victor 46235
lis 46225
tôt 46193
chasse 46118
correspond 46109
bat 46103
Ser@@ 46067
ley 46041
abilité 46026
1956 46024
val@@ 46024
commande 45948
oire 45939
ko 45933
actifs 45928
marins 45922
circuit 45892
concerne 45889
Bordeaux 45882
1914 45869
affirme 45868
préfecture 45833
colonel 45814
Armée 45801
plans 45792
tin 45790
lancé 45782
Division 45735
historien 45723
fin@@ 45715
idées 45710
Mer@@ 45708
gagne 45649
traverse 45647
missions 45591
mises 45578
ï 45547
isés 45533
ouverte 45517
titulaire 45502
mur 45495
médecin 45492
iles 45428
Croix 45386
ya 45365
accueille 45359
1948 45339
ins@@ 45333
Her@@ 45294
ferme 45293
croix 45225
International 45221
St 45213
retourne 45198
em 45177
Compagnie 45124
monastère 45118
mots 45082
gens 45060
beau 45036
rencontres 45003
1946 44998
Can@@ 44991
génération 44981
romain 44972
agglomération 44930
réalisation 44909
établissements 44890
anglaise 44888
britanniques 44841
croissance 44835
Washington 44796
vainqueur 44756
bus 44753
bras 44752
comp@@ 44751
1961 44697
inclinaison 44683
Écosse 44674
lien 44653
propos 44641
tier 44563
appar@@ 44531
not@@ 44531
portent 44511
Grèce 44503
sociétés 44502
faite 44500
disponible 44498
venir 44470
Gal@@ 44433
annoncé 44427
45 44415
ay@@ 44412
publiés 44396
Val 44394
fon@@ 44358
Records 44337
périhélie 44328
Juifs 44265
piste 44264
considérée 44259
Culture 44251
ign@@ 44243
1820 44234
ak 44231
issu 44219
locales 44169
considère 44156
urs 44110
décès 44105
télévisée 44096
guerres 44095
poète 44080
ber@@ 44018
1959 44010
automobile 43996
choisi 43996
produire 43982
olympique 43978
Jules 43946
Groupe 43920
quer 43908
médias 43906
od@@ 43868
victimes 43867
représentation 43866
orchestre 43850
échange 43839
Égypte 43831
représentants 43775
Ville 43762
chevaux 43761
US 43748
envoyé 43738
combats 43718
our 43683
â@@ 43664
thèse 43649
publiques 43639
Cas@@ 43635
vivant 43616
présidence 43612
contact 43590
accessibles 43589
pro@@ 43576
marqué 43573
final 43561
nomme 43549
majeure 43531
isent 43512
Van 43492
delà 43490
riche 43480
Île 43472
concert 43421
pour@@ 43415
Er@@ 43412
dr@@ 43411
ica 43392
sc@@ 43392
rem@@ 43386
abbé 43370
onné 43359
500 43351
1936 43340
avance 43334
réseaux 43330
officiers 43320
ut@@ 43318
1947 43291
régionale 43243
changements 43235
ê@@ 43225
soir 43221
bert 43220
tis@@ 43215
lesquelles 43194
déclaré 43165
ingénieur 43120
japonaise 43114
35 43098
diplôme 43050
religion 43035
impose 43023
murs 43023
Cr@@ 42989
musicale 42983
exception 42982
fil 42959
trains 42949
ur 42945
sièges 42941
Mont 42938
José 42917
So@@ 42913
organisée 42888
sh@@ 42855
Bour@@ 42853
Chicago 42837
vieux 42789
jardin 42733
transports 42731
Roger 42708
départemental 42706
contr@@ 42697
réussit 42695
excentricité 42645
fication 42627
out 42597
culte 42578
quitter 42572
Château 42562
Air 42560
bibliothèque 42541
signé 42534
milieux 42524
estimé 42509
mène 42493
feuilles 42480
révolution 42476
versions 42468
Tous 42455
éro@@ 42442
reconnaissance 42406
développer 42399
physiques 42395
quet 42386
ra@@ 42383
morte 42369
questions 42369
70 42346
restauration 42346
augmentation 42323
estime 42318
èse 42289
Insee 42281
ager 42270
quée 42260
um@@ 42254
front 42244
refuse 42240
Denis 42232
Rhône 42219
ards 42206
Quand 42179
Cour@@ 42175
demeure 42147
ressources 42146
Ri@@ 42137
espagnole 42135
Du@@ 42124
véhicules 42117
Christian 42116
az@@ 42098
temple 42082
idae 42077
originale 42076
sociales 42063
printemps 42041
rég@@ 42012
certaine 42006
précipitations 41998
héros 41990
prennent 41990
Mag@@ 41919
différence 41911
tué 41905
écliptique 41898
avocat 41896
bout 41892
Situation 41874
Ex@@ 41868
génér@@ 41820
entier 41818
1949 41810
prit 41805
endroit 41768
rares 41767
ara 41755
ten@@ 41753
beaux 41745
atives 41734
documents 41734
vo@@ 41722
partage 41703
Ros@@ 41702
essais 41702
1942 41661
Orléans 41659
conserve 41652
Portugal 41644
vivre 41631
ange 41620
oiseaux 41620
1918 41578
vite 41574
conférence 41572
secondes 41566
mettant 41515
jou@@ 41480
flotte 41451
devrait 41421
éli@@ 41395
Mat@@ 41389
ault 41372
branche 41365
illon 41352
Orient 41341
ea 41334
tir 41330
nations 41321
Hongrie 41244
ge@@ 41202
yl@@ 41195
associé 41149
époques 41147
métropole 41145
serbe 41111
prises 41105
1957 41100
Go@@ 41090
j 41089
1954 41072
chanteuse 41069
qués 41065
profit 41061
se@@ 41054
1943 41010
Alain 40982
sociaux 40981
1938 40952
fête 40951
1955 40940
expédition 40927
mat@@ 40926
Pl@@ 40903
enfance 40901
réforme 40877
ki 40865
sent 40848
vaste 40829
berg 40814
chœur 40808
consiste 40801
exemplaires 40776
yeux 40771
ous 40758
consommation 40745
for 40732
étage 40728
page 40697
élément 40688
Santa 40673
adaptation 40666
traduit 40609
90 40590
rant 40588
entr@@ 40571
sixième 40570
établi 40566
forment 40554
Léon 40516
étrangères 40516
volonté 40512
Simon 40500
présents 40494
candidats 40487
piano 40472
accident 40461
basée 40461
noire 40461
revanche 40456
allemands 40450
tres 40442
1941 40438
cap@@ 40437
inférieur 40402
Fr@@ 40350
seuls 40320
atelier 40311
humaine 40303
commercial 40289
progressivement 40284
règles 40266
Auguste 40236
Corée 40235
possibilité 40232
ang 40224
spécialiste 40220
cycle 40188
issent 40169
massif 40168
adjoint 40161
Stade 40157
scènes 40117
dés 40109
Israël 40088
ruisseau 40075
atifs 40067
Petit 40062
appelés 40056
change 40047
sang 40046
prévoit 40030
assure 40007
aider 40000
tribunal 39991
die 39986
ah 39883
voyageurs 39878
Genève 39873
Rou@@ 39863
images 39861
Sol@@ 39849
Climat 39834
libération 39833
ae 39830
bas@@ 39823
reconnu 39816
placé 39812
partis 39786
pal@@ 39783
événement 39779
1952 39767
Es@@ 39763
XV 39758
résidence 39751
vent 39748
nier 39739
identité 39717
32 39702
marche 39683
emplacement 39667
ré 39666
Baptiste 39665
Congrès 39662
ô@@ 39655
présentant 39646
travaillé 39629
complète 39608
Ko@@ 39595
connaître 39584
romans 39579
ari 39562
Madrid 39540
plateau 39535
Comté 39513
discours 39512
original 39511
fl@@ 39503
te@@ 39503
notre 39502
utilisées 39478
connus 39467
q 39456
chemins 39450
rép@@ 39414
Radio 39408
tenu 39408
enti@@ 39373
fabrication 39373
1953 39298
simplement 39267
constituée 39231
2022 39222
puisqu&apos; 39191
College 39183
Provence 39170
ste 39151
champions 39128
Pré@@ 39119
League 39116
espaces 39100
gar@@ 39094
gén@@ 39031
tur@@ 39010
volume 39006
igny 38999
Tar@@ 38977
siècles 38954
privé 38915
Peu 38896
Ag@@ 38890
Nations 38880
iv@@ 38865
repris 38849
poly@@ 38847
prévu 38840
programmes 38836
Répartition 38813
cl@@ 38807
Park 38802
mention 38776
détaillée 38767
Occupation 38743
Édouard 38743
Étymologie 38731
régulière 38721
Maroc 38717
apprend 38716
positions 38711
pen@@ 38708
A. 38695
land 38679
fi@@ 38668
religieuse 38664
chefs 38650
royal 38637
envers 38634
concerts 38630
anes 38615
métro 38603
cul@@ 38585
Av@@ 38582
professionnels 38582
Strasbourg 38573
Toponymie 38571
définitivement 38524
Catherine 38523
be@@ 38514
internationales 38466
denses 38465
1937 38462
Côte 38451
artillerie 38450
ser 38447
rap@@ 38444
Me@@ 38422
personnalités 38419
elli 38392
ges 38391
Jeanne 38374
spectacle 38365
occidentale 38354
consacré 38343
dehors 38341
alisé 38327
précédente 38318
niveaux 38309
majeur 38308
Bon@@ 38306
Milan 38276
Sar@@ 38276
difficultés 38270
acc@@ 38235
rendu 38212
abrite 38201
routes 38180
Or 38150
Savoie 38146
jaune 38133
issus 38107
Économie 38105
sujets 38087
ouv@@ 38086
immédiatement 38083
4@@ 38081
go@@ 38062
asse 38057
ase 38035
logements 38032
écrits 38024
conçu 38012
baie 37991
quartiers 37971
lar@@ 37966
éditeur 37931
démocratique 37916
rôles 37889
Mas@@ 37884
échec 37867
1933 37866
danse 37863
parler 37860
liaison 37836
mines 37828
gal@@ 37809
Marine 37807
8@@ 37804
comparer 37804
distingue 37786
légèrement 37775
parallèle 37763
Allemands 37762
datant 37761
fiction 37734
initiative 37729
voitures 37729
Marcel 37705
Communauté 37670
rées 37669
médi@@ 37665
univers 37664
7@@ 37649
Pe@@ 37642
cas@@ 37629
fédéral 37625
No@@ 37595
1919 37590
courses 37539
sions 37533
succède 37504
Théâtre 37441
européens 37420
intermédiaire 37420
décidé 37419
super@@ 37419
eg@@ 37410
aménagement 37409
rel@@ 37393
scrutin 37375
aqu@@ 37372
cent 37350
eb@@ 37332
administrative 37287
mann 37253
isées 37242
prisonniers 37242
allant 37238
Urbanisme 37204
enn@@ 37190
1951 37183
fa@@ 37167
automne 37166
nationales 37166
blanche 37165
performance 37145
marin 37138
dynastie 37136
ologue 37118
sor@@ 37113
absolue 37080
Politique 37039
tourne 37020
animation 37015
are 37009
ja 36989
Atlantique 36973
normale 36964
tar@@ 36921
mettent 36893
qualifié 36887
établit 36874
Ordre 36870
1935 36858
La@@ 36833
établie 36820
Kar@@ 36816
Ac@@ 36808
dessinée 36806
donnant 36804
arbres 36779
Su@@ 36764
écrire 36755
associations 36753
enseigne 36753
Vincent 36749
récit 36748
Christ 36743
chevalier 36729
cérémonie 36725
interprète 36725
épreuves 36714
présidentielle 36713
pourtant 36710
Nantes 36708
statue 36699
rep@@ 36686
belle 36667
Administration 36661
ita 36655
prenant 36643
Napoléon 36586
protéger 36537
écologique 36534
prêtre 36502
communautés 36501
fortes 36494
Pyrénées 36492
ed@@ 36462
onze 36459
Ad@@ 36458
cur@@ 36402
départementale 36392
nef 36377
lig@@ 36375
6@@ 36370
intervention 36364
échelles 36351
rues 36332
ban@@ 36322
sav@@ 36319
mathématiques 36318
Argentine 36312
J. 36300
Monde 36297
européennes 36294
océanique 36285
Francisco 36279
Vers 36273
tennis 36270
Haut 36227
do@@ 36211
stations 36199
dessin 36197
basket 36186
secondaires 36148
chacune 36136
Cassini 36114
aspect 36084
conséquence 36078
fleurs 36072
aliser 36051
ens@@ 36048
fonctionnement 36029
cabinet 36025
canadien 36015
chose 36009
bleu 35996
étoiles 35968
étrangers 35966
humains 35950
IGN 35946
ace 35922
graphie 35915
baron 35909
Typologie 35897
vis@@ 35886
phénomène 35885
1929 35878
Cou@@ 35878
5@@ 35848
venant 35839
ik@@ 35804
Sa@@ 35786
suivre 35781
Organisation 35779
ke 35777
trafic 35765
inspiré 35756
tés 35747
féminine 35736
aises 35727
accepte 35677
ux 35671
union 35670
avenue 35650
1934 35648
pu@@ 35628
Ne@@ 35604
oles 35604
dure 35601
ella 35594
archives 35590
chi 35560
oiseau 35560
Roi 35559
Pont 35545
den 35521
quinze 35499
liés 35498
réaction 35491
auquel 35490
trône 35486
appareil 35475
Arthur 35469
promu 35469
assi@@ 35435
solution 35433
Pol@@ 35431
menée 35429
ha 35413
Mac@@ 35408
moteurs 35403
perte 35393
Pro@@ 35380
pé@@ 35341
réponse 35334
isse 35318
entrer 35306
Celle 35302
ger 35294
humain 35289
9@@ 35260
classes 35235
du@@ 35235
Localisation 35231
proportion 35228
1932 35222
courte 35210
ache 35199
classification 35187
limitée 35186
autonome 35184
détruit 35167
├ 35164
aff@@ 35156
retrouver 35151
impériale 35140
émissions 35117
direct 35099
io 35094
ologiques 35094
Néanmoins 35089
esses 35084
1900 35075
actes 35065
sch@@ 35053
emb@@ 35042
diffusé 35040
pouvoirs 35035
Service 35005
contraire 35001
table 34997
victime 34978
restent 34948
oni 34929
révèle 34914
nationaux 34898
Disney 34894
onner 34882
polonaise 34876
min@@ 34870
angle 34852
tentative 34848
matin 34846
rois 34834
Barcelone 34829
serv@@ 34823
circulation 34811
enceinte 34804
secondaire 34797
conservé 34795
installé 34794
por@@ 34788
Normandie 34779
bé@@ 34777
classée 34777
enregistré 34756
dépend 34746
cycliste 34741
musical 34720
franco 34706
mou@@ 34676
Patrick 34662
servir 34645
situés 34608
lin 34597
totalement 34581
extension 34577
3@@ 34573
0,@@ 34572
K 34572
dos 34559
adi@@ 34552
primaire 34547
ō 34543
conseillers 34532
Bourgogne 34530
correspondant 34529
quart 34525
oppose 34500
1928 34483
Marne 34470
salles 34470
ell 34459
pense 34456
licence 34455
communal 34420
néo 34410
auraient 34385
assemblée 34359
Smith 34340
religieuses 34332
Lille 34314
modernes 34302
auto@@ 34297
Vierge 34289
terrains 34289
Fin 34287
School 34271
paru 34271
aérienne 34259
pêche 34242
pe@@ 34240
ographie 34224
naturelles 34187
format 34155
atoire 34138
cer@@ 34135
extrême 34126
disparu 34125
destiné 34116
occupé 34113
Cover 34093
33 34087
Lou@@ 34084
compétitions 34078
1924 34072
Corine 34068
Pal@@ 34064
soutient 34060
constituent 34051
attention 34045
désigné 34044
cardinal 34033
î@@ 34013
by 33994
installer 33980
pointe 33979
Gi@@ 33975
aîné 33959
1910 33955
visant 33939
septième 33927
arbre 33923
représenté 33919
empire 33910
Guy 33905
active 33904
administratif 33881
institutions 33878
vendu 33876
appellation 33835
ènes 33821
précédent 33793
contenant 33789
vision 33781
Por@@ 33780
améliorer 33748
inf@@ 33742
Juan 33724
essai 33717
seurs 33707
mer@@ 33706
montagnes 33694
sportive 33687
Je 33666
conduite 33651
utilisent 33647
Ger@@ 33642
néerlandais 33634
dirigée 33633
numérique 33629
battu 33627
Outre 33623
dirigeants 33608
méthodes 33604
ek 33592
condamné 33586
démocrate 33584
doctorat 33546
comédie 33535
indépendant 33504
américaines 33498
quantité 33498
due 33481
biophysique 33469
Port 33463
Fer@@ 33462
graphique 33452
ote 33442
pratiques 33438
phare 33417
Famille 33402
présentent 33400
prairies 33397
ann@@ 33396
individus 33392
hu@@ 33387
températures 33372
erait 33370
Jeunesse 33351
véhicule 33349
lié 33340
Is@@ 33329
langage 33315
li 33313
incendie 33298
ient 33289
Min@@ 33282
couverture 33278
Ou@@ 33274
ç@@ 33274
précise 33273
gl@@ 33268
mis@@ 33262
nucléaire 33260
CLC 33218
400 33210
servi 33206
col 33178
Antonio 33157
donnée 33151
comprenant 33141
égalité 33129
enregistrement 33084
1870 33082
Super 33076
bu@@ 33060
structures 33054
équipage 33049
musiciens 33039
ajoute 33031
installation 33023
ori@@ 33022
complet 33015
Tokyo 33010
similaire 33010
ules 33007
Mc@@ 32994
Lorraine 32986
300 32978
complètement 32973
performances 32927
liées 32920
har@@ 32906
élevée 32903
grade 32853
coopération 32840
somme 32840
èmes 32838
ément 32832
trice 32784
trouvé 32784
Né 32778
rent 32771
traduction 32738
étudier 32734
centres 32732
organisations 32732
ule 32718
raconte 32714
San@@ 32711
Jésus 32683
1925 32679
sol@@ 32675
intitulée 32656
attaques 32653
trouvait 32651
lancer 32627
constitution 32625
totalité 32615
viennent 32606
gen@@ 32595
sortir 32591
profondeur 32589
Ol@@ 32588
présenter 32581
spécifique 32572
étoile 32569
tive 32554
Kh@@ 32533
veille 32530
coût 32525
géographique 32525
ais@@ 32514
iti@@ 32511
tendance 32466
hé@@ 32460
isi@@ 32454
36 32447
cultures 32447
int@@ 32443
ard@@ 32435
1912 32415
chi@@ 32411
Pou@@ 32405
généraux 32384
tra@@ 32383
canadienne 32380
accueil 32376
desservie 32375
onde 32361
transition 32347
Str@@ 32340
ala 32339
maximum 32334
civil 32328
Raymond 32323
propriétés 32323
docteur 32322
juive 32322
Turquie 32319
identique 32319
Zélande 32314
deviennent 32311
1931 32303
preuve 32298
provinces 32287
chev@@ 32283
ze 32255
quotidien 32254
interprétation 32242
stes 32238
liée 32220
planète 32216
construits 32214
ires 32209
rester 32200
Men@@ 32197
amiral 32190
Mil@@ 32189
multiples 32181
Tor@@ 32155
inscription 32145
ari@@ 32144
observatoire 32139
conn@@ 32104
za 32103
chapitre 32094
oph@@ 32079
oncle 32069
Cap@@ 32062
cellules 32049
tenir 32043
Certaines 32031
der@@ 32025
archevêque 31995
ess@@ 31971
parlementaire 31969
conf@@ 31965
fé@@ 31964
transfert 31958
instruments 31930
directe 31911
interne 31909
pose 31902
typologie 31901
pleine 31896
tournage 31894
introduit 31891
avis 31878
ion 31860
Cl@@ 31857
propriétaires 31854
ah@@ 31837
aile 31830
fil@@ 31812
Jusqu&apos; 31773
fié 31768
liens 31764
églises 31759
Serbie 31750
exécution 31743
affluent 31741
documentaire 31740
peintures 31740
ong 31737
Constitution 31734
quées 31733
météorologique 31727
masculin 31714
antique 31689
2@@ 31685
tenant 31675
postes 31648
ération 31645
Ren@@ 31640
CD 31635
q@@ 31634
barrage 31629
Affaires 31626
Music 31620
terminé 31617
solo 31616
scénario 31590
aye 31586
ri 31583
capable 31578
besoins 31568
remonte 31560
Texas 31558
apparaissent 31558
alités 31551
ètes 31551
Population 31545
Lee 31537
Luxembourg 31535
remplacer 31534
Max 31529
vrai 31522
montée 31505
évolué 31488
Palais 31477
élevage 31477
galerie 31470
invasion 31469
ed 31466
devenant 31463
1921 31453
Colombie 31453
dée 31451
fier 31450
v 31423
origines 31415
Chi@@ 31410
1926 31409
orientale 31402
provenant 31402
accompagné 31401
United 31382
Bl@@ 31371
industriel 31368
étique 31350
Ukraine 31349
lecture 31349
To@@ 31347
me@@ 31345
arc 31338
élite 31314
Alfred 31308
édi@@ 31295
visible 31269
éti@@ 31260
Finlande 31258
agence 31252
1922 31246
four@@ 31244
ach 31241
davantage 31203
destruction 31202
définition 31198
West 31183
situées 31139
condition 31132
Fort 31118
ventes 31118
notion 31098
Président 31095
arme 31075
culturelle 31070
bro@@ 31053
Sénat 31043
laissant 31042
Ang@@ 31036
Norvège 31023
réduit 31023
dur@@ 31021
American 31020
essentiel 31016
facilement 31000
comportement 30998
collections 30997
ulaire 30995
Liège 30988
Gor@@ 30984
Lé@@ 30981
métrage 30981
maritime 30980
Venise 30957
genres 30937
envoie 30932
observations 30922
poésie 30907
iter 30906
irs 30904
acquis 30898
Beau@@ 30892
déf@@ 30872
end 30872
Football 30871
Quatre 30841
internationaux 30837
coul@@ 30834
Danemark 30829
recueil 30810
lancement 30804
Saison 30803
ba 30803
Ho@@ 30799
Ben 30780
Dor@@ 30766
Jack 30763
per 30755
bor@@ 30752
plante 30752
Rhin 30751
laisser 30734
œ@@ 30731
autor@@ 30730
Mary 30724
Si@@ 30724
populaires 30702
ven@@ 30684
ède 30668
extrémité 30666
ama 30657
ligue 30655
rapports 30645
entraîne 30637
Bri@@ 30627
journaux 30616
cel@@ 30594
sélectionné 30590
gamme 30586
bateau 30585
race 30571
représentent 30569
Tch@@ 30568
disparition 30544
aque 30543
nu@@ 30531
budget 30520
1917 30505
élé@@ 30495
matériaux 30486
Tom 30456
Louise 30454
érée 30448
institu@@ 30440
donnent 30429
Nice 30400
pres@@ 30388
* 30387
1927 30386
engagé 30382
électronique 30369
Sé@@ 30366
nomination 30355
Ker@@ 30354
huitième 30352
pensée 30341
Force 30340
onnée 30334
sup@@ 30320
revenir 30312
reprendre 30310
citoyens 30304
Eugène 30282
pierres 30249
hypothèse 30248
conservateur 30247
ran@@ 30239
Internet 30237
bre@@ 30231
ath@@ 30230
Grâce 30229
grecque 30229
technologie 30224
versant 30224
ali@@ 30212
proposition 30208
océan 30204
Cro@@ 30202
installations 30187
nécessaires 30187
atiques 30186
Bre@@ 30184
pér@@ 30177
mille 30173
2,@@ 30164
deviendra 30154
interdit 30137
choisit 30132
rés@@ 30132
sportif 30132
Mou@@ 30124
Garonne 30112
réduire 30110
Ter@@ 30105
cont@@ 30081
roul@@ 30078
Ba@@ 30070
û@@ 30067
canons 30066
ura 30063
Caroline 30051
opéra 30046
milliers 30043
légende 30042
guitare 30038
seraient 30038
icien 30035
préc@@ 30017
alisée 30012
Sur@@ 30011
Dou@@ 29997
dic@@ 29997
risques 29990
radi@@ 29988
contenu 29969
chercheurs 29958
office 29958
Sor@@ 29950
congrès 29945
informatique 29939
formule 29936
Rio 29931
Gabriel 29922
catholiques 29917
relais 29904
Pacifique 29901
Ni@@ 29881
tableaux 29875
lég@@ 29858
récemment 29858
onie 29834
succession 29824
réunion 29813
caractérise 29807
compl@@ 29804
lait 29804
thèmes 29804
alliance 29795
autrefois 29795
sac 29785
vir@@ 29782
rait 29777
conquête 29776
Do@@ 29765
animal 29763
cherche 29763
Hu@@ 29752
duo 29749
classiques 29747
voy@@ 29732
coups 29720
menace 29718
produite 29718
Rom@@ 29717
quasi 29715
av. 29697
Francis 29693
concentration 29689
cavalerie 29677
rav@@ 29676
ices 29667
parole 29667
symbole 29667
rés 29643
Ap@@ 29630
pot@@ 29627
remplacement 29619
princesse 29612
évoque 29599
plan@@ 29598
préparation 29585
Mus@@ 29570
étapes 29566
1923 29565
Black 29563
ada 29553
ix 29553
Tur@@ 29522
J.-C. 29511
intérêts 29511
Noël 29505
Olivier 29504
dessins 29487
blessé 29476
colonie 29470
électricité 29465
brigade 29460
tis 29457
hameau 29443
Parc 29436
successeur 29433
dev@@ 29421
tait 29420
million 29413
équ@@ 29413
ves 29410
ablement 29402
pré 29399
tenue 29385
tourisme 29371
responsabilité 29366
B. 29354
disponibles 29347
finales 29345
spatial 29330
ennemi 29322
iers 29319
sin@@ 29315
compter 29311
maintenir 29309
Bur@@ 29303
ain@@ 29303
dieu 29302
Gérard 29288
cercle 29284
Finalement 29256
Renaissance 29255
ys@@ 29247
ów 29241
souhaite 29237
Mi@@ 29231
pas@@ 29228
Frank 29221
J 29211
loc@@ 29192
Mark 29191
expositions 29184
Bu@@ 29182
dem@@ 29181
VI 29179
venus 29173
ich@@ 29164
Bois 29161
eng@@ 29157
Christophe 29156
Im@@ 29141
nés 29137
ref 29131
fédération 29127
mus@@ 29121
prom@@ 29107
variations 29102
catégories 29099
traditionnelle 29086
voient 29084
Inter@@ 29076
34 29073
participent 29072
jusque 29068
Alsace 29063
Hor@@ 29063
jazz 29033
russes 29031
manifestations 29025
ailles 29016
couvre 29014
baisse 29002
départements 29002
Galles 28999
magnitude 28999
ena 28984
he 28983
URSS 28957
ça 28956
cantons 28944
Ben@@ 28943
Fondation 28914
uc@@ 28888
limites 28887
sme 28885
vaut 28885
impact 28878
qualifie 28861
sœurs 28861
38 28856
Météo 28856
formations 28855
drapeau 28852
Sp@@ 28850
cit@@ 28837
Ancien 28835
TV 28830
vaisseau 28824
vigueur 28823
revenu 28816
engagement 28808
lou@@ 28798
accueillir 28783
Ph@@ 28738
commencent 28732
milliards 28729
ars 28721
lot 28721
objectifs 28721
république 28718
Journal 28707
pes 28705
tour@@ 28702
Emmanuel 28700
1913 28686
rement 28682
cin@@ 28654
ji 28651
Sam@@ 28625
renommée 28619
gagner 28614
érant 28608
He@@ 28607
inférieure 28593
montrent 28586
relève 28583
scénariste 28580
remplace 28565
ny 28564
noblesse 28558
cat@@ 28557
tée 28549
calendrier 28542
mâle 28520
Edward 28514
aujourd 28512
huile 28500
mas@@ 28496
1905 28493
inverse 28487
conservation 28482
eté 28482
Hall 28481
chinoise 28463
peau 28457
pages 28450
ca 28448
Ham@@ 28442
poissons 28442
ly 28437
caractéristique 28434
fournir 28430
iens 28427
recevoir 28427
Origine 28408
effectué 28393
thé@@ 28391
Émile 28376
orientation 28365
travailleurs 28363
historiens 28356
Marguerite 28337
ton@@ 28336
Yves 28320
1911 28312
employé 28312
ili@@ 28310
campagnes 28308
industrielle 28305
boul@@ 28300
hi@@ 28292
Pan@@ 28288
centaines 28270
Résultats 28260
fixe 28254
irent 28253
mu@@ 28233
fédérale 28225
chrétienne 28224
Cer@@ 28221
cha 28216
standard 28202
plaine 28198
Star 28179
nom@@ 28179
mener 28155
pilotes 28146
tisme 28142
choses 28135
entière 28116
Red 28101
traces 28097
suivent 28094
Vol@@ 28093
Prince 28092
réussi 28082
Cap 28074
75 28061
ato 28059
sau@@ 28058
transféré 28055
effectuer 28046
ram@@ 28041
laissé 28040
portrait 28013
S&apos; 28009
femelle 28009
Jérusalem 28008
proposé 28007
Fils 27981
Lord 27976
conférences 27975
Aujourd&apos; 27972
ailes 27970
ib@@ 27963
meilleures 27962
quoi 27943
séjour 27942
nul 27938
Munich 27934
partisans 27924
Florence 27893
inscrits 27887
entretien 27882
ail@@ 27878
At@@ 27877
ida 27876
bases 27859
peuples 27856
couvent 27850
Germain 27833
étudié 27827
aj@@ 27823
pieds 27820
climatique 27816
leader 27815
rédaction 27814
clocher 27800
banque 27784
faculté 27776
ist@@ 27775
subit 27768
favorable 27767
bour@@ 27765
ger@@ 27764
Dur@@ 27763
paroles 27758
champs 27750
relie 27745
banlieue 27719
ande 27718
Lu@@ 27708
hér@@ 27703
noter 27702
chrétiens 27696
dits 27692
employés 27676
soins 27660
Lam@@ 27658
longues 27628
gardien 27624
esp@@ 27623
suivie 27622
mécanique 27620
Luc 27617
papier 27591
puisse 27586
élo@@ 27573
AC 27546
ali 27541
accessible 27535
soutenu 27521
discipline 27514
consacre 27506
ev 27503
judiciaire 27493
règle 27489
environs 27482
Company 27476
quarante 27475
Prague 27468
Mol@@ 27461
mauvais 27459
ond@@ 27459
ouvriers 27447
Autres 27445
défendre 27445
relief 27428
supplémentaires 27428
compagnies 27418
indépendante 27413
tifs 27408
mixte 27382
anc@@ 27376
Ju@@ 27371
description 27371
bandes 27370
Bosnie 27362
dimanche 27360
prépar@@ 27360
chiffre 27348
conscience 27344
Congo 27319
Dominique 27317
hétérogènes 27302
her@@ 27300
acide 27295
iller 27288
š@@ 27285
mon 27275
1908 27255
Julien 27255
Tro@@ 27246
présentée 27244
violence 27242
ones 27217
érés 27207
blancs 27197
Scott 27180
ico 27180
tue 27177
net 27169
affecté 27164
côtes 27160
allemandes 27144
volumes 27143
zo@@ 27138
Légion 27137
poursuivre 27118
repose 27115
possession 27101
réel 27098
habitat 27089
précisément 27081
chargée 27079
neau 27070
ond 27067
Mir@@ 27062
C. 27045
duché 27027
monte 27026
Mur@@ 27017
attendre 27015
principes 27015
écran 27011
Bé@@ 26972
des@@ 26964
AS 26962
appui 26955
ner@@ 26955
vé@@ 26955
lan@@ 26954
tro@@ 26926
King 26924
célèbres 26893
agu@@ 26888
O&apos; 26882
pol@@ 26882
contemporaine 26854
pluviométrie 26853
personnalité 26849
scolaire 26838
provoque 26831
urbain 26831
contrairement 26825
machine 26824
Iran 26822
document 26820
# 26789
hautes 26788
particulière 26786
som@@ 26785
responsables 26774
juifs 26773
ome 26769
este 26762
débit 26759
tures 26749
ose 26744
montant 26727
maîtrise 26723
arch@@ 26715
municipales 26711
fruits 26707
francs 26697
bat@@ 26694
poèmes 26694
rare 26688
hom@@ 26686
traite 26683
42 26682
eront 26667
Vo@@ 26666
Région 26660
illage 26651
reliant 26646
Hal@@ 26642
comprendre 26642
destinée 26638
amb@@ 26634
Open 26630
capit@@ 26621
élue 26621
Jo@@ 26620
doubl@@ 26619
auté 26618
exerce 26618
lé 26618
âgé 26617
grave 26615
correspondent 26609
remporter 26607
Dr@@ 26602
machines 26601
eries 26595
invité 26593
rom@@ 26592
anges 26566
igne 26549
Direction 26543
cant@@ 26542
décrite 26542
sel 26541
Anna 26539
peur 26539
passagers 26538
pon@@ 26533
til@@ 26529
mélange 26504
su 26494
im 26492
frontières 26489
tionn@@ 26487
pay@@ 26469
.. 26455
ministres 26449
stratégie 26448
suffrages 26445
qua 26442
agne 26435
juridique 26429
Walter 26420
puits 26419
DVD 26415
moines 26414
Roumanie 26410
coup@@ 26407
Bataille 26383
paraît 26383
coll@@ 26369
réalisés 26369
Méditerranée 26368
consacrée 26367
peint 26363
présidente 26355
Sav@@ 26348
Bas@@ 26341
pertes 26335
boulevard 26325
arables 26324
vapeur 26319
Karl 26318
PS 26304
parlement 26304
fonctionn@@ 26301
Alger 26291
ider 26291
cinquante 26284
Don@@ 26283
anciennement 26278
tie 26265
personnelle 26258
laboratoire 26255
ture 26253
ic 26249
Te@@ 26248
universités 26223
soutenir 26220
Mer 26207
graphe 26201
organisme 26200
transformation 26190
ly@@ 26185
Boston 26178
quitté 26174
ong@@ 26173
imp@@ 26170
\ 26158
nant 26153
photographie 26142
révolutionnaire 26140
duquel 26138
centr@@ 26136
sem@@ 26127
outils 26125
Homme 26123
fondateurs 26116
mag@@ 26108
itaire 26105
successivement 26103
tent 26097
connues 26093
constitu@@ 26090
efforts 26087
agents 26085
chantier 26084
variété 26084
Street 26066
Pon@@ 26056
ys 26051
traversée 26048
Basse 26038
baseball 26030
tal@@ 26019
transmission 26010
qualification 26008
att@@ 26007
Dis@@ 25994
autoroute 25991
compétences 25989
financement 25982
organiser 25976
enregistre 25965
marquis 25959
secret 25959
spéciale 25958
Nancy 25957
37 25950
déterminer 25946
fera 25910
ep@@ 25907
libéral 25905
illy 25898
vestiges 25898
Chili 25891
termin@@ 25885
maréchal 25882
1906 25873
EP 25870
1880 25868
comment 25862
liv@@ 25858
dramatique 25843
marqu@@ 25843
cre@@ 25840
ide 25836
Az@@ 25827
idé@@ 25822
part@@ 25820
Kr@@ 25812
Présentation 25812
attribué 25811
otte 25808
Hol@@ 25803
tuer 25795
revenus 25786
spécialisée 25786
conseils 25767
Ford 25749
continent 25742
regroupant 25741
réputation 25710
jardins 25693
battant 25689
Jones 25670
reg@@ 25670
cad@@ 25658
rouges 25654
alliés 25641
Nor@@ 25640
Mari@@ 25638
riches 25634
frais 25631
ati 25625
grav@@ 25622
mairie 25620
défenseur 25607
Front 25606
introduction 25594
test 25593
athlète 25591
pouvaient 25579
tchèque 25579
augmenter 25578
64 25575
off@@ 25567
Au@@ 25565
indi@@ 25564
représenter 25560
publications 25551
confiance 25546
Ru@@ 25545
graphiques 25541
Cameroun 25532
édité 25531
1907 25530
coalition 25530
rappelle 25522
retrait 25520
bilan 25518
montré 25518
onc@@ 25508
fouilles 25506
morceaux 25498
rendent 25498
paysage 25489
Contexte 25480
Ti@@ 25479
intégré 25469
vivent 25467
Grenoble 25465
tonnes 25464
mené 25445
seigneurie 25441
filiale 25439
intention 25422
tués 25422
fenêtres 25409
largeur 25405
obtenus 25377
péninsule 25370
équivalent 25367
avantage 25342
Rouen 25330
ek@@ 25318
placée 25311
caractères 25295
exil 25291
cm 25284
évoluant 25278
érer 25271
préfet 25270
abandonné 25268
générales 25252
ignant 25247
fréquemment 25240
instrument 25240
maladies 25239
èle 25223
Der@@ 25213
exécutif 25212
conc@@ 25209
destination 25209
poule 25209
franchise 25207
istique 25204
rati@@ 25203
latine 25202
ros@@ 25198
empêcher 25193
Ceci 25184
répartis 25181
autonomie 25178
collectif 25178
administrativement 25175
lam@@ 25171
brû@@ 25147
conséquences 25145
aur@@ 25142
roues 25139
jouent 25119
oniques 25111
sif 25111
limité 25109
institution 25103
Voir 25099
productions 25090
ière 25087
êtes 25081
climatiques 25077
amitié 25072
pôle 25068
Naples 25066
difficulté 25065
prononciation 25056
tourné 25048
débat 25035
électriques 25032
blessés 25019
effectif 25017
bientôt 25011
organismes 25006
entraînement 25003
ici@@ 24992
canon 24988
Tunisie 24980
eta 24978
souff@@ 24966
48 24965
Anglais 24957
seigneurs 24957
Élections 24957
représentations 24947
nois 24944
provient 24943
ors 24937
défini 24927
Victoria 24925
Ali 24924
vécu 24920
adapté 24918
péri@@ 24918
marié 24915
lo 24903
sports 24888
dimension 24881
ête 24879
commerciale 24859
homonymie 24852
financière 24838
Awards 24836
1904 24831
foi 24826
offensive 24824
treize 24820
sec@@ 24817
exclusivement 24803
Équipe 24803
tourner 24798
soleil 24795
Dom@@ 24790
Varsovie 24790
formant 24786
adopté 24783
1901 24775
ieux 24773
requ@@ 24770
min 24766
1915 24755
Manuel 24734
sculpture 24719
catégorisée 24713
secours 24710
Montpellier 24701
séparation 24690
saut 24687
55 24684
découvrir 24684
médailles 24683
cho@@ 24680
décident 24677
rattachée 24669
dédiée 24668
révolte 24664
oires 24656
tire 24649
pourquoi 24636
conséquent 24632
remarquable 24627
amateur 24612
Ur@@ 24609
aventure 24609
figures 24602
verre 24598
nommés 24593
clip 24591
sion 24581
Contrairement 24575
Adam 24570
Williams 24567
Don 24565
assistant 24561
végétation 24561
franc 24540
lin@@ 24538
1860 24535
forteresse 24535
lancée 24535
ca@@ 24529
bénéficie 24523
Sim@@ 24521
fiée 24507
maximale 24507
och@@ 24503
partiellement 24503
Salon 24495
cot@@ 24486
unies 24484
Rouge 24481
az 24480
1890 24466
Bro@@ 24460
alisés 24460
ores 24460
mm 24454
batterie 24442
Géorgie 24437
prot@@ 24436
neveu 24431
toit 24424
œil 24424
dizaine 24418
rose 24417
uss@@ 24414
44 24391
changer 24387
exercice 24379
composés 24373
expansion 24372
faux 24372
Ferdinand 24363
colonnes 24361
inauguré 24360
paramètres 24352
goût 24347
Tours 24344
Composition 24343
remise 24342
iz@@ 24336
sp@@ 24330
Bat@@ 24324
Fl@@ 24322
sons 24321
Man 24316
élevait 24311
formée 24303
Carlos 24271
nière 24264
déclaration 24263
coureur 24262
Ge@@ 24260
concurrence 24247
poème 24242
Auvergne 24229
comportent 24223
adversaire 24214
á@@ 24210
simples 24207
SS 24205
Même 24203
suprême 24201
appareils 24186
répondre 24184
Thé@@ 24177
oli 24176
1909 24171
acquisition 24168
étages 24163
César 24158
Pas 24154
suédois 24154
ment@@ 24151
Metz 24136
jouant 24128
charges 24126
estimée 24113
championne 24108
ési@@ 24105
nation 24101
vide 24101
ève 24100
hor@@ 24098
soci@@ 24096
enter 24094
rier 24093
réduction 24093
domination 24085
exig@@ 24078
divisé 24072
ouvrir 24072
équipements 24071
relative 24063
musicien 24046
Joe 24041
troubles 24034
Sir 24030
négociations 24030
orbitales 24026
participants 24023
spécifiques 24021
contribue 24003
lat@@ 24003
confirme 23995
off 23994
Alexander 23993
spatiale 23991
prêt 23990
venue 23990
traditionnel 23984
disques 23982
échapper 23976
ef@@ 23971
accords 23961
Giovanni 23957
Sc@@ 23953
Toutes 23952
moindre 23950
ry 23950
alimentation 23948
structur@@ 23948
varie 23941
musulmans 23929
périodes 23928
ber 23927
Gilles 23925
Var@@ 23922
uns 23919
Mad@@ 23917
présentes 23915
ova 23912
contemporain 23905
humaines 23897
reconstruction 23888
ju@@ 23880
attaquant 23878
Society 23876
références 23876
remis 23875
Formule 23873
1916 23860
Tri@@ 23859
sen 23859
gares 23854
52 23851
cités 23851
Mel@@ 23848
ul 23846
bâ@@ 23842
tu 23839
colline 23826
traits 23824
Cam@@ 23819
bataillon 23816
cé@@ 23800
XIII 23797
arrêter 23793
taient 23779
externes 23756
observation 23752
S. 23749
réélu 23746
divisions 23743
Ban@@ 23731
39 23717
Pas@@ 23710
apprentissage 23710
log@@ 23706
neur@@ 23700
applications 23697
Versailles 23692
sculpteur 23690
ray@@ 23688
conserver 23680
échecs 23680
ds 23670
Banque 23662
installée 23661
achat 23659
pa 23655
villa 23647
décennies 23645
Hans 23639
Love 23634
défaites 23634
efficace 23594
Dar@@ 23589
oue 23582
SC 23578
cher@@ 23577
définit 23576
clé 23574
devaient 23571
pa@@ 23558
puissant 23545
arr@@ 23542
Samuel 23540
alistes 23537
intervient 23536
affiche 23533
aison 23529
rencontrent 23518
associée 23510
41 23507
noirs 23506
150 23502
appartenait 23497
Parallèlement 23488
virus 23481
échanges 23479
âtre 23478
str@@ 23476
ienne 23470
dimensions 23461
démission 23461
présentées 23460
semblent 23458
touche 23457
prévue 23454
chimie 23452
logique 23446
ola 23442
cesse 23438
Chapelle 23434
1848 23429
jo@@ 23427
araignées 23421
nécessité 23418
municipale 23416
Afin 23413
plat 23409
clair 23397
Gé@@ 23395
danger 23390
Gare 23388
morceau 23367
convention 23366
natale 23362
héritier 23345
P. 23338
métier 23338
ennemis 23337
Gen@@ 23334
accéder 23327
gren@@ 23323
penser 23297
accompagne 23294
Carl 23292
différent 23290
pop 23283
quel 23283
Bau@@ 23274
Kal@@ 23271
expériences 23270
souverain 23270
existent 23266
ker 23258
ateliers 23244
meurtre 23235
civils 23229
biais 23227
mit 23227
électorale 23224
Rennes 23223
signature 23222
Floride 23209
réunit 23208
fournit 23178
possèdent 23175
imposer 23173
conflits 23165
tées 23158
pass@@ 23152
mine 23146
Saxe 23144
65 23143
fermeture 23139
secteurs 23136
Mah@@ 23126
ani@@ 23125
èvre 23121
sie 23119
appr@@ 23117
diplômé 23117
adresse 23115
queue 23111
soirée 23106
ora 23092
w 23091
Johnson 23090
surveillance 23087
développée 23084
fréquente 23081
albédo 23073
prénom 23055
éens 23055
Lac 23051
Far@@ 23045
extrêmement 23045
retrouvent 23044
hab@@ 23040
terrestre 23028
Communes 23021
Syrie 23012
tra 23009
journalistes 22994
ours 22987
Très 22980
bateaux 22969
1902 22968
signifiant 22963
post 22957
solaire 22952
faites 22948
reçut 22937
Toronto 22930
ambassadeur 22928
familiale 22927
contraint 22922
portugais 22921
Ta@@ 22917
seize 22893
junior 22887
traités 22868
On@@ 22864
commerciales 22860
cousin 22853
Oise 22847
aut 22847
voisins 22840
oli@@ 22823
écart 22820
Lor@@ 22813
fau@@ 22810
évêques 22808
ection 22805
facteurs 22797
Rem@@ 22794
1830 22782
référ@@ 22775
ensis 22769
Jan 22761
erreur 22758
cule 22754
pos@@ 22747
Tou@@ 22745
enf@@ 22725
couche 22723
ther@@ 22721
classés 22713
Ontario 22710
Amsterdam 22708
camps 22707
figur@@ 22707
anniversaire 22703
Aix 22701
africaine 22696
monter 22695
urbanisées 22687
Lang@@ 22681
attaché 22671
soumis 22670
tel@@ 22665
rapporte 22664
Os@@ 22663
quent 22663
resté 22663
ame 22661
consom@@ 22661
orgue 22660
L. 22659
VII 22658
procédure 22655
initi@@ 22654
vers@@ 22642
avenir 22641
suffisamment 22636
retire 22633
Racing 22628
sortant 22624
lib@@ 22620
eusement 22619
époux 22610
insectes 22609
vise 22603
Collège 22601
carbone 22591
monnaie 22585
tournant 22581
syn@@ 22580
hongrois 22574
intégrer 22574
Brown 22573
1903 22572
Pin@@ 22571
pur@@ 22571
érique 22568
républicain 22567
représent@@ 22561
yer 22544
anim@@ 22533
Bol@@ 22532
libres 22531
cuisine 22528
bureaux 22527
activ@@ 22519
mét@@ 22504
etti 22503
enterré 22502
tracé 22499
culturelles 22496
commissaire 22490
vins 22490
visage 22489
mand@@ 22486
inclut 22472
onnées 22470
examen 22464
esclaves 22457
continuer 22456
43 22453
Ensuite 22452
territoriale 22451
Alliance 22432
Dan@@ 22428
soixante 22427
Athènes 22426
paysages 22424
All 22422
Ernest 22420
théologie 22419
annuel 22418
tic@@ 22411
provisoire 22408
clients 22406
marchés 22406
abandonne 22400
Fi@@ 22399
Hill 22396
Palmarès 22385
recours 22380
adultes 22372
considérés 22365
impos@@ 22365
sénateur 22365
Kong 22361
isses 22361
procédé 22361
institut 22356
dirigeant 22355
UA 22352
sainte 22350
troupe 22348
Mouvement 22345
Soleil 22345
calculer 22345
anime 22333
universitaires 22333
Britanniques 22323
ler@@ 22322
capital 22317
jette 22308
portail 22304
rythme 22304
salon 22304
contribué 22290
augmente 22287
ponts 22287
Trans@@ 22285
oug@@ 22284
charbon 22271
oir 22267
cancer 22266
Félix 22264
Défense 22259
rarement 22255
respect 22252
bons 22251
oni@@ 22251
répond 22249
Temple 22247
ha@@ 22243
proj@@ 22238
Guinée 22237
histoires 22233
R. 22232
galaxies 22232
maillot 22232
occuper 22231
Ram@@ 22206
Lav@@ 22204
gique 22195
jury 22195
uni@@ 22190
47 22179
différente 22177
Éducation 22173
mobile 22171
connaissances 22169
longs 22169
Bill 22160
travaillent 22160
aci@@ 22153
Lab@@ 22152
demander 22149
gues 22149
guitariste 22149
pén@@ 22147
visiteurs 22146
ost@@ 22141
cach@@ 22138
télescope 22132
hydro@@ 22129
servant 22120
Jackson 22119
dynamique 22117
val 22113
logiciel 22108
minimum 22105
nourriture 22092
hectares 22088
con 22084
fus@@ 22083
vieille 22081
Harry 22070
White 22069
Mars 22065
Chris 22064
Résumé 22054
commença 22054
rupture 22048
colonies 22044
vingtaine 22039
expose 22019
capacités 22018
ports 22016
étudiant 22014
éni@@ 22011
pourraient 22005
web 22004
Cup 22000
Ca@@ 21998
poursuite 21996
archipel 21993
intéresse 21991
ona 21990
amie 21988
Bos@@ 21987
spécial 21985
érées 21975
ford 21974
out@@ 21974
51 21973
Antiquité 21972
blessure 21972
constructions 21962
Mau@@ 21953
Mos@@ 21952
iciens 21952
ello 21946
Dev@@ 21945
financier 21943
nies 21940
noble 21937
fréquence 21932
cy@@ 21923
lanceur 21923
ye 21922
équilibre 21914
arrivent 21910
venu 21906
Convention 21905
E. 21887
changé 21881
illée 21881
arabes 21876
vocation 21876
Blanc 21874
plage 21861
centaine 21859
académie 21856
Navy 21848
dis 21845
mentionné 21844
passent 21839
collabore 21838
fermé 21838
gothique 21835
agn@@ 21834
so 21833
restes 21832
voisine 21827
vendus 21824
Bavière 21807
ature 21807
sour@@ 21806
Nous 21805
Hôtel 21800
motifs 21798
libéré 21792
ts@@ 21790
Bruno 21783
dispositif 21782
toile 21779
départementales 21778
retrouvé 21775
moi 21764
bloc 21763
demandé 21756
acquiert 21743
ami@@ 21741
perspective 21735
mut@@ 21732
acier 21730
Ra@@ 21727
critères 21725
voisin 21725
Lan@@ 21724
émer@@ 21722
Reims 21717
Rose 21717
maintien 21717
neuvième 21717
Tony 21712
if@@ 21702
Nationale 21700
Ka@@ 21695
communistes 21695
Sébastien 21688
ao 21683
atoires 21679
Virginie 21678
agissait 21677
exemples 21676
Z 21671
peintres 21658
Bibliothèque 21653
House 21653
don@@ 21653
ë 21650
potentiel 21642
Américains 21632
1er 21628
découvertes 21626
color@@ 21624
sel@@ 21619
gris 21618
1793 21608
génie 21602
prê@@ 21592
Constantinople 21589
quatorze 21585
46 21575
rev@@ 21572
blé 21569
rédacteur 21569
déplacement 21566
colonne 21564
Né@@ 21562
Santé 21557
Prusse 21555
Field 21553
Corse 21547
embar@@ 21544
inventaire 21542
manches 21541
onymes 21539
dénomination 21533
plaque 21531
sections 21531
vêtements 21531
aéro@@ 21529
branches 21523
associés 21519
apporte 21518
sier 21516
autorisation 21513
hydr@@ 21510
efficacité 21509
écrivains 21509
Transports 21500
attaquer 21500
Début 21497
Accueil 21493
1898 21491
Plan@@ 21490
1,@@ 21487
étendue 21483
rentre 21470
Benoît 21469
littéraires 21465
deur 21464
dor@@ 21461
accueilli 21460
mari@@ 21456
possibles 21455
podium 21454
remportant 21449
Museum 21448
Saône 21445
espoir 21441
aspects 21436
Clermont 21431
tribu 21431
viv@@ 21415
gagné 21414
Long@@ 21407
message 21400
Rock 21397
remplacée 21397
intégration 21396
dépôt 21386
marques 21382
mourut 21382
diminution 21381
sén@@ 21381
1871 21374
ori 21370
quai 21363
Mes@@ 21357
sauver 21355
Lem@@ 21353
listes 21340
Big 21335
Y 21335
Mike 21330
spécialisé 21319
intérieure 21314
quarts 21292
vier 21288
prati@@ 21285
chan@@ 21283
port@@ 21279
littéralement 21272
lire 21271
tons 21270
Laval 21255
Jan@@ 21248
âme 21246
œufs 21245
résolution 21243
tirs 21239
Maine 21236
ode 21236
You 21231
Lim@@ 21226
figurent 21226
veuve 21226
montrer 21225
ble 21224
Cu@@ 21214
Op@@ 21214
voyages 21214
regard 21211
Sans 21202
inst@@ 21200
Sport 21195
Lorsqu&apos; 21192
reconnue 21191
bonnes 21190
donna 21190
Young 21183
chem@@ 21174
Un@@ 21172
sélections 21167
Roland 21161
Aquitaine 21159
Steve 21159
promouvoir 21155
degré 21153
chaînes 21151
payer 21147
maîtres 21145
Rue 21141
Canal 21138
çant 21130
tera 21127
Cat@@ 21123
admis 21118
dét@@ 21115
ret 21112
mique 21106
Production 21101
Aur@@ 21097
Chez 21095
One 21093
atta@@ 21092
hebdomadaire 21089
tives 21086
africain 21083
nobles 21082
constructeur 21078
égard 21072
québécois 21070
ho@@ 21066
Lar@@ 21056
cyrillique 21056
dées 21054
décor@@ 21053
Sports 21052
chaussée 21049
arrête 21042
1896 21040
assassinat 21029
viol@@ 21025
représentée 21008
opposé 21005
faute 21003
entré 21000
sé 20989
uri 20984
ert 20971
dédié 20968
Gau@@ 20967
Mans 20967
doté 20955
èque 20955
seules 20950
génétique 20948
modifications 20946
Han@@ 20944
ajouter 20936
sable 20935
Hong 20932
fo@@ 20926
Calais 20924
irlandais 20917
décou@@ 20915
montr@@ 20914
Em@@ 20911
blo@@ 20910
ā@@ 20909
réclam@@ 20907
lès 20906
multi@@ 20904
Top 20897
chasseurs 20896
cible 20893
aud@@ 20891
fermée 20891
fortune 20887
lev@@ 20877
ologues 20877
manche 20869
équipé 20869
autel 20864
tan@@ 20859
Jou@@ 20857
incluant 20853
marchandises 20852
réalisées 20849
surnommé 20838
Bob 20834
Boul@@ 20833
avi@@ 20830
ordonne 20826
DC 20822
Code 20815
correspondance 20812
froid 20811
citer 20804
électeurs 20800
possédait 20795
Bureau 20790
Livre 20783
bon@@ 20779
hauts 20779
alimentaire 20773
différ@@ 20772
autom@@ 20771
manuscrit 20769
alise 20767
aw@@ 20767
ë@@ 20767
all 20761
déchets 20744
als 20742
anglo 20739
aill@@ 20738
dispar@@ 20738
Tour@@ 20737
cop@@ 20735
spectateurs 20727
Team 20723
opinion 20722
emp@@ 20721
supplémentaire 20721
49 20710
1889 20709
Laur@@ 20704
calcul 20701
atmosphère 20677
sar@@ 20677
çon 20666
sanctuaire 20658
satellite 20658
supérieures 20652
lard 20648
Pro 20644
portraits 20643
léger 20639
Lincoln 20635
aviation 20628
Gou@@ 20627
app@@ 20619
vues 20619
impression 20605
réduite 20604
Ier 20603
spectacles 20602
sexe 20598
amont 20596
destinés 20589
Sau@@ 20584
pseudonyme 20576
sprint 20576
comptes 20572
Madeleine 20570
Charlotte 20562
ave 20553
basque 20553
facteur 20553
Six 20552
bel@@ 20552
Thierry 20550
urgence 20550
décoration 20548
Ann@@ 20541
dre 20537
super 20533
médecins 20531
Pic@@ 20530
culturels 20526
ruines 20522
verte 20522
impossible 20520
inv@@ 20514
geant 20511
ok@@ 20508
onique 20508
philosophe 20505
Père 20504
notes 20489
endra 20488
athlétisme 20483
inspiration 20480
CE@@ 20478
bourse 20473
tiré 20468
Ceux 20457
post@@ 20453
internet 20448
abandon 20440
retourner 20439
normes 20438
Johann 20430
ł@@ 20430
Membre 20429
chien 20429
ands 20424
1895 20423
électoral 20423
grotte 20416
ei 20412
doublé 20405
Eric 20404
Award 20400
retirer 20395
th 20395
âgée 20395
NBA 20392
délégation 20385
Ha@@ 20380
nég@@ 20377
carré 20366
chiffres 20364
perdre 20361
cents 20360
Thi@@ 20358
difficiles 20351
éo 20350
phe 20348
clan 20345
partenariat 20341
Loi 20340
Les@@ 20339
North 20339
partout 20334
majoritairement 20332
inclus 20326
ab 20311
Pascal 20300
voulait 20299
fêtes 20298
ras@@ 20293
let 20283
aille 20281
restaurant 20281
{ 20281
réfugiés 20277
aval 20274
rie 20270
prés@@ 20268
└ 20266
Kor@@ 20262
subi 20262
1850 20256
pat@@ 20253
Élisabeth 20249
iner 20244
compar@@ 20227
ty 20225
path@@ 20214
statistiques 20211
Deuxième 20206
particuliers 20205
× 20205
Wal@@ 20202
tran@@ 20200
visibles 20200
décor 20198
illés 20192
$ 20190
SNCF 20182
zi 20182
tribus 20178
héritage 20177
individu 20174
similaires 20174
déliv@@ 20165
asc@@ 20164
pauvres 20163
Hér@@ 20160
ordonné 20150
rac@@ 20150
jur@@ 20139
Classement 20136
micro@@ 20135
instruction 20130
om 20130
fuite 20128
occidental 20124
psych@@ 20121
Diego 20103
mauvaise 20095
Miss 20089
progrès 20086
positi@@ 20076
détruite 20066
construites 20064
surnom 20063
accusé 20053
chimique 20048
mol@@ 20046
Cinq 20042
financières 20029
midi 20029
Pu@@ 20025
H. 20024
ris@@ 20020
Herzégovine 20016
coule 20016
uni 20016
commencer 20015
battre 20014
Route 20011
occupée 20007
Ly@@ 20006
1885 20005
1899 20004
cri@@ 19998
Mario 19995
noyau 19991
support 19991
comm@@ 19990
Pétersbourg 19986
tien 19978
oise 19976
garçon 19972
ime 19967
pétrole 19957
traditions 19953
conclut 19949
stratégique 19948
á 19934
Na@@ 19928
habit@@ 19925
infrarouge 19925
galaxie 19920
ub@@ 19919
variable 19918
Garde 19915
chante 19915
Sophie 19909
Sab@@ 19901
solutions 19889
coureurs 19887
traversé 19886
alt@@ 19885
Gir@@ 19884
fac@@ 19884
tenter 19883
technologies 19878
Group 19877
Tom@@ 19876
états 19873
prim@@ 19868
Isabelle 19863
Island 19863
évidence 19860
décède 19857
ky 19854
Pa@@ 19847
phy@@ 19847
clairement 19846
équipement 19843
olo 19839
complexes 19838
importe 19829
islamique 19826
entame 19818
optique 19815
majeures 19812
ito 19809
Benjamin 19805
concentr@@ 19791
Conservatoire 19784
privés 19783
Gre@@ 19782
sy@@ 19780
immeuble 19765
amo@@ 19760
comprennent 19753
studios 19750
cab@@ 19748
onnés 19742
Énergie 19738
Petite 19731
IX 19729
den@@ 19728
Blanche 19725
endroits 19724
ax@@ 19723
Rivière 19717
Hy@@ 19713
Luc@@ 19703
aver@@ 19702
distinction 19699
élec@@ 19697
expliquer 19693
í@@ 19693
future 19691
paysans 19689
Fou@@ 19687
juif 19685
popularité 19685
ffe 19684
1893 19682
illustre 19681
ationn@@ 19678
touristique 19678
marie 19677
stein 19677
top 19674
café 19673
“ 19668
appréci@@ 19666
bres 19666
matches 19666
1897 19649
publicité 19641
Tre@@ 19638
Parcours 19635
aki 19629
Dem@@ 19619
évaluation 19614
los 19613
Dj@@ 19607
Quant 19607
Elizabeth 19605
Libération 19600
Pérou 19600
Center 19599
usines 19599
ast@@ 19593
fidèles 19593
préparer 19583
métal 19574
1@@ 19563
chance 19562
numéros 19562
étés 19560
décro@@ 19554
Liens 19551
ez@@ 19549
mé 19544
auto 19543
Friedrich 19522
tenues 19515
illant 19513
dizaines 19510
metal 19502
précision 19501
escalier 19499
agir 19497
bul@@ 19492
ym@@ 19487
étrangère 19481
bil@@ 19476
sil@@ 19472
lav@@ 19470
diversité 19466
divisée 19464
fins 19463
minute 19459
Pé@@ 19457
Brest 19449
aus@@ 19449
usse 19443
Hamilton 19439
chaleur 19434
Carlo 19431
rer 19431
Vill@@ 19428
chrétien 19428
D. 19422
wa 19421
bi 19420
directrice 19419
Romains 19409
temp@@ 19408
53 19394
navigation 19387
présentation 19387
sacré 19387
couvert 19384
mâles 19380
Alice 19379
disputé 19377
apparence 19373
implique 19369
collec@@ 19365
descendants 19364
zi@@ 19359
pel@@ 19354
Troisième 19352
amoureux 19344
Anvers 19341
chercher 19340
Pom@@ 19336
fontaine 19335
las 19328
vend@@ 19328
démocratie 19320
assaut 19315
brun 19310
démissionne 19310
partenaire 19309
Ministère 19308
soi 19308
embr@@ 19307
comprenait 19299
moulin 19296
Pap@@ 19287
Luis 19282
financiers 19281
AS@@ 19278
oul 19276
panneaux 19269
solide 19269
ind@@ 19268
dé 19254
tiennent 19253
Ayant 19245
Hitler 19245
habituellement 19236
abe 19229
continu@@ 19228
bre 19226
Som@@ 19223
Architecture 19221
PC 19219
igu@@ 19209
logement 19206
caus@@ 19204
spéci@@ 19201
Office 19189
xe 19184
Docteur 19183
Not@@ 19183
définie 19183
inform@@ 19181
Mand@@ 19178
portés 19166
qui@@ 19165
tension 19162
courts 19159
G. 19157
Françoise 19152
interprété 19146
Point 19144
1867 19138
onnement 19136
indépendants 19128
pul@@ 19123
Hugo 19121
confie 19114
toponyme 19111
flux 19106
pousse 19106
cy 19103
détermin@@ 19102
ail 19093
récits 19089
producteurs 19088
portait 19087
mait 19086
allait 19082
courants 19079
War@@ 19076
accus@@ 19073
passée 19071
1790 19061
Maz@@ 19057
Sciences 19056
ondes 19056
tus 19051
my@@ 19048
installés 19046
ey@@ 19044
reconnaît 19043
durable 19042
54 19041
fusi@@ 19041
surprise 19040
Place 19023
archéologiques 19020
tramway 19017
contrô@@ 19016
individuel 19010
expériment@@ 19008
uel 19007
ordinateur 19004
tournois 19000
form@@ 18997
séance 18997
amateurs 18982
Serge 18978
libér@@ 18978
utilisateurs 18978
manifestation 18976
sépare 18975
una 18973
reux 18968
différences 18959
Kon@@ 18955
phases 18950
Survey 18947
réflexion 18945
Justice 18944
act@@ 18938
yr@@ 18938
deurs 18923
écar@@ 18923
Moselle 18919
Sin@@ 18911
Intérieur 18910
complétée 18907
mini 18904
fiant 18894
viande 18889
Formation 18886
dia 18885
existait 18883
Patrimoine 18881
récompense 18881
apparaître 18878
56 18875
Gouvernement 18874
Ven@@ 18874
otes 18872
finances 18865
interdiction 18865
Il@@ 18864
colons 18864
Bertrand 18862
ney 18860
Kou@@ 18859
ick 18859
ron@@ 18857
Rec@@ 18856
Ir@@ 18855
Pot@@ 18854
Ay@@ 18853
mobil@@ 18853
toire 18852
tom@@ 18849
amélioration 18847
décennie 18844
trou@@ 18841
lia 18837
unes 18836
trac@@ 18832
contemporains 18828
ingénieurs 18826
Cré@@ 18825
Covid 18824
tentatives 18824
plate 18823
officiels 18818
Irak 18811
oy@@ 18797
tig@@ 18792
up@@ 18788
bles 18787
trait 18780
étiques 18779
renforcer 18778
” 18776
achevé 18775
č@@ 18771
initiale 18764
patients 18763
boîte 18759
Corps 18754
onale 18735
far@@ 18732
calcul@@ 18731
id 18725
orient@@ 18723
Cre@@ 18721
rez 18721
ège 18719
alli@@ 18715
vend 18693
Rad@@ 18691
oblig@@ 18688
universelle 18688
linguistique 18686
italiens 18682
vérité 18680
Alphonse 18675
ich 18672
provenance 18671
uelle 18669
parti@@ 18662
bilité 18659
organisés 18656
candidature 18655
éliminatoires 18654
art@@ 18652
tests 18652
marais 18650
suites 18647
aérien 18646
tunnel 18644
liquide 18643
investissement 18636
écurie 18635
vendre 18633
âges 18633
SA 18629
Illinois 18627
Roy 18625
Mass@@ 18622
syndic@@ 18622
800 18619
1892 18612
prieuré 18609
lac@@ 18607
norme 18602
bie 18599
bes 18596
flor@@ 18596
600 18595
indé@@ 18595
mén@@ 18594
syndicat 18591
Lewis 18583
précédemment 18583
signes 18575
navale 18573
prêtres 18569
Tournoi 18568
terminée 18568
Wilson 18565
administrateur 18565
95 18564
posée 18562
créés 18561
modifié 18561
néerlandaise 18560
vin@@ 18555
limitrophes 18550
Sydney 18549
op 18546
British 18541
restant 18541
aro 18540
privées 18540
constante 18539
photo 18537
mot@@ 18536
transform@@ 18536
Ke@@ 18534
fou@@ 18532
ere 18529
rivières 18529
attribue 18528
cuivre 18524
inspire 18522
consult@@ 18521
esc@@ 18521
baisser 18518
Pékin 18517
précédentes 18505
pistes 18504
neige 18500
parisienne 18492
dispositions 18483
travaillant 18470
initial 18466
main@@ 18463
XIV 18461
let@@ 18461
organisées 18455
médical 18452
chang@@ 18437
égal 18437
inqui@@ 18433
mineurs 18433
thi@@ 18431
bien@@ 18429
remarquer 18426
bis 18425
58 18423
aka 18423
eri 18420
tirer 18419
1789 18418
aï 18415
chen@@ 18414
circonscriptions 18414
ga 18411
forts 18408
Kat@@ 18406
profite 18406
publiées 18397
militants 18388
assiste 18381
field 18380
offrir 18376
soul@@ 18376
aime 18373
inhumé 18371
illa 18370
terminant 18370
68 18369
iteur 18365
nombres 18364
cordes 18354
nécessite 18354
1840 18353
déclin 18353
profession 18352
Monaco 18341
Œuvres 18336
continental 18331
crime 18322
indien 18322
aventures 18319
adversaires 18316
abandonner 18315
légère 18315
Fin@@ 18311
pro 18310
agr@@ 18308
émis 18303
Xavier 18302
humanité 18300
décisions 18299
Wil@@ 18297
1881 18294
hol@@ 18289
Hauts 18281
produisent 18278
Vau@@ 18277
réside 18277
programmation 18276
espoirs 18275
faibles 18275
garnison 18275
nationalité 18266
Bru@@ 18263
oth@@ 18263
frapp@@ 18259
réelle 18259
orthodoxe 18257
commémor@@ 18255
adulte 18251
astr@@ 18251
issait 18250
emprun@@ 18245
souvenir 18242
soviétiques 18240
entouré 18236
issues 18235
Lausanne 18230
encadré 18229
Éditions 18229
lés 18226
option 18225
Tam@@ 18222
85 18220
Kam@@ 18218
vague 18217
volontaires 18215
arrivé 18208
industriels 18207
diriger 18201
vraiment 18189
acqu@@ 18186
franch@@ 18186
archéologique 18183
femelles 18181
remplaçant 18178
lacs 18173
nettement 18167
bis@@ 18163
présent@@ 18162
landais 18160
ck 18159
dépit 18153
pique 18151
signal 18150
endant 18146
cs 18144
dres@@ 18143
Maur@@ 18140
probable 18138
achète 18137
ko@@ 18130
précédents 18130
basilique 18128
lignée 18128
bé 18127
confirmé 18127
rencontré 18127
1876 18114
notables 18113
1878 18111
urbanisme 18111
Q 18106
ik 18106
rencontrer 18102
Nov@@ 18095
municipalités 18091
motif 18090
publier 18090
Camp@@ 18089
Canton 18089
manuscrits 18089
descente 18087
CA@@ 18086
Oxford 18083
Sicile 18080
bach 18079
détails 18079
gh@@ 18072
icité 18072
photographe 18070
72 18068
garder 18062
combattre 18061
instar 18061
revues 18059
adopte 18058
ouverts 18056
ôme 18056
Times 18053
réserves 18051
sollic@@ 18048
agres@@ 18047
régionaux 18040
considérablement 18039
exprime 18035
combin@@ 18034
ó@@ 18030
Éric 18027
1894 18023
compilation 18023
débats 18023
commandes 18021
tement 18021
Gilbert 18014
South 18013
ks 18010
remportent 17999
défend 17998
illustr@@ 17996
matières 17995
Davis 17990
Prés@@ 17983
lion 17983
hi 17982
Nic@@ 17979
aques 17979
rangs 17979
ont@@ 17975
opus 17974
crit 17972
majoritaire 17972
Général 17965
indienne 17962
Fo@@ 17961
gouvern@@ 17960
biodiversité 17953
dites 17951
Agence 17949
synthèse 17944
écossais 17942
gé 17940
57 17929
Opéra 17927
extrait 17921
variétés 17917
catalogue 17916
artistiques 17915
tent@@ 17912
qualités 17911
1886 17910
Système 17910
Bay 17909
urent 17906
rest@@ 17904
Chev@@ 17899
circulaire 17898
yn@@ 17897
sab@@ 17895
béton 17892
terminer 17890
marbre 17889
empêche 17884
permanente 17884
croître 17882
musées 17877
personnels 17876
W 17873
IN@@ 17872
curé 17870
différenci@@ 17869
chimiques 17866
of@@ 17864
holotype 17862
marchands 17856
déroul@@ 17854
reproduction 17844
Windows 17841
accro@@ 17838
ographe 17834
itaires 17833
démographique 17818
vertu 17813
statues 17812
compositions 17807
impressionn@@ 17807
cap 17805
Jersey 17803
joint 17802
étr@@ 17801
phot@@ 17798
symbol@@ 17797
cadet 17794
considérable 17791
engager 17788
embouchure 17783
Renault 17782
W. 17778
déroulent 17777
0@@ 17776
répertoire 17771
ua 17771
patron 17765
ification 17762
Champagne 17760
pavillon 17758
blessures 17754
Clément 17748
Alex 17746
accent 17746
menées 17746
proposer 17745
Développement 17744
nie 17744
transformé 17743
Research 17738
créant 17737
rénovation 17728
mentionne 17727
automatique 17722
manoir 17722
perpétu@@ 17722
éclat@@ 17713
adoption 17712
Croatie 17708
Hel@@ 17701
Mis@@ 17699
remarquables 17698
Bell@@ 17692
choisir 17692
réformes 17686
introdu@@ 17685
plateforme 17685
australien 17684
AR@@ 17677
passa 17661
Hé@@ 17660
rêve 17660
professeurs 17658
administratives 17655
London 17652
refuge 17651
exposé 17647
soldat 17645
sculptures 17643
In 17641
rot@@ 17641
vents 17640
aranéomorphes 17636
ômes 17636
réception 17635
Championship 17630
attitude 17630
quelle 17630
Live 17623
poisson 17622
restera 17620
aî@@ 17617
jugé 17613
und 17612
Ak@@ 17609
cellule 17604
accorde 17602
apo@@ 17599
morale 17599
Avignon 17597
garçons 17595
Cur@@ 17592
chés 17588
amène 17580
chet 17578
révélé 17573
Beaux 17572
intégrée 17570
São 17569
Tu@@ 17569
récupérer 17567
chambres 17565
Vladimir 17564
éponyme 17558
magasin 17553
égale 17553
concer@@ 17551
èques 17550
District 17549
ero 17545
Eng@@ 17542
graves 17542
Explorer 17541
Taylor 17533
infrastructures 17530
inscrite 17530
partenaires 17529
adop@@ 17523
120 17520
Porto 17517
cons@@ 17516
hy@@ 17516
dixième 17512
Jacob 17511
domine 17509
pratiquement 17506
UCI 17504
grève 17500
occupant 17499
domin@@ 17491
échoue 17479
Esp@@ 17478
F. 17477
atus 17476
aces 17471
Blue 17469
Eur@@ 17468
profondément 17457
particularité 17453
monts 17452
orn@@ 17449
Kim 17447
Venezuela 17445
essence 17443
1888 17442
VIII 17439
vols 17438
Toujours 17436
quer@@ 17436
influencé 17433
remportée 17420
connait 17412
yc@@ 17412
kg 17407
Cos@@ 17406
architectes 17403
districts 17401
ela 17395
nées 17394
modern@@ 17393
sombre 17393
hal@@ 17390
ui 17390
1882 17389
actuels 17386
aigu@@ 17376
nières 17370
bran@@ 17362
Real 17359
germanique 17359
communautaire 17358
éteint 17358
Ci@@ 17357
arriver 17352
reliefs 17352
affronter 17350
opposant 17349
Fran@@ 17348
Hélène 17340
ôt 17340
Turin 17339
rétr@@ 17338
couramment 17336
fant@@ 17327
distinguer 17326
front@@ 17326
tournées 17322
1891 17316
gouvernements 17316
sk 17314
talent 17313
beauté 17311
entreprend 17310
trace 17303
Me 17302
uv@@ 17297
Kan@@ 17294
majeurs 17294
dames 17288
250 17282
Charente 17282
prop@@ 17281
CN@@ 17279
Gustave 17278
Vel@@ 17278
observant 17278
trophée 17277
prisonnier 17276
Philadelphie 17275
policiers 17275
évènements 17275
cite 17270
oy 17265
ètent 17262
assur@@ 17257
industrielles 17255
véri@@ 17254
détruire 17247
ions 17247
eur@@ 17245
Série 17243
baptisé 17241
pandémie 17239
administr@@ 17230
design 17230
armé 17229
1884 17226
refusé 17214
renommé 17211
preuves 17209
10@@ 17203
Long 17195
cien 17188
obligatoire 17183
nor@@ 17182
Cité 17181
Ed@@ 17173
rassemble 17173
natur@@ 17168
Gl@@ 17161
Da@@ 17159
impérial 17158
frappe 17153
fu@@ 17153
enseignant 17148
mentionn@@ 17145
20@@ 17144
passion 17142
manifeste 17141
Aires 17136
exprimés 17134
refus 17133
règlement 17133
augmenté 17132
sentiment 17129
amment 17124
particules 17123
éclair@@ 17122
fini 17119
Bourbon 17117
ff 17113
cinématographique 17112
médiévale 17112
Jérôme 17109
dom@@ 17109
Cuba 17107
explosion 17103
acheté 17102
je@@ 17100
voile 17096
Activités 17091
ec 17091
brièvement 17088
favor@@ 17082
Lieux 17079
Porte 17078
Bulgarie 17077
contribution 17077
Donald 17076
dieux 17076
és@@ 17075
ika 17074
centrales 17069
procureur 17064
alentours 17056
modeste 17056
têtes 17055
Green 17054
Land@@ 17053
66 17052
Rev@@ 17051
fidèle 17050
ouvertes 17048
University 17039
couches 17034
fiées 17033
pic 17033
résidences 17032
ols 17024
remarque 17023
Film 17017
ple@@ 17017
Amiens 17015
ai@@ 17014
tan 17010
facile 17007
sûr 17007
christianisme 17004
mariée 16997
Madame 16987
sexuelle 16985
vel@@ 16985
dissolution 16983
Cannes 16980
participant 16975
malade 16971
pou@@ 16970
briques 16963
parisien 16963
enant 16962
taire 16959
1000 16958
sk@@ 16947
êtres 16945
Stephen 16941
Angers 16939
inaugurée 16939
Pier@@ 16938
hou@@ 16937
alcool 16934
envoyer 16934
Flandre 16932
ignon 16932
Est@@ 16929
balle 16927
lourds 16926
pin@@ 16926
dan 16923
Reg@@ 16917
Oscar 16916
Franz 16914
Tan@@ 16914
dérivé 16911
hyper@@ 16911
clergé 16908
Vallée 16907
définir 16900
rives 16896
colonisation 16895
Fiat 16893
affrontent 16893
Institute 16891
jugement 16887
traditionnels 16886
yle 16884
causes 16876
Mot@@ 16875
rebelles 16874
venait 16871
Super@@ 16867
gagn@@ 16865
isson 16864
tourn@@ 16863
utile 16863
61 16862
musiques 16859
souligne 16852
commerciaux 16844
régulier 16841
abords 16838
déménage 16838
Mohamed 16837
BBC 16836
grandit 16832
Nam 16831
antenne 16830
chômage 16830
Hou@@ 16829
Lac@@ 16829
ascension 16826
tron@@ 16825
spécialistes 16821
paroisses 16817
cos@@ 16815
isations 16815
Enseignement 16811
sis 16805
Sénégal 16801
Tol@@ 16795
distribu@@ 16791
Francesco 16790
Valence 16788
rural 16786
go 16783
reur 16783
Fre@@ 16781
entendre 16775
1887 16773
marchand 16763
littoral 16759
volley 16758
cie 16754
zo 16754
River 16742
ein@@ 16741
ographiques 16741
cyclisme 16729
tâche 16727
faune 16714
contrôler 16713
témoigne 16713
Orchestre 16711
Dal@@ 16706
dépasse 16703
Brian 16702
Pennsylvanie 16700
Gaulle 16695
pluie 16693
† 16692
Concours 16691
Gaston 16690
Tibet 16690
ary 16688
ige 16683
oppos@@ 16677
tables 16673
coloniale 16666
accepter 16664
racines 16661
armement 16659
tch@@ 16655
Face 16652
richesse 16652
pourra 16651
fief 16648
impulsion 16642
Jim 16637
combattants 16631
Orange 16629
golfe 16626
Ga@@ 16622
iger 16619
monarchie 16619
consacrer 16613
médicale 16605
bar 16603
Hollande 16602
profonde 16598
Wilhelm 16596
1875 16591
placés 16590
décida 16589
humides 16589
Lag@@ 16587
disparaît 16576
Augustin 16575
rière 16575
assurée 16571
qualifier 16569
62 16568
élimination 16568
foyer 16567
auxquels 16566
fum@@ 16566
Vil@@ 16564
nage 16564
suppression 16562
soulig@@ 16560
socialistes 16557
Caen 16556
continuent 16556
reconnaître 16551
fie 16550
dan@@ 16549
exploitations 16546
Leurs 16541
dier 16538
dame 16537
59 16522
Comp@@ 16520
Pedro 16519
montrant 16513
protégé 16507
essor 16503
modification 16502
Gol@@ 16500
All@@ 16499
Musique 16495
ces@@ 16488
Villa 16485
My 16479
Wide 16479
réellement 16477
élevés 16477
sement 16469
Brunswick 16461
douce 16461
idé 16461
Riv@@ 16459
allié 16459
appelées 16459
éra 16456
commandé 16455
lutter 16454
Cot@@ 16451
alg@@ 16451
retard 16451
Mort 16449
assassiné 16449
effort 16440
occupent 16439
variante 16439
désert 16437
eter 16435
isit 16432
sang@@ 16432
rate 16430
fic@@ 16428
rog@@ 16428
baccalauréat 16419
cier 16411
heim 16411
invités 16407
63 16402
moine 16402
conten@@ 16401
iné 16401
sommets 16398
Tal@@ 16397
Vieux 16397
ust@@ 16395
fans 16393
francophone 16393
acheter 16391
kar@@ 16390
débuté 16387
CA 16385
FM 16385
récente 16384
Andrew 16382
commis 16379
magasins 16378
ron 16378
désir 16377
prêté 16377
séminaire 16375
aves 16373
lant 16368
externe 16365
Tak@@ 16364
achève 16364
larges 16362
musicales 16359
Pat@@ 16356
baroque 16355
ajouté 16353
ok 16353
parviennent 16351
inger 16350
1863 16345
Jane 16342
East 16340
samedi 16340
doctrine 16334
Fontaine 16330
Ivan 16327
Sept 16319
sauvage 16317
Buenos 16315
défaut 16315
continentale 16314
Yougoslavie 16307
édifices 16307
Lin@@ 16304
accède 16298
pianiste 16295
marquant 16294
ling 16292
zéro 16284
entrées 16281
servent 16281
Occident 16276
nou@@ 16275
Dijon 16272
ute 16267
1883 16264
reçoivent 16260
eant 16258
Philippines 16257
My@@ 16254
passages 16247
achevée 16240
mac@@ 16239
Hambourg 16237
emplois 16237
Lady 16236
registre 16235
Pau@@ 16231
otiques 16230
Catalogne 16229
convo@@ 16228
del@@ 16226
1868 16225
foule 16224
entend 16223
Ohio 16221
inclin@@ 16221
ZNIEFF 16220
Sarah 16218
sucre 16214
Central 16212
hausse 16212
tensions 16210
détient 16208
tab@@ 16208
heureux 16206
éné@@ 16206
fais@@ 16205
j&apos; 16205
Alan 16203
Forces 16197
fosse 16190
traditionnelles 16190
suggère 16189
cra@@ 16183
Pel@@ 16176
intéress@@ 16172
fruit 16170
Douglas 16168
blanches 16163
emploie 16162
référendum 16162
arde 16157
métropolitaine 16153
quit@@ 16149
métiers 16148
Mu@@ 16141
Stéphane 16140
touch@@ 16140
trentaine 16140
singles 16137
fonctionnaires 16131
tam@@ 16129
assuré 16126
lent 16126
ES@@ 16124
bin@@ 16116
Britannique 16115
rotation 16114
istiques 16109
oué 16106
onyme 16100
positif 16100
théories 16097
comparaison 16096
parcs 16096
ee 16091
menant 16091
turc 16087
uil 16087
1872 16084
signer 16082
Anthony 16080
traditionnellement 16078
onnes 16074
tend@@ 16074
tru@@ 16072
suicide 16071
Commune 16068
Beaucoup 16061
Sand@@ 16058
chargés 16057
conversion 16057
alis@@ 16052
od 16052
abri 16048
culaire 16047
aim@@ 16042
policier 16037
1815 16035
Manchester 16033
fre@@ 16033
Gil@@ 16030
eva 16030
Sel@@ 16025
bri@@ 16025
tionnel 16025
achet@@ 16024
quasiment 16022
dommages 16017
enrich@@ 16014
teuse 16013
conservée 16012
constituant 16009
Johnny 16006
anie 16005
limiter 16004
67 15993
sportifs 15990
transforme 15989
étendre 15989
vacances 15988
conçue 15986
dessinateur 15984
disant 15981
réun@@ 15976
interview 15975
tante 15974
originaires 15963
portées 15960
Cant@@ 15957
conver@@ 15957
Cambridge 15956
eville 15953
éré@@ 15953
ouvrier 15948
anus 15944
couvrant 15944
icon@@ 15944
Reich 15942
salariés 15940
voûte 15939
habitation 15938
Vall@@ 15934
ographique 15934
sen@@ 15930
retenu 15925
joueuse 15923
éen 15921
Aussi 15920
routier 15920
ium 15907
Hugues 15906
1877 15905
Jos@@ 15904
masculine 15896
Costa 15895
handball 15894
Voici 15891
indice 15891
Maître 15890
avancée 15890
lan 15890
Lublin 15887
oui 15881
oirs 15880
ison 15876
spéciales 15876
Monte 15874
progression 15873
prime 15869
enregistrements 15868
issements 15866
art. 15863
Euro 15862
he@@ 15860
remani@@ 15860
coûts 15857
ingue 15856
Champ@@ 15854
vallées 15853
eurent 15852
Bible 15846
astronome 15845
eh@@ 15845
1865 15843
interrog@@ 15837
ordonnance 15834
mourir 15833
Lau@@ 15829
Lucien 15829
Département 15824
pend@@ 15820
téléfilm 15816
1861 15815
ciens 15811
stati@@ 15811
arg@@ 15809
feux 15803
maternelle 15801
eil 15799
amor@@ 15797
immense 15797
élabor@@ 15797
tin@@ 15792
Camille 15791
ten 15790
immun@@ 15789
plaques 15789
Thérèse 15788
oud 15788
3,@@ 15787
Indonésie 15785
débar@@ 15785
atrices 15782
esque 15779
protéines 15777
Hir@@ 15776
équation 15772
inae 15771
précis 15771
Manche 15764
patronyme 15762
RC 15761
gaz@@ 15760
Vé@@ 15759
assurance 15758
internes 15758
perdent 15758
apparitions 15746
CO@@ 15736
apparait 15735
hum@@ 15734
suc@@ 15732
érie 15732
ensembles 15730
satellites 15729
hir 15721
belles 15720
Confédération 15717
1873 15715
rendant 15711
1864 15707
Chau@@ 15707
Sam 15707
lique 15706
observé 15706
Olympique 15704
Kol@@ 15703
suspension 15703
quait 15702
modes 15699
calcaire 15693
Fa@@ 15686
atures 15682
circonstances 15681
comportant 15680
pes@@ 15679
rencontr@@ 15679
Comte 15678
Ligne 15677
entrent 15676
caractérisant 15675
Pen@@ 15671
1874 15669
saire 15669
obtint 15668
tot@@ 15667
ps 15665
attire 15664
tionnelle 15663
attend@@ 15662
clés 15659
dat@@ 15659
Entertainment 15658
gallo 15657
constituer 15654
chronique 15646
barre 15641
phénomènes 15639
cultiv@@ 15635
radio@@ 15633
onnant 15631
parfaitement 15624
appartement 15623
alter@@ 15622
Series 15620
name 15620
Résistance 15608
Log@@ 15605
kin 15605
palé@@ 15604
Rab@@ 15595
faciliter 15595
Ku@@ 15591
observe 15590
vit@@ 15590
Kur@@ 15589
qualifications 15584
onnais 15583
Had@@ 15581
Toulon 15578
arm@@ 15578
Liban 15574
ambassade 15570
annes 15568
spécialement 15567
yn 15566
dot@@ 15564
Zurich 15562
Burkina 15553
attr@@ 15551
Agriculture 15548
campus 15548
collines 15545
Pourtant 15542
assistance 15542
francophones 15542
accepté 15540
aga 15540
lée 15540
incident 15539
Sec@@ 15538
communs 15537
ug@@ 15535
apparu 15534
live 15533
athlètes 15532
1879 15526
compétence 15526
dates 15524
écl@@ 15522
appuie 15520
Didier 15518
Maj@@ 15517
Ans 15516
stockage 15516
Massachusetts 15513
Lev@@ 15507
Jeune 15503
remet 15499
ro 15495
violon 15491
bo 15487
ordonn@@ 15486
88 15485
Cav@@ 15484
dossier 15478
igné 15476
permettait 15475
ST@@ 15474
Ul@@ 15472
correspond@@ 15472
1792 15471
condi@@ 15471
vas@@ 15470
civilisation 15467
enfer@@ 15465
rapides 15463
nik 15462
Cab@@ 15458
biologique 15457
variantes 15457
HMS 15456
Ach@@ 15455
ceci 15454
rayon 15454
minim@@ 15449
évoluer 15446
rières 15442
rassemb@@ 15441
tenté 15439
détail 15438
Je@@ 15429
répression 15428
favorables 15423
esthétique 15420
ôle 15418
volant 15414
scolaires 15412
sti@@ 15410
arriv@@ 15409
Mak@@ 15408
propositions 15404
WISE 15402
Poitiers 15398
Den@@ 15393
créateur 15393
typique 15391
ball@@ 15390
Mich@@ 15388
pair 15386
chars 15385
drame 15384
ele 15384
fenêtre 15383
considèrent 15382
convoi 15382
trait@@ 15381
Lake 15378
Faso 15371
remettre 15369
rattaché 15365
ume 15363
conduire 15361
révol@@ 15361
prête 15360
autrichien 15358
posé 15357
qualifiés 15353
Loc@@ 15349
comprise 15348
més 15348
agé 15347
ett 15344
résid@@ 15343
apprendre 15341
envoyés 15338
aya 15335
sap@@ 15334
préserver 15331
Infrared 15324
Roche 15322
devoir 15320
77 15316
Constantin 15316
Arizona 15314
atteinte 15314
créées 15312
ouvrant 15312
1862 15309
démén@@ 15305
verse 15303
déser@@ 15302
maires 15302
command@@ 15301
Corporation 15299
gué 15299
communications 15296
optim@@ 15296
corruption 15295
placer 15295
emporte 15294
Cham@@ 15293
Lune 15292
Pri@@ 15287
ima 15285
collecte 15283
démarche 15282
tempête 15273
aidé 15271
saient 15271
Jar@@ 15270
générations 15270
Bot@@ 15267
puissante 15260
préfér@@ 15256
gérer 15246
charte 15243
bic@@ 15240
massacre 15240
breton 15239
propul@@ 15231
brésilien 15230
retiré 15230
nucléaires 15229
bourgeois 15227
voisines 15227
ottoman 15224
ignent 15223
chlor@@ 15221
Alexis 15215
Bir@@ 15211
resta 15211
géré 15210
vic@@ 15209
chaud 15207
identifier 15207
témoignage 15206
dur 15205
Fil@@ 15202
mos@@ 15202
séquence 15202
erg@@ 15201
nomin@@ 15199
actuelles 15198
chaire 15194
géant 15193
Tim@@ 15192
din 15192
témoin 15189
revendi@@ 15178
74 15176
participa 15174
firent 15172
America 15165
professionnelles 15163
dro@@ 15160
feuille 15159
psychologie 15158
Abraham 15156
robe 15156
chau@@ 15155
ud@@ 15155
Belle 15154
influences 15151
micro 15151
crimes 15147
permanent 15145
fossiles 15140
générique 15140
‘ 15138
Jac@@ 15130
dy 15125
vélo 15117
collabor@@ 15115
extérieure 15111
nez 15110
ech 15104
Îles 15103
nov@@ 15101
oun 15101
1869 15100
duc@@ 15094
pil@@ 15093
taxe 15091
aband@@ 15090
négoci@@ 15082
seuil 15079
partielle 15077
time 15077
tenait 15075
tiens 15075
appro@@ 15072
clo@@ 15069
Chap@@ 15067
quotidienne 15067
actualité 15066
devenus 15064
dégâts 15056
Action 15055
Meuse 15055
ene 15054
isa 15054
batteur 15053
ava 15052
tou@@ 15051
tem@@ 15044
1800 15043
recettes 15043
apporter 15042
mécanisme 15042
refl@@ 15041
berger 15040
localités 15038
wood 15038
Kevin 15036
puissances 15036
Cy@@ 15034
entiel 15030
modi@@ 15027
cadres 15024
Sen@@ 15022
comptant 15017
anne 15016
batailles 15002
habitant 15000
ologiste 14999
attente 14997
jug@@ 14997
inconnue 14993
alie 14990
exercer 14987
ž@@ 14987
awa 14985
affich@@ 14982
destinées 14978
priv@@ 14974
etta 14973
résol@@ 14973
ty@@ 14971
simpli@@ 14970
formés 14969
sant 14963
circuits 14959
tol@@ 14959
accor@@ 14957
tentent 14956
US@@ 14955
Somme 14953
ben 14952
récompens@@ 14947
explor@@ 14944
encour@@ 14941
Chal@@ 14936
but@@ 14932
vitesses 14932
juridiction 14930
lab@@ 14930
cheveux 14927
préside 14925
ord@@ 14923
écr@@ 14923
marqués 14922
fonte 14920
bos@@ 14919
fédér@@ 14919
UN@@ 14918
délégué 14918
poser 14916
Khan 14907
fiés 14905
Roch@@ 14904
ader 14904
ètre 14900
éliminé 14900
rentrer 14899
amp@@ 14898
itz 14898
traiter 14895
Réunion 14889
tirage 14887
Mathieu 14883
fonder 14883
ponctu@@ 14882
Là 14878
géographie 14869
ech@@ 14866
mée 14864
symbolique 14864
camp@@ 14858
clinique 14857
administratifs 14856
inspecteur 14856
officielles 14844
fiscalité 14842
manga 14841
quin 14841
blocs 14838
experts 14837
agement 14836
ambi@@ 14835
cla@@ 14833
désignation 14831
oï@@ 14831
phrase 14831
Hollywood 14825
brésilienne 14822
décoré 14821
Ste@@ 14820
doux 14820
botanique 14818
levée 14818
chée 14816
Earth 14815
sportives 14814
vern@@ 14814
Paulo 14813
coû@@ 14813
prépare 14790
danois 14785
ADN 14784
visit@@ 14783
continuité 14780
rette 14773
explo@@ 14771
les@@ 14770
SP@@ 14769
princes 14767
surfaces 14767
attribuée 14760
norm@@ 14760
• 14757
noires 14752
elin 14749
tionné 14747
Viêt 14746
suis 14746
Gro@@ 14741
² 14739
privilégi@@ 14735
descendant 14734
Plan 14732
dut 14731
ties 14728
Express 14726
décroche 14726
quête 14726
concile 14725
Red@@ 14718
fabrique 14716
logiciels 14715
propagande 14715
age@@ 14713
résoudre 14712
Nav@@ 14709
saints 14709
vidéos 14708
ester 14706
marquer 14703
hôte 14700
combinaison 14699
mythologie 14699
1851 14696
autrichienne 14696
habite 14695
épaisseur 14695
illet 14693
Pre@@ 14689
organe 14685
remplacés 14682
matériau 14681
Française 14680
Sz@@ 14680
consul 14677
audience 14676
sent@@ 14675
collègues 14674
approximativement 14671
obligation 14671
réussite 14669
théorème 14669
cession 14665
diversi@@ 14664
souris 14661
éph@@ 14659
aug@@ 14658
atr@@ 14656
défin@@ 14656
mineur 14656
mondiaux 14653
redécoupage 14653
gea 14652
islam 14652
lem@@ 14646
styl@@ 14646
alphabet 14644
migr@@ 14641
Aff@@ 14638
supérieurs 14638
Gran@@ 14636
plomb 14635
No 14633
disputer 14632
faisaient 14629
disposent 14623
Francfort 14621
IC 14619
dépendant 14619
ous@@ 14619
individuelles 14616
demeur@@ 14615
guère 14615
inconnu 14615
photographies 14613
Ministre 14609
proprement 14602
airement 14601
vainqueurs 14601
démar@@ 14600
ze@@ 14599
orientales 14595
vaisseaux 14590
lies 14589
tome 14589
arrêtés 14586
uch@@ 14585
up 14582
équipée 14582
Cœur 14580
primaires 14578
attesté 14577
écarts 14576
Sil@@ 14574
profil 14570
Claire 14569
Occidentale 14569
vedette 14569
78 14567
distances 14567
nique 14564
fleur 14560
bâti 14559
May@@ 14557
dér@@ 14555
chent 14554
phon@@ 14554
applique 14552
bur@@ 14552
dépression 14552
Las 14547
jo 14547
nent 14544
Léopold 14543
Barr@@ 14542
adaptée 14539
amen@@ 14537
thermique 14537
isait 14534
Anderson 14531
lecteur 14531
jouée 14520
bouche 14519
guide 14519
76 14515
prof@@ 14511
récol@@ 14506
Fol@@ 14505
bag@@ 14504
chant@@ 14501
ombre 14500
parlementaires 14500
Vir@@ 14498
Vic@@ 14497
adoptée 14495
écrites 14495
familial 14493
légi@@ 14491
put 14489
AM 14485
accueil@@ 14485
High 14483
Tunis 14482
prototype 14481
Macédoine 14479
permit 14478
descend 14474
abond@@ 14473
schéma 14471
sionn@@ 14470
collectivités 14465
Noire 14464
Fau@@ 14463
paraître 14463
gn@@ 14461
Hydrographie 14459
cô@@ 14459
rê@@ 14454
dépendance 14453
nait 14453
Réseau 14447
Rap@@ 14443
considérer 14443
effectifs 14441
ONU 14439
équivalente 14439
territoriales 14433
arc@@ 14429
matéri@@ 14429
1801 14428
immeubles 14428
régul@@ 14425
ado 14423
copie 14422
mineures 14422
Siège 14418
culminant 14418
Boulogne 14410
Franco 14409
Entr@@ 14405
offici@@ 14402
oriental 14402
Otto 14401
semblable 14399
aches 14396
Reine 14395
utilisateur 14395
chantiers 14393
Indes 14391
Arménie 14389
Limoges 14387
pain 14385
Pakistan 14384
Eurovision 14381
71 14380
Billboard 14379
présidents 14379
Flor@@ 14370
Év@@ 14370
Budapest 14369
engagée 14368
trio 14367
minér@@ 14366
1855 14364
hydrogène 14360
men 14360
92 14358
Occitanie 14355
alé@@ 14354
teau 14354
Cher 14353
prononcé 14352
patr@@ 14351
observer 14348
da@@ 14346
onnaire 14346
êt 14344
Aub@@ 14341
Stanley 14340
comtesse 14339
interprétée 14335
ith 14332
Aragon 14323
ie@@ 14323
Revue 14317
Stockholm 14316
dique 14314
I. 14312
cam@@ 14312
Ferrari 14310
alis 14310
arrestation 14310
étroite 14309
inspir@@ 14308
paire 14308
Anjou 14302
tube 14301
aure 14300
Bab@@ 14299
dien 14296
Princip@@ 14294
ignor@@ 14289
niers 14287
Cologne 14286
atis@@ 14286
Howard 14285
capables 14284
ap 14283
dou 14283
Academy 14279
Sem@@ 14279
DJ 14275
Lec@@ 14274
passes 14269
rejoignent 14269
Mul@@ 14268
ish@@ 14263
Ray 14260
cum@@ 14258
influ@@ 14256
69 14253
Maritime 14253
encad@@ 14253
inscriptions 14251
T. 14249
1859 14246
terrestres 14246
tim@@ 14245
protégée 14244
coréen 14238
vendredi 14238
Giuseppe 14236
modifier 14234
hydrographique 14233
impliqué 14233
Mess@@ 14232
porteur 14228
Province 14227
Missouri 14226
missiles 14223
pap@@ 14217
roches 14217
transformer 14216
oxygène 14215
yo 14215
ulaires 14214
Pir@@ 14206
1814 14205
Pil@@ 14205
SE@@ 14205
Bag@@ 14204
Ivoire 14204
préfère 14203
vraisemblablement 14202
Origines 14199
73 14197
définitive 14194
Lib@@ 14193
législature 14191
air@@ 14188
volontaire 14186
ć 14185
activement 14184
intervenir 14180
vari@@ 14180
récentes 14178
commerci@@ 14175
ny@@ 14174
chants 14173
entraîné 14171
Bonaparte 14170
Arch@@ 14169
ota 14167
dents 14163
vén@@ 14163
tomb@@ 14161
éliminer 14161
gère 14159
manifest@@ 14157
énorme 14157
Puy 14156
signal@@ 14156
enberg 14151
autorisé 14146
Christine 14139
ût 14138
conservés 14137
éth@@ 14136
anger 14134
æ@@ 14132
dépenses 14130
habitu@@ 14129
chercheur 14126
exprim@@ 14125
Chab@@ 14124
produisant 14121
fur@@ 14119
communément 14118
épousé 14118
ecclésiastique 14117
résulte 14115
alisées 14114
Heinrich 14112
graines 14112
urbains 14112
Liv@@ 14109
africains 14100
96 14099
attentat 14098
dons 14095
Franche 14092
han 14090
téléphone 14090
tend 14087
Fox 14084
classées 14083
vouloir 14083
Life 14081
erre 14081
condam@@ 14079
érigé 14079
chal@@ 14074
99 14073
Bes@@ 14071
patern@@ 14070
alb@@ 14069
itement 14068
çait 14068
moyennes 14067
sensiblement 14067
amas 14062
State 14060
apostolique 14060
croit 14059
résist@@ 14058
bleue 14054
records 14054
omb@@ 14053
gène 14051
Madagascar 14049
tax@@ 14048
86 14047
convaincre 14047
stable 14046
itions 14043
turque 14040
exp@@ 14035
Š@@ 14035
comtes 14034
représentés 14034
éron 14034
tionnelles 14033
triple 14033
Four@@ 14032
Hubert 14029
intelligence 14029
exc@@ 14028
pic@@ 14027
bain 14026
aliment@@ 14024
flot@@ 14024
naval 14023
81 14021
Lap@@ 14021
biologie 14019
jet@@ 14019
municipaux 14015
mont@@ 14009
réactions 14007
ordinaire 14001
Miami 13992
entation 13992
exactement 13988
è 13982
Eff@@ 13980
Isère 13980
radical 13980
entend@@ 13976
échapp@@ 13974
confé@@ 13965
festivals 13965
commandée 13964
érien 13964
Génér@@ 13963
endommag@@ 13963
fixé 13961
éduc@@ 13961
chap@@ 13960
congrégation 13960
Grégoire 13959
épée 13959
cus 13958
partent 13952
deau 13951
isti@@ 13951
Aucun 13949
témoignages 13949
Castille 13945
indiquent 13945
mâ@@ 13945
annex@@ 13940
espagnols 13939
} 13937
piliers 13935
trouvant 13935
contiennent 13932
dotée 13930
cardiaque 13929
set 13929
89 13927
Vig@@ 13925
favoriser 13925
mur@@ 13923
mesur@@ 13922
aussitôt 13920
Rugby 13918
acher 13918
comment@@ 13913
opérateur 13910
utilis@@ 13908
rach@@ 13907
universel 13906
ax 13903
donn@@ 13903
Azerbaïdjan 13902
moul@@ 13900
ese 13899
Dol@@ 13898
cide 13898
neaux 13894
sensible 13893
idi@@ 13890
incline 13887
maintient 13887
révolutionnaires 13885
tain 13885
arbitre 13880
fonctionne 13880
sympath@@ 13880
diplomatique 13879
pollution 13877
fortifications 13876
osa 13876
tre@@ 13875
Bon 13872
Tré@@ 13871
malades 13866
ila 13865
audi@@ 13864
Sun 13862
entité 13855
réputé 13845
len@@ 13843
identifié 13840
bec 13839
Cel@@ 13838
Belgrade 13837
Villeneuve 13837
paroissiale 13836
retrouv@@ 13835
sécur@@ 13835
constatés 13831
libérer 13831
Navarre 13829
incar@@ 13827
Ferr@@ 13824
Bains 13823
gouver@@ 13823
finaliste 13820
Bran@@ 13812
réservé 13812
déclin@@ 13811
Rég@@ 13807
courir 13806
froide 13806
Cul@@ 13805
Michigan 13805
virtu@@ 13805
cède 13804
pauvreté 13802
Conférence 13798
Midi 13794
session 13790
rage 13788
semb@@ 13787
coéquipier 13785
Grands 13783
87 13780
Té@@ 13778
lon 13778
installent 13776
peuplée 13771
test@@ 13771
voulu 13769
inj@@ 13767
menés 13767
1,5 13766
Science 13766
Sy@@ 13764
fa 13761
rej@@ 13761
bordure 13760
croire 13760
incarne 13757
ignac 13753
bit@@ 13749
animé 13747
carburant 13742
buteur 13741
instance 13740
islam@@ 13740
jal@@ 13740
extraction 13739
AP 13737
prière 13735
ret@@ 13735
Laf@@ 13732
datent 13732
Sorbonne 13731
enseignants 13728
Mam@@ 13726
quittent 13726
musicaux 13725
84 13724
éventuellement 13723
1856 13721
demand@@ 13721
soin 13718
Exposition 13716
Palestine 13716
Łódź 13714
Monsieur 13713
appeler 13709
enregistrer 13709
lées 13708
cylindres 13707
reprennent 13706
verts 13705
entraî@@ 13700
lut@@ 13700
Armand 13697
Cé@@ 13695
béné@@ 13695
Ali@@ 13693
inauguration 13691
Champion 13690
Nar@@ 13690
déplacer 13690
bel 13687
cerveau 13682
empê@@ 13682
ignit 13680
reconstruit 13678
baies 13676
élaboration 13676
invention 13669
tomber 13668
débarquement 13663
situations 13662
toiles 13662
artisans 13658
Loir 13657
chon 13655
1857 13652
Road 13649
bière 13645
Lisbonne 13644
flore 13644
Second 13642
gel@@ 13642
Chevalier 13640
ingen 13640
munitions 13638
inspirée 13634
CI@@ 13632
Traité 13628
Dec@@ 13624
dominant 13623
existant 13621
interrom@@ 13621
Romain 13614
basses 13614
adr@@ 13612
compréhension 13611
notoriété 13611
réparties 13610
accompagnée 13607
décors 13607
gardes 13607
réalisations 13606
Sk@@ 13603
Cass@@ 13600
ban 13600
voyant 13600
Hautes 13599
enté 13599
républicaine 13597
uti@@ 13595
Gér@@ 13592
ius 13583
alier 13575
réservoir 13574
giques 13572
chancelier 13570
UEFA 13569
brou@@ 13567
configuration 13565
concession 13561
Nintendo 13559
belges 13559
industries 13554
ics 13550
Colorado 13547
entendu 13545
J&apos; 13544
anais 13543
Lat@@ 13542
nu 13542
remonter 13541
mun@@ 13537
tissement 13536
import@@ 13534
Gour@@ 13526
associe 13524
Bâle 13523
exprimer 13522
1852 13521
client 13520
pren@@ 13520
survivants 13519
décerné 13517
lerie 13517
lis@@ 13517
Besançon 13516
ō@@ 13516
vér@@ 13514
serment 13504
alternative 13499
esclavage 13499
ilien 13498
ampleur 13496
dessert 13496
eck 13495
Bass@@ 13494
Edmond 13494
Notes 13494
Arc@@ 13491
imposant 13491
Arc 13490
Columbia 13490
Vichy 13490
Dan 13485
duchesse 13485
estr@@ 13484
réguliers 13478
conclu 13475
sig@@ 13473
82 13472
engagés 13472
Empereur 13471
appartiennent 13468
notable 13468
pre 13467
dangereux 13466
Miguel 13464
loisirs 13460
fréquent@@ 13459
rébellion 13458
habitations 13452
Van@@ 13451
substitu@@ 13449
imagin@@ 13441
mobilier 13439
Time 13434
affronte 13430
localement 13426
amér@@ 13425
impéri@@ 13424
jum@@ 13423
We@@ 13416
choc 13413
enregistrée 13410
rend@@ 13408
syndicats 13408
quais 13407
logo 13406
gies 13402
justi@@ 13402
contraintes 13401
augmentent 13400
effectuée 13397
fourn@@ 13390
SA@@ 13385
1846 13384
dig@@ 13382
organes 13377
Dublin 13374
Hom@@ 13368
exécuté 13365
considérées 13359
ett@@ 13358
raient 13357
implantation 13356
nar@@ 13356
Lot 13355
dénonce 13354
ombe 13354
quin@@ 13354
vicomte 13353
Patr@@ 13351
géné@@ 13350
libéraux 13350
LNH 13349
capture 13346
motor@@ 13346
cou 13345
General 13344
Coul@@ 13342
spiritu@@ 13341
astronomie 13336
détenu 13336
Pie 13333
aph@@ 13332
miques 13332
tit 13332
touché 13331
australienne 13327
constellation 13325
top@@ 13325
porta 13323
1854 13318
orique 13318
sortent 13318
symboles 13318
Arabie 13313
impliqu@@ 13311
démocrates 13308
mad@@ 13306
gau@@ 13303
stabil@@ 13303
luxe 13301
Fal@@ 13298
ultime 13298
confiée 13295
Cir@@ 13285
bot@@ 13285
couverte 13283
tionne 13283
liaisons 13280
tiv@@ 13280
ètres 13278
stabilité 13276
lie@@ 13275
naturellement 13274
fourni 13270
invite 13269
respect@@ 13269
Bruce 13266
Rob@@ 13266
prévention 13264
che@@ 13261
offrant 13261
mour@@ 13258
avère 13257
courtes 13257
conventi@@ 13252
rayons 13251
partant 13250
approfon@@ 13248
Marco 13245
dette 13244
Vis@@ 13242
hameaux 13240
érations 13240
lourd 13236
Bis@@ 13233
ral@@ 13233
archéologie 13230
terminus 13230
appelait 13229
énique 13228
Bourg 13226
ki@@ 13226
synagogue 13226
93 13223
Adolphe 13222
Beach 13217
loy@@ 13212
tâches 13209
divorce 13205
accumul@@ 13204
alimentaires 13202
Ne 13201
Phil@@ 13198
Socorro 13196
Faculté 13194
ski@@ 13191
Mali 13189
addi@@ 13189
eu@@ 13187
Jimmy 13186
tombes 13186
composées 13183
remarqu@@ 13182
Japonais 13177
partager 13177
1858 13176
more 13173
Louvre 13172
mammifères 13172
riv@@ 13171
Vosges 13170
Cent 13164
Little 13164
républicains 13163
plaines 13159
produites 13159
kov 13157
Kir@@ 13155
compositeurs 13155
m. 13155
vendue 13155
1849 13154
identification 13152
messe 13151
iche 13149
abandonnée 13147
colère 13146
intense 13144
statistique 13143
onom@@ 13141
bords 13140
ageant 13138
atteignant 13137
tissu 13137
restée 13132
otique 13130
pin 13129
profond 13129
Dam@@ 13127
constitutionnel 13127
correc@@ 13127
aboutit 13125
caractér@@ 13123
militant 13121
pê@@ 13120
LINEAR 13117
illons 13117
ion@@ 13116
protestants 13116
dénommé 13115
commerces 13113
neurs 13111
line 13108
veulent 13107
possédant 13103
Vit@@ 13099
Atlanta 13098
détention 13098
immigration 13098
compagnon 13096
nay 13096
sauvages 13095
ory 13094
Ma 13092
Malte 13092
fuir 13092
Rich@@ 13089
parts 13088
armés 13087
ham 13086
linéaire 13084
puissants 13083
bombardement 13081
suffixe 13080
pente 13079
abrégé 13069
Barbara 13065
continu 13064
mér@@ 13063
Mod@@ 13061
talents 13058
encontre 13057
relégation 13057
Cad@@ 13056
emment 13056
intensité 13053
Dix 13049
fro@@ 13049
pp@@ 13047
Dun@@ 13041
révél@@ 13040
souveraineté 13037
té@@ 13034
sommes 13033
ué 13032
quants 13031
régl@@ 13031
aria 13030
Golden 13029
entraîner 13029
tro 13029
archi@@ 13022
daté 13020
compagnons 13019
ataire 13018
fameux 13015
adi 13014
lor@@ 13014
oh@@ 13012
élire 13012
mil@@ 13011
Arm@@ 13009
spéciaux 13008
inus 13007
èrement 13006
tropicale 13004
financer 13002
ménages 12996
perdue 12994
réunions 12992
Mik@@ 12990
lante 12990
prolongement 12990
D2 12988
once 12988
étudi@@ 12987
N&apos; 12986
attache 12986
bruit 12983
dispers@@ 12979
suédoise 12979
Débuts 12978
contrats 12978
ident 12978
présentés 12976
Lambert 12975
humide 12973
banques 12971
Gon@@ 12970
dirige@@ 12970
st 12968
Ny@@ 12966
tronçon 12965
mul@@ 12964
continentales 12962
fragments 12962
AL@@ 12957
émin@@ 12957
dialogue 12956
riz 12952
finir 12951
Game 12950
Ty@@ 12950
ash@@ 12949
équipés 12949
79 12948
protestante 12945
lever 12944
abol@@ 12943
garanti@@ 12940
styles 12940
Kiev 12936
ovitch 12936
métrages 12933
pressions 12932
Tib@@ 12931
ce@@ 12923
Tarn 12922
législation 12922
ula 12922
mosquée 12919
enta 12918
pur 12916
humour 12912
án 12910
euil 12908
K. 12907
mémoires 12905
nazis 12904
anneau 12903
entre@@ 12903
oi 12903
disciplines 12902
Cin@@ 12898
usi@@ 12896
décer@@ 12894
exploration 12894
inter 12894
chat 12889
Pour@@ 12886
ajoutent 12886
Bay@@ 12883
byzantin 12883
83 12881
théorique 12881
oblige 12873
s. 12873
acquérir 12870
contacts 12870
Pres@@ 12868
pèlerinage 12866
çons 12862
Retour 12861
sac@@ 12860
Gordon 12859
aba 12858
paiement 12858
rendez 12857
CF@@ 12855
amené 12855
divis@@ 12855
sage 12855
séparés 12855
canaux 12854
soutenue 12854
atteignent 12850
procur@@ 12850
Fon@@ 12849
soupç@@ 12848
planètes 12846
IS@@ 12844
proposée 12840
Vin@@ 12838
antic@@ 12838
indigènes 12837
nominations 12837
recense 12834
épousa 12834
Bank 12830
Township 12830
détenus 12830
transformée 12830
Cord@@ 12828
indiqué 12828
entourée 12823
érienne 12812
harmon@@ 12811
illées 12809
romains 12808
lundi 12805
ox@@ 12805
Charlie 12802
dominante 12797
Fe@@ 12795
ids 12795
prononce 12794
adopter 12793
iment 12792
Miller 12787
cheur 12783
pasteur 12781
conqu@@ 12780
altéré 12777
organique 12777
exerc@@ 12774
rames 12771
Alliés 12770
mobiles 12770
landaise 12769
eng 12767
témoins 12765
nouvellement 12764
rédigé 12763
hiérarchie 12757
tum@@ 12757
proposent 12754
nationaliste 12752
adapter 12751
pav@@ 12751
01 12750
choisie 12749
débou@@ 12745
mécan@@ 12743
traverser 12743
Œuvre 12742
épidémie 12741
brique 12740
invent@@ 12738
FF@@ 12729
signée 12728
visi@@ 12727
della 12723
Dr 12722
onnel 12722
èche 12721
Bus@@ 12720
onnent 12719
recev@@ 12718
rival 12718
trajet 12716
Kansas 12714
environn@@ 12713
98 12708
Li 12705
recher@@ 12705
Quentin 12701
Sac@@ 12700
125 12699
légers 12699
issante 12698
width 12697
Trente 12695
atten@@ 12692
ums 12692
Bâ@@ 12689
secrets 12687
décrire 12686
salaire 12683
Pau 12682
idéal 12680
diffuse 12679
Natura 12677
Pass@@ 12676
brevet 12674
ouvrent 12671
ung 12671
AN@@ 12670
Fernando 12669
transept 12669
instaur@@ 12667
Se 12665
mo 12662
eron 12661
subsiste 12660
composent 12659
Anti@@ 12658
axes 12658
ancêtre 12654
Jonathan 12653
Bul@@ 12652
monté 12652
crédit 12645
XVI 12641
proté@@ 12640
í 12640
ago 12638
évoluait 12638
appliquer 12636
classements 12636
lorsqu 12636
Ō@@ 12635
pri@@ 12633
Show 12631
UE 12629
sculp@@ 12627
Mexico 12626
ême 12626
erreurs 12624
ple 12623
races 12622
polémique 12615
morph@@ 12614
floristique 12613
Boris 12612
Nat@@ 12612
tienne 12612
émie 12612
chiff@@ 12610
Christopher 12608
constitutionnelle 12608
tionnels 12608
allég@@ 12607
déroulée 12606
descendance 12603
certainement 12602
attirer 12599
conservateurs 12599
ressemble 12593
battue 12592
compatriote 12592
vou@@ 12592
élevées 12590
ronde 12589
if 12587
Tourn@@ 12586
Ot@@ 12585
affirmant 12584
orange 12584
AM@@ 12583
travées 12578
biographie 12576
Robin 12575
sky 12574
Bell 12573
Minnesota 12573
Situé 12573
simultanément 12572
Ensemble 12569
ope 12569
Bibliographie 12568
OS 12568
autochtones 12568
isons 12567
sin 12566
topo@@ 12565
vot@@ 12564
herbacée 12559
relev@@ 12559
appel@@ 12554
week 12553
dote 12551
artifici@@ 12550
sph@@ 12549
éclate 12548
scandale 12547
crois@@ 12546
UNESCO 12545
ili 12544
effectivement 12541
pun@@ 12541
met@@ 12540
ect@@ 12538
retar@@ 12538
Andrea 12534
inée 12532
repos 12532
Espagnols 12530
puissent 12530
continué 12525
lecteurs 12525
reau 12522
Thaïlande 12521
Nîmes 12520
châssis 12518
moments 12518
juges 12516
entrant 12514
cass@@ 12513
civiles 12512
Située 12509
Tab@@ 12509
érigée 12509
1791 12506
1831 12505
principauté 12505
vain@@ 12504
Ing@@ 12499
rich@@ 12497
coupl@@ 12496
intégr@@ 12495
touristes 12486
asser 12485
Afghanistan 12483
fonctionnaire 12483
flanc 12482
tige 12482
onien 12481
Day 12480
enseign@@ 12478
moto 12478
souvenirs 12478
human@@ 12476
mang@@ 12476
éclairage 12476
Enfant 12474
maîtr@@ 12474
Déroulement 12473
Aisne 12471
modé@@ 12471
produ@@ 12469
illi 12467
aute 12466
réqu@@ 12464
travailliste 12463
Havre 12462
adhésion 12462
ave@@ 12461
impôt 12461
iro 12461
juniors 12457
arbor@@ 12456
plant@@ 12455
détach@@ 12454
Ahmed 12451
confusion 12448
proviennent 12448
atti@@ 12447
onnelle 12447
Jura 12446
prédécesseur 12443
respecter 12443
possibilités 12442
nommer 12441
MC 12440
Évolution 12438
uz@@ 12432
lourde 12431
idés 12430
Din@@ 12429
oul@@ 12429
Isaac 12428
trésor 12428
Leipzig 12427
protégés 12425
andre 12423
poli@@ 12423
aménagé 12417
grosse 12416
établissent 12411
illard 12409
uniforme 12408
individuelle 12407
programm@@ 12407
kin@@ 12406
acides 12404
insurrection 12404
châteaux 12403
Services 12398
restaur@@ 12398
adres@@ 12397
impôts 12395
musulmane 12394
sir@@ 12392
que@@ 12390
auc@@ 12387
déesse 12387
répertori@@ 12387
métallique 12386
rayonnement 12384
utilité 12379
globale 12373
composants 12371
irlandaise 12371
Mac 12369
èvres 12369
séqu@@ 12367
3D 12365
Gh@@ 12364
rapproche 12364
futurs 12362
poètes 12361
punk 12361
ativement 12359
concurr@@ 12358
écras@@ 12357
entaire 12355
analyses 12354
participations 12353
ague 12351
citoyen 12350
résidenti@@ 12349
vid@@ 12345
sorties 12344
décédée 12343
imprim@@ 12342
Cau@@ 12340
ismes 12339
attaqué 12337
présidé 12335
yp@@ 12333
faunistique 12329
assister 12324
dép@@ 12318
mél@@ 12318
1795 12316
Act 12316
Alexandrie 12315
dresse 12315
700 12313
Ernst 12313
Microsoft 12312
abs@@ 12311
char 12311
numériques 12308
Études 12308
Hot 12302
Finances 12301
amical 12301
maritimes 12300
matrice 12300
sentiments 12298
étang 12298
législative 12294
we@@ 12291
Han 12289
habitude 12289
sec 12286
autorise 12285
conjointement 12285
diction 12285
dérive 12285
Théodore 12284
sée 12284
orum 12283
vivants 12283
Ét@@ 12280
tribune 12276
céramique 12274
éloignement 12274
ings 12272
bassins 12271
quarantaine 12270
fermes 12269
intégralité 12265
Jam@@ 12264
Pav@@ 12263
métaux 12262
annon@@ 12254
Guy@@ 12251
approvisionnement 12247
confié 12243
Ridge 12242
battent 12240
María 12239
Alb@@ 12238
Ev@@ 12238
Archives 12237
V. 12237
Kas@@ 12236
indiquant 12235
Lituanie 12234
ières 12234
rag@@ 12232
Actuellement 12227
journées 12226
1794 12225
prétend@@ 12225
Deb@@ 12224
transporter 12224
énergétique 12224
hongroise 12223
attribution 12219
créent 12214
concentre 12213
magazines 12213
refus@@ 12212
Vatican 12208
1853 12204
obtention 12204
Statistiques 12201
assisté 12199
illement 12199
Allen 12197
chiens 12195
découverts 12194
Bologne 12193
Johannes 12193
antiques 12193
Clark 12192
1845 12189
aul@@ 12189
Pér@@ 12188
personnelles 12188
désignée 12186
Kennedy 12185
po 12185
rendus 12184
sultan 12183
Santiago 12179
ill 12179
magné@@ 12179
racon@@ 12179
Guil@@ 12175
courante 12175
honor@@ 12175
choré@@ 12174
Morgan 12170
urie 12170
dist@@ 12169
Fré@@ 12167
bibliothèques 12165
urn@@ 12164
attribués 12163
exclu@@ 12163
qualifiée 12162
ancêtres 12160
Magazine 12158
protocole 12156
émergence 12155
ons@@ 12154
aa 12152
Régime 12145
91 12141
obtenue 12138
cuis@@ 12137
kan@@ 12136
taires 12136
Die 12135
Ob@@ 12133
Kin@@ 12132
préserv@@ 12132
€ 12131
développés 12130
oua 12130
évènement 12129
Voies 12126
Hau@@ 12125
provoquer 12125
uli@@ 12125
Viv@@ 12124
intellectuels 12121
avantages 12119
relatif 12116
Fur@@ 12115
Star@@ 12115
provincial 12115
Type 12112
degrés 12110
conjug@@ 12109
mortalité 12109
condu@@ 12107
Estonie 12105
gras 12102
provoqué 12102
ster 12099
criti@@ 12098
han@@ 12097
anonyme 12096
partagé 12094
voter 12094
passés 12093
liqu@@ 12091
UMP 12090
Sig@@ 12082
forcé 12082
anticip@@ 12081
Herbert 12080
retenue 12080
palest@@ 12079
Ferrand 12078
Calédonie 12075
lap@@ 12074
inien 12073
incluent 12072
exer@@ 12071
Bil@@ 12070
aristoc@@ 12068
récolte 12068
entraînant 12066
acées 12064
racine 12064
Bad@@ 12063
aume 12062
capturé 12062
cru 12059
Télé@@ 12058
collective 12058
AD@@ 12056
escadre 12055
ow@@ 12053
bol@@ 12047
XI 12046
annoncée 12046
violences 12046
Conn@@ 12045
courbe 12045
Baz@@ 12039
Pod@@ 12037
ulation 12036
AC@@ 12034
Non 12033
Années 12031
fresques 12030
Nu@@ 12029
assa 12029
fou 12028
habitats 12026
1837 12024
aisse 12024
écoul@@ 12024
zon 12021
œuv@@ 12016
tubes 12015
Duc 12014
ériens 12013
datée 12012
Moulin 12007
affluents 12005
roche 12005
oa 12003
Silésie 12002
ho 12002
rh@@ 12000
Gand 11999
planches 11999
obtiennent 11996
endre 11992
montage 11991
caméra 11989
entra 11988
palmarès 11988
avons 11987
repouss@@ 11987
Berne 11986
Son@@ 11986
amin@@ 11986
gènes 11986
ska 11980
aceae 11976
esti@@ 11976
well 11976
territorial 11975
Nick 11974
endront 11974
star 11972
sèche 11971
1812 11970
arron@@ 11970
bombe 11970
sible 11969
abus 11967
famili@@ 11965
16@@ 11962
massive 11961
céréales 11960
ériques 11959
Ng@@ 11951
recrutement 11951
constate 11950
Alberto 11948
décisive 11947
Aut@@ 11946
condamnés 11946
uma 11945
conclu@@ 11943
dépos@@ 11943
patient 11941
rendit 11941
dépôts 11940
dérivés 11940
ligues 11939
agré@@ 11936
owski 11936
détru@@ 11934
médicaments 11933
ator 11931
réunis 11931
Prot@@ 11929
économ@@ 11927
110 11923
Studio 11923
discut@@ 11919
comptent 11917
gloire 11917
onction 11916
ans@@ 11910
Ober@@ 11907
urg@@ 11906
irait 11905
1847 11900
survie 11899
gir@@ 11898
renseignement 11898
Billy 11897
repas 11897
Sén@@ 11895
ung@@ 11889
provinciale 11887
ël 11886
Russell 11884
solde 11883
aid@@ 11881
sauvetage 11880
tière 11880
Nou@@ 11879
envis@@ 11878
urbaines 11878
fan@@ 11877
poche 11876
Ry@@ 11875
chapiteaux 11874
Roy@@ 11872
anz@@ 11871
Nelson 11865
accuse 11865
empare 11863
logis 11863
déposé 11862
Helsinki 11859
abside 11857
tia 11857
vesti@@ 11857
ier@@ 11856
faillite 11854
CH@@ 11852
Margaret 11850
témoignent 11850
1832 11848
Grand@@ 11847
Philip 11846
gagnant 11845
contrainte 11841
algérien 11838
connaissent 11837
siens 11837
ó 11836
amén@@ 11834
Ain 11833
accordé 11832
istan 11832
Guer@@ 11831
molécules 11831
gravement 11829
norvégien 11826
évalu@@ 11821
fas@@ 11820
chanter 11819
désir@@ 11819
hébreu 11816
maîtresse 11815
fê@@ 11812
agriculteurs 11810
lag@@ 11808
temples 11807
aiss@@ 11805
juridiques 11805
uk@@ 11804
coupable 11803
délic@@ 11803
lera 11802
mant 11802
Mazovie 11801
Gênes 11800
ini@@ 11800
alisant 11799
mier 11798
méth@@ 11797
oubli@@ 11796
four 11794
RI@@ 11793
développent 11793
pi 11793
box 11792
prendra 11790
disparaître 11785
gran@@ 11785
An 11784
nour@@ 11783
.com 11782
Nigeria 11781
peloton 11778
Fred 11776
québécoise 11776
investissements 11774
reconstruite 11774
autés 11773
façades 11772
Hermann 11771
Station 11770
Slovaquie 11768
Liverpool 11767
raf@@ 11767
vraie 11766
écrivit 11766
sign@@ 11764
pent@@ 11760
relatives 11759
Internationale 11756
Janeiro 11756
ize 11753
Pey@@ 11751
USA 11751
dépend@@ 11750
occidentaux 11750
97 11749
odi@@ 11749
approuvé 11748
Voie 11747
flu@@ 11747
ę@@ 11744
Création 11743
TF1 11743
diffus@@ 11740
hôpitaux 11739
dénombr@@ 11738
chers 11737
dessin@@ 11737
plainte 11735
transmis 11735
cir@@ 11734
mesurer 11732
trou 11731
burg 11730
ón 11729
assassin@@ 11727
portugaise 11727
Match 11725
Mission 11725
catastrophe 11724
Églises 11722
TER 11720
module 11720
Hon@@ 11719
Houston 11719
éthique 11719
Bern@@ 11718
ajout 11718
Raoul 11717
disputée 11717
reven@@ 11714
Google 11712
Neuve 11706
Magdalena 11705
pauvre 11704
Grecs 11701
astronomique 11700
particip@@ 11700
ballon 11696
din@@ 11695
effondrement 11695
Uruguay 11694
fabri@@ 11690
NASA 11687
animateur 11686
bombardements 11686
nœuds 11685
provo@@ 11685
judiciaires 11684
spécialisés 11684
tutelle 11683
Soci@@ 11682
aluminium 11681
incendi@@ 11676
suspendu 11676
xi@@ 11676
Met@@ 11675
inal 11675
Roc@@ 11673
Utilisation 11673
rus@@ 11673
loge 11672
syndrome 11669
thé 11666
banc 11665
ock 11664
échappe 11664
retourn@@ 11663
allong@@ 11662
Stadium 11659
pollu@@ 11659
révision 11659
bier 11658
Mous@@ 11657
réd@@ 11655
terminent 11655
chapelles 11654
uer 11653
Esprit 11649
apogée 11646
domestique 11646
évacu@@ 11644
gi 11641
galeries 11640
ignes 11639
entreten@@ 11638
pentes 11638
Géologie 11637
intern@@ 11635
méridionale 11635
tes@@ 11634
1836 11633
Islande 11633
quinzaine 11633
coque 11632
découpage 11632
éry 11631
Louisiane 11630
ares 11630
vies 11630
diplomate 11628
médiéval 11628
riers 11626
vus 11626
votes 11625
Pay@@ 11624
réci@@ 11620
Devant 11617
obé@@ 11617
sociologie 11616
ense@@ 11615
nationalistes 11615
olles 11614
RD 11613
inhum@@ 11613
Julie 11612
demandes 11612
illustré 11612
pattes 11611
oz@@ 11608
grecs 11602
1833 11600
ouer 11599
Ross 11598
occitan 11597
effectuées 11595
gros@@ 11595
prestigieux 11595
Bak@@ 11594
Eure 11593
demandant 11592
liers 11591
rech@@ 11591
auxquelles 11587
récompenses 11586
Web 11585
ref@@ 11585
consécutive 11582
romane 11582
temporaire 11581
constru@@ 11576
ô 11575
admir@@ 11574
oro 11574
Tir@@ 11573
hasard 11565
surve@@ 11563
CC@@ 11561
Nag@@ 11560
grandi 11560
franchir 11555
étendu 11555
cherch@@ 11554
Seuls 11553
émet 11553
dues 11552
confi@@ 11551
Gas@@ 11548
concepts 11548
urban@@ 11547
amoureuse 11545
PA 11544
Lettres 11543
drogue 11543
normalement 11543
souffre 11543
boucle 11540
1841 11538
Shanghai 11538
Nan@@ 11537
fusionne 11536
détruits 11535
enchaî@@ 11535
romaines 11535
obligé 11532
ichi 11531
apport 11529
Andr@@ 11528
1835 11527
séparé 11527
sonore 11525
manger 11524
red@@ 11524
arrê@@ 11523
ann 11522
2,5 11521
parution 11521
romantique 11519
chrom@@ 11518
adj@@ 11517
carrés 11517
effectués 11516
ouvr@@ 11516
pé 11516
Georg 11514
innovation 11513
ïde 11513
Jur@@ 11512
déplacements 11512
plaisir 11512
ino@@ 11507
concurrents 11506
pron@@ 11502
sortes 11501
barrages 11500
suiv@@ 11499
appuy@@ 11497
exposée 11496
équi@@ 11495
Protection 11494
signification 11489
Cher@@ 11485
académique 11485
réserv@@ 11485
distinctes 11483
10.@@ 11481
Masters 11479
modifiée 11478
assimil@@ 11477
baptis@@ 11477
retrouvés 11475
latérales 11474
ish 11473
assurant 11472
pilot@@ 11470
tromp@@ 11470
lu 11467
positive 11467
quadr@@ 11466
Lanc@@ 11464
manipul@@ 11464
Ryan 11461
raffin@@ 11460
Initialement 11458
marge 11457
Hav@@ 11456
affect@@ 11456
reprenant 11456
Ville@@ 11450
suisses 11448
circul@@ 11447
dale 11445
interven@@ 11445
ast 11444
Bowl 11441
Couronne 11441
astiques 11440
vitraux 11439
apparemment 11437
licenci@@ 11437
régiments 11434
appris 11432
départementaux 11432
Studios 11431
occup@@ 11430
partagent 11429
anisme 11426
Enfance 11425
hétéro@@ 11421
mécaniques 11419
tombeau 11419
alla 11418
hésit@@ 11417
vint 11416
appliquée 11413
Singapour 11412
attentats 11412
Syn@@ 11411
comtés 11408
critiqué 11408
obtenant 11407
Malaisie 11405
sax@@ 11401
mobilisation 11398
times 11397
Bré@@ 11393
Vancouver 11388
aînée 11387
ker@@ 11387
proclam@@ 11387
Observatoire 11386
essaie 11386
tenus 11386
étern@@ 11384
mous@@ 11382
cratère 11380
ire@@ 11379
voler 11379
tissus 11377
firme 11376
Loiret 11373
Bonn@@ 11369
remporta 11368
side 11368
déclar@@ 11367
tois 11364
hôtels 11363
dispos@@ 11362
Bar 11361
igues 11361
mani@@ 11361
sam@@ 11361
domestiques 11360
fondations 11360
sexuel 11360
accél@@ 11359
Analyse 11357
minorité 11357
annexe 11356
rédige 11356
Andy 11355
duit 11354
Dordogne 11353
94 11351
déclarant 11351
mythe 11350
censure 11349
Zone 11348
eli@@ 11347
ke@@ 11346
isi 11344
éro 11344
jan@@ 11343
dénommée 11341
géométrie 11341
épar@@ 11341
tradu@@ 11339
Roman 11335
bénéficier 11335
distingu@@ 11334
exigences 11334
architectural 11333
eth@@ 11333
mess@@ 11331
Vendée 11330
condamnation 11328
supprim@@ 11326
ajoutant 11325
invers@@ 11325
radar 11325
secrète 11324
Kom@@ 11323
Apple 11322
publia 11322
éditeurs 11322
Salvador 11317
fique 11316
ologies 11311
unis 11310
laissent 11307
uy@@ 11305
cinquantaine 11304
manager 11304
eni 11303
ath 11302
Éthiopie 11299
entités 11298
travaill@@ 11293
Song 11292
colon@@ 11292
conformément 11292
neuse 11292
fabriqué 11291
agées 11290
bassiste 11286
Habitat 11285
Mour@@ 11285
pera 11284
rentrée 11284
chevaliers 11281
coc@@ 11281
poussée 11281
décalage 11279
hivern@@ 11279
dose 11278
bir@@ 11277
offrent 11276
tric@@ 11276
nig@@ 11272
susceptibles 11270
symptômes 11269
entiers 11268
relégué 11265
extraits 11262
méditerranéen 11260
océ@@ 11259
1806 11257
corde 11256
éto@@ 11256
WWE 11254
kilomètre 11251
land@@ 11251
échang@@ 11251
restaurants 11250
Arnaud 11248
fol@@ 11247
publiquement 11245
élarg@@ 11245
1842 11242
compos@@ 11242
résidents 11242
Esc@@ 11241
sais 11240
Caire 11237
conclusion 11234
vastes 11234
dessiné 11231
détroit 11230
Chef 11229
NE@@ 11229
rance 11224
chauff@@ 11223
ône 11223
Tourisme 11222
revers 11222
RA 11221
convient 11221
sélectionneur 11221
théor@@ 11221
cle 11220
1839 11219
God@@ 11218
traversant 11217
Mut@@ 11216
RE@@ 11215
résidant 11215
bact@@ 11211
cessé 11210
discussions 11210
Distinctions 11209
antérieure 11209
Lucas 11208
aissant 11206
Main 11205
constructeurs 11199
Trinité 11196
Rav@@ 11195
ments 11194
FI@@ 11192
Bad 11189
Matt 11189
dir 11189
équival@@ 11187
inondations 11186
marines 11184
enquêtes 11182
Bohême 11181
Ludwig 11181
phonie 11180
suffit 11180
ailier 11178
ogr@@ 11178
onnet 11178
master 11177
bits 11176
diplomatiques 11176
gan@@ 11175
établis 11175
recrut@@ 11174
atisation 11173
iko 11172
laine 11171
parvenir 11171
Détroit 11168
électroniques 11166
lune 11164
inscrivant 11160
pris@@ 11159
Ki@@ 11158
latéral 11158
magnétique 11158
1843 11157
Ran@@ 11156
cache 11156
remp@@ 11156
intercommunale 11154
Tel@@ 11153
1834 11149
atte@@ 11149
auront 11149
sci@@ 11148
asa 11144
offert 11142
qualifiées 11141
escadron 11140
Taïwan 11139
Flam@@ 11138
oblast 11138
onnements 11138
évêché 11135
locomotives 11133
coiff@@ 11131
rivalité 11131
réc@@ 11128
Near 11127
délai 11126
Our@@ 11125
claire 11123
Fro@@ 11117
Louvain 11116
consac@@ 11116
envergure 11115
accompagner 11114
amélior@@ 11114
serie 11114
immobilier 11112
Hab@@ 11110
cens@@ 11110
moral 11110
collaborateurs 11107
possessions 11107
roumain 11107
iler 11104
Moore 11103
AP@@ 11099
Seigneur 11099
exceptionnelle 11095
réaliste 11095
Jason 11094
fantastique 11093
sélectionnés 11090
sey 11087
Harvard 11086
new 11086
tron 11085
successifs 11084
lourdes 11083
décid@@ 11081
ouche 11081
van@@ 11081
commun@@ 11080
entielle 11078
successives 11076
Ange 11074
Blan@@ 11073
plastique 11072
ef 11071
prouver 11067
diagnostic 11066
destin 11065
bulgare 11064
12@@ 11063
avocats 11062
Thor@@ 11061
livré 11060
conte 11056
argentin 11055
ado@@ 11053
Indre 11051
gravure 11047
natation 11046
vain 11046
Fonds 11044
engag@@ 11044
soulèvement 11042
Tim 11039
ost 11039
rig@@ 11039
Stone 11037
mond 11035
Gab@@ 11030
Travaux 11028
Comics 11026
14@@ 11025
subir 11024
ammes 11023
divise 11022
reti@@ 11022
rejo@@ 11021
trouvaient 11021
Frères 11018
voulant 11016
relier 11014
Étoile 11013
Galerie 11009
OTAN 11008
States 11006
Abbaye 11004
clandest@@ 11002
prosp@@ 11001
1838 11000
accept@@ 10999
ange@@ 10998
Mohammed 10996
attribu@@ 10996
coupes 10995
fréquentation 10994
maj@@ 10994
parue 10993
Seul 10991
phén@@ 10991
Ibn 10990
accusations 10989
vo 10989
Temps 10988
châ@@ 10988
Russes 10986
patri@@ 10986
Gironde 10984
Indien 10983
bâton 10983
ben@@ 10982
maçonnerie 10982
timbres 10981
1844 10979
appartements 10979
lot@@ 10979
traî@@ 10974
Leg@@ 10971
plur@@ 10969
estimations 10968
bonus 10967
documentaires 10966
RS 10965
épo@@ 10964
début@@ 10962
détec@@ 10962
Brun@@ 10961
traitements 10960
Rochelle 10959
créations 10958
renom@@ 10954
agés 10953
indu@@ 10953
plafond 10951
prolonge 10951
err@@ 10950
ian 10949
silence 10949
long@@ 10946
commentaires 10942
dépasser 10940
cantonal 10938
rectangulaire 10938
renouvellement 10938
législatif 10937
var@@ 10936
Om@@ 10935
sphère 10934
Kab@@ 10929
Bilan 10928
Dro@@ 10927
billets 10927
osité 10927
maqu@@ 10925
baptisée 10922
bactéries 10919
Heures 10918
timbre 10918
ver 10916
mans 10915
messages 10913
Walt 10911
nav@@ 10908
ão 10906
disposant 10905
reconnus 10905
télévis@@ 10903
los@@ 10902
aig@@ 10899
Américain 10898
Territoire 10896
oma 10894
Leb@@ 10892
abat@@ 10892
Las@@ 10887
armoiries 10887
conven@@ 10887
Dave 10886
Nobel 10886
devance 10886
Berg@@ 10885
Europa 10885
sérieux 10885
DS 10884
Jupiter 10884
intrigue 10884
aéronautique 10880
Res@@ 10878
italiennes 10878
Ja@@ 10876
quette 10874
usement 10874
funéraire 10871
conservées 10870
fine 10868
Chamb@@ 10867
religions 10867
mécanismes 10864
neutre 10863
poin@@ 10863
démonstration 10862
roue 10862
orie 10859
suppos@@ 10859
vil@@ 10858
ema 10857
aspir@@ 10855
Ball@@ 10850
copies 10850
cer 10849
Wi@@ 10847
grim@@ 10846
trouvés 10845
homonyme 10843
plats 10843
ménage 10842
algorithme 10841
gen 10838
occidentales 10837
asiatique 10835
indiens 10835
confirmée 10834
Mach@@ 10832
poétique 10831
fur 10830
ench@@ 10829
sonde 10827
extraordinaire 10826
royaumes 10825
Go 10824
reliques 10824
Emma 10823
extr@@ 10821
alpin 10819
voul@@ 10819
erne 10816
perception 10814
poursuivi 10814
identiques 10813
vor@@ 10811
coupé 10810
pneum@@ 10810
emprisonné 10809
Adrien 10808
13@@ 10807
Cercle 10805
inhabit@@ 10804
CE 10802
contributions 10798
Rot@@ 10797
mit@@ 10797
rab@@ 10797
Raphaël 10796
basées 10796
èdent 10796
ingénierie 10795
rat 10794
Chypre 10793
demandent 10791
devra 10790
qualific@@ 10788
cio 10787
Forêt 10786
jugés 10786
odes 10786
clôture 10783
visites 10783
cho 10782
Ottawa 10780
olog@@ 10775
précieux 10774
anga 10773
isol@@ 10773
quantités 10772
accord@@ 10771
Pos@@ 10770
relâ@@ 10770
cérémonies 10767
eo 10767
parallèlement 10765
escence 10763
fri@@ 10762
Mr 10761
spirituel 10761
temporairement 10760
déploy@@ 10758
explication 10756
associées 10754
elier 10752
Séville 10751
apprécié 10749
eint 10748
Hervé 10747
appartenance 10744
apporté 10742
fra@@ 10740
lio 10740
fichiers 10739
angles 10738
ij@@ 10738
my 10737
menaces 10734
disposait 10730
mel@@ 10729
Fribourg 10723
XII 10723
1810 10722
Cit@@ 10722
supervis@@ 10720
Hum@@ 10718
balles 10718
variation 10717
Seg@@ 10716
finissent 10716
comics 10715
na@@ 10715
Ariège 10714
survécu 10714
significative 10713
distribué 10712
Ten@@ 10711
douleur 10710
trom@@ 10709
fient 10708
with 10708
phil@@ 10703
servait 10702
Celles 10699
cru@@ 10699
embau@@ 10699
uc 10698
valent 10697
joua 10695
travée 10691
céder 10690
bombar@@ 10689
controverse 10689
lauréat 10689
reconn@@ 10689
chevet 10687
debout 10687
rembour@@ 10687
restauré 10686
muet 10683
confis@@ 10682
Vid@@ 10679
pratiquer 10679
dil@@ 10678
creus@@ 10674
vie@@ 10674
particulières 10671
Rangers 10669
chêne 10668
mathématique 10667
Fernand 10666
impératrice 10665
News 10662
vigne 10660
apparue 10658
connexion 10657
amphibiens 10655
Mun@@ 10654
sigle 10654
Asteroid 10653
dict@@ 10653
ka@@ 10653
Ass@@ 10652
ist 10652
passées 10652
provoquant 10652
élimin@@ 10652
gravité 10650
proposant 10650
nag@@ 10647
écoule 10647
chanteurs 10645
juives 10643
acquise 10641
étal@@ 10641
sortis 10639
faces 10638
introduite 10636
mensuel 10636
renonce 10635
attribuer 10634
ceaux 10634
dres 10633
ouvrière 10631
Duc@@ 10630
Sak@@ 10627
Angoulême 10621
Conception 10619
Vend@@ 10619
Recherche 10618
réalisme 10617
régulières 10617
ieuse 10616
parlant 10615
PlayStation 10614
jouait 10614
feld 10613
global 10613
m&apos; 10613
épouser 10612
fonctionner 10610
responsabilités 10608
show 10605
sive 10605
Kelly 10602
fond@@ 10602
Droit 10600
harmonie 10600
pre@@ 10600
exploité 10599
attendant 10598
poudre 10598
combiné 10597
comb@@ 10595
mers 10594
terie 10592
tières 10592
vement 10589
RT@@ 10586
parlent 10584
Castel@@ 10582
contes 10579
posthume 10579
chapitres 10577
Copenhague 10574
Co 10573
Hi@@ 10571
mobilité 10570
opposants 10569
discussion 10567
Publications 10564
conducteur 10564
entretient 10560
géologique 10558
exemplaire 10557
Mercedes 10552
solidarité 10548
végét@@ 10546
Jun@@ 10544
spécifiquement 10544
Night 10543
neur 10543
Wol@@ 10542
Franklin 10541
enseigner 10540
missionnaires 10540
még@@ 10537
issance 10536
enregistrés 10535
suffisant 10535
mentionnée 10534
sous@@ 10534
immédiate 10533
rendue 10533
dépour@@ 10529
explic@@ 10528
inscrire 10527
Appar@@ 10526
porteurs 10523
Chelem 10521
écologie 10520
remontent 10519
astre 10518
technologique 10518
tz 10518
jonction 10516
Panama 10513
Avenue 10512
recens@@ 10512
ordinateurs 10511
Gén@@ 10509
coïn@@ 10509
pluies 10509
divor@@ 10507
rachat 10507
automobiles 10506
laï@@ 10506
Tribunal 10505
matériels 10505
Grant 10504
ern@@ 10504
15@@ 10499
onnaise 10499
roc@@ 10499
calme 10498
loise 10498
déplo@@ 10497
Melbourne 10496
Wa@@ 10496
hérite 10496
mathématicien 10495
réparation 10494
ran 10493
exécut@@ 10492
féministe 10490
succédé 10487
cercles 10486
C.@@ 10485
associ@@ 10485
peste 10483
sauv@@ 10483
130 10482
Mississippi 10482
ej@@ 10480
itant 10479
Stuart 10477
existé 10474
Challenge 10472
télévisées 10472
blement 10470
arcades 10468
nin 10468
accompagn@@ 10466
console 10466
acle 10465
esprits 10462
NFL 10461
supprimé 10460
Structure 10459
toir 10457
attest@@ 10453
ort 10452
Et@@ 10451
S.@@ 10451
pens@@ 10451
Antilles 10450
parlé 10450
réglementation 10448
A.@@ 10447
éventu@@ 10447
ît 10444
alcool@@ 10442
finlandais 10442
globalement 10436
séparée 10434
Sir@@ 10433
servit 10433
Postérité 10432
complot 10432
hospit@@ 10431
contre@@ 10430
coordination 10430
grès 10429
Centrale 10428
als@@ 10428
satis@@ 10427
gas@@ 10426
gravures 10422
Prom@@ 10421
potable 10420
intermédiaires 10418
randonnée 10417
prouve 10416
soie 10416
arrêts 10415
cross 10415
dication 10412
Clo@@ 10411
couples 10411
ibn 10410
croissante 10409
originales 10409
étaires 10409
désignant 10408
traction 10408
tél@@ 10408
horreur 10406
Village 10405
envoyée 10405
23@@ 10403
antérieures 10402
rachète 10401
gain 10398
aç@@ 10397
It@@ 10396
cord@@ 10396
navig@@ 10396
atterrissage 10392
instant 10391
Canadiens 10390
noces 10390
récompensé 10389
avènement 10388
priorité 10388
modernisation 10385
Tchécoslovaquie 10382
déclen@@ 10381
réservée 10381
Saints 10379
ames 10379
Rh@@ 10378
series 10378
Indiana 10377
amende 10377
feu@@ 10377
disposer 10376
escorte 10376
document@@ 10374
Aucune 10372
Cleveland 10371
Directeur 10371
opposer 10370
Rus@@ 10368
Pietro 10366
solid@@ 10362
souverains 10361
transférée 10361
Ép@@ 10360
écou@@ 10354
oto 10352
sangu@@ 10351
audio 10349
uer@@ 10349
normal 10348
asi@@ 10347
éenne 10346
concernent 10345
sson 10345
obus 10344
panneau 10343
orbit@@ 10342
évacuation 10339
contreb@@ 10336
Léonard 10335
artis@@ 10335
brève 10335
ives 10334
joués 10333
Commonwealth 10332
déplace 10332
imaginaire 10332
Turcs 10330
colonial 10330
plume 10330
rebonds 10329
sensibilité 10328
Dum@@ 10324
Line 10323
ack 10322
Math@@ 10321
extinction 10319
pions 10319
ancé 10318
nazie 10318
foc@@ 10317
not 10314
usages 10314
fabricant 10313
Berry 10312
Lig@@ 10312
bordée 10312
handicap@@ 10312
Wo@@ 10309
évaluer 10309
contenir 10308
Jazz 10307
tir@@ 10305
apparente 10304
ense 10303
pédagogique 10303
perfec@@ 10302
Roberto 10301
formul@@ 10301
ú@@ 10301
bouddhisme 10298
protéine 10298
tox@@ 10298
Aud@@ 10297
aut@@ 10295
herbe 10294
int 10293
piét@@ 10293
crête 10292
donnés 10292
dépl@@ 10292
exposés 10292
mesurent 10292
voû@@ 10291
film@@ 10289
résistant 10289
teaux 10288
anda 10287
précon@@ 10285
Jeff 10283
Jr 10283
Équateur 10283
carrefour 10282
confluence 10281
usions 10281
otr@@ 10279
ji@@ 10276
récup@@ 10273
viers 10273
Games 10271
bonheur 10267
partition 10267
accusation 10264
mètre 10264
renoncer 10264
Franck 10263
ip@@ 10263
constitués 10261
Bér@@ 10259
idence 10257
vaincu 10257
Transport 10256
considérant 10254
Autour 10246
codes 10246
séparées 10246
pleinement 10245
ington 10242
sacrée 10242
XV@@ 10241
périmètre 10241
arrêtée 10240
libertés 10238
gou@@ 10236
mensu@@ 10236
Edgar 10235
Déc@@ 10234
réparti@@ 10234
mati@@ 10231
vive 10231
annoncent 10230
onia 10230
envisage 10229
réfugi@@ 10228
Marvel 10226
das 10224
consol@@ 10222
onienne 10222
AI@@ 10221
ă@@ 10221
crimin@@ 10220
cules 10220
Époque 10220
Plat@@ 10218
Hesse 10217
mandats 10215
champignons 10212
Mér@@ 10209
Restauration 10209
agences 10209
interface 10209
nazi 10209
17@@ 10208
igner 10208
LO@@ 10205
sentier 10203
rabbin 10201
Environnement 10200
MA 10199
articul@@ 10199
Win@@ 10198
Guyane 10197
déterminé 10196
comique 10195
situent 10190
œuf 10190
Dragon 10188
arti@@ 10188
enses 10187
lâ@@ 10187
tempor@@ 10187
connut 10186
suffrage 10185
conse@@ 10182
converti 10177
prol@@ 10177
exceptionnel 10175
Anton 10174
placées 10173
rais@@ 10173
Salomon 10172
abr@@ 10171
utiles 10170
Sub@@ 10167
Gold 10162
hôtes 10162
Adolf 10161
députée 10161
afro 10159
philosophique 10159
RN 10156
oncé 10156
Environ 10153
accidents 10153
sév@@ 10153
bref 10152
bal 10151
illustrations 10150
san@@ 10150
appuyant 10149
répand@@ 10149
AT 10148
prestation 10147
réalisant 10147
Jordan 10146
IC@@ 10145
grandeur 10143
recruté 10141
spontan@@ 10141
prolongation 10139
célébrer 10137
compléter 10136
Kent 10135
diminue 10135
fleur@@ 10135
égyp@@ 10134
Sag@@ 10132
vivait 10131
bataillons 10130
ops 10130
arcs 10129
devise 10128
mê@@ 10127
signific@@ 10126
tari@@ 10124
basés 10123
Namur 10122
consacrés 10118
emparer 10117
ein 10115
thiques 10114
ducs 10111
30@@ 10110
geste 10110
tine 10110
atie 10109
lyonnais 10109
bord@@ 10108
4,@@ 10107
diminuer 10107
icule 10107
séparer 10107
Suzanne 10106
tribunaux 10101
dol@@ 10098
ballet 10097
libérale 10097
sanitaire 10097
bu 10093
prochaine 10093
rique 10093
célébr@@ 10092
pêcheurs 10092
suppose 10092
bless@@ 10090
bénéfici@@ 10089
Baie 10088
intim@@ 10088
réform@@ 10088
Commun@@ 10085
adhère 10082
triomphe 10081
attend 10079
Nommé 10078
icul@@ 10078
fixée 10077
alle 10076
implication 10076
issé 10076
kine 10075
zon@@ 10073
imposé 10071
Boy 10070
Réforme 10069
Master 10068
ag 10067
Rosa 10066
sexuelles 10064
Arnold 10062
extérieures 10062
Clar@@ 10061
géographiques 10061
hr@@ 10057
inn@@ 10056
margin@@ 10056
Iowa 10055
SO@@ 10055
Shi@@ 10055
bourgeoisie 10055
halte 10055
réunir 10055
terait 10055
CF 10054
RA@@ 10054
dél@@ 10053
gérant 10048
compéti@@ 10046
Kl@@ 10044
fût 10044
localisation 10044
allée 10043
flèche 10042
systématique 10042
Aéroport 10041
Vass@@ 10040
èbres 10040
Ian 10039
foncé 10037
éran@@ 10037
Murray 10036
interpr@@ 10036
slalom 10036
vieill@@ 10035
attiré 10034
mix@@ 10034
subsist@@ 10034
vicaire 10033
expres@@ 10032
perç@@ 10032
èze 10032
confirm@@ 10031
ken 10030
batteries 10027
bén@@ 10027
rappeur 10027
ido 10023
net@@ 10021
autrement 10019
hop 10018
tabac 10018
insist@@ 10017
librement 10016
ye@@ 10016
Palé@@ 10012
pensent 10012
tenaient 10012
délégués 10010
dégrad@@ 10005
sou 10005
niens 10004
nécessairement 10004
Tennessee 10003
Commerce 10000
Media 9998
constat@@ 9998
mondiales 9998
noté 9996
ras 9994
rat@@ 9994
voté 9994
draft 9991
consécutives 9987
ín 9986
intensi@@ 9983
féminines 9980
recteur 9977
amine 9976
éditée 9975
assemb@@ 9974
aménagements 9973
Med@@ 9972
Bach@@ 9971
alar@@ 9971
alias 9971
intellectuelle 9971
Lot@@ 9970
asses 9969
forestière 9969
onnage 9969
Chartres 9968
lais 9967
lit@@ 9967
caractérisé 9966
lancent 9966
esthé@@ 9964
py@@ 9964
Ky@@ 9963
récents 9962
profiter 9960
usa 9959
entin 9957
masque 9957
Power 9956
Caraïbes 9955
symphonique 9955
ajou@@ 9954
fun@@ 9953
ègue 9952
Dunkerque 9950
assum@@ 9948
demanda 9947
Mit@@ 9944
détermination 9944
house 9944
métall@@ 9944
dominé 9943
SN@@ 9942
composer 9942
intérim 9942
flan@@ 9941
japonaises 9939
popular@@ 9939
eine 9936
Compétition 9935
dissous 9934
pure 9934
vol. 9934
Sécurité 9933
affin@@ 9933
finance 9932
élévation 9931
invo@@ 9930
synonyme 9929
location 9928
Inter 9927
heur@@ 9925
roy 9925
Jardin 9924
physi@@ 9923
sus 9920
bétail 9916
expédi@@ 9916
tré 9916
étrang@@ 9916
inaire 9915
diesel 9913
taur@@ 9913
bau@@ 9912
composant 9912
ATP 9911
Hen@@ 9909
anci@@ 9908
iture 9908
Pet@@ 9907
constamment 9907
notation 9906
peupl@@ 9906
prestige 9905
çu 9904
habil@@ 9902
enseigné 9901
lers 9900
point@@ 9898
tér@@ 9898
04 9894
illère 9894
vagues 9894
Écologie 9891
graveur 9890
spirituelle 9890
Luigi 9889
exige 9888
obligations 9888
quier 9888
arbustive 9887
dera 9887
défenseurs 9887
Arn@@ 9886
compromis 9885
old 9885
Bach 9884
persu@@ 9884
renseignements 9882
sives 9882
pros@@ 9881
Robinson 9879
Forum 9878
Ostr@@ 9878
Pen 9878
Bra@@ 9877
Lionel 9877
any 9877
rénov@@ 9876
rapproch@@ 9875
exécuter 9873
complexité 9872
olle 9872
afflu@@ 9871
Ash@@ 9870
Sierra 9868
affirmé 9864
blues 9864
Libye 9863
croiseur 9863
diffusés 9862
neux 9861
patrouille 9861
portion 9861
abord@@ 9860
organis@@ 9859
parking 9858
Fri@@ 9857
ahi 9856
Hay@@ 9855
Lion 9855
dus 9855
cohér@@ 9853
expert 9851
visions 9851
Carter 9850
hauteurs 9849
monétaire 9848
vérifier 9848
SK 9847
~ 9847
Major 9846
Source 9846
Aveyron 9845
aliments 9845
invitation 9845
cell@@ 9843
guér@@ 9842
maintenu 9839
desservi 9838
ray 9838
Ari@@ 9836
CO 9836
prochain 9836
polyn@@ 9833
way 9830
sonne 9829
Great 9828
intr@@ 9826
réorganisation 9826
06 9825
marketing 9825
interdite 9824
tz@@ 9824
ista 9823
fi 9821
scolarité 9820
ania 9819
hypothèses 9817
intéressant 9817
poules 9816
conservatoire 9813
doyen 9813
fausse 9813
indicateur 9813
lim@@ 9813
opér@@ 9812
1824 9811
suscite 9811
rapprocher 9809
Montagne 9808
entaires 9808
vê@@ 9808
sémin@@ 9807
1825 9806
récent 9806
Sarkozy 9805
renvoy@@ 9803
Oliver 9802
maturité 9800
aborde 9799
individu@@ 9798
entrepris 9793
fabriquer 9792
plaçant 9792
suff@@ 9792
MS 9790
const@@ 9790
Beaumont 9789
lentement 9788
Petr@@ 9782
· 9782
Biélorussie 9781
ś@@ 9780
R.@@ 9779
artificielle 9779
diffuser 9779
acoustique 9778
coton 9778
journalisme 9777
Chan@@ 9776
alerte 9775
aisons 9774
cristall@@ 9774
espi@@ 9774
alière 9773
musulman 9772
istr@@ 9771
collaboré 9770
1802 9769
celtique 9769
endommagé 9768
fondent 9767
Best 9766
bulle 9766
aie 9765
chement 9765
empris@@ 9765
regroupement 9765
ū@@ 9765
ble@@ 9764
ult@@ 9764
Corn@@ 9763
plages 9763
attaquent 9762
Poly@@ 9760
sélec@@ 9760
Ast@@ 9758
légendes 9755
mac 9755
Marcus 9754
Verdun 9754
actives 9754
textile 9754
impliquant 9753
ters 9753
Gary 9752
animée 9751
Période 9750
Soudan 9748
arri@@ 9748
Dau@@ 9746
itation 9746
moulins 9745
opérateurs 9743
organisent 9743
ting 9743
Isle 9742
vi 9742
purement 9741
Kenya 9740
opère 9740
gien 9739
créa 9738
magie 9738
accordée 9736
détriment 9736
mir@@ 9736
tib@@ 9736
violents 9735
dépose 9734
étroitement 9734
march@@ 9732
1803 9730
ignée 9730
inale 9730
directive 9729
duel 9728
camarades 9727
clav@@ 9727
itée 9727
ović 9727
jaunes 9726
Bog@@ 9725
Steven 9725
cuir 9725
pâte 9725
Ton@@ 9723
disent 9723
graph@@ 9723
bénéfice 9722
chroniques 9722
iri 9722
légumes 9722
strictement 9722
AD 9719
missile 9719
résistants 9719
Glasgow 9718
joie 9718
élites 9718
détachement 9717
Carp@@ 9715
Rhénanie 9715
Cruz 9714
WTA 9712
giens 9712
det 9711
roman@@ 9710
YouTube 9708
vif 9706
restitu@@ 9704
élaboré 9704
icus 9703
prêts 9701
exister 9699
confier 9697
fér@@ 9697
05 9696
Emploi 9695
iki 9694
ukrainien 9694
util@@ 9694
comportements 9691
extérieurs 9691
maïs 9691
intégrale 9690
liber@@ 9690
arrondissements 9689
Hat@@ 9688
conçus 9687
carrières 9686
rapporté 9686
Haïti 9684
avancées 9684
couv@@ 9684
coin 9683
crâne 9683
Renaud 9682
Square 9682
Trump 9682
Chinois 9681
lanc@@ 9681
revi@@ 9681
détection 9679
souterrain 9679
traductions 9679
archidiocèse 9678
Warner 9677
sélectionn@@ 9676
chirurgie 9674
ES 9673
Press 9670
originaux 9670
Tit@@ 9669
mod@@ 9669
ogène 9668
olithique 9668
dessinées 9666
éno@@ 9665
recouvert 9664
violent 9663
fromage 9661
fusée 9660
jus 9660
Lom@@ 9659
intéressé 9659
mutation 9659
tactique 9659
caisse 9658
comparable 9656
exposées 9656
iss 9655
Champs 9654
alisations 9654
autorisés 9654
Police 9653
Haye 9651
PK 9650
pole 9650
1808 9649
onzième 9649
sentir 9649
Ath@@ 9648
adolescents 9648
partisan 9647
Gri@@ 9645
entrepreneur 9645
expos@@ 9645
Num@@ 9644
annexion 9644
courage 9644
Acc@@ 9642
Laura 9637
Concernant 9636
égyptien 9636
ical 9635
pis@@ 9635
ajoutée 9634
rain 9634
estiment 9632
Adams 9629
dictions 9629
planification 9627
doc@@ 9625
Nicole 9624
manœuvre 9624
yan 9624
causé 9623
Troyes 9622
Noir 9621
Seattle 9620
Secrétaire 9619
exploiter 9619
astique 9618
spécul@@ 9618
inventé 9616
mono@@ 9616
métrique 9616
parfait 9616
Pablo 9606
prirent 9605
descend@@ 9603
commerçants 9600
3,5 9599
nus 9598
couvrir 9597
grand@@ 9597
Marshall 9596
latéraux 9596
Blois 9595
It 9595
Ras@@ 9594
visiter 9594
sex@@ 9592
Bac@@ 9590
Pac@@ 9590
ïque 9589
gout@@ 9586
touristiques 9583
milles 9582
parallèles 9582
sépar@@ 9582
tionner 9582
ifi@@ 9581
appellent 9580
rapprochement 9580
conserv@@ 9577
polym@@ 9577
vera 9576
Simone 9575
regroupés 9575
Kot@@ 9574
Mitterrand 9572
alp@@ 9572
1813 9569
1828 9569
ïa 9568
Étant 9567
rurales 9566
auch@@ 9565
devraient 9562
résister 9562
Cooper 9560
acien 9560
doubles 9560
dy@@ 9560
variés 9560
Dallas 9558
exploitée 9557
idéologie 9557
Arles 9556
Malheureusement 9556
tos 9553
substance 9552
autobus 9547
acés 9546
pratiqué 9545
Barry 9543
fal@@ 9543
adhér@@ 9542
oc 9541
transmettre 9540
limitrophe 9539
evin 9538
facilit@@ 9537
DE@@ 9535
médaillé 9533
grottes 9532
idité 9532
infin@@ 9532
ario 9529
cic@@ 9529
AT@@ 9528
graphes 9527
rup@@ 9526
Amour 9525
assign@@ 9525
mes@@ 9525
milliard 9525
Blues 9524
Parker 9523
proposés 9523
hip 9522
ony@@ 9521
parcour@@ 9521
sanc@@ 9520
gouvernementale 9518
vietnam@@ 9518
ě@@ 9517
abatt@@ 9516
dérés 9516
pomp@@ 9515
Toute 9512
côtière 9512
eus 9510
Gra@@ 9509
hymne 9506
projection 9505
vac@@ 9505
press@@ 9504
180 9503
algérienne 9503
déclara 9502
interventions 9502
offres 9500
prolongée 9500
Lad@@ 9495
financ@@ 9495
comédien 9494
dissoute 9494
nulle 9492
tombé 9491
carbur@@ 9489
protestant 9489
Home 9487
pénétr@@ 9484
Art@@ 9482
intervalle 9481
peaux 9481
progressive 9481
scénar@@ 9481
accession 9480
jugée 9477
tiges 9477
gab@@ 9476
oises 9476
poul@@ 9475
remparts 9475
humidité 9470
sien 9470
Til@@ 9469
rumeurs 9469
voûtes 9469
cumul@@ 9465
violente 9465
Sun@@ 9464
bains 9462
remarqué 9462
exploit@@ 9459
plateaux 9459
prématur@@ 9459
argent@@ 9455
tica 9455
Rod@@ 9454
affirmer 9454
ouk 9453
conscient 9452
réuss@@ 9452
passait 9450
réels 9448
Bob@@ 9447
Bassin 9444
Syndicat 9444
AG 9443
élev@@ 9443
Habsbourg 9439
canon@@ 9439
interaction 9439
Indochine 9438
abondante 9438
tirant 9438
candidate 9437
leuse 9434
missionnaire 9434
profondes 9434
améliore 9432
lus 9431
pension 9431
dfn 9429
chinoises 9428
hospitalier 9427
qualifient 9427
Java 9426
Kosovo 9425
León 9425
cirque 9425
costume 9425
dre@@ 9425
accorder 9424
actu@@ 9424
espagnoles 9424
stage 9422
Différ@@ 9421
Régiment 9419
Lawrence 9418
desserte 9415
boutique 9412
restait 9411
tal 9410
dot 9409
gol@@ 9408
métalliques 9408
Has@@ 9406
1821 9405
austro 9403
gne 9401
omé@@ 9401
registres 9401
ravitaillement 9400
Martinique 9399
frappé 9398
varient 9398
Mons 9396
abor@@ 9396
refusent 9396
iennes 9395
Baltimore 9394
persist@@ 9394
Austin 9391
CNRS 9391
déclenchement 9391
IS 9390
croissant 9389
documentation 9389
convaincu 9388
Peugeot 9387
metteur 9387
orale 9386
téléspectateurs 9386
endi@@ 9383
verbe 9383
bâtie 9382
hip@@ 9381
stéré@@ 9381
Gos@@ 9379
Xi@@ 9379
obstacles 9378
racheté 9378
oxyde 9377
1,2 9376
conçoit 9376
prestations 9376
sensibil@@ 9376
culaires 9375
Style 9373
vecteur 9373
enseignements 9372
Sardaigne 9370
ME@@ 9368
Zo@@ 9368
chanoine 9368
redou@@ 9366
Bade 9364
expéditions 9363
Européens 9362
Univers 9362
CS 9360
Reb@@ 9360
Vor@@ 9360
âgés 9359
surmonté 9358
voc@@ 9358
Vénus 9356
02 9355
cavaliers 9355
class@@ 9355
incarc@@ 9355
inventeur 9355
nordique 9355
ono 9355
contreforts 9354
faction 9354
occupés 9354
Copa 9353
triangle 9351
èles 9351
carrée 9350
Bolivie 9348
otti 9345
diff@@ 9344
favorise 9344
Ann 9342
mérite 9342
diques 9341
org@@ 9341
roch@@ 9341
country 9340
démontré 9340
opinions 9340
Francs 9337
probabilité 9334
écoute 9334
fréquenté 9333
relevant 9333
Allier 9331
ovo 9331
statuts 9330
Stewart 9329
tile 9328
tirent 9328
Broadway 9325
connec@@ 9324
technologiques 9324
uri@@ 9324
mographie 9323
concernés 9322
immobili@@ 9322
1809 9321
Lut@@ 9320
ilier 9319
procédures 9319
psychi@@ 9319
Kit@@ 9318
Staline 9318
Geneviève 9317
ape 9317
1826 9316
assis 9316
héroï@@ 9315
nièce 9314
privilèges 9314
signaux 9314
Métropole 9313
Quin@@ 9313
Yo@@ 9313
croisement 9313
24@@ 9312
opposent 9309
Alaska 9308
cim@@ 9308
roulant 9308
réplique 9307
semblables 9307
mane 9305
solides 9303
Lit@@ 9301
hall 9301
renvoie 9301
héritière 9300
Nation 9299
Us@@ 9298
coréenne 9297
ial 9297
Cho@@ 9295
Iz@@ 9295
Relations 9295
Util@@ 9295
hon@@ 9294
1827 9293
cis@@ 9292
But@@ 9290
volcan 9287
ésie 9287
commenc@@ 9283
venues 9283
emont 9282
coulé 9281
fondamentale 9281
Justin 9279
Loup 9279
croate 9279
1500 9275
rappeler 9273
adaptés 9272
Près 9271
solitaire 9271
porno@@ 9270
dog@@ 9269
estin 9268
milit@@ 9267
rendement 9267
Theatre 9266
spécialité 9265
v. 9265
torpilles 9264
dent@@ 9263
collègue 9261
consist@@ 9259
1829 9258
Construction 9258
fallait 9257
maux 9256
assurent 9254
bibli@@ 9252
royales 9252
Lens 9250
libr@@ 9250
bombes 9249
Trophée 9246
médiatique 9244
ą@@ 9244
tut@@ 9242
zy 9242
dégradation 9241
itinéraire 9241
lements 9240
existantes 9239
étrange 9239
Équi@@ 9238
ng@@ 9236
permanence 9234
FIFA 9233
The@@ 9232
rel 9232
SD@@ 9230
dense 9230
tardive 9230
Harris 9229
Médicis 9227
costumes 9225
Jay 9224
gendarmerie 9224
stock@@ 9224
annuellement 9222
cycles 9222
ethnique 9221
Kurt 9220
fichier 9220
franchit 9220
aller@@ 9218
résident 9218
âgées 9218
abre 9217
contrôlée 9216
350 9215
Afric@@ 9215
ectés 9215
épic@@ 9215
égide 9214
évol@@ 9210
Crimée 9209
Julia 9209
éman@@ 9209
limitation 9208
pâ@@ 9208
Arena 9205
Valley 9205
CC 9204
ald 9204
avancé 9203
atomes 9201
continua 9201
possé@@ 9200
poursuiv@@ 9200
Garcia 9199
supporters 9199
Andre@@ 9198
Post 9198
sévère 9198
complément 9197
ologiquement 9197
ABC 9195
informatiques 9195
répandue 9195
actionnaires 9194
pié@@ 9193
fraction 9192
kur@@ 9192
rétablir 9191
trouble 9191
incapable 9189
plais@@ 9189
pouss@@ 9189
intendant 9188
plongée 9188
5,@@ 9187
Rousseau 9185
employée 9185
familiales 9185
Gaule 9183
affrontement 9182
Chemin 9181
101 9180
nica 9177
Travail 9173
dures 9173
héré@@ 9173
yon 9172
SI@@ 9171
sénateurs 9171
Creek 9169
excellence 9169
écho 9169
Sap@@ 9168
ambul@@ 9168
assainissement 9166
Fron@@ 9164
teront 9164
étiquette 9164
dies 9162
intra 9162
ury 9162
découvrent 9161
trouv@@ 9161
descendre 9160
sommeil 9159
1816 9157
nia 9157
tet 9157
vet@@ 9156
1807 9154
conquérir 9153
Brooklyn 9152
chrétiennes 9152
mar 9151
Camp 9150
cé 9150
littér@@ 9150
allusion 9149
maintenance 9149
abou@@ 9145
préféré 9145
Č@@ 9145
EP@@ 9142
itin@@ 9141
soumise 9141
grains 9140
Spéci@@ 9139
courrier 9138
dialecte 9137
venti@@ 9137
Jerry 9134
cli@@ 9134
toucher 9134
EN@@ 9133
Ron@@ 9133
aérodrome 9133
ONG 9132
cinéaste 9132
dépassé 9132
ignore 9132
légal 9132
érosion 9132
entourage 9130
chasseur 9128
Mon 9126
électri@@ 9126
tail@@ 9125
Sporting 9124
bin 9123
Danube 9121
armistice 9120
exercé 9120
icienne 9119
convain@@ 9118
érable 9118
grosses 9117
rir 9117
ryth@@ 9117
Consid@@ 9116
Neuf 9115
fusionné 9110
diminué 9109
Pointe 9108
fle@@ 9108
arménien 9103
mutu@@ 9103
raid 9103
loup 9101
cibles 9099
titré 9099
Languedoc 9098
vieil 9098
écrivaine 9098
investi 9095
ottomane 9094
sensibles 9094
défait 9092
Hur@@ 9090
milli@@ 9090
Monuments 9088
supports 9088
tendances 9087
coopér@@ 9086
définitif 9086
disciples 9084
légendaire 9084
influenc@@ 9083
adress@@ 9082
ettent 9082
préalable 9082
Voy@@ 9081
instructions 9080
obs@@ 9079
spectre 9079
Agnès 9078
Alberta 9075
reviennent 9074
botaniste 9073
distinctions 9073
sim@@ 9073
Professeur 9072
relatifs 9072
spécimens 9072
ih@@ 9071
Junior 9070
PL@@ 9069
Rafael 9067
parent 9067
ématiques 9067
èves 9064
étaire 9063
catalan 9062
mannequin 9061
dynam@@ 9059
igo 9057
900 9056
signi@@ 9056
atomique 9055
jet 9055
patriarche 9055
grandement 9054
Ah@@ 9053
Argent@@ 9053
rad@@ 9053
abl@@ 9050
play 9050
quitta 9049
dramaturge 9048
routière 9047
exportation 9043
barrière 9042
0,0@@ 9041
Hôpital 9039
ariat 9039
ends 9039
ruine 9033
douzaine 9032
jambes 9032
médic@@ 9032
27@@ 9031
barème 9031
préfé@@ 9031
sinon 9031
platine 9029
séances 9029
Big@@ 9028
historiquement 9026
Ardennes 9022
négatif 9022
Joan 9021
issage 9021
cale 9019
séquences 9018
Bel 9017
Lisa 9017
discr@@ 9017
sens@@ 9017
attendu 9016
adolescence 9015
prévenir 9015
user 9015
enfuit 9014
adé 9012
techn@@ 9012
fibres 9011
Mang@@ 9010
Manhattan 9007
spécialisées 9006
GT 9004
envah@@ 9004
gentil@@ 9004
permettra 9003
Wrestling 9002
kab@@ 9002
dessine 9001
tage 9001
analy@@ 8999
arrivant 8999
mariages 8999
restaurée 8999
régulation 8998
vécut 8998
fru@@ 8997
Gall@@ 8996
disciple 8996
Bet@@ 8990
eman 8990
Fab@@ 8989
TA 8988
gorge 8987
serveur 8986
interpréter 8985
africaines 8984
p. 8981
gence 8980
politi@@ 8980
précoce 8980
surnommée 8979
uta 8979
Graham 8977
1823 8972
coordonnées 8972
Elisabeth 8971
Obj@@ 8971
invit@@ 8971
compagne 8970
dirigés 8970
gent 8970
Mère 8968
meubles 8968
psychologique 8968
Brabant 8966
Genèse 8966
monastères 8966
IM@@ 8965
Ken@@ 8965
Poméranie 8965
prétend 8964
fédérales 8963
hypo@@ 8963
Devenu 8962
nit@@ 8962
Prim@@ 8960
boulevers@@ 8960
ision 8960
essayer 8959
oine 8959
vau@@ 8959
Maxime 8958
Marche 8956
derie 8955
citée 8954
déroulant 8954
plastiques 8951
diste 8950
repos@@ 8950
Atlas 8947
Jon@@ 8946
criv@@ 8944
réfléch@@ 8944
Sw@@ 8943
illi@@ 8943
phones 8943
imb@@ 8942
affirment 8940
Condé 8939
Gam@@ 8939
Ner@@ 8939
accident@@ 8939
égé 8939
restés 8936
26@@ 8935
Tandis 8935
existants 8935
ouille 8935
und@@ 8934
arab@@ 8932
enquê@@ 8932
exacte 8932
confes@@ 8930
disait 8930
proie 8930
ros 8930
tivité 8930
Guadeloupe 8929
éa 8929
mie 8928
natal 8928
promet@@ 8927
pyramide 8927
salari@@ 8927
Pittsburgh 8924
commençant 8924
magique 8924
Rep@@ 8923
yg@@ 8923
Evans 8922
Cinéma 8921
enti 8921
testament 8921
Italiens 8920
visu@@ 8920
endr@@ 8919
serre 8918
aco 8915
vignes 8914
communiqué 8913
complété 8913
irré@@ 8912
mexicain 8912
len 8911
usses 8911
Ble@@ 8910
insul@@ 8910
bénéficient 8909
poursuivent 8909
relevé 8909
Boh@@ 8907
polytechnique 8905
1822 8904
iront 8904
ocène 8904
indiquer 8903
ramener 8902
MO@@ 8901
1798 8900
Kaz@@ 8900
Wright 8900
zy@@ 8900
Productions 8899
arbitr@@ 8898
quet@@ 8898
câble 8897
Frederick 8895
ectifs 8895
Wurtemberg 8894
prospérité 8894
Vas@@ 8893
élever 8892
Campbell 8891
Div@@ 8889
tellement 8888
Mozart 8887
rigour@@ 8887
conservant 8886
lots 8885
analys@@ 8883
asiatiques 8881
érieurement 8880
déclarations 8879
dictature 8877
icale 8877
scénarios 8877
humor@@ 8876
Édimbourg 8876
eure 8875
interactions 8874
trous 8874
açant 8872
difficilement 8872
distincts 8869
disputent 8867
contribuer 8866
occupait 8865
Testament 8863
Town 8859
roumaine 8859
atlantique 8858
arienne 8856
valoir 8854
Bod@@ 8853
Définition 8853
isolée 8853
plac@@ 8853
travaillait 8853
IP 8852
eil@@ 8851
System 8850
Confrontations 8848
Figaro 8847
reliée 8847
laboratoires 8846
souci 8844
valor@@ 8844
illo 8843
Sécession 8842
renouveau 8842
Ve@@ 8841
trahison 8839
Ze@@ 8837
quel@@ 8833
rap 8833
composante 8831
SE 8830
Car 8829
bénéfices 8829
acité 8828
plates 8828
rejette 8827
négocier 8826
considér@@ 8825
dragon 8824
â 8823
FA 8822
entour@@ 8821
Allemand 8820
accompagnement 8820
cruci@@ 8818
Chr@@ 8817
rebaptisé 8817
défend@@ 8815
réalisateurs 8815
encourage 8814
indépendantes 8814
approbation 8813
dragons 8812
Paolo 8811
onnette 8811
tein@@ 8810
Bourges 8809
honoraire 8807
oms 8807
Chang@@ 8806
enter@@ 8805
byzantine 8804
contest@@ 8804
ż@@ 8803
Sony 8801
paroissi@@ 8801
Direc@@ 8800
trique 8800
abolition 8799
trices 8798
mage 8797
Pit@@ 8796
agi 8795
figurant 8795
pause 8795
retrouvée 8795
élémentaire 8795
financé 8794
terrasse 8794
œur 8794
foyers 8793
mouv@@ 8793
signale 8793
Fen@@ 8792
Istanbul 8792
arcade 8792
pneus 8792
1818 8791
Wat@@ 8789
illent 8789
propulsion 8786
tac@@ 8786
ressor@@ 8785
restaurer 8782
venger 8782
permanentes 8781
dirent 8780
accompagnés 8778
neutr@@ 8778
expliqu@@ 8776
rappelant 8775
équilibr@@ 8774
ïdes 8773
D.@@ 8772
tuy@@ 8772
flam@@ 8771
relié 8770
Azur 8769
Trésor 8769
confrontation 8769
iquement 8769
Tra@@ 8767
ander@@ 8767
Var 8766
dam@@ 8764
miroir 8763
Is 8762
automatiquement 8762
légitime 8762
posséder 8762
ouvertement 8761
archiv@@ 8760
utes 8760
héroïne 8758
casse 8757
vignoble 8757
Personnalités 8756
estim@@ 8756
orienté 8755
végétaux 8755
Wagner 8754
conservent 8753
fe 8753
corpor@@ 8752
Nik@@ 8751
calcaires 8750
orientée 8750
désignés 8749
onds 8749
progress@@ 8749
amme 8747
liban@@ 8747
intersection 8746
CR@@ 8745
Charlemagne 8745
peindre 8745
CD@@ 8744
Rochefort 8744
forfait 8744
Lorient 8741
alogie 8741
quelqu&apos; 8741
identi@@ 8740
frac@@ 8739
Auxerre 8738
postérité 8738
Noirs 8736
illustration 8736
pét@@ 8736
Sic@@ 8735
dal@@ 8733
cherchent 8732
durent 8732
assises 8731
elet 8731
marocain 8731
inage 8730
orth@@ 8730
suivit 8730
systématiquement 8730
ament 8728
cis 8728
tranche 8728
extrémités 8727
IR@@ 8726
aîtra 8726
napolé@@ 8725
passionn@@ 8725
ectif 8724
motiv@@ 8724
Bret@@ 8723
fran@@ 8723
osp@@ 8722
permet@@ 8721
Grou@@ 8720
anglaises 8720
esi 8720
spectateur 8718
lir 8717
rite 8715
croiseurs 8714
rattr@@ 8714
renforts 8714
beek 8713
phosph@@ 8711
préliminaire 8711
Dakar 8710
Aude 8707
achi 8705
Walker 8704
recul 8704
ult 8704
ferroviaires 8703
cycl@@ 8701
CI 8700
donnait 8700
Guill@@ 8699
héritiers 8699
uls 8698
Sibérie 8697
othérapie 8696
township 8696
Nature 8695
caserne 8695
relate 8695
Clé@@ 8694
consistant 8693
prévus 8693
chirurgien 8690
concentrer 8690
intérieurs 8690
physicien 8689
molécule 8686
Moy@@ 8685
consommateurs 8684
pig@@ 8682
comportait 8680
wallonne 8679
1804 8678
Née 8678
confondre 8678
Alabama 8677
Royale 8677
mirent 8675
développant 8674
Rel@@ 8673
lucratif 8673
judaïsme 8672
1811 8671
désign@@ 8671
Conséquences 8670
blason 8669
infection 8669
revendications 8668
Contr@@ 8667
intérieures 8667
certificat 8666
déclarée 8666
isolé 8665
aboutis@@ 8664
croisade 8664
livret 8663
restr@@ 8662
08 8661
caché 8661
dispositifs 8661
reuse 8661
Honoré 8660
Thompson 8660
fid@@ 8660
suspend@@ 8660
Perpignan 8657
Mill@@ 8653
NO@@ 8653
Mayence 8652
indépendanti@@ 8652
Grav@@ 8650
Mayenne 8650
nommées 8650
repêchage 8650
Out@@ 8649
Moul@@ 8648
Champions 8647
compét@@ 8646
isque 8646
genou 8645
1817 8643
env@@ 8643
landes 8641
Paix 8639
infrastructure 8639
vives 8639
chapeau 8637
pommes 8637
ris 8637
saga 8637
uler 8637
Will 8635
abattu 8634
avanc@@ 8632
exclusion 8632
rou 8631
Vert 8630
argile 8629
bières 8628
démontrer 8628
développées 8628
jam@@ 8628
yst@@ 8628
Aristote 8627
Formé 8620
guée 8620
autes 8619
cath@@ 8619
légale 8619
représentait 8618
gly@@ 8617
appels 8616
examin@@ 8615
veil 8615
peinte 8614
Lycée 8613
gée 8613
ignons 8613
140 8611
Fé@@ 8611
asp@@ 8611
douzième 8611
07 8610
Slovénie 8610
paires 8610
Rog@@ 8607
météorologiques 8607
gré 8606
Conrad 8605
1,3 8604
indices 8604
théâtres 8603
substances 8601
concré@@ 8600
immédiat 8599
crue 8597
multipli@@ 8597
étroit 8597
évolutions 8597
défensif 8596
proven@@ 8596
taxes 8595
aube 8594
Hil@@ 8593
Marianne 8593
biologiques 8593
effectuent 8593
pairs 8593
rassemblement 8593
elot 8592
tropicales 8592
Albanie 8589
proch@@ 8589
traduire 8589
excl@@ 8588
param@@ 8588
préten@@ 8588
défi 8586
ku 8585
pertin@@ 8585
dh@@ 8584
démolition 8584
Bruges 8583
zer 8582
patrou@@ 8580
mènent 8579
TC 8578
énie 8577
destroyers 8576
garantir 8576
vitr@@ 8576
démontre 8575
évoquant 8575
lauré@@ 8574
suic@@ 8574
sauvegarde 8573
García 8571
appropri@@ 8571
auteure 8571
ernes 8570
papiers 8570
XX@@ 8568
poitrine 8568
érieurs 8568
fixer 8567
Bucarest 8566
commercialisé 8565
Dictionnaire 8564
fabriqués 8564
proposées 8564
réper@@ 8564
flo@@ 8563
réunissant 8562
empois@@ 8561
Créé 8560
eto 8560
travail@@ 8560
déplacé 8559
véritables 8557
ogènes 8556
Agr@@ 8553
Casablanca 8552
duré 8552
sessions 8552
Rotterdam 8551
ambition 8551
flamand 8549
oublier 8549
accusés 8548
pée 8548
Chirac 8547
installées 8547
arque 8546
combattant 8546
Compos@@ 8545
cut@@ 8545
percée 8544
haine 8542
cloche 8541
Poul@@ 8539
ui@@ 8538
bapti@@ 8537
saison@@ 8537
appliqué 8535
amour@@ 8534
contraste 8534
gre@@ 8534
protégées 8534
prévues 8534
serpents 8533
uro 8533
Old 8532
manifestants 8532
rocher 8532
Mén@@ 8531
ignait 8531
énergies 8531
triom@@ 8529
Phil 8528
environnementale 8528
jeudi 8527
fiques 8525
Cla@@ 8524
Ric@@ 8524
desserv@@ 8524
limit@@ 8524
composantes 8523
électrons 8523
onal 8522
socialisme 8522
échou@@ 8522
pare 8519
pous@@ 8519
segment 8519
asile 8518
sexuels 8516
tiste 8516
patin@@ 8515
1780 8514
1799 8514
bac 8511
fusil 8511
hiér@@ 8509
masses 8509
cellulaire 8508
médaillée 8508
pourcentage 8506
succéder 8505
ê 8504
Landes 8503
09 8501
fraî@@ 8498
Marin 8497
san 8497
trouvée 8497
défunt 8496
métabol@@ 8495
attestée 8494
médicaux 8494
Arg@@ 8492
Principe 8491
sû@@ 8491
uniques 8491
matern@@ 8489
rit@@ 8489
suffisante 8489
électro@@ 8489
tat@@ 8488
Simpson 8487
music@@ 8487
prolong@@ 8487
regard@@ 8485
catholicisme 8484
alternance 8482
répandu 8482
Abou 8481
issy 8481
alliées 8480
assé 8479
saoudite 8478
sifs 8477
phares 8476
Boeing 8475
chutes 8475
pionnier 8475
para 8474
ensuit 8473
récupère 8472
CP@@ 8471
andi@@ 8471
Fres@@ 8470
crues 8468
Meg@@ 8467
affectée 8467
concili@@ 8467
ferrée 8466
Di 8464
enjeux 8464
intéres@@ 8464
assemblage 8463
opposés 8462
salut 8461
traumati@@ 8461
méc@@ 8460
Jorge 8457
ī@@ 8457
Shakespeare 8456
esta 8456
opérationnelle 8456
dépassant 8455
Joachim 8454
confront@@ 8453
engr@@ 8453
olé@@ 8453
évangél@@ 8453
marquées 8449
pag@@ 8449
wan@@ 8449
Mariage 8448
fréquents 8448
Pis@@ 8447
accomp@@ 8445
etc 8445
plong@@ 8445
03 8442
Monte@@ 8442
Stars 8442
dictionnaire 8439
1819 8438
Dresde 8437
introduire 8437
èges 8437
Stuttgart 8436
mas 8436
pomme 8435
ric@@ 8435
Kō@@ 8434
revê@@ 8434
assist@@ 8433
brun@@ 8433
préparé 8433
tor 8433
choisis 8431
joindre 8431
télécommunications 8431
Mulhouse 8430
commissions 8430
eli 8430
horloge 8430
Sad@@ 8429
inomie 8429
Gren@@ 8428
Ség@@ 8428
dévast@@ 8428
latitude 8427
maréc@@ 8427
Astr@@ 8426
Valenciennes 8426
fiscaux 8425
blanch@@ 8424
représentées 8424
dominic@@ 8423
Harrison 8418
ultérieurement 8418
ophi@@ 8417
Sidi 8415
perdant 8414
isy 8412
rejeté 8412
traitant 8412
ingu@@ 8411
maient 8411
égales 8411
ané@@ 8410
oth 8410
Wang 8409
séri@@ 8407
étudiante 8406
arriva 8405
ew@@ 8404
solaires 8403
Network 8402
amener 8402
ancement 8401
nécessit@@ 8400
horizon 8399
oxy@@ 8398
rétic@@ 8398
alisent 8397
Shin@@ 8396
apparent@@ 8396
opo@@ 8396
efficaces 8395
situ@@ 8395
Forest 8394
Que 8394
poussé 8394
soph@@ 8392
pers@@ 8391
rites 8391
Wall@@ 8390
escor@@ 8389
endrait 8386
geurs 8386
Top@@ 8382
réacteur 8382
arrivés 8380
volontairement 8380
érig@@ 8379
Rudolf 8378
arros@@ 8378
pilier 8378
alphabétique 8377
centimètres 8377
péch@@ 8377
È@@ 8376
chauffage 8374
chanté 8373
taches 8373
iteurs 8372
occ@@ 8371
terminal 8371
piscine 8370
aides 8369
aéron@@ 8369
médiane 8369
unanimité 8369
Damas 8367
collèges 8367
sch 8367
Queen 8366
lunaire 8366
marier 8366
à@@ 8366
Ouv@@ 8365
kr@@ 8365
PCF 8364
fiscale 8364
Bond 8363
Bénin 8363
histori@@ 8363
véritablement 8362
désin@@ 8361
issi@@ 8361
gardiens 8360
nis 8360
vivaient 8358
observ@@ 8357
AF@@ 8356
règ@@ 8356
ventre 8356
Juste 8355
grecques 8354
minimale 8353
précédant 8353
Campagne 8352
idi 8352
Matthew 8351
Ghana 8349
tri 8347
ham@@ 8346
amant 8344
jointe 8344
Kil@@ 8343
Post@@ 8342
Space 8342
entourant 8342
israélien 8342
favori 8341
stratégiques 8341
survivre 8340
Army 8339
envoi 8339
médicales 8339
raine 8339
ignées 8337
embre 8336
lancées 8336
mémor@@ 8336
serpent 8336
multi 8335
icie 8334
hind@@ 8332
drait 8331
soud@@ 8330
Hérault 8329
contin@@ 8329
incul@@ 8328
plantations 8328
échantillons 8328
croyances 8327
lement 8326
réuni 8326
définies 8325
Références 8322
hex@@ 8322
ition 8322
Poznań 8321
alien 8320
interruption 8319
comités 8318
Boys 8316
jésuites 8316
excès 8315
exemp@@ 8314
BD 8313
pon 8313
gratuitement 8312
Bangladesh 8311
Monts 8311
jambe 8311
Patrice 8310
émis@@ 8310
arn@@ 8309
Cic@@ 8308
implant@@ 8308
excep@@ 8306
Main@@ 8305
Neil 8305
insuffis@@ 8305
excellent 8304
ular@@ 8304
Richelieu 8303
Vice 8303
solenn@@ 8303
certifié 8302
renaissance 8302
tunisien 8302
yi 8302
électoraux 8302
révélation 8300
négative 8299
Marx 8298
tionnellement 8298
za@@ 8298
ambiance 8297
Cook 8295
colombi@@ 8295
partagée 8295
coutume 8294
mineure 8294
Amérindiens 8291
Silva 8291
constituées 8291
wilaya 8291
HC 8290
Extrême 8289
Kos@@ 8289
habité 8289
Proche 8287
procédés 8287
Linux 8280
collaborateur 8280
Estr@@ 8279
télé 8279
camions 8278
enchaîne 8278
entaux 8278
radios 8278
Note 8277
conduisent 8277
Nom 8275
ord 8275
autorisée 8274
Angel 8273
mauvaises 8273
comitat 8272
susceptible 8272
bac@@ 8271
conforme 8271
stell@@ 8269
iy@@ 8267
naufrage 8267
ud 8266
pyramides 8265
FK 8263
allo@@ 8262
Charleroi 8261
Bit@@ 8260
typiquement 8260
Réception 8259
directeurs 8259
plonge@@ 8259
recueil@@ 8259
ster@@ 8258
roqu@@ 8257
lith@@ 8256
than@@ 8256
indiennes 8255
massifs 8254
Kad@@ 8253
déch@@ 8253
entrep@@ 8253
fasciste 8253
quanti@@ 8253
Liberté 8252
Stefan 8252
imposent 8251
reconstruire 8251
réparations 8250
divine 8249
1805 8248
hard 8248
August 8247
First 8247
exploite 8247
écolog@@ 8247
migration 8245
préservation 8245
déroulé 8244
ouch@@ 8244
Beauvais 8243
naturaliste 8243
Yvelines 8242
Bobby 8240
Harold 8240
Proc@@ 8240
codice 8240
sauvé 8240
cloches 8239
trilogie 8238
Cao 8237
Mai 8237
AR 8236
Impact 8236
vill@@ 8235
indo 8234
étitions 8234
foulée 8232
orphel@@ 8232
tort 8232
Annie 8231
itable 8231
soutiennent 8229
Projet 8227
Palatinat 8225
estimant 8225
échantillon 8225
engagements 8224
sion@@ 8221
hier 8220
suivis 8220
sheim 8218
oz 8217
1,6 8216
New@@ 8216
2e 8215
directs 8215
honneurs 8215
rejet 8215
ity 8213
olo@@ 8213
Jus@@ 8212
affrontements 8212
publient 8212
clavier 8208
lions 8208
porche 8207
terri@@ 8207
èses 8207
héli@@ 8204
War 8203
canadiens 8203
inférieures 8203
enko 8202
SM 8201
déclench@@ 8200
guerriers 8200
indispensable 8200
amer 8199
démarre 8199
Seule 8198
équations 8198
olig@@ 8197
travailla 8197
montés 8196
Dark 8195
bretonne 8193
Piémont 8192
ku@@ 8192
insurgés 8191
phone 8189
reç@@ 8189
supprimer 8189
montées 8188
identifiés 8187
imi@@ 8186
levé 8185
zé@@ 8185
ga@@ 8184
Martin@@ 8183
Mines 8183
carrosserie 8183
orchestr@@ 8183
geait 8182
160 8181
1796 8180
Vietnam 8180
ling@@ 8180
Liga 8179
marquent 8179
préférence 8179
orthodoxes 8178
gymnastique 8176
Wayne 8175
ø@@ 8175
célébration 8173
simul@@ 8173
Arabes 8172
Duch@@ 8172
mexicaine 8172
reurs 8172
Lorenzo 8171
inaugur@@ 8171
norvégienne 8171
Maryland 8169
expressions 8169
utilisait 8169
engagées 8168
extra@@ 8167
Aus@@ 8165
fidélité 8165
Coc@@ 8164
Lun@@ 8163
lou 8163
prédic@@ 8163
hique 8162
protec@@ 8162
cf. 8161
fermer 8161
indonési@@ 8161
airs 8158
recueils 8158
stades 8158
supprimée 8158
file 8157
papillon 8157
eraient 8156
Hudson 8155
anneaux 8155
agon@@ 8154
tapis 8153
Arras 8151
Bush 8151
Industrie 8151
ador 8151
occasions 8151
Picardie 8148
gardé 8148
Sauveur 8145
féod@@ 8144
sédu@@ 8144
auxiliaire 8143
incluse 8143
orph@@ 8143
ouvertures 8143
Party 8142
communiquer 8142
Morris 8140
eton 8140
parlée 8140
Baker 8139
franc@@ 8138
longe 8138
ellip@@ 8136
pionniers 8136
compare 8135
conduisant 8135
chances 8134
worth 8134
Épis@@ 8134
wi@@ 8133
sauve 8132
Up 8131
procéder 8131
épuis@@ 8130
Poitou 8129
Séoul 8129
duction 8127
logistique 8127
minière 8127
rétab@@ 8127
we 8127
Meilleur 8126
contradic@@ 8126
Dav@@ 8122
emblématique 8122
supporter 8120
tements 8120
Toscane 8118
interprétations 8118
orné 8118
itent 8117
révis@@ 8116
dys@@ 8115
indépendamment 8114
émeutes 8114
Lep@@ 8113
blesse 8113
périphérie 8113
dôme 8112
Eddie 8111
indication 8111
Autre 8110
initiatives 8110
déportés 8109
hébergement 8109
remplaç@@ 8108
corré@@ 8107
omni@@ 8106
Moh@@ 8105
Tas@@ 8103
group@@ 8102
ER@@ 8100
Gan@@ 8100
arrang@@ 8100
dal 8099
iges 8099
Oslo 8098
organ@@ 8098
pompiers 8098
recommandations 8098
ott@@ 8096
hélicoptère 8094
brasserie 8093
nourrit 8093
Fle@@ 8090
berg@@ 8090
low 8090
Lettonie 8089
créatures 8089
expuls@@ 8089
fréquent 8089
Comédie 8088
Indiens 8088
dettes 8088
atin 8087
inier 8087
tombent 8087
1797 8086
wald 8086
GM 8085
Band 8084
Gard 8084
CP 8083
toiture 8083
50,@@ 8082
Contre 8082
ash 8081
sis@@ 8081
Sofia 8080
aro@@ 8080
ix@@ 8080
intercommun@@ 8079
contribuent 8078
compil@@ 8077
Sarthe 8075
réponses 8075
abondance 8074
lingu@@ 8073
mobilisé 8073
égyptienne 8073
contenus 8072
nourrir 8072
otage 8072
retable 8072
Bén@@ 8071
Opération 8071
borough 8071
Salle 8069
attribuées 8068
décisif 8068
fonda 8068
prieur 8067
livrée 8066
idon 8065
édite 8064
vig@@ 8063
RO@@ 8062
annulée 8062
Collection 8060
seau 8060
uk 8059
Oregon 8057
ois@@ 8057
ete 8056
intégrés 8055
FF 8054
iliens 8054
ître 8052
élég@@ 8050
Mét@@ 8049
Parme 8049
evitch 8048
invitée 8048
polar@@ 8048
quets 8048
trajectoire 8048
Œ@@ 8048
sun@@ 8047
Grenade 8042
jeter 8042
observée 8042
individuels 8041
Etat 8040
Tel 8040
procède 8040
uli 8040
brillant 8038
tranqu@@ 8038
cintre 8037
réclame 8035
monnaies 8033
LE@@ 8032
livraison 8032
Aul@@ 8031
royaux 8030
verg@@ 8030
RDA 8029
dédic@@ 8029
trot@@ 8028
yl 8028
imprimé 8027
socio 8027
Cler@@ 8025
commercialisation 8024
pot 8023
Nicol@@ 8022
Programme 8022
fe@@ 8022
Sant@@ 8020
cacher 8020
exprimé 8020
Cracovie 8019
Finale 8019
nat@@ 8019
citation 8018
luth@@ 8017
météor@@ 8017
narrateur 8016
protagonistes 8016
rot 8015
sing@@ 8014
gier 8013
tantôt 8013
yne 8013
otro@@ 8010
rey 8010
revint 8008
terrorisme 8007
Birmanie 8006
Rat@@ 8006
back 8006
gérée 8006
imprimerie 8006
surviv@@ 8006
rappelé 8005
révé@@ 8004
umi 8004
gard@@ 8003
transformations 8003
Soit 8002
funérailles 8002
tho@@ 8001
Birmingham 8000
Constance 7999
assemblées 7999
cht@@ 7998
exécutés 7998
Béarn 7997
etés 7996
oko 7996
ON@@ 7995
Régi@@ 7994
espère 7994
pèlerins 7990
souhaitent 7989
bler 7987
confin@@ 7987
protège 7987
sez 7987
trouva 7987
Western 7986
groupement 7985
tic 7984
Lui 7983
romancier 7983
Fille 7982
noise 7982
wallon 7982
implanté 7981
progressif 7981
LP 7980
Liu 7980
entam@@ 7980
heureuse 7980
Colin 7979
otype 7979
Beatles 7978
progressiste 7978
criptions 7976
axi@@ 7973
Airlines 7972
gag@@ 7972
Vegas 7968
oses 7968
Télévision 7967
alternatif 7967
propagation 7967
sain 7966
Connecticut 7965
Chou@@ 7963
donnera 7963
ř@@ 7963
moni@@ 7962
geois 7961
expulsion 7959
Nak@@ 7958
joy@@ 7958
nad 7958
remontant 7958
transit@@ 7958
ativité 7957
artisanat 7956
initié 7956
osphère 7956
Tommy 7955
inclure 7955
Classification 7954
Tat@@ 7954
fines 7954
Luke 7953
appe 7953
prostitu@@ 7953
captivité 7952
dignité 7952
enfuir 7951
Norman 7949
professeure 7949
Bayonne 7948
germano 7948
agissant 7947
capturer 7947
verses 7947
ieu 7945
concurrent 7944
défenses 7942
Bous@@ 7941
fréquentes 7941
oration 7941
émas 7941
ageux 7940
concevoir 7940
indic@@ 7940
pire 7940
teneur 7940
quantique 7939
verticale 7939
Cours 7938
Marina 7937
dei 7937
Cécile 7936
confort 7936
manteau 7935
résume 7935
Jours 7933
ections 7932
manuel 7932
28@@ 7931
Hag@@ 7929
Raw 7929
réputée 7929
nocturne 7928
soumettre 7928
Verts 7927
dégag@@ 7927
électorales 7927
comparé 7926
zac 7926
Golfe 7925
Sky 7925
USS 7925
enregistrées 7924
terroristes 7924
marches 7923
Railway 7922
Sources 7921
Fame 7920
cles 7920
perdus 7919
aveugle 7918
dit@@ 7918
fondatrice 7918
renforcement 7918
revendique 7918
Brandebourg 7917
nette 7917
ry@@ 7916
anien 7915
chroniqueur 7915
quelconque 7915
Air@@ 7913
remplir 7911
synthé@@ 7911
anna 7910
azote 7909
eh 7909
réédité 7909
Nab@@ 7908
Victoire 7908
actionnaire 7908
german@@ 7907
pensait 7906
Omar 7905
marron 7905
seigneur@@ 7905
aliers 7904
Johan 7903
Mitchell 7903
Standard 7900
Sid@@ 7899
Eg@@ 7897
Pur@@ 7897
absorb@@ 7897
essentielle 7897
macédon@@ 7897
combustion 7895
originel 7895
plas@@ 7895
ecclésiastiques 7894
enchères 7894
regroupées 7893
érité 7892
Turner 7891
catal@@ 7891
décisives 7891
génétiques 7890
lière 7890
nécessitant 7890
oriente 7890
charts 7889
parisiens 7888
thématiques 7888
raids 7887
résultant 7887
Hawaï 7886
évid@@ 7886
berceau 7885
Finistère 7884
pétrol@@ 7884
Cru@@ 7882
ulus 7881
Sto@@ 7880
Pérez 7879
Ralph 7879
éennes 7879
chol@@ 7877
pertur@@ 7877
perturb@@ 7877
Amédée 7876
diplômée 7875
fantôme 7875
ukrainienne 7875
yo@@ 7874
Coll@@ 7873
cabine 7873
can 7873
èdre 7873
camion 7872
diminu@@ 7872
lus@@ 7872
cendres 7871
chanoines 7871
glaci@@ 7871
iner@@ 7871
Cathédrale 7870
0,5 7867
mortes 7867
Af@@ 7866
ectu@@ 7866
volet 7866
menacé 7865
envisagé 7864
saires 7862
Systématique 7860
isser 7860
lay 7860
controvers@@ 7859
doré 7859
adaptations 7858
prussienne 7858
pell@@ 7857
Sang@@ 7855
tibétain 7854
hydraulique 7853
considérait 7850
golf 7850
Rico 7849
Sacré 7849
filière 7849
360 7848
distribut@@ 7848
Dub@@ 7846
Films 7845
haies 7845
urbanisation 7845
établies 7845
économiste 7844
onnaires 7843
ilienne 7842
ister@@ 7842
Nam@@ 7841
ornith@@ 7841
Maire 7840
peints 7839
souhaitait 7838
tronc 7838
Arsenal 7837
EC 7837
Lazare 7837
astes 7837
déplac@@ 7837
oxyd@@ 7837
Bois@@ 7836
Cambodge 7836
fréquences 7836
insiste 7836
Cél@@ 7835
Nassau 7835
rassembler 7835
tionnement 7835
Kentucky 7834
dém@@ 7834
mondi@@ 7833
manières 7832
Lis@@ 7829
transcription 7829
boxe 7828
fasse 7827
compliqu@@ 7826
litres 7826
portaient 7826
Pyramide 7825
vendues 7825
VI@@ 7824
ake 7824
plaqu@@ 7822
Hell@@ 7821
renouvel@@ 7821
25@@ 7820
Tran@@ 7820
Chen@@ 7819
Cop@@ 7819
parfaite 7819
veur 7819
Dauphiné 7818
concernées 7818
conj@@ 7818
cue 7818
AB@@ 7816
injection 7815
rond 7814
Project 7813
ajoutés 7810
cess@@ 7810
vaincre 7810
astronom@@ 7808
colspan 7806
numérot@@ 7805
esqu@@ 7804
roses 7804
Achille 7801
organiques 7801
suscité 7801
Wolfgang 7799
appes 7799
donjon 7797
innov@@ 7797
Â@@ 7797
isible 7796
Gat@@ 7795
Nouvel 7795
renforc@@ 7795
prétexte 7794
tré@@ 7794
Jon 7793
locuteurs 7793
standards 7793
architectur@@ 7792
fossé 7791
miers 7791
euro 7790
mélang@@ 7790
the@@ 7790
éventuelle 7790
Châtillon 7788
Hainaut 7788
pirates 7788
substanti@@ 7787
Kazakhstan 7786
Phase 7786
March@@ 7785
grap@@ 7784
orthographe 7784
dépendait 7783
notaire 7783
consultation 7782
ministéri@@ 7781
Macron 7780
Facebook 7779
affaib@@ 7779
bénéficié 7779
monopole 7779
égion 7779
clientèle 7778
détéri@@ 7778
pseudo 7778
management 7777
précédé 7775
aniques 7774
jouées 7774
resp@@ 7774
baptême 7773
Cincinnati 7772
infirmi@@ 7772
criminel 7771
assique 7770
Warren 7767
trouvera 7764
ow 7763
blind@@ 7762
terroriste 7762
valu 7762
exhaustive 7761
votre 7761
agée 7760
déficit 7760
enz@@ 7760
soutenant 7759
tarde 7757
géologie 7756
ignan 7756
danseuse 7755
Tél@@ 7754
dérivée 7754
personnellement 7754
uranium 7754
Sul@@ 7753
chômeurs 7753
récipi@@ 7753
Sho@@ 7750
rempl@@ 7750
Tchad 7749
pratiquant 7748
sic@@ 7748
án@@ 7747
renforce 7746
successeurs 7746
aste 7745
glacier 7745
hésite 7745
thèses 7745
ônes 7742
Maximilien 7741
estre 7741
budg@@ 7740
promul@@ 7740
Soul@@ 7739
stimul@@ 7739
israélienne 7738
Roux 7736
noy@@ 7736
radicale 7736
Site 7735
iniens 7735
nouve@@ 7735
mitig@@ 7734
aperçoit 7733
huitièmes 7733
indemn@@ 7733
B.@@ 7731
chair 7731
distinguent 7731
Neuchâtel 7730
doigts 7730
révéler 7730
Pokémon 7729
spécific@@ 7729
Gav@@ 7728
N. 7728
correctement 7728
Qatar 7725
jol@@ 7724
Jug@@ 7723
élie 7723
cler@@ 7722
divinité 7721
LA 7720
Mountain 7720
1,4 7719
Universal 7719
vulnér@@ 7719
fiscal 7717
génocide 7717
ticul@@ 7717
chanc@@ 7715
ront 7715
répar@@ 7713
Kun@@ 7710
attén@@ 7710
bâtir 7710
transport@@ 7710
verb@@ 7710
patrie 7709
intellectuel 7708
vole 7708
bus@@ 7707
roux 7707
bury 7706
annuelles 7705
strat@@ 7705
Abdel@@ 7704
astron@@ 7704
géo@@ 7704
Polonais 7702
entrain@@ 7702
impliqués 7702
Rib@@ 7701
villageois 7701
déploiement 7700
esques 7700
wan 7700
Ž@@ 7699
gratuit 7698
volcanique 7697
ende 7694
tionnée 7691
observateurs 7690
posés 7687
intéressantes 7686
scission 7685
anec@@ 7684
Sebastian 7683
explorateur 7683
Clara 7681
récep@@ 7681
Morbihan 7680
entoure 7680
Monument 7677
entrev@@ 7677
amphi@@ 7676
Double 7675
O. 7675
chées 7675
lama 7674
dri@@ 7672
Stein@@ 7671
emmène 7669
Roosevelt 7668
milice 7668
Rhodes 7667
investit 7667
livrer 7667
archéologue 7665
oreilles 7664
salaires 7664
eth 7663
opérationnel 7661
sat@@ 7661
nœud 7660
Légende 7659
Channel 7658
refusa 7657
Moldavie 7656
typo@@ 7656
18@@ 7655
a&apos; 7655
Aqu@@ 7654
Dick 7654
estimation 7654
PDG 7653
incendies 7653
bordé 7652
Ken 7651
décrivant 7651
emporter 7651
isolement 7651
visuelle 7651
Ok@@ 7650
aériens 7649
calculs 7649
croyance 7649
vre 7649
Coran 7648
Tin@@ 7648
brillante 7648
titular@@ 7648
Charte 7647
étendant 7647
numér@@ 7646
présenta 7646
Sri 7645
protecteur 7645
Nuit 7644
dra@@ 7644
pill@@ 7644
ister 7643
jésuite 7643
recouvre 7643
reproche 7643
gouvernementales 7642
40@@ 7641
ashi 7641
quaient 7641
Collins 7640
ame@@ 7638
Danny 7637
précurseur 7637
rochers 7636
Bourse 7635
cloître 7635
répétition 7635
eller 7634
évoqué 7634
M.@@ 7633
militante 7633
argument 7631
tunisienne 7630
Mode 7629
Ois@@ 7628
desquels 7627
danses 7626
échoué 7626
Baron 7624
formellement 7624
pacte 7624
Gustav 7622
Pacific 7622
édé 7622
affaibl@@ 7621
Chil@@ 7620
limitées 7620
tionnaires 7620
Leclerc 7619
reliés 7619
culmine 7617
frégate 7617
Lloyd 7616
mixtes 7616
sière 7616
Mid@@ 7613
cousine 7613
Guatemala 7612
allum@@ 7612
ery 7612
ivre 7612
plaç@@ 7612
accroch@@ 7611
confirmer 7611
forestier 7610
éta@@ 7610
Jacqueline 7609
typiques 7609
Hippolyte 7608
arguments 7608
espionnage 7608
fournissent 7608
toirs 7608
alia 7606
centrée 7605
minéraux 7605
onales 7605
kilométrique 7604
périodique 7604
transmet 7604
verne 7604
29@@ 7602
ataires 7602
condamne 7601
CM 7600
croisée 7600
fix@@ 7600
Blancs 7599
haï@@ 7599
tragédie 7599
navigu@@ 7598
transférés 7598
pétr@@ 7596
Exemples 7595
May 7595
bébé 7594
drainée 7594
appartenu 7592
pétition 7592
surmontée 7592
crits 7591
Chambéry 7589
Marion 7589
arbus@@ 7589
dériv@@ 7589
Der 7588
Josef 7587
détaillés 7585
octro@@ 7585
ciers 7584
implantés 7584
transpor@@ 7584
récupération 7583
AG@@ 7582
gor@@ 7582
aquatiques 7581
extra 7581
CIA 7579
Rica 7579
Oran 7578
paï@@ 7578
relat@@ 7578
andes 7577
collégiale 7577
chen 7576
dépendent 7576
fret 7576
borne 7575
tation 7575
Affaire 7573
Dôme 7573
Ray@@ 7573
flamande 7573
érieur 7573
Presse 7572
Just 7570
Lub@@ 7570
aggrav@@ 7570
buste 7570
défendu 7570
subsistent 7570
Cyr 7569
détermine 7569
fixes 7568
ples 7568
améliorations 7567
questi@@ 7567
mœurs 7566
Va@@ 7565
plumes 7565
Monténégro 7564
pénal 7564
handicap 7563
insec@@ 7562
magistrat 7562
Islam 7561
Oklahoma 7561
bio 7561
télévisé 7561
brut 7559
tap@@ 7558
écla@@ 7557
einte 7555
tourelle 7554
déportation 7553
mites 7553
complémentaires 7552
feuill@@ 7552
évo@@ 7552
couper 7551
épiscopal 7551
connex@@ 7550
définis 7550
jadis 7550
démol@@ 7549
posées 7549
Lima 7548
Nord@@ 7548
Rig@@ 7547
enl@@ 7547
accentu@@ 7545
mentale 7545
NA 7543
décorée 7543
déclarer 7542
fabricants 7542
Émilie 7542
Mathilde 7541
omes 7541
č 7540
P.@@ 7536
clar@@ 7536
e.@@ 7536
victor@@ 7536
ornement@@ 7535
annulé 7534
iert 7532
RI 7529
dossiers 7529
préface 7529
édifié 7528
citadelle 7526
Angola 7523
Italien 7523
présum@@ 7523
Baltique 7522
Népal 7522
intime 7522
croise 7521
fortifiée 7521
Ouz@@ 7520
af 7520
promesse 7520
publicitaire 7520
Ler@@ 7517
défil@@ 7517
remontée 7517
Pâques 7516
Ful@@ 7515
séparent 7515
décoratifs 7514
déposée 7514
malé@@ 7514
éna 7514
Norm@@ 7512
nautiques 7511
Caz@@ 7510
ethniques 7510
Wisconsin 7508
Who 7507
lande 7506
montag@@ 7505
onge 7505
latérale 7503
atum 7502
emprisonnement 7501
patinage 7501
rituel 7500
Côtes 7499
asie 7499
dissimul@@ 7499
justifier 7499
multiplication 7499
dévoil@@ 7498
représailles 7498
canadiennes 7496
chimiste 7495
FN 7494
garantie 7493
rin 7493
réfère 7493
éru@@ 7492
dominée 7491
gallois 7491
respirat@@ 7491
Phoenix 7490
variées 7490
compens@@ 7489
meurtres 7489
Malo 7488
00 7487
E.@@ 7487
expertise 7486
inondation 7486
appuyer 7485
monoplace 7484
Raj@@ 7482
Sour@@ 7482
dispens@@ 7481
tomes 7481
marocaine 7480
êne 7480
4,5 7479
Nad@@ 7479
Og@@ 7479
argentine 7479
toires 7479
tsar 7478
conventions 7477
détruites 7476
permettrait 7476
conspir@@ 7475
zen 7473
biom@@ 7472
aca 7471
éphémère 7471
Vilaine 7470
Vingt 7470
décorations 7470
iliers 7470
éliminée 7470
Antoinette 7469
IF 7469
ii 7468
Fritz 7467
Oc@@ 7467
banquier 7467
juriste 7467
To 7466
lad@@ 7466
tas 7466
Espace 7465
vienne 7465
zu 7465
contrôlé 7464
terrible 7464
affirmation 7463
faiblesse 7463
rechercher 7463
chauds 7460
gaulois 7460
Sci@@ 7458
réhabilitation 7458
Mise 7457
congol@@ 7457
implantées 7455
Serie 7454
aristocratie 7454
Fant@@ 7453
Len@@ 7453
Osaka 7453
Rick 7453
teuses 7453
diffère 7449
ument 7449
fresque 7448
annulation 7447
Roubaix 7446
occasionn@@ 7446
ME 7445
lente 7445
réalis@@ 7445
varier 7444
investisseurs 7443
propos@@ 7443
déterminée 7442
conclure 7440
lyrique 7439
régler 7439
rar@@ 7438
PIB 7437
commandés 7437
fam@@ 7436
bijoux 7435
restrictions 7433
sit@@ 7433
directions 7432
polaire 7432
ineau 7431
Julius 7430
Newton 7429
PS@@ 7429
gel 7429
renforcée 7428
radicaux 7427
bridge 7426
perc@@ 7425
Alonso 7424
Sat@@ 7424
avancer 7424
conservatrice 7424
enthousiasme 7424
Eau 7420
Exemple 7420
boire 7420
cherchant 7420
Médec@@ 7418
anta 7417
leaders 7416
Hun@@ 7415
She@@ 7415
réalisatrice 7415
alimenter 7413
pouces 7413
Voix 7412
chou@@ 7412
thématique 7412
Alg@@ 7410
rattach@@ 7410
communautaires 7408
Boc@@ 7407
ceau 7407
sismicité 7407
geur 7406
ine@@ 7406
usées 7405
2,4 7404
1.@@ 7403
ely 7403
polo 7402
Che@@ 7401
Universit@@ 7400
collision 7399
refroidissement 7399
Niger 7398
Stanislas 7398
aun@@ 7398
pôles 7398
AB 7396
European 7395
Wallonie 7395
hostile 7395
ogives 7395
cofondateur 7394
ess 7394
ogne 7394
recycl@@ 7394
écrans 7394
Wolf 7393
Got@@ 7392
conquis 7392
marathon 7391
succédant 7391
water 7391
survenue 7390
Queensland 7389
coéquipiers 7389
Honneur 7387
minorités 7385
primer 7385
fondamental 7383
envoya 7382
étymologie 7381
expliquant 7380
And@@ 7379
Wood 7379
paroi 7379
ètement 7379
Holstein 7378
célibat@@ 7378
umes 7378
consensus 7377
libérée 7377
aménagée 7376
haus@@ 7376
perform@@ 7376
Bristol 7375
amendement 7375
visibilité 7375
Diane 7374
clos 7374
Diffusion 7373
exercices 7373
Out 7372
établissant 7372
Lombardie 7371
centenaire 7371
complémentaire 7371
promet 7371
cohérence 7369
Buc@@ 7368
ographi@@ 7368
pères 7368
torture 7368
traducteur 7368
ât 7368
luminosité 7367
offensif 7367
sionnaire 7367
modifie 7366
1788 7365
philosophes 7365
siers 7365
û 7365
pochette 7364
édit 7364
Bull 7363
parf@@ 7363
élien 7363
consul@@ 7360
méd@@ 7360
Foundation 7359
Civ@@ 7358
Santos 7358
épaule 7358
exclu 7357
inité 7356
ouin 7356
eption 7355
terr@@ 7355
fr 7354
incer@@ 7354
senior 7354
Harvey 7353
Uni@@ 7350
chronologique 7350
Construit 7349
Gray 7349
effective 7347
destitu@@ 7346
intégralement 7345
Ici 7344
Jamaïque 7344
ayer 7344
dévoile 7344
illac 7344
Hassan 7343
installa 7343
présidentiel 7343
105 7342
Pauline 7342
Caucase 7341
López 7341
tueur 7341
joueuses 7339
suscit@@ 7338
étangs 7338
eines 7337
rén@@ 7337
virage 7337
achèvement 7335
décrits 7334
loin@@ 7334
policière 7333
ophone 7332
pilotage 7332
reb@@ 7332
analog@@ 7331
décider 7331
inspirés 7331
lame 7331
cadette 7329
tront 7328
leçons 7327
touches 7327
évidemment 7327
Wer@@ 7326
défilé 7325
renforcé 7324
Plou@@ 7323
anthropo@@ 7323
opposée 7323
parcourt 7323
égation 7323
Carr@@ 7322
immigrants 7322
inten@@ 7322
Utah 7321
desservant 7320
Ori@@ 7319
veiller 7319
Annecy 7318
bosnien 7318
from 7318
comédies 7317
num@@ 7317
agression 7316
révèlent 7316
débris 7314
captur@@ 7313
podes 7313
abil@@ 7311
confédération 7311
féminins 7311
loger 7311
ig 7310
tou 7310
brise 7309
portera 7309
Girl 7308
aman 7307
massac@@ 7307
Gram@@ 7306
affec@@ 7306
segments 7306
communisme 7305
désh@@ 7305
enregistr@@ 7305
merve@@ 7304
1775 7303
24,@@ 7303
Domin@@ 7303
verra 7302
war@@ 7302
myth@@ 7301
souffle 7301
Palerme 7300
options 7300
Of 7298
arom@@ 7297
chasser 7297
Médaille 7296
intégrant 7296
tirés 7296
Sky@@ 7294
emi 7294
Balkans 7293
vertic@@ 7292
Cross 7291
antennes 7291
11@@ 7290
capturés 7290
organisateurs 7290
éance 7290
sag@@ 7289
soigner 7289
Platon 7287
TO@@ 7286
atmosphérique 7286
lave 7286
encadrement 7285
décentr@@ 7284
Huit 7282
Mongolie 7282
inos 7282
donation 7281
lycées 7281
nationalisme 7281
élique 7281
Ferry 7280
bailliage 7280
exploit 7280
fications 7279
polit@@ 7279
statu@@ 7279
1784 7277
nuages 7277
AL 7276
vinrent 7276
GT@@ 7275
chor@@ 7274
fièvre 7274
Produ@@ 7273
Profes@@ 7273
enseur 7273
menacée 7272
consultant 7270
hybride 7269
ocre 7269
rit 7269
éter 7269
CFA 7268
conclusions 7268
organisateur 7268
départs 7267
Mog@@ 7266
Kn@@ 7265
décline 7264
inski 7263
Freud 7262
1,8 7261
6,@@ 7260
écossaise 7260
dauphin 7259
hie 7259
minerai 7259
Sot@@ 7258
Keith 7257
Terry 7256
etto 7255
remor@@ 7255
Comment@@ 7254
réalisent 7254
1770 7253
jan 7253
Belge 7252
imag@@ 7252
proph@@ 7252
lop@@ 7251
syri@@ 7250
coutumes 7248
Erik 7247
acceptée 7247
faudra 7247
J.@@ 7246
evo 7246
lass@@ 7246
aquar@@ 7245
sanitaires 7245
ISO 7244
Milit@@ 7243
Léo 7241
Tang 7241
arre 7241
autonomes 7241
dest@@ 7241
restants 7241
Churchill 7239
mystérieux 7239
toulous@@ 7239
ken@@ 7238
Gauche 7236
accroître 7236
stér@@ 7236
wa@@ 7236
Castro 7235
cieux 7235
oreille 7234
hyp@@ 7232
liner 7232
chron@@ 7231
Fu@@ 7229
itch 7229
Business 7227
ress@@ 7227
tul@@ 7227
favoris 7226
inet 7226
owo 7225
pluriel 7225
triangulaire 7225
rapatri@@ 7224
Classe 7223
mémorial 7223
repart 7223
itr@@ 7222
nac 7222
toi 7222
33@@ 7221
couronné 7220
oo 7220
attractions 7219
instances 7219
bass@@ 7218
Auparavant 7217
West@@ 7217
socle 7217
Pont@@ 7216
Sarr@@ 7215
confluent 7215
crème 7215
direc@@ 7215
reflète 7215
fédérations 7214
notions 7213
itte 7212
Spirou 7211
autrich@@ 7211
guer 7211
Radi@@ 7210
nan 7210
reproduire 7210
ressemb@@ 7210
sanctions 7210
brux@@ 7209
criminelle 7209
proc@@ 7209
renvers@@ 7209
sculpté 7209
annonc@@ 7208
loges 7208
succèdent 7208
Sèvres 7207
convoqué 7207
compression 7206
intercommunalité 7206
roy@@ 7206
Rey 7205
ring 7205
Nova 7204
ott 7204
tester 7204
explorer 7202
pratiquée 7202
å@@ 7202
signalisation 7201
célébré 7200
parois 7200
prédateurs 7200
modalités 7199
expérim@@ 7198
oum 7198
ston 7198
osaurus 7197
végétales 7197
forti@@ 7196
navette 7196
tivement 7196
bénédict@@ 7193
escu 7193
animale 7192
explicitement 7191
2,3 7190
Gallery 7190
www.@@ 7190
Bres@@ 7189
Imp@@ 7189
demeurent 7189
papillons 7189
Base 7186
promenade 7186
Belfort 7185
pâtur@@ 7185
sér@@ 7185
iti 7184
ûts 7184
incorporé 7183
alet 7182
implantée 7182
futures 7181
Fête 7179
36@@ 7178
cod@@ 7177
restreint 7177
casting 7176
présentait 7176
bey 7175
signent 7175
voisinage 7175
trop@@ 7174
1,1 7173
Accès 7171
bancs 7171
facilité 7170
surveiller 7170
positives 7168
amar@@ 7166
dent 7166
lactée 7166
bancaire 7165
instantan@@ 7164
orial 7163
paysag@@ 7163
Medi@@ 7162
TE@@ 7162
détr@@ 7162
tiendra 7162
Adour 7160
déroulement 7159
forcément 7159
initiales 7157
moléculaire 7156
ongo 7155
Raf@@ 7154
alimenté 7154
ornée 7154
Trav@@ 7153
anos 7153
ns 7153
provisoirement 7153
reporter 7153
Capitaine 7152
Eva 7151
déterminant 7151
sachant 7151
Lus@@ 7150
avoue 7149
désaccord 7148
ism@@ 7148
affectés 7147
tuant 7147
Pes@@ 7146
recette 7146
0,1 7145
illette 7145
allé@@ 7144
fluor@@ 7144
synchron@@ 7144
Portland 7143
confér@@ 7143
devenues 7143
pousser 7143
supposé 7143
Libre 7142
Qui 7142
localisée 7142
raccour@@ 7142
Créée 7141
contemporaines 7141
flûte 7141
Journ@@ 7140
etz 7140
dépou@@ 7139
méda@@ 7139
Your 7138
Inf@@ 7137
Nathalie 7137
conseillère 7137
millénaire 7137
remplac@@ 7137
subissent 7137
2.@@ 7135
attachée 7135
faim 7135
piques 7135
Box 7134
Discographie 7133
toil@@ 7133
Lon@@ 7132
confronté 7132
Wehrmacht 7130
alliée 7130
Moreau 7129
précip@@ 7128
Holmes 7127
Noy@@ 7127
Via 7126
disciplin@@ 7125
Berkeley 7124
interrompue 7124
lun@@ 7123
Ley@@ 7122
dégu@@ 7122
reconnues 7119
spectaculaire 7117
Cherbourg 7116
Fondée 7116
accroissement 7115
épous@@ 7114
Chacun 7113
biblique 7113
refuser 7112
Doubs 7111
Sens 7110
Westminster 7110
cars 7110
Neu@@ 7109
entale 7108
Ardèche 7107
aris 7107
dine 7107
kel 7107
régimes 7107
ust 7107
Andreas 7106
mélodie 7106
Deutsche 7105
affili@@ 7105
vocabulaire 7105
épau@@ 7105
cia 7104
Pape 7103
absorption 7103
Yonne 7102
discrimination 7102
folie 7102
Fac@@ 7101
Citroën 7100
danoise 7100
Meyer 7097
Gag@@ 7096
Issu 7096
chaude 7096
imit@@ 7096
localisé 7096
mercredi 7096
agissent 7094
anthropologie 7094
ges@@ 7094
viendrait 7094
évang@@ 7091
radioph@@ 7090
évoquent 7090
mées 7089
crainte 7087
papes 7087
Neuilly 7086
commentaire 7086
expérimentale 7086
fibre 7086
Be 7084
recevant 7084
Leo 7083
arin 7083
illustrateur 7083
Juliette 7082
régent 7082
urgie 7082
Ł@@ 7081
1783 7080
Mey@@ 7080
originellement 7080
Whit@@ 7079
prédécesseurs 7079
trésorier 7078
rocheux 7077
35@@ 7076
nid 7076
Geoffroy 7075
crises 7075
Let@@ 7074
insertion 7074
réussir 7074
fonctionnalités 7073
oti@@ 7073
accou@@ 7072
traversent 7072
š 7072
homosexualité 7071
excellente 7070
Twitter 7069
apprécie 7069
prononc@@ 7069
rio 7069
IT@@ 7068
accélération 7068
aisément 7068
hôtel@@ 7068
rail 7068
saur@@ 7068
alo 7067
processeur 7067
1600 7066
personn@@ 7066
pompe 7066
bio@@ 7064
install@@ 7064
réacteurs 7064
positifs 7063
termina 7063
Hanovre 7062
gagnent 7062
hiques 7062
manœuvres 7062
aer@@ 7061
eti@@ 7061
Global 7060
couverts 7059
Men 7056
Adri@@ 7055
chs 7054
grain 7054
Soviétiques 7053
Gul@@ 7052
Amaz@@ 7051
cavalier 7051
comédienne 7051
tombée 7051
ectées 7049
éloigné 7048
réunissent 7046
34,@@ 7045
entretenir 7045
vez 7045
Hilaire 7042
Public 7042
MI@@ 7041
relance 7041
iranien 7040
ive 7040
lumineux 7040
sacrifice 7039
α 7038
stratégies 7037
équipages 7037
Matthieu 7036
Sont 7036
opéras 7036
diplômes 7035
grad@@ 7035
facultés 7034
icor@@ 7034
marée 7034
présidée 7034
Nil 7033
Que@@ 7033
èlement 7033
1750 7032
embarque 7032
jean 7032
resse 7032
stat@@ 7032
salons 7031
Was@@ 7029
bourgs 7029
passer@@ 7029
Grandes 7028
licencié 7028
ls 7028
toponymie 7028
approvisi@@ 7027
hollandais 7027
Critiques 7025
Hugh 7025
fan 7024
pharmacie 7024
Châ@@ 7023
passionné 7023
cous@@ 7022
subdivision 7022
seaux 7021
venaient 7021
Champ 7019
empreinte 7018
pol 7018
totalise 7018
souhaitant 7017
farine 7016
itier 7016
from@@ 7015
mau@@ 7015
Church 7014
dégradé 7013
prouv@@ 7012
sets 7012
tragique 7012
inement 7011
tar 7011
Nombre 7010
chauss@@ 7010
ôtre 7010
communi@@ 7009
ié 7008
Femmes 7007
incorpor@@ 7007
hem 7006
og 7006
contribu@@ 7004
couloir 7004
aperçu 7003
gouvernance 7003
guer@@ 7002
redevient 7002
orne 7001
Milieux 7000
Clinton 6998
Pasteur 6998
exportations 6998
trail 6998
Do 6997
Larry 6997
iz 6997
Armstrong 6996
ä 6996
Brothers 6994
D1 6994
Voltaire 6994
escar@@ 6993
nuclé@@ 6992
parvint 6992
sergent 6992
aitre 6991
démissionner 6991
évoluent 6990
Paraguay 6989
motion 6989
stars 6989
Lions 6988
Océan 6988
Sergio 6988
mystique 6988
mesurant 6987
mondes 6987
urus 6987
zen@@ 6987
souterraines 6984
esclave 6983
Wimbledon 6982
sexualité 6982
Quatrième 6980
scep@@ 6980
continents 6979
créateurs 6979
cursus 6979
Alexandra 6978
citoyenneté 6978
limo@@ 6977
expérimental 6976
lanterne 6975
mb@@ 6975
poils 6975
contamin@@ 6974
anth@@ 6973
Élu 6972
Julian 6971
Werner 6971
mic@@ 6971
héberg@@ 6968
Pictures 6967
sonores 6967
transporté 6967
rements 6966
Ron 6965
fluide 6965
téléph@@ 6965
incidents 6964
gratu@@ 6963
Hos@@ 6962
Nouvelles 6962
démoli 6962
oyer 6962
Lucie 6961
algues 6960
routiers 6960
arches 6958
Voyage 6956
luttes 6956
37@@ 6954
Réc@@ 6954
crite 6954
trie 6954
coqu@@ 6952
croy@@ 6952
anglic@@ 6951
cau@@ 6951
potentiellement 6951
commen@@ 6948
payé 6947
divertissement 6946
vét@@ 6946
yd@@ 6946
égal@@ 6946
Tap@@ 6945
escalade 6945
enva@@ 6944
prenait 6944
compté 6943
see 6943
vacc@@ 6943
uée 6940
Gom@@ 6939
Zhang 6939
publicitaires 6939
Calvados 6937
treizième 6937
Aube 6936
issons 6936
parap@@ 6936
hélicoptères 6935
fondamentaux 6934
primiti@@ 6933
til 6932
Rum@@ 6929
inaugure 6928
Pop@@ 6927
festivités 6927
titulaires 6927
agea 6925
Unies 6924
rebaptisée 6924
Artois 6923
mel 6921
Nas@@ 6920
cienne 6919
paci@@ 6918
promis 6918
DE 6917
com 6917
croisés 6917
Müller 6916
croisière 6915
marquants 6915
péd@@ 6915
sho@@ 6915
Río 6914
quotidiens 6913
épiscop@@ 6913
issaient 6911
viol 6910
Gin@@ 6909
IA 6909
Cloud 6908
obstacle 6908
39@@ 6906
potenti@@ 6905
biot@@ 6904
ilde 6904
Rin@@ 6903
7,5 6902
Gru@@ 6902
Soc@@ 6902
fos@@ 6902
psychanaly@@ 6902
try 6902
Susan 6900
vidé@@ 6900
zz@@ 6900
drome 6899
ū 6899
abouti 6898
consécutifs 6898
ā 6897
hospitali@@ 6896
photographique 6896
vitch 6896
édifiée 6896
savants 6895
Tem@@ 6892
Saintes 6891
relégués 6891
imm@@ 6890
Lieutenant 6889
Allan 6888
1787 6887
Angelo 6887
Rho@@ 6887
rattachement 6886
sondage 6886
sins 6885
échangé 6885
autobiographie 6884
retrace 6884
Mémoires 6883
recouverte 6883
ventr@@ 6883
Wild 6882
absent 6882
saum@@ 6882
bombardiers 6881
criminels 6881
Dead 6880
Océanie 6880
organiste 6879
bleus 6878
romanti@@ 6878
animales 6877
côto@@ 6877
diam@@ 6877
voil@@ 6877
disponibilité 6876
éruption 6875
Wells 6874
collo@@ 6874
extrêmes 6874
négociation 6873
nationalités 6872
proclame 6872
Kate 6871
agran@@ 6871
herbes 6871
réelles 6871
Amis 6870
DA 6870
Od@@ 6869
archevê@@ 6869
renouvelée 6869
stock 6869
encourager 6867
olet 6866
´ 6865
Santo 6864
signifier 6864
pement 6863
secrétariat 6863
brute 6862
[...]
