, 1
. 0.9608792805206839
του 1
και 1
της 1
το 1
&quot; 0.9698949392550367
την 1
από 1
με 1
) 1
( 1
η 1
ο 1
να 1
τον 1
που 1
των 1
στην 1
για 1
σε 1
στο 1
είναι 1
τη 1
τα 1
Η 1
τους 1
Το 1
@-@ 0.47036168309191384
Ο 1
οι 1
ήταν 1
στη 1
ως 1
τις 1
: 1
στις 1
ένα 1
ή 1
ότι 1
στον 1
μια 1
« 1
» 1
στα 1
δεν 1
Οι 1
΄ 1
είχε 1
κατά 1
έχει 1
αλλά 1
ενώ 1
οποία 1
θα 1
όπως 1
δύο 1
&apos; 1
- 1
μετά 1
επίσης 1
όπου 1
/ 1
Τα 1
καθώς 1
οποίο 1
μία 1
στους 1
όταν 1
μέχρι 1
μεταξύ 1
αυτό 1
έγινε 1
Α 1
χρόνια 1
ών 1
πρώτη 1
έχουν 1
πιο 1
προς 1
Β 1
Στις 1
; 0.3905259883356994
2 0.9971630628694788
αν 1
περιοχή 1
πόλη 1
Σ@@ 1
ος 1
μπορεί 1
θέση 1
αυτή 1
ική 1
ικό 1
1 0.8301085963665656
ομάδα 1
ων 1
διάρκεια 1
αιώνα 1
ου 1
ένας 1
οποίος 1
Από 1
αν@@ 1
&amp; 1
ό 1
Στην 1
% 0.7373664048961945
– 0.4539380602452015
α 1
περίοδο 1
3 0.9629388410871537
ικής 1
έναν 1
μέρος 1
μόνο 1
ία 1
είχαν 1
ά 1
πολύ 1
μαζί 1
ενός 1
Μετά 1
ικά 1
σ@@ 1
ικού 1
ους 1
ικές 1
έως 1
Με 1
ες 1
ός 1
ής 1
ικών 1
περίπου 1
βρίσκεται 1
ές 1
όμως 1
ίας 1
προ@@ 1
Π@@ 1
Κ@@ 1
εν@@ 1
4 0.9556156333862554
αργότερα 1
Στο 1
τότε 1
όνομα 1
Τ@@ 1
ι 1
τ@@ 1
κάθε 1
Κατά 1
ης 1
Α@@ 1
Μ@@ 1
μέσα 1
ι@@ 1
υπο@@ 1
φορά 1
&#93; 1
&#91; 1
χ@@ 1
Τον 1
Είναι 1
Σε 1
δι@@ 1
απο@@ 1
πρώτο 1
Ν@@ 1
β@@ 1
λόγω 1
ο@@ 1
κ@@ 1
πως 1
ν@@ 1
πριν 1
υπό 1
ταινία 1
κυρίως 1
Την 1
ού 1
Χ@@ 1
γκ@@ 1
συνέχεια 1
α@@ 1
Λ@@ 1
φ@@ 1
μ@@ 1
5 0.9379467669073522
Β@@ 1
σειρά 1
εκ@@ 1
ικός 1
ίδια 1
Για 1
ς 1
πάνω 1
ας 1
ε 1
τ 1
έργο 1
ζ@@ 1
10 0.8886934262006408
Ελλάδα 1
ά@@ 1
εξ@@ 1
Στη 1
π@@ 1
2011 1
Ρ@@ 1
Φ@@ 1
αρ@@ 1
χωριό 1
Ήταν 1
ετών 1
ου@@ 1
σήμερα 1
σαν 1
χωρίς 1
μη 1
αντι@@ 1
μπ@@ 1
γ@@ 1
ί 1
αυτά 1
επι@@ 1
6 0.8363398784280136
Ι@@ 1
σύμφωνα 1
φορές 1
ίου 1
Επίσης 1
μέσω 1
μιας 1
Σύμφωνα 1
μεγάλη 1
κ 1
Γ 1
αποτέλεσμα 1
Μπ@@ 1
θ@@ 1
Ο@@ 1
ούς 1
μέλος 1
πόλης 1
εν 1
εποχή 1
_ 1
ομάδες 1
ιστορία 1
έτσι 1
πολλές 1
λ 1
τμήμα 1
ιν@@ 1
Δ@@ 1
τσ@@ 1
στοιχεία 1
δ@@ 1
ό@@ 1
ίδιο 1
εκλογές 1
έκανε 1
τρεις 1
στ@@ 1
άλλα 1
λ@@ 1
τού 1
π.Χ. 1
ε@@ 1
αναφέρεται 1
Ε@@ 1
τέλος 1
αρχές 1
χώρα 1
Ωστόσο 1
επί 1
= 1
20 0.9389728983448603
12 0.9144421816377291
συν@@ 1
αποτελεί 1
Ζ@@ 1
τίτλο 1
πολλά 1
λι@@ 1
τόσο 1
ί@@ 1
άλλες 1
αλ@@ 1
ν 1
ηλικία 1
κοντά 1
ξεκίνησε 1
ίων 1
γιος 1
8 0.8643837983309647
ρο@@ 1
όλα 1
ανα@@ 1
The 0.07565855909543356
τα@@ 1
ζωή 1
υπάρχει 1
παρ@@ 1
κατα@@ 1
7 0.8203807615117953
έδρα 1
πρωτάθλημα 1
κι 1
τικό 1
έλαβε 1
κόρη 1
μεγάλο 1
Γ@@ 1
2010 0.7619780419333966
κατοίκους 1
ικ@@ 1
απ@@ 1
ρ@@ 1
ώστε 1
έργα 1
τική 1
οί 1
15 0.9284666084723368
χρήση 1
όσο 1
έ@@ 1
ει 1
μέλη 1
Ιουλίου 1
Αυγούστου 1
ρ 1
εκ 1
ρι@@ 1
Μαρτίου 1
Εθνική 1
χρόνο 1
of 0.021861693635402996
αυτές 1
αφού 1
βι@@ 1
υπάρχουν 1
Σεπτεμβρίου 1
κα@@ 1
Οκτωβρίου 1
βάση 1
ακόμη 1
formula 1
μ 1
’ 0.24124357534048524
Ά@@ 1
τος 1
Ιουνίου 1
ω@@ 1
ια 1
Στα 1
οποίες 1
Μαΐου 1
γύρω 1
ον@@ 1
περιοχές 1
Όταν 1
Ιανουαρίου 1
ακ@@ 1
άν@@ 1
ισ@@ 1
δεύτερη 1
πρέπει 1
επ@@ 1
συχνά 1
Απριλίου 1
ακόμα 1
σεζόν 1
σύστημα 1
έ 1
εκτός 1
το@@ 1
μα 1
κυβέρνηση 1
μορφή 1
αρχικά 1
Αυτό 1
τι@@ 1
Αγίου 1
νέα 1
υ@@ 1
Νοεμβρίου 1
ατ@@ 1
τελευταία 1
ευ@@ 1
ομάδας 1
εκεί 1
Ιστορία 1
σι@@ 1
ντε 1
ουν 1
ερ@@ 1
τες 1
έν@@ 1
Αθήνα 1
εναντίον 1
ονομασία 1
30 0.9179591129548806
τι 1
16 0.9773008016635311
11 0.8712731897549433
πρώην 1
2012 0.802820851985139
ού@@ 1
κοινότητα 1
14 1
προσ@@ 1
Γκ@@ 1
Αν@@ 1
αγώνες 1
όλη 1
τελικά 1
σχετικά 1
ον 1
9 0.7979039168212086
γλώσσα 1
Έχει 1
δηλαδή 1
συνήθως 1
κέντρο 1
Δεκεμβρίου 1
όχι 1
πήρε 1
2009 0.798675266436365
βασιλιά 1
είτε 1
gt 1
2008 0.7967674602396382
ρόλο 1
ομ@@ 1
2014 0.7716288324254005
μένη 1
πρώτος 1
μπορούν 1
άς 1
τικά 1
ώ@@ 1
μέτρα 1
ίες 1
πλέον 1
18 0.8339230225733861
ήσει 1
Φεβρουαρίου 1
κατηγορία 1
lt 1
δια@@ 1
2015 0.7694009490053806
άλλων 1
2013 0.7706892932698944
όν 1
μεγαλύτερο 1
ικούς 1
γεννήθηκε 1
13 0.9770009337725069
Βιογραφία 1
Τζ@@ 1
άλμπουμ 1
αγώνα 1
αγ@@ 1
άλλη 1
ούν 1
γίνει 1
άν 1
άρχισε 1
ανάμεσα 1
κυκλοφόρησε 1
γεγονός 1
κάτω 1
παιδιά 1
Ως 1
έτος 1
Πανεπιστήμιο 1
ρα@@ 1
Τσ@@ 1
2007 0.7877324943370551
τζ@@ 1
κέρδισε 1
ώντας 1
μεγαλύτερη 1
17 0.974328838695848
πρώτα 1
Αν 1
2016 0.7420471268912705
δεύτερο 1
ΗΠΑ 1
χώρας 1
γνωστή 1
25 0.9535640350989888
χρονιά 1
ύ@@ 1
περι@@ 1
ορ@@ 1
ήθηκε 1
ξ@@ 1
σχεδόν 1
δεκαετία 1
Δ 1
υπήρξε 1
Ελλάδας 1
όλες 1
γνωστό 1
τικής 1
η@@ 1
τέλη 1
σχέση 1
ιδιαίτερα 1
τρ@@ 1
Έ@@ 1
de 0.013233668296072624
χώρες 1
σκ@@ 1
περιοχής 1
Έτσι 1
2006 0.7727429052705703
ση 1
να@@ 1
αι@@ 1
μένο 1
τρία 1
επειδή 1
ασ@@ 1
ερ 1
υπερ@@ 1
οποίοι 1
ιών 1
ρί@@ 1
the 0.009075963561980661
περισσότερο 1
θάνατο 1
μετα@@ 1
πολιτική 1
ισμός 1
συμμετείχε 1
κόσμο 1
ίδιος 1
τρόπο 1
2019 0.7624356061463013
Ευρώπη 1
μάχη 1
παραγωγή 1
γίνεται 1
είς 1
0 1
κάνει 1
19 0.8554695609970998
πληθυσμό 1
πι@@ 1
εκείνη 1
ελ@@ 1
ωστόσο 1
ολ@@ 1
πέντε 1
απογραφή 1
σης 1
ισμού 1
μένα 1
ει@@ 1
όν@@ 1
Προ@@ 1
πατέρα 1
εί 1
2017 0.7061741819687598
χρησιμοποιείται 1
αφ@@ 1
εία 1
νέο 1
οντας 1
όρος 1
ισμό 1
2018 0.6756620937073692
παράδειγμα 1
αρκετά 1
άρ@@ 1
ρα 1
άτομα 1
πέθανε 1
οικογένεια 1
γι@@ 1
Αθηνών 1
χιλιόμετρα 1
Γαλλία 1
Μια 1
21 0.950190724204694
2004 0.8702416090718827
θεωρείται 1
κλ@@ 1
τικών 1
Ένα 1
βόρεια 1
ιδρύθηκε 1
αριθμός 1
Δι@@ 1
2000 0.7804078403190207
Πρωτάθλημα 1
νότια 1
δυνάμεις 1
ζωής 1
πατέρας 1
επιτυχία 1
Αλ@@ 1
οικισμός 1
μας 1
δυο 1
Καρ@@ 1
βρίσκονται 1
ρά@@ 1
ανά 1
περιλαμβάνει 1
τικές 1
-@@ 1
θεί 1
τραγούδι 1
κο@@ 1
ικοί 1
Γι@@ 1
πρόεδρος 1
ρου 1
ιο 1
αυτός 1
ίν@@ 1
ήδη 1
22 0.9835839095708556
2005 0.7788844446180503
λε@@ 1
πόλεις 1
ή@@ 1
χώρο 1
.@@ 1
διάστημα 1
Αρ@@ 1
πλ@@ 1
θε@@ 1
έγιναν 1
24 0.8771125199919829
μουσική 1
Γεννήθηκε 1
μήκος 1
ρος 1
παρά 1
δε 1
αμ@@ 1
τά@@ 1
σημείο 1
ελληνική 1
αυτών 1
γνωστός 1
ονται 1
&#124; 1
ανάπτυξη 1
ανέλαβε 1
Θ@@ 1
amp 0.6306444093837529
πίσω 1
έδωσε 1
πο@@ 1
ότητα 1
2001 0.9111284816542617
Στον 1
εται 1
κατάσταση 1
ιά 1
άλλους 1
ωση 1
μι@@ 1
Ανα@@ 1
οποίων 1
αυτόν 1
περιόδου 1
κάποια 1
βασιλιάς 1
Αυτή 1
εκατομμύρια 1
μένος 1
όλο 1
εποχής 1
αυτού 1
έκδοση 1
φ 1
23 0.9821644590419405
άλλο 1
Γερμανία 1
εντός 1
αυτής 1
επίπεδο 1
μπορούσε 1
τερ@@ 1
οπ@@ 1
μου 1
Παρ@@ 1
διάφορες 1
κάτι 1
ησε 1
όνομά 1
υ 1
ω 1
ων@@ 1
πλευρά 1
τικού 1
επέστρεψε 1
πόλεμο 1
Δεν 1
Νέα 1
νησί 1
αριθμό 1
δεκαετίας 1
Έλληνας 1
ζ 1
εξής 1
εταιρεία 1
· 0.8589196956209901
μητέρα 1
Γαλλίας 1
πολέμου 1
συμμετοχή 1
Παγκόσμιο 1
μον@@ 1
τρι@@ 1
λα@@ 1
βρισκόταν 1
περισσότερα 1
μόλις 1
είο 1
Μαρία 1
ψ@@ 1
28 1
χαρακτηριστικά 1
κάτοικοι 1
Ένωση 1
ονομάζεται 1
λίγο 1
ώθηκε 1
ήσεις 1
τε@@ 1
Συν@@ 1
χλμ. 1
τών 1
δημιουργία 1
1990 0.9803828440561303
καριέρα 1
ποτέ 1
Κου@@ 1
ήσουν 1
Κύπελλο 1
μήνες 1
100 0.8093310665443229
όρο 1
τελικό 1
Ό@@ 1
! 0.8332748286966135
βιβλίο 1
αναφέρει 1
Ου@@ 1
επόμενη 1
είται 1
ανήκει 1
είδη 1
παρέμεινε 1
θέσεις 1
Ιταλία 1
2002 0.8122833471782913
ογ@@ 1
ώ 1
σημαίνει 1
χωριού 1
μένες 1
26 0.9772420881819663
Γου@@ 1
κά@@ 1
Ε 1
μα@@ 1
πρωτεύουσα 1
ρο 1
2020 0.6015176721849892
σημαντικό 1
περίπτωση 1
s 0.2615921490042102
βαθμό 1
ανδρών 1
2003 0.8118137807229188
όλων 1
C 0.9927181479132375
οβ@@ 1
περισσότερες 1
50 0.9731718307362073
Ιωάννης 1
27 0.9774559602828257
είδος 1
εις 1
... 1
Ιωάννη 1
γαλλικά 1
Μαρ@@ 1
τικός 1
έξι 1
κατασκευή 1
νίκη 1
β 1
πάλι 1
ίδα 1
αποτελούν 1
ουν@@ 1
σκοπό 1
1999 0.8706546078055489
επαρχία 1
οποίου 1
όπουλος 1
μά@@ 1
τέσσερις 1
σώμα 1
είας 1
ίνα 1
ίσ@@ 1
υπ@@ 1
φαίνεται 1
ούσε 1
γιο 1
αρχή 1
ταινίες 1
όρ@@ 1
οδ@@ 1
σημαντική 1
αντ@@ 1
μάτων 1
έρ@@ 1
άλ@@ 1
μικρό 1
πληθυσμού 1
επικεφαλής 1
έγραψε 1
κατέκτησε 1
αυτήν 1
πρόγραμμα 1
κατάφερε 1
Εθνικής 1
π 1
ντ 1
ηση 1
Θεσσαλονίκης 1
οφ@@ 1
1997 0.990691997069605
Έλληνες 1
έκταση 1
ξανά 1
αυτο@@ 1
εκκλησία 1
περ@@ 1
29 1
Παρίσι 1
έχοντας 1
εξουσία 1
πρώτες 1
άσ@@ 1
αποτελείται 1
ρε@@ 1
ότητας 1
γυναίκες 1
δύναμη 1
συνολικά 1
πρ@@ 1
διάφορα 1
ίνη 1
ησαν 1
οπότε 1
Πολέμου 1
μικρή 1
μεγάλες 1
κα 1
έπειτα 1
Σχολή 1
ώσει 1
απέκτησε 1
γάμο 1
μην 1
τη@@ 1
πολυ@@ 1
τς 1
απόσταση 1
1η 1
επίσημα 1
συγκρότημα 1
οκ@@ 1
σπίτι 1
ανατολικά 1
υλ@@ 1
ονταν 1
Καλ@@ 1
παραγωγής 1
καλ@@ 1
σύνολο 1
είου 1
μέτρων 1
ίδες 1
οσ@@ 1
μαν@@ 1
αγωνίστηκε 1
εί@@ 1
εθνική 1
Δημοκρατίας 1
οδήγησε 1
πληθυσμός 1
1998 0.8461350810071074
έφτασε 1
Εν@@ 1
Κά@@ 1
δυτικά 1
προέρχεται 1
ίν 1
έτη 1
στρατό 1
ήθηκαν 1
1991 0.971867037926734
κας 1
προκειμένου 1
κοινό 1
1980 1
ρού@@ 1
Παν@@ 1
ηθεί 1
σχέδιο 1
τας 1
θ 1
ίσει 1
Δημοκρατία 1
υπήρχε 1
Πόλεμο 1
Δήμου 1
υψόμετρο 1
ιλ@@ 1
στιγμή 1
ις 1
Βασίλειο 1
μερικές 1
ημέρα 1
1996 0.8920200028239234
αυτούς 1
Σου@@ 1
μέσο 1
αρκετές 1
σημαντικά 1
κου@@ 1
.. 1
Μον@@ 1
and 0.011345439918899518
άκη 1
απεβίωσε 1
σπ@@ 1
άρα 1
ποδοσφαίρου 1
ούσαν 1
Αργότερα 1
Ί@@ 1
Απο@@ 1
br 1
πηγές 1
πρωταθλήματος 1
φάση 1
ίδης 1
τέ@@ 1
βοήθεια 1
ιν 1
αφορά 1
κόμμα 1
παρουσία 1
λέξη 1
επαν@@ 1
πολλούς 1
ουλ@@ 1
νερό 1
θέμα 1
Ένωσης 1
+ 1
αρχαία 1
Νέας 1
Υ@@ 1
1970 1
ϊ@@ 1
Μά@@ 1
π.χ. 1
μένων 1
ημέρες 1
έκ@@ 1
μέγεθος 1
αγγλικά 1
in 0.009529799733579578
ησης 1
χ 1
άγ@@ 1
ίστηκε 1
κράτος 1
καλοκαίρι 1
βραβείο 1
περί 1
άρι 1
1992 0.8661743622225192
ταινίας 1
θούν 1
τον@@ 1
έλεγχο 1
πολιτικός 1
τε 1
διαδικασία 1
μ. 1
ωσης 1
ιστ@@ 1
οικογένειας 1
2021 0.5995886983645903
Κύπρου 1
Σήμερα 1
λόγο 1
1960 1
οικ@@ 1
Μακ@@ 1
περιλαμβάνουν 1
Πολιτείες 1
επίθεση 1
σα 1
μαν 1
Εξ@@ 1
άκης 1
άρ 1
τμήματα 1
του@@ 1
τύπου 1
παράδοση 1
Γερμανίας 1
δημιουργήθηκε 1
31 0.9368147170326678
γυναίκα 1
μένοι 1
τί@@ 1
δούκα 1
Κόμμα 1
τρίτη 1
εγ@@ 1
δήμο 1
1994 0.8564793271294068
Αυτοκρατορίας 1
αδ@@ 1
1993 0.9048429672511229
σχέσεις 1
Επιπλέον 1
Μέχρι 1
Ηνωμένες 1
γιατί 1
νε@@ 1
όλους 1
τέσσερα 1
παν@@ 1
Βρίσκεται 1
ούνται 1
νέου 1
έπρεπε 1
εφ@@ 1
γκ 1
εισ@@ 1
40 0.8559805195270257
ήματα 1
Σι@@ 1
καθ@@ 1
βαρ@@ 1
Βι@@ 1
άκι 1
πολλοί 1
λλ@@ 1
καν@@ 1
όπ@@ 1
άλλοι 1
δράση 1
όμ@@ 1
εμ@@ 1
ώνει 1
1995 0.825433388121815
αστ@@ 1
κατοίκων 1
έν 1
σειράς 1
1989 0.9339876204008207
Αντι@@ 1
γυναικών 1
νομού 1
τού@@ 1
ντ@@ 1
εσ@@ 1
παιχνίδι 1
Ευ@@ 1
στική 1
τά 1
άκ@@ 1
Ιανουάριο 1
Πανεπιστημίου 1
θέματα 1
παντρεύτηκε 1
ώνεται 1
πάντα 1
άνο 1
μέ@@ 1
πέρασε 1
συνέχισε 1
1974 1
δε@@ 1
Οικογένεια 1
° 0.9883996899082628
Ρώμη 1
Μουσείο 1
τραγούδια 1
ελ 1
απέναντι 1
αβ@@ 1
μερ@@ 1
κάποιο 1
περιπτώσεις 1
ίνο 1
Υπάρχουν 1
απ 1
πορεία 1
Αγώνες 1
Και 1
ίζει 1
συγγραφέας 1
Απ@@ 1
γκολ 1
λογ@@ 1
κυβέρνησης 1
λειτουργία 1
αμέσως 1
πά@@ 1
άνδρες 1
ποταμού 1
βουλευτής 1
Ευρώπης 1
Ρωσία 1
νη 1
Ένας 1
μυ@@ 1
Γεώργιος 1
αποφάσισε 1
εμφάνιση 1
Οκτώβριο 1
συ@@ 1
δήμου 1
τής 1
τουλάχιστον 1
Ελλάδος 1
Σεπτέμβριο 1
έλ@@ 1
ματ@@ 1
με@@ 1
κάστρο 1
οχ@@ 1
μάλιστα 1
θηκε 1
ούτε 1
Αγίας 1
νο@@ 1
ουσ@@ 1
μέρη 1
Κατ@@ 1
ποσοστό 1
Ιούνιο 1
A 0.16354681030096394
προβλήματα 1
δική 1
Εθνικό 1
Πρόεδρος 1
Άγιος 1
ηθοποιός 1
ύψος 1
τιμή 1
βά@@ 1
συλλογή 1
ολογία 1
Εκεί 1
εμφανίζεται 1
εύ@@ 1
έτους 1
όσ@@ 1
κόμη 1
μ.Χ. 1
κυ@@ 1
συνθήκες 1
Μπο@@ 1
ομάδων 1
τοπική 1
εξελέγη 1
συνεργασία 1
Μάιο 1
παρα@@ 1
χρησιμοποιούνται 1
Κάτω 1
συγκεκριμένα 1
1940 1
θηκαν 1
τελευταίο 1
περιέχει 1
ελληνικό 1
θεωρία 1
Μάρτιο 1
τή 1
καρ@@ 1
γραμμή 1
κύρια 1
γαλλική 1
τερ 1
ιμ@@ 1
ώσεις 1
Ιούλιο 1
υπήρχαν 1
a 0.010086843988454712
νομό 1
μέση 1
ώνουν 1
ιερ@@ 1
συγκροτήματος 1
έπαιξε 1
ματος 1
αρχ@@ 1
χαρακτήρα 1
Αύγουστο 1
έα 1
πραγματοποιήθηκε 1
κιν@@ 1
Μπρ@@ 1
επίσημη 1
προσπάθεια 1
σμ@@ 1
όμενη 1
ύ 1
κύριο 1
Οίκο 1
αζ@@ 1
φιλ@@ 1
βρέθηκε 1
οποίας 1
Αγγλίας 1
μπο@@ 1
ναός 1
Ντ@@ 1
Δήμος 1
Κορ@@ 1
Παγκοσμίου 1
κορυφή 1
Αμερική 1
παράλληλα 1
ακολούθησε 1
σία 1
Κωνσταντινούπολη 1
νι@@ 1
πολ@@ 1
ικα 1
άνα 1
κατηγορίας 1
ίκ@@ 1
αχ@@ 1
γενικά 1
ιδ@@ 1
αντίθεση 1
σή 1
θη@@ 1
βα 1
όμενο 1
μο@@ 1
όλοι 1
κράτους 1
δικό 1
60 1
έδαφος 1
Βόρεια 1
επόμενο 1
υπέγραψε 1
Δεκέμβριο 1
ιού 1
τικούς 1
μο 1
ίσως 1
Τζον 1
ώρες 1
Αυτοκρατορία 1
αποτελέσματα 1
ειδικά 1
υποστήριξη 1
Εκκλησία 1
1981 1
Βαλ@@ 1
αυ@@ 1
Αγία 1
θέ@@ 1
έρευνα 1
έργου 1
αντίστοιχα 1
μελέτη 1
ετ@@ 1
άνθρωποι 1
σπουδές 1
Άν@@ 1
Κα@@ 1
Νοέμβριο 1
στρατού 1
έρ 1
σσ@@ 1
τούν 1
Θε@@ 1
ιστική 1
Η@@ 1
άδες 1
ίζεται 1
Πολωνίας 1
λί@@ 1
Αρχ@@ 1
εδάφη 1
Λι@@ 1
1950 0.9973092499969364
άστηκε 1
συμμετείχαν 1
παρακάτω 1
συστήματος 1
χαρ@@ 1
ότ@@ 1
Όπως 1
θρόνο 1
Αγγλία 1
τώρα 1
υγ@@ 1
Απρίλιο 1
ταν@@ 1
είων 1
πρωτο@@ 1
Επι@@ 1
χω@@ 1
Εκτός 1
κόρης 1
τέχνης 1
οποίους 1
γλώσσες 1
αδελφός 1
μένης 1
Μιχαήλ 1
ριν@@ 1
πρό@@ 1
επί@@ 1
επτά 1
διαθέτει 1
Παρά 1
πληροφορίες 1
κο 1
δήλωσε 1
έγ@@ 1
βιβλία 1
σκι 1
ρέ@@ 1
Εκ@@ 1
ρω@@ 1
ανθρώπους 1
ώθηκαν 1
ίνης 1
άζει 1
δο@@ 1
Λιγκ 1
Ελλήνων 1
γι 1
διοίκηση 1
λιγότερο 1
τυ@@ 1
εξαιτίας 1
επαρχίας 1
άδα 1
περίοδος 1
μέρες 1
Μα@@ 1
Τη 1
σχολείο 1
Σαρ@@ 1
κόσμου 1
ίδιου 1
έφερε 1
δήμος 1
πέ@@ 1
έξω 1
80 1
έμεινε 1
οικονομική 1
μουσικής 1
Δήμο 1
συμφωνία 1
1945 0.7303939738098009
επιφάνεια 1
ρεκόρ 1
1985 0.8826453674176816
όμενος 1
κι@@ 1
σημερινή 1
βλ@@ 1
1944 0.9635112171007515
αντ 1
ηλ@@ 1
Είχε 1
μεν@@ 1
ίδας 1
ώρα 1
λά@@ 1
όνα 1
ωσε 1
διοργάνωση 1
άρχισαν 1
περιφέρεια 1
μέρα 1
αγι@@ 1
νησιού 1
χρησιμοποιήθηκε 1
απόφαση 1
σύνθεση 1
ώς 1
τρίτο 1
δίνει 1
διοικητική 1
ιστές 1
ήττα 1
εντάχθηκε 1
αντί 1
δημιούργησε 1
σ 1
τές 1
κολ@@ 1
αποτέλεσε 1
κάποιες 1
εργάστηκε 1
I 0.22236737956495817
σον 1
Λου@@ 1
1988 0.7760336783203576
φορ@@ 1
υπέρ 1
ειας 1
εκπαίδευση 1
περιοδικό 1
αναφέρονται 1
Αγ@@ 1
ιζ@@ 1
ήσεων 1
1986 0.8372316912092006
Πολωνία 1
Κατα@@ 1
εμφανίστηκε 1
πηγή 1
λα 1
Περ@@ 1
δόθηκε 1
τίτλος 1
θέατρο 1
συμ@@ 1
μεγάλα 1
εξ 1
έργων 1
ωθεί 1
αρχική 1
ΐ@@ 1
Τελικά 1
ντεμπούτο 1
στερ@@ 1
ρου@@ 1
κατηγορίες 1
καθηγητής 1
ανά@@ 1
ιστικό 1
υλικό 1
M@@ 0.3696564321190746
ην@@ 1
19ου 1
πολλών 1
Όμως 1
κόμματος 1
ξ 1
ελληνικής 1
τρο@@ 1
όρους 1
ρον@@ 1
ζω@@ 1
Ρωσίας 1
ιστεί 1
Μακεδονίας 1
1987 0.816204142793076
Ιταλίας 1
παραπάνω 1
δί@@ 1
χωριά 1
σύνορα 1
μετέπειτα 1
πλαίσιο 1
Κο@@ 1
ψυχ@@ 1
λο 1
ορισμένες 1
θάνατό 1
γκα 1
ών@@ 1
ιάς 1
μένους 1
όλ@@ 1
κομμάτι 1
ενδιαφέρον 1
αλλ@@ 1
θεραπεία 1
200 0.9108214156541484
τικοί 1
στρατιώτες 1
αυτοκράτορα 1
όρια 1
ανακοίνωσε 1
σχέδια 1
συλλόγου 1
σημαντικές 1
έχασε 1
πόντους 1
τό 1
πατ@@ 1
1920 1
Λονδίνο 1
ήρθε 1
Γεωργίου 1
ανό 1
ίδρυσε 1
Θεσσαλονίκη 1
άνι 1
οφ 1
πλοία 1
οργάνωση 1
1975 0.8722801735197123
κοινότητας 1
αλ 1
περισσότεροι 1
1984 0.817204999212337
όγ@@ 1
δυνατότητα 1
ίστηκαν 1
ξης 1
1982 0.8659539513362486
Κωνσταντίνος 1
Νε@@ 1
ναό 1
υν@@ 1
Καλλικράτης 1
φέρει 1
Ενώ 1
Παράλληλα 1
παιδί 1
τσι@@ 1
εκστρατεία 1
άζ@@ 1
Φεβρουάριο 1
ώσουν 1
Ηνωμένων 1
έλ 1
σει 1
τομέα 1
Σαν 1
νερού 1
εια 1
ημ@@ 1
ητή 1
Ελληνική 1
εξέλιξη 1
σχήμα 1
όφ@@ 1
Μαν@@ 1
Αρχικά 1
Άλ@@ 1
ήματος 1
ματα 1
1979 0.8649914107363744
κατέλαβε 1
πραγματικότητα 1
συμπεριλαμβανομένων 1
άποψη 1
ουμε 1
πήγε 1
70 1
Βασιλείου 1
Ξ@@ 1
κατ@@ 1
1967 0.9763511877460518
κίνηση 1
τελική 1
διεξήχθη 1
Κύπρο 1
λόγους 1
Κλ@@ 1
ουρ@@ 1
διορίστηκε 1
ιος 1
συμβόλαιο 1
ελληνικά 1
αύξηση 1
εαυτό 1
στόχο 1
μπορούσαν 1
παρουσιάζει 1
γραφ@@ 1
ανήκε 1
τιμ@@ 1
1941 0.931681153153302
Κ 1
1912 1
νέων 1
σύντομα 1
στικό 1
Φιλ@@ 1
Χά@@ 1
ηθούν 1
κυκλοφορία 1
έννοια 1
Μου@@ 1
Συμβούλιο 1
αλλαγή 1
τριών 1
Καν@@ 1
ίδη 1
τελ@@ 1
ητές 1
εφημερίδα 1
” 0.2979077155617533
Αθήνας 1
Ισπανία 1
έρα 1
βασ@@ 1
δέκα 1
ίδρυση 1
ίζοντας 1
T@@ 0.2931714692214815
λερ 1
γεγονότα 1
αγορά 1
δικαιώματα 1
άσει 1
ζήτησε 1
νησιά 1
στρατιωτική 1
ικο 1
διαδέχθηκε 1
αποστολή 1
δεύτερος 1
πα@@ 1
αρχηγός 1
στο@@ 1
δικαίωμα 1
Ασία 1
Μεταξύ 1
ορίζεται 1
λεπτά 1
Κόμματος 1
έναντι 1
ιδέα 1
μένου 1
“ 0.09101557284362351
μοντέλο 1
1978 0.8628952331205741
μορφές 1
εάν 1
σφ@@ 1
1983 0.815492993508416
ίνι 1
έχ@@ 1
λειτουργεί 1
οκτώ 1
A@@ 0.33087312139481306
αναφορά 1
ξη 1
έσ@@ 1
Σκ@@ 1
x 0.7918013489361765
ώνα 1
Τρι@@ 1
90 1
έας 1
ανός 1
1973 0.8730959790655954
εικόνα 1
γρήγορα 1
διά@@ 1
Πλ@@ 1
γνωστοί 1
πολιτικής 1
ημα 1
διευθυντής 1
σί@@ 1
1976 0.8463995741370469
θάλασσα 1
κον@@ 1
Επιτροπής 1
οποι@@ 1
συζύγου 1
ρού 1
ώματα 1
ότερο 1
1930 1
επιρροή 1
ταυτόχρονα 1
Κατηγορία 1
είπε 1
ζει 1
ούν@@ 1
Κον@@ 1
1977 0.8867225351711837
o 0.17460639194109467
υπουργός 1
εκδοχή 1
λέ@@ 1
σημασία 1
σύλλογος 1
Μαλ@@ 1
1971 0.8498835325626094
γύρο 1
είδους 1
μερικά 1
σκορ 1
άνω 1
αδελφό 1
αμπ@@ 1
Α. 1
Επιτροπή 1
Πριν 1
ενεργ@@ 1
χος 1
όνι 1
ριο 1
εσωτερικό 1
δο 1
έδρας 1
δώσει 1
περιβάλλον 1
1972 0.7956008431447602
1968 0.8269910674746525
πάρει 1
ιου 1
ώνοντας 1
δρόμο 1
άρια 1
επιπλέον 1
θερμοκρασία 1
τοι 1
χρησιμοποιεί 1
χρόνου 1
κτίριο 1
σύζυγος 1
1964 0.9194159498862097
εφαρμογή 1
πρώτου 1
Πι@@ 1
χορ@@ 1
εταιρείας 1
καταγωγή 1
ανού 1
δομή 1
κτ@@ 1
Μεγάλη 1
ακριβώς 1
Άννα 1
ίζουν 1
ότερα 1
αποτελούσε 1
ίτης 1
ανάλογα 1
Τότε 1
Ι 1
κεντρική 1
1961 1
εξωτερικό 1
Εκκλησίας 1
Αφρική 1
ίτη 1
ηγ@@ 1
αλλαγές 1
ανακ@@ 1
ονομ@@ 1
ποταμό 1
χρονικό 1
δημόσια 1
αξι@@ 1
όβ@@ 1
Βιογραφικά 1
ροι 1
Μετα@@ 1
1939 0.9037121231338857
τικ@@ 1
προστασία 1
όμενα 1
πλειοψηφία 1
κε 1
συστήματα 1
τιο 1
εστ@@ 1
αι. 1
ώδη 1
δολάρια 1
χώρος 1
Κοινότητα 1
αγωνίζεται 1
κάνουν 1
σημεία 1
ιτ@@ 1
αυτοί 1
ίτες 1
καταγωγής 1
οργαν@@ 1
1821 1
Ολυμπιακούς 1
ποι@@ 1
ενέργεια 1
Λόγω 1
πρώτης 1
τύπος 1
1963 0.959918672654476
διαφορετικές 1
ωσαν 1
καθεστώς 1
μίας 1
γνωστά 1
πρόσωπο 1
ποδοσφαιριστής 1
τεχν@@ 1
ινγκ 1
άνοδο 1
δυνάμεων 1
επίδραση 1
παραμένει 1
δίπλα 1
υπηρεσίες 1
αναδείχθηκε 1
ίνος 1
Κάρολος 1
έκαναν 1
ιστής 1
γονείς 1
τιν@@ 1
Νότια 1
ωνα 1
πίνακα 1
ηθ@@ 1
αί@@ 1
μεγαλύτερος 1
τσα 1
Καθώς 1
επιλογή 1
υπηρέτησε 1
άμ@@ 1
ίνου 1
βάρος 1
ορι@@ 1
Κάρ@@ 1
ακολουθεί 1
επιστροφή 1
Επ@@ 1
ίλ@@ 1
ύπαρξη 1
Υπο@@ 1
# 1
Μπι@@ 1
μετάλλιο 1
ωμα 1
μπροστά 1
Ντά@@ 1
ένωση 1
δα 1
ιστορικό 1
Ω@@ 1
μετρ@@ 1
προπονητής 1
παράγεται 1
n 0.4111337418688762
τρί@@ 1
εγκ@@ 1
μος 1
Αφού 1
άφ@@ 1
Μπου@@ 1
έτα 1
προσπάθησε 1
εμφανίσεις 1
διετέλεσε 1
1.@@ 1
ονομάστηκε 1
πρόβλημα 1
ζουν 1
έστειλε 1
υπόθεση 1
Ντι@@ 1
άβ@@ 1
μήνα 1
E@@ 0.32741229673095934
ητών 1
σύγχρονη 1
Κι@@ 1
εκδόσεις 1
1943 0.8788136855466212
γλώσσας 1
δη 1
1969 0.8323037525920308
ματική 1
K@@ 0.2943748479191913
τρα 1
ανθρώπων 1
μικρά 1
Ασ@@ 1
Ερρίκος 1
νίκες 1
1946 0.9287481052804826
λάβει 1
ρία 1
ηγεσία 1
Ρου@@ 1
S@@ 0.24032939331625494
χρησιμοποιώντας 1
έλα 1
κατόπιν 1
λιμάνι 1
άνθρακα 1
Περι@@ 1
καλά 1
νέες 1
κερδίσει 1
Πρ@@ 1
οποίηση 1
R@@ 0.28969343725758945
υδρο@@ 1
υρ@@ 1
άντα 1
σταδιοδρομία 1
ιστορίας 1
άνη 1
χο 1
ονόματα 1
στρατεύματα 1
χει@@ 1
Όσκαρ 1
Κυπέλλου 1
ακή 1
λη@@ 1
υσ@@ 1
To 1
χρώμα 1
επιχειρήσεις 1
ότερη 1
Πέθανε 1
ναού 1
Άγιο 1
σχ@@ 1
ότερες 1
μικρο@@ 1
στοιχείο 1
νομ@@ 1
B@@ 0.24617278909181334
Κομ@@ 1
κύ@@ 1
κορ@@ 1
i 0.3476108696943811
ιγ@@ 1
ούνταν 1
στάδιο 1
τέχνη 1
υφ@@ 1
εξαιρετικά 1
Αλέξανδρος 1
καλύτερη 1
τύπο 1
στρατός 1
ίο 1
έκθεση 1
Υπήρξε 1
δεδομένων 1
Σ 1
ιστών 1
ενάντια 1
ιχ@@ 1
Συμβουλίου 1
ωμένο 1
2@@ 1
Ευρωπαϊκό 1
μεγάλου 1
Τσι@@ 1
κατ 1
σημείωσε 1
υπηρεσία 1
1965 0.8461299684278016
απο 1
καν 1
Μάρ@@ 1
πρωταθλήματα 1
σκηνή 1
προκάλεσε 1
πεδίο 1
ακό 1
πρωθυπουργός 1
ώνονται 1
άζουν 1
ταλ@@ 1
έδρες 1
έπ@@ 1
σκηνοθεσία 1
μέν@@ 1
Βραβείο 1
Παπ@@ 1
άτομο 1
500 0.8909769101542468
γράφει 1
δεδομένα 1
παιχνίδια 1
γνώρισε 1
ικότητα 1
ειο 1
βί@@ 1
όμενες 1
τσι 1
1918 0.980332517805967
χρησιμοποιηθεί 1
πιθανώς 1
μήκους 1
τοποθεσία 1
χέρια 1
ταν 1
Σαλ@@ 1
σώματος 1
Μάχη 1
άδ@@ 1
όριο 1
τερμάτισε 1
προσπάθειες 1
καιρό 1
κερ@@ 1
Βαρ@@ 1
ωμένη 1
1966 0.8372330308976227
Άνω 1
οξ@@ 1
2.@@ 1
έναρξη 1
στι@@ 1
Ηνωμένο 1
ύστερα 1
Σπούδασε 1
ιακή 1
μελών 1
χαρακτηριστικό 1
χρυσό 1
τεχνική 1
Έπειτα 1
δος 1
πε@@ 1
οικογένειες 1
ίζ@@ 1
κράτη 1
έζησε 1
εργασίες 1
γη 1
πολιτικό 1
Μία 1
ασκ@@ 1
ημάτων 1
χάρη 1
τέκνα 1
πραγματοποίησε 1
ολοκληρώθηκε 1
χρονιάς 1
Ισπανίας 1
γραμμές 1
μεγάλης 1
αντικείμενο 1
αρνήθηκε 1
εργασίας 1
καμία 1
Κρήτης 1
έμ@@ 1
εθνικής 1
σχολή 1
ολογίας 1
to 0.008426749292344727
θητεία 1
ενέργειας 1
έλαβαν 1
φον 1
ητής 1
ναν 1
κοινή 1
1928 1
Σύστημα 1
τεί 1
ροφ@@ 1
Γεωγραφία 1
μελ@@ 1
μαρ@@ 1
Γκα@@ 1
Κίνα 1
λίμνη 1
βαθμούς 1
φυσική 1
τελευταίος 1
έβ@@ 1
Πά@@ 1
ελλ@@ 1
πρόταση 1
δραστηριότητες 1
ήθελε 1
ολόκληρη 1
κίνημα 1
σπούδασε 1
d 0.14057053161700397
κυριαρχία 1
P@@ 0.24698329262775082
L@@ 0.23001596825223725
βασίλειο 1
1947 0.9268322356507747
δραστηριότητα 1
παρελθόν 1
χρησιμοποιούν 1
άλλαξε 1
σταθμός 1
R 0.6867892731492379
Ελ@@ 1
συγ@@ 1
Καναδά 1
εισβολή 1
σημερινό 1
οπλ@@ 1
ρίας 1
βίντεο 1
συμμετοχές 1
Ιαπωνία 1
νης 1
Τουρκία 1
Αμ@@ 1
αδελφή 1
y 0.020202748759314212
κριτική 1
κος 1
νέος 1
πολίτες 1
όδ@@ 1
ατόμων 1
Ορ@@ 1
περαιτέρω 1
αντί@@ 1
καλλιτέχνες 1
F@@ 0.26089266543863754
διαφορά 1
Με@@ 1
όνια 1
χιλιάδες 1
νο 1
Λού@@ 1
σίας 1
C@@ 0.2903006134514735
ίζονται 1
φυ@@ 1
O 0.48994590701075935
ελληνικού 1
οξύ 1
Σοβιετική 1
αντικείμενα 1
σεων 1
πολιτικές 1
N@@ 0.2715486620770029
εργασία 1
ρίου 1
ίσουν 1
Πολ@@ 1
παίκτης 1
1948 0.8380250715526275
Αμερικής 1
σύζυγό 1
1958 0.8663749733483771
δείχνει 1
Κάθε 1
Τέλος 1
διεθνή 1
πτώση 1
λύ@@ 1
εδ@@ 1
πρίγκιπα 1
Στ@@ 1
επαφή 1
αγωνιστική 1
μη@@ 1
ιντ 1
μάν@@ 1
κανείς 1
μεταφορά 1
Καριέρα 1
1962 0.8258007182686506
Κολ@@ 1
χρώματα 1
τάξη 1
Μονή 1
λος 1
Λέ@@ 1
επανάσταση 1
γεν@@ 1
συγκεκριμένη 1
ξεκίνησαν 1
1956 0.8520669473911503
Ζαν 1
άλ 1
Γιώργος 1
ίνες 1
μοναστήρι 1
πλοίο 1
Πρόκειται 1
εβ@@ 1
μοναδικό 1
κό@@ 1
Ελισάβετ 1
Πέ@@ 1
Δύο 1
Λονδίνου 1
διότι 1
ΦΚ 1
προϊόντα 1
Πειραιά 1
Ακαδημία 1
O@@ 0.2745598647177244
Ε.@@ 1
διαφορετικά 1
άζεται 1
αϊ@@ 1
ιρ@@ 1
ερμηνεία 1
Ντα@@ 1
έζ@@ 1
κεντρικό 1
λέει 1
στά@@ 1
κομ@@ 1
Παλ@@ 1
άστηκαν 1
Γη 1
κομμάτια 1
32 0.9121662543929868
Ανατολικής 1
εντ@@ 1
αρ 1
επίπεδα 1
ρά 1
ανθ@@ 1
όκ@@ 1
εδώ 1
καταστροφή 1
έφ@@ 1
οι@@ 1
μεγαλύτερες 1
δεκαετίες 1
Κό@@ 1
35 0.8388342722054032
δρ@@ 1
δίσκο 1
κατάκτηση 1
S 0.7590940411672009
Άρ@@ 1
μικρές 1
οικονομικά 1
μυθιστόρημα 1
Αυτός 1
αποκλειστικά 1
δυτική 1
H@@ 0.27936814166931695
μεταφέρθηκε 1
μετονομάστηκε 1
αρχικό 1
ζε 1
1919 0.9683657296990453
Ομοσπονδία 1
Στους 1
επόμενα 1
Υόρκης 1
δουλειά 1
πράξη 1
ότητες 1
Γαλ@@ 1
μάχης 1
μόνη 1
o@@ 0.3675002020722187
γκο 1
άνια 1
αντίδραση 1
on 0.019154083074360808
δίκτυο 1
Γκου@@ 1
άλη 1
άπ@@ 1
μισό 1
απλά 1
μάλλον 1
Ντε@@ 1
ητ@@ 1
κάποιος 1
1955 0.9022256863265434
διαγωνισμό 1
εργ@@ 1
πόλεμος 1
Πολιτειών 1
φυσικό 1
μακριά 1
ανεξαρτησία 1
συγκεκριμένο 1
Μπαρ@@ 1
στής 1
ενότητα 1
ητικό 1
βρεθεί 1
εξέγερση 1
οποίησης 1
ρας 1
Νικ@@ 1
σενάριο 1
άντ 1
κατοχή 1
φύση 1
1959 0.8444948024207614
ταγ@@ 1
γερμανική 1
στικά 1
ητική 1
διοικητής 1
πέτυχε 1
ψε 1
ανή 1
δια 1
επιστρέψει 1
συνδυασμό 1
καλαθοσφαίρισης 1
ταχύτητα 1
300 1
δούκας 1
Βρετανία 1
ισμένο 1
συνέπεια 1
1942 0.7341957547887601
F 0.7029779528521639
αναφορές 1
πλήρως 1
m 0.23087530087245836
γιου 1
παλιά 1
D@@ 0.22594957322787057
— 0.04192184496084349
σταθμό 1
Κέντρο 1
αξίωμα 1
φυσικά 1
ζώνη 1
ιτς 1
διεθνής 1
Καμ@@ 1
δημ@@ 1
ογραφία 1
παγ@@ 1
κοσμ@@ 1
Ελληνικής 1
Πατ@@ 1
ξι@@ 1
μονάδες 1
οτ@@ 1
ζώα 1
et 0.018202147135059563
αποκτήσει 1
νό@@ 1
Μακεδονία 1
κόμης 1
εθνικό 1
ματικό 1
G@@ 0.22567199409199853
ref 1
Μαζί 1
ποδόσφαιρο 1
1951 0.9472601591057542
L 0.4478842558926504
Ενότητα 1
ϋ@@ 1
υπόλοιπο 1
στα@@ 1
Στρατού 1
πλήρη 1
ίρ 1
άλλ@@ 1
ισμένη 1
1922 1
άζοντας 1
H 1
είες 1
σταδιακά 1
ΦΕΚ 1
μεγάλος 1
Υπουργείο 1
οικονομία 1
προσωπικό 1
κλίμα 1
Μορ@@ 1
Επανάσταση 1
πλαίσια 1
ειών 1
παλ@@ 1
σε@@ 1
υπολογ@@ 1
1936 0.8605718776734966
αέρα 1
Ακαδημίας 1
άχ@@ 1
υπάγεται 1
οικισμό 1
λίγα 1
ουσιαστικά 1
Εθνικού 1
ιακό 1
ιας 1
μείωση 1
κατασκευής 1
πίεση 1
1949 0.810116821935148
Αυστρίας 1
βασίζεται 1
σύγκρουση 1
ειδών 1
Χάρ@@ 1
άλα 1
βρίσκονταν 1
κατά@@ 1
χρησιμοποίησε 1
Βόρειας 1
γερμανικά 1
βραβεία 1
τια 1
αρι@@ 1
Κωνσταντίνου 1
ΣΤ 1
λιο 1
ανήκουν 1
Κ. 1
τιος 1
επιθέσεις 1
πανεπιστήμιο 1
σύζυγο 1
νω@@ 1
λευ@@ 1
Αίγυπτο 1
επικ@@ 1
ανέφερε 1
σουν 1
εγκαταστάθηκε 1
ουσα 1
μετακόμισε 1
εχ@@ 1
ιστικά 1
Αλλά 1
V@@ 0.26594869503807045
άρθρο 1
ώνας 1
δύ@@ 1
κυκλ@@ 1
1957 0.8250328916700529
Έγινε 1
όνων 1
γ 1
χώρου 1
B 0.34560012136649393
όχ@@ 1
ίνας 1
μαθητές 1
Ασίας 1
Βερ@@ 1
Νικόλαος 1
γαλ@@ 1
παρόμοια 1
μακ@@ 1
1938 0.7898439682975187
Λουδοβίκος 1
δυ@@ 1
άνου 1
κάτοικοί 1
ονομαζόταν 1
τολ@@ 1
ραβ@@ 1
τό@@ 1
Μι@@ 1
πίνακας 1
θρ@@ 1
παγκόσμια 1
Λα@@ 1
ανακοινώθηκε 1
οφείλεται 1
4@@ 0.8404070898563886
λέγεται 1
λόγος 1
νίκησε 1
πιθανότατα 1
ανάπτυξης 1
αναπτύχθηκε 1
1952 0.8250358741885727
ιστορική 1
X 0.5945389169237325
Ιν@@ 1
όρι@@ 1
βρέθηκαν 1
κ.ά. 1
ανατολική 1
οδό 1
όπουλου 1
Ισραήλ 1
γήπεδο 1
Βασ@@ 1
ματά 1
Αττικής 1
Σερβίας 1
Φεστιβάλ 1
στικής 1
ιστή 1
ωνε 1
κοινού 1
1924 1
συμβ@@ 1
αθ@@ 1
τοξ@@ 1
άνθρωπος 1
ορισμένα 1
Αυτές 1
ψηφ@@ 1
μετ@@ 1
Συ@@ 1
έρι 1
διακ@@ 1
Αυτά 1
Ζ 1
φως 1
ρυ@@ 1
φων@@ 1
Ινστιτούτο 1
διεξήχθησαν 1
άι 1
ασία 1
ευκαιρία 1
πρώτοι 1
στή 1
φτάσει 1
1927 1
Απεβίωσε 1
κοινωνική 1
ρίων 1
συνδέεται 1
κατακτήσει 1
αγγ@@ 1
δικά 1
εμπόριο 1
ιστικές 1
ρό@@ 1
πρόκειται 1
σμού 1
γίνονται 1
τρια 1
Ινδία 1
μουσείο 1
ετ 1
δεξιά 1
χαρακτηρίζεται 1
Ρώμης 1
σπίτια 1
θερ@@ 1
σημαία 1
Ρό@@ 1
ατική 1
μνημείο 1
Σά@@ 1
βασιλείας 1
οικογένειά 1
απελευθέρωση 1
παγκοσμίως 1
χαλ@@ 1
μισ@@ 1
Μάν@@ 1
ορθ@@ 1
περιλαμβάνονται 1
οδηγεί 1
τιμές 1
υποστήριξε 1
ότερος 1
άκια 1
συγγραφείς 1
βρήκε 1
στικές 1
λίγες 1
περισσότερους 1
μό 1
σου@@ 1
στών 1
ύν@@ 1
μν@@ 1
πέρα 1
ιστορικός 1
τίτλους 1
1953 0.8347607939366275
Ανατολική 1
Σχολής 1
μπα 1
κοινωνία 1
καμπ@@ 1
μελέτες 1
πί@@ 1
συμπεριφορά 1
εικον@@ 1
κριτικές 1
3@@ 0.9441045668637361
σύμβολο 1
φαινόμενο 1
Άρη 1
ελλην@@ 1
μόνος 1
εντολή 1
παρέχει 1
τηκαν 1
σκα 1
45 0.7278537676981409
t 0.23675904045117271
Υόρκη 1
Δημήτριος 1
αναγκάστηκε 1
1929 0.9277492605814908
ιστορικά 1
στερ 1
άνιο 1
1954 0.8000659350652866
κείμενο 1
γάμος 1
ευρέως 1
χωρών 1
Γεν@@ 1
Μέ@@ 1
βόρειο 1
σειρές 1
έπεσε 1
Αυτοκράτορα 1
παλαιότερα 1
ισε 1
κείμενα 1
αία 1
D 0.5053584851114838
Δυτικής 1
αρχίζει 1
βολ@@ 1
γενική 1
τμήματος 1
πλατεία 1
άτα 1
Γκά@@ 1
ειες 1
εμφανίζονται 1
ιση 1
μαχ@@ 1
1935 0.8917995848294406
ώνες 1
πρόσβαση 1
ισης 1
κύριος 1
ευρώ 1
Π 1
Χαλ@@ 1
θανάτου 1
όπουλο 1
ημερολόγιο 1
άνων 1
μβ@@ 1
υδ@@ 1
Δυτική 1
καλύτερα 1
τοπικό 1
χν@@ 1
χιλιομέτρων 1
απέκτησαν 1
ωρ@@ 1
κατασκευάστηκε 1
συγγραφέα 1
κω@@ 1
Νίκος 1
ίγ@@ 1
άλι 1
νόμο 1
ρυθμ@@ 1
ημένο 1
έφυγε 1
άμεσα 1
Άλλες 1
λίστα 1
αγώνων 1
Μπερ@@ 1
μεσ@@ 1
ίδων 1
ασι@@ 1
ουσία 1
αγκ@@ 1
αρχαίας 1
γης 1
επιχείρηση 1
μυθολογία 1
μοναδική 1
στούντιο 1
φαν@@ 1
πα 1
Κού@@ 1
Βουλή 1
αγώνας 1
μεγάλων 1
δικ@@ 1
άσουν 1
μονάδα 1
συμμετάσχει 1
Πόλεμος 1
αγων@@ 1
δολοφονία 1
ιδιότητες 1
παίκτες 1
πό@@ 1
ραγ@@ 1
δημιουργήσει 1
έντονα 1
περιγράφει 1
ντα 1
ολογικά 1
Τμήμα 1
άρη 1
στεί 1
έδωσαν 1
τάξης 1
Ε.Π.Σ. 1
Ξεκίνησε 1
μεταλλ@@ 1
στικών 1
διαίρεση 1
διοργανώσεις 1
περί@@ 1
πόδια 1
μνήμη 1
πρώτους 1
τέτοια 1
Ντέ@@ 1
Στρ@@ 1
δημοσίευσε 1
la 0.006613418911069289
όμενοι 1
νες 1
οπο@@ 1
διεθνείς 1
παίζει 1
Κινηματογράφου 1
ημι@@ 1
δημοτική 1
γεω@@ 1
διαφ@@ 1
ημένη 1
ρη@@ 1
Ν. 1
ηλικίας 1
1926 0.9777847419172834
ΑΕΚ 1
ικ 1
επαρχίες 1
ιδι@@ 1
ίτ@@ 1
πλήθος 1
συγκ@@ 1
πρόσωπα 1
άνης 1
είσοδο 1
χρόνων 1
κύκλο 1
αξία 1
Γιάννης 1
έφεραν 1
πραγματικό 1
δρα@@ 1
επέκταση 1
Κάστρο 1
γινόταν 1
Μέσα 1
εμπ@@ 1
σου 1
Σύνταγμα 1
άνοιξε 1
ανάλυση 1
Λα 1
Αιγύπτου 1
βασικό 1
Ερ@@ 1
τω@@ 1
καλή 1
αργ@@ 1
θεωρούνται 1
χτίστηκε 1
βασίλισσα 1
συνθήκη 1
ώσεων 1
λαμβάνει 1
σω@@ 1
διαφόρων 1
χρήματα 1
ικανότητα 1
μικρότερο 1
αστική 1
μπι 1
τεν 1
Ιστορικό 1
εβδομάδες 1
οποιαδήποτε 1
Στάδιο 1
2η 1
περιόδους 1
άδεια 1
μή@@ 1
1933 0.7664898323898941
αρκ@@ 1
σεν 1
Τζέιμς 1
λη 1
βιομηχανία 1
μορφ@@ 1
Γενικά 1
Σού@@ 1
ασχολήθηκε 1
παρά@@ 1
ασης 1
Ουγγαρίας 1
βεν@@ 1
διπλ@@ 1
Ιδρύθηκε 1
άει 1
πρόσ@@ 1
Θέατρο 1
Κωνσταντινούπολης 1
σεις 1
αρχιτεκτονική 1
ξουν 1
Υπάρχει 1
βαν@@ 1
λυ@@ 1
Ντου@@ 1
μεγαλύτερα 1
μαγ@@ 1
οικισμού 1
ιβ@@ 1
έων 1
στάση 1
Ρόμπερτ 1
ποταμός 1
Καστ@@ 1
άφησε 1
αυτοκράτορας 1
εταιρείες 1
1934 0.8545920027417702
μητέρας 1
υποψήφιος 1
-- 1
υπήρξαν 1
Αφρικής 1
διαβ@@ 1
χρονολογείται 1
οντα 1
Καρόλου 1
τηλεοπτική 1
ακολούθησαν 1
λειτουργίας 1
ρακ@@ 1
Κύ@@ 1
λεϊ 1
φέρουν 1
Ευρωπαϊκή 1
Παρισιού 1
I@@ 0.31161067026000916
κατασκευ@@ 1
1937 0.7754212583246043
πρω@@ 1
τέθηκε 1
εννέα 1
χέρι 1
ίδ@@ 1
πολιτικών 1
3.@@ 1
γράφτηκε 1
κου 1
κ.α. 1
άδων 1
όρα 1
Μελ@@ 1
ζωγράφος 1
έτ 1
μαθήματα 1
πώς 1
μάχες 1
Μπέ@@ 1
επιτρέπει 1
ώματος 1
Χαρ@@ 1
Συνολικά 1
αναλάβει 1
δίσκος 1
Ρά@@ 1
όργανα 1
Αυστραλία 1
γλ@@ 1
1923 0.9779902453283916
δου 1
κεφάλι 1
ολογική 1
Αχαΐας 1
έντονη 1
γράμματα 1
πρότεινε 1
βιβλιοθήκη 1
ιες 1
κίνδυνο 1
παραστάσεις 1
ακτές 1
ξε 1
εκτέλεση 1
εύκολα 1
ολογικό 1
1932 0.8896709515649721
αιώνες 1
θη 1
ιδιαίτερη 1
Πολλοί 1
πολιορκία 1
προπονητή 1
Κερ@@ 1
Ολυμπιακό 1
εθνικ@@ 1
κατεύθυνση 1
ομώνυμο 1
https 1
χαρακτήρες 1
εκδόθηκε 1
φωτός 1
υπόλοιπα 1
αθλητές 1
Πε@@ 1
εκκλησίας 1
άδας 1
προγράμματος 1
στ 1
Κρήτη 1
κατέ@@ 1
βερ@@ 1
ποίηση 1
Χίτλερ 1
μπερ@@ 1
παραλ@@ 1
Αμερικανός 1
Τεχνών 1
νέ@@ 1
Γερμανοί 1
Ερρίκου 1
ταξίδι 1
ανών 1
εγκαταστάσεις 1
κτίρια 1
παραιτήθηκε 1
πολιτικά 1
Αφ@@ 1
βασιλική 1
δίσκου 1
χώρους 1
400 0.8900112178373245
κέντρα 1
φήμη 1
5@@ 0.7442230537690856
αναγνώριση 1
τεν@@ 1
‘ 0.8602128108046507
ρι 1
λι 1
τέτοιο 1
ημερομηνία 1
όρου 1
Ισ@@ 1
κη 1
φαν 1
εγκαταστάθηκαν 1
Φίλιππος 1
στυλ 1
Εν 1
Σί@@ 1
αστεί 1
κανένα 1
Βουλγαρία 1
έρχεται 1
ισμένος 1
Παλαι@@ 1
έμπ@@ 1
1917 0.8503333261852284
Τ 1
βοηθήσει 1
θάλασσας 1
κατέλαβαν 1
χα@@ 1
µ@@ 1
Λε@@ 1
τοκ@@ 1
1925 0.9219312050509649
γερμ. 1
βαλ@@ 1
ματικές 1
υγείας 1
άντ@@ 1
στοιχείων 1
φερ@@ 1
δέχτηκε 1
Συνθήκη 1
προσφέρει 1
σμός 1
Τρ@@ 1
άμεση 1
Λουδοβίκου 1
ακτή 1
σι 1
Σερ@@ 1
ώνων 1
Δ. 1
κοινότητες 1
αρχαιότητα 1
πλούσια 1
σιο 1
προέρχονται 1
περιοδεία 1
Μεν@@ 1
ικότητας 1
ταρ@@ 1
ζαν 1
βοήθησε 1
ανι@@ 1
μικρότερη 1
ονομάζονται 1
Ιερ@@ 1
παθ@@ 1
Ελληνικό 1
εντελώς 1
συμμετέχει 1
μόν@@ 1
πίνακες 1
όμενων 1
λιν 1
ανάγκη 1
γνω@@ 1
συμπεριλαμβανομένου 1
απόψεις 1
Γ. 1
δεκα@@ 1
ιατρική 1
γου@@ 1
ήγ@@ 1
επιτροπή 1
άσεις 1
πόλεων 1
φασ@@ 1
ην 1
εκείνος 1
οδήγησαν 1
υμ@@ 1
γιους 1
παρακ@@ 1
τός 1
έι 1
ματο@@ 1
V 0.5193779038589197
Αλ 1
άδης 1
μονή 1
Μπλ@@ 1
ειδ@@ 1
επεισόδιο 1
παράσταση 1
Λίγο 1
ωμένα 1
σύλλογο 1
άκρο 1
καταστ@@ 1
Κεντρική 1
κύπελλο 1
Πολιτική 1
Επειδή 1
υπέστη 1
τηλεόραση 1
τηκε 1
άκ 1
επίσημο 1
απλ@@ 1
τυπ@@ 1
αυλή 1
Γης 1
Σαιν 1
τελευταίες 1
υλικά 1
δ 1
ίς 1
ρών 1
περιέχουν 1
όρ 1
ποικιλία 1
τούς 1
τοπ@@ 1
Βραβεία 1
τετρα@@ 1
παρουσίασε 1
πατρίδα 1
1914 0.8051374087055243
εκλογή 1
βου@@ 1
παλαι@@ 1
όνη 1
ματικά 1
δες 1
ταχ@@ 1
έλλειψη 1
Μάλιστα 1
αίο 1
Γουλιέλμος 1
στρατόπεδο 1
τω 1
Ελλην@@ 1
al 0.05521420348359767
συμβούλιο 1
σο@@ 1
Συγκεκριμένα 1
ωπ@@ 1
ιδίως 1
κύτταρα 1
πρόεδρο 1
ικη 1
διαμέρισμα 1
καθαρ@@ 1
στη@@ 1
νότιο 1
προέδρου 1
εκπαίδευσης 1
κατάληψη 1
μπήκε 1
Δανίας 1
ιστούν 1
σπάνια 1
εξέδωσε 1
ορίστηκε 1
σκηνές 1
κρίση 1
Έδρα 1
εφ 1
όσα 1
στές 1
διάφορους 1
33 0.8569837174196239
W@@ 0.21590515473517025
εργάζεται 1
τούσαν 1
εξουσίας 1
νικ@@ 1
ψει 1
Eurovision 1
Περιφέρεια 1
μικρός 1
αιώνας 1
Εταιρείας 1
σκ 1
προγράμματα 1
στρατηγός 1
us 0.24106458523885282
Γάλλος 1
Χ 1
ποδοσφαιρική 1
Ού@@ 1
στατ@@ 1
ερς 1
σχετίζεται 1
μεγαλ@@ 1
υψηλή 1
βουλευτικές 1
ημένα 1
θυμ@@ 1
Ακ@@ 1
φυλακή 1
Σερβία 1
ρική 1
Σαμ@@ 1
άριο 1
θεωρήθηκε 1
ταινιών 1
υποστηρίζει 1
ρύ@@ 1
La 0.04506647978083336
Α.@@ 1
εμπορική 1
Ιερουσαλήμ 1
εκπομπή 1
μάτια 1
σχολεία 1
βρει 1
μουσικό 1
χρήσης 1
διοργάνωσης 1
δρόμου 1
Του@@ 1
νεο@@ 1
ολογικές 1
Στα@@ 1
τούτου 1
σεως 1
διάδοχος 1
ισαν 1
φτάνει 1
κτήριο 1
τρόπος 1
τυχ@@ 1
καριέρας 1
συμβαίνει 1
Μαρίας 1
Σαν@@ 1
πια 1
Επαρχία 1
έγκ@@ 1
ιακά 1
ψης 1
χι@@ 1
όσον 1
εισαγωγή 1
απόδοση 1
ανέ@@ 1
νέας 1
Κυβέρνηση 1
σμό 1
εύεται 1
ώδες 1
Κεντρικής 1
Ιωαννίνων 1
αξ@@ 1
ερείπια 1
Τούρκους 1
ακά 1
Σιν@@ 1
τούσε 1
νά@@ 1
απόλυτο 1
μά 1
τιμήν 1
ερμην@@ 1
τραγουδιού 1
New 0.09188505131759671
ειρ@@ 1
λογική 1
συνδυ@@ 1
Χρυσ@@ 1
Βασιλιά 1
Μπαλ@@ 1
τέταρτη 1
ρη 1
ότεροι 1
Πέτρος 1
άλλος 1
θος 1
πορ@@ 1
Νικολάου 1
Κοινοβούλιο 1
19ο 1
δείχνουν 1
μπου@@ 1
ούλ@@ 1
άρι@@ 1
1913 0.9600654069472147
1931 0.8397104430365521
βασιλείου 1
ίδιας 1
Σοβιετικής 1
Αστ@@ 1
Βου@@ 1
τουρνουά 1
ανατ@@ 1
συνολικό 1
Θ 1
Ματ@@ 1
Νότιας 1
Σοφία 1
τουρκική 1
όφ 1
εδάφους 1
παράγει 1
χειμώνα 1
κόμματα 1
παράγοντες 1
Σα@@ 1
άντρες 1
εκτιμάται 1
σκοτώθηκε 1
ιερό 1
βο@@ 1
Αμπ@@ 1
ίλ 1
κανάλι 1
ντι 1
όπλα 1
όργανο 1
Βιβλιοθήκη 1
γραμμής 1
δράσης 1
N 0.5910415552428444
μές 1
ξε@@ 1
Σάν@@ 1
ξει 1
ακές 1
πρίγκιπας 1
περιοχών 1
Αποτελεί 1
επίσκοπος 1
μης 1
θέσης 1
ιδέες 1
Αυστρία 1
ανταγων@@ 1
δω@@ 1
φι@@ 1
όλου 1
φεστιβάλ 1
κρα@@ 1
εκείνο 1
ξεκινήσει 1
φθ@@ 1
εκδηλώσεις 1
Αχ@@ 1
ητο 1
Διεθνές 1
λλα 1
μεν 1
p 0.4320901213394803
σας 1
Ομοσπονδίας 1
Σύ@@ 1
ρατ@@ 1
πιθανόν 1
αποχώρησε 1
συμμετέχουν 1
νύχτα 1
επιστολή 1
γέφυρα 1
36 0.8296244488634152
ιστικής 1
έχουμε 1
αστεροειδής 1
ισχύ 1
στεν@@ 1
χά@@ 1
θρησκεία 1
ιοι 1
Κώστας 1
κυκλοφόρησαν 1
έδειξε 1
ποιητής 1
Κρά@@ 1
από@@ 1
δης 1
μαζ@@ 1
Τόμας 1
χρον@@ 1
περιελάμβανε 1
μέθοδος 1
αποστ@@ 1
δών 1
λογαριασμό 1
ζευγάρι 1
Τουρκίας 1
διαδρομή 1
ώδης 1
ιους 1
οικισμούς 1
τεράστια 1
γνωστές 1
βάσει 1
προκαλεί 1
ρίν@@ 1
προ 1
l 0.08313584131988717
έτ@@ 1
Π.@@ 1
έφτασαν 1
θυ@@ 1
υψηλής 1
Που@@ 1
ύγ@@ 1
ομοι@@ 1
Ευρωπαϊκής 1
ανάγκες 1
επάνω 1
ιστικών 1
ελέγχου 1
σκόρερ 1
ούμενος 1
Πρωταθλήματος 1
Αι@@ 1
συμμαχία 1
75 0.90150569880958
πλευρές 1
αζε 1
σχετίζονται 1
φρούριο 1
νη@@ 1
σύμβουλος 1
άτου 1
σύζυγός 1
θερμ@@ 1
Βουλής 1
Μικ@@ 1
χρυσ@@ 1
Μόσχα 1
αντιδράσεις 1
ύρ@@ 1
μεγέθους 1
προώθηση 1
διέταξε 1
ενεργό 1
πράγμα 1
ισχυρή 1
νόμου 1
προσέγγιση 1
1900 0.8649827422899692
Μ. 1
Γερμανούς 1
σελίδα 1
τεχνικές 1
Αυ@@ 1
ατσ@@ 1
δας 1
Επιστημών 1
άνος 1
δομ@@ 1
μοντέλα 1
Ανατολή 1
Αϊ@@ 1
ασε 1
Λος 1
Φυσικά 1
άνθρωπο 1
επιτυχίες 1
Λί@@ 1
Υπουργός 1
φιλοσοφία 1
παιχνιδιού 1
ριών 1
Κόν@@ 1
Στά@@ 1
ηχ@@ 1
χλμ 1
34 0.8490843899578286
ητικά 1
απώλεια 1
εκκλησίες 1
παραδοσιακά 1
όλης 1
δρόμους 1
συνεχώς 1
προσοχή 1
Παντρεύτηκε 1
νωρίτερα 1
αίου 1
ημένος 1
εκλογών 1
πρόσφατα 1
φόρ@@ 1
Ανδρέα 1
Μ 1
αντίσταση 1
σκοπ@@ 1
προηγούμενη 1
ότητά 1
Βεν@@ 1
Ρωμαϊκή 1
νοτιοδυτικά 1
ελι@@ 1
αποκ@@ 1
μάν 1
κατοικία 1
συγκεντρ@@ 1
Ελληνικού 1
Γερ@@ 1
δέ@@ 1
Διετέλεσε 1
Δημήτρης 1
Αντ@@ 1
Εταιρεία 1
άτο 1
τέρ@@ 1
Ιστορικά 1
αρχαι@@ 1
κάποιον 1
πεζ@@ 1
τρα@@ 1
ψη 1
παίρνει 1
περάσει 1
ενώσεις 1
ρόλους 1
στικού 1
βορειοδυτικά 1
Ρωμαϊκής 1
Μεγάλου 1
εξαίρεση 1
ισμοί 1
Μπεν@@ 1
δρο@@ 1
ίσθηκε 1
ακού 1
κοιλάδα 1
Δημοτικό 1
στρ@@ 1
ορ 1
συνελήφθη 1
εικόνες 1
3η 1
Μόσχας 1
κανόνες 1
μπλε 1
προϊόντων 1
ζόταν 1
Ανακαλύφθηκε 1
επιγραφή 1
επιστημονική 1
μι 1
πιθανό 1
Ζώνης 1
ήν@@ 1
μαλ@@ 1
Ακόμη 1
Νό@@ 1
ατζ@@ 1
συνοικία 1
1921 0.8015743678501515
χρ@@ 1
μπεργκ 1
is 0.011301393556352408
M 0.5079674388214113
ροί 1
σύ@@ 1
προσθήκη 1
Κρ@@ 1
κόκκινο 1
πλάτος 1
Φερ@@ 1
κυβερνήτης 1
σκηνοθέτης 1
κερδίζοντας 1
Αργ@@ 1
οντες 1
Εκείνη 1
Εξωτερικών 1
Φλ@@ 1
βασική 1
κρατ@@ 1
ταμ@@ 1
ηττήθηκε 1
παγκόσμιο 1
Έν@@ 1
όλ 1
Βά@@ 1
κυνηγ@@ 1
μεγάλωσε 1
τ.χλμ. 1
Νυμφεύτηκε 1
Ρού@@ 1
λογοτεχνία 1
χορηγ@@ 1
αυτοκρατορίας 1
θύ@@ 1
Θεωρείται 1
Μερ@@ 1
Ν 1
εύει 1
γενιά 1
ευρήματα 1
Μεγάλο 1
αντικαταστάθηκε 1
εθνικές 1
έρευνες 1
ούρα 1
b 0.3514499886139811
Επανάστασης 1
Ουγγαρία 1
λύση 1
Σε@@ 1
γένος 1
εγκατέλειψε 1
for 0.01321437089192003
δυτικό 1
πωλήσεις 1
Οίκου 1
έληξε 1
κανον@@ 1
ργ@@ 1
7@@ 0.7498907593686072
ακών 1
ρόλος 1
ντε@@ 1
τεσσάρων 1
τρο 1
Αντίθετα 1
ιω@@ 1
μπουργκ 1
Ηπείρου 1
Ταρ@@ 1
ητικές 1
συνολική 1
εζ@@ 1
εύουν 1
e 0.14760237018583988
ζήτημα 1
ύφος 1
00 0.8821424733338189
ανέβηκε 1
Πειραιώς 1
Σουηδία 1
κάνοντας 1
λαβ@@ 1
τοπικές 1
ογραφίας 1
Άλλα 1
ρούς 1
Φρειδερίκος 1
8@@ 0.756220832524309
Ηλιακό 1
κού@@ 1
τομείς 1
ωτικό 1
έρας 1
όντα 1
ινό 1
ς.@@ 1
επεισόδια 1
20ού 1
Τι@@ 1
κυπέλλου 1
Εθνών 1
επέτρεψε 1
55 0.9578981781662854
συνέβη 1
αποτελούσαν 1
καταστράφηκε 1
έθεσε 1
ειδική 1
ειρήνη 1
κατάφεραν 1
έδ@@ 1
Έλ@@ 1
Ανδρέας 1
II 0.17236231153679427
μετάφραση 1
τάν@@ 1
διατηρεί 1
παραδ@@ 1
βιβλίων 1
Παρόλο 1
League 0.19727107190720383
λέξεις 1
πήραν 1
σύγκριση 1
ίστ@@ 1
πρότυπο 1
Μπό@@ 1
εθν@@ 1
βορειοανατολικά 1
κινηματογράφου 1
Κυ@@ 1
αίθουσα 1
Ψ@@ 1
απειλ@@ 1
Βερολίνο 1
Μιλ@@ 1
λεκ@@ 1
παρόλο 1
Θάλασσα 1
Λυ@@ 1
ολοκλήρωσε 1
δίνοντας 1
φρά@@ 1
παρουσιάστηκε 1
φοβ@@ 1
συνεργάστηκε 1
απλώς 1
βο 1
μού 1
ψήφων 1
Σαξονίας 1
ακής 1
στόχος 1
ητα 1
συμπεριλαμβανομένης 1
άτες 1
κακ@@ 1
γεννημένος 1
παραγωγός 1
ολόκληρο 1
πεν@@ 1
κης 1
τροφ@@ 1
αναφέρουν 1
δυσ@@ 1
εβδομάδα 1
μενος 1
T 0.4578471381696849
1910 0.8100802786964573
λευκό 1
Κίνας 1
αγγλική 1
νοτιοανατολικά 1
Βενετία 1
ευρύτερη 1
νοσοκομείο 1
Διεθνούς 1
αι 1
ούρ@@ 1
παπ@@ 1
συνάρτηση 1
38 0.8172607857477683
πέρασμα 1
παιδιών 1
εποχών 1
καταλάβει 1
ιακές 1
πλανήτη 1
ηλι@@ 1
Records 0.5317285310272777
έλλ@@ 1
αιτία 1
επιβ@@ 1
Καρλ 1
άδη 1
εξω@@ 1
ξεν@@ 1
ριμπάουντ 1
ροκ 1
υψ@@ 1
9@@ 0.7751863765937905
μέρους 1
ενέργειες 1
αμερικανική 1
Σουηδίας 1
ΕΕ 1
ισσ@@ 1
συμμετοχής 1
φωνή 1
διοικητικά 1
πρώτων 1
Α.Ο. 1
αυτοκίνητο 1
εμπο@@ 1
κάστρου 1
δικα@@ 1
κ. 1
αίων 1
ζώων 1
Περιγραφή 1
κρι@@ 1
πρακτική 1
08 1
Αβ@@ 1
ριος 1
Μάικλ 1
Αζ@@ 1
ασφάλεια 1
ισμένα 1
ριζ@@ 1
δαν@@ 1
πρεμιέρα 1
Οθωμανική 1
P 0.657646131302545
άζονται 1
άνοιξη 1
ούλα 1
ψουν 1
όρων 1
Τρί@@ 1
πραγματοποιήθηκαν 1
Μπέρ@@ 1
τάση 1
Ε. 1
0,@@ 1
γλωσσ@@ 1
ιδε@@ 1
έρν@@ 1
ασαν 1
ινο 1
κε@@ 1
Γεώργιο 1
Καλιφόρνια 1
γράψει 1
Βιέννη 1
εταιρία 1
ξεκινά 1
αγαπ@@ 1
ερι@@ 1
στρατ@@ 1
Μεσ@@ 1
αζαν 1
Μουσ@@ 1
πολιτισμού 1
αποφοίτησε 1
γκα@@ 1
Παναγίας 1
πιθανότητα 1
τικότητα 1
20@@ 1
Δούκα 1
ιές 1
6@@ 0.7014873410242339
World 0.14097575846360105
di 0.44184249060026554
Άντζελες 1
δημοσι@@ 1
κατάλογο 1
Ομ@@ 1
Προσωπική 1
καθήκοντα 1
συνεργ@@ 1
ωθούν 1
αεροσκάφη 1
παρο@@ 1
σιν@@ 1
ηγέτης 1
κατείχε 1
σοσιαλ@@ 1
Δημ@@ 1
ίπ@@ 1
μπού@@ 1
λοιπόν 1
λέγοντας 1
στίχους 1
ατικό 1
ήν 1
διεύθυνση 1
πολιτεία 1
Πα@@ 1
ισμούς 1
Πέτρου 1
Βενετίας 1
τέταρτο 1
τύ@@ 1
ιστορίες 1
στρατιωτικό 1
όμιλο 1
προσαρτήθηκε 1
42 0.8791991909967984
Κατάλογος 1
G 0.518284292083828
συμπτώματα 1
υλικού 1
ότερους 1
στρατιωτικές 1
ψήφους 1
νομίσματα 1
ολογ@@ 1
πράγματα 1
τρίτος 1
διέθετε 1
Βουλγαρίας 1
είδε 1
τησαν 1
Σ. 1
ράς 1
ϊ 1
Θα 1
μφ@@ 1
αρίου 1
σχετική 1
Όλα 1
Βασιλιάς 1
Πάπας 1
αρχίσει 1
γραμματέας 1
προηγουμένως 1
ἐ@@ 1
δει 1
καλύτερο 1
Αζερμπαϊτζάν 1
Μεγάλης 1
θει@@ 1
Πάπα 1
απευθείας 1
απέχει 1
ρυθμό 1
φύλλα 1
άτη 1
ιαν@@ 1
περιοδικά 1
Διεθνής 1
προστατευ@@ 1
γον@@ 1
ωνία 1
Ιωσήφ 1
αεροδρόμιο 1
διακρίσεις 1
BBC 0.9458029501847866
έστ@@ 1
37 0.851604012248406
Ή@@ 1
οστ@@ 1
ουντ 1
single 0.2389538521177414
πολύ@@ 1
2ο 1
Γκλ@@ 1
οργάνωσης 1
πιστ@@ 1
ζούσε 1
ιταλική 1
πον@@ 1
150 0.9416383905355048
αντίπαλο 1
μικ@@ 1
ένιο 1
προσωπική 1
υδρ@@ 1
1915 0.8528908813954275
4.@@ 1
Καποδίστριας 1
Περιφερειακή 1
βάθος 1
διακοσμ@@ 1
κινήματος 1
λαντ 1
Ακολούθησε 1
Ντέιβιντ 1
διαφορετική 1
αδελφού 1
τελετή 1
Τζάκσον 1
Ουρ@@ 1
κόστος 1
δημιουργώντας 1
εκατομμυρίων 1
Σεβ@@ 1
Ποδοσφαίρου 1
μάζα 1
μικρού 1
τακ@@ 1
τόπο 1
αίματος 1
καλύπτει 1
γραφή 1
ματικής 1
λου@@ 1
σταμάτησε 1
τιμήθηκε 1
um 0.101082328941684
γκερ 1
Κύριας 1
ακ 1
δημιουργ@@ 1
περιοδικού 1
τορ@@ 1
νερά 1
αντίτυπα 1
ολοκλήρωση 1
ισμα 1
1908 0.8923411040157643
Δια@@ 1
έξ@@ 1
ανθρώπου 1
δικαιωμάτων 1
Ρουμανία 1
Ρο@@ 1
διαφορές 1
ώσ@@ 1
Συμμετείχε 1
ηλεκτρο@@ 1
ήλ@@ 1
οικοδομ@@ 1
φυλακ@@ 1
διεξαγωγή 1
σύνδεση 1
πληροφοριών 1
κράτησε 1
έλι 1
μου@@ 1
συμβολ@@ 1
αδέλφια 1
Γερμανός 1
άτης 1
ελληνικών 1
Ιερά 1
Θεού 1
διοικ@@ 1
Γαλλική 1
Πολυ@@ 1
ασχολείται 1
αρν@@ 1
αναγνωρίστηκε 1
όφσκι 1
Ελένη 1
Πρώτα 1
όντων 1
αριθμ@@ 1
προσπαθεί 1
ίωση 1
χαρακτήρας 1
επρόκειτο 1
ερευνητές 1
οδηγήσει 1
ούμενη 1
φυλή 1
Τέχνης 1
ρίζες 1
συγκέντρωσε 1
επόμενες 1
ιδών 1
ίσεις 1
εύτηκε 1
κλπ. 1
ρές 1
αερ@@ 1
αρχών 1
οριστικά 1
Α1 1
Νομ@@ 1
ίτα 1
αγάπη 1
απώλειες 1
βα@@ 1
Τούρκοι 1
μέρει 1
ούμενο 1
ρικό 1
ρό 1
καλλιεργ@@ 1
Μυ@@ 1
αίας 1
αστυνομία 1
δεύτερης 1
ολογικής 1
ουργ@@ 1
στούν 1
Πανελλήνιο 1
προσφορά 1
64 0.7034094120370532
φέρεται 1
τζ 1
διο 1
διεθνές 1
Μπορεί 1
E 0.4459854500960349
όντας 1
ασίας 1
ίκα 1
65 0.5765526148781219
συνεργασίας 1
άμπ@@ 1
πόλ@@ 1
επιστήμη 1
Μαγ@@ 1
ελευθερία 1
ουσες 1
Πρόεδρο 1
μονα@@ 1
χρησιμοποιήθηκαν 1
Μπά@@ 1
Βασιλ@@ 1
Εγ@@ 1
βιτς 1
χώ@@ 1
* 0.19597821893364423
θάνατος 1
ωλ@@ 1
αγγλ. 1
πο 1
γενικές 1
είτο 1
τησε 1
Πρωτο@@ 1
άρης 1
Ουκρανία 1
μερ 1
ψευδ@@ 1
πάει 1
μύ@@ 1
ακός 1
ρκ@@ 1
άνει 1
John 0.13343915139008725
ύψους 1
περιγραφή 1
Μεσσηνίας 1
διαχείριση 1
τοπικής 1
δίκη 1
στίβου 1
διάκριση 1
μός 1
Π. 1
αγωνιστεί 1
ευση 1
περιλάμβανε 1
πρωταθλητής 1
48 0.8497841225669521
συγκρούσεις 1
σώματα 1
άθ@@ 1
δήμαρχος 1
ειά 1
νέους 1
κόρες 1
θέσεων 1
s@@ 0.14809339431266708
αυτοκρατορία 1
ιστικού 1
πος 1
βασιλεία 1
απάντηση 1
Κουρ@@ 1
αφήνοντας 1
Ολυμπιακός 1
von 0.019125542956508455
σύνδεσμοι 1
πίστη 1
Πρόγραμμα 1
βαθ@@ 1
λαό 1
ται 1
Βερολίνου 1
βράδυ 1
νόμος 1
όνου 1
1916 0.8385922489438632
αρκετούς 1
κων 1
$ 0.17354931646831998
ίσματα 1
πυρήνα 1
απαγορ@@ 1
ελληνικές 1
ρισ@@ 1
ανακάλυψη 1
δίου 1
μέθοδο 1
Να@@ 1
ζούσαν 1
Z@@ 0.20820089269230935
βαθμολογία 1
Ολλανδία 1
περιουσία 1
10@@ 0.8586094940906234
Καθ@@ 1
εμπειρία 1
μυθ@@ 1
1ο 1
? 0.378631563684676
Τεχν@@ 1
θεάτρου 1
διπλό 1
Κόρ@@ 1
κατοικ@@ 1
ονόματος 1
Γιάννη 1
κινηματογράφο 1
ωμένος 1
ζητήματα 1
ποσότητα 1
ενα@@ 1
εσωτερική 1
ριά 1
φημ@@ 1
αυλ@@ 1
Εξωτερικοί 1
ασθενείς 1
ιπ@@ 1
δημιουργήθηκαν 1
επανα@@ 1
τροπ@@ 1
έρευνας 1
παι@@ 1
αστρονόμο 1
επο@@ 1
μό@@ 1
Γκι@@ 1
αστικό 1
πράξεις 1
ξεις 1
ηματ@@ 1
Γκρ@@ 1
έφθασε 1
αγοράς 1
διάλυση 1
πρωταθλήτρια 1
Β. 1
αγωνιζόταν 1
ενότητας 1
Νι@@ 1
Τις 1
τοί 1
1905 0.8177665016629373
αμ 1
Πολλά 1
ιώ@@ 1
ρες 1
συναυλίες 1
κομητεία 1
πραγματική 1
σημασίας 1
άρθρα 1
δημοτικό 1
υπηρεσιών 1
όροι 1
Επί 1
Θράκης 1
ωμένες 1
φω@@ 1
γερ@@ 1
φίλος 1
18ου 1
απαρ@@ 1
απελευθερ@@ 1
U@@ 0.25471877535688303
You 0.5563640350601698
ίτσα 1
συνεχίζει 1
Απόλλωνα 1
οβιτς 1
ομίλου 1
Απέχει 1
μόνον 1
προέλευση 1
φορντ 1
όνιο 1
ΕΣΣΔ 1
Ουκρανίας 1
Διοικητικά 1
αστικά 1
γνώση 1
εκτίμηση 1
ήσεως 1
αίμα 1
ανακηρύχθηκε 1
κινητήρα 1
πραγματικά 1
τησης 1
Βασιλική 1
βιβλίου 1
επαγγελματική 1
άλης 1
Δημητρίου 1
σαρ@@ 1
ιακού 1
ραφ@@ 1
Μαργαρίτα 1
αθλητής 1
δέχεται 1
μιο 1
K 0.5183558549037657
φλ@@ 1
ατικά 1
κατοχής 1
σχεδιασμό 1
τραυματ@@ 1
5.@@ 1
Εργ@@ 1
άι@@ 1
ωνας 1
διασ@@ 1
οειδή 1
ασθένεια 1
σημαντικός 1
τοποθετήθηκε 1
ογράφος 1
Βί@@ 1
υγεία 1
χρειάζεται 1
Πορτογαλίας 1
εργοστάσιο 1
ουσι@@ 1
λιγ@@ 1
τόπος 1
πατρι@@ 1
Α2 1
Κάρολο 1
ιταλικά 1
προϊόν 1
Πατρών 1
Καπ@@ 1
λογία 1
Ρι@@ 1
στεγ@@ 1
αρχηγό 1
ευγενείς 1
Γιουγκοσλαβίας 1
προκαλέσει 1
ομώνυμης 1
ΚΚΕ 1
ίκι 1
γεωργία 1
39 0.8803114943313761
Προσ@@ 1
αντιμετώπισε 1
Κ.@@ 1
σήμα 1
Οθωμανικής 1
λαμβάνουν 1
ρός 1
Παρ 1
ριες 1
σπουδών 1
Ο.@@ 1
διαμερίσματα 1
πολιτισμό 1
Έκανε 1
βάσεις 1
εφαρμογές 1
τοπικά 1
Τα@@ 1
γάμου 1
ευσης 1
44 0.7187042961436814
Πρώτη 1
ηγέτες 1
47 0.9310672643529028
συμβολή 1
ισμών 1
προτού 1
υβ@@ 1
οικισμοί 1
Αστεροειδών 1
Σκωτίας 1
κοπ@@ 1
Πολλές 1
δικές 1
πού 1
Αλβανία 1
ελεύθερη 1
στενά 1
οικονομικών 1
δυναστείας 1
ανατολικό 1
συνδέονται 1
g 0.3189172357928516
αρχαίο 1
τραγουδίστρια 1
ανακαλύφθηκε 1
πρόσφυγες 1
υπέρ@@ 1
κώδικα 1
εκείνης 1
εμπορικό 1
Ατ@@ 1
κατέληξε 1
φά@@ 1
Συγκ@@ 1
καταναλ@@ 1
τάξεις 1
τρέχουσα 1
ωνική 1
τελε@@ 1
αρχεία 1
διών 1
παλιό 1
δημοφιλής 1
χειρο@@ 1
f 0.4956591553996404
ρωσική 1
λεγ@@ 1
ποσό 1
600 1
ιον@@ 1
ουά 1
52 0.8887765894648961
λήξη 1
όρισε 1
Φραγκ@@ 1
ήρ@@ 1
θεωρ@@ 1
παλάτι 1
συνεχίσει 1
δων 1
πιστεύεται 1
• 1
πόν@@ 1
άτ 1
Ρομ@@ 1
ιακής 1
αναπ@@ 1
οϊ@@ 1
ήμ@@ 1
αλλάξει 1
τί 1
επαγγελματίας 1
συλλ@@ 1
Αντί@@ 1
βία 1
κοινωνικής 1
οικονομικής 1
όνας 1
χθηκε 1
J@@ 0.19170996073249194
προγραμματ@@ 1
1906 0.8570446804757983
ίρ@@ 1
περιεχόμενο 1
Ανάμεσα 1
άτ@@ 1
γραμ@@ 1
δώδεκα 1
Συνέλευση 1
Μεσαίωνα 1
κανονική 1
εντ 1
πάπα 1
διαμάχη 1
καθ 1
κλη@@ 1
νικητής 1
πρότυπα 1
κατανομή 1
φυτά 1
ησή 1
συνθέτης 1
ήσ@@ 1
δύσκολο 1
διατήρηση 1
σιμο 1
ινή 1
οντάς 1
ητικής 1
μαύρο 1
πη 1
Ινδίας 1
Ναός 1
μων 1
απέτυχε 1
κατάστασης 1
τηλε@@ 1
επιχειρήσεων 1
σχε@@ 1
Ελβετία 1
Πάτρα 1
ανέπτυξε 1
μέτωπο 1
− 1
αποσύρθηκε 1
αρχίας 1
δυνατό 1
στες 1
μπαλ@@ 1
θέλει 1
ρωσικά 1
βραβ@@ 1
align 1
γενιάς 1
Βοσνίας 1
Λογ@@ 1
Χα@@ 1
αισθη@@ 1
υψηλότερη 1
ισχύει 1
κυβερν@@ 1
Μεγαλ@@ 1
ίους 1
λειτουργούν 1
μπ 1
τηθεί 1
παντρευτεί 1
αναγνω@@ 1
πάρκο 1
Ηρακλείου 1
αριθμού 1
λει@@ 1
Γκρέ@@ 1
οτήτων 1
Μασ@@ 1
δυνατή 1
ψηφοφορία 1
αντά@@ 1
νι 1
n@@ 0.1951113013506908
βρ@@ 1
Τζορτζ 1
διά 1
αλι@@ 1
αμφ@@ 1
συνάντηση 1
τακτική 1
800 1
αυξ@@ 1
an 0.013618354915499328
εγκατάσταση 1
ραν 1
ωνίας 1
διανο@@ 1
μπάσκετ 1
νου 1
Τού@@ 1
41 0.8630605770697004
Ύ@@ 1
θέα 1
Music 0.3635046004328982
μεθυλ@@ 1
αμά@@ 1
θεωρεί 1
πλατ@@ 1
σού@@ 1
γίνουν 1
δημοσιογράφος 1
τελείωσε 1
κρε@@ 1
πυροβολ@@ 1
ανεξάρτητα 1
εβιτς 1
βουνά 1
δικηγόρος 1
όμενης 1
Ηρακλή 1
προκύπτει 1
υπεύθυνος 1
φθινόπωρο 1
έγγραφα 1
φύ@@ 1
Τά@@ 1
σχολ@@ 1
Χάν@@ 1
γνώμη 1
επανάστασης 1
ποδ@@ 1
υπό@@ 1
4η 1
βασικά 1
Άρης 1
λαού 1
πολιτών 1
άγαλμα 1
ετε 1
τίου 1
ίβ@@ 1
αρχιτεκτονικής 1
αίος 1
λεπτό 1
σοβαρά 1
τείχη 1
Σω@@ 1
ετήσια 1
καλλιέργεια 1
μένει 1
Κασ@@ 1
όγκ@@ 1
τήριο 1
Νέ@@ 1
δημοψήφισμα 1
ενημερ@@ 1
ζωγραφική 1
σφαι@@ 1
Κωνσταντίνο 1
κοινωνίας 1
Στέφανος 1
Νορβηγία 1
δρά@@ 1
ξανα@@ 1
πρωταγωνίστησε 1
Disney 1
Έρ@@ 1
Χριστού 1
διατ@@ 1
Αλεξάνδρου 1
άμ 1
at 0.01567141330100004
Κατηγορίας 1
δάση 1
ολόγος 1
Καλλι@@ 1
τισμό 1
όμενου 1
1904 0.8668191353455135
ενς 1
συλλογές 1
Αναφέρεται 1
Πορ@@ 1
ούντα 1
ρίες 1
ωτική 1
ανασ@@ 1
διαστάσεις 1
Κέ@@ 1
ΠΑΟΚ 1
είκοσι 1
κρί@@ 1
85 1
βουνό 1
χρονικά 1
Windows 1
ιον 1
Τιμ@@ 1
μοιάζει 1
Κέν@@ 1
τρόπους 1
θεραπ@@ 1
τισ@@ 1
ωμ@@ 1
1,@@ 0.8229684802474082
καφέ 1
ς- 1
συρ@@ 1
βουλευτές 1
Εάν 1
ανθρώπινη 1
διατήρησε 1
Κάν@@ 1
γκου@@ 1
λογίας 1
παρατηρούσε 1
ειακό 1
Γεωργ@@ 1
κίν@@ 1
σινγκλ 1
Ιαπωνίας 1
αίσθηση 1
αεροσκάφος 1
νερ 1
κύριες 1
Ηλείας 1
άλας 1
βελ@@ 1
θεωρούν 1
εξαρτάται 1
προήλθε 1
φιλοξεν@@ 1
ανεξάρτητη 1
1911 0.7429085523039534
Τάγματος 1
χρόνους 1
αποσαφήνιση 1
μονο@@ 1
παρέμειναν 1
Νο@@ 1
ζυγ@@ 1
95 0.9931954088686084
γωνία 1
επομένως 1
αντικατέστησε 1
ασίστ 1
κλίμακα 1
προηγούμενο 1
χολ@@ 1
Συνήθως 1
αριστερά 1
ασφαλ@@ 1
μέλλον 1
ορο@@ 1
Λά@@ 1
Μεξικό 1
παντρεμένος 1
​ 1
παρατ@@ 1
h 0.2630829715164483
Τερ@@ 1
DNA 1
δεκ@@ 1
δου@@ 1
εκπαιδευ@@ 1
Περσ@@ 1
νεαρή 1
ουμ 1
04 1
καταργήθηκε 1
αντιμετωπίσει 1
δημιούργησαν 1
ιστορικοί 1
σχεδίου 1
Μιν@@ 1
παίξει 1
περιείχε 1
αφιερ@@ 1
κινήσεις 1
πτήση 1
συμπ@@ 1
προχώρησε 1
e@@ 0.18422277433256004
Βελ@@ 1
ήττες 1
διώ@@ 1
λαμβάνοντας 1
μεταγραφή 1
συνα@@ 1
όι 1
Κέντρου 1
ιου@@ 1
γράμμα 1
μει@@ 1
σύγχρονο 1
Ερρίκο 1
δοθεί 1
el 0.010543135526924043
ίκ 1
ίμ 1
λιθ@@ 1
ραν@@ 1
τεχνολογία 1
ίμ@@ 1
περιφέρειας 1
οδού 1
συμβουλίου 1
1896 1
Αιγαίου 1
οποιήθηκε 1
Αγι@@ 1
στάδια 1
ευρωπαϊκή 1
ρή@@ 1
Όλ@@ 1
Ιράν 1
σπουδ@@ 1
ἀ@@ 1
ιακών 1
πτυχίο 1
συνεχ@@ 1
προβλ@@ 1
επιτροπής 1
τελ 1
Οικονομικών 1
Παναθηναϊκό 1
Έχουν 1
Σέρ@@ 1
απλό 1
07 1
παραμονή 1
c 0.2657005659961712
ασμό 1
κατέχει 1
λίμνης 1
μείνει 1
εφημερίδες 1
1907 0.7974606133877576
ανδ@@ 1
Έλαβε 1
συστημάτων 1
σύν@@ 1
Χου@@ 1
Παπανδρέου 1
Φιλίππου 1
43 0.8591259978110501
μετέφερε 1
des 0.009670336503777879
Νέων 1
Περίπου 1
ατα 1
μεταφοράς 1
τροχ@@ 1
αυξήθηκε 1
ξαν 1
παραγ@@ 1
k 0.25319945947496836
name 0.13236442280435548
u 0.20471402809176703
δημοκρατία 1
μπόρεσε 1
ροή 1
συνεχίστηκε 1
2022 0.48484564776031225
Γεω@@ 1
Δία 1
Μάγ@@ 1
τοπο@@ 1
περιφέρειες 1
ώνη 1
αφορούν 1
ατο@@ 1
εύονται 1
παραλία 1
δικτύου 1
μεθόδους 1
ώτης 1
μαθηματικά 1
παράγοντας 1
ημερών 1
φοιτητές 1
φρ@@ 1
Βυζαντινή 1
έκρηξη 1
ίζονταν 1
περιστρέφεται 1
καθηγητή 1
εξωτερική 1
λόγια 1
Ανατολής 1
ευρωπαϊκές 1
ώδεις 1
Νέο 1
διαπραγματεύσεις 1
´ 1
ΕΣ@@ 1
έι@@ 1
οποιοδήποτε 1
σαλ@@ 1
εκπρόσωπος 1
αντιστοιχεί 1
ατρ@@ 1
δεξι@@ 1
ατόμου 1
εγκαταλείψει 1
ροβ@@ 1
υποστηρίζουν 1
κυττάρων 1
ανακάλυψε 1
δημιουργεί 1
ρον 1
βοηθός 1
ευτική 1
πλοίων 1
αύ@@ 1
Αγίων 1
ινών 1
πλο@@ 1
προσωρινά 1
ιδρυτής 1
κλει@@ 1
πρωτοβουλία 1
παραμείνει 1
ρν@@ 1
Άλλοι 1
επιδρομές 1
κρατών 1
παρουσιάζουν 1
άρων 1
γραφείο 1
άσθηκε 1
Κιν@@ 1
επιστήμονες 1
πλη@@ 1
σιος 1
Αφγανιστάν 1
άλια 1
άρο 1
γγ@@ 1
διάταγμα 1
ελα@@ 1
εϊ 1
ζα 1
παρόμοιο 1
υπόλοιπες 1
46 0.8596214740120315
κύκλου 1
μονής 1
συγκέντρωση 1
υποψηφιότητα 1
γραφία 1
εισήχθη 1
20ου 1
ασφαλείας 1
όζ@@ 1
Γεωργίας 1
Χό@@ 1
γυ@@ 1
δημιουργηθεί 1
διέ@@ 1
ευνο@@ 1
Εφ@@ 1
φωτο@@ 1
μάχ@@ 1
συνόλου 1
χρήστες 1
Νορβηγίας 1
ζονται 1
μεταφέρθηκαν 1
κυκλοφορίας 1
Στίβου 1
Σ.@@ 1
ίος 1
1909 0.8040087086353328
έβαλε 1
δυναστεία 1
Καζ@@ 1
Χαν 1
Ολλανδ@@ 1
σχηματισμό 1
Έκ@@ 1
Αικατερίνη 1
φυσικής 1
Φρειδερίκου 1
Τούρκων 1
έρες 1
αριθμούς 1
αριθμών 1
διαχει@@ 1
ιλ 1
τηλεοπτικό 1
Κατόπιν 1
Μπάρ@@ 1
γραφής 1
θερμοκρασίες 1
Κάλ@@ 1
π. 1
Θεοτόκου 1
ημένες 1
X@@ 0.46309593931035464
άνε 1
διοικητικό 1
τύπους 1
ακρο@@ 1
ομώνυμη 1
οπούλου 1
σταθερ@@ 1
1000 0.7948817338941783
17ου 1
βασιλείς 1
σχεδίων 1
μπρ@@ 1
Καλλ@@ 1
Μέγας 1
κυβερνήτη 1
νούμερο 1
τσο 1
ανής 1
αξίας 1
βασικός 1
όμενους 1
εκτείνεται 1
επιτέθηκε 1
τίποτα 1
Ολυμπιακού 1
θεωρούσε 1
λαϊκή 1
δύναμης 1
κοινοβούλιο 1
μιν@@ 1
Βολ@@ 1
ακου@@ 1
ικανοποι@@ 1
χρόνος 1
ασμού 1
δυν@@ 1
Ιβάν 1
Φου@@ 1
γραμματ@@ 1
ξέσπασε 1
τευ@@ 1
υψηλότερο 1
ξυλ@@ 1
σταθερά 1
φρου@@ 1
Προέδρου 1
άκα 1
πλευ@@ 1
άσα 1
αση 1
τραπεζ@@ 1
πλοίου 1
Αυτοί 1
διοίκησης 1
έντα 1
αποφάσισαν 1
αρχία 1
ηθοποιό 1
λόφο 1
φυλές 1
Στέ@@ 1
μών 1
U 0.3092635671729433
Περί 1
διαφορετικό 1
ησι@@ 1
υψηλό 1
δίνουν 1
κυρι@@ 1
r 0.4105891234448384
οικονομικές 1
Αλέξανδρο 1
Πηγές 1
επιστρέφει 1
ρασ@@ 1
er 0.022552803948774014
Φορ@@ 1
χλ@@ 1
βαθιά 1
ειδικότερα 1
χρησιμοποιούσαν 1
ητη 1
στερε@@ 1
άου 1
ειδικό 1
επιτυχημένη 1
καμ@@ 1
καταφύγιο 1
Συρία 1
ίτσ@@ 1
επιπέδου 1
κους 1
Βαυαρίας 1
Κέρκυρας 1
ετή 1
Παραγωγή 1
άρχης 1
εμφανίστηκαν 1
έμφαση 1
βολή 1
ισπανικά 1
φυλλ@@ 1
εκτάσεις 1
καλλιτέχνη 1
σταθμού 1
χημική 1
Billboard 0.8178478113975988
καὶ 1
Γρηγοριανό 1
απομον@@ 1
σκηνοθέτη 1
ρωμαϊκή 1
ρικ@@ 1
όνες 1
Μηχαν@@ 1
έκλεισε 1
σύνταγμα 1
Αρμενίας 1
συστ@@ 1
Υπουργείου 1
απλή 1
λις 1
ίκη 1
56 0.969767769225355
Μικρά 1
Νομού 1
εντά@@ 1
κοινά 1
έκφραση 1
ίντ 1
δρόμος 1
Μόνο 1
στικός 1
τομ@@ 1
τροχιά 1
Βραζιλία 1
μνημεία 1
φύγει 1
Μί@@ 1
ΟΥΕΦΑ 1
ιλι@@ 1
χάσει 1
δάσος 1
ριακό 1
βλ. 1
νυμφεύτηκε 1
προεδρικές 1
Ντο@@ 1
ανασκαφές 1
Μπελ@@ 1
έμαθε 1
δεύτερου 1
Φαρ@@ 1
Κυριακή 1
οντ@@ 1
πρωί 1
Γιαν 1
καλλιτέχνης 1
Ευρωπαϊκού 1
Καμπ@@ 1
ξεων 1
style 0.2800575848287409
απογόνους 1
δυνατόν 1
χα 1
en 0.005239892480875651
εφόσον 1
ιάν@@ 1
έρων 1
δημιουργίας 1
γκεν 1
ούσ@@ 1
σκοτώθηκαν 1
επέλεξε 1
κοιν@@ 1
κόλπο 1
λαχ@@ 1
1.000 1
εξακολουθεί 1
καλές 1
ανιχν@@ 1
θεατών 1
ματικού 1
ατμόσφαιρα 1
γενικός 1
νησι@@ 1
ακόλουθα 1
ωνικό 1
Θεόδωρος 1
δικαστήριο 1
51 0.8373597813108707
αποστολής 1
επιθυμία 1
ζωγραφ@@ 1
Καζακστάν 1
βελτίωση 1
ζωγραφικής 1
απαιτεί 1
ώνος 1
έτες 1
ενεργά 1
Πο@@ 1
έλι@@ 1
μες 1
όνος 1
αναστ@@ 1
Ομάδα 1
εφημερίδας 1
γερμαν@@ 1
σύντομη 1
09 1
Ηνωμένου 1
Ψυχ@@ 1
άνες 1
αστικές 1
στρατιωτικός 1
αποτελούνταν 1
δού@@ 1
ωτή 1
όνο 1
υποθέσεις 1
τραγουδιστής 1
αποκατάσταση 1
ειος 1
επιφαν@@ 1
i@@ 0.23570938275184464
ταξίδεψε 1
Φ 1
ασμένη 1
παραδοσιακή 1
Ρουμανίας 1
διάδοχο 1
καταστάσεις 1
που@@ 1
1897 0.948461353042749
άρκ@@ 1
ητικών 1
λατινικά 1
ήλιο 1
αποτυχία 1
όγκο 1
φυλ@@ 1
δηλ. 1
ικος 1
όβα 1
συμφώνησε 1
χη 1
Πλοκή 1
άμυνα 1
ψεις 1
αξιωματικός 1
θρησκευτική 1
πανεπιστημι@@ 1
Ιησού 1
Λύ@@ 1
ισχυρό 1
άλλου 1
αρκετοί 1
ειρήνης 1
ποσότητες 1
στοχ@@ 1
τεκ@@ 1
επεξεργασία 1
κύκλος 1
Παγ@@ 1
γαλλικό 1
Εβραίοι 1
μή 1
δημόσιο 1
λάθος 1
τετρ@@ 1
γερμανικό 1
χωρητικότητας 1
54 0.8845563371258723
Παύλου 1
κάν@@ 1
καρδιά 1
Υγείας 1
βελτι@@ 1
ιδιότητα 1
κάρ@@ 1
Βρετανίας 1
Παύλος 1
Προς 1
κυκλοφορήσει 1
αποφασ@@ 1
Γουλιέλμου 1
ιάν 1
προβλημάτων 1
υκ@@ 1
ίλα 1
Σικελίας 1
αντίθετα 1
κοινωνικές 1
λου 1
120 0.9797284929684404
ανατολ@@ 1
μπο 1
νόμισμα 1
Λατ@@ 1
πλευρό 1
Μαυ@@ 1
Πιο 1
κάποτε 1
συγκέντρωσης 1
τύπων 1
άμε@@ 1
περιγράφεται 1
Αυτοκράτορας 1
επιλέχθηκε 1
Γαλλικής 1
Ρωσική 1
τικότητας 1
υδρογόνου 1
CD 0.6001124404118097
έλη 1
βασικές 1
ιδιοκτησία 1
μπλ@@ 1
Πελοπόννησο 1
διαλύθηκε 1
κορυφαία 1
κλασική 1
Ενότητας 1
σο 1
συλλόγους 1
ετς 1
ματικών 1
όσους 1
ίσματος 1
λειτουργίες 1
πεντα@@ 1
διάταξη 1
κληρονομ@@ 1
72 0.9571191030412181
παραδείγματα 1
ματικός 1
οργανισμούς 1
σλαβ@@ 1
υπόλοιπη 1
χρωματ@@ 1
Ευαγγελ@@ 1
ούσα 1
τέρματα 1
απειλή 1
ημερ@@ 1
απέ@@ 1
βλέπει 1
π.Χ 1
λόγ@@ 1
παρατηρ@@ 1
πους 1
Κώστα 1
αγορ@@ 1
χου 1
οξέος 1
ΕΠΣ 1
αμφι@@ 1
Σαχ@@ 1
ευσε 1
ινά 1
τισμός 1
χρησιμοποιούνταν 1
16ο 1
πουλ@@ 1
Ι. 1
Λίν@@ 1
Μο@@ 1
Μπού@@ 1
έτι 1
ΚΑ@@ 1
10.000 1
άγκ@@ 1
σιν 1
εύσει 1
πόλεως 1
18ο 1
Μολ@@ 1
Συντάγματος 1
κατάταξη 1
εντα@@ 1
6.@@ 1
ανε 1
ότου 1
σελ@@ 1
στόλο 1
όνης 1
ίνων 1
ατικής 1
1903 0.8047638836862482
σημ@@ 1
όλε@@ 1
Ναυτικού 1
αντα@@ 1
ασσ@@ 1
χρησιμοποιήσει 1
Εβραίων 1
εκλέχθηκε 1
χρησιμοποιούσε 1
θους 1
Βουργουνδίας 1
γνωστ@@ 1
ραδι@@ 1
τελευταίου 1
49 0.8165297130666581
Πόλη 1
καλύτερες 1
06 1
Μπα@@ 1
ενσωματ@@ 1
καταφέρει 1
πτ@@ 1
σμα 1
Ντί@@ 1
αντιμετώπιση 1
απαιτείται 1
κλι@@ 1
σβ@@ 1
Γυναικών 1
Ακόμα 1
Μερικά 1
Τομ@@ 1
Αγκ@@ 1
Τζι@@ 1
πολιτείας 1
Όμιλος 1
Ολλανδίας 1
Σαβοΐας 1
εισήγαγε 1
θου 1
Φω@@ 1
δέχθηκε 1
κάποιοι 1
είδ@@ 1
κεν@@ 1
ταξινομ@@ 1
τορας 1
Πελοποννήσου 1
γραφεία 1
δηλώνει 1
εκτελε@@ 1
ελάχιστα 1
ia 0.21822512418225143
Υπερ@@ 1
πολιτικού 1
στρατευμάτων 1
ηχογραφ@@ 1
μαθητής 1
παίκτη 1
σκοπούς 1
γενικότερα 1
ονία 1
εμφανιστεί 1
Χατζ@@ 1
υιοθε@@ 1
μεταφέρει 1
Πάν@@ 1
Του 1
πολιορκ@@ 1
συστάθηκε 1
Μητροπολίτης 1
λειτουργ@@ 1
ποιήματα 1
ριστ@@ 1
ΑΣ@@ 1
αποτέλεσαν 1
ικου 1
λιά 1
συμπερι@@ 1
ωτών 1
ούχο 1
παραμένουν 1
ροπ@@ 1
Δημήτρη 1
Μερικές 1
βαθμ@@ 1
καθιστώντας 1
οβα 1
εκθέσεις 1
ητήριο 1
μολ@@ 1
πολεμ@@ 1
σύντομο 1
παροχή 1
φόρο 1
έτο 1
βρίσκει 1
πρόποδες 1
διαχω@@ 1
Ιωάννα 1
επισκέπτες 1
Τράπεζα 1
Τσε@@ 1
ενημέρωσης 1
καλό 1
υπολογιστή 1
όλι@@ 1
Κρί@@ 1
συνέχισαν 1
Υ 1
δημοφιλές 1
διοικητή 1
ιων 1
μέτρο 1
Βέλγιο 1
ουζ@@ 1
σταθερή 1
όχθη 1
Μπέν@@ 1
ήρθαν 1
αντέ@@ 1
εστι@@ 1
τιδα 1
αντιπροσωπεύει 1
ντερ 1
τηση 1
λογοτεχνίας 1
ώτη 1
διαθέτουν 1
μπά@@ 1
24@@ 1
Πον@@ 1
Φρανς 1
Ελληνίδα 1
ηματική 1
υγρό 1
4ο 1
αναπαρ@@ 1
Ρέ@@ 1
Ρωμαίοι 1
δευ@@ 1
εκατοντάδες 1
12@@ 1
Νου@@ 1
πυκνότητα 1
53 0.8955786619777082
5η 1
Τσάμπιονς 1
διδ@@ 1
z 0.23894590640335167
Εμμανουήλ 1
Υπό 1
αστικής 1
λίγους 1
προβλήθηκε 1
Σχ@@ 1
βασιλικό 1
μέσων 1
μερικούς 1
οργανώσεις 1
πεδίου 1
Γερμανών 1
Ελ 1
τζι 1
1878 1
57 0.9243570704166404
άρχη 1
σημερινής 1
αντιπρόεδρος 1
αρχι@@ 1
Δημοτική 1
Πάτρας 1
φανέλα 1
Οικ@@ 1
Χρήστος 1
αναφέρθηκε 1
Χορ@@ 1
άβα 1
πεθάνει 1
άνδρα 1
ακρίβεια 1
πλαγιές 1
σύγχρονης 1
φράση 1
άξονα 1
άρχ@@ 1
a@@ 0.24625732809178438
Διεθνή 1
Κρι@@ 1
Ίν@@ 1
Κί@@ 1
Ναυτικό 1
Πορτογαλία 1
νομικά 1
ποιν@@ 1
Χέ@@ 1
άκρη 1
απογραφές 1
ψαν 1
TV 0.26601005306445363
ικαν@@ 1
λια 1
χαμηλή 1
1890 0.8389258307908254
δικαι@@ 1
πολιτικούς 1
Δανία 1
ΙΙ 1
ιό 1
πίστευε 1
Βάρ@@ 1
Σύλλογος 1
επώνυμο 1
ονίας 1
Λό@@ 1
J 0.7235884242187578
έδινε 1
58 0.9154851306638883
συνδέει 1
Live 0.7933709450098183
σερ@@ 1
88 1
x@@ 0.4261926150854033
θεωρηθεί 1
πραξικόπημα 1
χρονική 1
λειτούργησε 1
αίοι 1
βάλει 1
υποστηρικτές 1
d@@ 0.16189163456895658
πραγματοποιείται 1
στέλεχος 1
δίδαξε 1
επεκτάθηκε 1
ποιητή 1
βοηθ@@ 1
κεφαλ@@ 1
17ο 1
αντίστοιχο 1
τροφίμων 1
Ναπολέοντα 1
πριγκίπισσα 1
Τε@@ 1
εκλεγ@@ 1
φυσικού 1
χρονολογούνται 1
μην@@ 1
φρον@@ 1
άγει 1
δήμους 1
Ζερ@@ 1
Ορθόδοξη 1
φα 1
ωσή 1
Λάρισας 1
κάλεσε 1
κανόνα 1
κη@@ 1
ρίζεται 1
συνάντησε 1
Γιου@@ 1
αίνει 1
2.000 1
ογι@@ 1
Αξι@@ 1
επικράτησε 1
σα@@ 1
διαδικασίες 1
πολέμους 1
Τί@@ 1
μεγάλους 1
κ.λπ. 1
Βορείου 1
Πάρ@@ 1
κες 1
ότες 1
επικράτεια 1
τάν 1
ανατολικής 1
εύσεις 1
πετρελαίου 1
στρατηγό 1
άριος 1
δύσκολη 1
ομιλ@@ 1
φαρμακ@@ 1
Άρτας 1
ψευδώνυμο 1
Λ 1
Πίτερ 1
ηγέτη 1
κατάταξης 1
κατανο@@ 1
νας 1
Αρκαδίας 1
Ντε 1
διεθνούς 1
θύματα 1
ιζε 1
πολη 1
Τάγμα 1
ασμός 1
Βιέννης 1
καθόλου 1
διδασκαλία 1
σταματήσει 1
Ρωσικής 1
Γιουγκοσλαβία 1
ανο@@ 1
ιέ 1
μετά@@ 1
αντιπροσωπ@@ 1
Αλεξάντερ 1
Αψβούργων 1
Παρόλα 1
Χρυσή 1
ερν@@ 1
πρωτεύουσας 1
ύλη 1
λεπτομέρειες 1
φάρμακα 1
δείξει 1
καθεστώτος 1
ούμε 1
ντεν 1
Αρχαία 1
Σερρών 1
έδειξαν 1
βάρους 1
θο 1
ούρ 1
Μπουρ@@ 1
επέμβαση 1
προέκυψε 1
5.000 1
Κρη@@ 1
ευρωπαϊκό 1
ποιότητα 1
δίνεται 1
χή 1
66 0.9180566862370994
Ιρλανδία 1
Κέρκυρα 1
μετάλλια 1
αναλ@@ 1
εύθηκε 1
αίν@@ 1
ριβ@@ 1
χρησιμοποι@@ 1
έρι@@ 1
καταλήγει 1
πρα@@ 1
Black 0.3902980609493763
es 0.021820452255784963
Δικαστήριο 1
Μαχ@@ 1
αποικ@@ 1
θεωρούνταν 1
παραδόσεις 1
Αλβανίας 1
Πολ 1
Σαβ@@ 1
1899 0.8487980331736571
Αγ 1
Ουκραν@@ 1
παιδική 1
ρεύμα 1
φίλους 1
16ου 1
άρας 1
βάλ@@ 1
πολεμική 1
αγωγ@@ 1
ρευ@@ 1
σχηματίζει 1
φωτιά 1
Κοινοβουλίου 1
αναφοράς 1
γενν 1
ρεί 1
τήρια 1
πνεύμα 1
ριου 1
σχηματίζουν 1
πιθανή 1
συνεχή 1
τηρίου 1
αγόρασε 1
15@@ 1
Ρίτσαρντ 1
αφορμή 1
ποινή 1
84 1
International 0.1806459017794261
ητό 1
καθιερώθηκε 1
ορισμένων 1
διεκδικ@@ 1
τορ 1
ήλθε 1
Ηλι@@ 1
ωνόταν 1
Ίδρυμα 1
Μόν@@ 1
άνοιγμα 1
ίκης 1
ζημιές 1
θαν@@ 1
κέρδισαν 1
ίδου 1
καιρούς 1
απόπειρα 1
βορ@@ 1
οχώρι 1
χρω@@ 1
Man 0.4448891356273933
SS 0.8042514045653669
Αραγωνίας 1
Οθωμανούς 1
ήθ@@ 1
Αγώνων 1
Κρε@@ 1
δραματική 1
πιθαν@@ 1
άσεων 1
εκτιμ@@ 1
άται 1
ιακός 1
ομίλους 1
τσε 1
Πασά 1
ιζόταν 1
λή@@ 1
ακολουθούν 1
δολοφονήθηκε 1
γαμ@@ 1
Ζωή 1
ένδειξη 1
αποχώρηση 1
εκπομπές 1
68 0.9712004982886956
Η.Π.Α. 1
αποστολές 1
αρχαίων 1
αρχείο 1
βαν 1
προτάσεις 1
Γενικός 1
άντες 1
γενν@@ 1
παρέχουν 1
ρίζ@@ 1
3ο 1
αγνο@@ 1
θή@@ 1
Μέρ@@ 1
αντάλλαγμα 1
Αρι@@ 1
ορεινό 1
αρχος 1
καλλιτεχνών 1
ξεκινώντας 1
σής 1
τορα 1
δοκιμ@@ 1
προβολή 1
67 0.9883697505077945
αποφάσεις 1
χωρίζεται 1
ανέρχεται 1
Σέ@@ 1
παραγωγ@@ 1
σκότωσε 1
ing 0.060876077781959644
Αλεξάνδρεια 1
άου@@ 1
ανούς 1
αποδίδεται 1
ταυτότητα 1
ευρύ 1
ισμένοι 1
κινηματογραφική 1
χαρακτηριστεί 1
παραίτηση 1
Σάντα 1
αγώνισμα 1
νόμους 1
πολι@@ 1
φτάνοντας 1
05 1
δασ@@ 1
υποβιβάστηκε 1
νεφ@@ 1
πυρ@@ 1
χάλκινο 1
Βισ@@ 1
γεωργ@@ 1
δικής 1
1870 0.8588341322249258
μελετητές 1
der 0.005276201600200396
άχ 1
καταστήματα 1
Ρωμαίους 1
μηχανή 1
αρχιτέκτονα 1
νευ@@ 1
οδός 1
πράσινο 1
τραγουδιών 1
στρατηγική 1
σωματείο 1
τήθηκε 1
θεωρίας 1
καταλ@@ 1
σχολι@@ 1
φάν@@ 1
κρ@@ 1
Ροδ@@ 1
θεωρίες 1
βρα@@ 1
ταυ@@ 1
όχθες 1
k@@ 0.1823289064578545
λιος 1
Μέγα 1
όλι 1
άκος 1
βίας 1
βιο@@ 1
πρώιμη 1
Α.Ε. 1
οικονομίας 1
τάφ@@ 1
ησ@@ 1
Φρ@@ 1
άγνωστο 1
ομιλία 1
πληθυσμών 1
υλικών 1
83 1
Μέν@@ 1
Φέρ@@ 1
Σταδιοδρομία 1
αριστερό 1
δάσκαλος 1
πν@@ 1
́ 0.20416055733732708
Δούκας 1
pop 0.6938362080371838
Πρω@@ 1
πηγ@@ 1
Εξελέγη 1
ίδρυσαν 1
Γουίλιαμ 1
Πατρι@@ 1
ευθύνη 1
ώνης 1
1881 1
άθλημα 1
ατς 1
βιν@@ 1
ούχος 1
Μόλις 1
αλφάβητο 1
αποκλείστηκε 1
γέννηση 1
κρά@@ 1
62 0.9244887572952566
γνωρίζει 1
δημοσιεύθηκε 1
ελεύθερο 1
ικες 1
μορφής 1
Πρώτος 1
επέστρεψαν 1
επανήλθε 1
εμπορικά 1
τεύ@@ 1
Βλ@@ 1
250 0.8342935442686974
ίλι 1
κια 1
προηγούμενες 1
συναυλία 1
Μερικοί 1
θητείας 1
κιθάρα 1
προκαλώντας 1
Γνω@@ 1
κάποιου 1
περιβάλλοντος 1
σωματεία 1
Κλε@@ 1
κτιρίου 1
συμπέρασμα 1
εργαζόταν 1
ωνος 1
81 1
βυζαντινή 1
ρούν 1
χαρτο@@ 1
ισχύος 1
κάλυψη 1
τιν 1
καπν@@ 1
πέρασαν 1
τζα 1
ωρι@@ 1
διάρκειας 1
ημέρας 1
σεν@@ 1
Μίλ@@ 1
γερμανικής 1
πελ@@ 1
όπλων 1
ήσουμε 1
νά 1
ονόμασε 1
δυναμικό 1
ώδους 1
78 1
υπεύθυνη 1
θεμελι@@ 1
καθολ@@ 1
μίλια 1
ίδρυμα 1
φαντα@@ 1
Μονής 1
Παγκόσμιος 1
τή@@ 1
υνση 1
υπολογιστών 1
δερ@@ 1
στό 1
Βο@@ 1
Λευκωσίας 1
Μαδρίτης 1
εκατό 1
όλλ@@ 1
Ντού@@ 1
βρετανική 1
βυθ@@ 1
ποιότητας 1
ενίσχυση 1
καταδικάστηκε 1
Γυμνάσιο 1
θείο 1
ογραφίες 1
Όθωνα 1
οντος 1
προεδρία 1
14@@ 1
Λε 1
άτι 1
ιερέας 1
τήσει 1
1902 0.7266528532149438
ασμένο 1
μικρότερα 1
ΑΣ 1
σκλη@@ 1
απεικόνιση 1
απονεμήθηκε 1
μισθ@@ 1
Αιτωλοακαρνανίας 1
Κόμ@@ 1
Υπηρέτησε 1
ανεξαρτησίας 1
γλωσσών 1
έρχονται 1
αμερικανικό 1
φυσικές 1
1880 0.8700865937662591
Y@@ 0.22144601973424152
αυξάνεται 1
πάν@@ 1
background 0.9377478494668483
δόθηκαν 1
άνας 1
αναζήτηση 1
ευτικό 1
οποιηθεί 1
μπαν@@ 1
ώτες 1
Παι@@ 1
δείγμα 1
δημοφιλή 1
προστασίας 1
στρατηγού 1
όπερα 1
23@@ 1
Χριστιαν@@ 1
μπι@@ 1
Σίτι 1
διάμετρος 1
ουσίες 1
Κοιν@@ 1
Λουδοβίκο 1
μορφω@@ 1
πετοσφαίρισης 1
υπογραφή 1
οβο 1
παραδοσιακό 1
Ηρακλής 1
διήρκεσε 1
μετατράπηκε 1
πισ@@ 1
ωματ@@ 1
p@@ 0.15923653675452334
Πακιστάν 1
Συνέδριο 1
ae 0.408082691555676
δομές 1
κρο@@ 1
Ισλάμ 1
ολογικού 1
Φι@@ 1
μουσικά 1
έρθει 1
τυπο@@ 1
χρησιμοποίησαν 1
Παναγιώτης 1
Τέ@@ 1
έκτη 1
κλίμακας 1
ισο@@ 1
ραδιο@@ 1
στόλου 1
ενι@@ 1
ράν 1
φυτών 1
59 0.9231675059020514
αίνοντας 1
ασχολούνται 1
ιτ 1
πύλη 1
υψηλ@@ 1
Γερμανική 1
δημοτικά 1
εκλογική 1
μπορούμε 1
σχολής 1
Παναγία 1
έργ@@ 1
αστές 1
κασ@@ 1
χρη@@ 1
μηχανική 1
ορισμένοι 1
61 0.9411865977849547
63 0.9044153840726581
z@@ 0.14887914963156532
ίχνη 1
γενε@@ 1
λάβ@@ 1
ύς 1
Αυστραλίας 1
Παγκόσμια 1
Συχνά 1
ικώς 1
νεκ@@ 1
παράγουν 1
προσπάθησαν 1
εξέταση 1
τροφή 1
Ρωμαίων 1
αγγλ@@ 1
επιστήμες 1
τσαρτ 1
ίτιδα 1
στρατιωτών 1
Πολιτισμού 1
Σμύρνης 1
κατάλογος 1
έπαιζε 1
Έχοντας 1
ανδρ@@ 1
μακρ@@ 1
φίλο 1
1895 0.8151554895990045
Μέση 1
αλλιώς 1
βάρ@@ 1
βρά@@ 1
κοινωνικά 1
οποίησε 1
Φίλιππο 1
έται 1
βασιλικής 1
y@@ 0.18424161912471237
Καπ 1
διαρ@@ 1
ιδίου 1
ριακή 1
Πήρε 1
περιέγραψε 1
1835 1
δεχτεί 1
προηγ@@ 1
ΙΑ 1
αποφασίζει 1
ουδ@@ 1
Ν.@@ 1
δολαρίων 1
εμβ@@ 1
παλαιότερη 1
παρουσιάζεται 1
φάσμα 1
Όλοι 1
Ιταλός 1
αποθηκ@@ 1
τυπικά 1
7.@@ 1
Ειρήνη 1
άζ 1
πιν@@ 1
ριακού 1
σχέσεων 1
Φρανκ 1
ανία 1
δηλώσει 1
71 0.9688948412186705
αστέρες 1
εργαστήριο 1
θι@@ 1
λεπ@@ 1
στάλθηκε 1
t@@ 0.13485727308460282
αερίου 1
Ναυ@@ 1
Σύντομα 1
ικης 1
ιτών 1
μόνιμα 1
παρουσι@@ 1
αζόταν 1
διαλυ@@ 1
έσοδα 1
εξελίχθηκε 1
τροποποι@@ 1
αντίληψη 1
ειακή 1
τύποι 1
Ρε@@ 1
ηρω@@ 1
ικανότητες 1
16@@ 1
1@@ 0.8719572015498247
74 0.9697865708889715
αναγνώρισε 1
δημοσιεύτηκε 1
ιδιαίτερο 1
νος 1
υποστεί 1
φυσικών 1
Μω@@ 1
ριση 1
Λι 1
Μαρκ 1
εϊ@@ 1
χοι 1
700 1
Βασίλης 1
επίθεσης 1
86 1
ευρεία 1
μητρ@@ 1
αιν@@ 1
πασ@@ 1
τιμής 1
Νά@@ 1
Πετ@@ 1
Συμ@@ 1
αληθ@@ 1
Ταυτόχρονα 1
ανταλλαγή 1
Σεν@@ 1
κυβερνήσεις 1
θέσει 1
καταγόταν 1
μηνών 1
ακού@@ 1
οικονομικό 1
συλλογής 1
ακολουθήσει 1
ενμπεργκ 1
ώνται 1
… 0.3335884950828372
Εσ@@ 1
αμμ@@ 1
καθαρά 1
προσώπου 1
σώζονται 1
χθεί 1
Ντρ@@ 1
01 1
Πατριάρχης 1
επιπτώσεις 1
τάφο 1
Καταλ@@ 1
συντηρη@@ 1
13@@ 1
καρι@@ 1
σημαντικότερα 1
ύρας 1
ΕΛ@@ 1
δεδομένου 1
πρεσβ@@ 1
βιος 1
θεατές 1
ότερων 1
03 1
Βασίλισσα 1
καθιερ@@ 1
Love 0.4796560681286752
άσματα 1
ναυ@@ 1
ορκ@@ 1
εντοπ@@ 1
λεύ@@ 1
μέσος 1
εξορία 1
ευτεί 1
στρατιωτικών 1
ωτό 1
Le 0.0361577426796771
Μάρτιν 1
επιστήμης 1
οσκ@@ 1
σχεδιάστηκε 1
98 1
διαιρείται 1
δηλ@@ 1
εκείνα 1
κόσμος 1
ανήκαν 1
θων 1
Αρμενία 1
Διακ@@ 1
δεσμούς 1
Al@@ 0.17567138818948488
Αντιπροσώπων 1
Ευρ@@ 1
έκδοσης 1
βήμα 1
κλασ@@ 1
μικρότερος 1
τόνους 1
ίσα 1
απορροφ@@ 1
θαλασσ@@ 1
ομώνυμου 1
πέμπτη 1
ύλου 1
color 0.49257025230660156
μερικοί 1
as 0.007865580314175218
Ζω@@ 1
πιάνο 1
82 1
δείγματα 1
οργανισμός 1
Αρχαι@@ 1
ιστορικούς 1
96 0.9496810022303126
αποφασίστηκε 1
ειδικές 1
εμφαν@@ 1
συνέντευξη 1
Νόμπελ 1
προσαρτάται 1
ρισης 1
ειρην@@ 1
εορτα@@ 1
θρόνου 1
ριας 1
όψη 1
Γαλλ@@ 1
Καλών 1
διάθεση 1
πραγματ@@ 1
σά@@ 1
ωμάτων 1
Γερμανό 1
δουκάτο 1
κλήθηκε 1
ουσας 1
φαρ@@ 1
92 1
v@@ 0.19868303841611448
Θάλασσας 1
ισμένων 1
λαός 1
σοβαρές 1
Σικελία 1
κωμόπολη 1
προσωπικά 1
ρικά 1
συμβεί 1
Γάλλοι 1
πάντως 1
τύχη 1
Χ. 1
ιστοσελίδα 1
κληρονομιά 1
συνέδριο 1
τεχνολογίας 1
τσου@@ 1
Rock 0.521243971527745
Γιάν@@ 1
Στρατ@@ 1
γενικό 1
Βάλ@@ 1
Μεσόγειο 1
Στρατό 1
βήματα 1
τεχνών 1
No 0.36385917779661814
Σουηδ@@ 1
βας 1
σκοτώσει 1
σωματ@@ 1
αγωγή 1
ποι 1
26@@ 1
κέντρου 1
καθημερινή 1
κανονικά 1
τοιχογραφίες 1
Ναό 1
ατικές 1
οπτική 1
υπάρξει 1
2,@@ 0.7656775501188718
βασισμένη 1
λαμ@@ 1
ογραφ@@ 1
προέλευσης 1
ρούσε 1
ταφ@@ 1
όνε 1
Υπηρεσία 1
έκτοτε 1
αλο 1
διεθνώς 1
Άμυνας 1
Ινδ@@ 1
Σχολ@@ 1
έλες 1
αναλαμβάνει 1
εδαφών 1
οπαδούς 1
αντα 1
γυναίκας 1
δισεκατομμύρια 1
φωτογραφίες 1
χρυσά 1
γεγονότων 1
κορυφ@@ 1
3.000 1
αποικία 1
οιν@@ 1
Ιράκ 1
ένωσης 1
Αδ@@ 1
ανεξάρτητο 1
έγγραφο 1
ίδι 1
κατασκευάστηκαν 1
νεαρός 1
συσκευές 1
εθνικών 1
οποιεί 1
τοπικών 1
ώνονταν 1
1901 0.6902689929896196
73 0.9947067129084805
έμειναν 1
ανοί 1
93 1
Πρωσίας 1
βορρά 1
ποίημα 1
Πρωθυπουργός 1
ήθελαν 1
λόγου 1
προφ@@ 1
ώνιο 1
5ο 1
Σούπερ 1
μάτι 1
πες 1
φρα@@ 1
{ 0.8151316066458506
Σαιντ 1
μπερτ 1
τουρκικά 1
δέντρα 1
επίσημες 1
συνεπώς 1
γέν@@ 1
ηδ@@ 1
ούζ@@ 1
τέν 1
8.@@ 1
αντζ@@ 1
μί@@ 1
τινγκ 1
ήχου 1
κίνησης 1
πού@@ 1
Τρα@@ 1
Βραζιλίας 1
Κροατίας 1
εκείνες 1
οργάνων 1
Δράμας 1
Εδώ 1
κατάρρευση 1
μάγ@@ 1
σες 1
συστατικά 1
συχνότητα 1
76 0.9057609289713207
Εβραίους 1
απουσία 1
ασπ@@ 1
εξετά@@ 1
ζή@@ 1
ιδρύματα 1
νέοι 1
ξη@@ 1
τελικός 1
φο 1
Κυπριακή 1
Ουν@@ 1
Χίου 1
άγνωστη 1
άσεως 1
δημοφιλ@@ 1
Top 0.5718074672848698
Λωρραίνης 1
Μουσείου 1
εως 1
99 0.8860170307728131
Απόλλων 1
παρακολούθησε 1
Μπαν@@ 1
αριθμοί 1
πανεπιστημίου 1
Δ.@@ 1
συγγενείς 1
τοποίηση 1
τοποθεσίες 1
ΠΑΣΟΚ 1
θετική 1
ρις 1
υπολογίζεται 1
69 0.9573077563243176
ητικού 1
καρκίνο 1
μεταβολές 1
προτείνει 1
Μεξικού 1
Μό@@ 1
τελει@@ 1
σύλλογοι 1
97 1
Διοίκηση 1
διαφορετικών 1
ύρων 1
στελέχη 1
Μύ@@ 1
Πρά@@ 1
έχασαν 1
αυτ@@ 1
πυ@@ 1
ωδ@@ 1
όλος 1
Σβ@@ 1
θρησκευτικές 1
εξασφαλίσει 1
παραχώρησε 1
ητες 1
στρατιωτικής 1
εισήλθε 1
εκδήλωση 1
πίεσης 1
στενή 1
συνόρων 1
ύλ@@ 1
Σεν 1
θια 1
διευθυντή 1
μοναδικός 1
πιστεύουν 1
χρησιμοποιηθούν 1
le 0.008129417372228987
μικρών 1
87 1
τρέ@@ 1
φωτειν@@ 1
Ρέν@@ 1
αγωγής 1
αναφερθεί 1
απόλυτη 1
τοποθετείται 1
φύσης 1
Γιόχαν 1
Επαν@@ 1
ίνσκι 1
αρχής 1
Me 0.5921222275494984
δολοφον@@ 1
στέμμα 1
Αλλ@@ 1
Γάλλους 1
μικρής 1
30@@ 1
6ο 1
Χάρι 1
μεθ@@ 1
πολωνικά 1
Βασιλικό 1
Κοινότητας 1
ισπανική 1
ωτικά 1
Όρ@@ 1
σημει@@ 1
μηχανικός 1
πει 1
ρή 1
μέγιστο 1
χήρα 1
ιστορικές 1
Λεβ@@ 1
ΟΗΕ 1
Παρασκευή 1
Πασ@@ 1
Χαρακτηριστικά 1
άσι@@ 1
ελευθερ@@ 1
θέτει 1
πόσο 1
σταθμούς 1
μετέ@@ 1
Θεσσαλίας 1
Σαμπ@@ 1
ίχ@@ 1
σφαίρα 1
φέρ@@ 1
Κρο@@ 1
επικοινωνία 1
Αγγλ@@ 1
αστρο@@ 1
Ζακ 1
διαμόρφωση 1
λειτουργούσε 1
σμοί 1
j@@ 0.19454660531887788
Αύγουστος 1
διάσημο 1
κεντρικής 1
Ελληνικά 1
Ρεάλ 1
Σελ@@ 1
επιτέθηκαν 1
παλαιά 1
Φρά@@ 1
αποδείχθηκε 1
συνθέσεις 1
φορείς 1
ωνικού 1
άλλον 1
άνθ@@ 1
αίθουσες 1
άλλοτε 1
άστ@@ 1
βό@@ 1
ισμένες 1
άντι 1
δυσκολίες 1
συνθέτη 1
cm 0.44530009564873474
Όλες 1
ρέει 1
ψεων 1
Εμ@@ 1
Ιστορίας 1
1898 0.725206997521699
Θεός 1
επικοινωνίας 1
πολης 1
συμπληρ@@ 1
Αλέξανδρου 1
γενικ@@ 1
φωνητικά 1
χειρ@@ 1
Χι@@ 1
νομική 1
συνέβαλε 1
ζήτησαν 1
ποίησης 1
πολέμησε 1
ειδή 1
Γενική 1
άδια 1
θεά 1
κτίστηκε 1
μεταβολ@@ 1
παράγονται 1
πης 1
m@@ 0.20166136914933333
αποκαλ@@ 1
ορισμένους 1
παραλλαγές 1
τόν@@ 1
ήλθαν 1
διακρίνονται 1
Βελιγράδι 1
οργανισμό 1
οχή 1
επίδοση 1
επαγγελματικό 1
τομή 1
Εβρα@@ 1
Ισαβέλλα 1
απόδειξη 1
εμπορίου 1
άσης 1
ανική 1
ισμ@@ 1
ντοκιμαντέρ 1
ρικής 1
σκάφος 1
Θράκη 1
αφήσει 1
δέρμα 1
ευε 1
ϊκό 1
b@@ 0.1628881622757609
όσοι 1
αέριο 1
αστή 1
άμα 1
φάσης 1
ημένων 1
ξένων 1
77 0.913299729889477
ανάγκασε 1
νότο 1
οργανισμού 1
ΠΑ@@ 1
Παναθηναϊκός 1
δήλωση 1
ενδείξεις 1
υπηρε@@ 1
Ιάκωβος 1
Περιοχή 1
αναπτύσσεται 1
δευτερ@@ 1
αμβ@@ 1
απάντησε 1
κοβιτς 1
πληρω@@ 1
79 1
ιστο@@ 1
ούμενοι 1
ραδιοφ@@ 1
σεβ@@ 1
γένους 1
μούς 1
φιλοξενεί 1
αγορές 1
σύλληψη 1
Γιού@@ 1
σήμαινε 1
σύμβολα 1
εργαλεία 1
Αναγέννηση 1
εικ@@ 1
ρίσ@@ 1
συγκεκριμένες 1
φαιν@@ 1
All 0.18170996548838148
αποτελούνται 1
επιγραφές 1
προτάθηκε 1
γραφική 1
ρίζα 1
όχου 1
Βαρσοβίας 1
Εθνικός 1
γκι 1
πλευράς 1
πλησι@@ 1
ποδοσφαιριστές 1
αίτημα 1
ίλι@@ 1
νευρ@@ 1
όρι 1
Μικράς 1
τηλεοπτικές 1
ύσ@@ 1
Γκέ@@ 1
άφιξη 1
ήχ@@ 1
νωρίς 1
υψηλές 1
κί@@ 1
φασματικός 1
ώνου 1
Δύση 1
Χού@@ 1
αντικειμένων 1
κωμωδία 1
λαν@@ 1
λιου 1
mm 0.32880748221950257
Μή@@ 1
αλήθεια 1
ογραφικό 1
πλήρης 1
ατών 1
θετικές 1
ξεχωριστή 1
φυλής 1
Nissan 1
καφ@@ 1
κιλά 1
κύκλους 1
ρεύ@@ 1
δημοκρατίας 1
εκστρατείας 1
επικοινων@@ 1
Ειδικότερα 1
Τουρ@@ 1
δευτερόλεπτα 1
κατανάλωση 1
σκο 1
στικ@@ 1
γαλλικής 1
διάμετρο 1
ινγκ@@ 1
κατοικίες 1
τισμού 1
Λουί 1
νύ@@ 1
ωνι@@ 1
εξοπλισμό 1
Καλαθοσφαίρισης 1
άσσ@@ 1
ήχο 1
αιγυπτι@@ 1
εμφ@@ 1
επιστημονικής 1
θεατρικό 1
περιορισμένη 1
τάφηκε 1
Άννας 1
αραβικά 1
ονομασίες 1
πρωτ@@ 1
Γιώργο 1
Νορμανδίας 1
Ιλ 1
Σο@@ 1
εισόδου 1
ισσα 1
ευγενών 1
μπορ@@ 1
φυσι@@ 1
χρηματοδο@@ 1
Α.Σ. 1
Χανίων 1
ένταση 1
Αρκ@@ 1
Νορβηγ@@ 1
σκευ@@ 1
συλλόγων 1
σύνδρομο 1
NGC 0.9790548224401865
ήρωα 1
αυτοκίνητα 1
ελί@@ 1
καυ@@ 1
παγκόσμιας 1
αναλογία 1
γει@@ 1
θετικά 1
οθε@@ 1
άτων 1
μακρά 1
ονική 1
πανεπιστήμια 1
Times 0.45394661954224186
Θέ@@ 1
ωμένοι 1
Πληθυσμός 1
Σώμα 1
Τσαρλς 1
στήρια 1
στόλος 1
Πί@@ 1
ακριβής 1
λατρεία 1
μουσικός 1
συζήτηση 1
χρώματος 1
Άραβες 1
αφιερωμένο 1
εξηγ@@ 1
13ο 1
Δούναβη 1
δεκάδες 1
πεπ@@ 1
αρντ 1
ευτικά 1
ουρά 1
στας 1
ΕΛΑΣ 1
κατέφυγε 1
Αγγλικά 1
Σμιθ 1
Τελ@@ 1
έρο 1
αιμ@@ 1
βιομηχανίας 1
οποιήσει 1
σκι@@ 1
στράφηκε 1
όμορφη 1
Ar@@ 0.16311324407684
c@@ 0.1734911136217437
αγρι@@ 1
απεικονίζει 1
επισ@@ 1
παρατηρήσεις 1
σοβαρή 1
Βελγίου 1
αντίστοιχη 1
ολο@@ 1
αρχαίος 1
ζωντανά 1
κατακτώντας 1
τριβ@@ 1
man 0.07434320341529758
Τουρκ@@ 1
διατηρούσε 1
επιρροές 1
πλέι 1
διν@@ 1
g@@ 0.13132678651553822
κτηνοτροφία 1
μενο 1
NBA 0.8800810186717323
One 0.18571453922292064
ευαν 1
μουσ@@ 1
ρίστηκε 1
ερω@@ 1
or 0.023240420997701117
αντιπάλους 1
κλάδο 1
υφίσταται 1
Μιλάνο 1
αερο@@ 1
λο@@ 1
καθιστά 1
μέγιστη 1
Συρίας 1
έμβλημα 1
διαλ@@ 1
ισχυρίστηκε 1
W 0.48928956289221753
άσματος 1
ξύλο 1
σοφ@@ 1
τετραγωνικά 1
όρη 1
1,5 1
1889 0.7944221068742315
94 1
Μητρόπολη 1
ερή 1
μικρότερες 1
χωρητικότητα 1
Βόρειο 1
ατικών 1
μενη 1
Κυρι@@ 1
Σκωτία 1
αιρε@@ 1
τουρκικό 1
Έντουαρντ 1
συμφων@@ 1
υπόψη 1
Έσσης 1
εξειδικευ@@ 1
επιβεβαι@@ 1
παρατηρείται 1
100.000 1
Ώ@@ 1
μοναχ@@ 1
Αφρικαν@@ 1
διατηρήσει 1
επιστ@@ 1
συγγραφή 1
τάρ 1
Παιδείας 1
αρχαίου 1
δεύ@@ 1
μέτρηση 1
στήλη 1
28@@ 1
αριθμούσε 1
ιόν 1
κοινωνικό 1
παίζοντας 1
βαριά 1
Νάπολης 1
αμυν@@ 1
γιατρός 1
ντο 1
Πωλ 1
μεταρρυθμίσεις 1
ουκ 1
αντικ@@ 1
πάρα 1
σκοπός 1
Επέστρεψε 1
διαδικασίας 1
δοκ@@ 1
Τζων 1
αναλογ@@ 1
παρουσίαση 1
φυτό 1
Εσωτερικών 1
άσια 1
ανθρώπινο 1
βασιλ@@ 1
διαφορετικούς 1
στρατόπεδα 1
άλμα 1
αποκαλείται 1
επισκέφθηκε 1
μεγαλύτερους 1
πλήρες 1
λήψη 1
σιμη 1
Οίκος 1
Οθωμαν@@ 1
Υπ@@ 1
σκηνοθε@@ 1
E9E9E9 1
ευθεί 1
Εδουάρδος 1
Πετρ@@ 1
Σύνοδο 1
άλου 1
Όρος 1
Πάνω 1
εγγονός 1
Ανδρών 1
απέρριψε 1
απε@@ 1
ειακές 1
ετησίως 1
νων 1
τιμών 1
Λέων 1
Σερ 1
αστής 1
χερσόνησο 1
ορισμός 1
προσκ@@ 1
Ανήκει 1
Ρόδου 1
αρά 1
θησαν 1
ομένων 1
Θάνατος 1
τρού@@ 1
επισημ@@ 1
ηχογραφήσεις 1
θεού 1
ϊν@@ 1
Ινστιτούτου 1
δέν@@ 1
νεαρό 1
συνέλευση 1
15ο 1
Λεον@@ 1
εργάτες 1
καλείται 1
πετύχει 1
My 0.5170975393680856
Ον@@ 1
έψει 1
ντι@@ 1
φυσικός 1
Περιφέρειας 1
ισχυρ@@ 1
μπα@@ 1
μπουρ@@ 1
λλο 1
ορισμό 1
ουσιών 1
αρχο 1
δίσκους 1
κήρυξε 1
Ολυμπιακών 1
Ρόλου 1
αίες 1
αργά 1
ονόματι 1
metal 0.5926414786471647
Αμέσως 1
Λεμεσού 1
αλλού 1
διαδοχή 1
σκέψη 1
όμε@@ 1
Μανουήλ 1
ετα@@ 1
δρα 1
Αντώνιος 1
Καστίλης 1
Τραγουδιού 1
εθνικά 1
θεραπείας 1
κλάδος 1
πρωθυπουργού 1
σπουδαι@@ 1
Διοικητική 1
κν@@ 1
Μονάχου 1
αναφερόταν 1
αυτοκινήτων 1
ητος 1
Πρό@@ 1
τώντας 1
Εύ@@ 1
ότερης 1
Γ.Σ. 1
αναπτυχθεί 1
απαιτήσεις 1
τάφος 1
Αγρο@@ 1
Βρετανική 1
Σχέδιο 1
ίνια 1
διαθέ@@ 1
σια 1
Αργεντινή 1
Δού@@ 1
Κοζάνης 1
εση 1
κάποιους 1
02 1
Θεό 1
Σοφ@@ 1
σύγχρονες 1
τηλεόρασης 1
Αλε@@ 1
άνγκ 1
γύ@@ 1
κρατική 1
ναζ@@ 1
ΟΣ 1
Κορέα 1
Φρανσουά 1
ΑΕ 1
σύσταση 1
1830 1
Επί@@ 1
Πέτρο 1
σιμα 1
τικο 1
2ου 1
Θεάτρου 1
Πέρ@@ 1
αλλάζει 1
ζοντας 1
Πρίγκιπα 1
άσκηση 1
αντιπολίτευσης 1
κς 1
WWE 1
Γι 1
Κριμαίας 1
γερμανικές 1
επισήμως 1
ολοκλήρου 1
άκου 1
αναλυ@@ 1
Μαζ@@ 1
Ποι@@ 1
κατηγορ@@ 1
παρ 1
σις 1
Γεωργία 1
Ειρήνης 1
εκτελέστηκε 1
λογοτεχν@@ 1
οκα@@ 1
6η 1
ίδιες 1
ρων 1
Εθνοσυνέλευση 1
Τοποθεσία 1
κωδικ@@ 1
περιλαμβάνεται 1
ρίδα 1
1885 0.7775048683086395
III 0.23053705820469023
δυνατότητες 1
χαρακτήρων 1
Αγγελ@@ 1
Γιανν@@ 1
Ιαπ@@ 1
διάγνωση 1
διαφοροποι@@ 1
Κίν@@ 1
Πελ@@ 1
εσης 1
άκρα 1
χρήστη 1
Δημοκρατικό 1
Επικ@@ 1
άδος 1
ακόλουθες 1
Μεσογείου 1
Νερ@@ 1
αινε 1
μέσου 1
πάροδο 1
προϊστο@@ 1
συμφ@@ 1
τοποθέτηση 1
βασίζονται 1
θεός 1
οστά 1
υπέ@@ 1
ώσεως 1
Κροατία 1
αμερικαν@@ 1
αποσπ@@ 1
ειακά 1
οθόνη 1
ούμενα 1
Γ.@@ 1
διαγων@@ 1
μάρ@@ 1
Ντάν@@ 1
αδελφ@@ 1
Γερουσία 1
Κράτους 1
Ρί@@ 1
Φώ@@ 1
έλας 1
κόντρα 1
σκάφη 1
ταξίδια 1
Αθηναίων 1
εκπομπής 1
εξασφάλισε 1
14ο 1
Σφ@@ 1
προσωρινή 1
del 0.014425756775205727
γλυ@@ 1
πληρ@@ 1
Ναζί 1
Πέρσες 1
ηγήθηκε 1
νεότερος 1
προστέθηκε 1
συνοδευ@@ 1
τερματ@@ 1
Ποδοσφαιρική 1
δυτικής 1
παί@@ 1
Εξαιτίας 1
Πρα@@ 1
βος 1
επεξ@@ 1
91 0.9785879579751063
Βασίλειος 1
εύτηκαν 1
ραμ@@ 1
da 0.07246936936588448
Μπί@@ 1
ζεται 1
ηκε 1
προκαλούν 1
τριάντα 1
Καλύτερης 1
Σπ@@ 1
ζητήσει 1
h@@ 0.14543248930687558
Ομίλου 1
λατινική 1
μειώθηκε 1
περνάει 1
σύνθεσης 1
Saint 0.10206846433372667
Νεκ@@ 1
δέντρο 1
καθένα 1
πει@@ 1
μηδεν@@ 1
νησιών 1
1860 0.8035207540960664
άνους 1
κατε@@ 1
παρείχε 1
τοποι@@ 1
στοιχ@@ 1
διαστάσεων 1
υλι@@ 1
Ο. 1
μπει 1
Ακολούθησαν 1
Κλέ@@ 1
17@@ 1
Δυνάμεων 1
Ειδ@@ 1
Κίνημα 1
Σύν@@ 1
ανα 1
Βυζαντινής 1
Ουάσινγκτον 1
ελε@@ 1
λε 1
σύγχρονα 1
Αθανάσιος 1
Μέτωπο 1
ίνιο 1
δοκιμές 1
κινητήρες 1
στασ@@ 1
εξέγερσης 1
τέλ 1
καλλιτεχνική 1
κρίθηκε 1
ντα@@ 1
89 0.9568899446209449
DVD 0.6370393803237481
Αριστ@@ 1
δά@@ 1
κακή 1
παραμ@@ 1
Άγγλος 1
αντίπαλ@@ 1
κενό 1
κυκλοφορεί 1
ήθη 1
ίτ 1
δίκτυα 1
θείος 1
Γενικό 1
ΠΟ@@ 1
στήριξη 1
υπόλοιποι 1
1848 0.8477687448537471
εκ. 1
Star 0.40574338531268606
βιλ 1
δωμάτιο 1
πολιτιστική 1
εκμεταλλ@@ 1
Χάλ@@ 1
άνθη 1
γυναικεία 1
χθηκαν 1
γράφ@@ 1
μόνιμη 1
ρίδας 1
άνδρας 1
δρομ@@ 1
κτήρια 1
χρηματ@@ 1
Δουκάτο 1
Εποχή 1
Πολύ@@ 1
αγωνίσματα 1
λίμνες 1
γεωγραφικό 1
συσκευή 1
τίνα 1
ΕΠ@@ 1
ακολουθώντας 1
καταλήφθηκε 1
οί@@ 1
συγκροτήματα 1
0@@ 0.5504945535727261
Ύστερα 1
βγήκε 1
δελ@@ 1
πρωθυπουργό 1
χαμ 1
ΐα 1
Ιεράς 1
ομίλων 1
παρόν 1
εδρεύει 1
εργαστεί 1
ρούχα 1
συγχώνευση 1
Χέρ@@ 1
θεία 1
μηχανές 1
πεδία 1
φιλόσοφος 1
χρονιές 1
York 0.08493540115320236
v 0.4090525455767261
Μπον@@ 1
Οργανισμού 1
γν@@ 1
ιζαν 1
λαβ 1
πηγαίνει 1
δημοσίευση 1
υνε 1
9.@@ 1
Φραγκίσκος 1
οδηγίες 1
ποταμών 1
χωρ@@ 1
πνευ@@ 1
υποψήφια 1
φαντασίας 1
27@@ 1
Αποτελέσματα 1
Μετ@@ 1
υποστήριζε 1
επωνυμία 1
ηπ@@ 1
τέχνες 1
du 0.011660364353865086
Νικόλαο 1
Παλάτι 1
άσκησε 1
μάζ@@ 1
Χέν@@ 1
διαμορφ@@ 1
οξειδ@@ 1
τιου 1
φρουρά 1
ύλης 1
In 0.011488591556728652
l@@ 0.13492327141417143
Κιλκίς 1
Μπορ@@ 1
ία@@ 1
δία 1
εξετάσεις 1
ιατρικής 1
στηκαν 1
Συνέχισε 1
αλε@@ 1
βολές 1
βρήκαν 1
εμφάνισή 1
κομμουν@@ 1
r@@ 0.1355244991020211
έλλειψης 1
βασίστηκε 1
οθ@@ 1
συμπεριλήφθηκε 1
όπη 1
ίδος 1
γράφεται 1
θαλ@@ 1
θείου 1
στόχους 1
Οικονομία 1
ημιτελικό 1
κατάργηση 1
τρόφιμα 1
Νήσων 1
γυρίσματα 1
διόρισε 1
ινός 1
κυριαρχίας 1
μεγ@@ 1
τόπου 1
χές 1
20.000 1
Τους 1
εκτοπ@@ 1
έκτασης 1
επηρε@@ 1
μάζας 1
πλείστον 1
ΕΚ 1
ζώνες 1
κοινωνικών 1
Παναγ@@ 1
έλεγχος 1
συνεργάτες 1
Στάλιν 1
ενδο@@ 1
ριακές 1
τέρμα 1
υχ@@ 1
Αντόνιο 1
αίνουν 1
εύοντας 1
ζι@@ 1
μετανάστες 1
σημειώνοντας 1
Τύ@@ 1
αστούν 1
αγροτική 1
αδερφή 1
πουλιά 1
² 0.18746559631692705
Σικάγο 1
βίλ 1
καταστροφές 1
περισσότερων 1
American 0.06324078217580717
έξοδο 1
διδακτορικό 1
κολλ@@ 1
συνορεύει 1
ολογικών 1
τερς 1
διανομή 1
επιχειρ@@ 1
ωνίου 1
Λάν@@ 1
ειακού 1
εκατοστά 1
πρωτότυπο 1
συνδέθηκε 1
μήνυμα 1
μού@@ 1
Βόλου 1
Σημ@@ 1
δι 1
ζητώντας 1
πραγματοποιήσει 1
Τρο@@ 1
ανίας 1
βες 1
επηρέασε 1
παιδ@@ 1
σωμάτων 1
τακτικά 1
Time 0.5693613872031527
θεώρησε 1
× 0.6191582654285102
Έρικ 1
Ενω@@ 1
ακαδημαϊκ@@ 1
αποδ@@ 1
ερευν@@ 1
καθε@@ 1
λεί 1
οχήματα 1
στίχοι 1
φίλ@@ 1
άσο 1
διαγ@@ 1
θλ@@ 1
φάσεις 1
γεν. 1
Καβάλας 1
Λίμνη 1
Χρ@@ 1
δικαίου 1
ιστορικών 1
Ρα@@ 1
Σμύρνη 1
σχηματίστηκε 1
τραγουδιστή 1
Ρ 1
Ραμ@@ 1
αιθ@@ 1
ασθένειες 1
εξίσωση 1
πτυχ@@ 1
σερβ@@ 1
συντον@@ 1
τέν@@ 1
ar@@ 0.11775712814230405
Θεοδ@@ 1
σιών 1
άνοι 1
αναπαραγωγής 1
προσέφερε 1
πότε 1
Φινλανδία 1
επιχειρηματ@@ 1
μηχαν@@ 1
ΑΟ 1
Αλι@@ 1
Πρώτο 1
αντιμετωπ@@ 1
επιβλ@@ 1
νικώντας 1
σμών 1
σχεδιασμού 1
Λιθουανίας 1
Πατριάρχη 1
μελε@@ 1
πληθυσμούς 1
πολωνική 1
τερα 1
Πό@@ 1
κειμένου 1
υπολογιστές 1
όπλο 1
ασμα 1
ολόγων 1
πλούσιο 1
Ηλία 1
κουν@@ 1
ρε 1
σώζεται 1
Αραβ@@ 1
επάγγελμα 1
θεμάτων 1
θεν@@ 1
μηδέν 1
Μπερν@@ 1
αίτηση 1
λαμπρ@@ 1
φαινόμενα 1
Παρα@@ 1
ελαφρώς 1
εμπορικές 1
ενισχυ@@ 1
μασ@@ 1
προφανώς 1
υιοθέτησε 1
φιλοσοφίας 1
el@@ 0.11225159790323369
επανεξελέγη 1
σημερινού 1
φαγ@@ 1
1866 0.7553449274594863
Δήμαρχος 1
ασίες 1
δίκαιο 1
εύς 1
οικο@@ 1
σημαντικότερο 1
χρονολογ@@ 1
Αιτωλ@@ 1
Παναθηναϊκού 1
κυπ@@ 1
τάσεις 1
υποψήφιοι 1
Γκο@@ 1
άχθηκε 1
ζώνης 1
κελ@@ 1
Play 1
αιναν 1
μορ@@ 1
νεκροταφείο 1
πτήσεις 1
1ου 1
Πεν@@ 1
αριστερή 1
ενώσεων 1
χιλι@@ 1
δείτε 1
εκλεγεί 1
θαλάσσια 1
φίλοι 1
χαρακτηριστική 1
Ιρλανδ@@ 1
Πάρκο 1
θεσης 1
προσωπικότητα 1
πωλ@@ 1
συνεργάτης 1
Παγκόσμιας 1
Χένρι 1
λεξ@@ 1
λόφου 1
σημαντικότερες 1
Αί@@ 1
Μόναχο 1
στροφ@@ 1
Βουρβόνων 1
Μόρ@@ 1
κόμ@@ 1
ορίζει 1
στρα@@ 1
ότα 1
It 0.0273763200758735
ΑΤ@@ 1
Διατ@@ 1
αδερφός 1
συν 1
Μάντσεστερ 1
άσι 1
στέφθηκε 1
Ιρλανδίας 1
Λαμπ@@ 1
Περιφερειακής 1
αδελφούς 1
πάντοτε 1
πειρα@@ 1
ρια 1
Έγραψε 1
μουσικούς 1
τάς 1
φάρμακο 1
1894 0.736200604609475
Ναβ@@ 1
Σταθμός 1
διαλύ@@ 1
παλαιότερο 1
σχόλια 1
διακοπή 1
κατάλληλη 1
πύργος 1
ρυθμού 1
επιστολές 1
ηματο@@ 1
τεράστιο 1
Εισ@@ 1
Χω@@ 1
δυσκολ@@ 1
κατανόηση 1
σχηματίζοντας 1
υποστηρίξει 1
Συμφωνία 1
εγκρίθηκε 1
μνήμης 1
συνέπειες 1
τζο 1
1879 0.8648719761662594
Αεροπορίας 1
Αυλή 1
Χίλ@@ 1
εξαιρετική 1
ροής 1
στρο@@ 1
τέτοιες 1
τιά 1
Οσ@@ 1
Σερβ@@ 1
Συλλόγου 1
ιδιω@@ 1
Γρηγόριος 1
ένια 1
καταρ@@ 1
κλίση 1
2,5 1
Βέλ@@ 1
Συγ@@ 1
βάσης 1
μεγαλύτερου 1
μους 1
ύτερο 1
Αγωνίστηκε 1
δισκ@@ 1
πολλαπλ@@ 1
προσωπικού 1
ωνικές 1
Δρά@@ 1
Τηλε@@ 1
λογισμικού 1
12ο 1
Γάλλο 1
σερβικά 1
γιορτή 1
Παγκόσμιου 1
βασισμένο 1
σταϊν 1
χτυπ@@ 1
ψηλ@@ 1
επιθετικός 1
μόρφωση 1
περ. 1
πιστοποι@@ 1
επιτρέπουν 1
καλαθοσφαιριστής 1
ράφ@@ 1
σχηματίζεται 1
τυφλ@@ 1
καθυστερ@@ 1
λεγόμενη 1
μύθο 1
πεδιάδα 1
διοργανώθηκε 1
κοι 1
τέκνο 1
In@@ 0.18452472887721894
βολής 1
οργάνωσε 1
χημικό 1
Δυνάμεις 1
Στρατός 1
έντι 1
διαν@@ 1
καταλαμβάνει 1
κρύ@@ 1
παρέμβαση 1
Λόρ@@ 1
γίνονταν 1
κατασκευές 1
χαρντ 1
15ου 1
Κορέας 1
αποικίες 1
και@@ 1
πρακτικές 1
προερχ@@ 1
De 0.1240344762874889
αλληλ@@ 1
ανθρώπινης 1
απεικονίζεται 1
Εργάστηκε 1
Τρεις 1
παρουσιάζονται 1
σιγά 1
αναπτύξει 1
αστικών 1
επιχείρησης 1
οδηγώντας 1
παραλλαγή 1
πολιτισμός 1
ότητάς 1
CE 1
Στιούαρτ 1
δό@@ 1
κινδύνου 1
κριτήρια 1
ντελ 1
οφόρα 1
συνέ@@ 1
τιση 1
φου 1
Πετρούπολη 1
νωση 1
παίρνοντας 1
σχεδίασε 1
Κάποια 1
Λαϊκό 1
αλλαγής 1
διεξαγωγής 1
μαθηματικών 1
διαταραχή 1
δραστηριότητας 1
ολοκληρωθεί 1
πρι@@ 1
πρωτότοκος 1
στρατηγ@@ 1
χαρακτηρίστηκε 1
2ος 1
Ημέρα 1
βέβαια 1
δίπλωμα 1
δωρεάν 1
σκληρή 1
φτωχ@@ 1
νικ 1
πέμπτο 1
συνεργαστεί 1
φυλακίστηκε 1
όντ@@ 1
Ch@@ 0.1476608454548756
Λιβ@@ 1
ελεύθερος 1
μετάδοση 1
Σπάρτη 1
ήματά 1
ματς 1
Γκραν 1
Χουάν 1
έντονο 1
ανε@@ 1
εκδοχές 1
Ιστο@@ 1
Πολων@@ 1
κατοικούσαν 1
Hot 0.6833908174461073
αναρ@@ 1
ζεύγος 1
νομοθεσία 1
σεξουαλική 1
ψυχή 1
παίζουν 1
τμημάτων 1
ύτερη 1
Βορρά 1
αστικού 1
λαμβάνεται 1
Γκραντ 1
Κρέ@@ 1
Νότιο 1
Χρον@@ 1
άντρα 1
απασχολ@@ 1
διακυβέρνηση 1
θερμοκρασίας 1
οξυγόνο 1
Ανθ@@ 1
Ολ@@ 1
δίδ@@ 1
καλύτερος 1
κορυφές 1
πυρκαγιά 1
Ηλίας 1
γυμνάσιο 1
κουλτούρα 1
προορισμό 1
σχήματος 1
ωδία 1
ιμο 1
Μαρτ@@ 1
Μονα@@ 1
γαρ@@ 1
κοιλι@@ 1
σημειώθηκε 1
ar 0.07870900246548554
Λουίζα 1
ιμος 1
ινού 1
κεντρ@@ 1
τραγ@@ 1
Ιστορική 1
Ουίλιαμ 1
ετούς 1
ληφθεί 1
πάρ@@ 1
Έλληνα 1
Διαδ@@ 1
κομμάτων 1
μπαράζ 1
σχολές 1
} 0.7949116717723506
Αιγ@@ 1
επίκεντρο 1
τίθεται 1
σχηματ@@ 1
ταξι@@ 1
Ξάνθης 1
αποφ@@ 1
διακρίνεται 1
διαρκεί 1
διαστήματα 1
στά 1
τίν 1
Σατ@@ 1
δίν@@ 1
ευόταν 1
ηλεκτρ@@ 1
ημένης 1
υποψηφιότητες 1
Αμερικανική 1
ηχογράφηση 1
ιδιωτική 1
περνά 1
ΕΡ@@ 1
ηθική 1
χημικά 1
χρηματοδότηση 1
χώροι 1
διού 1
μοίρα 1
νερ@@ 1
νότιας 1
οποιείται 1
ταχύτητας 1
φυγ@@ 1
χαρακτηρίζονται 1
χριστιαν@@ 1
κυμαίνεται 1
Αλβαν@@ 1
ΕΡΤ 1
αδερφό 1
αντίστασης 1
ετής 1
κερδίζει 1
μετέβη 1
οξυγόνου 1
συνταγ@@ 1
ωκε@@ 1
census 0.36909291204167916
διαπ@@ 1
κατόρθωσε 1
ορισμού 1
σταυ@@ 1
1892 0.7107618676972173
Γκάρ@@ 1
απαραίτητη 1
πνευματική 1
School 0.09092037363661946
Σαρλ 1
hous 1
­ 1
Αρά@@ 1
Εύβοιας 1
Σολ@@ 1
γραφές 1
κριτικούς 1
τισε 1
National 0.0754445801988963
επίσκεψη 1
μοιρα@@ 1
ξεκινάει 1
πάπας 1
www.statistics.gr 1
Αξιοθέατα 1
Πέρα 1
γά@@ 1
χυ@@ 1
Νίκο 1
Πλατ@@ 1
άλβεδό 1
έλθει 1
ανάδειξη 1
αναγκα@@ 1
βη@@ 1
όλια 1
.Το 1
άλε 1
ίνει 1
θεωρούσαν 1
κίτρινο 1
ρινή 1
όνους 1
Mar@@ 0.14589024715068064
Ονομασία 1
οργανισμών 1
περιεχομένου 1
χειρουργ@@ 1
Βρετανοί 1
Ναζ@@ 1
αγωνιστικές 1
εύρος 1
οχυρω@@ 1
προσφύγων 1
ψυχρ@@ 1
Γουλιέλμο 1
Δεύτερη 1
αναρχ@@ 1
διακρι@@ 1
εθ 1
πρωταγωνιστές 1
ριακής 1
βιομηχανική 1
είσοδος 1
εκτιμήσεις 1
κυβέρνησε 1
σταφ@@ 1
έμ 1
ανατολικές 1
ολυμπιονίκης 1
συνεχείς 1
τέλους 1
Σέλ@@ 1
διπλωματ@@ 1
ενδ@@ 1
σος 1
Μάρκο 1
αρμον@@ 1
μαρτυ@@ 1
νών 1
αρχιτέκτονας 1
ουελ 1
πληγ@@ 1
Αλή 1
επεξεργασίας 1
ολόγο 1
ποντας 1
άλλης 1
δημόσιες 1
ταρ 1
χο@@ 1
χρυσού 1
ύτερα 1
αναγκάστηκαν 1
διάδοση 1
πιστεύει 1
ΕΤ@@ 1
γραμμ@@ 1
διατηρήθηκε 1
δραστηριοτήτων 1
ρούσαν 1
έλο 1
κρέας 1
φέρονται 1
φυγή 1
Δομ@@ 1
Νίκαιας 1
Χάιν@@ 1
ρης 1
τραγουδ@@ 1
υποδηλώνει 1
μετατροπή 1
τωση 1
Σοφίας 1
ακτινοβολία 1
αμιν@@ 1
αρκετών 1
διαγωνισμού 1
φωτογραφ@@ 1
Λαϊκή 1
προσφέρουν 1
στηρι@@ 1
φυσ@@ 1
ίδιοι 1
ξενοδοχείο 1
ούπολη 1
χάρτη 1
επίσκοπο 1
μαύρη 1
διαφέρουν 1
ενδιαφέροντος 1
θν@@ 1
ξεχωριστά 1
υποχρεω@@ 1
Γενικού 1
ολική 1
ολοκληρω@@ 1
ρομαν@@ 1
Ιουδ@@ 1
Πρωταθλητής 1
αγρότες 1
ημά 1
αεροσκαφών 1
βλάστηση 1
δικού 1
θηλυκά 1
στέγ@@ 1
διαφέρει 1
εργασιών 1
Ερζεγοβίνης 1
Μάλ@@ 1
απαραίτητα 1
κατηγορού@@ 1
Νιού@@ 1
Πολύ 1
Πρωτεύουσα 1
περσ@@ 1
σύγκ@@ 1
τευσε 1
φτάνουν 1
γνωρίζουμε 1
γνώσεις 1
ρίζουν 1
4ου 1
Ήλιο 1
Βιετνάμ 1
Βοσνία 1
μαζική 1
παρασκευ@@ 1
Μπακ@@ 1
Τράπεζας 1
αρσενικά 1
προτιμ@@ 1
id 0.3807432691955565
Ράιν@@ 1
εσωτερικά 1
οντο@@ 1
σακ@@ 1
στεφ@@ 1
φαλ@@ 1
1871 0.7480714441991314
Hall 0.23983407507372154
Συμβ@@ 1
ακολουθία 1
ανθρακ@@ 1
αφηγ@@ 1
θήκη 1
σκην@@ 1
Πρε@@ 1
βασαν@@ 1
γράφοντας 1
διεξάγεται 1
εκστρατείες 1
Microsoft 0.9691143030951205
άρχου 1
γα 1
7ο 1
αδελφοί 1
4.000 1
ίωσης 1
σύνθετος 1
Ευρω@@ 1
Τορ@@ 1
άλων 1
διαχείρισης 1
κατευθυν@@ 1
απαραίτητο 1
ευμένη 1
κινείται 1
τεται 1
ωναν 1
Νιου 1
Πλά@@ 1
κόλπου 1
Κιέβου 1
Τρε@@ 1
Φυσικής 1
δικούς 1
μπάλα 1
σετ 1
τούνται 1
ώρας 1
ολι@@ 1
περιφερειακής 1
Μουσική 1
αερίων 1
κατάλληλο 1
χλω@@ 1
Θερινούς 1
ΚΟ@@ 1
ήτρια 1
ασμένος 1
λί 1
Απολλ@@ 1
άντο 1
αμφισβη@@ 1
ιδρυτικό 1
κινουμένων 1
κύμα 1
μέθοδοι 1
ρεαλ@@ 1
σκόραρε 1
συνεχεία 1
χών 1
Σταυροφορία 1
ανακοίνωση 1
ασφάλειας 1
τηρ@@ 1
τιμωρ@@ 1
φαρμάκων 1
Χατζη@@ 1
πουν 1
καλύ@@ 1
κατηγορήθηκε 1
ποσ@@ 1
ρόλου 1
Άμστερνταμ 1
Βελιγραδίου 1
Σίν@@ 1
Σχολείο 1
δράμα 1
πολεμικές 1
στροφή 1
υση 1
Μουσικής 1
ειακών 1
υπογράψει 1
Αδελφ@@ 1
δοξ@@ 1
προκάλεσαν 1
al@@ 0.100213961543483
ισοπαλία 1
παλι@@ 1
ποια 1
Βασιλικής 1
Φύ@@ 1
δημιουργείται 1
μασε 1
UNESCO 1
Γιώργου 1
αμε 1
ημένου 1
πλακ@@ 1
συγκεντρώσει 1
Μαυροβουνίου 1
εκατομμύριο 1
ομαλ@@ 1
συμμαχ@@ 1
χρήσεις 1
ψάρια 1
Ντελ@@ 1
αξίες 1
βοηθη@@ 1
διαθέσιμο 1
ινς 1
πέν@@ 1
πέφτει 1
παλαιό 1
14ου 1
Γραμματέας 1
αυξηθεί 1
πλεονέκτημα 1
σώ@@ 1
τηρίων 1
φωτογραφία 1
on@@ 0.1284975847007927
Μολδαβίας 1
Ρίο 1
δίων 1
κάτο@@ 1
νησ@@ 1
νικητές 1
κυρία 1
Κέρδισε 1
εκτοξ@@ 1
ισι 1
τία 1
έννοιες 1
αντάρτες 1
πλατφόρμα 1
γων@@ 1
εταιρίας 1
παραιτηθεί 1
Νί@@ 1
Χαμ@@ 1
έστερη 1
διαφημ@@ 1
ελκυ@@ 1
εντρ@@ 1
ιώτης 1
μεταρρύθμιση 1
ουσίας 1
προσεγγ@@ 1
ύπ@@ 1
1893 0.6739301822882484
ήτης 1
ενταχθεί 1
ναυτικό 1
νευρο@@ 1
πτέρυγα 1
1822 1
Γάλλων 1
αντλ@@ 1
κάτοχος 1
συζητήσεις 1
ωμένων 1
όου 1
άρου 1
1888 0.713728126605831
απόκτηση 1
ιώτη 1
σί 1
σταθερό 1
ωτά 1
CO@@ 0.921029389847923
f@@ 0.11879232235563333
Βοημίας 1
Βρα@@ 1
Σομ@@ 1
αί 1
κάπως 1
κέν@@ 1
κυβ@@ 1
πων 1
φή 1
Αιγάλεω 1
ανταλλ@@ 1
θεώρημα 1
στόμα 1
Πλατεία 1
ερχ@@ 1
ιτζ@@ 1
ναι 1
τελικούς 1
χες 1
χριστιανική 1
Βίν@@ 1
λογισμικό 1
Όσον 1
αποτελεσματική 1
Φλωρεντία 1
επιλογής 1
κέρ@@ 1
λέξης 1
υποχρεώσεις 1
χρε@@ 1
Γύρω 1
Λύκειο 1
αρχαιότητας 1
αστέρια 1
βασίλισσας 1
βρετανικό 1
δισκογραφική 1
πλά@@ 1
εξελίξεις 1
ισλαμ@@ 1
Jean 0.14818827437782256
Super 0.40361166951488137
Δημοκρατικού 1
άσκ@@ 1
γραμμένο 1
εξερευν@@ 1
900 1
Στάν@@ 1
Τεν@@ 1
ηδες 1
σκα@@ 1
ήρωας 1
εγκατασταθεί 1
μετανάστευση 1
μπέ@@ 1
ολόγ@@ 1
παντρ@@ 1
αποκτά 1
γνώριζε 1
θμ@@ 1
καταφέρνει 1
κρατήσει 1
στηρίζεται 1
ωνικά 1
1884 0.7561524180264487
Γιουνάιτεντ 1
Ράν@@ 1
αθλητικό 1
διοικητικές 1
ποσοστά 1
Ελβετίας 1
Μωάμεθ 1
ακριβ@@ 1
επιδόσεις 1
ηλικιω@@ 1
ρικών 1
ανικής 1
μελέτης 1
πεί@@ 1
περ 1
110 0.9355803800204413
7η 1
van 0.3278685237323043
ΝΑΤΟ 1
μπε 1
Μίν@@ 1
πολις 1
σόλο 1
Ανατολικό 1
Ανζού 1
ποιος 1
χαμηλό 1
Λευκ@@ 1
έγραφε 1
θρησκευτικό 1
ικόν 1
πραγματοποι@@ 1
σοβιετική 1
Σοσιαλ@@ 1
Τό@@ 1
διαταγή 1
μοντέλου 1
πόρων 1
Μάρκος 1
Μαξ 1
Χόλσταϊν 1
ίδρυσης 1
σκοτ@@ 1
άζονταν 1
τευση 1
τλ@@ 1
or@@ 0.12011867225422586
Βιρτζίνια 1
Γκον@@ 1
άνοντας 1
διοργάνωσε 1
στείλει 1
στρια 1
στρώματα 1
ένταξη 1
διορ@@ 1
σόου 1
τίτλου 1
Καίσαρα 1
διάσημος 1
κεντρικός 1
πληθυσμοί 1
υρο 1
Βρ@@ 1
Εθν@@ 1
Λιμ@@ 1
βάλλει 1
νόμ@@ 1
Αεροδρόμιο 1
άμυνας 1
ατικού 1
εκάστοτε 1
μετακιν@@ 1
ναλ@@ 1
ούκ 1
υδρογόνο 1
ανεβ@@ 1
σχολείου 1
Νέου 1
Ρος 1
λοβ@@ 1
ποπ 1
υπόλοιπους 1
Ασι@@ 1
γύρος 1
επιστημονικά 1
προωθ@@ 1
συμφωνίας 1
φιλελεύθερ@@ 1
Αμερικανίδα 1
οροσειρά 1
τισης 1
άδι 1
αραβ@@ 1
βουνού 1
μείγμα 1
συμπεριφοράς 1
Ρώσοι 1
εκτελ@@ 1
μονάδων 1
τραυματίστηκε 1
φου@@ 1
Λέσβου 1
έγκριση 1
απαγόρευση 1
ογκ@@ 1
παρότι 1
τισσα 1
University 0.05517301771695819
Υπόθεση 1
δυναμική 1
εθνικού 1
ηκαν 1
προσωπικότητες 1
σημαντικότερους 1
αστρονομ@@ 1
βραβεύτηκε 1
ελαφ@@ 1
ηφ@@ 1
κτισμένο 1
παρόμοιες 1
συνηθ@@ 1
όβι@@ 1
1ος 1
έφσκι 1
πρα 1
διάσπαση 1
κατασκεύασε 1
λίου 1
φοιτη@@ 1
χε 1
King 0.1794460816788606
εδρών 1
νώ@@ 1
στης 1
Αποτελείται 1
ευαίσθη@@ 1
ια@@ 1
μειωθεί 1
μετονομ@@ 1
μεταφορ@@ 1
Κουν@@ 1
Νίκου 1
βόρειας 1
δημοτικής 1
επέ@@ 1
οδηγούν 1
ούλης 1
σχετικές 1
κυν@@ 1
μοναχός 1
πόρους 1
ριακών 1
ρικού 1
Κοντά 1
Φρανσίσκο 1
ιερείς 1
κουρ@@ 1
λεν 1
περισσότερη 1
πρωταθλητή 1
1867 0.7879963076155554
Citroën 1
μένουν 1
Οθωμανών 1
Χρησιμ@@ 1
ζήσει 1
μεθαν@@ 1
ταξινόμηση 1
τημα 1
Βιλ@@ 1
Νταν@@ 1
υπν@@ 1
Αναγέννησης 1
στηκε 1
βγ@@ 1
εξίσου 1
κοντινή 1
στρατιωτικά 1
Λιθου@@ 1
αρτη@@ 1
βομβαρδι@@ 1
κρίσης 1
μαρτυρίες 1
προέρχονταν 1
FIFA 0.9304623325731359
Ηράκλειο 1
Νικολ@@ 1
Ντέιβις 1
Στέφανο 1
αποκλ@@ 1
δυτικές 1
φιλντ 1
χημικών 1
Ισπαν@@ 1
Μπάν@@ 1
ειν@@ 1
ενμπουργκ 1
25@@ 1
Ζου@@ 1
Καθολική 1
γρ@@ 1
πολεμικό 1
φοίτησε 1
θρησκευτικά 1
ιππο@@ 1
οποιούνται 1
φυλακές 1
1886 0.713828114216882
Οδός 1
Φερδινάνδος 1
γραμμάτων 1
ευτές 1
ηλεκτρικό 1
Βιογραφικό 1
ίλλ@@ 1
ίοι 1
εγκεφαλ@@ 1
ετήσιο 1
νυν 1
πόδι 1
έλλα 1
έφυγαν 1
ανοιχ@@ 1
τείνουν 1
ύνει 1
αστέρων 1
ικο@@ 1
κοινοτήτων 1
περιστατικό 1
na 0.1274954862834702
θεό 1
ρεύματος 1
όπο@@ 1
όφωνο 1
1891 0.6666318782266029
ανο 1
βαφ@@ 1
νεκρούς 1
χαρακτη@@ 1
Μαρκ@@ 1
Τομ 1
δάκ@@ 1
εντολές 1
ηνός 1
νόσου 1
πέναλτι 1
ˈ@@ 1
Χέρμαν 1
ονικό 1
τσας 1
Ντό@@ 1
ζι 1
Εδουάρδου 1
κάλ@@ 1
καταγραφή 1
παραπ@@ 1
τυχαία 1
θηλυκό 1
ρικ 1
στρά@@ 1
τείχος 1
ύπαρξης 1
Club 0.14790253512617327
θρησκείας 1
σκηνής 1
ταλέντο 1
χειρόγραφα 1
εθ@@ 1
θιο 1
κοινων@@ 1
κτη@@ 1
κύματα 1
οδηγ@@ 1
ς@@ 1
σπουδάσει 1
υλο@@ 1
11ο 1
1500 0.898343463366685
κλάδου 1
προκρι@@ 1
πώληση 1
ξή 1
προστά@@ 1
en@@ 0.07051865412636299
Μπε@@ 1
διακρίθηκε 1
ηπειρωτική 1
πέτρα 1
ρίνη 1
οπαδοί 1
περιβαλλον@@ 1
χημεία 1
όκα 1
1864 0.7402579857890311
επιθε@@ 1
ημένοι 1
κλειστό 1
υπηρεσίας 1
οριστεί 1
αυξημένη 1
εκφρά@@ 1
Ούν@@ 1
Σπουδών 1
Τέξας 1
εκείνους 1
ισσας 1
τοπίο 1
Δικαιοσύνης 1
Καστοριάς 1
ατ 1
αυστ@@ 1
εικονογραφ@@ 1
ονα 1
προφορά 1
χαμηλ@@ 1
€ 1
ch@@ 0.08974793352315227
Βαλκάνια 1
Φα@@ 1
ήσαν 1
δώσουν 1
ελεύθερα 1
ονος 1
χαρακτήρισε 1
όξ@@ 1
Τόσο 1
γυμνα@@ 1
εκτεταμένη 1
κανάλια 1
ίτσας 1
οδο@@ 1
ριστεί 1
ψία 1
1840 0.9210096175658304
Βορ@@ 1
Μέλ@@ 1
18@@ 1
Δικα@@ 1
Εντούτοις 1
ίμων 1
τοπία 1
10.@@ 1
άκο 1
ετερ@@ 1
καθένας 1
κυνήγι 1
ωγ@@ 1
αντι 1
αφορούσε 1
γειτον@@ 1
δηλώνοντας 1
πείσει 1
1850 0.7685276239304415
Metal 1
Γραφείο 1
διεξ@@ 1
εθνο@@ 1
Π.χ. 1
Τζόουνς 1
αϊκ@@ 1
θορ@@ 1
οθωμανική 1
προετοιμασία 1
προηγούμενα 1
ραι@@ 1
ίκο 1
αδυναμία 1
καθοδήγηση 1
πέσει 1
συναισθ@@ 1
an@@ 0.07925920115568096
Δί@@ 1
Φ.@@ 1
αυθεν@@ 1
επεκ@@ 1
ισορροπία 1
Paul 0.14000356910606707
Q@@ 0.291688578822042
άσου 1
πολιτείες 1
σημειώνει 1
αντικαθιστώντας 1
αντικαταστήσει 1
δημιουργούν 1
διαπιστ@@ 1
ευρύτερης 1
μόρια 1
φροντίδα 1
Πάσχα 1
Σταυρού 1
ένοπλ@@ 1
αναμέτρηση 1
εδρ@@ 1
ευτικές 1
λης 1
λό@@ 1
πρωταγωνιστικό 1
0,0@@ 1
Δημήτριο 1
ανέγερση 1
λεγόμενο 1
τοντας 1
ώρ@@ 1
ήσι@@ 1
διοργαν@@ 1
κίνδυνος 1
κυκλο@@ 1
ουραν@@ 1
υψηλά 1
22@@ 1
εξοπλ@@ 1
κεφάλαιο 1
φι 1
Μαντ@@ 1
ίλη 1
απαντά 1
ασχοληθεί 1
βιν 1
κλε@@ 1
ϋ 1
Εκπαίδευση 1
Ιταλική 1
Σέν@@ 1
θεσμ@@ 1
κάθ@@ 1
περιορ@@ 1
ρής 1
ιερέα 1
ινές 1
πέρας 1
ρίδης 1
σφαγή 1
τερο 1
ηθοποιούς 1
πέθαναν 1
τοιχ@@ 1
Αλμπ@@ 1
Λακ@@ 1
έρια 1
πηδ@@ 1
1887 0.7026804662147536
Νομική 1
Πινακοθήκη 1
δημιουργήσουν 1
καταστράφηκαν 1
λείψανα 1
προειδ@@ 1
προσδι@@ 1
χαμ@@ 1
Ετυμολογία 1
απαντάται 1
κανένας 1
ξία 1
Αργεντινής 1
Πρώ@@ 1
άνεια 1
συνδε@@ 1
φεύγει 1
Θ. 1
ανγκ@@ 1
Ήδη 1
ατμ@@ 1
ονες 1
παράδοσης 1
Βόλ@@ 1
Γέν@@ 1
εγκληματ@@ 1
μοι@@ 1
οδηγούσε 1
συνταξι@@ 1
ΑΝ@@ 1
Φραντσέσκο 1
γραφεί 1
ισή 1
νό 1
ήγηση 1
ακριβή 1
θω@@ 1
θεατρική 1
ορχήστρα 1
παχ@@ 1
προστ@@ 1
σιμες 1
ed 0.05122677202610587
οζ@@ 1
παρουσίας 1
Y 0.4055620411060682
αδύνα@@ 1
βιβλιοθήκης 1
επέτρεπε 1
κρασί 1
James 0.14125524391341707
Τόκιο 1
έτης 1
μυστική 1
ογλου 1
προκρίθηκε 1
1882 0.7350719266029243
one 0.02398188089117584
Λορ@@ 1
άνουν 1
τραβ@@ 1
ότ 1
Κυβέρνησης 1
Μισ@@ 1
Τζόνσον 1
επιλεγ@@ 1
κεντρικά 1
μαγνη@@ 1
οκομ@@ 1
σημαντικούς 1
τήρες 1
φθάνει 1
Studios 0.774363164716078
διδάσκ@@ 1
διος 1
ενισχύ@@ 1
επαναστάτες 1
ισπαν@@ 1
ροσ@@ 1
τερματίζοντας 1
φιλανθρωπ@@ 1
Δεύτερο 1
μέταλλα 1
προγραμματισμού 1
πρόσφατη 1
συναντά 1
τίων 1
1833 1
βάλλουν 1
προνόμια 1
χειρουργική 1
χημ@@ 1
Έκτοτε 1
πολλαπλασι@@ 1
www.@@ 1
Πύργος 1
Χερ@@ 1
δηλώσεις 1
εισβολής 1
εξέ@@ 1
επιφάνειας 1
κλπ 1
μυθιστορήματα 1
παρατηρηθεί 1
χτηκε 1
Αττική 1
Ελευθερ@@ 1
ιδιοκτησίας 1
τιζ@@ 1
David 0.15166028640162268
in@@ 0.06202345047511094
αίους 1
ανάκτορο 1
αρμ@@ 1
επιτρέποντας 1
τελικώς 1
13ου 1
1883 0.7545049015864181
αξιώματα 1
οροφή 1
σκηνοθέτησε 1
στε 1
ωνικών 1
Τμήματος 1
βια 1
Δημοκρατ@@ 1
οδηγός 1
ούπολης 1
Παλαιά 1
Τοπική 1
γε@@ 1
εξακολουθούν 1
ναυτική 1
right 0.19543118671127918
Γκέρ@@ 1
Ιδρύματος 1
Χώρα 1
ηγεμόνα 1
ινα 1
κατσ@@ 1
περιστ@@ 1
χιον@@ 1
William 0.1295505877507951
μητρο@@ 1
Μάρκου 1
ελαφρά 1
μυθιστορήματος 1
χωρι@@ 1
Δικ@@ 1
Μ.@@ 1
ατομικό 1
γυναικείο 1
δεξί 1
εγκατέλειψαν 1
επισκοπή 1
μπιν 1
πρωτεΐνες 1
29@@ 1
Ζηλανδία 1
Νόρ@@ 1
βόρ@@ 1
ονγκ 1
στρω@@ 1
συγχων@@ 1
Πύλη 1
Ρεπουμπλικαν@@ 1
ανοιχτό 1
αυτονομία 1
διαταγές 1
ολυμπ@@ 1
παράλια 1
ρίζει 1
σπήλαιο 1
τεθεί 1
τησή 1
όριζε 1
Αποστολ@@ 1
άνα@@ 1
απεικον@@ 1
Δεδομένου 1
Μνημείο 1
έλια 1
δικαιοδοσία 1
εξωτερικά 1
ηλεκτρική 1
κοκ@@ 1
μιλ@@ 1
Όσο 1
Ανάπτυξης 1
Ρον 1
μεί 1
υψηλού 1
1,2 1
Βέρ@@ 1
γερμανικών 1
ολογίες 1
10ο 1
FIBA 1
αντισφαίρισης 1
αποφύγει 1
απρό@@ 1
οίκο 1
ολόγηση 1
1828 1
Πολωνοί 1
συνδυασμός 1
Πολι@@ 1
κακό 1
μεσαιωνική 1
ξέσπασμα 1
πραγμάτων 1
συνεισφορά 1
χώρων 1
Βοιωτίας 1
αποδοχή 1
δημοκρατ@@ 1
μιά 1
ολοκληρώσει 1
ύχ@@ 1
Συνεπώς 1
ανοιχτά 1
βοσκ@@ 1
δανεικός 1
μειώνεται 1
μμ@@ 1
ντέ@@ 1
ογραφική 1
συνθηκών 1
ταξ@@ 1
ήρων 1
βοηθήσουν 1
ιμη 1
περιφερ@@ 1
os 0.09009769319275536
Παιδ@@ 1
ένκο 1
παρόντος 1
χων 1
όβια 1
Χοσέ 1
επιβεβαίωσε 1
θεσμό 1
ιδιωτικό 1
καλύπτεται 1
ΗΣ 1
έψ@@ 1
εγκλήματα 1
κατέστρεψε 1
Έργα 1
αξιωματικούς 1
αφιερωμένη 1
χαλκού 1
όφιλ@@ 1
Γκαλ@@ 1
Λευκωσία 1
Σκοτ 1
Χέλ@@ 1
κατασκευαστεί 1
κρέ@@ 1
πλάκα 1
σχεδιασμός 1
τούνταν 1
Κρατικό 1
λέγ@@ 1
μπαρ@@ 1
πίστευαν 1
πούλησε 1
ωσ@@ 1
ισμάτων 1
συστατικό 1
φορολογ@@ 1
Αθηναίοι 1
Ναρ@@ 1
αστών 1
κλί@@ 1
νομοθε@@ 1
οικία 1
σχετικό 1
τυπική 1
φαγητό 1
Μπασ@@ 1
Παλλ@@ 1
άση 1
άτος 1
ευεργ@@ 1
τυλ@@ 1
1834 1
ka 0.19278754897378247
Έπαιξε 1
Αποφοίτησε 1
Τοπ@@ 1
άγνωστος 1
άλες 1
έντονες 1
ικοι 1
κληρονόμησε 1
κυτταρ@@ 1
Αντώνης 1
Πρεσβ@@ 1
Φάση 1
αγάλματα 1
αγρο@@ 1
αιτ@@ 1
επιμέρους 1
ορθόδοξ@@ 1
πλήρωμα 1
ωμένου 1
Βα@@ 1
Μιλάνου 1
Υψηλ@@ 1
ιδιοκτήτης 1
1877 0.7534079375276974
Βρετανούς 1
αστέρας 1
γενή 1
ιδρυτή 1
παρήγαγε 1
Κωνστ@@ 1
κηδεία 1
κόπ@@ 1
ντου@@ 1
ομολογ@@ 1
παρόμοι@@ 1
Κόλ@@ 1
Μισέλ 1
έκρινε 1
αντικατάσταση 1
βατ@@ 1
λεψε 1
Καρυ@@ 1
Μαρι@@ 1
Μπαρτσελόνα 1
Τρικάλων 1
είσ@@ 1
ούνι 1
ρεύματα 1
ρισμού 1
ψήφου 1
Σκι@@ 1
γεωγραφική 1
ολογείται 1
πύργο 1
σιδήρου 1
κοιμ@@ 1
μαλλιά 1
9ο 1
Οχ@@ 1
Πομ@@ 1
γαλλικού 1
ενήλικες 1
υλο 1
χτ@@ 1
χωριών 1
γεννημένη 1
ζύ@@ 1
υθ@@ 1
όσι@@ 1
Βικ@@ 1
Ζι@@ 1
προκαλείται 1
σαφώς 1
χής 1
χρειαζόταν 1
Διευθυντής 1
Παρέμεινε 1
ζητά 1
μεταφρά@@ 1
ντράμερ 1
1815 1
Ευρωλίγκα 1
Μπρι@@ 1
αιθαν@@ 1
κλασικό 1
Deep 1
IV 0.3075924859111314
αθλήτρια 1
ιανός 1
νυχτερ@@ 1
οσι@@ 1
ρωσικό 1
τοπικού 1
διακόσμηση 1
περιγράψει 1
τσον 1
ta 0.16112862414025292
Γουίν@@ 1
Κομμουν@@ 1
έκα@@ 1
εποπτεία 1
θεατρικά 1
κόν@@ 1
λιν@@ 1
ναυπηγ@@ 1
ούλη 1
ότα@@ 1
Όμιλο 1
Αρν@@ 1
Γκού@@ 1
Καθολ@@ 1
γυναικ@@ 1
δολοφονίας 1
ναούς 1
Βόρ@@ 1
Κάποιοι 1
καταγράφηκε 1
μάρ 1
μόριο 1
οργ@@ 1
Επομένως 1
τορες 1
Μιχάλης 1
έστειλαν 1
ήγησης 1
καταγραφεί 1
έκα 1
ανέθεσε 1
ανακοιν@@ 1
αρχικές 1
μαθητών 1
όμιλος 1
ΚΑ 1
άτσ@@ 1
αρνήθηκαν 1
ατύχημα 1
ετοι@@ 1
ξεχωριστό 1
φθορο@@ 1
ωθ@@ 1
Όθων 1
άο 1
θύμα 1
σοβαρ@@ 1
χτισμένο 1
εύσουν 1
παραδόθηκε 1
χάνοντας 1
ότερου 1
Αμερικανικό 1
αδρ@@ 1
αναφερ@@ 1
διατηρείται 1
μής 1
ΝΒΑ 1
ήρια 1
γαλλ@@ 1
γας 1
συνθε@@ 1
Κυκλοφόρησε 1
Φαλ@@ 1
ήμα 1
διαδέχτηκε 1
διαι@@ 1
ομοσπονδία 1
Χιλ@@ 1
γκαρντ 1
off 0.10596468693912582
Μανι@@ 1
βιομηχανίες 1
ιστορικού 1
ομαδ@@ 1
τέως 1
όρες 1
Φρειδερίκο 1
άγρια 1
αντιδρα@@ 1
ερημ@@ 1
θεν 1
3ος 1
Φραγκίσκου 1
αρχαίους 1
κειμένων 1
Channel 0.6909182667724431
Κατσ@@ 1
ίκας 1
γραπτά 1
εύρεση 1
ιφ@@ 1
κτιρίων 1
Χαν@@ 1
ρωση 1
σιδηρο@@ 1
τοποθετη@@ 1
φεμιν@@ 1
Cup 0.12866095544462192
Τζακ 1
εξουσίες 1
μοντ 1
συνεπ@@ 1
τελικού 1
φη 1
Life 0.2862215514078333
Χρησιμοποιείται 1
αμυντικός 1
αποδειχθεί 1
ημιτελ@@ 1
θησης 1
ιταλικό 1
καπ@@ 1
προπον@@ 1
μουσικών 1
Ναπολέων 1
ίση 1
μεταβολή 1
σημαντικ@@ 1
τουριστ@@ 1
000.000 1
Awards 0.249725558301558
Βαλκαν@@ 1
ίσεων 1
αδελφές 1
γραφικά 1
εκλέγεται 1
πλέ@@ 1
Ήπειρο 1
Μέλη 1
έθνος 1
ίασε 1
βου 1
χαμηλής 1
μπαρόκ 1
ούμενες 1
πραγματοποιηθεί 1
χερσονήσου 1
180 1
άγνωστα 1
λήμμα 1
ρολογ@@ 1
Κατοχής 1
Πού@@ 1
Πόντου 1
ασμένα 1
δήλωσαν 1
ητικός 1
προπαν@@ 1
απέσπασε 1
αστέρα 1
γεύση 1
δειν@@ 1
μακρο@@ 1
παρέδωσε 1
αφαίρεση 1
βέρ@@ 1
εμφύλιο 1
εξυπηρε@@ 1
ιο@@ 1
1861 0.6874121442051665
Βασίλη 1
Εικ@@ 1
ενιαίο 1
ηχογραφήθηκε 1
κρη@@ 1
σεισμό 1
1876 0.7023005113014482
Δυναστεία 1
Ιούλιος 1
Λέοντα 1
Σάμου 1
έρα@@ 1
λατιν@@ 1
φθηκαν 1
ύρου 1
αγγει@@ 1
διεκδίκησε 1
εφαρμογής 1
κόρ@@ 1
σημαντικών 1
τιέ 1
φιλία 1
Έχ@@ 1
Κάσ@@ 1
Κούρ@@ 1
Οθωμανοί 1
ζέ 1
καλύπτουν 1
οφόρο 1
ρίτης 1
φυλάκιση 1
ΑΕΠ 1
Βρετανός 1
Ελεύθερ@@ 1
μπαχ 1
ουα 1
οχής 1
φτερά 1
φωσφ@@ 1
έλης 1
γεμ@@ 1
εγκαθ@@ 1
εκδ@@ 1
πρά@@ 1
όσες 1
αΐ@@ 1
σπι@@ 1
Διαθέτει 1
επιτυχ@@ 1
κορίτσια 1
ομοσπονδιακ@@ 1
οργανισμοί 1
ψηφίστηκε 1
Βαν 1
Ιακώβου 1
ανάκ@@ 1
αρο@@ 1
δικών 1
επιλογές 1
Χονγκ 1
μνημ@@ 1
στρώμα 1
6.000 1
ina 0.15406220512756938
Αμβέρσα 1
Πρωταθλήματα 1
Συμμαχία 1
ειακής 1
μορι@@ 1
νεκρών 1
σαν@@ 1
Βιν@@ 1
Παραπομπές 1
αλυσίδα 1
ανθρώπινα 1
διαταραχές 1
εξωτερικού 1
λευκ@@ 1
μονομ@@ 1
νομιμ@@ 1
παράγοντα 1
τέλεια 1
er@@ 0.07139337823022222
επιζ@@ 1
οικονομ@@ 1
τήσουν 1
διατυπ@@ 1
καταγράφεται 1
μικρ@@ 1
χημικές 1
ωφ 1
αντιν@@ 1
αρσενικό 1
δέκατο 1
επιβάτες 1
ιδρύσει 1
φορτίο 1
ωτής 1
Διακρίσεις 1
ανησυχ@@ 1
Γαλλικά 1
Λατινική 1
ελάχιστη 1
νομός 1
ούρι 1
συγκεντρώσεις 1
Αρχι@@ 1
αρχηγού 1
Άσ@@ 1
Βενιζέλου 1
Μαυρο@@ 1
Πιερ 1
ανόδου 1
γρα@@ 1
εικόνας 1
τέθηκαν 1
Εμπ@@ 1
εκείνων 1
καλύτερους 1
μετάβαση 1
ογραφικά 1
προταθεί 1
ρίνης 1
χρονών 1
1875 0.7213090380173285
8ο 1
ήνων 1
εγγυ@@ 1
οχυρ@@ 1
πληρώσει 1
Βρεταν@@ 1
Βρετανικό 1
εναλλακτική 1
επιστημών 1
νεώ@@ 1
πρωτοπο@@ 1
φτερ@@ 1
ωνικός 1
Βαρσοβία 1
Διαγωνισμό 1
Ταξι@@ 1
βασιλέων 1
ιστορικής 1
ουρανό 1
συνοδεύ@@ 1
υποψήφιο 1
ωτές 1
τόνων 1
χρονη 1
1863 0.7009924714176835
Car@@ 0.180389341917162
Ανεξάρτη@@ 1
αποκάλυψε 1
βις 1
ευγενής 1
μετεγ@@ 1
φύλο 1
130 0.8792365834533293
Company 0.1829637462198696
Μπουλ@@ 1
Ορισμένοι 1
βορειοανατολική 1
μαρ 1
μεγαλύτερης 1
πέτρες 1
τεχνικής 1
γαλλ. 1
διαθέσιμα 1
ειδικ@@ 1
επαγγελματικά 1
καλλιτεχν@@ 1
σεξουαλ@@ 1
College 0.10668590293244008
Επαρχίας 1
Ομάδας 1
Ταν@@ 1
αξιοθέατα 1
επαναλαμβαν@@ 1
κληρονομιάς 1
μορφών 1
πληροφορία 1
προχωρήσει 1
τμ@@ 1
Τύπου 1
στενό 1
φυλε@@ 1
House 0.13112099310631636
Ορισμένες 1
ήτες 1
αιτι@@ 1
δεύτερ@@ 1
κοφ 1
λατ@@ 1
ρίζονταν 1
ρωμαϊκής 1
υπέγραψαν 1
Κωνσταντινουπόλεως 1
Ναού 1
Ουλ@@ 1
κοινο@@ 1
πεζικού 1
πλειονότητα 1
υδρα@@ 1
Λ. 1
Μπάλ@@ 1
Σλαβ@@ 1
ίκων 1
ζη@@ 1
ινγκεν 1
Δικαίου 1
Νάπολη 1
Οικονομ@@ 1
Χόλ@@ 1
απόκ@@ 1
διάφοροι 1
καλλιτεχνικό 1
κορίτσι 1
κρυσταλλ@@ 1
λιβ@@ 1
οχυρό 1
ρυθμός 1
Αμερικαν@@ 1
ίστας 1
διαδικτυ@@ 1
διοργανώνει 1
πολεμικά 1
πράγματι 1
ενσωματώθηκε 1
ιδρυ@@ 1
κυρ@@ 1
κόμισσα 1
πρωταθλημάτων 1
συγγραφέων 1
τεκμηρι@@ 1
Δυ@@ 1
Μεγ@@ 1
Ξεν@@ 1
ικων 1
1868 0.7154840820782941
αφήνει 1
σταση 1
έσει 1
πολυμερ@@ 1
συστη@@ 1
ωνικής 1
1825 1
Δε@@ 1
Σκοπός 1
άγιος 1
επιχειρηματίας 1
κρυπτο@@ 1
συνένωση 1
τικα 1
ωτικού 1
Αμμοχώστου 1
Κλά@@ 1
Κληρονομιάς 1
αποτυπ@@ 1
καθολική 1
κλασσ@@ 1
3,5 1
Βρετανικής 1
Κονγκ 1
αρχίζουν 1
περιβάλλεται 1
προστέθηκαν 1
Ανώτατο 1
άρχες 1
έγκλημα 1
αντικειμεν@@ 1
αϊκή 1
εκμετάλλευση 1
συναντήσει 1
τελειώνει 1
Θεσσαλία 1
μεί@@ 1
Re@@ 0.158591540956982
ica 0.24247366746034343
ακμή 1
εμφανίζει 1
επιδ@@ 1
επιδράσεις 1
ευγεν@@ 1
κανονικής 1
λέξεων 1
μεμον@@ 1
Robert 0.14007899338054033
έξοδα 1
αναπτύχθηκαν 1
ασημένιο 1
ινι@@ 1
προκρίθηκαν 1
υποστήριξης 1
5ου 1
Γαλλικό 1
Τζέ@@ 1
Φράγκων 1
διατηρούν 1
δωμάτια 1
καταργ@@ 1
ξένες 1
Μπράουν 1
αντες 1
διάσημη 1
ετική 1
δομής 1
απαι@@ 1
βάν 1
λιών 1
νεότερη 1
νεύ@@ 1
πάρουν 1
παράταση 1
ράβ@@ 1
Q 0.6500407649620038
Νομό 1
εγκαινιάστηκε 1
επιτρέπεται 1
εταιρειών 1
λεκάνη 1
πρόθεση 1
ρικές 1
Πειρα@@ 1
μπάντα 1
τριπλ@@ 1
φαι@@ 1
Μαίρη 1
αγν@@ 1
Πολιτικής 1
Χανς 1
θέν 1
λάδι 1
Βαρκελώνης 1
Μπάμπ@@ 1
Σάρ@@ 1
αυγά 1
γοτθ@@ 1
γραφίας 1
δούκισσα 1
μετακινήθηκε 1
ονομάζονταν 1
πτει 1
`@@ 1
Ομάδες 1
έλεγε 1
δρόμων 1
καιρ@@ 1
πύλες 1
ρίδιο 1
ώνυμα 1
3ου 1
Radio 0.2754800986664323
ΟΥ@@ 1
αυξάνει 1
ξένους 1
Ρωμαίος 1
ανάγκης 1
διατριβή 1
μεταβλ@@ 1
ομπ@@ 1
ποδοσφαιρικό 1
Παπαδ@@ 1
ανεκ@@ 1
δεχθεί 1
δραστηριοποιείται 1
εισέβαλε 1
ισθεί 1
παραμονής 1
Χωρίς 1
βουν@@ 1
εξέφρασε 1
εργαστήρια 1
εργοστάσια 1
καλλιέργειες 1
πλην 1
έθ@@ 1
καλύτερης 1
κουζίνα 1
πετ@@ 1
στιγ@@ 1
όπερας 1
Αερ@@ 1
Αρμεν@@ 1
Μπρί@@ 1
αισθητική 1
αντίγραφο 1
ηφαιστ@@ 1
Χριστιανοί 1
αντιπροσωπεύουν 1
αρκετό 1
βού@@ 1
γόν@@ 1
καταλάβουν 1
πολιτιστικό 1
σταθ@@ 1
υιοθετήθηκε 1
χειμερ@@ 1
Μονακό 1
Σλέσβιχ 1
άγος 1
ίαν 1
ελαι@@ 1
ενέκρινε 1
λεγόταν 1
οποιήθηκαν 1
παιδιού 1
Ισραηλ@@ 1
Νορ@@ 1
αναγ@@ 1
αστυνομίας 1
μητρική 1
στήριο 1
ότο 1
am 0.026688843333508537
by 0.0060838532010177885
Λεύ@@ 1
άρει 1
διατηρώντας 1
εύματα 1
ζωντανή 1
θαμ@@ 1
καμιά 1
κυβερνη@@ 1
ρισε 1
Πόλης 1
άντης 1
έντεκα 1
ελευθερίας 1
ενθουσι@@ 1
εσωτερικές 1
Χριστ@@ 1
απόσπασμα 1
πλαν@@ 1
τουρκ@@ 1
Ελε@@ 1
Τόμ@@ 1
ίκια 1
ασκεί 1
επηρεάζει 1
ζωγράφου 1
θεση 1
ισχυρίζεται 1
μοιάζουν 1
Πεζικού 1
έζ 1
επίδ@@ 1
καταστολή 1
Association 0.15869021698573677
Σιλ@@ 1
Χασ@@ 1
άλογα 1
ανοσ@@ 1
καρυ@@ 1
μαζικής 1
μαθαίνει 1
συνορι@@ 1
Αυτο@@ 1
Πάντως 1
Πρέ@@ 1
Τρίτη 1
άντη 1
ανατροπή 1
ανεμ@@ 1
αρνητική 1
είλει 1
καταλαμβάνοντας 1
μουσικές 1
παρατήρηση 1
συζητ@@ 1
χίλια 1
ωνυμ@@ 1
Grand 0.16454316302691152
ΕΑ 1
έιν 1
δηλητηρι@@ 1
επισκέφτηκε 1
ζονταν 1
ιερά 1
Καρδίτσας 1
Σμ@@ 1
άξ@@ 1
εφαρμόζεται 1
Σπάρτης 1
ετοιμ@@ 1
παιχνιδιών 1
σταδιοδρομίας 1
Κοπ@@ 1
Τσου@@ 1
δημοφιλείς 1
διάλεκτο 1
δοκιμα@@ 1
κλασικής 1
πολέμων 1
ποτάμι 1
στολ@@ 1
Μαυροβούνιο 1
Πυθ@@ 1
άριου 1
ητά 1
κεραμ@@ 1
συνέθεσε 1
υπουργό 1
χορήγηση 1
βορειο@@ 1
θεμέλια 1
καρδι@@ 1
μυρ@@ 1
οκρατίας 1
τίστηκε 1
Michael 0.16673705982326054
http 1
εντύπωση 1
επίτευξη 1
ηθοποιού 1
θησαυ@@ 1
προγραμμάτων 1
ρύθμιση 1
συντά@@ 1
φήμες 1
φρόν@@ 1
Ιππο@@ 1
εξοπλισμού 1
ευτής 1
ητός 1
ιστος 1
μεταγράφηκε 1
ράκης 1
σύνολα 1
χαμηλότερη 1
Μπολόνια 1
έτας 1
δυναμ@@ 1
τραχ@@ 1
8η 1
Ι.@@ 1
Περιλαμβάνει 1
σουλ@@ 1
ψηλά 1
Κινέζ@@ 1
Κύπρος 1
ενώπιον 1
ιέρ@@ 1
μονα 1
μόνων 1
σώσει 1
τελείως 1
Λέν@@ 1
Παλαιότερα 1
Φράν@@ 1
ακρα@@ 1
είχ@@ 1
θανά@@ 1
προσώπων 1
στου 1
τερος 1
1862 0.6680819519730806
1873 0.6916578092802065
Γερμανικής 1
ίστρια 1
διαδίκτυο 1
εκτελέσεις 1
ελέγχεται 1
κατάστημα 1
κατέστησε 1
λατινικό 1
τροφής 1
Βιβλίο 1
αρχείων 1
δήμων 1
διακυβέρνησης 1
εχθρούς 1
κόβ@@ 1
σελίδες 1
j 0.38383364430714684
Κλειστό 1
βη 1
επιτευχθεί 1
υσή 1
City 0.07867112896571422
it 0.013925935930099746
Ε.Σ.@@ 1
Να 1
Ροβέρτος 1
άγι@@ 1
αδέρφια 1
αναπληρωτής 1
κουλ@@ 1
λάβουν 1
ντο@@ 1
συνολικού 1
τετραγ@@ 1
τωρ 1
Πρί@@ 1
Ριχάρδος 1
άγνω@@ 1
αγγεία 1
αντιπολίτευση 1
αρίων 1
ρίσκ@@ 1
τέρ 1
χρειάζονται 1
Κουλ@@ 1
Ονομ@@ 1
Παρασκευής 1
αυστη@@ 1
επιστημονικό 1
Air 0.18240015910110896
ΚΕ 1
αγροτικές 1
δεσμεύ@@ 1
πρόκριση 1
Ζή@@ 1
Νορμαν@@ 1
τρε@@ 1
θεσμού 1
ιταλικής 1
μαντ@@ 1
νόημα 1
ολιγ@@ 1
ορφαν@@ 1
σημειωθεί 1
φεουδ@@ 1
χώρι 1
Διοικ@@ 1
Χρυσό 1
αγωγών 1
κρυφά 1
πειραματ@@ 1
συλλογ@@ 1
Πρίγκιπας 1
βαση 1
γνώσης 1
γύρισε 1
διδασκαλίας 1
δισ@@ 1
ειου 1
επιρροής 1
ερμηνείες 1
κερ 1
μόνιμους 1
παραδοσιακές 1
ποιητές 1
προϋπόθεση 1
Διαφ@@ 1
δημιουργός 1
κεντρικού 1
ξεως 1
σπιτιού 1
σύμπλεγμα 1
τοίχο 1
Κοσ@@ 1
Σωματείων 1
έπαιξαν 1
αμοιβ@@ 1
απόλυ@@ 1
βιβλι@@ 1
εκκλησιαστική 1
ιστό 1
κρεμ@@ 1
προσανατολ@@ 1
km 0.06414354373897237
Πιέρ 1
γεννη@@ 1
ευμένο 1
ημιτελικά 1
οικογενειών 1
ουλα 1
παραγωγές 1
σωστή 1
Επαναστατ@@ 1
Ζά@@ 1
Συνταγ@@ 1
βαθμολογίας 1
διατάξεις 1
ευρωπαϊκών 1
κανονικό 1
κεφαλή 1
μόδας 1
Group 0.18679312697251255
οικογεν@@ 1
σίες 1
τελευταίας 1
1800 0.8439443137676875
Νοσοκομείο 1
οδομ@@ 1
ρικός 1
συναρτήσεις 1
σύνταξη 1
χάνει 1
Αχαι@@ 1
άγεται 1
δυνα@@ 1
συμμάχους 1
υποτροφία 1
Συνέλευσης 1
ισχυρές 1
μεταβ@@ 1
ομο@@ 1
τσου 1
υπέστησαν 1
όμαστε 1
ώνιος 1
Επιχείρηση 1
Στρατιωτική 1
αδερφ@@ 1
ιερ 1
κόμικς 1
λαών 1
μαθη@@ 1
πρακτικά 1
σκόπ@@ 1
φύλου 1
Έθελ@@ 1
γκο@@ 1
εκείνοι 1
κατέκτησαν 1
παραχωρήθηκε 1
σαφές 1
σεναριογράφος 1
τρέχ@@ 1
χωρίζονται 1
Βρυξέλλες 1
αρχαίοι 1
γάλα 1
γυρίστηκε 1
οντα@@ 1
ουχ@@ 1
συνεν@@ 1
Κυβερνήτης 1
Κυν@@ 1
Μπρο@@ 1
Φόρ@@ 1
γραμμών 1
ευρωπαϊκά 1
ξεχ@@ 1
πειράματα 1
πηγών 1
1836 1
Λάρισα 1
Φθιώτιδας 1
Φλόριντα 1
απομάκρυνση 1
εκπαιδευτικό 1
επαφές 1
συνελήφθησαν 1
An@@ 0.10209719046806347
Βυζάντιο 1
Ελβ@@ 1
βλάβη 1
διαδοχικά 1
κλινική 1
προσχώρησε 1
Αικατερίνης 1
Αρσ@@ 1
Μυρ@@ 1
Φερδινάνδου 1
Φυλ@@ 1
έξυπ@@ 1
αιο 1
απόγονοι 1
γματα 1
εκκλησι@@ 1
εξηγεί 1
προσπαθούν 1
συμφωνίες 1
Αντρ@@ 1
Ηγ@@ 1
Στί@@ 1
Τουρκοκρατίας 1
Χο@@ 1
αεροπορική 1
αποσυρθεί 1
πόνο 1
σύρ@@ 1
τεχνικών 1
Στε@@ 1
έστω 1
αγόρι 1
δυσκολία 1
λω@@ 1
παλαιότερες 1
πυρι@@ 1
συμφέροντα 1
όσια 1
Άγγελος 1
Καβ@@ 1
Το@@ 1
διάλυμα 1
διαδηλώσεις 1
ευτικής 1
θέματος 1
θηλυκ@@ 1
ιαπωνική 1
λιση 1
προήχθη 1
τόπους 1
ύκ@@ 1
ΣΚ 1
διασπ@@ 1
θέτοντας 1
μάθει 1
ριοι 1
ς. 1
1ης 1
Con@@ 0.16999502347836828
Αριστοτέλη 1
Βυζαντινών 1
Συνορεύει 1
δράσεις 1
ενιαία 1
λάμβανε 1
ξηρά 1
ορού@@ 1
όγκου 1
Πέντε 1
ατικός 1
1826 1
Αμφ@@ 1
Βουλγαρ@@ 1
προοδευ@@ 1
ρίζοντας 1
φρε@@ 1
1869 0.7227437803570785
βοηθά 1
πρωταγωνιστή 1
σει@@ 1
Καρα@@ 1
ίτο 1
ομό@@ 1
πυρο@@ 1
συμπληρω@@ 1
τρας 1
ψύ@@ 1
Ιωάννου 1
Κεφαλ@@ 1
Λιθουανία 1
ήφ@@ 1
ανέλαβαν 1
κακο@@ 1
περιορι@@ 1
πλάτη 1
μετέφεραν 1
μουσικοί 1
παρακολούθηση 1
τελετουργ@@ 1
τρόπαιο 1
αντίστοιχ@@ 1
ευτή 1
προσπαθώντας 1
σύγχυση 1
φιλμ 1
όπολη 1
UEFA 0.6715046240548961
Ντόναλντ 1
Φόρμουλα 1
αγορα@@ 1
αντιμετωπίζει 1
διασφαλ@@ 1
πας 1
στιγμές 1
ται@@ 1
φόβο 1
Φινλανδίας 1
αναγνωρισ@@ 1
ανεπαρκ@@ 1
αξιολογ@@ 1
καταστροφ@@ 1
οριστική 1
πε 1
τυπικό 1
φοι@@ 1
έγι@@ 1
διχ@@ 1
κάποιων 1
κοινής 1
περιορισμό 1
συγγεν@@ 1
Οργανισμός 1
Πράγματι 1
Τρά@@ 1
διαδοχής 1
μεταναστών 1
μόνα 1
σον@@ 1
τζιο 1
υπουργού 1
χρονος 1
Διοίκησης 1
ηματικά 1
καλεί 1
κωμική 1
συνοδεία 1
τιους 1
αποδεκτή 1
αυξανόμενη 1
καρδιακ@@ 1
συμβολίζει 1
θεσε 1
συνεχόμενη 1
with 0.00576770438113117
Στεφαν@@ 1
Φού@@ 1
αφήγηση 1
βιβλιοθήκες 1
διαρκ@@ 1
εκλέγονται 1
εκφρα@@ 1
θεωρώντας 1
πλασ@@ 1
πρωταγων@@ 1
συνεχόμενες 1
Επιπρόσθετα 1
Θεω@@ 1
Μπιλ 1
αναμένεται 1
αποκαλύφθηκε 1
αποστάσεις 1
ασθενών 1
λαμβάνονται 1
λογικής 1
τάξεως 1
ϊκή 1
Αρχαιολογικό 1
Κρατ@@ 1
Ολυμπιάδα 1
μεταφορές 1
πολιτικοί 1
ταυτ@@ 1
φος 1
χορό 1
χρόν@@ 1
ότυπο 1
Κακ@@ 1
Κρις 1
Μαρί 1
Πρέβεζας 1
ίως 1
αρχικής 1
αφρικαν@@ 1
ευρύτερα 1
Γκρί@@ 1
Κέρ@@ 1
καθημερινά 1
κινη@@ 1
σύμβαση 1
Ακολουθεί 1
Πετρούπολης 1
βιβλιογραφία 1
εξαφαν@@ 1
κτισμένη 1
υπονο@@ 1
1872 0.6787643975225071
Κριστ@@ 1
Νόμος 1
διεθνών 1
εμφάνισης 1
ενδεχομένως 1
πρωθυπουργία 1
τέλει 1
Αγώνα 1
ακαν@@ 1
αμερικανικής 1
επόμενης 1
λόγιος 1
πτέρυγες 1
Έργο 1
Ιλ@@ 1
Νίκη 1
Συμφ@@ 1
αποτελεσματικά 1
ιγι@@ 1
καλι@@ 1
μαρκ@@ 1
ναί 1
σεξ 1
συναντήθηκε 1
τζαμί 1
Φινλανδ@@ 1
άλογο 1
έσπασε 1
ακολουθ@@ 1
ανέφεραν 1
βαθμού 1
ινη 1
μπάσο 1
ούλι 1
πανελλήνιο 1
ποδηλ@@ 1
τράπεζα 1
Αυλ@@ 1
Βού@@ 1
επιτεθεί 1
καστ@@ 1
νόμων 1
πιέσεις 1
BMW 1
Εκδόσεις 1
Μη 1
ανάλυσης 1
ανν@@ 1
διαπραγματ@@ 1
κίτρι@@ 1
κλιν@@ 1
νικήτρια 1
ριστής 1
στήρι@@ 1
ΕΝ@@ 1
αφότου 1
εκπροσώπους 1
ελπίδα 1
κυριολεκτικά 1
μαυ@@ 1
τει 1
φον@@ 1
Αμερικανικής 1
Λεόν 1
Πιερ@@ 1
Φαίνεται 1
γή@@ 1
ερωμένη 1
καρκιν@@ 1
ολοκληρ@@ 1
ραϊκ@@ 1
τσαρ@@ 1
1865 0.6309903013563501
Purple 1
Σπύρος 1
έμβ@@ 1
πόρτα 1
ρίνα 1
συμμετέχοντες 1
συστηματική 1
1874 0.6692916845835237
ίστα 1
ανθρωπ@@ 1
ελέγχει 1
ευτυχ@@ 1
μεταφερθεί 1
πεθερ@@ 1
στάθηκε 1
συναντάται 1
Δημο@@ 1
Ευρωμπάσκετ 1
επαγγελματ@@ 1
έντο 1
αναφ@@ 1
ιατ@@ 1
ισχυ@@ 1
κατάλληλα 1
μουσουλμαν@@ 1
πή@@ 1
τηλεφ@@ 1
χαρακτηρίζει 1
Λουξεμβούργου 1
Πλα@@ 1
ασμένες 1
επίλυση 1
βρουν 1
διασχίζει 1
μεταφέρουν 1
ούχου 1
τελευταίων 1
τόμους 1
Μητρο@@ 1
Ρώσος 1
ένων 1
αξιολόγηση 1
0.@@ 0.46386663921214843
Entertainment 0.4888795645222628
Ωκεανό 1
χαν 1
Μοναστήρι 1
εκδότης 1
ιατρός 1
κέρδη 1
καθαρό 1
ρίς 1
top 0.13140759488529233
ανς 1
γραφικό 1
ινε 1
ροφ 1
St@@ 0.15246665839699985
Z 0.4205798066505934
Άμ@@ 1
Κολέγιο 1
έζα 1
αθλήματα 1
αρνητικά 1
κατηγόρησε 1
όμορφα 1
αποσπάσματα 1
ελεγχ@@ 1
πάγκο 1
συμφώνησαν 1
συχν@@ 1
Αιγυπτι@@ 1
Αμπελ@@ 1
Σκωτσέζ@@ 1
Σώματος 1
αναπαράσταση 1
επικεντρώνεται 1
λένε 1
προσκυν@@ 1
Αθλητικός 1
Ιερό 1
Ρομά 1
Σουλτάν 1
δαλ@@ 1
εννο@@ 1
ιδρύ@@ 1
φρέ@@ 1
El 0.025753319517884617
Γερμανικό 1
Κράτος 1
Λίβερπουλ 1
Μητροπολίτη 1
Φ. 1
ανατέθηκε 1
αντίστοιχες 1
βαρυ@@ 1
ερμήνευσε 1
μάς 1
τηγ@@ 1
30.000 1
Google 0.8510749489077397
Τσί@@ 1
διαμάχες 1
ιατρ@@ 1
καρδιακή 1
κύματος 1
τρίτου 1
φραγ@@ 1
ύλια 1
ol@@ 0.1266645205140232
αέρια 1
απόγευμα 1
βραχ@@ 1
μπος 1
ορκίστηκε 1
πλάκες 1
πολιτ@@ 1
συνθέτες 1
350 0.9593250033296487
Καλαβρύτων 1
Σέρβων 1
Φρί@@ 1
δεν@@ 1
ινες 1
λευκά 1
νήσου 1
ρίσουν 1
ψηφοφορίας 1
όγκος 1
ανώτερη 1
επαρχ@@ 1
πρώ@@ 1
σιου 1
τάγμα 1
φιλοξένησε 1
χώρισε 1
Κοσσυφοπεδίου 1
Τορίνο 1
Τρίπολης 1
καζ@@ 1
σημαντικότερη 1
συμμετέχοντας 1
συνοδ@@ 1
φορέας 1
Δω@@ 1
Πατριαρχείου 1
Σχε@@ 1
αστερισμό 1
ρωσικής 1
φορέα 1
Ορθ@@ 1
Πικ@@ 1
αποτελεσμάτων 1
αρχικού 1
αυτόνομη 1
εβραϊκή 1
κοπέλα 1
περνούσε 1
υγι@@ 1
Λουκά 1
Πρωταθλήτρια 1
δώρο 1
εξορ@@ 1
ώπ@@ 1
Charles 0.12554768960536147
έπεισε 1
αντίθετη 1
Ελλ@@ 1
αδελφής 1
αποκαλύπτει 1
τηλεφων@@ 1
υπουργείο 1
u@@ 0.14767938345379422
αναλύ@@ 1
ηγεμόνας 1
κριτικός 1
υποστήριξαν 1
χρονο 1
6ου 1
Μικρασι@@ 1
Ορλεάνης 1
ανοικ@@ 1
επαγγελματίες 1
ετία 1
ξεπέρασε 1
ριακά 1
στέρ@@ 1
τως 1
Σχεδόν 1
αρνη@@ 1
γνώ@@ 1
κτήσεις 1
κόστους 1
ντά@@ 1
ορφ@@ 1
σκέψης 1
τρι 1
φαίνονται 1
ata 0.2019251251164373
Διεθνείς 1
Κοζ@@ 1
Πτολεμαίος 1
ανικό 1
μενα 1
σωστά 1
υποστηρικτής 1
φιλικό 1
w@@ 0.12335333780263527
αίρεση 1
αγωνιστής 1
γερμανικού 1
γμα 1
δον@@ 1
ενώθηκε 1
ισσες 1
τονται 1
Πάλ@@ 1
αμος 1
αρο 1
γεωγραφικά 1
πενήντα 1
ωδίες 1
Άγγλους 1
ελικ@@ 1
επιστρέψουν 1
ευτικών 1
κτι@@ 1
πάγου 1
πυροβόλα 1
Ιμπραήμ 1
αναπνευ@@ 1
αντίγραφα 1
δουλ@@ 1
θετικό 1
θρησκευτικών 1
κιν 1
οξείδιο 1
παρακολουθ@@ 1
ταυτίζεται 1
υπάλληλος 1
χθούν 1
San 0.07040346703722977
Αιγαίο 1
ακτινοβολίας 1
εργαλείο 1
θεότητα 1
καλα@@ 1
μεσο@@ 1
ναρκωτικών 1
ομορφιά 1
παικτών 1
πειρατ@@ 1
τέταρτος 1
Παραδείγματα 1
αλίας 1
δούλ@@ 1
νου@@ 1
προστατ@@ 1
Μεθ@@ 1
Σκύ@@ 1
Φαν@@ 1
ίκου 1
αδελφών 1
γειτονική 1
διαιτη@@ 1
εξάπλωση 1
εργάζονται 1
μπερ 1
DC 0.5060783224243286
ers 0.06328757427419184
Δαβίδ 1
Μεδίκων 1
Στεφάνου 1
ανώτερο 1
δαπ@@ 1
κατατάχθηκε 1
κατευθύν@@ 1
μετείχαν 1
ση@@ 1
Young 0.3412846444011173
Βρανδεμβούργου 1
Ρεθύμνου 1
ήρωες 1
αναμ@@ 1
κατοχ@@ 1
κυρί@@ 1
Ασφαλείας 1
Γκό@@ 1
Κάρλος 1
έγραψαν 1
δημοτικότητα 1
δώρα 1
ιδα 1
οδος 1
τοποθετηθεί 1
γίν@@ 1
γελ@@ 1
ολόγοι 1
σκεπ@@ 1
τιστεί 1
τυχόν 1
Κομμουνιστικού 1
Πράσιν@@ 1
ηλεκτρικής 1
λευκή 1
νικήσει 1
προκύπτουν 1
τιμάται 1
Royal 0.14444292208099804
Μέσης 1
Ορθόδοξης 1
Ρω@@ 1
έρωτα 1
ίρι 1
αρχιεπίσκοπος 1
κυρίαρχη 1
ϊκ@@ 1
όργ@@ 1
Λαζ@@ 1
γνωστούς 1
Red 0.2237315810185193
Πυ@@ 1
αρχαίες 1
μαρτυρία 1
μοντέλων 1
πυρήνας 1
σκληρά 1
χαμηλά 1
1824 1
δ. 1
δίκ@@ 1
εγγεγραμ@@ 1
μιος 1
σερ 1
σχεδιασ@@ 1
χαρτί 1
ωβ@@ 1
ωτικών 1
όχημα 1
Εκλογές 1
Λάμ@@ 1
ανάδ@@ 1
ζώο 1
οπτικά 1
ωτικές 1
± 1
Αεροπορία 1
Κόσμου 1
αμερικανικού 1
ευρωπαϊκής 1
συντήρηση 1
Καποδίστρια 1
Ντον@@ 1
αναγνωρίζεται 1
κωμ@@ 1
λάν 1
πεποίθηση 1
Κοινοβουλευτική 1
ευρω@@ 1
ούδ@@ 1
πλοκή 1
πυρα@@ 1
ύβ@@ 1
Νάξου 1
ανιψιός 1
βάλλονται 1
κεφάλαια 1
λόγοι 1
συμπαγ@@ 1
συχνές 1
φτι@@ 1
όμα 1
όμορφ@@ 1
9η 1
Πατριαρχείο 1
Παύλο 1
Ροσ@@ 1
αρχαιολογικά 1
μορ 1
προδοσία 1
προσωνύμιο 1
συγκρο@@ 1
τελετές 1
υποστηρίζοντας 1
Sh@@ 0.16071068054404292
Πηγ@@ 1
περιφέρεται 1
όδια 1
Λυκ@@ 1
Πρι 1
Ράιχ 1
διατροφή 1
καθηγητές 1
κινηματογραφικές 1
φόρους 1
ie 0.11189285679343268
Γερουσίας 1
Κομμουνιστικό 1
Σάμ@@ 1
Χώρες 1
άντε@@ 1
ανταπο@@ 1
αποσπάστηκε 1
επιστημονικές 1
ιτσα 1
κάστρα 1
κατέγραψε 1
μιμ@@ 1
ναοί 1
οφόρος 1
πεθαίνει 1
τούρα 1
10η 1
Ελένης 1
Ιπ@@ 1
Κλίμα 1
ανές 1
ελάχιστες 1
εμπειρίες 1
ραχ@@ 1
στος 1
τοις 1
codice 0.8954613136222463
άγουν 1
απαιτούν 1
μεταφρα@@ 1
νους 1
παρεκκλήσι 1
πετυχαίνοντας 1
χειρόγραφο 1
Κλι@@ 1
Λακωνίας 1
αστέρι 1
δολοφ@@ 1
εκδο@@ 1
μουσείου 1
οφείλει 1
τοίχους 1
τροχιάς 1
χτισμένη 1
όμορφο 1
Νο 1
αξιωματικοί 1
δημόσιας 1
εκείνον 1
επιδημ@@ 1
ημένους 1
ισχυρά 1
ογράφο 1
ούδας 1
άρρ@@ 1
έθνους 1
εκλέχτηκε 1
εξυπηρετεί 1
κτηρίου 1
μέταλλο 1
μύθος 1
πληθ@@ 1
ϊκά 1
Ακολούθως 1
Ανδ@@ 1
Σάλ@@ 1
άρες 1
γες 1
δωρ@@ 1
λωρίδα 1
μάτι@@ 1
ψεύ@@ 1
Ρώσους 1
Ταλ@@ 1
άλους 1
δόσεις 1
οφορ@@ 1
ιός 1
μουσεία 1
στασης 1
τρου 1
χαμηλότερο 1
επαρκ@@ 1
μονάχα 1
ορχήστρας 1
1829 1
Μέγαρο 1
Νεο@@ 1
Φλάνδρας 1
ανακαλύφθηκαν 1
αποκτήθηκε 1
εθνικός 1
κρυ@@ 1
ρώ@@ 1
τρίτης 1
υποχρε@@ 1
φάρ@@ 1
φυλών 1
Θεοφ@@ 1
αυστηρά 1
γυμν@@ 1
μπορέσει 1
πιλ@@ 1
προσβολή 1
Διοικητικές 1
αρνείται 1
πλουσι@@ 1
πτηνά 1
συνασπισμού 1
συνοικίες 1
τρων 1
όκο 1
Κασσ@@ 1
Λευ@@ 1
επισκόπου 1
θοι 1
μικρούς 1
μοναστήρια 1
νήσο 1
στάιν 1
συγκλ@@ 1
σχημάτισε 1
Ντον 1
επιτρέψει 1
ισον 1
κυριαρχ@@ 1
παρών 1
Λομβαρ@@ 1
αρχιτεκτον@@ 1
δεια 1
οκ 1
όρε 1
50@@ 1
Κόλπο 1
ανακαλύπτει 1
ελά@@ 1
πακ@@ 1
πολύπλοκ@@ 1
τικ 1
χορού 1
Αθανασίου 1
Ατλαντικό 1
Γυμναστήριο 1
Ιατρικής 1
αρθρ@@ 1
γλυπτά 1
δικαιολογ@@ 1
κλείσει 1
κλειδί 1
κρίσεις 1
πέραν 1
Ουαλίας 1
Ωδείο 1
αρωματ@@ 1
ελληνικός 1
θεσαν 1
παππούς 1
παραλίες 1
πλάι 1
πρόσοψη 1
πτερ@@ 1
σιλ@@ 1
χάρτες 1
χους 1
Δημιουργήθηκε 1
Νικολάι 1
Ντεν@@ 1
απαιτούσε 1
κοινοβουλίου 1
παρακμή 1
ταλ 1
τοφ 1
w 0.2830398067437984
Οργάνωση 1
άνδ@@ 1
άντε 1
αυτοκινήτου 1
ετός 1
λατρείας 1
πάλης 1
περιουσίας 1
ριων 1
1.0@@ 1
Λίγα 1
Μαδρίτη 1
Πύργου 1
βαλλ@@ 1
δελφ@@ 1
εμφανίζουν 1
ινής 1
ρίζονται 1
τομέας 1
αγγελ@@ 1
βε@@ 1
βιομηχαν@@ 1
βυζαντινής 1
κομητείας 1
κριτικής 1
ραλ@@ 1
τεράστι@@ 1
φόρου 1
office 0.17789544963347945
έντομα 1
αποκτήσουν 1
εδαφ@@ 1
κήπο 1
μέτρησης 1
παράθυρα 1
άμι 1
αυτοκρατορική 1
ισμένους 1
προαναφερ@@ 1
es@@ 0.10197731964106067
αρκετή 1
ηχογράφησε 1
τούν@@ 1
όβου 1
Ισλαμ@@ 1
διωγ@@ 1
διώξεις 1
καθεδρικό 1
ονας 1
οποιημένη 1
σουλτάνου 1
τηλ@@ 1
χαμηλές 1
1856 0.7572885640466958
Βίος 1
αδύνατο 1
ανθεκ@@ 1
ελάχιστο 1
Τζο 1
τελικής 1
140 0.9356525182149734
Ελληνικών 1
Μέσω 1
αθλη@@ 1
βαθμός 1
βαθμών 1
κοινωνι@@ 1
ποτάμια 1
ρινγκ 1
ύλους 1
Βυρτεμβέργης 1
έθιμα 1
αποκλεισμό 1
βερ 1
διπλή 1
λαδ@@ 1
ουζ 1
Μπράιαν 1
Χριστιανός 1
έπει 1
ζωγράφισε 1
περιστασιακά 1
στολή 1
συνεχίζεται 1
Ιουλι@@ 1
Ποσειδώνα 1
αραβική 1
πόντοι 1
ρεν@@ 1
συνεχίζουν 1
Ἀ@@ 1
Maria 0.23379569339653616
Marvel 1
Βλαχ@@ 1
ΕΜ@@ 1
Ειρηνικού 1
Κρού@@ 1
Παπαδόπουλος 1
Φασ@@ 1
δικτατορίας 1
σταδίου 1
σύγχρονων 1
Δίκαιο 1
Εκκλησι@@ 1
βάλλεται 1
βουλευτή 1
δίωξη 1
κινήματα 1
προηγούμενης 1
σαράντα 1
1854 0.7881789635267823
Εμπορίου 1
ΝΑ. 1
Τόνι 1
διακόπ@@ 1
λάμβαναν 1
ούμενων 1
τετράγωνο 1
όμηση 1
Gr@@ 0.21603203999696424
Λαμ@@ 1
εζ 1
ειδικών 1
επιτυχώς 1
ζήτηση 1
ικία 1
κοντιν@@ 1
ξέν@@ 1
ρισμα 1
συνεργάζεται 1
Βραβ@@ 1
Δαρ@@ 1
Λόγ@@ 1
εξωτερικών 1
ημιτελικούς 1
οικογενειακό 1
στροφές 1
Περίοδος 1
εμπιστ@@ 1
ριζοσπ@@ 1
σκοτειν@@ 1
στικότητα 1
συνεχίστηκαν 1
τελευταίοι 1
Λασιθίου 1
Πάφου 1
Παναγιώτη 1
Χαρακτηριστικό 1
αγωνίστηκαν 1
δημιουργούνται 1
λιμάνια 1
μηχανικής 1
σοβαρό 1
τοποθέτησε 1
ΙΔ 1
Κυρ@@ 1
ικανός 1
οδική 1
πήγαν 1
τσί@@ 1
Έβρου 1
Μπρους 1
δέκατη 1
δευτερεύ@@ 1
ετό 1
λειτουργικό 1
συγκεκριμένου 1
0.000 1
160 0.9122284535973362
Αλφόνσος 1
Διονύσιος 1
ίσκο 1
αγγέλ@@ 1
αράς 1
γιοι 1
παίρνουν 1
παρούσα 1
ποσο@@ 1
1859 0.6868256556055375
Τσέχ@@ 1
απομακρυσ@@ 1
αριού 1
νάτριο 1
νησης 1
ρεφ@@ 1
Αρχηγός 1
Εδ@@ 1
Λευκορωσίας 1
Πρόσ@@ 1
γειτονικές 1
στός 1
Αργυ@@ 1
Δελ@@ 1
Σίλ@@ 1
αποτελείτο 1
διασκευή 1
ηκ@@ 1
καθιέρωσε 1
μερική 1
σιμος 1
τελειώσει 1
.gr 1
Ντάρ@@ 1
Πάολο 1
Παρκ 1
Τ. 1
αγωνιστικής 1
γηπέδου 1
εκπαιδεύ@@ 1
επισκοπ@@ 1
λύσεις 1
υποδοχή 1
ωμένους 1
ὰ 1
Αμερικανό 1
Τορόντο 1
αντιστασ@@ 1
διαστ@@ 1
διατελέσει 1
εγκαταλείφθηκε 1
επίβλεψη 1
ράν@@ 1
συναντήσεις 1
σχήματα 1
1844 0.959949901986093
40@@ 1
Αρχιεπίσκοπος 1
Λένιν 1
Νοβ@@ 1
Τσα@@ 1
διατηρη@@ 1
ζευγάρια 1
καρκίνου 1
λεια 1
οίκ@@ 1
τείται 1
τριχ 1
ωμένης 1
Night 0.49440149223654806
Ιατρική 1
Ιζ@@ 1
αγοράσει 1
αυτόματα 1
γεγονότος 1
διεξάγονται 1
νίκησαν 1
τωσης 1
Παρατηρ@@ 1
αποχωρήσει 1
εντάχθηκαν 1
κατείχαν 1
ραδιόφωνο 1
Μπολ@@ 1
επιθυμούσε 1
ιδιο@@ 1
Αστέρας 1
Οργαν@@ 1
Ορισμένα 1
Φωκ@@ 1
αποτελώντας 1
βικ 1
εκδόθηκαν 1
κορυφαίος 1
μέλους 1
συνεχής 1
Επισ@@ 1
δεί@@ 1
ιδρύθηκαν 1
κτήματα 1
λαιμό 1
πουλήσει 1
ριον 1
τοῦ 1
χορο@@ 1
όδου 1
ίνγκ 1
ασθεν@@ 1
διάφορων 1
επιχείρησε 1
θέτουν 1
οπαδών 1
συνωμοσία 1
Εκλογική 1
άνοδος 1
βασίλεια 1
γκλ@@ 1
διαδραματ@@ 1
εξέλιξης 1
κατηγοριών 1
μάζει 1
μετατραπεί 1
ούτ@@ 1
σιακή 1
τέ 1
υπηκοότητα 1
υπηρέ@@ 1
Μπαχ@@ 1
βαλκαν@@ 1
γέφυρας 1
γεωμετρία 1
μετακίνηση 1
όρε@@ 1
ύνεται 1
Μέσ@@ 1
γρήγορη 1
δισκογραφικής 1
μετρήσεις 1
μόνιμο 1
Apple 0.7990845813995985
Αλί 1
Γερμανικά 1
Μπουν@@ 1
άγιο 1
βασιλέα 1
γέννησε 1
δεσμό 1
κρατικό 1
πτήσης 1
ine 0.10603565660842561
Σαπ@@ 1
Τίτλοι 1
άδου 1
ίδιους 1
ακτής 1
διακόπηκε 1
σύγχρονου 1
τάχθηκε 1
Βέ@@ 1
Λάρνακας 1
αιγίδα 1
ακτίνα 1
μιών 1
προοπτική 1
συνέγραψε 1
Έκθεση 1
Αλέξιος 1
μπλ 1
νατρίου 1
ογραφικές 1
στρατιωτικού 1
υπηρετήσει 1
υπολείμματα 1
αγίου 1
αντρών 1
αυτοκρατορ@@ 1
μελλον@@ 1
ρωμαϊκό 1
σμπεργκ 1
αναπτύσσονται 1
ασμ@@ 1
θεωρείτο 1
υποβιβασμό 1
φύλλο 1
is@@ 0.1264643523239459
άζα 1
άνευ 1
χαϊμ 1
ωδών 1
Αλίκη 1
Βυζαντινούς 1
αντιστοιχούν 1
απόλυτα 1
εμφυλίου 1
ιανή 1
μαγειρ@@ 1
μεγάλοι 1
μετασχηματ@@ 1
σιτς 1
Game 0.4178205385666462
ανεγέρθηκε 1
εξασφαλ@@ 1
θεών 1
ορος 1
σπορ 1
Επιχειρ@@ 1
αμο 1
γραμμα 1
διάσταση 1
κλα 1
κόσ@@ 1
πικ@@ 1
σχέσης 1
δεχ@@ 1
σφραγ@@ 1
τραμ 1
υπερβολικά 1
1814 0.9363518732862095
at@@ 0.10609869494818581
Καλαμ@@ 1
Κόλπου 1
αναγνωρίσει 1
αποτελέσει 1
ιακ@@ 1
νησίδα 1
ξαφνικά 1
προκαλέσουν 1
όκαστρο 1
Αστέρα 1
Γαρ@@ 1
Καναδ@@ 1
άρνηση 1
αλλαγών 1
εκλογικές 1
καστ 1
περάσουν 1
φιναλίστ 1
όροφο 1
ύνουν 1
Ιλλ@@ 1
Μουν@@ 1
Στρατηγ@@ 1
ίζα 1
αίτια 1
δημοτικές 1
εκείνου 1
ηματικό 1
ιππικό 1
νόσο 1
περιστροφή 1
στρες 1
όχους 1
Αντιόχειας 1
ζητούσε 1
μιρ 1
πολιτισμ@@ 1
τομο 1
φίλη 1
Αφροδίτη 1
Λέγεται 1
Μοσχ@@ 1
ανταρτών 1
εμβολι@@ 1
επίθετο 1
ιδιοκτήτες 1
όνγκ 1
Ενε@@ 1
ΙΙΙ 1
ετές 1
νότιες 1
ορει@@ 1
περιελάμβαναν 1
συνταγματάρχη 1
τέρων 1
τικη 1
χρέη 1
ωτικής 1
Βαθμολογία 1
Σελήνη 1
αγωνιζόμενος 1
αλογ@@ 1
αποδο@@ 1
απορρίφθηκε 1
εξώ@@ 1
καταδικα@@ 1
προάστιο 1
προσπαθούσε 1
πρόοδο 1
σκου@@ 1
Άρθουρ 1
Γκαρ@@ 1
ίντα 1
δημοσί@@ 1
διαφορε@@ 1
εκπέμπει 1
θέντες 1
θεατρικές 1
λας 1
λεγόμενα 1
υρι@@ 1
4ος 1
Αρχή 1
ήρας 1
διατηρηθεί 1
διατρ@@ 1
λαούς 1
οκράτες 1
παρέμενε 1
George 0.11122121989409534
Αστρονομ@@ 1
Επιστημον@@ 1
Πύ@@ 1
Τρία 1
αθλητών 1
ακτών 1
αντιπάλου 1
γυμ@@ 1
δεσμευ@@ 1
συγχέεται 1
τάφοι 1
Δεκ@@ 1
ερχόταν 1
θεούς 1
καταγράφει 1
οντ 1
συγκεκριμένης 1
συντάγματος 1
τεστ 1
υπέβαλε 1
υπερασπ@@ 1
ύλες 1
ana 0.12619894243507862
as@@ 0.11015969179735746
Μαραθ@@ 1
Παλι@@ 1
Χολ@@ 1
ήμισυ 1
αστερ@@ 1
διαθήκη 1
είμεν@@ 1
εορτή 1
επηρεάστηκε 1
εποχές 1
ιστού 1
κυρίαρχ@@ 1
λλου 1
μενοι 1
σκληρό 1
υπέρο@@ 1
District 0.10802087951293064
ίκους 1
αγγλικό 1
δολ@@ 1
οφθαλ@@ 1
προσαρμογή 1
12ου 1
Βαγ@@ 1
Μαντόνα 1
Τυρ@@ 1
ακαδημίες 1
νορβηγ@@ 1
ρινό 1
τυφ@@ 1
υψηλότερα 1
χωρεί 1
1820 0.7180997507032012
Βιβλιοθήκης 1
Λαϊκής 1
Περίοδο 1
εγι@@ 1
κορυφαίους 1
κυαν@@ 1
στρέμματα 1
Αλβέρτος 1
Αρα@@ 1
Ταμ@@ 1
απώ@@ 1
γάμους 1
ηθοποιοί 1
καθαρή 1
κατέληξαν 1
παραγωγό 1
Εμπο@@ 1
Τρέ@@ 1
Τσερ@@ 1
εξορίστηκε 1
επίσημος 1
μαγν@@ 1
ούρων 1
παιδικά 1
προβλήματος 1
ραμα 1
ρεπ@@ 1
ρούνται 1
στήθος 1
τίας 1
3,@@ 0.580396317812938
Award 0.1496251172013457
ad 0.17111951433577471
Αντιόχεια 1
Πύλου 1
αποδίδει 1
δή 1
κέρματα 1
νε 1
πολεμικών 1
χώρισαν 1
όφελος 1
Αρχαίας 1
Δόξα 1
Τζέν@@ 1
καντ@@ 1
πάσα 1
προκριματικά 1
Υπουργ@@ 1
εκπροσώπησε 1
πυκν@@ 1
τιμωρία 1
τούρκ@@ 1
Ρόδο 1
Φιλίπ@@ 1
αμπελ@@ 1
ανθρώπινου 1
καιν@@ 1
σχεδιαστεί 1
φτάσουν 1
Νότου 1
θι 1
μιλούν 1
προσπάθειά 1
χρωμάτων 1
ύμνος 1
Άλαν 1
Αθηναϊκ@@ 1
Κατερίνα 1
Τ.@@ 1
αλκο@@ 1
ανακαιν@@ 1
ερο 1
θεσπ@@ 1
στέ@@ 1
Αθλ@@ 1
Βούλγαροι 1
Εργασίας 1
έντ 1
ίζ 1
γειτονικό 1
εκβολές 1
μηχανικό 1
ψήφισε 1
ωνες 1
Βυζαντίου 1
Θωμά 1
Υπήρχαν 1
εγκαταλεί@@ 1
επιτυχημένο 1
λεπτών 1
οειδών 1
υπόβαθρο 1
όδων 1
όκ 1
όσι 1
ens 0.1163898808197411
Δου@@ 1
αντικατασταθεί 1
αντιμετώπιζε 1
ανώτατο 1
θολ@@ 1
ιδεολογία 1
Δημοκρατική 1
Δρυ@@ 1
Μπεν 1
Νίκαια 1
έτο@@ 1
εγκεφάλου 1
ειάς 1
ζων@@ 1
κυρίου 1
μετάλλων 1
οδο 1
οκρατία 1
συγκρούσεων 1
σύγχρονοι 1
ώρου 1
ΐας 1
ανου@@ 1
πτυχές 1
υστερ@@ 1
Αραγ@@ 1
ΒΔ. 1
απλού@@ 1
ασμούς 1
βοήθησαν 1
κοιλάδας 1
μηχανισμός 1
μιούζικαλ 1
μπουλ@@ 1
ογεν@@ 1
ολοένα 1
σύνη 1
ότσ@@ 1
ύλων 1
ΕΣ 1
Εκπαίδευσης 1
αστικ@@ 1
βαρύ 1
κλείσιμο 1
ουγ@@ 1
πράσ@@ 1
συμμετάσχουν 1
Παί@@ 1
Πρι@@ 1
αιρέ@@ 1
ανοικτό 1
εντυπω@@ 1
ιδεών 1
μερικών 1
οχημάτων 1
παραγόντων 1
προξεν@@ 1
1832 0.9502826309997703
Αντρέ 1
Σφαίρα 1
άρους 1
ακα 1
επόμενους 1
εστ 1
ιδιωτικά 1
μεσολαβ@@ 1
περίφημο 1
De@@ 0.16231811979351982
Βασιλικού 1
Πιν@@ 1
Χάρβαρντ 1
Χριστίνα 1
αισ@@ 1
βλέποντας 1
ευτούν 1
ζωγράφο 1
μακρύ 1
οικογένειάς 1
προϋπολογισμό 1
σκοτώνει 1
συνηθισμένο 1
Καρολίνα 1
Φλωρεντίας 1
άσπρο 1
δέχονται 1
δέχτηκαν 1
διοικητικής 1
εκτελέστηκαν 1
ούδα 1
παλιότερα 1
παρουσίαζε 1
τρόμου 1
Χάρη 1
άθλ@@ 1
διαζύγιο 1
εντυπωσι@@ 1
ούλ 1
ούλια 1
περιορίζεται 1
Γυμνα@@ 1
Ιατρ@@ 1
Κοκκιν@@ 1
Πύργο 1
ΡΙ@@ 1
έσουν 1
ακτίνες 1
εργασ@@ 1
κατο@@ 1
λόφους 1
μένοντας 1
νεότερο 1
σήματα 1
χελ@@ 1
→ 1
Κανον@@ 1
Μεραρχία 1
άλατα 1
βαδ@@ 1
γνωρίσει 1
ιντεν 1
ξεκινούν 1
ριους 1
σχηματίσει 1
τουρ@@ 1
υπερβολική 1
Κλί@@ 1
Κουτσ@@ 1
Μικρασιατική 1
άλλαξαν 1
επικαλ@@ 1
ευθ@@ 1
υπεράσπιση 1
φοράς 1
Λίγκα 1
Πόρτο 1
Σουδάν 1
ήσιο 1
κανα@@ 1
κυρίαρχο 1
μετρό 1
νεϊ 1
οειδές 1
8.000 1
Πρωταθλητριών 1
γνωστού 1
γουελ 1
διώκ@@ 1
ολ 1
σταλ@@ 1
Κογκρέσο 1
Λαϊκού 1
απαλλ@@ 1
διορθ@@ 1
εκπρόσωποι 1
ολόγους 1
πολιτιστικά 1
τάνα 1
Αραβία 1
Λιν@@ 1
Νοτίου 1
ακολουθούσε 1
ανη@@ 1
απόδ@@ 1
βασικών 1
βενζ@@ 1
δανει@@ 1
δημοσιεύ@@ 1
ενδέχεται 1
θυμίζει 1
καλυμ@@ 1
κινς 1
ούντ 1
συνάρτησης 1
ταχθεί 1
όδους 1
1851 0.7773881819623593
RNA 1
Αχμέτ 1
Μεχμέτ 1
έναρξης 1
αιώνων 1
εξελιχθεί 1
ηγε@@ 1
κρυφ@@ 1
μίσ@@ 1
οφόρων 1
χαρακτηριστικών 1
Γκρά@@ 1
Πορτογαλ@@ 1
Ρεν@@ 1
αξιωματικών 1
διαθέσιμη 1
λογικά 1
σταθμοί 1
φορο@@ 1
Best 0.20522476845692747
Όρους 1
Γερμανού 1
Παρθέν@@ 1
άντρας 1
δόγμα 1
ερεθ@@ 1
ιε 1
μεσαία 1
νοτιο@@ 1
προερχόταν 1
πρόκληση 1
σίγουρα 1
τουργ@@ 1
ώνια 1
Δημοσι@@ 1
Δυτικό 1
Εκπαιδευ@@ 1
Ζάγκρεμπ 1
Παρότι 1
δημοτικού 1
επαρχιών 1
μαθ@@ 1
πληθώρα 1
προετοι@@ 1
στεγάζεται 1
τιδας 1
Όν@@ 1
Βρετάνης 1
Θεωρ@@ 1
Ρότζερ 1
αποφυγή 1
δεκαπέντε 1
δρο 1
ενεργή 1
ομορφ@@ 1
τάφους 1
χρωμοσ@@ 1
όρθ@@ 1
11η 1
Βίκινγκ 1
Κεντρ@@ 1
ίφ@@ 1
αναγνωρίζει 1
δημο@@ 1
σύγκρουσης 1
τσος 1
Is 0.5406279177647157
Γάλλου 1
Σύνοδος 1
δείκτη 1
ζόν 1
καλύψει 1
κοι@@ 1
στατο 1
τέα 1
τηρού@@ 1
χαρακ@@ 1
50.000 1
δευτερότοκος 1
θανατ@@ 1
κραν@@ 1
ναυτικού 1
οικογενειακή 1
παρεμβ@@ 1
Κριτική 1
Σάο 1
έστερ@@ 1
δους 1
εισέβαλαν 1
επέτειο 1
ινων 1
λάν@@ 1
πορείας 1
ρίτη 1
σημάδια 1
συνδέσεις 1
Μέλος 1
Μυκ@@ 1
Στρατιά 1
διακεκρι@@ 1
διοικητικού 1
ενσωμάτωση 1
ναυμαχία 1
ναύτες 1
ομιλητές 1
περιγράφουν 1
συνολικής 1
Αθηνά 1
Συνόδου 1
απορ@@ 1
θάλ@@ 1
μόν 1
υπάρχ@@ 1
Εσθονία 1
Πιστεύεται 1
θελ@@ 1
στιν 1
ταραχές 1
1843 0.9376838826001277
Ανρί 1
Κολλέγιο 1
Ντάνιελ 1
Χρονικά 1
ίγια 1
θυρε@@ 1
λοφ@@ 1
ουτσ@@ 1
παρέ@@ 1
παρασκευή 1
τείνει 1
Iron 0.8614640138834431
q 0.42256209490849705
Μαύρη 1
Μεσογ@@ 1
ήτη 1
αποτρέψει 1
διαδρομής 1
είμαι 1
εδρα@@ 1
ερασι@@ 1
μολυσ@@ 1
ντόπιους 1
πίστης 1
περιορισμούς 1
ποδα 1
πρόσφερε 1
συντριπτική 1
φοιτητών 1
1,3 1
facto 1
Λουθηραν@@ 1
έθνη 1
βουλ@@ 1
εκατ. 1
παράνομη 1
bit 0.7068104142662726
Κάποιες 1
άμου 1
έθιμο 1
ήχθησαν 1
διδακ@@ 1
εκφράζει 1
ευλογ@@ 1
μηχανισμό 1
σκαλ@@ 1
τειχών 1
ψή 1
Big 0.2650820711748882
Βίλχελμ 1
Βιτ@@ 1
Κυπ@@ 1
Νέβιλ 1
Ριζ@@ 1
έκθεσης 1
έρτο 1
αστικός 1
δέρματος 1
εισηγ@@ 1
εμπρός 1
ενώθηκαν 1
τεχνικό 1
ΟΥ 1
ξιμο 1
όραμα 1
Αντωνίου 1
Ενόπλων 1
Νάσσαου 1
έκ 1
αποφάσεων 1
κινητήρας 1
μεταναστ@@ 1
ξής 1
οστοιχ@@ 1
συμπεριλαμβ@@ 1
χωρισ@@ 1
Κιου@@ 1
Ρασ@@ 1
εκτέλεσης 1
εχθρό 1
θέρμανση 1
ισότητα 1
κώ@@ 1
οποιονδήποτε 1
πραγματοποιούνται 1
ρισμός 1
σπονδυλ@@ 1
συντεταγμένες 1
τηθούν 1
τροφοδο@@ 1
Κοκ@@ 1
Χριστιανισμό 1
άθροισμα 1
αποτελεσματικότητα 1
γιαγιά 1
γύρου 1
ευκολ@@ 1
λατρ@@ 1
τσια 1
1858 0.723644441729537
ec@@ 0.15753010216050511
Διαθήκη 1
Μίλαν 1
Σταυ@@ 1
διαδόχου 1
εικα@@ 1
λυρ@@ 1
ρισαν 1
On 0.029419792186617954
Πέν@@ 1
ανσ@@ 1
ατομική 1
καθιέρωση 1
σταγ@@ 1
σχηματισμού 1
τεράστιες 1
ότης 1
Ανατολ@@ 1
Απόστολος 1
Γυναικείου 1
Ιω@@ 1
Τακ@@ 1
ήμερο 1
κλάδους 1
παππού 1
πλούτο 1
πρόληψη 1
τρες 1
τρόπου 1
11@@ 1
Ιταλ@@ 1
Πατέρας 1
άρθρωση 1
ασθένειας 1
γήπεδα 1
σεβασμό 1
υπογράφηκε 1
χάρισε 1
.Η 1
Δερ@@ 1
Περού 1
απόγονος 1
βουλγαρ@@ 1
ιππικού 1
ιταλ@@ 1
κιθαρίστα 1
σιδηροδρομική 1
υρό 1
.com 0.6153638989306668
ja 0.23871489431053353
Άργος 1
Βουλ@@ 1
Τώρα 1
Φον@@ 1
αντίδρασης 1
κτίσμα 1
συνδέ@@ 1
υπαγόταν 1
box 0.45480592386863566
Ήλιου 1
Μάλτα 1
γυαλ@@ 1
επιθυμ@@ 1
καταστροφής 1
κινούνται 1
μπε@@ 1
ξεπεράσει 1
υπερβολ@@ 1
ψιμο 1
ΕΑΜ 1
Πανιώνιο 1
Πολωνών 1
ακτιν@@ 1
αλογον@@ 1
εμπλου@@ 1
εταιρίες 1
οίκου 1
οδών 1
ουγγρ@@ 1
ley 0.1266399847098107
Σιλεσίας 1
ανεπάρκεια 1
πόντων 1
σκελε@@ 1
son 0.015610673157034639
Δημιουργ@@ 1
Σταυρό 1
ήνη 1
ανήλθε 1
πρόσβασης 1
πρόσθεσε 1
χαμηλού 1
1841 0.8978497042556548
1845 0.8249280745670808
et@@ 0.11883241479823417
Παραδ@@ 1
Προτεστ@@ 1
Σάββατο 1
Χαλκιδικής 1
αινα 1
αρμεν@@ 1
βουδι@@ 1
εισόδημα 1
ισθ@@ 1
κερδοσκοπ@@ 1
ραξη 1
συνέλαβε 1
συρ 1
τάνιο 1
υψηλότερες 1
ωρη 1
ώρι@@ 1
ic@@ 0.15749879945465134
Πανεπιστημι@@ 1
αθηναϊκ@@ 1
εγώ 1
επιβολή 1
θεσμός 1
κατέστη 1
οξέα 1
ριού 1
υποχώρηση 1
1827 1
Αλεξάνδρειας 1
Μαρίνα 1
αναπαραγωγή 1
απόδοσης 1
γράφτηκαν 1
κοιλ@@ 1
λογοτεχνικό 1
τσά 1
υποτίθεται 1
όντως 1
ini 0.2037343418104767
Κή@@ 1
Τραγούδια 1
άουτ 1
εκατο@@ 1
ηλεκτρον@@ 1
κολέγιο 1
μπια 1
πάθος 1
παριστ@@ 1
παρουσιάσει 1
προστάτης 1
450 1
Αγαθ@@ 1
αθλητισμό 1
αμερ@@ 1
αξιωματούχους 1
διαγνω@@ 1
ερωτευ@@ 1
κύριους 1
πρεσβεία 1
Ίνγκ@@ 1
Εσωτερ@@ 1
Μεγάλος 1
Ρουσ@@ 1
αφορούσαν 1
ισόπ@@ 1
μεταφράσεις 1
μυστικό 1
περιήλθε 1
πόρ@@ 1
Μάλτας 1
Σαίξπηρ 1
Τζού@@ 1
ίρα 1
ανάλογη 1
επωφελ@@ 1
ηλίου 1
λες 1
νυ@@ 1
ξαναπ@@ 1
ολογικός 1
πρωταθλ@@ 1
ταση 1
Cor@@ 0.180492410199415
Ford 0.4240195905516415
αγάπης 1
αλγεβ@@ 1
αναπτυσσ@@ 1
βάλουν 1
κοινώς 1
λεϋ 1
πρόσκληση 1
πυρά 1
τασ@@ 1
φωλι@@ 1
χεί@@ 1
ύθηκε 1
1823 1
Γούν@@ 1
Γρηγορίου 1
ίαση 1
διασωθεί 1
λίτρων 1
μειώνει 1
μπήκαν 1
τίζεται 1
Ολί@@ 1
αντανακλ@@ 1
δορυφόρος 1
ενε@@ 1
ιταλ. 1
καλαθοσφαίριση 1
μαύρα 1
ρήξη 1
υδατο@@ 1
ύν 1
Κρίστιαν 1
ΠΑ 1
ελίτ 1
μεσαι@@ 1
νικητή 1
ορεινή 1
ποδοσφαιρικών 1
ρίδες 1
υποδυ@@ 1
υς 1
φθεί 1
Κορίνθου 1
Συνα@@ 1
Τζέρ@@ 1
εθνόσημο 1
ειων 1
εσωτερικών 1
περνώντας 1
πλήρους 1
πνευμον@@ 1
προσδιορισμό 1
Δημοτικού 1
Κυκλάδων 1
Προσωπ@@ 1
Ρογ@@ 1
Σπαν@@ 1
έττα 1
αύξησης 1
είδαν 1
εξήγηση 1
εξαφάνιση 1
εξουσι@@ 1
περικ@@ 1
τημένη 1
Ανατολικού 1
Ρώσων 1
βόρειες 1
κεντρο@@ 1
μνημον@@ 1
ουλο 1
ποτά@@ 1
σιμων 1
τισαν 1
ύρα 1
1812 0.7875913986771282
Γιόζεφ 1
Στο@@ 1
ίδρυσή 1
απογ@@ 1
εμπορικών 1
εσωτερικής 1
ηνών 1
ναβ@@ 1
ξεχωρίζει 1
παρακολουθεί 1
πυροβολικού 1
ῖ@@ 1
Γιουγκοσλαβ@@ 1
Φράνσις 1
αιτίες 1
είος 1
είσα 1
εκπομπών 1
θεσή 1
κοβ@@ 1
ματοποι@@ 1
μευ@@ 1
τονία 1
τραγωδία 1
ψι@@ 1
Film 0.11791754386134795
Πασάς 1
γκου 1
εσωτερικού 1
κοινές 1
νηστ@@ 1
σπάνιο 1
συνθήκης 1
Εκτελε@@ 1
έπεσαν 1
ανακτήσει 1
αποτυχημένη 1
εγχώ@@ 1
επιφάνειες 1
μετρι@@ 1
ρωσης 1
σιά 1
στρα 1
συνοικ@@ 1
Αμερικανοί 1
Ανώ@@ 1
Ελεονώρα 1
Πηγή 1
Ταϊ@@ 1
αραι@@ 1
διέφυγε 1
κ.@@ 1
κατοικίας 1
μετατρέπεται 1
μουσουλμάνοι 1
πολλ@@ 1
πραγματοποίησαν 1
προέβλεπε 1
τήρα 1
Tr@@ 0.13607232454643717
Ιταλοί 1
Ωκε@@ 1
έμπνευση 1
επιχειρησι@@ 1
λαγ@@ 1
μυελ@@ 1
οποίον 1
περιοδ@@ 1
ράκ@@ 1
σταθερότητα 1
υπεύθυνο 1
φέρνει 1
Μπομπ 1
Οδού 1
έχτισε 1
ακολούθως 1
θέρ@@ 1
ιστικός 1
κβαν@@ 1
προϋποθέσεις 1
τουρκικού 1
τριες 1
υδρογον@@ 1
12.@@ 1
Λάι@@ 1
αντίθετο 1
αφιερωμένος 1
εισιτήρια 1
μοιράζονται 1
μυστικά 1
ολοκλήρω@@ 1
πολυτελ@@ 1
τέκ@@ 1
υποδομής 1
χρυσή 1
Ανάπτυξη 1
Βερν@@ 1
γάτες 1
γενέτειρά 1
διάσκεψη 1
εγκατεστη@@ 1
ευθεία 1
καρ 1
τζε 1
τσες 1
Ιταλούς 1
Φλώρινας 1
απορρί@@ 1
αρσεν@@ 1
δραστηρι@@ 1
είν@@ 1
επισκέπτης 1
ματός 1
πρόσφατες 1
σωματίδια 1
σύνοδο 1
τίτλοι 1
υποχρεωτική 1
ωνο 1
Κάρλο 1
Κλη@@ 1
Μπράν@@ 1
αγαθών 1
ασθενής 1
επιδρομή 1
πολεμήσει 1
σοβ@@ 1
σύγχρονους 1
υπέφερε 1
4,@@ 0.6131128001761508
Αλέ@@ 1
Αλφόνσο 1
ΕΠΟ 1
Μοντε@@ 1
δόση 1
ιαπωνικά 1
κορυφαίο 1
ορίων 1
οργανική 1
ποιητική 1
τελευταίους 1
τσιο 1
Al 0.1251206794061497
Άνχαλτ 1
Αστεροσκοπείο 1
Ουγγρ@@ 1
ανασκαφ@@ 1
αφαι@@ 1
βαπ@@ 1
κατέφυγαν 1
κλήρωση 1
λων 1
σουηδ@@ 1
ταυτότητας 1
Δομιν@@ 1
Λοθ@@ 1
ΜΜΕ 1
Φερν@@ 1
έρχονταν 1
αφενός 1
βοταν@@ 1
γλυκ@@ 1
χωρίζει 1
Γραφείου 1
Εσθονίας 1
Κυπριακής 1
Σαχ 1
ανατολικού 1
αρχείου 1
καθολικό 1
καλοκαιριού 1
λαϊκής 1
μένας 1
μελέτησε 1
νίκης 1
προκριθεί 1
Euro 0.48213191112931203
Your 0.6524675013197999
Κογκρέσου 1
αναζη@@ 1
διεξαχθεί 1
επιχείρημα 1
μεταξ@@ 1
πλανήτες 1
υδάτων 1
ΕΟ@@ 1
Νομοθε@@ 1
Τίτο 1
αγκά@@ 1
αεροπλάνο 1
απομακρύν@@ 1
γενιές 1
γύρους 1
εμπόδια 1
ούχων 1
πολλαπλών 1
πτηνών 1
τερη 1
1853 0.7606919576332789
Tour 0.17478419096342449
Ρενέ 1
Σπαρτιάτες 1
ήπειρο 1
λίρες 1
πελάτες 1
ταξιδιού 1
τουρκικής 1
³ 1
ΕΔ@@ 1
ανοιχτή 1
γεφ@@ 1
εριν@@ 1
θέας 1
ιερού 1
κόκκινη 1
μαθητή 1
νοτιοανατολική 1
περιφερειακή 1
σταυρό 1
στρατο@@ 1
ταξε 1
Βόν@@ 1
Κόμης 1
αναγνώρισης 1
αποκορύφωμα 1
επένδυση 1
κρυμ@@ 1
μις 1
μονό@@ 1
ολό@@ 1
προσαρμοσ@@ 1
σχολείων 1
τουρίστες 1
1793 1
OS 0.6817949934980582
Un@@ 0.17422013853427762
Άλφρεντ 1
Βουν@@ 1
Ιερός 1
Ιωάννινα 1
ίσσ@@ 1
γραπ@@ 1
εικόνων 1
τριτο@@ 1
Αιμ@@ 1
Ακρόπολη 1
Δοκ@@ 1
Ερζεγοβίνη 1
ανάμεσά 1
βουλευτών 1
κόκ@@ 1
πιστός 1
πτω@@ 1
ρίδια 1
υποκριτική 1
ανανέωση 1
βαθμολογ@@ 1
ιστες 1
ρίσει 1
σχηματισμός 1
Τέιλορ 1
Υπηρεσίας 1
αποκαταστάθηκε 1
διάγραμμα 1
διαμορφώθηκε 1
εκκλησιών 1
επεν@@ 1
θέντα 1
καθορίζει 1
κατανομής 1
μοναχοί 1
τζερ 1
φθάσει 1
φθορ@@ 1
Blue 0.3222745413775249
Κρα@@ 1
Μού@@ 1
Πρέμιερ 1
Σέρβοι 1
ένοπλες 1
δοβ@@ 1
εξοχ@@ 1
κατάρ@@ 1
κωδικό 1
παράδ@@ 1
στρατηγικής 1
υγρού 1
όβιο 1
ot@@ 0.11653400128366695
Αμερικάν@@ 1
Βουκουρέστι 1
Κεν@@ 1
Πριγκίπισσα 1
ερα 1
ευγενή 1
μεταφέρεται 1
νόμοι 1
ογενείς 1
τεία 1
Μπούν@@ 1
Φρίντριχ 1
Χάμ@@ 1
βετερ@@ 1
ράκη 1
Θερ@@ 1
Σάου@@ 1
βράχο 1
μαθή@@ 1
παραστ@@ 1
πυρην@@ 1
τρένο 1
Είχαν 1
διαμαρτυρ@@ 1
εγχείρημα 1
επανάληψη 1
ερειπ@@ 1
ικερ 1
ποικιλίες 1
σελ. 1
σιακές 1
1849 0.7016729089879378
Ασκ@@ 1
Ζακύνθου 1
Τζόζεφ 1
Φιλελευθέρων 1
ήσια 1
αθλητική 1
δεχόταν 1
ηλικ@@ 1
θέλουν 1
ιδίων 1
κτήμα 1
πολυάριθμες 1
ταιν@@ 1
1837 0.8413977065926255
Διαθήκης 1
Κέι@@ 1
Καραμανλή 1
Στεν@@ 1
αστρονόμος 1
κατώτερ@@ 1
μετάδοσης 1
ντόπ@@ 1
τητα 1
υποστηρι@@ 1
χιλιάδων 1
NASA 1
Park 0.09891192274693918
Βουλγάρων 1
Κοινοπολιτείας 1
Σλοβ@@ 1
έκτο 1
αια 1
αρνητικές 1
ιδρυτές 1
λογικό 1
μπαρ 1
ομέ@@ 1
παραδώσει 1
τρομοκρατ@@ 1
4,5 1
Εδουάρδο 1
Πράγα 1
ίλια 1
γενικής 1
εγκαταλείψουν 1
καναλιού 1
ουντ@@ 1
τερματίσει 1
os@@ 0.13523993730784103
Πολωνούς 1
διαγωνισμός 1
διαλέξεις 1
ειο@@ 1
ετυμ@@ 1
κά 1
οτεχν@@ 1
τούρ@@ 1
φράγμα 1
11ου 1
Day 0.24408051386267285
Thomas 0.11467623674832711
ya 0.052513497087043386
ΒΑ. 1
Κεντ 1
Νεφ@@ 1
Χόλιγουντ 1
άτι@@ 1
έιρα 1
ανάληψη 1
γκρουπ 1
ηλεκτρονική 1
κάν 1
περίπλοκ@@ 1
φού@@ 1
φτιάχν@@ 1
Γρεβενών 1
Μαϊ@@ 1
Ταινίας 1
διαφων@@ 1
κατέρρευσε 1
κατώ@@ 1
μαρξ@@ 1
οικισμών 1
ρυθμούς 1
συμπο@@ 1
τῆς 1
χαθεί 1
Κρό@@ 1
Σώ@@ 1
αντάρ@@ 1
αντιπάλων 1
ανώτα@@ 1
βορει@@ 1
διου 1
καθηγήτρια 1
κώδικας 1
ορειν@@ 1
περιπτώσεων 1
σημερινός 1
στοιχείου 1
τοποθε@@ 1
ti 0.2561860569152476
Ανδρ@@ 1
Τουρκική 1
ανταποκρι@@ 1
γκι@@ 1
διαπίστωσε 1
δυλ@@ 1
επεισοδίων 1
κατάστασή 1
κύριοι 1
μουσικού 1
παρατηρήθηκε 1
πλούσι@@ 1
προσωπικές 1
συνεται@@ 1
υποσχέθηκε 1
11.@@ 1
Αλεξανδ@@ 1
Θρ@@ 1
Χίο 1
εκλογ@@ 1
ηπειρω@@ 1
ινγκτον 1
μετρική 1
ολιθ@@ 1
ουμένων 1
πλάτους 1
στοιχει@@ 1
τακτικές 1
τριας 1
Κέλ@@ 1
αλβαν@@ 1
ανεξ@@ 1
αντιπαράθεση 1
επιτύχει 1
μπαίνει 1
παραχθεί 1
πεποιθήσεις 1
τζαζ 1
τικο@@ 1
Sonic 1
Αμπντούλ 1
Ατλαντικού 1
Γύ@@ 1
Λυών 1
Τρίπολη 1
Χρονιάς 1
έμπορος 1
ακίν@@ 1
αντίπαλος 1
εκτελεί 1
εφευρέ@@ 1
θυμάτων 1
καλοκαίρια 1
οφιλ@@ 1
πρωτεϊνών 1
συμπερ@@ 1
σχηματίζονται 1
ακούς 1
αναγνωριστεί 1
αργύρου 1
διευθύν@@ 1
λεμφ@@ 1
μεταγενέστερα 1
ξεπερ@@ 1
ομοιότητες 1
101 0.8020115399924911
Χαλκίδα 1
ίτσι 1
διεργασίες 1
επέβαλε 1
συνηθισμένη 1
υγρά 1
COVID 0.4357969382184983
Μουσταφά 1
ΠΑΣ 1
εκλογικό 1
κοντινό 1
περιβάλλοντα 1
πρωτοπ@@ 1
φαινόταν 1
όρκο 1
ώσπου 1
CH3@@ 1
Άξονα 1
Ματθίλδη 1
Ροζ@@ 1
Ρόζ@@ 1
άνκα 1
καβ@@ 1
κατάληξη 1
προκάτο@@ 1
τεύχος 1
χρυσός 1
Αλεξανδρείας 1
Διοικητής 1
Ναύπλιο 1
Παπα@@ 1
Πρώιμη 1
Συνδέσμου 1
Συνθήκης 1
βίζ@@ 1
επιλέξει 1
προχω@@ 1
1806 0.9284482691214085
Qu@@ 0.19900606305802615
Ημι@@ 1
Τολ@@ 1
βορειοδυτική 1
θερμότητας 1
οργανώσεων 1
τοπικούς 1
χριστιανικό 1
Μαργαρίτας 1
Μπόρ@@ 1
Ντέν@@ 1
Ρήνου 1
επισκ@@ 1
μισε 1
μοναχούς 1
νοσ@@ 1
ξεκίνημα 1
φρούτα 1
Football 0.17606200964090776
ac@@ 0.12827969200603154
Κυρί@@ 1
Ροδόπης 1
εκδηλώσεων 1
εκστρατ@@ 1
καυσίμου 1
παρατηρούνται 1
τοποθετούνται 1
όψ@@ 1
Περιφερ@@ 1
δύσκολα 1
ετο 1
κίονες 1
ογράφ@@ 1
υφυπουργός 1
ύψ@@ 1
33@@ 1
Δαμ@@ 1
Μιχ@@ 1
αυγ@@ 1
διοικητές 1
ελεύθερης 1
μέτρου 1
οροσειράς 1
ρους 1
Αλεξάν@@ 1
Λευκορωσία 1
Μεκλεμβούργου 1
Μεταξά 1
άντας 1
έφτανε 1
ανθρωπιστ@@ 1
ευσαν 1
θεωρητικά 1
λογαρι@@ 1
μερικώς 1
μοναστηριού 1
στάσεις 1
τιων 1
Warner 0.7232115128514485
Αξ@@ 1
Δικαιωμάτων 1
Λαβ@@ 1
άρε@@ 1
ενισχύσει 1
επανειλημμένα 1
κατακτά 1
καταλή@@ 1
ληση 1
ξεκ@@ 1
περίφημ@@ 1
σηκ@@ 1
σολ@@ 1
.Ο 1
1.500 1
Ανατολικών 1
Εστ@@ 1
Λίγες 1
ήνες 1
αναμετρήσεις 1
κρέατος 1
ορά 1
σωματείου 1
1831 0.903426389159699
δουλειές 1
δρόμοι 1
εύονταν 1
λογικές 1
ρεμ@@ 1
σιδηροδρομικό 1
στέψη 1
τo 1
φιλοξενήσει 1
Άρχισε 1
Τόρ@@ 1
έκφρασης 1
δυνατ@@ 1
κατατάσσεται 1
παντρεμένη 1
υποστηρίζεται 1
Βλάχ@@ 1
έδρασε 1
ανάγεται 1
αρχαιο@@ 1
βυζαντινό 1
εξώφυλλο 1
ισχύ@@ 1
καταστραφεί 1
καυσίμων 1
προοριζόταν 1
τατουάζ 1
χλωρο@@ 1
1857 0.6425877800062844
7.000 1
Martin 0.15563236748693463
Άγ@@ 1
Αρε@@ 1
Βρισκόταν 1
Γλώσσα 1
Κάμ@@ 1
Κορυφ@@ 1
αυλής 1
διοξείδιο 1
θρησκευ@@ 1
στάλθηκαν 1
στηρί@@ 1
am@@ 0.10226722842635118
Άλμπερτ 1
Αρκετοί 1
Γιαν@@ 1
Καλαμάτας 1
έρου 1
αναζήτησης 1
αξιοσημείωτη 1
διπλωματικές 1
εκδίδει 1
ενοποίηση 1
εύκολη 1
κατεστραμ@@ 1
μαλλ@@ 1
μοναρχία 1
οποιήσεις 1
παράταξη 1
πολιτιστικές 1
πορτρέτα 1
σμούς 1
1792 1
Όρη 1
Βουδαπέστη 1
Κονγκό 1
Παυσανίας 1
Περσών 1
αποδεικνύεται 1
ητεία 1
κατατά@@ 1
μεταναστευ@@ 1
μονοπάτι 1
οδον@@ 1
προσάρτηση 1
στόχ@@ 1
συμμετρ@@ 1
Εγκ@@ 1
ηγεμόνες 1
θεάς 1
καρα@@ 1
κόλ@@ 1
μακροχρόνια 1
ουστ@@ 1
οφυλ@@ 1
πολύτιμ@@ 1
ρεν 1
σύμπ@@ 1
φορτίου 1
Per@@ 0.14660684222103187
Μεσολογγίου 1
Παρισίων 1
άκων 1
έριο 1
αναδείχτηκε 1
εκτίθενται 1
εξεγέρσεις 1
ιμα 1
μιγαδ@@ 1
περίμενε 1
περιπέτειες 1
σωματική 1
τέτοιων 1
χιλιοστά 1
Les 0.034273710822385
Βίσ@@ 1
Ειρηνικό 1
Οδηγ@@ 1
Φράνκο 1
αγόρια 1
γνωρίζοντας 1
ηλεκτ@@ 1
νεαρ@@ 1
ολοκληρώθηκαν 1
ορυκτά 1
περιεκτικότητα 1
στικούς 1
υπηρετεί 1
χάλκινα 1
Λαγ@@ 1
αγγελι@@ 1
διηγ@@ 1
διορισμό 1
μυαλό 1
σύνδεσης 1
τομία 1
αποδείξεις 1
επιστροφής 1
πολεοδομ@@ 1
Δευτέρα 1
αποθέματα 1
γίγ@@ 1
ιμπν 1
οξέων 1
ριστή 1
χμ 1
Θανάσης 1
Κομητεία 1
Λειτουργ@@ 1
Ρουμάν@@ 1
αμφί@@ 1
αριστοκρατ@@ 1
διαμερίσματος 1
δοκι@@ 1
εχθρ@@ 1
μεσογ@@ 1
νομούς 1
ξύ@@ 1
συγκεντρώθηκαν 1
ale 0.11809238539667245
ino 0.18244594031376685
Όλγα 1
Της 1
ήρος 1
απολύ@@ 1
αποχώρησαν 1
γος 1
δόγ@@ 1
κρίν@@ 1
κρατά 1
πολί@@ 1
στού 1
τρόπ@@ 1
Βυζαντινοί 1
Χρονικό 1
αγαθά 1
αρχαιολογικό 1
ειδικός 1
εργαζομένων 1
κατακτη@@ 1
κινηματογραφ@@ 1
νή 1
παραίτησή 1
σημείων 1
στρατιωτικούς 1
σύμπαν 1
τίμησε 1
φωλιά 1
χριστιανοί 1
Αίθουσα 1
Στοιχεία 1
άδο 1
δικαστήρια 1
επηρεάζουν 1
μελή 1
μοσχ@@ 1
ποικίλ@@ 1
πολίτης 1
προϊόντος 1
συμμαχίας 1
ότερ@@ 1
ώνυμο 1
1789 1
OH 1
Άλλ@@ 1
ακτο@@ 1
επικρατ@@ 1
ηλεκτρονικών 1
ναλ 1
φρουρίου 1
ur@@ 0.120698815810466
Άγγλοι 1
Διαμέρισμα 1
Κορν@@ 1
Μάικ 1
άντων 1
εκδόσεων 1
ικισμό 1
κύρος 1
ματικούς 1
σκορ@@ 1
τοποθετήθηκαν 1
Έως 1
Ίδρυση 1
Αγγλική 1
αρχικός 1
κανόνων 1
κριτικών 1
μικροσκοπ@@ 1
πύργους 1
σεισμός 1
συνάδελφ@@ 1
Κάιρο 1
Πλέ@@ 1
Φυσική 1
απήχηση 1
αυξήσει 1
διασημ@@ 1
επέκτασης 1
επικεντρ@@ 1
καταπι@@ 1
παρατήρησε 1
τηλεοπτικής 1
ωφ@@ 1
όχων 1
Louis 0.12765850946834964
Άργους 1
Βουδι@@ 1
ΝΔ 1
Πρωσία 1
Πόν@@ 1
Σημαντικ@@ 1
ανθρώπινες 1
αποχώρησή 1
διαμαρτυρίες 1
επαναστατ@@ 1
ιδιωτικές 1
κερδ@@ 1
κινήθηκε 1
λού@@ 1
νομισμάτων 1
φόρων 1
Απελευθερ@@ 1
Γκαν@@ 1
Δηλαδή 1
Δομή 1
Οιν@@ 1
Φωκίδας 1
Χρυσής 1
γραφών 1
δακτύλιο 1
μειώσει 1
ρασαν 1
σχεδι@@ 1
υπόγ@@ 1
no 0.022671996430027132
Αντώνη 1
έβαλαν 1
βαθμοί 1
δορυφορ@@ 1
λογότυπο 1
μαζε 1
οκρα@@ 1
ούταν 1
τηλεοπτικά 1
Επτά 1
Θεωρία 1
γενετική 1
δεσμ@@ 1
ενισχύσεις 1
θώ@@ 1
σχεδίαζε 1
CH3 1
Κόμη 1
Μακεδόνες 1
Οξφόρδης 1
αφηρη@@ 1
διαδεδομένη 1
ιδρυθεί 1
καταστατικό 1
προνομ@@ 1
ρίδη 1
ρρο@@ 1
στάνταρ 1
τήθηκαν 1
ῦ@@ 1
9,@@ 1
em 0.1566303380347718
Βαρκελώνη 1
Μπέρν@@ 1
Ρον@@ 1
Στρατιάς 1
απεικονίζουν 1
επισκευ@@ 1
μποργκ 1
μόνες 1
συνεισ@@ 1
τολόγ@@ 1
Richard 0.14779880404071807
ad@@ 0.0865288426643203
Μουρ 1
θάλαμο 1
θέντων 1
καρδιάς 1
λύκειο 1
Βυζαντινός 1
Κορινθίας 1
βρετανικού 1
γραφίες 1
ετι@@ 1
ευφυ@@ 1
ζευγ@@ 1
όντος 1
AL@@ 0.6974158886142239
Br@@ 0.16276989224395583
άγια 1
αντιμετωπίσουν 1
αποδείξει 1
ηλεκτρικού 1
ηχογράφησαν 1
πολιτο@@ 1
πτηνό 1
σιακό 1
υποστήριζαν 1
Li@@ 0.2785232988636149
Κυβερνήτη 1
Πολιτισμός 1
Ραχ@@ 1
Συλλογ@@ 1
αρχίες 1
γενικού 1
ενήλ@@ 1
επικράτηση 1
καλός 1
περνούν 1
τάκης 1
χειροτονήθηκε 1
1847 0.7442932590853372
Δρ. 1
Κι 1
Φιλι@@ 1
άξει 1
έζε 1
αιτίας 1
ανοίξει 1
διαπρά@@ 1
ελο 1
κορε@@ 1
παγαν@@ 1
περιγράφονται 1
προσωπο@@ 1
σού 1
τώ 1
χρειάστηκε 1
Bo@@ 0.1784581902812413
it@@ 0.1182744360604166
ne 0.04091371433645197
έλου 1
έφθασαν 1
αλιεία 1
ανεξάρτητες 1
ζωντανές 1
κατακτήσεις 1
λντ 1
στων 1
τύμπανα 1
Βλαντιμίρ 1
Κινεζ@@ 1
απω@@ 1
εύκολο 1
ικανή 1
London 0.08307231834459242
έψουν 1
αλκοόλ 1
βασης 1
δεξαμενή 1
εβο 1
επανδρ@@ 1
εχτ 1
σκάνδαλο 1
σχεδιαστής 1
ὶ 1
Αυτοκρατορ@@ 1
Προοδευ@@ 1
δικαιοσύνη 1
εβραϊκ@@ 1
εναλλ@@ 1
εντοπιστεί 1
κρου@@ 1
μεταρρυθμ@@ 1
μοτίβα 1
σημαίας 1
υποταγή 1
όλας 1
El@@ 0.15260921585277162
Αρχηγ@@ 1
Σαμ 1
ατη 1
γρί@@ 1
επαναστατική 1
θήκης 1
μοι 1
ονομασίας 1
ρί 1
Βέν@@ 1
Δίας 1
Δεκα@@ 1
ειδήσεων 1
ζού@@ 1
θηλ@@ 1
κανέναν 1
μεταπτυχιακό 1
μπού 1
νόμιμη 1
ρίν 1
στεγάζει 1
Έσ@@ 1
Γέφυρα 1
Δικαστηρίου 1
Κριτικών 1
Συμεών 1
Χωρών 1
αποκλει@@ 1
διαστημικό 1
εξακολουθούσε 1
επιβί@@ 1
κανόνας 1
λόρ@@ 1
μιλάει 1
ουλ 1
ϊκού 1
th@@ 0.10366194480531342
Αυγουστ@@ 1
Σύρου 1
Τσεχοσλοβακία 1
Φλά@@ 1
ίρη 1
ακυρ@@ 1
αφοσι@@ 1
διεκδικήσει 1
δικαστική 1
θέν@@ 1
ιδιοκτήτη 1
κυμάτων 1
κυμαίνονται 1
πλησίον 1
ταξη 1
τουρκικές 1
φωνές 1
Κυκλ@@ 1
Χιλή 1
έμποροι 1
γο 1
εκδηλ@@ 1
κοσμήματα 1
σηματοδο@@ 1
q@@ 0.3657529734347675
Μπάντεν 1
Σωτήρος 1
αφιέρωσε 1
εκτεταμένες 1
ερευνη@@ 1
τούμενο 1
όκι 1
όπλ@@ 1
όσων 1
Σταύρος 1
Ταγ@@ 1
έικ 1
ίσο 1
αποκλεί@@ 1
αυξαν@@ 1
θερμότητα 1
μαθηματ@@ 1
μαθηματικός 1
μεθάνιο 1
υλών 1
χωρίστηκε 1
ΑΠΟΕΛ 1
Θεατρ@@ 1
Κίεβο 1
Παλαιό 1
Στίβεν 1
Τηλ@@ 1
αποτυχ@@ 1
ισραηλ@@ 1
κιού 1
κρατούσε 1
μεριά 1
προετοιμ@@ 1
τεχνητή 1
Επίσημη 1
Εύβοια 1
Μυλ@@ 1
θεολογία 1
καλύπτονται 1
μελές 1
ούμ 1
πολεμικής 1
υζ@@ 1
χτεί 1
όπτερα 1
Bal@@ 0.1908801275894901
Peter 0.12488145437772606
St 0.1648249895707314
Ελληνικές 1
Επισκοπή 1
έστερα 1
ζεύγη 1
καταστρέψει 1
καταφύγει 1
κατορθ@@ 1
τέτοιου 1
ψήφισαν 1
ϊκής 1
όμος 1
ΑΠ@@ 1
Αριστο@@ 1
Πολιτεία 1
αεροσκάφους 1
αθλήτριες 1
δίας 1
εμπιστοσύνη 1
επ 1
παρατηρού@@ 1
πλοκ@@ 1
τρό@@ 1
χορός 1
ani 0.2092627542586135
Κω@@ 1
Ντομ@@ 1
απεικονίσεις 1
απογραφής 1
αριθμεί 1
βλέπουν 1
γενναι@@ 1
πατρίδας 1
πολέμησαν 1
σιμ@@ 1
χης 1
~ 0.9834107511588532
Ζηλανδίας 1
Κιμ 1
Σαλαμίνα 1
Τάρ@@ 1
Χαϊ@@ 1
ακτ@@ 1
απευθύν@@ 1
επιτυγχάνεται 1
ερυθρ@@ 1
σπάνιες 1
σπουδαία 1
στέλνει 1
1855 0.6502865173444338
Βασίλισσας 1
Μπατ@@ 1
αιτήματα 1
γραφείου 1
γωνίες 1
καταδίκη 1
πολιτιστικής 1
General 0.08703439503637173
Βυζαντινό 1
ανεξάρτητος 1
εκπροσωπείται 1
ερασιτεχνική 1
ιλς 1
κομμουνιστές 1
μόνοι 1
ροποι@@ 1
συλλογικό 1
υποδύθηκε 1
Μπάτ@@ 1
Σερβικής 1
έλευση 1
αξιωματούχοι 1
ειακός 1
ευρύτερο 1
ζο 1
ούλας 1
πλοι@@ 1
στέγη 1
συγκρότηση 1
υπερβ@@ 1
ότζ@@ 1
Αντιπρόεδρος 1
Απογραφή 1
Βαλουά 1
Κιρ@@ 1
Στι@@ 1
αίνεται 1
αναβαθμ@@ 1
αφετέρου 1
γένη 1
εξέχ@@ 1
επιβεβαιώθηκε 1
κατακόρυφ@@ 1
μυστηρι@@ 1
οξι@@ 1
οστών 1
ουρα@@ 1
σημειώθηκαν 1
3ης 1
play 0.0915903061140714
te 0.05346401147151561
Κε@@ 1
ήνης 1
ίσουμε 1
δωρεά 1
ειπ@@ 1
επαφής 1
επηρεάσει 1
θυγατρική 1
ιτσ@@ 1
καθορίζεται 1
κατοικούν 1
μέρ@@ 1
προγενέστερ@@ 1
τίζονται 1
ωρών 1
Show 0.3137974431006687
ΚΟ 1
Λάνκαστερ 1
Ορο@@ 1
Ρεθύμνης 1
Τέν@@ 1
δουλεύει 1
παρασ@@ 1
ψίας 1
12η 1
1600 1
Μπαχ 1
Ντόν@@ 1
Οξιτανίας 1
Πολεμικό 1
Φιν@@ 1
ήρα 1
αθω@@ 1
δεσ@@ 1
διαστημ@@ 1
δολοφονίες 1
κήπους 1
μάρτυρας 1
προέκυψαν 1
τοποίησης 1
Bar@@ 0.12018689352471137
Αλκ@@ 1
Ισλανδία 1
Οδ@@ 1
γράφος 1
δυαδ@@ 1
εξαπλ@@ 1
επτα@@ 1
οκτ@@ 1
ομοί@@ 1
σμά 1
σταδιακή 1
Lord 0.24232297908172024
Αγίους 1
Αθλητική 1
Λευκάδας 1
Τρω@@ 1
αστρονομία 1
θήκες 1
ιλι 1
κτλ. 1
νοτιοδυτική 1
συμβατ@@ 1
συνδικαλι@@ 1
τουρκο@@ 1
τραυματισμό 1
15.000 1
st@@ 0.09452131989147683
Αδελαΐδα 1
Ακρο@@ 1
Γενεύης 1
Ημερ@@ 1
ΙΚ@@ 1
Νείλου 1
Σακ@@ 1
δει@@ 1
διάσ@@ 1
κατασκοπ@@ 1
ολα 1
προσφυγ@@ 1
σαρκοφ@@ 1
χρησιμοποιήσουν 1
Κορινθ@@ 1
αριστοκρατία 1
γραφικών 1
θυγατρ@@ 1
μονάδας 1
παθη@@ 1
προσανατολισμό 1
στε@@ 1
Αθλητισμός 1
Μεσσ@@ 1
Μπόλ@@ 1
Τιρ@@ 1
άμβ@@ 1
αχθεί 1
βοήθειας 1
βρύ@@ 1
ελβε@@ 1
καλλ@@ 1
μερίδιο 1
στερη 1
from 0.006024741398457162
Μολδαβία 1
Προστασίας 1
Σουλεϊμάν 1
αιρ@@ 1
ανάγνωση 1
ανεπτυγ@@ 1
διμερ@@ 1
εξαπ@@ 1
επαναλ@@ 1
θεωρού@@ 1
θηλαστικά 1
καταστήσει 1
ναύαρχος 1
οποιημένο 1
προσαρ@@ 1
Χάουαρντ 1
αναπληρω@@ 1
βλήθηκε 1
μαϊκ@@ 1
σχεδίαση 1
Ανάλογα 1
Κόκκινο 1
Ορέ@@ 1
έρος 1
διέθεταν 1
εισέλθει 1
ενεργός 1
εστιατόρια 1
ηθικό 1
κηρύχθηκε 1
ουκραν@@ 1
ριακός 1
1852 0.6807817936416861
Mega 1
kg 0.4022586177277565
Αντιθέτως 1
Μεγάλες 1
Ολυμπιακή 1
Συμμετοχή 1
Χριστός 1
άτσι 1
αγόρ@@ 1
επαναστά@@ 1
καταλύ@@ 1
κριτικοί 1
τουριστικό 1
Άτ@@ 1
Βιομηχαν@@ 1
Γότ@@ 1
Δημόσιας 1
Ελευθερία 1
Μαύρης 1
Τελευταία 1
ασχολ@@ 1
βρεθούν 1
ηφαίστειο 1
στρο 1
στρογγυλ@@ 1
τάζ 1
υποτελ@@ 1
ύλα 1
gr 1
Σοβιετικοί 1
αιμία 1
ακερ@@ 1
αναστολή 1
αξιοσημείωτο 1
βιοτεχν@@ 1
ευρίσκεται 1
προφέρεται 1
υλοποίηση 1
ώθηση 1
Com@@ 0.20383813943481335
Ζα@@ 1
Νατ@@ 1
άνονται 1
θης 1
θρησκευτικής 1
νταμπλ 1
ριστές 1
σεισμ@@ 1
συζη@@ 1
συσχε@@ 1
Mor@@ 0.16514491067844653
oc@@ 0.14417451820338995
Χιλι@@ 1
αριστερ@@ 1
βιβλ@@ 1
διαθέσιμες 1
τυ 1
χαλαρ@@ 1
ψήφισμα 1
ώντα 1
Αγγ@@ 1
Δημοτικής 1
Ελληνο@@ 1
Καλαμάτα 1
Καραβ@@ 1
Πυρ@@ 1
Χατ@@ 1
άρχοντες 1
αρία 1
τίζει 1
Εβ@@ 1
Σιδηροδρομικός 1
αναδρομή 1
δραπέτευσε 1
ηλεκτρομαγνη@@ 1
ηνού 1
θες 1
προημιτελικά 1
προκλήθηκε 1
προπ@@ 1
id@@ 0.12521866376410043
Έρευνας 1
Αρκετά 1
Κλαρκ 1
αγοράστηκε 1
ανακαλύ@@ 1
αντρ@@ 1
ανώτερ@@ 1
δεκτή 1
μοιρά@@ 1
πάλη 1
σταμάτησαν 1
συνθέ@@ 1
ea 0.2259355426479334
Διαδίκτυο 1
Ηγε@@ 1
Σόλ@@ 1
έπαψε 1
βακτήρια 1
δοκιμή 1
επέζησε 1
ερευνών 1
μπολ@@ 1
οδι@@ 1
συνολικός 1
τέρας 1
υγρασία 1
220 1
Σχετικά 1
Τσεχία 1
αθλητικές 1
αντίθε@@ 1
ησής 1
μάρτυρες 1
οχωρίου 1
παραβι@@ 1
τίες 1
χερσ@@ 1
όγλου 1
re@@ 0.031447485134094864
us@@ 0.12391855444299915
Δύσης 1
Λήμνου 1
Ντόρ@@ 1
Χριστιανούς 1
ισό@@ 1
στιγμής 1
σύγχρονος 1
ταύ@@ 1
φάλ@@ 1
Αλπ 1
Επαγγελματική 1
Ιάπωνες 1
γράφηση 1
θαλάσσιο 1
μέν 1
μελι@@ 1
μοτίβο 1
πύργου 1
τιτς 1
όμ 1
PlayStation 0.8531508010267244
sh@@ 0.10500138015214583
Άντερσον 1
Γενικές 1
Γεννημένος 1
Επίσκοπος 1
Οξ@@ 1
διασχ@@ 1
καταχωρ@@ 1
κοινοβουλευτική 1
ορίζονται 1
πλαγιά 1
τάσης 1
φωσφορ@@ 1
mg 1
Βαλένθια 1
Ναβάρρας 1
επαναληπ@@ 1
κατέστρεψαν 1
νεαρού 1
πι 1
πολιτισμούς 1
προστάτη 1
συνδυάζει 1
τσέν@@ 1
φάνηκε 1
όρις 1
Αναστάσιος 1
Μουσολίνι 1
Σεργκέι 1
ήχους 1
ίσκος 1
γέννησης 1
διαχωρισμό 1
επαιν@@ 1
κύτταρο 1
λεσ@@ 1
Αλεξάνδρα 1
Σιγισμ@@ 1
άρματα 1
έλλι 1
αγγλικής 1
ακρωτήριο 1
αλυσίδας 1
αντικειμένου 1
βι 1
δὲ 1
εκτέλεσε 1
επομένη 1
μέγ@@ 1
μεθόδων 1
μηνύματα 1
πιστοί 1
φόντο 1
Παλαιστίνη 1
Χριστο@@ 1
ίνοι 1
εμπιστοσύνης 1
ευρισκ@@ 1
ξεχωριστές 1
πιά 1
πινάκων 1
ρισμό 1
σύνθε@@ 1
200.000 1
Be@@ 0.13758559395271536
Αριστοτέλης 1
Γκορ@@ 1
Λουίς 1
Ντάγκλας 1
Ντυ@@ 1
έλα@@ 1
ανθρωπο@@ 1
αντίποινα 1
αποφασίσει 1
γκέτο 1
διετία 1
ηλεκτρονικά 1
λόγων 1
οργανώθηκε 1
πιθανές 1
συνδεθεί 1
υαλ@@ 1
1204 1
ra 0.07760684371635869
Διασ@@ 1
Εξωτερ@@ 1
Μιρ@@ 1
Μοχ@@ 1
Πτολεμαίου 1
Συμμετέχει 1
ανακήρυξε 1
ευαισθη@@ 1
ιππ@@ 1
κατασκευάσει 1
λιους 1
πετρ@@ 1
χιλιόμετρο 1
Πεζ@@ 1
Στοκχόλμη 1
ειδικούς 1
ιζερ 1
καθοδηγ@@ 1
λή 1
Αξιοσημείω@@ 1
Βίλ@@ 1
Λει@@ 1
Τμήματα 1
Υδρο@@ 1
γονιμ@@ 1
κρατάει 1
μετοχών 1
μονοπ@@ 1
περίφημη 1
σελην@@ 1
ἔ@@ 1
5,@@ 0.6193995167792415
Th@@ 0.1502410882271618
Ιησούς 1
Οδό 1
Τζόρ@@ 1
απελευθερώθηκε 1
εκρηκ@@ 1
θυσία 1
νομικό 1
προβιβ@@ 1
προωθη@@ 1
συγκεντρώνοντας 1
τερματοφύλακας 1
χρημάτων 1
500.000 1
Of 0.3330978553706001
Ακαδημ@@ 1
Γον@@ 1
Μογγ@@ 1
Χανιά 1
έκτισε 1
δευτερόλεπτο 1
δικαιοσύνης 1
ηττήθηκαν 1
κορυφής 1
περιλάμβαναν 1
πορν@@ 1
όλα@@ 1
www.eetaa.gr 1
Αριθμ@@ 1
Ασχολήθηκε 1
Καλιφόρνιας 1
Μαρόκο 1
Νησιά 1
Πεπ@@ 1
Πιέτρο 1
ίμα 1
αιότητα 1
ανάγκασαν 1
αποκαλούσαν 1
αρχαιολογικές 1
γαλλικές 1
γνωστών 1
γονίδια 1
διαδρομές 1
θετο 1
θρεπ@@ 1
μάρμαρο 1
μετανάστευσης 1
οκτη@@ 1
ολυμπιακούς 1
περιγραφές 1
χρή@@ 1
metaboles 1
ter 0.09000418928453968
Βαλκανικό 1
Κοινότητος 1
Μέρος 1
άκουσε 1
γραμματέα 1
διεργασία 1
κάπου 1
μικούς 1
οκρατ@@ 1
περιηγ@@ 1
σκο@@ 1
συναισθήματα 1
υδατοσφαίρισης 1
όμετρο 1
details.php 1
Πίν@@ 1
Τζωρτζ 1
Ω 1
αργυρό 1
διδάσκει 1
ηπειρωτικό 1
κληρονόμ@@ 1
κόσια 1
λανδ@@ 1
Sony 0.7744536125694901
me 0.11320359788364866
Έντ@@ 1
Ασσυ@@ 1
Ελίζαμπεθ 1
Ερε@@ 1
αθλητικός 1
αρχηγοί 1
ατος 1
βιώ@@ 1
γεωμετρικό 1
δυστυχ@@ 1
εφαλ@@ 1
προσχ@@ 1
πρωταρχ@@ 1
10ου 1
DS 0.8368756238696139
Βεατρίκη 1
άχθηκαν 1
ανιψιά 1
αυτοκρατορικό 1
διοργανώνεται 1
εθελοντές 1
ισχυρός 1
λαϊκό 1
νιτρ@@ 1
ουφ 1
ραμ 1
Κοσσυφοπέδιο 1
Μοχάμεντ 1
Νη@@ 1
Νικηφόρος 1
ΣΕ 1
αζώτου 1
ενδεχόμενο 1
επερχ@@ 1
κυβερνούσε 1
συμμάχησε 1
σύνθημα 1
Art 0.11202734219063848
di@@ 0.0998313552552975
ΕΚ@@ 1
Ιδιαίτερα 1
Μπράουνσβαϊγκ 1
βοηθώντας 1
γράψουν 1
διοργανώτρια 1
εκπροσωπεί 1
ινγκς 1
μεγάλ@@ 1
νήθηκε 1
ριντ 1
χωρο@@ 1
όφυ@@ 1
Αμερικανούς 1
Νέος 1
Ντέρ@@ 1
Φραντς 1
ακαδημ@@ 1
αλληλεπίδραση 1
αναθεωρ@@ 1
αριστ@@ 1
δεκτός 1
επέτρεψαν 1
πείραμα 1
ποικίλλει 1
τρικ 1
τροπή 1
ψαριών 1
rock 0.14888253252848146
Επαγγελ@@ 1
Πανελλήν@@ 1
Τσέ@@ 1
άγα 1
δαι@@ 1
επιστημονικών 1
κινεζ@@ 1
κυκλοφορούν 1
κύπελλα 1
ολλανδ@@ 1
ουμπ@@ 1
πάρκα 1
προχώρησαν 1
φύλα 1
Αθηναίους 1
Β.@@ 1
Βίκτορ 1
Πρωταγων@@ 1
Σό@@ 1
ίγκ@@ 1
ασκούσε 1
κατασκευασμένο 1
νοι 1
πεδιν@@ 1
σκοπο@@ 1
συνομιλίες 1
Μακεδονικό 1
αρμοδιότητες 1
αφ 1
γαι@@ 1
δήμοι 1
επιτυχίας 1
θέατρα 1
κρυστ@@ 1
μει 1
ορυκτό 1
φανερ@@ 1
όλυση 1
Λιούις 1
Σιχ 1
ακτίνων 1
βεν 1
γη@@ 1
διάλεκτος 1
ευχαρ@@ 1
κομματιού 1
κόμικ 1
μπεκ 1
χαρτ 1
όμου 1
Don 0.24716357042325113
Αλβέρτου 1
Αντικ@@ 1
Προκειμένου 1
Σαφ@@ 1
Φιλαδέλφεια 1
βοηθούν 1
ζωγράφους 1
καταρρί@@ 1
μηνι@@ 1
μοί 1
οξυ@@ 1
πωλήσεων 1
τσεχ@@ 1
ψαρ@@ 1
ano 0.13951708240235974
oikmet 1
un@@ 0.03570511829006663
Ίσως 1
Βαλκανικούς 1
Ελευθερίας 1
Καντακουζ@@ 1
Σλοβενία 1
άκιο 1
αιχμαλωσία 1
βιογραφία 1
γέφυρες 1
διπλωμάτης 1
εγκαταστάσεων 1
εμπλοκή 1
εφήβων 1
πρότζεκτ 1
συνέδρια 1
συναλλαγές 1
σφετερ@@ 1
YouTube 0.5904249832047529
Α.Π.@@ 1
Καυκάσου 1
Κύριος 1
Σελήνης 1
Ψηφ@@ 1
άφησαν 1
αργή 1
γειτονιά 1
ιανού 1
ινου 1
περιτ@@ 1
στήλες 1
τιμω@@ 1
il@@ 0.1179694018763503
Δυναστείας 1
Καβάλα 1
Ουέσσεξ 1
ΣΥΡΙΖΑ 1
Σκυ@@ 1
ανικών 1
αύξησε 1
δοί 1
επενδύσεις 1
ντερ@@ 1
περιστατικά 1
πραγματικός 1
σκέψεις 1
τροποποιήσεις 1
ύτερ@@ 1
Le@@ 0.14231866611185054
άμπα 1
έχω 1
απογοητευ@@ 1
γεννήθηκαν 1
επιτυχημένες 1
καινοτ@@ 1
ντυ@@ 1
ούντο 1
περιοδείας 1
ρωσ@@ 1
υπουργ@@ 1
360 0.8672371901475756
Ανδρικού 1
Χάρις 1
γράφου 1
εκτική 1
πειρά@@ 1
συμβουλευ@@ 1
τζι@@ 1
τιμηθεί 1
Βίκ@@ 1
Εργατικό 1
έρημο 1
ανθρωπίνων 1
ατμοσφαι@@ 1
εμποδ@@ 1
καταδικ@@ 1
κληση 1
μεθόδου 1
μετατρέ@@ 1
νόσος 1
προβολής 1
πρόωρα 1
τράπεζες 1
χάν 1
ψηφιακή 1
όη 1
1797 1
Αλγερία 1
Δεκαετία 1
Σημαντική 1
ένα@@ 1
έπαιρνε 1
γράφημα 1
ελεύθερες 1
κρού@@ 1
λογοτεχνικά 1
σκηνοθέτες 1
τωμα 1
υπ 1
1700 1
80@@ 1
Λάου@@ 1
είστηκε 1
μέλ@@ 1
μαχος 1
πόρτες 1
σκακ@@ 1
χάρ@@ 1
ch 0.12688627631566404
Ανν@@ 1
ήγαγε 1
αποδίδονται 1
δικτατορία 1
κατοικιών 1
παρασκ@@ 1
περιστροφής 1
σκόνη 1
συναντήθηκαν 1
συνείδηση 1
ψευ@@ 1
1842 0.7507519801980648
center 0.15606160319091308
Γιος 1
Κομνηνός 1
Πανα@@ 1
έκτακ@@ 1
ήκ@@ 1
κατοικείται 1
κηρύ@@ 1
Pictures 0.7716803682426812
ab@@ 0.05861303789532504
Αλεξ@@ 1
Αρβαν@@ 1
Λιγ@@ 1
Μπαϊ@@ 1
άμεσο 1
αφηγείται 1
γειτονικά 1
δόντια 1
ενδιαφέροντα 1
εφαρμοσ@@ 1
πιάτο 1
προτειν@@ 1
χε@@ 1
όλιο 1
34@@ 1
Γκυ 1
Στέφαν 1
Χριστιανών 1
έλαιο 1
αποτελεσματ@@ 1
βγαίνει 1
ειλε 1
ηρε@@ 1
ιδρύματος 1
κατακτήθηκε 1
μάθησης 1
παλατιού 1
συνεχούς 1
τάγματα 1
Πολιτι@@ 1
ανησυχία 1
δεσμών 1
ενίοτε 1
λιας 1
οροπέδιο 1
ούμενους 1
Se@@ 0.13672570912865484
Αδρι@@ 1
Κύρια 1
Περιστ@@ 1
αλα 1
ανδρος 1
απού@@ 1
διαφορ@@ 1
κομητείες 1
λησης 1
μπέρ 1
στάν 1
ταχύτητες 1
40.000 1
Εξέγερση 1
Ματθ@@ 1
ηψης 1
καθεδρικός 1
κιβώτιο 1
ταφή 1
τόμο 1
χαμηλότερα 1
US 0.05676688562250237
Βαλδουίνος 1
Στερεάς 1
ήτων 1
βγει 1
ειές 1
ενεργειών 1
εξωτερικές 1
θε 1
λιού 1
μυθολογίας 1
υπηρετούν 1
χον@@ 1
χρηματο@@ 1
35@@ 0.9024054780194377
Αθλητισμού 1
ΕΑ@@ 1
Καλύτερου 1
Ουίν@@ 1
αποδεκτό 1
γλύπτη 1
δη@@ 1
εκδίκηση 1
κείμεν@@ 1
παράλληλ@@ 1
συμπεριλαμβάνονται 1
τρισδιά@@ 1
χρήστης 1
Or@@ 0.15101447220000194
Μπέλα 1
Τι 1
Φάρ@@ 1
δίνη 1
ηλεκτρικά 1
λινγκ 1
μηχανής 1
ρούμε 1
σήματος 1
συντομογραφία 1
σχημάτισαν 1
ύρης 1
Ακουιτανίας 1
Βλά@@ 1
Θωμάς 1
Ναν@@ 1
άματος 1
ήπι@@ 1
επιτρέ@@ 1
τολής 1
Αιν@@ 1
Σερβική 1
Ταμπ@@ 1
ακυρώθηκε 1
ανοικτά 1
αξαν 1
εκπαιδευτικά 1
εξαγωγή 1
επιμέλεια 1
άντια 1
έκοψε 1
ανίου 1
γεννι@@ 1
διέρχεται 1
δωρεές 1
επεκταθεί 1
επονομ@@ 1
μεταλλίων 1
παραχωρ@@ 1
πηλ@@ 1
τραυματίες 1
ans 0.04941413041066734
Αποτελ@@ 1
Ιταλικής 1
Κούβα 1
Νορμανδία 1
ακούγεται 1
απαιτούνται 1
δαί@@ 1
θωρακ@@ 1
παραγωγοί 1
τρέχει 1
ανιψιό 1
ατιν@@ 1
δοσ@@ 1
μιση 1
ογενή 1
οτι 1
περιεχ@@ 1
περιμένει 1
τεσ@@ 1
5ος 1
om@@ 0.11727030930420561
Αυστραλι@@ 1
Γεωγραφικά 1
Μεραρχίας 1
Τέρ@@ 1
ινούς 1
οδηγό 1
πετρώματα 1
πόλο 1
συνεδρίαση 1
υργ@@ 1
Λούις 1
Σοσιαλιστική 1
Σταν@@ 1
Τελ 1
αλκοολ@@ 1
ανακοίνωσαν 1
επιτυχής 1
ιατρικές 1
κινεζική 1
μπόρεσαν 1
νού 1
ξύλου 1
παραγγελία 1
τραγούδησε 1
φόρος 1
ψυχαγωγ@@ 1
ότοπος 1
EP 0.31266964729003177
Pr@@ 0.20510131441345913
ίρης 1
ετίας 1
ετο@@ 1
ευρ@@ 1
συγκρι@@ 1
συνεχίσουν 1
φίλου 1
ψήφο 1
όλυ@@ 1
Center 0.13803044414268592
Di@@ 0.15621141662586074
Fame 0.5173030548142091
High 0.10587948397315618
Βουλγαρική 1
Εισαγγελ@@ 1
Κλεοπάτρα 1
Ουσ@@ 1
ανόταν 1
αποτελεσ@@ 1
διευκολ@@ 1
επιθέσεων 1
εφεδρ@@ 1
ιαπ@@ 1
κατηγορι@@ 1
λειτουργούσαν 1
νομικός 1
ουλι@@ 1
περτ 1
φέ@@ 1
36@@ 1
Μάγκνους 1
αναγωγή 1
ειό 1
ιδιαιτέρως 1
κοινωνίες 1
μειωμένη 1
προάστια 1
προβληματ@@ 1
ρίσεις 1
όμο 1
11,@@ 1
Μελισσ@@ 1
έμενε 1
βρώ@@ 1
δικηγ@@ 1
εξόρι@@ 1
θηκ@@ 1
μεθυλο 1
ορισ@@ 1
πέρ@@ 1
στέκ@@ 1
τέλει@@ 1
7ου 1
As@@ 0.17725287920885952
Αγνή 1
Θέρ@@ 1
Ιππ@@ 1
Κύριο 1
Περσίας 1
Ταϊβάν 1
ακίου 1
αποδοθεί 1
αποικι@@ 1
δικτύων 1
επιτυχή 1
ισμένου 1
κρατώντας 1
μεθοδ@@ 1
μεταφορών 1
περιγραφεί 1
πρωταθλητές 1
Ερευνών 1
Καθεδρικό 1
Κινήματος 1
Κύπελλα 1
Λαμία 1
άιτ 1
αφήν@@ 1
αϊκό 1
καθήκον 1
μέτρια 1
σκούρο 1
τῶν 1
ωκεανό 1
ύρια 1
1813 0.8299529777548702
Βίττελσμπαχ 1
Ηρόδοτος 1
Κυπελλούχων 1
Κόπα 1
Ομόνοια 1
Ορχήστρα 1
Παλαιάς 1
Προφήτη 1
Ρωμαιοκαθολ@@ 1
Υποκατάσταση 1
ήρες 1
εταιρ@@ 1
μίνη 1
μεγέθη 1
μμα 1
πολιορκίας 1
σάν 1
στασίου 1
συμφιλι@@ 1
συνταγματάρχης 1
σύγ@@ 1
ῶν 1
1846 0.6730445474084272
Die 0.011463329286487835
Street 0.10347932817226936
ir@@ 0.10930870159824847
Αθηνάς 1
Βόσ@@ 1
Τοσκάνης 1
Υποθέσεων 1
βίου 1
βουλή 1
γεμάτη 1
γραφο 1
διανομής 1
δρυ@@ 1
ερευνητής 1
μετείχε 1
μπουρκ 1
χριστιανούς 1
ation 0.04609692834774092
Πιστ@@ 1
Πλάτωνα 1
Πληροφορίες 1
αυτοκινητοβιομηχανία 1
γρά@@ 1
δραστηριοποιήθηκε 1
δωματίου 1
ευμα 1
κή@@ 1
οξιτανικά 1
πασά 1
προγραμματιστεί 1
Βραζιλι@@ 1
Ευρυτανίας 1
Ισπανός 1
Μητ@@ 1
Σιμ@@ 1
Χαϊδελβέργη 1
έστερο 1
έφαλ@@ 1
ήπια 1
ήχος 1
αναφορικά 1
απονομή 1
βέβαιο 1
εκδώσει 1
μενες 1
παλλ@@ 1
πιθανότητες 1
πρωτεΐνη 1
τσκ 1
υψηλών 1
125 0.7004099214543497
Έλενα 1
Θεόδωρο 1
Πουλ@@ 1
ήλ 1
ίσθηκαν 1
ανάλογο 1
ανήλ@@ 1
απολογ@@ 1
δυναμικού 1
εύματος 1
ηρ@@ 1
θεώρησαν 1
πολυάριθμα 1
σταρ 1
ότυπα 1
Άντονι 1
Ανεξαρτησίας 1
Κένεντι 1
ήλιος 1
αποτελούμενη 1
εξισώσεις 1
επεκτείνει 1
ζωντανό 1
κοφ@@ 1
μεταμορφ@@ 1
συχνή 1
τάγματος 1
Κινγκ 1
Λιβάνου 1
Παρουσι@@ 1
Φίλ@@ 1
ανγκ 1
αποκατάστασης 1
απονέ@@ 1
αποφοίτησή 1
γα@@ 1
γαν@@ 1
δίκης 1
διαφύγει 1
λοι@@ 1
μ.ό. 1
μελλοντική 1
μεταφράζεται 1
οριών 1
τουρκοκρατίας 1
τόξο 1
Rolling 0.8777577688191992
Ερασι@@ 1
Οδυσσέα 1
Πουέρτο 1
Τζό@@ 1
άγγελ@@ 1
έβδομη 1
βρίσκουν 1
ερυθ@@ 1
ογέν@@ 1
Αθ@@ 1
Γερμανικού 1
Θησ@@ 1
Ρωμαϊκ@@ 1
εκτίθεται 1
επέφερε 1
καταπολέμηση 1
κλιμακ@@ 1
ναών 1
οργή 1
παράθυρο 1
σιδηροδρομ@@ 1
χρονολογία 1
ti@@ 0.1038777369708945
Άνταμ 1
Γιορκ 1
Σλοβακία 1
έσκου 1
έφαλος 1
αντιμετωπίζουν 1
ασβεστ@@ 1
ελατ@@ 1
εξετα@@ 1
επιχειρηματία 1
σχηματίσουν 1
ταρα@@ 1
υλος 1
υπόγειο 1
Par@@ 0.12376598363657529
ag@@ 0.09629599060158991
Γιουρόπα 1
ΔΕ@@ 1
Δείτε 1
αδι@@ 1
αντιλήψεις 1
διστ@@ 1
σημαντικοί 1
ψωμί 1
38@@ 0.9970728833414124
Δέκα 1
Ινδου@@ 1
Πρωταγωνιστούν 1
Ρωσ@@ 1
Τόν@@ 1
Χριστουγέννων 1
απολύθηκε 1
νοκ 1
τυποποι@@ 1
φινλανδ@@ 1
ωτ@@ 1
Lee 0.20555818635916287
ant 0.05806737826253255
Ζενίτ 1
Μαγνησίας 1
Ρουμαν@@ 1
Σπά@@ 1
άγονται 1
άλλωστε 1
άρεσε 1
γκε 1
διπλασι@@ 1
εμβλ@@ 1
ηλεκτρονικό 1
κωδικός 1
οντότητα 1
ποιο 1
πρόσθετα 1
σκότωσαν 1
Αντί 1
Ας 1
Αστυνομίας 1
Καρλόττα 1
Πισ@@ 1
Ποιν@@ 1
αποτελ@@ 1
ασθενειών 1
ατυχ@@ 1
βασιλικού 1
βρο@@ 1
μνημείων 1
ριχ@@ 1
υλική 1
1839 0.7390635913877991
AR@@ 0.4964615460521062
Joseph 0.1266702414790944
Μετάλλιο 1
Οδυσσέας 1
Παράδ@@ 1
έσπ@@ 1
αλληλεπι@@ 1
αναγνωρισμένο 1
ανώτατη 1
αρχιτέκτονες 1
ιμες 1
ιππότες 1
λίν 1
λησαν 1
οργάνου 1
ριζαν 1
13η 1
1809 0.959010907720941
Κόσ@@ 1
Σκου@@ 1
Τζ 1
Φυσ@@ 1
άξουν 1
ασφαλή 1
γάτα 1
ερευνητικό 1
ηλεκτρόνια 1
καταλόγους 1
λεμ 1
προεξ@@ 1
στηρίου 1
συζυγ@@ 1
τίτλων 1
χάλυβα 1
Αεροπο@@ 1
Αλα@@ 1
Βενιζέλος 1
Γκουρού 1
Κόστα 1
Λέσ@@ 1
Μαθ@@ 1
δημοσιεύσει 1
λογοτεχνική 1
πανδημίας 1
παράνομ@@ 1
παρέχοντας 1
σημείου 1
τιζόταν 1
χρωμη 1
Βό@@ 1
Γκερ@@ 1
Εμφυλίου 1
Μνημ@@ 1
Τεχνολογίας 1
Φίν@@ 1
Χρόνια 1
γκελ@@ 1
διέκοψε 1
διασκεδ@@ 1
νεκρός 1
πομπ@@ 1
συνέβαλαν 1
τεχνικά 1
όνειρο 1
6,@@ 0.6913684331136725
Φίλιπ 1
άλωση 1
έντον@@ 1
αλληλο@@ 1
σμπουργκ 1
συντάκτης 1
τιμος 1
ate 0.050712102549174465
Ασφάλειας 1
Εχ@@ 1
Νεπάλ 1
Σαντ 1
έλυσε 1
ήρω@@ 1
αγωγός 1
επιμελ@@ 1
ηπατ@@ 1
ικους 1
ιλία 1
πληροφορι@@ 1
προσκήνιο 1
στοι 1
τσεν@@ 1
9ου 1
ai 0.13261319621659204
Ανατ@@ 1
Πολέμους 1
Τατ@@ 1
Τιβ@@ 1
δείκτης 1
διακοπές 1
ηνα@@ 1
θεώρηση 1
κυβερνητική 1
μίλησε 1
μπους 1
ντόπιοι 1
πρόσωπό 1
σωλήνα 1
φαράγγι 1
Κικ@@ 1
Σαλαμίνας 1
αλλεργ@@ 1
αυστηρή 1
βασιζόταν 1
ευρεσιτεχνίας 1
ιγκ@@ 1
ιθ@@ 1
καί 1
συστηματικά 1
ψυχής 1
und 0.002735943965325562
Δημογραφία 1
Ντι 1
Πιερίας 1
Τοπικής 1
έρη 1
ανάκτηση 1
ανησυχίες 1
δεξιό 1
ενότητες 1
εργατών 1
πληροφορ@@ 1
Δραστηρι@@ 1
Σχηματ@@ 1
αξιωματούχος 1
δέντρων 1
δεψε 1
επικράτειας 1
κυριαρχεί 1
οσία 1
Άγγλων 1
Ηθ@@ 1
Λο@@ 1
Μαγι@@ 1
Προέλευση 1
άμπ 1
ήλου 1
ελς 1
εμφύ@@ 1
ιστι@@ 1
κινδύ@@ 1
συντομ@@ 1
υνσης 1
υπαρ@@ 1
1810 0.8018245780579072
Λοκ@@ 1
Ντιναμό 1
Σκά@@ 1
άκμασε 1
έκπληξη 1
αρνητικό 1
διευρ@@ 1
δις 1
προκριματικό 1
ύφους 1
Ασφάλεια 1
Ζακ@@ 1
Πρακ@@ 1
Ραδιοφ@@ 1
Χριστούγεννα 1
άκοι 1
απεργ@@ 1
βόλεϊ 1
δίχως 1
εορτασμό 1
επίτροπος 1
ζημ@@ 1
λαμβ@@ 1
μετατοπ@@ 1
μονες 1
οικοδομήθηκε 1
οφέλη 1
πανηγ@@ 1
χτίστηκαν 1
όκερ 1
Αρκετές 1
ΕΙ@@ 1
Κέιμπριτζ 1
Καϊ@@ 1
Νόμο 1
αποδόθηκε 1
καθορι@@ 1
κοί 1
λιτς 1
μητροπολιτική 1
μνημείου 1
ποδοσφαιρικός 1
πολωνικό 1
συγκεντρώνει 1
συμβάλλει 1
σφαίριση 1
Mercedes 0.8788137221618917
Society 0.1375571390128043
Αβραάμ 1
Ηνωμένα 1
Ιγκ@@ 1
Τυπ@@ 1
κατασκευάζεται 1
κηδεύτηκε 1
μετανάστευσαν 1
μορίων 1
ολόκληρης 1
ομαι 1
συντελεστές 1
σωματιδίων 1
σύνορο 1
φαντασία 1
AC 0.3790016520562766
Corporation 0.28559961433146874
Stone 0.42653236370633946
Άλπεις 1
Ράσελ 1
Ρότ@@ 1
Στρο@@ 1
Σύμβ@@ 1
Φυ@@ 1
αλία 1
βαρύτητας 1
εκλεκ@@ 1
μαραθ@@ 1
οτά@@ 1
παντού 1
ρασι@@ 1
σή@@ 1
σεναρίου 1
στρων 1
συλλαβ@@ 1
τήρηση 1
ύποπ@@ 1
France 0.044968914892858175
Ιβάν@@ 1
Τζέιν 1
άρχοντα 1
ήτριας 1
γκρι 1
κει@@ 1
τοσ@@ 1
105 0.8026774852220832
Καντ@@ 1
Λόν@@ 1
Ούγος 1
Σημειώσεις 1
ίστες 1
ανακαλύψει 1
βαλβ@@ 1
επισκέψεις 1
ευρωπαϊκού 1
ιανών 1
κρίσιμη 1
ξεχωριστός 1
ορατ@@ 1
προωθήσει 1
στόχοι 1
τηλεοπτικός 1
φίλων 1
em@@ 0.09690508148466122
Βαυαρία 1
Λειτουργία 1
Νησί 1
Τσέλσι 1
άρντο 1
έντασης 1
αναφέροντας 1
βελτιώσεις 1
βομβ@@ 1
ελλαδικό 1
λετ 1
μοντέρν@@ 1
ολόγου 1
οποιούν 1
οτυπ@@ 1
πετρέλαιο 1
πλήρω@@ 1
συναν@@ 1
όψεις 1
Co@@ 0.16193818741079846
En@@ 0.1499428696626881
Final 0.3168342035677586
out 0.02986785341926246
ul@@ 0.11655599814816528
Αραβίας 1
Περί@@ 1
δογ@@ 1
ερώτημα 1
καθάρι@@ 1
καταλήξει 1
λους 1
μεταφραστεί 1
οδικό 1
οστό 1
παντρεύτηκαν 1
προβιβάστηκε 1
τουν 1
υφίστανται 1
ψήφ@@ 1
ψυχολογία 1
ότη 1
Sp@@ 0.20151864890008342
Αντρέα 1
Φλαμαν@@ 1
αιότητας 1
ενορία 1
ητήρια 1
θέλησε 1
λεξε 1
οριοθε@@ 1
πολλαπλές 1
ρέν@@ 1
συνδεδεμένη 1
10,@@ 1
ā@@ 0.29769686525235295
Πνευ@@ 1
Σειρά 1
άστρα 1
άχτηκε 1
απάν@@ 1
απλές 1
απόφασης 1
ιζόμενος 1
μαχών 1
περιορίστηκε 1
σκάκι 1
συγκεκριμένων 1
un 0.0042832192586373455
Ανδρόνικος 1
Οργανισμό 1
ανυψ@@ 1
βασικούς 1
δρομέ@@ 1
ελήφθη 1
θει 1
καλύπτοντας 1
οπα@@ 1
πέταξε 1
στραμ@@ 1
συνεντεύξεις 1
τσάς 1
φιλοτεχν@@ 1
hp 1
Ευρωπαίους 1
Πολεμικού 1
Σοσιαλιστικό 1
ίφη 1
απόστασης 1
κιθαρίστας 1
λς 1
οκλ@@ 1
παρουσιάστηκαν 1
συγγενής 1
ταξαν 1
χαρακτηριστ@@ 1
Si@@ 0.33525560842182883
Αλεξίου 1
Οχάιο 1
Περισσ@@ 1
άνοιξαν 1
έτου 1
αστυνομ@@ 1
εμπόδιο 1
εντυπωσιακό 1
επιστήμονας 1
εφέ 1
ονομάτων 1
οργανωμένη 1
ριανή 1
συλλαμβ@@ 1
όα 1
Bur@@ 0.20976409699150447
Αγων@@ 1
Διπλ@@ 1
Λογοτεχν@@ 1
ΣΤ@@ 1
άγο 1
αντοχή 1
αχν@@ 1
γραπτή 1
ιρλανδ@@ 1
κατάλληλες 1
καταλήγουν 1
κινδύνους 1
λωρίδες 1
συγκρα@@ 1
ωφελ@@ 1
Αριστεράς 1
Ινδονησία 1
αγωνίζονται 1
ανοίγει 1
αρχιτεκτονικό 1
γιγ@@ 1
γυναικείου 1
ενδοχώρα 1
ενθαρρ@@ 1
ευκαιρίες 1
μαθηματική 1
μω@@ 1
τεχνολογίες 1
τόρ 1
χορωδία 1
χριστιανών 1
re 0.0846369665469992
Ασπ@@ 1
Κρυ@@ 1
Ντιν 1
αεροδυναμ@@ 1
ανό@@ 1
εντοπίζεται 1
θαυ@@ 1
κατάγεται 1
κοινοβουλευ@@ 1
λαμπ@@ 1
λειτουργικά 1
νοι@@ 1
παρουσί@@ 1
προτεραιότητα 1
ριάς 1
60@@ 1
Fox 0.35501711184006945
Δέλτα 1
Δουκάτου 1
ΙΒ 1
Μερκίας 1
εκπροσωπήσει 1
ούτ 1
περιφερειακές 1
προβολ@@ 1
ράφηκε 1
συντήρησης 1
τουρισμό 1
τρεψε 1
qu@@ 0.1550082389628342
Βουκουρεστίου 1
Ντιν@@ 1
Σπουδ@@ 1
Τουρκικής 1
αποδεκ@@ 1
αποζημίωση 1
γιορτά@@ 1
ετικά 1
εων 1
ιθαγενείς 1
καθυστέρηση 1
κανονικές 1
κατευθύνσεις 1
παγκόσμιου 1
ταξιδεύει 1
τηλεσκόπιο 1
τοποθετεί 1
φύγουν 1
ύδατα 1
ύνθηκε 1
ώνησε 1
Europe 0.09166354633435565
FM 0.30323232573229186
SA 0.4496012447468872
Άντρι@@ 1
Αρχιτεκτονική 1
Γκόρντον 1
ΕΛ 1
Μεταφορές 1
ΝΔ. 1
Σημειώνεται 1
έμφ@@ 1
αναγκαία 1
απόρ@@ 1
γκεν@@ 1
μήκη 1
πεντά@@ 1
σκεφ@@ 1
τετραγωνικών 1
τρομ@@ 1
υπόθεσης 1
ώνιου 1
Λαού 1
Μετώπου 1
ένι 1
αθώ@@ 1
ακρόπολη 1
βρετανικής 1
γιου@@ 1
διακρίν@@ 1
εξεγερ@@ 1
επιτροπές 1
εφηβ@@ 1
θρησκείες 1
μέσ@@ 1
μεταγενέστερη 1
μετρικά 1
ομοσπονδίας 1
προηγούμενων 1
φυτού 1
20ό 1
Γαλλικού 1
Λω@@ 1
Ροβέρτου 1
Σάρα 1
Σκορ@@ 1
έσωσε 1
αλά 1
ευαισθησία 1
ιεραρχία 1
μεσαίο 1
παραμένοντας 1
πετυχ@@ 1
στρεμμάτων 1
υπολογισμό 1
χαρά 1
χρωμ@@ 1
χτύπημα 1
ψαλ@@ 1
Alpha 1
Βρετανών 1
Επιστήμης 1
Εποχής 1
Μουσουλμάνοι 1
Πάουλ 1
Φαρμακ@@ 1
απέτυχαν 1
βάλλοντας 1
γεμάτο 1
ελαφρ@@ 1
εντούτοις 1
θριαμβ@@ 1
μεσαιωνικό 1
ξεχωρίζουν 1
προσγει@@ 1
ρικούς 1
σχοιν@@ 1
τσερ 1
υπηρέτησαν 1
υπόγεια 1
Αυστ@@ 1
Αχιλλέα 1
Κώδικα 1
Μικρή 1
άνονταν 1
αποφευχθεί 1
γνωρίζουν 1
καπνού 1
κορυφαίες 1
ογράφοι 1
παράγωγα 1
πειρατές 1
τρομερ@@ 1
ύλιο 1
Γραμ@@ 1
Θήβα 1
Ιντιάνα 1
Λετονίας 1
Τασ@@ 1
ήνα 1
απειλές 1
αυση 1
ζε@@ 1
λλος 1
συνόλων 1
τήρ@@ 1
ταχυδρομ@@ 1
υπεροχή 1
χρηστών 1
Festival 0.13096341298173825
Άκ@@ 1
Λουκ@@ 1
ΣΑ@@ 1
ΩΝ 1
έτρ@@ 1
αντικαταστάθηκαν 1
αποκαλούνται 1
αυξήθηκαν 1
εγκέφαλο 1
εντς 1
μονάρχη 1
νεκροί 1
ρέφ@@ 1
στασή 1
χειμώνες 1
όχο 1
MTV 0.6867423274207834
width 0.8425411189808076
Διάσκεψη 1
Κοινωνία 1
άλογ@@ 1
έδιναν 1
δασών 1
εφο@@ 1
κυκλοφορ@@ 1
μεύ@@ 1
ορα 1
οτί@@ 1
ουστ 1
πρώιμ@@ 1
συνόδευσε 1
τοφ@@ 1
CIA 1
Media 0.2681377998201986
Ποδοσφαι@@ 1
γκς 1
δεύτηκε 1
λίγοι 1
μεταλλουργ@@ 1
οδηγήθηκε 1
πάνε 1
περίεργ@@ 1
πλού@@ 1
πονται 1
ρερ 1
σιακός 1
στασι@@ 1
τύχ@@ 1
1790 0.882874772755444
1818 0.8361528617516394
Αλφ@@ 1
Αρχές 1
Βορειο@@ 1
Γοργ@@ 1
Ερω@@ 1
Μπλέ@@ 1
Μπολσεβ@@ 1
Σιδηρ@@ 1
ένοπλη 1
ακαδημία 1
αντιδρά 1
αστεροειδή 1
εκδικ@@ 1
εναλλακ@@ 1
επόμενος 1
ερσ@@ 1
θρω@@ 1
κλαμπ 1
κλασικά 1
μελη@@ 1
ρυ 1
συνεργάτη 1
σύντροφ@@ 1
ταχεία 1
do 0.055266494310068554
Πολιτείας 1
αήττη@@ 1
αγου@@ 1
διενεργ@@ 1
δουν 1
μουσικ@@ 1
ξεκινούσε 1
πυρε@@ 1
ταμι@@ 1
τρελ@@ 1
ύλοι 1
Μετρό 1
Μικρό 1
ήμερ@@ 1
απαιτ@@ 1
απολύτως 1
επικεντρώθηκε 1
ηγεσίας 1
οπές 1
οσμ@@ 1
ουτ@@ 1
περικυκλ@@ 1
Γκρι@@ 1
Επιστροφή 1
Πέρασε 1
Στόχος 1
δρομολόγια 1
κατασκευάζονται 1
λιμανιού 1
λλας 1
πληρωμή 1
συνεχίζοντας 1
τ. 1
20ο 1
News 0.28390422907587487
Α.Ε.@@ 1
Αλφόνσου 1
Θεοδώρα 1
Ιδρυ@@ 1
ΠΑΟ 1
Παλατινάτου 1
Φάλ@@ 1
Χιλ 1
απαγόρευσε 1
ελάχ@@ 1
λιθου@@ 1
μενων 1
μπας 1
σκάφους 1
φιλοσοφ@@ 1
Ζώνη 1
Κουίν@@ 1
Σιδη@@ 1
Τελικός 1
Φωτο@@ 1
ίτιδας 1
αδικ@@ 1
γεννα@@ 1
ελέγ@@ 1
επέκτεινε 1
επιδημία 1
μεταπτυχ@@ 1
μπάντας 1
προσθέτοντας 1
σμήνος 1
φυλακής 1
χριστιανικές 1
Out 0.46172046271145123
li@@ 0.11943711949546663
Κολούμπια 1
Κόρινθο 1
Μελι@@ 1
Ραβ@@ 1
Χάινριχ 1
άσιο 1
αίσ@@ 1
ανακαλυφθεί 1
ανταλλαγής 1
δημοσίων 1
εκσυγχρον@@ 1
εψε 1
κατεχ@@ 1
μοναρχίας 1
οπτικό 1
ορεινός 1
ορυχεία 1
παράλληλη 1
σάλ@@ 1
τάι 1
φθορι@@ 1
1838 0.6947326034778548
av@@ 0.13001492122743316
Άνταμς 1
Επαρχ@@ 1
Πρώτου 1
άνειας 1
ήλιου 1
ήσω 1
βέν@@ 1
γεννηθεί 1
δράσει 1
εξαρτη@@ 1
ευημερία 1
ιακούς 1
παύ@@ 1
πλάσμα 1
σίου 1
υδροξ@@ 1
χρει@@ 1
19@@ 1
200@@ 1
ed@@ 0.1384407256301597
Όπερα 1
Αλεξάντρ 1
Ανγκ@@ 1
Αντα@@ 1
Ιησου@@ 1
Κοιλάδα 1
Μιχάλη 1
Ντερ@@ 1
ΣΕ@@ 1
γιά 1
εβα 1
κατέθεσε 1
κολυμβ@@ 1
κυβερνητικές 1
ματάρχη 1
ομόλογ@@ 1
οπισθ@@ 1
ουβ@@ 1
ούδες 1
πλησιάζει 1
πολε@@ 1
πτική 1
σημειώσεις 1
χέ@@ 1
CH@@ 0.7587075374051998
ap@@ 0.09289903328922489
Έντου@@ 1
Διά@@ 1
Μπάρι 1
αίσθημα 1
βουλγαρική 1
γκτον 1
γραφικές 1
δικαστής 1
ειξης 1
κτισ@@ 1
κυριότερα 1
οχυρώσεις 1
προηγούμενου 1
χώρησε 1
όζα 1
Αμφι@@ 1
Ιμπ@@ 1
Στή@@ 1
έλε 1
αλφαβ@@ 1
αποθήκευσης 1
αριθμητική 1
γράφουν 1
επιστρέφοντας 1
κυκλική 1
ουκ@@ 1
πρώιμο 1
ραγκ@@ 1
στόχων 1
υγειονομ@@ 1
όσημο 1
Αφροδίτης 1
Κολοκοτρώνη 1
Μαρν 1
Οικονομίας 1
Ούλ@@ 1
Πρέπει 1
Προπονητής 1
επιτρ@@ 1
λαφ 1
πήγαινε 1
ποδοσφαιριστή 1
ποιο@@ 1
χτύπησε 1
όσφαιρα 1
ότητος 1
Αθηνα@@ 1
Αρί@@ 1
Κινηματο@@ 1
Μετσ@@ 1
Σαλβαδόρ 1
Σισ@@ 1
Σωματ@@ 1
άργυρο 1
έλεγαν 1
αντιτορπιλ@@ 1
λιγότερα 1
προσφέροντας 1
ραση 1
συμβαίνουν 1
ϊν 1
βαρύτητα 1
γραμμένη 1
εγκαταλελειμ@@ 1
εμπνευσ@@ 1
επιβατών 1
καθήκοντά 1
κλίματος 1
μότητα 1
ξενοδοχεία 1
οβολ@@ 1
ουφ@@ 1
σμένα 1
συναντάμε 1
χυμ@@ 1
Ag@@ 0.2678187168114377
Αρμενίων 1
Αυγ@@ 1
Εμφύλιο 1
Πέτερ 1
έβλεπε 1
αλληλογραφία 1
βιομηχανικό 1
ζωνταν@@ 1
κρατούμενοι 1
μειονότητα 1
μουν@@ 1
στιλ 1
τεκτον@@ 1
φαινομένου 1
1200 0.8872516717809927
Cr@@ 0.24324683750146525
Αλγερίας 1
Επιστρέφοντας 1
Στέφανου 1
ίρο 1
αεροπορία 1
διαφθορά 1
εγκλήματος 1
θησε 1
ιππείς 1
μαϊ@@ 1
μπουν 1
παλαιότερων 1
πεν 1
πρωθυπουργ@@ 1
συγκοινων@@ 1
τάκη 1
Mo@@ 0.18899774468305588
Ε.Π.@@ 1
αλάτι 1
αρχιτεκτονικά 1
αύξ@@ 1
γεωγραφικές 1
δίσκων 1
επίπεδ@@ 1
οφείλονται 1
παραδόθηκαν 1
πλεονεκτήματα 1
ότσι 1
Arts 0.1586365857800362
Γκαμπ@@ 1
Τραϊ@@ 1
άργ@@ 1
έδειχνε 1
απέκλεισε 1
ασμών 1
βορειοδυ@@ 1
βρετανικά 1
δήλ@@ 1
ερωτική 1
ιστούσε 1
κερκ@@ 1
μίνι 1
στιαν@@ 1
υποδομές 1
άουα 1
έλλει 1
αίτη@@ 1
αρχηγούς 1
βιολί 1
γραφικής 1
λαχανικά 1
μουσουλμάνους 1
νεαρά 1
πρωτοπόρος 1
σ. 1
συγγραφ@@ 1
ύλακες 1
Box 0.8367046979744274
Γουέστ 1
Κοσμ@@ 1
Μάριο 1
Στιβ 1
έλεγ@@ 1
βιομηχανικές 1
διαιρε@@ 1
σηματοδότησε 1
υπόδ@@ 1
CA@@ 0.47541162707413465
Γουόρ@@ 1
Ιταλών 1
Μαν 1
Πομερανίας 1
Τιτ@@ 1
έδες 1
θίασο 1
ιστικούς 1
οθέ@@ 1
παραστάσεων 1
πληκ@@ 1
πυγ@@ 1
τήρι 1
Ανθρω@@ 1
Πρόεδροι 1
Ριχάρδου 1
Φά@@ 1
ακοί 1
γιορτές 1
διάσημ@@ 1
εγίου 1
καλέσει 1
ξυ@@ 1
παραδίδ@@ 1
πνευματικής 1
τακτικός 1
φοί@@ 1
όφωνη 1
Paris 0.06138081374227699
Κωστ@@ 1
ΜΑ@@ 1
Σκο@@ 1
Συμμάχων 1
Τάν@@ 1
ανάκτορα 1
διαφωνία 1
είμενο 1
μετα 1
ποδιών 1
προφίλ 1
χώρησης 1
όντουσαν 1
1807 0.9270593057231936
Ακτή 1
Ιεροσολύμων 1
Παλαιολόγος 1
αιχμάλωτος 1
απαντώνται 1
διατηρούνται 1
διατροφής 1
εκλέγ@@ 1
ολο 1
παρατσούκλι 1
περιοδικών 1
συμπι@@ 1
συμφωνούν 1
συνασπισμό 1
τακτικό 1
υποστηρικ@@ 1
album 0.0342648252582618
Βέρμαχτ 1
Γκολ@@ 1
Επικεφαλής 1
Φελ@@ 1
ακαδημαϊκή 1
αμαξ@@ 1
αναγκά@@ 1
ανος 1
απέδειξε 1
απεβ 1
διατήρησης 1
εμφανής 1
επόμενου 1
τραγουδιστές 1
les 0.0057771686454492505
Ίαν 1
Αυστραλ@@ 1
Λάζ@@ 1
Ρέι 1
Σιδ@@ 1
ανίκαν@@ 1
απαίτηση 1
βίαια 1
εντυπωσιακή 1
ηθικής 1
καταδίκασε 1
μαγνητικό 1
μιλούσε 1
ολόγησε 1
ορατό 1
πνευματικό 1
πρεσβύτερος 1
σφοδ@@ 1
ώνυμος 1
Εί@@ 1
Μακ 1
Ξενοφ@@ 1
ασκείται 1
εξαιρετικές 1
κοινός 1
μέλλ@@ 1
ούντ@@ 1
περιλαμβάνονταν 1
προφορ@@ 1
πρωτόκολλο 1
ρινός 1
White 0.15054101010594248
Α.Σ.@@ 1
Αποστόλων 1
Ρ. 1
Φαραώ 1
Φοίτησε 1
Χοεντσόλερν 1
Χριστιανισμού 1
εντάσσεται 1
εξαπλώθηκε 1
ητικούς 1
καταλόγου 1
καταστάθηκε 1
κλειδ@@ 1
μιλήσει 1
τονταν 1
υποψηφίων 1
φοιτητής 1
Who 0.5923043944533333
Αίγυπτος 1
Γουινέα 1
Δούκισσα 1
Εκστρατεία 1
Κατασκευ@@ 1
αλλοι@@ 1
αμαρτ@@ 1
ανέβει 1
αναπτύσσει 1
απομόνωση 1
δάσκαλο 1
δυτικού 1
ιστία 1
ισχυρίζονται 1
καλίου 1
ομιλείται 1
οτιδήποτε 1
σπαθί 1
φυσικούς 1
We 0.2535871790328483
Επιτελείου 1
Μπρά@@ 1
Πλαταν@@ 1
έβδομο 1
ήρυ@@ 1
αγιάς 1
ασθενή 1
ολοκληρωτικά 1
ούσι 1
σειρών 1
τοχ@@ 1
ψηλότερο 1
im@@ 0.0823416203644859
Άγγλο 1
Αμερικανών 1
Κοινοβουλευτικής 1
Χημ@@ 1
ίνουν 1
ημερομηνίες 1
νουν 1
ξαν@@ 1
ουερ 1
ούζ 1
πλατείας 1
σίων 1
συγκροτ@@ 1
σχεδιάζει 1
ταί@@ 1
τευσης 1
1803 0.8168765825649386
Renault 1
Βάλτερ 1
Γκότ@@ 1
Δημογραφικά 1
Διορίστηκε 1
Εθνοσυνέλευσης 1
Σίμ@@ 1
Σημαντικό 1
Σρι 1
αγωνιστικό 1
αναλαμβάνοντας 1
αποδείχτηκε 1
ατα@@ 1
επικρατώντας 1
εφεύρεση 1
μεταβλητή 1
ούσας 1
πεδινό 1
πολυάριθμ@@ 1
στάσιο 1
τόνοι 1
χωρη@@ 1
Γκίλ@@ 1
Τσερν@@ 1
αγωγική 1
ακαδημαϊκό 1
αναζητ@@ 1
αρραβωνι@@ 1
διάνυσμα 1
εκδίδεται 1
ερό 1
θυσι@@ 1
λησε 1
μ.Χ 1
μέσον 1
μματα 1
ξεφύγει 1
οδοξία 1
παρακολουθήσει 1
προηγηθεί 1
συσκευών 1
τύρ@@ 1
ότητές 1
System 0.23640221844825554
ler 0.0856041991689649
Γιάκομπ 1
Γλ@@ 1
Υπουργού 1
έγκυος 1
δουκάτου 1
εγκ 1
εξωτερικής 1
ετσι@@ 1
ικς 1
καταγεγραμ@@ 1
πηγάζει 1
σκοτώνοντας 1
τάρ@@ 1
τινο 1
φορούσαν 1
1808 0.8504762822737025
United 0.028923954782128464
Άλλη 1
Αραβικά 1
Επισκ@@ 1
Ζαΐ@@ 1
Κεντρικό 1
Νέλσον 1
Ταχ@@ 1
έγερσης 1
εμ 1
εορτά@@ 1
θέλ@@ 1
κρατικής 1
μεγαλύτερων 1
ξένη 1
σεναρι@@ 1
ψηφία 1
ωτι@@ 1
1804 0.9597602084034037
CH 1
ic 0.10775638657945498
ton 0.09777685249276294
Διοργανώσεις 1
Ζού@@ 1
Κωνσταντ@@ 1
Φεν@@ 1
αμερικανικές 1
ανατολή 1
ανταγωνισμό 1
απρο@@ 1
γυναικείας 1
διαμαρτυρίας 1
ηρος 1
ισχύς 1
ξι 1
ξύλινο 1
οκίν@@ 1
περιφερειακό 1
πρέσβης 1
φορτισ@@ 1
χωρίστηκαν 1
Διάδ@@ 1
Δυστυχώς 1
Ιταλικά 1
ΚΟΠ 1
Κατ 1
Κισ@@ 1
Ουαλία 1
Ποδ@@ 1
Σέρβους 1
κατέχουν 1
κτίσματα 1
ξεπερνά 1
οξεία 1
οσή 1
ούργ@@ 1
πλατινένιο 1
ρέφονται 1
ραζ@@ 1
στενός 1
τιμήσει 1
υποβρυχ@@ 1
ψηφοφόρων 1
8,@@ 0.7876610250560947
sa 0.0264217316311509
Άμπ@@ 1
Βέττιν 1
Βίλα 1
Μηχανικών 1
Ποδοσφαιρικών 1
Σακελλ@@ 1
αναγεννησι@@ 1
απαραίτητες 1
απονέμεται 1
αριά 1
αστυνομικό 1
ατήριο 1
εισπράξεις 1
εμφανιζόταν 1
επιτραπέζ@@ 1
κάποιας 1
μοναχών 1
ογιάννη 1
παρελθόντος 1
στησαν 1
τάξεων 1
Λατινικά 1
Νομικής 1
Νταλ@@ 1
Πελοποννησι@@ 1
Χιούστον 1
αυτοκινητο@@ 1
ησίου 1
μαι 1
οβ 1
προβλέπει 1
Βε@@ 1
Γενικής 1
ΙΓ 1
Κλα@@ 1
Ούρ@@ 1
Τζιμ 1
έβη 1
ίφης 1
βροχή 1
ισμένης 1
καλλιέργειας 1
μαζικές 1
μισή 1
οργανώσει 1
περιορισμένο 1
σελ 1
2,3 1
Κυβερνείο 1
Μεσιέ 1
αεροπορικές 1
ανάγλυφο 1
γενείς 1
δράσεων 1
επισκοπής 1
κατετάγη 1
μελετη@@ 1
ντυ 1
οκά@@ 1
οκτα@@ 1
ουλος 1
παραβίαση 1
πρωσ@@ 1
πυρήνες 1
σκέφ@@ 1
υπηρετούσε 1
ωρα@@ 1
Κύκλ@@ 1
Ολυμπ@@ 1
Φιλελεύθερ@@ 1
Χασάν 1
ήλι@@ 1
αδιά@@ 1
διαχωρισμός 1
εκτελέσει 1
εκφράσεις 1
ηλα@@ 1
μεικ@@ 1
μπασ@@ 1
ογράφου 1
πολωνικής 1
τεια 1
όκερ@@ 1
Journal 0.3052008812271206
Γκρε@@ 1
αιθυλ@@ 1
εβί@@ 1
ερές 1
εργάζονταν 1
ησία 1
κήπος 1
κρατικές 1
μανία 1
φύλων 1
Κάλλ@@ 1
Παυσανία 1
Πράγας 1
Σταυρός 1
Σύλλογο 1
Τραγ@@ 1
άνεται 1
ανταρ@@ 1
αποκρού@@ 1
αρισ@@ 1
βιολογία 1
ηλιακό 1
ισχυρούς 1
μοριακό 1
νομοθετικό 1
προώθησε 1
πυρπολ@@ 1
σκηνικό 1
Be 0.6390043428972639
Nintendo 0.723001429878299
Έζησε 1
Κελσίου 1
Χιλής 1
γκερ@@ 1
δοκιμών 1
εντίν 1
επισκέπτεται 1
εποχ@@ 1
θευ@@ 1
κατασκευαστές 1
κόμβο 1
νακ@@ 1
περιπολ@@ 1
πνευματικά 1
πραγματοποιεί 1
συμμάχων 1
ωνικούς 1
όδρομο 1
art 0.07346023953800795
Αδόλφος 1
Βαθ@@ 1
Ουάσιγκτον 1
διοργανώσεων 1
θαυμα@@ 1
ικάν@@ 1
ινος 1
μακροχρόν@@ 1
οστάσιο 1
χημικός 1
39@@ 1
Αντρέι 1
Αργολίδας 1
Καταγόταν 1
ΝΑ 1
Ραφαήλ 1
Σλ@@ 1
έσκο 1
γράφονται 1
εβραϊκής 1
επιπέδων 1
ηλεκτρονίων 1
κοινωνικού 1
λήφθηκε 1
λεστ@@ 1
μεταπτυχιακές 1
νημ@@ 1
σκυ 1
συνομ@@ 1
τρέφονται 1
τροποποίηση 1
1798 0.9438237535987316
7,@@ 0.7055381060201459
Θεριν@@ 1
Καλλιθέας 1
Μουσουλμαν@@ 1
Συμμαχ@@ 1
δαπάνες 1
εισέρχεται 1
κάς 1
λιμένα 1
μαστ@@ 1
ναρ@@ 1
ρολόι 1
ρουμαν@@ 1
σταματήσουν 1
φύλακες 1
201@@ 1
à 0.0037440855903149092
Θεόδωρου 1
Μουντιάλ 1
Πανιωνίου 1
άρρω@@ 1
ίλιο 1
αθλήματος 1
ανανε@@ 1
βιολ@@ 1
θεότητες 1
ιστορ@@ 1
ρεύεται 1
στατη 1
συνάντησης 1
240 1
Ιάκωβο 1
Μπαμπ@@ 1
Πετρο@@ 1
Πολεμική 1
Τσεχίας 1
Τύπο 1
αρμό@@ 1
αψ@@ 1
βρετανικών 1
διαφωνίες 1
ερήμ@@ 1
ιώτες 1
μεταλλικό 1
1795 0.9325290263761171
orum 0.7074892351477915
Κώ@@ 1
Μπάου@@ 1
Μπελ 1
Μπους 1
Παλέρμο 1
Φθ@@ 1
έχθηκε 1
ίφ 1
βαλε 1
δημογραφική 1
εγγονή 1
πριγκιπάτο 1
σσας 1
ύστερη 1
1770 1
ΑΚ 1
Υπουργό 1
ανώτερος 1
βαθμολογικού 1
βορειοδυτικό 1
γιό 1
γνωρίστηκε 1
επενδυ@@ 1
ερευνητική 1
ζωές 1
λεία 1
οικονομικούς 1
ποσά 1
σταθμών 1
συμπαίκτη 1
Γυ@@ 1
Χώ@@ 1
άματα 1
άτωση 1
απόλ@@ 1
βάν@@ 1
επιστρέφουν 1
ητου 1
μαξ@@ 1
μεθυλο@@ 1
νύχτας 1
σκαγια 1
στρατοπέδου 1
υβρι@@ 1
φιλο@@ 1
Fiat 1
colspan 0.45365829361625504
Νήσος 1
Ολο@@ 1
Σημαία 1
Σκην@@ 1
άντος 1
αναγνωρί@@ 1
απου@@ 1
ασπίδα 1
θεοί 1
πλανήτης 1
συνταγματική 1
Θηβ@@ 1
Σύγχρονη 1
Τάκης 1
άξονας 1
ίλο 1
αγαπημένη 1
αντιπρόσωπος 1
απουσίας 1
εκρήξεις 1
θρι@@ 1
κυπριακή 1
λιπ@@ 1
νί 1
ξίας 1
τήρας 1
φατ@@ 1
φιν@@ 1
37@@ 0.7821871498491965
Bank 0.1944152080837257
Little 0.26053673976394637
Queen 0.2255961964078363
ner 0.10234336727635222
Καλύτερη 1
Λετονία 1
Νεκροταφείο 1
Πολωνός 1
Ρίτσ@@ 1
Σιμόν 1
άνθρακες 1
ασμοί 1
βάλ 1
γλύπτης 1
κρύβ@@ 1
ληθεί 1
μετανάστευσε 1
μνη@@ 1
οντο 1
πη@@ 1
πραξικοπήματος 1
προσφέρθηκε 1
ράκι 1
συντάκ@@ 1
2ης 1
ΒΔ 1
Γουινέας 1
Πόλ@@ 1
Σέριε 1
Σόφια 1
Τηλεόραση 1
αιχμαλώτους 1
αντς 1
αϊκής 1
επαγγελματικής 1
επηρεάζεται 1
λάθη 1
μοίρες 1
προσπαθήσει 1
τιοι 1
χιλιετία 1
Ήλιος 1
Γοδεφρείδος 1
Τριφυλίας 1
άζι 1
αλυσίδες 1
βαρών 1
γενής 1
δυστύχημα 1
εμπειρ@@ 1
επιτεύγματα 1
λαϊκ@@ 1
λουλούδια 1
οκύ@@ 1
παραχωρήσει 1
παροχής 1
υποβιβ@@ 1
ύφασμα 1
Αμπού 1
Δεξ@@ 1
Ομοσπονδιακή 1
Πρωθυπουργού 1
αλος 1
ανάμνηση 1
αναπτυξι@@ 1
ειρα 1
επικρατεί 1
πολιτι@@ 1
χάλκιν@@ 1
Na@@ 0.47077846527455247
Νεολαίας 1
Υπολογ@@ 1
αιγυπτιακή 1
αρχικών 1
δίνονται 1
καταγράφονται 1
λεβ@@ 1
παλιάς 1
σιμότητα 1
Super@@ 0.304122896319916
Βαλτικής 1
Βατ@@ 1
Δήμητρα 1
Κυβ@@ 1
Ράιτ 1
ΣΥ@@ 1
Σκανδιναβ@@ 1
ίνους 1
αγροτών 1
αμφισβητ@@ 1
ασχολούνταν 1
βάσεων 1
διαδοχ@@ 1
διεξήγαγε 1
επιχει@@ 1
εφαρμογών 1
θεατρικών 1
ισπανικό 1
μπλοκ 1
πληρώματος 1
προσπάθειές 1
συνεργασίες 1
υμν@@ 1
όδρομος 1
Ζεν@@ 1
Κορράδος 1
Κωνσταντιν@@ 1
Συμμαχίας 1
αυτό@@ 1
ηνής 1
ισορροπ@@ 1
καρέ@@ 1
κυριότερες 1
ούμενου 1
προσδιορ@@ 1
σκή@@ 1
σμένο 1
σταθερές 1
σύμμαχοι 1
φθάνοντας 1
170 0.8868934061024784
Mario 0.5068812982867342
ma 0.14212205909301118
Αρμέν@@ 1
Μεθώνης 1
Χαλκηδ@@ 1
ανικά 1
ασαφ@@ 1
γεωγραφ@@ 1
γουντ 1
εξόρυξη 1
ετού 1
ευάλω@@ 1
ικανό 1
καλο@@ 1
κιο 1
οπολ@@ 1
ορυκτών 1
παραμείνουν 1
τονίζει 1
4ης 1
Δάφνη 1
Δευτερ@@ 1
ενίου 1
ενδιάμεσο 1
επεκτείνεται 1
εργαζ@@ 1
ηψη 1
ορα@@ 1
σπο@@ 1
συνέχιζε 1
υποχρέωση 1
φυλάκ@@ 1
13.@@ 1
25.000 1
HMS 0.6277750965745261
Γεωγραφική 1
Καρατζ@@ 1
Κατάρ 1
Μην@@ 1
Ξάνθη 1
διατήρησαν 1
μερίδα 1
ουάρ 1
ουγγρική 1
σαφή 1
σύμφωνο 1
ύρες 1
European 0.09133383959596396
Αμερικανικού 1
Κορε@@ 1
Πολιτ@@ 1
Προεδρ@@ 1
Σίγκ@@ 1
Σύνδεσμος 1
Τουλ@@ 1
έζησαν 1
ένδυ@@ 1
έρης 1
εξαρτώνται 1
εστιατόριο 1
ηδων 1
καλής 1
λιο@@ 1
μοντερν@@ 1
ονομάστηκαν 1
πακέτο 1
πρωταγωνίστρια 1
1819 0.8746561186153615
3000 0.575590755740331
Blackmore 1
CF 1
Έβ@@ 1
Όσλο 1
Απέκτησε 1
Βάγκνερ 1
Εύα 1
Θεία 1
Μακρ@@ 1
ανακάλυψαν 1
απένειμε 1
βης 1
εσκ@@ 1
οπή 1
παλιές 1
σουτ 1
στατιστική 1
συνοδεύεται 1
φλέ@@ 1
φορία 1
\ 0.5778827972071909
po@@ 0.1266860145049267
Καθολικής 1
Οπ@@ 1
ίσταται 1
αισθάν@@ 1
αλλάζουν 1
απέδωσε 1
αρχαιολογική 1
βακτη@@ 1
δικαστηρίου 1
ενμπ@@ 1
θαρ@@ 1
ιστούς 1
πρώιμης 1
στατιστικά 1
τουρισμός 1
φρουράς 1
ύπαιθρο 1
den 0.00591027163287516
Ατομ@@ 1
Λαδ@@ 1
έθηκαν 1
ίτσε 1
αυθαίρε@@ 1
εστάλη 1
ισορροπίας 1
ισχ@@ 1
καμπύλη 1
νοτιοανατολικό 1
πλήρ@@ 1
ποταμούς 1
ριστικό 1
σχεδια@@ 1
φόνο 1
Death 0.3375738036523795
ISO 1
Ζωρζ 1
Θεσπρωτίας 1
Μπαχρέιν 1
Νομισ@@ 1
Περιβάλλοντος 1
έτυχε 1
εγγον@@ 1
εκκλησάκι 1
ησυχ@@ 1
μάλ 1
νεκρό 1
ογραμ@@ 1
οδοι 1
πέτυχαν 1
τίζουν 1
τοποθέ@@ 1
υπάγονται 1
Βαπτι@@ 1
Γκούν@@ 1
Σαξ@@ 1
εγκατάστασης 1
εξοργ@@ 1
ευμάτων 1
θανάτους 1
ιταλικές 1
συνεχόμενα 1
υπαλλήλους 1
υποτελής 1
Αρκα@@ 1
Διονυσίου 1
Σάβ@@ 1
άτας 1
ανέπτυξαν 1
αναθεώρηση 1
διπλά 1
δυσαρέσκεια 1
δόκ@@ 1
επιφάνειά 1
εχθρού 1
θρίλερ 1
κοκκιν@@ 1
μόλυνση 1
νοσοκομεία 1
ποικίλες 1
συναντ@@ 1
όσαυ@@ 1
Free 0.41455690873716355
tr@@ 0.08835508193899239
Καθηγητής 1
Φοίνικα 1
ίστανται 1
αμυντική 1
ανάπ@@ 1
διαδηλωτές 1
εγκαίνια 1
ετικ@@ 1
κατοικήθηκε 1
μάτιο 1
μέσης 1
μεγαλύτεροι 1
παραχώρηση 1
τίθενται 1
τημένο 1
φλαμαν@@ 1
χαιρε@@ 1
ώρων 1
1794 0.9070583524577157
Βραχ@@ 1
Θρησκευ@@ 1
Κεμπέκ 1
Κορα@@ 1
Στυλι@@ 1
Υπήρξαν 1
απαντ@@ 1
αὐ@@ 1
βιντεοπαιχνίδι 1
επαναπ@@ 1
ευχάρι@@ 1
οποί@@ 1
οριακή 1
ούντες 1
προμήθειες 1
σιτάρι 1
υιοθέτηση 1
φώτα 1
όνοι 1
le@@ 0.08996575396292983
é 0.043141931125806256
ΒΑ 1
Δελφών 1
Ευθύ@@ 1
Κελ@@ 1
Μπλάκ@@ 1
γονιδίων 1
δακτύ@@ 1
διασταύρωση 1
εγχειρ@@ 1
ενόπλων 1
ογκ 1
πολιόρκησε 1
σταλεί 1
συναλλαγ@@ 1
τρό 1
χλωρ@@ 1
ci@@ 0.19072798228935586
Αβίβ 1
Ζαχαρ@@ 1
άνιου 1
γινόμενο 1
δείκτες 1
ενέπνευσε 1
θερμική 1
θεωρητική 1
λοιπ@@ 1
οριζόντια 1
παιδεία 1
παράστασης 1
ρατος 1
σιωπ@@ 1
συναντώνται 1
Βιρ@@ 1
Βόλο 1
Γενεύη 1
Μπέκ@@ 1
Σουλ@@ 1
Χριστό 1
αποθήκευση 1
γένει 1
εκλογής 1
ενημέρωση 1
ισχύουν 1
οδρόμ@@ 1
προστατεύει 1
υποείδη 1
ωρο 1
ύρους 1
UN@@ 0.5154405497817566
Κολομβία 1
Μαριν@@ 1
Ρόμ@@ 1
άζουμε 1
ήνιο 1
νοσηλευ@@ 1
νόμιμο 1
οπω@@ 1
παρενέργειες 1
περιείχαν 1
προσλήφθηκε 1
στέκεται 1
Γιά@@ 1
Φατ@@ 1
ήνας 1
ανακαλύψεις 1
αντιμετώπισαν 1
αρχικώς 1
αυτοκτόνησε 1
ημι 1
μαγει@@ 1
πρίγκιπες 1
πτη@@ 1
ρεμα 1
ύτα@@ 1
Ber@@ 0.1392173473479311
For@@ 0.19316226322007563
Mon@@ 0.13015488172623038
Αντίσταση 1
Αργυρ@@ 1
Ζάκυνθο 1
Καταλονίας 1
Ουίλ@@ 1
Περσία 1
διαχειρίζεται 1
κλιπ 1
μείζ@@ 1
μεταβλητές 1
μετρία 1
ολλανδικά 1
πληροφορίας 1
σμένη 1
στρατολογ@@ 1
φέρονταν 1
127 1
FC 0.10690798302673912
Hill 0.16492962613806594
eg@@ 0.12444892842325664
Γράφ@@ 1
Θέσεις 1
Καννών 1
Λασ@@ 1
Προβηγκίας 1
Τρού@@ 1
Υπήρχε 1
αυτοβιογραφία 1
γενεαλογ@@ 1
διηγήματα 1
είδηση 1
ενίσχυ@@ 1
ενθ@@ 1
ενσ@@ 1
εφτά 1
κυλ@@ 1
νοια 1
π.@@ 1
παραπέμπει 1
ποί@@ 1
πρε@@ 1
στικοί 1
ψεως 1
1805 0.8926350027157912
Open 0.17890196096459002
ard 0.13737759617282574
Κούν@@ 1
Πόρ@@ 1
άνδη 1
ίμπ@@ 1
αιχμάλω@@ 1
αρι 1
εξόδου 1
κάτωθι 1
καταστεί 1
νεοσσ@@ 1
ορίσει 1
παραπέ@@ 1
περιγράφηκε 1
ρυθ@@ 1
υποψήφ@@ 1
Βαρθολομ@@ 1
Διευθύν@@ 1
Ειδικά 1
Ερμή 1
Ορειν@@ 1
Χον@@ 1
έρευ@@ 1
αλκυ@@ 1
αποτελούμενο 1
επιτεθούν 1
εύθηκαν 1
ιζόμενη 1
καθεδρικού 1
κοιμητήριο 1
μεταπήδησε 1
οργανώνει 1
παλιού 1
συμβουλές 1
σύμμαχος 1
φωτογραφίας 1
45@@ 0.8192076365845936
Βούλ@@ 1
Κόζ@@ 1
Χάμιλτον 1
αζόμενος 1
ανοικτή 1
απαγορεύτηκε 1
αριστοκρατίας 1
αρχον@@ 1
ηγούμενος 1
σαϊρ 1
συντηρ@@ 1
Βοεβοδάτο 1
Πέρσι 1
Πιαστ 1
Ρίκο 1
Ραλφ 1
Φοί@@ 1
έβιτς 1
ήρου 1
αεροπο@@ 1
αμοιβή 1
βλέ@@ 1
δεικ@@ 1
εναρ@@ 1
θεραπείες 1
κτί@@ 1
οπαδός 1
πιάτα 1
προχωρη@@ 1
σταυροφ@@ 1
ταξιδιω@@ 1
τριακ@@ 1
χάθηκε 1
Θεοδω@@ 1
Καθεδρικός 1
Μαμ@@ 1
Νικολά 1
Ουζμπεκιστάν 1
Σουν@@ 1
αναπαραγωγ@@ 1
αριστοκρά@@ 1
βουνών 1
βυζαντινός 1
διπλωματική 1
εισοδήματος 1
επικρατούσε 1
καιρός 1
κλιματική 1
παγκοσμίου 1
πορτρέτο 1
σπάν@@ 1
χωρίου 1
115 0.9113963625185784
750 0.8229922052153462
se 0.0055978730956428024
Ισαβέλλας 1
Λευκή 1
Ξέρ@@ 1
Σπο@@ 1
Συνεχ@@ 1
ερχόμενος 1
ζωγράφων 1
θηκών 1
νοτιοδυ@@ 1
ολιθική 1
παρατηρητές 1
τρένα 1
όδωρος 1
Ολυμπι@@ 1
Πάτ@@ 1
Σιβηρία 1
αγιά 1
απομάκρ@@ 1
γκό 1
διορίσθηκε 1
εμφάν@@ 1
ενθάρρυνε 1
επίτιμος 1
επαρχιακή 1
ηλιακή 1
κίνητρο 1
καταγ@@ 1
κρατουμένων 1
νύφη 1
ορίζοντα 1
υποδεικνύει 1
όμετρα 1
ve 0.023045545016733972
Αχιλλέας 1
Ελπ@@ 1
ακόλουθη 1
ανικού 1
αρχαιολόγος 1
βαρι@@ 1
βεβαι@@ 1
επίσημους 1
ημί@@ 1
κονσ@@ 1
μοιράζεται 1
νουκλε@@ 1
προκύψει 1
σαιζόν 1
τιμητική 1
τυρί 1
χρωμα 1
όγι@@ 1
όπολης 1
ότη@@ 1
109 0.964880065600786
Αδάμ 1
Ανά@@ 1
Ελά@@ 1
Κλει@@ 1
Λαμπρ@@ 1
Μάρκ@@ 1
Σαντο@@ 1
Φραγκίσκο 1
αποκαλεί 1
γλου@@ 1
επιβι@@ 1
εργοστασίου 1
ιντα 1
κρύο 1
μεταδόθηκε 1
ναυτικών 1
πεταλ@@ 1
υπερασπιστεί 1
ύρωσης 1
West 0.06078169977405559
io 0.2015252168431233
Παράδειγμα 1
Πει@@ 1
Πλει@@ 1
άλυ@@ 1
ανδρι@@ 1
γιατροί 1
διασκευ@@ 1
είον 1
εκφράζεται 1
εμπόρους 1
καθιστούν 1
λυκ@@ 1
μεταγενέστερες 1
μύθους 1
περιορισμένες 1
στράτευμα 1
τ.@@ 1
ώμενο 1
ke 0.12416050840923955
ni 0.10913755707772042
Κυρία 1
Πέλλας 1
Σάντσο 1
Σον@@ 1
Στρατιω@@ 1
αισθήσεις 1
βροχοπτώσεις 1
γραφει@@ 1
διαρκώς 1
εξαρτ@@ 1
θέλοντας 1
ισχυρισμούς 1
κάμερα 1
κινητοποι@@ 1
μάρκ@@ 1
νέφ@@ 1
νωσης 1
ξύλ@@ 1
ομένης 1
περιορισ@@ 1
πρωταγωνιστεί 1
σιδερ@@ 1
στρατιώτης 1
όβερ 1
100@@ 1
Βενετοί 1
Τάι@@ 1
αγροτικό 1
ακολουθήσουν 1
ατελ@@ 1
δακ@@ 1
διαδοχικές 1
οκτά@@ 1
οχος 1
χαρακτηριστικές 1
Ιππότες 1
Καφ@@ 1
Ολυμπία 1
Πληροφοριών 1
Τζοβάννι 1
αποκεφαλ@@ 1
βλε@@ 1
ιόντα 1
λιγότερες 1
οδότηση 1
παρέχεται 1
πεδιάδες 1
πώ@@ 1
συνέχιση 1
Er@@ 0.1143885538872615
Green 0.19434332253613393
up 0.02386523367919879
Έμεινε 1
Αμαλία 1
Διοικητικό 1
Λιβύη 1
έρτα 1
βίο 1
διάδοχό 1
διατηρήσουν 1
επίδειξη 1
θηση 1
καθιερωθεί 1
κών 1
λανθασμένα 1
ορία 1
πουλιών 1
πούρ 1
ρονται 1
τακτικής 1
Αποδ@@ 1
Δόγ@@ 1
Κίρ@@ 1
Κλασ@@ 1
Κότ@@ 1
έχεται 1
αστρονόμου 1
γαλαξίες 1
λύσει 1
πέμπ@@ 1
πιστούς 1
ρατσ@@ 1
ροδ@@ 1
ρύζι 1
σημερινά 1
σωματείων 1
όπερες 1
Pierre 0.1414826250771421
charts 0.6306095693595628
Άγιοι 1
Κριμαία 1
Προηγουμένως 1
άλε@@ 1
αιχμαλω@@ 1
αναχώρησε 1
ανεβαίνει 1
αποκαλύ@@ 1
διαμορφω@@ 1
εγκλ@@ 1
εξέλεξε 1
θρο@@ 1
κληρ@@ 1
μυστικ@@ 1
οποιώντας 1
ορδ@@ 1
παραδοσιακών 1
ποδοσφαιρικής 1
πολίτη 1
ρικοί 1
συμβολίζεται 1
συσκευ@@ 1
φθηκε 1
φωνής 1
χόρ@@ 1
ite 0.1182118342797982
ΑΕ@@ 1
Γραν@@ 1
Δαυίδ 1
Δραματική 1
Σφακ@@ 1
Υποδοχή 1
ανίχνευση 1
αποθήκες 1
ηθοποιών 1
ισούται 1
μεραρχία 1
ουτ 1
τηρεί 1
τουλ@@ 1
φορούσε 1
ώνυμη 1
Am@@ 0.1462009578461637
Home 0.28298301810249715
Άβ@@ 1
Άντριου 1
Δυτικών 1
Κολλ@@ 1
Παραλία 1
Σάμο 1
Υπολ@@ 1
αναμετρήθηκαν 1
απομακρύνθηκε 1
γαλλικών 1
γνωστής 1
κάλυπτε 1
καρπούς 1
μηχανών 1
ροβιτς 1
συναρτήσεων 1
Έγκ@@ 1
Δρ@@ 1
Μάκ@@ 1
Τέχνη 1
Τσακ@@ 1
έιλ 1
ίβα 1
ακούσ@@ 1
αναγράφεται 1
ασταθ@@ 1
γνώριζαν 1
εξαιρετικό 1
ερά 1
καθοριστικό 1
πειθ@@ 1
πρωταγωνιστής 1
ράτ 1
συνέταξε 1
όσημα 1
Ro@@ 0.15988354138823227
Up 0.4177632429904045
Λαρ@@ 1
Νταρ@@ 1
Ομοίως 1
Πτολεμαίο 1
Στέμματος 1
αναβί@@ 1
δούλεψε 1
ευμένα 1
οφόροι 1
σπαν@@ 1
τρεψαν 1
όκου 1
ύστερ@@ 1
il 0.011292112158664743
live 0.12275128060165709
Βλαντίμιρ 1
Γαλατία 1
Δημόσια 1
Λογοτεχνίας 1
ανακατασκευή 1
γυρίσει 1
εκκλησιαστικό 1
εσόδων 1
θεί@@ 1
ιδρυτικά 1
λαι@@ 1
παιδικής 1
πιστή 1
σφαίρες 1
τριγ@@ 1
τόμος 1
102 0.8443173505725556
Καζάν 1
Ρωσικό 1
Σύμβουλος 1
αεροπλάνα 1
αθλητισμού 1
αναγκών 1
απέφερε 1
αυτοκράτειρα 1
ενσάρκ@@ 1
ικότερα 1
κρατικών 1
κόκκινα 1
ολογικούς 1
οφόρ@@ 1
πολίτευση 1
πώλησης 1
συμφερόντων 1
συνδέουν 1
τρείς 1
χαί@@ 1
όντο 1
Αμβούργο 1
Αναπ@@ 1
Γεωργι@@ 1
Μασσ@@ 1
Ουαλ@@ 1
Ριν@@ 1
Συνεργάστηκε 1
άφθον@@ 1
ίσου 1
ανί 1
απογράφεται 1
διάλυ@@ 1
ειδικευ@@ 1
ενίσχυσε 1
ενδιαφερ@@ 1
επισκόπους 1
ετεροθαλή 1
ορολογία 1
φιλολογία 1
φτιαγ@@ 1
Cl@@ 0.3177242102448689
Βρά@@ 1
Γουέλφων 1
Γραμμ@@ 1
Δασ@@ 1
Επιχειρήσεων 1
Ευτυχ@@ 1
Πέμπτη 1
Σεντ 1
Σπουδές 1
ανοικοδόμηση 1
αποθήκη 1
γλυκό 1
θρακ@@ 1
ικανότητά 1
κατάλοιπα 1
νυμφ@@ 1
ορίζ@@ 1
πλευρών 1
πλούτου 1
τερμάτων 1
φελντ 1
Ge@@ 0.1591930340877827
ΕΟ 1
Θέλ@@ 1
Ισπανική 1
Ντ 1
Σαουδική 1
Τζαμί 1
ασημένια 1
γεμά@@ 1
γραφτεί 1
εμπλέκονται 1
εμφύλιος 1
οχημ@@ 1
παραδοσιακής 1
προστίθεται 1
πτωση 1
ροφή 1
σελίδων 1
συμβάν 1
AS@@ 0.3801996215506266
Αγωνίζεται 1
Δεύτερος 1
Ηρακλ@@ 1
Μπίλι 1
Σπυρίδων 1
Χρήστου 1
άσθηκαν 1
έφτιαξε 1
απεσταλ@@ 1
βραχώ@@ 1
εισαχθεί 1
εκδότη 1
εξελ@@ 1
λεξικό 1
συγκαταλέγονται 1
τορπιλ@@ 1
τρίγωνο 1
χημείας 1
όλογ@@ 1
1817 0.8070286183811882
Ab@@ 0.08276344416338911
Όλιβερ 1
Αριστερά 1
Γυναικ@@ 1
Δαλ@@ 1
Τσάρ@@ 1
ήλια 1
αγόρα 1
αληθινή 1
ανθρωπότητας 1
βιου 1
δέχθηκαν 1
εκθέματα 1
εκκλησιαστικά 1
ενηλίκων 1
εχθρός 1
ζημιά 1
κάρτα 1
κατη@@ 1
κομψ@@ 1
λακ@@ 1
μεθυ@@ 1
φοινικ@@ 1
Αγορά 1
Ακρωτηρίου 1
Βρετανικού 1
Κραν@@ 1
Κρου@@ 1
Χέπμπορν 1
απελπ@@ 1
βάνα 1
δημοσιεύσεις 1
δημοσιογράφο 1
δραπετεύσει 1
εγγραφή 1
ιμ 1
μέγας 1
μπορ 1
ναυτιλι@@ 1
ντουέτο 1
ροπή 1
τσε@@ 1
τσιν 1
φριντ 1
126 1
14η 1
2.500 1
Friedrich 0.1692528080341317
Αρμένιοι 1
Βελγ@@ 1
Εσκ@@ 1
Κάθριν 1
Λατιν@@ 1
άκρες 1
βλασ@@ 1
επιβίωση 1
λαοί 1
μετριοπαθ@@ 1
ούσης 1
σημάδι 1
σπαθ@@ 1
σταθεί 1
συμπτωμάτων 1
ταπειν@@ 1
τόμ@@ 1
φθάνουν 1
Καναδάς 1
Μητροπόλεως 1
Οικουμενικού 1
Πολέμων 1
Σλοβενίας 1
Σουλι@@ 1
Τσεχοσλοβακίας 1
Φρέ@@ 1
άλεσε 1
έντυπα 1
ακρ@@ 1
ανομ@@ 1
απόφασή 1
εισαγωγής 1
ιόντων 1
καθορ@@ 1
μετακομ@@ 1
μηλ@@ 1
μουλ@@ 1
μπασίστα 1
μυκηναϊκ@@ 1
οειδούς 1
ονόμασαν 1
ούρας 1
παλαιού 1
πιλό@@ 1
πολογ@@ 1
τραπέζι 1
υφή 1
όρασης 1
21ο 1
Αντίοχος 1
Ζίγκ@@ 1
έρχ@@ 1
ατρών 1
γιέ 1
γκολ@@ 1
γλυπτό 1
εκπροσώπηση 1
ελπ@@ 1
θαι 1
κατάθλιψη 1
λάβα 1
μετακινήθηκαν 1
οβι@@ 1
ομαδικό 1
πυρός 1
συνεδ@@ 1
τουργία 1
Έξ@@ 1
Χάρι@@ 1
γιατρό 1
κλέφ@@ 1
οπλαρχηγός 1
πολεμιστές 1
ράχη 1
σαβ@@ 1
σμήνη 1
σουλτάνος 1
συμβολαίου 1
συνιστά 1
σύνολό 1
υιός 1
όρν@@ 1
Ρέθυμνο 1
έμοιαζε 1
βραβείων 1
βωμ@@ 1
επιτάχυνση 1
επιτελ@@ 1
καλύτερου 1
κεφαλής 1
μετακόμισαν 1
μιλά 1
οβου@@ 1
ορθόδοξη 1
πηγαίνουν 1
συνασπισμός 1
υποψηφίους 1
Boeing 0.782262690364036
Marie 0.15768379236293578
Αμαζ@@ 1
Βαγγέλης 1
Ρως 1
άργυρος 1
ένο 1
αναπόφευκ@@ 1
αυξάνοντας 1
αυτοκτονία 1
βλα@@ 1
γειτονικών 1
διδάξει 1
δρας 1
επικίνδυνη 1
επιταχ@@ 1
ηνό 1
κατάλληλ@@ 1
καταστάσεων 1
μαρτυρούν 1
μιλι@@ 1
μουντ 1
πολεμικού 1
προβάλλεται 1
πτώμα 1
σματα 1
υρας 1
φυλάκισης 1
1453 1
America 0.09722471180439875
Mark 0.1638295119772934
Ver@@ 0.06626398598977115
Εμιρά@@ 1
Μεσολόγγι 1
Μουράτ 1
άνοφ 1
ήγγειλε 1
αμερικανικά 1
αποκάλυψη 1
γράμ@@ 1
διαμέτρου 1
καταλαμβάνουν 1
κοιτάσματα 1
μερών 1
ξένα 1
ξερ@@ 1
πληθυσμ@@ 1
σήμ@@ 1
υποβιβάστηκαν 1
υσης 1
ey 0.14453750664436904
Αντων@@ 1
Εσπερ@@ 1
Λίβανο 1
Σπέ@@ 1
έβγ@@ 1
ανη 1
αποτρ@@ 1
αρα 1
δεδομένο 1
δώρισε 1
κινήσεων 1
κινηματογραφικό 1
κρίνεται 1
λεπτομερ@@ 1
πάρκου 1
περίχωρα 1
φόργουορντ 1
φύλλων 1
χρησιμεύει 1
Jones 0.19463301942529687
co@@ 0.07666955248465795
ik@@ 0.13027044963619688
Εμφανίστηκε 1
Ρωμαν@@ 1
άντρο 1
ίσες 1
αλκαλ@@ 1
αναγκάζοντας 1
αξιόλογη 1
αρχου 1
βορειοανατολικό 1
ελληνιστική 1
επίσκοποι 1
κανονισμούς 1
πραγματοποίηση 1
προπάνιο 1
στή@@ 1
υιοθετήσει 1
ώρησε 1
Airlines 0.6357394186088287
ins 0.07881649843966154
Ακαρν@@ 1
Ηχ@@ 1
Λέβ@@ 1
Ρωσικά 1
αθλητικά 1
αναισθη@@ 1
αναμνη@@ 1
γιν@@ 1
διαδικασιών 1
ελιές 1
ενεργεία 1
εργάσθηκε 1
εφαρμό@@ 1
ιδιαίτερ@@ 1
παράγ@@ 1
περγκ 1
σχεδιάσει 1
τομής 1
τονίας 1
τούμενη 1
τὴν 1
Wrestling 0.4782521614067319
soundtrack 0.7152690879015838
Βουλευτικές 1
Κοινωνικής 1
Λεονάρντο 1
Λόφ@@ 1
Μουρ@@ 1
Μπαρμπ@@ 1
Ολύμπου 1
Ορθόδοξ@@ 1
Πολυν@@ 1
ΤΣΣΚΑ 1
έντε 1
αγαπημένο 1
αμοιβαία 1
εγκεφαλικό 1
κρασιού 1
λουτρά 1
μονται 1
μπεν@@ 1
ράμ@@ 1
σέβ@@ 1
σχολίασε 1
υποείδος 1
φελ@@ 1
Γερμαν@@ 1
Επικρατείας 1
Ζωγράφ@@ 1
Θεολογική 1
Μάνης 1
Τσαρ@@ 1
έκι 1
αετός 1
ασβεστίου 1
ειλικ@@ 1
ζάχαρη 1
ιάνα 1
ιμοι 1
ισοπ@@ 1
λλι@@ 1
μανι@@ 1
ουδέ@@ 1
ρούσα 1
ig@@ 0.12553046390390676
Αμβέρσας 1
Αράβων 1
Αστυνομία 1
Θρακ@@ 1
Καταστροφή 1
Λεωνίδας 1
Πέραν 1
Τείχ@@ 1
ίικα 1
αίν 1
αντιγ@@ 1
αυτόματο 1
δίδασκε 1
επηρέασαν 1
κλαντ 1
ξεπ@@ 1
ογράφους 1
ολόγιο 1
οποιουδήποτε 1
ουράνιο 1
περιβάλλ@@ 1
περιλαμβανο@@ 1
συγγένεια 1
σφάλμα 1
1816 0.7341964981154779
EBU 1
op@@ 0.10982656569891472
Σπι@@ 1
έρον@@ 1
ίζω 1
αλγόριθμος 1
αρμενικά 1
βιντε@@ 1
διάς 1
δύνα@@ 1
ελέγχ@@ 1
λάβ 1
παλαίμαχος 1
era 0.03693977391645778
Αυτοκ@@ 1
Γού@@ 1
Θέμα 1
Μητέρα 1
Μπουένος 1
Νασ@@ 1
Σουλτάνου 1
Τζέρσεϊ 1
Φρούριο 1
Χαλκού 1
ανή@@ 1
αρραβ@@ 1
βασανιστήρια 1
δημοσιεύει 1
διερευν@@ 1
εκδοθεί 1
εντοπίζονται 1
ηγεμονία 1
ιατρικό 1
κωπηλ@@ 1
μ.@@ 1
νταν 1
ομή@@ 1
πράξεων 1
πυκνο@@ 1
ραντάρ 1
ρωσικού 1
ρόλων 1
συνέβαινε 1
ταξιδέψει 1
υποδομών 1
Άγκ@@ 1
Ανέλαβε 1
Μόντρεαλ 1
Ολοκλήρωσε 1
Στρα@@ 1
Χριστόφορος 1
έστη 1
ανακωχή 1
αναψυχής 1
γραμμική 1
γυμνό 1
δίδει 1
διοικούσε 1
καμπυλ@@ 1
μεται 1
νομοθετική 1
σατιρ@@ 1
τρώ@@ 1
Me@@ 0.17066363942984897
Ερνστ 1
Κυβερν@@ 1
Ριβ@@ 1
άνιση 1
άρντ 1
εμβόλιο 1
ενασχόληση 1
εργαζόμενους 1
εφημερίδων 1
θεια 1
λανθ@@ 1
μάθημα 1
πορτογαλικά 1
προίκα 1
χρήσιμη 1
όπος 1
1801 0.7586954857088419
Te@@ 0.1860163876974969
Αθαν@@ 1
Θεσσαλ@@ 1
Πορεία 1
Ποσ@@ 1
Σορ@@ 1
Συνομοσπονδία 1
Τρου@@ 1
αποκάλεσε 1
βελτιώσει 1
γνώρισαν 1
δεδομένη 1
διαφορών 1
δύση 1
εορτάζεται 1
ιρ 1
λήψης 1
ολόγησης 1
πομπή 1
πραγματοποιώντας 1
προσέλαβε 1
ou 0.02365019119131829
Άρτε@@ 1
Αδριατική 1
Καγκελ@@ 1
Ρέι@@ 1
άτσα 1
ίστης 1
διαιρέ@@ 1
δυτικ@@ 1
εννιά 1
εξα@@ 1
ζη 1
ισοδυνα@@ 1
καθημεριν@@ 1
καύσιμα 1
κομματιών 1
μετώπου 1
ντρ@@ 1
ογερμαν@@ 1
σκληρές 1
τοπικός 1
Άλπεων 1
Γιο@@ 1
Ελληνικός 1
Κόσμο 1
ΟΝ 1
Σοβιετικών 1
Σύνθεση 1
βλέπουμε 1
δημοσιότητα 1
θείσα 1
λέγονται 1
σπηλιά 1
ro@@ 0.10734651263216306
Άρνολντ 1
Αποτέλεσμα 1
Κοντο@@ 1
Λεκ@@ 1
Μότσαρτ 1
Οζ@@ 1
Οικουμεν@@ 1
Τραπεζούντας 1
άξονες 1
διευ@@ 1
εκμετάλλευσης 1
εξαφανίστηκε 1
κίνητρα 1
μισά 1
μουσουλμάνων 1
ονομαστεί 1
προμηθευ@@ 1
προσεγγίσεις 1
τικες 1
τούμεν@@ 1
όρφωση 1
bi@@ 0.09565937397427202
co 0.07602452047958805
left 0.05924586741316179
Γιουβέντους 1
γλυπτική 1
εκλέκτορα 1
ελεύθερου 1
ερμηνείας 1
ζαχαρο@@ 1
ηγορ@@ 1
μησης 1
ναζιστική 1
ουρίας 1
πείνα 1
προσελκύ@@ 1
συναδέλφους 1
συνοικίας 1
τέλεσαν 1
φλεγμον@@ 1
ωτός 1
όποτε 1
12,@@ 1
Μεταλλ@@ 1
ήσιος 1
ακέρα@@ 1
αντίπαλοι 1
απέκ@@ 1
αρχηγία 1
ελλειπ@@ 1
κατέταξε 1
μεταδίδ@@ 1
ξηρα@@ 1
ρίχν@@ 1
τάξει 1
τάχθηκαν 1
τρόποι 1
1791 0.9463664895222633
au 0.008926855339251536
ΑΚΕΛ 1
Δυτικά 1
Ζοζέφ 1
Μπακού 1
απεργία 1
αυταρχ@@ 1
δημοσιεύθηκαν 1
δωσε 1
επίπεδη 1
ινης 1
λίστες 1
ξένοι 1
φράσεις 1
ator 0.14060371969995544
Άιρες 1
Δολοφ@@ 1
Θεμιστοκλ@@ 1
Μαί@@ 1
Μεγάλωσε 1
Πραγ@@ 1
ακρω@@ 1
αμαρ@@ 1
αναδ@@ 1
εργαστη@@ 1
πυροβολικό 1
ρωσικές 1
στίβο 1
ωρί@@ 1
Men 0.2359022024803192
Άρχ@@ 1
Έξι 1
Γήπεδο 1
Μασσαλία 1
Ναυμαχία 1
Ραμπ@@ 1
Τελική 1
αίρε@@ 1
αντιδράσεων 1
ενθουσιασμό 1
επιβλήθηκε 1
επιχειρήματα 1
εών 1
μαιν@@ 1
ράμφος 1
ραγδαία 1
στράτηγος 1
συμπεριλαμβάνει 1
š@@ 0.28973815330925257
Βέβαια 1
Ευρωπαϊκές 1
Μεγάλων 1
Μουλ@@ 1
Νόβγκοροντ 1
Πολεμικής 1
Σημει@@ 1
άρμα 1
αποφασιστική 1
γενέτειρα 1
διάδοχός 1
ερν 1
θρα@@ 1
κατάδ@@ 1
μελετών 1
ογιάννης 1
τροπικό 1
τόνο 1
χοφ 1
65@@ 0.9997163761370688
Κοινωνικών 1
Μπρόντγουεϊ 1
Παλαιού 1
Πομπή@@ 1
Ροβ@@ 1
Σαϊ@@ 1
Φρου@@ 1
έντρ@@ 1
δοκί@@ 1
δοχείο 1
εινε 1
ετήσι@@ 1
ηρώων 1
ιντερ 1
ισπανικής 1
ναρ 1
ξεκινήσουν 1
πλαστ@@ 1
πόλεμοι 1
σκιά 1
στοίχ@@ 1
ωμι@@ 1
ἄ@@ 1
Γαλαξία 1
Ελευθερίου 1
Πραγματοποίησε 1
Τουρκο@@ 1
άρθρων 1
έμμεσα 1
αϊκού 1
ενοχλ@@ 1
επαναστατών 1
εφαρμόστηκε 1
κατοικημένη 1
μεμβράνη 1
ολοκληρωμένη 1
ορθή 1
πρότειναν 1
τάλ 1
τικου 1
υπεύθυνοι 1
1,4 1
21.@@ 0.944477295061258
ak@@ 0.10304074499269596
jure 1
Πράξη 1
Σκα@@ 1
αγαθ@@ 1
αποφύγουν 1
ατμόσφαιρας 1
γραμμένα 1
λαθ@@ 1
λιπο@@ 1
μείωσης 1
οφειλόταν 1
ούμενης 1
ρότητα 1
σπιτιών 1
τίμηση 1
υπήχθη 1
φιλόδοξ@@ 1
Av@@ 0.30009237751283957
Αρχείο 1
Μιχαλ@@ 1
Οικονομική 1
Τεύ@@ 1
Φραν@@ 1
αμερικανικών 1
αποκαλύψει 1
αρτ@@ 1
αυτοκράτορες 1
διέσχ@@ 1
ειδωλολ@@ 1
επισκόπων 1
θάλασσες 1
κυριλλικά 1
οδότη@@ 1
πράκτορες 1
προέ@@ 1
συναγων@@ 1
σχέδιά 1
υποτιθέ@@ 1
φιλική 1
ύρωση 1
1799 0.9329109784402113
Αγρινίου 1
Αναστασία 1
Διοικητικού 1
Ιπποτών 1
Κοπεγχάγη 1
Παραλ@@ 1
Σπαρ@@ 1
Σύμβαση 1
ακούσει 1
βασιλικά 1
εκλεγμένος 1
ελαττ@@ 1
εύνοια 1
ικισμού 1
κριτήριο 1
κόκκιν@@ 1
μετέτρεψε 1
μπελ 1
ολλ@@ 1
οστε@@ 1
οσφαι@@ 1
συγκροτήθηκε 1
ταύτα 1
τοπι@@ 1
Αυστρο@@ 1
Γκόλ@@ 1
Πάτρικ 1
Ποντ@@ 1
Φιλιππίνες 1
έλιο 1
αισθ@@ 1
αιχμάλωτοι 1
αναβίωση 1
ανακάλυψ@@ 1
απόρριψη 1
εκπαίδευσή 1
επενδύ@@ 1
ερευνητικά 1
κυβερνήτες 1
λέν 1
ομιλίες 1
οπλισμό 1
πλημμύρες 1
ταξία 1
τραυματισμού 1
υπεράσ@@ 1
Αλί@@ 1
Βαβυλ@@ 1
Βρύ@@ 1
Μικρο@@ 1
Μπάκ@@ 1
απότομα 1
βαγ@@ 1
βρετανικές 1
δούλευε 1
εισήχθησαν 1
εκτελεστική 1
επικρι@@ 1
κατεβ@@ 1
κρατίδιο 1
ομοσπονδιακό 1
πάπ@@ 1
παιδικό 1
σιδη@@ 1
τείχους 1
τροπές 1
τυρανν@@ 1
χάθηκαν 1
Ιντερ@@ 1
Μηλι@@ 1
αρχιεπίσκοπο 1
γονίδιο 1
διαλέκτους 1
διδακτορ@@ 1
επεκτα@@ 1
λεμπ@@ 1
οστού 1
πυλ@@ 1
συλλογική 1
συχνότητας 1
σωζ@@ 1
τισσας 1
Κουσ@@ 1
Κρακοβίας 1
Λειψία 1
Σαρδηνίας 1
Σταμά@@ 1
ασκήσει 1
βαλντ 1
διπλού 1
είσουν 1
νίκ@@ 1
ομοσπονδιακή 1
σέ 1
υποδοχής 1
φορέων 1
Ανόρθωση 1
Αποστολή 1
Ιταλό 1
Λούντβιχ 1
Πολυτεχνείο 1
ακραία 1
απεικονίζονται 1
αρθρο@@ 1
εξυπηρετείται 1
ηγετών 1
ηδον@@ 1
ηλεκτρονικού 1
λόφος 1
μετε@@ 1
πορτοκαλί 1
προδιαγραφές 1
χρημάτισε 1
ύματα 1
ύπνου 1
ek 0.18215411093100667
Κολωνίας 1
Λον@@ 1
Ντρέ@@ 1
Πρωταθλ@@ 1
Τζίμι 1
Χρύ@@ 1
έτοιμος 1
βάπ@@ 1
διε@@ 1
ελαφρύ 1
ελλιπ@@ 1
εω@@ 1
κοινών 1
ραϊ@@ 1
σσει 1
σφαγ@@ 1
ταυτοποι@@ 1
ψυκ@@ 1
300.000 1
Γκέοργκ 1
Παυλ@@ 1
αντίκ@@ 1
διάδ@@ 1
εκφράσει 1
ισομ@@ 1
οδηγού 1
οχτώ 1
στερεό 1
στι 1
συμπεριλαμβάνεται 1
τουφ@@ 1
ότυπου 1
Αλφρέ@@ 1
Δυτικού 1
Εκείνος 1
Λουξεμβούργο 1
Μπαρ 1
Ντέι@@ 1
Παρασκευ@@ 1
Πολωνική 1
Σταντ 1
Τέταρ@@ 1
Τσά@@ 1
άρος 1
ανεπιθύμη@@ 1
αντίκτυπο 1
αρος 1
εξαιρε@@ 1
θεωρήθηκαν 1
ισοδ@@ 1
καθημερινής 1
καλλιτεχνικής 1
κρεβάτι 1
μακριν@@ 1
ξηράς 1
παρείχαν 1
πληθυν@@ 1
συμβουλεύ@@ 1
Βαλκανίων 1
Ερμής 1
Μανουέλ 1
Σπάρ@@ 1
Φούλ@@ 1
Χρήση 1
άρχων 1
ίστ 1
αβαείο 1
αιγ@@ 1
ανί@@ 1
αραβικό 1
βε 1
δισαν 1
ληφθούν 1
μάζες 1
ομοιότητα 1
πληθωρι@@ 1
σά 1
τιών 1
ψιλ@@ 1
14.@@ 1
Ph@@ 0.25988220714427585
Sch@@ 0.07251208996754686
Απλ@@ 1
Ευρωπαϊκών 1
Κη@@ 1
Λάνκα 1
Λαυ@@ 1
Σεπ@@ 1
Σον 1
Ψαρ@@ 1
αρ. 1
ασθενούς 1
δραματικά 1
δυτικών 1
επισκέπτονται 1
καταστροφική 1
λίθ@@ 1
σκαφών 1
συντρί@@ 1
τεθωρακ@@ 1
τικώς 1
de@@ 0.0745612563099491
ent 0.04941816179862087
ons 0.08170585558707157
Γρα@@ 1
Κρίστοφερ 1
Παρακάτω 1
Σκλ@@ 1
Στερ@@ 1
αεροπορίας 1
γονέων 1
ενδιαφέρ@@ 1
εξαλεί@@ 1
εξελίσσεται 1
θία 1
κεφαλαίου 1
κομμουνιστική 1
κυριότερο 1
μαχητές 1
ποινές 1
προτομή 1
τ.χλμ 1
τουρισμού 1
τουριστική 1
text 0.22869768828983958
Αγρι@@ 1
Αρτε@@ 1
Βαϊ@@ 1
Διάταγμα 1
Θηρεσία 1
Λικ@@ 1
άσυλο 1
δίδυμο 1
διανυσ@@ 1
ημιορεινό 1
καταναγκα@@ 1
κηδε@@ 1
μπροστινό 1
οθωμανικής 1
προπαγάνδα 1
Dark 0.5902346380705322
Gillan 1
ri@@ 0.12549642376455553
Ηλ@@ 1
Τελικώς 1
Τσάρλι 1
αποκαταστήσει 1
αφετηρία 1
βαθύ 1
είσαι 1
μίου 1
μετατόπιση 1
ξύλινα 1
οξειδίου 1
ορθογ@@ 1
πάχος 1
προτίμηση 1
ροές 1
συνέντευξή 1
τητο 1
τιζαν 1
φρούρια 1
όδο@@ 1
20.@@ 0.8759008350582036
8ου 1
ni@@ 0.16994627711740617
Ευάγγελος 1
Μίλερ 1
άρισμα 1
έβγαλε 1
ανέδειξε 1
ανικές 1
αυτόχθονες 1
γράφηκε 1
διάκρι@@ 1
διέλευση 1
δυσαρεστη@@ 1
εισάγει 1
ιμπ@@ 1
καφεν@@ 1
μητροπολίτης 1
νομισ@@ 1
πω@@ 1
ρητά 1
ροειδ@@ 1
σκόνης 1
σοβιετικής 1
συγγραφικό 1
τέσσερεις 1
φάσματος 1
χρησιμεύ@@ 1
όμοια 1
ella 0.1088023989343655
Βικτώρια 1
Κατοχή 1
Κιλ@@ 1
Κρή@@ 1
Παλαιολόγου 1
Ράιχ@@ 1
Ρωμαίου 1
Σέρβος 1
ίτσκι 1
ατομικά 1
διακρίνει 1
ενδιάμεσ@@ 1
θεμα 1
ισα 1
μεταβιβ@@ 1
παρέα 1
παρασκευάζεται 1
ριπ@@ 1
ρωμαϊκά 1
σουμε 1
συχνότερα 1
σχεδιασμένο 1
υποδύεται 1
Γλαύ@@ 1
Διαφορ@@ 1
Ζώ@@ 1
Κυριακ@@ 1
ΣΣΔ 1
απαλλαγ@@ 1
αποβιβ@@ 1
απομείνει 1
αρρώστησε 1
γλωσσική 1
δεκάδα 1
δημόσιων 1
εντάσεις 1
επιστημόνων 1
κληρονόμος 1
μαγεία 1
νια 1
πολύτιμα 1
πύ@@ 1
ριζόταν 1
στήριξης 1
στρας 1
φύλαξη 1
χρονο@@ 1
IP 0.6332655807831231
Γιουν@@ 1
Ιωανν@@ 1
αποδίδουν 1
βαρ 1
βυζαντινά 1
θέληση 1
πορτογαλ@@ 1
προεδρίας 1
ρήμα 1
τάλ@@ 1
ύφ@@ 1
1630 1
Man@@ 0.11950714317703516
Βούλγαρους 1
Κτη@@ 1
Σχέσεις 1
Ωκεανού 1
άλγεβρα 1
έβαλλε 1
εγγ@@ 1
εντολών 1
ερμπ@@ 1
ικανότητας 1
κλεί@@ 1
κουλτούρας 1
λ.χ. 1
λίγ@@ 1
μεμονωμένα 1
μητ@@ 1
ογον@@ 1
προστατεύσει 1
ρίκιος 1
συμφωνεί 1
σωματο@@ 1
τριχ@@ 1
τὸ 1
χιόνι 1
Video 0.41025221399832473
Ζαρ@@ 1
Ημαθίας 1
Λεοπόλδος 1
Μπράι@@ 1
Παχ@@ 1
Ρωμαιοκαθολική 1
Χάρολντ 1
αξιωματικό 1
διαβήτη 1
εργαλείων 1
ερι 1
ευσή 1
ιππότης 1
κοιλάδες 1
λοιμώξεις 1
μς 1
μύτη 1
νήσ@@ 1
ρατσι@@ 1
υπεύθυν@@ 1
υποχρεώθηκε 1
φυματίωση 1
ωνύμιο 1
όρισαν 1
όφωνοι 1
Benz 1
Mal@@ 0.11876785513887572
est 0.0043565894090691615
ΑΕΛ 1
Κατασκευάστηκε 1
Λοτζ 1
Ξεκινώντας 1
Πρωτ@@ 1
Τέσσερις 1
Φερδινάνδο 1
άξι@@ 1
ίλης 1
ασύρ@@ 1
δί 1
δρόμ@@ 1
επέλεξαν 1
επιτιθέ@@ 1
ζόμενη 1
καλεσ@@ 1
κομμουνιστικό 1
μικροί 1
πρόσληψη 1
συγχωνεύτηκε 1
συνειδ@@ 1
12.000 1
190 1
IC@@ 0.5096783120967063
Linux 0.7594179247841136
Γραφ@@ 1
Ναύ@@ 1
Παλαιστίνης 1
Πλέον 1
Τρίκαλα 1
Τόμσον 1
ανθρώπινων 1
εντερ@@ 1
εξαρ@@ 1
ερωτήσεις 1
μέντο 1
μελετήσει 1
παλιν@@ 1
παράκτια 1
περιοδείες 1
πλανητών 1
πόρου 1
στήλης 1
τηλεοπτικών 1
τσεν 1
υπαίθ@@ 1
χό 1
480 1
Sun 0.2673555861277188
Ευρωπαίοι 1
Χόρ@@ 1
άφι 1
έπαιζαν 1
αγίων 1
αλληλεπιδράσεις 1
ασυνήθιστο 1
θυμία 1
ιχν@@ 1
καγι@@ 1
κατεδαφ@@ 1
λίνα 1
μεγαλοπρεπ@@ 1
ομορφιάς 1
παράξεν@@ 1
περικλεί@@ 1
πλήρωσε 1
τὸν 1
φορτηγ@@ 1
όραση 1
ὁ 1
Καλλικράτη 1
Μακεδ@@ 1
Ουίλιαμς 1
Σαΐ@@ 1
Σουλτάνος 1
έθετε 1
βασί@@ 1
επέκ@@ 1
επιτίθεται 1
μελλοντικό 1
μιλούσαν 1
ξέρει 1
οειδής 1
οπτικές 1
παρουσιάζοντας 1
φαινομενικά 1
ώθησε 1
Από@@ 1
Ελλάς 1
Ινδικό 1
Καθηγ@@ 1
Κλεισ@@ 1
Λεωφόρο 1
Στρατηγός 1
Φρουράς 1
Χιον@@ 1
ήσιμο 1
αθλητικών 1
ακολουθείται 1
δόξα 1
ευρε@@ 1
ητού 1
κίνη 1
καχ@@ 1
κλάσης 1
κυπελλούχος 1
λειτουργική 1
μαθηματικό 1
μαργράβου 1
ορισμένο 1
παράκ@@ 1
πλειοψηφ@@ 1
συλλέγ@@ 1
τετρά@@ 1
τικης 1
τορικό 1
χρησιμ@@ 1
ABC 0.4062369599956256
Co 0.27564739058558096
Διάσ@@ 1
Εφημερίδα 1
Θυ@@ 1
Ναϊ@@ 1
Συντηρη@@ 1
ανατομ@@ 1
αντικαθ@@ 1
αξίζει 1
αποτελεσματικό 1
γκρίζ@@ 1
διαδικτύου 1
εκτόπ@@ 1
ερίου 1
θρύλος 1
καρτ 1
μειονότητες 1
μηχανοκίν@@ 1
οποιημένες 1
οσσ@@ 1
πολιτιστικών 1
πουρ@@ 1
υποσχ@@ 1
υπουργείου 1
χρέος 1
ϊκών 1
15η 1
British 0.04722902697340078
Region 0.15012681185350227
Γραμματέα 1
Λόπ@@ 1
Μακεδονικού 1
Ντιέγκο 1
Στέλιος 1
Υπέ@@ 1
άριστα 1
αναφέρθηκαν 1
γεωμετρ@@ 1
δημοκρατίες 1
εκτετα@@ 1
επιβιώσει 1
ετζ@@ 1
ζωγράφοι 1
θεατρικός 1
καρδινάλιος 1
οίκος 1
πλή@@ 1
προεδρ@@ 1
σοβιετικό 1
συμβόλαιό 1
1715 1
all 0.01918833710754069
Κατερίνης 1
Κορσ@@ 1
Μπόσ@@ 1
Ρωμαϊκό 1
Σχεδ@@ 1
Τελευτα@@ 1
Φάι@@ 1
έκτασή 1
έριξε 1
ακμής 1
αλπ@@ 1
ασμένοι 1
γυρισμάτων 1
μηχανικού 1
νοτιοδυτικό 1
οθωμανικό 1
περπατ@@ 1
στενές 1
υγρών 1
υπουργικό 1
Γροιλανδ@@ 1
Ζαφ@@ 1
Πίσω 1
Σαντ@@ 1
Χερσονήσου 1
έλκ@@ 1
αιματηρ@@ 1
ακολουθούσαν 1
αναδειχθεί 1
βιβασ@@ 1
δείκνυ@@ 1
εκκίνησης 1
κατάρτιση 1
κτό 1
μεταπολεμική 1
οπωλ@@ 1
παιδείας 1
πραγματικές 1
υποθέσεων 1
όφων@@ 1
ensis 0.24911963253557903
Αντουάν 1
Σοσιαλιστικής 1
Συνεδρίου 1
Τζόνι 1
Χλω@@ 1
ανανέωσε 1
ανεπιτυχώς 1
απορροής 1
κατοικούσε 1
κυβερνών 1
κόλπος 1
λειτουργήσει 1
λοίμωξη 1
νοτι@@ 1
παράρτημα 1
πλοκής 1
προήλθαν 1
σπόρους 1
σταθμικό 1
στοά 1
ταιριάζει 1
υπεν@@ 1
υπερασ@@ 1
όντι 1
age 0.031770537751539187
ce 0.028870149575294643
Βατικανού 1
Βρυ@@ 1
Γκόρ@@ 1
Λαμβ@@ 1
Μίσιγκαν 1
Μπαγ@@ 1
Ρην@@ 1
έδρων 1
αμέ@@ 1
αξιόλογ@@ 1
δεσμού 1
ευτών 1
μοιράστηκε 1
παράσημο 1
σκοράροντας 1
Αρθού@@ 1
Γρηγόριο 1
Θεοτόκ@@ 1
Καπετιδών 1
Προγράμματος 1
Πύρ@@ 1
άγγελος 1
αθλητή 1
αιχμαλώτων 1
ανισ@@ 1
απόσυρση 1
γαλαξίας 1
διαπίστ@@ 1
ειδικοί 1
επέζησαν 1
επιπλοκές 1
ετυμολογία 1
ικίας 1
ιλα 1
κυψ@@ 1
οξείδωση 1
περιγράφ@@ 1
πορθμ@@ 1
πραγματικών 1
land 0.049501221599697304
Άουγκ@@ 1
Γραμμή 1
Νικ 1
Ορκ@@ 1
Ρόκ@@ 1
Χώρας 1
άκις 1
ίντο 1
αβά@@ 1
αντας 1
ασιών 1
εναπο@@ 1
θάφτηκε 1
ικότητά 1
κατοικεί 1
νομίσματος 1
παλαιών 1
προσχώρ@@ 1
ριές 1
στάθμη 1
ταλαντού@@ 1
φθαλ@@ 1
φιλελευθερ@@ 1
χιλ@@ 1
Netflix 1
Ιλιάδα 1
Κωνσταντία 1
Μπαγκλαντές 1
έλος 1
ανδρική 1
βίαιη 1
γέ@@ 1
γεια 1
γραφα 1
διαμονής 1
ενδυ@@ 1
εξεγέρ@@ 1
εφαρμοστεί 1
ηνία 1
κάηκε 1
μακροβι@@ 1
οικοδόμηση 1
οπαθ@@ 1
πίσ@@ 1
παραφ@@ 1
πιστών 1
στοχεύει 1
συντρόφους 1
φιλοτέχνησε 1
φώ@@ 1
χρειαστεί 1
Santa 0.11331518724129247
are 0.007467895488482585
eb@@ 0.11445287716968526
Ατλέτικο 1
Γε@@ 1
Ιραν@@ 1
Κάρολ 1
Κάστρου 1
Κέβιν 1
Μαυροκορδά@@ 1
Νοτιο@@ 1
Ολλανδός 1
Οντάριο 1
Τον@@ 1
Χάραλντ 1
αέρας 1
γενικώς 1
γεωγραφία 1
γκαν@@ 1
εμποδίσει 1
θρύλο 1
κοιλιά 1
λειμ@@ 1
μέγαρο 1
μεταφερ@@ 1
μονοπάτια 1
ροζ 1
σκόπευε 1
φαινομένων 1
όπουλ@@ 1
Can 0.617467459632025
Mary 0.12807126172889938
Po@@ 0.1699285268720986
Γνώ@@ 1
Ευγ@@ 1
Οικουμενικό 1
Πουατιέ 1
ΡΑ@@ 1
έπεται 1
απαίτησε 1
δασκάλους 1
εκτελείται 1
επικίνδυν@@ 1
καλούνται 1
ούχα 1
παραδοθεί 1
περσική 1
προσπάθειας 1
σημειώνεται 1
συγχρον@@ 1
1583 1
Αιγύπ@@ 1
Ανδρού@@ 1
Γουίλ@@ 1
Δημητρι@@ 1
Είδη 1
Ηλεκτρον@@ 1
Καίσαρας 1
Κόκ@@ 1
Λούκα 1
Μπεζ@@ 1
Υφ@@ 1
έκτακτης 1
αντισημι@@ 1
βουλγαρικά 1
διαφημίσεις 1
ειδίκευση 1
ενδημ@@ 1
ιανό 1
κούρ 1
μπρο@@ 1
ξαναγ@@ 1
ξεφ@@ 1
παίδων 1
προβλέ@@ 1
ροϊ@@ 1
τημάτων 1
τσίνι 1
Όλαφ 1
Ανάκτορο 1
Βλαχίας 1
Εργογραφία 1
Κομνηνού 1
Νταν 1
Πόντο 1
άνθρακας 1
ήμονες 1
αερόστατο 1
αντικαταστ@@ 1
βύθ@@ 1
δίδυμ@@ 1
διαμάχης 1
δολοφονήθηκαν 1
επιτυχημένα 1
θαυμ@@ 1
ινους 1
καρπ@@ 1
ξέσπασαν 1
οφείλ@@ 1
ούσια 1
παραθ@@ 1
σημειώσει 1
υποτελείς 1
φοράει 1
φύσεως 1
ts 0.05765593496879604
Ανθρώπ@@ 1
Δεδ@@ 1
Δελφ@@ 1
Μπεργκ 1
ΠΕ@@ 1
Σταδιακά 1
Στυ@@ 1
ήβ@@ 1
ανανεω@@ 1
αυτοβι@@ 1
βρω@@ 1
δομών 1
εγκυμοσύνης 1
εκτείνονται 1
εντοπισμό 1
εξαφανιστεί 1
εώς 1
ινοί 1
μεταδίδεται 1
πετρελαι@@ 1
προωθεί 1
πυρετό 1
συμβιβασ@@ 1
τοπωνύμιο 1
1,1 1
AN@@ 0.564888958620085
pH 1
Αυτοκρά@@ 1
Γιανγκ 1
Καλλιθέα 1
Σλοβακίας 1
Συλλογή 1
Τριάδας 1
Χαμπ@@ 1
Χωριό 1
έκλεισαν 1
ακριβείς 1
ασή 1
βιταμ@@ 1
εξαιρέσεις 1
επαρκή 1
επισκεφθεί 1
ησιακή 1
καύ@@ 1
μεταχείριση 1
οδούς 1
παίζεται 1
πρια 1
προετοιμασίας 1
σπουδαίο 1
τέρου 1
ταυτο@@ 1
τγκ@@ 1
υνθεί 1
υποδηλώνουν 1
que 0.0035395154394216454
Άουσβιτς 1
Αξιωματ@@ 1
Αρχιεπισκόπου 1
Ατα@@ 1
Ιωακείμ 1
Μαμελού@@ 1
Μετέπειτα 1
Πιθαν@@ 1
αγωνιστές 1
ασμάτων 1
βροχόπτωση 1
διάσημα 1
διέμενε 1
διές 1
μπιν@@ 1
ομοφυλόφιλ@@ 1
πεθ@@ 1
πρακτικής 1
σαφ@@ 1
στόχου 1
σφραγίδα 1
τοκ 1
όδα 1
Βυζαντιν@@ 1
Γορ@@ 1
Ισαάκ 1
Κρακοβία 1
Πιλ@@ 1
αγκα@@ 1
αιχ@@ 1
αντικατοπτ@@ 1
δεκαετιών 1
διδάκτωρ 1
επεδίω@@ 1
ητριών 1
κτισμένος 1
πέφτουν 1
περιθώριο 1
προαιρε@@ 1
προτίμησε 1
συμπεριέλαβε 1
τιζε 1
φιλοσοφική 1
φρού@@ 1
φυλάσσεται 1
χριστιανικής 1
46@@ 0.8742789479037593
48@@ 0.8818564185322285
Mer@@ 0.17188265149008353
ΑΚ@@ 1
Αυτοκινήτου 1
Δακ@@ 1
Πεδ@@ 1
Πεκίνο 1
Τζεφ 1
Τρώ@@ 1
αντεπίθεση 1
αξιοθέατο 1
δύσκολες 1
ειους 1
ιδίωμα 1
ισόβια 1
κυττάρου 1
λεπτή 1
λιθίου 1
χιούμορ 1
Institute 0.10917377617016279
Γαβριήλ 1
Μασαχουσέτης 1
Παρόμοια 1
Ρικ@@ 1
ίκες 1
αμετάβλ@@ 1
ανακηρύχτηκε 1
ασκούν 1
βάζει 1
δάπεδο 1
διοξειδίου 1
δοχ@@ 1
εξάρτηση 1
ιανά 1
ικότερο 1
ιπτά@@ 1
περιέχονται 1
ποικιλ@@ 1
ρίσμα 1
ριό 1
τζη 1
ύτερου 1
ὸς 1
Karl 0.15461028135366492
Βίκτωρ 1
Ιωάννας 1
Μάργκαρετ 1
Μόντε 1
Τοκ@@ 1
αλλοδ@@ 1
δασκάλου 1
εγκάρ@@ 1
μοχ@@ 1
ξένο 1
ογενής 1
ορεινά 1
πρώιμα 1
συλληφθεί 1
συνδεδεμένο 1
ττα@@ 1
υπογράφοντας 1
107 0.9179734315985335
Διεύθυνση 1
Μν@@ 1
ΠΑΕ 1
Πανιώνιος 1
Τάσος 1
άλι@@ 1
ίμου 1
βενζίνης 1
δεξαμεν@@ 1
διαφοροποίηση 1
ενεπλάκη 1
κατελήφθη 1
λεκτική 1
πανηγύρι 1
παρακολούθησαν 1
προτερ@@ 1
σατ@@ 1
στρατιωτικοί 1
συγχρόνως 1
τέλα 1
Columbia 0.2000547851293413
Ma@@ 0.14360206461838468
Str@@ 0.1439137319674425
za 0.15914003754689401
Αιθιοπία 1
Λατινικής 1
Παρνασσ@@ 1
έκβαση 1
έντες 1
αζ 1
αλγ@@ 1
αναγνώστες 1
αναγράφ@@ 1
αντιπαρα@@ 1
αποκαλούν 1
βάθ@@ 1
ειδικής 1
ηματικές 1
ιγ 1
καύσης 1
κόγ@@ 1
λατομ@@ 1
μητροπολίτη 1
μόνιμος 1
παντελ@@ 1
πολεμήσουν 1
ποτό 1
προφαν@@ 1
τέας 1
τεχνοτροπία 1
φιλικά 1
όνι@@ 1
ak 0.11720122482267123
Γρί@@ 1
Δράμα 1
Καλύτερ@@ 1
Χρη@@ 1
ήργησε 1
αξιωματούχων 1
αποσπάται 1
ασυνήθιστα 1
βιντεοπαιχνιδιών 1
γραν@@ 1
δικαιώματος 1
εξοπλισμός 1
κληρονόμο 1
κοιτά@@ 1
μετακομίσει 1
μπερι 1
οσφ@@ 1
πεζικό 1
προορισμός 1
σχετικής 1
τούτο 1
106 0.8673142879418204
Κρατική 1
Λούκας 1
Μαξιμιλι@@ 1
Χαραλ@@ 1
Χρησιμοποιώντας 1
Ωβέρνης 1
έκο 1
αγγλικού 1
απορρόφηση 1
βλέπε 1
βρεταν@@ 1
εργαζόμενοι 1
ερεύ@@ 1
εστία 1
κομήτη 1
μόνας 1
πάρτι 1
σκηνοθετήσει 1
σπέρ@@ 1
συγκρίν@@ 1
συμβάσεις 1
ταχυτήτων 1
τζης 1
υπερασπίστηκε 1
Dr 0.7840836552800912
Όσοι 1
Αντώνιο 1
ακτι@@ 1
ανέβ@@ 1
βεβαιότητα 1
γιού 1
επιδίω@@ 1
θερινή 1
θρησκ@@ 1
κύκλωμα 1
μοριακή 1
οποιία 1
ουρία 1
περιπλ@@ 1
τοπίου 1
τση 1
υποχώρησε 1
ψάρι 1
Arena 0.4416878418067004
Κασταν@@ 1
Πέδρο 1
Ρωμαίο 1
Σοβιέτ 1
Συμπ@@ 1
ίλιος 1
αποδυναμ@@ 1
ενηλικ@@ 1
ετρα 1
καθημερινές 1
κολύμβησης 1
νησίδες 1
σπερ@@ 1
στιχουργ@@ 1
συνέλαβαν 1
ότοπο 1
Los 0.03530444417640397
Βεζ@@ 1
Εργατικού 1
Σασ@@ 1
Στου@@ 1
Φό@@ 1
έλεια 1
ήσυ@@ 1
βληθεί 1
διοίκ@@ 1
ζί 1
ζητούσαν 1
κουμπ@@ 1
κτηνοτροφ@@ 1
κυριαρχούν 1
περιβάλλει 1
ταξης 1
όνοιας 1
Story 0.5439336001577305
Ελσίνκι 1
Λιβαδ@@ 1
Μακεδον@@ 1
Μεσαι@@ 1
Προοδευτική 1
Τούρκος 1
Φορντ 1
Φράγκους 1
Χαλκίδας 1
αναδεικνύ@@ 1
αντού@@ 1
βίαι@@ 1
βόμβα 1
διαθεσιμότητα 1
διακήρυξη 1
εξωγή@@ 1
επεξεργαστή 1
ευκ@@ 1
ζάν 1
θεματολογία 1
λινα 1
πηγής 1
πράκτορας 1
ρίστηκαν 1
σοβιετικές 1
σορ@@ 1
σουλτάνο 1
στήρες 1
συλλάβει 1
σχεδί@@ 1
τεχνικός 1
τηλεοπτικού 1
ύλακα 1
Boy 0.4379517616078453
Glover 1
ko 0.1607043679771195
Αμαν@@ 1
Επέ@@ 1
Λιτ@@ 1
Μαι@@ 1
Νιλ 1
Ταμείο 1
αεροδρόμια 1
ανταπόκριση 1
αντιπροσώπους 1
απόβαση 1
βιε@@ 1
εκλ@@ 1
εκπληκ@@ 1
εντι@@ 1
μακεδ@@ 1
ματα@@ 1
μαχο 1
μπατα@@ 1
προσπαθούσαν 1
υιοθέτησαν 1
χαρακτηρισμό 1
550 1
Max 0.21743348570708088
ki 0.175298958405646
Όσ@@ 1
Διαβ@@ 1
Λας 1
Μπλοκ 1
Ντίλ@@ 1
αψίδα 1
διαδόθηκε 1
διασταυρ@@ 1
δρος 1
εκρι@@ 1
εξασφαλίζοντας 1
κάτοικος 1
καθορισμό 1
μεταγενέστερ@@ 1
ολοσχερώς 1
παρτι@@ 1
σαμ@@ 1
υν 1
φορτ@@ 1
Studio 0.3963532345873199
Εθνικ@@ 1
Μουζ@@ 1
Μπρούνο 1
Ολυμπίας 1
Ποδοσφαιρικής 1
αμερικάν@@ 1
ανακαίνιση 1
ασθέν@@ 1
γερουσιαστής 1
γυαλί 1
διακή 1
δικός 1
εξαδέλφη 1
κοπή 1
μειώνοντας 1
μελετά 1
μπολ 1
μυθιστορ@@ 1
νοτιότερα 1
ξύλινη 1
παρεν@@ 1
σσα 1
ταρά@@ 1
όχος 1
ώγ@@ 1
Press 0.29589934130008566
Pro 0.2781611037005079
Εσθον@@ 1
Ζαλ@@ 1
Ιεχωβά 1
Μουσουλμάνους 1
Ολυμπιακοί 1
Χαζ@@ 1
αποκτούν 1
δάσους 1
διατίθεται 1
ελιγ@@ 1
εξουδετερ@@ 1
ευμένες 1
θένη 1
καύση 1
λαξ@@ 1
ρεια 1
σπάσει 1
τερματισμό 1
φούρν@@ 1
For 0.06029758370177273
Master 0.26762177994317493
ah 0.13113124995755268
li 0.20091333841867534
Έρευνα 1
Αιγύπτιοι 1
Αμβρακ@@ 1
Καιν@@ 1
αναδύ@@ 1
γαλαξία 1
δέλτα 1
πάσ@@ 1
παράγωγ@@ 1
παραγωγούς 1
προσδιορίζεται 1
ρέουν 1
ταφής 1
υποβρύχιο 1
ca 0.14876221510876209
Αγγλικό 1
Ανήκε 1
Ινδι@@ 1
Καζαντζ@@ 1
Κοινοτήτων 1
Μπαζ@@ 1
Ούλριχ 1
Πριγκιπάτο 1
Ρίζ@@ 1
Σικελ@@ 1
άμμο 1
έκκληση 1
ήχθη 1
δεκαέξι 1
διάδοχ@@ 1
επίτευγμα 1
επιθυμεί 1
ηλεκτρονικής 1
θαύμα 1
κτών 1
πληκτ@@ 1
συνεπάγεται 1
τίποτε 1
τρύπα 1
υπολογισμούς 1
φλοιό 1
φορτηγό 1
Pro@@ 0.16329127654768302
Βακ@@ 1
Βρυξελλών 1
Καρακ@@ 1
Μπεκ@@ 1
Πλούταρχος 1
Σημείωση 1
Φοιτη@@ 1
άρωμα 1
διατάγματα 1
δοι 1
δολοφόνος 1
εμπορικής 1
εξασθεν@@ 1
ηρέ@@ 1
ιδανικό 1
καύσιμο 1
μηχανισμούς 1
οδηγήσουν 1
ομιλίας 1
ορατή 1
περιστάσεις 1
ρίνει 1
σαλόνι 1
υπόσχεση 1
ov@@ 0.15685018159557187
Αλβανοί 1
Ερυθρού 1
Ισπανικά 1
Κυπρι@@ 1
Νόβ@@ 1
Τζιν 1
Φιλοσοφική 1
ίλες 1
αγόρας 1
αξε 1
βέρτος 1
διαβεβ@@ 1
διαγωνισμούς 1
δυσμεν@@ 1
ημισ@@ 1
ιδιόκ@@ 1
κρατικά 1
κυβερνητικό 1
μαέστ@@ 1
μετοχές 1
πόνηση 1
σκόρ@@ 1
συνιστώσ@@ 1
σχετικών 1
σύνης 1
υπαρχ@@ 1
Αμερικανού 1
Αυστριακ@@ 1
Ιανουάριος 1
Ντμίτρι 1
αναταραχή 1
αντιπροσωπεία 1
βλήθηκαν 1
δεξιότητες 1
διευκόλ@@ 1
εισήλθαν 1
εκπαιδεύτηκε 1
επεξεργαστές 1
ηνή 1
ιτι@@ 1
ναίος 1
οκυπ@@ 1
ταλι@@ 1
φιγούρα 1
χάρι@@ 1
χρώ@@ 1
όβιτς 1
Αλά@@ 1
Ξηρο@@ 1
Παλατιν@@ 1
Χειρο@@ 1
ασφαλής 1
βρίσκουμε 1
διέν@@ 1
κοσ@@ 1
λιοντάρι 1
νού@@ 1
ουάν 1
στάθηκαν 1
στάχ@@ 1
τείνοντας 1
φάουλ 1
φωτογράφ@@ 1
Εκκλησίες 1
Μινσκ 1
Μουσουλμάνων 1
Σταθμό 1
αλληγορ@@ 1
διατέλεσε 1
εγχώρια 1
κατανάλωσης 1
κινέζ@@ 1
λλην@@ 1
μακεδον@@ 1
μοντέρνα 1
πουλί 1
πρου 1
συχνότητες 1
όστρα@@ 1
ύψωμα 1
0,5 1
Il 0.01517826568004068
Ne@@ 0.14507335254860454
Pe@@ 0.22421310263601535
Toyota 1
Ανατολικά 1
Αρχαιότητα 1
Δράση 1
Ελι@@ 1
Παραδοσιακά 1
Πρεσβύτερος 1
αναδρομ@@ 1
γνά@@ 1
γραμματική 1
δεξαμενές 1
δημοσιογραφία 1
διδόταν 1
κάρ 1
μετεω@@ 1
μετο@@ 1
ποιημάτων 1
προσέγγισης 1
σιοι 1
συγκαταλέγεται 1
τώματα 1
υπόλ@@ 1
υρη 1
Καμπανίας 1
Κω 1
ΟΣ@@ 1
Συνομοσπονδίας 1
Υγεία 1
ανάγ@@ 1
ανώτερα 1
αξιοσημείωτα 1
γιάννη 1
διαιτητής 1
επίκ@@ 1
ευκολία 1
ισχυρών 1
μηδ@@ 1
μοναδικά 1
οπρ@@ 1
παρεμβάσεις 1
πεύ@@ 1
προσέλευση 1
σκανδιναβ@@ 1
στό@@ 1
συνεργάστηκαν 1
τοίχοι 1
υκλ@@ 1
υπάρχοντα 1
φόρμα 1
όγγ@@ 1
ώδ@@ 1
This 0.021578493839026384
Γουόλτερ 1
Κλιν@@ 1
Μάχης 1
Μπούρ@@ 1
Στέμμα 1
Υψηλάντη 1
άκας 1
άλληλ@@ 1
άχν@@ 1
ήτριες 1
αιχμαλωτίστηκε 1
ακούει 1
ασφαλές 1
ατρος 1
βροχής 1
γέννησή 1
εξαγωγές 1
εύπορ@@ 1
ιστης 1
καρχαρ@@ 1
λεηλατ@@ 1
μακρό@@ 1
μπαν 1
νται 1
πειρος 1
στερο 1
φωνή@@ 1
όγδοη 1
Champions 0.38534508728454825
[...]
