, 0.9149551096688182
. 0.9681225435119855
là 1
và 1
&quot; 0.9593667570445136
của 1
một 1
được 1
trong 1
năm 1
có 1
các 1
) 0.9411890697033207
( 0.9418650374475898
này 1
đã 1
người 1
họ 1
với 1
ở 1
loài 1
cho 1
đầu 1
học 1
vào 1
@-@ 0.41671985780966825
thành 1
tháng 1
số 1
từ 1
không 1
đến 1
những 1
tại 1
khi 1
tả 1
tiên 1
ngày 1
khoa 1
thể 1
Loài 1
ra 1
đó 1
vật 1
: 1
công 1
thực 1
về 1
để 1
thuộc 1
sự 1
như 1
bị 1
trên 1
chính 1
ông 1
sau 1
dân 1
quân 1
gia 1
nhà 1
động 1
; 1
lại 1
cũng 1
làm 1
thời 1
nước 1
nhất 1
hiện 1
mô 1
Nam 1
sử 1
phát 1
hành 1
bộ 1
nhiều 1
theo 1
hoa 1
hai 1
khác 1
việc 1
quốc 1
quan 1
con 1
sinh 1
thế 1
chỉ 1
cùng 1
xã 1
nhân 1
hình 1
hơn 1
dụng 1
chiến 1
định 1
thứ 1
do 1
Quốc 1
đồng 1
xuất 1
viên 1
còn 1
độ 1
miêu 1
Trung 1
thị 1
cách 1
tỉnh 1
1 1
nó 1
vị 1
tên 1
cuộc 1
bản 1
2 1
Việt 1
/ 1
giới 1
trở 1
bởi 1
hợp 1
Các 1
lập 1
nhưng 1
rằng 1
khu 1
phía 1
lớn 1
cao 1
điểm 1
bằng 1
tự 1
phần 1
đội 1
đại 1
nhận 1
kết 1
chức 1
trước 1
hội 1
trường 1
giải 1
hoặc 1
Năm 1
tiếng 1
Anh 1
vùng 1
cả 1
Trong 1
phải 1
trình 1
gồm 1
thường 1
Hoa 1
tiếp 1
điều 1
lượng 1
3 1
chủ 1
qua 1
phân 1
lý 1
sản 1
- 1
Kỳ 1
mà 1
thống 1
loại 1
sẽ 1
tế 1
huyện 1
cơ 1
trung 1
tính 1
diễn 1
lên 1
đối 1
phố 1
bao 1
tích 1
vụ 1
gọi 1
thông 1
sống 1
tác 1
đi 1
hàng 1
bắt 1
phim 1
tạo 1
vì 1
lực 1
mình 1
nhiên 1
quyền 1
vực 1
hệ 1
cánh 1
địa 1
Đại 1
trị 1
anh 1
4 1
&amp; 1
đường 1
lần 1
nghiệp 1
giáo 1
đánh 1
diện 1
cấp 1
5 1
chi 1
đấu 1
chúng 1
thủ 1
Pháp 1
cầu 1
khoảng 1
sĩ 1
mới 1
Sau 1
10 1
thức 1
đoàn 1
hóa 1
trận 1
Đức 1
tranh 1
cô 1
hay 1
đêm 1
pháp 1
đề 1
Tây 1
% 0.9717832469144344
– 0.5993607360349982
liên 1
6 1
tập 1
nhạc 1
tàu 1
tham 1
chuyển 1
biển 1
thấy 1
bay 1
máy 1
bố 1
truyền 1
Mỹ 1
thì 1
năng 1
km 1
mặt 1
toàn 1
nên 1
gian 1
rất 1
hiệu 1
ban 1
văn 1
phương 1
tới 1
hoạt 1
đô 1
đây 1
bang 1
trí 1
giữa 1
đạo 1
triển 1
nam 1
đặc 1
12 1
tổ 1
nhau 1
bướm 1
Bắc 1
nghĩa 1
đá 1
danh 1
cứng 1
7 1
Một 1
Ông 1
ba 1
8 1
biệt 1
tử 1
bóng 1
thiết 1
chế 1
ta 1
đất 1
đang 1
nằm 1
kinh 1
bình 1
đổi 1
thuật 1
kỳ 1
tâm 1
nơi 1
dài 1
đơn 1
dưới 1
chất 1
âm 1
9 1
Nó 1
cuối 1
ảnh 1
phủ 1
Công 1
bọ 1
kế 1
Liên 1
dịch 1
Đông 1
Lan 1
nữ 1
&apos; 0.46756994264795415
nhiệm 1
tiểu 1
điện 1
sách 1
Nhật 1
nói 1
Vào 1
ý 1
biết 1
phẩm 1
sáng 1
thay 1
tăng 1
châu 1
bảo 1
biến 1
trưởng 1
nguyên 1
Thái 1
11 1
báo 1
đều 1
mục 1
vẫn 1
cứu 1
tin 1
gần 1
trọng 1
đảo 1
tình 1
thi 1
chơi 1
ăn 1
thu 1
tiến 1
cá 1
giá 1
bài 1
amp 1
Bộ 1
đặt 1
tiêu 1
thân 1
tương 1
nay 1
tư 1
nhóm 1
Ngày 1
dự 1
nhỏ 1
tìm 1
tổng 1
phòng 1
dùng 1
bắc 1
ngoài 1
lịch 1
đông 1
hòa 1
bà 1
bên 1
tài 1
hậu 1
nổi 1
màu 1
dẫn 1
quả 1
phong 1
tuổi 1
tinh 1
Dân 1
phục 1
kỷ 1
biểu 1
đưa 1
sát 1
đời 1
Tuy 1
đình 1
viết 1
ứng 1
tục 1
Thành 1
giao 1
&#93; 1
us 1
Hà 1
ca 1
miền 1
mang 1
Bản 1
quận 1
yếu 1
mùa 1
hát 1
giữ 1
Hoàng 1
rộng 1
tướng 1
trang 1
vô 1
thương 1
liệu 1
sông 1
&#91; 1
² 1
bán 1
nhập 1
quyết 1
từng 1
dựng 1
bất 1
đóng 1
án 1
tấn 1
sở 1
bỏ 1
thần 1
Dương 1
quá 1
phụ 1
Xã 1
chiếc 1
chương 1
viện 1
dù 1
thắng 1
câu 1
nghệ 1
vận 1
Hải 1
Văn 1
hoàn 1
nhiệt 1
Cộng 1
2010 1
Theo 1
Độ 1
vai 1
binh 1
lạc 1
xây 1
khí 1
di 1
cung 1
cử 1
cổ 1
vệ 1
nào 1
Ấn 1
giống 1
hạng 1
xác 1
Tổng 1
tiền 1
Nguyễn 1
hoàng 1
trò 1
vua 1
Bình 1
tra 1
mở 1
Minh 1
Những 1
tây 1
sân 1
ngữ 1
chống 1
hướng 1
chung 1
cái 1
trợ 1
làng 1
chiếm 1
chưa 1
Từ 1
hộ 1
an 0.17431065359472117
ghi 1
tượng 1
Ban 1
cộng 1
giả 1
minh 1
đạt 1
mất 1
triệu 1
dạng 1
kiến 1
phản 1
quản 1
bệnh 1
mạnh 1
sang 1
chết 1
hạn 1
lúc 1
Quân 1
ty 1
giờ 1
tộc 1
cảnh 1
lãnh 1
gây 1
xe 1
nguồn 1
chứng 1
kể 1
kích 1
nghiên 1
in 0.031318709910407284
trấn 1
kiện 1
ký 1
de 0.02410952775021915
lệ 1
tất 1
Chúng 1
đoạn 1
20 1
ngôi 1
chia 1
hữu 1
thư 1
lưu 1
yêu 1
ata 1
Khi 1
vương 1
tay 1
cây 1
chân 1
Vương 1
ensis 1
vòng 1
thuyết 1
giúp 1
phép 1
thêm 1
Nga 1
Chính 1
Ba 1
Châu 1
độc 1
thích 1
phá 1
ia 1
trực 1
mỗi 1
ít 1
Sơn 1
Âu 1
hưởng 1
vậy 1
chọn 1
The 0.09028936996901615
khỏi 1
Sự 1
sắc 1
sư 1
Hội 1
cảm 1
T@@ 1
vấn 1
Chiến 1
cần 1
hết 1
Giải 1
Nhà 1
vi 1
tốt 1
địch 1
luật 1
cư 1
La 0.35105007095420276
xem 1
nội 1
xếp 1
em 1
so 1
tỷ 1
sao 1
B@@ 1
y 0.10981413898641884
lấy 1
An 1
gốc 1
um 0.9375546111619915
khả 1
quy 1
2011 1
dương 1
chí 1
mạng 1
giành 1
m 1
Thanh 1
núi 1
L@@ 1
trai 1
mật 1
Người 1
mắt 1
bàn 1
triều 1
Đây 1
15 1
H@@ 1
cố 1
niên 1
giảm 1
huy 1
khai 1
Nhĩ 1
Quận 1
ch@@ 1
lời 1
tuyến 1
lệnh 1
M@@ 1
Đảng 1
S@@ 1
khiến 1
khách 1
Nha 1
áp 1
cáo 1
Thổ 1
trẻ 1
bầu 1
duy 1
Mã 1
thảo 1
vũ 1
sức 1
Thế 1
Tân 1
bại 1
tuần 1
chuyên 1
ngoại 1
đa 1
Tháng 1
... 1
đồ 1
dục 1
môi 1
album 1
Nhân 1
Nội 1
Lý 1
riêng 1
chuẩn 1
quay 1
phổ 1
Tại 1
thiên 1
đới 1
thúc 1
gặp 1
đế 1
hầu 1
Xô 1
nghiệm 1
Do 1
lớp 1
nghị 1
thanh 1
lợi 1
hạt 1
Long 1
Phi 1
chữ 1
doanh 1
lễ 1
nền 1
xuống 1
chạy 1
V@@ 1
of 0.021981411418462833
30 1
phiên 1
18 1
h@@ 1
Danh 1
biên 1
thái 1
Lịch 1
gái 1
19 1
bổ 1
i 1
kiểm 1
vây 1
n@@ 1
Hòa 1
dòng 1
tồn 1
luận 1
Hán 1
the 0.011776929296916651
N@@ 1
tưởng 1
Hồ 1
rồi 1
ước 1
muốn 1
tuyên 1
thấp 1
vàng 1
Đế 1
16 1
New 0.5604074906477332
tiết 1
mọi 1
C@@ 1
khẩu 1
cực 1
Á 1
Giáo 1
tức 1
đứng 1
s@@ 1
cửa 1
tịch 1
nhanh 1
2007 0.9274915934277383
du 0.14531823758985757
giám 1
Ngoài 1
m@@ 1
Trường 1
mức 1
mẹ 1
thờ 1
is 0.07107512144999348
coi 1
D@@ 1
trúc 1
Trần 1
thất 1
đáng 1
cha 1
dụ 1
Có 1
nữa 1
kỹ 1
dựa 1
cận 1
giáp 1
giai 1
ngay 1
Hồng 1
14 1
mặc 1
phi 1
hạ 1
đôi 1
Nguyên 1
bảng 1
tối 1
quần 1
quanh 1
phái 1
lâu 1
thủy 1
dung 1
13 1
tuyển 1
ấy 1
nhện 1
phóng 1
Thiên 1
Hàn 1
lục 1
đốc 1
vài 1
nhằm 1
nếu 1
pháo 1
on 0.07854848012322586
ngôn 1
17 1
b@@ 1
Đô 1
Tư 1
2006 0.8864948837023395
tố 1
cải 1
2008 0.8052618435562189
thập 1
Đồng 1
đủ 1
la 0.031237217260790484
Không 1
Ch@@ 1
thưởng 1
r@@ 1
Kinh 1
Lê 1
Ý 1
bạn 1
cấu 1
Chủ 1
mẫu 1
G@@ 0.945818812562776
l@@ 1
giết 1
Vũ 1
mét 1
hỗ 1
chiều 1
luyện 1
II 1
Ở 1
I 0.595183801608558
da 0.7934957381433527
xa 1
ph@@ 1
lá 1
ai 1
Tông 1
Cô 1
v@@ 1
K@@ 0.9835568949702138
bắn 1
phạm 1
kéo 1
th@@ 1
hoạch 1
chấp 1
25 0.986830960795016
bốn 1
rừng 1
kim 1
2016 0.7568996638759724
đài 1
Geometridae 1
Họ 1
Tiên 1
lộ 1
Kim 1
môn 1
P@@ 0.8754267059730667
c@@ 1
chứa 1
rõ 1
trùng 1
tỏ 1
sóng 1
t@@ 1
buộc 1
Ủy 1
cứ 1
chịu 1
Cao 1
phận 1
dành 1
Đ@@ 1
cạnh 1
lửa 1
ngành 1
2009 0.7152560760571923
tôi 1
tôn 1
toán 1
đổ 1
R@@ 0.9166089422294553
mềm 1
đàn 1
g@@ 1
cụ 1
trao 1
tốc 1
2004 0.9747387752023497
hải 1
ae 1
khởi 1
ma 1
đĩa 1
Điều 1
2015 0.6984583813901107
Đài 1
A 0.33297252696418994
bờ 1
a 0.021268975816381635
nông 1
ana 1
khúc 1
hồ 1
nặng 1
trắng 1
Quảng 1
thổ 1
s 0.3593685251658627
Địa 1
Bảo 1
d@@ 1
ngắn 1
2000 0.8561177084487522
lĩnh 1
2014 0.6672280435701192
nối 1
Bà 1
21 1
idae 1
2005 0.8836177409473303
y@@ 1
hại 1
A@@ 0.8864680414887196
Lưu 1
aceae 1
Đến 1
ốc 1
ruồi 1
hôn 1
Tiểu 1
2012 0.6495336420968593
hồi 1
khảo 1
chú 1
chuyện 1
x@@ 1
Giang 1
sâu 1
xảy 1
tòa 1
trạng 1
2017 0.7178833236669127
trả 1
2013 0.6590581665120026
gì 1
trụ 1
24 0.9767383308342447
1999 1
thiếu 1
Thượng 1
2018 0.680019832320174
Noctuidae 1
đen 1
O@@ 0.8909319923561517
niệm 1
thuốc 1
nhìn 1
ea 1
loạt 1
khó 1
chiếu 1
Gia 1
mối 1
Đường 1
rút 1
xử 1
2019 0.7172970286066359
nuôi 1
tái 1
bức 1
100 0.9915642455804587
ủy 1
vượt 1
chim 1
Thị 1
cũ 1
thuận 1
xung 1
Triều 1
tước 1
mua 1
vốn 1
nh@@ 1
ina 1
đầy 1
thơ 1
mại 1
gt 0.9537231305456974
sai 1
tội 1
ương 1
Hiệp 1
Cerambycidae 1
băng 1
trục 1
to 0.023437437756202363
23 1
phối 1
súng 1
tạp 1
Phó 1
lt 0.9763127255251148
_ 0.616421546968439
22 0.9671930549369954
Mặc 1
suất 1
mm 1
u 1
Ninh 1
soát 1
song 1
đai 1
Cổ 1
Cúc 1
linh 1
atus 1
chủng 1
buổi 1
on@@ 1
kịch 1
xét 1
trái 1
thử 1
càng 1
tr@@ 1
góp 1
rời 1
ủng 1
truyện 1
đỏ 1
dễ 1
al@@ 0.9151447169804827
Trước 1
kiếm 1
sứ 1
ngựa 1
tầng 1
2001 0.8973558989548546
đảm 1
31 1
tải 1
Chi 1
trách 1
luôn 1
chuyến 1
trì 1
in@@ 0.602862065968021
cập 1
dấu 1
phí 1
Ph@@ 1
alis 1
đích 1
ella 1
Thủ 1
Mặt 1
suốt 1
Tập 1
suy 1
o@@ 1
bào 1
Hai 1
Hy 1
Thánh 1
đăng 1
kiểu 1
50 1
xỉ 1
Khu 1
Yên 1
ánh 1
xanh 1
Cơ 1
2020 0.6474831717577167
đào 1
Th@@ 1
khá 1
Tr@@ 1
lược 1
khối 1
E@@ 0.7615143135780315
Tổ 1
căn 1
Với 1
vợ 1
an@@ 0.7245991979599498
dần 1
lòng 1
đảng 1
tín 1
hãng 1
Việc 1
tia 1
hàm 1
trưng 1
ô 1
xứ 1
Úc 1
al 0.1917094776900203
cuốn 1
kê 1
Viện 1
Lạp 1
Giám 1
bụng 1
Phương 1
đương 1
mực 1
28 1
lượt 1
and 0.014118281686106139
nghi 1
xuyên 1
Quang 1
= 0.7707280984006515
đột 1
thịt 1
họa 1
Phần 1
phê 1
26 0.9811343245547798
Cuộc 1
2002 0.8080501453451274
dữ 1
27 1
mã 1
ar@@ 0.8897999789226058
hủy 1
mạch 1
e@@ 0.8934493472996495
kính 1
Đào 1
thừa 1
Đậu 1
Sân 1
tuy 1
đạn 1
Thời 1
kẻ 1
Chu 1
nạn 1
oc@@ 1
huấn 1
i@@ 1
thoại 1
hỏi 1
vừa 1
sa 0.409439870487355
Lâm 1
khóa 1
hiệp 1
trời 1
Thụy 1
Phong 1
Phú 1
2003 0.8015238616958509
Con 1
el@@ 0.8212061103502936
Vì 1
chúa 1
Định 1
ví 1
os@@ 1
Xuân 1
ngăn 1
đẩy 1
giác 1
I@@ 0.9350991221224404
trừ 1
loạn 1
nổ 1
League 0.7209512951093251
or@@ 0.9442469125823566
0 0.7575963085741553
TCN 1
thật 1
trải 1
ol@@ 1
San 0.6871116926138839
áo 1
chóng 1
lao 1
lính 1
Chí 1
sơ 1
mộ 1
Erebidae 1
Phật 1
1990 0.8686073717286201
hạm 1
vọng 1
diệt 1
ấn 1
điển 1
F@@ 0.5771487475996552
Số 1
thiện 1
cm 1
o 0.31656568636534205
29 1
ic@@ 1
ica 1
40 1
B 0.8551796032186386
et 0.0428663762778238
thao 1
Tham 1
sửa 1
Đội 1
ng@@ 1
bước 1
Trương 1
nhờ 1
lai 1
thú 1
khắp 1
xin 1
Sư 1
thí 1
phù 1
aria 1
phút 1
đem 1
om@@ 1
tách 1
trào 1
Tòa 1
thụ 1
cắt 1
đ@@ 1
! 0.7034058268910773
chẳng 1
Nhưng 1
kh@@ 1
nhiễm 1
Trái 1
hương 1
ac@@ 1
nguy 1
bày 1
quý 1
đỉnh 1
gửi 1
lông 1
Đất 1
chỗ 1
&#124; 1
nghe 1
kháng 1
John 0.4800407727246253
op@@ 1
xâm 1
hiểu 1
cai 1
Huyện 1
d 0.2839845191749382
cầm 1
X@@ 1
C 0.8436095163028349
sắt 1
tu 1
hiểm 1
ngầm 1
tiện 1
tàng 1
Tên 1
đẹp 1
ot@@ 1
Thông 1
vành 1
nâng 1
khắc 1
liền 1
hơi 1
tầm 1
Nhiều 1
osa 1
liệt 1
sớm 1
chỉnh 1
a@@ 1
Ngô 1
en@@ 0.496411241229762
thăm 1
as@@ 1
kênh 1
cường 1
z@@ 0.7509211659162701
thăng 1
chảy 1
tuyệt 1
Hưng 1
tù 1
1998 0.8120725044300663
Tỉnh 1
xúc 1
Kh@@ 1
sáu 1
Đạo 1
oides 1
bão 1
nửa 1
dọc 1
? 1
1945 1
màn 1
tò 1
đọc 1
thôn 1
formula 0.5157262149157036
máu 1
Về 1
mưu 1
Để 1
quảng 1
quán 1
ly 1
Hiện 1
giản 1
er@@ 0.5282172626492997
ex 1
Nếu 1
Ar@@ 0.8894976992773445
rêu 1
tán 1
J@@ 0.6926665210828812
An@@ 0.8065861571592409
vò 1
di@@ 1
ống 1
Z@@ 0.7038242537959528
Vĩnh 1
p@@ 0.7631574460142412
Hồi 1
is@@ 1
chồng 1
Y@@ 1
đe 1
ẩm 1
tan 1
Cách 1
thẳng 1
Ai 1
U@@ 0.8647827457002816
Ngọc 1
1997 0.8317538742253417
dầu 1
Ichneumonidae 1
Đặc 1
ngược 1
phó 1
dạy 1
Phúc 1
săn 1
ti@@ 1
Lương 1
bí 1
truy 1
am@@ 0.9959825284593758
ổn 1
Cục 1
Hạ 1
2021 0.5859680117773819
dọa 1
k@@ 0.8158701887698546
+ 1
Canada 1
York 0.4646477236377513
Phân 1
Tam 1
bậc 1
Al@@ 0.8305382791195667
Áo 1
Thủy 1
thoát 1
video 1
Quan 1
1980 0.8997994186861369
thiệu 1
tặng 1
Karnataka 1
ưu 1
1991 0.8470738021470572
tháp 1
cậu 1
ích 1
bò 1
Lai 1
Paris 0.7012886004715925
thước 1
° 1
id@@ 1
Thống 1
Phạm 1
Hành 1
at 0.053067093736220226
n 0.6502304006012194
đúng 1
bi@@ 1
bom 1
t 0.4969272852682432
gắn 1
xạ 1
Mùa 1
U 1
phiếu 1
Chỉ 1
Hymenoptera 1
​ 1
ha 0.6382905866723443
Loan 1
nghiêm 1
khoản 1
trích 1
Hậu 1
Cá 1
sẵn 1
chó 1
tehsil 1
hút 1
bãi 1
tá 1
sung 1
gi@@ 1
T 1
ap@@ 1
en 0.018811743511835358
1996 0.7585812600290067
Rêu 1
lẫn 1
trại 1
ẩn 1
chặn 1
rơi 1
Tử 1
Y 1
Tự 1
thù 1
siêu 1
đoán 1
cờ 1
Saint 0.5051645732412533
x 1
era 0.4446689137544596
gắng 1
Cập 1
cựu 1
tắc 1
h 0.8693277200846359
tránh 1
lâm 1
at@@ 0.8191549538769778
dây 1
Nghệ 1
khiển 1
lương 1
1995 0.7700857510378871
bác 1
cỏ 1
nắm 1
l 0.2023780199384819
ur@@ 1
thác 1
Mông 1
1975 1
thượng 1
Khánh 1
hấp 1
Hệ 1
Bài 1
ong 1
Bồ 1
lưng 1
World 0.3767301669093658
1992 0.7490071504644868
anus 1
Chương 1
lo 0.38934251261507313
phán 1
hè 1
Cuối 1
60 1
nhớ 1
thánh 1
tắt 1
na 0.719516327581993
ag@@ 0.9341489716551191
họp 1
Phổ 1
Tống 1
quang 1
USD 1
nghỉ 1
vĩ 1
đáp 1
thua 1
Tôn 1
đo 1
Nghị 1
trồng 1
nhánh 1
Đình 1
Trịnh 1
tai 1
lan 1
lẽ 1
sắp 1
ràng 1
Linh 1
ul@@ 1
Đầu 1
quê 1
món 1
.@@ 1
1993 0.7778878291750205
Phòng 1
bánh 1
et@@ 0.9240520029641561
nhật 1
tống 1
atum 1
đuổi 1
khăn 1
Khoa 1
tạm 1
Trận 1
nhẹ 1
đuôi 1
khô 1
cấm 1
Trên 1
vuông 1
Đối 1
bật 1
xương 1
el 0.03204921614167921
lựa 1
ngờ 1
III 1
Học 1
phạt 1
hài 1
1994 0.7173110062618657
quỹ 1
nghề 1
Sinh 1
lo@@ 1
trữ 1
ung 0.7815457005391109
côn 1
nỗ 1
li@@ 1
il@@ 1
bề 1
j@@ 0.8012266287668233
dậy 1
Hóa 1
Tính 1
thuyền 1
Bí 1
pha 1
ngân 1
Mar@@ 0.7164909032797808
phức 1
Phát 1
cặp 1
Thể 1
eri 1
1970 0.8271071236210643
Chúa 1
Tiến 1
chữa 1
Brasil 1
dưỡng 1
sợ 1
mời 1
ya 0.40134378828807793
chối 1
thậm 1
it@@ 0.9554594920668413
chùa 1
giấy 1
ga 1
im@@ 0.7970168916171922
opsis 1
hôm 1
ense 1
as 0.02994319976952553
Hợp 1
ad@@ 0.6866367692452404
đền 1
cảng 1
Cup 0.7219396024413474
Câu 1
Par@@ 1
Nữ 1
us@@ 1
đỡ 1
khủng 1
u@@ 0.9352089755308145
trú 1
hoá 1
Ả 1
qu@@ 1
Triệu 1
tàn 1
Na 1
ngang 1
Chrysomelidae 1
nghĩ 1
vong 1
bạc 1
1960 0.884931219749371
mưa 1
rắn 1
khỏe 1
Cảnh 1
Cùng 1
Lực 1
Điện 1
C. 1
Điển 1
tỉ 1
hoang 1
bé 1
ang 1
gỗ 1
1989 0.7530334139972524
game 0.4682126942717545
X 0.9776643699320015
hùng 1
thiệt 1
vườn 1
mười 1
Vân 1
lui 0.5878124139967739
phường 1
tờ 1
W@@ 0.422758217095002
p 0.8938306256182048
Vua 1
Sở 1
đẳng 1
Thần 1
gió 1
A. 1
Lễ 1
uống 1
giảng 1
k 0.7134267004769405
ei 1
“ 0.10211772412338703
am 0.1465658902222516
gà 1
miễn 1
Kiến 1
b 0.7654572004948823
khán 1
Thân 1
F 1
đua 1
V 0.985292689825638
California 0.8626530350322632
ir@@ 0.902364103657511
rãi 1
trứng 1
đau 1
Di 1
Cũng 1
Thuận 1
Thạch 1
to@@ 1
” 0.3250847517202967
Thiếu 1
dãy 1
Hiến 1
hiến 1
man 0.28480249412195713
Lục 1
Sĩ 1
trăm 1
Kết 1
ura 1
mẽ 1
cân 1
sáp 1
thẩm 1
bá 1
ái 1
Tấn 1
nóng 1
sub@@ 0.9443445931666103
chấm 1
kì 1
Rập 1
mũi 1
dị 1
trốn 1
200 0.9211821402449097
tận 1
tùy 1
cơn 1
1988 0.7518584387252153
Nghĩa 1
80 1
đực 1
Cầu 1
es@@ 0.6060564927161135
Arctiinae 1
tròn 1
onia 1
xu 1
hồng 1
chép 1
võ 1
chị 1
ám 1
Đoàn 1
Thiến 1
Ví 1
Sh@@ 0.9299119876039895
ro@@ 1
e 0.3022412406359767
es 0.06692774867535822
hỏa 1
Đan 1
it 0.07252025764159481
góc 1
Thiết 1
.. 1
Cal@@ 1
ki 1
chinh 1
quyển 1
per@@ 0.9011699299872079
rượu 1
no 0.15351057935379955
Tất 1
c 0.6841186470027079
one 0.10989139873017345
Philippines 1
ru@@ 1
Di@@ 1
le@@ 0.7843455807609782
Như 1
nâu 1
ens 0.7013781726562653
Tương 1
Được 1
lối 1
soạn 1
vỏ 1
ngũ 1
chắc 1
70 1
Là 1
Thường 1
ii 1
ác 1
dày 1
g 0.745597974640829
kia 1
Tiếng 1
dặm 1
ab@@ 0.42526903777182024
Q@@ 1
90 1
ena 1
lưới 1
thỏa 1
bảy 1
em@@ 0.7455761805913875
ec@@ 0.9698411066587466
kém 1
ig@@ 1
hổ 1
Hầu 1
vịnh 1
tường 1
ar 0.31041541733044287
1986 0.7525339529744629
Tần 1
os 0.40604144774002887
ngọt 1
hô 1
or 0.07986435882894288
odes 1
ka 0.8820792239597499
mệnh 1
ida 1
ob@@ 1
vỡ 1
og@@ 1
tụ 1
bạo 1
lỗi 1
nhu 1
web 1
1.@@ 1
Trang 1
tảng 1
Sông 1
ang@@ 1
Sao 1
ak@@ 0.9270777505299719
tấm 1
hiếm 1
Tuyên 1
ném 1
cục 1
Tiền 1
chuồn 1
đức 1
Hữu 1
Kông 1
co@@ 0.6611787719328094
Lào 1
ita 1
trống 1
Sài 1
biện 1
2.@@ 1
1950 0.8005933010527377
Cả 1
đám 1
1987 0.7203943166440041
đồn 1
vẽ 1
can 0.24164527982010697
Gi@@ 1
thuế 1
Luật 1
phe 1
hư 1
Phim 1
un@@ 0.23999906886350877
Huy 1
1985 0.7369284029665584
san 1
đoạt 1
1942 0.9425854807340489
phỏng 1
Đà 1
United 0.21872756409381292
giọng 1
Toàn 1
Hoàn 1
ri@@ 1
Hungary 1
2@@ 1
cháu 1
kg 1
đốt 1
mong 1
lạnh 1
M 0.9177042913728684
hòn 1
nguyện 1
gai 1
rối 1
D 0.7053587657754417
đợt 1
Car@@ 0.8134349720395342
xưa 1
đứa 1
vẻ 1
Vòng 1
Lộc 1
Phan 1
Ngụy 1
Bar@@ 0.7619823392364323
Elateridae 1
mỏ 1
sóc 1
Cung 1
Viên 1
sót 1
Ng@@ 1
1981 0.7678928410183872
Môi 1
tọa 1
Nhóm 1
Tác 1
Sử 1
er 0.052995981489274785
mạc 1
1944 0.7746041576353757
giàu 1
Tào 1
1979 0.7640778161722902
điệu 1
Sa 1
ara 0.9764734997563004
Per@@ 0.8759725612457971
mái 1
1940 0.8605566635817747
45 0.9838151200193691
1984 0.7024696917731176
Ngoại 1
Bạch 1
ine 0.5468578080341393
35 0.9927126838269741
cừu 1
ngừng 1
tám 1
Giao 1
nhảy 1
mắc 1
vợt 1
ni@@ 1
Ne@@ 1
cháy 1
chu 1
vú 1
hà 1
Lạc 1
Quý 1
nhắc 1
đòi 1
khổ 1
Gòn 1
khơi 1
Cát 1
cự 1
ur 1
Indonesia 1
khám 1
dàng 1
1982 0.7299767647174475
C.@@ 1
Grand 0.7277798246424767
George 0.5709464915015879
chuỗi 1
icus 1
dõi 1
Séc 1
ula 1
tri@@ 1
khái 1
khấu 1
chạm 1
Mỗi 1
’ 0.060100262077254815
dia 1
le 0.023466215973533638
Lúc 1
chặt 1
Bá 1
Dự 1
vinh 1
buôn 1
1941 0.7994186416163857
tổn 1
oph@@ 1
va 1
thiểu 1
lỵ 1
1983 0.7143271698212689
chăm 1
Thu 1
Album 1
che 1
cãi 1
voi 1
bèn 1
Và 1
tus 1
Uy 1
1972 0.7182891686905235
1943 0.8487103430080839
ans 0.30712303036979655
sh@@ 0.626205191386762
Tôi 1
Hương 1
thai 1
od@@ 1
thạch 1
O 0.520590492039194
tim 1
Thương 1
William 0.4950316223105607
1978 0.7355625071368107
Israel 1
lôi 1
thảm 1
James 0.5337604137224803
Cho 1
tựa 1
Ngay 1
von 0.03490985640616642
cất 1
ed@@ 0.9209768187140327
ninh 1
si@@ 1
par@@ 0.7880516963814472
cột 1
1930 0.8837820921982842
hứng 1
ê 1
1976 0.7268068716916466
Truyền 1
Cẩm 1
Nh@@ 1
av@@ 0.8578260652237044
— 0.04697777197527136
viễn 1
cướp 1
Cor@@ 0.9324076840606829
tệ 1
dứt 1
bia 1
Bên 1
xưng 1
bối 1
L. 1
cốt 1
po@@ 0.8865160503802885
chắn 1
giam 1
Thư 1
Cúp 1
đón 1
ti 1
chậm 1
Phiên 1
Võ 1
Crambidae 1
z 0.5558731044742936
tri 1
sàng 1
Mô 1
nghèo 1
inus 1
och@@ 1
Du 1
Biển 1
N 0.8691468387611092
ôn 1
dừng 1
mồi 1
Syria 1
ov 1
sẻ 1
3.@@ 1
ép 1
tis 1
des 0.0192214679177845
ngồi 1
úy 1
Bọ 1
kiêm 1
gen 1
1968 0.6935009875817963
thả 1
trúng 1
ak 0.9199838566754461
w@@ 0.5247474215081279
dàn 1
K 0.9351771795667019
kèm 1
Biên 1
Le@@ 0.8132231873848912
Hàng 1
kêu 1
khẳng 1
1946 0.8296290636759038
ona 1
Dưới 1
chở 1
hung 1
lái 1
ấp 1
Trị 1
răng 1
Nhạc 1
Âm 1
Vùng 1
Xuyên 1
Mal@@ 0.8881744842280191
ấm 1
folia 1
cỡ 1
Mục 1
anum 1
-@@ 0.4861272666035075
Tài 1
chín 1
1973 0.6939447353740791
ưa 1
Am@@ 1
triết 1
dư 1
st@@ 0.5036972379253857
khuôn 1
thuê 1
ức 1
cụm 1
huyết 1
non 0.3826394392693894
ach@@ 0.9408992893118668
1954 0.9267111002602352
khuyến 1
sánh 1
32 0.914563687212017
Vinh 1
Charles 0.5162748404696655
đậu 1
tần 1
Luân 1
ngọn 1
eg@@ 0.8218492071392024
thải 1
oma 1
Tiêu 1
Mai 0.6967827412046744
tông 1
Bằng 1
đồi 1
R 0.651570686692868
Ngân 1
Trichoptera 1
1974 0.6609704392323098
500 0.8007469614049059
cam 1
1965 0.7491185173600023
Duy 1
Limoniidae 1
Trời 1
Or@@ 0.8353524948243143
mảnh 1
á 1
As@@ 0.9940592584537223
FC 0.6911021173199217
4@@ 0.9067268967829755
Quyết 1
ep@@ 1
Phước 1
Henry 0.7526478859937227
City 0.2961181960026495
Windows 1
eta 1
hỗn 1
eo 1
de@@ 0.5216424021321642
km2 1
Ireland 1
un 0.024253445739209286
L 0.4581802100022866
Ca 1
Al 0.5852502418125863
Kể 1
chứ 1
lỗ 1
Campuchia 1
Qu@@ 0.9621291842262003
… 0.7956646796496798
tiêm 1
Chân 1
Thọ 1
quen 1
r 0.7927810465356767
gấp 1
Tứ 1
đệ 1
1977 0.6758180358918262
Malaysia 1
Ma 1
Mạc 1
1967 0.6974388535888495
tô 1
West 0.3837717485904263
Mạch 1
vở 1
tân 1
chìm 1
H.@@ 1
miệng 1
300 1
ides 1
sữa 1
Phụ 1
Dù 1
ala 1
David 0.4968631579905889
vui 1
1964 0.7053992490508197
vết 1
Đảo 1
Huế 1
Quyền 1
ổ 1
S.@@ 1
dã 1
son 0.06823731706202282
um@@ 0.5780031575410006
cản 1
phu 1
Robert 0.4921624618178571
ranh 1
tu@@ 1
1963 0.7536515967948001
ho@@ 1
Đinh 1
In@@ 0.5188332185385645
Hình 1
S 0.7110467331805854
Washington 0.6285759905238671
át 1
65 0.8919795790765505
lọt 1
ano 0.7112050583805095
dinh 1
ola 1
Tachinidae 1
vạn 1
Động 1
Ukraina 1
1939 0.6887728855032975
ao 1
eus 1
khích 1
Singapore 1
phúc 1
lang 1
H 1
anthus 1
chấn 1
48 1
Tàu 1
tam 1
car@@ 0.7809870400566299
hi@@ 1
Mexico 1
ora 1
may 0.25697672812608396
Paul 0.4333466658915453
IV 1
Tình 1
trạm 1
Hạm 1
vững 1
Vị 1
Pennsylvania 1
sch@@ 0.5183464627411658
Kế 1
and@@ 0.89799271804986
re@@ 0.15068198722284123
Mon@@ 0.7745291554192595
Thứ 1
Mor@@ 0.7971636410329609
Dung 1
Trọng 1
Cha 1
Đôn 1
Đó 1
1971 0.6092625768893418
é 0.25115762884227527
ngư 1
ngại 1
cương 1
ngợi 1
hẹp 1
J.@@ 1
kỵ 1
đẻ 1
ota 1
Đa 1
Cái 1
1920 0.7148692648390456
Sch@@ 0.4622981413282852
lũng 1
A.@@ 1
1969 0.6387650811125127
hoảng 1
ost@@ 1
1962 0.7140996841560427
Thực 1
thang 1
đầm 1
no@@ 1
lợn 1
ơ 1
ov@@ 1
ven 1
cú 1
Nghiên 1
trầm 1
Col@@ 1
f@@ 0.3337071536639538
mo@@ 0.8873580894997001
3@@ 0.9444164056224983
1956 0.7297917948189705
màng 1
canh 1
Liêu 1
thách 1
Illinois 1
Trưởng 1
cát 1
li 1
kỉ 1
Chiêu 1
E 0.6416818053412605
Louis 0.5651479206421935
ing 0.12139900334894044
khuẩn 1
Lăng 1
Lee 1
H. 1
cán 1
El@@ 0.6829744781100747
Quy 1
ồng 1
1955 0.7963104358646246
ghế 1
uy 1
Diễn 1
aea 1
1966 0.6603198667790717
lẻ 1
pes 1
út 1
bo@@ 0.7619299377882216
Bỉ 1
Mi@@ 1
P 0.8854528605115131
ay 0.7317157129472284
thuần 1
kho 1
En@@ 0.7590839113671262
than 0.18063922018528122
ngàn 1
mạn 1
ops 1
thép 1
Vụ 1
Ho@@ 1
men 0.30381762645019883
não 1
Song 1
khổng 1
tha 1
Hy@@ 1
Khoảng 1
sụp 1
Nông 1
Hùng 1
chụp 1
lỏng 1
so@@ 1
Tề 1
Bảng 1
ảo 1
ci@@ 1
alb@@ 1
Lãnh 1
xuân 1
thầy 1
br 0.6274928953445685
dải 1
lồ 1
Đệ 1
trương 1
duyệt 1
ả 1
Bo@@ 0.7721795995177111
nhấn 1
ol 0.9757569095256933
S. 1
xấu 1
Tuấn 1
London 0.35613138073798184
su@@ 1
già 1
Cer@@ 1
ah 0.8390755110602134
hiển 1
chợ 1
co 0.44074324852690583
Texas 0.7428595851706508
hy 1
bụi 1
ô@@ 1
Điền 1
ấu 1
muối 1
ania 1
Se@@ 0.6311924564649395
Har@@ 0.7890222715900231
Li@@ 1
1958 0.6956702149705154
dường 1
Man@@ 0.716094860068221
mọc 1
ne@@ 0.9233447180261987
1947 0.7245508274767225
1936 0.753177319540491
L.@@ 1
Cần 1
5@@ 0.7750086681118546
khung 1
ium 1
ik@@ 0.7377845263541948
cà 1
xám 1
Con@@ 0.5491423427869782
Khang 1
ate 0.23799914495124613
Chi@@ 1
Maria 0.8263428811204933
Zealand 0.9765372896815558
dao 1
ber@@ 0.8268295692510522
gián 1
ati@@ 1
sạch 1
J. 0.7825803992180144
hoan 1
Hiếu 1
phú 1
Iran 1
38 1
Mas@@ 1
anime 1
van 0.8661183606373843
nhạt 1
te@@ 0.7432312715825317
ut@@ 0.9396336853135749
ter@@ 0.5372304989253064
Entertainment 1
thoái 1
Bur@@ 1
ani 0.8852526718454773
flav@@ 1
mon@@ 0.6960456459515763
yc@@ 1
G 0.6607278819006558
hộp 1
nòng 1
nương 1
Tokyo 1
M. 0.9639884336619287
Vườn 1
Tĩnh 1
niềm 1
pop 1
br@@ 0.5866193423226626
f 0.7055944412142033
lạ 1
đập 1
× 1
chuột 1
ua 1
sợi 1
thám 1
chi@@ 1
Nhất 1
34 0.9804332673602655
1961 0.665772178729335
Michael 0.5083986641365084
1949 0.6871321792392382
1959 0.6877484120553851
chăn 1
oxy 1
52 1
lọc 1
nét 1
thọ 1
tiềm 1
ō 1
33 0.9062388200464245
Thomas 0.44260477369797957
tứ 1
au@@ 0.8276066634395708
mê 1
Iowa 1
36 0.9203486705652402
yr@@ 1
tháo 1
Argentina 1
Dakota 1
Bệnh 1
viêm 1
ngực 1
Xương 1
az@@ 0.9464764926686331
tung 1
Nghi 1
ngủ 1
sưu 1
TV 0.4561408724039561
Vệ 1
lia 1
nghìn 1
Ohio 1
hào 1
hang 1
xoay 1
75 1
Thiệu 1
si 0.4257918095918138
Br@@ 0.6511646404511524
$ 0.22657891098928654
4.@@ 1
Huệ 1
Giống 1
pr@@ 0.7454390542763191
lu@@ 1
sơn 1
top 0.41269796366636563
Dịch 1
bột 1
Giai 1
v 0.9212341326565047
Co@@ 0.7386866539436644
Hoài 1
Billboard 1
su 0.05909766619570586
CP 1
01 1
ath@@ 1
Bal@@ 0.7707946270708228
eb@@ 0.6546848679014358
chờ 1
ino 0.7131984368875742
ic 0.5166537415166392
1957 0.6871231952310805
Ngôi 1
mi@@ 1
Bor@@ 1
Quần 1
yl@@ 1
đàm 1
Quản 1
1953 0.7260894849388447
México 1
osus 1
UEFA 1
You 0.7321152382487868
bọc 1
ba@@ 1
cal@@ 1
lắp 1
7@@ 0.8569941638888386
P. 1
ch 0.5332336871292108
con@@ 0.50965482262307
Tiếp 1
47 1
Đỗ 1
Scotland 1
cưới 1
dược 1
khôi 1
trần 1
0,@@ 1
M.@@ 1
hâm 1
Sách 1
yên 1
bấy 1
ari@@ 1
virus 1
protein 1
55 1
lăng 1
1938 0.643963820969488
hạnh 1
ri 1
trông 1
mèo 1
E. 1
dâng 1
thợ 1
điệp 1
Mac@@ 0.9615404633609278
mát 1
Huyền 1
64 0.8670346701427292
ini 0.7190496156875065
Viễn 1
1948 0.6043044303897004
ene 0.7075702436502573
Đơn 1
Môn 1
1937 0.7081890870198799
St@@ 0.4584033037474978
Thuật 1
bè 1
Tô 1
ist@@ 1
ten@@ 0.678122534123587
thiệp 1
hoà 1
mai 1
mãn 1
Ber@@ 0.6752341100145621
Chiếc 1
Pseud@@ 1
hắn 1
se@@ 0.5011633666112105
Cuba 1
bạch 1
chút 1
trộn 1
giận 1
Mẹ 1
Park 0.3541380396894161
1951 0.7319177687789982
Kar@@ 0.7713883141791373
der 0.00889867996189428
Huấn 1
xưởng 1
au 0.04523318787923867
ion 1
bọn 1
đáy 1
oni 1
ruột 1
Tướng 1
ys 1
ad 0.560996899491972
ada 0.2703061063287308
dáng 1
Video 1
Cửu 1
khen 1
thận 1
long 0.24570827121293043
nô 1
hồn 1
ay@@ 0.8904229302269494
hầm 1
France 0.18892398156033746
Đặng 1
Nguồn 1
mươi 1
South 0.21368502697561886
ema 1
mar@@ 0.7880386284933119
Còn 1
Lợi 1
lân 1
ếch 1
nhượng 1
mac@@ 1
Khắc 1
for 0.014093991813441587
Phục 1
37 0.9864960232131393
1952 0.6491223518771349
tóc 1
Kỹ 1
cor@@ 0.7223466034933076
Chung 1
Báo 1
khoáng 1
Phủ 1
Cảng 1
400 0.802424827425857
óc 1
pal@@ 1
bùng 1
mơ 1
Latinh 1
nhuận 1
đốm 1
khuyên 1
Thừa 1
lô 1
Music 0.4705148858587622
ref 1
1934 0.7401761711323047
1929 0.7494038384539607
Ser@@ 0.9998171708142222
hưu 1
dịp 1
Nước 1
ngập 1
phẳng 1
ni 0.5107038976102659
ngự 1
1935 0.7223782989237506
Chánh 1
đợi 1
6@@ 0.7756278130433795
bar@@ 0.681046812552749
Bel@@ 0.7806138758524617
nhị 1
Tâm 1
De@@ 0.5159118403051555
44 0.8894772876104098
ải 1
Phù 1
Cây 1
Richard 0.5275817271008428
chư 1
Ag@@ 1
kín 1
lồng 1
Internet 1
Tri@@ 1
do@@ 1
51 1
ie 0.323573573895671
bi 1
hề 1
8@@ 0.7917272553647863
ser@@ 0.9286015342908004
lãm 1
Máy 1
lưỡng 1
Er@@ 0.5276502552737712
tĩnh 1
Ngũ 1
ko 0.8480179949894796
lật 1
chàng 1
thẻ 1
căng 1
Berlin 0.38678638381397407
ton 0.4179108906177411
ari 0.9632365341683178
ỉ 1
Martin 0.5357267132979785
phẫu 1
tic@@ 1
42 0.9602883588913338
Quá 1
Mer@@ 0.8869888336596357
ah@@ 0.8578437976663922
Lao 1
Mel@@ 1
Hơn 1
Ô 1
ạt 1
tuyết 1
Bang 1
Giới 1
rã 1
Huân 1
chôn 1
del 0.027363799812003143
ou@@ 0.6383905389639591
man@@ 0.634114846505156
ama 0.9919512706665852
49 1
Thắng 1
Tường 1
mi 1
xong 1
Asilidae 1
giây 1
ing@@ 0.6547146643315334
đèn 1
Ni@@ 1
1931 0.7794578631376202
Mộc 1
by 0.015404156660997429
ne 0.139953786562486
lan@@ 1
mượn 1
Tipula 1
Wales 0.8885080277907305
Manchester 1
1914 0.7099300838004224
Cy@@ 1
opus 1
46 1
ghép 1
1918 0.59242285913544
Su@@ 0.9409217138572262
oth@@ 1
1900 0.8262624824958218
Ro@@ 0.7163340356493828
lúa 1
Lập 1
nề 1
Ly 1
Sar@@ 1
la@@ 1
rau 1
thịnh 1
col@@ 1
yi 1
Hàm 1
sạn 1
Minnesota 1
du@@ 1
Is@@ 1
tươi 1
9@@ 0.7897669972238252
Phái 1
Edward 0.7977232309589863
Lo@@ 0.9161835707222936
lằn 1
ell 0.5325695076169853
Tạng 1
nạp 1
00 0.871738476085173
vi@@ 0.7498638228765501
El 0.06791312402856575
1912 0.7825443957734306
Kansas 1
nỗi 1
R.@@ 1
Cải 1
aur@@ 1
cổng 1
dâm 1
Los 0.1727846801938922
oi 1
Hi 1
bút 1
5.@@ 1
gỡ 1
One 0.3247536581698583
Ti@@ 1
nấm 1
dò 1
huyền 1
Siêu 1
Ấu 1
vé 1
Love 0.7690337091448594
ley 0.38329147504834193
Trà 1
Trăng 1
rock 0.524169459477905
1891 1
Gr@@ 0.6008145213531029
ngã 1
lặp 1
Kitô 1
sườn 1
nấu 1
mỹ 1
Thập 1
tuân 1
Pro@@ 0.8051439015612906
kịp 1
Pol@@ 0.8941592538519745
Sản 1
Me@@ 0.7605295865509158
ào 1
Jean 0.30353284131932773
điền 1
tica 1
Bùi 1
Pr@@ 0.7357626027295873
lò 1
39 0.9824268213655964
Diên 1
axit 1
nhãn 1
ek 0.8263799293960938
nhịp 1
ết 1
ngưỡng 1
sc@@ 1
Dòng 1
khứ 1
à 0.014760393967295764
ét 1
Lượng 1
1933 0.5848214225204167
mấy 1
Bị 1
1922 0.7398145341669199
Thạnh 1
1917 0.6814409712672291
gợi 1
Hạt 1
Neuroptera 1
Ex@@ 0.7069738190533632
lam 1
Lữ 1
vang 1
43 1
Pal@@ 1
W.@@ 1
mat@@ 1
ớt 1
pe@@ 0.9127957350104188
1913 0.8301453758722349
ira 1
ex@@ 0.4953169480259925
lệch 1
Moskva 1
sàn 1
thung 1
go@@ 1
Friedrich 0.7219673105617965
ek@@ 0.7096305701353736
P.@@ 1
ulata 1
treo 1
Tháp 1
Mo@@ 0.7214011993444656
41 0.9891959205862552
B. 0.500641188427844
ong@@ 1
Bi@@ 0.7249486718056228
1932 0.6890039187990176
D. 0.9865113521434167
1924 0.7006932299894157
ys@@ 1
thi@@ 1
ax 1
Joseph 0.4505452817898219
Ver@@ 0.27953295967573527
bê 1
ò 1
nàng 1
1925 0.7274090547577365
sky 1
Iraq 1
Vô 1
1,@@ 0.9495494052276024
yn@@ 1
Scarabaeidae 1
củng 1
dium 1
ey 0.6109185944975298
lành 1
1908 0.8911434523832846
ê@@ 1
Đăng 1
sur 0.05710761613577838
thuẫn 1
đáo 1
icum 1
ki@@ 1
Kỷ 1
inch 1
lầm 1
Tar@@ 1
mây 1
53 1
Tuần 1
áng 1
aya 1
bồi 1
ốt 1
bền 1
Smith 0.5606516511636185
nêu 1
Bất 1
bơi 1
dời 1
thằn 1
Mu@@ 1
Sal@@ 0.711427460937165
dỡ 1
ale 0.3621402796090786
Jackson 1
1919 0.5926006012623296
ahalli 1
đậm 1
đựng 1
Trinh 1
usa 1
Tùng 1
nhầm 1
im 0.0276356365339429
Cực 1
ù 1
1910 0.7528640613903458
1916 0.8557488495454737
Te@@ 0.7830766647794173
Le 0.053417472853646945
Pakistan 1
Phường 1
elia 1
1905 0.8453612878320603
điêu 1
1911 0.8410715632783433
cong 1
escens 1
êu 1
gan 1
I. 0.7271143095039174
Mao 1
54 1
Thơ 1
St. 0.281478210363106
lắng 1
G.@@ 1
Cà 1
hi 1
Colombia 1
tang 1
Quả 1
ăng 1
10@@ 0.8678521069593944
manga 1
Brazil 1
Top 0.8654240707547751
Phía 1
Bayern 1
Hoạt 1
xứng 1
Po@@ 0.7493376398717987
Loire 1
aw@@ 0.75021079769507
í 1
Peter 0.383210494061799
suối 1
Ger@@ 0.8183884603602772
cu@@ 0.8306246617431086
Vịnh 1
Ma@@ 0.6385720305396589
quát 1
Kính 1
Alpes 1
Tor@@ 0.8032716112404324
ami 1
Hiệu 1
72 1
Ge@@ 0.6350898615400308
USS 1
lãng 1
yp@@ 1
mãi 1
D.@@ 1
2,@@ 1
flora 1
150 0.889321649846448
uc@@ 1
Tu 1
w 0.7074953914369512
King 0.34430465943881744
mì 1
xóa 1
Đôi 1
Vạn 1
nở 1
hỏng 1
hu@@ 1
05 1
ạn 1
1927 0.6817689640599583
ất 1
ich@@ 0.961139577108192
Tế 1
Ko@@ 0.8505743483690986
T.@@ 1
gu@@ 0.744220439869408
àn 1
Trich@@ 1
Cr@@ 0.8655882274768576
sổ 1
Afghanistan 1
Pi@@ 0.9529975069333317
Thiện 1
1923 0.7012210630694055
ae@@ 1
soái 1
ng 1
Sten@@ 1
đúc 1
phế 1
Mat@@ 0.8500355713673534
Müll 1
chẽ 1
06 1
Missouri 1
tật 1
2022 0.5371905789385886
can@@ 0.8979661373186312
cạn 1
Lam 1
tii 1
ệt 1
Giá 1
Cương 1
Bối 1
me 0.35143436553946084
Me 0.873779639207931
xóm 1
âu 1
1906 0.8846490298812456
ell@@ 0.7806922046996351
gói 1
Man 0.5824686307088693
Ac@@ 0.8778857025517339
leo 1
ou 0.0931967159123078
1928 0.6039839377153873
bu@@ 0.9865067006739446
So@@ 0.9254853633340564
buồn 1
urus 1
son@@ 1
Micro@@ 1
F. 1
Her@@ 0.5904018351177991
táng 1
phun 1
mảng 1
orum 1
Ki@@ 1
ima 1
iz@@ 0.8766492760099867
ồn 1
ke 0.4665476737615924
ere 0.7415948024511774
Baker 1
Venezuela 1
ran@@ 0.9867335285367006
Australia 0.32792412148451777
Bulbophyllum 1
cer@@ 1
Hướng 1
nhắm 1
ly@@ 1
6.@@ 1
02 1
sừng 1
dẹp 1
hoãn 1
andra 1
Tinh 1
quái 1
Tin 1
eria 1
Mc@@ 0.5063343391781305
Nẵng 1
ifolia 1
DNA 1
formis 1
Cói 1
Mật 1
Chấp 1
mừng 1
hứa 1
Olympic 1
chuông 1
Ân 1
Tú 1
Bố 1
ja 0.6217794184695354
ế 1
trinh 1
De 0.20659977916164862
giỏi 1
nhựa 1
Nho 1
Super 0.7246430636908455
chào 1
cống 1
za 0.6636928979347196
il 0.04160929229815229
ox@@ 1
ji 1
osum 1
Hol@@ 0.8018881786843514
nợ 1
Mở 1
Simon 1
oh@@ 1
tor@@ 0.7184114763179921
cr@@ 0.638489536871825
khía 1
Microsoft 1
túi 1
Thiền 1
Mary 0.5203362322417984
tan@@ 1
nhì 1
ft 1
E.@@ 1
ân 1
56 1
đỗ 1
đói 1
My 0.783189818231772
Đỏ 1
com@@ 0.6937945469899292
hạc 1
Lệ 1
Mãn 1
bữa 1
Guinea 1
Str@@ 0.5909826321510336
Angeles 0.5372387558823675
Re@@ 0.32345528974405674
quét 1
id 0.6554050406217042
aki 1
Thục 1
Apidae 1
Ak@@ 1
Điểm 1
Sáng 1
Ly@@ 1
atr@@ 1
ant@@ 0.7868539009470459
đâu 1
58 1
1926 0.6269806561085182
Lỗ 1
bốc 1
acid 1
thô 1
ơn 1
Salticidae 1
phấn 1
pi@@ 0.6820117548183697
mùi 1
Kur@@ 0.803622493824006
lừa 1
Est 1
gạo 1
Thất 1
ài 1
1909 0.8515981666326745
Trân 1
ro 1
F.@@ 1
1921 0.6332734115185776
Chiều 1
aj@@ 0.962529342557822
Hot 1
Tak@@ 1
Tín 1
trâu 1
land 0.1937333577069861
mỏng 1
ầy 1
thỉnh 1
Santa 0.4458829864394704
Thịnh 1
04 1
aph@@ 1
1895 1
85 1
ền 1
07 1
bây 1
anensis 1
Khai 1
Quỳnh 1
è 1
Sp@@ 0.6296077304899349
09 1
sọc 1
Cấp 1
ặc 1
súc 1
Cụm 1
har@@ 0.8157826142668694
0@@ 0.8406357408329714
hằng 1
Can@@ 0.8764617909303982
T. 1
sốt 1
Chile 0.8468282186432127
cúp 1
Seoul 1
Francisco 0.47857777424804243
ym@@ 1
der@@ 0.5294430896219994
La@@ 0.8710932362286277
Qua 1
1915 0.722659965306111
Hitler 1
Florida 0.6280410981794969
Eu@@ 1
57 1
ator 0.518265048949408
thôi 1
nhọn 1
03 1
all@@ 0.7945677092914621
Cam 1
ius 1
Be@@ 0.3878275993205018
m. 1
be@@ 0.30021167258219106
ev@@ 0.630147379476926
hẹn 1
pa 1
tốn 1
Thi@@ 1
kiên 1
ila 1
Khí 1
đòn 1
Division 0.28405568622966887
Nguyệt 1
rạp 1
Thay 1
lin@@ 1
tỏa 1
Serbia 1
Si@@ 1
Lư 1
chục 1
Trạch 1
phiến 1
rạn 1
Tối 1
tràn 1
08 1
dội 1
Du@@ 0.8766543797590833
Kan@@ 0.9981761106951037
enia 1
95 0.9760052719975466
lõi 1
nồng 1
ật 1
Quỹ 1
600 0.9536012633763641
San@@ 0.8540867980563356
Loại 1
Ottoman 1
bông 1
j 0.7732408317885926
Mười 1
Virginia 0.5623163399834661
ellus 1
Ur@@ 0.7913331852293727
nia 1
Football 0.45096543347548196
illa 0.9761429542446978
ói 1
òng 1
R. 0.829857780380533
vịt 1
Champions 1
hẳn 1
Bạc 1
Mark 0.5770177251559101
Dr@@ 0.8952845022738417
phổi 1
hy@@ 1
lão 1
ruộng 1
Xuất 1
dốc 1
inae 1
ane 0.5672283834965988
Thi 1
ent@@ 0.2932998860710924
mìn 1
xích 1
Sải 1
Mẫu 1
túc 1
Nhờ 1
20@@ 1
trượt 1
ros@@ 1
mu@@ 1
duệ 1
luân 1
Roma 1
mòn 1
ra@@ 1
Google 1
gọn 1
khẩn 1
mạo 1
Ab@@ 0.28329411131753873
nút 1
om 0.9633174782814297
Dũng 1
Khmer 1
7.@@ 1
liều 1
me@@ 0.7807035716304105
Đời 1
Hir@@ 1
ev 1
alia 1
nig@@ 1
odon 1
Lang 1
Lâu 1
str@@ 0.5175822905764744
ok@@ 0.7797573783770787
sii 1
ên 1
Bulgaria 1
Thăng 1
xướng 1
FIFA 1
for@@ 0.4423978692386743
tar@@ 0.9742243173193184
alli 1
esia 1
Armenia 1
Vi 1
Kiều 1
Astragalus 1
ắt 1
Diego 1
Disney 1
Fr@@ 0.7112682843757238
România 1
Sang 1
Hawaii 1
Kiểm 1
are 0.027254924804572332
Căn 1
huống 1
1@@ 1
ib@@ 0.9189165902261933
Ad@@ 0.5949240954349956
tho@@ 1
800 0.9386072320281487
Heter@@ 1
Đĩa 1
Lu@@ 1
xi@@ 1
đứt 1
Khải 1
Pter@@ 1
àm 1
ax@@ 1
ối 1
Karl 0.5761082476212933
cối 1
dis@@ 0.21085757091313365
rồng 1
# 0.45906497339636365
vời 1
Gu@@ 0.5752881864052113
Oscar 1
Ter@@ 0.9771525462714769
mờ 1
poly@@ 1
Don 0.6718894004746726
hưng 1
lạm 1
Mạng 1
Trò 1
mal@@ 0.64298823437744
béo 1
1903 0.8440761861187737
Binh 1
ạc 1
COVID 1
Tăng 1
ili@@ 1
bội 1
Vi@@ 0.8082135371647626
ăm 1
ách 1
oa 1
Hổ 1
Cử 1
Tùy 1
dắt 1
Viết 1
long@@ 1
North 0.1790649227013971
duyên 1
folium 1
te 0.13615556415467941
Alexander 0.5596709252055986
Ruồi 1
1904 0.7866691442785114
móng 1
Sel@@ 1
Khởi 1
cậy 1
radar 1
Plat@@ 1
Núi 1
Dryopteridaceae 1
quỳ 1
gr@@ 0.49441143743577654
Black 0.42876590239013
ud@@ 1
eh@@ 0.6195478561904765
làn 1
sus 0.11414654587147083
ok 1
lũy 1
Wisconsin 1
Kiên 1
Met@@ 1
lũ 1
Des@@ 0.6906728604789878
nộp 1
Cu@@ 1
63 1
ill@@ 0.6825642582073876
Bến 1
Gmina 1
Van 0.7558529027340627
1907 0.737694999604641
khuyết 1
Phố 1
Khê 1
hoại 1
Nintendo 1
vải 1
ela 0.9616873536566275
ạ 1
62 1
chuyền 1
ủ 1
VI 1
Lần 1
dê 1
ắc 1
gương 1
Victoria 0.7048494122050595
Not@@ 1
tản 1
Ứng 1
1898 0.9064581452726994
ler 0.2533333446194162
Vàng 1
Trình 1
Chế 1
Polypodiaceae 1
mốc 1
Làng 1
Tỷ 1
hãm 1
yst@@ 1
ngẫu 1
Thẩm 1
sp@@ 0.41952151553941924
af@@ 0.43193857024155674
berg 0.3707569580990166
Doanh 1
Hem@@ 1
G. 0.97686870166042
tím 1
Hu@@ 0.9026908069174374
Peru 1
ma@@ 0.7647353874484968
ot 0.5099858935477545
Harry 0.9701141147587861
International 0.19362070211154903
mâu 1
1000 0.7438048572393988
Tuyến 1
anth@@ 1
ase 0.6548295486798592
iana 1
1.000 1
uta 1
giấu 1
1897 0.9232740867328395
b. 1
dính 1
Nigeria 1
tiệc 1
q 0.9266241408066842
It 0.03798278907169872
K. 1
ter 0.22776781416186342
ali@@ 1
W. 0.736253103926049
59,5 1
1899 0.905054679898746
1902 0.8112674312948297
múa 1
nhiếp 1
At@@ 0.7926449234725713
rô 1
Madrid 0.565525275314252
120 0.9577608317050887
Min@@ 0.7491109671294983
Serie 0.7426322207003999
đà 1
min@@ 0.7882435518560933
Elizabeth 0.815949918588875
Kho@@ 1
cúng 1
Ros@@ 0.6714238752077046
Aquitaine 1
Linyphiidae 1
trừng 1
Trí 1
ngai 1
Trấn 1
túy 1
Val@@ 0.6598919569207756
12@@ 1
ner 0.30128810658711647
ừng 1
eum 1
ngón 1
yl 1
nghịch 1
lưỡi 1
Quách 1
Tả 1
Bách 1
iv@@ 0.8671345629333385
Mạnh 1
tê 1
CD 0.578558394029097
vay 1
Hor@@ 0.7619827953523565
mer@@ 0.5620199783858668
Ecuador 1
Phùng 1
bến 1
Bảy 1
kiệt 1
Xa 1
mù 1
Premier 0.6743653235914241
Đồ 1
61 1
66 0.9554187894412767
Chùa 1
ầm 1
off 0.17410998128605046
Air 0.3226470779659046
Por@@ 0.858639754609494
1896 0.8986495180429682
Tháo 1
ville 0.16896948913904752
Go@@ 0.7201749702575163
ôm 1
Quán 1
ard 0.4112878109917061
Tour 0.38437195147794423
ow@@ 0.8525517306625517
Hoằng 1
mầm 1
Bát 1
úp 1
tùng 1
se 0.016656160714071572
ướt 1
76 1
Cas@@ 0.7830046234214695
mỡ 1
dr@@ 0.5949842721755366
guitar 1
đâm 1
Bão 1
khỉ 1
Carl 0.7377226592698393
* 0.14656242307500345
Hung 1
icola 1
ophyllum 1
Giả 1
eri@@ 1
kĩ 1
den 0.01713024272342155
tơ 1
Milan 1
phy@@ 1
ta@@ 1
ulus 1
Nói 1
Sam@@ 0.8016350415317113
ge@@ 0.27159030122727745
Tai 1
chiêu 1
Lincoln 1
Chất 1
K.@@ 1
Hỏa 1
bor@@ 0.8984887808683196
Chelsea 1
ver@@ 0.15420008455825543
Cap@@ 0.9277117656766224
Kor@@ 0.7017998193058119
1901 0.7809644997190606
Chợ 1
lầy 1
hối 1
Bởi 1
Tur@@ 0.8168492775463482
ful@@ 1
pl@@ 0.5362951243303545
Tưởng 1
ngừa 1
ed 0.07820160898342324
acea 1
Poly@@ 1
B.@@ 1
Bốn 1
rào 1
Hal@@ 0.8444006387528212
Records 0.36436639642041996
lây 1
DC 0.9392363155577765
68 0.9980842809489764
~ 1
viếng 1
59 0.9926147050005489
Ta@@ 1
bur@@ 0.9468434130584096
Vận 1
Ga 1
Os@@ 1
Đạt 1
Johnson 0.635429617609557
uli@@ 1
ech@@ 0.8509915626494887
fer@@ 0.5975390182014253
Đốc 1
Mộ 1
Xem 1
lườn 1
nhậm 1
chốt 1
ẻ 1
Red 0.40904064993586686
io 0.5909049757329192
In 0.014531746297362437
olo@@ 1
und@@ 0.8361801981831529
nghiêng 1
nhạy 1
thở 1
Bán 1
dũng 1
ngộ 1
êm 1
Diệp 1
Onthophagus 1
hảo 1
chừng 1
8.@@ 1
1894 0.9696021044498261
3,@@ 1
Kal@@ 0.6287615594774726
Kr@@ 0.6044235829319243
Chlor@@ 1
Biểu 1
trật 1
77 1
đạp 1
Arkansas 1
od 1
Vật 1
micro@@ 1
To@@ 0.7834871866905725
ann@@ 0.9548143811866554
with 0.009928520407447305
aris 1
Com@@ 0.47149722720382226
trăng 1
bù 1
òi 1
67 0.9970813294649822
miếu 1
DVD 0.794038421135197
re 0.21654533291568026
rễ 1
Gor@@ 0.9160281155231074
Town 0.6148244627320401
bớt 1
Stalin 1
cus 1
xá 1
88 1
đắc 1
Cl@@ 0.9374217655644326
ite 0.34144958132498804
otus 1
tấu 1
DC. 1
men@@ 0.6350259121383391
nhi 1
rác 1
amp@@ 1
cuồng 1
Mur@@ 0.7996746819619126
ì 1
dii 1
tị 1
Đề 1
Michigan 0.6929696416024609
Italia 1
Occitanie 1
Ba@@ 0.926916491671793
cho@@ 1
sói 1
Mah@@ 0.85719500991325
khớp 1
Chuẩn 1
ers 0.1115007114274811
Tuổi 1
9.@@ 1
Frank 0.5748369069460209
Lạt 1
So 0.43817436750361477
Hạng 1
sen 0.49251889894602024
don@@ 1
Kam@@ 1
fus@@ 1
Liverpool 1
Game 0.7917857303205118
trich@@ 1
ve 0.06456148493757394
thỏ 1
Rhône 1
69 1
Đánh 1
SS 0.7843926189916736
gốm 1
Khối 1
oni@@ 1
Nobel 1
phyllum 1
sút 1
triệt 1
Độc 1
Del@@ 0.650683528633828
mor@@ 0.5706623580162954
móc 1
Dor@@ 0.841589475849894
ếm 1
Euphorbia 1
cin@@ 1
rửa 1
tum 1
Túc 1
Tiết 1
Tri 1
arg@@ 1
tảo 1
bát 1
of@@ 0.7477455259181554
eni 1
Huỳnh 1
gạch 1
Cấu 1
mặn 1
đắp 1
đeo 1
hôi 1
ori 1
250 0.8261962252461006
Mậu 1
Taylor 0.7983868825024759
trà 1
ọc 1
lis 1
mũ 1
1,5 1
15@@ 1
mel@@ 0.8756237989283019
name 0.10622819776491829
Bác 1
Ka@@ 1
YouTube 1
Croatia 1
Mad@@ 0.8393189682749949
Sol@@ 0.6405289491855987
gen@@ 0.483754151498515
Ste@@ 0.7861680450103872
Z 0.7159705960578342
Đền 1
yg@@ 1
Tom@@ 1
Cỏ 1
Pan@@ 0.7990520555906904
dạ 1
pan@@ 0.9155228794927994
gấu 1
osia 1
vạch 1
FA 1
optera 1
phus 1
ali 0.874056454118051
Sa@@ 0.7913315880466895
ā@@ 0.7301538690952328
Giữa 1
ago 0.9115106460336417
yo@@ 1
Meg@@ 1
ani@@ 1
Mường 1
ug@@ 1
khói 1
yan@@ 1
Nouvelle 1
Ru@@ 0.8652919391770449
Năng 1
1889 0.895186436069591
Gần 1
cài 1
Phản 1
82 1
1890 0.761110856048455
Sin@@ 1
cóc 1
xen 1
bàng 1
Eri@@ 1
amb@@ 0.9333874015094538
àng 1
13@@ 1
Lĩnh 1
thơm 1
Men@@ 0.7988242699099267
Đen 1
73 1
Columbia 0.6158141480375935
ip@@ 1
lùi 1
Myr@@ 1
pennis 1
Times 0.4953344861962138
ản 1
99 0.9203047426678322
rẽ 1
Bàn 1
ova 1
Real 0.6269976934551708
đãi 1
giáng 1
74 0.9684240685128265
gh@@ 1
Bu@@ 0.9342988227736218
her@@ 0.4734255386891275
ú 1
ichi 1
71 0.9619147963541083
ophora 1
American 0.07447003995793065
Gar@@ 0.6387094618305247
quỷ 1
unc@@ 1
J 0.6462252949274734
No@@ 0.8676702797341331
Jack 0.5761632508868826
sel@@ 0.608052159070391
Mus@@ 0.7352384916011679
Slovakia 1
omyia 1
oz@@ 1
vượng 1
ł@@ 1
eng 1
thùy 1
My@@ 1
aka 1
q@@ 0.7699782529708924
bách 1
Càn 1
ham 1
iss@@ 0.8792096635891258
est@@ 0.3939845234770222
Star 0.46794816127590527
ac 0.6119792440936337
vân 1
ito 0.694702392486018
ện 1
ngụ 1
if@@ 0.7624689134195791
Lã 1
Pháo 1
Bol@@ 0.9772819296319788
79 1
Bre@@ 0.6947505051962172
Halictidae 1
86 1
vẹn 1
Jones 0.5342857995139743
Mes@@ 1
tre 1
awa 1
Apple 1
khánh 1
ứa 1
Thích 1
Ham@@ 0.9412523850197794
Lam@@ 1
ngọc 1
HMS 1
giật 1
bó 1
Cos@@ 1
esi 1
cur@@ 0.6109167815691156
Carex 1
nảy 1
wa 0.34848887509677845
xít 1
Khả 1
W 0.5260392118135524
muộn 1
trôi 1
700 1
3D 1
cia 1
ằng 1
Benth. 1
QĐ 1
Hãn 1
Hiền 1
Hãng 1
tựu 1
Lá 1
Giáp 1
ice 0.3738038936464433
Cường 1
ez@@ 0.8294972343236512
tur@@ 0.6473322054343356
1885 0.8624062755343257
Albert 0.5737515829586904
châm 1
olus 1
He@@ 0.4867100066346862
arius 1
opteris 1
lụt 1
78 0.9521289342339748
Latin 0.6642612695134636
pseud@@ 1
84 0.9865315497276309
81 0.9900393785558801
nướng 1
V. 0.8817002393896589
• 1
Sri 1
Tipulidae 1
tráng 1
Cố 1
be 0.025361200406321702
Tom 0.5947663961885795
Nhơn 1
asa 1
tes 0.27789922510467047
sét 1
hố 1
− 0.7724231015673654
Phil@@ 1
pin 1
Ký 1
chổi 1
98 0.9720293745417081
Khu@@ 1
sal@@ 0.547803313085988
14@@ 1
ạo 1
sol@@ 0.8702760633075153
lar@@ 0.7986090800946216
series 0.10459601681845575
cuống 1
Australasia 1
Phụng 1
Wilhelm 0.5666139587353124
aca 1
khiêu 1
ori@@ 1
On@@ 1
Megachilidae 1
kép 1
Ánh 1
cap@@ 0.903088617370309
end@@ 0.3203282141085638
Ry@@ 1
Rad@@ 0.8374980446472143
eng@@ 0.5116165502943293
Gal@@ 0.6058556561522008
ularis 1
sia 1
vĩnh 1
xoắn 1
96 0.9162820683438719
Sc@@ 1
hal@@ 0.8373674683108944
Dicranomyia 1
chẩn 1
Club 0.19044797470611302
UNESCO 1
ẫn 1
ites 0.6435361794241466
lati@@ 1
Tích 1
Big 0.4739062482673949
Java 1
Cre@@ 0.8591672750171397
NĐ 1
1878 0.9331845672016034
sẫm 1
NGC 1
Nag@@ 1
23@@ 1
đấy 1
dec@@ 0.5727851383349432
vắng 1
antha 1
5,@@ 1
Williams 0.540465075974759
Bắt 1
á@@ 0.5562618889416958
Xá 1
Lời 1
don 0.5597137110171713
Cai 1
Màu 1
Q 0.9419376155772763
Sy@@ 1
ash@@ 1
Bóng 1
mann 0.3365644191596519
Ha@@ 0.8521290561087415
pu@@ 0.8601964089843671
inc@@ 0.5850261187074367
eli 1
heo 1
Pseudo@@ 1
por@@ 0.8245019527638919
ul 0.8858312225135496
Tro@@ 0.9580619241166616
ồ 1
ty@@ 1
én 1
ộc 1
Trụ 1
ó 0.17300907350569944
Trump 1
mắn 1
sa@@ 0.8933871455346151
chém 1
Awards 0.34189159553275006
Nhận 1
melan@@ 1
Lớn 1
Mil@@ 0.6425300584880602
Cten@@ 1
GDP 1
Psychotria 1
bit 1
1870 0.750358658588512
Cryp@@ 1
Nhi 1
rải 1
thụy 1
10.@@ 1
táo 1
not@@ 0.7337909173232994
ky 0.7042034328399643
Khương 1
punc@@ 1
Han@@ 0.9034667423477928
elli 0.7657117375011684
sôi 1
khoán 1
inia 1
Pe@@ 0.6505608245839848
4,@@ 1
bal@@ 0.6505830883158373
Congo 1
Pil@@ 1
cưỡng 1
bin 1
hãi 1
Nar@@ 1
chòm 1
16@@ 1
đệm 1
Cle@@ 1
hãy 1
ă@@ 1
Kiểu 1
MTV 1
Sor@@ 0.9060882437831334
dám 1
Bourgogne 1
Cat@@ 0.9826731570159437
ngưng 1
tambon 1
ho 1
ngon 1
chánh 1
thoảng 1
Măng 1
sis 1
giãn 1
nén 1
Ku@@ 1
Nhị 1
Hauts 1
Ái 1
ovich 1
ớ 1
Chăm 1
Cánh 1
ôi 1
Calli@@ 1
ột 1
White 0.3434712660091724
Eugène 1
loc@@ 1
nhiễu 1
Mag@@ 0.5654034460512573
tuệ 1
Rock 0.48060378768164924
hạch 1
les 0.013038786428174961
una 0.024332244002103296
chua 1
pin@@ 1
ous 0.24143145372052208
Hyp@@ 1
quế 1
10.000 1
phora 1
thâm 1
Ke@@ 0.7019410082528185
eph@@ 1
sin@@ 0.6952387790963191
Hi@@ 1
Molophilus 1
Ngôn 1
otis 1
quên 1
ụ 1
hoạn 1
Lep@@ 1
Marie 0.3957350332495726
lứa 1
onii 1
ir 0.3987169596928015
cẩn 1
sk 1
cười 1
kii 1
Do@@ 0.6967437066669352
Ol@@ 0.6682142682292153
Young 0.5179214452305013
Nơi 1
chướng 1
Giáng 1
Sáu 1
Ap@@ 0.8874031623401675
trộm 1
bám 1
thus 0.4748541999243529
Xiêm 1
gãy 1
Ri@@ 0.5562936988728172
sil@@ 0.9489734421900609
xoáy 1
Anth@@ 1
ình 1
quãng 1
rom@@ 1
Rio 0.8456017508346464
Time 0.6068151565176253
TP 1
Rôma 1
vòm 1
Sm. 1
adi@@ 0.8620772230320459
Kat@@ 0.9631903449025222
ung@@ 0.5862552208231092
Brown 0.4670603461843831
Vol@@ 0.7997060937631515
83 0.9772755992103432
7,@@ 1
Chú 1
Normandie 1
ven@@ 0.8938713103988046
ocarpus 1
Macedonia 1
Dic@@ 1
thự 1
cel@@ 1
ngục 1
ce 0.07605678447660152
Xích 1
87 0.9599640199977939
Arthur 0.5911902706865966
Pic 1
Ước 1
91 1
Haute 1
say 1
ey@@ 0.9612281690767637
nhũng 1
2.000 1
trội 1
Moore 1
lặng 1
bic@@ 1
cuộn 1
mộc 1
hàn 1
Tạp 1
Liệt 1
Quế 1
khử 1
Pa@@ 1
feet 0.9095750132341399
tắm 1
ista 0.579536565897259
áy 1
Prot@@ 1
Phượng 1
Hel@@ 0.8640441769638616
lộn 1
uma 1
tera 1
xấp 1
Đắk 1
1893 0.7751352211652667
ab 0.12436027831517445
MiG 1
rìa 1
Diệm 1
lum 1
Pierre 0.33690072866981324
oria 1
ub@@ 0.9366443479041758
otes 1
ván 1
ato 0.49528075840071567
Pomeranian 1
ềm 1
Mak@@ 1
Na@@ 1
Un@@ 0.2989163560044116
khe 1
ornis 1
Costa 0.9058417924150314
Carolina 0.48290400499433517
Cáp 1
93 0.9359945090472023
Algérie 1
Nhiệm 1
ĩ 1
Hộ 1
1859 1
Kon@@ 0.5549737438214566
Panama 1
pro@@ 0.5508590227956065
ler@@ 0.5956866284300643
he@@ 0.5248113573478599
ore 0.4456726551751051
asi@@ 1
nhấm 1
rùa 1
Ảnh 1
ha@@ 0.968802453195011
Scott 0.5331704595141064
Vĩ 1
rẻ 1
bl@@ 0.36315942325638284
eli@@ 1
sk@@ 0.5218063958948009
thùng 1
Voivodeship 1
ành 1
ton@@ 0.9002489351783719
óng 1
ilis 1
Euro 0.8224378849046204
Miến 1
bệ 1
vir@@ 1
Les@@ 1
lí 1
xo@@ 1
Chicago 0.32365727472564015
ticus 1
Tiệp 1
Cửa 1
tôm 1
1882 0.8932644007455756
ảng 1
den@@ 0.5140909582966141
lữ 1
Chó 1
Đã 1
pil@@ 1
Pel@@ 1
Der@@ 1
ut 0.6450652018307689
1886 0.832261525952299
2,5 1
97 0.9533888613468376
Miền 1
VII 1
Ta 1
bìa 1
ai@@ 1
miếng 1
ửa 1
phylla 1
Ay@@ 0.9416620993128907
Chức 1
macro@@ 1
Lim@@ 1
Thức 1
khoang 1
São 1
bas@@ 0.6003552725878429
Boston 0.4782182337713648
92 0.8817273675681581
Nhiệt 1
củ 1
6,@@ 1
lường 1
Lanka 1
ese 0.23819237954948289
Wilson 0.6370297858109095
NQ 1
icornis 1
yo 1
Julius 1
kar@@ 0.7092398229079798
carbon 1
giặc 1
ray 1
ngạc 1
Daniel 0.45289278040487013
xi 1
Mol@@ 0.8077576714525643
phụng 1
uk@@ 0.838473788528895
Chữ 1
tụng 1
Vây 1
cốc 1
fur@@ 1
Char@@ 0.6473097532738793
Schltr. 1
Syn@@ 1
san@@ 0.7857540702036212
ngột 1
Indiana 0.842015868316962
Kenya 1
Walter 0.5443662179372825
ee 0.5182909488417904
lấn 1
ō@@ 1
1880 0.7125885700041964
bre@@ 0.6803081518524692
Ung 1
Xưởng 1
Comté 1
ốm 1
ger@@ 0.45326726229223413
Mua 1
kem 1
ten 0.09725969646147778
buồng 1
Franche 1
Ca@@ 1
ạch 1
1875 0.9170124687656735
1888 0.7868413640974317
5.000 1
ens@@ 0.28617493245546205
30@@ 1
Sóc 1
bổng 1
solo 0.24635973860784283
apur 1
Show 0.5626394949788072
Vai 1
ich 0.4012449851379615
ắn 1
All 0.162074730068656
nho 1
Acanth@@ 1
Eupithecia 1
ỗi 1
Bas@@ 0.6268086064953406
rủi 1
Napoléon 1
1860 0.7753789776739046
Lại 1
kho@@ 1
Live 0.591454421162436
gũi 1
viền 1
vươn 1
Côn 1
hái 1
thuỷ 1
National 0.07814599133059777
Kháng 1
1871 0.7978191338902518
Night 0.729090159431487
thổi 1
Cư 1
etes 1
Hollywood 0.8059273803662333
ẩy 1
quật 1
vôi 1
Uganda 1
lùn 1
Tan@@ 0.9539909595598903
isa 1
ke@@ 0.9304439280113352
Nai 1
inn@@ 1
XIX 0.6461993678133803
Tầm 1
đày 1
ile 0.17950641289189864
ngô 1
Az@@ 0.7937052232111825
Kiệt 1
ass@@ 0.43051722855320135
iko 1
MV 1
Mic@@ 1
Mẫn 1
Pottiaceae 1
khoan 1
Wal@@ 0.5502213586686034
89 0.9150010233341456
Anne 0.6147526190870238
Tranh 1
thiền 1
Sz@@ 1
mia 1
Av@@ 0.7093150537058198
dệt 1
Il@@ 0.7488215034772372
up@@ 0.4991160497809073
BBC 0.501645961484506
Hill 0.35871547551000643
Hoà 1
1879 0.8622501062192259
bùn 1
Cậu 1
Thác 1
onidae 1
Cuốn 1
Đổng 1
nát 1
val@@ 0.8352214816057694
Lạng 1
chặng 1
24@@ 1
Khách 1
Tới 1
Lasioglossum 1
Bos@@ 1
thắt 1
bưu 1
Li 1
elle 0.06294299004630298
chlor@@ 1
dâu 1
ần 1
Khác 1
giấc 1
Barcelona 0.6522258844717427
Group 0.23884397275676605
oba 1
Sùng 1
Hằng 1
Cockerell 1
aga 1
Media 0.5278577551051681
mas@@ 0.7089393099959316
Uỷ 1
electron 1
ơi 1
For@@ 0.41447931034365887
Miêu 1
rot@@ 0.7655850046216481
Broth. 1
longi@@ 1
XX 0.6516403140206376
sten@@ 1
Trì 1
hiếp 1
eu@@ 1
Phu 1
lê 1
Sem@@ 1
zi@@ 0.8531727184444622
Ben@@ 0.6196690790003286
ập 1
bếp 1
Okinawa 1
ngòi 1
Vấn 1
Bon@@ 0.7396778008740172
Bao 1
ski 0.563804348002039
ny@@ 1
ren@@ 0.4852182728670025
ặt 1
ầu 1
Far@@ 0.6584065605573951
anti@@ 0.38295507186527067
pel@@ 0.847729831599338
Castile 1
vảy 1
ko@@ 0.8675015619400936
aen@@ 1
Bái 1
Shin@@ 1
Grammy 1
ish@@ 0.66765733622547
à@@ 1
cắn 1
fr@@ 0.38422565010855736
hiếu 1
đính 1
cáp 1
dae 1
1887 0.7792350975074706
anga 1
1883 0.8484428105262253
Asplenium 1
đụng 1
Cốc 1
dor@@ 1
1892 0.7066569476543558
ge 0.3638566255013257
Ban@@ 0.6338933821749773
ốn 1
Anna 0.569250744215756
ghét 1
Trực 1
Tám 1
Chim 1
giày 1
l. 1
1869 0.9225459774526639
Khổng 1
ny 0.8462725671222512
Tượng 1
ỉnh 1
Airlines 1
1873 0.8598726279061842
Bức 1
Ang@@ 0.7384015722702467
tidae 1
1884 0.7867621408980877
êng 1
CLB 1
kiệm 1
Dal@@ 1
ye 0.466169956203113
ảm 1
bắp 1
Wang 1
26@@ 1
lấp 1
Dụ 1
Go 1
Games 0.368072702190618
sor@@ 0.7919003514689078
Perry 1
hydro 1
asia 1
del@@ 0.6441022723197213
ới 1
Warsaw 1
nốt 1
quà 1
Blue 0.4981746706895863
tràng 1
Khẩu 1
ophylla 1
ry@@ 1
N. 1
Ngựa 1
Rắn 1
piano 0.714464930739598
vel@@ 1
tom@@ 0.938666215643299
bul@@ 0.8620306954593212
Thung 1
94 0.897109875635032
EP 0.5581654193622817
Lộ 1
ờ 1
Arsenal 1
eti@@ 1
dong 1
miện 1
3.000 1
130 1
Lept@@ 1
Đàm 1
25@@ 1
Boeing 1
‘ 0.3410813157772676
khóc 1
Cựu 1
Crypto@@ 1
Hydro@@ 1
emia 1
uni@@ 1
8,@@ 1
hụt 1
iki 0.6210419157201942
Pas@@ 0.6879765098938851
Triết 1
iy@@ 1
Em 1
cơm 1
Bích 1
Oc@@ 1
ik 0.5154062720270516
Ôn 1
1866 0.7029172748048746
Khâm 1
PC 0.8916789038415341
èn 1
Ngược 1
Cambridge 0.7043975531124471
Myanmar 1
27@@ 1
vắc 1
Pap@@ 0.8470896042939364
ãi 1
tú 1
cưỡi 1
ẫm 1
17@@ 1
Diệu 1
Cận 1
from 0.009855679413851985
Max 0.5161055774577862
n. 1
buýt 1
Xây 1
Dơi 1
ika 0.814709222884464
1864 0.7774032162839577
ap 0.8244296102119308
ộn 1
ign@@ 0.9416908695542957
Uyên 1
Xe 1
cat@@ 0.7307208305015064
cy@@ 1
sắm 1
ust@@ 1
Kir@@ 0.7946649427649797
lam@@ 0.814368617204727
Chu@@ 1
1877 0.8309385870662902
soni 1
Belarus 1
Es@@ 0.4719906300145086
cành 1
nhẵn 1
Bat@@ 0.7739694004068668
Christian 0.24288604891594126
Lớp 1
rh@@ 1
đắm 1
1876 0.7937439543921774
chéo 1
Dar@@ 0.6360038741027287
Palestine 1
nus 1
aer@@ 1
1838 1
Giác 1
trùm 1
pul@@ 1
lac@@ 1
nom@@ 1
11.@@ 1
Băng 1
110 0.9382597088801634
Chiêm 1
bo 1
Araceae 1
cua 1
icollis 1
ff@@ 0.4838072391007136
1861 0.7703155516528594
9,@@ 1
Ker@@ 0.719545128069702
War@@ 0.5627480040178859
ard@@ 0.6644956247013087
ts@@ 0.4230423346768067
900 1
otr@@ 1
pol@@ 0.6173205859213077
cắm 1
vách 1
INE 1
Hal 1
ster@@ 0.7083988633552505
cắp 1
Da@@ 1
Massachusetts 0.5220267751583944
tẩy 1
zi 1
Tu@@ 0.8559439592201262
tel@@ 0.5629979133432113
Đêm 1
anc@@ 0.8549731811319323
Thạc 1
Sim@@ 0.7503107581903444
amo@@ 1
US 0.09552814493148508
Acacia 1
ếu 1
v.v. 1
ặng 1
Model 1
Ráy 1
ực 1
1867 0.7928524947570157
Dicran@@ 1
nhẫn 1
ele 0.6772118805176264
Dược 1
Wil@@ 0.6323242514221834
ocera 1
kov 1
alum 1
luồng 1
mer 0.2904498860596324
Sen@@ 0.9093981650329095
Island 0.23556981576545555
dại 1
umi 1
Bờ 1
Championship 0.2183231393608563
UFO 1
pen@@ 0.5971562967449231
hit 0.3747397388257086
1868 0.807737956438102
29@@ 1
uri 1
Dựa 1
VIII 1
OS 1
ẩu 1
1881 0.7495682960363569
sen@@ 0.66104451416632
ast@@ 0.9050713669978562
Lão 1
lor@@ 1
Sav@@ 0.9279246270216762
1874 0.8120368340069768
Chuyến 1
ilia 1
Juan 0.26321058315226065
tro@@ 0.9903453835672016
1863 0.7803402201963578
trọn 1
Tạ 1
los@@ 1
opa 1
ant 0.09898856168578071
spin@@ 1
war@@ 0.46556056220662684
ach 0.353905960416207
Gre@@ 0.6524501565829596
Gà 1
age 0.06929979699027679
Dầu 1
ze@@ 0.9351565090807735
Ple@@ 1
Madagascar 1
kilômét 1
lặn 1
ca@@ 1
Nhìn 1
ker@@ 0.5971050118071536
Dol@@ 1
Liễu 1
fl@@ 0.4389923187028414
lep@@ 1
Tanzania 1
bus 0.4856635902680457
gal@@ 0.9285661887842301
O.@@ 1
Ram@@ 0.6648517704989941
ales 0.21394019120496247
ỏi 1
Camp@@ 1
thiêng 1
Dis@@ 0.44069867916439814
gác 1
pic@@ 1
leuc@@ 1
Hiển 1
ette 0.2832978478554325
neo 1
bóc 1
Begonia 1
mập 1
Mọi 1
bel@@ 0.5267178723493283
kiềm 1
Thuần 1
Ul@@ 0.8593038672591123
sonii 1
mồ 1
tig@@ 1
Trắng 1
etta 1
Ngãi 1
tiễn 1
XIII 1
opera 0.9184558418744528
Đàn 1
Kas@@ 0.784535637495503
Kuntze 1
Ty@@ 1
Rh@@ 1
Nem@@ 1
180 1
Nepal 1
gối 1
Dom@@ 0.75018998805202
nắng 1
ắp 1
Araneidae 1
Khan 0.711541122382084
Senecio 1
tis@@ 1
Jordan 0.9613430438797862
ủa 1
Marshall 1
Var@@ 0.820191354609524
vil@@ 1
Sur@@ 0.5630387259726062
isti@@ 1
phiêu 1
Pomerania 1
Kong 0.5084761813314912
Leuc@@ 1
š@@ 0.596164416394189
Khái 1
nhiêu 1
Hal. 1
chúc 1
tour 0.20333503243630863
Life 0.3005039197193056
cul@@ 0.8200390224728046
Ghana 1
hir@@ 1
Pl@@ 0.5723359036910606
iro 1
Megachile 1
iri 1
chèo 1
tồi 1
Pod@@ 1
1850 0.7567567381256965
Ox@@ 1
đắt 1
pe 0.4208232615782808
lat@@ 0.6896455369953296
Sudan 1
sem@@ 0.9295179295061217
Samsung 1
oto 1
Albania 1
Tel@@ 0.9045305518462669
ỏ 1
nhường 1
ậy 1
alus 1
CN 1
vội 1
Heli@@ 1
gi 1
ngài 1
Andrena 1
Austr@@ 1
Ngài 1
etus 1
í@@ 0.4352655861959505
Nền 1
ến 1
ợ 1
Centr@@ 1
Vel@@ 0.8876797192828976
tro 1
Gen@@ 0.6639811708422646
dis 1
the@@ 0.7568177609443968
Gioan 1
hận 1
Hom@@ 1
José 0.2598860697702637
khát 1
Arc@@ 1
Green 0.3703673206385715
Royal 0.17057629371102617
lin 0.5196564157262981
ind@@ 0.6366543400169689
Liêm 1
Cụ 1
pogon 1
bầy 1
nghiện 1
ùng 1
kin 0.6136998647418396
Ach@@ 1
Kênh 1
Lãng 1
1862 0.7342964807717475
Yang 1
des@@ 0.1902188236910674
Diện 1
Hòn 1
opo@@ 1
Hassan 1
ễ 1
Bay 0.3012487277523395
Mik@@ 1
ford 0.3808455722015774
28@@ 1
Lit@@ 1
Sphaer@@ 1
ếp 1
1865 0.7201659808861137
Hong 0.5044888539298137
etia 1
Lac@@ 1
Tịnh 1
đê 1
Tuyết 1
èo 1
Chrys@@ 1
Rose 0.6989573826577967
ượt 1
Nghiệp 1
anthes 1
ati 0.592702877587588
quạt 1
chì 1
xà 1
Ra 1
Eur@@ 1
Hos@@ 1
Cốt 1
Niên 1
abr@@ 1
all 0.03907016150782001
León 0.9315061013646421
mag@@ 0.822133883684192
Riêng 1
Davis 0.550883662430301
AS@@ 0.7236783815092653
Vin@@ 1
mes@@ 0.9968708795457358
pa@@ 1
East 0.16043951680108876
Romania 1
ưng 1
adi 1
101 1
Auvergne 1
F.C. 1
Sam 0.715830300459591
Thuốc 1
100.000 1
Da 0.39134052637379924
Sak@@ 1
Thelypteridaceae 1
end 0.07514733132721337
ther@@ 0.7781492748493304
Lepto@@ 1
Chris 0.5258762049393545
Doãn 1
Val 1
1.0@@ 1
1858 0.944392936796086
Ky@@ 1
Sw@@ 0.8044402693630345
Tết 1
cl@@ 0.48225804659091825
hor@@ 0.7360096470367377
khuất 1
tiếc 1
ylus 1
khu@@ 1
Bou@@ 0.6389346084620033
idea 0.3781579490210076
kin@@ 1
raion 1
Xê 1
1848 0.6717281558917274
Ali 0.5619815428481905
ngơi 1
omys 1
sti@@ 0.6570696746228843
trướng 1
Pyr@@ 1
Andrenidae 1
ini@@ 1
12.@@ 1
Stone 0.6902958964062502
0.000 1
Su 0.19422605893150358
Mi 1
lụa 1
Pav@@ 1
Síp 1
Meloidae 1
Hieracium 1
1840 0.8608938928358765
Sab@@ 0.8141098081965702
Chứng 1
Mim@@ 1
ãn 1
nghiệt 1
sọ 1
Mis@@ 0.8729709784134956
Chuyển 1
Day 0.32815368235222153
go 0.23880161504473346
pula 1
é@@ 0.1881927727520486
ội 1
met@@ 0.837028718874325
eur@@ 1
leri 1
pur 0.9509802257452049
Ir@@ 0.6423146832170793
Litva 1
khuynh 1
Dryopteris 1
AC 0.6065094442596282
khoai 1
anica 1
bẫy 1
ett 0.46146419356034857
uốn 1
ãng 1
hươu 1
Biến 1
tể 1
Sony 1
mộng 1
Lake 0.2432775365342746
Lewis 0.5712348964325219
arc@@ 1
gii 1
Norfolk 1
Ethiopia 1
rậm 1
Puerto 0.594751568041698
dĩ 1
inum 1
ui 1
đằng 1
Little 0.4503116969989676
chuộng 1
natri 1
Ep@@ 1
Liga 0.30275342785859516
hiền 1
phia 1
Dan@@ 0.7793648025835638
NATO 1
phím 1
Ober@@ 0.25906245435385633
show 0.1219928158434395
Gl@@ 0.7326895334583243
ce@@ 0.8875576190981067
han@@ 1
Pin@@ 0.6525672452280455
Bag@@ 1
rụng 1
tenu@@ 1
News 0.46186745845499577
play 0.12893915282231527
fan 1
pos@@ 0.5934466714572852
Mir@@ 0.7012860929365744
bể 1
ều 1
Phaolô 1
tóm 1
Thêm 1
láng 1
Mul@@ 0.7279878561190448
ici@@ 0.9691061755780507
Hứa 1
Vũng 1
alensis 1
mol@@ 0.7542743565980417
May@@ 0.7435642097621882
jo 0.6886485257409596
was 0.003387612711998777
Company 0.1812238443969138
Jo@@ 0.6730639567849906
kí 1
thầu 1
ẳng 1
opter@@ 1
1857 0.8677112451577617
yph@@ 1
olejeunea 1
dập 1
aro 0.9049283889954713
sấu 1
ze 0.34708409662051065
Út 1
Luer 1
Thúc 1
1830 0.8459134657113005
Trúc 1
Norman 0.9872601373641682
vin@@ 0.8870808839277352
Liban 1
Mau 1
Nes@@ 1
XII 1
Douglas 0.6723700511466694
Sydney 0.4473714121168908
gánh 1
Fox 0.5594314215663322
my@@ 1
Trùng 1
Allen 0.7148019822266939
Georgia 0.43700791434088104
Tam@@ 0.841234498116467
uk 0.9656241361088402
ś@@ 1
dic@@ 0.7915667962582671
lei 1
eps 1
ts 0.11293835944301635
ốp 1
köy 1
Caribe 1
mic@@ 1
ằm 1
Đi@@ 1
rich@@ 1
roi 0.3704842020548104
anahalli 1
ễn 1
ỗ 1
ocephalus 1
ín 0.6426198997985564
WWE 1
opogon 1
Dich@@ 1
Miên 1
eon 1
Aeg@@ 1
bộc 1
IX 0.9446767342144157
Canh 1
Oregon 0.7441774419123822
lội 1
1854 0.8984845046231795
Nậm 1
cula 1
estr@@ 0.844480374902157
gân 1
lùng 1
College 0.10367383338054545
chay 1
Epidendrum 1
kề 1
uki 1
Cam@@ 0.7670329224090393
Bromeliaceae 1
Franklin 0.8950324386674708
ó@@ 0.439844597468329
Tuân 1
quyến 1
Trác 1
Mối 1
Ten@@ 0.9947117400114543
field 0.13365835321816394
20.000 1
CH@@ 1
Mont@@ 0.66148612503787
nhốt 1
Nak@@ 1
itz 0.5030200124114501
len@@ 0.5776189837237858
thuôn 1
Cape 0.7119789498488618
ệ 1
1836 1
enta 0.9233982788269978
lắm 1
xông 1
đi@@ 1
Can 1
Đá 1
Ludwig 0.5560787775938949
Hall 0.19630251648384534
Joe 0.4302780880751036
.-@@ 1
Boy 0.8730966497328185
Mun@@ 0.9002058460274645
thói 1
Bank 0.3219625397254716
Yến 1
ngh@@ 1
Kỵ 1
Lin@@ 0.6903940004281973
đành 1
thính 1
chùm 1
cre@@ 0.47613461351170167
ów 1
đam 1
Duyên 1
Em@@ 0.6042949523193525
Orth@@ 1
eti 1
Ngh@@ 1
Y.@@ 1
Sức 1
Thu@@ 1
trán 1
ênh 1
Dư 1
· 0.08103568329641624
eth@@ 0.9071978352228116
nắp 1
XIV 1
agus 1
1849 0.8910849605685248
Bill 0.390475806249555
Kol@@ 0.5850066068104384
Yêu 1
ef@@ 0.43651101604425835
sương 1
Chart 0.982714169345677
yth@@ 1
mép 1
nếp 1
America 0.1709317120569333
cas@@ 0.5339672965663305
yx 1
khoác 1
mis 0.4960442602175616
By@@ 1
luyến 1
Bl@@ 0.457639490148887
Ath@@ 1
Rất 1
trưa 1
đun 1
ại 1
Làm 1
Thảo 1
mến 1
trơn 1
Azerbaijan 1
Biệt 1
Sul@@ 1
bính 1
ỵ 1
Lom@@ 1
Moon 1
Seine 0.27601042847071494
LGBT 1
lãi 1
Szczecin 1
Bangladesh 1
que 0.006707533999540278
sul@@ 1
enn@@ 0.5250891572695997
N.@@ 1
tin@@ 1
Android 1
ram@@ 0.9996245378856806
Pa 1
Vài 1
oe 1
Pro 0.5423953133401431
pap@@ 1
pat@@ 0.8597659543232963
1841 1
ome 0.7671640322202385
Buổi 1
Ngạn 1
ngắm 1
Ching 1
sar@@ 1
sy@@ 1
bái 1
1872 0.6930251840935401
ướp 1
Nu@@ 1
Tre@@ 0.6206702740010971
Ci@@ 0.8948259159173779
Dubai 1
Toán 1
fer 0.37988193389499053
ạng 1
Dav@@ 1
thiêu 1
nhắn 1
Carlos 0.3294319470530235
Xung 1
dọn 1
hước 1
ngo@@ 1
3,5 1
ian 0.4186447491395393
Ny@@ 1
1851 0.9062743785925744
Hắc 1
Ec@@ 1
Henri 0.5111101766803673
Maz@@ 1
Nô 1
f. 1
rung 1
rắc 1
vic@@ 1
Gò 1
Hypnaceae 1
Linux 1
Ren@@ 0.836640141576008
ami@@ 1
mỏi 1
ocer@@ 1
osoma 1
PlayStation 1
cồn 1
đếm 1
Bengal 1
Rhynch@@ 1
ain@@ 0.6230186235405738
Trẻ 1
Baltic 1
Chuột 1
Cir@@ 1
Trại 1
hãn 1
Pradesh 1
Facebook 1
Nov@@ 0.8343251147465243
var@@ 1
itis 1
jo@@ 1
0.@@ 0.4706861367064837
Euc@@ 1
tal@@ 0.7074405873192742
zon@@ 1
Jersey 0.41347824488815527
Shi@@ 1
kẽ 1
Kẻ 1
1846 0.9632946571338515
I.@@ 1
MC 1
Pu@@ 0.9090604691455734
Mit@@ 0.5406939199590185
Ran@@ 0.8874427661813117
oli@@ 1
160 0.9931132199432257
điên 1
dừa 1
ih@@ 0.9510490522328381
pho 1
sùng 1
Chẳng 1
Đoạn 1
oy@@ 0.7200799144917752
Corporation 0.41485618395598384
Pit@@ 1
Pre@@ 0.3862805415961942
nung 1
phơi 1
thấu 1
Vu 1
lánh 1
rệt 1
Gặm 1
Bầu 1
truất 1
Cyr@@ 1
apo@@ 0.9936368363708199
Street 0.1447113317260765
top@@ 1
Iceland 1
rỗng 1
tem@@ 0.8959591637113077
vol@@ 0.49952295401464236
Dys@@ 1
Fer@@ 0.5900193344594691
nor@@ 0.8728844408750311
đèo 1
Je@@ 0.8454600934594995
Win@@ 0.7719199536627681
ham@@ 1
je@@ 0.7601090288382659
ọ 1
140 0.9956921730823234
1753 1
c. 1
thủng 1
jin 1
nguyệt 1
per 0.11435772227390326
úi 1
chọc 1
osaurus 1
Adam 0.5380930993050349
Francis 0.4606824384479416
iner@@ 1
nha 1
rol@@ 1
Chấn 1
yna 1
Bàng 1
Mich@@ 1
Pri@@ 0.8728033543145918
Rica 1
ie@@ 0.738301352658509
thưa 1
UBND 1
British 0.08444424885548892
Jan@@ 0.6912259571450627
cấy 1
ure 0.31927237399279085
Om@@ 1
ố 1
dom@@ 1
nai 1
Polypodium 1
aensis 1
heter@@ 1
Araneus 1
han 0.20117642127339744
ger 0.3905200068161242
ừa 1
Loph@@ 1
Anderson 0.6452197093002205
gan@@ 1
Mike 0.4509685228506559
opteryx 1
Scopula 1
ashi 1
cacbon 1
The@@ 0.9198281206114016
yum 1
cos@@ 1
iculata 1
mổ 1
won 0.06824369694096892
aba 0.17164868091886182
úng 1
1844 1
Dendrobium 1
radio 0.19393452486959759
ans@@ 0.6019494832379213
Trạm 1
ispa 1
Jan 0.6127587996679286
ót 1
ạm 1
ề 1
Andrew 0.47597486011900897
Kom@@ 0.542954588597618
Marne 1
sum 1
Swift 1
py@@ 1
rãnh 1
Arecaceae 1
Team 0.2187843450751217
mệt 1
ide 0.729893733890998
Piper 1
Sand@@ 0.5255562371926381
Sil@@ 0.6818974561667638
sủng 1
thr@@ 0.8494094045344374
Che@@ 1
giềng 1
gán 1
til@@ 0.7251616744761455
vu 1
Tim@@ 0.8065626970352126
Bul@@ 0.8164649548132275
Philip 0.6783964531666755
gl@@ 0.5514582380104606
wal@@ 1
Best 0.22648343448952307
Bri@@ 0.783276413173128
ava 0.864791230412643
1853 0.8917757494543705
Ghi 1
pi 1
1845 0.9414553458134292
Tràng 1
báu 1
toà 1
350 0.9468595856489993
giường 1
Giêsu 1
Sắc 1
St 0.20556961053371295
inensis 1
ơ@@ 1
nik 0.9503048553719138
quyên 1
codice 0.9075093767829217
nic@@ 1
Pedro 0.42752785559977935
mãnh 1
xinh 1
yểm 1
Open 0.2813002162433979
ữa 1
Bru@@ 1
Pir@@ 0.9765339608096472
Thôi 1
ũ 1
County 0.07125569658211486
imus 1
TV@@ 1
hò 1
obr@@ 1
ợt 1
Colletidae 1
burg 0.38812817531182875
chai 1
lea 1
pis 1
Gh@@ 1
Rap@@ 1
ber 0.4365141059945515
ilus 1
ịch 1
Pteridaceae 1
Ra@@ 0.6927477233097332
astrum 1
az 0.4762872973349588
kan@@ 0.7321887216612377
ngặt 1
skie 1
wood 0.2598029846537156
Đỉnh 1
Antonio 0.3121721998928617
umb@@ 0.9548372974410521
ày 1
Sachsen 0.9174732290696427
Sát 1
đinh 1
Kit@@ 1
ostoma 1
Pat@@ 0.7108844025648436
dối 1
Kon 1
aeus 1
ghé 1
len 0.5351186205806588
Ki 1
Áp 1
Alaska 1
Sho@@ 0.9451512473976319
Otto 0.515783816669705
ỡ 1
Grande 0.4459542747104156
frons 1
ển 1
Hoan 1
Och@@ 1
khiếu 1
Ngự 1
onis 1
Đi 1
bơm 1
idus 1
Lepid@@ 1
nồi 1
single 0.09045933382678178
School 0.06605528069624617
Dev@@ 0.7141621333027233
Don@@ 0.6275114878048853
Thuyết 1
khuếch 1
CS 1
gracilis 1
coc@@ 1
Lawrence 0.7539789156311474
Mach@@ 1
Sun 0.4594797116305111
Croton 1
Lenin 1
multi@@ 0.7701083737085662
pseudo@@ 1
XI 0.9320774787565453
chiết 1
sim@@ 1
nang 1
4.000 1
Cyclo@@ 1
chiên 1
ựa 1
Philadelphia 0.4961120903105297
chu@@ 1
Paulo 0.9242964663015608
ello 0.38495616188572873
Dur@@ 0.6426117849437029
Lycosidae 1
ku@@ 0.8981261640650606
Khúc 1
Dendro@@ 1
Hypo@@ 1
Studios 0.6282960557635237
hr@@ 0.6946291916456105
les@@ 0.6395125161489494
Frederick 0.6891657876845899
Lệnh 1
đoan 1
bol@@ 0.8274288353525628
enus 1
Uruguay 0.9129649373777494
owski 0.950455429146272
illo 0.7775572607680781
Nor@@ 0.46305232731279455
Adams 0.7859367138582076
Chiết 1
Gruzia 1
anthera 1
Ō@@ 1
cata 1
Cel@@ 1
Great 0.22529599964810063
dan@@ 1
Bolivia 1
Hạnh 1
calci 1
idi@@ 0.9436809815355722
trễ 1
albi@@ 1
ão 1
Sơ 1
he 0.00997749554429649
ron@@ 1
Hamilton 0.5634907995159875
fera 1
óm 1
Chuyên 1
oti@@ 1
tạ 1
Lan@@ 0.8811968328202053
ẹt 1
avi@@ 0.8828032440772307
37@@ 1
Lân 1
Diêm 1
Hạo 1
illi@@ 1
40@@ 1
ess@@ 0.605406042834176
Truyện 1
ine@@ 1
phyl@@ 1
dius 1
rực 1
tol@@ 1
Girls 0.8355185669752214
Lejeuneaceae 1
olo 0.8794469456595265
Chik@@ 1
Ukraine 0.49305532882287645
Nà 1
Trở 1
Rom@@ 0.5810847464995605
Stephen 0.5042320881737031
nhục 1
Cờ 1
pus 1
Rico 0.8063827863945977
nhôm 1
bos@@ 1
tam@@ 1
und 0.0036305130530921697
Bạn 1
Chil@@ 1
lót 1
hoành 1
res@@ 0.27775471658696654
yon 1
bat@@ 0.647989873785281
oli 0.851674807280423
Galaxy 1
Gray 1
Candèze 1
huynh 1
Bryaceae 1
Lap@@ 1
Mk 1
aculata 1
nhũ 1
town 0.09175961717718537
Wimbledon 1
icata 1
pot@@ 1
xả 1
usia 1
Mang@@ 1
Mordellidae 1
Som@@ 1
Theridiidae 1
ation 0.05958606368880992
folius 1
xơ 1
rổ 1
Kazakhstan 1
zo 0.6923677671622873
Ore@@ 1
Tốc 1
xăng 1
ATP 1
nhai 1
fasciata 1
Queensland 0.6137044362146092
mus 1
onium 1
Lind@@ 1
Pokémon 1
Mới 1
ons 0.13291243134208602
v.v 1
Queen 0.32706292674936077
RNA 1
Rome 0.3364712543539434
Centre 0.2700317740586222
ater 1
măng 1
Bab@@ 0.7922406442885424
Bãi 1
giang 1
incta 1
DD 1
Triển 1
lộc 1
nhụi 1
thoải 1
enzyme 1
.com 0.6547382528951851
dem@@ 0.44049886654277914
360 1
pros@@ 1
ọng 1
Côte 1
Dragon 1
Marx 1
ame 0.63452017303078
elegans 1
nứt 1
tặc 1
sty@@ 1
roc@@ 1
Lưỡng 1
nh 1
tạng 1
taria 1
Nam@@ 1
hol@@ 0.686021233742948
Š@@ 0.7966998303087507
hoài 1
sin 0.15569783155334138
Cass@@ 1
ion@@ 1
Raj@@ 0.6154958707763043
We@@ 0.4090992975443822
Ash@@ 0.7542484672852235
Gymn@@ 1
Stephani 1
Thúy 1
ráp 1
Cerat@@ 1
khiết 1
pre@@ 0.19008203226302023
Đằng 1
Vladimir 1
opidae 1
ủi 1
Trưng 1
ates 0.1314999272391921
hao 1
ský 1
syche 1
agu@@ 0.6645809113925893
bach 0.31410597835550585
sur@@ 0.2545183521739631
yn 0.7022442822360236
ě@@ 1
Rừng 1
mil@@ 0.7544407581183319
ồi 1
arm@@ 0.9179812150277589
ero 0.3076394357150565
loa 1
Cur@@ 0.5752495291835052
Cop@@ 1
din@@ 0.8370547041450056
Gol@@ 0.6281308844130765
v. 0.4411691958228362
AM 0.5744482090984989
Dy@@ 1
House 0.10833937367206668
Libya 1
Osaka 1
Rick 1
50@@ 1
Kích 1
cyan@@ 1
khoá 1
ây 1
ony@@ 1
Pot@@ 0.7201144565585536
Bob 0.43803937482223987
Newton 1
rho@@ 1
Kot@@ 1
1856 0.7227071779621045
zia 1
Mississippi 0.6917715844974244
XVI 0.7506275990405207
bận 1
thề 1
105 1
Papua 1
cớ 1
inea 1
Eugenia 1
Ben 0.4636045302515108
Hook.f. 1
Schmidt 1
Theridion 1
thạc 1
ục 1
gìn 1
ử 1
Idaea 1
Tem@@ 1
aus@@ 0.12589601729358235
Syzygium 1
ellata 1
ảy 1
rỡ 1
Gil@@ 0.7716697381502718
bồ 1
ets 0.18351672917424294
rop@@ 1
vectơ 1
Xen@@ 1
Anti@@ 0.7356594672032294
Union 0.114359441508555
eton 1
khéo 1
Les 0.03790447845890464
khống 1
vệt 1
fal@@ 0.7721603075766832
vo@@ 0.6691639712020321
Melan@@ 1
lượn 1
osp@@ 1
ole 0.5363282717559849
Kunth 1
Pent@@ 1
ấc 1
Bột 1
ent 0.0776465800786572
euro 1
Cantharidae 1
Pfalz 1
Sung 1
ole@@ 1
vis@@ 0.8843058984603472
thon 1
Tre 1
xôi 1
Muhammad 0.8926685651251172
amensis 1
Duệ 1
Nic@@ 1
ath 0.5051586361732334
Mĩ 1
Mồ 1
Khuê 1
mào 1
Creek 0.3373024515667111
ker 0.28393540309878595
General 0.09922281480679224
k. 1
lát 1
ocy@@ 1
vớt 1
Rho@@ 1
ngõ 1
quadr@@ 1
Slovenia 1
Bad 0.46801359927420827
p. 1
AFC 1
Amph@@ 1
Girl 0.7815230917546635
ines 0.27016407812166976
Sứ 1
Mỏ 1
ij@@ 1
Gregory 1
iensis 1
36@@ 1
Alfred 0.48228028994883315
odi@@ 1
Bangkok 1
Schl@@ 1
omatidae 1
Roger 0.5137707677487349
Solomon 1
ary 0.19046716899249436
dịu 1
bar 0.24106063167113215
Nghiêm 1
bil@@ 0.7044984820647446
Malta 1
On 0.029676806849972703
Sir@@ 1
lựu 1
pur@@ 0.47677186557481255
trù 1
Series 0.28615933357229073
TH@@ 1
Wood@@ 0.8707069836093602
chán 1
nis 0.8526899096962357
Giờ 1
Ngữ 1
Ven@@ 0.7123572308212953
Jamaica 1
orus 1
Thomisidae 1
ulosa 1
ùi 1
Kaz@@ 1
ệm 1
Amaryllidaceae 1
Dec@@ 0.5498671096371675
Star@@ 0.5890386853620533
gar@@ 0.456245820342135
khan 1
nón 1
ược 1
website 0.4843980015305508
NS@@ 1
kal@@ 0.7004228007640176
ngâm 1
ún 1
Coel@@ 1
Nhan 1
Asp@@ 1
Kun@@ 0.8871582584729929
rể 1
Dục 1
Hed@@ 1
Pom@@ 1
tic 0.3125227311403421
Port 0.40114153613567327
SM 1
Slam 1
Súng 1
hum@@ 0.9099918878576717
Bro@@ 0.5588835074069161
Cro@@ 0.6212536835918189
asis 1
giun 1
mg 1
Bánh 1
enes 0.858577181636054
mini 1
Dinh 1
Wikipedia 1
teri 1
Lady 0.4255695925695112
1847 0.8231972915112343
anda 0.7704237534454812
cay 1
ps 0.37647006320497123
uz@@ 0.8986347237649133
Tumkur 1
EU 0.6468883006141957
quấy 1
10,@@ 1
Lũng 1
Sultan 0.942535969837125
Catherine 0.7231260645006848
aci@@ 0.8176909657207931
Tái 1
kr@@ 0.5392648358008835
Bryum 1
st 0.2941832161857713
Thật 1
Acro@@ 1
Alice 0.7050494981925006
Donald 0.6649646713235676
inata 1
sốc 1
Fre@@ 0.47964009854849887
Ford 0.42690857842711044
ST@@ 0.7290163508805833
ais 0.3596000296949085
nôn 1
ocarpa 1
xuôi 1
č@@ 0.6654593466524973
Asteraceae 1
HIV 1
ngụy 1
bicolor 1
Chen 1
cola 1
bius 1
ling 0.2540221826112529
sep@@ 1
Center 0.1644340011356864
Dicranaceae 1
ylo@@ 1
iceps 1
tạc 1
Steve 0.4243460269922379
phác 1
xia 1
lii 1
Py@@ 1
nhàng 1
zy@@ 1
Mam@@ 0.9652480944733781
Pen@@ 0.6241870616678502
Tho@@ 1
chus 1
Dam@@ 0.8401194102772637
ain 0.3351862269207001
1,2 1
Radio 0.2194762615912552
nhụy 1
13.@@ 1
Bes@@ 0.6808602206834518
lig@@ 0.6066705482042579
Clark 0.58765945393995
ón 0.20758596992086847
Kin@@ 0.6362762969102249
hat 0.07754531548404982
log@@ 0.7226948189200842
mõm 1
set 0.0897800673194905
Ít 1
Jung 1
Harvard 0.5979820098134655
Kiếm 1
Margaret 0.6511096717009963
Xanh 1
acantha 1
mur@@ 1
gris@@ 1
achi 1
anes 0.8837805625221696
Á@@ 1
giếng 1
min 0.6125935446671102
section 0.18306192261842766
1837 0.8684373040482731
Dần 1
dẻo 1
Thiểm 1
họng 1
ulum 1
35@@ 1
Jac@@ 1
phon@@ 1
Herbert 0.7260783972050963
Inc. 0.5525960302350661
chênh 1
Hang 1
th 0.1565971167244168
thiếp 1
Đoan 1
gắt 1
ắm 1
CBS 0.7719056552416753
ji@@ 1
ư 1
đục 1
mẻ 1
1833 0.9586778486869827
Mot@@ 0.8165343579737133
Sir 0.24750165096338822
Cameroon 1
Dữ 1
khinh 1
uni 1
Pon@@ 0.7458922025770945
kali 1
1842 0.8725343363139993
Alabama 0.6243898856122131
Jerusalem 0.8540192234655347
Yemen 1
Ere@@ 1
Howard 0.5209982418974698
hel@@ 0.7825459504520939
vụn 1
thấm 1
Biện 1
Sicilia 1
Yu@@ 1
rỉ 1
mari@@ 1
ừ 1
uỷ 1
Dem@@ 0.5241764714102443
bis@@ 1
lus 1
trắc 1
Alexandria 1
Schleswig 1
Estonia 1
evich 1
ix@@ 1
mịn 1
đan 1
Bạt 1
Ivan 1
ric@@ 1
rèn 1
Rus@@ 0.867948289449967
125 0.8286305786058751
It@@ 1
gay 0.9888778216188702
oxide 1
Qatar 1
Arch@@ 0.8270624834838789
Ferdinand 0.6675087996412669
Praha 1
zii 1
Europa 0.24704156377288156
Kavkaz 1
ifera 1
Pardosa 1
Bành 1
Maroc 1
DS 0.9445691760255082
Hat@@ 0.9593272210033615
Tang 1
Rheinland 1
Sierra 0.6747426143414449
Your 0.6493068063984843
hở 1
Bò 1
unda 1
Villa 0.47617033176846596
inger 0.3237720991091974
ish 0.2347633536081985
ẽ 1
Oxford 0.4005621749726637
bì 1
1824 1
Fe@@ 0.5424258223830837
Hop@@ 1
Si 0.35720781761342163
yan 0.7039242608773173
Ok@@ 0.991664826700247
dồn 1
Asia 0.3070469836450266
ace@@ 0.9589934797357768
kẹt 1
prop@@ 0.7165986701119309
Bell 0.5810992565552284
Op@@ 0.6427380301715729
Ray 0.5760696156711185
aku 1
Tetr@@ 1
est 0.006422172433455636
ney 0.42784487327588155
omum 1
philus 1
quặng 1
well 0.04215264137221598
ìa 1
ùm 1
000 0.21072590402952127
lăn 1
Giuse 1
ophila 1
act@@ 1
internet 0.8862050980197367
Tắc 1
CD@@ 1
ico 0.30965211667762976
1852 0.7370602280957014
ời 1
Nhu 1
ebr@@ 1
ush@@ 0.9776530121243547
33@@ 1
niêm 1
Borneo 1
Ken@@ 0.9370487809214715
Bính 1
inh 1
oensis 1
yd@@ 1
vitamin 1
Miller 0.4907779718999486
aqu@@ 0.6160913716448312
Mèo 1
Apo@@ 1
Hook 1
rit@@ 1
đuối 1
bro@@ 0.6150118323403871
z. 0.3593223661765427
chloride 1
sei 0.25465713299288834
esta 0.10972654994373858
art 0.09310670388668693
oshi 1
1843 0.880632988122855
ận 1
ụn 1
1839 0.8625406528137822
ứt 1
14.@@ 1
ve@@ 0.5231563213528407
atia 1
Alex 0.5962220794132572
fo@@ 0.5307664673223939
Cán 1
Gon@@ 1
River 0.09245569580170394
Tuyền 1
Amazon 1
Clinton 0.9166042861308465
Napoli 1
UK 0.17220389449717372
po 0.8459423931688247
Mos@@ 0.6035634392961055
Tamil 0.778375581060403
kl@@ 0.43703078713341775
ku 1
van@@ 0.9951089015353056
đạc 1
Socorro 1
illus 1
khốc 1
pter@@ 1
CH 1
Ed@@ 0.5886436610613001
iga 1
NASA 1
No 0.18186649055965534
Macro@@ 1
Shir@@ 1
Tuyển 1
brevi@@ 1
nhuộm 1
Dao 1
huỳnh 1
Hỗ 1
đao 1
Aph@@ 1
Petr@@ 0.9736631245315983
University 0.03617652967369593
cỗ 1
Bad@@ 0.6645421468244783
char@@ 0.534665572469976
lồi 1
mos@@ 0.8498600886393778
nhược 1
Tunisia 1
khoẻ 1
Grant 0.6779357668366874
Long@@ 0.6060802160554906
int@@ 0.5917526228467684
opl@@ 1
Mê 1
hii 1
ins@@ 0.32487144904847415
1832 0.8655229038852325
Ble@@ 1
Rchb.f. 1
6.000 1
cụt 1
Anime 1
Sti@@ 1
Thí 1
phila 1
thục 1
ỳ 1
Torino 1
ade 0.27769373123085384
mot@@ 0.7293330054548686
udi@@ 1
lop@@ 1
Lab@@ 0.8762980213474648
Walker 0.6486260026927816
ecta 1
Up 0.5603197664916367
kị 1
meg@@ 1
Cot@@ 0.9044265457425401
Lành 1
olata 1
Champion 0.8029891286559097
Victor 0.49204250318233184
tiv@@ 0.8362354875377421
xanth@@ 1
Colorado 0.4699830037219969
dai 1
Dãy 1
onica 1
ron 1
11,@@ 1
ennis 1
Quercus 1
Thao 1
phil@@ 1
tệp 1
isch@@ 0.6220166497574179
pia 1
Arizona 0.4685558808275353
Gang@@ 1
Khảo 1
gả 1
ểu 1
Plagi@@ 1
cẩu 1
sâm 1
Set@@ 1
Channel 0.49312299888581
Eric 0.5420387384208563
cõi 1
khiếp 1
vằn 1
ỉ@@ 1
12,@@ 1
logic 1
Kennedy 0.6389768847726789
mis@@ 0.2590911292080618
Cactaceae 1
Dạng 1
bium 1
ngạn 1
sch 0.4731073062870479
Thelypteris 1
èm 1
Ophi@@ 1
Kolar 1
râu 1
Bước 1
bế 1
ý@@ 1
Lepanthes 1
arum 1
dion 1
Babylon 1
Bay@@ 0.7099030489314301
Brach@@ 1
Watson 1
dal@@ 1
trop@@ 1
đùa 1
Baden 0.6086010459805421
brach@@ 1
omorpha 1
1834 0.865788575948612
Aspleniaceae 1
Super@@ 0.3828979171713663
dea 1
ÂL 1
Trach@@ 1
ois 0.7939350546507965
thes 1
itus 1
Gly@@ 1
Ngư 1
SA 0.5232914968320782
cost@@ 1
Alan 0.5567829860997522
Astr@@ 1
Lô 1
hem@@ 1
ond@@ 0.6277036775311734
AT 0.8258556209628755
bon@@ 1
1827 1
istr@@ 1
lu 1
lip@@ 1
imp@@ 0.6572983666380663
Đàng 1
GS 1
nóc 1
Lag@@ 0.8870800458000282
ulatus 1
Alexandros 1
38@@ 1
ọn 1
Aleur@@ 1
ipennis 1
ken@@ 0.5145448222279341
ovo 1
pp@@ 0.6253954194755602
Angola 1
thê 1
Guam 1
Brian 0.4773177909770885
Final 0.360206335087977
IN@@ 0.6379814767453945
Merr. 1
Rạch 1
up 0.030742229224557552
1855 0.6604105903718255
Diêu 1
Twitter 1
Phi@@ 1
oda 1
los 0.008679833172892238
nghênh 1
rũ 1
via 0.17215420877080856
Ga@@ 0.8033023800719715
Houston 0.5294543503591956
AS 0.6201799682515169
ẫy 1
220 1
Studio 0.5845483668764689
ith@@ 1
ž@@ 0.7053598063721688
Xứ 1
Allium 1
andi@@ 1
issima 1
nhan 1
amia 1
lb 1
amine 1
assa 1
ein 0.014340766580332677
Kì 1
vòi 1
yla 1
Manila 1
vit@@ 1
Tony 0.42627504329085364
liv@@ 1
High 0.1139838135567938
ụi 1
Call@@ 1
Sumatra 1
Hoành 1
Kraków 1
MS 0.6569949883356014
SC 0.44698809215909846
Plan@@ 0.6541926418901934
nu@@ 0.8879221661860308
Tum 1
ades 0.3797082350759528
Franz 0.367489473420107
Lar@@ 0.6389733139532815
aulis 1
elii 1
tiệm 1
ềng 1
Dun@@ 0.6328214339465169
Dền 1
108 1
je 0.2016864052812819
mannii 1
similis 1
Jane 0.5855048479791408
khép 1
sỹ 1
First 0.14628292954702576
ính 1
đống 1
0,5 1
iti@@ 0.4592742693065863
Ngành 1
Pictures 0.8186172750237544
ường 1
Vit@@ 1
Zimbabwe 1
vần 1
yu 1
out 0.033120143550112835
Byzantine 1
Chal@@ 1
Somme 1
uyên 1
39@@ 1
HD 0.7566694834760048
Kad@@ 1
Salvia 1
we@@ 0.2947569380252695
Has@@ 0.7849738197095538
acc@@ 0.7584589350180678
mus@@ 0.45694393515606435
Giản 1
Yam@@ 1
stein 0.265372933783604
Tọa 1
ằn 1
astr@@ 0.8200918613419438
Khiêm 1
Bruce 0.6071750360821124
Holstein 1
lio 1
mác 1
Bush 0.7679823578416917
Is 0.47026375889954203
Sid@@ 1
didae 1
Kiev 1
Nik@@ 1
chuồng 1
CIA 1
Xbox 1
estes 1
ken 0.21125744199309637
Bis@@ 0.8305330071440639
Bud@@ 0.9884362035003083
pet@@ 1
Cừu 1
gậy 1
bồn 1
ć 0.6800137296825879
Bot@@ 0.6268121133531939
agn@@ 1
bạ 1
Bangalore 1
Giấy 1
Pach@@ 1
ick 0.3467446771287007
yra 1
apura 1
edi@@ 0.5997171394851234
Khanh 1
Two 0.20618396427163221
khôn 1
asi 1
ū@@ 0.8131484057611299
Am 0.07718458163768405
Anis@@ 1
Beatles 1
oniaceae 1
st. 1
ổi 1
Guatemala 0.90481346115219
minor 0.3674961190359655
{ 0.3836332944967384
Provence 1
ste@@ 0.39983262043258055
Chang 1
Maj@@ 0.8315913799787524
Mitt. 1
hoạ 1
mul@@ 0.8775852232290025
nar@@ 0.8502759946433882
ặn 1
11@@ 1
ry 0.3249786791572902
rạch 1
34@@ 1
aceus 1
túng 1
obius 1
Arg@@ 1
rước 1
sụt 1
Stelis 1
agi 1
Vietnam 0.4347220942846597
Hào 1
une 0.009218145020480135
Beach 0.3935823990112247
Kum@@ 1
ị 1
ju 1
Gracillariidae 1
Tol@@ 0.9092162133832351
1800 0.6132161830651497
auda 1
Copel. 1
Caesar 1
Hay@@ 0.780283410585652
45@@ 1
Palomar 1
ue 0.26466024868890503
Ze@@ 0.6473906502927892
bọt 1
uy@@ 1
việt 1
1825 0.8982013510764082
Leyte 1
Toronto 0.32884845086467696
da@@ 1
lanh 1
F.Muell. 1
sảnh 1
Brunei 1
Harrison 0.7905441238295419
Leptoceridae 1
diễu 1
má 1
ons@@ 0.46007449309601844
Madonna 1
Tal@@ 0.4231610168769082
1831 0.8386871562078996
Dance 0.621865464170279
Pet@@ 0.8829194648528979
sê 1
Abu 0.8748181290706027
Gris@@ 1
acr@@ 1
isi@@ 0.7116705307976904
lut@@ 1
ow 0.3387007643454281
phôi 1
set@@ 1
òm 1
Gonomyia 1
Lav@@ 0.8138790982844339
We 0.289210025314256
him@@ 1
nat@@ 1
trans@@ 0.23786036259375665
Japan 0.1382265658198824
Lis@@ 1
München 0.36329169551057483
Ari@@ 1
Co 0.3713584960764314
Lợn 1
esii 1
sam@@ 0.7771937982937219
18@@ 0.8587400282073054
Erica 1
Il 0.02143495429566428
Maine 0.6456472599402109
Will 0.6793363187790996
cửu 1
aud@@ 1
enko 1
Network 0.41173206007252994
khố 1
Hook. 1
15.@@ 1
Iso@@ 1
Point 0.4011985007965294
Thới 1
khâu 1
A.Gray 1
Eng@@ 0.6875685974840584
Luc@@ 0.708394215110746
Moselle 1
Ric@@ 1
Siberia 1
Jefferson 0.9409442362718549
SE@@ 0.6329193674559568
nàn 1
oid 1
gộp 1
som@@ 0.7696609698429162
Cyathea 1
Hyper@@ 1
dan 0.3145803682348614
lột 1
60@@ 1
Cheil@@ 1
Ni 1
Tim 0.6413833591303089
beta 1
ist 0.010682048753318449
nigro@@ 1
Gaga 1
leria 1
nea 1
owo 1
this 0.018962839075405965
àu 1
ech 0.679722595794157
ellidae 1
ngoan 1
Kha 1
Old 0.252897244467153
Sis@@ 1
ins 0.09869444972240572
ẹo 1
Cứ 1
hoán 1
huỷ 1
170 1
Vợ 1
dán 1
ę@@ 1
ka@@ 1
GP 1
This 0.030230492745161586
aul@@ 1
eni@@ 1
ạp 1
ci 0.15679517420768846
ophorus 1
H.Rob. 1
Lôi 1
chiêm 1
chuối 1
Phy@@ 1
stis 1
UTC 1
lậu 1
Bid@@ 1
Ficus 1
Cảm 1
Thụ 1
anna 1
Moscow 0.5292442812166378
gặt 1
vis 0.9589028850757741
Lang@@ 0.3826681009595758
María 0.27165774302785867
yết 1
HĐND 1
Mozambique 1
auc@@ 1
chilus 1
chước 1
Nằm 1
bec@@ 1
yro@@ 1
109 1
Ư@@ 1
othecium 1
uh@@ 0.9677118271362098
Kịch 1
Vọng 1
3000 0.6729891987477287
47@@ 1
Leg@@ 0.6770530001608661
Vatican 1
Pic@@ 0.7294935795814689
opis 1
phiệt 1
Mari@@ 0.4356337128123107
Valley 0.23910243772156287
ayi 1
plat@@ 1
ock 0.5185275359494319
reg@@ 0.35358767960331283
Île 1
Jong 1
XV 0.6114744965255458
22@@ 1
Turner 0.7787041051398699
ấng 1
Nan@@ 0.9590786893512958
Nees 1
Wayne 0.7461030020442639
sun@@ 0.6799080156207639
Fun@@ 1
Gel@@ 0.7842570505757522
ake 0.6203271533841184
aus 0.019897861264990293
ẻo 1
Suối 1
sea 0.18319357409980627
Im@@ 0.3595845482907787
Junior 0.3878295472013399
Ah@@ 0.7999752051638634
neutron 1
Lasi@@ 1
atin 1
Athens 1
Ji 1
Wi@@ 0.6416348426968548
dar@@ 0.5426208242865997
tía 1
Pop 0.7427986709761425
Ax@@ 1
1828 0.8699831066762388
ạy 1
Heinrich 0.2917885453294589
Jun@@ 1
Kyoto 1
Sat@@ 0.8883350505004183
rapper 1
đớn 1
CO@@ 0.5273931071228497
tos@@ 1
ùn 1
450 0.9648262173621359
Vir@@ 0.7157299746369319
isi 0.8907579571910924
ye@@ 0.8438102577411128
Sag@@ 1
ria 1
rong 1
Cav@@ 0.9048654514510539
Russell 0.5859681306110088
Yas@@ 1
ack 0.44058106684213416
otica 1
Johann 0.224108152638983
TS 1
ska 0.9653878110632923
Şanlıurfa 1
Rau 1
Anthony 0.4605308672260819
Quay 1
kẽm 1
tưới 1
48@@ 1
Bretagne 0.7252116856111351
ifolium 1
α 0.588776381629428
May 0.05050168744284978
New@@ 0.5555985572809953
Nyc@@ 1
nhã 1
florum 1
gõ 1
ospermum 1
ński 1
Digital 0.6825881522940183
Thy@@ 1
ec 0.9808821982861246
ậm 1
Kis@@ 1
Tố 1
amino 1
q. 1
robot 1
ras@@ 0.6962515010419101
102 1
Miss 0.3926710488404319
ope 1
Địch 1
Mãi 1
ez 0.40525906802899875
Mario 0.5761897380080391
cop@@ 0.7587553733586809
Thai 1
tea 1
Cống 1
Mức 1
16.@@ 1
Max@@ 1
Prince 0.25379691735633675
odon@@ 1
Sun@@ 0.6512833992888108
eva 0.7644249718760598
wat@@ 1
úc 1
1835 0.7333402071049644
Buc@@ 0.9701808532718096
Cứu 1
Hen@@ 0.7905177322955486
ej@@ 0.6447328278437049
nọc 1
Luxembourg 1
Nghề 1
Greene 1
ứ 1
30.000 1
chớp 1
species 0.07526446653193188
Chinh 1
Jr 0.41303825337797434
biếm 1
omus 1
ui@@ 1
Cho@@ 1
Cấm 1
Din@@ 0.7762766014795214
Nỗ 1
Munich 0.7455848631409029
ếc 1
igu@@ 1
ỉa 1
mad@@ 0.7488242629056462
Benth 1
nhô 1
Gừng 1
yne 1
Be 0.7047853672877088
C1 1
wi@@ 0.6042728877476383
Blume 1
op 0.47861980355399675
François 0.26893101687645404
Wu 1
arium 1
lỡ 1
Shin 1
Award 0.11646956724033565
Potter 1
ido 0.29544093601594584
issa 1
Leningrad 1
Mand@@ 0.584334758780838
ướng 1
Hil@@ 0.7217068380791486
Kil@@ 0.5924239074530415
Koch 1
Mordellistena 1
Thậm 1
idi 0.8600728109532513
kiều 1
phon 1
thạo 1
Bak@@ 0.7612574863231119
Elaphoglossum 1
Next 1
novel 0.20831166517156716
Tillandsia 1
Land 0.18035987089316477
Phyllanthus 1
pent@@ 1
Las 0.09768171186989781
inf@@ 0.3731571681354856
laser 1
Ç@@ 1
hệt 1
iidae 1
quin@@ 1
Marvel 0.8007534788765092
Rob@@ 0.7267738408224628
Conus 1
Than 1
dioxide 1
Chuyện 1
Hexatoma 1
als 0.010596294154378665
elus 1
Road 0.13310730838386375
atha 1
cưa 1
rưỡi 1
talis 1
80@@ 0.9937989633081702
s. 0.875141224146186
190 1
Warner 0.6229372984573226
khanh 1
104 1
Manga 1
chan@@ 1
phả 1
ỏm 1
DJ 0.623702654830108
Eucalyptus 1
Kim@@ 1
Pur@@ 0.5281941453368537
Thuyền 1
but@@ 0.7456639498189959
ą@@ 1
Đột 1
Ball@@ 0.6128500101381932
SP@@ 0.5339119125557727
icia 1
wan@@ 0.658880746789523
Rồi 1
dol@@ 0.8592421321189515
hông 1
Ích 1
carpa 1
manh 1
Jacques 0.2825599221172322
mo 0.6347434453203841
Krym 1
大@@ 0.13985437845554424
ngủi 1
phen@@ 1
Roosevelt 0.93997928761102
thia 1
uv@@ 1
Mikhail 1
Xanth@@ 1
eau 0.15901950199584167
line 0.06395702953075245
đọng 1
Jin 1
Ryan 0.5353306934467744
fu@@ 0.6794577850497563
atica 1
ben@@ 0.39601356060792575
obscur@@ 1
4,5 1
Tach@@ 1
Echin@@ 1
Golden 0.35629609098244985
Lấy 1
Obama 0.961916326060195
acet@@ 1
ky@@ 1
tà 1
amus 1
heim 0.3506148855223589
teria 1
yris 1
Napoleon 1
arr@@ 0.42358619390170044
chen@@ 0.6948832178046596
Thịt 1
ew@@ 0.4675730419424441
eman 0.46451887459015145
8.000 1
Tok@@ 1
wan 0.8998252128853141
24,@@ 1
Cher@@ 0.9839389483139056
ff 0.392954015470575
1826 0.8697996731375883
Bướm 1
chanh 1
ris 1
sit@@ 0.8366149104057768
ako 1
lí@@ 1
ã 1
Bec@@ 1
Tà 1
abilis 1
Aleksandr 1
Med@@ 0.543218152564213
ect@@ 1
ks 0.16386229296059832
nhào 1
otrichum 1
Christopher 0.5546875781916751
adel@@ 1
phantes 1
Bed@@ 1
Miami 0.4565580014961724
Chiếu 1
Guadalcanal 1
Xét 1
Taliban 1
chr@@ 1
err@@ 0.4493607072953489
ier 0.2834477737397202
pyr@@ 1
Ann@@ 0.6532575766892723
Balkan 1
Thùy 1
enberg 0.3821042418861143
flor@@ 0.9851490338818393
ollis 1
prot@@ 0.5195700767143381
Philippe 0.46105779527511426
angensis 1
camera 0.8240544798283705
B.L.@@ 1
Bưu 1
Morgan 0.5370065927721559
Samuel 0.3833050697944913
CN@@ 1
côi 1
ban@@ 0.4489267700422802
huân 1
metal 0.2749017513658334
23,@@ 1
Hydropsychidae 1
Myrmeleontidae 1
asti@@ 1
cher@@ 0.6332818028169344
isp@@ 1
ophyl@@ 1
Mec@@ 1
olepis 1
ụng 1
Oxy@@ 1
nigri@@ 1
CA@@ 0.4897520634228144
Raymond 0.667363846638292
Tir@@ 0.8466000355522094
Toà 1
nạ 1
Yo@@ 1
Ner@@ 0.9217479214779437
plan@@ 0.4491113185007662
punctata 1
tella 1
Bun@@ 0.8992435577320382
Dàn 1
Tầng 1
vari@@ 0.9382282844475609
Hans 0.23835603662844562
Thôn 1
cày 1
uro 1
side 0.07032271299830989
Clubiona 1
Kevin 0.5115672459013837
chel@@ 1
cic@@ 1
AN@@ 0.7063843610954619
Arn@@ 0.9639292232499875
diaceae 1
mài 1
phosph@@ 1
tric@@ 1
Banks 1
dy 0.43109111170162395
thoi 1
tâu 1
Pha 1
erus 1
lận 1
uca 1
Jim 0.3657687453951559
bành 1
Kab@@ 0.9054816170702722
Pyrénées 1
Sematophyllaceae 1
TC 0.702176415321321
XVIII 0.5367453664027817
oga 1
oxy@@ 1
uti@@ 1
Dấu 1
Nelson 0.5517699015368158
onensis 1
Dây 1
AIDS 1
cọ 1
Maritime 1
inter@@ 0.10454574340670783
ọt 1
Phyl@@ 1
Fal@@ 0.6562776892728577
Anthurium 1
Chaet@@ 1
Hier@@ 1
Ichneumon 1
bes@@ 0.5382448148387325
Good 0.5300447448377478
Spring 0.7053147139020918
onius 1
rap 1
vuốt 1
Lucas 0.7672559442225455
³ 0.8164824392028838
HĐBT 1
lad@@ 0.9488020991669184
Wright 0.597561782945661
fi@@ 0.44665205162865906
Red@@ 0.43263001780528726
uch@@ 0.5948475566309178
Patrick 0.36564512056097825
Platy@@ 1
Sap@@ 1
ein@@ 0.10323626824635494
gã 1
gặm 1
olig@@ 1
Rider 1
Gur@@ 0.7777548949079162
Play 0.6022834548894451
Venezia 1
ges@@ 0.3749291201566361
iscus 1
rig@@ 0.891722097369634
Hãy 1
Nhung 1
25,@@ 1
All@@ 0.49754110717136385
oy 0.692503763725411
thầm 1
ìu 1
1829 0.8108123218227702
Nova 0.6813037212246775
kẹo 1
onlyinclude 0.4388329183839591
Santiago 0.3751424579818499
Thầy 1
chảo 1
odia 1
uchi 1
zh@@ 1
đạm 1
Nicholas 0.7050498063975218
Ae@@ 1
Hand@@ 0.6133353206290528
Kos@@ 0.7450801374686761
oo 0.8018043824008806
tim@@ 0.46948325868895574
tula 1
đẫm 1
Lec@@ 1
Schw@@ 0.4821677109349262
amin@@ 1
Jaeger 1
Warszawa 1
ú@@ 0.6103103482626865
Conidae 1
Rịa 1
Sk@@ 0.4598576144796034
tz 0.7936079631670099
yak@@ 1
Miếu 1
Rolling 0.8238664312081224
ado 0.05875273914295093
gran@@ 0.9090624916791235
50.000 1
Đồn 1
Blake 1
Peperomia 1
Power 0.37262247932186787
tata 1
att@@ 0.3389073751409746
rec@@ 0.17588484738467444
rò 1
gò 1
icta 1
lạp 1
oko 1
17.@@ 1
26,@@ 1
ance 0.16962851858637482
chuộc 1
coma 1
Af@@ 0.8279301530325623
Heart 0.5931023220447244
bén 1
Đương 1
Fran@@ 0.7991915731131684
Ot@@ 0.7820386173685069
Sphingidae 1
ais@@ 0.5671655585538748
ocar@@ 1
1820 0.5235687266284784
oan 1
Xu 1
crass@@ 1
Ju@@ 0.5079461844728295
Tóm 1
esi@@ 1
thu@@ 1
uss@@ 0.6971995601914986
Carter 0.5970686588145186
fil@@ 0.44233745978060074
kei 1
Dực 1
Lat@@ 0.7026926839326068
Tin@@ 1
phiền 1
ż@@ 1
20.@@ 1
Hôn 1
Lamp@@ 1
Nôm 1
port 0.18050375536137975
Aires 0.33150502118864983
Bran@@ 0.6263587573966073
Shim@@ 1
aru 1
ingen 0.27160965183450164
ord@@ 0.5641347491389157
rập 1
Khiết 1
Thử 1
V.@@ 1
omi 1
Điệp 1
Garonne 1
Men 0.2678419595311397
neri 1
Bac@@ 0.9707377898945432
Melbourne 0.3887479369101975
actylus 1
bẹ 1
insky 1
Darwin 1
PS 0.4059231884520904
Robin 0.7191331915288034
acus 1
mông 1
Nav@@ 0.7812820203787219
affinis 1
omy@@ 1
đũa 1
13,@@ 1
F.K. 1
usta 1
Hymenophyllaceae 1
Hảo 1
dồi 1
old 0.07815877183869217
ote 0.3840529751416093
ộng 1
Batman 1
Bell@@ 0.7298389145495614
Ngu 1
cởi 1
ple@@ 0.5375453806828622
Son 0.13289933926835282
UN@@ 0.544844885622609
Buenos 0.3291368069334029
Fl@@ 0.3641018171177917
ngoặt 1
nitơ 1
1810 0.7538072912776891
Eup@@ 1
Myanma 1
ear@@ 0.5803246651412072
rei 1
ụt 1
Hoá 1
7.000 1
Tho 1
Đắc 1
ẫu 1
Thuộc 1
achne 1
foli@@ 1
27,@@ 1
Bundesliga 0.5214740018324919
Ea 1
cha@@ 1
âng 1
Barbara 0.5621488815901758
Hap@@ 1
115 0.9746140610020484
CA 0.4968861411811276
nam@@ 0.8609735458203943
Cruz 0.42884940240450536
anii 1
É@@ 0.24903766448526735
gem@@ 0.47032213602820394
phồn 1
uyến 1
War 0.055017056145887824
ineata 1
oro 0.369966766476161
Fantasy 1
Levi 1
Shu@@ 0.965685489368974
Somalia 1
Dận 1
aa 0.8646138068745977
etti 0.3281154851875598
Nhã 1
Namibia 1
aster 1
gu 1
18.@@ 1
Ontario 0.30669038357247597
tae 1
Shah 0.8792638978233354
nan 1
oku 1
đè 1
Lắk 1
ag 0.5749926346046255
Cuồng 1
Lei@@ 1
Lombardia 1
PA 0.4965764127073449
din 0.7025520288538101
chin@@ 1
anta 0.9054246303939502
ovsky 1
liễu 1
nham 1
sonia 1
éo 1
ā 0.809183385590955
Nebraska 0.8423499427205984
Santo 0.6312652191080228
atsu 1
ipes 1
「 0.06921158356046951
MP 0.4376699316042641
tẩm 1
Bang@@ 1
Harris 0.5126004077910482
Home 0.300937153525775
alba 1
hop 0.7538764068661188
oneura 1
ễu 1
etum 1
mắm 1
Ardisia 1
iger 0.33226224766344015
line@@ 1
olis 1
」 0.06904980826853577
Inter 1
bin@@ 0.7091824167724725
model 0.17680956333123382
IS 0.7871482307257439
Madison 0.7661164055199521
che@@ 0.6112446210583734
thệ 1
xô 1
ùa 1
Adi@@ 1
lim@@ 0.7712853760919667
hăng 1
n.@@ 1
porus 1
Tiger 1
ash 0.47277957452442765
bass 0.5813263214134878
nem@@ 1
thy@@ 1
uensis 1
argent@@ 1
HLV 1
Habenaria 1
Tennessee 0.39663951517821566
Tokugawa 1
tor 0.2994593223626497
zu 0.011350090480346789
Gabriel 0.4979638230243266
Latvia 1
Einstein 1
Hag@@ 0.7944276771596746
Lord 0.20027519398882898
dur@@ 0.5666888757409009
khiêm 1
Lyon 0.4509923878018893
Nat@@ 0.7353879079306342
Nhâm 1
Rồng 1
Tạo 1
aspis 1
igh@@ 0.6742085320703765
imb@@ 0.9570001789898607
IP 0.7234118400718649
Sâm 1
w. 1
19,@@ 1
Cù 1
Boiss. 1
Prom@@ 0.8437404314416908
giã 1
Lith@@ 1
Mũi 1
Milano 1
Ralph 0.7886424744312108
ino@@ 1
kiêu 1
yphantes 1
O. 0.7988477096825856
Zambia 1
palli@@ 1
Chor@@ 0.680308634208758
xay 1
Adolf 0.5911704307461295
Dị 1
wil@@ 0.9901447551518605
CHDCND 1
} 0.3796403035942232
Euxoa 1
Solanum 1
ity 0.11341226227053827
margin@@ 1
Đón 1
IC@@ 0.5802457182360995
Khâu 1
huy@@ 1
oliv@@ 1
tủy 1
22,@@ 1
Lối 1
lidae 1
otro@@ 1
111 1
giọt 1
fili@@ 1
ishi 1
publ 1
Bet@@ 0.6888101869394304
Web 0.9005855542180632
Marcus 0.8451597689821913
poda 1
Sankt 1
actyla 1
ữu 1
113 1
Ji@@ 1
Kō@@ 1
eca 0.9540339664957942
purpur@@ 1
Tòng 1
amm@@ 1
eki 1
hip 0.46839049704547636
tul@@ 1
107 1
127 1
China 0.09454865897404145
Den@@ 0.5504742858686691
Mill@@ 0.8965645547068917
cun@@ 1
ruf@@ 1
Bruchidae 1
Fu@@ 0.8829742458931695
Gag@@ 1
Jimmy 0.5145173523842451
Kepler 1
Pterolophia 1
aden@@ 1
eon@@ 1
maculata 1
xé 1
Mitt 1
Tric@@ 1
Buôn 1
Kul@@ 0.7706760238983211
Nàng 1
Standl. 1
Sum@@ 0.7472379102417751
bón 1
Anthicidae 1
Lon@@ 1
any 0.058373406117567174
20,@@ 1
Haw@@ 0.9729832374310372
Muricidae 1
jav@@ 1
proton 1
李@@ 0.29580455591943516
J.J.Sm. 1
Mân 1
Scot@@ 1
106 1
bit@@ 0.6007342242325165
eana 1
kor@@ 0.708930265683865
Luis 0.239184553956292
adr@@ 1
enti@@ 0.3287102354292194
entr@@ 0.30808831895112465
na@@ 0.9609149388853153
that 0.0044309968125536186
14,@@ 1
240 1
Gun@@ 0.7512260196567402
Post 0.25377346436291914
osh@@ 1
Association 0.09298634665055204
Blechn@@ 1
Thoại 1
Lor@@ 0.488404399826545
Min 1
Story 0.6355954870565534
ident@@ 1
kur@@ 0.48783732860990076
Hựu 1
Ish@@ 1
Rod@@ 0.7283924248395043
Tốt 1
ữ 1
Dig@@ 1
Fort 0.22407735113414268
ert 0.17753759423025586
ASEAN 1
Tồn 1
Uzbekistan 1
phò 1
Lig@@ 0.7233608281631866
Sivas 1
lich@@ 0.7642255557158388
ể 1
Orange 0.581596432491384
Sharp 1
brachy@@ 1
AP@@ 0.6299221664163273
Maya 1
ory 0.29522945079407553
1500 0.45932884178401034
46@@ 1
Ali@@ 0.6862373709800479
Bog@@ 0.7441205529397017
Dụng 1
IBM 0.8837708218622273
pau@@ 1
Chir@@ 1
Pleur@@ 1
pH 1
xói 1
Type 0.636413899915612
Medvedev 1
sáo 1
xí 1
not 0.014084489239151116
Mac 0.7291037003893237
Megal@@ 1
Neo@@ 1
alli@@ 1
onom@@ 1
Fi@@ 0.44160680491619814
Sea 0.26418207267363164
oper@@ 0.4663987189995172
tium 1
váy 1
Kay@@ 1
gục 1
hán 1
pod@@ 1
lı 1
AP 0.5112702963801364
Chrysopidae 1
IUCN 1
X. 1
nhát 1
ộ 1
Paraguay 0.892587522434804
australis 1
his 0.005477197993555549
tăm 1
Luận 1
Manuel 0.28456908624617566
ọi 1
128 1
agrion 1
bẩm 1
egia 1
oanh 1
王@@ 0.2929375150735768
Juventus 1
bon 0.5743253505616692
lở 1
ès 0.3800525560490201
đắng 1
1.500 1
103 0.9570378735083616
1806 0.6970212309876851
Apollo 1
ạnh 1
55@@ 1
Bấy 1
Charlie 0.5418531080704799
Mobile 0.88116854901512
Tul@@ 0.9885009263004897
200.000 1
A1 1
Ye@@ 0.9911372188944269
esa 0.2370928019250018
issus 1
Kak@@ 1
Sm@@ 0.9838565766941203
ern@@ 0.3933948696496926
hen@@ 1
nghiền 1
Vincent 0.49978813713568276
alp@@ 1
Hindu 0.8562170571255394
d. 0.8246688121604593
ina@@ 1
Ich@@ 1
Phal@@ 1
eriana 1
yrus 1
21,@@ 1
Bil@@ 0.5118468760861037
Nhiếp 1
TVB 1
onyx 1
Lạnh 1
Nevada 0.7111230231943463
trừu 1
Sci@@ 1
phi@@ 1
Carey 1
Viêm 1
ostr@@ 1
ợn 1
Tát 1
rét 1
Thang 1
orientalis 1
Eul@@ 1
Sang@@ 1
Trục 1
bôi 1
cher 0.22998023537901266
ocol@@ 1
trọt 1
Calais 1
dỗ 1
Netflix 1
Newport 1
buồm 1
Haiti 1
Jura 1
ias 0.760973151406014
kam@@ 1
xảo 1
hin@@ 0.38846777857108317
Scincidae 1
Xác 1
hormone 1
kab@@ 0.8750991628695527
Bội 1
Cook 0.6814442715653187
Festival 0.11638963122289059
Hypnum 1
Jam@@ 0.8157888699213072
Son@@ 0.630484226978494
ill 0.23285489447093052
áu 1
ř@@ 1
王 0.4539335204987506
Aleyrodidae 1
Sarah 0.4619395653002634
cúm 1
file 0.7518407538909704
André 0.3800377797810023
tem 0.5128947591815618
tot@@ 0.6040565717781926
Duyệt 1
Tortricidae 1
Z. 1
ado@@ 1
giục 1
vus 1
1.5@@ 1
Thỏa 1
góa 1
ille 0.3420577474942503
ister@@ 1
Bir@@ 0.42532587689249424
Dĩnh 1
Edo 1
Khôi 1
Melanotus 1
Rem@@ 0.43308455663336126
estris 1
ND 1
chii 1
ud 0.8903099066588561
Pays 0.4747345001089061
Pyotr 1
kan 0.8897249564780114
then 0.02806028697541223
Mut@@ 0.6366862726298459
19.@@ 1
Coni@@ 1
Ja@@ 0.9852643331615517
Vill@@ 0.6062676408548342
alo@@ 1
emon 1
ỹ 1
more 0.022848690117988395
osis 0.48748595581296666
ellia 1
nes 0.3316333817042464
uru 1
vóc 1
65@@ 1
gun 0.31037764193212924
our 0.15462702905923262
Endomychidae 1
Gran@@ 0.5102243520635547
Tsu@@ 1
rufic@@ 1
we 0.12201788332916669
40.000 1
Cú 1
Sai 1
bergia 1
bong 1
Chăn 1
amar@@ 1
bú 1
1801 0.7820997261315455
brevic@@ 1
camp@@ 0.9652735919881248
var. 1
Chr. 0.4897993524924763
eck@@ 0.6702829195593442
eriaceae 1
Đăk 1
Boys 0.47568124822235186
Budapest 0.7587683941686119
Hab@@ 0.7716880990342978
gensis 1
AR@@ 0.4204131763295683
GB 0.8654061887866228
Vil@@ 0.5808076606363909
cot@@ 0.7777600007798597
far@@ 0.4517734482068286
ưởng 1
Han 0.6042465487027725
Mass@@ 0.6453390496964695
Pis@@ 1
chọi 1
jazz 0.39166785322457465
léo 1
chày 1
isia 1
Iz@@ 1
Phêrô 1
bẩn 1
nigric@@ 1
pon@@ 0.5525796268625163
rap@@ 0.4376254802946459
Helic@@ 1
aem@@ 1
barangay 1
Diospyros 1
Santos 0.7061690664062443
khoảnh 1
oán 1
Brandenburg 0.7751116191373687
Cab@@ 0.611254775416541
Key 0.885744555200224
Quỳ 1
dro@@ 0.8791067734062945
dy@@ 0.8381613276403196
hom@@ 0.34353445533064997
inga 1
proc@@ 1
Lev@@ 0.6120078759284147
Roy 0.48978079558428583
diesel 0.9713729634330235
gieo 1
muỗi 1
Intel 1
Kag@@ 1
Müll.Arg. 1
Carthage 1
paria 1
suýt 1
way 0.06656207548648117
AL@@ 0.5226588068589569
1812 0.5477007478088032
HQ 1
inella 1
pallida 1
Cham@@ 1
Jason 0.5621235691766073
base 0.08386563025688218
plus 0.02040115289340614
đởm 1
aculatus 1
1789 0.7931327473774096
Pog@@ 1
Rich@@ 0.8676666845988741
Sou@@ 0.5118948923794795
Wo@@ 0.580667015625492
Phải 1
Sen 1
brun@@ 1
Andy 0.5578380713644195
Đáp 1
Bismarck 1
Kaw@@ 1
Assyria 1
Khủng 1
Loạt 1
Odon@@ 1
Coc@@ 1
lag@@ 0.5003921880057413
Dry@@ 1
ID 0.951622002408807
Rhynchitidae 1
Thám 1
Uyển 1
pon 1
thidium 1
yon@@ 1
Hook@@ 1
Maryland 0.379759730116682
Thuỷ 1
any@@ 0.8049075185623065
ngươi 1
vo 0.5971960314109535
Ka 1
Kane 1
clav@@ 1
vul@@ 1
Đèo 1
Ấp 1
Y. 1
court 0.11885526784835782
emer@@ 1
tỉa 1
Arena 0.4843924375429902
phà 1
ỷ 1
Og@@ 1
Silva 0.80102816282186
bẻ 1
h. 0.9177600296818429
jan@@ 1
kèn 1
Amsterdam 0.5093422395029622
MW 1
1802 0.829859718722118
Aragon 1
Kelly 0.4715212093621718
Light 0.41445787844161536
Saône 1
Tung 1
montana 1
nộ 1
sập 1
Đấu 1
Like 0.33376736009962477
Pandanus 1
ck 0.5049069642248804
dav@@ 1
mang@@ 1
oxit 1
210 1
Ngà 1
System 0.21172038341555718
What 0.40470096804205985
lề 1
Gordon 0.4042017313386148
Leo 0.6075988145240461
Malawi 1
Mog@@ 1
Steven 0.7162177969034533
Tờ 1
1.4@@ 1
112 0.938982660783986
APG 1
Hiểu 1
onum 1
2.0@@ 1
Bhutan 1
Tab@@ 0.6443994252733467
dưa 1
kìm 1
radi@@ 0.39694850498182827
PT 1
Alc@@ 1
Britton 1
Cour@@ 0.5919017083420962
Dream 0.7523451060688081
Parthia 1
mitis 1
ī@@ 0.565837789354471
rup@@ 1
Yak@@ 1
cephalus 1
toa 1
Pan 0.6241260174383428
Walt 1
gens 0.6422155271980171
ick@@ 0.4617414892699141
135 0.9323713717918861
Ngưu 1
Po 1
chìa 1
inii 1
macul@@ 1
sec@@ 0.3938158447712872
US@@ 0.3893165209333692
cò 1
Neur@@ 0.7759588595660867
eata 1
lav@@ 0.7397959404556412
ome@@ 1
you 0.13954098926186215
lon 1
oderus 1
angusti@@ 1
ier@@ 0.3761347704504126
niti@@ 1
osperma 1
Universal 0.5271849043937502
ophoridae 1
Dim@@ 1
HCM 1
Habsburg 1
Kuwait 1
Thâm 1
1821 0.6336116891239112
44@@ 1
Chư 1
Gy@@ 1
Mộng 1
Nick 0.49597708354618764
anz@@ 0.31332366917052307
gaster 1
inosa 1
đừng 1
ướu 1
ABC 0.42290201924123166
aro@@ 1
jeunea 1
lõm 1
otrich@@ 1
1.6@@ 1
chè 1
dấy 1
lit@@ 0.6005248279122224
otom@@ 1
152 1
49@@ 1
Bolshevik 1
Honduras 1
Pteris 1
Schiz@@ 1
Semiothisa 1
acul@@ 1
dạo 1
ism 0.1346404941852199
orph@@ 0.9827704949718427
rium 1
Sóng 1
Tán 1
diệu 1
feld 0.31947397862204474
Cổng 1
Nhuận 1
aly@@ 1
vựng 1
ệc 1
Navás 1
Ross 0.4447531677672259
Sahara 1
Stein@@ 0.29526739008651526
land@@ 0.2919296981392565
thium 1
Nổi 1
aux 0.025124587003130163
bóp 1
Dark 0.6028537711461887
ngạch 1
thềm 1
yridae 1
anti 0.15574716441342934
Mall@@ 1
Xysticus 1
căm 1
điểu 1
dale 0.49813627315932335
21.@@ 0.9473595576963797
Aer@@ 0.9572819558434402
acia 1
dus 1
lar 0.3086516093490084
ono 0.8492905181784888
28,@@ 1
DE 0.899393885151272
Luke 0.7317098899026665
Salvador 0.5417155988036069
cip@@ 1
lot@@ 1
ée 0.05435258778682462
đắn 1
Delhi 0.6333826072893862
Euph@@ 1
German 0.07089096736674796
crassi@@ 1
tiana 1
Đáng 1
State 0.0478197283346832
XVII 0.5997297258925169
elius 1
loan 0.4528098177620372
nov@@ 1
‎ 1
Rat@@ 0.5612973032192359
chn@@ 1
dơi 1
ịt 1
obiidae 1
Eum@@ 1
Ngọ 1
Cog@@ 1
Cẩn 1
Yosh@@ 1
lừng 1
rosa 1
tre@@ 0.43332492673145256
bấm 1
ngà 1
nuốt 1
ouv@@ 1
Benjamin 0.4452890600481567
Cyperus 1
Kus@@ 1
Đ 1
AR 0.6867556436194284
Timor 1
lob@@ 1
Van@@ 0.74885117601243
phượng 1
Bom@@ 1
Pachy@@ 1
kat@@ 0.5624381858367247
oleon 1
pall@@ 1
elli@@ 1
nati@@ 1
500.000 1
Brachy@@ 1
Gro@@ 0.473403217036161
Thor@@ 0.7072991143759897
frazioni 1
ệu 1
Giovanni 0.5180804812314319
Hamburg 0.27861869308470166
Kl@@ 0.38680309764421666
Phép 1
Hangul 1
TO@@ 0.9571026983244941
ballad 1
has@@ 0.6897403964446579
320 1
Dã 1
Fissidens 1
Sit@@ 0.8841986954721671
gium 1
Hồn 1
mir@@ 0.9685331558673208
Đang 1
Dan 0.4422060445334788
cam@@ 0.6040996932464691
phẫn 1
Hit@@ 1
cẩm 1
200@@ 1
Ia 1
Lox@@ 1
Nghi@@ 1
càn 1
nan@@ 1
Cyatheaceae 1
Mariana 1
Project 0.344575038637886
eno 0.5907630388961647
plic@@ 1
1,3 1
Arach@@ 1
Plagiochila 1
ju@@ 0.5070974492531528
ū 1
opterus 1
web@@ 1
yeon 1
Miy@@ 1
manni 1
Venice 0.968636534686365
AC@@ 0.5172756970695009
Màn 1
Afr@@ 1
Piedmont 1
Vienna 0.5631418273271775
enc@@ 0.23098076778342982
70@@ 0.9240500797175889
Shar@@ 0.7388406641138605
Yuri 1
750 0.7542531618579348
Abraham 0.623458203982005
Allo@@ 1
Cầm 1
Món 1
andi 1
area 0.03892593641499099
panchayat 1
rus 1
230 1
Anom@@ 1
K.Schum. 1
Lennon 1
Meli@@ 1
Sky@@ 0.8807232805430798
Stewart 0.4816429683947009
dance 0.29276352119130167
urg@@ 0.9769092494408566
wi 1
SA@@ 0.5428161700013204
dở 1
iPhone 1
15,@@ 1
Zero 1
aceum 1
ocen 1
Caroline 0.6505643752243704
Eury@@ 1
Forbes 1
Montenegro 1
Oliver 0.5277043141161992
ns 0.27324187677644957
obtus@@ 1
1,8 1
Inter@@ 0.17209651963505063
nhúng 1
thoáng 1
ượng 1
Elmidae 1
ace 0.3324641588508065
liu 1
Augustus 1
Centaurea 1
Murray 0.48602335758430953
Phạn 1
Rhyacophila 1
lora 1
wo@@ 0.5548558148548411
Bohemia 1
Hum@@ 0.5426627587280315
Kastamonu 1
Wolf 0.5626334325820338
hoi 1
orn 0.6600964413653309
sac@@ 0.9359160745305902
Au@@ 0.5253184881095052
Khuy@@ 1
wa@@ 0.4979616271897797
Cyrtandra 1
Samoa 1
bu 0.14355722097337156
cir@@ 1
ili 0.5803163752968657
our@@ 0.38369398267307864
Foundation 0.22084552634591528
Miconia 1
Ngộ 1
Tottenham 1
elip 1
Leon 0.8951983357961176
Miz@@ 1
Titan 1
To 0.13486540795871374
Xi@@ 1
Dong 1
Paras@@ 1
Pul@@ 0.6730165712244573
ẹp 1
16,@@ 1
Aleyrodinae 1
Luther 1
Ptolemaios 1
wo 0.09039444027425862
ère 0.18856124265236154
Christ 0.3615315483294806
Jay 0.6069603427716199
Office 0.22626244310352067
Tap@@ 0.9266717344820747
chip 1
fasciatus 1
peti@@ 1
Gram@@ 1
Alpha 0.9299646745095208
Fin@@ 0.40795057410857144
Zor@@ 1
arus 1
rộn 1
Idi@@ 1
Ngạc 1
đùi 1
bỏng 1
ei@@ 0.7053709327452036
forme 0.14423982480059408
orth@@ 1
Ất 1
Monte 0.5389379118637148
kh 1
Erythro@@ 1
Ton@@ 0.43540461407038467
Wood 0.4892930248799188
orpha 1
đặn 1
ờn 1
1,6 1
144 1
Macrom@@ 1
Racosperma 1
Sph@@ 1
ogen 0.709129501140685
Art 0.08264173839701641
Fur@@ 0.6575058006432425
Robinson 0.4894265731009448
achys 1
alt@@ 0.3231366366577976
lơ 1
mophila 1
SO@@ 0.6026148937092565
That 0.1944969615682945
uyện 1
August 0.029597945239858744
Giê 1
Hylaeus 1
ISO 0.9112881416606264
Nixon 1
Singles 0.3777220045562532
ariaceae 1
cili@@ 1
emb@@ 0.3618619859373432
Corse 1
Crotalaria 1
Nhì 1
cro@@ 0.5058671505201487
alg@@ 0.6171090082638143
lén 1
Chưởng 1
Line 0.18737366610808148
Nord@@ 0.23839601233431273
blog 1
eda 0.9443275451923643
xáo 1
Dipl@@ 1
iku 1
AK 1
eff@@ 0.4850944629191698
mạ 1
nguyền 1
Aspidium 1
Frankfurt 0.3477028609683156
Galium 1
Glo@@ 1
Hạc 1
pharaon 1
± 1
ë 0.8411215887713243
280 1
Out 0.37492947130320614
THPT 1
CO 0.6718270902675643
zh 0.5444281133780667
ören 1
đúp 1
Lên 1
Nas@@ 0.688979781007374
Way 0.4943150578857473
grandi@@ 1
hat@@ 0.7846620586631659
sanh 1
Austin 0.4668027962305665
Baz@@ 1
Chẩn 1
apa 0.7794640309012971
lắc 1
ocerus 1
Cừ 1
Nhưỡng 1
Shaw 0.8533050060437729
Toản 1
Seattle 0.45163460884813816
esis 0.950592632473348
AM@@ 0.503383514007916
He 0.007993285659969315
Wittmer 1
equ@@ 0.3989635515759131
gor@@ 0.9907065702637174
plum@@ 1
sos@@ 1
tủ 1
Dactyl@@ 1
Ses@@ 1
lem@@ 0.5752494485096229
Xử 1
ater@@ 1
ington 0.34840167751519824
Lem@@ 0.5883632025363641
Nomada 1
census 0.1516171138344441
keo 1
phô 1
Cyc@@ 1
Evans 0.5533173554628482
anthe 1
Nicaragua 1
simplex 1
tr 1
ess 0.20538868086396603
nad 1
Phoenix 0.6104673769140234
TT 1
Valencia 0.5783481642358035
ett@@ 0.506718378621843
khiếm 1
mb@@ 0.7206263570121996
Ast@@ 1
Castro 0.7293374688161852
Sports 0.23757053507558515
lăm 1
ster 0.2439348170470456
Louisiana 0.472055739842107
light 0.12477546115500758
tag@@ 0.7877516275030049
Cardot 1
Dum@@ 1
ling@@ 0.6691730032630675
Graham 0.503294332902493
Ray@@ 0.8711575939682671
Trinidad 0.9972920706816535
kiếp 1
Gir@@ 0.610783339114403
Jang 1
Matthew 0.5309869552375666
Roman 0.12015168367649376
hydro@@ 0.7252604300208729
ostigma 1
1805 0.779820034352911
AU 1
Michel 0.27297642227906055
Thảm 1
cọp 1
imi@@ 1
mùng 1
nit@@ 0.9057640715175993
vid@@ 1
Kamen 1
Tráng 1
unga 1
Neph@@ 1
miên 1
rog@@ 1
sey 0.543380503463667
õ 1
Trạng 1
tết 1
đố 1
Cousinia 1
cover 0.18369187862180145
gly@@ 1
nại 1
Fernando 0.34627325841175993
Liv@@ 0.7560043642900339
Sant 1
mani 1
ö@@ 0.273466786878493
Cự 1
Global 0.4128509781094206
Gn@@ 1
Women 0.12597156835327783
bỗng 1
lossum 1
Wii 1
aren@@ 1
khao 1
omb@@ 0.8399442630278349
đấm 1
Central 0.0912557994488094
Gold@@ 0.46197770160075613
giàn 1
hex@@ 1
AT@@ 0.5282369006303559
dào 1
els 0.13090452824965468
mau 1
5000 0.6110791442263607
Sái 1
Ut@@ 1
eb 1
super@@ 0.19577409911319987
Indigofera 1
Mesochorus 1
Wol@@ 0.4430934160230616
epis 1
né 0.0896620121362186
Agrotis 1
Had@@ 0.6880199404029753
Ken 0.6722354425278212
xẻ 1
AN 0.8549305204357036
Charlotte 0.42407159710746267
iflora 1
vờ 1
Ther@@ 0.791737736421401
Florence 0.5711309197645015
acer@@ 1
mak@@ 0.6826110138480024
pas@@ 0.3054787027763956
răm 1
17,@@ 1
Newcastle 0.7138979303969154
Scap@@ 1
Square 0.3655971185521406
air@@ 0.2859229153546962
medi@@ 0.38763455010438214
topo@@ 1
ọa 1
mày 1
obia 1
utt@@ 1
1819 0.7398286459074086
22.@@ 0.8855449796068464
Calyp@@ 1
phis 1
Cha@@ 1
ệp 1
Chin@@ 0.894245425086358
Oh@@ 1
gram 1
odor@@ 1
usi@@ 0.7627645179163417
Cairo 1
Dermestidae 1
Enicospilus 1
Jacob 0.44707887271925595
Nokia 1
RO@@ 0.6341957553841923
eh 0.5218184348651074
oscel@@ 1
ran 0.14608460343028662
ười 1
57@@ 1
Crassulaceae 1
Festuca 1
Gymno@@ 1
Sỹ 1
able 0.04032028030156572
ghen 1
nano 1
neg@@ 0.648282690003648
Cameron 0.7989217442944547
Schimmel 1
Stockholm 0.6182196002834781
Air@@ 0.6043052867191266
Denis 0.5830100074049778
Mete@@ 1
Shō@@ 1
ast 0.2882664484238112
lès 1
rom 1
ím 1
L.B.Sm. 1
soi 1
29,@@ 1
Cặp 1
Tat@@ 0.7491925958878748
Trải 1
Warren 0.5597577845829775
54@@ 1
90@@ 1
Janeiro 0.6601012287637811
Kang 1
iOS 1
ocephala 1
ret@@ 0.43306114823897535
ularia 1
Ing@@ 0.48484792378625474
Isch@@ 1
doc@@ 0.8403844842271911
ticum 1
ãnh 1
→ 0.7539331031057626
Athena 1
icensis 1
phar@@ 1
thóc 1
260 1
Hak@@ 0.8654073611797648
Pad@@ 0.8042131955031008
Phanxicô 1
atis@@ 1
meri 1
ochr@@ 1
Eus@@ 1
Fus@@ 1
Goni@@ 1
Nhược 1
nium 1
r. 1
rac@@ 0.5985856615259539
rel@@ 0.28946308691297556
uga 1
Drepan@@ 1
Hoff@@ 1
Lò 1
email 1
trix 1
Bi 1
Bo 1
Constantinopolis 1
alpha 1
gro@@ 0.5505186452624544
hẻm 1
idia 1
xua 1
Ho 1
Hun@@ 0.6883940041906671
Sas@@ 1
Ưu 1
Cou@@ 0.5797614100125703
Ha 0.499102755656839
Psil@@ 1
Will@@ 0.6903737339166024
Zo@@ 0.6076422013224301
agr@@ 0.5996263651803636
mun@@ 1
Lo 0.6892706348403813
edia 1
icea 1
spin 0.8016314801945024
1,4 1
1.7@@ 1
búa 1
ros 1
sớ 1
xu@@ 1
Chủng 1
cọc 1
kẹp 1
rạc 1
Án 1
õ@@ 1
úa 1
1818 0.6442053442394592
Iberia 1
chài 1
egium 1
lau 1
luc@@ 1
15.000 1
aug@@ 0.6276671230823926
olobium 1
Luzon 1
chinensis 1
oth 0.7038138981353479
Chưa 1
Eure 1
Jur@@ 0.6014223406064437
Linnaeus 1
Minas 1
utus 1
Lặc 1
Mang 1
Stor@@ 0.7609093719384188
1.8@@ 1
Bahrain 1
Sad@@ 0.7415778739707358
ire 0.2600127248750974
trượng 1
Fiji 1
Fiss@@ 1
CPU 1
Cic@@ 1
Rum@@ 0.7660397097393362
Wer@@ 0.37164781181151885
hab@@ 0.5000057827874375
hal 1
lít 1
sồi 1
tes@@ 0.6056767620599985
thối 1
Diplazium 1
Dixon 1
Kentucky 0.361792819386119
Wall@@ 0.5172310731501503
mía 1
nhặt 1
nhồi 1
trunc@@ 1
43@@ 1
Hemer@@ 1
Montgomery 0.8127661096987956
eles 0.8424548057993477
gởi 1
ngói 1
Agro@@ 1
Daily 0.477552719676096
teri@@ 1
ộp 1
18,@@ 1
Raw 0.9983666903848184
00@@ 0.5758199746269971
Cephal@@ 1
Mali 1
Sound 0.44056074383639166
alar@@ 0.5591824305083218
oj@@ 0.9724875189004264
Gothic 0.9487345125204741
Sarawak 1
Vor@@ 0.11482549842965684
alpin@@ 1
chạp 1
net 0.28316242899343114
1,1 1
Airways 1
Trợ 1
agon@@ 1
hynch@@ 1
rosia 1
1815 0.4798558789162543
itar@@ 1
117 0.9712895570049966
Lindl. 1
McCartney 1
ardi 1
diana 1
tẩu 1
wer@@ 0.30329935709172506
win 0.0829100957184752
Palau 1
giông 1
quạ 1
BTS 1
Mecklenburg 1
Nikolai 1
Stanley 0.4296155592068839
fre@@ 0.29308979081244696
Bernard 0.33771881876204796
Württemberg 0.581107234850466
chen 0.1864949192914613
iti 0.8434011159421936
omi@@ 1
Oli@@ 1
aja 0.6574109631312172
anch@@ 1
enz@@ 0.275511950969693
igny 0.7569790039796287
mò 1
ris@@ 0.628375922859668
vả 1
yle 1
Sherman 1
occidentalis 1
ưởi 1
Strand 1
Č@@ 0.7149396040744157
Chap@@ 0.7523456648283265
Mitchell 0.5332782578134422
parvi@@ 1
Atlanta 0.37371593222544847
Dĩ 1
Slav 1
lus@@ 0.6321932779760583
Vis@@ 0.5213162098903064
ròng 1
time 0.015930759723395038
155 1
Cyan@@ 1
Georges 0.34472002271094654
Land@@ 0.16649774701883213
Tetragnatha 1
báng 1
eros 0.33803493619428343
nica 0.9609340609378484
Jonathan 0.5031297865911104
Tec@@ 1
Ale@@ 0.9912575154399164
Koz@@ 1
gy@@ 1
CEO 0.4372261540204805
Dil@@ 0.9878549545454296
FF 0.876143777859644
Him@@ 1
Orthotrichaceae 1
Reg@@ 0.2764718252960604
Tag@@ 0.6454441166377475
icul@@ 1
Matt 0.4493394756199625
Polystichum 1
Vas@@ 0.5900913378317645
Wild 0.5574168694724158
has 0.008950649479018292
yến 1
Ô@@ 1
Byr@@ 1
Ob@@ 0.451628221924405
è@@ 0.48890226195696745
Shimoga 1
nin 0.1851156958933593
sz@@ 0.9236816161742717
vỗ 1
58@@ 1
Chan 1
Vernonia 1
eu 0.21836736576797275
hynchus 1
End 0.45170374274004393
FM 0.22453718766473907
Tể 1
eshow 1
qui 0.010916599333486782
worth 0.2513787316546112
Đống 1
Acr@@ 1
Lucanidae 1
Nay 1
Johannes 0.31500249706279904
Sparta 1
chậu 1
Đổi 1
IC 0.49688269313345634
Jungerman@@ 1
Nord 0.1459178026177575
Rwanda 1
Virgin 0.632065245147201
giêng 1
mậu 1
« 0.004779995783934134
ẻ@@ 1
Ốc 1
Mandya 1
Net@@ 0.7940134500668445
Songs 0.38802998908866126
ces@@ 0.8830730821844818
gul@@ 1
Nghe 1
bơ 1
270 1
Hunter 0.5748580078034523
Oklahoma 0.39154612599323746
Thìn 1
cưng 1
Rhin@@ 1
igi@@ 1
nga 1
ĩa 1
Bus@@ 0.4249509565722377
Chryso@@ 1
Hot@@ 1
Thì 1
skii 1
đo@@ 1
Est@@ 0.4043214033271777
ble@@ 0.7567575535427199
eb. 1
ectus 1
esh@@ 0.46713766849634425
leyi 1
castan@@ 1
Genève 1
Justin 0.7549572102394579
Rhododendron 1
Wat@@ 0.7146163127796215
amin 1
axis 1
kíp 1
vá 1
CC@@ 0.6014713612032413
Fri@@ 0.6564469575840034
Friese 1
Anc@@ 1
Calam@@ 1
adenia 1
apicalis 1
sl@@ 0.3721136302488456
126 1
Greenland 1
Hay 0.6063423659472323
Charente 1
Gold 0.23294443497849213
Miguel 0.2922483426140603
Octavius 1
riv@@ 1
Aug@@ 1
Chrom@@ 1
England 0.06411485005757724
Glenea 1
orr@@ 1
thoả 1
Dou@@ 0.7480344330801738
arch@@ 0.35015802523451395
die 0.0023624294596334664
ding 0.2257195233945702
sik@@ 1
Ain 1
Dasy@@ 1
Syl@@ 1
Wa@@ 0.5036618829177005
andro@@ 1
gel@@ 0.20926464199482323
its 0.010430167445390036
my 0.1677274364895862
sing@@ 0.7304843957737669
gene 0.4052048626288996
kel@@ 0.3950192662258041
see 0.09313528791585496
Fo@@ 0.4744560337543193
Gilbert 0.5557385661057769
Kap@@ 0.45547606183912126
Mug@@ 1
Mysore 1
Ranh 1
ople@@ 1
sho@@ 0.5163889042746976
1814 0.5083317536114886
Boc@@ 1
Danube 1
Laur@@ 0.554062538133008
clar@@ 0.8505779164624078
ectes 1
fon@@ 0.5556601489607075
low 0.0969201402799335
ting 0.08233580873308097
1804 0.7360905170045315
Aul@@ 1
Bra@@ 0.7673730331677928
Germain 0.9137308000697683
Kut@@ 1
Mùi 1
Ron 0.6832108278231711
Sắt 1
USA 0.12408616903143689
Urban 0.6212299551396115
Zen@@ 1
phì 1
roa 1
1822 0.6682259713194382
Dạ 1
Perdita 1
big@@ 1
leuco@@ 1
tua 1
CCD 1
Plec@@ 1
hydr@@ 0.7354577035363012
nhuệ 1
£ 0.19485460430535365
Cler@@ 1
Nhiên 1
urani 1
1823 0.6864302662283011
Las@@ 0.7101580904262255
Poa 1
Thỏ 1
ega 0.8481023805508104
lầu 1
vọt 1
Chann@@ 1
Mimosa 1
Weber 0.8630024666231219
thuở 1
vã 1
175 1
Dod@@ 1
FI@@ 0.5504426185898561
Film 0.0685583501663139
Online 0.6387607765711066
Hân 1
sap@@ 1
Stalingrad 1
allus 1
chén 1
gramma 1
Delta 0.6330545052435332
Sau@@ 0.6337430922669601
ciner@@ 1
nophila 1
noãn 1
116 0.9773682760307321
Airbus 1
albo@@ 1
boat 0.3263329806364548
AD 0.3487717155045205
Petersburg 0.5604898256883065
edo 0.7478396893816058
122 1
Attelabidae 1
Chimarra 1
Beau@@ 0.7729602457999559
Jo 1
bir@@ 0.6100206462281378
bot@@ 0.4961406437726689
ret 0.7854172311634853
Chr@@ 1
hốc 1
oka 1
Eo 1
anag@@ 1
kiêng 1
oun 0.9542450755253893
1803 0.6152217621791272
Chín 1
Commel@@ 1
Giọng 1
wen@@ 0.8092139754337366
xis 1
ượ@@ 1
ự 1
Chống 1
Nham 1
dam@@ 0.8663384416231236
mit@@ 0.25293769776062486
Ling@@ 1
toni 1
Claude 0.33369992346453314
Hermann 0.3595145149464465
Oai 1
Vo@@ 0.49051297073397865
benz@@ 1
foot 0.3201668469186925
nm 1
phot@@ 0.7742321961759329
Got@@ 0.763385869283164
TTg 1
antaceae 1
rea 1
sỏi 1
Society 0.09666895529890102
Utah 0.46423729673747716
ửi 1
Express 0.37510126597980475
Olig@@ 1
Song@@ 1
bert 0.32401668349419505
chốn 1
cằn 1
oneta 1
Dioscorea 1
OH 1
Ulithi 1
cù 1
xiêm 1
òe 1
Athyrium 1
Bosnia 0.865440676742549
Istanbul 0.706372997867606
Jose 0.5654463250551286
Psych@@ 0.863286585135977
lều 1
điềm 1
ũng 1
Baby 0.6428331009245205
Jar@@ 0.5731363007257607
Saur@@ 1
Who 0.4404528500854337
num 1
ı@@ 1
550 1
Ves@@ 1
acan@@ 1
leu@@ 1
major 0.05697651623857305
Mueang 1
Say@@ 0.6939994235689779
Táo 1
chrys@@ 1
ụy 1
Actin@@ 1
Alo@@ 1
CP@@ 0.6582869315429012
Tức 1
Weekly 0.7862305450520862
ariidae 1
rốt 1
5,5 1
Campo@@ 1
Mars 0.5318286507835918
Stevens 0.8310423781676723
Xo@@ 1
low@@ 0.5100438515430923
Rox@@ 1
Sco@@ 1
phao 1
ylla 1
Nhằm 1
bak@@ 0.7202262337051573
ng.@@ 1
quấn 1
Gry@@ 1
Rud@@ 0.8916268631667519
Vegas 0.5534687433878261
enii 1
oidea 1
Đồi 1
Copa 0.22875317369471615
Param@@ 1
Quyển 1
Roc@@ 0.6204425620746428
Sega 1
Sky 0.50410434804416
bac@@ 0.884038869512272
lepto@@ 1
stro@@ 1
Julia 0.6200032477537211
ander 0.68826411715474
mu 1
Jun 1
khoái 1
pubescens 1
Azur 1
alm@@ 0.630191538717137
glau@@ 1
sô 1
Ż@@ 1
Giêng 1
Louise 0.4863732928231518
Ngã 1
Tìm 1
Vorpommern 1
Wak@@ 1
abus 1
platy@@ 1
AI 0.9169933845376095
GR@@ 1
Hampe 1
Mr. 0.28252927455083376
Pas 1
ack@@ 0.47090321516356726
ete 0.2996123748606924
hip@@ 1
nguội 1
BC 0.2197052487145718
Hymen@@ 1
kir@@ 1
114 0.8988735331000302
123 1
Brachytheciaceae 1
Lau@@ 0.44599530382064345
gạt 1
liêng 1
tz@@ 0.6696269374337349
Just 0.457135387682819
nã 1
syn@@ 0.4737717149090159
AB@@ 0.6281988044482613
Bern@@ 0.580664507227751
Bồng 1
Ted 0.7617018447843245
diều 1
idaceae 1
inda 1
Limne@@ 1
Yokohama 1
hít 1
56@@ 1
Alb@@ 0.7361901973412042
CO2 1
INSEE 1
Oise 1
Tuất 1
XP 1
ieri 1
key 0.15492492429675572
oste@@ 1
β 0.7089917733162835
Master 0.24152467553969467
Oh 1
Suzuki 1
diidae 1
tei 1
Đám 1
1813 0.5562014145495834
Fred 0.46268802665828995
Vốn 1
Wall 0.5198120444018596
pra@@ 1
trỗi 1
đả 1
Ł@@ 1
Artemisia 1
Hon@@ 0.48870940544253305
Jeffrey 1
Nefer@@ 1
Ptilod@@ 1
Panzer 1
Ti 1
118 1
124 1
145 1
Himalaya 1
Leone 1
hypo@@ 1
Neg@@ 0.7385333738746171
Ole@@ 1
back 0.04203533424836176
lec@@ 1
tụy 1
xoa 1
ịp 1
1817 0.6464792813879332
Earth 0.2228232140250144
imi 0.8007438964186303
lẫy 1
tab@@ 0.4782251608892111
tak@@ 0.5020019845719214
Fabaceae 1
Lub@@ 1
chưởng 1
hil@@ 0.7367939916438238
kim@@ 1
vấp 1
ếng 1
chilum 1
cz@@ 1
Chase 0.9090384409116504
Churchill 0.9253537023041417
Gam@@ 0.7339836256907402
Sainte 0.3376428494814702
WHO 1
ith 0.437484641406395
Boris 0.802583837867867
Glos@@ 1
Kop@@ 0.7130213164413232
ave@@ 0.8458602080818179
chèn 1
chưng 1
Fil@@ 0.35740186699534127
Hè 1
inatus 1
may@@ 0.8901241366542919
rid@@ 0.9004998374083858
Boiss 1
Cơn 1
Diels 1
Lot@@ 0.6959382864354654
Manhattan 0.47427814091169085
fin@@ 0.23440909469187493
nagar 1
Ð@@ 1
ạ@@ 1
Birmingham 0.43480635080972785
C.B.Clarke 1
esch@@ 0.4699102979235852
formes 0.4328132412071075
lun@@ 1
mod@@ 0.767978953775865
Chry@@ 1
Gibraltar 0.9850039382104255
Monroe 0.980980279120131
Moraceae 1
Ris@@ 1
Uông 1
olimnophila 1
yar@@ 0.9030138086681835
» 0.004492201522883585
Card@@ 1
Johnny 0.39484383677597107
Maurice 0.3558269811321235
She@@ 0.48998962838784543
las 0.00845659153235796
.C. 1
Biết 1
Eleutherodactylus 1
Engl. 1
Hát 1
aia 1
ars 0.18316659819059417
gom 1
nọ 1
Gynoplistia 1
aj 0.5050354857832524
ngắt 1
Anyph@@ 1
Cher 1
Hoắc 1
Hợi 1
Ngao 1
Nhái 1
VN@@ 1
gil@@ 1
Armad@@ 1
Rhine 1
fum@@ 1
sic@@ 1
Opera 0.4029356348441599
Rol@@ 0.8479150934180684
vittata 1
xuồng 1
Back 0.47477189737901937
But@@ 0.6153438108782848
Coenagrionidae 1
Epi@@ 1
Press 0.2619895126022686
grap@@ 1
post@@ 0.3209215349106655
Boh@@ 0.6647504859633189
Phóng 1
bis 0.013544011229856542
elt 0.32750453265861873
onaceae 1
.f. 1
Mé@@ 0.49114175989935793
Yan@@ 0.7956455081288207
intermedia 1
AG 0.24219008348030407
Anhalt 0.9529650090567301
Last 0.43966790819886586
Porcel@@ 1
Rosa 0.4884191367507203
Tuệ 1
Vậy 1
eme 1
1.9@@ 1
Arts 0.11189720507440364
NO@@ 0.6152502446821729
Ostr@@ 0.9002588160638952
RAM 1
Sailor 1
gin@@ 1
giòn 1
Chama@@ 1
Fire 0.36440950772027936
Lun@@ 0.9364877865998095
Yokosuka 1
chium 1
comp@@ 0.3204163732115758
gam 1
logo 0.6516441783350538
thêu 1
Ẩm 1
Aur@@ 0.6920636492977122
Iron 0.46037407311058237
Mozart 0.9760454622075151
phách 1
qui@@ 0.41439434355215043
Grim@@ 1
Tước 1
Urb. 1
Vang 1
anos 0.25978456957950397
thoa 1
thuyên 1
Brid@@ 1
Dallas 0.40598131743643834
Pras@@ 1
Vancouver 0.44861316218197383
kom@@ 0.4993540372928302
onus 1
siana 1
ềnh 1
Ed 0.5724144337497743
MO@@ 0.5765066803137607
Science 0.14688889119559018
Sig@@ 0.6669056325341128
Spilosoma 1
Dylan 0.9667795762448768
Jacoby 1
Putin 1
achya 1
diệp 1
dặn 1
thal@@ 1
Hypos@@ 1
búp 1
gang 0.34425800854810684
occ@@ 1
trum 1
Asian 0.20127978809939198
Edwards 0.6142436831252411
1,7 1
BO@@ 0.8757264713161168
Cheir@@ 1
Cly@@ 1
Manche 1
chồn 1
yevich 1
Nặc 1
begin 0.3115656745682683
má@@ 1
Dead 0.5054513176646509
Mom@@ 0.8476943201956763
iken 0.6097119723978108
ía 0.1146162032749631
165 1
Green@@ 0.6551026801489601
Porto 0.7445586150057832
Scr@@ 1
Yu 0.9944509312779789
esp@@ 0.38609714430641556
kai 1
trèo 1
1775 0.8849702485264338
Bân 1
Fraser 0.9598538907897092
IS@@ 0.40613938681206496
ellip@@ 1
tw@@ 0.24587467740752278
Billy 0.3964335241380385
Quỷ 1
Syng@@ 1
củ@@ 1
pend@@ 0.6789049979417298
sex@@ 0.988744807879842
Đán 1
Pink 0.9857209424991091
R.M. 1
vor@@ 0.09778916685437353
ưỡng 1
Dro@@ 0.6707727309325329
NG 1
Oz@@ 1
SBS 1
Uttar 1
ann 0.40060222990597544
cens 1
iae 1
igera 1
sat@@ 0.7733187811448888
eto 0.4518025582879831
eville 0.7317674790513448
ngỗng 1
64@@ 1
Amar@@ 1
aena 1
aine 0.42724043640586806
art@@ 0.5130820234137113
gn@@ 1
pet 1
Cooper 0.4752671463625266
Teucholabis 1
endr@@ 1
stric@@ 1
23.@@ 0.808190138160009
6,5 1
Nhiễm 1
Prix 0.17784345445489658
Thấy 1
Whit@@ 0.4160153740622611
Wit@@ 0.5477904317569166
caud@@ 1
pora 1
Ambl@@ 1
Ann 0.41718256664878844
Bartr@@ 1
ame@@ 0.8340114229279032
53@@ 1
67@@ 1
75@@ 1
Leuco@@ 1
asc@@ 0.4842530658451001
br. 1
ode 0.45238875789186067
ì@@ 1
Amaur@@ 1
Leon@@ 0.8630195339579698
Marc 0.3718890314689081
Raf@@ 0.9908152694246009
Silesia 1
anella 1
igo 0.7324237538379513
sign@@ 0.6601892049377243
ư@@ 1
7,5 1
Chel@@ 1
buông 1
dei 1
http 0.8476349471403261
i.@@ 1
náu 1
ĩnh 1
Palearctic 1
Res@@ 0.366563031396692
cau@@ 0.8585054809328323
lab@@ 0.5749149209905171
Salix 1
Sher@@ 0.7078020664330444
insularis 1
­ 0.6004432397931186
č 0.91336319904649
Đứng 1
公 0.7574568600572116
1788 0.8936254691438296
Pau@@ 0.6237154877108115
kình 1
lossa 1
Bour@@ 0.5108654620327024
Broth 1
Dru@@ 1
Forest 0.2777350721697666
Kent 0.3914185797344487
Thompson 0.3951471769604795
loãng 1
meth@@ 1
rad@@ 0.5652214064656177
Çorum 1
Gary 0.4400339503523176
Schefflera 1
cari@@ 1
mannia 1
suki 1
use 0.03347369001906
Berberis 1
Black@@ 0.5299190682802148
Chúc 1
Saf@@ 0.7256353860354398
Ster@@ 0.7702552016984886
eder@@ 0.7730452761381343
hria 1
sha 0.938382771237069
ặp 1
Cad@@ 0.651925850769867
Nhượng 1
Sofia 0.8944916708034527
kun@@ 1
sam 1
studio 0.1086169819767424
uke 1
121 0.9597238752582238
Holttum 1
Pleurothallis 1
Selen@@ 1
Vig@@ 0.9344293433875229
obus 1
onn@@ 0.4191755050623159
trói 1
Buch@@ 0.3012713610199726
Gió 1
Sek@@ 0.9050771254688768
anom@@ 1
ats@@ 0.5931562996463213
Đúng 1
Book 0.24782261017114607
Phil 0.5420530246579728
cacbonat 1
stri@@ 0.8063411503600747
tiaceae 1
Gabon 1
Masdevallia 1
Nakhon 1
nanh 1
ovi 1
òn 1
Corydalis 1
Dậu 1
Gaon 1
IM@@ 0.5650601898261112
Tos@@ 1
mont 0.33858015319870766
Choi 1
Dứa 1
ES@@ 0.42437461770467655
Prim@@ 0.5275259296689073
RA@@ 0.5461791222294942
Thuỵ 1
gol@@ 0.6243659850078948
ngạo 1
ochrysa 1
vẹt 1
God@@ 0.6234178194525901
Lyc@@ 1
Nicolas 0.35924056874945526
Typh@@ 1
ambus 1
fish 0.20190113798703802
pri@@ 0.6839193882266931
yana 1
Krông 1
Ou@@ 0.5763637176352452
Thuột 1
Catocala 1
Gas@@ 0.37827076682200056
Mauritius 1
abrus 1
achia 1
aster@@ 0.7099903988745953
Dean 0.40227760560692144
Timberlake 1
alla 0.6595597050113655
atrix 1
dere 1
ento 0.5444875190302
istis 1
lướt 1
mar 0.2441952888119757
Aloe 1
Kê 1
Nob@@ 1
Oliv@@ 1
UBTVQH14 1
vướng 1
Connecticut 0.3583698499246956
Kosovo 0.7734517148571597
AL 0.6491061472567324
Christina 1
Midway 1
NE@@ 0.5200249071511668
tsch@@ 0.5680959694329883
DP 1
FDA 1
Oxytropis 1
chóp 1
iba 0.6448408076697022
leg@@ 0.3214047912285918
pit@@ 0.8152179324630197
pus@@ 1
trệ 1
Calcio 1
Down 0.4831467565547549
Kho 1
Pak@@ 0.9648619824216171
Western 0.09600548525246155
obscura 1
747 1
Fleutiaux 1
Ngang 1
Oxyopes 1
Platia 1
Sub@@ 0.21109899841232133
aw 0.6530997201342381
hét 1
Fuj@@ 1
Holmes 0.7433316114223741
Sào 1
TN@@ 1
agin@@ 1
lửng 1
strig@@ 1
uridae 1
ươi 1
Alder@@ 1
Galicia 1
Gerais 1
Nương 1
Or 0.5833052272822898
Portland 0.44299627042737666
Vịt 1
Bông 1
Garden 0.3914616097279181
Hốt 1
Rid@@ 0.860215239042466
\ 0.41466445255259793
nii 1
30,@@ 1
Ball 0.5152145218781128
Empire 0.11895151351509707
Tá 1
eck 0.29277507648169016
ìn 1
146 1
Moldova 1
Rak@@ 0.832681452125658
ascens 1
form@@ 0.28667620898632395
ể@@ 1
Boul@@ 0.9107447898086778
Clo@@ 0.9025601261944215
photon 1
Agri@@ 1
Ery@@ 1
Thal@@ 1
天@@ 0.26075418693078717
Aisne 1
Leopold 0.7751235323302138
Peterburg 1
catus 1
cren@@ 1
tuỳ 1
Fern@@ 0.5478059930964735
Jennifer 0.8244362451124169
Mid@@ 0.514802149338671
Nadu 1
Page 0.762287039109412
Phor@@ 1
cu 1
ely 0.16802840538280117
longic@@ 1
lợp 1
rep@@ 0.370226393928601
ser 0.04705901867208726
tas@@ 0.6418937918936021
tepe 1
xế 1
300.000 1
Ges@@ 0.44054039363888836
Quyên 1
ibn 0.5362255205749853
Berg 0.40126039914257394
CM 1
dos 0.03880316371366861
olle 1
uri@@ 1
Journal 0.2107837795116714
VN 1
ingia 1
sangu@@ 1
win@@ 0.5885372464924133
Đuôi 1
Moh@@ 0.5477742335075558
Sparassidae 1
astus 1
elin 0.7255078357719593
ornata 1
row 0.22618182311301835
thớt 1
Ú@@ 1
Lic@@ 1
Web@@ 0.6106507606390424
fen@@ 0.6782186685538414
inctus 1
Hudson 0.4938883566293676
Ian 0.45976044485362944
LV@@ 1
R.Br. 1
chui 1
della 0.683304069631475
did@@ 1
formos@@ 1
gầm 1
hổng 1
ley@@ 1
test@@ 1
tit@@ 0.9508047704719771
132 1
Beijing 0.5607542363134006
Tiều 1
chor@@ 1
laria 1
phàn 1
pidia 1
1792 0.6094464018506246
Busan 1
DA 0.5653777398200193
Dolich@@ 1
Toại 1
Xếp 1
aman 0.6803797703122325
chê 1
obo@@ 1
Ele@@ 1
Hugo 0.3972068660010069
endron 1
ç@@ 0.4093705822443128
68@@ 0.9661691050980125
Animation 1
Bros. 1
Suốt 1
centr@@ 0.35844469023165704
dre@@ 0.3738668483323805
sand@@ 0.7021804758767878
Staur@@ 1
VI@@ 0.826665070855904
ander@@ 0.6099849627442766
bau@@ 0.27790136032899254
omia 1
pygma@@ 1
Agr@@ 0.8293535774976017
Sửu 1
plagi@@ 1
sưng 1
Et@@ 0.5704991278986444
Rhaphid@@ 1
Středočeský 1
ppus 1
650 0.9349487959847083
actus 1
bích 1
landia 1
onic 0.4509237284567372
otia 1
tria 1
Are 0.7088809234429853
Mello 1
Polycentr@@ 1
kara 1
Heidelberg 0.6176947715647684
John@@ 1
Montana 0.6021145840038047
Soul 0.6938160244339253
Takahashi 1
ingi 1
25.000 1
Ane@@ 1
Cac@@ 1
Cannes 0.825676587081058
Copenhagen 1
Mác 1
odendron 1
pınar 1
ửu 1
Baroque 1
aco 0.5343410761669585
ango 0.8218536908614033
Xinglong 1
thâu 1
ườ@@ 1
100@@ 1
ano@@ 1
illy 0.458612683658021
oniscus 1
rus@@ 0.8917793415561066
tí@@ 1
ẹn 1
， 0.002066980761287843
Ecnom@@ 1
Singh 0.426557342308645
Ward 0.455006831419593
Wed@@ 1
pta 1
wel@@ 0.46814085985984366
Christ@@ 0.5169193698843246
Oman 1
Saipan 1
florus 1
nhở 1
Steyerm. 1
dig@@ 0.4148248729423545
oux 0.5044356083966565
ror@@ 1
Monaco 0.8988437086492993
Pickard 1
Thận 1
cryp@@ 1
dh@@ 0.5722776781131433
pinn@@ 1
Khám 1
Spir@@ 1
aina 1
mek@@ 1
opyga 1
uka 1
zo@@ 0.45203985679057446
1808 0.5715744165479276
eth 0.5213879247904689
lev@@ 0.5441520027749205
nes@@ 1
sko 1
lie 0.24023667468460388
1.200 1
Athletic 0.38778363302465585
Aulac@@ 1
Hách 1
etti@@ 0.8920453271289274
hyun 1
itz@@ 0.37519860559236146
ngoạn 1
oke 0.5594642263339222
www.@@ 0.6688126154147196
Carol 0.8833752696947533
Pedi@@ 1
Pholcidae 1
Sul 1
bạt 1
Log@@ 0.5400872195122585
gamma 1
Ceph@@ 1
Hưu 1
Das@@ 1
Duc@@ 1
Khoái 1
Rhin 1
Uro@@ 1
Butler 0.6016058262127776
Flor@@ 0.5028438336135033
ale@@ 1
def@@ 0.33885330802757807
las@@ 0.6358682374508499
Albums 0.4541326370221621
Sus@@ 0.6112689148057592
liêu 1
lộng 1
mes 0.19016312268162627
stein@@ 0.5531818336906359
Mez 1
Stere@@ 1
evo 0.9369875759287222
him 0.020201736333078913
kas@@ 0.7375008204008137
tric 1
Điệu 1
CT 0.8256449161285006
Lupinus 1
abad 0.45972844692946674
chồi 1
muôn 1
ves@@ 1
Academy 0.0938192541728947
Harold 0.5335547361539331
Merr 1
Parker 0.4446152957266076
Spar@@ 0.7447449111396933
anicus 1
bei 0.013901554857637737
CC 0.4811925461985966
End@@ 0.5109410336285288
nigra 1
ớn 1
SK 0.6727568624671093
Xanthorhoe 1
dạt 1
hara 1
185 1
225 1
Bristol 0.45445854466457447
Nhai 1
Phry@@ 1
Quê 1
auranti@@ 1
hyper@@ 0.6155058186925946
25.@@ 0.7898591666279051
Brothers 0.38142819307959536
LA 0.3966883966110952
Sac@@ 0.8926838649188682
alov 1
Cyn@@ 1
Hiroshi 1
Lindsa@@ 1
People 0.1613738278171093
atti 1
beri 1
cera 1
chầu 1
khốn 1
tru@@ 0.574566801953956
wit@@ 0.9278761415031428
Chao 1
Cin@@ 0.677607254318453
Ernst 0.26596155630613993
Metro 0.35579499742613513
Tru@@ 1
Zeus 1
rạng 1
Đầm 1
Chikmagalur 1
Cucurbitaceae 1
Ixora 1
Malpighiaceae 1
Weise 0.6159041493467259
kon@@ 0.22422977356060908
Jon 0.5565581758050293
Rangers 0.45495220330145114
Top@@ 0.5388430912720289
Vành 1
dil@@ 0.4643956795510227
Leucania 1
Zy@@ 1
24.@@ 0.7816553830704908
Bourbon 1
Dend@@ 1
1807 0.6033149054043024
Nom@@ 1
Wah@@ 1
aza 0.64364662778964
trac@@ 0.6125062792230027
vin 0.41682427392737226
Belgaum 1
Campbell 0.3784454103500817
Hills 0.37801936052928614
cephala 1
inck 1
ơm 1
Ang 1
Seg@@ 0.4687968699654928
oti 1
330 1
Clar@@ 0.6204281089006446
Tay 1
Yamato 1
atidae 1
capensis 1
otheca 1
Trag@@ 0.895796927251619
hop@@ 1
sục 1
Bond 0.709248972483072
By 0.0699849035944247
Leonard 0.5957537450267149
Mắt 1
PH@@ 1
erythro@@ 1
mand@@ 0.4465233578794299
Rob. 1
dev@@ 0.35945930812409277
fa 0.5635281912126382
nhung 1
pulch@@ 1
Gấu 1
Idol 1
Marco 0.501045755060787
ana@@ 1
eci@@ 1
hap@@ 0.9487476015829097
mắng 1
wol@@ 1
Fel@@ 0.502677635241594
Trừ 1
Tý 1
ghê 1
olia 1
rơm 1
thiếc 1
toan 1
ờm 1
19@@ 1
AD@@ 0.46228986545840783
Gnoph@@ 1
Phấn 1
Tỉ 1
nhẹn 1
12.000 1
59@@ 1
66@@ 1
Abdul 0.8472427044010564
Bow@@ 0.7044675523837061
Clay 0.9873215776199623
Rafael 0.4614354349549444
corn@@ 1
let@@ 0.39414178970676067
yu@@ 1
Bửu 1
Manisa 1
Sto@@ 0.4324497181351049
Sống 1
bey 0.9078144345147439
gracil@@ 1
house 0.053203737926982145
khiên 1
longifolia 1
podium 0.9743746171290635
Ana 0.47788377909500773
Generation 0.5529884069116623
O2 1
Ormosia 1
ose 0.3559137599179775
uel@@ 1
129 1
Agrypnus 1
Aut@@ 0.4566098110382613
Cyrus 1
Of 0.1882486644302716
Pand@@ 0.8978205878190553
Rey 0.4609564485117425
Sanh 1
Sic@@ 1
Gab@@ 0.5780555150117572
Roberts 0.5096181806130048
Stars 0.3900521152809361
Versailles 0.9397494547365917
Voss 1
cac@@ 1
chót 1
nến 1
Hin@@ 0.5173404516902677
Ridl. 1
anae 1
gươm 1
omitrium 1
sab@@ 0.3789576785723603
spa 1
Ž@@ 0.7220777681992163
文@@ 0.23907359919218266
Sec@@ 0.4970951512546573
imbr@@ 1
ks@@ 0.4526350865906006
osticta 1
136 1
iventris 1
ocal@@ 1
ä@@ 0.15908438607023942
Emma 0.5709593695447566
Hôm 1
Laura 0.5054796874105479
Lisa 0.5673999156462151
Phí 1
Pse@@ 1
kệ 1
triang@@ 1
ửng 1
30.@@ 0.911567781538125
Eug@@ 1
Pacific 0.14108371497903227
mon 0.5881062011856675
nitrat 1
rem@@ 0.35561577738325106
ticollis 1
xylum 1
2,4 1
abi 1
longipes 1
Die 0.006733629694291988
Harms 1
Suy 1
aema 1
amer@@ 0.9060890945398611
grandis 1
idum 1
2.500 1
Tan 1
capit@@ 0.46007123893573726
rufi@@ 1
ulaceae 1
viridis 1
2.0 0.6449903316291187
Bonaparte 1
Dave 0.3588798556980911
Emilia 1
Eugen 1
FK 0.6291545475013071
Seleukos 1
achus 1
EA 0.8577783430993299
Glyph@@ 1
Kind@@ 1
hinus 1
Free 0.2785740111143314
alidae 1
ean 0.44428563707324314
Aden@@ 1
Chester 0.7585589017806356
Franco 0.4344888070100081
egi@@ 1
japonica 1
ner@@ 0.27992155256167317
tenus 1
26.@@ 0.7961401615054554
D.C. 0.34739211956837307
Eph@@ 1
His@@ 1
MA 0.3779744385736718
NA 0.6070858047517191
Nửa 1
Tectariaceae 1
Tik@@ 1
alanthus 1
hen 0.7866061741890763
lom@@ 1
marginata 1
Comics 0.42851609128591367
LO@@ 0.6925955818329482
Rec@@ 0.3172440287269224
Hokkaidō 1
Say 1
khỏa 1
ochil@@ 1
2,3 1
Cleopatra 1
Dip@@ 1
Nhập 1
SS@@ 0.559669779917639
asp@@ 1
bet@@ 0.48636033522646815
chẵn 1
rey 0.18398663377418253
Lou@@ 0.4679246101462538
Niger 1
gland@@ 1
nas@@ 0.9835231874872575
Castel@@ 1
Cuc@@ 1
Phillips 0.6193071899333121
Philopotamidae 1
Tot@@ 0.6383453269256089
doạ 1
gei 1
m2 1
orn@@ 0.7500305480267323
201@@ 1
Ajax 1
Bath@@ 1
Cardiophorus 1
Dong@@ 1
Thun@@ 1
but 0.009225559833066709
lốc 1
omel@@ 1
wer 0.4125622029729824
ER 0.7862861799178289
Trans@@ 0.25259706666688003
Wel@@ 0.4335179596060283
air 0.07575493810830353
134 1
1816 0.5204754508215255
Bailey 0.8254619175165393
CV@@ 1
rang 0.5112655307066092
shi 0.8671954742072329
Ăn 1
How 0.5543397648300376
Kiện 1
LP 0.3317458763813655
asciata 1
ence 0.12649575185550002
ike 0.6863911515149761
99@@ 1
Calvin 1
Mất 1
Space 0.29324395221792693
Tội 1
Willis 1
Yos@@ 1
ones 0.11038261380995923
rug@@ 1
stel@@ 1
1758 1
Isaac 0.5502089347169123
Ras@@ 0.46734957343468486
Rhi@@ 1
emus 1
hisp@@ 1
kaya 1
nghẽn 1
tubercul@@ 1
tỳ 1
đốn 1
119 0.9727603364545917
Cối 1
Westminster 0.6831013958175576
emis 1
nhuyễn 1
vượn 1
Oricon 1
Party 0.06216524190870867
Plectr@@ 1
Taraxacum 1
chry@@ 1
opoda 1
rod@@ 0.6748016525158943
Trâu 1
assi@@ 0.5981637617503274
nản 1
Nhữ 1
SI 0.828711740858194
Store 0.8242889523734481
app@@ 0.3551510011444549
t. 0.9069743203555167
uli 0.7367047668882831
ș@@ 0.8164038979977727
Ahmed 0.5813748333482656
Eg@@ 0.4767390252919022
Nep@@ 1
PT@@ 1
Sakura 1
clip 0.921573624916887
este 0.0425370694693951
teryx 1
tát 1
Crawford 0.9459873725650472
Masters 0.42886855773504823
Phys@@ 1
Tax@@ 1
fe@@ 0.20855654976984284
gon 1
ngả 1
rans 1
yal@@ 1
đô@@ 1
737 1
Ev@@ 0.4226274419748558
Fujiwara 1
Honda 0.7883481368256287
Hymenophyllum 1
audi@@ 0.6908057061457761
ocly@@ 1
vãn 1
young 0.09410134518500779
zy 0.9540572242029463
ň@@ 1
Mount 0.18791004486783866
Nec@@ 1
bã 1
mp@@ 0.5079336714797524
trỏ 1
uda 1
Bia 1
Ronaldo 1
Smil@@ 1
elas 1
har 0.7273815364572221
other@@ 0.8883283070623369
ren 0.7996368585252331
zel@@ 0.964416073057353
28.@@ 0.8321742274407605
Bermuda 1
Comp@@ 0.6762868368349292
For 0.04647143640117404
Jessica 0.9255507963267626
Zopheridae 1
apatna 1
poli@@ 0.6526729903502387
sải 1
sầu 1
tiễu 1
CS@@ 0.5922805845101882
Guy 0.3788109945461048
IA 0.7144598078733383
Normandy 1
Reagan 1
Wur@@ 0.8113459878451919
alc@@ 1
ids 0.21558788462867373
Schwarz 1
aff@@ 0.31861648304626344
ds 0.1765700407032602
Bolus 1
Hughes 0.5665305761232698
Now 0.35892060775293083
TV3 1
bridge 0.12670992982541623
entris 1
hee 1
nạt 1
quỵ 1
tatus 1
AB 0.5256009846376262
Angel 0.5012626083992109
Kobe 1
cạo 1
ery 0.20446109715381494
iTunes 0.9596818577393992
sig@@ 0.5494403989962489
Hunt 0.6489547365786342
Hắn 1
Mordella 1
Works 0.3271175442647778
bịt 1
ings 0.08442345436897492
nụ 1
85@@ 1
Ceri@@ 1
Cran@@ 0.9506607101762948
Metacritic 0.924004264562014
Reed 0.6852945246305417
collis 1
Bruno 0.4737033310899261
Electric 0.4752836086180591
Libellulidae 1
Sương 1
Trai 1
ovice 1
ī 0.5380006333125475
Boz@@ 1
Phàn 1
Ptych@@ 1
illaria 1
isii 1
ễm 1
137 1
1798 0.5985434129213322
Hav@@ 0.6991653979654806
Kav@@ 0.9512990981571766
Nạn 1
Thorell 1
choàng 1
hoe 1
Brooklyn 0.3647542703525741
Dật 1
Nab@@ 0.80006596775149
Penn@@ 1
Philippine 0.5736368756654864
Voi 1
ophy@@ 1
Gustav 0.468468132844119
IP@@ 0.6564427358397149
Pep@@ 1
Tox@@ 1
ović 0.5435435548432366
que@@ 0.5611008869107791
rỗi 1
rộ 1
troph@@ 1
́ 0.04777122987503352
Dre@@ 0.36831191693129123
Ernest 0.4807447085748807
Sentai 1
Vỏ 1
a.@@ 0.7961094003202831
chích 1
eler 0.3838041376713844
lax@@ 1
As 0.027840544230358324
Erzurum 1
Scir@@ 1
aha 1
king 0.1075727537566977
TP.@@ 1
alan@@ 0.9855168943975015
bea 1
ferum 1
keri 1
oloma 1
otea 1
Ful@@ 0.7300809262189814
Houten 1
Theraphosidae 1
Ty 1
kil@@ 0.6537571175122588
ová 1
235 1
Andre@@ 0.9714753367907268
BA 0.4358364755167152
Cul@@ 0.4768084361024854
Dominica 1
Nancy 0.46079378585603337
culus 1
cước 1
luộc 1
ox 1
69@@ 1
Cyclosorus 1
Edinburgh 0.34980581529506855
Nhậm 1
liềm 1
ostylis 1
Enterprise 0.9212302382950758
Liệu 1
Rou@@ 0.4957935103063803
Terry 0.49270253584943213
Thui@@ 1
Trichost@@ 1
acuti@@ 1
bank 0.14520111873052216
mut@@ 0.3258745873061869
ŏ@@ 1
Khe 1
Ltd 0.36515161775463856
plex 1
unctata 1
Bật 1
Christmas 0.28736741380316505
Khi@@ 1
Let 0.5016240744460988
Rhein 0.6419097867544371
SEA 1
live 0.08193664759612775
pos 0.6438952541199185
rum 1
1790 0.524648368362298
Barry 0.422482025886553
Meuse 1
Spruce 1
ecký 1
neur@@ 0.32405433808674056
pop@@ 1
Eugene 0.7175361846816471
Grace 0.5208532570607736
Gyeong@@ 1
Jeff 0.398819744042943
MI@@ 0.644530816141547
Von 0.059513232999669576
kè 1
wang 0.903915697770417
Đo@@ 1
Riv@@ 0.5742544306479374
Trừng 1
Tấm 1
auch@@ 0.9323823095435657
Dob@@ 0.9020172459742383
Serb 1
Stap@@ 1
Vượt 1
angustifolia 1
xót 1
1799 0.6532016451253416
matius 1
omor@@ 1
sula 1
tif@@ 1
tran@@ 0.572521444206823
Đóng 1
157 1
MS@@ 0.6676881450117695
Wes@@ 0.6304807835934774
adia 1
dorf 0.29517418321082234
ep 0.7969163986964195
pir@@ 0.8171729992616114
King@@ 0.8355664334443165
Mây 1
eae 1
vern@@ 0.5095872574088948
Trigon@@ 1
arginata 1
azi 0.8986453525369672
Cory@@ 1
Cuatrec. 1
Vic@@ 0.4621266592823965
ocalyx 1
pô 1
vác 1
Amata 1
Kel@@ 0.49170883164211376
Ligue 0.2583902132362572
Punjab 0.7878071893712949
Yar@@ 0.7924584264920431
hiên 1
ib 1
lẻo 1
othrix 1
Ś@@ 1
Elatostema 1
F1 1
Mão 1
Olios 1
elongata 1
trig@@ 1
Eilema 1
Gö@@ 0.9823106568843548
Moltke 1
Necker@@ 1
Teodor 1
cạp 1
lờ 1
141 1
206 1
Cole@@ 1
Grove 0.6487050151966588
Hebrew 0.637618256635447
Hell@@ 0.6634900072249306
Rai 1
Rovers 0.775921874207988
Scandinavia 1
ask@@ 0.5823521111818731
1600 0.5845179134864076
Medi@@ 0.39069692955355384
Nielsen 1
Wor@@ 0.43895673162424365
sum@@ 0.33378288994555566
Ưng 1
Bìm 1
Chùm 1
Hiroshima 1
Liu 0.5997429985130537
Ngọn 1
Oon@@ 1
Sing@@ 0.745662260899018
ellaceae 1
ogyne 1
view 0.14659230968866396
HT@@ 1
Sug@@ 1
Tajikistan 1
astes 1
orhiza 1
tir@@ 0.5798704045822155
Đéc 1
214 1
Broadway 0.3055945033404882
Dj@@ 0.7779673147021045
Gyrinidae 1
IF@@ 0.8104382203471895
Selaginella 1
Silla 1
ayan 0.658614701495869
omma 1
oug@@ 0.6970525927648068
Georg 0.20721764229717507
Monolepta 1
Myc@@ 1
Sah@@ 0.6897701888445795
Samsun 1
TNHH 1
USB 1
Zhang 0.6761952310887828
sima 1
sưởi 1
AV@@ 0.8665413677778999
Neil 0.48534980522782073
Poc@@ 1
Wars 0.47003036528304526
ecia 1
taceae 1
uria 1
vùi 1
Athyriaceae 1
Cole 0.6337906121652481
Magazine 0.267680983815563
Philodromus 1
Xà 1
phiện 1
ygia 1
2,2 1
Fas@@ 0.7175456926253114
Leipzig 0.25277751301732854
Rech@@ 1
Sper@@ 1
indica 0.9537731599730797
ore@@ 1
sấm 1
tụt 1
vất 1
Ác 1
1809 0.5353100666765324
Amphi@@ 1
Ankara 0.7038381993690443
Dysdera 1
Hur@@ 0.5596675129220274
Scel@@ 1
ise 0.07834790065343097
ket@@ 0.7073678532685201
ylon 1
Aj@@ 0.7556970803245413
Andr@@ 0.8385891045441107
Kok@@ 0.7191684156806822
Magn@@ 1
amphoe 1
ariensis 1
atri@@ 1
bella 1
samurai 1
ume 0.6365792642687385
の@@ 1
Liberia 1
Our@@ 1
Pass@@ 0.484711827013789
ark@@ 0.4529680789282512
ecker 0.9842868428700114
ệch 1
Chị 1
Quắn 1
dul@@ 1
nucle@@ 1
Aristolochia 1
Bryan 0.6814650119253086
Euch@@ 1
Xylo@@ 1
inidae 1
opti@@ 1
205 1
Dolichopeza 1
Fed@@ 1
esti@@ 0.4987509252785094
pidium 1
simum 1
sson 0.47311961034738037
tỏi 1
ọ@@ 1
Blu 1
Diễm 1
Syrphidae 1
Thüringen 1
chl@@ 1
cum@@ 0.8199234045536679
otti 0.8187095137405788
pauci@@ 1
tra@@ 0.37941721410928414
ya@@ 1
zen@@ 0.4609235663272829
000@@ 1
Nagasaki 1
dé@@ 0.05432441833009111
eira 1
mexicana 1
131 0.9577038475774203
Death 0.2104897892034278
Mare 1
Sầm 1
alan 0.31276767258494753
asper@@ 1
ester 0.3757602929286435
kol@@ 0.41771037871738337
ozi@@ 1
philipp@@ 1
phỉ 1
Cross 0.20004338403906227
H2O 1
Od@@ 0.7083194287004565
Over@@ 0.4207964083197692
Pier@@ 0.661697568769766
Rhodes 0.8777481527834285
Turkmenistan 1
bra 0.809434689038896
chil@@ 1
ers@@ 0.4396874177663128
xavan 1
ố@@ 1
Helichrysum 1
Nadal 1
Rhy@@ 1
Spin@@ 1
ges 0.21021156145418765
nêm 1
trân 1
urn@@ 0.6060995769713367
Bây 1
Euphyia 1
LE@@ 0.49044386014497593
Limited 0.38980373092358345
Lip@@ 0.8258137464174367
Mud@@ 1
Spears 1
ston 0.37475778251744735
tip@@ 1
€ 0.3746212325535423
Cirsium 1
Cân 1
Tiễn 1
emi 0.8014152926269829
fem@@ 1
robusta 1
tad@@ 0.8564961066824517
ướ@@ 1
Belle 0.7437777891810949
Dni@@ 1
MG 0.9123237984049631
Magic 0.5446011260252486
Marseille 0.4795686274079369
Nhảy 1
Scar@@ 0.7456125216565584
Tou@@ 0.774692180323248
agara 1
arpa 1
lặc 1
ngây 1
ulifera 1
CL@@ 0.8245959071644218
Gos@@ 0.5857606926096258
Lot 1
Nên 1
Sybra 1
Thú 1
athus 1
chăng 1
emp@@ 0.2684771833739299
niaceae 1
Gomphidae 1
Pax 1
Prosopo@@ 1
ago@@ 0.9644921629129927
amaz@@ 1
cúc 1
tos 0.22891880380871168
0,1 1
21@@ 1
Brad@@ 1
CE@@ 0.36336792821147346
GM 0.6987246941939127
Pou@@ 0.7746312624150342
bury 0.31995888574312287
Ả@@ 1
133 0.988845926774572
Bah@@ 0.5005209719184889
Carlo 0.46072083816635795
FBI 0.6388702709996925
Gan@@ 0.5480873816180204
Hama 1
Helena 0.7975218960936261
Oed@@ 1
Thomson 0.8926386819451896
Zel@@ 0.9284244644897638
culidae 1
sax@@ 1
Bung@@ 1
Coelioxys 1
Princess 0.42775937434627737
Southern 0.13339316710874696
flu@@ 0.4541838711905519
thera 1
147 1
Giảng 1
Main 0.17943374034115137
Pho@@ 1
bim@@ 1
lay 0.3894368588532971
sinu@@ 1
ụp 1
27.@@ 0.7442149856734226
Blackburn 1
abe 0.3943251844758135
abris 1
cược 1
imum 1
tetr@@ 1
211 1
Emmy 0.7048990583882372
aan 1
lon@@ 1
pid@@ 1
ru 1
trũng 1
Aub@@ 1
Hall@@ 0.534345330640956
Malaya 1
Wallace 0.5376985580038863
chrysa 1
sộ 1
76@@ 1
Gulbarga 1
Hus@@ 0.4954134696002989
Tamerlan 1
Tha 1
dì 1
ellum 1
etto 0.9002098499471527
hydroxide 1
nhấp 1
pusilla 1
rati@@ 0.47449697273975455
rif@@ 1
rio 1
ulatum 1
Arnold 0.40352273595726923
Cleveland 0.3140748456222237
Firmino 1
Ori@@ 0.7226269640361276
Rama 1
Rein@@ 0.388373515308447
aequ@@ 1
endorf 0.33062607435933034
lania 1
tuồng 1
1811 0.5384873954485092
Berkeley 0.5036822329706042
IGN 0.614595652721529
Jakarta 1
Leu@@ 1
Mancha 1
Natri 1
SP 0.7000101326747791
Tad@@ 1
Leptodactylidae 1
Mercury 0.7651624604016796
Nạp 1
Tord 1
atina 1
carpus 1
oppa 1
pec@@ 0.8066994387177986
pound 1
Tốn 1
Yak 1
Zar@@ 0.6539957164099756
allo@@ 0.6342535079538004
fi 0.6892235854083439
Elaeocarpus 1
Rot@@ 0.2777709147016313
Ruiz 0.9366022627511078
prol@@ 1
vata 1
ylis 1
ởm 1
Crystal 0.7765780505989655
Polytrich@@ 1
Stand@@ 0.6928029074728018
alium 1
aut@@ 0.39981947856915495
isha 0.9305527848529459
kov@@ 0.9454559364361129
opil@@ 1
143 1
Gad@@ 0.9826848643827444
Libnotes 1
Nephrodium 1
nei 1
rantha 1
′ 0.849723003894808
138 0.9942836067302837
Champ@@ 0.9905031584816324
ianum 1
ourea 1
punctatus 1
Adel@@ 0.7158033932402895
Conte 1
Kiy@@ 1
LC 1
veri 1
đàng 1
Ceb@@ 1
Eriocaulon 1
Hampshire 0.39586285337197974
Hedw 1
Quái 1
Wy@@ 0.6508965611894348
dica 1
Acinodendron 1
Ames 1
Hou@@ 0.7738815184000499
ics 0.1590227997348753
oud 0.7378946816534222
uba 1
vứt 1
zan@@ 1
148 1
Ig@@ 0.8646946147469499
Monte@@ 0.8351752921641111
cori@@ 1
ime 0.5089601941265125
sw@@ 0.16211967315567788
Ẩn 1
Andro@@ 1
Bobby 0.472632007762437
Conn@@ 0.6034213250414757
Fall 0.2287908661092328
Khóa 1
SH@@ 0.7939244713752341
Từng 1
xách 1
C.Presl 1
Kraenz@@ 1
Zodariidae 1
astrea 1
kyi 1
å@@ 0.5238007946533352
Đê 1
208 1
Barbula 1
Italy 0.12705555130263962
Punk 1
Simpson 0.589644074415992
Summer 0.11450189045648536
Thuở 1
alis@@ 0.669621509277079
bìm 1
irostris 1
olaena 1
Andes 1
R.M.King 1
gos@@ 1
lách 1
tilis 1
xát 1
Chàng 1
DOS 1
Leptotarsus 1
Oanh 1
bri@@ 0.42240987454287904
cons@@ 0.5499869013669172
ige 0.12213650433814775
203 1
Bề 1
Trentepohlia 1
odo@@ 1
schi@@ 0.9415704296651974
Acalypha 1
Hope 0.4943075934842872
Hul@@ 0.8773261221580773
Lucy 0.6758442450176907
lineata 1
pis@@ 1
202 1
Armstrong 0.6044898529184374
Guardian 0.5267654001245077
Nin@@ 0.8207716034657883
Ravenna 1
Viet@@ 1
itrium 1
rose@@ 1
thii 1
turbine 1
Burundi 1
Core 1
Yếu 1
ussia 1
woo 1
209 1
Explorer 0.9485137041445767
Hyun 1
Lycosa 1
Marion 0.7170647581599354
PS@@ 0.5970323315362375
Springs 0.4766760410651823
hio 1
hyp@@ 1
méo 1
trick 0.9104505486992341
Barr@@ 0.4790481244156749
Guyana 1
Rac@@ 1
Spr@@ 0.45545585038189523
Yong 1
ocor@@ 1
skyi 1
Algeria 1
DT 1
Fabricius 1
Fe 0.503896064217088
laev@@ 1
less 0.05724450757867655
let 0.18558804428158535
Grap@@ 1
Luna 0.711641427343083
Rab@@ 0.42340147110386467
Wall. 1
Xin 1
halli 1
kw@@ 0.5006861802300603
Hart 0.5510862500022576
Holt 1
Ramesses 1
lute@@ 1
opy@@ 1
Chos@@ 1
Hydropsyche 1
Lop@@ 1
Lut@@ 0.9182040983966367
Newfoundland 1
Wagner 0.47722020030639395
nới 1
rách 1
tiế@@ 1
Andrea 0.46727048187883513
Biden 1
Khoan 1
Uh@@ 1
Yuk@@ 1
fel@@ 0.4167453559115073
gea 1
kare 1
oridae 1
ớm 1
English 0.044768912004566536
Nish@@ 1
ograp@@ 1
salis 1
Fighter 0.7098194570700591
Jerry 0.43872489730441877
Steel 0.6359201148173509
Vượng 1
awi 1
ifolius 1
tex@@ 0.8253168832755603
Đập 1
Ống 1
ỗng 1
29.@@ 0.7570026026381983
Aaron 0.5786370409169892
And@@ 0.7533282767855477
Faso 1
Ronald 0.6005532103295605
lị 1
rufescens 1
ráo 1
4000 0.696923152801761
atop@@ 1
flava 1
310 1
Bass@@ 0.6771918373725837
Geneva 0.8760723373149204
Lòng 1
Naruto 1
Oecetis 1
Three 0.16979699987252453
marketing 0.411124483170068
thophora 1
unicolor 1
Burkina 1
Erioptera 1
Lane 0.34480995473028
MP@@ 0.5605209144742831
Mey. 1
Palace 0.3198333703402399
Service 0.10821191150630095
enna 1
fica 1
orii 1
162 1
Aguilera 1
Desmi@@ 1
Hu 1
Pun@@ 0.6744287185275951
Sumer 1
asii 1
Agap@@ 1
Alexandre 0.39703219939297074
Bridge 0.1919816523831311
Happy 0.7947937073669957
Loc@@ 0.4157939927313645
RE@@ 0.41269965608788434
aji 0.8352934316132712
bùa 1
cám 1
eidae 1
jan 0.555382862559821
oly@@ 1
stan@@ 1
yria 1
168 1
Balıkesir 1
Eriocaulaceae 1
Knight 0.37725744966121055
Lie@@ 1
Moldenke 1
Rudolf 0.34434396507659476
SN@@ 0.7810213688704123
rech@@ 0.49074447535207666
stone 0.13425673607305327
Charleston 0.9276113579108392
Fos@@ 1
Mệnh 1
Orleans 0.3678412888540629
Year 0.13092776947890386
hột 1
igata 1
195 1
256 1
Anisodes 1
Bosna 1
Liberty 0.5968158044058177
Not 0.29340870949835635
Tasmania 1
ener 0.18395299578997082
ngỏ 1
oceph@@ 1
ted 0.05585955860935598
ưới 1
Aesch@@ 1
Baly 1
Cô@@ 1
Hoch@@ 0.19514745028885538
Kurd 1
Path@@ 0.7586865555372343
Stuart 0.45012655935218093
Trichomanes 1
atis 1
els@@ 0.43702994156798675
hon@@ 0.4998013075835178
ilo 0.5352250158238668
ix 0.4583840765159524
mata 1
trọ 1
yov 1
Ö@@ 0.38118120771449904
Youtube 1
amiaceae 1
ýt 1
Holland 0.4761628043442536
Laurent 0.44317797699601374
NBA 0.21475928346005976
blemma 1
cholesterol 1
laris 1
uất 1
Herzog 0.49857076380506116
Húc 1
Phế 1
Saudi 0.4979188879748852
Sob@@ 0.9489456279980679
Vary 1
cken@@ 1
format 0.15847718899949284
magn@@ 1
ophytum 1
77@@ 1
Berg@@ 0.1833456837764885
Cândido 1
Củ 1
Embrik 1
Um@@ 0.17805956262861328
arab@@ 0.8062947537383907
nov 1
rae 1
Alberto 0.3738821715345063
Fairmaire 1
Pell@@ 1
ả@@ 1
ộ@@ 1
1200 0.4887116337077557
Dub@@ 0.7669793209183725
Lorraine 0.6559684369497646
Phe 1
Pyrausta 1
Tetragnathidae 1
amba 0.9041531214332501
teris 1
ー@@ 1
156 1
Niedersachsen 1
acuminata 1
evsky 1
ichneumon 1
ocentr@@ 1
sulfide 1
Bau@@ 0.11369748122204137
Mod@@ 0.42690183853376984
dẻ 1
elis 1
nana 1
Cáo 1
Edition 0.5225161477010032
Franch@@ 1
Kn@@ 0.2908521139418345
Leitão 1
Spi@@ 0.6932573210474828
estia 1
maculatus 1
ophi@@ 1
ovii 1
quadri@@ 1
370 1
Pop@@ 0.43120713490190826
Rural 0.30341959214779823
cy 0.4423975234738504
hay@@ 1
his@@ 1
ovina 1
pers@@ 0.9910154085201365
virid@@ 1
ơng 1
ắng 1
Atlas 0.6987227294591021
Ctenus 1
Everton 1
Field 0.19355367990934677
Nephrotoma 1
Panicum 1
Scler@@ 1
Yoo 1
ator@@ 0.6226176293371628
ogr@@ 0.653462498780911
unif@@ 1
142 1
CI@@ 0.39944456752005203
Hogna 1
Yoon 1
abri@@ 1
baz@@ 1
ecus 1
phor@@ 1
154 1
Caribbean 0.49142118076101104
Ped@@ 0.8534298119585515
junc@@ 1
text 0.14739108230045952
uf@@ 0.4469765196349189
viridi@@ 1
Asi@@ 0.8359167162998823
Camp 0.31748263702891194
Kashmir 1
Leicester 0.8254290190047735
Open@@ 0.6632338810022008
VTV 1
Viking 1
arina 1
ft@@ 0.7690976089960224
ifrons 1
oki 1
otata 1
Ardennes 1
Gekkonidae 1
Huy@@ 1
Linda 0.680744243728291
Rhab@@ 1
Stu@@ 0.46492750211216344
Won 1
dich@@ 1
ehr 1
sut@@ 1
Collins 0.4136720772220249
Scutellaria 1
ciidae 1
jug@@ 0.5588894156167125
ngào 1
omena 1
ont 0.025952419374097434
ver 0.16651236889551208
Battle 0.11724115252126381
Institute 0.0729909392814842
Jima 1
Link 0.7610085263909498
Lund@@ 1
Suez 1
mid@@ 0.3488056023558094
oll@@ 0.42793923553815094
vector 0.7287227621323874
Amy 0.6550898172811205
Ham 1
Morris 0.3567630728046152
ceol@@ 1
eter 0.22360745037691496
insignis 1
ocentrus 1
215 1
Aspid@@ 1
Voice 0.6086415235654915
estrogen 1
hiy@@ 1
mao 1
Arm@@ 0.622920017783077
Federer 1
Foster 0.5835735876173384
Neb@@ 0.6702633200768067
Sean 0.552631351912471
Tit@@ 0.49722961771427554
cad@@ 0.4756027202694834
ch. 1
illata 1
kha 1
sdorf 0.3181514365014955
tissima 1
AA 0.4085011750799466
Dhar@@ 1
Gian 1
Lib@@ 0.620178866070055
Poh@@ 1
Seo 1
Tiêm 1
brasiliensis 1
her 0.007975541853868041
idens 1
sinensis 1
war 0.0065430579667169475
Aderus 1
Botswana 1
Note 0.37876936267723693
acanthus 1
hin 0.21944424774383767
humilis 1
neb@@ 1
rubr@@ 1
Cla@@ 0.6393563375106291
Erigeron 1
Palermo 1
Sn@@ 0.6702098039563524
abi@@ 1
ass 0.2735621608859898
sak@@ 0.7438183342853651
139 1
38.@@ 1
Del 0.3020557387819529
Portsmouth 0.793203874625077
Trứng 1
mich@@ 1
punk 0.4255830747911828
tron 0.9732608763651804
viol@@ 0.3940453362179638
1786 0.7972902748008204
Abdullah 0.9732402833956185
Poaceae 1
Saxifraga 1
fu 1
igidae 1
ogramma 1
sumatr@@ 1
tịnh 1
ych@@ 1
Dz@@ 1
Già 1
Lak@@ 0.5899425415968961
NH@@ 1
PL@@ 0.6535830906305738
Phoen@@ 1
ẹ 1
Band 0.08874474013941337
Barneby 1
Hannibal 1
Pant@@ 0.9237912876870867
Sed@@ 0.8706343701876244
Zi@@ 0.40445569316587293
ady 0.7254877142664664
ikawa 1
oryc@@ 1
pach@@ 1
Acron@@ 1
European 0.05199476089368751
Hadena 1
RI@@ 0.4512354477513325
Vy@@ 1
bag@@ 0.7681312710621552
by@@ 0.6158147573971672
errima 1
teen 0.764214731757823
ńsko 1
Cant@@ 0.4722044084097866
Child 0.5349142785612374
Müller 0.413872987668319
Sihanouk 1
acaceae 1
mol 1
Dùng 1
Gem@@ 0.5242623477472251
Kaiser 0.26406928646156774
Tảo 1
Virus 1
elles 0.08795644563910295
loides 1
trach@@ 1
153 1
A.S.@@ 1
EC 0.49962969092263415
Kod@@ 1
Wells 0.5178576091073098
enzym 1
305 1
84@@ 1
Gul@@ 0.48927918770927853
Helen 0.4579614159224938
Lima 0.39166197596319563
Siph@@ 1
UAE 1
core@@ 1
esus 1
lebia 1
parti@@ 0.4166234849525098
res 0.23561606163869087
yer@@ 0.7902719292591306
Calym@@ 1
Colletes 1
Delaware 0.5269217027451062
Mart. 1
Sphec@@ 1
Turridae 1
Yale 0.47771495201742076
ecium 1
ươn 1
176 1
32,@@ 1
Calvados 1
Force 0.0962424877470152
RA 0.39735016071003193
bergii 1
ped@@ 0.6094586186269524
tẻ 1
33,@@ 1
Colombo 1
Gom@@ 0.9097070149172741
Rubiaceae 1
Ve@@ 0.5814609937361723
Yer@@ 1
ingi@@ 1
nú@@ 1
osema 1
skaya 1
Bologna 0.9804206667378871
Haf@@ 0.634664910694499
Ivan@@ 1
Loir 1
chir@@ 1
if 0.04203341442396643
pera 1
pres@@ 0.21769853986270848
88@@ 0.9631717366069752
API 1
Gồm 1
Mitsubishi 1
Savoie 0.7915203374100741
Whitney 0.8536699886993738
ange 0.3786257068719311
violin 1
zek 1
201 0.938771895400779
Joan 0.42186687373845927
Vriesea 1
amangala 1
idium 1
umo 1
võng 1
Chiang 1
Euler 1
Geotrupidae 1
Lach@@ 1
Mnet 1
Nong 1
Willd. 1
Z.@@ 1
istes 0.17974465192524838
quark 1
Family 0.18071135438159625
Hau@@ 0.5510139589627909
Kuala 1
TA 0.3876901113227805
Tell 1
Tet@@ 1
anni 1
aticus 1
uyển 1
380 1
C2 1
Dr. 0.10068773502802497
Hispanic 0.4749899016354242
Krish@@ 1
Pérez 0.42093284657042723
Veneto 1
azu 1
ept@@ 0.9326988038484255
iculatus 1
oric 1
zel 0.7422121454485449
Aqu@@ 0.5560827742484906
Atlético 0.5276299068430367
JTWC 1
Mohammed 0.66756155807784
Mou@@ 0.6004135450851094
Trâm 1
antho@@ 1
concert 0.19020038588225294
dot@@ 0.4705969895417357
thom@@ 1
3.0@@ 1
Hotspur 1
Single 0.3135937909378622
Tō@@ 1
niệu 1
ostemon 1
suff@@ 0.8023070430975441
2,6 1
63@@ 1
Delphinium 1
Jump 1
Phyllo@@ 1
Tower 0.3323295170197391
thorax 1
Kah@@ 0.7272366501809685
Lloyd 0.3855696844035533
Lob@@ 0.6558570154140243
dist@@ 0.6523999651746449
fluoride 1
yen@@ 1
Bunge 1
Kate 0.5330130387937477
Phì 1
Tib@@ 0.7777999416259388
Vista 0.898027192587055
ellatus 1
evi@@ 1
ilic 1
Dennstaed@@ 1
gon@@ 1
iscidae 1
mach@@ 0.6293638300232217
ngu 1
ochus 1
ores 0.16826823822409523
Quebec 0.29343948113808016
Take 0.7832483388112429
myr@@ 1
Bom 1
Minsk 1
Sur 0.12143542010362708
Tommy 0.4690197608283961
Uz@@ 1
coron@@ 1
inaceae 1
miaceae 1
mô@@ 1
ospora 1
Ayutthaya 1
NBC 0.3442520966545299
Silene 1
emma 1
golf 0.495564485232093
khăng 1
ult@@ 0.725458773488427
Cob@@ 0.6579105410527057
Eun 1
Phnom 1
Tarn 1
glu@@ 1
lymph@@ 1
oh 0.8789136982214765
ragma 1
tara 1
子 0.11529344327199534
Ever@@ 0.8195062015452125
Nan 1
eyi 1
ous@@ 0.5208089329950999
spr@@ 0.30506857579397473
tier 0.21050852705120046
uno 0.06582723876603559
151 1
Andrei 1
CR@@ 0.5380200594742269
Fa@@ 0.6890982976963157
NT@@ 0.8925296139147686
Tus@@ 0.7896485382486294
spar@@ 0.37716654756117385
60.000 1
Fol@@ 0.2900214809395102
RT@@ 0.6041537253696845
SmackDown 1
Teen 1
Zan@@ 1
eron 0.33358605969131944
ettia 1
int 0.6412935048955503
Brom@@ 1
Gardner 0.9278812229615642
Hugh 0.4124635695368083
SK@@ 1
Thel@@ 1
anak@@ 1
hot@@ 0.8374719406148123
nick 1
Ampedus 1
Capitol 0.7174201819998405
Cli@@ 0.7606226065270266
Hass@@ 0.9655515166973915
Now@@ 0.6411311809519318
Philodendron 1
Plus 0.2708797927760766
Southampton 0.8479205173031522
aver@@ 0.39889067969234754
fa@@ 0.33700183100574665
hot 0.3575727776874609
ment 0.08810786058116027
world 0.03850321830617262
Apamea 1
Tang@@ 0.6624538904057825
Volga 1
tốp 1
Chen@@ 1
Crete 1
Eud@@ 1
MBC 1
Mont 0.44468486715771294
Ptinidae 1
SARS 1
peduncul@@ 1
stell@@ 0.6779473925727358
yeong 1
ượu 1
AV 0.7390370248350627
Bút 1
Cảo 1
Floyd 0.7818414158151775
Phili@@ 1
card 0.23219565763605118
chan 1
cio 0.36081989462054276
erg@@ 0.3058678959453075
iculatum 1
oscyphus 1
sess@@ 1
Corn@@ 0.7415899428143523
Lancaster 0.7233149649678692
Prion@@ 1
Zyg@@ 1
nav@@ 0.5864798548699006
Aus@@ 0.08334074400033244
Edgar 0.5352301466175672
Four 0.20180451144960135
HP 0.7892657723693687
RS 0.423531989797544
Research 0.10593996555757593
Rihanna 1
Silver 0.3380653744336576
Stanford 0.4972248666828448
kar 0.46320414795223264
monticola 1
quer@@ 0.4958305056757364
óa 1
174 1
Alps 1
Cry@@ 1
charis 1
ches 0.13302370919122394
ensi@@ 0.7433508154033808
fol@@ 0.4297286388224624
gar 0.337430896125323
heli 1
192 1
2025 1
Cherny@@ 1
Owen 0.5583793299994353
Syr@@ 1
enda 0.8746083219986097
fusca 1
sol 0.22675497911465767
vulus 1
za@@ 0.8790776430115176
ø@@ 0.36619933713412023
ː 1
212 1
Captain 0.19801928225066465
Hautes 1
Pedley 1
Sib@@ 0.8901095082525947
Tokat 1
eia 1
insk 1
zen 0.2065947246038774
ự@@ 1
安@@ 0.1883163816864245
Aderidae 1
PP 0.6412318734501019
Secret 0.5440985126046529
Spencer 0.5177566780807971
cops 1
day 0.030950487119500335
fas@@ 0.7148818584176508
iva 0.5162690941734629
minuta 1
odi 1
onne 0.2830344273486458
pris 0.32190528096324544
Ê@@ 1
ế@@ 1
186 1
Amer@@ 1
Novgorod 1
QG 1
Rommel 1
eil@@ 0.7474077757817781
new 0.014946074449487265
oneur@@ 1
sta@@ 1
ậu 1
480 1
AKB48 1
Ant@@ 0.8082736208381851
Jer@@ 0.558022872959564
Kạn 1
N.E.Br. 1
Parap@@ 1
lik 0.4590312970296923
ostemma 1
tt@@ 0.682611980730083
Anton 0.3338418001142485
Campanula 1
Château 0.48137361859702676
Lockheed 1
Mau@@ 0.5274515056645603
Maxim@@ 1
bek 0.755244936032838
eol@@ 1
eurodes 1
ors 0.0747758644596828
pag@@ 0.5382682290387611
toides 1
uana 1
Chitradurga 1
Cra@@ 1
Felipe 0.42932717619537264
Luz@@ 1
ME@@ 0.3595276349723897
NT 1
Nile 1
PO@@ 0.5535638489020279
par 0.005318571771221816
zu@@ 0.2568815150318802
Hemi@@ 1
Phot@@ 0.6047772569859997
Reitter 1
Television 0.22002549162580934
dang 1
dir@@ 0.7077464708144291
duc@@ 0.469618828776595
fat 1
ushi 1
ysia 1
1700 0.5812153177343276
340 1
Bahamas 1
Croat 1
Hesper@@ 1
Iris 1
dum 1
odonta 1
ovi@@ 0.8638233909326497
sus@@ 0.6635659718503972
ˈ@@ 1
1787 0.6680814512893258
Batt@@ 0.6845146116750048
Rogers 0.43468903226669475
Thebes 1
Tmarus 1
brunne@@ 1
vat@@ 1
氏 0.27130036504639576
74@@ 1
Oro@@ 1
PR 0.6485040854921855
Sevilla 0.521585214494348
into 0.011342431401490457
olobus 1
Inca 1
Us@@ 0.6858875247796715
also 0.0054176852357042
andr@@ 1
iton 1
zer@@ 0.30302666885973106
子@@ 0.3929006653531834
1791 0.5551973515671403
275 1
Alt@@ 0.280913327780393
Campania 1
District 0.04043601022764723
Norte 0.24561333779017636
Rev@@ 0.36461474441090436
Tae 1
Zh@@ 1
Zhukov 1
arist@@ 1
aye 0.48372812172742596
oon 0.42203900669734634
pilosa 1
Fleisch@@ 1
Noth@@ 1
dioc@@ 1
onga 0.827547543675779
plasma 0.850920739957302
rostr@@ 1
rur@@ 1
syl@@ 1
º@@ 1
ươu 1
164 1
AI@@ 0.44923115660947943
Jesus 0.24220797703819047
Scytodes 1
Teph@@ 1
oc 0.871678260240757
172 1
204 1
Diana 0.5942774238794378
Dusona 1
Garay 1
MB 0.7712354208813547
Ost@@ 0.21028402488925654
amea 1
ault 0.39604418154344656
com 0.5622377261625514
lies 0.11253501684167824
pect@@ 1
phthalm@@ 1
umbr@@ 1
Pyc@@ 1
eter@@ 0.6550055517780533
icro@@ 1
scut@@ 1
sel 0.3109745311438877
thesaban 1
290 1
Cord@@ 0.9958131367768126
DI 0.9039384677777367
Philippos 1
SL@@ 0.7242161385449609
Sebastian 0.4485564086392546
euc@@ 1
1793 0.4069065418836735
Alto 0.5656960245675915
Idlib 1
Lad@@ 0.415790222782134
Lath@@ 1
Pall@@ 0.8198389949039875
Switch 1
TE@@ 0.5140677970989757
U. 1
abar@@ 1
semi@@ 1
then@@ 1
uer@@ 0.5074386877456595
Dortmund 0.7315595664053737
Game@@ 1
Hid@@ 1
Ix@@ 1
Mountain 0.18977785122536836
Nev@@ 0.8682987951741523
Phyllon@@ 1
Poecil@@ 1
caerul@@ 1
cosa 1
fasci@@ 1
incer@@ 1
ophilus 1
philidae 1
ulina 1
Age 0.296962354216138
Coast 0.15708183173597426
Guinness 1
Joyce 0.9081029653025732
Mab@@ 1
Mason 0.5079754268603649
Messi 1
Reh@@ 0.7678886163518089
Shah@@ 0.7072988111069423
allia 1
amonia 1
bracte@@ 1
gib@@ 1
have 0.008389583211618956
phosphat 1
ē@@ 0.9760409083943923
Bin@@ 0.5964722387502144
DV@@ 1
Ilex 1
Jag@@ 0.6312656162980421
Mae 1
Pay@@ 0.5473697660522555
YG 1
lav 1
ár@@ 0.4329115575420338
Xyloc@@ 1
angi 1
eg 0.6093516045574969
giana 1
had@@ 0.7254416704117828
muban 1
nd@@ 0.5097378180772302
Cost@@ 1
Garcinia 1
Harvey 0.4878011916760187
Hô 1
Ju 1
Konya 1
Leeds 0.4368532218426747
Rubus 1
Standard 0.2967186563784147
Teut@@ 1
borne@@ 1
ello@@ 1
vii 1
Felix 0.5044123903349609
Torres 0.5498903716962392
amide 1
0,6 1
Agath@@ 1
ario 0.1463712540032618
delic@@ 1
ici 0.3149445347743072
law 0.04634403487627889
ond 0.4336781245303161
ẽ@@ 1
1794 0.48656299222397487
Anura 1
Dublin 0.25863758743507553
Eisenhower 1
God 0.14545891864781588
Ron@@ 0.8058692258746308
Trin@@ 0.8855420789101918
gracili@@ 1
out@@ 0.10441017827780812
Jae 1
Jin@@ 0.8978066199897125
Mini 0.9239042114397908
NCH 1
Sabah 1
States 0.020920504411547372
aim@@ 0.9000719218895655
fimbri@@ 1
had 0.005498535259504118
lenbergia 1
183 1
207 1
Harpac@@ 1
Heteropoda 1
angu@@ 1
chon 1
het 1
jō 1
mail 0.47797269584305396
manni@@ 1
ocarpum 1
Macar@@ 1
Morrison 0.6865467776276255
Sheeran 1
Small 0.5389319209842219
gata 1
ovka 1
đu@@ 1
2,8 1
Abe 1
Amp@@ 1
Deb@@ 0.3888658144291644
Galileo 1
Troch@@ 1
asci@@ 1
aun@@ 0.4391990059082982
Chand@@ 0.7241293993456134
Omar 0.7582991731197146
Soph@@ 1
Sund@@ 0.8788355776623228
ante 0.04575322293554052
brunnea 1
carya 1
tius 1
189 1
Doraemon 1
Haz@@ 0.5255549088444511
Kou@@ 0.7949870193282086
Poznań 1
Sicily 1
Tig@@ 1
Watanabe 1
af 0.521975507163735
ail@@ 0.3455311773078484
atea 1
aurus 1
visual 0.2923282532557127
167 1
221 1
Ashley 0.8929011337228013
BP 0.785040663894058
Draba 1
Maur@@ 0.5453181835922075
Princeton 0.5761818680322898
Roberto 0.4082665744821018
lanceolata 1
孝@@ 1
Alexandra 0.7443134271615581
Aristotle 1
Big@@ 0.624153389370774
Diyarbakır 1
ER@@ 0.45122480593068454
Eragrostis 1
Geranium 1
Nis@@ 0.9981434480559539
dida 1
lava 1
oz 0.6375406666456183
phan@@ 1
000.000 1
850 0.9371625770967263
Eut@@ 1
Genti@@ 1
Medina 0.8342728481261349
Nhu@@ 1
Yorkshire 0.3638260656424967
ilen 0.6347665817967624
lov 1
École 0.24658146066323477
Angkor 1
Bull 0.5429269076667105
Cylin@@ 1
Rachel 0.5714331180208597
Software 0.38197056226289894
Zer@@ 0.6827639314552765
chrom@@ 0.7482568006807374
dreadnought 1
iec 1
lung 0.5339720427482395
opodium 1
173 1
Aster@@ 1
Conan 1
Gig@@ 0.8498710726948652
Gri@@ 0.4315582963569098
Lov@@ 0.6670216303777292
Powell 0.59147314028159
Ryukyu 1
left 0.03363622895904662
ophrys 1
217 1
Cyph@@ 1
DE@@ 0.42684697103674757
onalis 1
water 0.04070122101951463
35,@@ 1
Bursa 1
Columbus 0.5293091465452361
Good@@ 0.508137106031725
Habr@@ 1
Há@@ 1
Iwo 1
Kro@@ 0.558224257003571
Mazurskie 1
More 0.21897431519637997
SD@@ 0.5934269567704635
WTA 0.7262481400360304
Warn@@ 1
adula 1
aud 0.3047080805009172
dos@@ 1
ody@@ 1
sui 1
ác@@ 1
238 1
Bit@@ 0.5762983240967151
Dipo@@ 1
Murphy 0.43280144600769105
Qaeda 1
Republic 0.08770332623635062
There 0.02937920694686373
Tran@@ 0.45664053021748835
entia 1
osta 1
phone 0.2866088992592063
tn@@ 0.7950894189025526
xy 1
ổng 1
0,2 1
0,3 1
Acid 1
Lobelia 1
Panther 1
Venus 0.7607362631817861
optila 1
Atlantic 0.17114304277957862
Cau@@ 0.8153857276960242
Eniwetok 1
Gov@@ 1
Koh@@ 0.6258331692557116
Rog@@ 0.5913317067628262
Todd 0.562703735167126
ocryp@@ 1
ogo 0.9198126403431144
179 1
Alberta 0.37587820362899577
Karak@@ 1
Pascal 0.731619776511851
Sey@@ 0.9678482404917405
alea 1
icifolia 1
0,8 1
163 1
Brussels 0.7463205254420751
Gall@@ 0.5716409282999326
Helicop@@ 1
Mill 0.4838243090788644
Non 0.4025214461206382
Pti@@ 1
agar 0.9534754482473613
onda 0.6364255721661929
terus 1
Clara 0.5057950913950356
ST 0.7015919690430317
Toyota 0.6353438544761696
Zak@@ 0.9996713676911321
box 0.17160749111881488
hwa 1
indi@@ 0.32885191233858385
opodidae 1
picta 1
rub@@ 0.9894890833890707
spic@@ 1
325 1
Kai 0.8895650694828393
Verde 0.7937770162812721
Xyl@@ 1
antes 0.051956556149500926
ioides 1
madagascariensis 1
phyr@@ 1
rat@@ 0.6920695727213767
steroid 1
Clin@@ 1
Dioc@@ 1
Saw@@ 0.9542022784795723
adensis 1
eryth@@ 1
online 0.16615739476337044
orb@@ 1
pium 1
ươm 1
Chak@@ 1
Copelatus 1
Jay@@ 0.6074944477007392
Maxwell 0.7919985345351015
Morton 0.869424267496987
Sheffield 0.4944918684346293
VO@@ 1
siaceae 1
ycidae 1
Belize 1
Kurt 0.35747845302644427
Stic@@ 1
tao 1
õng 1
Colum@@ 1
Korea 0.17177259106939455
Nepti@@ 1
Puy 1
hiro 1
istan 0.6370584709733969
laur@@ 1
lipid 1
med@@ 0.490165662092636
皇后 1
Isabella 0.9459981770614354
Leonardo 0.7706808144441497
Sant@@ 0.5421074005128832
Stefan 0.44128911593299097
Sud@@ 0.6408176813539577
avi 0.6722797998648405
cylindr@@ 1
nemis 1
184 1
199 1
Aren@@ 1
Elâzığ 1
Mohamed 0.6342843866917746
Pra@@ 0.6975443495149453
Tek@@ 1
ated 0.030449788031429312
dera 1
geri 0.672938364835521
hirsuta 1
olim@@ 1
thor@@ 0.8153678304560995
193 1
9.000 1
Bahia 1
Glenn 0.66167791625165
Hey@@ 0.5293595633557298
Nad@@ 0.669619740416818
SL 0.6622976919418876
Togo 1
orhina 1
stedt 0.7195575339866842
Baccharis 1
Bod@@ 0.3216379439406014
Capo@@ 1
Never 0.6640920478704899
Planck 1
Viola 1
alta 0.29049833131937025
ations 0.04040671857811759
cal 0.5494303695334951
ceph@@ 1
hak@@ 0.871986227447297
iyah 1
olana 1
spath@@ 1
unk@@ 0.35294770859346075
Akira 1
Bar 0.3232838311077702
Chamberlin 1
Lumpur 1
Was@@ 0.5046109532725829
africana 1
densi@@ 1
itta 1
met 0.06429968101484215
proctus 1
pun@@ 0.30339125513821186
stachys 1
222 1
420 1
Alliance 0.25782216450389245
Instagram 1
Nel@@ 1
Palae@@ 1
Peters 0.86055275661287
Vienne 0.4700130139918974
cham@@ 1
Aston 0.8987078099144254
Cyb@@ 1
Kabul 1
Kre@@ 0.29143759548137865
Len@@ 0.4350764308124471
Sl@@ 0.45807823571884204
Sphagnum 1
West@@ 0.1377834007495922
ats 0.09651904289256273
mah@@ 0.7587323412082245
style 0.045256352634606596
8,5 1
Glasgow 0.2978218314479241
Kütahya 1
Marina 0.4736363160689992
cru@@ 0.5543107228744015
stach@@ 1
177 1
Falcon 1
Fu 1
Mez@@ 1
Nguy 1
Parac@@ 1
SE 0.4794891547362023
Sophie 0.4502100277757739
pachy@@ 1
án@@ 0.337744630308621
Days 0.4745317020617452
Diplo@@ 1
Doctor 0.22378992507242787
Koster@@ 1
Marcel 0.41438915567139734
Movie 0.6291453434146503
Phra 1
Productions 0.4102829526278558
Raman@@ 1
asha 1
hav@@ 0.6567250543803983
ig 0.27287519941150645
ingo 0.6770443812098842
Indom@@ 1
Luang 1
Yozgat 1
alyx 1
ingensis 1
inski 0.5917973723634529
lach@@ 1
178 1
2,7 1
CT@@ 0.7160139922530471
Elena 0.6383302808653324
Nass@@ 1
anea 1
aon 1
nidae 1
obi 1
omerus 1
osi 0.9434673155801108
wak@@ 0.6487942897037944
Bavaria 0.9249742995069816
Business 0.17201121846931608
Chun 1
Khan@@ 1
Nations 0.14774568340215366
Nur@@ 0.6924701479470401
Tel 0.5773922860956519
asu 1
lifera 1
tenuis 1
½ 0.7106140723559474
Cordia 1
Five 0.2725101133768038
Logan 0.7281938085542631
Maximilian 0.7945030264561277
Nau@@ 0.879486856125828
Oslo 0.4697924872287745
Phone 1
Run 0.44523290161563017
Woman 0.38363504248590297
ego 0.439424376444311
gic 1
orrhiza 1
uyết 1
vn 1
yia 1
Bradford 0.6660321688802974
Luk@@ 0.7577233530296577
Ornith@@ 1
Passiflora 1
istra 1
ott 0.3990837297524257
元@@ 0.4320977723576224
166 1
1776 0.6122181388376114
262 1
Campylo@@ 1
Chit@@ 1
Cru@@ 0.5567312798063436
Inga 1
Karen 0.6621328677867183
Shik@@ 1
Sty@@ 1
Suz@@ 1
Takeshi 1
Wyoming 0.6893730974984666
glucose 1
illi 0.8090671758230695
lax 1
plec@@ 1
ypter@@ 1
Cun@@ 1
Lazio 1
Ricardo 0.47147351726066405
Spil@@ 1
atra 1
aurea 1
cá@@ 0.9873232385754048
dollar 0.9031272657822236
lamys 1
ymus 1
308 1
Cus@@ 1
Ehr@@ 0.5917754066972095
Hyl@@ 1
Pec@@ 1
Rhode 0.5739140193119431
Sha@@ 0.5796731550577423
esiidae 1
manii 1
mollis 1
pov 1
uto 1
182 1
265 1
365 1
Caledonia 1
Eleph@@ 1
Phae@@ 1
Rotten 0.7278471454382804
Yaz@@ 0.9836572779452603
aica 1
ao@@ 1
nev@@ 1
Adele 1
Clarke 0.48587657166729475
Damascus 1
Erich 0.5570894307281586
Mirage 1
Money 0.6603503399631742
Nymph@@ 1
Oa 1
Sunni 1
aire 0.07059524266558308
alpina 1
antenn@@ 1
urga 1
öy 1
Band@@ 0.3244756549408031
Ferguson 0.8109369906100349
Fro@@ 0.576675773095379
Kov@@ 0.9592955165753415
Tay@@ 0.8142980004721072
fran@@ 0.7363779919129458
BAFTA 1
Eb@@ 0.779810263036934
Gra@@ 0.5175797001459403
Loranthaceae 1
Lu 1
cadion 1
carp@@ 1
yeri 1
Aki@@ 1
Beograd 1
Brest 0.7722679481800373
Cola 1
Metz 0.6704752179549381
Orlando 0.5304213902685274
Pero 0.3391913556691101
Proc@@ 0.9586372519390735
Trachy@@ 1
Vent@@ 0.9989625101143359
acanth@@ 1
eland 0.48016672092966434
enne 0.137358155443205
icans 1
oca 0.8170618739442629
oter@@ 1
rhom@@ 1
wr@@ 0.40724193137359943
Baill@@ 1
Kras@@ 1
Tanaka 1
Til@@ 0.46874247878890307
Zach@@ 1
board 0.07852242879388419
caria 1
â@@ 0.3560739679543734
228 1
95@@ 1
Bern 0.520767216890463
Box 0.3975198034400317
Chia 1
Loa 1
Rang 0.27255940123308936
Saussurea 1
Spe@@ 0.3906557006647284
Sv@@ 0.8170665006705752
decor@@ 1
wor@@ 0.2617110753852084
Rub@@ 0.6608218193726029
akov 1
atom@@ 1
gó@@ 1
kus@@ 0.8920023160018398
magni@@ 1
nitida 1
š 0.5551339300355393
ấ@@ 1
300@@ 1
Cri@@ 0.6335574056168042
Henderson 0.6220202648932128
LG 1
M1 1
Oen@@ 1
Stigmella 1
acula 1
aes@@ 1
val 0.46644632813953235
ỷ@@ 1
34,@@ 1
Africa 0.07880528961070112
Dios@@ 1
Duke 0.1593479159064337
Face 0.6403047704986515
Incheon 1
Myl@@ 1
Pros@@ 1
Sym@@ 1
ifer@@ 1
tsch 1
tt 1
ớp 1
Augusta 0.7206909921922631
Essex 0.5122576322146701
Hanover 1
López 0.31285932514627607
Neos@@ 1
Troia 1
anense 1
elea 1
ew 0.6265271205306704
tonia 1
vet@@ 0.5126492282706554
ynia 1
Yi 0.9169282037471407
aphyl@@ 1
asta 1
eba 0.9837493465952135
fron@@ 0.7908747636178985
kel 0.27542261906302734
linear@@ 1
squam@@ 1
Brun@@ 0.5054864683208559
Cent@@ 0.7138601927517307
Gandhi 0.8807321866034687
Grey 0.46799425940427236
Hydr@@ 1
Muk@@ 0.9390495887210212
Naples 0.5047156004423666
Smolensk 1
comment 0.5263721008765357
ege 0.7108903484118032
esh 0.3844708641634331
ocharis 1
thiop@@ 1
ợi 1
223 1
3,2 1
98@@ 1
Rocky 0.6747139694913762
Sardinia 1
atta 1
das 0.004929054438587238
edr@@ 0.4903428619978706
oscelis 1
osi@@ 1
otoma 1
Eritrea 1
GNU 1
Jorge 0.2682272881773542
Raich@@ 1
With 0.057492693865891197
anger 0.3478877134554714
kie 0.9967525839502328
rotundi@@ 1
1795 0.4538750749103616
181 1
188 1
Bali 1
Khal@@ 1
Kham 1
aut 0.27134216332529276
etz@@ 0.41452309869243237
gren 0.9567836299660484
sev 1
ợ@@ 1
武@@ 0.30844234430319734
CL 0.7587334857184145
Cron@@ 0.9234739893030732
Eagle 0.5373357712940974
Edge 0.6759360342997628
Morning 0.5046352347430372
Rhyac@@ 1
Richmond 0.32605937577354355
Saxony 1
Sweet 0.6333658984067619
flavescens 1
insulin 1
kea 1
Adelaide 0.41628571362867484
App@@ 0.6245908277620823
Ağrı 1
Calamus 1
Dict@@ 1
Herschel 1
Nice 0.5832288952742636
Server 0.8620518241588285
Yen@@ 1
agi@@ 1
attenu@@ 1
insul@@ 0.9491997120932326
todon 1
ysi@@ 1
Calabria 1
Cichlidae 1
Cricetidae 1
Soo 1
Ural 1
enger 0.6766311196041024
luk 1
vertic@@ 1
Dein@@ 1
Paran@@ 1
Scotia 0.6481102216311808
ahara 1
cord@@ 1
kowski 0.9378166801796195
osma 1
pha@@ 1
quy@@ 1
rao 1
tipes 1
trin@@ 0.9360143238680524
劉@@ 0.4443492758044422
Beautiful 0.8789985667233365
Herac@@ 1
Ibrahim 0.7924322210874207
Wat 1
arach@@ 1
gutt@@ 1
iella 1
lap@@ 0.6678141501520993
mark 0.17590898283735223
opelma 1
sav@@ 0.41314752412199296
tila 1
196 1
36,@@ 1
Hex@@ 0.8639520819181086
PL 0.8829912667523588
Pitcair@@ 1
Seb@@ 0.8694360347897436
Station 0.0986608560934888
arbor@@ 1
bergi 1
ná 1
sy 0.4546059138263149
ères 0.1681726657299677
198 1
Dick 0.38488009809334084
lot 0.15174076341624418
oralis 1
ort@@ 0.7323204979285747
taxi 1
xo 1
304 1
Bas 0.33540239156903284
Gru@@ 0.5201383547128344
Jab@@ 0.8110067189595901
Jal@@ 0.7113118352675643
Zon@@ 1
latus 1
owska 1
Gros@@ 0.8410015255798333
Id@@ 0.7423814693879596
Keith 0.39562452670160164
colspan 0.21919014733399375
plac@@ 0.6972473764080852
78@@ 0.9171945222552667
Camus 1
Casey 0.8587178980290996
Cinnamomum 1
Din 0.8900684263123909
Ko 1
Tham@@ 1
Visual 0.8265311755013866
Wembley 1
Yoshi@@ 1
acu@@ 0.5996644524382152
grandiflora 1
head 0.04373180204594047
opeltis 1
xus 1
Argyro@@ 1
Dah@@ 0.7138209547601543
Elo@@ 1
KBS 1
Major 0.12246849093630593
Mesol@@ 1
Olivier 0.5303212506428009
Ono 1
Post@@ 0.20852454898571196
Roh@@ 0.4075815866919418
opal@@ 1
ord 0.5609055995625689
ç 1
Blood 0.4758082441482785
CONCACAF 1
Stipa 1
t.@@ 1
éc@@ 0.39782971829027475
149 1
Andaman 1
Assam 1
Bamb@@ 1
Craig 0.4199030836451812
Cum@@ 0.6811130147998672
Dir@@ 0.9333694550821753
Hideyoshi 1
Kenneth 0.5407035795611387
Linkin 1
Lus@@ 0.6745541045636784
Roy@@ 0.6128676332887315
Trel@@ 1
cyclo@@ 1
ineatus 1
ingu@@ 0.8023565925371893
seri 1
255 1
After 0.018078543770549408
Djokovic 1
Gdańsk 1
Get 0.5358691859036293
MHz 0.6966845170133301
Pres@@ 0.20189681433100493
Shakespeare 0.43089916410131707
anot@@ 1
atensis 1
dina 1
iei 1
iss 0.40114945051583967
lucida 1
ml 1
olor 1
pallidi@@ 1
Sara 0.5937023911390465
See 0.14548480109947515
Tyler 0.5720611916481102
ael@@ 1
arensis 1
cas 0.10222708481519023
iz 0.4184148265160237
mph 0.6696058854106457
type 0.053760403693710504
variegata 1
158 1
Gaz@@ 0.7901179522735521
Hussein 1
IT@@ 0.45670375948202196
MIT 0.7486057942134915
Microl@@ 1
Nagoya 1
Northern 0.09966911908221955
Saxon 0.7775922776857471
Yor@@ 0.916720819861316
bracteata 1
dag@@ 1
ecki 1
enburg 0.3024076332888975
noides 1
teaser 1
171 1
Camb@@ 1
Gav@@ 0.8049251450107662
Montreal 0.245651143470912
Passalidae 1
demo 0.9202353518309132
latifolia 1
tac@@ 0.712883981118722
tur 0.583563454544446
Buk@@ 0.954682449294794
Celtic 0.5087643450819019
Edmund 0.5068196044856298
Nin 1
Raz@@ 0.61587585888632
lima 1
og 0.37800829791145424
ophilidae 1
rag@@ 0.5165990139366411
Ế@@ 1
1782 0.6439331756649119
213 1
Acan@@ 1
Baltimore 0.2632931793491649
Navarre 1
Roth@@ 0.6214705425892602
epi@@ 1
gne 1
oceros 1
wh@@ 0.2643535058574241
ậ@@ 1
Indian 0.057944542931675086
TT@@ 1
Uni@@ 0.41389295673250476
apr@@ 0.8066825310333854
leya 1
Cym@@ 1
Juncus 1
Kau@@ 0.835074718205889
Thom@@ 1
ave 0.31566926745646273
c.@@ 1
chap@@ 0.6884778206102886
cuspid@@ 1
ider@@ 0.6289180676864222
iwa 1
montanus 1
ocha@@ 1
ovir@@ 1
recur@@ 0.8552277392663837
shō@@ 1
1783 0.5774509075327289
38,@@ 1
Hawk 1
Justicia 0.7831321775369338
Lud@@ 0.5765877522150418
Wh@@ 0.3318295978865907
atin@@ 1
speciosa 1
var 0.4376892591861478
én@@ 0.17770725036340781
1772 0.7045190520805473
191 1
31.@@ 1
Aircraft 0.6142803215425889
Arist@@ 1
Basque 1
Beyoncé 1
Jen@@ 0.7154497879787387
abo@@ 1
caliber 1
celeb@@ 1
das@@ 1
dict@@ 0.660456989449612
mati@@ 0.574973901058482
tosa 1
ub 1
་ 1
219 1
Anto@@ 1
Bh@@ 0.9733507675591765
Pablo 0.2776353684140441
Pag@@ 0.7133321858050261
Pedicularis 1
Pristimantis 1
Stade 0.4324833921820376
Symp@@ 1
Vosges 1
alata 1
dolich@@ 1
schn@@ 0.8461139563895436
187 1
197 1
Buck 0.9834799950707345
Callic@@ 1
Drake 0.6795853370908521
Hip@@ 1
Jules 0.3794587193641125
Keyserling 1
Name 0.0885676020488288
aenidae 1
esti 1
ket 0.5252816481147626
marmor@@ 1
net@@ 0.4534697210780408
Epis@@ 1
García 0.24211105008072478
Hood 0.7729936323073469
Kob@@ 0.8797108938706697
Than@@ 1
Ueda 1
acar@@ 1
ifer 1
igan 0.6842482621218886
municipal 0.12635438762042767
wiki 1
Dist@@ 0.825688140403282
Fag@@ 1
PM 0.6144905326095698
aklı 1
anya 1
ben 0.1452198009911762
cke 0.8939693391062902
culata 1
limb@@ 1
striata 1
tat@@ 0.636715356314012
two 0.007502614173389075
1797 0.4905098735382397
CE 0.3012313327228492
Nassau 0.5777451564369553
Rep@@ 0.4143612770735189
Sunday 0.20433602748303709
Tau@@ 0.6241030796280993
ader 0.3661482313466141
apis 1
eir@@ 1
lex@@ 0.8419431684219487
methyl 1
ology 0.09806825241232676
star 0.11382286747933468
ás 0.4495787515554828
Barb@@ 1
LED 1
Polynesia 1
Senior 0.2313227634313699
Yay@@ 1
amo 0.592560065174713
eris 1
lepis 1
paris 1
sag@@ 0.7408490681651815
ững 1
Abraxas 1
Boy@@ 0.5254136668536353
Jih@@ 1
Josh 0.5609200037266453
Miranda 0.6934450595521714
Pavel 1
Today 0.19783607731771694
ampa 1
icera 1
spinosa 1
toph@@ 1
ỗn 1
Agel@@ 1
Aphan@@ 1
Casablanca 1
Hello 1
Sénégal 1
esz@@ 1
grise@@ 1
ková 1
phr@@ 1
明@@ 0.2562282252182593
312 1
Hannover 0.32029587017652283
Margin@@ 1
Microm@@ 1
Rz@@ 1
SM@@ 0.5044183364476678
Shor@@ 0.9625989978378225
aphne 1
bou@@ 0.32867259146388544
gom@@ 1
ianus 1
,@@ 1
Adobe 1
Deep 0.5088624663990574
Dodson 1
Garr@@ 0.9413612868802763
Theodore 0.6333883706640432
Zhu 1
cium 1
off@@ 0.20033811109213404
sius 1
High@@ 0.44136770340405856
Horn 0.635371377396611
Mardin 1
Nach@@ 0.16352831311307983
Saxifrag@@ 1
Warmi@@ 1
ceps 1
confer@@ 1
icolor 1
itaria 1
ocnemis 1
parviflora 1
ở@@ 1
Antig@@ 1
BT@@ 1
Penang 1
Tomatoes 0.7541866574299748
Triple 0.45533765923141245
XH 1
ache 0.25042296676013215
aira 1
discolor 1
ej 1
elo 0.39578291130769166
icor@@ 1
oxylon 1
poides 1
400.000 1
767 1
79@@ 1
Bob@@ 0.5022089067176083
Glau@@ 1
Jeanne 0.4636462703925697
TR@@ 0.6540469075773602
Torre 0.5926608049316424
Unix 1
cius 1
enf@@ 0.18767022366236163
hPa 1
linia 1
mose 1
noc@@ 1
tog@@ 1
ứu 1
Chang@@ 0.6518333995502111
Cry 1
Danny 0.4223466361949946
Laboissiere 1
René 0.30260394264226126
Sánchez 0.42907585901464296
imoto 1
omera 1
ypus 1
AK@@ 0.8215109275862281
Century 0.34996022681269234
Challenge 0.2951370917874439
Coen@@ 1
Ryd@@ 1
Second 0.08947129214813386
Stachys 1
angus@@ 1
wia 1
ém 1
0,4 1
161 0.9953590955129173
Cros@@ 0.8326115319331432
NH3 1
Seiji 1
Sergei 1
Shan 1
otricha 1
over@@ 0.07804398197774488
rin 0.8191380390953878
sophila 1
team 0.01481612214820896
ǎ@@ 1
AG@@ 0.5150444637971446
Braun 0.9740992405621671
Gaul 1
Québec 0.20027620857101563
endrum 1
osph@@ 1
tie 0.1953246455148042
Bois 0.5284701680086495
Epicauta 1
Lug@@ 0.7940599418962543
Rob 0.4836316813689618
Vach@@ 1
Zaragoza 0.6849128201210264
jam@@ 1
megal@@ 1
vers@@ 0.19816970981144147
194 1
Afro@@ 1
Computer 0.3473262313322315
Detroit 0.22153051619791678
Erig@@ 1
Kri@@ 0.6020194612528403
Pang@@ 1
Pos@@ 0.33675954260715635
Sol 0.4247421993439135
Soyuz 1
Taş@@ 1
hae 1
opsidae 1
37,@@ 1
Dial@@ 1
Stan@@ 0.7123838909819986
tatum 1
verru@@ 1
zer 0.23441718606333445
Andhra 1
BT 0.907267681691504
Bella 1
Clematis 1
Didy@@ 1
Erik 0.5735020820822054
Genova 1
SD 0.6214623728504934
Stanisław 1
Stark 1
V.League 1
aphy@@ 1
aur 0.948825476137798
deser@@ 0.45610653085036207
etr@@ 0.8366440485678834
natha 1
schmi@@ 1
ựu 1
Liber@@ 0.3681908468132366
Lynch 0.7091272569469595
Saturn 0.9411638387012062
debut 0.04816830650727558
nive@@ 1
ophis 1
rubri@@ 1
track 0.06632288982615082
If 0.09880718452662057
OVA 1
Pha@@ 1
Polygala 1
Porter 0.5839531361367523
enst@@ 0.25694628692189764
interrup@@ 1
mim@@ 0.8696556286520284
sac 0.5885364452791233
shi@@ 0.5236987452860409
ulidae 1
226 1
3,3 1
Chelon@@ 1
Grevillea 1
Nacional 0.07487228351801212
lers 0.12466976914853826
tibi@@ 1
was@@ 0.404713325127251
ü@@ 0.16477747949066018
250.000 1
Euclid 1
João 0.8508214562292469
Lythr@@ 1
Maharashtra 0.9075830687648229
Oaxaca 1
amph@@ 1
eola 1
mop@@ 1
oniella 1
ophylax 1
phae@@ 1
yard 0.13763539566627045
150.000 1
Akh@@ 0.9754310296031655
Fab@@ 0.5880498517694364
Herceg@@ 1
Human 0.20809664341647857
Management 0.175399215216109
alı 1
peri@@ 1
sta 0.6923694499705408
tap@@ 0.3324158588012459
ık@@ 1
三@@ 0.11978824306310586
440 1
Homo 1
Liliaceae 1
Muh@@ 1
SU 0.7794679071347417
auge 1
lik@@ 0.36859340512219907
modesta 1
para 0.007512916795066497
peptide 1
rain 0.3262043862033909
suy@@ 1
89@@ 1
Bolu 1
Chion@@ 1
Gironde 1
Lily 0.9454736078703313
Orchidaceae 1
Oth@@ 1
Ret@@ 0.5431928119689577
Shimizu 1
eaceae 1
edon 1
itsu 1
ses 0.015532303225770254
tar 0.323919404139926
Brachyth@@ 1
Dennis 0.38210945701511007
Fletcher 0.8451779489527146
NCT 1
Neom@@ 1
Special 0.16396180838966665
Sunderland 1
Yuki 1
cri@@ 0.35723219967373243
eas@@ 0.5326382665702802
ebra 1
elma 1
enor@@ 1
glabra 1
group 0.024459489648164176
litis 1
oliaceae 1
ulin 1
234 1
Antalya 1
Idaho 0.5466154218463857
Jr. 0.3932045036890605
Latino 0.4240297774482435
Mecca 1
Pseu@@ 1
VC 0.7327749996530363
commune 0.029388097026483307
ictus 1
mene 1
obu 1
232 1
Elisabeth 0.32474117641769207
Neoc@@ 1
Ong 1
Penh 1
Sheikh 0.9500251827846709
cricket 0.23450750769801454
lasi@@ 1
polis 0.6300061402204574
rah 0.9187069835847361
169 1
Aci@@ 1
Bauhinia 1
Comic 0.6904283725857326
Liparis 1
Over 0.16716358337242224
Paolo 0.7169278826009943
RT 0.5182747667961423
Turk 1
ank@@ 0.6687615485422459
humer@@ 1
nch@@ 1
opterygidae 1
wald 0.25693890733939073
ymb@@ 1
Eva 0.45566651666230146
Hok@@ 1
Kyrgyzstan 1
Seung 1
Shipbuilding 1
Troglo@@ 1
Uran@@ 1
epia 1
etz 0.4457807143330992
fun@@ 0.4363212827976578
159 1
2023 0.7525006497010229
Lion 0.5653983036928366
Nero 1
Wrocław 1
Yon@@ 1
mucron@@ 1
rim@@ 0.7914439031334044
39,@@ 1
Ahmad 0.586228769427697
Bactr@@ 1
Benn@@ 1
Gambia 1
Köppen 1
McDonald 0.6186951741173906
Scythia 1
pan 0.43875389469486364
430 1
Alopec@@ 1
Antoine 0.26363131483715707
CF 0.4703764414260334
Emily 0.5126495395636541
How@@ 0.525725866094641
Malacca 1
Metal@@ 1
Out@@ 0.3161429050741013
Stuttgart 0.25723294994687035
amii 1
anthemum 1
ister 0.2941562027571727
onicus 1
onymus 1
parall@@ 0.8554175709800547
phyllus 1
red@@ 0.26359781353546224
yas@@ 0.9780275188496237
1,9 1
Amur 1
Má@@ 1
Polyg@@ 1
chal@@ 0.6720858907052344
ferruginea 1
glob@@ 0.9204891089507815
mix@@ 0.6951212874673379
oster@@ 1
tas 0.301440067723153
Born 0.15500904261336848
CNN 0.8487115276980212
Chan@@ 0.732724387629596
Fischer 0.42048678272681
Microt@@ 1
ROM 1
Roland 0.3966682589325993
Wan 1
Wanderers 0.8539665524891695
phorus 1
3,6 1
Cabrera 1
Graf 0.3101580453234939
Mark@@ 0.4560411325618143
Mohammad 0.6836790326124063
Pip@@ 1
Woo 1
apar@@ 0.4644104048157263
chem 1
ikov 1
pac@@ 0.7148536610333911
phal@@ 1
remix 0.7222976359778516
rodes 1
् 0.003327448546900045
Cath@@ 0.7644952379643095
Kursk 1
Rut@@ 0.9048834055273313
Sophia 0.8089416397234084
Systems 0.27811068388703947
Ultra 1
Wellington 0.40786896642582665
atilis 1
bid@@ 1
gir@@ 0.37839695129810536
illaris 1
omer@@ 1
optery@@ 1
osti@@ 1
sheim 0.3614325334239673
them@@ 1
u.@@ 1
Bé@@ 0.6223591143611543
Fukuoka 1
Perrier 1
Raven 1
acco 1
cut@@ 0.532172957048184
cú@@ 1
lata 1
oblong@@ 1
ogly@@ 1
oso 0.1558267915739559
pulchra 1
umani 1
Cyrto@@ 1
Francesco 0.3964473969705813
aron 0.05608372489514423
ayana 1
bol 1
book 0.0367734491896383
dent@@ 1
ight 0.3028971658651049
obliqu@@ 1
reticulata 1
tomentosa 1
yunnanensis 1
316 1
Bail@@ 0.9946936966004446
Betty 0.5951864159293018
Carib@@ 1
Johnston 0.672122366759524
Kopp@@ 1
Laden 1
Michelle 0.6320333440272119
Orne 1
Pseudoc@@ 1
Xy@@ 1
auer 0.20597181917405627
bart 1
obi@@ 0.8712493802966191
ń 1
Chau@@ 0.7810042956828515
Esp@@ 0.40322805009382273
JMA 1
Kannada 1
Knowles 1
Sedum 1
Werner 0.3273494328831129
alay@@ 1
avia 1
epus 1
fasc@@ 1
icula 1
simus 1
vv 1
és 0.028803995979067867
Airy 1
Hotel 0.1568259094520262
Nog@@ 1
anni@@ 1
ball 0.0998301523744749
ck@@ 0.38884485639664246
conc@@ 0.4803067489796182
kow@@ 1
ment@@ 0.25654123016215247
nos@@ 1
onema 1
87@@ 1
Anem@@ 1
Anglo 0.38908996907071847
Cass 1
Ech@@ 0.7958162339204513
IL 0.5631446611172314
IOC 1
Ono@@ 1
abin 1
agon 1
ally 0.05113357502602037
cifolia 1
gre@@ 0.2786072585182153
hiz@@ 1
mirabilis 1
ồm 1
BS 0.49836534024446155
Drive 0.3580903620470316
Lost 0.44097832823461985
bell@@ 1
horn 0.33345735725558484
media 0.06009762492400543
777 1
RAF 0.32958400492862583
ink 0.45396076093484533
sche 0.16733474641084636
vittatus 1
254 1
Doubs 1
Gentiana 1
Kaliningrad 1
Lea 1
Plymouth 0.5735659689238461
ares 0.20491588733430302
egr@@ 0.7198910526434006
evi 1
imit@@ 0.6284066153844148
orea 1
run 0.05029831415001268
ẳ@@ 1
ỏng 1
Asura 1
Head 0.1986676736960253
Ibn 0.5165762843740472
Sphecidae 1
arcu@@ 1
artia 1
asim@@ 1
nigrescens 1
olabis 1
pulchella 1
rix 1
vas@@ 0.4486536595772582
yam@@ 1
yap@@ 0.6515725560461714
Çay@@ 1
Brisbane 0.37876149130089354
Papilio 1
coch@@ 1
frigate 1
tril@@ 1
Beg@@ 0.3241191845241397
Cu 1
Forster 1
GO@@ 0.6782740426081867
Meurthe 1
RC 0.36443303285635087
Ranunculus 1
Władysław 1
acumin@@ 1
nak@@ 0.9610468648215682
227 1
279 1
Art@@ 0.44636813984239415
Brah@@ 0.678645645159931
Donn@@ 0.9685475761629345
Hardy 0.6113453274432137
Joachim 0.438066340050604
Lopez 0.7766827620030823
Myrmel@@ 1
NV 1
Phantom 1
Trotsky 1
Verd@@ 1
Wrestling 0.22917058145370645
ata@@ 1
divar@@ 1
grac@@ 1
which 0.0037958439000272204
Çanakkale 1
ă 0.6538650026926218
A2 0.8499339513730667
Champa 1
Cosm@@ 1
Dracon@@ 1
Ellen 0.5288872648465046
Kra@@ 1
Seychelles 1
Sum 1
Tehran 1
aran@@ 1
china 0.8541601847448703
dula 1
hium 1
reduc@@ 0.7882417656818798
zcz@@ 1
Country 0.1683291108574351
Got 0.7612930782382848
Orec@@ 1
Vall@@ 0.5056519043339126
distinc@@ 1
drama 0.1270273831432713
niger 1
nyj 1
obry@@ 1
oglossum 1
shin 1
testosterone 1
國@@ 0.18890067170915262
1784 0.5373896060269174
218 1
224 1
Greg 0.4388336938367048
Haus@@ 0.2296605070557681
India 0.041021744172668614
Köln 0.22665145204478981
Maldives 1
Resti@@ 1
Ya 0.4834879477175278
Yahoo 1
coph@@ 1
gab@@ 0.7080345645861887
lier 0.32885978089410167
owa 0.6013691868053066
thrum 1
yat@@ 1
zz@@ 0.5288237055884797
ë@@ 0.45462253136163777
ș 1
ọp 1
妃 1
德@@ 0.15403899666163393
229 1
86@@ 1
Cham 1
Río 0.18529355664616562
aule 1
ering 0.22766998262614713
ison 0.36078010130266136
96@@ 1
Cycl@@ 1
DF 0.8529886030329719
Fast 0.7143436396551183
Julian 0.4484221686301839
Ordu 1
Soccer 0.3304539625151592
Sulawesi 1
When 0.0367621182472194
form 0.031621940013652934
impres@@ 0.7771480581283255
lit 0.2480680292206544
over 0.01139564599540621
Hull 0.5527301459471229
Ieyasu 1
Mys@@ 1
Prunus 1
Rég@@ 1
blatt 0.5601319962380814
otii 1
303 1
Beta 0.8791641232666589
Bry@@ 1
Giuseppe 0.4533198871420276
Iv@@ 0.6639883043543807
Kharkov 1
Lil 1
Polk 1
SN 1
Vysočina 1
Youth 0.21451618025450353
Zam@@ 0.745340779548505
band 0.027514214389205656
dimidi@@ 1
emon@@ 1
exil@@ 1
glab@@ 1
lang@@ 0.426581174850171
1400 0.6472207331572327
1785 0.579209608186226
Bratislava 1
Capital 0.2603046231161557
GP@@ 0.655900749531818
Glen@@ 0.6494667795660238
Slav@@ 0.7447485562678893
Titanic 1
Zingi@@ 1
atula 1
i. 1
lex 1
lim 1
margar@@ 1
ognathus 1
olep@@ 1
ril@@ 1
özü 1
Bop@@ 1
Indre 1
lands 0.09974926014336671
racem@@ 1
sous 0.024979867640364205
tec@@ 0.5563703200919327
virgin@@ 1
Anatolia 1
Borussia 1
Cis 1
Did@@ 0.8867069098246108
Engel 1
Gay 0.6461056234157865
Johannesburg 1
MT 0.9500495658527373
Olympia 0.8501658282056124
Rice 0.5195247477449172
alen 0.1505024463982378
alti@@ 1
anov 1
tina 1
ustr@@ 1
İzmir 1
32@@ 0.9673156567417392
Irwin 1
Kenshin 1
MT@@ 0.6936553059447934
Winston 0.6778456900684482
aber@@ 1
berry 0.4999443801837123
lie@@ 0.5714365389590378
oya 1
sá 1
tum@@ 0.6778128208387201
县 0.12217206720983886
258 1
Alloc@@ 1
Bradley 0.543377886138102
Catalonia 1
Heath 0.726511802482718
Kids 0.5733169531574783
ME 0.5809524302154491
Rau@@ 0.4581022781333629
czy@@ 1
elt@@ 0.499225153499578
phosphate 1
vir 1
Bech@@ 1
Dordogne 1
Kö@@ 0.42083972273818493
Truman 1
aux@@ 1
eptus 1
modes 0.6182544579538688
oci@@ 0.7621572014684328
æ@@ 0.399589334410896
3,7 1
Choice 0.6394172602440101
Dresden 0.2471084597655347
Mart 0.4162402259254571
Riga 0.7428022281489914
Rodríguez 0.31696413132755197
Undertaker 1
brom@@ 1
hist@@ 0.882555952164343
iya 0.796937868867699
litz 0.6148460139360468
toc@@ 1
uyệt 1
yt@@ 1
-- 0.469802571092394
239 1
245 1
Ager@@ 1
Bremen 0.32200403930477073
Day@@ 0.7759281816783309
Mey@@ 0.7594380121704162
Pinus 1
Saud 1
Sullivan 0.3897917496149206
Wonder 0.7566271159790604
aze 0.7698476102659595
emat@@ 1
engo 1
fan@@ 0.4730641452046929
fid@@ 0.8204422696551554
press@@ 0.7851093374808561
reus 1
ysis 0.7070396670871697
Chiba 1
DO@@ 0.48551617621008347
Gates 0.8523774519678546
Knox 1
Vid@@ 0.4320114836929695
cav@@ 0.8531108376008664
orius 1
pei 1
2030 1
DB 0.47678450207325085
Epiph@@ 1
Kud@@ 1
Troy 0.7360501573449634
appus 1
cinerea 1
ies 0.08052486037013754
inosus 1
kul@@ 0.331722805907861
vip@@ 1
金@@ 0.13669025966628895
Amiens 0.972541696176829
Bach 0.2788359683858815
Johan 0.569294163497888
Tav@@ 0.9482906136347248
abol@@ 0.5131667185369007
acha 0.688604513494983
hur@@ 0.4108715156134545
inaria 1
rana 1
249 1
Flow 1
Krishna 0.7928938770097563
Ngu@@ 1
Richardson 0.5414536565526085
dentata 1
nos 0.1895889819479385
orium 0.6707740611310217
Łódź 0.7520435151399866
Again 0.5324776836538841
Basil@@ 1
Fisher 0.4621110915435546
GHz 1
Gorbachev 1
Vand@@ 0.7428268563226224
ahl 0.541543800354778
ayo 0.5171568811270527
eleg@@ 0.6593719355645231
ellii 1
fiel@@ 0.6290392340241651
glabr@@ 1
hei 1
pii 1
rates 0.20220237111154996
tuber@@ 1
tyna 1
unov 1
yrin@@ 1
Hill@@ 0.4437481036021919
Oph@@ 1
Pasha 0.9954929652847903
Squ@@ 0.5608051704759354
VA 0.5422627835919235
başı 1
cerus 1
isus 1
ogomphus 1
schema 1
simul@@ 0.49678677683749856
BM 0.8712447045510104
Chad 0.787169366360936
Diad@@ 1
Diamond 0.474744980498489
Elst 1
Flash 0.652226046413347
Hara 1
PC@@ 0.5577258097140995
Yel@@ 1
ando 0.040781881207329916
bric@@ 1
ngu@@ 1
odont@@ 1
ér@@ 0.1301455138563052
32.@@ 0.9305669924387426
Agar@@ 1
Hero 0.6586110070820224
Igor 0.80284264397447
Lucia 0.9852257976497195
Phil. 1
Sle@@ 0.8171122204671653
Wolfgang 0.2756838075611979
bai 1
khov 1
ort 0.20294649208726942
phth@@ 1
schw@@ 0.23099003216026093
ệ@@ 1
2D 1
Gib@@ 1
Lebanon 0.4786925875523657
Motors 0.5543153070332386
Osh@@ 1
Peckham 1
Vul@@ 0.6170049871022649
actis 1
anur 1
asco 1
ble 0.203595493181808
gy 0.5158984458249366
iaceae 1
its@@ 0.7191737588381363
ák 1
Clem@@ 1
Hannah 0.6971745876262289
Orch@@ 1
Parma 1
lug@@ 0.5036245569798026
olor@@ 1
peruviana 1
ph 0.48165397218122125
xy@@ 1
0,7 1
301 0.9033055623688038
BD 0.8098564734830923
Conference 0.10203308363796247
DM 0.4942689194588699
Goku 1
Gür@@ 1
Oncidium 1
Reynolds 0.5438568494347776
Tas@@ 0.5523835907332466
Winter 0.1443905312043048
azi@@ 1
bus@@ 0.26451367589569413
eller 0.19126507118158423
irus 1
tion 0.08352681153438629
Curtis 0.5169797952203065
Hah@@ 1
Pont 0.4580035453559295
Seven 0.30302234255946264
Tao 1
Truk 1
Xi 1
cs 0.44851284022410776
ornatus 1
Brook@@ 0.6411625528506616
Gate 0.476665156544898
Gli@@ 1
Xan@@ 1
aiensis 1
azole 1
cordi@@ 1
esper@@ 0.9480824106612636
frag@@ 0.46564780380338705
iPad 1
lock 0.2441824860920064
orio 0.5405999851507003
parado@@ 1
sug@@ 1
termin@@ 0.3177009549156204
umi@@ 1
ustus 1
ịnh 1
1780 0.4754659891278895
263 1
Berry 0.5965122344233919
Cub@@ 0.7638044240152473
Ghost 0.6447659796745391
Ily@@ 1
NK 1
U21 1
acon@@ 1
sonar 1
ỡ@@ 1
2,1 1
Abbas 1
Cann@@ 0.8312170308779333
Dus@@ 0.9250244784446446
Hz 1
Stur@@ 0.5934830882830541
Xu@@ 1
attus 1
comune 1
ef 0.482388405380045
eko 1
hia 1
opsid@@ 1
ots 0.18325004932673522
sanc@@ 0.9130784693140533
Map@@ 0.7393639039740223
Pete 0.46590748629976614
Ring 0.3302430422639196
first 0.004945457380768363
illidae 1
methyl@@ 1
nitr@@ 1
onotus 1
rav@@ 0.3869595638935292
Fir@@ 0.4073789761847147
Gou@@ 0.5625661423907512
Horn@@ 0.6034918692712131
Trabzon 1
gui@@ 1
ocamp@@ 1
ogaster 1
rán 1
3,8 1
Baldwin 0.6550944542047553
Bill@@ 0.7322976533304988
Canc@@ 1
Eleanor 0.823695771066728
Guill@@ 1
ICAO 1
Kost@@ 0.7595923280756033
Kw@@ 0.8500449426934
Technology 0.14844397063777376
Wade 0.804790315707763
alaya 1
icularia 1
216 1
Cardiff 0.5169572213544226
Evar@@ 1
Joo 1
Marcos 0.5233344731279661
Sind@@ 1
acum 1
bal 0.6620957528616686
dal 0.5722038071337212
data 0.07382444215662953
film 0.011569013960293442
hain@@ 1
minima 1
osom@@ 1
otropis 1
zei 1
CM@@ 0.6156232408487665
History 0.027462565419601164
Phraya 1
Tobago 0.9628461531792857
bay@@ 0.6010160670626997
fos@@ 0.8045932398482494
metall@@ 1
ms 0.19836688626433083
nhu@@ 1
polia 1
rhy@@ 1
410 1
Bordeaux 0.36111124019231366
Davies 0.476700004561564
Evil 0.7960466849026029
NS 0.3490657917928106
cab@@ 0.2861332127336748
Ş@@ 0.576699234117974
31,@@ 1
Anim@@ 0.7647677288448408
Cres@@ 1
Gai 1
Rain 0.8155192760625595
True 0.631583079371065
cephal@@ 1
lucid@@ 1
nhi@@ 1
ves 0.13027524929913106
Auto 0.3867902153830218
Buckley 1
Daryl 1
Desmodium 1
Mant@@ 0.7143483020618426
Orléans 0.4532672388080669
Rainbow 0.8637478891794114
Rham@@ 1
Santal@@ 1
Sot@@ 0.8228132218942622
Wong 0.8352243710513265
Zu@@ 0.3095843503126077
abys@@ 1
ald 0.49017193193700914
anol 1
lic@@ 0.388369930659726
maj@@ 0.5720617583281693
vie 0.07378274797734703
Basel 0.3507434376268895
FO@@ 0.6312920448653683
Freedom 0.32931224462670966
Gau@@ 0.30190439701360694
Haut 0.4287753458288252
Holocaust 0.6265670694316391
Ind@@ 0.6724272070110887
Joy 0.7234213232591432
Mercedes 0.3370105280332109
Mo 0.8805363547343907
Triana 1
aman@@ 0.6799819953385494
basis 0.12452194118610092
ces 0.03739715024818163
owice 1
polit@@ 0.8372447804643611
sberg 0.315608950410882
ses@@ 0.599759144599579
timestamp 1
ydr@@ 1
500@@ 1
80.000 1
Pus@@ 1
Yonne 1
aly 0.6158990018429704
chol@@ 0.7928814736369274
cum 0.8536996599737381
kit@@ 0.637981162917131
thys 1
ńska 1
González 0.2811622974900832
Hanja 1
Hoang 1
Isère 1
Kamikaze 1
Lin 0.7820093086272745
Ov@@ 1
Rin@@ 0.6645527517560748
Steph@@ 1
Tesla 1
ensky 1
pedi@@ 0.5863315816714793
ñ@@ 0.2775049396288675
Escobar 1
II@@ 0.6548384979885785
Jazz 0.1869052425678493
Kaneda 1
Kingdom 0.07447730469592383
Nig@@ 0.8588593775660555
Yur@@ 1
alu 1
cly@@ 1
console 0.7464373326632816
eka 0.7598990681430084
hidi@@ 1
illia 1
285 1
Andrews 0.4995947011448769
Blan@@ 0.5028197125778814
Descartes 1
Dipter@@ 1
Gard@@ 0.8497066255708974
Hig@@ 0.9504562585494744
Hopkins 0.539090505000519
Law 0.09480246478376604
Leh@@ 0.539765756754328
Lil@@ 0.6703127459437436
Metal 0.2871163563933386
Myi@@ 1
Pseudom@@ 1
ilov 1
lau@@ 0.43544054350482797
otarsus 1
red 0.055209983071291914
stadt 0.17995463926546454
ểm 1
264 1
Hee 1
JYP 1
Jon@@ 0.5278501971891916
Paul@@ 0.984632023116299
Valle 0.37240856342075607
anagar 1
ashima 1
gas@@ 0.417845581166773
ja@@ 1
pum@@ 1
rufa 1
spir@@ 0.7134461321692284
1763 0.6437086844230162
3DS 1
Barack 0.8309902022848126
Devon 0.5805161016527898
Kerala 0.45838367267488894
Nakamura 1
Paraná 0.962006496636087
Vasil@@ 1
Viktor 0.7068344584586091
contributor 0.7942246707067712
ont@@ 0.3106873159349994
quai 1
sh 0.6661636385307957
Gaza 0.7747309862347658
Helsinki 0.4231676234188686
Joel 0.5798492271199956
Public 0.09184628209164518
acina 1
ayak@@ 1
tek 0.4083565617168174
BL@@ 0.9454845298593051
Bon 0.72515540218038
Dianthus 1
Electronic 0.6302332878227944
Hippo@@ 1
Malay 0.9958924108378567
RPG 1
Senna 1
Thr@@ 0.747584992875723
bran@@ 0.4871429270245441
ingham 0.626147809671098
lops 1
mec@@ 0.9500498008465008
oglossa 1
opes 1
piens 1
pura 1
ān 0.7233780605083692
243 1
Blanco 0.7102919399169223
Fi 0.8652895840660854
Monster 0.7306005294286501
Rolfe 1
alma 0.6841123938092315
bula 1
denti@@ 1
nikov 1
ỏ@@ 1
Ard@@ 0.6161738561498293
Block 0.4101051525818447
Britney 1
CoV 1
Hang@@ 0.7842760100351825
asso 0.8344097810052648
bas 0.21724152777663217
buc@@ 0.8069528917122608
escu 0.4265444962134915
koi 1
villosa 1
õm 1
286 1
9,5 1
Auguste 0.3737303406780169
Bennett 0.42181093349599674
Chim@@ 0.8343464711928102
Kali 1
Lorenzo 0.37667397945304815
Orton 1
cent@@ 0.4933179148538213
cordata 1
ecr@@ 1
gelen@@ 1
imia 1
utina 1
viv@@ 0.5764982364171101
1A 1
Bug@@ 0.6089882926898256
Cardi@@ 1
Ler@@ 0.7174017749499838
Lisbon 0.8729194544462815
Miyazaki 1
Seth 0.9105740952349541
aburi 1
born 0.013501701461554381
eux 0.07984531174874343
ə@@ 0.6817317052847198
Concert 0.7047288284581689
Elap@@ 1
Kuch@@ 1
Petit 0.41619455741937444
Satsuma 1
Thymus 1
Wilton 1
annul@@ 1
ardia 1
chis 1
itia 1
quist 1
ầng 1
242 1
4.0@@ 1
501 0.9921666219357036
Bieber 1
Bub@@ 0.7936017183956147
Cand@@ 0.6266091816499215
EXO 1
Marketing 0.722342811251535
Primula 1
SV@@ 0.9742153332937322
Toy@@ 1
aton 0.5736909058072533
heli@@ 1
identata 1
khe@@ 1
yev 1
Aconitum 1
Bijapur 1
Kiss 0.6731545446767571
Schist@@ 1
buri 1
color@@ 0.43871641054999494
ovit@@ 1
Beatty 1
Call 0.5986244736050734
Hubble 1
Larry 0.3412851330544895
Malatya 1
Scho@@ 0.7771432547867291
Tia 1
Wake 1
You@@ 0.963790017619975
ate@@ 0.5387153469989021
ppa 1
Ấ@@ 1
Aleppo 1
Ani@@ 0.9211130232425909
Heg@@ 1
Ic@@ 1
Jub@@ 1
Kushiro 1
Shield 0.7219486512933322
Tac@@ 0.8552398136589636
Xer@@ 1
ahu@@ 0.9752941263658342
hun 1
point 0.030952176631575776
vag@@ 0.8375868462939225
ınar 1
.S. 0.8218026048466701
1768 0.6907852519521612
Card 0.7368739025666149
Friends 0.39967682226521645
Holo@@ 1
Ingrid 1
Juli@@ 0.7982444807102952
Ocean 0.21245097452211167
Ulo@@ 1
alo 0.49776998701095926
anj@@ 0.7445453056938016
endi 0.7454995519059922
eres 0.3762377250143205
tang@@ 0.8129712323188897
太@@ 0.34607304511101067
251 1
Antonius 1
Benfica 1
Erzincan 1
Hard@@ 0.3622173040104451
Megap@@ 1
abor@@ 0.40750435008078967
atorium 1
boy 0.17109415364838992
cat 0.45694005149533534
odic@@ 1
Abr@@ 0.5800411896070964
Bus 0.3590138423781119
EM@@ 0.4667237735213278
Films 0.2213403097668698
Julie 0.4709687842923517
Leslie 0.4845307126358488
Rollins 1
arga 1
dar 0.11311260746169487
gio 0.5083127506523331
glauca 1
gs 0.26578600120165885
iman 0.674257046555885
non@@ 0.25008426198773515
sphaer@@ 1
yun 1
ịa 1
Cz@@ 1
Jake 0.56771104706772
Kingston 0.4658480216396876
atella 1
augh 1
https 0.5544247581486422
onella 1
thum 1
tricolor 1
ventris 1
陳@@ 1
1781 0.5984166257534815
French 0.03012385311637917
Hancock 0.982604573883648
Hes@@ 0.738983605152165
IATA 1
Somerset 0.4664399340506029
alina 1
arctic 1
geon 0.8547236383080801
istria 1
lov@@ 0.7756155872485061
mea 1
sad@@ 0.459845395794166
username 1
35.@@ 0.9023906279356515
A.C. 1
Ades@@ 1
Claire 0.45574612709437595
Giresun 1
Ipomoea 1
Jonas 0.7092605088317121
Manstein 1
Mumbai 0.5089846601011495
Planet 0.5366996686536517
Tonga 1
bog@@ 0.6623742755773939
bour@@ 0.48895554810251385
cana 1
ideae 1
sé@@ 0.2849112965997377
Çam@@ 1
295 1
Atar@@ 1
Dick@@ 0.8981136259099105
Gibson 0.4692916227643074
Ottawa 0.3375477861227172
Salzburg 0.4598583745109222
asma 1
kn@@ 0.20563009914185362
tun@@ 0.49235007587553475
ulosus 1
Atlantiques 1
BB 0.6475885461999468
Bash@@ 0.9318724165963046
CG 0.9218244701805656
Cossack 1
Gujarat 0.9801055405427194
Kara 0.8849477123716887
Kru@@ 0.798624658914295
Nara 1
Peg@@ 0.9974659005215276
Plaza 0.2708736556439693
Watch 0.5387838648171567
concolor 1
cık 1
evan@@ 1
fov@@ 1
purpurea 1
reticul@@ 1
tal 0.11197405317926383
ust 0.3738247988533671
ław@@ 1
AF@@ 0.39306833437259847
Elmer 1
Machine 0.41355635512686223
Senegal 0.8514539691571028
Village 0.19416479255224278
leh@@ 0.7874769736057502
ose@@ 1
variabilis 1
PP@@ 0.6305820229402757
Rostov 1
Tatar 1
Valeri@@ 1
albic@@ 1
code 0.10759889643526951
niv@@ 1
osella 1
whit@@ 1
Adıyaman 1
Part 0.3005282330766617
Roth 0.7145873185567299
Sider@@ 1
estra 1
gam@@ 0.5645612144155888
mê@@ 1
phagidae 1
ribosome 1
ịn 1
張@@ 0.28028636341189994
1778 0.5603888308904582
Anac@@ 1
Aristi@@ 1
Blair 0.6053532628969736
Eun@@ 1
Fayette 1
Kann@@ 1
Kobayashi 1
Nicole 0.6367601362724582
Pac@@ 0.5625066932581629
Robot 1
Satoshi 1
agrostis 1
apic@@ 1
byte 1
coronavirus 0.930451195728325
nigricans 1
rosea 1
squ@@ 0.4817637028623272
ởi 1
252 1
Cena 1
Goth 1
Place 0.21417278067654116
Silvan@@ 1
acta 1
alu@@ 0.9995562409259023
angol@@ 1
ellaris 1
Constantinople 0.4758455026433079
HE@@ 1
Magnolia 1
Rhiz@@ 1
Silesian 1
anh@@ 1
arii 1
azz@@ 0.754012537598216
nil@@ 1
permum 1
plas@@ 0.4625227887648901
rou@@ 0.30291643402997626
ãm 1
257 1
Anton@@ 0.6481691179132895
Brad 0.6381007220660888
Carroll 0.5937308990831505
Ferr@@ 0.43623458315379265
M.A.@@ 1
Sep@@ 0.6230407881512046
chryso@@ 1
hé 1
idge 0.4686475081562977
irō 1
ness 0.09729868553231323
sburg 0.40304953152798606
íp 1
233 1
33.@@ 0.7962178673083607
Josef 0.22623104764816282
Susan 0.348081372835948
^ 1
anne 0.3884534868963582
aray@@ 1
arion 1
ele@@ 0.8685202533043962
ime@@ 1
nerv@@ 1
odera 1
otidae 1
南@@ 0.11671655567647536
.000 1
302 1
Cebu 1
Hedgehog 1
MacArthur 1
Shōnen 1
cle@@ 0.3435922259692067
iden 0.20545151126425096
kle@@ 0.4318300537873885
neus 1
onot@@ 1
pleur@@ 1
1796 0.410822092697837
Altai 1
chev@@ 0.5467651293502764
elor@@ 1
jung 1
num@@ 0.7931425407698636
uth 0.5876239365707454
yer 0.09518704609824244
Chechnya 1
Estr@@ 0.6895521139992543
Falls 0.2668243955738315
Fon@@ 0.4866070983051327
Kara@@ 1
Makoto 1
Semat@@ 1
aten 0.15754064653058245
austr@@ 0.9736418931579963
e.@@ 0.5812973091525997
gee 0.8850920954685767
iza 1
oniana 1
ward@@ 0.8159048599019582
Ê 1
侯 1
Andreas 0.27072556932858893
Dit@@ 0.9840072834359201
ES 0.45336268420274883
Mindanao 1
Schult@@ 1
hev 1
ping@@ 1
ric 0.6405040610974582
umbens 1
3,4 1
560 1
Acer 1
Combre@@ 1
Fernández 0.30897105663693714
Lagos 0.7171523627764544
Meh@@ 0.6191244677207508
RIAA 1
Rag@@ 0.42791858921442816
Webb 0.681041894446718
carin@@ 1
deci@@ 1
fallax 1
idine 1
idol@@ 1
macrophylla 1
minutus 1
obsol@@ 1
ochloa 1
phidae 1
rat 0.15325332764491773
tram 0.6851383594211372
trim@@ 1
Albion 0.7645173562334853
Countdown 1
Derby 0.3448045513655039
Janet 0.6696617319908547
Jutland 1
Ts@@ 1
abra 1
gigantea 1
music 0.02331248813164366
smithii 1
tv 1
uchus 1
Angela 0.6003503476494164
Cl2 1
Lower 0.26764654668075927
Percy 0.648701949796348
angel@@ 0.6410819476519591
bio 0.5055979318412338
ryū 1
stream 0.2576158253308786
uko 1
vesti@@ 0.7941101324657417
vs 0.5231130164680129
241 1
Acon@@ 1
Bok@@ 1
Kawasaki 1
St.@@ 1
Steg@@ 1
astra 1
away 0.04941865064382993
bad@@ 0.4970054891046592
jer@@ 0.4341384463300842
kum@@ 0.5991766926398833
Carmen 0.37130745515973684
Suk@@ 1
ascia 1
enae 1
gros@@ 1
khi@@ 1
pher@@ 1
tura 0.5810342115355772
Avi@@ 0.5988600144856797
Eddie 0.3253803501966081
Mega 0.7768495971933933
eke 0.5160971239861437
enth@@ 0.5385351705883997
hach@@ 1
lib@@ 0.47840606812926983
noi 1
rocket 0.6163886961665541
scope 0.3542229803790117
ticul@@ 1
zam@@ 0.8249244274546332
zyce 1
IF 0.4646205458416398
Kem@@ 0.7027165224548142
Rich 0.5679068317216848
Saigon 1
ingeri 1
omo 0.45937131483037885
pru@@ 1
520 1
Alex@@ 0.922159708148399
Angi@@ 1
Barbados 1
Biał@@ 1
Bres@@ 0.8763652731212562
Classic 0.2805257164661259
NKVD 1
Pietro 0.5402974394606013
Salt 0.43309275828539956
coll@@ 0.4432371632346554
nice 0.5206408976475029
tristis 1
wad 1
ık 1
386 1
Buffalo 0.3025205382838488
Dahl@@ 1
Dmitri 1
Heb@@ 0.5751135382154218
Oda 1
Pale@@ 0.7388196297300558
Rang@@ 0.5391751213095758
bab@@ 0.8636898366755851
beck 0.34491316973115255
borg 0.48465460287153855
bun@@ 0.5683266539505407
cz 1
dost@@ 1
essa 1
illon 0.3714056788380541
ost 0.3173511768347468
were 0.003017735269164601
Fed 1
Maha 1
Ozar@@ 1
Shig@@ 1
Yeşil@@ 1
al. 0.9975445044107996
een 0.40516120330200406
plut@@ 1
zyn 1
Hend@@ 1
Hydri@@ 1
Spielberg 1
Tes@@ 0.5424887098458699
blues 0.42411047868365376
mend@@ 1
neria 1
perma 1
tay@@ 1
ther 0.3328314117982172
ța 1
DS@@ 0.5374180401272511
Mack@@ 0.7834031104389465
Mem@@ 0.5435232026288055
Observatory 0.6968635051422644
Teresa 0.4848740226914967
Yah@@ 1
dio 0.12299509081629507
ferrugin@@ 1
lei@@ 1
mbar 1
ocon@@ 1
tel 0.14059984552692725
tuy@@ 1
460 1
GPS 0.8472181021066155
Grav@@ 0.538706180719048
Marino 0.8581516415205455
Mu 1
Szczec@@ 1
Yū@@ 1
Zürich 0.2592521744482405
amata 1
arpus 1
illo@@ 1
kis 1
lis@@ 0.6012482615446788
master 0.0980002766724465
nu 0.546689987488304
patr@@ 0.40265740443578957
pid 1
sou@@ 0.1911300972606407
318 1
Alain 0.38245517807976176
Ampul@@ 1
Ef@@ 0.7238472391503201
Flying 0.4298667041525995
Jupiter 0.6092162483560343
Saddam 1
brand@@ 1
trag@@ 0.3813304994228057
Étienne 0.3597169595430752
Aurora 0.7376258531297233
Baş@@ 1
Becker 0.6700104812766107
Development 0.10392532076490943
Fame 0.1774470085610411
Gat@@ 0.45341131719120137
Harper 0.5157519632424906
Lay 1
Mach 1
Sup@@ 0.4378772414846454
glut@@ 1
nepal@@ 1
penn@@ 1
rin@@ 0.7932961729743684
1740 0.6774204567492346
231 1
A.C.@@ 1
Aube 1
Dak@@ 1
Gong@@ 1
IT 0.30341195451065617
Mekong 1
Mother 0.3937808680760781
Phu@@ 1
Siding 1
Toledo 0.3882676279207697
Webster 0.7129522912370436
bah@@ 0.8232448212158016
erst@@ 0.18083794619187762
fida 1
icaria 1
othorax 1
1774 0.5577602375274725
950 1
Canon 0.7579302469215072
Klotz@@ 1
Lorentz 1
Noel 0.7943993381421894
Oak 0.4864990253513213
UN 0.2541435903695618
agawa 1
ical 0.06225296641666022
jun@@ 0.7029953009374372
mun 1
omorphus 1
othr@@ 1
307 1
390 1
César 0.34495471150133145
Hornet 1
Kid 0.5525484399351481
Luca 0.8373685728934614
Oblast 0.272159523405667
Patr@@ 0.3080460476320763
Salamanca 0.8041655808585543
Sheh@@ 1
Side 0.32581302052719874
Veg@@ 1
atic 0.14408501293867995
bb@@ 1
jur@@ 0.28194086683671005
ognatha 1
osuke 1
tris@@ 1
ò@@ 1
高@@ 0.11210188066898942
Beil@@ 1
Nos@@ 0.8226114957998866
Pol 1
Rok@@ 1
Trento 1
cea 1
ern 0.05113746764116276
gall@@ 0.5867618125116716
ilius 1
later@@ 1
polymer 1
stol@@ 1
CF@@ 0.40160094222897236
Castil@@ 1
Eccellenza 1
Flanders 1
Himmler 1
Moses 0.5213842574857166
Nakai 1
O4 1
Steiermark 1
anagara 1
carbon@@ 0.8072105337372952
hirsut@@ 1
jar@@ 0.6025731089555321
ondo 0.7470205666265913
Gand@@ 0.7651753761927416
Gaulle 0.8303180925650625
Gomph@@ 1
Jack@@ 0.7417591658851564
Jamie 0.5274449412590959
Sukh@@ 1
Trig@@ 1
Ye 1
apos@@ 0.6932914137379914
map@@ 0.7534697193546442
neph@@ 1
orchis 1
ough 0.2630885562457902
vula 1
Å@@ 0.6522341369120214
℃ 1
323 1
Antiochos 1
Bayer 0.9132594267317011
Brunswick 0.34169492684479263
Deg@@ 0.6703842611417943
Epil@@ 1
Firefox 1
Gub@@ 1
Halifax 0.5423673963448535
Hayata 1
Ten 0.24269270714128224
Wight 1
aco@@ 1
aper@@ 1
module 0.6436566373271619
omat@@ 1
。 0.001985256651167523
1767 0.7447203854024993
Ce@@ 0.7175122109197402
Denver 0.32923344756729767
Gle@@ 0.6391294658788853
Monica 0.6458893597244786
Odessa 1
Petro@@ 1
Randy 0.6229594433579818
Up@@ 0.3438663526832232
alk@@ 1
flag@@ 0.8265644035154204
hook@@ 1
idis 1
nik@@ 0.786044724293426
oce 1
podi@@ 1
taeni@@ 1
tankōbon 1
xii 1
yō 1
530 1
Church 0.03757625869706013
EN 0.6154486383658101
Józef 1
Kunze 1
Nike 1
Phol@@ 1
Sin 0.08076128380809379
florib@@ 1
itt 0.3651215126535236
pallidus 1
thodes 1
ıç@@ 1
ン@@ 1
山@@ 0.19746418548171912
Aw@@ 0.6012658786591838
Caes@@ 1
Dag@@ 0.4963495377853028
Klein 0.37360530772703904
Lotus 0.673219291923763
Meyer 0.3669553931956091
Perkins 0.8700366644657724
athea 1
car 0.03639466987524972
clor@@ 1
granit 1
iler 0.20755111072743354
issi@@ 1
lind@@ 1
lip 0.7550841205044518
raea 1
yang 1
ùy 1
36.@@ 0.8367110886592645
Edwin 0.4813680970100514
Wis@@ 0.49186295647500056
enga 0.6584240729745386
ory@@ 1
qué 0.2173601332651808
seric@@ 1
spectabilis 1
splendens 1
zewo 1
246 1
268 1
94@@ 1
Adana 1
Angelo 0.6070142020665782
Bird 0.40476678345445394
Casti@@ 1
Cloud 0.5796245720298812
Kars 1
List 0.06271535932140315
Sims 1
hon 1
nec@@ 0.39591780664215237
pra 1
soc@@ 0.7277687203809653
striatus 1
uo 0.620351441610497
zon 0.7414388540910481
Ỷ 1
1760 0.6099208398517473
Aristolo@@ 1
Fat@@ 0.6194612757066911
cant@@ 0.2954600031172357
ongo 0.6362756407586597
sau@@ 0.38348856836655604
todes 1
ũ@@ 1
Chev@@ 0.6061127698963178
EN@@ 0.4437099833124167
Genoa 1
HBO 0.6185865737845427
Hali@@ 1
Saturday 0.22886463134213378
Stil@@ 0.4989563602230506
TW 1
Tun@@ 0.4483900023136282
U.S. 0.031063031690040023
Wend@@ 0.8110141818854141
adh 1
coccin@@ 1
depres@@ 1
hu 0.44784496777852134
ický 1
monia 1
oana 1
odina 1
ram 0.5229497024768355
tiva 0.3899521828068631
Hub@@ 1
Jas@@ 0.6043191480554779
PE@@ 0.5115987241382525
Perth 0.40730660426770404
SO4 1
SV 0.2527028140474511
Summer@@ 1
alkot 1
engine 0.09319666434031512
lak@@ 0.7884232602858041
obium 1
othamnus 1
schul@@ 0.29530149918481974
uza 1
236 1
37.@@ 0.8568114772884824
Burton 0.47492450120481144
Div@@ 0.31380850693264245
Hagen 0.7923895617028822
MotoGP 1
Prop@@ 1
WWF 0.6847811027061945
col 0.48839807963915305
itas 0.2380475982567264
ochre@@ 1
urs@@ 0.759492298057063
Ascal@@ 1
Bethlehem 1
Buz@@ 1
Court 0.05018107532819554
Cras@@ 1
Demon@@ 1
Geor@@ 0.743668979503459
Gin@@ 0.6101524325190117
Gres@@ 1
Impatiens 1
Pyg@@ 1
Review 0.22523384705807162
Scor@@ 0.60811327598255
Sonic 0.5668620802726873
Sport 0.15092565455544266
etsu 1
hid@@ 1
league 0.049715836300478176
like 0.024824056223331656
loss@@ 1
otype 0.6408684903077582
usi 0.9302866122473117
ventr@@ 0.8100577717490063
ON 0.8980729694287823
Phan@@ 1
Put@@ 0.5602076320313462
Tah@@ 0.5795436705646773
XH@@ 1
aldo 0.5698661565016147
elen@@ 1
ettel 1
gad@@ 1
icidae 1
igi 1
olophus 1
uj@@ 0.8432833718243739
288 1
Hindi 0.4767021264726575
Khalid 1
Nhi@@ 1
Ubuntu 1
agan 0.46931060500811966
agiri 1
mera 1
zar@@ 0.4020237718822472
2500 0.5906927046460343
313 1
Dwight 0.8788933199479164
Gale@@ 1
Gay@@ 0.7411014107493618
Junc@@ 1
Naj@@ 0.9611043396198075
Pes@@ 0.7206125799333599
Rush 0.603511004248196
Slo@@ 0.695595934800507
Wanda 1
atlan@@ 1
bel 0.29159529809955514
hard 0.11903775433847896
john@@ 1
kes 0.4109740737937094
leus 1
maur@@ 1
sul 1
1777 0.5352862332771566
253 1
Cannon 1
Epic@@ 1
Hack@@ 0.9249727990861346
Kash@@ 0.9774233927500163
Lara 0.7281909356180356
aber 0.022388966115275567
bromide 1
glomer@@ 1
lada 1
tris 1
český 1
ộm 1
1770 0.4971705039359155
306 1
Amasya 1
Freycin@@ 1
Halic@@ 1
IR@@ 0.41978128877150417
Kle@@ 0.30113611374109145
Mersin 1
Nah@@ 0.37417194706286705
Oerlikon 1
Turin 0.4301458874335445
Warriors 0.4998724050213124
coides 1
lard 0.3974845128657641
opetalum 1
otham@@ 1
州 0.0871105084112092
Mend@@ 0.8665275257434544
Nicol@@ 0.6328726067296142
Salem 0.522136444799232
Sukhoi 1
Sung@@ 1
Under 0.10106789976792627
Yeltsin 1
canescens 1
cau 1
chin 0.6156414096903305
elidae 1
enh@@ 0.211074576295333
isto 0.862349836729652
seg@@ 0.43398550304309313
ticola 1
ław 1
3.0 0.7213091364152027
Children 0.19664577115717527
Pok@@ 0.901228931928832
Rav@@ 0.4574542267362712
Sham@@ 0.7011054642575473
Wad@@ 0.6647802700459592
aphosidae 1
fri@@ 0.3091537873283251
gr 1
olatus 1
787 1
Both@@ 1
DL 0.8070913090464763
Dynamo 0.7026059418017452
Eminem 1
Europe 0.031876933659633774
Lena 1
Snow 0.5253361004262538
Stan 0.5566594398407368
Zeppelin 1
fluor@@ 0.5397932587515476
mum 1
odus 1
thias 1
ucha 1
Öz@@ 1
271 1
278 1
2m 1
Bary@@ 1
Beauty 0.7973520451158368
Chopin 1
Hell 0.45300342008233413
Howe 0.78098258333372
Neo 0.6933113123156451
Neu@@ 0.16691852170526214
awan 1
gramin@@ 1
hier@@ 0.6028405468734556
olan@@ 1
org@@ 0.4914591943130477
315 1
34.@@ 0.815858171718019
Anch@@ 1
Dres@@ 0.8192544230951092
EC@@ 0.4718582106347819
Regel 0.2481841408661338
Rup@@ 0.779383004389132
Salam@@ 1
Tito 0.8452814253906552
Toscana 1
Verona 0.9792445232381585
aland 0.8636444462374621
bie 0.39993396899896777
down 0.029463771483708115
eff 1
mod 1
ocereus 1
sibir@@ 1
Brachi@@ 1
Chamar@@ 1
Dion 1
Granada 0.3985273493800445
Lah@@ 0.7115358559427749
Mess@@ 0.27696028185384536
Sasebo 1
Spreng@@ 1
Voldemort 1
bir 0.016856575327187522
carol@@ 1
deb@@ 0.4347226600343019
oco@@ 1
unia 1
山 0.09104766183858862
610 1
CR 0.39089980061471874
Fuji 1
SpaceX 1
Spl@@ 0.9131271367671899
hir 0.4345231449542578
kW 0.3751157910286101
ochilus 1
pulver@@ 1
shan 0.5598204389991824
和@@ 0.23642439158450454
A.R. 1
Come 0.48359467025094344
Data 0.3599797358555763
Gomez 1
Grand@@ 0.4503697670265642
Lysim@@ 1
Math@@ 0.5250854427572952
Quest 0.8136904175956025
Sr@@ 0.8682803030791709
Windsor 0.4663774779405391
inho 0.9572654426029785
liana 1
otaceae 1
trat@@ 0.6995042663646938
ști 1
70.000 1
Andorra 1
Baku 0.9545059820119071
From 0.03652106938727654
Louvre 0.8176390278260629
Maggie 0.8147107431436044
Thomis@@ 1
Voyager 1
cyc@@ 1
dz@@ 1
enensis 1
hotep 1
oleuca 1
pole@@ 1
1.800 1
247 1
[...]
