de 1
, 1
. 0.9929993074460906
la 1
et 1
le 1
à 1
en 1
&quot; 0.9377060121996319
l&apos; 1
des 1
est 1
@-@ 1
du 1
les 1
d&apos; 1
un 1
( 1
) 1
une 1
dans 1
par 1
au 1
’ 1
pour 1
il 1
qui 1
a 0.4883197847039952
Le 1
que 1
sur 1
Il 1
avec 1
son 1
La 1
se 1
: 1
plus 1
sont 1
l 1
En 1
ou 1
Les 1
aux 1
sa 1
« 1
» 1
été 1
d 1
s&apos; 1
elle 1
qu&apos; 1
comme 1
ce 1
ses 1
deux 1
L&apos; 1
ne 1
pas 1
ont 1
fait 1
; 0.7168896285495987
entre 1
mais 1
Elle 1
cette 1
é 1
sous 1
y 0.3702519638014715
même 1
était 1
ée 1
lui 1
n&apos; 1
être 1
on 0.33864108238740953
dont 1
après 1
leur 1
% 1
où 1
également 1
commune 1
France 1
és 1
alors 1
aussi 1
autres 1
ainsi 1
Saint 1
ville 1
ans 1
&apos; 0.6386891014391324
partie 1
ées 1
premier 1
fut 1
nom 1
première 1
ant 1
lors 1
À 1
dé@@ 1
puis 1
ent 1
années 1
peut 1
contre 1
trois 1
s 1
ces 1
depuis 1
avant 1
groupe 1
er 0.4898281585586191
plusieurs 1
Cette 1
né 1
très 1
Dans 1
ils 1
jusqu&apos; 1
vers 1
année 1
/ 0.5931647290070774
fin 1
fois 1
avoir 1
Paris 1
mort 1
Jean 1
avait 1
tout 1
français 1
2 0.7055478556355171
De 1
- 0.7292270084378245
ait 1
notamment 1
temps 1
famille 1
Ce 1
sans 1
Au 1
monde 1
é@@ 1
saison 1
équipe 1
1 0.5552744435582383
place 1
Après 1
sud 1
leurs 1
pays 1
ré@@ 1
nord 1
lieu 1
suite 1
Biographie 1
autre 1
États 1
grand 1
Une 1
région 1
titre 1
cours 1
partir 1
peu 1
faire 1
bien 1
&amp; 0.7455169486509251
devient 1
Un 1
non 1
guerre 1
quatre 1
soit 1
ci 1
C&apos; 1
film 1
es 0.3391897007837707
encore 1
nouveau 1
moins 1
in@@ 1
pendant 1
3 0.65354401094761
Son 1
in 0.030966822094482094
re@@ 1
général 1
tous 1
politique 1
eau 1
an 0.15772737783721713
série 1
forme 1
ligne 1
début 1
située 1
ie 1
Unis 1
vie 1
État 1
elles 1
tant 1
aire 1
celle 1
celui 1
fils 1
nombre 1
française 1
grande 1
club 1
donc 1
selon 1
village 1
Pour 1
ouest 1
On 0.8367499376454087
album 1
tard 1
4 0.6487507275423444
L 1
trouve 1
age 1
nouvelle 1
ation 1
histoire 1
Histoire 1
ensuite 1
quelques 1
qu 1
département 1
compte 1
eux 1
c&apos; 1
président 1
époque 1
deuxième 1
étaient 1
ayant 1
si 1
dernier 1
centre 1
population 1
situé 1
part 0.9957972373610343
étant 1
période 1
père 1
2010 0.8580682041463337
environ 1
aient 1
roi 1
ement 1
près 1
église 1
n 1
nombreux 1
mois 1
tour 1
origine 1
el 0.0939150019924692
ale 1
Ils 1
gouvernement 1
Ces 1
Europe 1
face 1
S@@ 1
Pierre 1
L@@ 1
nationale 1
espèce 1
chez 1
service 1
ensemble 1
car 1
6 0.670754570934833
cinq 1
of 0.020738447174497965
homme 1
The 0.0658714270475908
e 1
chef 1
ations 1
permet 1
communes 1
afin 1
ancien 1
Louis 1
ons 1
ine 1
2018 1
ère 1
hui 1
souvent 1
reste 1
5 0.5810927202637218
carrière 1
prend 1
F@@ 1
durant 1
cas 1
nommé 1
effet 1
armée 1
études 1
al 0.3113084969576767
Nord 1
membre 1
niveau 1
jour 1
ch@@ 1
doit 1
société 1
jeu 1
T@@ 1
rue 1
ants 1
èrent 1
rôle 1
national 1
membres 1
ou@@ 1
is 0.0662369842241972
te 1
D@@ 1
peuvent 1
américain 1
ité 1
B@@ 0.9660582262607244
habitants 1
projet 1
chaque 1
C@@ 1
P@@ 1
us 1
sera 1
ailleurs 1
ante 1
at 0.1119034686984537
Sa 1
dit 1
Selon 1
mondiale 1
V@@ 1
présente 1
territoire 1
aires 1
point 1
troisième 1
2011 0.731944716842469
système 1
premiers 1
R@@ 1
pré@@ 1
Par 1
dès 1
finale 1
O@@ 1
exemple 1
toujours 1
G@@ 0.9950845361723404
travail 1
Sud 1
Mais 1
base 1
2000 1
10 0.5107475457638796
œuvre 1
poste 1
droit 1
2014 0.7769693532534756
_ 0.8378408685879755
match 1
toute 1
Charles 1
personnes 1
sein 1
site 1
enfants 1
Guerre 1
mise 1
jours 1
iste 1
cet 1
nombreuses 1
2015 0.75888500691127
toutes 1
2009 0.7593824791630878
porte 1
Lors 1
long 1
M@@ 1
eur 1
certains 1
A@@ 1
Des 1
château 1
isme 1
│ 1
p@@ 1
ordre 1
six 1
succès 1
New 0.45130290273940227
prix 1
2008 0.7351238713104467
tête 1
rapport 1
université 1
ar@@ 1
maison 1
école 1
or 0.21532445095632288
construction 1
née 1
siège 1
championnat 1
raison 1
2012 0.6934721086416912
fille 1
musique 1
type 1
7 0.5821275282846545
Grand 1
connu 1
É@@ 1
N@@ 0.9785554351201575
mer 1
grâce 1
province 1
art 1
s@@ 0.9120722146487465
jeune 1
écrit 1
points 1
2013 0.7070482821841217
île 1
hommes 1
laquelle 1
développement 1
remporte 1
Marie 1
agit 1
production 1
2020 0.8442956601803647
état 1
ministre 1
principale 1
femme 1
– 0.13985932330003187
enne 1
istes 1
participe 1
g@@ 1
eu 1
pouvoir 1
II 0.9233380401267971
c@@ 1
âge 1
joue 1
aujourd&apos; 1
corps 1
mis 1
c 1
rencontre 1
public 1
Depuis 1
moyenne 1
8 0.5552678627470575
création 1
i 1
Paul 1
2016 0.6661649241547458
loi 1
en@@ 0.7964684858888448
but 0.2811879615345336
u 1
formation 1
2007 0.695721834420077
Allemagne 1
2017 0.7099501129781464
able 1
demi 1
commence 1
r@@ 1
version 1
formula 0.8464596567234518
o 0.4396321096247945
era 0.8477584166512824
joueur 1
côté 1
2006 0.7048823198455859
Coupe 1
dernière 1
François 1
femmes 1
suivante 1
ette 1
the 0.007697596552622809
football 1
A 0.28839945687566754
seul 1
tes 1
ancienne 1
ques 1
va 1
n@@ 1
route 1
grands 1
zone 1
ceux 1
plan 1
furent 1
1990 1
devant 1
petit 1
déjà 1
t 0.8614689491773264
travaux 1
or@@ 1
retour 1
ères 1
Ch@@ 1
obtient 1
militaire 1
met 1
direction 1
République 1
différentes 1
Italie 1
terme 1
Ar@@ 1
élections 1
passe 1
ins 1
Mar@@ 1
date 1
and 0.015180804426080618
John 0.6725962606375623
chanson 1
anglais 1
an@@ 0.8259658082260273
mère 1
ens 1
produit 1
parmi 1
on@@ 1
Avec 1
o@@ 1
D&apos; 1
genre 1
réseau 1
milieu 1
gt 0.9420186390736128
tandis 1
con@@ 1
H@@ 0.845006301368744
parti 1
abord 1
I@@ 1
espèces 1
20 0.5051191654772955
ages 1
dix 1
2005 0.7506110221452701
frère 1
parfois 1
eurs 1
ales 1
2019 0.6441599892829701
ais 1
communauté 1
liste 1
Cependant 1
sols 1
b@@ 1
donne 1
ateur 1
seulement 1
utilisé 1
Sur 1
particulier 1
15 0.5340627274537909
Description 1
édition 1
cadre 1
beaucoup 1
britannique 1
ers 0.7428495752501626
huit 1
directeur 1
sur@@ 1
v@@ 1
zones 1
par@@ 1
York 0.6843204584175815
im@@ 1
ise 1
américaine 1
aurait 1
Ses 1
ér@@ 1
différents 1
l@@ 1
Union 1
Jacques 1
recherche 1
division 1
E@@ 0.7920530569658116
second 0.5815105455892203
créé 1
international 1
scène 1
réalisé 1
font 1
sorti 1
bataille 1
fonction 1
épouse 1
ite 1
sept 1
me 1
K@@ 0.6912849189300028
co@@ 1
as 0.04844220977639356
occupation 1
ique 1
sens 1
aide 1
principalement 1
auteur 1
autour 1
2004 0.7337792922063365
victoire 1
9 0.5060730873020931
existe 1
Z@@ 0.9794904148702717
t@@ 0.9026288878069143
... 1
cependant 1
al@@ 0.873453065255965
objet 1
surtout 1
ni 1
premières 1
Canada 1
livre 1
rivière 1
di@@ 1
m 0.629274643727467
petite 1
équipes 1
publié 1
plupart 1
d@@ 0.9726513142120611
mouvement 1
millions 1
seconde 1
12 0.43454416187045924
Jeux 1
ard 1
J@@ 0.9260620649650187
bois 1
1999 0.9532023549441665
ure 1
ables 1
rejoint 1
style 1
ad@@ 1
Université 1
Conseil 1
allemand 1
is@@ 1
cause 1
C 1
activité 1
Espagne 1
lt 0.8483164147260231
quartier 1
mesure 1
domaine 1
entreprise 1
langue 1
comté 1
demande 1
lequel 1
là 0.28482139369070136
reçoit 1
f@@ 1
juin 1
avaient 1
haut 1
ag@@ 1
Afrique 1
gare 1
marque 1
œuvres 1
Parti 1
Angleterre 1
élu 1
proche 1
données 1
appelé 1
seule 1
classe 1
el@@ 0.8283332768806889
roman 1
manière 1
ue 1
ap@@ 1
finalement 1
z@@ 0.8983493280552526
fer 1
antes 1
gauche 1
suivant 1
jamais 1
conseil 1
station 0.80314014594379
propre 1
2002 0.76194614894205
mai 1
européenne 1
historique 1
étude 1
lorsque 1
té 1
os 0.7645422385148956
j@@ 1
important 1
tels 1
nouvelles 1
mars 1
eaux 1
possède 1
position 1
1998 0.9587094544468217
septembre 1
moment 1
article 1
dire 1
voir 1
donné 1
présence 1
certaines 1
h@@ 0.9979866455423073
matchs 1
2003 0.7539827931853236
Robert 1
principal 1
Ligue 1
occasion 1
ane 1
1980 1
groupes 1
Henri 1
ot 1
cela 1
parc 1
référence 1
quand 1
2001 0.7279837967377158
&#91; 0.43288549710539587
annonce 1
voit 1
&#93; 0.42875273301073485
jeunes 1
juillet 1
Historique 1
généralement 1
! 0.7336822763281212
octobre 1
Tour 1
° 1
canton 1
per@@ 1
Carrière 1
Al@@ 1
ti@@ 1
inter@@ 1
travers 1
théâtre 1
permettant 1
re 1
classement 1
ab@@ 0.7370657670397288
Géographie 1
grandes 1
ets 1
po@@ 1
= 0.6645052148236686
terre 1
Joseph 1
ements 1
construit 1
mé@@ 1
amp 0.46719276606125254
av@@ 1
professeur 1
capitale 1
course 1
sort 1
Michel 1
Ainsi 1
Londres 1
taux 1
Est 1
Québec 1
y@@ 1
em@@ 1
1970 1
Japon 1
30 0.46221061626290305
culture 1
villes 1
politiques 1
11 0.43740309063422456
Nouvelle 1
én@@ 1
compétition 1
voie 1
vue 1
bi@@ 1
bâtiment 1
16 0.48952059200533204
e@@ 0.7666193368429666
ac@@ 1
celles 1
compagnie 1
administration 1
rapidement 1
organisation 1
ès 1
2021 0.6559153419770614
composé 1
0 0.6819808243037617
janvier 1
meurt 1
district 1
action 1
it 0.10655832348969645
résultats 1
termine 1
mètres 1
décide 1
am@@ 1
internationale 1
i@@ 1
retrouve 1
musée 1
meilleur 1
18 0.4345905875486269
14 0.4994821349523914
importante 1
ir@@ 1
I 0.3108422053907595
troupes 1
prendre 1
avril 1
services 1
ol@@ 1
activités 1
1950 1
Liste 1
auprès 1
ét@@ 1
serait 1
San 0.6002532810997845
entrée 1
campagne 1
Empire 1
décembre 1
films 1
climat 1
Pays 1
euse 1
août 1
comprend 1
Grande 1
ceinture 1
sortie 1
carte 1
che 1
créée 1
Si 1
it@@ 1
programme 1
Pendant 1
Église 1
novembre 1
comte 1
actuelle 1
19 0.49974669442217773
unique 1
at@@ 0.9877347641888528
droite 1
a@@ 1
fort 1
populaire 1
supérieur 1
tr@@ 1
h 1
ennes 1
Rome 1
atteint 1
li@@ 1
13 0.49256137278871587
générale 1
faisant 1
droits 1
lac 1
isation 1
économique 1
17 0.5075603374158298
m@@ 1
voix 1
forces 1
br@@ 1
Pologne 1
Seconde 1
total 0.7779740923801732
départ 1
argent 1
Comme 1
sou@@ 1
Chine 1
ï@@ 1
terres 1
Car@@ 1
ance 1
Sainte 1
ot@@ 1
cinéma 1
particulièrement 1
association 1
om@@ 1
contrôle 1
modèle 1
possible 1
B 0.7328725642245062
découvert 1
russe 1
1960 1
honneur 1
x 1
ia 0.9320255172317505
nous 1
ar 0.4503487121885161
produits 1
car@@ 1
Dé@@ 1
pris 1
intérieur 1
espace 1
mon@@ 1
champion 1
Ouest 1
ents 1
W@@ 0.5404289604332243
nouveaux 1
Belgique 1
ille 1
na 0.8241071048968945
port 1
25 0.4796989487870122
désormais 1
façon 1
ines 1
large 0.7770013167211239
semble 1
? 1
u@@ 1
etc. 1
municipalité 1
Prix 1
… 1
territoires 1
critique 1
ène 1
Cet 1
Russie 1
— 0.07548183373869698
arrivée 1
Ré@@ 1
1991 0.861973986779435
Philippe 1
axe 1
Deux 1
signe 1
éléments 1
personnage 1
Royaume 1
Plusieurs 1
combat 1
Bar@@ 1
joueurs 1
aucun 1
mettre 1
da 0.360897142703253
élection 1
il@@ 1
titres 1
centrale 1
février 1
sol 1
Amérique 1
contrat 1
ic@@ 1
altitude 1
David 0.9959881153272861
importance 1
vingt 1
accès 1
dessus 1
olympiques 1
assez 1
Centre 1
chemin 1
er@@ 0.4599411401942049
ter 0.9067839957544409
tique 1
U@@ 0.8021508099436325
oc@@ 1
terrain 1
ain 1
ence 1
1997 0.7685540073031542
allemande 1
An@@ 0.7197408383303615
devenu 1
publie 1
mission 1
els 1
ton 1
teur 1
double 1
ex@@ 1
historiques 1
ier 1
court 1
di 1
duc 1
attaque 1
Con@@ 1
température 1
astéroïdes 1
1995 0.7967428583357448
outre 1
Durant 1
évolution 1
École 1
émission 1
1996 0.7538544033911379
travaille 1
évêque 1
trop 1
surface 1
quitte 1
ateurs 1
situation 1
maire 1
prise 1
quatrième 1
devenir 1
journal 1
vient 1
libre 1
Mon@@ 1
24 0.5003026812467399
quant 1
marché 1
III 1
passage 1
100 0.5263824585244191
situe 1
artistes 1
rouge 1
dis@@ 0.7472712581973479
kilomètres 1
pont 1
affaires 1
bas 1
Martin 1
publique 1
es@@ 0.7577945776056749
us@@ 1
z 0.9244634852410452
bord 1
f 1
connue 1
ologie 1
ay 1
anciens 1
personne 1
gr@@ 1
apparaît 1
In@@ 0.9905044156618829
inscrit 1
Bien 1
majorité 1
ur@@ 1
as@@ 0.8572297887265719
um 0.26355124614720576
italien 1
salle 1
lignes 1
isé 1
principaux 1
rend 1
santé 1
ra 0.7097395303746766
Y@@ 0.9202615437872245
1992 0.7440500138915944
source 1
Cor@@ 1
compris 1
pièces 1
parties 1
représente 1
technique 1
intérêt 1
astéroïde 1
utilisation 1
plutôt 1
ouvrage 1
+ 0.9483436617275195
bourg 1
fit 1
1994 0.7467898208253125
ités 1
D 1
Georges 1
heures 1
gu@@ 1
saint 1
Première 1
taille 1
Société 1
os@@ 1
montre 1
divers 1
toutefois 1
ire 1
ill@@ 1
ro@@ 1
50 0.6311368421904903
derniers 1
vidéo 1
recensement 1
charge 1
cor@@ 1
idée 1
ites 1
ul@@ 1
man 0.3127820363330355
faible 1
one 0.12572034872139357
agricoles 1
arrière 1
télévision 1
unité 1
reçu 1
valeur 1
vallée 1
ami 1
FC 1
Du 1
air 1
simple 1
force 1
sécurité 1
telle 1
ente 1
arts 1
côtés 1
malgré 1
cour 1
ass@@ 1
1981 1
mar@@ 1
km 0.3861196920972629
qu@@ 1
Bretagne 1
sciences 1
Parmi 1
jeux 1
ate 0.4541784523473029
op@@ 1
Thomas 0.9268733681107777
chapelle 1
peintre 1
aucune 1
longueur 1
considéré 1
André 1
forte 1
pratique 1
tournoi 1
mariage 1
issue 1
Bou@@ 1
pu 1
21 0.4537357034021328
clubs 1
secteur 1
1993 0.7508087169850879
savoir 1
vice 1
Suisse 1
moitié 1
vi@@ 1
ver@@ 0.5313565007921734
ac 1
conditions 1
Or@@ 1
ues 1
bande 1
livres 1
William 0.7068615042909229
petits 1
formes 1
passé 1
Club 0.781134899597745
propose 1
ade 1
Elles 1
ir 1
reprises 1
au@@ 1
Ver@@ 0.7056394238552308
utilisée 1
section 1
mo@@ 1
alité 1
buts 1
acteur 1
Plus 1
presse 1
maître 1
abbaye 1
célèbre 1
chaîne 1
police 1
influence 1
défense 1
erie 1
représentant 1
régions 1
fonctions 1
proximité 1
1975 1
lorsqu&apos; 1
longue 1
catholique 1
1988 0.8324268766713937
hauteur 1
nuit 1
ta 0.90210352163677
comptait 1
presque 1
faut 1
neuf 1
qualité 1
mes 1
ai 1
empereur 1
secrétaire 1
moteur 1
Par@@ 1
sujet 1
main 0.6767406838155695
1971 1
ent@@ 0.8943701272117438
député 1
médaille 1
commerce 1
Mal@@ 1
Institut 1
Dès 1
nes 1
pi@@ 1
sélection 1
Per@@ 1
évolue 1
ettes 1
22 0.47162712749050395
accord 1
enseignement 1
armes 1
vitesse 1
tableau 1
entreprises 1
personnages 1
types 1
jusqu 1
ka 1
trans@@ 1
Claude 1
k@@ 0.629818059840198
onne 1
protection 1
cr@@ 1
anti@@ 1
réalise 1
Bas 1
mot 1
soutien 1
suit 1
royaume 1
certain 1
lieux 1
doivent 1
arrondissement 1
iser 1
Académie 1
relations 1
artiste 1
prince 1
mêmes 1
siècle 1
cité 1
hiver 1
fondé 1
actuel 1
James 0.71654679854153
enfant 1
iques 1
nature 1
Ber@@ 1
gestion 1
permis 1
sé@@ 1
man@@ 1
major 0.6928127626831013
Entre 1
pierre 1
principales 1
Mor@@ 1
voïvodie 1
George 0.7248105628979578
Uni 1
ve 0.20799147612259064
appelée 1
orbite 1
épisode 1
hors 1
Tr@@ 0.980004649485553
probablement 1
id@@ 1
ner 0.9781792100651177
ina 0.832138142043177
moyen 1
Championnat 1
continue 1
structure 1
débuts 1
ts 0.6114238338922278
ph@@ 1
militaires 1
ég@@ 1
Bo@@ 1
23 0.4843760869322085
1989 0.7268321451739854
Gu@@ 1
monuments 1
Loire 1
fondée 1
professionnel 1
mode 1
alisation 1
Australie 1
Nicolas 1
to 0.010257546546478546
tel 1
ures 1
parents 1
localité 1
composée 1
arrive 1
joué 1
décrit 1
naissance 1
offre 1
cré@@ 1
ies 1
cour@@ 1
haute 1
pièce 1
sociale 1
Lyon 1
blanc 1
bâtiments 1
rendre 1
ides 1
appel 1
th@@ 0.7559930794325305
régime 1
En@@ 1
Premier 1
circonscription 1
pied 1
ren@@ 1
ouverture 1
patrimoine 1
dispose 1
présent 1
nommée 1
traité 1
navire 1
jouer 1
énergie 1
noms 1
-@@ 0.6619568775781207
év@@ 1
obtenir 1
X 0.9322311638893833
lance 1
enfin 1
minutes 1
chansons 1
teurs 1
éducation 1
bou@@ 1
phase 1
mal@@ 1
diverses 1
chargé 1
tournée 1
concernant 1
derrière 1
question 1
figure 1
mont 1
locale 1
moderne 1
forêts 1
îles 1
catégorie 1
vit 1
bo@@ 1
atif 1
pr@@ 1
texte 1
40 0.6128135227069474
élève 1
classique 1
von 0.040316392084935544
feu 1
transport 1
garde 1
découverte 1
classé 1
tions 1
lettres 1
techniques 1
Berlin 0.7699528987842488
capitaine 1
ministère 1
écrivain 1
directement 1
vu 1
Br@@ 1
lo@@ 1
choix 1
portant 1
belge 1
è@@ 1
camp 1
créer 1
courant 1
autant 1
bon 1
eut 1
Richard 1
caractéristiques 1
et@@ 0.751618289058013
usage 1
pl@@ 1
constitue 1
pourrait 1
couleur 1
coup 1
statut 1
noir 1
quement 1
cher 1
donner 1
Th@@ 1
k 0.6420325889525931
res 1
reprend 1
via 1
cu@@ 1
1986 0.7742814895606516
ni@@ 1
bar@@ 1
so@@ 1
Terre 1
passer 1
ma@@ 1
utilise 1
bassin 1
com@@ 1
économie 1
vol 1
Association 0.8044540466577187
Alors 1
revient 1
ig@@ 1
navires 1
crée 1
désigner 1
puissance 1
use 0.36923897310803155
actuellement 1
frères 1
conseiller 1
dernières 1
Révolution 1
occupe 1
social 0.8014101673014992
hôtel 1
000 1
théorie 1
Caractéristiques 1
exploitation 1
voyage 1
bonne 1
Synopsis 1
collection 1
stade 1
suivantes 1
peuple 1
V 0.8862354034154
26 0.4717991022352906
problèmes 1
sert 1
pe 1
emploi 1
industrie 1
architecte 1
latin 1
scientifique 1
participation 1
numéro 1
essentiellement 1
ler 0.6761503540723097
opération 1
seront 1
sœur 1
actions 1
cœur 1
soldats 1
1984 0.7617393424391371
frontière 1
mondial 1
Ro@@ 1
entraîneur 1
objectif 1
exposition 1
image 1
record 0.6429036672103858
construite 1
défaite 1
auteurs 1
Guillaume 1
chant 1
décision 1
sources 1
officiellement 1
br 0.9652209363125603
él@@ 1
suivi 1
cartes 1
1987 0.7262654039852486
Mont@@ 1
supérieure 1
ing 0.1640507611849583
saisons 1
Com@@ 1
devait 1
langues 1
ellement 1
der 0.013959097014487314
Re@@ 0.7478533450954015
palais 1
sub@@ 0.8388820834567224
je 1
mal 1
gouverneur 1
ains 1
col@@ 1
1985 0.7438065384038813
central 0.9118153340481159
arrêté 1
Malgré 1
commencé 1
rien 1
ec@@ 0.9393842565501042
conduit 1
sites 1
obtenu 1
soviétique 1
ob@@ 1
littérature 1
1930 1
Qu@@ 1
actrice 1
1968 0.8361481033912579
déclare 1
rec@@ 1
fond 1
naturel 1
remporté 1
existence 1
revue 1
Antoine 1
formé 1
Haute 1
am 0.11517208373291517
Seine 1
ché 1
mi 1
aise 1
Montréal 1
loin 1
Di@@ 1
Ma@@ 1
retraite 1
concours 1
single 0.45231204994194363
importants 1
Val@@ 1
r 1
ini 1
1945 0.5891948947739255
g 0.6841952947713357
propriété 1
Alexandre 1
pape 1
épreuve 1
R 0.8033935489563808
physique 1
opposition 1
européen 1
étape 1
del 0.045179145944773784
environnement 1
mieux 1
changement 1
Moyen 1
aine 1
telles 1
tiques 1
tours 1
indépendance 1
largement 1
1940 0.8951326751291203
densité 1
ém@@ 1
F 0.8990187548044514
disposition 1
lie 1
1982 0.7654492359190718
critiques 1
meilleure 1
b 0.623657098231476
objets 1
Dame 1
établissement 1
can@@ 1
studio 1
National 0.2623963079858191
semaine 1
françaises 1
28 0.43869327579643586
Cela 1
remplacé 1
to@@ 1
architecture 1
ois 1
tiers 1
si@@ 1
Assemblée 1
vol@@ 1
côte 1
recherches 1
ice 1
mor@@ 1
ri@@ 1
un@@ 0.2169916089418139
semaines 1
Californie 1
tu@@ 1
permettent 1
ci@@ 1
magazine 1
27 0.44425725600280014
Gr@@ 1
suivants 1
aller 1
Royal 0.706310572321052
Autriche 1
relation 1
familles 1
montagne 1
commandant 1
tient 1
lutte 1
Français 1
Anne 1
rejoindre 1
regroupe 1
textes 1
capacité 1
religieux 1
japonais 1
1983 0.7421454843749481
peinture 1
communication 1
─ 1
coupe 1
personnel 1
maisons 1
processus 1
matière 1
championnats 1
forêt 1
M 0.8917960389934837
extérieur 1
limite 1
prison 1
char@@ 1
journaliste 1
le@@ 0.6762372452166168
ats 1
Co@@ 1
superficie 1
1972 0.7452094369458137
éditions 1
commun 1
ouvrages 1
longtemps 1
couleurs 1
distance 1
régulièrement 1
utiliser 1
projets 1
Mexique 1
constitué 1
né@@ 1
Notre 1
ici 1
utilisés 1
T 0.8217589126039457
Dieu 1
ouvert 1
gmina 1
ter@@ 0.7730653720182135
tradition 1
ates 0.672594221817303
Mo@@ 1
El 0.1108423960641387
animaux 1
royale 1
règne 1
marquée 1
Col@@ 1
Bernard 1
x@@ 1
radio 0.941253057483848
Maurice 1
éch@@ 1
diamètre 1
durée 1
Albert 1
U 0.7021533248405694
sommet 1
locaux 1
1973 0.7802357049596164
H 1
label 1
devint 1
cinquième 1
éc@@ 1
Toutefois 1
intitulé 1
ore 1
men@@ 1
quelque 1
ana 0.6307347513155629
af@@ 1
espagnol 1
isée 1
atteindre 1
Del@@ 1
dollars 1
signifie 1
veut 1
couple 1
faveur 1
ème 1
information 1
autorités 1
régiment 1
écoles 1
1976 0.7513771794075762
seigneur 1
lois 1
Sous 1
Mé@@ 1
crise 1
réalisée 1
bronze 1
lettre 1
réserve 1
perd 1
1979 0.7205953559903829
rive 1
édifice 1
comporte 1
end@@ 0.9547755602427076
ex 1
IV 1
caractère 1
1920 0.9152734549355327
paroisse 1
E 0.8347950167414928
1977 0.7939263555366421
Enfin 1
1974 0.7442769970928131
importantes 1
trouver 1
originaire 1
séries 1
plantes 1
inc@@ 1
Certains 1
Vienne 1
américains 1
paix 1
Am@@ 1
contient 1
expérience 1
débute 1
ches 1
alement 1
connaît 1
responsable 1
chacun 1
ach@@ 1
comité 1
entes 1
entièrement 1
trouvent 1
répartition 1
ski 1
train 1
chambre 1
affaire 1
cimetière 1
événements 1
1978 0.7351597394624001
former 0.36306093329209477
Inde 1
faisait 1
conflit 1
nouvel 1
rurale 1
ole 1
participé 1
Le@@ 0.8741309258709045
aliste 1
Michael 0.6985240791979647
étudiants 1
acte 1
articles 1
Vi@@ 1
Festival 0.8702475998487974
Sal@@ 1
anti 1
Los 0.2738081017900796
Avant 1
civile 1
ouvre 1
Parlement 1
M. 1
Bruxelles 1
appartient 1
.@@ 0.6525976872212894
tre 1
Trois 1
déroule 1
privée 1
apparition 1
juste 1
Henry 0.8388223817803128
Leur 1
néanmoins 1
Fédération 1
attraction 1
Asie 1
filles 1
dessous 1
ile 0.5680748365174405
powiat 1
no 0.11445302607273318
ressort 1
p 0.641253831772038
traitement 1
commandement 1
ma 1
gé@@ 1
parvient 1
lycée 1
Brésil 1
marine 1
petites 1
no@@ 1
ey 1
bal@@ 1
installe 1
urbaine 1
romaine 1
ser@@ 1
Lorsque 1
maladie 1
épisodes 1
hockey 1
réalité 1
lumière 1
construire 1
usine 1
ano 0.8225152775507041
artistique 1
difficile 1
mains 1
N 0.8830963677020827
Chambre 1
lieutenant 1
variables 1
informations 1
uses 1
ba@@ 1
hôpital 1
unités 1
Man@@ 0.933538489232073
totale 1
dite 1
1967 0.7689376738765308
élevé 1
co 0.5431183214747387
principe 1
féminin 1
faits 1
explique 1
pression 1
analyse 1
maintenant 1
étudie 1
italienne 1
indique 1
Po@@ 1
amis 1
van 1
ative 1
cro@@ 1
anciennes 1
commission 1
ch 0.7272410196243192
diffusée 1
jeunesse 1
local 0.35528687255066616
organisé 1
diffusion 1
Se@@ 0.7925689310778726
professionnelle 1
problème 1
sal@@ 1
ien 1
infanterie 1
Âge 1
champ 1
mandat 1
approche 1
Cour 1
vont 1
couronne 1
ball 1
poids 1
fonds 1
aud 1
vous 1
fr@@ 1
armées 1
29 0.428740461635745
doute 1
passant 1
appelle 1
issant 1
amour 1
compositeur 1
vente 1
décret 1
cathédrale 1
porté 1
opérations 1
publiée 1
permettre 1
rugby 1
Sou@@ 1
villages 1
fortement 1
60 0.6322063092760797
200 0.6599897139286948
futur 1
justice 1
lendemain 1
propriétaire 1
municipal 1
Pr@@ 1
finit 1
code 1
victoires 1
manque 1
enc@@ 1
score 1
ang@@ 1
alisme 1
développé 1
ol 1
déc@@ 1
El@@ 0.8052899267194825
absence 1
élèves 1
devenue 1
nos 1
chinois 1
termes 1
for@@ 0.9110514435806074
1969 0.7214821114416128
uniquement 1
collaboration 1
publication 1
our@@ 1
Al 0.5957615667399591
étend 1
Puis 1
meilleurs 1
Char@@ 1
pouvant 1
voiture 1
connaissance 1
Bel@@ 1
Alpes 1
systèmes 1
mémoire 1
qué 1
basé 1
ge 1
Laurent 1
illes 1
tombe 1
ète 1
ani 1
écriture 1
ut 1
dirige 1
ru@@ 1
agriculture 1
fleuve 1
tif 1
ad 0.7672290849780394
éri@@ 1
soient 1
appartenant 1
morts 1
mesures 1
su@@ 1
sorte 1
régionales 1
its 0.07713755182198011
modèles 1
res@@ 1
expression 1
grec 1
outil 1
établir 1
risque 1
fondateur 1
réalisateur 1
De@@ 0.7282455618185265
candidat 1
ép@@ 1
fonde 1
NGC 1
liberté 1
dispute 1
Bal@@ 1
Maison 1
publics 1
Moscou 1
oux 1
portée 1
festival 1
bureau 1
journée 1
régional 1
douze 1
euses 1
plein 1
S 0.7439699294472363
st@@ 0.4700946896081505
lesquels 1
ino 0.92023203340909
socialiste 1
80 0.7412395489024821
cal@@ 1
propres 1
issement 1
parcours 1
rang 1
1964 0.72285866894672
Commission 1
Sh@@ 0.6464554691044407
résultat 1
tente 1
Algérie 1
agricole 1
mari 1
poursuit 1
1962 0.7842203405997159
Daniel 1
esprit 1
fondation 1
As@@ 1
éviter 1
Marseille 1
fer@@ 1
Be@@ 0.7160150755473019
chute 1
valeurs 1
note 1
philosophie 1
1944 0.6191295868406125
St@@ 0.5852721384670783
vote 1
participer 1
nécessaire 1
naturelle 1
enquête 1
éré 1
parce 1
lit 1
visite 1
lier 1
effectue 1
application 1
peine 1
proches 1
avion 1
véritable 1
composition 1
médecine 1
rock 0.7855952228902031
actif 1
aines 1
Irlande 1
Art 0.5730839567837346
Sch@@ 0.48145531643583156
tri@@ 1
ises 1
basse 1
suisse 1
reprise 1
désigne 1
Championnats 1
dou@@ 1
ira 1
présenté 1
Vie 1
ov@@ 1
ti 1
1965 0.7190557659396559
dû 1
ak@@ 0.6885037472108946
scientifiques 1
méthode 1
City 0.2722965630889511
travailler 1
relativement 1
fusion 1
tion 1
1966 0.7234349451292299
reine 1
son@@ 1
Q@@ 0.9657103348026824
annuelle 1
lu@@ 1
iss@@ 1
Marc 1
de@@ 0.48864760275339664
collège 1
gaz 1
portes 1
cheval 1
rée 1
ev@@ 1
places 1
do 0.2938947217147487
officier 1
conception 1
Peter 0.5999114525101551
officiel 1
ta@@ 1
pilote 1
législatives 1
vin 1
onn@@ 1
René 1
moyens 1
chanteur 1
caractérisée 1
Des@@ 1
photos 1
puisque 1
ov 1
all@@ 1
ff@@ 1
World 0.19253603260974866
sport 1
promotion 1
thème 1
ell@@ 1
assurer 1
ata 0.77513004772302
31 0.43063020200874846
communiste 1
euros 1
Distribution 1
domicile 1
Toulouse 1
monument 1
voire 1
domaines 1
vis 1
Quelques 1
agent 1
Ab@@ 0.5034674683417161
juge 1
O 0.41954102719823955
ciel 1
voies 1
For@@ 1
G 0.7599919831465012
Et 1
masse 1
éd@@ 1
Chaque 1
1939 0.6795064013973744
trente 1
laisse 1
complexe 1
Bor@@ 1
fs 1
X@@ 0.8505825574357864
sa@@ 1
Tout 1
raisons 1
vert 1
pouvait 1
rapide 1
diocèse 1
disque 1
aï@@ 1
seur 1
Maria 0.9417924258442544
biens 1
atique 1
engage 1
footballeur 1
arabe 1
polonais 1
intègre 1
procès 1
ferroviaire 1
écrite 1
autorité 1
économiques 1
Aux 1
avions 1
gros 1
arrêt 1
1958 0.7629203140581249
Musée 1
P 0.9515311743367573
science 1
sauf 1
étranger 1
Angeles 0.9124134899200246
élus 1
bl@@ 0.961150329379476
w@@ 0.4415880487561042
tor@@ 1
Li@@ 1
Comité 1
résistance 1
la@@ 1
aériennes 1
isant 1
Land 0.9656652054277765
&#124; 0.4640886127488107
dirigé 1
auparavant 1
députés 1
naît 1
hommage 1
sait 1
1866 1
réaliser 1
lé@@ 1
illé 1
Celui 1
Lo@@ 1
contexte 1
Har@@ 0.8612279186662177
Démographie 1
og@@ 1
Gar@@ 1
heure 1
gi@@ 1
ades 1
and@@ 0.8968392493701092
populations 1
télé@@ 1
concept 1
ment 0.9413693214156491
endémique 1
perdu 1
officielle 1
Étienne 1
ve@@ 1
utilisant 1
matériel 1
semi 1
universitaire 1
ant@@ 1
Suède 1
1963 0.7068806988269236
ologique 1
atrice 1
effets 1
don 1
littéraire 1
porter 1
Cal@@ 1
ing@@ 0.8692366576347254
albums 1
Pi@@ 1
canal 1
découvre 1
be 0.05234497803956287
décédé 1
naturels 1
parle 1
ences 1
électrique 1
kh@@ 1
communale 1
Frédéric 1
ots 1
cou@@ 1
eff@@ 1
acteurs 1
dés@@ 1
organise 1
rou@@ 1
mouvements 1
aura 1
culturel 1
ances 1
ati@@ 1
producteur 1
pan@@ 1
esse 1
climats 1
ne@@ 0.9972920339652602
ordres 1
initialement 1
distribution 1
Arts 0.8521004361732344
besoin 1
glace 1
ez 1
compose 1
échelle 1
Bi@@ 1
Nouveau 1
développe 1
façade 1
aéroport 1
respectivement 1
mi@@ 1
grille 1
est@@ 0.8567614443414159
Victor 1
lis 1
tôt 1
chasse 1
correspond 1
bat 1
Ser@@ 1
ley 0.4946815970292463
abilité 1
1956 0.7099646244722472
val@@ 1
commande 1
oire 1
ko 1
actifs 1
marins 1
circuit 1
concerne 1
Bordeaux 1
1914 0.9254084907022584
affirme 1
préfecture 1
colonel 1
Armée 1
plans 1
tin 1
lancé 1
Division 0.44817533854801733
historien 1
fin@@ 1
idées 1
Mer@@ 1
gagne 1
traverse 1
missions 1
mises 1
ï 1
isés 1
ouverte 1
titulaire 1
mur 1
médecin 1
iles 1
Croix 1
ya 0.20297076884801743
accueille 1
1948 0.6800654778629358
ins@@ 1
Her@@ 0.8931825568207982
ferme 1
croix 1
International 0.3289545409128815
St 0.7215766002109029
retourne 1
em 0.6684344865272255
Compagnie 1
monastère 1
mots 1
gens 1
beau 1
rencontres 1
1946 0.6666079550100189
Can@@ 1
génération 1
romain 1
agglomération 1
réalisation 1
établissements 1
anglaise 1
britanniques 1
croissance 1
Washington 0.548805124622197
vainqueur 1
bus 1
bras 1
comp@@ 1
1961 0.692716014407244
inclinaison 1
Écosse 1
lien 1
propos 1
tier 1
appar@@ 1
not@@ 1
portent 1
Grèce 1
sociétés 1
faite 1
disponible 1
venir 1
Gal@@ 1
annoncé 1
45 0.6801635875924801
ay@@ 1
publiés 1
Val 1
fon@@ 1
Records 0.6723934163549418
périhélie 1
Juifs 1
piste 1
considérée 1
Culture 1
ign@@ 1
1820 1
ak 0.7264153936010807
issu 1
locales 1
considère 1
urs 1
décès 1
télévisée 1
guerres 1
poète 1
ber@@ 0.8378238868363914
1959 0.7068778230675461
automobile 1
choisi 1
produire 1
olympique 1
Jules 1
Groupe 1
quer 1
médias 1
od@@ 0.96535722598681
victimes 1
représentation 1
orchestre 1
échange 1
Égypte 1
représentants 1
Ville 1
chevaux 1
US 0.24158413280467195
envoyé 1
combats 1
our 0.8674395462035774
â@@ 1
thèse 1
publiques 1
Cas@@ 1
vivant 1
présidence 1
contact 1
accessibles 1
pro@@ 1
marqué 1
final 0.24146468077594935
nomme 1
majeure 1
isent 1
Van 1
delà 1
riche 1
Île 1
concert 1
pour@@ 1
Er@@ 0.6078028828111739
dr@@ 1
ica 0.736393670967096
sc@@ 1
rem@@ 1
abbé 1
onné 1
500 0.6423017370409123
1936 0.7356618982968538
avance 1
réseaux 1
officiers 1
ut@@ 0.9602579058491666
1947 0.7042474444882969
régionale 1
changements 1
ê@@ 1
soir 1
bert 1
tis@@ 1
lesquelles 1
déclaré 1
ingénieur 1
japonaise 1
35 0.6664610037410548
diplôme 1
religion 1
impose 1
murs 1
Cr@@ 1
musicale 1
exception 1
fil 1
trains 1
ur 0.866099040338105
sièges 1
Mont 1
José 0.728701278215774
So@@ 1
organisée 1
sh@@ 0.43210332096175974
Bour@@ 1
Chicago 0.7385574314279518
vieux 1
jardin 1
transports 1
Roger 1
départemental 1
contr@@ 1
réussit 1
excentricité 1
fication 1
out 0.12819551609746738
culte 1
quitter 1
Château 1
Air 0.5474627290214897
bibliothèque 1
signé 1
milieux 1
estimé 1
mène 1
feuilles 1
révolution 1
versions 1
Tous 1
éro@@ 1
reconnaissance 1
développer 1
physiques 1
quet 1
ra@@ 1
morte 1
questions 1
70 0.6440013820129389
restauration 1
augmentation 1
estime 1
èse 1
Insee 1
ager 1
quée 1
um@@ 0.4677506588252691
front 0.6952171654000098
refuse 1
Denis 1
Rhône 1
ards 1
Quand 1
Cour@@ 1
demeure 1
ressources 1
Ri@@ 1
espagnole 1
Du@@ 1
véhicules 1
Christian 0.6087326809890324
az@@ 0.9680624708375329
temple 1
idae 1
originale 1
sociales 1
printemps 1
rég@@ 1
certaine 1
précipitations 1
héros 1
prennent 1
Mag@@ 1
différence 1
tué 1
écliptique 1
avocat 1
bout 1
Situation 1
Ex@@ 0.8916388599768018
génér@@ 1
entier 1
1949 0.6674631951497836
prit 1
endroit 1
rares 1
ara 0.6285351104781987
ten@@ 0.707379208804517
beaux 1
atives 1
documents 1
vo@@ 1
partage 1
Ros@@ 1
essais 1
1942 0.5783834756995097
Orléans 1
conserve 1
Portugal 1
vivre 1
ange 1
oiseaux 1
1918 0.6828021908687918
vite 1
conférence 1
secondes 1
mettant 1
jou@@ 1
flotte 1
devrait 1
éli@@ 1
Mat@@ 1
ault 1
branche 1
illon 1
Orient 1
ea 0.9557423453917984
tir 1
nations 1
Hongrie 1
ge@@ 0.4468392102350559
yl@@ 1
associé 1
époques 1
métropole 1
serbe 1
prises 1
1957 0.6762558069004301
Go@@ 1
j 1
1954 0.6944676569663487
chanteuse 1
qués 1
profit 1
se@@ 0.5057763691075017
1943 0.5647988741258267
Alain 1
sociaux 1
1938 0.6464104298507367
fête 1
1955 0.696866057222413
expédition 1
mat@@ 1
Pl@@ 1
enfance 1
réforme 1
ki 1
sent 0.6854999370164407
vaste 1
berg 0.5825493870970184
chœur 1
consiste 1
exemplaires 1
yeux 1
ous 0.48299237435778497
consommation 1
for 0.01366356647372811
étage 1
page 1
élément 1
Santa 0.6262345083081953
adaptation 1
traduit 1
90 0.6246516458221574
rant 1
entr@@ 1
sixième 1
établi 1
forment 1
Léon 1
étrangères 1
volonté 1
Simon 1
présents 1
candidats 1
piano 1
accident 1
basée 1
noire 1
revanche 1
allemands 1
tres 0.5699236124472559
1941 0.5139222330006468
cap@@ 1
inférieur 1
Fr@@ 1
seuls 1
atelier 1
humaine 1
commercial 1
progressivement 1
règles 1
Auguste 1
Corée 1
possibilité 1
ang 0.811194356633719
spécialiste 1
cycle 1
issent 1
massif 1
adjoint 1
Stade 1
scènes 1
dés 1
Israël 1
ruisseau 1
atifs 1
Petit 1
appelés 1
change 0.752147304420349
sang 1
prévoit 1
assure 1
aider 1
tribunal 1
die 0.012997120161376954
ah 0.744651246692322
voyageurs 1
Genève 1
Rou@@ 1
images 1
Sol@@ 1
Climat 1
libération 1
ae 0.7247243332286027
bas@@ 1
reconnu 1
placé 1
partis 1
pal@@ 1
événement 1
1952 0.6622737411276246
Es@@ 1
XV 1
résidence 1
vent 1
nier 1
identité 1
32 0.6610439403841976
marche 1
emplacement 1
ré 1
Baptiste 1
Congrès 1
ô@@ 1
présentant 1
travaillé 1
complète 1
Ko@@ 1
connaître 1
romans 1
ari 1
Madrid 0.9106013924941673
plateau 1
Comté 1
discours 1
original 0.31635027756159645
fl@@ 1
te@@ 0.6699943417473231
notre 1
utilisées 1
connus 1
q 1
chemins 1
rép@@ 1
Radio 0.7690380575829311
tenu 1
enti@@ 1
fabrication 1
1953 0.6868150264089063
simplement 1
constituée 1
2022 0.6765819962715596
puisqu&apos; 1
College 0.27226847919237035
Provence 1
ste 1
champions 1
Pré@@ 1
League 0.20431578371173972
espaces 1
gar@@ 1
gén@@ 1
tur@@ 1
volume 1
igny 1
Tar@@ 1
siècles 1
privé 1
Peu 1
Ag@@ 1
Nations 1
iv@@ 1
repris 1
poly@@ 1
prévu 1
programmes 1
Répartition 1
cl@@ 1
Park 0.33185529801971536
mention 1
détaillée 1
Occupation 1
Édouard 1
Étymologie 1
régulière 1
Maroc 1
apprend 1
positions 1
pen@@ 1
A. 0.6566935244183468
land 0.24654008436121214
fi@@ 1
religieuse 1
chefs 1
royal 1
envers 1
concerts 1
anes 1
métro 1
cul@@ 1
Av@@ 1
professionnels 1
Strasbourg 1
Toponymie 1
définitivement 1
Catherine 1
be@@ 0.3946401291161391
internationales 1
denses 1
1937 0.6761415120867823
Côte 1
artillerie 1
ser 0.288488968776458
rap@@ 1
Me@@ 0.8615410956740381
personnalités 1
elli 1
ges 1
Jeanne 1
spectacle 1
occidentale 1
consacré 1
dehors 1
alisé 1
précédente 1
niveaux 1
majeur 1
Bon@@ 1
Milan 1
Sar@@ 1
difficultés 1
acc@@ 1
rendu 1
abrite 1
routes 1
Or 1
Savoie 1
jaune 1
issus 1
Économie 1
sujets 1
ouv@@ 1
immédiatement 1
4@@ 0.6427924625266105
go@@ 1
asse 1
ase 1
logements 1
écrits 1
conçu 1
baie 1
quartiers 1
lar@@ 1
éditeur 1
démocratique 1
rôles 1
Mas@@ 0.9907700112654844
échec 1
1933 0.6463383782733116
danse 1
parler 1
liaison 1
mines 1
gal@@ 1
Marine 1
8@@ 0.8081991535530175
comparer 1
distingue 1
légèrement 1
parallèle 1
Allemands 1
datant 1
fiction 1
initiative 1
voitures 1
Marcel 1
Communauté 1
rées 1
médi@@ 1
univers 1
7@@ 0.7907484443065629
Pe@@ 1
cas@@ 1
fédéral 1
No@@ 1
1919 0.677292044447691
courses 1
sions 1
succède 1
Théâtre 1
européens 1
intermédiaire 1
décidé 1
super@@ 1
eg@@ 0.5564025897905184
aménagement 1
rel@@ 1
scrutin 1
aqu@@ 1
cent 1
eb@@ 0.5767244458265112
administrative 1
mann 0.604900715849559
isées 1
prisonniers 1
allant 1
Urbanisme 1
enn@@ 1
1951 0.6833220596069001
fa@@ 1
automne 1
nationales 1
blanche 1
performance 0.6031940582222546
marin 1
dynastie 1
ologue 1
sor@@ 1
absolue 1
Politique 1
tourne 1
animation 1
are 0.03464145730910423
ja 0.774414367250334
Atlantique 1
normale 1
tar@@ 1
mettent 1
qualifié 1
établit 1
Ordre 1
1935 0.6995444148186638
La@@ 1
établie 1
Kar@@ 0.7154748231539704
Ac@@ 1
dessinée 1
donnant 1
arbres 1
Su@@ 0.989960079102523
écrire 1
associations 1
enseigne 1
Vincent 1
récit 1
Christ 1
chevalier 1
cérémonie 1
interprète 1
épreuves 1
présidentielle 1
pourtant 1
Nantes 1
statue 1
rep@@ 1
belle 1
Administration 1
ita 0.7206871974496375
prenant 1
Napoléon 1
protéger 1
écologique 1
prêtre 1
communautés 1
fortes 1
Pyrénées 1
ed@@ 0.5554162743617208
onze 1
Ad@@ 0.8183480772033306
cur@@ 1
départementale 1
nef 1
lig@@ 1
6@@ 0.7466031387987838
intervention 1
échelles 1
rues 1
ban@@ 1
sav@@ 1
mathématiques 1
Argentine 1
J. 0.6404188005337239
Monde 1
européennes 1
océanique 1
Francisco 0.6036572877188031
Vers 1
tennis 1
Haut 1
do@@ 1
stations 1
dessin 1
basket 1
secondaires 1
chacune 1
Cassini 1
aspect 1
conséquence 1
fleurs 1
aliser 1
ens@@ 0.5512887470639033
fonctionnement 1
cabinet 1
canadien 1
chose 1
bleu 1
étoiles 1
étrangers 1
humains 1
IGN 1
ace 1
graphie 1
baron 1
Typologie 1
vis@@ 1
phénomène 1
1929 0.7022496381293653
Cou@@ 1
5@@ 0.6171184894944113
venant 1
ik@@ 0.5853701935140863
Sa@@ 1
suivre 1
Organisation 1
ke 0.5364956419854855
trafic 1
inspiré 1
tés 1
féminine 1
aises 1
accepte 1
ux 1
union 1
avenue 1
1934 0.6874060718674424
pu@@ 1
Ne@@ 0.74226467281833
oles 1
dure 1
ella 0.5048507190398829
archives 1
chi 0.8330269611390045
oiseau 1
Roi 1
Pont 1
den 0.022997820798209202
quinze 1
liés 1
réaction 1
auquel 1
trône 1
appareil 1
Arthur 1
promu 1
assi@@ 1
solution 1
Pol@@ 0.9384789528789502
menée 1
ha 0.2160448895541751
Mac@@ 0.8539785747274153
moteurs 1
perte 1
Pro@@ 0.8341988918945418
pé@@ 1
réponse 1
isse 1
entrer 1
Celle 1
ger 1
humain 1
9@@ 0.7902809608778428
classes 1
du@@ 1
Localisation 1
proportion 1
1932 0.7246184106340139
courte 1
ache 1
classification 1
limitée 1
autonome 1
détruit 1
├ 1
aff@@ 1
retrouver 1
impériale 1
émissions 1
direct 1
io 0.8932633028004422
ologiques 1
Néanmoins 1
esses 1
1900 0.8165134124398797
actes 1
sch@@ 0.3555826318942492
emb@@ 1
diffusé 1
pouvoirs 1
Service 0.7750662426410088
contraire 1
table 1
victime 1
restent 1
oni 1
révèle 1
nationaux 1
Disney 1
onner 1
polonaise 1
min@@ 1
angle 1
tentative 1
matin 1
rois 1
Barcelone 1
serv@@ 1
circulation 1
enceinte 1
secondaire 1
conservé 1
installé 1
por@@ 1
Normandie 1
bé@@ 1
classée 1
enregistré 1
dépend 1
cycliste 1
musical 0.6319195518264444
franco 1
mou@@ 1
Patrick 1
servir 1
situés 1
lin 1
totalement 1
extension 1
3@@ 0.6833476167108067
0,@@ 1
K 0.5652332368383666
dos 0.21194833924923354
adi@@ 1
primaire 1
ō 1
conseillers 1
Bourgogne 1
correspondant 1
quart 1
oppose 1
1928 0.6719609045633943
Marne 1
salles 1
ell 0.505805265527997
pense 1
licence 1
communal 1
néo 1
auraient 1
assemblée 1
Smith 0.5757926050861444
religieuses 1
Lille 1
modernes 1
auto@@ 1
Vierge 1
terrains 1
Fin 1
School 0.1661987370533982
paru 1
aérienne 1
pêche 1
pe@@ 0.9457131626215327
ographie 1
naturelles 1
format 1
atoire 1
cer@@ 1
extrême 1
disparu 1
destiné 1
occupé 1
Cover 1
33 0.7225297999856224
Lou@@ 1
compétitions 1
1924 0.7116442234999487
Corine 1
Pal@@ 1
soutient 1
constituent 1
attention 1
désigné 1
cardinal 1
î@@ 1
by 0.01333299033965287
installer 1
pointe 1
Gi@@ 1
aîné 1
1910 0.7907273018531071
visant 1
septième 1
arbre 1
représenté 1
empire 1
Guy 1
active 0.6252487993608313
administratif 1
institutions 1
vendu 1
appellation 1
ènes 1
précédent 1
contenant 1
vision 1
Por@@ 1
améliorer 1
inf@@ 1
Juan 0.540370254050168
essai 1
seurs 1
mer@@ 0.7690074014691414
montagnes 1
sportive 1
Je 1
conduite 1
utilisent 1
Ger@@ 0.8787238435928482
néerlandais 1
dirigée 1
numérique 1
battu 1
Outre 1
dirigeants 1
méthodes 1
ek 0.8213787316390028
condamné 1
démocrate 1
doctorat 1
comédie 1
indépendant 1
américaines 1
quantité 1
due 0.2335380431192715
biophysique 1
Port 1
Fer@@ 1
graphique 1
ote 1
pratiques 1
phare 1
Famille 1
présentent 1
prairies 1
ann@@ 1
individus 1
hu@@ 1
températures 1
erait 1
Jeunesse 1
véhicule 1
lié 1
Is@@ 1
langage 1
li 0.9816936279021804
incendie 1
ient 1
Min@@ 1
couverture 1
Ou@@ 1
ç@@ 1
précise 1
gl@@ 1
mis@@ 0.8244210468382975
nucléaire 1
CLC 1
400 0.6883810763100592
servi 1
col 1
Antonio 0.8195437967770328
donnée 1
comprenant 1
égalité 1
enregistrement 1
1870 1
Super 0.8113642580520177
bu@@ 1
structures 1
équipage 1
musiciens 1
ajoute 1
installation 1
ori@@ 1
complet 1
Tokyo 1
similaire 1
ules 1
Mc@@ 0.5439777507601157
Lorraine 1
300 0.63294855473107
complètement 1
performances 1
liées 1
har@@ 0.9679657513510186
élevée 1
grade 1
coopération 1
somme 1
èmes 1
ément 1
trice 1
trouvé 1
Né 1
rent 1
traduction 1
étudier 1
centres 1
organisations 1
ule 1
raconte 1
San@@ 1
Jésus 1
1925 0.7124743001712884
sol@@ 1
intitulée 1
attaques 1
trouvait 1
lancer 1
constitution 1
totalité 1
viennent 1
gen@@ 0.6992684065535071
sortir 1
profondeur 1
Ol@@ 1
présenter 1
spécifique 1
étoile 1
tive 0.888213549172713
Kh@@ 1
veille 1
coût 1
géographique 1
ais@@ 1
iti@@ 1
tendance 1
hé@@ 1
isi@@ 1
36 0.6983003940720177
cultures 1
int@@ 1
ard@@ 1
1912 0.7167685871204376
chi@@ 1
Pou@@ 1
généraux 1
tra@@ 1
canadienne 1
accueil 1
desservie 1
onde 1
transition 1
Str@@ 0.6439988626749575
ala 0.7938886975226348
maximum 1
civil 0.7295745532356015
Raymond 1
propriétés 1
docteur 1
juive 1
Turquie 1
identique 1
Zélande 1
deviennent 1
1931 0.6892963388453568
preuve 1
provinces 1
chev@@ 1
ze 0.786424442917296
quotidien 1
interprétation 1
stes 1
liée 1
planète 1
construits 1
ires 1
rester 1
Men@@ 1
amiral 1
Mil@@ 1
multiples 1
Tor@@ 0.8215455081694119
inscription 1
ari@@ 1
observatoire 1
conn@@ 1
za 0.713282818604864
chapitre 1
oph@@ 1
oncle 1
Cap@@ 1
cellules 1
tenir 1
Certaines 1
der@@ 0.5877043045329574
archevêque 1
ess@@ 1
parlementaire 1
conf@@ 1
fé@@ 1
transfert 1
instruments 1
directe 1
interne 1
pose 1
typologie 1
pleine 1
tournage 1
introduit 1
avis 1
ion 1
Cl@@ 1
propriétaires 1
ah@@ 0.7392861138229203
aile 1
fil@@ 1
Jusqu&apos; 1
fié 1
liens 1
églises 1
Serbie 1
exécution 1
affluent 1
documentaire 1
peintures 1
ong 0.7504856177482022
Constitution 1
quées 1
météorologique 1
masculin 1
antique 1
2@@ 0.6020600605415903
tenant 1
postes 1
ération 1
Ren@@ 1
CD 0.7384860921916004
q@@ 1
barrage 1
Affaires 1
Music 0.3737739752602851
terminé 1
solo 0.40902812180629666
scénario 1
aye 1
ri 1
capable 1
besoins 1
remonte 1
Texas 0.5070272716048763
apparaissent 1
alités 1
ètes 1
Population 1
Lee 0.6883750532367664
Luxembourg 1
remplacer 1
Max 1
vrai 1
montée 1
évolué 1
Palais 1
élevage 1
galerie 1
invasion 1
ed 0.09507741616628715
devenant 1
1921 0.6854839698130305
Colombie 1
dée 1
fier 1
v 0.6852971595547048
origines 1
Chi@@ 1
1926 0.6710048104721822
orientale 1
provenant 1
accompagné 1
United 0.09660345001665195
Bl@@ 1
industriel 1
étique 1
Ukraine 1
lecture 1
To@@ 1
me@@ 0.9171309415669768
arc 1
élite 1
Alfred 1
édi@@ 1
visible 1
éti@@ 1
Finlande 1
agence 1
1922 0.6750140308973316
four@@ 1
ach 0.6860148160488857
davantage 1
destruction 1
définition 1
West 0.2190314274960769
situées 1
condition 1
Fort 0.8621324301427313
ventes 1
notion 1
Président 1
arme 1
culturelle 1
bro@@ 1
Sénat 1
laissant 1
Ang@@ 1
Norvège 1
réduit 1
dur@@ 1
American 0.09810211692129046
essentiel 1
facilement 1
comportement 1
collections 1
ulaire 1
Liège 1
Gor@@ 1
Lé@@ 1
métrage 1
maritime 1
Venise 1
genres 1
envoie 1
observations 1
poésie 1
iter 1
irs 1
acquis 1
Beau@@ 1
déf@@ 1
end 0.1444627522579666
Football 0.4869316534632597
Quatre 1
internationaux 1
coul@@ 1
Danemark 1
recueil 1
lancement 1
Saison 0.4436817117674963
ba 0.6880225845511599
Ho@@ 0.8164555851591714
Ben 1
Dor@@ 1
Jack 0.821764813008254
per 0.2504427258110855
bor@@ 1
plante 1
Rhin 1
laisser 1
œ@@ 1
autor@@ 1
Mary 0.5282759844984387
Si@@ 1
populaires 1
ven@@ 1
ède 1
extrémité 1
ama 0.8391857924333525
ligue 1
rapports 1
entraîne 1
Bri@@ 1
journaux 1
cel@@ 1
sélectionné 1
gamme 1
bateau 1
race 0.44585146108784934
représentent 1
Tch@@ 1
disparition 1
aque 1
nu@@ 1
budget 1
1917 0.6021321002729454
élé@@ 1
matériaux 1
Tom 0.8731437834827657
Louise 1
érée 1
institu@@ 1
donnent 1
Nice 1
pres@@ 1
* 0.17103768043790232
1927 0.6538079644380956
engagé 1
électronique 1
Sé@@ 1
nomination 1
Ker@@ 1
huitième 1
pensée 1
Force 0.6101108184897202
onnée 1
sup@@ 1
revenir 1
reprendre 1
citoyens 1
Eugène 1
pierres 1
hypothèse 1
conservateur 1
ran@@ 1
Internet 1
bre@@ 1
ath@@ 1
Grâce 1
grecque 1
technologie 1
versant 1
ali@@ 1
proposition 1
océan 1
Cro@@ 1
installations 1
nécessaires 1
atiques 1
Bre@@ 1
pér@@ 1
mille 1
2,@@ 1
deviendra 1
interdit 1
choisit 1
rés@@ 1
sportif 1
Mou@@ 1
Garonne 1
réduire 1
Ter@@ 1
cont@@ 1
roul@@ 1
Ba@@ 1
û@@ 1
canons 1
ura 0.9475631783778747
Caroline 1
opéra 1
milliers 1
légende 1
guitare 1
seraient 1
icien 1
préc@@ 1
alisée 1
Sur@@ 1
Dou@@ 1
dic@@ 1
risques 1
radi@@ 1
contenu 1
chercheurs 1
office 0.4055472471875384
Sor@@ 1
congrès 1
informatique 1
formule 1
Rio 1
Gabriel 1
catholiques 1
relais 1
Pacifique 1
Ni@@ 1
tableaux 1
lég@@ 1
récemment 1
onie 1
succession 1
réunion 1
caractérise 1
compl@@ 1
lait 1
thèmes 1
alliance 1
autrefois 1
sac 1
vir@@ 1
rait 1
conquête 1
Do@@ 1
animal 1
cherche 1
Hu@@ 1
duo 1
classiques 1
voy@@ 1
coups 1
menace 1
produite 1
Rom@@ 1
quasi 1
av. 1
Francis 1
concentration 1
cavalerie 1
rav@@ 1
ices 1
parole 1
symbole 1
rés 1
Ap@@ 1
pot@@ 1
remplacement 1
princesse 1
évoque 1
plan@@ 1
préparation 1
Mus@@ 1
étapes 1
1923 0.6574338082273157
Black 0.4696477814936968
ada 0.19095645338308007
ix 1
Tur@@ 1
J.-C. 1
intérêts 1
Noël 1
Olivier 1
dessins 1
blessé 1
colonie 1
électricité 1
brigade 1
tis 1
hameau 1
Parc 1
successeur 1
dev@@ 1
tait 1
million 0.2511569646634204
équ@@ 1
ves 1
ablement 1
pré 1
tenue 1
tourisme 1
responsabilité 1
B. 0.4222568038586561
disponibles 1
finales 1
spatial 1
ennemi 1
iers 1
sin@@ 1
compter 1
maintenir 1
Bur@@ 0.6699104657475902
ain@@ 1
dieu 1
Gérard 1
cercle 1
Finalement 1
Renaissance 1
ys@@ 1
ów 1
souhaite 1
Mi@@ 1
pas@@ 1
Frank 0.7286828764806939
J 0.8800407452513248
loc@@ 1
Mark 0.5995727753936625
expositions 1
Bu@@ 1
dem@@ 1
VI 1
venus 1
ich@@ 0.9084294440370422
Bois 1
eng@@ 0.7143609535505712
Christophe 1
Im@@ 1
nés 1
ref 1
fédération 1
mus@@ 1
prom@@ 1
variations 1
catégories 1
traditionnelle 1
voient 1
Inter@@ 0.6740916636382772
34 0.6548136677148048
participent 1
jusque 1
Alsace 1
Hor@@ 0.9099870546177965
jazz 1
russes 1
manifestations 1
ailles 1
couvre 1
baisse 1
départements 1
Galles 1
magnitude 1
ena 0.761742462166211
he 0.021165614401379873
URSS 1
ça 1
cantons 1
Ben@@ 1
Fondation 1
uc@@ 1
limites 1
sme 1
vaut 1
impact 1
qualifie 1
sœurs 1
38 0.6683692452587582
Météo 1
formations 1
drapeau 1
Sp@@ 0.6267123568933523
cit@@ 1
Ancien 1
TV 0.29638354424841784
vaisseau 1
vigueur 1
revenu 1
engagement 1
lou@@ 1
accueillir 1
Ph@@ 1
commencent 1
milliards 1
ars 0.8524044765146392
lot 1
objectifs 1
république 1
Journal 1
pes 1
tour@@ 1
Emmanuel 1
1913 0.6996848385206969
rement 1
cin@@ 1
ji 1
Sam@@ 0.9679378889460818
renommée 1
gagner 1
érant 1
He@@ 0.6508093322357461
inférieure 1
montrent 1
relève 1
scénariste 1
remplace 1
ny 1
noblesse 1
cat@@ 1
tée 1
calendrier 1
mâle 1
Edward 0.632779717573002
aujourd 1
huile 1
mas@@ 1
1905 0.7408331507736311
inverse 1
conservation 1
eté 1
Hall 0.38296740557335374
chinoise 1
peau 1
pages 1
ca 0.5911010713276769
Ham@@ 1
poissons 1
ly 0.2898218473171231
caractéristique 1
fournir 1
iens 1
recevoir 1
Origine 1
effectué 1
thé@@ 1
Émile 1
orientation 1
travailleurs 1
historiens 1
Marguerite 1
ton@@ 1
Yves 1
1911 0.7322285105859462
employé 1
ili@@ 1
campagnes 1
industrielle 1
boul@@ 1
hi@@ 0.9523175063371224
Pan@@ 1
centaines 1
Résultats 1
fixe 1
irent 1
mu@@ 1
fédérale 1
chrétienne 1
Cer@@ 1
cha 0.8802719903672981
standard 0.7038541273100769
plaine 1
Star 0.5985270591221298
nom@@ 1
mener 1
pilotes 1
tisme 1
choses 1
entière 1
Red 0.4703515072658728
traces 1
suivent 1
Vol@@ 1
Prince 0.7576886810035561
réussi 1
Cap 1
75 0.6612033349909967
ato 0.7256988621309176
sau@@ 1
transféré 1
effectuer 1
ram@@ 1
laissé 1
portrait 1
S&apos; 1
femelle 1
Jérusalem 1
proposé 1
Fils 1
Lord 0.6576701593727311
conférences 1
Aujourd&apos; 1
ailes 1
ib@@ 0.981588370765364
meilleures 1
quoi 1
séjour 1
nul 1
Munich 1
partisans 1
Florence 1
inscrits 1
entretien 1
ail@@ 1
At@@ 0.8921829360751229
ida 0.5111686103186365
bases 1
peuples 1
couvent 1
Germain 1
étudié 1
aj@@ 0.9459919909695429
pieds 1
climatique 1
leader 0.6032816538740967
rédaction 1
clocher 1
banque 1
faculté 1
ist@@ 0.7694176224585805
subit 1
favorable 1
bour@@ 1
ger@@ 0.678655086899019
Dur@@ 1
paroles 1
champs 1
relie 1
banlieue 1
ande 1
Lu@@ 1
hér@@ 1
noter 1
chrétiens 1
dits 1
employés 1
soins 1
Lam@@ 1
longues 1
gardien 1
esp@@ 1
suivie 1
mécanique 1
Luc 1
papier 1
puisse 1
élo@@ 1
AC 1
ali 1
accessible 1
soutenu 1
discipline 1
consacre 1
ev 1
judiciaire 1
règle 1
environs 1
Company 0.3292506118834213
quarante 1
Prague 1
Mol@@ 1
mauvais 1
ond@@ 1
ouvriers 1
Autres 1
défendre 1
relief 1
supplémentaires 1
compagnies 1
indépendante 1
tifs 1
mixte 1
anc@@ 1
Ju@@ 1
description 1
bandes 1
Bosnie 1
dimanche 1
prépar@@ 1
chiffre 1
conscience 1
Congo 1
Dominique 1
hétérogènes 1
her@@ 0.5797047259597456
acide 1
iller 1
š@@ 1
mon 1
1908 0.7294251602701015
Julien 1
Tro@@ 1
présentée 1
violence 1
ones 0.5337709693805464
érés 1
blancs 1
Scott 0.7673949484665858
ico 0.7745060521838619
tue 1
net 1
affecté 1
côtes 1
allemandes 1
volumes 1
zo@@ 1
Légion 1
poursuivre 1
repose 1
possession 1
réel 1
habitat 1
précisément 1
chargée 1
neau 1
ond 1
Mir@@ 1
C. 0.4375875449776079
duché 1
monte 1
Mur@@ 0.9541923880904022
attendre 1
principes 1
écran 1
Bé@@ 1
des@@ 0.32001706842368544
AS 1
appui 1
ner@@ 1
vé@@ 1
lan@@ 1
tro@@ 1
King 0.27940380192708236
célèbres 1
agu@@ 1
O&apos; 1
pol@@ 1
contemporaine 1
pluviométrie 1
personnalité 1
scolaire 1
provoque 1
urbain 1
contrairement 1
machine 1
Iran 0.8763123494807445
document 1
# 0.4449846654391984
hautes 1
particulière 1
som@@ 1
responsables 1
juifs 1
ome 1
este 0.1944162401057273
débit 1
tures 1
ose 1
montant 1
maîtrise 1
arch@@ 1
municipales 1
fruits 1
francs 1
bat@@ 1
poèmes 1
rare 1
hom@@ 1
traite 1
42 0.6850219059655106
eront 1
Vo@@ 1
Région 1
illage 1
reliant 1
Hal@@ 0.9595491653183685
comprendre 1
destinée 1
amb@@ 1
Open 0.5707317710262721
capit@@ 1
élue 1
Jo@@ 1
doubl@@ 1
auté 1
exerce 1
lé 1
âgé 1
grave 1
correspondent 1
remporter 1
Dr@@ 0.8717424863036471
machines 1
eries 1
invité 1
rom@@ 1
anges 1
igne 1
Direction 1
cant@@ 1
décrite 1
sel 1
Anna 0.8903340922499953
peur 1
passagers 1
pon@@ 1
til@@ 1
mélange 1
su 0.0347033249913499
im 0.020723064026942475
frontières 1
tionn@@ 1
pay@@ 1
.. 1
ministres 1
stratégie 1
suffrages 1
qua 0.8135326873265019
agne 1
juridique 1
Walter 0.7824620443542508
puits 1
DVD 0.9121607071543606
moines 1
Roumanie 1
coup@@ 1
Bataille 1
paraît 1
coll@@ 1
réalisés 1
Méditerranée 1
consacrée 1
peint 1
présidente 1
Sav@@ 1
Bas@@ 0.9225646264907356
pertes 1
boulevard 1
arables 1
vapeur 1
Karl 0.5547576976493521
PS 1
parlement 1
fonctionn@@ 1
Alger 1
ider 1
cinquante 1
Don@@ 1
anciennement 1
tie 1
personnelle 1
laboratoire 1
ture 1
ic 0.3102758763673083
Te@@ 0.6223308280544745
universités 1
soutenir 1
Mer 1
graphe 1
organisme 1
transformation 1
ly@@ 1
Boston 0.6646988200512992
quitté 1
ong@@ 1
imp@@ 1
\ 1
nant 1
photographie 1
révolutionnaire 1
duquel 1
centr@@ 1
sem@@ 1
outils 1
Homme 1
fondateurs 1
mag@@ 1
itaire 1
successivement 1
tent 1
connues 1
constitu@@ 1
efforts 0.9384098415198898
agents 1
chantier 1
variété 1
Street 0.26779558712277046
Pon@@ 1
ys 0.7484263774190039
traversée 1
Basse 1
baseball 1
tal@@ 1
transmission 1
qualification 1
att@@ 1
Dis@@ 0.7166765015996087
autoroute 1
compétences 1
financement 1
organiser 1
enregistre 1
marquis 1
secret 1
spéciale 1
Nancy 1
37 0.649677630446426
déterminer 1
fera 1
ep@@ 0.7398441267094513
libéral 1
illy 1
vestiges 1
Chili 1
termin@@ 1
maréchal 1
1906 0.7383150714536705
EP 0.8611217767077569
1880 1
comment 1
liv@@ 1
dramatique 1
marqu@@ 1
cre@@ 0.8992234495059152
ide 1
Az@@ 1
idé@@ 1
part@@ 1
Kr@@ 0.6553764868607493
Présentation 1
attribué 1
otte 1
Hol@@ 0.6901972622346558
tuer 1
revenus 1
spécialisée 1
conseils 1
Ford 0.9925514589536291
continent 1
regroupant 1
réputation 1
jardins 1
battant 1
Jones 0.6302662179042259
reg@@ 0.9675861543903517
cad@@ 1
rouges 1
alliés 1
Nor@@ 0.9730913919119284
Mari@@ 1
riches 1
frais 1
ati 1
grav@@ 1
mairie 1
défenseur 1
Front 1
introduction 1
test 0.7102657009181288
athlète 1
pouvaient 1
tchèque 1
augmenter 1
64 0.5356720423254338
off@@ 1
Au@@ 1
indi@@ 1
représenter 1
publications 1
confiance 1
Ru@@ 1
graphiques 1
Cameroun 1
édité 1
1907 0.7221227382288453
coalition 1
rappelle 1
retrait 1
bilan 1
montré 1
onc@@ 1
fouilles 1
morceaux 1
rendent 1
paysage 1
Contexte 1
Ti@@ 1
intégré 1
vivent 1
Grenoble 1
tonnes 1
mené 1
seigneurie 1
filiale 1
intention 1
tués 1
fenêtres 1
largeur 1
obtenus 1
péninsule 1
équivalent 1
avantage 1
Rouen 1
ek@@ 0.5188494521132806
placée 1
caractères 1
exil 1
cm 0.5282125518400247
évoluant 1
érer 1
préfet 1
abandonné 1
générales 1
ignant 1
fréquemment 1
instrument 1
maladies 1
èle 1
Der@@ 1
exécutif 1
conc@@ 1
destination 1
poule 1
franchise 1
istique 1
rati@@ 1
latine 1
ros@@ 1
empêcher 1
Ceci 1
répartis 1
autonomie 1
collectif 1
administrativement 1
lam@@ 1
brû@@ 1
conséquences 1
aur@@ 1
roues 1
jouent 1
oniques 1
sif 1
limité 1
institution 1
Voir 1
productions 1
ière 1
êtes 1
climatiques 1
amitié 1
pôle 1
Naples 1
difficulté 1
prononciation 1
tourné 1
débat 1
électriques 1
blessés 1
effectif 1
bientôt 1
organismes 1
entraînement 1
ici@@ 1
canon 1
Tunisie 1
eta 0.7488153657101934
souff@@ 1
48 0.651465728611948
Anglais 1
seigneurs 1
Élections 1
représentations 1
nois 1
provient 1
ors 0.3934658031612829
défini 1
Victoria 0.6727469922331185
Ali 0.9669733204221447
vécu 1
adapté 1
péri@@ 1
marié 1
lo 0.09796526619102838
sports 0.6988949149186777
dimension 1
ête 1
commerciale 1
homonymie 1
financière 1
Awards 0.4009637732070088
1904 0.7402546331932522
foi 1
offensive 1
treize 1
sec@@ 1
exclusivement 1
Équipe 1
tourner 1
soleil 1
Dom@@ 1
Varsovie 1
formant 1
adopté 1
1901 0.8052937988993462
ieux 1
requ@@ 1
min 1
1915 0.6200556688931385
Manuel 0.8821291646179984
sculpture 1
catégorisée 1
secours 1
Montpellier 1
séparation 1
saut 1
55 0.6563638499176517
découvrir 1
médailles 1
cho@@ 1
décident 1
rattachée 1
dédiée 1
révolte 1
oires 1
tire 1
pourquoi 1
conséquent 1
remarquable 1
amateur 1
Ur@@ 0.6913001297420985
aventure 1
figures 1
verre 1
nommés 1
clip 1
sion 1
Contrairement 1
Adam 1
Williams 0.635195401741984
Don 0.6097128146152891
assistant 0.87260081438055
végétation 1
franc 1
lin@@ 0.9062817083543178
1860 1
forteresse 1
lancée 1
ca@@ 1
bénéficie 1
Sim@@ 1
fiée 1
maximale 1
och@@ 1
partiellement 1
Salon 1
cot@@ 1
unies 1
Rouge 1
az 0.9324173857425374
1890 0.8484201149497466
Bro@@ 1
alisés 1
ores 0.9060581906058426
mm 0.3781895593812971
batterie 1
Géorgie 1
prot@@ 1
neveu 1
toit 1
œil 1
dizaine 1
rose 1
uss@@ 1
44 0.5600672470693824
changer 1
exercice 1
composés 1
expansion 1
faux 1
Ferdinand 1
colonnes 1
inauguré 1
paramètres 1
goût 1
Tours 1
Composition 1
remise 1
iz@@ 0.6928017868326474
sp@@ 0.3816524173826905
Bat@@ 1
Fl@@ 1
sons 0.8313832527908723
Man 0.4429666145249491
élevait 1
formée 1
Carlos 0.5764606777628883
nière 1
déclaration 1
coureur 1
Ge@@ 0.4699802634136254
concurrence 1
poème 1
Auvergne 1
comportent 1
adversaire 1
á@@ 0.6462415478160239
simples 1
SS 0.8358787439986916
Même 1
suprême 1
appareils 1
répondre 1
Thé@@ 1
oli 1
1909 0.7051816042506583
acquisition 1
étages 1
César 1
Pas 1
suédois 1
ment@@ 1
Metz 1
jouant 1
charges 1
estimée 1
championne 1
ési@@ 1
nation 0.926242443248507
vide 1
ève 1
hor@@ 1
soci@@ 1
enter 0.9774600960430536
rier 1
réduction 1
domination 1
exig@@ 1
divisé 1
ouvrir 1
équipements 1
relative 1
musicien 1
Joe 0.7388684074169045
troubles 1
Sir 0.5160978660823738
négociations 1
orbitales 1
participants 1
spécifiques 1
contribue 1
lat@@ 1
confirme 1
off 0.1582570898070776
Alexander 0.4950466067422551
spatiale 1
prêt 1
venue 1
traditionnel 1
disques 1
échapper 1
ef@@ 0.7565015649688752
accords 1
Giovanni 1
Sc@@ 1
Toutes 1
moindre 1
ry 0.779350917511196
alimentation 1
structur@@ 1
varie 1
musulmans 1
périodes 1
ber 0.8234373195199107
Gilles 1
Var@@ 1
uns 1
Mad@@ 0.9061095247952338
présentes 1
ova 1
contemporain 1
humaines 1
reconstruction 1
ju@@ 1
attaquant 1
Society 0.33857058159253195
références 1
remis 1
Formule 1
1916 0.61553595424657
Tri@@ 0.817052678201656
sen 0.4957479556649064
gares 1
52 0.6968865364587675
cités 1
Mel@@ 0.8371903462788775
ul 1
bâ@@ 1
tu 1
colline 1
traits 1
Cam@@ 1
bataillon 1
cé@@ 1
XIII 1
arrêter 1
taient 1
externes 1
observation 1
S. 0.5603252026375045
réélu 1
divisions 1
Ban@@ 0.8838108347145749
39 0.6719555364947807
Pas@@ 0.9933548665747418
apprentissage 1
log@@ 1
neur@@ 1
applications 1
Versailles 1
sculpteur 1
ray@@ 1
conserver 1
échecs 1
ds 0.7747825798467128
Banque 1
installée 1
achat 1
pa 1
villa 1
décennies 1
Hans 0.6179000483426271
Love 0.5051534879527819
défaites 1
efficace 1
Dar@@ 0.9236273667088144
oue 1
SC 1
cher@@ 1
définit 1
clé 1
devaient 1
pa@@ 1
puissant 1
arr@@ 1
Samuel 1
alistes 1
intervient 1
affiche 1
aison 1
rencontrent 1
associée 1
41 0.6830736011177672
noirs 1
150 0.6508694989419015
appartenait 1
Parallèlement 1
virus 1
échanges 1
âtre 1
str@@ 0.4315124603548656
ienne 1
dimensions 1
démission 1
présentées 1
semblent 1
touche 1
prévue 1
chimie 1
logique 1
ola 0.9614585183700561
cesse 1
Chapelle 1
1848 1
jo@@ 1
araignées 1
nécessité 1
municipale 1
Afin 1
plat 1
clair 1
Gé@@ 1
danger 1
Gare 1
morceau 1
convention 1
natale 1
héritier 1
P. 0.7285362586467444
métier 1
ennemis 1
Gen@@ 1
accéder 1
gren@@ 1
penser 1
accompagne 1
Carl 0.6978752211578068
différent 1
pop 0.6976238025992221
quel 1
Bau@@ 0.5318963419286413
Kal@@ 0.6106207650379751
expériences 1
souverain 1
existent 1
ker 0.5484245794854604
ateliers 1
meurtre 1
civils 1
biais 1
mit 0.019781517423220856
électorale 1
Rennes 1
signature 1
Floride 1
réunit 1
fournit 1
possèdent 1
imposer 1
conflits 1
tées 1
pass@@ 1
mine 1
Saxe 1
65 0.39216691034688683
fermeture 1
secteurs 1
Mah@@ 0.8670270432396875
ani@@ 1
èvre 1
sie 0.05575723359145941
appr@@ 1
diplômé 1
adresse 1
queue 1
soirée 1
ora 0.717576320125074
w 0.5020513730223602
Johnson 0.6036805424033912
surveillance 1
développée 1
fréquente 1
albédo 1
prénom 1
éens 1
Lac 1
Far@@ 0.8828999972195508
extrêmement 1
retrouvent 1
hab@@ 1
terrestre 1
Communes 1
Syrie 1
tra 0.7348947796427523
journalistes 1
ours 1
Très 1
bateaux 1
1902 0.7356252581461881
signifiant 1
post 0.3534756795775145
solaire 1
faites 1
reçut 1
Toronto 0.7596188890272277
ambassadeur 1
familiale 1
contraint 1
portugais 1
Ta@@ 1
seize 1
junior 1
traités 1
On@@ 1
commerciales 1
cousin 1
Oise 1
aut 1
voisins 1
oli@@ 1
écart 1
Lor@@ 1
fau@@ 1
évêques 1
ection 1
facteurs 1
Rem@@ 1
1830 1
référ@@ 1
ensis 0.7798226690485769
Jan 1
erreur 1
cule 1
pos@@ 0.9552148810031695
Tou@@ 1
enf@@ 1
couche 1
ther@@ 1
classés 1
Ontario 0.8215993084936241
Amsterdam 1
camps 1
figur@@ 1
anniversaire 1
Aix 1
africaine 1
monter 1
urbanisées 1
Lang@@ 0.9122034164769661
attaché 1
soumis 1
tel@@ 0.7825245223814542
rapporte 1
Os@@ 1
quent 1
resté 1
ame 1
consom@@ 1
orgue 1
L. 0.766815718406532
VII 1
procédure 1
initi@@ 1
vers@@ 1
avenir 1
suffisamment 1
retire 1
Racing 1
sortant 1
lib@@ 1
eusement 1
époux 1
insectes 1
vise 1
Collège 1
carbone 1
monnaie 1
tournant 1
syn@@ 1
hongrois 1
intégrer 1
Brown 0.5271829847353927
1903 0.7119942756649938
Pin@@ 1
pur@@ 0.9455200642122086
érique 1
républicain 1
représent@@ 1
yer 0.6296438203437024
anim@@ 1
Bol@@ 1
libres 1
cuisine 1
bureaux 1
activ@@ 1
mét@@ 1
etti 0.8749715083951578
enterré 1
tracé 1
culturelles 1
commissaire 1
vins 1
visage 1
mand@@ 1
inclut 1
onnées 1
examen 1
esclaves 1
continuer 1
43 0.6813983182709155
Ensuite 1
territoriale 1
Alliance 1
Dan@@ 1
soixante 1
Athènes 1
paysages 1
All 0.18575589667957582
Ernest 1
théologie 1
annuel 1
tic@@ 1
provisoire 1
clients 1
marchés 1
abandonne 1
Fi@@ 1
Hill 0.4339369044457253
Palmarès 1
recours 1
adultes 1
considérés 1
impos@@ 1
sénateur 1
Kong 0.7225383932334029
isses 1
procédé 1
institut 1
dirigeant 1
UA 1
sainte 1
troupe 1
Mouvement 1
Soleil 1
calculer 1
anime 1
universitaires 1
Britanniques 1
ler@@ 0.6942041359860975
capital 0.3200093752530788
jette 1
portail 1
rythme 1
salon 1
contribué 1
augmente 1
ponts 1
Trans@@ 1
oug@@ 1
charbon 1
oir 1
cancer 1
Félix 1
Défense 1
rarement 1
respect 1
bons 1
oni@@ 1
répond 1
Temple 1
ha@@ 1
proj@@ 1
Guinée 1
histoires 1
R. 0.6554449805631493
galaxies 1
maillot 1
occuper 1
Ram@@ 0.94440708768132
Lav@@ 1
gique 1
jury 1
uni@@ 1
47 0.6678509378049936
différente 1
Éducation 1
mobile 1
connaissances 1
longs 1
Bill 0.6139486680366002
travaillent 1
aci@@ 1
Lab@@ 1
demander 1
gues 1
guitariste 1
pén@@ 1
visiteurs 1
ost@@ 0.8912307089584042
cach@@ 1
télescope 1
hydro@@ 1
servant 1
Jackson 0.6852286477975027
dynamique 1
val 1
logiciel 1
minimum 1
nourriture 1
hectares 1
con 0.023642778784275214
fus@@ 1
vieille 1
Harry 0.8422840607974231
White 0.3636469986987512
Mars 1
Chris 0.7799382810678639
Résumé 1
commença 1
rupture 1
colonies 1
vingtaine 1
expose 1
capacités 1
ports 1
étudiant 1
éni@@ 1
pourraient 1
web 0.9364243214031504
Cup 0.1771859122564057
Ca@@ 1
poursuite 1
archipel 1
intéresse 1
ona 0.5684500003313004
amie 1
Bos@@ 1
spécial 1
érées 1
ford 0.5372845554464981
out@@ 0.5029287615628037
51 0.6928011138891391
Antiquité 1
blessure 1
constructions 1
Mau@@ 1
Mos@@ 1
iciens 1
ello 0.6628581819866344
Dev@@ 1
financier 1
nies 1
noble 1
fréquence 1
cy@@ 1
lanceur 1
ye 0.5832813564970663
équilibre 1
arrivent 1
venu 1
Convention 1
E. 0.5742745347324523
changé 1
illée 1
arabes 1
vocation 1
Blanc 1
plage 1
centaine 1
académie 1
Navy 0.46028753147873974
dis 1
mentionné 1
passent 1
collabore 1
fermé 1
gothique 1
agn@@ 1
so 0.0738417755839189
restes 1
voisine 1
vendus 1
Bavière 1
ature 1
sour@@ 1
Nous 1
Hôtel 1
motifs 1
libéré 1
ts@@ 0.5474964925466845
Bruno 1
dispositif 1
toile 1
départementales 1
retrouvé 1
moi 1
bloc 1
demandé 1
acquiert 1
ami@@ 1
perspective 1
mut@@ 1
acier 1
Ra@@ 1
critères 1
voisin 1
Lan@@ 1
émer@@ 1
Reims 1
Rose 1
maintien 1
neuvième 1
Tony 0.9176140371133765
if@@ 0.7637690870530278
Nationale 1
Ka@@ 1
communistes 1
Sébastien 1
ao 0.8643198004228578
atoires 1
Virginie 1
agissait 1
exemples 1
Z 0.6826937513411028
peintres 1
Bibliothèque 1
House 0.18279153207559912
don@@ 1
ë 1
potentiel 1
Américains 1
1er 1
découvertes 1
color@@ 1
sel@@ 0.5906916739910161
gris 1
1793 1
génie 1
prê@@ 1
Constantinople 1
quatorze 1
46 0.6653781228753568
rev@@ 1
blé 1
rédacteur 1
déplacement 1
colonne 1
Né@@ 1
Santé 1
Prusse 1
Field 0.8787615992083363
Corse 1
embar@@ 1
inventaire 1
manches 1
onymes 1
dénomination 1
plaque 1
sections 1
vêtements 1
aéro@@ 1
branches 1
associés 1
apporte 1
sier 1
autorisation 1
hydr@@ 1
efficacité 1
écrivains 1
Transports 1
attaquer 1
Début 1
Accueil 1
1898 0.7510842030238822
Plan@@ 1
1,@@ 0.5997203379751304
étendue 1
rentre 1
Benoît 1
littéraires 1
deur 1
dor@@ 1
accueilli 1
mari@@ 1
possibles 1
podium 1
remportant 1
Museum 0.2971280209390385
Saône 1
espoir 1
aspects 1
Clermont 1
tribu 1
viv@@ 1
gagné 1
Long@@ 1
message 1
Rock 0.5019137718214223
remplacée 1
intégration 1
dépôt 1
marques 1
mourut 1
diminution 1
sén@@ 1
1871 0.9612865233439816
ori 1
quai 1
Mes@@ 1
sauver 1
Lem@@ 1
listes 1
Big 0.47223412262481873
Y 0.5407572554760075
Mike 0.7317516580086149
spécialisé 1
intérieure 1
quarts 1
vier 0.30232443287515687
prati@@ 1
chan@@ 1
port@@ 1
littéralement 1
lire 1
tons 1
Laval 1
Jan@@ 1
âme 1
œufs 1
résolution 1
tirs 1
Maine 1
ode 1
You 0.3599438719192745
Lim@@ 1
figurent 1
veuve 1
montrer 1
ble 1
Cu@@ 1
Op@@ 1
voyages 1
regard 1
Sans 1
inst@@ 1
Sport 1
Lorsqu&apos; 1
reconnue 1
bonnes 1
donna 1
Young 0.5428639759701692
chem@@ 1
Un@@ 0.3147815600774911
sélections 1
Roland 1
Aquitaine 1
Steve 0.7934717456402733
promouvoir 1
degré 1
chaînes 1
payer 1
maîtres 1
Rue 1
Canal 1
çant 1
tera 1
Cat@@ 1
admis 1
dét@@ 1
ret 1
mique 1
Production 1
Aur@@ 1
Chez 1
One 0.18317129921952713
atta@@ 1
hebdomadaire 1
tives 1
africain 1
nobles 1
constructeur 1
égard 1
québécois 1
ho@@ 0.5376073707765316
Lar@@ 1
cyrillique 1
dées 1
décor@@ 1
Sports 0.6968946526710796
chaussée 1
arrête 1
1896 0.7652894164148546
assassinat 1
viol@@ 1
représentée 1
opposé 1
faute 1
entré 1
sé 1
uri 1
ert 0.43547326841103967
dédié 1
Gau@@ 1
Mans 1
doté 1
èque 1
seules 1
génétique 1
modifications 1
Han@@ 0.9552181945398209
ajouter 1
sable 1
Hong 0.691789839400321
fo@@ 1
Calais 1
irlandais 1
décou@@ 1
montr@@ 1
Em@@ 0.9238100138293622
blo@@ 1
ā@@ 0.6751670154419582
réclam@@ 1
lès 1
multi@@ 1
Top 0.5487657372829284
chasseurs 1
cible 1
aud@@ 1
fermée 1
fortune 1
lev@@ 1
ologues 1
manche 1
équipé 1
autel 1
tan@@ 0.9263635984900542
Jou@@ 1
incluant 1
marchandises 1
réalisées 1
surnommé 1
Bob 0.7649140951241294
Boul@@ 1
avi@@ 1
ordonne 1
DC 0.8182115345802973
Code 1
correspondance 1
froid 1
citer 1
électeurs 1
possédait 1
Bureau 1
Livre 1
bon@@ 1
hauts 1
alimentaire 1
différ@@ 1
autom@@ 1
manuscrit 1
alise 1
aw@@ 0.470501838673325
ë@@ 1
all 0.049565872478250825
déchets 1
als 0.021625002058308643
anglo 1
aill@@ 1
dispar@@ 1
Tour@@ 1
cop@@ 1
spectateurs 1
Team 0.33197687573113055
opinion 1
emp@@ 1
supplémentaire 1
49 0.6602269818948022
1889 0.8379057205432408
Laur@@ 1
calcul 1
atmosphère 1
sar@@ 1
çon 1
sanctuaire 1
satellite 1
supérieures 1
lard 1
Pro 0.8232758399636559
portraits 1
léger 1
Lincoln 1
aviation 1
Gou@@ 1
app@@ 1
vues 1
impression 1
réduite 1
Ier 1
spectacles 1
sexe 1
amont 1
destinés 1
Sau@@ 1
pseudonyme 1
sprint 1
comptes 1
Madeleine 1
Charlotte 1
ave 1
basque 1
facteur 1
Six 1
bel@@ 0.6748617218200975
Thierry 1
urgence 1
décoration 1
Ann@@ 1
dre 1
super 1
médecins 1
Pic@@ 1
culturels 1
ruines 1
verte 1
impossible 1
inv@@ 1
geant 1
ok@@ 0.5753453065091151
onique 1
philosophe 1
Père 1
notes 0.9334634040580876
endra 1
athlétisme 1
inspiration 1
CE@@ 1
bourse 1
tiré 1
Ceux 1
post@@ 1
internet 1
abandon 1
retourner 1
normes 1
Johann 0.46339346843814166
ł@@ 1
Membre 1
chien 1
ands 1
1895 0.7472945190296135
électoral 1
grotte 1
ei 0.586647495571867
doublé 1
Eric 1
Award 0.23889549985128003
retirer 1
th 0.2675978108091153
âgée 1
NBA 0.9179380566896325
délégation 1
Ha@@ 0.8550080635764701
nég@@ 1
carré 1
chiffres 1
perdre 1
cents 1
Thi@@ 1
difficiles 1
éo 1
phe 1
clan 1
partenariat 1
Loi 1
Les@@ 1
North 0.12861301810018003
partout 1
majoritairement 1
inclus 1
ab 0.12219293017256085
Pascal 1
voulait 1
fêtes 1
ras@@ 1
let 0.7592135332359359
aille 1
restaurant 1
{ 0.7759765966230827
réfugiés 1
aval 1
rie 1
prés@@ 1
└ 1
Kor@@ 0.5750035545508115
subi 1
1850 1
pat@@ 1
Élisabeth 1
iner 1
compar@@ 1
ty 0.36097039663774966
path@@ 1
statistiques 1
Deuxième 1
particuliers 1
× 0.6751948170602808
Wal@@ 0.6083890639221871
tran@@ 1
visibles 1
décor 1
illés 1
$ 0.10132559459931481
SNCF 1
zi 1
tribus 1
héritage 1
individu 1
similaires 1
déliv@@ 1
asc@@ 1
pauvres 1
Hér@@ 1
ordonné 1
rac@@ 1
jur@@ 1
Classement 1
micro@@ 1
instruction 1
om 0.7018280383797152
fuite 1
occidental 1
psych@@ 1
Diego 0.7415681009693581
mauvaise 1
Miss 0.8412956374117425
progrès 1
positi@@ 1
détruite 1
construites 1
surnom 1
accusé 1
chimique 1
mol@@ 1
Cinq 1
financières 1
midi 1
Pu@@ 1
H. 0.5413169114736411
ris@@ 1
Herzégovine 1
coule 1
uni 1
commencer 1
battre 1
Route 0.4464103379883748
occupée 1
Ly@@ 1
1885 0.8158882499747311
1899 0.7102561033333387
cri@@ 1
Mario 1
noyau 1
support 0.2005570258197038
comm@@ 1
Pétersbourg 1
tien 1
oise 1
garçon 1
ime 1
pétrole 1
traditions 1
conclut 1
stratégique 1
á 0.486608691896258
Na@@ 1
habit@@ 1
infrarouge 1
galaxie 1
ub@@ 0.9957679058514085
variable 1
Garde 1
chante 1
Sophie 1
Sab@@ 1
solutions 1
coureurs 1
traversé 1
alt@@ 0.8992070181152625
Gir@@ 1
fac@@ 1
tenter 1
technologies 1
Group 0.25304731040173545
Tom@@ 1
états 1
prim@@ 1
Isabelle 1
Island 0.2722174598535141
évidence 1
décède 1
ky 0.6844864222537915
Pa@@ 1
phy@@ 1
clairement 1
équipement 1
olo 1
complexes 1
importe 1
islamique 1
entame 1
optique 1
majeures 1
ito 0.6238843373921809
Benjamin 1
concentr@@ 1
Conservatoire 1
privés 1
Gre@@ 0.8078139660274752
sy@@ 1
immeuble 1
amo@@ 1
comprennent 1
studios 1
cab@@ 1
onnés 1
Énergie 1
Petite 1
IX 1
den@@ 0.5245318556122739
Blanche 1
endroits 1
ax@@ 1
Rivière 1
Hy@@ 1
Luc@@ 1
aver@@ 1
distinction 1
élec@@ 1
expliquer 1
í@@ 0.542204719191877
future 0.4541734786854021
paysans 1
Fou@@ 1
juif 1
popularité 1
ffe 1
1893 0.7955050465780451
illustre 1
ationn@@ 1
touristique 1
marie 1
stein 0.4980615985479791
top 0.18137541146164357
café 1
“ 0.023628876791833477
appréci@@ 1
bres 1
matches 0.46475947414136404
1897 0.7087593395661316
publicité 1
Tre@@ 0.9075917598058062
Parcours 1
aki 1
Dem@@ 0.9433568112062448
évaluation 1
los 0.014950202561099819
Dj@@ 1
Quant 1
Elizabeth 0.6245540606671096
Libération 1
Pérou 1
Center 0.2667745283293093
usines 1
ast@@ 1
fidèles 1
préparer 1
métal 1
1@@ 0.7747021706955861
chance 1
numéros 1
étés 1
décro@@ 1
Liens 1
ez@@ 0.7613182342660901
mé 1
auto 1
Friedrich 0.4001835757275683
tenues 1
illant 1
dizaines 1
metal 0.5815367775547725
précision 1
escalier 1
agir 1
bul@@ 1
ym@@ 1
étrangère 1
bil@@ 1
sil@@ 0.9597386531848711
lav@@ 1
diversité 1
divisée 1
fins 1
minute 0.7790321601281954
Pé@@ 1
Brest 1
aus@@ 0.19211072401960783
usse 1
Hamilton 0.8904168717439265
chaleur 1
Carlo 1
rer 1
Vill@@ 1
chrétien 1
D. 0.5551501386090468
wa 0.30050117140812327
bi 1
directrice 1
Romains 1
temp@@ 1
53 0.6963101934073413
navigation 1
présentation 1
sacré 1
couvert 1
mâles 1
Alice 1
disputé 1
apparence 1
implique 1
collec@@ 1
descendants 1
zi@@ 0.9605311387499943
pel@@ 0.9601652686918192
Troisième 1
amoureux 1
Anvers 1
chercher 1
Pom@@ 1
fontaine 1
las 0.023731457301741882
vend@@ 1
démocratie 1
assaut 1
brun 1
démissionne 1
partenaire 1
Ministère 1
soi 1
embr@@ 1
comprenait 1
moulin 1
Pap@@ 0.9950951904750415
Luis 0.5445832127478871
financiers 1
AS@@ 0.9483752327472387
oul 1
panneaux 1
solide 1
ind@@ 0.8031663502916617
dé 1
tiennent 1
Ayant 1
Hitler 1
habituellement 1
abe 1
continu@@ 1
bre 1
Som@@ 1
Architecture 1
PC 1
igu@@ 1
logement 1
caus@@ 1
spéci@@ 1
Office 0.5809023099465189
xe 1
Docteur 1
Not@@ 0.7991242251542491
définie 1
inform@@ 1
Mand@@ 1
portés 1
qui@@ 1
tension 1
courts 1
G. 0.72407059718648
Françoise 1
interprété 1
Point 0.7808842027841896
1867 0.9494493599371723
onnement 1
indépendants 1
pul@@ 1
Hugo 1
confie 1
toponyme 1
flux 1
pousse 1
cy 1
détermin@@ 1
ail 1
récits 1
producteurs 1
portait 1
mait 1
allait 1
courants 1
War@@ 0.6431020788642877
accus@@ 1
passée 1
1790 1
Maz@@ 1
Sciences 0.8275930202463826
ondes 1
tus 1
my@@ 1
installés 1
ey@@ 0.9641955056296216
reconnaît 1
durable 1
54 0.6403710998052606
fusi@@ 1
surprise 1
Place 1
archéologiques 1
tramway 1
contrô@@ 1
individuel 1
expériment@@ 1
uel 1
ordinateur 1
tournois 1
form@@ 0.9380347007537301
séance 1
amateurs 1
Serge 1
libér@@ 1
utilisateurs 1
manifestation 1
sépare 1
una 0.021334856436544005
reux 1
différences 1
Kon@@ 0.53751807263535
phases 1
Survey 1
réflexion 1
Justice 0.6713235570332362
act@@ 1
yr@@ 1
deurs 1
écar@@ 1
Moselle 1
Sin@@ 0.8739750323614555
Intérieur 1
complétée 1
mini 1
fiant 1
viande 1
Formation 1
dia 1
existait 1
Patrimoine 1
récompense 1
apparaître 1
56 0.6778143706675618
Gouvernement 1
Ven@@ 1
otes 1
finances 1
interdiction 1
Il@@ 0.7907217827894623
colons 1
Bertrand 1
ney 0.7336007308392039
Kou@@ 1
ick 0.6388214954581233
ron@@ 1
Rec@@ 1
Ir@@ 0.8298286212600747
Pot@@ 1
Ay@@ 0.9674042607992975
mobil@@ 1
toire 1
tom@@ 1
amélioration 1
décennie 1
trou@@ 1
lia 1
unes 1
trac@@ 1
contemporains 1
ingénieurs 1
Cré@@ 1
Covid 1
tentatives 1
plate 1
officiels 1
Irak 1
oy@@ 1
tig@@ 1
up@@ 0.5088398870435678
bles 1
trait 1
étiques 1
renforcer 1
” 0.0730471387023446
achevé 1
č@@ 1
initiale 1
patients 1
boîte 1
Corps 0.5653863429730601
onale 1
far@@ 1
calcul@@ 1
id 0.39964455770239554
orient@@ 1
Cre@@ 0.7747478812220309
rez 1
ège 1
alli@@ 1
vend 1
Rad@@ 0.7464081921849347
oblig@@ 1
universelle 1
linguistique 1
italiens 1
vérité 1
Alphonse 1
ich 0.3912545734267782
provenance 1
uelle 1
parti@@ 1
bilité 1
organisés 1
candidature 1
éliminatoires 1
art@@ 1
tests 1
marais 1
suites 1
aérien 1
tunnel 1
liquide 1
investissement 1
écurie 1
vendre 1
âges 1
SA 0.948576321666432
Illinois 0.5369079834119582
Roy 1
Mass@@ 1
syndic@@ 1
800 0.6386264169308274
1892 0.75813599102912
prieuré 1
lac@@ 1
norme 1
bie 1
bes 1
flor@@ 1
600 0.6195773604015582
indé@@ 1
mén@@ 1
syndicat 1
Lewis 0.7222909437754257
précédemment 1
signes 1
navale 1
prêtres 1
Tournoi 1
terminée 1
Wilson 0.6237281047827173
administrateur 1
95 0.6326530064234861
posée 1
créés 1
modifié 1
néerlandaise 1
vin@@ 1
limitrophes 1
Sydney 0.5683464962622381
op 0.9734002863162746
British 0.10971174470896017
restant 1
aro 1
privées 1
constante 1
photo 1
mot@@ 1
transform@@ 1
Ke@@ 0.6460986696415447
fou@@ 1
ere 0.43296794061750116
rivières 1
attribue 1
cuivre 1
inspire 1
consult@@ 1
esc@@ 1
baisser 1
Pékin 1
précédentes 1
pistes 1
neige 1
parisienne 1
dispositions 1
travaillant 1
initial 0.6646507833691403
main@@ 1
XIV 1
let@@ 1
organisées 1
médical 1
chang@@ 1
égal 1
inqui@@ 1
mineurs 1
thi@@ 1
bien@@ 1
remarquer 1
bis 0.03653303862996402
58 0.6828965029798335
aka 0.9082437314783411
eri 0.8689449630813872
tirer 1
1789 1
aï 1
chen@@ 1
circonscriptions 1
ga 0.7443833109219595
forts 1
Kat@@ 0.9215454485642607
profite 1
publiées 1
militants 1
assiste 1
field 0.16247291409114067
offrir 1
soul@@ 1
aime 1
inhumé 1
illa 0.6317686972402933
terminant 1
68 0.7603088803663007
iteur 1
nombres 1
cordes 1
nécessite 1
1840 1
déclin 1
profession 1
Monaco 1
Œuvres 1
continental 1
crime 0.9130183977782982
indien 1
aventures 1
adversaires 1
abandonner 1
légère 1
Fin@@ 1
pro 0.526398154647859
agr@@ 1
émis 1
Xavier 1
humanité 1
décisions 1
Wil@@ 0.7048394731796065
1881 0.8569395080553307
hol@@ 1
Hauts 1
produisent 1
Vau@@ 1
réside 1
programmation 1
espoirs 1
faibles 1
garnison 1
nationalité 1
Bru@@ 1
oth@@ 0.988074804451444
frapp@@ 1
réelle 1
orthodoxe 1
commémor@@ 1
adulte 1
astr@@ 1
issait 1
emprun@@ 1
souvenir 1
soviétiques 1
entouré 1
issues 0.4249931425369948
Lausanne 1
encadré 1
Éditions 1
lés 1
option 1
Tam@@ 1
85 0.6432138600150138
Kam@@ 0.8526359577298885
vague 1
volontaires 1
arrivé 1
industriels 1
diriger 1
vraiment 1
acqu@@ 1
franch@@ 1
archéologique 1
femelles 1
remplaçant 1
lacs 1
nettement 1
bis@@ 1
présent@@ 1
landais 1
ck 1
dépit 1
pique 1
signal 1
endant 1
cs 1
dres@@ 1
Maur@@ 1
probable 1
achète 1
ko@@ 0.9161456101964381
précédents 1
basilique 1
lignée 1
bé 1
confirmé 1
rencontré 1
1876 0.8753552299787611
notables 1
1878 0.8175021907822642
urbanisme 1
Q 0.8330762296344845
ik 0.5382749065290761
rencontrer 1
Nov@@ 1
municipalités 1
motif 1
publier 1
Camp@@ 1
Canton 1
manuscrits 1
descente 1
CA@@ 1
Oxford 0.648918959877792
Sicile 1
bach 0.45477722937967185
détails 1
gh@@ 1
icité 1
photographe 1
72 0.6658999696462988
garder 1
combattre 1
instar 1
revues 1
adopte 1
ouverts 1
ôme 1
Times 0.3895377515534667
réserves 1
sollic@@ 1
agres@@ 1
régionaux 1
considérablement 1
exprime 1
combin@@ 1
ó@@ 0.5483124305281166
Éric 1
1894 0.7343134868585006
compilation 1
débats 1
commandes 1
tement 1
Gilbert 1
South 0.09162241372672346
ks 0.3074930375770241
remportent 1
défend 1
illustr@@ 1
matières 1
Davis 0.6506925698065387
Prés@@ 1
lion 1
hi 0.8548574070718854
Nic@@ 1
aques 1
rangs 1
ont@@ 1
opus 1
crit 1
majoritaire 1
Général 1
indienne 1
Fo@@ 1
gouvern@@ 1
biodiversité 1
dites 1
Agence 1
synthèse 1
écossais 1
gé 1
57 0.6627771677887552
Opéra 1
extrait 1
variétés 1
catalogue 1
artistiques 1
tent@@ 1
qualités 1
1886 0.795062539888219
Système 1
Bay 0.3376159702542048
urent 1
rest@@ 1
Chev@@ 1
circulaire 1
yn@@ 0.9749473157918033
sab@@ 1
béton 1
terminer 1
marbre 1
empêche 1
permanente 1
croître 1
musées 1
personnels 1
W 0.4229560078621043
IN@@ 1
curé 1
différenci@@ 1
chimiques 1
of@@ 0.5737994158008275
holotype 1
marchands 1
déroul@@ 1
reproduction 1
Windows 0.6699477915360705
accro@@ 1
ographe 1
itaires 1
démographique 1
vertu 1
statues 1
compositions 1
impressionn@@ 1
cap 1
Jersey 0.5320481766593264
joint 0.868401325258257
étr@@ 1
phot@@ 1
symbol@@ 1
cadet 1
considérable 1
engager 1
embouchure 1
Renault 1
W. 0.5011669016342108
déroulent 1
0@@ 0.5071318147176624
répertoire 1
ua 0.9291068526728399
patron 1
ification 1
Champagne 1
pavillon 1
blessures 1
Clément 1
Alex 1
accent 1
menées 1
proposer 1
Développement 1
nie 1
transformé 1
Research 0.39308290099764753
créant 1
rénovation 1
mentionne 1
automatique 1
manoir 1
perpétu@@ 1
éclat@@ 1
adoption 1
Croatie 1
Hel@@ 0.7945410081141528
Mis@@ 1
remarquables 1
Bell@@ 1
choisir 1
réformes 1
introdu@@ 1
plateforme 1
australien 1
AR@@ 0.9640931675796235
passa 1
Hé@@ 1
rêve 1
professeurs 1
administratives 1
London 0.1297210665844714
refuge 1
exposé 1
soldat 1
sculptures 1
In 0.009934855530102125
rot@@ 0.7650674678408045
vents 1
aranéomorphes 1
ômes 1
réception 1
Championship 0.22319599732289458
attitude 1
quelle 1
Live 0.5578778371661857
poisson 1
restera 1
aî@@ 1
jugé 1
und 0.004716090520938375
Ak@@ 0.6036614937529551
cellule 1
accorde 1
apo@@ 1
morale 1
Avignon 1
garçons 1
Cur@@ 0.8507096446289248
chés 1
amène 1
chet 1
révélé 1
Beaux 1
intégrée 1
São 1
Tu@@ 0.9334149082078845
récupérer 1
chambres 1
Vladimir 1
éponyme 1
magasin 1
égale 1
concer@@ 1
èques 1
District 0.14591382129010652
ero 0.4319018749213705
Eng@@ 1
graves 1
Explorer 1
Taylor 0.6048285192527956
infrastructures 1
inscrite 1
partenaires 1
adop@@ 1
120 0.6550427594787616
Porto 1
cons@@ 1
hy@@ 1
dixième 1
Jacob 1
domine 1
pratiquement 1
UCI 1
grève 1
occupant 1
domin@@ 1
échoue 1
Esp@@ 1
F. 0.5754578010263707
atus 0.880477006094252
aces 1
Blue 0.4931151806291924
Eur@@ 1
profondément 1
particularité 1
monts 1
orn@@ 1
Kim 0.6732725250912946
Venezuela 0.8123938146666388
essence 1
1888 0.7423298076088632
VIII 1
vols 1
Toujours 1
quer@@ 1
influencé 1
remportée 1
connait 1
yc@@ 1
kg 0.6848627158838746
Cos@@ 1
architectes 1
districts 0.8515163044907559
ela 0.6308940305756222
nées 1
modern@@ 1
sombre 1
hal@@ 0.6915780646367111
ui 1
1882 0.8270495320463354
actuels 1
aigu@@ 1
nières 1
bran@@ 1
Real 0.47903445496080765
germanique 1
communautaire 1
éteint 1
Ci@@ 1
arriver 1
reliefs 1
affronter 1
opposant 1
Fran@@ 1
Hélène 1
ôt 1
Turin 1
rétr@@ 1
couramment 1
fant@@ 1
distinguer 1
front@@ 1
tournées 1
1891 0.7127768427374109
gouvernements 1
sk 1
talent 1
beauté 1
entreprend 1
trace 1
Me 0.4703988600153266
uv@@ 1
Kan@@ 0.5994257720192239
majeurs 1
dames 1
250 0.6172431186948594
Charente 1
prop@@ 1
CN@@ 1
Gustave 1
Vel@@ 1
observant 1
trophée 1
prisonnier 1
Philadelphie 1
policiers 1
évènements 1
cite 1
oy 1
ètent 1
assur@@ 1
industrielles 1
véri@@ 1
détruire 1
ions 1
eur@@ 1
Série 1
baptisé 1
pandémie 1
administr@@ 1
design 0.2380989921528706
armé 1
1884 0.7873023420963751
refusé 1
renommé 1
preuves 1
10@@ 0.44531863339785566
Long 0.48616708573880973
cien 1
obligatoire 1
nor@@ 1
Cité 1
Ed@@ 0.9589762443511938
rassemble 1
natur@@ 1
Gl@@ 0.8743252955125361
Da@@ 1
impérial 1
frappe 1
fu@@ 1
enseignant 1
mentionn@@ 1
20@@ 0.7441374583823239
passion 1
manifeste 1
Aires 0.6434005314085155
exprimés 1
refus 1
règlement 1
augmenté 1
sentiment 1
amment 1
particules 1
éclair@@ 1
fini 1
Bourbon 1
ff 0.7351256396571179
cinématographique 1
médiévale 1
Jérôme 1
dom@@ 1
Cuba 1
explosion 1
acheté 1
je@@ 1
voile 1
Activités 1
ec 1
brièvement 1
favor@@ 1
Lieux 1
Porte 1
Bulgarie 1
contribution 1
Donald 1
dieux 1
és@@ 1
ika 0.835330296807662
centrales 1
procureur 1
alentours 1
modeste 1
têtes 1
Green 0.3936296071862376
Land@@ 0.4029187590552551
66 0.64661641216781
Rev@@ 1
fidèle 1
ouvertes 1
University 0.05257355818120694
couches 1
fiées 1
pic 1
résidences 1
ols 1
remarque 1
Film 0.16518955372524988
ple@@ 1
Amiens 1
ai@@ 1
tan 0.4314394977547574
facile 1
sûr 1
christianisme 1
mariée 1
Madame 1
sexuelle 1
vel@@ 1
dissolution 1
Cannes 1
participant 1
malade 1
pou@@ 1
briques 1
parisien 1
enant 1
taire 1
1000 0.4773951852859133
sk@@ 0.4492870915816837
êtres 1
Stephen 0.6821133504458496
Angers 1
inaugurée 1
Pier@@ 1
hou@@ 1
alcool 1
envoyer 1
Flandre 1
ignon 1
Est@@ 1
balle 1
lourds 1
pin@@ 1
dan 0.526043086747282
Reg@@ 0.6894681103722136
Oscar 1
Franz 0.5932706614035059
Tan@@ 0.9028642565846805
dérivé 1
hyper@@ 1
clergé 1
Vallée 1
définir 1
rives 1
colonisation 1
Fiat 1
affrontent 1
Institute 0.24060289621798758
jugement 1
traditionnels 1
yle 1
causes 1
Mot@@ 1
rebelles 1
venait 1
Super@@ 0.6009071497134427
gagn@@ 1
isson 1
tourn@@ 1
utile 1
61 0.7043949849556796
musiques 1
souligne 1
commerciaux 1
régulier 1
abords 1
déménage 1
Mohamed 1
BBC 0.4551881035973087
grandit 1
Nam 0.3292689238557094
antenne 1
chômage 1
Hou@@ 1
Lac@@ 1
ascension 1
tron@@ 1
spécialistes 1
paroisses 1
cos@@ 1
isations 1
Enseignement 1
sis 1
Sénégal 1
Tol@@ 1
distribu@@ 1
Francesco 1
Valence 1
rural 0.47583580763406474
go 0.25589602960340396
reur 1
Fre@@ 0.6983299180932196
entendre 1
1887 0.7496122695556373
marchand 1
littoral 1
volley 1
cie 1
zo 0.9651851210342016
River 0.1327195897276001
ein@@ 0.18160082657479232
ographiques 1
cyclisme 1
tâche 1
faune 1
contrôler 1
témoigne 1
Orchestre 1
Dal@@ 1
dépasse 1
Brian 0.7647461095148588
Pennsylvanie 1
Gaulle 1
pluie 1
† 0.18954321913451144
Concours 1
Gaston 1
Tibet 1
ary 0.25608127125306457
ige 0.38886898167696327
oppos@@ 1
tables 1
coloniale 1
accepter 1
racines 1
armement 1
tch@@ 1
Face 1
richesse 1
pourra 1
fief 1
impulsion 1
Jim 0.6735569932141167
combattants 1
Orange 1
golfe 1
Ga@@ 1
iger 0.640199333484827
monarchie 1
consacrer 1
médicale 1
bar 0.325302747938292
Hollande 1
profonde 1
Wilhelm 0.4309800580953591
1875 0.8293621504994325
placés 1
décida 1
humides 1
Lag@@ 1
disparaît 1
Augustin 1
rière 1
assurée 1
qualifier 1
62 0.6573028659474325
élimination 1
foyer 1
auxquels 1
fum@@ 1
Vil@@ 1
nage 1
suppression 1
soulig@@ 1
socialistes 1
Caen 1
continuent 1
reconnaître 1
fie 1
dan@@ 1
exploitations 1
Leurs 1
dier 1
dame 1
59 0.6731700107748151
Comp@@ 1
Pedro 0.5329126481236888
montrant 1
protégé 1
essor 1
modification 1
Gol@@ 0.8733812795283504
All@@ 0.9501763264327678
Musique 1
ces@@ 1
Villa 0.7069648593010143
My 0.4187683756227029
Wide 1
réellement 1
élevés 1
sement 1
Brunswick 1
douce 1
idé 1
Riv@@ 1
allié 1
appelées 1
éra 1
commandé 1
lutter 1
Cot@@ 1
alg@@ 1
retard 1
Mort 1
assassiné 1
effort 0.7260467760296148
occupent 1
variante 1
désert 1
eter 0.7681947941301017
isit 1
sang@@ 1
rate 0.3861250264116484
fic@@ 1
rog@@ 1
baccalauréat 1
cier 1
heim 0.6179134998091976
invités 1
63 0.654387153068243
moine 1
conten@@ 1
iné 1
sommets 1
Tal@@ 0.6922118880797727
Vieux 1
ust@@ 1
fans 0.7615620051789284
francophone 1
acheter 1
kar@@ 0.6114574054304023
débuté 1
CA 0.968789507008857
FM 0.5339306390379661
récente 1
Andrew 0.5857742461112178
commis 1
magasins 1
ron 1
désir 1
prêté 1
séminaire 1
aves 1
lant 1
externe 1
Tak@@ 0.8672239703922456
achève 1
larges 1
musicales 1
Pat@@ 0.9248984298042737
baroque 1
ajouté 1
ok 0.7471343082969385
parviennent 1
inger 0.4632415303828775
1863 0.792609401414835
Jane 0.9550532678613325
East 0.16286593112605102
samedi 1
doctrine 1
Fontaine 1
Ivan 1
Sept 1
sauvage 1
Buenos 0.6098240769549549
défaut 1
continentale 1
Yougoslavie 1
édifices 1
Lin@@ 0.8076929685109194
accède 1
pianiste 1
marquant 1
ling 0.34540164325185796
zéro 1
entrées 1
servent 1
Occident 1
nou@@ 1
Dijon 1
ute 1
1883 0.7949720806185233
reçoivent 1
eant 1
Philippines 0.7704969519934688
My@@ 0.8729536080678921
passages 1
achevée 1
mac@@ 1
Hambourg 1
emplois 1
Lady 0.587291110219272
registre 1
Pau@@ 1
otiques 1
Catalogne 1
convo@@ 1
del@@ 0.5970621829648225
1868 0.8114320462338536
foule 1
entend 1
Ohio 0.424307349397889
inclin@@ 1
ZNIEFF 1
Sarah 0.958354974623553
sucre 1
Central 0.19531951292150387
hausse 1
tensions 1
détient 1
tab@@ 1
heureux 1
éné@@ 1
fais@@ 1
j&apos; 1
Alan 0.86903344854087
Forces 0.9054891965170905
fosse 1
traditionnelles 1
suggère 1
cra@@ 1
Pel@@ 1
intéress@@ 1
fruit 1
Douglas 0.7592762480707604
blanches 1
emploie 1
référendum 1
arde 1
métropolitaine 1
quit@@ 1
métiers 1
Mu@@ 0.7865723310080364
Stéphane 1
touch@@ 1
trentaine 1
singles 0.5525573526062428
fonctionnaires 1
tam@@ 1
assuré 1
lent 1
ES@@ 1
bin@@ 1
Britannique 1
rotation 1
istiques 1
oué 1
onyme 1
positif 1
théories 1
comparaison 1
parcs 1
ee 0.4337173237224675
menant 1
turc 1
uil 1
1872 0.8187016544121235
signer 1
Anthony 0.7781783159664075
traditionnellement 1
onnes 1
tend@@ 1
tru@@ 1
suicide 1
Commune 1
Beaucoup 1
Sand@@ 0.6398050892851653
chargés 1
conversion 1
alis@@ 1
od 0.9067533257545543
abri 1
culaire 1
aim@@ 1
policier 1
1815 1
Manchester 0.6612394889468989
fre@@ 0.6864033719435518
Gil@@ 1
eva 1
Sel@@ 0.6568044969735957
bri@@ 1
tionnel 1
achet@@ 1
quasiment 1
dommages 1
enrich@@ 1
teuse 1
conservée 1
constituant 1
Johnny 1
anie 1
limiter 1
67 0.6681825954913245
sportifs 1
transforme 1
étendre 1
vacances 1
conçue 1
dessinateur 1
disant 1
réun@@ 1
interview 0.6989919092414967
tante 1
originaires 1
portées 1
Cant@@ 1
conver@@ 1
Cambridge 0.6564769606998956
eville 1
éré@@ 1
ouvrier 1
anus 1
couvrant 1
icon@@ 1
Reich 0.9647891153484043
salariés 1
voûte 1
habitation 1
Vall@@ 1
ographique 1
sen@@ 0.6411510871000498
retenu 1
joueuse 1
éen 1
Aussi 1
routier 1
ium 0.8205778669650023
Hugues 1
1877 0.7925749163117471
Jos@@ 1
masculine 1
Costa 0.7480907161527717
handball 1
Voici 1
indice 1
Maître 1
avancée 1
lan 1
Lublin 1
oui 1
oirs 1
ison 1
spéciales 1
Monte 1
progression 1
prime 1
enregistrements 1
issements 1
art. 1
Euro 0.6799546681125287
he@@ 0.4201469314316758
remani@@ 1
coûts 1
ingue 1
Champ@@ 1
vallées 1
eurent 1
Bible 1
astronome 1
eh@@ 0.35667383148985804
1865 0.7475724808202137
interrog@@ 1
ordonnance 1
mourir 1
Lau@@ 1
Lucien 1
Département 1
pend@@ 1
téléfilm 1
1861 0.7340802365887142
ciens 1
stati@@ 1
arg@@ 1
feux 1
maternelle 1
eil 1
amor@@ 1
immense 1
élabor@@ 1
tin@@ 1
Camille 1
ten 0.07696449128338381
immun@@ 1
plaques 1
Thérèse 1
oud 1
3,@@ 0.7657882367671397
Indonésie 1
débar@@ 1
atrices 1
esque 1
protéines 1
Hir@@ 0.9981787576808943
équation 1
inae 1
précis 1
Manche 1
patronyme 1
RC 1
gaz@@ 1
Vé@@ 1
assurance 1
internes 1
perdent 1
apparitions 1
CO@@ 0.8776762161434214
apparait 1
hum@@ 1
suc@@ 1
érie 1
ensembles 1
satellites 1
hir 1
belles 1
Confédération 1
1873 0.7820639846630095
rendant 1
1864 0.723538149102935
Chau@@ 1
Sam 0.7468287015787091
lique 1
observé 1
Olympique 1
Kol@@ 0.651852171249062
suspension 1
quait 1
modes 1
calcaire 1
Fa@@ 1
atures 1
circonstances 1
comportant 1
pes@@ 1
rencontr@@ 1
Comte 1
Ligne 1
entrent 1
caractérisant 1
Pen@@ 0.8706537914489394
1874 0.7886391591172369
saire 1
obtint 1
tot@@ 1
ps 0.4966838415291328
attire 1
tionnelle 1
attend@@ 1
clés 1
dat@@ 1
Entertainment 0.5624923675474048
gallo 1
constituer 1
chronique 1
barre 1
phénomènes 1
cultiv@@ 1
radio@@ 1
onnant 1
parfaitement 1
appartement 1
alter@@ 1
Series 0.365549755984045
name 0.0679051557948181
Résistance 1
Log@@ 1
kin 0.6142212165371677
palé@@ 1
Rab@@ 1
faciliter 1
Ku@@ 0.781703540351134
observe 1
vit@@ 1
Kur@@ 0.4119014480954259
qualifications 1
onnais 1
Had@@ 1
Toulon 1
arm@@ 1
Liban 1
ambassade 1
annes 1
spécialement 1
yn 0.922045714597329
dot@@ 1
Zurich 1
Burkina 1
attr@@ 1
Agriculture 1
campus 0.5608615370445796
collines 1
Pourtant 1
assistance 1
francophones 1
accepté 1
aga 0.8955626533513286
lée 1
incident 0.9010102240964969
Sec@@ 1
communs 1
ug@@ 0.7035116761302446
apparu 1
live 0.22325091983344877
athlètes 1
1879 0.7449191534494216
compétence 1
dates 0.8538488866249032
écl@@ 1
appuie 1
Didier 1
Maj@@ 1
Ans 1
stockage 1
Massachusetts 0.4771661545850641
Lev@@ 1
Jeune 1
remet 1
ro 0.8433288964167195
violon 1
bo 1
ordonn@@ 1
88 0.6662903454481723
Cav@@ 1
dossier 1
igné 1
permettait 1
ST@@ 1
Ul@@ 0.8401485535918904
correspond@@ 1
1792 1
condi@@ 1
vas@@ 1
civilisation 1
enfer@@ 1
rapides 1
nik 1
Cab@@ 1
biologique 1
variantes 1
HMS 1
Ach@@ 1
ceci 1
rayon 1
minim@@ 1
évoluer 1
rières 1
rassemb@@ 1
tenté 1
détail 1
Je@@ 1
répression 1
favorables 1
esthétique 1
ôle 1
volant 1
scolaires 1
sti@@ 0.6710163341241341
arriv@@ 1
Mak@@ 0.829026264904712
propositions 1
WISE 1
Poitiers 1
Den@@ 1
créateur 1
typique 1
ball@@ 1
Mich@@ 1
pair 0.7356048577939571
chars 1
drame 1
ele 0.6272867184654827
fenêtre 1
considèrent 1
convoi 1
trait@@ 1
Lake 0.24041899635611894
Faso 1
remettre 1
rattaché 1
ume 1
conduire 1
révol@@ 1
prête 1
autrichien 1
posé 1
qualifiés 1
Loc@@ 1
comprise 1
més 1
agé 1
ett 0.4651530822183832
résid@@ 1
apprendre 1
envoyés 1
aya 0.554851782345414
sap@@ 1
préserver 1
Infrared 1
Roche 1
devoir 1
77 0.6714132696846368
Constantin 1
Arizona 0.6665026399012414
atteinte 1
créées 1
ouvrant 1
1862 0.7312370797328517
démén@@ 1
verse 0.9815831257322144
déser@@ 1
maires 1
command@@ 1
Corporation 0.4574201370400661
gué 1
communications 1
optim@@ 1
corruption 1
placer 1
emporte 1
Cham@@ 1
Lune 1
Pri@@ 1
ima 0.9030979048666079
collecte 1
démarche 1
tempête 1
aidé 1
saient 1
Jar@@ 1
générations 1
Bot@@ 0.9684150317507012
puissante 1
préfér@@ 1
gérer 1
charte 1
bic@@ 1
massacre 1
breton 1
propul@@ 1
brésilien 1
retiré 1
nucléaires 1
bourgeois 1
voisines 1
ottoman 1
ignent 1
chlor@@ 1
Alexis 1
Bir@@ 0.8159302457799561
resta 1
géré 1
vic@@ 1
chaud 1
identifier 1
témoignage 1
dur 1
Fil@@ 0.8754748489592394
mos@@ 1
séquence 1
erg@@ 1
nomin@@ 1
actuelles 1
chaire 1
géant 1
Tim@@ 0.9627339649527206
din 1
témoin 1
revendi@@ 1
74 0.6572846953734246
participa 1
firent 1
America 0.1744957662732239
professionnelles 1
dro@@ 1
feuille 1
psychologie 1
Abraham 1
robe 1
chau@@ 1
ud@@ 0.6922392091940802
Belle 1
influences 1
micro 1
crimes 1
permanent 0.7423183949147084
fossiles 1
générique 1
‘ 0.2877254262198954
Jac@@ 1
dy 0.7240729647901073
vélo 1
collabor@@ 1
extérieure 1
nez 1
ech 1
Îles 1
nov@@ 1
oun 1
1869 0.8060272221871215
duc@@ 1
pil@@ 1
taxe 1
aband@@ 1
négoci@@ 1
seuil 1
partielle 1
time 0.03245106039089034
tenait 1
tiens 1
appro@@ 1
clo@@ 1
Chap@@ 1
quotidienne 1
actualité 1
devenus 1
dégâts 1
Action 1
Meuse 1
ene 0.24887401056930605
isa 1
batteur 1
ava 1
tou@@ 1
tem@@ 1
1800 0.941088106206899
recettes 1
apporter 1
mécanisme 1
refl@@ 1
berger 0.8040791610922672
localités 1
wood 0.28825502901237465
Kevin 0.8669751647121758
puissances 1
Cy@@ 1
entiel 1
modi@@ 1
cadres 1
Sen@@ 0.8434012061934432
comptant 1
anne 1
batailles 1
habitant 1
ologiste 1
attente 1
jug@@ 1
inconnue 1
alie 1
exercer 1
ž@@ 1
awa 1
affich@@ 1
destinées 1
priv@@ 1
etta 1
résol@@ 1
ty@@ 0.967080863904044
simpli@@ 1
formés 1
sant 1
circuits 1
tol@@ 1
accor@@ 1
tentent 1
US@@ 0.7581468540951755
Somme 1
ben 0.529015516374893
récompens@@ 1
explor@@ 1
encour@@ 1
Chal@@ 1
but@@ 1
vitesses 1
juridiction 1
lab@@ 1
cheveux 1
préside 1
ord@@ 0.9924359523636893
écr@@ 1
marqués 1
fonte 1
bos@@ 1
fédér@@ 1
UN@@ 0.960400042018464
délégué 1
poser 1
Khan 0.6624459132731818
fiés 1
Roch@@ 1
ader 1
ètre 1
éliminé 1
rentrer 1
amp@@ 0.8131215132192681
itz 0.5168054821875738
traiter 1
Réunion 1
tirage 1
Mathieu 1
fonder 1
ponctu@@ 1
Là 1
géographie 1
ech@@ 0.5117631845773688
mée 1
symbolique 1
camp@@ 1
clinique 1
administratifs 1
inspecteur 1
officielles 1
fiscalité 1
manga 1
quin 1
blocs 1
experts 1
agement 1
ambi@@ 1
cla@@ 1
désignation 1
oï@@ 1
phrase 1
Hollywood 0.6473303364081325
brésilienne 1
décoré 1
Ste@@ 0.4993175647348808
doux 1
botanique 1
levée 1
chée 1
Earth 0.5062814003031749
sportives 1
vern@@ 1
Paulo 1
coû@@ 1
prépare 1
danois 1
ADN 1
visit@@ 1
continuité 1
rette 1
explo@@ 1
les@@ 0.7459523297402225
SP@@ 0.8626479845015166
princes 1
surfaces 1
attribuée 1
norm@@ 1
• 0.7840356937350428
noires 1
elin 1
tionné 1
Viêt 1
suis 1
Gro@@ 0.9520089144449145
² 0.13867227863271697
privilégi@@ 1
descendant 1
Plan 0.8458644392724854
dut 1
ties 0.4178021828682783
Express 0.8637537295900589
décroche 1
quête 1
concile 1
Red@@ 0.712978022699706
fabrique 1
logiciels 1
propagande 1
age@@ 1
résoudre 1
Nav@@ 1
saints 1
vidéos 1
ester 1
marquer 1
hôte 1
combinaison 1
mythologie 1
1851 1
autrichienne 1
habite 1
épaisseur 1
illet 1
Pre@@ 0.4063813413725529
organe 1
remplacés 1
matériau 1
Française 1
Sz@@ 1
consul 1
audience 0.7118310977129457
sent@@ 1
collègues 1
approximativement 1
obligation 1
réussite 1
théorème 1
cession 1
diversi@@ 1
souris 1
éph@@ 1
aug@@ 1
atr@@ 0.7238613537352457
défin@@ 1
mineur 1
mondiaux 1
redécoupage 1
gea 1
islam 1
lem@@ 1
styl@@ 1
alphabet 1
migr@@ 1
Aff@@ 1
supérieurs 1
Gran@@ 0.9626236512174831
plomb 1
No 0.2315259730617706
disputer 1
faisaient 1
disposent 1
Francfort 1
IC 1
dépendant 1
ous@@ 1
individuelles 1
demeur@@ 1
guère 1
inconnu 1
photographies 1
Ministre 1
proprement 1
airement 1
vainqueurs 1
démar@@ 1
ze@@ 0.8540387821905658
orientales 1
vaisseaux 1
lies 0.34783711381552074
tome 1
arrêtés 1
uch@@ 1
up 0.03940750014259845
équipée 1
Cœur 1
primaires 1
attesté 1
écarts 1
Sil@@ 0.762697194773204
profil 1
Claire 1
Occidentale 1
vedette 1
78 0.6409491762880265
distances 1
nique 1
fleur 1
bâti 1
May@@ 0.7454892514176665
dér@@ 1
chent 1
phon@@ 1
applique 1
bur@@ 0.5578052458453513
dépression 1
Las 0.14153036018920018
jo 0.6854782132852236
nent 1
Léopold 1
Barr@@ 1
adaptée 1
amen@@ 1
thermique 1
isait 1
Anderson 0.7071376193035178
lecteur 1
jouée 1
bouche 1
guide 1
76 0.6050975600671199
prof@@ 1
récol@@ 1
Fol@@ 0.9336455860270008
bag@@ 1
chant@@ 1
ombre 1
parlementaires 1
Vir@@ 1
Vic@@ 1
adoptée 1
écrites 1
familial 1
légi@@ 1
put 0.27989843047059826
AM 0.6857382184354669
accueil@@ 1
High 0.1487853951062258
Tunis 1
prototype 1
Macédoine 1
permit 1
descend 1
abond@@ 1
schéma 1
sionn@@ 1
collectivités 1
Noire 1
Fau@@ 1
paraître 1
gn@@ 1
Hydrographie 1
cô@@ 1
rê@@ 1
dépendance 1
nait 1
Réseau 1
Rap@@ 1
considérer 1
effectifs 1
ONU 1
équivalente 1
territoriales 1
arc@@ 1
matéri@@ 1
1801 1
immeubles 1
régul@@ 1
ado 0.08873917659734103
copie 1
mineures 1
Siège 1
culminant 1
Boulogne 1
Franco 1
Entr@@ 1
offici@@ 1
oriental 1
Otto 0.5674970891698641
semblable 1
aches 1
Reine 1
utilisateur 1
chantiers 1
Indes 1
Arménie 1
Limoges 1
pain 1
Pakistan 0.5032480673553704
Eurovision 1
71 0.6166989076205842
Billboard 0.41974874954865554
présidents 1
Flor@@ 1
Év@@ 1
Budapest 1
engagée 1
trio 1
minér@@ 1
1855 0.9262606592724889
hydrogène 1
men 0.08800052228085534
92 0.6658038699010909
Occitanie 1
alé@@ 1
teau 1
Cher 1
prononcé 1
patr@@ 1
observer 1
da@@ 1
onnaire 1
êt 1
Aub@@ 1
Stanley 0.9250600457279897
comtesse 1
interprétée 1
ith 1
Aragon 1
ie@@ 0.8001186973297923
Revue 1
Stockholm 1
dique 1
I. 0.3038224111859798
cam@@ 1
Ferrari 1
alis 0.7317444939239952
arrestation 1
étroite 1
inspir@@ 1
paire 1
Anjou 1
tube 1
aure 1
Bab@@ 0.943518373159215
dien 1
Princip@@ 1
ignor@@ 1
niers 1
Cologne 1
atis@@ 1
Howard 0.6555221376421148
capables 1
ap 0.6944594657981822
dou 1
Academy 0.21822287231098195
Sem@@ 0.9275296707129407
DJ 0.9868428860653403
Lec@@ 1
passes 0.8021724807708235
rejoignent 1
Mul@@ 0.7114539855649923
ish@@ 0.5307266590672718
Ray 0.7443781078533293
cum@@ 1
influ@@ 1
69 0.631839500059421
Maritime 1
encad@@ 1
inscriptions 1
T. 0.5766976904080973
1859 0.7908889267751669
terrestres 1
tim@@ 0.7578170071355748
protégée 1
coréen 1
vendredi 1
Giuseppe 1
modifier 1
hydrographique 1
impliqué 1
Mess@@ 1
porteur 1
Province 0.3756829204422897
Missouri 0.6114865651580539
missiles 1
pap@@ 1
roches 1
transformer 1
oxygène 1
yo 0.8952919574314012
ulaires 1
Pir@@ 1
1814 1
Pil@@ 0.9151493015001931
SE@@ 0.9280975175601499
Bag@@ 1
Ivoire 1
préfère 1
vraisemblablement 1
Origines 1
73 0.6487950040181176
définitive 1
Lib@@ 1
législature 1
air@@ 0.564395307326004
volontaire 1
ć 0.9751795874514929
activement 1
intervenir 1
vari@@ 1
récentes 1
commerci@@ 1
ny@@ 1
chants 1
entraîné 1
Bonaparte 1
Arch@@ 1
ota 0.6737546305549007
dents 1
vén@@ 1
tomb@@ 1
éliminer 1
gère 1
manifest@@ 1
énorme 1
Puy 1
signal@@ 1
enberg 0.5837718474711157
autorisé 1
Christine 1
ût 1
conservés 1
éth@@ 1
anger 1
æ@@ 1
dépenses 1
habitu@@ 1
chercheur 1
exprim@@ 1
Chab@@ 1
produisant 1
fur@@ 0.8739633950476954
communément 1
épousé 1
ecclésiastique 1
résulte 1
alisées 1
Heinrich 0.41154569013369136
graines 1
urbains 1
Liv@@ 1
africains 1
96 0.6050140110521327
attentat 1
dons 1
Franche 1
han 0.20141480528092678
téléphone 1
tend 1
Fox 0.5359429724979878
classées 1
vouloir 1
Life 0.25468613598186357
erre 1
condam@@ 1
érigé 1
chal@@ 1
99 0.5723098755290592
Bes@@ 0.8517460453696956
patern@@ 1
alb@@ 0.7318741782182333
itement 1
çait 1
moyennes 1
sensiblement 1
amas 1
State 0.08175009827830783
apostolique 1
croit 1
résist@@ 1
bleue 1
records 0.42855404662362934
omb@@ 1
gène 1
Madagascar 1
tax@@ 1
86 0.6509827768384037
convaincre 1
stable 1
itions 1
turque 1
exp@@ 1
Š@@ 0.9385092574379158
comtes 1
représentés 1
éron 1
tionnelles 1
triple 1
Four@@ 1
Hubert 1
intelligence 0.9419647238865109
exc@@ 1
pic@@ 1
bain 1
aliment@@ 1
flot@@ 1
naval 0.8446096898553359
81 0.6413828023807139
Lap@@ 1
biologie 1
jet@@ 1
municipaux 1
mont@@ 1
réactions 1
ordinaire 1
Miami 0.6977017486344482
entation 1
exactement 1
è 1
Eff@@ 1
Isère 1
radical 1
entend@@ 1
échapp@@ 1
confé@@ 1
festivals 1
commandée 1
érien 1
Génér@@ 1
endommag@@ 1
fixé 1
éduc@@ 1
chap@@ 1
congrégation 1
Grégoire 1
épée 1
cus 1
partent 1
deau 1
isti@@ 1
Aucun 1
témoignages 1
Castille 1
indiquent 1
mâ@@ 1
annex@@ 1
espagnols 1
} 0.6191884227069612
piliers 1
trouvant 1
contiennent 1
dotée 1
cardiaque 1
set 0.10206193591147737
89 0.6996869584141489
Vig@@ 1
favoriser 1
mur@@ 1
mesur@@ 1
aussitôt 1
Rugby 0.6965273117378324
acher 1
comment@@ 1
opérateur 1
utilis@@ 1
rach@@ 1
universel 1
ax 0.8769025829438634
donn@@ 1
Azerbaïdjan 1
moul@@ 1
ese 0.16556891167711912
Dol@@ 1
cide 1
neaux 1
sensible 1
idi@@ 1
incline 1
maintient 1
révolutionnaires 1
tain 1
arbitre 1
fonctionne 1
sympath@@ 1
diplomatique 1
pollution 1
fortifications 1
osa 0.41651701247202466
tre@@ 0.8008243873240211
Bon 1
Tré@@ 1
malades 1
ila 0.7831036164262039
audi@@ 1
Sun 0.48526404917243576
entité 1
réputé 1
len@@ 0.5530775174610558
identifié 1
bec 1
Cel@@ 1
Belgrade 1
Villeneuve 1
paroissiale 1
retrouv@@ 1
sécur@@ 1
constatés 1
libérer 1
Navarre 1
incar@@ 1
Ferr@@ 1
Bains 1
gouver@@ 1
finaliste 1
Bran@@ 1
réservé 1
déclin@@ 1
Rég@@ 1
courir 1
froide 1
Cul@@ 1
Michigan 0.39386269658749595
virtu@@ 1
cède 1
pauvreté 1
Conférence 1
Midi 1
session 0.8544521872010202
rage 1
semb@@ 1
coéquipier 1
Grands 1
87 0.6689385936904936
Té@@ 1
lon 1
installent 1
peuplée 1
test@@ 1
voulu 1
inj@@ 1
menés 1
1,5 0.9809876646924512
Science 0.3089144105416823
Sy@@ 0.7854315236078774
fa 1
rej@@ 1
bordure 1
croire 1
incarne 1
ignac 1
bit@@ 1
animé 1
carburant 1
buteur 1
instance 1
islam@@ 1
jal@@ 1
extraction 1
AP 0.8730071621799647
prière 1
ret@@ 0.864640742684014
Laf@@ 1
datent 1
Sorbonne 1
enseignants 1
Mam@@ 1
quittent 1
musicaux 1
84 0.6240312019789594
éventuellement 1
1856 0.833237265495538
demand@@ 1
soin 1
Exposition 1
Palestine 1
Łódź 1
Monsieur 1
appeler 1
enregistrer 1
lées 1
cylindres 1
reprennent 1
verts 1
entraî@@ 1
lut@@ 1
Armand 1
Cé@@ 1
béné@@ 1
Ali@@ 1
inauguration 1
Champion 1
Nar@@ 0.7185789638753396
déplacer 1
bel 1
cerveau 1
empê@@ 1
ignit 1
reconstruit 1
baies 1
élaboration 1
invention 1
tomber 1
débarquement 1
situations 1
toiles 1
artisans 1
Loir 1
chon 1
1857 0.8233894076725234
Road 0.18244515578356335
bière 1
Lisbonne 1
flore 1
Second 0.2923996393548257
gel@@ 0.4137448706116572
Chevalier 1
ingen 0.40729397062076256
munitions 1
inspirée 1
CI@@ 1
Traité 1
Dec@@ 0.6335830929299443
dominant 1
existant 1
interrom@@ 1
Romain 1
basses 1
adr@@ 1
compréhension 1
notoriété 1
réparties 1
accompagnée 1
décors 1
gardes 1
réalisations 1
Sk@@ 0.705359360602517
Cass@@ 1
ban 0.392145278790081
voyant 1
Hautes 1
enté 1
républicaine 1
uti@@ 1
Gér@@ 1
ius 1
alier 1
réservoir 1
giques 1
chancelier 1
UEFA 0.6632849450806563
brou@@ 1
configuration 1
concession 1
Nintendo 1
belges 1
industries 1
ics 0.409496986999668
Colorado 0.5834531835922616
entendu 1
J&apos; 1
anais 1
Lat@@ 1
nu 1
remonter 1
mun@@ 1
tissement 1
import@@ 1
Gour@@ 1
associe 1
Bâle 1
exprimer 1
1852 0.9254969398547711
client 1
pren@@ 1
survivants 1
décerné 1
lerie 1
lis@@ 1
Besançon 1
ō@@ 1
vér@@ 1
serment 1
alternative 0.6793260324200554
esclavage 1
ilien 1
ampleur 1
dessert 1
eck 0.6552376610278837
Bass@@ 1
Edmond 1
Notes 1
Arc@@ 1
imposant 1
Arc 1
Columbia 0.35900094216109923
Vichy 1
Dan 0.8012011956048093
duchesse 1
estr@@ 0.8040389561475881
réguliers 1
conclu 1
sig@@ 1
82 0.6230336857317345
engagés 1
Empereur 1
appartiennent 1
notable 0.4030769978342556
pre 0.4050410339648856
dangereux 1
Miguel 0.5807515147824646
loisirs 1
fréquent@@ 1
rébellion 1
habitations 1
Van@@ 1
substitu@@ 1
imagin@@ 1
mobilier 1
Time 0.3977040447834019
affronte 1
localement 1
amér@@ 1
impéri@@ 1
jum@@ 1
We@@ 0.4360528261605008
choc 1
enregistrée 1
rend@@ 1
syndicats 1
quais 1
logo 1
gies 1
justi@@ 1
contraintes 1
augmentent 1
effectuée 1
fourn@@ 1
SA@@ 1
1846 0.9754403757573487
dig@@ 0.981045036572951
organes 1
Dublin 0.7840107414338828
Hom@@ 0.8841141973601692
exécuté 1
considérées 1
ett@@ 0.969752553528678
raient 1
implantation 1
nar@@ 1
Lot 1
dénonce 1
ombe 1
quin@@ 1
vicomte 1
Patr@@ 1
géné@@ 1
libéraux 1
LNH 1
capture 0.9058265343704784
motor@@ 1
cou 1
General 0.10391071125054703
Coul@@ 1
spiritu@@ 1
astronomie 1
détenu 1
Pie 1
aph@@ 1
miques 1
tit 1
touché 1
australienne 1
constellation 1
top@@ 1
porta 1
1854 0.8483314456214588
orique 1
sortent 1
symboles 1
Arabie 1
impliqu@@ 1
démocrates 1
mad@@ 1
gau@@ 1
stabil@@ 1
luxe 1
Fal@@ 1
ultime 1
confiée 1
Cir@@ 1
bot@@ 1
couverte 1
tionne 1
liaisons 1
tiv@@ 1
ètres 1
stabilité 1
lie@@ 1
naturellement 1
fourni 1
invite 1
respect@@ 1
Bruce 0.7941942437849172
Rob@@ 1
prévention 1
che@@ 0.9759621096506892
offrant 1
mour@@ 1
avère 1
courtes 1
conventi@@ 1
rayons 1
partant 1
approfon@@ 1
Marco 1
dette 1
Vis@@ 1
hameaux 1
érations 1
lourd 1
Bis@@ 1
ral@@ 1
archéologie 1
terminus 1
appelait 1
énique 1
Bourg 1
ki@@ 0.621242311552931
synagogue 1
93 0.6337826796984393
Adolphe 1
Beach 0.5029980669222263
loy@@ 1
tâches 1
divorce 1
accumul@@ 1
alimentaires 1
Ne 1
Phil@@ 1
Socorro 1
Faculté 1
ski@@ 1
Mali 1
addi@@ 1
eu@@ 1
Jimmy 0.820487593635613
tombes 1
composées 1
remarqu@@ 1
Japonais 1
partager 1
1858 0.83370229640496
more 0.03456857600922288
Louvre 1
mammifères 1
riv@@ 1
Vosges 1
Cent 1
Little 0.3883148520316103
républicains 1
plaines 1
produites 1
kov 1
Kir@@ 0.6121656181102797
compositeurs 1
m. 1
vendue 1
1849 0.8466617818519825
identification 1
messe 1
iche 1
abandonnée 1
colère 1
intense 1
statistique 1
onom@@ 1
bords 1
ageant 1
atteignant 1
tissu 1
restée 1
otique 1
pin 1
profond 1
Dam@@ 0.992509895508202
constitutionnel 1
correc@@ 1
aboutit 1
caractér@@ 1
militant 1
pê@@ 1
LINEAR 1
illons 1
ion@@ 1
protestants 1
dénommé 1
commerces 1
neurs 1
line 0.08380891847843908
veulent 1
possédant 1
Vit@@ 1
Atlanta 0.7199536462880541
détention 1
immigration 1
compagnon 1
nay 0.7750552132984534
sauvages 1
ory 0.4532969718302971
Ma 1
Malte 1
fuir 1
Rich@@ 1
parts 0.24950076547055186
armés 1
ham 0.6028752868382777
linéaire 1
puissants 1
bombardement 1
suffixe 1
pente 1
abrégé 1
Barbara 0.8598732405984686
continu 1
mér@@ 1
Mod@@ 1
talents 1
encontre 1
relégation 1
Cad@@ 1
emment 1
intensité 1
Dix 1
fro@@ 1
pp@@ 0.7797730559767817
Dun@@ 0.8054010063609663
révél@@ 1
souveraineté 1
té@@ 1
sommes 1
ué 1
quants 1
régl@@ 1
aria 0.40614562032061163
Golden 0.4890572981409963
entraîner 1
tro 1
archi@@ 1
daté 1
compagnons 1
ataire 1
fameux 1
adi 1
lor@@ 1
oh@@ 0.5340993275561786
élire 1
mil@@ 0.8171634638937775
Arm@@ 1
spéciaux 1
inus 1
èrement 1
tropicale 1
financer 1
ménages 1
perdue 1
réunions 1
Mik@@ 1
lante 1
prolongement 1
D2 1
once 0.19702663010198082
étudi@@ 1
N&apos; 1
attache 1
bruit 1
dispers@@ 1
suédoise 1
Débuts 1
contrats 1
ident 1
présentés 1
Lambert 1
humide 1
banques 1
Gon@@ 1
dirige@@ 1
st 0.3151764712488674
Ny@@ 1
tronçon 1
mul@@ 1
continentales 1
fragments 1
AL@@ 0.8728244833275524
émin@@ 1
dialogue 1
riz 1
finir 1
Game 0.4261053525349602
Ty@@ 0.940927682878891
ash@@ 0.6563699955123831
équipés 1
79 0.6333927932657492
protestante 1
lever 1
abol@@ 1
garanti@@ 1
styles 1
Kiev 1
ovitch 1
métrages 1
pressions 1
Tib@@ 1
ce@@ 0.7853318748622985
Tarn 1
législation 1
ula 0.7307728354105046
mosquée 1
enta 0.8527532723701561
pur 0.8350480391984899
humour 1
án 0.25994785599612513
euil 1
K. 0.6584739683422862
mémoires 1
nazis 1
anneau 1
entre@@ 1
oi 1
disciplines 1
Cin@@ 1
usi@@ 1
décer@@ 1
exploration 1
inter 1
chat 1
Pour@@ 1
ajoutent 1
Bay@@ 0.8733670322049212
byzantin 1
83 0.6301780413616896
théorique 1
oblige 1
s. 1
acquérir 1
contacts 1
Pres@@ 0.6302101642435244
pèlerinage 1
çons 1
Retour 1
sac@@ 1
Gordon 0.6623202431950348
aba 0.15668765747670874
paiement 1
rendez 1
CF@@ 1
amené 1
divis@@ 1
sage 1
séparés 1
canaux 1
soutenue 1
atteignent 1
procur@@ 1
Fon@@ 1
soupç@@ 1
planètes 1
IS@@ 0.8577918973948023
proposée 1
Vin@@ 1
antic@@ 1
indigènes 1
nominations 1
recense 1
épousa 1
Bank 0.2783867609781918
Township 0.4508655305275817
détenus 1
transformée 1
Cord@@ 1
indiqué 1
entourée 1
érienne 1
harmon@@ 1
illées 1
romains 1
lundi 1
ox@@ 0.908644192698997
Charlie 0.8638218808884115
dominante 1
Fe@@ 0.6172008675194616
ids 0.4914699122830214
prononce 1
adopter 1
iment 1
Miller 0.5614649278836253
cheur 1
pasteur 1
conqu@@ 1
altéré 1
organique 1
exerc@@ 1
rames 1
Alliés 1
mobiles 1
landaise 1
eng 0.6731580441589162
témoins 1
nouvellement 1
rédigé 1
hiérarchie 1
tum@@ 1
proposent 1
nationaliste 1
adapter 1
pav@@ 1
01 0.6405081454944155
choisie 1
débou@@ 1
mécan@@ 1
traverser 1
Œuvre 1
épidémie 1
brique 1
invent@@ 1
FF@@ 1
signée 1
visi@@ 1
della 1
Dr 1
onnel 1
èche 1
Bus@@ 0.8150345178599074
onnent 1
recev@@ 1
rival 0.833135823691517
trajet 1
Kansas 0.506918359422418
environn@@ 1
98 0.5689763980420954
Li 0.7630671429143557
recher@@ 1
Quentin 1
Sac@@ 1
125 0.9644233401063774
légers 1
issante 1
width 1
Trente 1
atten@@ 1
ums 0.47535925657444433
Bâ@@ 1
secrets 1
décrire 1
salaire 1
Pau 1
idéal 1
diffuse 1
Natura 1
Pass@@ 1
brevet 1
ouvrent 1
ung 0.10579439552998192
AN@@ 1
Fernando 0.6076231913951732
transept 1
instaur@@ 1
Se 0.11371738320824734
mo 0.8804869775450486
eron 0.9366868565422377
subsiste 1
composent 1
Anti@@ 0.7816770438387256
axes 1
ancêtre 1
Jonathan 0.9656226476290807
Bul@@ 0.7942897758798626
monté 1
crédit 1
XVI 0.7929186684181331
proté@@ 1
í 0.4447773981189745
ago 0.49539102750554365
évoluait 1
appliquer 1
classements 1
lorsqu 1
Ō@@ 1
pri@@ 1
Show 0.36833680962759174
UE 1
sculp@@ 1
Mexico 0.27327906536276064
ême 1
erreurs 1
ple 1
races 0.43896593799422945
polémique 1
morph@@ 1
floristique 1
Boris 1
Nat@@ 1
tienne 1
émie 1
chiff@@ 1
Christopher 0.7681241007809381
constitutionnelle 1
tionnels 1
allég@@ 1
déroulée 1
descendance 1
certainement 1
attirer 1
conservateurs 1
ressemble 1
battue 1
compatriote 1
vou@@ 1
élevées 1
ronde 1
if 0.10343216061337553
Tourn@@ 1
Ot@@ 1
affirmant 1
orange 1
AM@@ 0.8929094784383943
travées 1
biographie 1
Robin 1
sky 0.4439772910185029
Bell 0.6541210315790223
Minnesota 0.47891884138771007
Situé 1
simultanément 1
Ensemble 1
ope 1
Bibliographie 1
OS 0.7725183343329265
autochtones 1
isons 1
sin 0.15014556518155364
topo@@ 1
vot@@ 1
herbacée 1
relev@@ 1
appel@@ 1
week 0.26078271313173323
dote 1
artifici@@ 1
sph@@ 1
éclate 1
scandale 1
crois@@ 1
UNESCO 1
ili 1
effectivement 1
pun@@ 0.9053268240044482
met@@ 0.702078733675511
ect@@ 1
retar@@ 1
Andrea 1
inée 1
repos 1
Espagnols 1
puissent 1
continué 1
lecteurs 1
reau 1
Thaïlande 1
Nîmes 1
châssis 1
moments 1
juges 1
entrant 1
cass@@ 1
civiles 1
Située 1
Tab@@ 1
érigée 1
1791 1
1831 1
principauté 1
vain@@ 1
Ing@@ 0.8824316354811971
rich@@ 0.9505523358652522
coupl@@ 1
intégr@@ 1
touristes 1
asser 1
Afghanistan 0.9128320028170696
fonctionnaire 1
flanc 1
tige 0.7864391572354746
onien 1
Day 0.2609827855323203
enseign@@ 1
moto 1
souvenirs 1
human@@ 1
mang@@ 1
éclairage 1
Enfant 1
maîtr@@ 1
Déroulement 1
Aisne 1
modé@@ 1
produ@@ 1
illi 1
aute 1
réqu@@ 1
travailliste 1
Havre 1
adhésion 1
ave@@ 1
impôt 1
iro 0.9040125126429035
juniors 1
arbor@@ 1
plant@@ 1
détach@@ 1
Ahmed 1
confusion 1
proviennent 1
atti@@ 1
onnelle 1
Jura 1
prédécesseur 1
respecter 1
possibilités 1
nommer 1
MC 1
Évolution 1
uz@@ 0.9907176124489808
lourde 1
idés 1
Din@@ 1
oul@@ 1
Isaac 1
trésor 1
Leipzig 0.5893202216275988
protégés 1
andre 1
poli@@ 1
aménagé 1
grosse 1
établissent 1
illard 1
uniforme 1
individuelle 1
programm@@ 1
kin@@ 1
acides 1
insurrection 1
châteaux 1
Services 0.5996111491674299
restaur@@ 1
adres@@ 1
impôts 1
musulmane 1
sir@@ 1
que@@ 1
auc@@ 1
déesse 1
répertori@@ 1
métallique 1
rayonnement 1
utilité 1
globale 1
composants 1
irlandaise 1
Mac 1
èvres 1
séqu@@ 1
3D 0.8432389684393035
Gh@@ 1
rapproche 1
futurs 1
poètes 1
punk 1
ativement 1
concurr@@ 1
écras@@ 1
entaire 1
analyses 1
participations 1
ague 1
citoyen 1
résidenti@@ 1
vid@@ 1
sorties 1
décédée 1
imprim@@ 1
Cau@@ 1
ismes 1
attaqué 1
présidé 1
yp@@ 1
faunistique 1
assister 1
dép@@ 1
mél@@ 1
1795 1
Act 0.20382037564542885
Alexandrie 1
dresse 1
700 0.5655275394151331
Ernst 0.5596471804789953
Microsoft 0.6913910139661973
abs@@ 1
char 1
numériques 1
Études 1
Hot 0.4573518842761545
Finances 1
amical 1
maritimes 1
matrice 1
sentiments 1
étang 1
législative 1
we@@ 0.3372558569835012
Han 0.9594831648176363
habitude 1
sec 1
autorise 1
conjointement 1
diction 1
dérive 1
Théodore 1
sée 1
orum 1
vivants 1
Ét@@ 1
tribune 1
céramique 1
éloignement 1
ings 0.17800499585118842
bassins 1
quarantaine 1
fermes 1
intégralité 1
Jam@@ 1
Pav@@ 1
métaux 1
annon@@ 1
Guy@@ 1
approvisionnement 1
confié 1
Ridge 1
battent 1
María 0.32396846997955164
Alb@@ 1
Ev@@ 0.9728671800271638
Archives 1
V. 0.48993122107762754
Kas@@ 0.5897643427828612
indiquant 1
Lituanie 1
ières 1
rag@@ 1
Actuellement 1
journées 1
1794 1
prétend@@ 1
Deb@@ 1
transporter 1
énergétique 1
hongroise 1
attribution 1
créent 1
concentre 1
magazines 1
refus@@ 1
Vatican 1
1853 0.841371984681545
obtention 1
Statistiques 1
assisté 1
illement 1
Allen 0.5959132993583454
chiens 1
découverts 1
Bologne 1
Johannes 0.5588401537212927
antiques 1
Clark 0.6195926297768162
1845 0.8922344131556187
aul@@ 1
Pér@@ 1
personnelles 1
désignée 1
Kennedy 0.7284506504409981
po 0.9716871353738099
rendus 1
sultan 1
Santiago 0.5009151749628143
ill 0.33569376891003055
magné@@ 1
racon@@ 1
Guil@@ 1
courante 1
honor@@ 1
choré@@ 1
Morgan 0.716067201533364
urie 1
dist@@ 1
Fré@@ 1
bibliothèques 1
urn@@ 1
attribués 1
exclu@@ 1
qualifiée 1
ancêtres 1
Magazine 0.6115414338053894
protocole 1
émergence 1
ons@@ 0.5462957927065702
aa 1
Régime 1
91 0.6102220878580351
obtenue 1
cuis@@ 1
kan@@ 0.6834892276239156
taires 1
Die 0.01333563432311856
Ob@@ 0.8191952428788086
Kin@@ 0.6716613867619451
préserv@@ 1
€ 0.8952800678243007
développés 1
oua 1
évènement 1
Voies 1
Hau@@ 1
provoquer 1
uli@@ 1
Viv@@ 1
intellectuels 1
avantages 1
relatif 1
Fur@@ 1
Star@@ 0.6002669021369503
provincial 0.6308994446753395
Type 0.9618054626425906
degrés 1
conjug@@ 1
mortalité 1
condu@@ 1
Estonie 1
gras 1
provoqué 1
ster 0.3947773207196499
criti@@ 1
han@@ 1
anonyme 1
partagé 1
voter 1
passés 1
liqu@@ 1
UMP 1
Sig@@ 1
forcé 1
anticip@@ 1
Herbert 0.7754211080920302
retenue 1
palest@@ 1
Ferrand 1
Calédonie 1
lap@@ 1
inien 1
incluent 1
exer@@ 1
Bil@@ 0.7632924418444544
aristoc@@ 1
récolte 1
entraînant 1
acées 1
racine 1
Bad@@ 0.7399032360190708
aume 1
capturé 1
cru 1
Télé@@ 1
collective 1
AD@@ 1
escadre 1
ow@@ 0.39805922119706016
bol@@ 0.7895633287174133
XI 0.8931483187376392
annoncée 1
violences 1
Conn@@ 1
courbe 1
Baz@@ 1
Pod@@ 1
ulation 1
AC@@ 0.8447108066379571
Non 1
Années 1
fresques 1
Nu@@ 1
assa 1
fou 1
habitats 1
1837 0.9381111182212573
aisse 1
écoul@@ 1
zon 1
œuv@@ 1
tubes 1
Duc 1
ériens 1
datée 1
Moulin 1
affluents 1
roche 1
oa 0.8099327677783288
Silésie 1
ho 1
rh@@ 1
Gand 1
planches 1
obtiennent 1
endre 1
montage 1
caméra 1
entra 1
palmarès 1
avons 1
repouss@@ 1
Berne 1
Son@@ 0.9624483116819313
amin@@ 1
gènes 1
ska 1
aceae 0.7744788571078538
esti@@ 1
well 0.04215989240249494
territorial 1
Nick 0.7761525893256576
endront 1
star 0.323459531038811
sèche 1
1812 0.8415758466167248
arron@@ 1
bombe 1
sible 1
abus 1
famili@@ 1
16@@ 0.6609033949897292
massive 0.9645636096576863
céréales 1
ériques 1
Ng@@ 1
recrutement 1
constate 1
Alberto 0.9378536366520331
décisive 1
Aut@@ 0.9984976626742336
condamnés 1
uma 0.9782923867780554
conclu@@ 1
dépos@@ 1
patient 1
rendit 1
dépôts 1
dérivés 1
ligues 1
agré@@ 1
owski 0.9102980800193233
détru@@ 1
médicaments 1
ator 0.20380771750651647
réunis 1
Prot@@ 0.8411617463675927
économ@@ 1
110 0.6628766338737605
Studio 0.6612992473528865
discut@@ 1
comptent 1
gloire 1
onction 1
ans@@ 0.5310309837062538
Ober@@ 0.19808823323204308
urg@@ 1
irait 1
1847 0.8545406540308111
survie 1
gir@@ 1
renseignement 1
Billy 0.7673132145151694
repas 1
Sén@@ 1
ung@@ 0.33842744325337937
provinciale 1
ël 1
Russell 0.7225749242364473
solde 1
aid@@ 1
sauvetage 1
tière 1
Nou@@ 1
envis@@ 1
urbaines 1
fan@@ 1
poche 1
Ry@@ 0.9968407379884432
chapiteaux 1
Roy@@ 1
anz@@ 0.46875701368049977
Nelson 0.7271553373838625
accuse 1
empare 1
logis 1
déposé 1
Helsinki 1
abside 1
tia 0.6665804801155649
vesti@@ 1
ier@@ 0.5675181900314359
faillite 1
CH@@ 1
Margaret 0.6720387945857259
témoignent 1
1832 0.9728162182408459
Grand@@ 1
Philip 0.6047714168388296
gagnant 1
contrainte 1
algérien 1
connaissent 1
siens 1
ó 0.09283902997989849
amén@@ 1
Ain 1
accordé 1
istan 1
Guer@@ 1
molécules 1
gravement 1
norvégien 1
évalu@@ 1
fas@@ 1
chanter 1
désir@@ 1
hébreu 1
maîtresse 1
fê@@ 1
agriculteurs 1
lag@@ 0.7547974270975181
temples 1
aiss@@ 1
juridiques 1
uk@@ 0.5136998580523446
coupable 1
délic@@ 1
lera 1
mant 1
Mazovie 1
Gênes 1
ini@@ 1
alisant 1
mier 1
méth@@ 1
oubli@@ 1
four 0.057425050097514745
RI@@ 1
développent 1
pi 1
box 0.4494610480405239
prendra 1
disparaître 1
gran@@ 1
An 0.11356923806471639
nour@@ 1
.com 0.6198868054839157
Nigeria 0.7940566093130664
peloton 1
Fred 0.8676651465856087
québécoise 1
investissements 1
reconstruite 1
autés 1
façades 1
Hermann 0.6414695062832367
Station 0.2660562498106588
Slovaquie 1
Liverpool 0.6610884198959
raf@@ 1
vraie 1
écrivit 1
sign@@ 1
pent@@ 1
relatives 1
Internationale 1
Janeiro 1
ize 0.7849671291805328
Pey@@ 1
USA 0.2064064083235787
dépend@@ 1
occidentaux 1
97 0.5793770700020119
odi@@ 1
approuvé 1
Voie 1
flu@@ 1
ę@@ 1
Création 1
TF1 1
diffus@@ 1
hôpitaux 1
dénombr@@ 1
chers 1
dessin@@ 1
plainte 1
transmis 1
cir@@ 1
mesurer 1
trou 1
burg 0.3363760058175728
ón 0.20072913126420924
assassin@@ 1
portugaise 1
Match 1
Mission 0.6823804727733594
catastrophe 1
Églises 1
TER 1
module 1
Hon@@ 0.9180966149019055
Houston 0.5822110071465926
éthique 1
Bern@@ 1
ajout 1
Raoul 1
disputée 1
reven@@ 1
Google 0.751890259483901
Neuve 1
Magdalena 1
pauvre 1
Grecs 1
astronomique 1
particip@@ 1
ballon 1
din@@ 0.8139436629105073
effondrement 1
Uruguay 0.8509364632415944
fabri@@ 1
NASA 1
animateur 1
bombardements 1
nœuds 1
provo@@ 1
judiciaires 1
spécialisés 1
tutelle 1
Soci@@ 1
aluminium 1
incendi@@ 1
suspendu 1
xi@@ 1
Met@@ 0.6740165601033319
inal 1
Roc@@ 1
Utilisation 1
rus@@ 1
loge 1
syndrome 1
thé 1
banc 1
ock 0.6130077084640473
échappe 1
retourn@@ 1
allong@@ 1
Stadium 0.39819015945762404
pollu@@ 1
révision 1
bier 1
Mous@@ 1
réd@@ 1
terminent 1
chapelles 1
uer 1
Esprit 1
apogée 1
domestique 1
évacu@@ 1
gi 1
galeries 1
ignes 1
entreten@@ 1
pentes 1
Géologie 1
intern@@ 1
méridionale 1
tes@@ 1
1836 0.9187390461381082
Islande 1
quinzaine 1
coque 1
découpage 1
éry 1
Louisiane 1
ares 0.6229386239543466
vies 1
diplomate 1
médiéval 1
riers 1
vus 1
votes 0.4439102302177299
Pay@@ 1
réci@@ 1
Devant 1
obé@@ 1
sociologie 1
ense@@ 1
nationalistes 1
olles 1
RD 1
inhum@@ 1
Julie 1
demandes 1
illustré 1
pattes 1
oz@@ 0.6963840501108518
grecs 1
1833 1
ouer 1
Ross 0.6686729324189538
occitan 1
effectuées 1
gros@@ 1
prestigieux 1
Bak@@ 0.9634077250261823
Eure 1
demandant 1
liers 1
rech@@ 1
auxquelles 1
récompenses 1
Web 1
ref@@ 1
consécutive 1
romane 1
temporaire 1
constru@@ 1
ô 1
admir@@ 1
oro 0.48051287402555803
Tir@@ 1
hasard 1
surve@@ 1
CC@@ 1
Nag@@ 0.7611494874334587
grandi 1
franchir 1
étendu 1
cherch@@ 1
Seuls 1
émet 1
dues 1
confi@@ 1
Gas@@ 0.7224808054582244
concepts 1
urban@@ 1
amoureuse 1
PA 0.6599978746428742
Lettres 1
drogue 1
normalement 1
souffre 1
boucle 1
1841 0.9218457940516722
Shanghai 1
Nan@@ 1
fusionne 1
détruits 1
enchaî@@ 1
romaines 1
obligé 1
ichi 1
apport 1
Andr@@ 1
1835 0.9061625570768043
séparé 1
sonore 1
manger 1
red@@ 0.7971929105741001
arrê@@ 1
ann 0.7504550124487116
2,5 1
parution 1
romantique 1
chrom@@ 1
adj@@ 1
carrés 1
effectués 1
ouvr@@ 1
pé 1
Georg 0.43774862521486785
innovation 1
ïde 1
Jur@@ 1
déplacements 1
plaisir 1
ino@@ 1
concurrents 1
pron@@ 1
sortes 1
barrages 1
suiv@@ 1
appuy@@ 1
exposée 1
équi@@ 1
Protection 1
signification 1
Cher@@ 1
académique 1
réserv@@ 1
distinctes 1
10.@@ 0.9064950698376698
Masters 0.9185942224034986
modifiée 1
assimil@@ 1
baptis@@ 1
retrouvés 1
latérales 1
ish 0.2286874732309709
assurant 1
pilot@@ 1
tromp@@ 1
lu 1
positive 0.3432558148025677
quadr@@ 1
Lanc@@ 1
manipul@@ 1
Ryan 0.6561910278984531
raffin@@ 1
Initialement 1
marge 1
Hav@@ 1
affect@@ 1
reprenant 1
Ville@@ 1
suisses 1
circul@@ 1
dale 0.7483604456477567
interven@@ 1
ast 0.45483965485700467
Bowl 0.6235254424924518
Couronne 1
astiques 1
vitraux 1
apparemment 1
licenci@@ 1
régiments 1
appris 1
départementaux 1
Studios 0.5527464100668926
occup@@ 1
partagent 1
anisme 1
Enfance 1
hétéro@@ 1
mécaniques 1
tombeau 1
alla 1
hésit@@ 1
vint 1
appliquée 1
Singapour 1
attentats 1
Syn@@ 1
comtés 1
critiqué 1
obtenant 1
Malaisie 1
sax@@ 1
mobilisation 1
times 0.1344563945898538
Bré@@ 1
Vancouver 0.8299433489486902
aînée 1
ker@@ 0.40511721737618545
proclam@@ 1
Observatoire 1
essaie 1
tenus 1
étern@@ 1
mous@@ 1
cratère 1
ire@@ 1
voler 1
tissus 1
firme 1
Loiret 1
Bonn@@ 1
remporta 1
side 0.08184300840247588
déclar@@ 1
tois 1
hôtels 1
dispos@@ 1
Bar 0.8694449012493861
igues 1
mani@@ 1
sam@@ 0.9007543014915548
domestiques 1
fondations 1
sexuel 1
accél@@ 1
Analyse 1
minorité 1
annexe 1
rédige 1
Andy 0.8124936071642412
duit 1
Dordogne 1
94 0.5802197310066928
déclarant 1
mythe 1
censure 1
Zone 0.7750139496668499
eli@@ 0.9796433231949216
ke@@ 0.5657566203742838
isi 1
éro 1
jan@@ 1
dénommée 1
géométrie 1
épar@@ 1
tradu@@ 1
Roman 0.17807088458138223
bénéficier 1
distingu@@ 1
exigences 1
architectural 1
eth@@ 0.7303481048711401
mess@@ 1
Vendée 1
condamnation 1
supprim@@ 1
ajoutant 1
invers@@ 1
radar 1
secrète 1
Kom@@ 0.45285233577263057
Apple 0.734028458568686
publia 1
éditeurs 1
Salvador 0.8115988732276953
fique 1
ologies 1
unis 1
laissent 1
uy@@ 1
cinquantaine 1
manager 0.2685444550282456
eni 1
ath 0.46538194304869024
Éthiopie 1
entités 1
travaill@@ 1
Song 0.34376723185299685
colon@@ 1
conformément 1
neuse 1
fabriqué 1
agées 1
bassiste 1
Habitat 1
Mour@@ 1
pera 1
rentrée 1
chevaliers 1
coc@@ 1
poussée 1
décalage 1
hivern@@ 1
dose 1
bir@@ 1
offrent 1
tric@@ 1
nig@@ 1
susceptibles 1
symptômes 1
entiers 1
relégué 1
extraits 1
méditerranéen 1
océ@@ 1
1806 0.9882652572132
corde 1
éto@@ 1
WWE 0.9165033640764475
kilomètre 1
land@@ 0.4129558321206083
échang@@ 1
restaurants 1
Arnaud 1
fol@@ 1
publiquement 1
élarg@@ 1
1842 0.8811388279519475
compos@@ 1
résidents 1
Esc@@ 1
sais 1
Caire 1
conclusion 1
vastes 1
dessiné 1
détroit 1
Chef 1
NE@@ 1
rance 1
chauff@@ 1
ône 1
Tourisme 1
revers 1
RA 0.9687164587790608
convient 1
sélectionneur 1
théor@@ 1
cle 1
1839 0.9005654964005628
God@@ 1
traversant 1
Mut@@ 0.9082773309090182
RE@@ 0.9649998213015153
résidant 1
bact@@ 1
cessé 1
discussions 1
Distinctions 1
antérieure 1
Lucas 0.9875697375776544
aissant 1
Main 0.37435437642253266
constructeurs 1
Trinité 1
Rav@@ 1
ments 0.4880892232755121
FI@@ 0.9586778726077703
Bad 0.42647724444754254
Matt 0.7437367681922841
dir 0.6672943067845788
équival@@ 1
inondations 1
marines 1
enquêtes 1
Bohême 1
Ludwig 0.4242321784083643
phonie 1
suffit 1
ailier 1
ogr@@ 1
onnet 1
master 0.3150737824780087
bits 1
diplomatiques 1
gan@@ 0.8892372324115635
établis 1
recrut@@ 1
atisation 1
iko 0.8943703846500675
laine 1
parvenir 1
Détroit 1
électroniques 1
lune 1
inscrivant 1
pris@@ 1
Ki@@ 0.6045419503965915
latéral 1
magnétique 1
1843 0.9147578067599753
Ran@@ 0.7273124110450944
cache 1
remp@@ 1
intercommunale 1
Tel@@ 0.6355402636895551
1834 0.9257031204096163
atte@@ 1
auront 1
sci@@ 1
asa 0.6555247824406241
offert 1
qualifiées 1
escadron 1
Taïwan 1
Flam@@ 1
oblast 1
onnements 1
évêché 1
locomotives 1
coiff@@ 1
rivalité 1
réc@@ 1
Near 1
délai 1
Our@@ 1
claire 1
Fro@@ 1
Louvain 1
consac@@ 1
envergure 1
accompagner 1
amélior@@ 1
serie 0.1881431571416663
immobilier 1
Hab@@ 1
cens@@ 1
moral 0.9379824537121717
collaborateurs 1
possessions 1
roumain 1
iler 0.7106680533119282
Moore 0.5801936111846214
AP@@ 0.8571023054663635
Seigneur 1
exceptionnelle 1
réaliste 1
Jason 0.796029852894543
fantastique 1
sélectionnés 1
sey 0.8559352989422612
Harvard 0.5704055492376602
new 0.03320641054764148
tron 1
successifs 1
lourdes 1
décid@@ 1
ouche 1
van@@ 1
commun@@ 1
entielle 1
successives 1
Ange 1
Blan@@ 1
plastique 1
ef 1
prouver 1
diagnostic 1
destin 1
bulgare 1
12@@ 0.5348614825069721
avocats 1
Thor@@ 1
livré 1
conte 1
argentin 1
ado@@ 1
Indre 1
gravure 1
natation 1
vain 1
Fonds 1
engag@@ 1
soulèvement 1
Tim 0.7115681880499634
ost 1
rig@@ 1
Stone 0.49437625376405936
mond 1
Gab@@ 1
Travaux 1
Comics 0.862331426404959
14@@ 0.6560057817081115
subir 1
ammes 1
divise 1
reti@@ 1
rejo@@ 1
trouvaient 1
Frères 1
voulant 1
relier 1
Étoile 1
Galerie 1
OTAN 1
States 0.04751439014983891
Abbaye 1
clandest@@ 1
prosp@@ 1
1838 0.8688464229099291
accept@@ 1
ange@@ 1
Mohammed 1
attribu@@ 1
coupes 1
fréquentation 1
maj@@ 1
parue 1
Seul 1
phén@@ 1
Ibn 1
accusations 1
vo 0.8475511383998652
Temps 1
châ@@ 1
Russes 1
patri@@ 1
Gironde 1
Indien 1
bâton 1
ben@@ 0.4545463192555932
maçonnerie 1
timbres 1
1844 0.8605741505700991
appartements 1
lot@@ 1
traî@@ 1
Leg@@ 0.76280607047293
plur@@ 1
estimations 1
bonus 1
documentaires 1
RS 1
épo@@ 1
début@@ 1
détec@@ 1
Brun@@ 1
traitements 1
Rochelle 1
créations 1
renom@@ 1
agés 1
indu@@ 1
plafond 1
prolonge 1
err@@ 0.5259075198807908
ian 0.3185497993669751
silence 1
long@@ 1
commentaires 1
dépasser 1
cantonal 1
rectangulaire 1
renouvellement 1
législatif 1
var@@ 0.8851441011341684
Om@@ 1
sphère 1
Kab@@ 1
Bilan 1
Dro@@ 1
billets 1
osité 1
maqu@@ 1
baptisée 1
bactéries 1
Heures 1
timbre 1
ver 0.35939210336456806
mans 1
messages 1
Walt 1
nav@@ 1
ão 1
disposant 1
reconnus 1
télévis@@ 1
los@@ 1
aig@@ 1
Américain 1
Territoire 1
oma 0.5413924325991913
Leb@@ 1
abat@@ 1
Las@@ 1
armoiries 1
conven@@ 1
Dave 0.6957056143564296
Nobel 1
devance 1
Berg@@ 0.3911739340831091
Europa 0.22702661488571765
sérieux 1
DS 0.9400361164081671
Jupiter 1
intrigue 1
aéronautique 1
Res@@ 0.6447149473999483
italiennes 1
Ja@@ 1
quette 1
usement 1
funéraire 1
conservées 1
fine 0.6539586500404245
Chamb@@ 1
religions 1
mécanismes 1
neutre 1
poin@@ 1
démonstration 1
roue 1
orie 1
suppos@@ 1
vil@@ 1
ema 0.6764245497785663
aspir@@ 1
Ball@@ 0.7118308755720653
copies 0.5540051010257555
cer 1
Wi@@ 0.7167564315029772
grim@@ 1
trouvés 1
homonyme 1
plats 1
ménage 1
algorithme 1
gen 0.3029281233603967
occidentales 1
asiatique 1
indiens 1
confirmée 1
Mach@@ 1
poétique 1
fur 1
ench@@ 1
sonde 1
extraordinaire 1
royaumes 1
Go 0.6434334622042454
reliques 1
Emma 1
extr@@ 0.9391484257290522
alpin 1
voul@@ 1
erne 1
perception 1
poursuivi 1
identiques 1
vor@@ 0.15967434823892923
coupé 1
pneum@@ 1
emprisonné 1
Adrien 1
13@@ 0.6008358388320949
Cercle 1
inhabit@@ 1
CE 0.8218810674850763
contributions 0.7310040514945899
Rot@@ 0.5778344355106102
mit@@ 0.4011965403122078
rab@@ 1
Raphaël 1
basées 1
èdent 1
ingénierie 1
rat 0.4769635163661793
Chypre 1
demandent 1
devra 1
qualific@@ 1
cio 0.858750187325968
Forêt 1
jugés 1
odes 1
clôture 1
visites 1
cho 0.07389350352468872
Ottawa 1
olog@@ 1
précieux 1
anga 0.8882625573517868
isol@@ 1
quantités 1
accord@@ 1
Pos@@ 0.9471314093752633
relâ@@ 1
cérémonies 1
eo 0.44938046804112575
parallèlement 1
escence 1
fri@@ 1
Mr 1
spirituel 1
temporairement 1
déploy@@ 1
explication 1
associées 1
elier 1
Séville 1
apprécié 1
eint 1
Hervé 1
appartenance 1
apporté 1
fra@@ 1
lio 1
fichiers 1
angles 1
ij@@ 1
my 0.2556140816023899
menaces 1
disposait 1
mel@@ 0.3946453606274593
Fribourg 1
XII 0.8716080499313
1810 0.9497857623467845
Cit@@ 1
supervis@@ 1
Hum@@ 0.789660084956437
balles 1
variation 1
Seg@@ 0.8986494451093614
finissent 1
comics 1
na@@ 1
Ariège 1
survécu 1
significative 1
distribué 1
Ten@@ 0.7465704914474962
douleur 1
trom@@ 1
fient 1
with 0.004160727602190752
phil@@ 1
servait 1
Celles 1
cru@@ 1
embau@@ 1
uc 1
valent 1
joua 1
travée 1
céder 1
bombar@@ 1
controverse 1
lauréat 1
reconn@@ 1
chevet 1
debout 1
rembour@@ 1
restauré 1
muet 1
confis@@ 1
Vid@@ 1
pratiquer 1
dil@@ 0.8811903670654242
creus@@ 1
vie@@ 1
particulières 1
Rangers 0.8604442843440616
chêne 1
mathématique 1
Fernand 1
impératrice 1
News 0.32049403523600645
vigne 1
apparue 1
connexion 1
amphibiens 1
Mun@@ 0.6714182534511316
sigle 1
Asteroid 1
dict@@ 1
ka@@ 1
Ass@@ 1
ist 0.010547954096602944
passées 1
provoquant 1
élimin@@ 1
gravité 1
proposant 1
nag@@ 1
écoule 1
chanteurs 1
juives 1
acquise 1
étal@@ 1
sortis 1
faces 1
introduite 1
mensuel 1
renonce 1
attribuer 1
ceaux 1
dres 1
ouvrière 1
Duc@@ 1
Sak@@ 1
Angoulême 1
Conception 1
Vend@@ 1
Recherche 1
réalisme 1
régulières 1
ieuse 1
parlant 1
PlayStation 0.9181120173139499
jouait 1
feld 0.4261918571901383
global 0.44347253048396573
m&apos; 1
épouser 1
fonctionner 1
responsabilités 1
show 0.08200508685088083
sive 0.6334709514613533
Kelly 0.6321220705744724
fond@@ 1
Droit 1
harmonie 1
pre@@ 0.15492235600122056
exploité 1
attendant 1
poudre 1
combiné 1
comb@@ 1
mers 1
terie 1
tières 1
vement 1
RT@@ 1
parlent 1
Castel@@ 1
contes 1
posthume 1
chapitres 1
Copenhague 1
Co 0.3774718457424102
Hi@@ 0.958602301034977
mobilité 1
opposants 1
discussion 1
Publications 1
conducteur 1
entretient 1
géologique 1
exemplaire 1
Mercedes 1
solidarité 1
végét@@ 1
Jun@@ 1
spécifiquement 1
Night 0.4032829829343598
neur 1
Wol@@ 0.6525595295936221
Franklin 0.6539930890603305
enseigner 1
missionnaires 1
még@@ 1
issance 1
enregistrés 1
suffisant 1
mentionnée 1
sous@@ 1
immédiate 1
rendue 1
dépour@@ 1
explic@@ 1
inscrire 1
Appar@@ 1
porteurs 1
Chelem 1
écologie 1
remontent 1
astre 1
technologique 1
tz 0.9652661874841901
jonction 1
Panama 1
Avenue 0.3255916070216537
recens@@ 1
ordinateurs 1
Gén@@ 1
coïn@@ 1
pluies 1
divor@@ 1
rachat 1
automobiles 1
laï@@ 1
Tribunal 1
matériels 1
Grant 0.6502365636261801
ern@@ 0.4926931125936403
15@@ 0.6219415242704542
onnaise 1
roc@@ 1
calme 1
loise 1
déplo@@ 1
Melbourne 0.45069799739747995
Wa@@ 0.8007874674307742
hérite 1
mathématicien 1
réparation 1
ran 0.20442153575075483
exécut@@ 1
féministe 1
succédé 1
cercles 1
C.@@ 0.8634186939622088
associ@@ 1
peste 1
sauv@@ 1
130 0.6223231107958521
Mississippi 0.5908551858945247
ej@@ 0.7074005266319379
itant 1
Stuart 0.9895021766617565
existé 1
Challenge 0.7873544029525286
télévisées 1
blement 1
arcades 1
nin 0.27111351986144794
accompagn@@ 1
console 1
acle 1
esprits 1
NFL 0.4591770840527079
supprimé 1
Structure 1
toir 1
attest@@ 1
ort 0.5716374325055881
Et@@ 1
S.@@ 0.7788008427377936
pens@@ 1
Antilles 1
parlé 1
réglementation 1
A.@@ 0.7656084817204648
éventu@@ 1
ît 1
alcool@@ 1
finlandais 1
globalement 1
séparée 1
Sir@@ 0.9575166205138513
servit 1
Postérité 1
complot 1
hospit@@ 1
contre@@ 1
coordination 1
grès 1
Centrale 1
als@@ 1
satis@@ 1
gas@@ 1
gravures 1
Prom@@ 1
potable 1
intermédiaires 1
randonnée 1
prouve 1
soie 1
arrêts 1
cross 0.33958849404940367
dication 1
Clo@@ 1
couples 0.9186268774820076
ibn 0.9624973733247824
croissante 1
originales 1
étaires 1
désignant 1
traction 1
tél@@ 1
horreur 1
Village 0.5794088186378834
envoyée 1
23@@ 0.579588469097859
antérieures 1
rachète 1
gain 0.6228267775682809
aç@@ 1
It@@ 1
cord@@ 1
navig@@ 1
atterrissage 1
instant 1
Canadiens 1
noces 1
récompensé 1
avènement 1
priorité 1
modernisation 1
Tchécoslovaquie 1
déclen@@ 1
réservée 1
Saints 1
ames 1
Rh@@ 1
series 0.04758352427836967
Indiana 0.45099576320807183
amende 1
feu@@ 1
disposer 1
escorte 1
document@@ 1
Aucune 1
Cleveland 0.6287406856988779
Directeur 1
opposer 1
Rus@@ 0.8070238031159791
Pietro 1
solid@@ 1
souverains 1
transférée 1
Ép@@ 1
écou@@ 1
oto 0.8214000229661168
sangu@@ 1
audio 0.8483888251838488
uer@@ 1
normal 0.4333895953688229
asi@@ 0.9430654947913263
éenne 1
concernent 1
sson 0.9646334930202469
obus 1
panneau 1
orbit@@ 1
évacuation 1
contreb@@ 1
Léonard 1
artis@@ 1
brève 1
ives 1
joués 1
Commonwealth 0.5810280818341131
déplace 1
imaginaire 1
Turcs 1
colonial 0.5889745161741476
plume 1
rebonds 1
sensibilité 1
Dum@@ 1
Line 0.25000207632584764
ack 0.45708797214943353
Math@@ 1
extinction 1
pions 1
ancé 1
nazie 1
foc@@ 1
not 0.01621549311785134
usages 1
fabricant 1
Berry 1
Lig@@ 0.91836497578456
bordée 1
handicap@@ 1
Wo@@ 0.7612803751172474
évaluer 1
contenir 1
Jazz 0.5307130250215623
tir@@ 1
apparente 1
ense 0.4509607214360313
pédagogique 1
perfec@@ 1
Roberto 0.9820524640765272
formul@@ 1
ú@@ 0.7058153449585588
bouddhisme 1
protéine 1
tox@@ 1
Aud@@ 1
aut@@ 0.8167452926142654
herbe 1
int 1
piét@@ 1
crête 1
donnés 1
dépl@@ 1
exposés 1
mesurent 1
voû@@ 1
film@@ 1
résistant 1
teaux 1
anda 0.6769807944902253
précon@@ 1
Jeff 0.7699783701901661
Jr 0.4319934734892094
Équateur 1
carrefour 1
confluence 1
usions 1
otr@@ 1
ji@@ 1
récup@@ 1
viers 1
Games 0.20586468840883132
bonheur 1
partition 1
accusation 1
mètre 1
renoncer 1
Franck 1
ip@@ 0.6596244748794249
constitués 1
Bér@@ 1
idence 1
vaincu 1
Transport 0.5931462250714435
considérant 1
Autour 1
codes 1
séparées 1
pleinement 1
ington 0.47878067688785125
sacrée 1
XV@@ 1
périmètre 1
arrêtée 1
libertés 1
gou@@ 1
mensu@@ 1
Edgar 1
Déc@@ 1
réparti@@ 1
mati@@ 1
vive 1
annoncent 1
onia 0.5896339451834048
envisage 1
réfugi@@ 1
Marvel 0.8877216109913258
das 0.011050729315534986
consol@@ 1
onienne 1
AI@@ 1
ă@@ 0.8264363985169546
crimin@@ 1
cules 1
Époque 1
Plat@@ 0.7558754884853877
Hesse 1
mandats 1
champignons 1
Mér@@ 1
Restauration 1
agences 1
interface 1
nazi 1
17@@ 0.6645626353053009
igner 1
LO@@ 1
sentier 1
rabbin 1
Environnement 1
MA 0.6879737555008728
articul@@ 1
Win@@ 0.5757054895922926
Guyane 1
déterminé 1
comique 1
situent 1
œuf 1
Dragon 1
arti@@ 1
enses 1
lâ@@ 1
tempor@@ 1
connut 1
suffrage 1
conse@@ 1
converti 1
prol@@ 1
exceptionnel 1
Anton 0.7465166793370932
placées 1
rais@@ 1
Salomon 1
abr@@ 0.8575684098852627
utiles 1
Sub@@ 0.340610308153185
Gold 0.3385442303605454
hôtes 1
Adolf 0.7069305362739539
députée 1
afro 1
philosophique 1
RN 1
oncé 1
Environ 1
accidents 1
sév@@ 1
bref 1
bal 1
illustrations 1
san@@ 0.4095675474245757
appuyant 1
répand@@ 1
AT 0.7944863513755611
prestation 1
réalisant 1
Jordan 0.600554444670228
IC@@ 0.692958064631383
grandeur 1
recruté 1
spontan@@ 1
prolongation 1
célébrer 1
compléter 1
Kent 0.6424261045574116
diminue 1
fleur@@ 1
égyp@@ 1
Sag@@ 1
vivait 1
bataillons 1
ops 0.8637177712730311
arcs 1
devise 1
mê@@ 1
signific@@ 1
tari@@ 1
basés 1
Namur 1
consacrés 1
emparer 1
ein 0.012828032468730443
thiques 1
ducs 1
30@@ 0.5973128920466954
geste 1
tine 1
atie 1
lyonnais 1
bord@@ 1
4,@@ 0.5377552344138629
diminuer 1
icule 1
séparer 1
Suzanne 1
tribunaux 1
dol@@ 0.9529221095064494
ballet 1
libérale 1
sanitaire 1
bu 0.183270703474498
prochaine 1
rique 1
célébr@@ 1
pêcheurs 1
suppose 1
bless@@ 1
bénéfici@@ 1
Baie 1
intim@@ 1
réform@@ 1
Commun@@ 1
adhère 1
triomphe 1
attend 0.7015236841034398
Nommé 1
icul@@ 1
fixée 1
alle 0.14869411273156033
implication 1
issé 1
kine 1
zon@@ 1
imposé 1
Boy 0.6109935995167936
Réforme 1
Master 0.3637965772399006
ag 0.6651702429661323
Rosa 0.7898112002597885
sexuelles 1
Arnold 0.7997645454204915
extérieures 1
Clar@@ 1
géographiques 1
hr@@ 0.5357333379889236
inn@@ 0.5902376195087964
margin@@ 1
Iowa 0.4859979774941207
SO@@ 0.8356249354262135
Shi@@ 0.7558114905039534
bourgeoisie 1
halte 1
réunir 1
terait 1
CF 1
RA@@ 0.9262192262515883
dél@@ 1
gérant 1
compéti@@ 1
Kl@@ 0.5009100140967816
fût 1
localisation 1
allée 1
flèche 1
systématique 1
Aéroport 1
Vass@@ 1
èbres 1
Ian 0.7824514673761583
foncé 1
éran@@ 1
Murray 0.6507219350338609
interpr@@ 1
slalom 1
vieill@@ 1
attiré 1
mix@@ 1
subsist@@ 1
vicaire 1
expres@@ 1
perç@@ 1
èze 1
confirm@@ 1
ken 0.19485163451938572
batteries 1
bén@@ 1
rappeur 1
ido 0.2988701764092249
net@@ 1
autrement 1
hop 0.8944874851374122
tabac 1
insist@@ 1
librement 1
ye@@ 0.888895291121548
Palé@@ 1
pensent 1
tenaient 1
délégués 1
dégrad@@ 1
sou 1
niens 1
nécessairement 1
Tennessee 0.45006317065723095
Commerce 1
Media 0.280804584698998
constat@@ 1
mondiales 1
noté 1
ras 1
rat@@ 1
voté 1
draft 0.5772666730089188
consécutives 1
ín 0.4319656233354253
intensi@@ 1
féminines 1
recteur 1
amine 1
éditée 1
assemb@@ 1
aménagements 1
Med@@ 0.5801812575202067
Bach@@ 1
alar@@ 0.8194430868259116
alias 1
intellectuelle 1
Lot@@ 1
asses 1
forestière 1
onnage 1
Chartres 1
lais 1
lit@@ 0.7817846218033263
caractérisé 1
lancent 1
esthé@@ 1
py@@ 1
Ky@@ 0.8461944533008802
récents 1
profiter 1
usa 0.6204876276816848
entin 1
masque 1
Power 0.40324917774940344
Caraïbes 1
symphonique 1
ajou@@ 1
fun@@ 1
ègue 1
Dunkerque 1
assum@@ 1
demanda 1
Mit@@ 0.38029008866629727
détermination 1
house 0.08636151074395049
métall@@ 1
dominé 1
SN@@ 1
composer 0.5517808089146063
intérim 1
flan@@ 1
japonaises 1
popular@@ 1
eine 0.013150099370493551
Compétition 1
dissous 1
pure 1
vol. 1
Sécurité 1
affin@@ 1
finance 1
élévation 1
invo@@ 1
synonyme 1
location 0.2343437370657091
Inter 1
heur@@ 1
roy 1
Jardin 1
physi@@ 1
sus 0.03988283148815352
bétail 1
expédi@@ 1
tré 1
étrang@@ 1
inaire 1
diesel 1
taur@@ 1
bau@@ 0.45078277424343943
composant 1
ATP 0.8672967106835184
Hen@@ 0.8303157556333904
anci@@ 1
iture 1
Pet@@ 0.885438864658488
constamment 1
notation 1
peupl@@ 1
prestige 1
çu 1
habil@@ 1
enseigné 1
lers 0.2991765310199563
point@@ 1
tér@@ 1
04 0.5332806682714972
illère 1
vagues 1
Écologie 1
graveur 1
spirituelle 1
Luigi 1
exige 1
obligations 1
quier 1
arbustive 1
dera 1
défenseurs 1
Arn@@ 1
compromis 1
old 0.08193411408534675
Bach 0.754120313410323
persu@@ 1
renseignements 1
sives 1
pros@@ 1
Robinson 0.6523658635995943
Forum 1
Ostr@@ 1
Pen 1
Bra@@ 1
Lionel 1
any 0.0637678357008043
rénov@@ 1
rapproch@@ 1
exécuter 1
complexité 1
olle 1
afflu@@ 1
Ash@@ 0.5996523949659344
Sierra 0.58574814923243
affirmé 1
blues 1
Libye 1
croiseur 1
diffusés 1
neux 1
patrouille 1
portion 0.46096388003470773
abord@@ 1
organis@@ 1
parking 1
Fri@@ 0.9966424555001152
ahi 1
Hay@@ 0.7651699649787955
Lion 1
dus 1
cohér@@ 1
expert 1
visions 1
Carter 0.6620806715430667
hauteurs 1
monétaire 1
vérifier 1
SK 1
~ 0.9591165500494597
Major 0.2783089298268183
Source 1
Aveyron 1
aliments 1
invitation 1
cell@@ 1
guér@@ 1
maintenu 1
desservi 1
ray 0.755607787677852
Ari@@ 1
CO 0.9277521989469445
prochain 1
polyn@@ 1
way 0.07650378663965401
sonne 1
Great 0.16430961514193385
intr@@ 1
réorganisation 1
06 0.5387642154878953
marketing 0.8245431519208505
interdite 1
tz@@ 1
ista 0.27711654731974816
fi 1
scolarité 1
ania 0.7074532879016086
hypothèses 1
intéressant 1
poules 1
conservatoire 1
doyen 1
fausse 1
indicateur 1
lim@@ 0.8998937605009564
opér@@ 1
1824 0.9383042281572231
suscite 1
rapprocher 1
Montagne 1
entaires 1
vê@@ 1
sémin@@ 1
1825 0.8893945788190132
récent 1
Sarkozy 1
renvoy@@ 1
Oliver 0.6916252714246989
maturité 1
aborde 1
individu@@ 1
entrepris 1
fabriquer 1
plaçant 1
suff@@ 1
MS 0.6098366467210965
const@@ 1
Beaumont 1
lentement 1
Petr@@ 0.8888827720756122
· 0.05234414972440122
Biélorussie 1
ś@@ 1
R.@@ 0.9825861659125386
artificielle 1
diffuser 1
acoustique 1
coton 1
journalisme 1
Chan@@ 1
alerte 1
aisons 1
cristall@@ 1
espi@@ 1
alière 1
musulman 1
istr@@ 1
collaboré 1
1802 1
celtique 1
endommagé 1
fondent 1
Best 0.15846300793263157
bulle 1
aie 1
chement 1
empris@@ 1
regroupement 1
ū@@ 0.782827228901682
ble@@ 1
ult@@ 1
Corn@@ 1
plages 1
attaquent 1
Poly@@ 0.8121788250932264
sélec@@ 1
Ast@@ 1
légendes 1
mac 1
Marcus 1
Verdun 1
actives 1
textile 1
impliquant 1
ters 0.22425512799911473
Gary 0.6999635143309997
animée 1
Période 1
Soudan 1
arri@@ 1
Dau@@ 1
itation 1
moulins 1
opérateurs 1
organisent 1
ting 0.11207612367568064
Isle 1
vi 0.5719196561961709
purement 1
Kenya 0.8680534809325409
opère 1
gien 1
créa 1
magie 1
accordée 1
détriment 1
mir@@ 1
tib@@ 1
violents 1
dépose 1
étroitement 1
march@@ 1
1803 0.9344046031542079
ignée 1
inale 1
directive 1
duel 1
camarades 1
clav@@ 1
itée 1
ović 1
jaunes 1
Bog@@ 0.8893802715720419
Steven 0.9093982825804974
cuir 1
pâte 1
Ton@@ 0.5645143372589785
disent 1
graph@@ 1
bénéfice 1
chroniques 1
iri 0.8201433992207722
légumes 1
strictement 1
AD 0.5012097738892753
missile 1
résistants 1
Glasgow 0.6703577968038298
joie 1
élites 1
détachement 1
Carp@@ 1
Rhénanie 1
Cruz 0.4649566726719026
WTA 1
giens 1
det 1
roman@@ 1
YouTube 0.5711329672181717
vif 1
restitu@@ 1
élaboré 1
icus 0.9225984744382784
prêts 1
exister 1
confier 1
fér@@ 1
05 0.49990368267208923
Emploi 1
iki 0.33638438891027633
ukrainien 1
util@@ 1
comportements 1
extérieurs 1
maïs 1
intégrale 1
liber@@ 0.6260561478283548
arrondissements 1
Hat@@ 0.8384559421413651
conçus 1
carrières 1
rapporté 1
Haïti 1
avancées 1
couv@@ 1
coin 1
crâne 1
Renaud 1
Square 0.48630968957897175
Trump 0.6153455806662
Chinois 1
lanc@@ 1
revi@@ 1
détection 1
souterrain 1
traductions 1
archidiocèse 1
Warner 0.6374166598564958
sélectionn@@ 1
chirurgie 1
ES 1
Press 0.3868839847789375
originaux 1
Tit@@ 1
mod@@ 1
ogène 1
olithique 1
dessinées 1
éno@@ 1
recouvert 1
violent 0.9704767593558036
fromage 1
fusée 1
jus 1
Lom@@ 1
intéressé 1
mutation 1
tactique 1
caisse 1
comparable 1
exposées 1
iss 0.9780447461559248
Champs 1
alisations 1
autorisés 1
Police 0.3698442648002811
Haye 1
PK 1
pole 1
1808 0.9722660083694236
onzième 1
sentir 1
Ath@@ 1
adolescents 1
partisan 1
Gri@@ 0.9750637267126974
entrepreneur 1
expos@@ 1
Num@@ 1
annexion 1
courage 1
Acc@@ 1
Laura 0.8813675769158408
Concernant 1
égyptien 1
ical 0.1702719123428637
pis@@ 1
ajoutée 1
rain 0.8156016386538892
estiment 1
Adams 0.5863159528412185
dictions 1
planification 1
doc@@ 1
Nicole 1
manœuvre 1
yan 0.5994038946334833
causé 1
Troyes 1
Noir 1
Seattle 0.5888602853507694
Secrétaire 1
exploiter 1
astique 1
spécul@@ 1
inventé 1
mono@@ 1
métrique 1
parfait 1
Pablo 0.656167539206268
prirent 1
descend@@ 1
commerçants 1
3,5 1
nus 1
couvrir 1
grand@@ 1
Marshall 0.6378803299591504
latéraux 1
Blois 1
It 0.013249736895391521
Ras@@ 0.8207033402390792
visiter 1
sex@@ 1
Bac@@ 1
Pac@@ 1
ïque 1
gout@@ 1
touristiques 1
milles 1
parallèles 1
sépar@@ 1
tionner 1
ifi@@ 1
appellent 1
rapprochement 1
conserv@@ 1
polym@@ 1
vera 1
Simone 1
regroupés 1
Kot@@ 0.8040280419261105
Mitterrand 1
alp@@ 1
1813 0.8428178268337835
1828 0.8711163308566946
ïa 1
Étant 1
rurales 1
auch@@ 1
devraient 1
résister 1
Cooper 0.7379488687866165
acien 1
doubles 0.8213406316977789
dy@@ 1
variés 1
Dallas 0.6133265671590995
exploitée 1
idéologie 1
Arles 1
Malheureusement 1
tos 0.4068618356068037
substance 1
autobus 1
acés 1
pratiqué 1
Barry 0.7542229595916792
fal@@ 0.6047505415708143
adhér@@ 1
oc 1
transmettre 1
limitrophe 1
evin 1
facilit@@ 1
DE@@ 0.9518239854902124
médaillé 1
grottes 1
idité 1
infin@@ 1
ario 0.2965286650171202
cic@@ 1
AT@@ 0.7055083445211502
graphes 1
rup@@ 1
Amour 1
assign@@ 1
mes@@ 0.6138326743931536
milliard 1
Blues 0.7111318785687305
Parker 0.7331503651148765
proposés 1
hip 0.5178209835375521
ony@@ 1
parcour@@ 1
sanc@@ 1
gouvernementale 1
vietnam@@ 1
ě@@ 1
abatt@@ 1
dérés 1
pomp@@ 1
Toute 1
côtière 1
eus 0.8570645364059903
Gra@@ 1
hymne 1
projection 1
vac@@ 1
press@@ 1
180 0.6306922343635146
algérienne 1
déclara 1
interventions 1
offres 1
prolongée 1
Lad@@ 0.8959939671421471
financ@@ 1
comédien 1
dissoute 1
nulle 1
tombé 1
carbur@@ 1
protestant 1
Home 0.31662747924891704
pénétr@@ 1
Art@@ 1
intervalle 1
peaux 1
progressive 1
scénar@@ 1
accession 1
jugée 1
tiges 1
gab@@ 1
oises 1
poul@@ 1
remparts 1
humidité 1
sien 1
Til@@ 1
rumeurs 1
voûtes 1
cumul@@ 1
violente 1
Sun@@ 0.6390400446295664
bains 1
remarqué 1
exploit@@ 1
plateaux 1
prématur@@ 1
argent@@ 1
tica 0.5214441007977418
Rod@@ 0.8373224208264475
affirmer 1
ouk 1
conscient 1
réuss@@ 1
passait 1
réels 1
Bob@@ 1
Bassin 1
Syndicat 1
AG 0.3484346454137931
élev@@ 1
Habsbourg 1
canon@@ 1
interaction 1
Indochine 1
abondante 1
tirant 1
candidate 0.30726444695694305
leuse 1
missionnaire 1
profondes 1
améliore 1
lus 1
pension 1
dfn 1
chinoises 1
hospitalier 1
qualifient 1
Java 0.9097593215299212
Kosovo 1
León 0.5635193427230571
cirque 1
costume 1
dre@@ 0.5852867303610264
accorder 1
actu@@ 1
espagnoles 1
stage 0.14616751933486558
Différ@@ 1
Régiment 1
Lawrence 0.541040660741603
desserte 1
boutique 1
restait 1
tal 0.29066554152386254
dot 1
gol@@ 0.9978927536903069
métalliques 1
Has@@ 0.7146843544625774
1821 0.776072222450318
austro 1
gne 1
omé@@ 1
registres 1
ravitaillement 1
Martinique 1
frappé 1
varient 1
Mons 1
abor@@ 1
refusent 1
iennes 1
Baltimore 0.6004325803274939
persist@@ 1
Austin 0.5934390315456809
CNRS 1
déclenchement 1
IS 0.8745395545103438
croissant 1
documentation 1
convaincu 1
Peugeot 1
metteur 1
orale 1
téléspectateurs 1
endi@@ 1
verbe 1
bâtie 1
hip@@ 1
stéré@@ 1
Gos@@ 1
Xi@@ 1
obstacles 1
racheté 1
oxyde 1
1,2 1
conçoit 1
prestations 1
sensibil@@ 1
culaires 1
Style 1
vecteur 1
enseignements 1
Sardaigne 1
ME@@ 0.7399752096914444
Zo@@ 0.8257276440008826
chanoine 1
redou@@ 1
Bade 1
expéditions 1
Européens 1
Univers 1
CS 0.8747907423171155
Reb@@ 0.8323636175927339
Vor@@ 0.14589066741080559
âgés 1
surmonté 1
voc@@ 1
Vénus 1
02 0.5825127955551372
cavaliers 1
class@@ 1
incarc@@ 1
inventeur 1
nordique 1
ono 1
contreforts 1
faction 1
occupés 1
Copa 0.31499296479270766
triangle 1
èles 1
carrée 1
Bolivie 1
otti 1
diff@@ 1
favorise 1
Ann 0.6256229860346071
mérite 1
diques 1
org@@ 1
roch@@ 1
country 0.08645044518288506
démontré 1
opinions 1
Francs 1
probabilité 1
écoute 1
fréquenté 1
relevant 0.955918277595807
Allier 1
ovo 1
statuts 1
Stewart 0.5923793195770972
tile 1
tirent 1
Broadway 0.527396471865786
connec@@ 1
technologiques 1
uri@@ 1
mographie 1
concernés 1
immobili@@ 1
1809 0.9787900716280904
Lut@@ 1
ilier 1
procédures 1
psychi@@ 1
Kit@@ 0.8227548723839022
Staline 1
Geneviève 1
ape 1
1826 0.8944718924921673
assis 1
héroï@@ 1
nièce 1
privilèges 1
signaux 1
Métropole 1
Quin@@ 1
Yo@@ 1
croisement 1
24@@ 0.6494204666311629
opposent 1
Alaska 0.7212984165005174
cim@@ 1
roulant 1
réplique 1
semblables 1
mane 1
solides 1
Lit@@ 0.8317208194319186
hall 0.4319638317050144
renvoie 1
héritière 1
Nation 0.7337915356919885
Us@@ 1
coréenne 1
ial 0.84247309730467
Cho@@ 1
Iz@@ 1
Relations 1
Util@@ 1
hon@@ 0.9711346726555721
1827 0.9704108086566903
cis@@ 1
But@@ 0.9298103673845607
volcan 1
ésie 1
commenc@@ 1
venues 1
emont 1
coulé 1
fondamentale 1
Justin 1
Loup 1
croate 1
1500 0.501020552131147
rappeler 1
adaptés 1
Près 1
solitaire 1
porno@@ 1
dog@@ 1
estin 1
milit@@ 1
rendement 1
Theatre 0.2548664344076772
spécialité 1
v. 0.3214395753176602
torpilles 1
dent@@ 1
collègue 1
consist@@ 1
1829 0.8521802683456178
Construction 0.6562308138339584
fallait 1
maux 1
assurent 1
bibli@@ 1
royales 1
Lens 1
libr@@ 1
bombes 1
Trophée 1
médiatique 1
ą@@ 1
tut@@ 1
zy 1
dégradation 1
itinéraire 1
lements 1
existantes 1
étrange 1
Équi@@ 1
ng@@ 0.44677991731826133
permanence 1
FIFA 0.5114735224188982
The@@ 0.6303385200045644
rel 1
SD@@ 1
dense 1
tardive 1
Harris 0.5378812224349082
Médicis 1
costumes 1
Jay 0.7595869733775944
gendarmerie 1
stock@@ 1
annuellement 1
cycles 1
ethnique 1
Kurt 0.7634084744726668
fichier 1
franchit 1
aller@@ 1
résident 1
âgées 1
abre 1
contrôlée 1
350 0.6587103699193212
Afric@@ 1
ectés 1
épic@@ 1
égide 1
évol@@ 1
Crimée 1
Julia 0.900751029586277
éman@@ 1
limitation 1
pâ@@ 1
Arena 0.556873677436068
Valley 0.21254958914476954
CC 0.7706304725132407
ald 1
avancé 1
atomes 1
continua 1
possé@@ 1
poursuiv@@ 1
Garcia 1
supporters 0.8466700961186276
Andre@@ 1
Post 0.2653172142315588
sévère 1
complément 1
ologiquement 1
ABC 0.49047223228265113
informatiques 1
répandue 1
actionnaires 1
pié@@ 1
fraction 1
kur@@ 0.526136546757235
rétablir 1
trouble 1
incapable 1
plais@@ 1
pouss@@ 1
intendant 1
plongée 1
5,@@ 0.5568037222823665
Rousseau 1
employée 1
familiales 1
Gaule 1
affrontement 1
Chemin 1
101 0.6664065356202662
nica 1
Travail 1
dures 1
héré@@ 1
yon 1
SI@@ 1
sénateurs 1
Creek 0.2460448629849014
excellence 1
écho 1
Sap@@ 1
ambul@@ 1
assainissement 1
Fron@@ 1
teront 1
étiquette 1
dies 0.24813663216378368
intra 1
ury 1
découvrent 1
trouv@@ 1
descendre 1
sommeil 1
1816 0.8748686737250895
nia 0.9102448816794212
tet 0.6086219438250693
vet@@ 1
1807 0.9949561504369316
conquérir 1
Brooklyn 0.6069285152585581
chrétiennes 1
mar 0.3531372748315406
Camp 0.5890697589235827
cé 1
littér@@ 1
allusion 1
maintenance 0.8311758151509093
abou@@ 1
préféré 1
Č@@ 0.9851018783854436
EP@@ 1
itin@@ 1
soumise 1
grains 1
Spéci@@ 1
courrier 1
dialecte 1
venti@@ 1
Jerry 0.8137604392497096
cli@@ 1
toucher 1
EN@@ 1
Ron@@ 1
aérodrome 1
ONG 1
cinéaste 1
dépassé 1
ignore 1
légal 1
érosion 1
entourage 1
chasseur 1
Mon 1
électri@@ 1
tail@@ 1
Sporting 1
bin 0.5034856075705475
Danube 1
armistice 1
exercé 1
icienne 1
convain@@ 1
érable 1
grosses 1
rir 1
ryth@@ 1
Consid@@ 1
Neuf 1
fusionné 1
diminué 1
Pointe 1
fle@@ 0.8614965467896174
arménien 1
mutu@@ 1
raid 1
loup 1
cibles 1
titré 1
Languedoc 1
vieil 1
écrivaine 1
investi 1
ottomane 1
sensibles 1
défait 1
Hur@@ 1
milli@@ 1
Monuments 1
supports 0.864995115238546
tendances 1
coopér@@ 1
définitif 1
disciples 1
légendaire 1
influenc@@ 1
adress@@ 1
ettent 1
préalable 1
Voy@@ 1
instructions 1
obs@@ 1
spectre 1
Agnès 1
Alberta 0.7865022059808537
reviennent 1
botaniste 1
distinctions 1
sim@@ 1
Professeur 1
relatifs 1
spécimens 1
ih@@ 0.6259971089017681
Junior 0.3460725283997693
PL@@ 1
Rafael 0.738468407601629
parent 0.9047515981678543
ématiques 1
èves 1
étaire 1
catalan 1
mannequin 1
dynam@@ 1
igo 1
900 0.5769516479453068
signi@@ 1
atomique 1
jet 1
patriarche 1
grandement 1
Ah@@ 0.7443552947443222
Argent@@ 1
rad@@ 0.8474806790781304
abl@@ 0.9630846932525257
play 0.07405117109921219
quitta 1
dramaturge 1
routière 1
exportation 1
barrière 1
0,0@@ 1
Hôpital 1
ariat 1
ends 0.2696165288530782
ruine 1
douzaine 1
jambes 1
médic@@ 1
27@@ 0.669854545697181
barème 1
préfé@@ 1
sinon 1
platine 1
séances 1
Big@@ 1
historiquement 1
Ardennes 1
négatif 1
Joan 0.8144892300503715
issage 1
cale 1
séquences 1
Bel 1
Lisa 0.9300221067128285
discr@@ 1
sens@@ 1
attendu 1
adolescence 1
prévenir 1
user 0.5661923470142498
enfuit 1
adé 1
techn@@ 1
fibres 1
Mang@@ 0.7670908657001918
Manhattan 0.6684998685026488
spécialisées 1
GT 1
envah@@ 1
gentil@@ 1
permettra 1
Wrestling 0.535536605739176
kab@@ 1
dessine 1
tage 1
analy@@ 0.9748882570800651
arrivant 1
mariages 1
restaurée 1
régulation 1
vécut 1
fru@@ 1
Gall@@ 1
disciple 1
Bet@@ 0.7330393312062975
eman 0.4371033011589914
Fab@@ 1
TA 0.7408890936541178
gorge 1
serveur 1
interpréter 1
africaines 1
p. 1
gence 1
politi@@ 1
précoce 1
surnommée 1
uta 0.754529720185949
Graham 0.6203007601324257
1823 0.9528816140647081
coordonnées 1
Elisabeth 0.7540141147278893
Obj@@ 1
invit@@ 1
compagne 1
dirigés 1
gent 1
Mère 1
meubles 1
psychologique 1
Brabant 1
Genèse 1
monastères 1
IM@@ 0.8443582950185801
Ken@@ 0.7617034775517619
Poméranie 1
prétend 1
fédérales 1
hypo@@ 1
Devenu 1
nit@@ 1
Prim@@ 0.7829799942140369
boulevers@@ 1
ision 1
essayer 1
oine 1
vau@@ 1
Maxime 1
Marche 1
derie 1
citée 1
déroulant 1
plastiques 1
diste 1
repos@@ 1
Atlas 1
Jon@@ 1
criv@@ 1
réfléch@@ 1
Sw@@ 0.4604523395875332
illi@@ 1
phones 1
imb@@ 1
affirment 1
Condé 1
Gam@@ 1
Ner@@ 0.9231125680690536
accident@@ 1
égé 1
restés 1
26@@ 0.6475751341217703
Tandis 1
existants 1
ouille 1
und@@ 0.2954464440969971
arab@@ 1
enquê@@ 1
exacte 1
confes@@ 1
disait 1
proie 1
ros 1
tivité 1
Guadeloupe 1
éa 1
mie 1
natal 1
promet@@ 1
pyramide 1
salari@@ 1
Pittsburgh 0.6088253780866132
commençant 1
magique 1
Rep@@ 0.9462305650499765
yg@@ 1
Evans 0.6777144713347509
Cinéma 1
enti 1
testament 1
Italiens 1
visu@@ 1
endr@@ 1
serre 1
aco 0.8183182396658544
vignes 1
communiqué 1
complété 1
irré@@ 1
mexicain 1
len 0.35322886617326466
usses 1
Ble@@ 1
insul@@ 1
bénéficient 1
poursuivent 1
relevé 1
Boh@@ 0.9672532740960432
polytechnique 1
1822 0.914334859810969
iront 1
ocène 1
indiquer 1
ramener 1
MO@@ 0.8318019000275377
1798 1
Kaz@@ 0.9857354795768003
Wright 0.5824698207497224
zy@@ 0.8704651973998938
Productions 0.8673201379890361
arbitr@@ 1
quet@@ 1
câble 1
Frederick 0.46634081970029334
ectifs 1
Wurtemberg 1
prospérité 1
Vas@@ 0.7768684164563018
élever 1
Campbell 0.5778820224601598
Div@@ 0.8860640120732423
tellement 1
Mozart 1
rigour@@ 1
conservant 1
lots 1
analys@@ 1
asiatiques 1
érieurement 1
déclarations 1
dictature 1
icale 1
scénarios 1
humor@@ 1
Édimbourg 1
eure 1
interactions 1
trous 1
açant 1
difficilement 1
distincts 1
disputent 1
contribuer 1
occupait 1
Testament 1
Town 0.21704911813626948
roumaine 1
atlantique 1
arienne 1
valoir 1
Bod@@ 0.6546110049953997
Définition 1
isolée 1
plac@@ 1
travaillait 1
IP 0.7518795501217204
eil@@ 1
System 0.22590358865748128
Confrontations 1
Figaro 1
reliée 1
laboratoires 1
souci 1
valor@@ 1
illo 0.5270854074128704
Sécession 1
renouveau 1
Ve@@ 1
trahison 1
Ze@@ 0.5561406873026068
quel@@ 1
rap 1
composante 1
SE 1
Car 0.9060514004308864
bénéfices 1
acité 1
plates 1
rejette 1
négocier 1
considér@@ 1
dragon 1
â 1
FA 0.43375969597295877
entour@@ 1
Allemand 1
accompagnement 1
cruci@@ 1
Chr@@ 1
rebaptisé 1
défend@@ 1
réalisateurs 1
encourage 1
indépendantes 1
approbation 1
dragons 1
Paolo 1
onnette 1
tein@@ 1
Bourges 1
honoraire 1
oms 0.6754560555710518
Chang@@ 1
enter@@ 1
byzantine 1
contest@@ 1
ż@@ 1
Sony 0.6799178784798596
paroissi@@ 1
Direc@@ 1
trique 1
abolition 1
trices 1
mage 1
Pit@@ 0.8239605388851636
agi 1
figurant 1
pause 1
retrouvée 1
élémentaire 1
financé 1
terrasse 1
œur 1
foyers 1
mouv@@ 1
signale 1
Fen@@ 1
Istanbul 0.9797233227144666
arcade 1
pneus 1
1818 0.8228643852562637
Wat@@ 0.9608429958966047
illent 1
propulsion 1
tac@@ 1
ressor@@ 1
restaurer 1
venger 1
permanentes 1
dirent 1
accompagnés 1
neutr@@ 1
expliqu@@ 1
rappelant 1
équilibr@@ 1
ïdes 1
D.@@ 0.8086465658336034
tuy@@ 1
flam@@ 1
relié 1
Azur 1
Trésor 1
confrontation 1
iquement 1
Tra@@ 1
ander@@ 0.9237893552778779
Var 1
dam@@ 1
miroir 1
Is 0.3862009200515935
automatiquement 1
légitime 1
posséder 1
ouvertement 1
archiv@@ 1
utes 1
héroïne 1
casse 1
vignoble 1
Personnalités 1
estim@@ 1
orienté 1
végétaux 1
Wagner 0.8487248164869969
conservent 1
fe 0.56393362342362
corpor@@ 1
Nik@@ 0.8953342207782358
calcaires 1
orientée 1
désignés 1
onds 1
progress@@ 1
amme 1
liban@@ 1
intersection 0.8019276816149775
CR@@ 1
Charlemagne 1
peindre 1
CD@@ 0.826407590981272
Rochefort 1
forfait 1
Lorient 1
alogie 1
quelqu&apos; 1
identi@@ 1
frac@@ 1
Auxerre 1
postérité 1
Noirs 1
illustration 1
pét@@ 1
Sic@@ 1
dal@@ 1
cherchent 1
durent 1
assises 1
elet 1
marocain 1
inage 1
orth@@ 1
suivit 1
systématiquement 1
ament 1
cis 1
tranche 1
extrémités 1
IR@@ 1
aîtra 1
napolé@@ 1
passionn@@ 1
ectif 1
motiv@@ 1
Bret@@ 1
fran@@ 1
osp@@ 1
permet@@ 1
Grou@@ 1
anglaises 1
esi 0.6327864703248219
spectateur 1
lir 1
rite 1
croiseurs 1
rattr@@ 1
renforts 1
beek 1
phosph@@ 1
préliminaire 1
Dakar 1
Aude 1
achi 1
Walker 0.5083606084782268
recul 1
ult 1
ferroviaires 1
cycl@@ 1
CI 1
donnait 1
Guill@@ 1
héritiers 1
uls 1
Sibérie 1
othérapie 1
township 0.6132528098518534
Nature 0.8641577000570466
caserne 1
relate 1
Clé@@ 1
consistant 1
prévus 1
chirurgien 1
concentrer 1
intérieurs 1
physicien 1
molécule 1
Moy@@ 1
consommateurs 1
pig@@ 1
comportait 1
wallonne 1
1804 0.9885028270004237
Née 1
confondre 1
Alabama 0.46337351466034776
Royale 1
mirent 1
développant 1
Rel@@ 0.6741726585322919
lucratif 1
judaïsme 1
1811 0.9334575143319306
désign@@ 1
Conséquences 1
blason 1
infection 1
revendications 1
Contr@@ 1
intérieures 1
certificat 1
déclarée 1
isolé 1
aboutis@@ 1
croisade 1
livret 1
restr@@ 1
08 0.42732874067485005
caché 1
dispositifs 1
reuse 1
Honoré 1
Thompson 0.5470795288499622
fid@@ 1
suspend@@ 1
Perpignan 1
Mill@@ 0.9434399789222974
NO@@ 0.8619270271593522
Mayence 1
indépendanti@@ 1
Grav@@ 1
Mayenne 1
nommées 1
repêchage 1
Out@@ 0.7083086619852362
Moul@@ 1
Champions 0.46164594944555726
compét@@ 1
isque 1
genou 1
1817 0.8920093647023917
env@@ 1
landes 1
Paix 1
infrastructure 0.7457825752249508
vives 1
chapeau 1
pommes 1
ris 1
saga 1
uler 1
Will 0.5750833738230852
abattu 1
avanc@@ 1
exclusion 1
rou 1
Vert 1
argile 1
bières 1
démontrer 1
développées 1
jam@@ 1
yst@@ 1
Aristote 1
Formé 1
guée 1
autes 1
cath@@ 1
légale 1
représentait 1
gly@@ 1
appels 1
examin@@ 1
veil 1
peinte 1
Lycée 1
gée 1
ignons 1
140 0.6283982481693551
Fé@@ 1
asp@@ 1
douzième 1
07 0.45766284863590384
Slovénie 1
paires 1
Rog@@ 1
météorologiques 1
gré 1
Conrad 1
1,3 1
indices 1
théâtres 1
substances 1
concré@@ 1
immédiat 1
crue 1
multipli@@ 1
étroit 1
évolutions 1
défensif 1
proven@@ 1
taxes 1
aube 1
Hil@@ 0.6501881226945938
Marianne 1
biologiques 1
effectuent 1
pairs 1
rassemblement 1
elot 1
tropicales 1
Albanie 1
proch@@ 1
traduire 1
excl@@ 1
param@@ 1
préten@@ 1
défi 1
ku 0.9569667682490625
pertin@@ 1
dh@@ 0.8511329022590537
démolition 1
Bruges 1
zer 0.4970803923378514
patrou@@ 1
mènent 1
TC 0.6602125310268236
énie 1
destroyers 1
garantir 1
vitr@@ 1
démontre 1
évoquant 1
lauré@@ 1
suic@@ 1
sauvegarde 1
García 0.5018288583326509
appropri@@ 1
auteure 1
ernes 1
papiers 1
XX@@ 1
poitrine 1
érieurs 1
fixer 1
Bucarest 1
commercialisé 1
Dictionnaire 1
fabriqués 1
proposées 1
réper@@ 1
flo@@ 0.8962366769930871
réunissant 1
empois@@ 1
Créé 1
eto 0.6175389866457283
travail@@ 1
déplacé 1
véritables 1
ogènes 1
Agr@@ 1
Casablanca 1
duré 1
sessions 0.8885794498950329
Rotterdam 1
ambition 1
flamand 1
oublier 1
accusés 1
pée 1
Chirac 1
installées 1
arque 1
combattant 1
Compos@@ 1
cut@@ 1
percée 1
haine 1
cloche 1
Poul@@ 1
ui@@ 1
bapti@@ 1
saison@@ 1
appliqué 1
amour@@ 1
contraste 1
gre@@ 0.6173408760466983
protégées 1
prévues 1
serpents 1
uro 1
Old 0.2048134140873822
manifestants 1
rocher 1
Mén@@ 1
ignait 1
énergies 1
triom@@ 1
Phil 0.7613692252700962
environnementale 1
jeudi 1
fiques 1
Cla@@ 1
Ric@@ 1
desserv@@ 1
limit@@ 1
composantes 1
électrons 1
onal 0.5281139652260283
socialisme 1
échou@@ 1
pare 1
pous@@ 1
segment 0.7972524120730651
asile 1
sexuels 1
tiste 1
patin@@ 1
1780 1
1799 1
bac 1
fusil 1
hiér@@ 1
masses 1
cellulaire 1
médaillée 1
pourcentage 1
succéder 1
ê 1
Landes 0.5225798848571307
09 0.4078110328728137
fraî@@ 1
Marin 1
san 0.7895090550427417
trouvée 1
défunt 1
métabol@@ 1
attestée 1
médicaux 1
Arg@@ 1
Principe 1
sû@@ 1
uniques 1
matern@@ 1
rit@@ 0.8195999893461852
suffisante 1
électro@@ 1
tat@@ 1
Simpson 1
music@@ 1
prolong@@ 1
regard@@ 1
catholicisme 1
alternance 1
répandu 1
Abou 1
issy 1
alliées 1
assé 1
saoudite 1
sifs 1
phares 1
Boeing 0.8509643824326234
chutes 1
pionnier 1
para 0.01492443283234188
ensuit 1
récupère 1
CP@@ 0.8713804942047527
andi@@ 1
Fres@@ 1
crues 1
Meg@@ 0.6945868117882168
affectée 1
concili@@ 1
ferrée 1
Di 0.9991682712254311
enjeux 1
intéres@@ 1
assemblage 1
opposés 1
salut 1
traumati@@ 1
méc@@ 1
Jorge 0.5320994471003234
ī@@ 0.6059314543276818
Shakespeare 0.9116395619938821
esta 0.07857005520857964
opérationnelle 1
dépassant 1
Joachim 1
confront@@ 1
engr@@ 1
olé@@ 1
évangél@@ 1
marquées 1
pag@@ 1
wan@@ 0.5853223787582514
Mariage 1
fréquents 1
Pis@@ 1
accomp@@ 1
etc 0.44991487165888217
plong@@ 1
03 0.5283563514971705
Monte@@ 1
Stars 0.5715748657198774
dictionnaire 1
1819 0.8983877908008054
Dresde 1
introduire 1
èges 1
Stuttgart 0.5513262059924833
mas 0.936168982125067
pomme 1
ric@@ 1
Kō@@ 1
revê@@ 1
assist@@ 1
brun@@ 1
préparé 1
tor 0.28052987215336855
choisis 1
joindre 1
télécommunications 1
Mulhouse 1
commissions 1
eli 0.6056947352792761
horloge 1
Sad@@ 0.9209594458079059
inomie 1
Gren@@ 1
Ség@@ 1
dévast@@ 1
latitude 1
maréc@@ 1
Astr@@ 0.8497297117462209
Valenciennes 1
fiscaux 1
blanch@@ 1
représentées 1
dominic@@ 1
Harrison 0.6540773175881728
ultérieurement 1
ophi@@ 1
Sidi 1
perdant 1
isy 1
rejeté 1
traitant 1
ingu@@ 1
maient 1
égales 1
ané@@ 1
oth 0.8646916923271704
Wang 0.7341677484827717
séri@@ 1
étudiante 1
arriva 1
ew@@ 0.4094829224591405
solaires 1
Network 0.33059937957978597
amener 1
ancement 1
nécessit@@ 1
horizon 1
oxy@@ 1
rétic@@ 1
alisent 1
Shin@@ 1
apparent@@ 1
opo@@ 1
efficaces 1
situ@@ 1
Forest 0.3646464660252603
Que 1
poussé 1
soph@@ 1
pers@@ 1
rites 1
Wall@@ 0.620062330814653
escor@@ 1
endrait 1
geurs 1
Top@@ 0.7918570535846587
réacteur 1
arrivés 1
volontairement 1
érig@@ 1
Rudolf 0.5730138499241723
arros@@ 1
pilier 1
alphabétique 1
centimètres 1
péch@@ 1
È@@ 1
chauffage 1
chanté 1
taches 1
iteurs 1
occ@@ 1
terminal 0.5974661564325758
piscine 1
aides 1
aéron@@ 1
médiane 1
unanimité 1
Damas 1
collèges 1
sch 0.3537688230483559
Queen 0.20849480844201124
lunaire 1
marier 1
à@@ 1
Ouv@@ 1
kr@@ 0.37316854984741593
PCF 1
fiscale 1
Bond 1
Bénin 1
histori@@ 1
véritablement 1
désin@@ 1
issi@@ 1
gardiens 1
nis 0.5926576929141663
vivaient 1
observ@@ 1
AF@@ 0.98862548563154
règ@@ 1
ventre 1
Juste 1
grecques 1
minimale 1
précédant 1
Campagne 1
idi 0.7615868331342384
Matthew 0.6087395895116818
Ghana 0.7921242338369404
tri 1
ham@@ 0.7865756513668908
amant 1
jointe 1
Kil@@ 0.510224599036909
Post@@ 0.4078521589514699
Space 0.42631290581881975
entourant 1
israélien 1
favori 1
stratégiques 1
survivre 1
Army 0.09156203408771413
envoi 1
médicales 1
raine 1
ignées 1
embre 1
lancées 1
mémor@@ 1
serpent 1
multi 0.44734037636766555
icie 1
hind@@ 1
drait 1
soud@@ 1
Hérault 1
contin@@ 1
incul@@ 1
plantations 1
échantillons 1
croyances 1
lement 1
réuni 1
définies 1
Références 1
hex@@ 1
ition 1
Poznań 1
alien 1
interruption 1
comités 1
Boys 0.4805318213525946
jésuites 1
excès 1
exemp@@ 1
BD 1
pon 1
gratuitement 1
Bangladesh 0.637230352540368
Monts 1
jambe 1
Patrice 1
émis@@ 1
arn@@ 1
Cic@@ 1
implant@@ 1
excep@@ 1
Main@@ 1
Neil 0.7682329037211716
insuffis@@ 1
excellent 1
ular@@ 1
Richelieu 1
Vice 0.4682968428949354
solenn@@ 1
certifié 1
renaissance 1
tunisien 1
yi 0.5646424772401321
électoraux 1
révélation 1
négative 1
Marx 1
tionnellement 1
za@@ 1
ambiance 1
Cook 0.6943866331443889
colombi@@ 1
partagée 1
coutume 1
mineure 1
Amérindiens 1
Silva 0.8565422456688875
constituées 1
wilaya 1
HC 1
Extrême 1
Kos@@ 0.6886360484933162
habité 1
Proche 1
procédés 1
Linux 0.8582168724400995
collaborateur 1
Estr@@ 1
télé 1
camions 1
enchaîne 1
entaux 1
radios 1
Note 0.6449582757003528
conduisent 1
Nom 1
ord 1
autorisée 1
Angel 0.7626258162702708
mauvaises 1
comitat 1
susceptible 1
bac@@ 1
conforme 1
stell@@ 1
iy@@ 0.5781898881101646
naufrage 1
ud 0.9316329009337891
pyramides 1
FK 0.9503303622883863
allo@@ 1
Charleroi 1
Bit@@ 1
typiquement 1
Réception 1
directeurs 1
plonge@@ 1
recueil@@ 1
ster@@ 0.3360585294108558
roqu@@ 1
lith@@ 1
than@@ 1
indiennes 1
massifs 1
Kad@@ 0.8435041513671178
déch@@ 1
entrep@@ 1
fasciste 1
quanti@@ 1
Liberté 1
Stefan 0.8536033140859024
imposent 1
reconstruire 1
réparations 1
divine 1
1805 0.9138458937483473
hard 0.291282247572554
August 0.030637504472269986
First 0.10866867200856589
exploite 1
écolog@@ 1
migration 1
préservation 1
déroulé 1
ouch@@ 1
Beauvais 1
naturaliste 1
Yvelines 1
Bobby 0.7723299824040408
Harold 0.7624766869767051
Proc@@ 1
codice 0.5587069578255959
sauvé 1
cloches 1
trilogie 1
Cao 0.8333955399773618
Mai 0.09785232067374375
AR 0.7451198222221116
Impact 1
vill@@ 1
indo 1
étitions 1
foulée 1
orphel@@ 1
tort 1
Annie 1
itable 1
soutiennent 1
Projet 1
Palatinat 1
estimant 1
échantillon 1
engagements 1
sion@@ 0.9574145630903984
hier 0.1768721126038998
suivis 1
sheim 0.7799536983983508
oz 1
1,6 1
New@@ 0.45906706341125847
2e 1
directs 1
honneurs 1
rejet 1
ity 0.10224417292533985
olo@@ 1
Jus@@ 1
affrontements 1
publient 1
clavier 1
lions 1
porche 1
terri@@ 1
èses 1
héli@@ 1
War 0.04802523334640156
canadiens 1
inférieures 1
enko 0.956919848301729
SM 1
déclench@@ 1
guerriers 1
indispensable 1
amer 1
démarre 1
Seule 1
équations 1
olig@@ 1
travailla 1
montés 1
Dark 0.6359453756710183
bretonne 1
Piémont 1
ku@@ 0.5626823069124827
insurgés 1
phone 0.5218220330628854
reç@@ 1
supprimer 1
montées 1
identifiés 1
imi@@ 1
levé 1
zé@@ 1
ga@@ 1
Martin@@ 1
Mines 1
carrosserie 1
orchestr@@ 1
geait 1
160 0.5847914827236117
1796 1
Vietnam 0.3353354058800795
ling@@ 0.7619491664799178
Liga 0.15776518862788952
marquent 1
préférence 1
orthodoxes 1
gymnastique 1
Wayne 0.6158561460136069
ø@@ 0.6450513783288456
célébration 1
simul@@ 1
Arabes 1
Duch@@ 1
mexicaine 1
reurs 1
Lorenzo 0.8957450111361022
inaugur@@ 1
norvégienne 1
Maryland 0.37840918114488453
expressions 1
utilisait 1
engagées 1
extra@@ 1
Aus@@ 0.13741552703624396
fidélité 1
Coc@@ 1
Lun@@ 1
lou 1
prédic@@ 1
hique 1
protec@@ 1
cf. 1
fermer 1
indonési@@ 1
airs 1
recueils 1
stades 1
supprimée 1
file 0.7594672456576161
papillon 1
eraient 1
Hudson 0.6723934179916454
anneaux 1
agon@@ 1
tapis 1
Arras 1
Bush 0.599390408283089
Industrie 1
ador 0.19538566381182157
occasions 0.7483496332866255
Picardie 1
gardé 1
Sauveur 1
féod@@ 1
sédu@@ 1
auxiliaire 1
incluse 1
orph@@ 1
ouvertures 1
Party 0.08482081282645926
communiquer 1
Morris 0.590946932989429
eton 1
parlée 1
Baker 0.5887545898043824
franc@@ 1
longe 1
ellip@@ 1
pionniers 1
compare 1
conduisant 1
chances 1
worth 0.2866438283144905
Épis@@ 1
wi@@ 0.5048673738903352
sauve 1
Up 0.4058442248577227
procéder 1
épuis@@ 1
Poitou 1
Séoul 1
duction 1
logistique 1
minière 1
rétab@@ 1
we 0.11514723892323223
Meilleur 1
contradic@@ 1
Dav@@ 1
emblématique 1
supporter 1
tements 1
Toscane 1
interprétations 1
orné 1
itent 1
révis@@ 1
dys@@ 1
indépendamment 1
émeutes 1
Lep@@ 1
blesse 1
périphérie 1
dôme 1
Eddie 0.7966056996336047
indication 1
Autre 1
initiatives 1
déportés 1
hébergement 1
remplaç@@ 1
corré@@ 1
omni@@ 1
Moh@@ 0.746098879101878
Tas@@ 1
group@@ 1
ER@@ 0.8378675263651088
Gan@@ 0.8734784073984743
arrang@@ 1
dal 1
iges 0.6881075303033855
Oslo 0.911935838502798
organ@@ 0.9827037720355067
pompiers 1
recommandations 1
ott@@ 1
hélicoptère 1
brasserie 1
nourrit 1
Fle@@ 1
berg@@ 0.6958552306928182
low 0.10946331205374814
Lettonie 1
créatures 1
expuls@@ 1
fréquent 1
Comédie 1
Indiens 1
dettes 1
atin 1
inier 1
tombent 1
1797 1
wald 0.5230532448622512
GM 1
Band 0.13944286772023531
Gard 1
CP 0.864378985940797
toiture 1
50,@@ 1
Contre 1
ash 0.4306091962923812
sis@@ 1
Sofia 1
aro@@ 1
ix@@ 1
intercommun@@ 1
contribuent 1
compil@@ 1
Sarthe 1
réponses 1
abondance 1
lingu@@ 1
mobilisé 1
égyptienne 1
contenus 1
nourrir 1
otage 1
retable 1
Bén@@ 1
Opération 1
borough 0.5345186454503855
Salle 1
attribuées 1
décisif 1
fonda 1
prieur 1
livrée 1
idon 1
édite 1
vig@@ 1
RO@@ 0.7226836098432421
annulée 1
Collection 0.8214584526463828
seau 1
uk 0.5234142386289472
Oregon 0.4019289054865796
ois@@ 1
ete 0.3582727456830643
intégrés 1
FF 1
iliens 1
ître 1
élég@@ 1
Mét@@ 1
Parme 1
evitch 1
invitée 1
polar@@ 1
quets 1
trajectoire 1
Œ@@ 1
sun@@ 0.5483732039340667
Grenade 1
jeter 1
observée 1
individuels 1
Etat 1
Tel 1
procède 1
uli 1
brillant 1
tranqu@@ 1
cintre 1
réclame 1
monnaies 1
LE@@ 0.7603068574914083
livraison 1
Aul@@ 1
royaux 1
verg@@ 1
RDA 1
dédic@@ 1
trot@@ 1
yl 0.524591974682445
imprimé 1
socio 1
Cler@@ 1
commercialisation 1
pot 1
Nicol@@ 1
Programme 1
fe@@ 0.28856841972467284
Sant@@ 1
cacher 1
exprimé 1
Cracovie 1
Finale 0.41678533943909424
nat@@ 1
citation 1
luth@@ 1
météor@@ 1
narrateur 1
protagonistes 1
rot 0.8612326822931828
sing@@ 0.8921749825513972
gier 1
tantôt 1
yne 1
otro@@ 1
rey 0.2496957903852103
revint 1
terrorisme 1
Birmanie 1
Rat@@ 0.5781119323087478
back 0.04859965895939076
gérée 1
imprimerie 1
surviv@@ 1
rappelé 1
révé@@ 1
umi 0.9487586760414021
gard@@ 1
transformations 1
Soit 1
funérailles 1
tho@@ 1
Birmingham 0.5357403550100637
Constance 1
assemblées 1
cht@@ 0.933356910478965
exécutés 1
Béarn 1
etés 1
oko 1
ON@@ 1
Régi@@ 1
espère 1
pèlerins 1
souhaitent 1
bler 1
confin@@ 1
protège 1
sez 1
trouva 1
Western 0.11817380903537332
groupement 1
tic 0.20087866757691408
Lui 1
romancier 1
Fille 1
noise 1
wallon 1
implanté 1
progressif 1
LP 0.46277314175345285
Liu 0.9234511948951771
entam@@ 1
heureuse 1
Colin 1
otype 1
Beatles 0.992812540731616
progressiste 1
criptions 1
axi@@ 1
Airlines 0.6369126797500781
gag@@ 1
Vegas 0.675658396374951
oses 1
Télévision 1
alternatif 1
propagation 1
sain 1
Connecticut 0.45700432841835775
Chou@@ 1
donnera 1
ř@@ 1
moni@@ 1
geois 1
expulsion 1
Nak@@ 0.9489828904035263
joy@@ 1
nad 1
remontant 1
transit@@ 1
ativité 1
artisanat 1
initié 1
osphère 1
Tommy 0.8063824178150231
inclure 1
Classification 1
Tat@@ 0.8579225997708476
fines 0.6622050138661565
Luke 0.7617001058275736
appe 1
prostitu@@ 1
captivité 1
dignité 1
enfuir 1
Norman 0.5260285496910402
professeure 1
Bayonne 1
germano 1
agissant 1
capturer 1
verses 1
ieu 1
concurrent 1
défenses 1
Bous@@ 1
fréquentes 1
oration 1
émas 1
ageux 1
concevoir 1
indic@@ 0.8818664371895126
pire 1
teneur 1
quantique 1
verticale 1
Cours 1
Marina 0.892299990446066
dei 1
Cécile 1
confort 1
manteau 1
résume 1
Jours 1
ections 1
manuel 1
28@@ 0.6348541800735623
Hag@@ 0.7358178582959415
Raw 1
réputée 1
nocturne 1
soumettre 1
Verts 1
dégag@@ 1
électorales 1
comparé 1
zac 1
Golfe 1
Sky 0.6078243056803777
USS 0.5953267600865911
enregistrées 1
terroristes 1
marches 1
Railway 0.1988087760921703
Sources 1
Fame 0.41002815643914153
cles 1
perdus 1
aveugle 1
dit@@ 1
fondatrice 1
renforcement 1
revendique 1
Brandebourg 1
nette 1
ry@@ 1
anien 1
chroniqueur 1
quelconque 1
Air@@ 0.6735113177463343
remplir 1
synthé@@ 1
anna 0.9059282866107565
azote 1
eh 0.5735288784140788
réédité 1
Nab@@ 1
Victoire 1
actionnaire 1
german@@ 1
pensait 1
Omar 1
marron 1
seigneur@@ 1
aliers 1
Johan 1
Mitchell 0.6077775967098196
Standard 0.5100331607742112
Sid@@ 0.8120428771627927
Eg@@ 0.6794669771369041
Pur@@ 0.43067039983279315
absorb@@ 1
essentielle 1
macédon@@ 1
combustion 1
originel 1
plas@@ 1
ecclésiastiques 1
enchères 1
regroupées 1
érité 1
Turner 0.6199317732136556
catal@@ 1
décisives 1
génétiques 1
lière 1
nécessitant 1
oriente 1
charts 0.6060231137995252
parisiens 1
thématiques 1
raids 1
résultant 1
Hawaï 1
évid@@ 1
berceau 1
Finistère 1
pétrol@@ 1
Cru@@ 1
ulus 1
Sto@@ 0.5907845629404921
Pérez 0.7017053033324212
Ralph 0.7278476722885261
éennes 1
chol@@ 1
pertur@@ 1
perturb@@ 1
Amédée 1
diplômée 1
fantôme 1
ukrainienne 1
yo@@ 0.9485900741250183
Coll@@ 1
cabine 1
can 0.02617201241549176
èdre 1
camion 1
diminu@@ 1
lus@@ 0.7279247249179341
cendres 1
chanoines 1
glaci@@ 1
iner@@ 1
Cathédrale 1
0,5 1
mortes 1
Af@@ 0.7336449274264772
ectu@@ 1
volet 1
menacé 1
envisagé 1
saires 1
Systématique 1
isser 1
lay 0.583205809815921
controvers@@ 1
doré 1
adaptations 1
prussienne 1
pell@@ 1
Sang@@ 1
tibétain 1
hydraulique 1
considérait 1
golf 0.8454054609189838
Rico 0.4893627467739165
Sacré 1
filière 1
360 0.6883611245101002
distribut@@ 1
Dub@@ 1
Films 0.4871125061608973
haies 1
urbanisation 1
établies 1
économiste 1
onnaires 1
ilienne 1
ister@@ 1
Nam@@ 0.7709140491065124
ornith@@ 1
Maire 1
peints 1
souhaitait 1
tronc 1
Arsenal 0.9307121222458222
EC 0.8309001966568798
Lazare 1
astes 1
déplac@@ 1
oxyd@@ 1
Bois@@ 1
Cambodge 1
fréquences 1
insiste 1
Cél@@ 1
Nassau 1
rassembler 1
tionnement 1
Kentucky 0.3943463726778588
dém@@ 1
mondi@@ 1
manières 1
Lis@@ 0.9557616482225371
transcription 1
boxe 1
fasse 1
compliqu@@ 1
litres 1
portaient 1
Pyramide 1
vendues 1
VI@@ 1
ake 0.4831688298193296
plaqu@@ 1
Hell@@ 1
renouvel@@ 1
25@@ 0.6014752369151692
Tran@@ 0.8226287085854148
Chen@@ 1
Cop@@ 0.9355875745971329
parfaite 1
veur 1
Dauphiné 1
concernées 1
conj@@ 1
cue 1
AB@@ 0.7659043539618222
injection 1
rond 1
Project 0.34186064393764093
ajoutés 1
cess@@ 1
vaincre 1
astronom@@ 1
colspan 0.39960107642818715
numérot@@ 1
esqu@@ 1
roses 1
Achille 1
organiques 1
suscité 1
Wolfgang 0.5788983033505661
appes 1
donjon 1
innov@@ 1
Â@@ 1
isible 1
Gat@@ 1
Nouvel 1
renforc@@ 1
prétexte 1
tré@@ 1
Jon 0.7565773068248052
locuteurs 1
standards 0.44871191855899917
architectur@@ 1
fossé 1
miers 1
euro 1
mélang@@ 1
the@@ 0.36161056615203147
éventuelle 1
Châtillon 1
Hainaut 1
pirates 1
substanti@@ 1
Kazakhstan 1
Phase 0.781828403508261
March@@ 1
grap@@ 1
orthographe 1
dépendait 1
notaire 1
consultation 1
ministéri@@ 1
Macron 1
Facebook 0.7102885461847491
affaib@@ 1
bénéficié 1
monopole 1
égion 1
clientèle 1
détéri@@ 1
pseudo 1
management 0.18959657104190428
précédé 1
aniques 1
jouées 1
resp@@ 1
baptême 1
Cincinnati 0.7150236483925784
infirmi@@ 1
criminel 1
assique 1
Warren 0.6086740137961062
trouvera 1
ow 0.2478250677858849
blind@@ 1
terroriste 1
valu 1
exhaustive 1
votre 1
agée 1
déficit 1
enz@@ 0.29678681248477895
soutenant 1
tarde 0.23320492783123623
géologie 1
ignan 1
danseuse 1
Tél@@ 1
dérivée 1
personnellement 1
uranium 1
Sul@@ 0.6474385517477557
chômeurs 1
récipi@@ 1
Sho@@ 0.5522204376873118
rempl@@ 1
Tchad 1
pratiquant 1
sic@@ 1
án@@ 0.6005291949143043
renforce 1
successeurs 1
aste 1
glacier 1
hésite 1
thèses 1
ônes 1
Maximilien 1
estre 1
budg@@ 1
promul@@ 1
Soul@@ 1
stimul@@ 1
israélienne 1
Roux 1
noy@@ 1
radicale 1
Site 1
iniens 1
nouve@@ 1
mitig@@ 1
aperçoit 1
huitièmes 1
indemn@@ 1
B.@@ 0.7203600048269131
chair 0.5423739231722842
distinguent 1
Neuchâtel 1
doigts 1
révéler 1
Pokémon 1
spécific@@ 1
Gav@@ 1
N. 0.5383350369616426
correctement 1
Qatar 1
jol@@ 1
Jug@@ 1
élie 1
cler@@ 1
divinité 1
LA 0.5177407781185772
Mountain 0.30955510921159124
1,4 1
Universal 0.5124010689679228
vulnér@@ 1
fiscal 1
génocide 1
ticul@@ 1
chanc@@ 1
ront 1
répar@@ 1
Kun@@ 0.5699662630355218
attén@@ 1
bâtir 1
transport@@ 1
verb@@ 1
patrie 1
intellectuel 1
vole 1
bus@@ 0.5491792693156095
roux 1
bury 0.4615472867658675
annuelles 1
strat@@ 1
Abdel@@ 1
astron@@ 1
géo@@ 1
Polonais 1
entrain@@ 1
impliqués 1
Rib@@ 1
villageois 1
déploiement 1
esques 1
wan 0.7481823125460488
Ž@@ 1
gratuit 1
volcanique 1
ende 0.12962383813238887
tionnée 1
observateurs 1
posés 1
intéressantes 1
scission 1
anec@@ 1
Sebastian 0.7677074200791787
explorateur 1
Clara 0.9092490523414097
récep@@ 1
Morbihan 1
entoure 1
Monument 1
entrev@@ 1
amphi@@ 1
Double 0.9696901225522361
O. 0.7174462429922479
chées 1
lama 1
dri@@ 1
Stein@@ 0.27953834560625834
emmène 1
Roosevelt 0.7740944135485599
milice 1
Rhodes 1
investit 1
livrer 1
archéologue 1
oreilles 1
salaires 1
eth 0.678889413210738
opérationnel 1
sat@@ 0.9832604736130912
nœud 1
Légende 1
Channel 0.3356595547645063
refusa 1
Moldavie 1
typo@@ 1
18@@ 0.6477909492223197
a&apos; 1
Aqu@@ 0.9248735937392109
Dick 0.7127989124719611
estimation 1
PDG 1
incendies 1
bordé 1
Ken 0.7214011083687923
décrivant 1
emporter 1
isolement 1
visuelle 1
Ok@@ 0.6732529346858015
aériens 1
calculs 1
croyance 1
vre 1
Coran 1
Tin@@ 1
brillante 1
titular@@ 1
Charte 1
étendant 1
numér@@ 1
présenta 1
Sri 0.36332482545028594
protecteur 1
Nuit 1
dra@@ 1
pill@@ 1
ister 0.5722672628902252
jésuite 1
recouvre 1
reproche 1
gouvernementales 1
40@@ 0.6562005308249234
ashi 1
quaient 1
Collins 0.6455047198716981
ame@@ 1
Danny 0.8216170974155427
précurseur 1
rochers 1
Bourse 1
cloître 1
répétition 1
eller 0.385387617304927
évoqué 1
M.@@ 0.6574349357962049
militante 1
argument 0.9278175232407195
tunisienne 1
Mode 1
Ois@@ 1
desquels 1
danses 1
échoué 1
Baron 0.4495866666035793
formellement 1
pacte 1
Gustav 0.6519874292844129
Pacific 0.17876213806482094
édé 1
affaibl@@ 1
Chil@@ 0.7754536565062607
limitées 1
tionnaires 1
Leclerc 1
reliés 1
culmine 1
frégate 1
Lloyd 0.6176641054118407
mixtes 1
sière 1
Mid@@ 0.648490714905478
cousine 1
Guatemala 0.6679679235100229
allum@@ 1
ery 0.26979017842552244
ivre 1
plaç@@ 1
accroch@@ 1
confirmer 1
forestier 1
éta@@ 1
Jacqueline 1
typiques 1
Hippolyte 1
arguments 1
espionnage 1
fournissent 1
toirs 1
alia 0.6379754712880557
centrée 1
minéraux 1
onales 1
kilométrique 1
périodique 1
transmet 1
verne 1
29@@ 0.6323941163675885
ataires 1
condamne 1
CM 1
croisée 1
fix@@ 1
Blancs 1
haï@@ 1
tragédie 1
navigu@@ 1
transférés 1
pétr@@ 1
Exemples 1
May 0.03682652377714083
bébé 1
drainée 1
appartenu 1
pétition 1
surmontée 1
crits 1
Chambéry 1
Marion 1
arbus@@ 1
dériv@@ 1
Der 0.016959543957182164
Josef 0.4911814298271368
détaillés 1
octro@@ 1
ciers 1
implantés 1
transpor@@ 1
récupération 1
AG@@ 1
gor@@ 1
aquatiques 1
extra 0.44929744729968496
CIA 0.9601368958311205
Rica 0.6984357974901142
Oran 1
paï@@ 1
relat@@ 1
andes 1
collégiale 1
chen 0.19360721061281502
dépendent 1
fret 1
borne 1
tation 1
Affaire 1
Dôme 1
Ray@@ 0.9365480458716325
flamande 1
érieur 1
Presse 1
Just 0.5246180769690413
Lub@@ 1
aggrav@@ 1
buste 1
défendu 1
subsistent 1
Cyr 1
détermine 1
fixes 1
ples 1
améliorations 1
questi@@ 1
mœurs 1
Va@@ 1
plumes 1
Monténégro 1
pénal 1
handicap 1
insec@@ 1
magistrat 1
Islam 0.5265737272459324
Oklahoma 0.42336702626256867
bio 1
télévisé 1
brut 1
tap@@ 0.6358574852639138
écla@@ 1
einte 1
tourelle 1
déportation 1
mites 1
complémentaires 1
feuill@@ 1
évo@@ 1
couper 1
épiscopal 1
connex@@ 1
définis 1
jadis 1
démol@@ 1
posées 1
Lima 0.6118389329436615
Nord@@ 0.23167130531042215
Rig@@ 1
enl@@ 1
accentu@@ 1
mentale 1
NA 0.8274546589638151
décorée 1
déclarer 1
fabricants 1
Émilie 1
Mathilde 1
omes 1
č 1
P.@@ 0.842123917627214
clar@@ 0.9882653107934106
e.@@ 1
victor@@ 1
ornement@@ 1
annulé 1
iert 0.24911120562706726
RI 1
dossiers 1
préface 1
édifié 1
citadelle 1
Angola 1
Italien 0.46122530290565733
présum@@ 1
Baltique 1
Népal 1
intime 1
croise 1
fortifiée 1
Ouz@@ 1
af 0.9037896994217683
promesse 1
publicitaire 1
Ler@@ 1
défil@@ 1
remontée 1
Pâques 1
Ful@@ 1
séparent 1
décoratifs 1
déposée 1
malé@@ 1
éna 1
Norm@@ 1
nautiques 1
Caz@@ 1
ethniques 1
Wisconsin 0.3139108071034191
Who 0.4930068662506229
lande 1
montag@@ 1
onge 1
latérale 1
atum 0.8203394787926178
emprisonnement 1
patinage 1
rituel 1
Côtes 1
asie 1
dissimul@@ 1
justifier 1
multiplication 1
dévoil@@ 1
représailles 1
canadiennes 1
chimiste 1
FN 1
garantie 1
rin 1
réfère 1
éru@@ 1
dominée 1
gallois 1
respirat@@ 1
Phoenix 0.6241266628902736
variées 1
compens@@ 1
meurtres 1
Malo 1
00 0.17036591092886608
E.@@ 0.7823322346579537
expertise 1
inondation 1
appuyer 1
monoplace 1
Raj@@ 0.3601763485871932
Sour@@ 1
dispens@@ 1
tomes 1
marocaine 1
êne 1
4,5 1
Nad@@ 1
Og@@ 1
argentine 1
toires 1
tsar 1
conventions 1
détruites 1
permettrait 1
conspir@@ 1
zen 0.31994536485161157
biom@@ 1
aca 0.536656084863417
éphémère 1
Vilaine 1
Vingt 1
décorations 1
iliers 1
éliminée 1
Antoinette 1
IF 1
ii 0.6948278270877583
Fritz 0.6271426849013726
Oc@@ 0.7228966698790628
banquier 1
juriste 1
To 0.12654195630585227
lad@@ 0.7898849731840076
tas 0.5736185028292605
Espace 1
vienne 1
zu 0.009122540265189117
contrôlé 1
terrible 1
affirmation 1
faiblesse 1
rechercher 1
chauds 1
gaulois 1
Sci@@ 1
réhabilitation 1
Mise 1
congol@@ 1
implantées 1
Serie 0.20430960651511748
aristocratie 1
Fant@@ 1
Len@@ 0.7560083748345064
Osaka 1
Rick 0.7236708516417237
teuses 1
diffère 1
ument 1
fresque 1
annulation 1
Roubaix 1
occasionn@@ 1
ME 1
lente 1
réalis@@ 1
varier 1
investisseurs 1
propos@@ 1
déterminée 1
conclure 1
lyrique 1
régler 1
rar@@ 1
PIB 1
commandés 1
fam@@ 1
bijoux 1
restrictions 0.9525218025156623
sit@@ 0.6677272290116457
directions 1
polaire 1
ineau 1
Julius 0.6210915100349387
Newton 0.7499670576750459
PS@@ 0.8996302618053019
gel 1
renforcée 1
radicaux 1
bridge 0.16079223626599662
perc@@ 1
Alonso 1
Sat@@ 0.6724536207165086
avancer 1
conservatrice 1
enthousiasme 1
Eau 1
Exemple 1
boire 1
cherchant 1
Médec@@ 1
anta 0.7786505367332213
leaders 0.26516289221312317
Hun@@ 0.7291138439893231
She@@ 0.5616668183471191
réalisatrice 1
alimenter 1
pouces 1
Voix 1
chou@@ 1
thématique 1
Alg@@ 1
rattach@@ 1
communautaires 1
Boc@@ 1
ceau 1
sismicité 1
geur 1
ine@@ 0.7087286291780477
usées 1
2,4 1
1.@@ 0.18330002289246777
ely 0.19514883972893293
polo 1
Che@@ 0.6923414501915287
Universit@@ 1
collision 1
refroidissement 1
Niger 1
Stanislas 1
aun@@ 0.7313959020851665
pôles 1
AB 0.7094700234222517
European 0.07418999498991742
Wallonie 1
hostile 1
ogives 1
cofondateur 1
ess 0.1973914918160976
ogne 1
recycl@@ 1
écrans 1
Wolf 0.5465436047159639
Got@@ 0.8734293070939003
conquis 1
marathon 1
succédant 1
water 0.06298448226620126
survenue 1
Queensland 0.3492443361738301
coéquipiers 1
Honneur 1
minorités 1
primer 0.0928620724157238
fondamental 1
envoya 1
étymologie 1
expliquant 1
And@@ 1
Wood 0.475000811069264
paroi 1
ètement 1
Holstein 0.809186603635886
célibat@@ 1
umes 1
consensus 1
libérée 1
aménagée 1
haus@@ 1
perform@@ 1
Bristol 0.5692283556590684
amendement 1
visibilité 1
Diane 1
clos 1
Diffusion 1
exercices 1
Out 0.3624169220530773
établissant 1
Lombardie 1
centenaire 1
complémentaire 1
promet 1
cohérence 1
Buc@@ 0.7460325265882706
ographi@@ 1
pères 1
torture 1
traducteur 1
ât 1
luminosité 1
offensif 1
sionnaire 1
modifie 1
1788 1
philosophes 1
siers 1
û 1
pochette 1
édit 1
Bull 0.9270003543498391
parf@@ 1
élien 1
consul@@ 1
méd@@ 1
Foundation 0.20596275463413624
Civ@@ 1
Santos 0.6448559433232379
épaule 1
exclu 1
inité 1
ouin 1
eption 1
terr@@ 1
fr 1
incer@@ 1
senior 0.17118153735364305
Harvey 0.8079525445262368
Uni@@ 0.7514692611136813
chronologique 1
Construit 1
Gray 0.6592510646687949
effective 0.3258395290837723
destitu@@ 1
intégralement 1
Ici 1
Jamaïque 1
ayer 1
dévoile 1
illac 1
Hassan 1
installa 1
présidentiel 1
105 0.6282941120296038
Pauline 1
Caucase 1
López 0.535741190176378
tueur 1
joueuses 1
suscit@@ 1
étangs 1
eines 0.05191053631008226
rén@@ 1
virage 1
achèvement 1
décrits 1
loin@@ 1
policière 1
ophone 1
pilotage 1
reb@@ 1
analog@@ 1
décider 1
inspirés 1
lame 1
cadette 1
tront 1
leçons 1
touches 1
évidemment 1
Wer@@ 0.37727057067207903
défilé 1
renforcé 1
Plou@@ 1
anthropo@@ 1
opposée 1
parcourt 1
égation 1
Carr@@ 1
immigrants 0.7537396436070605
inten@@ 1
Utah 0.5052890382990992
desservant 1
Ori@@ 1
veiller 1
Annecy 1
bosnien 1
from 0.0039335462626860634
comédies 1
num@@ 1
agression 1
révèlent 1
débris 1
captur@@ 1
podes 1
abil@@ 1
confédération 1
féminins 1
loger 1
ig 0.4498793917535377
tou 1
brise 1
portera 1
Girl 0.46402703190930145
aman 0.8465685004685501
massac@@ 1
Gram@@ 1
affec@@ 1
segments 1
communisme 1
désh@@ 1
enregistr@@ 1
merve@@ 1
1775 1
24,@@ 1
Domin@@ 1
verra 1
war@@ 0.19665490798488636
myth@@ 0.9809651589661851
souffle 1
Palerme 1
options 0.9422567320720044
Of 0.22845868294234847
arom@@ 1
chasser 1
Médaille 1
intégrant 1
tirés 1
Sky@@ 0.8688221872977512
emi 1
Balkans 1
vertic@@ 1
Cross 0.26467382086524116
antennes 1
11@@ 0.8254603977222739
capturés 1
organisateurs 1
éance 1
sag@@ 1
soigner 1
Platon 1
TO@@ 0.9395149114043102
atmosphérique 1
lave 1
encadrement 1
décentr@@ 1
Huit 1
Mongolie 1
inos 0.4681475218349636
donation 1
lycées 1
nationalisme 1
élique 1
Ferry 1
bailliage 1
exploit 1
fications 1
polit@@ 1
statu@@ 1
1784 1
nuages 1
AL 0.7847931651914367
vinrent 1
GT@@ 1
chor@@ 1
fièvre 1
Produ@@ 1
Profes@@ 1
enseur 1
menacée 1
consultant 1
hybride 1
ocre 1
rit 1
éter 1
CFA 1
conclusions 1
organisateur 1
départs 1
Mog@@ 1
Kn@@ 0.4166634126218131
décline 1
inski 1
Freud 1
1,8 1
6,@@ 0.5210640739517169
écossaise 1
dauphin 1
hie 1
minerai 1
Sot@@ 1
Keith 0.6945665112521526
Terry 0.6572104861059497
etto 1
remor@@ 1
Comment@@ 1
réalisent 1
1770 1
jan 0.8214872696249352
Belge 1
imag@@ 1
proph@@ 1
lop@@ 1
syri@@ 1
coutumes 1
Erik 1
acceptée 1
faudra 1
J.@@ 0.7868152919373794
evo 1
lass@@ 1
aquar@@ 1
sanitaires 1
ISO 0.9137247969405099
Milit@@ 1
Léo 1
Tang 0.9723525203688107
arre 1
autonomes 1
dest@@ 1
restants 1
Churchill 1
mystérieux 1
toulous@@ 1
ken@@ 0.3362410532599254
Gauche 1
accroître 1
stér@@ 1
wa@@ 0.4696428071537702
Castro 0.7292048357140996
cieux 1
oreille 1
hyp@@ 1
liner 0.940630954684481
chron@@ 0.939452413399899
Fu@@ 0.7586127978623758
itch 1
Business 0.27539237732167815
ress@@ 1
tul@@ 1
favoris 1
inet 1
owo 1
pluriel 1
triangulaire 1
rapatri@@ 1
Classe 1
mémorial 1
repart 1
itr@@ 1
nac 1
toi 1
33@@ 0.7224985172012621
couronné 1
oo 0.640459596557598
attractions 1
instances 1
bass@@ 1
Auparavant 1
West@@ 0.2171157174364058
socle 1
Pont@@ 1
Sarr@@ 1
confluent 1
crème 1
direc@@ 1
reflète 1
fédérations 1
notions 1
itte 1
Spirou 1
autrich@@ 1
guer 1
Radi@@ 0.5337150062094888
nan 1
reproduire 1
ressemb@@ 1
sanctions 1
brux@@ 1
criminelle 1
proc@@ 1
renvers@@ 1
sculpté 1
annonc@@ 1
loges 1
succèdent 1
Sèvres 1
convoqué 1
compression 1
intercommunalité 1
roy@@ 1
Rey 0.5752131333010544
ring 0.25841669571426806
Nova 0.5361685384647701
ott 0.6697394595195753
tester 1
explorer 1
pratiquée 1
å@@ 0.7452583057298315
signalisation 1
célébré 1
parois 1
prédateurs 1
modalités 1
expérim@@ 1
oum 1
ston 0.5047028448074685
osaurus 0.9254698654922473
végétales 1
forti@@ 1
navette 1
tivement 1
bénédict@@ 1
escu 0.889809754911765
animale 1
explicitement 1
2,3 1
Gallery 0.42375386084552596
www.@@ 0.8320038359038057
Bres@@ 1
Imp@@ 1
demeurent 1
papillons 1
Base 0.49391395628589935
promenade 1
Belfort 1
pâtur@@ 1
sér@@ 1
iti 0.8978064409329711
ûts 1
incorporé 1
alet 1
implantée 1
futures 1
Fête 1
36@@ 0.7707648626976004
cod@@ 1
restreint 1
casting 1
présentait 1
bey 1
signent 1
voisinage 1
trop@@ 0.7475472622602191
1,1 1
Accès 1
bancs 1
facilité 1
surveiller 1
positives 1
amar@@ 1
dent 1
lactée 1
bancaire 1
instantan@@ 1
orial 1
paysag@@ 1
Medi@@ 0.51378372982302
TE@@ 0.8259836118094067
détr@@ 1
tiendra 1
Adour 1
déroulement 1
forcément 1
initiales 1
moléculaire 1
ongo 1
Raf@@ 1
alimenté 1
ornée 1
Trav@@ 0.9820742377849352
anos 0.28151854191593545
ns 0.24760870501128882
provisoirement 1
reporter 0.8844001277153731
Capitaine 1
Eva 0.85380034585198
déterminant 1
sachant 1
Lus@@ 1
avoue 1
désaccord 1
ism@@ 1
affectés 1
tuant 1
Pes@@ 1
recette 1
0,1 1
illette 1
allé@@ 1
fluor@@ 1
synchron@@ 1
Portland 0.5119346769959976
confér@@ 1
devenues 1
pousser 1
supposé 1
Libre 1
Qui 1
localisée 1
raccour@@ 1
Créée 1
contemporaines 1
flûte 1
Journ@@ 1
etz 0.8318316694363258
dépou@@ 1
méda@@ 1
Your 0.3977093804502569
Inf@@ 1
Nathalie 1
conseillère 1
millénaire 1
remplac@@ 1
subissent 1
2.@@ 0.16468112033785273
attachée 1
faim 1
piques 1
Box 0.6686379589262769
Discographie 1
toil@@ 1
Lon@@ 1
confronté 1
Wehrmacht 1
alliée 1
Moreau 1
précip@@ 1
Holmes 0.8937531769910213
Noy@@ 1
Via 1
disciplin@@ 1
Berkeley 0.6961692251010659
interrompue 1
lun@@ 1
Ley@@ 1
dégu@@ 1
reconnues 1
spectaculaire 1
Cherbourg 1
Fondée 1
accroissement 1
épous@@ 1
Chacun 1
biblique 1
refuser 1
Doubs 1
Sens 1
Westminster 0.8932994046795466
cars 0.2589687173288071
Neu@@ 0.3583551727401796
entale 1
Ardèche 1
aris 1
dine 1
kel 0.45245936540689663
régimes 1
ust 0.7774308166479637
Andreas 0.5582798358004801
mélodie 1
Deutsche 0.2816997575685082
affili@@ 1
vocabulaire 1
épau@@ 1
cia 1
Pape 1
absorption 1
Yonne 1
discrimination 1
folie 1
Fac@@ 0.7986278928689347
Citroën 1
danoise 1
Meyer 0.8102919136518062
Gag@@ 1
Issu 1
chaude 1
imit@@ 1
localisé 1
mercredi 1
agissent 1
anthropologie 1
ges@@ 0.28179985463303675
viendrait 1
évang@@ 1
radioph@@ 1
évoquent 1
mées 1
crainte 1
papes 1
Neuilly 1
commentaire 1
expérimentale 1
fibre 1
Be 0.512088388231543
recevant 1
Leo 0.5364536808854885
arin 1
illustrateur 1
Juliette 1
régent 1
urgie 1
Ł@@ 1
1783 1
Mey@@ 1
originellement 1
Whit@@ 0.4620655191113977
prédécesseurs 1
trésorier 1
rocheux 1
35@@ 0.6500523230480888
nid 1
Geoffroy 1
crises 1
Let@@ 1
insertion 1
réussir 1
fonctionnalités 1
oti@@ 1
accou@@ 1
traversent 1
š 0.9585127949455347
homosexualité 1
excellente 1
Twitter 0.7329073858551158
apprécie 1
prononc@@ 1
rio 1
IT@@ 0.7972507140966992
accélération 1
aisément 1
hôtel@@ 1
rail 0.356204852346587
saur@@ 1
alo 1
processeur 1
1600 0.7820154720040711
personn@@ 1
pompe 1
bio@@ 1
install@@ 1
réacteurs 1
positifs 1
termina 1
Hanovre 1
gagnent 1
hiques 1
manœuvres 1
aer@@ 0.5993096959866532
eti@@ 0.4519537327000928
Global 0.39167811235420885
couverts 1
Men 0.20217735756902186
Adri@@ 1
chs 1
grain 1
Soviétiques 1
Gul@@ 0.7228933560141523
Amaz@@ 1
cavalier 1
comédienne 1
tombée 1
ectées 1
éloigné 1
réunissent 1
34,@@ 1
entretenir 1
vez 0.09830896985964872
Hilaire 1
Public 0.17093124566429777
MI@@ 0.8562790273828352
relance 1
iranien 1
ive 1
lumineux 1
sacrifice 1
α 0.4135725038786236
stratégies 1
équipages 1
Matthieu 1
Sont 1
opéras 1
diplômes 1
grad@@ 1
facultés 1
icor@@ 1
marée 1
présidée 1
Nil 1
Que@@ 1
èlement 1
1750 1
embarque 1
jean 1
resse 1
stat@@ 0.6407792106183473
salons 1
Was@@ 0.8316810506912882
bourgs 1
passer@@ 1
Grandes 1
licencié 1
ls 0.2868254212725299
toponymie 1
approvisi@@ 1
hollandais 1
Critiques 1
Hugh 0.6156482449087651
fan 0.4847465649056325
pharmacie 1
Châ@@ 1
passionné 1
cous@@ 1
subdivision 1
seaux 1
venaient 1
Champ 1
empreinte 1
pol 1
totalise 1
souhaitant 1
farine 1
itier 1
from@@ 1
mau@@ 1
Church 0.07466726350170792
dégradé 1
prouv@@ 1
sets 0.2909034683853551
tragique 1
inement 1
tar 0.5714627493940414
Nombre 1
chauss@@ 1
ôtre 1
communi@@ 1
ié 1
Femmes 1
incorpor@@ 1
hem 0.8306893084709522
og 0.6439313418999999
contribu@@ 1
couloir 1
aperçu 1
gouvernance 1
guer@@ 1
redevient 1
orne 1
Milieux 1
Clinton 0.5726228316861637
Pasteur 1
exportations 1
trail 0.8187703605123252
Do 0.34788150527831246
Larry 0.6814149432605731
iz 0.7151337146632405
Armstrong 0.8504454283073859
ä 1
Brothers 0.44685826698241005
D1 1
Voltaire 1
escar@@ 1
nuclé@@ 1
parvint 1
sergent 1
aitre 1
démissionner 1
évoluent 1
Paraguay 0.756936278498257
motion 0.44757854773320577
stars 0.2317195075536019
Lions 0.6930139705537047
Océan 1
Sergio 1
mystique 1
mesurant 1
mondes 1
urus 1
zen@@ 0.6065125833579242
souterraines 1
esclave 1
Wimbledon 1
sexualité 1
Quatrième 1
scep@@ 1
continents 1
créateurs 1
cursus 1
Alexandra 1
citoyenneté 1
limo@@ 1
expérimental 1
lanterne 1
mb@@ 0.6907483835225647
poils 1
contamin@@ 1
anth@@ 0.8520632527300076
Élu 1
Julian 0.8465682446860571
Werner 0.5878395301129504
mic@@ 1
héberg@@ 1
Pictures 0.5367613911437307
sonores 1
transporté 1
rements 1
Ron 0.7113872859501912
fluide 1
téléph@@ 1
incidents 1
gratu@@ 1
Hos@@ 0.8979041586913206
Nouvelles 1
démoli 1
oyer 1
Lucie 1
algues 1
routiers 1
arches 1
Voyage 1
luttes 1
37@@ 0.6320716644373904
Réc@@ 1
crite 1
trie 1
coqu@@ 1
croy@@ 1
anglic@@ 1
cau@@ 0.99756485135988
potentiellement 1
commen@@ 1
payé 1
divertissement 1
vét@@ 1
yd@@ 0.949766339148253
égal@@ 1
Tap@@ 0.8797544995908294
escalade 1
enva@@ 1
prenait 1
compté 1
see 0.08989135767731399
vacc@@ 1
uée 1
Gom@@ 1
Zhang 0.9049698206076633
publicitaires 1
Calvados 1
treizième 1
Aube 1
issons 1
parap@@ 1
hélicoptères 1
fondamentaux 1
primiti@@ 1
til 0.9621835725567839
Rum@@ 0.7672978798539087
inaugure 1
Pop@@ 0.6024679430113872
festivités 1
titulaires 1
agea 1
Unies 1
rebaptisée 1
Artois 1
mel 1
Nas@@ 0.6458252721047766
cienne 1
paci@@ 1
promis 1
DE 0.8166864009283419
com 0.8738250393999947
croisés 1
Müller 0.5882952921683482
croisière 1
marquants 1
péd@@ 1
sho@@ 0.5218958273975375
Río 0.3252728051685648
quotidiens 1
épiscop@@ 1
issaient 1
viol 1
Gin@@ 1
IA 0.9187093562728396
Cloud 1
obstacle 1
39@@ 0.8352814372399825
potenti@@ 1
biot@@ 1
ilde 1
Rin@@ 1
7,5 1
Gru@@ 0.8865903985798168
Soc@@ 1
fos@@ 1
psychanaly@@ 1
try 0.24769520686851726
Susan 0.7050520733819199
vidé@@ 1
zz@@ 1
drome 1
ū 1
abouti 1
consécutifs 1
ā 0.63705527051069
hospitali@@ 1
photographique 1
vitch 1
édifiée 1
savants 1
Tem@@ 0.5746935074278382
Saintes 1
relégués 1
imm@@ 1
Lieutenant 0.40187689727519676
Allan 0.9193483259281929
1787 1
Angelo 1
Rho@@ 1
rattachement 1
sondage 1
sins 1
échangé 1
autobiographie 1
retrace 1
Mémoires 1
recouverte 1
ventr@@ 1
Wild 0.5516489234288554
absent 1
saum@@ 1
bombardiers 1
criminels 1
Dead 0.546525349679592
Océanie 1
organiste 1
bleus 1
romanti@@ 1
animales 0.7947946606331668
côto@@ 1
diam@@ 1
voil@@ 1
disponibilité 1
éruption 1
Wells 0.7467986389927813
collo@@ 1
extrêmes 1
négociation 1
nationalités 1
proclame 1
Kate 0.7854929369201049
agran@@ 1
herbes 1
réelles 1
Amis 1
DA 0.6461226701415393
Od@@ 0.9559089720245091
archevê@@ 1
renouvelée 1
stock 0.3082428219857005
encourager 1
olet 1
´ 1
Santo 0.487226061875198
signifier 1
pement 1
secrétariat 1
brute 1
Kel@@ 0.6246921165524552
Sergueï 1
bru@@ 1
Vie@@ 1
convertir 1
oïdes 1
ectiv@@ 1
empereurs 1
fragile 1
combustible 1
Flandres 1
boxeur 1
edi 1
nuls 1
racisme 1
aculaires 1
piège 1
tiles 1
æ 1
édée 1
Gis@@ 1
pharmaceuti@@ 1
réunies 1
Ris@@ 1
ever 0.12383127577689755
lève 1
Rachel 0.903364369601024
desser@@ 1
linguistiques 1
einture 1
constant 0.5596295317830826
prétendant 1
refusant 1
Orne 1
innovations 1
Light 0.34522064104683037
annul@@ 1
Édition 1
Information 0.4321534481578572
recueille 1
rêves 1
aniens 1
confère 1
occupants 1
supporte 1
immatricul@@ 1
Cohen 0.9846387794658666
agh 0.9894100197329507
fiable 1
impasse 1
00@@ 0.5580569602691396
34@@ 0.7164289634580747
signés 1
mélo@@ 1
Free 0.32322046013462696
remplacées 1
orig@@ 1
CS@@ 0.7368570606630125
Sea 0.20566848455670908
envoy@@ 1
Marais 1
collectifs 1
admet 1
voyager 1
certitude 1
gir 1
pos 0.8232331660730959
thr@@ 0.4228198234009245
Essonne 1
légion 1
taine 1
Gascogne 1
ensole@@ 1
plantation 1
cône 1
nomment 1
Carcassonne 1
Porsche 1
cen@@ 1
ectée 1
emprunte 1
ider@@ 1
I.@@ 0.8290178284100476
accomplir 1
Antarctique 1
ministériel 1
Beng@@ 1
Schneider 0.9677866852191611
aj 0.5297470558164857
21,@@ 1
Femme 1
Richmond 0.520065957941404
côtières 1
identifi@@ 1
saisir 1
supériorité 1
poign@@ 1
Vand@@ 1
convois 1
forum 1
nécropole 1
perdit 1
ses@@ 1
IP@@ 0.8302702006081183
ando 0.06987112902321578
ries 0.8575785344981538
générer 1
pénétrer 1
Nathan 0.9391732737932713
Trou@@ 1
trag@@ 0.790161423071193
Rub@@ 1
rallye 1
ancr@@ 1
phylo@@ 1
Gaz@@ 1
intéresser 1
Hommes 1
peuplement 1
Liber@@ 0.6281930958271154
estuaire 1
censé 1
syrienne 1
Promotion 0.8459567560057711
arité 1
contenait 1
lins 1
omètre 1
politiquement 1
ressource 1
èbre 1
Bris@@ 1
Gros@@ 1
cister@@ 1
other@@ 1
sépulture 1
Gabon 1
carbon@@ 1
engagent 1
rhétorique 1
Dom 1
Henriette 1
reté 1
Portugais 1
oïde 1
édant 1
arrach@@ 1
ego 0.6942189245277965
écrivant 1
chaine 1
folk 0.44460135790484423
dépendances 1
témo@@ 1
Race 0.6012209307990252
commencèrent 1
divisés 1
égi@@ 1
adaptées 1
gazon 1
Ey@@ 1
admission 1
î 1
privilège 1
èvement 1
accordent 1
exil@@ 1
Story 0.5008134050543964
drapeaux 1
hygiène 1
reprit 1
Perry 0.6110197987144438
Valentin 1
fausses 1
pourront 1
Strauss 1
hivers 1
déclenche 1
Unité 1
Wit@@ 0.5889887613039404
réchauffement 1
épais 1
mence 1
cip@@ 1
équipées 1
chaussures 1
rent@@ 1
étend@@ 1
1785 1
creux 1
êts 1
sienne 1
sûreté 1
UC 1
régi@@ 1
électr@@ 1
lice 1
acé 1
bec@@ 1
dépens 1
monarque 1
uh@@ 0.6554483891962836
mutations 1
odor@@ 1
prud@@ 1
gratte 1
occurrence 1
multitude 1
ovi@@ 1
grossesse 1
key 0.15181575072890915
Dubois 1
éloigne 1
bloc@@ 1
emprise 1
Laurence 1
Tul@@ 0.8143634186681783
aus 0.012679874515139416
sionnel 1
singulier 1
ultra 1
pèse 1
Down 0.5250976706617942
Elena 1
verser 1
affection 1
ango 0.9603696395994108
reddition 1
séisme 1
Nom@@ 1
déclarent 1
hormis 1
impres@@ 1
agan 1
sénégal@@ 1
1778 1
cérébr@@ 1
détecter 1
Nes@@ 1
Bid@@ 1
Dest@@ 1
prév@@ 1
émérite 1
Marius 1
Publi@@ 1
cataly@@ 1
Ep@@ 0.761833434158219
famine 1
rants 1
Fun@@ 0.7384578725148531
Mickey 1
Off@@ 0.6488896639414474
suggéré 1
Rwanda 1
bourgeoise 1
inales 1
onnier 1
puissantes 1
Triple 0.7709671678358015
spirale 1
suffis@@ 1
couronnement 1
dura 1
eintes 1
Boy@@ 0.8957986790176596
Madonna 0.7918961289760644
Rohan 1
tribut 1
Carthage 1
incertaine 1
théâtrale 1
Ed 0.603600301531396
Breton 1
Coast 0.2200359202274288
Pul@@ 0.5967184343215683
Sylvain 1
secs 1
enjeu 1
gisements 1
Chav@@ 1
affecte 1
Ottomans 1
approxim@@ 1
informe 1
prévoyait 1
respectifs 1
syl@@ 1
tha 0.5105037451465471
passe@@ 1
prêter 1
ä@@ 0.17645981724785462
BMW 0.9073714829420999
grammaire 1
otages 1
Fondé 1
septentrionale 1
tionnaire 1
nh@@ 0.333570459345519
satisfaire 1
vois 1
Villers 1
Bleu 1
isra@@ 1
50@@ 0.5755751964200908
Kyoto 1
pist@@ 1
Beethoven 1
appliquées 1
Grace 0.6399432895049894
corr@@ 1
inaires 1
Perse 1
oud@@ 1
survient 1
constituante 1
soulev@@ 1
1,7 1
curité 1
symétrie 1
vr@@ 1
Inc 1
Jour 1
Sl@@ 0.7074007244510634
commandeur 1
précède 1
ther 0.6633106403059772
cheminée 1
éclip@@ 1
Giorgio 1
ethn@@ 1
polyg@@ 1
gonfl@@ 1
lycé@@ 1
pion 1
tournement 1
Douai 1
compensation 1
examens 1
tébrés 1
ennent 1
mélan@@ 1
Fus@@ 1
affiches 1
navigateur 1
réalisa 1
camb@@ 1
débarque 1
monstre 1
Divers 1
interdire 1
laser 1
soumission 1
fiance 1
tardif 1
Four 0.27571349178945603
desquelles 1
udi@@ 0.9055104558975908
Beyrouth 1
atre 1
suggèrent 1
ü@@ 0.26416419468205343
Élé@@ 1
euc@@ 1
vicom@@ 1
temporaires 1
coopérative 1
gia 0.10410046109306757
tournent 1
traf@@ 1
Albums 0.5054998046986655
PO@@ 0.8118891773076196
card 0.31770779054159215
got@@ 1
éner@@ 1
facto 0.9939589812943903
ôtres 1
Ib@@ 1
Massif 1
stress 0.7511992396409002
coefficient 1
suivies 1
Dean 0.4246998974676292
Japan 0.08517109640474373
formées 1
régence 1
ric 1
450 0.6510689890239829
Sis@@ 1
volé 1
épiscopale 1
agone 1
F.@@ 0.8537454096467592
achever 1
rejetée 1
cristal 1
Magnus 1
intellig@@ 1
récurr@@ 1
mena 1
Chelsea 0.7452591986679695
HD 0.46994300868857336
Orlando 0.8437115128792132
directes 1
investiture 1
vectori@@ 1
Leonard 0.6869675717730267
essay@@ 1
sain@@ 1
Gibraltar 1
atteints 1
Ji@@ 0.9065622900543452
Ronald 0.8044784649576838
accessoires 1
formats 1
signalé 1
Meurthe 1
forcés 1
hellén@@ 1
Établie 1
38@@ 0.6934535626242369
prolongé 1
Tang@@ 0.9722431399741284
rivaux 1
Anciens 1
TGV 1
antérieur 1
Eus@@ 1
MP 0.32012051237286976
éoli@@ 1
23,@@ 1
oniste 1
Aaron 0.771266489105342
erons 1
émetteur 1
Gun@@ 0.5825893341298397
Hardy 1
angu@@ 1
moy@@ 1
essayé 1
Identi@@ 1
escaliers 1
laient 1
discrimin@@ 1
eb 1
Maréchal 1
feuilleton 1
Chronologie 1
Rassemblement 1
abbatiale 1
sages 1
Rémy 1
rine 1
Lal@@ 1
Pad@@ 0.7560666799691261
entraîn@@ 1
modestes 1
Drôme 1
Rim@@ 1
aku 1
arp@@ 1
atri@@ 1
contrer 1
Franc@@ 1
Ille 1
divinités 1
elt 0.32719453844651286
én 0.6451464457122783
sombres 1
Book 0.2532962949469056
courbes 1
déménagé 1
peuplé 1
tas@@ 0.703521676382477
Brigade 0.32769788810561956
Assomption 1
thique 1
valorisation 1
enlèvement 1
51,@@ 1
Card@@ 1
Sean 0.7555963736909337
aïques 1
maç@@ 1
savant 1
ambitieux 1
ouvent 1
acronyme 1
tère 1
recommande 1
instauration 1
1760 1
PN@@ 1
rémun@@ 1
Section 0.6391147331618585
espéran@@ 1
ille@@ 1
Secret 0.7845194042175312
prononcer 1
sia 1
Dag@@ 1
Klein 0.7602290047253819
ardo@@ 1
poussent 1
Roussillon 1
eda 0.8550702945022844
versants 1
Hak@@ 0.8155759531663531
albanais 1
magistr@@ 1
Dim@@ 0.963632380521642
engendr@@ 1
gest@@ 0.31748099912674105
meurtri@@ 1
Table 1
dopage 1
phys@@ 1
By@@ 0.7103275161625778
senti 1
ancée 1
tico 0.5114795106433271
relèvent 1
Rivières 1
archéologues 1
diffusées 1
Dance 0.39004541545223564
GA 0.9219551751534031
has@@ 0.5873303458356519
péru@@ 1
ss@@ 1
collectivité 1
arium 0.8865547632271834
engins 1
étroites 1
Jeunes 1
Jin 1
hypoth@@ 1
visité 1
mite 1
quis 1
maquis 1
évasion 1
3000 0.4343198196736167
Electric 0.5606874099334681
guise 1
unier 1
voyageur 1
cliniques 1
ralenti@@ 1
recré@@ 1
réglementaire 1
supposer 1
EPCI 1
brisé 1
érif 1
oniennes 1
perçu 1
torpil@@ 1
érait 1
berges 1
dj@@ 1
isies 1
rempli 1
aît 1
précep@@ 1
flancs 1
foire 1
Alpha 0.8293563324315271
Say@@ 0.6935868790930156
identifie 1
vélos 1
Rolling 0.5949008898333703
Way 0.42833836497800526
aigle 1
compres@@ 1
cières 1
kol@@ 0.5105428946370916
agny 1
anch@@ 1
33,@@ 1
SM@@ 0.836288257631133
iculaire 1
lez 1
violoniste 1
éparg@@ 1
jumeaux 1
nic@@ 0.8828862295609538
nac@@ 1
Hills 0.4158816263450379
aïa 1
scandin@@ 1
senti@@ 1
inspec@@ 1
torat 1
datation 1
accrue 1
ass 0.35521416902060227
précises 1
navales 1
simultan@@ 1
bet@@ 0.5576223860420645
conseille 1
parade 1
algé@@ 1
manufacture 1
mythique 1
rappro@@ 1
relever 1
mariés 1
ratique 1
Greg 0.7663083191641782
blocus 1
dénonc@@ 1
gage 1
oute 1
Florent 1
émique 1
chirurgicale 1
yth@@ 1
Juillet 1
ruisseaux 1
Alessandro 1
commer@@ 1
publicités 1
Grim@@ 1
lets 0.6076773188901338
muni 1
sus@@ 0.974946690562625
toxiques 1
Jal@@ 1
boutiques 1
Lumières 1
ambitions 1
globe 1
spir@@ 1
tues 1
1776 0.9617870907660367
légitimité 1
édia 1
invasions 1
échel@@ 1
Brie 1
bouddhiste 1
francisc@@ 1
pè@@ 1
Autorité 1
billet 1
hand@@ 0.31280242057858004
sèches 1
contra@@ 1
RTL 1
représentaient 1
agrandissement 1
dois 1
fumée 1
nas@@ 1
Garden 0.4074051474339055
cuirassé 1
impré@@ 1
peines 1
alpin@@ 1
Côté 1
casque 1
préciser 1
éprouv@@ 1
œurs 1
Zi@@ 0.5359240044273718
Ż@@ 1
bou 1
humoristique 1
niche 1
Nuremberg 1
Villiers 1
SS@@ 0.6443826192539706
filtr@@ 1
mardi 1
asi 0.6937045341612966
crédité 1
Républicains 1
ogo 1
pati@@ 1
régie 1
cuisson 1
enga 1
48,@@ 1
Crédit 1
King@@ 1
charité 1
syst@@ 1
mères 1
Rodolphe 1
itude 1
étudia 1
Nikolaï 1
gouverneurs 1
omb 1
éleveurs 1
Bin@@ 0.8754838464992879
horaire 1
Auschwitz 1
anglophones 1
nerveux 1
Rein@@ 0.47570589717421446
Abel 1
Château@@ 1
MP@@ 0.7313364368429625
Valois 1
semblait 1
Kings 0.5513462968895554
emblème 1
constituait 1
proportions 1
square 0.1930415565798479
tion@@ 0.3014066998218893
1763 1
forcée 1
réservoirs 1
souterraine 1
Wood@@ 0.4607337077744673
éol@@ 1
disparue 1
Girls 0.4122062352095291
kat@@ 0.4645485879768247
confession 1
diamant 1
Rol@@ 0.882002977857776
paraissent 1
croît 1
étie 1
Design 0.2810578775590502
Desserte 1
dialectes 1
kal@@ 0.3690239970128693
protectorat 1
Dioc@@ 1
improvis@@ 1
renvoyé 1
matique 1
oscop@@ 1
Cameron 0.7293962580361588
analyser 1
Over@@ 0.5079266129724803
fameuse 1
tible 1
Fontainebleau 1
Pig@@ 1
Aï@@ 1
Jeu 1
MTV 0.4745132789729394
plé@@ 1
poursuites 1
réédition 1
Bla@@ 1
adolescent 1
ectivité 1
syndicale 1
his@@ 1
réussissent 1
jard@@ 1
slogan 1
Fay@@ 1
Tu 1
bouclier 1
eri@@ 0.5328255563085899
parrain@@ 1
proposa 1
Classic 0.5297103103746129
Parfois 1
Tax@@ 1
couvertes 1
dimen@@ 1
comparti@@ 1
passerelle 1
wo@@ 0.4649077475299717
permission 0.7362136021160066
Grammy 0.5852344824248625
évident 1
Miles 0.8544345739218443
Stu@@ 0.6077803831032198
envie 1
pan 0.7318546650087583
amic@@ 1
augment@@ 1
déposer 1
dio 0.2246939434792168
Maghreb 1
comptabil@@ 1
déon 1
mettait 1
Déjà 1
Tcher@@ 1
inées 1
Jo 1
séjourne 1
divin 1
Batman 0.9144289799698287
fiss@@ 1
rebelle 1
Athletic 0.41144317167594213
devi@@ 1
hou 1
Premières 1
approches 1
librairie 1
usagers 1
vertus 1
sto@@ 1
Pie@@ 1
chel@@ 1
proclamation 1
Saf@@ 0.7630920959968569
conversation 1
Hard@@ 0.6662774949481449
Abd 1
Adélaïde 1
Ges@@ 0.45834059247039655
Narbonne 1
Cabinet 0.8352043610124124
Aire 1
Gros 1
funéraires 1
orn 0.5572003859891181
repousser 1
aman@@ 1
déléguée 1
Machine 0.7784920424506061
vœux 1
Sm@@ 0.7703396558405913
réfugie 1
violemment 1
Bresse 1
forçant 1
kel@@ 0.3639815326554851
Gel@@ 0.5008216128107574
agers 1
patriotique 1
rédig@@ 1
xie 1
EL@@ 0.9474481014840317
Memorial 0.27814924462463836
juger 1
âmes 1
Montmorency 1
disparaissent 1
reposent 1
Bridge 0.23442492632916728
arche 1
cons 1
disposés 1
treuse 1
dési@@ 1
garage 1
naître 1
racont@@ 1
congr@@ 1
zin 1
1700 0.8258484087642348
Spencer 0.7220429883983566
game 0.03437311555762788
procession 1
Delta 0.6035561140249811
Hart 0.7027035209051918
chois@@ 1
primitive 1
e. 0.9358975419013178
occupa 1
partiel 1
Gers 1
larves 1
pontific@@ 1
Christ@@ 0.551741004810486
durer 1
chargement 1
enveloppe 1
Ball 0.5357838404284897
perpendi@@ 1
lum 0.6865712461444472
aou@@ 1
concr@@ 1
Utrecht 1
détaillé 1
énig@@ 1
inconvéni@@ 1
ographies 1
Jor@@ 1
leuc@@ 1
ö@@ 0.23063186373798708
delta 1
débutent 1
Intercommunalité 1
Mahomet 1
You@@ 1
emprunté 1
22@@ 0.7374854464524043
Ves@@ 1
lits 1
agrandi 1
Watson 0.6539891614595702
philosophiques 1
Nicholas 0.48916064781331103
Orientales 1
audière 1
visuel 1
Mic@@ 1
flottille 1
Nob@@ 1
pistolet 1
Rabat 1
commissaires 1
Lamb@@ 1
NS 0.6125065724923053
esté 1
→ 0.6773562046618831
connaissait 1
défauts 1
opportun@@ 1
sir 1
Pag@@ 1
maternel 1
mercenaires 1
gestionnaire 1
originalité 1
repê@@ 1
légères 1
éducatif 1
PE@@ 1
Blaise 1
Hunter 0.5290169818770074
rante 1
ords 0.7961402051024735
signant 1
sécheresse 1
uki 1
Lanka 0.48199044790432316
Quimper 1
glaciaire 1
migrants 1
Beg@@ 0.533626853335332
Lach@@ 1
abstention 1
ouragan 1
cahier 1
combattu 1
productrice 1
épin@@ 1
évangélique 1
pâle 1
remon@@ 1
entom@@ 1
inférieurs 1
nomma 1
ARN 1
Felix 0.714231127497705
encre 1
guich@@ 1
ás 0.7086779482320009
Cle@@ 0.646722733335062
crédits 1
fascin@@ 1
ondre 1
reposant 1
González 0.48748058940704364
artificiel 1
entente 1
ków 1
maxim@@ 1
tén@@ 1
Mikhaïl 1
ako 1
alignement 1
comparée 1
odeur 1
Wu 0.7707143125629258
tint 1
attach@@ 1
former@@ 1
reportage 1
récepteurs 1
acceptent 1
investir 1
préfectoral 1
Shim@@ 1
ș@@ 0.961120235947385
absolu 1
asso 1
ogramme 1
volon@@ 1
Cha@@ 1
combat@@ 1
paqueb@@ 1
charme 1
reçue 1
1786 1
crypte 1
mystère 1
méditerran@@ 1
oyen 1
accol@@ 1
antérieurs 1
Lind@@ 0.5713918391529326
séparant 1
arisation 1
aussée 1
prose 1
Récompenses 1
Ther@@ 0.7010688024219084
lerait 1
Audi@@ 1
iva 0.7100051714455926
rénové 1
sionné 1
trouvées 1
Á@@ 0.7550009081297798
Viol@@ 1
Chim@@ 1
confir@@ 1
connexes 1
continuant 1
nombre@@ 1
pakist@@ 1
soprano 1
Encore 1
centré 1
façons 1
monumentale 1
aître 1
litu@@ 1
milite 1
sacri@@ 1
ferait 1
versi@@ 1
Ruth 0.7207816556629687
Vier@@ 0.6021971370469916
compor@@ 1
déta@@ 1
monoc@@ 1
oshi 1
primitif 1
condamnée 1
disparus 1
grise 1
20,@@ 0.9646738314111986
Auteur 1
Castell@@ 1
Montauban 1
Technology 0.24587427028232287
appliqu@@ 1
Vér@@ 1
créature 1
Moïse 1
dain 1
sérieusement 1
jouera 1
meurent 1
Hector 1
ométrie 1
Critique 1
Xbox 0.8398259879493375
inominal 1
voirs 1
Del 0.3805358121039354
pans 1
infini 1
LE 1
tolérance 1
Rac@@ 1
ectives 1
résum@@ 1
sul@@ 1
sélectionnée 1
tos@@ 1
justesse 1
récurrent 1
géométrique 1
apportent 1
onius 1
ouville 1
édu@@ 1
tirée 1
Cinquième 1
potentiels 1
prél@@ 1
obtenues 1
tremblement 1
théologien 1
Fel@@ 0.5438091556908907
Maritimes 1
compatible 1
réduits 1
sberg 0.5452748581933488
teville 1
implém@@ 1
rédu@@ 1
Durand 1
Cra@@ 1
critère 1
retomb@@ 1
Sound 0.38630813887972665
Wor@@ 0.5069156228609848
dominent 1
Hall@@ 0.6465996461073052
Padoue 1
ect 0.4956406021536049
Brigitte 1
UK 0.09235337373063346
V8 1
Yuan 1
impl@@ 0.7902704958003435
annexes 1
douces 1
ocy@@ 1
vall@@ 1
préci@@ 1
ento 0.5526054274080666
recommand@@ 1
subventions 1
Dakota 0.45690778815123045
gri@@ 1
Rob 0.7735993553997152
Valérie 1
chette 1
her 0.009537769583690377
Pacha 1
Religion 0.5864370262783064
Circuit 0.637108486212116
hin@@ 0.2859125561093153
barres 1
hostilité 1
outs 0.7860554117447195
Lob@@ 0.8938106389623109
employeur 1
sibilité 1
Bonne 1
décr@@ 1
essaye 1
préh@@ 1
Acte 1
Personnages 1
Wallace 0.6495109223881558
géologiques 1
sortira 1
liques 1
oriques 1
istie 1
oll@@ 0.5423523560911171
consécration 1
fournissant 1
gorges 1
sy 0.6870209340345204
diens 1
gendre 1
polis 1
Ple@@ 0.9637353173203838
débuta 1
forc@@ 1
Nevers 1
dignit@@ 1
unification 1
Ponts 1
phi@@ 1
Person@@ 0.9230767148991375
Will@@ 0.6099018160372933
eno 0.47683649304905923
vecteurs 1
2,2 1
PP@@ 1
We 0.1697350723344661
antisémitisme 1
enlever 1
entales 1
commander 0.2832901708633561
mathémati@@ 1
trêve 1
boîtes 1
fratern@@ 1
ghetto 1
filiales 1
parcelles 1
postul@@ 1
archique 1
caisses 1
dynamiques 1
faisceau 1
fier@@ 1
folkl@@ 1
électromagn@@ 1
chy 0.8865140124521235
pharm@@ 1
Ig@@ 1
Rid@@ 0.9102881203731027
profitant 1
carolingi@@ 1
reten@@ 1
[...]
