ใน 1203574
ที่ 1006194
และ 1003417
ของ 851992
เป็น 804922
มี 626230
ได้ 529635
การ 523181
" 463979
) 416694
( 415503
โดย 315240
กับ 266882
. 265688
ว่า 264137
ปี 260880
จาก 257341
จะ 251584
ซึ่ง 248648
ให้ 233188
ไม่ 229133
พ.ศ. 227057
ไป 216068
เมื่อ 199992
, 187418
มา 177821
พระ 163122
หรือ 162154
ค.ศ. 160906
อยู่ 154711
นี้ 154197
- 151899
คือ 148400
ใช้ 144676
ก็ 144565
แต่ 140253
เขา 138451
วันที่ 134980
คน 130101
ถูก 130040
ๆ 128329
ด้วย 127410
แห่ง 126898
ประเทศ 118821
์ 118350
ทาง 114565
เพื่อ 113537
ได้รับ 113401
ยัง 112289
ขึ้น 110671
อย่าง 109366
2 105902
จึง 103338
ส 99302
เมือง 98748
นั้น 97732
1 94648
ผู้ 90040
สามารถ 87721
ไทย 86383
กัน 81915
ถึง 81319
แล้ว 80634
หนึ่ง 79650
การ@@ 79440
3 78577
ทำให้ 78025
ชื่อ 76946
สร้าง 74309
ล 74232
เธอ 73707
ทรง 71270
ต่อ 71244
แบบ 69669
จังหวัด 69018
ชาว 68532
ตาม 68294
น 68263
เรื่อง 68259
() 68085
อร 67397
ระหว่าง 66459
เกิด 66203
ออก 65581
ต่อมา 65419
เพลง 64172
ตัว 63964
วัด 63681
ร์ 62293
ทั้ง 61525
นา 60854
ทีม 60506
อีก 60323
มาก 60009
ความ 59550
ริ 59064
แรก 58155
ปัจจุบัน 57960
ต้อง 57811
ทำ 57105
กลุ่ม 57095
ดี 56755
เช่น 56745
ส่วน 56468
สำหรับ 56290
4 56169
: 55028
ด้าน 54974
เดือน 54842
พบ 53957
ลง 53930
พระองค์ 53631
รา 52050
ใหม่ 51919
เรียก 50901
ช่วง 50874
กา 49702
หลาย 49175
บน 49010
ที่สุด 49008
เข้า 48984
เอ 48657
รี 48360
อำเภอ 47966
ภาษา 47954
วัน 47508
เริ่ม 47311
จัด 47104
โอ 46759
ความ@@ 46624
มิ 46512
5 46487
พระเจ้า 46346
ลา 45589
ครั้ง 45552
เล่น 45462
โรงเรียน 45445
ภาพยนตร์ 45439
อา 44837
ไว้ 44792
ตั้งแต่ 44651
โลก 44415
ยา 44273
จำนวน 44090
เด 43576
ต่าง 43407
หลัง 42694
การแข่งขัน 42461
ลิ 42397
ซี 42253
– 42204
กว่า 42178
จน 41310
นำ 41182
ตา 41072
มาจาก 40745
ต 40639
รัฐ 40634
ด 40615
สอง 40375
ม 40239
สี 40088
ซา 40087
; 39992
พื้นที่ 39902
ก 39834
อ 39102
ระดับ 39034
ส@@ 38785
อาจ 38608
ใหญ่ 38433
ทั้งหมด 38140
งาน 38079
อื่น 38028
ที่จะ 37964
ค 37679
สมเด็จ 37615
เขต 37508
ญี่ปุ่น 37359
ราช 37024
ม@@ 36908
คำ 36788
ระบบ 36748
เร 36632
โร 36312
จีน 36264
ได้แก่ 35819
ส์ 35786
ก่อน 35763
ก@@ 35732
เคย 35619
นาย 35538
ผ่าน 35485
ประมาณ 35369
รอบ 35320
ในประเทศ 35313
ลี 35147
6 34966
ณ 34813
สมัย 34690
มหาวิทยาลัย 34118
เนื่องจาก 34041
มัน 33883
รวม 33812
น้ำ 33653
น@@ 33644
ท 33588
เพราะ 33510
ล@@ 33083
ตำแหน่ง 32989
ผู้@@ 32813
นัก 32780
บ้าน 32696
เซ 32451
วิ 32418
เพียง 32396
ชุด 32184
ลักษณะ 32149
บริษัท 32095
เต 31972
การศึกษา 31839
บริเวณ 31805
คา 31777
เวลา 31716
เดิม 31564
สำคัญ 31496
ตำบล 31418
ชนิด 31347
บาง 31241
ง 31193
เท 31127
นิ 31124
สูง 31073
เม 31006
ซิ 30803
ต@@ 30624
ช 30594
ค@@ 30508
แก่ 30360
ว 30144
ชิ 29950
หลังจาก 29859
7 29843
โก 29821
-@@ 29585
ฟ 29530
อัน 29352
อังกฤษ 29324
อ@@ 29096
ฟุตบอล 29094
หลัก 29057
ตั้งอยู่ 28976
(@@ 28971
อันดับ 28815
ฝ่าย 28707
รัฐบาล 28683
เกม 28528
ส่ง 28497
โค 28444
รายการ 27976
เปิด 27957
10 27908
โน 27882
โต 27207
อัลบั้ม 26941
ชาติ 26873
แสดง 26763
บ 26758
8 26670
แบ่ง 26572
ร 26500
กีฬา 26401
ประวัติ 26347
เก 26319
รับ 26223
ยาว 26097
ว@@ 26087
ด@@ 26081
ย 25886
ประกาศ 25723
ฝรั่งเศส 25678
สโมสร 25660
ผล 25625
เกี่ยวกับ 25619
ภายใน 25602
บ@@ 25520
ภาพ 25329
สาย 25324
"@@ 25308
ท@@ 25287
กลับ 25286
ภาค 25278
ปลา 25215
ย@@ 25140
องค์ 25024
เป็นการ 24987
อี 24888
กลาง 24821
ป@@ 24782
” 24773
/ 24734
อดีต 24709
โอลิมปิก 24673
& 24632
กำลัง 24597
ดา 24555
ผลงาน 24550
รูป 24525
สงคราม 24516
รุ่น 24415
ร@@ 24341
ช@@ 24303
ยุค 24207
วา 24121
ติ 24110
เจ้า 24074
“ 24038
วงศ์ 23927
รูปแบบ 23835
ดังกล่าว 23715
บา 23558
สาม 23510
เค 23437
ฮา 23394
ล้าน 23384
เดียว 23142
น้อย 23036
of 22923
ลีก 22914
์@@ 22906
มากกว่า 22834
ช่วย 22754
เปลี่ยน 22702
วง 22645
ครั้งแรก 22539
พรรค 22527
จนถึง 22440
คณะ 22407
ตั้ง 22379
9 22350
นอกจากนี้ 22320
ร่วม 22091
บี 22073
ฟ@@ 21965
เห็น 21930
ชั้น 21927
  21884
เกาะ 21705
ถนน 21608
เขียน 21606
ดู 21427
ใต้ 21346
โม 21335
ท่าน 21316
อาหาร 21310
20 21298
จิ 21240
เกิดขึ้น 21179
โล 21157
ย์ 20984
ทหาร 20963
ป 20961
โด 20934
ยู 20785
ตน 20764
ดิ 20762
ประเภท 20720
เน@@ 20713
เข้าร่วม 20640
หน้า 20575
ง@@ 20564
ตอน 20544
พวกเขา 20534
ทอง 20440
ก็ได้ 20425
มหา 20356
ข้อมูล 20325
สุดท้าย 20296
ฤดูกาล 20256
ซ 20252
เหนือ 20197
มีนาคม 20143
รางวัล 20129
เจ 20103
สิงหาคม 20098
หา 20094
กองทัพ 20065
แห่งชาติ 20060
ที่อยู่ 20050
สมาชิก 20047
ชาย 20031
ศึกษา 19999
เดียวกัน 19850
เสียง 19846
ตุลาคม 19787
อายุ 19724
12 19609
ขนาด 19605
ปรากฏ 19571
ออกมา 19561
ชีวิต 19503
เข้ามา 19499
พัฒนา 19458
เดินทาง 19451
บาท 19444
กลายเป็น 19441
ออกจาก 19414
ช่อง 19368
กันยายน 19312
เอง 19291
ประกอบ 19224
อาคาร 19220
ส่วนใหญ่ 19217
' 19212
ประกอบด้วย 19196
ยังมี 19147
เมษายน 19139
มกราคม 19132
ธันวาคม 19074
สาขา 19074
แทน 19022
15 19021
จักรพรรดิ 19018
ชา 19008
แต่ละ 18987
ออ 18944
พฤษภาคม 18899
โรค 18899
ฐานะ 18886
ต่างๆ 18853
พวก 18834
สกุล 18831
น. 18814
ทา 18773
นี 18741
หมายถึง 18709
กรกฎาคม 18699
มนุษย์ 18595
รวมถึง 18562
มัก 18440
ทุก 18373
ประชากร 18356
หญิง 18345
ใจ 18332
ศรี 18272
เลือก 18261
แนว 18241
เพิ่ม 18159
การเลือกตั้ง 18136
ย้าย 18115
ประชาชน 18106
พ@@ 18050
โซ 17986
ทั้งสอง 17968
จ@@ 17956
มิถุนายน 17922
ต์ 17920
เมตร 17870
นาง 17841
เล@@ 17825
บุคคล 17821
ที 17779
กำหนด 17777
กรุง 17764
16 17667
ราชวงศ์ 17601
ลด 17555
นัด 17525
สู่ 17522
พฤศจิกายน 17494
ทั่วไป 17483
สิ่ง 17466
ชนะ 17377
นิยม 17315
30 17295
อีกครั้ง 17288
ไอ 17245
สหรัฐอเมริกา 17238
), 17225
เท่านั้น 17222
โท 17211
วิ@@ 17179
อะ 17141
เล็ก 17034
ตี 16962
กุมภาพันธ์ 16873
การปกครอง 16836
อาศัย 16814
อิ 16788
ขอ 16773
สนับสนุน 16730
แม่น้ำ 16689
ภายใต้ 16649
ซ@@ 16630
ระ 16496
11 16464
ดังนี้ 16445
หัว 16425
เงิน 16425
ะ 16389
ประจำ 16387
รัก 16265
ห@@ 16256
จบ 16244
เม@@ 16233
ซ์ 16182
ชื่อว่า 16178
พิเศษ 16161
แข่งขัน 16151
เป็น@@ 16128
(; 16067
เครื่อง 16064
วี 16051
เบ@@ 16036
หนังสือ 16012
ผลิต 15979
เหตุการณ์ 15960
สัตว์ 15945
นาน 15928
The 15817
รวมทั้ง 15809
19 15793
เดอะ 15737
อาร์ 15725
ฤดูร้อน 15635
14 15611
สุ 15610
18 15532
ร่วมกับ 15525
") 15524
คณะกรรมการ 15473
ด์ 15441
เสียชีวิต 15412
สัน 15369
เด็ก 15363
พระราชทาน 15362
ทำงาน 15337
ตัน 15332
ถ้า 15330
กิ 15237
ฯ 15156
เรือ 15110
คู่ 15050
สาร 15040
จากนั้น 15023
กะ 15009
สังกัด 14992
สูงสุด 14986
ยังคง 14915
แม่ 14833
กลับมา 14822
แอ 14792
ไม้ 14784
เส้น 14779
อาการ 14693
ตะวันออก 14682
ร์@@ 14632
กู 14607
หลวง 14594
หน่วย 14575
มะ 14573
การแสดง 14550
ใบ 14519
ไฟ 14491
ฮิ 14470
ขาว 14450
ฉบับ 14359
โบ 14358
เอส 14333
พา 14303
คล้าย 14302
เล 14287
คิด 14269
13 14259
จุด 14226
ประวัติศาสตร์ 14226
เรา 14223
จำกัด 14153
แยก 14123
นักแสดง 14110
รู 14103
คอ 14018
นับ 13970
เลย 13941
ป่า 13925
ซู 13921
สาธารณรัฐ 13872
นก 13869
น้ำ@@ 13857
เข้าไป 13799
​ 13799
ยุโรป 13772
เก@@ 13760
รอ 13755
ข@@ 13705
เหล่านี้ 13704
ขนาดใหญ่ 13694
บท 13689
อำนาจ 13687
อินเดีย 13625
เจ้าชาย 13618
นคร 13611
กระ@@ 13608
เป็นที่ 13597
พระ@@ 13596
25 13577
ออกอากาศ 13572
ที่สอง 13544
17 13542
รักษา 13496
เป็นหนึ่ง 13478
โครงการ 13476
ปา 13464
ละคร 13461
% 13449
กษัตริย์ 13447
ธรรม 13446
the 13432
เข้าสู่ 13430
บุตร 13405
สภา 13404
เรียน 13403
ราย 13391
สหรัฐ 13389
โย 13381
สังคม 13372
ก่อตั้ง 13371
พิ@@ 13354
ชัย 13301
ชิง 13239
เอ@@ 13227
เป็นต้น 13221
ดาว 13207
ภายหลัง 13195
gt 13156
ตะวันตก 13153
ลูก 13142
คำ@@ 13089
จนกระทั่ง 13072
lt 13050
แดง 13025
อิ@@ 12993
ต้น 12975
ทะเล 12965
ดำรงตำแหน่ง 12940
จำหน่าย 12932
ธ 12924
สถานี 12903
แสง 12876
สถาบัน 12864
น์ 12837
จำนวนมาก 12832
ประ@@ 12795
จี 12779
เอา 12770
การพัฒนา 12745
ละ 12726
ปลาย 12714
เซลล์ 12712
หาก 12694
เสีย 12694
ตนเอง 12661
ระบุ 12613
ตระกูล 12572
ตรง 12558
ดินแดน 12551
บิดา 12532
วาง 12512
แมน 12498
ใด 12488
กร 12448
อย่างไรก็ตาม 12446
ครอบครัว 12422
เจ้าหญิง 12404
กิน 12394
24 12386
วิธี 12328
เสด็จ 12323
อักษร 12315
เชื่อ 12310
ห์ 12304
วิทยาลัย 12298
ส่วนหนึ่ง 12260
บิ 12259
ใกล้ 12252
ดนตรี 12238
21 12236
จัดตั้ง 12218
หลังจากนั้น 12179
มาร 12177
ในขณะที่ 12169
มักจะ 12129
ก่อ 12092
พ 12087
สมาคม 12083
ชัน 12070
เท@@ 12033
แปล 12032
พี 12013
เฮ 12004
ราว 12002
อา@@ 11991
บิน 11983
ออกแบบ 11983
ศาสนา 11975
มี@@ 11974
เฟ@@ 11945
ยะ 11942
อเมริกัน 11903
อาชีพ 11880
นาม 11820
สี่ 11807
แม้ 11754
เพื่อให้ 11748
ท่า 11731
ประตู 11724
เทพ 11715
อีกด้วย 11712
ครั้งนี้ 11711
สนาม 11711
รัสเซีย 11702
เกิน 11700
โดยเฉพาะ 11696
ชี 11665
แตก 11636
กฎหมาย 11634
นิ@@ 11630
นัก@@ 11610
ดังนั้น 11608
พม่า 11607
ห้อง 11607
ฐาน 11593
ศูนย์ 11589
มณฑล 11572
อาจจะ 11555
ติด 11513
อิน 11465
ฮ@@ 11439
พยายาม 11428
รถ 11409
คลอง 11386
งา 11368
ทาง@@ 11367
ค่า 11344
เยอรมนี 11289
เว@@ 11287
จักรวรรดิ 11243
มือ 11191
ตัวเอง 11189
มากขึ้น 11183
วา@@ 11172
เอก 11170
เพ 11163
บันทึก 11152
ห 11134
อัล 11128
ก่อสร้าง 11127
พระยา 11117
เอเชีย 11116
วิน 11113
ต้องการ 11109
กิโลเมตร 11101
โฮ 11099
ยก 11085
แผ่นดิน 11080
อาณาจักร 11075
เน 11059
วัฒนธรรม 11057
มา@@ 11049
คะแนน 11045
เหมือน 11039
กรม 11026
เซอร์ 11013
เทคโนโลยี 10997
กว้าง 10990
เป@@ 10990
แก้ว 10986
ยิง 10983
ดำ 10941
เลอ 10930
คน@@ 10928
หมู่ 10927
0 10903
ควบคุม 10899
พืช 10876
จา 10870
่ 10862
สถานที่ 10837
แพ้ 10837
เป็นทางการ 10830
ป้องกัน 10825
ไซ 10806
เจ@@ 10794
พร้อมกับ 10793
รายชื่อ 10781
รอง 10752
มากมาย 10751
ชน 10744
ตรา 10716
ตาย 10711
ประธาน 10695
ศิลปิน 10694
ยอด 10680
เริ่มต้น 10663
ตัวละคร 10648
กอ 10645
ต่อไป 10644
กรุงเทพมหานคร 10639
กุ 10624
พอ 10623
หมู่บ้าน 10621
เฉพาะ 10596
ข้าง 10595
ขาย 10571
22 10569
ค่าย 10543
เปิดตัว 10518
ปกครอง 10516
เช@@ 10515
โ@@ 10498
รา@@ 10495
23 10475
นักเรียน 10471
ทำการ 10436
พล 10424
ทำหน้าที่ 10412
ซิงเกิล 10381
มีชื่อเสียง 10353
เก่า 10353
หลังจากที่ 10345
ม. 10330
โจมตี 10325
นา@@ 10290
หิน 10262
อุ 10254
ฉาย 10243
กิ@@ 10239
เป็นที่รู้จัก 10235
วิชา 10212
ย่อย 10211
ดำเนินการ 10206
ลำดับ 10196
อิตาลี 10178
ครู 10147
เยอรมัน 10144
เด@@ 10143
ศ 10141
อน 10141
ลู 10130
วิหาร 10111
ไฟฟ้า 10098
นักร้อง 10038
กี 10035
ธรรมชาติ 10035
วัง 10018
ความสัมพันธ์ 10007
กล่าว 10003
ฟ้า 10003
ศิลปะ 9997
ความสามารถ 9994
พันธุ์ 9976
ถ@@ 9975
เกี่ยวข้อง 9970
ปัญหา 9918
พระนาง 9916
). 9899
นอก 9899
= 9885
า 9880
แชมป์ 9871
นอ 9864
สเปน 9841
รู้ 9832
รู้จัก 9820
ตะ 9818
ต่อต้าน 9818
กล่าวว่า 9803
ขยาย 9796
การผลิต 9794
อื่นๆ 9794
เชิง 9793
โอ@@ 9786
ญ 9779
รุ 9753
จริง 9739
ญ@@ 9737
สิทธิ 9716
ดิน 9693
นะ 9692
ทำลาย 9667
พร้อม 9661
ใส่ 9648
สัญลักษณ์ 9643
เก็บ 9630
รัฐมนตรี 9629
ไท 9626
รับรางวัล 9625
โบราณ 9619
เดิน 9577
ขนาดเล็ก 9562
วิทยาศาสตร์ 9561
ดูแล 9543
กอง 9542
ฟา 9542
จัดการ 9526
สภาพ 9518
่ง 9518
เอ็ม 9500
สมาชิกสภาผู้แทนราษฎร 9496
การเมือง 9480
ผู้นำ 9478
ทำ@@ 9466
พัน 9447
วร 9443
23@@ 9436
ฉ@@ 9433
ตัวอย่าง 9422
สหราชอาณาจักร 9416
(" 9413
สุ@@ 9413
เซ@@ 9407
โครงสร้าง 9397
s 9386
ต่างกัน 9376
26 9355
สอน 9338
แม้ว่า 9324
ท์ 9322
ลูก@@ 9321
จ 9291
เหลือ 9266
รายงาน 9263
สวน 9238
หลักสูตร 9237
กรรม 9233
ประธานาธิบดี 9228
ทศวรรษ 9215
ภูมิภาค 9215
ทำให้เกิด 9214
แรง 9214
28 9212
อากาศ 9201
คุณ 9195
สุด 9140
สม@@ 9134
ทราบ 9122
เครื่อง@@ 9119
บางส่วน 9117
เศรษฐกิจ 9095
นายกรัฐมนตรี 9091
ปาก 9084
ดอก 9074
ปล่อย 9071
ยึด 9055
ใช่ 9038
แต่งตั้ง 9022
สั้น 9012
เย 9009
โรงพยาบาล 8999
100 8989
ประสบความสำเร็จ 8981
นักกีฬา 8974
ขณะที่ 8973
ภาวะ 8936
ริน 8933
คุ 8929
พิธี 8928
รัชกาล 8922
หลักฐาน 8920
เส้นทาง 8901
โจ 8900
เป็นเวลา 8897
แหล่ง 8896
ว่าการ 8894
สำเร็จ 8880
เป็นครั้งแรก 8874
", 8872
27 8865
้ 8850
อุตสาหกรรม 8834
ไว 8808
คืน 8792
เพ@@ 8765
หน้าที่ 8752
พลังงาน 8739
ชุมชน 8716
ธ@@ 8704
สยาม 8704
องค์กร 8703
ทั่วโลก 8687
บอ 8686
วะ 8686
เพิ่มขึ้น 8680
เวียดนาม 8677
ฝั่ง 8664
ที่ดิน 8662
เช่นกัน 8661
ตัว@@ 8656
ธิดา 8653
จู 8643
ราช@@ 8616
วิทยา 8615
อาจารย์ 8604
ลิง 8591
สมอง 8573
เลือด 8570
เวอร์ 8567
แคว้น 8561
เลี้ยง 8558
ร่างกาย 8554
ลิ@@ 8536
บริการ 8528
แค 8519
ลาย 8512
เนอ 8504
ตลอด 8497
สา@@ 8464
อู 8460
บรม 8452
ยา@@ 8449
ท้องถิ่น 8441
คริสต์ศตวรรษ 8432
ภาษาอังกฤษ 8431
งาน@@ 8430
ธง 8430
ว์ 8430
เบอร์ 8426
โม@@ 8418
ชอบ 8416
29 8415
ทัพ 8403
คาร์ 8402
กำกับ 8386
เสนอ 8377
รั@@ 8342
วิดีโอ 8330
ธุรกิจ 8322
ถือเป็น 8321
สำนักงาน 8308
ศักดิ์ 8305
ระ@@ 8301
บุ 8299
ข้อ@@ 8297
เหตุ 8294
ราม 8292
สาว 8289
จอห์น 8277
พ่อ 8274
แผ่น 8259
รบ 8252
สัปดาห์ 8250
ปกติ 8249
ดำเนิน 8243
เชียงใหม่ 8239
ซีรีส์ 8226
เร@@ 8226
กา@@ 8222
ผ@@ 8206
ตำรวจ 8197
เรื่องราว 8192
ชู 8191
ซื้อ 8191
สต 8184
การ์ตูน 8179
นท 8174
ณ@@ 8164
โทรทัศน์ 8164
ได 8164
ศ@@ 8159
ในที่สุด 8143
ร่วมกัน 8141
คอน 8138
แถบ 8137
มอ 8132
A 8128
วงการ 8126
เค@@ 8125
เอาชนะ 8122
พร 8095
้ง 8086
หมายเลข 8082
พื้น 8060
่@@ 8055
รับ@@ 8051
ตลาด 8047
ยอดเยี่ยม 8045
พระมหากษัตริย์ 8033
ลำ 8010
เครื่องบิน 8009
เล่ม 8009
and 7999
พูด 7988
ทางการเมือง 7987
การทำงาน 7973
สื่อ 7971
ทฤษฎี 7967
โอรส 7953
บุญ 7934
ไร 7932
นี่ 7924
ตก 7917
ต่างประเทศ 7915
ี 7912
กุล 7905
ถือว่า 7900
พลัง 7898
2016 7888
แพทย์ 7879
ลา@@ 7860
ตะ@@ 7848
หัวหน้า 7844
ค้นพบ 7837
ไร่ 7834
ขณะ 7832
ฟี 7811
่น 7805
แนวคิด 7804
นโยบาย 7794
ใกล้เคียง 7787
ลาว 7782
เจริญ 7771
ดัง 7768
คู 7767
อาวุธ 7754
บางครั้ง 7751
โกะ 7747
แต่ง 7742
เอ็น 7740
อเมริกา 7729
ห้า 7725
เ@@ 7725
2012 7723
เหล่า 7718
เรีย 7707
เยาวชน 7704
_ 7697
ร่าง 7691
มุ 7687
ปราสาท 7686
2014 7674
ข้อ 7668
สม 7666
แม@@ 7664
การเปลี่ยนแปลง 7615
ข่าว 7614
จับ 7611
พระนาม 7604
50 7589
แบ 7584
วัตถุ 7568
คัดเลือก 7565
ปิด 7565
ยอมรับ 7548
สิบ 7534
ต่อเนื่อง 7532
24@@ 7531
2010 7528
2018 7523
มีชื่อ 7520
ขาด 7515
ตัด 7514
อุปกรณ์ 7509
อั@@ 7497
ด้วยกัน 7458
ห่าง 7455
ฆ่า 7438
อก 7438
เนื้อ 7438
2554 7424
ติดต่อ 7419
ที่มา 7417
ซาน 7408
ชก 7405
ผสม 7401
เกาหลี 7382
ความนิยม 7371
ซัน 7364
ทีวี 7362
ใคร 7353
หนัก 7347
ออสเตรเลีย 7346
ศึก 7337
ที่@@ 7335
ที่เกิด 7325
ตาม@@ 7324
โดย@@ 7324
2020 7320
นำมา 7317
ะ@@ 7309
บอก 7287
ลม 7287
2550 7284
กล@@ 7284
31 7278
็@@ 7259
มารดา 7253
เผยแพร่ 7224
ที่ตั้ง 7213
เพื่อน 7208
เขียว 7203
ปรับ 7200
เอฟ 7197
ระยะ 7191
กรณี 7185
ราชอาณาจักร 7185
วอ 7169
ร้อยละ 7166
ิน 7157
ราชการ 7155
ชิ้น 7142
้น 7140
พล@@ 7139
เจ้าพระยา 7138
ควร 7133
ทั่ว 7128
นุ 7087
อม 7086
เบ 7082
เนีย 7080
เต็ม 7079
ศาสตร์ 7076
ไ@@ 7067
ตั้งขึ้น 7062
ทางหลวง 7055
วน 7042
สปีชีส์ 7040
จันทร์ 7039
โตะ 7033
ริ@@ 7031
ภัย 7027
อัตรา 7024
บทบาท 7009
เนื้อหา 7008
เป็นสมาชิก 6999
กิจการ 6988
อุ@@ 6984
กิจกรรม 6981
การนำ 6978
การรักษา 6970
[[ 6962
ประ 6961
กระบวนการ 6960
สัญญา 6948
ให้บริการ 6940
ต. 6926
เกาหลีใต้ 6919
มาตรฐาน 6907
ตีพิมพ์ 6905
ดะ 6904
หนอง 6899
ข้าม 6898
ถือ 6898
เช่นเดียวกับ 6898
เสมอ 6891
ฮ์ 6889
ไหล 6880
อ่อน 6878
โพ 6877
สมรส 6871
ชาวไทย 6864
กองกำลัง 6835
สะพาน 6820
สถาน 6818
ิ@@ 6816
กล่าวถึง 6812
2557 6810
นานาชาติ 6809
จง 6805
รส 6800
คอมพิวเตอร์ 6798
ทั้งสิ้น 6795
ออฟ 6794
โป 6794
ไฮ 6792
กระทรวง 6786
ก่อนที่จะ 6782
สถิติ 6781
กระจาย 6779
ถวาย 6776
๊@@ 6776
ก. 6762
คัน 6757
2553 6755
ต่ำ 6754
โรมัน 6745
พา@@ 6737
คล@@ 6734
2015 6732
แขวง 6730
แอน 6724
โอกาส 6720
หนี 6713
่า 6713
พิจารณา 6711
กร@@ 6709
ล่า 6701
น่า 6696
กัมพูชา 6689
ตำนาน 6687
ซอ 6662
ติ@@ 6658
เกือบ 6656
สถาปัตยกรรม 6644
ประสาท 6637
รับบท 6631
การต่อสู้ 6625
ตัดสินใจ 6623
ทอ 6612
มหาสมุทร 6606
ให้@@ 6599
ง่าย 6593
ตู 6590
ระยะเวลา 6589
อด 6583
]] 6582
รัน 6581
การสอน 6580
ทิ้ง 6577
ศูนย์กลาง 6577
เหรียญ 6577
ระเบิด 6561
สา 6561
พิมพ์ 6551
ช้าง 6539
นอกจาก 6539
ยาก 6539
สมบูรณ์ 6529
นิตยสาร 6521
ลี่ 6520
เย@@ 6517
ช่วงเวลา 6516
2017 6514
2561 6513
2551 6512
เดี่ยว 6507
วัย 6505
รุนแรง 6484
ฺ@@ 6477
วิธีการ 6467
มาถึง 6463
ช่วยเหลือ 6462
ตา@@ 6462
เทียบ 6459
40 6454
รายได้ 6453
รัฐธรรมนูญ 6451
2555 6444
นู 6429
สินค้า 6428
2549 6427
ยุ 6425
นักศึกษา 6420
ต่อสู้ 6418
อิทธิพล 6418
โนะ 6417
เพศ 6416
แต่งงาน 6416
เฮ@@ 6409
บ้าง 6405
ในขณะนั้น 6399
แก 6393
บริหาร 6392
โดยทั่วไป 6388
2559 6383
หน่วยงาน 6379
2562 6374
ชั่น 6372
ผู้ป่วย 6371
ธาตุ 6367
คริสต์ 6353
ศตวรรษ 6332
อง 6329
บังคับ 6318
ดร. 6317
2008 6312
คณะ@@ 6305
คัพ 6304
สถาปนา 6289
มั@@ 6274
ค่า@@ 6270
ส่วนตัว 6270
นิกาย 6265
เล่า 6258
in 6253
วง@@ 6248
แลนด์ 6247
ตัดสิน 6241
ขา 6237
ยศ 6235
(, 6228
2013 6223
เห 6222
อะไร 6209
ดี@@ 6203
พื้นฐาน 6198
เมืองหลวง 6189
วอลเลย์บอล 6185
formula 6184
ทั้งนี้ 6184
ขน 6182
ผม 6175
กรรมการ 6171
เห@@ 6171
ิ 6154
พระราชวัง 6153
ครอง 6152
เต@@ 6150
อุณหภูมิ 6131
ล์ 6122
2560 6110
สำนัก 6104
กั@@ 6099
ซี@@ 6098
ค์ 6092
บัว 6084
คา@@ 6082
ริก 6072
เลน 6069
ไชย 6069
คิ 6068
หัว@@ 6059
ประชาธิปไตย 6048
รถไฟ 6048
รวดเร็ว 6047
เชื่อม 6042
แฟน 6038
เลือกตั้ง 6037
ปืน 6027
า@@ 6027
ขึ้นไป 6025
ฝึก 6024
กรม@@ 6022
อธิบาย 6022
ปฏิบัติการ 6021
ชัดเจน 6009
ภูมิ 6007
นี@@ 5994
โดยที่ 5991
แ@@ 5979
ศาล 5966
หยุด 5963
มีส่วน 5962
ดอน 5956
ปริมาณ 5950
2019 5945
ร้อง 5942
สากล 5942
ซูเปอร์ 5941
ท่าอากาศยาน 5941
สถานะ 5936
2011 5933
ฉาก 5933
ส่งผล 5931
บรรดา 5926
ตรวจ 5925
ไต 5924
2552 5919
เมีย 5918
เส@@ 5917
ของ@@ 5909
ที่สาม 5904
อ. 5901
ชิงแชมป์ 5899
ผล@@ 5888
เจ้าหน้าที่ 5877
ทั้งคู่ 5876
ขุน 5866
การค้า 5854
a 5835
สิ้นพระชนม์ 5835
หัวใจ 5832
รัชสมัย 5830
คนใน 5829
การเรียน 5828
สุขภาพ 5825
เจอ 5822
กิจ 5818
เจ้าฟ้า 5817
ลอนดอน 5804
หนัง 5800
.@@ 5793
ระหว่างประเทศ 5784
พระราชินี 5771
! 5769
เพิ่มเติม 5768
สาย@@ 5767
ทิ@@ 5766
ปฏิเสธ 5761
เสีย@@ 5760
แบ@@ 5760
น้ำหนัก 5758
พระพุทธรูป 5757
กระดูก 5745
หอ 5745
เข้า@@ 5742
บู 5740
เจดีย์ 5740
งวง 5731
2558 5725
มู 5724
โปรแกรม 5722
ร. 5721
กลาย 5719
ขวา 5716
ความเร็ว 5714
ส่งเสริม 5713
ศพ 5705
เคมี 5703
มิ@@ 5699
บาร์ 5694
ทุกคน 5693
แผน 5692
หรือไม่ 5690
การบริหาร 5688
2556 5682
โปรดเกล้าฯ 5681
ตั้ง@@ 5678
ู 5678
รัส 5675
บวร 5672
ลดลง 5671
คดี 5661
ชาร์ต 5655
ลัทธิ 5654
ผู้หญิง 5651
จิต 5649
ลำตัว 5629
พี่น้อง 5627
ชิน 5624
อัล@@ 5619
เน้น 5614
้น@@ 5613
ปฏิบัติ 5608
ใจ@@ 5605
เชอ 5596
เบล 5594
จุด@@ 5591
มงคล 5569
เสร็จ 5566
เร็ว 5552
ขุนนาง 5542
นาที 5541
ประสูติ 5541
ชั่วโมง 5536
พุทธศักราช 5532
สั่ง 5532
ศิ 5525
มหา@@ 5520
สิ้นสุด 5517
เอช 5516
เคน 5511
ทา@@ 5508
รัง 5505
ฤดูหนาว 5503
เป้าหมาย 5500
สตรี 5489
ซะ 5484
พระราชโอรส 5477
ไอ@@ 5475
น้ำมัน 5471
น้อยกว่า 5468
ประทับ 5467
หล@@ 5467
ลู@@ 5461
เวล 5459
2009 5448
ซ้าย 5440
หมด 5439
ฟิลิปปินส์ 5417
อ่าน 5413
ยอม 5411
เขตการปกครอง 5403
ปั@@ 5402
ร้องเพลง 5401
หม@@ 5399
เซน 5399
หาย 5395
มอบ 5390
เย็น 5388
ราคา 5381
แชมป์โลก 5380
ฟรี 5375
คร@@ 5371
อินโดนีเซีย 5371
มีอายุ 5368
บิล 5355
2563 5351
พั@@ 5351
โดยตรง 5347
รู้สึก 5345
ดั้งเดิม 5331
แกน 5331
ให้การ 5330
เซนติเมตร 5326
เชีย 5325
แล 5324
ฟัน 5323
มีบทบาท 5320
เท่ากับ 5316
ภูเขา 5314
โร@@ 5314
เพชร 5310
เว 5310
บู@@ 5305
มีผล 5304
เหล็ก 5304
โช 5299
แอ@@ 5296
งะ 5294
ทู 5291
แข่ง 5291
B 5282
ทร 5280
ภรรยา 5276
แช 5274
แก้ 5273
ดา@@ 5271
2007 5270
เล็กน้อย 5270
คอย 5269
ฮี 5264
ความเชื่อ 5261
เวน 5261
รูปร่าง 5260
ลึก 5256
ความหมาย 5250
สิริ 5248
นอกจากนั้น 5246
ปีก่อน 5244
รัฐสภา 5244
อิสระ 5236
ตามลำดับ 5234
ตรวจสอบ 5232
ศ. 5231
โล@@ 5229
ไวรัส 5229
กระแส 5226
คง 5218
ปรากฏตัว 5215
C 5212
การประชุม 5201
ชาวบ้าน 5198
สิ 5191
โว 5177
br 5172
ใช้งาน 5170
แจ้ง 5168
2006 5167
สิทธิ์ 5167
สด 5166
สึ 5158
คอนเสิร์ต 5156
รอย 5155
สัญญาณ 5154
แทนที่ 5154
นักบุญ 5151
มหาราช 5145
ฟัง 5140
รับรอง 5140
เสริม 5140
มอน 5135
สีแดง 5134
มุม 5133
ออน 5130
พัก 5125
ละ@@ 5124
เดนมาร์ก 5124
ลั@@ 5122
ใช้เวลา 5122
รวบรวม 5118
ผิด 5114
แอล 5114
ือ 5113
ตอนที่ 5108
ต่อ@@ 5104
ความคิด 5093
มาเลเซีย 5083
หมู่เกาะ 5083
ครึ่ง 5082
ทดสอบ 5079
)" 5077
ยืนยัน 5067
แคนาดา 5061
ปู 5060
เลีย 5057
แสน 5057
องค์การ 5056
อยุธยา 5055
ออสเตรีย 5050
ซาร์ 5045
แตกต่าง 5040
ครองราชย์ 5039
ชั้น@@ 5033
มิส 5032
ยิ่ง 5026
กรีก 5025
2548 5024
ปริญญาตรี 5024
ปี@@ 5022
พฤติกรรม 5020
เทคนิค 5019
จา@@ 5016
แข็ง 5013
อันเป็น 5012
ฮ่องกง 5011
เมน 5005
เซีย 5003
ร้าย 5002
หน@@ 4999
โปรตุเกส 4999
สำเร็จการศึกษา 4992
พงษ์ 4988
ร็อก 4986
นับถือ 4984
่ง@@ 4982
แท@@ 4973
มีโอกาส 4972
พันธมิตร 4968
ไกล 4967
นักฟุตบอล 4965
ก่อนที่ 4962
สะ 4959
การเขียน 4955
ผู้คน 4954
ปา@@ 4940
มิวสิก 4940
หวัง 4935
อาณาเขต 4928
จิน 4922
แซ 4921
แร 4921
ครอบคลุม 4918
ยกเลิก 4917
นั่น 4910
มาน 4906
ยาน 4905
โบสถ์ 4903
สต์ 4901
จิ@@ 4890
ผลิตภัณฑ์ 4885
เนเธอร์แลนด์ 4880
พระองค์เจ้า 4873
ห้าม 4869
00 4861
ประโยชน์ 4861
รี่ 4856
เครือข่าย 4855
2@@ 4854
สี@@ 4854
ที่สูง 4843
ตั้งชื่อ 4842
อาทิ 4841
อ้างอิง 4841
สติ 4840
กะ@@ 4836
มายัง 4836
การประกวด 4834
เวที 4831
แก้ไข 4831
60 4829
ฟู 4828
โตเกียว 4826
ปลูก 4825
ท้าย 4824
คอมมิวนิสต์ 4823
่ว 4822
คลื่น 4819
มิได้ 4816
ประจำปี 4812
อี@@ 4810
เตรียม 4810
อียิปต์ 4806
หลากหลาย 4805
เซนต์ 4799
สาเหตุ 4796
กล 4794
กซ์ 4790
ออก@@ 4788
บั@@ 4787
n 4784
คำสั่ง 4784
ความรู้สึก 4782
ไล@@ 4781
ประเพณี 4780
รถยนต์ 4780
แม่@@ 4780
ลงมา 4776
ก่อนหน้า 4773
บุก 4771
รถ@@ 4768
ติดกับ 4767
เทศ 4765
ไน 4765
นำไปสู่ 4764
โค@@ 4761
บอล 4742
อยาก 4742
สนธิสัญญา 4738
อวกาศ 4737
แซ@@ 4737
ตามที่ 4732
์" 4726
อารมณ์ 4721
ิง 4717
ยาง 4714
เว็บไซต์ 4712
ทางการ 4709
ไค 4707
สู้ 4705
เผ่า 4705
เวท 4703
ดัดแปลง 4702
วิ่ง 4699
ู@@ 4689
เหมือนกับ 4681
ส์@@ 4679
ไม้@@ 4671
ตาราง 4668
เหตุผล 4668
ละครโทรทัศน์ 4667
ผลกระทบ 4666
รัตน์ 4663
ปร@@ 4654
สิ@@ 4653
ชม 4652
ความรู้ 4651
ิน@@ 4648
วัคซีน 4641
สิ่งมีชีวิต 4639
สุข 4639
สาขาวิชา 4638
วิเคราะห์ 4631
อย 4631
แฮ 4619
นอน 4616
ฟอ 4616
พระราชบัญญัติ 4615
เงิน@@ 4615
เปลี่ยนแปลง 4614
ค่อนข้าง 4609
โปแลนด์ 4609
ฉัน 4606
ชิงชนะเลิศ 4605
เข้ากับ 4605
ความแตกต่าง 4604
มอง 4602
ตร@@ 4601
ที่นั่ง 4601
สถานีโทรทัศน์ 4601
อน@@ 4601
เดน 4600
หาง 4597
2564 4596
น่า@@ 4594
ภาษาไทย 4594
เจ้า@@ 4593
ส่วน@@ 4586
ดวง 4585
บทความ 4585
แอฟริกา 4585
ท้าว 4583
รวมกัน 4582
แกรนด์ 4578
วั@@ 4577
โชว์ 4577
ประดิษฐาน 4575
ชนะเลิศ 4574
ไม่@@ 4569
ไข่ 4566
บวก 4565
กบฏ 4563
ภ@@ 4561
สหภาพโซเวียต 4560
เหมาะสม 4558
เข@@ 4557
ตี้ 4551
ขึ้นอยู่กับ 4549
พิพิธภัณฑ์ 4548
นั่ง 4547
นิว 4547
ยกเว้น 4540
หน้า@@ 4537
กาย 4535
แค่ 4535
เรียง 4532
สถานการณ์ 4530
ปล@@ 4527
อร์ 4526
ดิ@@ 4524
โป@@ 4524
บราซิล 4523
ศักดิ์สิทธิ์ 4522
เปอร์ 4522
สตาร์ 4520
ศัตรู 4516
อก@@ 4508
เจน 4508
เนื้อที่ 4507
สังหาร 4506
ก็ตาม 4504
ความเสียหาย 4504
ถิ่น 4503
หก 4499
เนื้อเรื่อง 4499
ผิว 4498
ประพันธ์ 4497
ก์ 4496
เจ้าอาวาส 4496
วัน@@ 4495
หลายครั้ง 4492
คุณสมบัติ 4488
แว@@ 4485
บุ@@ 4484
ร้อย 4482
เติบโต 4476
สตูดิโอ 4472
้@@ 4471
หนังสือพิมพ์ 4469
ฺ 4469
บา@@ 4466
หู 4457
เคา 4454
สนใจ 4450
หลวงพ่อ 4443
เท่า 4443
พรีเมียร์ 4441
ปรับปรุง 4440
บรา 4439
ยุทธการ 4439
สต@@ 4437
อย@@ 4432
เลื่อน 4432
แท้จริง 4427
รหัส 4423
ปิ@@ 4422
80 4418
ษ 4418
สูตร 4418
กี่ 4417
แอร์ 4417
ตรี 4413
องค์ประกอบ 4413
เอกสาร 4407
ต้นไม้ 4404
จัด@@ 4401
ทุน 4401
ประดับ 4401
ล่าง 4401
สวีเดน 4401
หลุยส์ 4398
คอม 4392
คอร์ 4391
นิ้ว 4391
ลับ 4389
กฎ 4388
ณ์ 4388
เทศบาลตำบล 4388
ผู้อำนวยการ 4386
เจ้าเมือง 4385
เปิดเผย 4381
ลัน 4378
เชื้อสาย 4377
สัมพันธ์ 4374
อร์@@ 4374
ยูไนเต็ด 4372
คม 4370
การทดลอง 4368
2547 4358
ซุน 4358
เป็นผล 4358
อุโบสถ 4356
คาด 4351
นักเขียน 4348
สิงห์ 4346
เทียน 4346
อ้าง 4342
ร้าน 4338
เป็นตัวแทน 4321
เป 4320
สิ่งแวดล้อม 4319
เชื่อมต่อ 4319
๊ก 4316
ทำได้ 4314
ม้า 4313
เจ้าของ 4313
อบ 4310
แล@@ 4309
อริ 4308
ลำ@@ 4303
ระยะทาง 4297
แนะนำ 4295
ดาร 4294
กุ@@ 4292
รถไฟฟ้า 4286
จุฬาลงกรณ์ 4285
ความรัก 4284
โฆษณา 4279
่า@@ 4278
ร่วมใน 4276
ภารกิจ 4274
เครื่องยนต์ 4274
กำหนดให้ 4273
สรุป 4272
สะ@@ 4271
เอา@@ 4271
+ 4267
นั@@ 4266
เสา 4260
ยูฟ่า 4257
to 4250
ภายนอก 4250
ตัด@@ 4249
อาหรับ 4249
ุ@@ 4246
บรรจุ 4243
ผ้า 4238
ยง 4232
นับตั้งแต่ 4230
ผู้จัดการ 4227
มิติ 4227
โรง 4227
แหลม 4222
ภา 4220
มัง 4212
มะ@@ 4211
เท้า 4208
แปลง 4206
หา@@ 4204
สาร@@ 4203
ชายฝั่ง 4202
นนท์ 4201
ตารางกิโลเมตร 4195
ทิ 4190
2000 4184
สิงคโปร์ 4181
้า 4181
อิง 4178
่น@@ 4178
ริม 4175
เคลื่อนที่ 4173
ปารีส 4171
ลาน 4169
เขมร 4167
รอน 4165
กรุงเทพ 4163
พายุ 4163
เวิลด์ 4158
เป็นที่ตั้ง 4151
ปีก 4150
ข้าว 4149
วาง@@ 4149
เจ็ด 4149
ผู้ใช้ 4146
200 4143
อพยพ 4138
ศาสตราจารย์ 4135
ดู@@ 4134
แอนด์ 4129
ยอ 4128
ศิลป์ 4126
ดยุก 4124
แน@@ 4121
มีค่า 4119
ฮั@@ 4118
ความขัดแย้ง 4117
ชัยชนะ 4117
สัง@@ 4117
ฟอร์ด 4115
องศา 4114
2004 4112
I 4112
จอม 4112
ทันที 4109
รักษ์ 4102
ทัน 4100
งค์ 4097
ฏ@@ 4094
ที่ว่า 4084
พลเอก 4084
ท้อง 4079
เป็นเรื่อง 4079
คณิตศาสตร์ 4075
ได้มา 4074
ฮังการี 4072
ตกลง 4071
โดดเด่น 4071
เป็นตัว 4069
พระพุทธ 4068
เข้าใจ 4067
2021 4065
มัธยมศึกษา 4065
สมบัติ 4065
นิวยอร์ก 4064
2005 4063
ตลอดจน 4062
ซี่ 4056
ป่า@@ 4055
้อ 4054
การปฏิวัติ 4053
วิจารณ์ 4053
โซเวียต 4048
็ง 4048
บุตรชาย 4044
กำเนิด 4040
ข้อความ 4040
รายละเอียด 4040
แพ 4040
ความร้อน 4039
บัณฑิต 4038
แค@@ 4038
กรุณา 4036
ราชสำนัก 4034
แปซิฟิก 4033
ได้@@ 4028
คนอื่น 4027
ร้อน 4026
ีย@@ 4025
เอกชน 4023
สืบ 4020
ขับ 4019
สมัยใหม่ 4016
x 4015
สงครามโลกครั้งที่สอง 4015
นครราชสีมา 4012
รับราชการ 4011
ตอนเหนือ 4006
รุกราน 4006
วงดนตรี 4004
็ก 4004
ยืน 4003
เกียรติ 4002
โซ@@ 4000
ทองคำ 3998
ดาบ 3996
ยุติ 3995
วรรณกรรม 3994
ลบ 3990
จอ 3986
พรรษา 3986
ี@@ 3986
ัน@@ 3984
ฌ@@ 3983
ฮัน 3983
ลง@@ 3981
เช่นนี้ 3973
กล้ามเนื้อ 3966
โดน 3966
ขอบ 3965
อด@@ 3965
จัดอันดับ 3961
เอกราช 3960
ว่าด้วย 3957
วัฒน 3956
หว@@ 3955
จ่าย 3950
เปีย 3950
ช่าง 3949
สายพันธุ์ 3949
เรียกร้อง 3949
ไร้ 3948
ดารา 3947
มีความหมาย 3947
ฮ 3946
โต@@ 3940
มวล 3936
นิยาม 3935
ดอลลาร์สหรัฐ 3934
ทะเลสาบ 3934
ทุ่ง 3934
คนเดียว 3930
อาณานิคม 3930
สถานีรถไฟ 3920
คุณภาพ 3919
มรดก 3919
โทษ 3914
แรงงาน 3913
ที่ปรึกษา 3911
ใบ@@ 3909
คณะสงฆ์ 3904
ชุมนุม 3904
มีอำนาจ 3901
จัน 3898
เชิญ 3896
ทุ@@ 3895
ในสังกัด 3891
E 3890
ซิง 3890
นส์ 3887
ไล 3885
ผลการแข่งขัน 3884
งบประมาณ 3883
รองรับ 3883
ผู้ชนะ 3882
ในนาม 3881
เจมส์ 3880
นำแสดง 3878
เช 3878
เรื่อย 3878
ครบ 3875
ความจริง 3873
บันเทิง 3869
อย่างหนึ่ง 3860
กำแพง 3858
ภู 3858
ซอน 3857
ย่าน 3856
สันนิษฐาน 3853
พระราชพิธี 3850
ติก 3849
[ 3847
ภาคใต้ 3845
เสือ 3845
การควบคุม 3844
เหล่านั้น 3842
ฐ@@ 3841
ยิว 3836
สหภาพ 3830
ผู้โดยสาร 3829
บะ 3828
ให้ได้ 3827
ธิ@@ 3826
ฝ@@ 3826
ประการ 3825
2546 3823
ลอย 3823
พระที่นั่ง 3822
วัสดุ 3822
โจว 3822
สนามกีฬา 3819
สืบ@@ 3819
ถัดมา 3809
ข้าว@@ 3807
รองชนะเลิศ 3807
นาง@@ 3802
ซู@@ 3799
รูป@@ 3795
ยาวนาน 3793
ความปลอดภัย 3787
ที่วัด 3787
เฟอร์ 3784
นัส 3781
ู่ 3779
กว้างขวาง 3778
นำเสนอ 3778
สุวรรณ 3777
โปรด 3777
รวมไปถึง 3776
ษ@@ 3775
นต์ 3771
่อ 3771
ปลา@@ 3770
สวยงาม 3770
สะสม 3770
คะ 3769
กำจัด 3767
ทำประตู 3767
อัส 3761
อนุญาต 3759
เก่าแก่ 3758
ทราย 3756
2544 3754
ธนาคาร 3754
มังกร 3752
อง@@ 3752
การคัดเลือก 3749
งานวิจัย 3748
งค@@ 3745
ุ 3744
ตอบสนอง 3743
กลิ่น 3742
สิ่ง@@ 3741
2542 3739
ค้นหา 3738
ติดเชื้อ 3737
สกี 3737
ร่วมงาน 3735
วิจัย 3734
โลหะ 3734
ึ@@ 3733
] 3726
อิน@@ 3726
32 3723
ปฏิกิริยา 3723
ราก 3723
สอบ 3723
ไม@@ 3722
จั@@ 3721
โก@@ 3720
กัส 3719
ยุบ 3717
มือ@@ 3713
วิลเลียม 3710
เฟ 3707
ปรัชญา 3706
ความต้องการ 3703
รม 3703
| 3702
งู 3702
ปฏิ@@ 3700
อล 3700
2539 3699
บาล 3699
อ้างว่า 3698
ั@@ 3698
สหพันธ์ 3697
ยักษ์ 3695
ดาวเคราะห์ 3693
มิตร 3693
เพลิง 3693
พ้น 3692
รุ@@ 3692
จอร์จ 3689
ชั่วคราว 3686
คุณ@@ 3680
ชื่อเล่น 3678
รัตน 3675
เป็นอย่างมาก 3674
ผู้ชม 3670
ติด@@ 3668
เรือ@@ 3665
การป้องกัน 3664
สาม@@ 3659
ซ้ำ 3658
ถ้ำ 3657
มวยปล้ำ 3657
อม@@ 3657
เกีย 3654
สระ 3652
หย@@ 3652
ที่ผ่านมา 3651
คัมภีร์ 3650
ส่วนมาก 3650
โค้ง 3649
สามัญ 3647
้า@@ 3646
ช้า 3645
มหาชน 3643
พุทธ@@ 3642
พระบาทสมเด็จพระจุลจอมเกล้าเจ้าอยู่หัว 3640
ิด 3639
เม็กซิโก 3637
ขั้น 3636
เขตร้อน 3635
เปรียบเทียบ 3635
... 3633
เหลือง 3632
ลุ 3629
ไต้หวัน 3629
พรรคการเมือง 3627
หนู 3627
S 3625
M 3624
มุข 3624
บัน 3623
เอาไว้ 3623
โช@@ 3622
ซา@@ 3620
ความสนใจ 3618
โซน 3615
บรมวงศ์ 3614
สหประชาชาติ 3614
เข้าถึง 3614
็น 3614
ซิ@@ 3613
2540 3609
ทั@@ 3607
ตุ 3606
ครีบ 3605
พารา 3605
ภาย 3605
ราชา 3605
ย์@@ 3595
ผู้ใหญ่ 3593
ใน@@ 3593
คู่@@ 3592
ศาลา 3592
2535 3590
โปร 3584
ตี@@ 3576
นวนิยาย 3576
สีเหลือง 3574
รี@@ 3573
คิม 3572
คณะรัฐมนตรี 3571
โรงแรม 3571
ธรรมดา 3568
ขุด 3565
สูญเสีย 3565
แสดงให้เห็น 3565
แม 3561
35 3554
G@@ 3554
เพลย์ 3548
จำเป็นต้อง 3547
่ม 3545
ถ่าย 3542
ความสูง 3539
ทาน 3538
ฝัง 3538
มวย 3536
ฏ 3529
70 3528
ดังต่อไปนี้ 3527
วาน 3527
โปรตีน 3524
จักร 3522
ผี 3521
ดัน 3520
ติดตาม 3520
ต้น@@ 3518
ลิเวอร์พูล 3518
ไซ@@ 3517
เอน 3516
ทุก@@ 3512
หนุ่ม 3512
ล่าสุด 3510
ตามมา 3509
บางคน 3508
ประดิษฐ์ 3508
์, 3508
คิ@@ 3502
D 3499
กาล 3499
รร@@ 3498
๋ 3493
ต่ำกว่า 3491
เทียม 3491
ขบวนการ 3484
จุ@@ 3483
เมล็ด 3480
ศาล@@ 3478
เบน 3478
ตก@@ 3477
ผู้ช่วย 3475
นาค 3473
ซิตี 3472
แจ@@ 3470
2545 3467
ฟิ@@ 3466
นิวเคลียร์ 3465
มูลนิธิ 3464
มีอิทธิพล 3461
ติดตั้ง 3456
บาดเจ็บ 3455
ก่อให้เกิด 3454
คนไข้ 3453
พระพุทธศาสนา 3452
เทือกเขา 3447
อินเตอร์ 3442
ขบวน 3439
ต้า 3439
สำรวจ 3438
สาธารณะ 3437
2543 3435
เฉลี่ย 3435
ซับซ้อน 3434
ยุทธ 3433
กัน@@ 3431
อิสราเอล 3431
มาตรา 3430
ฆ@@ 3429
T@@ 3425
ฮั่น 3424
ประถมศึกษา 3423
เชื้อ 3423
เตอร์ 3423
N 3418
๋@@ 3416
สวรรค์ 3413
แบน 3413
ห้วย 3412
สังเกต 3411
เดช 3411
เนื้อ@@ 3410
สะท้อน 3408
1990 3407
วอร์ 3407
การกระทำ 3406
ทวีป 3405
เป็นอดีต 3404
นำมาใช้ 3400
พุทธ 3400
มีประสิทธิภาพ 3398
อนุ@@ 3397
แผนก 3396
โย@@ 3394
แปด 3391
ชายแดน 3390
เทศกาล 3390
เสียง@@ 3390
แพร่หลาย 3390
ภาพ@@ 3389
กรุงศรีอยุธยา 3387
ฟังก์ชัน 3387
คิว 3383
WWE 3381
อิหร่าน 3380
เหรียญทอง 3378
ความพยายาม 3377
บูร 3377
ดั@@ 3371
เรย์ 3369
ภาษา@@ 3359
ยอดขาย 3356
ก่อนหน้านี้ 3355
บูชา 3355
ฉายา 3354
ทางเศรษฐกิจ 3354
จำ@@ 3352
ตะวันออกเฉียงเหนือ 3352
จาง 3351
มู@@ 3349
์ส 3348
วิวัฒนาการ 3347
อุป@@ 3347
พี@@ 3346
รับประทาน 3346
จำเป็น 3345
ภาค@@ 3345
ท้อง@@ 3342
สลับ 3342
กระตุ้น 3341
การเคลื่อนไหว 3339
amp 3338
90 3337
ปัญญา 3336
ตั@@ 3335
วิชาการ 3331
เลิก 3329
ราย@@ 3327
ทัวร์ 3325
หนา 3325
พันธ์ 3322
เหมือนกัน 3322
สัมผัส 3319
สิน 3318
ลักษณ์ 3316
ปาง 3315
เป็นต้นมา 3314
เสนอชื่อ 3313
é 3312
เต้น 3306
ขณะนั้น 3305
ผู้เข้าแข่งขัน 3304
บอย 3302
ภูมิศาสตร์ 3301
ล้อม 3301
บุรี 3298
หลง 3298
โร่ 3297
พุ@@ 3295
เครื่องมือ 3295
คิง 3292
นิยาย 3291
ปรากฏการณ์ 3290
รู้@@ 3289
เทศบาล 3289
กลม 3287
เข้าแข่งขัน 3286
ตอ 3285
ทิศเหนือ 3279
ครั้งหนึ่ง 3276
ไฮ@@ 3276
แฟ@@ 3272
เข 3271
พงศ์ 3270
ด่าน 3269
ปัจจัย 3267
ฟุ 3265
จำ 3264
จาร 3262
บูรณะ 3261
ทางใต้ 3258
ตกแต่ง 3256
ถาวร 3254
กี้ 3253
ออนไลน์ 3251
งาม 3248
H 3245
อนิเมะ 3243
อินเทอร์เน็ต 3243
ถู 3236
ผู้เสียชีวิต 3235
พี่ชาย 3235
ปราบ 3233
กระทรวงศึกษาธิการ 3232
เวอร์ชัน 3232
เซ็นสัญญา 3230
ร่วมมือ 3229
คว้าแชมป์ 3228
โรค@@ 3228
B@@ 3226
คอ@@ 3226
กรด 3225
ไม 3221
น่าจะ 3219
รอด 3217
45 3213
ด้านหน้า 3211
มีชีวิต 3211
ความถี่ 3206
จักรวาล 3201
หลังคา 3201
ไม่ต้อง 3201
พิ 3200
ก้า 3199
ลด@@ 3199
สวรรคต 3198
ความสำเร็จ 3197
์ค 3193
ย่อ 3192
ดง 3189
ทิศตะวันออก 3189
2538 3187
ความร่วมมือ 3186
ป. 3186
วาร 3185
แฮ@@ 3184
นายก 3182
อบ@@ 3182
ราชินีนาถ 3181
โซล 3181
ฮะ 3179
ัน 3179
โครง 3179
ทรัพย์ 3178
ตัวอักษร 3177
F 3174
ประชุม 3173
่ม@@ 3172
ดับเบิลยู 3171
บท@@ 3171
on 3170
คอน@@ 3170
นาซี 3167
เจรจา 3167
ี่ 3165
โดยเฉพาะอย่างยิ่ง 3165
ท้องที่ 3164
ฤทธิ์ 3164
สวม 3163
ได้ดี 3163
การแพทย์ 3160
ข 3160
คริสตกาล 3160
 @@ 3156
วาด 3156
มัส 3155
2002 3154
สุโขทัย 3154
พญา 3152
พระนคร 3148
ชา@@ 3146
น้อง 3146
พจน์ 3146
อภิเษกสมรส 3145
ไมล์ 3145
เฮนรี 3144
ยุ@@ 3143
สุนทร 3142
ความเป็น@@ 3140
ไก 3137
ชีพ 3136
ได้รับแต่งตั้ง 3136
แร@@ 3134
ซั@@ 3132
โบ@@ 3131
น้ำแข็ง 3129
ผู้ชาย 3128
หมาย 3128
เลขาธิการ 3128
ด้านล่าง 3127
การวิจัย 3126
มีความสำคัญ 3126
ทั้งหลาย 3125
ฯลฯ 3125
หลักการ 3123
ญาณ 3120
กองทัพบก 3119
ตุ@@ 3119
เป็นที่นิยม 3119
ถ้วย 3118
ฟุต 3118
การใช้งาน 3117
อันตราย 3117
ความมั่นคง 3115
เฉ@@ 3115
คี@@ 3114
ราง 3113
หม่อมเจ้า 3113
2003 3112
ร่า 3111
มองเห็น 3110
เบา 3110
ตึก 3103
ขอให้ 3102
พระครู 3102
กล้อง 3101
มะเร็ง 3101
กองทัพเรือ 3099
ความเห็น 3097
ยืม 3096
ตอบ 3094
เซต 3094
อุทยานแห่งชาติ 3092
ความเสี่ยง 3091
ื@@ 3090
แดน 3089
)@@ 3087
จอมพล 3087
บางอย่าง 3085
ลอง 3085
ปอ 3084
โด่งดัง 3084
เวช 3081
ทิศตะวันตก 3080
ศีรษะ 3079
เป็นหลัก 3079
ความรุนแรง 3075
ที่หนึ่ง 3075
เดิน@@ 3074
รัง@@ 3072
นาถ 3070
แผ่นดินไหว 3070
ดิน@@ 3068
จ. 3067
โรงงาน 3066
ผู้ปกครอง 3064
ต์@@ 3063
ประมุข 3063
ยิ่งใหญ่ 3063
เลข 3063
ตรวจ@@ 3062
หาร 3062
ทั่วประเทศ 3060
รับผิดชอบ 3060
ในอนาคต 3060
ทางเพศ 3059
ยึดครอง 3058
ถูกต้อง 3056
เอกลักษณ์ 3055
ฝ่าย@@ 3054
โจ@@ 3054
เสื้อ 3053
T 3052
เข้ม 3049
โฟ@@ 3048
กง 3047
บ. 3044
วาย 3042
ลูกชาย 3041
ธี 3040
ใกล้ชิด 3040
ท่อ 3039
ประเด็น 3039
ระบอบ 3039
นักวิชาการ 3037
โระ 3037
X 3036
ซุ 3036
ค่ำ 3034
นักการเมือง 3033
1980 3027
้ง@@ 3027
แน่นอน 3025
โด@@ 3024
วิญญาณ 3023
วิทยุ 3017
เบิล 3016
สัก 3013
รังสี 3010
มูล 3009
ยีน 3009
มเหสี 3008
เบลเยียม 3008
อนุภาค 3005
อ่าว 3004
๑@@ 3003
500 3000
i 3000
ถึงแม้ว่า 3000
การสำรวจ 2999
นัน 2996
ียน 2995
ไม่ค่อย 2995
ยก@@ 2994
ทิศ 2992
ทะ 2990
ตัวผู้ 2988
ลล์ 2986
P@@ 2985
S@@ 2983
แถว 2981
ความช่วยเหลือ 2980
สงสัย 2977
คั@@ 2974
ดี้ 2974
ภาคเหนือ 2974
ไอร์แลนด์ 2973
ช่วงแรก 2972
อับ 2972
ชาว@@ 2970
พระราชธิดา 2970
พิธีกร 2970
กรุงเทพฯ 2968
ผู้บัญชาการ 2968
ผา 2965
ด้านหลัง 2962
ยื่น 2962
ดำรง 2961
เก้า 2961
O 2957
มูลค่า 2957
ทุกวัน 2955
บริจาค 2954
เชียง 2953
แห้ง 2953
โมเลกุล 2952
หมอ 2948
กระทรวงมหาดไทย 2947
สิน@@ 2946
หมวดหมู่ 2946
ทางสังคม 2945
ส. 2944
ชั@@ 2943
ถิ่นกำเนิด 2942
ทรัพย์สิน 2941
สัดส่วน 2941
แผนการ 2940
บำรุง 2938
ชน@@ 2936
เกณฑ์ 2936
การเกษตร 2934
ร์ก 2934
ณี 2933
ตุรกี 2933
ล็อก 2933
พ่ายแพ้ 2931
ดวงอาทิตย์ 2928
สงฆ์ 2927
อัด 2927
บรรยาย 2923
ตัวอย่างเช่น 2922
การปรับปรุง 2921
วางแผน 2921
อะตอม 2920
เปลือก 2920
กระ 2918
ออกเสียง 2917
เสรี 2916
สัญชาติ 2915
ผ้า@@ 2914
อู่ 2914
ทดลอง 2911
น้ำตาล 2911
พรหม 2910
บริ@@ 2908
ตอนแรก 2907
พระราชา 2905
ช่วงต้น 2902
V 2899
ไพ 2899
ปุ 2898
เต็มที่ 2897
โคล 2896
เพื่อที่จะ 2894
เสกสมรส 2894
แป@@ 2893
แชมเปียนส์ 2892
ปกป้อง 2891
บอร์ด 2890
ฝัน 2889
แพทยศาสตร์ 2887
วิถี 2886
เมะ 2886
ตลก 2883
นต@@ 2883
ยู@@ 2883
สั@@ 2883
เรือน 2882
ไป@@ 2881
เปล@@ 2878
ทร@@ 2876
ใช้@@ 2874
for 2873
บัญญัติ 2872
ผู้กำกับ 2867
ไท@@ 2867
ไมเคิล 2867
ปุ@@ 2864
แขน 2864
อิส 2863
เอก@@ 2862
G 2861
บาง@@ 2861
โอน 2860
ฟื้นฟู 2859
ภู@@ 2859
เฉลิม 2859
ตัวแทน 2858
ล้วน 2858
หวาน 2858
แอบ 2857
การ์ด 2856
ลิขสิทธิ์ 2856
จัดทำ 2855
สันตะปาปา 2855
่ย 2855
็อก 2854
ล. 2853
เสาร์ 2852
บัตร 2851
ไทยแลนด์ 2851
de 2850
เถ@@ 2850
กรอบ 2848
งานเขียน 2848
วาระ 2848
ปริญญาโท 2847
ทูต 2844
เขตเลือกตั้ง 2844
คุ้มครอง 2843
วดี 2843
นครศรีธรรมราช 2841
สังคมนิยม 2841
เพียงแค่ 2840
แมค 2840
ทางรถไฟ 2839
เยือน 2838
section 2837
ราน 2834
จักรพรรดินี 2832
ทุกปี 2831
ซ่า 2829
ร็@@ 2829
ฤ@@ 2828
ไหน 2826
น่าน 2825
ข้าราชการ 2824
สายการบิน 2823
ใช้ชีวิต 2821
กล้า 2820
มวยสากล 2820
นัย 2818
ธิ 2815
ข้อตกลง 2813
ยกทัพ 2813
เด็ก@@ 2812
เทศบาลเมือง 2812
เบส 2810
แสดงว่า 2810
ประสบการณ์ 2809
แม้แต่ 2808
ข้าง@@ 2807
งอ 2807
จับ@@ 2806
พิษ 2806
เง@@ 2806
เช้า 2804
เปลี่ยนเป็น 2803
/& 2802
อต 2802
บ่อยครั้ง 2800
ผู้แทน 2800
ป้อม 2798
เกมส์ 2798
เติม 2798
่อน 2795
เบร@@ 2793
ไตร 2793
ราชบัลลังก์ 2792
ือ@@ 2791
ธงชาติ 2789
หลบหนี 2789
ท่าเรือ 2788
M@@ 2786
น้องชาย 2785
ลอ@@ 2784
บรรยากาศ 2783
จิตใจ 2782
ซิม 2781
บัง 2781
เกะ 2781
พื้นผิว 2780
วิสุงคามสีมา 2779
เทวี 2779
อร@@ 2778
โรม 2778
2001 2777
ฎ@@ 2776
ช. 2775
พากย์ 2775
วิทยาเขต 2775
หุ้ม 2775
P 2774
เอ็ดเวิร์ด 2774
หร@@ 2773
ขา@@ 2771
สำเนียง 2771
แฮม 2771
ผนัง 2770
ภา@@ 2769
นิช 2768
แบคทีเรีย 2768
ละเอียด 2766
หลายชนิด 2766
สร้างสรรค์ 2764
รก 2761
World 2757
จำลอง 2756
สงบ 2756
เหยื่อ 2755
ขึ้นกับ 2753
เปลี่ยนไป 2753
แท้ 2751
เวย์ 2747
บ่อย 2745
มาส 2744
อย่างไรก็ดี 2743
กรีซ 2742
วรรณ 2742
แต@@ 2742
ศรัทธา 2740
ตต์ 2737
สงขลา 2735
ลูกสาว 2734
ซุ@@ 2733
เซ็น 2733
ธิบดี 2732
มงกุฎ 2732
ญา 2731
ัก@@ 2731
แบร์ 2730
ไบ 2730
ก้าว 2729
ชื่อดัง 2729
ลาก 2729
นิค 2728
ยาม 2727
ฤดู 2727
หลัก@@ 2727
วี@@ 2726
ใส 2726
เส้น@@ 2723
ทำนอง 2722
ดับ 2721
ิต 2721
O@@ 2717
ภ 2717
กลัว 2716
แต่เดิม 2714
สร 2712
โอะ 2712
มีปัญหา 2711
กลอง 2710
ฉลอง 2709
ถัง 2708
เป็นระบบ 2708
ครั้น 2707
เอ็กซ์ 2707
ปลายปี 2706
กลีบ 2705
ีย 2705
้ม 2704
48 2703
แก@@ 2703
โท@@ 2703
ประกวด 2701
หลายอย่าง 2701
ห์@@ 2701
สก 2699
แอน@@ 2695
หม่อม 2692
L 2691
คุ@@ 2691
ประท้วง 2688
2541 2686
พระธาตุ 2684
2537 2682
สำนักพิมพ์ 2681
พยาบาล 2677
ผู้ผลิต 2675
เชียงราย 2672
แก๊ส 2672
ถึง@@ 2671
อิสลาม 2669
เห็น@@ 2669
แล้วก็ 2669
สีน้ำตาล 2667
นอร์เวย์ 2665
นักวิทยาศาสตร์ 2665
แมตช์ 2665
ค่าใช้จ่าย 2662
ธร 2662
เป็นไปได้ 2661
พนม 2660
็ก@@ 2659
R 2656
ซึม 2655
ถ่ายทอด 2655
สมัคร 2655
คาบสมุทร 2653
็ด 2653
กระทั่ง 2649
ท. 2647
ลส์ 2647
ลอ 2647
ทิศทาง 2644
มองว่า 2644
พระราช@@ 2643
สว่าง 2643
จารึก 2642
ตรงข้าม 2638
แต่ว่า 2638
สวน@@ 2637
2534 2636
มณี 2636
คี 2633
โพธิ์ 2632
ลล@@ 2631
เข้ารอบ 2631
การสื่อสาร 2630
มุมมอง 2630
ตรา@@ 2629
วัต 2627
อุดมศึกษา 2627
ไฟ@@ 2627
y 2625
โรง@@ 2625
ฝีมือ 2624
คว้า 2623
หล่อ 2622
อักเสบ 2622
ซ้อน 2621
ทำเป็น 2621
ยัน 2621
แด@@ 2619
อิสริยยศ 2618
มหานิกาย 2616
เวียง 2616
300 2615
D@@ 2614
เคลื่อน 2614
ชนบท 2613
เช่นเดียวกัน 2613
33 2612
ชะ 2612
วัยรุ่น 2612
ธรรม@@ 2611
รัชทายาท 2611
ล้อ 2611
อิรัก 2611
กันที่ 2610
ฑ@@ 2609
ว่ายน้ำ 2609
เชื้อเพลิง 2608
กลไก 2604
แลกเปลี่ยน 2602
ติดต่อกัน 2600
แคลิฟอร์เนีย 2600
ดุ@@ 2599
เติ@@ 2599
ทรง@@ 2597
เชิง@@ 2597
่าง 2597
ป่วย 2596
K@@ 2595
N@@ 2594
ิร์@@ 2594
ธา 2593
บ่อ 2593
เตือน 2593
เลก 2593
บัส 2590
เลส 2590
กวาง 2588
ซอง 2587
ฟาโรห์ 2587
วัตถุประสงค์ 2587
อย่างไร 2585
แด 2585
ทัศน์ 2584
วินาที 2584
๑ 2584
ขนส่ง 2581
ชุ@@ 2581
เชษฐา 2581
ประสบ 2580
ซอฟต์แวร์ 2579
ื่อ 2579
แร่ 2579
ดาราศาสตร์ 2576
ทางทหาร 2576
ัก 2576
ปริ@@ 2575
ภักดี 2575
ระบาด 2575
หอย 2575
ดำเนินงาน 2574
แพร่ 2573
ทาส 2572
กระทำ 2570
ปีศาจ 2570
ตัวเมีย 2569
สุด@@ 2569
ได้ยิน 2569
ลี@@ 2568
จับกุม 2567
วงกลม 2567
วิก 2567
ยูเครน 2565
อว@@ 2564
นอก@@ 2563
ีย์ 2563
โฮ@@ 2563
แตน 2562
ก้าน 2561
ผู้สนับสนุน 2561
ฝน 2561
ฟิ 2561
อะ@@ 2560
เด่น 2557
ขั้นตอน 2556
แรงบันดาลใจ 2556
ญาติ 2555
ศุกร์ 2555
อนุชา 2554
เครื่องหมาย 2554
ปอนด์ 2552
ผู้ก่อตั้ง 2552
ผู้บริหาร 2551
อัน@@ 2551
็อ@@ 2551
งก 2549
การประ@@ 2548
จังหวะ 2546
ทางเหนือ 2546
ดีขึ้น 2545
นุ@@ 2545
มป@@ 2545
สิ้นสุดลง 2545
ณะ 2544
t 2542
เกล้า 2542
สังเคราะห์ 2539
2536 2538
ภูมิ@@ 2538
อาสน 2538
พระพุทธเจ้า 2537
นิง 2536
เบื้องต้น 2536
เป็นไป 2536
กึ่ง 2534
การเงิน 2533
ับ 2533
ถ่ายทำ 2532
เวสต์ 2532
เปิด@@ 2530
ลัย 2529
m 2528
แพ@@ 2528
ทางตะวันตก 2527
ขัน 2523
ทะ@@ 2523
ปราบปราม 2523
เหล@@ 2523
็ค 2523
ข้า 2521
บก 2521
ล้านนา 2520
อ่อน@@ 2518
เงื่อนไข 2518
เธ@@ 2518
เวลส์ 2518
ประสิทธิภาพ 2517
ยกฐานะ 2517
ร์ด 2517
ของวัด 2516
สลาย 2516
แมลง 2516
กิโลกรัม 2515
ป้าย 2515
มพ@@ 2514
สู้รบ 2513
อนุมัติ 2511
1992 2509
ขั้ว 2509
นายพล 2508
กระจก 2504
โรงเรียน@@ 2503
ทักษะ 2502
นาย@@ 2502
พอ@@ 2500
มุสลิม 2500
นัดดา 2499
วงจร 2499
เทว@@ 2499
1996 2498
ดอกไม้ 2496
ห้อง@@ 2496
ตั้งใจ 2494
บริโภค 2494
พร้อมด้วย 2494
สิ้น 2494
ิม 2494
ขับไล่ 2493
ที@@ 2493
กลาง@@ 2491
ขน@@ 2490
ชลบุรี 2490
ดีกว่า 2490
34 2488
เป็นเจ้าของ 2488
การทหาร 2487
สภาผู้แทนราษฎร 2486
idae 2484
เยี่ยม 2482
ขอ@@ 2481
จัดตั้งขึ้น 2481
จุ 2481
เส 2481
วจะ 2480
เกราะ 2479
วินิจฉัย 2478
ญา@@ 2477
ปฏิทิน 2477
พิสูจน์ 2476
นซ์ 2475
การปฏิรูป 2473
ทอด 2472
มวยไทย 2472
พอใจ 2471
ทรัพยากร 2470
ป์ 2470
ผู้สร้าง 2470
พระทัย 2470
มอญ 2470
รัม 2470
2533 2469
ภาษี 2469
ขวัญ 2467
1998 2466
ส์" 2465
ลาย@@ 2464
พัด 2463
การขนส่ง 2462
พระศพ 2462
เศษ 2462
จอมเกล้า 2461
ออ@@ 2460
การท่องเที่ยว 2457
ย่า 2457
ัด 2454
ถูก@@ 2452
หมื่น 2452
หมุน 2452
ออสการ์ 2452
คริสเตียน 2451
เลขที่ 2451
นด์ 2450
น้องสาว 2450
ปลด 2450
รน 2450
ชวน 2449
ปีเตอร์ 2449
สวิตเซอร์แลนด์ 2449
โดยรวม 2448
สภาวะ 2446
วัดราษฎร์ 2445
กส์ 2444
ภาควิชา 2444
นั่นเอง 2442
แสดง@@ 2441
ครั้งนั้น 2440
พระสงฆ์ 2440
เกษตร 2440
ฝูง 2438
เที่ยวบิน 2438
เซา 2437
ดั้ม 2436
วิชาชีพ 2434
E@@ 2433
บี@@ 2433
พัฒนาการ 2433
พื้น@@ 2431
ราบ 2431
ัย 2431
แทบ 2431
เศรษฐศาสตร์ 2430
กีตาร์ 2429
กด 2428
." 2427
สามี 2427
เผา 2427
ถาม 2425
วย 2425
เรียว 2423
ความสำคัญ 2419
ตัวเลข 2418
วด 2417
1999 2416
แสดงนำ 2415
รุก 2414
ลงนาม 2414
H@@ 2413
2531 2411
พระเจ้าอยู่หัว 2411
แต่@@ 2411
ด้านบน 2408
ต้นกำเนิด 2408
สตัน 2408
พี่ 2406
รัช 2406
วัล 2405
d 2404
นก@@ 2400
1970 2397
แมว 2397
แม็ก 2396
’ 2395
ิล@@ 2394
"" 2393
° 2393
กม. 2392
เพราะว่า 2392
36 2391
ราชภัฏ 2390
ช์ 2389
เสด็จสวรรคต 2387
ดวงจันทร์ 2386
ัง@@ 2386
ยอง 2384
ระดับสูง 2384
เดวิด 2384
ดร 2383
สุลต่าน 2382
สนิท 2380
R@@ 2378
แม่ทัพ 2378
อิเล็กทรอนิกส์ 2377
หญ้า 2373
เลียน 2372
มปิก 2369
หลอด 2369
เมา 2367
ศา@@ 2366
ไล่ 2366
ซาก 2365
ระเบียบ 2365
่ำ 2365
ทุกอย่าง 2364
หลาน 2364
เอเชียตะวันออกเฉียงใต้ 2363
่อง 2363
ส่วนประกอบ 2362
์ก 2362
พนักงาน 2361
สุสาน 2361
L@@ 2360
ศร 2359
โทร 2359
ชาน 2358
แนวทาง 2358
กลางคืน 2355
ดึง 2355
กัด 2354
ทำร้าย 2354
ฟิสิกส์ 2354
กองทัพอากาศ 2350
กิ่ง 2350
อส 2348
ตอนกลาง 2347
นำไปใช้ 2347
ประหารชีวิต 2347
ป็อป 2344
พรรคประชาธิปัตย์ 2344
ส่ง@@ 2343
อี้ 2343
ลก 2342
สวามี 2341
b 2339
มุ่ง 2338
จุดเริ่มต้น 2337
A@@ 2332
ส.ส. 2332
สงครามโลก 2332
เดย์ 2330
เคียว 2327
การณ์ 2326
เจียง 2326
มหาวิทยาลัยธรรมศาสตร์ 2325
ทหารบก 2324
เชน 2324
เชื่อมโยง 2320
ขอบเขต 2318
สุนัข 2317
K 2316
สัตว์ป่า 2316
สันติภาพ 2315
เว็บ 2315
จดหมาย 2314
สร@@ 2314
1997 2313
บุรีรัมย์ 2312
พิทักษ์ 2312
พื้นเมือง 2312
คิน 2309
นิสัย 2309
ศัพท์ 2309
เนส 2308
;/ 2307
จัก 2307
ปก 2307
ยกย่อง 2304
หอม 2303
ใต้ดิน 2303
จำพวก 2302
แข็งแกร่ง 2302
F@@ 2300
ทับ 2300
1960 2299
ณา 2299
จิตรกร 2298
หมวด 2298
ตส์ 2296
บริสุทธิ์ 2296
หายใจ 2295
เปอร์เซีย 2295
แวร์ 2295
ทรู 2294
ตู้ 2293
บ้าน@@ 2293
เยื่อ 2292
แห่ 2291
ครา 2287
ชวา 2287
สมการ 2287
เมริเดียน 2287
ยั@@ 2283
ส" 2283
อุบัติเหตุ 2283
ธรรมเนียม 2282
ต่อไปนี้ 2281
มินิ 2280
รถถัง 2279
ช่าง@@ 2278
มี่ 2278
ไผ่ 2278
พลเมือง 2277
สกอตแลนด์ 2277
กรรม@@ 2276
ขอนแก่น 2275
ียง 2275
นักดนตรี 2274
ทวีปยุโรป 2273
ฟิล์ม 2273
บลู 2272
ทางอากาศ 2270
ชี้ 2269
มาลา 2269
ปริญญา 2267
ความผิดปกติ 2266
จัดแสดง 2266
ผลไม้ 2266
่อ@@ 2264
ียว 2263
พร้อมกัน 2262
ละลาย 2262
จอด 2260
ปีการศึกษา 2260
ดอย 2259
ต่าง@@ 2259
ที่ทำการ 2259
ขัง 2257
ดาวฤกษ์ 2257
ยม 2257
หนาน 2257
ไก่ 2257
ปฏิวัติ 2256
คนไทย 2254
V@@ 2252
ขับร้อง 2252
คุม 2252
สุร 2252
หมิง 2252
ประสงค์ 2251
รัฐประหาร 2251
เลิศ 2251
สอดคล้อง 2250
อิเล็กตรอน 2250
เบื้องหลัง 2247
การออกอากาศ 2246
ซ์@@ 2246
ชะ@@ 2244
เกษตรกรรม 2244
พันธุกรรม 2241
พิษณุโลก 2240
กวน 2238
รับใช้ 2238
วัว 2238
เหลี่ยม 2238
องค์การบริหารส่วนตำบล 2237
สัม@@ 2236
เบิร์ก 2236
แล้วจึง 2236
ไทร 2236
บิ@@ 2235
สัมภาษณ์ 2235
แปร@@ 2235
งิ 2234
ศาสนาพุทธ 2234
หลิว 2232
เช่า 2232
กระสุน 2231
ผัน 2231
วัฒนา 2231
ซอย 2230
น็อค 2228
โน@@ 2228
ธนบุรี 2227
เกินไป 2227
เลิฟ 2227
ลุ@@ 2225
พร้อมทั้ง 2224
ล่มสลาย 2224
พรรค@@ 2223
ศิษย์ 2223
หยาง 2223
ตร 2222
ปืนใหญ่ 2222
แย@@ 2222
สืบทอด 2221
ทายาท 2220
คติ 2219
อย่างยิ่ง 2219
ลำปาง 2218
ศาสนาคริสต์ 2218
แสดงถึง 2217
โฟร์ 2217
อภิ@@ 2216
โดยมาก 2215
ย่อม 2213
อาญา 2213
ฮัน@@ 2213
แผนที่ 2213
— 2213
ซีเรีย 2212
เซียน 2212
คราว 2211
ทารก 2211
2529 2210
จุฬา 2209
ชนมายุ 2209
อย่างเช่น 2209
้ำ 2206
ปี่ 2205
ผู้ฝึกสอน 2205
ผู้สมัคร 2204
ริชาร์ด 2203
โคน 2203
เต่า 2201
ทั้ง@@ 2200
อุดม 2200
เกา 2200
เรื่องย่อ 2200
ฮินดู 2199
จู@@ 2198
สิ่งก่อสร้าง 2197
ยี 2196
บรรพบุรุษ 2195
บ้านเมือง 2195
อุบลราชธานี 2195
ษา 2193
เท่ากัน 2193
โต๊ะ 2192
,@@ 2191
38 2191
บาน 2191
วุฒิ 2191
เป็นประจำ 2191
แค้น 2191
ได้ที่ 2191
ับ@@ 2190
๊ 2189
ครอบครอง 2188
สีน้ำเงิน 2188
เป็นเจ้าภาพ 2188
/@@ 2186
ที่สี่ 2185
เร็@@ 2185
โรมาเนีย 2185
คริสตจักร 2184
นิว@@ 2184
พืชดอก 2184
วิศวกรรม 2184
เสียหาย 2183
ฉัตร 2181
ยูโร 2181
เทิร์น 2181
หมู 2180
อัคร 2180
2518 2179
p 2179
ก๊@@ 2179
ซึ 2178
อวัยวะ 2176
เจ้านาย 2176
นิวซีแลนด์ 2175
ประเมิน 2175
c 2174
พอล 2174
ประโยค 2171
ว่า@@ 2171
บัญชี 2170
การตอบรับ 2169
ต่อกัน 2169
ต้าน 2169
หลอดเลือด 2169
เน็ต 2169
ชิ@@ 2168
มง 2168
กิน@@ 2167
ศิลา 2167
ฮิต 2167
ขี้@@ 2166
จิตวิทยา 2166
สห 2165
บัลลังก์ 2164
วก 2164
สนามบิน 2164
โพ@@ 2164
ปิ 2163
นม 2162
ราชินี 2162
ครั้งสุดท้าย 2161
อาณา 2160
เกลือ 2160
ไบ@@ 2160
C@@ 2159
ประจำการ 2159
็ง@@ 2159
โยะ 2158
2530 2157
กล่าวคือ 2156
พระเยซู 2156
เกียรติยศ 2156
เงา 2156
2532 2155
หัวเมือง 2155
๒ 2155
ชี@@ 2154
ดิจิทัล 2154
ทวี 2154
พิชิต 2153
ไตร@@ 2153
อัง 2152
กุหลาบ 2151
ดาวเทียม 2150
เป็นงาน 2150
สุทธิ 2149
็อง@@ 2149
อาหาร@@ 2148
ล้มเหลว 2147
หะ 2147
วัยเด็ก 2146
ฮุ@@ 2146
37 2145
กู้ 2143
เอะ 2142
ซ่อน 2141
ตามกฎหมาย 2141
พระมารดา 2140
1,000 2139
ราษฎร 2139
แรง@@ 2138
ชนนี 2137
โปเกมอน 2137
โฟ 2137
คลาสสิก 2136
พัฒน 2134
มิด 2133
เจาะ 2133
สวัสดิ์ 2132
บึง 2131
ฮิตเลอร์ 2131
ลุง 2130
แล้ 2130
คลินิก 2128
ทางการแพทย์ 2128
ทางเดิน 2128
มีมติ 2128
ปาก@@ 2124
ดอก@@ 2123
นนทบุรี 2123
นามสกุล 2122
แลน 2122
รด 2120
แรม 2120
เหรียญรางวัล 2119
แคน 2119
ลัส 2117
ที่อยู่อาศัย 2115
ต้อง@@ 2114
ปิด@@ 2113
โชกุน 2111
ดุ 2110
ขึ้น@@ 2109
ทิเบต 2109
ผิวหนัง 2109
เสา@@ 2109
ม่วง 2106
ลาด 2106
ตง 2105
ก่อตัว 2104
กั้น 2103
นักมวย 2103
นักวิจัย 2103
สมัครเล่น 2101
ความหลากหลาย 2100
สาธารณสุข 2100
็ต 2100
พลเรือน 2099
1991 2097
ต้นฉบับ 2094
บัญชีรายชื่อ 2094
วันอาทิตย์ 2094
วอน 2092
ในเครือ 2092
หัก 2090
ขัด@@ 2089
ไหม 2089
2519 2088
่าย 2088
1994 2087
ภาษาจีน 2087
มนตรี 2087
เสด็จพระราชดำเนิน 2087
ฎ 2086
ประชา 2086
อนุ 2086
คลา 2084
ทีน 2084
สถาปนิก 2084
ณฑ@@ 2082
สน 2082
ลอน 2081
ใดๆ 2081
การพิจารณา 2080
การเรียนรู้ 2080
จัดจำหน่าย 2080
หง@@ 2079
หลีกเลี่ยง 2079
แลก 2079
เบอร์ลิน 2078
เหลืออยู่ 2078
นัม 2077
al 2076
ปรัสเซีย 2075
สมา 2075
2522 2074
ึก@@ 2074
โขง 2073
ทว่า 2071
แกรมมี่ 2071
us 2070
กรมหลวง 2070
ู้ 2070
แบบนี้ 2070
้อย 2070
ก้อน 2069
ประสาน 2069
บันได 2068
ฐ 2067
นายทหาร 2067
อัศวิน 2067
ขวาง 2064
เกล@@ 2064
ใช้กับ 2064
คล้ายคลึง 2063
สิ้น@@ 2063
โส@@ 2062
เพียงพอ 2061
ผู้เชี่ยวชาญ 2060
มิน@@ 2060
“@@ 2060
กำ@@ 2059
ลวดลาย 2059
เกร@@ 2059
โปรดิวเซอร์ 2059
้ย 2059
กระบวน 2058
ฉะนั้น 2058
อาร์เจนตินา 2058
บริติช 2057
จิต@@ 2056
ตารางวา 2055
ร้อย@@ 2055
เรียบเรียง 2055
คำนวณ 2054
ตลอดเวลา 2053
ปล้ำ 2053
พุทธศาสนา 2052
ื่น 2052
:@@ 2051
ทางวิทยาศาสตร์ 2051
เพิ่ง 2049
นันท์ 2048
สมทบ 2048
is 2047
ผ่าตัด 2047
ฮัม 2047
ติดอันดับ 2046
มืด 2046
สมาชิกวุฒิสภา 2046
เคลื่อนไหว 2045
ตำรา 2044
สะดวก 2044
โฉม 2044
75 2043
J@@ 2043
เหน@@ 2043
เร่ง 2042
กวี 2041
บุคลากร 2041
จดทะเบียน 2040
ซีน 2040
สไตล์ 2040
ไลท์ 2040
็ด@@ 2040
ปฐม 2039
ชีวภาพ 2038
ทักษิณ 2038
หมายความว่า 2038
จนได้ 2037
ดื่ม 2036
ปลอดภัย 2036
สถาน@@ 2036
อัญเชิญ 2036
เนิน 2036
โดยปกติ 2036
ตสึ 2034
1,@@ 2033
จ้าง 2033
นารี 2033
อาย 2033
เวียงจันทน์ 2033
สู@@ 2032
อิก 2031
นาฬิกา 2030
ยับยั้ง 2030
เอ็ด 2030
ได@@ 2030
ลิป 2029
เครื่องราชอิสริยาภรณ์ 2028
เรียนรู้ 2028
ร่วม@@ 2027
ห้องเรียน 2027
โห@@ 2027
แอนิเมชัน 2026
โบราณคดี 2026
หุ้น 2024
โต้ 2024
ตรง@@ 2022
ทอม 2022
รัศมี 2022
น้อยที่สุด 2020
สวย 2020
เสื่อม 2020
รับเชิญ 2019
ริเริ่ม 2019
นักประวัติศาสตร์ 2018
อากาศยาน 2018
ผัก 2016
แบ่งกลุ่ม 2016
ไฟล์ 2016
กรีฑา 2013
แฮร์รี่ 2013
ดัตช์ 2012
ท็อป 2012
สำนักงานใหญ่ 2012
สกา 2011
มหาสารคาม 2010
กรอง 2008
ปักกิ่ง 2008
พายุหมุน 2008
สป@@ 2008
ร์ท 2007
ช่อ 2006
อุทยาน 2005
โรเบิร์ต 2005
2022 2004
ล้อมรอบ 2004
รัต 2002
อุทิศ 2001
เทพเจ้า 2001
ผู้อื่น 1997
อาคารเรียน 1996
งบ 1995
2528 1994
คลี 1994
ถอด 1994
ที่นั่น 1994
ผสมผสาน 1994
เมฆ 1994
เกล 1993
University 1992
บุรุษ 1992
ม่า 1992
พรรณ 1990
1993 1989
บวช 1989
ประชา@@ 1988
พระภิกษุ 1988
ฟอน 1988
เขื่อน 1988
มน@@ 1987
นิติ@@ 1986
ปะ 1986
ลเล@@ 1986
แบบจำลอง 1984
สมเด็จพระ@@ 1983
ที่ประชุม 1982
55 1981
ไรเดอร์ 1981
สน@@ 1980
an 1979
ที่นี่ 1979
พัง 1979
ร์ต 1979
บันทึกเสียง 1978
ครบรอบ 1976
คูณ 1976
สำ@@ 1976
กัปตัน 1974
พืช@@ 1974
ฮู 1974
ศรี@@ 1972
เกาหลีเหนือ 1972
พ่อแม่ 1971
หัวหน้าพรรค 1971
าะ 1971
ทางวัฒนธรรม 1967
งดงาม 1965
ซัง 1965
ำ 1964
โบราณสถาน 1964
1995 1963
ทิพย์ 1961
เลต 1961
คู่แข่ง 1960
ปทุม 1960
หุ่นยนต์ 1960
เทพ@@ 1960
เนื้อเยื่อ 1960
โจโฉ 1960
สุร@@ 1959
ท์@@ 1958
ออกซิเจน 1958
เต็มไปด้วย 1957
ียง@@ 1956
เป็นโรค 1956
้าว 1956
ความหนาแน่น 1955
บรรเลง 1955
่าน 1955
ส่วนภูมิภาค 1954
กระดาษ 1953
ชันษา 1953
พัน@@ 1953
ลิต 1953
ผลักดัน 1952
ลงโทษ 1952
ลัก 1952
วต 1952
กัว 1951
จ์ 1951
มิต 1951
รับรู้ 1951
สาน 1951
หม่อมราชวงศ์ 1950
ประยุกต์ 1949
อัตโนมัติ 1949
าย 1948
ญญา 1946
ตอง 1946
หลวงปู่ 1946
ไปหา 1944
จิง 1943
โรมันคาทอลิก 1943
จอง 1941
บริเตน 1941
บาร์เซโลนา 1940
ลำต้น 1940
เสนา 1940
ฐาน@@ 1939
Love 1938
อยู่@@ 1938
ชื่นชอบ 1937
เข้าเรียน 1936
๒@@ 1936
ควรจะ 1935
ประกัน 1934
พยัญชนะ 1934
กอง@@ 1933
ปอด 1933
หั@@ 1933
2525 1932
นักท่องเที่ยว 1932
สว@@ 1932
เนียน 1932
คว@@ 1931
ร.@@ 1931
บรรดาศักดิ์ 1930
แอฟริกาใต้ 1930
เกิ้ล 1929
โทรศัพท์ 1929
ต้นปี 1928
รายการโทรทัศน์ 1927
400 1926
บอ@@ 1926
บรร@@ 1925
มอบให้ 1925
วิเศษ 1925
ไพร 1925
กระโดด 1923
พระตำหนัก 1923
หนี้ 1922
นักวิจารณ์ 1921
พ.@@ 1920
ัง 1920
ชุน 1919
หมด@@ 1919
เสื้อผ้า 1919
.) 1918
ด์@@ 1918
ซัส 1916
มน 1916
ค้น 1914
ตอนนี้ 1914
ผู้พูด 1914
2516 1912
W@@ 1911
เห็นชอบ 1911
ทซ์ 1910
สลา 1909
็น@@ 1909
รว@@ 1908
อยู่แล้ว 1908
แหล่งข้อมูล 1908
นิพนธ์ 1906
พาณิชย์ 1906
แช@@ 1906
ละครใน 1905
โรงภาพยนตร์ 1905
กัง 1902
ด้า 1902
ที่ราบ 1902
พระราม 1902
รูปทรง 1902
อิล 1899
็กซ์ 1899
นักรบ 1898
ล์@@ 1898
ฟต์ 1897
เอ็@@ 1897
ลาออก 1896
อ้วน 1896
สารประกอบ 1895
กระท@@ 1894
2523 1893
U 1893
ปกคลุม 1892
42 1891
นางแบบ 1890
จี@@ 1889
สื่อสาร 1889
าน@@ 1889
เพชรบุรี 1889
โก้ 1889
ไขมัน 1889
ตัวเมือง 1888
เป้า 1888
เสนาบดี 1888
ภูเขาไฟ 1887
สเป@@ 1887
รวมตัวกัน 1886
2526 1884
สงครามกลางเมือง 1884
ทหาร@@ 1882
ฟื้น 1882
ระดับนานาชาติ 1882
โควิด 1882
็อก@@ 1882
ตอน@@ 1881
1988 1880
ซึมเศร้า 1880
สำนักงานเขต 1880
นักบิน 1879
ลูกค้า 1879
แล้วเสร็จ 1879
จัดงาน 1878
นโปเลียน 1878
ภร 1878
ปริศนา 1876
เซ็@@ 1876
โรล 1876
นอกเหนือจาก 1875
นับว่า 1875
ชุ 1873
นับแต่ 1873
ปฏิบัติหน้าที่ 1873
สร้าง@@ 1873
ไกร 1873
ฆ 1872
มาริ 1872
แป้ง 1872
สอบสวน 1871
องค์กรปกครองส่วนท้องถิ่น 1871
บุตรสาว 1870
International 1868
จักรยาน 1868
ชาล 1867
ดุล 1867
ร์ส 1867
ร่วมสมัย 1866
อาราม 1866
สุรินทร์ 1865
เอเชียนเกมส์ 1865
กำลังจะ 1864
วิทยา@@ 1864
ได้รับการยกย่อง 1864
ประเสริฐ 1863
พาย 1863
การตลาด 1862
เข้าด้วยกัน 1862
ลงคะแนน 1861
สท์ 1861
ได้รับบาดเจ็บ 1861
มัด 1860
๋ง 1860
ซิก 1859
ยามา 1859
บัง@@ 1858
หัวข้อ 1857
ชาย@@ 1856
โดยรอบ 1856
ชั้นสูง 1855
ขยายตัว 1854
ทน 1854
บริษัท@@ 1854
รู@@ 1854
ลด์ 1854
ศาสตรบัณฑิต 1854
สิง@@ 1854
เสี่ยง 1854
เรียบร้อย 1853
กด@@ 1852
เปิล 1850
รัก@@ 1849
หิ@@ 1849
เรอ 1849
แผน@@ 1848
ได้รับอนุญาต 1848
1989 1847
ขาด@@ 1847
ไร@@ 1847
้ม@@ 1847
​@@ 1846
2565 1845
กุ้ง 1845
เห็นด้วย 1845
พรมแดน 1844
หน้าต่าง 1844
เข้มข้น 1844
การตัดสินใจ 1843
จัง 1843
จุดประสงค์ 1843
วิทยาการ 1843
คงอยู่ 1842
ตะวัน 1842
นว 1841
สายตา 1841
แรงดัน 1841
คุกคาม 1839
จาน 1839
ดีน 1839
64 1837
โรจน์ 1836
r 1835
มาย 1835
แคบ 1835
สเต@@ 1834
ื้อ 1834
รอย@@ 1833
กี@@ 1830
ทางเลือก 1830
แป 1830
39 1828
ปลัด 1827
แม่เหล็ก 1827
กุฏิ 1826
นำเข้า 1825
ริม@@ 1825
คู@@ 1824
คุณหญิง 1823
มาสู่ 1823
เหรียญเงิน 1823
". 1822
ภัณฑ์ 1822
ตับ 1821
กล่าว@@ 1820
คำแนะนำ 1820
ระงับ 1820
เฝ้า 1820
เพลงชาติ 1820
ไทม์ 1820
็อง 1820
ย็อง 1819
เกน 1819
้ว 1819
เทป 1818
2527 1817
การปฏิบัติ 1813
ถึงแม้ 1813
แทนที่จะ 1812
ทันสมัย 1811
ล้ม 1811
ฟฟ์ 1810
1945 1809
ทั้งที่ 1809
มป์ 1809
อล@@ 1808
อาน 1808
่ว@@ 1808
จากกัน 1807
นักบวช 1807
บล็อก 1807
เอลิซาเบธ 1807
2517 1806
เรือง 1806
คาร์บอน 1805
ถอย 1804
๓ 1804
ขึ้นทะเบียน 1803
ปุ่ม 1803
เด็@@ 1803
เปลี่ยน@@ 1803
คลุม 1802
ซีดี 1802
ดยุค 1802
e 1801
ค่อย 1801
เรียบ 1801
มด 1800
เสรีภาพ 1800
2524 1799
ตรงกลาง 1799
ตาก 1799
มีระบบ 1799
หลุม 1799
ทำสงคราม 1798
ม์ 1797
วันหนึ่ง 1797
โหวต 1797
65 1796
ขวบ 1796
ชิต 1794
นักแต่งเพลง 1794
เปล่า 1794
สง@@ 1793
คัล 1789
เฉิน 1789
เดีย 1789
โดยสาร 1789
พร@@ 1788
โล่ 1788
'@@ 1787
ท่ามกลาง 1787
หมัด 1787
การคำนวณ 1784
ฤกษ์ 1784
อิฐ 1784
2500 1783
กฎ@@ 1783
ทางแยก 1783
สวด 1783
เนื่องใน 1783
เมล 1783
ไลฟ์ 1783
k 1782
ภั@@ 1782
แปลก 1782
มัธยม 1781
แมน@@ 1781
บอน 1780
ฝ่ายสัมพันธมิตร 1780
ผลลัพธ์ 1779
เกษม 1779
เหย้า 1779
แย่ 1779
ในขณะเดียวกัน 1779
มัล@@ 1778
พระชายา 1777
พระอุโบสถ 1777
ดาว@@ 1776
สัง 1776
เอนไซม์ 1776
๒๕@@ 1776
I@@ 1775
สภาพแวดล้อม 1775
หง 1775
อัฟกานิสถาน 1775
คนสำคัญ 1774
คำตอบ 1774
ราชบุรี 1774
44 1772
o@@ 1772
วินัย 1772
สส 1772
ส้ม 1772
ร้าง 1770
แน่น 1770
ใช้การ 1770
ซม. 1769
ดูเหมือน 1769
ผิดปกติ 1769
ช่อง@@ 1768
บอก@@ 1768
J 1767
การประเมิน 1767
ชิป 1767
ผลประโยชน์ 1766
คุก 1765
ช่วยว่าการ 1765
น้อยลง 1765
พื้นดิน 1765
หมาย@@ 1765
ตามหา 1764
พ. 1763
พระราชวงศ์ 1763
ฟิลิป 1763
ลอร์ด 1763
ผสมพันธุ์ 1761
ละคร@@ 1761
อนาคต 1761
อย่า 1761
อเล็กซานเดอร์ 1761
ิล 1761
ถา 1760
มุ@@ 1760
แอก 1760
เฉลิมพระเกียรติ 1758
ทุกข์ 1757
มัสยิด 1757
์) 1756
คนโต 1754
ุน 1754
็ค@@ 1754
คิดค้น 1752
ดิส 1752
อาทิตย์ 1752
ดัก 1751
เกียร์ 1751
เลา 1751
ความรับผิดชอบ 1750
พราหมณ์ 1749
เท่าที่ 1749
ฉีด 1748
สุก 1748
กก 1747
ปลดปล่อย 1747
ปฏิรูป 1746
สับสน 1746
ตลอดกาล 1745
ราษฎร์ 1745
ใช้ประโยชน์ 1744
ลพบุรี 1743
ถือ@@ 1742
นครปฐม 1742
ปากีสถาน 1742
ข้างเคียง 1741
เสนาสนะ 1741
วิกิพีเดีย 1740
วินโดวส์ 1740
สมัย@@ 1740
150 1739
47 1739
พาน 1739
มลายู 1739
รัล 1739
หยวน 1739
เกอร์ 1739
เวลา@@ 1737
คนละ 1736
หันมา 1736
อาชญากรรม 1736
จมูก 1735
มัน@@ 1735
ศีล 1735
2520 1734
ทุกวันนี้ 1734
ที่ทำงาน 1732
ภาพเขียน 1732
กองพล 1731
ขนม 1731
ธน 1731
พระประธาน 1731
รวมทั้งหมด 1731
ร็อค 1731
ลือ 1731
นิ่ง 1730
41 1729
น้ำตก 1729
หัน 1729
คอม@@ 1728
เที่ยว 1727
โคก 1727
ใช้ได้ 1727
จนกว่า 1726
ชิ้นส่วน 1726
ปรา@@ 1726
มิลลิเมตร 1726
รร 1726
ราชสมบัติ 1726
สู 1726
วารสาร 1725
สมุทรปราการ 1725
ยาย 1724
วงษ์ 1724
แซม 1724
แวน 1724
ชีววิทยา 1723
มีน 1723
เคารพ 1723
You 1722
กรมหมื่น 1720
ดัม 1720
มีเดีย 1720
วอชิงตัน 1720
สนุก 1720
W 1719
ของเหลว 1719
ถ่ายภาพ 1719
เสมือน 1719
ในกรณีที่ 1719
ดอร์ 1718
มม. 1718
ing 1717
อีสาน 1717
หุ@@ 1716
เทวดา 1716
ลุ่ม 1715
เว้น 1715
ขับเคลื่อน 1714
ภูมิคุ้มกัน 1714
สัก@@ 1714
ไช 1714
New 1713
สุดยอด 1712
เวียน 1712
20@@ 1711
กระบี่ 1711
ค้า 1711
ชื่นชม 1711
นักเตะ 1711
u 1710
ชมรม 1709
ข้อเสนอ 1708
จิตรกรรม 1708
บิ๊ก 1708
บ้านเกิด 1708
เสถียร 1708
มัย 1707
อฟ 1707
แต่ละคน 1707
เรียกกันว่า 1705
มหานคร 1704
การลงทุน 1703
ชั้นมัธยมศึกษา 1703
บร 1703
วัย@@ 1703
โกล@@ 1703
ขโมย 1702
ประทับใจ 1702
ผูก 1701
อ็อง 1701
จูเนียร์ 1700
แอม 1700
โซ่ 1700
ยุทธศาสตร์ 1699
อนุรักษ์ 1699
คัดค้าน 1698
ดีเอ็นเอ 1698
น้ำท่วม 1698
โง 1698
็บ 1698
จำคุก 1697
พอที่จะ 1697
แทร@@ 1696
โหมด 1696
จรวด 1695
ลงทุน 1695
อุดรธานี 1695
ี่ยว 1695
มีพลัง 1694
ล้าง 1694
แพร่กระจาย 1694
ท่อน 1693
ธนู 1693
ก๊ก 1692
end 1691
ธา@@ 1691
ลัง 1691
ปะทะ 1690
กราฟ 1689
แพน 1689
o 1687
ตั้งถิ่นฐาน 1687
ตกเป็น 1686
เช่นนั้น 1686
2515 1684
อุปสรรค 1684
เลข@@ 1684
ลัด 1683
เจีย 1683
เหรียญทองแดง 1683
แห่งประเทศไทย 1682
ดิบ 1681
พี่สาว 1681
แด่ 1681
แปร 1681
มหาวิทยาลัยเกษตรศาสตร์ 1680
เก่ง 1680
มอง@@ 1679
อาวุโส 1679
เป็นพิเศษ 1679
บรรลุ 1678
ความดัน 1676
เทนนิส 1676
l 1675
ก่อ@@ 1675
ขั้นตอนวิธี 1675
ถอน 1675
ทวีปเอเชีย 1675
ฝึกหัด 1675
มกุฎราชกุมาร 1675
นพ 1674
กรี@@ 1672
รีบ 1672
ถ 1671
พุ 1671
สำรอง 1669
หมาก 1669
แฟชั่น 1669
อาเซียน 1668
ี่ย 1668
แบ่งแยก 1668
วู@@ 1667
ฮอต 1667
แยกตัว 1667
1984 1666
หู@@ 1666
เตะ 1665
เมื่อ@@ 1665
กรีน 1664
บี้ 1664
ค. 1663
ลุย 1663
สมดุล 1663
สมุทร 1663
สิบสอง 1663
เท่า@@ 1663
้อ@@ 1663
พระนครศรีอยุธยา 1662
อิม 1662
ความตาย 1661
U@@ 1660
กาแฟ 1660
จำแนก 1659
รำ@@ 1659
ทอง@@ 1658
ประกาศใช้ 1658
ทางเข้า 1657
พื้นบ้าน 1656
แข็งแรง 1656
ภูมิประเทศ 1655
ร่อง 1655
เครือ 1655
ดังที่ 1654
ตรัส 1654
พู 1654
ยิ่งขึ้น 1654
รณ 1653
อภิ 1653
โชค 1653
น์@@ 1652
สลัก 1652
ปะ@@ 1651
ตอนนั้น 1650
รากฐาน 1650
1950 1649
ก๊าซ 1649
สหรัฐฯ 1649
หัก@@ 1649
กลยุทธ์ 1648
ฟินแลนด์ 1648
ือน 1648
แปลก@@ 1648
ึก 1647
กัล 1646
ปู่ 1646
เพียงแต่ 1646
คัด 1645
เกิดเหตุ 1644
ถึงแก่กรรม 1643
ยอน 1643
สภานิติบัญญัติ 1643
!" 1642
คะแนนเสียง 1642
เหลียง 1642
ทิน 1641
เมรุ 1641
ต้นแบบ 1640
สมาพันธ์ 1640
ความจำ 1638
ประชาสัมพันธ์ 1638
ดีเด่น 1637
ด้วยเหตุนี้ 1637
วน@@ 1637
อธิบดี 1637
เดีย@@ 1637
ในเวลานั้น 1637
พบเห็น 1635
ดุสิต 1634
กองทหาร 1631
แตก@@ 1631
ซีเกมส์ 1630
ปัสสาวะ 1630
เจ้าจอมมารดา 1630
แท่น 1629
วิพากษ์วิจารณ์ 1628
สละ 1628
หมา@@ 1628
เป็นช่วง 1628
II 1627
กางเขน 1627
ถา@@ 1627
ทางทิศใต้ 1627
เหย@@ 1627
กรร 1626
ธาร 1626
ข้างต้น 1625
ข่าน 1623
ถูกจับ 1623
บัลแกเรีย 1623
อุตรดิตถ์ 1623
แทรก 1623
ลัม 1622
กุน 1621
ื่อย 1620
หญิงสาว 1619
โส 1619
h 1618
ผิด@@ 1618
ภูเก็ต 1618
มติ 1618
หยุด@@ 1618
แหวน 1618
โนน 1618
á 1617
กองเรือ 1617
คัง 1617
ตอนต้น 1617
พระบาทสมเด็จพระมงกุฎเกล้าเจ้าอยู่หัว 1617
กว@@ 1616
นัล 1616
เป็นลำดับ 1616
โยน 1616
เวทมนตร์ 1615
กลับคืน 1614
พ่อค้า 1614
ท้า 1613
มีผลต่อ 1613
ใบหน้า 1613
2521 1612
จีเอ็มเอ็ม 1612
ทหารราบ 1612
ปริญญาเอก 1612
ส่วนท้องถิ่น 1612
เจ้าคณะ 1612
ใ@@ 1612
ก้าวหน้า 1611
ู่@@ 1611
ซ่ง 1610
ติง 1610
สามก๊ก 1610
ดัชเชส 1609
ตะวันตกเฉียงเหนือ 1608
เรียล 1608
โคลน 1607
ผนวก 1606
ขัดขวาง 1605
มาศ 1605
อนึ่ง 1605
หนาแน่น 1603
กก. 1602
สมาธิ 1602
ชักชวน 1601
ว่าง 1601
ฉุกเฉิน 1599
บัล 1599
วัง@@ 1599
สัน@@ 1599
ขนาน 1598
นครสวรรค์ 1597
ืด 1597
หน้ากาก 1596
ค้า@@ 1595
ชุม@@ 1595
ธุ@@ 1593
สึ@@ 1593
แขนง 1592
ตะวันตกเฉียงใต้ 1591
ฟอร์ม 1591
ลอบ 1591
ศาสนาอิสลาม 1591
เวิร์@@ 1591
แอตแลนติก 1591
ปราศจาก 1590
ส่วนผสม 1590
ี้ย@@ 1590
กลืน 1589
ถกเถียง 1589
้าง 1589
;& 1588
ปน 1588
ละครเวที 1588
เนอร์ 1588
กิตติ 1587
ทุน@@ 1587
บ้า 1587
คลัง 1586
ปั้น 1586
Best 1585
ยิ่ง@@ 1585
ไลน์ 1584
ชั้นนำ 1583
ปาร 1583
ate 1582
พัก@@ 1582
พิง 1582
รุ่งเรือง 1582
แหล่งน้ำ 1582
ูล 1581
Z@@ 1580
วิกตอเรีย 1580
ไพ@@ 1579
ี่ยง 1578
เนียม 1578
เลื่อนชั้น 1578
46 1577
ความเข้าใจ 1577
พังก์ 1577
วันนี้ 1577
ฉลาด 1576
เจ็บ 1576
เพื่อน@@ 1575
2512 1574
วิจิตร 1574
พราน 1573
สเตอร์ 1573
สแต@@ 1573
๔ 1573
ไข้ 1571
ปัน 1570
พับ 1570
สล@@ 1570
ข้อหา 1569
ถัดไป 1569
ลม@@ 1569
ลิตร 1569
แน่ชัด 1569
ยูนิ@@ 1568
เนล 1566
คัส 1565
แต่งเพลง 1565
ต้ม 1564
อำ@@ 1564
ทหารเรือ 1563
สกัด 1563
พุทธศตวรรษ 1562
วุ@@ 1562
การถ่ายภาพ 1561
ที่ทาง 1561
มห@@ 1561
เครื่องดนตรี 1561
พุธ 1560
อาร์@@ 1560
ูด 1560
ation 1559
สิ่งของ 1559
็ท 1559
1986 1558
ทรา@@ 1558
ภาพถ่าย 1558
y@@ 1557
สุ่ม 1557
สูญ 1557
๕ 1557
ตัวนำ 1556
ต่างชาติ 1556
โจร 1556
หมายเหตุ 1555
็อต 1555
49 1554
ดาราจักร 1554
ดวง@@ 1553
พรรคเพื่อไทย 1552
เนื้อร้อง 1552
โมเดล 1552
or 1551
อารยธรรม 1551
ครัว 1550
พบกัน 1549
มุ่งหน้า 1549
)) 1548
พูดถึง 1548
เนชันแนล 1548
เบีย 1548
52 1547
ฟ้า@@ 1547
หวง 1547
เนะ 1547
เม็ด 1547
ลอสแอนเจลิส 1546
ทุ 1545
ปูน 1545
ผู้ใด 1545
สุดา 1545
รต 1544
วี่ 1544
ประจุ 1543
สอ 1543
43 1542
ความคิดเห็น 1542
ด็@@ 1542
ตะวันออกเฉียงใต้ 1542
เหตุ@@ 1542
น่าสนใจ 1541
หมี 1541
เชล 1540
เฟร 1540
เริ่มแรก 1540
แนวร่วม 1540
สตา@@ 1539
สภา@@ 1539
เผ@@ 1539
มาดริด 1538
สุพรรณบุรี 1538
กระทรวงกลาโหม 1537
วิศวกร 1537
จุน 1536
เซฟ 1536
ความลับ 1535
อ่อนแอ 1535
ซัล@@ 1534
บุนนาค 1534
ปร 1534
มีประโยชน์ 1534
2513 1533
ผ่าน@@ 1533
การตาย 1532
ฉา@@ 1532
ชินวัตร 1531
ตั้งครรภ์ 1531
๊ด 1531
ความผิด 1530
ตรงกันข้าม 1530
ภายในประเทศ 1530
รอบ@@ 1530
รัด 1530
เมือง@@ 1530
แดด 1530
ศาลาการเปรียญ 1529
สิทธิ@@ 1529
เวีย 1529
เสร็จสิ้น 1529
แผง 1529
”@@ 1528
ดับ@@ 1527
2514 1526
ครัวเรือน 1526
รณรงค์ 1526
ระบบประสาท 1526
โดะ 1526
การกำกับ 1525
สัตว์@@ 1525
เวอร์@@ 1525
จิ๋ว 1524
ปทุมธานี 1524
มาร@@ 1524
ส่วนกลาง 1524
4,@@ 1523
ทางราชการ 1523
บริหารงาน 1523
เป็นเหตุให้ 1522
ไหลผ่าน 1521
เกิร์ล 1520
เผชิญ 1520
ชนชั้น 1519
ดาวน์ 1519
ร่ม 1519
ลาด@@ 1519
แต่อย่างใด 1519
1940 1518
Music 1518
พระบรมราชโองการ 1518
รายนาม 1518
แฟ 1518
? 1516
ชล 1516
ตอบรับ 1516
ทัต 1516
ยี่ 1515
เช็ก 1515
จัตุรัส 1514
ชิล 1514
วิว 1514
แฟนตาซี 1514
ผู้สำเร็จราชการ 1512
ผู้เขียน 1512
แบล็ก 1512
บ้านเรือน 1511
ยอดนิยม 1511
ลงวันที่ 1511
เพียง@@ 1511
เหมาะ 1511
คาทอลิก 1510
วย@@ 1510
เปา 1510
2475 1509
ชรา 1509
ฝรั่ง 1509
ลต์ 1509
เรต 1509
แคล@@ 1509
ชิง@@ 1508
วิกฤต 1508
ทดแทน 1507
ยิ@@ 1507
ตัวตน 1506
บทเพลง 1506
ผลผลิต 1506
บะ@@ 1505
ชั้นใน 1503
หากิน 1503
เกล็ด 1503
กองทุน 1502
เพรส 1502
แผล 1502
n@@ 1501
จม 1500
ริว 1500
ลอง@@ 1500
เพาะ 1500
กรัม 1499
มอเตอร์ 1499
เรียกชื่อ 1499
ถล่ม 1498
การรับรู้ 1496
ทูล 1496
นว@@ 1496
ปัตตานี 1496
ลงสมัครรับเลือกตั้ง 1496
แสวงหา 1496
เก็ต 1495
2,000 1494
นวล 1493
ประธานกรรมการ 1493
ฟีฟ่า 1493
อวอร์ด 1493
นิวเคลียส 1492
รวมตัว 1492
บาป 1491
ยากจน 1491
สนาม@@ 1491
ผัง 1490
ร้ายแรง 1490
สถานศึกษา 1490
กรุ๊ป 1489
ซื่อ 1489
มอสโก 1489
ชุม 1488
ปฏิบัติงาน 1488
สิงโต 1488
บพิตร 1487
ประติมากรรม 1487
แรกเริ่ม 1487
โชติ 1487
หลุด 1486
ใย 1485
กล่อง 1484
ฮอ@@ 1484
แห@@ 1483
กรุงธนบุรี 1481
จน@@ 1481
ประหาร 1481
ภาษาละติน 1481
ขัดแย้ง 1480
คำร้อง 1480
จัดหา 1480
อนา@@ 1480
แกะ 1480
กิ่งอำเภอ 1479
ภัทร 1479
เบอร์@@ 1477
ตอนปลาย 1476
ทาวน์ 1476
บาทหลวง 1476
ปัก@@ 1476
เรีย@@ 1476
๐ 1476
School 1475
ชร 1475
ลี้ภัย 1475
เรื่อยๆ 1475
ชื่อจริง 1474
ศักยภาพ 1474
Y 1473
ยอดเขา 1473
อังคาร 1473
อำนวยการ 1473
โรคมะเร็ง 1473
ตย์ 1472
เล็บ 1472
แม่นยำ 1472
53 1470
ธนา 1470
ส่งสัญญาณ 1470
แผ่นดินใหญ่ 1470
จินดา 1469
จิ้น 1469
ฟอร์@@ 1469
ระดับโลก 1469
อุปสมบท 1468
กุมาร 1466
คค 1466
รบกวน 1466
วงโคจร 1466
เนื่องด้วย 1466
กรุ 1465
อาร์เซนอล 1465
ไฮโดรเจน 1465
ชำ@@ 1464
เชียร์ 1464
=" 1463
ภูมิอากาศ 1463
แนว@@ 1463
ความทรงจำ 1462
เลขานุการ 1462
ความจุ 1461
งส์ 1461
บางแห่ง 1461
ประทาน 1461
ผูก@@ 1461
วุฒิสภา 1461
ไร้@@ 1461
ขาย@@ 1460
ตุลาการ 1460
ปรับเปลี่ยน 1460
พิกัด 1459
1987 1458
g 1458
อัม 1458
ึ 1458
การทูต 1457
ควีน 1457
ทธ@@ 1457
ปัจจุบันนี้ 1457
ยุค@@ 1457
um 1456
กิง 1456
เบิร์น 1456
แท่ง 1456
สัตว์เลี้ยงลูกด้วยนม 1455
เหมา 1455
begin 1454
การบุก 1452
โคจร 1452
"( 1451
72 1451
สงวน 1451
ือง 1451
95 1450
ฆ่าตัวตาย 1450
บร@@ 1450
ทำพิธี 1449
ภคินี 1449
ทิศใต้ 1448
เคร@@ 1448
เป็นสาเหตุ 1448
al@@ 1447
กำ 1447
สติ@@ 1447
หลวง@@ 1447
การฟื้นฟู 1446
ข่ม@@ 1446
องค@@ 1446
อภัย 1446
เวส 1446
หิมะ 1445
ตัวแปร 1444
พฤหัสบดี 1444
ิด@@ 1444
ทีมงาน 1443
ท้องฟ้า 1443
นักแสดงหญิง 1443
เชื้อชาติ 1443
เอนเตอร์เทนเมนต์ 1443
จัดสรร 1442
ระบบ@@ 1442
หงส์ 1442
้อง 1442
คัน@@ 1441
ทางวิชาการ 1441
ผึ้ง 1441
มัง@@ 1441
ยกระดับ 1441
เผย 1441
งานการ 1440
ลำพูน 1440
ห่วง 1440
อารี 1440
เตา 1440
มากเกินไป 1439
โมะ 1439
มาร์ค 1438
ไส@@ 1438
Y@@ 1437
วิตามิน 1437
สะกด 1437
เขต@@ 1437
เข็ม 1437
2,@@ 1436
กรมศิลปากร 1435
นทร์ 1435
สง 1435
เมอร์ 1435
ฝาก 1434
สมควร 1434
คลับ 1433
เซ็นเตอร์ 1432
54 1431
พยากรณ์ 1431
คลื่น@@ 1430
ถอนตัว 1430
มหาศาล 1430
โฟน 1430
่าย@@ 1430
aceae 1429
ยาเสพติด 1428
หมา 1428
เซอร์เบีย 1428
ระบาย 1427
ล้ม@@ 1427
วิทย์ 1427
เป็นไปตาม 1427
โกลด์ 1426
กองกลาง 1425
99 1424
บาย 1424
ความกำกวม 1422
ตกรอบ 1422
ระดับน้ำทะเล 1422
อนุสาวรีย์ 1422
อายุ@@ 1422
อำนวย 1422
แคระ 1422
กรี 1421
จุล@@ 1421
ดึงดูด 1421
มาร์ก 1421
อส์ 1421
จับคู่ 1420
ชาตินิยม 1420
เทค 1420
51 1419
r@@ 1419
คงที่ 1419
รอง@@ 1419
เนปาล 1419
เอิร์ล 1419
การจับสลาก 1418
ท่า@@ 1418
ตัส 1417
ในแง่ 1417
กบ 1416
ดอลลาร์ 1415
ประถม 1415
สื่อมวลชน 1415
คาด@@ 1414
นัง 1414
บำบัด 1414
แลง 1414
f 1413
รถไฟใต้ดิน 1413
เมทัล 1413
แถลง 1413
บัก 1412
120 1411
เป็นรอง 1411
บัติ 1410
เห็นได้ชัด 1410
นิสิต 1409
ลน 1409
มิใช่ 1408
รอดชีวิต 1407
ร้านอาหาร 1407
1985 1406
ปริ 1406
ระดับชั้น 1406
คลอด 1405
ฉลาม 1405
ธี@@ 1405
กฎหมาย@@ 1404
เดิล 1404
ธาน 1403
นางสาว 1403
มุง 1403
ียด 1403
เป็นแนว 1403
แบ็ก 1403
่วง@@ 1403
เครื่องดื่ม 1402
แบรนด์ 1402
คาถา 1401
คำถาม 1401
งา@@ 1401
สัต@@ 1401
สารสนเทศ 1401
งด 1400
1.5 1399
สันสกฤต 1399
สั่งการ 1399
ร้า 1398
สรร@@ 1398
วร์ 1397
หาด 1397
ชาวเมือง 1396
ซีซั่น 1396
แกะสลัก 1396
3,@@ 1395
ชาร์ลส์ 1395
นิล 1395
ื่@@ 1395
ประสิทธิ์ 1394
สามเหลี่ยม 1394
เหนียว 1394
ประกอบอาชีพ 1393
ิ่น 1393
ใด@@ 1393
ที่แล้ว 1392
ณรงค์ 1391
ตร. 1391
ตลาด@@ 1391
อัต 1391
แฟร์ 1391
รสชาติ 1390
อ้อม 1390
เขตแดน 1390
เอ็น@@ 1390
ภูมิพล 1389
หุบเขา 1389
อบอุ่น 1389
ออตโตมัน 1389
ไบรอัน 1389
สมาชิกสภา 1388
สุขาภิบาล 1388
ื่อ@@ 1388
ซ่อมแซม 1386
นายแพทย์ 1386
มล@@ 1386
หลัง@@ 1386
ียส 1386
เทา 1386
2511 1385
at 1385
ชื้น 1385
อธิการบดี 1385
โดร 1385
ชัก 1384
สาธารณชน 1384
แจ 1384
ทู@@ 1383
บอนด์ 1383
พระธรรม 1383
ศูนย์@@ 1383
เชี่ยวชาญ 1383
เบียร์ 1383
800 1382
พึ่ง 1382
สบาย 1382
หฺ 1382
ี้ยน 1382
เดียน 1382
ชิด 1381
ประกาศนียบัตร 1381
ศรีสะเกษ 1381
57 1380
ปานกลาง 1380
อัต@@ 1380
ซือ 1379
สโตน 1379
เผชิญหน้า 1379
แขก 1379
X@@ 1378
หันไป 1378
อัลบัม 1378
ซัว 1377
ประเทศ@@ 1377
ลังกา 1377
อนุสรณ์ 1377
ตาล 1376
บางกอก 1376
สีเทา 1376
ฝั่งทะเล 1375
อนุบาล 1375
ี่@@ 1375
รุ่นใหม่ 1374
ัส 1374
แจ็กสัน 1374
แต่กลับ 1374
แท 1373
ทะลุ 1372
อนุกรม 1372
มาลี 1371
ึง 1371
กำลัง@@ 1370
จริงจัง 1370
ฒ@@ 1370
ระยะแรก 1370
1972 1369
ดิสนีย์ 1369
พระนารายณ์ 1369
มอบหมาย 1369
รับหน้าที่ 1369
หนองคาย 1369
ซัม 1368
ขันธ์ 1367
ระยะยาว 1367
เสน 1367
ทธิ 1366
แฮร์ 1366
นรก 1365
ปุระ 1365
ไอดอล 1365
ขณะเดียวกัน 1363
สืบเชื้อสาย 1363
ส่วนพระองค์ 1363
เอียง 1363
ขีด@@ 1362
บีบ 1362
ทางการเงิน 1361
มาสเตอร์ 1361
อีกต่อไป 1361
เบอ 1361
ไปมา 1361
ฆาตกรรม 1360
พ่าย 1360
ป่าไม้ 1359
สอด@@ 1359
เพล@@ 1359
อสูร 1358
จตุ@@ 1357
ทวีปแอฟริกา 1357
โกศ 1357
2505 1356
คีรี 1356
ทางทะเล 1356
ลอก 1356
สุราษฎร์ธานี 1356
เลี้ยงดู 1356
in@@ 1355
สเซิล 1354
อาสา 1354
แก๊ง 1354
ปาเลสไตน์ 1353
56 1352
ทัล 1352
พาร์ก 1352
ศุภ 1352
ไพร@@ 1352
ลึกลับ 1351
่ำ@@ 1351
๊ค 1351
นิคม 1350
พระบรม@@ 1350
พำนัก 1350
พิธีกรรม 1350
600 1349
จร 1349
TV 1348
วัตร 1348
ี่ยน 1348
พระราชกฤษฎีกา 1347
ลิ้น 1347
เตียง 1347
เถระ 1347
ชื่อเสียง 1346
วาล 1346
สปอร์ต 1346
สันติ 1346
จุดเด่น 1345
่วง 1345
ดัชนี 1343
ผู้ว่าการ 1343
มองโกล 1343
สเตชัน 1343
หลง@@ 1343
เชือก 1343
ๆ@@ 1343
จิก 1342
สมภพ 1342
จอร์เจีย 1341
สัญญา@@ 1341
เมา@@ 1341
ic 1340
นั้นๆ 1340
เคิล 1340
v 1339
จันทบุรี 1339
แมนเชสเตอร์ 1339
คอร์@@ 1338
สามัคคี 1338
พอร์ต 1337
หลอก 1337
ดิก 1336
ทำนาย 1336
บุตร@@ 1336
พลา@@ 1336
สังเกตการณ์ 1336
หลิน 1336
ฟอง 1335
ยามะ 1335
เอฟเอคัพ 1335
แผ@@ 1335
ถือได้ว่า 1334
พยา@@ 1334
ย้อน 1334
อดุลยเดช 1333
กระจ@@ 1332
คุณธรรม 1332
สุวรรณภูมิ 1332
โห 1332
ผัก@@ 1330
หอ@@ 1330
เฟอร์@@ 1330
2503 1329
ปัก 1329
อาชีวศึกษา 1329
มาร์ติน 1328
ศุ@@ 1328
ตซ์ 1327
ครองเมือง 1326
ครึ่งหนึ่ง 1326
ปก@@ 1326
ลักเซมเบิร์ก 1326
เป็นส่วนใหญ่ 1326
ทอ@@ 1325
น้ำมัน@@ 1325
ฟ์ 1325
หาว่า 1325
ต้านทาน 1324
หมึก 1324
นักธุรกิจ 1323
รูปปั้น 1323
ล์ม 1323
หยก 1323
กลา@@ 1322
ทูบ 1322
แต่ทว่า 1322
ราชสกุล 1321
10,000 1320
85 1320
ia 1320
บกพร่อง 1320
เพลง@@ 1320
กาญจนบุรี 1319
ผืน 1319
มนต์ 1319
มั่น 1319
ยกตัวอย่างเช่น 1319
รพิ 1319
รีต 1319
แผ่ 1319
ตะกอน 1318
นอง 1318
ลำน้ำ 1318
วีระ 1318
บัญชา 1317
สามเณร 1317
แอนน์ 1317
ไหว 1317
นักโทษ 1316
สุริยุปราคา 1316
อาสาสมัคร 1316
เอม 1316
กระจุก 1315
รักษาโรค 1315
วางไข่ 1315
ศรีลังกา 1315
เสียใจ 1315
โกส 1315
ไทย@@ 1314
ณิ@@ 1313
สนามแม่เหล็ก 1313
โดยเฉลี่ย 1313
ช่วงนี้ 1310
เรื่อง@@ 1310
2499 1309
2510 1309
58 1309
Z 1309
วิลล์ 1309
สารคดี 1309
เศ@@ 1309
นิทรรศการ 1308
บทประพันธ์ 1308
บูรพา 1308
ปรีชา 1308
ผู้ดูแล 1308
ล่วงหน้า 1308
หมวก 1308
ิก 1308
กาฬสินธุ์ 1307
ชาวนา 1306
สูญพันธุ์ 1306
กล้วย 1305
สารเคมี 1305
ฮอร์โมน 1305
เยน 1305
เลี้ยง@@ 1305
ine 1304
กอ@@ 1304
การอนุรักษ์ 1304
เชลซี 1304
มั่นคง 1303
พายุไต้ฝุ่น 1302
สมุ@@ 1302
ขั@@ 1301
นานา 1301
ประมง 1301
สว 1301
นอร์ท 1300
มัธยมศึกษาตอนปลาย 1300
ยังอยู่ 1300
ษฐ์ 1300
ประจำตัว 1299
หาง@@ 1299
เป็นที่ยอมรับ 1299
แบ่ง@@ 1299
ไอออน 1299
บรรณาธิการ 1298
ร์ล 1298
ดจ์ 1297
มุนี 1297
แหล่ง@@ 1297
วส์ 1296
าน 1296
เจ้าภาพ 1296
การวินิจฉัย 1295
ปกรณ์ 1295
พาร์ 1295
มอล@@ 1295
ยิ้ม 1295
สม่ำเสมอ 1295
อัป@@ 1295
มีความรู้ 1293
มุ่งเน้น 1293
สตอ 1293
หม้อ 1293
่าง@@ 1293
กันเอง 1292
จารย์ 1291
พฤ@@ 1291
ยุติธรรม 1291
สรรพ@@ 1291
อภิปราย 1291
ูน 1291
National 1290
ขัด 1290
คลาย 1290
คำสอน 1290
ล้าง@@ 1290
จอร์แดน 1289
นร 1289
ไว้@@ 1289
โค้ช 1287
โรงละคร 1287
บรรทุก 1286
บริหารธุรกิจ 1286
บิต 1286
ยินดี 1286
่อง@@ 1286
คณะกรรมาธิการ 1285
หม้อ@@ 1285
on@@ 1284
ค้าง 1284
หลั่ง 1284
โกรธ 1284
1983 1283
ียร 1283
ี้@@ 1283
เก็บรักษา 1283
เค้า 1283
com 1282
เกรด 1282
เคล@@ 1282
เปียโน 1282
i@@ 1281
ทรงกลม 1281
สาวก 1281
แพร@@ 1281
เสี้ยว 1280
แกนนำ 1280
ทด 1279
บ์ 1279
สงครามโลกครั้งที่หนึ่ง 1279
ครบ@@ 1278
น้ำจืด 1278
อินทรีย์ 1278
ักษ@@ 1278
ชนก 1277
ทุกๆ 1277
บ้านพัก 1277
ไหล่ 1277
2498 1276
คำวิจารณ์ 1276
มอ@@ 1276
มิส@@ 1276
วู 1276
เบิร์ต 1276
อุปถัมภ์ 1275
พูน 1274
เฟร@@ 1274
โว@@ 1274
๓@@ 1274
ที่พัก 1273
มีส่วนร่วม 1273
ทริป 1272
อิสรภาพ 1272
จักร@@ 1271
พรหม@@ 1271
เผด็จการ 1271
วิชา@@ 1270
โพรง 1270
ช่องแคบ 1269
เพล 1269
โพสต์ 1269
กระทรวงสาธารณสุข 1268
ขาดแคลน 1268
สหพันธรัฐ 1268
ตามปกติ 1267
พันธุ์@@ 1267
ระดับชาติ 1267
ชัก@@ 1266
เซี่ยงไฮ้ 1266
กระจายเสียง 1265
พะเยา 1265
สิทธิมนุษยชน 1265
ส์, 1265
หนาม 1265
ทาย 1264
ศักราช 1264
เฮาส์ 1264
ชำระ 1263
วีร 1263
หน่วย@@ 1263
หน้าตา 1263
ทะเลทราย 1262
ผลึก 1262
สวม@@ 1262
สี่เหลี่ยม 1262
ท้ายที่สุด 1261
แบนด์ 1261
ถุง@@ 1259
ปรุง 1259
ลอบสังหาร 1259
ชิลี 1258
ดูด 1258
สมา@@ 1258
เอเอฟ 1258
โพธิ 1258
th 1257
ข่าย 1257
ยอมให้ 1257
รำ 1256
2508 1255
คาน 1255
บรรจบ 1255
แน 1255
แอ่ง 1255
พ่อ@@ 1254
ศา 1254
สูง@@ 1253
เนต 1253
แก้ปัญหา 1253
1.@@ 1252
ขณะนี้ 1252
คุณค่า 1252
ตีความ 1252
บทกวี 1252
ราว@@ 1252
ซัล 1250
ต้อนรับ 1250
ทางกายภาพ 1250
วรรณคดี 1250
สมมติฐาน 1250
อัตราส่วน 1250
กติกา 1249
ขั้นพื้นฐาน 1249
ที่รัก 1249
รอยัล 1249
ส.@@ 1249
.. 1248
สกลนคร 1248
หน 1248
โดม 1248
ตัวจริง 1247
พุ่ง 1247
โรงเรียนมัธยม 1247
ชุมพร 1246
มิลาน 1246
สมุนไพร 1246
เสื่อม@@ 1246
[@@ 1245
ส่งออก 1244
เดิมที 1244
่อย 1244
้อน 1244
กัก@@ 1243
ชั่ว 1243
ตัม 1243
นางเอก 1243
บุญธรรม 1243
ภพ 1243
ละเมิด 1243
เออ 1243
ครอง@@ 1242
ตอบแทน 1242
ปืน@@ 1241
63 1240
66 1240
In 1240
จับตัว 1240
สกาย 1240
ิร์น 1240
ียร์ 1240
เหมือง 1240
2506 1239
ดิจิตอล 1239
ท้าทาย 1239
นีย์ 1239
ศิ@@ 1239
2.5 1238
งานศิลปะ 1238
ภาคี 1238
1930 1237
59 1237
นวัตกรรม 1237
พิธี@@ 1237
เกย์ 1237
เคลือบ 1237
๋น 1237
จด 1236
บาตร 1236
แมนเชสเตอร์ยูไนเต็ด 1236
My 1235
ครั้ง@@ 1235
นัย@@ 1235
พลาสติก 1235
เดอร์ 1235
เตียว 1235
1979 1234
ความเครียด 1234
พิสัย 1234
ีต 1234
1968 1233
ครรภ์ 1233
เครื่องจักร 1233
67 1232
กอล์ฟ 1232
มหาวิทยาลัย@@ 1232
กุมารี 1231
กู@@ 1231
การถ่ายทำ 1230
ภาครัฐ 1230
ร้อยเอ็ด 1230
สูท 1230
อย่าง@@ 1230
ียว@@ 1230
๊ก@@ 1230
จอ@@ 1229
เรือน@@ 1229
กรุงรัตนโกสินทร์ 1228
ความสุข 1228
ภิ@@ 1228
โลหิต 1228
ข้า@@ 1227
ซีก 1227
พลอย 1227
เพื่อนสนิท 1227
โครง@@ 1227
๊ะ 1227
!@@ 1226
บริหาร@@ 1226
มีแนวโน้ม 1226
ว์@@ 1226
โทน 1226
"; 1225
ควบ 1225
บิด 1225
คฤหาสน์ 1224
ตัวย่อ 1224
นค 1224
ลูกหลาน 1224
ลูกเรือ 1224
สตี 1224
อัสสัมชัญ 1224
ชาญ 1223
พอดี 1223
ลูกศิษย์ 1223
สวดมนต์ 1223
หมั้น 1223
no 1222
ปาน 1222
รุ่น@@ 1222
ออกเดินทาง 1222
ทิม 1221
ปฏิกรณ์ 1221
มุฮัมมัด 1221
ห้องสมุด 1221
one 1220
วงแหวน 1220
อินโดจีน 1220
5,@@ 1219
งานแสดง 1219
จิตร 1219
ปลอม 1219
สถานี@@ 1219
เทียบเท่า 1219
1920 1218
ทร์ 1218
คาดการณ์ 1217
เอ็ม@@ 1217
โทร@@ 1217
ไส้ 1217
1982 1216
กระดูกสันหลัง 1216
นิ้ว@@ 1216
บดี 1216
สูบ 1216
เดา 1216
# 1215
ก่อนคริสต์ศักราช 1215
เปล 1215
ใบอนุญาต 1215
จักรี 1214
ที่อื่น 1214
ฟท์ 1214
ยุทธ@@ 1214
ให้กำเนิด 1214
1981 1213
2501 1213
ราชบุตร 1213
3,000 1212
Award 1212
ทางใน 1212
วอ@@ 1212
เก็น 1212
คณะวิทยาศาสตร์ 1211
ตุ๊กตา 1211
ผง 1211
สนทนา 1211
สอบ@@ 1211
กระทรวงการต่างประเทศ 1210
เป็นเพื่อน 1210
ติดกัน 1209
ถือกำเนิด 1209
สถิต 1209
เนา 1209
ทั้งปวง 1208
ยูโกสลาเวีย 1208
อินทร์ 1208
เทศบาลนคร 1208
g@@ 1207
ค้าขาย 1207
พงศาวดาร 1207
พระเอก 1207
เจได 1207
ไดโนเสาร์ 1207
ดัล 1206
ผู้ว่าราชการ 1206
ชายหาด 1205
ซามูไร 1205
ราชกิจจานุเบกษา 1205
องค์การ@@ 1205
ปลงพระชนม์ 1204
ให้ความสำคัญ 1204
1976 1203
ข้าศึก 1203
ดีวีดี 1203
ฟา@@ 1203
สำนักนายกรัฐมนตรี 1203
ฮีโร่ 1203
ฤ 1202
สสาร 1202
เนรเทศ 1202
นินจา 1201
* 1200
1964 1200
คาบ 1200
ถอย@@ 1200
ทีเดียว 1200
เทว 1200
แทน@@ 1200
ตะเภา 1199
บิน@@ 1199
กลอน 1198
ขยาย@@ 1198
ผิดพลาด 1198
มหาวิทยาลัยมหิดล 1198
ยิงประตู 1198
ความฝัน 1197
ดาน 1197
ตลาดหลักทรัพย์ 1197
ชีวประวัติ 1196
ตัวรับ 1196
สมัยโบราณ 1196
เทควันโด 1196
แอร์ไลน์ 1196
ลีโอ 1195
อู@@ 1195
เพิ่มมากขึ้น 1195
นันท 1194
พวง 1194
สีม่วง 1194
ั้น 1194
77 1193
ตีเมือง 1193
ทางการค้า 1193
อุปราช 1193
เฟส 1193
พูดคุย 1192
ศก 1192
บัญชาการ 1191
ปรุง@@ 1191
ลักษ@@ 1191
สถาบัน@@ 1191
อักษรย่อ 1191
กับ@@ 1190
เฉพาะ@@ 1190
เซิน 1190
เต้ 1190
ขนานนาม 1189
ดวงตา 1189
ธรณี 1189
ฟ้อง 1189
มีสิทธิ์ 1189
z 1188
กองหน้า 1188
ดอง 1188
ฟูจิ 1188
บิชอป 1187
ลืม 1187
เลิก@@ 1187
เอฟ@@ 1187
68 1186
การวางแผน 1186
กุญแจ 1186
ตำหนัก 1186
ทรมาน 1186
ปะการัง 1186
ปัญ@@ 1186
ผ่า 1186
ราชมงคล 1186
ถุง 1185
ลวง 1185
่อม 1185
คัม 1184
รุ่ง 1184
เรตติ้ง 1184
แพ้คะแนน 1184
กุศล 1183
ถ่าย@@ 1183
ที่เก็บ 1183
ระบบปฏิบัติการ 1183
1941 1182
นึง 1182
พิการ 1182
รับจ้าง 1182
สะอาด 1182
เทิน 1182
เปรียบ 1182
ควาย 1181
ทัย 1181
วาดภาพ 1181
ขุ@@ 1180
คำพูด 1180
ปฏิสังขรณ์ 1180
ำ@@ 1180
โจเซฟ 1180
1975 1179
จี้ 1179
ฒ 1179
ห่างไกล 1179
เศรษฐี 1179
กรา@@ 1178
เลือด@@ 1178
เหล็ก@@ 1178
แส@@ 1178
ไมโครซอฟท์ 1178
2490 1177
5,000 1177
ตุง 1177
ทั้งสองฝ่าย 1177
ล้านช้าง 1177
เชฟ 1177
เชื่อ@@ 1177
แวง 1177
กรวย 1176
สั่ง@@ 1176
อุโมงค์ 1176
่าว 1176
จริงๆ 1175
เล่น@@ 1175
้อม 1175
ควบคู่ 1174
ทรอ 1174
ร่วง 1174
อล์ฟ 1174
คืน@@ 1173
ตรัง 1173
พะ 1173
พ์ 1173
เซาท์ 1173
ไพ่ 1173
ก้น 1172
ชาติ@@ 1172
ต่างหาก 1172
ศูนย์การค้า 1172
เวิร์ด 1172
แพง 1172
ช่วยกัน 1171
ดิง 1171
John 1170
ตื่น@@ 1170
ผู้พิพากษา 1170
ภรณ์ 1170
ลวด 1170
ห้องปฏิบัติการ 1170
แทรกแซง 1170
กดดัน 1169
โครเอเชีย 1169
มหาอำนาจ 1168
รับสั่ง 1168
ค้นคว้า 1167
จำเลย 1167
สน์ 1167
สีชมพู 1167
เรื่องสั้น 1167
เลื่อน@@ 1167
s@@ 1166
กะเหรี่ยง 1166
ฉิน 1166
ประจำจังหวัด 1166
ปริมณฑล 1166
2489 1165
คำอธิบาย 1165
รองเท้า 1165
ฮาวาย 1165
จิม 1164
ซาว 1164
ซุ้ม 1164
เด็ดขาด 1164
กฤษ@@ 1163
วาท 1163
แคน@@ 1163
พริก 1162
สหาย 1162
เทพี 1162
เรียนต่อ 1162
สังคมศาสตร์ 1161
สำนึก 1161
โปรเจกต์ 1161
ความเป็นมา 1160
ตอบโต้ 1160
สืบราชบัลลังก์ 1160
สุริ@@ 1160
โทษ@@ 1160
คส์ 1159
บทภาพยนตร์ 1159
วรรค 1159
วัก 1159
ขยายพันธุ์ 1158
ธนาคาร@@ 1158
รับมือ 1158
หุ่น 1158
ัด@@ 1158
ประกาศ@@ 1157
เฉพาะที่ 1157
เนตร 1157
เนื้อเพลง 1157
เบียน 1157
แต่ง@@ 1157
คาร์@@ 1156
จื่อ 1156
สังเกตว่า 1155
ด้านใน 1154
ตัง 1154
๖ 1153
สระบุรี 1152
อเมริกาใต้ 1152
ภาระ 1151
อาลี 1151
ไมโคร@@ 1151
ญญ@@ 1150
ตั๋ง 1150
ฟุตซอล 1150
 ( 1149
อป 1149
1939 1148
69 1148
;@@ 1148
ข้อจำกัด 1148
อริ@@ 1148
คนรัก 1147
ดาวน์โหลด 1147
ถึงกับ 1147
ประจำชาติ 1147
หนวด 1147
อยด์ 1147
เจิ@@ 1147
4@@ 1146
ตรวจจับ 1146
้าน 1146
สำนัก@@ 1145
เนื่องมาจาก 1145
เรือรบ 1145
2507 1144
ตามเวลา 1144
สาระ 1144
ให้เหตุผล 1144
จุฬา@@ 1143
มิตรภาพ 1143
เกิด@@ 1143
เคราะห์ 1143
1944 1142
พระบาทสมเด็จพระปรมินทรมหาภูมิพลอดุลยเดช 1142
ภาพลักษณ์ 1142
มีเสียง 1141
กระแสไฟฟ้า 1140
พันธะ 1140
ระฆัง 1140
เพ็ญ 1140
oc@@ 1139
ถ่ายทอดสด 1139
ปกเกล้า 1139
ประสาท@@ 1139
มีความสุข 1139
สำ 1139
เทีย@@ 1139
เป่า 1139
เมตตา 1139
แม้กระทั่ง 1139
700 1138
จง@@ 1138
มิวนิก 1138
รัตนโกสินทร์ 1138
หัน@@ 1138
ื่อง 1138
กิจ@@ 1137
ค่าตัว 1137
ิลส์ 1137
เป็นเกียรติ 1137
ไทร@@ 1137
ขนิษฐา 1136
ความเป็นไปได้ 1136
ชัด 1136
ลย์ 1136
เลียนแบบ 1136
เส้นใย 1136
ส่วนบุคคล 1135
โป่ง 1135
โอเพน 1135
ดราม่า 1134
มีราคา 1134
ยุคสมัย 1134
แง@@ 1134
ซิตี้ 1133
ณา@@ 1133
ลงมติ 1133
เมือ 1133
โดยทั่วไปแล้ว 1133
กองบัญชาการ 1132
ฉะเชิงเทรา 1132
ปาล์ม 1132
เฮา 1132
ก่อการ 1131
ย่าง 1131
ออร์@@ 1131
เหนือกว่า 1131
1978 1130
ดส์ 1130
ผู้รับ 1130
ฝา 1130
ทอน 1129
ส, 1129
จู่โจม 1128
ประหลาด 1128
ฝั่งแม่น้ำ 1128
100,000 1127
62 1127
อรุณ 1127
เข้มแข็ง 1127
เค็ม 1127
เหม@@ 1127
ช่วง@@ 1126
ผจญภัย 1126
ล่วง@@ 1126
สมเด็จพระเทพรัตนราชสุดาฯ 1126
ข้างหน้า 1125
ทางกฎหมาย 1125
รัฐศาสตร์ 1125
สอด 1125
๙ 1125
ขี่ 1124
ปลายเดือน 1124
ฮี@@ 1124
โรแมนติก 1124
ō 1123
กิตติมศักดิ์ 1123
องศาเซลเซียส 1123
นิร@@ 1122
บรรเทา 1122
บาส 1122
บำเพ็ญ 1122
ยืน@@ 1122
วูด 1122
สัม 1122
เป็นประโยชน์ 1122
an@@ 1121
ธีร 1121
ประชามติ 1121
พลังงาน@@ 1121
มูล@@ 1121
ัม 1121
เอกอัครราชทูต 1121
จำพรรษา 1120
นำ@@ 1120
สีส้ม 1120
หัตถ@@ 1120
Awards 1119
นางงาม 1119
บล@@ 1119
ปล้น 1119
สุรา 1119
โข@@ 1119
− 1119
ซอล 1118
นโรดม 1118
ษี 1118
สัตว์น้ำ 1118
โฉ@@ 1118
โต้แย้ง 1118
1974 1117
ความเกี่ยวข้อง 1117
ทาร์ 1117
น" 1117
ปากแม่น้ำ 1117
วันเดียวกัน 1117
j 1116
ทูล@@ 1116
พิบูล 1116
ออง 1116
เมืองท่า 1116
2509 1115
ความหวัง 1115
ด้านนอก 1115
วร@@ 1115
เขียน@@ 1115
เป็นพิษ 1115
2504 1114
Championship 1114
ตาน 1114
เจ้าของ@@ 1114
การสังหาร 1113
ชาวต่างชาติ 1113
นูน 1113
มีด 1113
หม่อมหลวง 1113
หย่า 1113
เกษตรกร 1113
with 1112
คณบดี 1112
ฟิล@@ 1112
มาร์@@ 1112
รัฐ@@ 1112
เผ่าพันธุ์ 1112
2502 1111
การกุศล 1111
จฉา 1111
นครพนม 1111
บาสเกตบอล 1111
ตช์ 1110
ปต์ 1110
เทอร์@@ 1110
ปวด 1109
พระบรมศพ 1109
มิสเตอร์ 1109
ยึดอำนาจ 1109
หนุน 1109
เปร@@ 1109
er 1108
คง@@ 1108
ชิพ 1108
ฟี่ 1108
วิทยุ@@ 1108
อท 1108
ปู@@ 1107
ริ้ว 1107
เปรู 1107
เวียนนา 1107
กระแส@@ 1106
ลดา 1106
สเตเดียม 1106
อัตรา@@ 1106
ี้ยว 1106
กลุ่มคน 1105
การระเบิด 1105
่ย์ 1105
ch@@ 1104
พริ@@ 1104
พอสมควร 1104
ระดับ@@ 1104
่อน@@ 1104
นิวตรอน 1103
บุคลิก 1103
มหาดเล็ก 1103
ี๋@@ 1103
เงินทุน 1103
เชษฐ 1103
การแสดงออก 1102
คำศัพท์ 1102
ความดี 1101
มัค 1101
ขีปนาวุธ 1100
นเรศวร 1100
ภิ 1100
มัธยมศึกษาตอนต้น 1100
รองประธาน 1100
แสดงละคร 1100
d@@ 1099
จรด 1099
รงค์ 1099
ข้าพเจ้า 1098
หัตถ์ 1098
ข้าหลวง 1097
คนอื่นๆ 1097
ถอน@@ 1097
ท่องเที่ยว 1097
ลงสนาม 1097
วลี 1097
ไวน์ 1097
et 1096
กระทบ 1096
ชัง 1096
นพ@@ 1096
รังสิต 1096
แบร์ค 1096
t@@ 1094
กัด@@ 1094
เราะ 1094
ปิง 1093
อนามัย 1093
ไนท์ 1093
ความล้มเหลว 1092
เคิร์@@ 1092
กระดูก@@ 1091
ชายา 1091
ยาง@@ 1091
ี๊@@ 1091
เฉล@@ 1091
วาฬ 1090
หอคอย 1090
เพดาน 1090
เฟิน 1090
เอ็ก@@ 1090
แอปเปิล 1090
2491 1089
กำลังใจ 1089
ขีด 1089
จัดเก็บ 1089
ปรางค์ 1089
ฮา@@ 1089
ā 1088
คัดออก 1088
จ้าว 1088
นครหลวง 1088
รัต@@ 1088
วิกฤตการณ์ 1088
อุ่น 1088
เพื่อนบ้าน 1088
‘ 1088
ความก้าวหน้า 1087
พระบรมวงศานุวงศ์ 1087
วิศวกรรม@@ 1087
เต็มตัว 1087
แฝง 1087
ไล่@@ 1087
2493 1086
ชานเมือง 1086
สันนิบาต 1086
หิน@@ 1086
เจตนา 1086
ชีวิต@@ 1085
มาตรการ 1085
ออกฤทธิ์ 1085
เฮย 1085
ล่า@@ 1084
สบ 1084
สักการะ 1084
นีโอ 1083
ศาส@@ 1083
เป็นจริง 1083
เอน@@ 1083
ทวิ@@ 1082
ปวด@@ 1082
ฬ@@ 1082
e-@@ 1081
การเจริญเติบโต 1081
ชัยภูมิ 1081
สนธิ 1081
สยามบรมราชกุมารี 1081
เขตเมือง 1081
6,@@ 1080
?@@ 1080
การอพยพ 1080
ซับ 1080
ปม 1080
เกิล 1080
๋า 1080
ed 1079
ก้อง 1079
มองโกเลีย 1079
ยูเนสโก 1079
เมดิเตอร์เรเนียน 1079
บังเอิญ 1078
แมก 1078
ไจ 1078
้าย 1078
2497 1077
ทองแดง 1077
ทอด@@ 1076
ทุจริต 1076
ละติน 1076
ิง@@ 1076
ขู่ 1075
ประสบปัญหา 1075
พระบรมราชินีนาถ 1075
สรรเสริญ 1074
หลาก 1074
อินทรี 1074
โตโยต้า 1074
ทวีปอเมริกาเหนือ 1073
บาย@@ 1073
สภาพอากาศ 1073
เสียงร้อง 1073
ให@@ 1073
ol@@ 1072
แย่งชิง 1072
ไว้วางใจ 1072
2495 1071
น็อก 1071
บีซี 1071
ลิว 1071
กรร@@ 1070
กัง@@ 1070
ตัวเอก 1070
ต่อม 1070
นักข่าว 1070
พระประวัติ 1070
วันเกิด 1070
อภิสิทธิ์ 1070
ัย@@ 1070
ึง@@ 1070
ภิกษุ 1069
เชิงพาณิชย์ 1069
ที่รวม 1068
ท่านผู้หญิง 1068
ปส์ 1068
รย์ 1068
ล์ฟ 1068
วันนั้น 1068
เดือด 1068
แยก@@ 1068
มูน 1067
ศาสดา 1067
สิง 1067
ทัน@@ 1066
ปัญญา@@ 1066
รอม 1066
กระทรวงการคลัง 1065
ชนชาติ 1065
ที่จริง 1065
นิมิต 1065
พระราชดำริ 1065
องค์การบริหารส่วนจังหวัด 1065
แซ็ง 1065
ลอย@@ 1064
ศาลเจ้า 1064
เจน@@ 1064
ความลึก 1063
ภาพรวม 1063
250 1062
ซ็อง 1062
ทุกครั้ง 1062
ความใน 1061
ธ์ 1061
ทิว 1060
มก 1060
เฮลิคอปเตอร์ 1060
e@@ 1059
ชีว 1059
ฟาร์ม 1059
ลำบาก 1059
โฆษก 1059
• 1059
by 1058
พระสนม 1058
ระยอง 1058
ศวร 1058
เสรีนิยม 1058
แกง 1058
ํ@@ 1058
ซง 1057
สมุทรสาคร 1057
เรียม 1057
คารา@@ 1056
ประจำ@@ 1056
h@@ 1055
นิต 1055
บ่งชี้ 1055
ีน 1055
แดนซ์ 1055
71 1054
กู้@@ 1054
ความงาม 1054
บังคับใช้ 1054
โดเมน 1054
ชู@@ 1053
ประมวล@@ 1053
มพร 1053
มีฤทธิ์ 1053
รม@@ 1053
กล้าหาญ 1052
ปัส 1052
ริมแม่น้ำ 1052
เป็นที่@@ 1052
แต้ม 1052
ศาสนสถาน 1051
ไมตรี 1051
ส่วนราชการ 1050
ปป@@ 1049
ผู้กำกับภาพยนตร์ 1049
ลฟ์ 1049
เข้าใจผิด 1049
เอ็ก 1049
ฝึกอบรม 1048
มัธยมปลาย 1048
ยอมจำนน 1048
็ม 1048
2488 1047
กรุง@@ 1047
ความสงบ 1047
ด้วยว่า 1047
ธรณีวิทยา 1047
ฟิน 1047
ร้านค้า 1047
วาส 1047
หัวหน้า@@ 1047
แถม 1047
๋ว 1047
22@@ 1046
คนงาน 1046
ทช์ 1046
ส่วนสำคัญ 1046
ส่วนหัว 1046
อัฐิ 1046
ชื่น 1045
ทับ@@ 1045
แอล@@ 1045
ism 1044
ชัย@@ 1044
บาน@@ 1044
ภัยพิบัติ 1043
สลายตัว 1043
อำนาจ@@ 1043
อินโด 1043
แก่น 1043
ขุน@@ 1042
ทาน@@ 1042
พันเอก 1042
ตำ 1041
ลอด 1041
เซียม 1041
เบะ 1041
เป็นอิสระ 1041
ทั่ว@@ 1040
ไลต์ 1040
2492 1039
กลา 1039
กำไร 1039
ทบ@@ 1039
เป็นต้นไป 1039
เห็ด 1039
แสงอาทิตย์ 1039
ยาปฏิชีวนะ 1038
การคมนาคม 1037
ช่องว่าง 1037
พระชนม์ชีพ 1037
หมุนเวียน 1037
เบา@@ 1037
× 1036
น, 1036
พักผ่อน 1036
ระวัง 1036
สมัชชา 1036
เมนต์ 1036
ดินเผา 1035
ย้าย@@ 1035
ลุค 1035
บังคับบัญชา 1034
ปูนปั้น 1034
แก้ไขปัญหา 1034
ซิ่ง 1033
ปิ่น 1033
พระบรมมหาราชวัง 1033
มหาวิทยาลัยรามคำแหง 1033
สแควร์ 1033
เพิ่ม@@ 1033
เมย์ 1033
สมรภูมิ 1032
อุดมการณ์ 1032
เกียวโต 1032
๗ 1032
2484 1031
คุณลักษณะ 1031
เทร@@ 1031
การกีฬา 1030
ทวิ 1030
ทางน้ำ 1030
รับมอบหมาย 1030
ลูกทุ่ง 1030
สุข@@ 1030
หมัก 1030
os@@ 1029
จำเพาะ 1029
สมัยก่อน 1029
เฉลิมฉลอง 1029
แสดงออก 1029
88 1028
Me 1028
พฤกษศาสตร์ 1028
รส@@ 1028
อนันต์ 1028
พยัคฆ์ 1027
รางวัลโนเบล 1027
ร่ำรวย 1027
เต็ม@@ 1027
ยานพาหนะ 1026
เป็นอันตราย 1025
เอเชียน 1025
๕@@ 1025
จินตนาการ 1024
นายร้อย 1024
เคลื่อนย้าย 1024
เรื้อรัง 1024
ไข@@ 1024
วัด@@ 1023
โญ 1023
2476 1022
กระต่าย 1022
ด้วย@@ 1022
ระลึกถึง 1022
ประกัน@@ 1021
ศักย์ 1021
เฉา 1021
เบิร์ด 1021
1969 1020
ตริ@@ 1020
ตามคำสั่ง 1020
ที่ระลึก 1020
วัช@@ 1020
วัลย์ 1020
แพท@@ 1020
2494 1019
กระบอก 1019
การจำแนก 1019
คับ@@ 1019
ฌ 1019
ภาษาเยอรมัน 1019
มรณะ 1019
เซีย@@ 1019
1948 1018
ทำไม 1018
ธิเบศร 1018
ส่อง 1018
เตอร์@@ 1018
ข้าม@@ 1017
จาม 1017
ผู้บริโภค 1017
ว่าที่ 1017
สัตว@@ 1017
กองพัน 1016
พัง@@ 1016
สเปอร์ 1016
จับได้ 1015
รวม@@ 1015
เกรง 1015
เบรก 1015
กระนั้น 1014
สังข์ 1014
โยธา 1014
96 1013
กระชับ 1013
กล้อง@@ 1013
ค่อน 1013
พลี 1013
พิชัย 1013
พ้อง 1013
ลักษณะเด่น 1013
ว. 1013
ศิลป 1013
1967 1012
73 1012
ขจร 1012
คุ้ง 1012
จุล 1012
ชั่ว@@ 1012
ตะวันออกกลาง 1012
รยอ 1012
เพาะปลูก 1012
ทัศ@@ 1011
หลอด@@ 1011
หลับ 1011
เถา 1011
เวร 1011
as 1010
สถานีวิทยุโทรทัศน์ 1010
ประหยัด 1009
1977 1008
98 1008
or@@ 1008
คณิต 1008
ถั่ว@@ 1008
บทละคร 1008
ลีลา 1008
61 1007
ราม@@ 1007
สปา 1007
คัด@@ 1006
อินทร 1006
เข้าเฝ้า 1006
เปอร์เซ็นต์ 1006
ฟาน 1005
ยั่งยืน 1005
ร่องรอย 1005
เพียร 1005
กราด 1004
81 1003
กบ@@ 1003
ชีวะ 1003
ศาลา@@ 1003
Ch@@ 1002
ot@@ 1002
%) 1001
1971 1001
2496 1001
86 1001
ดุษฎีบัณฑิต 1001
เมทริกซ์ 1001
ไปรษณีย์ 1001
]@@ 1000
จุดมุ่งหมาย 1000
ผิดกฎหมาย 1000
ล" 1000
อร์ส 1000
อุป 1000
1956 999
กลางปี 999
คบ@@ 999
ต่อหน้า 999
พันปี 999
ยูโรปา 999
ระยะ@@ 999
ราก@@ 999
กลับบ้าน 998
รักษา@@ 998
สถาบันการศึกษา 998
ตระ 997
ถ้วน 997
มีแผน 997
เศรษฐ@@ 997
งอก 996
ที่ว่าการอำเภอ 996
มะพร้าว 996
ศอก 996
คุย 995
ป.@@ 995
ประสานงาน 995
ป้อมปราการ 995
อธิการ 995
แน่ 995
ทศ@@ 994
84 993
ทะเบียน 993
พัทลุง 993
ศักดินา 993
สก@@ 993
ปักษ์ 992
พี่@@ 992
เจอร์ 992
ท้าย@@ 991
พว@@ 991
ฟิลด์ 991
สก์ 991
สมเด็จพระสังฆราช 991
หีบ 991
กระด@@ 990
กำแพงเพชร 990
บาลี 990
กลางเมือง 989
จดจำ 989
ชี้@@ 989
รท 989
ร่อน 989
(), 988
f@@ 988
ตำ@@ 988
ปัจจัย@@ 988
โกน 988
โปร@@ 988
es 987
ทหารม้า 987
ร้าน@@ 987
สรร 987
สืบพันธุ์ 987
เบื้อง@@ 987
กวางตุ้ง 986
จัดพิมพ์ 986
ดัช 986
ฟี@@ 986
ยัง@@ 986
ื่อง@@ 986
เข้าชม 986
เท็กซัส 986
เรียบง่าย 986
แนวความคิด 986
กูเกิล 985
จิตรกรรมฝาผนัง 985
ชิคาโก 985
ต่อม@@ 985
พจนานุกรม 985
้วง 985
ปริมาตร 984
พยางค์ 984
ระเบียง 984
วัณ 984
ี่ย@@ 984
Man 983
ฐานข้อมูล 983
บารมี 983
พายุ@@ 983
แอลกอฮอล์ 983
กิริยา 982
ค่าย@@ 982
ผู้รักษาประตู 982
อุตุนิยมวิทยา 982
1942 981
ทำอาหาร 981
ปราก 981
ฟุ@@ 981
เล่าเรื่อง 981
King 980
Thailand 980
รักษาการ 980
เป็นปัญหา 979
ไมโคร 979
ไรน์ 979
..." 978
ลู่ 978
สตาลิน 978
สถานที่ท่องเที่ยว 978
ียด@@ 978
แต่งกาย 978
ขอม 977
นัยสำคัญ 977
วิด 977
ใบไม้ 977
0.@@ 976
กาม 976
การบำบัด 976
การอธิบาย 976
ฤๅษี 976
์. 976
ถม 975
เรียนจบ 975
แทง 975
บูล 974
ประชวร 974
ปั่น 974
1973 973
ng 973
นาว 973
พัทยา 973
ราชธานี 973
สวิส 973
อาร์ม 973
เด็กชาย 973
่าม 973
ด่วน 972
ผู้ทรง 972
หนาว 972
พอตเตอร์ 971
มหัศจรรย์ 971
เนส@@ 971
โทรคมนาคม 971
โน้ต 971
จากไป 970
ธม 970
พลตรี 970
ความเปลี่ยนแปลง 969
คิวบา 969
ร้อนที่ 969
สปีด 969
เทิล 969
เริง 969
เวิ@@ 969
78 968
ทุกชนิด 968
รื้อ 968
เสน่ห์ 968
๘ 968
2.@@ 967
ae 967
ชานชาลา 967
วงศา 967
สั่น 967
เดะ 967
แฟร@@ 967
74 966
ปลด@@ 966
วางขาย 966
สีสัน 966
เจ้าจอม 966
ข้อกำหนด 965
ทางออก 965
โถง 965
บริวาร 964
มิวสิค 964
วิเชียร 964
คลา@@ 963
ตล@@ 963
ภาวะ@@ 963
ยินยอม 963
ฮาร์ด 963
ุ่น 963
ได้ผล 963
ไว@@ 963
้ว@@ 963
ต่ำสุด 962
ถั่ว 962
มายา 962
เขียนหนังสือ 962
เซ็นทรัล 962
เบี้ย 962
onlyinclude 961
ฝ่า 961
ความเป็นจริง 960
บางที 960
สตี@@ 960
องคมนตรี 960
ชาติพันธุ์ 959
มาโดยตลอด 959
ลาง 959
แฟรงก์ 959
ดำริ 958
ปฏิบัติตาม 958
หุ 958
ใคร่ 958
ไอ้ 958
้อง@@ 958
79 957
ดวงดาว 957
ปรึกษา 957
เตียน 957
ซ่อม 956
นตา 956
สร้อย 956
เลี่ยง 956
รพ 955
:// 954
ฉาง 954
ทีวีสี 954
สิ่งเร้า 954
สูญหาย 954
เฟล@@ 954
ครุ@@ 953
ช้างเผือก 953
บอส 953
ภาษาบาลี 953
อู๋ 953
เต็@@ 953
er@@ 952
กังวล 952
ข้อเท็จจริง 952
น่าจะเป็น 952
ปรารถนา 952
สุริย 952
เนื่อง 952
ลิด 951
อำมาตย์ 951
แบบอย่าง 951
ü 950
ป้า 950
ฝึกซ้อม 950
ภาพเหมือน 950
ลิทัวเนีย 950
สวนสัตว์ 950
เศร้า 950
โธ@@ 950
It 949
นาก 949
บอกเล่า 949
เกียรติ@@ 949
เป็ด 949
์ด 949
ดอ 948
ม.@@ 948
เจียน 948
เชียงแสน 948
เลสเต 948
ชั่วร้าย 947
มีลูก 947
สำเร็จ@@ 947
เข็ม@@ 947
94 946
ภู่ 946
วัตถุดิบ 946
หลา@@ 946
อันเดอร์ 946
5@@ 945
พระญาติ 945
มาริโอ 945
ร์ค 945
สำราญ 945
เลวร้าย 945
โจม 945
it 944
การรัฐประหาร 944
ฆาต 944
ดำรงอยู่ 944
บอสเนีย 944
ราชย์ 944
หน้าใหม่ 944
เรียง@@ 944
แย่ง 944
83 943
ขนมปัง 943
1918 942
บริบท 942
วชิร 942
ี่ยง@@ 942
แพร 942
ไห่ 942
การค้าขาย 941
คอนกรีตเสริมเหล็ก 941
ตัก 941
ตาก@@ 941
พ่น 941
ได้เปรียบ 941
คริ@@ 940
ควัน 940
จระเข้ 940
นายกเทศมนตรี 940
พิพากษา 940
วิท@@ 940
m@@ 939
กระเป๋า 939
ครอบ 939
ลุก 939
แฟล@@ 939
76 938
คบหา 938
ธานี 938
ฝ่ายตรงข้าม 938
ฟิว@@ 938
ยี่สิบ 938
สถานที่@@ 938
จันทร 937
นักปรัชญา 937
ผู้เข้าร่วม 937
แล้ง 937
101 936
ขายดี 936
ปรกติ 936
การอนุมัติ 935
คลาส 935
นราธิวาส 935
อิสริยาภรณ์ 935
Entertainment 934
กวนอู 934
นด 934
ยุง 934
วียน 934
หาดใหญ่ 934
แกล้ง 934
ไมค์ 934
ค้างคาว 933
นักออกแบบ 933
ประชาคม 933
หนอน 933
ูก 933
เทีย 933
โลว์ 933
ราด 932
ซัคเซิน 931
พระไตรปิฎก 931
พิก 931
พิจิตร 931
รังสี@@ 931
ส่วนที่เหลือ 931
แจ็ก 931
กระบวน@@ 930
จิตวิญญาณ 930
เจล 930
แผ่นเสียง 930
โคลอมเบีย 930
ใหญ่@@ 930
กริยา 929
ห์น 929
แซ่ 929
การสมรส 928
ชีวิตประจำวัน 928
ทลาย 928
ธนะ 928
ผิง 928
ือก 928
เหลว 928
โคร@@ 928
ให้เสียง 928
ํ 928
01 927
ชุก 927
ภาพวาด 927
สำนักงาน@@ 927
เนย 927
โรงไฟฟ้า 927
้อย@@ 927
คุณพ่อ 926
สัตว์เลี้ยง 926
สัมพันธ@@ 926
แต่เพียง 926
1936 925
ความเจ็บปวด 925
ซึ@@ 925
ปะทุ 925
รามา 925
อัป 925
ถัดจาก 924
เสถียรภาพ 924
เสนอ@@ 924
โคลัมเบีย 924
โฮม 924
91 923
ที่ราบสูง 923
บุตรี 923
ข่าวลือ 922
คริสต์ศักราช 922
ตลอดชีวิต 922
ฝึกฝน 922
มารวิชัย 922
สถานีวิทยุ 922
p@@ 921
นิวตัน 921
ยิงปืน 921
เชิด 921
แจ็ค 921
กุด 920
ที่ราบลุ่ม 920
ี้ย 920
เข้ายึดครอง 920
็อน@@ 920
วนา 919
เนื้องอก 919
โปรเตสแตนต์ 919
el@@ 918
จุลจอมเกล้า 918
หอก 918
ฮ่องเต้ 918
เสน@@ 918
ไข้หวัดใหญ่ 918
ไต@@ 918
93 917
กาฬ 917
ความตกลง 917
ชิน@@ 917
บุคลิกภาพ 917
อัก 917
เขา@@ 917
เจริญรุ่งเรือง 917
เอเธนส์ 917
แขวน 917
แมง 917
โคลง 917
ตกต่ำ 916
วีรบุรุษ 916
แปลงร่าง 916
แร็ป 916
็อล@@ 916
ชม. 915
พุ่ม 915
ระนาบ 915
วิง 915
เบย์ 915
แส 915
ไม่ต้องการ 915
2482 914
25@@ 914
ช่วงหลัง 914
บนสุด 914
มากยิ่งขึ้น 914
ไคร@@ 914
กิต 913
ของขวัญ 913
มาหา 913
ระบอบประชาธิปไตย 913
ปากน้ำ 912
ผนึก 912
ผลสำเร็จ 912
ลิก 912
วอล@@ 912
เส้นประสาท 912
คดี@@ 911
ปรับตัว 911
เอธิโอเปีย 911
โรงเรียนสาธิต 911
th@@ 910
ฝ่ายค้าน 910
พระจันทร์ 910
พระปริยัติธรรม 910
ระยะสั้น 910
ศาลฎีกา 910
สเซ@@ 910
ียน@@ 910
ใต้@@ 910
รินทร์ 909
อัจฉริยะ 909
7,@@ 908
ด้วง 908
พระพุทธองค์ 908
ยื่น@@ 908
ร์น 908
ล่าสัตว์ 908
แบบ@@ 908
แปรรูป 908
0@@ 907
Q 907
ar 907
คอนกรีต 907
นีล 907
ลำพัง 907
เอส@@ 907
1962 906
การพิสูจน์ 906
ขาน 906
เป็นอันมาก 906
แนวรบ 906
ขับ@@ 905
คาดหวัง 905
ชกมวย 905
ชื่อย่อ 905
ยน 905
วีดีโอ 905
สค์ 905
เคาะ 905
ปรับ@@ 904
กิล 903
มหาวิทยาลัยศรีนครินทรวิโรฒ 903
วงใน 903
อ้าย 903
เรื่องเล่า 903
กาย@@ 902
ถนอม 902
บุญ@@ 902
ฟรานซิส 902
สุขุมวิท 902
เจ้าคุณ 902
ธุรกิจ@@ 901
น่ารัก 901
ประยุกต์ใช้ 901
หน้าจอ 901
ห่อ 901
อรร@@ 901
เลนส์ 901
เหล้า 901
แจก 901
แชร์ 901
แมก@@ 901
แล้วแต่ 901
ไอซ์แลนด์ 901
สดใส 900
หน้าบัน 900
อนุพันธ์ 900
อบรม 900
เตรียมอุดมศึกษา 900
แสดงผล 900
ในนามของ 900
6@@ 899
ครู@@ 899
ฟัน@@ 899
กรณี@@ 898
ความผิดพลาด 898
นส 898
ลิน@@ 898
ขับรถ 897
ถ้าหาก 897
ฟ. 897
ไขสันหลัง 897
$ 896
จ่า 896
ต้นทุน 896
ทธ 896
ประยุทธ์ 896
พยาน 896
เต๋า 896
แสตมป์ 896
ใจกลาง 896
กู่ 895
ิร์ต 895
โดยประมาณ 895
"... 894
Team 894
คริสต์มาส 894
ฟส์ 894
มนุษ@@ 894
รูปไข่ 894
วีน 894
หยิบ 894
แก้@@ 894
คบ 893
ฌ็อง 893
พง 893
ร่ม@@ 893
เข่า 893
เวียร 893
ครูใหญ่ 892
ชาต 892
ทย์ 892
ทำตาม 892
ประวัติการ 892
ป่วน 892
พรร@@ 892
เตี้ย 892
เท่าใด 892
ไซต์ 891
ไน@@ 891
ขั้น@@ 890
ควอนตัม 890
ชอบ@@ 890
นิน 890
ปีน 890
ษา@@ 890
สายลับ 890
คีย์ 889
ลุ่มน้ำ 889
สื่อ@@ 889
องครักษ์ 889
ous 888
การปะทะ 888
ปลายทาง 888
มีระดับ 888
หาย@@ 888
เหมือนเดิม 888
กลางวัน 887
ลักษณะเฉพาะ 887
วัตถุ@@ 887
เลือดแดง 887
เฮีย 887
คิด@@ 886
จริยธรรม 886
ผลัด@@ 886
ภาษาศาสตร์ 886
หลบ 886
เป็นได้ 886
แรด 886
ไนน์ 886
สวนสาธารณะ 885
หนึ่งเดียว 885
เฟล 885
เมจิ 885
1943 884
กองหลัง 884
การสงคราม 884
เจริญ@@ 884
1963 883
การปรับตัว 883
ดรีม 883
ตริ 883
มุ่งมั่น 883
รุ่ง@@ 883
เศษ@@ 883
82 882
c@@ 882
กล่าวหา 882
ต้องห้าม 882
นิด 882
ปล้อง 882
ฝ้าย 882
ยี่ห้อ 882
โหลด 882
คาส 881
นท์ 881
ประกบ 881
ผู้ว่าราชการจังหวัด 881
ลท์ 881
หนา@@ 881
เกร็ด 881
   880
ขุนพล 880
ความเหมาะสม 880
ทรัพย์@@ 880
นันท@@ 880
บรรพ@@ 880
บัตร@@ 880
ฝาง 880
ฟาง 880
ษั@@ 880
อาทิเช่น 880
ียม 880
คุมขัง 879
ลัทธิ@@ 879
อีก@@ 879
เศียร 879
แนะ 879
แล่น 879
): 878
20,000 878
ซัมเมอร์ 878
ป๊อป 878
ฮีบรู 878
๔@@ 878
กลีบดอก 877
งู@@ 877
จด@@ 877
ระเบียบ@@ 877
วรร@@ 877
สถานที่สำคัญ 877
ื้อง 877
แทบจะ 877
1949 876
ฉี 876
ช่องทาง 876
ดอ@@ 876
บุษ@@ 876
มนุษยศาสตร์ 876
สวา@@ 876
หมอก 876
อึน 876
เชส 876
ชายหนุ่ม 875
ญวน 875
ภูมิทัศน์ 875
มวล@@ 875
ราชโองการ 875
ศัก@@ 875
แดเนียล 875
แฟรนไชส์ 875
โอเวอร์ 875
05 874
a@@ 874
ถ่ายโอน 874
ประภา 874
หมากรุก 874
เส้นขนาน 874
เอิร์ธ 874
แฉก 874
9@@ 873
กระดาน 873
นาวี 873
บัค 873
ฟัก 873
ขนส่งมวลชน 872
ขั้วโลกเหนือ 872
บังกลาเทศ 872
ฟลอริดา 872
ย้อนกลับ 872
ลิน 872
วันหยุด 872
180 871
กช 871
มัวร์ 871
สมณศักดิ์ 871
แซก 871
130 870
3@@ 870
In@@ 870
พอน 870
ลำไส้ 870
ห้อย 870
เจ้าผู้ครองนคร 870
เผยแผ่ 870
แฟนคลับ 870
1952 869
อล์@@ 869
1947 868
คุ้นเคย 868
ชม@@ 868
ตลอด@@ 868
ผู้ติดตาม 868
ผู้อ่าน 868
เจิ้ง 868
Star 867
กราฟิก 867
คำนึงถึง 867
ฮอ 867
เครือจักรภพ 867
เสมอ@@ 867
กข์ 866
ขุด@@ 866
ม้า@@ 866
เสมา 866
โครโมโซม 866
ขยะ 865
มโน@@ 865
ศิลป@@ 865
อรรถ 865
เวย์@@ 865
โอด 865
20.@@ 864
มหาวิทยาลัยเชียงใหม่ 864
ฮอล 864
เสื้อ@@ 864
แอด 864
กาบ 863
ช่วย@@ 863
ซากดึกดำบรรพ์ 863
ปลาน้ำจืด 863
ผู้สืบทอด 863
ฮิ@@ 863
1000 862
นุช 862
สนุกสนาน 862
อย่างนี้ 862
เซนต์@@ 862
กล้องโทรทรรศน์ 861
พาด 861
รับสมัคร 861
อ๋อง 861
ทรัพยากรธรรมชาติ 860
ผู้ให้บริการ 860
เข้าหา 860
x@@ 859
กำหนดการ 859
ปิดทอง 859
มุก 859
รับเงิน 859
87 858
One 858
กรวม 858
ค่าเฉลี่ย 858
ประพฤติ 858
มส์ 858
ร์" 858
วิถีชีวิต 858
เวฟ 858
แต 858
ต้นเดือน 857
ปฏิบัติธรรม 857
มัล 857
ระยะห่าง 857
สยองขวัญ 857
เครื่องประดับ 857
เนิ@@ 857
้ำ@@ 857
ดอร์@@ 856
พักอาศัย 856
สมรรถภาพ 856
หลา 856
เขตเทศบาล 856
เจริญเติบโต 856
เป็นกลาง 856
เมเจอร์ 856
1938 855
ขยับ 855
ครอส 855
ความเอนเอียง 855
ซ้ำ@@ 855
ไข่@@ 855
III 854
ขวด 854
คล 854
ซัก 854
นิทาน 854
สมมติ 854
สัตว์ประหลาด 854
1946 853
ac@@ 853
ข่าว@@ 853
ชื่อเรื่อง 853
พฤกษ์ 853
ฟลอเรนซ์ 853
ยะลา 853
วงกว้าง 853
อสุจิ 853
เรขาคณิต 853
แยร์ 853
97 852
คณะนิติศาสตร์ 852
ความกังวล 852
ตระหนัก 852
ถึงแก่อสัญกรรม 852
ฝนตก 852
ยานอวกาศ 852
ยฺ@@ 852
รีด 852
ลงสมัคร 852
วัจ 852
สค@@ 852
เข็มขัด 852
เซ็ต 852
็อล 852
1965 851
ความพ่ายแพ้ 851
พินอิน 851
ฮอร์@@ 851
เถร 851
เท็น 851
เบรียล 851
l@@ 850
www 850
มัตสึ 850
สาธารณ@@ 850
สาหร่าย 850
8,@@ 849
ภาณุ 849
k@@ 848
ข่าวสาร 848
คาร 848
ชอ@@ 848
สนอง@@ 848
อาเซอร์ไบจาน 848
แพร่ภาพ 848
ณัฐ 847
ดาวอังคาร 847
ทัศนคติ 847
นักสืบ 847
ป้อน 847
ผู้บัญชา 847
รัตน@@ 847
าม 847
เสี่ยว 847
แต่ก่อน 847
ö 846
กระเบื้อง 846
กัล@@ 846
ฌาน 846
น่าเชื่อถือ 846
ร่างรัฐธรรมนูญ 846
เซ็ง 846
เตรียมการ 846
แกม 846
แอม@@ 846
โขน 846
โครงเรื่อง 846
89 845
กลับ@@ 845
ฝุ่น 845
อกซ์ 845
เลค 845
เวอ 845
เวเนซุเอลา 845
en 844
กาตาร์ 844
ตรี@@ 844
ตลอดทั้ง 844
ทางจิต 844
ยืดหยุ่น 844
รง 844
รองนายกรัฐมนตรี 844
ฤดูใบไม้ผลิ 844
ิว 844
ื้อ@@ 844
แคลเซียม 844
แถลงการณ์ 844
1958 843
2478 843
ขุนศึก 843
ร์, 843
สาบาน 843
หนังสือ@@ 843
la 842
ประตู@@ 842
ส่งตัว 842
หมาป่า 842
เปิดโอกาส 842
เพศชาย 842
แพล@@ 842
ไหว้ 841
๒๔@@ 841
จารุ 840
นุ่ม 840
เฉิง 840
เพี้ยน 840
แบตเตอรี่ 840
แพลตฟอร์ม 840
da 839
ความพร้อม 839
ความเจริญ 839
บรูไน 839
ภาษี@@ 839
ยะ@@ 839
ระดม 839
ศัย 839
อยู่อาศัย 839
แพท 839
โลน 839
ー@@ 839
ก.@@ 838
ความคล้ายคลึง 838
ซึง 838
บริบูรณ์ 838
ว่าง@@ 838
เก็บ@@ 838
โสภณ 838
คริสตัล 837
สมโภช 837
หยา@@ 837
ันท@@ 837
ึ่ง 837
เด็น 837
ไบแซนไทน์ 837
บรม@@ 836
ยุทธวิธี 836
วิชัย 836
ส่งผ่าน 836
หงสาวดี 836
เบล@@ 836
92 835
กวาด 835
การปลดปล่อย 835
ความเป็นอยู่ 835
บอกซ์ 835
วิตกกังวล 835
เคร่งครัด 835
เฌ@@ 835
เทศนา 835
เหงียน 835
8@@ 834
บาต 834
ห้า@@ 834
ั้@@ 834
เข้มงวด 834
นิวส์ 833
บุช 833
ลอม 833
สาลี 833
แคม 833
โจรสลัด 833
ไชยา 833
as@@ 832
re@@ 832
ขั้วโลกใต้ 832
ขี่ม้า 832
ตั้งแต่นั้นมา 832
ศาสตร 832
เบลารุส 832
เยื่อ@@ 832
แยกกัน 832
แสงสว่าง 832
โทลคีน 832
็อค 832
2485 831
กลุ่มชาติพันธุ์ 831
กีฬา@@ 831
ขาม 831
ทมิฬ 831
ทำลายล้าง 831
ที่ว่าง 831
หลบ@@ 831
หาทาง 831
อธิปไตย 831
อนุสัญญา 831
ฮอลล์ 831
เซิร์@@ 831
เต้า 831
เอฟเอ็ม 831
แม็ค 831
1966 830
ชำนาญ 830
ประจักษ์ 830
พิน@@ 830
ภูมิใจ 830
สึนามิ 830
เรือนจำ 830
ó 829
ดีเจ 829
นบ 829
ปรี@@ 829
ฝ่ายบริหาร 829
ัว 829
เบิร์@@ 829
เสก 829
โมะ@@ 829
โรคหัวใจ 829
3.@@ 828
United 828
 " 828
การแก้ปัญหา 828
ข้อสรุป 828
ครุ 828
จำนวน@@ 828
น่าน@@ 828
ูน@@ 828
เมกา 828
เสียด@@ 828
แคร@@ 828
7@@ 827
ชมพู 827
ประมวล 827
ประสบ@@ 827
พิจารณาคดี 827
ภิรมย์ 827
สมุทรสงคราม 827
อสังหาริมทรัพย์ 827
เทิ@@ 827
man 826
om@@ 826
จอน 826
ซอส 826
ต้นสังกัด 826
พระอุปัชฌาย์ 826
เปรม 826
เวกเตอร์ 826
0,000 825
บด 825
พูด@@ 825
ยิม 825
หอสมุด 825
เพลงลูกทุ่ง 825
ชาวมุสลิม 824
มรณภาพ 824
ระบบนิเวศ 824
ล่าช้า 824
แม่มด 824
ครีม 823
รายใหญ่ 823
เกตุ 823
1954 822
จนา 822
ดาย 822
ทางกาย 822
นิติ 822
ยิน 822
ศิริราช 822
อุทธรณ์ 822
1961 821
2480 821
ap@@ 821
ดราก้อน 821
ปัง 821
พระบรมราชูปถัมภ์ 821
สมเด็จพระนางเจ้าสิริกิติ์ 821
หลวงพระบาง 821
เบญ@@ 821
เรือดำน้ำ 821
2481 820
All 820
กานา 820
การจราจร 820
การศึก 820
น้ำตา 820
บูรณ 820
บ่าย 820
ผา@@ 820
สัณฐาน 820
แกล@@ 820
แท็กทีม 820
cell 819
ชื่อ@@ 819
ตำหนิ 819
ภาคอีสาน 819
สถานภาพ 819
จัดระเบียบ 818
ถ่านหิน 818
ฝี@@ 818
มีประสบการณ์ 818
มืออาชีพ 818
ริ่ง 818
่ออก 818
ทางด่วน 817
มหายาน 817
มาดากัสการ์ 817
สร้างชื่อเสียง 817
องค์การอนามัยโลก 817
โจ้ 817
900 816
คณะวิศวกรรมศาสตร์ 816
มีประวัติ 816
ไถ@@ 816
ฝังศพ 815
พรม 815
พระเจดีย์ 815
ินส์ 815
เกียรติประวัติ 815
09 814
กล่อม 814
ซิม@@ 814
ถ่ายแบบ 814
พูล 814
๋อ 814
Group 813
ดังเช่น 813
มร@@ 813
ฮก 813
เต้นรำ 813
เบร์ 813
ai 812
การลงนาม 812
ชวร 812
ชุด@@ 812
ทุ่ม 812
หอประชุม 812
คอบ 811
คุ้ม 811
ช่อดอก 811
ทบทวน 811
นุภาพ 811
บทนำ 811
ผ่อน@@ 811
พลาด 811
อุทกภัย 811
เคมบริดจ์ 811
ไพบูลย์ 811
กวัด 810
การทำ@@ 810
ความน่าจะเป็น 810
ประเทศราช 810
ปล่อยตัว 810
พลู@@ 810
ลำเลียง 810
ศาสนจักร 810
หม่า 810
เป็@@ 810
เฟีย 810
แคริบเบียน 810
ในเวลาเดียวกัน 810
04 809
ปิดล้อม 809
สี่แยก 809
สุมาตรา 809
op@@ 808
กระบ@@ 808
กัม 808
ข่าวกรอง 808
ซาอุดีอาระเบีย 808
ประยูร 808
พน 808
พระพันปี 808
ศาสน 808
อันเนื่องมาจาก 808
เตย 808
แมนจู 808
4,000 807
ซื้อขาย 807
ประสิทธิผล 807
ร้องขอ 807
อักขระ 807
ียบ 807
ar@@ 806
ชลประทาน 806
ดาวหาง 806
พยาธิ 806
อ๊@@ 806
คอล 805
คิดถึง 805
คุณภาพ@@ 805
ตัวอ่อน 805
ผีเสื้อ 805
พนมเปญ 805
สามัญชน 805
American 804
Black 804
ติดอาวุธ 804
ยวง 804
ลูกโลก 804
ั้ง 804
เส้นผ่านศูนย์กลาง 804
เอกภพ 804
แยกจาก 804
่วน 804
ชิ้น@@ 803
เมื่อใด 803
เอช@@ 803
แบล็ค 803
ให้คะแนน 803
ยืด 802
el 801
en@@ 801
กระทรวงคมนาคม 801
การปฏิ@@ 801
บำ@@ 801
บุตรธิดา 801
มหาวิทยาลัยขอนแก่น 801
โลก@@ 801
คม@@ 800
ชนพื้นเมือง 800
ตรงกัน 800
ทำบุญ 800
นาวิกโยธิน 800
พอง 800
พุทธเจ้า 800
สมเด็จพระนางเจ้า 800
สวรร@@ 800
เสิร์ฟ 800
Re@@ 799
ชะตา 799
ญาติ@@ 799
ทันต@@ 799
ทิน@@ 799
หรูหรา 799
เงียบ 799
เจ้าพนักงาน 799
เพิ่มจำนวน 799
เรือง@@ 799
แมลง@@ 799
ไท่ 799
22.@@ 798
งก@@ 798
ชั้นปี 798
ทั้งเป็น 798
พลู 798
ราชวรวิหาร 798
ic@@ 797
ข้อต่อ 797
ทางธรรมชาติ 797
ปฏิสัมพันธ์ 797
มอน@@ 797
ราชาภิเษก 797
เม็ดเลือด 797
เลบานอน 797
แชมเป@@ 797
แอปพลิเคชัน 797
ไข 797
Battle 796
ครูเสด 796
ชอง 796
ตกใจ 796
ทึบ 796
พบปะ 796
พันธ@@ 796
รอ@@ 796
สุน@@ 796
อำนาจหน้าที่ 796
เครดิต 796
เจ้าหน้าที่ตำรวจ 796
เบน@@ 796
เลียม 796
เสียงข้างมาก 796
โตะ@@ 796
w 795
กรมพระยา 795
หาญ 795
ห้าง 795
อุดมสมบูรณ์ 795
ุม 795
เหมาะกับ 795
ไข้@@ 795
คลอ 794
บวม 794
พระพรหม 794
ลาดตระเวน 794
สวิ@@ 794
ออกไซด์ 794
เครื่องแต่งกาย 794
็ส 794
กรุ่น 793
คุรุ 793
ชัยนาท 793
ดั่ง 793
ติมอร์ 793
ภรา@@ 793
ร้อนใน 793
หลักเกณฑ์ 793
ฮู@@ 793
เซ่ 793
เปลือก@@ 793
แต่งตัว 793
โดยส่วนใหญ่ 793
โดส 793
จดหมายเหตุ 792
ทิล 792
ที่หก 792
สุขุม 792
เตือน@@ 792
เอกภาพ 792
ไวยากรณ์ 792
ชว 791
ธิการ@@ 791
ยุคใหม่ 791
สรรค์ 791
สาธิต 791
อ่าง 791
เคเบิล 791
เจ็บป่วย 791
เจ้าฟ้า@@ 791
เถรวาท 791
คำขวัญ 790
ซอก 790
ฝาแฝด 790
ระยะไกล 790
สนามหลวง 790
สีหนุ 790
หน่วยความจำ 790
เซิร์ฟเวอร์ 790
โอกะ 790
ความวุ่นวาย 789
ชำระ@@ 789
ณฑ์ 789
ผลกำไร 789
พีระมิด 789
มีผลกระทบ 789
เบงกอล 789
ชั้นล่าง 788
ณิช 788
ทับศัพท์ 788
ฟิล 788
ศาลรัฐธรรมนูญ 788
หน้าอก 788
เสนา@@ 788
แหล่งกำเนิด 788
โครงสร้างพื้นฐาน 788
9,@@ 787
b@@ 787
จะงอย 787
จิร 787
ถึงขั้น 787
บรมนาถบพิตร 787
พระบาทสมเด็จพระมหาภูมิพลอดุลยเดชมหาราช 787
ร.ศ. 787
เนินเขา 787
เพลิงศพ 787
ทรยศ 786
ทำกิจกรรม 786
พัฒ@@ 786
สารอาหาร 786
เวลานี้ 786
Al@@ 785
ตัน@@ 785
ปราจีนบุรี 785
พระชนม์ 785
หมิ่น 785
อิม@@ 785
เฉียบพลัน 785
เบาหวาน 785
กรมพระราชวัง 784
ข้อบังคับ 784
พัด@@ 784
ละออง 784
หนึ่ง@@ 784
อัยการ 784
เด่นชัด 784
เพจ 784
โจนส์ 784
ไม่ได้ 784
กรมสามัญศึกษา 783
พรต 783
ลิเบีย 783
เทคโนโลยีสารสนเทศ 783
แกร@@ 783
ดิ่ง 782
มาลัย 782
เกี่ยว 782
เบสบอล 782
กัลยา@@ 781
ครี@@ 781
ปริภูมิ 781
พิท@@ 781
ภาคพื้นดิน 781
มรสุม 781
ลิงก์ 781
|@@ 780
ผู้อพยพ 780
วัชร 780
สัตว์เลื้อยคลาน 780
เสือ@@ 780
ทศ 779
ฟอส@@ 779
อว์@@ 779
ความกลัว 778
จราจร 778
ช่องจราจร 778
ต" 778
ทางผ่าน 778
ม้วน 778
อุตสาห@@ 778
โพน 778
%@@ 777
Time 777
ch 777
นามปากกา 777
ปาร์ค 777
รอด@@ 777
ความปรารถนา 776
ดอม 776
นำทาง 776
ภูมิหลัง 776
ศิลปศาสตร์ 776
สะด@@ 776
หนุ@@ 776
เฒ่า 776
เดลี 776
เรียงลำดับ 776
ซุปเปอร์ 775
ตราด 775
ทัวร์นาเมนต์ 775
ปลูก@@ 775
ยอมแพ้ 775
สุเทพ 775
ห้างสรรพสินค้า 775
อเนกประสงค์ 775
เตีย 775
เสบียง 775
โยม 775
An@@ 774
ul@@ 774
รุ่นพี่ 774
เดินรถ 774
แข็ง@@ 774
่ย@@ 774
Girl 773
กาชาด 773
ขอร้อง 773
ตารางเมตร 773
ทัพเรือ 773
นันทน์ 773
พระมหากรุณาธิคุณ 773
2479 772
ความชอบ 772
จีนกลาง 772
ดัส 772
ปว@@ 772
สัมฤทธิ์ 772
สิทธิบัตร 772
อาร์กติก 772
ำเ@@ 772
เกสร 772
เงะ 772
เชย 772
เชื่อมั่น 772
เซียว 772
เตร@@ 772
ค่าที่ 771
ตัวประกัน 771
มั่นใจ 771
รัฐวิสาหกิจ 771
สนอง 771
เปร 771
"), 770
1959 770
ur@@ 770
ทำความสะอาด 770
รมย์ 770
รัย 770
ศีลธรรม 770
ือร@@ 770
โนะ@@ 770
๋ย 770
es@@ 769
พระพุทธบาท 769
ยโสธร 769
สท@@ 769
หล 769
ฮับ 769
เอื้อ 769
แก้แค้น 769
No 768
ทหารอากาศ 768
ทิก 768
พนักงาน@@ 768
สะเทิน@@ 768
อภัย@@ 768
เนชั่น 768
เพชรบูรณ์ 768
์น 768
10@@ 767
2483 767
ตาราง@@ 767
ท่าทาง 767
นิเทศศาสตร์ 767
ผี@@ 767
ผู้พิทักษ์ 767
ฝา@@ 767
พลโท 767
พารา@@ 767
ฤดูฝน 767
หน้าตัก 767
เจต@@ 767
เป็นเจ้า 767
้าน@@ 767
ตว@@ 766
ตะกั่ว 766
ทะเล@@ 766
พระเยาว์ 766
รุ้ง 766
อัคร@@ 766
เมืองขึ้น 766
น้ำทะเล 765
สปริง 765
เที่ยง 765
Sh@@ 764
กำเริบ 764
ทวีปอเมริกาใต้ 764
สีมา 764
เกือบจะ 764
CO@@ 763
Th@@ 763
กวา 763
คาย 763
ตื่น 763
บรา@@ 763
ผนวช 763
รุณ 763
ออกดอก 763
เหม่ 763
แรงม้า 763
การซื้อขาย 762
ขนาดที่ 762
ทางการทหาร 762
ธรรมา 762
สรรพ 762
อัย@@ 762
เยอ 762
เสนี 762
เอ็มทีวี 762
โพธิ@@ 762
College 761
ชาวยุโรป 761
ย้ำ 761
รุด 761
อุทัย 761
เทคโนโลยี@@ 761
เสมอกัน 761
เส้า 761
โปรดเกล้า 761
am 760
di@@ 760
นอกเหนือ 760
ผิดหวัง 760
พึ่งพา 760
ฟั@@ 760
ล้มล้าง 760
ห่ม 760
อัตลักษณ์ 760
โมน 760
กรดไขมัน 759
คงจะ 759
ตัวเลือก 759
ระดับความสูง 759
แก่ง 759
แบงก์ 759
โปรตอน 759
~ 758
นั่ง@@ 758
นิติศาสตร์ 758
พะ@@ 758
ฮอลลีวูด 758
at@@ 757
กุม 757
คลื่นวิทยุ 757
คะ@@ 757
ดม 757
สวมใส่ 757
อารักขา 757
แซง 757
แพร่@@ 757
้ด 757
ครอบงำ 756
คริสต์ศาสนา 756
ตัวถัง 756
พย@@ 756
วุธ 756
งม 755
สำนักงานคณะกรรมการ@@ 755
อิบน์ 755
มุม@@ 754
ร่างพระราชบัญญัติ 754
เฉียว 754
ใช้อำนาจ 754
ity 753
ทิศตะวันออกเฉียงเหนือ 753
เค้า@@ 753
เบญจ@@ 753
โผล่ 753
Royal 752
ก่อการร้าย 752
ฑ 752
ตู@@ 752
ธ. 752
ฝ่า@@ 752
มนเทียร 752
รัว 752
ลอส 752
วรวิหาร 752
สุพรรณ 752
แฝด 752
โมร็อกโก 752
110 751
จูน 751
ดวล 751
ผู้เข้าประกวด 751
วัตต์ 751
สมมุติ 751
สละราชสมบัติ 751
อัค 751
เวนิส 751
เศรษฐ 751
โทมัส 751
08 750
ก็@@ 750
ดาล 750
ทธา 750
ส) 750
สุภา 750
อัญมณี 750
แซ็ก 750
02 749
การงาน 749
การจัด@@ 749
ตุลา 749
นายอำเภอ 749
ฟร็อง@@ 749
มว@@ 749
มาซิโดเนีย 749
รุม 749
วิมล 749
สองชั้น 749
หลักทรัพย์ 749
1919 748
City 748
ชอบธรรม 748
ดำรงชีวิต 748
นมัสการ 748
ฝ่ายใน 748
ส่งมอบ 748
เพร@@ 748
็บ@@ 748
นจ์ 747
บอร์น 747
สีห์ 747
อวัยวะ@@ 747
เท็จ 747
ทางไกล 746
ศิษย์เก่า 746
อันโต 746
เค้ก 746
19.@@ 745
1900 745
กลุ่มชน 745
ชุ่ม 745
ดีมาก 745
ต่อจากนั้น 745
ทนายความ 745
ที่มั่น 745
ล้อเลียน 745
เฮด 745
่าน@@ 745
จัดกิจกรรม 744
ซากุระ 744
ทำเนียบ 744
ป้องกันตัว 744
วิสัย 744
สมอ 744
โทรเลข 744
1957 743
นายแบบ 743
มหิดล 743
อยู่รอด 743
เกิน@@ 743
แหล@@ 743
โมเดิร์น 743
ph@@ 742
ซูดาน 742
ตอนจบ 742
ประลอง 742
ฝัง@@ 742
เดต 742
แอนตาร์กติกา 742
โดราเอมอน 742
の@@ 742
ความไม่@@ 741
ด้วยตัวเอง 741
ถนน@@ 741
ทำนา 741
น้ำเงิน 741
ปฏิ 741
ประจวบคีรีขันธ์ 741
พระอารามหลวง 741
ฟลู@@ 741
ข้อกล่าวหา 740
คู่ต่อสู้ 740
ทัส 740
ผู้ประท้วง 740
พหลโยธิน 740
เพ็@@ 740
โกง 740
โรงเรียนสตรี 740
le 739
ชนวน 739
ฟรา@@ 739
วอด 739
สรี@@ 739
เลซ 739
1912 738
CO 738
กักกัน 738
ตกไป 738
นักประพันธ์ 738
สารละลาย 738
อมร 738
เป็นกรด 738
แวก 738
ไหม้ 738
รุก@@ 737
โทะ 737
๐@@ 737
กรง 736
ถึงแก่อนิจกรรม 736
ยานเกราะ 736
ลูกเสือ 736
หนัง@@ 736
อุลตร้าแมน 736
ิ้ล 736
ไบต์ 736
กลวง 735
ครั้งก่อน 735
ชื่อสกุล 735
ฮอนด้า 735
ฯ@@ 735
เครื่องแบบ 735
เฉพาะตัว 735
เทน 735
Live 734
หฤทัย 734
เคิดส์ 734
เซน@@ 734
ใส่ใจ 734
000,000 733
กต์ 733
กลศาสตร์ 733
ชั่น@@ 733
ธำรง 733
ปง 733
ผู้ทรงคุณวุฒิ 733
ผู้ออกแบบ 733
สก็อต 733
เฉพาะทาง 733
เด็กหญิง 733
โปรโม@@ 733
็อบ 733
ควบคุม@@ 732
ฆา 732
นรา 732
พร้อม@@ 732
ริกา 732
อุบล 732
เข้าใกล้ 732
เชีย@@ 732
เดินเรือ 732
แยกแยะ 732
ไอริช 732
หน่อ 731
หัด 731
to@@ 730
ตั๋ว 730
ยุทธ์ 730
รั้ว 730
ลำดับ@@ 730
วุฒิ@@ 730
ว่าจ้าง 730
เกษียณอายุ 730
เรียกตัว 730
Center 729
กมล 729
คองโก 729
คาซัคสถาน 729
ชาวพุทธ 729
ตน@@ 729
ลิขิต 729
สัมปทาน 729
เชลย 729
ช่วยชีวิต 728
สติปัญญา 728
สโล@@ 728
อาร@@ 728
อำ 728
เต๋อ 728
แข้ง 728
โนวา 728
ค่อยๆ 727
ช้า@@ 727
ซี้ด 727
ทรานส์ 727
ทอย 727
ประมาณการ 727
ปรีดี 727
ลงทะเบียน 727
เซะ 727
เนื้อสัตว์ 727
เปน 727
ความเคารพ 726
จำต้อง 726
ถ่ายรูป 726
นิเวศ 726
พลศึกษา 726
สตีเฟน 726
ส่งผลให้เกิด 726
หนัก@@ 726
เก้าอี้ 726
แตกแยก 726
ความตั้งใจ 725
คำพิพากษา 725
จุดยอด 725
ธีม 725
นัลด์ 725
พรรณนา 725
ภริยา 725
เพลิน 725
ไส้@@ 725
06 724
พรรณ@@ 724
ภาชนะ 724
วบ 724
แอลเบเนีย 724
โยง 724
โยธิน 724
โลมา 724
ขืน 723
ที่ต่ำ 723
พนัน 723
หารือ 723
ของแข็ง 722
ชนกลุ่มน้อย 722
ดอล@@ 722
สัมมา 722
ส่วนต่อ 722
อดิ 722
เกียรติคุณ 722
เซ็ก@@ 722
เว่น 722
เสริมสร้าง 722
แรงโน้มถ่วง 722
กลุ่ม@@ 721
ตระ@@ 721
ฟง 721
วสี 721
สงบศึก 721
เฟน 721
แคร์ 721
การบรรยาย 720
ความสวยงาม 720
คุ้มกัน 720
จากนี้ 720
ผุ@@ 720
สารีริกธาตุ 720
สำนวน 720
แรกเกิด 720
แหลม@@ 720
นักแสดงชาย 719
สวัสดิ 719
ไฟฟ้า@@ 719
ana 718
กาจ 718
ซาก@@ 718
ตัวประกอบ 718
ทับที่ 718
นิวคาสเซิล 718
ปกรณัม 718
มาตร@@ 718
ม่าน 718
ยุคล 718
อนิ@@ 718
อโร@@ 718
เข้าทำงาน 718
เติล 718
Wrestling 717
กราว 717
ขงเบ้ง 717
ขนม@@ 717
ดอนเมือง 717
บรรทัด 717
มล 717
มหาวิทยาลัยนเรศวร 717
รถจักร 717
รูปสี่เหลี่ยม@@ 717
ละทิ้ง 717
เซียง 717
เทน@@ 717
แสน@@ 717
21.@@ 716
ขอความช่วยเหลือ 716
ทัก@@ 716
นัว 716
ย่อย@@ 716
ลูกครึ่ง 716
ล่วง 716
สารภาพ 716
อดทน 716
เฟต 716
เวชศาสตร์ 716
ญญู 715
ตลอดมา 715
ทธิ@@ 715
รัช@@ 715
อมตะ 715
ฮัด 715
เฉย 715
เต็มดวง 715
โลห@@ 715
id 714
is@@ 714
การส่งออก 714
ชานุ 714
ทรุดโทรม 714
นิโคลัส 714
ปัด 714
ปั้น@@ 714
ภาส 714
วิล 714
เชื้อไวรัส 714
ซิล@@ 713
ซิลิ@@ 713
ตรึง 713
นครรัฐ 713
ผู้ตัดสิน 713
รวิ 713
รามาธิบดี 713
ศิลปกรรม 713
สิต 713
อุต@@ 713
เยาว@@ 713
เสนาธิการ 713
2460 712
นคร@@ 712
ฟาก 712
ภายใต้การควบคุม 712
ลุมพินี 712
สะเทือน 712
เครือ@@ 712
เฉพาะกิจ 712
เพศสัมพันธ์ 712
ไต่@@ 712
1953 711
ตื้น 711
บอง 711
ผู้บังคับบัญชา 711
ฝ่ายซ้าย 711
วัยเยาว์ 711
สภาพ@@ 711
เล่าเรียน 711
โครงข่าย 711
กัมมันตรังสี 710
บทบัญญัติ 710
ประพาส 710
ฮย็อน 710
เรนเจอร์ 710
สืบต่อ 709
หลีก 709
อัลเบิร์ต 709
อีสต์ 709
เภสัชศาสตร์ 709
แมงมุม 709
ช็อน 708
ประจำเดือน 708
ยิ่งกว่า 708
ราฟาเอล 708
ละติจูด 708
วซ์ 708
ศร์ 708
เชียล 708
เม็ดเลือดแดง 708
แชนแนล 708
้อม@@ 708
ec@@ 707
กรรมสิทธิ์ 707
กิ่ง@@ 707
ระเหย 707
รับงาน 707
วาร@@ 707
สภาพภูมิอากาศ 707
ึกิ 707
ือก@@ 707
แต่ละครั้ง 707
แถลงข่าว 707
แนวหน้า 707
แสบ 707
โบราณวัตถุ 707
การเข้ารหัส 706
คริสโตเฟอร์ 706
พลเรือเอก 706
มุกดาหาร 706
เฝ้า@@ 706
เส้นตรง 706
)  705
จื้อ 705
พาหนะ 705
มิยา 705
วัล@@ 705
โรคระบาด 705
กนก 704
ขงจื๊อ 704
ผู้สำเร็จราชการแทนพระองค์ 704
ลิ่ง 704
เกศ 704
เสวย@@ 704
โจทย์ 704
โซเฟีย 704
โทรศัพท์มือถือ 704
ให้ความสนใจ 704
ขี้ 703
งุ 703
ชดเชย 703
กัส@@ 702
ความชื้น 702
บีบีซี 702
พระเจ้าแผ่นดิน 702
ล่อง@@ 702
วก@@ 702
สุรทิน 702
เภสัช@@ 702
เหว่ 702
เอะ@@ 702
แจง 702
แจ๊ส 702
โชซ็อน 702
ไก่@@ 702
1933 701
ฉ 701
ดาวรุ่ง 701
ปัว 701
มีเรื่อง 701
ศิลปวัฒนธรรม 701
สุภาพ 701
อ่างทอง 701
กำนัน 700
ณั@@ 700
ดล 700
พลิก 700
สตรีท 700
สืบสวน 700
สุภาพ@@ 700
ือบ@@ 700
เลื้อย 700
โอ้ 700
id@@ 699
ชล@@ 699
ซิน 699
ตามเดิม 699
ปิน 699
รองศาสตราจารย์ 699
1955 698
คืนชีพ 698
จ้าง@@ 698
ริบ 698
เชลล์ 698
เลเซอร์ 698
เวต 698
แตร 698
โธ 698
ใบ้ 698
ata 697
จริ@@ 697
มีความจำเป็น 697
เหนือ@@ 697
!! 696
กระดอง 696
พิมพ์@@ 696
ยศาสตร์ 696
ศิลปวิทยา 696
สับ@@ 696
หลอดเลือดดำ 696
เปอ 696
แตง 696
การฉาย 695
พระวรวงศ์เธอ 695
มาเก๊า 695
หลอม 695
็อป 695
การฝึกฝน 694
กุย 694
ขากรรไกร 694
ซ้อม 694
มดลูก 694
สตรีม 694
เกรย์ 694
ธุ 693
พระบรมราชานุญาต 693
หรือ@@ 693
หอพัก 693
อัครมเหสี 693
เปิดรับ 693
เป็นปกติ 693
เพน@@ 693
เวส@@ 693
แห้งแล้ง 693
โดยอัตโนมัติ 693
Day 692
กรมตำรวจ 692
ควา@@ 692
ดนตรีไทย 692
ทำเงิน 692
ยุบ@@ 692
ระเบิด@@ 692
สารานุกรม 692
อโศก 692
เกลียด 692
เฟซบุ๊ก 692
เยรูซาเลม 692
เหว@@ 692
ไพศาล 692
1917 691
50,000 691
คณาจารย์ 691
ดีเซล 691
น้อม 691
พาวเวอร์ 691
รวง@@ 691
รึ 691
สุดท้อง 691
สไตน์ 691
หินปูน 691
ฮอร์ 691
แม่ฮ่องสอน 691
ฉีดวัคซีน 690
ถือศาสนา 690
มิชชันนารี 690
รายสัปดาห์ 690
ลักพาตัว 690
หัส@@ 690
"& 689
07 689
ทุกข์@@ 689
นเท็น 689
พายุโซนร้อน 689
มณฑป 689
มิเตอร์ 689
รัญ 689
ลำไส้@@ 689
สระแก้ว 689
สั่งสอน 689
เต็ง 689
เว้า 689
โงะ 689
โอชา 689
ชย 688
ผู้มีอำนาจ 688
ยวดยิ่ง 688
ยุคปัจจุบัน 688
ว็อน 688
ศัลย@@ 688
สถาบันวิจัย 688
อุปรากร 688
เรียกขาน 688
แมร์ 688
แห 688
ไซปรัส 688
ํา 688
ขุ 687
ความจำเป็น 687
ฌา@@ 687
ดูเหมือนว่า 687
ทอดพระเนตร 687
สถิ@@ 687
สมมาตร 687
สัญจร 687
หด 687
แกง@@ 687
โภ@@ 687
ในทันที 687
ในทางปฏิบัติ 687
ไห 687
กงสุล 686
กลี 686
กวาดล้าง 686
ข้างล่าง 686
ครองราชสมบัติ 686
คอร์ด 686
คาร์บอนไดออกไซด์ 686
รากศัพท์ 686
สเตอร@@ 686
หวาย 686
อนุวงศ์ 686
เมกะ 686
เรนซ์ 686
ก้าน@@ 685
ครองแชมป์ 685
นาซา 685
บรรพชา 685
ผู้บังคับการ 685
รวมกลุ่ม 685
สุริยวงศ์ 685
ือร์@@ 685
เปลือกโลก 685
เลย์ 685
ite 684
ชาตรี 684
นิวกินี 684
ปืนกล 684
อาการ@@ 684
เท่าเทียมกัน 684
โคว@@ 684
160 683
ST@@ 683
คาราบาว 683
จิ้งจอก 683
ช็อง 683
ทิศตะวันตกเฉียงเหนือ 683
บั้นปลาย 683
ผู้ประกอบการ 683
พาณิช@@ 683
ระนอง 683
ฮกเกี้ยน 683
ถึงกระนั้น 682
บุกรุก 682
War 681
กราน 681
การเฉลิมฉลอง 681
ตม 681
ป่วย@@ 681
หลุม@@ 681
ไช@@ 681
ン@@ 681
คลิป 680
ดัด 680
ตัวกลาง 680
ทิวเขา 680
พรี@@ 680
ลึกซึ้ง 680
สถูป 680
สำโรง 680
หุ่น@@ 680
เท่าไร 680
เรดาร์ 680
ใหญ่โต 680
La 679
กลาโหม 679
กำพร้า 679
นัด@@ 679
นาฏ 679
ผู้อำนวยการสร้าง 679
พิฆาต 679
ยูนิต 679
รับคำ 679
ลำธาร 679
สมาพันธรัฐ 679
ึน 679
เซ็กซ์ 679
2477 678
ab@@ 678
กราบ 678
นาน@@ 678
นาวา 678
ป่อง 678
ผู้สูงอายุ 678
สัมพุทธ 678
เครื่องเล่น 678
เลขา 678
เสรี@@ 678
แอตแล@@ 678
System 677
í 677
กรรมฐาน 677
กระสวย 677
ตั้@@ 677
นาโน 677
ยอดจำหน่าย 677
รูปภาพ 677
ลย@@ 677
เยาว์ 677
เสวย 677
140 676
ครีบหาง 676
ปูชนียวัตถุ 676
พญาไท 676
พวกเรา 676
ร็อบ 676
ลูกบาศ@@ 676
วิไล 676
สตูล 676
สันต์ 676
อุด@@ 676
เชิดชู 676
เมโทร 676
เสือโคร่ง 676
แนวนอน 676
คนดู 675
จำปาศักดิ์ 675
ทวน 675
ธัญ@@ 675
นำพา 675
บง 675
บอร์เนียว 675
มหาธาตุ 675
ราชาธิปไตย 675
เกษียณ 675
เดือดร้อน 675
แนน 675
โคม 675
am@@ 674
การกลายพันธุ์ 674
การร้อง 674
คันทรี 674
ผู้มีชื่อเสียง 674
ภาวนา 674
ลูกเธอ 674
หาอาหาร 674
อภิเษก 674
ินี 674
โพก 674
1937 673
กราบทูล 673
การปกป้อง 673
งคราว 673
ทั้งปี 673
บารอน 673
ปอง 673
ผลข้างเคียง 673
ราง@@ 673
อิส@@ 673
เอย 673
ไก@@ 673
+@@ 672
กินเวลา 672
จุดสูงสุด 672
ชนชั้นสูง 672
ดำเนินคดี 672
ตัวสำรอง 672
ปาร์@@ 672
อานา 672
ฮิปฮอป 672
โป้ 672
จบ@@ 671
ด็อก 671
ตีน 671
ถวายพระ@@ 671
ทฤษฎีบท 671
สุจริต 671
อล์น 671
เก็บภาษี 671
ใส่@@ 671
์ท 671
ขบวนรถ 670
คลี@@ 670
ฉาน 670
นักฟิสิกส์ 670
ผลิ 670
พระบาทสมเด็จพระพุทธเลิศหล้านภาลัย 670
พระราชนิพนธ์ 670
ยึด@@ 670
อนุรักษนิยม 670
เยเมน 670
เอื้อ@@ 670
แขกรับเชิญ 670
็จ 670
กะทันหัน 669
ทำลายสถิติ 669
เติร์ก 669
เพลิงไหม้ 669
แบก 669
โกศล 669
กัก 668
จ็อง 668
ย. 668
ย่อ@@ 668
อึ 668
เกจ 668
เหร@@ 668
CD 667
Q@@ 667
ขอบคุณ 667
ความยุติธรรม 667
คอลเล@@ 667
ตกใน 667
ถิ่นฐาน 667
วัฏจักร 667
อาร์ต 667
อิต 667
เซมิ 667
แต่ละ@@ 667
ในบางกรณี 667
Life 666
http 666
system 666
กาลเวลา 666
ดำเนินต่อไป 666
ทม 666
บางปะ@@ 666
ผิว@@ 666
พฤติ@@ 666
ศรีราชา 666
หวัด 666
ี้ 666
ธาตุ@@ 665
บาร์@@ 665
บ่อ@@ 665
พระอาทิตย์ 665
พราง 665
ฟ็อน 665
มิก 665
ศิวะ 665
เกลียว 665
เว้นแต่ 665
2473 664
os 664
u@@ 664
กิม 664
ขนาด@@ 664
ตู้@@ 664
พิธีการ 664
ระบบสุริยะ 664
วาดอร์ 664
หลาน@@ 664
อักษรศาสตร์ 664
เชิงเส้น 664
li 663
ดำน้ำ 663
ดูดซึม 663
ปฐม@@ 663
พระปรมาภิไธย 663
วันรุ่งขึ้น 663
อ้อย 663
แบดมินตัน 663
108 662
2487 662
ฉ้อ@@ 662
พง@@ 662
พระราชาคณะ 662
ภาษามลายู 662
สมรรถนะ 662
อดัม 662
ฮัง 662
เพช@@ 662
กระเบน 661
ชด 661
บู่ 661
ผูกพัน 661
ผู้ถือหุ้น 661
เดล@@ 661
เหนี่ยวนำ 661
ไทมส์ 661
กสิ@@ 660
ก็ต่อเมื่อ 660
ตัวกระตุ้น 660
ถือหุ้น 660
ปลัด@@ 660
พลับพลา 660
อัพ 660
เบิ@@ 660
Ar@@ 659
ทัง 659
ทำปฏิกิริยา 659
ทูน 659
บน้ำ 659
บูรณ์ 659
มหาวิทยาลัยศิลปากร 659
สเปกตรัม 659
อุด 659
03 658
คราวนี้ 658
ฆ่า@@ 658
ชนะ@@ 658
ชั้นบน 658
ชีวิตครอบครัว 658
นง 658
ผู้ควบคุม 658
ผู้แต่ง 658
พลัด@@ 658
ภาษาถิ่น 658
สมเด็จพระบรมโอรสาธิ@@ 658
สมเด็จพระเจ้าตาก@@ 658
สังฆ@@ 658
แคป 658
โง@@ 658
กระทรวงยุติธรรม 657
ทัพ@@ 657
พก 657
สยาม@@ 657
สังคม@@ 657
สี่เหลี่ยม@@ 657
สเบิร์ก 657
เปี่ยม 657
โน้@@ 657
คต 656
ซาง 656
ทาวเวอร์ 656
ทีละ 656
ธรรมยุ@@ 656
ปลี 656
พันธสัญญา 656
พิพิธภัณฑ@@ 656
รูปลักษณ์ 656
ร้าย@@ 656
สเปซ 656
เกียง 656
2486 655
กระจัดกระจาย 655
จิว 655
นต์@@ 655
บรรณ 655
ปรก 655
วาว 655
สาว@@ 655
หลงรัก 655
อนุสรณ์สถาน 655
เงือก 655
เพศหญิง 655
→ 655
Co@@ 654
Un@@ 654
จอก 654
จุดโทษ 654
ณ์@@ 654
ตกเป็นของ 654
นำหน้า 654
ปลุก 654
ผืนผ้า 654
ยันต์ 654
อธิ 654
เป็นมิตร 654
เฟรม 654
ไอโซโทป 654
คติ@@ 653
จำนวนเต็ม 653
ซัม@@ 653
บัด@@ 653
ปติ 653
ผลดี 653
อธิษฐาน 653
ฮิลล์ 653
เพราะ@@ 653
แบบแผน 653
โปรโมต 653
่ะ 653
2472 652
Association 652
co@@ 652
การดำรงตำแหน่ง 652
ซึ่งกันและกัน 652
ผู้พัฒนา 652
ร้องไห้ 652
สงเคราะห์ 652
อุดมคติ 652
ไพเราะ 652
ไฮโดร 652
," 651
กระทำการ 651
กระเพาะอาหาร 651
คอลัมน์ 651
ชี้แจง 651
ซิดนีย์ 651
บ่ง 651
ประจ@@ 651
ฟาสซิสต์ 651
มกุ@@ 651
อร์ต 651
้นท์ 651
360 650
from 650
un@@ 650
ช่างภาพ 650
ตามล่า 650
นภา 650
บำรุงรักษา 650
ระกา 650
สมัคร@@ 650
อินทร@@ 650
เด็กหนุ่ม 650
โค่น 650
โซมาเลีย 650
6,000 649
กระแทก 649
การออกกำลังกาย 649
กิตติ@@ 649
ขันที 649
จันทร@@ 649
จู่ 649
ดัก@@ 649
ธรรมราชา 649
นิติบัญญัติ 649
ประกอบ@@ 649
ปลูกสร้าง 649
พิภพ 649
ร้อง@@ 649
วิ่ง@@ 649
และ@@ 649
โศก@@ 649
3.5 648
To 648
ure 648
ความมั่นใจ 648
ทางบก 648
พึง 648
ภิกษุ@@ 648
เป็นต้น@@ 648
โพล 648
ข้าวโพด 647
ความไม่พอใจ 647
ชอน 647
สมบูรณ์แบบ 647
หิรัญ 647
ไต้ฝุ่น 647
ฉันท์ 646
ฌู 646
ทีป 646
รัชต 646
ราชาธิราช 646
สต็อก 646
สย@@ 646
อรี 646
เชื้อ@@ 646
เรือหลวง 646
เสพ 646
colspan 645
ขม 645
จุดกำเนิด 645
มิวสิ@@ 645
ศาสน@@ 645
อาร์ค 645
เชื้อพระวงศ์ 645
เล่นงาน 645
แปล@@ 645
1934 644
Super 644
ถือครอง 644
ยู่ 644
วุ่น 644
เฮฟวี่เวท 644
แอ็ก 644
โถ 644
ความดันโลหิต 643
สมาน 643
เรียส 643
เฮอริเคน 643
แก่@@ 643
ya 642
ทางเดินอาหาร 642
ผู้ริเริ่ม 642
สตีฟ 642
สอง@@ 642
หยุดยั้ง 642
เคลื่อนตัว 642
เป็นต้นแบบ 642
เมน@@ 642
เล็ง 642
แข็งตัว 642
350 641
กว่าง 641
ขั้วโลก 641
งานเลี้ยง 641
ซีกโลก 641
ตรัสรู้ 641
ที่ใด 641
ผู้ทำ 641
สนิทสนม 641
อ่าวไทย 641
แอนดรูว์ 641
แอนติ@@ 641
Show 640
กาน 640
ตื่นเต้น 640
ธนบัตร 640
ปนเปื้อน 640
ฟอ@@ 640
มอนสเตอร์ 640
ลูกพี่ลูกน้อง 640
หนทาง 640
เดร@@ 640
112 639
กล้า@@ 639
ก๊าซ@@ 639
ข้อพิพาท 639
ฑา 639
ทุ่ง@@ 639
อิ่มตัว 639
เหยี่ยว 639
เฮฟ@@ 639
ไหลเวียน 639
นเดิส 638
ลาติน 638
สวามิภักดิ์ 638
ี๋ยน 638
ไพร่พล 638
1932 637
ชั้นนอก 637
ดำเนินเรื่อง 637
น) 637
พิพัฒน์ 637
ภูฏาน 637
อีซี 637
เกิลส์ 637
เวทย์ 637
่วม@@ 637
ขอพระราชทาน 636
ถนัด 636
ธรรมะ 636
ย่ำ@@ 636
ระหว่างทาง 636
ล, 636
ฮอกกี้ 636
โรคติดเชื้อ 636
ๆ. 636
กัวลาลัมเปอร์ 635
งคืน 635
ทุ่งหญ้า 635
ธัญ 635
บางประการ 635
ฟิช 635
วีร@@ 635
หลอ@@ 635
เวิร์ก 635
แน่ใจ 635
แพ็ค 635
็อน 635
Con@@ 634
et@@ 634
ขิง 634
คล้ำ 634
ซ่อนตัว 634
นาโต 634
สินทรัพย์ 634
หอระฆัง 634
ฮาร์ด@@ 634
แกนกลาง 634
โหด 634
Institute 633
ความคิด@@ 633
ตระเวน 633
ตั้งวง 633
น้ำนม 633
ฤดูใบไม้ร่วง 633
ลาม 633
สุริยะ 633
อัลลอ@@ 633
เดินขบวน 633
เป้ 633
เสม@@ 633
เหงือก 633
ative 632
กลับเป็น 632
กลิ่นหอม 632
คาดหมาย 632
น้า 632
ผลรวม 632
พญา@@ 632
พีซี 632
อ์ 632
เรน 632
เลี่ยน 632
1924 631
de@@ 631
กรู 631
นำมาซึ่ง 631
ราชนาวี 631
วิทยาคม 631
สรีรวิทยา 631
สายเลือด 631
สำนักสงฆ์ 631
หด@@ 631
เภสัชกรรม 631
è 630
กันและกัน 630
กึ@@ 630
คู่หู 630
ทรงพลัง 630
นักปราชญ์ 630
บรรณาการ 630
ประกอบธุรกิจ 630
ผิวน้ำ 630
อาลัย 630
เบิ้ล 630
เปรียบเสมือน 630
เปาโล 630
ไวท์ 630
ก่ออิฐถือปูน 629
ถัน 629
ทึม 629
บีทีเอส 629
ปกปิด 629
ผู้เดียว 629
สกอร์ 629
แสวงบุญ 629
๊บ 629
1,500 628
กษ์ 628
ทโธ@@ 628
ยว 628
ยัก 628
รักษาตัว 628
รายการ@@ 628
สตาฟ 628
สมัยกลาง 628
หนึ่งในสี่ 628
ือย 628
เหลือ@@ 628
แปด@@ 628
โซเดียม 628
ใช้กำลัง 628
ไรต์ 628
ชกา 627
ทัศน@@ 627
ทางเรือ 627
ทเทิล 627
นครนายก 627
ประจัญบาน 627
สาวน้อย 627
สูบบุหรี่ 627
เชียง@@ 627
แนวตั้ง 627
แมว@@ 627
ida 626
ขำ 626
คลั่ง 626
นัน@@ 626
วิกิ 626
เล็ต 626
30,000 625
ad@@ 625
ง่ายๆ 625
ชาร์จ 625
ตัวเล็ก 625
วิศวกรรมศาสตร์ 625
สปอร์ 625
อค 625
8.@@ 624
ina 624
ทิส 624
ประณาม 624
ปัจเจ@@ 624
ปิยะ 624
พลิก@@ 624
มนุษยชาติ 624
มิค 624
ล่อ 624
สำริด 624
หยาบ 624
ห้าม@@ 624
อย่างนั้น 624
เคนยา 624
เธ 624
แต้จิ๋ว 624
ข้อมูล@@ 623
ธิปไตย 623
พิม 623
สั่น@@ 623
เธีย 623
เมิน@@ 623
ไม้ยืนต้น 623
1,0@@ 622
ติกาล 622
บัน@@ 622
ปลีก 622
ภิกข@@ 622
เภ@@ 622
เวอร์จิเนีย 622
แท่นบูชา 622
แพ่ง 622
ไต่ 622
q 621
กลางเดือน 621
การปล่อยตัว 621
ฆะ 621
ชนา 621
ซุย 621
นด์@@ 621
ปีใหม่ 621
ปี้ 621
มาตร 621
สำนักข่าว 621
เขี้ยว 621
1935 620
tic 620
พาร์@@ 620
ยูโรเปียน 620
ษฏ@@ 620
เจ้าหลวง 620
เพล็กซ์ 620
เพาะ@@ 620
โน่ 620
High 619
กระทรวง@@ 619
ก้า@@ 619
ขั้นสูง 619
ยูเร@@ 619
อัด@@ 619
เดฟ 619
เอว 619
กัญญา 618
การก่อการร้าย 618
ครองตำแหน่ง 618
ทำสัญญา 618
พิบูล@@ 618
ราศี 618
รื้อถอน 618
ลงรัก 618
ล์ว 618
วุย 618
ษ์ 618
สรณ 618
สังเกตเห็น 618
สำมะโน 618
อัมสเตอร์ดัม 618
โศก 618
ต่างดาว 617
ถ้วย@@ 617
ทำเนียบ@@ 617
บุกเบิก 617
บ่งบอก 617
มอนเตเนโกร 617
ฮาร์@@ 617
เหมาะสำหรับ 617
โฆ@@ 617
๊ง 617
1928 616
ang 616
ase 616
นิดหนึ่ง 616
ปิโตรเลียม 616
ฟ้องร้อง 616
ระมัดระวัง 616
โพ้นทะเล 616
คงคา 615
คฤ@@ 615
ทะยาน 615
พายุดีเปรสชัน 615
สัต 615
อ็อง@@ 615
ั่ง@@ 615
โม่ 615
ไม้ตาย 615
2468 614
กอด 614
ผู้ลี้ภัย 614
มีเหตุผล 614
หายตัว 614
ห้องพัก 614
เวิร์ส 614
แก้ว@@ 614
โต้ตอบ 614
๖@@ 614
2470 613
Ex@@ 613
st 613
ความต้านทาน 613
คุณแม่ 613
บรมราชาภิเษก 613
ราชการทหาร 613
ลัก@@ 613
ศาสนา@@ 613
สั่งซื้อ 613
หันต์ 613
อัม@@ 613
อัลเฟรด 613
ุก 613
เขย 613
เมค 613
กระทิง 612
กะโหลก 612
ตั้งรกราก 612
นิมนต์ 612
ฟอง@@ 612
มีทาง 612
ยูโด 612
สามสิบ 612
อังวะ 612
อุปนิสัย 612
2.0 611
ขนา@@ 611
ความมืด 611
ดัช@@ 611
ฝัก 611
รวดี 611
เนีย@@ 611
เอดส์ 611
ใหล 611
กลม@@ 610
กาซา 610
ด้อย 610
บีบ@@ 610
ปากคลอง 610
สาคร 610
สำมะโนประชากร 610
อัศ@@ 610
โดยธรรมชาติ 610
ไทใหญ่ 610
ไนจีเรีย 610
8,000 609
คราม 609
คูหา 609
จาก@@ 609
ญ์ 609
ดน@@ 609
ปรินิพพาน 609
เนี@@ 609
เบีย@@ 609
โค่นล้ม 609
ไฟไหม้ 609
ด" 608
ต์" 608
ธรรมศาสตร์ 608
บาดแผล 608
มีฝีมือ 608
ย่างกุ้ง 608
ลึง 608
สเก@@ 608
เพชร@@ 608
เอี้ย 608
แอฟริกัน 608
บรรลุ@@ 607
ผู้เข้าชม 607
พระราชประสงค์ 607
ร่างกฎหมาย 607
สงบสุข 607
สิ่งใด 607
เจี้ยน 607
เฟซ 607
แข@@ 607
แมง@@ 607
ไหว@@ 607
ความบันเทิง 606
นายก@@ 606
นิเวศวิทยา 606
รติ 606
ร์ก@@ 606
ลิ้ม 606
ศรีวิชัย 606
เมล@@ 606
j@@ 605
ol 605
คณะรัฐศาสตร์ 605
บัดนี้ 605
ประเทศชาติ 605
มรกต 605
ย็อน 605
รายวัน 605
สจ@@ 605
ส์) 605
เล็ก@@ 605
ในที่นี้ 605
2474 604
กินี 604
ฉุ@@ 604
ซ็อง@@ 604
ตติย 604
ตำรวจภูธร 604
ผ่อง 604
สนม 604
สิ่งพิมพ์ 604
สืบเนื่อง 604
ฮง 604
เกาะ@@ 604
เน็ต@@ 604
it@@ 603
คณะราษฎร 603
ฐ์ 603
ปราโมช 603
พลศาสตร์ 603
พุต 603
รณี 603
หลี 603
ไรเฟิล 603
1951 602
Park 602
ดอกบัว 602
นิรันดร์ 602
บอสตัน 602
พิทยา@@ 602
มัส@@ 602
ระดมทุน 602
ลูกน้อง 602
วรา@@ 602
วิษณุ 602
เคียง 602
เลิ@@ 602
เอ็นเตอร์เทนเมนต์ 602
การบรรจุ 601
การสัมผัส 601
ขวัญ@@ 601
ข้างใน 601
ชเว 601
ดู่ 601
ตาย@@ 601
นที 601
พรรคพลังประชาชน 601
ฟเฟ@@ 601
ไห@@ 601
Academy 600
กลั่น@@ 600
คลุ@@ 600
คว่ำ 600
ญฺ@@ 600
ธารา 600
ยิมนาสติก 600
วรมหาวิหาร 600
เขน 600
แหล่งท่องเที่ยว 600
โพร@@ 600
2457 599
AS@@ 599
Great 599
lo@@ 599
กาง 599
กำแพงเมือง 599
ก่อนประวัติศาสตร์ 599
ขม@@ 599
ขึ้นฝั่ง 599
จลาจล 599
ฐานทัพ 599
บัญชาการ@@ 599
มีความผิด 599
ล้อ@@ 599
สัมพันธ์กัน 599
เส้นเลือด 599
โสม 599
ในทางกลับกัน 599
ไอซ์ 599
2463 598
Grand 598
Top 598
ขึ้นอยู่ 598
คว้า@@ 598
ติน 598
บิท 598
ศาสตรมหาบัณฑิต 598
ศิริ@@ 598
เป็นกำลัง 598
แกล 598
2455 597
On 597
ขง 597
ขจัด 597
ความสามารถพิเศษ 597
คะแนน@@ 597
คูเวต 597
ซุ่ม 597
ตอนท้าย 597
ปานามา 597
ผู้ประกาศข่าว 597
สระ@@ 597
อาบ 597
ีบ 597
เลื่อมใส 597
ไอบี@@ 597
การตาม 596
ขอโทษ 596
ชาร์ท 596
ทท 596
ทางเทคนิค 596
รวมเล่ม 596
ล้ำ@@ 596
ศี@@ 596
อันดามัน 596
ฮุ่ย 596
เจ้าพ่อ 596
ของเล่น 595
คัฟ 595
จำกัดความ 595
ซัด 595
ทิศตะวันตกเฉียงใต้ 595
มอบ@@ 595
มาร์ช 595
รู้เรื่อง 595
วิส 595
ส้ม@@ 595
หลานชาย 595
ี่ยม 595
เร็น 595
2471 594
กึ่ง@@ 594
พระโพธิสัตว์ 594
มีพิษ 594
รำลึกถึง 594
สนามฟุตบอล 594
อิงประวัติศาสตร์ 594
ฮอก@@ 594
เจอกัน 594
เจา 594
เจียว 594
House 593
em@@ 593
ความสะดวก 593
รวย 593
วางตัว 593
สิ่งอำนวยความสะดวก 593
หินทราย 593
เลียบ 593
แคทเธอรีน 593
โด้ 593
ไทเป 593
จัดเรียง 592
ฎีกา 592
ณัฐ@@ 592
ตอบคำถาม 592
พวง@@ 592
พิน 592
พินิจ 592
ภุ@@ 592
รัฐประศาสน@@ 592
สนามรบ 592
หมี่ 592
โมง 592
ไกล@@ 592
125 591
AC 591
Film 591
ซุป 591
ทัว 591
น้ำดี 591
พุ่ม@@ 591
มานุษยวิทยา 591
มิสซัง 591
มูลฐาน 591
รอยต่อ 591
รูปสามเหลี่ยม 591
เพิ@@ 591
โต้เถียง 591
โอะ@@ 591
Science 590
St 590
ขออนุญาต 590
ครั@@ 590
ตำแหน่ง@@ 590
ทั้งตัว 590
สหกรณ์ 590
อีกที 590
อีส 590
เงียบ@@ 590
เผาไหม้ 590
แข 590
ah 589
ผู้เรียน 589
พระพุทธ@@ 589
ภี@@ 589
หินอ่อน 589
เคียน 589
เลี้ยว 589
style 588
กรดอะมิโน 588
ดุริยางค์ 588
ตลอดปี 588
ทธิ์ 588
ทรุ@@ 588
ทวีปอเมริกา 588
ธง@@ 588
น่ากลัว 588
ผู้ต้อง@@ 588
หวาดกลัว 588
อธิก@@ 588
อำนวยความสะดวก 588
แช่@@ 588
film 587
ti@@ 587
คนร้าย 587
ดร@@ 587
ทนทาน 587
ทุติ@@ 587
นาว@@ 587
นิกซ์ 587
ประมูล 587
ปูน@@ 587
พระราชกรณียกิจ 587
สับ 587
การกบฏ 586
นช์ 586
มีคุณค่า 586
ยาสูบ 586
ยี@@ 586
อุย 586
โดดเดี่ยว 586
โบว์ 586
้องกัน 586
"คน 585
Asia 585
William 585
บรอด@@ 585
ปฐมภูมิ 585
พังงา 585
ฟอสซิล 585
ร์ม็อง 585
วอลล์ 585
อับ@@ 585
ฮุย 585
เป็นความ 585
แคว 585
คมนาคม 584
ตัวอาคาร 584
ตาบอด 584
ทสึ 584
เซลล@@ 584
เดอะ@@ 584
๐๐ 584
DC 583
นบี 583
พรรคพวก 583
ฟอก 583
ลักลอบ 583
สร้างภาพ 583
สัญ@@ 583
สันติ@@ 583
เจ้าแม่ 583
เวิร์ค 583
กรมพระยาดำรงราชานุภาพ 582
กร่อน 582
จักรยานยนต์ 582
ด้ว@@ 582
ตองอู 582
ทำนอง@@ 582
นน@@ 582
บาดเจ็บสาหัส 582
เครื่องใช้ 582
เดอะสตาร์ 582
เด็กสาว 582
เรียน@@ 582
การตั้งถิ่นฐาน 581
ซื่อสัตย์ 581
ตย 581
ที่พำนัก 581
บถ 581
ผดุ@@ 581
ผัด 581
พระบรมราช@@ 581
สิก@@ 581
อุบาย 581
เชา 581
เป็นอัน 581
เย็น@@ 581
โซนี่ 581
ไถ 581
2456 580
James 580
na 580
กราบบังคมทูล 580
คำปรึกษา 580
ชั้นเดียว 580
ทับทิม 580
ทิศตะวันออกเฉียงใต้ 580
นิด@@ 580
พัล 580
มร 580
รรษ 580
วิทยาศาสตร์@@ 580
สฤษดิ์ 580
อไรด์ 580
เกี่ยวพัน 580
เคารพ@@ 580
เป็นใหญ่ 580
้วม 580
ชาดก 579
มาลาเรีย 579
สมุด 579
แคโร@@ 579
โดยไม่@@ 579
Art 578
à 578
กิ้งก่า 578
พหุ@@ 578
ลอว์ 578
สวัสดิการ 578
สังค 578
อัยยิกา 578
อึ้ง 578
โสภา 578
0.5 577
ent 577
จาการ์ตา 577
ดับเบิล 577
ทบ. 577
นีส 577
ประมวลผล 577
พูดว่า 577
มีสีสัน 577
วิธาน 577
สิบเอ็ด 577
อวตาร 577
ไม้พุ่ม 577
4.@@ 576
ธัม@@ 576
รับสัญญาณ 576
เอ็นเตอร์เทน 576
แว่น@@ 576
ใช้สอย 576
AR@@ 575
Mar@@ 575
le@@ 575
กาว 575
ซิลเวอร์ 575
ผู้สอน 575
พระศรี@@ 575
พาล 575
พิพาท 575
ยอด@@ 575
รู้ตัว 575
เยอะ 575
โฮะ 575
...@@ 574
ref 574
กระทรวงพาณิชย์ 574
กินใน 574
นีย@@ 574
น้ำพุ 574
ปน@@ 574
พระคุณ 574
ลูกจ้าง 574
ื้@@ 574
ฉนวน 573
ธรรมการ 573
ปลุก@@ 573
ฝึกงาน 573
วิทยาลัยครู 573
อว์น 573
อัง@@ 573
แพะ 573
ator 572
การชนะ 572
ดาภิเษก 572
เป็นไปไม่ได้ 572
เพิก@@ 572
แจกจ่าย 572
Car@@ 571
กฎเกณฑ์ 571
คิก 571
คุมกำเนิด 571
ชเล 571
ตำรวจ@@ 571
ธวัช 571
บริดจ์ 571
บอลติก 571
ประกวดนางงาม 571
ยาพิษ 571
สิ้นเชิง 571
เขตปกครองตนเอง 571
้าง@@ 571
王@@ 571
w@@ 570
กองโจร 570
การสืบสวน 570
ชู้ 570
ฐา@@ 570
นางใน 570
นึ่ง 570
พรสวรรค์ 570
วิปัสส@@ 570
อัลกุรอาน 570
อาด 570
เท่าไหร่ 570
แฌ@@ 570
โค้ด 570
โภชนาการ 570
200,000 569
คู่ขนาน 569
ดาน@@ 569
ทรั@@ 569
ยืด@@ 569
ลงมือ 569
ศักดิ์@@ 569
สหรัฐอาหรับเอมิเรตส์ 569
หนิง 569
เชิ@@ 569
แสง@@ 569
โจน 569
ไล่ล่า 569
z@@ 568
ธูป 568
นั้น@@ 568
บรัสเซลส์ 568
ปิตุลา 568
สวา 568
หมู@@ 568
ฮุน 568
เชสเตอร์ 568
เถื่อน 568
แผ่รังสี 568
ให้หลัง 568
ed@@ 567
ความมั่งคั่ง 567
จุดหมายปลายทาง 567
บัต 567
มาณ@@ 567
มุด 567
วัณ@@ 567
เคีย 567
เซิล 567
ไซด์ 567
์ต 567
ated 566
กค 566
กริด 566
กายวิภาคศาสตร์ 566
ก๋@@ 566
ถวาย@@ 566
ถัด 566
นาการ 566
พล.@@ 566
ยูนนาน 566
ย้อนหลัง 566
รัด@@ 566
วอร์@@ 566
องค์ความรู้ 566
เบร 566
เลง 566
แอร์@@ 566
500,000 565
Series 565
ขว@@ 565
ชั้@@ 565
ตุล 565
ธรรมนูญ 565
พ.ต.ท. 565
พระราชพงศาวดาร 565
พันธุ@@ 565
มหาบัณฑิต 565
มุสโสลินี 565
ราคาแพง 565
สถานทูต 565
สห@@ 565
สิริ@@ 565
ื่น@@ 565
เครื่องค@@ 565
เช่น@@ 565
แกร์ 565
การประมง 564
จริง@@ 564
ชีว@@ 564
ชุมพล 564
ผู้ฟัง 564
ในความเป็นจริง 564
ความยาวคลื่น 563
คอร์น 563
ซีส 563
ตามหลัง 563
บีเอ 563
ผู้สื่อข่าว 563
พลัง@@ 563
ลูกผสม 563
วล์ 563
วุ่นวาย 563
อรี่ 563
อ่างเก็บน้ำ 563
เจ้ากรม 563
เช็ค 563
เหมืองแร่ 563
Red 562
si@@ 562
คัมภีร์ไบเบิล 562
ดูแลรักษา 562
ประชาชาติ 562
ฝอย 562
พายัพ 562
หนี้@@ 562
โต้@@ 562
1.2 561
Par@@ 561
Year 561
กระแสน้ำ 561
ต้าร์ 561
ที่กล่าว@@ 561
ที่ไหน 561
ฝูงบิน 561
พยุ@@ 561
เนียร 561
กว้างใหญ่ 560
กานต์ 560
คนสนิท 560
ความอุดมสมบูรณ์ 560
ณัติ 560
ดิสก์ 560
นางฟ้า 560
นาฏศิลป์ 560
ฝึกสอน 560
พรุน 560
วงเวียน 560
สพ 560
"” 559
7.@@ 559
]]@@ 559
a-@@ 559
ง่ายดาย 559
ดังเดิม 559
นป@@ 559
บ็อกซ์ 559
สัจ@@ 559
สเกต 559
ือย@@ 559
เร่ง@@ 559
โหดร้าย 559
้อน@@ 559
1911 558
5.@@ 558
ers 558
กาด 558
กุม@@ 558
ขะ 558
ทย@@ 558
ทวา@@ 558
ธิการ 558
บ็อบ 558
พัทธสีมา 558
ภาร 558
ว่าน 558
สหศึกษา 558
ิ้ง 558
เทศน์ 558
กลูโคส 557
ซิส 557
ถั@@ 557
น้ำตาล@@ 557
บัด 557
อิ่ม 557
เครื่องเทศ 557
เซเวน 557
2467 556
ea 556
ครุฑ 556
จำนง 556
ช่วงอายุ 556
ทรงกระบอก 556
นาคา 556
พระบาทสมเด็จพระวชิรเกล้าเจ้าอยู่หัว 556
พึงประสงค์ 556
ฟัง@@ 556
ภัย@@ 556
รถบรรทุก 556
สดุ@@ 556
หล่อ@@ 556
อีฟ 556
เอียน 556
โปรด@@ 556
18.@@ 555
was 555
กลั่น 555
การสืบทอด 555
ความผูกพัน 555
ด่าง 555
ธรรมา@@ 555
ธุร@@ 555
น้ำเหลือง 555
พิมาน 555
อิด 555
เ 555
เทล 555
เหง้า 555
กันต์ 554
การจับกุม 554
คงเหลือ 554
บิก 554
มีส่วนช่วย 554
สาส์น 554
หย่าร้าง 554
เงินเดือน 554
เชิงลบ 554
เวเนีย 554
ไนโตรเจน 554
็อท 554
450 553
ary 553
ตะกร@@ 553
ทส์ 553
นุต 553
พระมหา@@ 553
ลูคัส 553
สารพิษ 553
อรรถกถา 553
เตรียม@@ 553
เล็ม 553
เอสโตเนีย 553
แมสซาชูเซตส์ 553
แอลจีเรีย 553
์ธ 553
); 552
Party 552
กม 552
กะปิ 552
บาด 552
หนองบัวลำภู 552
หลาย@@ 552
ออง@@ 552
อักษะ 552
เฉพาะเจาะจง 552
เหลียว 552
แถ@@ 552
โปรดักชั่น 552
der 551
คัต 551
คั่น 551
บ่ง@@ 551
ภาร@@ 551
มะกอก 551
รถราง 551
ษฎา 551
สง่า 551
ออดิ@@ 551
1910 550
ก่อน@@ 550
ซ์" 550
ดำเนินชีวิต 550
ดิ้ง 550
ทุนนิยม 550
นารายณ์ 550
ฟู@@ 550
โปร่ง 550
Song 549
ter 549
กก@@ 549
กึ่งกลาง 549
ควง 549
จัก@@ 549
ชั้นหิน 549
ถ้อย@@ 549
ทางเดียว 549
นราธิวาสราชนครินทร์ 549
พลตำรวจเอก 549
ภัตตา@@ 549
มะนิลา 549
วาจา 549
สองเท่า 549
หุ้นส่วน 549
อี๋ 549
เวียด 549
แนวโน้ม 549
โอลิ@@ 549
Big 548
ก่อเหตุ 548
ชาร์@@ 548
ด้า@@ 548
ต่อรอง 548
นอต 548
นารา 548
บาก 548
บูรณาการ 548
ผลงานวิจัย 548
ผังเมือง 548
ละเลย 548
ศุลกากร 548
หันหน้า 548
เยี่ยมชม 548
โชคดี 548
โรเจอร์ 548
2443 547
กิริยา@@ 547
ครึ่งหลัง 547
คิ้ว 547
คึก@@ 547
จุลินทรีย์ 547
ถอดถอน 547
ประสู@@ 547
พน@@ 547
พลอากาศ@@ 547
พ่อขุน 547
วรรณยุกต์ 547
สิบห้า 547
เดรีย 547
็ต@@ 547
105 546
us@@ 546
คำสาป 546
ทริ@@ 546
นตำ@@ 546
ผัน@@ 546
พระพักตร์ 546
ริล@@ 546
สีดา 546
ส่วนล่าง 546
ีย์@@ 546
เจี๋ย 546
เบ็น 546
เฟร์นัน 546
เรียนหนังสือ 546
โมนาโก 546
1914 545
2461 545
การประมวลผล 545
ควน 545
ความสูญเสีย 545
ชิ่ง 545
ช้าง@@ 545
ทรา 545
ปาฏิหาริย์ 545
ผู้นำ@@ 545
มหากาพย์ 545
ยมทูต 545
สถานการณ์ฉุกเฉิน 545
สมี 545
สัจ 545
หว้า 545
เดือน@@ 545
โปรโมท 545
่ห์ 545
“" 545
16.@@ 544
ant 544
คิริ 544
ผู้บุกเบิก 544
ล็อต 544
อานนท์ 544
เฟ้อ 544
เรน@@ 544
แคป@@ 544
แพร่ระบาด 544
กระรอก 543
ตานี 543
ทิต 543
ภาพประกอบ 543
รซ 543
วัส 543
ศึกษาศาสตร์ 543
สิก 543
หาเสียง 543
อินเตอร์เนชั่นแนล 543
าะ@@ 543
เจือ 543
เหลียน 543
โฟร 543
្@@ 543
1922 542
2469 542
Japan 542
กรณ์ 542
กระทรวงเกษตรและสหกรณ์ 542
จาม@@ 542
ถึงขนาด 542
ท่วม 542
ท้า@@ 542
สายฟ้า 542
ฮิป@@ 542
เค็น 542
เปรี้ยว 542
โดยสิ้นเชิง 542
ใฝ่@@ 542
ology 541
กอบ@@ 541
การศึกษา@@ 541
ความแข็งแรง 541
คาร์ดินัล 541
คู่ปรับ 541
บรรทม 541
รักษาพยาบาล 541
สำอาง 541
หลอม@@ 541
อ้างสิทธิ์ 541
กระต@@ 540
ทัศนะ 540
นาฏกรรม 540
นาวา@@ 540
ปฏิบัติภารกิจ 540
สงครามเย็น 540
เมนท์ 540
​​ 540
2450 539
EP 539
SE@@ 539
กรมการ@@ 539
กรรมการผู้จัดการ 539
กำลังภายใน 539
ความตึงเครียด 539
ช่อ@@ 539
ผู้อยู่อาศัย 539
ภัส@@ 539
ภิบาล 539
ยุโรปตะวันออก 539
รอก 539
ลอยตัว 539
สเซียม 539
หวน 539
เงินตรา 539
โฆษณา@@ 539
โซม 539
2453 538
กฤ@@ 538
การผจญภัย 538
ค่าจ้าง 538
จม@@ 538
จินต 538
ซู่ 538
ทำคะแนน 538
ปฐมทัศน์ 538
รถโดยสารประจำทาง 538
สะดุ@@ 538
อะลูมิเนียม 538
อินท@@ 538
เลี่ยม 538
การออก@@ 537
ชาวพื้นเมือง 537
ณห@@ 537
ธงชัย 537
บดินทรเดชา 537
ประกาย 537
ผู้รับผิดชอบ 537
ยุวชน 537
รูด 537
หัส 537
อุจจาระ 537
ฮ์@@ 537
โหราศาสตร์ 537
ก้อนหิน 536
คอก 536
ชีส 536
ชี้ให้เห็น 536
บาหลี 536
บุคคล@@ 536
รถโดยสาร 536
ลักษณะ@@ 536
วลัย 536
เพาะเลี้ยง 536
โปร่ง@@ 536
ไวโอลิน 536
1908 535
ag@@ 535
ene 535
คต@@ 535
จงรักภักดี 535
ซุ้มประตู 535
พรรคพลัง@@ 535
รุณ@@ 535
หมอลำ 535
เคด 535
เคียง@@ 535
เดียน@@ 535
แยกทาง 535
โพส 535
ได้ชื่อ 535
111 534
En@@ 534
ขาบ 534
ชะงัก 534
ประกอบการ 534
ป้าย@@ 534
รัส@@ 534
วิกฤติ 534
หลอน 534
หลุด@@ 534
อัซ 534
แบ่งปัน 534
ไซเบอร์ 534
IN@@ 533
จั่น 533
จีบ 533
ถอดรหัส 533
ถ่าน 533
นักลงทุน 533
รณ@@ 533
วงจร@@ 533
ษฎ@@ 533
สมอง@@ 533
อาศัย@@ 533
แบร์@@ 533
โพธิสัตว์ 533
ensis 532
กำแพง@@ 532
ครั้@@ 532
คีย์บอร์ด 532
ชั้นเรียน 532
ทริก 532
ยกน้ำหนัก 532
สอบถาม 532
ออกคำสั่ง 532
เซ็นเซอร์ 532
แตะ 532
Young 531
คัม@@ 531
จัส 531
ด้าย 531
มีชัย 531
สื่อสารมวลชน 531
เป็นธรรม 531
โคราช 531
ควร@@ 530
จ๊ก 530
ตกหลุมรัก 530
ประหลาดใจ 530
ผู้ตาย 530
ผู้ประพันธ์ 530
มะละ@@ 530
ลองจิจูด 530
วัติ 530
โล่ง 530
กรับ 529
คิล 529
คู่รัก 529
ฉับพลัน 529
ตบ 529
ตับ@@ 529
บาล@@ 529
ปรับอากาศ 529
รัตนา 529
ล้วนแต่ 529
หมุ@@ 529
อาเจียน 529
ั่น 529
เครียด 529
เทิง 529
เสียสละ 529
เอี่ยม 529
2459 528
ตูม 528
ผู้ยิ่งใหญ่ 528
ยล 528
ราชการ@@ 528
รีฟ 528
ลาดพร้าว 528
ลาภ 528
วอล์ค 528
เกลี้ยง 528
เกี่ยวเนื่อง 528
เทียร 528
์บง 528
Di@@ 527
Michael 527
per@@ 527
ครับ 527
ความชำนาญ 527
ความยากลำบาก 527
จันทรา 527
ดุร้าย 527
น.@@ 527
ป๋อง 527
ลุกฮือ 527
สโลวีเนีย 527
ี้ยน@@ 527
เข้าที่ 527
เนียล 527
เบียน@@ 527
เสือดาว 527
2466 526
คงตัว 526
จับสลาก 526
ซัมซุง 526
ติ้ง 526
ปิย 526
ฟื้นตัว 526
รุต 526
อุซเบกิสถาน 526
เอ็สเอ็ส 526
แบร์ก 526
แผ่@@ 526
แวดล้อม 526
โน้มถ่วง 526
ไบร 526
WBC 525
ir@@ 525
งุ@@ 525
ญญากาศ 525
ดูด@@ 525
ท่าที 525
มหกรรม 525
หนุ่มสาว 525
ออริกอน 525
อัยกา 525
ูกิ 525
เกรง@@ 525
เยีย 525
เอิร์น 525
แฟมิ@@ 525
แล็ก@@ 525
แอนดรอยด์ 525
็ป 525
่งข@@ 525
Records 524
คู่มือ 524
ตุ่ม 524
บำเพ็ญกุศล 524
ป้อง 524
พลี@@ 524
พันธุ 524
มนตรี@@ 524
ลิบ 524
ลิป@@ 524
ลี้ 524
สงกรานต์ 524
สระน้ำ 524
เคือง 524
เจนีวา 524
เนบิวลา 524
แวมไพร์ 524
ใคร@@ 524
2465 523
งิ้ว 523
ตรร@@ 523
ตระหนักถึง 523
ธุดงค์ 523
ผสาน 523
ฝีปาก 523
สมิ@@ 523
หนาว@@ 523
หิมาลัย 523
อร์ท 523
อากร 523
อุดร 523
อเรชั่น 523
เกี่ยว@@ 523
เจ็บปวด 523
เซี่ย 523
เบก 523
แซลมอน 523
โยกย้าย 523
ไซบีเรีย 523
กรอ 522
กัณ@@ 522
ครึ่ง@@ 522
ญั@@ 522
พุทธศาสนิกชน 522
ราชสันตติวงศ์ 522
ลเฮ็ล์ม 522
สัท@@ 522
ิ่น@@ 522
เฉียง 522
เป็นต่อ 522
แดง@@ 522
115 521
การบัญชี 521
คอล@@ 521
ค้อน 521
น้ำผึ้ง 521
บันทึก@@ 521
บิดเบ@@ 521
วัฒนะ 521
หายนะ 521
อุรุกวัย 521
เนน@@ 521
เอกฉันท์ 521
แขวนนวม 521
โดยปริยาย 521
ไร้สาย 521
Mon@@ 520
Night 520
Rock 520
กล้วยไม้ 520
กษา 520
คนพิการ 520
จิตต์ 520
ชำ 520
ณิ 520
นิธิ 520
นิ่ม 520
ปัญจ 520
ภาย@@ 520
ยุโรปตะวันตก 520
สเก็ต 520
หลงเหลือ 520
เจิน 520
Of 519
การจลาจล 519
การชน 519
ก้านใบ 519
ขนนก 519
ขวาน 519
คชั่น 519
ความดูแล 519
จก 519
ฉีก 519
ซิว 519
ฐานันดรศักดิ์ 519
ศิลาจารึก 519
เผา@@ 519
List 518
all 518
ข่า 518
คร 518
ปลอมตัว 518
มื้อ 518
รีส@@ 518
หมดสัญญา 518
อารมณ์@@ 518
ือน@@ 518
เก็บเกี่ยว 518
เข้าออก 518
เจาะจง 518
เฉลิมพระชนมพรรษา 518
เตรียมตัว 518
เป็นระยะ 518
เพนกวิน 518
แอลฟา 518
ไง 518
Robert 517
ory 517
การสูญพันธุ์ 517
ชะลอ 517
ดีใจ 517
ตติ 517
ธิราช@@ 517
นอนหลับ 517
ยุ่ง 517
รถไฟ@@ 517
วันสุดท้าย 517
หน้าผา 517
ฮัมหมัด 517
เท่าที่@@ 517
ไขว@@ 517
คมชัด 516
ครุศาสตร์ 516
ดุก 516
ตึง 516
ถิ@@ 516
ทะเลาะ 516
พฤติ 516
รัฐบาล@@ 516
วชิราวุธ 516
ศิลปะการแสดง 516
ออฟฟิศ 516
อาคาร@@ 516
เส้นผ่าศูนย์กลาง 516
แปรสภาพ 516
แมกซ์ 516
ในการนี้ 516
1929 515
teams 515
กระท่อม 515
ความเคลื่อนไหว 515
จุดตัด 515
ดำเนินกิจการ 515
ตรรก@@ 515
ประสม 515
ผิวขาว 515
ฟันดาบ 515
รณา 515
ราศ 515
ฤต 515
ลูกโทษ 515
สุริยคติ 515
เปลือย 515
เวลากลางวัน 515
2440 514
กังฟู 514
ง" 514
ติ่ง 514
ลส 514
วินิ@@ 514
หลุมดำ 514
เซอร์@@ 514
เสียงดัง 514
7,000 513
Thai 513
ซานฟรานซิสโก 513
ซูเปอร์@@ 513
ฏิ 513
ทุ่มเท 513
นามธรรม 513
ประมาท 513
ปิดกั้น 513
ลูกบอล 513
ษฐ 513
เกียรตินิยม 513
เหวียน 513
แยง@@ 513
แรงจูงใจ 513
แร่ธาตุ 513
First 512
กรณ์@@ 512
กีดกัน 512
ข้อดี 512
ปีมะ@@ 512
ผู้ให้ 512
มีความรู้สึก 512
อดิเรก 512
ืน@@ 512
เคียฟ 512
เชิงซ้อน 512
เฟียร์ 512
แคมป์ 512
แย้ง 512
โปรดปราน 512
ให้ผล 512
6.@@ 511
row 511
v@@ 511
กนิษฐ@@ 511
กาแล 511
คอง 511
ซีด 511
พลังงานไฟฟ้า 511
มลพิษ 511
ยึดถือ 511
ยูเรเนียม 511
ลงตัว 511
หุ้ม@@ 511
เฟิร์@@ 511
เส้าหลิน 511
แพ็ก 511
แรงกดดัน 511
โหนด 511
1904 510
กระแสเลือด 510
กัลยา 510
ขับขี่ 510
บ้า@@ 510
ประการหนึ่ง 510
ประจำวัน 510
พอล@@ 510
พิษ@@ 510
สมุน 510
เจ้าสาว 510
แกมมา 510
แสวง 510
์กอ@@ 510
di 509
กลุ่มย่อย 509
ทรงอิทธิพล 509
มัณฑ@@ 509
รวบ 509
ศิลา@@ 509
ส่องสว่าง 509
อาชญากร 509
เขียนจดหมาย 509
แต่ต้น 509
โพรโท@@ 509
การคุม 508
การชัก 508
ช็อก 508
ซัย@@ 508
ซามัว 508
นินเทนโด 508
ฟะฮ์ 508
มานะ 508
มิ่ง 508
ม่อน 508
ราชบัณฑิตยสถาน 508
ราชิ 508
ราตรี 508
หยิน 508
ูด@@ 508
เครื่องหมาย@@ 508
เคี้ยว 508
เพื่อนร่วม@@ 508
แท้ง 508
แลร์ 508
ข้อย@@ 507
คนใด 507
ชง 507
ดูดซับ 507
ทิวทัศน์ 507
นับ@@ 507
น้อง@@ 507
พระราชดำรัส 507
พิพิธ 507
มีหน้า 507
ยมราช 507
รัน@@ 507
สมั@@ 507
อ.@@ 507
เต็มใจ 507
เสียงสระ 507
เหม็ด 507
แวะ 507
โปรดเกล้าโปรดกระหม่อม 507
ไค@@ 507
2464 506
IV 506
had 506
กระทำความผิด 506
กันต@@ 506
ความถูกต้อง 506
งานเทศกาล 506
ชาม 506
ซารา@@ 506
บุหรี่ 506
พส์ 506
ระบำ 506
ล้า 506
สังฆ 506
สุต 506
สแกนดิเน@@ 506
อดุ@@ 506
เลดี้ 506
เลี้ยงลูก 506
เล่า@@ 506
เวิร์คพอยท์ 506
แม่พระ 506
โตร@@ 506
้ก 506
Cor@@ 505
Project 505
คาม 505
จาบ 505
ตวน 505
ต่อเรือ 505
บ๊@@ 505
ปริมาณน้ำฝน 505
ฟิน@@ 505
ลัตเวีย 505
วม 505
หนองน้ำ 505
หย่ง 505
เชื้อโรค 505
เร่ 505
โดด 505
โผน 505
การคลัง 504
ขนง 504
จำนวนจริง 504
นี่@@ 504
นึกถึง 504
นเสียง 504
มีผลบังคับใช้ 504
มือถือ 504
มูฟ@@ 504
ยานยนต์ 504
ลักษณะพิเศษ 504
ศักดิ 504
ห้องน้ำ 504
เกียจ 504
เดียม 504
แล้วไป 504
.ศ. 503
2449 503
=@@ 503
sh@@ 503
ดาวพฤหัสบดี 503
ติณ 503
บาดาล 503
ลุกขึ้น 503
วโรกาส 503
หมดสิ้น 503
อนัน@@ 503
อึ@@ 503
เจ๋อ 503
ä 502
กลด 502
ตุร@@ 502
ปราศรัย 502
ปริญญาบัตร 502
ปิศาจ 502
พักตร์ 502
พัช 502
ยกขึ้น 502
ลิเก 502
แนม 502
od@@ 501
ข้าราชการพลเรือน 501
จุดอ่อน 501
ตัล 501
ทันทีที่ 501
ปัจ@@ 501
ปี่@@ 501
ศึ@@ 501
อาจารย์ใหญ่ 501
เพ็ง 501
ความสงบเรียบร้อย 500
ด้วยมือ 500
ทัณฑ์ 500
ประณ@@ 500
ประเวณี 500
ล้มลุก 500
สตีเวน 500
สังคายนา 500
สาทร 500
สิงห์บุรี 500
อุทัยธานี 500
อ่านหนังสือ 500
เบิล@@ 500
เวีย@@ 500
แข่ง@@ 500
te 499
กข@@ 499
ทุม 499
ปารากวัย 499
มัธยมต้น 499
ร่ว@@ 499
ออล 499
อากาศ@@ 499
เมียม 499
De@@ 498
codice 498
กางเกง 498
คนขับ 498
จีโนม 498
จี๋ 498
ดาวบริวาร 498
ถาง 498
ทิพ 498
ปล่อย@@ 498
มหาวิทยาลัยรังสิต 498
มเป@@ 498
รีม 498
ศ์ 498
หวั@@ 498
เมล์ 498
เวก 498
เสมอภาค 498
เอล@@ 498
1921 497
ka 497
ong 497
คันจิ 497
ผาก 497
พระตะบอง 497
พฤตินัย 497
วัช 497
สมุด@@ 497
สัย@@ 497
อื้อฉาว 497
เบญจม@@ 497
เป็นพื้น 497
เพลา 497
135 496
IS@@ 496
Tr@@ 496
We 496
ชี่ 496
ซอ@@ 496
ตี้@@ 496
ปศุสัตว์ 496
พาร์ค 496
มหาวิทยาลัยสงขลานครินทร์ 496
ยกกำลัง 496
ย้ง 496
ลาดกระบัง 496
สำเภา 496
สิรินธร 496
หมอ@@ 496
เปลี่ยนตัว 496
่อย@@ 496
大@@ 496
Club 495
Hall 495
ขั้นต้น 495
ความจงรักภักดี 495
งานฉลอง 495
จอตา 495
จิตรลดา 495
จิ้ง@@ 495
ชว@@ 495
บัณฑิตศึกษา 495
มณเฑ@@ 495
แตร์ 495
โบลิเวีย 495
ไอศ@@ 495
2454 494
Bo@@ 494
การอบรม 494
ของเสีย 494
คาบ@@ 494
ชั่ง 494
ดน้ำ 494
ดอน@@ 494
บังคับการ 494
พระเกียรติ 494
พึงพอใจ 494
ม" 494
หะ@@ 494
อุก@@ 494
ฮ็อล@@ 494
ัล 494
เฮอร์เซโกวีนา 494
โกรธ@@ 494
โลโก้ 494
2458 493
กษ@@ 493
การครอบครอง 493
ขนส่งสินค้า 493
ตฺ 493
ธาดา 493
นัท 493
ประจำสัปดาห์ 493
ผู้อ@@ 493
วิบูลย์ 493
สมาชิกรัฐสภา 493
เผือก 493
เศร้า@@ 493
23.@@ 492
AT@@ 492
ella 492
ฐานัน@@ 492
ปริมาณมาก 492
เจริญพันธุ์ 492
เรณู 492
โกแลต 492
ใช้จ่าย 492
2451 491
HD 491
ฆาตกร 491
ญจน 491
ผิวดำ 491
มัชฌ@@ 491
หน่อย 491
เปีย@@ 491
แมรี่ 491
anti@@ 490
inae 490
กฤษฎีกา 490
ขยายอำนาจ 490
ฉาย@@ 490
ชวน@@ 490
ชาด 490
ตรอน 490
ท่านหญิง 490
นีเซีย 490
บาด@@ 490
ฮวน 490
เตา@@ 490
แสงแดด 490
ไดรฟ์ 490
1925 489
220 489
กามา 489
ถวายตัว 489
ที่สาธารณะ 489
ปิ้ง 489
ยึดมั่น 489
ริน@@ 489
สัมพัทธภาพ 489
อัมพาต 489
เปิดฉาก 489
State 488
กวาดต้อน 488
การขับ 488
กุก 488
ก้าวร้าว 488
ซุก 488
ตั้งต้น 488
ทวิตเตอร์ 488
ร่วมวง 488
ลงคะแน@@ 488
วิจัยและพัฒนา 488
อัส@@ 488
เม็ก 488
เลี้ยว@@ 488
แขน@@ 488
Windows 487
กรรมาธิการ 487
กลบ 487
คริสต์ศาสนิกชน 487
นิก 487
ฝ่ามือ 487
พก@@ 487
รับทุน 487
วัส@@ 487
เนลล์ 487
เบื้อง 487
แก้ม 487
14@@ 486
1926 486
acid 486
กาญจน์ 486
ตำรับ 486
ทำความเข้าใจ 486
ที่ย@@ 486
ภาวะแทรกซ้อน 486
มาตุ@@ 486
ศิลาแลง 486
สาธารณูปโภค 486
โทรม 486
ไนล์ 486
ไวโอ@@ 486
("@@ 485
1.6 485
are 485
me 485
คำกล่าว 485
ดักลาส 485
ประสบอุบัติเหตุ 485
ประสานเสียง 485
ฝืน 485
ฝูง@@ 485
วาร์ด 485
สรวง 485
เที่ยง@@ 485
แวดวง 485
โอบ@@ 485
์ช 485
116 484
ต้า@@ 484
ลูกยาเธอ 484
สุนทรพจน์ 484
ห้องประชุม 484
อันนา 484
โจทก์ 484
David 483
การยุติ 483
ขึ้นบก 483
ข้อง 483
คณะสถาปัตยกรรมศาสตร์ 483
ซ่อม@@ 483
ตกหนัก 483
สังคมสงเคราะห์ 483
สัมพันธมิตร 483
อุ้ม 483
เสฉวน 483
แช่ 483
MO@@ 482
กระเบื้อง@@ 482
กาญจนาภิเษก 482
ขั้นต่ำ 482
ดุจ 482
มาร์กาเร็ต 482
มิลลิ@@ 482
ลำโพง 482
หัวเราะ 482
–@@ 482
US 481
ฉือ 481
ตั้งคำถาม 481
ติดตัว 481
ทำตัว 481
รักบี้ 481
ิร์ล 481
เรียลลิ@@ 481
เส้นศูนย์สูตร 481
โฆ 481
โปรแกรม@@ 481
้วน 481
การเดินเรือ 480
กูด 480
ตัดผ่าน 480
ท่อง 480
ผลัก 480
ผู้ชนะเลิศ 480
พระชนมพรรษา 480
ภัค 480
รวน 480
ศัตรู@@ 480
ศ์@@ 480
ฮอลแลนด์ 480
แซค 480
แวนต์ 480
9.@@ 479
ie 479
กต 479
กษา@@ 479
กองร้อย 479
กำมะ@@ 479
ชายเลน 479
บัว@@ 479
ปลาย@@ 479
รอบตัว 479
สืบราชสมบัติ 479
ส่ว@@ 479
ออม 479
อาจารย์@@ 479
เรือใบ 479
League 478
Per@@ 478
White 478
กายภาพ 478
ทำนองเดียวกัน 478
ปปี้ 478
ปราการ 478
พรุ 478
พันตรี 478
สุม 478
เฉียน 478
เซา@@ 478
โฟล์@@ 478
กรุ@@ 477
ฆราวาส 477
ดง@@ 477
ดีไซน์ 477
ภาคพื้น 477
มพล 477
ยุ่งยาก 477
รังสรรค์ 477
รูม 477
ศรั@@ 477
อัศจรรย์ 477
ฮานอย 477
เกล้า@@ 477
เร้า 477
1931 476
Festival 476
Miss 476
age 476
ical 476
ชีวิ@@ 476
ต่อเวลา 476
บางท่าน 476
ยูง 476
หริ@@ 476
์ฟ 476
"ส 475
Is 475
St@@ 475
WWF 475
คล่องแคล่ว 475
บรรพ 475
ภาษาราชการ 475
มุข@@ 475
รอบนอก 475
ศอ 475
เกร็ง 475
ในกรณีนี้ 475
-- 474
1906 474
BO@@ 474
Ne@@ 474
Paul 474
กฏ 474
ไฮโดร@@ 474
ขบวน@@ 473
ผู้ต้องหา 473
พิมล 473
สิ่งประดิษฐ์ 473
อำพัน 473
เวกัส 473
un 472
คนดี 472
ประตูชัย 472
เลอร์ 472
แต่แรก 472
im@@ 471
คืบ@@ 471
จุลทรรศน์ 471
พอก 471
รามคำแหง 471
สแกน 471
เร่งด่วน 471
แน่น@@ 471
แอ็@@ 471
1923 470
กวน@@ 470
นึก 470
รวจ@@ 470
รองหัวหน้า 470
เณ@@ 470
โซะ 470
ธรร@@ 469
พริก@@ 469
เสริม@@ 469
โคล@@ 469
0,@@ 468
2452 468
Se@@ 468
bi@@ 468
การะ 468
อุมา 468
ั้ง@@ 468
13.@@ 467
13@@ 467
be 467
ขอบฟ้า 467
โสม@@ 467
ak@@ 466
par@@ 466
มะขาม 466
วบ@@ 466
อาระเบีย 466
เกลียดชัง 466
เข้ารหัส 466
เลือก@@ 466
แบบฉบับ 466
แหง 466
10,@@ 465
2445 465
ica 465
ดิโอ 465
มัก@@ 465
มัว 465
ยับ@@ 465
สำเน@@ 465
สือ 465
องุ่น 465
ep@@ 464
you 464
สท 464
หย่า@@ 464
ี้ยง 464
เมอ@@ 464
็อกซ์ 464
103 463
Charles 463
Network 463
cortex 463
oph@@ 463
กง@@ 463
กอน 463
ศึกษา@@ 463
กระทำ@@ 462
นิเวศ@@ 462
ป๊@@ 462
ละเม@@ 462
เซ็ก 462
เดิ@@ 462
เหง@@ 462
เหมย 462
2462 461
General 461
กวี@@ 461
ควบ@@ 461
แท้@@ 461
AL@@ 460
CT 460
แทรก@@ 460
ไบร@@ 460
Company 459
Cup 459
States 459
TNA 459
syndrome 459
ตะวันออก@@ 459
ทวี@@ 459
พล.ต.อ. 459
ลื้อ 459
้าย@@ 459
re 458
กำลังกาย 458
ฟิส 458
เฟรด 458
Girls 457
He@@ 457
กระเป@@ 457
อาณา@@ 457
โคตร 457
26@@ 456
ad 456
สละ@@ 456
George 455
TH@@ 455
ชัน@@ 455
ทรัมป์ 455
๙@@ 455
1927 454
7.5 454
Blue 454
able 454
ak 454
กะโหล@@ 454
กายวิ@@ 454
ด้าน@@ 454
2447 453
Prince 453
il@@ 453
คั่ง 453
ยธรรม 453
ศีล@@ 453
เนื่อง@@ 453
4.5 452
ER 452
ma 452
เท็@@ 452
๘@@ 452
106 451
UN@@ 451
ist 451
ณุ 451
พัทธ@@ 451
แล้ว@@ 451
2444 450
po@@ 450
ขด@@ 450
บอด 450
วัฒ@@ 450
time 449
นิพพาน 449
ียม@@ 449
Final 448
บ่อย@@ 448
แขวน@@ 448
จะ@@ 447
พลเรือ@@ 447
ยากลำบาก 447
ส่อง@@ 447
NE@@ 446
York 445
ริยะ 445
Be 444
Don 444
ล่ม 444
เกีย@@ 444
1896 443
NXT 443
cor@@ 443
ro@@ 443
จันทน์ 443
ตเตอร์ 443
Your 442
line 442
บว@@ 442
ศัพ@@ 442
109 441
Mr 441
ปิฎก 441
อิง@@ 441
320 440
สัมพัทธ@@ 440
สาป 440
102 439
group 439
ะฮ์ 439
Arts 438
Master 438
River 438
model 438
st@@ 438
คื@@ 438
ผ 438
วด@@ 438
อาวุ@@ 438
เฮา@@ 438
1890 437
ฆา@@ 437
ดก 437
40,000 436
ta 436
กิสถาน 436
ธรณี@@ 436
สมเด็จ@@ 436
1.8 435
15.@@ 435
Media 435
Society 435
รวง 435
หนอง@@ 435
แท็ก@@ 435
1905 434
1915 434
ū 434
ติฐาน 434
ลาส@@ 434
สมมุ@@ 434
ob@@ 433
ฐิ 433
ทองค@@ 433
ื้อน 433
li@@ 432
ดิ์ 432
117 431
30@@ 431
ara 431
scope 431
ดำเนิน@@ 431
นอน@@ 431
ปราชญ์ 431
เสบ 431
WBA 430
ข้างมาก 430
ปฐ@@ 430
ก็ดี 429
ซิสต์ 429
มั่งคั่ง 428
เมิน 428
osis 427
บาท@@ 427
แนล 427
Ad@@ 426
ing@@ 426
world 426
นามัย 426
นึก@@ 426
ชด@@ 425
นิจ 425
*@@ 424
disorder 424
อุบัติ@@ 424
Queen 423
ห่าง@@ 423
DNA 422
Research 422
up 422
นติ@@ 422
ประท@@ 422
สโต@@ 422
เภสั@@ 422
เวช@@ 422
กาก 421
จันท@@ 421
‍ 421
ขัน@@ 420
ฮอน@@ 420
1907 419
300,000 419
Heart 419
Story 419
Up 419
บิด@@ 419
ื้อย@@ 419
15,000 418
2,500 418
ชน์ 418
ยนต@@ 418
หรา 418
ฮิน@@ 418
แฝ@@ 418
1.3 417
11.@@ 417
2439 417
Little 417
ก้าว@@ 417
เกษ@@ 417
1913 416
ang@@ 416
ans 416
ผลิต@@ 416
เที่ย@@ 416
750 415
des 415
ธยา 415
สวัสดิ@@ 415
Good 414
South 414
ซุง 414
ูป@@ 414
170 413
neur@@ 413
ถัมภ์ 413
น้อย@@ 413
พลตำรวจ@@ 413
รื้อ@@ 413
วิวัฒ@@ 413
แทก 413
Prec@@ 412
von 412
ประส@@ 412
ระหว่าง@@ 412
รี้ยว 412
007 411
og@@ 411
oid 411
ซึ้ง 411
ไหล@@ 411
17.@@ 410
1916 410
Act 410
นิน@@ 410
107 409
PC 409
ig@@ 409
งคา@@ 409
ยม@@ 409
ยาน@@ 409
วล 409
เทียบ@@ 409
Boy 408
Council 408
no@@ 408
non@@ 408
คอง@@ 408
ธิเบ@@ 408
สัตย์ 408
โทรศัพท์@@ 408
โหน@@ 408
12@@ 407
name 407
tri@@ 407
ลึ@@ 407
โภค 407
5.5 406
ผืน@@ 406
ผู้เข้า@@ 406
สิบ@@ 406
โดด@@ 406
As@@ 405
Pro@@ 405
บดิน@@ 405
เหล่า@@ 405
้ล 405
้วย 405
AN@@ 404
CA@@ 404
China 404
ī 404
กีด@@ 404
ยอร์@@ 404
วัต@@ 404
ิว@@ 404
เคลื่อน@@ 404
UTC 403
กระหม่อม 403
ัติ 403
114 402
tr@@ 402
กล้าม@@ 402
บพิ@@ 402
ฮอล@@ 402
เคราะ@@ 402
2441 401
Last 401
Technology 401
ve 401
คุก@@ 401
ดีไซ@@ 401
นต่อ 401
พิวเตอร์ 401
หมุน@@ 401
… 401
127 400
East 400
เซล 400
English 399
Who 399
car@@ 399
of@@ 399
จุก 399
ราชทูต 399
สังฆราช 399
อิตา@@ 399
แฟน@@ 399
14.@@ 398
2448 398
ฉี@@ 398
ใฝ@@ 398
British 397
्@@ 397
ถึงแก่@@ 397
ธั@@ 397
ยาก@@ 397
รวด 397
เปรีย@@ 397
12.@@ 396
Golden 396
Hello 396
Model 396
พลาส@@ 396
สถ 396
หมู่@@ 396
๊ป 396
2435 395
Generation 395
OS 395
Or@@ 395
sub@@ 395
มง@@ 395
WCW 394
มุ่งหมาย 394
สมณ@@ 394
ืน 394
Air 393
SO@@ 393
end@@ 393
นาท 393
ลอบ@@ 393
เภท 393
2436 392
Asian 392
Lee 392
London 392
True 392
วิถี@@ 392
Com@@ 391
Le@@ 391
tion 391
ฤษ@@ 391
วิน@@ 391
แอนิเม@@ 391
atus 390
ต.@@ 390
เณร 390
ไธ@@ 390
1,200 389
IC@@ 389
้อำนาจ 389
SP@@ 388
ปาล 388
มุก@@ 388
ั่ง 388
เกษตรศาสตร์ 388
เป้า@@ 388
ISO 387
Kingdom 387
Man@@ 387
ics 387
ยำ 387
โคลัม@@ 387
language 386
ปราคา 386
พาส 386
123 385
Men 385
RE@@ 385
ura 385
ด้วยเหตุ@@ 385
พระเจ้า@@ 385
อนด์ 385
ูก@@ 385
เกส 385
เบต 385
104 384
2442 384
Women 384
pr@@ 384
คิว@@ 384
จญ@@ 384
ผู้แทน@@ 384
ศิล@@ 384
10.@@ 383
1800 383
Dis@@ 383
GN 383
MRI 383
se@@ 383
tive 383
คุ้ม@@ 383
ยนต์ 383
ริยา@@ 383
ลลิ@@ 383
15@@ 382
1870 382
Inc 382
RO@@ 382
pre@@ 382
แฮร์@@ 382
Bangkok 381
นต้น 381
ยาม@@ 381
រ@@ 381
CYP 380
DS 380
Dream 380
NWA 380
Open 380
that 380
สติก 380
ิต@@ 380
ไปรษณ@@ 380
イ@@ 380
1860 379
Bar@@ 379
Go 379
Special 379
song 379
คล่อง@@ 379
นงาน 379
Be@@ 378
Business 378
Dr 378
atic 378
ตถ@@ 378
1889 377
Game 377
ei 377
สด@@ 377
โปรเจ@@ 377
1871 376
40@@ 376
Program 376
Thomas 376
เซ็นทรั@@ 376
เยี่ยม@@ 376
12,@@ 375
121 375
Super@@ 375
yl@@ 375
จอม@@ 375
ชนี 375
ศิษ@@ 375
เรียก@@ 375
Home 374
Tag 374
ng@@ 374
ri@@ 374
this 374
33@@ 373
๗@@ 373
THE 372
TO@@ 372
จัน@@ 372
ชัด@@ 372
son 371
นาม@@ 371
าก@@ 371
do 370
ra 370
Br@@ 369
PS 369
Peter 369
ú 369
นเร@@ 369
พิว@@ 369
มวลชน 369
แปลง@@ 369
People 368
their 368
tis 368
ดาห์ 368
แจก@@ 368
แฉ@@ 368
1901 367
West 367
Pre@@ 366
ion 366
um@@ 366
ฉั@@ 366
1.4 365
Le 365
our 365
ted 365
ปราย 365
วาย@@ 365
วาส@@ 365
หน่าย 365
ฬา@@ 365
25,000 364
ac 364
ani 364
{ 364
£ 364
กัม@@ 364
ดรา@@ 364
มเปญ 364
เฮอร์@@ 364
1,4@@ 363
113 363
ER@@ 363
ภิเษก 363
BF 362
ah@@ 362
ความถ@@ 362
พร้าว 362
ลัง@@ 362
ั 362
เสพติด 362
Green 361
Richard 361
Ro@@ 361
ดื่@@ 361
16@@ 360
1880 360
จูด 360
Am@@ 359
ne 359
side 359
ดัง@@ 359
บัล@@ 359
หยิ@@ 359
เอิ@@ 359
12,000 358
Chart 358
Tour 358
ee 358
ne@@ 358
ular 358
ซาน@@ 358
ประมาณ@@ 358
ระนา@@ 358
วาด@@ 358
โองการ 358
11,@@ 357
2446 357
330 357
Dance 357
series 357
กัว@@ 357
กำเ@@ 357
ตตา@@ 357
ทัย@@ 357
บรมราช@@ 357
ลิก@@ 357
ศรีนคริน@@ 357
สาวรีย์ 357
หม 357
เฮ็@@ 357
What 356
mo@@ 356
กูล 356
สะเท@@ 356
ออน@@ 356
ิบ 356
ati@@ 355
not 355
ok 355
คล้อง 355
มณฑ@@ 355
ออกซิ@@ 355
แม้@@ 355
1898 354
CH@@ 354
sa 354
จร@@ 354
ติศาสตร์ 354
ทน@@ 354
บอล@@ 354
ย้อน@@ 354
รรมศาสตร์ 354
สหภาพ@@ 354
240 353
วิพา@@ 353
Mo@@ 352
จินต@@ 352
สุนั@@ 352
แก๊@@ 352
118 351
AD 351
Island 351
News 351
1,8@@ 350
For 350
Street 350
ti 350
คล้าย@@ 350
บรรทั@@ 350
แซน@@ 350
่อม@@ 350
Dragon 349
Inter@@ 349
ทรี 349
ฤษ 349
สาหัส 349
หญ@@ 349
เกา@@ 349
1909 348
2310 348
2400 348
27@@ 348
AP 348
IM@@ 348
ay 348
eg@@ 348
ni 348
sp@@ 348
ประวัติ@@ 348
ศรีนคริ@@ 348
Hot 347
mon@@ 347
ter@@ 347
­@@ 347
เพื่อ@@ 347
2430 346
RA@@ 346
sel@@ 346
α 346
จิตร@@ 346
ริช 346
รู้ส@@ 346
AC@@ 345
AT 345
America 345
Class 345
Si@@ 345
Str@@ 345
ence 345
บันดา@@ 345
ยส์ 345
ฤดู@@ 345
17@@ 344
AKB 344
AM 344
Global 344
Princess 344
Union 344
disease 344
receptor 344
กุญ@@ 344
จริต 344
าว 344
1500 343
190 343
SS 343
Sea 343
ance 343
ly 343
team 343
กรณียกิจ 343
ถ่วง 343
มด@@ 343
สงค์ 343
128 342
Bal@@ 342
Sp@@ 342
du 342
state 342
กิโล@@ 342
ดึง@@ 342
ถอด@@ 342
ฤษฎ@@ 342
1903 341
RNA 341
Season 341
Tokyo 341
ou 341
te@@ 341
ร่าง@@ 341
1902 340
Po@@ 340
eb@@ 340
กลายพันธุ์ 340
การณ์@@ 340
ขย@@ 340
ศั@@ 340
Ge@@ 339
É 339
กาญ@@ 339
ตอ@@ 339
นอร์@@ 339
มิว@@ 339
2.2 338
Concert 338
FM 338
This 338
center 338
คลาน 338
ซ็อน 338
Su@@ 337
กาพย์ 337
นิสถาน 337
ฟื้น@@ 337
ศาสตร์@@ 337
ในทาง@@ 337
000 336
Qu@@ 336
Video 336
ครร@@ 336
ือบ 336
ๅ 336
1,6@@ 335
az@@ 335
ฟิก 335
ยาท 335
เอิร์@@ 335
Episode 334
Power 334
Ser@@ 334
สาบ 334
เข้ 334
แรก@@ 334
126 333
Google 333
LE@@ 333
Management 333
Republic 333
หม่อม@@ 333
เชื่อถือ 333
13,@@ 332
1895 332
Digital 332
il 332
มอร์ 332
ศิลปะ@@ 332
อัญ@@ 332
เดชา 332
แหน@@ 332
้วน@@ 332
2.4 331
European 331
MP@@ 331
Space 331
X- 331
ini 331
กุระ 331
Chinese 330
ong@@ 330
มีผล@@ 330
ร่ำ@@ 330
สะเก@@ 330
1.1 329
230 329
if 329
kh@@ 329
กราบ@@ 329
เต็ด 329
ns 328
กระดา@@ 328
ル@@ 328
AM@@ 327
Ph@@ 327
San 327
ha 327
ç 327
สูญ@@ 327
าก 327
ียล 327
..@@ 326
9,000 326
คลาส@@ 326
จำแน@@ 326
ฉัน@@ 326
เซ็นต์ 326
เปรียบ@@ 326
1,9@@ 325
Bi@@ 325
El@@ 325
MP 325
alism 325
ath@@ 325
ox@@ 325
พึง@@ 325
อุลตร@@ 325
โศ@@ 325
ไทน์ 325
Duke 324
ระย@@ 324
เชล@@ 324
DVD 323
VS 323
อรีน 323
14,@@ 322
1888 322
34@@ 322
poly@@ 322
they 322
ข้น 322
ญญา@@ 322
1899 321
AB@@ 321
Bank 321
Har@@ 321
RS 321
ス@@ 321
1868 320
210 320
Central 320
Corporation 320
Health 320
MS 320
Out 320
member 320
กระจาย@@ 320
6.5 319
Foundation 319
ME@@ 319
and@@ 319
ถุ@@ 319
มน์ 319
มหาดไทย 319
มาภิไธย 319
สนุก@@ 319
00@@ 318
1815 318
MHz 318
Tri@@ 318
pH 318
กรรมา@@ 318
มาดา@@ 318
หญิง@@ 318
เดช@@ 318
Line 317
SM@@ 317
Te@@ 317
กัป@@ 317
ดราก@@ 317
น้ำฝน 317
ไห้ 317
天@@ 317
1893 316
Airport 316
DA 316
Do@@ 316
MA 316
ik@@ 316
ตูน 316
ลิง@@ 316
ุก@@ 316
1.7 315
122 315
1830 315
1867 315
Billboard 315
Lady 315
ach@@ 315
em 315
ji 315
ς@@ 315
จาร@@ 315
IS 314
ge 314
ถง 314
นรี 314
สมเด็จพระเจ้า@@ 314
สเตอร์@@ 314
เลม 314
…@@ 314
ラ@@ 314
1,5@@ 313
est 313
ko 313
ō@@ 313
งก์ 313
นบุรี 313
ื่อน 313
แกร่ง 313
// 312
60,000 312
oma 312
ขี@@ 312
เปอร์@@ 312
28@@ 311
Education 311
ization 311
land 311
van 311
ค่อน@@ 311
ลื@@ 311
เบิก 311
1848 310
Bur@@ 310
Channel 310
art 310
ge@@ 310
จะเป็น 310
บุก@@ 310
พลิ@@ 310
ราะ@@ 310
วิสุ@@ 310
1897 309
God 309
RI@@ 309
protein 309
ประจำทาง 309
ปราบ@@ 309
ผู้แทนราษฎร 309
มั่น@@ 309
หวาด@@ 309
โดยตลอด 309
Empire 308
Service 308
TE@@ 308
quot 308
ตแลนด์ 308
ประธาน@@ 308
ภาษ@@ 308
เป็นอัน@@ 308
str@@ 307
แพ้@@ 307
Anti@@ 306
DS@@ 306
inal 306
nerve 306
子@@ 306
29@@ 305
Cal@@ 305
Henry 305
IP 305
Pop 305
gen@@ 305
20.00 304
Apple 304
Ma@@ 304
North 304
con@@ 304
ung 304
â 304
บัญญ@@ 304
สิริกิติ์ 304
หยัด 304
ា@@ 304
บอร์@@ 303
บุ๊ก 303
อธิ@@ 303
เซล@@ 303
่วย 303
000,@@ 302
CE@@ 302
Legend 302
Sub@@ 302
Times 302
formes 302
sive 302
ting 302
ซ่อน@@ 302
ตุ๊ก@@ 302
ปราช@@ 302
เยา@@ 302
เว็บ@@ 302
่าว@@ 302
124 301
Law 301
Order 301
Way 301
man@@ 301
บูรณา@@ 301
ละเอ@@ 301
ี่ยว@@ 301
Marvel 300
bo@@ 300
ดำรง@@ 300
พอย@@ 300
วินิจฉ@@ 300
สนิ@@ 300
AL 299
Ac@@ 299
DE@@ 299
Games 299
ari 299
och@@ 299
ut@@ 299
วรรณ@@ 299
สวัส@@ 299
อิเล็ก@@ 299
อุณห@@ 299
เที่ยว@@ 299
๋อง 299
280 298
Book 298
Development 298
Free 298
Me@@ 298
per 298
กระตุ@@ 298
กวาง@@ 298
น้ำเ@@ 298
ฝู@@ 298
ระลึก 298
ื่อย@@ 298
เดิม@@ 298
LO@@ 297
Road 297
als 297
cu@@ 297
muscle 297
se 297
é@@ 297
บรรณา@@ 297
Min@@ 296
My@@ 296
Nepenthes 296
align 296
สก็@@ 296
โอเพ@@ 296
band 295
my 295
out 295
จักรวรร@@ 295
ต้อน 295
สุโข@@ 295
Light 294
Mal@@ 294
function 294
trans@@ 294
yc@@ 294
· 294
ฉีด@@ 294
Cr@@ 293
Design 293
MS@@ 293
Radio 293
ci@@ 293
tic@@ 293
นซิ@@ 293
ประยู@@ 293
Album 292
CH 292
D- 292
Family 292
Mark 292
Mas@@ 292
SA@@ 292
กษ์@@ 292
ษะ 292
Edition 291
av@@ 291
ay@@ 291
ler 291
ni@@ 291
ดำ@@ 291
ศาสนิกชน 291
136 290
Ab@@ 290
Ho@@ 290
IBF 290
PD 290
ค่อย@@ 290
ปฏิบัติ@@ 290
ประดิ@@ 290
ปวง 290
ราคา@@ 290
วิทยุโทรทัศน์ 290
เลส@@ 290
Martin 289
Olympic 289
https 289
ts 289
พระองค์@@ 289
อเล็กซาน@@ 289
Band 288
Fire 288
Television 288
effect 288
ness 288
ือง@@ 288
1878 287
do@@ 287
field 287
form 287
ชฌ@@ 287
นิยม@@ 287
ปราโม@@ 287
พึ่ง@@ 287
มงค@@ 287
สินธุ์ 287
ออส@@ 287
็ 287
1885 286
2.1 286
Emperor 286
FI@@ 286
IT@@ 286
Like 286
Mer@@ 286
Ver@@ 286
ore 286
กษัตริ@@ 286
บัณฑิต@@ 286
opsis 285
ขระ 285
129 284
1600 284
18.00 284
260 284
Hy@@ 284
MTV 284
org 284
กษั@@ 284
ศว@@ 284
เสบ@@ 284
Louis 283
Mag@@ 283
Sar@@ 283
Studio 283
del 283
inter@@ 283
กัมมันต@@ 283
คณ@@ 283
งำ 283
帝@@ 283
BBC 282
Back 282
Lost 282
Public 282
ala 282
ane 282
ty 282
นอง@@ 282
1892 281
Go@@ 281
Mor@@ 281
ent@@ 281
go 281
001 280
2,0@@ 280
Her@@ 280
MM 280
aw@@ 280
ou@@ 280
ข้าราชการ@@ 280
ท่อง@@ 280
อเร@@ 280
Journal 279
Saint 279
array 279
motor 279
onic 279
ความดัน@@ 279
จิน@@ 279
145 278
1850 278
BC 278
Stadium 278
ium 278
yl 278
กางเก@@ 278
ษฐ@@ 278
1,7@@ 277
1894 277
550 277
KO@@ 277
SA 277
ton 277
กรรมการ@@ 277
กลี@@ 277
คาย@@ 277
เปื้อน 277
Kim 276
To@@ 276
ap 276
wa 276
กวม 276
ทิว@@ 276
24.@@ 275
For@@ 275
Pol@@ 275
ber@@ 275
era 275
ian 275
กลั@@ 275
ตร์ 275
PAGASA 274
alis 274
งใจ 274
บูร@@ 274
มุ่ง@@ 274
141 273
15,@@ 273
175 273
Do 273
Force 273
af@@ 273
ax 273
ex@@ 273
ทรรศน์ 273
นาญ 273
แจ๊@@ 273
—@@ 273
1,3@@ 272
1840 272
250,000 272
AP@@ 272
EN@@ 272
Old 272
Play 272
Raw 272
qu@@ 272
ประโย@@ 272
มาณ 272
Dark 271
Pro 271
ino 271
ish 271
su 271
ประเว@@ 271
Death 270
GM 270
aka 270
pro@@ 270
ē 270
กลิ่น@@ 270
ประสา@@ 270
1,000,000 269
400,000 269
ES@@ 269
Engineering 269
Social 269
gi@@ 269
node 269
nucleus 269
เนร@@ 269
Long 268
Summer 268
ade 268
ita 268
q@@ 268
ตอเรีย 268
หาร@@ 268
โหด@@ 268
็กซัส 268
1884 267
ccTLD 267
first 267
format 267
hyper@@ 267
ir 267
left 267
yr@@ 267
พวก@@ 267
ฟิลิ@@ 267
ยั้ง 267
สัป@@ 267
เจ็บ@@ 267
โน้ม@@ 267
い@@ 267
747 266
CI@@ 266
Col@@ 266
Earth 266
UK 266
edron 266
type 266
ประทับ@@ 266
ปัตย์ 266
ไดร@@ 266
150,000 265
1886 265
Joseph 265
Limited 265
Mel@@ 265
Universal 265
ale 265
ao 265
region 265
² 265
พระบรมราชานุ@@ 265
เปา@@ 265
แนะ@@ 265
1861 264
2.3 264
650 264
Gu@@ 264
Lo@@ 264
Three 264
US@@ 264
background 264
ist@@ 264
mal@@ 264
ขึ@@ 264
ผู้กำกับ@@ 264
ลุก@@ 264
สูบ@@ 264
อดิ@@ 264
เผด็@@ 264
แคลน 264
Let 263
Round 263
ess 263
he@@ 263
ov@@ 263
tin 263
มภ@@ 263
ม็อง 263
119 262
155 262
1862 262
As 262
hi@@ 262
ึกดำบรรพ์ 262
เลขา@@ 262
1.0 261
1891 261
A- 261
MC 261
PA 261
ตาร์ 261
36@@ 260
AN 260
ID 260
cer@@ 260
ran@@ 260
จรรย์ 260
ทรงคุณ@@ 260
0.1 259
1789 259
Er@@ 259
OP@@ 259
UN 259
dae 259
ides 259
ilia 259
ography 259
text@@ 259
ประติมา@@ 259
ฝาผนัง 259
1866 258
Cy@@ 258
De 258
amine 258
clue 258
fish 258
point 258
so@@ 258
รรยา 258
เฝ@@ 258
’@@ 258
DO@@ 257
FC 257
MI@@ 257
Maria 257
Pr@@ 257
chi@@ 257
ot 257
pi@@ 257
ทรีย์ 257
皇@@ 257
3.0 256
CA 256
Mac@@ 256
ates 256
ค้าน 256
หุ้น@@ 256
เรก 256
Chi@@ 255
Li 255
SC 255
Sun 255
Voice 255
block 255
istic 255
ซื่อ@@ 255
พระยา@@ 255
พล.ต.@@ 255
้วย@@ 255
165 254
Ltd 254
SS@@ 254
That 254
สะท@@ 254
หาด@@ 254
・@@ 254
Can 253
France 253
ME 253
Mah@@ 253
Sal@@ 253
ating 253
br@@ 253
oh@@ 253
ov 253
pe@@ 253
ณิช@@ 253
09.@@ 252
aki 252
be@@ 252
way 252
~@@ 252
มุฮัม@@ 252
ยี่@@ 252
สูร 252
อนุรั@@ 252
AI@@ 251
Are 251
Co 251
Gold 251
Gr@@ 251
SAR@@ 251
co 251
my@@ 251
ขั้ว@@ 251
ราชานุ@@ 251
ศาสตร@@ 251
人@@ 251
17.00 250
1814 250
80@@ 250
der@@ 250
dis@@ 250
ki 250
ก่า 250
อัจฉ@@ 250
เซียส 250
เม็กซิ@@ 250
80,000 249
Sports 249
ab 249
ley 249
next 249
） 249
3.1 248
Sciences 248
Secret 248
VI@@ 248
ek 248
su@@ 248
text 248
ิ่ม 248
李@@ 248
144 247
1864 247
340 247
Now 247
ast@@ 247
cy@@ 247
ho@@ 247
music 247
off 247
oku 247
ภ์ 247
วิสาหกิจ 247
สูงอายุ 247
365 246
4.0 246
C- 246
Car 246
Human 246
Original 246
Stone 246
ell 246
im 246
ราษฎร์@@ 246
ลัม@@ 246
สังขรณ์ 246
ี๋ย 246
เอ็นเตอร์@@ 246
เอ็ส 246
ในแง@@ 246
າ@@ 246
133 245
Ch 245
Five 245
ational 245
ey 245
factor 245
ish@@ 245
ur 245
yo 245
16,@@ 244
1863 244
CP@@ 244
Dec@@ 244
EX@@ 244
Four 244
Heavyweight 244
Online 244
ons 244
theory 244
ver@@ 244
width 244
ขนาน@@ 244
ยุ่ง@@ 244
เภา 244
NO@@ 243
Single 243
TR@@ 243
based 243
cal@@ 243
down 243
lateral 243
ทึ@@ 243
ภักดิ์ 243
อุบล@@ 243
เวท@@ 243
17,@@ 242
1887 242
380 242
ABA 242
Federation 242
Mc@@ 242
ai@@ 242
go@@ 242
mat@@ 242
memory 242
บล 242
มณ@@ 242
รวบ@@ 242
สมาชิก@@ 242
ือด 242
ูปถัมภ์ 242
เร็ง 242
ト@@ 242
1879 241
CEST 241
IC 241
Internet 241
ok@@ 241
set 241
ต่อเมื่อ 241
เลียง 241
แผ่น@@ 241
Cl@@ 240
County 240
Movie 240
Museum 240
So@@ 240
Ste@@ 240
ard 240
body 240
ins 240
oth@@ 240
return 240
ทิศ@@ 240
รณภาพ 240
ัม@@ 240
ใช@@ 240
ales 239
bu@@ 239
contributor 239
net 239
tor@@ 239
มนุษย@@ 239
โจม@@ 239
1200 238
131 238
1882 238
3.2 238
Li@@ 238
Sur@@ 238
neuron 238
pop 238
นครินทร์ 238
สถ์ 238
ียร@@ 238
เพศ@@ 238
1875 237
1877 237
1881 237
End 237
Max 237
TVB 237
WrestleMania 237
ce 237
log 237
กลาย@@ 237
ลิซาเบธ 237
อยุ@@ 237
เสิร์@@ 237
185 236
1865 236
50@@ 236
Baby 236
Char@@ 236
Des@@ 236
Kh@@ 236
Lord 236
Two 236
game 236
ner 236
timestamp 236
รอยด์ 236
1801 235
Al 235
Football 235
Op@@ 235
Sc@@ 235
When 235
red 235
thumb 235
ดุริยา@@ 235
พักผ@@ 235
เฟิล 235
ク@@ 235
山@@ 235
132 234
137 234
201 234
CP 234
Edward 234
Ko@@ 234
emia 234
ib@@ 234
ma@@ 234
oides 234
จัง@@ 234
เหลี่ยม@@ 234
แบล@@ 234
์ม 234
35@@ 233
AR 233
EN 233
Homo 233
SH@@ 233
So 233
Treaty 233
au 233
index 233
om 233
ung@@ 233
ตตา 233
โหว@@ 233
CBT 232
GT 232
Jean 232
Microsoft 232
Sound 232
Station 232
WBO 232
^ 232
ens 232
จฉ@@ 232
ฟร็@@ 232
08.@@ 231
AF 231
Jr 231
NK 231
Office 231
Over 231
Palace 231
awa 231
up@@ 231
คับ 231
ฟลอ@@ 231
วิกฤ@@ 231
เทค@@ 231
แชน@@ 231
0.2 230
Ag@@ 230
At@@ 230
California 230
Cyprinidae 230
NA 230
ato 230
au@@ 230
for@@ 230
odon 230
order 230
vs 230
จน์ 230
ปลอด@@ 230
อุดม@@ 230
1790 229
256 229
270 229
Children 229
Double 229
Is@@ 229
ind@@ 229
จูงใจ 229
ฉบ@@ 229
ลพ@@ 229
สู้@@ 229
ห้าง@@ 229
เดน@@ 229
600,000 228
737 228
Fe@@ 228
Ka@@ 228
Mary 228
back 228
gang@@ 228
กว้าง@@ 228
ดำรัส 228
ธน@@ 228
บัญชี@@ 228
ลงกรณ์ 228
อัก@@ 228
205 227
Blood 227
GT@@ 227
IEEE 227
La@@ 227
ek@@ 227
ev@@ 227
ser@@ 227
ue 227
กติก 227
กฤษฎ@@ 227
ศูนย์สูตร 227
ียบ@@ 227
8.5 226
850 226
ECW 226
Hero 226
Organization 226
USA 226
ant@@ 226
cr@@ 226
ment 226
tree 226
use 226
สถาปัตยกรรมศาสตร์ 226
สลา@@ 226
อิทธิ@@ 226
ฮอลลี@@ 226
An 225
Det@@ 225
With 225
light 225
more 225
nd 225
ost@@ 225
therapy 225
ขอบ@@ 225
คริสต@@ 225
ถึงแก@@ 225
สมัครรับเลือกตั้ง 225
สุนทร@@ 225
เทศ@@ 225
ッ@@ 225
Ap@@ 224
Land 224
Star@@ 224
Ta@@ 224
key 224
pol@@ 224
ติกา 224
ราญ 224
ล่ม@@ 224
วชิร@@ 224
เปรียญ 224
134 223
143 223
146 223
148 223
199 223
AS 223
Johnson 223
Kar@@ 223
LA 223
Moon 223
com@@ 223
dia 223
eus 223
fer@@ 223
the@@ 223
yn@@ 223
กระเพาะ@@ 223
นราธิ@@ 223
พร่อง 223
โหม 223
シ@@ 223
Boys 222
Can@@ 222
Control 222
Medical 222
Pan@@ 222
ations 222
class 222
du@@ 222
micro@@ 222
ori 222
right 222
username 222
ô 222
กระจา@@ 222
นุกรม 222
อาศ@@ 222
1883 221
2.7 221
Alexander 221
IT 221
Sel@@ 221
Tower 221
ena 221
gen 221
its 221
super@@ 221
tor 221
กิ้ง@@ 221
งคู่ 221
ฬ 221
แห่ง@@ 221
リ@@ 221
ABC 220
Ber@@ 220
Days 220
Los 220
Net@@ 220
Roman 220
Sweet 220
ada 220
­ 220
ì 220
พระนคร@@ 220
แต่น@@ 220
โกร@@ 220
ไรด์ 220
1839 219
48@@ 219
Index 219
Scott 219
ality 219
ax@@ 219
jpg 219
new 219
ora 219
งบ@@ 219
งเกิล 219
ท่ว@@ 219
แอนตาร์@@ 219
154 218
1859 218
206 218
CV@@ 218
Cross 218
Hol@@ 218
hi 218
osa 218
urus 218
ฉวน 218
ดนตรี@@ 218
มาลา@@ 218
ริด 218
สามัญศึกษา 218
20,@@ 217
AI 217
Bad 217
Centre 217
High@@ 217
IP@@ 217
PO@@ 217
Paris 217
TC 217
We@@ 217
ama 217
anus 217
code 217
ile 217
less 217
mag@@ 217
sc@@ 217
ud@@ 217
วรวงศ์เธอ 217
สุทธิ์ 217
เอลา 217
Committee 216
Impact 216
San@@ 216
eng 216
los@@ 216
px 216
ความสะอาด 216
ตอบ@@ 216
ที่ว่า@@ 216
ธัน@@ 216
1872 215
3000 215
Court 215
ES 215
Mi@@ 215
Money 215
Trans@@ 215
ker 215
ps 215
self 215
ym@@ 215
} 215
วิท 215
ศล 215
แอป@@ 215
ไบเบิล 215
1,600 214
202 214
Cap@@ 214
Poly@@ 214
Temple 214
bone 214
number 214
tra 214
คีน 214
บีเรีย 214
ร์ม 214
ស@@ 214
37@@ 213
AK@@ 213
SR 213
Seven 213
ชชา 213
ตึงเครียด 213
บริจา@@ 213
เคีย@@ 213
168 212
1700 212
2.6 212
55@@ 212
All@@ 212
Crown 212
ON 212
ca 212
ula 212
งัก 212
ทด@@ 212
มศึกษา 212
มีความ@@ 212
ั้น@@ 212
1873 211
And 211
England 211
Garden 211
IA 211
Mus@@ 211
\ 211
ano 211
anthus 211
clear 211
control 211
ja 211
yo@@ 211
ฝั่ง@@ 211
ศี 211
สัย 211
อักษร@@ 211
เตอร์เทน@@ 211
်@@ 211
0.6 210
1820 210
208 210
Beautiful 210
Down 210
Gar@@ 210
Hor@@ 210
Kiss 210
Sa@@ 210
TA 210
ids 210
ly@@ 210
reflex 210
sh 210
test 210
ā@@ 210
เยซู 210
后@@ 210
152 209
1806 209
183 209
222 209
AND 209
Han@@ 209
Kong 209
Ni@@ 209
Open@@ 209
Prot@@ 209
ê 209
ลาส 209
โค้@@ 209
142 208
151 208
Alliance 208
India 208
Mask 208
Match 208
Not@@ 208
Sol@@ 208
ona 208
กาฬ@@ 208
ทั่ง 208
บรู@@ 208
ผู@@ 208
ราะ 208
รูปร@@ 208
1,300 207
19,@@ 207
225 207
3,0@@ 207
Fast 207
GDP 207
If 207
On@@ 207
Sport 207
TS 207
ga 207
head 207
mar@@ 207
met@@ 207
กลีบ@@ 207
กอก 207
ทั้@@ 207
นวม 207
ภูเขา@@ 207
มิช@@ 207
รัศ@@ 207
ื 207
เวียด@@ 207
EM@@ 206
FA 206
IV@@ 206
Lin@@ 206
Studios 206
Vi@@ 206
den 206
lia 206
ประยุ@@ 206
รามา@@ 206
วี่@@ 206
1874 205
1876 205
2.8 205
310 205
Kan@@ 205
LE 205
Next 205
No@@ 205
SE 205
Sch@@ 205
Universe 205
area 205
ba 205
icus 205
tions 205
CC@@ 204
CET 204
Fame 204
Lake 204
Pe@@ 204
Zone 204
ba@@ 204
ets 204
frontal 204
have 204
io 204
ke 204
ys 204
พื@@ 204
ีก@@ 204
1849 203
235 203
25.@@ 203
65@@ 203
Del@@ 203
Get 203
Magic 203
mi@@ 203
tidae 203
บัณฑิ@@ 203
สันหลัง 203
เว้น@@ 203
แม่ม@@ 203
ម@@ 203
Ang@@ 202
GB 202
Honda 202
Jack 202
Nations 202
Performance 202
Ray 202
UT@@ 202
all@@ 202
ath 202
คุม@@ 202
สถา@@ 202
宗@@ 202
1858 201
Again 201
Arena 201
Iron 201
LS 201
Pacific 201
comment 201
est@@ 201
les 201
process 201
กประสงค์ 201
กัมมัน@@ 201
ศรีอยุธยา 201
ั้ม 201
เยา 201
เริ่ม@@ 201
เอมิเรตส์ 201
中@@ 201
（@@ 201
1869 200
192 200
Rose 200
SI 200
SM 200
Shin@@ 200
hy@@ 200
king 200
จจะ 200
ทบ 200
นน 200
รณ์ 200
เร็ต 200
147 199
238 199
Bas@@ 199
Bel@@ 199
Code 199
Hay@@ 199
Tar@@ 199
Type 199
Wars 199
ks 199
psych@@ 199
ster@@ 199
เครน 199
0.3 198
153 198
60@@ 198
Bor@@ 198
Bridge 198
Brown 198
Champion 198
Junior 198
Kids 198
Micro@@ 198
Not 198
OH 198
Pu@@ 198
RT@@ 198
Sain@@ 198
SmackDown 198
aya 198
jo 198
me@@ 198
onia 198
yp@@ 198
เก่า@@ 198
26.@@ 197
420 197
Beauty 197
CD@@ 197
Chemical 197
HE@@ 197
History 197
Hong 197
MIT 197
bul@@ 197
des@@ 197
gr@@ 197
pent@@ 197
ru@@ 197
มเห@@ 197
ลิส 197
เนียร์ 197
172 196
173 196
1857 196
221 196
Happy 196
Mur@@ 196
bas@@ 196
can 196
chi 196
wiki 196
ตัดสิน@@ 196
AA 195
District 195
ET 195
Fox 195
Hotel 195
IR@@ 195
Men@@ 195
data 195
fiber 195
tu@@ 195
บุรุ@@ 195
มเบิร์ก 195
วงศา@@ 195
ฬิ@@ 195
ึ้ง 195
ន@@ 195
、@@ 195
10.00 194
204 194
38@@ 194
39@@ 194
Bill 194
Bre@@ 194
DB 194
Faculty 194
HC 194
Im@@ 194
Language 194
Modern 194
Toyota 194
bar@@ 194
ens@@ 194
ri 194
β 194
ชมพ@@ 194
ธนา@@ 194
ภูธร 194
มภ์ 194
ระบ@@ 194
อินเตอร์@@ 194
านุ@@ 194
ไหร่ 194
178 193
1793 193
Christian 193
Division 193
Smith 193
col@@ 193
！@@ 193
158 192
184 192
212 192
44@@ 192
99@@ 192
Army 192
Ba@@ 192
Brothers 192
Church 192
Computer 192
ED 192
Rankings 192
day 192
ki@@ 192
will 192
ye 192
ys@@ 192
ญาต 192
เฉียบ@@ 192
เมริ@@ 192
0.8 191
Commission 191
EF 191
Woman 191
ice 191
multi@@ 191
que 191
vi@@ 191
ซื้อ@@ 191
รบ@@ 191
็ม@@ 191
‌ 191
,000 190
2,9@@ 190
4.2 190
Chris 190
El 190
Mac 190
S- 190
ae@@ 190
dec@@ 190
law 190
phy@@ 190
æ 190
ฅ@@ 190
จืด 190
หน้าที่@@ 190
太@@ 190
18,@@ 189
22,@@ 189
303 189
Cure 189
From 189
Multi@@ 189
SP 189
Tak@@ 189
channel 189
ome 189
space 189
would 189
ทักษิ@@ 189
แบตเต@@ 189
138 188
193 188
27.@@ 188
3,500 188
301 188
Artist 188
Bu@@ 188
Jackson 188
Korea 188
Na 188
alization 188
ese 188
lion 188
mm 188
so 188
version 188
š 188
ซุป@@ 188
ตอม 188
นิก@@ 188
ป้อมปรา@@ 188
พย์ 188
พระบาทสมเด็จพระ@@ 188
อาชญา@@ 188
เจ้าอยู่@@ 188
1.9 187
1792 187
315 187
430 187
AB 187
Box 187
Knight 187
Mat@@ 187
Operation 187
RA 187
Ring 187
Standard 187
Ter@@ 187
Wi@@ 187
ast 187
ell@@ 187
esis 187
value 187
กาง@@ 187
ดอลลาร์@@ 187
นอกเหนือ@@ 187
ประกวด@@ 187
รี้@@ 187
วชิ@@ 187
สนาน 187
แปซิ@@ 187
公@@ 187
156 186
163 186
2,6@@ 186
46@@ 186
Agency 186
Ha@@ 186
IN 186
Once 186
Sor@@ 186
ide 186
otic 186
som@@ 186
umi 186
กฤต 186
ปลง@@ 186
เวียน@@ 186
Data 185
Hal@@ 185
ON@@ 185
RT 185
SI@@ 185
Ti@@ 185
Web 185
album 185
รรม 185
ันต์ 185
ื้น 185
เม็ด@@ 185
0.4 184
1,100 184
157 184
45@@ 184
Hem@@ 184
Information 184
Ke@@ 184
Magazine 184
Stage 184
Version 184
acy 184
ali@@ 184
artery 184
ber 184
onal 184
ors 184
yu 184
ละติ@@ 184
สันตติวงศ์ 184
สารี@@ 184
เอเช@@ 184
ア@@ 184
195 183
3.6 183
BB 183
Die 183
EC 183
KBS 183
MV 183
Real 183
Road@@ 183
SF 183
Shi@@ 183
Siam 183
Stars 183
ami 183
ann@@ 183
lu@@ 183
pl@@ 183
tia 183
ปรากฏ@@ 183
ร่อง@@ 183
แ 183
EA 182
Imperial 182
Vol 182
action 182
anterior 182
ติธรรม 182
แกม@@ 182
ได้รับ@@ 182
‘@@ 182
1795 181
777 181
99.@@ 181
CL@@ 181
Cat@@ 181
Heaven 181
Hill 181
Islands 181
Kur@@ 181
Part 181
TV@@ 181
bl@@ 181
ili@@ 181
single 181
ta@@ 181
thi@@ 181
ร้อ@@ 181
สถ@@ 181
สัมผ@@ 181
องค์กร@@ 181
เบธ 181
文@@ 181
167 180
1854 180
265 180
AD@@ 180
Age 180
Da@@ 180
GO@@ 180
HO@@ 180
Harry 180
How 180
Mountain 180
Mu@@ 180
Nar@@ 180
Second 180
Tom 180
color 180
didae 180
duc@@ 180
hom@@ 180
ine@@ 180
lin@@ 180
°@@ 180
บำเพ็ญ@@ 180
เจาะ@@ 180
เจ้าหน้าที่@@ 180
แชมป์@@ 180
2,4@@ 179
47@@ 179
999 179
Ca@@ 179
Just 179
Non@@ 179
ema 179
min@@ 179
polar@@ 179
ry 179
sur@@ 179
ตกล@@ 179
ระเบ@@ 179
เมียร์ 179
189 178
2,8@@ 178
309 178
800,000 178
AG@@ 178
Government 178
HA 178
Met@@ 178
Post@@ 178
QS 178
Steve 178
Sy@@ 178
Theatre 178
Ther@@ 178
Wall 178
dr@@ 178
ette 178
low@@ 178
mg 178
ทนา 178
บัญ@@ 178
มนตร์ 178
อะมิโน 178
0.7 177
181 177
1831 177
214 177
216 177
Core 177
Indian 177
Sam@@ 177
Sir 177
Studies 177
Ur@@ 177
Water 177
Yes 177
Yu@@ 177
ain 177
bias 177
box 177
cl@@ 177
ings 177
leg 177
love 177
station 177
tract 177
ul 177
ysis 177
จล 177
ปิโตร@@ 177
แทรกซ้อน 177
1,400 176
203 176
BT 176
ING 176
LP 176
Revolution 176
SBS 176
Sho@@ 176
Sky 176
ability 176
aria 176
list 176
กลุ@@ 176
ประการ@@ 176
ผสม@@ 176
ยุว@@ 176
สัมป@@ 176
な@@ 176
神@@ 176
1837 175
3.4 175
CR@@ 175
Dor@@ 175
EG@@ 175
Economic 175
Hel@@ 175
Jones 175
PL@@ 175
Por@@ 175
Rubiaceae 175
ari@@ 175
ich@@ 175
match 175
phot@@ 175
sin 175
top 175
ภาพยนต@@ 175
สุขา@@ 175
อาช@@ 175
แกะ@@ 175
แหล่งข@@ 175
元@@ 175
179 174
191 174
196 174
3.3 174
Action 174
Championships 174
Cur@@ 174
Francis 174
GN@@ 174
German 174
Holy 174
PC@@ 174
Tent@@ 174
Web@@ 174
YouTube 174
let 174
life 174
methyl@@ 174
ops 174
over 174
take 174
จื@@ 174
อเน@@ 174
เข้าใจ@@ 174
ในบาง@@ 174
ダ@@ 174
1812 173
182 173
1845 173
2,7@@ 173
35,000 173
French 173
Head 173
Japanese 173
NT 173
Sh 173
like 173
mer 173
ray 173
ut 173
za 173
ទ@@ 173
--- 172
139 172
149 172
162 172
1851 172
Angel 172
Apiaceae 172
Christmas 172
Dead 172
Energy 172
Fr@@ 172
Justice 172
Medicine 172
NET 172
Nature 172
Nissan 172
Pi@@ 172
Sil@@ 172
Soul 172
WHO 172
atum 172
ection 172
eng@@ 172
op 172
ประชาธิ@@ 172
ปไต@@ 172
อร์ด 172
แขก@@ 172
2023 171
480 171
Actress 171
CDC 171
CIA 171
Got@@ 171
Never 171
OF 171
Res@@ 171
ashi 171
ech@@ 171
ha@@ 171
kin 171
search 171
กาล@@ 171
ทวีป@@ 171
ฮิล@@ 171
‎ 171
161 170
1791 170
1856 170
251 170
ATP 170
CC 170
CT@@ 170
Convention 170
IG@@ 170
Ku@@ 170
May 170
Rainbow 170
Tor@@ 170
VI 170
ania 170
berg 170
complex 170
ef@@ 170
inc@@ 170
oo 170
parentid 170
solid 170
tical 170
ปลอม@@ 170
ล้วน@@ 170
สเกต@@ 170
อาง 170
−@@ 170
南@@ 170
1824 169
304 169
375 169
70,000 169
BA 169
Ben 169
Bl@@ 169
EC@@ 169
Express 169
Grammy 169
Mobile 169
Search 169
Sim@@ 169
enia 169
national 169
second 169
ve@@ 169
video 169
which 169
zone 169
คณา@@ 169
สมเด็จพระนางเจ้า@@ 169
ฮอป 169
เด็ด@@ 169
169 168
21,@@ 168
After 168
Come 168
Na@@ 168
Out@@ 168
Right 168
SN@@ 168
ST 168
Will 168
her@@ 168
ii 168
la@@ 168
pa 168
power 168
ra@@ 168
sa@@ 168
}@@ 168
ñ 168
งวด 168
ดม@@ 168
ศิษย์@@ 168
，@@ 168
1821 167
1852 167
215 167
370 167
Ben@@ 167
EL@@ 167
Hydro@@ 167
JR 167
Mad@@ 167
Mid@@ 167
Mil@@ 167
Pal@@ 167
YO@@ 167
analysis 167
ery 167
ky 167
medial 167
membrane 167
oli 167
sch@@ 167
ze 167
ø 167
กล้วย@@ 167
カ@@ 167
177 166
Area 166
Bay 166
COVI@@ 166
Challenge 166
Champions 166
Joe 166
Most 166
Ol@@ 166
Tan@@ 166
enceph@@ 166
free 166
get 166
he 166
ocy@@ 166
ret@@ 166
sin@@ 166
ณู 166
พระบาทสมเด็จพระมงกุ@@ 166
อุท@@ 166
เกล้าเจ้าอยู่หัว 166
แอต@@ 166
3.7 165
BSD 165
Century 165
Fantasy 165
Full 165
MB 165
Meg@@ 165
PP 165
PR@@ 165
Santa 165
Side 165
ex 165
mac@@ 165
pan@@ 165
tional 165
ton@@ 165
uk@@ 165
พ.ต.@@ 165
สนิท@@ 165
25,@@ 164
29.@@ 164
70@@ 164
AF@@ 164
Arthur 164
Hospital 164
JMA 164
Jo@@ 164
Kr@@ 164
Oh 164
SO 164
Square 164
Ul@@ 164
ash@@ 164
cus 164
ira 164
men 164
then 164
var 164
ชับ 164
ติ์ 164
ทรัพยากร@@ 164
นแรง 164
ศึกษาธิการ 164
ีก 164
1,800 163
1828 163
194 163
209 163
DE 163
Doctor 163
Du@@ 163
Future 163
Pap@@ 163
Stephen 163
Tre@@ 163
amin@@ 163
inus 163
len 163
ling 163
pal@@ 163
si 163
tion@@ 163
tom@@ 163
ī@@ 163
ปูชนีย@@ 163
มัธย@@ 163
สนะ 163
ฬิกา 163
2,5@@ 162
410 162
Cer@@ 162
Country 162
Jazz 162
PE@@ 162
Room 162
Var@@ 162
ati 162
elle 162
ger 162
ito 162
pu@@ 162
were 162
จรา@@ 162
บัณฑ@@ 162
วัตถ@@ 162
明@@ 162
120,000 161
Elizabeth 161
Face 161
Hu@@ 161
LD 161
Ph 161
ars 161
ye@@ 161
จรร@@ 161
ผู้ว่า@@ 161
โฆษ@@ 161
三@@ 161
171 160
174 160
305 160
Cre@@ 160
Gre@@ 160
March 160
Press 160
Raj@@ 160
Return 160
Sin@@ 160
ding 160
lev 160
people 160
son@@ 160
virus 160
water 160
ã 160
คคี 160
ยื@@ 160
ราชบัณฑิตย@@ 160
หรี่ 160
ในเวลา@@ 160
11,000 159
1300 159
26,@@ 159
67@@ 159
700,000 159
Albums 159
Az@@ 159
Disney 159
FF 159
Kat@@ 159
Marie 159
Mind 159
Point 159
Songs 159
Town 159
XX 159
adi@@ 159
html 159
ico 159
iv@@ 159
major 159
mi 159
tus 159
พฤษภา@@ 159
เทียม@@ 159
武@@ 159
Cop@@ 158
HTML 158
Her 158
Kal@@ 158
Neur@@ 158
Only 158
Peace 158
Prize 158
Sw@@ 158
Vol@@ 158
active 158
cap@@ 158
ect@@ 158
low 158
rate 158
คที@@ 158
อย่างใด 158
่วย@@ 158
マ@@ 158
国@@ 158
朝@@ 158
1853 157
23,@@ 157
239 157
Cl 157
Daniel 157
FF@@ 157
His 157
Intel 157
Kam@@ 157
SD 157
SD@@ 157
hum@@ 157
ichi 157
into 157
ten 157
ty@@ 157
una 157
ซึม@@ 157
บัณฑิตย@@ 157
វ@@ 157
ん@@ 157
176 156
1832 156
1841 156
Frank 156
GO 156
Hell 156
ION 156
Karl 156
OR 156
Pictures 156
Producer 156
ROH 156
Sen@@ 156
Take 156
Th 156
Triple 156
cur@@ 156
factory 156
if@@ 156
kg 156
ny 156
potential 156
und 156
ยยศ 156
ลใจ 156
สมเด็จพระเทพรัตนราช@@ 156
ド@@ 156
306 155
460 155
@ 155
Dr@@ 155
Les 155
Place 155
Tom@@ 155
ites 155
lam@@ 155
otr@@ 155
surface 155
± 155
กาศ@@ 155
ปัส@@ 155
มาเล@@ 155
ยอม@@ 155
ร์นัน 155
วอลเล@@ 155
か@@ 155
ジ@@ 155
이@@ 155
166 154
243 154
CE 154
IX 154
Ly@@ 154
Middle 154
More 154
Ob@@ 154
Over@@ 154
PCR 154
Pl@@ 154
Singer 154
aden@@ 154
esia 154
stere@@ 154
wave 154
บน@@ 154
สงบ@@ 154
สามัญ@@ 154
เผย@@ 154
レ@@ 154
金@@ 154
159 153
211 153
308 153
78@@ 153
Blind 153
CCD 153
Child 153
Cro@@ 153
Fe 153
Mode 153
Natural 153
ONE 153
RN@@ 153
Tree 153
Wild 153
Years 153
iTunes 153
map 153
men@@ 153
superior 153
ts@@ 153
คลิ@@ 153
ใส@@ 153
1803 152
1847 152
Cu@@ 152
DI 152
Fashion 152
GC 152
Ger@@ 152
Ir@@ 152
MI 152
MO 152
NO 152
Our 152
Production 152
Youth 152
ake 152
amb@@ 152
aph@@ 152
bar 152
can@@ 152
fr@@ 152
rock 152
平@@ 152
1808 151
1825 151
2300 151
4,0@@ 151
Character 151
Department 151
Gal@@ 151
Os@@ 151
Pseud@@ 151
Ros@@ 151
Visual 151
ies 151
ik 151
ines 151
ker@@ 151
method 151
ological 151
post@@ 151
prop@@ 151
prot@@ 151
raj@@ 151
rowspan 151
tics 151
กลับกัน 151
คุ้น@@ 151
บัม 151
รัตนราช@@ 151
ษณ@@ 151
 @@ 151
‎@@ 151
′ 151
1805 150
1835 150
246 150
28.@@ 150
Angeles 150
Audition 150
Ay@@ 150
Ban@@ 150
Cathedral 150
Eastern 150
LDL 150
PM 150
Ranking 150
Short 150
Val@@ 150
erectus 150
ku 150
mann 150
tar@@ 150
จัย 150
ฟริ@@ 150
ลุ่ม@@ 150
ลเลียม 150
ูป 150
43@@ 149
5000 149
AST 149
Know 149
Pierre 149
Rain 149
VII 149
bic@@ 149
die 149
ement 149
hypo@@ 149
ial 149
por@@ 149
yg@@ 149
จอมมารดา 149
หลีก@@ 149
ក@@ 149
186 148
187 148
207 148
223 148
Am 148
Av@@ 148
Broadcasting 148
CM@@ 148
FIFA 148
Friends 148
Machine 148
Motor 148
Pin@@ 148
cognitive 148
eri 148
gene 148
พิจาร@@ 148
ราธิ@@ 148
วะ@@ 148
สงคราม@@ 148
ฬา 148
國@@ 148
西@@ 148
14,000 147
1799 147
295 147
323 147
4.1 147
Acanth@@ 147
Ali 147
Conference 147
Field 147
Food 147
Idol 147
Mir@@ 147
SW@@ 147
Som@@ 147
Stop 147
don 147
ect 147
eth@@ 147
house 147
ler@@ 147
lidae 147
ola 147
star 147
tes 147
work 147
your 147
าคม 147
新@@ 147
1660 146
1826 146
AO@@ 146
Animation 146
Ash@@ 146
Bell 146
By 146
Castle 146
Director 146
Got 146
Kevin 146
MR 146
Protocol 146
RIAA 146
SU@@ 146
Sony 146
Southern 146
Spring 146
Syn@@ 146
dy@@ 146
eh@@ 146
ika 146
ima 146
mas@@ 146
minor 146
rom@@ 146
μ 146
ชาลา 146
โบว@@ 146
ာ@@ 146
☆ 146
し@@ 146
城@@ 146
1844 145
30.@@ 145
49@@ 145
Board 145
Gen@@ 145
Hz 145
Johnny 145
Nan@@ 145
but 145
del@@ 145
dorsal 145
network 145
pattern 145
ศัพท์@@ 145
เดียวกับ 145
ใหญ@@ 145
164 144
255 144
4.3 144
Ai 144
Freedom 144
Gate 144
Here 144
Name 144
allo@@ 144
not@@ 144
od 144
ole 144
osp@@ 144
radi@@ 144
social 144
tube 144
ub@@ 144
ชื่น@@ 144
ท่าน@@ 144
ริโอ 144
ฤทัย 144
เหรียญ@@ 144
オ@@ 144
之@@ 144
16,000 143
1648 143
1813 143
CJ 143
Classification 143
Fran 143
Make 143
Ty@@ 143
aj@@ 143
asi@@ 143
atr@@ 143
bus 143
dys@@ 143
ill@@ 143
iy@@ 143
oz@@ 143
print 143
ture 143
ə 143
กราก 143
ดารา@@ 143
ถ้า@@ 143
ษฐาน 143
ロ@@ 143
06.@@ 142
1400 142
501 142
950 142
AG 142
ATC 142
African 142
Bachelor 142
Call 142
Change 142
Common 142
Hi@@ 142
Oc@@ 142
Pot@@ 142
Romance 142
und@@ 142
well 142
ł 142
ซเบ@@ 142
ปลักษณ์ 142
พรา@@ 142
เลื@@ 142
ウ@@ 142
海@@ 142
1822 141
227 141
29,@@ 141
302 141
57@@ 141
ARA 141
CN@@ 141
Chicago 141
Dynasty 141
Fi@@ 141
Kas@@ 141
MBC 141
elli 141
her 141
iz@@ 141
only 141
rec@@ 141
sy@@ 141
uk 141
คราว@@ 141
ผู้รักษา@@ 141
พยัค@@ 141
มพู@@ 141
รัมย์ 141
ษฐา 141
เจร@@ 141
州@@ 141
1080 140
1649 140
1842 140
24,@@ 140
252 140
290 140
56@@ 140
660 140
Access 140
Classic 140
Congress 140
DR 140
Dar@@ 140
ESPN 140
Heroes 140
Pter@@ 140
Washington 140
ach 140
air 140
aku 140
lower 140
pe 140
public 140
rd 140
room 140
ther@@ 140
two 140
ulation 140
white 140
การี 140
บัติ@@ 140
อัฟ@@ 140
อาสา@@ 140
เรื่อย@@ 140
ត@@ 140
ャ@@ 140
1603 139
1707 139
2024 139
249 139
27,@@ 139
3,5@@ 139
3.8 139
307 139
4.6 139
58@@ 139
AV 139
AW@@ 139
Actor 139
BL@@ 139
Cel@@ 139
Deep 139
Eric 139
Forest 139
GA 139
Korean 139
Number 139
Platform 139
Pur@@ 139
Ram@@ 139
Rec@@ 139
Sun@@ 139
VO@@ 139
Van 139
Virgin 139
book 139
ellidae 139
hem@@ 139
inhibitor 139
ll 139
orum 139
pes 139
phase 139
phosphate 139
ulus 139
vein 139
we 139
ǎ 139
มัด@@ 139
　@@ 139
道@@ 139
1783 138
18,000 138
1836 138
1846 138
1855 138
5.1 138
720 138
Albert 138
BE 138
DV@@ 138
Gl@@ 138
Je@@ 138
Jean@@ 138
LED 138
NS@@ 138
Nag@@ 138
Player 138
Rhin@@ 138
See 138
She 138
Silver 138
Sword 138
Zero 138
ace@@ 138
alb@@ 138
basal 138
case 138
cin@@ 138
eta 138
his 138
level 138
oy@@ 138
size 138
คณะกรรมการ@@ 138
ยิกา 138
รนด์ 138
ลอส@@ 138
สุขุ@@ 138
13,000 137
197 137
28,@@ 137
90@@ 137
CS 137
Crazy 137
Ham@@ 137
Han 137
Ky@@ 137
Lu@@ 137
Ru@@ 137
Security 137
ere 137
family 137
ham 137
ise 137
wrestler 137
yi 137
ต่ำ@@ 137
ปริยัติธรรม 137
มิเนียม 137
วัค@@ 137
วิศว@@ 137
แลก@@ 137
劉@@ 137
安@@ 137
왕@@ 137
188 136
198 136
333 136
440 136
53@@ 136
59@@ 136
Andrew 136
Ann@@ 136
Bowl 136
Drama 136
Ed@@ 136
Long@@ 136
Mis@@ 136
Nine 136
PP@@ 136
Run 136
The@@ 136
XIII 136
football 136
ight 136
lan@@ 136
min 136
otro@@ 136
over@@ 136
root 136
ship 136
ten@@ 136
them 136
ขี่@@ 136
พลับ@@ 136
อุปั@@ 136
แน่@@ 136
မ@@ 136
バ@@ 136
275 135
285 135
75@@ 135
911 135
AJ 135
Adam 135
Cat 135
Count 135
Edge 135
Fer@@ 135
Ji 135
Medi@@ 135
Mini 135
Monster 135
New@@ 135
Nor@@ 135
PS@@ 135
Wonder 135
atidae 135
els 135
fl@@ 135
ful 135
mer@@ 135
mon 135
oni 135
ow@@ 135
stone 135
sul@@ 135
กองทัพ@@ 135
ดาวน์@@ 135
ฝรั@@ 135
ราชภั@@ 135
สกล@@ 135
สุพรรณ@@ 135
เวียง@@ 135
โนเบล 135
1,700 134
1804 134
234 134
3,9@@ 134
5.0 134
5.7 134
6.3 134
Administration 134
Advanced 134
BS 134
CV 134
DD 134
Earl 134
Fre@@ 134
Ghost 134
Tiger 134
atory 134
cha 134
ci 134
cm 134
def 134
har@@ 134
inum 134
kin@@ 134
ode 134
oil 134
primary 134
uri 134
vesti@@ 134
ò 134
กต@@ 134
นิษฐา 134
บำรุง@@ 134
บุค@@ 134
ราชาธิ@@ 134
一@@ 134
1701 133
1796 133
1802 133
1810 133
218 133
Air@@ 133
Away 133
HBO 133
HDL 133
Hybrid 133
Mul@@ 133
Western 133
ency 133
flow 133
matrix 133
trace 133
visual 133
yst@@ 133
ฝ 133
ยภาพ 133
ลี้@@ 133
สปริ@@ 133
หนิ 133
1794 132
264 132
286 132
30,@@ 132
Dan@@ 132
Hollywood 132
Khan 132
Ocean 132
Pas@@ 132
SSRI 132
Si 132
Tur@@ 132
Wang 132
burg@@ 132
cop@@ 132
mes@@ 132
ony 132
res@@ 132
tw@@ 132
กำกวม 132
กเตอร์ 132
ราชา@@ 132
อีย@@ 132
อ่าน@@ 132
เยรูซา@@ 132
「@@ 132
217 131
245 131
Bat@@ 131
CEO 131
Cas@@ 131
Che@@ 131
Collection 131
DJ 131
GP@@ 131
IL@@ 131
IUPAC 131
Ju@@ 131
MT 131
PR 131
Play@@ 131
TP 131
Wu 131
Ze@@ 131
ass@@ 131
astr@@ 131
den@@ 131
iPhone 131
ip@@ 131
les@@ 131
mor@@ 131
ometr@@ 131
sacc@@ 131
school 131
xi@@ 131
ซัค@@ 131
สวี@@ 131
グ@@ 131
高@@ 131
1843 130
228 130
244 130
253 130
Drive 130
FO@@ 130
Hom@@ 130
May@@ 130
Software 130
TE 130
Theory 130
WW@@ 130
War@@ 130
ali 130
bit 130
entr@@ 130
hu@@ 130
iri 130
posterior 130
ster 130
ˈ 130
ดิสน@@ 130
ร้อน@@ 130
เคน@@ 130
เนชั่นแนล 130
ເ@@ 130
07.@@ 129
1650 129
1798 129
1817 129
232 129
247 129
640 129
AY 129
CBS 129
Cam@@ 129
ICE 129
Jan 129
Key 129
Library 129
Mak@@ 129
McMahon 129
Mike 129
Off 129
Popular 129
Works 129
aea 129
dium 129
ein 129
iko 129
ny@@ 129
ostom@@ 129
ph 129
war 129
who 129
ชอป 129
พลัน 129
โยธ@@ 129
โรดม 129
ガ@@ 129
日@@ 129
226 128
241 128
258 128
36.@@ 128
4.8 128
CSE 128
Federal 128
GS 128
Hunter 128
Kor@@ 128
Mars 128
Orchestra 128
Prunus 128
Sem@@ 128
Speed 128
Subaru 128
Tony 128
Warner 128
ago 128
aw 128
az 128
ero 128
ich 128
itis 128
kl@@ 128
ko@@ 128
link 128
ney 128
ois 128
opo@@ 128
ota 128
pin@@ 128
show 128
wood 128
การประมวล@@ 128
การ์ 128
ณะ@@ 128
มิตร@@ 128
มแดน 128
ยาย@@ 128
เนียว 128
た@@ 128
タ@@ 128
4.4 127
76@@ 127
88@@ 127
Africa 127
Brassicaceae 127
Capital 127
Civil 127
Culture 127
DF 127
Fall 127
Fl@@ 127
Front 127
HV@@ 127
Ice 127
MCU 127
Mission 127
Mnet 127
Nam@@ 127
Post 127
Ran@@ 127
Rights 127
WS 127
dem@@ 127
ger@@ 127
glu@@ 127
iki 127
ized 127
ket@@ 127
opathy 127
pos@@ 127
sal@@ 127
sea 127
tro@@ 127
upper 127
ซิล 127
ดร์ 127
≤ 127
光@@ 127
漢@@ 127
대@@ 127
1100 126
11@@ 126
1776 126
1807 126
1834 126
3,7@@ 126
32,@@ 126
325 126
Carl 126
Choice 126
Electronic 126
Forward 126
GE 126
He 126
Il@@ 126
Jim 126
MB@@ 126
Nak@@ 126
Wind 126
back@@ 126
change 126
has 126
ius 126
ogen@@ 126
our@@ 126
revision 126
sion 126
vertex 126
word 126
yrus 126
ǐ 126
ฃ 126
ชนีย@@ 126
รุ่งขึ้น 126
ฦ@@ 126
สัญกรรม 126
สุล@@ 126
ົ@@ 126
1066 125
18@@ 125
2.9 125
224 125
520 125
AV@@ 125
Astr@@ 125
At 125
Democratic 125
FCW 125
FDA 125
Fly 125
Ji@@ 125
Lim@@ 125
NJPW 125
PE 125
Ri@@ 125
Supreme 125
Under 125
Where 125
Wil@@ 125
XML 125
ally 125
ants 125
iss@@ 125
omat@@ 125
sk@@ 125
sw@@ 125
tism 125
ทมิ@@ 125
พงศาว@@ 125
มานุษ@@ 125
สุริย@@ 125
เอนเอียง 125
ไหม@@ 125
戦@@ 125
237 124
242 124
ACT 124
Anatom@@ 124
Australian 124
Born 124
Der@@ 124
Executive 124
Eyes 124
Plus 124
Shanghai 124
ani@@ 124
any 124
dor@@ 124
eo 124
oa 124
ron@@ 124
กรรไกร 124
เฉลิ@@ 124
宋@@ 124
1809 123
35,@@ 123
5.2 123
787 123
85@@ 123
90,000 123
AZ@@ 123
CI 123
Columbia 123
Lion 123
Mol@@ 123
Record 123
Rem@@ 123
UR 123
act@@ 123
agent 123
aim@@ 123
also 123
apo@@ 123
board 123
brain 123
cas@@ 123
inidae 123
ith@@ 123
ke@@ 123
ocyte 123
oni@@ 123
osus 123
ro 123
sp 123
table 123
vol@@ 123
we@@ 123
คาสเซิล 123
งับ 123
บเขา 123
สาวร@@ 123
สิงค@@ 123
@@ 123
3.9 122
311 122
4,500 122
625 122
About 122
Ak@@ 122
Authority 122
Bab@@ 122
Beach 122
Bro@@ 122
Evil 122
Forever 122
Gi@@ 122
Hat@@ 122
ID@@ 122
Memorial 122
PO 122
Picture 122
RI 122
UL@@ 122
Winter 122
aster 122
cular 122
eter 122
lat@@ 122
mph 122
ms 122
phon@@ 122
ua 122
ual 122
ush@@ 122
ผู้ครองนคร 122
สซา@@ 122
อัครราชทูต 122
ังก@@ 122
เซี่ยง@@ 122
แจ็ก@@ 122
る@@ 122
江@@ 122
1640 121
1838 121
294 121
4.7 121
54@@ 121
6.2 121
Australia 121
Bot@@ 121
Community 121
Cru@@ 121
Diamond 121
HS 121
Higher 121
IO@@ 121
Perfect 121
RC 121
Ry@@ 121
SL 121
Simon 121
Valley 121
Wal@@ 121
aer@@ 121
cat@@ 121
cle 121
epo@@ 121
fe@@ 121
icism 121
ill 121
ital 121
lar@@ 121
len@@ 121
nm 121
pi 121
scale 121
tem@@ 121
ters 121
ver 121
xi 121
zh 121
ดูแล@@ 121
ถน@@ 121
ถ่ายทอด@@ 121
บูล@@ 121
ภค@@ 121
มารี 121
รวด@@ 121
โตรเจน 121
້@@ 121
う@@ 121
0.0@@ 120
0.9 120
1818 120
AU 120
Architecture 120
CG 120
Fair 120
Fi 120
Florida 120
HT 120
IBM 120
Ker@@ 120
Kin@@ 120
Lat@@ 120
Link 120
Pat@@ 120
Report 120
There 120
Tomorrow 120
ag 120
base 120
cc 120
ching 120
city 120
dynasty 120
eria 120
etic 120
ho 120
layer 120
lin 120
lock 120
oly@@ 120
oon 120
ort 120
species 120
tric 120
ume 120
vo@@ 120
weight 120
yan@@ 120
ตอง@@ 120
บวน 120
ฟ้อง@@ 120
มัธ@@ 120
ึ่ง@@ 120
1819 119
213 119
262 119
74@@ 119
Assembly 119
Beat 119
CW 119
Case 119
DL@@ 119
Dreams 119
FE 119
Giovanni 119
MA@@ 119
MAX 119
Masters 119
Pen@@ 119
Planet 119
Rap@@ 119
Say 119
They 119
Yu 119
aba 119
agonal 119
cycle 119
entia 119
ins@@ 119
ox 119
oxid@@ 119
vir@@ 119
ก้อน@@ 119
ธาน@@ 119
พราหม@@ 119
สมุทร@@ 119
แร่@@ 119
€ 119
1797 118
219 118
272 118
38.@@ 118
6.6 118
AAA 118
ACC 118
AFC 118
Alan 118
Anne 118
Arch@@ 118
Contest 118
Flash 118
LOVE 118
Lab@@ 118
PRO@@ 118
Pit@@ 118
RF 118
Store 118
Theme 118
View 118
Walter 118
asis 118
central 118
ds 118
ective 118
edi@@ 118
eli@@ 118
hydro@@ 118
lic 118
mu@@ 118
sen 118
sexual 118
study 118
trop@@ 118
va 118
wikitext 118
zu 118
ปรัช@@ 118
ยิง@@ 118
เลือดดำ 118
เวณ 118
เหมา@@ 118
เอ็ส@@ 118
ニ@@ 118
白@@ 118
276 117
390 117
4000 117
5.6 117
540 117
64@@ 117
68@@ 117
Alone 117
Bak@@ 117
Chemistry 117
Enter@@ 117
Era 117
Ford 117
Ga@@ 117
Galaxy 117
Heter@@ 117
Official 117
ROM 117
Radi@@ 117
Rel@@ 117
SK@@ 117
Services 117
Set 117
Tales 117
Unit 117
Wor@@ 117
bular 117
cul@@ 117
find 117
ku@@ 117
mark 117
mic 117
part 117
platform 117
sapiens 117
sia 117
through 117
ug@@ 117
usa 117
ฃ@@ 117
พอยท์ 117
ลายตัว 117
วุฒ@@ 117
ศิลปา@@ 117
สันนิ@@ 117
女@@ 117
17,000 116
1833 116
2,400 116
229 116
2350 116
268 116
278 116
3,6@@ 116
39,@@ 116
Alice 116
Bob 116
Ca 116
Cold 116
Devil 116
Dic@@ 116
Fin@@ 116
Hyper@@ 116
Lev@@ 116
Main 116
Nation 116
Neo@@ 116
Oxford 116
Pa@@ 116
Philip 116
Russian 116
Sir@@ 116
Ten@@ 116
Williams 116
bor@@ 116
cos@@ 116
eal 116
hin@@ 116
ila 116
mail 116
phen@@ 116
sor@@ 116
tos 116
uc@@ 116
ทันที@@ 116
พิมพ@@ 116
สมเด็จพระบรม@@ 116
สลาก 116
สโม@@ 116
อัลบ@@ 116
เติบ@@ 116
โบราณ@@ 116
ប@@ 116
1642 115
269 115
Aqu@@ 115
BN 115
Ball 115
Canada 115
Es@@ 115
Europe 115
Facebook 115
IF@@ 115
Mother 115
Motion 115
Net 115
Screen 115
Singh 115
TEC 115
Talk 115
Test 115
Wave 115
aur@@ 115
bi 115
cells 115
cip@@ 115
ential 115
int 115
ists 115
mRNA 115
old 115
opus 115
range 115
tra@@ 115
yn 115
ข์ 115
คอป@@ 115
รณะ 115
หลุ@@ 115
に@@ 115
1644 114
350,000 114
Morning 114
NT@@ 114
Pseudo@@ 114
Rat@@ 114
Sunday 114
Tesla 114
anc@@ 114
ation@@ 114
col 114
ents 114
ess@@ 114
graphy 114
ick 114
temporal 114
year 114
ฎก 114
ทำลาย@@ 114
นิรัน@@ 114
อังก@@ 114
ไพร่@@ 114
学@@ 114
小@@ 114
1609 113
386 113
401 113
639 113
900,000 113
Auto 113
Johann 113
Node 113
Orange 113
PET 113
Province 113
Sister 113
Sky@@ 113
Systems 113
Taekwondo 113
Texas 113
Tu@@ 113
XP 113
anth@@ 113
cel@@ 113
ello 113
ichthys 113
long@@ 113
mot@@ 113
oi 113
play 113
rot@@ 113
tag@@ 113
tre@@ 113
trial 113
unit 113
ค้น@@ 113
จู่@@ 113
อุทก@@ 113
โมเด@@ 113
ไซม์ 113
་@@ 113
1772 112
2030 112
34.@@ 112
98@@ 112
AH 112
BM@@ 112
Brian 112
Countdown 112
Em@@ 112
Fight 112
Fu 112
Greatest 112
IB@@ 112
LAN 112
MR@@ 112
Mod@@ 112
Pearl 112
Police 112
SUV 112
TH 112
Tel@@ 112
Tim@@ 112
Trich@@ 112
UR@@ 112
Walk 112
Wilson 112
ev 112
eye 112
hor@@ 112
loop 112
nor@@ 112
otype 112
service 112
sky 112
zi 112
ß 112
ć 112
จำนว@@ 112
ทรุด@@ 112
นวน 112
ฟ่า 112
ยาว@@ 112
ศิลปากร 112
แฟรน@@ 112
フ@@ 112
的@@ 112
1620 111
1788 111
200@@ 111
257 111
33.@@ 111
6.0 111
9.5 111
ABS 111
Antonio 111
CL 111
Electric 111
Eye 111
Foreign 111
Hit@@ 111
Ma 111
Military 111
NH 111
PWG 111
QF 111
Reg@@ 111
Shu@@ 111
Spider@@ 111
Spir@@ 111
Style 111
Symphony 111
Tal@@ 111
Tam@@ 111
Teen 111
Tetra@@ 111
Trade 111
Zhang 111
acc@@ 111
ace 111
alia 111
amo@@ 111
chain 111
culture 111
han 111
horn 111
icul@@ 111
inn@@ 111
lo 111
log@@ 111
long 111
nucle@@ 111
ocar@@ 111
orn 111
site 111
α@@ 111
จีน@@ 111
ภอ 111
อาทิ@@ 111
เวเน@@ 111
ไดออกไซด์ 111
ນ@@ 111
家@@ 111
05.@@ 110
1526 110
1688 110
37.@@ 110
620 110
66@@ 110
7.2 110
ACE 110
Bar 110
Beyond 110
Giant 110
LG@@ 110
Note 110
Phoenix 110
Pun@@ 110
Server 110
TER 110
UC@@ 110
Vision 110
Ware 110
amp@@ 110
apeuti@@ 110
cho@@ 110
ending 110
hu 110
human 110
ide@@ 110
macro@@ 110
oxy@@ 110
spp 110
sy 110
tan@@ 110
vector 110
web 110
ฟื@@ 110
ราชิ@@ 110
หรับ 110
เงื่อน@@ 110
เถียง 110
เลื่อ@@ 110
と@@ 110
德@@ 110
1453 109
1829 109
261 109
3,8@@ 109
33,@@ 109
5,0@@ 109
6.7 109
63@@ 109
Anime 109
BE@@ 109
Blu@@ 109
CS@@ 109
Chamber 109
Comics 109
Dev@@ 109
Gor@@ 109
JTWC 109
Lucky 109
Other 109
Pic@@ 109
Pres@@ 109
Review 109
Together 109
UT 109
Under@@ 109
Want 109
ball 109
ben@@ 109
ett 109
ez@@ 109
media 109
mode 109
nu@@ 109
ose 109
port 109
py@@ 109
san@@ 109
tam@@ 109
tel@@ 109
tha 109
ven@@ 109
ฉับ@@ 109
นั่น@@ 109
สารคาม 109
ຈ@@ 109
り@@ 109
仁@@ 109
233 108
266 108
279 108
35.@@ 108
BMW 108
Card 108
Da 108
Dog 108
Franz 108
Gang@@ 108
Hir@@ 108
Learning 108
Macro@@ 108
Pel@@ 108
Prim@@ 108
Rod@@ 108
Smart 108
Third 108
Warriors 108
char@@ 108
corpus 108
each 108
heart 108
idi@@ 108
illa 108
ken 108
loc@@ 108
ment@@ 108
pathway 108
uridae 108
war@@ 108
ı 108
กรุณาธิคุณ 108
ตติ้ง 108
หยุ่น 108
เลี้ย@@ 108
デ@@ 108
生@@ 108
長@@ 108
318 107
AO 107
APG 107
Angels 107
Another 107
CR 107
EPA 107
Engine 107
Gallery 107
Hen@@ 107
Leg@@ 107
MT@@ 107
NFL 107
PH@@ 107
Pink 107
Son 107
ain@@ 107
atin 107
blood 107
dy 107
ense 107
fer 107
ister@@ 107
nh 107
other 107
software 107
ventr@@ 107
ก๊า@@ 107
ณาธิ@@ 107
ภาพร@@ 107
มัติ 107
่มน้อย 107
キ@@ 107
12.5 106
1610 106
6.1 106
77@@ 106
79@@ 106
960 106
ASEAN 106
DA@@ 106
Dem@@ 106
Fan 106
IUCN 106
KO 106
Major 106
Mit@@ 106
Sak@@ 106
Samuel 106
Study 106
TO 106
Victor 106
Victoria 106
Work 106
acea 106
ean 106
icular 106
local 106
path 106
phosph@@ 106
uni@@ 106
wan 106
π@@ 106
กรด@@ 106
ตราย 106
ปุ่น 106
ฟรานซิสโก 106
ງ@@ 106
ុ@@ 106
河@@ 106
1368 105
1770 105
1827 105
283 105
298 105
39.@@ 105
470 105
ART 105
And@@ 105
Blues 105
Charlotte 105
Christ 105
Fire@@ 105
Gundam 105
Hits 105
IOC 105
Kid 105
Kir@@ 105
Lam@@ 105
NBC 105
Nguy 105
Prix 105
Race 105
Sat@@ 105
Ten 105
Too 105
Yang 105
acetyl@@ 105
address 105
algorithm 105
between 105
car 105
card 105
cre@@ 105
gold 105
iOS 105
ka@@ 105
plate 105
round 105
tissue 105
uli 105
zo 105
สำมะโน@@ 105
เสือด@@ 105
モ@@ 105
1787 104
1@@ 104
248 104
45,000 104
Amar@@ 104
Anna 104
Anthony 104
Braun 104
Gam@@ 104
Gy@@ 104
IWGP 104
Image 104
Industrial 104
Level 104
Mes@@ 104
Mount 104
Nic@@ 104
SET 104
Sam 104
Step 104
Supporting 104
Tok@@ 104
Touch 104
Tr 104
Tro@@ 104
Wo@@ 104
anda 104
cher 104
force 104
general 104
machine 104
mid@@ 104
mol 104
pa@@ 104
sac@@ 104
til@@ 104
uli@@ 104
ù 104
บุคลา@@ 104
ฟฟิ@@ 104
ภัก@@ 104
ภัณฑ@@ 104
ยึ@@ 104
ล้อม@@ 104
สังข@@ 104
เฑ@@ 104
င@@ 104
1550 103
1823 103
236 103
263 103
321 103
Austria 103
Building 103
Chan 103
Di 103
Guy 103
Hope 103
Medal 103
President 103
Rob@@ 103
Shir@@ 103
TOP 103
ack 103
age@@ 103
ame 103
bur@@ 103
chlor@@ 103
ellular 103
eral 103
erg@@ 103
fire 103
gly@@ 103
gran@@ 103
graph 103
hal@@ 103
ham@@ 103
hat 103
oli@@ 103
omy@@ 103
ring 103
sensory 103
sis 103
start 103
ste@@ 103
while 103
ขง@@ 103
คาร์บอน@@ 103
ตถ์ 103
ตเต@@ 103
นิเทศ@@ 103
มหั@@ 103
1592 102
1683 102
254 102
289 102
510 102
560 102
Black@@ 102
Body 102
ET@@ 102
Elec@@ 102
Eu@@ 102
Forum 102
Francisco 102
Frederick 102
Mitsubishi 102
Northern 102
OR@@ 102
PT@@ 102
Power@@ 102
Private 102
SL@@ 102
Sap@@ 102
Six 102
Wat@@ 102
achi 102
amensis 102
ass 102
bo 102
da@@ 102
ein@@ 102
enter@@ 102
ert 102
etta 102
ff@@ 102
high 102
hydr@@ 102
main 102
nuclei 102
ros@@ 102
sen@@ 102
top@@ 102
unc@@ 102
กาศ 102
๊อ 102
張@@ 102
AEW 101
Application 101
COM 101
Care 101
Cheil@@ 101
Ci@@ 101
Coast 101
Comic 101
DOS 101
Don@@ 101
ECT 101
Falcon 101
Far@@ 101
Ki@@ 101
Kon@@ 101
Lor@@ 101
NBA 101
Oricon 101
Plant 101
Pri@@ 101
Shock 101
Storm 101
UM@@ 101
Wanna 101
_@@ 101
agon 101
ate@@ 101
boy 101
gu@@ 101
max 101
mod 101
olo@@ 101
umb@@ 101
une 101
yan 101
กลู@@ 101
ฉาว 101
อดุลยเดช@@ 101
อำนวย@@ 101
ฮัง@@ 101
ễ 101
1250 100
1350 100
1689 100
402 100
5.4 100
Aer@@ 100
Alfred 100
Dangerous 100
Dur@@ 100
Friday 100
Fund 100
HP 100
Howard 100
Memory 100
Musical 100
One@@ 100
Plat@@ 100
Scale 100
Shadow 100
She@@ 100
Singapore 100
VCD 100
Van@@ 100
Vel@@ 100
aginaceae 100
ano@@ 100
asa 100
ce@@ 100
common 100
ey@@ 100
ff 100
ford 100
ft 100
generation 100
je 100
lum 100
period 100
php 100
position 100
tase 100
there 100
tur@@ 100
Ö 100
å 100
การอำเภอ 100
ตติ@@ 100
ที่ว@@ 100
มาก@@ 100
สายการ@@ 100
ักษ์ 100
ィ@@ 100
和@@ 100
1.25 99
1330 99
32.@@ 99
324 99
404 99
530 99
6.4 99
8.1 99
AE 99
Affairs 99
Bet@@ 99
Br 99
EX 99
Ep@@ 99
GAT@@ 99
Gener@@ 99
Hans 99
Have 99
Him@@ 99
Industry 99
ML@@ 99
MY 99
Made 99
Moore 99
Professor 99
Ryan 99
aca 99
act 99
ard@@ 99
ators 99
bin 99
bipolar 99
bit@@ 99
gate 99
ging 99
gy 99
icle 99
idea 99
iidae 99
learning 99
lis 99
mel@@ 99
nom@@ 99
pen@@ 99
rol@@ 99
sus 99
syn@@ 99
view 99
where 99
wo@@ 99
ο@@ 99
กราบบังคม@@ 99
ชุมนุ@@ 99
รัตนโกสิน@@ 99
เดียว@@ 99
ေ@@ 99
ិ@@ 99
。@@ 99
く@@ 99
ム@@ 99
不@@ 99
田@@ 99
10.5 98
1598 98
1816 98
49,@@ 98
581 98
630 98
69@@ 98
Bang 98
CF@@ 98
Christopher 98
Cry 98
Fat 98
Fine 98
Joint 98
Movement 98
Pop@@ 98
Red@@ 98
Sex 98
Shane 98
Sing@@ 98
arch@@ 98
architecture 98
ater 98
blue 98
conver@@ 98
energy 98
immun@@ 98
iro 98
lac@@ 98
negative 98
nia 98
oideae 98
oshi 98
oth 98
pus@@ 98
sk 98
source 98
stream 98
yro@@ 98
ดุษฎ@@ 98
ตาล@@ 98
อุทยาน@@ 98
เฒ@@ 98
แสวง@@ 98
花@@ 98
1185 97
1483 97
1811 97
231 97
49.@@ 97
7.6 97
7.8 97
870 97
Alex 97
BR 97
DM 97
Davis 97
Dutch 97
EST 97
Fort 97
HS@@ 97
ISBN 97
Independent 97
Pan 97
Ride 97
Spirit 97
Tale 97
Tonight 97
anna 97
ely 97
ep 97
fi@@ 97
kar@@ 97
ond@@ 97
ow 97
ple@@ 97
science 97
zer 97
ë 97
ū@@ 97
คณิ@@ 97
ปัตตา@@ 97
แทบ@@ 97
យ@@ 97
ら@@ 97
サ@@ 97
1780 96
6.9 96
610 96
760 96
Airlines 96
Bil@@ 96
Break 96
Compact 96
Expo 96
Female 96
Germany 96
Gray 96
Guide 96
JO@@ 96
LM 96
Laboratory 96
Marine 96
RIs 96
RS@@ 96
Ren 96
Roger 96
Score 96
Soviet 96
TM 96
Vit@@ 96
aci@@ 96
ays 96
double 96
ech 96
eph@@ 96
intr@@ 96
onidae 96
sam@@ 96
tal 96
tric@@ 96
ventral 96
ă 96
ตะกั@@ 96
ยืนต้น 96
ราวุธ 96
องค์@@ 96
ีกา 96
เต้น@@ 96
เปลี่ย@@ 96
宮@@ 96
1180 95
1450 95
293 95
7.1 95
84@@ 95
87@@ 95
ATM 95
Bay@@ 95
Better 95
Castagn@@ 95
Cs 95
DX 95
Disc 95
Fighters 95
Hard 95
Hur@@ 95
Jam 95
Ken@@ 95
Ki 95
NS 95
Ny@@ 95
PV 95
Pang@@ 95
Plan@@ 95
RE 95
Ren@@ 95
SR@@ 95
Smile 95
SpaceX 95
TR 95
Ti 95
Us 95
Week 95
aen@@ 95
ats 95
current 95
eff@@ 95
engine 95
etus 95
growth 95
ion@@ 95
itz 95
nuclear 95
oke 95
tica 95
ute 95
ถิ่น@@ 95
มั่ง@@ 95
君@@ 95
1540 94
1643 94
2600 94
284 94
297 94
37,@@ 94
680 94
7.62 94
Before 94
Cartoon 94
DH@@ 94
Fu@@ 94
Heavy 94
Hum@@ 94
ICT 94
IF 94
Kill 94
Lamborghini 94
Low 94
MD 94
Madonna 94
Nov@@ 94
Spec@@ 94
Sup@@ 94
Training 94
UE 94
XI 94
air@@ 94
ais 94
ash 94
botul@@ 94
bridge 94
don@@ 94
feat 94
gas 94
hr@@ 94
ire 94
master 94
oria 94
plant 94
pola 94
season 94
sem@@ 94
sing@@ 94
stage 94
string 94
three 94
ule 94
ves 94
ดุษฎี@@ 94
บรู 94
มวย@@ 94
สกอ@@ 94
อำเ@@ 94
เซลส์ 94
แกน@@ 94
แม่น@@ 94
ង@@ 94
《@@ 94
コ@@ 94
テ@@ 94
上@@ 94
法@@ 94
정@@ 94
1521 93
1661 93
273 93
287 93
288 93
291 93
322 93
356 93
570 93
6.8 93
AMD 93
Animal 93
BL 93
Basic 93
Bros 93
Camp 93
Cell 93
Cir@@ 93
Circle 93
CoV 93
Crystal 93
Din@@ 93
Extreme 93
Form 93
GHz 93
IMF 93
Ing@@ 93
KA 93
Kelly 93
Look 93
Mik@@ 93
Mun@@ 93
OK 93
Otto 93
Ox@@ 93
Pul@@ 93
RAM 93
Rumble 93
SV@@ 93
Taylor 93
Track 93
WB 93
WO@@ 93
eless 93
enc@@ 93
gar@@ 93
ner@@ 93
ock 93
ogram 93
opterus 93
square 93
than 93
uki 93
uti@@ 93
č 93
ě 93
จื๊อ 93
รุง 93
หนุ่ม@@ 93
ื่อน@@ 93
เทศมนตรี 93
ナ@@ 93
パ@@ 93
01.@@ 92
1492 92
1760 92
2,800 92
299 92
338 92
346 92
347 92
7.3 92
Allen 92
Amazing 92
Bon@@ 92
Brand 92
Color 92
Command 92
Critics 92
Dun@@ 92
ESS 92
Empress 92
Equ@@ 92
Fighter 92
Flying 92
Journey 92
Metal 92
NHK 92
Nippon 92
PH 92
Rider 92
Squ@@ 92
TY 92
Ultimate 92
aqu@@ 92
bin@@ 92
bro@@ 92
ete 92
ez 92
gia 92
gic 92
idal 92
inferior 92
itus 92
junction 92
ogen 92
spot 92
thr@@ 92
พาก@@ 92
ม่ 92
ราจารย์ 92
เจด@@ 92
ိ@@ 92
成@@ 92
1170 91
1781 91
281 91
335 91
36,@@ 91
406 91
5.3 91
5.8 91
75,000 91
802.11 91
Amp@@ 91
Anniversary 91
CN 91
Cambridge 91
Chen 91
Daily 91
Div@@ 91
Fish 91
Flower 91
Friend 91
Gro@@ 91
IE@@ 91
ISIL 91
Kings 91
Lewis 91
Local 91
NCT 91
OVA 91
Ok@@ 91
Pil@@ 91
Tai 91
UEFA 91
Urban 91
VIII 91
Watch 91
Yellow 91
core 91
course 91
domain 91
fied 91
gal@@ 91
gu 91
hex@@ 91
med@@ 91
most 91
odontidae 91
omi 91
pressure 91
program 91
ren@@ 91
ties 91
tius 91
uma 91
ware 91
ซอฟ@@ 91
ประชาธิปัตย์ 91
พนัก@@ 91
ยิม@@ 91
เก้า@@ 91
水@@ 91
真@@ 91
1777 90
1778 90
2,600 90
476 90
Bruce 90
Bul@@ 90
Captain 90
Chief 90
Clar@@ 90
Cle@@ 90
EM 90
EV@@ 90
Factory 90
Fil@@ 90
Flu@@ 90
Fol@@ 90
Give 90
Hu 90
Jason 90
Jay 90
Jerry 90
Kw@@ 90
MBA 90
Mario 90
Med@@ 90
Myr@@ 90
Psych@@ 90
Seoul 90
Tell 90
UNESCO 90
XX@@ 90
born 90
chart 90
design 90
enti@@ 90
eti@@ 90
fusca 90
hab@@ 90
heter@@ 90
hydroxy@@ 90
lear 90
mass 90
melan@@ 90
mo 90
ocarpus 90
oto 90
ped@@ 90
processing 90
ratio 90
spin@@ 90
stress 90
stri@@ 90
umin@@ 90
vi 90
ดัด@@ 90
นที่ 90
วิจัยและ@@ 90
ิป@@ 90
း@@ 90
寺@@ 90
陽@@ 90
002 89
1651 89
1763 89
1784 89
2100 89
525 89
Abbey 89
Adventure 89
August 89
Avengers 89
Bin@@ 89
DO 89
Destiny 89
FBI 89
Fantastic 89
Glass 89
Has@@ 89
Hon@@ 89
Into 89
Jane 89
Kaz@@ 89
LIVE 89
MG 89
MM@@ 89
Merc@@ 89
Mix 89
Oriental 89
PG 89
PL 89
PPV 89
Page 89
Pretty 89
Role 89
Run@@ 89
Sang@@ 89
Shift 89
Song@@ 89
Ultra 89
Upper 89
Wilhelm 89
Yi 89
Youtube 89
ado 89
alist 89
arg@@ 89
aster@@ 89
ateral 89
award 89
bat@@ 89
black 89
centr@@ 89
eling 89
ground 89
gun 89
ih@@ 89
lip@@ 89
lobe 89
metal 89
odi@@ 89
reg@@ 89
tiv@@ 89
tors 89
ural 89
×@@ 89
ฏิ@@ 89
ลวด@@ 89
วัฒน@@ 89
วางใจ 89
ุณ@@ 89
เฉลิม@@ 89
เซ็น@@ 89
エ@@ 89
夜@@ 89
院@@ 89
@@ 89
1775 88
1786 88
2,200 88
267 88
282 88
296 88
313 88
4.9 88
425 88
6,0@@ 88
7,500 88
Ach@@ 88
Alpha 88
Benz 88
Bernard 88
Bird 88
CCS 88
Centr@@ 88
Cinematic 88
Communication 88
Competition 88
Complex 88
DI@@ 88
Dal@@ 88
Economics 88
GR 88
Honor 88
Jacob 88
Jan@@ 88
Kurt 88
Mister 88
Object 88
Py@@ 88
RMS 88
Rising 88
Russia 88
Sand@@ 88
Shar@@ 88
Uni@@ 88
VR 88
Vince 88
Vo@@ 88
ades 88
arc@@ 88
bal@@ 88
e- 88
enz@@ 88
girl 88
inf@@ 88
int@@ 88
isti@@ 88
languages 88
lers 88
medicine 88
news 88
oper@@ 88
ori@@ 88
oy 88
pat@@ 88
place 88
pul@@ 88
pyramid 88
ski 88
tal@@ 88
trac@@ 88
ucle@@ 88
used 88
á@@ 88
พิพา@@ 88
เต็มไป@@ 88
ព@@ 88
័@@ 88
五@@ 88
1560 87
317 87
34,@@ 87
8.8 87
AH@@ 87
ARM 87
AX 87
Bio@@ 87
Boy@@ 87
Creative 87
Dave 87
Feel 87
Films 87
Flight 87
Hard@@ 87
Jeff 87
MF@@ 87
Majesty 87
Market 87
Mom@@ 87
Mut@@ 87
Professional 87
Ra@@ 87
Superman 87
Tem@@ 87
Trust 87
Universities 87
WH@@ 87
WOR@@ 87
Win@@ 87
Wong 87
Yo@@ 87
angi@@ 87
aro 87
attack 87
cavity 87
chloride 87
coc@@ 87
edge 87
eon 87
eu@@ 87
hol@@ 87
hormone 87
kan@@ 87
mus@@ 87
ole@@ 87
pel@@ 87
plex@@ 87
pur@@ 87
specific 87
tail 87
tho@@ 87
ylo@@ 87
θ 87
ชก@@ 87
ดิจิ@@ 87
ทัวร์นา@@ 87
สื่อสาร@@ 87
ออสเตร@@ 87
√ 87
」 87
は@@ 87
メ@@ 87
北@@ 87
月@@ 87
1580 86
1593 86
1740 86
326 86
555 86
907 86
Anderson 86
Brave 86
Charlie 86
Comedy 86
Eur@@ 86
Exchange 86
Gran 86
HD@@ 86
Hot@@ 86
Indonesia 86
Islamic 86
Juan 86
Layer 86
Mega 86
Neg@@ 86
Om@@ 86
Opera 86
PI 86
POP 86
Patrick 86
Premier 86
Productions 86
Rev@@ 86
Rot@@ 86
Samsung 86
Vir@@ 86
Wh@@ 86
Why 86
Wing 86
Zo@@ 86
adi 86
andra 86
chrom@@ 86
doc@@ 86
eki 86
face 86
fre@@ 86
ido 86
ification 86
ino@@ 86
lot 86
odes 86
oxide 86
ras@@ 86
reaction 86
response 86
small 86
sol@@ 86
thal@@ 86
thus 86
ves@@ 86
ville 86
{@@ 86
ผ่า@@ 86
ฝึก@@ 86
มปรา@@ 86
ระดม@@ 86
เสพ@@ 86
แท่น@@ 86
โผ@@ 86
1750 85
259 85
490 85
ATA 85
Android 85
Avenue 85
Bad@@ 85
Buc@@ 85
Chlor@@ 85
Dong@@ 85
Glory 85
Heat 85
Jordan 85
Kom@@ 85
Liberation 85
Linux 85
Living 85
Mam@@ 85
Miracle 85
Nick 85
PT 85
Plan 85
Rise 85
SEC 85
SV 85
Say@@ 85
Semi@@ 85
Sense 85
Sz@@ 85
USB 85
VC 85
Without 85
XII 85
Xi 85
Xi@@ 85
ail@@ 85
alized 85
della 85
dog 85
dol@@ 85
ear@@ 85
ela 85
epith@@ 85
esh@@ 85
fac@@ 85
fo@@ 85
genetic 85
hist@@ 85
iculus 85
ith 85
live 85
mia 85
ogenesis 85
open 85
ots 85
ova 85
plas@@ 85
prim@@ 85
script 85
sense 85
server 85
sil@@ 85
sort 85
tot@@ 85
zi@@ 85
กำหน@@ 85
ครอบ@@ 85
ปาฏิ@@ 85
ผู้อำนวย@@ 85
แก้ไข@@ 85
ไผ@@ 85
ជ@@ 85
が@@ 85
ま@@ 85
1260 84
1460 84
1666 84
1773 84
316 84
980 84
Af@@ 84
Andy 84
Benjamin 84
Berlin 84
Bos@@ 84
CM 84
DF@@ 84
Eng@@ 84
Ernst 84
File 84
Gly@@ 84
Gordon 84
Grey 84
Hand@@ 84
Irish 84
Java 84
Jos 84
Lag@@ 84
Nas@@ 84
OECD 84
Pent@@ 84
Phase 84
Potter 84
Quest 84
Raymond 84
Rom@@ 84
Romeo 84
Saturday 84
Save 84
Singles 84
Sl@@ 84
Small 84
TCP 84
Vegas 84
XIV 84
actor 84
chel@@ 84
chol@@ 84
dis 84
elium 84
formation 84
lem@@ 84
po 84
quin@@ 84
wo 84
ya@@ 84
ǔ 84
β@@ 84
ทรรศ@@ 84
ปราม 84
พบ@@ 84
สแกน@@ 84
ำนาจ 84
ือด@@ 84
原@@ 84
地@@ 84
趙@@ 84
1392 83
1520 83
1530 83
1774 83
1785 83
22,000 83
28,000 83
344 83
345 83
38,@@ 83
44.@@ 83
47.@@ 83
48.@@ 83
Academic 83
BR@@ 83
Billy 83
Close 83
Du 83
Duchy 83
Factor 83
Gabriel 83
Il 83
Intelligence 83
Jun@@ 83
Liu 83
Malv@@ 83
Matthew 83
Nintendo 83
PHP 83
Plant@@ 83
Political 83
Sm@@ 83
SummerSlam 83
Tim 83
Xen@@ 83
alon 83
amide 83
ans@@ 83
arr@@ 83
death 83
dry 83
duction 83
eum 83
ew@@ 83
hypothesis 83
ick@@ 83
itor 83
ji@@ 83
km 83
mental 83
na@@ 83
ocular 83
off@@ 83
organ 83
painting 83
tan 83
troph@@ 83
val@@ 83
window 83
yon@@ 83
® 83
Đ@@ 83
ณาม 83
ตะบอง 83
รัม@@ 83
สาหร@@ 83
ใกล้@@ 83
ในการ@@ 83
　 83
お@@ 83
四@@ 83
華@@ 83
++ 82
0,0@@ 82
0.00 82
0000@@ 82
1340 82
1485 82
1568 82
1604 82
1625 82
1653 82
1765 82
1782 82
2200 82
277 82
336 82
357 82
395 82
750,000 82
808 82
BK 82
Bit@@ 82
DOHC 82
EL 82
Fal@@ 82
Fel@@ 82
Flo@@ 82
Fo@@ 82
Gran@@ 82
HK@@ 82
Lov@@ 82
Marketing 82
Move 82
Nicholas 82
Paradise 82
Phantom 82
RPG 82
Ra 82
Ras@@ 82
Rep@@ 82
Rh@@ 82
Sab@@ 82
Trav@@ 82
Wales 82
Wit@@ 82
a- 82
aff@@ 82
arius 82
bird 82
brach@@ 82
cerebral 82
coch@@ 82
cole 82
coli 82
enta 82
eri@@ 82
forest 82
ier 82
isi@@ 82
kle 82
lob@@ 82
los 82
made 82
normal 82
ome@@ 82
ons@@ 82
out@@ 82
positive 82
pres@@ 82
rel@@ 82
shi 82
sign 82
sound 82
tre 82
vis@@ 82
ขอน@@ 82
นเขา 82
พฤษ@@ 82
ภาลัย 82
เชียร 82
โอก@@ 82
← 82
み@@ 82
士@@ 82
市@@ 82
忠@@ 82
～@@ 82
1415 81
1470 81
1582 81
1605 81
1685 81
2,700 81
27,000 81
40,@@ 81
484 81
7.0 81
978 81
Cass@@ 81
Evolution 81
Jimmy 81
Jonathan 81
Lawrence 81
Musa 81
Need 81
PD@@ 81
Pon@@ 81
Rio 81
Rus@@ 81
SCA@@ 81
Text 81
Total 81
Tropical 81
Up@@ 81
aman 81
anic 81
archy 81
dcdcdc 81
digital 81
dom 81
elia 81
eous 81
folia 81
hur@@ 81
ibn 81
ime 81
linear 81
neural 81
oscopy 81
ostr@@ 81
sal 81
sar@@ 81
tim@@ 81
vel@@ 81
vin@@ 81
ï 81
Δ 81
θ@@ 81
ทุ่ม@@ 81
ปราก@@ 81
โหล@@ 81
川@@ 81
林@@ 81
氏@@ 81
#@@ 80
003 80
1515 80
1762 80
415 80
458 80
475 80
50,@@ 80
509 80
86@@ 80
AMP 80
April 80
BM 80
Block 80
Bub@@ 80
Cephal@@ 80
Cha@@ 80
Cichlidae 80
Cool 80
Dancing 80
Diary 80
Discovery 80
EP@@ 80
Event 80
FE@@ 80
Gone 80
Greater 80
Guard 80
HIV 80
Half 80
Hey 80
Jesus 80
Kum@@ 80
Leo 80
Lotus 80
Maj@@ 80
Mi 80
Mot@@ 80
NGC 80
Ner@@ 80
Observatory 80
Parliament 80
Phot@@ 80
Prime 80
Region 80
SMS 80
Safety 80
Snow 80
Surprise 80
Technical 80
Toz@@ 80
Vienna 80
WD 80
aga 80
agnetic 80
arium 80
athy 80
audit@@ 80
away 80
best 80
enzyme 80
flag 80
ground@@ 80
habilis 80
icity 80
inger 80
must 80
ones 80
pia 80
river 80
toxin 80
ประเพ@@ 80
มหิด@@ 80
สตรี@@ 80
ฮอล์ 80
เรือด@@ 80
ไออ@@ 80
ု@@ 80
周@@ 80
正@@ 80
美@@ 80
1204 79
140,000 79
1584 79
1680 79
1714 79
1766 79
319 79
343 79
354 79
512 79
7,0@@ 79
710 79
830 79
840 79
Acc@@ 79
Ancient 79
BD 79
Blade 79
Bol@@ 79
ERP 79
Eagle 79
Environmental 79
Gun 79
Gun@@ 79
Henri 79
Hulk 79
Inf@@ 79
Key@@ 79
Killer 79
Logic 79
ML 79
MX 79
Mari@@ 79
Phil@@ 79
PlayStation 79
Premium 79
Railway 79
Request 79
Rhiz@@ 79
SN 79
Sarah 79
Shah 79
Steel 79
Stories 79
Suzuki 79
Tournament 79
UFC 79
Village 79
agon@@ 79
anism 79
ante 79
bel@@ 79
child 79
cut 79
eer 79
else 79
gas@@ 79
gh@@ 79
leuk@@ 79
lor@@ 79
mis@@ 79
mission 79
onaceae 79
ope 79
phone 79
ppm 79
race 79
seed 79
sey 79
spinal 79
unda 79
ying 79
·@@ 79
Á 79
γ 79
กระทรวงการ@@ 79
นาฏ@@ 79
บันดาลใจ 79
บูลย์ 79
ย่อง 79
ริชาร์@@ 79
โปร์ 79
โรแม@@ 79
さ@@ 79
1469 78
1519 78
1606 78
271 78
292 78
341 78
632 78
780 78
94@@ 78
API 78
BT@@ 78
Bag@@ 78
Bec@@ 78
Chu 78
Communications 78
Cultural 78
DR@@ 78
FL@@ 78
Financial 78
Hills 78
Italian 78
June 78
Kit 78
Kit@@ 78
Late 78
License 78
Map 78
Matt 78
Mirror 78
Moment 78
PI@@ 78
Piano 78
Primary 78
Regional 78
Rules 78
Solaris 78
Sul@@ 78
TBS 78
VL@@ 78
Venus 78
XV 78
\@@ 78
about 78
ail 78
app@@ 78
bau@@ 78
cat 78
ders 78
disorders 78
eman 78
emb@@ 78
eur@@ 78
fication 78
form@@ 78
gi 78
iformes 78
iga 78
igh@@ 78
ight@@ 78
ishi 78
joint 78
make 78
matter 78
mut@@ 78
ogenic 78
ono 78
pp@@ 78
receive 78
rule 78
sep@@ 78
ses 78
sidian 78
town 78
uta 78
uv@@ 78
µ 78
í@@ 78
ชาน@@ 78
ถือปูน 78
ปริยาย 78
พนธ์ 78
รพ@@ 78
อรรถก@@ 78
อิสริ@@ 78
เขตร@@ 78
โฉ 78
も@@ 78
ブ@@ 78
我@@ 78
清@@ 78
陳@@ 78
1547 77
1570 77
1589 77
1755 77
1768 77
332 77
337 77
358 77
407 77
5.9 77
580 77
7.4 77
910 77
ACK 77
AMA 77
Active 77
Ari@@ 77
Austin 77
Aut@@ 77
BI@@ 77
Bang@@ 77
Baron 77
Butterfly 77
CAS 77
Cfa 77
Cover 77
Dear 77
Der 77
EU 77
Ec@@ 77
Ed 77
Enterprise 77
Francesco 77
Greek 77
Guardian 77
Guitar 77
HR 77
Heart@@ 77
INE 77
Ireland 77
Jacques 77
Jin 77
Jin@@ 77
Malaysia 77
Metro 77
Metropolitan 77
NP 77
Or 77
Panthera 77
Pay@@ 77
Petr@@ 77
Sav@@ 77
Scor@@ 77
Siam@@ 77
Socialist 77
Tears 77
Thi@@ 77
Wa@@ 77
Weekly 77
Ye@@ 77
__@@ 77
cryp@@ 77
dan 77
enn@@ 77
extr@@ 77
idine 77
iti@@ 77
ix 77
kHz 77
lab@@ 77
lig@@ 77
magnetic 77
mit@@ 77
mol@@ 77
mos@@ 77
motion 77
nar 77
nar@@ 77
oral 77
output 77
see 77
singer 77
term 77
ths 77
ui 77
uke 77
under 77
user 77
wall 77
zy@@ 77
π 77
น้@@ 77
ศาสต@@ 77
สาห@@ 77
้อนรับ 77
八@@ 77
東@@ 77
龍@@ 77
1192 76
1482 76
1498 76
1567 76
1569 76
1585 76
366 76
670 76
7.9 76
707 76
8.2 76
Barry 76
Boston 76
CAD 76
Campus 76
Carter 76
Commerce 76
DL 76
Dallas 76
Detective 76
Dig@@ 76
Dom@@ 76
Friedrich 76
Gold@@ 76
ITV 76
Jet 76
Lem@@ 76
Meth@@ 76
Nu@@ 76
Pass 76
Pet@@ 76
Python 76
Remember 76
Rhythm 76
STAR 76
Spanish 76
Subject 76
Sus@@ 76
Til@@ 76
Today 76
Treasure 76
UM 76
VA 76
Whit@@ 76
aj 76
amen 76
auto@@ 76
ban 76
bet@@ 76
box@@ 76
che 76
ecti@@ 76
eps 76
green 76
ici@@ 76
ige 76
inin 76
kan 76
kr@@ 76
mid 76
mus 76
oko 76
optera 76
poem 76
reduc@@ 76
shift 76
sodium 76
some 76
static 76
structure 76
track 76
tuber@@ 76
vul@@ 76
ó@@ 76
ฉะ@@ 76
ซับ@@ 76
ธำ@@ 76
ปาน@@ 76
เกร็@@ 76
ไอด@@ 76
๊า 76
ກ@@ 76
き@@ 76
軍@@ 76
0.01 75
1590 75
1614 75
1687 75
1720 75
355 75
384 75
405 75
89@@ 75
Amphi@@ 75
Beg@@ 75
Buddy 75
Cul@@ 75
DP 75
Dawn 75
Day@@ 75
Den@@ 75
Dynamic 75
GP 75
Goodbye 75
HMS 75
Head@@ 75
Ho 75
Jac@@ 75
Letter 75
Mai 75
Manga 75
Miz@@ 75
Nothing 75
PN 75
Platinum 75
Rebellion 75
Sing 75
Suite 75
Through 75
Top@@ 75
Ven@@ 75
XL 75
ages 75
agn@@ 75
ban@@ 75
bran@@ 75
ca@@ 75
chin@@ 75
dea 75
eidae 75
element 75
footballer 75
image 75
ister 75
jin 75
kai 75
lar 75
lim@@ 75
management 75
meg@@ 75
movement 75
opter@@ 75
ord@@ 75
phic 75
professional 75
sequence 75
serotonin 75
stem 75
tone 75
when 75
wrestling 75
zen 75
ð 75
สี่@@ 75
อุปัชฌาย์ 75
แปรร@@ 75
  75
星@@ 75
黃@@ 75
1494 74
1504 74
1541 74
1630 74
1699 74
2025 74
23,000 74
24,000 74
44,@@ 74
Aviation 74
Base 74
Books 74
Bun@@ 74
Carlos 74
Chel@@ 74
Cyclo@@ 74
DN@@ 74
Drop 74
Ferdinand 74
Frame 74
GNU 74
Gan@@ 74
Gif@@ 74
Hearts 74
LC 74
Left 74
Lon@@ 74
MN 74
MU@@ 74
Mass 74
Mich@@ 74
Min 74
Mo 74
OM 74
Pad@@ 74
Plagi@@ 74
Port 74
Roy 74
Sean 74
Shin 74
Soundtrack 74
Still 74
Swiss 74
WC 74
Welcome 74
Wide 74
Yak@@ 74
andro@@ 74
atsu 74
ava 74
choline 74
cs 74
development 74
din@@ 74
dom@@ 74
emati@@ 74
eme 74
fos@@ 74
good 74
ie@@ 74
ky@@ 74
lic@@ 74
market 74
oh 74
optic 74
oscill@@ 74
otox@@ 74
rap@@ 74
rat 74
systems 74
tensor 74
thail@@ 74
var@@ 74
wer 74
wh@@ 74
wind 74
พระไตร@@ 74
มงกุ@@ 74
ະ@@ 74
》 74
れ@@ 74
チ@@ 74
ュ@@ 74
世@@ 74
～ 74
04.@@ 73
1213 73
1279 73
13.5 73
1534 73
1536 73
1565 73
1572 73
1602 73
1758 73
1759 73
274 73
334 73
351 73
382 73
508 73
618 73
690 73
7.7 73
Ace 73
Adventures 73
Back@@ 73
Bass 73
Bobby 73
CK 73
Cou@@ 73
DT@@ 73
Douglas 73
Gh@@ 73
Good@@ 73
Gur@@ 73
Hamilton 73
Hop@@ 73
It@@ 73
Kab@@ 73
Ken 73
Lin 73
MW 73
Mand@@ 73
Meet 73
Midnight 73
Million 73
Op 73
RCA 73
RFC 73
Resident 73
Rol@@ 73
Ross 73
Slipknot 73
Southeast 73
Table 73
Theater 73
Thing 73
Things 73
Truth 73
VP 73
Vampire 73
ZX 73
Zen@@ 73
actin 73
aeus 73
ame@@ 73
angle 73
asia 73
company 73
drug 73
earth 73
four 73
hel@@ 73
land@@ 73
mati@@ 73
orders 73
points 73
product 73
rit@@ 73
rosis 73
tai 73
throm@@ 73
uy@@ 73
vaccine 73
yon 73
ธรณ@@ 73
บังคับ@@ 73
ประกาศนีย@@ 73
สงค@@ 73
ฮือ 73
ในกรณี@@ 73
あ@@ 73
つ@@ 73
を@@ 73
年@@ 73
後@@ 73
1001 72
1274 72
130,000 72
1370 72
1543 72
1607 72
1615 72
1678 72
45.@@ 72
599 72
740 72
791 72
9.8 72
ATV 72
Ali@@ 72
Ax@@ 72
BEST 72
Believe 72
Bishop 72
Camp@@ 72
Canadian 72
Carolina 72
Catherine 72
Coc@@ 72
DSP 72
Dan 72
Defense 72
Donald 72
Full@@ 72
Gas@@ 72
Hak@@ 72
Hart 72
IGA 72
Jack@@ 72
Jam@@ 72
Jump 72
Karen 72
Kn@@ 72
Kot@@ 72
Kung 72
Nelson 72
Nuclear 72
Prom@@ 72
Rome 72
Show@@ 72
Something 72
Tap@@ 72
Tencent 72
Virginia 72
Virus 72
WA 72
Working 72
XT 72
Xbox 72
Zealand 72
arian 72
ature 72
ave 72
being 72
coll@@ 72
dB 72
elegans 72
estr@@ 72
gl@@ 72
ini@@ 72
lipo@@ 72
oidea 72
ony@@ 72
oro 72
osine 72
ote 72
plus 72
programming 72
standard 72
thor@@ 72
thy@@ 72
ticus 72
tle 72
won 72
works 72
½ 72
î 72
คัญ 72
จักรภพ 72
ทรัพ@@ 72
บั้น@@ 72
ปทุ@@ 72
วิจัย@@ 72
ศรัย 72
สตัล 72
สถาปั@@ 72
เสด 72
่นวาย 72
唐@@ 72
門@@ 72
김@@ 72
100@@ 71
1150 71
1599 71
2,300 71
36,000 71
5,500 71
666 71
8.3 71
97@@ 71
98.@@ 71
Ad 71
Atlantic 71
Attack 71
Chang@@ 71
Cinema 71
Claude 71
December 71
Duchess 71
Ev@@ 71
Far 71
Forces 71
Fortune 71
GF@@ 71
Gen 71
Ges@@ 71
Hang@@ 71
Hare 71
Hour 71
IE 71
Jay@@ 71
Jon 71
Jor@@ 71
Laur@@ 71
Lith@@ 71
Lower 71
Matrix 71
Netflix 71
October 71
Output 71
PFC 71
PGP 71
Philosophy 71
Protection 71
Robot 71
Roll 71
Sailor 71
Sax@@ 71
Shop 71
Sugar 71
Sum@@ 71
Tat@@ 71
Visions 71
Wei 71
XY 71
aine 71
any@@ 71
att@@ 71
aureus 71
been 71
bert 71
bs 71
cereb@@ 71
come 71
dic@@ 71
dus 71
edia 71
emic 71
event 71
functional 71
han@@ 71
har 71
meth@@ 71
mind 71
nd@@ 71
occ@@ 71
og 71
osia 71
page 71
parent 71
park 71
personality 71
ping 71
plat@@ 71
project 71
res 71
ser 71
terminal 71
ì@@ 71
ซั่น 71
เหมือนว่า 71
โสธร 71
ရ@@ 71
ី 71
ズ@@ 71
校@@ 71
100,@@ 70
1440 70
1613 70
1623 70
1658 70
1713 70
312 70
400@@ 70
434 70
47,@@ 70
543 70
6,500 70
Brain 70
Britain 70
Content 70
Continental 70
Cross@@ 70
Dean 70
Dictionary 70
Environment 70
Everything 70
Godzilla 70
Gon@@ 70
Grace 70
Hig@@ 70
Hun@@ 70
Ig@@ 70
Jo 70
LV@@ 70
Log@@ 70
Lorraine 70
Melody 70
Mem@@ 70
Monkey 70
Oscar 70
Pa 70
Pom@@ 70
Rural 70
Saga 70
Spain 70
Train 70
Tsu@@ 70
Turner 70
Twin 70
UI 70
USD 70
Use 70
Warrior 70
aa 70
anemia 70
anthaceae 70
aru 70
ator@@ 70
care 70
cd 70
chemical 70
coron@@ 70
electron 70
eller 70
emp@@ 70
ester 70
fa 70
fin@@ 70
heat 70
ili 70
insert 70
jo@@ 70
ls 70
mur@@ 70
post 70
principle 70
problem 70
put 70
real 70
sun@@ 70
tory 70
uz@@ 70
wan@@ 70
web@@ 70
win 70
yx 70
ə@@ 70
ดีเปรสชัน 70
ี่ยม@@ 70
တ@@ 70
。 70
ョ@@ 70
心@@ 70
無@@ 70
祖@@ 70
魔@@ 70
0.0 69
1511 69
1542 69
1555 69
1637 69
314 69
331 69
843 69
ALA 69
Applied 69
Around 69
Audi@@ 69
Batman 69
Bir@@ 69
Cher@@ 69
Clu@@ 69
Concept 69
Diego 69
Father 69
Gol@@ 69
Hit 69
Ian 69
KN@@ 69
Knowledge 69
Lab 69
Lac@@ 69
Lan@@ 69
Las 69
Lonely 69
Ludwig 69
Male 69
Programme 69
Publishing 69
Pure 69
Racing 69
Sid@@ 69
Sn@@ 69
Source 69
Species 69
Staphylococcus 69
Start 69
Tea 69
UP 69
Vocal 69
Winner 69
Yuan 69
access 69
ack@@ 69
beta 69
break 69
cam@@ 69
chrome 69
density 69
district 69
ebr@@ 69
eption 69
error 69
esti@@ 69
etti 69
five 69
hair 69
host 69
hot 69
icos@@ 69
isa 69
isi 69
ista 69
kel@@ 69
kers 69
mean 69
mit 69
mul@@ 69
omb@@ 69
pas@@ 69
pot@@ 69
ric 69
roc@@ 69
secondary 69
semi@@ 69
sman 69
spectrum 69
thai 69
theorem 69
tv 69
uchi 69
vus 69
watch 69
xy 69
years 69
ē@@ 69
ư@@ 69
ː 69
จกรรม 69
ปไตย 69
พยั@@ 69
มัธยม@@ 69
ยิน@@ 69
รางวัล@@ 69
วิจาร@@ 69
下@@ 69
인@@ 69
1.50 68
1328 68
1516 68
1545 68
1573 68
1618 68
1672 68
1779 68
361 68
55,000 68
875 68
AMG 68
Anim@@ 68
Bac@@ 68
Bo 68
Booker 68
Broad@@ 68
CON@@ 68
Chapter 68
Circuit 68
Coll@@ 68
Cosmic 68
Cour@@ 68
Disease 68
EE 68
Es 68
Fac@@ 68
GR@@ 68
Gene 68
Gig@@ 68
Gil@@ 68
Goes 68
Igu@@ 68
Investment 68
KS 68
KU 68
Kol@@ 68
Medici 68
Mystery 68
Neo 68
Netherlands 68
Nicolas 68
Norman 68
Origin 68
[...]
