ya 1
. 1
na 1
, 0.8351816034767863
wa 1
katika 1
kwa 1
ni 1
&quot; 0.7955162628667949
) 1
( 1
la 1
za 1
mwaka 1
cha 1
kama 1
yake 1
@-@ 0.5045968121776597
kuwa 1
nchini 1
: 1
au 1
kutoka 1
kwenye 1
lugha 1
pia 1
zaidi 1
vya 1
watu 1
&#91; 1
&#93; 1
mji 1
wake 1
kati 1
; 1
alikuwa 1
Mto 1
kwanza 1
mwa 1
Kwa 1
nchi 1
hii 1
Tanzania 1
pamoja 1
hadi 1
wakazi 1
miaka 1
Mwaka 1
jina 1
&apos; 1
Afrika 1
wakati 1
juu 1
Kenya 1
lakini 1
ilikuwa 1
huko 1
tarehe 1
moja 1
kata 1
mto 1
mara 1
hiyo 1
ndani 1
mnamo 1
kazi 1
ku@@ 1
ambayo 1
Bahari 1
idadi 1
Mkoa 1
Katika 1
Kati 1
M@@ 1
sana 1
Maji 1
sehemu 1
eneo 1
hatimaye 1
nyingi 1
baada 1
mkoa 1
kwamba 1
yao 1
kundi 1
kubwa 1
Marekani 1
Wilaya 1
ambao 1
ili 1
chini 1
unapatikana 1
iko 1
hasa 1
hivyo 1
Kusini 1
huo 1
mkuu 1
tu 1
Ki@@ 1
yanaishia 1
kawaida 1
sensa 1
sababu 1
U@@ 1
hu@@ 1
mbalimbali 1
Baada 1
- 1
Uganda 1
wasemaji 1
huu 1
namba 1
Mashariki 1
kaskazini 1
u@@ 1
yenye 1
wengi 1
wilaya 1
timu 1
kila 1
kaunti 1
ali@@ 1
KK 1
vile 1
maji 1
alizaliwa 1
wali@@ 1
1 0.8773601183898097
uli@@ 1
m@@ 1
bahari 1
2 0.976167373762792
ambaye 1
Kufuatana 1
wapatao 1
uainishaji 1
lake 1
Wakati 1
kabla 1
Mungu 1
iliyofanyika 1
2012 1
Mnamo 1
magharibi 1
/ 0.7457213524860982
Kanisa 1
ki@@ 1
Kristo 1
siku 1
yote 1
kuna 1
inayozungumzwa 1
upande 1
Ni 1
ina 1
karne 1
mbili 1
ambapo 1
Uingereza 1
kusini 1
njia 1
muziki 1
imehesabiwa 1
dhidi 1
Naili 1
ili@@ 1
tena 1
karibu 1
aina 1
inahusu 1
hali 1
taifa 1
ajili 1
Papa 1
i 1
jimbo 1
akiwa 1
muda 1
N@@ 1
filamu 1
wenye 1
sasa 1
zake 1
mtu 1
Makala 1
nyingine 1
ak@@ 1
tofauti 1
hata 1
tangu 1
wote 1
– 0.45418388200200044
mmoja 1
serikali 1
kadhaa 1
mashariki 1
kutokana 1
humo 1
hivi 1
wao 1
nafasi 1
3 0.9359390639652704
u 1
Kaskazini 1
ana 1
ani 1
wengine 1
kuliko 1
hilo 1
Tangu 1
Kongo 1
maisha 1
pili 1
&amp; 0.9443816547077145
&#124; 1
Chuo 1
tatu 1
Mji 1
kuhusu 1
hili 1
chake 1
baadaye 1
duniani 1
ziwa 1
leo 1
K@@ 1
Sikukuu 1
mujibu 1
o 1
maeneo 1
si 1
kum@@ 1
oni 1
Ulaya 1
ik@@ 1
mkubwa 1
Kiingereza 1
Ufaransa 1
“ 0.6108711991460549
asili 1
nje 1
shule 1
Pia 1
mchezaji 1
walikuwa 1
muhimu 1
bila 1
Hindi 1
kufanya 1
kale 1
ia 1
4 0.9102955514888155
5 1
Ujerumani 1
mjini 1
maarufu 1
Eneo 1
watoto 1
yaani 1
Magharibi 1
zote 1
familia 1
pekee 1
kupitia 1
” 1
ini 1
of 0.03799785398900963
am@@ 1
Kik@@ 1
wanawake 1
zamani 1
% 0.5498474190539068
kabisa 1
The 0.11767394782688624
20 1
imani 1
Januari 1
an@@ 1
wak@@ 1
Mei 1
klabu 1
kutumia 1
Kim@@ 1
wimbo 1
habari 1
vita 1
anga 1
Ali@@ 1
un@@ 1
Wakristo 1
a@@ 1
mwisho 1
we 1
kuu 1
huwa 1
a 0.0451835716633109
uk@@ 1
maana 1
mtakatifu 1
Oktoba 1
una 0.48442418095744744
Japani 1
aji 1
awali 1
10 0.9527030721524146
Italia 1
elimu 1
bora 1
ikiwa 1
mita 1
bunge 1
mpya 1
kipindi 1
mengine 1
Kikuu 1
albamu 1
Julai 1
hizi 1
Roma 1
BK 1
de 0.026337120215329583
Juni 1
ambazo 1
aa 1
kupata 1
kuanzia 1
mpira 1
um@@ 1
Novemba 1
Burundi 1
waishio 1
ut@@ 1
mito 1
umri 1
19 1
W@@ 1
6 0.9315249324113039
Machi 1
hayo 1
biashara 1
milioni 1
Desemba 1
Agosti 1
I@@ 1
Septemba 1
2000 1
ika 1
ali 1
Maisha 1
Aprili 1
huadhimishwa 1
km 1
jamii 1
mfano 1
Historia 1
New 0.8219283072874836
Kis@@ 1
in@@ 1
takriban 1
dunia 1
w@@ 1
usawa 1
2014 1
12 1
miguu 1
Kib@@ 1
kifo 1
nguvu 1
kimataifa 1
Nigeria 1
kiasi 1
nyimbo 1
Kuna 1
2007 1
at@@ 1
makuu 1
msingi 1
ari 1
15 1
isha 1
7 1
ama 1
Februari 1
Yesu 1
dini 1
matumizi 1
Tuzo 1
T@@ 1
as@@ 1
kisiwa 1
mrefu 1
Dunia 1
amezaliwa 1
michezo 1
us@@ 1
binadamu 1
Hata 1
Jamhuri 1
mwenye 1
hapo 1
zao 1
mengi 1
historia 1
oa 1
aka 1
hizo 1
im@@ 1
ua 1
kampuni 1
wan@@ 1
Katoliki 1
Idadi 1
2008 1
2009 1
m 1
it@@ 1
mechi 1
18 1
fulani 1
x 1
ambalo 1
the 0.014801263153877075
mpaka 1
uwezo 1
alicheza 1
mtoto 1
baadhi 1
rasmi 1
mfumo 1
zili@@ 1
o@@ 1
2006 1
Misri 1
kwenda 1
sheria 1
inaweza 1
Wak@@ 1
11 1
9 1
2011 0.9631570673974827
kus@@ 1
ulikuwa 1
Lakini 1
Jina 1
i@@ 1
mwandishi 1
al@@ 1
haki 1
kiwango 1
al 0.3885555784723911
’ 0.2813747687510708
16 1
nne 1
ita 1
8 0.8905614264859959
damu 1
mwingine 1
s 0.5432569020081272
Kazi 1
tuzo 1
O@@ 1
2015 1
ang@@ 1
k@@ 1
13 1
Kit@@ 1
mwili 1
30 1
utawala 1
vi@@ 1
17 1
Marejeo 1
rangi 1
ugonjwa 1
af@@ 1
yeye 1
chama 1
y@@ 1
jumla 1
A@@ 1
G@@ 1
ab@@ 1
Ziwa 1
om@@ 1
ona 1
unga 1
kucheza 1
in 0.023884790891991907
kutoa 1
wa@@ 1
14 1
ala 1
ndege 1
neno 1
alipo@@ 1
asilimia 1
ur@@ 1
D@@ 1
shirika 1
Umoja 1
ambako 1
ndio 1
j@@ 1
B@@ 1
wana@@ 1
sita 1
mahali 1
iki 1
kumi 1
ar@@ 1
chuo 1
nyota 1
S@@ 0.990552837193496
hapa 1
es 0.23412414313737842
Tanganyika 1
mfalme 1
ok@@ 1
Mkuu 1
ai 1
halafu 1
uhuru 1
Uturuki 1
uwanja 1
wanyama 1
Amerika 1
wana 1
bado 1
idi 1
lili@@ 1
mambo 1
mwezi 1
ag@@ 1
2005 1
ah@@ 1
mdogo 1
una@@ 1
asi 1
jeshi 1
Wa@@ 1
ingawa 1
ul@@ 1
wat@@ 1
is@@ 1
asilia 1
katikati 1
uchaguzi 1
aw@@ 1
ata 1
21 1
Jimbo 1
II 1
il@@ 1
I 0.682146234417269
mama 1
L@@ 0.9677997624639736
mazingira 1
kikuu 1
chakula 1
Wakatoliki 1
d 0.5877480730667133
ndogo 1
pa 1
Uwanja 1
Rais 1
25 1
z@@ 1
Atlantiki 1
n@@ 1
2002 1
² 1
mwenyewe 1
2010 0.670611256516993
Kil@@ 1
kijiji 1
kwake 1
sawa 1
zile 1
Guinea 1
Hii 1
dawa 1
huelekea 1
hao 1
E@@ 1
ile 1
Alikuwa 1
Baadaye 1
ishi 1
Kin@@ 1
nyumbani 1
24 1
ma@@ 1
askofu 1
Yeye 1
and 0.023034826398793905
jinsi 1
mw@@ 1
aki@@ 1
makubwa 1
Mia 1
namna 1
Tarafa 1
Kiarabu 1
an 0.10295051409204871
ung@@ 1
= 1
Mara 1
kim@@ 1
eni 1
Waorthodoksi 1
Kifaransa 1
Was@@ 1
visiwa 1
F@@ 1
wanaoishi 1
rais 1
Kama 1
Ukristo 1
Ghana 1
on@@ 1
ch@@ 1
mbali 1
yali@@ 1
zin@@ 1
pwani 1
lilikuwa 1
.@@ 1
aliye@@ 1
kisiasa 1
Z@@ 1
hatari 1
Vita 1
Watu 1
urefu 1
baba 1
ila 1
ir@@ 1
ara 1
2016 0.7937069992995074
matokeo 1
Yohane 1
alianza 1
ka 1
anaheshimiwa 1
huduma 1
kulingana 1
tano 1
A 0.37153699817579255
Mpya 1
ap@@ 1
kidogo 1
ule 1
ati 1
Ny@@ 1
saba 1
2018 0.79768759766183
Orodha 1
Mas@@ 1
P@@ 0.9008808344961267
kitabu 1
walio@@ 1
Tarehe 1
or@@ 1
Paulo 1
22 1
uma 1
nyumba 1
spishi 1
mlima 1
huku 1
watakatifu 1
Jamii 1
hewa 1
anda 1
aj@@ 1
Urusi 1
picha 1
vitabu 1
Dar 1
Mak@@ 1
maneno 1
haya 1
Ku@@ 1
p@@ 1
bali 1
mi@@ 1
mwigizaji 1
joto 1
miji 1
Ch@@ 1
Kuu 1
Dola 1
upo 1
wawili 1
wenyewe 1
ishwa 1
yan@@ 1
ing@@ 1
2017 0.7896027640941039
kanda 1
Hispania 1
up@@ 1
vijana 1
Kilatini 1
2013 0.7234946848149629
mojawapo 1
milima 1
ot@@ 1
Kig@@ 1
binafsi 1
h@@ 1
eli 1
korongo 1
mak@@ 1
Australia 1
uni 1
Kid@@ 1
2020 0.8480874816709298
makao 1
gt 1
Kiswahili 1
shughuli 1
masomo 1
23 1
hicho 1
hiki 1
2019 0.7873856851294793
postikodi 1
uka 1
sauti 1
moyo 1
majina 1
msimu 1
Biblia 1
lt 1
mbele 1
ol@@ 1
! 1
hatua 1
J@@ 1
Mar@@ 1
kilomita 1
Hivyo 1
Y@@ 1
Asia 1
oma 1
kut@@ 1
ima 1
ndiyo 1
ambacho 1
Ethiopia 1
kin@@ 1
Bonde 1
amba 1
2003 1
oka 1
anza 1
York 0.8329982308826819
2001 1
iliyo@@ 1
H@@ 0.9567071742338431
Shule 1
isi 1
wale 1
alifariki 1
John 0.7551949116201322
ano 1
awa 1
linalopatikana 1
mwimbaji 1
vyake 1
100 1
weza 1
ina@@ 1
okea 1
iti 1
mabadiliko 1
1990 1
utamaduni 1
Salaam 1
t@@ 1
27 1
28 1
kote 1
2004 0.8983014807131366
on 0.06468006493321682
ek@@ 1
ema 1
sh@@ 1
ardhi 1
mu@@ 1
di 1
ongo 1
alim@@ 1
Uhindi 1
wala 1
az@@ 1
inga 1
yako 1
ao 1
utafiti 1
mwanachama 1
mfululizo 1
maendeleo 1
os@@ 1
olewa 1
26 1
Kibantu 1
kituo 1
mwanamke 1
umia 1
e@@ 1
China 1
ziliz@@ 1
kitaifa 1
kufikia 1
Zanzibar 1
eti 1
el@@ 1
.. 1
kisasa 1
zi 1
soka 1
endelea 1
zinaz@@ 1
n.k. 1
walio 1
em@@ 1
amu 1
enda 1
majimbo 1
posta 1
tu@@ 1
naye 1
vizuri 1
alipata 1
iri 1
halisi 1
ig@@ 1
haraka 1
Waislamu 1
In@@ 1
Kigiriki 1
B 1
ad@@ 1
kifupi 1
ana@@ 1
Ufa 1
umbo 1
v@@ 1
ach@@ 1
inayo@@ 1
V@@ 0.8778985430010274
kiongozi 1
kikubwa 1
onyesha 1
Chama 1
e 0.6740118333887054
Wan@@ 1
29 1
Mat@@ 1
lin@@ 1
umiwa 1
R@@ 0.760435830393258
alifanya 1
miwili 1
matatizo 1
enga 1
Ma@@ 1
Kale 1
Ng@@ 1
g@@ 1
kun@@ 1
upendo 1
An@@ 1
Maria 1
Kirumi 1
ime@@ 1
tabia 1
ungwa 1
hakuna 1
kisha 1
sanaa 1
mwanzo 1
ambo 1
Makao 1
azi 1
Nairobi 1
unda 1
kamili 1
kuishi 1
Mlima 1
ish@@ 1
Lugha 1
mashindano 1
siasa 1
ungu 1
matibabu 1
Mw@@ 1
wenzake 1
Mataifa 1
Wam@@ 1
kusababisha 1
imu 1
msanii 1
ame@@ 1
og@@ 1
ha 0.9994457145237321
afya 1
kali 1
kina 1
ub@@ 1
am 0.2887046818090228
hut@@ 1
kuingia 1
ndiye 1
nyuma 1
Kiaustronesia 1
huitwa 1
inay@@ 1
Wimbo 1
kili@@ 1
wiki 1
s@@ 0.7007585496342542
ji 1
mwanasiasa 1
onekana 1
vifaa 1
da 0.5735261312473632
sifa 1
ny@@ 1
orodha 1
Turkana 1
kike 1
wanafunzi 1
bara 1
iki@@ 1
eka 1
kabila 1
kuj@@ 1
Kimataifa 1
kilimo 1
mshindi 1
seli 1
ale 1
ang 1
ug@@ 1
kijamii 1
itwa 1
kup@@ 1
uchumi 1
rekodi 1
dalili 1
eza 1
aja 1
1999 0.9622137437766811
akawa 1
yanay@@ 1
ukubwa 1
kushinda 1
umba 1
Kikristo 1
huru 1
mkono 1
tarakimu 1
Kombe 1
id@@ 1
mchezo 1
31 1
Bwana 1
lenye 1
maalumu 1
Kiafrika 1
Shirika 1
bendi 1
alit@@ 1
umeme 1
Indonesia 1
inayofuata 1
mafuta 1
ane 1
mingi 1
alijiunga 1
ki 1
umma 1
lazima 1
Hapo 1
Wat@@ 1
kweli 1
olojia 1
amani 1
en@@ 0.6179515808907552
yo 1
to 0.020568993484391736
uko 1
amb@@ 1
wi 1
kik@@ 1
iwa 1
kit@@ 1
zenye 1
akili 1
kumbukumbu 1
Kir@@ 1
uhusiano 1
amp 0.5571471626173292
kura 1
ea 1
kuzuia 1
walioishi 1
iga 1
1991 1
Siku 1
ba 1
ndugu 1
er@@ 0.6675697875116031
Kijerumani 1
mab@@ 1
mapema 1
tasa 1
vijiji 1
wafiadini 1
f@@ 0.969190309923288
ja 1
mamlaka 1
Albamu 1
maziwa 1
mbinu 1
nusu 1
badala 1
kulikuwa 1
watumwa 1
heshima 1
ikia 1
vitu 1
imba 1
ko 1
miezi 1
isho 1
kikundi 1
mat@@ 1
yoyote 1
and@@ 1
hadithi 1
unaweza 1
tayari 1
jiji 1
shahada 1
b@@ 1
bidhaa 1
miongoni 1
tar 1
Sh@@ 1
Sudan 1
aka@@ 1
kuf@@ 1
kitu 1
kutangulia 1
1995 1
-------- 1
ingia 1
vingine 1
wal@@ 1
inayoandikwa 1
Baba 1
mafanikio 1
moto 1
Ingawa 1
alik@@ 1
hawa 1
jua 1
y 0.04737037533043014
aliy@@ 1
ela 1
Wab@@ 1
1994 1
barabara 1
ewa 1
safari 1
Wal@@ 1
aliwa 1
ar 0.5841796523621535
alama 1
zinaweza 1
huyo 1
nane 1
wanaweza 1
Sehemu 1
? 1
if@@ 1
iliy@@ 1
tisa 1
uta 1
kuanzisha 1
anacheza 1
ayo 1
wanaume 1
Ivoire 1
karibuni 1
Hasa 1
usi 1
Kisiwa 1
Miaka 1
aliyekuwa 1
uf@@ 1
was@@ 1
ha@@ 1
ongoza 1
mawili 1
1993 1
50 0.9171374254695511
Al@@ 1
mimea 1
Al 1
us 0.7671214345093209
wasanii 1
mkataba 1
makabila 1
1997 0.9995045051098714
kichwa 1
hak@@ 1
Wayahudi 1
Waziri 1
40 1
msaada 1
Kal@@ 1
li@@ 1
asa 1
yak@@ 1
Aliwahi 1
acha 1
elekea 1
kuzaliwa 1
Baadhi 1
d@@ 0.8336925957318831
umika 1
kimo 1
mashuhuri 1
kuz@@ 1
1998 0.9055769822224765
Un@@ 1
ay@@ 1
Elimu 1
Nchi 1
ta 1
vin@@ 1
wam@@ 1
aki 1
maalum 1
wazi 1
Mtakatifu 1
zilikuwa 1
Kiniger 1
aga 1
wadogo 1
Israeli 1
ombe 1
kutengeneza 1
ulimwengu 1
alishinda 1
cheo 1
London 0.9747758718991809
programu 1
uri 1
Kidemokrasia 1
yalikuwa 1
1996 0.9569889658853974
po@@ 1
Cote 1
h 1
1980 1
kijeshi 1
1970 1
vingi 1
Pamoja 1
kutokea 1
safu 1
okana 1
Papua 1
op@@ 1
video 1
viongozi 1
1992 0.9761084084596352
eta 1
fuata 1
ich@@ 1
Tana 1
ajwa 1
kuanza 1
mpango 1
hai 1
usiku 1
kuunda 1
Nyanza 1
City 0.6708685876362368
uch@@ 1
uliwa 1
dola 1
jambo 1
jirani 1
uso 1
mwanamuziki 1
kuto@@ 1
kuelekea 1
United 0.39276495768423253
televisheni 1
virusi 1
fedha 1
pande 1
athari 1
lina 1
aba 1
ji@@ 1
Uislamu 1
Leo 1
adi 1
kufa 1
kuchukua 1
oro 1
masuala 1
at 0.06301658415166832
ira 1
kanuni 1
kujenga 1
California 1
kanisa 1
makazi 1
pale 1
iz@@ 1
umu 1
kupunguza 1
mwanzilishi 1
Kabla 1
Ak@@ 1
uli 1
Korea 1
aliz@@ 1
kujiunga 1
koloni 1
mfiadini 1
ambavyo 1
aya 1
Waarabu 1
Brazil 1
Nobel 1
baridi 1
Muziki 1
fanya 1
eg@@ 1
• 1
ada 0.7874070931948564
ishaji 1
mapokeo 1
sala 1
uliopo 1
Mu@@ 1
ng 1
ah 1
kwani 1
mfupi 1
io 1
kuch@@ 1
magonjwa 1
Hapa 1
av@@ 1
egemea 1
chati 1
kuji@@ 1
mataifa 1
uz@@ 1
kushika 1
mtandao 1
of@@ 1
yaliyo@@ 1
dhuluma 1
ing 0.29186039499361016
kurudi 1
meli 1
ilianzishwa 1
lengo 1
viwango 1
walit@@ 1
kadiri 1
vilevile 1
lilil@@ 1
ngozi 1
Kih@@ 1
nao 1
Injili 1
chache 1
mikoa 1
Ligi 1
abu 1
vyombo 1
ati@@ 1
ulioko 1
kuendelea 1
ob@@ 1
Mal@@ 1
is 0.03422342293969194
kilikuwa 1
kusoma 1
mtindo 1
uru 1
Taifa 1
Arusha 1
anajulikana 1
mawasiliano 1
et 0.03908108686584809
Bunge 1
roho 1
kis@@ 1
mbio 1
mraba 1
hutumika 1
mbaya 1
zina 1
Kuanzia 1
ash@@ 1
hau@@ 1
Tanga 1
Vigawo 1
et@@ 1
ilit@@ 1
any@@ 1
maambukizi 1
makundi 1
anaweza 1
1988 1
matukio 1
mvua 1
kando 1
1960 1
omba 1
saa 1
amia 1
kuongeza 1
Kiy@@ 1
Ali 1
umbali 1
awe 1
kuona 1
mali 1
Mag@@ 1
Vijijini 1
angaza 1
ngazi 1
Kas@@ 1
basi 1
Vietnam 1
angalia 1
Kanada 1
chanzo 1
mbunge 1
muundo 1
ibada 1
kutaja 1
kw@@ 1
onga 1
Msimbo 1
tun@@ 1
ie 0.9219597765705825
ov@@ 1
vyote 1
wadudu 1
el 0.03943397849329017
mwanzoni 1
vili@@ 1
julikana 1
C@@ 0.5493108539650805
mwalimu 1
wananchi 1
amini 1
ndoa 1
enea 1
yale 1
uongozi 1
esha 1
taasisi 1
Kitabu 1
Kutokana 1
ib@@ 1
miti 1
ud@@ 1
sekondari 1
hi 1
kuli@@ 1
zilizo@@ 1
200 1
ong 1
padri 1
wakiwa 1
Mjini 1
ma 1
ae 1
kufika 1
Sheria 1
alia 1
kompyuta 1
yetu 1
askari 1
Kam@@ 1
Morogoro 1
angwa 1
kutumika 1
kul@@ 1
wame@@ 1
Ar@@ 0.8350516647017349
Hali 1
b 0.998412137004757
linal@@ 1
maj@@ 1
wah@@ 1
ele 1
zingine 1
inat@@ 1
kusaidia 1
Serikali 1
atia 1
wastani 1
heri 1
uzi 1
dhahabu 1
mmojawapo 1
taarifa 1
Wanawake 1
samaki 1
Kwanza 1
Rwanda 1
Ab@@ 1
maonyesho 1
1989 0.9382641861285719
‘ 1
ikwa 1
hifadhi 1
lililo 1
Am@@ 1
imekuwa 1
r@@ 0.7289680810968917
1987 1
juhudi 1
ujenzi 1
Waingereza 1
ow@@ 1
Botswana 1
Filamu 1
Uholanzi 1
ezi 1
gazeti 1
kinach@@ 1
oko 1
ori 1
ufalme 1
ate 0.5385182588542914
mas@@ 1
silaha 1
wingi 1
ez@@ 1
mp@@ 1
es@@ 0.7989351240008176
mtunzi 1
Mab@@ 1
barani 1
isi@@ 1
ligi 1
oti 1
zinazo@@ 1
do 0.6054844521757577
Na 1
kasi 1
po 1
ito 1
hutumia 1
kiuchumi 1
utaratibu 1
kuandika 1
ubongo 1
sayansi 1
umaarufu 1
ti@@ 1
ushindi 1
baina 1
é 0.5051781891855226
maadili 1
ye 1
India 1
oto 1
ilianza 1
ura 1
Akiwa 1
Dodoma 1
um 0.2926103044578957
tarafa 1
wako 1
Zimbabwe 1
ishia 1
wenyeji 1
kuw@@ 1
mke 1
ota 1
as 0.034736647392574024
oh@@ 1
Wakazi 1
kupiga 1
mafundisho 1
maumivu 1
pengine 1
0 0.5625157002651306
lik@@ 1
2021 0.5417742482772062
Bar@@ 1
Kiislamu 1
Paris 0.6658639291572767
afuta 1
iliopo 1
mabao 1
od@@ 1
iliyokuwa 1
mafunzo 1
pombe 1
Fransisko 1
ari@@ 1
mwishoni 1
Angola 1
nzuri 1
upya 1
zo 1
La 0.10698463903725287
isipokuwa 1
maandishi 1
ogo 1
Alizaliwa 1
Sahara 1
iliyo 1
kur@@ 1
kuwepo 1
mwendo 1
uchunguzi 1
Kip@@ 1
kiume 1
waki@@ 1
aliandika 1
inda 1
jukumu 1
l@@ 0.6812456417469522
pesa 1
Mtume 1
hus@@ 1
kuonekana 1
mchanganyiko 1
madhehebu 1
osa 1
Kila 1
West 0.6987511686929746
alihamia 1
uj@@ 1
raia 1
umoja 1
eng@@ 1
B.K. 1
Kar@@ 1
andikwa 1
kil@@ 1
lao 1
mkutano 1
Vi@@ 1
oli 1
wataalamu 1
yaliy@@ 1
apo@@ 1
eb@@ 1
mashirika 1
4,@@ 1
bakteria 1
barua 1
mno 1
wazazi 1
au@@ 1
teknolojia 1
alisema 1
harakati 1
binti 1
kudumu 1
yanaweza 1
Kamerun 1
enzi 1
kesi 1
Michael 1
iliyot@@ 1
kilich@@ 1
toleo 1
Hakuna 1
ai@@ 1
ambuliwa 1
faida 1
Ili@@ 1
ango 1
wanachama 1
ou@@ 1
Kif@@ 1
ilik@@ 1
wasi@@ 1
ukoloni 1
Yerusalemu 1
ke 1
kwao 1
wafuasi 1
Sanaa 1
aza 1
gari 1
ongozwa 1
reli 1
Asili 1
waliokuwa 1
Mad@@ 1
Man@@ 1
mb@@ 1
zim@@ 1
Mbeya 1
ania 1
mimba 1
lil@@ 1
Upande 1
Ureno 1
undwa 1
wakubwa 1
ofisi 1
uwezekano 1
III 1
Mwan@@ 1
mradi 1
kushiriki 1
upinzani 1
Spishi 1
daraja 1
vipindi 1
Olimpiki 1
Uchina 1
ong@@ 1
hutokea 1
kufuata 1
mag@@ 1
° 0.8893139777203546
Maj@@ 1
kaisari 1
Ugiriki 1
madogo 1
Cape 1
James 0.7948001965334835
dhambi 1
hutumiwa 1
alitoa 1
br 1
Wajerumani 1
embe 1
for 0.032259321041001744
kuweka 1
alianzisha 1
awala 1
riwaya 1
Wali@@ 1
macho 1
ulio@@ 1
Kab@@ 1
era 0.4137220550135572
Wasifu 1
kumaliza 1
kuwa@@ 1
monasteri 1
ak 1
Aina 1
Visiwa 1
ungua 1
wagonjwa 1
yenyewe 1
4@@ 1
hi@@ 1
kikosi 1
ti 1
Algeria 1
Neno 1
Roho 1
ikawa 1
kihistoria 1
kutolewa 1
viwanda 1
Nyumba 1
uki@@ 1
Kampuni 1
andika 1
bandari 1
studio 1
izi 1
C 0.6247269913698944
Aleksandria 1
ine 0.7391390125629322
ed@@ 1
kuonyesha 1
ujumla 1
Agano 1
ishara 1
mch@@ 1
Kitaifa 1
eo 1
fu 1
redio 1
weka 1
Mchezaji 1
Waafrika 1
ambua 1
apa 1
kuja 1
mauaji 1
uza 1
soko 1
1982 0.9890090223480367
Africa 1
di@@ 0.852329612084092
kutafuta 1
Kigoma 1
Muungano 1
Mkristo 1
alipokuwa 1
jenasi 1
k 0.7616733548012574
ulit@@ 1
anam@@ 1
kuk@@ 1
kinga 1
ula 1
1981 0.9921347758146533
Baraza 1
Shirikisho 1
Wah@@ 1
unganisha 1
1986 0.8985730664375529
awi 1
walipo@@ 1
zil@@ 1
imet@@ 1
ukweli 1
African 1
Wag@@ 1
yam@@ 1
uzito 1
t 0.4158844400119039
usha 1
Mb@@ 1
fu@@ 1
mapinduzi 1
Petro 1
alichaguliwa 1
makala 1
Mtwara 1
Somalia 1
tukio 1
Milima 1
amri 1
iv@@ 1
alipokea 1
bu@@ 1
majaribio 1
Ubelgiji 1
Ufalme 1
mtayarishaji 1
omo 1
hop 1
iliyopita 1
jeni 1
VVU 1
ino 1
kiungo 1
si@@ 1
th@@ 0.8094657808860811
Galana 1
elewa 1
map@@ 1
akam@@ 1
inayot@@ 1
yal@@ 1
yanayo@@ 1
1985 0.8932563572204019
As@@ 1
Mfalme 1
polisi 1
1984 0.8906795606916293
El 0.15688273195128732
FIFA 1
Pius 1
katiba 1
kua 1
udi 1
anzisha 1
kupokea 1
mitatu 1
nakala 1
one 0.12361035064093617
wap@@ 1
Austria 1
angani 1
uti 1
waliouawa 1
William 0.6700144983633001
fupi 1
mawe 1
pata 1
uzazi 1
aribu 1
wanaheshimiwa 1
ezwa 1
Habari 1
Kilimanjaro 1
ilim@@ 1
mayai 1
vikundi 1
vit@@ 1
wanao@@ 1
5@@ 1
Hadi 1
ei 1
herufi 1
wanajeshi 1
du 0.0497010559511184
ene 1
or 0.09256904748845084
wach@@ 1
engwa 1
mbegu 1
ole 1
Mama 1
end@@ 1
oz@@ 1
sherehe 1
George 0.7249524736636801
g 0.8255150290561423
wezesha 1
Athi 1
hip 1
simu 1
Kut@@ 1
hawak@@ 1
kula 1
kinyume 1
Kaisari 1
Msumbiji 1
pokea 1
usimamizi 1
wachache 1
2@@ 1
Paul 0.689599085290066
sura 1
60 0.9061955949793563
man 0.2899294478924428
mt@@ 1
walim@@ 1
wafanyakazi 1
en 0.015406557168152089
osi 1
unao@@ 1
iliyopo 1
baharini 1
FC 1
Joseph 1
Unguja 1
hat@@ 1
mawazo 1
Jua 1
Jeshi 1
l 0.1690648462983357
vituo 1
gesi 1
Utafiti 1
Alianza 1
tiba 1
Kaunti 1
chombo 1
wakilisha 1
watatu 1
waziri 1
Chini 1
Zambia 1
waka@@ 1
Iko 1
ep@@ 1
ilitolewa 1
mirefu 1
toka 1
wani 1
* 0.4589024999579319
Ame@@ 1
Malcolm 1
amua 1
jijini 1
kisayansi 1
Taasisi 1
Uchaguzi 1
kijijini 1
ng@@ 1
osh@@ 1
kutosha 1
sayari 1
Mi@@ 1
bi@@ 0.9360400562181594
ih@@ 1
siri 1
waliot@@ 1
vil@@ 1
500 1
ike 1
kuongezeka 1
ume@@ 1
K.K. 1
Sabaki 1
Th@@ 1
huyu 1
vikuu 1
mashairi 1
eri 1
majira 1
neema 1
asi@@ 1
matunda 1
National 0.32231558811227295
kutambua 1
Uswidi 1
n 0.48559224113052996
iriki 1
kuv@@ 1
nia 1
z 0.7171189444462689
eh@@ 1
ishirini 1
R 0.897187694018857
mifumo 1
nadharia 1
zina@@ 1
CCM 1
wachezaji 1
1,@@ 1
lime@@ 1
misitu 1
oga 1
shida 1
Wap@@ 1
kumu@@ 1
mik@@ 1
ora 1
ou 0.2245923995804074
ra 0.5714858306852169
ujuzi 1
mwana 1
nguo 1
ush@@ 1
viungo 1
6@@ 1
Hatimaye 1
Saint 0.3927211433483294
anay@@ 1
ilikadiriwa 1
80 1
eleza 1
nzima 1
Mah@@ 1
hospitali 1
kuleta 1
mikubwa 1
mwanaharakati 1
unguza 1
X 0.8798401103690523
un 0.03401727393899558
Kan@@ 1
esi 1
kidini 1
kuenea 1
nini 1
alfabeti 1
6,@@ 1
kupatikana 1
ulia 1
East 0.7743454287402267
haj@@ 1
mapigano 1
walianza 1
1964 0.9955552900913824
Jiografia 1
ere 1
milki 1
7,@@ 1
Bora 1
Robert 0.7032817763796552
kaka 1
majani 1
waf@@ 1
walik@@ 1
Awards 1
rahisi 1
5,@@ 1
Lu@@ 1
alis@@ 1
aliwahi 1
nayo 1
are 0.07338267932323408
kusema 1
uzalishaji 1
ge 1
indwa 1
kiroho 1
mikono 1
unganishwa 1
Matumizi 1
zik@@ 1
UKIMWI 1
amo 1
nyeupe 1
Charles 0.6790236339260541
er 0.05967721941452406
kuhamia 1
nishati 1
vifo 1
Kituo 1
avu 1
ulimwenguni 1
ushirikiano 1
vyama 1
pewa 1
ungo 1
gharama 1
ilipo@@ 1
kundinyota 1
le 0.027311684561875906
zinazot@@ 1
1950 0.8324852327057373
Benki 1
mal@@ 1
peke 1
South 0.3874971096781365
Uajemi 1
uh@@ 1
amp@@ 1
dogo 1
kiko 1
alisoma 1
kui@@ 1
mingine 1
San 0.3765023991570588
dakika 1
ena 1
fika 1
kilometa 1
madini 1
Nile 1
afu 1
bu 1
chuma 1
endesha 1
msh@@ 1
ngoma 1
uliot@@ 1
David 0.679171967136094
sa 0.21288553370584123
3,@@ 1
mipango 1
70 1
mpangilio 1
uny@@ 1
viwili 1
+ 0.7062328464869331
Tabora 1
umuhimu 1
300 1
International 0.5266152067500205
elementi 1
ongezeka 1
Kagera 1
amekuwa 1
milele 1
ndefu 1
Di@@ 1
je 1
kab@@ 1
kutoweka 1
Jumuiya 1
chenye 1
kimoja 1
mkurugenzi 1
single 0.48853633761043463
usalama 1
amet@@ 1
mia 1
sahihi 1
Kisha 1
kub@@ 1
ulinzi 1
yanaelekea 1
yangu 1
# 1
aliweza 1
kar@@ 1
nyama 1
Ag@@ 1
apo 1
ham@@ 1
iitwayo 1
kufuatana 1
mahitaji 1
3@@ 1
Njia 1
Viungo 1
lote 1
maskini 1
ume 1
war@@ 1
eshwa 1
medali 1
Nam@@ 1
Records 1
ip@@ 1
ukiwa 1
ukoo 1
90 1
aliendelea 1
alipewa 1
lina@@ 1
bo@@ 1
fasihi 1
vyuo 1
Kwenye 1
benki 1
jadi 1
majengo 1
mzuri 1
viumbe 1
Lindi 1
kush@@ 1
nyekundu 1
och@@ 1
r 1
tatizo 1
Senegal 1
aliyet@@ 1
athiriwa 1
row 1
Mpaka 1
North 0.4574057286681633
imo 1
ushahidi 1
Guthrie 1
Sayansi 1
esh@@ 1
wanamuziki 1
waj@@ 1
akit@@ 1
aliteuliwa 1
ola 1
aye 1
eng 1
thamani 1
vipimo 1
1979 0.7911879705353166
falsafa 1
400 1
Manchester 1
kile 1
mwanafunzi 1
ongezeko 1
yat@@ 1
aha 1
ilia 1
inap@@ 1
isiyo 1
Kihindi 1
Maendeleo 1
Ru@@ 1
ofanya 1
Mwezi 1
ende 1
huweza 1
kuimba 1
1977 0.8575146137948311
ad 0.936461131821333
Peter 0.7908302445471912
Mwanza 1
Ndugu 1
du@@ 1
kitovu 1
1978 0.8091692872654456
Huko 1
Jackson 1
kijana 1
os 0.38477801274405193
School 0.33991174467319346
akat@@ 1
1983 0.7638062769802596
TV 0.706434470205406
kupita 1
zinat@@ 1
Biashara 1
Mfano 1
kisheria 1
mit@@ 1
adi@@ 1
we@@ 1
Mtaguso 1
kuacha 1
zilit@@ 1
zwa 1
kitamaduni 1
1975 0.7580183766497212
Mapinduzi 1
imara 1
mashamba 1
olo 1
World 0.2655913199392579
aliza 1
athiri 1
Jersey 1
unguka 1
10,000 1
Kiebrania 1
Pili 1
fainali 1
King@@ 1
akifunga 1
be 0.07748287151296046
kukaa 1
kuongoza 1
onyeshwa 1
risasi 1
unat@@ 1
Hifadhi 1
Mkoani 1
Pwani 1
Ut@@ 1
har@@ 1
ingi 1
Kutoka 1
maelezo 1
q@@ 1
shinikizo 1
Muhammad 1
Wazungu 1
hal@@ 1
ujumbe 1
Map@@ 1
Michezo 1
a.@@ 1
atwa 1
husika 1
Wad@@ 1
it 0.06344757228589146
mapafu 1
waandishi 1
... 0.5437090049010465
Gregori 1
afanya 1
mtaalamu 1
Alit@@ 1
ato 1
engenezwa 1
hisia 1
osha 1
uo 1
usafiri 1
zilizot@@ 1
Ad@@ 1
Kundi 1
daktari 1
kufuatia 1
mchakato 1
ungana 1
usu 1
vilivy@@ 1
1969 0.8345447605319534
jangwani 1
magari 1
mazao 1
taratibu 1
uu 1
Mis@@ 1
utu 1
zime@@ 1
ndipo 1
nyakati 1
uzwa 1
1976 0.7701592360881785
Ruvuma 1
inajulikana 1
-@@ 0.5532202506223439
ilipata 1
wanak@@ 1
Basi 1
Music 0.7672760841741162
anyika 1
1963 0.9232892260128298
Mali 1
maoni 1
mipaka 1
sera 1
ulu 1
umb@@ 1
Mombasa 1
lilit@@ 1
takribani 1
8,@@ 1
Mus@@ 1
apata 1
mazoezi 1
wenzao 1
Argentina 1
bin 1
ej@@ 1
kisiwani 1
kuuza 1
li 1
vidogo 1
Alipata 1
Kirusi 1
hesabu 1
minne 1
tawi 1
unaot@@ 1
zi@@ 1
alo 1
ubali 1
wowote 1
Sous 1
inak@@ 1
kujitawala 1
mapenzi 1
gani 1
kukuza 1
mah@@ 1
mstari 1
ri 1
usa 1
Utawala 1
ajabu 1
barafu 1
hupatikana 1
kavu 1
préfecture 1
upasuaji 1
yana 1
1972 0.7231586913139022
azo 1
bi 1
scope 1
vim@@ 1
bei 0.14685199159994874
dada 1
kibiashara 1
ukuaji 1
angazwa 1
umwa 1
anya 1
hutoa 1
ilhali 1
kud@@ 1
mwenyekiti 1
to@@ 1
ubaguzi 1
ulianza 1
hufanya 1
kukua 1
suala 1
Kich@@ 1
w 1
Askofu 1
War@@ 1
Wikipedia 1
ami 1
IV 1
Kat@@ 1
kich@@ 1
usi@@ 1
Chi@@ 1
inayoitwa 1
mashine 1
mwanga 1
1961 0.9256419067267403
1974 0.7358789958977043
Hu@@ 1
Town 1
Uchumi 1
wanat@@ 1
kalenda 1
mar@@ 1
mzima 1
ulianzishwa 1
ya@@ 1
Juu 1
Ko@@ 1
Uswisi 1
ambia 1
kuondoka 1
kushindwa 1
Kivuka 1
You 1
ibu 1
iku@@ 1
jinsia 1
kij@@ 1
vy@@ 1
2,@@ 1
Iringa 1
huj@@ 1
injini 1
matatu 1
muungano 1
Is@@ 1
Kulingana 1
Singida 1
Vilevile 1
akuwa 1
yana@@ 1
yeyote 1
Ndege 1
elezea 1
iliwa 1
upana 1
waz@@ 1
9,@@ 1
Nyerere 1
alichunguza 1
alikua 1
etea 1
ev@@ 1
hula 1
ida 1
O 0.5155376988545503
akana 1
asidi 1
huenda 1
tovuti 1
Malawi 1
Pakistan 1
kid@@ 1
1973 0.7385796634124207
Kioseaniki 1
Nak@@ 1
Ndiyo 1
ath@@ 1
kubali 1
alimtangaza 1
chumvi 1
emba 1
mti 1
wasichana 1
El@@ 0.8503344479445746
V 0.7290593764872799
mk@@ 1
mkali 1
rafiki 1
1967 0.7848205223584029
alish@@ 1
mis@@ 1
polepole 1
Ilikuwa 1
angi 1
hur@@ 1
ni@@ 1
protini 1
sumu 1
data 1
udongo 1
ukua 1
urithi 1
Urefu 1
bo 1
utendaji 1
wazo 1
alitumia 1
haw@@ 1
kurekodi 1
kutu@@ 1
ge@@ 0.6431180939031507
iro 1
kampeni 1
marufuku 1
Washington 0.7150454595388311
azama 1
ifu 1
jengo 1
madhara 1
mpiga 1
runinga 1
Har@@ 1
mshairi 1
watawala 1
Kinapatikana 1
Mt@@ 1
Tofauti 1
aidia 1
ho@@ 1
husababisha 1
msimbo 1
ngumu 1
ui 1
dhana 1
iwe 1
mapya 1
Kihispania 1
Kitui 1
Ndani 1
desturi 1
kujua 1
uandishi 1
uv@@ 1
Bo@@ 0.9611702470471489
oo 1
wasio 1
yanat@@ 1
1965 0.7895690566166701
Kur@@ 1
isa 1
safi 1
wageni 1
Duniani 1
alishiriki 1
kuuawa 1
man@@ 0.9736751632390815
Anatolia 1
abati 1
alifunga 1
eke 1
ipo 1
wakuu 1
Mt 1
alirudi 1
kombe 1
mwan@@ 1
ncha 1
Mambo 1
hati 1
kukubali 1
nasaba 1
vik@@ 1
zifuatazo 1
Mkutano 1
umi 1
yanayot@@ 1
anayejulikana 1
bilioni 1
Wengine 1
anak@@ 1
anap@@ 1
ilivyo 1
mwingi 1
aweza 1
hum@@ 1
majukumu 1
wetu 1
Ina 1
Moroko 1
emb@@ 1
iliyop@@ 1
mapato 1
metali 1
neva 1
oj@@ 1
sio 1
ako 1
homa 1
35 0.8523735841894945
Haki 1
1971 0.6872758276736372
andaa 1
kipimo 1
kizazi 1
mgongo 1
Billboard 1
N 0.8296144930207152
emi 1
ono 1
p 0.613241198191814
Afya 1
Sababu 1
matendo 1
ote 1
sa@@ 1
waamini 1
aanisha 1
kutumiwa 1
zilizo 1
Zaidi 1
anat@@ 1
bao 1
su@@ 1
uba 1
wakimbizi 1
kk 1
kubadilisha 1
labda 1
mzunguko 1
vyakula 1
yi 1
ingo 1
mchanga 1
mdomo 1
Ka@@ 1
Mp@@ 1
Uhuru 1
anzishwa 1
be@@ 0.5752587170424096
chi 1
kiini 1
ko@@ 1
vipande 1
1962 0.8015141372216464
Richard 0.7545904662636155
ee 1
kan@@ 1
kuendeleza 1
kuondoa 1
nuru 1
ain@@ 1
hup@@ 1
kibinafsi 1
mitano 1
Kata 1
makampuni 1
mitindo 1
uia 1
undisha 1
wanaj@@ 1
angulia 1
jamhuri 1
sugu 1
ue 1
wakifuata 1
Kap@@ 1
Mahakama 1
Mor@@ 0.8684497788915929
River 0.4563648198938245
dia 1
undi 1
wenda 1
Kisovyeti 1
akim@@ 1
mtawala 1
Awali 1
Ufilipino 1
University 0.17879978665786714
kujitegemea 1
msimamo 1
ongeza 1
pembe 1
uhai 1
1945 0.48362593438295126
Mtu 1
Timu 1
jumuisha 1
kibinadamu 1
kuitwa 1
kuwat@@ 1
ago 1
linaloitwa 1
se@@ 0.6673324673029226
ukosefu 1
Tunisia 1
haswa 1
mad@@ 1
michuano 1
mmonaki 1
Black 0.8609134644524917
Wagiriki 1
Waj@@ 1
lililo@@ 1
lim@@ 1
maaskofu 1
mi 1
Denmark 1
inapatikana 1
kufunga 1
kuigiza 1
wazima 1
ziko 1
Q@@ 0.9621715267899771
Si@@ 1
haku@@ 1
ingatia 1
kupanda 1
miradi 1
sekta 1
wen@@ 1
Mg@@ 1
Mtanzania 1
Nchini 1
makanisa 1
Familia 1
Kish@@ 1
awishi 1
kug@@ 1
madaraka 1
nyeusi 1
ta@@ 1
wewe 1
Bikira 1
nafsi 1
wahi 1
Nd@@ 1
haz@@ 1
kufundisha 1
ru@@ 1
32 0.865013339958951
Thomas 0.539802585492002
daima 1
hakika 1
E 0.7039159265644409
anywa 1
ika@@ 1
kulia 1
madawa 1
Jiji 1
Poland 1
tamaduni 1
alil@@ 1
de@@ 0.5093560621282525
hinda 1
kuboresha 1
kudhibiti 1
uzima 1
wakulima 1
wokovu 1
yaliyot@@ 1
Hivi 1
U 0.5863698842167919
haina 1
ifanya 1
kulevya 1
kupewa 1
kutawala 1
ung 0.4636151330841449
1966 0.7248325917495024
Massachusetts 1
esabiwa 1
oy@@ 1
Mit@@ 1
Tibeti 1
ajiri 1
ay 0.8008727636342156
elfu 1
taa 1
Ili 1
Mashindano 1
kuongea 1
vilivyo@@ 1
Kiyahudi 1
Martin 0.7334577264881027
Park 0.4555871959742785
gitaa 1
ikiwemo 1
ind@@ 1
kupinga 1
mnyama 1
osababisha 1
pi 1
1968 0.6256912710055359
Bay 1
Chanzo 1
inaf@@ 1
lile 1
pan@@ 1
uku 1
Mfumo 1
Mkurugenzi 1
jarida 1
jo 1
ol 1
tawimto 1
Kup@@ 1
Pasifiki 1
ahidi 1
ilish@@ 1
kuzingatia 1
oksijeni 1
urahisi 1
D 0.5413144380127197
Mbali 1
UEFA 1
Nyam@@ 1
aliishi 1
mwilini 1
uhusu 1
Kisino 1
Lagos 1
Ok@@ 1
T 0.6526077750430003
mahakama 1
mungu 1
ukuliwa 1
weusi 1
Sal@@ 1
alif@@ 1
euliwa 1
mtazamo 1
sha 1
vu 1
watumiaji 1
aliamua 1
ir 1
iti@@ 1
kal@@ 1
shirikisho 1
ukia 1
Par@@ 0.6520472164193503
Waf@@ 1
baadae 1
idae 1
meno 1
vinavyo@@ 1
profesa 1
utambuzi 1
Bur@@ 1
Uk@@ 1
kujifunza 1
linalo@@ 1
sikukuu 1
tamthilia 1
uharibifu 1
Kiz@@ 1
aji@@ 1
nywele 1
ombo 1
uigizaji 1
yule 1
ga 1
kuanzishwa 1
kuta 1
tamasha 1
wanaishi 1
Mer@@ 1
endo 1
kiz@@ 1
umo 1
wali 1
ze 1
Shahada 1
chukua 1
engeneza 1
ij@@ 1
kifaa 1
ondoa 1
utumwa 1
yame@@ 1
Sam@@ 1
ba@@ 1
bonde 1
hawana 1
inayopatikana 1
kiti 1
muongo 1
… 0.7409947211697372
34 1
Kamati 1
Kiroma 1
Maeneo 1
Tiba 1
ajali 1
aliye 1
kam@@ 1
madai 1
chochote 1
em 0.7203907620810214
iny@@ 1
kule 1
ondo 1
Mazingira 1
Mur@@ 1
aliyem@@ 1
iy@@ 1
kisanii 1
tajiri 1
vipengele 1
Mwanzoni 1
Wizara 1
adhabu 1
aliyezaliwa 1
mateso 1
mz@@ 1
homoni 1
jipya 1
malaria 1
undo 1
wafanyabiashara 1
huz@@ 1
irikiana 1
marafiki 1
taaluma 1
wezi 1
eko 1
hujulikana 1
kon@@ 1
kuweza 1
mbinguni 1
Kiv@@ 1
M 0.6640110753832238
Nyota 1
hisi 1
kuhitimu 1
kupanga 1
kutekeleza 1
malengo 1
Teknolojia 1
endeleza 1
kemikali 1
ulio 1
600 1
En@@ 0.7750804029772109
Katibu 1
inayojulikana 1
kuzaa 1
magazeti 1
rasi 1
saratani 1
takatifu 1
wash@@ 1
Kor@@ 1
Tun@@ 1
hay@@ 1
ikit@@ 1
inaitwa 1
kumaanisha 1
msaidizi 1
yu 1
Love 1
Up@@ 1
aliyo@@ 1
huohuo 1
jangwa 1
kilele 1
wasiwasi 1
Bara 1
kuku 1
sinema 1
tumbo 1
uhusiwa 1
Berlin 0.49233953638556416
awiwa 1
orodheshwa 1
1,000 1
Mik@@ 1
Ol@@ 1
angalau 1
iliyoko 1
jit@@ 1
linat@@ 1
pu@@ 1
Kw@@ 1
ishe 1
kas@@ 1
kushirikiana 1
mahusiano 1
kifalme 1
vinavy@@ 1
800 1
ew@@ 1
mshambuliaji 1
okuwa 1
penda 1
unza 1
ushwa 1
$ 0.25271088875374376
Anajulikana 1
Baringo 1
iliyofuata 1
mbadala 1
wamisionari 1
Konstantinopoli 1
Nyimbo 1
mbwa 1
ondoka 1
upepo 1
adili 1
awa@@ 1
kufu@@ 1
makosa 1
son 0.06293365660493783
taji 1
unja 1
7@@ 0.9555885883430331
Namibia 1
Watoto 1
mchana 1
1000 1
Jipya 1
King 0.5042963899473943
Una 1
atikana 1
awamu 1
endeshwa 1
idara 1
igwa 1
volkeno 1
wanaot@@ 1
Hadithi 1
oda 1
wajibu 1
wangu 1
1958 0.7099304372379877
Bu@@ 1
Kon@@ 1
Nj@@ 1
evu 1
furaha 1
ju@@ 1
kikoloni 1
mabaki 1
wazee 1
1959 0.7307922552620802
33 0.9626771997218143
Miji 1
Party 0.5162335436405066
afisa 1
atu 1
yalit@@ 1
yaliyo 1
Coast 1
Ireland 0.9179335495813556
Kipama 1
Li@@ 1
Mon@@ 0.7191976900152263
Rasi 1
afiri 1
akia 1
angu 1
mwelekeo 1
ovu 1
te 0.23646310369897125
zinabaki 1
11,@@ 1
Johannesburg 1
Narok 1
kat@@ 1
kibao 1
kubeba 1
ikilia 1
kamati 1
koo 1
kuunganisha 1
mabaya 1
ond@@ 1
opatikana 1
sin@@ 1
Eritrea 1
Mach@@ 1
Viktoria 1
ameichezea 1
anzia 1
zit@@ 1
Bal@@ 0.8277831891360967
DJ 1
Madrid 1
irika 1
kigeni 1
shaba 1
uhandisi 1
uishe 1
upungufu 1
utengenezaji 1
yo@@ 1
Il@@ 1
Kanda 1
Kimarekani 1
Kiw@@ 1
Sar@@ 1
alij@@ 1
endi 1
ezea 1
ilis@@ 1
mhusika 1
ungumza 1
urais 1
1930 0.6674734641320514
Kij@@ 1
ake 1
andaliwa 1
anzi 1
ilo 1
kupungua 1
mila 1
ngono 1
ubora 1
von 0.026817832800843173
ziara 1
zisizo 1
Jean 0.3967168604953481
Wareno 1
huadhimisha 1
hul@@ 1
udhibiti 1
wekwa 1
Alimfuata 1
Kipindi 1
angavu 1
c 0.4198112291460724
kutetea 1
lahaja 1
maafisa 1
st@@ 0.4108206029095434
tafsiri 1
uga 1
Central 0.5718776168902414
Mo@@ 0.9473345649489209
agua 1
aliuawa 1
aulu 1
jumuiya 1
kikamilifu 1
kom@@ 1
kuelewa 1
ofu 1
pen@@ 1
vis@@ 1
wafalme 1
Ana 1
Huduma 1
Kiroho 1
Rufiji 1
Sultani 1
Vijana 1
alivy@@ 1
imb@@ 1
inataja 1
lit@@ 1
patikana 1
8,000 1
Bi@@ 0.9495653895566051
Kichina 1
Malaysia 1
Ni@@ 1
ahamika 1
chumba 1
fikia 1
iliyotolewa 1
jumba 1
liko 1
sanamu 1
uwepo 1
36 0.9461716196106779
Chad 1
Mohamed 1
aguliwa 1
bar@@ 0.7891860399316788
by 0.018939141479818566
haiku@@ 1
linaweza 1
maarifa 1
Los 0.21734678306391378
awaliwa 1
bia 1
eleka 1
jiunga 1
magadi 1
uku@@ 1
upili 1
Henry 0.6207946355297642
Ky@@ 1
Mil@@ 1
Msingi 1
ani@@ 1
j 1
kadhalika 1
kana 1
5,000 1
Alipo@@ 1
Amani 1
beba 1
hakuwa 1
hoteli 1
mash@@ 1
ore 1
uki 1
vyenye 1
Hungaria 1
Takwimu 1
Ub@@ 1
chao 1
indi 1
omu 1
pasipo 1
Arsenal 1
Karne 1
Musa 1
Mzee 1
Uko 1
anz@@ 1
kia 1
matawi 1
mifano 1
unap@@ 1
é@@ 0.5538908940850462
0,000 1
Mwishoni 1
Shinyanga 1
ambaa 1
apishwa 1
hisa 1
kuchangia 1
kushoto 1
kusudi 1
penye 1
10,@@ 1
Julius 1
Mwana 1
adilisha 1
hav@@ 1
mimi 1
oi 1
Or@@ 0.6722502369684403
Waz@@ 1
inaadhimishwa 1
kambi 1
liturujia 1
tasnia 1
ubu 1
vyanzo 1
zaa 1
Mwalimu 1
Postikodi 1
azamwa 1
kish@@ 1
mtangazaji 1
ony@@ 1
thelathini 1
1957 0.7050514955033106
20@@ 1
Louis 0.5149752722828091
Waliozaliwa 1
aria 1
bodi 1
haja 1
imbi 1
karatasi 1
min@@ 1
Nakuru 1
Ta@@ 1
Tabia 1
adiriwa 1
ambamo 1
andi 1
hamu 1
mwamba 1
tar@@ 1
und@@ 1
walis@@ 1
Far@@ 1
anaye@@ 1
lia 1
waliuawa 1
Mediteranea 1
Mitume 1
Nyungan 1
ey@@ 1
ezaji 1
mada 1
mume 1
embelea 1
kip@@ 1
makumbusho 1
uamuzi 1
undu 1
Ham@@ 1
Kumbe 1
VI 1
Wadogo 1
chanjo 1
hisabati 1
mishipa 1
takwimu 1
usika 1
wanas@@ 1
watawa 1
1940 0.5647754817839611
K 0.6987641767519034
Ser@@ 1
iba 1
mgonjwa 1
mkoani 1
pas@@ 1
uhusika 1
ukumbi 1
wakit@@ 1
wanne 1
Kufikia 1
anas@@ 1
ataa 1
elea 1
hofu 1
iliendelea 1
iliyoitwa 1
im 0.03594081298670504
maandiko 1
mabawa 1
makali 1
onge 1
8@@ 0.8798153765176782
akifanya 1
laini 1
mahindi 1
onesha 1
par@@ 0.5566215292509872
waliop@@ 1
ziada 1
Toleo 1
ame 1
azidi 1
ek 1
hewani 1
kh@@ 0.9172311282343779
linatokana 1
ripoti 1
taka 1
tia 1
walifariki 1
TANU 1
Ur@@ 1
hadhi 1
inaonekana 1
ku 1
teolojia 1
Me 1
Se@@ 0.5837252868030115
f 0.6767539261454876
hana 1
jumuia 1
kutibu 1
mwake 1
panya 1
tendo 1
tut@@ 1
45 0.6331945593509564
Her@@ 0.793146801482702
Kadiri 1
Syria 1
beki 1
fun@@ 1
hali@@ 1
sadaka 1
walimu 1
Gu@@ 0.8860746060118715
Man 0.7754540663808963
St@@ 0.4722580228369889
Utamaduni 1
XIII 1
kuandaa 1
misingi 1
visa 1
1948 0.6165059731352438
Milki 1
Ruyigi 1
alionekana 1
jenga 1
maradhi 1
pop 1
ugu 1
ushawishi 1
wanam@@ 1
ye@@ 1
1956 0.629650606999129
Nje 1
ambulika 1
mhandisi 1
salama 1
Benin 1
Kol@@ 1
Te@@ 0.9765050327561461
isitiza 1
vibaya 1
walish@@ 1
1954 0.687467753633806
Matokeo 1
Palestina 1
baraza 1
duni 1
ilich@@ 1
kukimbia 1
kulinda 1
ufanisi 1
33@@ 1
Wengi 1
XII 1
alitangaza 1
gavana 1
iliyozungumzwa 1
kipekee 1
mauzo 1
mkusanyiko 1
Alifanya 1
Kh@@ 1
angia 1
ed 0.1325299319458057
inapo@@ 1
inas@@ 1
lolote 1
mema 1
mfanyabiashara 1
pot@@ 1
sik@@ 1
waliweza 1
1949 0.6454632212122529
Makueni 1
Maz@@ 1
Pemba 1
UB 1
alisha 1
ando 0.4512267143203891
he 0.03227201627267271
mwenzake 1
uy@@ 1
waliz@@ 1
yasiyo 1
Ghuba 1
Mary 0.706151691674863
Mug@@ 1
enti 1
kimsingi 1
kinacho@@ 1
kuendesha 1
lingine 1
mach@@ 1
miundo 1
mkia 1
700 1
Amechaguliwa 1
May@@ 1
aliitwa 1
ambulia 1
isim@@ 1
kiasili 1
kuit@@ 1
ome 1
X@@ 0.6765834103741359
edi 1
ho 1
kupambana 1
kuua 1
mikutano 1
mkopo 1
sisi 1
Waswahili 1
kijani 1
kitengo 1
olea 1
rapa 1
walitumia 1
Kiny@@ 1
Meru 1
Nyeusi 1
Su@@ 1
Yosefu 1
do@@ 1
engo 1
esa 1
imep@@ 1
kaboni 1
kujit@@ 1
kumt@@ 1
malipo 1
mapadri 1
pe@@ 1
Ber@@ 0.6693587682409262
F.C. 1
Hassan 1
Maana 1
Mahali 1
Mexico 0.9067296723770579
Video 1
aro 1
ete 1
kutunga 1
mitaa 1
tishu 1
vigumu 1
Klabu 1
Kun@@ 1
Mkataba 1
jaribio 1
kipya 1
miungu 1
ur 0.7776498868059225
vinaweza 1
yon@@ 1
Award 0.48967523007862573
Benedikto 1
G 0.5986317174097898
Moshi 1
Wataalamu 1
fani 1
imwa 1
malkia 1
michache 1
Kus@@ 1
L 0.34313805471763636
Mifano 1
Ofisi 1
Way@@ 1
arajiwa 1
il 0.05529230787903682
kukosa 1
1920 0.5781253543579616
1@@ 1
Jazz 1
Kiulaya 1
Manyara 1
Mwisho 1
Real 1
Sa@@ 1
achia 1
alipot@@ 1
chan@@ 1
elezwa 1
ero 0.9964407996542488
inde 1
kodi 1
magumu 1
moshi 1
ofaa 1
onda 1
uw@@ 1
wahusika 1
1947 0.632584831428811
De@@ 0.5326868798175617
Georgia 1
Idara 1
My 1
akis@@ 1
imbia 1
ingi@@ 1
kukusanya 1
mo@@ 0.7249495621542718
ungi 1
kir@@ 1
shindano 1
tazama 1
2,000 1
37 0.9747664256195016
Anaheshimiwa 1
Az@@ 1
Daniel 0.9401568510534499
Dawa 1
Gitega 1
Homa 1
Iran 1
hamsini 1
huishi 1
kig@@ 1
kuruka 1
mazuri 1
nyuklia 1
pi@@ 0.903958668038421
vikubwa 1
Car@@ 0.4783715157803153
St. 0.3385529501582005
itumia 1
kahawa 1
mchango 1
mmea 1
uliza 1
Afghanistan 1
Alicheza 1
Edward 0.8603814774582461
Maelezo 1
Maf@@ 1
enge 1
kupoteza 1
mpakani 1
ubunifu 1
waliendelea 1
Kampala 1
alikufa 1
fa 1
hifadhiwa 1
maduka 1
no 0.08222778150923347
ofanywa 1
wahamiaji 1
1918 0.6282781529014212
23@@ 1
Ang@@ 1
Angeles 0.6973856870347734
Brown 0.9125572772237893
Pulitzer 1
alimu@@ 1
funguvisiwa 1
miz@@ 1
sm 1
uvamizi 1
Ay@@ 1
Be@@ 0.5233764186032348
ambulisha 1
ezo 1
ikana 1
kupima 1
meneja 1
utia 1
wanap@@ 1
1955 0.6458342962726228
Alisoma 1
Ikiwa 1
aminika 1
kina@@ 1
maf@@ 1
mavazi 1
re@@ 0.11854752305759172
ri@@ 0.6350595351522567
vikosi 1
wito 1
100,000 1
3,000 1
Hospitali 1
Kajiado 1
Kiasia 1
abaki 1
eba 1
hekalu 1
imekaribia 1
kujiua 1
lenyewe 1
ro 1
wanadamu 1
20,000 1
Le@@ 0.5479164850520789
Simba 1
ahitaji 1
ambi 1
halijoto 1
ishiwa 1
jen@@ 1
masaa 1
zimet@@ 1
DNA 1
Karibi 1
Min@@ 1
Muda 1
Wafiadini 1
Wang@@ 1
endwa 1
kor@@ 1
likiwa 1
molekuli 1
nyoka 1
— 0.030579074894375634
1952 0.6265490695656734
Dalili 1
Sheikh 1
alichukua 1
anayet@@ 1
balozi 1
mapatano 1
mtaa 1
ok 1
tamaa 1
Academy 0.6089418758854922
Bas@@ 1
Karibu 1
ic@@ 0.5135059280803806
iliana 1
izwa 1
jengwa 1
kifedha 1
kutunza 1
lililot@@ 1
linalot@@ 1
Elizabeth 1
Kum@@ 1
Mut@@ 1
asubuhi 1
azwa 1
ef@@ 1
iliyoanzishwa 1
jitokeza 1
la@@ 1
mgombea 1
ofautiana 1
peleka 1
Albert 0.9982576012441806
Bongo 1
Daudi 1
One 0.3453455009941813
Waisraeli 1
Waroma 1
igiza 1
imbwa 1
kilicho@@ 1
kusafiri 1
makoloni 1
matangazo 1
nyuzi 1
vyao 1
wamet@@ 1
Lo@@ 0.9475110042363816
Nyak@@ 1
Smith 0.6297752002785784
Ugonjwa 1
Wash@@ 1
afuata 1
alip@@ 1
ayarishwa 1
x@@ 0.6436833072427852
12,@@ 1
Mich@@ 1
State 0.23301533864432517
ghafla 1
gi@@ 1
masharti 1
miamba 1
47 1
Ha@@ 1
Victoria 0.9944825585784555
ache 1
adilika 1
amiwa 1
fuatwa 1
halali 1
mifugo 1
mifupa 1
pana 1
shamba 1
tak@@ 1
vijijini 1
vipaji 1
County 0.20341753385722772
kumw@@ 1
walifanya 1
Bus@@ 1
Halafu 1
Jumba 1
Ms@@ 1
ey 0.6704707476159494
imbo 1
mg@@ 1
misuli 1
mitandao 1
mwenyeji 1
oidi 1
ot 0.7262102523523473
pos@@ 1
Barcelona 1
De 0.25323505500945015
Mbinu 1
Muundo 1
Na@@ 1
Nyeri 1
Tume 1
Wav@@ 1
anaj@@ 1
ant@@ 0.9707343775362256
anti 0.7436085678121528
kifodini 1
lilianzishwa 1
sekunde 1
uliofuata 1
umbe 1
umet@@ 1
Jubba 1
Lee 0.791668287303833
Wafaransa 1
a. 1
arobaini 1
bure 1
id 0.8048196028571459
ingana 1
isti 1
manispaa 1
mashabiki 1
wab@@ 1
Alishinda 1
It 0.054762537539448965
Kiitalia 1
Zealand 0.7920430209434048
ainishwa 1
aliv@@ 1
amizi 1
asema 1
kinachot@@ 1
kutangaza 1
mkojo 1
ukuta 1
Ben@@ 1
Jambo 1
Kenyatta 1
Sekondari 1
Us@@ 1
Wany@@ 1
Yakobo 1
ajulikana 1
anah@@ 1
hariri 1
kadi 1
kimwili 1
kuungana 1
lo 0.15360320936105396
mjumbe 1
usafi 1
1900 0.8218333431521635
Geita 1
Ig@@ 1
Me@@ 0.7869789689883776
Norwei 1
ekwa 1
giza 1
kuchaguliwa 1
kuhakikisha 1
kuwapa 1
mwanariadha 1
njaa 1
sigara 1
uteuzi 1
uzoefu 1
35@@ 1
Sasa 1
Watakatifu 1
bahati 1
kikapu 1
kosa 1
maili 1
misaada 1
om 1
ist@@ 0.9774196273481127
kuzalisha 1
msichana 1
onia 1
tabaka 1
fursa 1
irikisha 1
kuamua 1
kuzi@@ 1
mkondo 1
mzee 1
sim@@ 1
so@@ 0.8623571705390201
tambarare 1
wapinzani 1
1946 0.5259127156324139
Hot 1
Uz@@ 1
ambukizwa 1
br@@ 0.48114221647477123
mf@@ 1
ondolewa 1
ongezwa 1
uasi 1
Niger 1
Times 0.7926921853503686
aliongoza 1
anapo@@ 1
haik@@ 1
majeraha 1
mumewe 1
ro@@ 0.4892539894820558
sal@@ 0.9145227130879652
watano 1
150 0.9788535501354947
1953 0.6145521167205156
Ba@@ 1
Kireno 1
Sim@@ 1
Texas 0.5786868725318489
astronomia 1
athira 1
farasi 1
kamwe 1
kuchunguza 1
udumu 1
Mwanzo 1
achukua 1
biwa 1
bwana 1
kirefu 1
lebo 1
utalii 1
wachanga 1
zinapatikana 1
Kiambu 1
Kikatoliki 1
Kimungu 1
Pangani 1
Tak@@ 1
eki 1
elekeza 1
eshi 1
haikuwa 1
hiari 1
kiwa 1
le@@ 0.37938576409009317
tim@@ 1
13,@@ 1
At@@ 1
Msh@@ 1
Njombe 1
Wana@@ 1
alihitimu 1
chembe 1
digrii 1
ehe 1
kukutana 1
marefu 1
okoa 1
ozi 1
weze 1
zilizokuwa 1
Foundation 1
Mabadiliko 1
abiria 1
anguka 1
fizikia 1
mlango 1
ne 0.1352210384575765
njano 1
ramani 1
tr@@ 0.3690999987417256
ufafanuzi 1
uke 1
usanya 1
wag@@ 1
Ir@@ 1
Khan 1
Kom@@ 1
Lin@@ 1
Muk@@ 1
ahi 1
akaendelea 1
alishwa 1
chu@@ 1
ese 0.4419353828184762
hait@@ 1
kuzunguka 1
Buk@@ 1
Tam@@ 1
Wote 1
kijivu 1
uk 1
ushauri 1
wanapo@@ 1
yasiy@@ 1
Mun@@ 1
aliona 1
athirika 1
bendera 1
hukumu 1
indana 1
ishinda 1
jaribu 1
kubaliwa 1
tarakilishi 1
ubi 1
Karthago 1
Ti@@ 1
Wanyama 1
Ya 1
adui 1
aminiwa 1
awanyika 1
egem@@ 1
kitaaluma 1
kununua 1
kutana 1
maandamano 1
ms@@ 1
utajiri 1
weni 1
Juma 1
Kanuni 1
Matibabu 1
Serbia 1
Van 0.981973482628094
atomu 1
itia 1
kinat@@ 1
mshauri 1
mwangaza 1
mweusi 1
te@@ 0.5788879773576805
unah@@ 1
upa 1
Bou@@ 1
Elfu 1
San@@ 1
Yoh 1
afa 1
alivyo@@ 1
anach@@ 1
ech@@ 1
ik 1
kuy@@ 1
lo@@ 0.5084743536569283
mlipuko 1
opewa 1
tan@@ 1
utana 1
wapo 1
0@@ 0.9884631177257834
900 1
J. 0.6001769600830532
S 0.4761623830781346
amuzi 1
huonekana 1
itaji 1
k.m. 1
ke@@ 1
kupumua 1
vyo@@ 1
49 1
Bururi 1
Kemia 1
Kifo 1
Kilele 1
Kiorthodoksi 1
avyo 1
babu 1
ichi 1
ilishinda 1
kilit@@ 1
kingine 1
ogopa 1
omwa 1
saini 1
sukari 1
ungumzia 1
uvuvi 1
washiriki 1
39 0.9531891106113368
Kilimo 1
Lengo 1
Mz@@ 1
afaa 1
akafuatwa 1
akas@@ 1
ch 0.436623156615535
kuimarisha 1
kuny@@ 1
makamu 1
mikononi 1
mwanafizikia 1
nak@@ 1
vitendo 1
wakiwemo 1
zawadi 1
zima 1
1939 0.4615662616825347
42 0.859004571724107
Chelsea 1
Fizikia 1
Takriban 1
avy@@ 1
elek@@ 1
haij@@ 1
igo 1
ivu 1
kahawia 1
kutaka 1
oe 1
pa@@ 1
usambazaji 1
utwa 1
vyema 1
yafuatayo 1
Du@@ 1
Rangi 1
Re@@ 0.3677446245771153
Wana 1
ajira 1
alitaka 1
faa 1
ilivy@@ 1
imef@@ 1
kutenda 1
osababishwa 1
udisha 1
Aj@@ 1
Im@@ 1
Picha 1
ab 0.2157315331905818
afu@@ 1
alikubali 1
hotuba 1
ishughulisha 1
masi 1
mbao 1
shu@@ 1
shuleni 1
uhamisho 1
wez@@ 1
wezekana 1
Mwenyekiti 1
Tatu 1
afsiriwa 1
bibi 1
etwa 0.33796554244340427
huch@@ 1
ohusiana 1
usio 1
ustawi 1
Katiba 1
Libya 1
Mexiko 1
alikwenda 1
anikiwa 1
gu@@ 0.7775081274815163
jamaa 1
kiafya 1
makundinyota 1
mhariri 1
1888 1
Bor@@ 0.7971406550149165
E. 0.8745822498976742
Kilwa 1
Uchunguzi 1
Vitabu 1
Wahispania 1
anaishi 1
ashiria 1
eno 1
huruma 1
iliz@@ 1
kuangalia 1
vid@@ 1
Andrea 1
Kak@@ 1
Said 1
UNESCO 1
Union 0.3149211704189912
ganda 1
hawaj@@ 1
hazina 1
hekima 1
iriwa 1
ka@@ 1
ley 0.3604485446961335
mazungumzo 1
mizigo 1
nyasi 1
pin@@ 1
ushirika 1
45@@ 1
Cha 1
Licha 1
Mwenyezi 1
Nepal 1
Sp@@ 0.7135150065937369
_ 0.12542765506162007
alir@@ 1
anaf@@ 1
bidii 1
inaz@@ 1
itisha 1
kunywa 1
ombea 1
pe 0.8783259987820953
sabini 1
shabaha 1
vilivyo 1
1886 1
250 1
All 0.28788175580311065
Mk@@ 1
Mpango 1
Mtoto 1
Mul@@ 1
Ngozi 1
burudani 1
gh@@ 1
mapambano 1
udia 1
ukanda 1
utakatifu 1
vina@@ 1
waji 1
waliok@@ 1
wanda 1
48 0.8479745724835385
Kiti@@ 1
Moja 1
Per@@ 0.4415045353598027
Sin@@ 1
hitimu 1
hoja 1
ihusisha 1
inaonyesha 1
kocha 1
kupo@@ 1
majadiliano 1
marehemu 1
ongwa 1
opata 1
uwa 1
14,@@ 1
Dini 1
Fasihi 1
Florida 0.7093551707591748
Pasaka 1
Sak@@ 1
achwa 1
ami@@ 1
anafanya 1
c@@ 0.2788149188245829
eto 1
ilihesabiwa 1
ilip@@ 1
majini 1
nyanda 1
petroli 1
unaopatikana 1
Bi 1
Ina@@ 1
Liberia 1
Togo 1
kadha 1
maumbile 1
nik@@ 1
yapo 1
38 0.7423304189728702
Ime@@ 1
P. 0.9928224350865514
Zamani 1
aje 1
kiny@@ 1
maelfu 1
omi 1
ser@@ 0.7868576235971446
ufugaji 1
utiwa 1
Mdo 1
Soka 1
dansi 1
huanza 1
iliki 1
kandanda 1
kujulikana 1
kurudisha 1
land 0.21542589685413385
manne 1
opo 1
uhakika 1
unuliwa 1
usishwa 1
uti@@ 1
utume 1
75 0.7500867794998668
Alitokea 1
Bug@@ 1
IX 1
atak@@ 1
elezo 1
kamusi 1
liki@@ 1
mguu 1
mtendaji 1
osema 1
ubao 1
vina 1
viv@@ 1
Machakos 1
adilishwa 1
asia 1
ega 1
far@@ 1
hutegemea 1
misimu 1
ukamilifu 1
vikali 1
wad@@ 1
wanah@@ 1
Don 0.789412339054764
Sel@@ 1
Wach@@ 1
adil@@ 1
eshimiwa 1
hai@@ 1
kilichot@@ 1
mbuga 1
unguzwa 1
Jumapili 1
Kipapua 1
Moi 1
Muh@@ 1
Sala 1
aguzi 1
dutu 1
imi 1
matamshi 1
mitambo 1
nahodha 1
vilikuwa 1
55 0.8339516159872611
Ger@@ 0.7956631405087877
Hatua 1
Society 0.46413865744115695
Ug@@ 1
inam@@ 1
jiwe 1
kuwas@@ 1
nafaka 1
oza 1
pelekea 1
re 0.28971811081727356
tumaini 1
15,@@ 1
41 0.9046165487212093
Abu 1
Armenia 1
Bah@@ 1
Rukwa 1
ele@@ 1
huf@@ 1
imes@@ 1
mahojiano 1
maigizo 1
mistari 1
nadra 1
ukawa 1
uzamili 1
wafanyikazi 1
waka 1
wema 1
American 0.10619856939042509
FA 1
Simiyu 1
akij@@ 1
hitaji 1
kunako 1
mtaguso 1
waliona 1
zisiz@@ 1
1951 0.5673573307521232
Chicago 0.5283975789315347
La@@ 0.936669013196356
Mch@@ 1
Meksiko 1
Msimu 1
Tu@@ 1
dhaifu 1
inae 1
ingine 1
ingiza 1
ishika 1
jike 1
kijinsia 1
mv@@ 1
q 1
se 0.021179777658273224
unene 1
zikiwa 1
Alexander 0.6507231602703529
Alipokuwa 1
Mradi 1
anus 1
bunduki 1
don@@ 1
itajika 1
ite 0.4509612420006592
ut 1
Mash@@ 1
Songwe 1
elo 1
kiwanda 1
mboga 1
pua 1
umekuwa 1
za@@ 1
9@@ 0.674218661575127
Binadamu 1
Gal@@ 0.8798019799959873
Manisipaa 1
Sam 1
Uch@@ 1
age 0.1320572673331742
ajiliwa 1
aliingia 1
fan@@ 1
kifua 1
kukataa 1
onyesho 1
sitini 1
sp@@ 0.49834973252195863
tani 1
tisini 1
undua 1
Group 0.41004168752637704
Imam 1
League 0.16935228479437495
Romanum 1
akaanza 1
akaf@@ 1
ambatana 1
inawezekana 1
kueneza 1
kuishia 1
kupigwa 1
kuwekwa 1
muigizaji 1
ohusika 1
okaa 1
ufa 1
uliokuwa 1
watalii 1
ziki@@ 1
0.@@ 1
Ana@@ 1
Jones 0.7483049936679566
Kinyume 1
M. 0.6671379385725503
Rus@@ 1
Tena 1
aru 1
changamoto 1
darasa 1
hafla 1
iliyof@@ 1
ini@@ 1
kugundua 1
kuhifadhi 1
kuhusiana 1
limetokana 1
opita 1
utekelezaji 1
1.@@ 0.799194913496639
1941 0.39168488768323356
Dar@@ 1
Hut@@ 1
Lyon 1
hawaku@@ 1
hutofautiana 1
inah@@ 1
iwapo 1
kumbe 1
maabara 1
maadui 1
makubaliano 1
ufundi 1
wizara 1
Democratic 0.8773282264261356
Makamu 1
Waprotestanti 1
amej@@ 1
aweka 1
malezi 1
manyoya 1
ra@@ 1
ugumu 1
ukali 1
umbu@@ 1
zilizopo 1
1500 1
1914 0.5843054952676691
C. 0.4998126171355627
Gabon 1
Makamba 1
Martyrologium 1
P 0.5649366804030341
Sifa 1
aliyefia 1
aribia 1
bas@@ 0.9522674428560176
fahamu 1
kuvuta 1
mawaziri 1
mwanakemia 1
oba 1
obaki 1
waliom@@ 1
wamekuwa 1
wamonaki 1
1936 0.5017406911408109
Barabara 1
College 0.218643422216079
Grammy 1
Madagaska 1
To@@ 0.9831612352807589
apokuwa 1
des 0.010291803375130346
hibiti 1
kujali 1
mtawa 1
nabii 1
ufu@@ 1
ungaji 1
wamebaki 1
watazamaji 1
wau@@ 1
1917 0.5914809736893645
Kim 1
Kufuatia 1
Le 0.049246257753508785
Tr@@ 0.35725076771714503
Uyahudi 1
angazia 1
hayajulikani 1
kimbari 1
kufanikiwa 1
kutegemea 1
ladha 1
manufaa 1
na@@ 1
zidi 1
1944 0.35572924221937857
B. 0.43977128847033775
High 0.3262515404654074
Imani 1
Kiajemi 1
Majina 1
Makumbusho 1
Sw@@ 1
afanana 1
akik@@ 1
anasema 1
dhati 1
has@@ 1
hud@@ 1
kiumbe 1
kudai 1
pon@@ 1
usisha 1
walipaswa 1
1933 0.5042093158262119
Bel@@ 0.6024888634284801
Kag@@ 1
Kijiji 1
Mabingwa 1
Majimbo 1
Ram@@ 1
Star 0.631520157176708
Um@@ 1
afi 1
amesh@@ 1
anja 1
bustani 1
fanikiwa 1
ibuka 1
kiowevu 1
mig@@ 1
niaba 1
ofanana 1
owahi 1
ubiri 1
wasomi 1
CD 0.6784963084029343
Grand 0.3415761968137618
Ilianzishwa 1
Kinaga 1
Kisumu 1
Sul@@ 1
Williams 0.7619014505675406
alimaliza 1
atomi 1
der 0.0066613892290501315
eshaji 1
eze 1
inach@@ 1
kinapatikana 1
kitawa 1
unas@@ 1
unzwa 1
utoaji 1
Chakula 1
Gr@@ 0.5022695407721516
Ho@@ 0.7595453938720208
Kibo@@ 1
Sab@@ 1
ange 1
ava 1
hawezi 1
hin@@ 1
ibn 1
jukwaa 1
miili 1
mwen@@ 1
nyembamba 1
sam@@ 1
so 0.10718461970848663
unua 1
utano 1
wakfu 1
43 0.8814503259913959
44 0.6776659597851101
Af@@ 1
Bon@@ 1
Island 0.4206316805872936
Samburu 1
alimw@@ 1
aswa 1
baya 1
emekana 1
imegawanywa 1
jioni 1
kudumisha 1
kuvutia 1
limet@@ 1
sanifu 1
sia 1
utashi 1
walowezi 1
waumini 1
52 0.8432872474573233
Mnara 1
Radio 0.5577401000357306
Vit@@ 1
alikutana 1
emo 1
jozi 1
k.mf. 1
kitendo 1
kuwasaidia 1
maswali 1
mkononi 1
sk@@ 0.7909767956764039
themanini 1
Daraja 1
Shughuli 1
akina 1
amef@@ 1
inayoh@@ 1
ingwa 1
kemia 1
kufanywa 1
kusimamia 1
licha 1
lishe 1
mabaharia 1
mizizi 1
vitatu 1
Aki@@ 1
Babeli 1
Jo@@ 1
Tar@@ 0.8856852301571878
Tazama 1
Upili 1
Vienna 1
Wahindi 1
aliwa@@ 1
ardhini 1
fa@@ 1
haijulikani 1
hutolewa 1
kiserikali 1
mm 0.4618089942897707
ndoto 1
obo 1
rasilimali 1
ten@@ 0.48395341320459073
thi 1
waimbaji 1
wer@@ 1
3000 1
30@@ 1
House 0.2578910510264633
Jack 0.7487064489709108
Kiwango 1
Lamu 1
Moscow 1
Wiki 1
amka 1
asisi 1
fur@@ 1
hatarini 1
janga 1
kupelekwa 1
mshiriki 1
viumbehai 1
wasifu 1
zana 1
Antiokia 1
Association 0.31931019219582213
Hip 1
Muyinga 1
aidiwa 1
akaj@@ 1
kuingiza 1
kutembea 1
mawimbi 1
msimamizi 1
umaskini 1
unapo@@ 1
van 0.5596142902685086
£ 0.8364925566953748
Bun@@ 1
Chile 0.8337486512574519
Go 1
Kuhusu 1
adai 1
enya 1
ilisha 1
malaika 1
ujauzito 1
unu 1
uvimbe 1
wabunge 1
wateja 1
Alitangazwa 1
Bujumbura 1
Carey 1
Kiongozi 1
Ng 1
Safari 1
ababishwa 1
ahadi 1
ajumuisha 1
alipos@@ 1
ambu@@ 1
bikira 1
elektroni 1
hupata 1
ikilinganishwa 1
ilijulikana 1
ilisababisha 1
itikadi 1
kusikia 1
mu 1
osim@@ 1
somo 1
uaji 1
walil@@ 1
65 0.4942106598063442
Es@@ 0.7903296151223138
Huu 1
Ji@@ 1
alich@@ 1
azamiwa 1
kufungwa 1
kunaweza 1
kuvunja 1
kuwap@@ 1
tam@@ 1
tum@@ 1
unaf@@ 1
uwiano 1
waliishi 1
wanaf@@ 1
wi@@ 1
85 0.9913871257264222
Hill 0.5594350205837302
Kibaki 1
Maw@@ 1
Michigan 0.828543086774023
Programu 1
Tamasha 1
akiolojia 1
ande 1
asha 1
département 0.6731487862764227
kuathiri 1
lu@@ 0.8393506578973935
vyumba 1
Math 1
Mawasiliano 1
Mh@@ 1
Msalaba 1
Uli@@ 1
achana 1
aku@@ 1
alikataa 1
baki 1
epata 1
ista 0.8289699116722135
kipande 1
kuelezea 1
kukata 1
kumpa 1
maktaba 1
maua 1
mchekeshaji 1
mwandiko 1
sakramenti 1
ukuu 1
ulo 1
vij@@ 1
walipata 1
Burkina 1
Cor@@ 0.43762366568134015
Johnson 0.7313818369800014
Ke@@ 0.9699425218962854
abo 1
ashi 1
awahi 1
ido 0.8697203732986655
izo 1
kilichopo 1
kujaribu 1
michoro 1
mvuke 1
olenga 1
pokuwa 1
shimo 1
6,000 1
Ahmed 1
CC@@ 1
Club 0.2532348884711631
Lug@@ 1
Mam@@ 1
ames@@ 1
hani 1
inayop@@ 1
kushambulia 1
kuu@@ 1
kuundwa 1
maamuzi 1
nazo 1
owekwa 1
ul 1
upanuzi 1
zama 1
Er@@ 0.38782559113974574
Mikoa 1
Milano 1
Qu@@ 0.500966235466655
St 0.4354838386537913
Women 0.4864695766294051
anisha 1
ard 0.4584352769315216
gerezani 1
hasi 1
jam@@ 1
kutazama 1
msitu 1
umbi 1
umep@@ 1
wakat@@ 1
Madola 1
agiza 1
aini 1
alihudhuria 1
anafahamika 1
eria 1
fumbo 1
go 0.4412331777530904
hawakuwa 1
idai 1
isikia 1
kinaweza 1
kuhubiri 1
kujitolea 1
kulipa 1
kutambuliwa 1
ling@@ 1
masoko 1
mkewe 1
ofanyika 1
pak@@ 1
pembeni 1
saidia 1
unyenyekevu 1
zetu 1
Hitler 1
Jay 1
So@@ 0.8079985030668023
anaitwa 1
bal@@ 0.8688975355417493
ez 1
kati@@ 1
kujipatia 1
kupigana 1
mich@@ 1
robo 1
sambamba 1
ubaliwa 1
ungukwa 1
utotoni 1
v 0.5926849038767761
walei 1
10@@ 0.7233656788407267
46 0.836758808806562
Athari 1
Mand@@ 1
Ngu@@ 1
Rutana 1
agi 1
az 0.9982617334682966
kozi 1
kubaki 1
kuchagua 1
msalaba 1
mwanasheria 1
ohitajika 1
pol@@ 1
sultani 1
ukombozi 1
viti 1
walifika 1
« 0.019291566337324127
4,000 1
Go@@ 0.7819372559771003
Marmara 1
Mtandao 1
Ulinzi 1
akisema 1
assa 1
atomia 1
fin@@ 0.9966150070340687
hab@@ 1
ilio 1
iliyok@@ 1
jela 1
kibali 1
kupindukia 1
kutia 1
simba 1
unak@@ 1
viatu 1
zikiwemo 1
» 0.019223533321305206
Imepakana 1
Kwale 1
Mandela 1
Pokot 1
Tan@@ 1
afikia 1
apatikana 1
biolojia 1
del 0.020268590330260756
ekelezwa 1
geza 1
je@@ 1
jitihada 1
kubuni 1
kumfanya 1
kuwaf@@ 1
ongea 1
unge 1
vi 1
waanzilishi 1
wakawa 1
wany@@ 1
Disemba 1
Google 1
Kinilo 1
Malkia 1
Mbunge 1
Sierra 1
Uskoti 1
Young 0.6970619270043034
amt@@ 1
anganya 1
iliundwa 1
ion@@ 1
kol@@ 1
kuwafanya 1
milango 1
mwanamume 1
ph@@ 0.46995605853429573
waa 1
waw@@ 1
1934 0.5120041155279766
Accra 1
FM 0.8835081515663197
Kr@@ 0.677149682411364
Maandishi 1
Soko 1
ac@@ 0.3135875416234803
adhi 1
aliigiza 1
buluu 1
kuh@@ 1
kuomba 1
madarakani 1
maswala 1
oshiriki 1
pitia 1
utata 1
wawakilishi 1
1922 0.5719242054923486
1925 0.5743444919185351
1929 0.5162900612450175
BBC 0.737361502289974
Bul@@ 1
Santa 0.41019468350236893
Wales 0.643774572768454
White 0.45493668976254215
akap@@ 1
amem@@ 1
ekuwa 1
imama 1
nit@@ 1
pake 1
1942 0.3704939629789032
Cankuzo 1
Em@@ 1
Katavi 1
Leone 1
Media 0.781035191898283
On@@ 1
Stars 1
akapata 1
aliyeuawa 1
ata@@ 1
dea 1
die 0.009382565832330641
eme 1
ige 0.6384595440164871
ilig@@ 1
ilivyo@@ 1
mamalia 1
tamthiliya 1
umi@@ 1
upe 1
5000 1
Alik@@ 1
Company 0.3292891848448295
F 0.3534250630797283
XI 1
ahamu 1
amo@@ 1
atika 1
azimishwa 1
bon@@ 1
ein@@ 0.30431353882423645
futi 1
ilir@@ 1
ju 1
kueleza 1
ne@@ 0.5384580654493382
pelekwa 1
vinavyot@@ 1
waya 1
0,@@ 1
1885 1
Dubai 1
Kou@@ 1
Kuk@@ 1
afanua 1
atibu 1
bea 1
bingwa 1
duara 1
fik@@ 1
iliweza 1
kif@@ 1
madola 1
mwambao 1
ombi 1
tawala 1
tropiki 1
uhamishoni 1
upatikanaji 1
usanifu 1
visiwani 1
wafungwa 1
walihamia 1
wawe 1
1943 0.363041588353848
Bendi 1
Bizanti 1
Canada 0.2683546822138345
Dan@@ 1
Francis 0.8961043491926876
Hula 1
Kaizari 1
Maneno 1
Siasa 1
Utawa 1
atiwa 1
ekea 1
ent@@ 0.2768311225721387
husaidia 1
inaj@@ 1
jibu 1
kikemia 1
kitenzi 1
mpenzi 1
udiwa 1
vurugu 1
wepo 1
16,@@ 1
2.@@ 0.6401381153320422
Ukraine 1
Ush@@ 1
aliondoka 1
amech@@ 1
anyiwa 1
est@@ 0.46765327740072604
fiwa 1
fuka 1
ic 0.32108551439578925
inajumuisha 1
makaa 1
nani 1
uni@@ 1
ute 1
vyo 1
14@@ 1
1926 0.550072461041117
54 0.8697733475513005
95 0.8822875887056743
Aliendelea 1
Bungoma 1
aham@@ 1
alijulikana 1
eri@@ 1
ilionekana 1
inab@@ 1
kujik@@ 1
lika 1
magoli 1
ngano 1
rap 1
ufukara 1
urekebisho 1
vilabu 1
walianzisha 1
25@@ 1
Aliandika 1
Band 0.47546722068880676
Japan 0.3561730474640275
Ken@@ 1
Miongoni 1
Si 0.8239883157946853
Waturuki 1
aitwaye 1
kuifanya 1
kujengwa 1
kuwah@@ 1
majirani 1
mchoraji 1
ndilo 1
ngome 1
onya 1
shaka 1
udishwa 1
wengineo 1
13@@ 1
1890 0.8643224323460271
Kituruki 1
Long@@ 1
Myanmar 1
News 0.8041301101776975
Oblast 1
Patrick 1
Umbali 1
Yo@@ 1
akicheza 1
amana 1
isaidia 1
kansa 1
kijiografia 1
kimatibabu 1
makadirio 1
mzaliwa 1
Hal@@ 0.8807022206410635
Miz@@ 1
avyo@@ 1
ens@@ 0.39431102643018207
kurasa 1
mauti 1
ukuma 1
upigaji 1
ushindani 1
Aidha 1
Mjerumani 1
Prussia 1
Waw@@ 1
ajiriwa 1
alifaulu 1
amek@@ 1
amino 1
ans@@ 1
che 0.5818822891898043
hasara 1
ikulu 1
imetoweka 1
itakuwa 1
jia 1
kuang@@ 1
mish@@ 1
mwanam@@ 1
nyanja 1
odi 1
ongwe 1
shi 1
shingo 1
ukurasa 1
yen@@ 1
Mc@@ 0.421396037110914
Sen@@ 1
Urithi 1
aibu 1
berg 0.36290148284799617
ileta 1
kipenyo 1
kuti@@ 1
osoaji 1
per@@ 0.3080567012121618
ustaarabu 1
wel@@ 1
zilianza 1
Augustino 1
DC 0.964373240559493
Katikati 1
Port 0.860029805027861
Reli 1
Sauti 1
Y 0.645078970862977
adha 1
avi 1
aweze 1
dume 1
ekeleza 1
eleweka 1
hasira 1
imek@@ 1
inaendelea 1
inavyo@@ 1
jeraha 1
kitongoji 1
kondoo 1
kuvuka 1
mfereji 1
mzazi 1
toba 1
120 0.9327972839095104
Ben 0.9573808904604981
Cher@@ 1
Rose 1
Ujenzi 1
Uropa 1
akab@@ 1
aliacha 1
angahewa 1
azimio 1
elekwa 1
ers 0.12061348148365515
imej@@ 1
jahazi 1
mafuriko 1
mtume 1
ton 0.28027556836746575
zia 1
1,0@@ 1
116 1
15@@ 1
30,000 1
88 1
Gambia 1
Pro@@ 0.5715166160645875
Sik@@ 1
Uhandisi 1
adhili 1
aendelea 1
busara 1
chi@@ 1
ichezea 1
ifuatavyo 1
inayoweza 1
isiyo@@ 1
kuruhusu 1
kusimama 1
kuwash@@ 1
mlinzi 1
mmisionari 1
pita 1
uhaba 1
umbwa 1
unaingia 1
wav@@ 1
yaliyokuwa 1
65@@ 1
Faso 1
Hili 1
Kifilipino 1
Miss 1
Ndiye 1
Og@@ 1
Scott 0.6869953102850825
Tab@@ 1
Wazazi 1
akak@@ 1
aliji@@ 1
anuwai 1
emia 1
ende@@ 1
huzuni 1
ikat@@ 1
ikweta 1
imarisha 1
katuni 1
lililokuwa 1
manabii 1
mikataba 1
mwao 1
parokia 1
umbuka 1
unikwa 1
wakili 1
39@@ 1
56 0.8799162500696012
Hak@@ 1
Kimb@@ 1
MTV 1
Marie 0.4886981804429077
Sir 0.5375695612802716
Taylor 0.8534889114935106
Wa 1
abi 1
amilika 1
ebaki 1
elekeo 1
huria 1
inaanza 1
inamaanisha 1
ish 0.5190821663521504
kukabiliana 1
kukatwa 1
kupanua 1
letu 1
mababu 1
men@@ 0.6640998995105841
mtandaoni 1
mwakilishi 1
oshi 1
sab@@ 1
tuli@@ 1
ulipo@@ 1
umikia 1
ushi 1
ville 0.16870898559787834
vimelea 1
waigizaji 1
zinah@@ 1
18,@@ 1
1910 0.5591895606708273
1937 0.4284702951885771
67 1
Alifariki 1
Chris 0.8502753516842709
Has@@ 1
Kilifi 1
Mohammed 1
afsiri 1
alijaribu 1
alijit@@ 1
ege 1
he@@ 0.6685007189674885
himaya 1
ipoti 1
mashtaka 1
mkaapweke 1
sampuli 1
theluji 1
unzi 1
utani 1
utoto 1
wisha 1
Bagamoyo 1
Christian 0.3536343453539101
Dr. 0.5191657849871153
Kul@@ 1
Luka 1
Mos@@ 1
Ndio 1
Ter@@ 0.8764236306990734
Z 0.7635594758693321
demokrasia 1
elle 0.08629410673915831
gen@@ 0.5187082652108278
kupeleka 1
kuwal@@ 1
lisilo 1
makini 1
manowari 1
mon@@ 0.38760994195187853
nambari 1
sindano 1
tofautitofauti 1
uka@@ 1
uzuri 1
zuia 1
1938 0.3823232074193887
Anafahamika 1
Inasemekana 1
Kakamega 1
Ker@@ 1
Mbar@@ 1
Migori 1
Mtendaji 1
Mv@@ 1
Profesa 1
Simon 0.8449355477368471
Verde 1
XVI 1
akaw@@ 1
akaz@@ 1
amishwa 1
auri 1
chanya 1
endel@@ 1
haiwezi 1
ilitangaza 1
inatoa 1
ipata 1
irikishwa 1
kima@@ 1
kufanana 1
kutuma 1
kuwak@@ 1
lipo 1
milia 1
nafuu 1
nzito 1
17,@@ 1
1905 0.6189438194100678
Anthony 1
Bendera 1
Mwandishi 1
Mwingereza 1
SA@@ 1
Tenno 1
Walakini 1
bur@@ 0.9352765537063378
duka 1
hek@@ 1
kujiuzulu 1
kuku@@ 1
liwa 1
mata 1
mchungaji 1
mwanamitindo 1
ozidi 1
tiwa 1
uhalifu 1
utumbo 1
A. 0.40632064907375326
Bab@@ 1
Dam@@ 1
Mamlaka 1
Sek@@ 1
YouTube 1
amuru 1
hara 1
ikua 1
ilitoa 1
karama 1
kasoro 1
kutokuwa 1
matoleo 1
otea 1
ubatizo 1
usaidizi 1
viwanja 1
wakala 1
walau 1
wanasayansi 1
Alish@@ 1
Big 0.5405196244537392
Kichadiki 1
Kikundi 1
Life 0.45512482143597804
Mark 0.4930101842935803
Nik@@ 1
Rhodesia 1
Tur@@ 0.7966266347370204
VIII 1
ababisha 1
alikamatwa 1
alisaini 1
alishindwa 1
apot@@ 1
ber@@ 0.4427274637193026
kubadilika 1
kulinganisha 1
met@@ 1
mwanadamu 1
ner 0.2867672962164087
rej@@ 1
shauri 1
uleule 1
undishwa 1
uraia 1
64 0.5044567029491283
67@@ 1
Best 0.4117124407885882
Inat@@ 1
Kari@@ 1
Kong 0.7593032749488238
Matatizo 1
Mau@@ 1
Westlife 1
ach 0.5183632077535927
ajua 1
asim@@ 1
atokea 1
bak@@ 1
cheza 1
esheni 1
goli 1
husu 1
ilib@@ 1
katibu 1
kuteka 1
kuzungumza 1
leseni 1
mam@@ 1
mmiliki 1
osisi 1
san@@ 0.9891891426596019
Bak@@ 1
Bw 1
Nadharia 1
Ne@@ 0.48594152717342415
Nyanda 1
Pan@@ 0.8260445053150893
Royal 0.26102458208316154
ambana 1
amisha 1
arini 1
faulu 1
figo 1
hawawezi 1
idh@@ 1
iliyom@@ 1
imech@@ 1
kaburi 1
kipaji 1
kipengele 1
kufuzu 1
makaburi 1
udhaifu 1
ulich@@ 1
utukufu 1
wanamgambo 1
wil@@ 1
yap@@ 1
zinazoendelea 1
1919 0.42134471772642
Busia 1
Category 1
Kiaryan 1
Kibu@@ 1
Pengine 1
Ubangi 1
ajit@@ 1
akif@@ 1
alimt@@ 1
ase 0.5978779010008192
ii 1
iw@@ 1
kielelezo 1
kuchang@@ 1
kukulia 1
nukta 1
omb@@ 1
oweka 1
sarafu 1
unaonyesha 1
vema 1
yuko 1
zipo 1
1923 0.5186866230874299
7,000 1
Barua 1
British 0.14878558037488868
Con@@ 0.2886388026692738
Da@@ 1
In 0.014363631650902485
Kayanza 1
Northern 0.5689423240690283
Os@@ 1
People 0.6529955740234232
Sha@@ 1
Usimamizi 1
achi 1
akish@@ 1
anash@@ 1
ap 1
domo 1
ford 0.5796115065538722
itishwa 1
kuambukizwa 1
kutembelea 1
majibu 1
ongo@@ 1
pr@@ 0.41071702814884087
wajumbe 1
yas@@ 1
12@@ 1
1931 0.49299789302648916
2022 0.3991713149187595
Abdallah 1
Anglikana 1
Columbia 0.6430182439411621
Congress 0.6461147545029489
Hab@@ 1
Kinshasa 1
Kitai 1
Pal@@ 0.7154437789937884
Torati 1
Umma 1
anishwa 1
anyi 1
apaswa 1
bah@@ 1
hudumia 1
hufanyika 1
hufanywa 1
inayotumika 1
isababisha 1
izaji 1
kitaalamu 1
kutimiza 1
mashambulio 1
theluthi 1
uchoraji 1
ufi 1
wakoloni 1
Alich@@ 1
Illinois 0.6761540673719152
KANU 1
Kijapani 1
Mf@@ 1
Sir@@ 1
Waanglikana 1
Yugoslavia 1
ais@@ 1
amer@@ 1
andi@@ 1
anye 1
chukuliwa 1
endana 1
ingizwa 1
mkate 1
nyara 1
son@@ 0.9148264144342372
uenezi 1
1912 0.5036173700643876
Ash@@ 1
Bila 1
But@@ 1
Gavana 1
Israel 0.5752909023183893
Mr@@ 1
Nas@@ 1
Pr@@ 0.4887214504763468
anaz@@ 1
haniwa 1
ingatiwa 1
ire 0.8604860218107924
kisukari 1
kupigania 1
kurekebisha 1
kuza 1
me@@ 0.6493621078863183
nusufamilia 1
ori@@ 1
ter@@ 0.2825595541229108
ushuru 1
1927 0.49148907586601825
58 0.843765452324965
Bukoba 1
Entertainment 0.8309504759564881
Hizi 1
Mimi 1
UK 0.3617213073533144
aliyeitwa 1
bamba 1
bandia 1
falme 1
hujumuisha 1
ikuwepo 1
iliyos@@ 1
iliyoundwa 1
mwishowe 1
ohitaji 1
ufahamu 1
ufunuo 1
zaji 1
26@@ 1
50,000 1
Fedha 1
Ge@@ 0.4511152953983128
Makerere 1
Men@@ 0.811779207837649
Mito 1
Mtindo 1
Nyar@@ 1
Wamarekani 1
akaenda 1
alitunga 1
aliyes@@ 1
apos@@ 1
avyot@@ 1
ebe 1
embo 1
haramu 1
ilivyokuwa 1
kime@@ 1
kuanguka 1
kuthibitisha 1
lat@@ 0.993067825711759
mwenza 1
tek@@ 1
umati 1
wanasiasa 1
with 0.009656171596057127
yewe 1
zilizop@@ 1
180 1
61 0.93804636118576
Kisi@@ 1
Kuba 1
Luther 1
Queen 0.5985760927979141
Ro@@ 0.4478529647088673
Watutsi 1
aliweka 1
amefanya 1
api 1
ass@@ 0.5362394780635868
fr@@ 0.49575019728608194
fundisha 1
hush@@ 1
icha 1
imbaji 1
kufungua 1
kuharibu 1
lilim@@ 1
marekebisho 1
ografia 1
oke 1
unajulikana 1
wanaz@@ 1
wapya 1
304 1
Carl 0.6695094673471084
Don@@ 1
Hong 0.7391469496085104
Kie@@ 1
Kiholanzi 1
UN@@ 1
Uthai 1
Zambezi 1
ado 0.14942262872536113
alig@@ 1
dh@@ 1
hughulikia 1
inganishwa 1
kiburi 1
mashambulizi 1
omea 1
sumaku 1
wavulana 1
zimep@@ 1
53 0.798138198195959
99 0.9192096676302831
Alama 1
Badala 1
Hawa 1
Istanbul 1
Jumla 1
Msanii 1
Pierre 0.39014601153977096
ain 0.6538842420907471
amba@@ 1
anti@@ 0.4867011233100726
fi 1
iliitwa 1
indi@@ 1
kikabila 1
kuchapishwa 1
kuondolewa 1
maudhui 1
nguzo 1
ofautisha 1
riadha 1
tafiti 1
tembo 1
uliendelea 1
uzani 1
{ 0.8417382283913399
102 1
Bandari 1
Eire 1
Euro 0.949879684181965
Mafunzo 1
Mir@@ 1
Uarabuni 1
abor@@ 1
afanuliwa 1
akishirikiana 1
aliyep@@ 1
amepata 1
anaendelea 1
darubini 1
huv@@ 1
jik@@ 1
kiakili 1
oea 1
ruhusu 1
shina 1
umbukwa 1
ure 0.5331635292367837
wambia 1
51 0.6934079366950596
Jike 1
Kalenda 1
Makanisa 1
Marsabit 1
Mchezo 1
Nelson 1
Usalama 1
Ver@@ 0.1851249298058921
Yordani 1
akarudi 1
alikuja 1
alin@@ 1
amu@@ 1
apokea 1
embea 1
ensi 1
hutengenezwa 1
iliyoongozwa 1
iria 1
julikani 1
kilabu 1
kilicho 1
kingamwili 1
kiraia 1
kufanyika 1
maagizo 1
machache 1
masimulizi 1
mnara 1
ope 1
treni 1
ufanya 1
uria 1
viazi 1
wanatumia 1
wapa 1
zu 0.029523064020005627
.com 1
Kroatia 1
Mafanikio 1
Met@@ 1
Rock 0.5261727468510561
UM 1
VII 1
Vol@@ 0.8867356075622077
Yuda 1
chap@@ 1
embamba 1
hospitalini 1
ifunza 1
ikamana 1
ikisha 1
kib@@ 1
lava 1
lilianza 1
mny@@ 1
mwandamizi 1
nyepesi 1
uchapishaji 1
vilivyot@@ 1
waliamua 1
ā@@ 0.7078386682650101
Air 0.2850839056665177
Alichaguliwa 1
Alishiriki 1
Fr@@ 0.5708664057302384
Hop 1
Hoteli 1
Mwen@@ 1
Mwili 1
Nyasa 1
Shamu 1
Sydney 0.6774475415473169
Ul@@ 1
Wao 1
adh@@ 1
ambiwa 1
andikia 1
awas@@ 1
bichi 1
endekeza 1
fi@@ 1
jumuishwa 1
kipo 1
kuhama 1
kulenga 1
kupotea 1
lililopo 1
makusudi 1
mnururisho 1
ororo 1
shirikisha 1
thabiti 1
vibao 1
3.@@ 0.7540856973550594
Bag@@ 1
Dh@@ 1
Francisco 0.36396191581444526
Hor@@ 0.6581437632500715
May 0.11472652617811477
Q 0.977121511874791
Raj@@ 1
Rekodi 1
Sil@@ 1
Sol@@ 0.611214489987494
Wanafunzi 1
asababisha 1
auti 1
chang@@ 1
heshimu 1
hio 1
ica 0.3647387415138204
ileile 1
ith@@ 1
kutofautisha 1
miongo 1
mtumishi 1
oleta 1
pamba 1
shairi 1
tumbaku 1
tunda 1
upimaji 1
uro 1
wavuti 1
16@@ 1
1928 0.4200135815239553
27@@ 1
303 1
66 0.8204337907571643
Ah@@ 1
Ath@@ 1
Cal@@ 0.5217881299937797
Diokletian 1
Gi@@ 0.8210344405683792
J 0.6320758211176428
Jamaika 1
Kabila 1
Liverpool 1
Masasi 1
Polisi 1
Rio 0.9166588772895188
Southern 0.5574943284169851
aidi 1
akiba 1
alb@@ 1
alidai 1
ell 0.3234648812965748
iana 1
intaneti 1
kap@@ 1
kuachana 1
kubalika 1
kuhudhuria 1
mabara 1
mtumiaji 1
ondo@@ 1
piga 1
wakam@@ 1
yol@@ 1
1889 0.8488424086690005
Br@@ 0.3305307239938245
Frank 0.5304923877340858
Ivory 1
Joe 0.6530195198100875
Kaz@@ 1
Nyab@@ 1
Patriarki 1
S. 0.5132693415940038
Single 1
afsi 1
akatifu 1
ilitokea 1
kuten@@ 1
linamaanisha 1
madaktari 1
maombi 1
mbunifu 1
me 0.24386119206168713
mo 1
ov 0.5079847712054694
tom@@ 1
uchungu 1
unaishia 1
walijaribu 1
wanach@@ 1
Co@@ 0.373979457018197
Dor@@ 0.7773064857354981
For@@ 0.49851982007742607
Kisii 1
Mac@@ 0.5018424970248649
Mol@@ 0.9133860219321176
Por@@ 0.7323007666887767
Sura 1
Televisheni 1
Thoma 1
Western 0.3402364139943635
aliunda 1
bele 1
e.@@ 1
elekezwa 1
endelevu 1
jumlisha 1
kani 1
khalifa 1
kidato 1
madhumuni 1
ref 1
udaktari 1
umbuzi 1
va 0.3780391264518339
vilit@@ 1
wakim@@ 1
} 0.95385509821389
Aljeria 1
Anatokea 1
Anna 0.6909126652133796
Asilimia 1
Kay@@ 1
Nab@@ 1
XX@@ 1
chaguo 1
changia 1
chapa 1
endelezwa 1
esho 1
gea 1
hadharani 1
kuuzwa 1
kuwezesha 1
o.@@ 1
pel@@ 1
rowspan 1
ulemavu 1
unaoitwa 1
unia 1
urafiki 1
walishindwa 1
wanasema 1
yakiwa 1
Arthur 0.6359479746585912
Carlos 0.5066814027095824
Cross 0.8084972915637854
Dk 1
H 0.4276549828106718
Huyu 1
Iraq 1
Klementi 1
Mig@@ 1
Omar 1
ambwa 1
azimika 1
dio 0.7806946455476947
ec@@ 0.28614120101912527
efanya 1
hatia 1
indani 1
kitambaa 1
kiutawala 1
kulala 1
matakwa 1
ous 0.25594381165576807
udi@@ 1
usiana 1
utulivu 1
zinazoweza 1
‎ 1
119 1
Adam 0.8415853594112414
Aw@@ 1
Bodi 1
Dj@@ 1
Ijumaa 1
Ik@@ 1
Kiku@@ 1
Knowles 1
Kuf@@ 1
Mel@@ 0.7195199663004058
Mesopotamia 1
Odinga 1
Pol@@ 0.5357471128179657
Ros@@ 0.5555927390061516
W 0.5124426521815676
alii@@ 1
alitangazwa 1
asiy@@ 1
azimisha 1
beri 1
engen@@ 1
inash@@ 1
isiy@@ 1
iva 1
kuko@@ 1
kurejea 1
lilik@@ 1
mbuzi 1
mgeni 1
mus@@ 0.9290944763381583
shujaa 1
yai 1
15,000 1
1903 0.6532675060721411
1916 0.5410923493291585
Cas@@ 0.6581077819555009
Diamond 1
Halmashauri 1
Kaisarea 1
Mathayo 1
Mkwawa 1
Munich 1
Natal 1
Ri@@ 0.5850571610608234
Zama 1
ambazwa 1
ambi@@ 1
andishi 1
ekundu 1
ella 0.30187515780312246
kusali 1
mag 1
mapambo 1
mijini 1
okot@@ 1
potiwa 1
shwa 1
tupu 1
ushiriki 1
walikufa 1
zinazoz@@ 1
Ford 0.7653924771781572
Gor@@ 0.7979714433769127
I. 0.4617967343439309
Karl 0.4430507327111005
Kiing 1
Luk@@ 1
Ly@@ 1
Mmoja 1
Nar@@ 1
Ufini 1
Upendo 1
Vis@@ 1
Waandishi 1
abiri 1
aur@@ 1
babake 1
fil@@ 1
ikuwa 1
ishwe 1
kichwani 1
kushuka 1
kutisha 1
mpana 1
mwitu 1
ndivyo 1
unatumika 1
wanay@@ 1
Amet@@ 1
Ban@@ 0.7453776855470954
Do@@ 0.7180341217453352
Isiolo 1
Majengo 1
Nandi 1
Teresa 1
Tumaini 1
Virginia 0.41168465625545353
ahili 1
deni 1
ego 1
ige@@ 1
imiza 1
kisaikolojia 1
kuandikwa 1
kubadili 1
kuchapisha 1
kusim@@ 1
maiti 1
masafa 1
maumbo 1
plastiki 1
takiwa 1
ulifanyika 1
unika 1
wanaamini 1
yanachangia 1
yanafikia 1
Asizi 1
Heshima 1
No@@ 0.8006682324119432
Tony 0.8372208651488601
Vipimo 1
Wilson 0.6915216064690228
aliolewa 1
dis@@ 0.1616818985794526
ejulikana 1
ikab@@ 1
imp@@ 1
jum@@ 1
kukamatwa 1
kwaya 1
mafumbo 1
mgumu 1
mtiririko 1
thibitisha 1
umef@@ 1
umek@@ 1
unaoonekana 1
weupe 1
zinap@@ 1
zinazopatikana 1
Bangladesh 1
Golden 0.7820629229377364
Juba 1
Limited 1
Tokyo 0.9186090550695523
Usafiri 1
Viv@@ 1
Wenyeji 1
ade 0.5239078126040627
akajiunga 1
dharura 1
hama 1
iku 1
ilikua 1
irik@@ 1
kot@@ 1
kupenda 1
majeshi 1
matajiri 1
mgogoro 1
mitume 1
ojengwa 1
uimbaji 1
ukame 1
unguliwa 1
vikwazo 1
wang@@ 1
1935 0.38195454973493637
Bis@@ 1
Harvard 1
Karuzi 1
Kulikuwa 1
Maaskofu 1
Matendo 1
Samuel 0.8470928886396527
Yemen 1
akash@@ 1
ans 0.10357014603400787
eny@@ 1
jicho 1
mamia 1
oni@@ 1
pori 1
shemasi 1
simulizi 1
ty 0.37598088514212746
udumia 1
unduliwa 1
unjika 1
unjwa 1
utarakilishi 1
vinat@@ 1
19,@@ 1
1932 0.4101524784273829
Aleksanda 1
Alijiunga 1
Kimar@@ 1
Nor@@ 0.7329354330203918
Tarakilishi 1
alizika 1
apisha 1
atakay@@ 1
ban@@ 0.985677052450599
bapa 1
ekodiwa 1
eneza 1
kushindana 1
kushughulikia 1
kuteuliwa 1
ler 0.19757488867567868
onde 1
otaka 1
pendekeza 1
pigwa 1
rock 0.3018085409512179
saikolojia 1
sem@@ 1
sentimita 1
uaminifu 1
vichekesho 1
walig@@ 1
walij@@ 1
walitoa 1
17@@ 1
1908 0.5300213653232856
1913 0.4849219553413277
36@@ 1
Aktiki 1
Cairo 1
Fatima 1
Kuz@@ 1
Lam@@ 1
alisafiri 1
hudumu 1
huhesabiwa 1
igaji 1
ilishwa 1
imepakana 1
inayotumiwa 1
kaa 1
ker 0.4783437179826487
kimojawapo 1
kuteswa 1
kuvu 1
kuwasiliana 1
mani 1
maz@@ 1
opa 1
otumia 1
qu@@ 0.3388412015325245
sel@@ 0.5511747896892899
ugwa 1
ujana 1
umbua 1
uongo 1
usafirishaji 1
uzushi 1
wakis@@ 1
yalianza 1
yamet@@ 1
1896 0.7126754323851778
1906 0.5610114853037109
20,@@ 1
Delta 1
Mot@@ 1
Mwafrika 1
Rub@@ 1
Studio 1
Super 0.4776327234473204
Vid@@ 1
W. 0.5720353490844133
Walutheri 1
amata 1
ameh@@ 1
andikisha 1
boma 1
chaji 1
her@@ 0.4262852832780047
ipa 1
lip@@ 1
mek@@ 1
mpunga 1
op 1
ost@@ 0.7759515803505171
tus@@ 1
ulisababisha 1
utendakazi 1
vidonda 1
walivyo@@ 1
1.5 1
Bulgaria 1
Hao 1
Kolombia 1
Mukono 1
Omani 1
Queensland 0.9736120409760586
Stefano 1
Tom@@ 0.9918574425471804
agizwa 1
ainiwa 1
alifika 1
elew@@ 1
emp@@ 1
hazi@@ 1
inus 1
kikomunisti 1
kinyesi 1
kiutamaduni 1
kuharibika 1
kuni 1
kupas@@ 1
kusambaza 1
lam@@ 0.94733894590964
linapatikana 1
our 0.38142627947644475
oweza 1
uel@@ 1
uhamiaji 1
umbu 1
ve 0.05570437748645905
wakilishi 1
walivy@@ 1
wek@@ 1
zo@@ 1
€ 1
Bad 0.7718128261529831
Kabarole 1
Maambukizi 1
Ud@@ 1
Vik@@ 1
Walter 0.5717060146437284
arudi 1
auka 1
elezewa 1
esia 1
halmashauri 1
hap@@ 1
him@@ 1
ilifanya 1
iliyoandikwa 1
inj@@ 1
kinywa 1
kuchora 1
kuolewa 1
kuvaa 1
papa 1
sho@@ 1
sul@@ 1
tunaweza 1
viwandani 1
waasi 1
win@@ 1
wo 0.24036160612735963
73 0.8925036231413298
98 0.8837785543125082
AK@@ 1
Murang 1
Nany@@ 1
Uj@@ 1
Viongozi 1
aanza 1
akip@@ 1
alikaa 1
alionyesha 1
aliyeh@@ 1
amil@@ 1
ash 1
harusi 1
inatumika 1
japo 1
karibia 1
kukom@@ 1
ly 0.2088603780717713
maandalizi 1
matumaini 1
milenia 1
mot@@ 1
mwenendo 1
seti 1
swali 1
vish@@ 1
wamej@@ 1
yanah@@ 1
yenu 1
1870 0.7067599338840209
72 0.7134619796585916
Andrew 0.6996285794228353
Bill 0.5399520019863211
Falsafa 1
Gat@@ 1
Hat@@ 1
Hiyo 1
Jam@@ 1
Kiadamawa 1
Mchang@@ 1
Nguvu 1
No 0.32487735581789556
Ptolemaio 1
R. 0.5714335864467022
ainisha 1
akati 1
amin@@ 1
ekaristi 1
eso 1
gu 1
huka 1
ilianzisha 1
iliv@@ 1
kr@@ 0.8986494419250469
kufun@@ 1
mazishi 1
nyinginezo 1
obiti 1
osho 1
pend@@ 1
unyanyasaji 1
wanga 1
wo@@ 1
yan 1
Green 0.4604780318232693
Hall 0.26859739568973817
Mj@@ 1
Mwa 1
Rhine 1
Shu@@ 1
Sok@@ 1
Star@@ 0.961678215824258
Wamasai 1
abar@@ 1
afiti 1
agwa 1
anar@@ 1
ant 0.11841121608410356
antibiotiki 1
avi@@ 1
chai 1
dhahiri 1
gimba 1
hafifu 1
hudhuria 1
hufuata 1
inayos@@ 1
kuambukiza 1
kuki@@ 1
kupitisha 1
matamasha 1
pendelea 1
swala 1
tel@@ 0.6539535080701152
uchi 1
ulitolewa 1
vyeo 1
waliof@@ 1
α 1
000,000 1
350 1
Bibi 1
Bl@@ 0.6263042617931746
Boston 0.4852382040813077
Carolina 0.47947611651382593
It@@ 1
Kah@@ 1
Kichin 1
Kiko 1
Moyo 1
WWE 1
Weusi 1
akitumia 1
akuja 1
ambae 1
bor@@ 0.6978479042338004
futwa 1
inafanya 1
jazz 0.9362705388316113
kwisha 1
lilich@@ 1
manga 1
mikuu 1
mpinzani 1
nae 1
nim@@ 1
olingana 1
ukumwa 1
umbuliwa 1
vig@@ 1
vinywaji 1
washindi 1
zilich@@ 1
1860 0.7942576513447227
200,000 1
Aegean 1
Benjamin 1
Center 0.2727795148089534
Geneva 1
Jum@@ 1
Kimal@@ 1
Lk 1
Magonjwa 1
Maziwa 1
Mpira 1
Theod@@ 1
Vyama 1
Wil@@ 0.7277352659097989
achama 1
amano 1
endekezwa 1
huonyesha 1
huyataga 1
icho 1
idhi 1
inavy@@ 1
iru 1
kaimu 1
kasoko 1
kulipwa 1
kupelekea 1
mamilioni 1
nd@@ 1
ochapishwa 1
pat@@ 1
pati@@ 1
uchambuzi 1
uuzaji 1
uwe 1
wir@@ 1
1902 0.5986139393985651
57 0.6976661600631129
62 0.7493267490227694
Alfa 1
Alpi 1
Av@@ 0.7367682652391444
Fu@@ 1
Ibrahim 1
Jangwa 1
Marko 1
Mati@@ 1
Mwanamalundi 1
Pe@@ 0.6010434509837405
Time 0.579003159412648
Wafransisko 1
Waliofariki 1
adiki 1
aleta 1
anaonekana 1
apu 1
binamu 1
divai 1
for@@ 0.3069961903561047
ghasia 1
hibitiwa 1
jwa 1
kiitwacho 1
kukamilisha 1
kung 1
kutengenezwa 1
matope 1
mwongozaji 1
nyongeza 1
usia 1
wanashirika 1
zam@@ 1
zimekuwa 1
zuri 1
2.5 1
Anat@@ 1
Antonio 0.45387145920488425
Dom@@ 0.8760850624841594
Ek@@ 1
Han@@ 0.823306085143331
Mipango 1
Nyan@@ 1
Red 0.32191628778888226
Siberia 1
Uzamili 1
Vincent 1
Waosmani 1
alisomea 1
enganisha 1
hodari 1
ikaji 1
ikali 1
ikika 1
jo@@ 1
kienyeji 1
kilichokuwa 1
kiw@@ 1
kop@@ 1
kumuua 1
kusik@@ 1
miujiza 1
mvuto 1
mweupe 1
uji 1
ulevi 1
umisionari 1
utawa 1
vidole 1
walipewa 1
wanaharakati 1
yanayohusiana 1
zaliwa 1
1907 0.5226304476167781
59@@ 1
AM@@ 1
Eli@@ 1
Hil@@ 1
Kumbukumbu 1
Namba 1
Oxford 0.6696188580194352
Show 0.5651577983134212
Uhusiano 1
Utambuzi 1
Wahehe 1
alikulia 1
ambazaji 1
ayarisha 1
bin@@ 1
boa 1
des@@ 0.23147375828850444
eth@@ 1
igizaji 1
inad@@ 1
kad@@ 1
kea 1
kusafisha 1
maishani 1
mandhari 1
mbu 1
mer@@ 0.41892638819474104
mtama 1
mwema 1
njema 1
sela 1
sw@@ 0.5943047467583672
tezi 1
vitani 1
1924 0.3838385873317567
1Kor 1
Amin 1
Christopher 1
Id@@ 1
Jinsi 1
Kiba@@ 1
Nafasi 1
Nyoka 1
Prince 0.4927365982665096
Wahutu 1
adiliwa 1
anthropolojia 1
anyia 1
bezi 1
ejea 1
ikim@@ 1
kamba 1
kuogelea 1
kuokoa 1
kuvamia 1
midogo 1
miundombinu 1
mpito 1
msomi 1
mtetezi 1
nadhiri 1
opo@@ 1
oua 1
pepe 1
sen 0.3930365906285876
wawindaji 1
yar@@ 1
zilizoendelea 1
Day 0.4058621989148211
Gazeti 1
Harakati 1
Jarida 1
Laos 1
Liga 0.3798455340470453
Mkubwa 1
Napoli 1
Old 0.4696239261164182
Otto 0.7335719958355374
Peru 1
Steve 0.6774749970788141
Tom 0.5125125036203352
Ushirikiano 1
aman@@ 1
anj@@ 1
arusi 1
barabarani 1
cho@@ 1
eti@@ 1
ilif@@ 1
inayof@@ 1
jeruhiwa 1
migogoro 1
nus@@ 1
punda 1
sare 1
siyo 1
ungan@@ 1
wakaanza 1
zinazofanana 1
zipatazo 1
1800 1
29@@ 1
Ach@@ 1
Disney 0.778580268303089
Kamusi 1
Takatifu 1
Up 0.943618557233289
Waraka 1
amep@@ 1
anayeitwa 1
anyo 1
delta 1
dik@@ 1
dikteta 1
fungwa 1
ikuta 1
isheni 1
kinanda 1
kuchezea 1
linafuata 1
liz@@ 1
maono 1
mil@@ 1
msikiti 1
mta@@ 1
mtumwa 1
ndizo 1
njiani 1
refu 1
sur@@ 0.38312569586621964
ubaliana 1
utunzaji 1
vizazi 1
1625 1
200@@ 1
Alihitimu 1
Azimio 1
Bayer 1
Buh@@ 1
Gar@@ 0.5239399293621037
Hamburg 0.6674994956109523
Jer@@ 1
Matukio 1
Mdogo 1
Mmarekani 1
Ngoma 1
Osmani 1
Songea 1
Vil@@ 1
Wanah@@ 1
aidha 1
akus@@ 1
alifanikiwa 1
aliyewahi 1
arab@@ 1
esab@@ 1
ess@@ 0.868298408794925
huongea 1
husababishwa 1
kutak@@ 1
manjano 1
naibu 1
tika 1
viini 1
walios@@ 1
was 0.004264583184740388
waweze 1
yanaingia 1
zinaonyesha 1
י@@ 1
40,000 1
Anti@@ 1
Bob 0.6523369094015635
Fel@@ 1
Lus@@ 1
Naibu 1
Om@@ 1
Ras@@ 1
Sou@@ 1
Wamisri 1
air@@ 0.7259019965515457
akar@@ 1
aliyek@@ 1
ange@@ 1
baraka 1
bir@@ 1
esababisha 1
fidia 1
hakuweza 1
huongeza 1
hutokana 1
isiwa 1
jiografia 1
kok@@ 1
kufuatilia 1
kuiga 1
kukomesha 1
mj@@ 1
msukumo 1
mwanafalsafa 1
paka 1
sikio 1
upeo 1
ushairi 1
waliingia 1
winga 1
wood 0.3631268386260073
yanayopatikana 1
yer@@ 1
1836 1
71 0.7718347938629316
Asiatiki 1
Col@@ 0.3725665529922842
Frederick 0.963076323905352
Kiaustro 1
Kuch@@ 1
Mau 1
Mn@@ 1
Moh@@ 1
ODM 1
Yoshua 1
afirishwa 1
anataka 1
esabu 1
hawaorodheshwi 1
katoliki 1
kete 1
madoa 1
mageuzi 1
no@@ 0.43472408807930313
onge@@ 1
tuna@@ 1
uelewa 1
wamep@@ 1
yalif@@ 1
1911 0.4550795554976069
79 0.8724798780921758
Eu@@ 1
Hur@@ 1
Kihistoria 1
Krismasi 1
Masedonia 1
Pennsylvania 0.5139609343975077
Pretoria 1
Sum@@ 1
Tukio 1
Vifaa 1
Wavandali 1
aku 1
alienda 1
asai 1
boko 1
fanyika 1
fumbatio 1
hupunguza 1
iya 1
jaji 1
kaz@@ 1
kubadilishwa 1
kufariki 1
kujumuisha 1
kwetu 1
oku@@ 1
tha 1
ufu 1
uliofanywa 1
vol@@ 0.6599888110084362
wamek@@ 1
www.@@ 1
zu@@ 0.9952555081956083
1880 0.6710176206653675
1921 0.3831448195735312
63 0.7045398608544922
America 0.2169103955458196
CD@@ 1
DCC@@ 1
Hay@@ 1
José 0.29677847255833983
Kany@@ 1
LA 1
Maandiko 1
Mari@@ 0.7853338827705887
Mwanga 1
O.@@ 1
Siaya 1
Song@@ 1
Taarifa 1
Tours 1
US 0.10310551434611918
Uv@@ 1
Virusi 1
akua 1
anyiko 1
chifu 1
embelewa 1
fujo 1
idhika 1
insha 1
jitahidi 1
kuhani 1
kupu@@ 1
migodi 1
ndizi 1
oc@@ 0.24971701771629565
pendekezwa 1
ugo 1
uliop@@ 1
uwekezaji 1
vip@@ 1
wapi 1
04 0.9608706101046873
25,@@ 1
59 0.7126953967029409
83 0.8608055181896725
AN@@ 1
Amekuwa 1
Baadae 1
Fer@@ 0.7676421896372954
Hatari 1
Jordan 1
Kimalay 1
Kupitia 1
Lok@@ 1
Mang@@ 1
Maonyesho 1
Masomo 1
Nah@@ 1
Sch@@ 0.168003434039761
Wafalme 1
Waindio 1
abari 1
ahara 1
aiwa 1
almasi 1
chuki 1
http 1
jenerali 1
kaya 1
kibiolojia 1
kioo 1
kuchukuliwa 1
kufaa 1
kuhudumia 1
lak@@ 1
lisil@@ 1
mzigo 1
obi 1
oria 1
thibitishwa 1
uendeshaji 1
ulipata 1
upot@@ 1
vitamini 1
wafugaji 1
wakij@@ 1
wakik@@ 1
walir@@ 1
zinazop@@ 1
ˈ@@ 1
​ 1
110 0.9672331721753287
Alianzisha 1
Cibitoke 1
Der@@ 0.9411234694778111
Ilhali 1
Inosenti 1
Jengo 1
Kind@@ 1
Mr. 0.7604798112613677
Orchestra 1
Ukom@@ 1
aona 1
baa 1
ben@@ 0.7403639352603818
chor@@ 1
fung@@ 1
hu 1
itikia 1
kelewa 1
kuepuka 1
kustaafu 1
kutumbuiza 1
mabingwa 1
matano 1
nywila 1
oleo 1
piano 0.7176893873844381
usoni 1
vir@@ 1
wane 1
wapiganaji 1
37@@ 1
96 0.7468155515553021
Antoni 1
Bos@@ 1
Boy 1
Filipo 1
Hai@@ 1
K. 0.8816983039399853
Khalifa 1
Lebanoni 1
Mav@@ 1
Mike 0.5870005214244448
Norway 0.9830004349173046
Nyandarua 1
Ontario 0.611816386160436
SC 0.7410384195757401
Scotland 0.5442064831433593
Sem@@ 1
Shab@@ 1
São 1
Thi@@ 1
anaw@@ 1
arabu 1
atakuwa 1
awanywa 1
chapishwa 1
engine 0.4984474232880358
funga 1
fuvu 1
hari@@ 1
hidrojeni 1
hil@@ 1
huchangia 1
ilichukua 1
imamia 1
kidole 1
kilianzishwa 1
kimya 1
kulima 1
lem@@ 1
len@@ 0.7001576671502755
limekuwa 1
mabamba 1
michango 1
misafara 1
pl@@ 0.3820144612345902
por@@ 0.6857777420531861
porini 1
ruhusa 1
sea 0.32629838958498547
sur 0.030005769737053364
walichukua 1
,000 1
1,4@@ 1
12,000 1
1884 0.7709669032990443
1887 0.7575993648140544
1904 0.5058436151176837
Afro 1
Astronomia 1
Falme 1
Hus@@ 1
Kiar@@ 1
Kic@@ 1
Lincoln 0.8120568949324369
Ma 1
Riwaya 1
Sun 0.6146411913528136
Viwango 1
all 0.04452819495782611
any 0.12017742377000024
asiye 1
atu@@ 1
aw 1
beseni 1
eswa 1
golikipa 1
gr@@ 0.32161295741218
han 0.260953188289216
hazik@@ 1
huchukua 1
husisha 1
iliyotengenezwa 1
jal@@ 1
kamata 1
mark 0.7270889738217118
misheni 1
mtihani 1
nusu@@ 1
nyaya 1
pokezi 1
tabianchi 1
ulizwa 1
umbile 1
utayarishaji 1
zinazohusiana 1
68 0.695576267482081
Beach 0.6618265320426348
Chang@@ 1
Ilit@@ 1
Institute 0.2567390302784139
Jumamosi 1
Kad@@ 1
Kand@@ 1
Kiinjili 1
Peters 1
Po@@ 0.3950512674729788
Rad@@ 0.6723021383856921
Ripoti 1
Saba 1
The@@ 1
Utaratibu 1
Warusi 1
We@@ 0.5703510063820192
aikolojia 1
alenga 1
anua 1
anwa 1
ask@@ 1
bungeni 1
buni 1
from 0.010018707193454235
hawa@@ 1
inka 1
ipotiwa 1
king@@ 1
kisasi 1
km2 1
kuwakilisha 1
linafanana 1
lio 1
ndicho 1
pal@@ 0.6101844676582866
saf@@ 1
su 0.024305917741219204
uham@@ 1
utumishi 1
uzaji 1
1899 0.5961965072428933
Ally 1
Bat@@ 0.7732357446231014
Blue 0.48790287608281707
Durban 1
Majira 1
NBC 1
Ra@@ 0.8987438000622991
Ruaha 1
Ulimwengu 1
Utatu 1
ajiunga 1
alimu 1
ampa 1
ation 0.08171111411678972
dar@@ 0.9402520611859305
ham 0.7848583316339038
jaa 1
mabomu 1
milimita 1
msongamano 1
mviringo 1
sakafu 1
toa 1
umishi 1
unaojulikana 1
upata 1
vumbi 1
wimbi 1
yalitokea 1
07 0.9168719260624828
Ari@@ 1
CO@@ 0.9099464826877499
Great 0.300196352126281
Laikipia 1
Lazio 1
Nus@@ 1
Pat@@ 0.9169783735265794
Qaeda 1
Sultan 1
Tabianchi 1
Tor@@ 0.41964826066763855
adiria 1
alilelewa 1
badilishwa 1
hayak@@ 1
hiwa 1
huathiri 1
ikita 1
inasemekana 1
injili 1
kaf@@ 1
kuwahi 1
likawa 1
manyasi 1
marejeo 1
mgawanyiko 1
nalo 1
nyuki 1
oli@@ 1
rutuba 1
tago 1
unaj@@ 1
unam@@ 1
vazi 1
vinne 1
wamef@@ 1
1891 0.6809352212133172
53@@ 1
69 0.7412852096768764
Kikanisa 1
Kiprotestanti 1
Peace 1
Ph@@ 0.5712429965908447
Sweden 0.8218349842264686
Territory 1
Ufundi 1
Waitalia 1
Yas@@ 1
Zu@@ 1
abab@@ 1
amilisha 1
anifu 1
anwani 1
aumu 1
ca 0.34920036834997
ekodi 1
fia 1
igi 1
ilini 1
ilipewa 1
ilitangazwa 1
imeh@@ 1
inategemea 1
kifu@@ 1
kimapenzi 1
kisababishi 1
kuingilia 1
kujitokeza 1
kushikilia 1
makambi 1
matabaka 1
mtemi 1
mwongozo 1
ofa 1
onyo 1
oso 0.6753992221176734
puka 1
sit@@ 1
uitwao 1
ukatili 1
umbani 1
1898 0.5709060521851426
24@@ 1
89 0.8264846110353286
Britania 1
Eng@@ 1
Gaza 1
Gold 0.5753351773196905
Haf@@ 1
Haw@@ 1
Kikan@@ 1
Kirinyaga 1
MA 1
Mashirika 1
Mwam@@ 1
Ndipo 1
Nim@@ 1
Road 0.23586180071172494
Trans 1
Tupac 1
Uasi 1
Uhispania 1
Uwezo 1
Wachina 1
afiki 1
age@@ 1
aliwas@@ 1
aribiwa 1
aruhusu 1
beta 1
dai 1
etiki 1
eva 1
hedhi 1
ist 0.017904778753597975
kifungo 1
kuadhimisha 1
kubadilishana 1
kufik@@ 1
kutangazwa 1
kwan@@ 1
mashimo 1
miakanuru 1
mwanasayansi 1
odumu 1
ofika 1
ohusu 1
owa@@ 1
unaotumika 1
utambulisho 1
utumiaji 1
walinzi 1
yabisi 1
160 1
57@@ 1
97 0.8181716638774917
Abrahamu 1
Alis@@ 1
Bin 1
Frankfurt 0.7790563802759505
Ibn 1
Ila 1
Ish@@ 1
Jr 0.7109890624763125
Kiasi 1
Margaret 0.9294957831263407
Mbu@@ 1
Som@@ 1
Urafiki 1
Vanuatu 1
Walikuwa 1
`@@ 1
akahamia 1
alipaswa 1
anta 1
co 0.16078668927240963
elezi 1
ensis 0.5532096806956934
fueli 1
ikan@@ 1
iliongezeka 1
indua 1
kubaliana 1
kutafakari 1
kutatua 1
lindwa 1
machungwa 1
majimaji 1
mitazamo 1
mkab@@ 1
mwanahistoria 1
owe 1
utando 1
uvumbuzi 1
vime@@ 1
vitengo 1
yanakwenda 1
yanayoweza 1
4.@@ 0.8481528235789014
Can@@ 0.4942423130280689
Fort 0.439364466238234
Kel@@ 1
Kiam@@ 1
Kimsingi 1
Marakwet 1
Mariah 1
Mbuga 1
Ndogo 1
Romania 1
Umbo 1
acho 1
ariki 1
bwawa 1
diwa 1
ens 0.1581706185997839
go@@ 0.5737710942170025
imi@@ 1
jinai 1
kong@@ 1
kuongozwa 1
liv@@ 1
majike 1
mapendekezo 1
mer 0.2894459613504409
mwetu 1
njama 1
oya 1
pap@@ 1
rekodiwa 1
sentensi 1
solo 0.21787664924419511
uadilifu 1
ubingwa 1
ugomvi 1
uhu 1
ulip@@ 1
unach@@ 1
upu 1
yupo 1
ze@@ 0.9291810898295721
í@@ 0.4554693573288135
09 0.80241007860878
1,6@@ 1
Abdul@@ 1
Anne 0.5468293981016987
Buganda 1
CL@@ 1
Inawezekana 1
Jen@@ 1
Kaw@@ 1
Kot@@ 1
Lag@@ 1
Makka 1
Masindi 1
Ml@@ 1
Nag@@ 1
Nu@@ 1
Rug@@ 1
abudu 1
agizo 1
ahau 1
alid@@ 1
ameshinda 1
chagua 1
dengi 1
efu 1
egawanyika 1
endelee 1
fal@@ 1
funguliwa 1
gamba 1
igana 1
ikiriwa 1
kandokando 1
kujif@@ 1
kumbu@@ 1
kumsaidia 1
kuru 1
kurudia 1
kuzama 1
mahiri 1
maporomoko 1
matakatifu 1
mavuno 1
moyoni 1
mrithi 1
panda 1
pindi 1
sok@@ 1
tab@@ 1
uenezaji 1
ujio 1
ulis@@ 1
unaitwa 1
unde 1
walikamatwa 1
wames@@ 1
wapenzi 1
yaki@@ 1
zinazotumika 1
1791 1
1839 1
1915 0.4038189929303237
22,@@ 1
76 0.6736291612799152
AS@@ 0.7601276269259943
Abba 1
Andes 1
Baltiki 1
Brazili 1
Bubanza 1
D. 0.4648799754015773
Fil@@ 0.8983408723939572
Huku 1
Ing@@ 1
Kikosi 1
Makazi 1
Mapema 1
Mawaziri 1
Roger 0.6952156892647592
Serengeti 1
Toyota 1
Ushairi 1
Vin@@ 1
Wakimbizi 1
abe 1
akach@@ 1
aliham@@ 1
badilisha 1
dy 0.7615316855469427
faru 1
haf@@ 1
hug@@ 1
hughulika 1
huk@@ 1
ilenga 1
ilitoweka 1
inatokana 1
iyo 1
kara 1
kimaumbile 1
kimet@@ 1
kuunga 1
mafupi 1
mang 1
meninjitisi 1
mfadhaiko 1
mfanyakazi 1
mjasiriamali 1
mlimani 1
ndi@@ 1
obe 1
okeza 1
panga 1
pofu 1
tor@@ 0.38410628698682064
ugawaji 1
ukw@@ 1
unyevu 1
1897 0.5704169716588668
1901 0.5075195307106576
91 0.8054832701096392
Alex 0.8635151558298583
Antaktiki 1
Bad@@ 0.9664045861358966
Bay@@ 1
Brian 0.7188830219222868
Char@@ 0.5488712525361324
Day@@ 1
Is 0.7281009824478133
Nin@@ 1
Pen@@ 0.8604901066845124
Russia 0.4135503856856314
SA 0.7807209616137425
Solomon 1
Ste@@ 0.5479153673995454
Ucheki 1
Vikta 1
Viwanda 1
Vyombo 1
XIV 1
Yus@@ 1
afanywa 1
afutwa 1
alichezea 1
alihudumu 1
amerika 1
anal@@ 1
bil@@ 0.9433002513623346
doa 1
edonia 1
idhinishwa 1
kuhamasisha 1
kutwaa 1
lima 1
maslahi 1
non 0.1118611924109733
oyo 1
popote 1
ras@@ 1
uja 1
unategemea 1
undani 1
ungia 1
upofu 1
walijenga 1
wan 1
140 1
Amb@@ 1
Bot@@ 0.9627786298399156
Bre@@ 0.5030187506641305
Film 0.1640062155799689
Hisa 1
Orange 1
Sand@@ 0.6309649373990528
Sk@@ 0.8142142115481705
Taaluma 1
Uandishi 1
Vipengele 1
Waajemi 1
akaa 1
akiz@@ 1
alijifunza 1
alimfuata 1
aliyeishi 1
angeweza 1
aribika 1
azia 1
dawamfadhaiko 1
hawat@@ 1
hukaa 1
ilipot@@ 1
indo 1
kuchanganya 1
kukamilika 1
kuliwa 1
maambukizo 1
mfuasi 1
mn@@ 1
nidhamu 1
pitisha 1
poteza 1
sahili 1
umbuiza 1
unukiwa 1
utak@@ 1
utiifu 1
yamekuwa 1
47@@ 1
500,000 1
60,000 1
86 0.727156950549337
Baden 0.8890480751237512
Com@@ 0.31302108303855514
Cu@@ 0.7378319151918604
Davis 0.5674519356605054
Embu 1
Gh@@ 1
Hen@@ 1
His@@ 1
Huru 1
Kesi 1
Kinga 1
Klara 1
Makabila 1
Wapare 1
Wilhelm 0.41960004105951565
alisaidia 1
alitengeneza 1
ambe 1
anayeh@@ 1
chaguliwa 1
elli 0.5848920483324562
gi 1
imesh@@ 1
itoa 1
ius 1
kipa 1
kuchimba 1
kung@@ 1
mbo@@ 1
my@@ 1
nimonia 1
odai 1
ongozaji 1
paa 1
pom@@ 1
tishwa 1
tw@@ 0.6199023698715193
ualimu 1
ufadhili 1
uliofanyika 1
umu@@ 1
utetezi 1
wadhifa 1
waliowahi 1
walitangazwa 1
wanyamapori 1
washirika 1
wasomaji 1
109 1
1866 0.6378489559035116
5.@@ 0.9148547403116895
77 0.6805415316256048
9,000 1
Addis 1
Bil@@ 0.9702283452045534
Cambridge 0.6399512719230677
Dal@@ 1
Emmanuel 1
France 0.07549115528631102
Gabriel 0.9018321979654849
Hesse 1
Hippo 1
IA 1
Kina 1
Mauaji 1
Misa 1
Movement 1
Obama 1
Ou@@ 1
Panama 1
Sor@@ 0.6892432070835535
Street 0.1684105549718488
Ujapani 1
abibu 1
alendo 1
alirekodi 1
aliyeanzisha 1
bozi 1
ebu 1
ette 0.27502117642564977
idi@@ 1
inatumia 1
kuhamisha 1
ohusisha 1
pende@@ 1
sho 1
ubia 1
ulifutwa 1
umiliki 1
unaendelea 1
uoni 1
uwindaji 1
waliofia 1
yalisababisha 1
yamep@@ 1
yok@@ 1
81 0.7073459466042056
ANC 1
Arts 0.275548555262265
Free 0.7646000345862826
Ikweta 1
Inaweza 1
Kairo 1
Kericho 1
Nisea 1
Ob@@ 1
Steven 1
Tal@@ 0.6483566895010063
ahawa 1
aliyoy@@ 1
atikani 1
fua 1
hem@@ 1
iliamua 1
inahitaji 1
inatumiwa 1
itikio 1
kikiwa 1
kiufundi 1
kofia 1
kondomu 1
les 0.010142638735905062
masista 1
matarajio 1
vilima 1
waliunda 1
wanaop@@ 1
wili 1
130 0.9132205229981888
Bank 0.3495864518794414
Dakar 1
Goguryeo 1
Hir@@ 0.926787640417011
Hollywood 0.6692296995847412
Kibin@@ 1
Kumi 1
Mashairi 1
Mass@@ 1
Post 0.4656429320509219
Seg@@ 1
Shakur 1
Sherehe 1
Sis@@ 1
Viti 1
agano 1
akaunti 1
alichapisha 1
alifundisha 1
alimpa 1
alitajwa 1
amewahi 1
anapaswa 1
anze 1
ary 0.24797898306489374
asaidia 1
ayansi 1
bun@@ 1
der@@ 0.28339305083182764
dr@@ 0.3687173085153779
fanywa 1
fikra 1
huleta 1
imbilia 1
irizi 1
isimu 1
ithi 1
jifunza 1
kamji 1
kinachoitwa 1
kos@@ 1
ongozo 1
opera 0.8681712096867379
pendwa 1
pumzi 1
tata 1
udu 1
ui@@ 1
usahihi 1
walitaka 1
waliv@@ 1
wanash@@ 1
watumishi 1
wor@@ 0.946622520783152
zilizofuata 1
1892 0.6102447400308195
23,@@ 1
27,@@ 1
Alipewa 1
Beijing 1
Cap@@ 0.5720214076743434
Del@@ 0.4286149096977836
Dioklesyano 1
Earth 0.5293854817823878
England 0.14603226631483668
Grace 1
Hom@@ 0.9751108042007693
Howard 0.6969069351242206
Hussein 1
Jibuti 1
Ju@@ 0.8692983362897859
Lil 1
MC 1
Malindi 1
Mwekundu 1
Rashid 1
Sur@@ 0.5368679181558951
Ujiji 1
Vatikano 1
Venezuela 0.6928008229297831
Wanakadiriwa 1
ac 0.42349308532416946
aligundua 1
amiliki 1
ast@@ 0.8339735370632647
cheti 1
dayosisi 1
eon@@ 1
fon@@ 1
hihirisha 1
hiyohiyo 1
hutoka 1
ian 0.46242408707061083
ilijengwa 1
ingereza 1
isiti@@ 1
kazini 1
ken@@ 0.7367688239982221
kiangazi 1
kidemokrasia 1
kirafiki 1
kuchomwa 1
kufikiria 1
kujihusisha 1
linalomaanisha 1
madume 1
mwanawe 1
my 0.38169592417819015
pitishwa 1
pu 1
shambulio 1
sou 1
tamu 1
tangazo 1
thi@@ 1
uchezaji 1
udhamini 1
unguzi 1
unj@@ 1
upenda 1
viny@@ 1
vua 1
74 0.6522229784854807
A.@@ 1
Be 1
Bomet 1
Centre 0.3304086205331372
Chem@@ 1
Des@@ 0.3948160349442409
Development 0.4729036956488035
EP 0.4879733470225336
Jomo 1
Kuku 1
Mababu 1
Nz@@ 1
Qatar 1
Ross 0.8671112853556369
Saudia 1
Tatizo 1
Tovuti 1
aafu 1
aso 1
bio 1
bomba 1
bomu 1
che@@ 1
chemchemi 1
chote 1
diwani 1
eket@@ 1
elem@@ 1
enia 1
hamia 1
idhini 1
ifiwa 1
imia 1
inayom@@ 1
inayoz@@ 1
jukwaani 1
kampaundi 1
kardinali 1
kutoroka 1
mahar@@ 1
media 0.23778251655163135
oth@@ 0.7805739002936005
raga 1
sak@@ 1
tume 1
ufufuko 1
wakitumia 1
wanapaswa 1
„ 0.02853800832086132
1895 0.5399914457013548
24,@@ 1
28@@ 1
AS 0.877406034357501
Alfred 0.6070541423480403
Alimaliza 1
Dũng 1
Ellen 1
Haya 1
Hol@@ 0.39766397346901045
Iceland 1
Isaac 1
Isaya 1
Jab@@ 1
Juventus 1
Kiarmenia 1
Mwanamke 1
Mwenye 1
Mwokozi 1
Myahudi 1
On 0.03790083962041544
Press 0.6197835767062693
Taiwan 1
Tamb@@ 1
UK@@ 1
Ufu@@ 1
Uhusika 1
Vyuo 1
Waliobaki 1
We 0.43164943744033074
achiliwa 1
aliimba 1
arr@@ 0.6821063546762658
dem@@ 0.5341602317790449
ello 0.4506873243465529
fundishwa 1
gar@@ 0.5794776957160993
hazij@@ 1
ichezo 1
ikip@@ 1
ilifanyika 1
iliona 1
ilitengenezwa 1
ishindwa 1
itaka 1
its 0.02343569051375772
izi@@ 1
kiza 1
kuham@@ 1
kuif@@ 1
miiba 1
mitholojia 1
tiketi 1
ulim@@ 1
ungufu 1
vizuizi 1
vuguvugu 1
walihesabiwa 1
yalik@@ 1
zuka 1
101 1
4000 1
6.@@ 1
78 0.6531576212086395
87 0.7179888837225232
92 0.6861177337608315
Bir@@ 0.7782593587148862
Bosnia 1
Brothers 0.9739117983778369
Cel@@ 1
Fox 0.5728345514878903
G. 0.5548760151271445
Hati 1
Karolo 1
Kiasili 1
L. 0.4940018501841914
Live 0.4750801405144916
Lạc 1
Main 0.5141066693402461
Mimea 1
Mwigizaji 1
Napoleon 1
Nyeupe 1
Nzoia 1
Pin@@ 0.6548761643039855
Tut@@ 1
Umuhimu 1
Ven@@ 0.8890040391612277
Vy@@ 1
Wamisionari 1
XV 0.9220098863034084
Zi@@ 1
Zin@@ 1
adamu 1
adhiliwa 1
alipofariki 1
alipopata 1
alitawala 1
aliwaunganisha 1
andamana 1
araka 1
asasi 1
awanya 1
eji 1
farakano 1
ful@@ 1
ghuba 1
haziku@@ 1
hogo 1
hupewa 1
inaw@@ 1
inayotokana 1
ingekuwa 1
iwezekanavyo 1
kauli 1
kukubaliwa 1
kuvunjika 1
kuzidi 1
linap@@ 1
linatumika 1
magimba 1
majarida 1
matini 1
mikakati 1
msamaha 1
mwana@@ 1
obadilika 1
ocheza 1
orwa 1
pacha 1
protoni 1
que 0.00721698496339702
umech@@ 1
uundaji 1
wakip@@ 1
yaliyomo 1
34@@ 1
Aliteuliwa 1
Daily 1
Die 0.01763892249163133
H. 0.4031893921781822
Haiti 1
Hoima 1
Kahama 1
Kilutheri 1
Kok@@ 1
Laden 1
Math@@ 1
Mfaransa 1
Now 0.9590693470926147
Pi@@ 0.44091384106513476
Ufafanuzi 1
WHO 1
Wafanyakazi 1
Wanas@@ 1
akaanzisha 1
akapewa 1
all@@ 0.4065828579262072
anayeishi 1
angam@@ 1
asimulia 1
atengenezwa 1
aus@@ 0.15455757738025538
awaz@@ 1
ekewa 1
enyi 1
huhudia 1
huhusishwa 1
ikie 1
ikijumuisha 1
jui 1
koni 1
kustawi 1
maradufu 1
mfuko 1
nomino 1
takataka 1
unatiririka 1
visababishi 1
vizio 1
walikutana 1
2Pac 1
360 1
94 0.752303229726725
Ahmad 1
Canterbury 1
Chanjo 1
Cr@@ 0.39757023817300974
Foreign 0.8292432681127678
Global 0.8377650605609009
IS@@ 0.9478366466940182
Kidravidi 1
Kweneng 1
Mafuta 1
Mny@@ 1
Nabii 1
Nk@@ 1
Pot@@ 0.8603654299697958
Rungwe 1
Sicilia 1
Uongozi 1
Vyanzo 1
Wakapuchini 1
Wananchi 1
Wanatajwa 1
adhimishwa 1
alitunukiwa 1
amar@@ 1
angazaji 1
athi 1
ebi 1
eshe 1
haba 1
ick 0.49450990008573886
igania 1
inar@@ 1
ingeweza 1
iri@@ 1
jili 1
jumu@@ 1
kucha 1
kufukuzwa 1
lako 1
lami 1
lich@@ 1
mabonde 1
miliki 1
ndovu 1
nin@@ 1
ongofu 1
rushwa 1
tete 1
tis 0.5729984485786216
une 0.013369594433180459
ungum@@ 1
urembo 1
walipokea 1
wengu 1
yaliyof@@ 1
1200 1
1861 0.6635912512780069
1871 0.6243072101307471
93 0.6944052955338998
Allen 0.7114366607730864
Dhahabu 1
Dun@@ 0.8749334600539073
Kang@@ 1
Kikal@@ 1
Lake 0.23890486628176663
Mchungaji 1
Nehemia 1
Sayyid 1
Stanley 0.8998972103482168
Wamor@@ 1
Washia 1
anuka 1
ayi 1
bl@@ 0.2750349920801101
densi 1
hubeba 1
huendelea 1
ifuata 1
iliyor@@ 1
inakadiriwa 1
ja@@ 1
jipatia 1
koli 1
kuongezea 1
kupatwa 1
mbo 1
mitaani 1
msituni 1
raisi 1
sen@@ 0.5824639668653178
tiri 1
tungo 1
ukeketaji 1
ukumu 1
uth@@ 1
walishinda 1
waliwatangaza 1
watafiti 1
wepesi 1
wizi 1
ys 0.40984016873267193
1,8@@ 1
82 0.6652159881047065
Alitoa 1
Bidhaa 1
CNN 1
F.C 1
Felisi 1
Gas@@ 0.8883526816874449
Hills 0.9398063738756507
Jaji 1
Kelly 0.8567612224288098
Lim@@ 0.9524119730021571
Muramvya 1
Nishati 1
Qur 1
Rom@@ 0.6609209300043297
Sav@@ 0.8069132034686529
Uy@@ 1
Wachezaji 1
Wajir 1
Wakomunisti 1
adimu 1
alikwa 1
anachezea 1
andwa 1
asali 1
atan@@ 1
chembechembe 1
dugu 1
elim@@ 1
etu 1
fukara 1
ifu@@ 1
ikuja 1
ime 1
ingu 1
jer@@ 1
kimb@@ 1
kujitenga 1
kumiliki 1
minyoo 1
mzingo 1
onea 1
ozunguka 1
poli@@ 1
tish@@ 1
uchafu 1
umisha 1
unganika 1
utabiri 1
utangazaji 1
utio 1
wanaotumia 1
yanapatikana 1
1,9@@ 1
1893 0.5633441584595351
26,@@ 1
84 0.6483104308500054
AL@@ 0.9299046537907811
Algiers 1
Allah 1
Alliance 0.8452301218555821
Alzeima 1
Gishu 1
Heri 1
Hi@@ 1
Humo 1
IN@@ 0.8540457907602548
Kikur@@ 1
Kompyuta 1
Kong@@ 1
Masuala 1
Mifumo 1
Mtemi 1
Muhtasari 1
Mwanam@@ 1
Qurani 1
Saf@@ 1
Taratibu 1
Uasin 1
Wabantu 1
Warumi 1
Zaire 1
aksi 1
alishirikiana 1
alla 1
amecheza 1
amfetamini 1
bera 1
den 0.01002855369792446
eli@@ 1
ilishaji 1
inatokea 1
itu 1
kamera 1
kinywaji 1
kufuta 1
kugombea 1
kuhisi 1
kujitoa 1
kukamata 1
kumekuwa 1
kutumikia 1
kwe 1
meza 1
mshirika 1
ns 0.5195631050839147
ova 0.6629591052871783
pole 1
sy@@ 1
ter 0.12791426267987138
upole 1
utegemezi 1
vena 1
wakaao 1
walikataa 1
walipot@@ 1
25,000 1
Ashanti 1
Bundesliga 0.8371519104356193
Che@@ 1
Dameski 1
Diego 0.5132608516996382
Harris 0.8334895519692942
Isi@@ 1
Kiman@@ 1
Kondoa 1
Long 0.40699829846153257
Max 0.42826415577662774
Oy@@ 1
Raila 1
Saksonia 1
Santos 1
Suez 1
Tim 0.900802365227106
Vig@@ 1
Villa 0.5994796587430974
Wau@@ 1
airi 1
akata 1
aliomba 1
amatwa 1
atiza 1
fas@@ 1
ger@@ 0.3428760916631813
harufu 1
hub@@ 1
huwekwa 1
ikiliza 1
ilitoka 1
iliwahi 1
inasim@@ 1
ity 0.18901835252226726
kizuizi 1
kliniki 1
kumalizika 1
kumpenda 1
kumsh@@ 1
kusikiliza 1
lu 1
matengenezo 1
maungano 1
mshtuko 1
mwanae 1
nyani 1
orodhesha 1
oteza 1
pakubwa 1
patana 1
tiki 1
ukit@@ 1
vidonge 1
visivyo 1
wahudumu 1
wakilishwa 1
wanaofanya 1
wanja 1
zisizo@@ 1
1894 0.5624873837107291
450 1
Ababa 1
Alpha 1
Atlanta 0.760449929329644
Claire 1
Da 0.3616671198111394
Eric 0.7018243637971088
He@@ 0.317480504978515
Kaf@@ 1
Krist@@ 1
Ltd 0.9405541611835614
Luis 0.39981511479211357
Merika 1
Musoma 1
Ohio 0.37638821837569497
Ony@@ 1
Orleans 1
Pan 1
Tek@@ 1
Wale 1
West@@ 0.44555800447273514
ahiri 1
akal@@ 1
ametoa 1
angaziwa 1
aq 1
awia 1
ce 0.05467570470929327
cho 0.10355614029112829
dhoruba 1
edi@@ 0.8144698988671122
elektroniki 1
fimbo 1
hasibu 1
hayaj@@ 1
hibitishwa 1
ich 0.3028573547506468
ilifikia 1
ilitumika 1
imamu 1
imeb@@ 1
inafaa 1
inasema 1
indik@@ 1
ing. 1
ith 0.9523868017419432
itiwa 1
jiita 1
juma 1
kanisani 1
kivita 1
kivuli 1
ks 0.24963243606964286
mtangulizi 1
oki 1
otiki 1
talaka 1
unaop@@ 1
unatokana 1
val@@ 0.6423314954122473
wacha 1
wanatokea 1
wona 1
zee 1
zinaitwa 1
ô@@ 1
ː 1
170 1
1840 0.7879841878750158
43@@ 1
Adamu 1
Ankara 1
Bayern 0.7844915660609897
Dioecesis 1
Girls 0.9092464170158481
Hek@@ 1
Ishara 1
Kazakhstan 1
Kifupi 1
Lesotho 1
Microsoft 0.7729435295204129
Mkatoliki 1
Mwin@@ 1
Od@@ 1
Pale 1
Sag@@ 1
Serie 0.40306364284110807
Stephen 0.5547547462684607
Sulawesi 1
Theatre 0.4016093311821474
Vile 1
Wand@@ 1
ambukiza 1
ameonekana 1
arifu 1
atizwa 1
bai 1
bain@@ 1
bua 1
eh 1
eu 0.4450483257793346
ewekwa 1
fadhili 1
hubiri 1
idisha 1
ikiza 1
inayok@@ 1
itakay@@ 1
jini 1
kipaumbele 1
kiv@@ 1
kromosomu 1
kuamini 1
kuchochea 1
kumfuata 1
kupendeza 1
kuporomoka 1
kupumzika 1
kusomea 1
kuwan@@ 1
kuwasilisha 1
machafuko 1
michakato 1
nusutufe 1
ogani 1
ons 0.14948346633288226
pari 1
shukrani 1
til@@ 0.758328128107499
uguzi 1
uzamivu 1
war 0.018785725580783
wasio@@ 1
yor@@ 1
zinazojulikana 1
01 0.6898637986394623
21,@@ 1
Adolf 0.9473018589124234
Anderson 0.6623867396966513
Arabia 1
C.@@ 1
Cup 0.11779296158093684
Darfur 1
Ezra 1
Fur@@ 1
Kurani 1
Lem@@ 1
Magufuli 1
Mapapa 1
Maungano 1
Mbwa 1
Mog@@ 1
Mwislamu 1
Sinai 1
Taveta 1
Tus@@ 1
Utalii 1
achangia 1
agu@@ 0.7424523750792511
akaja 1
akwa 1
alisisitiza 1
aliyejulikana 1
alizia 1
anatajwa 1
astahili 1
band@@ 1
bee 1
bol@@ 0.8827118060231299
buibui 1
da@@ 1
dijitali 1
ekaji 1
enyo 1
ga@@ 1
ghali 1
gia 0.23148169865922305
huchukuliwa 1
hy@@ 0.8276405963504411
ias 1
ikiri 1
ins 0.1370256567476235
kez@@ 1
kuinua 1
kujibu 1
kurusha 1
kusonga 1
matiti 1
mfupa 1
msalabani 1
nembo 1
osoa 1
ostawi 1
tilia 1
ufunguzi 1
ultani 1
umonaki 1
usingizi 1
vipya 1
wafu 1
wakap@@ 1
waliwa 1
wea 1
yn 0.7841487858529708
zinduliwa 1
00 0.33019979761379414
201@@ 1
Alitumia 1
Baby 1
Buy@@ 1
Dennis 1
Front 0.6837174048238907
Hans 0.35666486548800463
Harare 1
Harry 0.5056896052539127
Isichanganywe 1
Kibar@@ 1
Kipimo 1
Kos@@ 1
Kub@@ 1
Lil@@ 1
M.@@ 1
Mapigano 1
Marcus 1
Missions 1
Mke 1
Morocco 1
Prot@@ 0.9349036600343215
RA 1
Shah 1
Silva 1
Soul 1
Tas@@ 1
Trier 1
Youth 0.7763348079655505
Ze@@ 0.866329478162737
alieleza 1
alifuata 1
alingana 1
amas@@ 1
anayes@@ 1
angaliwa 1
bad@@ 1
hari 1
ikiria 1
inakuwa 1
inaruhusu 1
ioni 1
iza 1
kewa 1
kikombe 1
kusisitiza 1
mabasi 1
meupe 1
mifereji 1
mlezi 1
mzizi 1
nam@@ 1
ninyi 1
odha 1
otokea 1
pembetatu 1
pepo 1
pig@@ 1
ry 0.4346881962377993
sifu 1
soni 1
tamka 1
udikteta 1
ulijengwa 1
unapita 1
ungulia 1
upanga 1
upendeleo 1
ust@@ 1
utunzi 1
ver@@ 0.08663940993662428
vigezo 1
waliondoka 1
weha 1
zinak@@ 1
Art 0.15161270742260613
Buikwe 1
Kili@@ 1
Kisal 1
Lang@@ 0.5233385756751788
Malengo 1
Manispaa 1
Rap 1
Same 1
Seoul 1
Sit@@ 1
Tharaka 1
Tuk@@ 1
Udhibiti 1
^ 1
adala 1
adhimisha 1
ajitokeza 1
akah@@ 1
alijibu 1
andisi 1
atiririka 1
bar 0.27565470403810266
biu 1
eja 1
esti 1
field 0.12722226494939823
hitajika 1
hor@@ 0.6523916773250891
imez@@ 1
kuashiria 1
kuchoma 1
kufikisha 1
kutot@@ 1
majumba 1
md@@ 1
mkim@@ 1
mlo 1
mtengenezaji 1
njozi 1
nyaraka 1
nyongo 1
sanduku 1
som@@ 1
talanta 1
tas@@ 1
upangaji 1
wanataka 1
zilik@@ 1
ć 0.8877302543076268
08 0.6784750301387837
103 1
8.@@ 1
Amina 1
Bamba 1
Barbara 0.8545908086339757
Bustani 1
Chan@@ 1
Denis 1
F. 0.4436660506374518
Gb@@ 1
Houston 0.6689771395480879
Ij@@ 1
Jin@@ 1
Kasulu 1
Kipal@@ 1
Kl@@ 0.6789524156871602
Lawrence 0.777942625254944
Meli 1
Milan 0.7996509797597394
Mum@@ 1
Nap@@ 1
Nat@@ 1
Pap@@ 0.6582874072332059
Queens 1
She@@ 1
Song 0.42336209894401744
Tsh@@ 1
Usiku 1
Valley 0.32702109542285224
Victor 0.6063868532042331
Wallace 1
abidhiwa 1
aliajiriwa 1
alitumwa 1
amiaji 1
asiriamali 1
fo 1
fuat@@ 1
fuatia 1
gereza 1
graviti 1
haip@@ 1
iliyotoka 1
islamu 1
ism 0.2336017212827086
kampasi 1
kenya 1
kg 0.5225114736797897
kilima 1
kipato 1
kufaulu 1
kugawa 1
kukus@@ 1
kustah@@ 1
kutajwa 1
kwangu 1
mabishano 1
madeni 1
mataji 1
mganga 1
mijusi 1
mtaani 1
mwingiliano 1
mwinuko 1
od 0.7289715591205365
ougou 1
owa 1
pigana 1
pil@@ 1
sharti 1
uhifadhi 1
ukaji 1
umaji 1
usurika 1
uwongo 1
volikano 1
waga 1
walioh@@ 1
waliyo@@ 1
wanaona 1
yang@@ 1
yot@@ 1
,@@ 1
1,7@@ 1
2,0@@ 1
7.@@ 1
Alisomea 1
CHADEMA 1
Ca@@ 0.8151960760140653
Cheche 1
Country 0.5890967282733058
Demokrasia 1
Ex@@ 0.2726769806159596
Flava 1
Je@@ 0.8241972711534612
Koloni 1
Kuh@@ 1
Majaribio 1
Mbinga 1
Minnesota 0.5152161873947054
Mississippi 0.7511966923377519
Nan@@ 1
Nation 1
Sarah 0.7505502333438173
Shar@@ 1
Slovenia 1
Tim@@ 0.8044971510843008
Timor 1
Tw@@ 1
Uruguay 0.937276835293088
Usambara 1
Wair@@ 1
Wasichana 1
abr@@ 1
alishika 1
apar@@ 1
arajia 1
chui 1
ci 0.21031905632542364
ff@@ 0.3837055152692604
huliwa 1
ilihamia 1
ilil@@ 1
imili 1
inamu 1
itak@@ 1
kilianza 1
mahakamani 1
marudio 1
meth@@ 1
mh@@ 1
mikopo 1
mmenyuko 1
mpelelezi 1
nyenzo 1
shauku 1
taki 1
ukat@@ 1
unaz@@ 1
unni 1
upwekeni 1
walidhulumiwa 1
wanaojulikana 1
wanaok@@ 1
zilizof@@ 1
105 1
ABC 0.7137766420341842
Abdul 1
Amsterdam 0.8443156934305679
Can 1
Damu 1
Dhana 1
Dr@@ 0.41679155452024025
Ed@@ 0.7025505368423457
Had@@ 1
Juan 0.21285609972905326
Kikomunisti 1
Krioli 1
Lewis 0.5041287966681332
Mafundisho 1
Mbegu 1
Pembe 1
Polandi 1
Ray 0.6752094612800219
Sun@@ 0.8858526114708708
Tag@@ 1
Tororo 1
Ushirika 1
Vikuu 1
ahaba 1
aia 1
akasema 1
alipelekwa 1
alipoanza 1
buniwa 1
ech 0.8881691298690976
engi 1
hadhira 1
haikut@@ 1
huandikwa 1
hucheza 1
hukumiwa 1
ifia 1
itika 1
jan@@ 1
jin@@ 1
kilim@@ 1
kufafanua 1
kujadili 1
mabinti 1
maelekezo 1
maovu 1
masikio 1
mhadhiri 1
mjukuu 1
msafara 1
msamiati 1
ohusishwa 1
okus@@ 1
pro@@ 0.37456715912771216
tari 1
tathmini 1
tisi 1
tuki@@ 1
tunay@@ 1
umilia 1
vitano 1
zikit@@ 1
1881 0.5914009972201465
Abdullah 1
Balkani 1
Cordoba 1
District 0.11554523115968153
ES@@ 0.898770873257958
Efeso 1
Girl 0.8447941928219347
Gol@@ 0.6669193815057991
Hesabu 1
Joseon 1
Kem@@ 1
Mafia 1
Mandera 1
Mwaro 1
Ndoa 1
Pu@@ 0.8566471536462928
Ruk@@ 1
Salum 1
Sig@@ 1
Sports 0.42669761964431674
Suleiman 1
Taita 1
Ufunuo 1
Wafuasi 1
Wahindu 1
akiwemo 1
alitoka 1
ejelea 1
elti 1
eshimu 1
hakut@@ 1
hori 1
ilitumia 1
ker@@ 0.476985812286498
kifupisho 1
kipen@@ 1
kitropiki 1
kufunika 1
kuing@@ 1
kulit@@ 1
kupanuka 1
kuratibu 1
lan@@ 0.5712552602397677
mapumziko 1
matofali 1
mchele 1
mkazo 1
mtafiti 1
ojeni 1
ojit@@ 1
opendekezwa 1
oshika 1
pop@@ 1
sil@@ 0.614127001890785
taswira 1
th 0.17924001292837138
tishio 1
tundu 1
uliof@@ 1
ulisha 1
viko 1
vitongoji 1
viw@@ 1
zinazotumiwa 1
zing@@ 1
06 0.7152471795083938
Banda 1
Brooklyn 0.8572421221364008
Cham@@ 1
Dis@@ 0.35105260705666447
Donald 0.7328815536975474
Hem@@ 1
Jumanne 1
Kennedy 0.7603525026008575
Kior@@ 1
Kislavoni 1
Kitanzania 1
Kitivo 1
Konstantino 1
Lamwo 1
Linapatikana 1
Mapatano 1
My@@ 0.6702763405182457
Oscar 0.781801985863154
Rah@@ 1
Str@@ 0.255976440485049
Uten@@ 1
Wanatokea 1
Wawili 1
adia 1
afutia 1
aiti 1
alithibitisha 1
anakumbukwa 1
ataka 1
bani 1
bert 0.633889759862505
dirisha 1
ehemu 1
elewana 1
heshimiwa 1
igh@@ 1
ikap@@ 1
ikira 1
ilipokea 1
ise 0.19135584153879995
ishiriki 1
jusi 1
kuam@@ 1
kupe@@ 1
kupitishwa 1
kwen@@ 1
mapigo 1
mjane 1
mvulana 1
ndogondogo 1
ombwa 1
ongoka 1
oud 1
para 0.02470000622896204
raha 1
satelaiti 1
seminari 1
stahili 1
steroidi 1
teri 1
tisha 1
uchafuzi 1
uchimbaji 1
ufisadi 1
uno 0.18146266666646374
uoto 1
upadrisho 1
wavu 1
wele 1
yaliyop@@ 1
zinatokea 1
zinazoonekana 1
zozote 1
市 0.4222681782733035
290 1
38@@ 1
Amri 1
Bernard 0.6245093271544384
Bol@@ 0.5642826964272736
COVID 0.5037371770276704
Chati 1
Corps 0.3879143358370269
Felix 1
Fl@@ 0.5284933070328405
Gen@@ 0.5399575317837109
Iti@@ 1
Jacob 0.8004395117816032
Je 1
Kikonfusyo 1
Kilombero 1
Kimi@@ 1
Korogwe 1
Marais 1
Mbatizaji 1
Nature 1
Porto 1
Shia 1
Township 0.4592761285269269
Ulimwenguni 1
Ung@@ 1
Waholanzi 1
Wakuu 1
Wasanii 1
Wenger 1
afika 1
alielezea 1
anatumia 1
aran@@ 1
ard@@ 0.5059955507231141
ate@@ 1
atie 1
bus@@ 0.9194081771381419
chin@@ 1
dereva 1
diko 1
emu 1
eonekana 1
esh 1
hazit@@ 1
hukua 1
ikaendelea 1
ikam@@ 1
kingono 1
kro 1
kwako 1
lands 0.33979689425601534
mahubiri 1
mazoea 1
mwanajeshi 1
ogoro 1
okusudiwa 1
onek@@ 1
radidia 1
tokea 1
tra 0.40182443236864746
umizi 1
und 0.003724766762627322
walich@@ 1
waliwahi 1
wara 1
wavuvi 1
yatima 1
1,3@@ 1
3,0@@ 1
Bro@@ 0.6000097692300982
Colorado 0.5475599568840861
Copa 0.4441081609863131
Emmy 1
Fi@@ 0.6718175148455404
Isaka 1
Juliani 1
Kiang@@ 1
Kijamii 1
Little 0.3850361483804808
Lombardia 1
Mauretania 1
Med@@ 0.74016870760005
Mongolia 1
Mpanda 1
Mta@@ 1
Nana 1
Network 0.5177869245433905
Shindano 1
Sho@@ 0.9100622508487508
Skandinavia 1
T. 0.5150043642379426
Wabenedikto 1
Yo 1
aalam 1
afanyika 1
akiishi 1
alicho@@ 1
ambaza 1
ameandika 1
anavyo@@ 1
anif@@ 1
ateri 1
athmini 1
bra 1
chen@@ 0.9370362555551667
eaji 1
eingia 1
haa 1
hun@@ 1
ikuu 1
iliingia 1
inapakana 1
inayoonekana 1
inz@@ 1
kah@@ 1
kilogramu 1
kiwanja 1
kusafirisha 1
kuvimba 1
lililoitwa 1
maanani 1
machifu 1
mdomoni 1
mjomba 1
nas@@ 1
nene 1
obuniwa 1
ongezewa 1
our@@ 0.6480683162065656
tivo 1
ts@@ 0.3209116934046197
ubini 1
ugunduzi 1
ulioitwa 1
ungumzwa 1
unguz@@ 1
up 0.037040920056595074
utaji 1
utaka 1
utakaso 1
uzinduzi 1
vur@@ 1
walipokuwa 1
waza 1
1830 0.7217908534582979
1850 0.5954995522183625
Alaska 0.9582704588670442
Alihamia 1
Anga 1
Bolivia 1
Boys 0.7377691177446521
Brooks 1
Council 0.1475375861565794
Dominiko 1
Elgeyo 1
Enugu 1
Game 0.4230952128775019
Helen 1
Jaribio 1
Kichwa 1
Kirundo 1
Makaburu 1
Maryland 0.5996698716961445
Mkondo 1
Mom@@ 1
Mwai 1
Pak@@ 1
Pop 0.9445939704097601
Raf@@ 1
Rut@@ 1
Tafsiri 1
Tang@@ 1
Uh@@ 1
Ukerewe 1
Uzalishaji 1
Val@@ 0.3255068463168067
ador 0.31824932240309844
aliyepata 1
asteroidi 1
atisha 1
bebwa 1
chochea 1
department 0.40604736677495323
gezwa 1
hubadilika 1
ilileta 1
itat@@ 1
kari@@ 1
kibayolojia 1
kilo 1
kufanyiwa 1
kuhesabu 1
kukimbilia 1
kutayarisha 1
kuwaua 1
kuyat@@ 1
magurudumu 1
mshipa 1
ngeli 1
nguruwe 1
olo@@ 1
orushwa 1
pete 1
sifuri 1
tah@@ 1
tan 0.32586965208233953
the@@ 0.6023254409456317
thumb 1
ty@@ 0.7736197598778507
uan@@ 1
uda 1
ulitumika 1
ulizi 1
umakini 1
umej@@ 1
walisema 1
wanafanya 1
wano 1
wazalendo 1
yaliyotokea 1
zimef@@ 1
zinaonekana 1
000 0.2356365691617118
106 1
1600 1
1700 1
1909 0.3577307678631821
28,@@ 1
Ap@@ 0.5464522399098434
Binti 1
Bush 0.9149812878068969
Business 0.4953986004181386
Church 0.14233926818741266
Corporation 0.3790030047608594
Dre 1
Fat@@ 1
Forbes 1
Gur@@ 1
Kamb@@ 1
Kawaida 1
Kubwa 1
Leopold 1
Livingstone 1
Lom@@ 1
Lup@@ 1
Namb@@ 1
Polinesia 1
Rak@@ 1
Redio 1
Saturninus 1
WA 1
Wadudu 1
Yak@@ 1
ahama 1
alipenda 1
ambuzi 1
ameolewa 1
apishaji 1
asani 1
biana 1
ewe 1
giz@@ 1
halik@@ 1
hauna 1
hauri 1
ichukua 1
iliyojulikana 1
inav@@ 1
ine@@ 1
inge@@ 1
ita@@ 1
kongwe 1
kukumbuka 1
kuut@@ 1
kuwar@@ 1
lililoanzishwa 1
mawindo 1
mchoro 1
mkongwe 1
mwekundu 1
mzito 1
orum 1
stesheni 1
tunaona 1
ujiza 1
umem@@ 1
use 0.06767758976603643
uvutaji 1
wada 1
wanaunda 1
1869 0.6396620294159577
320 1
9.@@ 1
Afisa 1
Aires 0.45957712816560814
Anachezea 1
Ann 0.8219710804210044
Azerbaijan 1
BC 0.41607136916270365
Bavaria 1
Bell 0.6360178615181256
Bunilizi 1
Den@@ 0.795177638251464
Fun@@ 1
Haji 1
Ian 0.9371704625800703
Kiaw@@ 1
Kiwar@@ 1
Lady 0.4460745081168487
Luanda 1
Mario 0.730852834585141
Masista 1
Mlango 1
Ngorongoro 1
Oliver 0.8585240962417254
Seb@@ 1
Thailand 0.9413613662880121
Tottenham 1
Ukimwi 1
Usangu 1
Walimu 1
Wamar@@ 1
ais 0.3805902801578645
akawa@@ 1
alifu 1
ante 0.12596945709997276
arab 1
ator 0.2220145177661328
atus 0.59792342924627
bos@@ 1
burg 0.36591044504443876
co@@ 0.11873591069790364
diski 1
engana 1
engele 1
eongezeka 1
faraja 1
finyanzi 1
ghorofa 1
haribiwa 1
haukuwa 1
hep@@ 1
huingia 1
iani 1
ice 0.2137473173141558
ilin@@ 1
inafanana 1
inapaswa 1
inzani 1
isia 1
iso 1
itahidi 1
kari 1
koti 1
ks@@ 0.9717297865846656
kuitumia 1
kukwepa 1
kumiminiwa 1
kuzi 1
likana 1
lilipo@@ 1
linam@@ 1
machapisho 1
minane 1
msemaji 1
nyanya 1
onaki 1
oroka 1
ria 1
sivyo 1
skizofrenia 1
tung@@ 1
unyofu 1
uto 1
wachungaji 1
wapiga 1
yonza 1
zilizos@@ 1
1,5@@ 1
107 1
270 1
75@@ 1
Albania 1
Askari 1
Athens 1
Bahrain 1
Bom@@ 1
Buenos 0.45492129863100145
Cabo 1
Cer@@ 0.5738462025456545
Chifu 1
FDA 1
Firenze 1
Henri 0.4499357981598143
Heroes 1
Kiborneo 1
Kijana 1
Kilosa 1
Kipo@@ 1
Kisepik 1
Koreshi 1
Lebanon 1
Lor@@ 0.7050746493659833
Ludwig 0.4735365864784472
Morisi 1
Nasaba 1
Nzega 1
S.@@ 0.8873498746827205
SS 0.40795689462029977
Sera 1
Shi@@ 0.8977778607089039
Tennessee 0.5596029312257021
Ukuta 1
Upinzani 1
Valencia 0.9602812028974769
Wakal@@ 1
Wall 0.9730459602453901
aliyesh@@ 1
ayan 1
badilika 1
biaji 1
chungu 1
dharau 1
din 0.9733371761553367
doo 1
eman 0.6058313231958276
est 0.007063195804887792
feri 1
fup@@ 1
gandunia 1
gl@@ 0.5070916603902752
huhitaji 1
ifuatwa 1
imepata 1
julikan@@ 1
kuheshimu 1
kulazimishwa 1
kurahisisha 1
kuzwa 1
liitwalo 1
mabwana 1
mashambani 1
milimani 1
mr@@ 1
mwanas@@ 1
ngao 1
nyati 1
ogea 1
omu@@ 1
punde 1
tamko 1
tufe 1
u.@@ 1
ukuku 1
ukumbusho 1
uwazi 1
wameanza 1
wita 1
300,000 1
550 1
Alifunga 1
Beta 1
Cam@@ 0.6387177707895103
Chim@@ 1
Cl@@ 0.47306120201715485
Decius 1
Fo@@ 0.846552553678772
Gordon 0.6162623373951001
Kampeni 1
Luteni 1
Mok@@ 1
NARC 1
Naj@@ 1
Namna 1
Pas@@ 0.4801194099148917
Pel@@ 0.7774267017089525
Plateau 1
Rob@@ 0.9173498986578922
Rom 0.9663489251086343
USA 0.22359590219676248
Ukubwa 1
Vir@@ 0.8774744394195089
Wapagani 1
Windows 0.448754789311197
Württemberg 1
XL@@ 1
afan@@ 1
akaamua 1
alam@@ 1
alipendekeza 1
aliwat@@ 1
alizi 1
aminifu 1
amkwa 1
angamiza 1
aribishwa 1
ariri 1
ashika 1
atana 1
atar@@ 1
besi 1
bou@@ 0.9773937511411279
ei@@ 1
etti 0.4523764677618023
fuatano 1
fuatiwa 1
huhuri 1
hupenda 1
ikif@@ 1
ilichukuliwa 1
ilifika 1
ilinganisha 1
ington 0.5732466908520002
ion 0.4391433628719039
ize 0.786462287687665
kieneo 1
kisich@@ 1
kuoa 1
kutafsiri 1
kuunganishwa 1
leri 0.8604857126479282
lilitokana 1
mahususi 1
mati@@ 1
meusi 1
mjadala 1
more 0.0342287484929278
mwembamba 1
nyangumi 1
otara 1
oué 1
radi 1
sum@@ 0.7492252576244164
taz 1
tishia 1
ujao 1
ujazo 1
umwagiliaji 1
watunzi 1
ão 1
150,000 1
1882 0.5511153872514086
AI@@ 1
Alijulikana 1
Bruce 0.6967817321567238
Bruno 1
Cole 1
Daktari 1
Daw@@ 1
Ee 1
Garissa 1
Gary 0.8459212503878565
Hawaii 1
Joyce 1
Lucas 1
Madina 1
Mahdi 1
Maktaba 1
Movie 1
Muheza 1
Mzaliwa 1
Patr@@ 1
Philip 0.6091843838498432
Pon@@ 0.7732804633913577
Rab@@ 0.9937291843985011
Sy@@ 0.6648983146934321
US@@ 0.5927536377318261
Uprotestanti 1
akion@@ 1
akula 1
aliaga 1
aliamini 1
alie 1
alijitahidi 1
atumika 1
awati 1
bangi 1
dhamira 1
dir@@ 1
giwa 1
hutajwa 1
ifuatayo 1
ilibaki 1
ilika 1
ilitumiwa 1
inal@@ 1
inasababisha 1
indu 1
inge 1
jingine 1
kimuziki 1
kuabudu 1
kuheshimiwa 1
kuin@@ 1
kumeza 1
kupan@@ 1
kupona 1
kuvi@@ 1
kuzidisha 1
mate 1
mionzi 1
mitihani 1
miwa 1
mkakati 1
nami 1
ongoni 1
pare 1
tof@@ 1
tumboni 1
uanz@@ 1
udanganyifu 1
unaonekana 1
uumbaji 1
vinginevyo 1
vo 0.8916574642493752
wanahitaji 1
yey@@ 1
zako 1
ziwe 1
50@@ 1
Alisema 1
Ardhi 1
Clinton 0.9707683508634704
DA 1
Douglas 0.543270139635345
Guyana 1
Hayo 1
Irak 1
Jonathan 0.8599095858894555
Juhudi 1
Kaimu 1
Kigur 1
Kinil@@ 1
Komori 1
Lik@@ 1
Majani 1
Malaika 1
Mwendo 1
Puerto 0.47144302861009135
Rico 0.7478513567585688
Run@@ 1
Shir@@ 1
Standard 0.7722613527523944
ace 0.5221635342671538
ait@@ 1
aita 1
ajiwa 1
ambishi 1
amez@@ 1
amoto 1
anajaribu 1
ekolojia 1
eksirei 1
endelezo 1
ent 0.07671626843306356
eru 1
galaksi 1
hitimisha 1
hulikia 1
iliyochapishwa 1
ingilia 1
jar@@ 1
kukabidhi 1
kumbi 1
kusukuma 1
kuwinda 1
kuya@@ 1
kuzu@@ 1
lea 1
lei 1
lika@@ 1
likizo 1
mahari 1
majuzi 1
mand@@ 0.91081086731258
milipuko 1
mir@@ 1
mtaalam 1
mwako 1
operesheni 1
ose 0.7321645097669175
palikuwa 1
pele 1
pengi 1
per 0.10088130953213173
plat@@ 1
silabi 1
tukufu 1
unaanza 1
usim@@ 1
vitisho 1
wafanya 1
wamiliki 1
wasik@@ 1
wasilishwa 1
wilayani 1
yanap@@ 1
yaweza 1
zinaa 1
zinajulikana 1
zinazoitwa 1
AC 0.4722280928945241
Ames@@ 1
Cool 1
Dem@@ 0.5374357426471063
Facebook 1
Family 0.4431720678781262
Johannes 0.5387717073910415
Junior 0.4617017961657856
Khartoum 1
Kigermanik 1
Kikor@@ 1
Mauritania 1
Mchakato 1
Mfululizo 1
NBA 0.5047540492252676
Nithi 1
Nkrumah 1
Ot@@ 1
Pentekoste 1
PhD 1
RT 1
Ruvubu 1
Sas@@ 1
Sher@@ 1
Shi 1
TKUU 1
That 0.30709885030776685
Tum@@ 1
Ukoloni 1
Var@@ 0.5932438784671723
Volta 1
Wanaume 1
Watanzania 1
Zel@@ 1
akatoa 1
aliwakilisha 1
anag@@ 1
assi 1
asso 1
auf@@ 0.15315149898169042
badiliko 1
egemezi 1
enz@@ 0.4659727988681429
fuzu 1
gluteni 1
haih@@ 1
hufikia 1
huzuia 1
ide 0.639941894660676
igu 1
ilionyesha 1
iliza 1
imarishwa 1
induliwa 1
ingiliano 1
inia 1
irisha 1
isiyot@@ 1
jimboni 1
karanga 1
kaswende 1
kataa 1
kipandauso 1
kufunguliwa 1
kuonesha 1
lat 1
lita 1
mazito 1
mba@@ 1
mteja 1
name 0.05468794345119988
ofi 1
ologia 1
ondoo 1
ongozana 1
poromoka 1
poti 1
sentigredi 1
tur@@ 0.34940923191056783
ubiwa 1
ufupi 1
umiaji 1
undu@@ 1
upwa 1
uthibitisho 1
wakaj@@ 1
wakil@@ 1
walifaulu 1
yamef@@ 1
1883 0.5509777990296181
63@@ 1
Bakteria 1
Fad@@ 1
Greenland 1
Hai 1
Hel@@ 0.5059778322944614
Kiber@@ 1
Kiser@@ 1
KwaZulu 1
Ligue 0.5548800233429222
Magdalena 1
Mif@@ 1
Nathan 1
Newala 1
Nur@@ 1
Saudi 1
Singles 0.5882952894651438
Toronto 0.3750812085184656
Wachagga 1
Wais@@ 1
Wamer@@ 1
Wasafwa 1
Wayne 0.8697834003201015
alikimbia 1
alishaji 1
anayej@@ 1
art 0.09806890974204319
emaji 1
geni 1
gun@@ 0.8159269955756039
hamishwa 1
hosa 1
ien@@ 1
ilid@@ 1
imaji 1
isema 1
jih@@ 1
kielimu 1
kona 1
kuhusisha 1
kuingizwa 1
kuonyeshwa 1
kupand@@ 1
kusisimua 1
mann 0.18761144896899218
mor@@ 0.2848193190535627
mzio 1
nj@@ 1
omin@@ 1
ongezea 1
opot@@ 1
pandishwa 1
sarufi 1
sumakuumeme 1
tii 1
tokeo 1
tri@@ 0.2898548652310963
unabii 1
ungumzaji 1
utakuwa 1
vichaka 1
vinav@@ 1
vyovyote 1
wei 1
wima 1
yonge 1
zinazof@@ 1
zito 1
zw@@ 1
05 0.5979509306942936
305 1
Akwino 1
Aleksander 1
BA 0.9097001341722735
Bakari 1
Barani 1
Bologna 1
Claude 0.5759626121513968
Eg@@ 0.9745579715748135
European 0.1234173524813779
Faida 1
For 0.0964127427127837
Friedrich 0.24090823467840597
Jane 0.6384219344349016
Kupro 1
Mfereji 1
Mwishowe 1
Ndi@@ 1
Pil@@ 0.7074358099367852
Satur@@ 1
Somaliland 1
Studios 0.5567932439415838
Tou@@ 1
Uainishaji 1
Usultani 1
Wakikuyu 1
Wakopti 1
Wanaweza 1
Warner 0.7500723924171819
Yan@@ 1
aan 1
akamu@@ 1
alii 1
anatakiwa 1
ank@@ 1
asik@@ 1
auliwa 1
buka 1
changa 1
dewa 1
eda 1
epa 1
etikia 1
huamini 1
igizo 1
ilandi 1
ilikuja 1
inayofanana 1
inganisha 1
kuhusika 1
kukabili 1
kuta@@ 1
maharagwe 1
mau@@ 1
mes@@ 0.736146757961655
mgawanyo 1
mgongoni 1
muktadha 1
owas@@ 1
panua 1
pasi 1
raundi 1
tunat@@ 1
uhya 1
ulionyesha 1
upelelezi 1
usanyaji 1
utum@@ 1
visi@@ 1
vo@@ 0.6296614840761824
wakiishi 1
wameh@@ 1
wang 1
zilizopita 1
zimes@@ 1
én@@ 0.4965137256196954
β 1
112 1
750 1
Alikua 1
Aliyemfuata 1
Anam@@ 1
Angela 1
Back 0.840303309831645
Bang@@ 1
Dada 1
F.@@ 1
Franklin 0.697242147695228
Herode 1
Himalaya 1
Hot@@ 1
Ice 1
Jan@@ 0.5776335430177459
Jennifer 1
Jumatatu 1
Kevin 0.6301178999190632
Kibi@@ 1
Klaudio 1
Maalum 1
Mazao 1
Mechi 1
New@@ 0.6445758740527715
Quebec 0.7009586300628255
Reg@@ 0.4557525074068977
Rouge 1
Sara 1
Seli 1
Soweto 1
Top 0.2991722384012835
Wakiso 1
Wanamuziki 1
Wasukuma 1
Zan@@ 1
aani 1
aik@@ 1
akich@@ 1
akih@@ 1
alivyot@@ 1
aloi 1
amev@@ 1
anav@@ 1
andikishwa 1
apenda 1
apye 1
ashinda 1
atiba 1
azam@@ 1
bah 1
bawe 1
chuoni 1
chupa 1
dozi 1
eseka 1
estr@@ 0.6569962197114214
gal@@ 0.6382172484299974
gumu 1
hadhara 1
haif@@ 1
hakuf@@ 1
hua 1
ikiliwa 1
ilipatikana 1
ilishindwa 1
kibete 1
kirahisi 1
kujitetea 1
kutabiri 1
kutambulika 1
kutekelezwa 1
leng@@ 1
lililoko 1
limes@@ 1
linah@@ 1
makuhani 1
mip@@ 1
nz@@ 1
ofautishwa 1
opi 1
ouzwa 1
porudi 1
roketi 1
tauni 1
ubinadamu 1
uchungaji 1
udani 1
wanaos@@ 1
wataka@@ 1
yakiwemo 1
108 1
2,9@@ 1
Alihudhuria 1
Baf@@ 1
Chik@@ 1
Emilia 1
Fe@@ 0.5386824364716
Festival 0.1602732756246423
Gallia 1
Inaonekana 1
Iz@@ 1
Kali@@ 1
Kikwa 1
Kingwi 1
Kivu 1
Labda 1
Liturujia 1
Marvel 0.9360528331009657
Mirihi 1
Mr 1
Msitu 1
Pl@@ 0.40206169334089653
Sabri 1
Southampton 1
Tet@@ 1
Viz@@ 1
Wazo 1
Wit@@ 0.977269173053807
ajia 1
akataa 1
akin@@ 1
alijenga 1
als 0.012640802597863515
ambulizi 1
amilia 1
anatoka 1
angak@@ 1
ansi 1
bizi 1
bom@@ 1
ekana 1
emasi 1
fahamika 1
gan@@ 0.8577843991928372
haiwezekani 1
hakik@@ 1
halisia 1
himiza 1
hoofisha 1
if 0.09847409789484858
imeanza 1
inayomilikiwa 1
inzi 1
jani 1
kelele 1
kuathiriwa 1
kuibuka 1
kuik@@ 1
kujaza 1
kutibiwa 1
kwa@@ 1
low 0.16201800223745372
mbuai 1
mfu@@ 1
msi@@ 1
mwanasoka 1
nun@@ 1
nyika 1
olimpiki 1
onyezo 1
pinga 1
pul@@ 0.678194420732185
pur@@ 0.44812603333479695
sahani 1
tunapaswa 1
ulitokea 1
umlisha 1
upishi 1
utaalamu 1
vilele 1
waliopo 1
watak@@ 1
well 0.04255785935248174
zilim@@ 1
zimej@@ 1
zinas@@ 1
zindua 1
1865 0.5121607645169081
AF@@ 1
Agostino 1
Alihudumu 1
Campania 1
Chake 1
Cuba 0.6212598257765722
God 0.35712426412665743
Huenda 1
Injini 1
Intanet 1
Iwapo 1
Karagwe 1
Kenneth 1
Kiaramu 1
Kibaha 1
Kibe@@ 1
Kiini 1
Kura 1
Mbozi 1
Nyekundu 1
Op@@ 0.6314297939107152
Raymond 0.7972738601734747
Ruh@@ 1
Shabaha 1
Ton@@ 0.6457780057165606
Ty@@ 0.769341758312782
Wanam@@ 1
Wewe 1
Wol@@ 0.6804761130243407
Yeremia 1
achiwa 1
ahu 1
aktiki 1
alu 1
angany@@ 1
ann@@ 0.43848286869883024
aum@@ 1
bel@@ 0.3597841414435553
blogu 1
bron@@ 1
chukulia 1
ci@@ 0.2519732089652726
ein 0.01522531319607553
fariki 1
gee 1
godi 1
gramu 1
hir 1
hisani 1
imeg@@ 1
into 0.027427783830957248
jumbe 1
key 0.26521590330342565
kimazingira 1
kitambo 1
kuachiliwa 1
kuhitaji 1
kusaini 1
kutayarishwa 1
kuugua 1
lilijengwa 1
linaitwa 1
linalojulikana 1
majuma 1
mamake 1
marais 1
mhimili 1
mkulima 1
mratibu 1
mwaminifu 1
nasi 1
nch@@ 1
o. 1
ojitokeza 1
oshwa 1
paswa 1
pp. 1
ran@@ 0.35017285562851097
taw@@ 1
tus 0.7846264038716715
tusi@@ 1
ugua 1
ukim@@ 1
ulioanzishwa 1
vichwa 1
vinavyopatikana 1
wagombea 1
wai 1
waliobaki 1
wanajulikana 1
zilitolewa 1
210 1
240 1
6000 1
650 1
Akon 1
Akw@@ 1
Anach@@ 1
Angel 0.9878636511173893
Arab 0.6679879891943004
Bin@@ 1
Charlotte 0.6451721901283071
Eldoret 1
Gre@@ 0.43478018493479603
Jimmy 0.6615729265472644
Joshua 1
Jukumu 1
Kadai 1
Kibur@@ 1
Kigali 1
Kima@@ 1
Kitam@@ 1
Las 0.11338293721088245
Leb@@ 1
Luxemburg 1
Miezi 1
Mtumishi 1
Nachingwea 1
Nakas@@ 1
Newton 1
OS 0.6576197592244186
Pader 1
Paraguay 1
Ramani 1
Sirili 1
Sunni 1
Uzbekistan 1
Waklara 1
Westfalia 1
abiliwa 1
afadhali 1
amasi 1
ambaratika 1
ance 0.2087412375360691
anganywa 1
angekuwa 1
ark@@ 0.9297269356942148
atibiwa 1
bot@@ 0.8120764474317171
dhiki 1
dhul@@ 1
epo 1
fomu 1
gel@@ 0.3403328549243001
gundua 1
huli@@ 1
hupitia 1
iliyoch@@ 1
ilizidi 1
inafuata 1
inapita 1
inavyot@@ 1
ishana 1
jino 1
kashfa 1
kidunia 1
kikanda 1
kuhar@@ 1
kumwua 1
kupika 1
linak@@ 1
mabwawa 1
matam@@ 1
mej@@ 1
mioyo 1
mstaafu 1
mwitikio 1
nyur@@ 1
ogi 1
pitish@@ 1
potea 1
rekeb@@ 1
uchawi 1
uguru 1
ujasiri 1
ukom@@ 1
umegawanyika 1
umes@@ 1
ununuzi 1
unya 1
vich@@ 1
walia 1
waliotaka 1
wanapatikana 1
wanavyo@@ 1
yaliendelea 1
yalim@@ 1
zio 1
1857 0.6337057159216548
AR 0.9606797917339226
Alexandria 1
Bado 1
Channel 0.49160623726403435
Chiba 1
Din 1
Europa 0.23744071993165192
Good 0.6296387223167119
Haile 1
Kau@@ 1
Kikar@@ 1
Kiph@@ 1
Kisomali 1
Kiuk@@ 1
Kuzuia 1
Lah@@ 1
Les 0.03421137459390874
Les@@ 0.6935289707408707
Many@@ 1
Marshall 0.7157445923699575
Matunda 1
Maurice 0.600331235282744
Nyumbani 1
Opera 0.6823885308641118
Salvador 0.7547634581395376
Santiago 0.45094915726873913
Secondary 1
Simeoni 1
Sumbawanga 1
Umaarufu 1
Uzazi 1
Vihiga 1
Waash@@ 1
Wanachama 1
Warangi 1
Wawakilishi 1
Wen@@ 1
aan@@ 1
agaji 1
ajengwa 1
akaji@@ 1
akiwi 1
alaba 1
aliyefanya 1
ambu 1
apate 1
atanisha 1
awekwa 1
awiya 1
baji 1
ber 0.36148564843947123
dos 0.06995525705786416
ds 0.3460001475503845
eleta 1
endeshaji 1
fahari 1
feleji 1
futa 1
habiki 1
hayana 1
huhusisha 1
hwa 1
ikifuatiwa 1
iliongozwa 1
inalenga 1
inayotumia 1
ionekani 1
iss@@ 0.4269338456449573
jotoridi 1
kak@@ 1
kiingereza 1
kima 1
kisa 1
konventi 1
kriketi 1
kuzit@@ 1
linaunda 1
lis 0.5337109954077348
maazimio 1
mafundi 1
mipya 1
nzi 1
oana 1
oge 1
ombol@@ 1
penya 1
ratiba 1
ten 0.0566766579459081
unafikia 1
wakifanya 1
yaliyofanyika 1
yanak@@ 1
zilizok@@ 1
1838 0.8157115246879254
1867 0.5068982056820995
Alan 0.5537254462577332
Alil@@ 1
Alionekana 1
Boma 1
CA@@ 0.5677866410946001
FORD 1
ICRC 1
Ikulu 1
Inap@@ 1
Inter@@ 0.24545106835838865
Kikwete 1
Kosovo 1
Kud@@ 1
Leon 1
Master 0.3990193049796391
Mkon@@ 1
Montenegro 1
Mount 0.36252283109868894
Mwenyewe 1
Republican 0.37102103790243146
Safu 1
Tandahimba 1
To 0.19346387617162997
Tri@@ 0.3558634973039362
Ukweli 1
Ushahidi 1
Ushindi 1
Vladimir 0.9894261846269135
Wahusika 1
Yam@@ 1
achukuliwa 1
alifia 1
alihusika 1
alijua 1
ambulishwa 1
amilifu 1
amilishwa 1
amuliwa 1
anapata 1
andamizwa 1
arg@@ 0.9351025676657224
aume 1
choo 1
epu@@ 1
fe 0.6925383068513502
hakiki 1
han@@ 0.9793856806576133
hand@@ 0.5339498017370963
haorodheshwi 1
hufun@@ 1
ilikiwa 1
imeendelea 1
imeundwa 1
ipatia 1
jari 1
jitu 1
kiharusi 1
kilichoitwa 1
kinyuklia 1
kuchem@@ 1
kuelekeza 1
kufanikisha 1
kugeuza 1
kuhusishwa 1
kuki 1
kuvumilia 1
life 0.055170696418638754
madaraja 1
mlolongo 1
mmojawao 1
nacho 1
ogania 1
oun 1
pah@@ 1
pembezoni 1
polio 1
rejea 1
spektra 1
sun@@ 0.73408042648886
terem@@ 1
teua 1
ud 1
undaji 1
unganishi 1
wanafanana 1
wanal@@ 1
way 0.08946407445739317
yaliyok@@ 1
yanayotokana 1
ziliendelea 1
03 0.6681056850484695
1.2 1
113 1
260 1
325 1
Abitinae 1
Abo@@ 1
Ac@@ 0.2942332100789201
Apple 0.6733744776437415
Bernardo 1
Bumbuli 1
Chin@@ 1
Fin@@ 0.5766092801818176
Handeni 1
Hekalu 1
Hewa 1
Jan 0.48448563389896576
Khmer 1
Kikorea 1
Kizhuang 1
Law 0.27965833875331947
Lit@@ 0.9172525895473708
Mapokeo 1
Mih@@ 1
Missouri 0.45364769726916365
Mshtarii 1
Mwimbaji 1
Ne 1
Oman 1
Pep@@ 1
Saa 1
Ses@@ 1
Uenezi 1
Unit 1
Utendaji 1
Vilima 1
Wamongolia 1
Zaburi 1
abiriwa 1
afishwa 1
akashinda 1
alibadilisha 1
alijiuzulu 1
alitambua 1
ampenda 1
anasa 1
anayefanya 1
bainisha 1
changanywa 1
choch@@ 1
ekwisha 1
hadubini 1
has 0.013881086619941946
hawap@@ 1
hukadiriwa 1
huongezeka 1
hupokea 1
hutaga 1
ie@@ 0.5751564619494408
inamilikiwa 1
inayomaanisha 1
itum@@ 1
jiolojia 1
jitenga 1
kikatili 1
kivutio 1
kizu@@ 1
kumuona 1
kutegemeana 1
matumbo 1
mawingu 1
mhubiri 1
midundo 1
mkufunzi 1
msu@@ 1
mtoni 1
pakana 1
pindua 1
pingili 1
riziki 1
rufaa 1
sinodi 1
ugi 1
uhi 1
uma@@ 1
unaotokana 1
usajili 1
uwanjani 1
wamini 1
wasafiri 1
wende 1
ī@@ 0.7569823937429437
1,500 1
1815 0.71894384789036
1856 0.6152587967643262
220 1
230 1
280 1
313 1
Abe@@ 1
Adams 0.6373437475721028
Alice 0.6269162174220324
Alipokea 1
Bell@@ 0.8552223337450854
Bethlehemu 1
Bé@@ 1
CE@@ 0.7233411802191954
Chal@@ 1
Chil@@ 1
Din@@ 0.836757504035256
Football 0.1672414181206241
Giovanni 0.7049509287577239
Gul@@ 1
Ho 1
Hos@@ 1
Ib@@ 1
Irene 1
Isa 1
Kho@@ 1
Lab@@ 0.8300040061028574
Laga 1
Madhara 1
Miami 0.5141869350060125
Mvua 1
Mwak@@ 1
Mwangaza 1
Neg@@ 1
Pre@@ 0.29662376200468465
Rem@@ 0.554475930481727
Rum@@ 1
Samweli 1
Trento 1
Ujumbe 1
Wain@@ 1
Walipo@@ 1
Yi 1
abisha 1
adini 1
afirisha 1
agha 1
alimteua 1
aman 1
anana 1
anoni 1
asio 1
atima 1
atoa 1
auzwa 1
baiskeli 1
chapisha 1
fah@@ 1
gol@@ 1
goti 1
hambuliwa 1
haribu 1
hindi 1
ibika 1
ifa 1
ijayo 1
ilibadilishwa 1
inazidi 1
jif@@ 1
jul@@ 1
katek@@ 1
kiki@@ 1
kuichezea 1
kumbuka 1
kupot@@ 1
kusababishwa 1
maada 1
madhubuti 1
manisipaa 1
mashahidi 1
ngamia 1
nor@@ 0.667187314481812
olewe 1
omp@@ 1
ongokea 1
oth 1
papo 1
rudisha 1
ucheshi 1
ulioimbwa 1
unaosababishwa 1
uniwa 1
uovu 1
uru@@ 1
ushuhuda 1
vitambaa 1
wahili 1
walitoka 1
walitokea 1
wanaof@@ 1
yoy@@ 1
zoezi 1
1864 0.4677322304996084
400,000 1
Aksum 1
Alfabeti 1
Bismarck 1
Bunda 1
Chep@@ 1
DVD 0.34209230241464994
Ernest 0.9007856607421298
Eus@@ 1
Ferdinand 0.605215034465801
Florence 0.817809762762501
Git@@ 1
Grant 0.6347945799175309
Hag@@ 0.9412412585835855
Hakika 1
Haz@@ 1
Jacques 0.3106809355634617
Johann 0.23841345168963618
Kameruni 1
Katerina 1
Kati@@ 1
Kiturki 1
Len@@ 1
Lisbon 1
Lushoto 1
Miller 0.45555391963921854
Moses 1
Mpangilio 1
Mub@@ 1
Nani 1
Nikola 1
Nyakati 1
Power 0.42933931297954414
Sad@@ 1
Sat@@ 0.9263965729001155
Sevilla 1
Shil@@ 1
Slovakia 1
Sykes 1
Uso 1
Wafinisia 1
Walt 1
Will 0.689873138217992
XVII 0.7976539987700816
` 1
ail@@ 0.7929466239688311
aliou@@ 1
alist@@ 1
ambazi 1
amen@@ 1
anayep@@ 1
anayo 1
andaaji 1
aniwa 1
ario 0.3347353669514436
ax@@ 0.6157388326779802
bab@@ 1
del@@ 0.3799136350684979
dhehebu 1
dioksidi 1
egwa 1
ekebishwa 1
enganishwa 1
hihirika 1
hol@@ 0.5699869741634365
hr@@ 0.5546480606905411
huunda 1
ilifu 1
inasimulia 1
inatakiwa 1
inchi 1
istilahi 1
jasho 1
kilichoanzishwa 1
kinataja 1
kinatakiwa 1
kufahamu 1
kujiandaa 1
kukiwa 1
kutokwa 1
lar@@ 0.3832780919034127
lin 0.3425161766091416
ling 0.22648133216775002
mageuko 1
marekani 1
miza 1
mpevu 1
mpokeaji 1
naf@@ 1
ney 0.3944012083328923
nili@@ 1
nk 1
nururifu 1
onjo 1
ouza 1
reh@@ 1
sti 1
teni 1
tin 0.22728693789182208
tulivu 1
ufa@@ 1
uhisho 1
ump@@ 1
upadri 1
upi 1
usik@@ 1
uvu 1
uziki 1
wakak@@ 1
wakish@@ 1
waliofanya 1
waliozaliwa 1
wanahistoria 1
wanaitwa 1
wanariadha 1
wapate 1
wasilisha 1
wemo 1
wenzi 1
were 0.009275222737907105
ו@@ 1
1863 0.48207697423854917
3,7@@ 1
310 1
Adi@@ 1
Arizona 0.4398826803388127
Babati 1
Bes@@ 0.5972343489594617
Buvuma 1
Community 0.4357171103615088
Dublin 0.5834953611487481
Gharama 1
Heinrich 0.30501732640628376
Indiana 0.45218873397060066
Jenerali 1
Kach@@ 1
Kalimantan 1
Kash@@ 1
Kimalay@@ 1
Kisem@@ 1
Kiuchumi 1
Leeds 0.9781024407934189
Makundi 1
Mod@@ 0.8763805969456785
Nyamira 1
Ryan 0.5795498561700739
Salim 1
Sekta 1
Sinema 1
Susan 1
Tre@@ 0.4526454007250398
Trinidad 1
Tsavo 1
Ubora 1
Wakenya 1
Yoh@@ 1
abara 1
abo@@ 1
afanikiwa 1
ag 0.6680972769382025
akasi 1
alam 1
alika 1
alitokea 1
aliyechaguliwa 1
ambat@@ 1
andamizaji 1
andiko 1
api@@ 1
arra 1
atengeneza 1
auza 1
bira 1
dal@@ 1
dopamini 1
dur@@ 0.6669744243719199
eland 1
enye 1
fukuza 1
gizwa 1
had@@ 1
hea 1
her 0.0167643309463358
hist@@ 1
hom@@ 0.4364458803664094
house 0.09505633036824583
hufanana 1
hughu@@ 1
huri 1
idhiwa 1
igwe 1
ikolojia 1
inadai 1
inayotolewa 1
indikana 1
irikina 1
kamilifu 1
kha 1
kinaitwa 1
kinap@@ 1
kisicho 1
kubatizwa 1
kufanyia 1
kurudishwa 1
kuyeyuka 1
mafua 1
mapana 1
misikiti 1
mun@@ 1
nta 1
pango 1
pokewa 1
pum@@ 1
shilingi 1
ski 0.32202439527941457
sy 1
tabibu 1
ts 0.0800629177330122
ube@@ 1
ugali 1
uge 1
umaku 1
urani 1
uwez@@ 1
vitanda 1
walishiriki 1
wanaendelea 1
widi 1
yany@@ 1
zwe 1
ː@@ 1
א@@ 1
104 1
115 1
1300 1
Binafsi 1
Chek@@ 1
Combs 1
Ez@@ 1
Finland 0.8660715608240703
Force 0.20222561983034334
Gel@@ 0.7958839471012258
Gis@@ 1
Haram 1
Herzegovina 1
Ilala 1
Inaaminika 1
Jinsia 1
Kardinali 1
Kiwanda 1
Kut 1
Lut@@ 1
Matt 0.6570518720344286
Meneja 1
Mikaeli 1
Milo 1
Mkom@@ 1
Nang@@ 1
Sah@@ 1
Sony 0.7701968727261322
Taliban 1
Television 0.4802390732451274
Tik@@ 1
Uchambuzi 1
ababishi 1
abila 1
akazi 1
aliko 1
alo@@ 1
anayem@@ 1
andu 1
anim@@ 0.7842326983705569
ashiki 1
asu 1
badili 1
bajeti 1
beti 1
etemeko 1
fo@@ 0.48328880737021923
fuatana 1
fundo 1
geg@@ 1
gus@@ 1
hiji 1
hir@@ 1
huki@@ 1
huny@@ 1
husema 1
huzungumzwa 1
ibu@@ 1
ifika 1
ilitambuliwa 1
ilitawaliwa 1
inaaminika 1
italia 1
jedwali 1
kel@@ 0.5891336599436103
king 0.19863491906759237
kujis@@ 1
kulitokea 1
linajulikana 1
lori 1
mali@@ 1
metaboli 1
mez@@ 1
mihogo 1
mmen@@ 1
mnyororo 1
mtazamaji 1
mwanateolojia 1
mwang@@ 1
nar@@ 0.8262902106007951
navyo 1
nyadhifa 1
ofisa 1
okolewa 1
oph@@ 0.43809449772946824
oster@@ 1
pepeo 1
riba 1
rid@@ 1
sis 1
skrini 1
staili 1
theolojia 1
tiririka 1
tul@@ 1
ukingo 1
ulienea 1
uliitwa 1
ulik@@ 1
ulikua 1
vifuatavyo 1
vipawa 1
wakich@@ 1
walioambukizwa 1
walirudi 1
wamesh@@ 1
wasaidizi 1
wati 1
yalifanyika 1
zinapo@@ 1
zinazos@@ 1
ziwani 1
ā 0.9262703397050818
02 0.6210253947083002
11,000 1
1862 0.4669950543506043
330 1
380 1
Alberto 0.7473658045200174
Apo@@ 1
Aston 1
Baltimore 0.6359546560576913
Bok@@ 1
Boushaki 1
Costa 0.45912383266372386
Dance 0.6073163816488582
Do 0.5119151849117058
Emb@@ 1
Fre@@ 0.40860077912704634
Hope 0.9590847363702268
Julia 0.9359245051567943
Kix@@ 1
Kizito 1
Mbulu 1
Muleba 1
Nations 0.34056616796587563
Petersburg 0.8313490694899576
Ramadhani 1
Ry@@ 0.7933060108487652
Sib@@ 1
Sri 0.4882672762935219
Stone 0.4519994877028343
Tig@@ 1
Tung@@ 1
Ume@@ 1
Walit@@ 1
akafanya 1
akaji 1
akamt@@ 1
akimshirikisha 1
alibaki 1
alishindana 1
amehe 1
amilikiwa 1
anavy@@ 1
ashindwa 1
atr@@ 0.48335895070344065
bayana 1
bie 1
bongo 1
bury 0.6071973252951459
ef 1
egundua 1
ep 1
hojiwa 1
i.@@ 1
idhani 1
imana 1
inflamesheni 1
inuko 1
ituni 1
iweka 1
kigaidi 1
kiutu 1
kl@@ 0.3946776166807374
kubaini 1
letea 1
linalofanana 1
makabaila 1
mfungwa 1
mwanaume 1
née 0.2792640530248679
off 0.06970838201435821
oi@@ 1
osoma 1
ow 0.3332484847448683
pikipiki 1
ram@@ 0.700939527845356
sar@@ 0.7222698938660093
serikalini 1
sungura 1
tolea 1
uliom@@ 1
unatoka 1
unguu 1
urah@@ 1
utaifa 1
waliamini 1
wanavy@@ 1
watetezi 1
yonyesha 1
zilizotolewa 1
ī 0.9656881153911967
́ 0.08707941952307288
ְ@@ 1
ָ@@ 1
211 1
Abd 1
Bremen 0.8439781381470169
Caesar 1
Dominika 1
Duma 1
EC 1
ECMO 1
Education 0.2027871547232992
Fiji 1
Franco 0.7513641951273937
Gauteng 1
Gil@@ 0.619739554574131
Hadith 1
Home 0.34075204012362015
Hotel 0.3997861336355089
IC@@ 0.6629416644066761
Kifransisko 1
Kigu@@ 1
Kuwait 1
Kweli 1
Maadili 1
Masoko 1
Mauritius 1
Meng@@ 1
Michelle 1
Miguu 1
Mk 1
Mugabe 1
Mwamba 1
Mzungu 1
Ngara 1
RC 0.933439262731762
Ruvu 1
Shabaab 1
Tarime 1
Ubuddha 1
Vienne 1
Way 0.6571846956110228
What 0.5021240987985228
Wu 1
Yanga 1
Your 0.5626564047318937
aila 1
aliagiza 1
alipouawa 1
ambano 1
anaji 1
angaji 1
angao 1
atta 1
dika 1
dokeza 1
elia 1
esi@@ 1
etta 0.7190049610146454
evi 1
gur@@ 1
haziwezi 1
hususan 1
ico 0.27350150522077665
ides 0.28884568212036327
igunduliwa 1
ilitawala 1
inahusisha 1
ishna 1
isti@@ 0.8792689939721303
kanzu 1
kar 0.9705882496793848
kiafrika 1
kikao 1
kinah@@ 1
kiunzi 1
kufungana 1
kuisha 1
kundu 1
kuorodhesha 1
kurejesha 1
kusambaa 1
kutapika 1
kutengwa 1
kutofautiana 1
kuwach@@ 1
lam 1
langa 1
liliundwa 1
maajabu 1
maangamizi 1
may@@ 1
mdudu 1
motokaa 1
mseto 1
nu@@ 0.8218855580159349
omero 1
onja 1
otoa 1
pinduliwa 1
prot@@ 0.5503927369089039
ros@@ 0.5288803188788832
sah@@ 1
saruji 1
senati 1
shia 1
stashahada 1
uchovu 1
ufikia 1
ulifanywa 1
uliopita 1
uliv@@ 1
umini 1
unguo 1
upumuaji 1
utenzi 1
walikuja 1
waliow@@ 1
wanaastronomia 1
wasikilizaji 1
watayarishaji 1
yaliyopo 1
zika@@ 1
13,000 1
1858 0.5952262639235825
1879 0.4565304723065713
2500 1
340 1
AD 0.5069406684729804
Aliz@@ 1
Anak@@ 1
Baghdad 1
Basili 1
Bingwa 1
Bit@@ 1
Bonif@@ 1
Breweries 1
Bwawa 1
CUF 1
Congo 0.7637980151426774
Connecticut 0.5674560285998743
Côte 1
Div@@ 0.9317177176104762
Elia 1
Eva 1
Franz 0.34048801242527665
Grande 0.33260973095489355
Helena 1
Herbert 0.608453070063709
ISBN 1
Inter 1
Kano 1
Kansas 0.3915842090492136
Kasese 1
Kith@@ 1
Kitu@@ 1
Lina 1
Lord 0.22622257987396086
Men 0.2934974761909193
Mpwapwa 1
NASA 0.879495215970573
Nde@@ 1
Project 0.4395849153192277
Riadha 1
Siri 1
Sisi 1
Stadium 0.3404224438506904
Stewart 0.6166530927206275
Tawi 1
This 0.029635073420026765
Tok@@ 1
Toka 1
Umeme 1
Watawala 1
Yale 0.9569358496556503
Zoh@@ 1
Zulu 1
aanga 1
abili 1
ack 0.43789314176828187
adiliana 1
aid@@ 1
akichukua 1
aliyokuwa 1
anje 1
ations 0.09006270394793806
ayar@@ 1
azim@@ 1
bima 1
dhamiri 1
engenezaji 1
epusha 1
esta 0.09684604523183721
estrojeni 1
iliyoendelea 1
iliyopatikana 1
ilizinduliwa 1
inahitajika 1
inyima 1
jekundu 1
kifungu 1
kijumla 1
kika 1
kiuno 1
kizio 1
kizuri 1
konokono 1
kukaribia 1
kukielewa 1
kulisha 1
kupangwa 1
kuthibitishwa 1
kuyap@@ 1
lazimisha 1
likim@@ 1
lilitolewa 1
magofu 1
mbingu 1
neur@@ 0.5776499848803225
oletwa 1
opende@@ 1
oug@@ 1
ozaliwa 1
pendekezo 1
pointi 1
rad@@ 0.8793244919978034
ru 1
sch@@ 0.10168200244799892
shayiri 1
sokoni 1
soukous 1
ste@@ 0.37790261927264024
tahajia 1
tetemeko 1
tol@@ 1
ukarabati 1
unavyo@@ 1
urahia 1
usaidia 1
uzo 1
vif@@ 1
wamez@@ 1
washauri 1
yakit@@ 1
117 1
1873 0.46519669193315294
34,@@ 1
420 1
AM 0.44816511225304667
Abraham 0.7842029856648178
Aliishi 1
Atanasi 1
Awamu 1
Birmingham 0.6469295286179375
Bond 1
Cav@@ 0.8778278185442557
D.@@ 0.8591082454532937
Ev@@ 0.725245674381295
General 0.0798311998327336
God@@ 0.9642217671026717
Headies 1
Kemal 1
Kimak@@ 1
Kinondoni 1
Kizungu 1
Magazeti 1
Magic 0.9865169110274333
Mojawapo 1
Monte 0.6892845225148518
NA 1
Pa@@ 0.5731678189399
Petr@@ 0.8380765816603217
Princess 0.7808821950765792
Sing@@ 1
Tel@@ 0.543108486458833
Tro@@ 0.43679443244154115
Usanifu 1
Vituo 1
Wamal@@ 1
Woman 0.8474972994182537
abudiwa 1
ahiriwa 1
akiimba 1
alamu 1
alifukuzwa 1
aliichezea 1
aliku@@ 1
alirejea 1
alizindua 1
anatokea 1
anayeweza 1
ao@@ 1
aram@@ 1
arubaini 1
asemekana 1
atil@@ 1
aut@@ 0.7384723805433764
bat@@ 0.48972698156116806
bro@@ 0.5287205764351499
ester@@ 1
fikisha 1
furahia 1
heria 1
hibitisha 1
hid 1
igu@@ 0.9976451100990916
ikiz@@ 1
ilichapishwa 1
iliyojengwa 1
imoto 1
ingilio 1
istawi 1
jitolea 1
kuficha 1
kumpatia 1
kutengenezea 1
kutuliza 1
kuwawezesha 1
latitudo 1
mah 1
manii 1
mgomo 1
mikondo 1
mwam@@ 1
nawe 1
oja 1
oksidi 1
okuja 1
ology 0.23149808136049002
opl@@ 1
oshalisti 1
ostahili 1
path@@ 0.7702480542365423
shirik@@ 1
silika 1
tabu 1
tic 0.2544493157916536
uam@@ 1
uawa 1
ukomunisti 1
ulinganifu 1
umbusha 1
unwa 1
ustadi 1
uthi 1
wajukuu 1
walidai 1
walifuata 1
waliofika 1
wanaoj@@ 1
yalis@@ 1
zinafanana 1
ב@@ 1
125 0.6845600833576095
2,6@@ 1
29,@@ 1
Ale@@ 1
An 0.0973860762806995
As 0.048326137386329994
Aziz 1
Beng@@ 1
Dab@@ 1
Emir 1
Hamilton 0.41670297191443095
Igunga 1
Jam 1
Jun@@ 1
Kalangala 1
Kiak@@ 1
Kisar@@ 1
Kuwa 1
Lav@@ 0.7531022347742862
Lava 1
Leon@@ 1
Lub@@ 1
Misitu 1
Mtazamo 1
Mwinyi 1
Pijini 1
SI 1
Saikolojia 1
Sau@@ 0.8900023032622669
Sekai 1
Shaykh 1
Shim@@ 1
Sudani 1
Tuamotu 1
Uhindu 1
Ukumbi 1
Una@@ 1
Wabunge 1
adogo 1
agazi 1
ahani 1
aika 1
akadiriwa 1
akafa 1
akan@@ 1
akijiji 1
akipata 1
akiwakilisha 1
album 0.03652142172021944
alichagua 1
alipigwa 1
anao 1
anayecheza 1
ataliwa 1
atam@@ 1
car@@ 0.14670058821419385
dol@@ 0.852022715319471
engelenge 1
erem@@ 1
eye 0.5353642844307054
fukuzwa 1
fundi 1
halifu 1
hambu@@ 1
hazikuwa 1
hoofika 1
huiangalia 1
iliandikwa 1
ilifanikiwa 1
ilifunguliwa 1
ill@@ 0.24331554148034165
illa 0.323610506400524
imarika 1
inaelezea 1
irudia 1
ishwaji 1
kach@@ 1
kem@@ 1
kuganda 1
kugunduliwa 1
kukiri 1
kulik@@ 1
kutunukiwa 1
kuwaz@@ 1
malighafi 1
mashauri 1
mashua 1
mengineyo 1
mhudumu 1
mkusanyo 1
muhtasari 1
mwanabiolojia 1
mwonekano 1
mzozo 1
nyayo 1
ochea 1
ombwe 1
opokea 1
pumu 1
radi@@ 0.47513895417650787
sabuni 1
she 0.024699294855234845
shi@@ 1
sig@@ 0.9339527436619457
taafu 1
taya 1
town 0.06957098107754817
tuko 1
tunzi 1
ufasaha 1
ukulia 1
ukuzaji 1
ulijulikana 1
ulish@@ 1
unani 1
unisti 1
utumizi 1
uzia 1
vimet@@ 1
walijiunga 1
walikimbia 1
walivamia 1
wamech@@ 1
wanapata 1
yalianzishwa 1
yaliz@@ 1
yawe 1
114 1
1400 1
1878 0.4090669651185517
3.5 1
Ajax 1
CB 1
Cambodia 1
Cameroon 1
Dan 0.5396606228408529
Dr 1
IP@@ 1
Inc. 0.4471537048290199
Isitoshe 1
Kaj@@ 1
Kando 1
Madini 1
Mahusiano 1
Mfuko 1
Morgan 0.5404264550612389
Morris 0.6780767439448715
Nikomedia 1
Philadelphia 0.3588123810016273
Pombe 1
Runinga 1
Saratani 1
Shane 1
So 0.17487903257255077
Sus@@ 0.9637367210933312
Thel@@ 1
Tunduru 1
Urban 0.8551739844210186
Vel@@ 0.5224816583130066
Wakiwa 1
Wasangu 1
Watumishi 1
able 0.05311223917601938
aca 0.6758344179718581
adhibu 1
adumu 1
akachaguliwa 1
akiendelea 1
alamika 1
alivyo 1
amel@@ 1
anayek@@ 1
arak@@ 1
asana 1
asishaji 1
atini 1
aun@@ 0.9065809854358162
awana 1
azini 1
eana 1
ede 0.7847344103281468
edo 1
ell@@ 0.23115501233020794
ft 0.4233016686048134
gun 0.3574449964477535
hakukuwa 1
husishwa 1
ibia 1
idge 1
ien 0.2778181921962211
ikw@@ 1
iliyotumiwa 1
iliyowekwa 1
inayosababisha 1
ingani 1
injilisha 1
irikia 1
itu@@ 1
jap@@ 1
karamu 1
kesho 1
kiapo 1
kibofu 1
kifahari 1
kinachotumika 1
kukataza 1
kusambazwa 1
kusimamisha 1
kutaga 1
kutathmini 1
kutawaliwa 1
kutazamwa 1
kuth@@ 1
kutofau@@ 1
kuzaliana 1
ky 0.317904440365215
lango 1
lilijulikana 1
mamba 1
mjao 1
motisha 1
mpiganaji 1
okuwepo 1
oloni 1
ondei 1
patakatifu 1
pokelewa 1
rah@@ 1
shinda 1
sk 0.6370031581333595
tera 1
tin@@ 0.7409804524350578
tri 1
uita 1
uwakilishi 1
vichache 1
viunzi 1
wakiongozwa 1
walikubali 1
waliochaguliwa 1
wanaoz@@ 1
wand@@ 1
zabibu 1
zinazotumia 1
ə@@ 1
1.3 1
1100 1
1859 0.49818137486389974
2,4@@ 1
AB@@ 0.8825758473314051
Amer@@ 1
Bet@@ 0.7374518378583661
Bud@@ 0.8678827735499599
Cheo 1
Cle@@ 0.930844514222144
Danieli 1
Diana 1
Down 0.7254698599479834
Duke 0.3459140378182621
Face 1
Fon@@ 1
Gandhi 1
Hasan 1
Iliundwa 1
Java 0.8531942509348178
Just 0.6443650598394723
Kabaka 1
Kiay@@ 1
Kikushi 1
Kimande 1
Manabii 1
Martha 1
Mask@@ 1
Out 0.4672502702164266
Patricia 1
Pembetatu 1
Point 0.3664582028458509
Sang@@ 1
Sawa 1
Sayari 1
Stockholm 0.7929046513023347
Tah@@ 1
Uswizi 1
Uta@@ 1
Waha 1
Wajesuiti 1
Wamb@@ 1
Wanajeshi 1
Win@@ 0.52122438290207
aende 1
ahih@@ 1
akamw@@ 1
ales 0.12177998300782586
alipiga 1
ally 0.1225631549627377
amiati 1
anaa 1
anab@@ 1
angaa 1
anzo 1
ashiriki 1
asimama 1
atem@@ 1
aua 1
aushwa 1
diploma 1
eb 1
endea 1
fungua 1
gez@@ 1
hoa 0.21993962431179118
hui 0.2564033614575067
hushiriki 1
hutengeneza 1
ilikubali 1
ilionyeshwa 1
ilipungua 1
iliyoz@@ 1
inaeleza 1
inayozunguka 1
ipot@@ 1
isionari 1
istoria 1
kilichoandikwa 1
kimaadili 1
kinadharia 1
kisomwe 1
kou 1
kro@@ 1
kueleweka 1
kugeuka 1
kuhukumiwa 1
kujifungua 1
kujihami 1
kutengan@@ 1
kuwajibika 1
kuzikwa 1
lie 0.3746995235467616
linaloweza 1
mashapo 1
mfanya 1
misimamo 1
mwafaka 1
osom@@ 1
tes 0.1200216513714914
thiri 1
tis@@ 0.6663644794075897
tunavyo@@ 1
uchongaji 1
uhudia 1
uvi 1
vamia 1
wafany@@ 1
wajawazito 1
wakurugenzi 1
walifukuzwa 1
waliov@@ 1
walitawala 1
yasiyo@@ 1
yatak@@ 1
zangu 1
zilianzishwa 1
× 0.3044025156739553
137 1
1837 0.6777737534472824
1844 0.6877657742682782
1876 0.42308967365715777
250,000 1
35,@@ 1
451 1
540 1
70,000 1
74@@ 1
80,000 1
AD@@ 0.7267925450145982
AZ@@ 1
Abbas 1
Afr@@ 1
Armstrong 1
B.@@ 0.832798553961983
Bennet 1
Boko 1
Brazzaville 1
CIA 1
Campbell 0.5918685160483869
Funguvisiwa 1
Huwa 1
Ivan 0.8042335556620207
Jal@@ 1
Kiafrikaans 1
Kiev 1
Kike 1
Kizazi 1
Kurudi 1
Lis@@ 1
Marley 1
Marseille 0.8248087915704946
Miradi 1
Moravian 1
Nad@@ 1
Nne 1
Norman 0.6068373145353146
Omari 1
Palm 1
Rhodes 1
Roberto 0.8236970409437344
Rosa 0.6948248401409217
Ruge 1
Ruth 1
Sanamu 1
Schleswig 0.9598182451148611
Shel@@ 1
Tafiti 1
Tanakh 1
Tem@@ 0.7597871258177543
Temeke 1
Toscana 1
UN 0.6916297057257379
Uario 1
Uvuvi 1
V. 0.3688481156846679
Wakonventuali 1
Wasunni 1
Wenye 1
Zam@@ 1
achishwa 1
af 1
afisha 1
akir@@ 1
alio@@ 1
alitembelea 1
alituma 1
alitumbuiza 1
amab@@ 1
apanda 1
bay@@ 1
biskuti 1
chimbuko 1
chipukizi 1
eleweki 1
ento 0.8019042076246022
huji@@ 1
huona 1
husiana 1
hususani 1
ichua 1
ichwa 1
ikamano 1
ilioni 1
inayoendelea 1
induzi 1
itudo 1
jali 1
jojo 1
kane 1
kano 1
karib@@ 1
kee 1
keza 1
kilichop@@ 1
kitanda 1
kuelimisha 1
kujilisha 1
kukum@@ 1
kutamka 1
kutiwa 1
law@@ 1
long@@ 1
mahekalu 1
mashujaa 1
ogom@@ 1
ogwe 1
ongel@@ 1
pengo 1
reggae 1
sawasawa 1
sei 0.20949983327905033
shangazi 1
sklerosisi 1
sol@@ 0.36658960969085735
tem@@ 0.5940611208116503
thu@@ 1
ting 0.11167552953755315
ubalozi 1
ubwa 1
ugen@@ 1
ulimi 1
usudia 1
utovu 1
uyu 1
var@@ 0.7079504776784165
walibaki 1
wanapenda 1
washambuliaji 1
wur@@ 1
yanapo@@ 1
zilizotengenezwa 1
· 0.052393648260445146
ē@@ 1
1.6 1
1875 0.4342437480328503
212 1
520 1
Ade@@ 1
Aliolewa 1
Aliongoza 1
Austin 0.5663607762082248
Babu 1
Balozi 1
Buch@@ 0.4372006441514853
Burma 1
CM@@ 1
Chamwino 1
Child 0.9834202903371284
Dag@@ 1
Dahomey 1
Dob@@ 1
Enzi 1
Eugene 1
Fernando 0.4289758000251679
Future 0.9216059973541227
Hau@@ 1
Jap@@ 1
Jeromu 1
Jose 0.7630454928993851
Kaka 1
Kalifornia 1
Kaukazi 1
Kgalagadi 1
Kilom@@ 1
Lanka 0.6885156506321414
Lili@@ 1
Louisiana 0.5784160061895905
Lucy 1
Maumivu 1
Mid@@ 0.758013910695836
Money 1
Msikiti 1
Nebbi 1
Ngome 1
Numidia 1
Nyag@@ 1
Of 0.2948921457023321
Plat@@ 0.6489457856532828
SE@@ 0.560458614850427
SP@@ 0.5052491071466075
Sean 1
Service 0.19365530290737443
Shaka 1
Siria 1
Taf@@ 1
Thesalonike 1
Tibet 1
Trans@@ 0.4027902983878601
Ubunifu 1
Ushauri 1
Venezia 1
Voice 1
Waamuzi 1
Yaani 1
achilia 1
adokeza 1
aidiana 1
aingiza 1
aju 1
akan 1
aliwak@@ 1
aluni 1
amad@@ 1
anakuwa 1
andoa 1
angan 1
anis@@ 1
antijeni 1
aren 1
aribisha 1
bes@@ 0.5286690302009102
bika 1
dad@@ 1
ets 0.1363443173557449
fam@@ 1
film 0.028589392142988772
hambulia 1
herehekea 1
hukutana 1
imem@@ 1
imesababisha 1
inayofanya 1
isimamia 1
jihusisha 1
jug@@ 1
kan 0.9667933378408576
kielektroniki 1
kinachojulikana 1
kinas@@ 1
klor@@ 1
kuagiza 1
kukadiria 1
kusubiri 1
kutekwa 1
land@@ 0.3370210805938411
liza 1
madarasa 1
mafukara 1
magamba 1
matone 1
mchongaji 1
mikahawa 1
miondoko 1
mipira 1
mtaji 1
muonekano 1
ndiko 1
ochaguliwa 1
otho 1
otoka 1
out 0.028747605344800843
pendeza 1
rejareja 1
tahadhari 1
taja 1
tal@@ 0.458397161849436
tambua 1
ubunge 1
ukaguzi 1
ukarimu 1
ulileta 1
uliweza 1
umaini 1
umbwi 1
umungu 1
unajumuisha 1
unaoendelea 1
uswa 1
vijiti 1
wakaja 1
walikuwepo 1
wapevu 1
washairi 1
wasia 1
weleza 1
wingu 1
yonyaji 1
1.4 1
1874 0.4334368509837849
3,6@@ 1
39,@@ 1
480 1
850 1
AA 0.7364304302579966
Alirudi 1
Aliuawa 1
Aliweza 1
Amez@@ 1
Bih@@ 1
Chit@@ 1
Chombo 1
D.C. 0.5414927856488003
Dallas 0.5656194832398225
Dul@@ 1
Elizabeti 1
Everton 1
Fred 0.6281728781251406
Get 1
Gray 0.7860862002108129
Hy@@ 0.5000368091459085
Kambarage 1
Kanumba 1
Kikain@@ 1
Kipun@@ 1
Korintho 1
Kro@@ 1
Lum@@ 1
Makadirio 1
Mapenzi 1
Mariamu 1
Mes@@ 0.468577633775767
Mipaka 1
Mshindi 1
Mwanae 1
Night 0.3468146462407894
Nollywood 1
Pic@@ 0.646954739596502
RNA 1
Raisi 1
Ran@@ 0.5660465416731836
Robin 0.7102440173227496
Sergio 1
She 0.03332930353309011
Stellenbosch 1
Story 0.6626608998191312
Suala 1
Toledo 1
Uham@@ 1
Utangulizi 1
Utoto 1
Vikundi 1
aal@@ 1
abak@@ 1
abul@@ 1
ahi@@ 1
akauawa 1
alichangia 1
aliwekwa 1
ambara 1
amesema 1
anaona 1
angala 1
anishi 1
ape 1
asiri 1
ateolojia 1
baruti 1
bete 1
chachu 1
chem@@ 0.9341431012402533
cher@@ 0.6029139275768142
chozi 1
egawanywa 1
ekumeni 1
endeza 1
eshimika 1
ess 0.24906697469493397
eua 1
fit@@ 1
fremu 1
fuko 1
furah@@ 1
fuwele 1
hakimu 1
haramia 1
haribifu 1
haut@@ 1
hitim@@ 1
humaanisha 1
ifikapo 1
iji 1
imekadiriwa 1
imulia 1
inayotoa 1
ingie 1
inua 1
islam 1
itw@@ 1
japokuwa 1
kamanda 1
kijiyai 1
kin 0.34682193900397895
kiteknolojia 1
kiumbehai 1
kubor@@ 1
kumwambia 1
kuna@@ 1
kuripoti 1
lang@@ 0.9912831163430129
lov@@ 1
mbu@@ 1
mid@@ 0.627020628838154
mij@@ 1
miziki 1
mlangobahari 1
mwanak@@ 1
ndu@@ 1
odia 1
olim@@ 1
omoto 1
onwa 1
pand@@ 1
pinzani 1
sky 0.3183497952831439
tai 1
ton@@ 0.4086333634257844
u. 0.3131323580857795
uchu 1
udhi 1
ugaidi 1
ujamaa 1
umeonyesha 1
unaoweza 1
utangulizi 1
utaw@@ 1
viel@@ 1
wafu@@ 1
walipiga 1
wanadai 1
wasaidia 1
wasim@@ 1
wigo 1
yalipo@@ 1
yanas@@ 1
zen@@ 0.7660155646969891
zie 1
111 1
135 1
1841 0.6669330579757669
2,5@@ 1
251 1
30,@@ 1
302 1
32,@@ 1
36,@@ 1
370 1
40@@ 0.7422137851825801
46@@ 1
Afro@@ 1
Aman@@ 1
Ambrosi 1
Anast@@ 1
Anay@@ 1
Beseni 1
Brussels 1
CP 0.8995124846601567
Catherine 0.5343266132016281
Dream 0.825020893940393
Falls 0.6770194876738027
Gang@@ 1
Good@@ 0.987619910085949
Han 0.6485979685721752
Harrison 0.6716643495860286
Heart 0.5748786714239303
IAAF 1
IP 0.7248687470413403
Jumuia 1
Kampasi 1
Kima 1
Kolumbus 1
Law@@ 1
Liko 1
Lol@@ 1
Manafwa 1
Manuel 0.2991149849315524
Masi 1
Nicolas 0.5082804350883847
Nubia 1
PA 0.4937349876898481
Panya 1
Pop@@ 0.7570901980848359
Rombo 1
Rup@@ 1
Santo 0.62747462669915
Sensa 1
Sheffield 0.971656766727325
Shin@@ 1
Sid@@ 0.8705934345864922
Singapore 0.48493373849639976
Son@@ 0.6668099899356261
Timotheo 1
Tol@@ 0.766303970008136
Tour 0.13458831267253882
Wanj@@ 1
Wuhan 1
Zah@@ 1
Zen@@ 1
adhibi@@ 1
akitoa 1
alitia 1
angulizi 1
apewa 1
arudia 1
atuzi 1
auliza 1
azunguka 1
batizwa 1
bweni 1
dan 0.2732359906334329
den@@ 0.23375073141882952
ekesha 1
enne 0.2804797105636385
etezi 1
ett 0.2686807218760894
ger 0.2541620647170601
hakuj@@ 1
hauwezi 1
hie 1
hukus@@ 1
idhin@@ 1
idogo 1
ihi 1
inasaidia 1
inaundwa 1
inayoongoza 1
inayor@@ 1
ishug@@ 1
isiyojulikana 1
kifung@@ 1
kijen@@ 1
kimarekani 1
kimila 1
kufikiwa 1
kuhamishwa 1
kukan@@ 1
kulazimisha 1
kulisababisha 1
kurejelea 1
kusahau 1
kuumwa 1
lif@@ 0.8372331996172042
lilitumika 1
mahala 1
makavu 1
masik@@ 1
mcheza 1
mfungaji 1
muhusika 1
nyutroni 1
ome@@ 1
onyaji 1
osheleza 1
osia 1
osolewa 1
ran 0.17900685615047332
salaam 1
shati 1
ubadilishaji 1
ubalika 1
unjo 1
ushujaa 1
uvumi 1
viz@@ 1
vutia 1
vyokuwa 1
waandamizi 1
waliotawala 1
wapo@@ 1
wasi 1
wazungu 1
yab@@ 1
yanayohusu 1
ym@@ 0.47528148243221363
á 0.2157110503497446
ʿ@@ 1
0.5 1
1.8 1
1820 0.5016661165950338
2,7@@ 1
311 1
33,@@ 1
35,000 1
Abd@@ 1
Austr@@ 1
Bakr 1
Barack 1
Bisau 1
Bonhoeffer 1
Boyz 1
Duncan 1
Elementi 1
Fal 1
Fame 0.4558055936943945
Fol@@ 0.5287478705203597
Got 1
Gro@@ 0.529271646880264
Guinness 1
Hij@@ 1
Hon@@ 0.6449142302767967
IL@@ 1
Ibadan 1
Igulu 1
Ilitolewa 1
Inakadiriwa 1
Jason 0.6000396626308192
Kapadokia 1
Kial@@ 1
Kikh@@ 1
Kung@@ 1
Kuv@@ 1
Kwame 1
Lak@@ 1
Makampuni 1
Mbo@@ 1
Mili@@ 1
Mission 0.4939518033869408
Mitindo 1
Mkapa 1
Msaidizi 1
Mwanasheria 1
Palmer 1
Pasha 1
Ras 1
Sea 0.2729942860914089
Seattle 0.5260538072811642
Stalin 1
States 0.0399813162168625
Stella 1
Tembo 1
Ulikuwa 1
Waarmenia 1
Waethiopia 1
Wagermanik 1
Water@@ 0.9278376607251354
Wayao 1
With 0.11736993203231436
Zo@@ 0.7343676684736424
alio 1
alioa 1
alis 0.43115568996159065
aliteswa 1
ameanza 1
amekufa 1
anahitaji 1
anayech@@ 1
andik@@ 1
aq@@ 1
asho 1
atani 1
atilia 1
austr@@ 1
changamano 1
diplomasia 1
emikali 1
enezwa 1
eus 0.7478239949546084
fran@@ 1
hakina 1
halabu 1
hihir@@ 1
hon@@ 0.8545420841465073
hudhurungi 1
humu 1
ikiana 1
iligunduliwa 1
ilivamiwa 1
iliyov@@ 1
inalingana 1
inger 0.24758436706039563
inger@@ 1
ipasavyo 1
ispania 1
izini 1
jana 1
jongo 1
kudh@@ 1
kukinga 1
kupunguzwa 1
kushangaza 1
kushirikisha 1
kutupwa 1
kuwav@@ 1
lav@@ 0.8031094274548225
linalotumika 1
maadhimisho 1
malalamiko 1
mitaguso 1
mizinga 1
mmomonyoko 1
mundu 1
mwak@@ 1
nyotamkia 1
odo 1
olwa 1
omaji 1
onyeshi 1
opaswa 1
opta 1
ory 0.3029414534448496
sey 0.6406290644814082
shetani 1
side 0.06634729467707026
sintetiki 1
sos@@ 1
tiko 1
tunak@@ 1
uangavu 1
ulivyo 1
unuzi 1
usiani 1
usumbufu 1
uta@@ 1
uzembe 1
wanaofuata 1
weri 1
zikawa 1
ר@@ 1
ḥ@@ 1
10.@@ 0.6414975815203964
16,000 1
1846 0.5869053388872005
306 1
410 1
430 1
560 1
Abuja 1
Adrian 1
Afric@@ 1
Alabama 0.4599878337611182
Castro 0.8381470364593305
Chap@@ 0.9118703012511509
DSM 1
Dak@@ 1
Dubu 1
Eb 1
Elgon 1
Fortun@@ 1
Fund@@ 1
Galilaya 1
Graham 0.5828073898428845
Gun@@ 0.7465997351426884
Hermann 0.4582830136107517
Hid@@ 1
Huyo 1
Iowa 0.41502991089754016
Jac@@ 0.8349462688081717
Karume 1
Kent 0.5330281991580705
Ket@@ 1
Kifalme 1
Kii@@ 1
Kikopti 1
Kimalagasy 1
Kisa@@ 1
Lar@@ 0.5126588516583584
Leg@@ 0.5754927709330662
Limpopo 1
Madawa 1
Madi@@ 1
Mali@@ 1
Mbio 1
Mek@@ 1
Mkusanyiko 1
Mli@@ 1
Msaf@@ 1
Mtama 1
Mtawala 1
Muhimu 1
Nash 1
Ndivyo 1
O. 0.77851026680379
P.@@ 0.9157557179755649
Saleh 1
Samaki 1
Sc@@ 0.4438949649414873
Science 0.19739219563766888
Shig@@ 1
Sofia 1
Sung@@ 1
Swahili 1
TE@@ 0.9471209758760681
Tamthiliya 1
U.S. 0.0806588774542442
Upasuaji 1
Vatikani 1
Wath@@ 1
XIX 0.29677296515725354
Yetu 1
Yote 1
Zuhura 1
Zuma 1
abidhi 1
adhani 1
afanye 1
afrika 1
ahamia 1
akafariki 1
amiza 1
anyakazi 1
ashirikisha 1
ated 0.05904090761970864
atiliwa 1
bainifu 1
barafuto 1
boo 1
boti 1
dam@@ 1
dor@@ 0.4998791862898508
een 1
enter@@ 0.9306736892550926
fikiria 1
fisi 1
fuatilia 1
habeshi 1
hayat@@ 1
hupungua 1
ibadilisha 1
igawa 1
iha 1
ikazi 1
ikis@@ 1
ilipopitishwa 1
iliuza 1
ill 0.24156619777036273
imar@@ 1
imeandikwa 1
indaji 1
int@@ 0.45486515768685215
itindo 1
itolea 1
kand@@ 1
kipawa 1
kipeo 1
kitambulisho 1
kose@@ 1
kufurahia 1
kuhara 1
kuhimiza 1
kuip@@ 1
kukam@@ 1
kulipiza 1
kuma 1
kumwaga 1
kupendekeza 1
laki 1
lies 0.20859736814432012
lililop@@ 1
linda 1
liwe 1
mabavu 1
mabomba 1
mapacha 1
mbel@@ 1
mpwa 1
nondo 1
nususpishi 1
odougou 1
ofauti 1
oh 1
ohesabiwa 1
omilikiwa 1
oraji 1
pato 1
patwa 1
pigania 1
posh@@ 1
pri@@ 0.9326931299943318
rija 1
run@@ 1
str@@ 0.1589654647346711
teki 1
that 0.0044822700200452216
uangalizi 1
ufuko 1
ukta 1
ulgaria 1
ulitoka 1
umaa 1
ungano 1
vikombe 1
wakaf@@ 1
watendaji 1
watuhumiwa 1
zinatumika 1
1847 0.5786828853525032
1848 0.367233053369691
1868 0.40520042655318245
1877 0.40473943269902296
203 1
309 1
Agnes 1
Amefanya 1
Ani@@ 1
Auxerre 1
Banks 1
Bantu 1
Blackburn 1
Carter 0.555479394151963
Cruz 0.40611232575188333
Dave 0.5257794554279127
Dur@@ 0.41400901432252296
First 0.11746607459955417
Ghost 1
Grassfields 1
Hugo 0.5500319781051323
Hun@@ 0.8056553806245708
I.@@ 0.9848300989901877
Jolie 1
Kabale 1
Kitag@@ 1
Kitengo 1
Kiurdu 1
Kusinimashariki 1
Kusudi 1
Kyela 1
Melbourne 0.36502177886433107
Monica 1
Mwanzilishi 1
NATO 0.9588033563999832
Naz@@ 1
Ongezeko 1
Organization 0.7063824761759087
Platnumz 1
Pope 0.49066478202567493
Posta 1
RI@@ 0.7726113122085345
Reb@@ 0.7187953256181372
Ronald 0.9853600635903217
SS@@ 0.8213002062947866
Sengerema 1
Shida 1
Sidi 1
XVIII 0.4883324799611237
aceae 0.5265621234153215
afunzi 1
agara 1
agundua 1
aharia 1
aim@@ 1
air 0.11288691282806262
aj 0.6547994229765426
ajaribu 1
akajit@@ 1
akihudumu 1
akiki 1
alifungwa 1
aluo 1
amiana 1
andaji 1
arm@@ 0.6165587475886478
ashahada 1
avana 1
chaguzi 1
cio 0.6412299880292894
dij@@ 1
diz@@ 1
e. 1
eher@@ 1
emwa 1
endeleo 1
enta 0.532061255247487
ente 0.17198356751151597
ern@@ 0.39647081754695795
fe@@ 0.31269221264572433
fom@@ 1
hatarisha 1
hatuwezi 1
hid@@ 1
himili 1
hupendelea 1
ificha 1
ijulikanayo 1
ilitokana 1
iminika 1
inayounganisha 1
insulini 1
isheli 1
ison 0.7890423504824176
itifaki 1
kei 1
kitabia 1
kukat@@ 1
kupatana 1
kurushwa 1
kutungwa 1
lambo 1
mabal@@ 1
machafu 1
mashoga 1
men 0.05478890787240043
mienendo 1
mkon@@ 1
ml@@ 1
mwanahabari 1
nam 0.36544602596730263
odisha 1
ojia 1
omia 1
ongano 1
osimamiwa 1
othi 1
ovi@@ 1
pagani 1
pala 1
pigo 1
rekebisha 1
sing@@ 0.8930859207827243
tayarishaji 1
uc@@ 0.37736329798194745
uhusiwi 1
uiaji 1
uiwa 1
ukari 1
ulikuja 1
uliyo@@ 1
unyungu 1
unze 1
useja 1
utaka@@ 1
vipokezi 1
virutubisho 1
vyura 1
wafuatao 1
wagugunaji 1
walihukumiwa 1
waliokufa 1
wamem@@ 1
wapelelezi 1
weng@@ 1
wivu 1
yaliyol@@ 1
yanaonyesha 1
zimeandikwa 1
zimech@@ 1
ō@@ 0.7175857206487363
מ@@ 1
127 1
190 1
215 1
314 1
4,0@@ 1
680 1
7000 1
Abdel 1
Airport 0.2978321546418962
Aliporudi 1
All@@ 0.4515141340891827
Asi@@ 1
Bamb@@ 1
Bob@@ 1
Bog@@ 0.7228302565995405
Championship 0.10938054175163402
Colombia 0.3824717192254962
Edgar 0.9352030481865808
Ekaristi 1
Ernst 0.37503400248848145
Ga@@ 0.6159389592131148
Gl@@ 0.4033318006940436
Globe 1
Homo 1
Ilianza 1
Internet 0.2988611890106548
Kanaani 1
Katanga 1
Kiagta 1
Kias@@ 1
Kipol@@ 1
Kisasa 1
Kizulu 1
Magellan 1
Makete 1
Makuu 1
Maua 1
Mikindani 1
Monduli 1
Mu 1
Museveni 1
Naivasha 1
Ncha 1
Noah 1
Nwoya 1
Ol 1
Orlando 1
Pant@@ 1
Parimatch 1
Prize 0.39271162098377627
SPD 0.6329763261800369
Sabato 1
Seneti 1
Ten@@ 0.5611320971236164
Ting@@ 1
Tito 1
Ukuaji 1
Ust@@ 1
Utumwa 1
Viti@@ 1
Waario 1
Wabelgiji 1
Warren 0.6425730062649324
Wi@@ 0.5340422537242475
Wikimedia 1
Witwatersrand 1
Yos@@ 1
abadi 1
abesi 1
aboni 1
adri 1
adudu 1
ahidiwa 1
airo 1
alaya 1
alilazimika 1
alimshinda 1
aliyeandika 1
ambani 1
anaanza 1
anduku 1
angan@@ 1
anika 1
art@@ 0.6705057704141629
ates 0.08844940520725189
atha 1
atir@@ 1
aura 0.9402500619537204
bati 1
cm 0.1730727515427855
dhamana 1
dimb@@ 1
ebo 1
ekezaji 1
enyekevu 1
etaboli 1
fanyia 1
fol@@ 0.7535795420477676
format 0.26210818189209895
gom@@ 1
harau 1
idia 1
ilienea 1
ilimfanya 1
iliyog@@ 1
imegawanyika 1
isotopi 1
itokeza 1
kimekuwa 1
kipofu 1
kudhaminiwa 1
kujiondoa 1
kukab@@ 1
kumshinda 1
kuwafukuza 1
linahusiana 1
line 0.05634390975367049
lini 1
midomo 1
mnasaba 1
mtaala 1
nanyi 1
nat@@ 1
ocha 1
okusanywa 1
ombezi 1
ondolea 1
opath@@ 1
opwa 1
oti@@ 1
oy 0.6254493472059418
punje 1
rom@@ 0.5601685250493823
sang@@ 1
sini 1
taf@@ 1
tes@@ 0.7064602037890959
ukhalifa 1
ulana 1
ulionekana 1
umez@@ 1
umuishwa 1
umzika 1
unachukua 1
ungwi 1
uona 1
usimbishaji 1
virefu 1
visivy@@ 1
waadilifu 1
waki 1
walitangaza 1
wanafuata 1
wanaokalia 1
wasili 1
wazushi 1
weo 1
wit@@ 1
wodi 1
yaf@@ 1
yaz@@ 1
yoka 1
ys@@ 0.3935306101830815
ziliandikwa 1
zilitengenezwa 1
1.7 1
157 1
204 1
209 1
3,8@@ 1
AR@@ 0.42035717995113664
Abidjan 1
Amesh@@ 1
Arkansas 0.5496578304766765
Aur@@ 0.8751517937274379
Azam 1
Beg@@ 0.6835823378615954
Beth@@ 1
CH@@ 0.6740990529369649
Cologne 1
DO@@ 1
Dami@@ 1
Dev@@ 0.4426913991578343
Diskografia 1
Emirates 1
Farao 1
Flor@@ 0.6881698251518124
Gloria 1
Haku@@ 1
Him@@ 1
IM@@ 0.7374226365191273
Ibada 1
Independent 0.4876872354122354
Intaneti 1
Kalou 1
Kamboja 1
Karen 1
Ki 1
Kibao 1
Kifini 1
Kigh@@ 1
Kitahiti 1
Kitorricelli 1
Kundinyota 1
Leonard 0.8282290167171631
Litu@@ 1
Maporomoko 1
Marche 1
Meya 1
Mkongwe 1
Mlipuko 1
Mwana@@ 1
Mwarabu 1
Neema 1
Red@@ 0.3857068116129759
Rifles 1
Roy 0.49175318176643723
Sahel 1
Solom@@ 1
Ubalozi 1
Uf@@ 1
Ugunduzi 1
Ujamaa 1
Ukanda 1
Waang@@ 1
Wakor@@ 1
Wanyam@@ 1
Wati@@ 1
Welisi 1
Wissmann 1
Wright 0.5302914128036659
aburi 1
alialikwa 1
alifanywa 1
aliongeza 1
alipoteza 1
alizidi 1
alizo@@ 1
anajua 1
anakuja 1
anatoa 1
anii 1
antu 1
anyike 1
ardinali 1
ataza 1
athibi@@ 1
bakia 1
beck 0.8236659581352415
bela 1
biri 1
boresha 1
changanya 1
dak@@ 1
dhamini 1
dish 1
don 0.21590900527308876
ean 0.6313288635200442
emani 1
ff 0.3410192479566552
form@@ 0.3818297976008593
fundisho 1
grafia 1
haliku@@ 1
hel@@ 0.5494178314239633
hij@@ 1
hudhuriwa 1
ibi 1
ikich@@ 1
ilifanywa 1
ilimb@@ 1
ilinunua 1
ilithibitishwa 1
iliyosh@@ 1
imepungua 1
inayoch@@ 1
ipi 1
isimama 1
isto 1
itz 0.28350161254241646
jib@@ 1
kibwagizo 1
kisu 1
kuimbwa 1
kuita 1
kujikinga 1
kukandamiza 1
kumtumikia 1
kurekodiwa 1
kusogea 1
lig@@ 0.4225480872546969
mabaka 1
mafarakano 1
mahakimu 1
majaribu 1
mchuano 1
mli@@ 1
msum@@ 1
oaji 1
obor@@ 1
odaiwa 1
okaliwa 1
olong 1
ongana 1
ops 0.6658574882490973
other@@ 1
oye 1
ozi@@ 1
pandwa 1
port 0.16478667555398285
proj@@ 0.8782185279916701
puto 1
radio 0.11828668547566278
raf@@ 1
rah 1
reg@@ 0.2903471798372246
starehe 1
tanzu 1
tapo 1
taro 1
tola 1
ukavu 1
ukuza 1
ulaya 1
ulichezwa 1
uliundwa 1
undi@@ 1
ungam@@ 1
unge@@ 1
upweke 1
usiwa 1
usonji 1
uvuk@@ 1
wakaendelea 1
wal 1
waliita 1
wamo 1
wenge 1
weno 1
wera 1
yaliyos@@ 1
yc@@ 0.5934522332999176
yem@@ 1
zahanati 1
zilis@@ 1
ա@@ 1
1852 0.5220734948403725
307 1
4.5 1
600,000 1
640 1
66@@ 1
8000 1
AT@@ 0.5811871290925573
Alig@@ 1
Amazon 1
Bass@@ 1
Bishop 0.3241457051604765
Carson 1
Ep@@ 0.8838169601448546
Farasi 1
Fas@@ 1
File 1
François 0.22481577089978952
Ge 1
Gn@@ 1
Holstein 0.8494777921817365
Hospital 0.23591475641568876
Hup@@ 1
If 0.19842642530911003
Ilif@@ 1
Irani 1
Joto 1
Kentucky 0.4119377397379339
Kiafr@@ 1
Kiatlantiki 1
Kibondo 1
Kicelebiki 1
Kihmong 1
Kilindi 1
Lad@@ 0.72262797459496
Lunda 1
Marathon 1
Mobutu 1
Mzunguko 1
Nig@@ 1
Niki 1
Pande 1
Path@@ 1
Penisilini 1
Portland 0.5772718534359706
Productions 0.749135742684506
Rita 1
Sa 0.22818955158689413
Sauli 1
Singapuri 1
Sokoto 1
Taa 1
Tamaduni 1
Tarak@@ 1
Technology 0.3245667494270322
There 0.05286107075853064
Transvaal 1
Vich@@ 1
Vitu 1
Viwandani 1
Waar@@ 1
Ziara 1
abadilika 1
adhimisho 1
afir@@ 1
aguru 1
ahis@@ 1
aiki 1
aisari 1
akikisha 1
aliandaa 1
alivyokuwa 1
anayef@@ 1
anganyiko 1
angilio 1
angiwa 1
awi@@ 1
blu@@ 0.9636757109310629
duru 1
eaux 0.4078078256925454
egere 1
eleo 1
enn@@ 0.2975418488973619
had 0.009750381739016786
haija@@ 1
hapakuwa 1
hofia 1
huvaa 1
idumu 1
iliripotiwa 1
iliyoandaliwa 1
iliyoanza 1
iliyowahi 1
imbili 1
inaorodhesha 1
inatoka 1
inya 1
irani 1
ishano 1
kikristo 1
kilis@@ 1
kubainisha 1
kuhifadhiwa 1
kukomboa 1
kunguni 1
kupaa 1
kupig@@ 1
kutokuwepo 1
maafa 1
mantiki 1
many@@ 1
marathoni 1
matawimto 1
med@@ 0.8827018909527227
mhitimu 1
mifupi 1
mwanadiplomasia 1
ny 0.3800689703921955
ofia 1
okota 1
onjwa 1
orongo 1
ouk 1
ple@@ 0.482076116416589
rem@@ 0.49587165570685005
rundiko 1
semi 0.2528568042742754
shambani 1
stadi 1
tic@@ 0.37382149038103424
timi@@ 1
tini 1
tot@@ 0.5855649602424879
uaskofu 1
uboreshaji 1
uhu@@ 1
ulitungwa 1
unatumiwa 1
usio@@ 1
utafutaji 1
uvumilivu 1
vinavyoweza 1
wakali 1
waliotumia 1
yani 1
yek@@ 1
zenyewe 1
zijazo 1
zinaf@@ 1
zunguka 1
ê@@ 0.8711421761530898
נ@@ 1
129 1
1854 0.4830048065217371
1872 0.38741906216577127
199@@ 1
201 1
206 1
214 1
3,5@@ 1
365 1
431 1
470 1
48@@ 0.9363882232102394
5,0@@ 1
Ada 1
Akh@@ 1
Allan 1
Bac@@ 0.8449429521013024
Bamako 1
Barn@@ 1
Biz@@ 1
CBS 0.5227595487746759
Chemba 1
Chi 0.84068389795839
Chum@@ 1
Curtis 1
Dee 1
Delhi 0.6379010847818953
Dol@@ 0.5802837230668954
Eastern 0.22595058957880274
End 0.5151869905608122
Gab@@ 0.7856055417686744
Hatuwezi 1
Janet 1
Johnny 0.48184789449781906
Jukwaa 1
Kant@@ 1
Kilim@@ 1
Lou@@ 0.6476615282112973
MS 0.4873921400597335
Maarufu 1
Mabaki 1
Mac 0.6796723853527753
Mada 1
Maoni 1
Mariam 1
Masimo 1
Meg@@ 0.6347814765664495
Mercy 1
Michel 0.2953472238781206
Mob@@ 1
Moy@@ 1
Msa@@ 1
Mti 1
Mweusi 1
Nis@@ 1
Nusu 1
Olu@@ 1
Palace 0.4982736883580557
Ray@@ 0.927604344078254
Res@@ 0.46156780034877304
Rika 1
Shak@@ 1
Sham@@ 1
Shimo 1
Shinikizo 1
Simoni 1
Simpson 0.8950413966888546
Siti 1
Sm@@ 0.9184214394482983
Space 0.4098734993904046
Uki@@ 1
Vim@@ 1
Waberber 1
Wafanyabiashara 1
Walker 0.46325163451534035
XXIII 1
adu 1
agana 1
akisi 1
alipom@@ 1
andamiza 1
anzania 1
asir@@ 1
ath 0.3284659249952842
athibitisha 1
aumiwa 1
azi@@ 1
banda 0.24094179611150018
bet@@ 0.6722574936889588
bul@@ 0.3855538453207749
div@@ 1
dom@@ 0.8245560672493455
ebobea 1
eck 0.3775689802988457
ekeza 1
enjin 1
ghala 1
halina 1
hamini 1
hang@@ 1
hip@@ 1
hoga 1
ihu 1
ikom@@ 1
ilinda 1
ilipaswa 1
inag@@ 1
injilisti 1
inunua 1
italiano 0.8917690997095672
janja 1
jaw@@ 1
jiuzulu 1
kidhi 1
kikohozi 1
kini 1
kubom@@ 1
kuenda 1
kugusa 1
kujitahidi 1
kulea 1
kumwag@@ 1
kuoza 1
kupendwa 1
kutan@@ 1
kutang@@ 1
kutos@@ 1
kutwa 1
kuyey@@ 1
lilibadilishwa 1
lilifanyika 1
majaji 1
matamu 1
miraba 1
model 0.16042273904512466
net 0.3191731323492167
ofikia 1
omaa 1
ons@@ 0.3546471263036272
oozeshwa 1
openda 1
pendo 1
pora 1
puko 1
rohoni 1
sim 1
tunapo@@ 1
uangalifu 1
ungu@@ 1
ungwe 1
uya 1
vidubini 1
vinapatikana 1
viowevu 1
walipofika 1
wanafalsafa 1
wanaoendelea 1
wari 1
wazawa 1
weru 1
yaliyom@@ 1
yay@@ 1
yonya 1
yuni 1
zilitumika 1
zinatofautiana 1
ū@@ 0.6131659811299076
′ 1
00@@ 0.6337283110793577
11.@@ 0.8876336328054086
1853 0.5149538176517058
312 1
37,@@ 1
440 1
ARA 1
Alvarez 1
Bauer 1
Cab@@ 0.5832605068500034
Children 0.4712785355813147
Dham@@ 1
Dim@@ 1
EL@@ 1
Et@@ 0.7305011513802351
Fran@@ 0.6830071880354508
Gama 1
Gir@@ 0.644540609552177
Hotspur 1
How 0.7570231177052146
Iganga 1
Jakaya 1
Jim 0.3090535070548532
Juli@@ 1
KT 1
Kaduna 1
Kath@@ 1
Kiba 1
Kibal@@ 1
Kisababishi 1
Kofi 1
Kongamano 1
Konya 1
Kwa@@ 1
Laura 0.67971935419614
Lazaro 1
Lloyd 0.6239275396768567
Lob@@ 1
Lost 0.8786714654485898
Lumumba 1
Madonna 0.8880851737078547
Manga 1
Manyoya 1
Matam@@ 1
Max@@ 1
Mbe@@ 1
Mboya 1
Mem@@ 1
Mola 1
Mtaa 1
Mwang@@ 1
Nav@@ 0.673521087992357
Naye 1
Newcastle 0.7613449623840655
Pir@@ 0.5665464293092817
Plato 1
Powell 1
Rid@@ 1
Salzburg 1
Schutztruppe 1
Sep@@ 1
Silv@@ 1
TAN@@ 1
Tanzani@@ 1
Tch@@ 1
Ukraina 1
Universal 0.5179073095848743
Venice 0.9700123468413631
Versailles 1
Wete 1
When 0.07506775438183476
Wor@@ 0.6280083424566391
Year 0.20248977482084207
Yule 1
aban 0.17552334169226577
agani 1
agwe 1
aire 0.12741054940553564
akai@@ 1
alijitokeza 1
alipinga 1
aliti 1
aliyoi@@ 1
ambarau 1
andao 1
anzilishi 1
asab@@ 1
asimamiwa 1
asisha 1
asiye@@ 1
atano 1
athe@@ 1
aug@@ 0.6837610769986974
bel 0.692814302250042
but@@ 0.6040975736219263
choka 1
ex 0.20566606800539142
eyuka 1
fer@@ 0.1897963481164068
geuka 1
hakum@@ 1
hauriwa 1
hayakuwa 1
hayawezi 1
hela 1
helik@@ 1
heni 1
huchaguliwa 1
igi@@ 1
ikiitwa 1
ilipigwa 1
iliunda 1
imeonekana 1
inahusiana 1
inayohusu 1
itok@@ 1
kikali 1
kivolkeno 1
koa 1
kt 0.647016243119487
kuepukana 1
kuiba 1
kujificha 1
kulazwa 1
kumtangaza 1
kutaf@@ 1
kuufanya 1
kuvuruga 1
kuziba 1
log@@ 0.4793963195333619
maonesho 1
mavi 1
mem@@ 1
msom@@ 1
mtelemko 1
ning@@ 1
ofisini 1
okozi 1
ondi 1
onekani 1
ors 0.1250634387275531
osis 0.46145999682488076
pet@@ 1
pungua 1
put@@ 1
rasa 1
res@@ 0.17049912784881216
rubani 1
rud@@ 1
savana 1
shanga 1
tetekuwanga 1
thibi@@ 1
twiga 1
ukwaa 1
uliongezeka 1
umetayarishwa 1
umimi 1
unahitaji 1
ungukiwa 1
uri@@ 1
usanisi 1
usanywa 1
ventr@@ 1
vibanda 1
vikiwa 1
vini 1
walikwenda 1
walipoteza 1
wanamaji 1
wik@@ 1
winda 1
yakula 1
zuku 1
193 1
530 1
AC@@ 0.5156215744414117
Agency 0.5616671527767367
Air@@ 0.6394891923910143
Anah@@ 1
Ann@@ 0.5325131438414343
Bao 1
Bariadi 1
Boy@@ 0.9751365812233547
Buddha 1
Choice 1
Dav@@ 1
Dig@@ 1
G.@@ 0.951227832059642
Gal 1
Garcia 1
Glasgow 0.5184228660243284
Haley 1
Huo 1
Isid@@ 1
Kipi@@ 1
Kitang@@ 1
Kiyoruba 1
Kor 1
Land 0.14473479491036054
MO@@ 0.6877352526968616
Maimamu 1
Maswa 1
Monaco 1
Moore 0.39742093937044215
Mud@@ 1
Nam 0.15392614614591013
Nancy 0.6371171465140609
Nevada 0.6494765168697071
Off 0.9578181766327004
Polepole 1
Puglia 1
Ror@@ 1
ST@@ 0.4710056676536034
Sar 1
Sassandra 1
Shet@@ 1
Sound 0.4786138872807332
Sr. 0.9713432507929183
Tigray 1
Uteuzi 1
Vif@@ 1
Vodacom 1
Wall@@ 0.5591792519855765
YA 1
Yer@@ 1
Zim@@ 1
aci@@ 0.5252542701692099
adari 1
ado@@ 1
adr@@ 0.9667211989284182
alishtakiwa 1
amepewa 1
anaharakati 1
andisha 1
aph@@ 0.8359895586674426
ashwa 1
ataw@@ 1
auch@@ 1
ausha 1
ban 0.22492585002011867
chir 1
country 0.0753604559468424
dira 1
eku 1
empa 1
epe 1
fen@@ 0.8462869948903347
fuo 1
gluk@@ 1
hati@@ 1
hia 1
huvaliwa 1
ikol 1
iona 1
ishani 1
kau@@ 1
ken 0.15575935559394444
kt@@ 1
kufaidika 1
kuipa 1
kulipia 1
kumchagua 1
kuuliza 1
langu 1
lis@@ 1
malipizi 1
matem@@ 1
matum@@ 1
mel@@ 0.2868524843585744
mwadilifu 1
mwenzi 1
nan@@ 1
nis@@ 0.9798735272407763
omboa 1
otini 1
ozwa 1
panuka 1
platinum 1
posa 1
s.@@ 1
thropodi 1
tua 1
ugavi 1
ukue 1
ulifikia 1
unay@@ 1
urya 1
vib@@ 1
wajib@@ 1
walioitwa 1
waliou@@ 1
walipinga 1
yanayoitwa 1
you 0.13589099344245656
yr@@ 0.41941754022945854
ziliweza 1
à 0.0032925288964016615
ש@@ 1
田 0.8158466816853294
118 1
139 1
14,000 1
18,000 1
202 1
216 1
301 1
308 1
361 1
460 1
49@@ 1
Alham@@ 1
Atlas 1
Cat@@ 0.3552294696965725
Chaguo 1
Co 0.27449844077229074
DE@@ 0.7115379338898302
Death 0.297958767655921
Def 1
Delgado 1
Derby 0.7518888039101503
Forum 0.7197685847988955
Gari 1
Goma 1
Gon@@ 1
Gum@@ 1
ICC 1
Ilunga 1
Indus 1
Innocent 1
Jerome 1
Kosta 1
Kyen@@ 1
Ladies 1
Laur@@ 0.610578734324864
Laurenti 1
Lemb@@ 1
Ler@@ 1
Liber@@ 0.6878785294255109
Mogadishu 1
Nom@@ 1
Not@@ 0.30270853251422614
Ow@@ 1
Pauli 1
Pedro 0.24283000418100417
Pictures 0.5798256423023238
Premier 0.19974403414279754
S.C. 1
Say@@ 0.7797560113277994
Sto@@ 0.5601470362289279
Uvinza 1
Uzam@@ 1
Village 0.4166172588209536
Vipindi 1
Visa 1
Waos@@ 1
Wapo@@ 1
ZANU 1
adir 1
amepokea 1
andamano 1
anna 0.8212673424555527
araza 1
ardi 1
arn@@ 1
asiasa 1
azamaji 1
baini 1
bega 1
dua 1
gam@@ 1
gua 1
hairi 1
har 0.9671874750180011
ijapokuwa 1
ililenga 1
iniwa 1
itap@@ 1
jab@@ 1
kadirio 1
koma 1
kugawanywa 1
kunde 1
kwak@@ 1
lib@@ 1
magma 1
makisio 1
moni 1
obo@@ 1
ofili 1
okula 1
omba@@ 1
ongoro 1
ovich 0.8591723784490554
popo 1
school 0.039303160329763186
serotonini 1
sina 1
subira 1
tele 1
traf@@ 1
ubal@@ 1
umbia 1
umeb@@ 1
uzulu 1
wanaom@@ 1
wangeweza 1
wira 1
wol@@ 1
zuru 1
ּ@@ 1
1.1 1
155 1
1789 0.7207339095404696
1814 0.5514539466796627
18@@ 0.6170395340758518
19.@@ 0.9196541956134628
2,8@@ 1
223 1
Abdi 1
Are 0.862368388515649
Area 0.3524755722916931
Baz@@ 1
Brunei 1
Buti@@ 1
CA 0.41339606206674373
CT 1
Cameron 0.8132458956448364
Chel@@ 1
Chunya 1
Craig 0.7394670222569142
Dogg 1
Dou@@ 0.8042859216464022
Fund 0.601146358068218
Germain 0.9823211890898648
Gram 1
Guatemala 0.6381560204763803
Guy 0.5004093354427864
Gw@@ 1
Hali@@ 1
Head 0.3803874800562384
J.@@ 0.7775368472550364
Jackie 1
Jah@@ 1
Kadi 1
Kambi 1
Kasi 1
Kop@@ 0.8053137706289254
Kush@@ 1
Kwaresima 1
Masai 1
Mish@@ 1
Miti 1
Mkw@@ 1
Moto 1
Padri 1
Pascal 1
Pavia 1
Pay@@ 0.8772015994608685
Pol 1
Rod@@ 0.6299434161383604
Ruz@@ 1
Sao 1
Sita 1
Stanford 0.7772722777012938
Swaziland 1
Tajikistan 1
Thika 1
Tobago 1
Usi@@ 1
Vins@@ 1
Wrestling 0.4402703583551931
Yusuf 1
aden@@ 1
aisi 1
aké 1
angwe 1
ast 0.2973292200226989
atur@@ 1
dee 1
donia 1
eimani 1
etus 1
fich@@ 1
gio 1
hakikisha 1
hala 1
huma 1
igbo 1
indika 1
isini 1
iye 1
kutu 1
maw@@ 1
molek@@ 1
obu 1
odi@@ 0.7311339160768345
ofariki 1
okwe 1
ongozi 1
osta 1
otom@@ 1
out@@ 0.17008083329901735
pamp@@ 1
pili@@ 1
piramidi 1
qi@@ 1
shab@@ 1
shing@@ 1
ted 0.08244533639780884
tig@@ 0.5338566948390382
tro@@ 0.4377183313354733
ufuatiliaji 1
ukwu 1
umbufu 1
ungaria 1
uwe@@ 1
ven@@ 0.3279830189293962
vijidudu 1
vito 1
vyeti 1
world 0.06051636178132138
yang 1
éd@@ 0.9271663379520609
− 0.2629467498805989
.jpg 1
100m 1
229 1
316 1
381 1
390 1
Act 0.12599771429837603
Avon 1
Basilika 1
Beyoncé 1
Bohemia 1
Bong@@ 1
Bran@@ 0.5049387853568035
Bush@@ 1
By@@ 0.7676680623356323
Calvin 1
Cro@@ 0.3785657632285765
Cur@@ 0.3374246272665823
Georg 0.28024468863597535
Hiro 1
ICP 1
Igbo 1
Kav@@ 1
Kimo 1
Krapf 1
Laterano 1
Leonardo 1
Lot@@ 0.7742631677313067
Manda 1
Mills 0.8198198377869006
Mitchell 0.5541642552545737
Mozart 1
Mtem@@ 1
Nih@@ 1
Nkomo 1
O.S.B. 1
Obi 1
Pearl 0.8324061520777367
Phoenix 0.5991699239146291
Pit@@ 0.6561253508190048
Reggae 1
Ronaldo 1
Siena 1
Stade 0.7589761342403507
Sumatra 1
Super@@ 0.2568711515956011
Tul@@ 0.8482857147667049
Wesley 1
Wing@@ 1
Wolfsburg 1
YHWH 1
aitw@@ 1
altar@@ 1
ameth@@ 1
amii 1
andalizi 1
andam@@ 1
andar@@ 1
ano@@ 1
apartheid 1
apweke 1
asko 1
atat@@ 1
aud@@ 0.7125272523899767
awat@@ 1
ax 0.43866300110917356
ayu 1
chura 1
contributor 1
dale 0.4624399261755152
dibu@@ 1
eini 1
ekeb@@ 1
engenezo 1
erv@@ 1
estini 1
etse 1
gen 0.20988284348697753
hija 0.4808413079260286
him 0.025003751581472878
ikano 1
ingir@@ 1
isu 1
itio 1
kato 1
kay@@ 1
keo 1
kiu 1
kuhari@@ 1
mar 0.2877868773930457
mat 1
mikro@@ 1
misi@@ 1
mte@@ 1
mwanaf@@ 1
mye@@ 1
oksa 1
onesho 1
ont@@ 0.6239552684952019
patia 1
tamani 1
tif@@ 1
trans@@ 0.17034621757466673
uali 1
ube 1
ulikani 1
waid@@ 1
weke 1
yeza 1
yg@@ 0.8624303710337978
³ 0.6422926779758198
æ@@ 0.7652047580791564
ès 0.33061656155887065
122 1
182 1
1821 0.5715125661660725
225 1
630 1
80@@ 0.7340437539940513
99@@ 1
ATA 1
AU 1
Aga 1
Amar@@ 1
Atletico 1
Augusto 1
Betty 1
Bh@@ 1
Bissau 1
Break 1
Brit@@ 1
Champions 0.38553313099657716
Chief 0.20487352120468338
Cleveland 0.4280651337938008
Come 1
Deb@@ 0.6106311774474944
Digital 0.4954160234724606
Dong@@ 1
Emma 0.7046956768153375
Estonia 0.9986410820642339
Giza 1
Hampshire 0.5433860705581168
Hits 1
IG@@ 1
Janeiro 0.6532508672953634
Jumeirah 1
K.@@ 1
Kali 1
Kiur@@ 1
Lacaille 1
Macho 1
Magazine 0.35594709052043527
Mahabharata 1
Mbale 1
Moon 0.5025850649470112
Naf@@ 1
Nas 1
Nguyen 1
Nike 1
Peak 0.8789546303363941
Pesa 1
Piemonte 1
Pro 0.2744254082550052
RIAA 1
Rainbow 1
Retrieved 1
Richards 1
Sabata 1
Sof@@ 1
Sweet 1
System 0.19040967730949396
Tand@@ 1
Thebe 1
Tos@@ 1
UC@@ 1
Vor@@ 0.11758382189448804
Wasi@@ 1
Whitney 1
Yor@@ 1
Yu@@ 0.9491242038104932
ZA 1
aam 1
afuatwa 1
aldo 1
amsha 1
anau@@ 1
aniki 1
ass 0.39799912133816834
atal@@ 1
auawa 1
awanyiko 1
bihi 1
buti 1
con@@ 0.08736180201500776
das 0.008312580298073196
edai 1
ehebu 1
faili 1
habu 1
hat 0.0480332565526655
hatar@@ 1
humuni 1
izikia 1
jabi 1
karani 1
leta 1
makus@@ 1
mea 1
mili@@ 1
nanga 1
noti 1
ogelea 1
oho 1
oksid@@ 1
optera 1
pH 1
ster 0.23775396849442823
tie 0.3458211317108638
tuka 1
ubali@@ 1
ubin@@ 1
uruwe 1
wakiz@@ 1
weta 1
yl@@ 0.24939576626709029
ï 1
1517 1
175 1
1810 0.58939275117071
207 1
208 1
213 1
22@@ 0.7889937806678868
323 1
André 0.32410911132113657
Army 0.08201007057892223
Auto 0.7411017435640823
BH@@ 1
Bering 1
CO 0.62937804279988
Cant@@ 0.6760695071017627
Cecil 1
Edinburgh 0.4456104768408076
Fos@@ 1
Gates 1
Ghaz@@ 1
Hilo 1
Hudson 0.5687460960806242
Id 1
Iren@@ 1
Ith@@ 1
Kikuyu 1
Kinor@@ 1
Kwan@@ 1
Laz@@ 1
Lip@@ 1
Manhattan 0.5121978662172441
Miti@@ 1
Moravia 1
Nept@@ 1
Next 0.7683270505065777
Nov@@ 0.4184718394702604
O.P. 1
PNU 1
Pakistani 1
Pepe 1
Pieter@@ 1
Poly@@ 0.563571869152715
Pri@@ 0.44637498775548984
Prison 1
Ra 1
Ravenna 1
Romagna 1
Samb@@ 1
Shang@@ 1
Son 0.10539306467625721
Tay@@ 1
Terg@@ 1
Tib@@ 1
Til@@ 0.7605670786881692
Travis 1
Uni@@ 0.6980350095593121
Usaf@@ 1
Volume 1
Who 0.46398321732152004
ZAPU 1
agga 1
ahim@@ 1
ahisisha 1
aili 1
akav@@ 1
aliana 1
anad@@ 1
angaz@@ 1
astr@@ 0.5453906070915886
awan 1
cher 0.19573484781758174
cu@@ 0.17787130896098227
dera 1
ekel@@ 1
emavu 1
enberg 0.2878543451250946
gat@@ 1
hibi@@ 1
hiri 1
huhu@@ 1
ikani 1
iking 1
inza 1
iran@@ 1
isri 1
iss 0.6716366077573503
ksi 1
lah 1
lus@@ 0.6332382240442047
mba 1
ment 0.13128166023561114
miendo 1
nom@@ 0.5383989262445392
ob 0.406865981379959
och 1
odini 1
oglob@@ 1
onzo 1
ossa 1
ozo@@ 1
rik 1
sah 0.7003461348937884
san 0.6311797120716197
sou@@ 0.3970525185808132
stad 1
tend@@ 0.7167355521633101
tengen@@ 1
ters 0.1685454722272522
throm@@ 1
thu 0.45231144451347727
timestamp 1
ubaliano 1
ulani 1
unk@@ 0.560566622023856
unta 1
uter@@ 1
ve@@ 0.32903177923595917
via 0.11370050392130436
viet@@ 1
wawa 1
wish@@ 1
yasa 1
121 1
124 1
2.4 1
205 1
256 1
406 1
44@@ 0.8657424545293431
Abi@@ 1
Afrique 0.3690053905166586
Age 0.4457688627431458
Ain 1
Album 0.1795194990104016
Alois 1
Anap@@ 1
Apartheid 1
Band@@ 0.5169636409004358
Bern@@ 0.6068863756014794
Bonaventura 1
Cent 1
Cook 0.5654750998669608
Cot@@ 0.561147500145772
Cou@@ 0.5587975745782345
Dec@@ 0.31660187939547385
Diploma 1
Elias 1
Fal@@ 0.4906256223314343
Flores 1
Gam@@ 0.7717218617989879
Ghulam 1
Gregory 0.6884607731841119
Gulu 1
He 0.007507497518254583
ISO 0.8282930353766742
Ignas 1
Imo 1
Isa@@ 1
Ismail 1
Jed@@ 1
Joel 1
Journal 0.23942296844692926
Kre@@ 0.45690780377617213
Lig@@ 0.5843147875214509
Log@@ 0.6231285185302402
Main@@ 1
Malta 0.7675263355026009
Mst@@ 1
Muhamad 1
Mung@@ 1
Mustafa 1
Nazar@@ 1
Ong@@ 1
Oregon 0.35044062519817726
Plan@@ 0.4238987796900888
Randy 1
Reh@@ 1
Roosevelt 0.6749050311100335
Sac@@ 1
Sandra 1
Seine 0.1349899195070621
Tot@@ 0.7688195170408909
Trade 0.5320878778100363
Triangle 1
Tripoli 1
Wisconsin 0.2972898793295029
adang 1
adilishana 1
adj@@ 0.8099031500709356
akani 1
aky@@ 1
anc@@ 0.3475427475894498
anji 1
anum 1
cor@@ 0.12552933862514046
dari 1
dum@@ 1
ekom@@ 1
fuch@@ 1
ges@@ 0.2837169885182876
guano 1
heli 1
hesabiwa 1
iliani 1
inn@@ 0.4019482062162393
isan 1
jip@@ 1
kuba 1
kutor@@ 1
mane 1
meg@@ 1
misa 1
num@@ 1
ogon 1
omania 1
ous@@ 0.7509147735902112
owe@@ 1
pemb@@ 1
pende 1
robot@@ 1
sti@@ 0.29496833433823066
tengenezaji 1
tenisi 1
uen@@ 1
unab@@ 1
username 1
way@@ 1
yet@@ 1
zon@@ 1
â@@ 0.5689563993963394
š@@ 0.2543118460179945
ַ@@ 1
17,000 1
1835 0.50715389612735
218 1
222 1
227 1
335 1
AP@@ 0.5013518577289465
Abdel@@ 1
About 0.37613603490910097
Almag@@ 1
Atlantic 0.2595368601950194
Au 0.10243338170623409
BS 0.863607093197203
Bahr 1
Belarus 1
Brescia 1
Brook 1
Bub@@ 1
Christina 1
Chui 1
Daddy 1
Danny 0.7018294891802768
E.@@ 0.6851452745773102
Ele@@ 1
Euti@@ 1
Faith 1
Fati@@ 1
Fulani 1
Gan@@ 0.6987703226512907
Garden 0.43128023833378215
Gombe 1
Jinja 1
Kass@@ 1
Kiag@@ 1
Kingston 0.8871830568433093
Lel@@ 1
Li 0.3946804106607507
Lul@@ 1
Lun@@ 0.9770674584547538
Lusaka 1
ME@@ 0.5207166655833615
Madagascar 0.9302256044371422
Malaria 1
Menelik 1
Miguel 0.2903459650208825
Mong@@ 1
More 0.33052479286049025
Museum 0.09691863906572953
Nicholas 0.5219896525320034
Nick 0.4252421614866809
Nikol@@ 1
Oper@@ 1
Or 0.6390954278774711
Pak 1
Palermo 1
Paula 1
Perry 0.6059035830770629
Pet 1
Ponta 1
Pradesh 0.6333918117766206
Primary 0.8246741610476438
Rog@@ 0.8877638281159903
Ruf@@ 1
Sahrawi 1
Sev@@ 1
Shah@@ 1
Spice 1
Sud@@ 0.9712048645880942
Sug@@ 1
Torres 0.8092329666313565
Upan@@ 1
Utah 0.46942931358353346
Vib@@ 1
Vip@@ 1
Vul@@ 1
Ya@@ 1
agawa 1
alar@@ 0.5361796408422885
alfa 1
alum@@ 1
amal@@ 1
ambul@@ 1
ander 0.6999107186249862
angu@@ 1
anth@@ 0.7940828202526371
anu@@ 1
atinga 1
bilia 1
chlor@@ 0.8450628918426981
col@@ 0.18656530817259478
doka 1
estina 1
ex@@ 0.09734734449184568
falciparum 1
ibwa 1
ichika 1
ikh 1
ikii 1
imin@@ 1
ings 0.10319132827208746
inze 1
isani 1
ium 0.33643750849147386
kanaji 1
kupi@@ 1
kutegem@@ 1
laxis 1
levi 1
los 0.005550608313146368
mes 0.21802756267410506
mwanah@@ 1
nah@@ 1
ness 0.1900252193812823
ock 0.3522672498012783
onekano 1
ongola 1
onko 1
oon 0.6144961708746924
ord@@ 0.42429645974077357
parentid 1
pepti@@ 1
pros@@ 0.7067922094987378
ps 0.21584326358532413
rika 1
sh 1
sup@@ 0.6479506628221059
tang@@ 1
ukar@@ 1
usu@@ 1
utom@@ 1
weg@@ 0.9524381551723304
worth 0.24694160451263014
yn@@ 0.3483010858370566
è@@ 0.47639088683867425
-- 0.8229686521525282
10,0@@ 1
181 1
1832 0.5154870896313637
1849 0.41065056311015524
185 1
1851 0.42650486348813615
199 1
264 1
3,9@@ 1
354 1
38,@@ 1
AT 0.5029369602241766
Aba 1
Aka@@ 1
Appi@@ 1
August 0.0264910551337146
Bali 1
Bar 0.4868576944502159
Bau@@ 0.1519594740983489
Berkeley 0.6360090669625559
Broadcasting 0.6360090669625559
CAF 1
Capital 0.45382834101672176
Convention 0.4228574256824934
Davies 0.8600934365272113
Destiny 1
Dir@@ 1
Epi@@ 1
Equ@@ 1
Ere@@ 1
Fa@@ 0.954605351465625
Farisi 1
Fili@@ 1
Greatest 1
Guardian 0.6770427561467087
Ile@@ 1
Jem@@ 1
Khamis 1
Kikon@@ 1
LP 0.3893314313889322
Latin 0.20263201455761387
Lithuania 1
Lorenzo 0.695201723349966
Luc@@ 0.460344267506488
Maputo 1
Minneapolis 1
Montreal 0.3921713204710347
Netflix 0.8955500815047933
Obote 1
Oc@@ 0.6278680990108189
Olo@@ 1
Out@@ 0.5320896547183499
Pittsburgh 0.44911441309286854
Prim@@ 0.5622505746265208
Public 0.16966829881421064
Rap@@ 0.5911426009135948
Remix 1
Rolling 0.5986517970231763
Selassie 1
Sot@@ 1
Strath@@ 1
Sunday 0.3311374766823888
Thompson 0.4193146819650367
Thriller 1
Tin@@ 0.9415200658059456
Vista 1
Waber@@ 1
War 0.04164412307360903
Wolfgang 0.49062144554250986
Zab@@ 1
Zak@@ 1
abl@@ 0.6690498455638794
afakari 1
agala 1
aktari 1
amf@@ 1
amoja 1
angal@@ 1
ann 0.4207907762682877
antini 1
ape@@ 1
asta 1
aten@@ 0.9634951301426534
ator@@ 0.8245808301734884
bana 1
bre@@ 0.23751647045089652
burn 0.5672436084094862
deka 1
eter 0.3012355115826432
gyo 1
hidro@@ 1
ics 0.20433535566979616
ishan@@ 1
itisi 1
jue 1
k.@@ 1
kateg@@ 1
kulu 1
linus 1
mango 1
meya 1
music 0.0452431235429648
nan 0.8833104365984789
nde@@ 1
ocho 0.615270418176625
oki@@ 1
olog@@ 0.8126479337664035
ometria 1
ose@@ 1
pens@@ 1
remix 1
roskop@@ 1
sat@@ 0.8049572593143557
ser 0.05158240001226671
thai 1
uan 1
unav@@ 1
uvio 1
van@@ 0.587125537459604
vin 0.4723403100026048
viol@@ 0.5320609120700035
wandani 1
weli 1
won 0.03399298860145806
yaj@@ 1
yanyas@@ 1
ó@@ 0.20177441393879583
İzmir 1
136 1
145 0.9947887843876986
151 1
1521 1
165 1
177 1
179 1
1831 0.5291566462089659
226 1
23.@@ 0.8274347701088995
283 1
397 1
3D 0.42707537485110614
401 1
55@@ 0.8168458207576842
7.5 1
8,0@@ 1
Am 0.04894632375955301
Amazonas 1
Antak@@ 1
BET 1
Ba 0.5407942073161044
Barry 0.5007656838561436
Basel 0.6254304572437358
Bashir 1
Benz 1
Book 0.2602644763902512
Britain 0.19946862521684994
Calabria 1
Cre@@ 0.261440340417488
Di 0.7248774465972471
Dog@@ 1
Dut@@ 1
EN@@ 0.8725127003968887
Edwin 0.9412280044272887
English 0.0576499934799584
Foster 0.7662852200469312
Godfrey 1
Granada 0.8023992964774536
Holland 0.615041379232699
Honduras 0.8435117021678211
Hugh 0.5655829295261647
Indian 0.09151701842178599
Jamaica 0.8063494957742319
Jaz@@ 1
Jazeera 1
Keith 0.6112754704258192
Khal@@ 1
Kris@@ 1
LL 1
Line 0.16424490745808565
Medical 0.2902557868401472
Milton 0.9296919715098089
Minh 0.49747632850752915
Nal@@ 1
Negus 1
Nish@@ 1
PO@@ 0.7684422595028435
Peninsula 0.7188170311704746
Phil@@ 0.5404494249234304
Punjab 0.9336440560987632
Rudolf 0.4438707383497703
Samu@@ 1
Sankt 0.8312639708789255
Sardinia 1
Sky 0.4954613869064662
Sugar 1
Tad@@ 1
Too 1
Trump 0.4101180715455265
Trust 0.40157309294304794
Umbria 1
ahari 1
aland 1
ambuli@@ 1
amotu 1
atio 1
band 0.04726145308397836
biti 1
bon 0.4457749193700635
dan@@ 0.6675169347011756
day@@ 1
doni 1
elini 1
ence 0.14638358973860985
ere@@ 1
faransa 1
gy 0.8969367718304708
iche 0.6439855637706988
idizi 1
ink@@ 0.8676557459332956
itwayo 1
iz 0.6510223771931999
kov@@ 1
kute@@ 1
leen 1
lug@@ 0.8770898681299565
mm@@ 1
nitro@@ 1
okia 1
okok@@ 1
ox@@ 0.44066064910743447
pho 1
ping@@ 1
rithi 1
seg@@ 0.8660073632992078
shar@@ 1
sir@@ 1
st 0.16333547705502321
sus@@ 0.9207981102482954
ubadil@@ 1
ungumzo 1
utane 1
western 0.1549819605905594
xi 1
yah 1
yos@@ 1
zus@@ 1
ה@@ 1
ṣ@@ 1
131 1
144 1
167 1
20.@@ 0.725244809519719
402 1
56@@ 1
6.5 1
711 1
Abit@@ 1
Adam@@ 1
Amon@@ 1
Aristotle 1
Ast@@ 0.9624222499684607
Biko 1
Billy 0.4000647637368368
Bordeaux 0.6286519717767535
Butler 0.6443454061817205
Chen 0.7682278533312854
Ci@@ 0.40319625293271794
Data 0.713807374430592
Detroit 0.35161281209431067
Es 0.0364246499423512
Ey@@ 1
Fabaceae 1
Fak@@ 1
Faus@@ 1
Garang 1
Harold 0.574448113707901
Haut 0.7484746361596304
Heights 0.8754627032282242
IBM 0.6614050465938172
IF@@ 0.9488181553767469
IT 0.5751662348554732
Jor@@ 1
Jubilee 1
Krai 1
Lopez 1
ML@@ 1
Madh@@ 1
Marc 0.37835763058536065
Marco 0.5486820839232025
Matthew 0.46176611991432087
Maximi@@ 1
Mith@@ 1
Mountain 0.2645295293164106
Muf@@ 1
Nest@@ 1
Our 0.4933546221833827
Over 0.27024990213251404
PR@@ 0.9477176143597913
Pand@@ 0.9791052165956696
Pasi@@ 1
Pico 1
Province 0.17259972752599395
Pur@@ 0.3538496751074997
Ricardo 0.6906907186563138
Rovers 0.9047456344803644
Russell 0.3793632000612157
Simone 1
Timbuktu 1
Tong@@ 1
Upper 0.46515186089955834
Ving@@ 1
W.@@ 1
Wake 1
Zeus 1
aada 1
abii 1
adren@@ 1
afr@@ 1
afuzi 1
aishi 1
alf@@ 1
ambukizo 1
amine 1
arare 1
ave 0.4865719142507008
char@@ 0.30819543841867136
gan 0.6213409150183166
gar 0.4581766741929112
gon@@ 1
gul@@ 1
halika 1
haya@@ 1
hayati 1
hulumiwa 1
ikar@@ 1
imulizi 1
ines 0.14359810308726548
inevyo 1
ins@@ 0.1886066002357977
irmi 1
jerumani 1
kuyu 1
mana 1
mashu@@ 1
min 0.33591113843722625
moj@@ 1
mor 1
okovu 1
omaanisha 1
ony 0.457120397303434
ott 0.584242619413004
pok@@ 1
sian 0.988933046503485
tako 1
text 0.19040484548713282
ubu@@ 1
umii 1
ustan 1
veer 1
vokali 1
wayo 1
yum@@ 1
zis@@ 1
ō 0.24492938184981108
ɛ@@ 1
ɪ@@ 1
123 0.9494127501556054
146 1
1845 0.4380087331398928
195 1
2.2 1
217 1
224 1
233 1
24.@@ 0.8274789809182095
257 1
258 1
331 1
407 1
49,@@ 1
490 1
510 1
610 1
700,000 1
710 1
800,000 1
90,000 1
970 1
AIDS 0.9786300651208996
Ama@@ 1
Angelina 1
Antoine 0.4191064294365186
Any@@ 1
Ass@@ 1
Bond@@ 1
CN@@ 0.6800518500214393
Cassidy 1
Dead 0.4974992755130714
Dion@@ 1
Dum@@ 0.9089398873445116
Fah@@ 1
Ferguson 1
Fly 1
Freedom 0.564903183678214
Gamma 1
Haj@@ 1
Hilton 1
Human 0.3269008917678556
Instagram 1
Jeff 0.4552269482815472
Jerry 0.5385970919015871
Jos@@ 0.873037983005707
Justin 0.684520536024851
Key@@ 1
Kumasi 1
Mamba 1
Mariana 1
Ministry 0.23872644021423872
Murphy 0.6024671906533541
Nazi 0.43079577128564933
Nes@@ 0.9385004008002164
Nickelodeon 1
Nit@@ 1
Nkurunziza 1
Owen 0.7401934479609786
Pres@@ 0.30323901433037914
Prix 0.17778805067105982
Renaissance 0.45471013096632
SE 0.6819083607299651
Samia 1
Sent@@ 1
Snoop 1
Sophia 1
Suzuki 1
Theodore 0.9646104503605254
UNICEF 1
Watur@@ 1
Wel@@ 0.47788013352548503
Wer@@ 0.32998659285922594
Without 0.9921089545508159
abil@@ 1
ades 0.22530763614398358
adhi@@ 1
adilifu 1
agonjwa 1
ahan 1
aid 0.3459633960192617
alala 1
ameb@@ 1
apti@@ 1
arifa 1
ausa 1
azeri 1
azu 1
bio@@ 0.8811679691540172
buy@@ 1
dal 0.9689356067072933
devu 1
dub@@ 1
ely 0.17323647080481713
emin@@ 1
enburg 0.454247774165181
engere 1
ering 0.372688466839517
finy@@ 1
fir@@ 0.7617967852957092
gule 1
hakim@@ 1
hifad@@ 1
his@@ 1
ikil@@ 1
ikuyu 1
marathon 1
mur@@ 0.646109783912982
oforo 1
okom@@ 1
oliki 1
oslov@@ 1
pro 0.1804794441226856
rag@@ 0.7739669549986624
stadt 0.3115914232169832
tao 1
uddha 1
umer@@ 1
unguko 1
utam@@ 1
virutub@@ 1
ó 0.05229737203437084
بن 0.29987841259408843
1227 1
149 1
153 1
163 1
2.6 1
275 1
60@@ 0.7007179829293363
670 1
AG 0.23261206553002933
Aaron 0.6945080476331612
Alexandra 1
Alf@@ 1
Amp@@ 1
Anglo 0.6125308153146303
Apollo 0.8728649252301902
Bridge 0.23381014858466034
CE 0.4502561543346461
CP@@ 0.6049458990869915
Camp@@ 0.40981857134303395
Caroline 0.5220336520114014
Chad@@ 1
Chak@@ 1
Change 1
Climate 0.7692649370612694
Comics 0.460404605888956
Corona 1
Cy@@ 0.5029132721575348
Dakota 0.4507598563982023
Deng 1
Dok@@ 1
Du 0.3252697034918018
EU 0.3345721378430311
End@@ 0.5292793152546633
Evans 0.45809315640721593
Ezek@@ 1
Fresh 1
Gabrieli 1
Gardens 0.857446245735154
Gibraltar 0.9207161104663596
Gran@@ 0.3821980449490675
Gustav 0.5176653185695232
Hannah 1
Huli@@ 1
Ich@@ 1
Islands 0.23766430954902135
Kamp@@ 1
Keb@@ 1
LO@@ 0.7393717720527827
Last 0.4202354757841234
Latifah 1
Lives 1
Lynn 0.97693973082398
Magadi 1
Mao 1
Mars 0.4906385031765346
Meno 1
Monte@@ 0.977002619891046
Mumbai 0.8812273185488584
Muslim 0.32857706947905707
N. 0.4279856473636548
NL 1
Ner@@ 0.6032786969483447
Never 0.9159559253813679
Osama 1
Plata 0.675347499885528
Play 0.4037460814278581
Pom@@ 0.7128738546231785
Pos@@ 0.512116492270464
Raphael 1
Republic 0.12064423012864942
Research 0.1388291868510224
Rouen 1
SM@@ 0.7541658207275175
Series 0.1471698243732846
Shakespeare 0.630757818033974
Social 0.21108307763351652
Square 0.3107383883732745
Ster@@ 0.7500288784433568
Surinam 1
Suz@@ 1
Sz@@ 0.4257644762930841
Tar 1
Two 0.12262163687107284
Vancouver 0.43081631526202535
Werner 0.5147042549234399
XX 0.22084753594085552
Yeh@@ 1
Zakaria 1
abi@@ 1
abiashara 1
adiliano 1
ae@@ 0.8208414266488023
agi@@ 1
agon@@ 0.8887962265710629
ajibika 1
aly 1
ambuk@@ 1
ambulisho 1
anani 1
anchi 1
anes 0.4622743831581864
anik@@ 1
arasi 1
athy 1
atii 1
ats@@ 0.5815494756208398
aul@@ 0.8283379681405646
bata 1
cer@@ 0.2644183484603553
com@@ 0.14092567356403202
ege@@ 1
eha 1
face 0.08620926917224417
handisi 1
haribi 1
ies 0.1319903324591688
ilahi 1
ille 0.2558108023843316
inan@@ 1
inje 1
iwi 1
jeli 1
jem@@ 1
jer 1
kala 1
lizi 1
lock 0.40490220626751816
lojia 1
magazine 0.12277836888257343
maxi 1
mol@@ 0.3102619613820854
nazi 1
oine 1
omali 1
omeo 1
ometri 1
onz@@ 1
penalti 1
qa 1
raine 1
sharia 1
soul 0.6364268974138606
stown 0.9387306577898772
tir@@ 0.6552390786147596
toni 1
tup@@ 1
uhak@@ 1
ulig@@ 1
ulima 1
vu@@ 1
walid@@ 1
water 0.05592125439820587
yoo 1
É@@ 0.1732280212097946
ï@@ 0.37621050926893734
ד@@ 1
ל@@ 1
1250 1
126 0.9625786396743379
133 1
138 1
168 1
178 1
1806 0.4981798709700673
1855 0.36878260887642317
192 1
253 1
259 1
286 1
30.@@ 0.9403960414082128
315 1
345 1
377 1
525 1
6,0@@ 1
720 1
980 1
Abubakar 1
Anj@@ 1
Augustine 1
Axum 1
Bei 0.06869970033508842
Bello 1
Bird 0.7329955109853921
Bung@@ 1
Byrne 1
Byz@@ 1
Camp 0.38481552864803176
Celtic 0.7318529116557844
Chiefs 1
Dro@@ 0.6338759002892121
Edmund 0.7290893967789149
Ef@@ 1
Empire 0.11736824005165576
Express 0.3381401917148087
FBI 0.7223587958207163
Fab@@ 0.8787714283903088
Fall 0.2663301497468195
Fernández 0.5385484471914672
Flora 0.7392767328772479
Francesco 0.6079720270432938
From 0.06879167234447027
Goldman 1
Hul@@ 1
Hull 0.8642467029908177
Hum@@ 0.42888230170343206
Ile 1
Islam 0.41981160027437214
Khalid 1
Lang 0.8872144304573146
Lettow 1
Lev@@ 0.4523350355761442
Level 0.9361327284699364
Lon@@ 0.9199901785843964
Louise 0.44284963509224073
Lulu 1
Marrakesh 1
Maud@@ 1
Mba@@ 1
Mikron@@ 1
Mila 1
Mita 1
Miy@@ 1
Muy@@ 1
N.@@ 0.8311817492769445
Ngao 1
Nice 0.8208562251168676
PS 0.2730759670361602
Pet@@ 0.5138957950957476
Provence 0.6921161933483873
R.@@ 0.5706359080876912
RA@@ 0.5269430885950418
Rabat 1
Ren@@ 0.35868437902958705
Région 1
Sap@@ 0.8648667632574533
Sec@@ 0.5165801166068279
Still 0.8843470575582457
Sub@@ 0.2071045869611354
Tir@@ 0.542854894573527
Tisa 1
Tommy 0.5888991503333878
Tsar 1
Tund@@ 1
Umar 1
Vasco 1
Vol 1
Wadi 1
Web@@ 0.6004583178237766
Wood@@ 0.43231602062566754
Yorkshire 0.4841522713728249
Zab 1
adhali 1
agia 1
ald@@ 1
also 0.007074546416724052
amaz@@ 1
amm@@ 0.693828073050061
arap 1
asis 1
astani 1
atan 1
ativus 1
barak@@ 1
bud@@ 1
didae 1
ekoste 1
end 0.02973039490150433
entia 1
etti@@ 0.8889119070461998
formula 0.02787641678705276
gli@@ 0.727199332310792
gor@@ 0.7926433952008196
his 0.003972457333929066
igia 1
inho 1
itar@@ 1
jan 0.6567526666168498
jas@@ 1
jog@@ 1
kund@@ 1
lab@@ 0.5486848632404153
mifu@@ 1
oku 1
old 0.053136638115511045
omber@@ 1
oula 1
oum 1
pag@@ 0.6891646015536415
paz@@ 1
pio 1
redi@@ 1
ron 0.6555460749573785
see 0.08290758801640626
soya 1
stein 0.15312639506155715
tag@@ 0.6383941237218407
ther@@ 0.30257135776372107
thul@@ 1
tum 0.6280385796269977
tuna 1
tuz@@ 1
ustino 1
wenz@@ 1
yam 1
128 0.7084800318141204
1492 1
169 1
1750 0.9425452595471637
221 1
241 1
285 1
321 1
332 1
362 1
404 1
587 1
780 1
870 1
960 1
Aisha 1
Akam@@ 1
Arch@@ 0.4228340201103521
Aswan 1
Ati@@ 1
BM@@ 1
Baraka 1
Bash@@ 1
Bed@@ 0.6305544909995211
Boris 0.7204004190013332
Cardiff 0.8238913862269436
Comoé 1
Constantine 1
Crystal 0.8672816466978678
DC@@ 1
DD 1
Ellis 0.7933159179872814
Fatma 1
Floyd 0.9646338870238508
Gamb@@ 1
Gemma 1
Georges 0.2922647852901233
Herald 0.8819409640969693
Hey@@ 0.7017294588520764
Hizo 1
Hoja 1
Il 0.012526315056134678
Issa 1
Ja@@ 0.697883229216156
Josephine 1
Kids 0.8846206040454097
Kora 1
Königsberg 1
Lat@@ 0.4575898680977549
Latvia 1
Lima 0.4730285575148693
Lisa 0.5774156752973865
Malin@@ 1
Martino 1
Medi@@ 0.42416047124809714
Micro@@ 0.5893213137911105
Miriam 1
Mo 1
Mpumalanga 1
Muz@@ 1
Mwanas@@ 1
NSDAP 0.9468775795398786
Nagasaki 1
Nina 1
Pacific 0.14521453115448477
Panther 1
Pato 1
Pieter 1
Platinum 1
Qaida 1
Raw 0.8236272437740279
Reading 0.8172617725423449
Ris@@ 1
Robinson 0.3832429586956178
Run 0.5992595104300039
Réunion 1
Sanc@@ 1
Sine 1
Springs 0.5450383711201806
Stuttgart 0.3844473507787729
Sufi 1
Tamth@@ 1
Tip 1
Tuki@@ 1
Us 0.8123667150505548
Weimar 0.8902467456452255
Wili@@ 1
Youtube 1
Zou@@ 1
abato 1
agraha 1
alg@@ 0.48340603251038056
anatom@@ 1
apr@@ 1
aris@@ 1
arki 1
aus 0.011937944920939914
awaida 1
chora 1
cius 1
dens@@ 1
dis 0.4365144539287532
dok@@ 1
eem 1
elius 1
ezaliwa 1
fan 0.40965429373803175
furia 1
hit 0.13320858616855064
ight 0.45584655033210686
ikiwe 1
iliaji 1
imer@@ 1
inder 1
ishi@@ 1
itis 0.8435120154730629
jat@@ 1
jil@@ 1
juli@@ 1
koro 1
langobahari 1
ler@@ 0.17945183672922416
log 0.9564162363646239
län 1
mit 0.00539390948961611
mle 1
n.@@ 1
nad@@ 1
nyan@@ 1
obi@@ 1
okol@@ 1
opi@@ 1
ores 0.2079312238489672
rup@@ 0.8155524668742824
sta 1
tirir@@ 1
top@@ 0.4838827167593799
umuisha 1
ving@@ 1
wagizo 1
yand@@ 1
ע@@ 1
Ἀ@@ 1
134 1
147 1
1597 1
1807 0.5906344616380707
1824 0.5234340601798375
1843 0.45005607170684114
235 1
24,000 1
248 1
249 1
252 1
269 1
333 1
334 1
344 1
347 1
366 1
395 1
40,@@ 1
405 1
660 1
AFC 0.6827509840154226
AK 0.9874243521134155
Albion 1
Arabic 0.5595081530765826
Arg@@ 0.9540136004438339
Arles 1
Arnold 0.44283357701569087
Babar 1
Beirut 1
Bobby 0.5241208214815584
Buny@@ 1
CSE 1
CX@@ 1
Centauri 1
Charlie 0.3727923507673737
Conference 0.15892068528002296
DF 1
Dad@@ 1
Darwin 0.8824581488177536
Dorothy 0.9392139168157665
Emeritus 1
Eminem 1
Epidemi@@ 1
GT 0.6959802223281858
Gom@@ 1
Hed@@ 0.795097106610717
Hydro@@ 0.939152008311593
ID 0.674136509017988
Jacqueline 1
Jay@@ 0.7820195644605644
Jesus 0.3023849552848186
Joan 0.5020982656441387
Julian 0.6726618619269409
Kasai 1
Khadi@@ 1
Kres@@ 1
Larry 0.5511395184615503
Laurent 0.5067532763584854
León 0.3436535243148861
Like 0.24134078648902954
Mad 1
Mai 0.07281844353861065
Mamb@@ 1
Mann@@ 0.8443018479493843
Marina 0.619006333694687
Mason 0.6344419841222694
Mediter@@ 1
Metro 0.34886205328212283
Metz 0.888086959365999
Mill@@ 0.5963866187758722
Mont@@ 0.2625771745202908
Nai@@ 1
Nath@@ 1
Nh@@ 1
Nia 1
Nixon 0.991662421508608
Not 0.33567061956592326
Nova 0.4293986051684752
Number 0.9505765546031564
Olivia 1
Order 0.1804937413351584
Pang@@ 1
Pot 1
RO@@ 0.5045222005675751
RT@@ 0.7285928025480778
Rights 0.38622943511087593
Rock@@ 0.7120495985987695
Rodney 1
Shafi 1
Singh 0.40944523013090345
Strait 1
Summer 0.12835306818376754
Tanaka 1
Theodosius 1
Tunis 1
Twitter 0.5827987422525366
UAE 1
Vij@@ 1
Vivian 1
Wala 1
Wanat@@ 1
Zaw@@ 1
adha@@ 1
afe 1
ahera 1
akini 1
anjo 1
anne 0.642732288081523
anon 1
apir@@ 1
arani 1
azar@@ 1
bag@@ 0.8958486231066068
betr@@ 0.7185130924084374
boli 1
bula 1
chel@@ 1
chum@@ 1
dell 0.9100778281407272
dos@@ 1
edu 1
egu 1
ekebisho 1
ekw@@ 1
eledi 1
etem@@ 1
eth 0.5015150401188038
fanana 1
far 0.13541590876607582
fis@@ 1
foni 1
fre@@ 0.24204460714568748
hif@@ 1
ibe 1
ilizi 1
illo 0.34427631069457965
imbali 1
init@@ 1
ipir@@ 1
itt 0.6312189933588153
kitaal@@ 1
lau@@ 0.6894021927756896
laz@@ 1
leng 1
migu@@ 1
mina 1
msim@@ 1
okee 1
oland 1
ones 0.1131463216118821
ostr@@ 0.9407435811754012
owat@@ 1
poa 1
prop@@ 0.3629045639765459
ram 0.9078742030603754
rot@@ 0.24266847595256916
sisko 1
songa 1
ubio 1
uge@@ 1
wadi 1
yah@@ 1
yony@@ 1
á@@ 0.15170547837576584
éré 0.7601434325245067
ś@@ 0.7216549950073532
ş@@ 0.7217037340743175
ן 1
120,000 1
152 0.9864449764668485
1540 1
166 1
176 1
1813 0.4773880135569498
1818 0.5086664408964678
1842 0.42269660349416455
197 1
238 1
263 1
287 1
32.@@ 1
329 1
348 1
379 1
409 1
413 1
44,@@ 1
538 1
642 1
787 1
86@@ 1
9000 1
AB 0.5290954840877292
AG@@ 0.7143245487034394
Aba@@ 1
Akit@@ 1
Alb@@ 0.6280798514074839
Alfonso 0.5107478545902996
Andalusia 1
Apen@@ 1
Bab 1
Boh@@ 0.5793155364781064
Bradley 0.8032892017415231
Chess 1
Collins 0.46995162861280837
Dang@@ 1
Dest@@ 1
Duffy 1
Edo 1
Emily 0.7290711228262382
Entebbe 1
Estr@@ 1
Evra 1
Fir@@ 0.6214522717909376
GSM 1
Galileo 1
Gra@@ 0.6723007284624933
Guru 1
Haute 0.43509095372200446
Hood 1
IT@@ 0.6150897472448661
Isabel 0.584808829351383
Jon 0.5321796073340788
Kara 1
Kingdom 0.11618439750109957
Koo 1
L.@@ 0.837259543219199
Lane 0.3834109620247136
Leicester 0.9264504831712953
Llor@@ 1
Lopes 1
MI@@ 0.6581319919328439
Madison 0.48956710619771737
Management 0.24817002752344777
Matter 1
McDonald 0.8764838725439293
Md@@ 1
Memphis 0.7455410638564568
Middle 0.20120012562229395
Mé@@ 0.4301983179433037
Nero 1
Oklahoma 0.3208743197772552
Oth@@ 1
PC 0.28757997611744923
Petrus 1
Powers 1
Rangers 0.4361074259493877
Rav@@ 0.790696747677954
Rej@@ 1
Rey 0.44823892231903223
Roberts 0.4954197306634113
SOS 1
Saad@@ 1
Schalke 1
Schuyler 1
Sever@@ 1
TA 0.45274766511962533
Tedesco 1
Toulouse 0.514816381121534
Tran@@ 0.5717194359628817
Viktor@@ 1
Vision 0.8211786352602757
Wiki@@ 1
Xbox 0.720478593094978
Yal@@ 1
Zag@@ 1
Zor@@ 1
adu@@ 1
adufu 1
akt@@ 1
al- 1
ambaz@@ 1
andamizi 1
angep@@ 1
angi@@ 1
anu 1
apani 1
aste 1
asuaji 1
atili 1
atizo 1
aup@@ 1
avia 1
awany@@ 1
awo 1
city 0.03194993696834932
comment 0.6911587977892732
dei 0.8932795579460209
diyya 1
ekani 1
epesi 1
eule 1
euzi 1
ewski 1
fiche 1
fri@@ 0.5362472569438448
hadi@@ 1
haini 1
hot@@ 0.9835446231230475
idro@@ 1
iho 1
ilimali 1
india 1
isoma 1
iyya 1
kuge@@ 1
mchang@@ 1
nav@@ 0.6968256387996941
ogr@@ 0.7341529620663888
omani 1
ongi 1
otr@@ 0.6603145062369244
rat 0.2513565333621066
ris@@ 0.504231626701234
ska 0.5465936746072318
sub@@ 0.06770863604007558
taz@@ 1
uano 1
uska 1
vera 1
wer 0.40911099040635995
yama 1
ç@@ 0.3805496601484655
è 0.8636487133892358
132 0.9058426245844897
1825 0.4777872068038721
1828 0.48069139804386507
183 1
187 1
188 1
198@@ 1
22,000 1
23,000 1
282 1
29.@@ 0.8122942574577502
317 1
337 1
3500 1
384 1
411 1
417 1
45,000 1
453 1
483 1
54@@ 0.9652982377669919
570 1
590 1
790 1
Aberdare 1
Abu@@ 1
Action 0.41561411017881883
Aden 1
Ala 1
Ank@@ 1
Au@@ 0.3809902515130594
Augsburg 0.9720917487486851
Aya 1
Baker 0.3963742085219388
Belize 1
Blake 0.7104293112184352
Bomb@@ 1
Bonn 0.5210563410983221
Bronx 1
Bryan 0.696499324723956
CI 0.7779952591836837
Cha@@ 1
Chand@@ 0.8715483971908708
Chang 0.9467236340624495
Clar@@ 0.5822942270860646
Clermont 1
Cola 1
Cos@@ 0.401146052929435
DL@@ 1
Dz@@ 1
Evening 1
Fan@@ 0.9709605505039648
Federal 0.1650800336764833
Frum@@ 1
GR 1
Gou@@ 0.8359957236457888
Grey 0.601686610360715
Hamad 1
Health 0.17917962512324018
IB@@ 1
Iberia 1
Industry 0.5652984011147036
Ip@@ 1
Keita 1
Kiel@@ 1
Kond@@ 1
LDP 1
Laf@@ 0.9618011917622372
Lal@@ 1
Lap@@ 0.5984894291158612
MIT 0.9789112402581271
MV 0.8436549639020459
Make 1
Marino 1
Marne 0.7005089841620996
Messi 1
Mkus@@ 1
Mou@@ 0.6835390855087595
Nic@@ 0.4631939871824551
Perugia 1
PlayStation 0.4539774246127131
Pé@@ 1
RE@@ 0.44888842745052143
RPF 1
Rogers 0.513736515639085
Rot@@ 0.29365017029699525
Rotterdam 0.9972488136158092
Ruby 1
Say 1
Seng@@ 1
Septuaginta 1
Shek@@ 1
Sud 0.17283009963781717
T.@@ 0.750793426998328
Tat@@ 0.5705602565047998
Tend@@ 1
Thu@@ 1
Tog@@ 1
Tsu@@ 1
Tyler 0.7502836485534096
Usher 1
Va@@ 0.9652298706412235
Van@@ 0.5290734223717399
Vegas 0.45932757592455925
Waal@@ 1
Wimp@@ 1
Wo@@ 0.39549998897830196
Yak 1
Zar@@ 0.6843743302023894
aff 1
afwa 1
akano 1
ambala 1
andro@@ 1
ardo 1
arib@@ 1
asit@@ 1
bay 0.18320043222546262
bis@@ 0.6005288748952872
boy 0.26654067265972764
bridge 0.125825027191797
can 0.01969215509191277
cha@@ 1
chun@@ 1
ck 0.34773133232367676
dag@@ 1
dig@@ 0.3816446234037557
diki 1
dizi 1
ekee 1
elimisha 1
enza 1
ester 0.3884543316512047
eter@@ 0.7761491136667036
gana 1
hee 1
iksi 1
ilu 1
ino@@ 0.8734475605251328
isso 1
mas 0.5811520192833316
nataka 1
nes 0.22376369261926127
neutr@@ 0.707380996931052
nh@@ 0.2830621013758122
ojen@@ 1
one@@ 1
opoli 1
otro@@ 1
oui 1
oul@@ 1
ovo 0.6467540948592277
pes@@ 0.7719433362401054
swana 1
telegr@@ 1
tion 0.12449478199629409
tisho 1
tumb@@ 1
uang@@ 1
uela 1
vali 1
windo 1
wini 1
yon 0.7005569962924032
zor@@ 1
ég@@ 0.4402697155046191
ος 0.5409312525385463
大@@ 0.08184292655416887
1795 0.5725749482508441
1799 0.6390301252884983
1822 0.5269849329172863
1829 0.4761541293918613
21.@@ 0.6452008399074514
228 1
244 1
262 1
268 1
341 1
342 1
375 1
429 1
509 1
605 1
760 1
ADN 1
AMA 1
Adel@@ 0.7346202907480907
Agata 1
Alo@@ 1
América 0.271966767272155
Ant@@ 0.9199244281850313
Authority 0.42349596826417785
Bach@@ 0.5917566033350905
Bakh@@ 1
Beat 0.9968812558017177
Bik@@ 1
Bw@@ 1
CDU 0.5424676552322778
Chu@@ 1
Clark 0.2709818148226753
Curie 1
Dand@@ 1
Democracy 1
Dik@@ 1
Domin@@ 0.7322776485189622
Dortmund 0.8484847978125044
Edith 1
Edwards 0.5172230471293401
Feldman 1
Fischer 0.5742041763855522
Flam@@ 0.7903783675308814
Fom@@ 1
Fraser 0.8047856432039286
Gate 0.6897170360219684
Geor@@ 1
Gilbert 0.4384649732108886
Greenwich 1
Hannover 0.4220733696764271
Hev@@ 1
Hori 1
Huh@@ 1
Hunter 0.44812307362682563
Ibrah@@ 1
Ih@@ 1
Jar@@ 0.4620312169866516
Justice 0.18764763051781397
KW@@ 1
Khum@@ 1
Lionel 1
Living 0.7675874594418998
Lov@@ 0.7911452085733536
Mae 1
Mahal@@ 1
Maine 0.33984279942323553
Meyer 0.5939027842173202
Montana 0.5355744680417759
Nach@@ 0.21687046506868063
Nao 1
Neb@@ 0.726155815894676
Non@@ 1
Perpetua 1
Pete 0.6772088204231903
Polisario 1
Pun@@ 0.7115939022936536
Rivers 0.9144295139898992
SMS 1
Sanders 1
Schrödinger 1
Semb@@ 1
Seram 1
Severus 1
Shan@@ 1
Spencer 0.5920985983490212
Tano 1
True 0.9222814120395321
Vic@@ 0.45597294944297084
Voi 1
Waik@@ 1
a- 1
aff@@ 0.30745079304848955
aine 0.36443566659177157
andaman@@ 1
azak@@ 1
buko 1
bura 1
bus 0.1594311520963891
dolar 1
dudu 1
ekebisha 1
fak@@ 1
hoof@@ 1
ibo 1
ikwe 1
ilivu 1
intho 1
isii 1
jong 1
kimap@@ 1
kufu 1
ll 1
mende 1
mon 0.5477476162337709
msem@@ 1
neli 1
nge 1
og 0.4886209092706474
ohozi 1
oji 1
onom@@ 0.6390812305271613
otop@@ 1
ović 0.5260759912810713
pea 1
pek@@ 1
pisho 1
ret@@ 0.325064861766791
riwa 1
seva 1
sle@@ 0.6443684301023844
ston 0.3797448878878961
tara 1
tik@@ 1
tori 1
tuk@@ 1
umani 1
uriana 1
urn@@ 0.6100990611502138
usho 1
uyi 1
wy 1
yul@@ 1
zer 0.31399605197476343
県 1
143 1
148 1
1520 1
1572 1
161 1
184 1
194 1
2.3 1
232 1
288 1
318 1
336 1
339 1
346 1
355 1
356 1
357 1
422 1
50,@@ 1
515 1
55,000 1
580 1
58@@ 0.8803101158720672
604 1
622 1
625 1
7,0@@ 1
Alim@@ 1
Amy 0.6919766018361382
Anton@@ 0.9716132239638599
Arap 1
Atlético 0.5743710298755847
Avenue 0.16788314907665858
Bati@@ 1
Batista 1
Bec@@ 0.814109649275238
Bib@@ 1
Black@@ 0.4448511155472057
Broadway 0.29823997468195323
Buffalo 0.4671293463116888
Burger 1
CTU 1
Caes@@ 1
Chopra 1
Cir@@ 0.4600371120889779
Coca 1
Como 0.21358793983667007
DVT 1
Didi@@ 1
Djib@@ 1
Département 0.42921011764334416
EC@@ 0.7646314335218721
ER 0.7217559618093718
ESA 1
Eul@@ 1
Five 0.32912057250403826
Fland@@ 1
Forest 0.23420944576645755
Fou@@ 1
Games 0.11046953662086655
Gran 0.2385194343449579
Grim@@ 0.9299620732725624
Hap@@ 1
Hopkins 0.7773021902277796
Iy@@ 1
Jeremy 0.8453028735072527
Karat@@ 1
Km 1
Knight 0.3924262279231408
Land@@ 0.12670047907616405
Leipzig 0.24798279524299202
Lib@@ 0.657758555390025
MB 0.8688645360766827
Manu@@ 1
Marx 0.6016710096040386
Monako 1
Morning 0.621802121709202
Moss 1
Motown 1
Nakamura 1
Neo 1
Oranje 1
Original 0.4851604078387434
Oyo 1
Pall@@ 0.9257047929731814
Pam@@ 1
Pter@@ 1
Rh@@ 0.5760751685259108
Rice 0.7152086126588663
Sabah 1
Salama 1
Sales 1
Samba 1
Shay@@ 1
Sind@@ 1
Tao 1
Turner 0.40921022498407644
Veneto 1
VfL 1
Web 0.5442004122898787
Winston 0.9309159260300159
XC@@ 1
Yvonne 1
agan 0.7507750445722818
agu 1
ainia 1
alan@@ 0.9243235367096858
apia 1
asoma 1
assé 1
att@@ 0.1978353840033475
awimto 1
ays 0.31368234028819963
bac@@ 0.6952061629042584
bank 0.13954435489645534
dar 0.1686871676851102
dii 1
dominico 1
eca 0.5771571358191686
eia 1
ense 0.23320041090961233
entr@@ 0.1910324746050122
eraha 1
fet@@ 1
gil 1
hib@@ 1
high 0.03526079447395958
holanzi 1
hom 1
ide@@ 0.26024972403761265
ig 0.3279754974406592
iman 0.9920887784573786
kno@@ 1
kopo 1
lamu 1
language 0.0710299893290751
las@@ 0.5603191392364267
less 0.05921421799385862
ly@@ 0.2761257729183183
million 0.04676067702158783
new 0.016919844308562353
onj@@ 1
otti 0.7976208049818381
pan 0.5826111182479377
poda 1
rani 1
sson 0.4643724371975483
tawa 1
tit@@ 0.8119416711803844
tor 0.1814465233461639
tz 0.4569935053918237
ude 1
ugaji 1
uhusi@@ 1
ulus 0.7504430029219566
undombinu 1
unz@@ 1
uok@@ 1
urini 1
utaf@@ 1
uyo 1
v. 0.18816252045203394
wanza 1
wepa 1
yd@@ 0.6824058116271439
zy 0.8812045783723887
محمد 0.5112969954664198
∘ 1
1,200 1
11@@ 0.5604810604228747
162 1
173 1
1809 0.5096052531484379
1812 0.3472033238867741
1834 0.4056386192517468
191 1
254 1
26.@@ 0.7086076021152455
276 1
36.@@ 1
373 1
386 1
609 1
632 1
649 1
8.5 1
9,0@@ 1
950 1
98@@ 1
Acc@@ 0.8291816288713721
Ado@@ 1
Airbus 1
Airways 0.9147517076480037
Andre 1
Android 0.6566057550605643
Apol@@ 1
Bahamas 1
Beau@@ 0.5851803133467078
Big@@ 0.704102519407926
Blood 0.580623014861298
Bra@@ 0.5751619783224744
Brahim 1
Bundestag 1
CCC@@ 1
Capua 1
Chart 0.3500264522897784
Chip@@ 1
Ciudad 0.2973957028673895
DO 1
Dep@@ 0.8924657777390381
Fac@@ 0.5586401032321665
Fil 1
Forever 1
Gao 1
Geb@@ 0.4990186537445027
Geoffrey 1
Gib@@ 1
Gö@@ 0.9151472284440081
Hanse 1
Harcourt 1
Hard 0.7833688877947907
Hin@@ 0.45853187203769663
Hou@@ 0.7577234853542048
Isma@@ 1
Jul@@ 1
Kai@@ 1
Karakoram 1
Köln 0.3038060232384436
Lahore 1
Lubumbashi 1
MRI 1
Mar 0.4528740801688467
Mary@@ 1
Ming 0.9169092447683288
NE@@ 0.431348691380676
Nasser 1
Nez@@ 1
Okon@@ 1
Pompe@@ 1
Rahman 1
Rama 1
Rodriguez 1
SO@@ 0.41075114144455654
SWOT 1
Saw@@ 1
Secret 0.5928846076772396
Seneg@@ 1
Seven 0.4192121295362412
Sheraton 1
Sixtus 1
Stoke 1
Stuart 0.4576890534499941
Sé@@ 0.8471776544390497
Takri@@ 1
Tang 0.6523111280070554
Taw@@ 1
Traoré 1
Troyes 1
Uran@@ 1
Usw@@ 1
VI@@ 0.6942105198732496
Wang 0.437284977791445
Whit@@ 0.33900977157764406
Wolf 0.37960541565074146
Ye@@ 0.6014299332247859
Yek@@ 1
abaila 1
agar 1
ahir@@ 1
alisi@@ 1
anini 1
ataba 1
atak 1
ater@@ 0.745534903820357
avian 1
awan@@ 1
bish@@ 1
blues 0.6393927752437578
day 0.034151692561561274
devi@@ 1
dit 0.14686807679307656
dro 1
ebra 1
eksi 1
embu 1
ener@@ 0.4774611379602474
enge@@ 1
enti@@ 0.19886301132246595
ert 0.1082160798296953
ghas@@ 1
habit@@ 0.9024226998631846
head 0.05379463984971006
heim 0.19145955283123886
hiyo@@ 1
hou 0.9226382621361054
ids 0.1986711607102766
ier 0.15662096190343175
itihada 1
itzburg 1
izia 1
jee 1
kum 1
kutw@@ 1
lai 1
lan 0.36042439234947365
lisi@@ 1
mano 0.48311009675654093
mg 1
nina 1
ole@@ 1
pos 0.5978622965039948
pres@@ 0.23157651701450369
rie 0.596224907197785
stil@@ 0.7334497260482463
taj@@ 1
tasni@@ 1
trek@@ 1
tria 1
uling@@ 1
uva 1
vivax 1
wu 1
zoni 1
1519 1
159 1
1802 0.5150541803848424
1811 0.5126530285135826
1833 0.41098177617032405
292 1
327 1
387 1
476 1
484 1
69@@ 1
730 1
79@@ 1
Again 0.7076858756172153
Agr@@ 0.6800170125744038
Airlines 0.3954292236107428
Amhara 1
Amos 1
Andorra 1
Athletic 0.32597256582699774
BO@@ 0.6821135965001242
Batman 0.6778467323198032
Biafra 1
Bonaparte 0.9822767481511606
Borussia 1
Bukh@@ 1
CC 0.4071639667998573
Captain 0.2120586617141833
Clouds 1
Deutsche 0.20593263747890037
Diz@@ 1
Doha 1
ESPN 0.8887277000930556
Economic 0.4176737560068297
Eduardo 0.4977484482114254
Eff@@ 0.579325569271046
Elisha 1
Four 0.21536768168739182
Freeman 1
Ful@@ 0.656801022677006
Gem@@ 0.5359302391142671
Get@@ 1
Giuseppe 0.592815877273466
Gué@@ 1
Halley 1
Hass@@ 1
Hippo@@ 1
Hiroshima 1
History 0.03774201069382725
Iv@@ 0.8639185987330443
Iw@@ 1
Joh@@ 1
Jorge 0.31578903885549503
Kaya 1
Khe@@ 1
Kid 0.8190834737822682
Koch 0.7559770954173975
LE@@ 0.46097444962534745
Lakes 0.8503401938524769
Let 0.4559808849299101
Liberation 0.9204420364352485
Linda 0.6822012347574797
Maq@@ 1
Marrakech 1
Maya 0.8511580533409309
Mist@@ 1
Mountains 0.33008623180131585
Mwar@@ 1
Nikon 1
Nottingham 0.8710452033768079
OFM 1
Ober@@ 0.08741919748924386
Osh@@ 1
Pain 1
Phillips 0.542596018646323
Pluto 1
Pointe 1
Quincy 1
Region 0.0999499015066872
Reims 0.9724084941865309
Rig@@ 0.7835807621809623
Río 0.2428860723089354
SH@@ 0.759545721330168
Sali@@ 1
Samoa 1
Samp@@ 1
Samsung 1
Sharon 1
Sob@@ 0.9329175942695156
Sog@@ 1
Talib 1
Ted 0.5763074064764437
Teod@@ 1
Theodor 0.5917493730921617
Torino 1
Touré 1
Trabzon 1
Tula 1
Vanessa 1
View 0.828079979353721
Wai@@ 1
Winnie 1
XXII 1
Yahya 1
Zidane 1
abur@@ 1
adan 1
adv@@ 1
aea 0.7460382142729325
aise 0.42967723516284717
alsafa 1
anen 1
arian 0.3399587483380142
ars 0.14275870099360022
atas@@ 1
aten 0.22894963055562462
atol@@ 1
aze 1
bais@@ 1
bal 0.8948040318092293
bati@@ 1
bek 0.8014742829820327
bomb@@ 1
ce@@ 0.2949191842614935
changany@@ 1
codice 0.33910271032490114
cr@@ 0.10529372734978418
dancehall 1
della 0.5593434141955119
dy@@ 0.5129855755060626
elgiji 1
ement 0.0849170665733576
etto 0.8477993173808026
eu@@ 0.461472379639345
gum 1
gum@@ 1
hiv@@ 1
ical 0.09322998207380408
icom 1
igua 1
imbe 1
indonesia 1
ingira 1
inti 1
irili 1
iso@@ 1
isterre 1
kong 1
kupel@@ 1
kuti 1
lad@@ 0.5132547588728029
las 0.006614372783908514
len 0.2038510723535316
long 0.030953238218217632
mbing@@ 1
mel 0.6989688933596315
meng@@ 1
mere 0.6791596446597067
number 0.025352332300841614
opar@@ 1
ornis 1
oshel@@ 1
owo 0.742002113576854
pera 1
plas@@ 0.6622190723411507
px 1
ry@@ 0.6515165887796766
sc@@ 0.1496570254645199
sev@@ 1
sinap@@ 1
tap@@ 0.416466322378251
thia 1
tima 1
ubo@@ 1
uguvugu 1
umbaji 1
uze 1
vertebr@@ 1
wezekani 1
zab@@ 1
ën@@ 1
☉ 1
0.3 1
12.@@ 0.5481562920914745
130,000 1
141 0.9404219703246264
142 1
1816 0.4469225344259116
19,000 1
198 1
2.7 1
2.8 1
219 1
245 1
246 1
28,000 1
293 1
295 1
298 1
319 1
322 1
324 1
349 1
374 1
378 1
382 1
391 1
408 1
419 1
432 1
445 1
449 1
535@@ 1
56,@@ 1
616 1
620 1
88@@ 0.9580743060531256
AP 0.2973054886822718
Aiken 1
Alberta 0.41007050373371356
Animation 1
Baj@@ 0.9847062829862364
Bam@@ 1
Bant@@ 1
Beni 1
Bermuda 1
Boc@@ 0.7896618283461055
Bulawayo 1
CDC 1
CML@@ 1
Canis 1
Challenge 0.35569039914470846
Chir@@ 0.7117300828104459
Classic 0.40180462159704927
Clement 1
Columbus 0.5726071392121647
Connor 1
Creek 0.13656396732962828
Dap@@ 1
Denizli 1
Dit@@ 1
Eddy 1
Eswatini 1
FI@@ 0.39638130299654883
Federation 0.22547869056600864
Fire 0.27839871419266704
Gad@@ 0.9068859015630498
Galilei 1
German 0.0448102391127509
Gri@@ 0.4668791629278468
Gulf 0.37480127653052026
Gutenberg 1
Ham 1
Harlem 1
Honey 1
Jamal 1
Jang@@ 1
Jesse 0.725726657183528
Jessica 0.7965526019663584
Joy@@ 1
João 1
Kar 1
Karim 1
Kay 0.9039451390985153
Kelvin 1
Kings 0.41488254598227176
LXX@@ 1
Labrador 1
Lan@@ 0.33223161981755694
Lati@@ 1
Lay@@ 1
Lenin 1
Loc@@ 0.40080916470120526
Loire 0.3157628989732194
Lud@@ 0.676116357142101
Ludov@@ 1
Luigi 0.806407811176472
Manz@@ 1
Mbeki 1
Metropolitan 0.3212720026459408
Mix@@ 1
Moldova 1
Nand@@ 1
Nass@@ 1
Naw@@ 1
Oceania 1
Paolo 0.8745393268608397
Parker 0.36680797427486406
Place 0.30031375083043543
Poitiers 1
Portsmouth 0.7803604863683429
Python 1
Rash@@ 1
Recording 0.7593965052379346
Reunion 1
Ring 0.43676373507278926
Row 1
Semin@@ 1
Shik@@ 1
Siy@@ 1
Small 0.576130119178701
Soden 1
Sos@@ 1
Sylar 1
Talent 1
Tribune 0.8615038779617133
Trinity 0.43822674437946035
UT@@ 1
Vieira 1
Vodafone 1
Vu@@ 1
Ward 0.3700063366733319
Water 0.28610240102995677
Winfrey 1
aburu 1
adiliko 1
adre 1
ager 0.3018571694942232
aguso 1
ait 0.06471463582255828
ajara 1
akato 1
akh@@ 1
alay 1
alini 1
alm@@ 0.46414642758378877
angazo 1
anos 0.19931229410496848
anyaji 1
arama 1
arius 0.7628333395036305
[...]
