. 5576806
, 4136531
&apos; 3258545
ve 2241474
&quot; 1949936
bir 1378917
) 821379
( 819642
da 737003
de 682207
@-@ 608661
olarak 580375
ile 510307
için 398144
olan 346456
bu 343299
’ 324206
in 309451
yılında 283605
tarafından 282312
ın 260459
sonra 257762
Bu 256873
; 254264
: 242391
nin 234760
nın 232854
en 230461
ya 204760
daha 203117
ilk 198611
ise 170010
yer 164115
un 162994
te 160436
a 157841
gibi 156186
çok 147569
arasında 143980
kadar 137424
bağlı 135507
veya 134110
= 133270
iki 130852
büyük 126823
e 122060
göre 121592
i 119900
1 119765
oldu 116623
bulunan 112355
&#124; 111493
lar 110532
ler 107374
2 105144
den 104975
Türkiye 103564
dan 103266
olduğu 103110
ı 102099
- 98158
tarihinde 94785
ları 94567
leri 91474
birlikte 90539
nde 90089
! 89884
alan 89528
d 88537
km 86448
diğer 85047
ye 83337
4 83100
/ 82949
nda 81496
an 81364
adı 81274
3 81099
aynı 80345
Türk 79929
etti 79834
ta 78902
lerin 78302
daki 77846
ların 77475
ne 76711
adlı 73670
align 73485
center 73235
yeni 72907
inin 72888
yıl 72704
her 72482
aldı 70500
dir 70393
ancak 69025
İstanbul 68631
karşı 68290
Avrupa 67833
nun 67770
önemli 66818
son 66662
Dünya 66609
&amp; 66450
% 66375
eski 64184
başladı 63970
u 63495
önce 63050
ilçesine 62982
ini 62801
deki 60828
eden 60548
la 59169
şekilde 58779
olduğunu 58528
olmuştur 58279
yapılan 58260
The 58115
ının 57902
üzere 57704
ası 57186
o 56793
içinde 56729
Üniversitesi 56703
üzerine 56391
ma 56113
vardır 55979
Bir 55311
ine 55307
birçok 55212
5 55168
kez 55097
li 54703
ç@@ 54087
Mart 54079
kabul 53945
Ayrıca 53633
6 53106
sahip 53061
Mayıs 53004
10 52908
na 52788
le 51759
devam 51624
al@@ 51619
Ocak 51593
larının 51505
ını 51374
üç 51289
ikinci 51159
iyi 50931
on 50680
k@@ 50648
Kasım 50126
gelen 50040
2010 49941
fazla 49819
tüm 49767
“ 49558
yaptı 49477
lere 49223
Eylül 49119
Ekim 48872
” 48582
lara 48473
el 48393
ardından 48289
ilinin 47977
esi 47824
yüksek 47783
Haziran 47778
kendi 47763
Nisan 47560
ABD 47528
Osmanlı 47505
lik 47323
Temmuz 47242
ana 47232
Daha 46970
bazı 46964
olmak 46940
Ağustos 46862
Amerika 46846
tek 46817
lerini 46767
ş@@ 46473
Aralık 46444
ak@@ 46415
larda 46326
lerinin 46171
hem 46112
larını 46112
sırasında 46000
üzerinde 45675
farklı 45601
inde 45417
olup 45268
Ancak 44987
ına 44861
biri 44805
az 44758
görev 44758
at@@ 44694
an@@ 44610
lı 44547
me 44411
zaman 44257
K@@ 44227
ortaya 43538
lerde 43310
&#93; 42771
yılları 42744
İlk 42676
Şubat 42669
Birleşik 42654
&#91; 42508
yılı 42450
ar 42413
colspan 42379
çeşitli 42308
Savaşı 42167
of 42102
bulunmaktadır 41883
geri 41835
küçük 41647
nedeniyle 41430
boyunca 41178
12 41135
il@@ 41132
15 41074
il 40967
lerine 40921
ten 40791
ama 40590
ün 40527
– 40488
yeniden 40446
oğlu 40071
zamanda 40019
y@@ 40006
ak 39874
20 39775
ik 39753
7 39741
2012 39580
2020 39389
ar@@ 39348
sadece 39210
En 38913
at 38862
eler 38749
İ@@ 38538
yaklaşık 38516
2011 38316
2009 38231
8 38181
S@@ 38123
larına 37464
II 37053
edildi 37041
in@@ 36610
süre 36593
genel 36552
iler 36526
nüfusu 36483
T@@ 36328
film 36255
edilen 36174
uzun 35863
idi 35803
Ş@@ 35704
lerden 35703
2008 35610
su 35350
ay 35306
yi 35102
2014 34998
er 34950
Tarihçe 34886
aları 34861
merkezine 34838
11 34835
yerine 34817
maya 34749
larında 34652
Y@@ 34618
Almanya 34479
rağmen 34281
Fransa 34223
m 33893
2015 33817
30 33789
enin 33786
2013 33754
köy 33615
onun 33531
inden 33435
al 33392
eleri 33375
et@@ 33336
Genel 33334
lerinden 33207
tan 33189
Coğrafya 33174
unun 33174
mak 33166
16 33165
yı 33131
yaptığı 33080
Ç@@ 33035
bulunur 33000
gün 32995
kişi 32969
altında 32917
2007 32868
ır 32860
2016 32809
ilgili 32733
kısa 32689
dahil 32650
9 32621
İngiltere 32610
E@@ 32520
Alman 32495
isi 32385
larından 32356
lardan 32310
beri 32283
s@@ 32245
D@@ 32192
onu 32183
ele 32177
Güney 32126
et 32116
2006 32095
ik@@ 32067
Ankara 32026
ait 31944
s 31934
New 31898
genellikle 31860
Yeni 31841
ayrıca 31775
ması 31644
ek@@ 31547
elde 31528
ıl@@ 31511
k 31484
ki 31484
ü 31372
özel 31348
ad@@ 31338
ında 31327
edilmiştir 31214
t@@ 31162
almıştır 31156
ek 31103
the 31095
ından 31062
İngiliz 30994
ay@@ 30951
doğru 30927
lerinde 30921
Kuzey 30875
Amerikan 30870
uzaklıktadır 30814
alar 30806
ileri 30711
kazandı 30608
19 30604
Rusya 30438
B@@ 30415
anın 30415
başka 30404
14 30397
dır 30396
eder 30236
A@@ 30062
dört 30012
ver@@ 29988
13 29978
18 29924
ol@@ 29817
mesi 29780
lık 29652
merkezi 29595
ada 29538
Ar@@ 29479
2018 29444
adıyla 29422
una 29417
2017 29396
l@@ 29368
iş 29362
takım 29297
G@@ 29285
Roma 29197
tarihi 29153
Cumhuriyeti 29120
arak 29116
özellikle 29061
müzik 29006
z@@ 28947
arasındaki 28944
kal@@ 28866
17 28849
em@@ 28848
eli 28706
di 28690
er@@ 28563
yap@@ 28468
el@@ 28373
ıdır 28254
bilinen 28242
_ 28123
lu 28104
tekrar 27982
Birliği 27909
millî 27830
Doğu 27820
sahiptir 27787
birkaç 27725
25 27719
d@@ 27667
oluşan 27664
unu 27558
2005 27529
sonunda 27524
O 27509
kullanılan 27504
2019 27433
Büyük 27391
M@@ 27209
ayı 27196
aya 27193
Kupası 27184
as@@ 27153
2000 27017
sırada 26990
hakkında 26935
İtalya 26934
devlet 26918
yapan 26775
larla 26738
şu 26719
c@@ 26588
verdi 26551
mek 26474
olması 26472
olmayan 26470
lerle 26380
meye 26264
kar@@ 26263
am@@ 26195
Aynı 26032
Fransız 26022
Rus 25989
çıkan 25958
itibaren 25884
Al@@ 25864
Paşa 25845
H@@ 25814
oyuncu 25788
ım 25696
Çin 25665
sıra 25645
O@@ 25586
almaktadır 25583
etmiştir 25573
m@@ 25558
gt 25549
im 25511
21 25464
en@@ 25374
lt 25345
alı 25308
2004 25289
0 25277
geldi 25262
inşa 25234
yol 25228
milyon 25032
savaş 25025
Devletleri 24953
P@@ 24930
sezonunda 24921
tür 24911
grup 24873
çıktı 24824
ı@@ 24818
yakın 24814
yapmıştır 24727
ir@@ 24718
tir 24698
Film 24663
24 24613
ni 24608
Köy 24392
22 24335
ev 24312
yaz@@ 24297
esine 24294
aç@@ 24285
döneminde 24262
etmek 24226
I. 23999
neden 23957
mahalledir 23905
26 23882
adını 23878
takımı 23823
A 23809
â@@ 23745
C@@ 23727
F@@ 23667
Partisi 23665
Ak@@ 23643
man 23526
V@@ 23508
verilen 23470
az@@ 23438
Amerikalı 23403
kadın 23380
tam 23375
iz@@ 23351
î 23351
it 23314
itibarıyla 23304
v@@ 23259
N@@ 23192
im@@ 23136
toplam 23018
aş@@ 22996
sonucu 22966
g@@ 22822
dolayı 22821
Kar@@ 22786
ıyla 22766
dışında 22761
futbol 22757
nüfus 22755
n@@ 22744
eğitim 22598
iy@@ 22584
Batı 22558
es@@ 22557
asını 22526
kap@@ 22523
Z@@ 22467
aldığı 22458
23 22438
geç@@ 22423
ona 22386
Ligi 22365
yanı 22334
alır 22331
ur 22307
h@@ 22245
miş 22226
unda 22224
sayımına 22209
şarkı 22195
ısı 22103
kariyeri 22051
r@@ 22014
L@@ 21954
bin 21940
dönemde 21939
Anadolu 21919
esinin 21821
yılından 21789
üst 21782
altı 21750
York 21748
göster@@ 21745
av@@ 21733
Ulusal 21720
olur 21720
İmparatorluğu 21660
si 21593
ara 21551
t 21507
Şarkı 21470
Ödülü 21461
liği 21442
gelir 21381
nden 21375
gel@@ 21366
2002 21346
temsil 21336
sayısı 21281
eye 21258
di@@ 21236
ili 21204
yaşında 21190
sa 21125
us 21101
2021 21084
yıllarında 21068
27 21040
rol 21003
1990 20963
üçüncü 20946
şehir 20865
28 20800
p 20790
Uluslararası 20781
karar 20781
Bunun 20706
ir 20706
edilir 20672
Orta 20667
ıp 20658
sezon 20622
iş@@ 20615
f@@ 20601
ü@@ 20544
p@@ 20527
Ali 20506
masını 20471
Her 20443
insan 20439
fakat 20421
maktadır 20406
2003 20405
bul@@ 20360
kurulan 20329
doğdu 20282
ö 20272
2001 20264
Lig 20245
John 20243
ık 20224
kalan 20216
or@@ 20174
katıldı 20173
dünya 20158
yapımı 20153
ul@@ 20136
z 20121
dı 20097
alt 20077
isimli 20015
teki 20005
hemen 19990
and 19963
askeri 19943
ettiği 19943
açık 19909
esinde 19851
sonraki 19844
beraber 19813
R@@ 19776
çoğu 19752
uluslararası 19741
esini 19732
ti@@ 19698
NGC 19696
Azerbaycan 19667
mıştır 19601
kaldı 19588
ünün 19576
is 19573
bulun@@ 19541
ayında 19535
köydür 19488
beş 19466
futbolcudur 19442
ır@@ 19412
Parti 19406
kon@@ 19394
ifade 19361
albümü 19360
Sovyet 19326
edil@@ 19307
Er@@ 19305
yine 19274
filmi 19241
bulunduğu 19223
oranı 19172
l 19161
masına 19150
İyi 19128
100 19112
geniş 19072
it@@ 19060
eri 19058
Şampiyonası 19054
Afrika 19038
An@@ 19017
asyon 18989
geçen 18973
b@@ 18918
ken 18918
anlar 18891
ilçe 18871
yerel 18850
düzenlenen 18837
biridir 18809
29 18806
acak 18775
Paris 18737
pek 18713
ede 18697
miştir 18653
County 18599
eti 18598
temel 18571
siyasi 18568
kullanılır 18554
iç 18553
is@@ 18548
üyesi 18494
leriyle 18472
on@@ 18471
anda 18468
ılar 18383
31 18379
asına 18367
Devlet 18364
am 18320
burada 18278
resmi 18272
yıllarda 18261
formula 18243
İran 18212
transfer 18188
dur 18159
gol 18147
arı 18145
indeki 18122
kat@@ 18085
herhangi 18038
kur@@ 18023
mesine 18001
der@@ 18000
.@@ 17984
sayıda 17980
vardı 17979
içerisinde 17974
1999 17943
ot@@ 17936
var 17898
mış 17869
ti 17838
orta 17837
erkek 17829
yıllık 17695
ka 17693
oynadı 17671
mayı 17658
ab@@ 17649
grubu 17648
sezonu 17640
Nüfus 17636
1980 17627
spor 17582
y 17572
televizyon 17571
ünü 17553
man@@ 17533
Bey 17508
sistemi 17502
İngilizce 17483
bütün 17479
anlamına 17467
haline 17467
MÖ 17422
lığı 17358
kan@@ 17356
ünlü 17285
Fakat 17269
yaşayan 17232
Diğer 17219
bil@@ 17211
eyi 17200
öldü 17181
um 17171
başarılı 17163
baş@@ 17157
mücadele 17120
ca 17110
undan 17101
yanında 17087
diği 17051
erek 17007
yan 16995
genç 16986
girdi 16984
Mısır 16974
maçta 16941
kullan@@ 16914
olabilir 16902
asının 16852
başlayan 16830
manın 16830
ilan 16809
dizi 16796
ilerin 16790
forma 16779
oldukça 16765
var@@ 16764
ın@@ 16758
çalıştı 16750
ış@@ 16749
asında 16747
kol@@ 16745
yılına 16745
sahibi 16740
re@@ 16736
B 16733
başına 16711
konusunda 16707
yüzyılda 16702
U@@ 16689
izin 16686
eyaletinde 16665
as 16648
teknik 16636
çalış@@ 16607
dur@@ 16593
ur@@ 16589
değil 16573
1998 16572
ç 16563
lan@@ 16551
iken 16545
1992 16541
bunun 16531
başkanı 16494
çocuk 16470
sosyal 16465
yarı 16450
ıcı 16394
se 16374
amp 16371
ev@@ 16368
um@@ 16356
ülke 16336
İkinci 16334
günü 16321
tespit 16302
os 16297
İspanya 16273
abilir 16254
ındaki 16250
adan 16224
eş@@ 16196
ıları 16180
deniz 16151
dönem 16092
belediye 16056
sür@@ 16025
ül@@ 16024
veren 15988
ince 15986
yapıl@@ 15973
mesini 15958
amacıyla 15903
ılmış 15887
hiçbir 15879
aların 15827
başlamıştır 15825
imi 15818
taki 15787
mektedir 15774
metre 15770
söz 15761
sonucunda 15745
Bakanlığı 15712
güçlü 15704
ılan 15689
ılması 15688
lama 15686
50 15684
Japonya 15675
katıl@@ 15670
ok@@ 15667
yazar 15665
geçti 15628
1996 15627
edilmiş 15582
albüm 15559
uy@@ 15558
ndan 15527
benzer 15526
gör@@ 15525
larıyla 15518
1991 15506
1994 15493
1995 15484
hareket 15472
Fakültesi 15458
ederek 15442
1993 15434
1997 15430
de@@ 15422
hava 15417
ac@@ 15409
siz 15397
ür 15390
ismi 15377
hizmet 15372
kes@@ 15367
değildir 15346
yaygın 15325
yayınlanan 15324
ülkenin 15292
alanı 15285
o@@ 15285
ağı 15281
şehrin 15277
f 15274
Oy 15263
Yunan 15263
başında 15258
par@@ 15237
sona 15216
önceki 15195
ilen 15166
nı 15116
Brezilya 15114
Kur@@ 15094
mezun 15080
le@@ 15079
ortak 15069
yana 15060
ter@@ 15045
etmektedir 15038
yar@@ 15037
1970 15031
id@@ 15030
Kal@@ 15012
parçası 15009
bilim 15005
iyle 14997
İsrail 14973
ulaş@@ 14967
iddia 14956
şeklinde 14936
ah@@ 14930
oyun 14918
elerin 14908
li@@ 14880
uygun 14854
seçildi 14841
Sultan 14840
bilgi 14835
tamamen 14812
bulundu 14808
meydana 14797
Asya 14785
Son 14771
nedenle 14762
İzmir 14739
tı 14728
ıldı 14719
meyi 14699
madan 14689
i@@ 14677
ış 14671
Bazı 14655
içeren 14626
yalnızca 14617
Suriye 14606
ş 14598
uz@@ 14597
br 14593
iç@@ 14575
1960 14537
Baş@@ 14533
ayrı 14508
a@@ 14489
sonrasında 14473
yani 14436
cm 14420
babası 14408
Eski 14402
say@@ 14401
C 14380
ulusal 14374
un@@ 14369
ö@@ 14338
Kaliforniya 14320
halk 14318
bak@@ 14306
Bizans 14281
Londra 14277
İslam 14201
listesi 14188
len@@ 14155
arası 14149
çık@@ 14141
Nehri 14136
tak@@ 14129
ov 14127
os@@ 14121
Mehmet 14110
² 14095
ön 14087
alarak 14075
yüzyılın 14075
üzerinden 14029
adet 14024
J@@ 13995
piyasaya 13989
ekonomik 13973
ün@@ 13954
Ay@@ 13950
masının 13930
bile 13918
Japon 13913
ecek 13913
ımı 13874
leme 13858
I 13849
düşük 13842
te@@ 13841
Başkanı 13839
İki 13838
sık 13825
ip 13809
üne 13774
İtalyan 13774
udur 13768
gerçek 13766
or 13765
sel 13663
çek@@ 13639
aday 13588
Mustafa 13579
anı 13579
Futbol 13578
El@@ 13577
masıyla 13541
Krallık 13538
ed@@ 13534
+ 13532
oloji 13532
bağımsız 13526
konuş@@ 13514
kontrol 13510
yayınlandı 13508
kan 13495
ıyor 13479
bölgesinde 13449
çıkar@@ 13444
yardım 13427
yen@@ 13425
verildi 13421
dil@@ 13407
profesyonel 13395
e@@ 13381
luk 13380
b 13377
Polonya 13374
yan@@ 13365
Ö@@ 13360
TV 13322
Millî 13313
kay@@ 13306
1989 13258
h 13253
Avusturya 13249
kullanıl@@ 13249
sonrası 13248
kendisine 13242
olmasına 13239
af@@ 13213
kardeşi 13192
serbest 13181
kariyerine 13174
tan@@ 13167
40 13165
bölge 13128
bilinir 13127
tip 13115
doğal 13078
kurulmuştur 13073
Yahudi 13066
El 13059
yönünde 13055
hale 13049
Arap 13042
birinci 13034
ör 13021
ırlar 13012
kısmı 12988
Örneğin 12985
yardımcı 12971
modern 12970
ılır 12967
tut@@ 12963
Eurovision 12921
j@@ 12892
bölümü 12872
Türkçe 12850
bas@@ 12825
Sovyetler 12823
dünyanın 12803
yapıldı 12801
Ser@@ 12794
kuruldu 12778
ğ@@ 12747
alın@@ 12745
durum 12744
ık@@ 12743
verdiği 12739
maçında 12732
çe 12731
başlar 12714
yon 12709
video 12697
yak@@ 12689
ayrıl@@ 12679
erken 12676
Buna 12669
diz@@ 12660
Merkezi 12658
Yüksek 12658
kor@@ 12656
günümüzde 12654
oluşur 12628
ere 12625
tur@@ 12620
taş@@ 12604
din@@ 12600
Yunanistan 12593
çalışan 12589
uç@@ 12579
idir 12577
olsa 12565
ağ@@ 12544
Müzik 12537
diye 12521
altın 12512
tarihli 12511
isinin 12501
hızlı 12499
I@@ 12469
yok 12450
bunu 12444
sanat 12443
ad 12432
saat 12428
kır@@ 12403
satın 12396
diğini 12385
du 12384
çi 12381
defa 12378
n 12375
to 12366
alarının 12346
ap@@ 12335
adına 12326
isini 12319
ser@@ 12318
olmuş 12316
ılmıştır 12314
Halk 12305
Toplam 12301
yönetim 12293
maları 12285
atı 12278
ör@@ 12273
ön@@ 12265
alarını 12263
om@@ 12258
sak@@ 12247
Öz@@ 12243
Avustralya 12224
ist@@ 12219
yerleş@@ 12205
kızı 12191
Mar@@ 12172
-@@ 12168
ağır 12166
1988 12148
beyaz 12145
yle 12145
baş 12138
kazan@@ 12126
göz@@ 12113
yapılmıştır 12109
iline 12105
ia 12099
ez@@ 12091
alanında 12090
r 12074
ür@@ 12059
Ad@@ 12046
savaş@@ 12027
maç 12022
ali 12021
Ödülleri 11976
hafta 11975
Fenerbahçe 11974
çalışmaları 11972
saldır@@ 11971
yönelik 11963
verir 11936
türü 11933
zorunda 11931
ist 11916
kız 11908
tem@@ 11900
yer@@ 11899
? 11894
içerir 11891
dil 11860
şehri 11844
Merkez 11832
mişti 11826
1987 11823
hal@@ 11811
bir@@ 11810
As@@ 11795
Bununla 11794
muş 11790
den@@ 11779
u@@ 11775
mas@@ 11755
dair 11750
Galatasaray 11748
bağ@@ 11748
güç 11728
alarda 11725
masından 11711
od@@ 11710
x 11697
gir@@ 11692
Kanada 11688
yapmış 11685
Yarışması 11674
der 11674
familyasına 11662
geliş@@ 11648
ey@@ 11636
ra 11635
tasar@@ 11631
1928 11617
yarış@@ 11613
bölüm 11596
Hayatı 11579
yılının 11578
para 11548
onları 11533
San 11527
üzerindeki 11519
sinema 11516
Ukrayna 11515
ıydı 11510
Grup 11502
Kıbrıs 11490
yas@@ 11480
ıkları 11466
başkenti 11462
şarkıcı 11458
döndü 11457
Kore 11449
yüzyıl 11439
1986 11426
dünyaya 11424
ses 11385
ıyordu 11375
karşısında 11369
boş 11355
kendini 11349
III 11347
kişinin 11328
Köyün 11326
geleneksel 11318
acı 11303
belirli 11301
söyledi 11295
altına 11283
çünkü 11281
1950 11270
tipi 11268
sayesinde 11259
edilmektedir 11210
yolu 11209
yazarı 11205
Ordu 11202
artık 11194
maz 11184
Muhammed 11178
tar@@ 11178
Şehir 11172
per@@ 11170
oy@@ 11165
sayı 11164
yayın 11159
kurul@@ 11151
Hindistan 11139
attı 11132
görüş@@ 11131
lü 11127
Hollanda 11120
duy@@ 11119
ği 11119
İsveç 11119
düş@@ 11117
dış 11117
kurdu 11115
öl@@ 11110
met@@ 11109
Or@@ 11088
ilik 11088
enerji 11087
değiş@@ 11086
konu 11081
Han 11077
galaksidir 11061
öne 11059
elerde 11043
William 11027
mak@@ 11027
isine 11020
1984 11016
plan@@ 11016
Hay@@ 10993
Süper 10982
yu 10981
Devleti 10974
sağ@@ 10973
Burada 10962
şehirdir 10956
mez 10930
ıya 10926
Kor@@ 10924
yayın@@ 10919
maçı 10917
sen@@ 10907
yay@@ 10902
destek 10900
Windows 10890
alarında 10886
Gürcistan 10867
ani 10865
ic@@ 10855
şarkısı 10852
es 10850
ene 10849
single 10846
yerleşim 10842
hiç 10827
yazdığı 10826
şey 10824
UEFA 10814
1985 10801
idari 10799
yeri 10797
seç@@ 10796
takip 10789
kas@@ 10788
mi 10782
elerini 10779
eb@@ 10773
Bar@@ 10771
düşün@@ 10767
lam@@ 10751
alarına 10750
cinstir 10745
si@@ 10736
Böylece 10730
ölçüde 10730
Bir@@ 10726
1982 10718
kuzey 10718
sürekli 10718
sat@@ 10712
yoktur 10705
taş 10704
kazanmıştır 10689
kazanan 10668
tarihleri 10667
ışık 10655
FC 10653
öz@@ 10649
Tarihi 10645
etmeye 10644
final 10639
tanım@@ 10633
dışı 10628
oynanan 10627
oy 10624
Kon@@ 10623
çalışma 10622
se@@ 10621
makta 10620
Deniz 10614
kara 10609
bölgede 10597
tur 10594
adında 10592
Ahmet 10575
acaktır 10575
tiyatro 10555
Irak 10541
del@@ 10523
aşağıdaki 10514
güney 10514
ton 10507
yerini 10507
din 10505
kaz@@ 10505
mıştı 10500
doğrudan 10489
dön@@ 10485
D 10483
mekte 10474
yarat@@ 10464
ordusu 10460
kendisi 10459
Eğitim 10458
bin@@ 10451
kitap 10451
alara 10449
tek@@ 10448
kötü 10445
ova 10441
git@@ 10438
gösteren 10435
James 10427
... 10426
At@@ 10419
geçmektedir 10408
resmî 10405
yüksel@@ 10404
elerinin 10400
yazdı 10394
ildi 10391
popüler 10384
aktif 10383
hayvan 10382
tin 10378
taşıyan 10377
ilir 10375
uyla 10371
Sonuçlar 10368
kurulmuş 10366
ım@@ 10366
Bölgesi 10356
abil@@ 10344
Ol@@ 10330
tır 10329
1983 10324
ıs@@ 10323
X 10294
Kurulu 10293
Özel 10289
mesiyle 10269
men@@ 10266
görevi 10257
ırken 10257
Kuvvetleri 10246
ce 10229
boy@@ 10223
yoğun 10222
mevcut 10219
sar@@ 10204
Enstitüsü 10199
lanan 10193
irler 10189
acağı 10185
David 10183
iye 10181
iz 10175
2. 10169
ça 10161
Birinci 10157
v 10155
yaş@@ 10149
işlem@@ 10143
kullanarak 10134
usu 10132
dönemi 10123
Yaz 10120
ina 10119
Berlin 10114
oluştur@@ 10106
Ermeni 10104
eme 10102
İl@@ 10101
Har@@ 10095
gelmiştir 10090
Per@@ 10086
ici 10085
Şehrin 10077
yedi 10069
ri@@ 10051
halinde 10046
yat@@ 10046
ız 10041
‘ 10037
kab@@ 10036
yılındaki 10034
art@@ 10025
Bakanı 10010
isinde 10002
us@@ 10000
meden 9999
etmiş 9997
iller 9992
Cumhuriyet 9984
bit@@ 9983
ilerinin 9982
yaşam 9981
Altın 9980
Sar@@ 9980
19. 9977
T 9973
ilçesinde 9972
çıkmıştır 9972
aki 9967
bölgesi 9962
ke 9960
re 9959
Moskova 9955
süren 9949
kendisini 9944
60 9941
esinden 9938
Profesyonel 9901
Ter@@ 9899
arlar 9898
inç 9898
ıların 9889
ila 9886
veril@@ 9879
yık@@ 9873
etkisi 9870
Av@@ 9864
anlat@@ 9861
araştırma 9858
mesinin 9855
ınca 9855
Beyaz 9842
çift 9833
Başkanlığı 9827
ci 9826
mer@@ 9826
madalya 9814
hazır@@ 9812
öğren@@ 9799
grubun 9795
bitki 9793
yorum@@ 9789
1979 9787
Par@@ 9784
Bal@@ 9782
sırasıyla 9778
Festivali 9769
Kay@@ 9753
doğ@@ 9753
kaldır@@ 9744
Kariyeri 9741
Okulu 9736
men 9733
ünde 9733
Ev@@ 9728
enler 9719
ilinde 9713
açısından 9709
getir@@ 9707
em 9705
yon@@ 9705
ük 9702
yol@@ 9690
yüz@@ 9690
Belediye 9683
kullanılmaktadır 9683
kişilik 9682
ai 9675
bazen 9668
tab@@ 9667
elere 9666
ol 9664
Michael 9651
sız 9642
şirketi 9638
nasıl 9632
alt@@ 9628
İn@@ 9627
Olimpiyatları 9625
gösterir 9621
öner@@ 9616
1981 9593
elektrik 9592
mesinden 9580
La 9569
Müslüman 9563
dördüncü 9560
bırak@@ 9555
bilimsel 9554
eğitimi 9548
mahalle 9544
aş 9541
İş@@ 9535
alındı 9533
masında 9527
menin 9527
kayıtlarında 9522
iler@@ 9521
ut@@ 9518
gen@@ 9514
meleri 9513
açıkladı 9500
suç@@ 9499
göç 9496
annesi 9490
yapı 9490
mu@@ 9485
lem@@ 9481
şehrinde 9479
elerinde 9477
2.@@ 9476
oyunu 9474
Kral 9471
kullanılmıştır 9471
içer@@ 9468
uk@@ 9468
cu 9465
Ordusu 9462
eni 9459
yapmaktadır 9459
başı 9457
yapmak 9456
böylece 9455
ilmiştir 9455
ilmesi 9454
üye 9438
ılarak 9434
verilmiştir 9424
Kan@@ 9411
bulunmuştur 9407
Krallığı 9404
batı 9398
1974 9392
üretilen 9390
Yaşamı 9379
öncesi 9378
etkili 9375
ünden 9372
200 9371
bölümünde 9369
çiz@@ 9367
K 9365
kad@@ 9362
başar@@ 9358
ılı 9356
buna 9344
yabancı 9344
evi 9337
gelmektedir 9333
hayatını 9332
yoluyla 9329
takımyıldızı 9327
1978 9313
Kö@@ 9312
kent 9308
Grubu 9307
î@@ 9300
yıldız 9298
acağını 9296
ag@@ 9295
g 9292
op@@ 9292
ata 9290
stüdyo 9290
Günümüzde 9283
Spor 9270
uş@@ 9267
takımına 9263
1945 9252
sin@@ 9252
Hava 9250
neredeyse 9246
malar 9242
san@@ 9241
Lisesi 9234
Akdeniz 9227
sahne 9221
çaplı 9219
sah@@ 9215
undaki 9210
mal@@ 9207
kin 9205
konusu 9205
tür@@ 9192
dini 9191
irken 9186
aile 9179
W@@ 9178
tarih 9176
kitabı 9161
liğini 9149
Savaş 9142
ec@@ 9139
parti 9136
çocuğu 9122
geçirdi 9119
Robert 9118
ığı 9116
90 9115
bi@@ 9112
U 9108
izm 9108
ku@@ 9108
Der@@ 9101
1973 9088
asyonu 9088
ebilir 9085
görevini 9080
terk 9080
geçir@@ 9079
1968 9078
gönder@@ 9076
Beşiktaş 9073
nün 9071
ov@@ 9067
dağ@@ 9062
siyasetçi 9057
çoğunlukla 9053
dizisi 9052
gün@@ 9050
ilmiş 9049
lik@@ 9043
arkadaşı 9038
futbolcu 9034
büyü@@ 9025
Kemal 9021
kentinde 9018
son@@ 9009
Bel@@ 9007
finalde 9007
dikkat 9003
yüzden 9003
işgal 8998
kaç@@ 8996
sınırları 8986
uyar@@ 8982
1972 8980
FIFA 8979
almış 8979
aj@@ 8978
sun@@ 8971
görün@@ 8968
1975 8955
dili 8947
Tek@@ 8945
ne@@ 8940
göz 8939
vermiştir 8938
bek@@ 8933
üdür 8932
hayatı 8931
tamamladı 8930
3. 8925
bölgesine 8920
Kara 8915
dol@@ 8915
yaklaş@@ 8914
Britanya 8911
doğu 8911
karşılaş@@ 8909
filmin 8904
keşfedilmiştir 8904
lığa 8903
gitti 8902
üyeleri 8901
ilçesi 8900
seçim 8900
Hristiyan 8893
Bursa 8889
araya 8873
mi@@ 8873
giren 8864
görülür 8862
ortalama 8861
ndeki 8858
milletvekili 8854
1.@@ 8848
Küçük 8847
1977 8843
of@@ 8827
Tarih 8826
lar@@ 8825
1920 8820
and@@ 8820
lig 8807
yapılmış 8805
Ber@@ 8791
başlarında 8791
° 8790
Macaristan 8786
sağlar 8780
hala 8774
sağlayan 8774
istem@@ 8770
George 8764
kırmızı 8761
seçimleri 8756
durumu 8753
hak 8752
alınan 8746
Mer@@ 8741
takımında 8738
yazıl@@ 8738
çı 8734
osu 8732
içindeki 8731
yayımlanan 8730
Sanat 8723
Muharebesi 8719
yönetimi 8714
sal 8713
sor@@ 8700
ni@@ 8690
kökenli 8683
bel@@ 8673
başta 8671
1976 8668
Meclisi 8663
lanmış 8655
sanatçı 8655
savun@@ 8653
mevcuttur 8650
İsviçre 8650
Kulüp 8649
sal@@ 8649
ıc@@ 8645
gi@@ 8643
lardır 8643
görül@@ 8621
kul@@ 8615
yaşadığı 8603
ğin 8603
Kültür 8601
kız@@ 8601
ilere 8594
eşi 8591
anlaş@@ 8579
bal@@ 8579
Güneş 8570
Özellikle 8564
liğe 8563
aktar@@ 8558
onların 8556
sol 8555
Dr. 8540
iri 8539
olmadığı 8536
Tüm 8531
üm@@ 8525
lerdir 8522
1969 8520
Kadın 8517
merkez 8515
tik 8515
Derneği 8513
puan 8510
bi 8497
tercih 8494
Müzesi 8493
1971 8491
ordu 8489
çıkar 8477
sit@@ 8475
esidir 8473
içine 8470
mm 8463
oluş@@ 8462
bar@@ 8460
çevir@@ 8457
oynadığı 8453
üler 8446
Akademisi 8441
tr@@ 8436
çapında 8434
Portekiz 8432
2022 8417
belir@@ 8416
ular 8416
atandı 8412
koy@@ 8400
City 8380
adır 8380
form@@ 8380
En@@ 8378
Mal@@ 8372
Ger@@ 8360
iden 8357
mar@@ 8354
üretim 8349
meyen 8348
ndaki 8346
kuş@@ 8345
normal 8344
denir 8339
bat@@ 8338
yayınladı 8328
dığı 8325
gücü 8324
orijinal 8317
oz@@ 8317
ışı 8314
E 8312
80 8308
derece 8305
ette 8299
edilmesi 8298
tahmin 8295
bur@@ 8290
fark 8287
taşımaktadır 8286
asker 8272
Ne@@ 8271
Yaz@@ 8261
Kadınlar 8260
Los 8259
ayrıldı 8259
göstermektedir 8257
R 8254
ticari 8247
1967 8232
lanır 8230
söyler 8230
Ağ@@ 8226
lük 8223
j 8218
oyuncusu 8211
öldür@@ 8210
ülkede 8208
Bunlar 8206
giy@@ 8205
pl@@ 8204
hatta 8183
zor@@ 8181
ilgi 8177
Hal@@ 8173
canlı 8171
takımın 8159
uk 8157
Ab@@ 8155
ölmüştür 8151
hav@@ 8150
sağ 8149
Teknik 8148
gördü 8147
Be@@ 8143
ap 8143
Charles 8140
Kilisesi 8140
Ü@@ 8137
elik 8136
araştır@@ 8134
ut 8126
bilinmektedir 8123
kim@@ 8109
ıldığı 8107
açtı 8106
hat@@ 8102
diler 8099
arka 8094
elerine 8092
durumda 8080
Tanrı 8072
dek 8071
paylaş@@ 8043
aklı 8040
düzen@@ 8038
aca 8037
Se@@ 8030
isim 8030
özellikleri 8030
Paul 8028
kültürel 8024
ecektir 8017
belli 8015
birleş@@ 8015
İlçenin 8012
sebebiyle 8010
ticaret 8010
almak 8007
gem@@ 8003
nü 7996
Su@@ 7992
1930 7990
ri 7988
anlam@@ 7986
dem@@ 7986
dav@@ 7981
insanların 7979
kl@@ 7978
arada 7973
kü@@ 7969
dönemin 7968
Van 7967
duğu 7967
Ama 7966
takımının 7966
olma 7964
metal 7960
up 7960
adamı 7956
yaş 7955
kuzeyinde 7950
Ana 7949
yerde 7948
sistem 7942
Az@@ 7938
c 7936
bes@@ 7923
aracılığıyla 7921
kesin 7917
ziyaret 7914
yükseldi 7913
kulübünde 7912
ime 7911
1961 7909
ci@@ 7909
han 7908
Geçersiz 7904
anları 7902
örnek 7899
pozisyonunda 7898
ler@@ 7897
Tak@@ 7888
gece 7887
Gün@@ 7879
astronom 7877
doğum 7876
açık@@ 7869
çalışmalar 7866
kut@@ 7865
yıllar 7859
id 7858
kendine 7856
müziği 7856
yet@@ 7850
nüfusunun 7848
etme 7847
â 7845
amacı 7844
dönüş@@ 7840
tane 7839
olduğuna 7838
olmadığını 7837
inan@@ 7836
sekiz 7835
değer 7830
70 7826
biçimde 7821
kem@@ 7821
esiyle 7820
oluşturan 7813
ılık 7811
ilerini 7807
gözlem@@ 7805
kontluğunda 7803
Bur@@ 7791
may@@ 7787
Atatürk 7784
teslim 7783
ayan 7781
parish 7781
ük@@ 7781
du@@ 7774
günlük 7772
civil 7770
kararı 7766
Gül@@ 7764
pat@@ 7762
ez 7760
muştur 7753
S 7752
1965 7750
klasik 7748
dür 7747
alanda 7743
Çok 7742
ılara 7740
erin 7736
uygulam@@ 7732
doğan 7731
sahipliği 7718
van 7718
Kaz@@ 7715
1966 7713
F 7712
örneğin 7711
İrlanda 7707
İç 7707
yum 7703
1940 7701
idae 7697
ıy@@ 7686
35 7682
siyah 7676
L 7675
Am@@ 7674
ane 7674
çalışmaya 7670
ül 7660
fer@@ 7659
Aday 7656
nu 7643
yere 7642
û@@ 7641
güç@@ 7635
Ver@@ 7631
luğu 7629
ıt@@ 7624
ber@@ 7623
ot 7621
Yine 7614
önceleri 7614
öğretim 7608
Tur@@ 7607
1964 7605
yasa 7605
Sosyal 7603
De@@ 7594
umu 7593
eceği 7584
mişlerdir 7582
eleştir@@ 7581
aşırı 7579
veri 7579
yılda 7577
anti@@ 7574
oluşmaktadır 7573
tartış@@ 7566
ettiler 7562
bey@@ 7556
yılın 7556
ailesi 7551
müş 7551
har@@ 7550
ki@@ 7543
ölümünden 7543
üz@@ 7543
20. 7541
dağıt@@ 7533
giriş 7533
seçil@@ 7529
karşılık 7527
anlam 7526
layan 7524
Te@@ 7523
bilgisayar 7523
yapmaya 7523
toprak 7520
Kol@@ 7514
Konseyi 7511
listesinde 7506
etmesi 7503
ro@@ 7503
abilen 7498
ale 7498
fiziksel 7483
iliği 7482
İspanyol 7477
olojik 7470
asından 7466
General 7465
Trabzon 7465
gelebilir 7461
anların 7459
sağlık 7454
geliştir@@ 7453
kaybetti 7450
Oyuncu 7449
kullanımı 7448
lo@@ 7448
kalmıştır 7433
sivil 7433
leştir@@ 7430
ans 7421
Tar@@ 7420
insanlar 7420
M 7417
mek@@ 7413
res@@ 7408
Arapça 7406
türüdür 7403
tel@@ 7399
uz 7389
değerlendir@@ 7388
Hasan 7387
45 7386
lanması 7384
ey 7376
ah 7368
gerekli 7368
bazıları 7355
filminde 7354
leş@@ 7354
yıl@@ 7354
Meksika 7352
Belçika 7351
güvenlik 7351
yaparak 7349
isti@@ 7346
TBMM 7344
ıma 7341
onlar 7339
yazı 7339
1944 7336
içi 7336
dar@@ 7324
1963 7323
yayımlandı 7321
ıl 7321
filmde 7320
Bulgaristan 7317
teleskopla 7316
madı 7314
Birçok 7311
oluşturur 7311
yön@@ 7304
32 7302
Dönem 7299
dam@@ 7298
Peter 7296
sonradan 7295
sözleşme 7294
arın 7290
sebep 7288
tepe 7283
şirket 7283
merkezli 7282
suz 7282
ger@@ 7275
elem@@ 7273
ant@@ 7269
henüz 7267
olduğundan 7263
ing 7262
Karadeniz 7258
oluştuğu 7256
Katalog 7242
uzay 7229
çal@@ 7225
3.@@ 7224
do 7223
ko@@ 7223
giriş@@ 7213
görülen 7212
dolayısıyla 7211
Microsoft 7206
Fransızca 7205
adlandırılan 7204
dar 7204
mekteydi 7203
yandan 7202
Gökyüzünde 7200
list@@ 7198
geçer 7196
yüzünden 7195
Albüm 7182
kaynağı 7179
boş@@ 7174
dağ 7171
İbrahim 7171
söz@@ 7166
güneyinde 7165
yapılır 7163
kaya 7160
larındaki 7160
Arjantin 7159
sel@@ 7150
1. 7147
sonlarında 7146
ödül 7146
belirtti 7145
sağladı 7145
ha 7143
Dış 7141
edir 7141
eline 7137
zengin 7137
Tan@@ 7134
getirildi 7134
Sal@@ 7131
ken@@ 7131
eğ@@ 7128
sayılı 7128
4. 7127
Adana 7125
aklar 7119
biy@@ 7119
be 7117
kıy@@ 7113
ız@@ 7108
Efendi 7107
alan@@ 7104
kir@@ 7101
Grand 7100
1941 7099
çift@@ 7098
sol@@ 7095
destek@@ 7091
karşın 7089
mümkün 7089
Kat@@ 7084
eg@@ 7080
Jean 7078
maçına 7068
za 7068
ıyı 7068
han@@ 7067
sağlamak 7067
Federasyonu 7058
parti@@ 7056
liğin 7052
ağır@@ 7051
Hukuk 7049
ciddi 7042
lığını 7041
Ardından 7037
Angeles 7029
aslında 7029
1962 7028
lisans 7027
iydi 7025
önünde 7025
Babası 7024
karış@@ 7024
mayan 7018
st@@ 7018
ge 7015
şöyle 7014
rock 7005
Kralı 7000
asıyla 6997
ağa 6996
Bölümü 6994
1959 6993
1956 6989
kar 6988
programı 6986
etkil@@ 6985
dal@@ 6979
po@@ 6979
gerek@@ 6977
evlendi 6976
alm@@ 6973
medi 6972
yapısı 6971
World 6964
be@@ 6963
bugün 6961
mışlardır 6959
ilişkin 6956
mez@@ 6952
Aş@@ 6950
kaynak 6950
do@@ 6948
yavaş 6947
500 6942
hükûmet 6939
orada 6932
üst@@ 6931
Hitler 6929
kültür 6928
ikisi 6927
ğe 6919
olacak 6917
polis 6910
Müdürlüğü 6907
ısını 6907
Eğer 6898
eseri 6893
okul 6891
Dışişleri 6886
üretimi 6885
antik 6881
ortadan 6878
tiği 6878
Mu@@ 6876
tes@@ 6876
aksine 6875
Süleyman 6872
kav@@ 6871
yapar 6871
babasının 6868
ip@@ 6868
On@@ 6866
ısının 6866
kralı 6863
ide 6862
ker@@ 6857
kapat@@ 6856
mesinde 6854
Kom@@ 6852
can 6850
anlamlara 6846
kaf@@ 6846
kg 6846
gösterdi 6842
bilin@@ 6836
yaşam@@ 6836
lay@@ 6827
dakika 6824
Ermenistan 6816
Mas@@ 6815
.. 6814
hi@@ 6811
lideri 6810
düz@@ 6808
tü@@ 6807
Man@@ 6806
Hüseyin 6801
sil@@ 6801
Sel@@ 6800
işi 6800
Antalya 6797
imler 6795
dev@@ 6794
von 6794
üy@@ 6793
yonu 6784
elerinden 6783
dikleri 6781
ko 6780
şampiyon@@ 6780
cinsel 6776
kale 6776
kapsamında 6776
lanma 6775
1946 6773
me@@ 6773
karar@@ 6766
ıklar 6763
lardaki 6762
dir@@ 6760
kişisel 6760
hakkı 6755
yağ@@ 6748
1958 6745
Ham@@ 6745
korun@@ 6745
sınır@@ 6742
Gölü 6734
alarından 6732
adaki 6731
asyon@@ 6731
for 6727
çizgi 6727
değiştir@@ 6723
Sivas 6721
ucu 6718
gizli 6717
karakter 6715
giderek 6710
Park 6709
Bo@@ 6703
gerçekleştirilen 6698
Norveç 6697
açıl@@ 6697
yaşındayken 6697
masıdır 6695
Üç 6691
Gürcü 6690
Belediyesi 6685
X@@ 6685
hızla 6677
Es@@ 6673
bildir@@ 6670
biraz 6670
Antik 6669
tarım 6662
ıklarını 6660
Bak@@ 6658
değişik 6658
sır@@ 6656
Kır@@ 6655
köyü 6654
giden 6644
politik 6641
Taş@@ 6636
bunların 6636
dikten 6635
hesap@@ 6629
getirdi 6628
St 6625
Erzurum 6622
radyo 6622
tu@@ 6619
çekil@@ 6618
NBA 6617
Kap@@ 6616
ati 6616
dü 6615
giydi 6612
1918 6610
başarı 6608
sürdür@@ 6607
sene 6604
ölüm 6602
kullanan 6596
Hint 6589
silah 6581
model 6578
andı 6576
edi 6564
geçmiştir 6562
sız@@ 6558
lanmıştır 6556
1957 6555
toplamda 6552
Basketbol 6551
ize 6550
yenil@@ 6549
IV 6548
On 6542
Camii 6541
Filmin 6537
gen 6537
Cumhurbaşkanı 6536
ze 6534
doğumlu 6532
ımları 6531
üm 6529
mad@@ 6520
faaliyet 6518
Denizi 6517
ul 6515
nedeni 6514
savunma 6512
Konya 6511
Sh@@ 6509
ilerden 6509
web 6507
olay 6502
ilerinden 6501
yurt 6497
Ch@@ 6493
almaya 6492
ulaştı 6491
Sosyalist 6490
Yunanca 6484
model@@ 6481
Başkan 6479
eser 6472
alardan 6471
endi 6470
Re@@ 6465
Venedik 6463
1954 6462
1955 6457
isidir 6457
lıkları 6455
ye@@ 6450
ley@@ 6448
ke@@ 6446
kişidir 6445
katılan 6441
tah@@ 6441
askerî 6436
to@@ 6435
tor@@ 6434
zi 6434
1943 6433
sınır 6431
Stadyumu 6428
uzak 6428
if@@ 6426
etnik 6420
müştür 6419
taşın@@ 6417
roman 6412
indir@@ 6411
akta 6404
muhtemelen 6402
va 6402
V 6401
1948 6400
kıl@@ 6395
uğr@@ 6395
elerden 6387
kullanıldı 6386
ölç@@ 6386
lidir 6378
mü@@ 6378
şampiyon 6373
finale 6372
halkı 6367
ite 6365
madde 6364
ard@@ 6363
Danimarka 6361
Henry 6358
Ölümü 6358
üsü 6358
Adası 6356
Adaylık 6356
Uzun 6355
ks@@ 6355
ladı 6355
Osman 6354
ham@@ 6350
çıkış 6349
yüz 6346
imleri 6339
önde 6339
başardı 6338
gerçekleş@@ 6337
oynayan 6335
özelliği 6334
ıda 6331
Thomas 6328
gereken 6324
ığına 6322
1939 6320
Milletler 6320
Kızıl 6319
program@@ 6319
ses@@ 6317
Sey@@ 6316
koş@@ 6315
Kategori 6314
landığı 6313
meler 6308
tu 6303
League 6301
ba 6301
ödülü 6299
Nazi 6296
kuvvetleri 6294
şampiyonu 6288
Samsun 6287
seçimlerinde 6286
yen 6286
ığından 6286
genelde 6284
Mehmed 6283
tedavi 6283
Sırbistan 6279
gerektiğini 6273
kurum@@ 6269
Genç 6267
Tiyatrosu 6266
ismini 6265
merkez@@ 6265
birbirine 6259
ala 6257
girmiştir 6257
seçilmiştir 6256
örgüt@@ 6250
imin 6249
değer@@ 6247
birisi 6244
bo@@ 6242
ağ 6239
Mak@@ 6238
lamak 6237
Say@@ 6236
işe 6234
Komünist 6233
sert 6233
Ben 6232
ılarının 6227
Final 6213
müz@@ 6213
asıdır 6207
Yar@@ 6204
kurtar@@ 6204
zor 6204
İz@@ 6197
verilir 6196
Tür@@ 6194
asker@@ 6194
civarında 6194
güzel 6192
milyar 6192
elinde 6191
maktaydı 6191
hak@@ 6179
ımlar 6177
arab@@ 6175
göl@@ 6171
tir@@ 6170
yakın@@ 6170
adam@@ 6164
itibarı 6163
durum@@ 6162
Richard 6157
yla 6157
yazılan 6155
bölgeye 6151
düzenli 6150
lenen 6150
end@@ 6146
saha 6146
sürdü 6139
2@@ 6136
Oyunları 6136
ılarını 6136
yaşadı 6134
hafif 6133
ıdan 6120
kullanılarak 6118
oc@@ 6116
Kısa 6111
güven@@ 6111
liğine 6108
dik@@ 6107
manı 6107
N 6103
emi 6102
ob@@ 6101
dizisinde 6095
yük@@ 6094
kam@@ 6093
basit 6092
maç@@ 6091
x@@ 6089
eriş@@ 6088
kişiler 6083
Antlaşması 6080
dır@@ 6080
çiler 6080
iyor 6078
eci 6077
Washington 6076
birden 6075
Ah@@ 6074
kanıt@@ 6072
tutuk@@ 6071
Yönetim 6069
kiş@@ 6068
gümüş 6065
Havalimanı 6061
mem@@ 6060
noktası 6055
oz 6055
til@@ 6055
vermektedir 6047
etler 6046
taşındı 6046
olay@@ 6043
gerçekleşen 6040
etki 6039
saldırı 6035
1942 6033
Genellikle 6030
mamış 6029
çekildi 6027
dayan@@ 6026
pop 6026
asıllı 6023
açıklam@@ 6022
günümüze 6021
karakter@@ 6020
Romanya 6019
lıdır 6013
ığını 6012
sahipti 6008
kulüp 6004
ans@@ 5998
beşinci 5998
mam@@ 5996
yönetmen 5995
dalında 5994
gören 5993
Kırım 5992
lenmiş 5991
tamam@@ 5991
başkan 5990
lak 5990
şiir@@ 5988
tanınan 5986
oyun@@ 5983
sonuna 5981
United 5979
Car@@ 5978
haber 5977
Bil@@ 5976
ten@@ 5975
1953 5973
Bat@@ 5972
diş@@ 5971
sev@@ 5970
ikler 5969
Rusça 5968
hukuk 5965
1919 5962
edilebilir 5962
otur@@ 5961
bitirdi 5960
uc@@ 5960
Sam@@ 5959
Yap@@ 5957
You 5956
ağaç 5956
atik 5952
kullanılabilir 5952
yerli 5949
malı 5942
Bay@@ 5933
araç 5933
geçiş 5928
G 5917
Olimpiyat 5910
vi@@ 5907
Tr@@ 5905
istifa 5904
zarar 5903
geçici 5902
ino 5902
kent@@ 5901
nes@@ 5900
silah@@ 5898
Saint 5897
vur@@ 5897
Katolik 5896
albümün 5895
Gö@@ 5892
başlat@@ 5892
Finlandiya 5891
Bah@@ 5887
Ahmed 5886
Doğ@@ 5886
ano 5886
hükûmeti 5883
emekli 5882
çıkardı 5881
proj@@ 5880
ettir@@ 5879
görülmektedir 5879
yayınlanmıştır 5877
1952 5875
örü 5874
çalışır 5871
Gal@@ 5868
Yüzölçümü 5868
diğinde 5868
Türk@@ 5867
gösterildi 5864
Kutsal 5862
numaralı 5862
Erkekler 5860
tutul@@ 5860
Dağı 5857
şehridir 5853
Mem@@ 5850
benzeri 5847
Milli 5845
başlamış 5845
andan 5843
internet 5842
Komitesi 5839
amaz 5838
üc@@ 5835
olumlu 5833
landı 5832
keşf@@ 5826
tahta 5824
Viyana 5821
dönem@@ 5821
önceden 5821
ılabilir 5821
uygulan@@ 5818
öğrenci 5818
şey@@ 5818
memiş 5816
imzaladı 5815
ilerine 5813
5@@ 5811
yaz 5802
babasıdır 5799
fil@@ 5799
gerçekleştir@@ 5799
DNA 5797
ter 5797
Şu 5797
Almanca 5791
pan@@ 5791
cı 5790
can@@ 5786
ton@@ 5786
cinsidir 5784
top 5781
sorumlu 5779
katıldığı 5777
Meclis 5776
zamanlar 5772
azalt@@ 5770
Fer@@ 5767
ailesinin 5766
pazar@@ 5766
leşme 5765
resim 5763
demir 5761
mes@@ 5754
karşıl@@ 5749
onlara 5749
oldukları 5748
üt@@ 5748
Diyarbakır 5746
ent@@ 5744
geldiği 5744
ığında 5743
yaşamı 5736
Billboard 5733
tanın@@ 5733
İsa 5731
biçim@@ 5726
lerindeki 5724
liğinin 5723
ark@@ 5719
sabit 5716
sınıf 5714
Arnavutluk 5713
zamanlarda 5713
sefer 5710
sim@@ 5710
Söz@@ 5709
bölgenin 5704
ederken 5702
olmadan 5700
hakları 5699
ru@@ 5697
koruma 5695
isinden 5694
Akademi 5692
1949 5684
akları 5683
Eyaleti 5682
Louis 5680
ısına 5680
eceğini 5678
gerekir 5677
por 5677
siz@@ 5677
1947 5676
altındaki 5676
aralarında 5673
edildiği 5668
aç 5664
güneş 5662
mağlup 5660
sıcak 5659
komündür 5656
renk 5653
ig@@ 5652
hizmet@@ 5651
bunlar 5647
Can@@ 5644
300 5643
ayrımı 5641
Şampiyonlar 5635
1938 5632
elli 5631
asıl 5630
Di@@ 5629
birliği 5629
Erkek 5627
Kam@@ 5627
parça 5627
barış 5626
seri 5626
lenmesi 5622
Adaları 5621
başladığı 5621
kimyasal 5621
iv@@ 5620
so@@ 5620
yönetmenliğini 5619
çalışması 5618
eşit 5611
Sev@@ 5609
ail@@ 5608
su@@ 5608
ettiğini 5607
İnsan 5604
St@@ 5603
ımın 5602
serisi 5600
kom@@ 5599
duyurdu 5595
Çağ 5594
amaçlı 5593
başvur@@ 5593
yönettiği 5592
üyle 5590
P 5588
Love 5587
çarp@@ 5587
Mü@@ 5584
lenir 5584
plan 5583
toplumsal 5583
ımını 5583
performans 5582
kalp 5580
siyon 5580
attığı 5579
böyle 5579
rolü 5578
Üçüncü 5574
Atina 5572
kin@@ 5572
çöz@@ 5572
ib@@ 5571
Le@@ 5570
ğinin 5569
hedef@@ 5568
takım@@ 5568
ilerle 5566
Latin 5562
batısında 5562
net 5560
yeşil 5559
kamu 5557
laş@@ 5556
öz 5555
lıklar 5554
Ko@@ 5553
bozul@@ 5553
yazılmış 5553
bileş@@ 5551
familyasıdır 5551
kurulu 5542
uma 5542
Modern 5541
Martin 5540
Oyun 5540
kadınlar 5538
are 5535
ğine 5534
Records 5528
anlı 5527
zamanında 5527
aynalı 5526
sezonunun 5523
Aydın 5520
adam 5520
gaz 5519
ih@@ 5517
nak@@ 5512
doğusunda 5509
Kudüs 5508
durumunda 5507
kilise 5507
kov@@ 5507
ayla 5505
istedi 5504
lığın 5504
sap@@ 5503
halka 5496
iletişim 5493
sarı 5493
katı 5492
vak@@ 5489
Fatih 5488
Su 5486
anl@@ 5485
tır@@ 5483
ch@@ 5482
bakımından 5478
komut@@ 5476
ateş 5475
üs 5475
has@@ 5474
Em@@ 5473
Erken 5472
aj 5471
1925 5469
Sağlık 5469
alma 5469
amadı 5469
katkıda 5469
eserleri 5465
ilerek 5464
kendisinin 5463
uları 5462
Han@@ 5461
başlandı 5461
kilometre 5461
off 5459
ayar@@ 5458
nam@@ 5456
boyut@@ 5455
fir@@ 5452
gez@@ 5451
dik 5449
türleri 5449
bölüm@@ 5448
kuş 5446
ölümü 5445
dünyada 5444
kalm@@ 5444
duvar@@ 5443
uydu 5443
kil@@ 5438
tarih@@ 5436
van@@ 5432
başlıca 5431
yayım@@ 5430
Birleşmiş 5429
devlet@@ 5426
birleştir@@ 5424
ran@@ 5422
sen 5421
sonuçları 5421
Güvenlik 5418
Yen@@ 5418
bağlıdır 5411
İs@@ 5410
1936 5408
işaret 5407
anan 5405
Bul@@ 5401
uçak 5401
mel@@ 5400
gü@@ 5398
iti@@ 5398
başarısız 5396
anlamda 5394
standart 5394
4@@ 5391
Savunma 5390
lerdeki 5389
Ve 5388
kitap@@ 5388
Bey@@ 5386
Yer@@ 5386
Farsça 5384
evinde 5383
fi 5383
kaybet@@ 5383
kurtul@@ 5383
6@@ 5382
üs@@ 5381
kr@@ 5380
sarmal 5379
yakınlarında 5378
eylem@@ 5377
ok 5376
maruz 5375
sık@@ 5375
leridir 5372
numaraya 5370
sezonda 5370
olog 5369
İl 5369
Ek@@ 5367
Sür@@ 5367
Kad@@ 5366
kullandığı 5366
Mor@@ 5364
1951 5358
5. 5357
Tab@@ 5354
ed 5354
$ 5353
kı@@ 5353
çab@@ 5352
çıkart@@ 5352
Lee 5350
Sırp 5346
ekiplerinden 5346
1933 5343
kayıt 5343
oper@@ 5343
yalı 5340
ülkeler 5340
H 5339
1921 5338
filmidir 5338
yem@@ 5338
dijital 5336
dalga 5334
sa@@ 5334
kıs@@ 5332
Sin@@ 5331
çekti 5331
7@@ 5330
modeli 5330
sem@@ 5329
ari 5328
kulübü 5327
suyu 5327
Bab@@ 5326
imini 5325
mil@@ 5324
lığına 5323
dile 5319
1922 5317
Makedonya 5317
Var@@ 5317
birlikleri 5317
mah@@ 5316
Tek 5314
kat 5314
komedi 5313
sk@@ 5312
elektronik 5311
4.@@ 5310
adayı 5309
renkli 5309
mal 5308
Adalet 5307
artır@@ 5307
kilis@@ 5307
ef@@ 5306
irdi 5306
bugünkü 5305
üniversite 5305
motor 5304
Mon@@ 5303
alam@@ 5301
Bölge 5298
gaz@@ 5296
1935 5295
ığın 5293
yola 5291
Kab@@ 5290
ilişkileri 5289
lenmiştir 5288
ister 5287
sürdürdü 5287
sınıf@@ 5280
şair 5279
tü 5278
kel@@ 5277
Uz@@ 5275
Vakfı 5275
del 5273
katılmıştır 5269
min@@ 5265
ep@@ 5264
ilerde 5264
maça 5263
Joseph 5260
og@@ 5260
sezonun 5255
Al 5254
Bundan 5254
elerle 5252
Tiyatro 5250
yal@@ 5244
dedi 5243
abilecek 5242
adığı 5242
kullanır 5242
sanatçısı 5241
abilmektedir 5240
MS 5238
alık 5237
dolar 5235
Adam 5231
geçmiş 5231
kurucusu 5231
Google 5229
Yerli 5229
33 5228
halde 5225
kuşat@@ 5222
edi@@ 5218
ang@@ 5215
Bor@@ 5209
mezar@@ 5207
kür@@ 5206
yanlış 5204
Apple 5202
memiştir 5199
dis@@ 5192
Dağları 5187
Tem@@ 5186
oynamıştır 5185
1923 5182
arttır@@ 5182
ediyor 5182
petrol 5182
yaşanan 5182
yayınlan@@ 5176
Hav@@ 5174
Demokratik 5173
yönetilen 5169
3@@ 5166
lüğü 5165
ödülünü 5165
uygulama 5164
Araştırma 5162
Mil@@ 5159
değeri 5157
geçerek 5153
ydi 5153
bıraktı 5150
ilebilir 5148
yanına 5148
mut@@ 5147
erler 5146
hayatta 5144
liler 5144
anlaşma 5142
köyün 5141
eser@@ 5140
buldu 5139
karmaşık 5138
one 5138
sürede 5138
eş 5137
konser@@ 5137
6. 5136
Dev@@ 5136
best@@ 5136
hastal@@ 5136
Kazakistan 5133
onay@@ 5130
lardı 5127
teşvik 5124
test 5123
takımları 5122
Madrid 5121
ati@@ 5121
ildiği 5120
Val@@ 5118
ae 5118
rol@@ 5118
Kraliyet 5115
Parkı 5115
ilişkiler 5115
okulu 5115
idam 5113
evlen@@ 5112
şiir 5111
16. 5106
girişim@@ 5106
yetiştir@@ 5106
alınmıştır 5104
Yarı 5101
don@@ 5099
vermek 5096
etleri 5095
vad@@ 5095
Evli 5094
devr@@ 5091
Şah 5090
val@@ 5088
Çanakkale 5088
basketbol 5086
erdi 5086
Katılım 5084
görev@@ 5084
amaç@@ 5082
birim@@ 5082
statüsü 5081
deney@@ 5080
grubunun 5080
iştir 5078
isteyen 5077
min 5076
demiryolu 5075
kül@@ 5075
amı 5074
atan 5073
eğer 5073
ing@@ 5072
aittir 5068
ve@@ 5067
ıt 5067
andır 5062
Gür@@ 5061
halkın 5061
1924 5060
arkadaş@@ 5058
açıdan 5057
no 5057
hareket@@ 5051
ürün 5050
eğitimini 5048
Yılın 5046
lu@@ 5045
Bosna 5043
savaşı 5043
malarını 5042
lem 5040
yöntem@@ 5040
miktarda 5039
duğunu 5038
lider@@ 5036
ner 5036
Her@@ 5035
edebiyat 5030
görevine 5030
hareketi 5026
yasal 5026
yerleşimi 5026
laması 5025
Çünkü 5025
kod@@ 5023
tas@@ 5023
adlandırılır 5022
ebil@@ 5021
tarihsel 5021
Den@@ 5018
başkanlığı 5016
Büyükşehir 5015
değildi 5011
yeterli 5011
üyesidir 5011
tığı 5008
1937 5007
çevresinde 5004
etrafında 5003
75 5001
Doktor 5001
talep 4999
küresel 4998
Kayseri 4996
Seç@@ 4995
andığı 4995
ailenin 4994
derin 4993
64 4991
kuvvet@@ 4989
Kalesi 4986
ice 4986
Mahkemesi 4984
med@@ 4984
mada 4983
şunlardır 4983
tehdit 4982
Bunların 4979
luk@@ 4979
400 4977
Mel@@ 4975
lık@@ 4975
yüzde 4974
erini 4973
kulüplerinde 4973
toplum@@ 4972
kaçır@@ 4971
açılan 4970
ğini 4970
geçirdiği 4969
yönetmeni 4969
esas 4968
etik 4968
inc@@ 4967
Aziz 4964
Me 4963
hayatına 4961
Kulübü 4958
yemek 4957
Eş@@ 4956
çalıştır@@ 4956
konum@@ 4955
Kav@@ 4954
eşlik 4950
çocuk@@ 4946
yönel@@ 4945
yüzey@@ 4945
artan 4944
ge@@ 4944
gemi 4944
istler 4944
mon@@ 4944
İsmail 4944
edip 4942
ordusunun 4941
davet 4940
gelişmiş 4940
1914 4939
Kir@@ 4939
sınırlı 4936
açıldı 4934
Kürt 4930
birer 4930
ete 4929
makla 4924
Müz@@ 4922
Tor@@ 4921
dokuz 4921
ilişki 4921
dayanan 4920
versiyonu 4920
yardımcısı 4919
1934 4917
olmakla 4917
biriydi 4916
bünyesinde 4915
karakteri 4915
alanları 4913
düşünül@@ 4913
böl@@ 4912
1912 4908
Tıp 4908
silahlı 4906
şek@@ 4906
Mersin 4905
SS 4902
ilk@@ 4902
Barış 4901
fotoğraf@@ 4898
önem 4896
yl@@ 4891
doldur@@ 4890
ders 4888
Dağ@@ 4887
bay@@ 4887
ötürü 4887
Kul@@ 4886
üre@@ 4886
ban@@ 4884
unvanını 4884
ıklı 4882
şarkının 4882
Pol@@ 4881
sı 4880
mavi 4879
18. 4877
lı@@ 4876
not@@ 4875
şah@@ 4871
Takımı 4866
ekibi 4863
34 4862
Dur@@ 4860
Me@@ 4859
Sonraki 4857
ligi 4855
Litvanya 4854
edebil@@ 4854
mediği 4854
Jackson 4853
dans 4853
eleme 4848
iddi@@ 4846
ımına 4846
başl@@ 4845
mey@@ 4844
olmaya 4844
Bağ@@ 4843
Ma@@ 4843
asa 4841
üstü 4839
İmparator 4839
kapalı 4838
sınıflandır@@ 4836
larıdır 4835
varsay@@ 4832
komutanı 4831
Star 4829
mamıştır 4829
okul@@ 4827
Bulgar 4825
lat@@ 4825
ihtiyaç 4824
Ticaret 4823
gruba 4822
karşılığında 4822
gelen@@ 4819
oluşturulan 4818
kullandı 4817
tarafında 4816
1917 4815
tarihlerinde 4814
yönet@@ 4814
One 4813
önüne 4812
graf@@ 4811
birinin 4809
00 4806
seçilen 4806
ülkelerde 4806
sağlam@@ 4805
Men@@ 4804
ayır@@ 4804
etti@@ 4803
kıyısında 4800
esnasında 4798
Sa@@ 4794
layarak 4794
th@@ 4794
Açık 4792
Ömer 4792
öldürül@@ 4792
bilgiler 4789
düşünülmektedir 4787
oda 4785
takımlarından 4783
örnek@@ 4783
Mah@@ 4781
Hanedanı 4779
48 4776
baskı 4776
medya 4775
araç@@ 4774
gö@@ 4774
tarzı 4774
özgü 4773
kültür@@ 4771
ley 4770
çıktığı 4770
ölümüne 4770
Sarayı 4769
ayrılır 4769
Devrimi 4768
arda 4768
parç@@ 4768
üstlendi 4766
Dar@@ 4765
Video 4765
atlar 4765
doğrul@@ 4765
oluşturduğu 4764
bundan 4760
spor@@ 4760
göç@@ 4759
dere 4757
oynamaktadır 4756
bü@@ 4755
ılarına 4752
7. 4751
Kut@@ 4749
bor@@ 4744
imza 4743
iyet@@ 4741
oğulları 4741
karşılaştır@@ 4740
36 4739
ateş@@ 4737
sistemleri 4737
Herschel 4735
iyordu 4735
işlet@@ 4734
San@@ 4732
hız@@ 4731
ill@@ 4729
köy@@ 4729
süresi 4728
yaşamaktadır 4728
ika 4727
tipik 4726
Filistin 4724
şark@@ 4723
söylem@@ 4722
bağlantılar 4720
kum@@ 4718
hane 4716
Murat 4715
toplum 4715
ücü 4715
hay@@ 4710
laşma 4709
pler 4707
uzanan 4705
gid@@ 4704
Bilim 4703
tüm@@ 4703
sisteminin 4702
kurucu 4700
yaptır@@ 4700
durumlarda 4698
şehirde 4697
abilirler 4696
Kitap 4695
bilim@@ 4694
tanr@@ 4694
hangi 4692
bastır@@ 4688
edin@@ 4688
Kum@@ 4685
Lis@@ 4685
WWE 4685
ikili 4685
ruh@@ 4685
gönderildi 4684
Yugoslavya 4683
kalma 4681
lendir@@ 4681
Maria 4680
giyen 4680
ins@@ 4680
geliştirilen 4679
lis@@ 4679
üyor 4679
olduktan 4678
nükleer 4676
ısıdır 4675
dılar 4673
sahn@@ 4672
çoğunluğu 4672
olar 4671
yazılmıştır 4670
Yıldız 4669
1926 4667
aracı 4667
uş 4667
aller 4666
sınıfı 4661
takımlar 4660
tarihinin 4660
tarihte 4659
araz@@ 4656
iyet 4652
Edward 4650
aşam@@ 4650
çalışmalarına 4650
ayarak 4649
açıklandı 4649
forması 4646
maların 4646
toplan@@ 4646
görüldü 4645
temsilcisi 4645
deniz@@ 4642
ıştı 4642
dayalı 4641
ındadır 4641
akla 4639
hücre 4638
mesidir 4635
Eskişehir 4633
ısından 4632
konser 4630
pleri 4626
hat 4624
hayat 4623
ifad@@ 4623
sıklıkla 4623
olabil@@ 4622
Selçuklu 4620
türlü 4620
edeki 4616
ığının 4614
Ac@@ 4612
olacaktır 4612
laştır@@ 4610
sin 4610
psik@@ 4608
canlandır@@ 4607
birisidir 4606
5.@@ 4604
kısmen 4604
tanıt@@ 4603
Balıkesir 4601
1927 4600
makin@@ 4597
De 4595
öncesinde 4595
küm@@ 4594
Latince 4592
etin 4590
Bakü 4589
Mes@@ 4589
olmay@@ 4589
yıldız@@ 4588
Mus@@ 4587
by 4587
sanayi 4586
My 4585
arasına 4584
nüfusun 4580
Ker@@ 4579
direktör 4579
sonuç 4579
atif 4574
olojisi 4574
baz@@ 4573
göreve 4573
ılmaktadır 4573
ıç@@ 4573
— 4573
tim@@ 4572
yazılım 4572
dağıl@@ 4571
geç 4571
Macar 4568
saf@@ 4568
hakkındaki 4566
des 4565
organ@@ 4565
ie 4564
taraf@@ 4563
adının 4562
Yerel 4561
Yüz@@ 4561
kaydetti 4559
ortasında 4559
Et@@ 4558
aşı 4556
Bankası 4555
fi@@ 4554
Mut@@ 4551
Kurtuluş 4550
ardı 4550
belediyeye 4550
gerçek@@ 4550
TRT 4549
zu 4545
kendilerini 4543
Le 4542
West 4542
bakış 4541
uzaklıkta 4541
yası 4541
lak@@ 4540
Edirne 4539
sağlay@@ 4539
ilmektedir 4538
çocukları 4537
Sem@@ 4536
olaylar 4536
38 4535
incelem@@ 4535
göstermiştir 4533
Yak@@ 4531
kullanım 4530
sur@@ 4530
‎ 4530
ayrılmıştır 4529
yazmıştır 4529
çıkmış 4528
derecede 4527
Güzel 4526
Kr@@ 4526
halk@@ 4524
tiler 4524
bölümde 4523
çevre 4523
soğuk 4522
Hak@@ 4521
boyu 4521
boz@@ 4521
55 4519
işletim 4519
SSCB 4518
ıktan 4518
Abdullah 4516
yapılmaktadır 4514
özel@@ 4511
hüküm@@ 4510
Bugün 4509
abileceği 4509
düştü 4509
acaktı 4508
esindeki 4506
kö@@ 4506
Sen@@ 4504
ret@@ 4501
Bunlardan 4500
duyur@@ 4500
üç@@ 4500
Kas@@ 4499
ederler 4498
Takım 4496
ita 4496
adlandır@@ 4495
likleri 4494
om 4493
bölgesinin 4491
ris@@ 4487
gerçekleşti 4484
bronz 4481
Gazi 4478
ade 4475
kardeş@@ 4475
kolay 4475
tav@@ 4474
Komünün 4468
Askeri 4466
Mir@@ 4465
abilmek 4465
ondan 4465
hüküm 4463
teor@@ 4460
gelmiş 4459
Mur@@ 4458
Gök@@ 4453
Papa 4450
yirmi 4450
İ 4450
Mad@@ 4449
Sonra 4449
Santa 4448
mit@@ 4447
yetkil@@ 4446
çağ@@ 4446
başlangıçta 4445
Q@@ 4444
1929 4443
Rock 4443
sıcak@@ 4443
kop@@ 4439
Prix 4438
ğinde 4436
Gr@@ 4435
film@@ 4434
ji 4434
Onun 4433
izi 4433
tıp 4433
8@@ 4432
yenerek 4429
Kızıl@@ 4428
ağın 4427
üz 4427
kavram@@ 4426
gruplar 4425
pol@@ 4425
asit 4424
donan@@ 4423
17. 4422
65 4422
Black 4422
ören 4420
Ay 4419
motor@@ 4419
Is@@ 4418
kral 4416
yayıl@@ 4415
birimi 4413
sorun@@ 4413
dışındaki 4411
desteği 4409
olmasını 4408
Ur@@ 4406
Ku@@ 4405
gazeteci 4405
soy@@ 4405
ürünleri 4404
devletin 4403
atıl@@ 4402
aday@@ 4401
ırdı 4396
düz 4392
manyetik 4392
mis@@ 4391
öldürüldü 4391
37 4388
Bas@@ 4387
ari@@ 4387
Ekonomi 4385
dedir 4385
sonu 4384
Başbakan 4383
Br@@ 4383
Tokyo 4380
Yol@@ 4379
lilik 4379
bey 4378
kh@@ 4378
koşul@@ 4378
Selim 4377
To@@ 4377
kısmını 4377
renk@@ 4377
teklif 4377
üğü 4377
Ege 4375
Konusu 4375
Ok@@ 4374
Do@@ 4373
topl@@ 4372
Cup 4371
Kosova 4371
Show 4370
zaman@@ 4369
itler 4366
Dil@@ 4365
Karak@@ 4364
enc@@ 4363
yasak@@ 4363
düzey 4362
ire 4362
hattı 4360
organizasyon@@ 4359
Gençlik 4358
Cephesi 4356
Mac@@ 4355
Harry 4353
senesinde 4353
erde 4352
dönüştür@@ 4350
gerek 4347
mod@@ 4347
ılardan 4347
lığının 4346
1932 4345
kısmında 4345
Kastamonu 4344
Demokrat 4343
Cor@@ 4342
ura 4341
Music 4339
ast@@ 4338
urlar 4338
insanları 4337
bölgelerde 4336
okudu 4335
seyahat 4335
landır@@ 4333
hedef 4332
turda 4332
erkekler 4330
yerlerde 4330
hi 4328
erinin 4327
ladığı 4326
uyor 4326
br@@ 4323
tri@@ 4323
yerinde 4323
mini 4320
ker 4319
süreci 4319
şehir@@ 4319
Manisa 4318
alternatif 4318
Rus@@ 4316
sürüm@@ 4312
Afganistan 4311
dergisi 4309
kuruluş@@ 4309
Manchester 4308
denilen 4308
Sezon 4307
otomobil 4304
Sak@@ 4303
eserler 4303
Edebiyat 4302
land@@ 4302
V. 4299
kontrolü 4298
yo 4295
yok@@ 4295
dış@@ 4294
Sor@@ 4293
ma@@ 4292
olumsuz 4292
zamanla 4292
karısı 4290
yapılması 4288
Fil@@ 4287
dolaş@@ 4287
şirket@@ 4287
buz 4286
bölgesel 4285
mede 4284
lamaya 4283
teknoloj@@ 4282
Komutanlığı 4281
Kem@@ 4278
satış 4277
lad@@ 4276
feth@@ 4274
Ef@@ 4273
balık 4273
ayr@@ 4271
savaşın 4271
layık 4266
genelinde 4265
if 4265
oyunculuk 4265
ret 4264
kazandığı 4263
yansıt@@ 4263
çalışmalarını 4263
Smith 4261
durdur@@ 4260
COVID 4259
içermektedir 4257
ulu 4255
giz@@ 4253
kenti 4253
tabanlı 4253
taşı 4252
İm@@ 4252
Sol@@ 4251
ica 4250
mev@@ 4248
merkezinde 4247
All 4246
Din@@ 4246
Un@@ 4246
pr@@ 4246
terimi 4245
işbirliği 4244
ilişkili 4243
oynam@@ 4241
lılar 4239
Jack 4237
Çoğu 4237
yarısında 4235
yaşlı 4233
karakterini 4231
kişiden 4231
Don 4230
Del@@ 4229
alarla 4229
proje 4228
Boz@@ 4226
Pal@@ 4225
1931 4224
Komisyonu 4222
Min@@ 4222
çat@@ 4222
şart@@ 4222
tasarım 4221
İdari 4221
birini 4220
des@@ 4220
Kim 4219
sığın@@ 4218
başkanlık 4217
görevinden 4217
Entertainment 4216
Aşağıdaki 4214
korumak 4214
aylarında 4213
düşür@@ 4211
mant@@ 4211
rapor@@ 4208
ber 4207
işleri 4207
kleri 4205
ayak 4204
Bilimler 4203
sürüldü 4203
kalır 4202
günümüz 4201
köş@@ 4200
Tah@@ 4199
cam@@ 4199
esir 4197
kamp@@ 4195
eller 4194
kuzey@@ 4194
yaşamış 4193
leyici 4192
boğ@@ 4190
ılarından 4189
metr@@ 4188
şimdi 4187
Mat@@ 4186
bu@@ 4186
Th@@ 4185
adım 4185
işçi 4184
haber@@ 4183
şe 4183
Çek 4182
dığını 4181
anc@@ 4180
imli 4180
ledi 4180
işlem 4179
platform@@ 4179
Ro@@ 4178
sanat@@ 4178
yapıldığı 4178
yazılı 4178
çatış@@ 4178
km. 4176
maz@@ 4175
varlığı 4174
parlak 4169
Ertesi 4167
Sim@@ 4167
hac@@ 4167
ımda 4164
üniversit@@ 4162
isiyle 4161
zar@@ 4161
Şirket 4161
pap@@ 4160
bitir@@ 4159
alg@@ 4156
Android 4154
aktör 4154
romanı 4154
satışa 4154
düğü 4153
42 4151
çağr@@ 4151
A. 4150
ikleri 4149
tal@@ 4149
In@@ 4148
arken 4148
gazet@@ 4148
­ 4145
Rio 4144
lanabilir 4144
şampiyonluğu 4144
alanlarda 4143
komutasındaki 4143
Göl@@ 4142
aka 4141
akademik 4141
1915 4139
Kurumu 4139
hastalığı 4139
solo 4139
çö@@ 4139
cez@@ 4137
çekilen 4137
Federal 4136
Demir@@ 4135
pi@@ 4135
sergil@@ 4135
He@@ 4134
iptal 4134
üş@@ 4134
cinsine 4133
kişilerin 4132
gösterilmiştir 4131
sıcaklık 4131
ce@@ 4130
zayıf 4129
ekte 4127
eli@@ 4127
kısaca 4126
mahall@@ 4126
tekrar@@ 4126
çak@@ 4126
Mez@@ 4124
kayb@@ 4124
kıt@@ 4124
yılların 4124
İlçe 4123
Ortodoks 4122
başarısı 4122
ra@@ 4122
Ön@@ 4122
Frank 4121
gördüğü 4121
Balkan 4120
insan@@ 4119
Arka 4118
Haçlı 4117
Kuş@@ 4117
listesine 4117
bölümünü 4115
hariç 4114
ılmasına 4114
je@@ 4113
mekle 4112
bağlantı 4111
bina 4111
Po@@ 4110
eh@@ 4106
gider 4105
Hot 4104
ent 4103
güney@@ 4103
* 4102
aileden 4101
coğrafi 4100
etkileri 4100
sayım 4099
Silahlı 4096
Sayımı 4095
Çocuk 4095
yük 4094
amayan 4093
amamıştır 4091
ku 4090
teorisi 4090
Mc@@ 4085
bulundur@@ 4085
söy@@ 4083
Karl 4080
Sadece 4079
idare 4079
lerdi 4078
götür@@ 4076
kaynak@@ 4073
İşçi 4073
Ebu 4070
anması 4070
kendilerine 4069
Bunu 4068
sul@@ 4066
insanın 4065
oynan@@ 4064
sav@@ 4061
hazırlanan 4055
Pakistan 4053
kutsal 4052
yatır@@ 4052
özellikler 4052
lamıştır 4051
edilerek 4046
let@@ 4046
w@@ 4046
iklim 4045
muştu 4044
ılmasını 4044
kanalı 4043
Üniversit@@ 4043
ceph@@ 4042
sayılabilir 4042
AB 4041
Ge@@ 4040
tamamı 4040
yapım 4040
kayn@@ 4039
fark@@ 4038
kapsayan 4035
kurduğu 4035
yörüng@@ 4035
rolünü 4034
Sır@@ 4033
kın@@ 4033
sıvı 4031
benz@@ 4030
yayımladı 4030
ortam@@ 4029
Şam 4029
gök@@ 4028
mağ@@ 4028
bölgedeki 4027
Ke@@ 4025
kaleme 4023
oğ@@ 4023
ese 4021
Dört 4017
eki 4016
sam@@ 4016
üp 4014
eddin 4013
yum@@ 4012
gol@@ 4011
yesi 4011
hizmete 4010
öğ@@ 4010
cu@@ 4008
day@@ 4008
lanarak 4007
tep@@ 4006
kaldığı 4005
özgün 4005
Sav@@ 4004
aylık 4004
çalışmıştır 4004
OS 4002
köyünde 4002
tanınmış 4002
gazete 4001
kazanarak 4001
ell@@ 4000
mec@@ 3999
müzisyen 3999
bütün@@ 3998
tabak@@ 3998
anlık 3997
dizinin 3996
karşıtı 3996
dür@@ 3994
golünü 3994
lemek 3994
orman@@ 3994
malarına 3993
Bütün 3992
başlayarak 3992
hiss@@ 3992
mimari 3992
leyen 3991
altıncı 3989
kitabında 3989
idar@@ 3988
Bek@@ 3987
ella 3987
düzenlen@@ 3983
yönlendir@@ 3983
süz 3982
zaf@@ 3981
akt@@ 3979
no@@ 3979
1000 3977
Gel@@ 3975
dönen 3975
Yusuf 3974
alana 3973
bölgelerinde 3973
Belediyespor 3971
ciler 3971
ressam 3971
6.@@ 3970
Hırvatistan 3970
Yan@@ 3968
doktora 3968
Can 3966
Göz@@ 3966
istasyon@@ 3966
anlamı 3965
azi 3965
EP 3961
malıdır 3961
yardımıyla 3960
kalın@@ 3959
Altı 3958
ilç@@ 3958
sek@@ 3956
ağının 3955
gal@@ 3954
pu@@ 3951
derg@@ 3950
iği 3950
Pers 3948
uğraş@@ 3946
dilleri 3945
ılarda 3945
Kafkasya 3944
Play 3944
Yaklaşık 3943
metin 3942
Münih 3939
atör 3939
yürüt@@ 3938
ılarında 3938
oyuncular 3937
J. 3936
May@@ 3936
hatır@@ 3936
ja 3934
getiren 3933
gönderdi 3933
performans@@ 3933
Mo@@ 3929
8. 3928
Si@@ 3927
konul@@ 3927
Pro@@ 3925
olası 3925
başkan@@ 3923
ı.@@ 3923
sonuç@@ 3920
Kaynakça 3919
lenme 3918
çilik 3918
eleriyle 3916
kadınların 3916
Has@@ 3915
M. 3915
görülmüştür 3913
varlığını 3912
Sab@@ 3909
ant 3909
elen@@ 3908
kolon@@ 3907
dilinde 3904
mac@@ 3904
Naz@@ 3901
oyunun 3901
bar 3900
dağılımı 3899
resim@@ 3898
savaşa 3898
ida 3897
Pap@@ 3896
oluşturul@@ 3894
Zaman 3893
Prens 3892
ilham 3892
kullanıcı 3892
King 3890
eyalet 3889
Rom@@ 3888
çevrel@@ 3888
150 3887
Albümün 3886
emez 3886
ikiye 3886
kın 3886
ulaşan 3885
Club 3883
Yas@@ 3882
göl 3880
ödül@@ 3880
derec@@ 3879
yazar@@ 3878
Ne 3876
Res@@ 3876
ağına 3876
Kâ@@ 3875
toplant@@ 3873
Uzay 3872
Daniel 3871
buluş@@ 3871
ikna 3871
Pan@@ 3870
Gaz@@ 3869
plak 3867
ılarla 3867
Man 3866
binlerce 3862
far@@ 3862
organiz@@ 3862
doğmuştur 3861
sh@@ 3859
gösterime 3855
ayaklan@@ 3854
dak@@ 3854
birlik 3851
etkin 3851
yüzey 3851
üzer@@ 3851
​ 3851
Buffy 3850
Far@@ 3850
değişikliğinden 3850
sistem@@ 3850
lin 3849
başladılar 3848
rak@@ 3848
serv@@ 3848
Kış 3845
otomatik 3845
Alexander 3844
değişiklik 3843
oyunları 3842
vergi 3842
değerli 3841
başlattı 3840
sefer@@ 3840
düzenlendi 3839
program 3839
düzenlem@@ 3837
indedir 3837
ımında 3837
For@@ 3836
gec@@ 3835
vek@@ 3835
siy@@ 3833
ulan 3833
ıcılar 3832
all@@ 3831
diren@@ 3830
sey@@ 3830
ann@@ 3828
ardır 3828
belirgin 3827
ora 3826
tepki 3826
mikro@@ 3824
sebebi 3824
temiz@@ 3823
gerçekleştirildi 3822
madığı 3822
Kent 3821
enen 3820
unvanı 3820
Şah@@ 3820
organize 3819
şer@@ 3819
1916 3818
yüzyıldan 3818
72 3817
mümkündür 3816
yaşamını 3815
saç@@ 3814
Live 3813
güçleri 3813
onunla 3813
Chicago 3812
koleksiyon@@ 3812
tanınır 3812
anne 3809
ulaşım 3809
yöntemi 3809
dakikada 3808
ta@@ 3808
İskoçya 3806
cihaz@@ 3805
üstünde 3805
ima 3803
Zelanda 3801
bulunmaktaydı 3801
yaşan@@ 3800
olacağını 3799
any@@ 3797
yerleştir@@ 3797
ga 3795
şarkıyı 3794
değiştirildi 3793
temsilc@@ 3793
Dal@@ 3792
denem@@ 3792
ağında 3791
bölün@@ 3789
gar@@ 3789
telefon 3788
Alt@@ 3787
yü@@ 3785
çıkardığı 3785
şarkıları 3785
18,7 3784
ebilen 3784
filmleri 3784
halkının 3784
Mary 3783
Sah@@ 3783
dü@@ 3783
eği 3781
Nobel 3780
Yay@@ 3780
karşıya 3780
oluşturmak 3780
Siyasi 3779
47,5 3776
yaşındaki 3776
1908 3774
alması 3772
takıma 3772
Yıl@@ 3771
yaptıkları 3771
aşağı 3770
bilg@@ 3770
eyle 3770
hakim 3770
sıradan 3770
takımda 3770
Konstantinopolis 3769
Pat@@ 3768
sürümü 3768
arkadaşları 3767
art 3766
bilgisayar@@ 3766
ığ@@ 3766
Sakarya 3765
lise 3763
Dol@@ 3761
Son@@ 3761
tasvir 3761
Hanım 3759
Vadisi 3759
aması 3759
endi@@ 3759
çı@@ 3759
şiddetli 3759
araştırmalar 3758
kasab@@ 3758
vererek 3758
dönemlerde 3757
seslendir@@ 3757
halen 3756
Kongresi 3754
ağaç@@ 3753
suç 3753
boyutlu 3750
Mev@@ 3748
etmeyi 3748
hızı 3748
Yılmaz 3747
Kur 3746
kanal@@ 3746
Red 3745
kaynakları 3745
klip 3745
üş 3745
hayvan@@ 3744
seviy@@ 3744
gösterdiği 3743
lan 3743
alıp 3742
açıkça 3742
yakalan@@ 3742
çisi 3742
yarışması 3741
Muh@@ 3738
olmaktadır 3738
uçak@@ 3737
9. 3735
Sü@@ 3735
ilip 3734
Baba 3733
Bi@@ 3732
istan 3732
düşman@@ 3729
Kütahya 3727
resmen 3727
sürül@@ 3727
anılan 3726
Gu@@ 3725
Voleybol 3725
görür 3724
toprakları 3724
ıcısı 3721
bahç@@ 3719
yanın 3719
Körfezi 3718
inci 3718
formasını 3717
ündeki 3716
Mark 3713
uğu 3713
Yardımcısı 3710
yapma 3709
geliştirme 3708
sok@@ 3708
ülkelerin 3706
Savaş@@ 3705
Hor@@ 3704
ağırlıklı 3703
çalıştığı 3701
kıyı 3700
Çağı 3699
Lübnan 3696
felsefe 3696
kesim@@ 3696
Pr@@ 3694
top@@ 3694
urken 3693
ülkesi 3693
ligde 3692
Gaziantep 3691
lanmaktadır 3690
São 3689
arasındadır 3687
ğ 3686
anlatır 3684
maktan 3684
yükselen 3684
savaşta 3683
Marmara 3678
hapis 3678
44 3677
Real 3677
taraf 3677
acak@@ 3674
lenebilir 3674
oloj@@ 3674
tam@@ 3673
yarım 3673
1913 3672
Albert 3672
Nokia 3672
ekler 3671
ters 3671
koyu 3670
nokt@@ 3670
• 3670
bağış@@ 3668
evlilik 3668
korum@@ 3668
ancı 3667
görüntü 3666
kabil@@ 3665
Williams 3663
maması 3663
Tom 3662
emek@@ 3662
uzunluğu 3661
öğrencisi 3659
ısında 3659
ilerlem@@ 3657
Met@@ 3656
Rum 3656
ekonomi 3656
düşen 3655
kalıcı 3655
İç@@ 3654
Roman 3653
albümüdür 3653
lendi 3653
pal@@ 3653
zamana 3653
Gar@@ 3652
Pasifik 3652
büyük@@ 3652
International 3651
alarıyla 3651
yarış 3651
sorunları 3650
paşa 3649
CD 3648
cad@@ 3648
inler 3647
üyordu 3647
cin@@ 3646
darbe 3646
mezunudur 3645
süreli 3644
evli 3643
karıştır@@ 3643
siyon@@ 3643
girer 3642
gelecek 3641
ski 3641
asındaki 3640
Hem 3639
işler 3639
beğen@@ 3638
Orhan 3636
oranda 3636
Li@@ 3635
kuvvet 3635
play 3635
şehrinin 3635
Tam@@ 3634
ekonom@@ 3634
era 3634
nesil 3634
Koleji 3632
getiril@@ 3632
başlanmıştır 3631
yoğun@@ 3630
Gü@@ 3629
üretil@@ 3629
dan@@ 3628
irleri 3628
gıda 3627
ren@@ 3627
üste 3627
anında 3626
gitar 3625
tez@@ 3625
devleti 3623
Bölgesel 3622
Tat@@ 3622
Amatör 3621
sağlamıştır 3621
bakan 3619
duruma 3619
hükümdar@@ 3618
Mik@@ 3616
Nüfusu 3616
geniş@@ 3615
çeken 3615
Trabzonspor 3614
ırsa 3612
ertesi 3611
teknoloji 3611
39 3610
7.@@ 3610
opera 3610
sanay@@ 3610
0@@ 3609
eyaletinin 3609
incelen@@ 3607
reddet@@ 3607
yakınlarındaki 3607
baba 3606
diğine 3606
Â@@ 3606
Sanatlar 3605
giymektedir 3604
Anne 3602
Miss 3602
harekete 3602
tuz@@ 3602
öğre@@ 3602
harit@@ 3601
Allah 3599
görüş 3599
kuruluş 3598
kuruluşu 3598
satan 3598
isim@@ 3597
yetiş@@ 3597
Bağdat 3596
Big 3596
Dil 3596
eti@@ 3596
köprü 3596
roman@@ 3596
şirketin 3596
Tour 3595
erine 3595
9@@ 3594
ea 3593
çağdaş 3593
ortalarında 3592
Örgütü 3592
olayları 3589
Ag@@ 3588
oldular 3588
öy 3588
dolu 3586
kapsamlı 3586
meli 3586
filmler 3585
olu 3585
Belarus 3584
af 3583
bireysel 3583
etkilen@@ 3583
sik@@ 3583
tarz@@ 3583
özerk 3583
for@@ 3582
istik 3581
parçasıdır 3581
No 3580
şi 3580
vurgul@@ 3579
gemisi 3578
ilçedir 3578
95 3577
Teksas 3577
alınarak 3577
ilgilen@@ 3577
Rad@@ 3576
Sonuç 3576
ate 3576
hazır 3576
geçerli 3575
muh@@ 3575
diy@@ 3574
konuda 3574
niş@@ 3574
Üniversite 3574
grafik 3573
ili@@ 3573
ord@@ 3573
yönetiminde 3573
gücünü 3571
ımının 3571
Max 3570
47 3569
isyan 3569
düşünce 3568
konuşma 3568
rip 3567
Demografi 3565
genç@@ 3564
siyaset 3564
13. 3562
inde@@ 3561
Fin@@ 3560
enlerin 3560
kelime 3558
sad@@ 3557
isimleri 3555
yolcul@@ 3553
Tom@@ 3552
lider 3552
ab 3551
partinin 3551
tarihindeki 3551
ışlardır 3551
Y 3549
sözleri 3549
Ul@@ 3548
olsun 3548
dö@@ 3547
Erdoğan 3545
Cemiyeti 3542
yüzyıla 3542
DVD 3540
kelimesi 3540
ödem@@ 3540
berg 3537
düşman 3537
Mahallenin 3536
ks 3536
çizg@@ 3536
41 3535
85 3534
Asyalı 3534
sizlik 3534
cılık 3533
hayata 3533
la@@ 3533
Haz@@ 3531
etli 3529
ori 3529
fikir 3528
Çelebi 3528
é 3528
albümünü 3527
oni 3527
ayrılarak 3526
beyin 3526
kültürü 3526
turnuv@@ 3526
görsel 3525
1910 3524
dersleri 3524
Med@@ 3522
oluşturmaktadır 3522
tılar 3522
albümleri 3521
etkileş@@ 3521
medi@@ 3521
Af@@ 3520
olmuştu 3520
seçimi 3520
bölgeleri 3518
kısıt@@ 3518
ard 3517
def@@ 3515
liğinde 3515
parçaları 3515
Sinema 3514
sektör@@ 3514
konuk 3513
allar 3512
tiğini 3512
şeyi 3512
Hacı 3511
kasaba 3510
Arabistan 3509
av 3508
hap@@ 3508
kategor@@ 3508
doğrultusunda 3507
yolcu 3507
It 3505
rad@@ 3505
uçuş 3505
düzey@@ 3504
eng@@ 3503
fik@@ 3503
zorunlu 3503
seçim@@ 3502
eyalet@@ 3501
paralel 3501
Köyü 3499
pınar 3499
yarar@@ 3499
melerine 3498
Con@@ 3497
zam@@ 3497
Demir 3495
bilgileri 3495
faaliyet@@ 3495
lendiği 3495
uru 3495
93 3494
davranış@@ 3493
sayede 3492
Devletler 3490
Str@@ 3489
demir@@ 3489
uç 3489
toplama 3488
Sil@@ 3487
Suudi 3486
ers 3486
pozitif 3486
asist 3483
Anna 3482
he@@ 3482
familyasından 3481
tapın@@ 3481
eler@@ 3480
erden 3480
İş 3480
amb@@ 3479
yaşay@@ 3479
gerekçesiyle 3477
Company 3476
NATO 3476
ziyaret@@ 3476
her@@ 3472
memesi 3472
larken 3471
genetik 3470
ha@@ 3470
intihar 3470
neden@@ 3470
arasından 3469
lig@@ 3469
aray@@ 3468
ilerleyen 3468
nehir 3467
Ben@@ 3465
Sinan 3465
Solanum 3465
oran@@ 3465
reddetti 3464
projesi 3460
Biy@@ 3458
Düş@@ 3458
maktadırlar 3458
süt@@ 3458
vide@@ 3458
Kars 3457
toplu 3457
ayları 3456
yakıt 3456
att@@ 3455
mektu@@ 3454
eyen 3453
ürün@@ 3452
lamalar 3451
mali 3451
52 3450
bağlant@@ 3450
grupları 3450
illi 3450
belediyesi 3449
lığında 3449
versiyon@@ 3448
atom@@ 3447
ecekti 3447
valisi 3447
Çeşitli 3447
Boy@@ 3446
Klasik 3446
derin@@ 3446
yal 3446
asi 3445
ayrılan 3445
fos@@ 3445
Grubun 3444
gu 3444
In 3443
dergi 3443
açılmıştır 3440
oyu 3439
duğunda 3437
klar 3437
müsabak@@ 3437
dalg@@ 3436
yüzü 3436
43 3435
isimler 3435
Şarkının 3434
bah@@ 3433
Yaş@@ 3432
Hersek 3431
bab@@ 3431
mil 3430
tarihine 3430
kuru 3429
oyn@@ 3429
Artvin 3428
ces@@ 3428
mimar@@ 3428
programında 3428
dışına 3427
fe@@ 3426
dikkate 3424
komünist 3424
layıcı 3424
aba 3423
unca 3423
Laz@@ 3422
ığa 3422
kullanılması 3421
tat@@ 3421
Özerk 3421
Arizona 3420
anlatan 3419
15. 3418
National 3418
ho@@ 3417
yapt@@ 3417
600 3416
atmıştır 3416
fır@@ 3416
müzik@@ 3416
sonraları 3415
BBC 3413
malzem@@ 3413
Diy@@ 3412
albümde 3412
asyonlar 3412
ediği 3412
fen@@ 3412
inşaat 3412
mahkem@@ 3412
hastalık 3411
ımlı 3411
ekleri 3410
Ho@@ 3409
eşit@@ 3409
gerçekleştirdi 3409
Ali@@ 3408
analiz 3407
gül@@ 3407
sahi@@ 3407
tasarımı 3407
dönüş 3406
şekli 3406
dey@@ 3405
ell 3405
düzeyde 3404
kalmış 3404
q 3404
toplam@@ 3404
Massachusetts 3403
Z 3403
aştır@@ 3403
Royal 3401
sundu 3399
10. 3398
alin 3398
Çay@@ 3397
ılığı 3396
taşıy@@ 3395
vermeye 3395
döner 3394
kenar@@ 3394
maçın 3394
uldu 3394
Mis@@ 3391
güçlendir@@ 3389
malzeme 3389
Gör@@ 3388
imparator@@ 3388
oluşuyordu 3387
lük@@ 3386
kariyerini 3384
liğinden 3384
davran@@ 3383
tarihçi 3383
Chris 3382
Topluluğu 3382
fotoğraf 3382
İmparatoru 3381
yarışı 3380
yor@@ 3380
avi 3379
azı 3379
CHP 3378
Sur@@ 3378
anti 3376
mor@@ 3376
diğerleri 3375
Moğol 3373
fizik 3373
hepsi 3373
vas@@ 3372
miş@@ 3371
Cem@@ 3370
söylemiştir 3370
doğa 3369
kişiye 3368
zengin@@ 3368
gelenek@@ 3365
Mezarlığı 3364
doğuda 3364
gösteril@@ 3363
aktır 3362
ide@@ 3362
kamera 3362
Birkaç 3361
desteklem@@ 3361
57 3359
engell@@ 3359
bildirdi 3358
enmiş 3358
sözü 3358
uzunluğunda 3358
Sanayi 3356
basın 3356
imine 3355
bulunuyordu 3352
Pierre 3351
binası 3351
mo@@ 3351
çev@@ 3351
hidro@@ 3350
imparator 3350
olanak 3350
mektedirler 3349
üret@@ 3349
Malatya 3348
örler 3348
elle 3347
posta 3347
ami 3346
uyordu 3346
ıştır 3346
Jones 3345
Karadağ 3344
anus 3344
bölgesindeki 3344
hizmeti 3344
odak@@ 3344
İmparatorluk 3344
makam@@ 3343
ürler 3343
krall@@ 3341
operasyon@@ 3341
dük@@ 3340
fon@@ 3340
çoğunu 3339
vel@@ 3338
adi@@ 3336
diğinden 3334
tekn@@ 3334
Ekonomik 3333
lü@@ 3333
Liga 3332
est@@ 3332
Türkler 3331
adamları 3331
zamanlı 3331
ısıyla 3331
İçişleri 3330
yapımcı 3329
çözün@@ 3328
Ağa 3326
luğunu 3326
tören@@ 3325
maktır 3321
ansı 3320
q@@ 3320
matematik 3319
800 3318
birbirinden 3318
gan 3318
1900 3316
bac@@ 3316
kardeş 3316
kütüphan@@ 3315
nokta 3315
eğilim@@ 3314
Şili 3314
Gor@@ 3313
Premier 3313
ılar@@ 3313
kimi 3312
çözüm@@ 3312
Siy@@ 3310
akım 3307
çeyrek 3307
ölü 3306
Virginia 3305
Kim@@ 3304
ekli 3302
mer 3302
terfi 3302
yerleşti 3302
sın@@ 3301
sü@@ 3300
kapasit@@ 3299
katkı 3299
American 3298
ilçesinin 3298
uçuş@@ 3298
lerken 3297
puanla 3297
köyde 3296
lamaları 3296
Sand@@ 3295
mesaf@@ 3295
yapımcısı 3295
aceae 3294
Ailesi 3293
hazırlık 3293
cevap 3291
kış 3289
1911 3288
ende 3288
bağımsızlığını 3287
hız 3287
sonlarına 3287
Anayasa 3286
yüksek@@ 3286
ch 3285
larca 3285
cilik 3284
heykel@@ 3284
anya 3283
ortak@@ 3283
Florida 3282
Tokat 3282
tif@@ 3282
ind@@ 3281
ölen 3281
Cel@@ 3280
kend@@ 3280
rolüyle 3280
çeşit 3280
8.@@ 3279
kış@@ 3279
liste 3279
Hat@@ 3278
ınt@@ 3278
analiz@@ 3275
Vietnam 3274
otorit@@ 3273
üstlenmiştir 3273
şarkılar 3273
9.@@ 3272
Francisco 3272
erinde 3272
ürken 3272
leyerek 3270
sunul@@ 3269
Kah@@ 3268
sözleş@@ 3268
ılıp 3268
Başlangıçta 3267
mat@@ 3267
rom@@ 3267
Stalin 3266
ğu 3266
88 3265
lıktan 3265
orman 3264
bed@@ 3263
end 3263
Kalkınma 3262
Prof. 3262
arazi 3262
Gru@@ 3261
uv@@ 3260
Çağ@@ 3260
elik@@ 3259
nö@@ 3259
yerleri 3259
Rum@@ 3257
46 3256
evine 3255
açan 3254
canlandırdığı 3254
karşılıklı 3254
Serbest 3253
dayanmaktadır 3253
nispeten 3252
yalnız 3252
Estonya 3251
aza 3251
Birlik 3249
Kıs@@ 3249
düğünü 3249
gu@@ 3249
fr@@ 3248
Altay 3247
Kız 3247
Radyo 3247
harf@@ 3245
Dav@@ 3244
kullanıldığı 3243
mik 3243
insanı 3242
14. 3241
abilmesi 3241
minin 3240
Elizabeth 3239
ang 3239
Tu@@ 3238
bol@@ 3237
zem@@ 3236
ilişkisi 3235
san 3235
suz@@ 3235
Arthur 3234
sınırı 3234
Büyük@@ 3233
Vol@@ 3233
Alan 3232
yaparken 3232
İskender 3232
Friedrich 3231
Ir@@ 3231
alanlar 3231
Il@@ 3229
önem@@ 3229
ba@@ 3227
enden 3227
kâ@@ 3227
kanalında 3226
Kişisel 3225
Life 3225
çılar 3225
Uy@@ 3224
aşk 3224
birim 3224
geriye 3224
tic@@ 3224
nik 3223
üyeliği 3223
albümünde 3220
Başkan@@ 3219
forvet 3219
hep 3219
süper 3219
ayn@@ 3217
hikâye 3216
maçları 3216
sağlan@@ 3215
standart@@ 3215
Çek@@ 3215
alfab@@ 3214
anlayış@@ 3213
atan@@ 3213
değişen 3213
emesi 3213
efsan@@ 3212
uların 3212
Sch@@ 3211
amatör 3211
filminin 3211
görülebilir 3211
hasar 3211
kavramı 3211
ebilecek 3210
gösterilen 3210
meni 3210
üd@@ 3210
devre 3209
gan@@ 3209
tıbbi 3205
askerleri 3203
sistemin 3203
batıda 3201
oyuna 3201
Ban@@ 3200
acılık 3200
süreçte 3200
Koc@@ 3199
Top@@ 3199
ceza 3199
ulur 3199
belirlen@@ 3198
ölüm@@ 3198
galibiyet 3197
kolu 3197
nitelendir@@ 3197
organik 3197
pler@@ 3197
tik@@ 3197
tikleri 3197
yapıt@@ 3197
uygulamaları 3196
yo@@ 3196
komşu 3195
lılık 3195
Kongre 3193
edecek 3193
iyeti 3193
Hol@@ 3192
hâ@@ 3192
yağ 3192
topluluk@@ 3191
Türkç@@ 3190
Şark@@ 3190
Time 3189
Yarımadası 3189
serisinin 3189
Yıldırım 3188
mediğini 3188
yaralan@@ 3188
12. 3187
Dizi 3187
Hükûmeti 3186
işaret@@ 3186
saray 3185
sözcüğü 3185
asla 3184
kler 3183
likler 3183
yorum 3183
sırt@@ 3182
tör@@ 3182
Güreş 3181
ektedir 3181
mann 3181
Altın@@ 3180
değ@@ 3180
ben 3179
ro 3179
belgel@@ 3178
sinin 3178
yapılacak 3178
profesör 3177
Üyeliği 3177
başkent 3175
cumhurbaşkanı 3175
seçilmiş 3175
Okyanusu 3174
üstlendiği 3174
karbon 3171
değişiklikler 3170
Oscar 3169
Scott 3169
bulur 3169
ediyordu 3169
tar 3169
alılar 3167
anlara 3166
futbol@@ 3166
Tel@@ 3165
atarak 3165
red@@ 3165
Formula 3164
Millet 3164
günde 3164
Nes@@ 3163
atör@@ 3162
bırakıldı 3162
gelindiğinde 3162
imparatorluk 3162
İnternet 3162
yedinci 3161
üstün 3160
üyelerinin 3160
Koruma 3159
belirtir 3159
cami 3159
gereği 3159
kamer@@ 3159
Dönemi 3158
anlaşıl@@ 3156
sahneye 3156
sinir 3156
Şeyh 3156
Hu@@ 3155
belirt@@ 3155
bilimi 3154
tiyatr@@ 3154
vazgeç@@ 3154
adi 3153
hem@@ 3152
ideki 3151
çilerin 3151
51 3150
Je@@ 3150
Rize 3150
Sun@@ 3150
akar@@ 3150
albümünün 3150
emedi 3150
Grammy 3147
etkin@@ 3147
rot@@ 3147
yoğunluğu 3147
birik@@ 3146
hükûmet@@ 3146
sinem@@ 3146
sini 3146
bölgeyi 3145
geldiğinde 3145
ze@@ 3145
alar@@ 3144
çıkarak 3144
Jersey 3143
gi 3143
ülü 3143
Çer@@ 3141
Temel 3140
besteci 3140
tanış@@ 3140
lamış 3139
sorgul@@ 3139
UNESCO 3138
birlik@@ 3137
oluşturdu 3136
abileceğini 3135
boy 3135
gin 3135
biyolojik 3134
sonuçlar 3134
topraklarına 3133
yapımc@@ 3133
İspanyolca 3133
hu@@ 3132
kentin 3132
vaz@@ 3132
Cezayir 3131
ilik@@ 3131
kanun 3131
taşır 3131
yerleşim@@ 3131
54 3129
başlangıç 3129
Nur@@ 3128
işgali 3128
olduğunda 3128
piyas@@ 3128
olmasından 3126
yarışma 3126
önemlidir 3126
alizm 3124
belirtmiştir 3123
İli 3123
düler 3122
sporcu 3122
Günü 3121
cul@@ 3121
keş@@ 3121
olayı 3121
ettikleri 3120
tayin 3119
önc@@ 3119
kullanılmaya 3118
Şeh@@ 3118
geçiren 3117
120 3116
Çorum 3116
ə@@ 3116
Geç@@ 3114
Soy@@ 3114
diplomatik 3114
ücretsiz 3113
1@@ 3112
eğitim@@ 3112
vücut 3112
ena 3111
kalın 3111
bez@@ 3109
alleri 3107
rej@@ 3106
potansiyel 3105
Bölüm 3104
sosyalist 3104
vi 3104
Mardin 3102
bölümleri 3102
general 3102
performansı 3102
çesi 3102
ülkeye 3102
Musa 3099
Dr@@ 3098
parçal@@ 3098
denet@@ 3097
Caddesi 3095
Sek@@ 3094
sistemine 3093
yönetic@@ 3093
başlıklı 3092
Erzincan 3091
Hastanesi 3091
ekran@@ 3091
sp@@ 3091
taşım@@ 3091
yapılar 3091
So@@ 3090
anmış 3090
finalinde 3090
istediği 3090
Sistemi 3089
ulaşmıştır 3089
Tarım 3088
ato 3088
56 3087
.com 3086
lenmektedir 3086
algıl@@ 3085
ismiyle 3085
tarihinden 3085
akış@@ 3084
ran 3084
böcek 3082
kurulması 3082
Cumhurbaşkanlığı 3080
Parlamentosu 3080
izlen@@ 3080
ph@@ 3079
tanesi 3079
emek 3078
karş@@ 3078
voleybol 3078
yoktu 3078
Vel@@ 3077
oluşum@@ 3077
kadının 3075
vermiş 3075
yöntem 3075
baskın 3074
meyve 3074
atlı 3072
hikây@@ 3072
uygulanan 3072
det@@ 3071
ışın 3071
La@@ 3070
etini 3070
Gem@@ 3069
Times 3067
ilerinde 3067
Elazığ 3066
11. 3064
cılar 3064
dizide 3064
enleri 3064
pozisyon@@ 3064
Kanal 3063
alanına 3063
açar 3063
başlam@@ 3062
Türkmen 3061
arkasında 3060
memektedir 3059
kok@@ 3058
önlemek 3057
pul@@ 3056
sül@@ 3056
akıllı 3055
ayak@@ 3055
Dik@@ 3054
H. 3054
çoğ@@ 3054
lamaktadır 3053
köl@@ 3052
luğuna 3052
arama 3051
geçmiş@@ 3051
müştü 3051
şiddet 3051
Sp@@ 3050
göv@@ 3050
ruh 3050
Çift@@ 3050
çu 3050
ğinden 3050
FA 3049
Geleneksel 3049
adıdır 3049
aral@@ 3049
Libya 3048
doğum@@ 3048
melerini 3046
dev 3045
döneminin 3045
saldırıya 3044
işlemi 3043
yakınında 3043
58 3042
sistemini 3041
gelerek 3040
çay 3040
ıra 3040
iyileştir@@ 3039
rast@@ 3039
tahmin@@ 3038
geril@@ 3037
hayran@@ 3036
beş@@ 3035
saldırısı 3035
erle 3033
bağlantılı 3032
fonksiyon@@ 3032
ava 3031
örneği 3031
alanlarında 3029
irse 3029
İlçesi 3029
alet 3028
dayanır 3028
eyaletine 3028
isten@@ 3028
olduklarını 3027
pay@@ 3027
çalışmaktadır 3027
Aşk 3026
Ba@@ 3026
Şanlıurfa 3026
şehirler 3026
Tes@@ 3025
müş@@ 3025
Afrikan 3024
North 3024
tığını 3024
veda 3024
sab@@ 3023
elin 3022
öğrenc@@ 3022
Hollywood 3021
Pir@@ 3021
atıldı 3021
Lo@@ 3020
optik 3020
protein@@ 3020
yıldır 3020
çelik 3019
68 3018
emir 3018
kere 3018
korku 3018
Brezilyalı 3016
Denizli 3016
Beş 3015
Hab@@ 3015
fabrik@@ 3015
artış 3013
park 3013
şansı 3013
Düz@@ 3012
Aşağı 3010
Tarih@@ 3010
denklem@@ 3010
çeşit@@ 3010
Arnavut 3009
Brown 3009
io 3009
Kanunu 3007
ilg@@ 3007
olmasıdır 3007
Qu@@ 3006
ders@@ 3006
67 3005
Konu 3003
şarap 3002
Annesi 3001
Tay@@ 3001
land 3001
süreç 3000
ılığını 3000
kolayca 2999
mücadel@@ 2999
toplanan 2999
tutuklandı 2999
with 2999
yerler 2999
Ni@@ 2998
bölgesinden 2998
Halil 2996
ziyade 2996
10.@@ 2995
Co@@ 2995
mesaj@@ 2995
vb. 2995
Kendisi 2994
Carl 2993
girdiği 2993
indi@@ 2992
mekten 2991
dava 2990
Kırmızı 2989
verilerine 2989
04 2988
53 2988
sözcük@@ 2988
bas 2987
güreş@@ 2986
reklam@@ 2986
türler 2986
Ti@@ 2985
sorun 2985
yönetmen@@ 2985
Alaska 2984
Halep 2984
ens@@ 2984
Mahmud 2983
Değiş@@ 2982
duktan 2982
tasarlanmış 2982
verimli 2982
ülkeleri 2982
hâlâ 2981
sunuldu 2981
becer@@ 2980
Eğ@@ 2979
kütle 2977
lin@@ 2977
tük@@ 2977
şarkısıyla 2977
öğrenimini 2976
Koz@@ 2975
maddi 2975
tim 2975
Başka 2974
96 2973
rakibi 2972
zi@@ 2972
bulmak 2971
etkinlik@@ 2970
set@@ 2970
Young 2969
güvenli 2969
çıkarılan 2969
Sat@@ 2968
birbirlerine 2968
Donanması 2967
Ülkenin 2967
başkanlığını 2966
eder@@ 2966
ilişkilendir@@ 2965
1909 2963
uygulaması 2963
Tanr@@ 2962
karanlık 2962
rakam@@ 2962
kontrol@@ 2961
yıldan 2961
ahşap 2960
isti 2960
Kes@@ 2959
Marie 2959
Na@@ 2959
çağır@@ 2959
Doğan 2958
Johnson 2958
alıyor 2958
sitesi 2957
tanındı 2957
dim 2956
vefat 2956
subay 2955
klas@@ 2954
vb 2954
Dam@@ 2953
Prusya 2953
getirmiştir 2953
öğretmen 2953
ışını 2953
AK 2952
derecesi 2952
sıraya 2952
yapımcılığını 2952
99 2951
M.Ö. 2951
getirilmiştir 2951
olmam@@ 2951
Osmanlılar 2949
kısalt@@ 2949
Dor@@ 2948
amak 2948
çileri 2948
ong 2947
Pas@@ 2946
inanç@@ 2946
minde 2946
bet@@ 2945
kökeni 2945
getirir 2944
Ford 2943
enko 2943
sanatçı@@ 2943
Nak@@ 2942
dizisinin 2940
iklerin 2940
Gen@@ 2939
eskiden 2938
Rek@@ 2937
Sicilya 2937
depo@@ 2937
ân 2937
Dünyanın 2936
faaliyetleri 2935
tren 2935
belirlenmiştir 2933
kazanmış 2933
tamamlamıştır 2933
öğretmen@@ 2933
Ceza 2932
dahi 2932
konuşan 2932
str@@ 2932
unsur@@ 2932
eleştiriler 2931
reklam 2931
Pe@@ 2930
gerçekten 2930
eklem@@ 2929
Plat@@ 2928
fa 2928
mekanik 2927
Giresun 2926
Tep@@ 2926
ebilmektedir 2926
uzaklaştır@@ 2926
Beş@@ 2925
aktivit@@ 2923
ağını 2923
diğeri 2923
dişi 2923
kapan@@ 2922
yolları 2922
ayırt 2921
canlandırdı 2921
kırsal 2921
# 2920
bunlardan 2919
engel 2919
siyasal 2918
Mi@@ 2917
malarının 2917
Televizyon 2916
yoğunlaş@@ 2916
bölümler 2915
49 2914
ald@@ 2913
sembol@@ 2913
Um@@ 2912
jüri 2912
nit@@ 2912
alınması 2911
Yaşam 2910
amıştır 2909
iğ@@ 2908
lek@@ 2908
lular 2908
ınlar 2908
ō 2908
Iş@@ 2907
Milletvekilliği 2907
gelişen 2907
geliştirilmiş 2907
attan 2906
İh@@ 2906
tanı@@ 2905
ayının 2904
gelişme 2904
Cal@@ 2903
Kraliçe 2903
yayımlanmıştır 2903
Gre@@ 2902
başk@@ 2902
rapor 2902
62 2901
arac@@ 2901
diş 2898
yapay 2898
üstüne 2898
kaynaklar 2897
kadrosuna 2896
section 2896
Kendi 2894
Resmi 2894
açıklama 2894
mahallesi 2894
âr@@ 2894
92 2893
çarpış@@ 2893
Ta@@ 2892
Bu@@ 2891
olmayı 2891
Kel@@ 2890
ou 2890
cezası 2889
federal 2888
kuantum 2888
problem@@ 2886
ulus@@ 2886
Hey@@ 2885
fırlat@@ 2885
1907 2884
süre@@ 2883
ülkeden 2883
aşa 2881
ekran 2881
ira 2881
vir@@ 2881
hip 2880
hizmetleri 2880
takımıyla 2880
VI 2879
kalk@@ 2879
şeker 2879
kadrosunda 2878
asyona 2877
edici 2877
görünür 2877
şiş@@ 2877
bek 2876
Sir@@ 2875
eserinde 2875
kapı 2875
oları 2875
vatandaş@@ 2875
geti@@ 2874
kariyerinin 2874
turizm 2873
bol 2872
sanc@@ 2872
Okul@@ 2871
deng@@ 2871
hastan@@ 2871
süper@@ 2871
sınav@@ 2871
noktada 2869
vard@@ 2869
dirler 2868
kte 2868
liman@@ 2868
popül@@ 2867
sezon@@ 2867
tirir 2867
İbn 2867
Yayın 2866
buraya 2866
çılık 2866
şüph@@ 2866
onik 2865
süs@@ 2865
zaten 2865
görevinde 2864
sıv@@ 2864
iminin 2863
terim 2863
girerek 2862
düzenledi 2861
lo 2860
süreç@@ 2860
atıfta 2859
eten 2859
çekilmiştir 2859
gönderil@@ 2858
ladılar 2857
Üç@@ 2857
Yozgat 2856
bit 2856
kuram@@ 2856
pa 2856
tamamlayan 2856
çocuklar 2856
gazetesi 2855
Tam 2854
tarihten 2854
94 2852
bulunması 2852
lediği 2852
Hall 2851
ıld@@ 2851
satış@@ 2850
1905 2848
Bay 2848
Hareketi 2848
250 2847
özgür 2847
Raw 2846
bilgisi 2846
kopya 2846
63 2843
Tunus 2843
özellik@@ 2842
biçiminde 2841
ülen 2841
gider@@ 2840
müzikal 2840
nik@@ 2840
arla 2839
nüfuslu 2839
Yahudiler 2838
uygul@@ 2838
sebe@@ 2836
Yani 2835
haned@@ 2835
Ayr@@ 2834
klibi 2833
lim@@ 2833
ys@@ 2833
ırı 2833
Hem@@ 2832
görevden 2832
» 2832
uğ@@ 2831
Malta 2830
ajı 2830
bunları 2830
birine 2829
yonun 2829
lığından 2828
Ülke 2828
yüksekliği 2827
kuvvetlerinin 2825
çalışırken 2825
çıkış@@ 2825
Nar@@ 2824
bağlan@@ 2824
imiz 2824
Öte 2824
koz@@ 2822
pro@@ 2822
ven@@ 2822
düğ@@ 2821
işini 2821
Abdül@@ 2820
Küba 2820
ence 2819
Samsung 2818
Joe 2817
aldılar 2817
yıldızı 2817
çevrimiçi 2817
anak@@ 2816
yürürlüğe 2816
66 2815
kit@@ 2815
milli 2815
şampiyonluk 2815
bağımsızlık 2814
ıkların 2814
kanın 2813
ulmuş 2813
š@@ 2813
ei 2812
protest@@ 2812
Turu 2811
küme 2811
yukarı 2811
bulunmuş 2810
eceğine 2810
sının 2810
rem@@ 2809
gerilim 2808
atları 2807
ben@@ 2807
pos@@ 2807
annesinin 2806
FK 2805
tip@@ 2804
yargıl@@ 2804
kart 2803
üreten 2803
College 2802
Yarış@@ 2801
onya 2801
atom 2800
kaynaklarda 2800
planı 2800
Selanik 2799
yaşar 2799
Yağ@@ 2798
dönemine 2798
kim 2798
sesi 2798
özellik 2797
formasıyla 2796
gun 2796
örleri 2796
ıktır 2796
98 2794
Şehirdeki 2794
stil@@ 2793
Hir@@ 2792
Mit@@ 2792
kahverengi 2792
oymağına 2791
1,@@ 2790
genişlet@@ 2790
destekleyen 2789
şehre 2789
1878 2788
MTV 2788
kanat 2788
kre@@ 2788
gerektiği 2787
mekaniz@@ 2787
Tal@@ 2786
dek@@ 2786
çerçevesinde 2784
iyileş@@ 2783
Du@@ 2782
geçtiği 2782
yararlan@@ 2782
Hel@@ 2781
ilişkil@@ 2781
rede 2781
Gürcüce 2780
Ra@@ 2780
oynay@@ 2780
drama 2779
dönüştü 2779
neticesinde 2779
uzun@@ 2779
ayın 2778
değişir 2777
oyuncul@@ 2777
izlem@@ 2775
pe@@ 2775
yiy@@ 2775
86 2774
bağlandı 2774
cam 2774
ülk@@ 2774
SK 2773
buradan 2773
ilaç 2773
ekip 2772
Ap@@ 2770
mevkiinde 2770
şunları 2770
77 2769
sunuc@@ 2769
uyum@@ 2767
ıştır@@ 2767
76 2766
atın 2765
Mec@@ 2764
anma 2764
engel@@ 2764
yönetti 2764
şimdiki 2764
saf 2763
Yor@@ 2762
bay 2761
olmasının 2761
krizi 2760
Top 2759
asit@@ 2759
değişim 2759
konular@@ 2759
melidir 2759
Angel 2758
rik 2758
mağaz@@ 2757
sayıları 2757
1902 2755
Yer 2755
diplom@@ 2755
Bol@@ 2752
Hong 2752
Merkez@@ 2752
10@@ 2751
Maz@@ 2751
ecek@@ 2750
port@@ 2750
rekabet 2750
sonuçlandı 2750
Kiev 2749
Savaşları 2749
Yukarı 2749
hiz@@ 2749
çar@@ 2749
Lig@@ 2748
geliştiril@@ 2747
gerekmektedir 2747
Muğla 2746
Def@@ 2744
kategorisinde 2744
Ölüm 2744
andır@@ 2742
tabl@@ 2742
zamanı 2742
kelim@@ 2741
mimar 2741
müdahale 2741
suyun 2741
Dan@@ 2740
Endonezya 2739
Uç@@ 2739
elektron 2739
Sanatçı 2738
görüntü@@ 2737
yanıt 2737
orlar 2736
tanıştı 2735
Şirketi 2735
algorit@@ 2734
ıldığını 2734
eksik@@ 2733
kıyasla 2733
müze 2733
yakından 2733
Vladimir 2732
olursa 2732
Aydın@@ 2731
Bin@@ 2731
olacağı 2731
84 2730
elidir 2730
kanun@@ 2730
olanlar 2730
gereksin@@ 2729
kariyerinde 2729
sisteminde 2729
w 2729
saygı 2728
alınmış 2726
kadın@@ 2726
kişiyi 2725
likle 2725
arkeolojik 2724
kalabalık 2724
yazan 2724
yaşta 2724
Turizm 2723
arlı 2723
kus@@ 2723
Cen@@ 2722
gelişimi 2722
Listesi 2721
Siyasal 2721
« 2721
İr@@ 2721
ışın@@ 2721
Go@@ 2720
José 2720
Taylor 2720
tanın 2720
Madonna 2719
indeydi 2719
pik 2719
87 2718
Hâ@@ 2718
W 2718
Yeşil 2718
Yönetimi 2718
layıp 2718
politika 2718
Lewis 2717
şarkısını 2717
isindeki 2716
09 2715
enti 2715
kiralık 2715
tay@@ 2715
Kamp@@ 2714
Belgrad 2712
asal 2712
bilinmemektedir 2712
mobil 2712
tamamlan@@ 2712
yarışmada 2712
Mag@@ 2709
Aile 2708
katılmış 2708
pi 2708
Bilgi 2707
dayanarak 2707
girmiş 2707
kart@@ 2706
tesis@@ 2706
uçağı 2706
eceğ@@ 2705
iti 2705
merkezidir 2705
ola 2705
sayısının 2705
servis 2705
Güneydoğu 2704
Polonyalı 2704
Koreli 2703
görmüştür 2703
kurgusal 2703
zamandan 2703
Deniz@@ 2702
gönderilen 2702
Fr@@ 2701
birinde 2701
müdürü 2701
yönde 2701
abe 2700
dıkları 2700
etkisiyle 2700
gruptan 2700
listelerinde 2700
oynamaya 2700
sürmüştür 2700
isteği 2699
Antonio 2698
Col@@ 2698
getirilen 2698
kı 2698
saniye 2698
78 2696
Bob 2696
Doğal 2696
Karolina 2696
anılır 2696
ludur 2696
yönetici 2696
etkiler 2695
politik@@ 2695
tık@@ 2695
Konferansı 2694
getirdiği 2694
ts@@ 2694
üleri 2694
Aslında 2693
Nev@@ 2693
eşleş@@ 2693
Sonunda 2691
kraliyet 2691
Nor@@ 2690
askerler 2690
illeri 2690
yapım@@ 2690
Carlos 2689
görevlisi 2689
Cr@@ 2688
dıktan 2688
hir 2688
met 2688
Aç@@ 2687
ahi 2687
nitelik@@ 2687
Mirası 2686
emin 2686
eri@@ 2686
eva 2686
Çam@@ 2686
şampiyonluğunu 2686
1886 2685
dünyadaki 2685
okum@@ 2685
içinden 2684
kanser@@ 2684
psikolojik 2684
Şey@@ 2684
dadır 2683
Karab@@ 2681
Tok@@ 2681
sun 2681
aktan 2680
içeriyordu 2680
ışma 2680
alist 2679
kullanmıştır 2679
lev@@ 2679
pazar 2679
tilen 2678
Kamu 2677
asyonun 2677
tif 2677
özelliklerini 2677
ırk@@ 2677
71 2676
Ken@@ 2676
liydi 2676
ımdan 2676
maddeler 2675
taç 2675
direktörü 2674
saat@@ 2674
uşu 2674
Kanadalı 2673
anına 2672
ore 2672
gri 2671
ა@@ 2671
programları 2670
tatlı 2670
ıldığında 2670
hazırlan@@ 2669
ikli 2669
kod 2669
türdür 2669
günümüzdeki 2668
üt 2668
başbakan 2667
işti 2667
çök@@ 2667
Paulo 2666
Wilhelm 2666
baz 2666
macer@@ 2666
olmalıdır 2666
sürdürmektedir 2666
Sony 2665
bağımsız@@ 2665
ello 2665
kazandır@@ 2665
km2 2665
ac 2664
basınç 2664
oğludur 2664
Group 2663
gelip 2663
malarda 2663
süt 2663
yatırım 2662
Başbakanı 2660
Ren@@ 2660
Kocaeli 2659
protein 2659
açıklamıştır 2658
Biyografi 2656
Mek@@ 2656
ster@@ 2656
Yasası 2655
oradan 2655
doğur@@ 2654
etmişti 2654
tank 2654
Trakya 2653
geliştirdi 2653
hit 2653
uf@@ 2653
Yal@@ 2652
69 2651
73 2651
Liverpool 2651
kısım@@ 2651
por@@ 2649
Ed@@ 2647
Kit@@ 2645
yazında 2645
erişim 2644
nadir 2644
Boston 2643
aktadır 2643
oluşmuştur 2643
pak@@ 2643
Yahudilerin 2642
anayas@@ 2642
Çev@@ 2642
Karabağ 2641
eğlence 2641
hayal 2641
tanımlan@@ 2641
gayet 2639
ust@@ 2639
sub@@ 2638
traf@@ 2638
Napolyon 2637
School 2636
yöneticisi 2636
74 2635
beklen@@ 2635
çekim 2635
81 2634
bağ 2633
Hollandalı 2632
Böl@@ 2631
aşık 2631
bulut@@ 2631
manlar 2631
olağanüstü 2631
prens@@ 2631
çıkması 2631
Köprüsü 2630
açılış 2630
kitapları 2630
miktarı 2630
R. 2629
Zey@@ 2629
au 2629
hast@@ 2629
hücrel@@ 2629
protesto 2629
verilmektedir 2629
anının 2628
anlaşması 2627
değiştirdi 2627
Pro 2626
meclis 2626
yurt@@ 2626
eve 2625
İstasyonu 2625
dem 2624
dikkatini 2623
dir.@@ 2622
iktir 2622
iliyor 2622
benzer@@ 2621
stratejik 2621
Sir 2620
doktor 2620
oya 2619
politikası 2619
tartışma 2619
Ağrı 2618
aha 2618
halklardan 2618
Ada 2617
büyüme 2616
eklen@@ 2616
konuşulan 2616
önemi 2616
Emir 2614
rengi 2614
İslami 2614
Portekizce 2613
bellek 2613
birimleri 2613
sahip@@ 2613
imha 2612
yür@@ 2612
lis 2611
Nec@@ 2610
büyüdü 2610
izler 2610
minden 2610
Lenin 2609
sosy@@ 2609
Amasya 2608
Timur 2608
biçimi 2608
Kür@@ 2607
97 2606
Diz@@ 2606
Metin 2606
sak 2606
Kilise 2605
maksimum 2605
DC 2604
Mavi 2604
madığını 2604
piyano 2604
doktor@@ 2603
geldiğini 2601
turu 2601
uyum 2600
antlaş@@ 2599
örnekleri 2599
bölümünün 2598
isiydi 2598
kurmuştur 2598
yang@@ 2597
yanlısı 2597
Tiflis 2596
fikri 2596
ii 2596
ka@@ 2595
kalıntıları 2594
komuta 2594
sıralam@@ 2594
Mihail 2593
ayrılmış 2593
etmişlerdir 2593
sir@@ 2593
yakal@@ 2593
Ang@@ 2592
Harp 2591
okun@@ 2591
Özbekistan 2591
Özgür 2591
çevresindeki 2591
ras@@ 2590
Ey@@ 2589
kanal 2589
çekimi 2588
İzlanda 2588
grubuna 2587
kendisinden 2587
sever 2587
özü 2587
61 2586
olurken 2586
taht@@ 2586
dans@@ 2585
denize 2585
sorunlar 2585
deneysel 2584
Çalışma 2584
Disney 2583
osen 2583
uzat@@ 2583
konumu 2582
zırhlı 2582
Hükümeti 2581
yat 2581
çözül@@ 2581
0,1 2580
Mars 2580
kuzeyde 2580
kıyaf@@ 2580
motoru 2580
tepel@@ 2580
toprak@@ 2580
yard@@ 2580
zul@@ 2580
Sibirya 2579
barındır@@ 2579
belirlemek 2579
pe 2579
araba 2578
cumhurbaşkanlığı 2578
amp@@ 2577
bet 2577
haklarını 2577
hali 2577
sorunu 2577
aşkın 2576
dergisinde 2576
gibidir 2576
maddel@@ 2575
inae 2574
raf@@ 2574
Meydanı 2573
Seferi 2573
matematiksel 2573
Simon 2572
Cem 2571
golle 2571
güneyde 2571
yoluna 2571
cezasına 2570
ülkeyi 2570
Day 2569
Saray 2568
geride 2565
Super 2564
etmesini 2564
kaydet@@ 2564
sos@@ 2564
kullanmak 2563
makale 2563
gönüllü 2562
Dairesi 2561
Kong 2561
denk 2561
kısım 2561
Ly@@ 2559
kaçın@@ 2559
miktar@@ 2559
rec@@ 2559
Yaş 2558
est 2558
yuv@@ 2558
Gi@@ 2557
İşleri 2557
82 2556
düzenlenmiştir 2556
sekizinci 2556
hayatının 2555
ısal 2555
Yavuz 2554
tanımlanan 2554
tanımlanır 2554
dukları 2553
göre@@ 2553
hasta 2553
anlamında 2552
usa 2552
yarısı 2552
malarında 2551
Rıza 2550
asyonları 2550
lerce 2550
rekab@@ 2550
kaldırıldı 2548
karışık 2548
oranında 2548
sonlandır@@ 2548
08 2547
ville 2547
Hamilton 2546
final@@ 2546
hükümeti 2546
İst@@ 2546
Hatta 2545
şah 2545
ud@@ 2543
İnsan@@ 2543
Air 2542
Ka@@ 2542
kurum 2542
mezar 2542
pas@@ 2542
oyunlar 2541
pil@@ 2541
tiğinde 2541
Fox 2540
akıl 2540
lah 2540
yazmaya 2540
bugüne 2539
süredir 2539
Bit@@ 2538
keşif 2538
kitabın 2537
topraklarında 2537
Vir@@ 2536
nüfusa 2536
yarışmasında 2536
yeti 2536
J 2535
imzalanan 2535
Bolu 2534
endiş@@ 2534
sinde 2534
uzaklaş@@ 2534
memur@@ 2533
olabileceği 2533
türe@@ 2533
Victoria 2532
tanrı 2532
teklifi 2532
Dolayısıyla 2531
karak@@ 2531
700 2530
Konservatuvarı 2530
başrol 2530
köle 2530
Teknoloji 2529
fe 2529
lüğünü 2529
olabileceğini 2529
makal@@ 2528
mı 2528
yükselmiştir 2528
müşter@@ 2527
Hill 2526
PKK 2526
işleme 2525
bölgeler 2524
kaynaklanan 2524
seslendirilen 2524
animasyon 2523
belki 2523
luğa 2523
sıkı 2523
çok@@ 2522
deri 2521
söylenir 2521
1906 2520
Linux 2520
Tuna 2520
dönemlerinde 2520
Gez@@ 2519
Steve 2519
edebiyat@@ 2518
irli 2518
liman 2518
şehristanı 2518
all 2517
Mod@@ 2516
gecik@@ 2516
rakip 2516
tedav@@ 2516
ışt@@ 2516
Mağ@@ 2515
Yah@@ 2515
sunulan 2515
bö@@ 2514
83 2513
E. 2513
Juan 2513
seçimlerde 2513
tre 2513
bilimkurgu 2512
istediğini 2512
kulü@@ 2512
şub@@ 2512
düzenlediği 2511
şif@@ 2511
Sol 2510
devir@@ 2510
gömül@@ 2510
kurban@@ 2510
ufak 2510
vokal 2510
yazarlar 2510
alli 2509
atöl@@ 2509
devamı 2509
imde 2509
nüfus@@ 2509
hâlen 2508
öncelikle 2508
belgesel 2507
düşer 2507
Bill 2506
eğit@@ 2506
otik 2506
açmıştır 2505
haftalık 2505
kurmak 2505
söylen@@ 2505
gil 2504
Tri@@ 2503
duvar 2503
ürünü 2503
fl@@ 2502
gr@@ 2502
recek 2502
Ön 2502
ürünler 2502
ıkta 2502
Eğitimi 2501
Kafkas 2501
ağırlık 2501
cık 2501
gençlik 2501
sağlamaktadır 2501
ihtiyacı 2500
BM 2499
Bundesliga 2499
nör@@ 2499
ılığa 2499
59 2498
farklıdır 2498
sattı 2498
Mahmut 2496
Yahud@@ 2496
verilmiş 2496
Not 2495
Tony 2495
aktris 2495
kesiminde 2494
lukları 2494
Seçimleri 2493
kalınt@@ 2493
France 2492
Galler 2492
Seri 2492
erinden 2492
içeri@@ 2492
yaşına 2492
kaleci 2491
katılımcı 2491
meyd@@ 2490
ordunun 2490
urdu 2490
Keş@@ 2489
yumuşak 2489
Sam 2488
bölümden 2488
teşkil 2488
Şi@@ 2488
toplumun 2486
yapması 2486
sürecinde 2485
Q 2484
başarıyla 2484
ordusunu 2484
Pop 2482
Ros@@ 2482
anır 2482
gelmesi 2482
meydan 2481
soy 2481
parçalar 2480
adındaki 2479
gazetesinde 2479
çocukların 2479
Christian 2478
elendi 2478
kullanmaya 2478
Sezar 2477
oto@@ 2477
kayı@@ 2476
insanlara 2475
temas 2475
zm 2475
Kahire 2474
Rey 2474
Yardımcı 2474
görevlendir@@ 2474
oh@@ 2474
12@@ 2473
Mühendisliği 2473
Bilgiler 2472
sanatı 2472
siyasetçidir 2472
1890 2471
döneminden 2471
verme 2471
kök@@ 2470
reform@@ 2470
tuz 2470
kalar 2469
uzak@@ 2469
yüzölçümüne 2468
birincil 2467
ır.@@ 2467
aylar 2466
ekonomisi 2466
onar@@ 2466
va@@ 2466
vat@@ 2466
Ek 2465
emektedir 2465
ford 2465
verg@@ 2465
almayı 2464
grupta 2464
İtalyanca 2464
görünen 2463
plastik 2463
uğradı 2463
İsveçli 2463
Dom@@ 2462
aman 2462
atta 2462
görevleri 2462
güreş 2462
ham 2462
siyaset@@ 2462
üb@@ 2462
öngör@@ 2461
Kahramanmaraş 2460
Seçim 2460
kaybol@@ 2460
kuvveti 2460
sağlam 2460
semt@@ 2460
desi 2459
filmlerinde 2459
tehlikeli 2459
yapımında 2459
Ör@@ 2459
Kupa 2458
hayat@@ 2458
İskoç 2458
etmesine 2457
YouTube 2456
figür@@ 2455
soğ@@ 2455
Boğazı 2454
Gerçek 2454
alanının 2454
birey@@ 2454
ius 2454
tad@@ 2454
François 2453
Kütüphanesi 2453
iktidar@@ 2453
onda 2453
çocuğ@@ 2453
evde 2452
numara 2452
91 2451
uda 2451
çıkarıldı 2451
ray@@ 2449
Ru@@ 2448
bilinmeyen 2448
sanatçının 2448
Cengiz 2447
diklerini 2447
katlı 2446
negatif 2446
usunda 2446
Ruslar 2445
akan 2445
tasarlanmıştır 2445
ıca 2445
araçları 2444
kare 2444
und@@ 2444
topladı 2443
ımcı 2443
Pazar 2442
Polis 2442
aksiyon 2442
cezalandır@@ 2442
diğ@@ 2442
bakanı 2441
Geç 2440
Hakları 2439
Murad 2439
Tut@@ 2439
giymiştir 2439
taşıma 2439
ulaştır@@ 2439
yapının 2439
11.@@ 2438
White 2438
hidrojen 2438
seyir@@ 2438
Yakın 2437
test@@ 2437
Çayı 2437
Kale 2436
plak@@ 2436
ulmuştur 2436
adları 2435
umun 2435
Söz 2434
elektr@@ 2434
ografi 2434
direktör@@ 2433
fa@@ 2433
yapılandır@@ 2433
Cer@@ 2432
Yol 2432
abad 2432
dair@@ 2432
Fas 2431
Türkçeye 2431
betim@@ 2431
kampany@@ 2431
Kup@@ 2430
aldıktan 2430
icra 2430
mükemmel 2430
1876 2429
Walter 2429
boya 2429
ileriyle 2429
Dem@@ 2428
hisar 2428
kapsar 2428
muş@@ 2428
köpek@@ 2427
yumurta 2427
Hakkında 2426
balığı 2426
Mahallesi 2425
adlandırıl@@ 2425
alama 2425
tekli 2425
verdiler 2425
dest@@ 2424
sand@@ 2424
Sultan@@ 2422
koordin@@ 2422
çap@@ 2422
üstlen@@ 2422
hükümdarı 2421
keskin 2421
stadyum@@ 2421
öğrenciler 2420
Finali 2419
alınır 2419
döng@@ 2419
Bazen 2418
bulunmamaktadır 2418
has 2417
yenilen@@ 2417
1877 2416
ile@@ 2416
otlar 2416
kimlik 2415
Atletizm 2414
evren@@ 2414
İbranice 2414
01 2413
2,@@ 2413
etten 2413
lenerek 2413
AP 2412
Antakya 2412
Madalyası 2412
bayrağı 2412
önlem@@ 2412
tiy@@ 2411
Ri@@ 2410
ayrıntılı 2410
ört@@ 2410
Yabancı 2409
köken@@ 2409
liliği 2409
mektup 2409
tom@@ 2409
almasına 2408
je 2408
çalın@@ 2407
çerçev@@ 2407
Müdürü 2406
maliyet@@ 2406
yendi 2406
Cam@@ 2405
yenin 2405
GB 2404
dost@@ 2404
tanımlanmıştır 2404
89 2403
1896 2402
Oğuz 2402
Bahç@@ 2401
Mam@@ 2401
Nas@@ 2401
almakta 2401
sk 2401
University 2400
geliştirilmiştir 2400
hiper@@ 2400
olmasıyla 2400
yarışmaya 2400
Nik@@ 2399
alıdır 2399
ettikten 2399
ikincisi 2399
ıtlar 2399
1904 2398
Lord 2398
Recep 2398
leştirme 2398
ıklarında 2397
atılan 2396
orta@@ 2396
Night 2395
Orijinal 2395
ardaki 2395
serg@@ 2395
Yayınları 2394
eyaleti 2394
ğlu 2393
merkezinin 2392
alım 2391
hal 2391
müdahal@@ 2391
olar@@ 2391
Hatay 2390
pilot 2390
Bölüm@@ 2389
demokratik 2389
koruy@@ 2389
telef@@ 2389
Wilson 2388
defans 2388
farklıl@@ 2388
ressam@@ 2388
Ürdün 2388
eliği 2387
kisi 2387
milyondan 2387
yayımlan@@ 2387
gerçekleştirilmiştir 2386
mensup 2386
leştirilmiş 2385
metin@@ 2385
İngiliz@@ 2385
incel@@ 2384
makine 2384
sayısını 2384
uyumlu 2384
bombal@@ 2383
yardımc@@ 2383
Küre 2382
dokun@@ 2382
havz@@ 2382
kli@@ 2382
fü@@ 2381
Cas@@ 2380
adığını 2380
rı 2380
süz@@ 2379
SC 2378
kimya 2378
konularda 2378
resi 2378
îler 2378
Şahin 2378
bağlayan 2377
enerjisi 2377
istasyonu 2377
Barcelona 2376
inus 2376
olan@@ 2376
yürüttü 2376
Şampiyon 2376
bağlantısı 2375
molekül@@ 2375
mus@@ 2375
uyuşturucu 2375
İsk@@ 2375
ıysa 2375
Sinop 2374
Team 2374
amay@@ 2373
demektir 2373
çiçek 2373
Arena 2372
afa 2371
hayvanlar 2371
şov@@ 2371
Por@@ 2370
Varşova 2369
takma 2369
alırken 2368
balık@@ 2368
lir 2368
Lev@@ 2367
aşma 2367
sendromu 2367
Şampiyon@@ 2367
cinsiyet 2366
cü 2366
mahkeme 2366
sayf@@ 2366
Mike 2365
Milano 2365
boşalt@@ 2365
kas 2365
zamanın 2365
çevr@@ 2365
Andrew 2364
C. 2364
çözüm 2364
direkt 2363
hazırladığı 2363
Şehri 2363
ask@@ 2362
bank@@ 2362
ittifak 2362
işlev@@ 2362
mekte@@ 2362
ales 2361
dinamik 2361
Dördüncü 2360
baskısı 2360
çubuklu 2360
üsünün 2360
House 2359
lah@@ 2359
teorik 2359
ela 2358
go 2358
tabi 2358
Brian 2357
ayet@@ 2357
Yapım 2355
buhar@@ 2355
uygulamalar 2355
ი@@ 2355
Dizinin 2354
Stephen 2354
fal@@ 2354
katman@@ 2354
luğunda 2354
mesafe 2354
ula 2354
işgal@@ 2353
alanın 2352
atanmıştır 2352
Yıl 2351
ges@@ 2351
gövde 2351
düşünces@@ 2350
emri 2350
gösterilir 2350
katılmaya 2350
kaza 2350
not 2350
anıl@@ 2349
edebi 2349
indi 2349
zehir@@ 2349
ıyorlardı 2349
Gur@@ 2347
Ulu@@ 2347
amam@@ 2347
kaynaklı 2347
mesel@@ 2347
senarist 2347
Tim@@ 2346
anmıştır 2346
allı 2345
enn@@ 2345
likte 2345
olmaması 2345
79 2344
D. 2344
Kurt 2344
20@@ 2343
Aslan 2343
Oblastı 2343
anahtar 2343
oyunda 2343
Komutanı 2342
fikir@@ 2342
fonksiyonu 2342
öğrenim 2342
Buenos 2341
Komis@@ 2341
belges@@ 2341
Önce 2341
benzeyen 2340
fakül@@ 2340
geçmişi 2340
huzur@@ 2340
karşılaştı 2340
lıkla 2340
meslek@@ 2340
1901 2339
Corporation 2339
marka 2339
B. 2337
S. 2336
parlament@@ 2336
Hazar 2335
seviye 2335
öldüğü 2335
Bülent 2334
Oxford 2334
Sul@@ 2334
bayrak 2334
hisse@@ 2334
partisi 2334
tank@@ 2332
Aires 2331
Kuy@@ 2331
Ord@@ 2331
ilgisi 2331
pen@@ 2330
tanımlamak 2330
coğraf@@ 2329
düşünülen 2329
ion 2329
gesi 2327
kral@@ 2326
stüd@@ 2326
-- 2325
07 2324
rel@@ 2324
Bon@@ 2323
Chi@@ 2323
Holding 2322
dergisinin 2322
görmüş 2322
luğunun 2322
tutan 2322
çekici 2322
ć 2322
Büyü@@ 2321
içe 2321
lek 2321
oyuncudur 2321
topluluk 2321
Özellikleri 2321
üreticisi 2321
Os@@ 2320
prensi@@ 2320
Çevre 2320
Kaya 2319
kaybeden 2319
pları 2319
turn@@ 2319
yetersiz 2319
yor 2319
Kıy@@ 2318
Tav@@ 2318
etkisini 2318
gerektir@@ 2318
ish@@ 2318
köpr@@ 2317
döneme 2316
çektiği 2316
Gir@@ 2315
Tümeni 2315
getirmek 2315
kuzeybatısında 2315
12.@@ 2314
Elektrik 2314
farkı 2314
ket 2314
Onur 2313
ortamda 2313
piyade 2313
finansal 2312
yazıları 2312
yönetim@@ 2311
çısı 2311
Pi@@ 2310
arc@@ 2310
bun@@ 2310
ilin 2310
ub@@ 2310
Çift 2310
şeyin 2310
Napoli 2309
bulan 2309
endüstriyel 2309
görüntül@@ 2309
santr@@ 2309
ülkedeki 2309
Fir@@ 2308
las@@ 2308
ota 2308
sus@@ 2308
topu 2308
Hans 2307
Yat@@ 2306
ef 2306
çeş@@ 2306
çıkıp 2306
isyan@@ 2305
ıtları 2305
Ner@@ 2304
ე@@ 2303
Zam@@ 2302
belediyedir 2302
görünüm@@ 2301
olduğ@@ 2301
ā@@ 2301
Anti@@ 2300
Championship 2300
ath@@ 2300
açıklamada 2300
Çince 2300
Sez@@ 2298
cev@@ 2298
firması 2298
kol 2298
örümcek 2298
kaydedilmiştir 2297
seyirci 2297
sky 2297
çekim@@ 2297
füz@@ 2296
gın 2296
sebeple 2296
tec@@ 2296
Batman 2295
Hareket 2295
Jacques 2294
bırakarak 2293
ic 2293
ister@@ 2293
tul@@ 2293
Maliye 2292
başından 2292
ony@@ 2292
sürüc@@ 2292
endir@@ 2291
per 2291
Bank 2290
tedavisi 2290
yaygındır 2290
hakkını 2289
vol@@ 2289
Şim@@ 2289
Kül@@ 2288
Kız@@ 2288
kant@@ 2288
koydu 2288
mühendislik 2288
Örnek 2288
hâline 2287
Gece 2286
Haf@@ 2286
kayıt@@ 2286
topluluğu 2285
idaresi 2284
prot@@ 2284
ullah 2284
yerleşik 2284
Sın@@ 2283
edilmesini 2283
pencer@@ 2282
lemesi 2281
yapıya 2281
RNA 2280
Who 2280
field 2280
olayların 2280
oma 2279
vatandaşı 2279
çatışmalar 2279
10.000 2278
East 2278
yerden 2278
çatışma 2278
şeh@@ 2278
kitapta 2277
Ünlü 2277
Grande 2276
Emre 2275
adres@@ 2275
ayakta 2275
ayda 2275
açtığı 2275
hareketleri 2275
luluk 2275
yarattı 2275
zafer 2275
Don@@ 2274
Sad@@ 2274
ast 2274
senaryosunu 2274
trafik 2274
fu@@ 2273
görevlerinde 2273
his@@ 2272
Ö 2272
işle@@ 2271
sil 2271
yüzlerce 2271
ıcılık 2271
Küçük@@ 2270
depolama 2270
taşı@@ 2270
yete 2270
Harek@@ 2268
Mey@@ 2268
Sarı 2268
hep@@ 2268
leşmiş 2268
üyesiydi 2268
Alt 2267
bakınız 2267
isi@@ 2267
jen@@ 2267
yeterince 2267
Pre@@ 2266
arının 2266
başlayıp 2266
hapishan@@ 2266
meşhur 2266
istedi@@ 2265
kesi 2265
name 2265
belirlenen 2264
elen 2264
maddesi 2264
yaşad@@ 2264
zemin 2264
baskı@@ 2263
fiy@@ 2263
Cemal 2262
isimlendir@@ 2262
ym@@ 2262
Mac 2261
cins@@ 2261
ike 2261
sayıl@@ 2261
semtinde 2261
Çalış@@ 2261
imzal@@ 2260
konusundaki 2260
Çat@@ 2260
Pensilvanya 2259
galip 2259
geçiril@@ 2259
girişimi 2259
olmasa 2259
Avrupalı 2258
gazetec@@ 2258
rul@@ 2257
şeyler 2257
Ann@@ 2256
Letonya 2256
dağılımının 2256
eğin 2256
gin@@ 2256
yöntemleri 2256
devrim@@ 2255
elinden 2255
müd@@ 2255
tis 2255
töreni 2255
şa 2255
05 2254
Fe@@ 2254
formül@@ 2254
konsol@@ 2254
çili@@ 2254
eğitimine 2253
lili@@ 2253
Stone 2252
ener 2252
istihbarat 2252
yiyecek 2252
dağlık 2251
landığını 2251
rebil@@ 2251
tarafı 2251
vermesi 2251
İoannis 2251
ıç 2250
Charlie 2249
bağlanmıştır 2249
enz@@ 2249
ilçenin 2249
malara 2249
tablo 2249
ıf 2248
Benzer 2247
atin 2247
festiv@@ 2247
plana 2247
Kı@@ 2246
kup@@ 2246
uri 2246
Art 2245
edebiyatı 2245
menler 2245
poli@@ 2245
takımdan 2245
yaşamıştır 2245
Askerî 2244
Kitabı 2244
amış 2243
etkinlik 2243
kuran 2243
130 2242
Tunç 2241
atr@@ 2241
üme 2240
bilimci 2239
ilgisini 2239
lit@@ 2239
meş@@ 2239
muhalefet 2238
Güney@@ 2237
Sonrasında 2237
Yolu 2237
bank 2237
katılım 2237
kayıp 2237
Çinli 2237
ılma 2237
uygar@@ 2236
ımından 2236
0.@@ 2235
hata 2235
kavuş@@ 2235
kum 2235
likten 2235
dam 2234
politikacı 2234
öğretmeni 2234
AS@@ 2233
abildi 2233
dışarı 2233
bakım 2232
bulmuştur 2232
gül 2232
Had@@ 2231
Of 2231
Genelkurmay 2230
birliklerinin 2230
değiştirilmiştir 2230
hır@@ 2230
haftasında 2229
istek@@ 2229
lıkların 2229
üydü 2229
ılığına 2229
4,@@ 2228
Ki@@ 2228
ole 2228
Newton 2227
başbakanı 2227
len 2227
Ses@@ 2226
listede 2226
yayınladığı 2226
eleştirmen@@ 2225
gerçekleştiril@@ 2225
ai@@ 2224
orum 2224
dokuzuncu 2223
tamamlandı 2223
zek@@ 2223
ıtı 2223
Valisi 2222
beden@@ 2222
soyundan 2222
tasarlanan 2222
yedek 2222
Kil@@ 2221
Maç@@ 2221
edebilir 2221
yasama 2221
1903 2220
Web 2220
güneybatısında 2220
sö@@ 2220
Hristiyan@@ 2219
Rumeli 2219
Tatar 2219
icat 2219
parlamento 2219
Filmde 2218
Romalılar 2217
adılar 2217
değiştiril@@ 2217
tahrip 2217
tarihe 2217
yağmal@@ 2216
ışlar 2216
cer@@ 2215
Rak@@ 2214
aram@@ 2214
emeyen 2214
sabah 2214
zade 2214
şem@@ 2214
diğer@@ 2213
sürgün 2213
diyerek 2212
hikâ@@ 2212
iciler 2212
tırman@@ 2212
Fırat 2211
bağl@@ 2211
tedir 2211
yam@@ 2211
Oper@@ 2210
Saf@@ 2210
Swift 2210
tanımlar 2210
tohum@@ 2210
Yeşil@@ 2209
izledi 2209
kahraman@@ 2209
köpek 2209
sakat@@ 2209
yayla 2209
herkes 2208
karakterler 2208
meclis@@ 2208
oviç 2208
ebe 2207
komis@@ 2207
senar@@ 2206
değerleri 2205
erk@@ 2205
gerçekleşmiştir 2205
mühendisliği 2205
Gazete 2204
rütbesine 2204
Üst 2204
giller 2203
miye 2203
müzaker@@ 2203
yazma 2203
Galaxy 2202
Od@@ 2202
iOS 2202
karbon@@ 2202
sahte 2202
avukat 2201
denen 2201
osunda 2201
şair@@ 2201
ayet 2200
og 2200
Floransa 2199
akademisyen 2199
sanatçılar 2199
Alfred 2198
Ev 2198
eklendi 2197
kanıt 2197
meslek 2197
ortalam@@ 2197
PC 2196
ulması 2196
Program@@ 2194
anısına 2194
eta 2193
gı 2193
ng@@ 2193
seviyesi 2193
uta 2193
şehrine 2193
etiketiyle 2192
turnuva 2192
ımc@@ 2192
açıklan@@ 2191
demiştir 2191
ug@@ 2191
Ardahan 2190
fan@@ 2190
gay@@ 2190
inen 2190
kulübün 2190
pel@@ 2190
yarg@@ 2190
borç@@ 2189
erg@@ 2189
faz@@ 2189
ney 2189
profesörü 2189
× 2189
dor@@ 2188
Almanyası 2187
rolünde 2187
ınar 2187
sürülmüştür 2186
cumhur@@ 2185
taraftan 2185
HD 2184
Kanun 2184
direktörlük 2184
sanal 2184
siyonu 2184
sürülen 2184
zırh@@ 2184
Gün 2183
Kazak 2183
Müş@@ 2183
Alice 2182
Green 2182
Orkestrası 2182
buz@@ 2182
romantik 2182
çoklu 2182
anim@@ 2181
kaybı 2181
06 2180
elenen 2180
yeraltı 2180
çalışmak 2180
komün@@ 2179
kısmının 2179
ser 2179
yenilgiye 2179
Girit 2178
Yedi 2178
iliyordu 2178
ümü 2178
ema 2177
harek@@ 2177
Projesi 2176
duygusal 2176
ölçü@@ 2176
Pl@@ 2175
ailesine 2175
görevde 2175
kah@@ 2175
kütle@@ 2175
viz@@ 2175
Bitlis 2174
planlanan 2174
Tur 2173
co@@ 2173
grubudur 2173
aff@@ 2172
mik@@ 2172
ıf@@ 2172
1880 2171
Pin@@ 2171
arını 2171
bat 2171
atörü 2169
devrimci 2169
erkek@@ 2169
melerin 2169
modelleri 2169
mühendis@@ 2169
çam@@ 2169
göze 2168
lıların 2168
öyk@@ 2167
Bes@@ 2166
aldığını 2166
mahkûm 2165
salonu 2165
Halk@@ 2164
fot@@ 2164
ou@@ 2164
takımını 2164
yarattığı 2164
öğrencileri 2164
şeklindedir 2164
Orta@@ 2163
Football 2161
etmekte 2161
ihraç 2161
verilmesi 2161
Meryem 2160
ali@@ 2160
başkanlığına 2160
faktör@@ 2160
farklılık 2160
sezonunu 2160
sistemler 2159
ıcıları 2159
azından 2158
durumuna 2158
Vi@@ 2157
analizi 2157
deneyim@@ 2157
ladığını 2157
oynandı 2157
time 2157
çıkmaya 2157
aşan 2156
dönüştürül@@ 2156
oyuncuları 2156
hel@@ 2155
tı@@ 2155
Enerji 2154
Sudan 2154
melere 2154
Little 2153
Selçuk 2153
döv@@ 2153
ölçüm@@ 2152
açığa 2151
yapmayı 2151
öğreti@@ 2151
luğun 2150
okulda 2150
oluşturulmuştur 2150
uyu 2150
Ohio 2149
emiş 2149
Pot@@ 2148
ain 2148
bask@@ 2148
düzlem@@ 2148
haftada 2148
toz 2148
desteğini 2147
kullanılmış 2147
Yapılan 2146
aydın@@ 2146
ilde 2146
ban 2145
gelişmeler 2145
had@@ 2145
liderliğindeki 2145
savundu 2145
alay@@ 2144
gözük@@ 2144
he 2144
Orada 2143
Pel@@ 2143
akrab@@ 2142
maçlar 2142
yemek@@ 2142
üretildi 2142
Eric 2141
ito 2141
kâr 2141
ülkelerinde 2141
Hoca 2140
Hükûmet 2140
Island 2140
Salonu 2140
içerik 2140
lige 2140
sonuçlanan 2140
Est@@ 2139
Kurul@@ 2139
Parlamento 2139
Vali 2139
Babil 2138
olanak@@ 2138
timi 2138
topraklarını 2138
Columbia 2137
hızlandır@@ 2137
çekirdek 2137
Lim@@ 2136
Saldır@@ 2136
duyar@@ 2136
mutlak 2136
hab@@ 2135
ılığın 2135
Maine 2134
Piyade 2134
hukuk@@ 2134
Şampiyonu 2134
belirtilmiştir 2133
imz@@ 2133
ticaret@@ 2133
Yazar 2132
etinin 2132
patlam@@ 2132
talar 2132
öf@@ 2132
üğ@@ 2132
Hakan 2131
soruştur@@ 2131
sürer 2131
Sit@@ 2130
itleri 2130
kli 2130
mektir 2130
110 2129
oyuncunun 2129
Atlas 2128
Heinrich 2128
koşulları 2128
Mimar 2127
Yapı 2127
aşağıda 2127
kural@@ 2127
lediler 2127
numarası 2127
âh@@ 2127
Şirketin 2127
Kevin 2126
Kh@@ 2126
amaç 2126
düzenleme 2126
geçirmek 2126
seçti 2126
verileri 2126
bırakmıştır 2125
od 2125
öldürür 2125
başlamıştı 2124
grubunu 2124
Eng@@ 2123
Euro 2123
Türkleri 2123
kiye 2123
kuşu 2123
riye 2123
başarmıştır 2122
egemen 2122
bölümün 2121
edilmesine 2121
gerçekleştirdiği 2121
katılmak 2121
lıyor 2121
ılmasıyla 2121
Etimoloji 2120
ark 2120
bizzat 2120
değişikliği 2120
evler 2120
öncü 2120
Ha@@ 2119
haz@@ 2119
maddenin 2119
öyle 2119
Konstantin 2118
Orman 2118
düzelt@@ 2118
evden 2118
yaşamaya 2118
Savaşın 2117
Uşak 2117
aras@@ 2117
ass@@ 2117
dire@@ 2117
iyice 2117
köşe 2117
sinyal@@ 2117
ung@@ 2117
Illinois 2116
yaya 2115
yse 2115
Öl@@ 2115
çiç@@ 2115
ıldıktan 2115
Niz@@ 2114
hükûmetin 2114
kodu 2114
okuma 2114
net@@ 2113
portr@@ 2113
Alex 2112
Artık 2112
Center 2112
Eserleri 2112
yel@@ 2112
Des@@ 2111
ediler 2111
ülkesinde 2111
olmaları 2110
vez@@ 2110
bulunabilir 2109
fiz@@ 2109
üşü 2109
Şampiyonluğu 2109
SB@@ 2108
doğduğu 2108
naz@@ 2108
çalışmalarının 2108
öykü 2108
cil@@ 2107
değin 2107
yağış 2107
Albümde 2106
Uzun@@ 2106
bakır 2106
organı 2106
yolunu 2106
Prag 2105
sıkça 2105
İk@@ 2105
kanı 2104
katılma 2104
kemer 2104
miktar 2104
savunan 2104
tahmini 2104
Bask@@ 2103
Sistem@@ 2103
muşlardır 2103
yn@@ 2103
W. 2102
iliğe 2102
les 2102
pilot@@ 2102
eşcinsel 2101
haf@@ 2101
rek 2101
ızı 2101
Zonguldak 2100
caz 2100
cilt 2100
hil@@ 2100
izleyic@@ 2099
kurban 2099
köyüne 2099
saldırıları 2099
yaklaşım 2099
öğret@@ 2099
şarkıcısı 2099
Ez@@ 2098
olmad@@ 2098
rahatsız 2098
yaygın@@ 2098
Dili 2097
Kara@@ 2097
enfeksiyon@@ 2097
yazılar 2097
Anayasası 2096
doğmuş 2096
Bağımsız 2095
Opera 2095
kritik 2095
örgütü 2095
Kayn@@ 2094
acağına 2094
ağız@@ 2094
Yav@@ 2093
deydi 2093
kaçtı 2093
kten 2093
tt@@ 2093
öv@@ 2093
Türklerin 2092
duyuruldu 2092
numaradan 2092
Adnan 2091
Devlet@@ 2091
anayasa 2091
değişken@@ 2091
eren 2091
kocası 2091
yeteneği 2090
muharebe 2089
salın@@ 2089
AC 2088
Fen@@ 2088
altyapısında 2088
cısı 2088
tuğu 2088
üzüm 2088
Adolf 2087
Mektebi 2087
gar 2087
kupa 2087
türün 2087
yöneten 2087
İmparator@@ 2087
ıza 2086
Oğ@@ 2085
Pale@@ 2085
arkadaş 2085
emir@@ 2085
etle 2085
gemileri 2085
olurlar 2085
yükselt@@ 2085
Bayr@@ 2084
buy@@ 2084
kayda 2084
çü 2084
Ry@@ 2083
eus 2083
Ph@@ 2082
rahi@@ 2082
tanıtıldı 2082
şir@@ 2082
geliştirmek 2081
kullanıc@@ 2081
ımla 2081
Bilimleri 2080
Cambridge 2079
albüm@@ 2079
alkol 2079
inti@@ 2079
Blue 2078
Einstein 2078
Emin 2078
güneydoğusunda 2078
lehç@@ 2078
sur 2078
op 2077
bölgeden 2076
chi 2076
filme 2076
kontrolünü 2076
maçlarını 2076
sayg@@ 2076
şeklindeki 2076
Böyle 2075
belediyesine 2075
gelişim 2075
kaplı 2075
savaştan 2075
Araç 2074
bunlara 2073
inter@@ 2073
lıkta 2073
oluşturuldu 2073
ost@@ 2073
İklim 2073
Cami 2072
alanındaki 2072
yazısı 2072
kitab@@ 2070
saldırdı 2070
etkinliği 2069
ft 2069
Porto 2068
araştırmac@@ 2068
hr@@ 2068
ilim@@ 2068
Fel@@ 2067
Philadelphia 2067
anahtar@@ 2067
araçlar 2067
bik 2067
esiz 2067
soyadı 2067
vok@@ 2067
Michigan 2066
Türkçesi 2066
filmlerde 2066
seslendirdi 2066
sömür@@ 2066
âh 2066
öykü@@ 2066
görmek 2065
güncell@@ 2065
luklar 2065
Harekâtı 2064
Hırvat 2064
Pekin 2064
Salih 2064
ebileceği 2064
konuları 2064
sy@@ 2064
entegre 2063
ilki 2063
iner 2063
kaydı 2063
mevsim@@ 2063
moda 2063
çet@@ 2063
1870 2062
Francis 2062
Seb@@ 2062
bilen 2062
haricinde 2062
hük@@ 2062
ram@@ 2062
sergilen@@ 2062
yn 2062
Slovenya 2061
büyüyen 2061
dünyasında 2061
Fizik 2060
Malezya 2060
ağacı 2060
birinc@@ 2060
köye 2060
ordusuna 2060
Oyunun 2059
fes@@ 2059
Baş 2058
Num@@ 2058
Otto 2058
inanc@@ 2058
verim@@ 2058
ılarıyla 2058
döndür@@ 2057
oksijen 2057
vize 2057
şehirleri 2057
Anthony 2056
Dergisi 2056
Ot@@ 2056
eserin 2056
idin 2056
uluk 2056
Şek@@ 2056
içeriği 2055
mand@@ 2055
mesle@@ 2055
sti@@ 2055
und 2055
üçlü 2055
Karşıyaka 2054
Kulesi 2054
eke 2054
güreşçi 2054
heykel 2054
iktidar 2054
Chelsea 2053
Off 2053
kazanır 2053
rom 2053
grubunda 2052
uygulamaya 2052
amadığı 2051
ağan 2051
car@@ 2051
ilaç@@ 2051
kimse 2051
sürdüren 2051
enerj@@ 2050
yaptıktan 2050
gitmek 2049
hedefi 2049
uğa 2049
hayvanların 2048
taarruz 2048
yetişkin 2048
İletişim 2048
Cev@@ 2047
Futbolculuk 2047
Peru 2047
maçını 2047
uzanır 2047
üstün@@ 2047
1897 2046
ayrım 2046
düğünde 2046
kemeri 2046
mutlu 2046
şirketinin 2046
Albay 2045
Dükü 2045
fer 2045
lağ@@ 2045
aci@@ 2044
beyaz@@ 2044
parmak 2044
Önemli 2044
öden@@ 2044
danışman@@ 2043
desteğiyle 2043
topraklarının 2043
örgüt 2043
1500 2042
bahar 2042
etine 2042
yüklü 2042
ahı 2041
sunucu 2041
Farklı 2040
Meslek 2040
No@@ 2040
adlandırıldı 2040
feder@@ 2040
gittiği 2040
Jon 2039
Ram@@ 2039
enek@@ 2039
yalar 2039
Ermenice 2038
PlayStation 2038
elektron@@ 2038
mark@@ 2038
yev 2038
rekoru 2037
Yorkshire 2036
Yör@@ 2036
anlığı 2036
başarısız@@ 2036
iliş@@ 2036
kullanmaktadır 2036
lul@@ 2036
masa 2036
Pen@@ 2035
kesiş@@ 2035
besin 2034
ty 2034
duruş@@ 2033
tura 2033
anos 2032
eğini 2032
mış@@ 2032
ımız 2032
1899 2031
Lu@@ 2031
Uygur 2031
anlamıyla 2031
etlerin 2031
ger 2031
sayılan 2031
çocuğun 2031
ი 2031
Bed@@ 2030
mitolojisinde 2030
oyunudur 2030
türünde 2030
ımların 2030
Barajı 2029
Yemen 2029
barındıran 2029
kt@@ 2029
pişir@@ 2029
Şir@@ 2029
ecekleri 2028
futbolu 2028
teri 2028
Cad@@ 2027
epe 2027
karşılığı 2027
ograf@@ 2027
Hac@@ 2026
Harvard 2026
Kadıköy 2026
aklık 2026
biten 2026
imzalan@@ 2026
şarkıyla 2026
değişiklik@@ 2025
eliptik 2025
felsefi 2025
istey@@ 2025
ittif@@ 2025
pir@@ 2025
rek@@ 2025
uzman 2025
F. 2024
Panzer 2024
Romalı 2024
eki@@ 2024
işletme 2024
ortam 2024
İnönü 2024
Eyalet 2023
Vil@@ 2023
düşmüştür 2023
gidip 2023
göstermek 2023
isminin 2023
person@@ 2023
personel 2023
televizyon@@ 2022
zincir@@ 2022
Sub@@ 2021
blo@@ 2021
kilisenin 2021
Çekoslovakya 2021
Görün@@ 2020
arında 2020
bl@@ 2020
beklem@@ 2019
birbirleriyle 2019
kapsam@@ 2019
sağlığı 2019
senaryo 2019
Kiş@@ 2018
Red@@ 2018
avantaj@@ 2018
lanmıştı 2018
izleyen 2017
mana 2017
ondur 2017
st 2017
azın@@ 2016
dönmüştür 2016
gözden 2016
undadır 2016
Kolombiya 2015
Milletvekili 2015
Tayland 2015
ardan 2015
emiştir 2015
eserlerini 2015
landırma 2015
taraftar@@ 2015
tavsiye 2015
tekni@@ 2015
aret 2014
dolarlık 2014
his 2014
Baz@@ 2013
Samsunspor 2013
tra 2013
çıl@@ 2013
Street 2012
ağırlığı 2012
bulunuyor 2012
Giovanni 2011
Afyonkarahisar 2010
DJ 2010
Ren 2010
dersler 2010
ölçül@@ 2010
belirtilen 2009
kahraman 2008
set 2008
almıştı 2007
iliğini 2007
muhareb@@ 2007
NASA 2006
durumun 2006
Manastırı 2005
Müslüman@@ 2005
anıt 2005
aşamasında 2005
soyl@@ 2005
torunu 2005
Okul 2004
adanın 2004
kurulduğu 2004
Noel 2003
Siyah 2003
cinsi 2003
da@@ 2003
log@@ 2003
düzeni 2002
günden 2002
Çiç@@ 2002
benze@@ 2001
elleri 2001
ort@@ 2001
oru 2001
а@@ 2001
dr@@ 2000
şirketleri 2000
Frankfurt 1999
Nih@@ 1999
edem@@ 1999
korunması 1999
sahibidir 1999
VII 1998
hakk@@ 1998
markası 1998
tis@@ 1998
Adıyaman 1997
Cav@@ 1997
vin@@ 1997
AN@@ 1996
yayınlanmış 1996
ıklık 1996
Koç@@ 1995
Mekke 1995
komutan 1995
sabit@@ 1995
sunar 1995
Üsküdar 1995
ümlü 1995
andığını 1994
kayd@@ 1994
çıkarılmıştır 1994
desteklemek 1993
kök 1993
faaliyetlerini 1992
iro 1992
kalı@@ 1992
cihaz 1991
iPhone 1991
atının 1990
gösteri 1990
hüc@@ 1990
alığı 1989
ağından 1989
hid@@ 1989
kuzeydoğusunda 1989
reaksiyon@@ 1989
teori 1989
Fır@@ 1988
alıyordu 1988
görevli 1988
plerini 1988
akl@@ 1987
etkileyen 1987
görünüş@@ 1987
tahliye 1987
uyandır@@ 1987
Alman@@ 1986
acil 1986
hükümet 1986
zir@@ 1986
çevresi 1986
şarkısının 1986
Go 1985
disipl@@ 1985
olayın 1985
ticareti 1985
trik 1985
yö@@ 1985
yönlü 1985
Is 1984
lıklarını 1984
tüken@@ 1984
1864 1983
ekip@@ 1983
saray@@ 1983
verici 1983
yonlar 1983
á@@ 1983
Arab@@ 1982
Fin 1982
ilgilidir 1982
di.@@ 1981
ikinc@@ 1981
sözleşmesi 1981
topluluğ@@ 1981
yönetimine 1981
zen 1981
Sağ@@ 1980
moleküler 1980
uzman@@ 1980
yüzünde 1980
California 1979
Rick 1979
Çalışmaları 1979
defnedildi 1978
yangın 1978
yona 1977
Kariyer 1976
arttı 1976
bildirildi 1976
değişti@@ 1976
kömür 1976
söyley@@ 1976
yağmur 1976
gerçekleşir 1975
olun@@ 1975
sadık 1975
yazıldı 1975
Ül@@ 1975
Psik@@ 1974
gerektirir 1974
sonucuna 1974
Ermen@@ 1973
Oto@@ 1973
nehri 1973
Arslan 1972
Yardımcılığı 1972
sürük@@ 1972
taleb@@ 1972
şef@@ 1972
aydı 1970
Hur@@ 1969
belirten 1969
isler 1969
kiler 1969
Çocuk@@ 1969
Universe 1968
Hikmet 1967
başa 1967
na@@ 1967
pratik 1967
sokak 1967
Nişanı 1966
ayıp 1966
talim@@ 1966
Yerleş@@ 1965
bileşen@@ 1965
girişi 1965
mill@@ 1965
Sarı@@ 1964
başlay@@ 1964
öre 1964
Pek 1963
bilir 1963
bölümünden 1962
dakik@@ 1962
görevlerini 1962
sine 1962
söyleyerek 1962
Hayat 1961
Com@@ 1960
Devrim 1960
Muş 1960
Villa 1960
Yaşar 1960
lif@@ 1960
suikast 1960
yapıları 1960
Oy@@ 1959
bitiren 1959
kurdular 1959
zorla 1959
Üniversitesinde 1959
3,@@ 1958
Bavyera 1958
Gaga 1958
Kaç@@ 1958
Milan 1958
fikrini 1958
kariyer 1958
nadiren 1958
yar 1958
çalışmalarında 1958
ölçekli 1958
Mimarlık 1957
patlak 1957
yüzölçümü 1957
ımıyla 1957
Akadem@@ 1956
Ex@@ 1956
Japonca 1956
Arjantinli 1955
kün@@ 1955
ligin 1955
seslendirme 1955
yardımı 1955
şefi 1955
1895 1954
Atlantik 1954
P. 1954
Ziya 1954
dizisidir 1954
Samuel 1953
kati@@ 1953
üçte 1953
Gümüşhane 1952
anlaştı 1952
oluşturulmuş 1952
ödülüne 1952
ıklarının 1952
atma 1951
müzisyen@@ 1951
1885 1950
Nuri 1950
Serie 1950
batıya 1950
ece 1950
gitarist 1950
ifadesi 1950
kemik 1950
meclisi 1950
sessiz 1950
sıfır 1950
Bot@@ 1949
erleri 1949
gününde 1949
kalit@@ 1949
olo@@ 1949
plar 1949
örtüsü 1949
Lit@@ 1948
Saat 1948
elektrikli 1948
yazarın 1948
İnşaat 1948
geçer@@ 1947
ikincil 1947
rekt@@ 1947
uzaklığı 1947
yeter@@ 1947
çekmiştir 1947
Görev@@ 1946
Teh@@ 1946
kayıtları 1946
söyle@@ 1946
takiben 1946
tamamladıktan 1946
cular 1945
ense 1945
otuz 1945
wood 1945
Sami 1944
okula 1944
sonsuz 1944
usta 1944
1,2 1943
Game 1943
Cin@@ 1942
Kenan 1942
püskür@@ 1942
sayılar 1942
akşam 1941
anlaşılmaktadır 1941
bot@@ 1941
değişken 1941
flor@@ 1941
gezegen@@ 1941
urlu 1941
Tasarım 1940
asist@@ 1940
farklılıklar 1940
testi 1940
trans@@ 1940
Vilayeti 1939
aye 1939
dos@@ 1939
edildiğini 1939
madır 1939
sentez@@ 1939
uzay@@ 1939
varlık 1939
ayrınt@@ 1938
berabere 1938
destekledi 1938
kolaylaştır@@ 1938
muhalef@@ 1938
ödüller 1938
Gençler 1937
altfamilyasına 1937
let 1937
oj@@ 1937
röportajda 1937
şekil@@ 1937
Aleksandr 1936
Boğaziçi 1936
Kimya 1936
dinî 1936
macı 1936
tersine 1936
yargı 1936
€ 1936
Asteraceae 1935
South 1935
mıştır.@@ 1935
yaralandı 1935
üretic@@ 1935
alacak 1934
beyi 1934
gayr@@ 1934
lüğüne 1934
yos@@ 1934
Çak@@ 1934
kümesi 1933
orkestra 1933
park@@ 1933
misyon@@ 1932
temelini 1932
aliz@@ 1931
tarzında 1931
Hamburg 1930
Karaman 1930
Türkçede 1930
tıkları 1930
Arsenal 1929
ebilirler 1929
evi@@ 1929
mater@@ 1929
tap@@ 1929
yayılan 1929
örnekler 1929
Geliş@@ 1928
Kaş@@ 1928
L. 1928
parçacık 1928
yör@@ 1928
ıd@@ 1928
Kuv@@ 1927
bayr@@ 1927
kriz@@ 1927
takdirde 1927
Eser@@ 1926
Odası 1926
turunda 1926
1,5 1925
arm@@ 1925
binanın 1925
genişlem@@ 1925
geçmesi 1925
ick 1925
yüzyıllarda 1925
Ray 1924
miştir.@@ 1924
şekil 1924
sinir@@ 1923
uyarınca 1923
edilmişti 1922
gündeme 1922
halif@@ 1922
sı@@ 1922
şan 1922
Hugo 1921
uh@@ 1921
bisiklet 1920
evrensel 1920
çoğunun 1920
ülük 1920
açıklanmıştır 1919
kurma 1919
şekildedir 1919
ayg@@ 1918
hazırladı 1918
telif 1918
veriler 1918
Sen 1917
frekans@@ 1917
katılır 1917
vizyona 1917
Ajansı 1916
Kolordu 1916
ekledi 1916
eğine 1916
tikten 1916
Şen@@ 1916
Doctor 1915
belediy@@ 1915
varsa 1915
birleşik 1914
endüstr@@ 1914
çor@@ 1914
Bö@@ 1913
eceklerini 1913
fre@@ 1913
mir@@ 1913
plat@@ 1913
risk 1913
Amsterdam 1912
Bad 1912
Model 1912
Piy@@ 1912
kuşatma 1912
lamayı 1912
ojen 1912
1898 1911
Film@@ 1911
listesidir 1911
rit@@ 1911
Büyükelçisi 1910
genel@@ 1910
programlama 1910
tel 1909
yaptılar 1909
Hi@@ 1908
dom@@ 1907
sığ@@ 1907
1889 1906
freguesia 1906
vet@@ 1906
Moğol@@ 1905
inli 1904
topçu 1904
önemini 1904
Kaptan 1903
Mobile 1903
içerisindeki 1903
oluşumu 1903
5,@@ 1902
anlama 1902
başlaması 1902
eksen@@ 1902
güneye 1902
işin 1902
Radio 1901
Yön@@ 1901
atılmıştır 1901
aşaması 1901
olog@@ 1901
sahil 1901
Bisiklet 1900
fiyat@@ 1900
günlerde 1900
ilginç 1900
yeş@@ 1900
önderliğinde 1900
ıklığı 1900
ılmaya 1900
Mol@@ 1899
element@@ 1899
Hacı@@ 1898
iklim@@ 1898
imkânı 1898
istlerin 1898
sunmaktadır 1898
formu 1897
okulun 1897
terör 1897
öncülük 1897
Dest@@ 1896
Rönesans 1896
ach@@ 1896
geçmişte 1896
hoş@@ 1896
iklimi 1896
rekorunu 1896
yaptığını 1896
Tro@@ 1895
aradan 1895
yayına 1895
olmaktan 1894
oyuncuların 1894
toplay@@ 1894
uzu 1894
yıldızlar 1894
kanser 1893
canl@@ 1892
liberal 1892
ori@@ 1892
kuz@@ 1891
uzmanı 1891
Baltık 1890
Evi 1890
başlangıcı 1890
devamlı 1890
gerekse 1890
sert@@ 1890
şid@@ 1890
Gençlerbirliği 1889
ens 1889
stat@@ 1889
Jan 1888
belirlenir 1888
Lige 1887
Normal 1887
Türkmenistan 1887
altyap@@ 1887
tekniği 1887
Budapeşte 1886
Soğ@@ 1886
abilir@@ 1886
işlemleri 1886
konular 1886
sıralan@@ 1886
Işık 1885
Turnuv@@ 1885
Ten@@ 1884
bestec@@ 1884
güzellik 1884
inceleme 1884
biti@@ 1883
sürece 1883
up@@ 1883
eğe 1882
sın 1882
yaşama 1882
geler 1881
ros@@ 1881
900 1880
Kend@@ 1880
Kent@@ 1880
Sun 1880
ff@@ 1880
kork@@ 1880
verilebilir 1880
ğr@@ 1880
adası 1879
ao 1879
dosya 1879
girmesi 1879
maden 1879
oku@@ 1879
ıkla 1879
14.@@ 1878
kesinlikle 1878
orduları 1878
sızlık 1878
tanrısı 1878
uğun 1878
bakıldığında 1877
referans 1877
rir 1877
Ödül@@ 1877
Adı 1876
Fen 1876
Lady 1876
liye 1876
pomp@@ 1876
uca 1876
17.@@ 1875
Dağ 1875
Dis@@ 1875
Georgia 1875
Sezonu 1875
Up 1875
dis 1875
kalb@@ 1875
tici 1875
yun@@ 1875
Gol@@ 1874
iksel 1874
kaybetmiştir 1874
sembolü 1874
jen 1872
kullanıma 1872
sayısız 1872
yuvarlak 1872
Tel 1871
aylı 1871
eden@@ 1871
illa 1871
tehlik@@ 1871
İlişkiler 1871
ıntı 1871
danışmanı 1870
enti@@ 1870
sens@@ 1870
yalılar 1870
örlük 1870
Balkanlar 1869
Bun@@ 1869
Mario 1869
ılmasından 1869
Hastal@@ 1868
hikâyesi 1868
lim 1868
Bursaspor 1867
Society 1867
kanseri 1867
kapasitesi 1867
mayla 1867
vali 1867
çıkma 1867
Kaf@@ 1866
Patrick 1866
baraj@@ 1866
co 1866
lileri 1866
nek@@ 1866
plerin 1866
yolunda 1866
astr@@ 1865
büyüklüğ@@ 1865
kafa 1865
Alanı 1864
anlarının 1864
türünün 1864
Azeri 1863
Said 1863
kitaplar 1863
lam 1863
sitesinde 1863
Edebiyatı 1862
davranış 1862
rap 1862
Henri 1861
ancılar 1861
andaki 1861
evrim@@ 1861
fan 1861
kov 1861
sırayı 1861
zan 1861
İkili 1861
Kü@@ 1860
Leon 1860
Maç 1860
Osman@@ 1860
aracın 1860
dığında 1860
etinde 1860
güncel 1860
km@@ 1860
merceksi 1860
teknolojisi 1860
tiz@@ 1860
Abbas 1859
Sekreteri 1859
delik 1859
eter@@ 1859
mişlerdi 1859
so 1859
öğrenir 1859
Köln 1858
dilde 1858
popüler@@ 1858
Ep@@ 1857
Mezopotamya 1857
benim 1857
durumunu 1857
tarihini 1857
Association 1856
Bingöl 1856
Metal 1856
belirlem@@ 1856
elenmiştir 1856
yıla 1856
şöyledir 1856
Dok@@ 1855
Moldova 1855
başlad@@ 1855
düzel@@ 1855
görevlendirildi 1855
oyuncusudur 1855
birlikler 1854
buradaki 1853
kayde@@ 1853
sayılır 1853
Bilimsel 1852
Moğolistan 1852
tanımı 1852
virüs@@ 1852
360 1851
başlı 1851
kul 1851
merkezleri 1851
Luis 1850
iktidara 1850
sıralarda 1850
üsünü 1850
Rose 1849
anlardan 1849
Profesör 1848
süvari 1848
Franz 1847
doğrusal 1847
kombin@@ 1847
viç 1847
yapısal 1847
Çin@@ 1847
özelliğini 1847
ınd@@ 1847
Şer@@ 1847
ago 1846
landığında 1846
üslu@@ 1846
kullanma 1845
kuralları 1845
kurtarmak 1845
− 1845
yoksa 1844
şim@@ 1844
Tekirdağ 1843
ami@@ 1843
baskıs@@ 1843
gelir@@ 1843
hareketinin 1843
kırmız@@ 1843
temeli 1843
unvan@@ 1843
Avustralyalı 1842
Bakanlar 1842
Sos@@ 1842
amaçlayan 1842
anlay@@ 1842
bölümüne 1842
ej@@ 1842
lilerin 1842
taşları 1842
zamanki 1842
çevresel 1842
çıkışı 1842
ödeme 1842
Programı 1841
gizlice 1841
post@@ 1841
yöneti@@ 1841
çıkarmıştır 1841
Din 1840
Gazetesi 1840
genin 1840
yönetimindeki 1840
³ 1840
Kant@@ 1839
Zeki 1839
ağz@@ 1839
Asker@@ 1838
Karşıl@@ 1838
değişimi 1838
görevler 1838
hassas 1838
ışığın 1838
Bilgisayar 1837
hoc@@ 1837
inşası 1837
mamaktadır 1837
Victor 1836
kurt 1836
yağı 1836
acaklarını 1835
görüldüğü 1835
qu@@ 1835
çıkışlı 1835
Nur 1834
bulunmakta 1834
hop 1834
Allen 1833
Die 1833
askerlik 1833
direniş 1833
manları 1833
ović 1833
şirketidir 1833
Filipinler 1832
Horasan 1832
bununla 1832
yatay 1832
Anderson 1831
Twitter 1830
geliştirilmesi 1830
kimliği 1830
vatandaşları 1830
yetenek@@ 1830
üretilmiştir 1830
asi@@ 1829
bayrağ@@ 1829
osunun 1829
süresince 1829
Jr 1828
Müd@@ 1828
kumand@@ 1828
vücud@@ 1828
Çağdaş 1828
100.000 1827
ayrılmaktadır 1827
deneme 1827
dikey 1827
oğlunun 1827
Hy@@ 1826
Ses 1826
bağı 1826
suçlu 1826
tiyle 1826
trav@@ 1826
Miller 1825
ando 1825
ikamet 1825
kub@@ 1825
plar@@ 1825
sürdürmüştür 1825
Düzen@@ 1824
birçoğu 1823
numar@@ 1823
Media 1822
dâhil 1822
ici@@ 1822
kadro 1822
Beni 1821
Yeniden 1821
usuna 1821
yasası 1821
G. 1820
Lincoln 1820
boyun 1820
duran 1820
lendirme 1820
nesne 1820
turnuvada 1820
yolunun 1820
öğrendi 1820
Senato 1819
dular 1819
kileri 1819
olacaktı 1819
raki@@ 1819
yöne@@ 1819
ahl@@ 1818
artması 1818
sesli 1818
ulaşır 1818
aret@@ 1817
kurarak 1817
Önceki 1817
á 1817
düşmesi 1816
ebeveyn@@ 1816
işç@@ 1816
karşısına 1816
çalışt@@ 1816
ölümünün 1816
ıklara 1816
Del 1815
My@@ 1815
Roger 1815
araştırmaları 1815
ınız 1815
şarkıc@@ 1815
Tuğ@@ 1814
aktaydı 1814
denin 1814
geçirmiştir 1814
pay 1814
Jim 1813
Kartal 1813
Key@@ 1813
Studios 1813
Town 1813
güvenilir 1813
lisi 1813
Göster@@ 1812
Tas@@ 1812
Teşkilatı 1812
milliyetçi 1812
göğ@@ 1811
paylaştığı 1811
teknik@@ 1811
turnuvaya 1811
Avusturyalı 1810
Diego 1809
burg 1808
geçirildi 1808
mercekli 1808
sanatsal 1808
söylediği 1808
üreme 1808
Bayezid 1807
ertel@@ 1807
finali 1807
iniz 1807
kalması 1807
Venezuela 1806
Yun@@ 1806
ator 1806
eşliğinde 1806
serinin 1806
suçlam@@ 1806
Üy@@ 1806
Medya 1805
Olimpiyat@@ 1805
Sk@@ 1805
Tayvan 1805
aga 1805
aktiv@@ 1805
koc@@ 1805
çeker 1805
Yönetmen 1804
avcı 1804
yamaç@@ 1804
ısıt@@ 1804
ansal 1803
yede 1803
1860 1802
Ertuğrul 1802
düzeyi 1802
güvenliği 1802
ner@@ 1802
sever@@ 1802
Adams 1801
desteklenen 1801
disk 1801
isimdir 1801
lerek 1801
verdikleri 1801
önerdi 1801
Jane 1800
üvey 1800
Marcus 1799
Stockholm 1799
duyul@@ 1799
miz@@ 1799
Slovakya 1798
düzeyinde 1798
liber@@ 1798
yapılabilir 1798
çıkmaktadır 1798
başarısını 1797
buğday 1797
tuş@@ 1797
vey@@ 1797
İrlandalı 1797
kaş@@ 1796
türk@@ 1796
vet 1796
yaygınlaş@@ 1796
Müslümanlar 1795
amik 1795
belirtil@@ 1795
duyduğu 1795
güne 1795
hücreleri 1795
yüzüne 1795
Benjamin 1794
ame 1794
mimarlık 1794
rem 1794
rüt@@ 1794
ys 1794
İslam@@ 1794
ılmıştı 1794
AR@@ 1793
Kurucu 1793
Kılıç 1793
işlevi 1793
satılan 1793
3000 1792
ian 1792
işine 1792
baraj 1791
günleri 1791
milit@@ 1791
modül@@ 1791
tarif 1791
yüksektir 1791
sıkıştır@@ 1790
Koç 1789
dinsel 1789
harekât@@ 1789
kıvr@@ 1789
tanınmıştır 1789
çıkarmak 1789
Vas@@ 1788
Yıldız@@ 1788
ailesiyle 1788
grupların 1788
hukuku 1788
ith@@ 1788
memel@@ 1788
zamanların 1788
öğrencilerin 1788
Lüksemburg 1787
aban 1787
yaşıyordu 1787
Eleme 1786
cins 1786
dönerek 1786
finanse 1786
harcam@@ 1786
unut@@ 1786
ver 1786
üf@@ 1786
ST@@ 1785
gücünün 1785
Haned@@ 1784
yarımad@@ 1784
1894 1783
Cenevre 1783
aldıkları 1783
başlatılan 1783
gerç@@ 1783
kal 1783
metal@@ 1783
metredir 1783
pazarı 1783
Mevcut 1782
üsünde 1782
ıkça 1782
Halen 1781
Paz@@ 1781
Xbox 1781
birleşerek 1781
ond@@ 1781
zihinsel 1781
hapse 1780
The@@ 1779
key@@ 1779
keşfedildi 1779
lehine 1779
parlak@@ 1779
takip@@ 1779
Girl 1778
Kaynak 1778
elini 1778
isin 1778
uvar@@ 1778
yazarları 1778
Christopher 1777
Dan 1777
alçak 1777
doğuya 1777
usunun 1777
21. 1776
Dead 1776
Uygulam@@ 1776
kron@@ 1776
yitir@@ 1776
yüzyıl@@ 1776
ödüllendir@@ 1776
ölümcül 1776
ışığı 1776
ezi 1775
filozof 1775
iniş 1775
solunum 1775
ısın@@ 1775
dal 1774
ee 1774
enstit@@ 1774
İzmit 1774
stil 1773
ünce 1773
Demiryolu 1772
Deresi 1772
Norman 1772
motorlu 1772
tün@@ 1772
yerek 1772
13@@ 1771
Karay@@ 1771
anlaşmaz@@ 1771
bütç@@ 1771
sahipleri 1771
suzluk 1771
türündeki 1771
A.@@ 1770
Köy@@ 1770
suya 1770
telefon@@ 1770
Aksu 1769
Franklin 1769
beden 1769
hitap 1769
kabul@@ 1769
kule 1769
bulaş@@ 1768
müziğ@@ 1768
sürüm 1768
A.Ş. 1767
Bağımsızlık 1767
Sahne 1767
gezegen 1767
hor@@ 1767
İdare 1767
Fo@@ 1766
bal 1766
enj@@ 1766
Özgün 1766
İmam 1766
Douglas 1765
benimsem@@ 1765
evleri 1765
gun@@ 1765
gur@@ 1765
kelimesinden 1765
korudu 1765
manastır@@ 1765
üldü 1765
başkent@@ 1764
cep 1764
eyerek 1764
noktas@@ 1764
Fre@@ 1763
Haç@@ 1763
açıklar 1763
taarruz@@ 1763
çalışmış 1763
03 1762
beraber@@ 1762
eklenmiştir 1762
işlerdir 1762
satıldı 1762
5.000 1761
Mühendislik 1761
hacmi 1761
une 1761
yetenekli 1761
önder@@ 1761
şirketler 1761
Johann 1760
Nitekim 1760
Soğuk 1760
Your 1760
adal@@ 1760
reç@@ 1760
Atab@@ 1759
Davis 1759
Super@@ 1759
beklenen 1759
belge 1759
felsefesi 1759
kişilere 1759
otel 1759
seks 1759
seslendirdiği 1759
çıkt@@ 1759
Siv@@ 1758
açısı 1758
ettirdi 1758
ket@@ 1758
sunulmuştur 1758
üyeliğine 1758
Kulüpler 1757
Müs@@ 1757
Sivil 1757
Vak@@ 1757
abildiği 1757
katkı@@ 1757
anki 1756
bağır@@ 1756
kurumu 1756
obj@@ 1756
amaya 1755
başkanlığında 1755
ensis 1755
görüşü 1755
Parti@@ 1754
Tunceli 1754
bırakır 1754
entr@@ 1754
sayfa 1754
simgel@@ 1754
suda 1754
Hakkı 1753
ned@@ 1753
orik 1753
tartışmalı 1753
sall@@ 1752
termin@@ 1752
Ayak@@ 1751
Turgut 1751
hastanede 1751
belirsiz 1750
futbola 1750
oluşturmuştur 1750
ıklarına 1750
Haber 1749
atlet 1749
emey@@ 1749
etkilenen 1749
küçük@@ 1749
sağladığı 1749
tuğ@@ 1749
umi 1749
vasıtasıyla 1749
Ail@@ 1748
MP 1748
acakları 1748
amaktadır 1748
mine 1748
Üyesi 1748
Almanlar 1747
ebilir@@ 1747
evr@@ 1747
nem 1747
polimer@@ 1747
6,@@ 1746
Hürriyet 1746
kentsel 1746
yukar@@ 1746
Aster 1745
Toprak 1745
dağı 1745
fik 1745
oti@@ 1745
Bro@@ 1744
Isparta 1744
apa 1744
günün 1744
vis@@ 1744
yaprak 1744
devletler 1743
fesh@@ 1743
kararlı 1743
kültürünün 1743
İşletme 1743
… 1743
uni 1742
Bre@@ 1741
Connecticut 1741
bebek 1741
dikil@@ 1741
ensel 1741
eç@@ 1741
undur 1741
Uruguay 1740
gereklidir 1740
kuyu 1740
riv@@ 1740
ucunda 1740
180 1739
Div@@ 1739
bitkil@@ 1739
tutar 1739
Hun@@ 1738
Meg@@ 1738
Rem@@ 1738
SmackDown 1738
anından 1738
olojinin 1738
tasvir@@ 1738
ud 1738
yayınlamıştır 1738
Turnuvası 1737
başlığı 1736
miras 1736
yeğeni 1736
1893 1735
Network 1735
ichi 1735
ky 1735
kılıç 1735
Facebook 1734
kemerini 1734
nic@@ 1734
sözlü 1734
şar 1734
eylem 1733
fak@@ 1733
nd@@ 1733
sürgüne 1733
unlu 1733
Babasının 1732
burun 1732
ulaşmak 1732
Hiz@@ 1731
IP 1731
gök 1731
özdeş@@ 1731
ceza@@ 1730
dram 1730
mahallenin 1730
sayısal 1730
ücret@@ 1730
ülkelere 1730
bakanl@@ 1729
kuşlar 1729
sevdiği 1729
yollar 1729
vs 1728
İngilizler 1728
Kin@@ 1727
avc@@ 1727
les@@ 1727
müşlerdir 1727
radikal 1727
th 1727
yaratıcı 1727
şarap@@ 1727
gösteriyor 1726
karakterdir 1726
karakterleri 1726
komş@@ 1726
stadyum 1726
Slav 1725
Tir@@ 1725
biyograf@@ 1725
fen 1725
kaynaklara 1725
koruyucu 1725
rin 1725
sekreteri 1725
ındaydı 1725
Halife 1724
Lake 1724
akış 1724
ilave 1724
zorun@@ 1724
Boy 1723
dünyayı 1723
iliğin 1723
lerindendir 1723
odası 1723
ting 1723
yakalam@@ 1723
ülkesinin 1723
elemeleri 1722
liderleri 1722
rastgele 1722
za@@ 1722
Çankırı 1722
14@@ 1721
Ryan 1721
kuy@@ 1721
üyelerinden 1721
Mahkeme 1720
bine 1720
eksikliği 1720
erdir@@ 1720
mız@@ 1720
öyküsü 1720
Festival 1719
Kri@@ 1719
Yayın@@ 1719
gökada 1719
kasabadır 1719
tarımsal 1719
unları 1719
yarışmanın 1719
olmadı 1718
rel 1718
tarihî 1718
ts 1718
Arif 1717
akımı 1717
alışveriş 1717
beyli 1717
bölgesini 1717
kutu@@ 1717
resept@@ 1717
göçmen 1716
hareketli 1716
1800 1715
Song 1715
bel 1715
kamp 1715
rak 1715
Nijerya 1714
bireylerin 1714
evin 1714
tamamlayarak 1714
Ağır 1713
Cannes 1713
Sofya 1713
Tarihsel 1713
kör@@ 1713
stratej@@ 1713
Genelde 1712
Ty@@ 1712
yayımladığı 1712
Dağlık 1711
Kazan 1711
blok 1711
dad@@ 1711
geminin 1711
kullanıcıların 1711
rebilir 1711
yarıştı 1711
üretmek 1711
0,@@ 1710
Sto@@ 1710
tale@@ 1710
yarışan 1710
Gine 1709
Jo@@ 1709
basam@@ 1709
d.@@ 1709
potansiy@@ 1709
Bâ@@ 1708
başlanan 1708
deye 1708
iko 1708
kri@@ 1708
tanımladı 1708
tavsiy@@ 1708
tül@@ 1708
İsmet 1708
Ari@@ 1707
Güzel@@ 1707
Prenses 1707
katliam@@ 1707
teklif@@ 1707
ıklarından 1707
Lise 1706
alırlar 1706
arına 1706
duygul@@ 1706
videosu 1706
CEO 1705
Ziraat 1705
gittikçe 1705
inanç 1705
toprağa 1705
Kazak@@ 1704
Zer@@ 1704
emis@@ 1704
ksel 1704
02 1703
Dön@@ 1703
Kuşatması 1703
askerlerin 1703
teşkil@@ 1703
ular@@ 1703
1882 1702
Oyuncular 1702
kabiliy@@ 1702
parçac@@ 1702
sıralama 1702
Fiz@@ 1701
Kartaca 1701
belirlendi 1701
ribaund 1701
zih@@ 1701
üreti@@ 1701
Emmy 1700
anını 1700
çaba 1700
çekimleri 1700
Hitit 1699
etkileşim 1699
katılarak 1699
mücadelesi 1699
tahttan 1699
çür@@ 1699
ürettiği 1699
Lawrence 1698
Minnesota 1698
haberi 1698
politikac@@ 1698
Çelik 1698
Ateş@@ 1697
Devrimci 1697
Tü@@ 1697
imparatoru 1697
liy@@ 1697
Kuz@@ 1696
1892 1695
Bl@@ 1695
sahiptirler 1695
sunan 1695
ân@@ 1695
30@@ 1694
Geri 1694
Pis@@ 1694
derecesini 1694
ets 1694
herkesin 1694
ilmez 1694
soyu 1694
yayınlanmaya 1694
İçin 1694
Michel 1693
Mücadele 1693
Sistem 1693
eleştiri 1693
kapısı 1693
organizasyon 1693
restore 1693
semptom@@ 1693
Lak@@ 1692
Nintendo 1692
Ziy@@ 1692
ebilmesi 1692
kanıtlar 1692
oto 1692
DP 1691
VIII 1691
durumdadır 1691
engi 1691
hikay@@ 1691
odaklan@@ 1691
yapısını 1691
yöntemler 1691
çıplak 1691
ediğini 1690
fin@@ 1690
from 1690
sayımı 1690
sertifik@@ 1690
yetkilileri 1690
ündedir 1690
1881 1689
ibi 1689
iskel@@ 1689
işkence 1689
tanı 1689
ıyorum 1689
Araştır@@ 1688
High 1688
Turan 1688
Ukraynalı 1688
batısındaki 1688
ico 1687
Şar@@ 1687
Kürtçe 1686
iste 1686
uğunu 1686
Ovası 1685
We 1685
dök@@ 1685
etiket@@ 1685
kuvvetler 1685
uklu 1685
Şem@@ 1685
Erk@@ 1684
düzenlenmiş 1684
lamasına 1684
Pictures 1683
engellen@@ 1683
gl@@ 1683
golü 1683
jener@@ 1683
mezheb@@ 1683
roket 1683
yr@@ 1683
alanan 1682
form 1682
leyic@@ 1682
ps 1682
sahada 1682
č@@ 1682
ıcının 1682
Plan@@ 1681
Temsilciler 1681
bulunduğunu 1681
geliştirildi 1681
kalesi 1681
tüke@@ 1681
akışı 1680
dağılım 1680
vahşi 1680
yans@@ 1680
otu 1679
sig@@ 1679
Ateş 1678
daş@@ 1678
müst@@ 1678
yürütülmektedir 1678
arz@@ 1677
komit@@ 1677
uzaktan 1677
Da@@ 1676
Gazet@@ 1676
Rah@@ 1676
SA 1676
araştırmacı 1676
hediye 1676
iyon@@ 1676
mezun@@ 1676
sayısına 1676
sıcaklığı 1676
Best 1675
Uğur 1675
büyüktür 1675
koşullar 1675
oran 1675
soylu 1675
yapıp 1675
AL@@ 1674
Tahran 1674
büyüklüğü 1674
kavram 1674
madal@@ 1674
yavaş@@ 1674
İdaresi 1674
Motor 1673
culuk 1673
ly 1673
oynamış 1673
sergi 1673
AM@@ 1672
Sap@@ 1672
ator@@ 1672
bahar@@ 1672
doları 1672
kesin@@ 1672
meden@@ 1672
nihai 1672
sağlıklı 1672
Öğrenc@@ 1672
donanım 1671
uyarlanan 1671
yoloji 1671
Oğuz@@ 1670
ich 1670
uştur@@ 1670
Ölüm@@ 1670
çalışmalara 1670
ıoğlu 1670
don 1669
ling 1669
Çerkes 1669
Bekir 1668
Kov@@ 1668
Metro 1668
Pay@@ 1668
albümünden 1668
emeye 1668
uyarlaması 1668
ödüllendirildi 1668
üstfamilyasına 1668
Augustus 1667
Emir@@ 1667
Ras@@ 1667
arg@@ 1667
göstererek 1667
hükûmetinin 1667
imkân@@ 1667
niyet@@ 1667
olmuşlardır 1667
üretilmiş 1667
Dönemin 1666
Gerçek@@ 1666
adel@@ 1666
dia 1666
fel@@ 1666
Böylelikle 1665
anz@@ 1665
evlenmiştir 1665
kaçan 1665
Ark@@ 1664
Jan@@ 1664
Toronto 1664
alfabesi 1664
gelecekte 1664
ilidir 1664
ularını 1664
yenildi 1664
yumurt@@ 1664
yürütülen 1664
Lefkoşa 1663
Müze 1663
bil 1663
doktorasını 1663
düşüncel@@ 1663
ologlar 1663
sinyal 1663
tecrü@@ 1663
uzan@@ 1663
yolculuk 1663
İstatistikleri 1663
Singapur 1662
Zafer 1662
aro 1662
komutasında 1662
tac@@ 1661
Sy@@ 1660
kaldılar 1660
topo@@ 1660
şiiri 1660
Ayşe 1659
Cl@@ 1659
Yurt@@ 1659
acık 1659
cü@@ 1659
enk@@ 1659
masıydı 1659
yd@@ 1659
ücret 1659
19.@@ 1658
eğinde 1658
iliğine 1658
muhafaza 1658
oş@@ 1658
yaparlar 1658
yeler 1658
yet 1658
yönetil@@ 1658
Kongo 1657
büyüm@@ 1657
katılımc@@ 1657
şarkıdır 1657
Bölgede 1656
Yunus 1656
itesi 1656
tarafta 1656
şap@@ 1656
Buz 1655
Gül 1655
hareketin 1655
mimarisi 1655
ven 1655
çıları 1655
Š@@ 1655
Bush 1654
Ruh@@ 1654
cumhuriyet@@ 1654
kalarak 1654
otomob@@ 1654
protokol@@ 1654
Cumhuriyetçi 1653
bölgelere 1653
diyal@@ 1653
liderlik 1653
Senatosu 1652
Taş 1652
ach 1652
ettin 1652
fin 1652
geliyordu 1652
gözlem 1652
olaydan 1652
rastlan@@ 1652
rüzgâr 1652
tarak 1652
yayı 1652
Ermeniler 1651
Kl@@ 1651
enstrü@@ 1651
kitabını 1651
noktasına 1651
oyununda 1651
piskopos@@ 1651
sıç@@ 1651
turnuvanın 1651
Dün@@ 1650
Gazze 1650
Zeus 1650
oluşmuş 1650
sözcük 1650
üretim@@ 1650
Müttefik 1649
değişik@@ 1649
döndükten 1649
görme 1649
yollarını 1649
çağrıldı 1649
ağız 1648
kilisesi 1648
kuzeyindeki 1648
nefret 1648
tıpkı 1648
́ 1648
ho 1647
iter 1647
tren@@ 1647
ülkelerden 1647
Adını 1646
Mektu@@ 1646
River 1646
beldeye 1646
hesab@@ 1646
kayıtlı 1646
matik 1646
volkanik 1646
ett 1645
geçmeden 1645
ladıkları 1645
ülerek 1645
ımsı 1645
Cum@@ 1644
Yaylası 1644
arşiv@@ 1644
felsef@@ 1644
kuvvetli 1644
kısımları 1644
öğrenme 1644
Games 1643
Kuzey@@ 1643
Sarah 1643
Vincent 1643
ikte 1643
Akademik 1642
Etiyopya 1642
cusu 1642
tanınmaktadır 1642
Britanyalı 1640
elektromanyetik 1640
etrafındaki 1640
işareti 1640
1891 1639
Dep@@ 1639
Hil@@ 1639
aspor 1639
nis@@ 1639
adlandırılmıştır 1638
imlerini 1638
İlç@@ 1638
Tibet 1637
sokak@@ 1637
Eri@@ 1636
Futbola 1636
Warner 1636
civar@@ 1636
pahalı 1636
programının 1636
kadrosu 1635
ulus 1635
16@@ 1634
Feder@@ 1634
ede@@ 1634
tere 1634
şans@@ 1634
Krall@@ 1633
adından 1633
evrenin 1633
mesaj 1633
uygun@@ 1633
üyü 1633
Antarktika 1632
gelecekteki 1632
kapasiteli 1632
seçkin 1632
yerleşen 1632
zirveye 1632
Matt 1631
alındığında 1631
klinik 1631
kurşun 1631
seferi 1631
Cih@@ 1630
Oc@@ 1630
adamın 1629
boyutu 1629
cilerin 1629
ebileceğini 1629
halini 1629
kuzeye 1629
usul@@ 1629
yayını 1629
ımlarını 1629
Fran@@ 1628
Pet@@ 1628
Schleswig 1628
atını 1628
dalı 1628
ortalaması 1628
basılan 1627
imlerin 1627
kırdı 1627
Mahkem@@ 1626
Vah@@ 1626
daire 1626
dökül@@ 1626
gözaltına 1626
kadını 1626
tutum@@ 1626
13.@@ 1625
Abhazya 1625
Kırgızistan 1625
UCI 1625
buzul@@ 1625
nas@@ 1625
yürütül@@ 1625
Resmî 1624
araştırmacılar 1624
başaran 1624
dok@@ 1624
indiği 1624
sed@@ 1624
sek 1624
özgürlük 1624
ırt@@ 1624
Lor@@ 1623
Zor@@ 1623
cenaze 1623
liğiyle 1623
reye 1623
deyişle 1622
mühendis 1622
1835 1621
Tre@@ 1621
au@@ 1621
aykırı 1621
kır 1621
tutmak 1621
Güç@@ 1620
mülk@@ 1620
salon@@ 1620
yüzyıllar 1620
Niş@@ 1619
akıl@@ 1619
arş@@ 1619
ort 1619
programını 1619
tatil 1619
Eser 1618
amaz@@ 1618
bebek@@ 1618
faydalan@@ 1618
giderken 1618
malzemeler 1618
mür@@ 1618
vin 1618
çekirdeğ@@ 1618
London 1617
Nov@@ 1617
bilmektedir 1617
ilişkilerini 1617
yönü 1617
Efes 1616
adaya 1616
fazladır 1616
izole 1616
metro 1616
resimleri 1616
seviyede 1616
tarafına 1616
uncu 1616
SA@@ 1615
Sabah 1615
Brüksel 1614
Ticari 1614
beslen@@ 1614
zar 1614
Ödüller 1614
Kağan 1613
ation 1613
dağıtım 1613
güçlerini 1613
Abdülhamid 1612
Ale@@ 1612
Popüler 1612
awa 1612
başlarına 1612
oksi@@ 1612
Havaalanı 1611
Kürdistan 1611
amayacağını 1611
defter@@ 1611
kısm@@ 1611
ão 1611
arları 1610
bucaktır 1610
dönüm 1610
imidir 1610
Be 1609
Bölgenin 1609
Matematik 1609
20.@@ 1608
Boğaz@@ 1608
Ferdinand 1608
cephe 1608
güneybatı 1608
Felsefe 1607
abı 1607
ilmesine 1607
kayıtlarda 1607
tümü 1607
çekiş@@ 1607
Beledi@@ 1606
amaçla 1606
kanat@@ 1606
ste@@ 1606
zon@@ 1606
İskenderiye 1606
Lam@@ 1605
kolay@@ 1605
kullanımını 1605
piş@@ 1605
tari@@ 1605
tarz 1605
özelliklere 1605
gönderdiği 1604
tarihçiler 1604
Elektronik 1603
Vikipedi 1603
bon@@ 1603
işlemci 1603
yetişkin@@ 1603
şarkıların 1603
atış@@ 1602
fiye 1602
ington 1602
suretiyle 1602
sıralamasında 1602
İd@@ 1602
İnsanlar 1602
Coğrafi 1601
filtr@@ 1601
sağlanır 1601
yaşadıkları 1601
şekillendir@@ 1601
ilmesini 1600
kupayı 1600
DE@@ 1599
Karah@@ 1599
Ky@@ 1599
Minas 1599
korsan@@ 1599
kütlesi 1599
sans@@ 1599
yasını 1599
yenilg@@ 1599
ök@@ 1599
AS 1598
Jay 1598
ayrıldıktan 1598
düzgün 1598
klerini 1598
kü 1598
ölür 1598
Etkin@@ 1597
Siirt 1597
hazin@@ 1597
Üst@@ 1597
British 1596
Cu@@ 1596
Kürt@@ 1596
Resim 1596
devletinin 1596
dilin 1596
sahnede 1596
yaşı 1596
zayıf@@ 1596
Enver 1595
Spor@@ 1595
Türkistan 1595
amcası 1595
davası 1595
mim@@ 1595
âr 1595
Leo 1594
Ste@@ 1594
düzensiz 1594
egemenliği 1594
kanlı 1594
kazası 1594
ciye 1593
kitabının 1593
sektöründe 1593
yolla 1593
FM 1592
age 1592
bahseder 1592
devrim 1592
emriyle 1592
tamamını 1592
temiz 1592
Ona 1591
cüm@@ 1591
mühendisi 1591
koruyan 1590
sezonudur 1590
takımlarında 1590
Proje 1589
dövüş 1589
gelişmiştir 1589
grupl@@ 1589
gömüldü 1589
ihlal 1589
karma 1589
terek 1589
Charlotte 1588
Hristiyanlık 1588
çalg@@ 1588
öğretmenlik 1588
azaltmak 1587
bitirmiştir 1587
eter 1587
İranlı 1587
Ferrari 1586
kuyruklu 1586
modelidir 1586
nehir@@ 1586
rastlanır 1586
rekor@@ 1586
toplantı 1586
Asıl 1585
Jason 1585
ani@@ 1585
gil@@ 1585
çekilmiş 1585
K. 1584
destekler 1584
esin@@ 1584
etmesiyle 1584
girişim 1584
programına 1584
Arnavut@@ 1583
Prensi 1583
belirti@@ 1583
bireyin 1583
subay@@ 1583
usunu 1583
çıkaran 1583
Marx 1582
Silah@@ 1582
gecesi 1582
oranla 1582
reng@@ 1582
sunucusu 1582
Bernard 1581
Kızılderili 1581
TO@@ 1581
Yeş@@ 1581
anta 1581
azınlık 1581
fosil 1581
konferans 1581
lıklara 1581
çıkarıl@@ 1581
0,6 1580
anime 1580
kıyılarında 1580
onlyinclude 1580
ES@@ 1579
Hacettepe 1579
Yu@@ 1579
anlamlı 1579
fırsatı 1579
altyapı 1578
bitkiler 1578
ucuz 1578
Doğa 1577
içeri 1577
kendileri 1577
tehlike 1577
uçağın 1577
sular@@ 1576
umda 1576
İktisat 1576
Wrestling 1575
Yahudileri 1575
doğr@@ 1575
hükümdar 1575
irin 1575
kuyruk 1575
yönetiminin 1575
1.000 1574
Bruce 1574
Lin@@ 1574
Miami 1574
Mül@@ 1574
Zeynep 1574
abi 1574
bağlar 1574
etta 1574
iktidarı 1574
patlama 1574
pirinç 1574
sinemaya 1574
Dokuz 1573
Havacılık 1573
Kılıç@@ 1573
gelişmesi 1573
kabin@@ 1573
ous 1573
çıkarma 1573
Aşağıda 1572
atar 1572
düşürül@@ 1572
esin 1572
kalenin 1572
rahat 1572
üniversitede 1572
şaş@@ 1572
23@@ 1571
bant 1571
ememiştir 1571
esir@@ 1571
sayımında 1571
yaprak@@ 1571
Patr@@ 1570
SSC 1570
restor@@ 1570
well 1570
Andrea 1569
Ca@@ 1569
Howard 1569
arya 1569
asyonunu 1569
erkeklerin 1569
formayı 1569
hin@@ 1569
silahlar 1569
sunduğu 1569
sıkınt@@ 1569
tesis 1569
özgürlüğü 1569
1848 1568
Standart 1568
dönüşür 1568
geliştiric@@ 1568
lus@@ 1568
mî 1568
oylama 1568
Holstein 1567
Kelly 1567
Philip 1567
iğe 1567
kiralandı 1567
otobüs 1567
sayımlarına 1567
yesinde 1567
Bell 1566
bulunmayan 1566
cinayet 1566
deplas@@ 1566
hatları 1566
payı 1566
penalt@@ 1566
çır@@ 1566
başlatıldı 1565
duyulan 1565
kelimesinin 1565
konum 1565
kütüphane 1565
Tarsus 1564
maçlarda 1564
Çoğunlukla 1564
ack 1563
amac@@ 1563
atus 1563
binalar 1563
buzul 1563
tartışmalar 1563
ularının 1563
Çık@@ 1563
çak 1563
şöh@@ 1563
America 1562
artar 1562
ediliyor 1562
giyi 1562
kaydedilen 1562
sayısında 1562
öldürdü 1562
Geçici 1561
Post@@ 1561
ayrılıp 1561
dövüş@@ 1561
Bad@@ 1560
Endülüs 1560
Paş@@ 1560
Petersburg 1560
himay@@ 1560
tadır 1560
Şimdi 1560
Long 1559
amad@@ 1559
doğusundaki 1559
dönüşüm@@ 1559
fonksiyon 1559
hazırlanmış 1559
spektr@@ 1559
Dance 1558
Göztepe 1558
Hanlığı 1558
Mali 1558
Müdür 1558
Post 1558
Sincan 1558
aydınlat@@ 1558
geliyor 1558
ilçeye 1558
sonuçlarına 1558
çevreleyen 1558
Gordon 1557
donanması 1557
enci 1557
işlerini 1557
kahve 1557
kaliteli 1557
söyleyen 1557
yolda 1557
yorumlar 1557
HP 1556
Haş@@ 1556
fırsat@@ 1556
go@@ 1556
Mesih 1555
krallık 1555
maçlarında 1555
yıllara 1555
Bakanl@@ 1554
cisi 1554
nel 1554
sü 1554
yaşandı 1554
engellemek 1553
etkiley@@ 1553
gerektiren 1553
hek@@ 1553
kararıyla 1553
köyleri 1553
larlar 1553
materyal@@ 1553
Özellikler 1553
1867 1552
1888 1552
Meş@@ 1552
Ulaşım 1552
teklisi 1552
Alp 1551
Janeiro 1551
Rumen 1551
aat 1551
cel@@ 1551
fabrikası 1551
fo@@ 1551
kullanılmak 1551
köyünün 1551
olojide 1551
pres@@ 1551
Cap@@ 1550
anlatılır 1550
destekli 1550
ero 1550
hipo@@ 1550
mezler 1550
soruşturma 1550
Üre@@ 1550
1884 1549
banka 1549
filos@@ 1549
gösterilebilir 1549
inf@@ 1549
oynadıktan 1549
performansını 1549
Helsinki 1548
denge 1548
efi 1548
eman 1548
konularında 1548
koyun 1548
rekor 1548
salgını 1548
Buradaki 1547
Nil 1547
bana 1547
düşüş@@ 1547
filmdir 1547
konumundadır 1547
las 1547
tüy@@ 1547
çıkmasına 1547
Manuel 1546
Nikolay 1546
anlaşmaya 1546
aw@@ 1546
bitirdikten 1546
che 1546
gönül@@ 1546
hatt@@ 1546
maktı 1546
mitoloj@@ 1546
Cuma 1545
Indiana 1545
Marvel 1545
koalisyon 1545
liliğini 1545
seviyesinden 1545
Menderes 1544
Mr 1544
begin 1544
belediyenin 1544
ediyor@@ 1544
güzel@@ 1544
hit@@ 1544
ilkel 1544
işletil@@ 1544
metrelik 1544
miner@@ 1544
sulama 1544
tamamlanan 1544
teknikleri 1544
önü 1544
ısıydı 1544
List@@ 1543
Nez@@ 1543
This 1543
faaliyete 1543
kristal 1543
noktal@@ 1543
oter@@ 1543
söylenti@@ 1543
transfer@@ 1543
turistik 1543
Benim 1542
Bryan 1542
gide 1542
ıdaki 1542
Tevfik 1541
akı 1541
katılımıyla 1541
türlerinin 1541
Özgürlük 1541
çeliş@@ 1541
Savaştan 1540
ebe@@ 1540
ong@@ 1540
sürmektedir 1540
yükse@@ 1540
Arap@@ 1539
los 1539
sınırında 1539
yerinden 1539
Basın 1538
Las 1538
aman@@ 1538
bini 1538
kurmaya 1538
ref@@ 1538
terim@@ 1538
yıllardan 1538
Gl@@ 1537
konserler 1537
manda 1537
yürü@@ 1537
Russell 1536
Sus@@ 1536
faaliyetlerine 1536
ortağı 1536
20.000 1535
cal@@ 1535
kadem@@ 1535
kazanmak 1535
kurulmasına 1535
verdiğini 1535
eh 1534
görüşleri 1534
güneydoğu 1534
kis@@ 1534
neh@@ 1534
sta 1534
tanıtım 1534
tüccar@@ 1534
yazarıdır 1534
çocukluk 1534
Phone 1533
eğinin 1533
itiraf 1533
karşılaşmasında 1533
kitl@@ 1533
orkestr@@ 1533
toplantısında 1533
{ 1533
AM 1532
cami@@ 1532
cem@@ 1532
grafi 1532
iletken@@ 1532
sez@@ 1532
çağ 1532
çoğun@@ 1532
Karşı 1531
ebilmek 1531
felak@@ 1531
genişliği 1531
uçakları 1531
7,@@ 1530
atanan 1530
psikoloji 1530
sevg@@ 1530
tropikal 1530
uli 1530
Şehirde 1530
aver@@ 1529
bakter@@ 1529
değiştirilmiş 1529
gerçekleştirmiştir 1529
onlarla 1529
söyl@@ 1529
takımların 1529
Sankt 1528
Tümen 1528
Yargıtay 1528
iner@@ 1528
platformu 1528
sipariş 1528
ziy@@ 1528
Zürih 1527
elerdir 1527
etraf@@ 1527
olasılığı 1527
yürüyüş@@ 1527
zo 1527
Çerkes@@ 1527
kralın 1526
rim 1526
çoğunda 1526
ō@@ 1526
Bayanlar 1525
Liv@@ 1525
fırsat 1525
ibe 1525
özgürlüğ@@ 1525
Beyoğlu 1524
Fa@@ 1524
Steven 1524
alıların 1524
bağlamda 1524
sivil@@ 1524
unc@@ 1524
urt 1524
âm 1524
ât@@ 1524
güçlerinin 1523
mav@@ 1523
tanımlayan 1523
Erol 1522
15.@@ 1521
Bizans@@ 1521
Ortak 1521
akciğer 1521
azlar 1521
boru 1521
lukta 1521
ru 1521
Til@@ 1520
asız 1520
aynıdır 1520
değiştirme 1520
dilinin 1520
kâğıt 1520
lerler 1520
orduya 1520
sisteme 1520
tenis 1520
çalışmasını 1520
Mari@@ 1519
ağabeyi 1519
harfi 1519
izasyon 1519
malardan 1519
mağar@@ 1519
mişler 1519
1865 1518
Rihanna 1518
devletleri 1518
kadınlara 1518
kahramanı 1518
kapatıldı 1518
lediğini 1518
vuruş@@ 1518
yeye 1518
ž@@ 1518
Out 1517
ayıran 1517
bulundukları 1517
fizikçi 1517
gücüne 1517
kıyısı 1517
maddes@@ 1517
üretimine 1517
Houston 1516
Müslümanların 1516
Pa@@ 1516
Sok@@ 1516
Tos@@ 1516
anlarından 1516
deleg@@ 1516
isleri 1516
parmak@@ 1516
Doktor@@ 1515
dayanık@@ 1515
hastaneye 1515
tanıttı 1515
´ 1515
İlk@@ 1515
taklit 1514
Burak 1513
Fi@@ 1513
biyoloji 1513
kazı 1513
olunca 1513
tekin 1513
Ödül 1513
ât 1513
Günümüz 1512
Müziği 1512
dakikalık 1512
işlemc@@ 1512
mag@@ 1512
sözlerini 1512
sürdüğü 1512
yken 1512
Sanat@@ 1511
aat@@ 1511
babasını 1511
desteğ@@ 1511
eserlerinin 1511
fizik@@ 1511
kurak 1511
mâ@@ 1511
rapçi 1511
topraklar 1511
Fernando 1510
Hattı 1510
altındadır 1510
kartı 1510
ung 1510
unutul@@ 1510
üretiminde 1510
Ludwig 1509
Tayyip 1509
Tim 1509
140 1508
Ces@@ 1508
Fl@@ 1508
ME@@ 1508
Mercedes 1508
azdır 1508
bis@@ 1508
obi 1508
Bilecik 1507
Margaret 1507
aa 1507
kullanımına 1507
num@@ 1507
sergiledi 1507
takviye 1507
tasarlandı 1507
ülkesine 1507
Afrikalı 1506
Binası 1506
Marshall 1506
başarıları 1506
malarından 1506
yönetimini 1506
Ağır@@ 1505
doku 1505
ivi 1505
yüzme 1505
ıtın 1505
Şerif 1505
Guy 1504
Pedro 1504
cumhuriyet 1504
davul@@ 1504
derek 1504
havada 1504
ine@@ 1504
kadroya 1504
konusudur 1504
mit 1504
Ci@@ 1503
Jandarma 1503
Nem@@ 1503
donanma 1503
hayvancılık 1503
kasabasında 1503
küre@@ 1503
Hidro@@ 1502
Nag@@ 1502
başlamadan 1502
belirlenmiş 1502
cerrahi 1502
oluşturma 1502
sistemde 1502
yenilerek 1502
Bayan 1501
Elem@@ 1501
diplomat 1501
etiyle 1501
kaldıktan 1501
kurumsal 1501
oid 1501
ukları 1501
27@@ 1500
Anlaşması 1500
Liber@@ 1500
Mih@@ 1500
kaydedildi 1500
rahatsız@@ 1500
16.@@ 1499
Duy@@ 1499
Kennedy 1499
News 1499
festival@@ 1499
inşaat@@ 1499
nedenlerle 1499
onuruna 1499
uygulanır 1499
yoğ@@ 1499
125 1498
28@@ 1498
Reis 1498
alis 1498
ektif 1498
hol@@ 1498
sevgilisi 1498
tahsis 1498
tr 1498
Ü 1498
ölmüş 1498
Marksist 1497
Potter 1497
Yüksel@@ 1497
boyunda 1497
riz@@ 1497
Antalyaspor 1496
Demokrasi 1496
Kurum@@ 1496
Sultanı 1496
buçuk 1496
imzalam@@ 1496
1887 1495
Bolşevik 1495
Futbol@@ 1495
Som@@ 1495
oni@@ 1495
rahip 1495
sistematik 1495
çatı 1495
1871 1494
2.000 1494
Drama 1494
Yo@@ 1494
haft@@ 1494
ihtim@@ 1494
kaptan@@ 1494
krist@@ 1494
küt@@ 1494
oyunc@@ 1494
yordu 1494
Dönem@@ 1493
Mark@@ 1493
Tol@@ 1493
Yurdu 1493
bahşı 1493
bölgelerinden 1493
evinin 1493
iade 1493
karakterin 1493
olmaz 1493
Pil@@ 1492
Tren 1492
bireyler 1492
ilişkilidir 1492
indendir 1492
kuramı 1492
pist@@ 1492
düşünür 1491
kil 1491
kredi 1491
çeşitleri 1491
gag@@ 1490
geçirerek 1490
intikam 1490
mantar 1490
oraya 1490
tey@@ 1490
yada 1490
yetkililer 1490
özet@@ 1490
ürü 1490
şun@@ 1490
Boeing 1489
antropo@@ 1489
edilip 1489
geometrik 1489
ilim 1489
imzalandı 1489
lamanın 1489
olasılıkla 1489
İsyanı 1489
Halkın 1488
Milliyetçi 1488
lıyordu 1488
operasyon 1488
tümüyle 1488
29@@ 1486
Hizmet 1486
Mun@@ 1486
Sasani 1486
branş@@ 1486
düzenlenmektedir 1486
endüstrisi 1486
fırtın@@ 1486
kuzeni 1486
mısır 1486
piyasa 1486
stein 1486
İslâm 1486
Hum@@ 1485
IŞİD 1485
Kub@@ 1485
işbir@@ 1485
kaybederek 1485
key 1485
yy 1485
Çı@@ 1485
çalışmalarıyla 1485
İznik 1485
160 1484
Alb@@ 1484
alay 1484
asyonunun 1484
gidir 1484
götürül@@ 1484
kilit@@ 1484
leyecek 1484
tuttu 1484
yukarıda 1484
mün@@ 1483
ondaki 1483
takımla 1483
temin 1483
yapısına 1483
ıyor@@ 1483
Terim 1482
aşamada 1482
belle@@ 1482
giys@@ 1482
inal 1482
lıydı 1482
Erivan 1481
Gec@@ 1481
Pey@@ 1481
oyla 1481
teknolojik 1481
zan@@ 1481
har 1480
makam 1480
First 1479
Queen 1479
SE@@ 1479
hayal@@ 1479
zarfında 1479
ülebil@@ 1479
İstihbarat 1479
Düzce 1478
Fakül@@ 1478
Harris 1478
Hatun 1478
Yam@@ 1478
ailesinden 1478
alanıdır 1478
saldırılar 1478
yabanc@@ 1478
şarkılarını 1478
Kültürel 1477
adıkları 1477
gerekiyordu 1477
oranları 1477
oynanmıştır 1477
takımıdır 1477
yur@@ 1477
Beh@@ 1476
Eb@@ 1476
Gabriel 1476
Sc@@ 1476
deprem@@ 1476
kalıp 1476
okyanus 1476
101 1475
18.@@ 1475
Aleksios 1475
Diş@@ 1475
Gümüş@@ 1475
Hampshire 1475
Topl@@ 1475
laz@@ 1475
mermer 1475
ığımız 1475
Ernst 1474
Küresel 1474
Les 1474
Lisa 1474
bize 1474
ideal 1474
yazmış 1474
şiddet@@ 1474
Ak 1473
Yazılım 1473
pembe 1473
í@@ 1473
Sidney 1472
T. 1472
Will 1472
güneyindeki 1472
kaydır@@ 1472
oğul@@ 1472
çi@@ 1472
Barselona 1471
duyan 1471
kırk 1471
yazılımı 1471
yaşamın 1471
üzeri 1471
Rusların 1470
Tun@@ 1470
Yahya 1470
anlayışı 1470
bombardıman 1470
canlandırmıştır 1470
deprem 1470
kesme 1470
liyor 1470
Aviv 1469
LGBT 1469
Medine 1469
Op@@ 1469
kontr@@ 1469
kurmuş 1469
noktaları 1469
noktaya 1469
sistemidir 1469
site 1469
tüf@@ 1469
ötesinde 1469
1850 1468
Balık@@ 1468
Fiziksel 1468
RAM 1468
alanını 1468
benzerlik 1468
hücum 1468
kenarında 1468
muhalif 1468
neyi 1468
ülasyon 1468
İsy@@ 1468
Meh@@ 1467
başlık 1467
kaplıdır 1467
çuk 1467
eserini 1466
yıldızın 1466
Mand@@ 1465
Mid@@ 1465
antlaşma 1465
düşt@@ 1465
hasılat 1465
ikat 1465
maddelerin 1465
nesn@@ 1465
bölüme 1464
istil@@ 1464
kızları 1464
sezonuna 1464
ağr@@ 1463
belirleyen 1463
düşmanı 1463
lıca 1463
Üretim 1463
Şehzade 1463
edindi 1462
modeller 1462
müttefik@@ 1462
Başbakanlık 1461
göm@@ 1461
ons 1461
Fransız@@ 1460
Moore 1460
Niğde 1460
cihazlar 1460
gerçekleşti@@ 1460
namesi 1460
sorumludur 1460
çekmek 1460
Katedrali 1459
aşağı@@ 1459
efsanevi 1459
hastalığın 1459
ides 1459
nemli 1459
vil@@ 1459
üretilir 1459
Karakter@@ 1458
Oyn@@ 1458
Trans@@ 1458
dir. 1458
kentinin 1458
sep@@ 1458
unlar 1458
öldürülmüştür 1458
His@@ 1457
Intel 1457
eci@@ 1457
görüşler 1457
idi@@ 1457
yaban 1457
üsüne 1457
Yakup 1456
beklenti@@ 1456
devam@@ 1456
hâlinde 1456
skorla 1456
takson@@ 1456
temelli 1456
2,5 1455
Türkmen@@ 1455
ayaklanma 1455
blok@@ 1455
bulduğu 1455
jin 1455
Değ@@ 1454
Konuş@@ 1454
Polat 1454
keli 1454
konuşul@@ 1454
serbest@@ 1454
ucu@@ 1454
çer@@ 1454
İttifak 1454
ılacak 1454
ıştan 1454
Bud@@ 1453
Dark 1453
To 1453
başkanları 1453
büt@@ 1453
hur@@ 1453
ikle 1453
kopar@@ 1453
kullanıcının 1453
leyip 1453
oynar 1453
yılını 1453
Nick 1452
biye 1452
dikdörtgen 1452
eksiyon 1452
kasabası 1452
kazanılan 1452
landıktan 1452
ped@@ 1452
polar@@ 1452
reden 1452
yerlerinde 1452
çen@@ 1452
Emniyet 1451
inş@@ 1451
izmin 1451
zordur 1451
arom@@ 1450
devlete 1450
gerçekçi 1450
lej@@ 1450
yetkili 1450
çevrili 1450
26@@ 1449
3D 1449
Kuvvet@@ 1449
Lizbon 1449
Osmanlıların 1449
doğus@@ 1449
ermiştir 1449
gerekti@@ 1449
lüks 1449
sorumlul@@ 1449
Köyde 1448
ca@@ 1448
güc@@ 1448
inleri 1448
kruvaz@@ 1448
laşması 1448
ortamı 1448
pre@@ 1448
taşınmıştır 1448
Kre@@ 1447
bahse@@ 1447
kabile 1447
Program 1446
Shakespeare 1446
düet 1446
line 1446
uçur@@ 1446
yay 1446
Belçikalı 1445
Petr@@ 1445
demokrasi 1445
iletken 1445
lav@@ 1445
manken 1445
olasılık 1445
pilotu 1445
yapıyor 1445
yerleştiril@@ 1445
yetişen 1445
Claude 1444
kurtarma 1444
sis@@ 1444
çalışmalarda 1444
İşbirliği 1444
Hemen 1443
M.@@ 1443
bilişsel 1443
serisinde 1443
tehdit@@ 1443
tutulan 1443
Asur 1442
Belir@@ 1442
Jimmy 1442
Morgan 1442
filozof@@ 1442
ons@@ 1442
türlerin 1442
vit@@ 1442
yerlere 1442
şin 1442
1883 1441
Ze@@ 1441
ayrıcal@@ 1441
kaba 1441
karakterize 1441
lası 1441
oi 1441
okulunda 1441
sandalye 1441
BB 1440
Fri@@ 1440
Lisans 1440
ayrılması 1440
belirterek 1440
kurgu 1440
kıyas@@ 1440
sergilenmektedir 1440
ıştığı 1440
Aj@@ 1439
Char@@ 1439
Death 1439
amer@@ 1439
biliniyordu 1439
dua 1439
rahat@@ 1439
ted@@ 1439
İspanyol@@ 1439
Göl 1438
Kilis@@ 1438
giydiği 1438
leşen 1438
Robin 1437
apo@@ 1437
büy@@ 1437
eserlerin 1437
hom@@ 1437
kaydedil@@ 1437
tâ@@ 1437
Fuat 1436
Nükleer 1436
heykeli 1436
istenen 1436
kenar 1436
tablosu 1436
ydiler 1436
çıkışını 1436
Sefer@@ 1435
Wil@@ 1435
onom@@ 1435
tef@@ 1435
zararlı 1435
çiliği 1435
Slav@@ 1434
State 1434
TL 1434
karşıt@@ 1434
Final@@ 1433
Gil@@ 1433
Lü@@ 1433
US 1433
bahset@@ 1433
edeceğini 1433
karşılamak 1433
manlı 1433
რ@@ 1433
Donald 1432
fet@@ 1432
firma 1432
işlen@@ 1432
taşıdı 1432
yürütme 1432
bomba 1431
hakimiyeti 1431
yumuş@@ 1431
Eğiti@@ 1430
dayanıklı 1430
ekmek 1430
frekans 1430
ibad@@ 1430
kullanıcılar 1430
onurlandır@@ 1430
âl 1430
Bos@@ 1429
Girls 1429
armış 1429
geçmek 1429
imzalamıştır 1429
kararlaştır@@ 1429
ografik 1429
romanından 1429
ruk 1429
yaşarlar 1429
ı. 1429
Şam@@ 1429
Avrasya 1428
Broadway 1428
Jeff 1428
Kitap@@ 1428
Kot@@ 1428
Nadir 1428
ate@@ 1428
devletlerin 1428
dört@@ 1428
ecekler 1428
emretti 1428
eserlerinde 1428
geleneği 1428
geçerlidir 1428
iliy@@ 1428
kalı 1428
prati@@ 1428
şarj 1428
350 1427
Arts 1427
bisiklet@@ 1427
bölgelerine 1427
eleştirel 1427
görmektedir 1427
paket@@ 1427
şifrel@@ 1427
Cat@@ 1426
Do 1426
ateşi 1426
döş@@ 1426
iliye 1426
jür@@ 1426
kot@@ 1426
kötü@@ 1426
puanı 1426
tepe@@ 1426
2.0 1425
Sık@@ 1425
fon 1425
görülebil@@ 1425
Great 1424
Netflix 1424
adaylığı 1424
cemaat@@ 1424
fabrika 1424
parametr@@ 1424
sular 1424
taraflı 1424
yapıların 1424
yasak 1424
Şiir 1424
Kolordusu 1423
açılmış 1423
bo 1423
dairesel 1423
iklik 1423
kurumları 1423
makinesi 1423
suy@@ 1423
şimdiye 1423
Kun@@ 1422
Sz@@ 1422
eğr@@ 1422
çanak 1422
alini 1421
bakteri 1421
dükten 1421
füze 1421
kuzeybatı 1421
sinden 1421
yakaladı 1421
şans 1421
Serdar 1420
Takımlar 1420
güd@@ 1420
havayolu 1420
irlik 1420
olduğunun 1420
olmuş@@ 1420
Miy@@ 1419
dizileri 1419
istila 1419
yardımcılığı 1419
Aşağı@@ 1418
Bag@@ 1418
Hid@@ 1418
Konstantinos 1418
Universal 1418
filmindeki 1418
hafif@@ 1418
lamada 1418
büyükel@@ 1417
grubundan 1417
hattının 1417
hus@@ 1417
sağlayacak 1417
zorundadır 1417
ımıdır 1417
atmosfer@@ 1416
başladığında 1416
cik 1416
dramatik 1416
rezer@@ 1416
ılmasında 1416
boks@@ 1415
fol@@ 1415
gerçekte 1415
geçit 1415
jo 1415
performansıyla 1415
Onlar 1414
başarılar 1414
gölü 1414
iTunes 1414
işte 1414
uklar 1414
1863 1413
Manhattan 1413
Oğlu 1413
Prot@@ 1413
adada 1413
ahan 1413
cihazın 1413
dünyas@@ 1413
ess@@ 1413
ıyorlar 1413
tarihlenen 1412
üretir 1412
ო@@ 1412
Bell@@ 1411
Dijital 1411
Kus@@ 1411
depart@@ 1411
ikil@@ 1411
ikisinin 1411
komün 1411
oidea 1411
renkleri 1411
satranç 1411
Araplar 1410
Hazır@@ 1410
devrinde 1410
fas@@ 1410
faz 1410
fazlası 1410
izni 1410
kazandılar 1410
planları 1410
çay@@ 1410
üğünü 1410
ılıyor 1410
baskın@@ 1409
beslenme 1409
birincisi 1409
onlardan 1409
Oliver 1408
emp@@ 1408
hareketini 1408
hikâyesini 1408
ikan@@ 1408
kala 1408
lukla 1408
Başlıca 1407
Boris 1407
bakımdan 1407
bâ@@ 1407
monte 1407
siyona 1407
tadan 1407
şeklini 1407
Hikâ@@ 1406
yonları 1406
Üzerine 1406
1.5 1405
Nam@@ 1405
helikopter@@ 1405
iminde 1405
izleri 1405
ısır@@ 1405
Fili@@ 1404
Fu@@ 1404
Herhangi 1404
Veli 1404
denizalt@@ 1404
kendinden 1404
küre 1404
malzemeleri 1404
uygulanması 1404
çeşidi 1404
Uçak 1403
Way 1403
anıdır 1403
jet 1403
periy@@ 1403
Cermen 1402
Good 1402
cas@@ 1402
kuruc@@ 1402
müzikleri 1402
olabilecek 1402
tidir 1402
yürütmüştür 1402
çapraz 1402
İsviçreli 1402
ılmasının 1402
Gürc@@ 1401
Ross 1401
Sedat 1401
ish 1401
isyanı 1401
manevi 1401
yayıldı 1401
£ 1401
ılığının 1401
Gogh 1400
Haçlılar 1400
güçler 1400
mayın 1400
platform 1400
sizliği 1400
tem 1400
105 1399
cinayet@@ 1399
inger 1399
maddeleri 1399
tercüme 1399
Bildir@@ 1398
Hayvan@@ 1398
Yetiş@@ 1398
döndüğünde 1398
kısmına 1398
radyasyon 1398
teş@@ 1398
yörünge 1398
0,3 1397
Bayburt 1397
Protestan 1397
kadrol@@ 1397
kötül@@ 1397
15@@ 1396
Kapısı 1396
Karaca 1396
aktör@@ 1396
geçip 1396
kardeşleri 1396
köyl@@ 1396
osa 1396
KP 1395
Onu 1395
Wayne 1395
lanıp 1395
semp@@ 1395
soru 1395
tüfek 1395
uzakta 1395
yaşından 1395
İktisadi 1395
Ant@@ 1394
IX 1394
Studio 1394
artırmak 1394
bağlıydı 1394
etmedi 1394
kazandırdı 1394
oksit 1394
üretti 1394
Lost 1393
ameliy@@ 1393
belirtilmektedir 1393
engelli 1393
finans@@ 1393
itlerin 1393
keleri 1393
mur@@ 1393
Cena 1392
ağıdır 1392
bağlanır 1392
etmeleri 1392
işlev 1392
kardeşler 1392
liğidir 1392
Abdul@@ 1391
Hür@@ 1391
Kok@@ 1391
Liberal 1391
ekt@@ 1391
gelmişti 1391
hafız@@ 1391
hayvanları 1391
konut 1391
lüğe 1391
saatlik 1391
tanımlanmış 1391
Gökç@@ 1390
Hüsrev 1390
suları 1390
vermeyi 1390
Kate 1389
Siyaset 1389
Terakki 1389
mar 1389
sokul@@ 1389
yalıt@@ 1389
yön 1389
Kardeş 1388
özgürlük@@ 1388
Aks@@ 1387
Bayern 1387
Kuruluş 1387
Mora 1387
anlarda 1387
şehrini 1387
1875 1386
Yarg@@ 1386
yerin 1386
.Bu 1385
alacağı 1385
ansa 1385
arca 1385
atası 1385
aşiret@@ 1385
bahçe 1385
eceğinden 1385
etken@@ 1385
güz@@ 1385
havacılık 1385
şekillerde 1385
alb@@ 1384
yükseklikte 1384
zad@@ 1384
Not@@ 1383
detaylı 1383
fazl@@ 1383
gençler 1383
ins 1383
kalite 1383
sekreter@@ 1383
sevk 1383
yazıp 1383
Çor@@ 1383
Esk@@ 1382
Fars 1382
Hikâye 1382
Office 1382
Tiyatroları 1382
War@@ 1382
Yazar@@ 1382
açılması 1382
geleri 1382
pik@@ 1382
politikaları 1382
sanatçıların 1382
yanındaki 1382
ülerin 1382
şehirlerde 1382
An 1381
Dublin 1381
Lombardiya 1381
elden 1381
gitmiştir 1381
itli 1381
kararını 1381
matematikçi 1381
tiş@@ 1381
Gökhan 1380
Johnny 1380
Katol@@ 1380
Pek@@ 1380
imden 1380
kapsamaktadır 1380
siniz 1380
1873 1379
Yunanlar 1379
eksik 1379
det 1378
olmaksızın 1378
sınırlandır@@ 1378
ımcılar 1378
AD@@ 1377
Göç@@ 1377
alaş@@ 1377
öldürmek 1377
Bazıları 1376
Bran@@ 1376
Genç@@ 1376
Miguel 1376
beli 1376
doçent 1376
gergin@@ 1376
riski 1376
tın@@ 1376
Özet 1376
ğidir 1376
ışına 1376
akadem@@ 1375
akın@@ 1375
birtakım 1375
memnun 1375
tarihçisi 1375
yemin 1375
ûn 1375
ımdır 1375
Amerik@@ 1374
Burdur 1374
Cez@@ 1374
SO@@ 1374
ilişkis@@ 1374
lanmasına 1374
müziğe 1374
sahil@@ 1374
1830 1373
All@@ 1373
Jordan 1373
Ligue 1373
istihdam 1373
müh@@ 1373
Division 1372
amamış 1372
www.@@ 1372
çabaları 1372
öneme 1372
ABC 1371
Kırşehir 1371
anca 1371
konferans@@ 1371
konumuna 1371
tablos@@ 1371
23.@@ 1370
A2 1370
aksi 1370
motif@@ 1370
yaralı 1370
yarışmayı 1370
Ahit 1369
Alev@@ 1369
DS@@ 1369
acağ@@ 1369
eo 1369
fık@@ 1369
karg@@ 1369
müsabakaları 1369
türk 1369
ıtma 1369
Ayaklanması 1368
Buz@@ 1368
Dir@@ 1368
akarsu 1368
amın 1368
askerlerinin 1368
müte@@ 1368
Budist 1367
Uluslar 1367
Uygulama 1367
We@@ 1367
albümden 1367
aslı 1367
birbiriyle 1367
eleştirmenler 1367
hukuki 1367
hücreler 1367
pazarlama 1367
savunuc@@ 1367
sigara 1367
Ün@@ 1367
Barbara 1366
abilme 1366
cin 1366
okuy@@ 1366
yazarlığı 1366
İliş@@ 1366
ER@@ 1365
Pur@@ 1365
edecektir 1365
iran 1365
lemi 1365
pil 1365
verildiği 1365
yumur@@ 1365
Öğretim 1365
öldürülmesi 1365
Biz 1364
karışımı 1364
meyvel@@ 1364
sezonundan 1364
ë 1364
Amazon 1363
Beyliği 1363
Fik@@ 1363
Kullan@@ 1363
aşk@@ 1363
değir@@ 1363
riyor 1363
uyuş@@ 1363
CIA 1362
Kan 1362
Last 1362
değiştirerek 1362
kadarki 1362
masraf@@ 1362
zy@@ 1362
ımsal 1362
Win@@ 1361
cisim 1361
kentine 1361
kümesidir 1361
liv@@ 1361
merc@@ 1361
subayı 1361
töreninde 1361
Cur@@ 1360
Kardeş@@ 1360
Missouri 1360
ayıcı 1360
esnada 1360
kendisiyle 1360
matemati@@ 1360
müttefik 1360
noktasında 1360
saç 1360
Store 1359
bahs@@ 1359
luca 1359
melerinin 1359
ularak 1359
İncil 1359
I.@@ 1358
Ligde 1358
Müsteş@@ 1358
Star@@ 1358
bozukluğu 1358
toz@@ 1358
tum 1358
öncesine 1358
örne@@ 1358
AT@@ 1357
Sig@@ 1357
altından 1357
başkanıdır 1357
baştan 1357
bül@@ 1357
girip 1357
inceleyen 1357
vücut@@ 1357
yetkisi 1357
Çetin 1357
çevirdi 1357
ahlaki 1356
iller@@ 1356
ilmesiyle 1356
yayımlanmış 1356
Şırnak 1356
Geliştirme 1355
parçasıydı 1355
ıyan 1355
64,0 1354
Akhisar 1354
Bis@@ 1354
Helen 1354
Iğdır 1354
oluştururlar 1354
öng@@ 1354
Channel 1353
Flor@@ 1353
Jerry 1353
Körfez 1353
açı 1353
hâkim@@ 1353
iddiaları 1353
özelliklerine 1353
ırk 1353
33,0 1352
Hom@@ 1352
Jonathan 1352
Kuveyt 1352
edebiyatının 1352
elerindeki 1352
meşru 1352
sınırlarını 1352
İskandinav 1352
abilmiştir 1351
felsefes@@ 1351
gü 1351
kısmi 1351
lebilir 1351
İdman 1351
İvan 1351
ailesini 1350
beğeni 1350
diller 1350
gelişti 1350
mül@@ 1350
teması 1350
tesisleri 1350
yazması 1350
çarptırıldı 1350
Beşinci 1349
alim@@ 1349
siyah@@ 1349
sözde 1349
vaka 1349
Ankaragücü 1348
Pop@@ 1348
gelenek 1348
güven 1348
kulak 1348
olo 1348
seçimler 1348
tarzda 1348
İpek 1348
Aksaray 1347
Carlo 1347
Tepe 1347
ates 1347
dos 1347
lıklı 1347
İsti@@ 1347
bürokr@@ 1346
durumlar 1346
gazı 1346
giymiş 1346
maf@@ 1346
sınırına 1346
talebi 1346
tepkim@@ 1346
Kitabın 1345
Seattle 1345
Torino 1345
barın@@ 1345
heter@@ 1345
kurucuları 1345
odaklı 1345
onuncu 1345
türemiştir 1345
Öztürk 1345
Julia 1344
nitelendirdi 1344
odak 1344
İlçede 1344
1868 1343
Dede 1343
anlatmaktadır 1343
ağları 1343
ilçeleri 1343
kedi 1343
kulu 1343
seviyesinde 1343
yazılır 1343
İlerleyen 1343
ısız 1343
dünyasının 1342
gir 1342
halefi 1342
hizmetler 1342
som@@ 1342
yansı@@ 1342
1834 1341
Danimarkalı 1341
aniden 1341
hayatında 1341
torun@@ 1341
Para 1340
SP@@ 1340
bakanlığı 1340
ihanet 1340
kavg@@ 1340
olmamasına 1340
ometr@@ 1340
onia 1340
peygamber@@ 1340
yenen 1340
çevrilidir 1340
şiirleri 1340
Dek@@ 1339
Lyon 1339
Ven@@ 1339
bira 1339
değişiklikleri 1339
dönüşüm 1339
fakir 1339
kaldırılması 1339
osunu 1339
referand@@ 1339
sanatç@@ 1339
Ülk@@ 1339
Frederick 1338
Kopenhag 1338
akat 1338
bağımlı 1338
hakkına 1338
profesör@@ 1338
programda 1338
renin 1338
saltan@@ 1338
şehrindeki 1338
Kırklareli 1337
Lar@@ 1337
Yard@@ 1337
etk@@ 1337
hoş 1337
karşılaşmada 1337
yaşamına 1337
İlin 1337
FIBA 1336
Hü@@ 1336
hücres@@ 1336
kurucularından 1336
oli 1336
pozisyon 1336
sahası 1336
seler 1336
üçünc@@ 1336
Başkanlık 1335
Jüpiter 1335
alde 1335
avuk@@ 1335
dönme 1335
etkilerini 1335
milliyet@@ 1335
rey@@ 1335
yin@@ 1335
İlhan 1335
İsrailli 1335
ater@@ 1334
görünmektedir 1334
Batılı 1333
eşittir 1333
memuru 1333
uki 1333
Cab@@ 1332
Hul@@ 1332
Leyla 1332
Limanı 1332
Oyun@@ 1332
Yugoslav 1332
anatom@@ 1332
edilmesiyle 1332
küçül@@ 1332
ortamında 1332
toplamı 1332
umlar 1332
yolun 1332
Çal@@ 1332
Dür@@ 1331
azar 1331
depres@@ 1331
dolara 1331
gereğince 1331
giyim 1331
idea 1331
kamusal 1331
komedyen 1331
koç@@ 1331
Tart@@ 1330
açıktır 1330
beraberlik 1330
ilerleme 1330
keman 1330
konsantr@@ 1330
kuruluşundan 1330
Büyükelçiliği 1329
Junior 1329
Saray@@ 1329
ase 1329
ert 1329
ispat@@ 1329
sistemlerinin 1329
tanımlam@@ 1329
1861 1328
S0 1328
arr@@ 1328
başlarlar 1328
düğüm@@ 1328
göğüs 1328
karakteristik 1328
meme 1328
çalar 1328
önemlisi 1328
Ceph@@ 1327
Yüksekokulu 1327
bağışıklık 1327
kapak 1327
konsolos@@ 1327
lerarası 1327
liklerini 1327
üçü 1327
ılış 1327
Araştırmaları 1326
Atlanta 1326
Santos 1326
deyken 1326
eriyle 1326
uyd@@ 1326
verirler 1326
1879 1325
bağlam@@ 1325
benzersiz 1325
hamile 1325
karşılandı 1325
zayıfl@@ 1325
çıkarır 1325
Karaç@@ 1324
askere 1324
bomb@@ 1324
bucak 1324
ilerdir 1324
işli 1324
karakterlerin 1324
kızın 1324
luğ@@ 1324
Li 1323
dillerinde 1323
out 1323
programlar 1323
türüne 1323
André 1322
Tapınağı 1322
almasını 1322
birleşme 1322
bürokrat 1322
elindeki 1322
havaya 1322
uçuşu 1322
çam 1322
çember@@ 1322
ötesi 1322
hatırlat@@ 1321
temelinde 1321
zin@@ 1321
Şap@@ 1321
Celal 1320
Sparta 1320
Tennessee 1320
belde 1320
ormanlık 1320
politi@@ 1320
statüsüne 1320
süreyle 1320
türev@@ 1320
umut@@ 1320
Bükreş 1319
antal 1319
temsilcileri 1319
yazmaktadır 1319
Fey@@ 1318
Luc@@ 1318
Norveçli 1318
lum 1318
nerede 1318
çıkmak 1318
Yıllık 1317
bozuk@@ 1317
dram@@ 1317
görece 1317
ileride 1317
köklü 1317
ren 1317
ülebilir 1317
Ivan 1316
Raymond 1316
Yerleşim 1316
dolaylı 1316
kaydetmiştir 1316
macera 1316
oların 1316
taşıdığı 1316
yönünden 1316
Çarşamba 1316
1872 1315
Bin 1315
Bina 1315
Leningrad 1315
Nat@@ 1315
That 1315
ateşkes 1315
band@@ 1315
isimlerle 1315
soyut 1315
statik 1315
Efsan@@ 1314
benimsen@@ 1314
hayali 1314
ich@@ 1314
saldırgan@@ 1314
sir 1314
PS 1313
Petrol 1313
aktadırlar 1313
gazetesinin 1313
port 1313
tus 1313
uyarlam@@ 1313
Aleksand@@ 1312
Gemi 1312
Gıda 1312
Konsey 1312
Ya 1312
bulgul@@ 1312
gev@@ 1312
hâle 1312
kulübüdür 1312
listelenmiştir 1312
peyn@@ 1312
Evren 1311
Oyunculuk 1311
ado 1311
belirlenmesi 1311
etkinlikleri 1311
nedenlerden 1311
pin 1311
roket@@ 1311
söylenen 1311
} 1311
öldürülen 1311
Katıl@@ 1310
Sezonun 1310
Vek@@ 1310
die 1310
nahiyesine 1310
tekstil 1310
yu@@ 1310
36@@ 1309
atış 1309
dig@@ 1309
ener@@ 1309
gemiler 1309
giye 1309
kahram@@ 1309
mağara 1309
yapımlar 1309
40@@ 1308
Ceb@@ 1308
con@@ 1308
edit@@ 1308
filosu 1308
mışlardı 1308
taht 1308
Şehir@@ 1308
Heart 1307
Wright 1307
eklenir 1307
isa 1307
kuzeydoğu 1307
mutfağı 1307
rev@@ 1307
ves@@ 1307
Haydar 1306
dahildir 1306
geçtikten 1306
harf 1306
planlan@@ 1306
yıllarca 1306
ıncı 1306
Hoc@@ 1305
adalet 1305
doğası 1305
fiyat 1305
iman 1305
köylü 1305
yelpaz@@ 1305
şartları 1305
Ast@@ 1304
Giray 1304
ağac@@ 1304
hakem 1304
ildir 1304
ly@@ 1304
mang@@ 1304
oynuyor 1304
renkte 1304
tecavüz 1304
Avrupal@@ 1303
Rayonu 1303
Sancağı 1303
Yarışma 1303
day 1303
derginin 1303
jeolojik 1303
kaleyi 1303
lebil@@ 1303
plerinin 1303
tro@@ 1303
varyas@@ 1303
AG 1302
Gümüş 1302
Mill@@ 1302
argü@@ 1302
dünyasına 1302
düzen 1302
eydi 1302
hayır 1302
inç@@ 1302
izleme 1302
kardeşinin 1302
kızıl 1302
sömürge 1302
Eskiden 1301
Tepesi 1301
abl@@ 1301
arcık 1301
ife 1301
limanı 1301
ster 1301
suikast@@ 1301
thi@@ 1301
tol@@ 1301
uyarlanmıştır 1301
3.000 1300
adem@@ 1300
atadı 1300
entin 1300
http 1300
ikon 1300
kilit 1300
kırıl@@ 1300
müfre@@ 1300
sizdir 1300
tili@@ 1300
Fabrikası 1299
Oyuncul@@ 1299
Valiliği 1299
What 1299
burnu 1299
işley@@ 1299
metik 1299
sponsor@@ 1299
tral 1299
Muk@@ 1298
Mul@@ 1298
areti 1298
ju 1298
wa 1298
çan 1298
üniversitesi 1298
Müh@@ 1297
TE@@ 1297
deş@@ 1297
etkisiz 1297
kuruluşları 1297
meyeceğini 1297
sermaye 1297
sivri 1297
yürüten 1297
denizden 1296
karaya 1296
karşılan@@ 1296
larsa 1296
Ümit 1296
Maya 1295
esinlenerek 1295
inşaatı 1295
kulesi 1295
mekti 1295
oba 1295
oku 1295
pol 1295
rüzgar@@ 1295
yerleşmiştir 1295
ışla 1295
1874 1294
Mant@@ 1294
Marino 1294
Osmaniye 1294
görüntüleri 1294
kılın@@ 1294
lav 1294
rî 1294
yıkıldı 1294
çocuklara 1294
Home 1293
elbis@@ 1293
ender 1293
etkinlikler 1293
saatlerinde 1293
Divan 1292
Meydan 1292
bilgiye 1292
bulunarak 1292
dönemden 1292
girmeyi 1292
ilgilenen 1292
platin 1292
yargılan@@ 1292
çalışarak 1292
çoğunluk 1292
ülkelerinin 1292
1840 1291
Bürosu 1291
Meksikalı 1291
Pu@@ 1291
addır 1291
defalarca 1291
gösterimi 1291
ity 1291
planda 1291
Santiago 1290
hesap 1290
undaydı 1290
Anıtı 1289
Lav@@ 1289
ayev 1289
etmez 1289
für 1289
linin 1289
menleri 1289
süreliğine 1289
üniversitenin 1289
Doğum 1288
Roman@@ 1288
arkaya 1288
düzenleyen 1288
haş@@ 1288
tali@@ 1288
yüzeyi 1288
Cemil 1287
Shin@@ 1287
fiilen 1287
padişah 1287
ref 1287
yıldızların 1287
zamandır 1287
Çöz@@ 1287
Boys 1286
ET@@ 1286
Golden 1286
Sün@@ 1286
ceye 1286
genişle@@ 1286
muhtemel 1286
satarak 1286
Arş@@ 1285
Austin 1285
Dave 1285
Faruk 1285
Fon@@ 1285
Perry 1285
bölümlerinde 1285
desteklen@@ 1285
este 1285
finans 1285
hayran 1285
kitle 1285
ordu@@ 1285
tal 1285
tica 1285
50@@ 1284
Buc@@ 1284
Eyaletin 1284
Maçı 1284
Sağ 1284
aslen 1284
astronomi 1284
asıl@@ 1284
beni 1284
boğa 1284
keşif@@ 1284
partiler 1284
sahasında 1284
yükselme 1284
Justin 1283
Poe 1283
Rolling 1283
canlandırılmış 1283
dallarında 1283
dilini 1283
küç@@ 1283
mu 1283
problem 1283
tia 1283
bırakıp 1282
itiraz 1282
köşesinde 1282
pah@@ 1282
seyahat@@ 1282
ünlüdür 1282
о@@ 1282
Viz@@ 1281
inanılır 1281
jan@@ 1281
monarş@@ 1281
yapılarak 1281
BAL 1280
Mareşal 1280
Portekizli 1280
bazlı 1280
dec@@ 1280
div@@ 1280
eklerin 1280
gul@@ 1280
jan 1280
stan@@ 1280
sında 1280
umlu 1280
Öğ@@ 1280
Astr@@ 1279
Josef 1279
Kadın@@ 1279
barındırır 1279
deli 1279
eserlerinden 1279
hastalıkları 1279
mo 1279
savaşan 1279
vo 1279
şiddetle 1279
Arkeoloji 1278
Demirel 1278
anılmaktadır 1278
değerini 1278
fayd@@ 1278
isminde 1278
lüsü 1278
tarihç@@ 1278
ğiyle 1278
Alayı 1277
Family 1277
Katar 1277
derhal 1277
evlilikten 1277
ileştir@@ 1277
olanı 1277
owski 1277
yerleşmiş 1277
Çeyrek 1277
Kardeşler 1276
Wal@@ 1276
beta 1276
cinsinden 1276
görevlerde 1276
hanede 1276
ry 1276
yağlı 1276
Akh@@ 1275
Arkad@@ 1275
Taarru@@ 1275
UK 1275
dinoz@@ 1275
disi 1275
dönüşü 1275
gular 1275
kamplar@@ 1275
karşılaştığı 1275
reddedil@@ 1275
termo@@ 1275
tre@@ 1275
çin 1275
128 1274
33@@ 1274
Eflak 1274
Kimi 1274
atık 1274
endiler 1274
estetik 1274
fres@@ 1274
pların 1274
yenilik@@ 1274
deb@@ 1273
kont@@ 1273
mot@@ 1273
obu 1273
plaz@@ 1273
rezerv@@ 1273
TCDD 1272
Zamanla 1272
akın 1272
belirler 1272
ekti 1272
kurs@@ 1272
metrajlı 1272
muhalif@@ 1272
oluşu 1272
sağlanan 1272
Levent 1271
Road 1271
basit@@ 1271
ein 1271
istiyordu 1271
kıta 1271
ray 1271
yapmakta 1271
Açık@@ 1270
Inc 1270
Korece 1270
Pazar@@ 1270
Vor@@ 1270
Yıllar 1270
aster@@ 1270
batır@@ 1270
buhar 1270
iten 1270
kası 1270
kullanırlar 1270
yayınlar 1270
şifreleme 1270
Bitki 1269
elektro@@ 1269
milletvek@@ 1269
po 1269
sön@@ 1269
ındandır 1269
Billy 1268
Hamdi 1268
Reich 1268
Stefan 1268
hükümetinin 1268
ij@@ 1268
macılar 1268
maksızın 1268
ow@@ 1268
ty@@ 1268
yapılmasını 1268
yeyi 1268
Cre@@ 1267
istemiştir 1267
sodyum 1267
uzunluğundaki 1267
üle 1267
anik@@ 1266
lığ@@ 1266
tahıl 1266
temel@@ 1266
Şehr@@ 1266
Airlines 1265
Baas 1265
Bartın 1265
Cola 1265
Otomobil 1265
ektir 1265
fil 1265
gönderir 1265
katkısı 1265
koymuştur 1265
ordusunda 1265
ularına 1265
ışlardı 1265
25@@ 1264
Abdülaziz 1264
Bangladeş 1264
ansız 1264
atların 1264
duğundan 1264
dönük 1264
ecisi 1264
geçirir 1264
kabaca 1264
okuluna 1264
süslem@@ 1264
tedbir@@ 1264
ıs 1264
Abdurrahman 1263
Amy 1263
Hot@@ 1263
Sanc@@ 1263
albüme 1263
amin@@ 1263
birliklerini 1263
kentindeki 1263
lit 1263
manında 1263
ure 1263
urg@@ 1263
yetkis@@ 1263
üzerindedir 1263
Cerr@@ 1262
GSYİH 1262
başarıya 1262
bizim 1262
dostu 1262
konulu 1262
oca 1262
sürdürül@@ 1262
çiftlik 1262
Geçidi 1261
atmış 1261
değerler 1261
espor 1261
konumda 1261
undu 1261
Reh@@ 1260
ania 1260
domuz 1260
fantastik 1260
kriz 1260
lia 1260
oturan 1260
yasaları 1260
çevrilmiştir 1260
AT 1259
Lap@@ 1259
Old 1259
Single 1259
artmıştır 1259
danışmanlık 1259
daydı 1259
endişe 1259
mir 1259
oyların 1259
çıkard@@ 1259
Julius 1258
TP 1258
alıcı 1258
cılığı 1258
imsel 1258
iğin 1258
manga 1258
pta 1258
Pul@@ 1257
Rag@@ 1257
böbrek 1257
getirilmiş 1257
geçirmiş 1257
kişileri 1257
saptan@@ 1257
sağlanması 1257
skaya 1257
sonras@@ 1257
tör 1257
Matthew 1256
birey 1256
derleme 1256
laboratuvar@@ 1256
tarafsız 1256
teoremi 1256
toplumu 1256
vilayet@@ 1256
yitirdi 1256
8,@@ 1255
War 1255
aton 1255
düşünülür 1255
elenmiş 1255
istis@@ 1255
kel 1255
Ülkede 1255
İng 1255
24@@ 1254
Motor@@ 1254
cüce 1254
endüstri 1254
kaplayan 1254
polis@@ 1254
çöl@@ 1254
Giorgi 1253
Koy@@ 1253
US@@ 1253
duvarları 1253
dığına 1253
kapit@@ 1253
tanık 1253
türetilmiştir 1253
çeşitlilik 1253
1866 1252
And 1252
Sag@@ 1252
alanların 1252
hun 1252
merdiven@@ 1252
ografisi 1252
uzlaş@@ 1252
Nav@@ 1251
Nö@@ 1251
alkol@@ 1251
atlama 1251
edilecek 1251
old 1251
tamamlanmıştır 1251
verecek 1251
yöneldi 1251
Brooklyn 1250
Kansas 1250
alik 1250
bilimleri 1250
etmem@@ 1250
geçişi 1250
imal 1250
konsey@@ 1250
kıv@@ 1250
lon 1250
metrosu 1250
rüy@@ 1250
Catherine 1249
Gizli 1249
Tebriz 1249
dönemdeki 1249
edildiğinde 1249
gezeg@@ 1249
koleksiyonu 1249
sözleşmesini 1249
çevrildi 1249
Marc 1248
bahsedil@@ 1248
ecz@@ 1248
gizemli 1248
kalmaya 1248
törü 1248
Kanalı 1247
Okyanus 1247
Union 1247
Utah 1247
açılır 1247
beklenmedik 1247
filmiyle 1247
Moğollar 1246
Süt@@ 1246
dale 1246
filmlerin 1246
iss@@ 1246
kızıdır 1246
kızıl@@ 1246
ū@@ 1246
Copa 1245
Renault 1245
Rev@@ 1245
Sonic 1245
Taraf@@ 1245
bıraktığı 1245
gener@@ 1245
klor@@ 1245
pes 1245
tin@@ 1245
usi 1245
çikolata 1245
Aliyev 1244
Eur@@ 1244
Veri 1244
dönüşmüştür 1244
hastane 1244
kalmayı 1244
kör 1244
ışları 1244
Clark 1243
Eleştiriler 1243
Fort 1243
Güç 1243
Harbiye 1243
arz 1243
dosy@@ 1243
ileş@@ 1243
çalı 1243
Dream 1242
Mimar@@ 1242
Port 1242
alındığı 1242
dahili 1242
güvence 1242
haklar 1242
imal@@ 1242
irad@@ 1242
sis 1242
tepkiler 1242
yakalandı 1242
Cruz 1241
Teş@@ 1241
aja 1241
alık@@ 1241
benin 1241
bulunmak 1241
geni 1241
göstermiş 1241
gın@@ 1241
hocası 1241
ildiğinde 1241
imparatorluğun 1241
şarkıya 1241
Hes@@ 1240
bilginin 1240
gelince 1240
ibn 1240
karasal 1240
yavr@@ 1240
çoğunluğunu 1240
ödülleri 1240
ვ@@ 1240
Oklahoma 1239
alarındaki 1239
almaktaydı 1239
fırlatma 1239
gruplara 1239
karşılaşır 1239
konumunda 1239
kuvvetlerini 1239
propaganda 1239
é@@ 1239
eleridir 1238
ürünlerin 1238
Albümü 1237
Bizanslılar 1237
Nehir 1237
Nis@@ 1237
evliliği 1237
karışık@@ 1237
kayaç@@ 1237
maliyeti 1237
mantık 1237
paylaştı 1237
programın 1237
yararlı 1237
çağda 1237
İlkokulu 1237
bec@@ 1236
bilimler 1236
tema 1236
terimdir 1236
toplamak 1236
Şevket 1236
Cey@@ 1235
Kıl@@ 1235
belirtmektedir 1235
kampanya 1235
kusur@@ 1235
lığıyla 1235
yarışmasına 1235
İleri 1235
M.S. 1234
alize 1234
asyonuna 1234
başrollerinde 1234
dolay@@ 1234
fu 1234
gam@@ 1234
lakab@@ 1234
laşmış 1234
luy@@ 1234
oluk 1234
âde 1234
17@@ 1233
Dallas 1233
afi 1233
aran@@ 1233
dalda 1233
olmadığından 1233
reform 1233
yuvar@@ 1233
ī@@ 1233
ışa 1233
dez@@ 1232
dî 1232
eridir 1232
gönderme 1232
ibadet 1232
icilik 1232
katılımı 1232
plerine 1232
salg@@ 1232
yürüyüş 1232
Üsküp 1232
çapta 1232
çeviri 1232
üçgen 1232
Kontrol 1231
Toplamda 1231
biz 1231
otom@@ 1231
yaral@@ 1231
çaldı 1231
Parç@@ 1230
kararla 1230
mazlar 1230
semt 1230
sim 1230
zinciri 1230
Fatma 1229
Performansı 1229
Power 1229
görüşlerini 1229
huku@@ 1229
ikan 1229
kald@@ 1229
mun 1229
yaklaşımı 1229
yiz 1229
çığ@@ 1229
Fransızlar 1228
Maked@@ 1228
birbirini 1228
okuldan 1228
rat 1228
sürecini 1228
takvim@@ 1228
tükenmiş 1228
‭ 1228
Nic@@ 1227
Toplum 1227
cı@@ 1227
nok@@ 1227
sunmuştur 1227
Ian 1226
Karag@@ 1226
Oluş@@ 1226
Ortalama 1226
Phoenix 1226
Series 1226
UN@@ 1226
coğrafya 1226
disiplin@@ 1226
hen@@ 1226
kaybettiği 1226
sözler 1226
süvar@@ 1226
toplayan 1226
Apollo 1225
Digital 1225
Lan@@ 1225
gah@@ 1225
ny@@ 1225
saatte 1225
çiftler 1225
çubu@@ 1225
Cy@@ 1224
Kane 1224
NXT 1224
Salon 1224
basıldı 1224
erdir 1224
evrim 1224
maçtan 1224
savaşçı 1224
tz 1224
ısındaki 1224
Bulgar@@ 1223
aydın 1223
dy@@ 1223
fat 1223
koruması 1223
uğuna 1223
1869 1222
Gary 1222
Grek 1222
biç@@ 1222
entelektüel 1222
gelmesiyle 1222
gerçekleştiren 1222
him 1222
ji@@ 1222
ua 1222
zon 1222
üyeler 1222
ımlarının 1222
Darwin 1221
Mirza 1221
Nan@@ 1221
ain@@ 1221
hava@@ 1221
hum@@ 1221
konus@@ 1221
korkunç 1221
olanları 1221
saati 1221
yanl@@ 1221
yıllığına 1221
ölümüyle 1221
Kadir 1220
ake 1220
bilgisay@@ 1220
bulgular 1220
bulut 1220
duyla 1220
nek 1220
seçimde 1220
Andy 1219
Ed 1219
Fikret 1219
Nova 1219
Sw@@ 1219
bert 1219
dükleri 1219
ettiğinde 1219
konuma 1219
Bayramı 1218
Beach 1218
Co 1218
Ort@@ 1218
Tıva 1218
ilişkilerin 1218
ilişkiye 1218
lanmasını 1218
melerde 1218
ovo 1218
projeleri 1218
Zar@@ 1217
cid@@ 1217
dah@@ 1217
geliştirmeye 1217
icus 1217
meşe 1217
opo@@ 1217
sığ 1217
urt@@ 1217
Kli@@ 1216
Sean 1216
Van@@ 1216
anna 1216
ars 1216
ayına 1216
deney 1216
eroz@@ 1216
eşya 1216
konak 1216
manastır 1216
parçalan@@ 1216
seramik 1216
yatan 1216
yayılmış 1216
zo@@ 1216
zırh 1216
Öğretmen 1216
İler@@ 1216
Kati@@ 1215
basketbolcu 1215
enfekte 1215
izley@@ 1215
ya@@ 1215
ördür 1215
Philippe 1214
Pon@@ 1214
Tul@@ 1214
görebil@@ 1214
muharebe@@ 1214
tanıma 1214
yenler 1214
ödüle 1214
İttihat 1214
1200 1213
Bou@@ 1213
Like 1213
Platon 1213
daima 1213
doğruladı 1213
egemenliğine 1213
geliştirdiği 1213
kimsenin 1213
kuvvetlerine 1213
psikiy@@ 1213
sesini 1213
yapacak 1213
şeye 1213
Ayı 1212
Finalde 1212
Jap@@ 1212
Luke 1212
ayd@@ 1212
başlangıc@@ 1212
bölgesidir 1212
davranışları 1212
düşüktür 1212
ente 1212
gram 1212
nihayet 1212
normalde 1212
savaştı 1212
LE@@ 1211
baharında 1211
diyor 1211
dondur@@ 1211
ecilik 1211
havalimanı 1211
lac@@ 1211
laştırma 1211
oluşum 1211
sch@@ 1211
âşık 1211
ürlük@@ 1211
Şii 1211
ISO 1210
KKTC 1210
Karam@@ 1210
Peş@@ 1210
Tev@@ 1210
dokul@@ 1210
kentte 1210
sanatları 1210
savaşlar 1210
tabloda 1210
İşte 1210
Dinamo 1209
Peterburg 1209
Ramazan 1209
ary@@ 1209
besi 1209
elinin 1209
fün@@ 1209
günlerinde 1209
hastalıklar 1209
zin 1209
Got@@ 1208
Gul@@ 1208
Tün@@ 1208
bağlanan 1208
başbakanlık 1208
cismin 1208
dışarıdan 1208
hanedanı 1208
lisans@@ 1208
makineli 1208
milletvekilliği 1208
mutfağ@@ 1208
sendik@@ 1208
Colorado 1207
Hızlı 1207
Lag@@ 1207
bilgilerin 1207
bölgedir 1207
ekstr@@ 1207
glik@@ 1207
mikro 1207
pos 1207
Seul 1206
basıncı 1206
kurallar 1206
otomobil@@ 1206
yükü 1206
Dean 1205
Eleştir@@ 1205
Giriş@@ 1205
Valley 1205
Zel@@ 1205
doktoru 1205
eklenen 1205
masız 1205
yapmıştı 1205
Rab@@ 1204
akların 1204
değin@@ 1204
kun@@ 1204
simetr@@ 1204
taya 1204
termal 1204
450 1203
Avcı 1203
Katliamı 1203
Kentin 1203
ats@@ 1203
farkl@@ 1203
saldırgan 1203
uydur@@ 1203
vo@@ 1203
yayıncı 1203
şarkısıdır 1203
Donanma 1202
Dünyada 1202
Journal 1202
Karabük 1202
Kons@@ 1202
Mot@@ 1202
cidir 1202
geldiler 1202
kampanyası 1202
kavga 1202
müziğin 1202
soğut@@ 1202
tıktan 1202
ulaşıl@@ 1202
utul@@ 1202
ლ@@ 1202
Olay 1201
Toyota 1201
atmak 1201
irti@@ 1201
kıyısındaki 1201
pandemisi 1201
tanıştığı 1201
tarif@@ 1201
tiyatro@@ 1201
yg@@ 1201
öl 1201
Akç@@ 1200
Biz@@ 1200
Kiril 1200
Sadrazam 1200
Tig@@ 1200
ash@@ 1200
durumdan 1200
dünyası 1200
gene 1200
kalanı 1200
olabilirler 1200
uli@@ 1200
Amiral 1199
Demirspor 1199
Kayserispor 1199
Nah@@ 1199
Yalnızca 1199
değişmektedir 1199
escu 1199
geçirilen 1199
içerdiği 1199
markas@@ 1199
sanılmaktadır 1199
yasadışı 1199
çöküş@@ 1199
ülkesini 1199
üsüdür 1199
şirketine 1199
Engin 1198
Toplul@@ 1198
aralığında 1198
dönemini 1198
esiydi 1198
izmi 1198
içme 1198
yönden 1198
9,@@ 1197
Kos@@ 1197
MA 1197
Madison 1197
Mısırlı 1197
Yel@@ 1197
dostluk 1197
etkiye 1197
istasyon 1197
istikr@@ 1197
kurumlar 1197
milletvekilleri 1197
planlı 1197
türde 1197
yakınındaki 1197
yönündeki 1197
ıldılar 1197
Kont 1196
MHP 1196
Milliyet 1196
Sanatları 1196
alis@@ 1196
istleri 1196
prim@@ 1196
tapınak 1196
uf 1196
Öğrenci 1196
Sünni 1195
emez@@ 1195
komplo 1195
konumunu 1195
kuts@@ 1195
olitik 1195
tedarik 1195
terci@@ 1195
üre 1195
21.@@ 1194
Pav@@ 1194
Serisi 1194
Yok@@ 1194
amiral 1194
pa@@ 1194
rejimi 1194
Görev 1193
Homer 1193
Poly@@ 1193
alış@@ 1193
bağları 1193
bilinç@@ 1193
erli 1193
eğitime 1193
izleyici 1193
kalmıştı 1193
küçüktür 1193
luğundan 1193
müziğini 1193
Beyrut 1192
amayacağı 1192
arist@@ 1192
edilmeye 1192
feminist 1192
milyonlarca 1192
à 1192
B.@@ 1191
Cleveland 1191
Jacob 1191
Kenya 1191
Makedon 1191
Sekiz 1191
Tipik 1191
edildikten 1191
emr@@ 1191
futbolcul@@ 1191
içerisine 1191
muz@@ 1191
müdür 1191
seçilerek 1191
sidir 1191
çarş@@ 1191
Eyal@@ 1190
Gam@@ 1190
Tang 1190
Tatar@@ 1190
anlamak 1190
boyut 1190
danış@@ 1190
das 1190
futbolculuk 1190
geçerken 1190
kül 1190
ruhsal 1190
sadrazam@@ 1190
seviyesine 1190
üğün 1190
18@@ 1189
Internet 1189
dönemindeki 1189
ilikle 1189
kolları 1189
okullarda 1189
organizasyonu 1189
teli 1189
turist 1189
ülüğ@@ 1189
şehirden 1189
170 1188
Geniş 1188
Maden 1188
Papalık 1188
adasında 1188
amin 1188
endisi 1188
kinin 1188
ların@@ 1188
lâ@@ 1188
lüdür 1188
otonom 1188
puan@@ 1188
tarihlerde 1188
virüs 1188
Gerais 1187
Im@@ 1187
Leipzig 1187
Meclis@@ 1187
Trump 1187
dergilerde 1187
etmekle 1187
işlemler 1187
kaybetmiş 1187
metni 1187
muz 1187
ojen@@ 1187
punk 1187
öğrenimi 1187
Kolej 1186
Mimari 1186
Pak@@ 1186
artışı 1186
göçebe 1186
ier 1186
kadardır 1186
sevi@@ 1186
şebek@@ 1186
Dim@@ 1185
Harbi 1185
Operasyonu 1185
amlar 1185
kuralı 1185
sefere 1185
topraklarda 1185
İstiklal 1185
Carter 1184
Detroit 1184
Hic@@ 1184
SS@@ 1184
Yang@@ 1184
ahat 1184
aleti 1184
cüml@@ 1184
etab@@ 1184
eğiti@@ 1184
güce 1184
kazand@@ 1184
ros 1184
simgesi 1184
tasarımcısı 1184
türden 1184
yaratan 1184
zil@@ 1184
Ajax 1183
Esen@@ 1183
Hawaii 1183
Pan 1183
Sümer 1183
ateşli 1183
bırakan 1183
faaliyetler 1183
girmek 1183
görünt@@ 1183
müziğinin 1183
nar@@ 1183
radyas@@ 1183
sî 1183
Eg@@ 1182
Fur@@ 1182
Mi 1182
bolu 1182
egemen@@ 1182
iminden 1182
kullandıkları 1182
paket 1182
seçilir 1182
ue 1182
üyeli@@ 1182
Başrol@@ 1181
Bilinen 1181
Bolivya 1181
Esad 1181
Story 1181
Vatan 1181
`@@ 1181
birliktel@@ 1181
eyaletin 1181
karmaş@@ 1181
penaltı 1181
yılan 1181
Üz@@ 1181
Dü@@ 1180
alüminyum 1180
başvuru 1180
bre@@ 1180
civarındadır 1180
görmeye 1180
liyordu 1180
sembolik 1180
ticar@@ 1180
Sul 1179
mesafede 1179
uvarı 1179
Çukurova 1179
Müc@@ 1178
arl@@ 1178
bulunurlar 1178
cevap@@ 1178
getirerek 1178
harc@@ 1178
katılması 1178
yanıl@@ 1178
yükselir 1178
zaferi 1178
zeytin 1178
zira 1178
Ash@@ 1177
Enstit@@ 1177
Ortadoğu 1177
Radyosu 1177
Roberto 1177
atörler 1177
değiştirmek 1177
infaz 1177
içindedir 1177
klem@@ 1177
madeni 1177
oksit@@ 1177
savaşları 1177
sırt 1177
ıkçı 1177
Ebû 1176
Sınır 1176
Zek@@ 1176
benim@@ 1176
mezarı 1176
prov@@ 1176
reaksiyon 1176
satışı 1176
sermay@@ 1176
stili 1176
Blo@@ 1175
Darbesi 1175
Meb@@ 1175
Rachel 1175
aviye 1175
emekliye 1175
görüntüler 1175
kıdemli 1175
oyunlarında 1175
özelliğine 1175
ımlara 1175
Dun@@ 1174
Lah@@ 1174
Lang@@ 1174
Styles 1174
aren@@ 1174
direnç 1174
ekolojik 1174
eliler 1174
geçim 1174
omur@@ 1174
şok 1174
AD 1173
Başar@@ 1173
Erdem 1173
Hag@@ 1173
Sovyet@@ 1173
alp 1173
asyonda 1173
cay@@ 1173
ekle 1173
hormon@@ 1173
projenin 1173
röportaj@@ 1173
yav@@ 1173
yetenek 1173
Anim@@ 1172
Senfoni 1172
başlan@@ 1172
değişti 1172
ikiz 1172
reddin 1172
uğunun 1172
çevirisi 1172
ıman 1172
Bunlara 1171
ömür 1171
ır. 1171
At 1170
Boks 1170
açıklaması 1170
böylelikle 1170
kardeşidir 1170
kidir 1170
los@@ 1170
luların 1170
maktadır.@@ 1170
oid@@ 1170
shi 1170
Batt@@ 1169
amaçlar 1169
dayandır@@ 1169
enerjinin 1169
enmiştir 1169
kütl@@ 1169
organ 1169
roğlu 1169
sakin@@ 1169
usal 1169
yaşamaktaydı 1169
Canlı 1168
Faz@@ 1168
Sho@@ 1168
pozisyonu 1168
toplar 1168
yaratmak 1168
Çankaya 1168
AŞ 1167
Miz@@ 1167
adli 1167
başrollerini 1167
lez@@ 1167
matr@@ 1167
sark@@ 1167
televizyonda 1167
yükseklik@@ 1167
çekmektedir 1167
Eskişehirspor 1166
Festiv@@ 1166
TÜ@@ 1166
Yurt 1166
amaması 1166
caminin 1166
kuvve@@ 1166
öldüğünü 1166
Batum 1165
Danıştay 1165
Franco 1165
Heyeti 1165
eleştirdi 1165
ilikte 1165
toplulukları 1165
tuk@@ 1165
Jüri 1164
Kaymakam@@ 1164
Kuzeybatı 1164
Oslo 1164
alarıdır 1164
bırakmak 1164
ex 1164
eşcinsel@@ 1164
iyye 1164
konfer@@ 1164
ps@@ 1164
radyol@@ 1164
sün@@ 1164
yab@@ 1164
Ölümünden 1164
şansını 1164
antrenör 1163
açısal 1163
filmlerinin 1163
karikatür@@ 1163
oynayarak 1163
senaryosu 1163
zev@@ 1163
5000 1162
Pic@@ 1162
Taliban 1162
amadan 1162
belirtildi 1162
tes 1162
titreş@@ 1162
çalışmaların 1162
İTÜ 1162
Gey@@ 1161
Mos@@ 1161
Sis@@ 1161
Sözleşmesi 1161
bağlantıları 1161
düşünen 1161
ester 1161
hang@@ 1161
yatak 1161
yeden 1161
yoksun 1161
Cooper 1160
Emma 1160
Light 1160
atletizm 1160
biyle 1160
eviz@@ 1160
gre@@ 1160
havalim@@ 1160
ill 1160
kadınları 1160
muhab@@ 1160
oph@@ 1160
stan 1160
unsurları 1160
çıktıktan 1160
‬ 1160
22.@@ 1159
Ara 1159
Hakkâri 1159
Silva 1159
Spike 1159
almışlardır 1159
ashi 1159
ayrımc@@ 1159
cada 1159
denetim@@ 1159
deplasmanda 1159
nefes 1159
rat@@ 1159
sığır 1159
ucusu 1159
Şükrü 1159
Başarıları 1158
balin@@ 1158
başlattığı 1158
birbirlerini 1158
fed@@ 1158
kaynaklarında 1158
manlık 1158
plazma 1158
siyas@@ 1158
tamir 1158
yeğ@@ 1158
Geçmiş 1157
Rob@@ 1157
avi@@ 1157
boşluk 1157
düşmüş 1157
düşünc@@ 1157
itik 1157
lemeye 1157
oynama 1157
reg@@ 1157
tablo@@ 1157
çalışmada 1157
ömrü 1157
İhsan 1157
şek 1157
Fuarı 1156
beraberinde 1156
elverişli 1156
eşitlik 1156
iliyor@@ 1156
medir 1156
tarl@@ 1156
yükseltil@@ 1156
şubesi 1156
Down 1155
Georges 1155
Juventus 1155
ODTÜ 1155
etlerini 1155
ilhak 1155
ium 1155
işleyen 1155
kura 1155
oranına 1155
orijin@@ 1155
yaratılan 1155
ükl@@ 1155
EuroLeague 1154
Eyü@@ 1154
Jennifer 1154
Lej@@ 1154
Reg@@ 1154
TV@@ 1154
cileri 1154
keşfedilen 1154
kolaylıkla 1154
metreye 1154
olmamıştır 1154
sıralaması 1154
çekilmesi 1154
çekirdeği 1154
ıklardan 1154
duvarı 1153
iciye 1153
söylenebilir 1153
tirler 1153
zorlu 1153
AK@@ 1152
Doğru 1152
Senaryo 1152
Seyyid 1152
alandaki 1152
ax 1152
açıklayan 1152
devreye 1152
direk@@ 1152
halkları 1152
lendirir 1152
ulara 1152
Çıkış 1152
Tuva 1151
akustik 1151
bölümüdür 1151
daimi 1151
dakikasında 1151
gösterilmektedir 1151
göstermeye 1151
lüler 1151
sınırlarına 1151
Partinin 1150
Yaygın 1150
arkadaşlarının 1150
düşüş 1150
ilçede 1150
leşti 1150
tanımlandı 1150
uğrayan 1150
çıkınt@@ 1150
Prensliği 1149
gelişimini 1149
ram 1149
tığında 1149
yönetildi 1149
Özbek 1149
Hermann 1148
apart@@ 1148
chi@@ 1148
deneyimi 1148
genişliğinde 1148
ilerley@@ 1148
popülar@@ 1148
tun@@ 1148
yarıda 1148
Şeytan 1148
CO@@ 1147
Küt@@ 1147
Moon 1147
Yalçın 1147
acılar 1147
ag 1147
amino 1147
aniye 1147
gözet@@ 1147
gözleri 1147
halkına 1147
heykeltıraş 1147
itici 1147
karşılaştırıldığında 1147
mekanizması 1147
toplayarak 1147
Anti 1146
Deney@@ 1146
Değir@@ 1146
Hüküm@@ 1146
Moh@@ 1146
\ 1146
als 1146
kazasında 1146
tesisi 1146
tüketi@@ 1146
uğramış 1146
yapıda 1146
şi@@ 1146
მ@@ 1146
4.000 1145
Kahraman 1145
Lat@@ 1145
Saksonya 1145
göründü 1145
laboratuvar 1145
olamadı 1145
sürecinin 1145
ülkes@@ 1145
Daire 1144
For 1144
Tuz@@ 1144
Tı@@ 1144
Var 1144
evlidir 1144
ilişkiyi 1144
madde@@ 1144
propagand@@ 1144
taze 1144
toplandı 1144
yetin 1144
Alberto 1143
Mang@@ 1143
Ofisi 1143
RA@@ 1143
Vermont 1143
aşıl@@ 1143
dâ@@ 1143
sakinleri 1143
tahtına 1143
çözmek 1143
Şubesi 1143
Dicle 1142
Ereğli 1142
Open@@ 1142
Tank 1142
andığında 1142
birleştiren 1142
boğaz@@ 1142
caz@@ 1142
dit 1142
oyuncu@@ 1142
Basra 1141
Kasabanın 1141
Museum 1141
Musul 1141
Tommy 1141
adadır 1141
apar@@ 1141
belirtmek 1141
göndererek 1141
ulaşmış 1141
yayınları 1141
yemeği 1141
1862 1140
Kurmay 1140
Oyunda 1140
cihazları 1140
harekât 1140
hid 1140
leşmesi 1140
saniyede 1140
yc@@ 1140
Ş 1140
Magic 1139
Rec@@ 1139
baharda 1139
birleşmesi 1139
cuk 1139
kristal@@ 1139
kuruluşlar 1139
ölüme 1139
İnş@@ 1139
ındayken 1139
Bart 1138
Jefferson 1138
Wisconsin 1138
air 1138
ank@@ 1138
başlangıcında 1138
değerlendirme 1138
git 1138
kalmak 1138
onur 1138
örnektir 1138
üretiminin 1138
Lucas 1137
ikon@@ 1137
indeyken 1137
rar@@ 1137
yaşamının 1137
Alternatif 1136
Central 1136
Suffolk 1136
Tit@@ 1136
ayete 1136
eşy@@ 1136
galibiyet@@ 1136
kategoride 1136
metod@@ 1136
onca 1136
parçasını 1136
tasavv@@ 1136
çalan 1136
üretilmektedir 1136
ırlı 1136
0.000 1135
Best@@ 1135
Muharebe 1135
Spar@@ 1135
Stanley 1135
Willow 1135
adaları 1135
cuya 1135
inos 1135
kural 1135
yaklaşan 1135
Albüm@@ 1134
Arapç@@ 1134
Dubai 1134
Irmağı 1134
Nu@@ 1134
Server 1134
Yüz 1134
abiliyordu 1134
biyografik 1134
dede 1134
dikkat@@ 1134
ecik 1134
etkiledi 1134
göze@@ 1134
robot@@ 1134
sanatının 1134
sebze 1134
sürmüş 1134
taz@@ 1134
zehirli 1134
Fal@@ 1133
Git@@ 1133
IS@@ 1133
Ny@@ 1133
Point 1133
cher 1133
denetim 1133
eyaletindeki 1133
eylemleri 1133
ikal@@ 1133
koloni 1133
literatür@@ 1133
mahallesinde 1133
paraz@@ 1133
tamamlay@@ 1133
Aconitum 1132
Dans 1132
Gelibolu 1132
May 1132
Taksim 1132
WrestleMania 1132
alttakımına 1132
faktörler 1132
sus 1132
versiyon 1132
yazardır 1132
Ozan 1131
enf@@ 1131
isimlerinden 1131
kararg@@ 1131
karın 1131
ont@@ 1131
reti 1131
utu 1131
yetenekleri 1131
İttifakı 1131
ATP 1130
Afr@@ 1130
Zagreb 1130
alak@@ 1130
arke@@ 1130
ağzı 1130
elçi 1130
görüntüleme 1130
günler 1130
medyada 1130
mültec@@ 1130
takdir 1130
yapısının 1130
yapıyordu 1130
Cihaz 1129
SD@@ 1129
cir 1129
dahilinde 1129
demokras@@ 1129
görüşmeler 1129
kaldırılmıştır 1129
kazandıkları 1129
misafir 1129
miyordu 1129
ışlı 1129
Bonn 1128
Norfolk 1128
aleyhine 1128
asıydı 1128
atmos@@ 1128
başkanının 1128
etkilenmiştir 1128
gelirler 1128
kriter@@ 1128
luluğu 1128
mor 1128
oksid@@ 1128
pencere 1128
problemi 1128
sıfır@@ 1128
zamanlarında 1128
Atak@@ 1127
Ontario 1127
denizaltı 1127
hayvanc@@ 1127
kronik 1127
modelinin 1127
yerdir 1127
Hastan@@ 1126
Kontu 1126
değerlendiril@@ 1126
kavş@@ 1126
kilo 1126
kulübüne 1126
Thompson 1125
atf@@ 1125
borç 1125
ihl@@ 1125
kadir 1125
lıklarına 1125
mekan 1125
mukav@@ 1125
nat@@ 1125
oğlunu 1125
silahı 1125
çıkarken 1125
Mississippi 1124
Pavlus 1124
alizmin 1124
gruplarının 1124
imkân 1124
kalitesi 1124
off@@ 1124
plerinden 1124
Marco 1123
Mikro@@ 1123
Nelson 1123
anlattığı 1123
bant@@ 1123
cinin 1123
insani 1123
mağlubiyet 1123
ulaştığı 1123
varisi 1123
yöneticileri 1123
Hek@@ 1122
Ma 1122
atanmış 1122
galak@@ 1122
kavramını 1122
kaç 1122
saldırısına 1122
öngörül@@ 1122
Harez@@ 1121
Prince 1121
Roy 1121
Sierra 1121
Somali 1121
alanlarının 1121
atında 1121
cihazı 1121
kaptan 1121
mahallede 1121
meclise 1121
modi@@ 1121
neye 1121
prefektör@@ 1121
serisidir 1121
sevilen 1121
sten 1121
vadeli 1121
yönetmenlik 1121
Tip 1120
arayüz@@ 1120
bağlıyken 1120
evliliğinden 1120
iks 1120
nedenleri 1120
reddedildi 1120
Çok@@ 1120
Comics 1119
Dış@@ 1119
Ga@@ 1119
Uzak 1119
Yazarlar 1119
adil 1119
amayacak 1119
aşama 1119
doz@@ 1119
ilerledi 1119
mevcuttu 1119
sağlayarak 1119
çidir 1119
önerilen 1119
anık 1118
filmdeki 1118
had 1118
keşfi 1118
muhaf@@ 1118
nesli 1118
ovski 1118
tarihin 1118
örd@@ 1118
İşlet@@ 1118
şiirler 1118
Harun 1117
Komit@@ 1117
Portakal 1117
Sum@@ 1117
Va@@ 1117
arlığı 1117
dalıdır 1117
duyarlı 1117
ilahi 1117
jik 1117
kademeli 1117
ogen@@ 1117
uzant@@ 1117
Cumhuriy@@ 1116
Ekrem 1116
elektriksel 1116
kaplar 1116
kağ@@ 1116
sistemlerinde 1116
yoksul 1116
თ@@ 1116
AR 1115
alim 1115
bağıml@@ 1115
edilemez 1115
ff 1115
ihtiyaç@@ 1115
otobüs@@ 1115
rivayet 1115
transferi 1115
Öyle 1115
Arp 1114
Manastır 1114
Palm 1114
adamlarının 1114
bitiş@@ 1114
krallığı 1114
ortalarına 1114
rest@@ 1114
zer@@ 1114
Ann 1113
Birmingham 1113
Osetya 1113
SV 1113
ais 1113
filmini 1113
idze 1113
nü@@ 1113
rod@@ 1113
seçimlere 1113
ê 1113
ölçüm 1113
Budizm 1112
Hap@@ 1112
Mahalle 1112
Robinson 1112
geliştirmiştir 1112
kalesini 1112
mezhe@@ 1112
peynir 1112
tanım 1112
çalışanı 1112
çalışırlar 1112
ülkelerine 1112
İdil 1112
1828 1111
Buradan 1111
Güven@@ 1111
Kırıkkale 1111
Lloyd 1111
Vit@@ 1111
alya 1111
aşın@@ 1111
konak@@ 1111
köğren@@ 1111
nehrin 1111
sürücü 1111
yürütmektedir 1111
çağın 1111
Albümdeki 1110
Anlaş@@ 1110
Bodrum 1110
Nevşehir 1110
Oktay 1110
ailede 1110
dışından 1110
servisi 1110
tersi 1110
yaşant@@ 1110
çözümü 1110
öncel@@ 1110
Adalı 1109
Danny 1109
Open 1109
Sergey 1109
anlatılmaktadır 1109
estr@@ 1109
milyon@@ 1109
sözcüğ@@ 1109
tutuldu 1109
35@@ 1108
Karar@@ 1108
alışkan@@ 1108
aracılığı 1108
araştırmaya 1108
döngüsü 1108
eng 1108
hiyerarş@@ 1108
kimliğini 1108
kültüründe 1108
larındandır 1108
merkezinden 1108
üssü 1108
CA@@ 1107
amları 1107
festival 1107
gay 1107
kapsay@@ 1107
katkıları 1107
kaçmak 1107
Güçlü 1106
Kost@@ 1106
düny@@ 1106
keşfetti 1106
konumlandır@@ 1106
maca 1106
muhafazakâr 1106
sesleri 1106
turnuvası 1106
yansıtan 1106
başkentidir 1105
eth 1105
fikirleri 1105
gökad@@ 1105
hanedir 1105
lerince 1105
plara 1105
tanıyan 1105
ürlük 1105
Şişli 1105
Gold 1104
büyüklük@@ 1104
edince 1104
harita 1104
kenin 1104
müzesi 1104
unvanına 1104
Dalı 1103
Gro@@ 1103
Höyük 1103
Muhafız 1103
dediği 1103
denklemi 1103
dul 1103
dy 1103
getirilmesi 1103
izlenen 1103
metli 1103
omu 1103
uvar 1103
yapımına 1103
yenilgi 1103
Şarkısı 1103
Fire 1102
Geçmişi 1102
geçirdiler 1102
ihracat 1102
okullar 1102
çeşme 1102
Atlético 1101
Bon 1101
Bruno 1101
Göktürk 1101
Men 1101
Ortaçağ 1101
Stuttgart 1101
ary 1101
esinlen@@ 1101
iştir@@ 1101
komşudur 1101
merkezî 1101
pus@@ 1101
sevgi 1101
sic@@ 1101
telefonu 1101
ucak 1101
yoldan 1101
ë@@ 1101
Bod@@ 1100
Global 1100
Rodos 1100
Sports 1100
air@@ 1100
que 1100
talan 1100
30.000 1099
Düny@@ 1099
Kimyasal 1099
ille 1099
lıktır 1099
sendrom@@ 1099
taşınan 1099
teklifini 1099
Başkent 1098
Kentucky 1098
Vatikan 1098
Yaprak@@ 1098
açlık 1098
bozun@@ 1098
mab@@ 1098
olaylara 1098
pasaport 1098
sayıdaki 1098
sektörü 1098
teşhis 1098
örgütlen@@ 1098
İy@@ 1098
Kari@@ 1097
Mısır@@ 1097
Sonradan 1097
arkasındaki 1097
görünce 1097
görünümü 1097
isimlerin 1097
kaps@@ 1097
malarla 1097
mamak 1097
milletvekil@@ 1097
more 1097
yapılan@@ 1097
ıh 1097
ılım 1097
Yarışmanın 1096
dönmüş 1096
heyet@@ 1096
kışın 1096
lenin 1096
madalyanın 1096
manzar@@ 1096
tören 1096
yazıt@@ 1096
yüzünün 1096
çifti 1096
Danış@@ 1095
Dum@@ 1095
Laz 1095
Osaka 1095
Vegas 1095
acağından 1095
aranj@@ 1095
ağlar 1095
bölünmüş 1095
düğün 1095
menlerin 1095
olanağı 1095
öğretmenliği 1095
Büyükel@@ 1094
Parker 1094
aralığı 1094
ensi@@ 1094
ern@@ 1094
eth@@ 1094
house 1094
lisansını 1094
mevki@@ 1094
tarzını 1094
tiyor 1094
vik 1094
öm@@ 1094
Hükümet 1093
Koca 1093
Neolitik 1093
Orton 1093
Safevi 1093
bulmaya 1093
editörü 1093
erkeklerde 1093
esnek 1093
inancı 1093
karakteriyle 1093
mermi 1093
onay 1093
Il 1092
Kanuni 1092
Muhareb@@ 1092
Servisi 1092
aray 1092
askıya 1092
düştüğü 1092
etmekteydi 1092
hizmetine 1092
itin 1092
içki 1092
ris 1092
yanlışlıkla 1092
yanıt@@ 1092
Angola 1091
Kong@@ 1091
Plan 1091
alet@@ 1091
amet 1091
belgeler 1091
hafıza 1091
ilişkisini 1091
kelimenin 1091
personeli 1091
rolleri 1091
sürdürdüğü 1091
sürtün@@ 1091
urun 1091
yasaklandı 1091
zik@@ 1091
örgütün 1091
ıh@@ 1091
26.@@ 1090
AV@@ 1090
Karanlık 1090
basketbol@@ 1090
bulunduran 1090
bölgelerin 1090
diklerinde 1090
gayri 1090
geleceği 1090
hareketine 1090
ilaçlar 1090
kaptanı 1090
lanmaya 1090
nova 1090
raz@@ 1090
ska 1090
vermişti 1090
Çiçek 1090
Fas@@ 1089
ace 1089
anlatıyor 1089
basınc@@ 1089
galer@@ 1089
ilkesi 1089
kullanımının 1089
lılığı 1089
memeli 1089
paketi 1089
seti 1089
slogan@@ 1089
yönetmenliğinde 1089
çalışıyordu 1089
Coca 1088
karşıt 1088
mezunu 1088
nihayetinde 1088
oa 1088
sanatçıları 1088
toplumda 1088
vektör 1088
yazarlık 1088
yetki 1088
ılırken 1088
Başta 1087
Der 1087
Usta 1087
ameliyat 1087
anayasal 1087
format@@ 1087
ithal 1087
müs@@ 1087
olana 1087
sar 1087
takımlarının 1087
çağırdı 1087
Triple 1086
bahsedilen 1086
dedi@@ 1086
eserinin 1086
kaynakların 1086
lag@@ 1086
DS 1085
Dakota 1085
avı 1085
dönmek 1085
garip 1085
mese 1085
oluştu 1085
yanından 1085
yerleşme 1085
çıların 1085
İstasyon 1085
Şev@@ 1085
Hekim@@ 1084
deh@@ 1084
kayg@@ 1084
kaçar 1084
koltuğ@@ 1084
kong@@ 1084
müşteri 1084
ric@@ 1084
seferleri 1084
silahları 1084
yüksekliğinde 1084
ılıman 1084
1.0@@ 1083
3,5 1083
Adil 1083
Doğr@@ 1083
Reş@@ 1083
andıktan 1083
bilgiyi 1083
binin 1083
harap 1083
oluyordu 1083
sütun 1083
sınıfının 1083
tanımlanabilir 1083
′ 1083
Konak 1082
Zo@@ 1082
alc@@ 1082
bilgilere 1082
depos@@ 1082
komed@@ 1082
paz@@ 1082
ush@@ 1082
İşler 1082
Osmanlıca 1081
Ron 1081
Texas 1081
Yem@@ 1081
Yur@@ 1081
bilgilendir@@ 1081
düşüncesi 1081
hekim@@ 1081
lat 1081
masaüstü 1081
mol@@ 1081
müziklerini 1081
rey 1081
savunur 1081
Öğren@@ 1081
çek 1081
ığıyla 1081
Java 1080
bot 1080
dum@@ 1080
havuz@@ 1080
koyduğu 1080
led@@ 1080
lıklarının 1080
temsilci 1080
uti 1080
yazın 1080
~ 1080
şar@@ 1080
Institute 1079
Kak@@ 1079
Konfederasyonu 1079
Space 1079
cinsiyet@@ 1079
hareketle 1079
kesil@@ 1079
olabilmektedir 1079
siyasete 1079
söylenmektedir 1079
tedavisinde 1079
tütün 1079
yas 1079
yüzeye 1079
S.@@ 1078
System 1078
USB 1078
arkasından 1078
biber 1078
iletişim@@ 1078
luktan 1078
merkeze 1078
pamuk 1078
paralı 1078
çabuk 1078
çekilmek 1078
çekirdek@@ 1078
çökel@@ 1078
Balkan@@ 1077
Francesco 1077
Kurtlar 1077
akat@@ 1077
aks 1077
isten 1077
minimum 1077
sağlandı 1077
takımından 1077
verirken 1077
çarptır@@ 1077
37@@ 1076
AB@@ 1076
Alabama 1076
Long@@ 1076
Mağarası 1076
Protest@@ 1076
Rod@@ 1076
eserde 1076
spesifik 1076
vekili 1076
üretimini 1076
2.5 1075
Dec@@ 1075
Hat 1075
Type 1075
aria 1075
bildirir 1075
ire@@ 1075
kanunu 1075
lamıştı 1075
soluk 1075
suyla 1075
yakındır 1075
yerleştirildi 1075
ödüllü 1075
ʿ@@ 1075
Grant 1074
Maryland 1074
Mini 1074
dönmesi 1074
gus@@ 1074
mid@@ 1074
oğlan 1074
parçanın 1074
Nicolas 1073
birimidir 1073
gerisinde 1073
istasyonları 1073
isyanc@@ 1073
sorumluluk 1073
tanımlamıştır 1073
yazarların 1073
efsane 1072
kuşağı 1072
ledil@@ 1072
lezz@@ 1072
muhafız@@ 1072
och@@ 1072
Duv@@ 1071
Graham 1071
Solo 1071
dul@@ 1071
haberler 1071
kabine 1071
mektubu 1071
oyuncularından 1071
sınıflandırma 1071
önderliğindeki 1071
Anton 1070
Cenazesi 1070
Just 1070
Sebastian 1070
Yakası 1070
Yarış 1070
asları 1070
basılmıştır 1070
elt@@ 1070
hekim 1070
romanın 1070
tezi 1070
Edge 1069
Nürnberg 1069
akınt@@ 1069
başlarda 1069
duğ@@ 1069
geb@@ 1069
kaldırmak 1069
osman@@ 1069
parçacıklar 1069
pli 1069
rim@@ 1069
riyordu 1069
Diren@@ 1068
Serinin 1068
Tapınak 1068
diktatör@@ 1068
etmenin 1068
ihtil@@ 1068
mobil@@ 1068
ondo 1068
ortada 1068
tartışmalara 1068
törenle 1068
60@@ 1067
Ala@@ 1067
Herbert 1067
Kop@@ 1067
albümdeki 1067
asta 1067
binden 1067
gelişmekte 1067
gitmeye 1067
hayv@@ 1067
kurt@@ 1067
kurulmasını 1067
rütbesi 1067
tazminat 1067
tutuklu 1067
çinin 1067
Şampiyonasında 1067
Academy 1066
Adriyatik 1066
Planı 1066
Zira 1066
esel 1066
kazasına 1066
olmalarına 1066
seslendirilmiştir 1066
strateji 1066
vr@@ 1066
ılarıdır 1066
AN 1065
ath 1065
devasa 1065
entegras@@ 1065
gey 1065
izde 1065
tahri@@ 1065
şehirdeki 1065
135 1064
Azerice 1064
Dah@@ 1064
Faik 1064
Ju@@ 1064
ksal 1064
makaleler 1064
mineral 1064
serileri 1064
tamamlanmış 1064
varlığına 1064
yağmur@@ 1064
yığ@@ 1064
ıcıların 1064
AFC 1063
Ball@@ 1063
Clara 1063
Rey@@ 1063
Sof@@ 1063
TH@@ 1063
Toprak@@ 1063
Yab@@ 1063
başlanmış 1063
eleştirmeni 1063
iyon 1063
kesinti@@ 1063
nakliye 1063
rejim 1063
salon 1063
vektör@@ 1063
versiyonunu 1063
öt@@ 1063
Georg 1062
etkisinin 1062
gazetenin 1062
kaçmaya 1062
mide 1062
stüdyol@@ 1062
yıllardır 1062
Baron 1061
New@@ 1061
Truva 1061
demli 1061
etidir 1061
işçiler 1061
Altyapı 1060
Artistik 1060
Ortak@@ 1060
Tör@@ 1060
adanmış 1060
alanlara 1060
devrel@@ 1060
eksiyon@@ 1060
nem@@ 1060
sürecine 1060
tesi 1060
varan 1060
yayılmıştır 1060
ürünün 1060
şekilleri 1060
Burg@@ 1059
Fred 1059
X. 1059
cunun 1059
hakem@@ 1059
katılımını 1059
listeye 1059
loji 1059
olgul@@ 1059
pot@@ 1059
sürpriz 1059
çatısı 1059
Madde 1058
Melek 1058
Shane 1058
Stewart 1058
anlaşılır 1058
ason 1058
bitkilerin 1058
büyükelçi 1058
farkına 1058
içeriyor 1058
karşılay@@ 1058
sif 1058
verilerin 1058
öp@@ 1058
üni@@ 1058
Akçak@@ 1057
Ork@@ 1057
aliy@@ 1057
aşağıl@@ 1057
davul 1057
edilmesinden 1057
ellen@@ 1057
hareketler 1057
icidir 1057
lazer 1057
lerse 1057
makineleri 1057
prosedür@@ 1057
vaftiz 1057
yarısını 1057
şartlar 1057
şen 1057
Denizlispor 1056
Fiat 1056
Nok@@ 1056
dün@@ 1056
işlerine 1056
konuyu 1056
ron@@ 1056
tabaka 1056
tabanı 1056
temalı 1056
şen@@ 1056
Gençliği 1055
Harold 1055
Nin@@ 1055
Saldırı 1055
ceh@@ 1055
inceye 1055
kapasitesine 1055
low 1055
sabahı 1055
tron@@ 1055
yapısında 1055
çıktığında 1055
özür 1055
Big@@ 1054
Iowa 1054
Marka 1054
Yönet@@ 1054
ekibinin 1054
evrimsel 1054
gündüz 1054
kabl@@ 1054
medres@@ 1054
mesleki 1054
vücudun 1054
İnce 1054
Endeksi 1053
Monte 1053
UTC 1053
Yamaç 1053
bileşik 1053
boz 1053
formülü 1053
genişleme 1053
him@@ 1053
ihtimali 1053
ingen 1053
int@@ 1053
itme 1053
okyan@@ 1053
reh@@ 1053
sef@@ 1053
sürec@@ 1053
yarı@@ 1053
în 1053
Araştırmalar 1052
Arg@@ 1052
Bana 1052
End 1052
Magazine 1052
didae 1052
galaks@@ 1052
istatisti@@ 1052
ligden 1052
övgü@@ 1052
şüpheli 1052
750 1051
Dragon 1051
Ec@@ 1051
Laura 1051
daş 1051
karara 1051
sonuçlarını 1051
sırayla 1051
zinc@@ 1051
Çarş@@ 1051
çalmaya 1051
İtalyan@@ 1051
Görevleri 1050
Mexico 1050
Neil 1050
Sevilla 1050
aralarındaki 1050
fizi@@ 1050
kaynaklardan 1050
memur 1050
ny 1050
part@@ 1050
taşıyıcı 1050
tev@@ 1050
yasının 1050
án 1050
Kud@@ 1049
Master 1049
akımının 1049
eka 1049
ellik 1049
gitaristi 1049
https 1049
kek@@ 1049
kıran 1049
malzemesi 1049
mutfak 1049
sonbaharında 1049
tarafın 1049
ömürlü 1049
ılardır 1049
Gag@@ 1048
Tunc@@ 1048
Vakıf@@ 1048
bire@@ 1048
desteklemektedir 1048
dinin 1048
istatistiksel 1048
patlayıcı 1048
teh@@ 1048
uzanmaktadır 1048
Andreas 1047
Bulvarı 1047
Hok@@ 1047
Net@@ 1047
Oregon 1047
Pri@@ 1047
Venüs 1047
Vis@@ 1047
ess 1047
güncellem@@ 1047
illerin 1047
işgaline 1047
korumaya 1047
tur.@@ 1047
zer 1047
Aristoteles 1046
Başarılı 1046
Evrensel 1046
Iron 1046
Vide@@ 1046
akar 1046
aktivist 1046
aşağıya 1046
finin 1046
imm@@ 1046
ipu@@ 1046
kendiliğinden 1046
kuruluşunun 1046
ocu 1046
tler 1046
tutarlı 1046
vili 1046
ıtım 1046
α 1046
Inter@@ 1045
Komedi 1045
asti@@ 1045
fay@@ 1045
uçan 1045
veriyor 1045
worth 1045
Önceleri 1045
şöval@@ 1045
Diyar@@ 1044
Luk@@ 1044
Memlû@@ 1044
başlamasıyla 1044
dünyaca 1044
gede 1044
halife 1044
işten 1044
üstünlük 1044
103 1043
Düşük 1043
IC 1043
alları 1043
ayrılmak 1043
enter@@ 1043
etap 1043
menaj@@ 1043
nh@@ 1043
omurg@@ 1043
oriye 1043
oshi 1043
ustası 1043
Afgan 1042
Fame 1042
Kırgız 1042
astronom@@ 1042
biçimleri 1042
eylemi 1042
gerçeği 1042
hayatın 1042
kayalık 1042
oluşmaktaydı 1042
oynad@@ 1042
topladığı 1042
uyan 1042
uyguladığı 1042
yeten@@ 1042
II.@@ 1041
Koordin@@ 1041
Leonardo 1041
Maurice 1041
Morris 1041
Süper@@ 1041
Tarık 1041
Thymus 1041
aer@@ 1041
gözle 1041
hiç@@ 1041
kariyer@@ 1041
oluşturulması 1041
org@@ 1041
yönetmiştir 1041
Çiz@@ 1041
ó 1041
1856 1040
Abraham 1040
Pink 1040
Raz@@ 1040
binaları 1040
biçim 1040
femin@@ 1040
haç 1040
hektarlık 1040
ih 1040
kanalları 1040
kos 1040
lamb@@ 1040
onlarca 1040
piskoposu 1040
tarafındaki 1040
vakıf 1040
üyor@@ 1040
İncel@@ 1040
Adam@@ 1039
Bilge 1039
Dergi 1039
MB 1039
Shi@@ 1039
Yener 1039
bkz 1039
elemelerinde 1039
enlere 1039
gruplardan 1039
pasaport@@ 1039
tutun@@ 1039
ulaşımı 1039
usulü 1039
çlar 1039
öğrencilere 1039
1,1 1038
Galiçya 1038
Hus@@ 1038
Paraguay 1038
Salvador 1038
aht 1038
bulunmaz 1038
evcil 1038
geçirmeye 1038
neş@@ 1038
oe 1038
pas 1038
sahaya 1038
sem 1038
yapılmasına 1038
yeteneğini 1038
ıştır.@@ 1038
Day@@ 1037
Hon@@ 1037
Hristiyanlar 1037
istisn@@ 1037
karakterinin 1037
lor@@ 1037
miyor 1037
poz@@ 1037
yerlerinden 1037
Aston 1036
Ray@@ 1036
Ural 1036
alla 1036
düzenlemesi 1036
ekibin 1036
iklere 1036
korunan 1036
ock 1036
peş@@ 1036
zeka 1036
çekmeye 1036
çocuklarının 1036
Bet@@ 1035
Hotel 1035
Rocky 1035
atür@@ 1035
düzenlenir 1035
edebiyatında 1035
eşdeğer 1035
kazanması 1035
nük@@ 1035
resimler 1035
tanışır 1035
Art@@ 1034
Bus@@ 1034
Güncel 1034
Justinianus 1034
Karaman@@ 1034
Panama 1034
Stein@@ 1034
Warren 1034
aşları 1034
cek@@ 1034
eledi 1034
girişimleri 1034
ideoloj@@ 1034
ojik 1034
uyku 1034
çil@@ 1034
öldürülür 1034
Bahçesi 1033
Galerisi 1033
Güven 1033
Punk 1033
Sic@@ 1033
atas@@ 1033
bası 1033
dip 1033
götürür 1033
ihmal 1033
imsi 1033
kalkınma 1033
onayladı 1033
Özdemir 1033
çuk@@ 1033
1784 1032
Kullanım 1032
Kıbrıslı 1032
Lozan 1032
Parlament@@ 1032
arayüzü 1032
bütçe 1032
cor@@ 1032
garanti 1032
olojiye 1032
tüz@@ 1032
yardım@@ 1032
İb@@ 1032
AG@@ 1031
anoğlu 1031
bilgisayarlar 1031
harika 1031
hül@@ 1031
okulları 1031
olgun@@ 1031
yetmezliği 1031
zorladı 1031
öğüt@@ 1031
Emirlikleri 1030
Om@@ 1030
aramaya 1030
asim@@ 1030
bitti 1030
bölgelerini 1030
dat@@ 1030
dillerde 1030
işletilen 1030
kayıplar 1030
kurallarına 1030
oth@@ 1030
tor 1030
yerleştirilmiş 1030
BMW 1029
CBS 1029
Kötü 1029
aur@@ 1029
dağıldı 1029
dedek@@ 1029
dekor@@ 1029
edilirken 1029
faktör 1029
formatında 1029
gerilim@@ 1029
iat 1029
kültürünü 1029
mevz@@ 1029
motorları 1029
pasaportu 1029
pros@@ 1029
Çar 1029
çekerek 1029
çiftin 1029
Cook 1028
NBC 1028
analitik 1028
anov 1028
hanesi 1028
inski 1028
kadına 1028
kayıtlara 1028
kemer@@ 1028
sahneleri 1028
soyg@@ 1028
tos 1028
zı 1028
çıktılar 1028
Geliştir@@ 1027
Uyg@@ 1027
Yarışmada 1027
amo@@ 1027
başını 1027
hatalı 1027
istenilen 1027
kuşak 1027
ledildi 1027
makamı 1027
teorisinin 1027
topluluklar 1027
yapabil@@ 1027
çalışmalarından 1027
Alay 1026
Kraliçesi 1026
emper@@ 1026
itz 1026
kali@@ 1026
kulüpler@@ 1026
kurutul@@ 1026
köpeği 1026
malarıyla 1026
omor@@ 1026
organları 1026
perspek@@ 1026
sırası 1026
çekimsel 1026
Bergama 1025
Glenn 1025
Jar@@ 1025
eşinin 1025
gerçekleştirmek 1025
girmeye 1025
oyunlarda 1025
parkı 1025
tiz 1025
uhan 1025
yaşlarında 1025
yıllarını 1025
BK 1024
Kamil 1024
Sv@@ 1024
Tekn@@ 1024
arius 1024
attaki 1024
kült 1024
zorluk@@ 1024
ა 1024
Giz@@ 1023
haliyle 1023
karaciğer 1023
kararlar 1023
konut@@ 1023
yürüttüğü 1023
But@@ 1022
Kayıt 1022
Toh@@ 1022
Türbesi 1022
Zaman@@ 1022
afet 1022
ateşe 1022
attılar 1022
aşlar 1022
etkinliğinde 1022
genişletil@@ 1022
kavramının 1022
kişiliği 1022
kongre 1022
köğretim 1022
madaly@@ 1022
matematik@@ 1022
oyunlu 1022
Nilüfer 1021
hesaplama 1021
hızını 1021
içecek 1021
kuvvetlerin 1021
okut@@ 1021
olmanın 1021
omi 1021
yabani 1021
ance 1020
araştırması 1020
gerçekleştiği 1020
komplik@@ 1020
mışlar 1020
okuyan 1020
oro 1020
sipar@@ 1020
ığıdır 1020
30.@@ 1019
Baden 1019
Carey 1019
Press 1019
attır 1019
bulunurken 1019
gündem@@ 1019
kubbe 1019
mahalle@@ 1019
sonuçlan@@ 1019
sson 1019
sürümleri 1019
sınırlarında 1019
ölçü 1019
Şube 1019
Baby 1018
Yahudilere 1018
Yücel 1018
anlattı 1018
ble 1018
engeller 1018
kayıtlar 1018
koalis@@ 1018
kütles@@ 1018
röportaj 1018
sınırlıdır 1018
çıkarılması 1018
Dawn 1017
Fak@@ 1017
Hizmet@@ 1017
Science 1017
aslan 1017
eliyle 1017
herkese 1017
hipotez@@ 1017
kazasının 1017
redde@@ 1017
sınırını 1017
taşlar 1017
çalıştığını 1017
ünit@@ 1017
İlyas 1017
Biliş@@ 1016
Brothers 1016
Dört@@ 1016
Mehdi 1016
Melik@@ 1016
Nus@@ 1016
Teşkil@@ 1016
Ulus 1016
Umut 1016
Yum@@ 1016
anet 1016
darı 1016
kastedilmiş 1016
kültürüne 1016
115 1015
Ayhan 1015
Eyüp 1015
Gana 1015
Hart 1015
birimler 1015
madalyası 1015
maçının 1015
otop@@ 1015
projeler 1015
sistemlerin 1015
temelleri 1015
1859 1014
Lid@@ 1014
Riv@@ 1014
SM 1014
Sınıf 1014
adeta 1014
belirgin@@ 1014
detay@@ 1014
değil@@ 1014
ediliyordu 1014
etkilendi 1014
fid@@ 1014
futbolcusu 1014
ipi 1014
kasabanın 1014
kop 1014
numarada 1014
soğutma 1014
უ@@ 1014
Halit 1013
Komite 1013
açıklanan 1013
böcek@@ 1013
ekrana 1013
gözü 1013
Pokémon 1012
asil 1012
bitirerek 1012
dereceye 1012
evlili@@ 1012
kargo 1012
kopy@@ 1012
rah@@ 1012
tra@@ 1012
öncelikli 1012
Dig@@ 1011
Gök 1011
avar@@ 1011
familyadır 1011
kurbağ@@ 1011
parçacıkların 1011
seride 1011
side 1011
yayınlanmaktadır 1011
çözel@@ 1011
Ağaç@@ 1010
bale 1010
figür 1010
hediy@@ 1010
istasyonudur 1010
lip@@ 1010
polisi 1010
profes@@ 1010
AIDS 1009
Albümden 1009
Elektr@@ 1009
Gaziantepspor 1009
Liste 1009
dağları 1009
latma 1009
tarafa 1009
vakit 1009
îyye 1009
özgür@@ 1009
Sınıflandırma 1008
ağrı 1008
ink@@ 1008
işlerinde 1008
jet@@ 1008
leşir 1008
olaya 1008
potansiyeli 1008
savaşmak 1008
sertifika 1008
tüsü 1008
uya 1008
yatak@@ 1008
öldükten 1008
ışık@@ 1008
Güng@@ 1007
Hiçbir 1007
anlılar 1007
bırakıl@@ 1007
görüşünü 1007
kaybeder 1007
kurulmasıyla 1007
mü 1007
prodük@@ 1007
seven 1007
sıfat@@ 1007
tamamlamış 1007
turuncu 1007
zat 1007
ıyorsa 1007
Elena 1006
Kron@@ 1006
Two 1006
adalar 1006
elesi 1006
eteklerinde 1006
etkileyici 1006
kablo 1006
memişti 1006
ormanları 1006
Güre@@ 1005
Haber@@ 1005
Holmes 1005
Lehistan 1005
Urfa 1005
aze 1005
bus 1005
diken@@ 1005
dizilerinde 1005
esk 1005
gazi 1005
jin@@ 1005
kaldırdı 1005
kazanırken 1005
korunmuş 1005
kut 1005
kökenlidir 1005
moza@@ 1005
ney@@ 1005
odasında 1005
uzunluğundadır 1005
yarısından 1005
yasalar 1005
örgü@@ 1005
Gücü 1004
Habsburg 1004
N. 1004
Zen@@ 1004
dağlar 1004
ep 1004
filo 1004
görevlileri 1004
heyeti 1004
insana 1004
salgın@@ 1004
seçeneği 1004
Alanya 1003
Da 1003
Gay@@ 1003
Stadı 1003
bulunmam@@ 1003
cası 1003
diğimiz 1003
eliğin 1003
kullanmayı 1003
mülteci 1003
prof@@ 1003
çlı 1003
İlköğretim 1003
Krist@@ 1002
Slayer 1002
Stüd@@ 1002
antrenörü 1002
arma 1002
azalır 1002
elma 1002
kâr@@ 1002
leh@@ 1002
muhas@@ 1002
ortaklaşa 1002
çerçeve 1002
üretime 1002
Č@@ 1002
ğimiz 1002
Johannes 1001
Koh@@ 1001
akç@@ 1001
ante@@ 1001
antrenör@@ 1001
bileşenleri 1001
birliklerine 1001
dinlen@@ 1001
etkis@@ 1001
ifa 1001
isimle 1001
liğ@@ 1001
maymun@@ 1001
ment 1001
temsil@@ 1001
vurgu 1001
özelliklerinden 1001
ø@@ 1001
ă@@ 1001
1.2 1000
Eli@@ 1000
Gari@@ 1000
atıcı 1000
coş@@ 1000
[...]
