. 2559821
، 2410930
في 2337968
من 1304433
على 616006
( 584198
) 583747
إلى 468975
&quot; 413254
أن 289268
عام 284211
هو 265342
وال@@ 236364
التي 236146
مع 229245
: 224661
ب@@ 218822
عن 212902
أو 212144
لل@@ 201678
ل@@ 193478
و 182546
كان 175305
ما 142638
هي 140103
المتحدة 138840
بعد 135242
« 131089
» 131019
بين 129416
الذي 126435
ذلك 121761
هذه 120693
ك@@ 118115
هذا 110736
تم 109276
- 107396
و@@ 107269
كانت 104084
حيث 104030
لا 102750
ي@@ 99614
ولد 98382
@-@ 98351
وقد 93001
خلال 92591
قبل 91970
الولايات 90626
كما 86187
بن 85191
ف@@ 85129
وفي 80476
سنة 80387
أ@@ 77121
وي@@ 77119
وت@@ 75880
قد 73394
مثل 72207
ها 71704
ه 71589
وهو 71191
لم 70241
غير 69112
عدد 69009
الم@@ 68124
/ 68064
حتى 67893
كل 66547
له 65258
وم@@ 63326
كرة 62208
ثم 61887
المملكة 59152
الت@@ 58665
بعض 57849
أمريكي 57245
يمكن 57077
لاعب 56973
ت@@ 56844
سي@@ 56669
ين 56622
ه@@ 55648
ان 55643
أكثر 55566
هم 55099
وهي 55045
م 54252
لي@@ 54204
– 53083
والم@@ 53028
أنه 52661
وأ@@ 52512
بشكل 52470
% 52011
ًا 50531
غ@@ 50224
أي 50166
في@@ 49010
وب@@ 48568
بي@@ 48216
دي 47931
مدينة 47743
ي 47576
؛ 47444
إ@@ 47386
وكان 46802
الأ@@ 46666
ح@@ 46397
قدم 46244
عبد 45978
ون 45933
, 45793
العديد 45265
يتم 45227
لها 44708
ية 44002
بها 43791
أخرى 43191
ته 42798
والتي 42286
ش@@ 42172
ز@@ 41825
القرن 41674
د@@ 41053
ومن 40741
أول 40635
1 40124
الأول 39975
فيها 39949
ن@@ 39868
مارس 39836
عشر 39743
ك 39650
نادي 39551
ولكن 39537
ق@@ 39374
ج@@ 39276
عندما 39220
بسبب 38891
ع@@ 38832
هناك 38794
مجلس 38524
العالم 38393
حسب 38378
الس@@ 38297
محمد 38177
الذين 38155
دي@@ 37975
تحت 37894
منذ 37786
يكون 37502
الأولى 37130
ول@@ 37095
منها 36905
وتوفي 36827
مركز 36775
العام 36734
الح@@ 36685
وس@@ 36647
عند 36496
ري@@ 36435
به 36407
ون@@ 36321
الك@@ 36273
الع@@ 36215
ى 35855
أيضًا 35844
نسمة 35395
لا@@ 35341
الله 35328
تها 35297
بي 35081
ب 35057
ين@@ 34919
مي@@ 34663
لعب 34659
جميع 34599
أحد 34569
2004 34505
ان@@ 34327
رو@@ 34306
س@@ 34251
وا@@ 34064
ال@@ 33761
ور@@ 33521
لي 33511
2 33500
حول 33466
3 33387
جامعة 33349
الحرب 33332
سي 33211
بال@@ 33153
الأمريكية 33047
ر@@ 32862
ص@@ 32741
ست@@ 32673
مايو 32443
يا 32364
ق 32186
مرة 32154
ث@@ 31940
الج@@ 31783
يناير 31752
ط@@ 31727
الق@@ 31678
منطقة 31609
تكون 31581
فبراير 31505
الش@@ 31417
ا 31150
تلك 31060
را@@ 30850
ت 30845
ة 30844
أبريل 30796
مجموعة 30680
أكتوبر 30592
علي 29954
&#93; 29939
الثاني 29904
فقد 29852
إلا 29813
&#91; 29702
بـ 29580
الب@@ 29449
يونيو 29396
العمل 29327
يوليو 29325
ات 29317
ديسمبر 29297
سبتمبر 29050
يقع 29037
لكرة 28939
وك@@ 28928
تي@@ 28820
مما 28746
لو@@ 28652
سياسي 28621
وق@@ 28539
است@@ 28471
شركة 28411
الن@@ 28386
عضو 28359
أنها 28295
ر 28291
خ@@ 28186
تي 28123
س 28087
دون 28069
فيه 28025
نوفمبر 28014
القدم 28011
فإن 27917
العربية 27890
اً 27885
4 27820
عليه 27606
إن 27521
أغسطس 27518
م@@ 27406
ولاية 27328
ني@@ 27310
ضد 27253
ير 27101
وا 27062
طريق 26989
رة 26966
ار@@ 26831
ل 26748
فقط 26744
الأخرى 26680
المدينة 26674
الف@@ 26621
الوقت 26471
يوم 26446
تش@@ 26411
د 26242
عدة 26215
ّ@@ 26184
مت@@ 26009
ولا 26001
ن 25945
10 25839
أما 25812
كي@@ 25801
5 25762
إحدى 25709
الإ@@ 25675
ذات 25527
بدأ 25489
مة 25433
باسم 25413
بر@@ 25358
ض@@ 25158
6 25113
بما 25092
الص@@ 25001
يد 24961
إذا 24821
الحزب 24795
إي@@ 24768
أكبر 24684
استخدام 24635
يُ@@ 24496
المنطقة 24370
دة 24300
عمل 24299
وكانت 24283
عليها 24270
وذلك 24224
لة 24174
ع 24069
يات 23955
عبر 23892
ج 23883
لكن 23862
والذي 23860
كبير 23837
الد@@ 23829
وج@@ 23755
أيضا 23741
من@@ 23738
ال 23731
حوالي 23599
وح@@ 23549
ف 23514
نظام 23437
حالة 23349
الرسمي 23333
الثانية 23231
رئيس 23125
مو@@ 23082
اني 22971
تح@@ 22959
تُ@@ 22805
الحكومة 22802
قام 22796
جي@@ 22777
هي@@ 22769
بو@@ 22757
حين 22621
واحد 22608
وف@@ 22580
بالإضافة 22467
جون 22451
مواليد 22425
الرغم 22414
20 22389
بة 22347
ز 22344
ونادي 22282
علم 22190
نفس 22190
وإ@@ 22149
اسم 21999
تر@@ 21916
عملية 21913
ضمن 21888
تين 21790
العامة 21773
15 21725
مي 21635
يقدر 21560
مقاطعة 21536
الر@@ 21509
عة 21467
وجود 21424
8 21411
الوطني 21364
12 21332
7 21277
يل 21275
أثناء 21274
أن@@ 21207
وع@@ 21160
; 21126
يت@@ 21090
الغ@@ 21079
آخر 21057
المغربية 20988
وص@@ 20913
للسكان 20888
با@@ 20798
تقع 20792
تضم 20728
بينما 20657
فترة 20574
شي@@ 20555
ينتمي 20526
يين 20456
داخل 20437
مح@@ 20436
الدولة 20435
الخ@@ 20417
قة 20405
العالمية 20333
يه 20288
تاريخ 20192
لسنة 20113
شارك 20090
انتخب 20079
اب@@ 20078
واحدة 20029
جهة 20018
الاتحاد 20010
فيلم 20006
19 19830
كبيرة 19806
اله@@ 19777
ام@@ 19751
دا 19713
اليوم 19704
ري 19696
مر@@ 19696
نسبة 19627
ما@@ 19610
الط@@ 19593
نحو 19575
نشط 19521
أجل 19514
ات@@ 19508
بأن 19457
ومع 19402
الملك 19399
ور 19336
والأ@@ 19296
إقليم 19252
الخاصة 19201
11 19195
الإحصاء 19188
ار 19175
جنوب 19048
لت@@ 18997
التعليم 18926
30 18925
9 18866
مُ@@ 18813
2010 18807
هما 18751
ش 18653
وقت 18647
بن@@ 18624
بار@@ 18473
نوع 18436
مان 18431
رين 18399
أصبح 18362
14 18315
سنوات 18296
16 18278
درجة 18272
.@@ 18269
والسكنى 18262
ذ@@ 18231
الفترة 18177
مع@@ 18165
ابن 18130
زي@@ 18102
ولدت 18089
هـ 18084
حزبياً 18061
المح@@ 18019
الي@@ 18019
الوطنية 18015
موسم 17970
18 17969
بل@@ 17891
ير@@ 17887
الحياة 17855
فة 17855
اي@@ 17853
اد@@ 17772
2013 17732
تق@@ 17731
معظم 17602
قال 17583
مار@@ 17575
الجيش 17540
25 17521
ح 17521
مصر 17506
فيما 17478
17 17454
ول 17394
لات 17352
اس@@ 17348
ود@@ 17228
نهاية 17225
آ@@ 17204
وه@@ 17172
13 17139
المت@@ 17139
ولم 17110
الدين 17098
يبلغ 17017
تع@@ 16987
فرنسا 16987
أبو 16938
تك@@ 16858
التاريخ 16855
تف@@ 16821
ّ 16790
رات 16789
وبعد 16783
كي 16763
&amp; 16709
منتخب 16706
مية 16696
عمر 16690
مست@@ 16665
جي 16619
آيت 16611
بريطاني 16591
الأرض 16587
2009 16576
ني 16556
مليون 16475
بالت@@ 16453
بل 16448
21 16445
غ 16440
نا 16394
دين 16380
عين 16373
2007 16341
الفيلم 16318
2008 16268
دية 16266
أحمد 16249
ام 16239
ٍ 16231
وس 16176
تن@@ 16144
أل@@ 16124
سن 16084
الز@@ 16027
رية 15968
فر@@ 15887
يجب 15884
حصل 15851
بح@@ 15848
مختلفة 15847
المُ@@ 15824
شكل 15777
حزب 15772
نا@@ 15747
الآن 15741
بدأت 15739
لية 15715
كار@@ 15687
اللغة 15617
عدم 15615
أر@@ 15592
24 15588
ثلاثة 15565
تم@@ 15563
دور 15561
سكانها 15561
2016 15520
الأمريكي 15506
بطولة 15504
المست@@ 15501
اته 15499
وعلى 15486
الثالث 15457
لعام 15447
نة 15425
يوجد 15388
اء 15367
حة 15358
مق@@ 15334
2006 15268
لمدة 15266
والإ@@ 15266
سكانه 15226
لإ@@ 15216
بت@@ 15205
إذ 15174
بري@@ 15169
ألمانيا 15152
َ@@ 15144
سك@@ 15113
الدوري 15065
توفي 15048
خاصة 15011
جديدة 14991
2011 14919
بع@@ 14894
الشيخ 14831
شمال 14800
مك@@ 14799
وي 14798
الاست@@ 14788
بجماعة 14774
لدى 14754
تا@@ 14722
23 14690
ارة 14690
إدارة 14684
22 14677
أيضاً 14670
السكان 14658
لأ@@ 14637
الدوّار 14612
لمشيخة 14597
دُوَّار 14584
وكذلك 14576
مس@@ 14567
تج@@ 14564
كأس 14530
القوات 14525
بني 14497
بناء 14477
يت 14477
الرئيس 14471
مل@@ 14471
ث 14466
أوروبا 14463
الكويكب 14451
نفسه 14388
كم 14327
مباراة 14288
اس 14284
النظام 14269
فريق 14255
وش@@ 14234
مجال 14226
وغ@@ 14219
2012 14207
منه 14185
قرية 14174
أك@@ 14140
مج@@ 14123
الأطفال 14112
أمريكية 14103
لين 14059
كتاب 14049
تهم 14042
كندا 14023
القانون 14019
وط@@ 14014
ِ@@ 13985
يك@@ 13975
الرئيسي 13950
اف@@ 13925
كلية 13925
اع@@ 13921
المناطق 13900
سبيل 13896
كتب 13867
أنواع 13850
ليس 13845
رون 13837
تو@@ 13824
أفضل 13789
البلاد 13772
الجديدة 13754
النساء 13748
وتم 13748
ط 13746
بإ@@ 13743
المع@@ 13740
بلغ 13687
أصبحت 13681
لت 13663
الشمالية 13629
قي@@ 13591
ُ@@ 13568
الل@@ 13557
مسيرته 13552
القديمة 13545
الشركة 13513
تا 13503
الدولي 13494
ده 13493
الي 13485
الدولية 13461
2000 13457
المركز 13436
غي@@ 13433
يع@@ 13399
_ 13398
عادة 13392
برنامج 13387
27 13370
سل@@ 13337
يس 13333
بات 13319
منصب 13255
برو@@ 13228
28 13219
26 13218
البحر 13173
بواسطة 13173
يًا 13156
الغربية 13151
أعمال 13150
عرض 13112
أقل 13092
2015 13088
بداية 13075
مون 13074
قائمة 13073
نيويورك 13042
وم 13025
الناس 13011
مات 12976
جانب 12972
2014 12968
العربي 12959
شخص 12953
2005 12948
عاماً 12947
سكان 12940
المن@@ 12931
َّ@@ 12931
الدول 12908
أم@@ 12873
أعلى 12866
الاسم 12857
يو 12842
يق@@ 12829
الإنسان 12816
الأعمال 12813
فاز 12810
فية 12787
ةً 12784
يست@@ 12781
الكثير 12757
لهم 12737
محافظة 12729
دولار 12706
تتبع 12662
ود 12626
الهند 12606
لو 12593
انية 12567
يلعب 12563
مش@@ 12557
واست@@ 12552
الض@@ 12527
بأ@@ 12499
الأمر 12492
مه 12482
رت 12481
مستوى 12454
المثال 12442
بد@@ 12439
حياته 12408
المجلس 12402
قانون 12346
ض 12343
لك@@ 12334
وما 12331
اد 12308
الدفاع 12307
والح@@ 12282
مص@@ 12230
الث@@ 12186
اتها 12185
الاجتماعية 12183
بر 12174
لأن 12168
إنتاج 12153
أُ@@ 12123
ّة 12105
دولة 12099
اك@@ 12059
سلسلة 12029
للأ@@ 11990
المجتمع 11986
وهذا 11972
عي 11971
يكن 11963
29 11959
تص@@ 11942
الطاقة 11939
باستخدام 11939
مدرسة 11924
بالم@@ 11914
دو 11912
-@@ 11910
المياه 11892
سب@@ 11878
الرئيسية 11876
وضع 11869
إعادة 11866
برا@@ 11857
مد@@ 11857
العشرين 11848
فوق 11836
حركة 11821
نتيجة 11789
موقع 11781
يون 11779
عالم 11756
سون 11752
دائرة 11738
حي@@ 11701
العسكرية 11684
وز@@ 11681
ارات 11680
يني 11658
المر@@ 11657
َ 11657
وحدة 11656
الجنوبية 11652
بور@@ 11648
را 11639
لق@@ 11637
سن@@ 11636
المرأة 11622
وزارة 11611
الأكثر 11589
ست 11583
ص 11579
عات 11577
السياسية 11541
الكتاب 11534
ا@@ 11532
جائزة 11524
الان@@ 11519
لكل 11508
جوائز 11506
الو@@ 11451
ظ@@ 11445
&apos; 11425
الفرنسية 11417
ند@@ 11400
دها 11376
اري 11373
رقم 11333
وري 11332
كة 11316
يو@@ 11316
سة 11310
عم@@ 11297
تصنيف 11288
لح@@ 11288
دار 11271
منظمة 11265
دا@@ 11251
كانوا 11248
ثلاث 11243
ممثل 11235
قامت 11213
= 11209
منهم 11187
الصين 11142
لذلك 11119
ورة 11112
حر@@ 11102
الشرقية 11100
2003 11097
2020 11092
الجديد 11078
لهذا 11075
سان 11045
يعتبر 11036
اح@@ 11023
الألعاب 11008
الدم 10990
أمام 10981
خ 10981
مه@@ 10981
حد 10966
لف@@ 10963
جورج 10958
بالنسبة 10956
مين 10940
تخ@@ 10937
كون@@ 10933
2017 10924
عل@@ 10912
وية 10908
حرب 10904
خارج 10903
شرق 10882
ـ@@ 10873
السعودية 10870
٪ 10843
السي@@ 10840
المعلومات 10801
لان 10783
تون 10778
تعتبر 10742
تس@@ 10735
أس@@ 10704
شهر 10700
أولاد 10695
أدى 10689
تستخدم 10674
السابق 10653
دراسة 10638
زي 10630
نية 10627
البريطانية 10621
فو@@ 10618
نشر 10611
الحركة 10600
كذلك 10599
بأنه 10584
أشهر 10554
يم 10552
لندن 10545
ترا@@ 10531
سو@@ 10531
تب@@ 10524
مر 10522
اج@@ 10513
الإسلامية 10509
التالية 10509
كا 10504
ائ@@ 10456
كريكت 10447
إنشاء 10437
بش@@ 10381
زيادة 10372
حي 10369
المص@@ 10365
وان@@ 10365
الشرق 10360
ذكر 10344
نهر 10330
طة 10324
فت@@ 10320
إن@@ 10301
بية 10298
ينا 10278
أصل 10276
أستراليا 10273
جيمس 10264
جو@@ 10262
عبارة 10240
انتقل 10233
كندي 10225
حكم 10214
أ 10213
متر 10209
أهم 10208
وبالتالي 10176
يستخدم 10173
الحكم 10169
وسط 10163
يقوم 10134
العليا 10125
كور@@ 10119
تد@@ 10115
العراق 10104
أمريكا 10080
جزء 10061
بط@@ 10048
در@@ 10042
إس 10029
خط 10024
2002 10000
اب 9999
حالات 9990
كو@@ 9990
السنة 9989
كويكبات 9982
المواد 9981
سجل 9973
تعداد 9952
2018 9951
.. 9950
ممثلة 9950
ُ 9945
كر@@ 9937
... 9931
قسم 9929
الجزء 9897
دوار 9896
بان@@ 9888
قاعدة 9881
عنه 9873
يش@@ 9860
الخلايا 9833
حكومة 9809
ولي 9792
أفريقيا 9788
جة 9785
الجمعية 9783
جزيرة 9783
دو@@ 9779
أعضاء 9746
نقل 9744
جن@@ 9728
جو 9718
تو 9717
الصحة 9695
دات 9692
راً 9689
وض@@ 9689
جمهورية 9640
2019 9624
الماء 9617
هار@@ 9608
اش@@ 9599
توجد 9594
صغيرة 9591
يلي 9590
2001 9588
القرية 9581
لأول 9573
الحديث 9565
ينة 9563
إليه 9551
العلمي 9551
با 9541
ويمكن 9541
بق@@ 9538
التاسع 9531
كان@@ 9514
وين@@ 9494
يح@@ 9485
أنحاء 9471
الشخصية 9469
يعمل 9469
المختلفة 9466
به@@ 9466
قوة 9459
سم@@ 9455
وأن 9454
الفرنسي 9452
اق@@ 9447
تز@@ 9441
وفق 9439
العلوم 9437
31 9432
الديمقراطي 9432
معركة 9431
ألف 9428
وسياسي 9427
تطوير 9422
لون 9421
التابعة 9415
مان@@ 9415
البحرية 9408
الرابع 9402
الحالات 9395
تعمل 9395
كو 9387
أربعة 9386
العاصمة 9385
دت 9381
للإ@@ 9381
المجموعة 9375
العصر 9373
مرحلة 9363
النوع 9353
الية 9349
جديد 9345
نق@@ 9336
الموقع 9331
100 9329
أي@@ 9313
وخ@@ 9313
المدرسة 9304
فا@@ 9301
ملك 9298
المج@@ 9297
ويليام 9269
التالي 9262
الخاص 9248
مكان 9233
الأخيرة 9225
البي@@ 9224
بت 9222
خط@@ 9222
قصة 9217
انا 9215
التجارية 9166
ته@@ 9162
مت 9160
مناطق 9151
طول 9143
إسبانيا 9135
انه 9127
هيئة 9124
توضيح 9119
تل@@ 9111
سم 9091
إضافة 9079
الدراسات 9070
المش@@ 9069
غرب 9069
قي 9069
عائلة 9067
المحلية 9056
الجامعة 9050
عقد 9049
الاجتماعي 9035
شر@@ 9029
اه@@ 9014
لوا 9010
اليابان 9007
لويس 8989
تقوم 8972
تقدم 8964
الشمس 8954
كت@@ 8953
والت@@ 8944
زة 8939
كل@@ 8938
الخارجية 8934
عية 8931
شخصية 8928
الة 8922
العملية 8911
عه 8899
دير 8893
لان@@ 8891
البعض 8882
ئة 8877
العظمى 8875
عهد 8873
لم@@ 8871
الأشخاص 8858
مجلة 8852
مز@@ 8850
رجل 8835
نج@@ 8832
فق@@ 8823
معه 8812
تأثير 8806
يؤدي 8797
مشروع 8792
مصطلح 8787
كس 8781
نطاق 8779
وغيرها 8777
دان 8760
الجزائر 8745
تحديد 8742
الفريق 8740
إليها 8733
تعلم 8733
بيت 8731
المق@@ 8728
حقوق 8720
بين@@ 8714
ظهر 8709
العلاج 8702
ولا@@ 8685
وفاة 8684
الوسط 8683
تشمل 8678
از@@ 8663
عها 8659
روسيا 8645
والده 8619
قية 8604
كية 8599
إل@@ 8594
العالمي 8581
مها 8579
ارية 8566
قوات 8561
النواب 8560
طريقة 8556
حياة 8551
الحديثة 8539
سطح 8537
الأراضي 8528
وسي@@ 8518
الشمال 8515
وحتى 8501
بول@@ 8500
سيدي 8496
الأساسية 8488
1999 8482
الملكية 8482
دخل 8482
ائي 8473
سين 8465
ةٍ 8463
الكبير 8458
عمليات 8458
وتح@@ 8458
أور@@ 8450
شي 8441
العمر 8436
الأمير 8434
الثورة 8434
الجسم 8424
جمعية 8414
عد@@ 8412
الجنوب 8404
ئ 8402
البر@@ 8402
أص@@ 8398
معسكر 8388
َّة 8385
وت 8373
رب 8367
ولي@@ 8367
بالأ@@ 8362
دًا 8358
تحتوي 8355
أم 8343
وزير 8336
يعد 8334
أيام 8318
الكنيسة 8311
الهجوم 8303
در 8301
لديها 8292
تان 8289
البحث 8287
أواخر 8277
الأوروبي 8263
الانتخابات 8263
الحيوانات 8254
ياً 8248
عامي 8220
الجزيرة 8216
بيل 8216
جين 8208
عامة 8200
بات@@ 8197
الدرجة 8174
الميلاد 8173
الجوية 8169
الألمانية 8167
ادة 8165
لين@@ 8163
روا 8146
الرا@@ 8145
وني 8144
نت 8140
آل 8138
حدث 8138
جر 8137
1998 8136
حسن 8135
روبرت 8128
مل 8123
كر 8117
وادي 8108
50 8101
أبي 8088
وات 8076
الداخلية 8075
الكبرى 8074
يل@@ 8074
مسلسل 8068
الحالة 8066
الإمبراطورية 8065
عي@@ 8056
رأس 8051
إيطاليا 8046
دورة 8046
ره 8043
والع@@ 8043
تت@@ 8035
الأولمبية 8034
1990 8024
ئ@@ 8019
تر 8018
فه 8017
بعدها 7996
جبل 7996
ِّ@@ 7988
السلطة 7974
البيانات 7970
مختلف 7970
فار@@ 7958
أهل 7951
إسرائيل 7950
فر 7947
نظرية 7939
باب 7923
الحصول 7897
دوري 7895
حاليا 7894
ضة 7883
لجنة 7881
وَ@@ 7878
عنها 7871
1996 7849
المغرب 7841
تض@@ 7837
شبكة 7828
السياسي 7827
ولة 7823
الطب 7822
سين@@ 7821
طلب 7821
وجه 7802
الأمم 7801
مون@@ 7797
صي@@ 7794
أفلام 7793
اغ@@ 7790
اليد 7788
يز 7783
جر@@ 7776
عاد 7776
مقابل 7775
وف 7769
1992 7767
خلالها 7765
الطبية 7758
لقد 7757
هدف 7757
تعد 7755
الوسطى 7754
فين 7750
بالقرب 7744
الإنترنت 7742
يان 7738
قناة 7732
سابقاً 7724
باريس 7719
تقديم 7711
طويلة 7711
هن 7704
العرب 7700
عت 7700
اي 7697
رب@@ 7694
فا 7691
أد@@ 7689
الحدود 7683
عامًا 7681
عر@@ 7681
وفقًا 7679
فري@@ 7678
أوائل 7674
خاص 7673
أغ@@ 7670
لاً 7656
سوريا 7655
1997 7652
الإسلام 7651
الصحية 7651
خي@@ 7647
لكنه 7640
نو@@ 7629
بالإ@@ 7627
الوزراء 7620
لـ 7614
الموسم 7611
وقال 7606
بول 7604
الوصول 7597
فل@@ 7581
الطبيعية 7573
حص@@ 7561
كون 7555
المغ@@ 7551
حل 7550
هنري 7527
جه@@ 7517
أمر 7515
يف@@ 7510
البداية 7508
الإنجليزية 7505
ـ 7505
أعلن 7502
سر@@ 7498
الألماني 7488
الأكبر 7484
نقطة 7484
بالق@@ 7482
شبه 7482
رها 7477
اتهم 7472
آسيا 7464
قر@@ 7464
دول 7456
الأمن 7455
النادي 7449
اتحاد 7433
الطريق 7432
شيء 7430
رواية 7429
كاتب 7427
المخ@@ 7426
كين 7426
نف@@ 7426
ائية 7425
بحلول 7425
المسيحية 7422
إنجلترا 7417
المرحلة 7412
داً 7410
الشعب 7408
عشرة 7396
وري@@ 7395
يشير 7383
دعم 7380
بأنها 7373
السابقة 7369
المصرية 7364
formula 7356
الخامس 7352
ظهرت 7350
gt 7349
مؤسسة 7347
معهم 7346
قص@@ 7340
اف 7336
المسلمين 7328
مباشرة 7325
عالية 7324
وله 7319
ومن@@ 7307
جان 7305
وتع@@ 7295
1991 7282
كثير 7282
مغ@@ 7279
البريطاني 7277
بهم 7275
ٌ 7275
الموجودة 7273
تري@@ 7273
كري@@ 7268
اليمن 7261
بير@@ 7259
الحرارة 7256
1994 7254
ادي 7253
قيمة 7251
ء 7242
نفسها 7236
وفاته 7235
حجم 7234
اص@@ 7232
فيل 7229
الأحيان 7220
الجمهوري 7219
كاليفورنيا 7217
العلاقات 7208
المدارس 7203
تست@@ 7196
كام@@ 7195
الدينية 7193
تشير 7189
معدل 7187
تمت 7176
يتبع 7173
فئة 7167
lt 7164
ذو 7163
ونية 7163
طر@@ 7150
سر 7142
نصف 7119
البرلمان 7111
1995 7101
جنس 7099
مور@@ 7098
كلمة 7091
الصغيرة 7087
بلدية 7086
يحدث 7079
متوسط 7077
رغم 7076
واسع 7069
الرجال 7058
فور@@ 7054
وهناك 7051
جنسية 7048
المكان 7046
الثالثة 7042
بان 7038
ظهور 7032
القلب 7029
خمسة 7028
يس@@ 7023
فون 7011
1980 7009
إبراهيم 7008
تحقيق 7007
1993 7005
للح@@ 7003
الذ@@ 6997
العلمية 6997
الغربي 6989
ناحية 6989
سيتي 6982
ذا 6981
الشركات 6979
الاقتصادية 6974
قتل 6969
النباتات 6968
العمال 6964
أح@@ 6960
1989 6958
تل 6956
الصيفية 6954
قيادة 6953
بذلك 6952
وفي@@ 6952
الشرطة 6947
يعرف 6945
ميل 6944
سبب 6937
تنظيم 6928
؟ 6924
المط@@ 6924
يوس 6924
وصف 6923
راء 6922
0 6918
اللا@@ 6889
ولكنه 6889
التح@@ 6886
اللجنة 6873
الشكل 6872
توماس 6870
سلة 6868
ديفيد 6866
لهذه 6865
ِ 6854
of 6841
الأسرة 6841
سابق 6841
فين@@ 6841
البطولة 6837
المس@@ 6836
وار@@ 6830
يك 6828
فرقة 6827
وسائل 6827
الأوروبية 6822
الجهاز 6822
بالح@@ 6822
الجمهورية 6813
شا@@ 6807
بص@@ 6805
1988 6804
الإشارة 6799
مؤ@@ 6798
انة 6797
علماء 6794
والك@@ 6792
الشعبية 6789
بحيث 6787
مدى 6779
بريطانيا 6773
سانت 6771
منتصف 6768
أو@@ 6767
مخ@@ 6756
وليس 6752
يف 6752
سوق 6751
وصل 6746
العلماء 6745
إجراء 6744
عب@@ 6743
سية 6733
معينة 6732
أعلنت 6729
لن 6722
إي 6717
مض@@ 6713
فهو 6712
المدن 6709
سوس 6707
1984 6704
أهمية 6703
حات 6700
لصالح 6699
طل@@ 6698
يخ@@ 6698
السادس 6697
يعني 6697
بنسبة 6695
تسمى 6691
الخامسة 6686
فهي 6683
الإنتاج 6681
فلسطين 6675
تبلغ 6673
تظهر 6668
مث@@ 6654
الكبيرة 6652
تحدث 6644
1986 6643
معهد 6643
العلم 6639
يسمى 6637
تحمل 6634
وث@@ 6630
مَ@@ 6629
مرض 6625
بعنوان 6624
المرض 6623
ارتفاع 6622
تأسيس 6615
وتر@@ 6615
تولى 6606
politician 6598
الشباب 6597
جمع 6597
فات 6597
قه 6595
سا@@ 6594
تعرف 6590
تشارلز 6577
الفي@@ 6576
حق 6576
الأحداث 6575
أخ@@ 6574
قط@@ 6572
مات@@ 6567
الثقافة 6565
فهم 6560
مهمة 6560
قات 6552
يرا 6546
أساس 6544
بلا@@ 6544
نظ@@ 6542
نس@@ 6539
از 6536
محطة 6535
قرار 6530
يز@@ 6528
أشكال 6526
الآخر 6508
40 6506
هؤلاء 6501
مًا 6498
فكرة 6496
قب@@ 6496
الواقع 6491
الأسر 6489
1982 6488
جاء 6487
جهاز 6486
التابع 6482
يقول 6476
أفراد 6473
ثر 6469
اللعب 6468
رًا 6466
وب 6463
لما 6461
لوس 6458
مب@@ 6458
يناهز 6455
او@@ 6451
الات 6450
اع 6448
حد@@ 6448
هر 6444
نقاط 6443
تط@@ 6440
رس@@ 6436
يعود 6434
1979 6433
حية 6430
اله 6425
للا@@ 6422
حصلت 6417
مط@@ 6416
ورا@@ 6411
قد@@ 6405
القديم 6401
برامج 6398
يظهر 6398
أغنية 6397
صدر 6397
1987 6390
العزيز 6386
ورية 6386
البرنامج 6381
تأسست 6379
اه 6375
المحيط 6374
المالية 6364
تصل 6363
مساحة 6363
وكاتب 6362
دون@@ 6360
المباراة 6357
لقب 6350
الإسلامي 6348
وبين 6348
موا 6341
سا 6333
1948 6331
المحكمة 6329
1985 6322
النظر 6320
علاقة 6319
1945 6317
بغداد 6314
المصري 6311
شاركت 6308
زا 6305
أسرة 6300
اط@@ 6293
متعددة 6282
وان 6278
غالبًا 6277
لاحق 6277
يّة 6269
الأقل 6266
المادة 6261
مرات 6261
المعروف 6260
فان 6259
السلام 6255
بو 6252
نز@@ 6251
يم@@ 6239
ظل 6235
الطريقة 6233
بلدة 6224
البيضاء 6221
يحتوي 6210
1970 6205
مجموعات 6202
الخدمة 6199
الهواء 6198
أنهم 6195
بِ@@ 6188
الا 6186
بدون 6178
إم 6177
لف 6171
الشرقي 6167
تونس 6166
بنفس 6164
أهداف 6163
لاند 6158
الأنواع 6157
ثة 6154
الأبيض 6153
يصل 6153
نص@@ 6152
جيش 6149
ينية 6146
طي@@ 6141
الإعلام 6138
ونسبة 6132
واشنطن 6130
الطلاب 6125
الأحمر 6122
المه@@ 6122
1967 6121
التاريخية 6121
درس 6117
البشرية 6113
تكن 6101
الحالي 6098
طرق 6098
مرا@@ 6088
القوة 6085
خان 6085
ستة 6085
وحمل 6083
1983 6075
صناعة 6072
فت 6068
اره 6066
كلي@@ 6065
التقليدية 6063
الأمراض 6052
تصميم 6048
الـ 6046
المجال 6046
حدود 6046
ترو@@ 6041
لأنه 6034
باللغة 6031
ذي 6028
دور@@ 6026
يوسف 6019
صورة 6016
المستوى 6015
الفنية 6014
اوي 6010
مين@@ 6008
ودي@@ 6007
يري 6002
وهم 5999
الإدارة 5995
لب 5983
هام 5982
ادات 5980
داء 5980
جا 5973
الثانوية 5971
أربع 5969
النهاية 5967
له@@ 5966
نش@@ 5966
تور@@ 5965
الأخير 5959
لبريطانيا 5959
نسخة 5958
كامل 5947
غري@@ 5946
1981 5945
الدراسة 5944
لغة 5941
فيروس 5940
الشخص 5934
المتوسط 5934
باً 5934
لغ@@ 5934
السنوات 5933
عديدة 5933
إيران 5931
وتق@@ 5930
الغرب 5929
وأيرلندا 5923
ارا 5921
الحكومية 5921
حسين 5915
! 5913
اة 5898
دفع 5898
ابة 5897
القاهرة 5896
القصة 5895
بقيادة 5882
كات@@ 5882
الثامن 5879
سان@@ 5868
أث@@ 5860
أخذ 5856
بشأن 5856
دن 5856
مدن 5851
المك@@ 5847
لن@@ 5847
الرعاية 5846
تغيير 5846
فن 5845
طروادة 5843
دمشق 5842
التر@@ 5841
السلطان 5841
كرا@@ 5838
الماضي 5833
إطلاق 5832
أش@@ 5826
الجنسية 5826
الاقتصاد 5825
سوف 5824
دار@@ 5820
شار@@ 5818
شع@@ 5817
الرواية 5814
البيئة 5806
الكويت 5805
+ 5804
دد 5799
عيد 5798
بس@@ 5795
ينات 5791
سواء 5788
الفضاء 5786
السياسة 5780
للغاية 5778
الاحترافية 5771
صحيفة 5770
المؤ@@ 5764
داد 5755
جعل 5753
اكتشف 5752
نت@@ 5750
تزال 5749
مف@@ 5739
رجال 5735
روس 5734
تَ@@ 5726
النفس 5722
فها 5720
بير 5718
1974 5711
المي@@ 5711
قائد 5708
الخدمات 5705
سميث 5703
نيو 5697
رفض 5696
1975 5687
يتعلق 5686
الكتب 5684
1978 5683
اما 5681
دبليو 5679
سعيد 5677
مكتب 5676
1976 5675
ذ 5675
جدا 5674
خدمة 5667
بالك@@ 5656
صة 5656
تابعة 5654
خر@@ 5654
بالع@@ 5650
المتعلقة 5649
جل@@ 5649
ويتم 5649
بخ@@ 5648
الطفل 5647
أع@@ 5643
الكلية 5643
السابع 5641
كوم@@ 5636
يه@@ 5635
الأوسط 5622
غا 5620
شهادة 5619
التجارة 5615
دع@@ 5615
اليهود 5614
الثامنة 5609
بالإنجليزية 5609
ريا 5602
الروسية 5600
1973 5591
مال@@ 5589
البلدان 5587
الأفراد 5584
طي 5578
والف@@ 5578
بون@@ 5572
وأن@@ 5570
انضم 5569
كرو@@ 5569
والق@@ 5568
الدي@@ 5561
دم 5559
بار 5556
الطبيعي 5555
شه@@ 5555
الموسيقى 5552
شغل 5549
رج@@ 5547
المنظمة 5545
بهذا 5545
كن@@ 5535
ويل 5530
الرومانية 5529
نتائج 5529
محاولة 5524
فرق 5519
نه@@ 5517
الأمريكيين 5516
الطائرة 5514
معلومات 5514
ليست 5513
الأعلى 5512
والعشرين 5512
أف@@ 5508
اسمه 5498
حال 5496
تار@@ 5494
لاحقًا 5489
ولكنها 5486
عصر 5482
انتخابات 5479
ورا 5475
أجهزة 5471
ارد 5471
الأكاديمية 5471
ورد 5471
الساعة 5470
درا@@ 5468
نقص 5463
الها 5456
عليهم 5453
ادية 5449
البا@@ 5447
مملكة 5445
يزيد 5445
ماري 5444
ترك 5442
دواوير 5439
الأردن 5438
البل@@ 5437
دف@@ 5436
البشر 5435
1972 5432
امة 5429
تس 5428
طائرة 5426
جزر 5423
الولاية 5422
الزواج 5421
المشروع 5420
حملة 5420
أحداث 5417
القدرة 5414
اللي@@ 5410
الرحمن 5402
ستون 5402
العمليات 5401
وانتخب 5398
الشعر 5395
وة 5395
العثمانية 5390
ارت 5388
بيانات 5388
قل@@ 5383
الرياضية 5381
السوق 5381
المرضى 5380
أق@@ 5371
طالب 5371
حدوث 5368
قها 5368
بك@@ 5367
الأعضاء 5365
البرازيل 5362
عَ@@ 5361
رو 5359
الضغط 5358
ماء 5357
بًا 5352
المعروفة 5348
لبنان 5345
وار 5342
عكس 5340
الفن 5336
ماً 5335
الجنسي 5334
المكسيك 5332
الطرق 5331
أجزاء 5329
هل 5329
واسعة 5326
مدة 5320
تشكل 5316
ثاني 5313
الأر@@ 5310
صور 5310
1968 5304
الآثار 5304
كتابه 5300
منح 5296
جبال 5292
1960 5288
1977 5284
يَّة 5284
ستر 5280
عمله 5274
للو@@ 5274
الشر@@ 5272
تتضمن 5266
خمس 5257
لِ@@ 5256
الأفلام 5255
ويُ@@ 5254
وقعت 5253
1971 5252
بلاد 5252
تطور 5252
فصل 5251
والص@@ 5251
يونايتد 5237
مفهوم 5233
الفر@@ 5232
كول@@ 5229
النوادي 5228
مدر@@ 5226
عادةً 5222
نين 5222
قيد 5211
تتكون 5202
تمثل 5202
العسكري 5199
صالح 5198
والد@@ 5196
إيه 5193
60 5191
اعي 5191
صاحب 5185
تقريبًا 5182
دين@@ 5181
لى 5177
الهدف 5175
الدكتور 5174
قين 5172
كات 5172
يزال 5169
ؤ@@ 5166
1969 5164
بطريقة 5162
بغ@@ 5160
1964 5158
بون 5155
بلو@@ 5153
وز 5149
الاس@@ 5148
السيد 5146
دى 5144
سكي 5144
النووي 5140
” 5135
المسلسل 5134
الجانب 5129
السورية 5126
فير@@ 5122
المنزل 5121
وأصبح 5120
الوحيد 5117
تعرض 5116
تطبيق 5115
العدد 5112
رك@@ 5105
وعندما 5101
ماك@@ 5094
هر@@ 5089
إصدار 5083
فتح 5081
عام@@ 5077
the 5075
أول@@ 5075
إنه 5074
سط@@ 5073
وممثل 5073
ساعة 5067
المهنية 5066
انظر 5060
1963 5058
التع@@ 5052
تركيا 5052
فرا@@ 5052
المرا@@ 5048
ريتشارد 5046
قصيرة 5046
الحالية 5043
امي 5037
النا@@ 5036
نواب 5033
بموجب 5032
تعود 5031
مطار 5029
تعتمد 5028
وغير 5026
رَ@@ 5023
عمان 5023
مدير 5020
مهم 5020
حياتها 5016
لًا 5014
باشا 5013
1950 5010
قت 5007
السيطرة 5005
مقارنة 5004
تغ@@ 4996
بع 4995
باب@@ 4993
القدس 4989
الأساسي 4988
وجد 4988
التص@@ 4985
كلا 4985
لديه 4983
ً 4983
النار 4982
النقطة 4982
امرأة 4979
حماية 4977
هة 4974
ونصف 4973
اختبار 4968
وى 4968
ليون 4967
باد@@ 4964
الأدب 4963
مياه 4962
العصور 4957
للت@@ 4955
الآ@@ 4950
رد 4950
محامي 4950
القرآن 4947
زية 4947
فول@@ 4946
الأصل 4945
ضغط 4944
مسجد 4943
وبة 4940
فإنه 4938
قصر 4936
تسبب 4934
ربما 4933
الحيوية 4932
الآخرين 4928
الإغريق 4926
يب 4926
سو 4925
كيف 4925
بدلاً 4923
والس@@ 4923
الام@@ 4919
سير 4916
التهاب 4910
الإصابة 4909
تأ@@ 4908
1962 4906
باست@@ 4906
سيا 4904
الثقافية 4902
الجنس 4899
ثورة 4899
هنا 4899
المحور 4898
حرارة 4894
أنظمة 4892
ماسة 4892
علاج 4891
آنذاك 4887
المركزية 4887
كيلومتر 4887
وني@@ 4887
عاصمة 4879
مارك 4879
عم 4876
خدمات 4875
منع 4875
العائلات 4868
1965 4865
الثلاثة 4865
بيع 4865
طور 4865
مذ@@ 4864
الرسمية 4860
نات 4855
راد 4849
&#124; 4846
ويبلغ 4846
إل 4845
المبكرة 4842
ألعاب 4841
خص@@ 4841
الذكور 4839
كنيسة 4839
1956 4837
النقل 4837
غار@@ 4836
يني@@ 4836
البناء 4834
الفرقة 4833
تية 4833
اث@@ 4832
اختيار 4831
نه 4828
جل 4827
شك@@ 4826
قا 4825
الأسود 4823
درجات 4822
عزلة 4822
تنفيذ 4820
وقع 4815
بس 4810
تشكيل 4809
زل 4806
جان@@ 4802
اللون 4801
حقق 4801
أج@@ 4798
* 4796
القوى 4796
والش@@ 4796
انها 4793
خطوط 4792
افة 4790
بتاريخ 4788
العالي 4787
تحليل 4783
لاست@@ 4783
مواقع 4776
المشاركة 4773
بالن@@ 4771
الإنجليزي 4770
السبب 4768
العنف 4766
يسمح 4765
ّر 4765
يعتقد 4764
الاقتصادي 4762
مادة 4761
كاب@@ 4760
مليار 4760
اك 4759
المنتخب 4759
او 4759
وك 4757
أسترالي 4756
فض@@ 4756
الدور 4751
ريد 4750
وخاصة 4746
سرطان 4745
متحف 4741
مهرجان 4741
انت@@ 4739
دان@@ 4736
إما 4734
القائمة 4733
اسي 4732
مربع 4732
لديهم 4726
المؤتمر 4725
السلة 4722
المصطلح 4722
مصادر 4718
السلطات 4709
الصناعية 4708
الممكن 4707
الشيوخ 4704
العائلة 4704
المحلي 4701
لكنها 4701
النمو 4699
1958 4698
مؤتمر 4696
الشمالي 4693
مدار 4693
آسفي 4691
السكاني 4690
بعضها 4690
3@@ 4687
روما 4687
قرر 4686
ملعب 4686
أسس 4684
ونة 4684
يَ@@ 4684
جه 4679
العرض 4678
المعهد 4672
سام@@ 4669
السودان 4667
جوزيف 4667
ومي@@ 4667
• 4667
يتكون 4665
قطاع 4664
سليمان 4661
امه 4660
الحقوق 4659
دوا 4659
فيلد 4659
قائ@@ 4659
1966 4658
العلاقة 4654
كن 4654
المدنية 4653
بسرعة 4641
الفلسطينية 4638
مار 4638
مول@@ 4637
النهائي 4634
غو 4633
كثيرة 4632
فرد 4630
cricketer 4629
نائب 4628
1961 4627
صر 4623
سياسة 4620
صح@@ 4618
يبدو 4618
صغير 4615
المال 4614
عد 4610
أبناء 4607
فن@@ 4599
صوت 4596
نموذج 4592
طرف 4591
مستويات 4589
الديمقراطية 4587
بيتر 4587
كين@@ 4584
والاست@@ 4582
هام@@ 4580
توا@@ 4579
عُ@@ 4577
المسجد 4575
المل@@ 4575
المعركة 4571
كوك 4569
سار@@ 4567
إدوارد 4566
كوريا 4565
الـ@@ 4563
المض@@ 4562
وست@@ 4558
دول@@ 4557
The 4554
وكالة 4554
مال 4548
ضم 4547
موا@@ 4546
أعماله 4541
ريك 4541
الرو@@ 4539
الصينية 4539
تمكن 4539
بينها 4535
فصيلة 4535
أطلق 4529
مدريد 4528
ايا 4527
لك 4525
أَ@@ 4524
المصادر 4524
رار 4524
سب 4524
الفرق 4522
اخت@@ 4520
إطار 4518
برلين 4514
سيناريو 4510
وراء 4510
شة 4509
مستشفى 4509
وال 4505
كورونا 4502
أبرز 4501
انو 4501
بَ@@ 4501
خالد 4496
آخرين 4495
العهد 4495
الزراعة 4490
القيادة 4490
فعل 4490
نور@@ 4488
ولها 4484
تعريف 4483
الذاتية 4482
لفترة 4482
1944 4481
محمود 4478
هان 4478
وبعض 4477
قبيلة 4476
عرف 4475
الولادة 4473
تعني 4473
تقنية 4473
إلي 4472
وهذه 4470
1949 4467
عز@@ 4467
يون@@ 4466
شركات 4464
1947 4462
سوى 4462
الخليج 4456
المز@@ 4455
شو@@ 4455
دقيقة 4454
أمير 4452
شعر 4452
بوت@@ 4450
المزيد 4448
وو@@ 4447
زوجته 4443
البار@@ 4440
الأح@@ 4439
خلايا 4439
جدًا 4438
الشبكة 4437
80 4435
1946 4432
لمحافظة 4430
أرض 4428
بج@@ 4426
تحول 4426
200 4425
عملت 4423
قُ@@ 4423
يمثل 4421
ثي@@ 4419
الجنوبي 4417
الطعام 4415
الاستقلال 4414
بهدف 4412
تسجيل 4409
غرا@@ 4406
الجوي 4405
حالياً 4405
التعداد 4401
كُ@@ 4398
رف@@ 4396
لعبة 4393
بجامعة 4390
زين 4390
فرع 4387
قل 4387
الروسي 4386
أنجلوس 4384
ساب@@ 4383
المؤسسات 4380
طر 4378
أقدم 4376
قطع 4376
كتابة 4374
المجموعات 4373
بالس@@ 4373
موسى 4373
مدرب 4371
الضوء 4368
الإمام 4363
جار@@ 4363
سيد 4363
وتش@@ 4363
أوك@@ 4362
للم@@ 4361
مصدر 4361
1940 4357
بمدينة 4356
جيل 4356
للحصول 4356
التصميم 4355
سع@@ 4353
موسيقى 4351
اض@@ 4350
اليمنية 4350
تحرير 4350
خت@@ 4350
مراكش 4346
الحد 4344
حب 4343
1941 4342
الملكي 4337
الهيئة 4337
مته 4337
النووية 4336
رابطة 4336
بصورة 4332
عق@@ 4332
الأصلية 4330
الطبقة 4330
1939 4329
المستخدمة 4325
خلف 4323
مد 4320
وه 4318
التحكم 4317
الصحي 4314
نى 4314
شارع 4313
روا@@ 4311
لر 4311
للعمل 4311
1959 4309
صف@@ 4307
1957 4305
“ 4305
أدت 4303
خرج 4300
ذهب 4300
عون 4299
ضي@@ 4295
الشخصيات 4291
ائه 4290
الإمبراطور 4289
موت 4289
المد@@ 4288
زال 4284
سياسية 4284
1955 4281
الوحدة 4277
البرامج 4276
قطر 4275
نشرت 4274
يها 4274
قضية 4273
جغرافيا 4270
الإمارات 4267
جري@@ 4267
ففي 4267
المناخ 4266
توزيع 4264
القر@@ 4262
عسكرية 4262
القدر 4260
footballer 4258
الهندية 4258
وق 4257
عا 4256
فًا 4255
اكتشاف 4254
برج 4249
تاون 4249
يعتمد 4248
المؤقت 4246
شن 4246
ريس 4244
قوانين 4241
الجن@@ 4238
وشارك 4236
بيا 4234
ريات 4230
الوضع 4229
لام 4228
الاستخدام 4226
ونا 4223
النفط 4222
ناء 4222
بحسب 4219
القرار 4218
القسم 4217
توفر 4215
وصلت 4215
ارها 4214
العثور 4214
النظرية 4214
رمز 4213
1954 4212
سباق 4211
بوب 4209
الحاكم 4208
تختلف 4204
مور 4203
الرابعة 4201
تدخل 4200
اخ@@ 4199
فص@@ 4199
1952 4192
تجاه 4192
توفير 4191
وبلغ 4191
يكا 4191
انات 4190
أنَّ 4189
الإي@@ 4185
سرعة 4185
حض@@ 4183
غي 4183
وقف 4183
كيفية 4182
ّل 4181
الحال 4180
يؤ@@ 4180
واء 4179
التش@@ 4176
5.@@ 4175
الرجل 4174
طن 4174
مجتمع 4174
13@@ 4172
لاعبة 4172
المريض 4169
خارجية 4166
انتشار 4164
وير 4164
يعيش 4162
زوجها 4161
استخدم 4160
النبي 4160
بينهم 4160
قو@@ 4157
يحمل 4155
الهندسة 4154
الصوت 4153
كمية 4151
جرا@@ 4148
واق@@ 4147
تجمع 4145
المطلق 4142
الأهلية 4140
اتي 4139
واله@@ 4138
إخراج 4137
أوب@@ 4133
رحلة 4132
النشاط 4131
اده 4130
قلب 4128
محددة 4128
المسلحة 4127
تاب@@ 4126
الإنسانية 4125
الحمل 4125
معين 4122
زم 4121
4@@ 4120
رير 4120
أه@@ 4119
ربة 4118
ذوي 4114
قلعة 4114
اط 4112
البرو@@ 4112
الاتصال 4111
خل@@ 4110
المعرفة 4109
فورد 4109
غل 4103
ريك@@ 4102
إحصائيات 4101
مير 4101
متح@@ 4100
رسالة 4096
صل 4095
عامل 4094
الكندي 4093
أمين 4092
اسمها 4088
سات 4087
لال 4085
الطائرات 4084
ومة 4081
الطبيعة 4080
تعيش 4080
تاريخية 4079
اج 4077
الدقيقة 4076
ومح@@ 4076
قرب 4075
معرفة 4071
دراسات 4069
عناصر 4069
القمر 4067
قياس 4066
الدماغ 4065
المشتري 4063
تغير 4062
ومنها 4060
آثار 4059
جد@@ 4054
البيئية 4050
بالفعل 4047
والخ@@ 4047
1943 4046
التصوير 4045
تؤدي 4044
الإسباني 4043
جزءًا 4043
قدرة 4043
الفصل 4040
فان@@ 4039
ابي 4038
عًا 4037
واع@@ 4037
َّ 4037
الطيران 4036
شعار 4036
كوب@@ 4036
ران 4029
الدعم 4027
200@@ 4022
الأصلي 4021
رز 4015
نها 4015
وتُ@@ 4015
زيد 4014
غر 4014
جين@@ 4011
قيم 4011
يكي 4010
الإيطالي 4007
ثانية 4007
John 4006
أراضي 4005
الأم 4005
روب 4004
رفع 4003
المرتبة 4002
حه 4002
أيرلندا 4001
فس@@ 4001
نمو 3999
كلا@@ 3998
حاليًا 3997
طوله 3997
انخفاض 3996
الفنون 3994
1953 3990
متنوعة 3990
الحفاظ 3987
منزل 3987
السل@@ 3986
غر@@ 3985
فَ@@ 3985
دهم 3984
الأسلحة 3982
الري@@ 3981
يص@@ 3979
كانون 3978
فرنسي 3977
ستي@@ 3976
تكوين 3975
أصول 3974
المثليين 3972
اوية 3972
أغاني 3969
الخط 3968
لأنها 3968
يطلق 3968
ينو 3968
كه 3961
طبقة 3957
السكانية 3956
براون 3953
داف@@ 3952
النهائية 3951
البلدة 3950
السفر 3950
العناصر 3950
خطة 3948
1942 3947
1951 3944
ند 3944
ْ@@ 3944
خطر 3943
أند@@ 3942
آلاف 3936
رق@@ 3936
السوفيتي 3935
معاهدة 3934
سك 3933
الرقم 3931
الكيميائية 3929
شر 3927
ضات 3926
بعضهم 3924
يصبح 3924
رام 3919
35 3917
يد@@ 3915
القيام 3914
قدمت 3914
آي 3911
500 3910
باس@@ 3910
بري 3909
جاك 3908
70 3907
ديا 3907
شو 3907
ينغ 3907
عنوان 3904
طات 3903
مارتن 3902
ملا@@ 3902
فيديو 3898
حلب 3897
المسرح 3895
لاء 3895
وممثلة 3894
لس@@ 3892
بهذه 3891
ائها 3890
تاج 3890
فل 3889
يّ 3889
أسماء 3888
أغلب 3886
فع@@ 3886
وفقا 3886
يش 3886
معروف 3879
الخلية 3878
الناحية 3878
حق@@ 3878
خلا@@ 3878
صلاح 3878
والن@@ 3878
أساسي 3877
الزراعية 3876
سلا@@ 3875
مناصب 3871
الأولية 3869
الاحتلال 3868
مقر 3866
والج@@ 3864
يقصد 3861
امية 3858
ترجمة 3854
ابنة 3853
اللعبة 3850
وسجل 3850
تصوير 3848
البرلمانية 3847
بوس@@ 3846
ولعب 3846
خد@@ 3844
الجليد 3842
المرجعية 3841
النتائج 3837
سلطة 3836
1936 3834
ثنائي 3834
بالج@@ 3833
قرى 3831
العوامل 3828
القبائل 3828
بمثابة 3828
ائر 3827
صنع 3827
التأثير 3825
التركية 3825
ولية 3825
أطفال 3821
أنّ 3820
هير@@ 3817
وع 3816
عاما 3814
بالكامل 3813
مواد 3812
and 3811
فرة 3811
ديل 3807
التمييز 3805
ألماني 3804
وجدت 3804
البيض 3803
2@@ 3802
الواقعة 3800
وحصل 3800
تلقى 3798
النسخة 3797
الذاتي 3796
للسيدات 3794
بكثير 3792
كارل 3792
أداء 3790
موجودة 3788
حساب 3787
الأم@@ 3786
دخول 3786
ولقد 3786
ويعتبر 3785
بقية 3784
بيان 3784
جماعة 3783
شباط 3783
90 3781
الجوائز 3781
نظر 3779
s 3778
الفني 3773
قوى 3773
مو 3773
الأحياء 3772
فلكية 3765
مقاومة 3764
الفرد 3762
ونات 3762
حاول 3760
الأدوية 3759
الأن@@ 3759
نر 3757
القانونية 3756
ضي 3756
لإقليم 3755
برلمان 3754
مجالات 3754
الإسرائيلية 3753
حاكم 3753
هد 3752
المواقع 3751
لش@@ 3751
الإسرائيلي 3750
التدريب 3750
دل 3750
العين 3749
تجربة 3748
المهمة 3746
القرى 3744
زن 3744
إصابة 3741
السعودي 3740
جونز 3740
لاح@@ 3740
الإناث 3737
تقييم 3730
صلة 3730
تش 3724
حم@@ 3724
ابات 3723
سلطان 3723
سل 3722
واصل 3720
الخارج 3719
الموارد 3717
بيروت 3717
تز 3717
حلقة 3716
العقد 3714
فيا 3714
الإسبانية 3712
تقرير 3708
الأبحاث 3704
الزمن 3704
اثنين 3703
1920 3702
كت 3701
تصبح 3699
ومع@@ 3698
يغ@@ 3698
5@@ 3697
الأس@@ 3697
الكويكبات 3697
دليل 3696
يج@@ 3696
بط 3695
طوال 3695
مبنى 3695
يق 3695
رح@@ 3694
العل@@ 3692
تعيين 3691
لز 3691
بالف@@ 3689
تشي@@ 3689
لشركة 3687
شيكاغو 3686
اها 3683
عضوًا 3682
اعة 3681
الملحق 3681
المؤسسة 3677
اليهودية 3676
قًا 3676
الصور 3675
مرور 3674
استمر 3670
جرى 3669
سه 3669
فقال 3669
الفيديو 3668
النطاق 3668
البشري 3667
ران@@ 3664
ممارسة 3662
بولاية 3660
بنت 3659
استخدامها 3658
المنتجات 3655
المشتركة 3654
السفن 3653
جية 3653
جمال 3652
الكاثوليكية 3651
لذا 3651
فشل 3647
ظروف 3646
مصطفى 3646
جداً 3645
أصغر 3644
رف 3644
يرو 3644
الأعراض 3643
الغذائية 3643
جار 3643
سبق 3643
وتم@@ 3643
ملايين 3642
التصويت 3641
مراكز 3641
سلالة 3640
بيه 3639
سعود 3639
طاقة 3639
وحدات 3639
معروفة 3638
أثر 3637
لتح@@ 3635
مشاكل 3635
نو 3635
اح 3634
وُ@@ 3632
ومست@@ 3631
وقام 3630
طويل 3628
استمرت 3626
المجاورة 3625
مسرحية 3625
مايكل 3621
اعية 3620
نغ@@ 3620
ليل 3619
اق 3618
اليونان 3617
مشيخات 3616
واح@@ 3615
اتفاقية 3614
السويد 3614
قوية 3612
كبار 3612
والط@@ 3612
نظرًا 3610
ماس@@ 3609
زات 3608
ناد@@ 3606
زمن 3604
آر@@ 3602
بلا 3602
تحسين 3600
ويات 3600
معها 3599
مباريات 3598
للاست@@ 3595
التعاون 3591
الدستور 3591
ابنه 3590
عاش 3590
البلد 3589
سيما 3589
سلاح 3583
ضعف 3583
آن 3581
هجوم 3580
بلغت 3578
ستان 3578
سُ@@ 3576
شعبية 3576
ديد 3575
فكان 3573
خاض 3572
كويكب 3570
البرية 3568
اللغات 3568
ليات 3566
مديرية 3563
قواعد 3561
محل 3561
البط@@ 3557
ولاعب 3557
الموت 3556
اض 3555
نزالا 3555
الكتابة 3554
مصري 3554
ة.@@ 3553
تأسس 3549
متها 3549
وبي 3547
يض@@ 3547
غة 3545
مساعدة 3545
بد 3544
الحر@@ 3542
كولومبيا 3542
دز 3540
عص@@ 3540
طب 3539
غل@@ 3539
جونسون 3534
رؤية 3533
الساحل 3531
تأليف 3530
الأغنية 3529
المسيحيين 3529
تبدأ 3528
عش@@ 3528
جور@@ 3525
الشام 3524
بك 3523
تكساس 3522
طية 3520
التحرير 3518
باكستان 3518
تزوج 3515
تسمية 3514
تقسيم 3514
كاس@@ 3514
لَ@@ 3514
وعدد 3513
نُ@@ 3512
1930 3511
رتبة 3509
بولندا 3507
موضوع 3507
الطيور 3506
ثي 3506
دس 3503
ومي 3503
ويست@@ 3503
قبائل 3501
يعانون 3500
المركزي 3499
وأصبحت 3499
المنافسة 3498
حمض 3498
البرتغال 3496
النجوم 3496
ابية 3495
اللو@@ 3494
اليونانية 3493
إسباني 3491
وإلى 3490
الحق 3488
ساك@@ 3485
ماريا 3485
تذ@@ 3482
البحرين 3481
الإعلان 3480
الأرجنتين 3478
دراسته 3478
السينما 3477
بـ@@ 3477
المتحف 3473
رئيسي 3473
الحديد 3472
هُ 3472
الوحيدة 3471
فير 3471
لكي 3471
باء 3470
بنى 3470
مشاركًا 3470
قيام 3468
التطور 3467
1938 3466
عن@@ 3465
الداخلي 3462
حت 3462
1933 3459
مداره 3456
الجلد 3455
بيد 3455
بكر 3452
مواسم 3452
أسلوب 3451
الزي@@ 3450
بوي@@ 3450
التنمية 3449
العثماني 3448
برت 3447
وإن 3445
وتعتبر 3445
تين@@ 3444
سبعة 3444
علامة 3444
امل 3443
14@@ 3442
واخت@@ 3442
العودة 3440
معالجة 3440
ومنذ 3440
الرياضي 3439
بحر 3439
1937 3436
الحجم 3436
وّ@@ 3436
أكاديمية 3435
المنظمات 3435
تشرين 3435
الأسماك 3433
بالر@@ 3433
رُ@@ 3433
كشف 3433
القيمة 3432
الجزائرية 3429
مراجع 3429
سد 3428
القناة 3427
محرك 3427
التق@@ 3426
قليلة 3426
ليا 3426
إست@@ 3423
وزن 3423
تخرج 3422
كباقي 3422
مشكلة 3422
يرى 3419
العالية 3418
المساعدة 3416
ألي@@ 3415
تب 3415
والث@@ 3415
القتال 3414
طه 3414
وخلال 3414
32 3413
التحق 3413
الحجر 3413
الشعبي 3413
جات 3413
المجتمعات 3411
الحاجة 3409
الكهربائية 3408
قاد@@ 3408
التمثيل 3407
فرانك 3407
الدورة 3406
300 3404
فرو@@ 3404
ّم 3400
نون 3399
أز@@ 3398
بنية 3395
الصحافة 3394
اليابانية 3394
الإطلاق 3392
للأطفال 3392
وإداريًا 3391
تعليم 3389
عزل 3389
نجم 3388
تتميز 3385
الاتصالات 3384
قدر 3384
النق@@ 3383
ارب 3382
A 3379
الجنرال 3378
جريدة 3378
فو 3377
مستقلة 3377
رصده 3374
محكمة 3374
للمرة 3371
الدار 3369
القصر 3368
عمره 3368
نح@@ 3367
السيارات 3363
نيوزيلندا 3360
والدها 3360
إلغاء 3358
الار@@ 3358
سعد 3356
لاغرانج 3355
الثقافي 3354
الجامعات 3353
المقاومة 3352
يع 3352
العراقية 3349
سوي@@ 3348
المرتبطة 3347
رش@@ 3347
شهد 3347
تسمح 3343
التقنية 3342
الهندي 3342
القضاء 3341
رئاسة 3341
عوامل 3339
سيارة 3338
تقل 3337
كوي@@ 3337
بوا 3336
1918 3335
تعل@@ 3335
الناتج 3334
يبدأ 3334
والر@@ 3333
الكريم 3332
الاع@@ 3331
الأساس 3330
انتقال 3330
جرة 3329
كار 3329
مكتبة 3329
الأصليين 3328
سون@@ 3328
السجن 3327
الكاتب 3326
يقدم 3326
ضية 3325
إجمالي 3324
إف 3322
الروماني 3322
خر 3322
الإلكترونية 3321
وصول 3321
ولين 3321
آر 3320
خطط 3319
سلطنة 3319
عاً 3319
وعمل 3319
تعديل 3318
جنب 3318
زوجة 3318
بعدما 3317
جم 3317
مس 3316
هات 3314
سما@@ 3313
الحمض 3312
وفر 3312
الحرة 3311
كث@@ 3308
ُّ@@ 3305
شهدت 3304
ويكون 3304
جير@@ 3303
خار@@ 3299
1935 3296
أصدر 3296
الفلسفة 3296
ودية 3296
ء@@ 3295
علوم 3295
الحملة 3294
صيف 3293
لمدارات 3293
فأ@@ 3292
8@@ 3291
لتحديد 3290
المبنى 3289
يتين 3289
لمداره 3288
أسباب 3287
التعين 3287
متلازمة 3287
مدارس 3287
اعات 3285
مثال 3284
ةِ 3282
تفسير 3282
فيليب 3282
التواصل 3281
تتم 3280
تحويل 3280
عمل@@ 3280
باع 3279
الجنود 3278
إمكانية 3276
صف 3275
بدء 3274
تدفق 3274
وتوفيت 3272
التشريعية 3271
القوانين 3271
يضم 3271
الحسن 3270
إسماعيل 3269
السوري 3265
باقي 3264
فيد 3262
الصورة 3260
الدكتوراه 3258
غرفة 3257
اللاتينية 3255
بالرغم 3255
الوزن 3253
القومية 3252
يشمل 3252
الاشتراكية 3251
بز@@ 3251
سيكون 3251
فاس 3251
ساهم 3250
الكائنات 3249
البنية 3248
كاف@@ 3247
199@@ 3246
الظروف 3246
العراقي 3246
ندي 3245
حل@@ 3243
عقب 3242
قبول 3238
الكربون 3237
جد 3237
in 3236
التعبير 3236
المحيطة 3236
ملة 3236
هان@@ 3236
المستخدم 3235
وظيفة 3235
7@@ 3232
تلا@@ 3232
سكوت 3232
سفينة 3231
لق 3231
القضايا 3230
45 3229
القومي 3229
المقدس 3227
رض@@ 3226
مسرح 3226
الحين 3224
المتح@@ 3224
رسم 3224
وين 3224
نظم 3222
الحمراء 3220
لار@@ 3219
رئيسية 3217
هولندا 3217
والغ@@ 3216
انتق@@ 3215
أست@@ 3212
المستقبل 3212
جن 3210
ظة 3210
للعلوم 3210
وبدأ 3209
أس 3208
65 3206
1931 3205
جذ@@ 3205
الرابطة 3204
نجاح 3204
إعلان 3203
دري@@ 3203
وهكذا 3203
ويوجد 3203
وعلم 3202
ماد@@ 3201
العصبية 3199
شن@@ 3199
تشي 3198
أصحاب 3196
كير@@ 3194
الحديدية 3192
ساعد 3192
ابه 3190
تقريبا 3190
1929 3188
الغاز 3188
مراحل 3188
انيا 3187
1934 3186
راب 3186
نجد 3183
التن@@ 3182
معل@@ 3182
جز@@ 3181
ستر@@ 3181
العص@@ 3180
مالية 3180
الأنظمة 3179
التركيز 3179
زو 3179
ضابط 3179
ماني 3179
البكتيريا 3177
سمي 3175
لفة 3174
صحفي 3172
ريف 3171
يتضمن 3169
الحقيقي 3168
سلو@@ 3167
كجزء 3167
ليصبح 3167
قصير 3166
كاملة 3166
انج@@ 3164
سفر 3163
طبي@@ 3163
ّن 3162
الأربعة 3161
الخارجي 3161
أنا 3160
ثقافة 3160
إر@@ 3158
كافة 3158
انتهاء 3157
الحكومي 3156
قليل 3155
ينبغي 3155
ميناء 3154
القاعدة 3153
تمثيل 3153
تمتلك 3152
توم 3152
لز@@ 3151
النمسا 3149
تعزيز 3149
المستشفى 3147
سلام 3146
نشاط 3145
بحث 3144
مم 3144
الفنان 3143
ثمانية 3142
غان 3141
الأل@@ 3140
طبيب 3140
يرة 3140
المدى 3135
الوحدات 3135
عب 3135
الكلمة 3134
نيين 3132
الطبي 3131
نان 3130
يجعل 3130
ترتيب 3129
علا@@ 3129
وذ@@ 3128
الإيطالية 3127
مالك 3127
أكسيد 3126
الا@@ 3126
فري 3126
القطاع 3125
تشغيل 3125
الحي@@ 3122
خلفية 3121
دُ@@ 3118
النفسي 3117
للع@@ 3117
بور 3116
إزالة 3113
خة 3113
ظر 3111
6@@ 3110
ادا 3110
التسمية 3110
باستثناء 3109
نان@@ 3109
وأيضا 3107
اللاعب 3106
طبيعة 3106
طرح 3106
الحي 3105
زواج 3105
ليكون 3104
المدني 3103
واض@@ 3101
بم@@ 3097
أنفسهم 3096
تلعب 3096
كتلة 3095
اند@@ 3093
هول@@ 3092
يقرب 3092
x 3091
الأجهزة 3091
وتقع 3090
أط@@ 3087
أمراض 3085
تتراوح 3080
تدريب 3078
المطاف 3077
درب 3076
ريب 3075
1922 3074
استخدامه 3070
الملكة 3070
ألبوم 3069
أماكن 3069
بعة 3068
تدور 3068
لل 3068
وتشمل 3068
المقاطعة 3067
تري 3066
بحيرة 3065
تان@@ 3064
وبي@@ 3062
التعليمية 3058
شخصيات 3058
فلا@@ 3058
دل@@ 3056
متع@@ 3056
خصائص 3055
النهر 3054
واي 3054
جون@@ 3053
ولذلك 3053
ويلز 3053
بذ@@ 3050
التعامل 3048
تسل@@ 3048
المسرحية 3047
سري@@ 3046
الأسباب 3044
الكرة 3044
المحافظة 3044
شعب 3044
سمح 3043
تناول 3042
مكة 3042
الجبل 3041
ائع 3040
رعاية 3040
جامع 3039
لعبت 3039
مجرد 3039
المنا@@ 3038
ريال 3038
ستين 3038
الأفريقية 3037
فز 3037
يستطيع 3036
الرأس 3035
ْ 3035
نَ@@ 3033
وجهة 3033
الحقيقة 3031
روف 3031
تة 3030
جب 3029
ياباني 3029
وجامعة 3028
بطل 3027
عسكري 3027
جسم 3026
حًا 3026
الثلاث 3025
ناصر 3025
مانية 3022
البطولات 3021
مج 3020
الهجرة 3016
ظ 3016
عثمان 3016
وغيرهم 3016
النصف 3015
روي 3015
ملاكم 3012
منتج 3012
الصغير 3010
الحية 3009
الكامل 3009
المباني 3009
ّد 3009
والد 3008
جا@@ 3007
1928 3005
امها 3003
بث@@ 3003
المسيرة 3002
لقي 3002
وتف@@ 3000
طين 2998
لب@@ 2998
ليلة 2998
1919 2996
اند 2995
تفاعل 2995
الحادي 2994
والتعليم 2994
جيد 2992
الأماكن 2991
السفينة 2991
القائد 2991
سور 2991
ونغ 2991
ولوجية 2990
مجموع 2989
تهدف 2988
العصبي 2987
الصراع 2986
تام@@ 2986
فرض 2986
روز@@ 2985
القلعة 2984
سام 2983
ًّا 2981
كبيرًا 2980
مقتل 2979
الأصول 2977
توب@@ 2976
شاعر 2976
إنها 2975
الدموية 2975
عامين 2973
قاد 2973
يمي 2971
الإست@@ 2970
أظهرت 2969
مباشر 2968
غور@@ 2967
الحرية 2966
الجمهور 2963
حمل 2963
يحيى 2963
ستيفن 2962
افية 2961
أعراض 2960
الدائرة 2959
لبعض 2959
الشيوعي 2957
للأمم 2956
بقي 2954
الفوز 2953
تون@@ 2952
يدعى 2950
ارًا 2948
السريع 2948
ينتج 2948
الصحراء 2947
واستمر 2945
اتجاه 2944
والعلوم 2944
وافق 2942
امات 2941
ذر 2941
مسافة 2941
السرطان 2939
تول@@ 2939
قضايا 2937
الأدبية 2936
المث@@ 2936
ويل@@ 2936
الأهداف 2934
1924 2933
موسكو 2933
لص@@ 2931
خوسيه 2930
ها@@ 2927
الرحلة 2926
المعل@@ 2926
عوا 2925
وآ@@ 2925
ده@@ 2924
نهائي 2922
أبطال 2921
الطلب 2921
أجريت 2920
الجبهة 2919
خدم 2919
خوان 2919
لاحظ 2919
التجارب 2918
سال@@ 2918
1932 2917
يْ@@ 2917
صد@@ 2915
محترف 2915
ألف@@ 2914
إضافية 2914
انتقلت 2914
ساعات 2914
والمع@@ 2914
فازت 2912
لور@@ 2911
رسمية 2910
الاح@@ 2909
مشاركة 2909
نز 2909
النموذج 2908
انتهت 2908
الواحد 2907
الأداء 2906
الحماية 2906
جرت 2906
ورو 2906
بشدة 2905
ّت 2905
2.@@ 2904
منتجات 2904
بينهما 2903
مؤلف 2903
اللازمة 2902
دخلت 2899
أقصى 2897
الشاعر 2897
1م 2895
حُ@@ 2895
المف@@ 2890
الموسيقية 2890
قر 2890
السلسلة 2889
الفئة 2889
بارك 2889
سيل 2888
ناف@@ 2888
فور 2887
باي@@ 2886
سور@@ 2885
شرطة 2884
دخ@@ 2883
البابا 2882
الغذاء 2881
فلم 2881
مجمع 2881
الإدارية 2880
ريين 2879
ادت 2878
المائية 2877
المنتج 2877
جها 2877
لوك 2877
الرياضيات 2873
صدرت 2872
عط@@ 2871
حا 2868
ديف 2868
لجميع 2867
1921 2866
الأسنان 2866
برز 2865
سيطرة 2865
درة 2863
مراقبة 2863
ينه 2863
باي 2861
000 2860
الحب 2860
للك@@ 2860
امن 2859
وكي 2858
أصدرت 2857
نوبل 2857
ويين 2856
الجدول 2855
خلق 2855
1923 2854
باعتبارها 2853
تمامًا 2852
النفسية 2851
والمست@@ 2850
وح 2848
ّه 2847
خليج 2846
طف@@ 2845
وش 2844
400 2843
فرانسيسكو 2843
للفنون 2843
10@@ 2841
الإلكتروني 2841
وبذلك 2841
العموم 2838
الأنشطة 2837
هار 2837
وسام 2837
وسي 2836
قيل 2835
مركب 2835
حها 2834
يأتي 2834
يب@@ 2834
201@@ 2833
بكل 2833
سيم 2833
غزو 2833
تدمير 2832
تقنيات 2831
هن@@ 2831
ولو 2831
التعلم 2830
منح@@ 2830
يرجع 2827
تنتج 2825
دَ@@ 2825
قَ@@ 2825
1917 2824
33 2823
الاجتماع 2823
الدخول 2823
روح 2823
غز@@ 2822
كلها 2822
لون@@ 2822
الأسترالي 2821
الفيروس 2821
النحو 2821
سقوط 2821
الأمثلة 2820
المذ@@ 2819
ويا 2819
استطاع 2818
الغالب 2818
القديس 2817
للغ@@ 2815
جودة 2814
دولية 2814
قطعة 2814
انت 2812
واقع 2812
التنفيذي 2810
وفا 2809
فارس 2807
أقيمت 2806
يمر 2806
المباشر 2802
كثافة 2802
عملها 2801
ساحل 2799
وعدم 2799
قب 2798
وظائف 2797
نات@@ 2796
القانوني 2795
معدلات 2795
ترتبط 2794
ــ@@ 2794
أة 2793
توقف 2791
أولى 2790
يعيشون 2787
التجاري 2786
استخدمت 2783
شان@@ 2782
طلق 2782
عيسى 2781
هاي@@ 2781
فما 2780
علاقات 2779
لس 2779
دبي 2778
واد 2778
الكروية 2777
الميلادي 2777
فيل@@ 2777
يان@@ 2777
الأخضر 2775
لع@@ 2773
باول 2772
سيف 2772
قبة 2772
واش@@ 2772
1925 2771
الإن@@ 2771
تجارية 2771
العلوي 2770
ودة 2767
سَ@@ 2765
ضيف 2760
ليو 2760
صحة 2758
عهم 2758
البيت 2757
الشمسية 2756
دستور 2756
ورئيس 2755
إفريقيا 2754
تمل 2754
آرثر 2753
أطول 2750
ظاهرة 2750
فرط 2750
للص@@ 2749
لوحة 2749
الأثرية 2747
حَ@@ 2747
التقليدي 2746
1927 2745
المنصب 2745
اليين 2744
ولوجيا 2744
التغييرات 2743
الصيني 2743
خو@@ 2743
القضية 2742
كونغ 2742
ميخائيل 2742
مِ@@ 2742
المصابين 2741
وربما 2741
البلدية 2740
تبقى 2739
الألبوم 2738
تن 2738
جيم 2738
حدة 2738
صحيح 2738
نع@@ 2738
ذية 2737
إحصاء 2736
بناءً 2736
المتع@@ 2735
تركز 2735
المحرك 2734
راي 2734
ساحة 2734
شري@@ 2734
مسل@@ 2732
الأوراق 2730
قاعة 2729
العاملة 2728
سج@@ 2728
مرتين 2727
مسار 2727
قادة 2726
الحص@@ 2724
الفعل 2724
القبض 2724
مهندس 2723
التونسية 2722
فقدان 2722
2م 2721
سائ@@ 2721
لاس 2721
خليفة 2720
مواجهة 2718
born 2717
الوطن 2715
رك 2715
مول 2715
{ 2714
اذ@@ 2714
بيري 2714
الاخت@@ 2713
غالبا 2713
ورت 2713
تركيز 2712
العظيم 2710
منخفضة 2709
الأطباء 2707
حرية 2707
وإذا 2707
الانتخابية 2706
1000 2705
الاب@@ 2705
الوقود 2704
بوم@@ 2703
يُعرف 2703
فى 2702
ملكة 2702
طرد 2701
معايير 2700
وعند 2700
أري@@ 2699
شرف 2699
الإيرانية 2698
باط 2698
بريطانية 2698
سليم 2697
ضر@@ 2695
عمال 2695
الخطوط 2694
مبر@@ 2694
198@@ 2693
رسول 2693
نشأت 2693
1914 2692
الكار@@ 2692
يذكر 2692
كه@@ 2691
منة 2691
de 2690
لتحقيق 2690
والتر@@ 2689
الأصغر 2688
الكبد 2688
بنك 2688
الفلسطيني 2687
ذاته 2687
وهما 2686
يشكل 2686
ادها 2684
سميت 2683
التركيب 2682
التوالي 2682
سبي@@ 2682
فلا 2682
كيين 2682
الف 2681
نمط 2681
قض@@ 2679
المفتوحة 2678
رسوم 2677
ويت 2676
طفل 2674
وأس@@ 2674
البحوث 2673
التربية 2673
المتوقع 2673
تنا@@ 2673
الفردية 2672
اتا 2671
عربية 2671
الإجمالي 2669
تتطلب 2669
سابقة 2669
فاً 2669
قته 2668
الذهبية 2667
تيك 2667
كوك@@ 2667
لأي 2667
قمة 2664
كوفيد 2664
بيئة 2663
تؤثر 2663
النص 2662
زار 2662
المواطنين 2661
الهي@@ 2661
لعدة 2661
ويلسون 2660
أشار 2658
بدلا 2658
بمعنى 2658
المرة 2656
مام 2654
1926 2653
الكشف 2653
باعتباره 2653
سكو 2653
الجبال 2652
جاب@@ 2652
ارين 2651
عائ@@ 2651
التربة 2650
الفكرة 2650
للق@@ 2650
أبحاث 2648
زه 2647
شف@@ 2647
عباس 2647
فته 2647
نشأ 2647
تقول 2645
وزي@@ 2645
العلامة 2644
دته 2643
ومات 2643
اللبنانية 2642
داي 2642
لد 2642
9@@ 2641
7م 2640
اش 2639
البرا@@ 2639
الحيوان 2639
جام@@ 2639
مير@@ 2639
المعارضة 2638
الصناعة 2636
فق 2636
a 2635
زت 2635
حينها 2634
الملعب 2633
بوا@@ 2632
فرصة 2632
نتج 2630
النرويج 2627
مماثلة 2627
التشغيل 2626
75 2625
اليومية 2625
مؤسس 2624
الفل@@ 2622
التف@@ 2620
المصدر 2620
الأفكار 2619
النبات 2619
8م 2617
الجيل 2617
الكندية 2617
ذكرت 2617
سابقًا 2617
مبار@@ 2617
مكافحة 2617
فضل 2616
الهادئ 2613
طًا 2613
الآسيوية 2612
الإجراءات 2611
يسبب 2610
السلوك 2608
تقليل 2608
1912 2607
ّي 2607
الأمور 2605
الكون 2604
فعالية 2604
جورجيا 2602
ريو 2602
علامات 2602
شد 2601
وأكثر 2601
وكل 2601
توأمة 2600
وره 2600
هند@@ 2599
الصحف 2598
إقامة 2597
الحسين 2596
المخت@@ 2596
مشاريع 2596
وزراء 2596
إج@@ 2595
جنود 2595
يرا@@ 2595
أشخاص 2594
قوي 2594
موق@@ 2594
وعي 2594
المشاكل 2593
بث 2592
تبادل 2591
وتكون 2591
عظ@@ 2590
للدولة 2590
الخلفية 2588
توفيت 2587
شديدة 2586
رائ@@ 2584
يحصل 2584
كيم 2583
مساحتها 2583
الأص@@ 2582
زعيم 2582
إشارة 2580
سف@@ 2580
الأك@@ 2578
العرش 2578
تزيد 2577
هيل 2577
الذاكرة 2576
الصي@@ 2576
الطوارئ 2576
طبيعية 2576
قالت 2576
وايت 2575
قري@@ 2574
12@@ 2572
التلفزيون 2571
كش@@ 2571
بُ@@ 2570
معرض 2569
الأدلة 2568
الحروب 2568
ّى 2567
الأرضية 2566
المحتمل 2566
توس@@ 2566
روز 2563
فحص 2561
ويك@@ 2561
الت 2560
التحليل 2560
فمن 2560
مغنية 2560
أعداد 2559
أكد 2559
ائل 2559
المقاطعات 2559
الفضائية 2558
ينز 2558
عرفت 2557
هوكي 2557
ليف 2555
0م 2554
ذك@@ 2554
شهرة 2553
الكهرباء 2550
الاختبار 2548
برغ 2548
أحيانًا 2547
العضوية 2547
دتها 2547
درو@@ 2547
الأيام 2545
ضرب 2545
جيدة 2544
شير 2544
الترا@@ 2543
شرح 2543
قِبل 2543
أوت@@ 2542
الكتلة 2542
زان 2542
زر 2541
كس@@ 2540
ريم 2539
يتطلب 2539
السيدة 2538
34 2537
بلد 2537
بيلي 2537
الخط@@ 2536
قادرة 2536
5م 2534
إتش 2534
الكلي 2534
المجالات 2534
مى 2534
الجائزة 2533
تمث@@ 2533
كاي@@ 2532
لنا 2530
الغابات 2529
الور@@ 2529
فرنسية 2529
متعدد 2527
إرسال 2526
لإنتاج 2525
ومؤ@@ 2525
الرياض 2524
تشخيص 2524
التركي 2523
مسابقة 2523
الغير 2522
ربط 2522
6م 2521
William 2521
الشع@@ 2521
الليبرالي 2521
الوفاة 2521
ظه@@ 2521
الرباط 2520
وفاز 2520
3م 2519
التكنولوجيا 2519
حدثت 2519
P@@ 2518
أولئك 2517
بلاده 2516
سبع 2515
وإي@@ 2515
وطنية 2515
اضطراب 2513
المهني 2513
كريس 2513
مخرج 2513
عادت 2512
للنساء 2512
والمح@@ 2512
اختياره 2511
حقيقة 2511
رر 2511
الأشياء 2510
صندوق 2510
الوا@@ 2509
لتكون 2508
موس 2508
السير 2507
لمح@@ 2507
الجهة 2506
الرئاسية 2506
التحالف 2505
الحاسوب 2505
مبدأ 2505
مقاطعات 2505
عته 2504
196@@ 2503
اقترح 2503
ماي@@ 2503
الاشتراكي 2502
سيتم 2501
كلو@@ 2501
شا 2500
يلا 2500
الرأي 2499
السيرة 2499
مغني 2499
فاء 2498
غزة 2496
كيلو 2496
يختلف 2495
B@@ 2493
آلة 2493
ضت 2493
ليبيا 2492
نس 2492
المركبات 2491
بجانب 2491
سيس 2491
عى 2491
أوغ@@ 2490
معنى 2490
بدور 2488
زراعة 2488
شرا@@ 2488
عار@@ 2488
أستاذ 2487
الألمان 2487
طائرات 2487
يقارب 2487
بال 2486
سكنية 2486
صُ@@ 2486
والتح@@ 2486
اللاحقة 2483
تشيلي 2483
زر@@ 2483
نجوم 2482
هية 2482
الاهتمام 2481
دانيال 2480
لدعم 2480
رغ@@ 2478
التراث 2476
تصنيع 2476
تقريباً 2476
عمه 2476
الات@@ 2475
الاعتراف 2475
حيل 2475
نص 2473
السادسة 2472
المناعة 2471
أساليب 2470
طها 2470
مقدمة 2470
الأسبوع 2469
الإل@@ 2469
مؤسسات 2468
الحقيقية 2463
وبعدها 2463
برشلونة 2462
قضاء 2461
القراءة 2460
بحرية 2460
36 2459
السن 2459
دورًا 2458
ريض 2458
السرعة 2457
الطبيب 2455
زالت 2455
197@@ 2454
لـ@@ 2454
كلارك 2453
أنشطة 2451
القنيطرة 2451
المؤرخ 2451
تال 2451
دري 2451
يرتبط 2451
تكلفة 2450
H@@ 2449
اللاعبين 2449
والمعلومات 2449
وعادة 2448
تتعلق 2447
حديقة 2447
علمية 2447
اني@@ 2446
سلم 2446
سورية 2446
هج@@ 2446
يران 2446
N@@ 2445
التقدم 2445
اء@@ 2444
الفردي 2444
بأي 2444
جم@@ 2444
الأدنى 2442
تقدير 2442
كثيرا 2440
إندونيسيا 2439
التفاعل 2439
المضادة 2439
بوسطن 2439
الأب 2438
فريدريك 2438
التغذية 2437
مبي@@ 2437
ونيا 2436
يكية 2435
التدريس 2433
قاب@@ 2433
وأُ@@ 2433
تقارير 2432
ءات 2431
المساواة 2431
حفل 2431
لنادي 2431
المار@@ 2430
وليام 2430
الأولي 2429
الرومان 2429
الضفة 2429
جب@@ 2429
الممتاز 2428
ثابت 2428
والرابعة 2427
بوجود 2426
القصيرة 2425
اهتمام 2425
الموضوع 2424
البقاء 2423
الشهير 2423
امين 2423
هيكل 2423
الدر@@ 2422
السطح 2421
الظ@@ 2421
سويسرا 2421
D@@ 2420
الأمة 2420
الصناعي 2420
موقف 2420
واضح 2419
الوظائف 2418
برة 2417
هب 2417
أسفل 2416
كلم 2416
يرية 2416
ً@@ 2416
اسكتلندا 2415
الأغاني 2415
وأنه 2411
4م 2410
سالم 2410
قديمة 2410
اسية 2409
رود 2409
مالي 2409
بلغ@@ 2408
رسمي 2407
منهما 2407
37 2406
ويعد 2406
الجماعة 2405
حظر 2404
الأشعة 2402
الإسكندرية 2402
نيسان 2402
واضحة 2400
عمار 2399
كونه 2399
لأكثر 2399
هدفًا 2399
يول@@ 2399
القي@@ 2398
عازف 2398
نسب 2398
شبكات 2396
الطرف 2395
تصدر 2395
مقاطعه 2395
هاري 2394
اجتماع 2393
اشتهر 2393
السوداء 2393
تشار@@ 2393
} 2392
شديد 2392
بالش@@ 2391
فقة 2391
حام@@ 2390
عمو@@ 2390
فلي@@ 2390
صد 2389
هتلر 2389
يتميز 2389
التفكير 2388
الابن 2387
الممثل 2387
طلا@@ 2387
وظ@@ 2387
الاش@@ 2386
بمع@@ 2385
قابلة 2384
لغات 2384
ورات 2384
سوء 2383
كلمات 2383
التج@@ 2382
ولت 2382
الليل 2380
المشترك 2380
قوا@@ 2380
دوق 2378
وقة 2377
ضع 2376
9م 2375
1910 2374
الباب 2374
دولارًا 2374
رسميًا 2374
شت@@ 2373
ملكية 2373
يث@@ 2373
الأموال 2372
تمتد 2372
كتبت 2372
إيجابية 2371
اور@@ 2370
والستين 2370
مري 2367
ريًا 2366
الإقليمية 2365
رم 2365
زب@@ 2364
قراءة 2363
James 2362
الديني 2362
جندي 2362
حركات 2362
الشؤون 2361
قاضي 2361
48 2360
الأصوات 2360
عمرو 2360
قصص 2360
ورها 2360
أمي@@ 2359
الوعي 2359
منظمات 2359
نج 2359
هُ@@ 2358
يته 2357
الكي@@ 2356
مساع@@ 2356
باه@@ 2355
مساعد 2355
لاحقا 2354
الماجستير 2353
المشاريع 2353
الوجه 2353
نيل 2353
الحلفاء 2352
الحلقة 2352
الطويل 2352
تلفزيوني 2352
اءات 2351
اجتماعية 2351
الحدث 2351
مراجعة 2350
تارودانت 2349
صن@@ 2349
كَ@@ 2349
نًا 2349
1915 2348
الجامعي 2348
الضرائب 2347
عمرها 2347
ربع 2346
الدنمارك 2345
جوا@@ 2345
رمضان 2345
كمال 2345
منصبه 2345
والتر 2345
غيرها 2344
الموجود 2342
C@@ 2340
التشخيص 2338
غالباً 2338
الشتاء 2337
النيل 2337
سلامة 2336
فإنها 2335
تشبه 2334
150 2333
التيار 2333
ماساتشوستس 2332
المقام 2331
حج@@ 2331
فيس 2331
البروتين 2330
الجزر 2330
جاكسون 2330
خفض 2330
التصنيف 2329
تبا@@ 2329
ذه@@ 2329
كنت 2328
كونها 2328
لاك 2328
C 2327
الجزائري 2327
مقبرة 2327
أشعة 2326
الدخل 2326
الرسوم 2326
تجارب 2326
جبهة 2326
سيرة 2326
آذار 2324
الكنائس 2324
ةٌ 2324
لتصبح 2324
النمط 2323
سلا 2323
التأ@@ 2322
طراز 2322
فترات 2322
أساسية 2321
اقة 2321
جاءت 2321
للولايات 2321
نوا@@ 2321
أساس@@ 2320
اعتبارًا 2318
البحري 2318
وخسر 2318
التنظيم 2317
مرتبطة 2316
جُ@@ 2315
لدراسة 2315
الخصائص 2314
الكلمات 2312
بسهولة 2312
بنتيجة 2312
الذهبي 2311
المدير 2310
الموافقة 2310
55 2309
بالغ@@ 2309
نار@@ 2308
الشري@@ 2307
جهود 2307
تدعى 2305
فع 2305
العمارة 2304
الكويتي 2304
بقوة 2304
نبات 2304
يرات 2304
الأطراف 2303
المقدسة 2303
طبيعي 2303
مز 2303
مسي@@ 2303
لمنع 2302
دوا@@ 2301
وتن@@ 2301
ورغم 2301
الياباني 2300
أدوات 2299
الانتقال 2299
المحافظين 2299
الملح@@ 2299
ديان 2299
لأفضل 2299
دائ@@ 2298
بلي 2297
ريان 2297
قط 2297
المعايير 2296
ارض 2295
الصيف 2295
صنعاء 2295
واحدًا 2295
أسابيع 2293
راس 2293
المغربي 2292
بح 2292
عائلته 2292
اور 2291
فلوريدا 2291
المعالجة 2290
ينها 2289
38 2288
العضلات 2288
ادر 2287
بسي@@ 2287
محطات 2287
ألبرت 2286
ابها 2286
صور@@ 2286
الشريف 2285
لإعادة 2285
ائهم 2284
النه@@ 2282
اتخاذ 2281
البريد 2281
حضر 2281
فاق 2281
مسألة 2281
وريا 2281
الكر@@ 2280
عضوا 2280
الذهب 2277
النصوص 2277
الفيدرالية 2276
الكلاسيكية 2276
وج 2276
اكي 2275
زون 2275
سرية 2275
شراء 2275
قلة 2275
أين 2274
البكالوريوس 2274
الموا@@ 2274
غادر 2274
نور 2274
تايلور 2273
رس 2273
سجلت 2273
لله@@ 2273
والز@@ 2272
تماما 2271
ثالث 2270
هونغ 2270
عتها 2269
للحزب 2269
ومنتخب 2269
افتتاح 2268
التخطيط 2267
تخصص 2267
النقاد 2266
حت@@ 2265
لائ@@ 2265
والتع@@ 2265
الأردنية 2264
الغلاف 2264
ّا 2264
اسة 2263
تقد@@ 2262
إثر 2261
شاه 2261
ليين 2260
إس@@ 2259
البنك 2259
للرجال 2259
أوس@@ 2257
سطات 2257
محلية 2257
غاز 2256
ويقع 2256
يفة 2256
شخص@@ 2255
وتر 2254
والدته 2253
صب 2252
زاد 2251
طُ@@ 2251
يور@@ 2251
الصلة 2250
رِ@@ 2249
شية 2249
فيينا 2249
بيات 2248
خلاف 2248
O@@ 2247
الغزو 2247
الأمطار 2246
الجو 2246
إجراءات 2245
الكيمياء 2245
تطبيقات 2245
وبر@@ 2243
الجامعية 2242
القتل 2242
المسيح 2242
النصر 2242
الهوية 2242
وبدأت 2242
وها 2242
2021 2241
لاف 2241
B 2240
أمثلة 2240
أقسام 2239
الناتجة 2239
ڤ@@ 2239
الأور@@ 2238
ة- 2238
ثان@@ 2238
قون 2238
كسي@@ 2238
أرسل 2237
المبكر 2237
التاريخي 2235
رى 2235
1916 2234
y 2234
تصف 2234
نماذج 2234
الأجنبية 2233
1913 2231
المشكلة 2231
بلدان 2231
تتألف 2231
دينية 2231
رئيسًا 2231
ناً 2231
آدم 2230
وكي@@ 2230
المكتب 2229
عالمية 2229
مصنع 2229
سلبية 2228
اتصال 2227
بورغ 2227
وبية 2227
تعليمه 2226
كانا 2226
اعتزل 2225
العاملين 2225
وعن 2225
ونتيجة 2225
الكثافة 2224
بجائزة 2224
تمر 2224
عودة 2224
إح@@ 2223
روك 2222
مؤشر 2221
الأنسجة 2220
دوره 2220
فعل@@ 2220
أض@@ 2219
مشتركة 2219
الابتدائية 2217
تابع 2217
E@@ 2216
تات 2216
سابقا 2216
لاحقاً 2216
مضرب 2216
موضع 2216
أخيه 2215
السوفيتية 2214
ديين 2214
زاوية 2214
ومية 2214
يعقوب 2214
عرا@@ 2213
للش@@ 2212
خت 2211
فيلادلفيا 2211
بلقب 2210
وجيزة 2210
الهيكل 2208
التحقيق 2207
سها 2207
أت 2206
الرئة 2206
ميد@@ 2206
بعده 2205
مرت 2204
اتفاق 2203
الجميع 2203
بقايا 2203
قررت 2203
وفة 2203
الصدر 2202
ولهم 2202
يخ 2202
استح@@ 2201
عدا 2201
وضعت 2201
العام@@ 2200
درج 2199
للمركز 2199
ميد 2199
الخليفة 2198
هزيمة 2198
والعديد 2198
أندية 2197
الموافق 2196
بمساعدة 2196
جز 2195
دمج 2195
محدودة 2195
وعضو 2195
amp 2194
تبعد 2193
تحالف 2193
للمدينة 2193
195@@ 2192
انس 2192
ثلاثي 2192
إكس 2191
ممن 2191
يمي@@ 2191
الباحثين 2190
القيم 2190
1908 2189
42 2189
النتيجة 2189
مترو 2189
ازات 2188
الفنانين 2188
3.@@ 2187
إير@@ 2187
المستقلة 2187
النجم 2187
تعيينه 2187
خص 2186
أسعار 2185
النجاح 2185
قانونية 2185
المجر 2184
باري 2184
منت 2184
هِ 2184
يوفر 2184
بلجيكا 2183
النهضة 2182
فيصل 2182
مكناس 2182
أدلة 2181
سياسات 2181
السائل 2179
السفلي 2178
ماي 2178
دام 2177
للمرأة 2177
ياس 2177
الاتحادية 2176
الكمبيوتر 2176
المخاطر 2176
نال 2174
الأشجار 2173
البلا@@ 2172
المنازل 2172
المجلة 2171
الأجزاء 2170
المسيحي 2169
آلية 2168
لحقوق 2168
اعتبار 2167
طار 2167
ألمانية 2166
الفكر 2166
ثنائية 2166
فون@@ 2166
كها 2166
كوس@@ 2165
لج@@ 2164
مقياس 2164
حاجة 2163
مستقل 2163
وتعد 2162
انق@@ 2161
تعرضت 2161
الطويلة 2160
اليا 2160
جرائم 2160
فريد 2160
يعاني 2160
متق@@ 2159
وفقاً 2159
الرسالة 2157
العاشر 2157
تساعد 2157
الأحزاب 2156
ولل@@ 2156
الأخبار 2155
اللقب 2155
النازية 2154
الوج@@ 2154
جسر 2154
فاي@@ 2154
المتعددة 2153
16@@ 2152
الأسواق 2152
الترتيب 2152
سرا@@ 2152
سمة 2152
يونغ 2152
مئات 2151
مشترك 2151
ضوء 2150
كب 2149
زيل 2148
القاضية 2147
حكومية 2147
مبادئ 2147
ومو@@ 2147
L4 2146
ضباط 2145
للقوات 2145
هد@@ 2145
الكحول 2144
ساف@@ 2144
فنان 2144
بعثة 2143
قاً 2143
15@@ 2142
الشهيرة 2142
الفرعية 2142
القارة 2142
سافر 2142
للحكومة 2142
معبد 2142
باك@@ 2141
كثيرًا 2141
تجارة 2140
مكان@@ 2140
وكتب 2140
المخرج 2139
بحوالي 2138
والمؤ@@ 2138
وسيلة 2138
سلوك 2137
منز@@ 2137
الاق@@ 2136
الدراسية 2136
كافية 2136
لوي 2136
أنطونيو 2135
تزوجت 2135
ديات 2135
معًا 2135
سرعان 2134
كارلوس 2134
مئوية 2134
برية 2133
مائة 2132
وتي 2132
الأطلسي 2131
مند@@ 2131
ميات 2131
نائ@@ 2131
تبين 2130
O 2128
وبسبب 2127
ونها 2127
تستطيع 2126
سه@@ 2126
شين@@ 2126
المجموع 2125
حجر 2125
الرياضة 2124
الكاملة 2124
الإذاعة 2123
العظام 2123
وض 2123
وعبد 2123
مقابلة 2122
جائحة 2121
متن 2121
ويد 2121
اتفاقيات 2120
تايمز 2120
الطبقات 2119
أطلقت 2118
أندرو 2118
المهام 2118
دولي 2118
طت 2118
آخرون 2117
كبيرا 2117
ألكسندر 2115
نظرة 2114
استقلال 2113
الأقصى 2113
نساء 2113
سهل 2112
غالبية 2112
كوكب 2112
إدخال 2111
التطبيقات 2111
القادر 2111
جاي 2111
عنصر 2111
فوا 2111
ونه 2111
والذين 2110
العدالة 2109
القصص 2108
صعوبة 2108
صفحة 2108
الدواء 2107
ق.م 2107
مبكر 2107
أقرب 2106
ألا 2106
المسي@@ 2106
سى 2106
كالي@@ 2106
مانشستر 2106
يقل 2106
الأشكال 2105
جول@@ 2105
طلاب 2105
التركيبة 2104
الإداري 2102
الدوائر 2102
المجمع 2102
فتاة 2102
قدره 2102
T@@ 2101
السكنية 2101
العقل 2101
علان 2101
مقرها 2101
الإصلاح 2100
تاح 2100
فه@@ 2100
التونسي 2098
الرقمية 2098
جنيه 2098
لتون 2098
ماك 2098
إز@@ 2097
الجماعية 2096
الجميلة 2096
بابا 2096
تاي@@ 2096
دائمًا 2096
ومحمد 2095
ابل 2094
روي@@ 2094
منظ@@ 2094
والي 2094
ورم 2094
الأبعاد 2093
شيخ 2093
الجر@@ 2092
رئ@@ 2092
الوادي 2091
بيك 2091
فاس@@ 2091
الصوتية 2090
ومخرج 2090
18@@ 2089
الملا@@ 2089
فات@@ 2089
تنتمي 2088
اعتماد 2087
الأق@@ 2087
ليك 2087
إليزابيث 2086
محدد 2086
اقتصاد 2085
لحماية 2085
افي 2084
القائم 2084
ستخد@@ 2084
الرحم 2083
السياسات 2083
بيرغ 2083
يُعتبر 2083
سجن 2081
يخت@@ 2081
سانتا 2080
الخي@@ 2079
اللواء 2079
حققت 2079
قرا@@ 2079
وصلات 2079
التعرض 2077
اقات 2076
الأول@@ 2076
الأي@@ 2076
بقاء 2076
يتع@@ 2076
1911 2075
اكس 2075
الجماعات 2075
القضائية 2074
قاموا 2074
M@@ 2073
ترا 2073
جَ@@ 2073
ديه 2073
إخ@@ 2072
للعديد 2072
للكريكت 2072
يؤثر 2072
إعداد 2071
المكتبة 2071
طبقات 2071
° 2070
إغلاق 2070
قيين 2070
محركات 2070
مركبات 2070
ةُ 2069
جريمة 2069
17@@ 2068
بعين 2068
طا 2068
حديث 2067
G@@ 2066
السينمائي 2066
هور@@ 2066
وعالم 2066
64 2065
المتحركة 2065
لط@@ 2064
لعلاج 2064
العدوى 2063
كيل 2063
1905 2062
الفيزياء 2062
دعى 2061
والولايات 2060
الحيوي 2059
فيتش 2059
ناب@@ 2059
البروتينات 2058
الأكسجين 2057
باع@@ 2057
بدي@@ 2057
بفضل 2057
عقود 2057
اليمين 2056
تكنولوجيا 2056
حفظ 2055
زها 2055
منش@@ 2055
وثيقة 2055
F@@ 2054
الحرارية 2054
ولات 2054
الصخور 2053
جامعي 2053
ناش@@ 2053
استجابة 2052
الأمين 2051
موريس 2051
ائف 2050
الأفريقي 2050
هود 2050
أخبار 2049
للإحصاء 2049
موافقة 2049
وبحلول 2048
توج@@ 2047
عرض@@ 2046
بسيطة 2045
توس 2045
موسيقي 2045
ميين 2045
صات 2044
والاجتماعية 2044
السيارة 2043
الأفارقة 2041
للجيش 2041
مني 2041
نط@@ 2041
ولى 2041
الهولندية 2040
جوانب 2040
يساعد 2040
تحصل 2039
مايك 2039
منا 2039
يره 2039
ينت 2039
البالغ 2038
الثدي 2038
سلط@@ 2038
ائن 2037
تسعة 2037
سات@@ 2037
فنلندا 2036
كيت 2035
يدة 2035
المساحة 2034
صر@@ 2034
للطاقة 2033
20@@ 2032
اطة 2032
فيكتوريا 2032
نصر 2032
يقال 2031
هندسة 2030
سلي 2028
سيرته 2028
لبناء 2028
ملوك 2028
القاطنين 2027
قوم 2027
السود 2026
والدتها 2026
المركبة 2025
أية 2024
القطع 2024
المستمر 2024
ساي@@ 2024
احتلال 2023
تؤ@@ 2021
للكتلة 2021
النقد 2020
جت 2020
رق 2020
التغيير 2019
بدلًا 2019
تجميع 2019
صار 2019
أراد 2018
مركبة 2018
أعد@@ 2017
السلع 2016
قاسم 2016
بروتين 2015
نيات 2015
الفرنسيين 2014
الممثلة 2014
جيب 2014
احة 2013
التقارير 2013
الصيد 2013
مم@@ 2013
باك 2012
توني 2012
وإعادة 2012
يرًا 2012
إم@@ 2011
التحول 2011
الدفع 2011
توق@@ 2010
طيلة 2010
عان 2010
غضون 2010
لواء 2010
باح@@ 2009
جعفر 2009
دعا 2009
العدل 2008
انتخاب 2008
رأى 2008
المقابل 2007
ربي 2007
يشبه 2007
1.@@ 2006
أفغانستان 2006
المقرر 2006
ديك@@ 2006
أوهايو 2005
الأزرق 2005
صل@@ 2005
وُلد 2005
1909 2004
السكك 2004
زيارة 2004
تضمنت 2003
العادية 2002
تميز 2002
شيوعًا 2002
لد@@ 2002
وند 2002
يط@@ 2002
التنفس 2001
ودي 2001
جهات 2000
هات@@ 2000
وحيد 2000
الرسم 1999
باتجاه 1999
شمس 1999
أقوى 1997
كمة 1997
يتمكن 1997
اوا 1996
منفصلة 1996
يشار 1996
صباح 1995
أفكار 1994
الاتجاه 1994
الغذائي 1994
تأتي 1994
خلي@@ 1994
وبشكل 1994
يتح@@ 1994
بوت 1993
غوا@@ 1993
مود 1993
مري@@ 1992
نباتي 1992
كميات 1990
الاستعمار 1989
الرياح 1989
دعوة 1989
سار 1989
مرضى 1989
اول@@ 1987
تراجع 1987
ثا 1987
دج 1987
وكما 1987
شاه@@ 1986
الواحدة 1985
الوفيات 1985
جذب 1984
زيت 1984
ميلر 1984
تاريخها 1983
تحتاج 1983
ربيع 1983
عرضة 1983
الشائعة 1982
قابل 1982
أدي@@ 1981
بالب@@ 1981
بالضربة 1981
مناسبة 1981
هارفارد 1981
يمتد 1981
التحتية 1980
شارة 1980
فال@@ 1980
اربة 1979
التعرف 1979
بدرجة 1979
موض@@ 1979
يومًا 1979
روم 1978
شخصًا 1978
ستيوارت 1977
فعال 1977
الخضراء 1976
ّع 1976
S@@ 1975
القاضي 1975
صفوف 1975
صي 1975
كيلي 1975
لولاية 1975
والعمل 1971
39 1970
إله 1970
الأث@@ 1970
القواعد 1970
بام@@ 1970
قتها 1970
معارضة 1970
أنشأ 1969
ترض 1969
تركي@@ 1968
زن@@ 1967
أنثى 1966
دورات 1966
صفة 1966
فض 1966
يهدف 1966
الحاج 1965
بروس 1965
مرو@@ 1965
طع 1964
قع 1964
نجح 1964
يكو 1964
فيف 1963
وعة 1963
الصرف 1962
الشعوب 1961
المعادن 1961
خز@@ 1961
روايات 1961
مكونات 1961
الأجسام 1960
يجري 1960
مثلت 1959
القليل 1958
توجيه 1958
لته 1958
الحر 1957
السابعة 1956
العلامات 1956
ثية 1956
الكونغرس 1955
التجربة 1954
أصوات 1953
إع@@ 1953
ئية 1953
ثت 1953
49 1952
المتوسطة 1952
تبر@@ 1952
تشارك 1952
ثه 1952
250 1951
رياضة 1951
أولاً 1950
الجه@@ 1950
عامر 1950
طان 1949
فردي 1949
شت 1948
طيع 1948
الأسماء 1947
الإقليم 1947
البوذية 1947
جع@@ 1946
صحية 1946
أكدت 1945
توحيد 1945
يسجل 1945
الويب 1944
ويه 1944
حك@@ 1943
مشار@@ 1943
تسع 1942
ثلاثية 1942
ندر 1942
بالتعاون 1941
رومانيا 1941
1906 1939
غلا@@ 1939
كيب 1939
وتي@@ 1939
القص@@ 1938
جماعات 1938
استعمال 1937
المراكز 1937
حدد 1937
خطاب 1937
ظلت 1937
المنخفضة 1936
صرف 1936
فيهم 1936
وقبل 1936
لتطوير 1935
نب 1935
اليمنى 1934
توم@@ 1934
بدل 1933
ضيق 1933
قول 1932
E 1931
المفهوم 1931
عددًا 1931
أثار 1930
التل@@ 1930
السلاح 1930
قيقة 1930
George 1929
آلات 1929
التلفزيونية 1928
شملت 1928
طبية 1928
فروع 1928
للاتحاد 1928
الألوان 1927
التدخل 1927
التعريف 1927
عمق 1927
وأص@@ 1927
دائما 1926
زرع 1926
شجرة 1926
يار 1926
الصح@@ 1925
المهاجرين 1925
لمجموعة 1925
يحاول 1925
إيطالي 1924
المحليين 1924
سلطات 1924
مجرة 1924
أزمة 1923
الآداب 1923
دوب@@ 1923
دود 1923
سفن 1923
يتها 1923
افع 1922
ستكون 1922
وحد@@ 1922
شائعة 1921
عالي 1921
R@@ 1920
السماح 1920
العبيد 1920
الغرض 1920
المشاة 1920
فيتنام 1920
كوف 1920
لدرجة 1920
وجنوب 1920
جاه@@ 1918
السياحة 1917
إعطاء 1916
الصوديوم 1916
بعدم 1916
واجهة 1916
استعادة 1915
التسويق 1915
كا@@ 1915
كلما 1914
واجه 1913
والمرا@@ 1913
ارو 1912
غن 1912
الني@@ 1911
دائم 1911
ستيف 1911
أندرسون 1910
الانتشار 1910
البور@@ 1910
الطالب 1910
العدو 1910
تدري@@ 1910
الأد@@ 1909
حافظ 1909
حديثة 1909
الجينات 1908
انيين 1908
600 1907
اهد 1907
بالخ@@ 1907
ساح@@ 1907
وزيادة 1907
أنماط 1906
إنتاجه 1905
الداخل 1905
الزاوية 1905
السباق 1905
الاعتبار 1904
بعيد 1904
ويجب 1904
الإله 1903
لاز@@ 1903
وأر@@ 1903
عرضه 1902
الأدوات 1901
الحاضر 1901
الخيرية 1901
الموظفين 1901
والأربعين 1901
المقدمة 1900
تدعم 1900
سير@@ 1900
محاولات 1900
عدن 1899
وجه@@ 1899
وست 1899
تردد 1898
مهنة 1898
طى 1897
قصيدة 1897
أبيض 1896
السريرية 1896
المائة 1896
يورو 1896
ولون 1895
اكا 1894
فلسفة 1894
لإنشاء 1894
لتلك 1894
لمدينة 1894
لُ@@ 1894
L@@ 1893
الاتفاق 1893
الكلام 1893
بصفة 1892
رْ@@ 1892
شون 1892
مرك@@ 1892
اليهودي 1891
تموز 1891
شان 1891
لوف 1891
اشي 1889
الحضرية 1889
الكل@@ 1889
آب 1888
المسافة 1888
علمي 1888
بالد@@ 1887
موج@@ 1887
الاستجابة 1886
الفرا@@ 1886
ترجم 1886
راج@@ 1886
اتٍ 1885
الشديد 1885
ضه 1885
1907 1883
المغناطيسي 1883
غول@@ 1883
مخطط 1882
نيس 1882
الجناح 1880
بشكلٍ 1880
تيم 1880
— 1880
أوكرانيا 1879
والبي@@ 1879
يمتلك 1879
ثار 1878
جيمي 1878
حصار 1878
الفم 1877
دست@@ 1877
مهام 1877
1900 1876
1@@ 1876
ولوجي 1876
يصف 1876
يُعد 1876
السماء 1875
بلي@@ 1875
مسقط 1875
أنشأت 1874
القريبة 1874
مانويل 1874
مسيرة 1874
أسماك 1873
أونتاريو 1873
باتريك 1873
تعاون 1873
حزيران 1873
المحاكم 1872
المعدنية 1872
فعلى 1872
ءً 1871
الحركات 1871
زمة 1871
فاف 1870
منصور 1870
أرا@@ 1869
الجمعة 1869
داخلية 1869
I 1868
41 1867
خطأ 1867
روع 1867
ويب 1867
إث@@ 1866
إمارة 1866
الجودة 1866
المناسبة 1866
مرمى 1866
44 1864
أشجار 1864
الروايات 1864
عك@@ 1864
وجهات 1864
أظهر 1863
النظم 1863
بقيت 1863
التقنيات 1861
الفضل 1861
الإصدار 1860
الكيميائي 1860
طوكيو 1860
95 1859
العملاء 1859
بنفسه 1859
الصعب 1858
أعقاب 1857
تملك 1857
يشارك 1857
الممارسة 1856
دورا 1856
كير 1856
المبادئ 1855
فرص 1855
هري 1855
وته 1855
حرف 1854
شريك 1854
عمدة 1854
المراجع 1853
كريستيان 1853
أسست 1852
تشر 1852
رسائل 1852
مطلع 1852
القادة 1851
اليون 1851
الكهربائي 1850
النقاط 1850
الهاتف 1850
بنحو 1850
كيميائي 1850
ومق@@ 1850
الأندية 1849
سوا 1849
ضخمة 1849
رواد 1848
الفقر 1847
انس@@ 1847
ثبت 1847
كثيراً 1847
مؤلفاته 1847
ولاد 1847
الحراري 1846
الموسيقي 1846
حصن 1846
قرابة 1846
ضع@@ 1845
وتعل@@ 1845
وغالبًا 1845
أيار 1844
التنفيذ 1844
السنين 1844
كتبها 1844
اختلاف 1843
سعى 1843
نسبيًا 1843
نوا 1843
الكون@@ 1842
الهيدروجين 1842
بالعمل 1842
ّب 1842
أعيد 1841
الربيع 1841
المؤلف 1841
بوش 1841
مؤس@@ 1841
1904 1840
اعتق@@ 1840
البيئي 1840
الرئاسة 1840
فضاء 1840
لتها 1840
لعدم 1840
بدوره 1839
تأث@@ 1839
تتمتع 1839
المدرب 1838
مكسيكي 1838
وائ@@ 1838
وعين 1838
الاعتماد 1837
المخدرات 1837
بته 1837
وقية 1837
85 1836
تركيب 1836
حوض 1836
مرش@@ 1836
وذكر 1836
ولهذا 1836
يط 1836
إك@@ 1835
غان@@ 1834
الفيروسات 1833
تبع 1833
ريت 1833
شب@@ 1833
شكلت 1833
قصد 1833
ويع@@ 1833
تحدد 1832
لول 1832
يلة 1832
استمرار 1831
حر 1831
واط 1831
David 1830
عربي 1830
الأوعية 1829
وأول 1829
ريق 1828
فار 1828
وأم@@ 1828
بورت 1827
طري@@ 1827
افات 1826
شروط 1826
الشيء 1825
المنق@@ 1825
دقة 1825
فكانت 1825
خراج 1824
روج 1824
لمجلس 1824
يلي@@ 1824
أعوام 1822
انتهى 1822
حيات 1822
194@@ 1821
الحربية 1821
المشاركين 1821
رح 1821
الاختلافات 1819
تقدر 1819
روسية 1819
قت@@ 1819
56 1818
الشرعية 1818
تيل 1818
خروج 1818
سعر 1818
وتص@@ 1818
التز@@ 1817
دونالد 1817
تيار 1816
إسحاق 1815
الجريمة 1815
المناخية 1815
بوس 1815
فُ@@ 1815
اخر 1814
خسر 1814
خلف@@ 1814
التخ@@ 1813
راف 1813
الآلهة 1812
تطورت 1812
لإدارة 1812
اضطرابات 1811
ضل@@ 1811
للف@@ 1811
مائ@@ 1811
الناصر 1810
الوزير 1810
ميم 1810
كينغ 1809
يدخل 1809
الاختبارات 1808
المب@@ 1808
المحتوى 1808
السع@@ 1807
المسلمون 1807
الهولندي 1807
زوج 1807
47 1806
الجراحة 1806
بمعدل 1806
سيدني 1806
أهمها 1805
المرمى 1805
الذات 1804
ديس 1804
البريطانيين 1803
الترجمة 1803
للمح@@ 1803
الشهر 1802
سياق 1802
شاشة 1802
S 1801
موجود 1801
43 1800
تضمن 1800
توقع 1800
دورها 1800
قاء 1800
مح 1800
انهيار 1798
حدو@@ 1798
نغ 1798
http 1797
اتية 1797
اية 1797
غياب 1797
X 1796
استخد@@ 1796
دن@@ 1796
قيق 1796
للج@@ 1796
للحفاظ 1796
مشابهة 1796
تُعرف 1795
كم@@ 1795
الاستثمار 1794
جاز 1794
صدي@@ 1794
غلي@@ 1794
سري 1792
ضمان 1792
نك@@ 1792
التشريعي 1791
المراحل 1791
A@@ 1790
المعارك 1790
اليه 1790
الأش@@ 1789
المباشرة 1789
سنتين 1789
صلاة 1789
عج@@ 1789
ادين 1788
والسي@@ 1788
يوم@@ 1788
بقيمة 1787
زوج@@ 1787
19@@ 1786
وقوع 1786
حضارة 1785
شف 1785
وعد@@ 1785
ويت@@ 1785
يث 1785
الخمسة 1784
الموج@@ 1784
تُستخدم 1784
راز 1784
عضواً 1784
مكون 1784
الشبكات 1783
ترامب 1783
تقدي@@ 1783
التقرير 1782
المعاصرة 1782
صرح 1782
مشاهدة 1782
والخدمات 1782
أسي@@ 1781
أنشئت 1781
الأسلوب 1781
التك@@ 1781
الريفية 1781
المالي 1781
المور@@ 1781
ثق@@ 1781
محمية 1781
جدول 1780
رياضي 1780
وقيل 1780
الحكومات 1779
تربية 1779
عمة 1779
كور 1779
مصرية 1779
وإن@@ 1779
أل 1778
اريا 1778
المري@@ 1778
الفلبين 1777
علاوة 1777
أولي@@ 1776
ثابتة 1776
جع 1776
حراسة 1776
نيوزلندي 1776
إصلاح 1775
خرجت 1775
وهي@@ 1775
الثقافات 1774
رأسه 1774
رئيسة 1774
ريه 1774
عاد@@ 1774
ابر 1773
المعنى 1773
قطار 1773
إيجاد 1772
كسي 1772
نيت 1772
يء 1772
أوف 1771
خاص@@ 1771
ساع@@ 1771
الأستاذ 1770
رسام 1770
إند@@ 1769
ثانوية 1769
ماكس 1769
نوف@@ 1769
يعطي 1769
الحرس 1768
الحم@@ 1768
الغدة 1768
بعدة 1768
ديث 1768
ديون 1768
متطلبات 1767
وإنما 1767
فإذا 1765
هاد@@ 1765
يتحدث 1765
جراحة 1764
توسيع 1763
افر 1762
المطار 1762
الهم 1762
ليه 1762
واج@@ 1762
D 1761
اون@@ 1761
سول@@ 1761
المكونات 1760
1- 1759
52 1759
كاست@@ 1759
الجامع 1758
الأرثوذكسية 1757
المعمارية 1757
غور 1757
هامة 1757
تنا 1756
حان 1756
شين 1756
كتبه 1756
لاب 1756
ينج 1756
اعتم@@ 1755
سمية 1755
مرتبة 1755
بإنشاء 1754
ميت 1754
الفور 1753
عسك@@ 1753
موسيقية 1753
R 1752
\ 1752
بأن@@ 1752
وليامز 1752
يحتاج 1752
وابن 1751
يده 1751
1901 1750
السك@@ 1750
المحطة 1750
تخزين 1750
Robert 1749
الحضارة 1749
النف@@ 1748
ّف 1748
الانتهاء 1747
القول 1747
الملوك 1747
ديم 1747
53 1746
أعظم 1746
الشخصي 1746
تجاوز 1746
فران@@ 1746
نظرا 1746
إص@@ 1745
المسار 1745
تِ@@ 1745
درست 1745
سيارات 1745
ميدان 1745
أسود 1744
فوز 1744
مأ@@ 1744
مسلم 1744
صنف 1743
لأسباب 1743
أون@@ 1742
التنفيذية 1742
دارة 1742
قم 1742
ديو 1741
ابا 1740
الشريعة 1740
هنالك 1740
46 1739
التقسيم 1739
المخابرات 1739
تبع@@ 1739
طاقم 1739
ومحامي 1739
أنفاق 1738
الخطاب 1738
دنا 1738
لوصف 1738
ووص@@ 1738
حيثُ 1737
منصة 1737
V@@ 1736
غار 1736
لوية 1736
أعمالها 1735
التكلفة 1735
عيين 1735
120 1734
العقلية 1734
للد@@ 1734
أحيانا 1733
الأهمية 1733
النظ@@ 1733
خوا@@ 1733
رض 1733
ندية 1733
يُعتقد 1733
الهجمات 1732
الين 1732
ترك@@ 1732
ديفيس 1732
غون 1732
يعملون 1731
1903 1730
الوكالة 1730
كوت@@ 1730
كيلو@@ 1730
التقى 1729
بيني 1729
العرقي 1728
ذاك 1728
اللاجئين 1727
النسائية 1727
سارة 1727
لتقديم 1727
وقامت 1727
يجيد 1727
يُستخدم 1727
عبيد 1726
لدي@@ 1726
عادل 1725
مقد@@ 1725
أحكام 1724
الجهود 1724
بوب@@ 1724
سعودي 1724
ندا 1724
وأك@@ 1724
يتراوح 1724
أثينا 1723
ئين 1723
اعتبر 1723
رضا 1723
مؤرخ 1723
نع 1723
هاء 1723
ويح@@ 1723
السكر 1722
ءة 1721
القرون 1721
الورم 1721
كفاءة 1721
ثها 1719
وتو 1719
وشي@@ 1719
الصناعات 1718
الموقف 1718
حقيقية 1718
داود 1718
ذاتية 1718
قار@@ 1718
ووضع 1718
أسط@@ 1717
ساو 1717
وارد 1717
54 1716
التقاليد 1716
الك 1716
قضى 1716
يكس 1716
أسبوع 1715
سحب 1715
يمات 1715
أنط@@ 1714
فنية 1714
قى 1714
نيك 1714
والثقافة 1714
وقتها 1714
البق@@ 1713
الجهد 1713
المتاحة 1713
هاب 1713
الاستعمارية 1712
رشيد 1712
شاهد 1712
أخر 1711
الشيوعية 1711
العامل 1711
رين@@ 1711
شام@@ 1711
متوا@@ 1711
الأردني 1710
الدعوة 1710
الصغرى 1710
الفتيات 1710
هوارد 1710
n 1709
استبدال 1709
ذاتها 1709
الأهلي 1708
الشه@@ 1708
مهما 1708
أعط@@ 1707
ارف 1707
تنظ@@ 1707
رته 1707
طف 1707
للإشارة 1707
ليب 1707
محر@@ 1707
مخاطر 1707
نسخ 1707
ومركز 1707
الكاثوليك 1706
المقالات 1706
عضوية 1706
منط@@ 1706
الصيغة 1705
تاد 1705
شُ@@ 1705
ويقول 1705
يتي 1705
صبح 1704
غرين 1704
مسيرتها 1704
‌ 1704
اعدة 1703
المؤرخين 1703
تعالى 1702
صياغة 1702
صية 1702
وسع 1702
القادمة 1701
ذة 1700
رحلات 1700
الحقبة 1699
حضور 1699
دِ@@ 1699
رأي 1699
قانوني 1699
واني 1699
يلية 1699
الأزمة 1698
الدرافت 1698
المتقدمة 1698
باستمرار 1698
ريون 1698
غام@@ 1698
كينيدي 1698
مستقبل 1698
يمه 1698
T 1697
قريبة 1697
أت@@ 1696
الأخ@@ 1696
الماضية 1696
بضعة 1696
ذكره 1696
سيين 1696
وط 1696
الوزارة 1695
حز@@ 1695
قلبية 1695
أمل 1694
إلينوي 1694
تلفزيونية 1694
قوا 1694
موجة 1694
نام@@ 1694
ادو 1693
المنح@@ 1693
معد@@ 1693
ملاحظة 1693
دال 1692
درت 1692
قان 1692
معة 1692
مفتوحة 1692
سح@@ 1691
والتنمية 1691
الزمني 1689
شائع 1689
القرارات 1688
بدورها 1688
بقى 1688
قوس 1688
وتضم 1688
2- 1687
ازي 1687
الموس@@ 1687
يسوع 1687
الألم 1686
النسيج 1686
رؤساء 1686
رايت 1686
الرصاص 1685
طيران 1685
1898 1684
اختبارات 1684
الغر@@ 1684
طل 1684
لزيادة 1684
مخت@@ 1684
الرسائل 1683
أفريقي 1682
الطلبة 1682
كاه@@ 1682
وفيات 1682
باغ@@ 1681
يي 1681
تث@@ 1680
ذها 1680
عض@@ 1680
وحي@@ 1680
النفايات 1679
كله 1679
مدي@@ 1679
أمور 1678
انغ 1678
تحقق 1678
الأف@@ 1677
المتج@@ 1677
النماذج 1677
تغطي 1677
عرب 1677
وإدارة 1677
1902 1676
www.@@ 1676
حلقات 1676
ريل 1676
للط@@ 1676
موظ@@ 1676
المنش@@ 1675
تفوق 1675
تقري@@ 1675
رسميا 1675
ءه 1674
الحشرات 1674
جهد 1674
حس@@ 1674
خلية 1674
المادية 1673
المباريات 1673
ممكن 1673
منخفض 1673
تفاصيل 1672
فرانسيس 1672
الوظيفة 1671
عرضت 1671
الفلك 1670
بنيت 1670
تكاليف 1670
تور 1670
مكانة 1670
إد@@ 1669
الجسيمات 1669
الدع@@ 1669
تأثيرات 1669
فرعية 1669
مقالات 1669
يح 1669
i 1668
الأجانب 1668
الصادر 1668
النص@@ 1668
جًا 1668
يتمتع 1668
أسرع 1667
جدي@@ 1667
شَ@@ 1667
كيك 1667
تمييز 1666
أحمر 1665
اسب 1665
المدر@@ 1664
تجنب 1664
ضحايا 1664
193@@ 1663
آنا 1663
متخصصة 1663
موسمين 1663
وود 1663
المطلوبة 1662
النشر 1662
الوجود 1662
ترى 1662
جميل 1662
حيوان 1662
راج 1662
شرة 1662
والأر@@ 1662
تُعتبر 1661
الأندلس 1660
التطوير 1660
الروح 1660
فعالة 1660
الضباط 1659
عارضة 1659
الشرف 1658
القط@@ 1658
اليوناني 1658
برازيلي 1658
بكلية 1658
ذر@@ 1658
ريح 1658
فني 1658
وعاد 1658
ويعتقد 1658
الشي@@ 1657
عر 1657
الواضح 1656
يأ@@ 1656
الأيمن 1655
دوغلاس 1655
800 1654
روسي 1654
اقتصادية 1653
غاية 1653
لأن@@ 1653
التوجه 1652
تينية 1652
فندق 1652
نحن 1652
الباحثون 1651
ستخدم 1651
وبلغت 1651
وبناء 1651
هجمات 1650
ينين 1650
صراع 1649
الأسد 1648
حصول 1648
to 1647
ارهم 1647
تاريخه 1647
ساء 1647
0@@ 1646
الصلبة 1646
حكمه 1646
عمارة 1646
الأسطول 1645
حلة 1645
عرق 1645
ونشر 1645
L 1644
الملابس 1644
الهامة 1644
تجار 1644
عمومًا 1644
تصور 1643
احتمال 1642
بعث 1642
سًا 1642
التغيرات 1641
المذهب 1641
جواز 1641
قلي@@ 1641
محور 1641
وأستاذ 1641
وسية 1641
ألين 1640
سس 1640
وتسمى 1640
أداة 1639
نسي@@ 1639
نهج 1639
وأه@@ 1639
ارك 1638
السويدية 1638
بنظام 1638
وفرنسا 1638
وير@@ 1638
للتعليم 1637
مغادرة 1637
وتطوير 1637
الين@@ 1636
فيك 1636
مّ@@ 1636
وتست@@ 1636
× 1635
الصباح 1635
بيري@@ 1634
حيوانات 1633
العُ@@ 1632
كاتبة 1632
ماليزيا 1632
وأف@@ 1632
اليسار 1631
عل 1631
الساحلية 1630
العادة 1630
العرقية 1630
فرجينيا 1630
كتي@@ 1630
نيا 1630
51 1629
غير@@ 1629
ئي 1628
البصرة 1628
حينما 1628
ناس@@ 1628
K@@ 1627
وطن 1627
ينظر 1627
جنرال 1626
سيمون 1626
مسؤولية 1626
يملك 1626
توي@@ 1625
فضلاً 1625
84 1624
استث@@ 1624
الثقة 1624
الزيتون 1624
السنوي 1624
كريم 1624
وبا 1624
ائح 1623
حاً 1623
حبي@@ 1623
التأثيرات 1622
الخطة 1622
الأزواج 1621
ذاكرة 1620
للمست@@ 1620
لندي 1620
اعتمد 1619
خطيرة 1619
أوبلاست 1618
تتح@@ 1618
عشرات 1618
ألان 1617
ائيات 1617
الأميرة 1617
تُعد 1617
دوس 1617
زع@@ 1617
المناسب 1616
معا 1616
ألك@@ 1615
اقتر@@ 1615
الاتفاقية 1615
الرؤية 1615
جاني 1615
والثاني 1615
الأدبي 1614
النسبة 1614
تنسيق 1614
داني 1614
فوكس 1614
ابع 1613
ورقة 1613
الدهون 1612
النوم 1612
للوصول 1612
هوب@@ 1612
W@@ 1611
ةَ 1611
تحكم 1611
حادث 1611
رج 1611
لضمان 1611
72 1610
اختراع 1610
الكورية 1610
باد 1610
وضعها 1610
ومر@@ 1610
الكسندر 1609
المحتملة 1609
جمع@@ 1609
كبيراً 1609
هزم 1609
هون@@ 1609
تايوان 1608
سكر 1608
قرارات 1608
لْ@@ 1608
مجتم@@ 1608
بورن 1607
للبحث 1607
يتم@@ 1607
البيولوجية 1606
الحادث 1606
تيس 1606
داع 1606
الأعصاب 1605
الجدد 1605
زيا 1605
نك 1605
ريش 1604
يريد 1604
القطب 1603
رفضت 1603
سريع 1603
لنظام 1603
اقتراح 1602
المخطط 1602
الى 1602
تدريس 1602
مسؤ@@ 1602
الجهات 1601
لفت 1601
on 1600
بيكر 1600
خير 1600
موقعها 1600
أحدث 1599
اجة 1599
المغول 1599
بارزة 1599
دوائر 1599
ميل@@ 1599
وص 1599
يرها 1599
إنهاء 1598
الب 1598
الذكاء 1598
تمويل 1598
لعدد 1598
ماير 1598
باني 1597
تواجد 1597
ولما 1597
تخطيط 1596
لنقل 1596
موسي@@ 1596
هارت 1596
ببناء 1595
حديد 1595
دش@@ 1595
رت@@ 1595
روض 1595
يكفي 1595
NGC 1594
أحياء 1594
المحددة 1594
المذكورة 1594
تبدو 1594
1890 1593
إلقاء 1593
ازي@@ 1593
البث 1593
المهندس 1593
بمنطقة 1593
بند@@ 1593
مكونة 1593
بتقديم 1592
جلي@@ 1592
سال 1592
غم 1592
غيره 1592
ملي@@ 1592
ويستخدم 1592
1899 1591
ارس 1591
الدوا@@ 1591
تجديد 1591
كليات 1591
العمرية 1590
كز 1590
مركزية 1590
عارض 1589
بلة 1588
عودته 1588
التط@@ 1587
الته 1587
السرية 1587
انتشرت 1587
يحدد 1587
نظريات 1586
كبرى 1585
أوراق 1584
الاً 1584
المناصب 1584
بصفته 1584
بى 1584
توقيع 1584
شل 1584
وأحد 1584
أدوار 1583
الحديقة 1583
كوا@@ 1583
مشرو@@ 1583
و0.@@ 1583
الفار@@ 1582
حرة 1582
وقتل 1582
كوف@@ 1580
متهم 1580
نْ@@ 1580
الجماعي 1579
هاجر 1579
يأخذ 1579
الًا 1578
جزيئات 1578
حاد 1578
² 1577
ائد 1577
الوصف 1577
راحة 1577
صال 1577
قيس 1576
57 1575
جوجل 1574
مستعمرة 1574
ومص@@ 1574
يدل 1574
الباب@@ 1573
المركب 1573
بشير 1573
العائ@@ 1572
رائد 1572
قصور 1572
السر@@ 1571
ضخم 1571
إليهم 1570
التمويل 1570
الجنسين 1570
برئاسة 1570
وتعني 1570
دفن 1569
ظم 1569
كوم 1569
اراً 1568
باها 1568
للتح@@ 1568
ديوان 1567
الساحة 1566
ة@@ 1566
جس@@ 1566
موارد 1566
الست@@ 1565
النخ@@ 1565
تلق@@ 1565
وعية 1565
القرنين 1564
فيت 1564
أبر@@ 1563
الحصار 1563
الخصوص 1563
تماماً 1563
سينمائي 1563
المهاج@@ 1562
معر@@ 1562
هوي@@ 1562
يكونوا 1562
حكام 1561
فبلغ 1561
ئات 1560
الاضطرابات 1560
الفق@@ 1560
ضاء 1560
فيكتور 1560
قرن 1560
يدي 1560
التاسعة 1559
الممارسات 1559
دقائق 1559
الأدوار 1558
الدستورية 1558
الفحص 1558
ببساطة 1558
عبة 1558
مختلف@@ 1558
اعد 1557
البارزة 1557
الجغرافي 1557
بتح@@ 1557
سوا@@ 1557
الأيسر 1556
الرس@@ 1556
قوائم 1556
ليصل 1556
الاد@@ 1555
الخطر 1555
فهد 1555
P 1554
جعله 1554
كفر 1554
هى 1554
وتستخدم 1554
الصف 1553
المحافظ 1553
ومنهم 1553
وور@@ 1553
1896 1552
23@@ 1552
تنافس 1552
Charles 1551
بيضاء 1551
ضر 1551
لندا 1551
إشراف 1550
الرسول 1550
الوثائق 1550
اوى 1550
طرة 1550
هرة 1550
66 1549
أمن 1549
التوا@@ 1549
القوية 1549
المدنيين 1549
تذكر 1549
وث 1549
الثنائي 1548
ساس@@ 1548
معظمها 1548
I@@ 1547
الشارع 1547
المصريين 1547
بيتا 1547
لهما 1547
محتوى 1547
الاقتراع 1546
المتق@@ 1546
باحث 1546
بطولات 1546
تجعل 1546
رؤ@@ 1546
قديم 1546
لتع@@ 1546
مينيسوتا 1546
يصنف 1546
بلغاريا 1545
تنقسم 1545
وتوزع 1545
السبعينيات 1544
المعماري 1544
عشرين 1544
كوكبة 1544
اتين 1543
المعبد 1543
بنجاح 1543
شؤون 1543
غاري 1543
نواة 1543
هين@@ 1543
ببعض 1542
تأثر 1542
مثلاً 1542
موث@@ 1542
إنج@@ 1541
امتداد 1541
ره@@ 1541
زف 1541
كال 1541
الته@@ 1540
للجدل 1540
بمجرد 1539
قريب 1539
نوبة 1539
عما 1538
وفيها 1538
بيلة 1537
عمالة 1537
للدفاع 1537
السيدات 1536
المتبقية 1536
المستشفيات 1536
الناش@@ 1536
ثقافية 1536
رياضية 1536
المسؤولين 1535
طرا@@ 1535
غية 1535
الجولة 1534
الطفولة 1534
رأ@@ 1534
مواط@@ 1534
وزوجته 1534
شاب 1533
علاق@@ 1533
مضاد 1533
البالغين 1532
الجنين 1532
بيين 1532
تلقت 1532
طلبت 1532
نب@@ 1532
وقالت 1532
جري 1531
ضين 1531
مزي@@ 1531
هاج@@ 1531
ورن 1531
الشعور 1530
العد@@ 1530
بدءًا 1530
حادثة 1530
وانية 1530
يتألف 1530
يعرض 1530
0.@@ 1529
تنتشر 1529
رن 1529
الأوائل 1528
الإيراني 1528
الشيعة 1527
الهلال 1527
بوضع 1527
كوميدي 1527
الحبوب 1526
بالمدينة 1526
جيف 1526
يمكنها 1526
يّ@@ 1526
الصد@@ 1525
المنورة 1525
سمى 1525
1897 1524
الدف@@ 1524
بدر 1524
سكا 1524
سوري 1524
صموئيل 1524
فيروسات 1524
J@@ 1523
الخلافة 1523
بوابة 1523
عالمي 1523
للمساعدة 1523
الخروج 1522
بدعم 1522
خطوة 1522
السنوية 1521
النقدية 1521
بق 1521
شباب 1521
غرام 1521
كيس 1521
لوي@@ 1521
مونت@@ 1521
الأساليب 1520
واز@@ 1520
أخذت 1519
المرور 1519
بعض@@ 1519
شغ@@ 1519
وأخ@@ 1519
وانتقل 1519
بيته 1518
طرابلس 1518
لقاء 1518
لمع@@ 1518
هز@@ 1518
وام 1518
وطني 1518
موي 1517
الجانبية 1516
باش@@ 1516
سائل 1516
الظاهرة 1515
ثات 1515
سول 1515
58 1514
ائب 1514
اهم 1514
سلمان 1514
صار@@ 1514
بطاقة 1513
ويقوم 1513
يتجاوز 1513
اندلاع 1512
بيرو 1512
تركي 1512
طبق 1512
عداد 1512
قق 1512
اث 1511
الجغرافية 1511
بعمل 1511
كارولاينا 1511
الأز@@ 1510
بعيدة 1510
تمام 1510
السوفييتي 1509
ويست 1509
ّق 1509
البحيرة 1508
كاني 1508
ولايات 1508
يشغل 1508
26@@ 1507
الأند@@ 1507
الحرم 1507
السلامة 1507
تهما 1507
حاصل 1507
فيات 1507
كتابات 1507
نوكيا 1507
ينا@@ 1507
التسجيل 1506
الفقه 1506
الكالسيوم 1506
الند@@ 1506
أوز@@ 1505
بالط@@ 1505
مثلا 1505
ومُ@@ 1505
وات@@ 1504
يكتب 1504
النباتية 1503
بغض 1503
الاستيلاء 1502
السريعة 1502
تير@@ 1502
الهوائية 1501
بروتوكول 1501
ثرة 1501
خي 1500
رئيسا 1500
وأما 1500
التكوين 1499
الخطأ 1499
الصعيد 1499
تحولت 1499
للشباب 1499
مارشال 1499
Thomas 1498
المرافق 1498
جزءا 1498
ساوث 1498
الصحفي 1497
جيري 1497
فيين 1497
ملف 1497
ورك 1497
الخيال 1496
الفتاة 1496
الفدرالي 1496
انضمت 1496
بفيروس 1496
تصرف 1496
شاع@@ 1496
لاح 1496
معرو@@ 1496
نيه 1496
يجد 1496
00 1495
الكت@@ 1495
المعاهدة 1495
بران@@ 1495
توجه 1495
حمد 1495
يبقى 1495
الثلاثي 1494
باليد 1494
صاد@@ 1494
نصوص 1494
هندي 1494
تشو 1493
قطاب 1493
أبيه 1492
قيه 1492
لتعزيز 1492
الكواكب 1491
المحركات 1491
داخ@@ 1491
أمثال 1490
ببطولة 1490
بعدد 1490
ترجع 1490
صيغة 1490
المحدودة 1489
الوليد 1489
هور 1489
الثمانينيات 1488
الغناء 1488
صربيا 1488
ماد 1488
الإعلامية 1487
دوم@@ 1487
مفر@@ 1487
إذاعة 1486
لرئيس 1486
مدخل 1486
وحصلت 1486
أدنى 1485
التخصصات 1485
التمرد 1485
بروكلين 1485
جده 1485
ذكرى 1485
مولاي 1485
ومث@@ 1485
حقل 1484
شدة 1484
فقه 1484
مله 1484
وشمال 1484
1895 1483
30@@ 1483
النسخ 1483
روق 1483
فاق@@ 1483
وبالرغم 1483
اريس 1482
التنوع 1482
مشاة 1482
الفرصة 1481
كسر 1481
ومنتج 1481
الشاب 1480
المميزة 1480
خف@@ 1480
زرا@@ 1480
عِ@@ 1480
ميزة 1480
نف 1480
الأسترالية 1479
بدقة 1479
كتب@@ 1479
متط@@ 1479
ايت 1478
خرة 1478
خلاله 1478
قرون 1478
يهودية 1478
أب@@ 1477
الأفضل 1477
الحاكمة 1477
خُ@@ 1477
نصب 1477
ref 1476
تسم@@ 1476
فائ@@ 1476
كوبا 1476
إنسان 1475
الاي@@ 1475
المعدة 1475
99 1474
القياس 1474
فيلا 1474
لتوفير 1474
ائق 1473
انته@@ 1473
بتها 1473
وتوجد 1473
62 1472
الخام 1472
الستينيات 1472
الهنود 1472
تتمثل 1472
مستمر 1472
الاستقرار 1471
النج@@ 1471
الجبلية 1470
الحوز 1470
ايد 1470
عددهم 1470
البرمجيات 1469
تعاني 1469
هَ@@ 1469
الذهاب 1468
تلفزيون 1468
تنق@@ 1468
ريكي 1468
غرار 1468
واستمرت 1468
الإس@@ 1467
الزوجي 1467
صفات 1467
فوج@@ 1467
لتحسين 1467
مبيعات 1467
وعشرين 1467
86 1466
إِ@@ 1466
تات@@ 1466
جما@@ 1466
مختبر 1466
القبيلة 1465
منص@@ 1465
1892 1464
67 1464
88 1464
أعطى 1464
ضرورة 1464
الخشب 1463
الدنيا 1463
سيو 1463
فتها 1463
متوسطة 1463
مريم 1463
يتس 1463
المثلية 1462
المستعمرات 1462
دراما 1462
فضلا 1462
وبات 1462
وكانوا 1462
ويرجع 1462
الرمز 1461
العضلة 1461
القياسية 1461
صه 1461
السلبية 1460
العقود 1460
تبه 1460
تسب@@ 1460
تقد 1460
شائ@@ 1460
قنوات 1460
كانية 1460
الفارسية 1459
قُتل 1459
مسرحي 1459
استهلاك 1457
الخار@@ 1457
الفصيلة 1457
الكيان 1457
بنا@@ 1457
مقال 1457
والثانية 1457
ياء 1457
اضي 1456
الحجري 1456
الهيدرو@@ 1456
توى 1456
بدايات 1455
تشجيع 1455
فورت 1455
هاوس 1455
هيرو@@ 1455
M 1454
المبيعات 1454
المَ@@ 1454
قتين 1454
الأساطير 1453
الفرسان 1453
بمرض 1453
بيك@@ 1453
ضها 1453
أمه 1452
الرحلات 1452
تار 1452
تك 1452
طنجة 1452
كاز@@ 1452
ويعمل 1452
F 1451
البصري 1451
المطلوب 1451
النازي 1451
بتهمة 1451
حتها 1451
خذ 1451
لمساعدة 1451
يابانية 1451
التخلص 1450
الجسر 1450
الد 1450
ميس 1450
الآلاف 1449
باز 1449
طلبة 1449
الإعدام 1448
المعنية 1448
بروك 1448
بعد@@ 1448
63 1447
النواة 1447
رغبة 1447
سباقات 1447
قاط@@ 1447
كريستوفر 1447
للتكنولوجيا 1447
للشركة 1447
وتعمل 1447
وقدم 1447
ولادة 1447
بالص@@ 1446
تكري@@ 1446
سجلات 1446
كلي 1446
ملم 1445
نوعًا 1445
ويندوز 1445
اصر 1444
الثوري 1444
الفتح 1444
المراقبة 1444
وتخرج 1444
يمت@@ 1444
أسواق 1443
المستخدمين 1443
بالعديد 1443
تعدد 1443
المرء 1442
بض@@ 1442
ماس 1442
بوج@@ 1441
ساهمت 1441
للحياة 1441
نبذة 1441
الانتباه 1440
المسؤول 1440
النس@@ 1440
حف 1440
يعادل 1440
· 1439
الأتراك 1439
توليد 1439
اجي 1438
ذب 1438
الأورام 1437
التقويم 1437
القليلة 1437
المفترض 1437
سيل@@ 1437
قِ@@ 1437
مائية 1437
ماركوس 1437
إرنست 1436
إسك@@ 1436
العق@@ 1436
المسؤولية 1436
لحزب 1436
أشارت 1435
زادت 1435
شعوب 1435
كيميائية 1435
أيلول 1434
السياق 1434
الطول 1434
بالذ@@ 1434
لاحقة 1434
متز@@ 1434
َة 1434
الجوانب 1433
المتخصصة 1433
المساجد 1433
المنزلية 1433
المنظ@@ 1433
خليل 1433
رسم@@ 1433
نقابة 1433
الصلب 1432
تسلسل 1432
ريز 1432
طارق 1432
ميا 1432
مسؤول 1431
أسر@@ 1430
البوسنة 1430
وأل@@ 1430
احمد 1429
الزراعي 1429
بسيط 1429
بطول 1429
دمان 1429
مواطن 1429
نفسي 1429
ورين 1429
ينص 1429
رهم 1428
فد 1428
فرز 1428
العيش 1427
تسعى 1427
جند@@ 1427
منافسة 1427
مونتريال 1427
البيع 1426
التلفزيوني 1426
الجغرافيا 1426
ربت 1426
قبل@@ 1426
مبارك 1426
ميونخ 1426
الضحايا 1425
المعاصر 1425
شيا 1425
الأمامية 1424
بالسجن 1424
قهم 1424
لاري 1424
متزايد 1424
وأغ@@ 1424
وصفه 1424
تأكيد 1423
تجاري 1423
راك 1423
لمن 1423
ليلعب 1423
الأمنية 1422
N 1421
آي@@ 1421
أود@@ 1421
إمبراطورية 1421
تخضع 1421
فاطمة 1421
وافقت 1421
3000 1420
إين@@ 1420
الصلاة 1420
صيب 1420
واج 1420
يتسبب 1420
إسطنبول 1419
خري@@ 1419
شات 1419
ينت@@ 1419
برنام@@ 1418
تغطية 1418
توصيل 1418
جولة 1418
طوي@@ 1418
مجموع@@ 1418
السياسيين 1417
بإعادة 1417
للحرب 1417
مره 1417
هال 1417
الراحل 1416
اللبناني 1416
مثّل 1416
أنصار 1415
اغتيال 1415
بالفرنسية 1415
ذرة 1415
نخ@@ 1415
الجاذبية 1414
تنمية 1414
جدة 1414
لاي@@ 1414
الاص@@ 1413
ميلان 1413
ياب@@ 1413
29@@ 1412
البعثة 1412
التد@@ 1412
بيدرو 1412
جوي 1412
حرم 1412
سيدة 1412
الأغذية 1411
فِي 1411
ديك 1410
شقيقه 1410
مدافع 1410
وبطولة 1410
96 1409
الطر@@ 1409
الفائز 1409
تورونتو 1409
منزله 1409
والتكنولوجيا 1409
H 1408
الخص@@ 1408
سعة 1408
وبقي 1408
1889 1407
71 1407
أيدي 1407
النزاع 1407
انقلاب 1407
باليابانية 1407
صلى 1407
وعل@@ 1407
ٌ@@ 1407
الموجات 1406
جدار 1406
حظ@@ 1406
وسط@@ 1406
أنتوني 1405
المشر@@ 1405
داف 1405
لكن@@ 1405
نظراً 1405
سامي 1404
مغربي 1404
مميزة 1404
الأخلاقية 1403
الإقليمي 1403
الوا 1403
حار@@ 1403
مزيج 1403
يجمع 1403
3- 1402
ئون 1402
الأرقام 1402
المستويات 1402
ردود 1402
مرافق 1402
وليات 1402
اري@@ 1401
باس 1401
ربية 1401
سوة 1401
فحسب 1401
700 1400
المعالم 1400
اين 1400
بره 1400
تتواجد 1400
نباتات 1400
العروض 1399
الفكرية 1399
جاج 1399
غون@@ 1399
وبرو@@ 1399
يمنع 1399
28@@ 1398
تخفيف 1398
خوة 1398
ليت 1398
أولا 1397
المهارات 1397
النسوية 1397
تعليمية 1397
سياس@@ 1397
شاب@@ 1397
ظاه@@ 1397
عدوى 1397
كييف 1397
وتبلغ 1397
وتقوم 1397
الروس 1396
العي@@ 1396
حاولت 1396
حياتهم 1396
ديزني 1396
صرا@@ 1396
التوازن 1395
الرئي@@ 1395
الركاب 1395
الستة 1395
المان@@ 1395
جيه 1395
لحم 1395
القابلة 1394
لعملية 1394
American 1393
أتباع 1393
الغرفة 1393
سبورغ 1393
فئات 1393
هول 1393
واجه@@ 1393
5000 1392
ابو 1392
الم 1392
رياض 1392
ضوئية 1392
الجدار 1391
بالتالي 1391
راض 1391
صَ@@ 1391
ويض 1391
أصيب 1390
الجمع 1390
اللح@@ 1390
الميناء 1390
تج 1390
خسائر 1390
عالم@@ 1390
للمشاركة 1390
واري 1390
ويحمل 1390
يمكنه 1390
1885 1389
الفلسطينيين 1389
أمرًا 1388
الحميد 1388
العظم 1388
ستي 1388
سلسل 1388
غيت 1388
مصلحة 1388
ميشيل 1388
1894 1387
d 1387
ارتك@@ 1387
الصحيح 1387
القنوات 1387
الو 1387
بكالوريوس 1387
بمحافظة 1387
جراء 1387
ائرة 1386
برات 1386
ضبط 1386
كلاهما 1386
مضادات 1386
’ 1386
ألفا 1385
المعلمين 1385
لوزارة 1385
مبادرة 1385
هرمون 1385
ومار@@ 1385
ارتباط 1384
شتوكة 1384
ميكرو@@ 1384
الرئوي 1383
الطراز 1383
القياسي 1383
القيود 1383
الليبرالية 1382
بنات 1382
هاريس 1382
1891 1381
اشتهرت 1381
النظريات 1381
تحوي 1381
جناح 1381
سنويًا 1381
مناخ 1381
البول 1380
المعدات 1380
صديق 1380
وامت@@ 1380
ومجموعة 1380
بوي 1379
عمر@@ 1379
وكس 1379
يتر@@ 1379
أنت 1378
إداريّاً 1378
الأحكام 1378
التجمع 1378
تشتهر 1378
روى 1378
مقالة 1378
الريف 1377
الشعرية 1377
قيات 1377
59 1376
أعاد 1376
إنجليزي 1376
افه 1376
لاع 1376
مبكرة 1376
وتك@@ 1376
جميعها 1375
فوس 1375
واستخدام 1375
اظ@@ 1374
الصادرة 1374
قيا 1374
والاتحاد 1374
أوقات 1373
ارته 1373
ديرة 1373
كامبريدج 1373
بيير 1372
جعلها 1372
سنغافورة 1372
عيون 1372
والسياسية 1372
الاغتصاب 1371
السياحية 1371
دعي 1371
وبالإضافة 1371
ومنطقة 1371
البح@@ 1370
بلديات 1370
حديثًا 1370
دّ@@ 1370
عنهم 1370
لندية 1370
هذ@@ 1370
والمه@@ 1370
اثر 1369
الفحم 1369
المتص@@ 1369
بتع@@ 1369
دييغو 1369
ناق@@ 1369
نيكولاس 1369
وكو 1369
الإطار 1368
التحقيقات 1368
الحسيمة 1368
الوراثية 1368
تركت 1368
خض@@ 1368
راع 1368
وجاء 1368
العمود 1367
بئر 1367
دام@@ 1367
قادر 1367
لأغراض 1367
مجتمعات 1367
نفسية 1367
نيلسون 1367
1893 1366
البري@@ 1366
التوسع 1366
حمل@@ 1366
شرو@@ 1366
فرانكلين 1366
النحاس 1365
الوط@@ 1365
حى 1365
سفي@@ 1365
سوم@@ 1365
عاز@@ 1365
عاص@@ 1365
وأثناء 1365
اجر 1364
حف@@ 1364
لتق@@ 1364
لمكافحة 1364
المحاصيل 1363
ناسا 1363
نوعها 1363
ثور@@ 1362
يقلل 1362
68 1361
الآباء 1361
البصرية 1361
امر 1361
تزايد 1361
رال 1361
ستا 1361
قص 1361
مناص@@ 1361
واللا@@ 1361
24@@ 1360
بينه 1360
لاع@@ 1360
نادرة 1360
افت 1359
الارتفاع 1359
قيود 1359
ميلي@@ 1359
شار 1358
لَ 1358
مسح 1358
هشام 1358
يربط 1358
الإشارات 1357
النارية 1357
انسحاب 1357
بيون 1357
تنتهي 1357
خلاص 1357
وملحن 1357
الدراسي 1356
لات@@ 1356
موظف 1356
نهم 1355
27@@ 1354
الأميركية 1354
التي@@ 1354
الغشاء 1354
المنزلي 1354
باولو 1354
فرنسيس 1354
هوا@@ 1354
النح@@ 1353
ذهبية 1353
متم@@ 1353
1888 1352
الرح@@ 1352
تنشأ 1352
روبنسون 1352
فلما 1352
قان@@ 1352
ويعود 1352
البضائع 1351
يدعم 1351
الخمس 1350
الموض@@ 1350
الوظيفي 1350
الشوارع 1349
النمساوية 1349
بروتينات 1349
تعليق 1349
تقي 1349
روابط 1349
ماغ@@ 1349
أعلاه 1348
الاستراتيجية 1348
الباردة 1348
التفسير 1348
باف@@ 1348
تشابه 1348
تغي@@ 1348
شرقي 1348
فال 1348
وجائزة 1348
61 1347
عدداً 1347
مهاجمة 1347
يوان 1347
c 1346
الفض@@ 1346
بنسلفانيا 1346
تعلمت 1346
سكن 1346
كونت 1346
مخصصة 1346
التصنيع 1345
الدقيق 1345
1880 1344
v 1344
اذ 1344
اعتقال 1344
بأكملها 1344
بديل 1344
شك 1344
وكا 1344
وَّ@@ 1344
المول@@ 1343
تأخذ 1343
البرج 1342
شقيق 1342
متص@@ 1342
والنساء 1342
الأمريك@@ 1341
المعلم 1341
تخصيص 1341
تى 1341
هيك@@ 1341
أعم@@ 1340
التوزيع 1340
الثدييات 1340
الطرفين 1340
الكائن 1340
النبلاء 1340
الوسطي 1340
بحاجة 1340
كيه 1340
نام 1340
وفر@@ 1340
الديانة 1339
الشهادة 1339
بالذكر 1339
ديب 1339
مقدار 1339
C. 1338
التأمين 1338
الخلفي 1338
الدليل 1338
جعلت 1338
سمت 1338
صيد 1338
ورًا 1338
اجية 1337
سيات 1337
وتا 1337
69 1336
الزجاج 1336
فح@@ 1336
اختي@@ 1335
تأسيسها 1335
تكرار 1335
تمثال 1335
للاستخدام 1335
لمنظمة 1335
وانتهت 1335
الوقاية 1334
تعم@@ 1333
جنة 1333
أمم 1332
افي@@ 1332
دوين 1332
روية 1332
مشاهد 1332
معارك 1332
1884 1331
الأسط@@ 1331
الإيمان 1331
تمرد 1331
حصان 1331
عود 1331
مؤلف@@ 1331
مزرعة 1331
وأخذ 1331
p 1330
أكسفورد 1330
أوق@@ 1330
احتف@@ 1330
قائلاً 1330
قلت 1330
ونال 1330
إدار@@ 1329
اص 1329
الكويتية 1329
المرو@@ 1329
النز@@ 1329
ويسمى 1329
الإبلاغ 1328
التسلسل 1328
بلان@@ 1328
للكاتب 1328
وبل@@ 1328
الآلات 1327
برا 1327
دينام@@ 1327
ستان@@ 1327
ويس 1327
73 1326
ازية 1326
الأديان 1326
الوراثة 1326
بيض 1326
ستار 1326
قتال 1326
واحت@@ 1326
الاحتفال 1325
الاعتقاد 1325
التقييم 1325
حصة 1325
شعره 1325
مشواره 1325
ميه 1325
وتعادل 1325
بطة 1324
عرش 1324
ورث 1324
أدار 1323
ارع 1323
الكبار 1323
المأ@@ 1323
وقاضي 1323
82 1322
البلدين 1322
الضخمة 1322
المهدي 1322
تطلب 1322
تمان 1322
حاج@@ 1322
مكانه 1322
الجرائم 1321
تتوفر 1321
سمع 1321
وعُ@@ 1321
الأحوال 1320
رّ@@ 1320
شعاع 1320
يتهم 1320
98 1319
العادي 1319
تصويت 1319
بمدرسة 1318
زعم 1318
وسين 1318
وظل 1318
يمين 1318
أحد@@ 1317
الموجة 1317
جامعات 1317
خلص 1317
لفين 1317
وأيضاً 1317
واس 1317
والشيخ 1317
83 1316
اتل 1316
حتي 1316
قلق 1316
العبودية 1315
خسارة 1315
لاستخدام 1315
نض@@ 1315
اثنان 1314
الأعداد 1314
الفئات 1314
تصني@@ 1314
تأمين 1313
تواجه 1313
لتف@@ 1313
ويبدو 1313
اجتماع@@ 1312
تميل 1312
كره 1312
مجموعه 1312
تعري@@ 1311
زايد 1311
05 1310
افتتح 1310
الاغ@@ 1310
الزمان 1310
الكونغو 1310
باط@@ 1310
مسر@@ 1310
والتف@@ 1310
اقتصادي 1309
نشرها 1309
192@@ 1308
الدبلوماسية 1308
السوبر 1308
جير 1308
شاير 1308
غارسيا 1308
ملحوظ 1308
والاقتصادية 1308
البحار 1307
عددها 1307
عروض 1307
غلو@@ 1307
قدرها 1307
وأيضًا 1307
الجيوش 1306
جوان 1306
عبادة 1306
ناجحة 1306
وأبو 1306
بيل@@ 1305
ذي@@ 1305
كروز 1305
احتلت 1304
سترا@@ 1304
ميزات 1304
يؤكد 1304
يمها 1304
احتياجات 1303
الجدل 1303
الهجري 1303
شارل 1303
صها 1303
للنظام 1303
لورانس 1303
موجات 1303
وكاتبة 1303
.com 1301
78 1301
t 1301
السن@@ 1301
ثين 1301
is 1300
الفعلي 1300
دوران 1300
فائدة 1300
لتشكيل 1300
نوعية 1300
1886 1299
السابقين 1299
الكليات 1299
تشكلت 1299
حاك@@ 1299
فقر 1299
وبما 1299
1870 1298
أقيم 1298
الانتق@@ 1298
الصومال 1298
الظهر 1298
حقبة 1298
حملات 1298
شيو@@ 1298
كامبل 1298
مناقشة 1298
ومغني 1298
الوسائل 1297
تمكنت 1297
للملك 1297
ممث@@ 1297
والمملكة 1297
الخز@@ 1296
تحلي@@ 1296
كولورادو 1296
1887 1295
إريك 1295
اول 1295
ترو 1295
داس 1295
ظاهر 1295
هوية 1295
وليد 1295
آراء 1294
الباحث 1294
العقوبات 1294
العكس 1294
اللجوء 1294
تجار@@ 1294
ترف 1294
متاحة 1294
إيطالية 1293
داخلي 1293
عنص@@ 1293
مهارات 1293
نمو@@ 1293
والحزب 1293
وجوده 1293
وقي 1293
ووصل 1293
ووكر 1293
وْ@@ 1293
بولي@@ 1292
تنتقل 1292
سمك 1292
فيتامين 1292
مروان 1292
81 1291
بدا 1291
شريف 1291
فيلي@@ 1291
كوري 1291
لعائلة 1291
هيدرو@@ 1291
1500 1290
الإرهاب 1290
الفعلية 1290
الموصل 1290
انطلا@@ 1290
بيانو 1290
تقام 1290
دائمة 1290
راشد 1290
76 1289
احتمالية 1289
الثقيلة 1289
تستمر 1289
جوية 1289
زمنية 1289
ضافة 1289
ملها 1289
موظفي 1289
العثمانيين 1288
الون 1288
انوس 1288
تنص 1288
درو 1288
لقت 1288
مواضيع 1288
79 1287
اطي 1287
الأحد 1287
الأنهار 1287
الثمانينات 1287
روح@@ 1287
طولها 1287
عْ@@ 1287
لاحية 1287
لعلم 1287
للقيام 1287
ودفن 1287
النسبية 1286
تخت@@ 1286
للغة 1286
ينتقل 1286
يومنا 1286
الذرية 1285
غرو@@ 1285
فشلت 1285
هاب@@ 1285
وحر@@ 1285
يستمر 1285
actor 1284
انهم 1284
وصحفي 1284
وّل 1284
الأغلبية 1283
الاثنين 1283
الخير 1283
القلق 1283
عاشت 1283
معتزل 1283
1878 1282
أنتج 1282
الاحتفاظ 1282
جنا@@ 1282
جنوبي 1282
دراستها 1282
عثر 1282
كوز@@ 1282
للبلاد 1282
لمنطقة 1282
والمن@@ 1282
المتس@@ 1281
المشكلات 1281
ويعرف 1281
استق@@ 1280
تشاب@@ 1280
جيا 1280
للتع@@ 1280
متابعة 1280
وتقديم 1280
ارتفع 1279
الهادي 1279
بالقاهرة 1279
ميزوري 1279
اجتماعي 1278
البيزنطية 1278
الشديدة 1278
المعد@@ 1278
روجر 1278
طائفة 1278
عمران 1278
لإجراء 1278
مرشح 1278
87 1277
سلسل@@ 1277
مورغان 1277
us 1276
أهالي 1276
الحرف 1276
الكوكب 1276
نشأته 1276
والثقافية 1276
77 1275
الهند@@ 1275
تتجاوز 1275
روائي 1275
أنهى 1274
التسعينات 1274
الظهور 1274
ربه 1274
رع 1274
صناعية 1274
طبع@@ 1274
قصف 1274
مفيدة 1274
وحده 1274
أوسكار 1273
الأرجح 1273
باح 1273
رسمياً 1273
سمات 1273
ضى 1273
مرسوم 1273
مقدم 1273
ودرس 1273
1882 1272
New 1272
b 1272
العملة 1272
الفساد 1272
لأحد 1272
الجمعيات 1271
انتقادات 1271
كتاب@@ 1271
كَ 1271
ليوم 1271
متف@@ 1271
واص@@ 1271
الأسعار 1270
بتون 1270
خبرة 1270
رون@@ 1270
ومه@@ 1270
يقومون 1270
الأربع 1269
تسي@@ 1269
توف@@ 1269
سينا 1269
لينغ 1269
مجرى 1269
يشعر 1269
أقام 1268
السين@@ 1268
الغدد 1268
بحكم 1268
هدفين 1268
وصفت 1268
ءها 1267
الشامل 1267
بنو 1267
خصوصا 1267
شارات 1267
لعب@@ 1267
هاجم 1267
ووفقًا 1267
البطن 1266
امهم 1266
لع 1266
نيجيريا 1266
وشركة 1266
بأنهم 1265
بعضهما 1265
ربين 1265
طار@@ 1265
مزيد 1265
وفيتش 1265
أجرى 1264
الأمامي 1264
الصواريخ 1264
يتان 1264
1881 1263
جرات 1263
سوية 1263
شاطئ 1263
مذهب 1263
وسل@@ 1263
أبرزها 1262
أسلحة 1262
القضاة 1262
المتمردين 1262
طاق@@ 1262
كتش@@ 1262
نار 1262
93 1261
الاختيار 1261
تبة 1261
خبر@@ 1261
دراجات 1261
روني 1261
المنس@@ 1260
انتخابه 1260
خان@@ 1260
ذه 1260
رومان@@ 1260
سرد 1260
عبد@@ 1260
مقعد 1260
الأه@@ 1259
البطل 1259
العناية 1259
ثقاف@@ 1259
طاب@@ 1259
فاب@@ 1259
معدات 1259
الاختلاف 1258
المفاهيم 1258
تعطي 1258
ڭ@@ 1258
الصحيفة 1257
المعادلة 1257
بحق 1257
تومسون 1257
طهران 1257
المكونة 1256
تتع@@ 1256
لاق 1256
لجامعة 1256
والدة 1256
D8 1255
أنتجت 1255
أوسع 1255
الشاطئ 1255
المحتلة 1255
ناد 1255
وألمانيا 1255
وضعه 1255
الاستوائية 1254
الشعراء 1254
سند@@ 1254
وبحسب 1254
وغيره 1254
ولوج@@ 1254
أندريه 1253
بالغ 1253
غال@@ 1253
أذربيجان 1252
العش@@ 1252
العصب 1252
أبو@@ 1251
أبي@@ 1251
العبرية 1251
المحر@@ 1251
الواق@@ 1251
رينا 1251
عله 1251
مظ@@ 1251
وردت 1251
وسلم 1251
يطلب 1251
الإنساني 1250
الخبراء 1250
الكري@@ 1250
اهرة 1250
مرتب@@ 1250
ميشيغان 1250
المهاجم 1249
بّي 1249
تمي@@ 1249
عضلة 1249
أرجنتيني 1248
أرض@@ 1248
ازة 1248
الاستخدامات 1248
داع@@ 1248
روك@@ 1248
شعبة 1248
وانضم 1248
35@@ 1247
بلاي 1247
جزءاً 1247
جوهر 1247
راس@@ 1247
كينز 1247
اقبة 1246
تحديث 1246
جنبا 1246
خلل 1246
واة 1246
ّز 1246
الكث@@ 1245
حاز 1245
دَ 1245
زيمة 1245
ضمنها 1245
كشفت 1245
مرتفعة 1245
البولندية 1244
الخبرة 1244
الْ@@ 1244
تْ 1244
طائر 1244
نابليون 1244
ارتبا@@ 1243
التجار 1243
الجل@@ 1243
الصندوق 1243
الميكرو@@ 1243
بضع 1243
تصفيات 1243
دواء 1243
نشا@@ 1243
بلاك 1242
سينغ 1242
صفر 1242
مسؤولة 1242
وثائق 1242
أغلبية 1241
ائيين 1241
الزيادة 1241
الفيدرالي 1241
بمتوسط 1241
تألفت 1241
لجائزة 1241
للطلاب 1241
ومرا@@ 1241
الآلية 1240
المبدأ 1240
لوك@@ 1240
ولمدة 1240
أحدهما 1239
الثانوي 1239
جيني 1239
دقيق 1239
شح@@ 1239
نيوتن 1239
يمية 1239
ّات 1239
انتقد 1238
برد 1238
عبور 1238
كول 1238
ليان 1238
وبد@@ 1238
بإجراء 1237
تربط 1237
فتح@@ 1237
قوله 1237
والمناطق 1237
أبن@@ 1236
اؤه 1236
ذكور 1236
غينيا 1236
لوحات 1236
مراد 1236
التحضير 1235
الحاد 1235
الشروط 1235
ضًا 1235
فرج 1235
الأمي@@ 1234
ضا 1234
مستشار 1234
البدء 1233
بروسيا 1233
سند 1233
فنزويلا 1233
ميني 1233
الرقص 1232
الشائع 1232
رد@@ 1232
ريج 1232
للدراسات 1232
وتبعد 1232
وو 1232
ّس 1232
E. 1231
إه@@ 1231
البه@@ 1231
الظه@@ 1231
القاسم 1231
طيار 1231
ونقل 1231
ينيا 1231
تغييرات 1230
زين@@ 1230
فيزيائي 1230
موند 1230
إلي@@ 1229
اكم 1229
التعديل 1229
الروم 1229
راض@@ 1229
متين 1229
مهمًا 1229
ادهم 1228
جوناثان 1228
اختار 1227
الميكانيكية 1227
ثلاث@@ 1227
ليفربول 1227
مايكروسوفت 1227
ربا 1226
يتخ@@ 1226
استبد@@ 1225
ايدة 1225
بعيدًا 1225
تاي 1225
شأنه 1225
مارات 1225
معظمهم 1225
وبها 1225
4.@@ 1224
جأ 1224
خلفه 1224
خيص 1224
عراض 1224
لكنهم 1224
1861 1223
حال@@ 1223
عظم 1223
يعل@@ 1223
يورك 1223
الزمنية 1222
جمه@@ 1222
جيت 1222
وتط@@ 1222
الأثر 1221
التحديد 1221
النهار 1221
حروب 1221
سورة 1221
لط 1221
أموال 1220
إثبات 1220
استم@@ 1220
المسائل 1220
بمق@@ 1220
غرف 1220
كرئيس 1220
وشاعر 1220
يتا 1220
يوحنا 1220
25@@ 1219
الثابتة 1219
المزمن 1219
لمة 1219
نست@@ 1219
نورث 1219
الأزهر 1218
المواقف 1218
انف@@ 1218
سخ@@ 1218
أكمل 1217
إيقاف 1217
الحارث 1217
بحوث 1217
تيني 1217
صحي@@ 1217
ينغ@@ 1217
الجزيئات 1216
السائدة 1216
السبع 1216
دوية 1216
V 1215
سوب@@ 1215
فنون 1215
ليد 1215
الاه@@ 1214
التكاليف 1214
المسابقة 1214
باركر 1214
مبلغ 1214
معاً 1214
وآخرون 1214
أسب@@ 1213
اؤ@@ 1213
الأحماض 1213
الخلوي 1213
الفيزيائية 1213
المحمولة 1213
شق@@ 1213
ليلى 1213
يار@@ 1213
َّا 1213
1883 1212
أر 1212
المرجح 1212
المعيشية 1212
ترشيح 1212
رومان 1212
للرئيس 1212
يجوز 1212
الجام@@ 1211
الزعيم 1211
والمواد 1211
وغرا@@ 1211
اعتُ@@ 1210
الأرز 1210
المبر@@ 1210
الهندسية 1210
عقدت 1210
ملابس 1210
ويسكونسن 1210
1876 1209
الطبي@@ 1209
المشهد 1209
المعقدة 1209
شق 1209
فران 1209
فرناندو 1209
قدرات 1209
كيفن 1209
ماث@@ 1209
يتك@@ 1209
البسيطة 1208
ضرر 1208
معقدة 1208
وحدها 1208
وكار@@ 1208
اتح@@ 1207
استراتيجية 1207
الدراما 1207
الضروري 1207
المسؤولة 1207
حارس 1207
عددا 1207
كاتدرائية 1207
للأشخاص 1207
W. 1206
إيفان 1206
ادرة 1206
الأكاديمي 1206
الأوسكار 1206
الحوار 1206
تحاول 1206
صنا@@ 1206
للمنطقة 1206
والبحث 1206
والتاريخ 1206
يركز 1206
ٍّ 1206
خيال 1205
فقات 1205
مستشار@@ 1205
وفاتها 1205
الإح@@ 1204
الجنائية 1204
الفرس 1204
شير@@ 1204
كارتر 1204
مستقبلات 1204
فيليبس 1203
كال@@ 1203
كوس 1203
واب 1203
ويقال 1203
الإع@@ 1202
الخطوة 1202
ربون 1202
سيطر 1202
هربرت 1202
Henry 1201
أمتار 1201
الدرقية 1201
ثماني 1201
حيز 1201
سِ@@ 1201
صحف 1201
لحق 1201
السبت 1200
للجنة 1200
وأعلن 1200
وطلب 1200
ويك 1200
أهلها 1199
ائم 1199
التها 1199
الخوف 1199
المستقبلية 1199
بالي@@ 1199
ساعدت 1199
لمسافة 1199
يسعى 1199
التّ@@ 1198
فاه 1198
فيرجينيا 1198
مستمرة 1198
التجريبية 1197
التغير 1197
بزيادة 1197
عليا 1197
فسي@@ 1197
وانة 1197
إمام 1196
اللوحة 1196
المسمى 1196
المفاوضات 1196
تيان 1196
خَ@@ 1196
رع@@ 1196
صلات 1196
قاع@@ 1196
كيو 1196
وعازف 1196
احتج@@ 1195
الهبوط 1195
سريعة 1195
سنويا 1195
وتعرف 1195
يهودي 1195
التفاعلات 1194
تجد 1194
منى 1194
L5 1193
العاشرة 1193
العنوان 1193
الهندوسية 1193
الوهاب 1193
فرسان 1193
قدي@@ 1193
لاه@@ 1193
وسرعان 1193
يدرس 1193
89 1192
أسطورة 1192
ابين 1192
السلا@@ 1192
حلول 1192
رمز@@ 1192
ساه@@ 1192
مترًا 1192
ودا 1192
U@@ 1191
ابت 1191
بمقدار 1191
تجري 1191
تشارلي 1191
غيل 1191
مكاتب 1191
وتز@@ 1191
1860 1190
74 1190
السكري 1190
السوائل 1190
زام@@ 1190
لمان 1190
ويتكون 1190
يحضر 1190
الاج@@ 1189
التطبيق 1189
الدا@@ 1189
الدرا@@ 1189
بالدوري 1189
حبيب 1189
دوس@@ 1189
محدود 1189
مساهمة 1189
وحسب 1189
يوهان 1189
آليات 1188
أدبية 1188
الإصابات 1188
الملح 1188
توسع 1188
جوني 1188
فرت 1188
ليون@@ 1188
id 1187
إحياء 1187
السمات 1187
دوم 1187
ضمت 1187
ناول 1187
هيو 1187
ودعم 1187
كتيبة 1186
نُشرت 1186
ويؤ@@ 1186
يجعلها 1186
يميل 1186
1871 1185
أحياناً 1185
التسعينيات 1185
الجماهير 1185
الكرو@@ 1185
المئة 1185
باق 1185
شعراء 1185
إسلامية 1184
غوردون 1184
كًا 1184
بوصة 1183
تحدي@@ 1183
سكة 1183
يستعمل 1183
04 1182
أب 1182
الألياف 1182
بالكانا 1182
تخفيض 1182
جوز 1182
حزمة 1182
لوب 1182
بيب 1181
حذ@@ 1181
ذت 1181
سقطت 1181
والمص@@ 1181
وكلية 1181
الثنائية 1180
بمو@@ 1180
تمت@@ 1180
توظيف 1180
شريط 1180
فظ 1180
وائل 1180
وتج@@ 1180
ولكن@@ 1180
ونق@@ 1180
الطوائف 1179
المتك@@ 1179
ضغ@@ 1179
طبق@@ 1179
فلسطينية 1179
كوين 1179
لتجنب 1179
موع 1179
ميدالية 1179
وتين 1179
أدب 1178
أوتو 1178
ؤ 1178
الكور@@ 1178
المريخ 1178
المظ@@ 1178
الورق 1178
بشر 1178
جمي@@ 1178
خيار 1178
يانا 1178
يتواجد 1178
92 1177
أيرلندي 1177
الاك@@ 1177
السوفياتي 1177
جميلة 1177
غضب 1177
فوزه 1177
قبال 1177
وضح 1177
حياء 1176
دبلوماسي 1176
ومت@@ 1176
اسا 1175
اعتقد 1175
الحلقات 1175
الذكر 1175
الضوئي 1175
لمركز 1175
نم@@ 1175
أبدًا 1174
اوم 1174
بارية 1174
بغرض 1174
وقود 1174
ولًا 1174
1.5 1173
اتصالات 1173
اجل 1173
الأمعاء 1173
المقالة 1173
اُ@@ 1173
خطورة 1173
صيني 1173
عيم 1173
للمجتمع 1173
وعرض 1173
1879 1172
أوم@@ 1172
الحض@@ 1172
بالولايات 1172
تاف@@ 1172
دافع 1172
دفاع 1172
طون 1172
لقياس 1172
واف 1172
والأن@@ 1172
الارتباط 1171
اون 1171
بعاد 1171
دامة 1171
ـة 1171
ناج@@ 1171
يدور 1171
إذ@@ 1170
الأصفر 1170
تسليم 1170
تغيرات 1170
تفورد 1170
جاك@@ 1170
راي@@ 1170
عدّ 1170
فاست@@ 1170
لحركة 1170
أدر@@ 1169
استع@@ 1169
المبار@@ 1169
بشرية 1169
ثمان@@ 1169
حرق 1169
سيادة 1169
وّر 1169
المنت@@ 1168
داد@@ 1168
راق 1168
طلاق 1168
ادل 1167
اطية 1167
البة 1167
الذرة 1167
الساح@@ 1167
تايلاند 1167
حميد 1167
شمل 1167
وعم@@ 1167
ينس 1167
إض@@ 1166
ابيع 1166
الانضمام 1166
الكرب@@ 1166
دلي@@ 1166
طيور 1166
قياس@@ 1166
ليتم 1166
منحة 1166
واللغة 1166
for 1165
أثير 1165
المعرض 1165
الممثلين 1165
بالمقارنة 1165
جذور 1165
يَّ@@ 1165
الدوران 1164
الصالح 1164
تسويق 1164
تنمو 1164
جور 1164
دالة 1164
فؤاد 1164
قات@@ 1164
كاث@@ 1164
لوجود 1164
نسبيا 1164
ويًا 1164
أورا@@ 1163
الأسهم 1163
الظهير 1163
توصل 1163
حري@@ 1163
ديترويت 1163
كد 1163
وبهذا 1163
وول@@ 1163
الطابع 1162
صوفيا 1162
عضلات 1162
علي@@ 1162
قضائية 1162
معتم@@ 1162
نسيج 1162
آند 1161
الثقيل 1161
بنشر 1161
دّ 1161
ملو@@ 1161
الانقلاب 1160
الهواتف 1160
سوداء 1160
عائلات 1160
عقوبة 1160
فيًا 1160
لاعب@@ 1160
للصحة 1160
لمواجهة 1160
والت 1160
وريين 1160
01 1159
ادعى 1159
استقال 1159
اضطر 1159
السوي@@ 1159
جزئيًا 1159
حامل 1159
فقدت 1159
ناز@@ 1159
أغني@@ 1158
أولا@@ 1158
الشاملة 1158
الملفات 1158
تد 1158
جيدًا 1158
ستانلي 1158
لائحة 1158
الجمال 1157
تراكم 1157
جلد 1157
شفاء 1157
ميلو@@ 1157
نوي 1157
يُطلق 1157
المشاهد 1156
بالله 1156
بست@@ 1156
تاب 1156
تجه 1156
شعور 1156
فيشر 1156
للز@@ 1156
للعلاج 1156
هرب 1156
والتق@@ 1156
أسهم 1155
الانفجار 1155
البلو@@ 1155
المنصور 1155
ترشح 1155
قراطية 1155
كيز 1155
مصالح 1155
نقد 1155
الحادثة 1154
المرتبط 1154
دورية 1154
فش@@ 1154
لوبيز 1154
مكعب 1154
34@@ 1153
97 1153
ادًا 1153
المصطلحات 1153
النائب 1153
سفير 1153
عطاء 1153
وجي@@ 1153
وصفها 1153
ونش@@ 1153
ويش@@ 1153
يتعرض 1153
الحج 1152
بتر@@ 1152
صفقة 1152
كندية 1152
أبوظبي 1151
إبرا@@ 1151
إنتاجها 1151
رومانية 1151
ضريبة 1151
محاكمة 1151
عملاء 1150
غراهام 1150
ماثيو 1150
يُمكن 1150
احترا@@ 1149
الأعظم 1149
سبور@@ 1149
الاستخبارات 1148
النهج 1148
الوباء 1148
دوراً 1148
سيون 1148
مشهد 1148
همة 1148
البد@@ 1147
المؤقتة 1147
حوله 1147
رخ@@ 1147
عراقي 1147
كوبر 1147
كيون 1147
مساء 1147
ورق 1147
يوضح 1147
# 1146
الاستفادة 1146
الجسدية 1146
الدستوري 1146
جوا 1146
مارة 1146
مثلما 1146
مسيحية 1146
الأعراق 1145
فوائد 1145
ناية 1145
نرويجي 1145
وقي@@ 1145
Michael 1144
أوامر 1144
المنخفض 1144
حمام 1144
للسيطرة 1144
ويكيبيديا 1144
يتش 1144
البر 1143
الموجهة 1143
حقي@@ 1143
حكمت 1143
G 1142
الطي@@ 1142
انط@@ 1142
اهر 1142
اهي 1142
شأنها 1142
تعامل 1141
حيوية 1141
الاخ@@ 1140
التفا@@ 1140
الربع 1140
العقيدة 1140
القسطنطينية 1140
المشاعر 1140
النامية 1140
بوف@@ 1140
بْ@@ 1140
تمد 1140
ضربات 1140
ماركس 1140
نموذ@@ 1140
انى 1139
تمنح 1139
حون 1139
شاملة 1139
ناه 1139
ونت 1139
يعر@@ 1139
إشارات 1138
الأسئلة 1138
السهل 1138
القة 1138
المؤس@@ 1138
المقر 1138
ملحن 1138
ملي 1138
نيًا 1138
والدراسات 1138
البريدي 1137
الديمو@@ 1137
الفرع 1137
الكبريت 1137
المناعي 1137
تقي@@ 1137
عز 1137
وبا@@ 1137
الأرمن 1136
الانتداب 1136
البول@@ 1136
دف 1136
طلع 1136
كنة 1136
للأسر 1136
هاشم 1136
يام@@ 1136
يتون 1136
التقدمي 1135
بالضرورة 1135
قلال 1135
لج 1135
هائلة 1135
1,@@ 1134
العيون 1134
المبادرة 1134
الهياكل 1134
تتحدث 1134
تفشي 1134
صديقه 1134
وريات 1134
أعمارهم 1133
البك@@ 1133
الروا@@ 1133
تجاه@@ 1133
جابر 1133
فتيات 1133
قصائد 1133
معاملة 1133
وفيما 1133
ومج@@ 1133
ومه 1133
Richard 1132
ألوان 1132
اخرى 1132
الوز@@ 1132
سوريّة 1132
عقد@@ 1132
قليلاً 1132
مستوطنة 1132
وجودها 1132
أبواب 1131
أثبتت 1131
الثورية 1131
الحملات 1131
المهم 1131
تشتمل 1131
داول 1131
شرك@@ 1131
غرة 1131
كلير 1131
مشابه 1131
منية 1131
الجز@@ 1130
الجي@@ 1130
رص@@ 1130
زى 1130
هيد 1130
91 1129
ابون 1129
الشاشة 1129
المند@@ 1129
حمص 1129
سلي@@ 1129
سنين 1129
وأمريكا 1129
واحد@@ 1129
المجلات 1128
طرية 1128
كارول 1128
كتين 1128
كلاعب 1128
والمق@@ 1128
الكمية 1127
علاء 1127
قبض 1127
متا@@ 1127
هوائية 1127
وبر 1127
احتل 1126
التخلي 1126
امتصاص 1126
تيم@@ 1126
زائ@@ 1126
غال 1126
لتر@@ 1126
يوما 1126
الإسبان 1125
الانسحاب 1125
الحروف 1125
السينمائية 1125
عموما 1125
قوق 1125
قومية 1125
كاش@@ 1125
مئ@@ 1125
نافس 1125
وأوروبا 1125
يقد@@ 1125
$ 1124
حولها 1124
راديو 1124
ربات 1124
وتشير 1124
ومدرسة 1124
ومصر 1124
الاز@@ 1123
التسل@@ 1123
الدير 1123
اليس 1123
تير 1123
عندها 1123
كند@@ 1123
لأنهم 1123
ليبر@@ 1123
مام@@ 1123
مقيمة 1123
مناسب 1123
الخضر 1122
القصور 1122
ساد@@ 1122
مصمم 1122
مِن 1122
واحدا 1122
ينيين 1122
50@@ 1121
المعارض 1121
باغ 1121
بيس 1121
سيب 1121
يذهب 1121
الخرطوم 1120
بخصوص 1120
تمتع 1120
داي@@ 1120
اكت@@ 1119
البولي@@ 1119
السلو@@ 1119
توفيق 1119
تيري 1119
الأمد 1118
التجمعات 1118
الرقمي 1118
القصير 1118
كاد@@ 1118
الأوك@@ 1117
التحقق 1117
الخض@@ 1117
الكلى 1117
تيد 1117
للحد 1117
وجيه 1117
وروب@@ 1117
ويليامز 1117
الأغ@@ 1116
المتف@@ 1116
المعم@@ 1116
امتدت 1116
جاع 1116
ذكرها 1116
سوبر 1116
التدفق 1115
الحكام 1115
الدائم 1115
تدل 1115
تمّ 1115
غرق 1115
لح 1115
نادر 1115
استولى 1114
الغابة 1114
ددة 1114
معادلة 1114
1867 1113
الأنف 1113
المستهلك 1113
ثلاثين 1113
حن 1113
قنا@@ 1113
موراي 1113
ميك 1113
جوه@@ 1112
خبر 1112
دريك 1112
مبنية 1112
متر@@ 1112
والإي@@ 1112
والفنون 1112
الأوروبيين 1111
الزرقاء 1111
القمح 1111
بعملية 1111
مسعود 1111
منت@@ 1111
ميغيل 1111
نزاع 1111
والأطفال 1111
وكث@@ 1111
أرضية 1110
استي@@ 1110
السويدي 1110
الكفاءة 1110
اللغوية 1110
سترو@@ 1110
لاي 1110
أسسها 1109
أليكس 1109
انش@@ 1109
مؤكدة 1109
والمعروفة 1109
وسة 1109
يتي@@ 1109
َّل 1109
أطل@@ 1108
الاحتياجات 1108
الدول@@ 1108
القطبية 1108
القوا@@ 1108
المؤتمرات 1108
المجرات 1108
براءة 1108
تبني 1108
تتك@@ 1108
درا 1108
رتها 1108
شاء 1108
طفل@@ 1108
فكر 1108
ملفات 1108
منظور 1108
مْ@@ 1108
نِ@@ 1108
يسون 1108
الإقامة 1107
بدراسة 1107
تنقل 1107
دث 1107
زو@@ 1107
ليوس 1107
وتحتوي 1107
اليمني 1106
بائ@@ 1106
ثان 1106
صلا@@ 1106
فيون 1106
مدني 1106
مناف@@ 1106
ميث@@ 1106
والأدب 1106
وقر@@ 1106
إلخ 1105
الإث@@ 1105
الطاقم 1105
جس 1105
كولن 1105
مارغريت 1105
منازل 1105
موني 1105
نفو@@ 1105
وراً 1105
الرموز 1104
الشريان 1104
الضرر 1104
الهر@@ 1104
بوضوح 1104
عتين 1104
هو@@ 1104
انتهاكات 1103
جنيف 1103
لتص@@ 1103
مسمى 1103
آث@@ 1102
أراضيها 1102
الإنجليز 1102
السجناء 1102
المادي 1102
ترتفع 1102
حرس 1102
كّ@@ 1102
لبن@@ 1102
للن@@ 1102
منهج 1102
40@@ 1101
أساسا 1101
إدارية 1101
الإسلا@@ 1101
القدرات 1101
الميزانية 1101
اير 1101
صين 1101
لينا 1101
نورمان 1101
اليون@@ 1100
انخفض 1100
بتطوير 1100
خطوات 1100
كته 1100
ميلادي 1100
والصحة 1100
اكتشفت 1099
تؤكد 1099
صحيحة 1099
طلبات 1099
عينة 1099
فريدة 1099
مركزي 1099
يخص 1099
أحادي 1098
الإنج@@ 1098
الطقس 1098
ديًا 1098
عمود 1098
غتون 1098
الإضافية 1097
السيادة 1097
الصفات 1097
العميل 1097
القوي 1097
المنهج 1097
تقلي@@ 1097
جابة 1097
كومة 1097
اعت@@ 1096
واي@@ 1096
آدامز 1095
اديين 1095
اقل 1095
الاعتداء 1095
سعودية 1095
شرع 1095
عمها 1095
لر@@ 1095
هاي 1095
واز 1095
والمث@@ 1095
الأقسام 1094
الأُ@@ 1094
البريطانيون 1094
الرغبة 1094
عقدة 1094
مهاج@@ 1094
موضوع@@ 1094
33@@ 1093
إضاف@@ 1093
عملة 1093
غريب 1093
فك 1093
للسي@@ 1093
متحركة 1093
نشأة 1093
اءة 1092
المسرحي 1092
بلندن 1092
طفاء 1092
كريات 1092
لاقة 1092
أثرت 1091
انتخابية 1091
عُرف 1091
مؤسسي 1091
ومان 1091
استغلال 1090
بؤ@@ 1090
تمر@@ 1090
توضع 1090
مؤخرًا 1090
1877 1089
L. 1089
أوري@@ 1089
استُ@@ 1089
الفطريات 1089
بأمر 1089
بفعل 1089
بكين 1089
دني 1089
راجع 1089
رصد 1089
سْ@@ 1089
غربي 1089
يحقق 1089
الإغريقية 1088
بحري 1088
خوض 1088
للفريق 1088
لَّ@@ 1088
مّ 1088
يرون 1088
الأطعمة 1087
الراديو 1087
جلب 1087
خية 1087
والكتابة 1087
وهات 1087
الكلاب 1086
جمعيات 1086
جوم 1086
حجة 1086
قيب 1086
هجرة 1086
وتمت 1086
ونظام 1086
أرمينيا 1085
الجراحية 1085
العالم@@ 1085
المة 1085
بارز 1085
دخال 1085
سرقة 1085
متتالية 1085
وطة 1085
يخرج 1085
البشرة 1084
تاريخي 1084
تستعمل 1084
دوي@@ 1084
شج@@ 1084
غذ@@ 1084
للمص@@ 1084
موعد 1084
ووزير 1084
Paul 1083
أزياء 1083
الشمسي 1083
الكومنولث 1083
توافق 1083
جلال 1083
ذكر@@ 1083
لتر 1083
ماجستير 1083
وتتكون 1083
وران 1083
وكندا 1083
1873 1082
آب@@ 1082
أسقف 1082
إد 1082
القهوة 1082
الناشئة 1082
تمرير 1082
توزع 1082
شى 1082
ضرورية 1082
طاً 1082
هذة 1082
وغالبا 1082
التنظيمية 1081
بانية 1081
خه 1081
رئيساً 1081
شامل 1081
لويد 1081
ناها 1081
الأسب@@ 1080
الحمام 1080
الممتدة 1080
بطرق 1080
تام 1080
فيت@@ 1080
ومغنية 1080
انيون 1079
برايان 1079
تاد@@ 1079
تاس@@ 1079
تدهور 1079
ترأس 1079
ق.م. 1079
محسن 1079
هلك 1079
والمؤسسات 1079
َّى 1079
X@@ 1078
أبا 1078
الجدران 1078
السفلى 1078
المحدد 1078
اندلعت 1078
جال@@ 1078
ساب 1078
صنّف 1078
قاتل 1078
للاع@@ 1078
لند@@ 1078
مامة 1078
ُّ 1078
c@@ 1077
إنس@@ 1077
التعليمي 1077
برمجة 1077
تخب 1077
صاروخ 1077
لتك@@ 1077
1848 1076
أسم@@ 1076
الدائمة 1076
الكلاسيكي 1076
المزارع 1076
الميدالية 1076
جيرات 1076
خريطة 1076
كنتاكي 1076
ملح@@ 1076
والان@@ 1076
يعبر 1076
d@@ 1075
الأشهر 1075
الإص@@ 1075
المعتمد 1075
خال@@ 1075
أصدقاء 1074
الدقة 1074
الفت@@ 1074
القشرة 1074
انتصار 1074
بجوار 1074
تاجر 1074
خضع 1074
وتقدم 1074
وتولى 1074
ينش@@ 1074
اخ 1073
التوتر 1073
انًا 1073
خش@@ 1073
دارية 1073
والي@@ 1073
إثارة 1072
ئذ 1072
السح@@ 1072
المجرة 1072
تثبيت 1072
دح@@ 1072
رموز 1072
مؤلفة 1072
مونت 1072
الاحتجاجات 1071
السمك 1071
الصغار 1071
فرضية 1071
وتتميز 1071
المكرمة 1070
بوك 1070
فرق@@ 1070
ماريو 1070
مساه@@ 1070
09 1069
أقر@@ 1069
اتخذ 1069
الإيدز 1069
انج 1069
باله@@ 1069
بيًا 1069
تفجير 1069
قدمها 1069
نشاطه 1069
وأنها 1069
الباكستانية 1068
البرتغالي 1068
البيان 1068
الحيوانية 1068
الرومان@@ 1068
حاسوب 1068
سيئة 1068
كارولينا 1068
نجحت 1068
اقتصاد@@ 1067
الإشعاع 1067
انع 1067
بعرض 1067
خاض@@ 1067
متجر 1067
أخيرًا 1066
الحوض 1066
العنصر 1066
تجاهل 1066
تفر@@ 1066
رسل 1066
أيمن 1065
الفقراء 1065
تح 1065
فاة 1065
كاي 1065
الإخوان 1064
الالتزام 1064
الفسي@@ 1064
المجرية 1064
المرسوم 1064
باسمه 1064
بكة 1064
تدابير 1064
جمعت 1064
السودانية 1063
ضخ@@ 1063
فتر@@ 1063
فِ@@ 1063
لحظة 1063
هيل@@ 1063
الجين 1062
تطوان 1062
ثمّ 1062
جنبًا 1062
صدام 1062
37@@ 1061
اعتمادًا 1061
روط 1061
شراكة 1061
هياكل 1061
وجميع 1061
ابنته 1060
الده@@ 1060
الرأسمالية 1060
جبر 1060
حمي@@ 1060
رجع 1060
روش 1060
قدر@@ 1060
مباني 1060
أركان 1059
أنابيب 1059
إذن 1059
اريات 1059
الإغلاق 1059
التوقيع 1059
السطحية 1059
طعام 1059
لونغ 1059
منه@@ 1059
1875 1058
آكل 1058
البحثية 1058
الثروة 1058
الجذ@@ 1058
المدفعية 1058
ظات 1058
كريست@@ 1058
والمعروف 1058
1866 1057
أوج@@ 1057
العلاجات 1057
تسميتها 1057
تيت 1057
جاب 1057
هلة 1057
والمنا@@ 1057
والهرسك 1057
1865 1056
آباد 1056
إعد@@ 1056
الاث@@ 1056
الحقائق 1056
تاج@@ 1056
خبراء 1056
هاميلتون 1056
هت 1056
افل 1055
بعون 1055
قبر 1055
مشاه@@ 1055
ميني@@ 1055
أتى 1054
الإعلانات 1054
البالغة 1054
البيولوجي 1054
مضادة 1054
1864 1053
الجزيئية 1053
المصالح 1053
سنت 1053
طور@@ 1053
معماري 1053
الجرا@@ 1052
السيناريو 1052
اوي@@ 1052
بلغة 1052
مسب@@ 1052
94 1051
إنتر@@ 1051
البندقية 1051
الخفيفة 1051
المتنوعة 1051
المواضيع 1051
روش@@ 1051
للسلام 1051
معي@@ 1051
منفصل 1051
موز@@ 1051
والل@@ 1051
1868 1050
استقرار 1050
السلالة 1050
المخصصة 1050
المعتمدة 1050
المعدل 1050
بتي@@ 1050
ديني 1050
قمر 1050
نيون 1050
هارون 1050
هيوستن 1050
r 1049
إمكان@@ 1049
الجوفية 1049
خصص 1049
قوب 1049
للحركة 1049
معيار 1049
مَّ@@ 1049
نابلس 1049
وأخرى 1049
130 1048
استقر 1048
الغازات 1048
جاد 1048
شأن 1048
صفحات 1048
190@@ 1047
العذراء 1047
العَ@@ 1047
المؤرخون 1047
تعادل 1047
حاض@@ 1047
رياض@@ 1047
صول 1047
عدي 1047
للتنمية 1047
ولاً 1047
أدولف 1046
التث@@ 1046
القرص 1046
بيرو@@ 1046
صادق 1046
طب@@ 1046
كاثرين 1046
مخط@@ 1046
نسون 1046
والمجتمع 1046
ومس@@ 1046
ويشمل 1046
الإجراء 1045
بمفرده 1045
تقليدية 1045
ثقة 1045
حوا 1045
خري 1045
رَ 1045
عائلتها 1045
آلهة 1044
التض@@ 1044
التوجيه 1044
الصليب 1044
المتعدد 1044
المسح 1044
النور 1044
تعكس 1044
جعل@@ 1044
روفرز 1044
كاري 1044
كيان 1044
مرية 1044
مكسيكو 1044
هامبتون 1044
ويحتوي 1044
العرق 1043
سينما 1043
يوغوسلافيا 1043
110 1042
Smith 1042
أسبوعين 1042
أنهما 1042
الإيجابية 1042
تولي 1042
حقيقي 1042
سوم 1042
معارض@@ 1042
وحقق 1042
180 1041
الاندماج 1041
الجانبين 1041
الزوج 1041
تتعرض 1041
سيه 1041
عاش@@ 1041
مقام 1041
نشطة 1041
وتشي 1041
ومعظم 1041
المستمرة 1040
ضعيفة 1040
كنائس 1040
وبينما 1040
الحُ@@ 1039
الموضوعات 1039
تباع 1039
زيف 1039
صحراء 1039
مالك@@ 1039
والآخر 1039
يسم@@ 1039
الجليل 1038
تناف@@ 1038
مرتبط 1038
الإجهاض 1037
المدخل 1037
المرتفعة 1037
المكون 1037
تلقي 1037
ساً 1037
طنة 1037
كليفلاند 1037
للدراسة 1037
مجل@@ 1037
football 1036
o 1036
إلكترونية 1036
تمكين 1036
خرفة 1036
رياً 1036
شيك@@ 1036
عين@@ 1036
وتعزيز 1036
.و 1035
2.5 1035
اعتراف 1035
السُ@@ 1035
المدافع 1035
النّ@@ 1035
بتأسيس 1035
بكثرة 1035
تقال 1035
جونيور 1035
سقط 1035
لتنظيم 1035
متراً 1035
اجم 1034
الفائدة 1034
ثمار 1034
مشر@@ 1034
معالم 1034
نانة 1034
والأح@@ 1034
الأط@@ 1033
السبعة 1033
الشرا@@ 1033
انغ@@ 1033
دٍ 1033
ذاعة 1033
سمحت 1033
ولوا 1033
الصليبية 1032
الناخبين 1032
انح@@ 1032
لّ@@ 1032
محافظات 1032
محيط 1032
وامل 1032
وفد 1032
اعترف 1031
التطورات 1031
الروابط 1031
حساسية 1031
رئي@@ 1031
زهرة 1031
ساد 1031
سته 1031
سيان 1031
عث@@ 1031
للمملكة 1031
وبان 1031
الليلة 1030
انين 1030
توازن 1030
حساب@@ 1030
يوب 1030
اشات 1029
الآلي 1029
الطابق 1029
جلا@@ 1029
ذن 1029
كرواتيا 1029
للقانون 1029
ولكنهم 1029
ينر 1029
الآراء 1028
الأذ@@ 1028
الأسفل 1028
اليسرى 1028
بوبي 1028
بيتش 1028
تسببت 1028
طريقه 1028
محلي 1028
ّها 1028
4- 1027
900 1027
Y@@ 1027
إرس@@ 1027
الحجاز 1027
القدماء 1027
المصاب 1027
جهاد 1027
دائماً 1027
شيئا 1027
هوب 1027
وانتهى 1027
إيرل 1026
بناؤه 1026
دعت 1026
غالي@@ 1026
لمد@@ 1026
لوان 1026
مصانع 1026
مويل 1026
ونظ@@ 1026
1872 1025
ابتداء 1025
اللحوم 1025
خلافة 1025
سيناء 1025
للذ@@ 1025
موجو@@ 1025
هذين 1025
وجون 1025
ودخل 1025
وسلا@@ 1025
إنجاز 1024
الره@@ 1024
الصفحة 1024
تاً 1024
خم 1024
شهادات 1024
لتحرير 1024
ومز@@ 1024
ابًا 1023
السري@@ 1023
المشهورة 1023
تمديد 1023
فك@@ 1023
كلاً 1023
كهربائية 1023
معامل 1023
الالتهاب 1022
البنوك 1022
بعيدا 1022
بمرور 1022
زاب@@ 1022
سهم 1022
أند 1021
المقر@@ 1021
كام 1021
كري 1021
مماثل 1021
1869 1020
آيرس 1020
البرتغالية 1020
طاقات 1020
مسئ@@ 1020
وقعة 1020
المصنع 1019
تمنع 1019
رول 1019
عصره 1019
عنده 1019
قبرص 1019
كانساس 1019
لآخر 1019
نوم@@ 1019
هوليوود 1019
08 1018
أطراف 1018
الاكتئاب 1018
النقيض 1018
انز@@ 1018
بارد 1018
حلق@@ 1018
زيين 1018
زًا 1018
مَ 1018
والسك@@ 1018
أسطوانات 1017
بريد 1017
خل 1017
سمه 1017
فيلق 1017
لبي@@ 1017
البديل 1016
التاج 1016
الخيول 1016
الصحفية 1016
دلي 1016
عينات 1016
وإنتاج 1016
يواجه 1016
الخمسينيات 1015
الدي 1015
الفة 1015
المهرجان 1015
النقاش 1015
بنغلاديش 1015
تنس 1015
دانية 1015
شوف 1015
كلاسي@@ 1015
اختبار@@ 1014
اختصاص@@ 1014
الحل 1014
السبعينات 1014
توقفت 1014
عهده 1014
أسد 1013
الكهرو@@ 1013
بعات 1013
تصر 1013
جاً 1013
رقص 1013
فلك 1013
لتنفيذ 1013
وحزب 1013
وشر@@ 1013
اءً 1012
الخليل 1012
العن@@ 1012
برنارد 1012
تونسي 1012
جيشه 1012
حوادث 1012
خوف 1012
شخ@@ 1012
طلي@@ 1012
طواف 1012
عيان 1012
هير 1012
يُع@@ 1012
الرشيد 1011
النانوية 1011
بأكثر 1011
ستو 1011
مسافات 1011
والعشرون 1011
يانغ 1011
الأعوام 1010
الرائدة 1010
الرقابة 1010
المسألة 1010
ايرة 1010
تعبير 1010
تغذية 1010
جانيرو 1010
ستها 1010
صحفية 1010
لاته 1010
مفتاح 1010
وآخر 1010
امرة 1009
انتص@@ 1009
داكوتا 1009
صيانة 1009
والهندسة 1009
آت 1008
أوروبية 1008
اعه 1008
الخلوية 1008
حصوله 1008
رجب 1008
شهور 1008
طالب@@ 1008
منحها 1008
1874 1007
أسرته 1007
ئًا 1007
التشكي@@ 1007
النشأة 1007
جدران 1007
فردية 1007
متزوج 1007
منحت 1007
ودور 1007
يساوي 1007
03 1006
أشرف 1006
استقبال 1006
الحصن 1006
المطبخ 1006
تال@@ 1006
تند@@ 1006
ثمان 1006
نفس@@ 1006
Q@@ 1005
العب@@ 1005
جانبي 1005
جملة 1005
روت 1005
ستيشن 1005
مقدونيا 1005
ينتهي 1005
المعالج 1004
بنجامين 1004
تعليمات 1004
روبن 1004
طري 1004
طَ@@ 1004
قس 1004
ماج@@ 1004
هكذا 1004
وجب 1004
07 1003
الحليب 1003
السّ@@ 1003
تساوي 1003
سلاسل 1003
شكسبير 1003
الإصلاحات 1002
الرب@@ 1002
دكتوراه 1002
زلي 1002
مزارع 1002
مهند@@ 1002
وإنشاء 1002
اصط@@ 1001
الأنماط 1001
السب@@ 1001
تعز 1001
دعاء 1001
غنية 1001
لفظ 1001
لله 1001
ندة 1001
وتحديد 1001
وفان 1001
وكيف 1001
S. 1000
أمراء 1000
التطبيقية 1000
الليبي 1000
انتشر 1000
بالمركز 1000
بعه 1000
حزب@@ 1000
ذروة 1000
سوني 1000
صيلة 1000
عظام 1000
فلاديمير 1000
لار 1000
هين 1000
يضع 1000
أخت@@ 999
المعتقدات 999
تنطوي 999
وتتضمن 999
اعتمدت 998
البوم 998
الفهم 998
القمة 998
بالكأس 998
بولس 998
جنين 998
حور 998
طرب 998
للكنيسة 998
يخضع 998
إضافي 997
الاضطراب 997
الدماغية 997
الشجرة 997
امنة 997
بادئ 997
جزي@@ 997
سلحة 997
طبي 997
عرضها 997
موس@@ 997
ودون 997
أسبوع@@ 996
أكاديمي 996
التور@@ 996
العمومية 996
الغرام 996
القبول 996
القرا@@ 996
جديدًا 996
روماني 996
ِّ 996
التأكيد 995
الجيني 995
القصيدة 995
المصابة 995
المكتبات 995
النخيل 995
عاب@@ 995
160 994
أرو@@ 994
الفصول 994
اللحظة 994
المكتوبة 994
النك@@ 994
تفسي@@ 994
جلسة 994
قارة 994
قيثارة 994
مقط@@ 994
وناش@@ 994
وهيئات 994
أخير 993
اتخ@@ 993
خات 993
ستيف@@ 993
عانى 993
قائق 993
واجهت 993
أبد@@ 992
الخل@@ 992
ريكو 992
طيبة 992
قطاعات 992
كبي@@ 992
للجمعية 992
لمعالجة 992
ماذا 992
وليست 992
يتيح 992
أذ@@ 991
اءه 991
الكام@@ 991
الليبية 991
سد@@ 991
ظفار 991
كِ@@ 991
لبرنامج 991
إظهار 990
اصة 990
قائم 990
والتطوير 990
أى 989
اعل@@ 989
اقه 989
جمعة 989
غني 989
قرأ 989
مشتق 989
يتولى 989
احترام 988
الشرعي 988
العنصري 988
الماشية 988
النزاعات 988
شح 988
صمم 988
فوت@@ 988
منحه 988
واعد 988
والتجارة 988
ومدينة 988
يلو 988
الصحفيين 987
القارات 987
شيوخ 987
شِ@@ 987
اته@@ 986
الحقل 986
شرط 986
للموسيقى 986
هيمنة 986
والعالم 986
وولف 986
ويظهر 986
يعكس 986
الحوادث 985
شيوعا 985
كاس 985
متنا@@ 985
مستخد@@ 985
نوفا 985
يُنظر 985
السجلات 984
الطبعة 984
باخت@@ 984
بيرة 984
حْ@@ 984
داون 984
روبرتس 984
فقام 984
قن@@ 984
وقت@@ 984
احي 983
البلاط 983
برمنغهام 983
خور@@ 983
واحداً 983
يونس 983
أحسن 982
ابنها 982
الأوقات 982
الإعاقة 982
الحساب 982
الملي@@ 982
انفجار 982
ذيب 982
قذ@@ 982
محتر@@ 982
والعربية 982
ينقسم 982
MPO24@@ 981
an 981
s@@ 981
البرمجة 981
الصاروخ 981
العضو 981
المعدية 981
المهندسين 981
روايته 981
عميد 981
لكها 981
ميزانية 981
وأح@@ 981
أرسلت 980
إجازة 980
الإدراك 980
التفاصيل 980
الرحيم 980
الواقعية 980
تهتم 980
زيم 980
غلق 980
مصنوعة 980
أحادية 979
استعم@@ 979
ماه 979
مفاهيم 979
موسمًا 979
وأطلق 979
وبالمركز 979
يمكنهم 979
أبعد 978
أحي@@ 978
أوي@@ 978
إيق@@ 978
تتغير 978
تتمكن 978
عنف 978
فريقه 978
فهناك 978
كلينتون 978
ميلي 978
أتلانتا 977
اشية 977
الأقمار 977
الذيل 977
موسوعة 977
والاقتصاد 977
السامية 976
الشهيد 976
المضاد 976
بابل 976
بيوت 976
تشك@@ 976
درز 976
عمد 976
للكتاب 976
لمعرفة 976
وأدى 976
وروسيا 976
إسب@@ 975
دق 975
صادر 975
نسبه 975
أسطول 974
إغ@@ 974
اذة 974
بتك@@ 974
بوينس 974
رفعت 974
زراعية 974
كوسيلة 974
وإيطاليا 974
وجا 974
1863 973
أرقام 973
اعم 973
الواردة 973
تحيط 973
عبر@@ 973
قشتالة 973
ماش 973
ملت 973
والإن@@ 973
وسُ@@ 973
يحر@@ 973
ادى 972
اسات 972
اعترا@@ 972
تخصص@@ 972
حيين 972
خيالية 972
صواريخ 972
لينتقل 972
وحقوق 972
إصابات 971
البذور 971
الجري@@ 971
الخلاف 971
الستينات 971
خاصةً 971
قسمين 971
وده 971
um 970
أوباما 970
الحديدي 970
الراحة 970
السفارة 970
بدال 970
جول 970
ذين 970
روبي 970
شارلوت 970
مؤلفات 970
يومين 970
ئه 969
العديدة 969
انطلقت 969
توت@@ 969
طاء 969
طبقا 969
مئة 969
ومؤلف 969
R. 968
p@@ 968
البولندي 968
المجتمعية 968
اليم 968
بكتيريا 968
جام 968
خارجي 968
ككل 968
لخدمة 968
نوعين 968
أوكلاهوما 967
المتغيرات 967
ايضا 967
اين@@ 967
خارف 967
ستريت 967
صدور 967
عانت 967
نفذ 967
واقعةً 967
ونين 967
يغطي 967
الأجنحة 966
السائد 966
المختبر 966
انتباه 966
انتش@@ 966
بالمنطقة 966
تومي 966
ثلث 966
زار@@ 966
شتاين 966
للثقافة 966
ندات 966
هوك@@ 966
الدبابات 965
المائي 965
بطرس 965
تقرر 965
عنا@@ 965
ماية 965
مترا 965
ؤه 964
بوز@@ 964
تحر@@ 964
واسع@@ 964
e@@ 963
البيوت 963
الجينية 963
الحادة 963
الكات@@ 963
المفتوح 963
بدي 963
تت 963
توثيق 963
ثارة 963
دث@@ 963
عقيدة 963
قائلا 963
وخط@@ 963
وسا 963
ائز 962
التخزين 962
الحجاج 962
اللواتي 962
باين 962
حدائق 962
ساوث@@ 962
سوزان 962
لتين 962
متفرج 962
مجالس 962
وإخراج 962
وعملت 962
ومجلس 962
التوصل 961
ترق 961
حمزة 961
سائق 961
مقاعد 961
وأشار 961
والتك@@ 961
وتوفير 961
ويشير 961
06 960
D9 960
U 960
أون 960
إنقاذ 960
الاعتقال 960
خرائط 960
دعوى 960
شور@@ 960
ياتها 960
يتناول 960
إشبيلية 959
الطائر 959
الفرنسيون 959
القد@@ 959
الهج@@ 959
تكار 959
عذ@@ 959
وُلدت 959
80@@ 958
إنما 958
القولون 958
انتظار 958
بنا 958
كيمي@@ 958
معيلات 958
هضبة 958
وتحسين 958
إدريس 957
إط@@ 957
إنديانا 957
الاف@@ 957
التلوث 957
جبلية 957
شل@@ 957
منتج@@ 957
ونُ@@ 957
ويلك@@ 957
الآسيوي 956
القريب 956
المحمية 956
الناجمة 956
بلوم 956
بوصفها 956
تعبر 956
ثون 956
شاهين 956
طيات 956
كتور 956
مقره 956
ونز 956
أوبرا 955
الزب@@ 955
المصورة 955
انتي 955
لجمع 955
الإبادة 954
الجما@@ 954
المساعدات 954
برس 954
تصوي@@ 954
تفع 954
رقت 954
سرب 954
شمالي 954
فتحة 954
موية 954
نفوذ 954
والشرق 954
يقيم 954
ّح 954
أيه 953
إثيوبيا 953
الأناضول 953
التناسلية 953
الدعاية 953
المصانع 953
جزائري 953
عدل 953
فرانسوا 953
مقر@@ 953
وكيل 953
Z@@ 952
أدرك 952
الاته 952
الدراجات 952
جال 952
خرا@@ 952
ذى 952
رفض@@ 952
لّ 952
نزع 952
والتلفزيون 952
َّر 952
1857 951
الحظر 951
الصهيونية 951
الضرورية 951
توك@@ 951
رط@@ 951
كويتي 951
لفريق 951
نجاح@@ 951
والهند 951
وعض@@ 951
ِّر 951
أعلام 950
اردو 950
الإجمالية 950
الاولى 950
البرازيلي 950
التقاط 950
الرب 950
الفري@@ 950
الوثيقة 950
قوم@@ 950
مضيق 950
هون 950
يمل@@ 950
حلي@@ 949
غض@@ 949
لعمل 949
للعالم 949
والاتصالات 949
B. 948
استن@@ 948
التبادل 948
السفير 948
بينيت 948
رخ 948
مرتفع 948
هلال 948
يعلم 948
آخ@@ 947
اظ 947
الإعلامي 947
الفارسي 947
القادم 947
النفا@@ 947
ثرية 947
جلين 947
داعش 947
كولي@@ 947
نيف 947
4,@@ 946
أثرية 946
ألم 946
إلكترو@@ 946
العينات 946
تغلب 946
سبت 946
سكي@@ 946
ندق 946
والذ@@ 946
أساسًا 945
إيفانز 945
الآونة 945
الخلي@@ 945
برتغالي 945
تنوع 945
عنا 945
فصول 945
كوب 945
مريض 945
وموسيقي 945
يعتقدون 945
الانتفاضة 944
الرئيسة 944
الشاي 944
المنتجة 944
سرع 944
غود@@ 944
فرانكفورت 944
لصناعة 944
للفيلم 944
للمجلس 944
مرا 944
مشاهير 944
يراً 944
يقود 944
38@@ 943
العبارة 943
اناً 943
بنيويورك 943
جماعية 943
دراسية 943
فاي 943
لماذا 943
مقارنةً 943
وأث@@ 943
أدو@@ 942
الخميس 942
اهل 942
بأكمله 942
بلو 942
جارة 942
رش 942
شاي 942
ضربة 942
عياد 942
فلسطيني 942
نجاحا 942
نقاش 942
والصين 942
K 941
الأسطورة 941
البترول 941
المقال 941
سلات 941
صالحة 941
قرص 941
كثرة 941
لسنوات 941
مسة 941
وجين 941
وهنا 941
أخضر 940
ادم 940
الأست@@ 940
البارزين 940
التقديرات 940
الثوار 940
الحفريات 940
اللاتي 940
اغ 939
البن@@ 939
الحضور 939
الشرب 939
العضلي 939
ترج@@ 939
تقاليد 939
حقوق@@ 939
خيرة 939
رالف 939
رَّ@@ 939
زيرة 939
شرعية 939
طابع 939
للقضاء 939
مينية 939
والفرنسية 939
أثبت 938
اتباع 938
احات 938
البدنية 938
الحدائق 938
السما@@ 938
الشحن 938
القذ@@ 938
الكرا@@ 938
تقديرات 938
تمع 938
جزاء 938
خمسين 938
درك 938
غات 938
كائن 938
لتعليم 938
لسي 938
هكتار 938
وشي 938
وفيه 938
وكذا 938
اداً 937
المنطق 937
بالغة 937
تلة 937
ضايا 937
للي 937
مولر 937
نوي@@ 937
والمط@@ 937
الفاكهة 936
بقدر 936
تراث 936
تستند 936
تسيطر 936
غريبة 936
لسان 936
نيوز 936
وائي 936
وتض@@ 936
أمر@@ 935
إش@@ 935
الأركان 935
الاصطناعي 935
العلوية 935
الكول@@ 935
المؤلفات 935
الوظيفية 935
ميز@@ 935
نهائيات 935
1850 934
MPO25@@ 934
أطباء 934
الطور 934
بإمكان@@ 934
جرعة 934
قبالة 934
وأم 934
يقو@@ 934
l 933
أعمدة 933
البري 933
القلبية 933
النفوذ 933
تقليد 933
ريكس 933
ميري@@ 933
أوجه 932
الآلة 932
الحفر 932
السويس 932
شراف 932
طه@@ 932
هاواي 932
استخراج 931
الشف@@ 931
المرشحين 931
المعابد 931
النسب 931
ثمة 931
درية 931
سيبي 931
كانو 931
متكرر 931
مختلطين 931
الفضائي 930
المناهج 930
دوي 930
صدار 930
طائ@@ 930
عنى 930
قاع 930
لتقييم 930
مكاف@@ 930
مليارات 930
نطق 930
نيابة 930
نيك@@ 930
يقضي 930
ييل 930
الأفعال 929
الدورات 929
القوقاز 929
شرات 929
عرقين 929
قيًا 929
مشتر@@ 929
هاف@@ 929
والسياسة 929
1862 928
الأوروغواي 928
برين@@ 928
تيبة 928
عاب 928
فوج 928
فوف 928
كيمياء 928
لجمهورية 928
للاخت@@ 928
مشوارها 928
يهتم 928
350 927
et 927
اعتبرت 927
تكن@@ 927
تيز@@ 927
عند@@ 927
والعلاج 927
ويضم 927
يعه 927
60@@ 926
تقاطع 926
خصة 926
وكتاب 926
يدر@@ 926
الأرضي 925
الأصدقاء 925
الاحتي@@ 925
البسيط 925
الفشل 925
المقابلة 925
بإنتاج 925
بعها 925
طباء 925
قس@@ 925
مفتوح 925
وأضاف 925
يستطع 925
02 924
II 924
أكاديمي@@ 924
إبان 924
إيك@@ 924
الخبر 924
اللطيف 924
تلي 924
توضح 924
للدراجات 924
مباشرةً 924
نشر@@ 924
والدين 924
^ 923
al 923
أميرة 923
الأبطال 923
التزام 923
الخبز 923
الظاهر 923
بكتابة 923
داث 923
سنتي 923
ممت@@ 923
إدرا@@ 922
افترا@@ 922
الإمارة 922
البوابة 922
الرغ@@ 922
المساهمة 922
بروز 922
تصدير 922
رأي@@ 922
سانتياغو 922
قواته 922
كنا 922
معسكرات 922
نووية 922
والألعاب 922
ابعة 921
استمر@@ 921
الذكرى 921
الصوفية 921
العقيد 921
الفضة 921
انيات 921
شيد 921
قطب 921
كيث 921
هرباء 921
هندية 921
واريخ 921
واصلت 921
وذات 921
استطاعت 920
الرك@@ 920
الغام@@ 920
المبلغ 920
المسلسلات 920
المعارف 920
النباتي 920
الواسعة 920
ذاء 920
عرو@@ 920
مائي 920
هيئات 920
وصي@@ 920
افا 919
العط@@ 919
اللورد 919
المرشح 919
المصنعة 919
بلدات 919
شريكة 919
شهرين 919
والب@@ 919
واه@@ 919
إستراتيجية 918
الذك@@ 918
الزيت 918
السوداني 918
العشر 918
ترنت 918
تزداد 918
دبابة 918
ددت 918
للنادي 918
مخر@@ 918
والمنظمات 918
وتحت 918
وتنظيم 918
جادل 917
سامسونج 917
هود@@ 917
والأكاديمية 917
والرا@@ 917
أوستن 916
أوين 916
الحلو@@ 916
الداف@@ 916
المسجلة 916
النخبة 916
جرام 916
عطلة 916
قامة 916
كهربائي 916
لقى 916
مصممة 916
يبة 916
يدفع 916
يصدر 916
أسفر 915
التعديلات 915
الفيلق 915
القيصر 915
المتجددة 915
تجهيز 915
ختم 915
كالتالي 915
لزم 915
ليند@@ 915
مشهورة 915
هنة 915
وصور 915
ولين@@ 915
1859 914
ألا@@ 914
الأقليات 914
الجهاد 914
الروحية 914
الزوار 914
المستدامة 914
بريان 914
تاريخ@@ 914
تواصل 914
سونغ 914
كاميرون 914
للسماح 914
مزي 914
نشره 914
والمس@@ 914
وعد 914
يتغير 914
أدناه 913
اندماج 913
رايس 913
لحل 913
ماز@@ 913
هارولد 913
وجات 913
ودين 913
ويلعب 913
f 912
أوليفر 912
الأبجدية 912
التشي@@ 912
القطار 912
اليدوية 912
تربة 912
تني 912
توج 912
سطة 912
شركاء 912
فاد@@ 912
منتظمة 912
موجهة 912
التنبؤ 911
الروك 911
الظواهر 911
المؤمنين 911
صعبة 911
طق 911
طلقت 911
قيمتها 911
مخاوف 911
مشاعر 911
نتاج 911
ورهم 911
ونيل 911
الإمبراطوري 910
الثابت 910
الزرا@@ 910
جايسون 910
حتلال 910
حدات 910
قدرته 910
كسية 910
لاغ@@ 910
ميري 910
ومنع 910
اؤها 909
الأخطاء 909
الدماغي 909
الزمالك 909
المتش@@ 909
خيل 909
دالاس 909
ذات@@ 909
صوت@@ 909
مبد@@ 909
مساحات 909
هيرمان 909
وحوالي 909
وعلي 909
22@@ 908
اتش 908
الظلام 908
العظ@@ 908
العنصرية 908
المستشار 908
الوالدين 908
بيريز 908
ثًا 908
رُ 908
كوت 908
محد@@ 908
وظهرت 908
المستقل 907
الهيئات 907
بطلب 907
رودريغيز 907
غا@@ 907
غوي@@ 907
كمان 907
لوضع 907
مؤقت 907
ماري@@ 907
وأحمد 907
ؤدي 906
ازداد 906
الأع@@ 906
العشرة 906
اللاه@@ 906
الناجحة 906
باحثين 906
تسميته 906
تمة 906
خنيفرة 906
دوج@@ 906
شام 906
فضلًا 906
قناع 906
للمع@@ 906
مواقف 906
هوت@@ 906
ويمبلدون 906
يبحث 906
اتو 905
التردد 905
الزوجة 905
الشطرنج 905
المصارعة 905
المو@@ 905
اورة 905
برو 905
بمن 905
جِ@@ 905
خفيفة 905
دبابات 905
رن@@ 905
شعب@@ 905
غرناطة 905
كوسوفو 905
لٍ 905
مك 905
ميامي 905
series 904
اختلا@@ 904
انتفاضة 904
بارا 904
بالألمانية 904
بفترة 904
تحرك 904
تران@@ 904
حيدر 904
سانتوس 904
طالما 904
قلق@@ 904
ووهان 904
أخلا@@ 903
أندي 903
اريف 903
التكاثر 903
الخرائط 903
السعر 903
الوسائط 903
تضع 903
تعرض@@ 903
ديدات 903
راد@@ 903
فاج@@ 903
مصور 903
وراق 903
الإنس@@ 902
الفلكية 902
انتهاك 902
حفر 902
فلو@@ 902
مجه@@ 902
نسي 902
وثيق 902
ومات@@ 902
إسترليني 901
اقتص@@ 901
الثلج 901
المنشآت 901
الميدان 901
ربح 901
قدمه 901
مغربية 901
ميلاد 901
هدفه 901
وتاريخ 901
ابق 900
النبوي 900
بلوس 900
رحلته 900
سامية 900
لنفسه 900
وثلاثة 900
وفسكي 900
يترك 900
يري@@ 900
إدواردز 899
التدري@@ 899
المتزايد 899
باير 899
مقاطع 899
وحماية 899
الخسائر 898
العميقة 898
الفلسفية 898
الكوك@@ 898
اللقاح 898
تصنع 898
جغرافية 898
صعوبات 898
طاف 898
كلوريد 898
لدولة 898
ليم 898
مثيرة 898
مش 898
مناس@@ 898
موطن 898
ومدير 898
إقلي@@ 897
الطلاق 897
انتون 897
باور 897
سيوس 897
الأخلاق 896
العظيمة 896
بقتل 896
جلو@@ 896
راسيل 896
غول 896
لكأس 896
موضوعات 896
واليابان 896
ولديه 896
يند@@ 896
أرس@@ 895
ارتها 895
البديلة 895
التام 895
التجزئة 895
حمراء 895
للجمهور 895
مادية 895
نجاحًا 895
نجيب 895
البع@@ 894
بتة 894
بيرت 894
بيريا 894
حيفا 894
عبدالله 894
مفاوضات 894
نواحي 894
هايم 894
وتية 894
يج 894
ائيًا 893
اجتماعات 893
افير 893
الأجل 893
النمساوي 893
حوا@@ 893
داروين 893
دروس 893
رونالد 893
معلم 893
ممر 893
ميثاق 893
نارية 893
هيوز 893
يرلندا 893
أشياء 892
اكتش@@ 892
الصينيين 892
الغطاء 892
رز@@ 892
قود 892
للطيران 892
مدنية 892
هامبورغ 892
ورس 892
يدع@@ 892
اقترا@@ 891
المدة 891
باعة 891
بركة 891
شاعرة 891
طفولته 891
كى 891
لدينا 891
وبالنسبة 891
ودرجة 891
افتتحت 890
العسك@@ 890
المترا@@ 890
المذكور 890
النسي@@ 890
لألعاب 890
مانهاتن 890
منس@@ 890
يرمز 890
تهديد 889
حصر 889
خور 889
فوق@@ 889
محرر 889
يؤمن 889
إحداث 888
الناب@@ 888
بالعربية 888
تاز 888
خوف@@ 888
زج@@ 888
شوار@@ 888
يقتصر 888
أسامة 887
أولية 887
إصدارات 887
اختلافات 887
الانترنت 887
الصحيحة 887
المسئ@@ 887
المقارنة 887
تشريع 887
حسان 887
زملائه 887
ستينيات 887
لويزيانا 887
والحياة 887
الحساسية 886
الحمي@@ 886
القتلى 886
تساهم 886
تسو@@ 886
تولي@@ 886
تينيسي 886
رائدة 886
زع 886
زنة 886
ميًا 886
إدراك 885
اتخذت 885
الحن@@ 885
الغالبية 885
اللوحات 885
المخطوطات 885
بحار 885
تقاعد 885
شعرية 885
كلًا 885
وأعط@@ 885
ويطلق 885
يفترض 885
يوماً 885
أوضح 884
الإشعاعي 884
المدرسية 884
بإطلاق 884
بعمر 884
غلاف 884
قرطبة 884
قف@@ 884
كلّ 884
لجمعية 884
متى 884
هلاك 884
ويف 884
البروتستانتية 883
البص@@ 883
الحاجز 883
الحداثة 883
القتالية 883
دما@@ 883
راتيجيات 883
كشاف 883
مخيم 883
مسائل 883
موقعه 883
هانز 883
يقاف 883
e 882
العملات 882
المقبرة 882
حادة 882
صينية 882
طرابات 882
فريق@@ 882
كتها 882
هداف 882
واستطاع 882
والض@@ 882
والموا@@ 882
الأمام 881
الحربي 881
الفلاحين 881
المعاملة 881
اليل 881
سلك 881
سمير 881
كورت 881
واجبات 881
وجي 881
الإنتاجية 880
النصب 880
بطاقات 880
فيرا 880
لبر@@ 880
لتقليل 880
للإصابة 880
للإناث 880
للحكم 880
مؤقتة 880
متساوية 880
نون@@ 880
والزراعة 880
المكاف@@ 879
دمت 879
رجي 879
ستار@@ 879
لاج@@ 879
واين 879
يطل@@ 879
4000 878
D. 878
أبولو 878
ألفونسو 878
ائزة 878
استطلاع 878
اطف 878
التصفيات 878
الشعار 878
الفراغ 878
الميت@@ 878
بحثية 878
تريد 878
سيلي@@ 878
غراي 878
2,@@ 877
أنشئ 877
التشيك 877
الصفر 877
اللازم 877
اللحم 877
امام 877
بأعمال 877
سوفي@@ 877
معاوية 877
ميون 877
نجمة 877
وشغل 877
يزداد 877
يصعب 877
ی@@ 877
الأمراء 876
البعث 876
الجيدة 876
الفنانة 876
الفوائد 876
الواجهة 876
بنة 876
حاص@@ 876
رشاد 876
وظهر 876
ووفقا 876
يستخدمون 876
أمضى 875
إسقاط 875
الانقسام 875
التاجي 875
التذكاري 875
بطري@@ 875
تفق 875
عرقية 875
علها 875
كينيا 875
مستقبل@@ 875
مهدي 875
مواصفات 875
مواق@@ 875
ميك@@ 875
والاس 875
والحفاظ 875
Joseph 874
أسترالية 874
ادته 874
اعلات 874
الأزياء 874
الدينام@@ 874
الضوئية 874
المتر@@ 874
المُست@@ 874
تلقائ@@ 874
راتها 874
سمع@@ 874
فيز 874
m 873
السينية 873
الشريط 873
بالاشتراك 873
شريان 873
للأرض 873
ممارسات 873
هيلين 873
وكأس 873
Edward 872
k 872
الغنية 872
القطاعات 872
المؤسس 872
النقوش 872
نووي 872
وافت@@ 872
ومان@@ 872
إمبراط@@ 871
ارض@@ 871
الأقاليم 871
السويسري 871
الفول@@ 871
النَّ@@ 871
بجميع 871
بيرية 871
دينار 871
ضلية 871
للأبحاث 871
للعيش 871
ملاء 871
نقلها 871
أوريغون 870
أُعلن 870
التمريض 870
تجمعات 870
روة 870
للشركات 870
مقتر@@ 870
نورث@@ 870
la 869
أمستردام 869
الحركية 869
الرائد 869
المقد@@ 869
الوص@@ 869
بانتظام 869
تحتل 869
ترتي@@ 869
تشكي@@ 869
حِ@@ 869
شمالا 869
صناعي 869
نصيب 869
نقله 869
125 868
الصدمة 868
امت 868
بأسلوب 868
حن@@ 868
خصوصاً 868
سراح 868
غرانت 868
قيصر 868
كيلومترات 868
مثلًا 868
منشأة 868
أنش@@ 867
العسكريين 867
المفاصل 867
الهول@@ 867
تشري@@ 867
تشستر 867
غهام 867
كتاباته 867
كـ 867
محلول 867
ممار@@ 867
وجمع 867
1856 866
اللذان 866
بتلك 866
بيرس 866
تتأثر 866
ختان 866
للطب 866
مشاركته 866
منافس 866
هيمن 866
b@@ 865
الساحلي 865
الضحية 865
باللون 865
تخلي@@ 865
حكاية 865
خادم 865
خوس 865
راني 865
ريكا 865
طان@@ 865
للجمهورية 865
نجلي@@ 865
واقعية 865
وحيدة 865
أشد 864
أعض@@ 864
الخ 864
السباحة 864
الشافعي 864
العينة 864
الكاب@@ 864
خفيف 864
لوكاس 864
مواصلة 864
يمارس 864
? 863
آمن 863
الحجرية 863
المحطات 863
بوط 863
فيري@@ 863
والتش@@ 863
ياسين 863
الألفية 862
الإشراف 862
ترح 862
حملت 862
فيلم@@ 862
كورتيس 862
والديه 862
وبالمثل 862
أسوأ 861
الانق@@ 861
الجسد 861
انض@@ 861
بنقل 861
فذ 861
لاعبي 861
مسا@@ 861
مواطني 861
نُشر 861
هوم@@ 861
هيب 861
يمز 861
يِّ@@ 861
أفادت 860
ارتداء 860
استكشاف 860
التشريح 860
الرومانسية 860
الطباعة 860
الطين 860
تميزت 860
تيش 860
جائ@@ 860
ديها 860
علة 860
ليلي 860
يمكننا 860
بسرطان 859
تتخذ 859
ديريك 859
عده 859
كوين@@ 859
متميزة 859
معتمدية 859
وسوف 859
ى@@ 859
أساطير 858
الذه@@ 858
المستوطنات 858
انقطاع 858
بنائه 858
دلتا 858
ليست@@ 858
منتدى 858
والتن@@ 858
وشاركت 858
يحوي 858
يهود 858
الإجهاد 857
الإخبارية 857
الفئران 857
المؤامرة 857
بصفتها 857
بوست 857
بّ@@ 857
توي 857
سلالات 857
شعبي 857
ميز 857
نظمة 857
وأجهزة 857
وخدمات 857
ازد@@ 856
البنغال 856
الرج@@ 856
السلبي 856
المسل@@ 856
المعتاد 856
بالماء 856
بمجموعة 856
تصاب 856
تفل 856
ثر@@ 856
لوف@@ 856
نيته 856
ولادته 856
ينًا 856
90@@ 855
أصفر 855
اقب 855
التأسيس 855
الفيلسوف 855
تخذ 855
دينا 855
مسارات 855
نشاطات 855
وتظهر 855
أجنبية 854
إلياس 854
است 854
الأمان 854
التدخين 854
العباس 854
خيارات 854
راضي 854
سبعينيات 854
فاهية 854
قائه 854
قدمًا 854
وأق@@ 854
ولأن 854
يدو 854
إليوت 853
اشترا@@ 853
الجنا@@ 853
الخيل 853
الممتلكات 853
الهروب 853
تتسبب 853
رائعة 853
سعت 853
سنا 853
شيئًا 853
كلتا 853
مؤامرة 853
مسك 853
نتان 853
وجعل 853
يمني 853
5,@@ 852
اعتبارا 852
القطن 852
القوس 852
انضمام 852
ضرائب 852
محافظ@@ 852
مشكلات 852
منتظم 852
يمنح 852
أدوية 851
اعتب@@ 851
المنفى 851
بمصر 851
دفعت 851
غانا 851
قسطنطين 851
كف@@ 851
ويرى 851
يمة 851
1849 850
39@@ 850
Australian 850
الثمانية 850
المسلم 850
برع 850
تالي@@ 850
تسب 850
تشيلسي 850
خاصية 850
ذهبت 850
ربحية 850
رينو 850
فيلي 850
وعام 850
يومي 850
الفعالة 849
باز@@ 849
بيو 849
حكوم@@ 849
شاح@@ 849
صحي 849
كتل 849
متخصص 849
مستخدم 849
وحكم 849
وقُ@@ 849
أريزونا 848
أليس 848
ائلة 848
الشارقة 848
المستهلكين 848
المعر@@ 848
جزئي 848
خن 848
ذمار 848
فرانكو 848
فيزياء 848
للي@@ 848
يلها 848
i@@ 847
ألق@@ 847
الاختراع 847
المنشورة 847
ايل 847
بيتها 847
حصلوا 847
دِ 847
سبا@@ 847
ستوكهولم 847
سجين 847
غطاء 847
مناهضة 847
وأوائل 847
وارنر 847
الإنقاذ 846
الباكستاني 846
العفو 846
تمو@@ 846
قابلية 846
لتهم 846
للأندية 846
مصطلحات 846
يحد@@ 846
يرغب 846
أحرز 845
أخت 845
الخواص 845
جمعها 845
حضرموت 845
غازي 845
قلا@@ 845
لاتها 845
ملبورن 845
يوجين 845
ّلت 845
140 844
الانتقادات 844
الصعود 844
الفروع 844
النجف 844
اوت 844
بورصة 844
تأثرت 844
ترخيص 844
جوب@@ 844
رضة 844
كعضو 844
مساجد 844
يدي@@ 844
اجات 843
الإض@@ 843
الطيب 843
الفلكي 843
المدع@@ 843
بز 843
جنوبا 843
رأسها 843
رابع 843
محاكم 843
هبة 843
أسر 842
ائدة 842
الأمهات 842
البطالة 842
التحقت 842
الزع@@ 842
بخلاف 842
بمبلغ 842
تخرجه 842
تمين 842
خصوصًا 842
ظن 842
قليلا 842
مثال@@ 842
ملال 842
وريد 842
11@@ 841
الشفاء 841
الممالك 841
انز 841
بتونس 841
سامة 841
صام@@ 841
ضده 841
عصور 841
لتشمل 841
نقلت 841
واط@@ 841
وتغ@@ 841
وفو 841
ومهندس 841
وياً 841
n@@ 840
أنّه 840
الأج@@ 840
الأنابيب 840
التبغ 840
التصويرية 840
السري 840
تسجيلات 840
شيل@@ 840
طيب 840
فلين 840
فيلهلم 840
كسب 840
للمرضى 840
ميلا@@ 840
ونشأ 840
1840 839
أيسر 839
إمبراطور 839
المحيطات 839
بالمغرب 839
بمشاركة 839
تسي 839
دراج 839
صعود 839
قن 839
مكتوبة 839
والعراق 839
ولن 839
ألفرد 838
الاتحادي 838
التنفسي 838
الساق 838
المخ 838
بالة 838
دبلوم 838
ستالين 838
شباك 838
لفات 838
لقاح 838
مسبقًا 838
مَا 838
يدعي 838
يُست@@ 838
ئت 837
بالمدرسة 837
بورتلاند 837
رباعي 837
شيات 837
عادية 837
فف 837
قتله 837
للإنتاج 837
لوز@@ 837
مكن 837
مِنْ 837
يما 837
أكادير 836
إمدادات 836
المخط@@ 836
المهنة 836
بهما 836
روث 836
فلونزا 836
لاين 836
والبيئة 836
ووصف 836
افظ@@ 835
الباس@@ 835
الذكية 835
الصفراء 835
المرضية 835
تاك@@ 835
تتناول 835
تفاعلات 835
داخلها 835
سوت@@ 835
لإطلاق 835
لتزم 835
مقات@@ 835
منظومة 835
2022 834
ابتك@@ 834
استعد@@ 834
الافترا@@ 834
الكم 834
المفوضية 834
حو 834
قيف 834
أرجاء 833
ائط 833
تحل 833
سياتل 833
ضفاف 833
هانس 833
والدي@@ 833
وفيلم 833
ابتكار 832
اعها 832
الأَ@@ 832
التكامل 832
العنق@@ 832
الكردية 832
النادرة 832
بديلة 832
دَّ@@ 832
ذاتي 832
علاقته 832
وائية 832
36@@ 831
Frank 831
إدارياً 831
اريك 831
الأسي@@ 831
الإر@@ 831
التحدث 831
الحكمة 831
السو@@ 831
الشتوية 831
المسماة 831
المنف@@ 831
تتطور 831
تيمور 831
دبلن 831
دُ 831
رياح 831
للتجارة 831
محاك@@ 831
وأش@@ 831
والموسيقى 831
واه 831
وتها 831
ياس@@ 831
الاكتشاف 830
التنسيق 830
الجنة 830
الفين@@ 830
تبرها 830
طيف 830
غونزاليس 830
للمواد 830
واتسون 830
يستخد@@ 830
1854 829
التجريبي 829
التهديد 829
المحاكمة 829
بيتر@@ 829
تروي 829
حقول 829
قف 829
كولينز 829
مجر@@ 829
ناتج 829
نوت 829
وراس 829
ِل 829
ابتداءً 828
الرق@@ 828
الفرص 828
القصوى 828
تلت 828
جلسات 828
راف@@ 828
سيغ@@ 828
غلال 828
فريدريش 828
فظ@@ 828
لُ 828
وتوزيع 828
ورز 828
ويذكر 828
1830 827
ا.@@ 827
استئصال 827
استنادًا 827
السد 827
اللسان 827
المحمول 827
المرجانية 827
المنتشرة 827
بيلي@@ 827
تنشر 827
تولت 827
غَ@@ 827
لاعبين 827
متعلقة 827
مخصص 827
وفية 827
1858 826
أخذ@@ 826
الحظ 826
الفنلندية 826
الوس@@ 826
بمناسبة 826
تتحرك 826
تزويد 826
جيو@@ 826
حسابات 826
شقي@@ 826
كارثة 826
محاكاة 826
مدع@@ 826
مرد 826
نوب@@ 826
وبداية 826
وقدمت 826
name 825
التوحيد 825
للمياه 825
ينغتون 825
3,@@ 824
Y 824
أبل 824
أنور 824
الشيطان 824
المحامين 824
متو@@ 824
مزايا 824
وتشكل 824
يحت@@ 824
y@@ 823
آمنة 823
أضعاف 823
أمير@@ 823
المتلازمة 823
المثالية 823
المطلقة 823
توا 823
جاعة 823
عدو 823
لوحظ 823
نفط 823
وتمكن 823
ويند@@ 823
يدعو 823
Peter 822
أنتي@@ 822
الحسابات 822
الشح@@ 822
العميق 822
الكوري 822
المصلحة 822
بالتيمور 822
برايس 822
تشهد 822
درعة 822
زياد 822
ضحية 822
طورت 822
غوت@@ 822
وكالات 822
التحكيم 821
الحفلات 821
الخلا@@ 821
ثروة 821
جسد 821
ديش 821
ذكاء 821
كولين 821
5- 820
الواسع 820
انفصال 820
تصب 820
سلع 820
والقانون 820
أسئلة 819
إصداره 819
اكتشفها 819
الأوضاع 819
الخطوات 819
تحفيز 819
زعماء 819
سرت 819
سونيا 819
شوة 819
عاصمتها 819
غري 819
للتعامل 819
مركزا 819
ألو@@ 818
الاتجاهات 818
البارد 818
البوي@@ 818
السؤال 818
المشهور 818
بلاط 818
تصال 818
حماة 818
ديوي 818
شريك@@ 818
غاد@@ 818
كبديل 818
لنفس 818
معي 818
ملات 818
وأفضل 818
ألقى 817
الأمو@@ 817
الأوامر 817
البيرو@@ 817
الخلق 817
المتحدث 817
المحترفين 817
الميث@@ 817
الوع@@ 817
بترو@@ 817
بوصفه 817
دةً 817
ضان 817
إيجابي 816
التحص@@ 816
التلال 816
الح 816
بتنظيم 816
بنما 816
سنوياً 816
للإمبراطورية 816
نقدية 816
هه 816
يتمثل 816
يساهم 816
أربعين 815
المعادية 815
بإسم 815
برفقة 815
تلى 815
تيه 815
ثقافات 815
مطالبة 815
منفص@@ 815
مونتي@@ 815
وبرا@@ 815
ورفض 815
ينتشر 815
أثارت 814
ارى 814
سيلفا 814
للشؤون 814
مملوكة 814
هاني 814
والأعمال 814
وند@@ 814
يثبت 814
يحدها 814
أرنولد 813
الافتراضية 813
التقليد 813
القبة 813
اللذين 813
النور@@ 813
بحي 813
بريت 813
بيّة 813
تنفيذها 813
رقابة 813
عيًا 813
لالة 813
ليونارد 813
محافظ 813
ورش 813
يواجه@@ 813
يوميًا 813
الخشبية 812
الشراكة 812
الفن@@ 812
اللهجة 812
باه 812
بض 812
تتخ@@ 812
سنان 812
عاملين 812
لائل 812
معدنية 812
هاتف 812
ومين 812
يُسمح 812
الإيجابي 811
الانفصال 811
التبريد 811
التعليمات 811
الثلاثاء 811
الثلاثية 811
الرطوبة 811
الشهرة 811
المتقدم 811
المحافظات 811
برها 811
تشكيلة 811
تفيد 811
تود 811
جوليان 811
ريّة 811
ضريح 811
فقت 811
قرار@@ 811
قيون 811
مزدوج 811
هاريسون 811
والتدريب 811
وتتبع 811
وسوريا 811
as 810
التهابات 810
تجاو@@ 810
نادق 810
َّه 810
الساعات 809
الصوتي 809
الفاط@@ 809
الناجم 809
بيلا 809
خلاء 809
سفارة 809
سويدي 809
طلاع 809
كأفضل 809
وتؤ@@ 809
إناث 808
العمو@@ 808
بنه 808
توب 808
دكتور 808
زمي@@ 808
لمنصب 808
ملاحظات 808
ميلانو 808
وأست@@ 808
الأربعاء 807
الجملة 807
الشهداء 807
تقلل 807
ربي@@ 807
غن@@ 807
للخطر 807
واجد 807
وفين 807
المتوا@@ 806
المطاعم 806
بلاك@@ 806
تدريجيًا 806
عموم 806
قضاة 806
ناي 806
نوعا 806
ونج@@ 806
وهن@@ 806
َا 806
َّم 806
إيجاب@@ 805
الحارة 805
الخلط 805
المشرق 805
المعرفي 805
الموحدة 805
اوض 805
دَة 805
لابد 805
لفاء 805
للعب 805
مؤخرا 805
هج 805
وغ 805
وكات@@ 805
t@@ 804
أننا 804
افتراض 804
الحادية 804
اللاهوت 804
المسيحيون 804
تصيب 804
صير 804
ٌّ 804
َم 804
البلقان 803
بدأ@@ 803
تشخي@@ 803
جيدا 803
خريف 803
خليط 803
طراب 803
عادي 803
عدّة 803
محام@@ 803
يتحول 803
أغراض 802
ؤون 802
الأوروب@@ 802
الداخ@@ 802
الشركاء 802
اللغ@@ 802
النجمية 802
بيتي 802
تلو@@ 802
جاس@@ 802
حافة 802
عربة 802
قادرين 802
كلين 802
معيلون 802
والشركات 802
وسيا 802
ياب 802
1800 801
أجرت 801
ابوليس 801
الأجيال 801
بوه@@ 801
بيغ 801
ديمقراطية 801
رنا 801
عار 801
عشيرة 801
فارقة 801
قبيل 801
للطائرات 801
ماله 801
مذبحة 801
يدا 801
الإنجازات 800
الماركسية 800
المغاربة 800
بالقوة 800
تأهل 800
شخصي 800
غراف 800
يستر 800
ينيات 800
أفريقية 799
ؤوس 799
الابتدائي 799
الجافة 799
المسافرين 799
تسوية 799
شوارع 799
شيما 799
فقية 799
مض 799
مـ@@ 799
موح 799
نانين 799
وانه 799
يونانية 799
الأثناء 798
الدار@@ 798
المتكررة 798
النحل 798
اليات 798
اليونسكو 798
تلف 798
حاء 798
رئيس@@ 798
غه 798
لأجل 798
ليفي 798
مذكرة 798
منافسات 798
وخ 798
ينيون 798
السلط@@ 797
الشّ@@ 797
القرش 797
المخيم 797
المقيمين 797
بيرد 797
تميم 797
دتهم 797
شخصا 797
فهذا 797
لقب@@ 797
للأفراد 797
مبني 797
ناظ@@ 797
وحل 797
وصح@@ 797
ولعل 797
الاستهلاك 796
التكيف 796
الري 796
الطائفة 796
الفقري 796
المتد@@ 796
ثقافي 796
جراح 796
دوى 796
ساس 796
شه 796
هوف@@ 796
والدواء 796
يرفض 796
يقة 796
يقف 796
g 795
الكُ@@ 795
الوث@@ 795
بالانتخابات 795
بنسيلفانيا 795
تأسيسه 795
ثاً 795
ثلاثينيات 795
شعبان 795
فوي 795
كك 795
وجدوا 795
يتوقف 795
َّد 795
إنشاؤها 794
الأرواح 794
الخمسينات 794
السجل 794
السنية 794
الكوم@@ 794
بالي 794
بكأس 794
تشغل 794
حالت@@ 794
خامس 794
عشر@@ 794
فخر 794
لوت 794
موذج 794
يوميا 794
ألفريد 793
أنبوب 793
الإصدارات 793
الجزائريين 793
المحتر@@ 793
المعرفية 793
بالجامعة 793
تحسن 793
تدير 793
تكمن 793
دوت 793
ديت 793
ركاب 793
ضاب@@ 793
فاف@@ 793
قلين 793
كردستان 793
ونائب 793
يميز 793
أمريك@@ 792
اليًا 792
تاين 792
حماس 792
ستن 792
عالمة 792
والغاز 792
وتة 792
ابقة 791
العاطفية 791
المقط@@ 791
براه@@ 791
تلال 791
ثرو@@ 791
سوس@@ 791
فجر 791
فيلسوف 791
أنغ@@ 790
أوص@@ 790
بانزر 790
تنف@@ 790
حفلات 790
روه 790
علام 790
لإي@@ 790
هولة 790
ويم 790
يئة 790
إدا 789
الآخرون 789
المبد@@ 789
امر@@ 789
داه 789
سنوي 789
شيلي 789
ضَ@@ 789
عظيم 789
ليّة 789
متصلة 789
مقطع 789
نمت 789
يرد 789
أف 788
الاستث@@ 788
البلوغ 788
العج@@ 788
بولي 788
جاي@@ 788
حدي@@ 788
سفيان 788
كست@@ 788
لكة 788
مسيحي@@ 788
والتقنية 788
والحرب 788
وتركيا 788
السبا@@ 787
النقدي 787
ايش 787
سنه 787
ضح 787
ضعيف 787
غابات 787
نوية 787
يحيط 787
يسي@@ 787
آية 786
استغ@@ 786
اقين 786
الجينوم 786
السلالات 786
الشوكي 786
المسلمة 786
الموحد 786
تقديمه 786
جدل 786
خام@@ 786
خربة 786
شدي@@ 786
قالوا 786
كاميرا 786
مثيل 786
هارفي 786
وأكبر 786
وبه 786
يتج@@ 786
يديه 786
اسم@@ 785
الأسرية 785
الرد 785
جيسي 785
حلف 785
دلهي 785
فرديناند 785
مران 785
نبيل 785
وخصوصا 785
وصى 785
يبعد 785
6.@@ 784
الأنثى 784
الكثيرون 784
المجالس 784
جيوش 784
خين 784
سراحه 784
لةً 784
لحين 784
للة 784
ميص 784
وجة 784
وجزر 784
يفضل 784
ينطبق 784
at 783
التعذيب 783
الحجة 783
الخصم 783
انطلاق 783
تطويرها 783
قرض 783
هًا 783
00@@ 782
div 782
البدائية 782
التدابير 782
السريري 782
العرا@@ 782
الغضب 782
الهضمي 782
حقن 782
رفقة 782
لشراء 782
للتف@@ 782
وبري@@ 782
الإيرادات 781
البلازما 781
الموص@@ 781
بسون 781
تعترف 781
ديقة 781
زَ@@ 781
عاء 781
فلورنسا 781
قنبلة 781
نطاق@@ 781
وأهم 781
وارق 781
وبار@@ 781
يُشار 781
الإج@@ 780
الخطط 780
العصابات 780
العم@@ 780
النسل 780
بحاث 780
تميز@@ 780
دينغ 780
رويال 780
عزيز 780
عطي 780
علينا 780
ملخص 780
هل@@ 780
واضع 780
يصيب 780
الكاتبة 779
بورو 779
تقييد 779
سبان 779
عضاء 779
ملائ@@ 779
والحيوانات 779
أكيد 778
الدان@@ 778
الزهرة 778
الكتابات 778
تاحة 778
ثيا 778
رياضيات 778
صيل 778
للثورة 778
مظاهر 778
وارسو 778
وانغ 778
وتختلف 778
ولز 778
a@@ 777
إيراني 777
الخلف 777
السعادة 777
اللغوي 777
بلاغ 777
سبي 777
صخور 777
طلبه 777
للنشر 777
ممل@@ 777
نوعان 777
هوفمان 777
يًّا 777
إنزيم 776
اعتلال 776
الإرسال 776
الحلول 776
الفضية 776
جوازات 776
خرية 776
سني 776
فساد 776
لإزالة 776
نمر 776
ويلي@@ 776
السرا@@ 775
الكاريبي 775
المناسبات 775
تشترك 775
جراحية 775
دينيس 775
شبيهة 775
وأستراليا 775
ونشرت 775
يفعل 775
المرتفعات 774
النشطة 774
بحوا 774
بريستول 774
بقة 774
بوري 774
تافيلالت 774
توجيه@@ 774
جتون 774
حاب 774
راءة 774
طبع 774
غاب@@ 774
كاهن 774
نجر 774
نيان 774
أيوب 773
احتجاجات 773
التغ@@ 773
التَّ@@ 773
راته 773
ساندر 773
سيست@@ 773
شري 773
صعب 773
فيدي@@ 773
للإنسان 773
للاقتصاد 773
للانضمام 773
لوم 773
واب@@ 773
يتلقى 773
يجعله 773
البقر 772
السجون 772
الهزيمة 772
بقليل 772
تقبل 772
جينية 772
حلت 772
ستيفنز 772
علوي 772
ـُ@@ 772
فاعلية 772
كأول 772
كريستينا 772
للسيارات 772
مطالب@@ 772
مُ 772
يتق@@ 772
يعها 772
ِّي 772
أفعال 771
الجمجمة 771
الجنوب@@ 771
الرضع 771
القصف 771
جمهور 771
طالبة 771
قمع 771
أفي@@ 770
الأمل 770
البيزنطي 770
التذاكر 770
الثمن 770
الحصان 770
العذبة 770
المناهضة 770
بطليموس 770
ثرات 770
حامد 770
حمى 770
رئيسيًا 770
قبر@@ 770
لقانون 770
للأعمال 770
للمخرج 770
متوفرة 770
نيوجيرسي 770
والعق@@ 770
وتطور 770
وروائي 770
يكون@@ 770
x@@ 769
إدراج 769
ارتفعت 769
الاستمرار 769
البلديات 769
التعادل 769
الحضارات 769
بوقت 769
حديثا 769
دونغ 769
رود@@ 769
سنوية 769
علن 769
ولاتة 769
ينهم 769
70@@ 768
الحكيم 768
السلم 768
العبادة 768
بوين 768
تدرس 768
د.@@ 768
عنق 768
فجأة 768
كيلومترا 768
للمر@@ 768
لمعظم 768
مؤتمرات 768
موظفين 768
واس@@ 768
وجهه 768
ومخ@@ 768
7.@@ 767
الربط 767
بثلاثة 767
تجن@@ 767
والمج@@ 767
أمن@@ 766
الجذور 766
الخطيب 766
الفندق 766
بالفيروس 766
بتف@@ 766
حزام 766
دع 766
راك@@ 766
سبّاح 766
شترا@@ 766
مورا@@ 766
والنشر 766
استفتاء 765
الأمينية 765
الإسكندر 765
التنقيب 765
الحدودية 765
الدو@@ 765
الصخرية 765
انتقاد 765
بتحديد 765
رفي@@ 765
قاعات 765
قطر@@ 765
مضى 765
و1.@@ 765
or 764
ألبانيا 764
الدوحة 764
الغازية 764
الفوضى 764
المولد 764
اندا 764
تبريد 764
جاكوب 764
دعم@@ 764
عملهم 764
م.@@ 764
مفاج@@ 764
ممكنة 764
وآسيا 764
يسيطر 764
اسبة 763
الشغب 763
الغز@@ 763
المنشأ 763
اوس 763
بتنفيذ 763
بثلاث 763
حث 763
سائر 763
ظت 763
لاخت@@ 763
وتلقى 763
ينطوي 763
الكلب 762
الوب@@ 762
بمقاطعة 762
بورغ@@ 762
ثَ@@ 762
دومين@@ 762
سعد@@ 762
فالي 762
قدرتها 762
ماكسي@@ 762
مشهور 762
مضاعفات 762
وترك 762
188@@ 761
إب 761
الأولمبي 761
الرمال 761
المجيد 761
بيج 761
غريغوري 761
فانكوفر 761
ميدي@@ 761
ومد@@ 761
يتوفر 761
أضاف 760
الدهنية 760
الفلاسفة 760
المتحده 760
تحتفظ 760
حددت 760
عوض@@ 760
لبناني 760
ويلي 760
اختصار 759
ادتها 759
التخرج 759
الثلاثين 759
العباسي 759
بالإعدام 759
بوينغ 759
تفاقية 759
حساس 759
فاص@@ 759
مونتانا 759
نسبياً 759
هولندي 759
يبين 759
الأبناء 758
الدرجات 758
اماً 758
امتلاك 758
تبنى 758
تضمين 758
تهدي@@ 758
حسني 758
خاد@@ 758
شرية 758
عات@@ 758
عدنان 758
كيبك 758
منهجية 758
ناقش 758
وطي 758
ينشأ 758
التوص@@ 757
السحر 757
تمال 757
روجرز 757
سمعة 757
صدمة 757
غاما 757
كينيث 757
للمت@@ 757
الإنكليزية 756
الزائدة 756
المتو@@ 756
تطلق 756
تمارس 756
حاف@@ 756
حجمها 756
سباح 756
صلح 756
عائشة 756
فضة 756
لشؤون 756
ميتشيل 756
وذك@@ 756
45@@ 755
الأحرار 755
الإسكند@@ 755
الخلافات 755
العسل 755
القصائد 755
انتخ@@ 755
اَ@@ 755
بني@@ 755
زمان 755
شيئاً 755
غين@@ 755
والطاقة 755
والم 755
ونقص 755
ينوس 755
الأحساء 754
الأذن 754
العض@@ 754
الناطقة 754
تيزي 754
راث 754
راسل 754
عاط@@ 754
غشاء 754
مؤه@@ 754
متأث@@ 754
نزل 754
نوت@@ 754
يتف@@ 754
6,@@ 753
الديانات 753
اليومي 753
ببطء 753
تعويض 753
درته 753
غلين 753
محي@@ 753
مغلقة 753
واك@@ 753
Z 752
al@@ 752
إسرائيلي 752
اصل 752
الفرات 752
الفك 752
باخ 752
بافاريا 752
بحة 752
بيوس 752
رائحة 752
رحل 752
ستيل 752
سطس 752
شاركوا 752
طاهر 752
علق 752
كرم 752
كهم 752
لفهم 752
والبر@@ 752
إنترنت 751
الإحص@@ 751
التحلي@@ 751
الممر@@ 751
بَ 751
زوجين 751
طس 751
عميل 751
غيرات 751
للزراعة 751
مازي@@ 751
معالج 751
والقوات 751
والمُ@@ 751
يعة 751
ائي@@ 750
الأعشاب 750
الأوز@@ 750
الجريدة 750
العادات 750
النض@@ 750
انفص@@ 750
برصيد 750
بطت 750
ترط 750
جيرالد 750
ضواحي 750
ظبي 750
لاوس 750
وصدر 750
450 749
W 749
الاجتماع@@ 749
الجليدية 749
المسرحيات 749
النموذجية 749
بأداء 749
بقوله 749
تثبت 749
تخرجت 749
حوار 749
رخصة 749
سوي 749
غنى 749
فيرة 749
للأر@@ 749
ماكدونالد 749
نوعه 749
نَ 749
هايتي 749
والفلسفة 749
يمثلها 749
َّات 749
آد@@ 748
أصناف 748
البخاري 748
الرئاسي 748
الكأس 748
بوغ@@ 748
سلين 748
كوا 748
لجعل 748
ميرفي 748
هَا 748
101 747
أبيب 747
أتلتيكو 747
ألاباما 747
أمان@@ 747
احتل@@ 747
التحويل 747
الحكوم@@ 747
السلطنة 747
السموم 747
انخفضت 747
اوب@@ 747
بوية 747
تتشكل 747
جاذبية 747
صدر@@ 747
صلب 747
غادرت 747
مارية 747
والإدارة 747
يمس 747
آلان 746
أنسجة 746
الدّ@@ 746
الكتيبة 746
المفتر@@ 746
المناظر 746
بوك@@ 746
تفتقر 746
دره 746
ربها 746
ربيعة 746
سلاف 746
طبعة 746
غناء 746
لمرض 746
محتمل 746
نابولي 746
يخدم 746
البحيرات 745
الحجارة 745
الرّ@@ 745
الصداقة 745
المشاهير 745
بالل@@ 745
بقرار 745
جامعية 745
للسلطة 745
وأمر 745
ومقرها 745
يسب@@ 745
ينسون 745
أجر 744
أحر@@ 744
إسرائيلية 744
الأحجار 744
الضعف 744
ترية 744
رهاب 744
سلت 744
محتملة 744
يدها 744
189@@ 743
أشع@@ 743
ائة 743
اكتسبت 743
البان@@ 743
البعيدة 743
السياح 743
الشرايين 743
العلاجية 743
المسك@@ 743
النضال 743
تتيح 743
طلال 743
لخ@@ 743
ملية 743
ميكان@@ 743
ميلا 743
مُست@@ 743
نسان 743
وارتفاع 743
ورجال 743
ونس 743
الأض@@ 742
الإندونيسية 742
التشريع 742
الرمل 742
اللقاء 742
المتعلق 742
الملاحظات 742
النيران 742
انسحب 742
كبير@@ 742
كسترا 742
والدفاع 742
Brown 741
أخرج 741
الأجور 741
الخوارز@@ 741
الكوميدي 741
المدي@@ 741
شكلها 741
كتشف 741
ملاحظ@@ 741
موحدة 741
ميديا 741
ندوق 741
1851 740
ing 740
إصابته 740
اكو 740
الأجنبي 740
الإنفاق 740
الانتحار 740
القض@@ 740
بسك@@ 740
دارفور 740
راسة 740
عميق 740
فوستر 740
فيان 740
وأعضاء 740
واق 740
والأق@@ 740
إصلاحات 739
إقليمية 739
الخفيف 739
الوفد 739
ضروري 739
غيرت 739
للاتصالات 739
للجهاز 739
لنديين 739
منتشرة 739
هلا@@ 739
ومض@@ 739
أغلقت 738
خام 738
درامي 738
درها 738
راوي 738
عينه 738
مظهر 738
ناق 738
والبرو@@ 738
وانخفاض 738
وعلاوة 738
أعرب 737
اجتمع 737
الأعمدة 737
الأمريكيون 737
الإلكترونات 737
الزه@@ 737
الظاهري 737
العر@@ 737
اير@@ 737
باش 737
برادفورد 737
بروكسل 737
تطبي@@ 737
جنسي 737
جونستون 737
درس@@ 737
دوء 737
غلاق 737
قطت 737
موم 737
نيفادا 737
وفري@@ 737
وليك 737
ارح 736
اكمة 736
الأبواب 736
الاثنان 736
الغريبة 736
الولاء 736
الّ@@ 736
ايه 736
برعاية 736
تأجيل 736
تشييد 736
جيك 736
طريقها 736
قبله 736
كلاين 736
مديرة 736
مهاجم 736
ومعه 736
ونغ@@ 736
ويتميز 736
ياسر 736
ينجح 736
ارتبط 735
الإحساس 735
الحاسب 735
المفروضة 735
المقدم 735
بزيارة 735
تداء 735
سقف 735
شوك@@ 735
كاك@@ 735
مارتينيز 735
مميز 735
والرعاية 735
ّاب 735
إسبانية 734
احتي@@ 734
البَ@@ 734
الصحابة 734
الطقوس 734
المجر@@ 734
المشي@@ 734
المضيف 734
النانو 734
بحي@@ 734
رؤوس 734
صابة 734
عياً 734
غرافية 734
غط 734
ماركو 734
مسيحي 734
والطب 734
وزيرا 734
360 733
الأرثوذكس 733
التحديات 733
السحب 733
السفلية 733
المعيار 733
بيئ@@ 733
تدفع 733
تقديمها 733
ثناء 733
زيه 733
قاموس 733
كانتون 733
كتاتورية 733
للاح@@ 733
محدو@@ 733
هبوط 733
ومما 733
يسار 733
1853 732
MPO@@ 732
استقالته 732
الاستئناف 732
التليفزي@@ 732
الجسدي 732
الفرار 732
المستعمرة 732
انقسام 732
بالإسبانية 732
حب@@ 732
خرى 732
خضراء 732
خِ@@ 732
غزا 732
مجانية 732
مجددا 732
مسجل 732
والرئيس 732
يلزم 732
ّان 732
أقلية 731
اتنا 731
البروفيسور 731
المدفو@@ 731
بعت 731
بلين 731
تاني 731
ذرات 731
ركز 731
زواجها 731
قصاء 731
قضت 731
مرصد 731
مشتقة 731
معارض 731
نالت 731
يةً 731
ّين 731
أسها 730
الأوساط 730
الإم@@ 730
تبن@@ 730
تصريح 730
تقر 730
دني@@ 730
غيرهم 730
فاش@@ 730
فتا@@ 730
لتكوين 730
مركزًا 730
والعلاقات 730
يوليوس 730
آن@@ 729
استدعاء 729
الأحرف 729
القاد@@ 729
اللجان 729
المزارعين 729
ستيفان 729
كيا 729
منازلهم 729
والمغرب 729
وصوله 729
− 729
1200 728
أطف@@ 728
أولي 728
إحدا@@ 728
اختير 728
الصراعات 728
الفقيه 728
المحد@@ 728
بحجم 728
بلورات 728
تبديل 728
تقتصر 728
تيب 728
خطار 728
ركزت 728
لبنانية 728
للإدارة 728
للتعبير 728
ومثل 728
ياك@@ 728
يله 728
يُدعى 728
استعداد 727
اكتسب 727
الأهالي 727
العمالية 727
المشا@@ 727
تخدم 727
درع 727
سويدية 727
طم 727
غو@@ 727
فياً 727
كيبيك 727
مستقرة 727
مسلحة 727
ميمون 727
وريث 727
ولديها 727
ويف@@ 727
ويق@@ 727
3.5 726
أنس 726
أنشط@@ 726
إنجليزية 726
الترويج 726
الجفاف 726
الحك@@ 726
العنك@@ 726
القادسية 726
المعاهد 726
بغية 726
سبقت 726
عراقية 726
عنو@@ 726
قريش 726
كلة 726
نوس 726
واث@@ 726
وكلاهما 726
أقصر 725
الإفراج 725
الإنجاز 725
التوصيل 725
الرئيسيين 725
انتح@@ 725
بالمائة 725
بروكس 725
بنظ@@ 725
تحظى 725
ذان 725
سهولة 725
صلبة 725
مكتب@@ 725
ناط@@ 725
ينتمون 725
يوتا 725
البعد 724
القضائي 724
باربرا 724
تلف@@ 724
تنظم 724
خلفي 724
روجين 724
طال 724
غولدن 724
فادة 724
فضائية 724
نظير 724
واستخد@@ 724
والته@@ 724
ودًا 724
يلاحظ 724
إشع@@ 723
احتفال 723
الإنشاء 723
الفعال 723
المخاوف 723
برن@@ 723
بسط 723
للفرد 723
للكرة 723
ليك@@ 723
والإنجليزية 723
والله 723
يقترح 723
ائرات 722
التكنولوجية 722
الجيد 722
المعدن 722
الوالي 722
تلوث 722
جنون 722
خطر@@ 722
ربان 722
رواح 722
شرقية 722
شغلت 722
فيني@@ 722
كلود 722
كونيتيكت 722
للكشف 722
مصورة 722
والحكومة 722
يستا 722
65@@ 721
أهلية 721
اختراق 721
اريو 721
الحبل 721
تنشيط 721
جماعي 721
خاطر 721
زام 721
زور 721
غابة 721
لليهود 721
مص 721
وابن@@ 721
وزيرة 721
الإه@@ 720
التوظيف 720
الفوسفات 720
اوة 720
تأخر 720
تشريح 720
حاس@@ 720
شال 720
صن 720
قياسي 720
كليف 720
للفن 720
للمرض 720
لوسي 720
مب 720
هك@@ 720
الأساس@@ 719
الإستراتيجية 719
التس@@ 719
الشورى 719
المقطع 719
الموانئ 719
بالمملكة 719
بباريس 719
بحضور 719
تعوي@@ 719
جدد 719
ستوك 719
عكاس 719
مسابقات 719
والتعاون 719
وبقيت 719
وحركة 719
يُسمى 719
Martin 718
أحدهم 718
إعلامية 718
التركي@@ 718
الغرف 718
جانية 718
زكي 718
سبانيا 718
شاري 718
قصائده 718
لغرض 718
للمنتخب 718
للهجرة 718
ملكي 718
والاجتماعي 718
ويصل 718
ed 717
أبلغ 717
أعل@@ 717
ابت@@ 717
الإفريقي 717
التنا@@ 717
التوقف 717
اليورانيوم 717
تحاد 717
تناسب 717
ساي 717
عدام 717
عُرفت 717
كائنات 717
لشبونة 717
لنشر 717
والأكثر 717
يمًا 717
1847 716
أفاد 716
ازدياد 716
التعدين 716
العائلية 716
العوا@@ 716
المتحولين 716
باو 716
بطرسبرغ 716
تمييز@@ 716
جواء 716
راه 716
صوتية 716
كولومبوس 716
مالة 716
وأنا 716
وفات 716
1835 715
آيوا 715
أجبر 715
الأميركي 715
البني 715
الحمر 715
الطفرات 715
الفور@@ 715
بحقوق 715
تعاون@@ 715
فط@@ 715
فعاليات 715
مختلفين 715
مقاتل 715
وته@@ 715
ورجل 715
ولف 715
10000 714
أبوه 714
المتاحف 714
المتعل@@ 714
المشي 714
المطالبة 714
بارات 714
تتحول 714
تضخم 714
جيج 714
ظمة 714
عُ 714
كجم 714
لياً 714
مقب@@ 714
همت 714
وأعلنت 714
واحي 714
وشرق 714
ياته 714
يقية 714
1839 713
ئل 713
الإفريقية 713
السور 713
الهاد@@ 713
سمان 713
لاتهم 713
ودر@@ 713
يجادل 713
1852 712
إرا@@ 712
اقية 712
الأو@@ 712
الاصطناعية 712
الخصوصية 712
ايك@@ 712
تصنف 712
درات 712
ديفيز 712
روبين 712
نديين 712
ويتش 712
g@@ 711
الانتقالية 711
البعثات 711
الرعد 711
السياس@@ 711
الطوب 711
تركه 711
تظل 711
تعديلات 711
تلبية 711
ثنائ@@ 711
دنية 711
سترن 711
شقيقة 711
عظيمة 711
للشعب 711
ميّة 711
نيّة 711
والثالث 711
1837 710
الأسري 710
القراء 710
المصنوعة 710
برتبة 710
تدي 710
تُظهر 710
ثمانينيات 710
جواب 710
دْ@@ 710
روان 710
صًا 710
عديد 710
عضوة 710
عليك 710
متغير 710
مطعم 710
ملحمة 710
واد@@ 710
واسمه 710
والأمن 710
ويش 710
اتور 709
الان 709
الصفقة 709
المختار 709
امتد@@ 709
جينات 709
ريبية 709
ساق@@ 709
سواحل 709
للخلايا 709
مصح@@ 709
موريتانيا 709
مِّ@@ 709
وأقام 709
يحب 709
يحكم 709
Scott 708
أخر@@ 708
الشيش@@ 708
الكاميرا 708
المتطلبات 708
المتطوعين 708
المدارية 708
تسوي@@ 708
تشاد 708
تشينغ 708
تقدمها 708
حزم 708
عتبر 708
غانم 708
مسون 708
مقاب@@ 708
منق@@ 708
واعتب@@ 708
وحاول 708
وشملت 708
وصلوا 708
يروي 708
يستخدمها 708
ادق 707
اغتصاب 707
اكر 707
المؤكدة 707
المكسيكية 707
تشين 707
جبه 707
سيطرت 707
شمالاً 707
لوكسمبورغ 707
مطر@@ 707
وبريطاني 707
وتات 707
وجهت 707
وساهم 707
يومية 707
1845 706
o@@ 706
استبعاد 706
التري@@ 706
الخيالية 706
المضرب 706
بإصدار 706
بارتفاع 706
بالجزائر 706
بب 706
تحالف@@ 706
حربية 706
دائره 706
سعادة 706
سيك@@ 706
فلس@@ 706
قائلًا 706
ويون 706
1832 705
أولًا 705
التهم 705
الجزيئي 705
القنا@@ 705
المماليك 705
بالمرض 705
تبره 705
جامايكا 705
خضعت 705
دال@@ 705
رسال 705
سبنسر 705
فتين 705
لتصل 705
للأمراض 705
مكت@@ 705
نرى 705
وأخيرا 705
والثلاثين 705
يرس 705
يوني@@ 705
1855 704
إجرا@@ 704
إعل@@ 704
الأزهار 704
الرايخ 704
السواحل 704
الشَّ@@ 704
العبد 704
المتزايدة 704
بذور 704
بعام 704
تزاز 704
جراءات 704
لول@@ 704
مفو@@ 704
ومؤرخ 704
يدًا 704
أجراها 703
أمريكيين 703
ؤلاء 703
الدرع 703
الغني 703
المفضل 703
بشر@@ 703
تداد 703
جوليا 703
خصائ@@ 703
دير@@ 703
ذروتها 703
عدا@@ 703
عنة 703
مسلمة 703
مكتوب 703
مُن@@ 703
هاينريش 703
وبرامج 703
يقبل 703
u 702
י@@ 702
ألبيون 702
التصرف 702
النشاطات 702
جهزة 702
حارة 702
ريتش 702
ساق 702
ليف@@ 702
أزرق 701
ا- 701
البيانو 701
اللاتينيون 701
المتأخرة 701
المتوفرة 701
تقسم 701
شعر@@ 701
صاحبة 701
فوي@@ 701
كتابها 701
كوكس 701
لأداء 701
لحكومة 701
لمصر 701
مكون@@ 701
والسياسي 701
وظلت 701
يحص@@ 701
أجمل 700
أوفي@@ 700
الجمل 700
الكابتن 700
بإدارة 700
بإرسال 700
تبس 700
ثلاثون 700
صانع 700
منفردة 700
نتون 700
وبالفعل 700
وتحقيق 700
ولبنان 700
يفز 700
er 699
أبرشية 699
الفكري 699
المواجهة 699
الولا@@ 699
بجمع 699
برين 699
بياً 699
ترن 699
تعلق 699
فرانز 699
قدرا@@ 699
كريستين 699
للماء 699
ناة 699
والمنطقة 699
وتأث@@ 699
ودعا 699
وسميت 699
الحريق 698
السهول 698
الصار@@ 698
اهتمامه 698
اوت@@ 698
بتصميم 698
بتين 698
راش@@ 698
شاكل 698
كربونات 698
منتخ@@ 698
منشورات 698
والبن@@ 698
يتضح 698
اضر 697
البيئات 697
الحقول 697
تصميمه 697
سرى 697
ضون 697
لصحيفة 697
ليز 697
مالطا 697
وإسبانيا 697
والمدارس 697
وقته 697
ئها 696
استوديو 696
براغ 696
تباك 696
تكتب 696
ثقب 696
دانييل 696
ديانة 696
لكونها 696
متض@@ 696
مدد 696
نظار 696
و3 696
وعلوم 696
يرتفع 696
إذاعية 695
إنهم 695
الخرا@@ 695
القصبة 695
تويتر 695
فساء 695
فيمكن 695
قرب@@ 695
لتلبية 695
للمستخدمين 695
مدي 695
وأكد 695
ادلة 694
التغلب 694
الرعب 694
الصوم@@ 694
المقاعد 694
بعينات 694
بلس 694
بيبي 694
تركية 694
جست@@ 694
جلة 694
ضغوط 694
عبه 694
فاد 694
فرغ 694
فوسفات 694
قسنطينة 694
كارولين 694
للناس 694
مغناطيسي 694
نشاطها 694
نظمت 694
يرن 694
7,@@ 693
Lee 693
r@@ 693
العربي@@ 693
الكوميديا 693
المرئية 693
الميثاق 693
بوبة 693
ترع 693
تكونت 693
سلبي 693
شارية 693
عماله 693
فريمان 693
لجان 693
لحسن 693
للمواطنين 693
مجري 693
مسلسلات 693
والماء 693
وشه@@ 693
وعليه 693
ونظرًا 693
55@@ 692
أوسلو 692
الاستقبال 692
البطريرك 692
الحَ@@ 692
القسري 692
المسب@@ 692
المنط@@ 692
بتغيير 692
تغيرت 692
دب 692
زميله 692
سياسيًا 692
والجيش 692
وسين@@ 692
يوف 692
آ 691
اذبة 691
السامة 691
المرئي 691
بذل 691
تاريخيًا 691
تسهيل 691
تكريم 691
جيفرسون 691
روزفلت 691
عقده 691
علية 691
عميقة 691
لالات 691
مجهول 691
مذكرات 691
مستق@@ 691
منيوم 691
وكلي@@ 691
يحق 691
يوت 691
1820 690
codice 690
f@@ 690
أسوار 690
اضل 690
التفاوض 690
الخد@@ 690
الست 690
المفضلة 690
ايير 690
ثيو@@ 690
خلات 690
دجلة 690
ساندرا 690
فيو 690
لنهر 690
مساءً 690
والدولية 690
وريس 690
ألواح 689
أمها 689
ارتفاعها 689
الأغراض 689
البنات 689
البوس@@ 689
التأكد 689
التحدي 689
الجرعة 689
الحاض@@ 689
الحفل 689
السوفييت 689
القاعة 689
المطر 689
برل@@ 689
جني 689
حفي@@ 689
رشادات 689
لوري 689
موال@@ 689
موته 689
والجنوب 689
وتلك 689
وثلاث 689
وسيط 689
ومعهد 689
ينظ@@ 689
1844 688
آة 688
آخر@@ 688
التأهل 688
التنقل 688
الفقيرة 688
ايات 688
بعيداً 688
جدوى 688
راست@@ 688
ركوب 688
ريكان 688
فيض 688
لايف 688
لبطولة 688
للتن@@ 688
ليشمل 688
ماق 688
وعادةً 688
ولايته 688
استقالة 687
الأخلاقي 687
الدوائية 687
الديون 687
المتاجر 687
المعاملات 687
الملاكمة 687
الهندوس 687
جانبية 687
حقه 687
سانت@@ 687
كاف 687
للنقل 687
لير 687
منصات 687
وقفت 687
ومنظمة 687
46@@ 686
الجراحي 686
الجوه@@ 686
الديوان 686
السيئة 686
القدي@@ 686
بدع@@ 686
طالبان 686
غرين@@ 686
فصائل 686
قري 686
محاص@@ 686
نوات 686
والشع@@ 686
وقيع 686
أديب 685
احتفالات 685
الباقية 685
الحدي@@ 685
الخيار 685
الغرا@@ 685
الفترات 685
القبلية 685
المؤلفين 685
المالكة 685
المتوفى 685
تجمي@@ 685
دمر 685
ريوس 685
زلزال 685
ساو@@ 685
سلوكيات 685
شتى 685
شيرة 685
عُين 685
كرسي 685
مؤقتًا 685
مبي 685
هيو@@ 685
وباء 685
وتدري@@ 685
1834 684
ئاب 684
ابريل 684
افى 684
القطر 684
المظهر 684
الهيكلية 684
بأول 684
بعينيات 684
صحافة 684
غت 684
فلسط@@ 684
متقدمة 684
مسم@@ 684
هدفها 684
ومناطق 684
يرتدي 684
يموت 684
Mark 683
ابن@@ 683
الأرباح 683
الاستراتيجي 683
الشهادات 683
المجاهدين 683
جارات 683
جرم 683
ساع 683
سمو@@ 683
عناوين 683
محلات 683
مطالب 683
يقام 683
1846 682
آل@@ 682
أساقفة 682
اتة 682
الإضافي 682
المحي@@ 682
المقصود 682
بيز@@ 682
عال 682
فيزي@@ 682
لتز@@ 682
مرح@@ 682
أتي@@ 681
إيرادات 681
الأوقاف 681
الفارس 681
المجلد 681
تازة 681
تصحيح 681
دران 681
رضت 681
متكررة 681
مسجلة 681
ميلة 681
يتو 681
يحي 681
يفسر 681
أحزاب 680
اقترحت 680
الأنس@@ 680
السط@@ 680
امتد 680
بالنظر 680
حكومات 680
خبير 680
ذنة 680
ستور 680
سيت 680
للعام 680
مؤدي 680
مارتين 680
وزة 680
يسبق 680
يكشف 680
G. 679
baseball 679
أخ 679
أمّا 679
ادثة 679
ازدادت 679
استقلالها 679
التدريبية 679
التضخم 679
الرطبة 679
الشراء 679
المعدلة 679
الموتى 679
بدية 679
تله 679
حملته 679
رجلاً 679
شهير 679
عبان 679
نفا@@ 679
والمياه 679
وتنفيذ 679
وذكرت 679
أكل 678
الفاتح 678
الفيزي@@ 678
المميز 678
المنشورات 678
باختلاف 678
تستهدف 678
ثيان 678
جزائرية 678
حته 678
حم 678
كونست@@ 678
لاك@@ 678
ماديسون 678
مرتفعات 678
هنتر 678
هوا 678
وأربعة 678
وبريطانيا 678
ولوجيات 678
ويمك@@ 678
187@@ 677
اختر@@ 677
استخدامات 677
اشا 677
الهرمونات 677
الوريد 677
بوكس 677
تخلى 677
تفاع 677
ديلي 677
غلوب 677
غوستاف 677
مجلات 677
مدرس 677
مدينتي 677
مصارع 677
وأسس 677
ووادي 677
يمار@@ 677
البغدادي 676
الزهور 676
الملاحة 676
الهسبانيون 676
تايم 676
تجري@@ 676
خا 676
ريكاردو 676
صع@@ 676
قليم 676
كز@@ 676
نسية 676
هاتين 676
وإل@@ 676
وقوات 676
Tom 675
احية 675
البوتاسيوم 675
التقي@@ 675
التنين 675
الحبيب 675
المتظاهرين 675
تأثيرًا 675
تتم@@ 675
تخلص 675
خشب 675
فورية 675
كروس 675
كيًا 675
لاختبار 675
لبيع 675
لعمليات 675
ليتل 675
ماته 675
مرأة 675
ممتلكات 675
وأحيانا 675
1843 674
Joe 674
m@@ 674
أفكار@@ 674
البخار 674
الروحي 674
جميعًا 674
فاض@@ 674
معت 674
موزعة 674
وروا@@ 674
ويقدم 674
أنس@@ 673
التل 673
السنغال 673
المتأخر 673
المرش@@ 673
المغناطيسية 673
باستعمال 673
تتسم 673
تصميمها 673
غراند 673
كأحد 673
محاضرات 673
معدن 673
نبو@@ 673
وحُ@@ 673
أشهرها 672
المناعية 672
المواطن 672
بيعها 672
حط@@ 672
ضوا 672
قتلوا 672
للجميع 672
معروفًا 672
والصناعة 672
وذهب 672
ووسائل 672
يوافق 672
1815 671
Bill 671
إدموند 671
الزوجان 671
الفيفا 671
المساعد 671
المسلح 671
بابة 671
بداع 671
برزت 671
تشن 671
جيفري 671
رجح 671
شاش 671
غني@@ 671
فاروق 671
قدّم 671
لفزيون 671
ماو 671
ممثلي 671
مهارة 671
وردة 671
وشك@@ 671
يعاب 671
الأنثروبولوجيا 670
التقني 670
الجولان 670
الحلبة 670
الكوارث 670
المحوري 670
تحط@@ 670
تناس@@ 670
تيين 670
جونغ 670
راندي 670
صالة 670
قاض@@ 670
لقوات 670
لكونه 670
مصالح@@ 670
موه 670
نجل 670
وأخيرًا 670
والبرامج 670
وفازت 670
وقسم 670
وكيفية 670
ووظ@@ 670
يتحرك 670
احدى 669
البرونزي 669
الدنا 669
السند 669
القرط@@ 669
الموسي@@ 669
النوى 669
بيعة 669
ديمي@@ 669
صلالة 669
عنيفة 669
فلاح 669
للبيئة 669
لوث 669
مورتون 669
وتحليل 669
وغالباً 669
ومراكز 669
184@@ 668
أعطت 668
إدوين 668
إنسانية 668
اتفاق@@ 668
اتِ 668
التراجع 668
المسابقات 668
المقاتلين 668
املة 668
باليونانية 668
بوزارة 668
ثري 668
عزم 668
لورين 668
وهران 668
ءًا 667
ابتد@@ 667
اعتداء 667
السَّ@@ 667
المولود 667
الميزات 667
النمر 667
بيئية 667
بِ 667
داو 667
دورف 667
سيرا@@ 667
شيشاوة 667
صارت 667
عماد 667
فرنانديز 667
لابن 667
لوثر 667
نجا 667
وسائط 667
وقص@@ 667
وكري@@ 667
يضمن 667
ia 666
الجليدي 666
العلا@@ 666
توليه 666
تُسمى 666
جيرمان 666
سؤال 666
صعيد 666
قوط 666
للهجوم 666
والتهاب 666
وبني 666
َّن 666
8.@@ 665
أنغولا 665
ابنتها 665
اضط@@ 665
اكتساب 665
الانخفاض 665
الترفيه 665
التشريعات 665
العاصفة 665
الفائقة 665
الفقرة 665
اللاذقية 665
المثيرة 665
المملكه 665
بالإن@@ 665
باللعب 665
بتهم 665
بكميات 665
تقليدي 665
قالة 665
ماكن 665
مسيحيين 665
نَّ@@ 665
والمسؤ@@ 665
ينمو 665
أشباه 664
التنافس 664
الحوسبة 664
الصعبة 664
العذ@@ 664
بالمشاركة 664
بورتوريكو 664
تعليمها 664
فرح 664
قائها 664
قار 664
كوستاريكا 664
لمس 664
مراه@@ 664
مصفوفة 664
هانسن 664
وجما@@ 664
ابتدائية 663
افها 663
التشابه 663
الحرير 663
الحز@@ 663
الدو 663
العضلية 663
الميت 663
تقارب 663
تِ 663
جح 663
ستانفورد 663
شبي@@ 663
طفلة 663
طلة 663
لاد 663
لويز 663
مؤك@@ 663
مزدوجة 663
نعة 663
والمشاركة 663
وظي@@ 663
ونيو 663
وود@@ 663
وون 663
يقط@@ 663
أنجبت 662
التقدير 662
التين 662
الصمام 662
العمالة 662
القدامى 662
المستوطنين 662
تبت 662
تنظيف 662
خبي@@ 662
داري 662
شفة 662
صلت 662
طير 662
فوس@@ 662
فينيكس 662
لفترات 662
و2010 662
والقدرة 662
وذ 662
وريون 662
وزيراً 662
إقناع 661
إكمال 661
ائنات 661
اطع 661
الحري@@ 661
الصحراوية 661
الفتاح 661
الكافي 661
الهرمون 661
توت 661
حدى 661
ذوات 661
فز@@ 661
لألمانيا 661
لتوليد 661
مصر@@ 661
مصير 661
مونيكا 661
وأحيانًا 661
وحين 661
يتلق@@ 661
الأرجل 660
القُ@@ 660
المراد 660
الملقب 660
الير@@ 660
تعاليم 660
حتم@@ 660
ذرية 660
ظلم 660
عريضة 660
فورست 660
قرة 660
كوني 660
لكون 660
لينكس 660
ممك@@ 660
وتت@@ 660
يرز 660
َّت 660
105 659
ae 659
إنتخابية 659
ارتفاعه 659
الاحتياطي 659
الزائد 659
المدرعة 659
المشورة 659
الممتازة 659
المهرجانات 659
النهرين 659
الوسيط 659
بالعبرية 659
ترشي@@ 659
حبوب 659
زيارته 659
كوينزلاند 659
لحساب 659
لعرض 659
للفوز 659
ليًا 659
نقش 659
والملا@@ 659
والنظام 659
وبعضها 659
أمة 658
الحسية 658
الخبيثة 658
الغربيين 658
الِ@@ 658
بحجة 658
بفوز 658
كوبنهاغن 658
مرار 658
مراعاة 658
مرج@@ 658
هولمز 658
والتحق 658
والدول 658
1.2 657
in@@ 657
أدبي 657
أعادت 657
ارتباطًا 657
اشترك 657
الالتحاق 657
الجلدية 657
الدجاج 657
الدورية 657
القنابل 657
الكاثوليكي 657
المعاصرين 657
الهرم 657
بدايته 657
رينيه 657
زيون 657
شتا@@ 657
عصابة 657
لتس@@ 657
لتغيير 657
متماث@@ 657
مشارك 657
يسا 657
يقتل 657
إنجيل 656
الألف 656
الاقترا@@ 656
التبرعات 656
الزر@@ 656
الفيتنام@@ 656
القارئ 656
المزي@@ 656
بإضافة 656
حهم 656
خراط 656
دودة 656
شرب 656
متس@@ 656
وابنه 656
ودول 656
يحتل 656
Jack 655
en 655
آش@@ 655
أنف 655
ابح 655
الإقلاع 655
الدالة 655
السوريين 655
الضارة 655
المتصلة 655
بالإجماع 655
تشف 655
جند 655
حشد 655
دلال 655
رقمية 655
سياحية 655
مسرحيات 655
مَّ 655
نايت 655
وامر 655
وترا@@ 655
v@@ 654
الألومنيوم 654
الأيدي@@ 654
الظل 654
المزدوج 654
المغني 654
انطلق 654
ترميم 654
تماد 654
دعمت 654
سبار@@ 654
سخ 654
سرة 654
عبي@@ 654
فالي@@ 654
فتي 654
قراطي 654
لتأسيس 654
لتسهيل 654
وأخيراً 654
وطات 654
وقد@@ 654
يدير 654
1838 653
h 653
الآتية 653
الحل@@ 653
الطائ@@ 653
القف@@ 653
الملف 653
النقص 653
حامية 653
دياً 653
سكاي 653
عموماً 653
كيني 653
منحنى 653
وأقيم 653
وتعتمد 653
ورفع 653
Alexander 652
La 652
استف@@ 652
التغطية 652
الطيف 652
الفائ@@ 652
القطط 652
المعرو@@ 652
انبعاثات 652
بالطاقة 652
بناؤها 652
ريتشاردسون 652
سانشيز 652
كتائب 652
مدين@@ 652
وتحدث 652
ويغ@@ 652
وَ 652
يسهل 652
ِّل 652
ألاسكا 651
أودي@@ 651
أوش@@ 651
افتتا@@ 651
الأمير@@ 651
الباقي 651
التضامن 651
المتوقعة 651
النع@@ 651
امًا 651
انتخابيه 651
بالبطولة 651
تلمسان 651
حريق 651
ذف 651
صح 651
علومات 651
كلف 651
كمبيوتر 651
للتر@@ 651
لمراقبة 651
متش@@ 651
محترفة 651
مفي@@ 651
هزيم 651
وخرج 651
ودها 651
ويّة 651
يكتشف 651
1842 650
Daniel 650
أنَّه 650
الأصابع 650
التوحد 650
الجندي 650
الجيولوجية 650
الرضا 650
العزف 650
القطرية 650
اللاسلكية 650
المتميزة 650
المغلقة 650
اولة 650
بدو 650
تدريجيا 650
ترويج 650
توك 650
تينا 650
جهم 650
ختلف 650
لفيروس 650
متخ@@ 650
ناقل 650
نشأتها 650
والتم@@ 650
ولس 650
ويعتمد 650
يختار 650
6- 649
اروا 649
اعف 649
العاج 649
العملاقة 649
الكبري@@ 649
المضادات 649
النبوية 649
اومة 649
جوس 649
عالميا 649
للشرطة 649
معترف 649
مكسي@@ 649
نبرغ 649
نعم 649
نم 649
هدفت 649
1812 648
استحوذت 648
اقد 648
البلجيكي 648
العملي 648
المزرعة 648
الهيك@@ 648
الوه@@ 648
اوس@@ 648
بوليفيا 648
تحضير 648
تهن 648
جيين 648
عبده 648
عزف 648
فعله 648
فْ@@ 648
قبلت 648
لوح 648
مكوك 648
منظم 648
ميَّة 648
يعترف 648
أستاذًا 647
أصدقائه 647
أنج@@ 647
ارتبطت 647
البنفسجية 647
التقاعد 647
الشر 647
الفص@@ 647
النسائي 647
تنز@@ 647
حاجز 647
خالية 647
ريفي@@ 647
سرح 647
علاجات 647
كاً 647
لوكالة 647
لولا 647
مقاييس 647
ناشطة 647
نسل@@ 647
نولان 647
h@@ 646
أرسطو 646
النيوزيلندي 646
بدمشق 646
تاريخيا 646
تعاد 646
جاسم 646
حيم 646
زد 646
زهم 646
طيين 646
فيق 646
كيرك 646
مؤشرات 646
متكاملة 646
مساحته 646
170 645
إعدام 645
اثني 645
الأنصاري 645
الإماراتي 645
الانتقام 645
الجزئي 645
الصم 645
المعني 645
بود@@ 645
تشا 645
داخله 645
شهاب 645
صوف@@ 645
مايا 645
مناسبات 645
واقف 645
وعشرون 645
وول 645
ويتضمن 645
يوص@@ 645
1836 644
إلكتروني 644
البلطيق 644
الجاز 644
الذراع 644
الشأن 644
الطفي@@ 644
النيوت@@ 644
الوراثي 644
انص@@ 644
بحد 644
براط@@ 644
بطن 644
تيا 644
جيرسي 644
خزان 644
درج@@ 644
شخصيته 644
طاني 644
عرّف 644
قدت 644
موه@@ 644
هانوفر 644
ومقاطعة 644
يض 644
أُطلق 643
المحاضرات 643
اليابانيين 643
برادلي 643
تركها 643
دارت 643
دانة 643
دوغ 643
زاً 643
صاب@@ 643
غز 643
فتش 643
لإقامة 643
لينغتون 643
ماسون 643
والبعض 643
وكاتِبة 643
استقل@@ 642
اكتشافه 642
الأقلية 642
التجري@@ 642
التلفاز 642
العجز 642
الكان@@ 642
المقابر 642
برون@@ 642
روحة 642
زالة 642
زيان 642
سمكة 642
فلة 642
كلام 642
مجة 642
مشغ@@ 642
2500 641
أفكاره 641
الدفاعية 641
اليدين 641
بانك 641
تحديدًا 641
توسعت 641
خار 641
صغ@@ 641
صِ@@ 641
ـا 641
فج@@ 641
فيرو@@ 641
لقية 641
مِ 641
هاما 641
هطول 641
هوغو 641
يكات@@ 641
إبريل 640
اتجه 640
الأخ 640
الاضطهاد 640
الفجوة 640
اللبن@@ 640
الملو@@ 640
بالمئة 640
تنق 640
جريت 640
جوردن 640
سمي@@ 640
طفرة 640
غاي@@ 640
فوربس 640
قياسات 640
قيت 640
لقة 640
لقسم 640
للمعلومات 640
مختبرات 640
وتس@@ 640
ورؤ@@ 640
يدف@@ 640
أبداً 639
أمنية 639
الفريدة 639
المعسكر 639
الميل 639
برمجيات 639
بلده 639
تقويم 639
خاطئة 639
خطير 639
راو 639
سط 639
عصار 639
عصبية 639
عُثر 639
فائقة 639
للمريض 639
نبراسكا 639
وِ@@ 639
يصنع 639
يوك@@ 639
أنشأ@@ 638
الفجر 638
الوق@@ 638
بالسكان 638
بينات 638
فرس 638
فرها 638
كيد 638
لوائح 638
مختلطة 638
و4 638
واتف 638
ويقدر 638
أسلو@@ 637
الأسقف 637
الأكاديمي@@ 637
الأوبرا 637
المدعي 637
المفتاح 637
بتعيين 637
بشرط 637
تعليم@@ 637
ثمر 637
داب 637
رودري@@ 637
رونة 637
فايل 637
لاستعادة 637
للبنات 637
ماح 637
مستخدمي 637
والأربعة 637
وواحدة 637
48@@ 636
ألقاب 636
الخر@@ 636
الخش@@ 636
العقارات 636
المشروبات 636
بيتسبرغ 636
جاكوب@@ 636
خيرية 636
دارات 636
ستيفنسون 636
شبابه 636
طانية 636
فرضت 636
قادرًا 636
قاطع 636
معتمدة 636
مقبولة 636
وأعيد 636
والسيطرة 636
والمعدات 636
وانات 636
وجمهورية 636
وحي 636
وعاش 636
يتفق 636
1821 635
أقامت 635
الاحتفالات 635
التنظ@@ 635
بلوغ 635
تباد@@ 635
تكشف 635
حاملة 635
صناديق 635
للبحوث 635
متأخر 635
محلة 635
منًا 635
ميلتون 635
ميونيخ 635
وجمعية 635
يخلق 635
8,@@ 634
z 634
أصبحوا 634
الإضاءة 634
الحق@@ 634
الحمض@@ 634
الصدفة 634
الغوا@@ 634
النيابية 634
انتظ@@ 634
اندي 634
بأغلبية 634
بخار 634
تقدمت 634
تُ 634
جات@@ 634
ستاد 634
صقلية 634
كاترين 634
للدول 634
للشخص 634
مداف@@ 634
مياً 634
نق 634
يعية 634
يوتيوب 634
‘ 634
MPO250@@ 633
ألق 633
اعتقاد 633
الإسكتلندي 633
الخاص@@ 633
الدائ@@ 633
الصعوبات 633
القاري 633
المؤثرة 633
برتغالية 633
تشيكوسلوفاكيا 633
رؤيته 633
فاين@@ 633
فتم 633
فرية 633
فس 633
قلل 633
كاثوليكي 633
لقيادة 633
مقابر 633
موقة 633
نشتاين 633
نيكولا 633
واجب 633
وتمثل 633
ودخلت 633
وعدة 633
وقرر 633
يشتمل 633
1841 632
أخوه 632
إفراز 632
التحرك 632
الثلاثينيات 632
الحلي@@ 632
الفاصلة 632
الكامنة 632
المنطقي 632
المنطقية 632
جزيء 632
فلت 632
لورا 632
و1 632
وضوح@@ 632
يمكنك 632
Williams 631
اعترفت 631
الأضرار 631
الأيوبي 631
التاب@@ 631
الخليجية 631
العملاق 631
المبنية 631
المدار 631
اهتم 631
بتشكيل 631
ترجم@@ 631
جميعا 631
ريمة 631
طاع 631
ظهره 631
علما 631
كليب 631
كْ@@ 631
للتاريخ 631
هارد 631
وأد@@ 631
وعات 631
أشك@@ 630
أيونات 630
إنجاز@@ 630
الآشورية 630
التوراة 630
الخرسانة 630
الدافع 630
الرهبان 630
الضابط 630
الميك@@ 630
الورقة 630
ترب 630
حبه 630
دتين 630
عداء 630
عكا 630
قديما 630
لازم 630
مقسمة 630
مكانها 630
نافذة 630
وبيت 630
وحص@@ 630
وعمليات 630
يتار 630
احب 629
الإسرائيليين 629
التأليف 629
الغنائية 629
المتكاملة 629
بأسماء 629
بريدج 629
بوردو 629
تدعو 629
تسعينيات 629
تمكن@@ 629
تنفي@@ 629
تياح 629
حاسمة 629
ريد@@ 629
سنًا 629
سيمات 629
شور 629
شياء 629
كيل@@ 629
لفيلم 629
للطفل 629
واكت@@ 629
وبيا 629
وتش 629
ولذا 629
47@@ 628
آلام 628
أبدا 628
أسو@@ 628
ارن 628
اطب 628
الامبراطورية 628
البنكرياس 628
الكولوم@@ 628
بندقية 628
بوع 628
تجهي@@ 628
ثبيت 628
جوب 628
ذار 628
رسومات 628
ريدة 628
عَ 628
فبعد 628
فلات 628
محاض@@ 628
مدتها 628
مشة 628
نيومان 628
هدم 628
هوت 628
والشباب 628
يظل 628
إليس 627
اعدت 627
الجو@@ 627
الجُ@@ 627
العزل 627
الفصائل 627
المحاولات 627
بالضبط 627
جينا 627
داخلة 627
طويلاً 627
قيادته 627
لحفظ 627
نالها 627
نياً 627
وأض@@ 627
وأنظمة 627
والغرب 627
ومو 627
يقرر 627
أدريان 626
اسط@@ 626
الأسبق 626
البلدي 626
الجدير 626
الصنع 626
الفيزيائي 626
المعيشة 626
بارة 626
تبث 626
خرو@@ 626
عليهما 626
فعندما 626
لتدريب 626
لموسم 626
متاجر 626
ناقض 626
هاو@@ 626
والمي@@ 626
آرا@@ 625
أوكلاند 625
اضطهاد 625
الاستشارية 625
الشبي@@ 625
المستحيل 625
الوكالات 625
حلها 625
خمسينيات 625
خميس 625
دونم 625
دياز 625
شوان 625
ضائع 625
فرعي 625
كاثوليكية 625
للتحكم 625
للملا@@ 625
لمجلة 625
ليفزي@@ 625
مجموعتين 625
محاربة 625
مركزة 625
أمهات 624
التشفير 624
الحسيني 624
الضعيفة 624
العروس 624
الكتل 624
النسبي 624
سلمت 624
شاف@@ 624
فتو@@ 624
موري 624
نجاز 624
نحت 624
هجرية 624
والمر@@ 624
ينقل 624
ئا 623
ازن 623
الأمية 623
الانتصار 623
البغ@@ 623
السام@@ 623
انك@@ 623
بشار 623
شاكر 623
ضاً 623
قوب@@ 623
كرو 623
ليوب@@ 623
مبية 623
معاناة 623
ملا 623
منشآت 623
وصلة 623
وليا 623
ومغ@@ 623
ّاً 623
أسفرت 622
التخص@@ 622
التمث@@ 622
الدنماركية 622
الشحنة 622
العقاب 622
القادمين 622
بتت 622
بطال 622
بمختلف 622
تحميل 622
تراب 622
تمي 622
حرا@@ 622
حضرات 622
شتاء 622
شرقا 622
شكّل 622
ضاف 622
عالميًا 622
لؤ@@ 622
لقبه 622
للس@@ 622
موجب 622
نذكر 622
وجود@@ 622
وصناعة 622
ومسؤ@@ 622
الإشع@@ 621
الإكوادور 621
الاحترا@@ 621
الاستعماري 621
القارية 621
اولات 621
دوك 621
رويجية 621
سبرينغ@@ 621
ستري@@ 621
سكرت@@ 621
سماع 621
صان@@ 621
فتحت 621
لخطر 621
لسكان 621
للوزراء 621
ماجد 621
ناتجة 621
هِ@@ 621
يعرفون 621
Al@@ 620
آشور 620
اثناء 620
الإخراج 620
الجوا@@ 620
الصيانة 620
الفيل 620
الوري@@ 620
بفتح 620
بورتو 620
تشانغ 620
تليها 620
جود 620
داها 620
دنفر 620
ذرز 620
ساءة 620
سينات 620
شيوعاً 620
عيار 620
قروية 620
للر@@ 620
وأقل 620
وتوفر 620
يتعين 620
ؤها 619
إصدارها 619
الآليات 619
الابتكار 619
البعيد 619
البو@@ 619
الربح 619
الصربية 619
المحاربين 619
الهائل 619
بخط 619
تعارض 619
طيها 619
هوم 619
وأرسل 619
واقعة 619
وذا 619
أزيلال 618
أقدام 618
ألياف 618
أنَّ@@ 618
الاحتراق 618
البرونزية 618
الثق@@ 618
الدماء 618
انعدام 618
بالعودة 618
خفاض 618
رضي 618
سود 618
عجاب 618
كوستا 618
لرفع 618
لنظرية 618
ليوناردو 618
ماسي 618
مولا 618
ورس@@ 618
ويؤدي 618
1833 617
ו@@ 617
أُجريت 617
اصمة 617
التنظيمي 617
الصلي@@ 617
الغبار 617
المملو@@ 617
المملوكة 617
باترسون 617
خسرت 617
ديانا 617
علاقتها 617
ماب@@ 617
مساهمات 617
نيوكاسل 617
وأربعين 617
واستخدم 617
والجامعات 617
يص 617
يوود 617
220 616
Jim 616
https 616
الخريطة 616
الخيارات 616
السقف 616
العقل@@ 616
الغريب 616
الفرنسي@@ 616
جنسياً 616
زه@@ 616
ستال 616
عٍ 616
مديرا 616
مطلق@@ 616
ناءات 616
نعت 616
هوف 616
هوك 616
وأعمال 616
والمجلات 616
وبور@@ 616
ودراسة 616
وقاموا 616
186@@ 615
أسنان 615
إداري 615
إسلامي 615
الادعاء 615
العاطفي 615
القطري 615
المراهقة 615
بيض@@ 615
تصاد@@ 615
شات@@ 615
فيسبوك 615
قدموا 615
كرايغ 615
لاستخدامها 615
للتدريب 615
والعنف 615
وتمتد 615
9.@@ 614
أساتذة 614
أطروحة 614
ألبومها 614
اختلف 614
التوافق 614
الثورات 614
الخطيرة 614
المفرط 614
المنص@@ 614
النوبة 614
بُنيت 614
تبحث 614
رقام 614
عوض 614
فدان 614
فقي 614
للضوء 614
لهجة 614
نجي 614
و2 614
وقوة 614
ووصلت 614
ينحدر 614
10,000 613
الاجتماعات 613
السائ@@ 613
العثمانيون 613
العقوبة 613
الليبر@@ 613
النرويجية 613
انتصر 613
باض 613
تجريبية 613
تسع@@ 613
تينغ 613
دنيس 613
راكب 613
سيث 613
عيا 613
غاندي 613
لتمثيل 613
للخدمة 613
موضة 613
نتها 613
نوعاً 613
وإيران 613
والأخرى 613
واله 613
وقائد 613
أباد 612
أخذها 612
اعتراض 612
الاكتشافات 612
الانف@@ 612
البركانية 612
الجمه@@ 612
الطيار 612
المرتفع 612
المقبلة 612
الموه@@ 612
باطرة 612
بعلم 612
توزي@@ 612
جنسيًا 612
خدمته 612
دوز 612
ريبي 612
سيّة 612
شرائح 612
فيكون 612
للمادة 612
موها 612
نشوء 612
والموارد 612
وثائقي 612
وطر@@ 612
أوست@@ 611
الاستثمارات 611
البدي@@ 611
التصوف 611
الجلسة 611
الحقن 611
الرياضات 611
السلاحف 611
تعرضوا 611
توصيات 611
ديكسون 611
عطية 611
وسياسية 611
يتب@@ 611
يفصل 611
أخطاء 610
ألبومات 610
أهميتها 610
إلهام 610
اعتقاله 610
التفتيش 610
الحرائق 610
الرقيق 610
الصل@@ 610
الكهوف 610
الليزر 610
المسط@@ 610
بيرج 610
تسير 610
خنة 610
روائية 610
صاح@@ 610
صاص 610
قْ@@ 610
كمها 610
لسون 610
مادي 610
مثله 610
مغامرات 610
موريسون 610
هادي 610
هاو 610
والأراضي 610
والتقاليد 610
أصد@@ 609
ألبوم@@ 609
الألي@@ 609
الأنار@@ 609
السعي 609
الكهنة 609
الكوفة 609
المتنقلة 609
النشط 609
بدا@@ 609
بورتر 609
تخصصات 609
ثُ@@ 609
حيوي 609
خضر 609
صممت 609
فنا 609
قلبي 609
ملكًا 609
نائبا 609
وسج@@ 609
وشك 609
ونجح 609
ينما 609
ائياً 608
الأرجنتيني 608
الانهيار 608
الحام@@ 608
العقلي 608
المركزة 608
تجاوزت 608
تدوير 608
خراسان 608
خلط 608
صدق 608
ضل 608
غامضة 608
كنتيجة 608
مدفع 608
منون 608
نخبة 608
نسخت@@ 608
وشبه 608
يستند 608
1831 607
أبعاد 607
احتياط@@ 607
الاقتص@@ 607
البدني 607
القذافي 607
باكو 607
بوجه 607
تفاقم 607
تكوين@@ 607
تمدد 607
خشبية 607
رياء 607
ستير@@ 607
سيلف@@ 607
ظهوره 607
كرز 607
لسي@@ 607
لكره 607
ماهر 607
مليئة 607
ميرة 607
ولان 607
ينبع 607
َر 607
أبوا@@ 606
أقر 606
إنّ 606
إيفان@@ 606
الآبار 606
الدين@@ 606
الساخنة 606
العراقيين 606
المالي@@ 606
المزدوجة 606
بالميدالية 606
بودابست 606
ترس 606
تنو@@ 606
حيط 606
ستخدام 606
صلي 606
فضت 606
قسم@@ 606
قيمته 606
ليعود 606
مةً 606
محظ@@ 606
نامية 606
وطريقة 606
وعبر 606
ويمثل 606
أنجي@@ 605
التاي@@ 605
الجيولوجي 605
السلوكيات 605
المشروعات 605
المواصفات 605
انب 605
بغ 605
تدر@@ 605
تراك 605
تطويره 605
تمري@@ 605
جواو 605
خمة 605
شستر 605
صت 605
عملوا 605
ماركيز 605
منغ 605
ويصبح 605
يدون 605
يفو 605
َّف 605
أجسام 604
أورلينز 604
البدو 604
التذكارية 604
التزامات 604
الجراح 604
الخريف 604
الرواسب 604
الفرضية 604
القائ@@ 604
الكونية 604
اللاتيني 604
المحاسبة 604
المكسيكي 604
الموجه 604
اِ@@ 604
بداياته 604
بعثات 604
بقرية 604
تتوافق 604
تتولى 604
تصاميم 604
تعقي@@ 604
جوف 604
رفة 604
سيليا 604
عقاب 604
فوزها 604
كلين@@ 604
كم2 604
لكتاب 604
للمسلمين 604
مصاب 604
مهار@@ 604
هندسية 604
والرياضة 604
والكتاب 604
ووجد 604
أبراج 603
أنباء 603
إدي 603
إعلانات 603
إيما 603
اسمين 603
البوب 603
العمل@@ 603
المتز@@ 603
المعاني 603
تفعل 603
حرارية 603
دريد 603
دِّ@@ 603
سفر@@ 603
عدها 603
كلب 603
لبدء 603
للانتخابات 603
هابسبورغ 603
والشعر 603
ومون@@ 603
Bob 602
العميد 602
القاتل 602
المجري 602
المشارك 602
المعارضين 602
بالشكل 602
تنازل 602
خلع 602
راعات 602
ريَّة 602
سهيل 602
فهرنهايت 602
هانا 602
وحيث 602
يتصل 602
يضاف 602
ينَ 602
أفندي 601
الإمدادات 601
الترفيهية 601
المئوية 601
المشاه@@ 601
الممث@@ 601
اوم@@ 601
بيوم 601
تدريجياً 601
جميعهم 601
صفراء 601
غاي 601
فعالي@@ 601
كرت 601
لاحي 601
لتاريخ 601
للاض@@ 601
مجددًا 601
محرم 601
مسحوق 601
هائل 601
وبرنامج 601
وفتح 601
يا@@ 601
أعمالهم 600
البنجاب 600
السعيد 600
الطاولة 600
العظمي 600
اهتمامات 600
برميل 600
بطها 600
بلاء 600
ثني 600
ثيودور 600
زيتون 600
عشرينيات 600
غوميز 600
قارب 600
للمنظمة 600
موط@@ 600
مينا 600
مٍ 600
وارئ 600
والنقل 600
واندررز 600
وسف 600
وغرب 600
وقرا@@ 600
يوز 600
José 599
ألبرتا 599
اخترا@@ 599
اسل 599
اسيا 599
الأدباء 599
الخزانة 599
الدكتوراة 599
الكتاب@@ 599
انتُخب 599
براهيم 599
روبرتسون 599
شوا@@ 599
غالي 599
فإن@@ 599
فالن@@ 599
للأفلام 599
متزايدة 599
متسابقاً 599
والب 599
وكول@@ 599
Johnson 598
ar 598
أعضائها 598
إيمي 598
التشري@@ 598
السرطانية 598
الشائ@@ 598
المتمثلة 598
المختصة 598
المساء 598
الموث@@ 598
بشعبية 598
تورنر 598
جثة 598
خات@@ 598
سانس 598
سوب 598
فرويد 598
ناك 598
نفقات 598
اسكت@@ 597
اطين 597
الدبلوماسي 597
السلوكية 597
المزايا 597
المصرفية 597
المقص@@ 597
المنشأة 597
تدين 597
ترة 597
تناع 597
ثم@@ 597
حلف@@ 597
ديز 597
رودولف 597
عبين 597
غلاسكو 597
فرض@@ 597
قياسية 597
ليوبولد 597
مابين 597
محتويات 597
مناق@@ 597
ووا@@ 597
ازدهار 596
افت@@ 596
الألقاب 596
المون@@ 596
النمطية 596
براءات 596
بورما 596
تتعامل 596
عراف 596
عري@@ 596
عيّة 596
غالب 596
لحن 596
لور 596
مديرًا 596
مسؤولين 596
منزلها 596
هزي@@ 596
والأمراض 596
وتعود 596
يزي 596
يصور 596
أليف 595
الإير@@ 595
الاستعمال 595
بيلبورد 595
تباين 595
تراوح 595
تولد 595
داك 595
فرا 595
فلور@@ 595
كني@@ 595
لتا 595
لمشروع 595
لِ 595
ممثلين 595
منف@@ 595
ناي@@ 595
نديون 595
هدفا 595
هلسنكي 595
وأماكن 595
وافر 595
يمث@@ 595
يولد 595
أفتتحت 594
أورلاندو 594
إنف@@ 594
ازه 594
التأهيل 594
التسوي@@ 594
التقاء 594
الحافة 594
العباسية 594
القنبلة 594
المؤه@@ 594
المعز@@ 594
انتقام 594
بالتر@@ 594
بندر 594
تألف 594
تلي@@ 594
جنسيا 594
سارع 594
شهاد 594
طيل 594
قيمت 594
لاتحاد 594
لام@@ 594
لمن@@ 594
ملحوظة 594
وجبل 594
يدرك 594
el 593
on@@ 593
أضرار 593
الأنباء 593
الإط@@ 593
الفتح@@ 593
المطبو@@ 593
باعتبار 593
تاز@@ 593
خواص 593
دفعة 593
طانة 593
عوبة 593
فائق 593
كمصدر 593
لعبه 593
مالها 593
نته 593
يرو@@ 593
240 592
Mike 592
or@@ 592
أسلوبه 592
ادير 592
الأولاد 592
الاقتراح 592
التحرر 592
التون@@ 592
الرمادي 592
القياسات 592
اللّ@@ 592
المتغير 592
المخر@@ 592
الملاعب 592
بالمر 592
بمن@@ 592
بهاء 592
تانغ 592
ترجمت 592
حالته 592
طوب@@ 592
فائز 592
فلويد 592
قاتها 592
قرطاج 592
مثالية 592
مربع@@ 592
مظاهرات 592
نجة 592
هاربر 592
يناي 592
49@@ 591
آني 591
الحمى 591
الدكتورة 591
المبارك 591
المدرسي 591
الهز@@ 591
بلوماس@@ 591
بنيامين 591
تأك@@ 591
جازان 591
جرين 591
خصيص@@ 591
زُ@@ 591
قيدة 591
كينت 591
وزو 591
وفى 591
يتس@@ 591
يريدون 591
32@@ 590
أُصدر 590
اتجاهات 590
اصطدام 590
الأني@@ 590
الحواجز 590
الرضاعة 590
الروبوتات 590
القاسية 590
المتبادل 590
المطبوعة 590
اندة 590
تائج 590
تسلا 590
تعزز 590
حكومي 590
دلالة 590
ريادة 590
سكانية 590
شارب 590
عبدالعزيز 590
كرون 590
كوز 590
لمحة 590
مستشفيات 590
نمية 590
ويعني 590
يحظر 590
يوصف 590
100,000 589
140@@ 589
إق@@ 589
ارعين 589
الجنسيات 589
الصالحة 589
الهرب 589
الهيمنة 589
بلون 589
تشام@@ 589
تعاونية 589
توفى 589
عاتها 589
فتهم 589
فيليكس 589
كود 589
مارسي@@ 589
وتد@@ 589
ومخت@@ 589
يدين 589
يزات 589
Jones 588
أكسجين 588
احل 588
اقب@@ 588
اكتشافها 588
الأوكرانية 588
البرازيلية 588
البولي 588
التعاقد 588
العقب@@ 588
المهمات 588
النوعية 588
النيابة 588
انتشار@@ 588
بجنوب 588
تذهب 588
دده 588
دمرت 588
سوليفان 588
ضاحية 588
طويلا 588
عود@@ 588
فَ 588
قيّة 588
كاسترو 588
للمحترفين 588
للهندسة 588
ليزا 588
منتخبات 588
نيسة 588
هايمر 588
يتخذ 588
by 587
أبلغت 587
أدخل 587
أوف@@ 587
اعتبارها 587
الأوبئة 587
التسمم 587
التقلي@@ 587
الديدان 587
الرادي@@ 587
الشعاب 587
اللاحق 587
المؤسسين 587
المثالي 587
المطر@@ 587
المنفردة 587
المنهجية 587
بسم@@ 587
بغي 587
تحريك 587
جنوباً 587
خو 587
راند 587
لاج 587
لسن 587
معادن 587
ناجي 587
ندت 587
ندل 587
نسن 587
واخ@@ 587
ووقع 587
يتأثر 587
استدع@@ 586
البياني 586
التيارات 586
بوتية 586
تفكك 586
ضب 586
طقوس 586
عجز 586
نادرًا 586
وزا 586
يحتفظ 586
يفا 586
يفوز 586
يوا@@ 586
استولت 585
اشة 585
الحارس 585
العلمانية 585
انيه 585
تشار 585
تعام@@ 585
تمتاز 585
تنش@@ 585
زز 585
سهلة 585
سيدات 585
قاذ@@ 585
لدي 585
ليستر 585
ماريلاند 585
مسين 585
معار@@ 585
مفاتيح 585
والقرى 585
ووزارة 585
يسير 585
6000 584
Arthur 584
آباء 584
آبار 584
الاعلام 584
العنا@@ 584
المتط@@ 584
المنه@@ 584
الهدنة 584
برش@@ 584
بشراء 584
تزوج@@ 584
تغل 584
تكر@@ 584
جبا 584
عالمياً 584
لفئة 584
ليتوانيا 584
متسابق 584
محام 584
نسجة 584
نيها 584
man 583
أُعيد 583
إف@@ 583
الأموي 583
الإلهية 583
الترج@@ 583
الجاف 583
الحريات 583
الحيتان 583
المتا@@ 583
بالتزامن 583
بلير 583
تشرف 583
تعبي@@ 583
جانس 583
زيمبابوي 583
عاملة 583
غذائية 583
لتغطية 583
لتن@@ 583
ليمان 583
مزود 583
ميذ 583
نفذت 583
يستطيعون 583
يشكلون 583
يوط 583
الآفات 582
الأساقفة 582
الافتراضي 582
الجسور 582
السائلة 582
السكن 582
الناقد 582
اليوغ@@ 582
اليونانيين 582
بطانة 582
بنائها 582
تق 582
سرا 582
سمها 582
شوب@@ 582
عاصفة 582
فلوريد 582
كلور 582
لبة 582
للجسم 582
هيلز 582
وأدت 582
ونز@@ 582
يتمكنوا 582
يوضع 582
أنهت 581
المسافات 581
المكت@@ 581
المنتدى 581
تصرف@@ 581
ثمن 581
جاتهم 581
حسام 581
ريغ 581
شحن 581
صرحت 581
صعد 581
فإنهم 581
مجرات 581
وتكر@@ 581
وموا@@ 581
يتعامل 581
يلتقي 581
Canadian 580
University 580
أخيرا 580
الألب 580
الإسكان 580
التخدير 580
المالك 580
المخزون 580
المواهب 580
تسمانيا 580
تشريعات 580
تشعر 580
جانبه 580
حسن@@ 580
دقي@@ 580
ريتشموند 580
زغ@@ 580
سلوفاكيا 580
سوز@@ 580
شبيه 580
عباد 580
عقار 580
عوا@@ 580
قبلها 580
قِبَل 580
ملاك 580
والفن 580
وتعلم 580
وعائ@@ 580
يسل@@ 580
يميا 580
ٍ@@ 580
َت 580
ِر 580
أرج@@ 579
الإيق@@ 579
الجانبي 579
السمع 579
العقدة 579
الفاعل@@ 579
المظاهرات 579
بالز@@ 579
جامعه 579
عقوبات 579
مهنية 579
هدفاً 579
ومرة 579
ويحدث 579
اتفق 578
الأثري 578
التشكيل 578
الرملية 578
النقابات 578
بابلو 578
بايرن 578
تسك@@ 578
حازت 578
حضرت 578
روكي 578
صعدة 578
طبا@@ 578
غذاء 578
فعليًا 578
ممتلك@@ 578
والنق@@ 578
يرت 578
يسك@@ 578
أعماق 577
إقرار 577
احت@@ 577
استُخدم 577
افتتاحه 577
الخاضعة 577
الرَّ@@ 577
العدوان 577
الفات@@ 577
المحف@@ 577
باتي 577
بسب@@ 577
بكونها 577
تفصي@@ 577
جولي@@ 577
ريحة 577
صافي 577
عه@@ 577
كظهير 577
لممارسة 577
متع 577
مقربة 577
نجاحاً 577
نيكسون 577
والمز@@ 577
وحسن 577
ودُ@@ 577
وسعت 577
وقانون 577
ومجمو@@ 577
Chris 576
SS 576
أرشي@@ 576
الإرادة 576
التنس 576
الجاه@@ 576
الذرات 576
القصيم 576
المضيفة 576
المماثلة 576
الوسط@@ 576
بركان 576
بوش@@ 576
بيش@@ 576
تاجها 576
تشاك 576
تماثيل 576
حروف 576
زاكورة 576
سكان@@ 576
سهول 576
شخاص 576
عيادة 576
كرى 576
كوى 576
لورد 576
مبان@@ 576
نشاط@@ 576
والمحيط 576
ويبدأ 576
Walter 575
الأعلام 575
الإتحاد 575
الرخ@@ 575
السف@@ 575
الطائف 575
العامين 575
المدمرة 575
بعبارة 575
بمب@@ 575
جْ@@ 575
خصوصية 575
خلاق 575
راتي@@ 575
سببًا 575
سفن@@ 575
صق 575
كرًا 575
محف@@ 575
ناش 575
والدولة 575
والدينية 575
ودبلوماسي 575
وصار 575
يحظى 575
اعتقل 574
الإلهي 574
البروست@@ 574
التم@@ 574
الناقل 574
الونيا 574
تقان 574
تهمة 574
ثانوي 574
جدت 574
جماع 574
دارس 574
دالي 574
ديلا@@ 574
سرعات 574
عبي 574
علب 574
عيه 574
فقراء 574
متزوجة 574
مصاد@@ 574
مناهج 574
موناكو 574
والتحكم 574
والجماعة 574
وتقول 574
وشكل 574
وعارضة 574
يتسع 574
يكونون 574
آثاره 573
إسلام 573
اختصاص 573
اشترت 573
التخصص 573
الفنادق 573
المحلول 573
المضاعفات 573
الوقوف 573
اليب 573
بوتر 573
تايلر 573
توريس 573
تيكو 573
علمه 573
عيب 573
غرافيا 573
فوهة 573
لِّ@@ 573
مالا 573
ماندي 573
مركزاً 573
مقدمي 573
والأردن 573
والحصول 573
ولوس 573
يتوقع 573
أوزب@@ 572
إتفاق 572
ارعة 572
البيض@@ 572
البُ@@ 572
الجلوكوز 572
الساب@@ 572
الشك 572
المايا 572
بحالة 572
بيكا 572
تدى 572
زوجات 572
ستية 572
سيمبسون 572
كاو@@ 572
للجامعة 572
مراقب@@ 572
ملامح 572
نوح 572
وجام@@ 572
وحالة 572
وقتٍ 572
22.@@ 571
23.@@ 571
إنتاجية 571
الاستحواذ 571
الجزي@@ 571
المنقولة 571
بالجيش 571
تعدي@@ 571
حجرية 571
دارين 571
دبلوماسية 571
رشح 571
سُج@@ 571
غوس 571
غُ@@ 571
ليزلي 571
وعند@@ 571
ونظرا 571
يكمن 571
1810 570
أحجام 570
أخلاقية 570
أعير 570
إضافةً 570
اختارت 570
اشتراكية 570
التهديدات 570
الدعارة 570
الساخن 570
الشوا@@ 570
الصديق 570
المتطورة 570
المشتبه 570
المكاتب 570
المناخي 570
الموالية 570
باللقب 570
تتوقف 570
تصنيفها 570
ثبات 570
حدودها 570
حص 570
حفلة 570
حفيد 570
حكايات 570
دراك 570
زيز 570
شميت 570
للفضاء 570
ملائمة 570
ملح 570
مومباي 570
نهب 570
وأجزاء 570
والجزر 570
ونيوم 570
يشي@@ 570
.في 569
21.@@ 569
68@@ 569
إيرانية 569
اتص@@ 569
اطا 569
الإمبراط@@ 569
العاز@@ 569
المنتخبات 569
المهبل 569
بيان@@ 569
تطابق 569
جارية 569
رومي@@ 569
زكريا 569
سلمة 569
سيُ@@ 569
لينكولن 569
مدفو@@ 569
مستعمرات 569
هرية 569
والكثير 569
وديوهات 569
57@@ 568
75@@ 568
أفلامه 568
اجا 568
الخنزير 568
الساك@@ 568
المنوية 568
حمدي 568
رعاي@@ 568
زينب 568
سخة 568
صديقة 568
فاءة 568
كهف 568
لتش@@ 568
لشخص 568
مانة 568
مترا@@ 568
مجهولة 568
نجرة 568
نُ 568
والوقاية 568
وتدمير 568
ووفقاً 568
1826 567
an@@ 567
أسق@@ 567
إمي@@ 567
الجميل 567
الحزام 567
السادات 567
السبيل 567
القرم 567
المختلطة 567
النظامية 567
باتري@@ 567
تاريخياً 567
ترام 567
جسيمات 567
جيني@@ 567
ذُ@@ 567
شفي 567
صا 567
صوفي 567
عرع 567
مثلي 567
موتو 567
هايز 567
يعتبرون 567
10.@@ 566
1814 566
l@@ 566
ارون 566
اصرة 566
الأمانة 566
الإنفلونزا 566
الجذر 566
الحافلات 566
الحواسيب 566
الفاش@@ 566
المتغيرة 566
المساحات 566
النعمان 566
بكونه 566
تياز 566
جماهير 566
جنه 566
حدها 566
شم@@ 566
فإنَّ 566
كارلو 566
موقفه 566
ميكي 566
نظيف 566
نقعات 566
وتطبي@@ 566
وعلماء 566
يرين 566
يقر@@ 566
es 565
أعرا@@ 565
أقاليم 565
أوتاوا 565
الإحصائية 565
الاستفتاء 565
التوجيهية 565
الديمقرا@@ 565
انسداد 565
بالمرحلة 565
برازيل 565
تحد 565
جث@@ 565
جمادى 565
دخوله 565
ذَ@@ 565
سوار@@ 565
شم 565
ظهورها 565
عدت 565
عيش 565
غوط 565
كتابًا 565
كرافت 565
للشيخ 565
مؤدية 565
نانسي 565
واتهم 565
67@@ 564
7- 564
أميال 564
الأرمنية 564
الأعداء 564
الخمسين 564
الزبير 564
الشمال@@ 564
العاط@@ 564
الفواكه 564
المئات 564
الماس@@ 564
بتكلفة 564
بدفع 564
بوظ@@ 564
تحدي 564
رياضياتي 564
قام@@ 564
كتابتها 564
كريت 564
متعل@@ 564
مديراً 564
نظري@@ 564
والبط@@ 564
يحل 564
يعين 564
2.0 563
اشترى 563
الإلكترون 563
التمثال 563
الجد 563
الرائعة 563
الرفي@@ 563
الفوس@@ 563
القلبي 563
تقسي@@ 563
تقليص 563
دك 563
ذرا@@ 563
زق 563
سكري@@ 563
ضياء 563
علمين 563
فنسنت 563
فيدة 563
قطرها 563
قوتها 563
كارا 563
لرعاية 563
للسينما 563
ليندا 563
نسخ@@ 563
نقاد 563
وتهدف 563
135 562
أغانيه 562
أقراص 562
أوا@@ 562
إميل 562
استئناف 562
الأولوية 562
الجوع 562
الجيولوجيا 562
العز@@ 562
المسؤولون 562
اهتمامًا 562
باراك 562
بتد@@ 562
تفاوت 562
تفرض 562
ثور 562
جزء@@ 562
درويش 562
ديق 562
شروع 562
ضير 562
للث@@ 562
للدلالة 562
معان@@ 562
مونرو 562
والبحر 562
يتوافق 562
يحكي 562
… 562
أتت 561
الالت@@ 561
الانس@@ 561
المحامي 561
المصف@@ 561
النقود 561
باراة 561
بانيا 561
تريني@@ 561
تزامن 561
خيول 561
ذير 561
ستيلاء 561
فوزي 561
كومات 561
لجأ 561
لمقاطعة 561
مراسم 561
مفص@@ 561
واغ@@ 561
وجان 561
أوت 560
إلّا 560
الأمثل 560
الخميسات 560
القطيف 560
بعية 560
بيرل 560
تأهيل 560
جاد@@ 560
دائرية 560
دماغ 560
رايموند 560
روين 560
زبر@@ 560
شيك 560
عزز 560
عصاب 560
ـــ@@ 560
فاهيم 560
قاط 560
واته 560
وانين 560
وشهد 560
يشة 560
1825 559
ءت 559
أسرى 559
الإدرا@@ 559
الجائحة 559
الصخر 559
الصلح 559
الضخم 559
الطحالب 559
المسارات 559
بشري 559
بليك 559
بوتو 559
تنة 559
توظ@@ 559
ثعل@@ 559
رانيا 559
رقيقة 559
صحبة 559
لأعمال 559
لبلدية 559
للحالات 559
للخدمات 559
مجد 559
مقدار@@ 559
نقوش 559
نمساوي 559
هندرسون 559
هورن 559
وقاد 559
ونج 559
ونهر 559
ِي 559
53@@ 558
DNA 558
إلكترونيات 558
الإنم@@ 558
الحزب@@ 558
السمنة 558
الفاتيكان 558
القيامة 558
الهندسي 558
انوي 558
برلماني 558
تصويره 558
تطبيقها 558
تطهير 558
جويل 558
زاز 558
صاب 558
فإنّ 558
كمحترف 558
مساف@@ 558
والآن 558
وضعية 558
يحملون 558
يسكن 558
750 557
أستاذة 557
أمان 557
الإجابة 557
الإسرائ@@ 557
التباين 557
التحاق 557
التنفسية 557
العقاقير 557
القمرية 557
انخفاض@@ 557
بوند 557
تدا@@ 557
خاط@@ 557
ذوا 557
طابق 557
فمثلا 557
ملون 557
مميزات 557
منطق@@ 557
موز 557
ندن 557
نشيط 557
هاجمت 557
ورام 557
يحد 557
ينغز 557
الاحتم@@ 556
التضاريس 556
الفلسط@@ 556
القل@@ 556
المستقبلات 556
تشير@@ 556
جيداً 556
راتيجي 556
رطل 556
رينية 556
شارون 556
شهرًا 556
صلاحيات 556
ضئيلة 556
عدًا 556
عطى 556
عقبة 556
عيوب 556
فأن 556
فضل@@ 556
قيح 556
كمل 556
لبني 556
مؤق@@ 556
مسييه 556
مودي 556
نجية 556
نين@@ 556
والعلماء 556
وفن@@ 556
ومنه 556
يهم 556
أسهل 555
أولمبي@@ 555
الآتي 555
الأمازيغية 555
الزوجين 555
العنب 555
الهرمي 555
بعاث 555
ترز 555
رسون 555
ضيفت 555
طباعة 555
قوته 555
لفرقة 555
للإسلام 555
ماه@@ 555
مفيد 555
مورا 555
ندونيسيا 555
وخارجها 555
ِم 555
128 554
أبسط 554
أخته 554
إشرا@@ 554
الأسبوعية 554
الترشيح 554
الخضوع 554
العشائر 554
المستقبلي 554
المفاجئ 554
الناتو 554
اهتمام@@ 554
تحلل 554
سهال 554
عرب@@ 554
فح 554
كلٍ 554
للحيوانات 554
هامًا 554
وأصدر 554
وأي 554
واضحًا 554
ينغهام 554
أصله 553
اقوت 553
الحديدة 553
الخادم 553
السعة 553
السكة 553
القح@@ 553
المتبادلة 553
بأ 553
برونو 553
بنفسها 553
بَّ@@ 553
ثالث@@ 553
جيبسون 553
ذل 553
زيدان 553
سفيلد 553
سلكي 553
شخصاً 553
فيلمه 553
كونراد 553
مؤخراً 553
مقبول 553
مكانية 553
ميكانيكا 553
والأسود 553
وباكستان 553
ومقد@@ 553
0.5 552
20.@@ 552
24.@@ 552
25.@@ 552
Taylor 552
ol@@ 552
w@@ 552
أساسيًا 552
الإغاثة 552
الادعاءات 552
الحضري 552
المسر@@ 552
بالان@@ 552
تنطبق 552
جوي@@ 552
حذف 552
حيح 552
درتها 552
رأيه 552
عديم 552
قراره 552
للان@@ 552
مثلث 552
محق@@ 552
مدا@@ 552
هاين@@ 552
والدعم 552
وقطع 552
ولمة 552
يلات 552
4.5 551
9,@@ 551
آغا 551
أحفاد 551
أسه 551
الأربعين 551
الاستماع 551
السريانية 551
العقبة 551
المتن@@ 551
المد 551
الممر 551
الوي@@ 551
بأحد 551
بالانقراض 551
بالغين 551
تثبيط 551
تصريف 551
حلق 551
حياز 551
ستير 551
سينية 551
فقيه 551
فيرغسون 551
فيلا@@ 551
قائلة 551
قدرت 551
مسرحي@@ 551
ممر@@ 551
هواء 551
هوة 551
وأفريقيا 551
يدخ@@ 551
آز@@ 550
أرضه 550
الإقط@@ 550
التكتي@@ 550
التنوير 550
الحج@@ 550
الخيانة 550
الغواصات 550
الفعاليات 550
الكفاية 550
المشار@@ 550
باق@@ 550
تفاعل@@ 550
تفقد 550
تكاثر 550
تكس 550
خوذ 550
داية 550
رتي@@ 550
سليمة 550
ضح@@ 550
طاة 550
قيَّة 550
مسؤولي 550
ملازم 550
ملين 550
موسم@@ 550
والتخ@@ 550
وزع 550
ويه@@ 550
يبق 550
os@@ 549
أركنساس 549
إنَّ 549
احتفظ 549
استُخدمت 549
الأيرلندية 549
البيطري 549
التدريجي 549
التدوير 549
الكثيرة 549
المؤشرات 549
المدافعين 549
المقب@@ 549
الناف@@ 549
الهوائي 549
الواجب 549
بالمعنى 549
تعتقد 549
تعدّ 549
تكر 549
جيش@@ 549
حرب@@ 549
دب@@ 549
ديفيدسون 549
ذراع 549
زائر 549
لفون 549
لمؤسسة 549
ميتة 549
نهايته 549
يوفنتوس 549
استضافة 548
الأقدم 548
الإف@@ 548
التصلب 548
الحبي@@ 548
الرباعي 548
الممت@@ 548
المهن 548
امتياز 548
اهة 548
باريت 548
بعناية 548
بمعهد 548
حاتم 548
رائع 548
رفضه 548
سبه 548
صنعت 548
لحوم 548
مشاركتها 548
معتدل 548
ميرال 548
والديها 548
وضاء 548
وفهم 548
ومشار@@ 548
World 547
إقامته 547
اسك 547
الأمريكتين 547
الامتح@@ 547
التجديد 547
التجه@@ 547
الويل@@ 547
بالمياه 547
تخص 547
تيال 547
جديدا 547
ختام 547
ضِ@@ 547
فام@@ 547
كينغستون 547
لتصميم 547
للمجموعة 547
مانيا 547
متوقع 547
ملاح@@ 547
هْ@@ 547
ونو 547
البون@@ 546
الرابط 546
الكراهية 546
اللبن 546
الموسيق@@ 546
النظرة 546
بتحويل 546
تراف 546
ثل 546
حضارات 546
خراج@@ 546
سانية 546
شلل 546
لحضور 546
لمص@@ 546
معاداة 546
والأعراض 546
والأل@@ 546
ومك@@ 546
يمور 546
Q 545
آمر 545
أخيرة 545
استثمار 545
البني@@ 545
الحقي@@ 545
السويسرية 545
العضوي 545
الكوي@@ 545
الهائلة 545
براد 545
بٍ 545
تصفية 545
ثيين 545
جاته 545
خافيير 545
دايات 545
درهم 545
ركية 545
طبيبة 545
عزي@@ 545
فخ@@ 545
فضية 545
فولك 545
كتابته 545
كنات 545
لغي 545
ليُ@@ 545
مارش 545
مبل 545
مخص@@ 545
موض 545
مينغ 545
نافية 545
نيكول@@ 545
والثانوية 545
والرياضيات 545
أجز@@ 544
أمريكيًا 544
استيعاب 544
الحس@@ 544
الخالق 544
اليسو@@ 544
باراغواي 544
بحركة 544
تباس 544
تتج@@ 544
زمان@@ 544
زنط@@ 544
صاغ 544
ضرار 544
قديماً 544
كشافية 544
لاحظ@@ 544
للتحقيق 544
لمختلف 544
نويل 544
يشرف 544
56@@ 543
Ch@@ 543
أخبر 543
اعتذ@@ 543
الكاميرون 543
المحاكاة 543
المراجعة 543
المفرو@@ 543
ايم 543
بعمليات 543
بينية 543
تمددت 543
رأت 543
سيَّة 543
سّ@@ 543
غربا 543
كرب@@ 543
معقد 543
والمنش@@ 543
وجزء 543
ومعظ@@ 543
ونَ 543
التبت 542
بوق@@ 542
توسط 542
تيح 542
دايا 542
سبورت 542
سيؤدي 542
طيرة 542
فصيل 542
فنانة 542
لود 542
منافس@@ 542
منبج 542
نزوي@@ 542
والمجمو@@ 542
ويرتبط 542
1829 541
اختيارها 541
الأقدام 541
الإبداع 541
الإدار@@ 541
الاسكت@@ 541
التمهيدية 541
التناس@@ 541
التوس@@ 541
السليم 541
الع 541
العيوب 541
المحص@@ 541
المستهدفة 541
المقياس 541
تناز@@ 541
جاكرتا 541
صرة 541
قادت 541
قاسية 541
كاش 541
كمدير 541
لطلب 541
للسرطان 541
مجزرة 541
ناظر 541
واليس 541
واليوم 541
وظيفته 541
وفريق 541
يحمل@@ 541
يقولون 541
إدنبرة 540
اصبح 540
الصفة 540
القمع 540
المراهقين 540
الموز@@ 540
الوح@@ 540
بتوفير 540
بولونيا 540
تتصل 540
تَ 540
ثُمَّ 540
رحمة 540
شاط 540
شب 540
لوح@@ 540
ليفه 540
مسؤولي@@ 540
وخلفه 540
ورغ@@ 540
ومحر@@ 540
ووجود 540
يتعادل 540
يفوق 540
أكسدة 539
أمية 539
إنجازات 539
الإيطاليين 539
التوفي@@ 539
الكش@@ 539
المشعة 539
المصريون 539
المواشي 539
النبيذ 539
النفطية 539
ترش@@ 539
ثالثة 539
دولف 539
سويسري 539
غنائية 539
غوب@@ 539
كوميديا 539
لحكم 539
مامات 539
مثبطات 539
محاول@@ 539
محط@@ 539
وبخاصة 539
ورث@@ 539
وماي@@ 539
ويليس 539
َى 539
Andrew 538
اثون 538
اكن 538
الأسرى 538
الأفغانية 538
الإنش@@ 538
الصليبيين 538
المقتر@@ 538
المناقشات 538
برتغال 538
تقيم 538
عربات 538
لمناقشة 538
ميلز 538
نتيجةً 538
نزي 538
هاردي 538
وزي 538
ومط@@ 538
يمن@@ 538
ينظم 538
ch@@ 537
أخبر@@ 537
أُخرى 537
إنشاؤه 537
الدعوى 537
الرسومات 537
الزواحف 537
الزوجية 537
الشاح@@ 537
بيرسون 537
تدريبية 537
تقالي 537
تمك@@ 537
ثى 537
حنبعل 537
رافاييل 537
سايد 537
صناعات 537
لسلسلة 537
لقوا 537
ميكانيكية 537
ناغ@@ 537
وأمراض 537
وإدار@@ 537
وارث 537
والثالثة 537
basketball 536
أفلاطون 536
أمكن 536
اختصارًا 536
ادئ 536
الأهم 536
التقسيمات 536
الجالية 536
الجندرية 536
الحرجة 536
الحوا@@ 536
السماوية 536
الشخص@@ 536
العمق 536
المقترحة 536
المنظور 536
اندر 536
باته 536
بولو 536
تسرب 536
تفهم 536
تنفيذي 536
جسم@@ 536
دعاية 536
زياء 536
ضيقة 536
عُرض 536
غريغ 536
غيرة 536
قياً 536
مأهولة 536
مناه@@ 536
وإسرائيل 536
وعرف 536
وقائع 536
ويز@@ 536
102 535
1828 535
أليك@@ 535
الألبان 535
الأمواج 535
الأيرلندي 535
الإطاحة 535
الريشة 535
انسون 535
بعلبك 535
بنشاط 535
تكامل 535
جدها 535
حداث 535
خطية 535
دلية 535
شاة 535
صوبة 535
كلاب 535
للتأكد 535
مفاجئ 535
موسة 535
نفت 535
ويلة 535
وينتهي 535
ينون 535
1824 534
99@@ 534
الإجازة 534
البئر 534
التوأم 534
الجذعية 534
الجور@@ 534
المجردة 534
الممكنة 534
الناجين 534
بيدي 534
تنس@@ 534
دراية 534
شهود 534
صداقة 534
طولكرم 534
فضيحة 534
لكتابة 534
محم@@ 534
وتصني@@ 534
وثلاثين 534
وديو 534
115 533
320 533
أصابع 533
إدخ@@ 533
إيمان 533
الأنبوب 533
الاتجار 533
الدنماركي 533
الضغوط 533
اللفظ@@ 533
المكثف 533
الملايين 533
امو 533
باحة 533
بقا 533
حجرة 533
رأس@@ 533
شاشات 533
ضخ 533
ضعت 533
عرفة 533
متفاوتة 533
محليًا 533
نتائ@@ 533
والآثار 533
وقين 533
ووي@@ 533
البوش@@ 532
الحلز@@ 532
السياحي 532
العكسي 532
الكروا@@ 532
المحاولة 532
المصنف@@ 532
المعادلات 532
المنصورة 532
النطق 532
انتس 532
بالطريقة 532
تكاب 532
تناولت 532
تنخفض 532
جوس@@ 532
حلم 532
دائية 532
روبية 532
غوغ@@ 532
ــــ@@ 532
فرن 532
فيجب 532
كعب 532
لأعضاء 532
مفاعل 532
ناجح 532
والتوزيع 532
وتخ@@ 532
ورئ@@ 532
ومدرب 532
يافا 532
ّون 532
إيز@@ 531
اكي@@ 531
الانك@@ 531
التبرع 531
الكهربية 531
المعالجات 531
بغة 531
بفرنسا 531
تأه@@ 531
زميل 531
سيًا 531
صدى 531
عصبة 531
قبه 531
لخلق 531
ماكسويل 531
مفصل 531
وارك 531
والسلام 531
وهولندا 531
يقسم 531
أخذه 530
إسلا@@ 530
البارز 530
البروتستانت 530
التعاونية 530
الحوي@@ 530
الزفاف 530
الشيوعيين 530
الصفائح 530
المثانة 530
المفاتيح 530
الهام@@ 530
بالدوين 530
بوبكر 530
تداول 530
تفاق 530
جولات 530
شجع 530
شعرت 530
صنع@@ 530
طعة 530
عثماني 530
قلاع 530
لفه 530
لوا@@ 530
مشروعات 530
منعت 530
مواز@@ 530
وطرق 530
يتناسب 530
يليه 530
44@@ 529
66@@ 529
ازدهرت 529
الأجر 529
التعل@@ 529
التوقيت 529
الخسارة 529
الدروس 529
الراين 529
السامي 529
الغلو@@ 529
الفاشية 529
المفعول 529
بيَّة 529
توقعات 529
جزئيا 529
جواد 529
حظيت 529
حليب 529
خوارزمية 529
ديمقرا@@ 529
صغار 529
طاع@@ 529
عجلة 529
عزى 529
عملي 529
غرض 529
قصائية 529
ماني@@ 529
ناض@@ 529
والمسي@@ 529
وتيا 529
وخارج 529
يتحقق 529
يوري 529
190 528
Ar@@ 528
White 528
أبنائه 528
الاول@@ 528
التلاميذ 528
الجيري 528
الدموي 528
الطوب@@ 528
الفوري 528
المكتسبة 528
بويز 528
تشكيلها 528
تماثل 528
حديثي 528
حين@@ 528
شابة 528
كيّة 528
لدفع 528
لصنع 528
ناشفيل 528
هيكلة 528
والجزء 528
وكوريا 528
يمين@@ 528
COVID 527
أصلية 527
أنقرة 527
إيفا 527
الألواح 527
البحريني 527
التابعين 527
الصومالية 527
اللقاحات 527
المتم@@ 527
اموس 527
بدخول 527
تشغي@@ 527
تصار 527
تيريزا 527
سبول 527
شول@@ 527
فريات 527
لوبي@@ 527
ماوية 527
مقاتلة 527
هولندية 527
وابق 527
109 526
1600 526
ءا 526
آيلاند 526
أكولات 526
اءها 526
ابير 526
استعمل 526
الأخذ 526
الأنصار 526
المليون 526
الموسوعة 526
بادة 526
بالفشل 526
تفعيل 526
جمالي 526
جولي 526
حالي 526
حشرات 526
خريجي 526
دانا 526
روقة 526
سلون 526
سنر 526
سياً 526
لدول 526
لغزو 526
مخطوطة 526
معمر 526
مفهوم@@ 526
نازل 526
والمعرفة 526
وجبة 526
وعاء 526
أسلا@@ 525
الأحاديث 525
الاستسلام 525
الديمقراطيين 525
الرتبة 525
الموق@@ 525
الهواة 525
امور 525
بريا 525
بفارق 525
تملة 525
توية 525
جاو@@ 525
جرو@@ 525
راما 525
سينمائية 525
صارمة 525
صوتي 525
ضلي 525
فيني 525
قوارب 525
مبالغ 525
مجمل 525
مينيا 525
واعتبر 525
والني@@ 525
يلد 525
أخيراً 524
أفلا@@ 524
الجارية 524
السوفي@@ 524
القوم@@ 524
المفاج@@ 524
باض@@ 524
بالتأكيد 524
بجدية 524
بنهاية 524
تدعي 524
تنع 524
توض@@ 524
حيات@@ 524
داثة 524
دينيا 524
رينجرز 524
سافرت 524
شهرته 524
قرآن 524
كازاخستان 524
لمس@@ 524
محله 524
معجم 524
موث 524
هيوم 524
وترتبط 524
وكب 524
Wilson 523
إبد@@ 523
إني@@ 523
استقرت 523
التجميل 523
التحلل 523
الحامل 523
الكافية 523
المعترف 523
النوافذ 523
بوذا 523
دومينيك 523
رؤيتها 523
ستاني 523
صدا@@ 523
ظواهر 523
فولر 523
قانون@@ 523
ليكس 523
منقو@@ 523
ميها 523
ومؤسسة 523
ومتصدر 523
وناد@@ 523
يغير 523
أعتقد 522
أنجيلو 522
إدغار 522
اجتم@@ 522
استر@@ 522
الافتتاحية 522
البنغ@@ 522
الحار@@ 522
الحافظ 522
القرو@@ 522
المرك@@ 522
الميكان@@ 522
بوابات 522
حتّى 522
حديثاً 522
رفية 522
سبانية 522
سمر 522
ضلع 522
طيون 522
فوية 522
قور@@ 522
لكلية 522
لونه 522
مشي 522
ناص@@ 522
واسم 522
وتقليل 522
ومتحف 522
يزعم 522
AL@@ 521
أرسل@@ 521
الانج@@ 521
التائية 521
الشوك@@ 521
الصنف 521
الفريقين 521
الكثيرين 521
المحاماة 521
براين 521
تدرج 521
تركيبة 521
تسجيله 521
تضاعف 521
تيلي@@ 521
حظي 521
سيرجيو 521
فحص@@ 521
لانتخاب 521
مباد@@ 521
مبراطور 521
مثير 521
محطه 521
مروا 521
معمارية 521
مولده 521
مونية 521
ميش 521
والقوة 521
وتاريخ@@ 521
with 520
أمره 520
اختصاراً 520
الإبداعية 520
التجميع 520
الحاس@@ 520
الحجاب 520
الرجوع 520
الفين 520
القبطية 520
بلور 520
تحطم 520
ترقية 520
تسلم 520
جانسة 520
رقية 520
زائدة 520
شنت 520
عفرين 520
غام 520
فورة 520
كلور@@ 520
ليبي 520
مانيين 520
نيكولاي 520
والإعلام 520
والحد 520
وتس 520
وتعرض 520
وخلي@@ 520
وينتج 520
أراض@@ 519
إنترتينمنت 519
الأقراص 519
البلدات 519
النيتروجين 519
الهاشمي 519
بسعة 519
بمركز 519
توافر 519
ختار 519
خدماتها 519
خصصت 519
دعمه 519
ساكن 519
ستاف@@ 519
عشوائية 519
عوف 519
غاس 519
فوري 519
للفترة 519
محاصيل 519
ميدل@@ 519
هدسون 519
واشتهر 519
والتصميم 519
يشي 519
يقودها 519
111 518
1819 518
أوا 518
إنق@@ 518
الأبهر 518
الصع@@ 518
الضمان 518
المؤكد 518
الهات@@ 518
امرات 518
تحوي@@ 518
تصريحات 518
تعاطي 518
توري 518
حتَّى 518
دامت 518
دوث 518
ساء@@ 518
شكله 518
فأصبح 518
فراغ 518
فـ@@ 518
فكر@@ 518
لتشغيل 518
لزيارة 518
لفرنسا 518
مضت 518
معاني 518
منغوليا 518
منفذ 518
موطنه 518
وسان 518
وسون 518
وفن 518
ومعالجة 518
أولمبياد 517
التربوية 517
التعليق 517
الراهن 517
القَ@@ 517
المحسن 517
المطارات 517
المظلمة 517
الهض@@ 517
اوات 517
بالتحديد 517
بداء 517
سلسلات 517
شفيات 517
غوا 517
فارسية 517
قصبة 517
لافت@@ 517
للبيع 517
مبياد 517
متاح 517
متطورة 517
منتزه 517
والنباتات 517
وبالتحديد 517
ونيين 517
يتحدثون 517
104 516
1822 516
الاستهلاكية 516
الشيخوخة 516
القوارب 516
الكاتدرائية 516
الكوب@@ 516
الوحش 516
امان 516
بارنز 516
بالحكم 516
تمن@@ 516
خون 516
دائي 516
رمزي 516
سكت@@ 516
شهيرة 516
لتحويل 516
للفنان 516
مجلدات 516
مصنوع 516
معادية 516
ناهز 516
والأجهزة 516
والألمانية 516
والبحوث 516
والحديث 516
يبر@@ 516
26.@@ 515
أجري 515
أردني 515
إنشائها 515
إياه 515
اطلاع 515
اعده 515
البصر 515
الرزاق 515
الصرب 515
المجتمعي 515
المحدود 515
المذاهب 515
المصاد@@ 515
بحثًا 515
بعمق 515
تحقي@@ 515
ترقيته 515
تقة 515
تونسية 515
داني@@ 515
سفين@@ 515
سلر 515
صلاحية 515
طالبًا 515
عضوٌ 515
فيزيائية 515
كاة 515
للمشروع 515
لوقف 515
محادثات 515
مقار@@ 515
نسيق 515
والعدالة 515
والمغ@@ 515
وتربية 515
ورسام 515
وقرية 515
27.@@ 514
ine 514
الأزمات 514
الابنة 514
الرئتين 514
الرض@@ 514
الصادق 514
الطلابية 514
العينين 514
المعتادة 514
المفقودة 514
المقارن 514
بعقد 514
تاو 514
تكز 514
جنوبًا 514
خبارات 514
خمس@@ 514
دٌ 514
ذري@@ 514
ذهبي 514
ستيرون 514
سكين 514
شاق 514
شلي@@ 514
شهري 514
صنة 514
علانية 514
فيرا@@ 514
لبية 514
للتخلص 514
محاضرة 514
مستخدمة 514
نائية 514
وئ@@ 514
واقترح 514
والكنيسة 514
ويشكل 514
اعتمادا 513
الخصوبة 513
الرياضيين 513
الستي@@ 513
بالبحث 513
تارا 513
حا@@ 513
دستورية 513
زيزات 513
طفال 513
كولمان 513
لمزيد 513
مساواة 513
مونتغ@@ 513
نغاف@@ 513
نوبات 513
وبدلاً 513
وحول 513
ومجلة 513
Francis 512
أحواض 512
أفع@@ 512
أنطاكية 512
ارتفاعات 512
الإش@@ 512
التشو@@ 512
النوا@@ 512
الورقية 512
باعت 512
بالاعتماد 512
بالتعادل 512
بولندي 512
تامينات 512
تتويج 512
تعي@@ 512
تفظ 512
تقلص 512
ددات 512
ساعده 512
سلف 512
شنغهاي 512
كليهما 512
لأولئك 512
لقات 512
محاطة 512
مصدا@@ 512
مفه@@ 512
والقط@@ 512
وليم 512
يمثلون 512
k@@ 511
[...]
