, 7734728
. 7725103
là 3280710
và 2801032
&quot; 2741386
của 2651967
một 2635602
được 2354748
trong 2097967
năm 1909549
có 1781504
các 1474183
) 1435615
( 1434603
này 1228827
đã 1065442
người 1059885
họ 1039642
với 1012926
ở 989830
loài 934119
cho 926092
đầu 884578
học 864240
vào 809905
@-@ 745506
thành 722925
tháng 705008
số 670753
từ 646669
không 633153
đến 620635
những 597290
tại 571373
khi 570579
tả 558234
tiên 544067
ngày 536033
khoa 528275
thể 526746
Loài 525263
ra 523974
đó 507575
vật 505204
: 500195
công 495477
thực 493175
về 489671
để 484104
thuộc 480258
sự 475697
như 463004
bị 458696
trên 457515
chính 450756
ông 437240
sau 415649
dân 409322
quân 398193
gia 397439
nhà 384483
động 383733
; 379591
lại 375030
cũng 373974
làm 371508
thời 367469
nước 356271
nhất 354938
hiện 351755
mô 339302
Nam 332801
sử 332207
phát 329546
hành 328800
bộ 328052
nhiều 320160
theo 309280
hoa 307532
hai 302929
khác 301598
việc 297481
quốc 287917
quan 285535
con 280836
sinh 278178
thế 277134
chỉ 275470
cùng 275104
xã 273613
nhân 273315
hình 270148
hơn 268905
dụng 267932
chiến 266076
định 265403
thứ 264737
do 259460
Quốc 258233
đồng 256960
xuất 256512
viên 253975
còn 249259
độ 246082
miêu 244012
Trung 243893
thị 243040
cách 241071
tỉnh 240721
1 240149
nó 236368
vị 236093
tên 235641
cuộc 233667
bản 232965
2 229867
Việt 228967
/ 228454
giới 224640
trở 224510
bởi 223678
hợp 223374
Các 222807
lập 221775
nhưng 221325
rằng 221254
khu 218864
phía 218531
lớn 218237
cao 216631
điểm 216613
bằng 216511
tự 216270
phần 216121
đội 215829
đại 214180
nhận 214091
kết 213579
chức 212963
trước 211554
hội 211459
trường 209309
giải 208682
hoặc 207554
Năm 207342
tiếng 207257
Anh 206723
vùng 205856
cả 205615
Trong 204392
phải 203343
trình 203108
gồm 202867
thường 201854
Hoa 201837
tiếp 200688
điều 200497
lượng 200030
3 199309
chủ 198200
qua 196232
phân 195140
lý 194899
sản 193960
- 193749
Kỳ 193698
mà 192731
thống 191830
loại 190796
sẽ 190772
tế 189983
huyện 189020
cơ 188473
trung 185086
tính 181638
diễn 181232
lên 180087
đối 179020
phố 177458
bao 177093
tích 175817
vụ 175782
gọi 175443
thông 174869
sống 174559
tác 172750
đi 172652
hàng 172217
bắt 172032
phim 171071
tạo 170670
vì 169587
lực 169197
mình 167272
nhiên 167184
quyền 165702
vực 164844
hệ 163184
cánh 162888
địa 162885
Đại 162799
trị 162781
anh 162649
4 162393
&amp; 162255
đường 161356
lần 161144
nghiệp 160663
giáo 159085
đánh 156946
diện 156434
cấp 156103
5 155352
chi 154875
đấu 154688
chúng 153830
thủ 153407
Pháp 152824
cầu 152563
khoảng 152291
sĩ 150793
mới 150500
Sau 150182
10 150153
thức 150142
đoàn 148403
hóa 147784
trận 147657
Đức 146152
tranh 146083
cô 146080
hay 145682
đêm 144769
pháp 143883
đề 143565
Tây 143338
% 141874
– 141777
liên 141153
6 141101
tập 141053
nhạc 140905
tàu 140789
tham 140714
chuyển 140441
biển 139083
thấy 138070
bay 137976
máy 137905
bố 137182
truyền 136364
Mỹ 136105
thì 136022
năng 135451
km 135078
mặt 134539
toàn 134023
nên 133823
gian 133633
rất 132952
hiệu 131427
ban 130524
văn 129737
phương 129725
tới 129444
hoạt 129436
đô 128967
đây 128770
bang 128163
trí 127814
giữa 127188
đạo 127045
triển 127037
nam 127031
đặc 126776
12 126091
tổ 126064
nhau 125716
bướm 125448
Bắc 125376
nghĩa 125327
đá 124739
danh 124471
cứng 123829
7 123642
Một 123473
Ông 122780
ba 121994
8 121468
biệt 121140
tử 119828
bóng 119593
thiết 119370
chế 119299
ta 119265
đất 119121
đang 119118
nằm 118930
kinh 118668
bình 118452
đổi 118245
thuật 117925
kỳ 117483
tâm 117366
nơi 116982
dài 116951
đơn 116433
dưới 116091
chất 115959
âm 115490
9 115070
Nó 114721
cuối 114249
ảnh 114219
phủ 114045
Công 113791
bọ 113094
kế 112145
Liên 111990
dịch 111975
Đông 111905
Lan 111201
nữ 110676
&apos; 110505
nhiệm 110396
tiểu 109871
điện 109676
sách 109610
Nhật 109455
nói 109213
Vào 109048
ý 108872
biết 108769
phẩm 108684
sáng 108448
thay 108387
tăng 108056
châu 107676
bảo 107650
biến 107485
trưởng 106355
nguyên 106294
Thái 106084
11 105816
báo 105810
đều 105734
mục 105397
vẫn 105355
cứu 104702
tin 104352
gần 104312
trọng 104232
đảo 104116
tình 103381
thi 103268
chơi 101901
ăn 101714
thu 101689
tiến 101513
cá 101139
giá 100980
bài 100924
amp 100908
Bộ 100841
đặt 100813
tiêu 100727
thân 100677
tương 100469
nay 100409
tư 100334
nhóm 99658
Ngày 99453
dự 99450
nhỏ 99298
tìm 98982
tổng 98891
phòng 98848
dùng 98198
bắc 97308
ngoài 97005
lịch 96746
đông 96741
hòa 95839
bà 95804
bên 95754
tài 95657
hậu 95655
nổi 95255
màu 94744
dẫn 94274
quả 93618
phong 93560
tuổi 93129
tinh 92918
Dân 92734
phục 92496
kỷ 92440
biểu 92032
đưa 91937
sát 91758
đời 91632
Tuy 91403
đình 91336
viết 91323
ứng 91225
tục 90033
Thành 89995
giao 89995
&#93; 89430
us 89355
Hà 89119
ca 89047
miền 88800
mang 88668
Bản 88505
quận 88059
yếu 87847
mùa 87841
hát 87709
giữ 87565
Hoàng 87557
rộng 87505
tướng 87426
trang 87382
vô 87097
thương 86832
liệu 86649
sông 85968
&#91; 85596
² 85583
bán 85577
nhập 85486
quyết 85172
từng 85082
dựng 84473
bất 84189
đóng 84123
án 84088
tấn 84033
sở 83783
bỏ 83774
thần 83567
Dương 83557
quá 83519
phụ 83352
Xã 83167
chiếc 82821
chương 82527
viện 82390
dù 81669
thắng 81459
câu 81387
nghệ 81387
vận 81353
Hải 81327
Văn 81280
hoàn 81237
nhiệt 81020
Cộng 81002
2010 80879
Theo 80786
Độ 80756
vai 80667
binh 80442
lạc 80313
xây 80313
khí 80255
di 79899
cung 79751
cử 79483
cổ 79326
vệ 78920
nào 78831
Ấn 78566
giống 78453
hạng 78180
xác 78173
Tổng 77861
tiền 77652
Nguyễn 77281
hoàng 76868
trò 76867
vua 76765
Bình 76072
tra 76029
mở 75709
Minh 75111
Những 75110
tây 74939
sân 74856
ngữ 74793
chống 74789
hướng 74719
chung 74566
cái 74558
trợ 74378
làng 73939
chiếm 73894
chưa 73583
Từ 73433
hộ 73262
an 73141
ghi 73050
tượng 72827
Ban 72707
cộng 72447
giả 72285
minh 72181
đạt 71739
mất 71525
triệu 71356
dạng 71080
kiến 70419
phản 70303
quản 70294
bệnh 70153
mạnh 70096
sang 70061
chết 70022
hạn 69743
lúc 69617
Quân 69492
ty 69326
giờ 69304
tộc 69269
cảnh 69260
lãnh 69248
gây 69101
xe 68936
nguồn 68903
chứng 68813
kể 68618
kích 68594
nghiên 68317
in 68198
trấn 68084
kiện 67928
ký 67914
de 67709
lệ 67647
tất 67619
Chúng 67536
đoạn 67384
20 67380
ngôi 67229
chia 67175
hữu 67014
thư 66989
lưu 66984
yêu 66961
ata 66777
Khi 66726
vương 66721
tay 66477
cây 66385
chân 66166
Vương 66046
ensis 65951
vòng 65297
thuyết 65065
giúp 65012
phép 65010
thêm 64996
Nga 64982
Chính 64952
Ba 64406
Châu 64137
độc 64020
thích 64004
phá 63988
ia 63900
trực 63875
mỗi 63792
ít 63789
Sơn 63609
Âu 63536
hưởng 63293
vậy 63138
chọn 63109
The 62779
khỏi 62696
Sự 62656
sắc 62652
sư 62630
Hội 62588
cảm 62496
T@@ 62370
vấn 62108
Chiến 61548
cần 61238
hết 61119
Giải 61088
Nhà 60956
vi 60918
tốt 60840
địch 60642
luật 60575
cư 60250
La 60095
xem 59991
nội 59730
xếp 59581
em 59529
so 59395
tỷ 59340
sao 59298
B@@ 59218
y 59194
lấy 59108
An 58953
gốc 58908
um 58801
khả 58422
quy 58414
2011 58366
dương 58214
chí 58198
mạng 58196
giành 57854
m 57841
Thanh 57781
núi 57512
L@@ 57456
trai 57446
mật 57280
Người 57039
mắt 56849
bàn 56541
triều 56528
Đây 56333
15 56271
H@@ 55973
cố 55869
niên 55804
giảm 55659
huy 55630
khai 55544
Nhĩ 55543
Quận 55471
ch@@ 55399
lời 55331
tuyến 55267
lệnh 55016
M@@ 54666
Đảng 54402
S@@ 54344
khiến 54218
khách 54143
Nha 54108
áp 53950
cáo 53938
Thổ 53936
trẻ 53908
bầu 53870
duy 53685
Mã 53673
thảo 53157
vũ 53083
sức 53044
Thế 52984
Tân 52972
bại 52871
tuần 52666
chuyên 52636
ngoại 52576
đa 52541
Tháng 52505
... 52361
đồ 51626
dục 51586
môi 51586
album 51473
Nhân 51429
Nội 51362
Lý 51225
riêng 51185
chuẩn 51053
quay 50975
phổ 50969
Tại 50882
thiên 50876
đới 50828
thúc 50743
gặp 50665
đế 50654
hầu 50345
Xô 50324
nghiệm 50299
Do 50271
lớp 50212
nghị 50165
thanh 50140
lợi 50133
hạt 50051
Long 50004
Phi 49767
chữ 49676
doanh 49431
lễ 49344
nền 49310
xuống 49236
chạy 49142
V@@ 49042
of 49007
30 48957
phiên 48900
18 48722
h@@ 48541
Danh 48508
biên 48392
thái 48235
Lịch 48033
gái 47913
19 47900
bổ 47748
i 47747
kiểm 47634
vây 47546
n@@ 47500
Hòa 47280
dòng 47053
tồn 46934
luận 46898
Hán 46891
the 46882
N@@ 46847
tưởng 46816
Hồ 46804
rồi 46797
ước 46744
muốn 46726
tuyên 46638
thấp 46565
vàng 46477
Đế 46462
16 46123
New 46072
tiết 46017
mọi 45956
C@@ 45930
khẩu 45877
cực 45831
Á 45770
Giáo 45650
tức 45619
đứng 45538
s@@ 45305
cửa 45299
tịch 45298
nhanh 45228
2007 45164
du 45090
giám 45042
Ngoài 45030
m@@ 45029
Trường 44991
mức 44910
mẹ 44725
thờ 44704
is 44575
coi 44536
D@@ 44375
trúc 44327
Trần 44319
thất 44299
đáng 44227
cha 44153
dụ 44134
Có 44092
nữa 44092
kỹ 44019
dựa 43973
cận 43968
giáp 43802
giai 43783
ngay 43756
Hồng 43691
14 43674
mặc 43582
phi 43580
hạ 43494
đôi 43457
Nguyên 43379
bảng 43373
tối 43318
quần 43269
quanh 43082
phái 43023
lâu 42942
thủy 42938
dung 42925
13 42921
tuyển 42899
ấy 42819
nhện 42802
phóng 42711
Thiên 42623
Hàn 42553
lục 42468
đốc 42383
vài 42373
nhằm 42334
nếu 42291
pháo 42251
on 42175
ngôn 42112
17 42077
b@@ 42045
Đô 42014
Tư 41995
2006 41993
tố 41963
cải 41954
2008 41885
thập 41823
Đồng 41776
đủ 41725
la 41709
Không 41680
Ch@@ 41654
thưởng 41569
r@@ 41507
Kinh 41403
Lê 41240
Ý 41221
bạn 41199
cấu 41114
Chủ 40936
mẫu 40867
G@@ 40804
l@@ 40761
giết 40652
Vũ 40593
mét 40592
hỗ 40509
chiều 40426
luyện 40250
II 40241
Ở 40117
I 39973
da 39880
xa 39845
ph@@ 39742
lá 39692
ai 39664
Tông 39609
Cô 39589
v@@ 39585
K@@ 39574
bắn 39555
phạm 39518
kéo 39474
th@@ 39331
hoạch 39180
chấp 39094
25 39022
bốn 38889
rừng 38885
kim 38846
2016 38775
đài 38701
Geometridae 38675
Họ 38541
Tiên 38518
lộ 38515
Kim 38478
môn 38471
P@@ 38348
c@@ 38328
chứa 38263
rõ 38258
trùng 38219
tỏ 38196
sóng 38156
t@@ 38048
buộc 38018
Ủy 37979
cứ 37960
chịu 37929
Cao 37736
phận 37662
dành 37629
Đ@@ 37613
cạnh 37608
lửa 37522
ngành 37517
2009 37455
tôi 37349
tôn 37307
toán 37305
đổ 37267
R@@ 37217
mềm 37185
đàn 37178
g@@ 37167
cụ 37136
trao 37049
tốc 36962
2004 36866
hải 36841
ae 36773
khởi 36754
ma 36729
đĩa 36668
Điều 36654
2015 36627
Đài 36472
A 36435
bờ 36431
a 36401
nông 36395
ana 36260
khúc 36260
hồ 36187
nặng 36160
trắng 36157
Quảng 36153
thổ 36044
s 36024
Địa 35965
Bảo 35937
d@@ 35893
ngắn 35735
2000 35670
lĩnh 35640
2014 35631
nối 35619
Bà 35582
21 35526
idae 35460
2005 35452
y@@ 35438
hại 35418
A@@ 35336
Lưu 35333
aceae 35308
Đến 35243
ốc 35225
ruồi 35221
hôn 35177
Tiểu 35136
2012 35132
hồi 35102
khảo 35014
chú 34921
chuyện 34897
x@@ 34883
Giang 34877
sâu 34864
xảy 34695
tòa 34678
trạng 34619
2017 34474
trả 34441
2013 34332
gì 34180
trụ 34142
24 34127
1999 34089
thiếu 34087
Thượng 33848
2018 33825
Noctuidae 33825
đen 33816
O@@ 33762
niệm 33740
thuốc 33725
nhìn 33684
ea 33643
loạt 33625
khó 33541
chiếu 33519
Gia 33489
mối 33412
Đường 33203
rút 33189
xử 33116
2019 33061
nuôi 33026
tái 32937
bức 32926
100 32922
ủy 32851
vượt 32823
chim 32799
Thị 32760
cũ 32731
thuận 32682
xung 32395
Triều 32263
tước 32221
mua 32116
vốn 31894
nh@@ 31842
ina 31825
đầy 31771
thơ 31666
mại 31665
gt 31662
sai 31570
tội 31493
ương 31431
Hiệp 31398
Cerambycidae 31359
băng 31356
trục 31264
to 31127
23 31058
phối 30954
súng 30889
tạp 30862
Phó 30861
lt 30842
_ 30768
22 30767
Mặc 30667
suất 30613
mm 30548
u 30547
Ninh 30494
soát 30474
song 30385
đai 30363
Cổ 30356
Cúc 30343
linh 30330
atus 30316
chủng 30264
buổi 30254
on@@ 30237
kịch 30182
xét 30142
trái 30058
thử 30024
càng 29925
tr@@ 29683
góp 29657
rời 29623
ủng 29587
truyện 29550
đỏ 29543
dễ 29469
al@@ 29449
Trước 29447
kiếm 29372
sứ 29346
ngựa 29296
tầng 29292
2001 29285
đảm 29246
31 29236
tải 29225
Chi 29186
trách 29185
luôn 29159
chuyến 29124
trì 29064
in@@ 29015
cập 29003
dấu 28997
phí 28988
Ph@@ 28983
alis 28950
đích 28949
ella 28946
Thủ 28894
Mặt 28811
suốt 28741
Tập 28714
suy 28662
o@@ 28609
bào 28568
Hai 28563
Hy 28539
Thánh 28492
đăng 28448
kiểu 28433
50 28413
xỉ 28383
Khu 28356
Yên 28292
ánh 28235
xanh 28230
Cơ 28225
2020 28191
đào 28100
Th@@ 27941
khá 27913
Tr@@ 27912
lược 27891
khối 27879
E@@ 27860
Tổ 27823
căn 27814
Với 27810
vợ 27798
an@@ 27779
dần 27774
lòng 27770
đảng 27756
tín 27716
hãng 27696
Việc 27682
tia 27661
hàm 27632
trưng 27566
ô 27516
xứ 27493
Úc 27406
al 27369
cuốn 27351
kê 27272
Viện 27259
Lạp 27118
Giám 27106
bụng 27088
Phương 27061
đương 27009
mực 27000
28 26997
lượt 26941
and 26922
nghi 26860
xuyên 26752
Quang 26746
= 26731
đột 26701
thịt 26610
họa 26595
Phần 26575
phê 26574
26 26557
Cuộc 26546
2002 26465
dữ 26459
27 26452
mã 26447
ar@@ 26425
hủy 26358
mạch 26323
e@@ 26283
kính 26216
Đào 26189
thừa 26154
Đậu 26126
Sân 26085
tuy 26072
đạn 26061
Thời 26036
kẻ 26025
Chu 26004
nạn 25992
oc@@ 25978
huấn 25952
i@@ 25931
thoại 25887
hỏi 25880
vừa 25859
sa 25856
Lâm 25837
khóa 25833
hiệp 25830
trời 25811
Thụy 25777
Phong 25729
Phú 25702
2003 25695
Con 25625
el@@ 25462
Vì 25453
chúa 25427
Định 25421
ví 25324
os@@ 25310
Xuân 25263
ngăn 25217
đẩy 25132
giác 25096
I@@ 25057
trừ 25030
loạn 24955
nổ 24883
League 24777
or@@ 24751
0 24614
TCN 24602
thật 24564
trải 24507
ol@@ 24494
San 24452
áo 24430
chóng 24399
lao 24322
lính 24320
Chí 24278
sơ 24175
mộ 24091
Erebidae 24086
Phật 24052
1990 24032
hạm 23960
vọng 23949
diệt 23946
ấn 23881
điển 23877
F@@ 23790
Số 23765
thiện 23759
cm 23676
o 23666
29 23662
ic@@ 23662
ica 23658
40 23510
B 23488
et 23428
thao 23421
Tham 23406
sửa 23392
Đội 23386
ng@@ 23339
bước 23305
Trương 23225
nhờ 23198
lai 23149
thú 23125
khắp 23121
xin 23112
Sư 23090
thí 23090
phù 23053
aria 23051
phút 23050
đem 23043
om@@ 23020
tách 23005
trào 22964
Tòa 22869
thụ 22859
cắt 22763
đ@@ 22753
! 22738
chẳng 22719
Nhưng 22709
kh@@ 22704
nhiễm 22692
Trái 22684
hương 22683
ac@@ 22633
nguy 22629
bày 22627
quý 22558
đỉnh 22512
gửi 22501
lông 22476
Đất 22462
chỗ 22444
&#124; 22414
nghe 22382
kháng 22357
John 22348
op@@ 22332
xâm 22260
hiểu 22243
cai 22220
Huyện 22190
d 22172
cầm 22163
X@@ 22121
C 22120
sắt 22098
tu 22081
hiểm 22080
ngầm 21998
tiện 21993
tàng 21968
Tên 21962
đẹp 21951
ot@@ 21939
Thông 21932
vành 21916
nâng 21911
khắc 21910
liền 21889
hơi 21882
tầm 21874
Nhiều 21867
osa 21826
liệt 21806
sớm 21804
chỉnh 21792
a@@ 21773
Ngô 21770
en@@ 21751
thăm 21732
as@@ 21645
kênh 21636
cường 21605
z@@ 21593
thăng 21520
chảy 21500
tuyệt 21490
Hưng 21474
tù 21459
1998 21457
Tỉnh 21413
xúc 21408
Kh@@ 21406
sáu 21361
Đạo 21340
oides 21328
bão 21299
nửa 21286
dọc 21246
? 21196
1945 21192
màn 21148
tò 21137
đọc 21098
thôn 21051
formula 21031
máu 21014
Về 21012
mưu 21006
Để 21000
quảng 20997
quán 20974
ly 20943
Hiện 20940
giản 20911
er@@ 20902
ex 20894
Nếu 20875
Ar@@ 20859
rêu 20826
tán 20821
J@@ 20791
An@@ 20749
vò 20726
di@@ 20716
ống 20697
Z@@ 20654
Vĩnh 20631
p@@ 20631
Hồi 20542
is@@ 20527
chồng 20441
Y@@ 20420
đe 20383
ẩm 20369
tan 20342
Cách 20310
thẳng 20304
Ai 20302
U@@ 20283
Ngọc 20243
1997 20217
dầu 20217
Ichneumonidae 20214
Đặc 20210
ngược 20171
phó 20154
dạy 20118
Phúc 20108
săn 20084
ti@@ 19968
Lương 19964
bí 19958
truy 19954
am@@ 19951
ổn 19917
Cục 19843
Hạ 19838
2021 19827
dọa 19825
k@@ 19797
+ 19753
Canada 19716
York 19713
Phân 19705
Tam 19677
bậc 19656
Al@@ 19648
Áo 19646
Thủy 19527
thoát 19517
video 19504
Quan 19484
1980 19474
thiệu 19384
tặng 19381
Karnataka 19374
ưu 19371
1991 19363
tháp 19347
cậu 19346
ích 19341
bò 19331
Lai 19293
Paris 19253
thước 19226
° 19219
id@@ 19203
Thống 19196
Phạm 19181
Hành 19151
at 19133
n 19130
đúng 19114
bi@@ 19103
bom 19096
t 19090
gắn 19075
xạ 19050
Mùa 19038
U 19035
phiếu 18999
Chỉ 18987
Hymenoptera 18924
​ 18871
ha 18852
Loan 18847
nghiêm 18788
khoản 18750
trích 18749
Hậu 18740
Cá 18685
sẵn 18685
chó 18655
tehsil 18627
hút 18606
bãi 18598
tá 18586
sung 18539
gi@@ 18533
T 18532
ap@@ 18527
en 18510
1996 18508
Rêu 18506
lẫn 18496
trại 18447
ẩn 18408
chặn 18359
rơi 18318
Tử 18281
Y 18259
Tự 18235
thù 18207
siêu 18194
đoán 18188
cờ 18151
Saint 18138
x 18128
era 18113
gắng 18108
Cập 18098
cựu 18095
tắc 18053
h 18043
tránh 18024
lâm 17997
at@@ 17986
dây 17975
Nghệ 17966
khiển 17964
lương 17950
1995 17940
bác 17937
cỏ 17925
nắm 17924
l 17921
ur@@ 17899
thác 17880
Mông 17873
1975 17867
thượng 17861
Khánh 17848
hấp 17804
Hệ 17772
Bài 17734
ong 17724
Bồ 17711
lưng 17699
World 17670
1992 17668
anus 17653
Chương 17648
lo 17648
phán 17616
hè 17615
Cuối 17608
60 17591
nhớ 17586
thánh 17537
tắt 17496
na 17469
ag@@ 17437
họp 17433
Phổ 17430
Tống 17427
quang 17391
USD 17383
nghỉ 17338
vĩ 17310
đáp 17310
thua 17307
Tôn 17286
đo 17228
Nghị 17215
trồng 17212
nhánh 17209
Đình 17202
Trịnh 17194
tai 17169
lan 17147
lẽ 17138
sắp 17116
ràng 17108
Linh 17095
ul@@ 17072
Đầu 17070
quê 17064
món 17055
.@@ 17052
1993 17038
Phòng 17038
bánh 17030
et@@ 17009
nhật 16995
tống 16987
atum 16946
đuổi 16943
khăn 16938
Khoa 16934
tạm 16908
Trận 16882
nhẹ 16875
đuôi 16871
khô 16860
cấm 16852
Trên 16846
vuông 16829
Đối 16827
bật 16791
xương 16766
el 16760
lựa 16737
ngờ 16735
III 16728
Học 16688
phạt 16672
hài 16669
1994 16664
quỹ 16657
nghề 16642
Sinh 16636
lo@@ 16581
trữ 16580
ung 16544
côn 16535
nỗ 16519
li@@ 16508
il@@ 16482
bề 16469
j@@ 16460
dậy 16457
Hóa 16446
Tính 16409
thuyền 16407
Bí 16397
pha 16396
ngân 16390
Mar@@ 16389
phức 16358
Phát 16357
cặp 16334
Thể 16308
eri 16288
1970 16286
Chúa 16281
Tiến 16273
chữa 16265
Brasil 16252
dưỡng 16251
sợ 16245
mời 16242
ya 16231
chối 16192
thậm 16167
it@@ 16162
chùa 16155
giấy 16155
ga 16149
im@@ 16131
opsis 16115
hôm 16114
ense 16110
as 16082
Hợp 16069
ad@@ 16052
đền 16035
cảng 16034
Cup 16029
Câu 16028
Par@@ 16024
Nữ 16004
us@@ 15987
đỡ 15979
khủng 15956
u@@ 15878
trú 15864
hoá 15820
Ả 15795
qu@@ 15782
Triệu 15769
tàn 15757
Na 15678
ngang 15664
Chrysomelidae 15663
nghĩ 15659
vong 15651
bạc 15646
1960 15643
mưa 15624
rắn 15601
khỏe 15596
Cảnh 15577
Cùng 15568
Lực 15546
Điện 15542
C. 15541
Điển 15536
tỉ 15505
hoang 15475
bé 15465
ang 15456
gỗ 15435
1989 15432
game 15413
X 15412
hùng 15410
thiệt 15407
vườn 15359
mười 15356
Vân 15334
lui 15320
phường 15314
tờ 15267
W@@ 15232
p 15224
Vua 15220
Sở 15219
đẳng 15179
Thần 15169
gió 15162
A. 15157
Lễ 15148
uống 15144
giảng 15143
k 15131
ei 15110
“ 15106
am 15103
gà 15103
miễn 15071
Kiến 15068
b 15063
khán 15062
Thân 15052
F 15049
đua 15039
V 15003
California 14992
ir@@ 14992
rãi 14982
trứng 14962
đau 14953
Di 14923
Cũng 14922
Thuận 14922
Thạch 14882
to@@ 14876
” 14871
Thiếu 14867
dãy 14865
Hiến 14856
hiến 14852
man 14841
Lục 14830
Sĩ 14804
trăm 14804
Kết 14797
ura 14794
mẽ 14772
cân 14767
sáp 14761
thẩm 14760
bá 14757
ái 14751
Tấn 14750
nóng 14722
sub@@ 14704
chấm 14693
kì 14682
Rập 14671
mũi 14619
dị 14604
trốn 14549
200 14538
tận 14531
tùy 14518
cơn 14509
1988 14488
Nghĩa 14485
80 14468
đực 14452
Cầu 14425
es@@ 14423
Arctiinae 14403
tròn 14387
onia 14381
xu 14374
hồng 14371
chép 14346
võ 14286
chị 14275
ám 14274
Đoàn 14261
Thiến 14259
Ví 14235
Sh@@ 14231
ro@@ 14229
e 14201
es 14200
hỏa 14161
Đan 14133
it 14128
góc 14105
Thiết 14081
.. 14064
Cal@@ 14061
ki 14050
chinh 14004
quyển 14004
per@@ 14000
rượu 13943
no 13924
Tất 13917
c 13917
one 13915
Philippines 13902
ru@@ 13844
Di@@ 13820
le@@ 13816
Như 13811
nâu 13800
ens 13799
Tương 13790
Được 13789
lối 13778
soạn 13765
vỏ 13747
ngũ 13741
chắc 13740
70 13724
Là 13680
Thường 13662
ii 13654
ác 13653
dày 13649
g 13643
kia 13643
Tiếng 13641
dặm 13641
ab@@ 13630
Q@@ 13627
90 13626
ena 13617
lưới 13590
thỏa 13586
bảy 13585
em@@ 13578
ec@@ 13573
kém 13572
ig@@ 13560
hổ 13555
Hầu 13527
vịnh 13475
tường 13460
ar 13443
1986 13399
Tần 13383
os 13338
ngọt 13335
hô 13329
or 13328
odes 13324
ka 13320
mệnh 13299
ida 13297
ob@@ 13290
vỡ 13276
og@@ 13275
tụ 13263
bạo 13259
lỗi 13259
nhu 13244
web 13244
1.@@ 13233
Trang 13207
tảng 13197
Sông 13177
ang@@ 13138
Sao 13135
ak@@ 13133
tấm 13094
hiếm 13091
Tuyên 13074
ném 13074
cục 13065
Tiền 13055
chuồn 13054
đức 13049
Hữu 13043
Kông 13025
co@@ 13009
Lào 13005
ita 12986
trống 12984
Sài 12979
biện 12976
2.@@ 12967
1950 12945
Cả 12933
đám 12915
1987 12893
đồn 12893
vẽ 12887
can 12877
Gi@@ 12863
thuế 12852
Luật 12847
phe 12816
hư 12814
Phim 12811
un@@ 12811
Huy 12808
1985 12796
san 12781
đoạt 12768
1942 12760
phỏng 12755
Đà 12752
United 12723
giọng 12715
Toàn 12683
Hoàn 12680
ri@@ 12662
Hungary 12648
2@@ 12646
cháu 12640
kg 12636
đốt 12630
mong 12626
lạnh 12623
M 12612
hòn 12583
nguyện 12580
gai 12575
rối 12572
D 12568
đợt 12557
Car@@ 12556
xưa 12555
đứa 12535
vẻ 12529
Vòng 12512
Lộc 12502
Phan 12475
Ngụy 12462
Bar@@ 12461
Elateridae 12461
mỏ 12446
sóc 12446
Cung 12439
Viên 12436
sót 12432
Ng@@ 12424
1981 12416
Môi 12380
tọa 12380
Nhóm 12371
Tác 12341
Sử 12333
er 12323
mạc 12306
1944 12300
giàu 12298
Tào 12296
1979 12283
điệu 12280
Sa 12267
ara 12263
Per@@ 12251
mái 12245
1940 12241
45 12226
1984 12225
Ngoại 12225
Bạch 12216
ine 12195
35 12192
cừu 12192
ngừng 12183
tám 12181
Giao 12163
nhảy 12163
mắc 12162
vợt 12162
ni@@ 12144
Ne@@ 12140
cháy 12127
chu 12112
vú 12105
hà 12089
Lạc 12088
Quý 12087
nhắc 12085
đòi 12079
khổ 12054
Gòn 12052
khơi 12046
Cát 12018
cự 12001
ur 11987
Indonesia 11963
khám 11960
dàng 11958
1982 11956
C.@@ 11956
Grand 11949
George 11948
chuỗi 11948
icus 11942
dõi 11940
Séc 11919
ula 11919
tri@@ 11916
khái 11905
khấu 11903
chạm 11886
Mỗi 11880
’ 11877
dia 11867
le 11849
Lúc 11837
chặt 11835
Bá 11834
Dự 11820
vinh 11803
buôn 11787
1941 11762
tổn 11754
oph@@ 11718
va 11716
thiểu 11715
lỵ 11714
1983 11689
chăm 11688
Thu 11672
Album 11662
che 11662
cãi 11655
voi 11637
bèn 11615
Và 11601
tus 11600
Uy 11595
1972 11593
1943 11588
ans 11580
sh@@ 11535
Tôi 11525
Hương 11503
thai 11500
od@@ 11478
thạch 11453
O 11436
tim 11419
Thương 11410
William 11405
1978 11399
Israel 11395
lôi 11392
thảm 11377
James 11376
Cho 11374
tựa 11365
Ngay 11362
von 11361
cất 11350
ed@@ 11334
ninh 11331
si@@ 11330
par@@ 11328
cột 11320
1930 11316
hứng 11308
ê 11306
1976 11302
Truyền 11288
Cẩm 11286
Nh@@ 11280
av@@ 11270
— 11268
viễn 11251
cướp 11250
Cor@@ 11239
tệ 11239
dứt 11220
bia 11203
Bên 11191
xưng 11189
bối 11177
L. 11174
cốt 11169
po@@ 11158
chắn 11148
giam 11145
Thư 11131
Cúp 11124
đón 11124
ti 11121
chậm 11113
Phiên 11111
Võ 11097
Crambidae 11095
z 11085
tri 11070
sàng 11050
Mô 11046
nghèo 11045
inus 10999
och@@ 10992
Du 10976
Biển 10971
N 10952
ôn 10947
dừng 10932
mồi 10929
Syria 10904
ov 10900
sẻ 10897
3.@@ 10884
ép 10853
tis 10843
des 10841
ngồi 10825
úy 10819
Bọ 10810
kiêm 10795
gen 10785
1968 10773
thả 10758
trúng 10746
ak 10743
w@@ 10742
dàn 10739
K 10733
kèm 10730
Biên 10716
Le@@ 10716
Hàng 10702
kêu 10690
khẳng 10684
1946 10680
ona 10679
Dưới 10674
chở 10650
hung 10644
lái 10641
ấp 10640
Trị 10637
răng 10636
Nhạc 10635
Âm 10633
Vùng 10630
Xuyên 10625
Mal@@ 10621
ấm 10616
folia 10595
cỡ 10592
Mục 10574
anum 10566
-@@ 10565
Tài 10559
chín 10554
1973 10552
ưa 10545
Am@@ 10542
triết 10533
dư 10524
st@@ 10519
khuôn 10518
thuê 10516
ức 10516
cụm 10494
huyết 10494
non 10487
ach@@ 10482
1954 10465
khuyến 10462
sánh 10459
32 10445
Vinh 10436
Charles 10433
đậu 10426
tần 10406
Luân 10402
ngọn 10392
eg@@ 10386
thải 10385
oma 10383
Tiêu 10382
Mai 10377
tông 10360
Bằng 10358
đồi 10343
R 10328
Ngân 10327
Trichoptera 10326
1974 10308
500 10281
cam 10280
1965 10261
Duy 10260
Limoniidae 10247
Trời 10244
Or@@ 10224
mảnh 10219
á 10210
As@@ 10202
FC 10198
4@@ 10192
Quyết 10191
ep@@ 10186
Phước 10171
Henry 10167
City 10162
Windows 10160
eta 10159
hỗn 10156
eo 10148
de@@ 10142
km2 10138
Ireland 10135
un 10123
L 10106
Ca 10093
Al 10091
Kể 10079
chứ 10077
lỗ 10073
Campuchia 10071
Qu@@ 10034
… 10032
tiêm 10020
Chân 10017
Thọ 10014
quen 10008
r 9999
gấp 9996
Tứ 9976
đệ 9965
1977 9954
Malaysia 9936
Ma 9929
Mạc 9927
1967 9917
tô 9915
West 9913
Mạch 9898
vở 9898
tân 9896
chìm 9887
H.@@ 9881
miệng 9879
300 9863
ides 9863
sữa 9850
Phụ 9841
Dù 9840
ala 9831
David 9818
vui 9818
1964 9813
vết 9807
Đảo 9796
Huế 9789
Quyền 9788
ổ 9788
S.@@ 9784
dã 9772
son 9767
um@@ 9757
cản 9747
phu 9734
Robert 9725
ranh 9722
tu@@ 9714
1963 9713
ho@@ 9712
Đinh 9711
In@@ 9685
Hình 9682
S 9682
Washington 9681
át 9665
65 9658
lọt 9632
ano 9613
dinh 9613
ola 9612
Tachinidae 9585
vạn 9584
Động 9583
Ukraina 9577
1939 9575
ao 9574
eus 9571
khích 9554
Singapore 9552
phúc 9552
lang 9542
H 9541
anthus 9536
chấn 9536
48 9531
Tàu 9526
tam 9524
car@@ 9519
hi@@ 9519
Mexico 9496
ora 9490
may 9487
Paul 9477
IV 9457
Tình 9452
trạm 9450
Hạm 9440
vững 9439
Vị 9433
Pennsylvania 9426
sch@@ 9417
Kế 9394
and@@ 9393
re@@ 9390
Mon@@ 9382
Thứ 9380
Mor@@ 9376
Dung 9362
Trọng 9362
Cha 9361
Đôn 9355
Đó 9350
1971 9348
é 9346
ngư 9344
ngại 9343
cương 9340
ngợi 9339
hẹp 9335
J.@@ 9326
kỵ 9312
đẻ 9310
ota 9289
Đa 9285
Cái 9275
1920 9271
Sch@@ 9268
lũng 9255
A.@@ 9245
1969 9242
hoảng 9214
ost@@ 9208
1962 9203
Thực 9165
thang 9159
đầm 9155
no@@ 9149
lợn 9146
ơ 9146
ov@@ 9142
ven 9140
cú 9130
Nghiên 9124
trầm 9124
Col@@ 9115
f@@ 9111
mo@@ 9110
3@@ 9106
1956 9097
màng 9094
canh 9089
Liêu 9080
thách 9080
Illinois 9064
Trưởng 9064
cát 9061
li 9059
kỉ 9049
Chiêu 9048
E 9045
Louis 9038
ing 9038
khuẩn 9026
Lăng 9020
Lee 9010
H. 9001
cán 8995
El@@ 8986
Quy 8981
ồng 8976
1955 8965
ghế 8964
uy 8960
Diễn 8955
aea 8953
1966 8949
lẻ 8946
pes 8945
út 8945
bo@@ 8944
Bỉ 8943
Mi@@ 8943
P 8941
ay 8938
thuần 8938
kho 8933
En@@ 8928
than 8915
ngàn 8909
mạn 8898
ops 8897
thép 8886
Vụ 8880
Ho@@ 8874
men 8847
não 8840
Song 8835
khổng 8834
tha 8825
Hy@@ 8815
Khoảng 8815
sụp 8814
Nông 8809
Hùng 8804
chụp 8799
lỏng 8799
so@@ 8796
Tề 8795
Bảng 8794
ảo 8786
ci@@ 8773
alb@@ 8772
Lãnh 8769
xuân 8766
thầy 8764
br 8757
dải 8756
lồ 8755
Đệ 8742
trương 8733
duyệt 8731
ả 8708
Bo@@ 8704
nhấn 8701
ol 8701
S. 8697
xấu 8694
Tuấn 8691
London 8688
su@@ 8679
già 8666
Cer@@ 8658
ah 8657
hiển 8657
chợ 8656
co 8652
Texas 8650
hy 8643
bụi 8638
ô@@ 8638
Điền 8636
ấu 8628
muối 8625
ania 8616
Se@@ 8610
Har@@ 8607
Li@@ 8606
1958 8600
dường 8592
Man@@ 8570
mọc 8569
ne@@ 8566
1947 8559
1936 8556
L.@@ 8555
Cần 8550
5@@ 8541
khung 8536
ium 8535
ik@@ 8533
cà 8531
xám 8531
Con@@ 8511
Khang 8507
ate 8501
Chi@@ 8500
Maria 8492
Zealand 8492
dao 8476
ber@@ 8473
gián 8463
ati@@ 8451
sạch 8442
J. 8440
hoan 8437
Hiếu 8435
phú 8421
Iran 8420
38 8414
Mas@@ 8414
anime 8397
van 8397
nhạt 8386
te@@ 8379
ut@@ 8375
ter@@ 8373
Entertainment 8372
thoái 8372
Bur@@ 8371
ani 8370
flav@@ 8348
mon@@ 8343
yc@@ 8340
G 8339
hộp 8338
nòng 8337
nương 8333
Tokyo 8331
M. 8329
Vườn 8322
Tĩnh 8316
niềm 8314
pop 8308
br@@ 8305
f 8287
lạ 8281
đập 8281
× 8279
chuột 8276
ua 8275
sợi 8274
thám 8271
chi@@ 8262
Nhất 8261
34 8257
1961 8255
Michael 8249
1949 8239
1959 8239
chăn 8237
oxy 8237
52 8236
lọc 8232
nét 8223
thọ 8219
tiềm 8213
ō 8205
33 8198
Thomas 8195
tứ 8183
au@@ 8180
mê 8173
Iowa 8172
36 8171
yr@@ 8160
tháo 8159
Argentina 8155
Dakota 8149
Bệnh 8145
viêm 8144
ngực 8141
Xương 8140
az@@ 8139
tung 8137
Nghi 8136
ngủ 8130
sưu 8125
TV 8123
Vệ 8123
lia 8123
nghìn 8122
Ohio 8119
hào 8117
hang 8110
xoay 8106
75 8105
Thiệu 8099
si 8097
Br@@ 8093
$ 8088
4.@@ 8082
Huệ 8082
Giống 8080
pr@@ 8080
lu@@ 8076
sơn 8074
top 8073
Dịch 8066
bột 8066
Giai 8063
v 8057
Co@@ 8050
Hoài 8048
Billboard 8044
su 8040
CP 8029
01 8028
ath@@ 8028
Bal@@ 8026
eb@@ 8021
chờ 8012
ino 8008
ic 8005
1957 8003
Ngôi 8000
mi@@ 7999
Bor@@ 7994
Quần 7988
yl@@ 7977
đàm 7970
Quản 7969
1953 7965
México 7943
osus 7929
UEFA 7921
You 7920
bọc 7914
ba@@ 7912
cal@@ 7912
lắp 7909
7@@ 7904
P. 7896
ch 7896
con@@ 7877
Tiếp 7873
47 7869
Đỗ 7867
Scotland 7857
cưới 7857
dược 7854
khôi 7853
trần 7844
0,@@ 7842
M.@@ 7841
hâm 7834
Sách 7832
yên 7828
bấy 7826
ari@@ 7821
virus 7808
protein 7806
55 7805
lăng 7797
1938 7796
hạnh 7794
ri 7794
trông 7789
mèo 7782
E. 7778
dâng 7775
thợ 7772
điệp 7772
Mac@@ 7766
mát 7764
Huyền 7758
64 7750
ini 7749
Viễn 7747
1948 7741
ene 7734
Đơn 7734
Môn 7721
1937 7716
St@@ 7716
Thuật 7712
bè 7709
Tô 7708
ist@@ 7706
ten@@ 7704
thiệp 7696
hoà 7672
mai 7670
mãn 7668
Ber@@ 7667
Chiếc 7663
Pseud@@ 7658
hắn 7656
se@@ 7656
Cuba 7649
bạch 7648
chút 7647
trộn 7647
giận 7641
Mẹ 7640
Park 7638
1951 7631
Kar@@ 7630
der 7628
Huấn 7615
xưởng 7615
au 7613
ion 7612
bọn 7608
đáy 7608
oni 7602
ruột 7600
Tướng 7596
ys 7590
ad 7589
ada 7582
dáng 7582
Video 7577
Cửu 7576
khen 7576
thận 7575
long 7572
nô 7570
hồn 7547
ay@@ 7540
hầm 7532
France 7531
Đặng 7526
Nguồn 7521
mươi 7519
South 7518
ema 7516
mar@@ 7514
Còn 7509
Lợi 7501
lân 7500
ếch 7499
nhượng 7497
mac@@ 7483
Khắc 7479
for 7473
Phục 7469
37 7468
1952 7463
tóc 7460
Kỹ 7458
cor@@ 7457
Chung 7451
Báo 7446
khoáng 7445
Phủ 7434
Cảng 7432
400 7409
óc 7399
pal@@ 7397
bùng 7396
mơ 7392
Latinh 7383
nhuận 7373
đốm 7371
khuyên 7370
Thừa 7367
lô 7366
Music 7363
ref 7359
1934 7357
1929 7351
Ser@@ 7345
hưu 7342
dịp 7339
Nước 7321
ngập 7321
phẳng 7320
ni 7319
ngự 7315
1935 7310
Chánh 7304
đợi 7301
6@@ 7292
bar@@ 7292
Bel@@ 7289
nhị 7288
Tâm 7278
De@@ 7275
44 7272
ải 7263
Phù 7260
Cây 7257
Richard 7256
chư 7251
Ag@@ 7245
kín 7233
lồng 7223
Internet 7221
Tri@@ 7216
do@@ 7214
51 7210
ie 7207
bi 7206
hề 7206
8@@ 7202
ser@@ 7197
lãm 7196
Máy 7195
lưỡng 7195
Er@@ 7186
tĩnh 7183
Ngũ 7181
ko 7180
lật 7180
chàng 7176
thẻ 7167
căng 7165
Berlin 7153
ton 7153
ari 7150
ỉ 7147
Martin 7146
phẫu 7141
tic@@ 7140
42 7127
Quá 7126
Mer@@ 7122
ah@@ 7108
Lao 7102
Mel@@ 7098
Hơn 7097
Ô 7092
ạt 7082
tuyết 7069
Bang 7064
Giới 7064
rã 7064
Huân 7062
chôn 7062
del 7058
ou@@ 7055
man@@ 7050
ama 7040
49 7028
Thắng 7028
Tường 7028
mi 7015
xong 7012
Asilidae 7011
giây 7010
ing@@ 7007
đèn 7007
Ni@@ 7004
1931 6996
Mộc 6985
by 6985
ne 6980
lan@@ 6978
mượn 6978
Tipula 6968
Wales 6966
Manchester 6964
1914 6962
Cy@@ 6957
opus 6957
46 6943
ghép 6942
1918 6936
Su@@ 6930
oth@@ 6918
1900 6904
Ro@@ 6900
lúa 6895
Lập 6894
nề 6891
Ly 6890
Sar@@ 6889
la@@ 6886
rau 6885
thịnh 6879
col@@ 6873
yi 6873
Hàm 6865
sạn 6864
Minnesota 6859
du@@ 6851
Is@@ 6843
tươi 6843
9@@ 6837
Phái 6834
Edward 6830
Lo@@ 6830
lằn 6827
ell 6823
Tạng 6822
nạp 6820
00 6818
vi@@ 6811
El 6804
1912 6802
Kansas 6797
nỗi 6796
R.@@ 6795
Cải 6792
aur@@ 6791
cổng 6790
dâm 6789
Los 6782
oi 6779
Hi 6773
bút 6769
5.@@ 6768
gỡ 6767
One 6761
Ti@@ 6760
nấm 6758
dò 6754
huyền 6753
Siêu 6747
Ấu 6734
vé 6726
Love 6725
ley 6724
Trà 6718
Trăng 6707
rock 6705
1891 6704
Gr@@ 6703
ngã 6697
lặp 6696
Kitô 6692
sườn 6675
nấu 6672
mỹ 6671
Thập 6670
tuân 6669
Pro@@ 6661
kịp 6660
Pol@@ 6659
Sản 6653
Me@@ 6647
ào 6635
Jean 6616
điền 6612
tica 6607
Bùi 6606
Pr@@ 6598
lò 6595
39 6592
Diên 6589
axit 6582
nhãn 6579
ek 6578
nhịp 6573
ết 6572
ngưỡng 6567
sc@@ 6563
Dòng 6560
khứ 6560
à 6560
ét 6560
Lượng 6558
1933 6557
mấy 6556
Bị 6555
1922 6553
Thạnh 6553
1917 6552
gợi 6549
Hạt 6547
Neuroptera 6545
Ex@@ 6540
lam 6540
Lữ 6538
vang 6535
43 6528
Pal@@ 6527
W.@@ 6527
mat@@ 6527
ớt 6527
pe@@ 6522
1913 6519
ira 6518
ex@@ 6511
lệch 6511
Moskva 6508
sàn 6508
thung 6503
go@@ 6502
Friedrich 6497
ek@@ 6494
P.@@ 6493
ulata 6493
treo 6490
Tháp 6487
Mo@@ 6483
41 6480
B. 6476
ong@@ 6471
Bi@@ 6463
1932 6459
D. 6459
1924 6457
ys@@ 6457
thi@@ 6455
ax 6449
Joseph 6448
Ver@@ 6441
bê 6441
ò 6431
nàng 6425
1925 6418
sky 6415
Iraq 6414
Vô 6412
1,@@ 6411
yn@@ 6404
Scarabaeidae 6402
củng 6402
dium 6402
ey 6398
lành 6394
1908 6393
ê@@ 6389
Đăng 6387
sur 6385
thuẫn 6383
đáo 6383
icum 6380
ki@@ 6380
Kỷ 6374
inch 6364
lầm 6364
Tar@@ 6361
mây 6360
53 6355
Tuần 6354
áng 6353
aya 6351
bồi 6349
ốt 6349
bền 6348
Smith 6343
nêu 6343
Bất 6342
bơi 6340
dời 6340
thằn 6338
Mu@@ 6337
Sal@@ 6337
dỡ 6336
ale 6333
Jackson 6322
1919 6319
ahalli 6316
đậm 6315
đựng 6309
Trinh 6304
usa 6299
Tùng 6296
nhầm 6295
im 6288
Cực 6281
ù 6280
1910 6279
1916 6279
Te@@ 6269
Le 6265
Pakistan 6265
Phường 6263
elia 6261
1905 6259
điêu 6255
1911 6254
cong 6251
escens 6239
êu 6239
gan 6238
I. 6234
Mao 6234
54 6233
Thơ 6228
St. 6222
lắng 6220
G.@@ 6218
Cà 6212
hi 6210
Colombia 6208
tang 6208
Quả 6201
ăng 6201
10@@ 6200
manga 6199
Brazil 6184
Top 6181
Phía 6180
Bayern 6179
Hoạt 6175
xứng 6173
Po@@ 6165
Loire 6163
aw@@ 6163
í 6161
Peter 6154
suối 6147
Ger@@ 6145
cu@@ 6145
Vịnh 6142
Ma@@ 6140
quát 6139
Kính 6132
Alpes 6123
Tor@@ 6123
ami 6123
Hiệu 6121
72 6120
Ge@@ 6119
USS 6118
lãng 6116
yp@@ 6110
mãi 6109
D.@@ 6106
2,@@ 6103
flora 6103
150 6102
uc@@ 6100
Tu 6098
w 6089
King 6077
mì 6075
xóa 6071
Đôi 6071
Vạn 6070
nở 6063
hỏng 6061
hu@@ 6059
05 6058
ạn 6056
1927 6055
ất 6055
ich@@ 6053
Tế 6046
Ko@@ 6045
T.@@ 6045
gu@@ 6045
àn 6044
Trich@@ 6040
Cr@@ 6033
sổ 6029
Afghanistan 6027
Pi@@ 6027
Thiện 6027
1923 6026
ae@@ 6022
soái 6020
ng 6015
Sten@@ 6014
đúc 6014
phế 6011
Mat@@ 6008
Müll 6007
chẽ 6004
06 6003
Missouri 5995
tật 5992
2022 5991
can@@ 5991
cạn 5984
Lam 5983
tii 5980
ệt 5980
Giá 5976
Cương 5973
Bối 5971
me 5965
Me 5963
xóm 5962
âu 5962
1906 5960
ell@@ 5960
gói 5955
Man 5954
Ac@@ 5953
leo 5953
ou 5952
1928 5949
bu@@ 5943
So@@ 5938
buồn 5935
urus 5931
son@@ 5930
Micro@@ 5926
F. 5923
Her@@ 5917
táng 5910
phun 5902
mảng 5898
orum 5893
Ki@@ 5890
ima 5890
iz@@ 5886
ồn 5886
ke 5885
ere 5878
Baker 5873
Venezuela 5871
ran@@ 5871
Australia 5866
Bulbophyllum 5864
cer@@ 5863
Hướng 5853
nhắm 5849
ly@@ 5847
6.@@ 5846
02 5843
sừng 5839
dẹp 5831
hoãn 5831
andra 5817
Tinh 5816
quái 5815
Tin 5812
eria 5810
Mc@@ 5809
Nẵng 5805
ifolia 5802
DNA 5798
formis 5795
Cói 5792
Mật 5789
Chấp 5788
mừng 5788
hứa 5784
Olympic 5781
chuông 5781
Ân 5781
Tú 5778
Bố 5776
ja 5775
ế 5774
trinh 5773
De 5766
giỏi 5765
nhựa 5764
Nho 5760
Super 5757
chào 5756
cống 5756
za 5756
il 5755
ox@@ 5753
ji 5752
osum 5743
Hol@@ 5739
nợ 5738
Mở 5737
Simon 5737
oh@@ 5732
tor@@ 5731
cr@@ 5727
khía 5727
Microsoft 5725
túi 5721
Thiền 5719
Mary 5710
tan@@ 5710
nhì 5709
ft 5706
E.@@ 5702
ân 5702
56 5697
đỗ 5695
đói 5692
My 5691
Đỏ 5690
com@@ 5688
hạc 5687
Lệ 5686
Mãn 5686
bữa 5684
Guinea 5683
Str@@ 5677
Angeles 5675
Re@@ 5675
quét 5675
id 5674
aki 5673
Thục 5670
Apidae 5668
Ak@@ 5664
Điểm 5659
Sáng 5658
Ly@@ 5655
atr@@ 5651
ant@@ 5649
đâu 5646
58 5633
1926 5629
Lỗ 5625
bốc 5619
acid 5618
thô 5618
ơn 5616
Salticidae 5614
phấn 5614
pi@@ 5610
mùi 5609
Kur@@ 5608
lừa 5607
Est 5606
gạo 5603
Thất 5599
ài 5595
1909 5592
Trân 5588
ro 5586
F.@@ 5584
1921 5583
Chiều 5583
aj@@ 5580
Hot 5578
Tak@@ 5578
Tín 5574
trâu 5568
land 5563
mỏng 5561
ầy 5550
thỉnh 5548
Santa 5547
Thịnh 5545
04 5543
aph@@ 5540
1895 5537
85 5537
ền 5535
07 5533
bây 5532
anensis 5531
Khai 5530
Quỳnh 5529
è 5527
Sp@@ 5526
09 5522
sọc 5519
Cấp 5511
ặc 5511
súc 5510
Cụm 5502
har@@ 5502
0@@ 5499
hằng 5498
Can@@ 5496
T. 5494
sốt 5492
Chile 5491
cúp 5491
Seoul 5490
Francisco 5488
ym@@ 5488
der@@ 5486
La@@ 5484
Qua 5484
1915 5483
Hitler 5483
Florida 5482
Eu@@ 5478
57 5475
ator 5474
thôi 5474
nhọn 5473
03 5472
all@@ 5471
Cam 5470
ius 5465
Be@@ 5461
m. 5461
be@@ 5459
ev@@ 5459
hẹn 5458
pa 5454
tốn 5454
Thi@@ 5450
kiên 5448
ila 5447
Khí 5445
đòn 5444
Division 5443
Nguyệt 5443
rạp 5443
Thay 5441
lin@@ 5441
tỏa 5441
Serbia 5440
Si@@ 5439
Lư 5438
chục 5435
Trạch 5434
phiến 5432
rạn 5432
Tối 5429
tràn 5428
08 5424
dội 5423
Du@@ 5421
Kan@@ 5420
enia 5418
95 5417
lõi 5415
nồng 5411
ật 5410
Quỹ 5409
600 5407
San@@ 5404
Loại 5403
Ottoman 5400
bông 5399
j 5399
Mười 5398
Virginia 5398
ellus 5397
Ur@@ 5395
nia 5376
Football 5374
illa 5368
ói 5368
òng 5366
R. 5360
vịt 5355
Champions 5349
hẳn 5345
Bạc 5344
Mark 5344
Dr@@ 5343
phổi 5340
hy@@ 5338
lão 5338
ruộng 5338
Xuất 5337
dốc 5335
inae 5330
ane 5329
Thi 5327
ent@@ 5326
mìn 5325
xích 5319
Sải 5318
Mẫu 5316
túc 5314
Nhờ 5313
20@@ 5312
trượt 5307
ros@@ 5302
mu@@ 5301
duệ 5299
luân 5299
Roma 5293
mòn 5293
ra@@ 5290
Google 5284
gọn 5284
khẩn 5284
mạo 5281
Ab@@ 5279
nút 5279
om 5276
Dũng 5275
Khmer 5274
7.@@ 5269
liều 5268
me@@ 5264
Đời 5262
Hir@@ 5257
ev 5257
alia 5255
nig@@ 5251
odon 5247
Lang 5246
Lâu 5245
str@@ 5244
ok@@ 5243
sii 5242
ên 5240
Bulgaria 5236
Thăng 5236
xướng 5234
FIFA 5233
for@@ 5233
tar@@ 5232
alli 5226
esia 5222
Armenia 5220
Vi 5216
Kiều 5208
Astragalus 5207
ắt 5204
Diego 5202
Disney 5200
Fr@@ 5200
România 5200
Sang 5196
Hawaii 5194
Kiểm 5193
are 5193
Căn 5190
huống 5190
1@@ 5189
ib@@ 5189
Ad@@ 5187
tho@@ 5186
800 5185
Heter@@ 5184
Đĩa 5182
Lu@@ 5181
xi@@ 5178
đứt 5178
Khải 5175
Pter@@ 5175
àm 5175
ax@@ 5171
ối 5169
Karl 5168
cối 5168
dis@@ 5168
rồng 5167
# 5164
vời 5163
Gu@@ 5148
Oscar 5146
Ter@@ 5146
mờ 5146
poly@@ 5146
Don 5144
hưng 5143
lạm 5143
Mạng 5138
Trò 5136
mal@@ 5136
béo 5135
1903 5132
Binh 5131
ạc 5130
COVID 5129
Tăng 5128
ili@@ 5128
bội 5127
Vi@@ 5125
ăm 5124
ách 5122
oa 5121
Hổ 5118
Cử 5117
Tùy 5116
dắt 5114
Viết 5106
long@@ 5102
North 5099
duyên 5099
folium 5097
te 5096
Alexander 5090
Ruồi 5090
1904 5087
móng 5084
Sel@@ 5083
Khởi 5077
cậy 5076
radar 5075
Plat@@ 5072
Núi 5068
Dryopteridaceae 5067
quỳ 5067
gr@@ 5065
Black 5064
ud@@ 5063
eh@@ 5060
làn 5059
sus 5056
ok 5051
lũy 5050
Wisconsin 5043
Kiên 5039
Met@@ 5038
lũ 5037
Des@@ 5034
nộp 5032
Cu@@ 5030
63 5029
ill@@ 5029
Bến 5027
Gmina 5027
Van 5024
1907 5022
khuyết 5022
Phố 5021
Khê 5019
hoại 5018
Nintendo 5017
vải 5017
ela 5016
ạ 5016
62 5014
chuyền 5013
ủ 5007
VI 5005
Lần 5003
dê 5003
ắc 5002
gương 5001
Victoria 5000
Not@@ 4999
tản 4996
Ứng 4996
1898 4992
ler 4984
Vàng 4980
Trình 4975
Chế 4973
Polypodiaceae 4973
mốc 4971
Làng 4968
Tỷ 4968
hãm 4968
yst@@ 4968
ngẫu 4962
Thẩm 4961
sp@@ 4959
af@@ 4957
berg 4956
Doanh 4952
Hem@@ 4952
G. 4948
tím 4948
Hu@@ 4944
Peru 4944
ma@@ 4944
ot 4944
Harry 4943
International 4928
mâu 4926
1000 4923
Tuyến 4922
anth@@ 4917
ase 4914
iana 4909
1.000 4908
uta 4904
giấu 4898
1897 4897
b. 4894
dính 4894
Nigeria 4891
tiệc 4891
q 4890
It 4889
K. 4889
ter 4886
ali@@ 4885
W. 4883
59,5 4882
1899 4880
1902 4877
múa 4877
nhiếp 4871
At@@ 4869
rô 4868
Madrid 4867
120 4862
Min@@ 4861
Serie 4861
đà 4861
min@@ 4860
Elizabeth 4859
Kho@@ 4850
cúng 4850
Ros@@ 4849
Aquitaine 4847
Linyphiidae 4845
trừng 4842
Trí 4841
ngai 4841
Trấn 4839
túy 4834
Val@@ 4833
12@@ 4832
ner 4830
ừng 4830
eum 4829
ngón 4829
yl 4827
nghịch 4826
lưỡi 4823
Quách 4816
Tả 4813
Bách 4806
iv@@ 4805
Mạnh 4804
tê 4804
CD 4802
vay 4801
Hor@@ 4799
mer@@ 4794
Ecuador 4793
Phùng 4790
bến 4785
Bảy 4783
kiệt 4783
Xa 4781
mù 4781
Premier 4779
Đồ 4778
61 4777
66 4777
Chùa 4777
ầm 4775
off 4774
Air 4769
Por@@ 4766
1896 4765
Tháo 4765
ville 4763
Go@@ 4756
ôm 4754
Quán 4753
ard 4753
Tour 4751
ow@@ 4745
Hoằng 4744
mầm 4744
Bát 4743
úp 4743
tùng 4737
se 4735
ướt 4734
76 4733
Cas@@ 4733
mỡ 4732
dr@@ 4731
guitar 4731
đâm 4730
Bão 4729
khỉ 4728
Carl 4726
* 4721
Hung 4719
icola 4719
ophyllum 4718
Giả 4717
eri@@ 4717
kĩ 4713
den 4712
tơ 4709
Milan 4707
phy@@ 4707
ta@@ 4707
ulus 4707
Nói 4706
Sam@@ 4705
ge@@ 4703
Tai 4702
chiêu 4699
Lincoln 4696
Chất 4692
K.@@ 4689
Hỏa 4685
bor@@ 4684
Chelsea 4682
ver@@ 4680
Cap@@ 4678
Kor@@ 4674
1901 4672
Chợ 4669
lầy 4665
hối 4663
Bởi 4657
Tur@@ 4655
ful@@ 4654
pl@@ 4654
Tưởng 4652
ngừa 4652
ed 4650
acea 4648
Poly@@ 4647
B.@@ 4646
Bốn 4645
rào 4645
Hal@@ 4643
Records 4640
lây 4638
DC 4637
68 4636
~ 4635
viếng 4633
59 4631
Ta@@ 4631
bur@@ 4629
Vận 4627
Ga 4624
Os@@ 4620
Đạt 4620
Johnson 4619
uli@@ 4616
ech@@ 4615
fer@@ 4614
Đốc 4612
Mộ 4606
Xem 4605
lườn 4602
nhậm 4601
chốt 4598
ẻ 4597
Red 4588
io 4588
In 4587
olo@@ 4586
und@@ 4584
nghiêng 4583
nhạy 4582
thở 4579
Bán 4578
dũng 4577
ngộ 4577
êm 4577
Diệp 4576
Onthophagus 4574
hảo 4573
chừng 4567
8.@@ 4565
1894 4563
3,@@ 4559
Kal@@ 4559
Kr@@ 4559
Chlor@@ 4557
Biểu 4552
trật 4552
77 4551
đạp 4549
Arkansas 4548
od 4547
Vật 4545
micro@@ 4543
To@@ 4541
ann@@ 4541
with 4539
aris 4538
Com@@ 4537
trăng 4536
bù 4535
òi 4534
67 4533
miếu 4533
DVD 4532
re 4532
rễ 4530
Gor@@ 4525
Town 4525
bớt 4523
Stalin 4520
cus 4516
xá 4509
88 4508
đắc 4507
Cl@@ 4506
ite 4505
otus 4503
tấu 4501
DC. 4497
men@@ 4496
nhi 4496
rác 4494
amp@@ 4493
cuồng 4490
Mur@@ 4486
ì 4486
dii 4485
tị 4484
Đề 4483
Michigan 4480
Italia 4479
Occitanie 4479
Ba@@ 4477
cho@@ 4477
sói 4476
Mah@@ 4473
khớp 4471
Chuẩn 4469
ers 4469
Tuổi 4464
9.@@ 4463
Frank 4461
Lạt 4460
So 4460
Hạng 4458
sen 4456
don@@ 4455
Kam@@ 4453
fus@@ 4453
Liverpool 4450
Game 4447
trich@@ 4445
ve 4443
thỏ 4441
Rhône 4440
69 4437
Đánh 4435
SS 4434
gốm 4426
Khối 4422
oni@@ 4416
Nobel 4414
phyllum 4411
sút 4410
triệt 4410
Độc 4410
Del@@ 4409
mor@@ 4408
móc 4407
Dor@@ 4403
ếm 4402
Euphorbia 4400
cin@@ 4399
rửa 4399
tum 4399
Túc 4398
Tiết 4397
Tri 4397
arg@@ 4396
tảo 4396
bát 4394
of@@ 4394
eni 4392
Huỳnh 4390
gạch 4390
Cấu 4389
mặn 4389
đắp 4389
đeo 4388
hôi 4386
ori 4385
250 4383
Mậu 4383
Taylor 4381
trà 4381
ọc 4379
lis 4377
mũ 4377
1,5 4375
15@@ 4371
mel@@ 4371
name 4370
Bác 4369
Ka@@ 4369
YouTube 4369
Croatia 4360
Mad@@ 4358
Sol@@ 4357
gen@@ 4357
Ste@@ 4356
Z 4356
Đền 4354
yg@@ 4353
Tom@@ 4351
Cỏ 4348
Pan@@ 4348
dạ 4346
pan@@ 4346
gấu 4345
osia 4343
vạch 4343
FA 4342
optera 4342
phus 4339
ali 4329
Sa@@ 4328
ā@@ 4328
Giữa 4327
ago 4325
yo@@ 4324
Meg@@ 4321
ani@@ 4321
Mường 4319
ug@@ 4318
khói 4317
yan@@ 4317
Nouvelle 4315
Ru@@ 4315
Năng 4311
1889 4308
Gần 4307
cài 4306
Phản 4305
82 4295
1890 4294
Sin@@ 4293
cóc 4293
xen 4293
bàng 4289
Eri@@ 4285
amb@@ 4284
àng 4284
13@@ 4276
Lĩnh 4274
thơm 4271
Men@@ 4261
Đen 4260
73 4259
Columbia 4256
ip@@ 4256
lùi 4256
Myr@@ 4254
pennis 4254
Times 4253
ản 4253
99 4252
rẽ 4252
Bàn 4250
ova 4248
Real 4247
đãi 4247
giáng 4246
74 4244
gh@@ 4243
Bu@@ 4242
her@@ 4241
ú 4241
ichi 4236
71 4235
ophora 4235
American 4233
Gar@@ 4233
quỷ 4232
unc@@ 4231
J 4226
No@@ 4226
Jack 4225
sel@@ 4225
Mus@@ 4223
Slovakia 4222
omyia 4219
oz@@ 4219
vượng 4218
ł@@ 4215
eng 4214
thùy 4214
My@@ 4212
aka 4210
q@@ 4210
bách 4207
Càn 4206
ham 4206
iss@@ 4206
est@@ 4205
Star 4202
ac 4201
vân 4200
ito 4197
ện 4197
ngụ 4194
if@@ 4192
Lã 4188
Pháo 4188
Bol@@ 4178
79 4170
Bre@@ 4170
Halictidae 4167
86 4166
vẹn 4162
Jones 4161
Mes@@ 4159
tre 4159
awa 4158
Apple 4157
khánh 4157
ứa 4155
Thích 4154
Ham@@ 4153
Lam@@ 4149
ngọc 4149
HMS 4148
giật 4147
bó 4145
Cos@@ 4143
esi 4141
cur@@ 4140
Carex 4138
nảy 4138
wa 4137
xít 4136
Khả 4135
W 4134
muộn 4134
trôi 4132
700 4131
3D 4128
cia 4125
ằng 4123
Benth. 4122
QĐ 4121
Hãn 4120
Hiền 4119
Hãng 4119
tựu 4119
Lá 4117
Giáp 4116
ice 4116
Cường 4113
ez@@ 4113
tur@@ 4112
1885 4109
Albert 4109
châm 4109
olus 4109
He@@ 4107
arius 4104
opteris 4104
lụt 4101
78 4100
Latin 4100
pseud@@ 4099
84 4098
81 4097
nướng 4097
V. 4096
• 4095
Sri 4094
Tipulidae 4094
tráng 4091
Cố 4090
be 4090
Tom 4089
Nhơn 4084
asa 4083
tes 4083
sét 4080
hố 4079
− 4079
Phil@@ 4077
pin 4077
Ký 4076
chổi 4076
98 4072
Khu@@ 4072
sal@@ 4072
14@@ 4071
ạo 4071
sol@@ 4069
lar@@ 4068
series 4068
cuống 4064
Australasia 4059
Phụng 4058
Wilhelm 4058
aca 4058
khiêu 4058
ori@@ 4058
On@@ 4055
Megachilidae 4054
kép 4054
Ánh 4049
cap@@ 4046
end@@ 4046
Ry@@ 4043
Rad@@ 4041
eng@@ 4040
Gal@@ 4039
ularis 4039
sia 4035
vĩnh 4033
xoắn 4031
96 4030
Sc@@ 4030
hal@@ 4028
Dicranomyia 4027
chẩn 4026
Club 4024
UNESCO 4024
ẫn 4020
ites 4018
lati@@ 4018
Tích 4016
Big 4014
Java 4014
Cre@@ 4013
NĐ 4013
1878 4011
sẫm 4011
NGC 4010
Nag@@ 4010
23@@ 4008
đấy 4007
dec@@ 4006
vắng 4004
antha 4002
5,@@ 4001
Williams 3999
Bắt 3998
á@@ 3991
Xá 3990
Lời 3987
don 3987
Cai 3986
Màu 3980
Q 3979
Sy@@ 3975
ash@@ 3975
Bóng 3973
mann 3970
Ha@@ 3968
pu@@ 3968
inc@@ 3965
eli 3960
heo 3959
Pseudo@@ 3958
por@@ 3958
ul 3958
Tro@@ 3957
ồ 3957
ty@@ 3955
én 3955
ộc 3954
Trụ 3952
ó 3952
Trump 3951
mắn 3948
sa@@ 3947
chém 3946
Awards 3945
Nhận 3944
melan@@ 3942
Lớn 3938
Mil@@ 3936
Cten@@ 3935
GDP 3934
Psychotria 3934
bit 3928
1870 3927
Cryp@@ 3927
Nhi 3926
rải 3926
thụy 3926
10.@@ 3925
táo 3924
not@@ 3920
ky 3917
Khương 3916
punc@@ 3916
Han@@ 3915
elli 3915
sôi 3914
khoán 3913
inia 3912
Pe@@ 3911
4,@@ 3910
bal@@ 3909
Congo 3907
Pil@@ 3906
cưỡng 3905
bin 3903
hãi 3903
Nar@@ 3902
chòm 3898
16@@ 3896
đệm 3896
Cle@@ 3894
hãy 3894
ă@@ 3891
Kiểu 3889
MTV 3888
Sor@@ 3887
dám 3887
Bourgogne 3886
Cat@@ 3886
ngưng 3886
tambon 3884
ho 3882
ngon 3882
chánh 3881
thoảng 3879
Măng 3878
sis 3877
giãn 3876
nén 3872
Ku@@ 3871
Nhị 3871
Hauts 3870
Ái 3869
ovich 3868
ớ 3868
Chăm 3867
Cánh 3867
ôi 3865
Calli@@ 3864
ột 3864
White 3863
Eugène 3862
loc@@ 3862
nhiễu 3862
Mag@@ 3860
tuệ 3858
Rock 3856
hạch 3855
les 3855
una 3852
chua 3851
pin@@ 3849
ous 3848
Hyp@@ 3845
quế 3845
10.000 3844
phora 3844
thâm 3844
Ke@@ 3842
eph@@ 3839
sin@@ 3839
Hi@@ 3838
Molophilus 3837
Ngôn 3837
otis 3835
quên 3834
ụ 3834
hoạn 3833
Lep@@ 3830
Marie 3830
lứa 3830
onii 3830
ir 3827
cẩn 3826
sk 3826
cười 3825
kii 3825
Do@@ 3823
Ol@@ 3822
Young 3821
Nơi 3819
chướng 3815
Giáng 3814
Sáu 3813
Ap@@ 3812
trộm 3809
bám 3807
thus 3807
Xiêm 3806
gãy 3806
Ri@@ 3804
sil@@ 3803
xoáy 3803
Anth@@ 3802
ình 3799
quãng 3798
rom@@ 3796
Rio 3795
Time 3791
TP 3789
Rôma 3788
vòm 3787
Sm. 3784
adi@@ 3782
Kat@@ 3780
ung@@ 3780
Brown 3778
Vol@@ 3778
83 3777
7,@@ 3776
Chú 3774
Normandie 3773
ven@@ 3773
ocarpus 3771
Macedonia 3769
Dic@@ 3768
thự 3768
cel@@ 3767
ngục 3766
ce 3765
Xích 3761
87 3760
Arthur 3760
Pic 3760
Ước 3759
91 3757
Haute 3752
say 3752
ey@@ 3751
nhũng 3751
2.000 3750
trội 3750
Moore 3748
lặng 3748
bic@@ 3747
cuộn 3746
mộc 3746
hàn 3745
Tạp 3743
Liệt 3742
Quế 3742
khử 3742
Pa@@ 3741
feet 3741
tắm 3740
ista 3739
áy 3739
Prot@@ 3738
Phượng 3737
Hel@@ 3730
lộn 3729
uma 3729
tera 3728
xấp 3728
Đắk 3727
1893 3725
ab 3724
MiG 3723
rìa 3723
Diệm 3722
lum 3721
Pierre 3720
oria 3720
ub@@ 3719
otes 3715
ván 3714
ato 3712
Pomeranian 3711
ềm 3708
Mak@@ 3707
Na@@ 3707
Un@@ 3705
khe 3705
ornis 3704
Costa 3703
Carolina 3702
Cáp 3700
93 3698
Algérie 3698
Nhiệm 3698
ĩ 3698
Hộ 3696
1859 3695
Kon@@ 3694
Panama 3694
pro@@ 3690
ler@@ 3688
he@@ 3683
ore 3683
asi@@ 3682
nhấm 3681
rùa 3681
Ảnh 3680
ha@@ 3679
Scott 3677
Vĩ 3676
rẻ 3675
bl@@ 3674
eli@@ 3674
sk@@ 3674
thùng 3673
Voivodeship 3672
ành 3671
ton@@ 3670
óng 3669
ilis 3667
Euro 3666
Miến 3666
bệ 3665
vir@@ 3665
Les@@ 3664
lí 3664
xo@@ 3663
Chicago 3661
ticus 3660
Tiệp 3656
Cửa 3653
tôm 3653
1882 3652
ảng 3650
den@@ 3647
lữ 3646
Chó 3645
Đã 3643
pil@@ 3641
Pel@@ 3639
Der@@ 3638
ut 3637
1886 3636
2,5 3636
97 3633
Miền 3633
VII 3633
Ta 3632
bìa 3632
ai@@ 3631
miếng 3631
ửa 3631
phylla 3630
Ay@@ 3629
Chức 3629
macro@@ 3629
Lim@@ 3626
Thức 3625
khoang 3625
São 3624
bas@@ 3624
Boston 3623
92 3621
Nhiệt 3620
củ 3619
6,@@ 3617
lường 3617
Lanka 3615
ese 3614
Wilson 3613
NQ 3612
icornis 3611
yo 3611
Julius 3610
kar@@ 3610
carbon 3609
giặc 3609
ray 3605
ngạc 3604
Daniel 3603
xi 3603
Mol@@ 3600
phụng 3599
uk@@ 3599
Chữ 3598
tụng 3597
Vây 3595
cốc 3595
fur@@ 3595
Char@@ 3593
Schltr. 3592
Syn@@ 3591
san@@ 3591
ngột 3590
Indiana 3588
Kenya 3586
Walter 3585
ee 3582
lấn 3582
ō@@ 3582
1880 3581
bre@@ 3581
Ung 3579
Xưởng 3578
Comté 3577
ốm 3577
ger@@ 3576
Mua 3575
kem 3575
ten 3574
buồng 3573
Franche 3572
Ca@@ 3570
ạch 3567
1875 3566
1888 3565
5.000 3564
ens@@ 3563
30@@ 3562
Sóc 3562
bổng 3560
solo 3560
apur 3559
Show 3558
Vai 3558
ich 3557
ắn 3555
All 3553
nho 3552
Acanth@@ 3551
Eupithecia 3549
ỗi 3548
Bas@@ 3547
rủi 3544
Napoléon 3541
1860 3540
Lại 3539
kho@@ 3539
Live 3533
gũi 3531
viền 3531
vươn 3530
Côn 3522
hái 3521
thuỷ 3521
National 3520
Kháng 3519
1871 3518
Night 3517
thổi 3517
Cư 3515
etes 3514
Hollywood 3513
ẩy 3513
quật 3511
vôi 3510
Uganda 3506
lùn 3506
Tan@@ 3504
isa 3504
ke@@ 3502
Nai 3501
inn@@ 3500
XIX 3496
Tầm 3495
đày 3495
ile 3493
ngô 3491
Az@@ 3490
Kiệt 3489
ass@@ 3489
iko 3487
MV 3484
Mic@@ 3484
Mẫn 3484
Pottiaceae 3483
khoan 3483
Wal@@ 3482
89 3481
Anne 3481
Tranh 3479
thiền 3478
Sz@@ 3475
mia 3475
Av@@ 3474
dệt 3472
Il@@ 3470
up@@ 3470
BBC 3468
Hill 3463
Hoà 3462
1879 3460
bùn 3460
Cậu 3457
Thác 3456
onidae 3456
Cuốn 3455
Đổng 3455
nát 3454
val@@ 3454
Lạng 3453
chặng 3453
24@@ 3452
Khách 3452
Tới 3451
Lasioglossum 3450
Bos@@ 3448
thắt 3448
bưu 3446
Li 3445
elle 3443
chlor@@ 3441
dâu 3438
ần 3438
Khác 3437
giấc 3436
Barcelona 3435
Group 3433
oba 3433
Sùng 3432
Hằng 3431
Cockerell 3429
aga 3428
Media 3427
mas@@ 3423
Uỷ 3419
electron 3419
ơi 3419
For@@ 3417
Miêu 3417
rot@@ 3416
Broth. 3415
longi@@ 3414
XX 3413
sten@@ 3413
Trì 3412
hiếp 3411
eu@@ 3410
Phu 3408
lê 3408
Sem@@ 3406
zi@@ 3405
Ben@@ 3404
ập 3404
bếp 3402
Okinawa 3400
ngòi 3400
Vấn 3399
Bon@@ 3398
Bao 3397
ski 3397
ny@@ 3395
ren@@ 3392
ặt 3390
ầu 3387
Far@@ 3386
anti@@ 3386
pel@@ 3384
Castile 3383
vảy 3381
ko@@ 3379
aen@@ 3377
Bái 3376
Shin@@ 3376
Grammy 3375
ish@@ 3374
à@@ 3374
cắn 3372
fr@@ 3372
hiếu 3370
đính 3369
cáp 3368
dae 3368
1887 3366
anga 3366
1883 3365
Asplenium 3363
đụng 3363
Cốc 3362
dor@@ 3362
1892 3359
ge 3357
Ban@@ 3356
ốn 3356
Anna 3354
ghét 3354
Trực 3353
Tám 3353
Chim 3352
giày 3351
l. 3350
1869 3349
Khổng 3349
ny 3348
Tượng 3346
ỉnh 3345
Airlines 3344
1873 3343
Bức 3341
Ang@@ 3340
tidae 3340
1884 3339
êng 3337
CLB 3336
kiệm 3336
Dal@@ 3335
ye 3335
ảm 3335
bắp 3334
Wang 3333
26@@ 3332
lấp 3332
Dụ 3330
Go 3330
Games 3327
sor@@ 3327
Perry 3325
hydro 3325
asia 3323
del@@ 3323
ới 3323
Warsaw 3321
nốt 3318
quà 3318
Blue 3316
tràng 3316
Khẩu 3314
ophylla 3314
ry@@ 3314
N. 3311
Ngựa 3311
Rắn 3311
piano 3310
vel@@ 3310
tom@@ 3309
bul@@ 3308
Thung 3304
94 3303
EP 3303
Lộ 3303
ờ 3303
Arsenal 3300
eti@@ 3300
dong 3299
miện 3298
3.000 3297
130 3296
Lept@@ 3295
Đàm 3294
25@@ 3293
Boeing 3293
‘ 3291
khóc 3287
Cựu 3286
Crypto@@ 3284
Hydro@@ 3284
emia 3284
uni@@ 3284
8,@@ 3283
hụt 3281
iki 3281
Pas@@ 3279
Triết 3279
iy@@ 3278
Em 3277
cơm 3277
Bích 3276
Oc@@ 3276
ik 3276
Ôn 3276
1866 3275
Khâm 3275
PC 3274
èn 3274
Ngược 3272
Cambridge 3271
Myanmar 3271
27@@ 3270
vắc 3269
Pap@@ 3266
ãi 3265
tú 3261
cưỡi 3260
ẫm 3260
17@@ 3258
Diệu 3258
Cận 3257
from 3257
Max 3255
n. 3255
buýt 3251
Xây 3250
Dơi 3248
ika 3248
1864 3247
ap 3246
ộn 3246
ign@@ 3245
Uyên 3242
Xe 3242
cat@@ 3240
cy@@ 3239
sắm 3239
ust@@ 3239
Kir@@ 3236
lam@@ 3236
Chu@@ 3235
1877 3233
soni 3233
Belarus 3232
Es@@ 3231
cành 3231
nhẵn 3231
Bat@@ 3229
Christian 3228
Lớp 3228
rh@@ 3228
đắm 3227
1876 3222
chéo 3222
Dar@@ 3219
Palestine 3219
nus 3219
aer@@ 3217
1838 3216
Giác 3216
trùm 3214
pul@@ 3213
lac@@ 3212
nom@@ 3212
11.@@ 3210
Băng 3210
110 3208
Chiêm 3206
bo 3205
Araceae 3204
cua 3202
icollis 3200
ff@@ 3199
1861 3198
9,@@ 3197
Ker@@ 3195
War@@ 3195
ard@@ 3193
ts@@ 3193
900 3192
otr@@ 3191
pol@@ 3191
cắm 3188
vách 3186
INE 3185
Hal 3184
ster@@ 3184
cắp 3182
Da@@ 3181
Massachusetts 3180
tẩy 3180
zi 3180
Tu@@ 3179
tel@@ 3179
Đêm 3179
anc@@ 3178
Thạc 3176
Sim@@ 3175
amo@@ 3173
US 3172
Acacia 3170
ếu 3169
v.v. 3167
ặng 3167
Model 3166
Ráy 3166
ực 3166
1867 3165
Dicran@@ 3165
nhẫn 3164
ele 3163
Dược 3162
Wil@@ 3162
ocera 3161
kov 3160
alum 3159
luồng 3157
mer 3156
Sen@@ 3155
Island 3154
dại 3153
umi 3151
Bờ 3144
Championship 3144
UFO 3144
pen@@ 3144
hit 3143
1868 3141
29@@ 3141
uri 3140
Dựa 3139
VIII 3139
OS 3138
ẩu 3138
1881 3135
sen@@ 3135
ast@@ 3133
Lão 3130
lor@@ 3130
Sav@@ 3129
1874 3128
Chuyến 3128
ilia 3128
Juan 3125
tro@@ 3125
1863 3124
trọn 3124
Tạ 3123
los@@ 3123
opa 3123
ant 3122
spin@@ 3122
war@@ 3120
ach 3119
Gre@@ 3118
Gà 3118
age 3118
Dầu 3116
ze@@ 3116
Ple@@ 3113
Madagascar 3111
kilômét 3111
lặn 3111
ca@@ 3110
Nhìn 3108
ker@@ 3108
Dol@@ 3107
Liễu 3107
fl@@ 3107
lep@@ 3106
Tanzania 3105
bus 3105
gal@@ 3105
O.@@ 3104
Ram@@ 3104
ales 3103
ỏi 3103
Camp@@ 3102
thiêng 3102
Dis@@ 3099
gác 3099
pic@@ 3097
leuc@@ 3096
Hiển 3094
ette 3093
neo 3093
bóc 3090
Begonia 3089
mập 3089
Mọi 3086
bel@@ 3086
kiềm 3086
Thuần 3085
Ul@@ 3085
sonii 3085
mồ 3084
tig@@ 3084
Trắng 3081
etta 3081
Ngãi 3080
tiễn 3079
XIII 3078
opera 3078
Đàn 3077
Kas@@ 3076
Kuntze 3076
Ty@@ 3076
Rh@@ 3075
Nem@@ 3074
180 3072
Nepal 3072
gối 3072
Dom@@ 3067
nắng 3067
ắp 3066
Araneidae 3061
Khan 3061
Senecio 3061
tis@@ 3061
Jordan 3060
ủa 3060
Marshall 3056
Var@@ 3056
vil@@ 3055
Sur@@ 3053
isti@@ 3053
phiêu 3052
Pomerania 3050
Kong 3048
Leuc@@ 3048
š@@ 3048
Khái 3044
nhiêu 3043
Hal. 3039
chúc 3037
tour 3037
Life 3036
cul@@ 3034
Ghana 3032
hir@@ 3032
Pl@@ 3031
iro 3031
Megachile 3029
iri 3029
chèo 3028
tồi 3027
Pod@@ 3026
1850 3023
Ox@@ 3023
đắt 3022
pe 3017
lat@@ 3016
Sudan 3013
sem@@ 3013
Samsung 3012
oto 3012
Albania 3011
Tel@@ 3009
ỏ 3009
nhường 3007
ậy 3004
alus 3002
CN 3001
vội 3001
Heli@@ 2999
gi 2999
ngài 2999
Andrena 2997
Austr@@ 2997
Ngài 2997
etus 2996
í@@ 2995
Nền 2994
ến 2994
ợ 2992
Centr@@ 2991
Vel@@ 2991
tro 2991
Gen@@ 2990
dis 2990
the@@ 2989
Gioan 2988
hận 2988
Hom@@ 2987
José 2986
khát 2986
Arc@@ 2984
Green 2984
Royal 2983
lin 2983
ind@@ 2980
Liêm 2979
Cụ 2973
pogon 2973
bầy 2972
nghiện 2972
ùng 2971
kin 2969
Ach@@ 2966
Kênh 2966
Lãng 2966
1862 2964
Yang 2964
des@@ 2964
Diện 2960
Hòn 2960
opo@@ 2958
Hassan 2956
ễ 2955
Bay 2954
Mik@@ 2953
ford 2953
28@@ 2952
Lit@@ 2952
Sphaer@@ 2952
ếp 2952
1865 2950
Hong 2945
etia 2944
Lac@@ 2943
Tịnh 2943
đê 2940
Tuyết 2937
èo 2937
Chrys@@ 2934
Rose 2933
ượt 2933
Nghiệp 2932
anthes 2932
ati 2932
quạt 2930
chì 2929
xà 2929
Ra 2927
Eur@@ 2926
Hos@@ 2926
Cốt 2924
Niên 2924
abr@@ 2924
all 2924
León 2923
mag@@ 2922
Riêng 2920
Davis 2919
AS@@ 2918
Vin@@ 2917
mes@@ 2917
pa@@ 2915
East 2914
Romania 2914
ưng 2914
adi 2911
101 2910
Auvergne 2910
F.C. 2910
Sam 2910
Thuốc 2910
100.000 2909
Da 2906
Sak@@ 2906
Thelypteridaceae 2906
end 2906
ther@@ 2905
Lepto@@ 2904
Chris 2902
Doãn 2902
Val 2902
1.0@@ 2901
1858 2901
Ky@@ 2901
Sw@@ 2900
Tết 2900
cl@@ 2898
hor@@ 2898
khuất 2898
tiếc 2898
ylus 2898
khu@@ 2896
Bou@@ 2895
idea 2895
kin@@ 2895
raion 2895
Xê 2893
1848 2892
Ali 2892
ngơi 2892
omys 2892
sti@@ 2892
trướng 2890
Pyr@@ 2889
Andrenidae 2886
ini@@ 2886
12.@@ 2883
Stone 2882
0.000 2881
Su 2881
Mi 2880
lụa 2880
Pav@@ 2878
Síp 2878
Meloidae 2877
Hieracium 2876
1840 2875
Sab@@ 2875
Chứng 2874
Mim@@ 2874
ãn 2874
nghiệt 2873
sọ 2873
Mis@@ 2872
Chuyển 2868
Day 2868
go 2867
pula 2867
é@@ 2866
ội 2866
met@@ 2864
eur@@ 2863
leri 2861
pur 2859
Ir@@ 2857
Litva 2857
khuynh 2856
Dryopteris 2855
AC 2854
khoai 2853
anica 2852
bẫy 2852
ett 2852
uốn 2852
ãng 2852
hươu 2850
Biến 2846
tể 2846
Sony 2844
mộng 2844
Lake 2842
Lewis 2842
arc@@ 2842
gii 2841
Norfolk 2840
Ethiopia 2836
rậm 2836
Puerto 2834
dĩ 2834
inum 2834
ui 2832
đằng 2832
Little 2831
chuộng 2831
natri 2830
Ep@@ 2829
Liga 2829
hiền 2829
phia 2829
Dan@@ 2828
NATO 2828
phím 2828
Ober@@ 2826
show 2826
Gl@@ 2825
ce@@ 2825
han@@ 2825
Pin@@ 2824
Bag@@ 2823
rụng 2823
tenu@@ 2823
News 2822
play 2819
fan 2818
pos@@ 2815
Mir@@ 2814
bể 2814
ều 2814
Phaolô 2812
tóm 2811
Thêm 2810
láng 2809
Mul@@ 2808
ici@@ 2808
Hứa 2807
Vũng 2807
alensis 2805
mol@@ 2805
May@@ 2804
jo 2804
was 2802
Company 2801
Jo@@ 2801
kí 2800
thầu 2800
ẳng 2800
opter@@ 2799
1857 2798
yph@@ 2798
olejeunea 2796
dập 2794
aro 2793
sấu 2793
ze 2792
Út 2791
Luer 2788
Thúc 2783
1830 2782
Trúc 2782
Norman 2781
vin@@ 2780
Liban 2779
Mau 2779
Nes@@ 2778
XII 2778
Douglas 2775
Sydney 2775
gánh 2775
Fox 2774
my@@ 2774
Trùng 2773
Allen 2772
Georgia 2772
Tam@@ 2772
uk 2772
ś@@ 2771
dic@@ 2770
lei 2770
eps 2768
ts 2768
ốp 2768
köy 2767
Caribe 2766
mic@@ 2766
ằm 2766
Đi@@ 2764
rich@@ 2763
roi 2763
anahalli 2762
ễn 2762
ỗ 2762
ocephalus 2761
ín 2758
WWE 2757
opogon 2757
Dich@@ 2756
Miên 2756
eon 2756
Aeg@@ 2755
bộc 2755
IX 2752
Canh 2751
Oregon 2751
lội 2751
1854 2750
Nậm 2749
cula 2749
estr@@ 2749
gân 2748
lùng 2748
College 2747
chay 2747
Epidendrum 2746
kề 2745
uki 2744
Cam@@ 2743
Bromeliaceae 2742
Franklin 2742
ó@@ 2742
Tuân 2741
quyến 2741
Trác 2740
Mối 2739
Ten@@ 2739
field 2739
20.000 2738
CH@@ 2736
Mont@@ 2735
nhốt 2735
Nak@@ 2733
itz 2733
len@@ 2733
thuôn 2733
Cape 2732
ệ 2732
1836 2730
enta 2727
lắm 2727
xông 2727
đi@@ 2727
Can 2725
Đá 2725
Ludwig 2724
Hall 2723
Joe 2723
.-@@ 2722
Boy 2721
Mun@@ 2721
thói 2721
Bank 2719
Yến 2719
ngh@@ 2719
Kỵ 2717
Lin@@ 2717
đành 2717
thính 2716
chùm 2714
cre@@ 2714
ów 2714
đam 2714
Duyên 2713
Em@@ 2713
Orth@@ 2713
eti 2713
Ngh@@ 2712
Y.@@ 2712
Sức 2709
Thu@@ 2708
trán 2708
ênh 2708
Dư 2704
· 2704
eth@@ 2702
nắp 2702
XIV 2701
agus 2700
1849 2699
Bill 2699
Kol@@ 2699
Yêu 2697
ef@@ 2696
sương 2696
Chart 2695
yth@@ 2695
mép 2694
nếp 2694
America 2693
cas@@ 2692
yx 2692
khoác 2691
mis 2691
By@@ 2690
luyến 2690
Bl@@ 2688
Ath@@ 2687
Rất 2687
trưa 2687
đun 2687
ại 2687
Làm 2685
Thảo 2685
mến 2685
trơn 2684
Azerbaijan 2683
Biệt 2683
Sul@@ 2682
bính 2681
ỵ 2681
Lom@@ 2680
Moon 2680
Seine 2680
LGBT 2679
lãi 2679
Szczecin 2678
Bangladesh 2676
que 2676
sul@@ 2676
enn@@ 2675
N.@@ 2673
tin@@ 2673
Android 2671
ram@@ 2671
Pa 2670
Vài 2669
oe 2668
Pro 2667
pap@@ 2665
pat@@ 2665
1841 2664
ome 2664
Buổi 2663
Ngạn 2663
ngắm 2663
Ching 2662
sar@@ 2660
sy@@ 2660
bái 2659
1872 2658
ướp 2658
Nu@@ 2657
Tre@@ 2657
Ci@@ 2656
Dubai 2656
Toán 2655
fer 2654
ạng 2652
Dav@@ 2651
thiêu 2651
nhắn 2648
Carlos 2647
Xung 2647
dọn 2646
hước 2646
ngo@@ 2646
3,5 2645
ian 2645
Ny@@ 2643
1851 2642
Hắc 2642
Ec@@ 2640
Henri 2638
Maz@@ 2638
Nô 2638
f. 2638
rung 2638
rắc 2637
vic@@ 2637
Gò 2635
Hypnaceae 2632
Linux 2632
Ren@@ 2631
ami@@ 2631
mỏi 2631
ocer@@ 2631
osoma 2631
PlayStation 2630
cồn 2630
đếm 2630
Bengal 2629
Rhynch@@ 2629
ain@@ 2629
Trẻ 2628
Baltic 2626
Chuột 2626
Cir@@ 2626
Trại 2626
hãn 2626
Pradesh 2625
Facebook 2624
Nov@@ 2624
var@@ 2623
itis 2621
jo@@ 2621
0.@@ 2620
Euc@@ 2620
tal@@ 2620
zon@@ 2620
Jersey 2619
Shi@@ 2618
kẽ 2618
Kẻ 2616
1846 2615
I.@@ 2615
MC 2615
Pu@@ 2615
Mit@@ 2613
Ran@@ 2613
oli@@ 2612
160 2610
điên 2609
dừa 2607
ih@@ 2606
pho 2606
sùng 2606
Chẳng 2605
Đoạn 2605
oy@@ 2602
Corporation 2600
Pit@@ 2600
Pre@@ 2600
nung 2600
phơi 2598
thấu 2596
Vu 2595
lánh 2593
rệt 2593
Gặm 2592
Bầu 2591
truất 2591
Cyr@@ 2590
apo@@ 2590
Street 2589
top@@ 2587
Iceland 2585
rỗng 2584
tem@@ 2584
vol@@ 2584
Dys@@ 2582
Fer@@ 2582
nor@@ 2581
đèo 2581
Je@@ 2580
Win@@ 2580
ham@@ 2579
je@@ 2579
ọ 2579
140 2578
1753 2578
c. 2578
thủng 2578
jin 2577
nguyệt 2577
per 2577
úi 2577
chọc 2576
osaurus 2576
Adam 2575
Francis 2575
iner@@ 2575
nha 2574
rol@@ 2574
Chấn 2573
yna 2573
Bàng 2572
Mich@@ 2572
Pri@@ 2571
Rica 2571
ie@@ 2571
thưa 2571
UBND 2570
British 2569
Jan@@ 2569
cấy 2567
ure 2567
Om@@ 2565
ố 2565
dom@@ 2564
nai 2563
Polypodium 2562
aensis 2562
heter@@ 2560
Araneus 2559
han 2559
ger 2556
ừa 2556
Loph@@ 2555
Anderson 2554
gan@@ 2554
Mike 2553
opteryx 2553
Scopula 2552
ashi 2552
cacbon 2552
The@@ 2551
yum 2551
cos@@ 2550
iculata 2549
mổ 2549
won 2549
aba 2547
úng 2547
1844 2545
Dendrobium 2545
radio 2545
ans@@ 2543
Trạm 2542
ispa 2542
Jan 2541
ót 2540
ạm 2540
ề 2539
Andrew 2534
Kom@@ 2534
Marne 2534
sum 2534
Swift 2533
py@@ 2533
rãnh 2532
Arecaceae 2530
Team 2528
mệt 2528
ide 2527
Piper 2526
Sand@@ 2526
Sil@@ 2526
sủng 2526
thr@@ 2526
Che@@ 2525
giềng 2525
gán 2525
til@@ 2525
vu 2525
Tim@@ 2524
Bul@@ 2523
Philip 2523
gl@@ 2523
wal@@ 2522
Best 2521
Bri@@ 2521
ava 2521
1853 2520
Ghi 2520
pi 2520
1845 2519
Tràng 2519
báu 2518
toà 2518
350 2516
giường 2516
Giêsu 2515
Sắc 2515
St 2514
inensis 2514
ơ@@ 2514
nik 2512
quyên 2512
codice 2511
nic@@ 2510
Pedro 2508
mãnh 2508
xinh 2508
yểm 2507
Open 2506
ữa 2504
Bru@@ 2503
Pir@@ 2503
Thôi 2503
ũ 2503
County 2501
imus 2501
TV@@ 2500
hò 2498
obr@@ 2498
ợt 2498
Colletidae 2496
burg 2496
chai 2496
lea 2496
pis 2496
Gh@@ 2495
Rap@@ 2495
ber 2494
ilus 2493
ịch 2493
Pteridaceae 2492
Ra@@ 2492
astrum 2491
az 2491
kan@@ 2491
ngặt 2491
skie 2491
wood 2491
Đỉnh 2491
Antonio 2490
umb@@ 2490
ày 2490
Sachsen 2489
Sát 2489
đinh 2489
Kit@@ 2488
ostoma 2488
Pat@@ 2487
dối 2487
Kon 2486
aeus 2486
ghé 2486
len 2486
Ki 2485
Áp 2485
Alaska 2484
Sho@@ 2484
Otto 2483
ỡ 2483
Grande 2482
frons 2482
ển 2482
Hoan 2481
Och@@ 2480
khiếu 2480
Ngự 2479
onis 2478
Đi 2478
bơm 2477
idus 2477
Lepid@@ 2476
nồi 2475
single 2475
School 2473
Dev@@ 2472
Don@@ 2470
Thuyết 2470
khuếch 2470
CS 2468
gracilis 2468
coc@@ 2467
Lawrence 2466
Mach@@ 2466
Sun 2466
Croton 2465
Lenin 2464
multi@@ 2464
pseudo@@ 2464
XI 2463
chiết 2463
sim@@ 2463
nang 2462
4.000 2459
Cyclo@@ 2459
chiên 2459
ựa 2459
Philadelphia 2458
chu@@ 2458
Paulo 2457
ello 2457
Dur@@ 2456
Lycosidae 2455
ku@@ 2455
Khúc 2454
Dendro@@ 2453
Hypo@@ 2453
Studios 2453
hr@@ 2452
les@@ 2452
Frederick 2449
Lệnh 2449
đoan 2449
bol@@ 2447
enus 2447
Uruguay 2446
owski 2446
illo 2445
Nor@@ 2444
Adams 2438
Chiết 2438
Gruzia 2438
anthera 2438
Ō@@ 2438
cata 2437
Cel@@ 2436
Great 2436
dan@@ 2436
Bolivia 2435
Hạnh 2435
calci 2435
idi@@ 2435
trễ 2435
albi@@ 2434
ão 2434
Sơ 2433
he 2433
ron@@ 2433
Hamilton 2432
fera 2431
óm 2430
Chuyên 2429
oti@@ 2429
tạ 2429
Lan@@ 2428
ẹt 2428
avi@@ 2427
37@@ 2426
Lân 2426
Diêm 2425
Hạo 2425
illi@@ 2425
40@@ 2424
ess@@ 2424
Truyện 2423
ine@@ 2423
phyl@@ 2423
dius 2422
rực 2422
tol@@ 2421
Girls 2420
Lejeuneaceae 2419
olo 2418
Chik@@ 2417
Ukraine 2416
Nà 2415
Trở 2415
Rom@@ 2413
Stephen 2413
nhục 2413
Cờ 2412
pus 2412
Rico 2410
nhôm 2410
bos@@ 2409
tam@@ 2409
und 2409
Bạn 2408
Chil@@ 2408
lót 2408
hoành 2407
res@@ 2407
yon 2407
bat@@ 2406
oli 2406
Galaxy 2403
Gray 2403
Candèze 2402
huynh 2402
Bryaceae 2401
Lap@@ 2401
Mk 2401
aculata 2400
nhũ 2400
town 2400
Wimbledon 2398
icata 2396
pot@@ 2396
xả 2396
usia 2395
Mang@@ 2394
Mordellidae 2394
Som@@ 2394
Theridiidae 2394
ation 2394
folius 2394
xơ 2394
rổ 2392
Kazakhstan 2391
zo 2391
Ore@@ 2390
Tốc 2390
xăng 2390
ATP 2389
nhai 2389
fasciata 2386
Queensland 2385
mus 2385
onium 2384
Lind@@ 2383
Pokémon 2383
Mới 2382
ons 2382
v.v 2382
Queen 2381
RNA 2381
Rome 2381
Centre 2377
ater 2377
măng 2377
Bab@@ 2376
Bãi 2376
giang 2375
incta 2375
DD 2373
Triển 2372
lộc 2372
nhụi 2372
thoải 2371
enzyme 2370
.com 2369
dem@@ 2369
360 2368
pros@@ 2368
ọng 2367
Côte 2366
Dragon 2366
Marx 2364
ame 2364
elegans 2364
nứt 2363
tặc 2363
sty@@ 2362
roc@@ 2360
Lưỡng 2359
nh 2359
tạng 2359
taria 2358
Nam@@ 2357
hol@@ 2357
Š@@ 2356
hoài 2355
sin 2355
Cass@@ 2353
ion@@ 2353
Raj@@ 2352
We@@ 2352
Ash@@ 2351
Gymn@@ 2351
Stephani 2351
Thúy 2351
ráp 2351
Cerat@@ 2350
khiết 2350
pre@@ 2350
Đằng 2350
Vladimir 2349
opidae 2349
ủi 2349
Trưng 2347
ates 2347
hao 2347
ský 2347
syche 2347
agu@@ 2346
bach 2345
sur@@ 2345
yn 2345
ě@@ 2345
Rừng 2342
mil@@ 2341
ồi 2341
arm@@ 2340
ero 2340
loa 2340
Cur@@ 2339
Cop@@ 2338
din@@ 2338
Gol@@ 2337
v. 2337
AM 2335
Dy@@ 2333
House 2333
Libya 2333
Osaka 2333
Rick 2332
50@@ 2331
Kích 2331
cyan@@ 2331
khoá 2331
ây 2331
ony@@ 2330
Pot@@ 2329
Bob 2328
Newton 2328
rho@@ 2328
Kot@@ 2327
1856 2326
zia 2326
Mississippi 2325
XVI 2325
bận 2325
thề 2325
105 2324
Papua 2324
cớ 2324
inea 2324
Eugenia 2323
Ben 2322
Hook.f. 2322
Schmidt 2322
Theridion 2322
thạc 2322
ục 2322
gìn 2321
ử 2321
Idaea 2320
Tem@@ 2320
aus@@ 2319
Syzygium 2318
ellata 2318
ảy 2318
rỡ 2317
Gil@@ 2316
bồ 2315
ets 2315
rop@@ 2315
vectơ 2315
Xen@@ 2313
Anti@@ 2312
Union 2312
eton 2312
khéo 2312
Les 2311
khống 2310
vệt 2310
fal@@ 2308
vo@@ 2308
Melan@@ 2307
lượn 2307
osp@@ 2307
ole 2306
Kunth 2305
Pent@@ 2305
ấc 2305
Bột 2303
ent 2303
euro 2303
Cantharidae 2302
Pfalz 2302
Sung 2301
ole@@ 2301
vis@@ 2301
thon 2300
Tre 2299
xôi 2299
Muhammad 2298
amensis 2298
Duệ 2297
Nic@@ 2297
ath 2296
Mĩ 2295
Mồ 2295
Khuê 2294
mào 2294
Creek 2292
ker 2292
General 2291
k. 2291
lát 2291
ocy@@ 2291
vớt 2291
Rho@@ 2290
ngõ 2290
quadr@@ 2290
Slovenia 2289
Bad 2288
p. 2288
AFC 2287
Amph@@ 2287
Girl 2287
ines 2287
Sứ 2286
Mỏ 2285
ij@@ 2284
Gregory 2283
iensis 2283
36@@ 2281
Alfred 2280
odi@@ 2279
Bangkok 2278
Schl@@ 2278
omatidae 2278
Roger 2277
Solomon 2276
ary 2275
dịu 2275
bar 2274
Nghiêm 2273
bil@@ 2273
Malta 2272
On 2272
Sir@@ 2272
lựu 2272
pur@@ 2271
trù 2271
Series 2270
TH@@ 2270
Wood@@ 2270
chán 2270
nis 2270
Giờ 2269
Ngữ 2269
Ven@@ 2268
Jamaica 2266
orus 2266
Thomisidae 2265
ulosa 2265
ùi 2263
Kaz@@ 2262
ệm 2262
Amaryllidaceae 2261
Dec@@ 2261
Star@@ 2261
gar@@ 2261
khan 2261
nón 2261
ược 2261
website 2260
NS@@ 2259
kal@@ 2259
ngâm 2259
ún 2259
Coel@@ 2258
Nhan 2258
Asp@@ 2257
Kun@@ 2256
rể 2256
Dục 2255
Hed@@ 2255
Pom@@ 2254
tic 2252
Port 2251
SM 2251
Slam 2251
Súng 2250
hum@@ 2250
Bro@@ 2249
Cro@@ 2249
asis 2249
giun 2249
mg 2249
Bánh 2248
enes 2248
mini 2247
Dinh 2245
Wikipedia 2245
teri 2244
Lady 2243
1847 2241
anda 2239
cay 2239
ps 2239
uz@@ 2239
Tumkur 2238
EU 2237
quấy 2235
10,@@ 2234
Lũng 2234
Sultan 2234
Catherine 2233
aci@@ 2233
Tái 2232
kr@@ 2232
Bryum 2231
st 2231
Thật 2230
Acro@@ 2228
Alice 2228
Donald 2228
inata 2228
sốc 2228
Fre@@ 2227
Ford 2226
ST@@ 2225
ais 2225
nôn 2225
ocarpa 2225
xuôi 2225
č@@ 2225
Asteraceae 2224
HIV 2224
ngụy 2224
bicolor 2223
Chen 2222
cola 2222
bius 2221
ling 2220
sep@@ 2220
Center 2219
Dicranaceae 2219
ylo@@ 2219
iceps 2218
tạc 2218
Steve 2217
phác 2216
xia 2216
lii 2215
Py@@ 2214
nhàng 2214
zy@@ 2214
Mam@@ 2212
Pen@@ 2212
Tho@@ 2211
chus 2211
Dam@@ 2210
ain 2209
1,2 2208
Radio 2208
nhụy 2207
13.@@ 2206
Bes@@ 2206
lig@@ 2206
Clark 2205
ón 2205
Kin@@ 2204
hat 2204
log@@ 2203
mõm 2203
set 2203
Ít 2203
Jung 2202
Harvard 2201
Kiếm 2201
Margaret 2201
Xanh 2201
acantha 2201
mur@@ 2201
gris@@ 2200
achi 2199
anes 2199
Á@@ 2199
giếng 2198
min 2198
section 2198
1837 2197
Dần 2197
dẻo 2197
Thiểm 2196
họng 2196
ulum 2196
35@@ 2195
Jac@@ 2195
phon@@ 2195
Herbert 2194
Inc. 2194
chênh 2194
Hang 2193
th 2193
thiếp 2193
Đoan 2193
gắt 2192
ắm 2192
CBS 2190
ji@@ 2190
ư 2190
đục 2188
mẻ 2187
1833 2186
Mot@@ 2186
Sir 2186
Cameroon 2185
Dữ 2184
khinh 2184
uni 2183
Pon@@ 2182
kali 2182
1842 2181
Alabama 2181
Jerusalem 2180
Yemen 2180
Ere@@ 2179
Howard 2179
hel@@ 2179
vụn 2178
thấm 2177
Biện 2176
Sicilia 2175
Yu@@ 2175
rỉ 2175
mari@@ 2174
ừ 2174
uỷ 2173
Dem@@ 2172
bis@@ 2171
lus 2171
trắc 2170
Alexandria 2169
Schleswig 2169
Estonia 2168
evich 2168
ix@@ 2168
mịn 2168
đan 2168
Bạt 2167
Ivan 2165
ric@@ 2165
rèn 2165
Rus@@ 2164
125 2163
It@@ 2163
gay 2163
oxide 2163
Qatar 2162
Arch@@ 2161
Ferdinand 2161
Praha 2161
zii 2161
Europa 2159
Kavkaz 2159
ifera 2159
Pardosa 2158
Bành 2157
Maroc 2156
DS 2155
Hat@@ 2155
Tang 2154
Rheinland 2153
Sierra 2153
Your 2153
hở 2153
Bò 2152
unda 2151
Villa 2148
inger 2148
ish 2148
ẽ 2148
Oxford 2147
bì 2147
1824 2146
Fe@@ 2146
Hop@@ 2146
Si 2146
yan 2143
Ok@@ 2142
dồn 2142
Asia 2141
ace@@ 2141
kẹt 2141
prop@@ 2141
Bell 2140
Op@@ 2140
Ray 2140
aku 2140
Tetr@@ 2138
est 2138
ney 2138
omum 2138
philus 2138
quặng 2137
well 2137
ìa 2137
ùm 2137
000 2135
lăn 2135
Giuse 2134
ophila 2133
act@@ 2132
internet 2132
Tắc 2131
CD@@ 2130
ico 2130
1852 2129
ời 2128
Nhu 2127
ebr@@ 2126
ush@@ 2126
33@@ 2125
niêm 2125
Borneo 2124
Ken@@ 2124
Bính 2123
inh 2123
oensis 2123
yd@@ 2122
vitamin 2121
Miller 2120
aqu@@ 2120
Mèo 2119
Apo@@ 2118
Hook 2118
rit@@ 2118
đuối 2118
bro@@ 2117
z. 2117
chloride 2116
sei 2116
esta 2115
art 2114
oshi 2114
1843 2113
ận 2113
ụn 2113
1839 2111
ứt 2111
14.@@ 2109
ve@@ 2109
atia 2108
Alex 2107
fo@@ 2107
Cán 2106
Gon@@ 2106
River 2106
Tuyền 2106
Amazon 2105
Clinton 2105
Napoli 2105
UK 2105
po 2104
Mos@@ 2103
Tamil 2103
kl@@ 2103
ku 2103
van@@ 2103
đạc 2103
Socorro 2102
illus 2102
khốc 2102
pter@@ 2102
CH 2101
Ed@@ 2101
iga 2101
NASA 2100
No 2100
Macro@@ 2099
Shir@@ 2099
Tuyển 2099
brevi@@ 2099
nhuộm 2099
Dao 2098
huỳnh 2098
Hỗ 2097
đao 2097
Aph@@ 2096
Petr@@ 2096
University 2096
cỗ 2096
Bad@@ 2095
char@@ 2095
lồi 2095
mos@@ 2095
nhược 2095
Tunisia 2094
khoẻ 2093
Grant 2092
Long@@ 2092
int@@ 2092
opl@@ 2092
Mê 2091
hii 2091
ins@@ 2091
1832 2090
Ble@@ 2090
Rchb.f. 2090
6.000 2089
cụt 2089
Anime 2088
Sti@@ 2088
Thí 2088
phila 2087
thục 2086
ỳ 2086
Torino 2085
ade 2085
mot@@ 2085
udi@@ 2085
lop@@ 2084
Lab@@ 2083
Walker 2083
ecta 2082
Up 2081
kị 2081
meg@@ 2081
Cot@@ 2080
Lành 2080
olata 2080
Champion 2079
Victor 2078
tiv@@ 2078
xanth@@ 2078
Colorado 2077
dai 2077
Dãy 2076
onica 2076
ron 2076
11,@@ 2075
ennis 2075
Quercus 2074
Thao 2074
phil@@ 2074
tệp 2074
isch@@ 2073
pia 2073
Arizona 2072
Gang@@ 2072
Khảo 2072
gả 2072
ểu 2072
Plagi@@ 2071
cẩu 2071
sâm 2071
Set@@ 2070
Channel 2069
Eric 2067
cõi 2067
khiếp 2067
vằn 2067
ỉ@@ 2067
12,@@ 2066
logic 2066
Kennedy 2065
mis@@ 2065
Cactaceae 2064
Dạng 2064
bium 2064
ngạn 2064
sch 2064
Thelypteris 2063
èm 2063
Ophi@@ 2062
Kolar 2061
râu 2061
Bước 2060
bế 2060
ý@@ 2060
Lepanthes 2059
arum 2059
dion 2059
Babylon 2058
Bay@@ 2058
Brach@@ 2058
Watson 2058
dal@@ 2058
trop@@ 2058
đùa 2057
Baden 2056
brach@@ 2056
omorpha 2056
1834 2055
Aspleniaceae 2055
Super@@ 2055
dea 2055
ÂL 2055
Trach@@ 2054
ois 2054
thes 2054
itus 2053
Gly@@ 2050
Ngư 2050
SA 2049
cost@@ 2049
Alan 2047
Astr@@ 2047
Lô 2047
hem@@ 2047
ond@@ 2047
AT 2046
bon@@ 2046
1827 2045
istr@@ 2045
lu 2045
lip@@ 2044
imp@@ 2043
Đàng 2043
GS 2042
nóc 2042
Lag@@ 2041
ulatus 2041
Alexandros 2040
38@@ 2037
ọn 2037
Aleur@@ 2036
ipennis 2036
ken@@ 2036
ovo 2036
pp@@ 2036
Angola 2035
thê 2035
Guam 2033
Brian 2032
Final 2030
IN@@ 2030
Merr. 2030
Rạch 2030
up 2030
1855 2029
Diêu 2029
Twitter 2029
Phi@@ 2027
oda 2027
los 2026
nghênh 2026
rũ 2026
via 2026
Ga@@ 2025
Houston 2025
AS 2022
ẫy 2022
220 2021
Studio 2021
ith@@ 2020
ž@@ 2020
Xứ 2019
Allium 2016
andi@@ 2015
issima 2014
nhan 2014
amia 2013
lb 2013
amine 2012
assa 2012
ein 2011
Kì 2010
vòi 2010
yla 2010
Manila 2009
vit@@ 2009
Tony 2008
liv@@ 2008
High 2007
ụi 2007
Call@@ 2006
Sumatra 2006
Hoành 2005
Kraków 2005
MS 2005
SC 2005
Plan@@ 2004
nu@@ 2004
Tum 2003
ades 2003
Franz 2002
Lar@@ 2002
aulis 2002
elii 2001
tiệm 2001
ềng 2001
Dun@@ 2000
Dền 2000
108 1998
je 1998
mannii 1997
similis 1997
Jane 1996
khép 1996
sỹ 1996
First 1995
ính 1994
đống 1994
0,5 1993
iti@@ 1993
Ngành 1992
Pictures 1992
ường 1992
Vit@@ 1991
Zimbabwe 1991
vần 1990
yu 1990
out 1989
Byzantine 1988
Chal@@ 1988
Somme 1988
uyên 1988
39@@ 1987
HD 1987
Kad@@ 1987
Salvia 1987
we@@ 1986
Has@@ 1985
acc@@ 1985
mus@@ 1985
Giản 1984
Yam@@ 1983
stein 1983
Tọa 1981
ằn 1981
astr@@ 1980
Khiêm 1979
Bruce 1978
Holstein 1978
lio 1978
mác 1978
Bush 1977
Is 1977
Sid@@ 1977
didae 1977
Kiev 1976
Nik@@ 1976
chuồng 1976
CIA 1975
Xbox 1975
estes 1975
ken 1975
Bis@@ 1974
Bud@@ 1974
pet@@ 1974
Cừu 1973
gậy 1973
bồn 1971
ć 1971
Bot@@ 1970
agn@@ 1970
bạ 1970
Bangalore 1969
Giấy 1969
Pach@@ 1969
ick 1969
yra 1969
apura 1968
edi@@ 1968
Khanh 1967
Two 1967
khôn 1966
asi 1965
ū@@ 1965
Am 1964
Anis@@ 1964
Beatles 1964
oniaceae 1964
st. 1964
ổi 1964
Guatemala 1963
minor 1963
{ 1962
Provence 1961
ste@@ 1961
Chang 1960
Maj@@ 1960
Mitt. 1960
hoạ 1960
mul@@ 1960
nar@@ 1959
ặn 1959
11@@ 1958
ry 1958
rạch 1958
34@@ 1957
aceus 1957
túng 1957
obius 1956
Arg@@ 1955
rước 1955
sụt 1955
Stelis 1954
agi 1954
Vietnam 1953
Hào 1952
une 1952
Beach 1951
Kum@@ 1951
ị 1951
ju 1950
Gracillariidae 1949
Tol@@ 1949
1800 1948
auda 1948
Copel. 1945
Caesar 1944
Hay@@ 1944
45@@ 1943
Palomar 1943
ue 1943
Ze@@ 1942
bọt 1942
uy@@ 1942
việt 1942
1825 1941
Leyte 1941
Toronto 1941
da@@ 1941
lanh 1941
F.Muell. 1940
sảnh 1940
Brunei 1939
Harrison 1939
Leptoceridae 1939
diễu 1939
má 1939
ons@@ 1939
Madonna 1938
Tal@@ 1938
1831 1937
Dance 1936
Pet@@ 1936
sê 1936
Abu 1935
Gris@@ 1935
acr@@ 1935
isi@@ 1935
lut@@ 1935
ow 1935
phôi 1935
set@@ 1935
òm 1933
Gonomyia 1932
Lav@@ 1932
We 1932
him@@ 1932
nat@@ 1932
trans@@ 1932
Japan 1931
Lis@@ 1931
München 1931
Ari@@ 1930
Co 1930
Lợn 1930
esii 1930
sam@@ 1930
18@@ 1929
Erica 1929
Il 1929
Maine 1929
Will 1929
cửu 1929
aud@@ 1928
enko 1928
Network 1927
khố 1927
Hook. 1926
15.@@ 1925
Iso@@ 1925
Point 1925
Thới 1925
khâu 1925
A.Gray 1924
Eng@@ 1924
Luc@@ 1923
Moselle 1922
Ric@@ 1922
Siberia 1922
Jefferson 1921
SE@@ 1921
nàn 1921
oid 1921
gộp 1920
som@@ 1920
Cyathea 1919
Hyper@@ 1919
dan 1919
lột 1919
60@@ 1918
Cheil@@ 1918
Ni 1918
Tim 1918
beta 1918
ist 1918
nigro@@ 1918
Gaga 1916
leria 1916
nea 1916
owo 1916
this 1916
àu 1916
ech 1915
ellidae 1915
ngoan 1915
Kha 1914
Old 1914
Sis@@ 1914
ins 1914
ẹo 1914
Cứ 1913
hoán 1913
huỷ 1913
170 1912
Vợ 1912
dán 1912
ę@@ 1912
ka@@ 1910
GP 1908
This 1908
aul@@ 1908
eni@@ 1908
ạp 1908
ci 1907
ophorus 1906
H.Rob. 1905
Lôi 1905
chiêm 1904
chuối 1904
Phy@@ 1903
stis 1903
UTC 1902
lậu 1902
Bid@@ 1901
Ficus 1900
Cảm 1899
Thụ 1898
anna 1898
Moscow 1897
gặt 1897
vis 1896
Lang@@ 1895
María 1895
yết 1895
HĐND 1894
Mozambique 1894
auc@@ 1894
chilus 1894
chước 1894
Nằm 1893
bec@@ 1893
yro@@ 1892
109 1891
Ư@@ 1891
othecium 1890
uh@@ 1890
Kịch 1889
Vọng 1889
3000 1888
47@@ 1888
Leg@@ 1888
Vatican 1888
Pic@@ 1887
opis 1885
phiệt 1885
Mari@@ 1884
Valley 1884
ayi 1884
plat@@ 1884
ock 1883
reg@@ 1883
Île 1883
Jong 1882
XV 1882
22@@ 1881
Turner 1881
ấng 1881
Nan@@ 1880
Nees 1880
Wayne 1880
sun@@ 1880
Fun@@ 1879
Gel@@ 1879
ake 1879
aus 1879
ẻo 1879
Suối 1878
sea 1878
Im@@ 1877
Junior 1877
Ah@@ 1876
neutron 1876
Lasi@@ 1875
atin 1875
Athens 1874
Ji 1874
Wi@@ 1873
dar@@ 1873
tía 1873
Pop 1872
Ax@@ 1871
1828 1870
ạy 1870
Heinrich 1869
Jun@@ 1869
Kyoto 1869
Sat@@ 1869
rapper 1869
đớn 1869
CO@@ 1868
tos@@ 1867
ùn 1867
450 1866
Vir@@ 1866
isi 1866
ye@@ 1866
Sag@@ 1864
ria 1864
rong 1864
Cav@@ 1863
Russell 1863
Yas@@ 1863
ack 1863
otica 1863
Johann 1862
TS 1862
ska 1862
Şanlıurfa 1861
Rau 1860
Anthony 1859
Quay 1859
kẽm 1859
tưới 1859
48@@ 1858
Bretagne 1858
ifolium 1858
α 1858
May 1857
New@@ 1857
Nyc@@ 1857
nhã 1857
florum 1856
gõ 1856
ospermum 1854
ński 1854
Digital 1853
Thy@@ 1853
ec 1853
ậm 1853
Kis@@ 1852
Tố 1852
amino 1852
q. 1852
robot 1852
ras@@ 1851
102 1850
Miss 1850
ope 1850
Địch 1850
Mãi 1849
ez 1849
Mario 1847
cop@@ 1847
Thai 1845
tea 1845
Cống 1844
Mức 1844
16.@@ 1843
Max@@ 1843
Prince 1843
odon@@ 1842
Sun@@ 1841
eva 1841
wat@@ 1841
úc 1841
1835 1840
Buc@@ 1840
Cứu 1840
Hen@@ 1840
ej@@ 1840
nọc 1840
Luxembourg 1839
Nghề 1839
Greene 1838
ứ 1838
30.000 1837
chớp 1837
species 1837
Chinh 1836
Jr 1836
biếm 1836
omus 1836
ui@@ 1836
Cho@@ 1835
Cấm 1835
Din@@ 1835
Nỗ 1833
Munich 1832
ếc 1832
igu@@ 1831
ỉa 1831
mad@@ 1830
Benth 1829
nhô 1829
Gừng 1828
yne 1828
Be 1827
C1 1827
wi@@ 1827
Blume 1826
op 1826
François 1825
Wu 1825
arium 1825
lỡ 1825
Shin 1823
Award 1822
Potter 1822
ido 1822
issa 1822
Leningrad 1821
Mand@@ 1821
ướng 1821
Hil@@ 1820
Kil@@ 1820
Koch 1820
Mordellistena 1820
Thậm 1820
idi 1820
kiều 1820
phon 1820
thạo 1820
Bak@@ 1819
Elaphoglossum 1819
Next 1819
novel 1818
Tillandsia 1817
Land 1816
Phyllanthus 1816
pent@@ 1816
Las 1815
inf@@ 1815
laser 1814
Ç@@ 1814
hệt 1813
iidae 1813
quin@@ 1813
Marvel 1812
Rob@@ 1812
Conus 1811
Than 1811
dioxide 1811
Chuyện 1810
Hexatoma 1810
als 1810
elus 1810
Road 1809
atha 1809
cưa 1809
rưỡi 1808
talis 1808
80@@ 1807
s. 1807
190 1806
Warner 1806
khanh 1805
104 1804
Manga 1804
chan@@ 1804
phả 1804
ỏm 1804
DJ 1803
Eucalyptus 1803
Kim@@ 1803
Pur@@ 1803
Thuyền 1803
but@@ 1803
ą@@ 1803
Đột 1803
Ball@@ 1802
SP@@ 1802
icia 1802
wan@@ 1802
Rồi 1801
dol@@ 1801
hông 1801
Ích 1801
carpa 1800
manh 1800
Jacques 1799
mo 1799
Krym 1798
大@@ 1798
ngủi 1797
phen@@ 1797
Roosevelt 1796
thia 1796
uv@@ 1796
Mikhail 1795
Xanth@@ 1795
eau 1795
line 1795
đọng 1795
Jin 1794
Ryan 1794
fu@@ 1794
atica 1793
ben@@ 1793
obscur@@ 1792
4,5 1791
Tach@@ 1791
Echin@@ 1790
Golden 1789
Lấy 1789
Obama 1789
acet@@ 1789
ky@@ 1789
tà 1787
amus 1786
heim 1786
teria 1786
yris 1786
Napoleon 1785
arr@@ 1785
chen@@ 1785
Thịt 1784
ew@@ 1784
eman 1783
8.000 1782
Tok@@ 1782
wan 1782
24,@@ 1780
Cher@@ 1780
ff 1780
1826 1778
Bướm 1778
chanh 1778
ris 1776
sit@@ 1776
ako 1775
lí@@ 1775
ã 1775
Bec@@ 1774
Tà 1774
abilis 1774
Aleksandr 1773
Med@@ 1773
ect@@ 1773
ks 1773
nhào 1773
otrichum 1773
Christopher 1772
adel@@ 1772
phantes 1771
Bed@@ 1770
Miami 1770
Chiếu 1769
Guadalcanal 1769
Xét 1769
Taliban 1768
chr@@ 1768
err@@ 1768
ier 1768
pyr@@ 1768
Ann@@ 1767
Balkan 1767
Thùy 1767
enberg 1767
flor@@ 1767
ollis 1767
prot@@ 1767
Philippe 1766
angensis 1766
camera 1766
B.L.@@ 1765
Bưu 1765
Morgan 1765
Samuel 1765
CN@@ 1764
côi 1764
ban@@ 1763
huân 1763
metal 1763
23,@@ 1762
Hydropsychidae 1762
Myrmeleontidae 1762
asti@@ 1762
cher@@ 1762
isp@@ 1762
ophyl@@ 1762
Mec@@ 1761
olepis 1761
ụng 1761
Oxy@@ 1760
nigri@@ 1760
CA@@ 1759
Raymond 1759
Tir@@ 1759
Toà 1758
nạ 1758
Yo@@ 1757
Ner@@ 1756
plan@@ 1756
punctata 1756
tella 1756
Bun@@ 1755
Dàn 1755
Tầng 1755
vari@@ 1755
Hans 1754
Thôn 1753
cày 1753
uro 1753
side 1752
Clubiona 1751
Kevin 1751
chel@@ 1751
cic@@ 1751
AN@@ 1750
Arn@@ 1750
diaceae 1750
mài 1750
phosph@@ 1750
tric@@ 1750
Banks 1748
dy 1748
thoi 1748
tâu 1748
Pha 1746
erus 1746
lận 1746
uca 1746
Jim 1745
bành 1745
Kab@@ 1744
Pyrénées 1744
Sematophyllaceae 1744
TC 1744
XVIII 1744
oga 1744
oxy@@ 1744
uti@@ 1744
Dấu 1743
Nelson 1743
onensis 1743
Dây 1741
AIDS 1740
cọ 1740
Maritime 1739
inter@@ 1739
ọt 1739
Phyl@@ 1738
Fal@@ 1737
Anthurium 1736
Chaet@@ 1736
Hier@@ 1736
Ichneumon 1736
bes@@ 1736
Good 1735
Spring 1735
onius 1735
rap 1735
vuốt 1735
Lucas 1734
³ 1734
HĐBT 1733
lad@@ 1733
Wright 1732
fi@@ 1732
Red@@ 1731
uch@@ 1731
Patrick 1730
Platy@@ 1730
Sap@@ 1730
ein@@ 1730
gã 1730
gặm 1730
olig@@ 1730
Rider 1729
Gur@@ 1728
Play 1728
Venezia 1728
ges@@ 1728
iscus 1728
rig@@ 1728
Hãy 1725
Nhung 1725
25,@@ 1724
All@@ 1724
oy 1724
thầm 1724
ìu 1724
1829 1722
Nova 1722
kẹo 1722
onlyinclude 1722
Santiago 1721
Thầy 1721
chảo 1721
odia 1721
uchi 1721
zh@@ 1721
đạm 1721
Nicholas 1720
Ae@@ 1719
Hand@@ 1719
Kos@@ 1719
oo 1719
tim@@ 1719
tula 1719
đẫm 1719
Lec@@ 1718
Schw@@ 1718
amin@@ 1718
Jaeger 1717
Warszawa 1717
ú@@ 1717
Conidae 1716
Rịa 1716
Sk@@ 1716
tz 1716
yak@@ 1716
Miếu 1715
Rolling 1715
ado 1715
gran@@ 1715
50.000 1714
Đồn 1714
Blake 1713
Peperomia 1713
Power 1713
tata 1713
att@@ 1712
rec@@ 1712
rò 1712
gò 1711
icta 1711
lạp 1711
oko 1711
17.@@ 1710
26,@@ 1709
ance 1709
chuộc 1709
coma 1709
Af@@ 1708
Heart 1708
bén 1708
Đương 1708
Fran@@ 1707
Ot@@ 1707
Sphingidae 1707
ais@@ 1707
ocar@@ 1707
1820 1706
oan 1706
Xu 1705
crass@@ 1705
Ju@@ 1704
Tóm 1704
esi@@ 1704
thu@@ 1704
uss@@ 1704
Carter 1703
fil@@ 1703
kei 1703
Dực 1702
Lat@@ 1702
Tin@@ 1702
phiền 1702
ż@@ 1702
20.@@ 1701
Hôn 1701
Lamp@@ 1701
Nôm 1701
port 1701
Aires 1700
Bran@@ 1700
Shim@@ 1699
aru 1699
ingen 1699
ord@@ 1699
rập 1699
Khiết 1698
Thử 1698
V.@@ 1698
omi 1698
Điệp 1698
Garonne 1697
Men 1697
neri 1697
Bac@@ 1696
Melbourne 1696
actylus 1696
bẹ 1696
insky 1696
Darwin 1695
PS 1695
Robin 1695
acus 1694
mông 1694
Nav@@ 1693
affinis 1693
omy@@ 1693
đũa 1693
13,@@ 1692
F.K. 1692
usta 1692
Hymenophyllaceae 1691
Hảo 1691
dồi 1691
old 1691
ote 1691
ộng 1691
Batman 1690
Bell@@ 1690
Ngu 1690
cởi 1690
ple@@ 1690
Son 1689
UN@@ 1689
Buenos 1688
Fl@@ 1688
ngoặt 1688
nitơ 1688
1810 1687
Eup@@ 1687
Myanma 1687
ear@@ 1687
rei 1687
ụt 1687
Hoá 1686
7.000 1685
Tho 1685
Đắc 1685
ẫu 1685
Thuộc 1684
achne 1684
foli@@ 1684
27,@@ 1683
Bundesliga 1683
Ea 1683
cha@@ 1683
âng 1683
Barbara 1682
Hap@@ 1682
115 1681
CA 1681
nam@@ 1681
Cruz 1680
anii 1680
É@@ 1680
gem@@ 1679
phồn 1679
uyến 1679
War 1678
ineata 1678
oro 1677
Fantasy 1676
Levi 1676
Shu@@ 1676
Somalia 1676
Dận 1675
aa 1675
etti 1675
Nhã 1674
Namibia 1673
aster 1673
gu 1673
18.@@ 1672
Ontario 1672
tae 1672
Shah 1671
nan 1671
oku 1671
đè 1671
Lắk 1670
ag 1670
Cuồng 1669
Lei@@ 1669
Lombardia 1669
PA 1669
din 1669
chin@@ 1668
anta 1666
ovsky 1666
liễu 1665
nham 1665
sonia 1665
éo 1665
ā 1665
Nebraska 1664
Santo 1664
atsu 1664
ipes 1664
「 1664
MP 1663
tẩm 1663
Bang@@ 1662
Harris 1662
Home 1662
alba 1662
hop 1662
oneura 1662
ễu 1662
etum 1661
mắm 1661
Ardisia 1660
iger 1660
line@@ 1660
olis 1660
」 1660
Inter 1659
bin@@ 1659
model 1659
IS 1658
Madison 1658
che@@ 1658
thệ 1658
xô 1658
ùa 1658
Adi@@ 1656
lim@@ 1656
hăng 1655
n.@@ 1655
porus 1655
Tiger 1654
ash 1654
bass 1654
nem@@ 1654
thy@@ 1653
uensis 1653
argent@@ 1652
HLV 1651
Habenaria 1651
Tennessee 1651
Tokugawa 1651
tor 1651
zu 1651
Gabriel 1650
Latvia 1650
Einstein 1649
Hag@@ 1649
Lord 1649
dur@@ 1649
khiêm 1649
Lyon 1648
Nat@@ 1648
Nhâm 1648
Rồng 1648
Tạo 1648
aspis 1648
igh@@ 1648
imb@@ 1648
IP 1647
Sâm 1647
w. 1647
19,@@ 1646
Cù 1646
Boiss. 1645
Prom@@ 1645
giã 1645
Lith@@ 1644
Mũi 1644
Milano 1643
Ralph 1643
ino@@ 1643
kiêu 1643
yphantes 1643
O. 1642
Zambia 1641
palli@@ 1641
Chor@@ 1640
xay 1640
Adolf 1639
Dị 1639
wil@@ 1639
CHDCND 1638
} 1638
Euxoa 1637
Solanum 1637
ity 1637
margin@@ 1637
Đón 1637
IC@@ 1636
Khâu 1636
huy@@ 1636
oliv@@ 1636
tủy 1636
22,@@ 1635
Lối 1635
lidae 1635
otro@@ 1635
111 1634
giọt 1634
fili@@ 1633
ishi 1633
publ 1633
Bet@@ 1631
Web 1631
Marcus 1630
poda 1630
Sankt 1629
actyla 1629
ữu 1629
113 1628
Ji@@ 1628
Kō@@ 1627
eca 1627
purpur@@ 1627
Tòng 1626
amm@@ 1626
eki 1626
hip 1625
tul@@ 1625
107 1624
127 1624
China 1624
Den@@ 1623
Mill@@ 1623
cun@@ 1623
ruf@@ 1623
Bruchidae 1622
Fu@@ 1622
Gag@@ 1622
Jimmy 1622
Kepler 1622
Pterolophia 1622
aden@@ 1622
eon@@ 1622
maculata 1622
xé 1622
Mitt 1621
Tric@@ 1621
Buôn 1620
Kul@@ 1620
Nàng 1620
Standl. 1620
Sum@@ 1620
bón 1620
Anthicidae 1619
Lon@@ 1619
any 1618
20,@@ 1617
Haw@@ 1617
Muricidae 1617
jav@@ 1617
proton 1617
李@@ 1617
J.J.Sm. 1616
Mân 1616
Scot@@ 1616
106 1615
bit@@ 1615
eana 1615
kor@@ 1615
Luis 1613
adr@@ 1613
enti@@ 1613
entr@@ 1613
na@@ 1613
that 1613
14,@@ 1612
240 1612
Gun@@ 1612
Post 1612
osh@@ 1612
Association 1611
Blechn@@ 1611
Thoại 1611
Lor@@ 1610
Min 1610
Story 1609
ident@@ 1609
kur@@ 1609
Hựu 1608
Ish@@ 1608
Rod@@ 1608
Tốt 1608
ữ 1608
Dig@@ 1607
Fort 1607
ert 1607
ASEAN 1606
Tồn 1606
Uzbekistan 1606
phò 1606
Lig@@ 1605
Sivas 1605
lich@@ 1605
ể 1605
Orange 1604
Sharp 1604
brachy@@ 1604
AP@@ 1603
Maya 1603
ory 1602
1500 1601
46@@ 1601
Ali@@ 1601
Bog@@ 1601
Dụng 1601
IBM 1600
pau@@ 1600
Chir@@ 1598
Pleur@@ 1597
pH 1597
xói 1597
Type 1596
Medvedev 1595
sáo 1595
xí 1595
not 1594
Mac 1593
Megal@@ 1593
Neo@@ 1593
alli@@ 1593
onom@@ 1593
Fi@@ 1592
Sea 1592
oper@@ 1592
tium 1592
váy 1592
Kay@@ 1591
gục 1591
hán 1591
pod@@ 1591
lı 1590
AP 1589
Chrysopidae 1589
IUCN 1589
X. 1589
nhát 1589
ộ 1589
Paraguay 1588
australis 1588
his 1588
tăm 1588
Luận 1587
Manuel 1587
ọi 1587
128 1586
agrion 1586
bẩm 1586
egia 1586
oanh 1586
王@@ 1586
Juventus 1585
bon 1585
lở 1585
ès 1585
đắng 1585
1.500 1584
103 1584
1806 1584
Apollo 1584
ạnh 1584
55@@ 1583
Bấy 1583
Charlie 1583
Mobile 1583
Tul@@ 1583
200.000 1582
A1 1582
Ye@@ 1582
esa 1582
issus 1582
Kak@@ 1581
Sm@@ 1581
ern@@ 1580
hen@@ 1580
nghiền 1580
Vincent 1579
alp@@ 1579
Hindu 1578
d. 1578
ina@@ 1578
Ich@@ 1577
Phal@@ 1577
eriana 1577
yrus 1577
21,@@ 1576
Bil@@ 1576
Nhiếp 1576
TVB 1576
onyx 1576
Lạnh 1575
Nevada 1575
trừu 1575
Sci@@ 1574
phi@@ 1574
Carey 1573
Viêm 1573
ostr@@ 1573
ợn 1573
Tát 1572
rét 1572
Thang 1571
orientalis 1571
Eul@@ 1570
Sang@@ 1570
Trục 1570
bôi 1570
cher 1570
ocol@@ 1570
trọt 1570
Calais 1569
dỗ 1569
Netflix 1568
Newport 1568
buồm 1568
Haiti 1567
Jura 1567
ias 1567
kam@@ 1567
xảo 1567
hin@@ 1566
Scincidae 1565
Xác 1565
hormone 1565
kab@@ 1565
Bội 1564
Cook 1564
Festival 1564
Hypnum 1564
Jam@@ 1564
Son@@ 1564
ill 1564
áu 1564
ř@@ 1564
王 1564
Aleyrodidae 1563
Sarah 1563
cúm 1563
file 1562
André 1561
tem 1561
tot@@ 1561
Duyệt 1560
Tortricidae 1560
Z. 1560
ado@@ 1560
giục 1560
vus 1560
1.5@@ 1559
Thỏa 1559
góa 1559
ille 1559
ister@@ 1559
Bir@@ 1558
Dĩnh 1558
Edo 1558
Khôi 1558
Melanotus 1558
Rem@@ 1558
estris 1558
ND 1557
chii 1557
ud 1557
Pays 1556
Pyotr 1556
kan 1556
then 1556
Mut@@ 1555
19.@@ 1554
Coni@@ 1554
Ja@@ 1554
Vill@@ 1554
alo@@ 1554
emon 1554
ỹ 1554
more 1553
osis 1553
ellia 1552
nes 1552
uru 1552
vóc 1552
65@@ 1551
gun 1551
our 1551
Endomychidae 1550
Gran@@ 1550
Tsu@@ 1550
rufic@@ 1550
we 1550
40.000 1549
Cú 1549
Sai 1549
bergia 1549
bong 1549
Chăn 1548
amar@@ 1548
bú 1548
1801 1547
brevic@@ 1547
camp@@ 1547
var. 1547
Chr. 1546
eck@@ 1546
eriaceae 1546
Đăk 1546
Boys 1545
Budapest 1545
Hab@@ 1545
gensis 1545
AR@@ 1544
GB 1544
Vil@@ 1544
cot@@ 1544
far@@ 1543
ưởng 1543
Han 1542
Mass@@ 1542
Pis@@ 1542
chọi 1542
jazz 1542
léo 1542
chày 1541
isia 1541
Iz@@ 1540
Phêrô 1540
bẩn 1540
nigric@@ 1540
pon@@ 1540
rap@@ 1540
Helic@@ 1539
aem@@ 1539
barangay 1538
Diospyros 1537
Santos 1537
khoảnh 1537
oán 1537
Brandenburg 1536
Cab@@ 1536
Key 1536
Quỳ 1536
dro@@ 1536
dy@@ 1536
hom@@ 1536
inga 1536
proc@@ 1536
Lev@@ 1535
Roy 1535
diesel 1535
gieo 1535
muỗi 1535
Intel 1534
Kag@@ 1534
Müll.Arg. 1534
Carthage 1533
paria 1533
suýt 1533
way 1533
AL@@ 1532
1812 1531
HQ 1531
inella 1531
pallida 1531
Cham@@ 1530
Jason 1530
base 1530
plus 1530
đởm 1530
aculatus 1529
1789 1528
Pog@@ 1528
Rich@@ 1528
Sou@@ 1528
Wo@@ 1528
Phải 1527
Sen 1527
brun@@ 1527
Andy 1526
Đáp 1526
Bismarck 1525
Kaw@@ 1525
Assyria 1524
Khủng 1524
Loạt 1524
Odon@@ 1524
Coc@@ 1523
lag@@ 1523
Dry@@ 1522
ID 1522
Rhynchitidae 1522
Thám 1522
Uyển 1522
pon 1522
thidium 1522
yon@@ 1522
Hook@@ 1521
Maryland 1521
Thuỷ 1521
any@@ 1521
ngươi 1521
vo 1521
Ka 1520
Kane 1520
clav@@ 1520
vul@@ 1520
Đèo 1520
Ấp 1520
Y. 1519
court 1519
emer@@ 1519
tỉa 1519
Arena 1518
phà 1518
ỷ 1518
Og@@ 1517
Silva 1517
bẻ 1517
h. 1517
jan@@ 1517
kèn 1517
Amsterdam 1516
MW 1516
1802 1515
Aragon 1515
Kelly 1515
Light 1515
Saône 1515
Tung 1515
montana 1515
nộ 1515
sập 1515
Đấu 1515
Like 1514
Pandanus 1514
ck 1514
dav@@ 1514
mang@@ 1514
oxit 1514
210 1513
Ngà 1513
System 1513
What 1513
lề 1513
Gordon 1512
Leo 1512
Malawi 1512
Mog@@ 1512
Steven 1512
Tờ 1512
1.4@@ 1511
112 1511
APG 1511
Hiểu 1511
onum 1511
2.0@@ 1509
Bhutan 1509
Tab@@ 1509
dưa 1509
kìm 1509
radi@@ 1509
PT 1506
Alc@@ 1505
Britton 1505
Cour@@ 1504
Dream 1504
Parthia 1504
mitis 1504
ī@@ 1504
rup@@ 1503
Yak@@ 1502
cephalus 1502
toa 1502
Pan 1501
Walt 1501
gens 1501
ick@@ 1501
135 1500
Ngưu 1500
Po 1500
chìa 1500
inii 1500
macul@@ 1500
sec@@ 1500
US@@ 1499
cò 1499
Neur@@ 1498
eata 1498
lav@@ 1498
ome@@ 1498
you 1498
lon 1497
oderus 1497
angusti@@ 1496
ier@@ 1496
niti@@ 1496
osperma 1496
Universal 1495
ophoridae 1495
Dim@@ 1494
HCM 1494
Habsburg 1494
Kuwait 1494
Thâm 1494
1821 1493
44@@ 1493
Chư 1493
Gy@@ 1493
Mộng 1493
Nick 1493
anz@@ 1493
gaster 1493
inosa 1493
đừng 1493
ướu 1493
ABC 1492
aro@@ 1492
jeunea 1492
lõm 1492
otrich@@ 1492
1.6@@ 1491
chè 1491
dấy 1491
lit@@ 1491
otom@@ 1491
152 1490
49@@ 1490
Bolshevik 1490
Honduras 1490
Pteris 1490
Schiz@@ 1490
Semiothisa 1490
acul@@ 1489
dạo 1489
ism 1489
orph@@ 1489
rium 1489
Sóng 1488
Tán 1488
diệu 1488
feld 1488
Cổng 1487
Nhuận 1487
aly@@ 1487
vựng 1487
ệc 1487
Navás 1486
Ross 1486
Sahara 1486
Stein@@ 1486
land@@ 1486
thium 1486
Nổi 1485
aux 1485
bóp 1485
Dark 1484
ngạch 1484
thềm 1484
yridae 1484
anti 1483
Mall@@ 1482
Xysticus 1482
căm 1482
điểu 1482
dale 1481
21.@@ 1480
Aer@@ 1480
acia 1480
dus 1480
lar 1480
ono 1480
28,@@ 1479
DE 1479
Luke 1479
Salvador 1479
cip@@ 1479
lot@@ 1479
ée 1479
đắn 1479
Delhi 1478
Euph@@ 1478
German 1478
crassi@@ 1477
tiana 1477
Đáng 1477
State 1476
XVII 1476
elius 1476
loan 1476
nov@@ 1476
‎ 1476
Rat@@ 1475
chn@@ 1475
dơi 1475
ịt 1475
obiidae 1474
Eum@@ 1473
Ngọ 1473
Cog@@ 1472
Cẩn 1472
Yosh@@ 1472
lừng 1472
rosa 1472
tre@@ 1472
bấm 1471
ngà 1471
nuốt 1471
ouv@@ 1471
Benjamin 1470
Cyperus 1470
Kus@@ 1470
Đ 1469
AR 1468
Timor 1468
lob@@ 1468
Van@@ 1467
phượng 1467
Bom@@ 1466
Pachy@@ 1466
kat@@ 1466
oleon 1466
pall@@ 1466
elli@@ 1465
nati@@ 1465
500.000 1464
Brachy@@ 1464
Gro@@ 1464
Thor@@ 1464
frazioni 1464
ệu 1464
Giovanni 1463
Hamburg 1463
Kl@@ 1463
Phép 1463
Hangul 1462
TO@@ 1462
ballad 1462
has@@ 1462
320 1461
Dã 1461
Fissidens 1461
Sit@@ 1461
gium 1461
Hồn 1460
mir@@ 1460
Đang 1460
Dan 1459
cam@@ 1459
phẫn 1459
Hit@@ 1458
cẩm 1458
200@@ 1457
Ia 1456
Lox@@ 1456
Nghi@@ 1456
càn 1456
nan@@ 1456
Cyatheaceae 1455
Mariana 1455
Project 1455
eno 1455
plic@@ 1455
1,3 1454
Arach@@ 1454
Plagiochila 1454
ju@@ 1454
ū 1454
opterus 1453
web@@ 1453
yeon 1453
Miy@@ 1452
manni 1452
Venice 1451
AC@@ 1450
Màn 1450
Afr@@ 1449
Piedmont 1449
Vienna 1449
enc@@ 1449
70@@ 1448
Shar@@ 1448
Yuri 1448
750 1447
Abraham 1447
Allo@@ 1447
Cầm 1447
Món 1447
andi 1447
area 1447
panchayat 1447
rus 1447
230 1446
Anom@@ 1446
K.Schum. 1446
Lennon 1446
Meli@@ 1446
Sky@@ 1446
Stewart 1445
dance 1445
urg@@ 1445
wi 1445
SA@@ 1444
dở 1444
iPhone 1444
15,@@ 1443
Zero 1443
aceum 1443
ocen 1443
Caroline 1442
Eury@@ 1442
Forbes 1442
Montenegro 1442
Oliver 1442
ns 1442
obtus@@ 1442
1,8 1441
Inter@@ 1441
nhúng 1441
thoáng 1441
ượng 1441
Elmidae 1440
ace 1440
liu 1440
Augustus 1439
Centaurea 1439
Murray 1439
Phạn 1439
Rhyacophila 1439
lora 1439
wo@@ 1439
Bohemia 1438
Hum@@ 1438
Kastamonu 1438
Wolf 1438
hoi 1438
orn 1438
sac@@ 1438
Au@@ 1437
Khuy@@ 1437
wa@@ 1437
Cyrtandra 1436
Samoa 1436
bu 1436
cir@@ 1436
ili 1436
our@@ 1436
Foundation 1435
Miconia 1435
Ngộ 1435
Tottenham 1435
elip 1435
Leon 1434
Miz@@ 1434
Titan 1434
To 1434
Xi@@ 1434
Dong 1433
Paras@@ 1433
Pul@@ 1433
ẹp 1433
16,@@ 1432
Aleyrodinae 1432
Luther 1432
Ptolemaios 1432
wo 1432
ère 1432
Christ 1431
Jay 1431
Office 1431
Tap@@ 1431
chip 1431
fasciatus 1431
peti@@ 1431
Gram@@ 1430
Alpha 1429
Fin@@ 1429
Zor@@ 1429
arus 1429
rộn 1429
Idi@@ 1428
Ngạc 1428
đùi 1428
bỏng 1427
ei@@ 1427
forme 1427
orth@@ 1427
Ất 1427
Monte 1426
kh 1426
Erythro@@ 1425
Ton@@ 1425
Wood 1425
orpha 1425
đặn 1425
ờn 1425
1,6 1424
144 1424
Macrom@@ 1424
Racosperma 1424
Sph@@ 1424
ogen 1424
Art 1423
Fur@@ 1423
Robinson 1423
achys 1423
alt@@ 1423
lơ 1423
mophila 1423
SO@@ 1422
That 1422
uyện 1422
August 1420
Giê 1420
Hylaeus 1420
ISO 1420
Nixon 1420
Singles 1420
ariaceae 1420
cili@@ 1420
emb@@ 1420
Corse 1419
Crotalaria 1419
Nhì 1419
cro@@ 1419
alg@@ 1418
lén 1418
Chưởng 1417
Line 1417
Nord@@ 1417
blog 1417
eda 1417
xáo 1417
Dipl@@ 1415
iku 1415
AK 1414
eff@@ 1414
mạ 1414
nguyền 1414
Aspidium 1413
Frankfurt 1413
Galium 1413
Glo@@ 1413
Hạc 1413
pharaon 1413
± 1413
ë 1413
280 1412
Out 1412
THPT 1412
CO 1411
zh 1411
ören 1411
đúp 1410
Lên 1409
Nas@@ 1409
Way 1409
grandi@@ 1409
hat@@ 1409
sanh 1409
Austin 1408
Baz@@ 1408
Chẩn 1408
apa 1408
lắc 1408
ocerus 1408
Cừ 1407
Nhưỡng 1407
Shaw 1407
Toản 1407
Seattle 1406
esis 1406
AM@@ 1405
He 1405
Wittmer 1405
equ@@ 1405
gor@@ 1405
plum@@ 1405
sos@@ 1405
tủ 1405
Dactyl@@ 1404
Ses@@ 1404
lem@@ 1404
Xử 1403
ater@@ 1403
ington 1403
Lem@@ 1402
Nomada 1402
census 1402
keo 1402
phô 1402
Cyc@@ 1401
Evans 1401
anthe 1401
Nicaragua 1400
simplex 1400
tr 1400
ess 1398
nad 1398
Phoenix 1397
TT 1397
Valencia 1397
ett@@ 1396
khiếm 1396
mb@@ 1396
Ast@@ 1395
Castro 1395
Sports 1395
lăm 1395
ster 1395
Louisiana 1394
light 1394
tag@@ 1394
Cardot 1393
Dum@@ 1393
ling@@ 1393
Graham 1392
Ray@@ 1390
Trinidad 1390
kiếp 1390
Gir@@ 1389
Jang 1389
Matthew 1389
Roman 1389
hydro@@ 1389
ostigma 1389
1805 1388
AU 1388
Michel 1388
Thảm 1388
cọp 1388
imi@@ 1388
mùng 1388
nit@@ 1388
vid@@ 1388
Kamen 1387
Tráng 1387
unga 1387
Neph@@ 1386
miên 1386
rog@@ 1386
sey 1386
õ 1386
Trạng 1385
tết 1385
đố 1385
Cousinia 1384
cover 1384
gly@@ 1384
nại 1384
Fernando 1383
Liv@@ 1383
Sant 1383
mani 1383
ö@@ 1383
Cự 1382
Global 1382
Gn@@ 1382
Women 1382
bỗng 1382
lossum 1382
Wii 1381
aren@@ 1381
khao 1381
omb@@ 1381
đấm 1381
Central 1380
Gold@@ 1380
giàn 1380
hex@@ 1379
AT@@ 1378
dào 1378
els 1378
mau 1378
5000 1377
Sái 1377
Ut@@ 1377
eb 1377
super@@ 1377
Indigofera 1376
Mesochorus 1376
Wol@@ 1376
epis 1376
né 1376
Agrotis 1375
Had@@ 1375
Ken 1375
xẻ 1375
AN 1374
Charlotte 1374
iflora 1374
vờ 1374
Ther@@ 1373
Florence 1372
acer@@ 1372
mak@@ 1372
pas@@ 1372
răm 1372
17,@@ 1371
Newcastle 1371
Scap@@ 1371
Square 1371
air@@ 1371
medi@@ 1371
topo@@ 1371
ọa 1371
mày 1370
obia 1370
utt@@ 1370
1819 1369
22.@@ 1369
Calyp@@ 1369
phis 1369
Cha@@ 1368
ệp 1368
Chin@@ 1367
Oh@@ 1367
gram 1367
odor@@ 1367
usi@@ 1367
Cairo 1366
Dermestidae 1366
Enicospilus 1366
Jacob 1366
Nokia 1366
RO@@ 1366
eh 1366
oscel@@ 1366
ran 1366
ười 1366
57@@ 1365
Crassulaceae 1365
Festuca 1365
Gymno@@ 1365
Sỹ 1365
able 1365
ghen 1365
nano 1365
neg@@ 1365
Cameron 1364
Schimmel 1364
Stockholm 1364
Air@@ 1363
Denis 1363
Mete@@ 1363
Shō@@ 1363
ast 1363
lès 1363
rom 1363
ím 1363
L.B.Sm. 1362
soi 1362
29,@@ 1361
Cặp 1361
Tat@@ 1361
Trải 1361
Warren 1361
54@@ 1360
90@@ 1360
Janeiro 1360
Kang 1360
iOS 1360
ocephala 1360
ret@@ 1360
ularia 1360
Ing@@ 1359
Isch@@ 1359
doc@@ 1359
ticum 1359
ãnh 1359
→ 1359
Athena 1358
icensis 1358
phar@@ 1358
thóc 1358
260 1357
Hak@@ 1357
Pad@@ 1357
Phanxicô 1357
atis@@ 1357
meri 1357
ochr@@ 1357
Eus@@ 1356
Fus@@ 1356
Goni@@ 1356
Nhược 1356
nium 1356
r. 1356
rac@@ 1355
rel@@ 1355
uga 1355
Drepan@@ 1354
Hoff@@ 1354
Lò 1354
email 1354
trix 1354
Bi 1353
Bo 1353
Constantinopolis 1353
alpha 1353
gro@@ 1352
hẻm 1352
idia 1352
xua 1352
Ho 1351
Hun@@ 1351
Sas@@ 1351
Ưu 1351
Cou@@ 1350
Ha 1350
Psil@@ 1350
Will@@ 1350
Zo@@ 1350
agr@@ 1350
mun@@ 1350
Lo 1349
edia 1349
icea 1349
spin 1349
1,4 1348
1.7@@ 1348
búa 1348
ros 1348
sớ 1348
xu@@ 1348
Chủng 1347
cọc 1347
kẹp 1347
rạc 1347
Án 1347
õ@@ 1347
úa 1347
1818 1346
Iberia 1346
chài 1346
egium 1346
lau 1346
luc@@ 1346
15.000 1345
aug@@ 1345
olobium 1345
Luzon 1344
chinensis 1344
oth 1344
Chưa 1343
Eure 1343
Jur@@ 1343
Linnaeus 1343
Minas 1343
utus 1343
Lặc 1342
Mang 1342
Stor@@ 1342
1.8@@ 1341
Bahrain 1341
Sad@@ 1341
ire 1341
trượng 1341
Fiji 1340
Fiss@@ 1340
CPU 1339
Cic@@ 1339
Rum@@ 1339
Wer@@ 1339
hab@@ 1339
hal 1339
lít 1339
sồi 1338
tes@@ 1338
thối 1338
Diplazium 1337
Dixon 1337
Kentucky 1337
Wall@@ 1337
mía 1337
nhặt 1337
nhồi 1337
trunc@@ 1337
43@@ 1336
Hemer@@ 1336
Montgomery 1336
eles 1336
gởi 1336
ngói 1336
Agro@@ 1335
Daily 1335
teri@@ 1335
ộp 1335
18,@@ 1334
Raw 1334
00@@ 1333
Cephal@@ 1333
Mali 1333
Sound 1333
alar@@ 1333
oj@@ 1333
Gothic 1332
Sarawak 1332
Vor@@ 1332
alpin@@ 1332
chạp 1332
net 1332
1,1 1331
Airways 1331
Trợ 1331
agon@@ 1331
hynch@@ 1331
rosia 1331
1815 1330
itar@@ 1330
117 1329
Lindl. 1329
McCartney 1329
ardi 1329
diana 1329
tẩu 1329
wer@@ 1329
win 1329
Palau 1328
giông 1328
quạ 1328
BTS 1327
Mecklenburg 1327
Nikolai 1327
Stanley 1327
fre@@ 1327
Bernard 1326
Württemberg 1326
chen 1326
iti 1326
omi@@ 1326
Oli@@ 1325
aja 1325
anch@@ 1325
enz@@ 1325
igny 1325
mò 1325
ris@@ 1325
vả 1325
yle 1325
Sherman 1324
occidentalis 1324
ưởi 1324
Strand 1323
Č@@ 1323
Chap@@ 1322
Mitchell 1322
parvi@@ 1322
Atlanta 1321
Dĩ 1321
Slav 1321
lus@@ 1321
Vis@@ 1320
ròng 1320
time 1320
155 1319
Cyan@@ 1319
Georges 1319
Land@@ 1319
Tetragnatha 1319
báng 1319
eros 1319
nica 1319
Jonathan 1318
Tec@@ 1318
Ale@@ 1317
Koz@@ 1317
gy@@ 1317
CEO 1316
Dil@@ 1316
FF 1316
Him@@ 1316
Orthotrichaceae 1316
Reg@@ 1316
Tag@@ 1316
icul@@ 1316
Matt 1315
Polystichum 1315
Vas@@ 1315
Wild 1315
has 1315
yến 1315
Ô@@ 1315
Byr@@ 1314
Ob@@ 1314
è@@ 1314
Shimoga 1313
nin 1313
sz@@ 1313
vỗ 1313
58@@ 1312
Chan 1312
Vernonia 1312
eu 1312
hynchus 1312
End 1311
FM 1311
Tể 1311
eshow 1311
qui 1311
worth 1311
Đống 1311
Acr@@ 1310
Lucanidae 1310
Nay 1310
Johannes 1309
Sparta 1309
chậu 1309
Đổi 1309
IC 1308
Jungerman@@ 1308
Nord 1308
Rwanda 1308
Virgin 1308
giêng 1308
mậu 1308
« 1308
ẻ@@ 1308
Ốc 1308
Mandya 1307
Net@@ 1307
Songs 1307
ces@@ 1307
gul@@ 1307
Nghe 1306
bơ 1306
270 1305
Hunter 1305
Oklahoma 1305
Thìn 1305
cưng 1305
Rhin@@ 1304
igi@@ 1304
nga 1304
ĩa 1304
Bus@@ 1303
Chryso@@ 1303
Hot@@ 1303
Thì 1303
skii 1303
đo@@ 1303
Est@@ 1302
ble@@ 1302
eb. 1302
ectus 1302
esh@@ 1302
leyi 1302
castan@@ 1301
Genève 1300
Justin 1299
Rhododendron 1299
Wat@@ 1299
amin 1299
axis 1299
kíp 1299
vá 1299
CC@@ 1298
Fri@@ 1298
Friese 1298
Anc@@ 1297
Calam@@ 1297
adenia 1297
apicalis 1297
sl@@ 1297
126 1296
Greenland 1296
Hay 1296
Charente 1295
Gold 1295
Miguel 1295
Octavius 1295
riv@@ 1295
Aug@@ 1294
Chrom@@ 1294
England 1294
Glenea 1294
orr@@ 1294
thoả 1294
Dou@@ 1293
arch@@ 1293
die 1293
ding 1293
sik@@ 1293
Ain 1292
Dasy@@ 1292
Syl@@ 1292
Wa@@ 1292
andro@@ 1292
gel@@ 1292
its 1292
my 1292
sing@@ 1292
gene 1291
kel@@ 1291
see 1291
Fo@@ 1290
Gilbert 1290
Kap@@ 1290
Mug@@ 1290
Mysore 1290
Ranh 1290
ople@@ 1290
sho@@ 1290
1814 1289
Boc@@ 1289
Danube 1289
Laur@@ 1289
clar@@ 1289
ectes 1289
fon@@ 1289
low 1289
ting 1289
1804 1288
Aul@@ 1288
Bra@@ 1288
Germain 1288
Kut@@ 1288
Mùi 1288
Ron 1288
Sắt 1288
USA 1288
Urban 1288
Zen@@ 1288
phì 1288
roa 1288
1822 1287
Dạ 1287
Perdita 1287
big@@ 1287
leuco@@ 1287
tua 1287
CCD 1286
Plec@@ 1286
hydr@@ 1286
nhuệ 1286
£ 1286
Cler@@ 1285
Nhiên 1285
urani 1285
1823 1284
Las@@ 1284
Poa 1284
Thỏ 1284
ega 1284
lầu 1284
vọt 1284
Chann@@ 1283
Mimosa 1283
Weber 1283
thuở 1283
vã 1283
175 1282
Dod@@ 1282
FI@@ 1282
Film 1282
Online 1282
Hân 1281
sap@@ 1281
Stalingrad 1280
allus 1280
chén 1280
gramma 1280
Delta 1279
Sau@@ 1279
ciner@@ 1279
nophila 1279
noãn 1279
116 1278
Airbus 1278
albo@@ 1278
boat 1278
AD 1277
Petersburg 1277
edo 1277
122 1276
Attelabidae 1276
Chimarra 1276
Beau@@ 1275
Jo 1275
bir@@ 1275
bot@@ 1275
ret 1275
Chr@@ 1274
hốc 1274
oka 1274
Eo 1273
anag@@ 1273
kiêng 1273
oun 1273
1803 1272
Chín 1272
Commel@@ 1272
Giọng 1272
wen@@ 1272
xis 1272
ượ@@ 1272
ự 1272
Chống 1271
Nham 1271
dam@@ 1271
mit@@ 1271
Ling@@ 1270
toni 1270
Claude 1269
Hermann 1269
Oai 1269
Vo@@ 1269
benz@@ 1269
foot 1269
nm 1269
phot@@ 1269
Got@@ 1268
TTg 1268
antaceae 1268
rea 1268
sỏi 1268
Society 1267
Utah 1267
ửi 1267
Express 1266
Olig@@ 1266
Song@@ 1266
bert 1266
chốn 1266
cằn 1266
oneta 1266
Dioscorea 1265
OH 1265
Ulithi 1265
cù 1264
xiêm 1264
òe 1264
Athyrium 1263
Bosnia 1263
Istanbul 1263
Jose 1263
Psych@@ 1263
lều 1263
điềm 1263
ũng 1263
Baby 1262
Jar@@ 1262
Saur@@ 1262
Who 1262
num 1262
ı@@ 1262
550 1261
Ves@@ 1261
acan@@ 1261
leu@@ 1261
major 1261
Mueang 1260
Say@@ 1260
Táo 1260
chrys@@ 1260
ụy 1260
Actin@@ 1259
Alo@@ 1259
CP@@ 1259
Tức 1259
Weekly 1259
ariidae 1259
rốt 1259
5,5 1258
Campo@@ 1258
Mars 1258
Stevens 1258
Xo@@ 1258
low@@ 1258
Rox@@ 1257
Sco@@ 1257
phao 1257
ylla 1257
Nhằm 1256
bak@@ 1256
ng.@@ 1256
quấn 1256
Gry@@ 1255
Rud@@ 1255
Vegas 1255
enii 1255
oidea 1255
Đồi 1255
Copa 1254
Param@@ 1254
Quyển 1254
Roc@@ 1254
Sega 1254
Sky 1254
bac@@ 1254
lepto@@ 1254
stro@@ 1254
Julia 1253
ander 1253
mu 1253
Jun 1252
khoái 1252
pubescens 1252
Azur 1251
alm@@ 1251
glau@@ 1251
sô 1251
Ż@@ 1251
Giêng 1250
Louise 1250
Ngã 1250
Tìm 1250
Vorpommern 1250
Wak@@ 1250
abus 1250
platy@@ 1250
AI 1249
GR@@ 1249
Hampe 1249
Mr. 1249
Pas 1249
ack@@ 1249
ete 1249
hip@@ 1249
nguội 1249
BC 1248
Hymen@@ 1248
kir@@ 1248
114 1247
123 1247
Brachytheciaceae 1247
Lau@@ 1247
gạt 1247
liêng 1247
tz@@ 1247
Just 1246
nã 1246
syn@@ 1246
AB@@ 1245
Bern@@ 1245
Bồng 1245
Ted 1245
diều 1245
idaceae 1245
inda 1245
Limne@@ 1244
Yokohama 1244
hít 1244
56@@ 1243
Alb@@ 1243
CO2 1243
INSEE 1243
Oise 1243
Tuất 1243
XP 1243
ieri 1243
key 1243
oste@@ 1243
β 1243
Master 1242
Oh 1242
Suzuki 1242
diidae 1242
tei 1242
Đám 1242
1813 1241
Fred 1241
Vốn 1241
Wall 1241
pra@@ 1241
trỗi 1241
đả 1241
Ł@@ 1241
Artemisia 1240
Hon@@ 1240
Jeffrey 1240
Nefer@@ 1240
Ptilod@@ 1240
Panzer 1239
Ti 1239
118 1238
124 1238
145 1238
Himalaya 1238
Leone 1238
hypo@@ 1238
Neg@@ 1237
Ole@@ 1237
back 1237
lec@@ 1237
tụy 1237
xoa 1237
ịp 1237
1817 1236
Earth 1236
imi 1236
lẫy 1236
tab@@ 1236
tak@@ 1236
Fabaceae 1235
Lub@@ 1235
chưởng 1235
hil@@ 1235
kim@@ 1235
vấp 1235
ếng 1235
chilum 1234
cz@@ 1234
Chase 1233
Churchill 1233
Gam@@ 1233
Sainte 1233
WHO 1233
ith 1233
Boris 1232
Glos@@ 1232
Kop@@ 1232
ave@@ 1232
chèn 1232
chưng 1232
Fil@@ 1231
Hè 1231
inatus 1231
may@@ 1231
rid@@ 1231
Boiss 1230
Cơn 1230
Diels 1230
Lot@@ 1230
Manhattan 1230
fin@@ 1230
nagar 1230
Ð@@ 1230
ạ@@ 1230
Birmingham 1229
C.B.Clarke 1229
esch@@ 1229
formes 1229
lun@@ 1229
mod@@ 1229
Chry@@ 1228
Gibraltar 1228
Monroe 1228
Moraceae 1228
Ris@@ 1228
Uông 1228
olimnophila 1228
yar@@ 1228
» 1228
Card@@ 1227
Johnny 1227
Maurice 1227
She@@ 1227
las 1227
.C. 1226
Biết 1226
Eleutherodactylus 1226
Engl. 1226
Hát 1226
aia 1226
ars 1226
gom 1226
nọ 1226
Gynoplistia 1225
aj 1225
ngắt 1225
Anyph@@ 1224
Cher 1224
Hoắc 1224
Hợi 1224
Ngao 1224
Nhái 1224
VN@@ 1224
gil@@ 1224
Armad@@ 1223
Rhine 1223
fum@@ 1223
sic@@ 1223
Opera 1221
Rol@@ 1221
vittata 1221
xuồng 1221
Back 1220
But@@ 1220
Coenagrionidae 1220
Epi@@ 1220
Press 1220
grap@@ 1220
post@@ 1220
Boh@@ 1219
Phóng 1219
bis 1219
elt 1219
onaceae 1219
.f. 1218
Mé@@ 1218
Yan@@ 1218
intermedia 1218
AG 1217
Anhalt 1217
Last 1217
Porcel@@ 1217
Rosa 1217
Tuệ 1217
Vậy 1217
eme 1217
1.9@@ 1215
Arts 1215
NO@@ 1215
Ostr@@ 1215
RAM 1215
Sailor 1215
gin@@ 1215
giòn 1215
Chama@@ 1214
Fire 1214
Lun@@ 1214
Yokosuka 1214
chium 1214
comp@@ 1214
gam 1214
logo 1214
thêu 1214
Ẩm 1214
Aur@@ 1213
Iron 1213
Mozart 1213
phách 1213
qui@@ 1213
Grim@@ 1212
Tước 1212
Urb. 1212
Vang 1212
anos 1212
thoa 1212
thuyên 1212
Brid@@ 1211
Dallas 1211
Pras@@ 1211
Vancouver 1211
kom@@ 1211
onus 1211
siana 1211
ềnh 1211
Ed 1210
MO@@ 1210
Science 1210
Sig@@ 1210
Spilosoma 1210
Dylan 1209
Jacoby 1209
Putin 1209
achya 1209
diệp 1209
dặn 1209
thal@@ 1209
Hypos@@ 1208
búp 1208
gang 1208
occ@@ 1208
trum 1208
Asian 1207
Edwards 1207
1,7 1206
BO@@ 1206
Cheir@@ 1206
Cly@@ 1206
Manche 1206
chồn 1206
yevich 1206
Nặc 1205
begin 1205
má@@ 1205
Dead 1204
Mom@@ 1204
iken 1204
ía 1204
165 1203
Green@@ 1203
Porto 1203
Scr@@ 1203
Yu 1203
esp@@ 1203
kai 1203
trèo 1203
1775 1202
Bân 1202
Fraser 1202
IS@@ 1202
ellip@@ 1202
tw@@ 1202
Billy 1201
Quỷ 1201
Syng@@ 1201
củ@@ 1201
pend@@ 1201
sex@@ 1201
Đán 1201
Pink 1200
R.M. 1200
vor@@ 1200
ưỡng 1200
Dro@@ 1199
NG 1199
Oz@@ 1199
SBS 1199
Uttar 1199
ann 1199
cens 1199
iae 1199
igera 1199
sat@@ 1199
eto 1198
eville 1198
ngỗng 1198
64@@ 1197
Amar@@ 1197
aena 1197
aine 1197
art@@ 1197
gn@@ 1197
pet 1197
Cooper 1196
Teucholabis 1196
endr@@ 1196
stric@@ 1196
23.@@ 1195
6,5 1195
Nhiễm 1195
Prix 1195
Thấy 1195
Whit@@ 1195
Wit@@ 1195
caud@@ 1195
pora 1195
Ambl@@ 1194
Ann 1194
Bartr@@ 1194
ame@@ 1194
53@@ 1193
67@@ 1193
75@@ 1193
Leuco@@ 1193
asc@@ 1193
br. 1193
ode 1193
ì@@ 1193
Amaur@@ 1192
Leon@@ 1192
Marc 1192
Raf@@ 1192
Silesia 1192
anella 1192
igo 1192
sign@@ 1192
ư@@ 1192
7,5 1191
Chel@@ 1191
buông 1191
dei 1191
http 1191
i.@@ 1191
náu 1191
ĩnh 1191
Palearctic 1190
Res@@ 1190
cau@@ 1190
lab@@ 1190
Salix 1189
Sher@@ 1189
insularis 1189
­ 1189
č 1189
Đứng 1189
公 1189
1788 1188
Pau@@ 1188
kình 1188
lossa 1188
Bour@@ 1187
Broth 1187
Dru@@ 1187
Forest 1187
Kent 1187
Thompson 1187
loãng 1187
meth@@ 1187
rad@@ 1187
Çorum 1187
Gary 1186
Schefflera 1186
cari@@ 1186
mannia 1186
suki 1186
use 1186
Berberis 1185
Black@@ 1185
Chúc 1185
Saf@@ 1185
Ster@@ 1185
eder@@ 1185
hria 1185
sha 1185
ặp 1185
Cad@@ 1184
Nhượng 1184
Sofia 1184
kun@@ 1184
sam 1184
studio 1184
uke 1184
121 1183
Holttum 1183
Pleurothallis 1183
Selen@@ 1183
Vig@@ 1183
obus 1183
onn@@ 1183
trói 1183
Buch@@ 1182
Gió 1182
Sek@@ 1182
anom@@ 1182
ats@@ 1182
Đúng 1182
Book 1181
Phil 1181
cacbonat 1181
stri@@ 1181
tiaceae 1181
Gabon 1180
Masdevallia 1180
Nakhon 1180
nanh 1180
ovi 1180
òn 1180
Corydalis 1179
Dậu 1179
Gaon 1179
IM@@ 1179
Tos@@ 1179
mont 1179
Choi 1178
Dứa 1178
ES@@ 1178
Prim@@ 1178
RA@@ 1178
Thuỵ 1178
gol@@ 1178
ngạo 1178
ochrysa 1178
vẹt 1178
God@@ 1177
Lyc@@ 1177
Nicolas 1177
Typh@@ 1177
ambus 1177
fish 1177
pri@@ 1177
yana 1177
Krông 1176
Ou@@ 1176
Thuột 1176
Catocala 1175
Gas@@ 1175
Mauritius 1175
abrus 1175
achia 1175
aster@@ 1175
Dean 1174
Timberlake 1174
alla 1174
atrix 1174
dere 1174
ento 1174
istis 1174
lướt 1174
mar 1174
Aloe 1173
Kê 1173
Nob@@ 1173
Oliv@@ 1173
UBTVQH14 1173
vướng 1173
Connecticut 1172
Kosovo 1172
AL 1171
Christina 1171
Midway 1171
NE@@ 1171
tsch@@ 1171
DP 1170
FDA 1170
Oxytropis 1170
chóp 1170
iba 1170
leg@@ 1170
pit@@ 1170
pus@@ 1170
trệ 1170
Calcio 1169
Down 1169
Kho 1169
Pak@@ 1169
Western 1169
obscura 1169
747 1168
Fleutiaux 1168
Ngang 1168
Oxyopes 1168
Platia 1168
Sub@@ 1168
aw 1168
hét 1168
Fuj@@ 1167
Holmes 1167
Sào 1167
TN@@ 1167
agin@@ 1167
lửng 1167
strig@@ 1167
uridae 1167
ươi 1167
Alder@@ 1166
Galicia 1166
Gerais 1166
Nương 1166
Or 1166
Portland 1166
Vịt 1166
Bông 1165
Garden 1165
Hốt 1165
Rid@@ 1165
\ 1165
nii 1165
30,@@ 1164
Ball 1164
Empire 1164
Tá 1164
eck 1164
ìn 1164
146 1163
Moldova 1163
Rak@@ 1163
ascens 1163
form@@ 1163
ể@@ 1163
Boul@@ 1162
Clo@@ 1162
photon 1162
Agri@@ 1161
Ery@@ 1161
Thal@@ 1161
天@@ 1161
Aisne 1160
Leopold 1160
Peterburg 1160
catus 1160
cren@@ 1160
tuỳ 1160
Fern@@ 1159
Jennifer 1159
Mid@@ 1159
Nadu 1159
Page 1159
Phor@@ 1159
cu 1159
ely 1159
longic@@ 1159
lợp 1159
rep@@ 1159
ser 1159
tas@@ 1159
tepe 1159
xế 1159
300.000 1158
Ges@@ 1158
Quyên 1158
ibn 1158
Berg 1157
CM 1157
dos 1157
olle 1157
uri@@ 1157
Journal 1156
VN 1156
ingia 1156
sangu@@ 1156
win@@ 1156
Đuôi 1156
Moh@@ 1155
Sparassidae 1155
astus 1155
elin 1155
ornata 1155
row 1155
thớt 1155
Ú@@ 1155
Lic@@ 1154
Web@@ 1154
fen@@ 1154
inctus 1154
Hudson 1153
Ian 1153
LV@@ 1153
R.Br. 1153
chui 1153
della 1153
did@@ 1153
formos@@ 1153
gầm 1153
hổng 1153
ley@@ 1153
test@@ 1153
tit@@ 1153
132 1152
Beijing 1152
Tiều 1152
chor@@ 1152
laria 1152
phàn 1152
pidia 1152
1792 1151
Busan 1151
DA 1151
Dolich@@ 1151
Toại 1151
Xếp 1151
aman 1151
chê 1151
obo@@ 1151
Ele@@ 1150
Hugo 1150
endron 1150
ç@@ 1150
68@@ 1149
Animation 1149
Bros. 1149
Suốt 1149
centr@@ 1149
dre@@ 1149
sand@@ 1149
Staur@@ 1148
VI@@ 1148
ander@@ 1148
bau@@ 1148
omia 1148
pygma@@ 1148
Agr@@ 1147
Sửu 1147
plagi@@ 1147
sưng 1147
Et@@ 1146
Rhaphid@@ 1146
Středočeský 1146
ppus 1146
650 1145
actus 1145
bích 1145
landia 1145
onic 1145
otia 1145
tria 1145
Are 1144
Mello 1144
Polycentr@@ 1144
kara 1144
Heidelberg 1143
John@@ 1143
Montana 1143
Soul 1143
Takahashi 1143
ingi 1143
25.000 1142
Ane@@ 1142
Cac@@ 1142
Cannes 1142
Copenhagen 1142
Mác 1142
odendron 1142
pınar 1142
ửu 1142
Baroque 1141
aco 1141
ango 1141
Xinglong 1140
thâu 1140
ườ@@ 1140
100@@ 1139
ano@@ 1139
illy 1139
oniscus 1139
rus@@ 1139
tí@@ 1139
ẹn 1139
， 1139
Ecnom@@ 1138
Singh 1138
Ward 1138
Wed@@ 1138
pta 1138
wel@@ 1138
Christ@@ 1137
Oman 1137
Saipan 1137
florus 1137
nhở 1137
Steyerm. 1136
dig@@ 1136
oux 1136
ror@@ 1136
Monaco 1135
Pickard 1135
Thận 1135
cryp@@ 1135
dh@@ 1135
pinn@@ 1135
Khám 1134
Spir@@ 1134
aina 1134
mek@@ 1134
opyga 1134
uka 1134
zo@@ 1134
1808 1133
eth 1133
lev@@ 1133
nes@@ 1133
sko 1133
lie 1132
1.200 1131
Athletic 1131
Aulac@@ 1131
Hách 1131
etti@@ 1131
hyun 1131
itz@@ 1131
ngoạn 1131
oke 1131
www.@@ 1131
Carol 1130
Pedi@@ 1130
Pholcidae 1130
Sul 1130
bạt 1130
Log@@ 1129
gamma 1129
Ceph@@ 1128
Hưu 1128
Das@@ 1127
Duc@@ 1127
Khoái 1127
Rhin 1127
Uro@@ 1127
Butler 1126
Flor@@ 1126
ale@@ 1126
def@@ 1126
las@@ 1126
Albums 1125
Sus@@ 1125
liêu 1125
lộng 1125
mes 1125
stein@@ 1125
Mez 1124
Stere@@ 1124
evo 1124
him 1124
kas@@ 1124
tric 1124
Điệu 1124
CT 1123
Lupinus 1123
abad 1123
chồi 1123
muôn 1123
ves@@ 1123
Academy 1122
Harold 1122
Merr 1122
Parker 1122
Spar@@ 1122
anicus 1122
bei 1122
CC 1121
End@@ 1121
nigra 1121
ớn 1121
SK 1120
Xanthorhoe 1120
dạt 1120
hara 1120
185 1119
225 1119
Bristol 1119
Nhai 1119
Phry@@ 1119
Quê 1119
auranti@@ 1119
hyper@@ 1119
25.@@ 1118
Brothers 1118
LA 1118
Sac@@ 1118
alov 1118
Cyn@@ 1117
Hiroshi 1117
Lindsa@@ 1117
People 1117
atti 1117
beri 1117
cera 1117
chầu 1117
khốn 1117
tru@@ 1117
wit@@ 1117
Chao 1116
Cin@@ 1116
Ernst 1116
Metro 1116
Tru@@ 1116
Zeus 1116
rạng 1116
Đầm 1116
Chikmagalur 1115
Cucurbitaceae 1115
Ixora 1115
Malpighiaceae 1115
Weise 1115
kon@@ 1115
Jon 1114
Rangers 1114
Top@@ 1114
Vành 1114
dil@@ 1114
Leucania 1113
Zy@@ 1113
24.@@ 1112
Bourbon 1112
Dend@@ 1112
1807 1111
Nom@@ 1111
Wah@@ 1111
aza 1111
trac@@ 1111
vin 1111
Belgaum 1110
Campbell 1110
Hills 1110
cephala 1110
inck 1110
ơm 1110
Ang 1109
Seg@@ 1109
oti 1109
330 1108
Clar@@ 1108
Tay 1108
Yamato 1108
atidae 1108
capensis 1108
otheca 1108
Trag@@ 1107
hop@@ 1107
sục 1107
Bond 1106
By 1106
Leonard 1106
Mắt 1106
PH@@ 1106
erythro@@ 1106
mand@@ 1106
Rob. 1105
dev@@ 1105
fa 1105
nhung 1105
pulch@@ 1105
Gấu 1104
Idol 1104
Marco 1104
ana@@ 1104
eci@@ 1104
hap@@ 1104
mắng 1104
wol@@ 1104
Fel@@ 1103
Trừ 1103
Tý 1103
ghê 1103
olia 1103
rơm 1103
thiếc 1103
toan 1103
ờm 1103
19@@ 1102
AD@@ 1102
Gnoph@@ 1102
Phấn 1102
Tỉ 1102
nhẹn 1102
12.000 1101
59@@ 1101
66@@ 1101
Abdul 1101
Bow@@ 1101
Clay 1101
Rafael 1101
corn@@ 1101
let@@ 1101
yu@@ 1101
Bửu 1100
Manisa 1100
Sto@@ 1100
Sống 1100
bey 1100
gracil@@ 1100
house 1100
khiên 1100
longifolia 1100
podium 1100
Ana 1099
Generation 1099
O2 1099
Ormosia 1099
ose 1099
uel@@ 1099
129 1098
Agrypnus 1098
Aut@@ 1098
Cyrus 1098
Of 1098
Pand@@ 1098
Rey 1098
Sanh 1098
Sic@@ 1098
Gab@@ 1097
Roberts 1097
Stars 1097
Versailles 1097
Voss 1097
cac@@ 1097
chót 1097
nến 1097
Hin@@ 1096
Ridl. 1096
anae 1096
gươm 1096
omitrium 1096
sab@@ 1096
spa 1096
Ž@@ 1096
文@@ 1096
Sec@@ 1095
imbr@@ 1095
ks@@ 1095
osticta 1095
136 1094
iventris 1094
ocal@@ 1094
ä@@ 1094
Emma 1093
Hôm 1093
Laura 1093
Lisa 1093
Phí 1093
Pse@@ 1093
kệ 1093
triang@@ 1093
ửng 1093
30.@@ 1092
Eug@@ 1092
Pacific 1092
mon 1092
nitrat 1092
rem@@ 1092
ticollis 1092
xylum 1092
2,4 1091
abi 1091
longipes 1091
Die 1090
Harms 1090
Suy 1090
aema 1090
amer@@ 1090
grandis 1090
idum 1090
2.500 1089
Tan 1089
capit@@ 1089
rufi@@ 1089
ulaceae 1089
viridis 1089
2.0 1088
Bonaparte 1088
Dave 1088
Emilia 1088
Eugen 1088
FK 1088
Seleukos 1088
achus 1088
EA 1087
Glyph@@ 1087
Kind@@ 1087
hinus 1087
Free 1086
alidae 1086
ean 1086
Aden@@ 1085
Chester 1085
Franco 1085
egi@@ 1085
japonica 1085
ner@@ 1085
tenus 1085
26.@@ 1084
D.C. 1084
Eph@@ 1084
His@@ 1084
MA 1084
NA 1084
Nửa 1084
Tectariaceae 1084
Tik@@ 1084
alanthus 1084
hen 1084
lom@@ 1084
marginata 1084
Comics 1083
LO@@ 1083
Rec@@ 1083
Hokkaidō 1082
Say 1082
khỏa 1082
ochil@@ 1082
2,3 1081
Cleopatra 1081
Dip@@ 1081
Nhập 1081
SS@@ 1081
asp@@ 1081
bet@@ 1081
chẵn 1081
rey 1081
Lou@@ 1080
Niger 1080
gland@@ 1080
nas@@ 1080
Castel@@ 1079
Cuc@@ 1079
Phillips 1079
Philopotamidae 1079
Tot@@ 1079
doạ 1079
gei 1079
m2 1079
orn@@ 1079
201@@ 1078
Ajax 1078
Bath@@ 1078
Cardiophorus 1078
Dong@@ 1078
Thun@@ 1078
but 1078
lốc 1078
omel@@ 1078
wer 1078
ER 1077
Trans@@ 1077
Wel@@ 1077
air 1077
134 1076
1816 1076
Bailey 1076
CV@@ 1076
rang 1076
shi 1076
Ăn 1076
How 1075
Kiện 1075
LP 1075
asciata 1075
ence 1075
ike 1075
99@@ 1074
Calvin 1074
Mất 1074
Space 1074
Tội 1074
Willis 1074
Yos@@ 1074
ones 1074
rug@@ 1074
stel@@ 1074
1758 1073
Isaac 1073
Ras@@ 1073
Rhi@@ 1073
emus 1073
hisp@@ 1073
kaya 1073
nghẽn 1073
tubercul@@ 1073
tỳ 1073
đốn 1073
119 1072
Cối 1072
Westminster 1072
emis 1072
nhuyễn 1072
vượn 1072
Oricon 1071
Party 1071
Plectr@@ 1071
Taraxacum 1071
chry@@ 1071
opoda 1071
rod@@ 1071
Trâu 1070
assi@@ 1070
nản 1070
Nhữ 1069
SI 1069
Store 1069
app@@ 1069
t. 1069
uli 1069
ș@@ 1069
Ahmed 1068
Eg@@ 1068
Nep@@ 1068
PT@@ 1068
Sakura 1068
clip 1068
este 1068
teryx 1068
tát 1068
Crawford 1067
Masters 1067
Phys@@ 1067
Tax@@ 1067
fe@@ 1067
gon 1067
ngả 1067
rans 1067
yal@@ 1067
đô@@ 1067
737 1066
Ev@@ 1066
Fujiwara 1066
Honda 1066
Hymenophyllum 1066
audi@@ 1066
ocly@@ 1066
vãn 1066
young 1066
zy 1066
ň@@ 1066
Mount 1065
Nec@@ 1065
bã 1065
mp@@ 1065
trỏ 1065
uda 1065
Bia 1064
Ronaldo 1064
Smil@@ 1064
elas 1064
har 1064
other@@ 1064
ren 1064
zel@@ 1064
28.@@ 1063
Bermuda 1063
Comp@@ 1063
For 1063
Jessica 1063
Zopheridae 1063
apatna 1063
poli@@ 1063
sải 1063
sầu 1063
tiễu 1063
CS@@ 1062
Guy 1062
IA 1062
Normandy 1062
Reagan 1062
Wur@@ 1062
alc@@ 1062
ids 1062
Schwarz 1061
aff@@ 1061
ds 1061
Bolus 1060
Hughes 1060
Now 1060
TV3 1060
bridge 1060
entris 1060
hee 1060
nạt 1060
quỵ 1060
tatus 1060
AB 1059
Angel 1059
Kobe 1059
cạo 1059
ery 1059
iTunes 1059
sig@@ 1059
Hunt 1058
Hắn 1058
Mordella 1058
Works 1058
bịt 1058
ings 1058
nụ 1058
85@@ 1057
Ceri@@ 1057
Cran@@ 1057
Metacritic 1057
Reed 1057
collis 1057
Bruno 1056
Electric 1056
Libellulidae 1056
Sương 1056
Trai 1056
ovice 1056
ī 1056
Boz@@ 1055
Phàn 1055
Ptych@@ 1055
illaria 1055
isii 1055
ễm 1055
137 1054
1798 1054
Hav@@ 1054
Kav@@ 1054
Nạn 1054
Thorell 1054
choàng 1054
hoe 1054
Brooklyn 1053
Dật 1053
Nab@@ 1053
Penn@@ 1053
Philippine 1053
Voi 1053
ophy@@ 1053
Gustav 1052
IP@@ 1052
Pep@@ 1052
Tox@@ 1052
ović 1052
que@@ 1052
rỗi 1052
rộ 1052
troph@@ 1052
́ 1052
Dre@@ 1051
Ernest 1051
Sentai 1051
Vỏ 1051
a.@@ 1051
chích 1051
eler 1051
lax@@ 1051
As 1050
Erzurum 1050
Scir@@ 1050
aha 1050
king 1050
TP.@@ 1049
alan@@ 1049
bea 1049
ferum 1049
keri 1049
oloma 1049
otea 1049
Ful@@ 1048
Houten 1048
Theraphosidae 1048
Ty 1048
kil@@ 1048
ová 1048
235 1047
Andre@@ 1047
BA 1047
Cul@@ 1047
Dominica 1047
Nancy 1047
culus 1047
cước 1047
luộc 1047
ox 1047
69@@ 1046
Cyclosorus 1046
Edinburgh 1046
Nhậm 1046
liềm 1046
ostylis 1046
Enterprise 1045
Liệu 1045
Rou@@ 1045
Terry 1045
Thui@@ 1045
Trichost@@ 1045
acuti@@ 1045
bank 1045
mut@@ 1045
ŏ@@ 1045
Khe 1044
Ltd 1044
plex 1044
unctata 1044
Bật 1043
Christmas 1043
Khi@@ 1043
Let 1043
Rhein 1043
SEA 1043
live 1043
pos 1043
rum 1043
1790 1042
Barry 1042
Meuse 1042
Spruce 1042
ecký 1042
neur@@ 1042
pop@@ 1042
Eugene 1041
Grace 1041
Gyeong@@ 1041
Jeff 1041
MI@@ 1041
Von 1041
kè 1041
wang 1041
Đo@@ 1041
Riv@@ 1040
Trừng 1040
Tấm 1040
auch@@ 1040
Dob@@ 1039
Serb 1039
Stap@@ 1039
Vượt 1039
angustifolia 1039
xót 1039
1799 1038
matius 1038
omor@@ 1038
sula 1038
tif@@ 1038
tran@@ 1038
Đóng 1038
157 1037
MS@@ 1037
Wes@@ 1037
adia 1037
dorf 1037
ep 1037
pir@@ 1037
King@@ 1036
Mây 1036
eae 1036
vern@@ 1036
Trigon@@ 1035
arginata 1035
azi 1035
Cory@@ 1034
Cuatrec. 1034
Vic@@ 1034
ocalyx 1034
pô 1034
vác 1034
Amata 1033
Kel@@ 1033
Ligue 1033
Punjab 1033
Yar@@ 1033
hiên 1033
ib 1033
lẻo 1033
othrix 1033
Ś@@ 1033
Elatostema 1032
F1 1032
Mão 1032
Olios 1032
elongata 1032
trig@@ 1032
Eilema 1031
Gö@@ 1031
Moltke 1031
Necker@@ 1031
Teodor 1031
cạp 1031
lờ 1031
141 1030
206 1030
Cole@@ 1030
Grove 1030
Hebrew 1030
Hell@@ 1030
Rai 1030
Rovers 1030
Scandinavia 1030
ask@@ 1030
1600 1029
Medi@@ 1029
Nielsen 1029
Wor@@ 1029
sum@@ 1029
Ưng 1029
Bìm 1028
Chùm 1028
Hiroshima 1028
Liu 1028
Ngọn 1028
Oon@@ 1028
Sing@@ 1028
ellaceae 1028
ogyne 1028
view 1028
HT@@ 1027
Sug@@ 1027
Tajikistan 1026
astes 1026
orhiza 1026
tir@@ 1026
Đéc 1026
214 1025
Broadway 1025
Dj@@ 1025
Gyrinidae 1025
IF@@ 1025
Selaginella 1025
Silla 1025
ayan 1025
omma 1025
oug@@ 1025
Georg 1024
Monolepta 1024
Myc@@ 1024
Sah@@ 1024
Samsun 1024
TNHH 1024
USB 1024
Zhang 1024
sima 1024
sưởi 1024
AV@@ 1023
Neil 1023
Poc@@ 1023
Wars 1023
ecia 1023
taceae 1023
uria 1023
vùi 1023
Athyriaceae 1022
Cole 1022
Magazine 1022
Philodromus 1022
Xà 1022
phiện 1022
ygia 1022
2,2 1021
Fas@@ 1021
Leipzig 1021
Rech@@ 1021
Sper@@ 1021
indica 1021
ore@@ 1021
sấm 1021
tụt 1021
vất 1021
Ác 1021
1809 1020
Amphi@@ 1020
Ankara 1020
Dysdera 1020
Hur@@ 1020
Scel@@ 1020
ise 1020
ket@@ 1020
ylon 1020
Aj@@ 1019
Andr@@ 1019
Kok@@ 1019
Magn@@ 1019
amphoe 1019
ariensis 1019
atri@@ 1019
bella 1019
samurai 1019
ume 1019
の@@ 1019
Liberia 1018
Our@@ 1018
Pass@@ 1018
ark@@ 1018
ecker 1018
ệch 1018
Chị 1017
Quắn 1017
dul@@ 1017
nucle@@ 1017
Aristolochia 1016
Bryan 1016
Euch@@ 1016
Xylo@@ 1016
inidae 1016
opti@@ 1016
205 1015
Dolichopeza 1015
Fed@@ 1015
esti@@ 1015
pidium 1015
simum 1015
sson 1015
tỏi 1015
ọ@@ 1015
Blu 1014
Diễm 1014
Syrphidae 1014
Thüringen 1014
chl@@ 1014
cum@@ 1014
otti 1014
pauci@@ 1014
tra@@ 1014
ya@@ 1014
zen@@ 1014
000@@ 1013
Nagasaki 1013
dé@@ 1013
eira 1013
mexicana 1013
131 1012
Death 1012
Mare 1012
Sầm 1012
alan 1012
asper@@ 1012
ester 1012
kol@@ 1012
ozi@@ 1012
philipp@@ 1012
phỉ 1012
Cross 1011
H2O 1011
Od@@ 1011
Over@@ 1011
Pier@@ 1011
Rhodes 1011
Turkmenistan 1011
bra 1011
chil@@ 1011
ers@@ 1011
xavan 1011
ố@@ 1011
Helichrysum 1010
Nadal 1010
Rhy@@ 1010
Spin@@ 1010
ges 1010
nêm 1010
trân 1010
urn@@ 1010
Bây 1009
Euphyia 1009
LE@@ 1009
Limited 1009
Lip@@ 1009
Mud@@ 1009
Spears 1009
ston 1009
tip@@ 1009
€ 1009
Cirsium 1008
Cân 1008
Tiễn 1008
emi 1008
fem@@ 1008
robusta 1008
tad@@ 1008
ướ@@ 1008
Belle 1007
Dni@@ 1007
MG 1007
Magic 1007
Marseille 1007
Nhảy 1007
Scar@@ 1007
Tou@@ 1007
agara 1007
arpa 1007
lặc 1007
ngây 1007
ulifera 1007
CL@@ 1006
Gos@@ 1006
Lot 1006
Nên 1006
Sybra 1006
Thú 1006
athus 1006
chăng 1006
emp@@ 1006
niaceae 1006
Gomphidae 1005
Pax 1005
Prosopo@@ 1005
ago@@ 1005
amaz@@ 1005
cúc 1005
tos 1005
0,1 1004
21@@ 1004
Brad@@ 1004
CE@@ 1004
GM 1004
Pou@@ 1004
bury 1004
Ả@@ 1004
133 1003
Bah@@ 1003
Carlo 1003
FBI 1003
Gan@@ 1003
Hama 1003
Helena 1003
Oed@@ 1003
Thomson 1003
Zel@@ 1003
culidae 1003
sax@@ 1003
Bung@@ 1002
Coelioxys 1002
Princess 1002
Southern 1002
flu@@ 1002
thera 1002
147 1001
Giảng 1001
Main 1001
Pho@@ 1001
bim@@ 1001
lay 1001
sinu@@ 1001
ụp 1001
27.@@ 1000
Blackburn 1000
abe 1000
abris 1000
cược 1000
imum 1000
tetr@@ 1000
211 999
Emmy 999
aan 999
lon@@ 999
pid@@ 999
ru 999
trũng 999
Aub@@ 998
Hall@@ 998
Malaya 998
Wallace 998
chrysa 998
sộ 998
76@@ 997
Gulbarga 997
Hus@@ 997
Tamerlan 997
Tha 997
dì 997
ellum 997
etto 997
hydroxide 997
nhấp 997
pusilla 997
rati@@ 997
rif@@ 997
rio 997
ulatum 997
Arnold 996
Cleveland 996
Firmino 996
Ori@@ 996
Rama 996
Rein@@ 996
aequ@@ 996
endorf 996
lania 996
tuồng 996
1811 995
Berkeley 995
IGN 995
Jakarta 995
Leu@@ 995
Mancha 995
Natri 995
SP 995
Tad@@ 995
Leptodactylidae 994
Mercury 994
Nạp 994
Tord 994
atina 994
carpus 994
oppa 994
pec@@ 994
pound 994
Tốn 993
Yak 993
Zar@@ 993
allo@@ 993
fi 993
Elaeocarpus 992
Rot@@ 992
Ruiz 992
prol@@ 992
vata 992
ylis 992
ởm 992
Crystal 991
Polytrich@@ 991
Stand@@ 991
alium 991
aut@@ 991
isha 991
kov@@ 991
opil@@ 991
143 990
Gad@@ 990
Libnotes 990
Nephrodium 990
nei 990
rantha 990
′ 990
138 989
Champ@@ 989
ianum 989
ourea 989
punctatus 989
Adel@@ 988
Conte 988
Kiy@@ 988
LC 988
veri 988
đàng 988
Ceb@@ 987
Eriocaulon 987
Hampshire 987
Hedw 987
Quái 987
Wy@@ 987
dica 987
Acinodendron 986
Ames 986
Hou@@ 986
ics 986
oud 986
uba 986
vứt 986
zan@@ 986
148 985
Ig@@ 985
Monte@@ 985
cori@@ 985
ime 985
sw@@ 985
Ẩn 985
Andro@@ 984
Bobby 984
Conn@@ 984
Fall 984
Khóa 984
SH@@ 984
Từng 984
xách 984
C.Presl 983
Kraenz@@ 983
Zodariidae 983
astrea 983
kyi 983
å@@ 983
Đê 983
208 982
Barbula 982
Italy 982
Punk 982
Simpson 982
Summer 982
Thuở 982
alis@@ 982
bìm 982
irostris 982
olaena 982
Andes 981
R.M.King 981
gos@@ 981
lách 981
tilis 981
xát 981
Chàng 980
DOS 980
Leptotarsus 980
Oanh 980
bri@@ 980
cons@@ 980
ige 980
203 979
Bề 979
Trentepohlia 979
odo@@ 979
schi@@ 979
Acalypha 978
Hope 978
Hul@@ 978
Lucy 978
lineata 978
pis@@ 978
202 977
Armstrong 977
Guardian 977
Nin@@ 977
Ravenna 977
Viet@@ 977
itrium 977
rose@@ 977
thii 977
turbine 977
Burundi 976
Core 976
Yếu 976
ussia 976
woo 976
209 975
Explorer 975
Hyun 975
Lycosa 975
Marion 975
PS@@ 975
Springs 975
hio 975
hyp@@ 975
méo 975
trick 975
Barr@@ 974
Guyana 974
Rac@@ 974
Spr@@ 974
Yong 974
ocor@@ 974
skyi 974
Algeria 973
DT 973
Fabricius 973
Fe 973
laev@@ 973
less 973
let 973
Grap@@ 972
Luna 972
Rab@@ 972
Wall. 972
Xin 972
halli 972
kw@@ 972
Hart 971
Holt 971
Ramesses 971
lute@@ 971
opy@@ 971
Chos@@ 970
Hydropsyche 970
Lop@@ 970
Lut@@ 970
Newfoundland 970
Wagner 970
nới 970
rách 970
tiế@@ 970
Andrea 969
Biden 969
Khoan 969
Uh@@ 969
Yuk@@ 969
fel@@ 969
gea 969
kare 969
oridae 969
ớm 969
English 968
Nish@@ 968
ograp@@ 968
salis 968
Fighter 967
Jerry 967
Steel 967
Vượng 967
awi 967
ifolius 967
tex@@ 967
Đập 967
Ống 967
ỗng 967
29.@@ 966
Aaron 966
And@@ 966
Faso 966
Ronald 966
lị 966
rufescens 966
ráo 966
4000 965
atop@@ 965
flava 965
310 964
Bass@@ 964
Geneva 964
Lòng 964
Naruto 964
Oecetis 964
Three 964
marketing 964
thophora 964
unicolor 964
Burkina 963
Erioptera 963
Lane 963
MP@@ 963
Mey. 963
Palace 963
Service 963
enna 963
fica 963
orii 963
162 962
Aguilera 962
Desmi@@ 962
Hu 962
Pun@@ 962
Sumer 962
asii 962
Agap@@ 961
Alexandre 961
Bridge 961
Happy 961
Loc@@ 961
RE@@ 961
aji 961
bùa 961
cám 961
eidae 961
jan 961
oly@@ 961
stan@@ 961
yria 961
168 960
Balıkesir 960
Eriocaulaceae 960
Knight 960
Lie@@ 960
Moldenke 960
Rudolf 960
SN@@ 960
rech@@ 960
stone 960
Charleston 959
Fos@@ 959
Mệnh 959
Orleans 959
Year 959
hột 959
igata 959
195 958
256 958
Anisodes 958
Bosna 958
Liberty 958
Not 958
Tasmania 958
ener 958
ngỏ 958
oceph@@ 958
ted 958
ưới 958
Aesch@@ 957
Baly 957
Cô@@ 957
Hoch@@ 957
Kurd 957
Path@@ 957
Stuart 957
Trichomanes 957
atis 957
els@@ 957
hon@@ 957
ilo 957
ix 957
mata 957
trọ 957
yov 957
Ö@@ 957
Youtube 956
amiaceae 956
ýt 956
Holland 955
Laurent 955
NBA 955
blemma 955
cholesterol 955
laris 955
uất 955
Herzog 954
Húc 954
Phế 954
Saudi 954
Sob@@ 954
Vary 954
cken@@ 954
format 954
magn@@ 954
ophytum 954
77@@ 953
Berg@@ 953
Cândido 953
Củ 953
Embrik 953
Um@@ 953
arab@@ 953
nov 953
rae 953
Alberto 952
Fairmaire 952
Pell@@ 952
ả@@ 952
ộ@@ 952
1200 951
Dub@@ 951
Lorraine 951
Phe 951
Pyrausta 951
Tetragnathidae 951
amba 951
teris 951
ー@@ 951
156 950
Niedersachsen 950
acuminata 950
evsky 950
ichneumon 950
ocentr@@ 950
sulfide 950
Bau@@ 949
Mod@@ 949
dẻ 949
elis 949
nana 949
Cáo 948
Edition 948
Franch@@ 948
Kn@@ 948
Leitão 948
Spi@@ 948
estia 948
maculatus 948
ophi@@ 948
ovii 948
quadri@@ 948
370 947
Pop@@ 947
Rural 947
cy 947
hay@@ 947
his@@ 947
ovina 947
pers@@ 947
virid@@ 947
ơng 947
ắng 947
Atlas 946
Ctenus 946
Everton 946
Field 946
Nephrotoma 946
Panicum 946
Scler@@ 946
Yoo 946
ator@@ 946
ogr@@ 946
unif@@ 946
142 945
CI@@ 945
Hogna 945
Yoon 945
abri@@ 945
baz@@ 945
ecus 945
phor@@ 945
154 944
Caribbean 944
Ped@@ 944
junc@@ 944
text 944
uf@@ 944
viridi@@ 944
Asi@@ 943
Camp 943
Kashmir 943
Leicester 943
Open@@ 943
VTV 943
Viking 943
arina 943
ft@@ 943
ifrons 943
oki 943
otata 943
Ardennes 942
Gekkonidae 942
Huy@@ 942
Linda 942
Rhab@@ 942
Stu@@ 942
Won 942
dich@@ 942
ehr 942
sut@@ 942
Collins 941
Scutellaria 941
ciidae 941
jug@@ 941
ngào 941
omena 941
ont 941
ver 941
Battle 940
Institute 940
Jima 940
Link 940
Lund@@ 940
Suez 940
mid@@ 940
oll@@ 940
vector 940
Amy 939
Ham 939
Morris 939
ceol@@ 939
eter 939
insignis 939
ocentrus 939
215 938
Aspid@@ 938
Voice 938
estrogen 938
hiy@@ 938
mao 938
Arm@@ 937
Federer 937
Foster 937
Neb@@ 937
Sean 937
Tit@@ 937
cad@@ 937
ch. 937
illata 937
kha 937
sdorf 937
tissima 937
AA 936
Dhar@@ 936
Gian 936
Lib@@ 936
Poh@@ 936
Seo 936
Tiêm 936
brasiliensis 936
her 936
idens 936
sinensis 936
war 936
Aderus 935
Botswana 935
Note 935
acanthus 935
hin 935
humilis 935
neb@@ 935
rubr@@ 935
Cla@@ 934
Erigeron 934
Palermo 934
Sn@@ 934
abi@@ 934
ass 934
sak@@ 934
139 933
38.@@ 933
Del 933
Portsmouth 933
Trứng 933
mich@@ 933
punk 933
tron 933
viol@@ 933
1786 932
Abdullah 932
Poaceae 932
Saxifraga 932
fu 932
igidae 932
ogramma 932
sumatr@@ 932
tịnh 932
ych@@ 932
Dz@@ 931
Già 931
Lak@@ 931
NH@@ 931
PL@@ 931
Phoen@@ 931
ẹ 931
Band 930
Barneby 930
Hannibal 930
Pant@@ 930
Sed@@ 930
Zi@@ 930
ady 930
ikawa 930
oryc@@ 930
pach@@ 930
Acron@@ 929
European 929
Hadena 929
RI@@ 929
Vy@@ 929
bag@@ 929
by@@ 929
errima 929
teen 929
ńsko 929
Cant@@ 928
Child 928
Müller 928
Sihanouk 928
acaceae 928
mol 928
Dùng 927
Gem@@ 927
Kaiser 927
Tảo 927
Virus 927
elles 927
loides 927
trach@@ 927
153 926
A.S.@@ 926
EC 926
Kod@@ 926
Wells 926
enzym 926
305 925
84@@ 925
Gul@@ 925
Helen 925
Lima 925
Siph@@ 925
UAE 925
core@@ 925
esus 925
lebia 925
parti@@ 925
res 925
yer@@ 925
Calym@@ 924
Colletes 924
Delaware 924
Mart. 924
Sphec@@ 924
Turridae 924
Yale 924
ecium 924
ươn 924
176 923
32,@@ 923
Calvados 923
Force 923
RA 923
bergii 923
ped@@ 923
tẻ 923
33,@@ 922
Colombo 922
Gom@@ 922
Rubiaceae 922
Ve@@ 922
Yer@@ 922
ingi@@ 922
nú@@ 922
osema 922
skaya 922
Bologna 921
Haf@@ 921
Ivan@@ 921
Loir 921
chir@@ 921
if 921
pera 921
pres@@ 920
88@@ 919
API 919
Gồm 919
Mitsubishi 919
Savoie 919
Whitney 919
ange 919
violin 919
zek 919
201 918
Joan 918
Vriesea 918
amangala 918
idium 918
umo 918
võng 918
Chiang 917
Euler 917
Geotrupidae 917
Lach@@ 917
Mnet 917
Nong 917
Willd. 917
Z.@@ 917
istes 917
quark 917
Family 916
Hau@@ 916
Kuala 916
TA 916
Tell 916
Tet@@ 916
anni 916
aticus 916
uyển 916
380 915
C2 915
Dr. 915
Hispanic 915
Krish@@ 915
Pérez 915
Veneto 915
azu 915
ept@@ 915
iculatus 915
oric 915
zel 915
Aqu@@ 914
Atlético 914
JTWC 914
Mohammed 914
Mou@@ 914
Trâm 914
antho@@ 914
concert 914
dot@@ 914
thom@@ 914
3.0@@ 913
Hotspur 913
Single 913
Tō@@ 913
niệu 913
ostemon 913
suff@@ 913
2,6 912
63@@ 912
Delphinium 912
Jump 912
Phyllo@@ 912
Tower 912
thorax 912
Kah@@ 911
Lloyd 911
Lob@@ 911
dist@@ 911
fluoride 911
yen@@ 911
Bunge 910
Kate 910
Phì 910
Tib@@ 910
Vista 910
ellatus 910
evi@@ 910
ilic 910
Dennstaed@@ 909
gon@@ 909
iscidae 909
mach@@ 909
ngu 909
ochus 909
ores 909
Quebec 908
Take 908
myr@@ 908
Bom 907
Minsk 907
Sur 907
Tommy 907
Uz@@ 907
coron@@ 907
inaceae 907
miaceae 907
mô@@ 907
ospora 907
Ayutthaya 906
NBC 906
Silene 906
emma 906
golf 906
khăng 906
ult@@ 906
Cob@@ 905
Eun 905
Phnom 905
Tarn 905
glu@@ 905
lymph@@ 905
oh 905
ragma 905
tara 905
子 905
Ever@@ 904
Nan 904
eyi 904
ous@@ 904
spr@@ 904
tier 904
uno 904
151 903
Andrei 903
CR@@ 903
Fa@@ 903
NT@@ 903
Tus@@ 903
spar@@ 903
60.000 902
Fol@@ 902
RT@@ 902
SmackDown 902
Teen 902
Zan@@ 902
eron 902
ettia 902
int 902
Brom@@ 901
Gardner 901
Hugh 901
SK@@ 901
Thel@@ 901
anak@@ 901
hot@@ 901
nick 901
Ampedus 900
Capitol 900
Cli@@ 900
Hass@@ 900
Now@@ 900
Philodendron 900
Plus 900
Southampton 900
aver@@ 900
fa@@ 900
hot 900
ment 900
world 900
Apamea 899
Tang@@ 899
Volga 899
tốp 899
Chen@@ 898
Crete 898
Eud@@ 898
MBC 898
Mont 898
Ptinidae 898
SARS 898
peduncul@@ 898
stell@@ 898
yeong 898
ượu 898
AV 897
Bút 897
Cảo 897
Floyd 897
Phili@@ 897
card 897
chan 897
cio 897
erg@@ 897
iculatum 897
oscyphus 897
sess@@ 897
Corn@@ 896
Lancaster 896
Prion@@ 896
Zyg@@ 896
nav@@ 896
Aus@@ 895
Edgar 895
Four 895
HP 895
RS 895
Research 895
Rihanna 895
Silver 895
Stanford 895
kar 895
monticola 895
quer@@ 895
óa 895
174 894
Alps 894
Cry@@ 894
charis 894
ches 894
ensi@@ 894
fol@@ 894
gar 894
heli 894
192 893
2025 893
Cherny@@ 893
Owen 893
Syr@@ 893
enda 893
fusca 893
sol 893
vulus 893
za@@ 893
ø@@ 893
ː 893
212 892
Captain 892
Hautes 892
Pedley 892
Sib@@ 892
Tokat 892
eia 892
insk 892
zen 892
ự@@ 892
安@@ 892
Aderidae 891
PP 891
Secret 891
Spencer 891
cops 891
day 891
fas@@ 891
iva 891
minuta 891
odi 891
onne 891
pris 891
Ê@@ 891
ế@@ 891
186 890
Amer@@ 890
Novgorod 890
QG 890
Rommel 890
eil@@ 890
new 890
oneur@@ 890
sta@@ 890
ậu 890
480 889
AKB48 889
Ant@@ 889
Jer@@ 889
Kạn 889
N.E.Br. 889
Parap@@ 889
lik 889
ostemma 889
tt@@ 889
Anton 888
Campanula 888
Château 888
Lockheed 888
Mau@@ 888
Maxim@@ 888
bek 888
eol@@ 888
eurodes 888
ors 888
pag@@ 888
toides 888
uana 888
Chitradurga 887
Cra@@ 887
Felipe 887
Luz@@ 887
ME@@ 887
NT 887
Nile 887
PO@@ 887
par 887
zu@@ 887
Hemi@@ 886
Phot@@ 886
Reitter 886
Television 886
dang 886
dir@@ 886
duc@@ 886
fat 886
ushi 886
ysia 886
1700 885
340 885
Bahamas 885
Croat 885
Hesper@@ 885
Iris 885
dum 885
odonta 885
ovi@@ 885
sus@@ 885
ˈ@@ 885
1787 884
Batt@@ 884
Rogers 884
Thebes 884
Tmarus 884
brunne@@ 884
vat@@ 884
氏 884
74@@ 883
Oro@@ 883
PR 883
Sevilla 883
into 883
olobus 883
Inca 882
Us@@ 882
also 882
andr@@ 882
iton 882
zer@@ 882
子@@ 882
1791 881
275 881
Alt@@ 881
Campania 881
District 881
Norte 881
Rev@@ 881
Tae 881
Zh@@ 881
Zhukov 881
arist@@ 881
aye 881
oon 881
pilosa 881
Fleisch@@ 880
Noth@@ 880
dioc@@ 880
onga 880
plasma 880
rostr@@ 880
rur@@ 880
syl@@ 880
º@@ 880
ươu 880
164 879
AI@@ 879
Jesus 879
Scytodes 879
Teph@@ 879
oc 879
172 878
204 878
Diana 878
Dusona 878
Garay 878
MB 878
Ost@@ 878
amea 878
ault 878
com 878
lies 878
pect@@ 878
phthalm@@ 878
umbr@@ 878
Pyc@@ 877
eter@@ 877
icro@@ 877
scut@@ 877
sel 877
thesaban 877
290 876
Cord@@ 876
DI 876
Philippos 876
SL@@ 876
Sebastian 876
euc@@ 876
1793 875
Alto 875
Idlib 875
Lad@@ 875
Lath@@ 875
Pall@@ 875
Switch 875
TE@@ 875
U. 875
abar@@ 875
semi@@ 875
then@@ 875
uer@@ 875
Dortmund 874
Game@@ 874
Hid@@ 874
Ix@@ 874
Mountain 874
Nev@@ 874
Phyllon@@ 874
Poecil@@ 874
caerul@@ 874
cosa 874
fasci@@ 874
incer@@ 874
ophilus 874
philidae 874
ulina 874
Age 873
Coast 873
Guinness 873
Joyce 873
Mab@@ 873
Mason 873
Messi 873
Reh@@ 873
Shah@@ 873
allia 873
amonia 873
bracte@@ 873
gib@@ 873
have 873
phosphat 873
ē@@ 873
Bin@@ 872
DV@@ 872
Ilex 872
Jag@@ 872
Mae 872
Pay@@ 872
YG 872
lav 872
ár@@ 872
Xyloc@@ 871
angi 871
eg 871
giana 871
had@@ 871
muban 871
nd@@ 871
Cost@@ 870
Garcinia 870
Harvey 870
Hô 870
Ju 870
Konya 870
Leeds 870
Rubus 870
Standard 870
Teut@@ 870
borne@@ 870
ello@@ 870
vii 870
Felix 869
Torres 869
amide 869
0,6 868
Agath@@ 868
ario 868
delic@@ 868
ici 868
law 868
ond 868
ẽ@@ 868
1794 867
Anura 867
Dublin 867
Eisenhower 867
God 867
Ron@@ 867
Trin@@ 867
gracili@@ 867
out@@ 867
Jae 866
Jin@@ 866
Mini 866
NCH 866
Sabah 866
States 866
aim@@ 866
fimbri@@ 866
had 866
lenbergia 866
183 865
207 865
Harpac@@ 865
Heteropoda 865
angu@@ 865
chon 865
het 865
jō 865
mail 865
manni@@ 865
ocarpum 865
Macar@@ 864
Morrison 864
Sheeran 864
Small 864
gata 864
ovka 864
đu@@ 864
2,8 863
Abe 863
Amp@@ 863
Deb@@ 863
Galileo 863
Troch@@ 863
asci@@ 863
aun@@ 863
Chand@@ 862
Omar 862
Soph@@ 862
Sund@@ 862
ante 862
brunnea 862
carya 862
tius 862
189 861
Doraemon 861
Haz@@ 861
Kou@@ 861
Poznań 861
Sicily 861
Tig@@ 861
Watanabe 861
af 861
ail@@ 861
atea 861
aurus 861
visual 861
167 860
221 860
Ashley 860
BP 860
Draba 860
Maur@@ 860
Princeton 860
Roberto 860
lanceolata 860
孝@@ 860
Alexandra 859
Aristotle 859
Big@@ 859
Diyarbakır 859
ER@@ 859
Eragrostis 859
Geranium 859
Nis@@ 859
dida 859
lava 859
oz 859
phan@@ 859
000.000 858
850 858
Eut@@ 858
Genti@@ 858
Medina 858
Nhu@@ 858
Yorkshire 858
ilen 858
lov 858
École 858
Angkor 857
Bull 857
Cylin@@ 857
Rachel 857
Software 857
Zer@@ 857
chrom@@ 857
dreadnought 857
iec 857
lung 857
opodium 857
173 856
Aster@@ 856
Conan 856
Gig@@ 856
Gri@@ 856
Lov@@ 856
Powell 856
Ryukyu 856
left 856
ophrys 856
217 855
Cyph@@ 855
DE@@ 855
onalis 855
water 855
35,@@ 854
Bursa 854
Columbus 854
Good@@ 854
Habr@@ 854
Há@@ 854
Iwo 854
Kro@@ 854
Mazurskie 854
More 854
SD@@ 854
WTA 854
Warn@@ 854
adula 854
aud 854
dos@@ 854
ody@@ 854
sui 854
ác@@ 854
238 853
Bit@@ 853
Dipo@@ 853
Murphy 853
Qaeda 853
Republic 853
There 853
Tran@@ 853
entia 853
osta 853
phone 853
tn@@ 853
xy 853
ổng 853
0,2 852
0,3 852
Acid 852
Lobelia 852
Panther 852
Venus 852
optila 852
Atlantic 851
Cau@@ 851
Eniwetok 851
Gov@@ 851
Koh@@ 851
Rog@@ 851
Todd 851
ocryp@@ 851
ogo 851
179 850
Alberta 850
Karak@@ 850
Pascal 850
Sey@@ 850
alea 850
icifolia 850
0,8 849
163 849
Brussels 849
Gall@@ 849
Helicop@@ 849
Mill 849
Non 849
Pti@@ 849
agar 849
onda 849
terus 849
Clara 848
ST 848
Toyota 848
Zak@@ 848
box 848
hwa 848
indi@@ 848
opodidae 848
picta 848
rub@@ 848
spic@@ 848
325 847
Kai 847
Verde 847
Xyl@@ 847
antes 847
ioides 847
madagascariensis 847
phyr@@ 847
rat@@ 847
steroid 847
Clin@@ 846
Dioc@@ 846
Saw@@ 846
adensis 846
eryth@@ 846
online 846
orb@@ 846
pium 846
ươm 846
Chak@@ 845
Copelatus 845
Jay@@ 845
Maxwell 845
Morton 845
Sheffield 845
VO@@ 845
siaceae 845
ycidae 845
Belize 844
Kurt 844
Stic@@ 844
tao 844
õng 844
Colum@@ 843
Korea 843
Nepti@@ 843
Puy 843
hiro 843
istan 843
laur@@ 843
lipid 843
med@@ 843
皇后 843
Isabella 842
Leonardo 842
Sant@@ 842
Stefan 842
Sud@@ 842
avi 842
cylindr@@ 842
nemis 842
184 841
199 841
Aren@@ 841
Elâzığ 841
Mohamed 841
Pra@@ 841
Tek@@ 841
ated 841
dera 841
geri 841
hirsuta 841
olim@@ 841
thor@@ 841
193 840
9.000 840
Bahia 840
Glenn 840
Hey@@ 840
Nad@@ 840
SL 840
Togo 840
orhina 840
stedt 840
Baccharis 839
Bod@@ 839
Capo@@ 839
Never 839
Planck 839
Viola 839
alta 839
ations 839
cal 839
ceph@@ 839
hak@@ 839
iyah 839
olana 839
spath@@ 839
unk@@ 839
Akira 838
Bar 838
Chamberlin 838
Lumpur 838
Was@@ 838
africana 838
densi@@ 838
itta 838
met 838
proctus 838
pun@@ 838
stachys 838
222 837
420 837
Alliance 837
Instagram 837
Nel@@ 837
Palae@@ 837
Peters 837
Vienne 837
cham@@ 837
Aston 836
Cyb@@ 836
Kabul 836
Kre@@ 836
Len@@ 836
Sl@@ 836
Sphagnum 836
West@@ 836
ats 836
mah@@ 836
style 836
8,5 835
Glasgow 835
Kütahya 835
Marina 835
cru@@ 835
stach@@ 835
177 834
Falcon 834
Fu 834
Mez@@ 834
Nguy 834
Parac@@ 834
SE 834
Sophie 834
pachy@@ 834
án@@ 834
Days 833
Diplo@@ 833
Doctor 833
Koster@@ 833
Marcel 833
Movie 833
Phra 833
Productions 833
Raman@@ 833
asha 833
hav@@ 833
ig 833
ingo 833
Indom@@ 832
Luang 832
Yozgat 832
alyx 832
ingensis 832
inski 832
lach@@ 832
178 831
2,7 831
CT@@ 831
Elena 831
Nass@@ 831
anea 831
aon 831
nidae 831
obi 831
omerus 831
osi 831
wak@@ 831
Bavaria 830
Business 830
Chun 830
Khan@@ 830
Nations 830
Nur@@ 830
Tel 830
asu 830
lifera 830
tenuis 830
½ 830
Cordia 829
Five 829
Logan 829
Maximilian 829
Nau@@ 829
Oslo 829
Phone 829
Run 829
Woman 829
ego 829
gic 829
orrhiza 829
uyết 829
vn 829
yia 829
Bradford 828
Luk@@ 828
Ornith@@ 828
Passiflora 828
istra 828
ott 828
元@@ 828
166 827
1776 827
262 827
Campylo@@ 827
Chit@@ 827
Cru@@ 827
Inga 827
Karen 827
Shik@@ 827
Sty@@ 827
Suz@@ 827
Takeshi 827
Wyoming 827
glucose 827
illi 827
lax 827
plec@@ 827
ypter@@ 827
Cun@@ 826
Lazio 826
Ricardo 826
Spil@@ 826
atra 826
aurea 826
cá@@ 826
dollar 826
lamys 826
ymus 826
308 825
Cus@@ 825
Ehr@@ 825
Hyl@@ 825
Pec@@ 825
Rhode 825
Sha@@ 825
esiidae 825
manii 825
mollis 825
pov 825
uto 825
182 824
265 824
365 824
Caledonia 824
Eleph@@ 824
Phae@@ 824
Rotten 824
Yaz@@ 824
aica 824
ao@@ 824
nev@@ 824
Adele 823
Clarke 823
Damascus 823
Erich 823
Mirage 823
Money 823
Nymph@@ 823
Oa 823
Sunni 823
aire 823
alpina 823
antenn@@ 823
urga 823
öy 823
Band@@ 822
Ferguson 822
Fro@@ 822
Kov@@ 822
Tay@@ 822
fran@@ 822
BAFTA 821
Eb@@ 821
Gra@@ 821
Loranthaceae 821
Lu 821
cadion 821
carp@@ 821
yeri 821
Aki@@ 820
Beograd 820
Brest 820
Cola 820
Metz 820
Orlando 820
Pero 820
Proc@@ 820
Trachy@@ 820
Vent@@ 820
acanth@@ 820
eland 820
enne 820
icans 820
oca 820
oter@@ 820
rhom@@ 820
wr@@ 820
Baill@@ 819
Kras@@ 819
Tanaka 819
Til@@ 819
Zach@@ 819
board 819
caria 819
â@@ 819
228 818
95@@ 818
Bern 818
Box 818
Chia 818
Loa 818
Rang 818
Saussurea 818
Spe@@ 818
Sv@@ 818
decor@@ 818
wor@@ 818
Rub@@ 817
akov 817
atom@@ 817
gó@@ 817
kus@@ 817
magni@@ 817
nitida 817
š 817
ấ@@ 817
300@@ 816
Cri@@ 816
Henderson 816
LG 816
M1 816
Oen@@ 816
Stigmella 816
acula 816
aes@@ 816
val 816
ỷ@@ 816
34,@@ 815
Africa 815
Dios@@ 815
Duke 815
Face 815
Incheon 815
Myl@@ 815
Pros@@ 815
Sym@@ 815
ifer@@ 815
tsch 815
tt 815
ớp 815
Augusta 814
Essex 814
Hanover 814
López 814
Neos@@ 814
Troia 814
anense 814
elea 814
ew 814
tonia 814
vet@@ 814
ynia 814
Yi 813
aphyl@@ 813
asta 813
eba 813
fron@@ 813
kel 813
linear@@ 813
squam@@ 813
Brun@@ 812
Cent@@ 812
Gandhi 812
Grey 812
Hydr@@ 812
Muk@@ 812
Naples 812
Smolensk 812
comment 812
ege 812
esh 812
ocharis 812
thiop@@ 812
ợi 812
223 811
3,2 811
98@@ 811
Rocky 811
Sardinia 811
atta 811
das 811
edr@@ 811
oscelis 811
osi@@ 811
otoma 811
Eritrea 810
GNU 810
Jorge 810
Raich@@ 810
With 810
anger 810
kie 810
rotundi@@ 810
1795 809
181 809
188 809
Bali 809
Khal@@ 809
Kham 809
aut 809
etz@@ 809
gren 809
sev 809
ợ@@ 809
武@@ 809
CL 808
Cron@@ 808
Eagle 808
Edge 808
Morning 808
Rhyac@@ 808
Richmond 808
Saxony 808
Sweet 808
flavescens 808
insulin 808
kea 808
Adelaide 807
App@@ 807
Ağrı 807
Calamus 807
Dict@@ 807
Herschel 807
Nice 807
Server 807
Yen@@ 807
agi@@ 807
attenu@@ 807
insul@@ 807
todon 807
ysi@@ 807
Calabria 806
Cichlidae 806
Cricetidae 806
Soo 806
Ural 806
enger 806
luk 806
vertic@@ 806
Dein@@ 805
Paran@@ 805
Scotia 805
ahara 805
cord@@ 805
kowski 805
osma 805
pha@@ 805
quy@@ 805
rao 805
tipes 805
trin@@ 805
劉@@ 805
Beautiful 804
Herac@@ 804
Ibrahim 804
Wat 804
arach@@ 804
gutt@@ 804
iella 804
lap@@ 804
mark 804
opelma 804
sav@@ 804
tila 804
196 803
36,@@ 803
Hex@@ 803
PL 803
Pitcair@@ 803
Seb@@ 803
Station 803
arbor@@ 803
bergi 803
ná 803
sy 803
ères 803
198 802
Dick 802
lot 802
oralis 802
ort@@ 802
taxi 802
xo 802
304 801
Bas 801
Gru@@ 801
Jab@@ 801
Jal@@ 801
Zon@@ 801
latus 801
owska 801
Gros@@ 800
Id@@ 800
Keith 800
colspan 800
plac@@ 800
78@@ 799
Camus 799
Casey 799
Cinnamomum 799
Din 799
Ko 799
Tham@@ 799
Visual 799
Wembley 799
Yoshi@@ 799
acu@@ 799
grandiflora 799
head 799
opeltis 799
xus 799
Argyro@@ 798
Dah@@ 798
Elo@@ 798
KBS 798
Major 798
Mesol@@ 798
Olivier 798
Ono 798
Post@@ 798
Roh@@ 798
opal@@ 798
ord 798
ç 798
Blood 797
CONCACAF 797
Stipa 797
t.@@ 797
éc@@ 797
149 796
Andaman 796
Assam 796
Bamb@@ 796
Craig 796
Cum@@ 796
Dir@@ 796
Hideyoshi 796
Kenneth 796
Linkin 796
Lus@@ 796
Roy@@ 796
Trel@@ 796
cyclo@@ 796
ineatus 796
ingu@@ 796
seri 796
255 795
After 795
Djokovic 795
Gdańsk 795
Get 795
MHz 795
Pres@@ 795
Shakespeare 795
anot@@ 795
atensis 795
dina 795
iei 795
iss 795
lucida 795
ml 795
olor 795
pallidi@@ 795
Sara 794
See 794
Tyler 794
ael@@ 794
arensis 794
cas 794
iz 794
mph 794
type 794
variegata 794
158 793
Gaz@@ 793
Hussein 793
IT@@ 793
MIT 793
Microl@@ 793
Nagoya 793
Northern 793
Saxon 793
Yor@@ 793
bracteata 793
dag@@ 793
ecki 793
enburg 793
noides 793
teaser 793
171 792
Camb@@ 792
Gav@@ 792
Montreal 792
Passalidae 792
demo 792
latifolia 792
tac@@ 792
tur 792
Buk@@ 791
Celtic 791
Edmund 791
Nin 791
Raz@@ 791
lima 791
og 791
ophilidae 791
rag@@ 791
Ế@@ 791
1782 790
213 790
Acan@@ 790
Baltimore 790
Navarre 790
Roth@@ 790
epi@@ 790
gne 790
oceros 790
wh@@ 790
ậ@@ 790
Indian 789
TT@@ 789
Uni@@ 789
apr@@ 789
leya 789
Cym@@ 788
Juncus 788
Kau@@ 788
Thom@@ 788
ave 788
c.@@ 788
chap@@ 788
cuspid@@ 788
ider@@ 788
iwa 788
montanus 788
ocha@@ 788
ovir@@ 788
recur@@ 788
shō@@ 788
1783 787
38,@@ 787
Hawk 787
Justicia 787
Lud@@ 787
Wh@@ 787
atin@@ 787
speciosa 787
var 787
én@@ 787
1772 786
191 786
31.@@ 786
Aircraft 786
Arist@@ 786
Basque 786
Beyoncé 786
Jen@@ 786
abo@@ 786
caliber 786
celeb@@ 786
das@@ 786
dict@@ 786
mati@@ 786
tosa 786
ub 786
་ 786
219 785
Anto@@ 785
Bh@@ 785
Pablo 785
Pag@@ 785
Pedicularis 785
Pristimantis 785
Stade 785
Symp@@ 785
Vosges 785
alata 785
dolich@@ 785
schn@@ 785
187 784
197 784
Buck 784
Callic@@ 784
Drake 784
Hip@@ 784
Jules 784
Keyserling 784
Name 784
aenidae 784
esti 784
ket 784
marmor@@ 784
net@@ 784
Epis@@ 783
García 783
Hood 783
Kob@@ 783
Than@@ 783
Ueda 783
acar@@ 783
ifer 783
igan 783
municipal 783
wiki 783
Dist@@ 782
Fag@@ 782
PM 782
aklı 782
anya 782
ben 782
cke 782
culata 782
limb@@ 782
striata 782
tat@@ 782
two 782
1797 781
CE 781
Nassau 781
Rep@@ 781
Sunday 781
Tau@@ 781
ader 781
apis 781
eir@@ 781
lex@@ 781
methyl 781
ology 781
star 781
ás 781
Barb@@ 780
LED 780
Polynesia 780
Senior 780
Yay@@ 780
amo 780
eris 780
lepis 780
paris 780
sag@@ 780
ững 780
Abraxas 779
Boy@@ 779
Jih@@ 779
Josh 779
Miranda 779
Pavel 779
Today 779
ampa 779
icera 779
spinosa 779
toph@@ 779
ỗn 779
Agel@@ 778
Aphan@@ 778
Casablanca 778
Hello 778
Sénégal 778
esz@@ 778
grise@@ 778
ková 778
phr@@ 778
明@@ 778
312 777
Hannover 777
Margin@@ 777
Microm@@ 777
Rz@@ 777
SM@@ 777
Shor@@ 777
aphne 777
bou@@ 777
gom@@ 777
ianus 777
,@@ 776
Adobe 776
Deep 776
Dodson 776
Garr@@ 776
Theodore 776
Zhu 776
cium 776
off@@ 776
sius 776
High@@ 775
Horn 775
Mardin 775
Nach@@ 775
Saxifrag@@ 775
Warmi@@ 775
ceps 775
confer@@ 775
icolor 775
itaria 775
ocnemis 775
parviflora 775
ở@@ 775
Antig@@ 774
BT@@ 774
Penang 774
Tomatoes 774
Triple 774
XH 774
ache 774
aira 774
discolor 774
ej 774
elo 774
icor@@ 774
oxylon 774
poides 774
400.000 773
767 773
79@@ 773
Bob@@ 773
Glau@@ 773
Jeanne 773
TR@@ 773
Torre 773
Unix 773
cius 773
enf@@ 773
hPa 773
linia 773
mose 773
noc@@ 773
tog@@ 773
ứu 773
Chang@@ 772
Cry 772
Danny 772
Laboissiere 772
René 772
Sánchez 772
imoto 772
omera 772
ypus 772
AK@@ 771
Century 771
Challenge 771
Coen@@ 771
Ryd@@ 771
Second 771
Stachys 771
angus@@ 771
wia 771
ém 771
0,4 770
161 770
Cros@@ 770
NH3 770
Seiji 770
Sergei 770
Shan 770
otricha 770
over@@ 770
rin 770
sophila 770
team 770
ǎ@@ 770
AG@@ 769
Braun 769
Gaul 769
Québec 769
endrum 769
osph@@ 769
tie 769
Bois 768
Epicauta 768
Lug@@ 768
Rob 768
Vach@@ 768
Zaragoza 768
jam@@ 768
megal@@ 768
vers@@ 768
194 767
Afro@@ 767
Computer 767
Detroit 767
Erig@@ 767
Kri@@ 767
Pang@@ 767
Pos@@ 767
Sol 767
Soyuz 767
Taş@@ 767
hae 767
opsidae 767
37,@@ 766
Dial@@ 766
Stan@@ 766
tatum 766
verru@@ 766
zer 766
Andhra 765
BT 765
Bella 765
Clematis 765
Didy@@ 765
Erik 765
Genova 765
SD 765
Stanisław 765
Stark 765
V.League 765
aphy@@ 765
aur 765
deser@@ 765
etr@@ 765
natha 765
schmi@@ 765
ựu 765
Liber@@ 764
Lynch 764
Saturn 764
debut 764
nive@@ 764
ophis 764
rubri@@ 764
track 764
If 763
OVA 763
Pha@@ 763
Polygala 763
Porter 763
enst@@ 763
interrup@@ 763
mim@@ 763
sac 763
shi@@ 763
ulidae 763
226 762
3,3 762
Chelon@@ 762
Grevillea 762
Nacional 762
lers 762
tibi@@ 762
was@@ 762
ü@@ 762
250.000 761
Euclid 761
João 761
Lythr@@ 761
Maharashtra 761
Oaxaca 761
amph@@ 761
eola 761
mop@@ 761
oniella 761
ophylax 761
phae@@ 761
yard 761
150.000 760
Akh@@ 760
Fab@@ 760
Herceg@@ 760
Human 760
Management 760
alı 760
peri@@ 760
sta 760
tap@@ 760
ık@@ 760
三@@ 760
440 759
Homo 759
Liliaceae 759
Muh@@ 759
SU 759
auge 759
lik@@ 759
modesta 759
para 759
peptide 759
rain 759
suy@@ 759
89@@ 758
Bolu 758
Chion@@ 758
Gironde 758
Lily 758
Orchidaceae 758
Oth@@ 758
Ret@@ 758
Shimizu 758
eaceae 758
edon 758
itsu 758
ses 758
tar 758
Brachyth@@ 757
Dennis 757
Fletcher 757
NCT 757
Neom@@ 757
Special 757
Sunderland 757
Yuki 757
cri@@ 757
eas@@ 757
ebra 757
elma 757
enor@@ 757
glabra 757
group 757
litis 757
oliaceae 757
ulin 757
234 756
Antalya 756
Idaho 756
Jr. 756
Latino 756
Mecca 756
Pseu@@ 756
VC 756
commune 756
ictus 756
mene 756
obu 756
232 755
Elisabeth 755
Neoc@@ 755
Ong 755
Penh 755
Sheikh 755
cricket 755
lasi@@ 755
polis 755
rah 755
169 754
Aci@@ 754
Bauhinia 754
Comic 754
Liparis 754
Over 754
Paolo 754
RT 754
Turk 754
ank@@ 754
humer@@ 754
nch@@ 754
opterygidae 754
wald 754
ymb@@ 754
Eva 753
Hok@@ 753
Kyrgyzstan 753
Seung 753
Shipbuilding 753
Troglo@@ 753
Uran@@ 753
epia 753
etz 753
fun@@ 753
159 752
2023 752
Lion 752
Nero 752
Wrocław 752
Yon@@ 752
mucron@@ 752
rim@@ 752
39,@@ 751
Ahmad 751
Bactr@@ 751
Benn@@ 751
Gambia 751
Köppen 751
McDonald 751
Scythia 751
pan 751
430 750
Alopec@@ 750
Antoine 750
CF 750
Emily 750
How@@ 750
Malacca 750
Metal@@ 750
Out@@ 750
Stuttgart 750
amii 750
anthemum 750
ister 750
onicus 750
onymus 750
parall@@ 750
phyllus 750
red@@ 750
yas@@ 750
1,9 749
Amur 749
Má@@ 749
Polyg@@ 749
chal@@ 749
ferruginea 749
glob@@ 749
mix@@ 749
oster@@ 749
tas 749
Born 748
CNN 748
Chan@@ 748
Fischer 748
Microt@@ 748
ROM 748
Roland 748
Wan 748
Wanderers 748
phorus 748
3,6 747
Cabrera 747
Graf 747
Mark@@ 747
Mohammad 747
Pip@@ 747
Woo 747
apar@@ 747
chem 747
ikov 747
pac@@ 747
phal@@ 747
remix 747
rodes 747
् 747
Cath@@ 746
Kursk 746
Rut@@ 746
Sophia 746
Systems 746
Ultra 746
Wellington 746
atilis 746
bid@@ 746
gir@@ 746
illaris 746
omer@@ 746
optery@@ 746
osti@@ 746
sheim 746
them@@ 746
u.@@ 746
Bé@@ 745
Fukuoka 745
Perrier 745
Raven 745
acco 745
cut@@ 745
cú@@ 745
lata 745
oblong@@ 745
ogly@@ 745
oso 745
pulchra 745
umani 745
Cyrto@@ 744
Francesco 744
aron 744
ayana 744
bol 744
book 744
dent@@ 744
ight 744
obliqu@@ 744
reticulata 744
tomentosa 744
yunnanensis 744
316 743
Bail@@ 743
Betty 743
Carib@@ 743
Johnston 743
Kopp@@ 743
Laden 743
Michelle 743
Orne 743
Pseudoc@@ 743
Xy@@ 743
auer 743
bart 743
obi@@ 743
ń 743
Chau@@ 742
Esp@@ 742
JMA 742
Kannada 742
Knowles 742
Sedum 742
Werner 742
alay@@ 742
avia 742
epus 742
fasc@@ 742
icula 742
simus 742
vv 742
és 742
Airy 741
Hotel 741
Nog@@ 741
anni@@ 741
ball 741
ck@@ 741
conc@@ 741
kow@@ 741
ment@@ 741
nos@@ 741
onema 741
87@@ 740
Anem@@ 740
Anglo 740
Cass 740
Ech@@ 740
IL 740
IOC 740
Ono@@ 740
abin 740
agon 740
ally 740
cifolia 740
gre@@ 740
hiz@@ 740
mirabilis 740
ồm 740
BS 739
Drive 739
Lost 739
bell@@ 739
horn 739
media 739
777 738
RAF 738
ink 738
sche 738
vittatus 738
254 737
Doubs 737
Gentiana 737
Kaliningrad 737
Lea 737
Plymouth 737
ares 737
egr@@ 737
evi 737
imit@@ 737
orea 737
run 737
ẳ@@ 737
ỏng 737
Asura 736
Head 736
Ibn 736
Sphecidae 736
arcu@@ 736
artia 736
asim@@ 736
nigrescens 736
olabis 736
pulchella 736
rix 736
vas@@ 736
yam@@ 736
yap@@ 736
Çay@@ 736
Brisbane 735
Papilio 735
coch@@ 735
frigate 735
tril@@ 735
Beg@@ 734
Cu 734
Forster 734
GO@@ 734
Meurthe 734
RC 734
Ranunculus 734
Władysław 734
acumin@@ 734
nak@@ 734
227 733
279 733
Art@@ 733
Brah@@ 733
Donn@@ 733
Hardy 733
Joachim 733
Lopez 733
Myrmel@@ 733
NV 733
Phantom 733
Trotsky 733
Verd@@ 733
Wrestling 733
ata@@ 733
divar@@ 733
grac@@ 733
which 733
Çanakkale 733
ă 733
A2 732
Champa 732
Cosm@@ 732
Dracon@@ 732
Ellen 732
Kra@@ 732
Seychelles 732
Sum 732
Tehran 732
aran@@ 732
china 732
dula 732
hium 732
reduc@@ 732
zcz@@ 732
Country 731
Got 731
Orec@@ 731
Vall@@ 731
distinc@@ 731
drama 731
niger 731
nyj 731
obry@@ 731
oglossum 731
shin 731
testosterone 731
國@@ 731
1784 730
218 730
224 730
Greg 730
Haus@@ 730
India 730
Köln 730
Maldives 730
Resti@@ 730
Ya 730
Yahoo 730
coph@@ 730
gab@@ 730
lier 730
owa 730
thrum 730
yat@@ 730
zz@@ 730
ë@@ 730
ș 730
ọp 730
妃 730
德@@ 730
229 729
86@@ 729
Cham 729
Río 729
aule 729
ering 729
ison 729
96@@ 728
Cycl@@ 728
DF 728
Fast 728
Julian 728
Ordu 728
Soccer 728
Sulawesi 728
When 728
form 728
impres@@ 728
lit 728
over 728
Hull 727
Ieyasu 727
Mys@@ 727
Prunus 727
Rég@@ 727
blatt 727
otii 727
303 726
Beta 726
Bry@@ 726
Giuseppe 726
Iv@@ 726
Kharkov 726
Lil 726
Polk 726
SN 726
Vysočina 726
Youth 726
Zam@@ 726
band 726
dimidi@@ 726
emon@@ 726
exil@@ 726
glab@@ 726
lang@@ 726
1400 725
1785 725
Bratislava 725
Capital 725
GP@@ 725
Glen@@ 725
Slav@@ 725
Titanic 725
Zingi@@ 725
atula 725
i. 725
lex 725
lim 725
margar@@ 725
ognathus 725
olep@@ 725
ril@@ 725
özü 725
Bop@@ 724
Indre 724
lands 724
racem@@ 724
sous 724
tec@@ 724
virgin@@ 724
Anatolia 723
Borussia 723
Cis 723
Did@@ 723
Engel 723
Gay 723
Johannesburg 723
MT 723
Olympia 723
Rice 723
alen 723
alti@@ 723
anov 723
tina 723
ustr@@ 723
İzmir 723
32@@ 722
Irwin 722
Kenshin 722
MT@@ 722
Winston 722
aber@@ 722
berry 722
lie@@ 722
oya 722
sá 722
tum@@ 722
县 722
258 721
Alloc@@ 721
Bradley 721
Catalonia 721
Heath 721
Kids 721
ME 721
Rau@@ 721
czy@@ 721
elt@@ 721
phosphate 721
vir 721
Bech@@ 720
Dordogne 720
Kö@@ 720
Truman 720
aux@@ 720
eptus 720
modes 720
oci@@ 720
æ@@ 720
3,7 719
Choice 719
Dresden 719
Mart 719
Riga 719
Rodríguez 719
Undertaker 719
brom@@ 719
hist@@ 719
iya 719
litz 719
toc@@ 719
uyệt 719
yt@@ 719
-- 718
239 718
245 718
Ager@@ 718
Bremen 718
Day@@ 718
Mey@@ 718
Pinus 718
Saud 718
Sullivan 718
Wonder 718
aze 718
emat@@ 718
engo 718
fan@@ 718
fid@@ 718
press@@ 718
reus 718
ysis 718
Chiba 717
DO@@ 717
Gates 717
Knox 717
Vid@@ 717
cav@@ 717
orius 717
pei 717
2030 716
DB 716
Epiph@@ 716
Kud@@ 716
Troy 716
appus 716
cinerea 716
ies 716
inosus 716
kul@@ 716
vip@@ 716
金@@ 716
Amiens 715
Bach 715
Johan 715
Tav@@ 715
abol@@ 715
acha 715
hur@@ 715
inaria 715
rana 715
249 714
Flow 714
Krishna 714
Ngu@@ 714
Richardson 714
dentata 714
nos 714
orium 714
Łódź 714
Again 713
Basil@@ 713
Fisher 713
GHz 713
Gorbachev 713
Vand@@ 713
ahl 713
ayo 713
eleg@@ 713
ellii 713
fiel@@ 713
glabr@@ 713
hei 713
pii 713
rates 713
tuber@@ 713
tyna 713
unov 713
yrin@@ 713
Hill@@ 712
Oph@@ 712
Pasha 712
Squ@@ 712
VA 712
başı 712
cerus 712
isus 712
ogomphus 712
schema 712
simul@@ 712
BM 711
Chad 711
Diad@@ 711
Diamond 711
Elst 711
Flash 711
Hara 711
PC@@ 711
Yel@@ 711
ando 711
bric@@ 711
ngu@@ 711
odont@@ 711
ér@@ 711
32.@@ 710
Agar@@ 710
Hero 710
Igor 710
Lucia 710
Phil. 710
Sle@@ 710
Wolfgang 710
bai 710
khov 710
ort 710
phth@@ 710
schw@@ 710
ệ@@ 710
2D 709
Gib@@ 709
Lebanon 709
Motors 709
Osh@@ 709
Peckham 709
Vul@@ 709
actis 709
anur 709
asco 709
ble 709
gy 709
iaceae 709
its@@ 709
ák 709
Clem@@ 708
Hannah 708
Orch@@ 708
Parma 708
lug@@ 708
olor@@ 708
peruviana 708
ph 708
xy@@ 708
0,7 707
301 707
BD 707
Conference 707
DM 707
Goku 707
Gür@@ 707
Oncidium 707
Reynolds 707
Tas@@ 707
Winter 707
azi@@ 707
bus@@ 707
eller 707
irus 707
tion 707
Curtis 706
Hah@@ 706
Pont 706
Seven 706
Tao 706
Truk 706
Xi 706
cs 706
ornatus 706
Brook@@ 705
Gate 705
Gli@@ 705
Xan@@ 705
aiensis 705
azole 705
cordi@@ 705
esper@@ 705
frag@@ 705
iPad 705
lock 705
orio 705
parado@@ 705
sug@@ 705
termin@@ 705
umi@@ 705
ustus 705
ịnh 705
1780 704
263 704
Berry 704
Cub@@ 704
Ghost 704
Ily@@ 704
NK 704
U21 704
acon@@ 704
sonar 704
ỡ@@ 704
2,1 703
Abbas 703
Cann@@ 703
Dus@@ 703
Hz 703
Stur@@ 703
Xu@@ 703
attus 703
comune 703
ef 703
eko 703
hia 703
opsid@@ 703
ots 703
sanc@@ 703
Map@@ 702
Pete 702
Ring 702
first 702
illidae 702
methyl@@ 702
nitr@@ 702
onotus 702
rav@@ 702
Fir@@ 701
Gou@@ 701
Horn@@ 701
Trabzon 701
gui@@ 701
ocamp@@ 701
ogaster 701
rán 701
3,8 700
Baldwin 700
Bill@@ 700
Canc@@ 700
Eleanor 700
Guill@@ 700
ICAO 700
Kost@@ 700
Kw@@ 700
Technology 700
Wade 700
alaya 700
icularia 700
216 699
Cardiff 699
Evar@@ 699
Joo 699
Marcos 699
Sind@@ 699
acum 699
bal 699
dal 699
data 699
film 699
hain@@ 699
minima 699
osom@@ 699
otropis 699
zei 699
CM@@ 698
History 698
Phraya 698
Tobago 698
bay@@ 698
fos@@ 698
metall@@ 698
ms 698
nhu@@ 698
polia 698
rhy@@ 698
410 697
Bordeaux 697
Davies 697
Evil 697
NS 697
cab@@ 697
Ş@@ 697
31,@@ 696
Anim@@ 696
Cres@@ 696
Gai 696
Rain 696
True 696
cephal@@ 696
lucid@@ 696
nhi@@ 696
ves 696
Auto 695
Buckley 695
Daryl 695
Desmodium 695
Mant@@ 695
Orléans 695
Rainbow 695
Rham@@ 695
Santal@@ 695
Sot@@ 695
Wong 695
Zu@@ 695
abys@@ 695
ald 695
anol 695
lic@@ 695
maj@@ 695
vie 695
Basel 694
FO@@ 694
Freedom 694
Gau@@ 694
Haut 694
Holocaust 694
Ind@@ 694
Joy 694
Mercedes 694
Mo 694
Triana 694
aman@@ 694
basis 694
ces 694
owice 694
polit@@ 694
sberg 694
ses@@ 694
timestamp 694
ydr@@ 694
500@@ 693
80.000 693
Pus@@ 693
Yonne 693
aly 693
chol@@ 693
cum 693
kit@@ 693
thys 693
ńska 693
González 692
Hanja 692
Hoang 692
Isère 692
Kamikaze 692
Lin 692
Ov@@ 692
Rin@@ 692
Steph@@ 692
Tesla 692
ensky 692
pedi@@ 692
ñ@@ 692
Escobar 691
II@@ 691
Jazz 691
Kaneda 691
Kingdom 691
Nig@@ 691
Yur@@ 691
alu 691
cly@@ 691
console 691
eka 691
hidi@@ 691
illia 691
285 690
Andrews 690
Blan@@ 690
Descartes 690
Dipter@@ 690
Gard@@ 690
Hig@@ 690
Hopkins 690
Law 690
Leh@@ 690
Lil@@ 690
Metal 690
Myi@@ 690
Pseudom@@ 690
ilov 690
lau@@ 690
otarsus 690
red 690
stadt 690
ểm 690
264 689
Hee 689
JYP 689
Jon@@ 689
Paul@@ 689
Valle 689
anagar 689
ashima 689
gas@@ 689
ja@@ 689
pum@@ 689
rufa 689
spir@@ 689
1763 688
3DS 688
Barack 688
Devon 688
Kerala 688
Nakamura 688
Paraná 688
Vasil@@ 688
Viktor 688
contributor 688
ont@@ 688
quai 688
sh 688
Gaza 687
Helsinki 687
Joel 687
Public 687
acina 687
ayak@@ 687
tek 687
BL@@ 686
Bon 686
Dianthus 686
Electronic 686
Hippo@@ 686
Malay 686
RPG 686
Senna 686
Thr@@ 686
bran@@ 686
ingham 686
lops 686
mec@@ 686
oglossa 686
opes 686
piens 686
pura 686
ān 686
243 685
Blanco 685
Fi 685
Monster 685
Rolfe 685
alma 685
bula 685
denti@@ 685
nikov 685
ỏ@@ 685
Ard@@ 684
Block 684
Britney 684
CoV 684
Hang@@ 684
asso 684
bas 684
buc@@ 684
escu 684
koi 684
villosa 684
õm 684
286 683
9,5 683
Auguste 683
Bennett 683
Chim@@ 683
Kali 683
Lorenzo 683
Orton 683
cent@@ 683
cordata 683
ecr@@ 683
gelen@@ 683
imia 683
utina 683
viv@@ 683
1A 682
Bug@@ 682
Cardi@@ 682
Ler@@ 682
Lisbon 682
Miyazaki 682
Seth 682
aburi 682
born 682
eux 682
ə@@ 682
Concert 681
Elap@@ 681
Kuch@@ 681
Petit 681
Satsuma 681
Thymus 681
Wilton 681
annul@@ 681
ardia 681
chis 681
itia 681
quist 681
ầng 681
242 680
4.0@@ 680
501 680
Bieber 680
Bub@@ 680
Cand@@ 680
EXO 680
Marketing 680
Primula 680
SV@@ 680
Toy@@ 680
aton 680
heli@@ 680
identata 680
khe@@ 680
yev 680
Aconitum 679
Bijapur 679
Kiss 679
Schist@@ 679
buri 679
color@@ 679
ovit@@ 679
Beatty 678
Call 678
Hubble 678
Larry 678
Malatya 678
Scho@@ 678
Tia 678
Wake 678
You@@ 678
ate@@ 678
ppa 678
Ấ@@ 678
Aleppo 677
Ani@@ 677
Heg@@ 677
Ic@@ 677
Jub@@ 677
Kushiro 677
Shield 677
Tac@@ 677
Xer@@ 677
ahu@@ 677
hun 677
point 677
vag@@ 677
ınar 677
.S. 676
1768 676
Card 676
Friends 676
Holo@@ 676
Ingrid 676
Juli@@ 676
Ocean 676
Ulo@@ 676
alo 676
anj@@ 676
endi 676
eres 676
tang@@ 676
太@@ 676
251 675
Antonius 675
Benfica 675
Erzincan 675
Hard@@ 675
Megap@@ 675
abor@@ 675
atorium 675
boy 675
cat 675
odic@@ 675
Abr@@ 674
Bus 674
EM@@ 674
Films 674
Julie 674
Leslie 674
Rollins 674
arga 674
dar 674
gio 674
glauca 674
gs 674
iman 674
non@@ 674
sphaer@@ 674
yun 674
ịa 674
Cz@@ 673
Jake 673
Kingston 673
atella 673
augh 673
https 673
onella 673
thum 673
tricolor 673
ventris 673
陳@@ 673
1781 672
French 672
Hancock 672
Hes@@ 672
IATA 672
Somerset 672
alina 672
arctic 672
geon 672
istria 672
lov@@ 672
mea 672
sad@@ 672
username 672
35.@@ 671
A.C. 671
Ades@@ 671
Claire 671
Giresun 671
Ipomoea 671
Jonas 671
Manstein 671
Mumbai 671
Planet 671
Tonga 671
bog@@ 671
bour@@ 671
cana 671
ideae 671
sé@@ 671
Çam@@ 671
295 670
Atar@@ 670
Dick@@ 670
Gibson 670
Ottawa 670
Salzburg 670
asma 670
kn@@ 670
tun@@ 670
ulosus 670
Atlantiques 669
BB 669
Bash@@ 669
CG 669
Cossack 669
Gujarat 669
Kara 669
Kru@@ 669
Nara 669
Peg@@ 669
Plaza 669
Watch 669
concolor 669
cık 669
evan@@ 669
fov@@ 669
purpurea 669
reticul@@ 669
tal 669
ust 669
ław@@ 669
AF@@ 668
Elmer 668
Machine 668
Senegal 668
Village 668
leh@@ 668
ose@@ 668
variabilis 668
PP@@ 667
Rostov 667
Tatar 667
Valeri@@ 667
albic@@ 667
code 667
niv@@ 667
osella 667
whit@@ 667
Adıyaman 666
Part 666
Roth 666
Sider@@ 666
estra 666
gam@@ 666
mê@@ 666
phagidae 666
ribosome 666
ịn 666
張@@ 666
1778 665
Anac@@ 665
Aristi@@ 665
Blair 665
Eun@@ 665
Fayette 665
Kann@@ 665
Kobayashi 665
Nicole 665
Pac@@ 665
Robot 665
Satoshi 665
agrostis 665
apic@@ 665
byte 665
coronavirus 665
nigricans 665
rosea 665
squ@@ 665
ởi 665
252 664
Cena 664
Goth 664
Place 664
Silvan@@ 664
acta 664
alu@@ 664
angol@@ 664
ellaris 664
Constantinople 663
HE@@ 663
Magnolia 663
Rhiz@@ 663
Silesian 663
anh@@ 663
arii 663
azz@@ 663
nil@@ 663
permum 663
plas@@ 663
rou@@ 663
ãm 663
257 662
Anton@@ 662
Brad 662
Carroll 662
Ferr@@ 662
M.A.@@ 662
Sep@@ 662
chryso@@ 662
hé 662
idge 662
irō 662
ness 662
sburg 662
íp 662
233 661
33.@@ 661
Josef 661
Susan 661
^ 661
anne 661
aray@@ 661
arion 661
ele@@ 661
ime@@ 661
nerv@@ 661
odera 661
otidae 661
南@@ 661
.000 660
302 660
Cebu 660
Hedgehog 660
MacArthur 660
Shōnen 660
cle@@ 660
iden 660
kle@@ 660
neus 660
onot@@ 660
pleur@@ 660
1796 659
Altai 659
chev@@ 659
elor@@ 659
jung 659
num@@ 659
uth 659
yer 659
Chechnya 658
Estr@@ 658
Falls 658
Fon@@ 658
Kara@@ 658
Makoto 658
Semat@@ 658
aten 658
austr@@ 658
e.@@ 658
gee 658
iza 658
oniana 658
ward@@ 658
Ê 658
侯 658
Andreas 657
Dit@@ 657
ES 657
Mindanao 657
Schult@@ 657
hev 657
ping@@ 657
ric 657
umbens 657
3,4 656
560 656
Acer 656
Combre@@ 656
Fernández 656
Lagos 656
Meh@@ 656
RIAA 656
Rag@@ 656
Webb 656
carin@@ 656
deci@@ 656
fallax 656
idine 656
idol@@ 656
macrophylla 656
minutus 656
obsol@@ 656
ochloa 656
phidae 656
rat 656
tram 656
trim@@ 656
Albion 655
Countdown 655
Derby 655
Janet 655
Jutland 655
Ts@@ 655
abra 655
gigantea 655
music 655
smithii 655
tv 655
uchus 655
Angela 654
Cl2 654
Lower 654
Percy 654
angel@@ 654
bio 654
ryū 654
stream 654
uko 654
vesti@@ 654
vs 654
241 653
Acon@@ 653
Bok@@ 653
Kawasaki 653
St.@@ 653
Steg@@ 653
astra 653
away 653
bad@@ 653
jer@@ 653
kum@@ 653
Carmen 652
Suk@@ 652
ascia 652
enae 652
gros@@ 652
khi@@ 652
pher@@ 652
tura 652
Avi@@ 651
Eddie 651
Mega 651
eke 651
enth@@ 651
hach@@ 651
lib@@ 651
noi 651
rocket 651
scope 651
ticul@@ 651
zam@@ 651
zyce 651
IF 650
Kem@@ 650
Rich 650
Saigon 650
ingeri 650
omo 650
pru@@ 650
520 649
Alex@@ 649
Angi@@ 649
Barbados 649
Biał@@ 649
Bres@@ 649
Classic 649
NKVD 649
Pietro 649
Salt 649
coll@@ 649
nice 649
tristis 649
wad 649
ık 649
386 648
Buffalo 648
Dahl@@ 648
Dmitri 648
Heb@@ 648
Oda 648
Pale@@ 648
Rang@@ 648
bab@@ 648
beck 648
borg 648
bun@@ 648
cz 648
dost@@ 648
essa 648
illon 648
ost 648
were 648
Fed 647
Maha 647
Ozar@@ 647
Shig@@ 647
Yeşil@@ 647
al. 647
een 647
plut@@ 647
zyn 647
Hend@@ 646
Hydri@@ 646
Spielberg 646
Tes@@ 646
blues 646
mend@@ 646
neria 646
perma 646
tay@@ 646
ther 646
ța 646
DS@@ 645
Mack@@ 645
Mem@@ 645
Observatory 645
Teresa 645
Yah@@ 645
dio 645
ferrugin@@ 645
lei@@ 645
mbar 645
ocon@@ 645
tel 645
tuy@@ 645
460 644
GPS 644
Grav@@ 644
Marino 644
Mu 644
Szczec@@ 644
Yū@@ 644
Zürich 644
amata 644
arpus 644
illo@@ 644
kis 644
lis@@ 644
master 644
nu 644
patr@@ 644
pid 644
sou@@ 644
318 643
Alain 643
Ampul@@ 643
Ef@@ 643
Flying 643
Jupiter 643
Saddam 643
brand@@ 643
trag@@ 643
Étienne 643
Aurora 642
Baş@@ 642
Becker 642
Development 642
Fame 642
Gat@@ 642
Harper 642
Lay 642
Mach 642
Sup@@ 642
glut@@ 642
nepal@@ 642
penn@@ 642
rin@@ 642
1740 641
231 641
A.C.@@ 641
Aube 641
Dak@@ 641
Gong@@ 641
IT 641
Mekong 641
Mother 641
Phu@@ 641
Siding 641
Toledo 641
Webster 641
bah@@ 641
erst@@ 641
fida 641
icaria 641
othorax 641
1774 640
950 640
Canon 640
Klotz@@ 640
Lorentz 640
Noel 640
Oak 640
UN 640
agawa 640
ical 640
jun@@ 640
mun 640
omorphus 640
othr@@ 640
307 639
390 639
César 639
Hornet 639
Kid 639
Luca 639
Oblast 639
Patr@@ 639
Salamanca 639
Sheh@@ 639
Side 639
Veg@@ 639
atic 639
bb@@ 639
jur@@ 639
ognatha 639
osuke 639
tris@@ 639
ò@@ 639
高@@ 639
Beil@@ 638
Nos@@ 638
Pol 638
Rok@@ 638
Trento 638
cea 638
ern 638
gall@@ 638
ilius 638
later@@ 638
polymer 638
stol@@ 638
CF@@ 637
Castil@@ 637
Eccellenza 637
Flanders 637
Himmler 637
Moses 637
Nakai 637
O4 637
Steiermark 637
anagara 637
carbon@@ 637
hirsut@@ 637
jar@@ 637
ondo 637
Gand@@ 636
Gaulle 636
Gomph@@ 636
Jack@@ 636
Jamie 636
Sukh@@ 636
Trig@@ 636
Ye 636
apos@@ 636
map@@ 636
neph@@ 636
orchis 636
ough 636
vula 636
Å@@ 636
℃ 636
323 635
Antiochos 635
Bayer 635
Brunswick 635
Deg@@ 635
Epil@@ 635
Firefox 635
Gub@@ 635
Halifax 635
Hayata 635
Ten 635
Wight 635
aco@@ 635
aper@@ 635
module 635
omat@@ 635
。 635
1767 634
Ce@@ 634
Denver 634
Gle@@ 634
Monica 634
Odessa 634
Petro@@ 634
Randy 634
Up@@ 634
alk@@ 634
flag@@ 634
hook@@ 634
idis 634
nik@@ 634
oce 634
podi@@ 634
taeni@@ 634
tankōbon 634
xii 634
yō 634
530 633
Church 633
EN 633
Józef 633
Kunze 633
Nike 633
Phol@@ 633
Sin 633
florib@@ 633
itt 633
pallidus 633
thodes 633
ıç@@ 633
ン@@ 633
山@@ 633
Aw@@ 632
Caes@@ 632
Dag@@ 632
Klein 632
Lotus 632
Meyer 632
Perkins 632
athea 632
car 632
clor@@ 632
granit 632
iler 632
issi@@ 632
lind@@ 632
lip 632
raea 632
yang 632
ùy 632
36.@@ 631
Edwin 631
Wis@@ 631
enga 631
ory@@ 631
qué 631
seric@@ 631
spectabilis 631
splendens 631
zewo 631
246 630
268 630
94@@ 630
Adana 630
Angelo 630
Bird 630
Casti@@ 630
Cloud 630
Kars 630
List 630
Sims 630
hon 630
nec@@ 630
pra 630
soc@@ 630
striatus 630
uo 630
zon 630
Ỷ 630
1760 629
Aristolo@@ 629
Fat@@ 629
cant@@ 629
ongo 629
sau@@ 629
todes 629
ũ@@ 629
Chev@@ 628
EN@@ 628
Genoa 628
HBO 628
Hali@@ 628
Saturday 628
Stil@@ 628
TW 628
Tun@@ 628
U.S. 628
Wend@@ 628
adh 628
coccin@@ 628
depres@@ 628
hu 628
ický 628
monia 628
oana 628
odina 628
ram 628
tiva 628
Hub@@ 627
Jas@@ 627
PE@@ 627
Perth 627
SO4 627
SV 627
Summer@@ 627
alkot 627
engine 627
lak@@ 627
obium 627
othamnus 627
schul@@ 627
uza 627
236 626
37.@@ 626
Burton 626
Div@@ 626
Hagen 626
MotoGP 626
Prop@@ 626
WWF 626
col 626
itas 626
ochre@@ 626
urs@@ 626
Ascal@@ 625
Bethlehem 625
Buz@@ 625
Court 625
Cras@@ 625
Demon@@ 625
Geor@@ 625
Gin@@ 625
Gres@@ 625
Impatiens 625
Pyg@@ 625
Review 625
Scor@@ 625
Sonic 625
Sport 625
etsu 625
hid@@ 625
league 625
like 625
loss@@ 625
otype 625
usi 625
ventr@@ 625
ON 624
Phan@@ 624
Put@@ 624
Tah@@ 624
XH@@ 624
aldo 624
elen@@ 624
ettel 624
gad@@ 624
icidae 624
igi 624
olophus 624
uj@@ 624
288 623
Hindi 623
Khalid 623
Nhi@@ 623
Ubuntu 623
agan 623
agiri 623
mera 623
zar@@ 623
2500 622
313 622
Dwight 622
Gale@@ 622
Gay@@ 622
Junc@@ 622
Naj@@ 622
Pes@@ 622
Rush 622
Slo@@ 622
Wanda 622
atlan@@ 622
bel 622
hard 622
john@@ 622
kes 622
leus 622
maur@@ 622
sul 622
1777 621
253 621
Cannon 621
Epic@@ 621
Hack@@ 621
Kash@@ 621
Lara 621
aber 621
bromide 621
glomer@@ 621
lada 621
tris 621
český 621
ộm 621
1770 620
306 620
Amasya 620
Freycin@@ 620
Halic@@ 620
IR@@ 620
Kle@@ 620
Mersin 620
Nah@@ 620
Oerlikon 620
Turin 620
Warriors 620
coides 620
lard 620
opetalum 620
otham@@ 620
州 620
Mend@@ 619
Nicol@@ 619
Salem 619
Sukhoi 619
Sung@@ 619
Under 619
Yeltsin 619
canescens 619
cau 619
chin 619
elidae 619
enh@@ 619
isto 619
seg@@ 619
ticola 619
ław 619
3.0 618
Children 618
Pok@@ 618
Rav@@ 618
Sham@@ 618
Wad@@ 618
aphosidae 618
fri@@ 618
gr 618
olatus 618
787 617
Both@@ 617
DL 617
Dynamo 617
Eminem 617
Europe 617
Lena 617
Snow 617
Stan 617
Zeppelin 617
fluor@@ 617
mum 617
odus 617
thias 617
ucha 617
Öz@@ 617
271 616
278 616
2m 616
Bary@@ 616
Beauty 616
Chopin 616
Hell 616
Howe 616
Neo 616
Neu@@ 616
awan 616
gramin@@ 616
hier@@ 616
olan@@ 616
org@@ 616
315 615
34.@@ 615
Anch@@ 615
Dres@@ 615
EC@@ 615
Regel 615
Rup@@ 615
Salam@@ 615
Tito 615
Toscana 615
Verona 615
aland 615
bie 615
down 615
eff 615
mod 615
ocereus 615
sibir@@ 615
Brachi@@ 614
Chamar@@ 614
Dion 614
Granada 614
Lah@@ 614
Mess@@ 614
Sasebo 614
Spreng@@ 614
Voldemort 614
bir 614
carol@@ 614
deb@@ 614
oco@@ 614
unia 614
山 614
610 613
CR 613
Fuji 613
SpaceX 613
Spl@@ 613
hir 613
kW 613
ochilus 613
pulver@@ 613
shan 613
和@@ 613
A.R. 612
Come 612
Data 612
Gomez 612
Grand@@ 612
Lysim@@ 612
Math@@ 612
Quest 612
Sr@@ 612
Windsor 612
inho 612
liana 612
otaceae 612
trat@@ 612
ști 612
70.000 611
Andorra 611
Baku 611
From 611
Louvre 611
Maggie 611
Thomis@@ 611
Voyager 611
cyc@@ 611
dz@@ 611
enensis 611
hotep 611
oleuca 611
pole@@ 611
1.800 610
247 610
Aşağı@@ 610
Calédonie 610
Gud@@ 610
Hit 610
KO@@ 610
Odonto@@ 610
PR@@ 610
Philos@@ 610
Réunion 610
Saga 610
Short 610
Slovak 610
gra 610
meridionalis 610
multic@@ 610
ony 610
39.@@ 609
Brooks 609
Ellis 609
Emmanuel 609
Eub@@ 609
Fig@@ 609
IG@@ 609
Presl 609
Preston 609
TH 609
Them@@ 609
Touch 609
inek 609
640 608
Abu@@ 608
Dog 608
Fen@@ 608
Fury 608
Nippon 608
Rhe@@ 608
Sassan@@ 608
Sok@@ 608
ager 608
align 608
americana 608
ays 608
ezia 608
gel 608
hydrocarbon 608
itu 608
lice 608
martin@@ 608
ostris 608
tropis 608
uti 608
Apat@@ 607
Bergamo 607
EL@@ 607
ET 607
Guat@@ 607
NH 607
PD 607
Prague 607
Radar 607
Rond@@ 607
Sinop 607
Zab@@ 607
anax 607
doi 607
flash 607
icat 607
ovata 607
244 606
269 606
Atom@@ 606
Eich@@ 606
Fou@@ 606
Price 606
Rudy 606
SR 606
They 606
aki@@ 606
been 606
edi 606
enter 606
hausen 606
lius 606
omedes 606
ş@@ 606
Cagliari 605
Engel@@ 605
Koszalin 605
Mun 605
PV@@ 605
Se 605
Subic 605
acoustic 605
ente 605
esma 605
flexu@@ 605
gas 605
maria 605
Athe@@ 604
FIDE 604
HO@@ 604
Hung@@ 604
Jet 604
Messier 604
Pixar 604
Vichy 604
ize 604
odactylus 604
rath@@ 604
ström 604
1771 603
Arab@@ 603
Bowl 603
Constantinus 603
Malth@@ 603
Nash 603
Symph@@ 603
Talk 603
arn@@ 603
ineus 603
lian 603
scus 603
thoph@@ 603
va@@ 603
Control 602
Eastern 602
Hokkaido 602
Roll 602
Vaccinium 602
einf@@ 602
ellar@@ 602
entus 602
flex@@ 602
ignano 602
pad@@ 602
Kand@@ 601
Muş 601
Ony@@ 601
akawa 601
anion 601
aup@@ 601
beho@@ 601
cona 601
cucul@@ 601
ibu 601
ikaze 601
kap@@ 601
nut@@ 601
oğlu 601
reo 601
right 601
yat 601
Fan@@ 600
Gladi@@ 600
Khao 600
LE 600
Macr@@ 600
Shan@@ 600
Suriname 600
Us 600
adam@@ 600
ait@@ 600
alternative 600
aura 600
det@@ 600
iter@@ 600
oideae 600
ń@@ 600
Den 599
GA 599
Gleich@@ 599
Joshua 599
Marine 599
Mesa 599
Noah 599
Watts 599
akan 599
dun@@ 599
ellina 599
lil@@ 599
onos 599
taş 599
97@@ 598
Beethoven 598
Cod@@ 598
Donetsk 598
Eden 598
Full 598
Grig@@ 598
Horus 598
Ice 598
Karate 598
Memphis 598
Mori 598
auld 598
cinnam@@ 598
debil@@ 598
icki 598
othe@@ 598
ườn 598
ưỡi 598
248 597
266 597
Ambly@@ 597
Arrow 597
Bolton 597
Covid 597
Dog@@ 597
Kish@@ 597
MD@@ 597
Malcolm 597
Our 597
Sendai 597
Under@@ 597
Want 597
colum@@ 597
dow@@ 597
on. 597
ques 597
・ 597
Afyonkarahisar 596
Alpin@@ 596
Baghdad 596
Bin 596
Chapelle 596
EF 596
Fang 596
Mr@@ 596
Reb@@ 596
Reigns 596
Scapa 596
Sunda 596
Theodor 596
alin@@ 596
atur@@ 596
fulig@@ 596
mani@@ 596
organ 596
rich 596
ulu 596
319 595
540 595
AO@@ 595
Ada 595
América 595
Aydın 595
Bryant 595
Dôme 595
Elbe 595
Gün@@ 595
Jeju 595
Mithridates 595
Myrmec@@ 595
Quar@@ 595
Selena 595
Shadow 595
Trinity 595
other 595
speci@@ 595
ush 595
ő@@ 595
237 594
Barrett 594
Eust@@ 594
Fidel 594
Maxim 594
Oliveira 594
Sikh 594
Swar@@ 594
WS 594
ansk 594
pumila 594
273 593
Alonso 593
Biz@@ 593
Cohen 593
Flu@@ 593
J.J. 593
mine 593
olin 593
onen 593
sian 593
区 593
321 592
570 592
Aleksand@@ 592
Aly@@ 592
Catalunya 592
Cec@@ 592
Dante 592
Draw@@ 592
Humboldt 592
Jes@@ 592
Maguire 592
Makino 592
Norwich 592
Sław@@ 592
Tep@@ 592
aure@@ 592
cath@@ 592
gs@@ 592
inger@@ 592
loi 592
rix@@ 592
trailer 592
under@@ 592
311 591
Aman@@ 591
Cali@@ 591
Future 591
Prairie 591
Sporting 591
UFC 591
call@@ 591
cis 591
1.600 590
Amanda 590
Aztec 590
Fortune 590
Gott@@ 590
Hard 590
Khrushchev 590
Olden@@ 590
Rah@@ 590
zin@@ 590
1300 589
Jung@@ 589
Knuth 589
Lim 589
Player 589
Rus 589
She 589
frutic@@ 589
muelleri 589
oris 589
pedic@@ 589
sang@@ 589
versicolor 589
vius 589
yrium 589
35.000 588
99,@@ 588
C.A.@@ 588
Guantánamo 588
Pu 588
Tree 588
Vega 588
amidae 588
arap@@ 588
boc@@ 588
indicus 588
kun 588
love 588
thorac@@ 588
ulia 588
1.5 587
Duncan 587
Gen 587
Herman 587
Homer 587
HĐ@@ 587
Lal@@ 587
Maradona 587
Neck@@ 587
Yamamoto 587
archus 587
berger 587
ichthys 587
inalis 587
nis@@ 587
uan 587
vina 587
Barca 586
Philipp@@ 586
Trifolium 586
law@@ 586
leur@@ 586
lineatus 586
luca 586
suc@@ 586
terix 586
ux 586
ár 586
Bates 585
Bez@@ 585
Bron@@ 585
Forever 585
Jav@@ 585
KA 585
Plato 585
Thani 585
Tortric@@ 585
XXI 585
Yev@@ 585
hut@@ 585
ingii 585
leigh 585
tess@@ 585
uranium 585
ypo@@ 585
261 584
Atel@@ 584
Lega 584
Meth@@ 584
Nature 584
Right 584
Spermo@@ 584
Strasbourg 584
Tiber@@ 584
clo@@ 584
gram@@ 584
hatta 584
hydrox@@ 584
ll 584
sper@@ 584
violacea 584
ward 584
yns 584
ĩ@@ 584
Constantine 583
Gers 583
Hercules 583
Hogwarts 583
Levant 583
Lys@@ 583
Oxalis 583
Richland 583
Romagna 583
Schimp@@ 583
Stol@@ 583
X.@@ 583
cuma 583
o.@@ 583
375 582
960 582
Australian 582
Carp@@ 582
Castle 582
Cat 582
Cornwall 582
Drama 582
Elsa 582
Khun 582
Make 582
Pavia 582
U19 582
muth 582
odes@@ 582
ophil@@ 582
ugi 582
《 582
Auckland 581
Blak@@ 581
Chō@@ 581
Cobain 581
Mer 581
Potsdam 581
Vanuatu 581
Zag@@ 581
fic@@ 581
imar@@ 581
laceae 581
lium 581
piston 581
psil@@ 581
rob@@ 581
ury 581
》 581
1B 580
@ 580
Crown 580
Gerald 580
Marathon 580
Muğla 580
Rhipid@@ 580
Sergey 580
UT@@ 580
Voronezh 580
Zod@@ 580
aç@@ 580
willi@@ 580
平@@ 580
199@@ 579
274 579
284 579
Alfonso 579
Barnes 579
Beirut 579
Caracas 579
Catalan 579
Factory 579
Johor 579
Niederösterreich 579
Ossetia 579
Sasha 579
Stach@@ 579
Stoke 579
Trav@@ 579
Wien 579
avarman 579
aş 579
ede 579
eling 579
ga@@ 579
gun@@ 579
isma 579
teo 579
yb@@ 579
zano 579
Cabo 578
Deutsche 578
Gül@@ 578
Know 578
Rib@@ 578
Rooney 578
Sato 578
Takeda 578
Teuc@@ 578
Trafford 578
Waw@@ 578
Westfalen 578
glot@@ 578
icon 578
iformes 578
otos 578
peraceae 578
plaga 578
tilla 578
ycl@@ 578
ː@@ 578
580 577
Alba 577
Coch@@ 577
Cyl@@ 577
Gauss 577
Jesse 577
Minamoto 577
Num@@ 577
Pash@@ 577
vs. 577
1648 576
333 576
Alexios 576
Carlsen 576
Champagne 576
Colin 576
Dame 576
Ek@@ 576
Firenze 576
Friend 576
Jeremy 576
Kid@@ 576
Parad@@ 576
Rita 576
TE 576
Woods 576
concerto 576
dicus 576
istig@@ 576
lary 576
rena 576
themum 576
đ 576
600.000 575
Command 575
Darius 575
Destiny 575
Dhabi 575
Factor 575
Glee 575
Linn@@ 575
Luigi 575
Matt@@ 575
Nathan 575
Poli@@ 575
Sik@@ 575
Sof@@ 575
Tut@@ 575
atu@@ 575
excel@@ 575
membran@@ 575
osaur@@ 575
silv@@ 575
ters 575
Camellia 574
Catarina 574
Loh@@ 574
Messina 574
Nobunaga 574
Oahu 574
Palmer 574
Sm 574
Toulouse 574
Zagreb 574
Zal@@ 574
allo 574
dens 574
soo 574
soul 574
イ@@ 574
Aechmea 573
Bey@@ 573
Gyr@@ 573
Lycaenidae 573
Ridge 573
Russian 573
Shak@@ 573
Springfield 573
Vernon 573
Water 573
abl@@ 573
diversi@@ 573
get@@ 573
ism@@ 573
umin@@ 573
ị@@ 573
Chaplin 572
Collection 572
Creta 572
Fritz 572
Gaddafi 572
Kang@@ 572
Luper@@ 572
Queens 572
Siv@@ 572
Taeni@@ 572
amura 572
digit@@ 572
entum 572
mam@@ 572
ogen@@ 572
onyc@@ 572
仁@@ 572
630 571
DT@@ 571
Giorgio 571
Kuhn 571
Mong@@ 571
ages 571
apti@@ 571
atu 571
bolus 571
chim@@ 571
jet 571
locos 571
orhynchus 571
tras@@ 571
ä 571
About 570
Lund 570
Mok@@ 570
Motor 570
Sut@@ 570
cla@@ 570
illar@@ 570
lariidae 570
osu 570
ặm 570
公主 570
322 569
Aude 569
B1 569
Cromwell 569
Hut@@ 569
Lesnar 569
Trust 569
gard@@ 569
serrata 569
ậc 569
298 568
Mong 568
XL 568
astro@@ 568
basil@@ 568
nobilis 568
中@@ 568
之@@ 568
3.500 567
Abel 567
Apocynaceae 567
Britain 567
CI 567
Como 567
Erythr@@ 567
Mikha@@ 567
Tennis 567
UV 567
anis@@ 567
burn 567
elium 567
glo@@ 567
ile@@ 567
lova 567
mana 567
onomyia 567
1759 566
281 566
335 566
Clubi@@ 566
Fabian 566
Nim@@ 566
Tchad 566
Wiel@@ 566
ape 566
azar 566
bra@@ 566
confusa 566
hik@@ 566
quet 566
sey@@ 566
ẵng 566
720 565
Carr@@ 565
Grimm@@ 565
Jerzy 565
Leb@@ 565
McCain 565
Nexus 565
Pope 565
actylidae 565
calcar@@ 565
epis@@ 565
ethyl@@ 565
lich 565
326 564
406 564
Allier 564
Amaz@@ 564
Amin 564
Autom@@ 564
Herzegovina 564
Hilliard 564
Koy@@ 564
MO 564
Mett@@ 564
Miles 564
Pak 564
Sapporo 564
atori@@ 564
azine 564
cog@@ 564
elong@@ 564
erul@@ 564
incon@@ 564
iri@@ 564
iru 564
kill 564
lanceol@@ 564
thar@@ 564
ux@@ 564
267 563
618 563
Cuneo 563
IE@@ 563
Mori@@ 563
Nashville 563
Pat 563
Philodrom@@ 563
abu 563
cardia 563
chromis 563
griff@@ 563
high 563
laevis 563
lorum 563
lutea 563
otrop@@ 563
rubra 563
wick 563
1.300 562
1644 562
272 562
404 562
Canberra 562
Hat 562
Joon 562
Legend 562
Lodovico 562
Rig@@ 562
alon 562
bom@@ 562
corona 562
iculus 562
logar@@ 562
omyc@@ 562
otte 562
tit 562
xen@@ 562
259 561
Act 561
Avengers 561
Color 561
Daegu 561
Oxide 561
Shi 561
Tour@@ 561
erium 561
estus 561
integri@@ 561
kirchen 561
moides 561
oxin 561
parva 561
vik 561
Back@@ 560
Bartın 560
Connor 560
Drew 560
HTML 560
Jord@@ 560
Musa 560
Olsztyn 560
apoder@@ 560
arta 560
arti@@ 560
cit@@ 560
dt 560
ester@@ 560
kiewicz 560
oen@@ 560
paniculata 560
uki@@ 560
A4 559
Dmitry 559
Flo@@ 559
Lon 559
Morav@@ 559
Philip@@ 559
RCA 559
Vera 559
class 559
etis 559
ocles 559
praec@@ 559
yz@@ 559
Beck 558
Besch@@ 558
Micronesia 558
Rend@@ 558
Sphen@@ 558
Stri@@ 558
Thong 558
hov 558
pot 558
repens 558
thre@@ 558
ziana 558
001 557
Aik@@ 557
Asper@@ 557
Aviation 557
Bihar 557
Bup@@ 557
Kong@@ 557
Lucius 557
RO 557
SI@@ 557
Tz@@ 557
Ya@@ 557
caucas@@ 557
chas@@ 557
hard@@ 557
link 557
lur@@ 557
ski@@ 557
vu@@ 557
ệng 557
0,9 556
AF 556
Ao 556
Eli@@ 556
Faroe 556
H2 556
ID@@ 556
KGB 556
Khos@@ 556
Madhya 556
Tetra@@ 556
Tw@@ 556
landi@@ 556
mans 556
ophor@@ 556
prom@@ 556
quin 556
sci@@ 556
sman 556
sola 556
soph@@ 556
ìm 556
395 555
Angel@@ 555
BM@@ 555
CB 555
Canadian 555
Dow@@ 555
Fair 555
Kahramanmaraş 555
Pim@@ 555
Pow@@ 555
Schott 555
ecum 555
kop@@ 555
lateralis 555
nier 555
p.@@ 555
tori 555
1750 554
1762 554
B2 554
Bf 554
Br. 554
ED 554
Islam 554
Perfect 554
Yong@@ 554
a. 554
baz 554
burg@@ 554
cô@@ 554
s.@@ 554
stor@@ 554
ulla 554
waj@@ 554
470 553
AFF 553
Atr@@ 553
Cnem@@ 553
Kazan 553
Marc@@ 553
argus 553
ato@@ 553
cass@@ 553
edil@@ 553
fac@@ 553
fascia 553
lee 553
opet@@ 553
prim@@ 553
tax@@ 553
utum 553
、 553
660 552
AO 552
Adam@@ 552
Aesh@@ 552
Bath 552
Fan 552
Honn@@ 552
Joker 552
Konstantinos 552
Net 552
Nubia 552
Vermont 552
bara 552
borough 552
derma 552
minim@@ 552
nius 552
odide 552
stan 552
tics 552
Apr@@ 551
Burgos 551
Burke 551
Chai 551
Flam@@ 551
Industries 551
Key@@ 551
Liechtenstein 551
Manus 551
Order 551
Rel@@ 551
ador@@ 551
anthr@@ 551
bolivi@@ 551
chuk 551
dek 551
dieu 551
gut@@ 551
kovsky 551
new@@ 551
sulfur@@ 551
torum 551
陵 551
283 550
6000 550
Atriplex 550
Goldman 550
Kami@@ 550
Pittsburgh 550
Potamog@@ 550
Reid 550
Run@@ 550
TM 550
Teg@@ 550
Wesley 550
alam@@ 550
brit@@ 550
diff@@ 550
pina 550
sant@@ 550
276 549
Coll@@ 549
Hyundai 549
Mart@@ 549
Ruby 549
Starr 549
assi 549
ağaç 549
hill 549
ocarpaceae 549
riches 549
ture 549
wii 549
Arab 548
Ascle@@ 548
Capr@@ 548
Clapton 548
Maru 548
Rap 548
Sharon 548
Tag 548
Universe 548
Wald@@ 548
Yorktown 548
anto@@ 548
core 548
qa 548
subr@@ 548
Adriatic 547
Adventure 547
E.B. 547
Hye 547
NES 547
Newman 547
Saito 547
Shane 547
Vasily 547
Weiss@@ 547
carbo@@ 547
icr@@ 547
kaku 547
orov 547
wad@@ 547
Bek@@ 546
Bombus 546
Cox 546
Der 546
Fam@@ 546
Gaster@@ 546
Glass 546
Greater 546
Hach@@ 546
Only 546
Paw@@ 546
Scu@@ 546
Yp@@ 546
bata 546
hisar 546
nem 546
rax 546
saurus 546
sley 546
ule@@ 546
皇@@ 546
355 545
ISS 545
Joc@@ 545
M2 545
Nod@@ 545
Ptin@@ 545
Rhac@@ 545
Sergio 545
Sri@@ 545
Yellow 545
anat@@ 545
atrop@@ 545
container 545
cos 545
costar@@ 545
dice 545
enidae 545
ien 545
kes@@ 545
trom@@ 545
weiler 545
yr 545
一@@ 545
299 544
Cast@@ 544
Christine 544
Fav@@ 544
Göl@@ 544
IMF 544
Kass@@ 544
Maiden 544
Mainz 544
Nation 544
Produce 544
Race 544
Ranidae 544
Robertson 544
Selagin@@ 544
Shia 544
Social 544
Solen@@ 544
Vogue 544
action 544
angi@@ 544
det 544
dog@@ 544
eur 544
most@@ 544
scand@@ 544
tod@@ 544
西@@ 544
282 543
4,7 543
Elvis 543
Lionel 543
atan 543
ovna 543
ró@@ 543
324 542
Barney 542
Cuenca 542
Demetrios 542
Francis@@ 542
Günther 542
Jenny 542
Stop 542
Suc@@ 542
Vito 542
arin@@ 542
ayama 542
californica 542
corti@@ 542
edra 542
emann 542
epo@@ 542
minuti@@ 542
nudi@@ 542
qi 542
retr@@ 542
siti@@ 542
sph@@ 542
wall 542
Allison 541
Conrad 541
Dana 541
Elae@@ 541
Here 541
Hesse 541
KS 541
Lé@@ 541
PG@@ 541
Third 541
Thut@@ 541
Tupolev 541
Vicente 541
bad 541
bs 541
eura 541
franc 541
iji 541
mas 541
pias 541
sun 541
620 540
Batista 540
Garcia 540
Honshū 540
Natal 540
R.E.@@ 540
Sond@@ 540
Timur 540
hide 540
pav@@ 540
rii 540
roll 540
thau 540
walk 540
ör@@ 540
291 539
352 539
40,@@ 539
Army 539
Blues 539
C.E.@@ 539
Gómez 539
Isa@@ 539
Purple 539
Sasuke 539
Zonguldak 539
agen 539
chum 539
inson 539
jin@@ 539
nghi@@ 539
oł@@ 539
place 539
sir@@ 539
Ameg@@ 538
And 538
Annie 538
Bydgoszcz 538
Dacia 538
Gibbs 538
Krause 538
Mafia 538
S2 538
Terr@@ 538
aeidae 538
auli@@ 538
dianus 538
intermedi@@ 538
isca 538
pili@@ 538
soides 538
sylv@@ 538
4,6 537
510 537
Achaem@@ 537
Alexand@@ 537
Argi@@ 537
Baja 537
Kall@@ 537
Kant@@ 537
MD 537
Va@@ 537
age@@ 537
brow@@ 537
eatus 537
epe@@ 537
gri 537
icularis 537
olepta 537
yanov 537
聖@@ 537
1757 536
5m 536
Clayton 536
Dawn 536
Jak@@ 536
ML@@ 536
Melaleuca 536
Milne 536
Modern 536
Nairobi 536
Room 536
bine 536
igia 536
knot 536
pinus 536
rie 536
tru 536
296 535
400@@ 535
Bee 535
Code 535
Eth@@ 535
Hr@@ 535
Iwata 535
Kuz@@ 535
Metz@@ 535
ONE 535
Patricia 535
Sarthe 535
Scol@@ 535
Scy@@ 535
Tripoli 535
WrestleMania 535
are@@ 535
bot 535
glyco@@ 535
heim@@ 535
ryne 535
shot 535
tropha 535
† 535
293 534
Agave 534
Chalc@@ 534
Chū@@ 534
Ero@@ 534
Gümüşhane 534
Het@@ 534
Niigata 534
Upper 534
andia 534
aver 534
dytes 534
iller 534
kot@@ 534
log 534
server 534
star@@ 534
Aba@@ 533
Bean 533
Bryansk 533
Düzce 533
Fa 533
Marat@@ 533
McN@@ 533
Mix@@ 533
Oedi@@ 533
Roman@@ 533
ebe 533
fino 533
oreg@@ 533
usus 533
zav@@ 533
Świd@@ 533
ũi 533
Barbarossa 532
Emil 532
Mozilla 532
Olga 532
abom@@ 532
color 532
nucleotide 532
owiec 532
pp 532
長@@ 532
401 531
Bosch 531
Cecil 531
Chin 531
Cornelis 531
Eil@@ 531
Igu@@ 531
Lond@@ 531
Phryn@@ 531
SF 531
Zamora 531
alii 531
ayn@@ 531
kaz@@ 531
mart@@ 531
nel@@ 531
nyi 531
ophanes 531
ovirus 531
pol 531
ịu 531
14.000 530
Akkad 530
Campo 530
Castell@@ 530
Doğ@@ 530
Lant@@ 530
Ment@@ 530
One@@ 530
QF 530
Salerno 530
Ulaanbaatar 530
Vicia 530
iston 530
olla 530
onychus 530
xim@@ 530
4,2 529
5,6 529
Chick@@ 529
Dunn 529
Enix 529
Huang 529
Ik@@ 529
Lowell 529
Mail 529
Mandela 529
Musashi 529
North@@ 529
PLA 529
Re 529
Severus 529
Sō@@ 529
alex@@ 529
cabin 529
dum@@ 529
guatem@@ 529
robus@@ 529
òa 529
1773 528
385 528
Baptiste 528
Buck@@ 528
Guar@@ 528
Guil@@ 528
HK@@ 528
Kato 528
Katy 528
Milton 528
Nakajima 528
Norodom 528
Paramount 528
Pike 528
Ré@@ 528
Sikkim 528
Vickers 528
ethanol 528
face 528
iso@@ 528
mom@@ 528
nag@@ 528
odontidae 528
onea 528
oyama 528
tweet 528
ufa 528
umab 528
vic 528
Aichi 527
Bukh@@ 527
Discovery 527
GC 527
GE 527
Holdings 527
Kiel 527
Lviv 527
Magnus 527
Schul@@ 527
Spirit 527
Tonight 527
bat 527
erc@@ 527
rotund@@ 527
té 527
1.0 526
2026 526
309 526
Dug@@ 526
Jug@@ 526
Shepard 526
Stig@@ 526
acis 526
ail 526
egu@@ 526
estradiol 526
mena 526
onian 526
opol@@ 526
pixel 526
pom@@ 526
wing 526
0,0@@ 525
384 525
Interactive 525
Pin 525
Reading 525
Rivera 525
Rockefeller 525
anas 525
atari 525
emati@@ 525
ephalus 525
inin 525
open@@ 525
owicz 525
stig@@ 525
system 525
1.400 524
Albi@@ 524
Altın@@ 524
Cl 524
Gali@@ 524
Gaziantep 524
Heian 524
Kik@@ 524
Kyushu 524
Nina 524
Sinai 524
Thor 524
Tis@@ 524
Veracruz 524
chilensis 524
hla 524
hun@@ 524
losa 524
olone 524
rita 524
taiwan@@ 524
uva 524
vulgaris 524
120@@ 523
45,@@ 523
ATM 523
EF@@ 523
Electronics 523
Myri@@ 523
Peace 523
Rhap@@ 523
Tail 523
Toro 523
Turbin@@ 523
Velvet 523
acetyl@@ 523
alle 523
brid@@ 523
eina 523
igen@@ 523
ihara 523
issimus 523
omen@@ 523
put@@ 523
quinqu@@ 523
sugu 523
Ace 522
Coca 522
Ely@@ 522
Kazimierz 522
Konstantin 522
LS 522
Lev 522
Rowling 522
View 522
abis 522
ants 522
cidae 522
endo 522
ls 522
site 522
smi@@ 522
130@@ 521
Agla@@ 521
Guig@@ 521
IU 521
Kant 521
Oy@@ 521
RP 521
Yvelines 521
eber@@ 521
greg@@ 521
itor 521
neutrino 521
ré@@ 521
stra 521
tah@@ 521
zew@@ 521
ứ@@ 521
110@@ 520
345 520
357 520
Action 520
Ahn 520
Broadcasting 520
Fleming 520
Gramm@@ 520
Kızıl@@ 520
NO 520
Pasteur 520
Scarlett 520
Sevastopol 520
Tong@@ 520
Vision 520
aeum 520
ender@@ 520
epr 520
ils 520
rov@@ 520
spil@@ 520
tili@@ 520
tree 520
194@@ 519
331 519
Bingöl 519
Bitlis 519
Ferrara 519
Io 519
Jam 519
Jos@@ 519
Kampong 519
Kyle 519
Laz@@ 519
March 519
PD@@ 519
Psam@@ 519
Python 519
RI 519
Ruth 519
Sai@@ 519
Schneider 519
UL@@ 519
alber@@ 519
flam@@ 519
host 519
imper@@ 519
leon@@ 519
lic 519
nera 519
pes@@ 519
tach@@ 519
their 519
ullah 519
Aster 518
Chapman 518
Fitz@@ 518
Halsey 518
Lancashire 518
Non@@ 518
Plesi@@ 518
Rana 518
Yukarı@@ 518
egus 518
elongatus 518
feria 518
maru 518
ob 518
odel@@ 518
olog@@ 518
pas 518
3,1 517
CK 517
Elliott 517
Hyd@@ 517
Jaw@@ 517
Nolan 517
RM 517
angul@@ 517
chy 517
dens@@ 517
endra 517
modest@@ 517
osper@@ 517
shū 517
simil@@ 517
year 517
277 516
44,@@ 516
Antwerp 516
Fili@@ 516
HS 516
K3 516
Merlin 516
Morales 516
Most 516
Plant 516
Said 516
Schoen@@ 516
agana 516
etala 516
gli@@ 516
iria 516
mid 516
oba@@ 516
porum 516
sinica 516
toment@@ 516
vill@@ 516
xes 516
zyński 516
371 515
Asahi 515
Bandai 515
Bathy@@ 515
Body 515
Córdoba 515
EX@@ 515
Education 515
Gloria 515
Hik@@ 515
Martin@@ 515
Plata 515
Que@@ 515
Spo@@ 515
Yamaguchi 515
deri 515
enthes 515
etra 515
ide@@ 515
lou@@ 515
phaga 515
zor@@ 515
343 514
356 514
Anap@@ 514
Armor 514
Domingo 514
Mills 514
Ngo@@ 514
Phillip 514
Pierce 514
Racing 514
Rize 514
egen@@ 514
hug@@ 514
inka 514
mRNA 514
olina 514
rasia 514
sych@@ 514
Çankırı 514
314 513
351 513
405 513
Chet@@ 513
Ekaterina 513
Ent@@ 513
Isabel 513
KV@@ 513
Kuk@@ 513
Piano 513
Play@@ 513
XX@@ 513
aik@@ 513
ennes 513
hydrate 513
mé 513
ocactus 513
pak@@ 513
pling 513
sagit@@ 513
tenburg 513
yab@@ 513
Ó@@ 513
150@@ 512
328 512
49,@@ 512
Dream@@ 512
Far 512
Lung 512
Mitr@@ 512
Mn@@ 512
Rov@@ 512
Sog@@ 512
Tara 512
Total 512
UC@@ 512
Vik@@ 512
Wolff 512
abdomin@@ 512
coli 512
cristata 512
hed@@ 512
lum@@ 512
nitz 512
olophia 512
pard 512
roch@@ 512
uku 512
xyl@@ 512
zin 512
680 511
APEC 511
Algiers 511
Amun 511
Díaz 511
Gyn@@ 511
Kes@@ 511
Lyn@@ 511
Nobu@@ 511
U.@@ 511
conf@@ 511
eif@@ 511
fragilis 511
oniae 511
pyro@@ 511
4,3 510
Allan 510
Beh@@ 510
Hampton 510
Lexington 510
Off 510
Oni@@ 510
Poir@@ 510
Quincy 510
Za@@ 510
ador 510
cation 510
gur@@ 510
hn@@ 510
myri@@ 510
190@@ 509
4.0 509
525 509
AH 509
BN 509
Chas@@ 509
Cramb@@ 509
Eduard 509
Flores 509
Pereira 509
Phen@@ 509
Power@@ 509
Puebla 509
brevis 509
gate 509
joh@@ 509
scop@@ 509
vers 509
317 508
COM 508
GPU 508
Gun 508
Hō@@ 508
IEEE 508
Ili@@ 508
Inoue 508
Ling 508
Sing 508
Taur@@ 508
arra 508
eer 508
otrach@@ 508
ucle@@ 508
umen@@ 508
ute 508
1.100 507
367 507
Aspar@@ 507
Aviv 507
Bishop 507
CV 507
Kadokawa 507
NET 507
Presley 507
Rabaul 507
Ranger 507
Shinoda 507
Symphy@@ 507
Tai@@ 507
bris 507
convex@@ 507
ere@@ 507
grav@@ 507
iyama 507
kham 507
ode@@ 507
oride 507
virens 507
ầ@@ 507
2.5 506
Groeneveld 506
Peri@@ 506
Rahman 506
Sigismund 506
Six 506
Ultimate 506
Vinci 506
Yamada 506
Zone 506
cinc@@ 506
icill@@ 506
kad@@ 506
menu 506
robustus 506
thal 506
ysh@@ 506
2,9 505
287 505
289 505
346 505
5.0@@ 505
Ambrose 505
Dae 505
Heaven 505
Lucien 505
Mussolini 505
Paula 505
Ramb@@ 505
Serge@@ 505
Shoemaker 505
Sporo@@ 505
Xavier 505
auridae 505
dle@@ 505
formosa 505
nova 505
Augsburg 504
Batrach@@ 504
Betula 504
Cincinnati 504
Crimean 504
Emirates 504
Grumman 504
Lublin 504
Mati@@ 504
Minaj 504
Nana 504
Pearl 504
Strauss 504
Sud 504
Trophy 504
Valentine 504
arcade 504
dentic@@ 504
lah 504
leb@@ 504
meria 504
noph@@ 504
shu@@ 504
yah 504
zeg 504
zki 504
Benson 503
Cay@@ 503
Cet@@ 503
Devil 503
Eiffel 503
Engels 503
Fox@@ 503
Gogh 503
Hearts 503
Hepburn 503
IV@@ 503
Nu 503
Plze@@ 503
Saladin 503
akh@@ 503
asy@@ 503
bern@@ 503
blan@@ 503
isch 503
sulfat 503
ubil@@ 503
Genesis 502
Goethe 502
HA 502
Lambert 502
Palais 502
Protein 502
Rand@@ 502
Rey@@ 502
Telegraph 502
antum 502
cara 502
date 502
esc@@ 502
lepid@@ 502
ontana 502
rab@@ 502
rul@@ 502
11.000 501
Baron 501
Cope 501
Double 501
Eduardo 501
Ekman 501
GT@@ 501
Gek@@ 501
Jasper 501
Ket@@ 501
Klo@@ 501
Law@@ 501
Lipp@@ 501
Rain@@ 501
Sting 501
cogn@@ 501
gra@@ 501
japonicus 501
juk 501
ŏn 501
1660 500
341 500
Are@@ 500
Design 500
Deux 500
Fum@@ 500
Gehrels 500
Hipp@@ 500
Horse 500
Lév@@ 500
Martín 500
NHK 500
Phrag@@ 500
Pich@@ 500
Pie@@ 500
Ploc@@ 500
Rossi 500
Tsun@@ 500
appendi@@ 500
borealis 500
invol@@ 500
jk 500
sco@@ 500
3,9 499
Adrian 499
Aver@@ 499
Claudius 499
Dh@@ 499
Illyr@@ 499
Luftwaffe 499
Madame 499
Popov 499
Pí@@ 499
Rebecca 499
Storm 499
Sussex 499
Tum@@ 499
Vie@@ 499
Vilnius 499
after 499
ald@@ 499
camer@@ 499
chy@@ 499
cour@@ 499
cruci@@ 499
hui 499
littor@@ 499
stat@@ 499
y.@@ 499
ł 499
ớ@@ 499
198@@ 498
336 498
Adr@@ 498
Casimir 498
Chul@@ 498
Eff@@ 498
Enter@@ 498
Gamble 498
Heinz 498
Kay 498
Khar@@ 498
Martínez 498
Podl@@ 498
SH 498
Shab@@ 498
Tudor 498
Verb@@ 498
aran 498
avir 498
berg@@ 498
berti 498
cella 498
misch 498
mit 498
otta 498
ps@@ 498
varieg@@ 498
ás@@ 498
337 497
48,@@ 497
98,@@ 497
Amas@@ 497
Castan@@ 497
Chuck 497
Dome 497
Kalinin 497
Koł@@ 497
Medici 497
Ortho@@ 497
Rhag@@ 497
Search 497
Taj@@ 497
Wide 497
ams 497
aught 497
ecti@@ 497
espit@@ 497
iger@@ 497
itan 497
mae 497
ostic@@ 497
ề@@ 497
47,@@ 496
Aris@@ 496
Blade 496
Dai 496
Gi 496
Highland 496
Justice 496
Palm 496
Shins@@ 496
Tog@@ 496
Yo 496
apo 496
ason 496
atos 496
background 496
gigas 496
h30 496
mc@@ 496
oid@@ 496
puber@@ 496
taur@@ 496
ö 496
1100 495
Bach@@ 495
Demir@@ 495
Elliot 495
En 495
Greatest 495
Hun 495
Kings 495
Mourinho 495
Nang 495
Paz 495
Spartak 495
Things 495
Tyrannidae 495
Zenit 495
antia 495
mann@@ 495
siphon 495
tle 495
zeum 495
Daph@@ 494
Engineering 494
F2 494
Form@@ 494
Gim@@ 494
Hatay 494
Katsu@@ 494
Kenji 494
Mann@@ 494
Mickey 494
Orion 494
Populus 494
Ram 494
Thau@@ 494
Uy@@ 494
Vistula 494
ambo@@ 494
ezi 494
mexicanus 494
oia 494
ray@@ 494
scler@@ 494
sulph@@ 494
Amphoe 493
Aud@@ 493
Brighton 493
Eurovision 493
Eyes 493
Heavy 493
Hwang 493
Olivia 493
Yok@@ 493
bari 493
ider 493
indie 493
mei 493
ninja 493
nom 493
oi@@ 493
zona 493
354 492
App 492
Atari 492
Denizli 492
Goa 492
IB@@ 492
Kyiv 492
Mast@@ 492
Mind 492
Wul@@ 492
cell@@ 492
epid@@ 492
feri 492
fuscus 492
izi@@ 492
kal 492
onna 492
pay 492
sec 492
umba 492
ük@@ 492
Ứ@@ 492
Albrecht 491
Andrés 491
Chung@@ 491
Fashion 491
Galli@@ 491
Heroes 491
Hoh@@ 491
Islands 491
Kirk 491
Lightning 491
Pi 491
Production 491
Ri 491
SCN 491
Schulz 491
Tany@@ 491
enk@@ 491
jama@@ 491
onin 491
px 491
16.000 490
Brno 490
Bureau 490
Homs 490
Kure 490
Kyūshū 490
Parsons 490
Soy@@ 490
casting 490
esen@@ 490
get 490
hiza 490
oxi 490
seni 490
1765 489
Barnard 489
C.-@@ 489
DH@@ 489
Gund@@ 489
Hand 489
Landes 489
Silent 489
Wanna 489
Wester@@ 489
achis 489
comi@@ 489
ede@@ 489
hand@@ 489
istic@@ 489
kale 489
match 489
成@@ 489
361 488
425 488
Amenhotep 488
Brit@@ 488
Cyprinidae 488
Fabr@@ 488
Four@@ 488
Garnier 488
Hipper 488
Julien 488
Lac 488
MK 488
Nay@@ 488
Nguy@@ 488
Paral@@ 488
Roads 488
Thér@@ 488
Wan@@ 488
arp@@ 488
cay@@ 488
erk@@ 488
igg@@ 488
lay@@ 488
oru 488
tram@@ 488
valis 488
vania 488
work 488
้ 488
Alber@@ 487
Gill@@ 487
Gok@@ 487
Gunn 487
Linden@@ 487
NC 487
Pli@@ 487
ahi 487
eren 487
eridae 487
izen 487
kiana 487
linger 487
lla 487
nek 487
omp@@ 487
pand@@ 487
poa 487
sn@@ 487
yssa 487
BK 486
Brass@@ 486
Büyük@@ 486
Chlamy@@ 486
Coral 486
Dalton 486
Gaming 486
Gil 486
Mał@@ 486
McMahon 486
Melit@@ 486
Patton 486
Pelec@@ 486
Singer 486
Steam 486
Sá@@ 486
Tip@@ 486
anlı 486
entra 486
hoon 486
och 486
pras@@ 486
quart 486
status 486
theria 486
tun 486
Ø@@ 486
ー 486
13.000 485
338 485
Hua 485
Koc@@ 485
Lid@@ 485
Nottingham 485
Tiberius 485
Twice 485
anza 485
arin 485
chenko 485
fort 485
kos@@ 485
kut@@ 485
oles 485
otox@@ 485
seneg@@ 485
tens 485
tisp@@ 485
ware 485
宗@@ 485
Alessandria 484
Catt@@ 484
Cov@@ 484
Duf@@ 484
EP@@ 484
FF@@ 484
Gum@@ 484
NH2 484
Nit@@ 484
Rotterdam 484
Shiva 484
Tech 484
Tong 484
dov@@ 484
gud 484
inen 484
nen 484
perus 484
rella 484
sie 484
sle@@ 484
wara 484
372 483
5,2 483
8.1 483
980 483
Adon@@ 483
Apache 483
Crimea 483
Croix 483
Fulham 483
Mia 483
Rajasthan 483
Roche 483
Sportiva 483
Teli@@ 483
Temple 483
UC 483
assim@@ 483
audi 483
bria 483
cheo 483
etat 483
hea 483
lula 483
m3 483
mass@@ 483
ngao 483
oss 483
seti@@ 483
sio 483
505 482
Auschwitz 482
Candy 482
Fair@@ 482
Independent 482
Marche 482
Nap@@ 482
Raja 482
Sakarya 482
Samar 482
Stella 482
Wr@@ 482
alar 482
aq 482
aspur 482
awara 482
eniaceae 482
fia 482
h00 482
hes@@ 482
istus 482
mandal 482
ogi 482
playoff 482
stad 482
ươ@@ 482
1766 481
4,4 481
Agu@@ 481
Benton 481
Cumberland 481
Doc@@ 481
Durham 481
Emer@@ 481
Ida 481
Kayseri 481
Lum@@ 481
Maeda 481
Serena 481
Tropid@@ 481
amoto 481
arian 481
bee 481
bourg 481
imura 481
inos 481
sera 481
viti@@ 481
1779 480
415 480
Alves 480
Bissau 480
Bong 480
Diap@@ 480
Krasnodar 480
Lille 480
Raw@@ 480
Samp@@ 480
Scipio 480
Timothy 480
acetate 480
cheon 480
circum@@ 480
dell 480
girl 480
mund@@ 480
podidae 480
zey@@ 480
332 479
490 479
Ardèche 479
BL 479
Brand 479
Crac@@ 479
Ear@@ 479
Emp@@ 479
Ethernet 479
Ghaz@@ 479
Hansen 479
Kh 479
Len 479
Lori 479
Marguerite 479
Memorial 479
Neville 479
Sugar 479
api@@ 479
canus 479
come 479
cub@@ 479
endi@@ 479
etic 479
iev 479
imo 479
orski 479
ropus 479
scor@@ 479
subl@@ 479
trata 479
try 479
ved@@ 479
ylic 479
่ 479
96,@@ 478
Christie 478
Lö@@ 478
Schi@@ 478
Syno@@ 478
Yoshida 478
center 478
eger 478
erre 478
holt 478
itsa 478
kina 478
lán 478
ocul@@ 478
transistor 478
1m 477
Albany 477
BR 477
ET@@ 477
Half 477
IN 477
Kazakh 477
MLS 477
Naz@@ 477
Phas@@ 477
Romero 477
Sardegna 477
Uşak 477
Vat@@ 477
Yat@@ 477
constr@@ 477
dalis 477
ders 477
ener@@ 477
ishima 477
now 477
297 476
45.@@ 476
Benedict 476
Case 476
Ces@@ 476
Davao 476
Divisione 476
Drôme 476
EMI 476
Kurz 476
Mikoyan 476
Naomi 476
Nauru 476
Sarı@@ 476
Taira 476
att 476
eaux 476
garh 476
mongol@@ 476
pep@@ 476
rating 476
tav@@ 476
yad 476
907 475
Bass 475
Billie 475
Carr 475
Gram 475
Haj@@ 475
Minogue 475
Montevideo 475
Puget 475
Season 475
Somali 475
Trias 475
Tunceli 475
Turing 475
bet 475
jen@@ 475
rovich 475
tamani 475
ycin 475
人@@ 475
383 474
476 474
555 474
Beast 474
Cis@@ 474
Dib@@ 474
Gard 474
Mass 474
Polo 474
Weimar 474
arac@@ 474
m.@@ 474
mess@@ 474
revol@@ 474
roy 474
sultan 474
ór@@ 474
י@@ 474
Blizzard 473
Castilla 473
Crazy 473
Gut@@ 473
Hyal@@ 473
Ivanovich 473
Kenn@@ 473
Keynes 473
Khab@@ 473
Martina 473
Muz@@ 473
Nil@@ 473
Nine 473
Oakland 473
Roi 473
Zem@@ 473
ande 473
ating 473
aun 473
beyli 473
erythr@@ 473
ididae 473
leben 473
pog@@ 473
school 473
sine 473
umen 473
昭@@ 473
294 472
334 472
Ai@@ 472
Andrzej 472
Books 472
Bénin 472
Ecto@@ 472
Exeter 472
Hale 472
Hylo@@ 472
Jolie 472
Mayer 472
Solo 472
Walking 472
Wendy 472
elop@@ 472
estina 472
god@@ 472
lem 472
ota@@ 472
parentid 472
rev@@ 472
say@@ 472
zan 472
20th 471
Ariège 471
Barrier 471
Jacobs 471
Kep@@ 471
Lucky 471
Midlands 471
Pali 471
Patt@@ 471
Pig@@ 471
Pisa 471
Sos@@ 471
acro@@ 471
bud@@ 471
ghur 471
izumi 471
lah@@ 471
ning@@ 471
nub@@ 471
ophyllaceae 471
stipul@@ 471
ṇ@@ 471
329 470
46,@@ 470
55,@@ 470
930 470
AZ 470
Barton 470
Craw@@ 470
Enrique 470
Eric@@ 470
Kumamoto 470
Nieder@@ 470
Tamb@@ 470
amon 470
ayev 470
bae 470
esiana 470
ober@@ 470
odora 470
thong 470
Ổ 470
市 470
4,8 469
403 469
999 469
Aden 469
Away 469
Cheng 469
Dalmatia 469
Det@@ 469
Haplo@@ 469
Kai@@ 469
Nutt@@ 469
Riley 469
SMS 469
Ud@@ 469
Warwick 469
Willem 469
Winchester 469
Yamagata 469
about 469
batus 469
bor 469
chem@@ 469
contr@@ 469
etidae 469
micro 469
mini@@ 469
otsk 469
ovia 469
stom@@ 469
toch@@ 469
ø 469
Alessandro 468
Bufonidae 468
Galer@@ 468
Gym@@ 468
Hip 468
Oste@@ 468
assus 468
atoria 468
biana 468
cep@@ 468
jeon 468
ković 468
ská 468
tah 468
trap@@ 468
730 467
Avenue 467
Chol@@ 467
Côtes 467
HDI 467
Kota 467
Labrador 467
Lay@@ 467
Lithuania 467
MM 467
Marg@@ 467
Plag@@ 467
Pomor@@ 467
Soc@@ 467
Tris@@ 467
Tup@@ 467
UD 467
Veronica 467
Xiph@@ 467
arh 467
asius 467
ferus 467
iniana 467
minut@@ 467
palustris 467
rell 467
402 466
Austral@@ 466
Brooke 466
FS 466
Pleasant 466
Shop 466
Unter@@ 466
Walsh 466
Water@@ 466
aven@@ 466
ilio 466
jar 466
oung 466
rugosa 466
tari@@ 466
toria 466
vier 466
wang@@ 466
800.000 465
Belfast 465
Doyle 465
Nagar 465
Ninja 465
Shannon 465
Smart 465
Theod@@ 465
Wyatt 465
Yakovlev 465
cell 465
hydride 465
montan@@ 465
obli@@ 465
rion 465
try@@ 465
yok@@ 465
ổ@@ 465
3.5 464
Antioch 464
BASIC 464
Beat 464
Berber 464
DR 464
Doha 464
Hann@@ 464
Ioannes 464
Jor@@ 464
Kagoshima 464
Klu@@ 464
Lynn 464
Noctu@@ 464
Psy@@ 464
SW@@ 464
UI 464
eson 464
lina 464
oui 464
yk 464
559 463
780 463
8000 463
820 463
Afric@@ 463
Asti 463
Bari 463
Hartmann 463
Hein@@ 463
Jum@@ 463
Mendes 463
Nur 463
Wings 463
hyn@@ 463
kit 463
olar@@ 463
omin@@ 463
ortho@@ 463
peroxide 463
rian 463
wood@@ 463
zhnev 463
ũy 463
97,@@ 462
Bagr@@ 462
Brittany 462
Coppa 462
LAN 462
Ryū@@ 462
anu 462
cing@@ 462
cinia 462
cup 462
dep@@ 462
emen 462
jean 462
jima 462
ogn@@ 462
ondr@@ 462
rel 462
simpl@@ 462
sworth 462
utz@@ 462
ılı 462
ラ@@ 462
18.000 461
292 461
Baba 461
Beth 461
Honolulu 461
Hérault 461
KB 461
Tencent 461
Tyson 461
bed@@ 461
dem 461
ement 461
eru 461
linea 461
only 461
ungu@@ 461
Bam@@ 460
Banda 460
Bret@@ 460
Cen@@ 460
Kach@@ 460
Matsumoto 460
Puc@@ 460
Riy@@ 460
Sheridan 460
Variety 460
Wi 460
calli@@ 460
comarca 460
heavy 460
jeong 460
vit 460
5,7 459
Andalusia 459
Bennington 459
Brande@@ 459
Coff@@ 459
Espir@@ 459
Fly 459
Huawei 459
Mar 459
Mustafa 459
PN@@ 459
Phle@@ 459
QT 459
Radi@@ 459
Terme 459
Tracy 459
UB 459
acker 459
anidae 459
antis 459
canadensis 459
disco 459
ecu@@ 459
iche 459
jed@@ 459
lor 459
olens 459
soundtrack 459
sq 459
ắ@@ 459
342 458
Brock 458
Canterbury 458
Guadalajara 458
Hawkins 458
Králov@@ 458
Lindau 458
Mili@@ 458
Ran 458
Style 458
batrach@@ 458
nodes 458
omic@@ 458
shar@@ 458
thur@@ 458
ynus 458
757 457
Akçak@@ 457
Antilles 457
Engine 457
Hacı@@ 457
Kalimantan 457
Lombard 457
Mariah 457
Matsu@@ 457
OK 457
Pine 457
Spider 457
Swan 457
aden 457
adin 457
califor@@ 457
cou@@ 457
derby 457
entis 457
iny 457
iran 457
quel@@ 457
quis@@ 457
vig@@ 457
海@@ 457
5,3 456
7000 456
Chic@@ 456
Cornell 456
Kafr 456
Mars@@ 456
Original 456
Set 456
Stadium 456
Try@@ 456
amur@@ 456
anka 456
avan 456
chic@@ 456
dop@@ 456
kas 456
ophthalm@@ 456
opp@@ 456
plur@@ 456
semic@@ 456
2B 455
700.000 455
BR@@ 455
Dau@@ 455
Deir 455
Ey@@ 455
Laf@@ 455
Lie 455
PF 455
Ryu 455
Verho@@ 455
amis 455
auchi 455
beng@@ 455
dom 455
etae 455
jac@@ 455
nic 455
opia 455
osc@@ 455
roph@@ 455
ult 455
undi 455
zim@@ 455
250@@ 454
Advance 454
Bedford 454
Djibouti 454
Epic 454
Gulf 454
Isle 454
Iw@@ 454
Metropolitan 454
Pron@@ 454
Ren 454
Ried@@ 454
Rim@@ 454
Services 454
Soh@@ 454
Vale 454
Wlad@@ 454
XD 454
diver@@ 454
dorsalis 454
enti 454
jae 454
moc@@ 454
palm@@ 454
rest@@ 454
wall@@ 454
yos@@ 454
0.5 453
57,@@ 453
Amazing 453
Brescia 453
Dinamo 453
Gloucester 453
H2@@ 453
Samurai 453
Tyr@@ 453
ariae 453
asus 453
bah 453
elec@@ 453
gin 453
ip 453
izu 453
one@@ 453
yma 453
1650 452
Arc 452
Chandler 452
Clement 452
Hessen 452
Küçük@@ 452
Mih@@ 452
Pam@@ 452
Sedan 452
Shr@@ 452
Stargard 452
Strong@@ 452
ning 452
otrichaceae 452
rex 452
rov 452
spec@@ 452
uber@@ 452
urg 452
uth@@ 452
人 452
Crist@@ 451
Fry@@ 451
Groß@@ 451
Her 451
Hwa 451
Jol@@ 451
Kerr 451
Lew@@ 451
Miley 451
Mund@@ 451
OR@@ 451
PK 451
Thraupidae 451
Too 451
Toyotomi 451
Vá@@ 451
Wein@@ 451
Wind 451
cand@@ 451
eza 451
ille@@ 451
leti@@ 451
libr@@ 451
maz@@ 451
own 451
umer 451
urs 451
Carpenter 450
Chinese 450
Drac@@ 450
Fairy 450
HM@@ 450
Heights 450
KT 450
Kens@@ 450
Léon 450
Magellan 450
PO 450
Sylvia 450
Tahiti 450
Takashi 450
Tart@@ 450
Teddy 450
Vr@@ 450
ayr@@ 450
erem@@ 450
gr. 450
iku@@ 450
inz@@ 450
kanji 450
liano 450
ols 450
ozone 450
som 450
Ơ@@ 450
Admiralty 449
Agon@@ 449
Alsace 449
Cari@@ 449
Castel 449
Gallo 449
HT 449
Hayes 449
Hector 449
Irene 449
Ito 449
Korean 449
Lotte 449
Mission 449
Neptune 449
Polys@@ 449
Pont@@ 449
Round 449
Steiner 449
Suffolk 449
Te 449
VR 449
agos 449
itr@@ 449
quez 449
rid 449
ump@@ 449
urea 449
ên@@ 449
ów@@ 449
이@@ 449
Belgrade 448
Born@@ 448
Cube 448
Gene 448
ISIL 448
Inkigayo 448
Middle 448
Paralympic 448
Sakhalin 448
Sèvres 448
Thrace 448
Trit@@ 448
Vendée 448
Zempl@@ 448
alop@@ 448
ağı 448
gil 448
hpur 448
izidae 448
peruvi@@ 448
tern@@ 448
unt 448
朱@@ 448
道@@ 448
58.@@ 447
Bear 447
Fields 447
Geoffrey 447
Jet@@ 447
Kha@@ 447
Martha 447
Mek@@ 447
Navarra 447
Nikolay@@ 447
Prem@@ 447
SF@@ 447
Schin@@ 447
Week 447
andros 447
eley 447
enea 447
esse 447
gius 447
semif@@ 447
varia 447
yri@@ 447
zewski 447
Ávila 447
ük 447
195@@ 446
Bohr 446
C3 446
Hermione 446
Imperial 446
Let@@ 446
Manning 446
Mehmed 446
Mercer 446
Pot 446
Sakai 446
Thames 446
Wid@@ 446
Yug@@ 446
alda 446
amphi@@ 446
analog 446
bull@@ 446
ende 446
ispin@@ 446
mere 446
mos 446
olius 446
tau@@ 446
yū 446
上@@ 446
帝 446
363 445
Alam@@ 445
Carnegie 445
Curie 445
Dul@@ 445
Esther 445
Federation 445
Flagstaff 445
Friedman 445
Gleason 445
Hyde 445
Jeong 445
Krist@@ 445
Moran 445
Oec@@ 445
Pardub@@ 445
Satan 445
Vaughan 445
Wei 445
Welsh 445
acty@@ 445
ahan 445
ansky 445
div@@ 445
enas 445
hit@@ 445
inas 445
nie 445
osidae 445
tilia 445
tose 445
tí 445
venez@@ 445
Drag@@ 444
Erem@@ 444
Fukushima 444
Hash@@ 444
Health 444
Hilbert 444
Jong@@ 444
Kuy@@ 444
Oder 444
Rash@@ 444
Seymour 444
Shelby 444
Stav@@ 444
Valent@@ 444
Ville 444
Wim@@ 444
Wind@@ 444
acor@@ 444
aguchi 444
anl@@ 444
antus 444
conn@@ 444
culum 444
idius 444
ouin 444
tron@@ 444
12,7 443
327 443
Aveyron 443
Bitcoin 443
Eye 443
Falkland 443
Index 443
Kill 443
Liguria 443
Muse 443
Poec@@ 443
Sidi 443
Tass@@ 443
Telecom 443
Worth 443
adan 443
autus 443
dru@@ 443
ever@@ 443
key@@ 443
mania 443
nog@@ 443
quadric@@ 443
uzman@@ 443
wei 443
小@@ 443
Arti@@ 442
Berger 442
Eh@@ 442
Glen 442
Ground 442
Göring 442
Ichigo 442
Khalifa 442
Ku 442
Nun@@ 442
Nut@@ 442
OECD 442
Rop@@ 442
Santander 442
Sriniv@@ 442
Woodson 442
athan 442
ball@@ 442
chari@@ 442
ień 442
kowo 442
phys@@ 442
post 442
uya 442
ASD 441
Daw@@ 441
GN@@ 441
Gilgamesh 441
Guitar 441
Hae 441
Hitch@@ 441
Lamb@@ 441
Los@@ 441
Moravia 441
Moy@@ 441
Nikon 441
Oriental 441
RF 441
TV1 441
Un 441
Yun@@ 441
abell@@ 441
agh 441
amen 441
chio 441
cycl@@ 441
geny 441
gigante@@ 441
igen 441
omni@@ 441
porphy@@ 441
白@@ 441
54,@@ 440
590 440
870 440
Cambr@@ 440
Clair 440
Ellip@@ 440
Extremadura 440
Flora 440
Hac@@ 440
Hermin@@ 440
Hillary 440
Hilton 440
Lour@@ 440
McCarthy 440
NP 440
Namco 440
Parn@@ 440
Ptolemy 440
Sciences 440
Stem@@ 440
aeg@@ 440
awan@@ 440
enka 440
ico@@ 440
ignon 440
leja 440
moll@@ 440
shell 440
squar@@ 440
stic@@ 440
urt 440
ć@@ 440
Ớ@@ 440
475 439
710 439
Andersen 439
Baikal 439
Buckingham 439
Chass@@ 439
Dracula 439
Eber@@ 439
Gastr@@ 439
Quentin 439
RN@@ 439
Tech@@ 439
Waterloo 439
abbrevi@@ 439
cc 439
cello 439
cli@@ 439
ibia 439
icha 439
igal 439
iner 439
ire@@ 439
nuc@@ 439
otri@@ 439
pizza 439
references 439
sitcom 439
yor@@ 439
ík 439
1.2 438
1640 438
376 438
512 438
ARM 438
Arthro@@ 438
Blanche 438
Brien 438
Brus@@ 438
CAF 438
Chav@@ 438
Chod@@ 438
Ciudad 438
Formosa 438
Fulton 438
Guide 438
Heavyweight 438
Ismail 438
Nürnberg 438
PI 438
Pick@@ 438
Ramos 438
Rashid 438
Rubin 438
UB@@ 438
Zara 438
arica 438
bos 438
dur 438
g. 438
hol 438
isse 438
kon 438
niidae 438
obe 438
sten 438
40.@@ 437
670 437
760 437
860 437
ASCII 437
Barker 437
Benz@@ 437
CCTV 437
Cag@@ 437
Cross@@ 437
Eskişehir 437
Gear 437
Hong@@ 437
Ille 437
Minneapolis 437
bok 437
kow 437
ków 437
lossus 437
omet@@ 437
sville 437
uck 437
uff@@ 437
wich 437
359 436
387 436
49.@@ 436
581 436
AIR 436
Aberdeen 436
Amenem@@ 436
CH3 436
Council 436
Counties 436
Glob@@ 436
Karabakh 436
March@@ 436
Randolph 436
Scheer 436
Trentino 436
Yes@@ 436
km@@ 436
neumon 436
obt@@ 436
seo 436
usha 436
yav@@ 436
神@@ 436
120.000 435
44.@@ 435
830 435
Aleut 435
Andri@@ 435
Capcom 435
ED@@ 435
Fres@@ 435
Frog 435
Kan 435
MI 435
Paradise 435
RB 435
Rumble 435
Theory 435
Waters 435
abo 435
annes 435
arom@@ 435
idopsis 435
iris 435
iste 435
ovic 435
tid@@ 435
Amorph@@ 434
Beaufort 434
Bofors 434
Brandt 434
Cool 434
Cow@@ 434
Gyp@@ 434
Hawker 434
Holy 434
Juno 434
Karaman 434
LCD 434
Lesotho 434
Made 434
Mann 434
Molotov 434
RD 434
Rodrigo 434
aal@@ 434
anap@@ 434
aves 434
cey@@ 434
dilat@@ 434
obar@@ 434
oser@@ 434
353 433
399 433
Aq@@ 433
August@@ 433
Braun@@ 433
Eck@@ 433
Fic@@ 433
Notre 433
Oppenheimer 433
PE 433
Shann@@ 433
Tern@@ 433
Viv@@ 433
Zaw@@ 433
crist@@ 433
othal@@ 433
pu 433
pung@@ 433
sm@@ 433
stigma 433
év@@ 433
ð@@ 433
œ@@ 433
γ 433
50,@@ 432
Abbey 432
Antonov 432
Belle@@ 432
Capp@@ 432
Gran 432
J.J.@@ 432
Language 432
Lyco@@ 432
Rex 432
Rous@@ 432
St.-@@ 432
U2 432
Vesp@@ 432
Vilaine 432
Yang@@ 432
alanx 432
ank 432
ardo 432
augh@@ 432
cyanide 432
gri@@ 432
gus 432
juli@@ 432
kay@@ 432
miya 432
serr@@ 432
spl@@ 432
thyr@@ 432
virg@@ 432
ü 432
BB@@ 431
Baj@@ 431
Digimon 431
Elias 431
Ferrari 431
Friuli 431
Grab@@ 431
Hov@@ 431
Kush@@ 431
Montréal 431
PG 431
Pala@@ 431
Stephan@@ 431
Uch@@ 431
Verdun 431
aglia 431
atii 431
cid@@ 431
eve 431
gig@@ 431
zur@@ 431
ân@@ 431
Acropora 430
Anjou 430
Associazione 430
Brown@@ 430
Bruxelles 430
Dobr@@ 430
Flower 430
Gyeonggi 430
Kitty 430
Market 430
Nikita 430
Reich@@ 430
Tekirdağ 430
Tung@@ 430
WTO 430
andina 430
ballet 430
dit 430
ignac 430
ink@@ 430
mixta 430
ring@@ 430
6,2 429
Baptist 429
Blo@@ 429
Blu@@ 429
Bundy 429
Greenwich 429
Griffin 429
Kron@@ 429
Leopard 429
Ley@@ 429
Lieb@@ 429
Mitsu@@ 429
NO3 429
Occit@@ 429
Prima 429
Qui 429
Theatre 429
aise 429
asch@@ 429
imin@@ 429
sod 429
tiz@@ 429
uu 429
ı 429
ụ@@ 429
宗 429
364 428
Gaur@@ 428
Hatt@@ 428
Hydro 428
Omega 428
Plant@@ 428
Schön@@ 428
Taekwondo 428
Target 428
hito 428
hyuk 428
liber@@ 428
medium 428
now@@ 428
onal 428
ospor@@ 428
pho@@ 428
rak@@ 428
ring 428
serp@@ 428
tion@@ 428
uris 428
usai 428
verse 428
394 427
911 427
Arth@@ 427
Carl@@ 427
Ceylon 427
Hey 427
Olom@@ 427
Parach@@ 427
Pratt 427
Reggio 427
T1 427
Tadeusz 427
amel@@ 427
anis 427
ebus 427
emor@@ 427
eus@@ 427
idan 427
known 427
mina 427
paci@@ 427
thé@@ 427
toni@@ 427
347 426
368 426
56,@@ 426
880 426
Brabant 426
Chaetodon 426
Energy 426
Franc@@ 426
Félix 426
Infinity 426
J1 426
Kub@@ 426
Leigh 426
ON@@ 426
Rin 426
Sagar 426
Sally 426
Savoy 426
Toruń 426
Wakayama 426
Yun 426
amer 426
lemma 426
marathon 426
oco 426
reta 426
vagin@@ 426
新@@ 426
432 425
AE@@ 425
Arag@@ 425
Canav@@ 425
Carrie 425
Dreams 425
Hick@@ 425
JR 425
Look 425
Mash@@ 425
Paz@@ 425
SG@@ 425
Schalke 425
Suv@@ 425
africanus 425
calo 425
coel@@ 425
dra@@ 425
guine@@ 425
isme 425
pat 425
tour@@ 425
under 425
witz 425
äl@@ 425
恭@@ 425
339 424
377 424
479 424
Bio@@ 424
CJ 424
Diane 424
Fontaine 424
Gamb@@ 424
Hib@@ 424
Madeira 424
Phar@@ 424
Pill@@ 424
Rick@@ 424
Royce 424
Sint 424
Theodosius 424
akere 424
hoff@@ 424
part 424
sim 424
suk 424
ugu@@ 424
usii 424
üm@@ 424
1756 423
369 423
Ami@@ 423
Axel 423
Broad@@ 423
CDC 423
Cantal 423
Clarence 423
Clyde 423
Eis@@ 423
Gaius 423
Giu@@ 423
Harr@@ 423
Liss@@ 423
Main@@ 423
Master@@ 423
Polem@@ 423
Reichs@@ 423
Schiff@@ 423
Sim 423
Sphagn@@ 423
Trieste 423
aii 423
ciano 423
deres 423
enza 423
irat 423
magna 423
maxima 423
spp 423
xit 423
Ü@@ 423
阮@@ 423
412 422
Athen 422
Br 422
Cartoon 422
Clu@@ 422
Fisch@@ 422
Nagano 422
Shell 422
Sputnik 422
alic@@ 422
alyp@@ 422
campan@@ 422
carbox@@ 422
discus 422
eun 422
oul@@ 422
phoen@@ 422
recti@@ 422
troc@@ 422
ulo 422
ushu 422
ɪ@@ 422
正@@ 422
416 421
5,8 421
Ahr@@ 421
Bolívar 421
Boone 421
Cerro 421
Coul@@ 421
Gang 421
Maritimes 421
Saitama 421
Sne@@ 421
VIP 421
Vitamin 421
Vocaloid 421
Vogel 421
Yoshim@@ 421
iPod 421
nac@@ 421
otyph@@ 421
polys@@ 421
sal 421
uz 421
周@@ 421
625 420
Bayburt 420
Boer 420
Chat@@ 420
Frances 420
IPA 420
ISBN 420
KV 420
Keys 420
MR 420
MX 420
Manz@@ 420
Narcissus 420
Parall@@ 420
aerts 420
aker 420
ayen 420
cuta 420
eas 420
eit@@ 420
eleph@@ 420
erbau@@ 420
ets@@ 420
hass@@ 420
hion 420
lion 420
mal 420
mare 420
moi 420
pay@@ 420
progester@@ 420
suke 420
1592 419
379 419
5,4 419
Caec@@ 419
Canis 419
Corrèze 419
Have 419
IO@@ 419
Johns 419
Junkers 419
Leonid 419
MF 419
MU 419
Maui 419
Osiris 419
Potenti@@ 419
Q. 419
Rock@@ 419
Sorbonne 419
Toei 419
UNICEF 419
Ulu@@ 419
acy 419
disco@@ 419
intric@@ 419
kreis 419
lez@@ 419
mí 419
opar@@ 419
pper 419
quad@@ 419
subs@@ 419
ucci 419
永@@ 419
366 418
431 418
Chall@@ 418
Constance 418
EFL 418
Hart@@ 418
Hits 418
Km 418
LR 418
ML 418
Mav@@ 418
Neill 418
Patterson 418
Penn 418
Richter 418
Rug@@ 418
Svi@@ 418
Tina 418
angalia 418
aureus 418
dl 418
eston 418
nur 418
ochromis 418
ouc@@ 418
racia 418
rescens 418
row@@ 418
till@@ 418
who 418
ylen 418
381 417
604 417
62@@ 417
705 417
770 417
Achilles 417
Alicia 417
Dumbledore 417
Funimation 417
Garfield 417
HK 417
Hidalgo 417
Lacer@@ 417
Mani@@ 417
Mode 417
Nikolay 417
Other 417
Peris@@ 417
Plo@@ 417
Rô@@ 417
Sex 417
Stamford 417
Turbo 417
Woll@@ 417
Yin 417
alongkorn 417
azaki 417
day@@ 417
ecz@@ 417
frazione 417
fru@@ 417
inj@@ 417
itum 417
rufus 417
sex 417
they 417
uncul@@ 417
visa 417
xer@@ 417
ylam@@ 417
東@@ 417
968 416
Dale 416
Dio 416
Fuch@@ 416
Gü@@ 416
McLean 416
Rodrigues 416
Schen@@ 416
Sobr@@ 416
Wool@@ 416
Zeno 416
aca@@ 416
aid@@ 416
box@@ 416
dam 416
dou 416
erh@@ 416
igami 416
indi 416
lach 416
okawa 416
than@@ 416
yk@@ 416
1661 415
362 415
398 415
Agnes 415
Cowan 415
Edirne 415
Fish 415
Guillaume 415
Jobs 415
Lyt@@ 415
MP3 415
Museum 415
Nati@@ 415
Odyssey 415
Pist@@ 415
Proso@@ 415
Saig@@ 415
Tallinn 415
Unity 415
Villeneuve 415
Yoga 415
athi@@ 415
delta 415
kav@@ 415
scho@@ 415
thel@@ 415
width 415
392 414
393 414
397 414
6,6 414
Achil@@ 414
Ail@@ 414
Atta 414
Charlemagne 414
Class 414
Dok@@ 414
Fernandes 414
Forrest 414
Haven 414
Hikaru 414
KH@@ 414
Kit 414
Krak@@ 414
Late 414
Linz 414
Loiret 414
M3 414
Monti@@ 414
Norris 414
Riemann 414
Ritter 414
SR@@ 414
Stel@@ 414
Vau@@ 414
Wing 414
axia 414
dat@@ 414
hang@@ 414
ichiro 414
mou@@ 414
ock@@ 414
orian 414
phenol 414
rar@@ 414
seri@@ 414
tennis 414
349 413
378 413
Artvin 413
Civ@@ 413
Disch@@ 413
E3 413
Elite 413
Freud 413
Goiás 413
Hutch@@ 413
Indi@@ 413
Judith 413
Shinji 413
Sé@@ 413
Together 413
Valois 413
Vl@@ 413
Where 413
eras 413
haem@@ 413
hime 413
hydroxy@@ 413
illas 413
iso 413
jah@@ 413
lier@@ 413
oura 413
samb@@ 413
ève 413
ṣ@@ 413
AND 412
Bulbo@@ 412
Canyon 412
Comoros 412
Financial 412
Göttingen 412
Hyo@@ 412
Magdalena 412
Mans@@ 412
Margar@@ 412
Nirvana 412
Scharnhorst 412
Source 412
Thak@@ 412
Train 412
adus 412
alog@@ 412
cheri 412
gir 412
produc@@ 412
stown 412
wen 412
wski 412
[...]
