. 0.9531685369630074
، 1
في 1
من 1
على 1
( 1
) 1
إلى 1
&quot; 0.4278805459655961
أن 1
عام 1
هو 1
وال@@ 1
التي 1
مع 1
: 1
ب@@ 1
عن 1
أو 1
لل@@ 1
ل@@ 1
و 1
كان 1
ما 1
هي 1
المتحدة 1
بعد 1
« 1
» 1
بين 1
الذي 1
ذلك 1
هذه 1
ك@@ 1
هذا 1
تم 1
- 1
و@@ 1
كانت 1
حيث 1
لا 1
ي@@ 1
ولد 1
@-@ 0.16453858197593552
وقد 1
خلال 1
قبل 1
الولايات 1
كما 1
بن 1
ف@@ 1
وفي 1
سنة 1
أ@@ 1
وي@@ 1
وت@@ 1
قد 1
مثل 1
ها 1
ه 1
وهو 1
لم 1
غير 1
عدد 1
الم@@ 1
/ 1
حتى 1
كل 1
له 1
وم@@ 1
كرة 1
ثم 1
المملكة 1
الت@@ 1
بعض 1
أمريكي 1
يمكن 1
لاعب 1
ت@@ 1
سي@@ 1
ين 1
ه@@ 1
ان 1
أكثر 1
هم 1
وهي 1
م 1
لي@@ 1
– 0.6714089511256616
والم@@ 1
أنه 1
وأ@@ 1
بشكل 1
% 1
ًا 1
غ@@ 1
أي 1
في@@ 1
وب@@ 1
بي@@ 1
دي 1
مدينة 1
ي 1
؛ 1
إ@@ 1
وكان 1
الأ@@ 1
ح@@ 1
قدم 1
عبد 1
ون 1
, 0.015988392291959995
العديد 1
يتم 1
لها 1
ية 1
بها 1
أخرى 1
ته 1
والتي 1
ش@@ 1
ز@@ 1
القرن 1
د@@ 1
ومن 1
أول 1
1 0.7671399953950229
الأول 1
فيها 1
ن@@ 1
مارس 1
عشر 1
ك 1
نادي 1
ولكن 1
ق@@ 1
ج@@ 1
عندما 1
بسبب 1
ع@@ 1
هناك 1
مجلس 1
العالم 1
حسب 1
الس@@ 1
محمد 1
الذين 1
دي@@ 1
تحت 1
منذ 1
يكون 1
الأولى 1
ول@@ 1
منها 1
وتوفي 1
مركز 1
العام 1
الح@@ 1
وس@@ 1
عند 1
ري@@ 1
به 1
ون@@ 1
الك@@ 1
الع@@ 1
ى 1
أيضًا 1
نسمة 1
لا@@ 1
الله 1
تها 1
بي 1
ب 1
ين@@ 1
مي@@ 1
لعب 1
جميع 1
أحد 1
2004 1
ان@@ 1
رو@@ 1
س@@ 1
وا@@ 1
ال@@ 1
ور@@ 1
لي 1
2 0.7297867740327861
حول 1
3 0.9010027635752191
جامعة 1
الحرب 1
سي 1
بال@@ 1
الأمريكية 1
ر@@ 1
ص@@ 1
ست@@ 1
مايو 1
يا 1
ق 1
مرة 1
ث@@ 1
الج@@ 1
يناير 1
ط@@ 1
الق@@ 1
منطقة 1
تكون 1
فبراير 1
الش@@ 1
ا 1
تلك 1
را@@ 1
ت 1
ة 1
أبريل 1
مجموعة 1
أكتوبر 1
علي 1
&#93; 1
الثاني 1
فقد 1
إلا 1
&#91; 1
بـ 1
الب@@ 1
يونيو 1
العمل 1
يوليو 1
ات 1
ديسمبر 1
سبتمبر 1
يقع 1
لكرة 1
وك@@ 1
تي@@ 1
مما 1
لو@@ 1
سياسي 1
وق@@ 1
است@@ 1
شركة 1
الن@@ 1
عضو 1
أنها 1
ر 1
خ@@ 1
تي 1
س 1
دون 1
فيه 1
نوفمبر 1
القدم 1
فإن 1
العربية 1
اً 1
4 0.8857003819927904
عليه 1
إن 1
أغسطس 1
م@@ 1
ولاية 1
ني@@ 1
ضد 1
ير 1
وا 1
طريق 1
رة 1
ار@@ 1
ل 1
فقط 1
الأخرى 1
المدينة 1
الف@@ 1
الوقت 1
يوم 1
تش@@ 1
د 1
عدة 1
ّ@@ 1
مت@@ 1
ولا 1
ن 1
10 0.9804035220578846
أما 1
كي@@ 1
5 0.9654725046958795
إحدى 1
الإ@@ 1
ذات 1
بدأ 1
مة 1
باسم 1
بر@@ 1
ض@@ 1
6 1
بما 1
الص@@ 1
يد 1
إذا 1
الحزب 1
إي@@ 1
أكبر 1
استخدام 1
يُ@@ 1
المنطقة 1
دة 1
عمل 1
وكانت 1
عليها 1
وذلك 1
لة 1
ع 1
يات 1
عبر 1
ج 1
لكن 1
والذي 1
كبير 1
الد@@ 1
وج@@ 1
أيضا 1
من@@ 1
ال 1
حوالي 1
وح@@ 1
ف 1
نظام 1
حالة 1
الرسمي 1
الثانية 1
رئيس 1
مو@@ 1
اني 1
تح@@ 1
تُ@@ 1
الحكومة 1
قام 1
جي@@ 1
هي@@ 1
بو@@ 1
حين 1
واحد 1
وف@@ 1
بالإضافة 1
جون 1
مواليد 1
الرغم 1
20 1
بة 1
ز 1
ونادي 1
علم 1
نفس 1
وإ@@ 1
اسم 1
تر@@ 1
عملية 1
ضمن 1
تين 1
العامة 1
15 1
مي 1
يقدر 1
مقاطعة 1
الر@@ 1
عة 1
وجود 1
8 1
الوطني 1
12 1
7 1
يل 1
أثناء 1
أن@@ 1
وع@@ 1
; 0.18067895473471768
يت@@ 1
الغ@@ 1
آخر 1
المغربية 1
وص@@ 1
للسكان 1
با@@ 1
تقع 1
تضم 1
بينما 1
فترة 1
شي@@ 1
ينتمي 1
يين 1
داخل 1
مح@@ 1
الدولة 1
الخ@@ 1
قة 1
العالمية 1
يه 1
تاريخ 1
لسنة 1
شارك 1
انتخب 1
اب@@ 1
واحدة 1
جهة 1
الاتحاد 1
فيلم 1
19 1
كبيرة 1
اله@@ 1
ام@@ 1
دا 1
اليوم 1
ري 1
مر@@ 1
نسبة 1
ما@@ 1
الط@@ 1
نحو 1
نشط 1
أجل 1
ات@@ 1
بأن 1
ومع 1
الملك 1
ور 1
والأ@@ 1
إقليم 1
الخاصة 1
11 1
الإحصاء 1
ار 1
جنوب 1
لت@@ 1
التعليم 1
30 1
9 1
مُ@@ 1
2010 0.8454888913713843
هما 1
ش 1
وقت 1
بن@@ 1
بار@@ 1
نوع 1
مان 1
رين 1
أصبح 1
14 1
سنوات 1
16 1
درجة 1
.@@ 1
والسكنى 1
ذ@@ 1
الفترة 1
مع@@ 1
ابن 1
زي@@ 1
ولدت 1
هـ 1
حزبياً 1
المح@@ 1
الي@@ 1
الوطنية 1
موسم 1
18 1
بل@@ 1
ير@@ 1
الحياة 1
فة 1
اي@@ 1
اد@@ 1
2013 1
تق@@ 1
معظم 1
قال 1
مار@@ 1
الجيش 1
25 1
ح 1
مصر 1
فيما 1
17 1
ول 1
لات 1
اس@@ 1
ود@@ 1
نهاية 1
آ@@ 1
وه@@ 1
13 1
المت@@ 1
ولم 1
الدين 1
يبلغ 1
تع@@ 1
فرنسا 1
أبو 1
تك@@ 1
التاريخ 1
تف@@ 1
ّ 1
رات 1
وبعد 1
كي 1
&amp; 0.4728016654872572
منتخب 1
مية 1
عمر 1
مست@@ 1
جي 1
آيت 1
بريطاني 1
الأرض 1
2009 0.9464916445652007
ني 1
مليون 1
بالت@@ 1
بل 1
21 1
غ 1
نا 1
دين 1
عين 1
2007 0.9984859412845762
الفيلم 1
2008 0.9329494357294648
دية 1
أحمد 1
ام 1
ٍ 1
وس 1
تن@@ 1
أل@@ 1
سن 1
الز@@ 1
رية 1
فر@@ 1
يجب 1
حصل 1
بح@@ 1
مختلفة 1
المُ@@ 1
شكل 1
حزب 1
نا@@ 1
الآن 1
بدأت 1
لية 1
كار@@ 1
اللغة 1
عدم 1
أر@@ 1
24 1
ثلاثة 1
تم@@ 1
دور 1
سكانها 1
2016 0.9045879346036327
الأمريكي 1
بطولة 1
المست@@ 1
اته 1
وعلى 1
الثالث 1
لعام 1
نة 1
يوجد 1
اء 1
حة 1
مق@@ 1
2006 0.9596960253519556
لمدة 1
والإ@@ 1
سكانه 1
لإ@@ 1
بت@@ 1
إذ 1
بري@@ 1
ألمانيا 1
َ@@ 1
سك@@ 1
الدوري 1
توفي 1
خاصة 1
جديدة 1
2011 0.770054597861672
بع@@ 1
الشيخ 1
شمال 1
مك@@ 1
وي 1
الاست@@ 1
بجماعة 1
لدى 1
تا@@ 1
23 1
ارة 1
إدارة 1
22 1
أيضاً 1
السكان 1
لأ@@ 1
الدوّار 1
لمشيخة 1
دُوَّار 1
وكذلك 1
مس@@ 1
تج@@ 1
كأس 1
القوات 1
بني 1
بناء 1
يت 1
الرئيس 1
مل@@ 1
ث 1
أوروبا 1
الكويكب 1
نفسه 1
كم 1
مباراة 1
اس 1
النظام 1
فريق 1
وش@@ 1
مجال 1
وغ@@ 1
2012 0.785629829830469
منه 1
قرية 1
أك@@ 1
مج@@ 1
الأطفال 1
أمريكية 1
لين 1
كتاب 1
تهم 1
كندا 1
القانون 1
وط@@ 1
ِ@@ 1
يك@@ 1
الرئيسي 1
اف@@ 1
كلية 1
اع@@ 1
المناطق 1
سبيل 1
كتب 1
أنواع 1
ليس 1
رون 1
تو@@ 1
أفضل 1
البلاد 1
الجديدة 1
النساء 1
وتم 1
ط 1
بإ@@ 1
المع@@ 1
بلغ 1
أصبحت 1
لت 1
الشمالية 1
قي@@ 1
ُ@@ 1
الل@@ 1
مسيرته 1
القديمة 1
الشركة 1
تا 1
الدولي 1
ده 1
الي 1
الدولية 1
2000 0.9624410981222963
المركز 1
غي@@ 1
يع@@ 1
_ 0.8036504575141097
عادة 1
برنامج 1
27 1
سل@@ 1
يس 1
بات 1
منصب 1
برو@@ 1
28 1
26 1
البحر 1
بواسطة 1
يًا 1
الغربية 1
أعمال 1
عرض 1
أقل 1
2015 0.7453173383725301
بداية 1
مون 1
قائمة 1
نيويورك 1
وم 1
الناس 1
مات 1
جانب 1
2014 0.7256373599790016
العربي 1
شخص 1
2005 0.9609811569707558
عاماً 1
سكان 1
المن@@ 1
َّ@@ 1
الدول 1
أم@@ 1
أعلى 1
الاسم 1
يو 1
يق@@ 1
الإنسان 1
الأعمال 1
فاز 1
فية 1
ةً 1
يست@@ 1
الكثير 1
لهم 1
محافظة 1
دولار 1
تتبع 1
ود 1
الهند 1
لو 1
انية 1
يلعب 1
مش@@ 1
واست@@ 1
الض@@ 1
بأ@@ 1
الأمر 1
مه 1
رت 1
مستوى 1
المثال 1
بد@@ 1
حياته 1
المجلس 1
قانون 1
ض 1
لك@@ 1
وما 1
اد 1
الدفاع 1
والح@@ 1
مص@@ 1
الث@@ 1
اتها 1
الاجتماعية 1
بر 1
لأن 1
إنتاج 1
أُ@@ 1
ّة 1
دولة 1
اك@@ 1
سلسلة 1
للأ@@ 1
المجتمع 1
وهذا 1
عي 1
يكن 1
29 1
تص@@ 1
الطاقة 1
باستخدام 1
مدرسة 1
بالم@@ 1
دو 1
-@@ 1
المياه 1
سب@@ 1
الرئيسية 1
وضع 1
إعادة 1
برا@@ 1
مد@@ 1
العشرين 1
فوق 1
حركة 1
نتيجة 1
موقع 1
يون 1
عالم 1
سون 1
دائرة 1
حي@@ 1
العسكرية 1
وز@@ 1
ارات 1
يني 1
المر@@ 1
َ 1
وحدة 1
الجنوبية 1
بور@@ 1
را 1
لق@@ 1
سن@@ 1
المرأة 1
وزارة 1
الأكثر 1
ست 1
ص 1
عات 1
السياسية 1
الكتاب 1
ا@@ 1
جائزة 1
الان@@ 1
لكل 1
جوائز 1
الو@@ 1
ظ@@ 1
&apos; 0.14447026554809184
الفرنسية 1
ند@@ 1
دها 1
اري 1
رقم 1
وري 1
كة 1
يو@@ 1
سة 1
عم@@ 1
تصنيف 1
لح@@ 1
دار 1
منظمة 1
دا@@ 1
كانوا 1
ثلاث 1
ممثل 1
قامت 1
= 0.9651535461564839
منهم 1
الصين 1
لذلك 1
ورة 1
حر@@ 1
الشرقية 1
2003 1
2020 0.7618678517504205
الجديد 1
لهذا 1
سان 1
يعتبر 1
اح@@ 1
الألعاب 1
الدم 1
أمام 1
خ 1
مه@@ 1
حد 1
لف@@ 1
جورج 1
بالنسبة 1
مين 1
تخ@@ 1
كون@@ 1
2017 0.6785978103063336
عل@@ 1
وية 1
حرب 1
خارج 1
شرق 1
ـ@@ 1
السعودية 1
٪ 1
السي@@ 1
المعلومات 1
لان 1
تون 1
تعتبر 1
تس@@ 1
أس@@ 1
شهر 1
أولاد 1
أدى 1
تستخدم 1
السابق 1
دراسة 1
زي 1
نية 1
البريطانية 1
فو@@ 1
نشر 1
الحركة 1
كذلك 1
بأنه 1
أشهر 1
يم 1
لندن 1
ترا@@ 1
سو@@ 1
تب@@ 1
مر 1
اج@@ 1
الإسلامية 1
التالية 1
كا 1
ائ@@ 1
كريكت 1
إنشاء 1
بش@@ 1
زيادة 1
حي 1
المص@@ 1
وان@@ 1
الشرق 1
ذكر 1
نهر 1
طة 1
فت@@ 1
إن@@ 1
بية 1
ينا 1
أصل 1
أستراليا 1
جيمس 1
جو@@ 1
عبارة 1
انتقل 1
كندي 1
حكم 1
أ 1
متر 1
أهم 1
وبالتالي 1
يستخدم 1
الحكم 1
وسط 1
يقوم 1
العليا 1
كور@@ 1
تد@@ 1
العراق 1
أمريكا 1
جزء 1
بط@@ 1
در@@ 1
إس 1
خط 1
2002 0.910539026066769
اب 1
حالات 1
كو@@ 1
السنة 1
كويكبات 1
المواد 1
سجل 1
تعداد 1
2018 0.596945532479868
.. 1
ممثلة 1
ُ 1
كر@@ 1
... 1
قسم 1
الجزء 1
دوار 1
بان@@ 1
قاعدة 1
عنه 1
يش@@ 1
الخلايا 1
حكومة 1
ولي 1
أفريقيا 1
جة 1
الجمعية 1
جزيرة 1
دو@@ 1
أعضاء 1
نقل 1
جن@@ 1
جو 1
تو 1
الصحة 1
دات 1
راً 1
وض@@ 1
جمهورية 1
2019 0.6225968503209333
الماء 1
هار@@ 1
اش@@ 1
توجد 1
صغيرة 1
يلي 1
2001 0.873905775023868
القرية 1
لأول 1
الحديث 1
ينة 1
إليه 1
العلمي 1
با 1
ويمكن 1
بق@@ 1
التاسع 1
كان@@ 1
وين@@ 1
يح@@ 1
أنحاء 1
الشخصية 1
يعمل 1
المختلفة 1
به@@ 1
قوة 1
سم@@ 1
وأن 1
الفرنسي 1
اق@@ 1
تز@@ 1
وفق 1
العلوم 1
31 1
الديمقراطي 1
معركة 1
ألف 1
وسياسي 1
تطوير 1
لون 1
التابعة 1
مان@@ 1
البحرية 1
الرابع 1
الحالات 1
تعمل 1
كو 1
أربعة 1
العاصمة 1
دت 1
للإ@@ 1
المجموعة 1
العصر 1
مرحلة 1
النوع 1
الية 1
جديد 1
نق@@ 1
الموقع 1
100 0.833501558202794
أي@@ 1
وخ@@ 1
المدرسة 1
فا@@ 1
ملك 1
المج@@ 1
ويليام 1
التالي 1
الخاص 1
مكان 1
الأخيرة 1
البي@@ 1
بت 1
خط@@ 1
قصة 1
انا 1
التجارية 1
ته@@ 1
مت 1
مناطق 1
طول 1
إسبانيا 1
انه 1
هيئة 1
توضيح 1
تل@@ 1
سم 1
إضافة 1
الدراسات 1
المش@@ 1
غرب 1
قي 1
عائلة 1
المحلية 1
الجامعة 1
عقد 1
الاجتماعي 1
شر@@ 1
اه@@ 1
لوا 1
اليابان 1
لويس 1
تقوم 1
تقدم 1
الشمس 1
كت@@ 1
والت@@ 1
زة 1
كل@@ 1
الخارجية 1
عية 1
شخصية 1
الة 1
العملية 1
عه 1
دير 1
لان@@ 1
البعض 1
ئة 1
العظمى 1
عهد 1
لم@@ 1
الأشخاص 1
مجلة 1
مز@@ 1
رجل 1
نج@@ 1
فق@@ 1
معه 1
تأثير 1
يؤدي 1
مشروع 1
مصطلح 1
كس 1
نطاق 1
وغيرها 1
دان 1
الجزائر 1
تحديد 1
الفريق 1
إليها 1
تعلم 1
بيت 1
المق@@ 1
حقوق 1
بين@@ 1
ظهر 1
العلاج 1
ولا@@ 1
وفاة 1
الوسط 1
تشمل 1
از@@ 1
عها 1
روسيا 1
والده 1
قية 1
كية 1
إل@@ 1
العالمي 1
مها 1
ارية 1
قوات 1
النواب 1
طريقة 1
حياة 1
الحديثة 1
سطح 1
الأراضي 1
وسي@@ 1
الشمال 1
وحتى 1
بول@@ 1
سيدي 1
الأساسية 1
1999 0.8681298517184904
الملكية 1
دخل 1
ائي 1
سين 1
ةٍ 1
الكبير 1
عمليات 1
وتح@@ 1
أور@@ 1
شي 1
العمر 1
الأمير 1
الثورة 1
الجسم 1
جمعية 1
عد@@ 1
الجنوب 1
ئ 1
البر@@ 1
أص@@ 1
معسكر 1
َّة 1
وت 1
رب 1
ولي@@ 1
بالأ@@ 1
دًا 1
تحتوي 1
أم 1
وزير 1
يعد 1
أيام 1
الكنيسة 1
الهجوم 1
در 1
لديها 1
تان 1
البحث 1
أواخر 1
الأوروبي 1
الانتخابات 1
الحيوانات 1
ياً 1
عامي 1
الجزيرة 1
بيل 1
جين 1
عامة 1
بات@@ 1
الدرجة 1
الميلاد 1
الجوية 1
الألمانية 1
ادة 1
لين@@ 1
روا 1
الرا@@ 1
وني 1
نت 1
آل 1
حدث 1
جر 1
1998 0.9182333255548126
حسن 1
روبرت 1
مل 1
كر 1
وادي 1
50 0.9053668690773752
أبي 1
وات 1
الداخلية 1
الكبرى 1
يل@@ 1
مسلسل 1
الحالة 1
الإمبراطورية 1
عي@@ 1
رأس 1
إيطاليا 1
دورة 1
ره 1
والع@@ 1
تت@@ 1
الأولمبية 1
1990 0.8632119625250206
ئ@@ 1
تر 1
فه 1
بعدها 1
جبل 1
ِّ@@ 1
السلطة 1
البيانات 1
مختلف 1
فار@@ 1
أهل 1
إسرائيل 1
فر 1
نظرية 1
باب 1
الحصول 1
دوري 1
حاليا 1
ضة 1
لجنة 1
وَ@@ 1
عنها 1
1996 0.9609897850002174
المغرب 1
تض@@ 1
شبكة 1
السياسي 1
ولة 1
الطب 1
سين@@ 1
طلب 1
وجه 1
الأمم 1
مون@@ 1
صي@@ 1
أفلام 1
اغ@@ 1
اليد 1
يز 1
جر@@ 1
عاد 1
مقابل 1
وف 1
1992 0.9840197985527736
خلالها 1
الطبية 1
لقد 1
هدف 1
تعد 1
الوسطى 1
فين 1
بالقرب 1
الإنترنت 1
يان 1
قناة 1
سابقاً 1
باريس 1
تقديم 1
طويلة 1
هن 1
العرب 1
عت 1
اي 1
رب@@ 1
فا 1
أد@@ 1
الحدود 1
عامًا 1
عر@@ 1
وفقًا 1
فري@@ 1
أوائل 1
خاص 1
أغ@@ 1
لاً 1
سوريا 1
1997 0.9384860735219427
الإسلام 1
الصحية 1
خي@@ 1
لكنه 1
نو@@ 1
بالإ@@ 1
الوزراء 1
لـ 1
الموسم 1
وقال 1
بول 1
الوصول 1
فل@@ 1
الطبيعية 1
حص@@ 1
كون 1
المغ@@ 1
حل 1
هنري 1
جه@@ 1
أمر 1
يف@@ 1
البداية 1
الإنجليزية 1
ـ 1
أعلن 1
سر@@ 1
الألماني 1
الأكبر 1
نقطة 1
بالق@@ 1
شبه 1
رها 1
اتهم 1
آسيا 1
قر@@ 1
دول 1
الأمن 1
النادي 1
اتحاد 1
الطريق 1
شيء 1
رواية 1
كاتب 1
المخ@@ 1
كين 1
نف@@ 1
ائية 1
بحلول 1
المسيحية 1
إنجلترا 1
المرحلة 1
داً 1
الشعب 1
عشرة 1
وري@@ 1
يشير 1
دعم 1
بأنها 1
السابقة 1
المصرية 1
formula 0.5402445795702376
الخامس 1
ظهرت 1
gt 0.6563102732427111
مؤسسة 1
معهم 1
قص@@ 1
اف 1
المسلمين 1
مباشرة 1
عالية 1
وله 1
ومن@@ 1
جان 1
وتع@@ 1
1991 0.9493929824387611
كثير 1
مغ@@ 1
البريطاني 1
بهم 1
ٌ 1
الموجودة 1
تري@@ 1
كري@@ 1
اليمن 1
بير@@ 1
الحرارة 1
1994 0.9335136014372579
ادي 1
قيمة 1
ء 1
نفسها 1
وفاته 1
حجم 1
اص@@ 1
فيل 1
الأحيان 1
الجمهوري 1
كاليفورنيا 1
العلاقات 1
المدارس 1
تست@@ 1
كام@@ 1
الدينية 1
تشير 1
معدل 1
تمت 1
يتبع 1
فئة 1
lt 0.6720629124698806
ذو 1
ونية 1
طر@@ 1
سر 1
نصف 1
البرلمان 1
1995 0.9098780403968821
جنس 1
مور@@ 1
كلمة 1
الصغيرة 1
بلدية 1
يحدث 1
متوسط 1
رغم 1
واسع 1
الرجال 1
فور@@ 1
وهناك 1
جنسية 1
المكان 1
الثالثة 1
بان 1
ظهور 1
القلب 1
خمسة 1
يس@@ 1
فون 1
1980 0.9639815851668696
إبراهيم 1
تحقيق 1
1993 0.9548460797044437
للح@@ 1
الذ@@ 1
العلمية 1
الغربي 1
ناحية 1
سيتي 1
ذا 1
الشركات 1
الاقتصادية 1
قتل 1
النباتات 1
العمال 1
أح@@ 1
1989 1
تل 1
الصيفية 1
قيادة 1
بذلك 1
وفي@@ 1
الشرطة 1
يعرف 1
ميل 1
سبب 1
تنظيم 1
؟ 1
المط@@ 1
يوس 1
وصف 1
راء 1
0 0.6343138426764678
اللا@@ 1
ولكنه 1
التح@@ 1
اللجنة 1
الشكل 1
توماس 1
سلة 1
ديفيد 1
لهذه 1
ِ 1
of 0.009264871398868474
الأسرة 1
سابق 1
فين@@ 1
البطولة 1
المس@@ 1
وار@@ 1
يك 1
فرقة 1
وسائل 1
الأوروبية 1
الجهاز 1
بالح@@ 1
الجمهورية 1
شا@@ 1
بص@@ 1
1988 1
الإشارة 1
مؤ@@ 1
انة 1
علماء 1
والك@@ 1
الشعبية 1
بحيث 1
مدى 1
بريطانيا 1
سانت 1
منتصف 1
أو@@ 1
مخ@@ 1
وليس 1
يف 1
سوق 1
وصل 1
العلماء 1
إجراء 1
عب@@ 1
سية 1
معينة 1
أعلنت 1
لن 1
إي 1
مض@@ 1
فهو 1
المدن 1
سوس 1
1984 1
أهمية 1
حات 1
لصالح 1
طل@@ 1
يخ@@ 1
السادس 1
يعني 1
بنسبة 1
تسمى 1
الخامسة 1
فهي 1
الإنتاج 1
فلسطين 1
تبلغ 1
تظهر 1
مث@@ 1
الكبيرة 1
تحدث 1
1986 1
معهد 1
العلم 1
يسمى 1
تحمل 1
وث@@ 1
مَ@@ 1
مرض 1
بعنوان 1
المرض 1
ارتفاع 1
تأسيس 1
وتر@@ 1
تولى 1
politician 1
الشباب 1
جمع 1
فات 1
قه 1
سا@@ 1
تعرف 1
تشارلز 1
الفي@@ 1
حق 1
الأحداث 1
أخ@@ 1
قط@@ 1
مات@@ 1
الثقافة 1
فهم 1
مهمة 1
قات 1
يرا 1
أساس 1
بلا@@ 1
نظ@@ 1
نس@@ 1
از 1
محطة 1
قرار 1
يز@@ 1
أشكال 1
الآخر 1
40 0.8522932803517805
هؤلاء 1
مًا 1
فكرة 1
قب@@ 1
الواقع 1
الأسر 1
1982 1
جاء 1
جهاز 1
التابع 1
يقول 1
أفراد 1
ثر 1
اللعب 1
رًا 1
وب 1
لما 1
لوس 1
مب@@ 1
يناهز 1
او@@ 1
الات 1
اع 1
حد@@ 1
هر 1
نقاط 1
تط@@ 1
رس@@ 1
يعود 1
1979 1
حية 1
اله 1
للا@@ 1
حصلت 1
مط@@ 1
ورا@@ 1
قد@@ 1
القديم 1
برامج 1
يظهر 1
أغنية 1
صدر 1
1987 1
العزيز 1
ورية 1
البرنامج 1
تأسست 1
اه 1
المحيط 1
المالية 1
تصل 1
مساحة 1
وكاتب 1
دون@@ 1
المباراة 1
لقب 1
الإسلامي 1
وبين 1
موا 1
سا 1
1948 1
المحكمة 1
1985 1
النظر 1
علاقة 1
1945 0.8986817223514232
بغداد 1
المصري 1
شاركت 1
زا 1
أسرة 1
اط@@ 1
متعددة 1
وان 1
غالبًا 1
لاحق 1
يّة 1
الأقل 1
المادة 1
مرات 1
المعروف 1
فان 1
السلام 1
بو 1
نز@@ 1
يم@@ 1
ظل 1
الطريقة 1
بلدة 1
البيضاء 1
يحتوي 1
1970 0.9395476304187954
مجموعات 1
الخدمة 1
الهواء 1
أنهم 1
بِ@@ 1
الا 1
بدون 1
إم 1
لف 1
الشرقي 1
تونس 1
بنفس 1
أهداف 1
لاند 1
الأنواع 1
ثة 1
الأبيض 1
يصل 1
نص@@ 1
جيش 1
ينية 1
طي@@ 1
الإعلام 1
ونسبة 1
واشنطن 1
الطلاب 1
الأحمر 1
المه@@ 1
1967 1
التاريخية 1
درس 1
البشرية 1
تكن 1
الحالي 1
طرق 1
مرا@@ 1
القوة 1
خان 1
ستة 1
وحمل 1
1983 1
صناعة 1
فت 1
اره 1
كلي@@ 1
التقليدية 1
الأمراض 1
تصميم 1
الـ 1
المجال 1
حدود 1
ترو@@ 1
لأنه 1
باللغة 1
ذي 1
دور@@ 1
يوسف 1
صورة 1
المستوى 1
الفنية 1
اوي 1
مين@@ 1
ودي@@ 1
يري 1
وهم 1
الإدارة 1
لب 1
هام 1
ادات 1
داء 1
جا 1
الثانوية 1
أربع 1
النهاية 1
له@@ 1
نش@@ 1
تور@@ 1
الأخير 1
لبريطانيا 1
نسخة 1
كامل 1
غري@@ 1
1981 1
الدراسة 1
لغة 1
فيروس 1
الشخص 1
المتوسط 1
باً 1
لغ@@ 1
السنوات 1
عديدة 1
إيران 1
وتق@@ 1
الغرب 1
وأيرلندا 1
ارا 1
الحكومية 1
حسين 1
! 0.5452517796079247
اة 1
دفع 1
ابة 1
القاهرة 1
القصة 1
بقيادة 1
كات@@ 1
الثامن 1
سان@@ 1
أث@@ 1
أخذ 1
بشأن 1
دن 1
مدن 1
المك@@ 1
لن@@ 1
الرعاية 1
تغيير 1
فن 1
طروادة 1
دمشق 1
التر@@ 1
السلطان 1
كرا@@ 1
الماضي 1
إطلاق 1
أش@@ 1
الجنسية 1
الاقتصاد 1
سوف 1
دار@@ 1
شار@@ 1
شع@@ 1
الرواية 1
البيئة 1
الكويت 1
+ 0.9230290411405985
دد 1
عيد 1
بس@@ 1
ينات 1
سواء 1
الفضاء 1
السياسة 1
للغاية 1
الاحترافية 1
صحيفة 1
المؤ@@ 1
داد 1
جعل 1
اكتشف 1
نت@@ 1
تزال 1
مف@@ 1
رجال 1
روس 1
تَ@@ 1
النفس 1
فها 1
بير 1
1974 1
المي@@ 1
قائد 1
الخدمات 1
سميث 1
نيو 1
رفض 1
1975 1
يتعلق 1
الكتب 1
1978 1
اما 1
دبليو 1
سعيد 1
مكتب 1
1976 1
ذ 1
جدا 1
خدمة 1
بالك@@ 1
صة 1
تابعة 1
خر@@ 1
بالع@@ 1
المتعلقة 1
جل@@ 1
ويتم 1
بخ@@ 1
الطفل 1
أع@@ 1
الكلية 1
السابع 1
كوم@@ 1
يه@@ 1
الأوسط 1
غا 1
شهادة 1
التجارة 1
دع@@ 1
اليهود 1
الثامنة 1
بالإنجليزية 1
ريا 1
الروسية 1
1973 1
مال@@ 1
البلدان 1
الأفراد 1
طي 1
والف@@ 1
بون@@ 1
وأن@@ 1
انضم 1
كرو@@ 1
والق@@ 1
الدي@@ 1
دم 1
بار 1
الطبيعي 1
شه@@ 1
الموسيقى 1
شغل 1
رج@@ 1
المنظمة 1
بهذا 1
كن@@ 1
ويل 1
الرومانية 1
نتائج 1
محاولة 1
فرق 1
نه@@ 1
الأمريكيين 1
الطائرة 1
معلومات 1
ليست 1
الأعلى 1
والعشرين 1
أف@@ 1
اسمه 1
حال 1
تار@@ 1
لاحقًا 1
ولكنها 1
عصر 1
انتخابات 1
ورا 1
أجهزة 1
ارد 1
الأكاديمية 1
ورد 1
الساعة 1
درا@@ 1
نقص 1
الها 1
عليهم 1
ادية 1
البا@@ 1
مملكة 1
يزيد 1
ماري 1
ترك 1
دواوير 1
الأردن 1
البل@@ 1
دف@@ 1
البشر 1
1972 1
امة 1
تس 1
طائرة 1
جزر 1
الولاية 1
الزواج 1
المشروع 1
حملة 1
أحداث 1
القدرة 1
اللي@@ 1
الرحمن 1
ستون 1
العمليات 1
وانتخب 1
الشعر 1
وة 1
العثمانية 1
ارت 1
بيانات 1
قل@@ 1
الرياضية 1
السوق 1
المرضى 1
أق@@ 1
طالب 1
حدوث 1
قها 1
بك@@ 1
الأعضاء 1
البرازيل 1
عَ@@ 1
رو 1
الضغط 1
ماء 1
بًا 1
المعروفة 1
لبنان 1
وار 1
عكس 1
الفن 1
ماً 1
الجنسي 1
المكسيك 1
الطرق 1
أجزاء 1
هل 1
واسعة 1
مدة 1
تشكل 1
ثاني 1
الأر@@ 1
صور 1
1968 1
الآثار 1
كتابه 1
منح 1
جبال 1
1960 0.8902138057296137
1977 1
يَّة 1
ستر 1
عمله 1
للو@@ 1
الشر@@ 1
تتضمن 1
خمس 1
لِ@@ 1
الأفلام 1
ويُ@@ 1
وقعت 1
1971 1
بلاد 1
تطور 1
فصل 1
والص@@ 1
يونايتد 1
مفهوم 1
الفر@@ 1
كول@@ 1
النوادي 1
مدر@@ 1
عادةً 1
نين 1
قيد 1
تتكون 1
تمثل 1
العسكري 1
صالح 1
والد@@ 1
إيه 1
60 0.9405967953216069
اعي 1
صاحب 1
تقريبًا 1
دين@@ 1
لى 1
الهدف 1
الدكتور 1
قين 1
كات 1
يزال 1
ؤ@@ 1
1969 1
بطريقة 1
بغ@@ 1
1964 1
بون 1
بلو@@ 1
وز 1
الاس@@ 1
السيد 1
دى 1
سكي 1
النووي 1
” 0.33724902117682437
المسلسل 1
الجانب 1
السورية 1
فير@@ 1
المنزل 1
وأصبح 1
الوحيد 1
تعرض 1
تطبيق 1
العدد 1
رك@@ 1
وعندما 1
ماك@@ 1
هر@@ 1
إصدار 1
فتح 1
عام@@ 1
the 0.0038501587174447826
أول@@ 1
إنه 1
سط@@ 1
وممثل 1
ساعة 1
المهنية 1
انظر 1
1963 1
التع@@ 1
تركيا 1
فرا@@ 1
المرا@@ 1
ريتشارد 1
قصيرة 1
الحالية 1
امي 1
النا@@ 1
نواب 1
بموجب 1
تعود 1
مطار 1
تعتمد 1
وغير 1
رَ@@ 1
عمان 1
مدير 1
مهم 1
حياتها 1
لًا 1
باشا 1
1950 0.9242988184577375
قت 1
السيطرة 1
مقارنة 1
تغ@@ 1
بع 1
باب@@ 1
القدس 1
الأساسي 1
وجد 1
التص@@ 1
كلا 1
لديه 1
ً 1
النار 1
النقطة 1
امرأة 1
حماية 1
هة 1
ونصف 1
اختبار 1
وى 1
ليون 1
باد@@ 1
الأدب 1
مياه 1
العصور 1
للت@@ 1
الآ@@ 1
رد 1
محامي 1
القرآن 1
زية 1
فول@@ 1
الأصل 1
ضغط 1
مسجد 1
وبة 1
فإنه 1
قصر 1
تسبب 1
ربما 1
الحيوية 1
الآخرين 1
الإغريق 1
يب 1
سو 1
كيف 1
بدلاً 1
والس@@ 1
الام@@ 1
سير 1
التهاب 1
الإصابة 1
تأ@@ 1
1962 1
باست@@ 1
سيا 1
الثقافية 1
الجنس 1
ثورة 1
هنا 1
المحور 1
حرارة 1
أنظمة 1
ماسة 1
علاج 1
آنذاك 1
المركزية 1
كيلومتر 1
وني@@ 1
عاصمة 1
مارك 1
عم 1
خدمات 1
منع 1
العائلات 1
1965 1
الثلاثة 1
بيع 1
طور 1
مذ@@ 1
الرسمية 1
نات 1
راد 1
&#124; 0.7479345067381368
ويبلغ 1
إل 1
المبكرة 1
ألعاب 1
خص@@ 1
الذكور 1
كنيسة 1
1956 1
النقل 1
غار@@ 1
يني@@ 1
البناء 1
الفرقة 1
تية 1
اث@@ 1
اختيار 1
نه 1
جل 1
شك@@ 1
قا 1
الأسود 1
درجات 1
عزلة 1
تنفيذ 1
وقع 1
بس 1
تشكيل 1
زل 1
جان@@ 1
اللون 1
حقق 1
أج@@ 1
* 0.4498092181721289
القوى 1
والش@@ 1
انها 1
خطوط 1
افة 1
بتاريخ 1
العالي 1
تحليل 1
لاست@@ 1
مواقع 1
المشاركة 1
بالن@@ 1
الإنجليزي 1
السبب 1
العنف 1
يسمح 1
ّر 1
يعتقد 1
الاقتصادي 1
مادة 1
كاب@@ 1
مليار 1
اك 1
المنتخب 1
او 1
وك 1
أسترالي 1
فض@@ 1
الدور 1
ريد 1
وخاصة 1
سرطان 1
متحف 1
مهرجان 1
انت@@ 1
دان@@ 1
إما 1
القائمة 1
اسي 1
مربع 1
لديهم 1
المؤتمر 1
السلة 1
المصطلح 1
مصادر 1
السلطات 1
الصناعية 1
الممكن 1
الشيوخ 1
العائلة 1
المحلي 1
لكنها 1
النمو 1
1958 1
مؤتمر 1
الشمالي 1
مدار 1
آسفي 1
السكاني 1
بعضها 1
3@@ 1
روما 1
قرر 1
ملعب 1
أسس 1
ونة 1
يَ@@ 1
جه 1
العرض 1
المعهد 1
سام@@ 1
السودان 1
جوزيف 1
ومي@@ 1
• 1
يتكون 1
قطاع 1
سليمان 1
امه 1
الحقوق 1
دوا 1
فيلد 1
قائ@@ 1
1966 1
العلاقة 1
كن 1
المدنية 1
بسرعة 1
الفلسطينية 1
مار 1
مول@@ 1
النهائي 1
غو 1
كثيرة 1
فرد 1
cricketer 1
نائب 1
1961 1
صر 1
سياسة 1
صح@@ 1
يبدو 1
صغير 1
المال 1
عد 1
أبناء 1
فن@@ 1
صوت 1
نموذج 1
طرف 1
مستويات 1
الديمقراطية 1
بيتر 1
كين@@ 1
والاست@@ 1
هام@@ 1
توا@@ 1
عُ@@ 1
المسجد 1
المل@@ 1
المعركة 1
كوك 1
سار@@ 1
إدوارد 1
كوريا 1
الـ@@ 1
المض@@ 1
وست@@ 1
دول@@ 1
The 0.01974292356562945
وكالة 1
مال 1
ضم 1
موا@@ 1
أعماله 1
ريك 1
الرو@@ 1
الصينية 1
تمكن 1
بينها 1
فصيلة 1
أطلق 1
مدريد 1
ايا 1
لك 1
أَ@@ 1
المصادر 1
رار 1
سب 1
الفرق 1
اخت@@ 1
إطار 1
برلين 1
سيناريو 1
وراء 1
شة 1
مستشفى 1
وال 1
كورونا 1
أبرز 1
انو 1
بَ@@ 1
خالد 1
آخرين 1
العهد 1
الزراعة 1
القيادة 1
فعل 1
نور@@ 1
ولها 1
تعريف 1
الذاتية 1
لفترة 1
1944 0.8417749819161549
محمود 1
هان 1
وبعض 1
قبيلة 1
عرف 1
الولادة 1
تعني 1
تقنية 1
إلي 1
وهذه 1
1949 1
عز@@ 1
يون@@ 1
شركات 1
1947 1
سوى 1
الخليج 1
المز@@ 1
شو@@ 1
دقيقة 1
أمير 1
شعر 1
بوت@@ 1
المزيد 1
وو@@ 1
زوجته 1
البار@@ 1
الأح@@ 1
خلايا 1
جدًا 1
الشبكة 1
80 0.9741399089392575
1946 1
لمحافظة 1
أرض 1
بج@@ 1
تحول 1
200 0.8332208765694512
عملت 1
قُ@@ 1
يمثل 1
ثي@@ 1
الجنوبي 1
الطعام 1
الاستقلال 1
بهدف 1
تسجيل 1
غرا@@ 1
الجوي 1
حالياً 1
التعداد 1
كُ@@ 1
رف@@ 1
لعبة 1
بجامعة 1
زين 1
فرع 1
قل 1
الروسي 1
أنجلوس 1
ساب@@ 1
المؤسسات 1
طر 1
أقدم 1
قطع 1
كتابة 1
المجموعات 1
بالس@@ 1
موسى 1
مدرب 1
الضوء 1
الإمام 1
جار@@ 1
سيد 1
وتش@@ 1
أوك@@ 1
للم@@ 1
مصدر 1
1940 0.9122462329559494
بمدينة 1
جيل 1
للحصول 1
التصميم 1
سع@@ 1
موسيقى 1
اض@@ 1
اليمنية 1
تحرير 1
خت@@ 1
مراكش 1
الحد 1
حب 1
1941 0.8800300333383133
الملكي 1
الهيئة 1
مته 1
النووية 1
رابطة 1
بصورة 1
عق@@ 1
الأصلية 1
الطبقة 1
1939 0.9316379582651929
المستخدمة 1
خلف 1
مد 1
وه 1
التحكم 1
الصحي 1
نى 1
شارع 1
روا@@ 1
لر 1
للعمل 1
1959 1
صف@@ 1
1957 1
“ 0.08774877282374291
أدت 1
خرج 1
ذهب 1
عون 1
ضي@@ 1
الشخصيات 1
ائه 1
الإمبراطور 1
موت 1
المد@@ 1
زال 1
سياسية 1
1955 1
الوحدة 1
البرامج 1
قطر 1
نشرت 1
يها 1
قضية 1
جغرافيا 1
الإمارات 1
جري@@ 1
ففي 1
المناخ 1
توزيع 1
القر@@ 1
عسكرية 1
القدر 1
footballer 1
الهندية 1
وق 1
عا 1
فًا 1
اكتشاف 1
برج 1
تاون 1
يعتمد 1
المؤقت 1
شن 1
ريس 1
قوانين 1
الجن@@ 1
وشارك 1
بيا 1
ريات 1
الوضع 1
لام 1
الاستخدام 1
ونا 1
النفط 1
ناء 1
بحسب 1
القرار 1
القسم 1
توفر 1
وصلت 1
ارها 1
العثور 1
النظرية 1
رمز 1
1954 1
سباق 1
بوب 1
الحاكم 1
تختلف 1
مور 1
الرابعة 1
تدخل 1
اخ@@ 1
فص@@ 1
1952 1
تجاه 1
توفير 1
وبلغ 1
يكا 1
انات 1
أنَّ 1
الإي@@ 1
سرعة 1
حض@@ 1
غي 1
وقف 1
كيفية 1
ّل 1
الحال 1
يؤ@@ 1
واء 1
التش@@ 1
5.@@ 1
الرجل 1
طن 1
مجتمع 1
13@@ 1
لاعبة 1
المريض 1
خارجية 1
انتشار 1
وير 1
يعيش 1
زوجها 1
استخدم 1
النبي 1
بينهم 1
قو@@ 1
يحمل 1
الهندسة 1
الصوت 1
كمية 1
جرا@@ 1
واق@@ 1
تجمع 1
المطلق 1
الأهلية 1
اتي 1
واله@@ 1
إخراج 1
أوب@@ 1
رحلة 1
النشاط 1
اده 1
قلب 1
محددة 1
المسلحة 1
تاب@@ 1
الإنسانية 1
الحمل 1
معين 1
زم 1
4@@ 1
رير 1
أه@@ 1
ربة 1
ذوي 1
قلعة 1
اط 1
البرو@@ 1
الاتصال 1
خل@@ 1
المعرفة 1
فورد 1
غل 1
ريك@@ 1
إحصائيات 1
مير 1
متح@@ 1
رسالة 1
صل 1
عامل 1
الكندي 1
أمين 1
اسمها 1
سات 1
لال 1
الطائرات 1
ومة 1
الطبيعة 1
تعيش 1
تاريخية 1
اج 1
الدقيقة 1
ومح@@ 1
قرب 1
معرفة 1
دراسات 1
عناصر 1
القمر 1
قياس 1
الدماغ 1
المشتري 1
تغير 1
ومنها 1
آثار 1
جد@@ 1
البيئية 1
بالفعل 1
والخ@@ 1
1943 0.8825911433857048
التصوير 1
تؤدي 1
الإسباني 1
جزءًا 1
قدرة 1
الفصل 1
فان@@ 1
ابي 1
عًا 1
واع@@ 1
َّ 1
الطيران 1
شعار 1
كوب@@ 1
ران 1
الدعم 1
200@@ 1
الأصلي 1
رز 1
نها 1
وتُ@@ 1
زيد 1
غر 1
جين@@ 1
قيم 1
يكي 1
الإيطالي 1
ثانية 1
John 0.257328648018419
أراضي 1
الأم 1
روب 1
رفع 1
المرتبة 1
حه 1
أيرلندا 1
فس@@ 1
نمو 1
كلا@@ 1
حاليًا 1
طوله 1
انخفاض 1
الفنون 1
1953 1
متنوعة 1
الحفاظ 1
منزل 1
السل@@ 1
غر@@ 1
فَ@@ 1
دهم 1
الأسلحة 1
الري@@ 1
يص@@ 1
كانون 1
فرنسي 1
ستي@@ 1
تكوين 1
أصول 1
المثليين 1
اوية 1
أغاني 1
الخط 1
لأنها 1
يطلق 1
ينو 1
كه 1
طبقة 1
السكانية 1
براون 1
داف@@ 1
النهائية 1
البلدة 1
السفر 1
العناصر 1
خطة 1
1942 0.8662244830553049
1951 1
ند 1
ْ@@ 1
خطر 1
أند@@ 1
آلاف 1
رق@@ 1
السوفيتي 1
معاهدة 1
سك 1
الرقم 1
الكيميائية 1
شر 1
ضات 1
بعضهم 1
يصبح 1
رام 1
35 0.9469880063741729
يد@@ 1
القيام 1
قدمت 1
آي 1
500 0.9083243028234438
باس@@ 1
بري 1
جاك 1
70 0.931600242364291
ديا 1
شو 1
ينغ 1
عنوان 1
طات 1
مارتن 1
ملا@@ 1
فيديو 1
حلب 1
المسرح 1
لاء 1
وممثلة 1
لس@@ 1
بهذه 1
ائها 1
تاج 1
فل 1
يّ 1
أسماء 1
أغلب 1
فع@@ 1
وفقا 1
يش 1
معروف 1
الخلية 1
الناحية 1
حق@@ 1
خلا@@ 1
صلاح 1
والن@@ 1
أساسي 1
الزراعية 1
سلا@@ 1
مناصب 1
الأولية 1
الاحتلال 1
مقر 1
والج@@ 1
يقصد 1
امية 1
ترجمة 1
ابنة 1
اللعبة 1
وسجل 1
تصوير 1
البرلمانية 1
بوس@@ 1
ولعب 1
خد@@ 1
الجليد 1
المرجعية 1
النتائج 1
سلطة 1
1936 1
ثنائي 1
بالج@@ 1
قرى 1
العوامل 1
القبائل 1
بمثابة 1
ائر 1
صنع 1
التأثير 1
التركية 1
ولية 1
أطفال 1
أنّ 1
هير@@ 1
وع 1
عاما 1
بالكامل 1
مواد 1
and 0.006035482321518036
فرة 1
ديل 1
التمييز 1
ألماني 1
وجدت 1
البيض 1
2@@ 1
الواقعة 1
وحصل 1
تلقى 1
النسخة 1
الذاتي 1
للسيدات 1
بكثير 1
كارل 1
أداء 1
موجودة 1
حساب 1
الأم@@ 1
دخول 1
ولقد 1
ويعتبر 1
بقية 1
بيان 1
جماعة 1
شباط 1
90 0.9145202191291266
الجوائز 1
نظر 1
s 0.11291493906593919
الفني 1
قوى 1
مو 1
الأحياء 1
فلكية 1
مقاومة 1
الفرد 1
ونات 1
حاول 1
الأدوية 1
الأن@@ 1
نر 1
القانونية 1
ضي 1
لإقليم 1
برلمان 1
مجالات 1
الإسرائيلية 1
حاكم 1
هد 1
المواقع 1
لش@@ 1
الإسرائيلي 1
التدريب 1
دل 1
العين 1
تجربة 1
المهمة 1
القرى 1
زن 1
إصابة 1
السعودي 1
جونز 1
لاح@@ 1
الإناث 1
تقييم 1
صلة 1
تش 1
حم@@ 1
ابات 1
سلطان 1
سل 1
واصل 1
الخارج 1
الموارد 1
بيروت 1
تز 1
حلقة 1
العقد 1
فيا 1
الإسبانية 1
تقرير 1
الأبحاث 1
الزمن 1
اثنين 1
1920 0.8528664858130098
كت 1
تصبح 1
ومع@@ 1
يغ@@ 1
5@@ 1
الأس@@ 1
الكويكبات 1
دليل 1
يج@@ 1
بط 1
طوال 1
مبنى 1
يق 1
رح@@ 1
العل@@ 1
تعيين 1
لز 1
بالف@@ 1
تشي@@ 1
لشركة 1
شيكاغو 1
اها 1
عضوًا 1
اعة 1
الملحق 1
المؤسسة 1
اليهودية 1
قًا 1
الصور 1
مرور 1
استمر 1
جرى 1
سه 1
فقال 1
الفيديو 1
النطاق 1
البشري 1
ران@@ 1
ممارسة 1
بولاية 1
بنت 1
استخدامها 1
المنتجات 1
المشتركة 1
السفن 1
جية 1
جمال 1
الكاثوليكية 1
لذا 1
فشل 1
ظروف 1
مصطفى 1
جداً 1
أصغر 1
رف 1
يرو 1
الأعراض 1
الغذائية 1
جار 1
سبق 1
وتم@@ 1
ملايين 1
التصويت 1
مراكز 1
سلالة 1
بيه 1
سعود 1
طاقة 1
وحدات 1
معروفة 1
أثر 1
لتح@@ 1
مشاكل 1
نو 1
اح 1
وُ@@ 1
ومست@@ 1
وقام 1
طويل 1
استمرت 1
المجاورة 1
مسرحية 1
مايكل 1
اعية 1
نغ@@ 1
ليل 1
اق 1
اليونان 1
مشيخات 1
واح@@ 1
اتفاقية 1
السويد 1
قوية 1
كبار 1
والط@@ 1
نظرًا 1
ماس@@ 1
زات 1
ناد@@ 1
زمن 1
آر@@ 1
بلا 1
تحسين 1
ويات 1
معها 1
مباريات 1
للاست@@ 1
التعاون 1
الدستور 1
ابنه 1
عاش 1
البلد 1
سيما 1
سلاح 1
ضعف 1
آن 1
هجوم 1
بلغت 1
ستان 1
سُ@@ 1
شعبية 1
ديد 1
فكان 1
خاض 1
كويكب 1
البرية 1
اللغات 1
ليات 1
مديرية 1
قواعد 1
محل 1
البط@@ 1
ولاعب 1
الموت 1
اض 1
نزالا 1
الكتابة 1
مصري 1
ة.@@ 1
تأسس 1
متها 1
وبي 1
يض@@ 1
غة 1
مساعدة 1
بد 1
الحر@@ 1
كولومبيا 1
دز 1
عص@@ 1
طب 1
غل@@ 1
جونسون 1
رؤية 1
الساحل 1
تأليف 1
الأغنية 1
المسيحيين 1
تبدأ 1
عش@@ 1
جور@@ 1
الشام 1
بك 1
تكساس 1
طية 1
التحرير 1
باكستان 1
تزوج 1
تسمية 1
تقسيم 1
كاس@@ 1
لَ@@ 1
وعدد 1
نُ@@ 1
1930 0.8155184137526624
رتبة 1
بولندا 1
موضوع 1
الطيور 1
ثي 1
دس 1
ومي 1
ويست@@ 1
قبائل 1
يعانون 1
المركزي 1
وأصبحت 1
المنافسة 1
حمض 1
البرتغال 1
النجوم 1
ابية 1
اللو@@ 1
اليونانية 1
إسباني 1
وإلى 1
الحق 1
ساك@@ 1
ماريا 1
تذ@@ 1
البحرين 1
الإعلان 1
الأرجنتين 1
دراسته 1
السينما 1
بـ@@ 1
المتحف 1
رئيسي 1
الحديد 1
هُ 1
الوحيدة 1
فير 1
لكي 1
باء 1
بنى 1
مشاركًا 1
قيام 1
التطور 1
1938 0.8569577939838487
عن@@ 1
الداخلي 1
حت 1
1933 0.9253690092165043
مداره 1
الجلد 1
بيد 1
بكر 1
مواسم 1
أسلوب 1
الزي@@ 1
بوي@@ 1
التنمية 1
العثماني 1
برت 1
وإن 1
وتعتبر 1
تين@@ 1
سبعة 1
علامة 1
امل 1
14@@ 1
واخت@@ 1
العودة 1
معالجة 1
ومنذ 1
الرياضي 1
بحر 1
1937 0.943106687382945
الحجم 1
وّ@@ 1
أكاديمية 1
المنظمات 1
تشرين 1
الأسماك 1
بالر@@ 1
رُ@@ 1
كشف 1
القيمة 1
الجزائرية 1
مراجع 1
سد 1
القناة 1
محرك 1
التق@@ 1
قليلة 1
ليا 1
إست@@ 1
وزن 1
تخرج 1
كباقي 1
مشكلة 1
يرى 1
العالية 1
المساعدة 1
ألي@@ 1
تب 1
والث@@ 1
القتال 1
طه 1
وخلال 1
32 0.8886373927944965
التحق 1
الحجر 1
الشعبي 1
جات 1
المجتمعات 1
الحاجة 1
الكهربائية 1
قاد@@ 1
التمثيل 1
فرانك 1
الدورة 1
300 1
فرو@@ 1
ّم 1
نون 1
أز@@ 1
بنية 1
الصحافة 1
اليابانية 1
الإطلاق 1
للأطفال 1
وإداريًا 1
تعليم 1
عزل 1
نجم 1
تتميز 1
الاتصالات 1
قدر 1
النق@@ 1
ارب 1
A 0.09256293267395051
الجنرال 1
جريدة 1
فو 1
مستقلة 1
رصده 1
محكمة 1
للمرة 1
الدار 1
القصر 1
عمره 1
نح@@ 1
السيارات 1
نيوزيلندا 1
والدها 1
إلغاء 1
الار@@ 1
سعد 1
لاغرانج 1
الثقافي 1
الجامعات 1
المقاومة 1
يع 1
العراقية 1
سوي@@ 1
المرتبطة 1
رش@@ 1
شهد 1
تسمح 1
التقنية 1
الهندي 1
القضاء 1
رئاسة 1
عوامل 1
سيارة 1
تقل 1
كوي@@ 1
بوا 1
1918 0.8537227931011497
تعل@@ 1
الناتج 1
يبدأ 1
والر@@ 1
الكريم 1
الاع@@ 1
الأساس 1
انتقال 1
جرة 1
كار 1
مكتبة 1
الأصليين 1
سون@@ 1
السجن 1
الكاتب 1
يقدم 1
ضية 1
إجمالي 1
إف 1
الروماني 1
خر 1
الإلكترونية 1
وصول 1
ولين 1
آر 1
خطط 1
سلطنة 1
عاً 1
وعمل 1
تعديل 1
جنب 1
زوجة 1
بعدما 1
جم 1
مس 1
هات 1
سما@@ 1
الحمض 1
وفر 1
الحرة 1
كث@@ 1
ُّ@@ 1
شهدت 1
ويكون 1
جير@@ 1
خار@@ 1
1935 0.9739632012116499
أصدر 1
الفلسفة 1
ودية 1
ء@@ 1
علوم 1
الحملة 1
صيف 1
لمدارات 1
فأ@@ 1
8@@ 1
لتحديد 1
المبنى 1
يتين 1
لمداره 1
أسباب 1
التعين 1
متلازمة 1
مدارس 1
اعات 1
مثال 1
ةِ 1
تفسير 1
فيليب 1
التواصل 1
تتم 1
تحويل 1
عمل@@ 1
باع 1
الجنود 1
إمكانية 1
صف 1
بدء 1
تدفق 1
وتوفيت 1
التشريعية 1
القوانين 1
يضم 1
الحسن 1
إسماعيل 1
السوري 1
باقي 1
فيد 1
الصورة 1
الدكتوراه 1
غرفة 1
اللاتينية 1
بالرغم 1
الوزن 1
القومية 1
يشمل 1
الاشتراكية 1
بز@@ 1
سيكون 1
فاس 1
ساهم 1
الكائنات 1
البنية 1
كاف@@ 1
199@@ 1
الظروف 1
العراقي 1
ندي 1
حل@@ 1
عقب 1
قبول 1
الكربون 1
جد 1
in 0.00448580806941856
التعبير 1
المحيطة 1
ملة 1
هان@@ 1
المستخدم 1
وظيفة 1
7@@ 1
تلا@@ 1
سكوت 1
سفينة 1
لق 1
القضايا 1
45 0.7705243049776912
القومي 1
المقدس 1
رض@@ 1
مسرح 1
الحين 1
المتح@@ 1
رسم 1
وين 1
نظم 1
الحمراء 1
لار@@ 1
رئيسية 1
هولندا 1
والغ@@ 1
انتق@@ 1
أست@@ 1
المستقبل 1
جن 1
ظة 1
للعلوم 1
وبدأ 1
أس 1
65 0.880913127028016
1931 1
جذ@@ 1
الرابطة 1
نجاح 1
إعلان 1
دري@@ 1
وهكذا 1
ويوجد 1
وعلم 1
ماد@@ 1
العصبية 1
شن@@ 1
تشي 1
أصحاب 1
كير@@ 1
الحديدية 1
ساعد 1
ابه 1
تقريبا 1
1929 0.9711538210279422
الغاز 1
مراحل 1
انيا 1
1934 0.9579286858009881
راب 1
نجد 1
التن@@ 1
معل@@ 1
جز@@ 1
ستر@@ 1
العص@@ 1
مالية 1
الأنظمة 1
التركيز 1
زو 1
ضابط 1
ماني 1
البكتيريا 1
سمي 1
لفة 1
صحفي 1
ريف 1
يتضمن 1
الحقيقي 1
سلو@@ 1
كجزء 1
ليصبح 1
قصير 1
كاملة 1
انج@@ 1
سفر 1
طبي@@ 1
ّن 1
الأربعة 1
الخارجي 1
أنا 1
ثقافة 1
إر@@ 1
كافة 1
انتهاء 1
الحكومي 1
قليل 1
ينبغي 1
ميناء 1
القاعدة 1
تمثيل 1
تمتلك 1
توم 1
لز@@ 1
النمسا 1
تعزيز 1
المستشفى 1
سلام 1
نشاط 1
بحث 1
مم 1
الفنان 1
ثمانية 1
غان 1
الأل@@ 1
طبيب 1
يرة 1
المدى 1
الوحدات 1
عب 1
الكلمة 1
نيين 1
الطبي 1
نان 1
يجعل 1
ترتيب 1
علا@@ 1
وذ@@ 1
الإيطالية 1
مالك 1
أكسيد 1
الا@@ 1
فري 1
القطاع 1
تشغيل 1
الحي@@ 1
خلفية 1
دُ@@ 1
النفسي 1
للع@@ 1
بور 1
إزالة 1
خة 1
ظر 1
6@@ 0.9879631946939516
ادا 1
التسمية 1
باستثناء 1
نان@@ 1
وأيضا 1
اللاعب 1
طبيعة 1
طرح 1
الحي 1
زواج 1
ليكون 1
المدني 1
واض@@ 1
بم@@ 1
أنفسهم 1
تلعب 1
كتلة 1
اند@@ 1
هول@@ 1
يقرب 1
x 0.5480609520819548
الأجهزة 1
وتقع 1
أط@@ 1
أمراض 1
تتراوح 1
تدريب 1
المطاف 1
درب 1
ريب 1
1922 1
استخدامه 1
الملكة 1
ألبوم 1
أماكن 1
بعة 1
تدور 1
لل 1
وتشمل 1
المقاطعة 1
تري 1
بحيرة 1
تان@@ 1
وبي@@ 1
التعليمية 1
شخصيات 1
فلا@@ 1
دل@@ 1
متع@@ 1
خصائص 1
النهر 1
واي 1
جون@@ 1
ولذلك 1
ويلز 1
بذ@@ 1
التعامل 1
تسل@@ 1
المسرحية 1
سري@@ 1
الأسباب 1
الكرة 1
المحافظة 1
شعب 1
سمح 1
تناول 1
مكة 1
الجبل 1
ائع 1
رعاية 1
جامع 1
لعبت 1
مجرد 1
المنا@@ 1
ريال 1
ستين 1
الأفريقية 1
فز 1
يستطيع 1
الرأس 1
ْ 1
نَ@@ 1
وجهة 1
الحقيقة 1
روف 1
تة 1
جب 1
ياباني 1
وجامعة 1
بطل 1
عسكري 1
جسم 1
حًا 1
الثلاث 1
ناصر 1
مانية 1
البطولات 1
مج 1
الهجرة 1
ظ 1
عثمان 1
وغيرهم 1
النصف 1
روي 1
ملاكم 1
منتج 1
الصغير 1
الحية 1
الكامل 1
المباني 1
ّد 1
والد 1
جا@@ 1
1928 0.9145780314633876
امها 1
بث@@ 1
المسيرة 1
لقي 1
وتف@@ 1
طين 1
لب@@ 1
ليلة 1
1919 0.8419933408568402
اند 1
تفاعل 1
الحادي 1
والتعليم 1
جيد 1
الأماكن 1
السفينة 1
القائد 1
سور 1
ونغ 1
ولوجية 1
مجموع 1
تهدف 1
العصبي 1
الصراع 1
تام@@ 1
فرض 1
روز@@ 1
القلعة 1
سام 1
ًّا 1
كبيرًا 1
مقتل 1
الأصول 1
توب@@ 1
شاعر 1
إنها 1
الدموية 1
عامين 1
قاد 1
يمي 1
الإست@@ 1
أظهرت 1
مباشر 1
غور@@ 1
الحرية 1
الجمهور 1
حمل 1
يحيى 1
ستيفن 1
افية 1
أعراض 1
الدائرة 1
لبعض 1
الشيوعي 1
للأمم 1
بقي 1
الفوز 1
تون@@ 1
يدعى 1
ارًا 1
السريع 1
ينتج 1
الصحراء 1
واستمر 1
اتجاه 1
والعلوم 1
وافق 1
امات 1
ذر 1
مسافة 1
السرطان 1
تول@@ 1
قضايا 1
الأدبية 1
المث@@ 1
ويل@@ 1
الأهداف 1
1924 0.9520844961277107
موسكو 1
لص@@ 1
خوسيه 1
ها@@ 1
الرحلة 1
المعل@@ 1
عوا 1
وآ@@ 1
ده@@ 1
نهائي 1
أبطال 1
الطلب 1
أجريت 1
الجبهة 1
خدم 1
خوان 1
لاحظ 1
التجارب 1
سال@@ 1
1932 0.9309148464797844
يْ@@ 1
صد@@ 1
محترف 1
ألف@@ 1
إضافية 1
انتقلت 1
ساعات 1
والمع@@ 1
فازت 1
لور@@ 1
رسمية 1
الاح@@ 1
مشاركة 1
نز 1
النموذج 1
انتهت 1
الواحد 1
الأداء 1
الحماية 1
جرت 1
ورو 1
بشدة 1
ّت 1
2.@@ 1
منتجات 1
بينهما 1
مؤلف 1
اللازمة 1
دخلت 1
أقصى 1
الشاعر 1
1م 1
حُ@@ 1
المف@@ 1
الموسيقية 1
قر 1
السلسلة 1
الفئة 1
بارك 1
سيل 1
ناف@@ 1
فور 1
باي@@ 1
سور@@ 1
شرطة 1
دخ@@ 1
البابا 1
الغذاء 1
فلم 1
مجمع 1
الإدارية 1
ريين 1
ادت 1
المائية 1
المنتج 1
جها 1
لوك 1
الرياضيات 1
صدرت 1
عط@@ 1
حا 1
ديف 1
لجميع 1
1921 0.9742968193195186
الأسنان 1
برز 1
سيطرة 1
درة 1
مراقبة 1
ينه 1
باي 1
000 0.8543264372564154
الحب 1
للك@@ 1
امن 1
وكي 1
أصدرت 1
نوبل 1
ويين 1
الجدول 1
خلق 1
1923 0.9937882011890153
باعتبارها 1
تمامًا 1
النفسية 1
والمست@@ 1
وح 1
ّه 1
خليج 1
طف@@ 1
وش 1
400 0.9184269958376899
فرانسيسكو 1
للفنون 1
10@@ 1
الإلكتروني 1
وبذلك 1
العموم 1
الأنشطة 1
هار 1
وسام 1
وسي 1
قيل 1
مركب 1
حها 1
يأتي 1
يب@@ 1
201@@ 1
بكل 1
سيم 1
غزو 1
تدمير 1
تقنيات 1
هن@@ 1
ولو 1
التعلم 1
منح@@ 1
يرجع 1
تنتج 1
دَ@@ 1
قَ@@ 1
1917 0.8784686901524168
33 0.9284668021492686
الاجتماع 1
الدخول 1
روح 1
غز@@ 1
كلها 1
لون@@ 1
الأسترالي 1
الفيروس 1
النحو 1
سقوط 1
الأمثلة 1
المذ@@ 1
ويا 1
استطاع 1
الغالب 1
القديس 1
للغ@@ 1
جودة 1
دولية 1
قطعة 1
انت 1
واقع 1
التنفيذي 1
وفا 1
فارس 1
أقيمت 1
يمر 1
المباشر 1
كثافة 1
عملها 1
ساحل 1
وعدم 1
قب 1
وظائف 1
نات@@ 1
القانوني 1
معدلات 1
ترتبط 1
ــ@@ 1
أة 1
توقف 1
أولى 1
يعيشون 1
التجاري 1
استخدمت 1
شان@@ 1
طلق 1
عيسى 1
هاي@@ 1
فما 1
علاقات 1
لس 1
دبي 1
واد 1
الكروية 1
الميلادي 1
فيل@@ 1
يان@@ 1
الأخضر 1
لع@@ 1
باول 1
سيف 1
قبة 1
واش@@ 1
1925 0.9387250049677388
الإن@@ 1
تجارية 1
العلوي 1
ودة 1
سَ@@ 1
ضيف 1
ليو 1
صحة 1
عهم 1
البيت 1
الشمسية 1
دستور 1
ورئيس 1
إفريقيا 1
تمل 1
آرثر 1
أطول 1
ظاهرة 1
فرط 1
للص@@ 1
لوحة 1
الأثرية 1
حَ@@ 1
التقليدي 1
1927 0.9247826988710499
المنصب 1
اليين 1
ولوجيا 1
التغييرات 1
الصيني 1
خو@@ 1
القضية 1
كونغ 1
ميخائيل 1
مِ@@ 1
المصابين 1
وربما 1
البلدية 1
تبقى 1
الألبوم 1
تن 1
جيم 1
حدة 1
صحيح 1
نع@@ 1
ذية 1
إحصاء 1
بناءً 1
المتع@@ 1
تركز 1
المحرك 1
راي 1
ساحة 1
شري@@ 1
مسل@@ 1
الأوراق 1
قاعة 1
العاملة 1
سج@@ 1
مرتين 1
مسار 1
قادة 1
الحص@@ 1
الفعل 1
القبض 1
مهندس 1
التونسية 1
فقدان 1
2م 1
سائ@@ 1
لاس 1
خليفة 1
مواجهة 1
born 0.16265982114438782
الوطن 1
رك 1
مول 1
{ 1
اذ@@ 1
بيري 1
الاخت@@ 1
غالبا 1
ورت 1
تركيز 1
العظيم 1
منخفضة 1
الأطباء 1
حرية 1
وإذا 1
الانتخابية 1
1000 1
الاب@@ 1
الوقود 1
بوم@@ 1
يُعرف 1
فى 1
ملكة 1
طرد 1
معايير 1
وعند 1
أري@@ 1
شرف 1
الإيرانية 1
باط 1
بريطانية 1
سليم 1
ضر@@ 1
عمال 1
الخطوط 1
مبر@@ 1
198@@ 1
رسول 1
نشأت 1
1914 0.8200391501617119
الكار@@ 1
يذكر 1
كه@@ 1
منة 1
de 0.0028918077410853443
لتحقيق 1
والتر@@ 1
الأصغر 1
الكبد 1
بنك 1
الفلسطيني 1
ذاته 1
وهما 1
يشكل 1
ادها 1
سميت 1
التركيب 1
التوالي 1
سبي@@ 1
فلا 1
كيين 1
الف 1
نمط 1
قض@@ 1
المفتوحة 1
رسوم 1
ويت 1
طفل 1
وأس@@ 1
البحوث 1
التربية 1
المتوقع 1
تنا@@ 1
الفردية 1
اتا 1
عربية 1
الإجمالي 1
تتطلب 1
سابقة 1
فاً 1
قته 1
الذهبية 1
تيك 1
كوك@@ 1
لأي 1
قمة 1
كوفيد 1
بيئة 1
تؤثر 1
النص 1
زار 1
المواطنين 1
الهي@@ 1
لعدة 1
ويلسون 1
أشار 1
بدلا 1
بمعنى 1
المرة 1
مام 1
1926 0.8851003341460589
الكشف 1
باعتباره 1
سكو 1
الجبال 1
جاب@@ 1
ارين 1
عائ@@ 1
التربة 1
الفكرة 1
للق@@ 1
أبحاث 1
زه 1
شف@@ 1
عباس 1
فته 1
نشأ 1
تقول 1
وزي@@ 1
العلامة 1
دته 1
ومات 1
اللبنانية 1
داي 1
لد 1
9@@ 0.9101932248063914
7م 1
اش 1
البرا@@ 1
الحيوان 1
جام@@ 1
مير@@ 1
المعارضة 1
الصناعة 1
فق 1
a 0.004648652452215716
زت 1
حينها 1
الملعب 1
بوا@@ 1
فرصة 1
نتج 1
النرويج 1
مماثلة 1
التشغيل 1
75 0.9678637080912861
اليومية 1
مؤسس 1
الفل@@ 1
التف@@ 1
المصدر 1
الأفكار 1
النبات 1
8م 1
الجيل 1
الكندية 1
ذكرت 1
سابقًا 1
مبار@@ 1
مكافحة 1
فضل 1
الهادئ 1
طًا 1
الآسيوية 1
الإجراءات 1
يسبب 1
السلوك 1
تقليل 1
1912 0.8948869758557576
ّي 1
الأمور 1
الكون 1
فعالية 1
جورجيا 1
ريو 1
علامات 1
شد 1
وأكثر 1
وكل 1
توأمة 1
وره 1
هند@@ 1
الصحف 1
إقامة 1
الحسين 1
المخت@@ 1
مشاريع 1
وزراء 1
إج@@ 1
جنود 1
يرا@@ 1
أشخاص 1
قوي 1
موق@@ 1
وعي 1
المشاكل 1
بث 1
تبادل 1
وتكون 1
عظ@@ 1
للدولة 1
الخلفية 1
توفيت 1
شديدة 1
رائ@@ 1
يحصل 1
كيم 1
مساحتها 1
الأص@@ 1
زعيم 1
إشارة 1
سف@@ 1
الأك@@ 1
العرش 1
تزيد 1
هيل 1
الذاكرة 1
الصي@@ 1
الطوارئ 1
طبيعية 1
قالت 1
وايت 1
قري@@ 1
12@@ 1
التلفزيون 1
كش@@ 1
بُ@@ 1
معرض 1
الأدلة 1
الحروب 1
ّى 1
الأرضية 1
المحتمل 1
توس@@ 1
روز 1
فحص 1
ويك@@ 1
الت 1
التحليل 1
فمن 1
مغنية 1
أعداد 1
أكد 1
ائل 1
المقاطعات 1
الفضائية 1
ينز 1
عرفت 1
هوكي 1
ليف 1
0م 1
ذك@@ 1
شهرة 1
الكهرباء 1
الاختبار 1
برغ 1
أحيانًا 1
العضوية 1
دتها 1
درو@@ 1
الأيام 1
ضرب 1
جيدة 1
شير 1
الترا@@ 1
شرح 1
قِبل 1
أوت@@ 1
الكتلة 1
زان 1
زر 1
كس@@ 1
ريم 1
يتطلب 1
السيدة 1
34 0.8943321445922183
بلد 1
بيلي 1
الخط@@ 1
قادرة 1
5م 1
إتش 1
الكلي 1
المجالات 1
مى 1
الجائزة 1
تمث@@ 1
كاي@@ 1
لنا 1
الغابات 1
الور@@ 1
فرنسية 1
متعدد 1
إرسال 1
لإنتاج 1
ومؤ@@ 1
الرياض 1
تشخيص 1
التركي 1
مسابقة 1
الغير 1
ربط 1
6م 1
William 0.327296463109717
الشع@@ 1
الليبرالي 1
الوفاة 1
ظه@@ 1
الرباط 1
وفاز 1
3م 1
التكنولوجيا 1
حدثت 1
P@@ 0.17005470815707555
أولئك 1
بلاده 1
سبع 1
وإي@@ 1
وطنية 1
اضطراب 1
المهني 1
كريس 1
مخرج 1
عادت 1
للنساء 1
والمح@@ 1
اختياره 1
حقيقة 1
رر 1
الأشياء 1
صندوق 1
الوا@@ 1
لتكون 1
موس 1
السير 1
لمح@@ 1
الجهة 1
الرئاسية 1
التحالف 1
الحاسوب 1
مبدأ 1
مقاطعات 1
عته 1
196@@ 1
اقترح 1
ماي@@ 1
الاشتراكي 1
سيتم 1
كلو@@ 1
شا 1
يلا 1
الرأي 1
السيرة 1
مغني 1
فاء 1
غزة 1
كيلو 1
يختلف 1
B@@ 0.15651216916684738
آلة 1
ضت 1
ليبيا 1
نس 1
المركبات 1
بجانب 1
سيس 1
عى 1
أوغ@@ 1
معنى 1
بدور 1
زراعة 1
شرا@@ 1
عار@@ 1
أستاذ 1
الألمان 1
طائرات 1
يقارب 1
بال 1
سكنية 1
صُ@@ 1
والتح@@ 1
اللاحقة 1
تشيلي 1
زر@@ 1
نجوم 1
هية 1
الاهتمام 1
دانيال 1
لدعم 1
رغ@@ 1
التراث 1
تصنيع 1
تقريباً 1
عمه 1
الات@@ 1
الاعتراف 1
حيل 1
نص 1
السادسة 1
المناعة 1
أساليب 1
طها 1
مقدمة 1
الأسبوع 1
الإل@@ 1
مؤسسات 1
الحقيقية 1
وبعدها 1
برشلونة 1
قضاء 1
القراءة 1
بحرية 1
36 0.8230254669084749
السن 1
دورًا 1
ريض 1
السرعة 1
الطبيب 1
زالت 1
197@@ 1
لـ@@ 1
كلارك 1
أنشطة 1
القنيطرة 1
المؤرخ 1
تال 1
دري 1
يرتبط 1
تكلفة 1
H@@ 0.19861116897212516
اللاعبين 1
والمعلومات 1
وعادة 1
تتعلق 1
حديقة 1
علمية 1
اني@@ 1
سلم 1
سورية 1
هج@@ 1
يران 1
N@@ 0.1853012721763099
التقدم 1
اء@@ 1
الفردي 1
بأي 1
جم@@ 1
الأدنى 1
تقدير 1
كثيرا 1
إندونيسيا 1
التفاعل 1
المضادة 1
بوسطن 1
الأب 1
فريدريك 1
التغذية 1
مبي@@ 1
ونيا 1
يكية 1
التدريس 1
قاب@@ 1
وأُ@@ 1
تقارير 1
ءات 1
المساواة 1
حفل 1
لنادي 1
المار@@ 1
وليام 1
الأولي 1
الرومان 1
الضفة 1
جب@@ 1
الممتاز 1
ثابت 1
والرابعة 1
بوجود 1
القصيرة 1
اهتمام 1
الموضوع 1
البقاء 1
الشهير 1
امين 1
هيكل 1
الدر@@ 1
السطح 1
الظ@@ 1
سويسرا 1
D@@ 0.16383426440593238
الأمة 1
الصناعي 1
موقف 1
واضح 1
الوظائف 1
برة 1
هب 1
أسفل 1
كلم 1
يرية 1
ً@@ 1
اسكتلندا 1
الأغاني 1
وأنه 1
4م 1
سالم 1
قديمة 1
اسية 1
رود 1
مالي 1
بلغ@@ 1
رسمي 1
منهما 1
37 0.9438114290742349
ويعد 1
الجماعة 1
حظر 1
الأشعة 1
الإسكندرية 1
نيسان 1
واضحة 1
عمار 1
كونه 1
لأكثر 1
هدفًا 1
يول@@ 1
القي@@ 1
عازف 1
نسب 1
شبكات 1
الطرف 1
تصدر 1
مقاطعه 1
هاري 1
اجتماع 1
اشتهر 1
السوداء 1
تشار@@ 1
} 1
شديد 1
بالش@@ 1
فقة 1
حام@@ 1
عمو@@ 1
فلي@@ 1
صد 1
هتلر 1
يتميز 1
التفكير 1
الابن 1
الممثل 1
طلا@@ 1
وظ@@ 1
الاش@@ 1
بمع@@ 1
قابلة 1
لغات 1
ورات 1
سوء 1
كلمات 1
التج@@ 1
ولت 1
الليل 1
المشترك 1
قوا@@ 1
دوق 1
وقة 1
ضع 1
9م 1
1910 0.849613041273015
الباب 1
دولارًا 1
رسميًا 1
شت@@ 1
ملكية 1
يث@@ 1
الأموال 1
تمتد 1
كتبت 1
إيجابية 1
اور@@ 1
والستين 1
مري 1
ريًا 1
الإقليمية 1
رم 1
زب@@ 1
قراءة 1
James 0.33117164321932097
الديني 1
جندي 1
حركات 1
الشؤون 1
قاضي 1
48 0.9648848688676711
الأصوات 1
عمرو 1
قصص 1
ورها 1
أمي@@ 1
الوعي 1
منظمات 1
نج 1
هُ@@ 1
يته 1
الكي@@ 1
مساع@@ 1
باه@@ 1
مساعد 1
لاحقا 1
الماجستير 1
المشاريع 1
الوجه 1
نيل 1
الحلفاء 1
الحلقة 1
الطويل 1
تلفزيوني 1
اءات 1
اجتماعية 1
الحدث 1
مراجعة 1
تارودانت 1
صن@@ 1
كَ@@ 1
نًا 1
1915 0.9249929403345742
الجامعي 1
الضرائب 1
عمرها 1
ربع 1
الدنمارك 1
جوا@@ 1
رمضان 1
كمال 1
منصبه 1
والتر 1
غيرها 1
الموجود 1
C@@ 0.18877967050885502
التشخيص 1
غالباً 1
الشتاء 1
النيل 1
سلامة 1
فإنها 1
تشبه 1
150 1
التيار 1
ماساتشوستس 1
المقام 1
حج@@ 1
فيس 1
البروتين 1
الجزر 1
جاكسون 1
خفض 1
التصنيف 1
تبا@@ 1
ذه@@ 1
كنت 1
كونها 1
لاك 1
C 0.26296747702588674
الجزائري 1
مقبرة 1
أشعة 1
الدخل 1
الرسوم 1
تجارب 1
جبهة 1
سيرة 1
آذار 1
الكنائس 1
ةٌ 1
لتصبح 1
النمط 1
سلا 1
التأ@@ 1
طراز 1
فترات 1
أساسية 1
اقة 1
جاءت 1
للولايات 1
نوا@@ 1
أساس@@ 1
اعتبارًا 1
البحري 1
وخسر 1
التنظيم 1
مرتبطة 1
جُ@@ 1
لدراسة 1
الخصائص 1
الكلمات 1
بسهولة 1
بنتيجة 1
الذهبي 1
المدير 1
الموافقة 1
55 0.961304211570311
بالغ@@ 1
نار@@ 1
الشري@@ 1
جهود 1
تدعى 1
فع 1
العمارة 1
الكويتي 1
بقوة 1
نبات 1
يرات 1
الأطراف 1
المقدسة 1
طبيعي 1
مز 1
مسي@@ 1
لمنع 1
دوا@@ 1
وتن@@ 1
ورغم 1
الياباني 1
أدوات 1
الانتقال 1
المحافظين 1
الملح@@ 1
ديان 1
لأفضل 1
دائ@@ 1
بلي 1
ريان 1
قط 1
المعايير 1
ارض 1
الصيف 1
صنعاء 1
واحدًا 1
أسابيع 1
راس 1
المغربي 1
بح 1
عائلته 1
اور 0.4167343859196097
فلوريدا 1
المعالجة 1
ينها 1
38 0.8274836192535348
العضلات 1
ادر 1
بسي@@ 1
محطات 1
ألبرت 1
ابها 1
صور@@ 1
الشريف 1
لإعادة 1
ائهم 1
النه@@ 1
اتخاذ 1
البريد 1
حضر 1
فاق 1
مسألة 1
وريا 1
الكر@@ 1
عضوا 1
الذهب 1
النصوص 1
الفيدرالية 1
الكلاسيكية 1
وج 1
اكي 1
زون 1
سرية 1
شراء 1
قلة 1
أين 1
البكالوريوس 1
الموا@@ 1
غادر 1
نور 1
تايلور 1
رس 1
سجلت 1
لله@@ 1
والز@@ 1
تماما 1
ثالث 1
هونغ 1
عتها 1
للحزب 1
ومنتخب 1
افتتاح 1
التخطيط 1
تخصص 1
النقاد 1
حت@@ 1
لائ@@ 1
والتع@@ 1
الأردنية 1
الغلاف 1
ّا 1
اسة 1
تقد@@ 1
إثر 1
شاه 1
ليين 1
إس@@ 1
البنك 1
للرجال 1
أوس@@ 1
سطات 1
محلية 1
غاز 1
ويقع 1
يفة 1
شخص@@ 1
وتر 1
والدته 1
صب 1
زاد 1
طُ@@ 1
يور@@ 1
الصلة 1
رِ@@ 1
شية 1
فيينا 1
بيات 1
خلاف 1
O@@ 0.17535774557159614
الغزو 1
الأمطار 1
الجو 1
إجراءات 1
الكيمياء 1
تطبيقات 1
وبر@@ 1
الجامعية 1
القتل 1
المسيح 1
النصر 1
الهوية 1
وبدأت 1
وها 1
2021 0.1974251846520234
لاف 1
B 0.24154735123780127
أمثلة 1
أقسام 1
الناتجة 1
ڤ@@ 1
الأور@@ 1
ة- 1
ثان@@ 1
قون 1
كسي@@ 1
أرسل 1
المبكر 1
التاريخي 1
رى 1
1916 0.9068465741169255
y 0.012485748498644115
تصف 1
نماذج 1
الأجنبية 1
1913 0.8463022231469841
المشكلة 1
بلدان 1
تتألف 1
دينية 1
رئيسًا 1
ناً 1
آدم 1
وكي@@ 1
المكتب 1
عالمية 1
مصنع 1
سلبية 1
اتصال 1
بورغ 1
وبية 1
تعليمه 1
كانا 1
اعتزل 1
العاملين 1
وعن 1
ونتيجة 1
الكثافة 1
بجائزة 1
تمر 1
عودة 1
إح@@ 1
روك 1
مؤشر 1
الأنسجة 1
دوره 1
فعل@@ 1
أض@@ 1
مشتركة 1
الابتدائية 1
تابع 1
E@@ 0.17972547127501015
تات 1
سابقا 1
لاحقاً 1
مضرب 1
موضع 1
أخيه 1
السوفيتية 1
ديين 1
زاوية 1
ومية 1
يعقوب 1
عرا@@ 1
للش@@ 1
خت 1
فيلادلفيا 1
بلقب 1
وجيزة 1
الهيكل 1
التحقيق 1
سها 1
أت 1
الرئة 1
ميد@@ 1
بعده 1
مرت 1
اتفاق 1
الجميع 1
بقايا 1
قررت 1
وفة 1
الصدر 1
ولهم 1
يخ 1
استح@@ 1
عدا 1
وضعت 1
العام@@ 1
درج 1
للمركز 1
ميد 1
الخليفة 1
هزيمة 1
والعديد 1
أندية 1
الموافق 1
بمساعدة 1
جز 1
دمج 1
محدودة 1
وعضو 1
amp 0.13661362918914333
تبعد 1
تحالف 1
للمدينة 1
195@@ 1
انس 1
ثلاثي 1
إكس 1
ممن 1
يمي@@ 1
الباحثين 1
القيم 1
1908 0.9080287713251675
42 0.8759432014770332
النتيجة 1
مترو 1
ازات 1
الفنانين 1
3.@@ 1
إير@@ 1
المستقلة 1
النجم 1
تعيينه 1
خص 1
أسعار 1
النجاح 1
قانونية 1
المجر 1
باري 1
منت 1
هِ 1
يوفر 1
بلجيكا 1
النهضة 1
فيصل 1
مكناس 1
أدلة 1
سياسات 1
السائل 1
السفلي 1
ماي 1
دام 1
للمرأة 1
ياس 1
الاتحادية 1
الكمبيوتر 1
المخاطر 1
نال 1
الأشجار 1
البلا@@ 1
المنازل 1
المجلة 1
الأجزاء 1
المسيحي 1
آلية 1
لحقوق 1
اعتبار 1
طار 1
ألمانية 1
الفكر 1
ثنائية 1
فون@@ 1
كها 1
كوس@@ 1
لج@@ 1
مقياس 1
حاجة 1
مستقل 1
وتعد 1
انق@@ 1
تعرضت 1
الطويلة 1
اليا 1
جرائم 1
فريد 1
يعاني 1
متق@@ 1
وفقاً 1
الرسالة 1
العاشر 1
تساعد 1
الأحزاب 1
ولل@@ 1
الأخبار 1
اللقب 1
النازية 1
الوج@@ 1
جسر 1
فاي@@ 1
المتعددة 1
16@@ 1
الأسواق 1
الترتيب 1
سرا@@ 1
سمة 1
يونغ 1
مئات 1
مشترك 1
ضوء 1
كب 1
زيل 1
القاضية 1
حكومية 1
مبادئ 1
ومو@@ 1
L4 1
ضباط 1
للقوات 1
هد@@ 1
الكحول 1
ساف@@ 1
فنان 1
بعثة 1
قاً 1
15@@ 1
الشهيرة 1
الفرعية 1
القارة 1
سافر 1
للحكومة 1
معبد 1
باك@@ 1
كثيرًا 1
تجارة 1
مكان@@ 1
وكتب 1
المخرج 1
بحوالي 1
والمؤ@@ 1
وسيلة 1
سلوك 1
منز@@ 1
الاق@@ 1
الدراسية 1
كافية 1
لوي 1
أنطونيو 1
تزوجت 1
ديات 1
معًا 1
سرعان 1
كارلوس 1
مئوية 1
برية 1
مائة 1
وتي 1
الأطلسي 1
مند@@ 1
ميات 1
نائ@@ 1
تبين 1
O 0.2894686158205109
وبسبب 1
ونها 1
تستطيع 1
سه@@ 1
شين@@ 1
المجموع 1
حجر 1
الرياضة 1
الكاملة 1
الإذاعة 1
العظام 1
وض 1
وعبد 1
مقابلة 1
جائحة 1
متن 1
ويد 1
اتفاقيات 1
تايمز 1
الطبقات 1
أطلقت 1
أندرو 1
المهام 1
دولي 1
طت 1
آخرون 1
كبيرا 1
ألكسندر 1
نظرة 1
استقلال 1
الأقصى 1
نساء 1
سهل 1
غالبية 1
كوكب 1
إدخال 1
التطبيقات 1
القادر 1
جاي 1
عنصر 1
فوا 1
ونه 1
والذين 1
العدالة 1
القصص 1
صعوبة 1
صفحة 1
الدواء 1
ق.م 1
مبكر 1
أقرب 1
ألا 1
المسي@@ 1
سى 1
كالي@@ 1
مانشستر 1
يقل 1
الأشكال 1
جول@@ 1
طلاب 1
التركيبة 1
الإداري 1
الدوائر 1
المجمع 1
فتاة 1
قدره 1
T@@ 0.13608143662857852
السكنية 1
العقل 1
علان 1
مقرها 1
الإصلاح 1
تاح 1
فه@@ 1
التونسي 1
الرقمية 1
جنيه 1
لتون 1
ماك 1
إز@@ 1
الجماعية 1
الجميلة 1
بابا 1
تاي@@ 1
دائمًا 1
ومحمد 1
ابل 1
روي@@ 1
منظ@@ 1
والي 1
ورم 1
الأبعاد 1
شيخ 1
الجر@@ 1
رئ@@ 1
الوادي 1
بيك 1
فاس@@ 1
الصوتية 1
ومخرج 1
18@@ 1
الملا@@ 1
فات@@ 1
تنتمي 1
اعتماد 1
الأق@@ 1
ليك 1
إليزابيث 1
محدد 1
اقتصاد 1
لحماية 1
افي 1
القائم 1
ستخد@@ 1
الرحم 1
السياسات 1
بيرغ 1
يُعتبر 1
سجن 1
يخت@@ 1
سانتا 1
الخي@@ 1
اللواء 1
حققت 1
قرا@@ 1
وصلات 1
التعرض 1
اقات 1
الأول@@ 1
الأي@@ 1
بقاء 1
يتع@@ 1
1911 0.830939337320792
اكس 1
الجماعات 1
القضائية 1
قاموا 1
M@@ 0.15540681687282887
ترا 1
جَ@@ 1
ديه 1
إخ@@ 1
للعديد 1
للكريكت 1
يؤثر 1
إعداد 1
المكتبة 1
طبقات 1
° 0.3233323707064834
إغلاق 1
قيين 1
محركات 1
مركبات 1
ةُ 1
جريمة 1
17@@ 1
بعين 1
طا 1
حديث 1
G@@ 0.1413883789110601
السينمائي 1
هور@@ 1
وعالم 1
64 0.6866155680834362
المتحركة 1
لط@@ 1
لعلاج 1
العدوى 1
كيل 1
1905 0.829179650309969
الفيزياء 1
دعى 1
والولايات 1
الحيوي 1
فيتش 1
ناب@@ 1
البروتينات 1
الأكسجين 1
باع@@ 1
بدي@@ 1
بفضل 1
عقود 1
اليمين 1
تكنولوجيا 1
حفظ 1
زها 1
منش@@ 1
وثيقة 1
F@@ 0.14850930119323308
الحرارية 1
ولات 1
الصخور 1
جامعي 1
ناش@@ 1
استجابة 1
الأمين 1
موريس 1
ائف 1
الأفريقي 1
هود 1
أخبار 1
للإحصاء 1
موافقة 1
وبحلول 1
توج@@ 1
عرض@@ 1
بسيطة 1
توس 1
موسيقي 1
ميين 1
صات 1
والاجتماعية 1
السيارة 1
الأفارقة 1
للجيش 1
مني 1
نط@@ 1
ولى 1
الهولندية 1
جوانب 1
يساعد 1
تحصل 1
مايك 1
منا 1
يره 1
ينت 1
البالغ 1
الثدي 1
سلط@@ 1
ائن 1
تسعة 1
سات@@ 1
فنلندا 1
كيت 1
يدة 1
المساحة 1
صر@@ 1
للطاقة 1
20@@ 1
اطة 1
فيكتوريا 1
نصر 1
يقال 1
هندسة 1
سلي 1
سيرته 1
لبناء 1
ملوك 1
القاطنين 1
قوم 1
السود 1
والدتها 1
المركبة 1
أية 1
القطع 1
المستمر 1
ساي@@ 1
احتلال 1
تؤ@@ 1
للكتلة 1
النقد 1
جت 1
رق 1
التغيير 1
بدلًا 1
تجميع 1
صار 1
أراد 1
مركبة 1
أعد@@ 1
السلع 1
قاسم 1
بروتين 1
نيات 1
الفرنسيين 1
الممثلة 1
جيب 1
احة 1
التقارير 1
الصيد 1
مم@@ 1
باك 1
توني 1
وإعادة 1
يرًا 1
إم@@ 1
التحول 1
الدفع 1
توق@@ 1
طيلة 1
عان 1
غضون 1
لواء 1
باح@@ 1
جعفر 1
دعا 1
العدل 1
انتخاب 1
رأى 1
المقابل 1
ربي 1
يشبه 1
1.@@ 0.8288491767149926
أفغانستان 1
المقرر 1
ديك@@ 1
أوهايو 1
الأزرق 1
صل@@ 1
وُلد 1
1909 0.9091047965303349
السكك 1
زيارة 1
تضمنت 1
العادية 1
تميز 1
شيوعًا 1
لد@@ 1
وند 1
يط@@ 1
التنفس 1
ودي 1
جهات 1
هات@@ 1
وحيد 1
الرسم 1
باتجاه 1
شمس 1
أقوى 1
كمة 1
يتمكن 1
اوا 1
منفصلة 1
يشار 1
صباح 1
أفكار 1
الاتجاه 1
الغذائي 1
تأتي 1
خلي@@ 1
وبشكل 1
يتح@@ 1
بوت 1
غوا@@ 1
مود 1
مري@@ 1
نباتي 1
كميات 1
الاستعمار 1
الرياح 1
دعوة 1
سار 1
مرضى 1
اول@@ 1
تراجع 1
ثا 1
دج 1
وكما 1
شاه@@ 1
الواحدة 1
الوفيات 1
جذب 1
زيت 1
ميلر 1
تاريخها 1
تحتاج 1
ربيع 1
عرضة 1
الشائعة 1
قابل 1
أدي@@ 1
بالب@@ 1
بالضربة 1
مناسبة 1
هارفارد 1
يمتد 1
التحتية 1
شارة 1
فال@@ 1
اربة 1
التعرف 1
بدرجة 1
موض@@ 1
يومًا 1
روم 1
شخصًا 1
ستيوارت 1
فعال 1
الخضراء 1
ّع 1
S@@ 0.11873498110197035
القاضي 1
صفوف 1
صي 1
كيلي 1
لولاية 1
والعمل 1
39 0.871416149318369
إله 1
الأث@@ 1
القواعد 1
بام@@ 1
قتها 1
معارضة 1
أنشأ 1
ترض 1
تركي@@ 1
زن@@ 1
أنثى 1
دورات 1
صفة 1
فض 1
يهدف 1
الحاج 1
بروس 1
مرو@@ 1
طع 1
قع 1
نجح 1
يكو 1
فيف 1
وعة 1
الصرف 1
الشعوب 1
المعادن 1
خز@@ 1
روايات 1
مكونات 1
الأجسام 1
يجري 1
مثلت 1
القليل 1
توجيه 1
لته 1
الحر 1
السابعة 1
العلامات 1
ثية 1
الكونغرس 1
التجربة 1
أصوات 1
إع@@ 1
ئية 1
ثت 1
49 0.9739228671685012
المتوسطة 1
تبر@@ 1
تشارك 1
ثه 1
250 1
رياضة 1
أولاً 1
الجه@@ 1
عامر 1
طان 1
فردي 1
شت 1
طيع 1
الأسماء 1
الإقليم 1
البوذية 1
جع@@ 1
صحية 1
أكدت 1
توحيد 1
يسجل 1
الويب 1
ويه 1
حك@@ 1
مشار@@ 1
تسع 1
ثلاثية 1
ندر 1
بالتعاون 1
رومانيا 1
1906 0.8562367019629954
غلا@@ 1
كيب 1
وتي@@ 1
القص@@ 1
جماعات 1
استعمال 1
المراكز 1
حدد 1
خطاب 1
ظلت 1
المنخفضة 1
صرف 1
فيهم 1
وقبل 1
لتطوير 1
نب 1
اليمنى 1
توم@@ 1
بدل 1
ضيق 1
قول 1
E 0.40851103024919455
المفهوم 1
عددًا 1
أثار 1
التل@@ 1
السلاح 1
قيقة 1
George 0.2750615522181389
آلات 1
التلفزيونية 1
شملت 1
طبية 1
فروع 1
للاتحاد 1
الألوان 1
التدخل 1
التعريف 1
عمق 1
وأص@@ 1
دائما 1
زرع 1
شجرة 1
يار 1
الصح@@ 1
المهاجرين 1
لمجموعة 1
يحاول 1
إيطالي 1
المحليين 1
سلطات 1
مجرة 1
أزمة 1
الآداب 1
دوب@@ 1
دود 1
سفن 1
يتها 1
افع 1
ستكون 1
وحد@@ 1
شائعة 1
عالي 1
R@@ 0.13971269062450595
السماح 1
العبيد 1
الغرض 1
المشاة 1
فيتنام 1
كوف 1
لدرجة 1
وجنوب 1
جاه@@ 1
السياحة 1
إعطاء 1
الصوديوم 1
بعدم 1
واجهة 1
استعادة 1
التسويق 1
كا@@ 1
كلما 1
واجه 1
والمرا@@ 1
ارو 1
غن 1
الني@@ 1
دائم 1
ستيف 1
أندرسون 1
الانتشار 1
البور@@ 1
الطالب 1
العدو 1
تدري@@ 1
الأد@@ 1
حافظ 1
حديثة 1
الجينات 1
انيين 1
600 1
اهد 1
بالخ@@ 1
ساح@@ 1
وزيادة 1
أنماط 1
إنتاجه 1
الداخل 1
الزاوية 1
السباق 1
الاعتبار 1
بعيد 1
ويجب 1
الإله 1
لاز@@ 1
وأر@@ 1
عرضه 1
الأدوات 1
الحاضر 1
الخيرية 1
الموظفين 1
والأربعين 1
المقدمة 1
تدعم 1
سير@@ 1
محاولات 1
عدن 1
وجه@@ 1
وست 1
تردد 1
مهنة 1
طى 1
قصيدة 1
أبيض 1
السريرية 1
المائة 1
يورو 1
ولون 1
اكا 1
فلسفة 1
لإنشاء 1
لتلك 1
لمدينة 1
لُ@@ 1
L@@ 0.119120228422106
الاتفاق 1
الكلام 1
بصفة 1
رْ@@ 1
شون 1
مرك@@ 1
اليهودي 1
تموز 1
شان 1
لوف 1
اشي 1
الحضرية 1
الكل@@ 1
آب 1
المسافة 1
علمي 1
بالد@@ 1
موج@@ 1
الاستجابة 1
الفرا@@ 1
ترجم 1
راج@@ 1
اتٍ 1
الشديد 1
ضه 1
1907 0.8257408011598151
المغناطيسي 1
غول@@ 1
مخطط 1
نيس 1
الجناح 1
بشكلٍ 1
تيم 1
— 0.023653699702517454
أوكرانيا 1
والبي@@ 1
يمتلك 1
ثار 1
جيمي 1
حصار 1
الفم 1
دست@@ 1
مهام 1
1900 0.6678627269584007
1@@ 1
ولوجي 1
يصف 1
يُعد 1
السماء 1
بلي@@ 1
مسقط 1
أنشأت 1
القريبة 1
مانويل 1
مسيرة 1
أسماك 1
أونتاريو 1
باتريك 1
تعاون 1
حزيران 1
المحاكم 1
المعدنية 1
فعلى 1
ءً 1
الحركات 1
زمة 1
فاف 1
منصور 1
أرا@@ 1
الجمعة 1
داخلية 1
I 0.0828091205092129
41 0.8455878997342435
خطأ 1
روع 1
ويب 1
إث@@ 1
إمارة 1
الجودة 1
المناسبة 1
مرمى 1
44 0.6771810066261436
أشجار 1
الروايات 1
عك@@ 1
وجهات 1
أظهر 1
النظم 1
بقيت 1
التقنيات 1
الفضل 1
الإصدار 1
الكيميائي 1
طوكيو 1
95 0.9953500336235261
العملاء 1
بنفسه 1
الصعب 1
أعقاب 1
تملك 1
يشارك 1
الممارسة 1
دورا 1
كير 1
المبادئ 1
فرص 1
هري 1
وته 1
حرف 1
شريك 1
عمدة 1
المراجع 1
كريستيان 1
أسست 1
تشر 1
رسائل 1
مطلع 1
القادة 1
اليون 1
الكهربائي 1
النقاط 1
الهاتف 1
بنحو 1
كيميائي 1
ومق@@ 1
الأندية 1
سوا 1
ضخمة 1
رواد 1
الفقر 1
انس@@ 1
ثبت 1
كثيراً 1
مؤلفاته 1
ولاد 1
الحراري 1
الموسيقي 1
حصن 1
قرابة 1
ضع@@ 1
وتعل@@ 1
وغالبًا 1
أيار 1
التنفيذ 1
السنين 1
كتبها 1
اختلاف 1
سعى 1
نسبيًا 1
نوا 1
الكون@@ 1
الهيدروجين 1
بالعمل 1
ّب 1
أعيد 1
الربيع 1
المؤلف 1
بوش 1
مؤس@@ 1
1904 0.8485685947216914
اعتق@@ 1
البيئي 1
الرئاسة 1
فضاء 1
لتها 1
لعدم 1
بدوره 1
تأث@@ 1
تتمتع 1
المدرب 1
مكسيكي 1
وائ@@ 1
وعين 1
الاعتماد 1
المخدرات 1
بته 1
وقية 1
85 1
تركيب 1
حوض 1
مرش@@ 1
وذكر 1
ولهذا 1
يط 1
إك@@ 1
غان@@ 1
الفيروسات 1
تبع 1
ريت 1
شب@@ 1
شكلت 1
قصد 1
ويع@@ 1
تحدد 1
لول 1
يلة 1
استمرار 1
حر 1
واط 1
David 0.27687814424678137
عربي 1
الأوعية 1
وأول 1
ريق 1
فار 1
وأم@@ 1
بورت 1
طري@@ 1
افات 1
شروط 1
الشيء 1
المنق@@ 1
دقة 1
فكانت 1
خراج 1
روج 1
لمجلس 1
يلي@@ 1
أعوام 1
انتهى 1
حيات 1
194@@ 1
الحربية 1
المشاركين 1
رح 1
الاختلافات 1
تقدر 1
روسية 1
قت@@ 1
56 1
الشرعية 1
تيل 1
خروج 1
سعر 1
وتص@@ 1
التز@@ 1
دونالد 1
تيار 1
إسحاق 1
الجريمة 1
المناخية 1
بوس 1
فُ@@ 1
اخر 1
خسر 1
خلف@@ 1
التخ@@ 1
راف 1
الآلهة 1
تطورت 1
لإدارة 1
اضطرابات 1
ضل@@ 1
للف@@ 1
مائ@@ 1
الناصر 1
الوزير 1
ميم 1
كينغ 1
يدخل 1
الاختبارات 1
المب@@ 1
المحتوى 1
السع@@ 1
المسلمون 1
الهولندي 1
زوج 1
47 0.8493542103759352
الجراحة 1
بمعدل 1
سيدني 1
أهمها 1
المرمى 1
الذات 1
ديس 1
البريطانيين 1
الترجمة 1
للمح@@ 1
الشهر 1
سياق 1
شاشة 1
S 0.3936747844338998
موجود 1
43 0.8516515628207371
تضمن 1
توقع 1
دورها 1
قاء 1
مح 1
انهيار 1
حدو@@ 1
نغ 1
http 1
اتية 1
اية 1
غياب 1
X 0.33665906565322345
استخد@@ 1
دن@@ 1
قيق 1
للج@@ 1
للحفاظ 1
مشابهة 1
تُعرف 1
كم@@ 1
الاستثمار 1
جاز 1
صدي@@ 1
غلي@@ 1
سري 1
ضمان 1
نك@@ 1
التشريعي 1
المراحل 1
A@@ 0.13276856037825857
المعارك 1
اليه 1
الأش@@ 1
المباشرة 1
سنتين 1
صلاة 1
عج@@ 1
ادين 1
والسي@@ 1
يوم@@ 1
بقيمة 1
زوج@@ 1
19@@ 1
وقوع 1
حضارة 1
شف 1
وعد@@ 1
ويت@@ 1
يث 1
الخمسة 1
الموج@@ 1
تُستخدم 1
راز 1
عضواً 1
مكون 1
الشبكات 1
ترامب 1
تقدي@@ 1
التقرير 1
المعاصرة 1
صرح 1
مشاهدة 1
والخدمات 1
أسي@@ 1
أنشئت 1
الأسلوب 1
التك@@ 1
الريفية 1
المالي 1
المور@@ 1
ثق@@ 1
محمية 1
جدول 1
رياضي 1
وقيل 1
الحكومات 1
تربية 1
عمة 1
كور 1
مصرية 1
وإن@@ 1
أل 1
اريا 1
المري@@ 1
الفلبين 1
علاوة 1
أولي@@ 1
ثابتة 1
جع 1
حراسة 1
نيوزلندي 1
إصلاح 1
خرجت 1
وهي@@ 1
الثقافات 1
رأسه 1
رئيسة 1
ريه 1
عاد@@ 1
ابر 1
المعنى 1
قطار 1
إيجاد 1
كسي 1
نيت 1
يء 1
أوف 1
خاص@@ 1
ساع@@ 1
الأستاذ 1
رسام 1
إند@@ 1
ثانوية 1
ماكس 1
نوف@@ 1
يعطي 1
الحرس 1
الحم@@ 1
الغدة 1
بعدة 1
ديث 1
ديون 1
متطلبات 1
وإنما 1
فإذا 1
هاد@@ 1
يتحدث 1
جراحة 1
توسيع 1
افر 1
المطار 1
الهم 1
ليه 1
واج@@ 1
D 0.2939595537481695
اون@@ 1
سول@@ 1
المكونات 1
1- 1
52 0.799285378284713
كاست@@ 1
الجامع 1
الأرثوذكسية 1
المعمارية 1
غور 1
هامة 1
تنا 1
حان 1
شين 1
كتبه 1
لاب 1
ينج 1
اعتم@@ 1
سمية 1
مرتبة 1
بإنشاء 1
ميت 1
الفور 1
عسك@@ 1
موسيقية 1
R 0.3292967864093109
\ 1
بأن@@ 1
وليامز 1
يحتاج 1
وابن 1
يده 1
1901 0.8726836833024588
السك@@ 1
المحطة 1
تخزين 1
Robert 0.2646300702847535
الحضارة 1
النف@@ 1
ّف 1
الانتهاء 1
القول 1
الملوك 1
ديم 1
53 0.9764409788045179
أعظم 1
الشخصي 1
تجاوز 1
فران@@ 1
نظرا 1
إص@@ 1
المسار 1
تِ@@ 1
درست 1
سيارات 1
ميدان 1
أسود 1
فوز 1
مأ@@ 1
مسلم 1
صنف 1
لأسباب 1
أون@@ 1
التنفيذية 1
دارة 1
قم 1
ديو 1
ابا 1
الشريعة 1
هنالك 1
46 0.8378199148003536
التقسيم 1
المخابرات 1
تبع@@ 1
طاقم 1
ومحامي 1
أنفاق 1
الخطاب 1
دنا 1
لوصف 1
ووص@@ 1
حيثُ 1
منصة 1
V@@ 0.14374767870903046
غار 1
لوية 1
أعمالها 1
التكلفة 1
عيين 1
120 1
العقلية 1
للد@@ 1
أحيانا 1
الأهمية 1
النظ@@ 1
خوا@@ 1
رض 1
ندية 1
يُعتقد 1
الهجمات 1
الين 1
ترك@@ 1
ديفيس 1
غون 1
يعملون 1
1903 0.8473144863518145
الوكالة 1
كوت@@ 1
كيلو@@ 1
التقى 1
بيني 1
العرقي 1
ذاك 1
اللاجئين 1
النسائية 1
سارة 1
لتقديم 1
وقامت 1
يجيد 1
يُستخدم 1
عبيد 1
لدي@@ 1
عادل 1
مقد@@ 1
أحكام 1
الجهود 1
بوب@@ 1
سعودي 1
ندا 1
وأك@@ 1
يتراوح 1
أثينا 1
ئين 1
اعتبر 1
رضا 1
مؤرخ 1
نع 1
هاء 1
ويح@@ 1
السكر 1
ءة 1
القرون 1
الورم 1
كفاءة 1
ثها 1
وتو 1
وشي@@ 1
الصناعات 1
الموقف 1
حقيقية 1
داود 1
ذاتية 1
قار@@ 1
ووضع 1
أسط@@ 1
ساو 1
وارد 1
54 0.9050717519130663
التقاليد 1
الك 1
قضى 1
يكس 1
أسبوع 1
سحب 1
يمات 1
أنط@@ 1
فنية 1
قى 1
نيك 1
والثقافة 1
وقتها 1
البق@@ 1
الجهد 1
المتاحة 1
هاب 1
الاستعمارية 1
رشيد 1
شاهد 1
أخر 1
الشيوعية 1
العامل 1
رين@@ 1
شام@@ 1
متوا@@ 1
الأردني 1
الدعوة 1
الصغرى 1
الفتيات 1
هوارد 1
n 0.172837336509278
استبدال 1
ذاتها 1
الأهلي 1
الشه@@ 1
مهما 1
أعط@@ 1
ارف 1
تنظ@@ 1
رته 1
طف 1
للإشارة 1
ليب 1
محر@@ 1
مخاطر 1
نسخ 1
ومركز 1
الكاثوليك 1
المقالات 1
عضوية 1
منط@@ 1
الصيغة 1
تاد 1
شُ@@ 1
ويقول 1
يتي 1
صبح 1
غرين 1
مسيرتها 1
‌ 1
اعدة 1
المؤرخين 1
تعالى 1
صياغة 1
صية 1
وسع 1
القادمة 1
ذة 1
رحلات 1
الحقبة 1
حضور 1
دِ@@ 1
رأي 1
قانوني 1
واني 1
يلية 1
الأزمة 1
الدرافت 1
المتقدمة 1
باستمرار 1
ريون 1
غام@@ 1
كينيدي 1
مستقبل 1
يمه 1
T 0.3432988158467431
قريبة 1
أت@@ 1
الأخ@@ 1
الماضية 1
بضعة 1
ذكره 1
سيين 1
وط 1
الوزارة 1
حز@@ 1
قلبية 1
أمل 1
إلينوي 1
تلفزيونية 1
قوا 1
موجة 1
نام@@ 1
ادو 1
المنح@@ 1
معد@@ 1
ملاحظة 1
دال 1
درت 1
قان 1
معة 1
مفتوحة 1
سح@@ 1
والتنمية 1
الزمني 1
شائع 1
القرارات 1
بدورها 1
بقى 1
قوس 1
وتضم 1
2- 1
ازي 1
الموس@@ 1
يسوع 1
الألم 1
النسيج 1
رؤساء 1
رايت 1
الرصاص 1
طيران 1
1898 0.9096288360367223
اختبارات 1
الغر@@ 1
طل 1
لزيادة 1
مخت@@ 1
الرسائل 1
أفريقي 1
الطلبة 1
كاه@@ 1
وفيات 1
باغ@@ 1
يي 1
تث@@ 1
ذها 1
عض@@ 1
وحي@@ 1
النفايات 1
كله 1
مدي@@ 1
أمور 1
انغ 1
تحقق 1
الأف@@ 1
المتج@@ 1
النماذج 1
تغطي 1
عرب 1
وإدارة 1
1902 0.8307840972883248
www.@@ 1
حلقات 1
ريل 1
للط@@ 1
موظ@@ 1
المنش@@ 1
تفوق 1
تقري@@ 1
رسميا 1
ءه 1
الحشرات 1
جهد 1
حس@@ 1
خلية 1
المادية 1
المباريات 1
ممكن 1
منخفض 1
تفاصيل 1
فرانسيس 1
الوظيفة 1
عرضت 1
الفلك 1
بنيت 1
تكاليف 1
تور 1
مكانة 1
إد@@ 1
الجسيمات 1
الدع@@ 1
تأثيرات 1
فرعية 1
مقالات 1
يح 1
i 0.14791877776750306
الأجانب 1
الصادر 1
النص@@ 1
جًا 1
يتمتع 1
أسرع 1
جدي@@ 1
شَ@@ 1
كيك 1
تمييز 1
أحمر 1
اسب 1
المدر@@ 1
تجنب 1
ضحايا 1
193@@ 1
آنا 1
متخصصة 1
موسمين 1
وود 1
المطلوبة 1
النشر 1
الوجود 1
ترى 1
جميل 1
حيوان 1
راج 1
شرة 1
والأر@@ 1
تُعتبر 1
الأندلس 1
التطوير 1
الروح 1
فعالة 1
الضباط 1
عارضة 1
الشرف 1
القط@@ 1
اليوناني 1
برازيلي 1
بكلية 1
ذر@@ 1
ريح 1
فني 1
وعاد 1
ويعتقد 1
الشي@@ 1
عر 1
الواضح 1
يأ@@ 1
الأيمن 1
دوغلاس 1
800 0.8898040008722915
روسي 1
اقتصادية 1
غاية 1
لأن@@ 1
التوجه 1
تينية 1
فندق 1
نحن 1
الباحثون 1
ستخدم 1
وبلغت 1
وبناء 1
هجمات 1
ينين 1
صراع 1
الأسد 1
حصول 1
to 0.003744139274645764
ارهم 1
تاريخه 1
ساء 1
0@@ 0.7487412331933131
الصلبة 1
حكمه 1
عمارة 1
الأسطول 1
حلة 1
عرق 1
ونشر 1
L 0.2229520435003879
الملابس 1
الهامة 1
تجار 1
عمومًا 1
تصور 1
احتمال 1
بعث 1
سًا 1
التغيرات 1
المذهب 1
جواز 1
قلي@@ 1
محور 1
وأستاذ 1
وسية 1
ألين 1
سس 1
وتسمى 1
أداة 1
نسي@@ 1
نهج 1
وأه@@ 1
ارك 1
السويدية 1
بنظام 1
وفرنسا 1
وير@@ 1
للتعليم 1
مغادرة 1
وتطوير 1
الين@@ 1
فيك 1
مّ@@ 1
وتست@@ 1
× 0.8525319255929233
الصباح 1
بيري@@ 1
حيوانات 1
العُ@@ 1
كاتبة 1
ماليزيا 1
وأف@@ 1
اليسار 1
عل 1
الساحلية 1
العادة 1
العرقية 1
فرجينيا 1
كتي@@ 1
نيا 1
51 0.79919893027579
غير@@ 1
ئي 1
البصرة 1
حينما 1
ناس@@ 1
K@@ 0.11925049570457665
وطن 1
ينظر 1
جنرال 1
سيمون 1
مسؤولية 1
يملك 1
توي@@ 1
فضلاً 1
84 1
استث@@ 1
الثقة 1
الزيتون 1
السنوي 1
كريم 1
وبا 1
ائح 1
حاً 1
حبي@@ 1
التأثيرات 1
الخطة 1
الأزواج 1
ذاكرة 1
للمست@@ 1
لندي 1
اعتمد 1
خطيرة 1
أوبلاست 1
تتح@@ 1
عشرات 1
ألان 1
ائيات 1
الأميرة 1
تُعد 1
دوس 1
زع@@ 1
المناسب 1
معا 1
ألك@@ 1
اقتر@@ 1
الاتفاقية 1
الرؤية 1
جاني 1
والثاني 1
الأدبي 1
النسبة 1
تنسيق 1
داني 1
فوكس 1
ابع 1
ورقة 1
الدهون 1
النوم 1
للوصول 1
هوب@@ 1
W@@ 0.13376591829541162
ةَ 1
تحكم 1
حادث 1
رج 1
لضمان 1
72 0.9275961766989784
اختراع 1
الكورية 1
باد 1
وضعها 1
ومر@@ 1
الكسندر 1
المحتملة 1
جمع@@ 1
كبيراً 1
هزم 1
هون@@ 1
تايوان 1
سكر 1
قرارات 1
لْ@@ 1
مجتم@@ 1
بورن 1
للبحث 1
يتم@@ 1
البيولوجية 1
الحادث 1
تيس 1
داع 1
الأعصاب 1
الجدد 1
زيا 1
نك 1
ريش 1
يريد 1
القطب 1
رفضت 1
سريع 1
لنظام 1
اقتراح 1
المخطط 1
الى 1
تدريس 1
مسؤ@@ 1
الجهات 1
لفت 1
on 0.008984426223442593
بيكر 1
خير 1
موقعها 1
أحدث 1
اجة 1
المغول 1
بارزة 1
دوائر 1
ميل@@ 1
وص 1
يرها 1
إنهاء 1
الب 1
الذكاء 1
تمويل 1
لعدد 1
ماير 1
باني 1
تواجد 1
ولما 1
تخطيط 1
لنقل 1
موسي@@ 1
هارت 1
ببناء 1
حديد 1
دش@@ 1
رت@@ 1
روض 1
يكفي 1
NGC 1
أحياء 1
المحددة 1
المذكورة 1
تبدو 1
1890 0.8425570013157325
إلقاء 1
ازي@@ 1
البث 1
المهندس 1
بمنطقة 1
بند@@ 1
مكونة 1
بتقديم 1
جلي@@ 1
سال 1
غم 1
غيره 1
ملي@@ 1
ويستخدم 1
1899 0.8775488591384373
ارس 1
الدوا@@ 1
تجديد 1
كليات 1
العمرية 1
كز 1
مركزية 1
عارض 1
بلة 1
عودته 1
التط@@ 1
الته 1
السرية 1
انتشرت 1
يحدد 1
نظريات 1
كبرى 1
أوراق 1
الاً 1
المناصب 1
بصفته 1
بى 1
توقيع 1
شل 1
وأحد 1
أدوار 1
الحديقة 1
كوا@@ 1
مشرو@@ 1
و0.@@ 1
الفار@@ 1
حرة 1
وقتل 1
كوف@@ 1
متهم 1
نْ@@ 1
الجماعي 1
هاجر 1
يأخذ 1
الًا 1
جزيئات 1
حاد 1
² 0.24794222749651865
ائد 1
الوصف 1
راحة 1
صال 1
قيس 1
57 0.9104220904041748
جوجل 1
مستعمرة 1
ومص@@ 1
يدل 1
الباب@@ 1
المركب 1
بشير 1
العائ@@ 1
رائد 1
قصور 1
السر@@ 1
ضخم 1
إليهم 1
التمويل 1
الجنسين 1
برئاسة 1
وتعني 1
دفن 1
ظم 1
كوم 1
اراً 1
باها 1
للتح@@ 1
ديوان 1
الساحة 1
ة@@ 1
جس@@ 1
موارد 1
الست@@ 1
النخ@@ 1
تلق@@ 1
وعية 1
القرنين 1
فيت 1
أبر@@ 1
الحصار 1
الخصوص 1
تماماً 1
سينمائي 1
المهاج@@ 1
معر@@ 1
هوي@@ 1
يكونوا 1
حكام 1
فبلغ 1
ئات 1
الاضطرابات 1
الفق@@ 1
ضاء 1
فيكتور 1
قرن 1
يدي 1
التاسعة 1
الممارسات 1
دقائق 1
الأدوار 1
الدستورية 1
الفحص 1
ببساطة 1
عبة 1
مختلف@@ 1
اعد 1
البارزة 1
الجغرافي 1
بتح@@ 1
سوا@@ 1
الأيسر 1
الرس@@ 1
قوائم 1
ليصل 1
الاد@@ 1
الخطر 1
فهد 1
P 0.45628496920534745
جعله 1
كفر 1
هى 1
وتستخدم 1
الصف 1
المحافظ 1
ومنهم 1
وور@@ 1
1896 0.8705822719075763
23@@ 1
تنافس 1
Charles 0.22925352279825129
بيضاء 1
ضر 1
لندا 1
إشراف 1
الرسول 1
الوثائق 1
اوى 1
طرة 1
هرة 1
66 0.9205403994415118
أمن 1
التوا@@ 1
القوية 1
المدنيين 1
تذكر 1
وث 1
الثنائي 1
ساس@@ 1
معظمها 1
I@@ 0.1705385422151343
الشارع 1
المصريين 1
بيتا 1
لهما 1
محتوى 1
الاقتراع 1
المتق@@ 1
باحث 1
بطولات 1
تجعل 1
رؤ@@ 1
قديم 1
لتع@@ 1
مينيسوتا 1
يصنف 1
بلغاريا 1
تنقسم 1
وتوزع 1
السبعينيات 1
المعماري 1
عشرين 1
كوكبة 1
اتين 1
المعبد 1
بنجاح 1
شؤون 1
غاري 1
نواة 1
هين@@ 1
ببعض 1
تأثر 1
مثلاً 1
موث@@ 1
إنج@@ 1
امتداد 1
ره@@ 1
زف 1
كال 1
الته@@ 1
للجدل 1
بمجرد 1
قريب 1
نوبة 1
عما 1
وفيها 1
بيلة 1
عمالة 1
للدفاع 1
السيدات 1
المتبقية 1
المستشفيات 1
الناش@@ 1
ثقافية 1
رياضية 1
المسؤولين 1
طرا@@ 1
غية 1
الجولة 1
الطفولة 1
رأ@@ 1
مواط@@ 1
وزوجته 1
شاب 1
علاق@@ 1
مضاد 1
البالغين 1
الجنين 1
بيين 1
تلقت 1
طلبت 1
نب@@ 1
وقالت 1
جري 1
ضين 1
مزي@@ 1
هاج@@ 1
ورن 1
الشعور 1
العد@@ 1
بدءًا 1
حادثة 1
وانية 1
يتألف 1
يعرض 1
0.@@ 0.8256181454398925
تنتشر 1
رن 1
الأوائل 1
الإيراني 1
الشيعة 1
الهلال 1
بوضع 1
كوميدي 1
الحبوب 1
بالمدينة 1
جيف 1
يمكنها 1
يّ@@ 1
الصد@@ 1
المنورة 1
سمى 1
1897 0.8539749264028803
الدف@@ 1
بدر 1
سكا 1
سوري 1
صموئيل 1
فيروسات 1
J@@ 0.1507794957932677
الخلافة 1
بوابة 1
عالمي 1
للمساعدة 1
الخروج 1
بدعم 1
خطوة 1
السنوية 1
النقدية 1
بق 1
شباب 1
غرام 1
كيس 1
لوي@@ 1
مونت@@ 1
الأساليب 1
واز@@ 1
أخذت 1
المرور 1
بعض@@ 1
شغ@@ 1
وأخ@@ 1
وانتقل 1
بيته 1
طرابلس 1
لقاء 1
لمع@@ 1
هز@@ 1
وام 1
وطني 1
موي 1
الجانبية 1
باش@@ 1
سائل 1
الظاهرة 1
ثات 1
سول 1
58 0.8749494315117925
ائب 1
اهم 1
سلمان 1
صار@@ 1
بطاقة 1
ويقوم 1
يتجاوز 1
اندلاع 1
بيرو 1
تركي 1
طبق 1
عداد 1
قق 1
اث 1
الجغرافية 1
بعمل 1
كارولاينا 1
الأز@@ 1
بعيدة 1
تمام 1
السوفييتي 1
ويست 1
ّق 1
البحيرة 1
كاني 1
ولايات 1
يشغل 1
26@@ 1
الأند@@ 1
الحرم 1
السلامة 1
تهما 1
حاصل 1
فيات 1
كتابات 1
نوكيا 1
ينا@@ 1
التسجيل 1
الفقه 1
الكالسيوم 1
الند@@ 1
أوز@@ 1
بالط@@ 1
مثلا 1
ومُ@@ 1
وات@@ 1
يكتب 1
النباتية 1
بغض 1
الاستيلاء 1
السريعة 1
تير@@ 1
الهوائية 1
بروتوكول 1
ثرة 1
خي 1
رئيسا 1
وأما 1
التكوين 1
الخطأ 1
الصعيد 1
تحولت 1
للشباب 1
مارشال 1
Thomas 0.24214492162722276
المرافق 1
جزءا 1
ساوث 1
الصحفي 1
جيري 1
فيين 1
ملف 1
ورك 1
الخيال 1
الفتاة 1
الفدرالي 1
انضمت 1
بفيروس 1
تصرف 1
شاع@@ 1
لاح 1
معرو@@ 1
نيه 1
يجد 1
00 0.5674630719740688
الكت@@ 1
المعاهدة 1
بران@@ 1
توجه 1
حمد 1
يبقى 1
الثلاثي 1
باليد 1
صاد@@ 1
نصوص 1
هندي 1
تشو 1
قطاب 1
أبيه 1
قيه 1
لتعزيز 1
الكواكب 1
المحركات 1
داخ@@ 1
أمثال 1
ببطولة 1
بعدد 1
ترجع 1
صيغة 1
المحدودة 1
الوليد 1
هور 1
الثمانينيات 1
الغناء 1
صربيا 1
ماد 1
الإعلامية 1
دوم@@ 1
مفر@@ 1
إذاعة 1
لرئيس 1
مدخل 1
وحصلت 1
أدنى 1
التخصصات 1
التمرد 1
بروكلين 1
جده 1
ذكرى 1
مولاي 1
ومث@@ 1
حقل 1
شدة 1
فقه 1
مله 1
وشمال 1
1895 0.8386053755551787
30@@ 1
النسخ 1
روق 1
فاق@@ 1
وبالرغم 1
اريس 1
التنوع 1
مشاة 1
الفرصة 1
كسر 1
ومنتج 1
الشاب 1
المميزة 1
خف@@ 1
زرا@@ 1
عِ@@ 1
ميزة 1
نف 1
الأسترالية 1
بدقة 1
كتب@@ 1
متط@@ 1
ايت 1
خرة 1
خلاله 1
قرون 1
يهودية 1
أب@@ 1
الأفضل 1
الحاكمة 1
خُ@@ 1
نصب 1
ref 1
تسم@@ 1
فائ@@ 1
كوبا 1
إنسان 1
الاي@@ 1
المعدة 1
99 0.9490262801808671
القياس 1
فيلا 1
لتوفير 1
ائق 1
انته@@ 1
بتها 1
وتوجد 1
62 0.913865274761366
الخام 1
الستينيات 1
الهنود 1
تتمثل 1
مستمر 1
الاستقرار 1
النج@@ 1
الجبلية 1
الحوز 1
ايد 1
عددهم 1
البرمجيات 1
تعاني 1
هَ@@ 1
الذهاب 1
تلفزيون 1
تنق@@ 1
ريكي 1
غرار 1
واستمرت 1
الإس@@ 1
الزوجي 1
صفات 1
فوج@@ 1
لتحسين 1
مبيعات 1
وعشرين 1
86 1
إِ@@ 1
تات@@ 1
جما@@ 1
مختبر 1
القبيلة 1
منص@@ 1
1892 0.9209277176881184
67 0.9561237503148335
88 0.9851835404029889
أعطى 1
ضرورة 1
الخشب 1
الدنيا 1
سيو 1
فتها 1
متوسطة 1
مريم 1
يتس 1
المثلية 1
المستعمرات 1
دراما 1
فضلا 1
وبات 1
وكانوا 1
ويرجع 1
الرمز 1
العضلة 1
القياسية 1
صه 1
السلبية 1
العقود 1
تبه 1
تسب@@ 1
تقد 1
شائ@@ 1
قنوات 1
كانية 1
الفارسية 1
قُتل 1
مسرحي 1
استهلاك 1
الخار@@ 1
الفصيلة 1
الكيان 1
بنا@@ 1
مقال 1
والثانية 1
ياء 1
اضي 1
الحجري 1
الهيدرو@@ 1
توى 1
بدايات 1
تشجيع 1
فورت 1
هاوس 1
هيرو@@ 1
M 0.3130440217314593
المبيعات 1
المَ@@ 1
قتين 1
الأساطير 1
الفرسان 1
بمرض 1
بيك@@ 1
ضها 1
أمه 1
الرحلات 1
تار 1
تك 1
طنجة 1
كاز@@ 1
ويعمل 1
F 0.3037463666470605
البصري 1
المطلوب 1
النازي 1
بتهمة 1
حتها 1
خذ 1
لمساعدة 1
يابانية 1
التخلص 1
الجسر 1
الد 1
ميس 1
الآلاف 1
باز 1
طلبة 1
الإعدام 1
المعنية 1
بروك 1
بعد@@ 1
63 0.90368281746857
النواة 1
رغبة 1
سباقات 1
قاط@@ 1
كريستوفر 1
للتكنولوجيا 1
للشركة 1
وتعمل 1
وقدم 1
ولادة 1
بالص@@ 1
تكري@@ 1
سجلات 1
كلي 1
ملم 1
نوعًا 1
ويندوز 1
اصر 1
الثوري 1
الفتح 1
المراقبة 1
وتخرج 1
يمت@@ 1
أسواق 1
المستخدمين 1
بالعديد 1
تعدد 1
المرء 1
بض@@ 1
ماس 1
بوج@@ 1
ساهمت 1
للحياة 1
نبذة 1
الانتباه 1
المسؤول 1
النس@@ 1
حف 1
يعادل 1
· 0.13014869900410558
الأتراك 1
توليد 1
اجي 1
ذب 1
الأورام 1
التقويم 1
القليلة 1
المفترض 1
سيل@@ 1
قِ@@ 1
مائية 1
ماركوس 1
إرنست 1
إسك@@ 1
العق@@ 1
المسؤولية 1
لحزب 1
أشارت 1
زادت 1
شعوب 1
كيميائية 1
أيلول 1
السياق 1
الطول 1
بالذ@@ 1
لاحقة 1
متز@@ 1
َة 1
الجوانب 1
المتخصصة 1
المساجد 1
المنزلية 1
المنظ@@ 1
خليل 1
رسم@@ 1
نقابة 1
الصلب 1
تسلسل 1
ريز 1
طارق 1
ميا 1
مسؤول 1
أسر@@ 1
البوسنة 1
وأل@@ 1
احمد 1
الزراعي 1
بسيط 1
بطول 1
دمان 1
مواطن 1
نفسي 1
ورين 1
ينص 1
رهم 1
فد 1
فرز 1
العيش 1
تسعى 1
جند@@ 1
منافسة 1
مونتريال 1
البيع 1
التلفزيوني 1
الجغرافيا 1
ربت 1
قبل@@ 1
مبارك 1
ميونخ 1
الضحايا 1
المعاصر 1
شيا 1
الأمامية 1
بالسجن 1
قهم 1
لاري 1
متزايد 1
وأغ@@ 1
وصفه 1
تأكيد 1
تجاري 1
راك 1
لمن 1
ليلعب 1
الأمنية 1
N 0.33413844694470846
آي@@ 1
أود@@ 1
إمبراطورية 1
تخضع 1
فاطمة 1
وافقت 1
3000 1
إين@@ 1
الصلاة 1
صيب 1
واج 1
يتسبب 1
إسطنبول 1
خري@@ 1
شات 1
ينت@@ 1
برنام@@ 1
تغطية 1
توصيل 1
جولة 1
طوي@@ 1
مجموع@@ 1
السياسيين 1
بإعادة 1
للحرب 1
مره 1
هال 1
الراحل 1
اللبناني 1
مثّل 1
أنصار 1
اغتيال 1
بالفرنسية 1
ذرة 1
نخ@@ 1
الجاذبية 1
تنمية 1
جدة 1
لاي@@ 1
الاص@@ 1
ميلان 1
ياب@@ 1
29@@ 1
البعثة 1
التد@@ 1
بيدرو 1
جوي 1
حرم 1
سيدة 1
الأغذية 1
فِي 1
ديك 1
شقيقه 1
مدافع 1
وبطولة 1
96 0.953095779721355
الطر@@ 1
الفائز 1
تورونتو 1
منزله 1
والتكنولوجيا 1
H 0.4447471604662575
الخص@@ 1
سعة 1
وبقي 1
1889 0.8696753845963909
71 0.9496560328234689
أيدي 1
النزاع 1
انقلاب 1
باليابانية 1
صلى 1
وعل@@ 1
ٌ@@ 1
الموجات 1
جدار 1
حظ@@ 1
وسط@@ 1
أنتوني 1
المشر@@ 1
داف 1
لكن@@ 1
نظراً 1
سامي 1
مغربي 1
مميزة 1
الأخلاقية 1
الإقليمي 1
الوا 1
حار@@ 1
مزيج 1
يجمع 1
3- 1
ئون 1
الأرقام 1
المستويات 1
ردود 1
مرافق 1
وليات 1
اري@@ 1
باس 1
ربية 1
سوة 1
فحسب 1
700 1
المعالم 1
اين 1
بره 1
تتواجد 1
نباتات 1
العروض 1
الفكرية 1
جاج 1
غون@@ 1
وبرو@@ 1
يمنع 1
28@@ 1
تخفيف 1
خوة 1
ليت 1
أولا 1
المهارات 1
النسوية 1
تعليمية 1
سياس@@ 1
شاب@@ 1
ظاه@@ 1
عدوى 1
كييف 1
وتبلغ 1
وتقوم 1
الروس 1
العي@@ 1
حاولت 1
حياتهم 1
ديزني 1
صرا@@ 1
التوازن 1
الرئي@@ 1
الركاب 1
الستة 1
المان@@ 1
جيه 1
لحم 1
القابلة 1
لعملية 1
American 0.07393648993823093
أتباع 1
الغرفة 1
سبورغ 1
فئات 1
هول 1
واجه@@ 1
5000 1
ابو 1
الم 1
رياض 1
ضوئية 1
الجدار 1
بالتالي 1
راض 1
صَ@@ 1
ويض 1
أصيب 1
الجمع 1
اللح@@ 1
الميناء 1
تج 1
خسائر 1
عالم@@ 1
للمشاركة 1
واري 1
ويحمل 1
يمكنه 1
1885 0.8678729590255401
الفلسطينيين 1
أمرًا 1
الحميد 1
العظم 1
ستي 1
سلسل 1
غيت 1
مصلحة 1
ميشيل 1
1894 0.8750839753012603
d 0.053299724712310495
ارتك@@ 1
الصحيح 1
القنوات 1
الو 1
بكالوريوس 1
بمحافظة 1
جراء 1
ائرة 1
برات 1
ضبط 1
كلاهما 1
مضادات 1
’ 0.02115788478150843
ألفا 1
المعلمين 1
لوزارة 1
مبادرة 1
هرمون 1
ومار@@ 1
ارتباط 1
شتوكة 1
ميكرو@@ 1
الرئوي 1
الطراز 1
القياسي 1
القيود 1
الليبرالية 1
بنات 1
هاريس 1
1891 0.8828315881418999
اشتهرت 1
النظريات 1
تحوي 1
جناح 1
سنويًا 1
مناخ 1
البول 1
المعدات 1
صديق 1
وامت@@ 1
ومجموعة 1
بوي 1
عمر@@ 1
وكس 1
يتر@@ 1
أنت 1
إداريّاً 1
الأحكام 1
التجمع 1
تشتهر 1
روى 1
مقالة 1
الريف 1
الشعرية 1
قيات 1
59 0.8751917431335562
أعاد 1
إنجليزي 1
افه 1
لاع 1
مبكرة 1
وتك@@ 1
جميعها 1
فوس 1
واستخدام 1
اظ@@ 1
الصادرة 1
قيا 1
والاتحاد 1
أوقات 1
ارته 1
ديرة 1
كامبريدج 1
بيير 1
جعلها 1
سنغافورة 1
عيون 1
والسياسية 1
الاغتصاب 1
السياحية 1
دعي 1
وبالإضافة 1
ومنطقة 1
البح@@ 1
بلديات 1
حديثًا 1
دّ@@ 1
عنهم 1
لندية 1
هذ@@ 1
والمه@@ 1
اثر 1
الفحم 1
المتص@@ 1
بتع@@ 1
دييغو 1
ناق@@ 1
نيكولاس 1
وكو 1
الإطار 1
التحقيقات 1
الحسيمة 1
الوراثية 1
تركت 1
خض@@ 1
راع 1
وجاء 1
العمود 1
بئر 1
دام@@ 1
قادر 1
لأغراض 1
مجتمعات 1
نفسية 1
نيلسون 1
1893 0.8479400285466968
البري@@ 1
التوسع 1
حمل@@ 1
شرو@@ 1
فرانكلين 1
النحاس 1
الوط@@ 1
حى 1
سفي@@ 1
سوم@@ 1
عاز@@ 1
عاص@@ 1
وأثناء 1
اجر 1
حف@@ 1
لتق@@ 1
لمكافحة 1
المحاصيل 1
ناسا 1
نوعها 1
ثور@@ 1
يقلل 1
68 0.8693192889621508
الآباء 1
البصرية 1
امر 1
تزايد 1
رال 1
ستا 1
قص 1
مناص@@ 1
واللا@@ 1
24@@ 1
بينه 1
لاع@@ 1
نادرة 1
افت 1
الارتفاع 1
قيود 1
ميلي@@ 1
شار 1
لَ 1
مسح 1
هشام 1
يربط 1
الإشارات 1
النارية 1
انسحاب 1
بيون 1
تنتهي 1
خلاص 1
وملحن 1
الدراسي 1
لات@@ 1
موظف 1
نهم 1
27@@ 1
الأميركية 1
التي@@ 1
الغشاء 1
المنزلي 1
باولو 1
فرنسيس 1
هوا@@ 1
النح@@ 1
ذهبية 1
متم@@ 1
1888 0.8902145410968519
الرح@@ 1
تنشأ 1
روبنسون 1
فلما 1
قان@@ 1
ويعود 1
البضائع 1
يدعم 1
الخمس 1
الموض@@ 1
الوظيفي 1
الشوارع 1
النمساوية 1
بروتينات 1
تعليق 1
تقي 1
روابط 1
ماغ@@ 1
أعلاه 1
الاستراتيجية 1
الباردة 1
التفسير 1
باف@@ 1
تشابه 1
تغي@@ 1
شرقي 1
فال 1
وجائزة 1
61 0.8747888960529999
عدداً 1
مهاجمة 1
يوان 1
c 0.19673834277068225
الفض@@ 1
بنسلفانيا 1
تعلمت 1
سكن 1
كونت 1
مخصصة 1
التصنيع 1
الدقيق 1
1880 0.798737257803358
v 0.4552034530790263
اذ 1
اعتقال 1
بأكملها 1
بديل 1
شك 1
وكا 1
وَّ@@ 1
المول@@ 1
تأخذ 1
البرج 1
شقيق 1
متص@@ 1
والنساء 1
الأمريك@@ 1
المعلم 1
تخصيص 1
تى 1
هيك@@ 1
أعم@@ 1
التوزيع 1
الثدييات 1
الطرفين 1
الكائن 1
النبلاء 1
الوسطي 1
بحاجة 1
كيه 1
نام 1
وفر@@ 1
الديانة 1
الشهادة 1
بالذكر 1
ديب 1
مقدار 1
C. 0.3472768064755182
التأمين 1
الخلفي 1
الدليل 1
جعلت 1
سمت 1
صيد 1
ورًا 1
اجية 1
سيات 1
وتا 1
69 0.9300708612152593
الزجاج 1
فح@@ 1
اختي@@ 1
تأسيسها 1
تكرار 1
تمثال 1
للاستخدام 1
لمنظمة 1
وانتهت 1
الوقاية 1
تعم@@ 1
جنة 1
أمم 1
افي@@ 1
دوين 1
روية 1
مشاهد 1
معارك 1
1884 0.9359763924244362
الأسط@@ 1
الإيمان 1
تمرد 1
حصان 1
عود 1
مؤلف@@ 1
مزرعة 1
وأخذ 1
p 0.23102455031485203
أكسفورد 1
أوق@@ 1
احتف@@ 1
قائلاً 1
قلت 1
ونال 1
إدار@@ 1
اص 1
الكويتية 1
المرو@@ 1
النز@@ 1
ويسمى 1
الإبلاغ 1
التسلسل 1
بلان@@ 1
للكاتب 1
وبل@@ 1
الآلات 1
برا 1
دينام@@ 1
ستان@@ 1
ويس 1
73 0.9496331721803724
ازية 1
الأديان 1
الوراثة 1
بيض 1
ستار 1
قتال 1
واحت@@ 1
الاحتفال 1
الاعتقاد 1
التقييم 1
حصة 1
شعره 1
مشواره 1
ميه 1
وتعادل 1
بطة 1
عرش 1
ورث 1
أدار 1
ارع 1
الكبار 1
المأ@@ 1
وقاضي 1
82 0.9614914094567504
البلدين 1
الضخمة 1
المهدي 1
تطلب 1
تمان 1
حاج@@ 1
مكانه 1
الجرائم 1
تتوفر 1
سمع 1
وعُ@@ 1
الأحوال 1
رّ@@ 1
شعاع 1
يتهم 1
98 0.9352803923411855
العادي 1
تصويت 1
بمدرسة 1
زعم 1
وسين 1
وظل 1
يمين 1
أحد@@ 1
الموجة 1
جامعات 1
خلص 1
لفين 1
وأيضاً 1
واس 1
والشيخ 1
83 1
اتل 1
حتي 1
قلق 1
العبودية 1
خسارة 1
لاستخدام 1
نض@@ 1
اثنان 1
الأعداد 1
الفئات 1
تصني@@ 1
تأمين 1
تواجه 1
لتف@@ 1
ويبدو 1
اجتماع@@ 1
تميل 1
كره 1
مجموعه 1
تعري@@ 1
زايد 1
05 1
افتتح 1
الاغ@@ 1
الزمان 1
الكونغو 1
باط@@ 1
مسر@@ 1
والتف@@ 1
اقتصادي 1
نشرها 1
192@@ 1
الدبلوماسية 1
السوبر 1
جير 1
شاير 1
غارسيا 1
ملحوظ 1
والاقتصادية 1
البحار 1
عددها 1
عروض 1
غلو@@ 1
قدرها 1
وأيضًا 1
الجيوش 1
جوان 1
عبادة 1
ناجحة 1
وأبو 1
بيل@@ 1
ذي@@ 1
كروز 1
احتلت 1
سترا@@ 1
ميزات 1
يؤكد 1
يمها 1
احتياجات 1
الجدل 1
الهجري 1
شارل 1
صها 1
للنظام 1
لورانس 1
موجات 1
وكاتبة 1
.com 1
78 0.897622394404976
t 0.10109640757212868
السن@@ 1
ثين 1
is 0.006250730736739882
الفعلي 1
دوران 1
فائدة 1
لتشكيل 1
نوعية 1
1886 0.8859736572818336
السابقين 1
الكليات 1
تشكلت 1
حاك@@ 1
فقر 1
وبما 1
1870 0.7396377386679104
أقيم 1
الانتق@@ 1
الصومال 1
الظهر 1
حقبة 1
حملات 1
شيو@@ 1
كامبل 1
مناقشة 1
ومغني 1
الوسائل 1
تمكنت 1
للملك 1
ممث@@ 1
والمملكة 1
الخز@@ 1
تحلي@@ 1
كولورادو 1
1887 0.8945696809590222
إريك 1
اول 1
ترو 1
داس 1
ظاهر 1
هوية 1
وليد 1
آراء 1
الباحث 1
العقوبات 1
العكس 1
اللجوء 1
تجار@@ 1
ترف 1
متاحة 1
إيطالية 1
داخلي 1
عنص@@ 1
مهارات 1
نمو@@ 1
والحزب 1
وجوده 1
وقي 1
ووصل 1
ووكر 1
وْ@@ 1
بولي@@ 1
تنتقل 1
سمك 1
فيتامين 1
مروان 1
81 0.9262062913996524
بدا 1
شريف 1
فيلي@@ 1
كوري 1
لعائلة 1
هيدرو@@ 1
1500 1
الإرهاب 1
الفعلية 1
الموصل 1
انطلا@@ 1
بيانو 1
تقام 1
دائمة 1
راشد 1
76 0.8462745442162304
احتمالية 1
الثقيلة 1
تستمر 1
جوية 1
زمنية 1
ضافة 1
ملها 1
موظفي 1
العثمانيين 1
الون 1
انوس 1
تنص 1
درو 1
لقت 1
مواضيع 1
79 0.9889746146064263
اطي 1
الأحد 1
الأنهار 1
الثمانينات 1
روح@@ 1
طولها 1
عْ@@ 1
لاحية 1
لعلم 1
للقيام 1
ودفن 1
النسبية 1
تخت@@ 1
للغة 1
ينتقل 1
يومنا 1
الذرية 1
غرو@@ 1
فشلت 1
هاب@@ 1
وحر@@ 1
يستمر 1
actor 0.48017725682700674
انهم 1
وصحفي 1
وّل 1
الأغلبية 1
الاثنين 1
الخير 1
القلق 1
عاشت 1
معتزل 1
1878 0.8864899128892194
أنتج 1
الاحتفاظ 1
جنا@@ 1
جنوبي 1
دراستها 1
عثر 1
كوز@@ 1
للبلاد 1
لمنطقة 1
والمن@@ 1
المتس@@ 1
المشكلات 1
ويعرف 1
استق@@ 1
تشاب@@ 1
جيا 1
للتع@@ 1
متابعة 1
وتقديم 1
ارتفع 1
الهادي 1
بالقاهرة 1
ميزوري 1
اجتماعي 1
البيزنطية 1
الشديدة 1
المعد@@ 1
روجر 1
طائفة 1
عمران 1
لإجراء 1
مرشح 1
87 0.9690356841521874
سلسل@@ 1
مورغان 1
us 0.11861669741202896
أهالي 1
الحرف 1
الكوكب 1
نشأته 1
والثقافية 1
77 0.8727087059780133
الهند@@ 1
تتجاوز 1
روائي 1
أنهى 1
التسعينات 1
الظهور 1
ربه 1
رع 1
صناعية 1
طبع@@ 1
قصف 1
مفيدة 1
وحده 1
أوسكار 1
الأرجح 1
باح 1
رسمياً 1
سمات 1
ضى 1
مرسوم 1
مقدم 1
ودرس 1
1882 0.9259554431512793
New 0.046091302855541874
b 0.19179657286483917
العملة 1
الفساد 1
لأحد 1
الجمعيات 1
انتقادات 1
كتاب@@ 1
كَ 1
ليوم 1
متف@@ 1
واص@@ 1
الأسعار 1
بتون 1
خبرة 1
رون@@ 1
ومه@@ 1
يقومون 1
الأربع 1
تسي@@ 1
توف@@ 1
سينا 1
لينغ 1
مجرى 1
يشعر 1
أقام 1
السين@@ 1
الغدد 1
بحكم 1
هدفين 1
وصفت 1
ءها 1
الشامل 1
بنو 1
خصوصا 1
شارات 1
لعب@@ 1
هاجم 1
ووفقًا 1
البطن 1
امهم 1
لع 1
نيجيريا 1
وشركة 1
بأنهم 1
بعضهما 1
ربين 1
طار@@ 1
مزيد 1
وفيتش 1
أجرى 1
الأمامي 1
الصواريخ 1
يتان 1
1881 0.9018203806125525
جرات 1
سوية 1
شاطئ 1
مذهب 1
وسل@@ 1
أبرزها 1
أسلحة 1
القضاة 1
المتمردين 1
طاق@@ 1
كتش@@ 1
نار 1
93 0.9490565381798562
الاختيار 1
تبة 1
خبر@@ 1
دراجات 1
روني 1
المنس@@ 1
انتخابه 1
خان@@ 1
ذه 1
رومان@@ 1
سرد 1
عبد@@ 1
مقعد 1
الأه@@ 1
البطل 1
العناية 1
ثقاف@@ 1
طاب@@ 1
فاب@@ 1
معدات 1
الاختلاف 1
المفاهيم 1
تعطي 1
ڭ@@ 1
الصحيفة 1
المعادلة 1
بحق 1
تومسون 1
طهران 1
المكونة 1
تتع@@ 1
لاق 1
لجامعة 1
والدة 1
D8 1
أنتجت 1
أوسع 1
الشاطئ 1
المحتلة 1
ناد 1
وألمانيا 1
وضعه 1
الاستوائية 1
الشعراء 1
سند@@ 1
وبحسب 1
وغيره 1
ولوج@@ 1
أندريه 1
بالغ 1
غال@@ 1
أذربيجان 1
العش@@ 1
العصب 1
أبو@@ 1
أبي@@ 1
العبرية 1
المحر@@ 1
الواق@@ 1
رينا 1
عله 1
مظ@@ 1
وردت 1
وسلم 1
يطلب 1
الإنساني 1
الخبراء 1
الكري@@ 1
اهرة 1
مرتب@@ 1
ميشيغان 1
المهاجم 1
بّي 1
تمي@@ 1
عضلة 1
أرجنتيني 1
أرض@@ 1
ازة 1
الاستخدامات 1
داع@@ 1
روك@@ 1
شعبة 1
وانضم 1
35@@ 1
بلاي 1
جزءاً 1
جوهر 1
راس@@ 1
كينز 1
اقبة 1
تحديث 1
جنبا 1
خلل 1
واة 1
ّز 1
الكث@@ 1
حاز 1
دَ 1
زيمة 1
ضمنها 1
كشفت 1
مرتفعة 1
البولندية 1
الخبرة 1
الْ@@ 1
تْ 1
طائر 1
نابليون 1
ارتبا@@ 1
التجار 1
الجل@@ 1
الصندوق 1
الميكرو@@ 1
بضع 1
تصفيات 1
دواء 1
نشا@@ 1
بلاك 1
سينغ 1
صفر 1
مسؤولة 1
وثائق 1
أغلبية 1
ائيين 1
الزيادة 1
الفيدرالي 1
بمتوسط 1
تألفت 1
لجائزة 1
للطلاب 1
ومرا@@ 1
الآلية 1
المبدأ 1
لوك@@ 1
ولمدة 1
أحدهما 1
الثانوي 1
جيني 1
دقيق 1
شح@@ 1
نيوتن 1
يمية 1
ّات 1
انتقد 1
برد 1
عبور 1
كول 1
ليان 1
وبد@@ 1
بإجراء 1
تربط 1
فتح@@ 1
قوله 1
والمناطق 1
أبن@@ 1
اؤه 1
ذكور 1
غينيا 1
لوحات 1
مراد 1
التحضير 1
الحاد 1
الشروط 1
ضًا 1
فرج 1
الأمي@@ 1
ضا 1
مستشار 1
البدء 1
بروسيا 1
سند 1
فنزويلا 1
ميني 1
الرقص 1
الشائع 1
رد@@ 1
ريج 1
للدراسات 1
وتبعد 1
وو 1
ّس 1
E. 0.5093198337026703
إه@@ 1
البه@@ 1
الظه@@ 1
القاسم 1
طيار 1
ونقل 1
ينيا 1
تغييرات 1
زين@@ 1
فيزيائي 1
موند 1
إلي@@ 1
اكم 1
التعديل 1
الروم 1
راض@@ 1
متين 1
مهمًا 1
ادهم 1
جوناثان 1
اختار 1
الميكانيكية 1
ثلاث@@ 1
ليفربول 1
مايكروسوفت 1
ربا 1
يتخ@@ 1
استبد@@ 1
ايدة 1
بعيدًا 1
تاي 1
شأنه 1
مارات 1
معظمهم 1
وبها 1
4.@@ 0.9975581679198257
جأ 1
خلفه 1
خيص 1
عراض 1
لكنهم 1
1861 0.8791193165454937
حال@@ 1
عظم 1
يعل@@ 1
يورك 1
الزمنية 1
جمه@@ 1
جيت 1
وتط@@ 1
الأثر 1
التحديد 1
النهار 1
حروب 1
سورة 1
لط 1
أموال 1
إثبات 1
استم@@ 1
المسائل 1
بمق@@ 1
غرف 1
كرئيس 1
وشاعر 1
يتا 1
يوحنا 1
25@@ 1
الثابتة 1
المزمن 1
لمة 1
نست@@ 1
نورث 1
الأزهر 1
المواقف 1
انف@@ 1
سخ@@ 1
أكمل 1
إيقاف 1
الحارث 1
بحوث 1
تيني 1
صحي@@ 1
ينغ@@ 1
الجزيئات 1
السائدة 1
السبع 1
دوية 1
V 0.23553673125669097
سوب@@ 1
فنون 1
ليد 1
الاه@@ 1
التكاليف 1
المسابقة 1
باركر 1
مبلغ 1
معاً 1
وآخرون 1
أسب@@ 1
اؤ@@ 1
الأحماض 1
الخلوي 1
الفيزيائية 1
المحمولة 1
شق@@ 1
ليلى 1
يار@@ 1
َّا 1
1883 0.9103914551624076
أر 1
المرجح 1
المعيشية 1
ترشيح 1
رومان 1
للرئيس 1
يجوز 1
الجام@@ 1
الزعيم 1
والمواد 1
وغرا@@ 1
اعتُ@@ 1
الأرز 1
المبر@@ 1
الهندسية 1
عقدت 1
ملابس 1
ويسكونسن 1
1876 0.8883596675779271
الطبي@@ 1
المشهد 1
المعقدة 1
شق 1
فران 1
فرناندو 1
قدرات 1
كيفن 1
ماث@@ 1
يتك@@ 1
البسيطة 1
ضرر 1
معقدة 1
وحدها 1
وكار@@ 1
اتح@@ 1
استراتيجية 1
الدراما 1
الضروري 1
المسؤولة 1
حارس 1
عددا 1
كاتدرائية 1
للأشخاص 1
W. 0.5415616525948236
إيفان 1
ادرة 1
الأكاديمي 1
الأوسكار 1
الحوار 1
تحاول 1
صنا@@ 1
للمنطقة 1
والبحث 1
والتاريخ 1
يركز 1
ٍّ 1
خيال 1
فقات 1
مستشار@@ 1
وفاتها 1
الإح@@ 1
الجنائية 1
الفرس 1
شير@@ 1
كارتر 1
مستقبلات 1
فيليبس 1
كال@@ 1
كوس 1
واب 1
ويقال 1
الإع@@ 1
الخطوة 1
ربون 1
سيطر 1
هربرت 1
Henry 0.264055365119844
أمتار 1
الدرقية 1
ثماني 1
حيز 1
سِ@@ 1
صحف 1
لحق 1
السبت 1
للجنة 1
وأعلن 1
وطلب 1
ويك 1
أهلها 1
ائم 1
التها 1
الخوف 1
المستقبلية 1
بالي@@ 1
ساعدت 1
لمسافة 1
يسعى 1
التّ@@ 1
فاه 1
فيرجينيا 1
مستمرة 1
التجريبية 1
التغير 1
بزيادة 1
عليا 1
فسي@@ 1
وانة 1
إمام 1
اللوحة 1
المسمى 1
المفاوضات 1
تيان 1
خَ@@ 1
رع@@ 1
صلات 1
قاع@@ 1
كيو 1
وعازف 1
احتج@@ 1
الهبوط 1
سريعة 1
سنويا 1
وتعرف 1
يهودي 1
التفاعلات 1
تجد 1
منى 1
L5 1
العاشرة 1
العنوان 1
الهندوسية 1
الوهاب 1
فرسان 1
قدي@@ 1
لاه@@ 1
وسرعان 1
يدرس 1
89 0.9320338507373345
أسطورة 1
ابين 1
السلا@@ 1
حلول 1
رمز@@ 1
ساه@@ 1
مترًا 1
ودا 1
U@@ 0.1502400572635877
ابت 1
بمقدار 1
تجري 1
تشارلي 1
غيل 1
مكاتب 1
وتز@@ 1
1860 0.7770642879942096
74 0.8057954644089935
السكري 1
السوائل 1
زام@@ 1
لمان 1
ويتكون 1
يحضر 1
الاج@@ 1
التطبيق 1
الدا@@ 1
الدرا@@ 1
بالدوري 1
حبيب 1
دوس@@ 1
محدود 1
مساهمة 1
وحسب 1
يوهان 1
آليات 1
أدبية 1
الإصابات 1
الملح 1
توسع 1
جوني 1
فرت 1
ليون@@ 1
id 0.40872474350424015
إحياء 1
السمات 1
دوم 1
ضمت 1
ناول 1
هيو 1
ودعم 1
كتيبة 1
نُشرت 1
ويؤ@@ 1
يجعلها 1
يميل 1
1871 0.8008798065413273
أحياناً 1
التسعينيات 1
الجماهير 1
الكرو@@ 1
المئة 1
باق 1
شعراء 1
إسلامية 1
غوردون 1
كًا 1
بوصة 1
تحدي@@ 1
سكة 1
يستعمل 1
04 1
أب 1
الألياف 1
بالكانا 1
تخفيض 1
جوز 1
حزمة 1
لوب 1
بيب 1
حذ@@ 1
ذت 1
سقطت 1
والمص@@ 1
وكلية 1
الثنائية 1
بمو@@ 1
تمت@@ 1
توظيف 1
شريط 1
فظ 1
وائل 1
وتج@@ 1
ولكن@@ 1
ونق@@ 1
الطوائف 1
المتك@@ 1
ضغ@@ 1
طبق@@ 1
فلسطينية 1
كوين 1
لتجنب 1
موع 1
ميدالية 1
وتين 1
أدب 1
أوتو 1
ؤ 1
الكور@@ 1
المريخ 1
المظ@@ 1
الورق 1
بشر 1
جمي@@ 1
خيار 1
يانا 1
يتواجد 1
92 0.8526926496270019
أيرلندي 1
الاك@@ 1
السوفياتي 1
جميلة 1
غضب 1
فوزه 1
قبال 1
وضح 1
حياء 1
دبلوماسي 1
ومت@@ 1
اسا 1
اعتقد 1
الحلقات 1
الذكر 1
الضوئي 1
لمركز 1
نم@@ 1
أبدًا 1
اوم 1
بارية 1
بغرض 1
وقود 1
ولًا 1
1.5 1
اتصالات 1
اجل 1
الأمعاء 1
المقالة 1
اُ@@ 1
خطورة 1
صيني 1
عيم 1
للمجتمع 1
وعرض 1
1879 0.8695020921907237
أوم@@ 1
الحض@@ 1
بالولايات 1
تاف@@ 1
دافع 1
دفاع 1
طون 1
لقياس 1
واف 1
والأن@@ 1
الارتباط 1
اون 1
بعاد 1
دامة 1
ـة 1
ناج@@ 1
يدور 1
إذ@@ 1
الأصفر 1
تسليم 1
تغيرات 1
تفورد 1
جاك@@ 1
راي@@ 1
عدّ 1
فاست@@ 1
لحركة 1
أدر@@ 1
استع@@ 1
المبار@@ 1
بشرية 1
ثمان@@ 1
حرق 1
سيادة 1
وّر 1
المنت@@ 1
داد@@ 1
راق 1
طلاق 1
ادل 1
اطية 1
البة 1
الذرة 1
الساح@@ 1
تايلاند 1
حميد 1
شمل 1
وعم@@ 1
ينس 1
إض@@ 1
ابيع 1
الانضمام 1
الكرب@@ 1
دلي@@ 1
طيور 1
قياس@@ 1
ليتم 1
منحة 1
واللغة 1
for 0.006635382579299303
أثير 1
المعرض 1
الممثلين 1
بالمقارنة 1
جذور 1
يَّ@@ 1
الدوران 1
الصالح 1
تسويق 1
تنمو 1
جور 1
دالة 1
فؤاد 1
قات@@ 1
كاث@@ 1
لوجود 1
نسبيا 1
ويًا 1
أورا@@ 1
الأسهم 1
الظهير 1
توصل 1
حري@@ 1
ديترويت 1
كد 1
وبهذا 1
وول@@ 1
الطابع 1
صوفيا 1
عضلات 1
علي@@ 1
قضائية 1
معتم@@ 1
نسيج 1
آند 1
الثقيل 1
بنشر 1
دّ 1
ملو@@ 1
الانقلاب 1
الهواتف 1
سوداء 1
عائلات 1
عقوبة 1
فيًا 1
لاعب@@ 1
للصحة 1
لمواجهة 1
والت 1
وريين 1
01 0.9131529335455554
ادعى 1
استقال 1
اضطر 1
السوي@@ 1
جزئيًا 1
حامل 1
فقدت 1
ناز@@ 1
أغني@@ 1
أولا@@ 1
الشاملة 1
الملفات 1
تد 1
جيدًا 1
ستانلي 1
لائحة 1
الجمال 1
تراكم 1
جلد 1
شفاء 1
ميلو@@ 1
نوي 1
يُطلق 1
المشاهد 1
بالله 1
بست@@ 1
تاب 1
تجه 1
شعور 1
فيشر 1
للز@@ 1
للعلاج 1
هرب 1
والتق@@ 1
أسهم 1
الانفجار 1
البلو@@ 1
المنصور 1
ترشح 1
قراطية 1
كيز 1
مصالح 1
نقد 1
الحادثة 1
المرتبط 1
دورية 1
فش@@ 1
لوبيز 1
مكعب 1
34@@ 1
97 0.8989375311065988
ادًا 1
المصطلحات 1
النائب 1
سفير 1
عطاء 1
وجي@@ 1
وصفها 1
ونش@@ 1
ويش@@ 1
يتعرض 1
الحج 1
بتر@@ 1
صفقة 1
كندية 1
أبوظبي 1
إبرا@@ 1
إنتاجها 1
رومانية 1
ضريبة 1
محاكمة 1
عملاء 1
غراهام 1
ماثيو 1
يُمكن 1
احترا@@ 1
الأعظم 1
سبور@@ 1
الاستخبارات 1
النهج 1
الوباء 1
دوراً 1
سيون 1
مشهد 1
همة 1
البد@@ 1
المؤقتة 1
حوله 1
رخ@@ 1
عراقي 1
كوبر 1
كيون 1
مساء 1
ورق 1
يوضح 1
# 0.3049432888688382
الاستفادة 1
الجسدية 1
الدستوري 1
جوا 1
مارة 1
مثلما 1
مسيحية 1
الأعراق 1
فوائد 1
ناية 1
نرويجي 1
وقي@@ 1
Michael 0.2106103378367886
أوامر 1
المنخفض 1
حمام 1
للسيطرة 1
ويكيبيديا 1
يتش 1
البر 1
الموجهة 1
حقي@@ 1
حكمت 1
G 0.26937664771752673
الطي@@ 1
انط@@ 1
اهر 1
اهي 1
شأنها 1
تعامل 1
حيوية 1
الاخ@@ 1
التفا@@ 1
الربع 1
العقيدة 1
القسطنطينية 1
المشاعر 1
النامية 1
بوف@@ 1
بْ@@ 1
تمد 1
ضربات 1
ماركس 1
نموذ@@ 1
انى 1
تمنح 1
حون 1
شاملة 1
ناه 1
ونت 1
يعر@@ 1
إشارات 1
الأسئلة 1
السهل 1
القة 1
المؤس@@ 1
المقر 1
ملحن 1
ملي 1
نيًا 1
والدراسات 1
البريدي 1
الديمو@@ 1
الفرع 1
الكبريت 1
المناعي 1
تقي@@ 1
عز 1
وبا@@ 1
الأرمن 1
الانتداب 1
البول@@ 1
دف 1
طلع 1
كنة 1
للأسر 1
هاشم 1
يام@@ 1
يتون 1
التقدمي 1
بالضرورة 1
قلال 1
لج 1
هائلة 1
1,@@ 0.49734781207174816
العيون 1
المبادرة 1
الهياكل 1
تتحدث 1
تفشي 1
صديقه 1
وريات 1
أعمارهم 1
البك@@ 1
الروا@@ 1
تجاه@@ 1
جابر 1
فتيات 1
قصائد 1
معاملة 1
وفيما 1
ومج@@ 1
ومه 1
Richard 0.24581455596216062
ألوان 1
اخرى 1
الوز@@ 1
سوريّة 1
عقد@@ 1
قليلاً 1
مستوطنة 1
وجودها 1
أبواب 1
أثبتت 1
الثورية 1
الحملات 1
المهم 1
تشتمل 1
داول 1
شرك@@ 1
غرة 1
كلير 1
مشابه 1
منية 1
الجز@@ 1
الجي@@ 1
رص@@ 1
زى 1
هيد 1
91 0.8934160475440242
ابون 1
الشاشة 1
المند@@ 1
حمص 1
سلي@@ 1
سنين 1
وأمريكا 1
واحد@@ 1
المجلات 1
طرية 1
كارول 1
كتين 1
كلاعب 1
والمق@@ 1
الكمية 1
علاء 1
قبض 1
متا@@ 1
هوائية 1
وبر 1
احتل 1
التخلي 1
امتصاص 1
تيم@@ 1
زائ@@ 1
غال 1
لتر@@ 1
يوما 1
الإسبان 1
الانسحاب 1
الحروف 1
السينمائية 1
عموما 1
قوق 1
قومية 1
كاش@@ 1
مئ@@ 1
نافس 1
وأوروبا 1
يقد@@ 1
$ 0.09464472652415065
حولها 1
راديو 1
ربات 1
وتشير 1
ومدرسة 1
ومصر 1
الاز@@ 1
التسل@@ 1
الدير 1
اليس 1
تير 1
عندها 1
كند@@ 1
لأنهم 1
ليبر@@ 1
مام@@ 1
مقيمة 1
مناسب 1
الخضر 1
القصور 1
ساد@@ 1
مصمم 1
مِن 1
واحدا 1
ينيين 1
50@@ 1
المعارض 1
باغ 1
بيس 1
سيب 1
يذهب 1
الخرطوم 1
بخصوص 1
تمتع 1
داي@@ 1
اكت@@ 1
البولي@@ 1
السلو@@ 1
توفيق 1
تيري 1
الأمد 1
التجمعات 1
الرقمي 1
القصير 1
كاد@@ 1
الأوك@@ 1
التحقق 1
الخض@@ 1
الكلى 1
تيد 1
للحد 1
وجيه 1
وروب@@ 1
ويليامز 1
الأغ@@ 1
المتف@@ 1
المعم@@ 1
امتدت 1
جاع 1
ذكرها 1
سوبر 1
التدفق 1
الحكام 1
الدائم 1
تدل 1
تمّ 1
غرق 1
لح 1
نادر 1
استولى 1
الغابة 1
ددة 1
معادلة 1
1867 0.8312290520164337
الأنف 1
المستهلك 1
ثلاثين 1
حن 1
قنا@@ 1
موراي 1
ميك 1
جوه@@ 1
خبر 1
دريك 1
مبنية 1
متر@@ 1
والإي@@ 1
والفنون 1
الأوروبيين 1
الزرقاء 1
القمح 1
بعملية 1
مسعود 1
منت@@ 1
ميغيل 1
نزاع 1
والأطفال 1
وكث@@ 1
أرضية 1
استي@@ 1
السويدي 1
الكفاءة 1
اللغوية 1
سترو@@ 1
لاي 1
أسسها 1
أليكس 1
انش@@ 1
مؤكدة 1
والمعروفة 1
وسة 1
يتي@@ 1
َّل 1
أطل@@ 1
الاحتياجات 1
الدول@@ 1
القطبية 1
القوا@@ 1
المؤتمرات 1
المجرات 1
براءة 1
تبني 1
تتك@@ 1
درا 1
رتها 1
شاء 1
طفل@@ 1
فكر 1
ملفات 1
منظور 1
مْ@@ 1
نِ@@ 1
يسون 1
الإقامة 1
بدراسة 1
تنقل 1
دث 1
زو@@ 1
ليوس 1
وتحتوي 1
اليمني 1
بائ@@ 1
ثان 1
صلا@@ 1
فيون 1
مدني 1
مناف@@ 1
ميث@@ 1
والأدب 1
وقر@@ 1
إلخ 1
الإث@@ 1
الطاقم 1
جس 1
كولن 1
مارغريت 1
منازل 1
موني 1
نفو@@ 1
وراً 1
الرموز 1
الشريان 1
الضرر 1
الهر@@ 1
بوضوح 1
عتين 1
هو@@ 1
انتهاكات 1
جنيف 1
لتص@@ 1
مسمى 1
آث@@ 1
أراضيها 1
الإنجليز 1
السجناء 1
المادي 1
ترتفع 1
حرس 1
كّ@@ 1
لبن@@ 1
للن@@ 1
منهج 1
40@@ 1
أساسا 1
إدارية 1
الإسلا@@ 1
القدرات 1
الميزانية 1
اير 1
صين 1
لينا 1
نورمان 1
اليون@@ 1
انخفض 1
بتطوير 1
خطوات 1
كته 1
ميلادي 1
والصحة 1
اكتشفت 1
تؤكد 1
صحيحة 1
طلبات 1
عينة 1
فريدة 1
مركزي 1
يخص 1
أحادي 1
الإنج@@ 1
الطقس 1
ديًا 1
عمود 1
غتون 1
الإضافية 1
السيادة 1
الصفات 1
العميل 1
القوي 1
المنهج 1
تقلي@@ 1
جابة 1
كومة 1
اعت@@ 1
واي@@ 1
آدامز 1
اديين 1
اقل 1
الاعتداء 1
سعودية 1
شرع 1
عمها 1
لر@@ 1
هاي 1
واز 1
والمث@@ 1
الأقسام 1
الأُ@@ 1
البريطانيون 1
الرغبة 1
عقدة 1
مهاج@@ 1
موضوع@@ 1
33@@ 1
إضاف@@ 1
عملة 1
غريب 1
فك 1
للسي@@ 1
متحركة 1
نشأة 1
اءة 1
المسرحي 1
بلندن 1
طفاء 1
كريات 1
لاقة 1
أثرت 1
انتخابية 1
عُرف 1
مؤسسي 1
ومان 1
استغلال 1
بؤ@@ 1
تمر@@ 1
توضع 1
مؤخرًا 1
1877 0.8336591569308158
L. 0.5667720517586944
أوري@@ 1
استُ@@ 1
الفطريات 1
بأمر 1
بفعل 1
بكين 1
دني 1
راجع 1
رصد 1
سْ@@ 1
غربي 1
يحقق 1
الإغريقية 1
بحري 1
خوض 1
للفريق 1
لَّ@@ 1
مّ 1
يرون 1
الأطعمة 1
الراديو 1
جلب 1
خية 1
والكتابة 1
وهات 1
الكلاب 1
جمعيات 1
جوم 1
حجة 1
قيب 1
هجرة 1
وتمت 1
ونظام 1
أرمينيا 1
الجراحية 1
العالم@@ 1
المة 1
بارز 1
دخال 1
سرقة 1
متتالية 1
وطة 1
يخرج 1
البشرة 1
تاريخي 1
تستعمل 1
دوي@@ 1
شج@@ 1
غذ@@ 1
للمص@@ 1
موعد 1
ووزير 1
Paul 0.14813021381149244
أزياء 1
الشمسي 1
الكومنولث 1
توافق 1
جلال 1
ذكر@@ 1
لتر 1
ماجستير 1
وتتكون 1
وران 1
وكندا 1
1873 0.8282950454485232
آب@@ 1
أسقف 1
إد 1
القهوة 1
الناشئة 1
تمرير 1
توزع 1
شى 1
ضرورية 1
طاً 1
هذة 1
وغالبا 1
التنظيمية 1
بانية 1
خه 1
رئيساً 1
شامل 1
لويد 1
ناها 1
الأسب@@ 1
الحمام 1
الممتدة 1
بطرق 1
تام 1
فيت@@ 1
ومغنية 1
انيون 1
برايان 1
تاد@@ 1
تاس@@ 1
تدهور 1
ترأس 1
ق.م. 1
محسن 1
هلك 1
والمؤسسات 1
َّى 1
X@@ 0.2829793973675505
أبا 1
الجدران 1
السفلى 1
المحدد 1
اندلعت 1
جال@@ 1
ساب 1
صنّف 1
قاتل 1
للاع@@ 1
لند@@ 1
مامة 1
ُّ 1
c@@ 0.14441116231191803
إنس@@ 1
التعليمي 1
برمجة 1
تخب 1
صاروخ 1
لتك@@ 1
1848 0.7468554569960902
أسم@@ 1
الدائمة 1
الكلاسيكي 1
المزارع 1
الميدالية 1
جيرات 1
خريطة 1
كنتاكي 1
ملح@@ 1
والان@@ 1
يعبر 1
d@@ 0.11061143838687042
الأشهر 1
الإص@@ 1
المعتمد 1
خال@@ 1
أصدقاء 1
الدقة 1
الفت@@ 1
القشرة 1
انتصار 1
بجوار 1
تاجر 1
خضع 1
وتقدم 1
وتولى 1
ينش@@ 1
اخ 1
التوتر 1
انًا 1
خش@@ 1
دارية 1
والي@@ 1
إثارة 1
ئذ 1
السح@@ 1
المجرة 1
تثبيت 1
دح@@ 1
رموز 1
مؤلفة 1
مونت 1
الاحتجاجات 1
السمك 1
الصغار 1
فرضية 1
وتتميز 1
المكرمة 1
بوك 1
فرق@@ 1
ماريو 1
مساه@@ 1
09 0.8293946874048157
أقر@@ 1
اتخذ 1
الإيدز 1
انج 1
باله@@ 1
بيًا 1
تفجير 1
قدمها 1
نشاطه 1
وأنها 1
الباكستانية 1
البرتغالي 1
البيان 1
الحيوانية 1
الرومان@@ 1
حاسوب 1
سيئة 1
كارولينا 1
نجحت 1
اقتصاد@@ 1
الإشعاع 1
انع 1
بعرض 1
خاض@@ 1
متجر 1
أخيرًا 1
الحوض 1
العنصر 1
تجاهل 1
تفر@@ 1
رسل 1
أيمن 1
الفقراء 1
تح 1
فاة 1
كاي 1
الإخوان 1
الالتزام 1
الفسي@@ 1
المجرية 1
المرسوم 1
باسمه 1
بكة 1
تدابير 1
جمعت 1
السودانية 1
ضخ@@ 1
فتر@@ 1
فِ@@ 1
لحظة 1
هيل@@ 1
الجين 1
تطوان 1
ثمّ 1
جنبًا 1
صدام 1
37@@ 1
اعتمادًا 1
روط 1
شراكة 1
هياكل 1
وجميع 1
ابنته 1
الده@@ 1
الرأسمالية 1
جبر 1
حمي@@ 1
رجع 1
روش 1
قدر@@ 1
مباني 1
أركان 1
أنابيب 1
إذن 1
اريات 1
الإغلاق 1
التوقيع 1
السطحية 1
طعام 1
لونغ 1
منه@@ 1
1875 0.8084252225949871
آكل 1
البحثية 1
الثروة 1
الجذ@@ 1
المدفعية 1
ظات 1
كريست@@ 1
والمعروف 1
1866 0.6770105730632923
أوج@@ 1
العلاجات 1
تسميتها 1
تيت 1
جاب 1
هلة 1
والمنا@@ 1
والهرسك 1
1865 0.7695798128714717
آباد 1
إعد@@ 1
الاث@@ 1
الحقائق 1
تاج@@ 1
خبراء 1
هاميلتون 1
هت 1
افل 1
بعون 1
قبر 1
مشاه@@ 1
ميني@@ 1
أتى 1
الإعلانات 1
البالغة 1
البيولوجي 1
مضادة 1
1864 0.7514061418643861
الجزيئية 1
المصالح 1
سنت 1
طور@@ 1
معماري 1
الجرا@@ 1
السيناريو 1
اوي@@ 1
بلغة 1
مسب@@ 1
94 0.8489214011950414
إنتر@@ 1
البندقية 1
الخفيفة 1
المتنوعة 1
المواضيع 1
روش@@ 1
للسلام 1
معي@@ 1
منفصل 1
موز@@ 1
والل@@ 1
1868 0.8045196688362841
استقرار 1
السلالة 1
المخصصة 1
المعتمدة 1
المعدل 1
بتي@@ 1
ديني 1
قمر 1
نيون 1
هارون 1
هيوستن 1
r 0.2467286739142956
إمكان@@ 1
الجوفية 1
خصص 1
قوب 1
للحركة 1
معيار 1
مَّ@@ 1
نابلس 1
وأخرى 1
130 0.9787511048051812
استقر 1
الغازات 1
جاد 1
شأن 1
صفحات 1
190@@ 1
العذراء 1
العَ@@ 1
المؤرخون 1
تعادل 1
حاض@@ 1
رياض@@ 1
صول 1
عدي 1
للتنمية 1
ولاً 1
أدولف 1
التث@@ 1
القرص 1
بيرو@@ 1
صادق 1
طب@@ 1
كاثرين 1
مخط@@ 1
نسون 1
والمجتمع 1
ومس@@ 1
ويشمل 1
الإجراء 1
بمفرده 1
تقليدية 1
ثقة 1
حوا 1
خري 1
رَ 1
عائلتها 1
آلهة 1
التض@@ 1
التوجيه 1
الصليب 1
المتعدد 1
المسح 1
النور 1
تعكس 1
جعل@@ 1
روفرز 1
كاري 1
كيان 1
مرية 1
مكسيكو 1
هامبتون 1
ويحتوي 1
العرق 1
سينما 1
يوغوسلافيا 1
110 0.905822211142452
Smith 0.2749012985510705
أسبوعين 1
أنهما 1
الإيجابية 1
تولي 1
حقيقي 1
سوم 1
معارض@@ 1
وحقق 1
180 1
الاندماج 1
الجانبين 1
الزوج 1
تتعرض 1
سيه 1
عاش@@ 1
مقام 1
نشطة 1
وتشي 1
ومعظم 1
المستمرة 1
ضعيفة 1
كنائس 1
وبينما 1
الحُ@@ 1
الموضوعات 1
تباع 1
زيف 1
صحراء 1
مالك@@ 1
والآخر 1
يسم@@ 1
الجليل 1
تناف@@ 1
مرتبط 1
الإجهاض 1
المدخل 1
المرتفعة 1
المكون 1
تلقي 1
ساً 1
طنة 1
كليفلاند 1
للدراسة 1
مجل@@ 1
football 0.12089715356762766
o 0.041538534692551324
إلكترونية 1
تمكين 1
خرفة 1
رياً 1
شيك@@ 1
عين@@ 1
وتعزيز 1
.و 1
2.5 1
اعتراف 1
السُ@@ 1
المدافع 1
النّ@@ 1
بتأسيس 1
بكثرة 1
تقال 1
جونيور 1
سقط 1
لتنظيم 1
متراً 1
اجم 1
الفائدة 1
ثمار 1
مشر@@ 1
معالم 1
نانة 1
والأح@@ 1
الأط@@ 1
السبعة 1
الشرا@@ 1
انغ@@ 1
دٍ 1
ذاعة 1
سمحت 1
ولوا 1
الصليبية 1
الناخبين 1
انح@@ 1
لّ@@ 1
محافظات 1
محيط 1
وامل 1
وفد 1
اعترف 1
التطورات 1
الروابط 1
حساسية 1
رئي@@ 1
زهرة 1
ساد 1
سته 1
سيان 1
عث@@ 1
للمملكة 1
وبان 1
الليلة 1
انين 1
توازن 1
حساب@@ 1
يوب 1
اشات 1
الآلي 1
الطابق 1
جلا@@ 1
ذن 1
كرواتيا 1
للقانون 1
ولكنهم 1
ينر 1
الآراء 1
الأذ@@ 1
الأسفل 1
اليسرى 1
بوبي 1
بيتش 1
تسببت 1
طريقه 1
محلي 1
ّها 1
4- 1
900 1
Y@@ 0.15584119223845141
إرس@@ 1
الحجاز 1
القدماء 1
المصاب 1
جهاد 1
دائماً 1
شيئا 1
هوب 1
وانتهى 1
إيرل 1
بناؤه 1
دعت 1
غالي@@ 1
لمد@@ 1
لوان 1
مصانع 1
مويل 1
ونظ@@ 1
1872 0.7985514012129038
ابتداء 1
اللحوم 1
خلافة 1
سيناء 1
للذ@@ 1
موجو@@ 1
هذين 1
وجون 1
ودخل 1
وسلا@@ 1
إنجاز 1
الره@@ 1
الصفحة 1
تاً 1
خم 1
شهادات 1
لتحرير 1
ومز@@ 1
ابًا 1
السري@@ 1
المشهورة 1
تمديد 1
فك@@ 1
كلاً 1
كهربائية 1
معامل 1
الالتهاب 1
البنوك 1
بعيدا 1
بمرور 1
زاب@@ 1
سهم 1
أند 1
المقر@@ 1
كام 1
كري 1
مماثل 1
1869 0.8349694229112262
آيرس 1
البرتغالية 1
طاقات 1
مسئ@@ 1
وقعة 1
المصنع 1
تمنع 1
رول 1
عصره 1
عنده 1
قبرص 1
كانساس 1
لآخر 1
نوم@@ 1
هوليوود 1
08 0.8100332561344791
أطراف 1
الاكتئاب 1
النقيض 1
انز@@ 1
بارد 1
حلق@@ 1
زيين 1
زًا 1
مَ 1
والسك@@ 1
أسطوانات 1
بريد 1
خل 1
سمه 1
فيلق 1
لبي@@ 1
البديل 1
التاج 1
الخيول 1
الصحفية 1
دلي 1
عينات 1
وإنتاج 1
يواجه 1
الخمسينيات 1
الدي 1
الفة 1
المهرجان 1
النقاش 1
بنغلاديش 1
تنس 1
دانية 1
شوف 1
كلاسي@@ 1
اختبار@@ 1
اختصاص@@ 1
الحل 1
السبعينات 1
توقفت 1
عهده 1
أسد 1
الكهرو@@ 1
بعات 1
تصر 1
جاً 1
رقص 1
فلك 1
لتنفيذ 1
وحزب 1
وشر@@ 1
اءً 1
الخليل 1
العن@@ 1
برنارد 1
تونسي 1
جيشه 1
حوادث 1
خوف 1
شخ@@ 1
طلي@@ 1
طواف 1
عيان 1
هير 1
يُع@@ 1
الرشيد 1
النانوية 1
بأكثر 1
ستو 1
مسافات 1
والعشرون 1
يانغ 1
الأعوام 1
الرائدة 1
الرقابة 1
المسألة 1
ايرة 1
تعبير 1
تغذية 1
جانيرو 1
ستها 1
صحفية 1
لاته 1
مفتاح 1
وآخر 1
امرة 1
انتص@@ 1
داكوتا 1
صيانة 1
والهندسة 1
آت 1
أوروبية 1
اعه 1
الخلوية 1
حصوله 1
رجب 1
شهور 1
طالب@@ 1
منحها 1
1874 0.7786470162707273
أسرته 1
ئًا 1
التشكي@@ 1
النشأة 1
جدران 1
فردية 1
متزوج 1
منحت 1
ودور 1
يساوي 1
03 1
أشرف 1
استقبال 1
الحصن 1
المطبخ 1
تال@@ 1
تند@@ 1
ثمان 1
نفس@@ 1
Q@@ 0.2861444971387081
العب@@ 1
جانبي 1
جملة 1
روت 1
ستيشن 1
مقدونيا 1
ينتهي 1
المعالج 1
بنجامين 1
تعليمات 1
روبن 1
طري 1
طَ@@ 1
قس 1
ماج@@ 1
هكذا 1
وجب 1
07 0.8565958928006379
الحليب 1
السّ@@ 1
تساوي 1
سلاسل 1
شكسبير 1
الإصلاحات 1
الرب@@ 1
دكتوراه 1
زلي 1
مزارع 1
مهند@@ 1
وإنشاء 1
اصط@@ 1
الأنماط 1
السب@@ 1
تعز 1
دعاء 1
غنية 1
لفظ 1
لله 1
ندة 1
وتحديد 1
وفان 1
وكيف 1
S. 0.37230696569512406
أمراء 1
التطبيقية 1
الليبي 1
انتشر 1
بالمركز 1
بعه 1
حزب@@ 1
ذروة 1
سوني 1
صيلة 1
عظام 1
فلاديمير 1
لار 1
هين 1
يضع 1
أخت@@ 1
المعتقدات 1
تنطوي 1
وتتضمن 1
اعتمدت 1
البوم 1
الفهم 1
القمة 1
بالكأس 1
بولس 1
جنين 1
حور 1
طرب 1
للكنيسة 1
يخضع 1
إضافي 1
الاضطراب 1
الدماغية 1
الشجرة 1
امنة 1
بادئ 1
جزي@@ 1
سلحة 1
طبي 1
عرضها 1
موس@@ 1
ودون 1
أسبوع@@ 1
أكاديمي 1
التور@@ 1
العمومية 1
الغرام 1
القبول 1
القرا@@ 1
جديدًا 1
روماني 1
ِّ 1
التأكيد 1
الجيني 1
القصيدة 1
المصابة 1
المكتبات 1
النخيل 1
عاب@@ 1
160 1
أرو@@ 1
الفصول 1
اللحظة 1
المكتوبة 1
النك@@ 1
تفسي@@ 1
جلسة 1
قارة 1
قيثارة 1
مقط@@ 1
وناش@@ 1
وهيئات 1
أخير 1
اتخ@@ 1
خات 1
ستيف@@ 1
عانى 1
قائق 1
واجهت 1
أبد@@ 1
الخل@@ 1
ريكو 1
طيبة 1
قطاعات 1
كبي@@ 1
للجمعية 1
لمعالجة 1
ماذا 1
وليست 1
يتيح 1
أذ@@ 1
اءه 1
الكام@@ 1
الليبية 1
سد@@ 1
ظفار 1
كِ@@ 1
لبرنامج 1
إظهار 1
اصة 1
قائم 1
والتطوير 1
أى 1
اعل@@ 1
اقه 1
جمعة 1
غني 1
قرأ 1
مشتق 1
يتولى 1
احترام 1
الشرعي 1
العنصري 1
الماشية 1
النزاعات 1
شح 1
صمم 1
فوت@@ 1
منحه 1
واعد 1
والتجارة 1
ومدينة 1
يلو 1
الصحفيين 1
القارات 1
شيوخ 1
شِ@@ 1
اته@@ 1
الحقل 1
شرط 1
للموسيقى 1
هيمنة 1
والعالم 1
وولف 1
ويظهر 1
يعكس 1
الحوادث 1
شيوعا 1
كاس 1
متنا@@ 1
مستخد@@ 1
نوفا 1
يُنظر 1
السجلات 1
الطبعة 1
باخت@@ 1
بيرة 1
حْ@@ 1
داون 1
روبرتس 1
فقام 1
قن@@ 1
وقت@@ 1
احي 1
البلاط 1
برمنغهام 1
خور@@ 1
واحداً 1
يونس 1
أحسن 1
ابنها 1
الأوقات 1
الإعاقة 1
الحساب 1
الملي@@ 1
انفجار 1
ذيب 1
قذ@@ 1
محتر@@ 1
والعربية 1
ينقسم 1
MPO24@@ 1
an 0.007031401284724962
s@@ 0.07017334749770118
البرمجة 1
الصاروخ 1
العضو 1
المعدية 1
المهندسين 1
روايته 1
عميد 1
لكها 1
ميزانية 1
وأح@@ 1
أرسلت 1
إجازة 1
الإدراك 1
التفاصيل 1
الرحيم 1
الواقعية 1
تهتم 1
زيم 1
غلق 1
مصنوعة 1
أحادية 1
استعم@@ 1
ماه 1
مفاهيم 1
موسمًا 1
وأطلق 1
وبالمركز 1
يمكنهم 1
أبعد 1
أحي@@ 1
أوي@@ 1
إيق@@ 1
تتغير 1
تتمكن 1
عنف 1
فريقه 1
فهناك 1
كلينتون 1
ميلي 1
أتلانتا 1
اشية 1
الأقمار 1
الذيل 1
موسوعة 1
والاقتصاد 1
السامية 1
الشهيد 1
المضاد 1
بابل 1
بيوت 1
تشك@@ 1
درز 1
عمد 1
للكتاب 1
لمعرفة 1
وأدى 1
وروسيا 1
إسب@@ 1
دق 1
صادر 1
نسبه 1
أسطول 1
إغ@@ 1
اذة 1
بتك@@ 1
بوينس 1
رفعت 1
زراعية 1
كوسيلة 1
وإيطاليا 1
وجا 1
1863 0.7241613104724328
أرقام 1
اعم 1
الواردة 1
تحيط 1
عبر@@ 1
قشتالة 1
ماش 1
ملت 1
والإن@@ 1
وسُ@@ 1
يحر@@ 1
ادى 1
اسات 1
اعترا@@ 1
تخصص@@ 1
حيين 1
خيالية 1
صواريخ 1
لينتقل 1
وحقوق 1
إصابات 1
البذور 1
الجري@@ 1
الخلاف 1
الستينات 1
خاصةً 1
قسمين 1
وده 1
um 0.04563489368722825
أوباما 1
الحديدي 1
الراحة 1
السفارة 1
بدال 1
جول 1
ذين 1
روبي 1
شارلوت 1
مؤلفات 1
يومين 1
ئه 1
العديدة 1
انطلقت 1
توت@@ 1
طاء 1
طبقا 1
مئة 1
ومؤلف 1
R. 0.44492629175370163
p@@ 0.10617476741044819
البولندي 1
المجتمعية 1
اليم 1
بكتيريا 1
جام 1
خارجي 1
ككل 1
لخدمة 1
نوعين 1
أوكلاهوما 1
المتغيرات 1
ايضا 1
اين@@ 1
خارف 1
ستريت 1
صدور 1
عانت 1
نفذ 1
واقعةً 1
ونين 1
يغطي 1
الأجنحة 1
السائد 1
المختبر 1
انتباه 1
انتش@@ 1
بالمنطقة 1
تومي 1
ثلث 1
زار@@ 1
شتاين 1
للثقافة 1
ندات 1
هوك@@ 1
الدبابات 1
المائي 1
بطرس 1
تقرر 1
عنا@@ 1
ماية 1
مترا 1
ؤه 1
بوز@@ 1
تحر@@ 1
واسع@@ 1
e@@ 0.09674034388823692
البيوت 1
الجينية 1
الحادة 1
الكات@@ 1
المفتوح 1
بدي 1
تت 1
توثيق 1
ثارة 1
دث@@ 1
عقيدة 1
قائلا 1
وخط@@ 1
وسا 1
ائز 1
التخزين 1
الحجاج 1
اللواتي 1
باين 1
حدائق 1
ساوث@@ 1
سوزان 1
لتين 1
متفرج 1
مجالس 1
وإخراج 1
وعملت 1
ومجلس 1
التوصل 1
ترق 1
حمزة 1
سائق 1
مقاعد 1
وأشار 1
والتك@@ 1
وتوفير 1
ويشير 1
06 0.8364097349679583
D9 1
U 0.17007036369740702
أون 1
إنقاذ 1
الاعتقال 1
خرائط 1
دعوى 1
شور@@ 1
ياتها 1
يتناول 1
إشبيلية 1
الطائر 1
الفرنسيون 1
القد@@ 1
الهج@@ 1
تكار 1
عذ@@ 1
وُلدت 1
80@@ 1
إنما 1
القولون 1
انتظار 1
بنا 1
كيمي@@ 1
معيلات 1
هضبة 1
وتحسين 1
إدريس 1
إط@@ 1
إنديانا 1
الاف@@ 1
التلوث 1
جبلية 1
شل@@ 1
منتج@@ 1
ونُ@@ 1
ويلك@@ 1
الآسيوي 1
القريب 1
المحمية 1
الناجمة 1
بلوم 1
بوصفها 1
تعبر 1
ثون 1
شاهين 1
طيات 1
كتور 1
مقره 1
ونز 1
أوبرا 1
الزب@@ 1
المصورة 1
انتي 1
لجمع 1
الإبادة 1
الجما@@ 1
المساعدات 1
برس 1
تصوي@@ 1
تفع 1
رقت 1
سرب 1
شمالي 1
فتحة 1
موية 1
نفوذ 1
والشرق 1
يقيم 1
ّح 1
أيه 1
إثيوبيا 1
الأناضول 1
التناسلية 1
الدعاية 1
المصانع 1
جزائري 1
عدل 1
فرانسوا 1
مقر@@ 1
وكيل 1
Z@@ 0.09633091696098214
أدرك 1
الاته 1
الدراجات 1
جال 1
خرا@@ 1
ذى 1
رفض@@ 1
لّ 1
نزع 1
والتلفزيون 1
َّر 1
1857 0.8779404892983472
الحظر 1
الصهيونية 1
الضرورية 1
توك@@ 1
رط@@ 1
كويتي 1
لفريق 1
نجاح@@ 1
والهند 1
وعض@@ 1
ِّر 1
أعلام 1
اردو 1
الإجمالية 1
الاولى 1
البرازيلي 1
التقاط 1
الرب 1
الفري@@ 1
الوثيقة 1
قوم@@ 1
مضيق 1
هون 1
يمل@@ 1
حلي@@ 1
غض@@ 1
لعمل 1
للعالم 1
والاتصالات 1
B. 0.21897550065664234
استن@@ 1
التبادل 1
السفير 1
بينيت 1
رخ 1
مرتفع 1
هلال 1
يعلم 1
آخ@@ 1
اظ 1
الإعلامي 1
الفارسي 1
القادم 1
النفا@@ 1
ثرية 1
جلين 1
داعش 1
كولي@@ 1
نيف 1
4,@@ 0.7995736353667224
أثرية 1
ألم 1
إلكترو@@ 1
العينات 1
تغلب 1
سبت 1
سكي@@ 1
ندق 1
والذ@@ 1
أساسًا 1
إيفانز 1
الآونة 1
الخلي@@ 1
برتغالي 1
تنوع 1
عنا 1
فصول 1
كوب 1
مريض 1
وموسيقي 1
يعتقدون 1
الانتفاضة 1
الرئيسة 1
الشاي 1
المنتجة 1
سرع 1
غود@@ 1
فرانكفورت 1
لصناعة 1
للفيلم 1
للمجلس 1
مرا 1
مشاهير 1
يراً 1
يقود 1
38@@ 1
العبارة 1
اناً 1
بنيويورك 1
جماعية 1
دراسية 1
فاي 1
لماذا 1
مقارنةً 1
وأث@@ 1
أدو@@ 1
الخميس 1
اهل 1
بأكمله 1
بلو 1
جارة 1
رش 1
شاي 1
ضربة 1
عياد 1
فلسطيني 1
نجاحا 1
نقاش 1
والصين 1
K 0.24234347241962223
الأسطورة 1
البترول 1
المقال 1
سلات 1
صالحة 1
قرص 1
كثرة 1
لسنوات 1
مسة 1
وجين 1
وهنا 1
أخضر 1
ادم 1
الأست@@ 1
البارزين 1
التقديرات 1
الثوار 1
الحفريات 1
اللاتي 1
اغ 1
البن@@ 1
الحضور 1
الشرب 1
العضلي 1
ترج@@ 1
تقاليد 1
حقوق@@ 1
خيرة 1
رالف 1
رَّ@@ 1
زيرة 1
شرعية 1
طابع 1
للقضاء 1
مينية 1
والفرنسية 1
أثبت 1
اتباع 1
احات 1
البدنية 1
الحدائق 1
السما@@ 1
الشحن 1
القذ@@ 1
الكرا@@ 1
تقديرات 1
تمع 1
جزاء 1
خمسين 1
درك 1
غات 1
كائن 1
لتعليم 1
لسي 1
هكتار 1
وشي 1
وفيه 1
وكذا 1
اداً 1
المنطق 1
بالغة 1
تلة 1
ضايا 1
للي 1
مولر 1
نوي@@ 1
والمط@@ 1
الفاكهة 1
بقدر 1
تراث 1
تستند 1
تسيطر 1
غريبة 1
لسان 1
نيوز 1
وائي 1
وتض@@ 1
أمر@@ 1
إش@@ 1
الأركان 1
الاصطناعي 1
العلوية 1
الكول@@ 1
المؤلفات 1
الوظيفية 1
ميز@@ 1
نهائيات 1
1850 0.6969045723152335
MPO25@@ 1
أطباء 1
الطور 1
بإمكان@@ 1
جرعة 1
قبالة 1
وأم 1
يقو@@ 1
l 0.03167165617708167
أعمدة 1
البري 1
القلبية 1
النفوذ 1
تقليد 1
ريكس 1
ميري@@ 1
أوجه 1
الآلة 1
الحفر 1
السويس 1
شراف 1
طه@@ 1
هاواي 1
استخراج 1
الشف@@ 1
المرشحين 1
المعابد 1
النسب 1
ثمة 1
درية 1
سيبي 1
كانو 1
متكرر 1
مختلطين 1
الفضائي 1
المناهج 1
دوي 1
صدار 1
طائ@@ 1
عنى 1
قاع 1
لتقييم 1
مكاف@@ 1
مليارات 1
نطق 1
نيابة 1
نيك@@ 1
يقضي 1
ييل 1
الأفعال 1
الدورات 1
القوقاز 1
شرات 1
عرقين 1
قيًا 1
مشتر@@ 1
هاف@@ 1
والسياسة 1
1862 0.6855748075418209
الأوروغواي 1
برين@@ 1
تيبة 1
عاب 1
فوج 1
فوف 1
كيمياء 1
لجمهورية 1
للاخت@@ 1
مشوارها 1
يهتم 1
350 1
et 0.00511839965127522
اعتبرت 1
تكن@@ 1
تيز@@ 1
عند@@ 1
والعلاج 1
ويضم 1
يعه 1
60@@ 1
تقاطع 1
خصة 1
وكتاب 1
يدر@@ 1
الأرضي 1
الأصدقاء 1
الاحتي@@ 1
البسيط 1
الفشل 1
المقابلة 1
بإنتاج 1
بعها 1
طباء 1
قس@@ 1
مفتوح 1
وأضاف 1
يستطع 1
02 0.9093460311790622
II 0.06963584109822009
أكاديمي@@ 1
إبان 1
إيك@@ 1
الخبر 1
اللطيف 1
تلي 1
توضح 1
للدراجات 1
مباشرةً 1
نشر@@ 1
والدين 1
^ 1
al 0.019437840945762983
أميرة 1
الأبطال 1
التزام 1
الخبز 1
الظاهر 1
بكتابة 1
داث 1
سنتي 1
ممت@@ 1
إدرا@@ 1
افترا@@ 1
الإمارة 1
البوابة 1
الرغ@@ 1
المساهمة 1
بروز 1
تصدير 1
رأي@@ 1
سانتياغو 1
قواته 1
كنا 1
معسكرات 1
نووية 1
والألعاب 1
ابعة 1
استمر@@ 1
الذكرى 1
الصوفية 1
العقيد 1
الفضة 1
انيات 1
شيد 1
قطب 1
كيث 1
هرباء 1
هندية 1
واريخ 1
واصلت 1
وذات 1
استطاعت 1
الرك@@ 1
الغام@@ 1
المبلغ 1
المسلسلات 1
المعارف 1
النباتي 1
الواسعة 1
ذاء 1
عرو@@ 1
مائي 1
هيئات 1
وصي@@ 1
افا 1
العط@@ 1
اللورد 1
المرشح 1
المصنعة 1
بلدات 1
شريكة 1
شهرين 1
والب@@ 1
واه@@ 1
إستراتيجية 1
الذك@@ 1
الزيت 1
السوداني 1
العشر 1
ترنت 1
تزداد 1
دبابة 1
ددت 1
للنادي 1
مخر@@ 1
والمنظمات 1
وتحت 1
وتنظيم 1
جادل 1
سامسونج 1
هود@@ 1
والأكاديمية 1
والرا@@ 1
أوستن 1
أوين 1
الحلو@@ 1
الداف@@ 1
المسجلة 1
النخبة 1
جرام 1
عطلة 1
قامة 1
كهربائي 1
لقى 1
مصممة 1
يبة 1
يدفع 1
يصدر 1
أسفر 1
التعديلات 1
الفيلق 1
القيصر 1
المتجددة 1
تجهيز 1
ختم 1
كالتالي 1
لزم 1
ليند@@ 1
مشهورة 1
هنة 1
وصور 1
ولين@@ 1
1859 0.7793236985098031
ألا@@ 1
الأقليات 1
الجهاد 1
الروحية 1
الزوار 1
المستدامة 1
بريان 1
تاريخ@@ 1
تواصل 1
سونغ 1
كاميرون 1
للسماح 1
مزي 1
نشره 1
والمس@@ 1
وعد 1
يتغير 1
أدناه 1
اندماج 1
رايس 1
لحل 1
ماز@@ 1
هارولد 1
وجات 1
ودين 1
ويلعب 1
f 0.23083440159717547
أوليفر 1
الأبجدية 1
التشي@@ 1
القطار 1
اليدوية 1
تربة 1
تني 1
توج 1
سطة 1
شركاء 1
فاد@@ 1
منتظمة 1
موجهة 1
التنبؤ 1
الروك 1
الظواهر 1
المؤمنين 1
صعبة 1
طق 1
طلقت 1
قيمتها 1
مخاوف 1
مشاعر 1
نتاج 1
ورهم 1
ونيل 1
الإمبراطوري 1
الثابت 1
الزرا@@ 1
جايسون 1
حتلال 1
حدات 1
قدرته 1
كسية 1
لاغ@@ 1
ميري 1
ومنع 1
اؤها 1
الأخطاء 1
الدماغي 1
الزمالك 1
المتش@@ 1
خيل 1
دالاس 1
ذات@@ 1
صوت@@ 1
مبد@@ 1
مساحات 1
هيرمان 1
وحوالي 1
وعلي 1
22@@ 1
اتش 1
الظلام 1
العظ@@ 1
العنصرية 1
المستشار 1
الوالدين 1
بيريز 1
ثًا 1
رُ 1
كوت 1
محد@@ 1
وظهرت 1
المستقل 1
الهيئات 1
بطلب 1
رودريغيز 1
غا@@ 1
غوي@@ 1
كمان 1
لوضع 1
مؤقت 1
ماري@@ 1
وأحمد 1
ؤدي 1
ازداد 1
الأع@@ 1
العشرة 1
اللاه@@ 1
الناجحة 1
باحثين 1
تسميته 1
تمة 1
خنيفرة 1
دوج@@ 1
شام 1
فضلًا 1
قناع 1
للمع@@ 1
مواقف 1
هوت@@ 1
ويمبلدون 1
يبحث 1
اتو 1
التردد 1
الزوجة 1
الشطرنج 1
المصارعة 1
المو@@ 1
اورة 1
برو 1
بمن 1
جِ@@ 1
خفيفة 1
دبابات 1
رن@@ 1
شعب@@ 1
غرناطة 1
كوسوفو 1
لٍ 1
مك 1
ميامي 1
series 0.07006894209790801
اختلا@@ 1
انتفاضة 1
بارا 1
بالألمانية 1
بفترة 1
تحرك 1
تران@@ 1
حيدر 1
سانتوس 1
طالما 1
قلق@@ 1
ووهان 1
أخلا@@ 1
أندي 1
اريف 1
التكاثر 1
الخرائط 1
السعر 1
الوسائط 1
تضع 1
تعرض@@ 1
ديدات 1
راد@@ 1
فاج@@ 1
مصور 1
وراق 1
الإنس@@ 1
الفلكية 1
انتهاك 1
حفر 1
فلو@@ 1
مجه@@ 1
نسي 1
وثيق 1
ومات@@ 1
إسترليني 1
اقتص@@ 1
الثلج 1
المنشآت 1
الميدان 1
ربح 1
قدمه 1
مغربية 1
ميلاد 1
هدفه 1
وتاريخ 1
ابق 1
النبوي 1
بلوس 1
رحلته 1
سامية 1
لنفسه 1
وثلاثة 1
وفسكي 1
يترك 1
يري@@ 1
إدواردز 1
التدري@@ 1
المتزايد 1
باير 1
مقاطع 1
وحماية 1
الخسائر 1
العميقة 1
الفلسفية 1
الكوك@@ 1
اللقاح 1
تصنع 1
جغرافية 1
صعوبات 1
طاف 1
كلوريد 1
لدولة 1
ليم 1
مثيرة 1
مش 1
مناس@@ 1
موطن 1
ومدير 1
إقلي@@ 1
الطلاق 1
انتون 1
باور 1
سيوس 1
الأخلاق 1
العظيمة 1
بقتل 1
جلو@@ 1
راسيل 1
غول 1
لكأس 1
موضوعات 1
واليابان 1
ولديه 1
يند@@ 1
أرس@@ 1
ارتها 1
البديلة 1
التام 1
التجزئة 1
حمراء 1
للجمهور 1
مادية 1
نجاحًا 1
نجيب 1
البع@@ 1
بتة 1
بيرت 1
بيريا 1
حيفا 1
عبدالله 1
مفاوضات 1
نواحي 1
هايم 1
وتية 1
يج 1
ائيًا 1
اجتماعات 1
افير 1
الأجل 1
النمساوي 1
حوا@@ 1
داروين 1
دروس 1
رونالد 1
معلم 1
ممر 1
ميثاق 1
نارية 1
هيوز 1
يرلندا 1
أشياء 1
اكتش@@ 1
الصينيين 1
الغطاء 1
رز@@ 1
قود 1
للطيران 1
مدنية 1
هامبورغ 1
ورس 1
يدع@@ 1
اقترا@@ 1
المدة 1
باعة 1
بركة 1
شاعرة 1
طفولته 1
كى 1
لدينا 1
وبالنسبة 1
ودرجة 1
افتتحت 1
العسك@@ 1
المترا@@ 1
المذكور 1
النسي@@ 1
لألعاب 1
مانهاتن 1
منس@@ 1
يرمز 1
تهديد 1
حصر 1
خور 1
فوق@@ 1
محرر 1
يؤمن 1
إحداث 1
الناب@@ 1
بالعربية 1
تاز 1
خوف@@ 1
زج@@ 1
شوار@@ 1
يقتصر 1
أسامة 1
أولية 1
إصدارات 1
اختلافات 1
الانترنت 1
الصحيحة 1
المسئ@@ 1
المقارنة 1
تشريع 1
حسان 1
زملائه 1
ستينيات 1
لويزيانا 1
والحياة 1
الحساسية 1
الحمي@@ 1
القتلى 1
تساهم 1
تسو@@ 1
تولي@@ 1
تينيسي 1
رائدة 1
زع 1
زنة 1
ميًا 1
إدراك 1
اتخذت 1
الحن@@ 1
الغالبية 1
اللوحات 1
المخطوطات 1
بحار 1
تقاعد 1
شعرية 1
كلًا 1
وأعط@@ 1
ويطلق 1
يفترض 1
يوماً 1
أوضح 1
الإشعاعي 1
المدرسية 1
بإطلاق 1
بعمر 1
غلاف 1
قرطبة 1
قف@@ 1
كلّ 1
لجمعية 1
متى 1
هلاك 1
ويف 1
البروتستانتية 1
البص@@ 1
الحاجز 1
الحداثة 1
القتالية 1
دما@@ 1
راتيجيات 1
كشاف 1
مخيم 1
مسائل 1
موقعه 1
هانز 1
يقاف 1
e 0.056295019703533115
العملات 1
المقبرة 1
حادة 1
صينية 1
طرابات 1
فريق@@ 1
كتها 1
هداف 1
واستطاع 1
والض@@ 1
والموا@@ 1
الأمام 1
الحربي 1
الفلاحين 1
المعاملة 1
اليل 1
سلك 1
سمير 1
كورت 1
واجبات 1
وجي 1
الإنتاجية 1
النصب 1
بطاقات 1
فيرا 1
لبر@@ 1
لتقليل 1
للإصابة 1
للإناث 1
للحكم 1
مؤقتة 1
متساوية 1
نون@@ 1
والزراعة 1
المكاف@@ 1
دمت 1
رجي 1
ستار@@ 1
لاج@@ 1
واين 1
يطل@@ 1
4000 1
D. 0.3963772954394195
أبولو 1
ألفونسو 1
ائزة 1
استطلاع 1
اطف 1
التصفيات 1
الشعار 1
الفراغ 1
الميت@@ 1
بحثية 1
تريد 1
سيلي@@ 1
غراي 1
2,@@ 0.48081401550281494
أنشئ 1
التشيك 1
الصفر 1
اللازم 1
اللحم 1
امام 1
بأعمال 1
سوفي@@ 1
معاوية 1
ميون 1
نجمة 1
وشغل 1
يزداد 1
يصعب 1
ی@@ 1
الأمراء 1
البعث 1
الجيدة 1
الفنانة 1
الفوائد 1
الواجهة 1
بنة 1
حاص@@ 1
رشاد 1
وظهر 1
ووفقا 1
يستخدمون 1
أمضى 1
إسقاط 1
الانقسام 1
التاجي 1
التذكاري 1
بطري@@ 1
تفق 1
عرقية 1
علها 1
كينيا 1
مستقبل@@ 1
مهدي 1
مواصفات 1
مواق@@ 1
ميك@@ 1
والاس 1
والحفاظ 1
Joseph 0.1826470721012031
أسترالية 1
ادته 1
اعلات 1
الأزياء 1
الدينام@@ 1
الضوئية 1
المتر@@ 1
المُست@@ 1
تلقائ@@ 1
راتها 1
سمع@@ 1
فيز 1
m 0.06032180622305184
السينية 1
الشريط 1
بالاشتراك 1
شريان 1
للأرض 1
ممارسات 1
هيلين 1
وكأس 1
Edward 0.302236394194358
k 0.12208341310271882
الغنية 1
القطاعات 1
المؤسس 1
النقوش 1
نووي 1
وافت@@ 1
ومان@@ 1
إمبراط@@ 1
ارض@@ 1
الأقاليم 1
السويسري 1
الفول@@ 1
النَّ@@ 1
بجميع 1
بيرية 1
دينار 1
ضلية 1
للأبحاث 1
للعيش 1
ملاء 1
نقلها 1
أوريغون 1
أُعلن 1
التمريض 1
تجمعات 1
روة 1
للشركات 1
مقتر@@ 1
نورث@@ 1
la 0.001964508167894046
أمستردام 1
الحركية 1
الرائد 1
المقد@@ 1
الوص@@ 1
بانتظام 1
تحتل 1
ترتي@@ 1
تشكي@@ 1
حِ@@ 1
شمالا 1
صناعي 1
نصيب 1
نقله 1
125 0.9918125037072887
الصدمة 1
امت 1
بأسلوب 1
حن@@ 1
خصوصاً 1
سراح 1
غرانت 1
قيصر 1
كيلومترات 1
مثلًا 1
منشأة 1
أنش@@ 1
العسكريين 1
المفاصل 1
الهول@@ 1
تشري@@ 1
تشستر 1
غهام 1
كتاباته 1
كـ 1
محلول 1
ممار@@ 1
وجمع 1
1856 0.8034272581250242
اللذان 1
بتلك 1
بيرس 1
تتأثر 1
ختان 1
للطب 1
مشاركته 1
منافس 1
هيمن 1
b@@ 0.10576971198328888
الساحلي 1
الضحية 1
باللون 1
تخلي@@ 1
حكاية 1
خادم 1
خوس 1
راني 1
ريكا 1
طان@@ 1
للجمهورية 1
نجلي@@ 1
واقعية 1
وحيدة 1
أشد 1
أعض@@ 1
الخ 1
السباحة 1
الشافعي 1
العينة 1
الكاب@@ 1
خفيف 1
لوكاس 1
مواصلة 1
يمارس 1
? 0.15882275974117832
آمن 1
الحجرية 1
المحطات 1
بوط 1
فيري@@ 1
والتش@@ 1
ياسين 1
الألفية 1
الإشراف 1
ترح 1
حملت 1
فيلم@@ 1
كورتيس 1
والديه 1
وبالمثل 1
أسوأ 1
الانق@@ 1
الجسد 1
انض@@ 1
بنقل 1
فذ 1
لاعبي 1
مسا@@ 1
مواطني 1
نُشر 1
هوم@@ 1
هيب 1
يمز 1
يِّ@@ 1
أفادت 1
ارتداء 1
استكشاف 1
التشريح 1
الرومانسية 1
الطباعة 1
الطين 1
تميزت 1
تيش 1
جائ@@ 1
ديها 1
علة 1
ليلي 1
يمكننا 1
بسرطان 1
تتخذ 1
ديريك 1
عده 1
كوين@@ 1
متميزة 1
معتمدية 1
وسوف 1
ى@@ 1
أساطير 1
الذه@@ 1
المستوطنات 1
انقطاع 1
بنائه 1
دلتا 1
ليست@@ 1
منتدى 1
والتن@@ 1
وشاركت 1
يحوي 1
يهود 1
الإجهاد 1
الإخبارية 1
الفئران 1
المؤامرة 1
بصفتها 1
بوست 1
بّ@@ 1
توي 1
سلالات 1
شعبي 1
ميز 1
نظمة 1
وأجهزة 1
وخدمات 1
ازد@@ 1
البنغال 1
الرج@@ 1
السلبي 1
المسل@@ 1
المعتاد 1
بالماء 1
بمجموعة 1
تصاب 1
تفل 1
ثر@@ 1
لوف@@ 1
نيته 1
ولادته 1
ينًا 1
90@@ 1
أصفر 1
اقب 1
التأسيس 1
الفيلسوف 1
تخذ 1
دينا 1
مسارات 1
نشاطات 1
وتظهر 1
أجنبية 1
إلياس 1
است 1
الأمان 1
التدخين 1
العباس 1
خيارات 1
راضي 1
سبعينيات 1
فاهية 1
قائه 1
قدمًا 1
وأق@@ 1
ولأن 1
يدو 1
إليوت 1
اشترا@@ 1
الجنا@@ 1
الخيل 1
الممتلكات 1
الهروب 1
تتسبب 1
رائعة 1
سعت 1
سنا 1
شيئًا 1
كلتا 1
مؤامرة 1
مسك 1
نتان 1
وجعل 1
يمني 1
5,@@ 0.8183284972509474
اعتبارا 1
القطن 1
القوس 1
انضمام 1
ضرائب 1
محافظ@@ 1
مشكلات 1
منتظم 1
يمنح 1
أدوية 1
اعتب@@ 1
المنفى 1
بمصر 1
دفعت 1
غانا 1
قسطنطين 1
كف@@ 1
ويرى 1
يمة 1
1849 0.8345956152846397
39@@ 1
Australian 0.1875182720449535
الثمانية 1
المسلم 1
برع 1
تالي@@ 1
تسب 1
تشيلسي 1
خاصية 1
ذهبت 1
ربحية 1
رينو 1
فيلي 1
وعام 1
يومي 1
الفعالة 1
باز@@ 1
بيو 1
حكوم@@ 1
شاح@@ 1
صحي 1
كتل 1
متخصص 1
مستخدم 1
وحكم 1
وقُ@@ 1
أريزونا 1
أليس 1
ائلة 1
الشارقة 1
المستهلكين 1
المعر@@ 1
جزئي 1
خن 1
ذمار 1
فرانكو 1
فيزياء 1
للي@@ 1
يلها 1
i@@ 0.118073279789408
ألق@@ 1
الاختراع 1
المنشورة 1
ايل 1
بيتها 1
حصلوا 1
دِ 1
سبا@@ 1
ستوكهولم 1
سجين 1
غطاء 1
مناهضة 1
وأوائل 1
وارنر 1
الإنقاذ 1
الباكستاني 1
العفو 1
تمو@@ 1
قابلية 1
لتهم 1
للأندية 1
مصطلحات 1
يحد@@ 1
يرغب 1
أحرز 1
أخت 1
الخواص 1
جمعها 1
حضرموت 1
غازي 1
قلا@@ 1
لاتها 1
ملبورن 1
يوجين 1
ّلت 1
140 0.9679918173491818
الانتقادات 1
الصعود 1
الفروع 1
النجف 1
اوت 1
بورصة 1
تأثرت 1
ترخيص 1
جوب@@ 1
رضة 1
كعضو 1
مساجد 1
يدي@@ 1
اجات 1
الإض@@ 1
الطيب 1
الفلكي 1
المدع@@ 1
بز 1
جنوبا 1
رأسها 1
رابع 1
محاكم 1
هبة 1
أسر 1
ائدة 1
الأمهات 1
البطالة 1
التحقت 1
الزع@@ 1
بخلاف 1
بمبلغ 1
تخرجه 1
تمين 1
خصوصًا 1
ظن 1
قليلا 1
مثال@@ 1
ملال 1
وريد 1
11@@ 1
الشفاء 1
الممالك 1
انز 1
بتونس 1
سامة 1
صام@@ 1
ضده 1
عصور 1
لتشمل 1
نقلت 1
واط@@ 1
وتغ@@ 1
وفو 1
ومهندس 1
وياً 1
n@@ 0.08584977230118107
أنّه 1
الأج@@ 1
الأنابيب 1
التبغ 1
التصويرية 1
السري 1
تسجيلات 1
شيل@@ 1
طيب 1
فلين 1
فيلهلم 1
كسب 1
للمرضى 1
ميلا@@ 1
ونشأ 1
1840 0.7471768787548362
أيسر 1
إمبراطور 1
المحيطات 1
بالمغرب 1
بمشاركة 1
تسي 1
دراج 1
صعود 1
قن 1
مكتوبة 1
والعراق 1
ولن 1
ألفرد 1
الاتحادي 1
التنفسي 1
الساق 1
المخ 1
بالة 1
دبلوم 1
ستالين 1
شباك 1
لفات 1
لقاح 1
مسبقًا 1
مَا 1
يدعي 1
يُست@@ 1
ئت 1
بالمدرسة 1
بورتلاند 1
رباعي 1
شيات 1
عادية 1
فف 1
قتله 1
للإنتاج 1
لوز@@ 1
مكن 1
مِنْ 1
يما 1
أكادير 1
إمدادات 1
المخط@@ 1
المهنة 1
بهما 1
روث 1
فلونزا 1
لاين 1
والبيئة 1
ووصف 1
افظ@@ 1
الباس@@ 1
الذكية 1
الصفراء 1
المرضية 1
تاك@@ 1
تتناول 1
تفاعلات 1
داخلها 1
سوت@@ 1
لإطلاق 1
لتزم 1
مقات@@ 1
منظومة 1
2022 0.22324094923683904
ابتك@@ 1
استعد@@ 1
الافترا@@ 1
الكم 1
المفوضية 1
حو 1
قيف 1
أرجاء 1
ائط 1
تحل 1
سياتل 1
ضفاف 1
هانس 1
والدي@@ 1
وفيلم 1
ابتكار 1
اعها 1
الأَ@@ 1
التكامل 1
العنق@@ 1
الكردية 1
النادرة 1
بديلة 1
دَّ@@ 1
ذاتي 1
علاقته 1
وائية 1
36@@ 1
Frank 0.31961925048099826
إدارياً 1
اريك 1
الأسي@@ 1
الإر@@ 1
التحدث 1
الحكمة 1
السو@@ 1
الشتوية 1
المسماة 1
المنف@@ 1
تتطور 1
تيمور 1
دبلن 1
دُ 1
رياح 1
للتجارة 1
محاك@@ 1
وأش@@ 1
والموسيقى 1
واه 1
وتها 1
ياس@@ 1
الاكتشاف 1
التنسيق 1
الجنة 1
الفين@@ 1
تبرها 1
طيف 1
غونزاليس 1
للمواد 1
واتسون 1
يستخد@@ 1
1854 0.8051628611121563
التجريبي 1
التهديد 1
المحاكمة 1
بيتر@@ 1
تروي 1
حقول 1
قف 1
كولينز 1
مجر@@ 1
ناتج 1
نوت 1
وراس 1
ِل 1
ابتداءً 1
الرق@@ 1
الفرص 1
القصوى 1
تلت 1
جلسات 1
راف@@ 1
سيغ@@ 1
غلال 1
فريدريش 1
فظ@@ 1
لُ 1
وتوزيع 1
ورز 1
ويذكر 1
1830 0.7481557483861403
ا.@@ 1
استئصال 1
استنادًا 1
السد 1
اللسان 1
المحمول 1
المرجانية 1
المنتشرة 1
بيلي@@ 1
تنشر 1
تولت 1
غَ@@ 1
لاعبين 1
متعلقة 1
مخصص 1
وفية 1
1858 0.7983776869941334
أخذ@@ 1
الحظ 1
الفنلندية 1
الوس@@ 1
بمناسبة 1
تتحرك 1
تزويد 1
جيو@@ 1
حسابات 1
شقي@@ 1
كارثة 1
محاكاة 1
مدع@@ 1
مرد 1
نوب@@ 1
وبداية 1
وقدمت 1
name 0.06044791071505675
التوحيد 1
للمياه 1
ينغتون 1
3,@@ 0.6150398748296607
Y 0.33031792805939086
أبل 1
أنور 1
الشيطان 1
المحامين 1
متو@@ 1
مزايا 1
وتشكل 1
يحت@@ 1
y@@ 0.1055614184861634
آمنة 1
أضعاف 1
أمير@@ 1
المتلازمة 1
المثالية 1
المطلقة 1
توا 1
جاعة 1
عدو 1
لوحظ 1
نفط 1
وتمكن 1
ويند@@ 1
يدعو 1
Peter 0.15331265804241007
أنتي@@ 1
الحسابات 1
الشح@@ 1
العميق 1
الكوري 1
المصلحة 1
بالتيمور 1
برايس 1
تشهد 1
درعة 1
زياد 1
ضحية 1
طورت 1
غوت@@ 1
وكالات 1
التحكيم 1
الحفلات 1
الخلا@@ 1
ثروة 1
جسد 1
ديش 1
ذكاء 1
كولين 1
5- 1
الواسع 1
انفصال 1
تصب 1
سلع 1
والقانون 1
أسئلة 1
إصداره 1
اكتشفها 1
الأوضاع 1
الخطوات 1
تحفيز 1
زعماء 1
سرت 1
سونيا 1
شوة 1
عاصمتها 1
غري 1
للتعامل 1
مركزا 1
ألو@@ 1
الاتجاهات 1
البارد 1
البوي@@ 1
السؤال 1
المشهور 1
بلاط 1
تصال 1
حماة 1
ديوي 1
شريك@@ 1
غاد@@ 1
كبديل 1
لنفس 1
معي 1
ملات 1
وأفضل 1
ألقى 1
الأمو@@ 1
الأوامر 1
البيرو@@ 1
الخلق 1
المتحدث 1
المحترفين 1
الميث@@ 1
الوع@@ 1
بترو@@ 1
بوصفه 1
دةً 1
ضان 1
إيجابي 1
التحص@@ 1
التلال 1
الح 1
بتنظيم 1
بنما 1
سنوياً 1
للإمبراطورية 1
نقدية 1
هه 1
يتمثل 1
يساهم 1
أربعين 1
المعادية 1
بإسم 1
برفقة 1
تلى 1
تيه 1
ثقافات 1
مطالبة 1
منفص@@ 1
مونتي@@ 1
وبرا@@ 1
ورفض 1
ينتشر 1
أثارت 1
ارى 1
سيلفا 1
للشؤون 1
مملوكة 1
هاني 1
والأعمال 1
وند@@ 1
يثبت 1
يحدها 1
أرنولد 1
الافتراضية 1
التقليد 1
القبة 1
اللذين 1
النور@@ 1
بحي 1
بريت 1
بيّة 1
تنفيذها 1
رقابة 1
عيًا 1
لالة 1
ليونارد 1
محافظ 1
ورش 1
يواجه@@ 1
يوميًا 1
الخشبية 1
الشراكة 1
الفن@@ 1
اللهجة 1
باه 1
بض 1
تتخ@@ 1
سنان 1
عاملين 1
لائل 1
معدنية 1
هاتف 1
ومين 1
يُسمح 1
الإيجابي 1
الانفصال 1
التبريد 1
التعليمات 1
الثلاثاء 1
الثلاثية 1
الرطوبة 1
الشهرة 1
المتقدم 1
المحافظات 1
برها 1
تشكيلة 1
تفيد 1
تود 1
جوليان 1
ريّة 1
ضريح 1
فقت 1
قرار@@ 1
قيون 1
مزدوج 1
هاريسون 1
والتدريب 1
وتتبع 1
وسوريا 1
as 0.004552592532814653
التهابات 1
تجاو@@ 1
نادق 1
َّه 1
الساعات 1
الصوتي 1
الفاط@@ 1
الناجم 1
بيلا 1
خلاء 1
سفارة 1
سويدي 1
طلاع 1
كأفضل 1
وتؤ@@ 1
إناث 1
العمو@@ 1
بنه 1
توب 1
دكتور 1
زمي@@ 1
لمنصب 1
ملاحظات 1
ميلانو 1
وأست@@ 1
الأربعاء 1
الجملة 1
الشهداء 1
تقلل 1
ربي@@ 1
غن@@ 1
للخطر 1
واجد 1
وفين 1
المتوا@@ 1
المطاعم 1
بلاك@@ 1
تدريجيًا 1
عموم 1
قضاة 1
ناي 1
نوعا 1
ونج@@ 1
وهن@@ 1
َا 1
َّم 1
إيجاب@@ 1
الحارة 1
الخلط 1
المشرق 1
المعرفي 1
الموحدة 1
اوض 1
دَة 1
لابد 1
لفاء 1
للعب 1
مؤخرا 1
هج 1
وغ 1
وكات@@ 1
t@@ 0.075848501140254
أننا 1
افتراض 1
الحادية 1
اللاهوت 1
المسيحيون 1
تصيب 1
صير 1
ٌّ 1
َم 1
البلقان 1
بدأ@@ 1
تشخي@@ 1
جيدا 1
خريف 1
خليط 1
طراب 1
عادي 1
عدّة 1
محام@@ 1
يتحول 1
أغراض 1
ؤون 1
الأوروب@@ 1
الداخ@@ 1
الشركاء 1
اللغ@@ 1
النجمية 1
بيتي 1
تلو@@ 1
جاس@@ 1
حافة 1
عربة 1
قادرين 1
كلين 1
معيلون 1
والشركات 1
وسيا 1
ياب 1
1800 0.754676121579994
أجرت 1
ابوليس 1
الأجيال 1
بوه@@ 1
بيغ 1
ديمقراطية 1
رنا 1
عار 1
عشيرة 1
فارقة 1
قبيل 1
للطائرات 1
ماله 1
مذبحة 1
يدا 1
الإنجازات 1
الماركسية 1
المغاربة 1
بالقوة 1
تأهل 1
شخصي 1
غراف 1
يستر 1
ينيات 1
أفريقية 1
ؤوس 1
الابتدائي 1
الجافة 1
المسافرين 1
تسوية 1
شوارع 1
شيما 1
فقية 1
مض 1
مـ@@ 1
موح 1
نانين 1
وانه 1
يونانية 1
الأثناء 1
الدار@@ 1
المتكررة 1
النحل 1
اليات 1
اليونسكو 1
تلف 1
حاء 1
رئيس@@ 1
غه 1
لأجل 1
ليفي 1
مذكرة 1
منافسات 1
وخ 1
ينيون 1
السلط@@ 1
الشّ@@ 1
القرش 1
المخيم 1
المقيمين 1
بيرد 1
تميم 1
دتهم 1
شخصا 1
فهذا 1
لقب@@ 1
للأفراد 1
مبني 1
ناظ@@ 1
وحل 1
وصح@@ 1
ولعل 1
الاستهلاك 1
التكيف 1
الري 1
الطائفة 1
الفقري 1
المتد@@ 1
ثقافي 1
جراح 1
دوى 1
ساس 1
شه 1
هوف@@ 1
والدواء 1
يرفض 1
يقة 1
يقف 1
g 0.12891147589941132
الكُ@@ 1
الوث@@ 1
بالانتخابات 1
بنسيلفانيا 1
تأسيسه 1
ثاً 1
ثلاثينيات 1
شعبان 1
فوي 1
كك 1
وجدوا 1
يتوقف 1
َّد 1
إنشاؤها 1
الأرواح 1
الخمسينات 1
السجل 1
السنية 1
الكوم@@ 1
بالي 1
بكأس 1
تشغل 1
حالت@@ 1
خامس 1
عشر@@ 1
فخر 1
لوت 1
موذج 1
يوميا 1
ألفريد 1
أنبوب 1
الإصدارات 1
الجزائريين 1
المحتر@@ 1
المعرفية 1
بالجامعة 1
تحسن 1
تدير 1
تكمن 1
دوت 1
ديت 1
ركاب 1
ضاب@@ 1
فاف@@ 1
قلين 1
كردستان 1
ونائب 1
يميز 1
أمريك@@ 1
اليًا 1
تاين 1
حماس 1
ستن 1
عالمة 1
والغاز 1
وتة 1
ابقة 1
العاطفية 1
المقط@@ 1
براه@@ 1
تلال 1
ثرو@@ 1
سوس@@ 1
فجر 1
فيلسوف 1
أنغ@@ 1
أوص@@ 1
بانزر 1
تنف@@ 1
حفلات 1
روه 1
علام 1
لإي@@ 1
هولة 1
ويم 1
يئة 1
إدا 1
الآخرون 1
المبد@@ 1
امر@@ 1
داه 1
سنوي 1
شيلي 1
ضَ@@ 1
عظيم 1
ليّة 1
متصلة 1
مقطع 1
نمت 1
يرد 1
أف 1
الاستث@@ 1
البلوغ 1
العج@@ 1
بولي 1
جاي@@ 1
حدي@@ 1
سفيان 1
كست@@ 1
لكة 1
مسيحي@@ 1
والتقنية 1
والحرب 1
وتركيا 1
السبا@@ 1
النقدي 1
ايش 1
سنه 1
ضح 1
ضعيف 1
غابات 1
نوية 1
يحيط 1
يسي@@ 1
آية 1
استغ@@ 1
اقين 1
الجينوم 1
السلالات 1
الشوكي 1
المسلمة 1
الموحد 1
تقديمه 1
جدل 1
خام@@ 1
خربة 1
شدي@@ 1
قالوا 1
كاميرا 1
مثيل 1
هارفي 1
وأكبر 1
وبه 1
يتج@@ 1
يديه 1
اسم@@ 1
الأسرية 1
الرد 1
جيسي 1
حلف 1
دلهي 1
فرديناند 1
مران 1
نبيل 1
وخصوصا 1
وصى 1
يبعد 1
6.@@ 0.8515910709491457
الأنثى 1
الكثيرون 1
المجالس 1
جيوش 1
خين 1
سراحه 1
لةً 1
لحين 1
للة 1
ميص 1
وجة 1
وجزر 1
يفضل 1
ينطبق 1
at 0.006551910384981386
التعذيب 1
الحجة 1
الخصم 1
انطلاق 1
تطويرها 1
قرض 1
هًا 1
00@@ 1
div 1
البدائية 1
التدابير 1
السريري 1
العرا@@ 1
الغضب 1
الهضمي 1
حقن 1
رفقة 1
لشراء 1
للتف@@ 1
وبري@@ 1
الإيرادات 1
البلازما 1
الموص@@ 1
بسون 1
تعترف 1
ديقة 1
زَ@@ 1
عاء 1
فلورنسا 1
قنبلة 1
نطاق@@ 1
وأهم 1
وارق 1
وبار@@ 1
يُشار 1
الإج@@ 1
الخطط 1
العصابات 1
العم@@ 1
النسل 1
بحاث 1
تميز@@ 1
دينغ 1
رويال 1
عزيز 1
عطي 1
علينا 1
ملخص 1
هل@@ 1
واضع 1
يصيب 1
الكاتبة 1
بورو 1
تقييد 1
سبان 1
عضاء 1
ملائ@@ 1
والحيوانات 1
أكيد 1
الدان@@ 1
الزهرة 1
الكتابات 1
تاحة 1
ثيا 1
رياضيات 1
صيل 1
للثورة 1
مظاهر 1
وارسو 1
وانغ 1
وتختلف 1
ولز 1
a@@ 0.12051401822972505
إيراني 1
الخلف 1
السعادة 1
اللغوي 1
بلاغ 1
سبي 1
صخور 1
طلبه 1
للنشر 1
ممل@@ 1
نوعان 1
هوفمان 1
يًّا 1
إنزيم 1
اعتلال 1
الإرسال 1
الحلول 1
الفضية 1
جوازات 1
خرية 1
سني 1
فساد 1
لإزالة 1
نمر 1
ويلي@@ 1
السرا@@ 1
الكاريبي 1
المناسبات 1
تشترك 1
جراحية 1
دينيس 1
شبيهة 1
وأستراليا 1
ونشرت 1
يفعل 1
المرتفعات 1
النشطة 1
بحوا 1
بريستول 1
بقة 1
بوري 1
تافيلالت 1
توجيه@@ 1
جتون 1
حاب 1
راءة 1
طبع 1
غاب@@ 1
كاهن 1
نجر 1
نيان 1
أيوب 1
احتجاجات 1
التغ@@ 1
التَّ@@ 1
راته 1
ساندر 1
سيست@@ 1
شري 1
صعب 1
فيدي@@ 1
للإنسان 1
للاقتصاد 1
للانضمام 1
لوم 1
واب@@ 1
يتلقى 1
يجعله 1
البقر 1
السجون 1
الهزيمة 1
بقليل 1
تقبل 1
جينية 1
حلت 1
ستيفنز 1
علوي 1
ـُ@@ 1
فاعلية 1
كأول 1
كريستينا 1
للسيارات 1
مطالب@@ 1
مُ 1
يتق@@ 1
يعها 1
ِّي 1
أفعال 1
الجمجمة 1
الجنوب@@ 1
الرضع 1
القصف 1
جمهور 1
طالبة 1
قمع 1
أفي@@ 1
الأمل 1
البيزنطي 1
التذاكر 1
الثمن 1
الحصان 1
العذبة 1
المناهضة 1
بطليموس 1
ثرات 1
حامد 1
حمى 1
رئيسيًا 1
قبر@@ 1
لقانون 1
للأعمال 1
للمخرج 1
متوفرة 1
نيوجيرسي 1
والعق@@ 1
وتطور 1
وروائي 1
يكون@@ 1
x@@ 0.2072358534838699
إدراج 1
ارتفعت 1
الاستمرار 1
البلديات 1
التعادل 1
الحضارات 1
بوقت 1
حديثا 1
دونغ 1
رود@@ 1
سنوية 1
علن 1
ولاتة 1
ينهم 1
70@@ 1
الحكيم 1
السلم 1
العبادة 1
بوين 1
تدرس 1
د.@@ 1
عنق 1
فجأة 1
كيلومترا 1
للمر@@ 1
لمعظم 1
مؤتمرات 1
موظفين 1
واس@@ 1
وجهه 1
ومخ@@ 1
7.@@ 0.9491729895401388
الربط 1
بثلاثة 1
تجن@@ 1
والمج@@ 1
أمن@@ 1
الجذور 1
الخطيب 1
الفندق 1
بالفيروس 1
بتف@@ 1
حزام 1
دع 1
راك@@ 1
سبّاح 1
شترا@@ 1
مورا@@ 1
والنشر 1
استفتاء 1
الأمينية 1
الإسكندر 1
التنقيب 1
الحدودية 1
الدو@@ 1
الصخرية 1
انتقاد 1
بتحديد 1
رفي@@ 1
قاعات 1
قطر@@ 1
مضى 1
و1.@@ 1
or 0.013802959479914364
ألبانيا 1
الدوحة 1
الغازية 1
الفوضى 1
المولد 1
اندا 1
تبريد 1
جاكوب 1
دعم@@ 1
عملهم 1
م.@@ 1
مفاج@@ 1
ممكنة 1
وآسيا 1
يسيطر 1
اسبة 1
الشغب 1
الغز@@ 1
المنشأ 1
اوس 1
بتنفيذ 1
بثلاث 1
حث 1
سائر 1
ظت 1
لاخت@@ 1
وتلقى 1
ينطوي 1
الكلب 1
الوب@@ 1
بمقاطعة 1
بورغ@@ 1
ثَ@@ 1
دومين@@ 1
سعد@@ 1
فالي 1
قدرتها 1
ماكسي@@ 1
مشهور 1
مضاعفات 1
وترك 1
188@@ 1
إب 1
الأولمبي 1
الرمال 1
المجيد 1
بيج 1
غريغوري 1
فانكوفر 1
ميدي@@ 1
ومد@@ 1
يتوفر 1
أضاف 1
الدهنية 1
الفلاسفة 1
المتحده 1
تحتفظ 1
حددت 1
عوض@@ 1
لبناني 1
ويلي 1
اختصار 1
ادتها 1
التخرج 1
الثلاثين 1
العباسي 1
بالإعدام 1
بوينغ 1
تفاقية 1
حساس 1
فاص@@ 1
مونتانا 1
نسبياً 1
هولندي 1
يبين 1
الأبناء 1
الدرجات 1
اماً 1
امتلاك 1
تبنى 1
تضمين 1
تهدي@@ 1
حسني 1
خاد@@ 1
شرية 1
عات@@ 1
عدنان 1
كيبك 1
منهجية 1
ناقش 1
وطي 1
ينشأ 1
التوص@@ 1
السحر 1
تمال 1
روجرز 1
سمعة 1
صدمة 1
غاما 1
كينيث 1
للمت@@ 1
الإنكليزية 1
الزائدة 1
المتو@@ 1
تطلق 1
تمارس 1
حاف@@ 1
حجمها 1
سباح 1
صلح 1
عائشة 1
فضة 1
لشؤون 1
ميتشيل 1
وذك@@ 1
45@@ 1
الأحرار 1
الإسكند@@ 1
الخلافات 1
العسل 1
القصائد 1
انتخ@@ 1
اَ@@ 1
بني@@ 1
زمان 1
شيئاً 1
غين@@ 1
والطاقة 1
والم 1
ونقص 1
ينوس 1
الأحساء 1
الأذن 1
العض@@ 1
الناطقة 1
تيزي 1
راث 1
راسل 1
عاط@@ 1
غشاء 1
مؤه@@ 1
متأث@@ 1
نزل 1
نوت@@ 1
يتف@@ 1
6,@@ 0.8609133675617167
الديانات 1
اليومي 1
ببطء 1
تعويض 1
درته 1
غلين 1
محي@@ 1
مغلقة 1
واك@@ 1
Z 0.36776114812380706
al@@ 0.06900534290908449
إسرائيلي 1
اصل 1
الفرات 1
الفك 1
باخ 1
بافاريا 1
بحة 1
بيوس 1
رائحة 1
رحل 1
ستيل 1
سطس 1
شاركوا 1
طاهر 1
علق 1
كرم 1
كهم 1
لفهم 1
والبر@@ 1
إنترنت 1
الإحص@@ 1
التحلي@@ 1
الممر@@ 1
بَ 1
زوجين 1
طس 1
عميل 1
غيرات 1
للزراعة 1
مازي@@ 1
معالج 1
والقوات 1
والمُ@@ 1
يعة 1
ائي@@ 1
الأعشاب 1
الأوز@@ 1
الجريدة 1
العادات 1
النض@@ 1
انفص@@ 1
برصيد 1
بطت 1
ترط 1
جيرالد 1
ضواحي 1
ظبي 1
لاوس 1
وصدر 1
450 1
W 0.2847471946632101
الاجتماع@@ 1
الجليدية 1
المسرحيات 1
النموذجية 1
بأداء 1
بقوله 1
تثبت 1
تخرجت 1
حوار 1
رخصة 1
سوي 1
غنى 1
فيرة 1
للأر@@ 1
ماكدونالد 1
نوعه 1
نَ 1
هايتي 1
والفلسفة 1
يمثلها 1
َّات 1
آد@@ 1
أصناف 1
البخاري 1
الرئاسي 1
الكأس 1
بوغ@@ 1
سلين 1
كوا 1
لجعل 1
ميرفي 1
هَا 1
101 0.8470820403177952
أبيب 1
أتلتيكو 1
ألاباما 1
أمان@@ 1
احتل@@ 1
التحويل 1
الحكوم@@ 1
السلطنة 1
السموم 1
انخفضت 1
اوب@@ 1
بوية 1
تتشكل 1
جاذبية 1
صدر@@ 1
صلب 1
غادرت 1
مارية 1
والإدارة 1
يمس 1
آلان 1
أنسجة 1
الدّ@@ 1
الكتيبة 1
المفتر@@ 1
المناظر 1
بوك@@ 1
تفتقر 1
دره 1
ربها 1
ربيعة 1
سلاف 1
طبعة 1
غناء 1
لمرض 1
محتمل 1
نابولي 1
يخدم 1
البحيرات 1
الحجارة 1
الرّ@@ 1
الصداقة 1
المشاهير 1
بالل@@ 1
بقرار 1
جامعية 1
للسلطة 1
وأمر 1
ومقرها 1
يسب@@ 1
ينسون 1
أجر 1
أحر@@ 1
إسرائيلية 1
الأحجار 1
الضعف 1
ترية 1
رهاب 1
سلت 1
محتملة 1
يدها 1
189@@ 1
أشع@@ 1
ائة 1
اكتسبت 1
البان@@ 1
البعيدة 1
السياح 1
الشرايين 1
العلاجية 1
المسك@@ 1
النضال 1
تتيح 1
طلال 1
لخ@@ 1
ملية 1
ميكان@@ 1
ميلا 1
مُست@@ 1
نسان 1
وارتفاع 1
ورجال 1
ونس 1
الأض@@ 1
الإندونيسية 1
التشريع 1
الرمل 1
اللقاء 1
المتعلق 1
الملاحظات 1
النيران 1
انسحب 1
كبير@@ 1
كسترا 1
والدفاع 1
Brown 0.2740771659939924
أخرج 1
الأجور 1
الخوارز@@ 1
الكوميدي 1
المدي@@ 1
شكلها 1
كتشف 1
ملاحظ@@ 1
موحدة 1
ميديا 1
ندوق 1
1851 0.7541126860448066
ing 0.029940606317584967
إصابته 1
اكو 1
الأجنبي 1
الإنفاق 1
الانتحار 1
القض@@ 1
بسك@@ 1
دارفور 1
راسة 1
عميق 1
فوستر 1
فيان 1
وأعضاء 1
واق 1
والأق@@ 1
إصلاحات 1
إقليمية 1
الخفيف 1
الوفد 1
ضروري 1
غيرت 1
للاتصالات 1
للجهاز 1
لنديين 1
منتشرة 1
هلا@@ 1
ومض@@ 1
أغلقت 1
خام 1
درامي 1
درها 1
راوي 1
عينه 1
مظهر 1
ناق 1
والبرو@@ 1
وانخفاض 1
وعلاوة 1
أعرب 1
اجتمع 1
الأعمدة 1
الأمريكيون 1
الإلكترونات 1
الزه@@ 1
الظاهري 1
العر@@ 1
اير@@ 1
باش 1
برادفورد 1
بروكسل 1
تطبي@@ 1
جنسي 1
جونستون 1
درس@@ 1
دوء 1
غلاق 1
قطت 1
موم 1
نيفادا 1
وفري@@ 1
وليك 1
ارح 1
اكمة 1
الأبواب 1
الاثنان 1
الغريبة 1
الولاء 1
الّ@@ 1
ايه 1
برعاية 1
تأجيل 1
تشييد 1
جيك 1
طريقها 1
قبله 1
كلاين 1
مديرة 1
مهاجم 1
ومعه 1
ونغ@@ 1
ويتميز 1
ياسر 1
ينجح 1
ارتبط 1
الإحساس 1
الحاسب 1
المفروضة 1
المقدم 1
بزيارة 1
تداء 1
سقف 1
شوك@@ 1
كاك@@ 1
مارتينيز 1
مميز 1
والرعاية 1
ّاب 1
إسبانية 1
احتي@@ 1
البَ@@ 1
الصحابة 1
الطقوس 1
المجر@@ 1
المشي@@ 1
المضيف 1
النانو 1
بحي@@ 1
رؤوس 1
صابة 1
عياً 1
غرافية 1
غط 1
ماركو 1
مسيحي 1
والطب 1
وزيرا 1
360 1
الأرثوذكس 1
التحديات 1
السحب 1
السفلية 1
المعيار 1
بيئ@@ 1
تدفع 1
تقديمها 1
ثناء 1
زيه 1
قاموس 1
كانتون 1
كتاتورية 1
للاح@@ 1
محدو@@ 1
هبوط 1
ومما 1
يسار 1
1853 0.7699476115334961
MPO@@ 1
استقالته 1
الاستئناف 1
التليفزي@@ 1
الجسدي 1
الفرار 1
المستعمرة 1
انقسام 1
بالإسبانية 1
حب@@ 1
خرى 1
خضراء 1
خِ@@ 1
غزا 1
مجانية 1
مجددا 1
مسجل 1
والرئيس 1
يلزم 1
ّان 1
أقلية 1
اتنا 1
البروفيسور 1
المدفو@@ 1
بعت 1
بلين 1
تاني 1
ذرات 1
ركز 1
زواجها 1
قصاء 1
قضت 1
مرصد 1
مشتقة 1
معارض 1
نالت 1
يةً 1
ّين 1
أسها 1
الأوساط 1
الإم@@ 1
تبن@@ 1
تصريح 1
تقر 1
دني@@ 1
غيرهم 1
فاش@@ 1
فتا@@ 1
لتكوين 1
مركزًا 1
والعلاقات 1
يوليوس 1
آن@@ 1
استدعاء 1
الأحرف 1
القاد@@ 1
اللجان 1
المزارعين 1
ستيفان 1
كيا 1
منازلهم 1
والمغرب 1
وصوله 1
− 0.4103042015804981
1200 1
أطف@@ 1
أولي 1
إحدا@@ 1
اختير 1
الصراعات 1
الفقيه 1
المحد@@ 1
بحجم 1
بلورات 1
تبديل 1
تقتصر 1
تيب 1
خطار 1
ركزت 1
لبنانية 1
للإدارة 1
للتعبير 1
ومثل 1
ياك@@ 1
يله 1
يُدعى 1
استعداد 1
اكتسب 1
الأهالي 1
العمالية 1
المشا@@ 1
تخدم 1
درع 1
سويدية 1
طم 1
غو@@ 1
فياً 1
كيبيك 1
مستقرة 1
مسلحة 1
ميمون 1
وريث 1
ولديها 1
ويف@@ 1
ويق@@ 1
3.5 1
أنس 1
أنشط@@ 1
إنجليزية 1
الترويج 1
الجفاف 1
الحك@@ 1
العنك@@ 1
القادسية 1
المعاهد 1
بغية 1
سبقت 1
عراقية 1
عنو@@ 1
قريش 1
كلة 1
نوس 1
واث@@ 1
وكلاهما 1
أقصر 1
الإفراج 1
الإنجاز 1
التوصيل 1
الرئيسيين 1
انتح@@ 1
بالمائة 1
بروكس 1
بنظ@@ 1
تحظى 1
ذان 1
سهولة 1
صلبة 1
مكتب@@ 1
ناط@@ 1
ينتمون 1
يوتا 1
البعد 1
القضائي 1
باربرا 1
تلف@@ 1
تنظم 1
خلفي 1
روجين 1
طال 1
غولدن 1
فادة 1
فضائية 1
نظير 1
واستخد@@ 1
والته@@ 1
ودًا 1
يلاحظ 1
إشع@@ 1
احتفال 1
الإنشاء 1
الفعال 1
المخاوف 1
برن@@ 1
بسط 1
للفرد 1
للكرة 1
ليك@@ 1
والإنجليزية 1
والله 1
يقترح 1
ائرات 1
التكنولوجية 1
الجيد 1
المعدن 1
الوالي 1
تلوث 1
جنون 1
خطر@@ 1
ربان 1
رواح 1
شرقية 1
شغلت 1
فيني@@ 1
كلود 1
كونيتيكت 1
للكشف 1
مصورة 1
والحكومة 1
يستا 1
65@@ 1
أهلية 1
اختراق 1
اريو 1
الحبل 1
تنشيط 1
جماعي 1
خاطر 1
زام 1
زور 1
غابة 1
لليهود 1
مص 1
وابن@@ 1
وزيرة 1
الإه@@ 1
التوظيف 1
الفوسفات 1
اوة 1
تأخر 1
تشريح 1
حاس@@ 1
شال 1
صن 1
قياسي 1
كليف 1
للفن 1
للمرض 1
لوسي 1
مب 1
هك@@ 1
الأساس@@ 1
الإستراتيجية 1
التس@@ 1
الشورى 1
المقطع 1
الموانئ 1
بالمملكة 1
بباريس 1
بحضور 1
تعوي@@ 1
جدد 1
ستوك 1
عكاس 1
مسابقات 1
والتعاون 1
وبقيت 1
وحركة 1
يُسمى 1
Martin 0.16060812297434057
أحدهم 1
إعلامية 1
التركي@@ 1
الغرف 1
جانية 1
زكي 1
سبانيا 1
شاري 1
قصائده 1
لغرض 1
للمنتخب 1
للهجرة 1
ملكي 1
والاجتماعي 1
ويصل 1
ed 0.03636428733708114
أبلغ 1
أعل@@ 1
ابت@@ 1
الإفريقي 1
التنا@@ 1
التوقف 1
اليورانيوم 1
تحاد 1
تناسب 1
ساي 1
عدام 1
عُرفت 1
كائنات 1
لشبونة 1
لنشر 1
والأكثر 1
يمًا 1
1847 0.7831978080646367
أفاد 1
ازدياد 1
التعدين 1
العائلية 1
العوا@@ 1
المتحولين 1
باو 1
بطرسبرغ 1
تمييز@@ 1
جواء 1
راه 1
صوتية 1
كولومبوس 1
مالة 1
وأنا 1
وفات 1
1835 0.8509970346895215
آيوا 1
أجبر 1
الأميركي 1
البني 1
الحمر 1
الطفرات 1
الفور@@ 1
بحقوق 1
تعاون@@ 1
فط@@ 1
فعاليات 1
مختلفين 1
مقاتل 1
وته@@ 1
ورجل 1
ولف 1
10000 1
أبوه 1
المتاحف 1
المتعل@@ 1
المشي 1
المطالبة 1
بارات 1
تتحول 1
تضخم 1
جيج 1
ظمة 1
عُ 1
كجم 1
لياً 1
مقب@@ 1
همت 1
وأعلنت 1
واحي 1
وشرق 1
ياته 1
يقية 1
1839 0.8672719990315142
ئل 1
الإفريقية 1
السور 1
الهاد@@ 1
سمان 1
لاتهم 1
ودر@@ 1
يجادل 1
1852 0.7353161120648709
إرا@@ 1
اقية 1
الأو@@ 1
الاصطناعية 1
الخصوصية 1
ايك@@ 1
تصنف 1
درات 1
ديفيز 1
روبين 1
نديين 1
ويتش 1
g@@ 0.07237487442804778
الانتقالية 1
البعثات 1
الرعد 1
السياس@@ 1
الطوب 1
تركه 1
تظل 1
تعديلات 1
تلبية 1
ثنائ@@ 1
دنية 1
سترن 1
شقيقة 1
عظيمة 1
للشعب 1
ميّة 1
نيّة 1
والثالث 1
1837 0.8351376797427813
الأسري 1
القراء 1
المصنوعة 1
برتبة 1
تدي 1
تُظهر 1
ثمانينيات 1
جواب 1
دْ@@ 1
روان 1
صًا 1
عديد 1
عضوة 1
عليك 1
متغير 1
مطعم 1
ملحمة 1
واد@@ 1
واسمه 1
والأمن 1
ويش 1
اتور 1
الان 1
الصفقة 1
المختار 1
امتد@@ 1
جينات 1
ريبية 1
ساق@@ 1
سواحل 1
للخلايا 1
مصح@@ 1
موريتانيا 1
مِّ@@ 1
وأقام 1
يحب 1
يحكم 1
Scott 0.3067172187432534
أخر@@ 1
الشيش@@ 1
الكاميرا 1
المتطلبات 1
المتطوعين 1
المدارية 1
تسوي@@ 1
تشاد 1
تشينغ 1
تقدمها 1
حزم 1
عتبر 1
غانم 1
مسون 1
مقاب@@ 1
منق@@ 1
واعتب@@ 1
وحاول 1
وشملت 1
وصلوا 1
يروي 1
يستخدمها 1
ادق 1
اغتصاب 1
اكر 1
المؤكدة 1
المكسيكية 1
تشين 1
جبه 1
سيطرت 1
شمالاً 1
لوكسمبورغ 1
مطر@@ 1
وبريطاني 1
وتات 1
وجهت 1
وساهم 1
يومية 1
1845 0.7833872211394916
o@@ 0.0756372186245061
استبعاد 1
التري@@ 1
الخيالية 1
المضرب 1
بإصدار 1
بارتفاع 1
بالجزائر 1
بب 1
تحالف@@ 1
حربية 1
دائره 1
سعادة 1
سيك@@ 1
فلس@@ 1
قائلًا 1
ويون 1
1832 0.8691002400112294
أولًا 1
التهم 1
الجزيئي 1
القنا@@ 1
المماليك 1
بالمرض 1
تبره 1
جامايكا 1
خضعت 1
دال@@ 1
رسال 1
سبنسر 1
فتين 1
لتصل 1
للأمراض 1
مكت@@ 1
نرى 1
وأخيرا 1
والثلاثين 1
يرس 1
يوني@@ 1
1855 0.6845870348105412
إجرا@@ 1
إعل@@ 1
الأزهار 1
الرايخ 1
السواحل 1
الشَّ@@ 1
العبد 1
المتزايدة 1
بذور 1
بعام 1
تزاز 1
جراءات 1
لول@@ 1
مفو@@ 1
ومؤرخ 1
يدًا 1
أجراها 1
أمريكيين 1
ؤلاء 1
الدرع 1
الغني 1
المفضل 1
بشر@@ 1
تداد 1
جوليا 1
خصائ@@ 1
دير@@ 1
ذروتها 1
عدا@@ 1
عنة 1
مسلمة 1
مكتوب 1
مُن@@ 1
هاينريش 1
وبرامج 1
يقبل 1
u 0.07948547592159265
י@@ 1
ألبيون 1
التصرف 1
النشاطات 1
جهزة 1
حارة 1
ريتش 1
ساق 1
ليف@@ 1
أزرق 1
ا- 1
البيانو 1
اللاتينيون 1
المتأخرة 1
المتوفرة 1
تقسم 1
شعر@@ 1
صاحبة 1
فوي@@ 1
كتابها 1
كوكس 1
لأداء 1
لحكومة 1
لمصر 1
مكون@@ 1
والسياسي 1
وظلت 1
يحص@@ 1
أجمل 1
أوفي@@ 1
الجمل 1
الكابتن 1
بإدارة 1
بإرسال 1
تبس 1
ثلاثون 1
صانع 1
منفردة 1
نتون 1
وبالفعل 1
وتحقيق 1
ولبنان 1
يفز 1
er 0.009069383451573522
أبرشية 1
الفكري 1
المواجهة 1
الولا@@ 1
بجمع 1
برين 1
بياً 1
ترن 1
تعلق 1
فرانز 1
قدرا@@ 1
كريستين 1
للماء 1
ناة 1
والمنطقة 1
وتأث@@ 1
ودعا 1
وسميت 1
الحريق 1
السهول 1
الصار@@ 1
اهتمامه 1
اوت@@ 1
بتصميم 1
بتين 1
راش@@ 1
شاكل 1
كربونات 1
منتخ@@ 1
منشورات 1
والبن@@ 1
يتضح 1
اضر 1
البيئات 1
الحقول 1
تصميمه 1
سرى 1
ضون 1
لصحيفة 1
ليز 1
مالطا 1
وإسبانيا 1
والمدارس 1
وقته 1
ئها 1
استوديو 1
براغ 1
تباك 1
تكتب 1
ثقب 1
دانييل 1
ديانة 1
لكونها 1
متض@@ 1
مدد 1
نظار 1
و3 1
وعلوم 1
يرتفع 1
إذاعية 1
إنهم 1
الخرا@@ 1
القصبة 1
تويتر 1
فساء 1
فيمكن 1
قرب@@ 1
لتلبية 1
للمستخدمين 1
مدي 1
وأكد 1
ادلة 1
التغلب 1
الرعب 1
الصوم@@ 1
المقاعد 1
بعينات 1
بلس 1
بيبي 1
تركية 1
جست@@ 1
جلة 1
ضغوط 1
عبه 1
فاد 1
فرغ 1
فوسفات 1
قسنطينة 1
كارولين 1
للناس 1
مغناطيسي 1
نشاطها 1
نظمت 1
يرن 1
7,@@ 0.8845969260046702
Lee 0.23437902673198507
r@@ 0.07821061621405881
العربي@@ 1
الكوميديا 1
المرئية 1
الميثاق 1
بوبة 1
ترع 1
تكونت 1
سلبي 1
شارية 1
عماله 1
فريمان 1
لجان 1
لحسن 1
للمواطنين 1
مجري 1
مسلسلات 1
والماء 1
وشه@@ 1
وعليه 1
ونظرًا 1
55@@ 1
أوسلو 1
الاستقبال 1
البطريرك 1
الحَ@@ 1
القسري 1
المسب@@ 1
المنط@@ 1
بتغيير 1
تغيرت 1
دب 1
زميله 1
سياسيًا 1
والجيش 1
وسين@@ 1
يوف 1
آ 1
اذبة 1
السامة 1
المرئي 1
بذل 1
تاريخيًا 1
تسهيل 1
تكريم 1
جيفرسون 1
روزفلت 1
عقده 1
علية 1
عميقة 1
لالات 1
مجهول 1
مذكرات 1
مستق@@ 1
منيوم 1
وكلي@@ 1
يحق 1
يوت 1
1820 0.6345924866401322
codice 0.740744239255847
f@@ 0.07574208731391865
أسوار 1
اضل 1
التفاوض 1
الخد@@ 1
الست 1
المفضلة 1
ايير 1
ثيو@@ 1
خلات 1
دجلة 1
ساندرا 1
فيو 1
لنهر 1
مساءً 1
والدولية 1
وريس 1
ألواح 1
أمها 1
ارتفاعها 1
الأغراض 1
البنات 1
البوس@@ 1
التأكد 1
التحدي 1
الجرعة 1
الحاض@@ 1
الحفل 1
السوفييت 1
القاعة 1
المطر 1
برل@@ 1
جني 1
حفي@@ 1
رشادات 1
لوري 1
موال@@ 1
موته 1
والجنوب 1
وتلك 1
وثلاث 1
وسيط 1
ومعهد 1
ينظ@@ 1
1844 0.8210838342293629
آة 1
آخر@@ 1
التأهل 1
التنقل 1
الفقيرة 1
ايات 1
بعيداً 1
جدوى 1
راست@@ 1
ركوب 1
ريكان 1
فيض 1
لايف 1
لبطولة 1
للتن@@ 1
ليشمل 1
ماق 1
وعادةً 1
ولايته 1
استقالة 1
الأخلاقي 1
الدوائية 1
الديون 1
المتاجر 1
المعاملات 1
الملاكمة 1
الهندوس 1
جانبية 1
حقه 1
سانت@@ 1
كاف 1
للنقل 1
لير 1
منصات 1
وقفت 1
ومنظمة 1
46@@ 1
الجراحي 1
الجوه@@ 1
الديوان 1
السيئة 1
القدي@@ 1
بدع@@ 1
طالبان 1
غرين@@ 1
فصائل 1
قري 1
محاص@@ 1
نوات 1
والشع@@ 1
وقيع 1
أديب 1
احتفالات 1
الباقية 1
الحدي@@ 1
الخيار 1
الغرا@@ 1
الفترات 1
القبلية 1
المؤلفين 1
المالكة 1
المتوفى 1
تجمي@@ 1
دمر 1
ريوس 1
زلزال 1
ساو@@ 1
سلوكيات 1
شتى 1
شيرة 1
عُين 1
كرسي 1
مؤقتًا 1
مبي 1
هيو@@ 1
وباء 1
وتدري@@ 1
1834 0.857748262055896
ئاب 1
ابريل 1
افى 1
القطر 1
المظهر 1
الهيكلية 1
بأول 1
بعينيات 1
صحافة 1
غت 1
فلسط@@ 1
متقدمة 1
مسم@@ 1
هدفها 1
ومناطق 1
يرتدي 1
يموت 1
Mark 0.21992240925375803
ابن@@ 1
الأرباح 1
الاستراتيجي 1
الشهادات 1
المجاهدين 1
جارات 1
جرم 1
ساع 1
سمو@@ 1
عناوين 1
محلات 1
مطالب 1
يقام 1
1846 0.7452332883007077
آل@@ 1
أساقفة 1
اتة 1
الإضافي 1
المحي@@ 1
المقصود 1
بيز@@ 1
عال 1
فيزي@@ 1
لتز@@ 1
مرح@@ 1
أتي@@ 1
إيرادات 1
الأوقاف 1
الفارس 1
المجلد 1
تازة 1
تصحيح 1
دران 1
رضت 1
متكررة 1
مسجلة 1
ميلة 1
يتو 1
يحي 1
يفسر 1
أحزاب 1
اقترحت 1
الأنس@@ 1
السط@@ 1
امتد 1
بالنظر 1
حكومات 1
خبير 1
ذنة 1
ستور 1
سيت 1
للعام 1
مؤدي 1
مارتين 1
وزة 1
يسبق 1
يكشف 1
G. 0.3963319102622416
baseball 0.4444556149979975
أخ 1
أمّا 1
ادثة 1
ازدادت 1
استقلالها 1
التدريبية 1
التضخم 1
الرطبة 1
الشراء 1
المعدلة 1
الموتى 1
بدية 1
تله 1
حملته 1
رجلاً 1
شهير 1
عبان 1
نفا@@ 1
والمياه 1
وتنفيذ 1
وذكرت 1
أكل 1
الفاتح 1
الفيزي@@ 1
المميز 1
المنشورات 1
باختلاف 1
تستهدف 1
ثيان 1
جزائرية 1
حته 1
حم 1
كونست@@ 1
لاك@@ 1
ماديسون 1
مرتفعات 1
هنتر 1
هوا 1
وأربعة 1
وبريطانيا 1
ولوجيات 1
ويمك@@ 1
187@@ 1
اختر@@ 1
استخدامات 1
اشا 1
الهرمونات 1
الوريد 1
بوكس 1
تخلى 1
تفاع 1
ديلي 1
غلوب 1
غوستاف 1
مجلات 1
مدرس 1
مدينتي 1
مصارع 1
وأسس 1
ووادي 1
يمار@@ 1
البغدادي 1
الزهور 1
الملاحة 1
الهسبانيون 1
تايم 1
تجري@@ 1
خا 1
ريكاردو 1
صع@@ 1
قليم 1
كز@@ 1
نسية 1
هاتين 1
وإل@@ 1
وقوات 1
Tom 0.29284189248570813
احية 1
البوتاسيوم 1
التقي@@ 1
التنين 1
الحبيب 1
المتظاهرين 1
تأثيرًا 1
تتم@@ 1
تخلص 1
خشب 1
فورية 1
كروس 1
كيًا 1
لاختبار 1
لبيع 1
لعمليات 1
ليتل 1
ماته 1
مرأة 1
ممتلكات 1
وأحيانا 1
1843 0.8356313393046502
Joe 0.31906526450891376
m@@ 0.10158903365883068
أفكار@@ 1
البخار 1
الروحي 1
جميعًا 1
فاض@@ 1
معت 1
موزعة 1
وروا@@ 1
ويقدم 1
أنس@@ 1
التل 1
السنغال 1
المتأخر 1
المرش@@ 1
المغناطيسية 1
باستعمال 1
تتسم 1
تصميمها 1
غراند 1
كأحد 1
محاضرات 1
معدن 1
نبو@@ 1
وحُ@@ 1
أشهرها 1
المناعية 1
المواطن 1
بيعها 1
حط@@ 1
ضوا 1
قتلوا 1
للجميع 1
معروفًا 1
والصناعة 1
وذهب 1
ووسائل 1
يوافق 1
1815 0.7268712840110312
Bill 0.29105147884076826
إدموند 1
الزوجان 1
الفيفا 1
المساعد 1
المسلح 1
بابة 1
بداع 1
برزت 1
تشن 1
جيفري 1
رجح 1
شاش 1
غني@@ 1
فاروق 1
قدّم 1
لفزيون 1
ماو 1
ممثلي 1
مهارة 1
وردة 1
وشك@@ 1
يعاب 1
الأنثروبولوجيا 1
التقني 1
الجولان 1
الحلبة 1
الكوارث 1
المحوري 1
تحط@@ 1
تناس@@ 1
تيين 1
جونغ 1
راندي 1
صالة 1
قاض@@ 1
لقوات 1
لكونه 1
مصالح@@ 1
موه 1
نجل 1
وأخيرًا 1
والبرامج 1
وفازت 1
وقسم 1
وكيفية 1
ووظ@@ 1
يتحرك 1
احدى 1
البرونزي 1
الدنا 1
السند 1
القرط@@ 1
الموسي@@ 1
النوى 1
بيعة 1
ديمي@@ 1
صلالة 1
عنيفة 1
فلاح 1
للبيئة 1
لوث 1
مورتون 1
وتحليل 1
وغالباً 1
ومراكز 1
184@@ 1
أعطت 1
إدوين 1
إنسانية 1
اتفاق@@ 1
اتِ 1
التراجع 1
المسابقات 1
المقاتلين 1
املة 1
باليونانية 1
بوزارة 1
ثري 1
عزم 1
لورين 1
وهران 1
ءًا 1
ابتد@@ 1
اعتداء 1
السَّ@@ 1
المولود 1
الميزات 1
النمر 1
بيئية 1
بِ 1
داو 1
دورف 1
سيرا@@ 1
شيشاوة 1
صارت 1
عماد 1
فرنانديز 1
لابن 1
لوثر 1
نجا 1
وسائط 1
وقص@@ 1
وكري@@ 1
يضمن 1
ia 0.0894767984000812
الجليدي 1
العلا@@ 1
توليه 1
تُسمى 1
جيرمان 1
سؤال 1
صعيد 1
قوط 1
للهجوم 1
والتهاب 1
وبني 1
َّن 1
8.@@ 0.9279760336239502
أنغولا 1
ابنتها 1
اضط@@ 1
اكتساب 1
الانخفاض 1
الترفيه 1
التشريعات 1
العاصفة 1
الفائقة 1
الفقرة 1
اللاذقية 1
المثيرة 1
المملكه 1
بالإن@@ 1
باللعب 1
بتهم 1
بكميات 1
تقليدي 1
قالة 1
ماكن 1
مسيحيين 1
نَّ@@ 1
والمسؤ@@ 1
ينمو 1
أشباه 1
التنافس 1
الحوسبة 1
الصعبة 1
العذ@@ 1
بالمشاركة 1
بورتوريكو 1
تعليمها 1
فرح 1
قائها 1
قار 1
كوستاريكا 1
لمس 1
مراه@@ 1
مصفوفة 1
هانسن 1
وجما@@ 1
ابتدائية 1
افها 1
التشابه 1
الحرير 1
الحز@@ 1
الدو 1
العضلية 1
الميت 1
تقارب 1
تِ 1
جح 1
ستانفورد 1
شبي@@ 1
طفلة 1
طلة 1
لاد 1
لويز 1
مؤك@@ 1
مزدوجة 1
نعة 1
والمشاركة 1
وظي@@ 1
ونيو 1
وود@@ 1
وون 1
يقط@@ 1
أنجبت 1
التقدير 1
التين 1
الصمام 1
العمالة 1
القدامى 1
المستوطنين 1
تبت 1
تنظيف 1
خبي@@ 1
داري 1
شفة 1
صلت 1
طير 1
فوس@@ 1
فينيكس 1
لفترات 1
و2010 1
والقدرة 1
وذ 1
وريون 1
وزيراً 1
إقناع 1
إكمال 1
ائنات 1
اطع 1
الحري@@ 1
الصحراوية 1
الفتاح 1
الكافي 1
الهرمون 1
توت 1
حدى 1
ذوات 1
فز@@ 1
لألمانيا 1
لتوليد 1
مصر@@ 1
مصير 1
مونيكا 1
وأحيانًا 1
وحين 1
يتلق@@ 1
الأرجل 1
القُ@@ 1
المراد 1
الملقب 1
الير@@ 1
تعاليم 1
حتم@@ 1
ذرية 1
ظلم 1
عريضة 1
فورست 1
قرة 1
كوني 1
لكون 1
لينكس 1
ممك@@ 1
وتت@@ 1
يرز 1
َّت 1
105 0.8856961679084658
ae 0.18482601839872634
إنتخابية 1
ارتفاعه 1
الاحتياطي 1
الزائد 1
المدرعة 1
المشورة 1
الممتازة 1
المهرجانات 1
النهرين 1
الوسيط 1
بالعبرية 1
ترشي@@ 1
حبوب 1
زيارته 1
كوينزلاند 1
لحساب 1
لعرض 1
للفوز 1
ليًا 1
نقش 1
والملا@@ 1
والنظام 1
وبعضها 1
أمة 1
الحسية 1
الخبيثة 1
الغربيين 1
الِ@@ 1
بحجة 1
بفوز 1
كوبنهاغن 1
مرار 1
مراعاة 1
مرج@@ 1
هولمز 1
والتحق 1
والدول 1
1.2 1
in@@ 0.04061966385036489
أدبي 1
أعادت 1
ارتباطًا 1
اشترك 1
الالتحاق 1
الجلدية 1
الدجاج 1
الدورية 1
القنابل 1
الكاثوليكي 1
المعاصرين 1
الهرم 1
بدايته 1
رينيه 1
زيون 1
شتا@@ 1
عصابة 1
لتس@@ 1
لتغيير 1
متماث@@ 1
مشارك 1
يسا 1
يقتل 1
إنجيل 1
الألف 1
الاقترا@@ 1
التبرعات 1
الزر@@ 1
الفيتنام@@ 1
القارئ 1
المزي@@ 1
بإضافة 1
حهم 1
خراط 1
دودة 1
شرب 1
متس@@ 1
وابنه 1
ودول 1
يحتل 1
Jack 0.2664821788699105
en 0.0020099945294121528
آش@@ 1
أنف 1
ابح 1
الإقلاع 1
الدالة 1
السوريين 1
الضارة 1
المتصلة 1
بالإجماع 1
تشف 1
جند 1
حشد 1
دلال 1
رقمية 1
سياحية 1
مسرحيات 1
مَّ 1
نايت 1
وامر 1
وترا@@ 1
v@@ 0.09301758082541534
الألومنيوم 1
الأيدي@@ 1
الظل 1
المزدوج 1
المغني 1
انطلق 1
ترميم 1
تماد 1
دعمت 1
سبار@@ 1
سخ 1
سرة 1
عبي@@ 1
فالي@@ 1
فتي 1
قراطي 1
لتأسيس 1
لتسهيل 1
وأخيراً 1
وطات 1
وقد@@ 1
يدير 1
1838 0.7842183462290048
h 0.09303043771632072
الآتية 1
الحل@@ 1
الطائ@@ 1
القف@@ 1
الملف 1
النقص 1
حامية 1
دياً 1
سكاي 1
عموماً 1
كيني 1
منحنى 1
وأقيم 1
وتعتمد 1
ورفع 1
Alexander 0.21387398846903213
La 0.01140342801723643
استف@@ 1
التغطية 1
الطيف 1
الفائ@@ 1
القطط 1
المعرو@@ 1
انبعاثات 1
بالطاقة 1
بناؤها 1
ريتشاردسون 1
سانشيز 1
كتائب 1
مدين@@ 1
وتحدث 1
ويغ@@ 1
وَ 1
يسهل 1
ِّل 1
ألاسكا 1
أودي@@ 1
أوش@@ 1
افتتا@@ 1
الأمير@@ 1
الباقي 1
التضامن 1
المتوقعة 1
النع@@ 1
امًا 1
انتخابيه 1
بالبطولة 1
تلمسان 1
حريق 1
ذف 1
صح 1
علومات 1
كلف 1
كمبيوتر 1
للتر@@ 1
لمراقبة 1
متش@@ 1
محترفة 1
مفي@@ 1
هزيم 1
وخرج 1
ودها 1
ويّة 1
يكتشف 1
1842 0.7733189203791111
Daniel 0.24447557247765553
أنَّه 1
الأصابع 1
التوحد 1
الجندي 1
الجيولوجية 1
الرضا 1
العزف 1
القطرية 1
اللاسلكية 1
المتميزة 1
المغلقة 1
اولة 1
بدو 1
تدريجيا 1
ترويج 1
توك 1
تينا 1
جهم 1
ختلف 1
لفيروس 1
متخ@@ 1
ناقل 1
نشأتها 1
والتم@@ 1
ولس 1
ويعتمد 1
يختار 1
6- 1
اروا 1
اعف 1
العاج 1
العملاقة 1
الكبري@@ 1
المضادات 1
النبوية 1
اومة 1
جوس 1
عالميا 1
للشرطة 1
معترف 1
مكسي@@ 1
نبرغ 1
نعم 1
نم 1
هدفت 1
1812 0.6946226865238562
استحوذت 1
اقد 1
البلجيكي 1
العملي 1
المزرعة 1
الهيك@@ 1
الوه@@ 1
اوس@@ 1
بوليفيا 1
تحضير 1
تهن 1
جيين 1
عبده 1
عزف 1
فعله 1
فْ@@ 1
قبلت 1
لوح 1
مكوك 1
منظم 1
ميَّة 1
يعترف 1
أستاذًا 1
أصدقائه 1
أنج@@ 1
ارتبطت 1
البنفسجية 1
التقاعد 1
الشر 1
الفص@@ 1
النسائي 1
تنز@@ 1
حاجز 1
خالية 1
ريفي@@ 1
سرح 1
علاجات 1
كاً 1
لوكالة 1
لولا 1
مقاييس 1
ناشطة 1
نسل@@ 1
نولان 1
h@@ 0.07641114354187356
أرسطو 1
النيوزيلندي 1
بدمشق 1
تاريخيا 1
تعاد 1
جاسم 1
حيم 1
زد 1
زهم 1
طيين 1
فيق 1
كيرك 1
مؤشرات 1
متكاملة 1
مساحته 1
170 1
إعدام 1
اثني 1
الأنصاري 1
الإماراتي 1
الانتقام 1
الجزئي 1
الصم 1
المعني 1
بود@@ 1
تشا 1
داخله 1
شهاب 1
صوف@@ 1
مايا 1
مناسبات 1
واقف 1
وعشرون 1
وول 1
ويتضمن 1
يوص@@ 1
1836 0.7682669573261127
إلكتروني 1
البلطيق 1
الجاز 1
الذراع 1
الشأن 1
الطفي@@ 1
النيوت@@ 1
الوراثي 1
انص@@ 1
بحد 1
براط@@ 1
بطن 1
تيا 1
جيرسي 1
خزان 1
درج@@ 1
شخصيته 1
طاني 1
عرّف 1
قدت 1
موه@@ 1
هانوفر 1
ومقاطعة 1
يض 1
أُطلق 1
المحاضرات 1
اليابانيين 1
برادلي 1
تركها 1
دارت 1
دانة 1
دوغ 1
زاً 1
صاب@@ 1
غز 1
فتش 1
لإقامة 1
لينغتون 1
ماسون 1
والبعض 1
وكاتِبة 1
استقل@@ 1
اكتشافه 1
الأقلية 1
التجري@@ 1
التلفاز 1
العجز 1
الكان@@ 1
المقابر 1
برون@@ 1
روحة 1
زالة 1
زيان 1
سمكة 1
فلة 1
كلام 1
مجة 1
مشغ@@ 1
2500 1
أفكاره 1
الدفاعية 1
اليدين 1
بانك 1
تحديدًا 1
توسعت 1
خار 1
صغ@@ 1
صِ@@ 1
ـا 1
فج@@ 1
فيرو@@ 1
لقية 1
مِ 1
هاما 1
هطول 1
هوغو 1
يكات@@ 1
إبريل 1
اتجه 1
الأخ 1
الاضطهاد 1
الفجوة 1
اللبن@@ 1
الملو@@ 1
بالمئة 1
تنق 1
جريت 1
جوردن 1
سمي@@ 1
طفرة 1
غاي@@ 1
فوربس 1
قياسات 1
قيت 1
لقة 1
لقسم 1
للمعلومات 1
مختبرات 1
وتس@@ 1
ورؤ@@ 1
يدف@@ 1
أبداً 1
أمنية 1
الفريدة 1
المعسكر 1
الميل 1
برمجيات 1
بلده 1
تقويم 1
خاطئة 1
خطير 1
راو 1
سط 1
عصار 1
عصبية 1
عُثر 1
فائقة 1
للمريض 1
نبراسكا 1
وِ@@ 1
يصنع 1
يوك@@ 1
أنشأ@@ 1
الفجر 1
الوق@@ 1
بالسكان 1
بينات 1
فرس 1
فرها 1
كيد 1
لوائح 1
مختلطة 1
و4 1
واتف 1
ويقدر 1
أسلو@@ 1
الأسقف 1
الأكاديمي@@ 1
الأوبرا 1
المدعي 1
المفتاح 1
بتعيين 1
بشرط 1
تعليم@@ 1
ثمر 1
داب 1
رودري@@ 1
رونة 1
فايل 1
لاستعادة 1
للبنات 1
ماح 1
مستخدمي 1
والأربعة 1
وواحدة 1
48@@ 1
ألقاب 1
الخر@@ 1
الخش@@ 1
العقارات 1
المشروبات 1
بيتسبرغ 1
جاكوب@@ 1
خيرية 1
دارات 1
ستيفنسون 1
شبابه 1
طانية 1
فرضت 1
قادرًا 1
قاطع 1
معتمدة 1
مقبولة 1
وأعيد 1
والسيطرة 1
والمعدات 1
وانات 1
وجمهورية 1
وحي 1
وعاش 1
يتفق 1
1821 0.8065040572570933
أقامت 1
الاحتفالات 1
التنظ@@ 1
بلوغ 1
تباد@@ 1
تكشف 1
حاملة 1
صناديق 1
للبحوث 1
متأخر 1
محلة 1
منًا 1
ميلتون 1
ميونيخ 1
وجمعية 1
يخلق 1
8,@@ 0.8923177168661804
z 0.09475997870066176
أصبحوا 1
الإضاءة 1
الحق@@ 1
الحمض@@ 1
الصدفة 1
الغوا@@ 1
النيابية 1
انتظ@@ 1
اندي 1
بأغلبية 1
بخار 1
تقدمت 1
تُ 1
جات@@ 1
ستاد 1
صقلية 1
كاترين 1
للدول 1
للشخص 1
مداف@@ 1
مياً 1
نق 1
يعية 1
يوتيوب 1
‘ 0.1970952050322019
MPO250@@ 1
ألق 1
اعتقاد 1
الإسكتلندي 1
الخاص@@ 1
الدائ@@ 1
الصعوبات 1
القاري 1
المؤثرة 1
برتغالية 1
تشيكوسلوفاكيا 1
رؤيته 1
فاين@@ 1
فتم 1
فرية 1
فس 1
قلل 1
كاثوليكي 1
لقيادة 1
مقابر 1
موقة 1
نشتاين 1
نيكولا 1
واجب 1
وتمثل 1
ودخلت 1
وعدة 1
وقرر 1
يشتمل 1
1841 0.7623877551995661
أخوه 1
إفراز 1
التحرك 1
الثلاثينيات 1
الحلي@@ 1
الفاصلة 1
الكامنة 1
المنطقي 1
المنطقية 1
جزيء 1
فلت 1
لورا 1
و1 1
وضوح@@ 1
يمكنك 1
Williams 0.2546269708507469
اعترفت 1
الأضرار 1
الأيوبي 1
التاب@@ 1
الخليجية 1
العملاق 1
المبنية 1
المدار 1
اهتم 1
بتشكيل 1
ترجم@@ 1
جميعا 1
ريمة 1
طاع 1
ظهره 1
علما 1
كليب 1
كْ@@ 1
للتاريخ 1
هارد 1
وأد@@ 1
وعات 1
أشك@@ 1
أيونات 1
إنجاز@@ 1
الآشورية 1
التوراة 1
الخرسانة 1
الدافع 1
الرهبان 1
الضابط 1
الميك@@ 1
الورقة 1
ترب 1
حبه 1
دتين 1
عداء 1
عكا 1
قديما 1
لازم 1
مقسمة 1
مكانها 1
نافذة 1
وبيت 1
وحص@@ 1
وعمليات 1
يتار 1
احب 1
الإسرائيليين 1
التأليف 1
الغنائية 1
المتكاملة 1
بأسماء 1
بريدج 1
بوردو 1
تدعو 1
تسعينيات 1
تمكن@@ 1
تنفي@@ 1
تياح 1
حاسمة 1
ريد@@ 1
سنًا 1
سيمات 1
شور 1
شياء 1
كيل@@ 1
لفيلم 1
للطفل 1
واكت@@ 1
وبيا 1
وتش 1
ولذا 1
47@@ 1
آلام 1
أبدا 1
أسو@@ 1
ارن 1
اطب 1
الامبراطورية 1
البنكرياس 1
الكولوم@@ 1
بندقية 1
بوع 1
تجهي@@ 1
ثبيت 1
جوب 1
ذار 1
رسومات 1
ريدة 1
عَ 1
فبعد 1
فلات 1
محاض@@ 1
مدتها 1
مشة 1
نيومان 1
هدم 1
هوت 1
والشباب 1
يظل 1
إليس 1
اعدت 1
الجو@@ 1
الجُ@@ 1
العزل 1
الفصائل 1
المحاولات 1
بالضبط 1
جينا 1
داخلة 1
طويلاً 1
قيادته 1
لحفظ 1
نالها 1
نياً 1
وأض@@ 1
وأنظمة 1
والغرب 1
ومو 1
يقرر 1
أدريان 1
اسط@@ 1
الأسبق 1
البلدي 1
الجدير 1
الصنع 1
الفيزيائي 1
المعيشة 1
بارة 1
تبث 1
خرو@@ 1
عليهما 1
فعندما 1
لتدريب 1
لموسم 1
متاجر 1
ناقض 1
هاو@@ 1
والمي@@ 1
آرا@@ 1
أوكلاند 1
اضطهاد 1
الاستشارية 1
الشبي@@ 1
المستحيل 1
الوكالات 1
حلها 1
خمسينيات 1
خميس 1
دونم 1
دياز 1
شوان 1
ضائع 1
فرعي 1
كاثوليكية 1
للتحكم 1
للملا@@ 1
لمجلة 1
ليفزي@@ 1
مجموعتين 1
محاربة 1
مركزة 1
أمهات 1
التشفير 1
الحسيني 1
الضعيفة 1
العروس 1
الكتل 1
النسبي 1
سلمت 1
شاف@@ 1
فتو@@ 1
موري 1
نجاز 1
نحت 1
هجرية 1
والمر@@ 1
ينقل 1
ئا 1
ازن 1
الأمية 1
الانتصار 1
البغ@@ 1
السام@@ 1
انك@@ 1
بشار 1
شاكر 1
ضاً 1
قوب@@ 1
كرو 1
ليوب@@ 1
مبية 1
معاناة 1
ملا 1
منشآت 1
وصلة 1
وليا 1
ومغ@@ 1
ّاً 1
أسفرت 1
التخص@@ 1
التمث@@ 1
الدنماركية 1
الشحنة 1
العقاب 1
القادمين 1
بتت 1
بطال 1
بمختلف 1
تحميل 1
تراب 1
تمي 1
حرا@@ 1
حضرات 1
شتاء 1
شرقا 1
شكّل 1
ضاف 1
عالميًا 1
لؤ@@ 1
لقبه 1
للس@@ 1
موجب 1
نذكر 1
وجود@@ 1
وصناعة 1
ومسؤ@@ 1
الإشع@@ 1
الإكوادور 1
الاحترا@@ 1
الاستعماري 1
القارية 1
اولات 1
دوك 1
رويجية 1
سبرينغ@@ 1
ستري@@ 1
سكرت@@ 1
سماع 1
صان@@ 1
فتحت 1
لخطر 1
لسكان 1
للوزراء 1
ماجد 1
ناتجة 1
هِ@@ 1
يعرفون 1
Al@@ 0.07756011082760857
آشور 1
اثناء 1
الإخراج 1
الجوا@@ 1
الصيانة 1
الفيل 1
الوري@@ 1
بفتح 1
بورتو 1
تشانغ 1
تليها 1
جود 1
داها 1
دنفر 1
ذرز 1
ساءة 1
سينات 1
شيوعاً 1
عيار 1
قروية 1
للر@@ 1
وأقل 1
وتوفر 1
يتعين 1
ؤها 1
إصدارها 1
الآليات 1
الابتكار 1
البعيد 1
البو@@ 1
الربح 1
الصربية 1
المحاربين 1
الهائل 1
بخط 1
تعارض 1
طيها 1
هوم 1
وأرسل 1
واقعة 1
وذا 1
أزيلال 1
أقدام 1
ألياف 1
أنَّ@@ 1
الاحتراق 1
البرونزية 1
الثق@@ 1
الدماء 1
انعدام 1
بالعودة 1
خفاض 1
رضي 1
سود 1
عجاب 1
كوستا 1
لرفع 1
لنظرية 1
ليوناردو 1
ماسي 1
مولا 1
ورس@@ 1
ويؤدي 1
1833 0.8031418036529107
ו@@ 1
أُجريت 1
اصمة 1
التنظيمي 1
الصلي@@ 1
الغبار 1
المملو@@ 1
المملوكة 1
باترسون 1
خسرت 1
ديانا 1
علاقتها 1
ماب@@ 1
مساهمات 1
نيوكاسل 1
وأربعين 1
واستخدم 1
والجامعات 1
يص 1
يوود 1
220 1
Jim 0.3876859875489171
https 1
الخريطة 1
الخيارات 1
السقف 1
العقل@@ 1
الغريب 1
الفرنسي@@ 1
جنسياً 1
زه@@ 1
ستال 1
عٍ 1
مديرا 1
مطلق@@ 1
ناءات 1
نعت 1
هوف 1
هوك 1
وأعمال 1
والمجلات 1
وبور@@ 1
ودراسة 1
وقاموا 1
186@@ 1
أسنان 1
إداري 1
إسلامي 1
الادعاء 1
العاطفي 1
القطري 1
المراهقة 1
بيض@@ 1
تصاد@@ 1
شات@@ 1
فيسبوك 1
قدموا 1
كرايغ 1
لاستخدامها 1
للتدريب 1
والعنف 1
وتمتد 1
9.@@ 0.9264852813830006
أساتذة 1
أطروحة 1
ألبومها 1
اختلف 1
التوافق 1
الثورات 1
الخطيرة 1
المفرط 1
المنص@@ 1
النوبة 1
بُنيت 1
تبحث 1
رقام 1
عوض 1
فدان 1
فقي 1
للضوء 1
لهجة 1
نجي 1
و2 1
وقوة 1
ووصلت 1
ينحدر 1
10,000 0.8045154219571583
الاجتماعات 1
السائ@@ 1
العثمانيون 1
العقوبة 1
الليبر@@ 1
النرويجية 1
انتصر 1
باض 1
تجريبية 1
تسع@@ 1
تينغ 1
دنيس 1
راكب 1
سيث 1
عيا 1
غاندي 1
لتمثيل 1
للخدمة 1
موضة 1
نتها 1
نوعاً 1
وإيران 1
والأخرى 1
واله 1
وقائد 1
أباد 1
أخذها 1
اعتراض 1
الاكتشافات 1
الانف@@ 1
البركانية 1
الجمه@@ 1
الطيار 1
المرتفع 1
المقبلة 1
الموه@@ 1
باطرة 1
بعلم 1
توزي@@ 1
جنسيًا 1
خدمته 1
دوز 1
ريبي 1
سيّة 1
شرائح 1
فيكون 1
للمادة 1
موها 1
نشوء 1
والموارد 1
وثائقي 1
وطر@@ 1
أوست@@ 1
الاستثمارات 1
البدي@@ 1
التصوف 1
الجلسة 1
الحقن 1
الرياضات 1
السلاحف 1
تعرضوا 1
توصيات 1
ديكسون 1
عطية 1
وسياسية 1
يتب@@ 1
يفصل 1
أخطاء 1
ألبومات 1
أهميتها 1
إلهام 1
اعتقاله 1
التفتيش 1
الحرائق 1
الرقيق 1
الصل@@ 1
الكهوف 1
الليزر 1
المسط@@ 1
بيرج 1
تسير 1
خنة 1
روائية 1
صاح@@ 1
صاص 1
قْ@@ 1
كمها 1
لسون 1
مادي 1
مثله 1
مغامرات 1
موريسون 1
هادي 1
هاو 1
والأراضي 1
والتقاليد 1
أصد@@ 1
ألبوم@@ 1
الألي@@ 1
الأنار@@ 1
السعي 1
الكهنة 1
الكوفة 1
المتنقلة 1
النشط 1
بدا@@ 1
بورتر 1
تخصصات 1
ثُ@@ 1
حيوي 1
خضر 1
صممت 1
فنا 1
قلبي 1
ملكًا 1
نائبا 1
وسج@@ 1
وشك 1
ونجح 1
ينما 1
ائياً 1
الأرجنتيني 1
الانهيار 1
الحام@@ 1
العقلي 1
المركزة 1
تجاوزت 1
تدوير 1
خراسان 1
خلط 1
صدق 1
ضل 1
غامضة 1
كنتيجة 1
مدفع 1
منون 1
نخبة 1
نسخت@@ 1
وشبه 1
يستند 1
1831 0.7823157773012068
أبعاد 1
احتياط@@ 1
الاقتص@@ 1
البدني 1
القذافي 1
باكو 1
بوجه 1
تفاقم 1
تكوين@@ 1
تمدد 1
خشبية 1
رياء 1
ستير@@ 1
سيلف@@ 1
ظهوره 1
كرز 1
لسي@@ 1
لكره 1
ماهر 1
مليئة 1
ميرة 1
ولان 1
ينبع 1
َر 1
أبوا@@ 1
أقر 1
إنّ 1
إيفان@@ 1
الآبار 1
الدين@@ 1
الساخنة 1
العراقيين 1
المالي@@ 1
المزدوجة 1
بالميدالية 1
بودابست 1
ترس 1
تنو@@ 1
حيط 1
ستخدام 1
صلي 1
فضت 1
قسم@@ 1
قيمته 1
ليعود 1
مةً 1
محظ@@ 1
نامية 1
وطريقة 1
وعبر 1
ويمثل 1
أنجي@@ 1
التاي@@ 1
الجيولوجي 1
السلوكيات 1
المشروعات 1
المواصفات 1
انب 1
بغ 1
تدر@@ 1
تراك 1
تطويره 1
تمري@@ 1
جواو 1
خمة 1
شستر 1
صت 1
عملوا 1
ماركيز 1
منغ 1
ويصبح 1
يدون 1
يفو 1
َّف 1
أجسام 1
أورلينز 1
البدو 1
التذكارية 1
التزامات 1
الجراح 1
الخريف 1
الرواسب 1
الفرضية 1
القائ@@ 1
الكونية 1
اللاتيني 1
المحاسبة 1
المكسيكي 1
الموجه 1
اِ@@ 1
بداياته 1
بعثات 1
بقرية 1
تتوافق 1
تتولى 1
تصاميم 1
تعقي@@ 1
جوف 1
رفة 1
سيليا 1
عقاب 1
فوزها 1
كلين@@ 1
كم2 1
لكتاب 1
للمسلمين 1
مصاب 1
مهار@@ 1
هندسية 1
والرياضة 1
والكتاب 1
ووجد 1
أبراج 1
أنباء 1
إدي 1
إعلانات 1
إيما 1
اسمين 1
البوب 1
العمل@@ 1
المتز@@ 1
المعاني 1
تفعل 1
حرارية 1
دريد 1
دِّ@@ 1
سفر@@ 1
عدها 1
كلب 1
لبدء 1
للانتخابات 1
هابسبورغ 1
والشعر 1
ومون@@ 1
Bob 0.33933892740831706
العميد 1
القاتل 1
المجري 1
المشارك 1
المعارضين 1
بالشكل 1
تنازل 1
خلع 1
راعات 1
ريَّة 1
سهيل 1
فهرنهايت 1
هانا 1
وحيث 1
يتصل 1
يضاف 1
ينَ 1
أفندي 1
الإمدادات 1
الترفيهية 1
المئوية 1
المشاه@@ 1
الممث@@ 1
اوم@@ 1
بيوم 1
تدريجياً 1
جميعهم 1
صفراء 1
غاي 1
فعالي@@ 1
كرت 1
لاحي 1
لتاريخ 1
للاض@@ 1
مجددًا 1
محرم 1
مسحوق 1
هائل 1
وبرنامج 1
وفتح 1
يا@@ 1
أعمالهم 1
البنجاب 1
السعيد 1
الطاولة 1
العظمي 1
اهتمامات 1
برميل 1
بطها 1
بلاء 1
ثني 1
ثيودور 1
زيتون 1
عشرينيات 1
غوميز 1
قارب 1
للمنظمة 1
موط@@ 1
مينا 1
مٍ 1
وارئ 1
والنقل 1
واندررز 1
وسف 1
وغرب 1
وقرا@@ 1
يوز 1
José 0.15665004097010093
ألبرتا 1
اخترا@@ 1
اسل 1
اسيا 1
الأدباء 1
الخزانة 1
الدكتوراة 1
الكتاب@@ 1
انتُخب 1
براهيم 1
روبرتسون 1
شوا@@ 1
غالي 1
فإن@@ 1
فالن@@ 1
للأفلام 1
متزايدة 1
متسابقاً 1
والب 1
وكول@@ 1
Johnson 0.24501613404764774
ar 0.041396975238119534
أعضائها 1
إيمي 1
التشري@@ 1
السرطانية 1
الشائ@@ 1
المتمثلة 1
المختصة 1
المساء 1
الموث@@ 1
بشعبية 1
تورنر 1
جثة 1
خات@@ 1
سانس 1
سوب 1
فرويد 1
ناك 1
نفقات 1
اسكت@@ 1
اطين 1
الدبلوماسي 1
السلوكية 1
المزايا 1
المصرفية 1
المقص@@ 1
المنشأة 1
تدين 1
ترة 1
تناع 1
ثم@@ 1
حلف@@ 1
ديز 1
رودولف 1
عبين 1
غلاسكو 1
فرض@@ 1
قياسية 1
ليوبولد 1
مابين 1
محتويات 1
مناق@@ 1
ووا@@ 1
ازدهار 1
افت@@ 1
الألقاب 1
المون@@ 1
النمطية 1
براءات 1
بورما 1
تتعامل 1
عراف 1
عري@@ 1
عيّة 1
غالب 1
لحن 1
لور 1
مديرًا 1
مسؤولين 1
منزلها 1
هزي@@ 1
والأمراض 1
وتعود 1
يزي 1
يصور 1
أليف 1
الإير@@ 1
الاستعمال 1
بيلبورد 1
تباين 1
تراوح 1
تولد 1
داك 1
فرا 1
فلور@@ 1
كني@@ 1
لتا 1
لمشروع 1
لِ 1
ممثلين 1
منف@@ 1
ناي@@ 1
نديون 1
هدفا 1
هلسنكي 1
وأماكن 1
وافر 1
يمث@@ 1
يولد 1
أفتتحت 1
أورلاندو 1
إنف@@ 1
ازه 1
التأهيل 1
التسوي@@ 1
التقاء 1
الحافة 1
العباسية 1
القنبلة 1
المؤه@@ 1
المعز@@ 1
انتقام 1
بالتر@@ 1
بندر 1
تألف 1
تلي@@ 1
جنسيا 1
سارع 1
شهاد 1
طيل 1
قيمت 1
لاتحاد 1
لام@@ 1
لمن@@ 1
ملحوظة 1
وجبل 1
يدرك 1
el 0.003422834550636884
on@@ 0.0699902334835287
أضرار 1
الأنباء 1
الإط@@ 1
الفتح@@ 1
المطبو@@ 1
باعتبار 1
تاز@@ 1
خواص 1
دفعة 1
طانة 1
عوبة 1
فائق 1
كمصدر 1
لعبه 1
مالها 1
نته 1
يرو@@ 1
240 1
Mike 0.31310039953734087
or@@ 0.06663964056616535
أسلوبه 1
ادير 1
الأولاد 1
الاقتراح 1
التحرر 1
التون@@ 1
الرمادي 1
القياسات 1
اللّ@@ 1
المتغير 1
المخر@@ 1
الملاعب 1
بالمر 1
بمن@@ 1
بهاء 1
تانغ 1
ترجمت 1
حالته 1
طوب@@ 1
فائز 1
فلويد 1
قاتها 1
قرطاج 1
مثالية 1
مربع@@ 1
مظاهرات 1
نجة 1
هاربر 1
يناي 1
49@@ 1
آني 1
الحمى 1
الدكتورة 1
المبارك 1
المدرسي 1
الهز@@ 1
بلوماس@@ 1
بنيامين 1
تأك@@ 1
جازان 1
جرين 1
خصيص@@ 1
زُ@@ 1
قيدة 1
كينت 1
وزو 1
وفى 1
يتس@@ 1
يريدون 1
32@@ 1
أُصدر 1
اتجاهات 1
اصطدام 1
الأني@@ 1
الحواجز 1
الرضاعة 1
الروبوتات 1
القاسية 1
المتبادل 1
المطبوعة 1
اندة 1
تائج 1
تسلا 1
تعزز 1
حكومي 1
دلالة 1
ريادة 1
سكانية 1
شارب 1
عبدالعزيز 1
كرون 1
كوز 1
لمحة 1
مستشفيات 1
نمية 1
ويعني 1
يحظر 1
يوصف 1
100,000 1
140@@ 1
إق@@ 1
ارعين 1
الجنسيات 1
الصالحة 1
الهرب 1
الهيمنة 1
بلون 1
تشام@@ 1
تعاونية 1
توفى 1
عاتها 1
فتهم 1
فيليكس 1
كود 1
مارسي@@ 1
وتد@@ 1
ومخت@@ 1
يدين 1
يزات 1
Jones 0.22540946859516953
أكسجين 1
احل 1
اقب@@ 1
اكتشافها 1
الأوكرانية 1
البرازيلية 1
البولي 1
التعاقد 1
العقب@@ 1
المهمات 1
النوعية 1
النيابة 1
انتشار@@ 1
بجنوب 1
تذهب 1
دده 1
دمرت 1
سوليفان 1
ضاحية 1
طويلا 1
عود@@ 1
فَ 1
قيّة 1
كاسترو 1
للمحترفين 1
للهندسة 1
ليزا 1
منتخبات 1
نيسة 1
هايمر 1
يتخذ 1
by 0.003909181339684119
أبلغت 1
أدخل 1
أوف@@ 1
اعتبارها 1
الأوبئة 1
التسمم 1
التقلي@@ 1
الديدان 1
الرادي@@ 1
الشعاب 1
اللاحق 1
المؤسسين 1
المثالي 1
المطر@@ 1
المنفردة 1
المنهجية 1
بسم@@ 1
بغي 1
تحريك 1
جنوباً 1
خو 1
راند 1
لاج 1
لسن 1
معادن 1
ناجي 1
ندت 1
ندل 1
نسن 1
واخ@@ 1
ووقع 1
يتأثر 1
استدع@@ 1
البياني 1
التيارات 1
بوتية 1
تفكك 1
ضب 1
طقوس 1
عجز 1
نادرًا 1
وزا 1
يحتفظ 1
يفا 1
يفوز 1
يوا@@ 1
استولت 1
اشة 1
الحارس 1
العلمانية 1
انيه 1
تشار 1
تعام@@ 1
تمتاز 1
تنش@@ 1
زز 1
سهلة 1
سيدات 1
قاذ@@ 1
لدي 1
ليستر 1
ماريلاند 1
مسين 1
معار@@ 1
مفاتيح 1
والقرى 1
ووزارة 1
يسير 1
6000 1
Arthur 0.2738555721260853
آباء 1
آبار 1
الاعلام 1
العنا@@ 1
المتط@@ 1
المنه@@ 1
الهدنة 1
برش@@ 1
بشراء 1
تزوج@@ 1
تغل 1
تكر@@ 1
جبا 1
عالمياً 1
لفئة 1
ليتوانيا 1
متسابق 1
محام 1
نسجة 1
نيها 1
man 0.0335602754700443
أُعيد 1
إف@@ 1
الأموي 1
الإلهية 1
الترج@@ 1
الجاف 1
الحريات 1
الحيتان 1
المتا@@ 1
بالتزامن 1
بلير 1
تشرف 1
تعبي@@ 1
جانس 1
زيمبابوي 1
عاملة 1
غذائية 1
لتغطية 1
لتن@@ 1
ليمان 1
مزود 1
ميذ 1
نفذت 1
يستطيعون 1
يشكلون 1
يوط 1
الآفات 1
الأساقفة 1
الافتراضي 1
الجسور 1
السائلة 1
السكن 1
الناقد 1
اليوغ@@ 1
اليونانيين 1
بطانة 1
بنائها 1
تق 1
سرا 1
سمها 1
شوب@@ 1
عاصفة 1
فلوريد 1
كلور 1
لبة 1
للجسم 1
هيلز 1
وأدت 1
ونز@@ 1
يتمكنوا 1
يوضع 1
أنهت 1
المسافات 1
المكت@@ 1
المنتدى 1
تصرف@@ 1
ثمن 1
جاتهم 1
حسام 1
ريغ 1
شحن 1
صرحت 1
صعد 1
فإنهم 1
مجرات 1
وتكر@@ 1
وموا@@ 1
يتعامل 1
يلتقي 1
Canadian 0.1563628846983506
University 0.030220710145009124
أخيرا 1
الألب 1
الإسكان 1
التخدير 1
المالك 1
المخزون 1
المواهب 1
تسمانيا 1
تشريعات 1
تشعر 1
جانبه 1
حسن@@ 1
دقي@@ 1
ريتشموند 1
زغ@@ 1
سلوفاكيا 1
سوز@@ 1
شبيه 1
عباد 1
عقار 1
عوا@@ 1
قبلها 1
قِبَل 1
ملاك 1
والفن 1
وتعلم 1
وعائ@@ 1
يسل@@ 1
يميا 1
ٍ@@ 1
َت 1
ِر 1
أرج@@ 1
الإيق@@ 1
الجانبي 1
السمع 1
العقدة 1
الفاعل@@ 1
المظاهرات 1
بالز@@ 1
جامعه 1
عقوبات 1
مهنية 1
هدفاً 1
ومرة 1
ويحدث 1
اتفق 1
الأثري 1
التشكيل 1
الرملية 1
النقابات 1
بابلو 1
بايرن 1
تسك@@ 1
حازت 1
حضرت 1
روكي 1
صعدة 1
طبا@@ 1
غذاء 1
فعليًا 1
ممتلك@@ 1
والنق@@ 1
يرت 1
يسك@@ 1
أعماق 1
إقرار 1
احت@@ 1
استُخدم 1
افتتاحه 1
الخاضعة 1
الرَّ@@ 1
العدوان 1
الفات@@ 1
المحف@@ 1
باتي 1
بسب@@ 1
بكونها 1
تفصي@@ 1
جولي@@ 1
ريحة 1
صافي 1
عه@@ 1
كظهير 1
لممارسة 1
متع 1
مقربة 1
نجاحاً 1
نيكسون 1
والمز@@ 1
وحسن 1
ودُ@@ 1
وسعت 1
وقانون 1
ومجمو@@ 1
Chris 0.3119184149334683
SS 0.30248683826232586
أرشي@@ 1
الإرادة 1
التنس 1
الجاه@@ 1
الذرات 1
القصيم 1
المضيفة 1
المماثلة 1
الوسط@@ 1
بركان 1
بوش@@ 1
بيش@@ 1
تاجها 1
تشاك 1
تماثيل 1
حروف 1
زاكورة 1
سكان@@ 1
سهول 1
شخاص 1
عيادة 1
كرى 1
كوى 1
لورد 1
مبان@@ 1
نشاط@@ 1
والمحيط 1
ويبدأ 1
Walter 0.26068013515198507
الأعلام 1
الإتحاد 1
الرخ@@ 1
السف@@ 1
الطائف 1
العامين 1
المدمرة 1
بعبارة 1
بمب@@ 1
جْ@@ 1
خصوصية 1
خلاق 1
راتي@@ 1
سببًا 1
سفن@@ 1
صق 1
كرًا 1
محف@@ 1
ناش 1
والدولة 1
والدينية 1
ودبلوماسي 1
وصار 1
يحظى 1
اعتقل 1
الإلهي 1
البروست@@ 1
التم@@ 1
الناقل 1
الونيا 1
تقان 1
تهمة 1
ثانوي 1
جدت 1
جماع 1
دارس 1
دالي 1
ديلا@@ 1
سرعات 1
عبي 1
علب 1
عيه 1
فقراء 1
متزوجة 1
مصاد@@ 1
مناهج 1
موناكو 1
والتحكم 1
والجماعة 1
وتقول 1
وشكل 1
وعارضة 1
يتسع 1
يكونون 1
آثاره 1
إسلام 1
اختصاص 1
اشترت 1
التخصص 1
الفنادق 1
المحلول 1
المضاعفات 1
الوقوف 1
اليب 1
بوتر 1
تايلر 1
توريس 1
تيكو 1
علمه 1
عيب 1
غرافيا 1
فوهة 1
لِّ@@ 1
مالا 1
ماندي 1
مركزاً 1
مقدمي 1
والأردن 1
والحصول 1
ولوس 1
يتوقع 1
أوزب@@ 1
إتفاق 1
ارعة 1
البيض@@ 1
البُ@@ 1
الجلوكوز 1
الساب@@ 1
الشك 1
المايا 1
بحالة 1
بيكا 1
تدى 1
زوجات 1
ستية 1
سيمبسون 1
كاو@@ 1
للجامعة 1
مراقب@@ 1
ملامح 1
نوح 1
وجام@@ 1
وحالة 1
وقتٍ 1
22.@@ 1
23.@@ 1
إنتاجية 1
الاستحواذ 1
الجزي@@ 1
المنقولة 1
بالجيش 1
تعدي@@ 1
حجرية 1
دارين 1
دبلوماسية 1
رشح 1
سُج@@ 1
غوس 1
غُ@@ 1
ليزلي 1
وعند@@ 1
ونظرا 1
يكمن 1
1810 0.7596127191713075
أحجام 1
أخلاقية 1
أعير 1
إضافةً 1
اختارت 1
اشتراكية 1
التهديدات 1
الدعارة 1
الساخن 1
الشوا@@ 1
الصديق 1
المتطورة 1
المشتبه 1
المكاتب 1
المناخي 1
الموالية 1
باللقب 1
تتوقف 1
تصنيفها 1
ثبات 1
حدودها 1
حص 1
حفلة 1
حفيد 1
حكايات 1
دراك 1
زيز 1
شميت 1
للفضاء 1
ملائمة 1
ملح 1
مومباي 1
نهب 1
وأجزاء 1
والجزر 1
ونيوم 1
يشي@@ 1
.في 1
21.@@ 1
68@@ 1
إيرانية 1
اتص@@ 1
اطا 1
الإمبراط@@ 1
العاز@@ 1
المنتخبات 1
المهبل 1
بيان@@ 1
تطابق 1
جارية 1
رومي@@ 1
زكريا 1
سلمة 1
سيُ@@ 1
لينكولن 1
مدفو@@ 1
مستعمرات 1
هرية 1
والكثير 1
وديوهات 1
57@@ 1
75@@ 1
أفلامه 1
اجا 1
الخنزير 1
الساك@@ 1
المنوية 1
حمدي 1
رعاي@@ 1
زينب 1
سخة 1
صديقة 1
فاءة 1
كهف 1
لتش@@ 1
لشخص 1
مانة 1
مترا@@ 1
مجهولة 1
نجرة 1
نُ 1
والوقاية 1
وتدمير 1
ووفقاً 1
1826 0.8252977042544709
an@@ 0.04387423435373869
أسق@@ 1
إمي@@ 1
الجميل 1
الحزام 1
السادات 1
السبيل 1
القرم 1
المختلطة 1
النظامية 1
باتري@@ 1
تاريخياً 1
ترام 1
جسيمات 1
جيني@@ 1
ذُ@@ 1
شفي 1
صا 1
صوفي 1
عرع 1
مثلي 1
موتو 1
هايز 1
يعتبرون 1
10.@@ 0.6755673783583945
1814 0.669358734585555
l@@ 0.06351979556331884
ارون 1
اصرة 1
الأمانة 1
الإنفلونزا 1
الجذر 1
الحافلات 1
الحواسيب 1
الفاش@@ 1
المتغيرة 1
المساحات 1
النعمان 1
بكونه 1
تياز 1
جماهير 1
جنه 1
حدها 1
شم@@ 1
فإنَّ 1
كارلو 1
موقفه 1
ميكي 1
نظيف 1
نقعات 1
وتطبي@@ 1
وعلماء 1
يرين 1
يقر@@ 1
es 0.008031201913741421
أعرا@@ 1
أقاليم 1
أوتاوا 1
الإحصائية 1
الاستفتاء 1
التوجيهية 1
الديمقرا@@ 1
انسداد 1
بالمرحلة 1
برازيل 1
تحد 1
جث@@ 1
جمادى 1
دخوله 1
ذَ@@ 1
سوار@@ 1
شم 1
ظهورها 1
عدت 1
عيش 1
غوط 1
كتابًا 1
كرافت 1
للشيخ 1
مؤدية 1
نانسي 1
واتهم 1
67@@ 1
7- 1
أميال 1
الأرمنية 1
الأعداء 1
الخمسين 1
الزبير 1
الشمال@@ 1
العاط@@ 1
الفواكه 1
المئات 1
الماس@@ 1
بتكلفة 1
بدفع 1
بوظ@@ 1
تحدي 1
رياضياتي 1
قام@@ 1
كتابتها 1
كريت 1
متعل@@ 1
مديراً 1
نظري@@ 1
والبط@@ 1
يحل 1
يعين 1
2.0 1
اشترى 1
الإلكترون 1
التمثال 1
الجد 1
الرائعة 1
الرفي@@ 1
الفوس@@ 1
القلبي 1
تقسي@@ 1
تقليص 1
دك 1
ذرا@@ 1
زق 1
سكري@@ 1
ضياء 1
علمين 1
فنسنت 1
فيدة 1
قطرها 1
قوتها 1
كارا 1
لرعاية 1
للسينما 1
ليندا 1
نسخ@@ 1
نقاد 1
وتهدف 1
135 1
أغانيه 1
أقراص 1
أوا@@ 1
إميل 1
استئناف 1
الأولوية 1
الجوع 1
الجيولوجيا 1
العز@@ 1
المسؤولون 1
اهتمامًا 1
باراك 1
بتد@@ 1
تفاوت 1
تفرض 1
ثور 1
جزء@@ 1
درويش 1
ديق 1
شروع 1
ضير 1
للث@@ 1
للدلالة 1
معان@@ 1
مونرو 1
والبحر 1
يتوافق 1
يحكي 1
… 0.1320899202257344
أتت 1
الالت@@ 1
الانس@@ 1
المحامي 1
المصف@@ 1
النقود 1
باراة 1
بانيا 1
تريني@@ 1
تزامن 1
خيول 1
ذير 1
ستيلاء 1
فوزي 1
كومات 1
لجأ 1
لمقاطعة 1
مراسم 1
مفص@@ 1
واغ@@ 1
وجان 1
أوت 1
إلّا 1
الأمثل 1
الخميسات 1
القطيف 1
بعية 1
بيرل 1
تأهيل 1
جاد@@ 1
دائرية 1
دماغ 1
رايموند 1
روين 1
زبر@@ 1
شيك 1
عزز 1
عصاب 1
ـــ@@ 1
فاهيم 1
قاط 1
واته 1
وانين 1
وشهد 1
يشة 1
1825 0.7687410309309847
ءت 1
أسرى 1
الإدرا@@ 1
الجائحة 1
الصخر 1
الصلح 1
الضخم 1
الطحالب 1
المسارات 1
بشري 1
بليك 1
بوتو 1
تنة 1
توظ@@ 1
ثعل@@ 1
رانيا 1
رقيقة 1
صحبة 1
لأعمال 1
لبلدية 1
للحالات 1
للخدمات 1
مجد 1
مقدار@@ 1
نقوش 1
نمساوي 1
هندرسون 1
هورن 1
وقاد 1
ونج 1
ونهر 1
ِي 1
53@@ 1
DNA 0.4623066150862472
إلكترونيات 1
الإنم@@ 1
الحزب@@ 1
السمنة 1
الفاتيكان 1
القيامة 1
الهندسي 1
انوي 1
برلماني 1
تصويره 1
تطبيقها 1
تطهير 1
جويل 1
زاز 1
صاب 1
فإنّ 1
كمحترف 1
مساف@@ 1
والآن 1
وضعية 1
يحملون 1
يسكن 1
750 0.8666941204079402
أستاذة 1
أمان 1
الإجابة 1
الإسرائ@@ 1
التباين 1
التحاق 1
التنفسية 1
العقاقير 1
القمرية 1
انخفاض@@ 1
بوند 1
تدا@@ 1
خاط@@ 1
ذوا 1
طابق 1
فمثلا 1
ملون 1
مميزات 1
منطق@@ 1
موز 1
ندن 1
نشيط 1
هاجمت 1
ورام 1
يحد 1
ينغز 1
الاحتم@@ 1
التضاريس 1
الفلسط@@ 1
القل@@ 1
المستقبلات 1
تشير@@ 1
جيداً 1
راتيجي 1
رطل 1
رينية 1
شارون 1
شهرًا 1
صلاحيات 1
ضئيلة 1
عدًا 1
عطى 1
عقبة 1
عيوب 1
فأن 1
فضل@@ 1
قيح 1
كمل 1
لبني 1
مؤق@@ 1
مسييه 1
مودي 1
نجية 1
نين@@ 1
والعلماء 1
وفن@@ 1
ومنه 1
يهم 1
أسهل 1
أولمبي@@ 1
الآتي 1
الأمازيغية 1
الزوجين 1
العنب 1
الهرمي 1
بعاث 1
ترز 1
رسون 1
ضيفت 1
طباعة 1
قوته 1
لفرقة 1
للإسلام 1
ماه@@ 1
مفيد 1
مورا 1
ندونيسيا 1
وخارجها 1
ِم 1
128 1
أبسط 1
أخته 1
إشرا@@ 1
الأسبوعية 1
الترشيح 1
الخضوع 1
العشائر 1
المستقبلي 1
المفاجئ 1
الناتو 1
اهتمام@@ 1
تحلل 1
سهال 1
عرب@@ 1
فح 1
كلٍ 1
للحيوانات 1
هامًا 1
وأصدر 1
وأي 1
واضحًا 1
ينغهام 1
أصله 1
اقوت 1
الحديدة 1
الخادم 1
السعة 1
السكة 1
القح@@ 1
المتبادلة 1
بأ 1
برونو 1
بنفسها 1
بَّ@@ 1
ثالث@@ 1
جيبسون 1
ذل 1
زيدان 1
سفيلد 1
سلكي 1
شخصاً 1
فيلمه 1
كونراد 1
مؤخراً 1
مقبول 1
مكانية 1
ميكانيكا 1
والأسود 1
وباكستان 1
ومقد@@ 1
0.5 1
20.@@ 0.9957744772935885
24.@@ 1
25.@@ 1
Taylor 0.2985086067473757
ol@@ 0.08178590439313022
w@@ 0.08042500471039611
أساسيًا 1
الإغاثة 1
الادعاءات 1
الحضري 1
المسر@@ 1
بالان@@ 1
تنطبق 1
جوي@@ 1
حذف 1
حيح 1
درتها 1
رأيه 1
عديم 1
قراره 1
للان@@ 1
مثلث 1
محق@@ 1
مدا@@ 1
هاين@@ 1
والدعم 1
وقطع 1
ولمة 1
يلات 1
4.5 1
9,@@ 0.8725990390936453
آغا 1
أحفاد 1
أسه 1
الأربعين 1
الاستماع 1
السريانية 1
العقبة 1
المتن@@ 1
المد 1
الممر 1
الوي@@ 1
بأحد 1
بالانقراض 1
بالغين 1
تثبيط 1
تصريف 1
حلق 1
حياز 1
ستير 1
سينية 1
فقيه 1
فيرغسون 1
فيلا@@ 1
قائلة 1
قدرت 1
مسرحي@@ 1
ممر@@ 1
هواء 1
هوة 1
وأفريقيا 1
يدخ@@ 1
آز@@ 1
أرضه 1
الإقط@@ 1
التكتي@@ 1
التنوير 1
الحج@@ 1
الخيانة 1
الغواصات 1
الفعاليات 1
الكفاية 1
المشار@@ 1
باق@@ 1
تفاعل@@ 1
تفقد 1
تكاثر 1
تكس 1
خوذ 1
داية 1
رتي@@ 1
سليمة 1
ضح@@ 1
طاة 1
قيَّة 1
مسؤولي 1
ملازم 1
ملين 1
موسم@@ 1
والتخ@@ 1
وزع 1
ويه@@ 1
يبق 1
os@@ 0.10441175988785305
أركنساس 1
إنَّ 1
احتفظ 1
استُخدمت 1
الأيرلندية 1
البيطري 1
التدريجي 1
التدوير 1
الكثيرة 1
المؤشرات 1
المدافعين 1
المقب@@ 1
الناف@@ 1
الهوائي 1
الواجب 1
بالمعنى 1
تعتقد 1
تعدّ 1
تكر 1
جيش@@ 1
حرب@@ 1
دب@@ 1
ديفيدسون 1
ذراع 1
زائر 1
لفون 1
لمؤسسة 1
ميتة 1
نهايته 1
يوفنتوس 1
استضافة 1
الأقدم 1
الإف@@ 1
التصلب 1
الحبي@@ 1
الرباعي 1
الممت@@ 1
المهن 1
امتياز 1
اهة 1
باريت 1
بعناية 1
بمعهد 1
حاتم 1
رائع 1
رفضه 1
سبه 1
صنعت 1
لحوم 1
مشاركتها 1
معتدل 1
ميرال 1
والديها 1
وضاء 1
وفهم 1
ومشار@@ 1
World 0.034901183737545576
إقامته 1
اسك 1
الأمريكتين 1
الامتح@@ 1
التجديد 1
التجه@@ 1
الويل@@ 1
بالمياه 1
تخص 1
تيال 1
جديدا 1
ختام 1
ضِ@@ 1
فام@@ 1
كينغستون 1
لتصميم 1
للمجموعة 1
مانيا 1
متوقع 1
ملاح@@ 1
هْ@@ 1
ونو 1
البون@@ 1
الرابط 1
الكراهية 1
اللبن 1
الموسيق@@ 1
النظرة 1
بتحويل 1
تراف 1
ثل 1
حضارات 1
خراج@@ 1
سانية 1
شلل 1
لحضور 1
لمص@@ 1
معاداة 1
والأعراض 1
والأل@@ 1
ومك@@ 1
يمور 1
Q 0.3817295192570402
آمر 1
أخيرة 1
استثمار 1
البني@@ 1
الحقي@@ 1
السويسرية 1
العضوي 1
الكوي@@ 1
الهائلة 1
براد 1
بٍ 1
تصفية 1
ثيين 1
جاته 1
خافيير 1
دايات 1
درهم 1
ركية 1
طبيبة 1
عزي@@ 1
فخ@@ 1
فضية 1
فولك 1
كتابته 1
كنات 1
لغي 1
ليُ@@ 1
مارش 1
مبل 1
مخص@@ 1
موض 1
مينغ 1
نافية 1
نيكول@@ 1
والثانوية 1
والرياضيات 1
أجز@@ 1
أمريكيًا 1
استيعاب 1
الحس@@ 1
الخالق 1
اليسو@@ 1
باراغواي 1
بحركة 1
تباس 1
تتج@@ 1
زمان@@ 1
زنط@@ 1
صاغ 1
ضرار 1
قديماً 1
كشافية 1
لاحظ@@ 1
للتحقيق 1
لمختلف 1
نويل 1
يشرف 1
56@@ 1
Ch@@ 0.06996452977524723
أخبر 1
اعتذ@@ 1
الكاميرون 1
المحاكاة 1
المراجعة 1
المفرو@@ 1
ايم 1
بعمليات 1
بينية 1
تمددت 1
رأت 1
سيَّة 1
سّ@@ 1
غربا 1
كرب@@ 1
معقد 1
والمنش@@ 1
وجزء 1
ومعظ@@ 1
ونَ 1
التبت 1
بوق@@ 1
توسط 1
تيح 1
دايا 1
سبورت 1
سيؤدي 1
طيرة 1
فصيل 1
فنانة 1
لود 1
منافس@@ 1
منبج 1
نزوي@@ 1
والمجمو@@ 1
ويرتبط 1
1829 0.7586233735104111
اختيارها 1
الأقدام 1
الإبداع 1
الإدار@@ 1
الاسكت@@ 1
التمهيدية 1
التناس@@ 1
التوس@@ 1
السليم 1
الع 1
العيوب 1
المحص@@ 1
المستهدفة 1
المقياس 1
تناز@@ 1
جاكرتا 1
صرة 1
قادت 1
قاسية 1
كاش 1
كمدير 1
لطلب 1
للسرطان 1
مجزرة 1
ناظر 1
واليس 1
واليوم 1
وظيفته 1
وفريق 1
يحمل@@ 1
يقولون 1
إدنبرة 1
اصبح 1
الصفة 1
القمع 1
المراهقين 1
الموز@@ 1
الوح@@ 1
بتوفير 1
بولونيا 1
تتصل 1
تَ 1
ثُمَّ 1
رحمة 1
شاط 1
شب 1
لوح@@ 1
ليفه 1
مسؤولي@@ 1
وخلفه 1
ورغ@@ 1
ومحر@@ 1
ووجود 1
يتعادل 1
يفوق 1
أكسدة 1
أمية 1
إنجازات 1
الإيطاليين 1
التوفي@@ 1
الكش@@ 1
المشعة 1
المصريون 1
المواشي 1
النبيذ 1
النفطية 1
ترش@@ 1
ثالثة 1
دولف 1
سويسري 1
غنائية 1
غوب@@ 1
كوميديا 1
لحكم 1
مامات 1
مثبطات 1
محاول@@ 1
محط@@ 1
وبخاصة 1
ورث@@ 1
وماي@@ 1
ويليس 1
َى 1
Andrew 0.3023494711884378
اثون 1
اكن 1
الأسرى 1
الأفغانية 1
الإنش@@ 1
الصليبيين 1
المقتر@@ 1
المناقشات 1
برتغال 1
تقيم 1
عربات 1
لمناقشة 1
ميلز 1
نتيجةً 1
نزي 1
هاردي 1
وزي 1
ومط@@ 1
يمن@@ 1
ينظم 1
ch@@ 0.0467572405763338
أخبر@@ 1
أُخرى 1
إنشاؤه 1
الدعوى 1
الرسومات 1
الزواحف 1
الزوجية 1
الشاح@@ 1
بيرسون 1
تدريبية 1
تقالي 1
تمك@@ 1
ثى 1
حنبعل 1
رافاييل 1
سايد 1
صناعات 1
لسلسلة 1
لقوا 1
ميكانيكية 1
ناغ@@ 1
وأمراض 1
وإدار@@ 1
وارث 1
والثالثة 1
basketball 0.25260565986917277
أفلاطون 1
أمكن 1
اختصارًا 1
ادئ 1
الأهم 1
التقسيمات 1
الجالية 1
الجندرية 1
الحرجة 1
الحوا@@ 1
السماوية 1
الشخص@@ 1
العمق 1
المقترحة 1
المنظور 1
اندر 1
باته 1
بولو 1
تسرب 1
تفهم 1
تنفيذي 1
جسم@@ 1
دعاية 1
زياء 1
ضيقة 1
عُرض 1
غريغ 1
غيرة 1
قياً 1
مأهولة 1
مناه@@ 1
وإسرائيل 1
وعرف 1
وقائع 1
ويز@@ 1
102 0.8705380900828211
1828 0.7400253198014957
أليك@@ 1
الألبان 1
الأمواج 1
الأيرلندي 1
الإطاحة 1
الريشة 1
انسون 1
بعلبك 1
بنشاط 1
تكامل 1
جدها 1
حداث 1
خطية 1
دلية 1
شاة 1
صوبة 1
كلاب 1
للتأكد 1
مفاجئ 1
موسة 1
نفت 1
ويلة 1
وينتهي 1
ينون 1
1824 0.769508329393369
99@@ 1
الإجازة 1
البئر 1
التوأم 1
الجذعية 1
الجور@@ 1
المجردة 1
الممكنة 1
الناجين 1
بيدي 1
تنس@@ 1
دراية 1
شهود 1
صداقة 1
طولكرم 1
فضيحة 1
لكتابة 1
محم@@ 1
وتصني@@ 1
وثلاثين 1
وديو 1
115 0.9177507114854845
320 1
أصابع 1
إدخ@@ 1
إيمان 1
الأنبوب 1
الاتجار 1
الدنماركي 1
الضغوط 1
اللفظ@@ 1
المكثف 1
الملايين 1
امو 1
باحة 1
بقا 1
حجرة 1
رأس@@ 1
شاشات 1
ضخ 1
ضعت 1
عرفة 1
متفاوتة 1
محليًا 1
نتائ@@ 1
والآثار 1
وقين 1
ووي@@ 1
البوش@@ 1
الحلز@@ 1
السياحي 1
العكسي 1
الكروا@@ 1
المحاولة 1
المصنف@@ 1
المعادلات 1
المنصورة 1
النطق 1
انتس 1
بالطريقة 1
تكاب 1
تناولت 1
تنخفض 1
جوس@@ 1
حلم 1
دائية 1
روبية 1
غوغ@@ 1
ــــ@@ 1
فرن 1
فيجب 1
كعب 1
لأعضاء 1
مفاعل 1
ناجح 1
والتوزيع 1
وتخ@@ 1
ورئ@@ 1
ومدرب 1
يافا 1
ّون 1
إيز@@ 1
اكي@@ 1
الانك@@ 1
التبرع 1
الكهربية 1
المعالجات 1
بغة 1
بفرنسا 1
تأه@@ 1
زميل 1
سيًا 1
صدى 1
عصبة 1
قبه 1
لخلق 1
ماكسويل 1
مفصل 1
وارك 1
والسلام 1
وهولندا 1
يقسم 1
أخذه 1
إسلا@@ 1
البارز 1
البروتستانت 1
التعاونية 1
الحوي@@ 1
الزفاف 1
الشيوعيين 1
الصفائح 1
المثانة 1
المفاتيح 1
الهام@@ 1
بالدوين 1
بوبكر 1
تداول 1
تفاق 1
جولات 1
شجع 1
شعرت 1
صنع@@ 1
طعة 1
عثماني 1
قلاع 1
لفه 1
لوا@@ 1
مشروعات 1
منعت 1
مواز@@ 1
وطرق 1
يتناسب 1
يليه 1
44@@ 1
66@@ 1
ازدهرت 1
الأجر 1
التعل@@ 1
التوقيت 1
الخسارة 1
الدروس 1
الراين 1
السامي 1
الغلو@@ 1
الفاشية 1
المفعول 1
بيَّة 1
توقعات 1
جزئيا 1
جواد 1
حظيت 1
حليب 1
خوارزمية 1
ديمقرا@@ 1
صغار 1
طاع@@ 1
عجلة 1
عزى 1
عملي 1
غرض 1
قصائية 1
ماني@@ 1
ناض@@ 1
والمسي@@ 1
وتيا 1
وخارج 1
يتحقق 1
يوري 1
190 1
Ar@@ 0.06652774984781282
White 0.14074107886393844
أبنائه 1
الاول@@ 1
التلاميذ 1
الجيري 1
الدموي 1
الطوب@@ 1
الفوري 1
المكتسبة 1
بويز 1
تشكيلها 1
تماثل 1
حديثي 1
حين@@ 1
شابة 1
كيّة 1
لدفع 1
لصنع 1
ناشفيل 1
هيكلة 1
والجزء 1
وكوريا 1
يمين@@ 1
COVID 0.3251714796004318
أصلية 1
أنقرة 1
إيفا 1
الألواح 1
البحريني 1
التابعين 1
الصومالية 1
اللقاحات 1
المتم@@ 1
اموس 1
بدخول 1
تشغي@@ 1
تصار 1
تيريزا 1
سبول 1
شول@@ 1
فريات 1
لوبي@@ 1
ماوية 1
مقاتلة 1
هولندية 1
وابق 1
109 0.9619869581931506
1600 0.8960034058384914
ءا 1
آيلاند 1
أكولات 1
اءها 1
ابير 1
استعمل 1
الأخذ 1
الأنصار 1
المليون 1
الموسوعة 1
بادة 1
بالفشل 1
تفعيل 1
جمالي 1
جولي 1
حالي 1
حشرات 1
خريجي 1
دانا 1
روقة 1
سلون 1
سنر 1
سياً 1
لدول 1
لغزو 1
مخطوطة 1
معمر 1
مفهوم@@ 1
نازل 1
والمعرفة 1
وجبة 1
وعاء 1
أسلا@@ 1
الأحاديث 1
الاستسلام 1
الديمقراطيين 1
الرتبة 1
الموق@@ 1
الهواة 1
امور 1
بريا 1
بفارق 1
تملة 1
توية 1
جاو@@ 1
جرو@@ 1
راما 1
سينمائية 1
صارمة 1
صوتي 1
ضلي 1
فيني 1
قوارب 1
مبالغ 1
مجمل 1
مينيا 1
واعتبر 1
والني@@ 1
يلد 1
أخيراً 1
أفلا@@ 1
الجارية 1
السوفي@@ 1
القوم@@ 1
المفاج@@ 1
باض@@ 1
بالتأكيد 1
بجدية 1
بنهاية 1
تدعي 1
تنع 1
توض@@ 1
حيات@@ 1
داثة 1
دينيا 1
رينجرز 1
سافرت 1
شهرته 1
قرآن 1
كازاخستان 1
لمس@@ 1
محله 1
معجم 1
موث 1
هيوم 1
وترتبط 1
وكب 1
Wilson 0.2747007129842485
إبد@@ 1
إني@@ 1
استقرت 1
التجميل 1
التحلل 1
الحامل 1
الكافية 1
المعترف 1
النوافذ 1
بوذا 1
دومينيك 1
رؤيتها 1
ستاني 1
صدا@@ 1
ظواهر 1
فولر 1
قانون@@ 1
ليكس 1
منقو@@ 1
ميها 1
ومؤسسة 1
ومتصدر 1
وناد@@ 1
يغير 1
أعتقد 1
أنجيلو 1
إدغار 1
اجتم@@ 1
استر@@ 1
الافتتاحية 1
البنغ@@ 1
الحار@@ 1
الحافظ 1
القرو@@ 1
المرك@@ 1
الميكان@@ 1
بوابات 1
حتّى 1
حديثاً 1
رفية 1
سبانية 1
سمر 1
ضلع 1
طيون 1
فوية 1
قور@@ 1
لكلية 1
لونه 1
مشي 1
ناص@@ 1
واسم 1
وتقليل 1
ومتحف 1
يزعم 1
AL@@ 0.5322065420865083
أرسل@@ 1
الانج@@ 1
التائية 1
الشوك@@ 1
الصنف 1
الفريقين 1
الكثيرين 1
المحاماة 1
براين 1
تدرج 1
تركيبة 1
تسجيله 1
تضاعف 1
تيلي@@ 1
حظي 1
سيرجيو 1
فحص@@ 1
لانتخاب 1
مباد@@ 1
مبراطور 1
مثير 1
محطه 1
مروا 1
معمارية 1
مولده 1
مونية 1
ميش 1
والقوة 1
وتاريخ@@ 1
with 0.0034352909772794307
أمره 1
اختصاراً 1
الإبداعية 1
التجميع 1
الحاس@@ 1
الحجاب 1
الرجوع 1
الفين 1
القبطية 1
بلور 1
تحطم 1
ترقية 1
تسلم 1
جانسة 1
رقية 1
زائدة 1
شنت 1
عفرين 1
غام 1
فورة 1
كلور@@ 1
ليبي 1
مانيين 1
نيكولاي 1
والإعلام 1
والحد 1
وتس 1
وتعرض 1
وخلي@@ 1
وينتج 1
أراض@@ 1
إنترتينمنت 1
الأقراص 1
البلدات 1
النيتروجين 1
الهاشمي 1
بسعة 1
بمركز 1
توافر 1
ختار 1
خدماتها 1
خصصت 1
دعمه 1
ساكن 1
ستاف@@ 1
عشوائية 1
عوف 1
غاس 1
فوري 1
للفترة 1
محاصيل 1
ميدل@@ 1
هدسون 1
واشتهر 1
والتصميم 1
يشي 1
يقودها 1
111 0.9458475434080004
1819 0.8357263159227665
أوا 1
إنق@@ 1
الأبهر 1
الصع@@ 1
الضمان 1
المؤكد 1
الهات@@ 1
امرات 1
تحوي@@ 1
تصريحات 1
تعاطي 1
توري 1
حتَّى 1
دامت 1
دوث 1
ساء@@ 1
شكله 1
فأصبح 1
فراغ 1
فـ@@ 1
فكر@@ 1
لتشغيل 1
لزيارة 1
لفرنسا 1
مضت 1
معاني 1
منغوليا 1
منفذ 1
موطنه 1
وسان 1
وسون 1
وفن 1
ومعالجة 1
أولمبياد 1
التربوية 1
التعليق 1
الراهن 1
القَ@@ 1
المحسن 1
المطارات 1
المظلمة 1
الهض@@ 1
اوات 1
بالتحديد 1
بداء 1
سلسلات 1
شفيات 1
غوا 1
فارسية 1
قصبة 1
لافت@@ 1
للبيع 1
مبياد 1
متاح 1
متطورة 1
منتزه 1
والنباتات 1
وبالتحديد 1
ونيين 1
يتحدثون 1
104 0.8797378085699371
1822 0.8010544755646044
الاستهلاكية 1
الشيخوخة 1
القوارب 1
الكاتدرائية 1
الكوب@@ 1
الوحش 1
امان 1
بارنز 1
بالحكم 1
تمن@@ 1
خون 1
دائي 1
رمزي 1
سكت@@ 1
شهيرة 1
لتحويل 1
للفنان 1
مجلدات 1
مصنوع 1
معادية 1
ناهز 1
والأجهزة 1
والألمانية 1
والبحوث 1
والحديث 1
يبر@@ 1
26.@@ 1
أجري 1
أردني 1
إنشائها 1
إياه 1
اطلاع 1
اعده 1
البصر 1
الرزاق 1
الصرب 1
المجتمعي 1
المحدود 1
المذاهب 1
المصاد@@ 1
بحثًا 1
بعمق 1
تحقي@@ 1
ترقيته 1
تقة 1
تونسية 1
داني@@ 1
سفين@@ 1
سلر 1
صلاحية 1
طالبًا 1
عضوٌ 1
فيزيائية 1
كاة 1
للمشروع 1
لوقف 1
محادثات 1
مقار@@ 1
نسيق 1
والعدالة 1
والمغ@@ 1
وتربية 1
ورسام 1
وقرية 1
27.@@ 1
ine 0.06869964144802942
الأزمات 1
الابنة 1
الرئتين 1
الرض@@ 1
الصادق 1
الطلابية 1
العينين 1
المعتادة 1
المفقودة 1
المقارن 1
بعقد 1
تاو 1
تكز 1
جنوبًا 1
خبارات 1
خمس@@ 1
دٌ 1
ذري@@ 1
ذهبي 1
ستيرون 1
سكين 1
شاق 1
شلي@@ 1
شهري 1
صنة 1
علانية 1
فيرا@@ 1
لبية 1
للتخلص 1
محاضرة 1
مستخدمة 1
نائية 1
وئ@@ 1
واقترح 1
والكنيسة 1
ويشكل 1
اعتمادا 1
الخصوبة 1
الرياضيين 1
الستي@@ 1
بالبحث 1
تارا 1
حا@@ 1
دستورية 1
زيزات 1
طفال 1
كولمان 1
لمزيد 1
مساواة 1
مونتغ@@ 1
نغاف@@ 1
نوبات 1
وبدلاً 1
وحول 1
ومجلة 1
Francis 0.2740998263094901
أحواض 1
أفع@@ 1
أنطاكية 1
ارتفاعات 1
الإش@@ 1
التشو@@ 1
النوا@@ 1
الورقية 1
باعت 1
بالاعتماد 1
بالتعادل 1
بولندي 1
تامينات 1
تتويج 1
تعي@@ 1
تفظ 1
تقلص 1
ددات 1
ساعده 1
سلف 1
شنغهاي 1
كليهما 1
لأولئك 1
لقات 1
محاطة 1
مصدا@@ 1
مفه@@ 1
والقط@@ 1
وليم 1
يمثلون 1
k@@ 0.06233796470894612
أثري 1
إتمام 1
إدارتها 1
ائتلاف 1
ادس 1
استخدمها 1
الانقراض 1
الخطية 1
الطرد 1
القابضة 1
بوذية 1
تقف 1
جاين 1
رادات 1
سابع 1
فرانس 1
قراء@@ 1
للاهتمام 1
لمكتب 1
مختص@@ 1
معاص@@ 1
ناس 1
نفية 1
نوم 1
نينتندو 1
هايد 1
والجمعية 1
والمد@@ 1
وملح@@ 1
ونهم 1
يال 1
يرسل 1
1.3 1
58@@ 1
ائبة 1
الأسس 1
الجنائي 1
الداعمة 1
العيد 1
الملونة 1
الوحشية 1
بالصينية 1
بانكس 1
ترميز 1
تكلم 1
حيلة 1
سكوب 1
شْ@@ 1
طرت 1
فنادق 1
فيّة 1
قَ 1
لكية 1
مربعة 1
مرونة 1
معناه 1
معية 1
نوافذ 1
هدت 1
وآخرين 1
وخي@@ 1
وودز 1
ينغن 1
103 0.9136959325855613
الخبرات 1
الزج@@ 1
السل 1
الشك@@ 1
الطاهر 1
النازيين 1
النقيب 1
ترافق 1
تفتح 1
جاوة 1
ريفي 1
فالنسيا 1
لإنقاذ 1
ماض 1
مبك@@ 1
نسل 1
هيم 1
والأوعية 1
وبورت 1
وتبدأ 1
وفرض 1
ووجدت 1
يعيد 1
يناقش 1
100@@ 1
أجنحة 1
أورام 1
إيمان@@ 1
ائِ@@ 1
استفادة 1
الأغلب 1
الزي 1
العبور 1
الفخار 1
الفلبينية 1
الفيروسي 1
المكث@@ 1
بلانك 1
ترفض 1
تفسيرات 1
حضار 1
خاصًا 1
ردًا 1
رمسيس 1
ريفيرا 1
ستاي@@ 1
ضعاف 1
ظهرها 1
عك 1
غذائي 1
فرن@@ 1
كثيفة 1
كجناح 1
كـ@@ 1
مولود 1
وتحمل 1
ّرت 1
الإندونيسي 1
الاخرى 1
البابوية 1
التداول 1
التسوق 1
الزيارة 1
الشهرية 1
الصخري 1
المزمنة 1
المسببة 1
المنتخ@@ 1
بلاست@@ 1
بُعد 1
تأشيرة 1
تدمي@@ 1
تصلب 1
تعليمي 1
تمية 1
جوش 1
حداد 1
حكمها 1
رمزية 1
زوجي 1
سلطته 1
ظاهرات 1
عني 1
ليبرالية 1
نقاذ 1
هوي 1
وقضى 1
ونور 1
وهام@@ 1
J 0.23035920084307296
الاستطلاع 1
التبانة 1
التقت 1
الثمار 1
الحوت 1
السيف 1
الشبكية 1
المرابط@@ 1
المساهمين 1
المناجم 1
الميدانية 1
تلمي@@ 1
حيا 1
خريج 1
سباحة 1
صحفيين 1
فئ@@ 1
لأسرة 1
للمق@@ 1
للميلاد 1
مباشر@@ 1
متشابهة 1
مصط@@ 1
مطابقة 1
ناري 1
نجلترا 1
وانتقلت 1
وعادت 1
7.5 1
Steve 0.2895478642532429
ice 0.13738253887117666
افترض 1
الأرجن@@ 1
الإلكترونيات 1
الحاصل 1
العِ@@ 1
الفدرالية 1
الفيرماخت 1
القطعة 1
بتسجيل 1
بدايتها 1
بطريق 1
تترك 1
تتغذى 1
تطل 1
تيارات 1
ثانول 1
جهوده 1
جيوفاني 1
حافظ@@ 1
طقة 1
قبي@@ 1
والأدوية 1
والرو@@ 1
والمساواة 1
وظائ@@ 1
ومدى 1
أرباح 1
أملاح 1
أنتون@@ 1
احتياطي 1
الاستشاري 1
الافتتاح 1
الانتظار 1
البروسية 1
البريطان@@ 1
الرئوية 1
الصادرات 1
القابل 1
المنصة 1
اليسارية 1
بنين 1
تحديدها 1
تقاعده 1
حماد 1
حيرة 1
داب@@ 1
دفعه 1
سيبيريا 1
شون@@ 1
صقة 1
عاة 1
كالي 1
موانئ 1
مولد 1
نباتية 1
وأصيب 1
والتز@@ 1
والخاصة 1
وزوجها 1
وملا@@ 1
ونظرية 1
يند 1
يُذكر 1
أتباعه 1
أجراه 1
أجرتها 1
أرادت 1
أنفس@@ 1
أوه@@ 1
اصطنا@@ 1
اعتباره 1
الريح 1
الساس@@ 1
الطبع 1
الغاية 1
الفقهاء 1
بناه 1
خلو@@ 1
زيوس 1
شريحة 1
للأدب 1
للقتال 1
للمستخدم 1
لودفيغ 1
ماكن@@ 1
ملحق 1
والسكان 1
وبدون 1
ودف@@ 1
وكنيسة 1
ينيو 1
1.6 1
ate 0.04221229642041481
ابهم 1
استشهد 1
الاستر@@ 1
الثلوج 1
العائد 1
الفنلندي 1
القبر 1
القبط@@ 1
المساكن 1
الملاحظة 1
بدءاً 1
بدائل 1
بقلم 1
تركوا 1
تنجح 1
توث@@ 1
حقائق 1
دفاع@@ 1
دوريات 1
ربى 1
زمني 1
سرو@@ 1
سينسيناتي 1
شائعًا 1
ظهار 1
عبارات 1
قوف 1
كوينز 1
متب@@ 1
مترات 1
محمد@@ 1
معتمد 1
مولدوفا 1
ناثان 1
نتس 1
نيش 1
هدف@@ 1
واجهات 1
واف@@ 1
والأنشطة 1
والعمليات 1
وعب 1
وقات 1
ويهدف 1
يسع@@ 1
ينيك 1
→ 0.8310964452735827
أتي 1
أخلاقيات 1
ادي@@ 1
الاتفاقيات 1
التزاوج 1
التعقيد 1
الصلا@@ 1
الكلا@@ 1
المزع@@ 1
بتيد 1
توصف 1
جنر@@ 1
دويل 1
راتيجي@@ 1
رفت 1
رونات 1
عصام 1
فاح 1
قتل@@ 1
كلارا 1
لثلاث 1
للطبيعة 1
ليسوا 1
مغطاة 1
وزيرًا 1
ولر 1
ac@@ 0.09141818482545618
ألغت 1
أهله 1
أور 1
إفرا@@ 1
استرداد 1
الإباحية 1
الضرب 1
المتخصصين 1
المرغوب 1
الموسمية 1
انتُ@@ 1
بورا 1
تتلقى 1
ثقيلة 1
جاتها 1
حافظت 1
شفية 1
عواقب 1
قصات 1
كاتِبة 1
كريك 1
لاقت 1
مدفعية 1
والش 1
وجورج 1
وسلو@@ 1
وطالب@@ 1
يوي 1
Samuel 0.3250588598842137
الاستشعار 1
التبش@@ 1
التوض@@ 1
العمراني 1
القروض 1
الوار@@ 1
الوثنية 1
الون@@ 1
بدوام 1
بطبي@@ 1
بف@@ 1
تصاعد 1
تماء 1
جاري 1
داولة 1
رم@@ 1
رويس 1
رِّ@@ 1
سامح 1
شقة 1
صباحًا 1
ضجة 1
وجن@@ 1
ولاء 1
أوليم@@ 1
استراتيجيات 1
الإثيوبية 1
الاستي@@ 1
البطي@@ 1
التأسيسي 1
الترميز 1
التلقيح 1
الكتف 1
المتميز 1
المدون@@ 1
اهدة 1
اورات 1
بالإمكان 1
بام 1
تشان 1
توز@@ 1
جوانا 1
رودس 1
زير 1
ساحات 1
سق@@ 1
شفى 1
شيت 1
غيلبرت 1
فاءات 1
كريستال 1
لإثبات 1
لإنهاء 1
لإيجاد 1
ناف 1
نظامًا 1
واستقر 1
والمدن 1
وانتق@@ 1
وتهم 1
وريال 1
ويشار 1
ويع 1
ينسب 1
1808 0.7511901020421089
230 1
أندريا 1
إيمانويل 1
الآشور@@ 1
الثالوث 1
الخيمة 1
الشاه@@ 1
الفات 1
الفاصل 1
القطارات 1
بإمكان 1
بتز@@ 1
بحثه 1
بلغراد 1
تالية 1
تصري@@ 1
جويلية 1
حتهم 1
حزاب 1
رادي@@ 1
رجاله 1
رفيع 1
شيرمان 1
طفرات 1
عدي@@ 1
غاس@@ 1
غزوة 1
فتاء 1
ليما 1
متري 1
مخططات 1
مغن 1
نسبةً 1
هاس@@ 1
و5 1
وآل 1
والأفلام 1
والإمبراطورية 1
وتصميم 1
وشخصية 1
يقرأ 1
يوني 1
أفرا@@ 1
الصّ@@ 1
العم 1
المؤهلة 1
المنعم 1
الميكانيكي 1
بأسم 1
بأمراض 1
باسكال 1
بالنظام 1
توري@@ 1
حتل 1
سيمة 1
شباب@@ 1
طوا@@ 1
عادوا 1
غسل 1
قند@@ 1
كرات 1
كونتي 1
لعة 1
للحقوق 1
للمن@@ 1
لينج 1
مجها 1
مرقس 1
مسطحة 1
نهضة 1
هم@@ 1
ودع@@ 1
ورون 1
ومملكة 1
يمو 1
ينشر 1
1806 0.6499630674392257
19.@@ 0.9784318221046784
~ 0.7242561753291457
إطلاقها 1
ارتفاع@@ 1
الحركي 1
القراصنة 1
الكريمة 1
النواحي 1
الوجبات 1
تاس 1
تشه 1
لثلاثة 1
لحوالي 1
للعلم 1
مهمته 1
واضعة 1
ونه@@ 1
ويعيش 1
2008@@ 1
WWE 0.6070289093140466
إساءة 1
الأخص 1
الألغام 1
التون 1
الرملي 1
الصفحات 1
المئ@@ 1
المتقد@@ 1
المتكرر 1
الميليشيات 1
النحت 1
بتا@@ 1
بجمهورية 1
بصرف 1
بُ 1
تناقض 1
جميعاً 1
حارب 1
ديره 1
ريقة 1
سريلانكا 1
سكك 1
سيزار 1
صغيرًا 1
طط 1
طيفة 1
عيمة 1
فيري 1
كايل 1
كولوم@@ 1
كيات 1
مشاب@@ 1
مطلوب 1
ملحوظ@@ 1
وإجراء 1
والى 1
وايا 1
وتصبح 1
وفقدان 1
يتعل@@ 1
Allen 0.37829621141931996
أجنبي 1
أدباء 1
ألبرتو 1
احتوت 1
ارتكاب 1
التفسيرات 1
الدرامية 1
الرجاء 1
الشواطئ 1
الطرا@@ 1
المفاعل 1
بأربعة 1
باكستاني 1
بيرن@@ 1
ريرا 1
رِ 1
زمالة 1
عصب 1
غابرييل 1
لائي 1
لبات 1
لتب@@ 1
لمي@@ 1
مدته 1
موجه 1
ندين 1
والتج@@ 1
وتحدي@@ 1
وترشيحات 1
وكتابة 1
يفر 1
ينكو 1
يوناني 1
آذ@@ 1
افراد 0.9373533592768774
التعلق 1
الحاف@@ 1
الشعي@@ 1
الصفيحة 1
انسحبت 1
باسمها 1
بمجلس 1
بهات 1
تتر@@ 1
حنا 1
خرجة 1
ديمو@@ 1
راين@@ 1
رضية 1
طفيفة 1
فتحات 1
فلان@@ 1
قرط@@ 1
قوان@@ 1
كبة 1
لاف@@ 1
لصالح@@ 1
لطفي 1
لورنس 1
ليزر 1
ماة 1
مايتها 1
مجموعته 1
وجرى 1
وضابط 1
ينوي 1
el@@ 0.046863546456549506
أسعد 1
إستونيا 1
الآية 1
الأوس@@ 1
التنازل 1
الرع@@ 1
الطبقي 1
الكساد 1
المرجع 1
المغولي 1
الملك@@ 1
النظري 1
الياً 1
دواي 1
رفيعة 1
طمو@@ 1
عائدات 1
عددٍ 1
علا 1
قويًا 1
كولا 1
لإسرائيل 1
للعبة 1
لمحاولة 1
مجدداً 1
مساعدات 1
مناخ@@ 1
نجاحه 1
نظر@@ 1
هزة 1
ومراقبة 1
1827 0.7678040534476404
210 1
افري@@ 1
اقها 1
البكت@@ 1
التجنيد 1
السلفادور 1
الشعري 1
الطارئة 1
الطلبات 1
القوائم 1
بدت 1
برشية 1
تؤمن 1
تحص@@ 1
خانة 1
زيارات 1
شرقاً 1
ضُ@@ 1
قرارًا 1
مصدرًا 1
والطرق 1
وشهدت 1
section 0.1225801368031601
الإثني 1
البرتغاليين 1
التوقعات 1
الدب 1
القرب 1
القري@@ 1
اللوردات 1
المجاعة 1
تأكد 1
تردام 1
تعليقات 1
حصد 1
رامنتو 1
رصاص 1
رواسب 1
شهداء 1
شوقي 1
عني@@ 1
غاف@@ 1
فاع 1
قيبة 1
للحرارة 1
لموقع 1
مسج@@ 1
مشه@@ 1
مطاعم 1
ميلادية 1
وائد 1
وتزوج 1
وثيقًا 1
وفلسطين 1
وينتمي 1
107 0.9607476811098841
أجيال 1
الجزئية 1
الرقبة 1
الركبة 1
الفيضانات 1
اللوائح 1
المطلب 1
امير 1
انتصارات 1
بالرصاص 1
بالعاصمة 1
بحماية 1
تحويلها 1
تصالات 1
جزئياً 1
حار 1
حمود 1
دائري 1
رينولدز 1
ريني 1
زواجه 1
سرير 1
صوص 1
قانونًا 1
كارين 1
كتهم 1
لتحليل 1
لدخول 1
للاحتفال 1
ماتها 1
مثلها 1
مدونة 1
مذه@@ 1
مرسون 1
مطر 1
نيبال 1
والحركة 1
والوصول 1
وخصوصاً 1
9- 1
j@@ 0.07020282844706528
أشاد 1
التسم@@ 1
السطحي 1
الشب@@ 1
العنيفة 1
امي@@ 1
بالتعليم 1
بصرية 1
بنور 1
ترجمته 1
تضر@@ 1
تطبق 1
جامع@@ 1
رولاند 1
عملات 1
فيرمونت 1
فيهما 1
كمبوديا 1
لتخ@@ 1
لونها 1
معاهد 1
ميرك@@ 1
هولاند 1
وإقامة 1
واستخدمت 1
وتسبب 1
وفاء 1
وكر 1
وليت 1
ووسط 1
ينام 1
ar@@ 0.048345988509743025
أوروبي 1
اباً 1
اخترع 1
استيلاء 1
البحارة 1
التعويض 1
العناوين 1
الكرسي 1
اليمن@@ 1
اليها 1
تنام 1
تورنتو 1
دراجة 1
دلة 1
دوف@@ 1
دوه 1
رامون 1
راه@@ 1
رسالته 1
سأ@@ 1
ستوك@@ 1
للعودة 1
مراجعات 1
موين 1
نث@@ 1
هره 1
وأنواع 1
وبلاد 1
وتصل 1
وخلق 1
ويأتي 1
يُظهر 1
Davis 0.2732625725409538
ation 0.036422027243796395
أراضيهم 1
أوصى 1
إلادا 1
ئاً 1
اسطنبول 1
اضطرت 1
الجيب 1
الديزل 1
المثل@@ 1
المواصلات 1
انضم@@ 1
بممارسة 1
بُني 1
تأثيرها 1
تذكاري 1
تطل@@ 1
تقر@@ 1
تيز 1
جوهرات 1
ديلا 1
راية 1
صبري 1
عاشوا 1
عضوي@@ 1
عيل 1
فجوة 1
كافٍ 1
كهرباء 1
لدائرة 1
لكلمة 1
للزواج 1
ليحل 1
مثل@@ 1
مزودة 1
مقاط@@ 1
موجودًا 1
و2.@@ 1
وأور@@ 1
وإصابة 1
وإلا 1
وراثية 1
ونيك 1
وُجد 1
يفضل@@ 1
يفهم 1
أهدافها 1
الباز@@ 1
الجثث 1
السوفياتية 1
الطاعون 1
القفز 1
الكوميدية 1
المثقفين 1
باتلر 1
بعلا@@ 1
بيلار@@ 1
تأخير 1
تحدثت 1
تدمر 1
ترمي@@ 1
تضح 1
تعدادي 1
تقوية 1
تنفيذه 1
توتنهام 1
جنوب@@ 1
حاق 1
حسب@@ 1
حفظ@@ 1
خلق@@ 1
ساني 1
سُميت 1
شئ 1
شقيقها 1
صمام 1
عف 1
فولت 1
كيلومترًا 1
للأدوية 1
مرضية 1
واجتم@@ 1
واقب 1
والحص@@ 1
وبيع 1
وسوء 1
يات@@ 1
يعالج 1
1.1 1
أبحاثه 1
أنواعها 1
اكتئاب 1
الأمازي@@ 1
الانتخابي 1
التلا@@ 1
الزلازل 1
السلمي 1
الغار@@ 1
المبت@@ 1
المتخ@@ 1
الوصاية 1
برفع 1
بيئات 1
تجرب@@ 1
تخاذ 1
تراجعت 1
جاس 1
جذر 1
حك 1
سبور 1
صالات 1
عدالة 1
غوان@@ 1
فكتوريا 1
قليات 1
كستان 1
كينغز 1
لوفة 1
مؤكد 1
مجت 1
موحد 1
ناشط 1
واكه 1
والمدينة 1
وثائ@@ 1
ودات 1
وسطية 1
وكرة 1
ولاح@@ 1
يثير 1
يعزز 1
يملكون 1
يومياً 1
1804 0.8223579186454277
en@@ 0.03281960032319652
أدائ@@ 1
أنشأها 1
أوضاع 1
ائمة 1
ابتكر 1
البي 1
الخطي 1
الكردي 1
الكنيست 1
الكه@@ 1
المثل 1
المواليد 1
الميلا@@ 1
ايز 1
بجروح 1
حافلة 1
حمو 1
دهور 1
لجيش 1
لهيئة 1
ليني 1
مرجع 1
مرسي 1
ملاعب 1
مهمتها 1
ميله 1
والانتشار 1
والمعادن 1
وتتم 1
ولندا 1
30.@@ 1
5.5 1
أحدا@@ 1
أصلها 1
أمرت 1
إلحاق 1
اشتق 1
الامر 1
البرد 1
التجار@@ 1
التماس@@ 1
الجرح 1
الحرمين 1
الخطرة 1
الرؤ@@ 1
الشريك 1
العشوائي 1
اللق@@ 1
المشاهدين 1
المكتشفة 1
بطلة 1
بمساحة 1
تحافظ 1
تمكنوا 1
تنحدر 1
حراس 1
ديري 1
ريغان 1
كاونتي 1
لفظ@@ 1
للرواية 1
متفر@@ 1
مختار 1
مط 1
مهد 1
مِنطَقَة 1
نصح 1
هيدروجين 1
وإضافة 1
والا 1
وبار 1
وخمسة 1
ومش@@ 1
1789 0.7422314030545525
29.@@ 1
8- 1
Albert 0.19985581787850348
أنني 1
أواسط 1
إلغ@@ 1
ائفة 1
البطين 1
التفاعلية 1
الريفي 1
الفضي@@ 1
الفطر 1
الليلية 1
المنشور 1
المُسلمين 1
بالبشر 1
باللاتينية 1
بطل@@ 1
بينا 1
تناق@@ 1
تونية 1
خب 1
دوقية 1
صان 1
عدسة 1
فيغاس 1
لتي@@ 1
لونا 1
ماتت 1
ماريون 1
مياه@@ 1
ميلية 1
والأغ@@ 1
والمخ@@ 1
وتسل@@ 1
وتقييم 1
وعملية 1
وكان@@ 1
يتفاعل 1
يناء 1
z@@ 0.04938475091194119
أسرار 1
إيزابيلا 1
إيست 1
ائيل 1
اتجاه@@ 1
اعل 1
الأربعينيات 1
الزائفة 1
الشابة 1
القس 1
اللهجات 1
المناظ@@ 1
انتز@@ 1
بألمانيا 1
بالتدريس 1
بالرنين 1
بيركلي 1
بْن 1
تعالج 1
جسده 1
حمدان 1
خلافات 1
ديبورتيفو 1
سره 1
غطية 1
قائدًا 1
لهن 1
لينين 1
مضي 1
والقضاء 1
وتلا@@ 1
وقرى 1
يفه 1
اضة 1
الإماراتية 1
الإنزيم 1
التهوية 1
الدمش@@ 1
الراوي 1
الروائي 1
الزئبق 1
العشوائية 1
المجهر 1
المخصص 1
المرصد 1
بارون 1
بالكلية 1
بصوت 1
بلادهم 1
بنز@@ 1
بولا 1
بوينت 1
تجزئة 1
توقيت 1
تُدعى 1
تُوفي 1
حُكم 1
ذِ@@ 1
طفولتها 1
عادات 1
غازات 1
فلقد 1
لادن 1
للأمن 1
للفرقة 1
موزع 1
نانومتر 1
نفي 1
هاينز 1
واعتم@@ 1
وعقد 1
وكون@@ 1
ومحاولة 1
يعلن 1
يناً 1
An@@ 0.054897983646796635
أغنى 1
استكمال 1
اعب 1
الأموية 1
الإحصائيات 1
التحفيز 1
التميمي 1
الجوف 1
الحوثيين 1
الخوا@@ 1
الشوط 1
العتيقة 1
المنح 1
النجمة 1
انقراض 1
باتها 1
بالتجزئة 1
ببيع 1
بوخارست 1
تصنيفات 1
تلو 1
جاكي 1
جنوبية 1
خضاع 1
ديّة 1
سيوم 1
شرعي 1
قز@@ 1
كراي 1
مصب 1
ميغ@@ 1
ندري 1
نقلة 1
نهيان 1
والحر@@ 1
والديمقراطية 1
وثاني 1
يلون 1
131 1
1818 0.6808874611835338
1هـ 1
28.@@ 1
أطلس 1
إنش@@ 1
اربين 1
استغرق 1
الأخشاب 1
الأساتذة 1
الإثارة 1
البروتوكول 1
البكر 1
البوذ@@ 1
الشاه 1
الصق@@ 1
الغنائي 1
المعروفين 1
الهاشمية 1
اليرموك 1
بسعر 1
تأمل 1
رفضوا 1
رفي 1
زيورخ 1
سكتة 1
طبقًا 1
عصبي 1
كثيف 1
للجزائر 1
مضخة 1
نبورغ 1
والأربعون 1
وسطي 1
يُقال 1
III 0.08806230686586326
أهدافه 1
أُنشئت 1
الراعي 1
العداء 1
بايت 1
بيرسي 1
تسخين 1
تعنى 1
رجاء 1
زهير 1
سكار@@ 1
سوسة 1
ضئيل 1
فرنسيين 1
لتوسيع 1
لغوية 1
مشاي@@ 1
مفتو@@ 1
مورو 1
نالتها 1
وأوك@@ 1
والآداب 1
والحي@@ 1
والكتب 1
وايت@@ 1
وسانت 1
وشركات 1
وطالب 1
يصف@@ 1
175 1
er@@ 0.035709651041683714
أمامه 1
اقتراب 1
الأشغال 1
الإمكان@@ 1
الترخيص 1
التنظيف 1
الجة 1
الديناصورات 1
الطيبة 1
الفوتوغرافي 1
القضيب 1
المصارع 1
النموذجي 1
ببعضها 1
بطر@@ 1
تحق@@ 1
ترسل 1
تعرّ@@ 1
تيازات 1
ريتا 1
طياف 1
فتحي 1
قاتلة 1
كاته 1
كليا 1
مسؤولاً 1
مصنفة 1
نهائية 1
هنت 1
هوغ@@ 1
وأكثرها 1
يتنا@@ 1
0.1 1
106 0.8834557096547077
احتم@@ 1
الإذاعية 1
الحوث@@ 1
الروح@@ 1
العشرات 1
الكهربي 1
المتنا@@ 1
المثلث 1
المقاييس 1
اليوسفية 1
بتش@@ 1
تجربته 1
تفي 1
تهد 1
تونغ 1
تيبات 1
جاف 1
جيروم 1
زرقاء 1
لتأمين 1
هيرشل 1
وأصحاب 1
والمالية 1
واليهود 1
وجزيرة 1
ورشة 1
وكتبت 1
يوغ@@ 1
أراغون 1
أوبراين 1
ارق 1
الإسعاف 1
التصديق 1
المرونة 1
المستثمرين 1
بكوفيد 1
تديرها 1
ترمز 1
تعين 1
تيموثي 1
جمات 1
خاضعة 1
خْ@@ 1
رينغ 1
زيمات 1
ستون@@ 1
شحنة 1
شطرنج 1
عتبة 1
عندهم 1
غارة 1
قيع 1
لالي 1
مرئية 1
مساعدته 1
معرض@@ 1
موسومات 1
ميسي@@ 1
والعسكرية 1
وخاصةً 1
ودفع 1
وهة 1
ويسمح 1
يرغبون 1
يشهد 1
1.4 1
per 0.06298823797160896
أبحاث@@ 1
أثلتيك 1
استيراد 1
الأبراج 1
الإرهابية 1
الاستح@@ 1
التطوري 1
الحرام 1
الفائزين 1
النمل 1
بتمويل 1
تحديات 1
توعية 1
تيري@@ 1
تّ@@ 1
زيوم 1
شمسية 1
شنايدر 1
قبت 1
قدوم 1
كاستر 1
كلهم 1
لإعطاء 1
لاستخد@@ 1
مؤرخ@@ 1
منتجاتها 1
والصرف 1
وشخص@@ 1
وطنه 1
يلاني 1
يونية 1
أرب@@ 1
استاد 1
الأودية 1
الإعدادية 1
الاتحادات 1
البؤ@@ 1
الدولتين 1
العزلة 1
القلاع 1
اللمفاوية 1
المخلفات 1
النفقات 1
بالا 1
بند 1
تتحكم 1
تحق 1
داة 1
روسو 1
سيد@@ 1
شعيب 1
مثلة 1
محو 1
معمل 1
مكثف 1
نحاس 1
والتخطيط 1
وكمة 1
يمهم 1
َف 1
ic 0.09030757441422944
أجناس 1
إكس@@ 1
الأغشية 1
الإنزيمات 1
التربوي 1
الترشح 1
التمارين 1
الدوار 1
السقوط 1
السليمة 1
الطلي@@ 1
الفائق 1
المؤشر 1
المبي@@ 1
المحتج@@ 1
المواطنة 1
بالحصول 1
براندون 1
تاحت 1
تران 1
تعقيدًا 1
جمال@@ 1
جيرارد 1
حكومته 1
دفين 1
رفيق 1
زيس 1
فرنك 1
فول 1
كرد 1
للبقاء 1
مذكراته 1
نقط@@ 1
والأحداث 1
والشؤون 1
والنمسا 1
يحي@@ 1
Al 0.08083000192241031
am 0.013669729721985503
أيد 1
الإيك@@ 1
التطورية 1
المسم@@ 1
بؤ 1
بيد@@ 1
حاد@@ 1
خوات 1
دافيد 1
رونا 1
سجيل 1
شوي@@ 1
صيغ 1
طالبت 1
طام 1
فله 1
كلات 1
كوفيتش 1
لطلاب 1
للبيانات 1
ليَّة 1
مساكن 1
مقارن@@ 1
مكار@@ 1
ملء 1
والمسرح 1
والمض@@ 1
ورى 1
وشا 1
وِّ@@ 1
CO@@ 0.3942710908261754
أييد 1
الأئمة 1
الأديب 1
الأكراد 1
الاحتكاك 1
البلغارية 1
الحليم 1
الرأسم@@ 1
الرص@@ 1
الشرط 1
الكاز@@ 1
المفصل 1
النرويجي 1
بابية 1
بتطبيق 1
بيدات 1
حوالى 1
خوذة 1
دعمها 1
سيط 1
ظهروا 1
قبضة 1
كاري@@ 1
كاملاً 1
كح@@ 1
كحارس 1
كفاية 1
كيبي@@ 1
للعراق 1
ماسية 1
معالجات 1
ميند@@ 1
هجر@@ 1
والمسلمين 1
والمنتجات 1
ووُ@@ 1
يوف@@ 1
108 0.8311249704441604
Lewis 0.2795035358688632
آيسلندا 1
إعط@@ 1
إنغ@@ 1
ائيا 1
اذب 1
الاستعداد 1
الدمار 1
السلاسل 1
الكنسية 1
اللؤ@@ 1
المحرر 1
المداف@@ 1
المرح@@ 1
المِ@@ 1
الناجح 1
اليس@@ 1
فقرة 1
فيست@@ 1
قصيد@@ 1
كالد@@ 1
كورنيل 1
للاعب 1
للبرنامج 1
مايلز 1
مقابلات 1
نفى 1
والاقتصادي 1
واللي@@ 1
وراسي 1
وسمي 1
om@@ 0.08788419620525885
أبردين 1
إصاب@@ 1
اجستير 1
ادوا 1
الأسطح 1
التوترات 1
الجبار 1
الحة 1
الرؤوس 1
الرواد 1
الصهيوني 1
الموصلات 1
بأخذ 1
تبنت 1
تماث@@ 1
جاه 1
جورة 1
لقضاء 1
للنظر 1
لهجوم 1
مبارياته 1
ممتاز 1
و10 1
وأع@@ 1
وئي 1
واع 1
وبًا 1
ومعر@@ 1
1823 0.7409597127777795
Don 0.18023809887940823
أرخبيل 1
أساساً 1
أمانة 1
الأطلس 1
الأقارب 1
الاط@@ 1
الامتياز 1
الضرورة 1
الضي@@ 1
الفَ@@ 1
المتب@@ 1
المعتدلة 1
المفكرين 1
المناه@@ 1
تجة 1
تختص 1
تقار 1
تيك@@ 1
جوع 1
سرز 1
سنا@@ 1
سيخ 1
طلح 1
عـ@@ 1
قاف@@ 1
كقائد 1
لص 1
مأس@@ 1
مجاورة 1
مزاعم 1
نهايات 1
هنود 1
والمت@@ 1
والمش@@ 1
وضعف 1
وويلز 1
270 1
א@@ 1
أحب 1
أميركا 1
اعقة 1
الراب 1
السكتة 1
الشاذ@@ 1
الكاهن 1
الكوا@@ 1
بناءه 1
تارية 1
ترات 1
ثن@@ 1
خِلال 1
ذاب 1
ذاك@@ 1
رباعية 1
روود 1
غاثة 1
غواتيمالا 1
فاضل 1
مصدر@@ 1
معق@@ 1
مقيم 1
مهرجانات 1
ميلاً 1
نائبًا 1
وتنقسم 1
وتيرة 1
1813 0.6199237830625229
185@@ 1
59@@ 1
ابتهم 1
احتوى 1
استخدموا 1
الآخرة 1
الإعداد 1
الإنجيلية 1
التدخ@@ 1
الراف@@ 1
القائلة 1
القديسة 1
المقاتلة 1
النش@@ 1
بذب 1
تفصل 1
تلاميذ 1
توش 1
ديفي 1
سرحية 1
صمم@@ 1
قريبا 1
قوش 1
كريستي 1
كلميم 1
كولونيا 1
لؤ 1
لجهاز 1
للهند 1
مصرف 1
ناقص 1
نتجت 1
نَّ 1
واستبد@@ 1
واقتص@@ 1
وبو 1
ويُعد 1
يتمتعون 1
يجعل@@ 1
يفقد 1
‍ 1
Mc@@ 0.1199428017179092
ST@@ 0.44958100507523785
os 0.0419701317009785
آه 1
إنكلترا 1
اثنتين 1
اكتُ@@ 1
الإذاعي 1
الاشتراك 1
التا@@ 1
الدروز 1
الزنك 1
السلمية 1
القاب@@ 1
الوثائقي 1
امتحان 1
انتقاله 1
بالفارسية 1
تامة 1
حائل 1
خطي@@ 1
خيانة 1
داوي 1
شفت 1
صاحبه 1
صم@@ 1
عشائر 1
فوح 1
لإصلاح 1
لدور 1
لنيل 1
ملتز@@ 1
ناقد 1
نوال 1
ومنح 1
يستغرق 1
54@@ 1
In@@ 0.0735042763534913
أبط@@ 1
أجن@@ 1
الأري@@ 1
التجسس 1
التسامح 1
الثلاث@@ 1
الجب@@ 1
الحد@@ 1
المثلي 1
النجاة 1
الوحي@@ 1
بالمعهد 1
بيرك 1
تستطع 1
حلال 1
راحل 1
ربوا 1
سيباستيان 1
سُجلت 1
صيدا 1
قاله 1
كونغرس 1
لأبحاث 1
لتان 1
لمب@@ 1
نفق 1
ودهم 1
وعر@@ 1
وماس 1
وورث 1
ووز@@ 1
يرأس 1
88@@ 1
son 0.009671171652157234
إنزال 1
اختفت 1
الأجناس 1
التشغي@@ 1
التفري@@ 1
الرادار 1
الصويرة 1
اليابسة 1
اليقين 1
بحر@@ 1
بشخصية 1
تسقط 1
تطر@@ 1
تقضي 1
تيني@@ 1
راقصة 1
راوة 1
ريفية 1
سلاطين 1
شمول@@ 1
صادرة 1
صْ@@ 1
ضج 1
عُيّن 1
فادحة 1
لفاظ 1
للعلاقات 1
للنفط 1
معاد@@ 1
مناجم 1
نْ 1
و6 1
والخلايا 1
وتنمية 1
وفرة 1
ويورك 1
يتعرض@@ 1
يحافظ 1
ِن 1
أوني@@ 1
اتم 1
الائتمان 1
البروتست@@ 1
التقط@@ 1
الج 1
الخنازير 1
الطماطم 1
المربع 1
المستجد 1
المشاركون 1
اموتو 1
بالاست@@ 1
بقدرة 1
تمَّ 1
توفي@@ 1
تيودور 1
جرح 1
خول 1
ديمقراطي 1
ريكسون 1
زاك@@ 1
زحل 1
قشرة 1
كابل 1
ماع 1
مستوحاة 1
مناظ@@ 1
مواطنين 1
والأرض 1
ودار 1
ومحطة 1
ووض@@ 1
ويبر 1
يتطور 1
International 0.053996536099065816
des 0.0024465910343421647
di@@ 0.07135074057962547
أستاذاً 1
ابتن 1
ابهة 1
استط@@ 1
اعتبارات 1
الاغتيال 1
الانتخاب 1
التكنولوجي 1
السلك 1
القاط@@ 1
المشرو@@ 1
باريات 1
بنغازي 1
تُست@@ 1
جيبوتي 1
رحى 1
روايتها 1
رولز 1
شيفيلد 1
صاصات 1
عديمة 1
فيقول 1
كلثوم 1
كلفن 1
للاستثمار 1
لمعهد 1
مارتين@@ 1
مخز@@ 1
مضاعفة 1
مكدونالد 1
والإجراءات 1
والإقلي@@ 1
والجزائر 1
والضغط 1
وامتدّ 1
وتا@@ 1
وعسك@@ 1
يرفع 1
يور 1
1300 1
Harry 0.2643413111302336
Miller 0.3157542682247065
Stephen 0.28484574382450956
ad@@ 0.05792663736587305
am@@ 0.0670819323152074
أكملت 1
ألقت 1
ابته 1
اترا 1
الأنجلو 1
الحلم 1
الفخذ 1
القلي@@ 1
المشتر@@ 1
المقترح 1
المكو@@ 1
الميزة 1
برس@@ 1
بست 1
بضرورة 1
بلاكبيرن 1
تجت 1
تفاء 1
جافا 1
جزئية 1
دستون 1
ذيل 1
روزا 1
صوتًا 1
عاملاً 1
عقل@@ 1
عيَّة 1
قتلت 1
كواكب 1
لإظهار 1
لتمويل 1
للبحرية 1
للرعاية 1
للعمال 1
ماكنزي 1
معرفته 1
معز@@ 1
موطنها 1
ناخ@@ 1
هندوراس 1
هيبة 1
والمرك@@ 1
وشقي@@ 1
1790 0.6868217670626328
78@@ 1
ic@@ 0.09677591691171983
إطلاقه 1
اغط 1
الانبعاثات 1
الترابط 1
التسعة 1
التلاعب 1
التميز 1
العدو@@ 1
الماور@@ 1
انيّة 1
بارت 1
بوة 1
تأييد 1
تسارع 1
سفار@@ 1
شهيد 1
طيه 1
عضوي 1
غاض@@ 1
قيها 1
كلار@@ 1
لاكتشاف 1
لتصنيع 1
لقي@@ 1
لوز 1
مقص@@ 1
منغ@@ 1
وصاحب 1
وينبغي 1
ينصح 1
1809 0.7142932733369419
hockey 0.26196026903728914
التسجيلات 1
الحالتين 1
العامية 1
العمري 1
الفرعي 1
الفولاذ 1
القان@@ 1
القلا@@ 1
المتناف@@ 1
اهو 1
ببغداد 1
برن 1
تطوي@@ 1
تعقد 1
جلوس 1
درمان 1
راغ@@ 1
روبرتو 1
زج 1
عيات 1
فيوس 1
قلاب 1
كاظم 1
لاول 1
للسفر 1
للقرية 1
للكتابة 1
ماف@@ 1
مانينغ 1
مكتبات 1
منشور 1
وأعاد 1
٬ 1
43@@ 1
Mar@@ 0.058768720644222776
آمون 1
أسل@@ 1
أصح@@ 1
أصلا 1
أنمي 1
أوكسفورد 1
أيق@@ 1
إرادة 1
الاستواء 1
البات 1
البلجيكية 1
الجراثيم 1
الرياض@@ 1
الغزاة 1
القوميين 1
الكيانات 1
اللوجست@@ 1
المتواجدة 1
المستقيم 1
النقالة 1
بسه 1
تدو@@ 1
ثل@@ 1
جاء@@ 1
جسام 1
حصولها 1
خلصت 1
دافي 1
دوني 1
راح 1
رجلًا 1
سعيدة 1
صاحبها 1
عاية 1
عقل 1
كليمنت 1
لكثير 1
مشغل 1
مودية 1
نيوز@@ 1
والأنظمة 1
والتد@@ 1
والصور 1
وتشكيل 1
ويلات 1
يُعر@@ 1
أتك@@ 1
أجرته 1
أونيل 1
الألو@@ 1
الائتلاف 1
الاستوديو 1
الترب@@ 1
الطلق 1
العزم 1
العمدة 1
اللاعبون 1
المجاور 1
المرات 1
المسؤ@@ 1
الوض@@ 1
بوريس 1
تمثلت 1
تهدد 1
خيوط 1
دمي@@ 1
ساعتين 1
لاق@@ 1
لحالات 1
للقرن 1
محفوظ 1
معلوم@@ 1
مقهى 1
نمط@@ 1
هاز@@ 1
والإنتاج 1
والمجلس 1
وخط 1
وسرعة 1
ومحام 1
وورد 1
ويمتد 1
ّمة 1
أحوال 1
أرسنال 1
أغان@@ 1
أنك 1
أوروب@@ 1
الاعمال 1
التشخيصي 1
الجمهوريين 1
الحوامل 1
الزور 1
السوفييتية 1
المات 1
المجمو@@ 1
الناص@@ 1
امتلك@@ 1
دماج 1
شره 1
ضعي@@ 1
فحم 1
للضغط 1
لهُ 1
ليونية 1
مارسات 1
مخزون 1
مطلق 1
مقتن@@ 1
ملتقى 1
مهامه 1
ميذه 1
ندوات 1
نير@@ 1
وأبي 1
يتكلم 1
يعتم@@ 1
ينضم 1
آسي@@ 1
إلكترون 1
الأقصر 1
الحاص@@ 1
الحساسة 1
الدوريات 1
الرشي@@ 1
المالكي 1
المتمثل 1
المعين 1
الميداني 1
الهيدرولي@@ 1
انف 1
بمستوى 1
بيلا@@ 1
تحكي 1
تنبأ 1
توط@@ 1
حراري 1
ديناميكية 1
رافق 1
رجان 1
روسة 1
سوائل 1
سُمح 1
طوالها 1
فرانشيسكو 1
متعة 1
متغيرات 1
مدغشقر 1
مقت@@ 1
ملر 1
ملكا 1
نابل 1
نبول 1
والرجال 1
وعز@@ 1
يجلس 1
1811 0.7285033574498584
SO@@ 0.568749039435936
اكسة 1
البنزين 1
التام@@ 1
الخلفاء 1
الصغر 1
العبارات 1
المحظ@@ 1
المصابون 1
الموال@@ 1
تشويه 1
تنر 1
جديداً 1
جنيد 1
دوما 1
صالح@@ 1
فعال@@ 1
قتي@@ 1
قلالية 1
كولومبي 1
للصحافة 1
للمحكمة 1
للوقاية 1
مدرج 1
مرو 1
معادلات 1
نسانية 1
وتنان 1
ومركزها 1
2000@@ 1
Ray 0.3600765566466541
أخصائي 1
أستاذا 1
أصاب 1
أمناء 1
إلهة 1
اذية 1
الأكل 1
الإثنين 1
الإصلاحية 1
الباف@@ 1
الجزاء 1
الحزم 1
الرمزية 1
السلوكي 1
العاش@@ 1
العود 1
المبشرين 1
المسموح 1
المهددة 1
الول@@ 1
باتمان 1
تحض@@ 1
تستغرق 1
تعال 1
تكريما 1
جهت 1
ذوذ 1
سلكية 1
عملاق 1
غربية 1
غلادي@@ 1
فأرسل 1
لغوي 1
ليعمل 1
معلمة 1
منتجة 1
نست 1
واحة 1
واحي@@ 1
والبناء 1
وحلف@@ 1
ويزيد 1
330 1
Anderson 0.3365108766952791
أولها 1
استض@@ 1
اسمًا 1
اسيس 1
الجلو@@ 1
السائق 1
المطالب 1
المنافسات 1
النشيد 1
اندل@@ 1
خس 1
رئيسي@@ 1
رغبته 1
رل 1
سريعًا 1
عزت 1
علاجية 1
فردة 1
مرق@@ 1
وأنشأ 1
والموت 1
وبيتر 1
وراي 1
ورُ@@ 1
يكاغو 1
ّار 1
أُجري 1
إدواردو 1
إيم@@ 1
افيا 1
الأقرب 1
التطهير 1
التماثيل 1
الزوجات 1
المتمردون 1
المختبرات 1
الميثان 1
الوطنيين 1
بحريني 1
تستخدمها 1
جبت 1
جويس 1
حرز 1
خطي 1
ربو 1
سنو 1
طوابق 1
عملياتها 1
غب 1
كتوري 1
لتشكل 1
ليفين@@ 1
ماين@@ 1
معات 1
مونا 1
نداء 1
نشطاء 1
وأدوات 1
والفل@@ 1
والمتوسطة 1
وانتشرت 1
ورج@@ 1
وغو 1
ومؤسس 1
يتجزأ 1
يليون 1
يوس@@ 1
1798 0.7566373292428429
إزاء 1
إني 1
ادعاءات 1
استعراض 1
اغة 1
الأكسدة 1
الامام 1
الانسان 1
التداخل 1
الحِ@@ 1
الزاوي 1
السرقة 1
الفلسفي 1
المراج@@ 1
تجويف 1
تمهي@@ 1
تنزانيا 1
توصي@@ 1
ثهم 1
ثير 1
جيريمي 1
حساس@@ 1
خلدون 1
دانمركي 1
دعاة 1
ذيات 1
رمادي 1
ساتين 1
عالٍ 1
عدادات 1
غارات 1
قادمة 1
قبين 1
لإست@@ 1
لتقرير 1
لرئاسة 1
لكم 1
ميثيل 1
ناشر 1
نقول 1
هائ@@ 1
هرم 1
وارن 1
وحش 1
وحفظ 1
وظيفية 1
ينخفض 1
1700 0.8743289124201515
1816 0.6437096391685403
550 1
74@@ 1
إدلب 1
إلز@@ 1
استر 1
الأخلا@@ 1
الأسباني 1
الأفق 1
التفوق 1
المدربين 1
بورتسموث 1
تبسة 1
تزل 1
جائز@@ 1
حقاً 1
خصوص@@ 1
شتوتغارت 1
شرها 1
شوك 1
ضارة 1
فرنسيسكو 1
قسمت 1
لحالة 1
للتواصل 1
مبر 1
مصارعة 1
مغناطيسية 1
وبير@@ 1
وحققت 1
وروبرت 1
ولاحقًا 1
ويتني 1
يشار@@ 1
يفكر 1
132 1
King 0.07520145817562798
آداب 1
أجاب 1
أحلام 1
أذن 1
اختفاء 1
ارد@@ 1
اعادة 1
اكتمال 1
الرصد 1
الشقيق 1
الفنزوي@@ 1
المثق@@ 1
المحقق 1
الوالد 1
ايو@@ 1
بتحقيق 1
بدايةً 1
بلال 1
تسكن 1
تونات 1
جنوده 1
جيرة 1
خدمت 1
دمياط 1
رابط@@ 1
رومانسية 1
سلوب 1
شيف 1
طفولة 1
قاس@@ 1
قاق 1
قتالية 1
قٍ 1
كلاي 1
كيوتو 1
لأنظمة 1
لقتل 1
لمتابعة 1
مسببات 1
مطبعة 1
نتين 1
نسبته 1
نهاي@@ 1
هرق@@ 1
وبلدة 1
وغواي 1
ولدى 1
ومعدل 1
ويلا 1
ياف@@ 1
يزية 1
7000 1
أرباح@@ 1
أرجن@@ 1
ألغى 1
إنسي 1
اجتياز 1
الأوسع 1
الإنت@@ 1
الذروة 1
الرفاعي 1
الركن 1
الغموض 1
الفحوصات 1
الفيروسية 1
المزروعة 1
المصير 1
المنز@@ 1
بسة 1
تعلن 1
تكب 1
ساندرز 1
ستُ@@ 1
سجناء 1
سمعت 1
سوان 1
صنفت 1
قضاها 1
كومن@@ 1
للعنف 1
للمدرسة 1
ليدز 1
ماين 1
مدعومة 1
مناز@@ 1
منتق@@ 1
نائي 1
هابي 1
هذان 1
وأظهرت 1
واتها 1
والسلامة 1
ورائد 1
وسيع 1
وممارسة 1
يشتهر 1
Con@@ 0.08481569028732969
إنفاذ 1
اعين 1
افظ 1
البلاست@@ 1
السدود 1
العابدين 1
الغارات 1
الكنسي 1
المحادثات 1
المدخلات 1
المصممة 1
الموظف 1
الواضحة 1
انتم@@ 1
تحري@@ 1
ترم 1
تلاميذه 1
ديده 1
ديربي 1
رتب 1
رجلا 1
شخصين 1
صوتا 1
قطري 1
لاختيار 1
لاو 1
مرها 1
مغرب 1
ممن@@ 1
منجم 1
مهاجرين 1
مهنته 1
ميسوري 1
نصير 1
واتحاد 1
ويمر 1
يتقدم 1
يشرح 1
69@@ 1
CA@@ 0.3666046006243829
ea 0.15215158996714534
أندريس 1
اقي 1
الأداة 1
الأقران 1
التعوي@@ 1
التكافؤ 1
التكرار 1
الجرمانية 1
الحفظ 1
الرقة 1
الفريد 1
القماش 1
الكونت 1
اللف@@ 1
المحق@@ 1
المستعملة 1
المشابهة 1
الممرات 1
الموحد@@ 1
النيجر 1
الواد 1
الوفاء 1
بادي 1
بكرة 1
تخرج@@ 1
ثلثي 1
جبريل 1
حج 1
حقيبة 1
ديار 1
عاصم 1
فانت@@ 1
فاني 1
فرنسي@@ 1
فريزر 1
لأجهزة 1
لتسجيل 1
للولاية 1
مدفوعة 1
مستر 1
مظلة 1
مكتوم 1
نموذجية 1
نِ 1
والثمان@@ 1
وثة 1
وثيق@@ 1
وعمر 1
ومور@@ 1
يفتح 1
112 0.8101841600303143
1807 0.7134361765988851
280 1
AS@@ 0.3237559407273363
Brian 0.3085361123274452
IC@@ 0.4652557963838122
أدخلت 1
أسوان 1
أشر@@ 1
أفرادها 1
أيض@@ 1
إيان 1
اتهامات 1
اجن@@ 1
الراهب 1
الفرنجة 1
تحذ@@ 1
تشجع 1
تشكيلات 1
تكتي@@ 1
سياسيا 1
طاعة 1
عارف 1
كروفورد 1
ليندسي 1
مليوني 1
ميجاوات 1
نائم 1
نما 1
وائق 1
والحرية 1
والسلوك 1
وتحديدا 1
وماك@@ 1
1.8 1
from 0.004002963956487495
أنا@@ 1
الأمني 1
الارتبا@@ 1
الجلوس 1
الروائية 1
الملاريا 1
المنفصلة 1
انتظام 1
بيرن 1
تعريفات 1
توصية 1
جنازة 1
خرق 1
ديدة 1
ردة 1
رقعة 1
سقاط 1
سلعة 1
شكري 1
صريح 1
فقوا 1
كروا@@ 1
لانه 1
لحان 1
للأراضي 1
للفيروس 1
للمؤسسة 1
لمملكة 1
ليكا 1
لَّ 1
مجلد 1
مكر@@ 1
مميز@@ 1
منطق 1
ميتش 1
وإزالة 1
ومواد 1
وَّل 1
يتعلم 1
Fred 0.4884084520827745
أُبلغ 1
اجتماعيًا 1
الإمكان 1
البادية 1
التقليل 1
التنافسية 1
الحسابية 1
بالحياة 1
بتدريس 1
بعل 1
بولتون 1
بيط 1
خاطئ 1
ديوهات 1
رابط 1
راة 1
رايلي 1
شواطئ 1
عس@@ 1
عقي@@ 1
فترته 1
فيتز 1
كريك@@ 1
لمنتخب 1
مغاد@@ 1
مكافأة 1
منير 1
نصرية 1
والشرطة 1
وصولاً 1
ونشأته 1
وهيدرات 1
† 0.08221021748432088
SP@@ 0.3862067152057975
TV 0.07314568959504894
آيات 1
أخرة 1
أسلاف 1
أقص@@ 1
أيّ 1
الاستقالة 1
الرحالة 1
الرخام 1
الروضة 1
السليمانية 1
الشفوية 1
المفرطة 1
اموا 1
بإنجلترا 1
بقسم 1
تبرت 1
تمس 1
خانات 1
سبها 1
صغر 1
عُمان 1
فارق 1
قنا 1
كتابا 1
مقاوم@@ 1
مقتله 1
ملكي@@ 1
نهوض 1
والتطور 1
والهدف 1
وتزوج@@ 1
ودراسات 1
وسيتم 1
وكبار 1
145 1
إيلي 1
ارتد@@ 1
الحاخام 1
الدفن 1
بروفي@@ 1
بويد 1
تحب 1
تعطيل 1
تمرات 1
تورينو 1
جهاض 1
حاصلة 1
حش@@ 1
خلفا 1
رحي@@ 1
زوا 1
شيري 1
طهم 1
عيّن 1
فسكي 1
فيكا 1
للإصلاح 1
مدان 1
مستقل@@ 1
هاك@@ 1
هـ@@ 1
وجدة 1
وروبا 1
وسيطة 1
يقي 1
95@@ 1
أرمسترونغ 1
استضافت 1
الدوق 1
الشام@@ 1
الليتو@@ 1
المتض@@ 1
المعطيات 1
المهر 1
الناصري 1
الوسيلة 1
بيات@@ 1
رويد 1
ريتشاردز 1
طرفين 1
للتخ@@ 1
مؤثرة 1
نصت 1
هدية 1
1801 0.6518127260608281
Re@@ 0.07398309375007207
أقار@@ 1
أنقاض 1
إحصاءات 1
استثناء 1
استطاع@@ 1
اقتح@@ 1
الأصناف 1
الاقتصاد@@ 1
التقدي@@ 1
الجبرية 1
الحار 1
الصدد 1
اللين@@ 1
المكر@@ 1
المهدية 1
امنا 1
بالانجليزية 1
بدولة 1
بينغ 1
تزوي@@ 1
تقلد 1
تقم 1
جوان@@ 1
حساسة 1
حكيم 1
حيًا 1
ذروته 1
ريموند 1
سبة 1
سريرية 1
سمعان 1
ضيات 1
للحماية 1
لوسي@@ 1
مبرغ 1
موقعًا 1
ميش@@ 1
ميلاده 1
نادى 1
هيت 1
هيون 1
يحتمل 1
ە@@ 1
one 0.01027793858144116
أبراهام 1
أزواج 1
أقمار 1
إلاّ 1
افرا@@ 1
الفعالية 1
النوعين 1
بئة 1
بروتوكولات 1
تعرضه 1
تهى 1
زِ@@ 1
عمرة 1
عوم 1
فريقيا 1
فمثلاً 1
للذكور 1
نسائية 1
نوك 1
وأصد@@ 1
والمركز 1
وبناءً 1
وتطوي@@ 1
وتنتشر 1
ومعرفة 1
ونظم 1
وهند@@ 1
يجتمع 1
يساع@@ 1
يكوس 1
Howard 0.30798398214622785
آبي 1
استه 1
الأغنام 1
البولية 1
الخاطئة 1
الدومينيكان 1
الصيدلة 1
المستقرة 1
الوعائية 1
تتناسب 1
تقترح 1
تقدمه 1
حصيلة 1
خروجه 1
روبة 1
سترول 1
شخصيًا 1
قصته 1
لتصنيف 1
لحقت 1
لفحص 1
للكاتبة 1
لمدرسة 1
لومبار@@ 1
نظريته 1
هاش@@ 1
والام@@ 1
والتصوير 1
ورك@@ 1
ونحن 1
يرهم 1
id@@ 0.08239231629597356
le 0.0025710508825246437
th@@ 0.06616696065084264
أه 1
إعاقة 1
ائيون 1
التحض@@ 1
الرؤساء 1
الرسام 1
الشاط@@ 1
الفلم 1
القص 1
الكرامة 1
الكهف 1
بالأشعة 1
بالزواج 1
بتي 1
بدائية 1
بعكس 1
تعليق@@ 1
جوازية 1
جى 1
سويفت 1
سيطرتها 1
عرفات 1
عمير 1
كتاباً 1
كراهية 1
لرؤية 1
لمحاربة 1
ليل@@ 1
ماذج 1
متكامل 1
موهبة 1
والسبب 1
وبات@@ 1
وتتمثل 1
وجل 1
يصاب 1
8000 1
افيزي@@ 1
الانحدار 1
البشير 1
الزوايا 1
السر 1
السرد 1
المثير 1
النجمي 1
انتشارًا 1
انحراف 1
انون 1
بارزًا 1
بارو 1
بلر 1
بيرا 1
تأثيره 1
تدلة 1
حواجز 1
ركلة 1
سرقسطة 1
سعي 1
سونيك 1
صاغ@@ 1
فهذه 1
قادها 1
كورني@@ 1
كيسي 1
للتربية 1
للتمييز 1
ماكميلان 1
مُنحت 1
ناقلة 1
والثقافي 1
والعودة 1
والفي@@ 1
وتكنولوجيا 1
وتنتهي 1
ومقدم 1
113 0.9025835346233787
63@@ 1
98@@ 1
Young 0.17319569399551282
أختها 1
أطفالهم 1
أنطاليا 1
أوساط 1
اعتزاله 1
الإخ@@ 1
الاض@@ 1
الثلث 1
الق 1
الكلوي 1
النائية 1
الناصرة 1
اهدات 1
ايو 1
تالي 1
تحديدا 1
ترشيحه 1
تضي 1
تطبيقه 1
تيوس 1
جوم@@ 1
حصص 1
حيى 1
داوود 1
دراساته 1
رعاة 1
روكس 1
رويج 1
صراحة 1
عاي@@ 1
غاني 1
فاشلة 1
فاكهة 1
فخري 1
فولي 1
قضي@@ 1
كاد 1
كامب 1
لسوء 1
للسكك 1
للمسيحية 1
مرغوب 1
مسؤولًا 1
نقيب 1
ودعات 1
وميروس 1
117 0.926945973401255
1776 0.9476639765635104
1792 0.676307072046523
20,000 0.9326753414397188
أوستين 1
استئ@@ 1
الإند@@ 1
الاشتراكيين 1
التعب@@ 1
التعددية 1
الظلم 1
الغازي 1
الفص 1
الكلور 1
المتطرفة 1
المقاطع 1
النُ@@ 1
اهتم@@ 1
بطريرك 1
بيعي 1
تشرشل 1
توريا 1
تياجات 1
جيو 1
حدٍ 1
صاف 1
صوته 1
عثور 1
كوه 1
لتصوير 1
لقناة 1
مجتمعة 1
معتق@@ 1
نبي 1
نحصل 1
وأشهر 1
والإناث 1
وشا@@ 1
وشة 1
ومسجد 1
260 1
ابس 1
ارضة 1
اضاف@@ 1
الإضراب 1
الدخان 1
الرافدين 1
السادة 1
الصيفي 1
الفاس@@ 1
المعاهدات 1
النزعة 1
الوضعية 1
بيّ 1
تدار 1
تونين 1
جراند 1
خصم 1
رامي@@ 1
ستست@@ 1
سجل@@ 1
شكال 1
عملا 1
عُقد 1
غولف 1
فادع 1
كلغة 1
لانك@@ 1
للناش@@ 1
مستقر 1
مكثفة 1
نائباً 1
نوعة 1
نير 1
وأحياناً 1
وأسر@@ 1
والأدوات 1
والبحرية 1
وتحديداً 1
وتُعد 1
وثقاف@@ 1
وجبال 1
وجيمس 1
وحك@@ 1
ورئيس@@ 1
وستا 1
وفه 1
ووالدته 1
1400 1
Alan 0.3452797498536551
CD@@ 0.6131993909589071
der 0.0014974213522616184
أكس@@ 1
أندرياس 1
أوقفت 1
إبادة 1
إيفرتون 1
الأيض 1
الامتثال 1
التطبي@@ 1
التعريفات 1
التلقائي 1
الحدوث 1
السد@@ 1
القاعدية 1
الكشافة 1
بانه 1
بريك@@ 1
بولز 1
تجاريًا 1
تجسيد 1
تخلق 1
تيون 1
حمامات 1
دريم 1
ديز@@ 1
رزق 1
زعاج 1
سامات 1
سيري@@ 1
عدين 1
علبة 1
فعلت 1
فكرية 1
فوك@@ 1
كلوب 1
للاش@@ 1
للمدارس 1
مقاتلي 1
منتص@@ 1
هاجرت 1
هاية 1
وتغير 1
ورأس 1
وعائلته 1
وكر@@ 1
يحول 1
يمت 1
أصلاً 1
أصولها 1
الأبد 1
الأستر@@ 1
البلاستيك 1
التأسيسية 1
التراب 1
الريش 1
السمعية 1
السور@@ 1
المسلحين 1
بالسرطان 1
بتأليف 1
بترول 1
بركات 1
حلمي 1
دج@@ 1
دونية 1
دينو 1
رأسمالية 1
شاركة 1
قومي 1
كوميدية 1
متمر@@ 1
معان 1
والعرب 1
والعلم 1
وحشية 1
ورغ 1
وزنها 1
وساعد 1
Hall 0.0917270176359845
آدمز 1
أرث@@ 1
إيرباص 1
استغل 1
اقير 1
الأحفوري 1
التأريخ 1
المحتملين 1
المواسم 1
الوس 1
اليف 1
بقانون 1
بمحاولة 1
تشون 1
تكليف 1
جلون 1
دفاعية 1
رامي 1
طفى 1
عصابات 1
غط@@ 1
غنت 1
فليس 1
قوي@@ 1
كأداة 1
لغاية 1
للصناعات 1
لوه 1
ناوي 1
نوادي 1
هدد 1
هري@@ 1
والأسلحة 1
وتدور 1
وحرب 1
وطبيب 1
ويختلف 1
يحتاجون 1
يصب 1
يَ 1
أدا@@ 1
أستون 1
أشبه 1
أوغندا 1
إماراتي 1
إنجلاند 1
احتجاج@@ 1
اشتباكات 1
البراز 1
الخليجي 1
الرنا 1
الظاهرية 1
الغلي@@ 1
المبادرات 1
الملوثات 1
الهما 1
امتلا@@ 1
انتحار 1
بروتست@@ 1
تاجه 1
تسو 1
تقاسم 1
تقود 1
تورط 1
جماع@@ 1
رحيل 1
ريع 1
ساسكات@@ 1
سيرتها 1
طرحت 1
قطعت 1
كربلاء 1
مبادرات 1
مونة 1
نافع 1
نيكا 1
والأبيض 1
وتشجيع 1
ورأى 1
1,000 0.4940239735127963
36.@@ 1
أخو@@ 1
ألباني 1
إقام@@ 1
اخرة 1
اشتغل 1
الإنجيل 1
الاستغلال 1
البيزنطيين 1
الجمركية 1
المجد 1
المداري 1
الوقائية 1
اوق@@ 1
بالو@@ 1
بدأوا 1
بطول@@ 1
تبرز 1
تبعا 1
تـ@@ 1
تنظر 1
تورو 1
جداول 1
حدّد 1
دات@@ 1
راميريز 1
زنجبار 1
سكاي@@ 1
ضفة 1
فالك@@ 1
فقيرة 1
فيرنون 1
فيفا 1
كومار 1
للبشر 1
مارين 1
مشاع@@ 1
نعرف 1
نينوى 1
هاً 1
واستخدامها 1
والسويد 1
والصي@@ 1
وتشار@@ 1
وتشتهر 1
وّن 1
يتجه 1
يتحكم 1
ensis 0.2201965526874932
musician 0.4637282324459267
ot@@ 0.06833874123965786
أسك@@ 1
أعمق 1
إنتا@@ 1
استرجاع 1
الأطباق 1
الضريبة 1
الكح@@ 1
الماليزية 1
المجانية 1
المدمجة 1
المنصوص 1
المنظم 1
الوجوه 1
بأعداد 1
تاري 1
تتفاعل 1
تمتع@@ 1
تيمو@@ 1
سبير 1
ضرور@@ 1
لشبكة 1
للتعاون 1
متميز 1
مثالي 1
مجهزة 1
مراسل 1
مرز@@ 1
ميمات 1
نفة 1
نُقل 1
هزمت 1
واك 1
ومها 1
وميات 1
33.@@ 1
AC@@ 0.4472977488877421
α 0.3964317855162889
מ@@ 1
أنتاركتيكا 1
اثنا 1
اجد 1
التعاون@@ 1
التوليد 1
العشب 1
الفطرية 1
الفلا@@ 1
المغولية 1
المنغ@@ 1
بالطبع 1
تدريجي 1
تشفير 1
توصلت 1
جئ 1
حلوى 1
عائد 1
عزبة 1
علاوةً 1
عَلَى 1
قريبًا 1
لانكا 1
لبث 1
للأحداث 1
للصين 1
للهيئة 1
لمثل 1
مسلح 1
منطقية 1
نموذجًا 1
نوف 1
وقلة 1
وقوف 1
يانوسيا 1
ًة 1
أسلم 1
الأخوين 1
الاستيطان 1
التفاح 1
الجان@@ 1
الحاجب 1
الحامية 1
الحكايات 1
الخصية 1
الخطورة 1
الرائحة 1
المبيض 1
المحلات 1
المسبار 1
المعماريين 1
الميراث 1
الوصل 1
باشر 1
بحيرات 1
بمفر@@ 1
بيت@@ 1
بيها 1
بيون@@ 1
جرين@@ 1
خصيصًا 1
دلانية 1
دوغان 1
شكلاً 1
فتى 1
لتخفيف 1
للإن@@ 1
لياف 1
لَت 1
م2 1
متفرقة 1
مرض@@ 1
مصباح 1
ممفيس 1
موسوم 1
مولة 1
نزاف 1
نود 1
واجتماعية 1
واً 1
وسطها 1
وضمان 1
ولكل 1
ويس@@ 1
يُح@@ 1
1,0@@ 1
1799 0.7848004824145407
1817 0.6516709586371031
2.2 1
ATP 0.5538551980631845
أبوت 1
إعلام 1
اؤل 1
اتر 1
التحسينات 1
التقارب 1
الموجودين 1
باكت 1
بالعالم 1
بالمقابل 1
سياسيين 1
شيدت 1
عزة 1
عنيف 1
فلسفية 1
فهمي 1
قلم 1
كاراك@@ 1
كوهين 1
مأخوذة 1
متباينة 1
مصادرة 1
مكلفة 1
مهنا 1
مينة 1
نشرة 1
نّ@@ 1
وجيه@@ 1
وصفة 1
وعب@@ 1
وكثير 1
ينتي 1
يوش 1
ّج 1
121 1
Frederick 0.3484920758637356
أخذوا 1
أوضحت 1
إداريا 1
الأقواس 1
البولنديين 1
الديناميكية 1
السلفية 1
العابرة 1
اللمف@@ 1
المعي@@ 1
بإي@@ 1
بتوجيه 1
بزراعة 1
تأريخ 1
تحديداً 1
تزي@@ 1
تعهد 1
جمل 1
راوات 1
زرق 1
صاص@@ 1
فدع 1
قره 1
قلبه 1
قيادات 1
لست 1
للدخول 1
مايرز 1
محص@@ 1
نانديز 1
هالي 1
والجنوبية 1
وجاءت 1
يشا 1
يشن 1
يفها 1
يّات 1
Clark 0.33005145279464687
onlyinclude 0.31675885338682974
اريوهات 1
استجاب@@ 1
اغا 1
الأسلاك 1
الاكت@@ 1
البند@@ 1
البنى 1
الجاهلية 1
العاص 1
العقار 1
الفيني@@ 1
القيروان 1
اللَّ@@ 1
المستشارين 1
المفوض 1
الوريا 1
حجمه 1
داثيات 1
راعي 1
ستروم 1
سلمى 1
شريعة 1
طانات 1
عشاب 1
فاز@@ 1
فورا 1
قنابل 1
كبريتيد 1
كممثل 1
ماكلي@@ 1
متخصص@@ 1
متلكات 1
مطلوبة 1
ملغ 1
ميليان 1
نتا@@ 1
نجاة 1
نشيد 1
هاماً 1
هيدروكسيد 1
وتحصل 1
وزوج@@ 1
وعرضها 1
وكام@@ 1
ينسكي 1
ّرة 1
oc@@ 0.09105388377404279
أصحابه 1
أمَّا 1
أيون 1
الأين 1
الاسكتلندية 1
التحري@@ 1
الجذب 1
الحرا@@ 1
الذكي 1
القائل 1
المسته@@ 1
اوج 1
بإلغاء 1
بدءا 1
بريدة 1
بمتلازمة 1
حلز@@ 1
حنيفة 1
حوار@@ 1
ذٍ 1
ركن 1
رودي@@ 1
رّف 1
سبل 1
شاد 1
شيب 1
ضلة 1
عةً 1
عقلية 1
عمت 1
ــ 1
فوت 1
قانونيًا 1
قبض@@ 1
لفي@@ 1
مْ 1
ناسيونال 1
نافارا 1
نزول 1
نيكي 1
واستق@@ 1
والسلطة 1
وقتًا 1
ونيوزي@@ 1
ونيون 1
ويُعتبر 1
يرب@@ 1
Gordon 0.3310153037667568
Retrieved 1
ata 0.09833840294578967
أسبوعية 1
اتصل 1
الآرامية 1
الحاسوبية 1
الصليبي 1
الطبخ 1
العريضة 1
المبية 1
النسر 1
النظافة 1
انتين 1
بالأرض 1
بالدم 1
بساتين 1
تحقيقه 1
تماش@@ 1
تنتجها 1
توما 1
ثث 1
جيانغ 1
حفرة 1
حنة 1
دمية 1
رئاسته 1
رينز 1
سخين 1
سونز 1
عاتهم 1
عامه 1
كنشين 1
لأمريكا 1
لاحظة 1
لتخزين 1
للعمليات 1
لير@@ 1
مستودع 1
نقابي 1
واح 1
وارتف@@ 1
والشي@@ 1
وحظ@@ 1
وشرك@@ 1
وصية 1
ووج@@ 1
يضرب 1
116 0.9358227553479406
أجد@@ 1
أوغست 1
ؤوا 1
إيزابيل 1
ارم 1
اسر 1
اسع 1
اعتبره 1
التصاميم 1
الجبن 1
الجروح 1
الجيو@@ 1
الحداد 1
الطاب@@ 1
الغزل 1
الكعبة 1
اللوم 1
المنج@@ 1
الوردي 1
انيوم 1
ايرين 1
ايضاً 1
بالتهاب 1
بتوقيت 1
بحرين 1
تًا 1
حاولوا 1
ديوس 1
راجا 1
سببت 1
صقر 1
محافظه 1
ميرزا 1
نسة 1
والاتصال 1
والتض@@ 1
والكتلة 1
وريك 1
وسبب 1
ana 0.06647386182586407
idae 0.1894360997792488
آخرها 1
آلي 1
أحداثها 1
ألمان@@ 1
استثنائية 1
استهداف 1
الأذربي@@ 1
التسع@@ 1
الدائري 1
الشيخ@@ 1
الصف@@ 1
القراءات 1
القوارض 1
الكاث@@ 1
الوثائقية 1
اَ 1
باطن 1
بالبقاء 1
بيرتو 1
تاكر 1
تجرى 1
تحصيل 1
تساقط 1
تنصيب 1
جيسيكا 1
خيبر 1
ذكريات 1
ساح 1
شنا@@ 1
شوم@@ 1
شيل 1
عنق@@ 1
غنائي 1
فأ 1
كانتا 1
لتد@@ 1
ماست@@ 1
مبراطورية 1
نر@@ 1
نعيم 1
هرنانديز 1
وأربع 1
والأفراد 1
والرابع 1
actress 0.3302650788976223
الأرصاد 1
الإخوة 1
الإمبراطورة 1
الاحتجاج 1
الاو@@ 1
الخضروات 1
الكل 1
المتأث@@ 1
المتهمين 1
انشاء 1
بوليس 1
بيلو@@ 1
تسجي@@ 1
تشاي@@ 1
تصغير 1
تلقائيًا 1
دينال 1
رفات 1
سالي@@ 1
شاش@@ 1
شيو 1
صربي 1
صعب@@ 1
علانات 1
قوه 1
للموقع 1
نزية 1
هايدل@@ 1
يشعرون 1
يمرات 1
77@@ 1
أندرويد 1
أوّل 1
اقم 1
الحسي 1
العاص@@ 1
تحريرها 1
تحمي 1
تشارد 1
تكتشف 1
تهرت 1
روبن@@ 1
سديم 1
سله 1
صابات 1
طئ 1
عاج@@ 1
قرش 1
قوق@@ 1
كراه 1
لكه 1
للمد@@ 1
للها 1
لمحمد 1
مؤيدي 1
مالكوم 1
مرسيليا 1
مطاردة 1
معزولة 1
مونز 1
نظره 1
هبط 1
هدى 1
وابط 1
وصدي@@ 1
يير 1
21@@ 1
CT@@ 1
it 0.006315155603138138
text 0.1920242878641478
أعداء 1
أنّها 1
ابيح 1
احتواء 1
الامير@@ 1
البلورات 1
القنصل 1
الليثيوم 1
المخطوطة 1
المرج@@ 1
المعتدل 1
المعتقد 1
المقدوني 1
المقطعي 1
تسجيلها 1
خدرات 1
ذرع 1
شعري 1
صوم@@ 1
فلاسفة 1
كوخ 1
لأب 1
لبهم 1
لقرية 1
للشرب 1
للمج@@ 1
ملونة 1
وزان 1
وسبة 1
وواحد 1
يزر 1
يّن 1
64@@ 1
le@@ 0.06845397854562679
إدانة 1
استنتاج 1
الإغري@@ 1
الانح@@ 1
البرمجية 1
الحضانة 1
العادل 1
الكفاح 1
الكوني 1
المزعومة 1
المواطنون 1
باغو 1
ببط@@ 1
بغير 1
تأي@@ 1
تسا 1
تموت 1
جسمه 1
خدا@@ 1
رٍ 1
زيغ 1
عو 1
كيتا 1
مسافر 1
معابد 1
موضح 1
مُنح 1
نادو 1
نزار 1
وإطلاق 1
واخر 1
وايضا 1
وبهذه 1
ودار@@ 1
َل 1
2030 1
York 0.028573084668984745
ألبومه 1
أهداف@@ 1
إخت@@ 1
اغتياله 1
الأنج@@ 1
الإمداد 1
البربر 1
الجحيم 1
القوط@@ 1
المتبقي 1
المسيحي@@ 1
الموعد 1
انتها 1
انسك 1
تجنيد 1
تول 1
حقًا 1
حينئذ 1
ستوديو 1
ضعة 1
طلاء 1
طلقة 1
علنا 1
فاتح 1
فاغ@@ 1
قائدا 1
للب@@ 1
للوزن 1
مشرف 1
ممالك 1
نفايات 1
هاليفاكس 1
وثم 1
وجمي@@ 1
وجودة 1
ولده 1
ويجري 1
ويني@@ 1
يديرها 1
34.@@ 1
أته 1
أخرجه 1
أربيل 1
أقوال 1
إيست@@ 1
اختلفت 1
اعتزلت 1
الأنمي 1
التسليم 1
الجزية 1
الخمر 1
الدور@@ 1
القوم 1
الكلاسي@@ 1
الكهرومغناطيسية 1
اللفظ 1
المبع@@ 1
المزاج 1
المعتقلين 1
المنافس 1
الموضوعية 1
النافذة 1
بأنفسهم 1
بالكثير 1
بالمثل 1
بمحرك 1
تزه 1
تمزق 1
خلت 1
ذُكر 1
رخاء 1
سبرغ 1
فراز 1
لستون 1
مبيعًا 1
مشتق@@ 1
ملكاً 1
نيكاراغوا 1
نيكول 1
واته@@ 1
والتواصل 1
والصناعات 1
وتمتلك 1
وعاص@@ 1
5,000 0.6213355447400845
ר@@ 1
أمريكيون 1
أوروغ@@ 1
أيدي@@ 1
إخفاء 1
استنادا 1
الإدارات 1
الارض 1
الاستئ@@ 1
الاستجابات 1
الانحراف 1
البيولوجيا 1
الترجيح 1
الجثة 1
الجمع@@ 1
الليمفاوية 1
المتحرك 1
الهضبة 1
الوفاق 1
انفصلت 1
اهب 1
اياه 1
بونابرت 1
تعيينها 1
حاله 1
داس@@ 1
زان@@ 1
سعاد 1
صغره 1
فايمار 1
كلفة 1
كيري 1
لاهاي 1
للإعلام 1
لمواصلة 1
مواجه@@ 1
نوري@@ 1
هيج 1
ولعبت 1
وماري 1
ويحاول 1
وُلِ@@ 1
يونيون 1
َّع 1
Jackson 0.19345718420382133
is@@ 0.06447831883518364
آين@@ 1
إحص@@ 1
إيل 1
افتها 1
الآمن 1
الأفقي 1
الاسط@@ 1
الحمامات 1
السيليكون 1
الصاروخ@@ 1
الطفلة 1
العاب@@ 1
الماعز 1
المستعمر 1
المعاناة 1
المقبل 1
المنوفية 1
بإقليم 1
ببة 1
تناق 1
جوت@@ 1
خاذ 1
خزانة 1
ساكس 1
ضروات 1
طاق 1
عليه@@ 1
فكل 1
قصى 1
كأستاذ 1
كنوع 1
لإعداد 1
لرجل 1
مارسيل 1
ماكدون@@ 1
مانا 1
مختلط 1
موف 1
ميتشل 1
نامي 1
هرمونات 1
وأمه 1
والدكتور 1
والممارسات 1
واليونان 1
وترتفع 1
يتسم 1
British 0.03984448897501888
اذه 1
ازل 1
الأرو@@ 1
العرضي 1
المتمر@@ 1
الواف@@ 1
امون 1
بايل 1
بقطع 1
بلجيكي 1
تطالب 1
تعة 1
تيوم 1
حضرية 1
راتيجية 1
زيًا 1
فنانين 1
كيزة 1
كيلومتراً 1
للاجئين 1
متي 1
محفوظة 1
نادرا 1
ناندو 1
وأشارت 1
والطلاب 1
وبمجرد 1
وحضر 1
يـ@@ 1
يُّ 1
َد 1
ّعت 1
1795 0.6756266921170542
1803 0.5795939983717191
أليسون 1
إلينا 1
إنجازاته 1
اتهام 1
استقب@@ 1
الاحترام 1
الاحتياط@@ 1
التعاليم 1
الجيوب 1
العاب 1
الفخرية 1
الفوت@@ 1
المؤيد 1
المدخ@@ 1
المستهدف 1
الناخ@@ 1
بادن 1
بيرغر 1
تدال 1
تصميمات 1
تقترب 1
تواريخ 1
ثيون 1
جمعه 1
دوليًا 1
رأسهم 1
ريتريا 1
ستراليا 1
سلمية 1
علنًا 1
فقها 1
كشمير 1
كلك@@ 1
لتدريس 1
لكى 1
ليلا 1
لٌ 1
لِمُحافظة 1
مرفق 1
مطلو@@ 1
والطيور 1
والملك 1
وتأسيس 1
وخدم 1
وزين 1
يران@@ 1
يمتاز 1
َّب 1
123 0.9630019361555048
es@@ 0.05001412294340949
أوساكا 1
إعلامي 1
التَّابِعة 1
الحصون 1
العشرينات 1
الفلاح@@ 1
المضيبي 1
الملائكة 1
انفصل 1
اٍ@@ 1
جاستن 1
دلر 1
دهام 1
ريبة 1
زب 1
سارية 1
سرًا 1
صادرات 1
طبخ 1
فأصبحت 1
فسك 1
قبور 1
كينج 1
لإحدى 1
لتطبيق 1
للبطولة 1
متوق@@ 1
معتقد@@ 1
مورينو 1
نتو@@ 1
نسكري@@ 1
نشوب 1
والأشخاص 1
والمرأة 1
وبط@@ 1
وحت 1
وروى 1
وغيرهما 1
ومخرجة 1
ومكتب 1
ونوع 1
يسافر 1
114 0.8553365901196046
A. 0.10524599344657294
da 0.023505749357918614
أتاح 1
أشغال 1
أصيبت 1
أغلبها 1
أيها 1
إنشائه 1
ادعت 1
ارِ@@ 1
الإرث 1
البكتيرية 1
التحيز 1
الدبابة 1
الرنين 1
الريبوزي 1
الطهي 1
الفايك@@ 1
المالك@@ 1
المغلوب 1
امى 1
باحية 1
بالدرجة 1
بليموث 1
بوح@@ 1
بوه 1
تامين 1
تبعًا 1
تشابهار 1
جانبها 1
جانفي 1
جنا 1
حذر 1
خدمون 1
خصمه 1
دوقة 1
ساري 1
ضمنهم 1
عشوائي 1
عملاً 1
فريقا 1
فيفة 1
فيليبي 1
قراء 1
كعلاج 1
لوري@@ 1
ليلاً 1
مبو@@ 1
مجلس@@ 1
مخد@@ 1
مدادات 1
مسلمين 1
مناط@@ 1
منين 1
مَّا 1
والجر@@ 1
وتطبيق 1
وتل@@ 1
ومذ@@ 1
ّام 1
1783 0.8757260023269143
day 0.041746036309467674
أبيها 1
اذها 1
الأبقار 1
الإيرانيين 1
الانتص@@ 1
الخاصية 1
الصوفي 1
الكارثة 1
الهدايا 1
بخط@@ 1
بطية 1
بكفاءة 1
تسجل 1
تقدات 1
تقليديًا 1
تُقَدَّر 1
خاندرو 1
ديني@@ 1
ديوك 1
رحم@@ 1
سوفت 1
ضم@@ 1
كعامل 1
كوما 1
لتشجيع 1
للبريد 1
محاور 1
مخالف@@ 1
مفادها 1
منخفض@@ 1
ميلًا 1
نافست 1
و5@@ 1
والفيزياء 1
والمساعدة 1
يتص@@ 1
إفريقية 1
اجين 1
اسين 1
الاور@@ 1
البرتغ@@ 1
الجيزة 1
الدرامي 1
الس 1
الصرع 1
المؤيدين 1
المعيارية 1
اليوت@@ 1
اندمجت 1
انسح@@ 1
بإست@@ 1
باردة 1
بشه@@ 1
بطه 1
بونات 1
تاك 1
تاون@@ 1
تتابع 1
ترغب 1
تلسكوب 1
جقة 1
حاضرة 1
خال 1
دايفيد 1
سبقه 1
سحر 1
طبيعتها 1
عادتها 1
كابول 1
لفي 1
ليالي 1
ماب 1
مث 1
محي 1
ميشال 1
نسج 1
نيخ 1
والمجتمعات 1
ياتي 1
يناس 1
at@@ 0.05337862315300296
أستاذ@@ 1
أعيدت 1
أولوية 1
اعتر@@ 1
الاختي@@ 1
الاستعانة 1
الجلي@@ 1
الصنا@@ 1
الصويا 1
العمودي 1
الفرج 1
القبور 1
المصاحبة 1
الناطقين 1
اليدوي 1
تطورات 1
تفاض@@ 1
توص@@ 1
ثيلين 1
خصبة 1
ددين 1
ذًا 1
سُمي 1
طالبا 1
طراف 1
كلايد 1
كمثال 1
للمعهد 1
مرغ@@ 1
نيد 1
ه.@@ 1
هيا 1
وأمين 1
والبنية 1
والكيمياء 1
والنرويج 1
ودورة 1
وزاد 1
وسرطان 1
وعمره 1
ومف@@ 1
يماً 1
پ@@ 1
155 1
أينشتاين 1
ائك 1
البراكين 1
الدولار 1
الزجاجية 1
الصفوف 1
العتي@@ 1
المستوطنة 1
ايام 1
باختيار 1
بالتوا@@ 1
بالفوز 1
باللغتين 1
باللهجة 1
برغ@@ 1
تاء 1
تبي@@ 1
تجريبي 1
تفضل 1
تنفذ 1
خزانات 1
دونكان 1
زينة 1
شيش 1
طروا 1
عاطفية 1
عتهم 1
كاملا 1
لكسب 1
لكلا 1
للمرء 1
ليكوبتر 1
ماريان 1
مخالفة 1
مُع@@ 1
نادية 1
نفر 1
والأفكار 1
والتعلم 1
والهم 1
وبقية 1
وتنتج 1
وتوسيع 1
ولكي 1
ومكتبة 1
ويليام@@ 1
ياتهم 1
Kevin 0.3442097369427413
احتيا@@ 1
اعضاء 1
الأصليون 1
التزلج 1
التسوية 1
التمه@@ 1
الزائ@@ 1
الزلزال 1
المأهولة 1
المدرج 1
المضافة 1
المقعد 1
الملا 1
انواع 1
بإحدى 1
بحَوالَي 1
بمِساحة 1
بَل@@ 1
تقابل 1
جودي 1
حله 1
خفضت 1
دندي 1
شقيقتها 1
عابين 1
عاته 1
عادته 1
غرامة 1
[...]
