， 1
的 1
。 1
、 1
年 1
在 1
（ 1
） 1
是 1
. 0.13828081696863592
和 1
月 1
了 1
於 1
為 1
日 1
》 1
《 1
· 1
人 1
有 1
为 1
中 1
- 1
他 1
被 1
： 1
「 1
」 1
與 1
“ 1
” 1
也 1
上 1
後 1
而 1
由 1
以 1
及 1
等 1
1 1
到 1
" 1
； 1
与 1
) 0.17674175941554413
于 1
( 0.1751918019275241
但 1
2 1
, 0.029312247869945938
大@@ 1
至 1
3 1
一个 1
其 1
都 1
4 1
會 1
或 1
后 1
5 1
之 1
對 1
來 1
地 1
時 1
位 1
10 1
站 1
不 1
下 1
6 1
可以 1
并 1
中@@ 1
一@@ 1
7 1
8 1
中国 1
日本 1
12 1
長 1
使用 1
子 1
第 1
所 1
9 1
香港 1
; 0.4329016151532081
包括 1
以及 1
大 1
者 1
她 1
米 1
曾 1
其中 1
前 1
一個 1
就 1
11 1
州 1
名 1
将 1
人口 1
/ 0.8300225637149742
不@@ 1
: 0.28078822697087624
軍 1
新 1
时 1
道 1
山 1
主要 1
公司 1
对 1
向 1
性 1
馬 1
西@@ 1
三@@ 1
多 1
省 1
政府 1
又 1
出 1
小@@ 1
用 1
市 1
新@@ 1
區 1
之@@ 1
县 1
里 1
德 1
高@@ 1
区 1
阿@@ 1
該 1
南@@ 1
其他 1
该 1
亦 1
李@@ 1
平方公里 1
它 1
王@@ 1
臺 1
家 1
因此 1
美國 1
路 1
以@@ 1
作 1
位于 1
成 1
金@@ 1
最 1
世界 1
內 1
会 1
個 1
線 1
從 1
可 1
縣 1
因 1
人@@ 1
地区 1
已 1
並 1
城 1
多@@ 1
科 1
更 1
製 1
德@@ 1
化 1
自己 1
安@@ 1
斯 1
拉@@ 1
美国 1
文@@ 1
中心 1
法 1
並@@ 1
成立 1
海@@ 1
可能 1
政治 1
將 1
研究 1
工作 1
約 1
部 1
能 1
从 1
國 1
天@@ 1
特@@ 1
日@@ 1
一 1
式 1
市镇 1
自@@ 1
稱 1
20 1
斯@@ 1
代表 1
比 1
河 1
& 1
个 1
起 1
克 1
表示 1
分 1
特 1
上@@ 1
号 1
開始 1
之一 1
自 1
任 1
水@@ 1
高 1
村 1
有@@ 1
北@@ 1
此 1
西 1
生 1
即 1
說 1
使 1
四@@ 1
型 1
要 1
國@@ 1
不同 1
其@@ 1
文 1
— 0.31955499322680136
則 1
由@@ 1
卡@@ 1
部分 1
法国 1
镇 1
_ 1
五@@ 1
二@@ 1
作品 1
小 1
林@@ 1
开始 1
本@@ 1
公里 1
这 1
中國 1
进行 1
台灣 1
副 1
利@@ 1
国家 1
一些 1
達 1
大学 1
年代 1
克@@ 1
事 1
台 1
加@@ 1
局 1
巴@@ 1
正式 1
15 1
提供 1
成为 1
指 1
科@@ 1
外 1
進行 1
王 1
行政 1
南 1
30 1
所有 1
把 1
派 1
他們 1
马@@ 1
地區 1
羅 1
内 1
軍@@ 1
外@@ 1
度 1
將@@ 1
成為 1
爾 1
氏 1
入 1
文化 1
地@@ 1
第一 1
公@@ 1
車 1
可@@ 1
2010 0.9792545833155459
得 1
全@@ 1
東 1
拉 1
號 1
城市 1
年@@ 1
法@@ 1
白@@ 1
本 1
出@@ 1
还 1
山@@ 1
获得 1
分@@ 1
大學 1
美@@ 1
力 1
東@@ 1
水 1
以下 1
则 1
亞@@ 1
處 1
下@@ 1
古@@ 1
来 1
属 1
因為 1
formula 1
石@@ 1
人物 1
行 1
明@@ 1
國家 1
林 1
军 1
面積 1
没有 1
他们 1
座 1
如 1
利 1
生活 1
事件 1
尼@@ 1
我 1
認為 1
成@@ 1
才 1
主@@ 1
16 1
電影 1
通过 1
目前 1
屬 1
历史 1
伊@@ 1
18 1
當時 1
為@@ 1
均 1
去 1
正@@ 1
21 1
2019 1
但是 1
海 1
原@@ 1
2011 0.9805911031403701
天 1
足球 1
面 1
2009 1
隊 1
平@@ 1
次 1
名@@ 1
陳 1
明 1
2016 1
前@@ 1
19 1
因@@ 1
管理 1
光 1
卡 1
认为 1
14 1
东@@ 1
加入 1
尔 1
同年 1
兩@@ 1
所@@ 1
布@@ 1
歷史 1
2018 1
重@@ 1
格@@ 1
讓 1
重要 1
基@@ 1
再 1
較 1
手 1
而@@ 1
线 1
2012 0.9902392711822838
郡 1
13 1
爾@@ 1
同@@ 1
下辖 1
2013 1
尼 1
時間 1
無@@ 1
著 1
間 1
需要 1
開@@ 1
支持 1
2017 1
制 1
约 1
武@@ 1
2014 0.9784471996522001
沙@@ 1
罗@@ 1
原 1
和@@ 1
建立 1
生平 1
2015 0.9895345915609576
17 1
元 1
期 1
地方 1
{ 1
獲得 1
女 1
後@@ 1
家@@ 1
北 1
八@@ 1
要求 1
格 1
zh 1
完成 1
作为 1
此@@ 1
內@@ 1
過 1
2008 0.9519756129876074
同時 1
黃 1
仍 1
哈@@ 1
长 1
} 1
口 1
學 1
由于 1
夫 1
車站 1
量 1
府 1
2020 1
教育 1
单位 1
金 1
清@@ 1
六@@ 1
例如 1
25 1
光@@ 1
便 1
国 1
铁路 1
比@@ 1
系 1
] 1
島 1
[ 1
成功 1
主 1
普@@ 1
方式 1
得到 1
受到 1
張@@ 1
第二 1
很 1
塔 1
這@@ 1
乡 1
時@@ 1
上海 1
版 1
基 1
發展 1
分布 1
工程 1
街 1
一般 1
器 1
會@@ 1
死 1
参加 1
两@@ 1
委员会 1
人民 1
復 1
集 1
雷@@ 1
周@@ 1
安 1
中央 1
每 1
通常 1
存在 1
歲 1
合@@ 1
波@@ 1
前往 1
花 1
場 1
加 1
賽 1
且 1
一種 1
之后 1
张@@ 1
定 1
發現 1
系統 1
2001 1
神@@ 1
受 1
行@@ 1
24 1
通@@ 1
相@@ 1
人口密度 1
只 1
称 1
2007 0.9010629406068791
另 1
任@@ 1
无@@ 1
子@@ 1
方面 1
字 1
關 1
機 1
－ 1
今 1
史 1
民@@ 1
就是 1
官 1
然而 1
華@@ 1
發 1
十@@ 1
提出 1
江 1
黑@@ 1
亞 1
花@@ 1
生@@ 1
發@@ 1
建@@ 1
形成 1
三 1
系统 1
另外 1
兵 1
木@@ 1
22 1
族 1
語 1
尔@@ 1
担任 1
心 1
黨 1
最大 1
2006 0.887211020478443
国@@ 1
段 1
非 1
具有 1
说 1
达 1
反@@ 1
一名 1
着 1
令 1
门 1
學@@ 1
主席 1
佈 1
國際 1
共 1
长@@ 1
塔@@ 1
及@@ 1
率 1
灣 1
宣布 1
北京 1
伯@@ 1
各@@ 1
艾@@ 1
石 1
港 1
只有 1
最高 1
队 1
一种 1
球 1
田@@ 1
吉@@ 1
英國 1
士 1
體 1
擔任 1
龍 1
同时 1
作@@ 1
點 1
故事 1
頭 1
洛@@ 1
根據 1
系列 1
合作 1
遊戲 1
室 1
语 1
所以 1
23 1
一位 1
接受 1
2021 1
学名 1
未 1
例 1
此外 1
出現 1
组织 1
平 1
係 1
首次 1
做 1
学 1
好 1
gt 1
附近 1
卻 1
= 1
这些 1
九@@ 1
小行星 1
門 1
瓦@@ 1
當@@ 1
造成 1
太@@ 1
角色 1
正 1
内@@ 1
萬 1
比賽 1
印度 1
片 1
学院 1
发展 1
七@@ 1
像 1
圣@@ 1
2000 0.918831221900543
回 1
属于 1
影響 1
一直 1
发现 1
同 1
2005 0.951324346130547
处 1
江@@ 1
合 1
這些 1
里@@ 1
專輯 1
美 1
方 1
元@@ 1
自由 1
湖 1
物 1
一座 1
打@@ 1
萬@@ 1
博@@ 1
女性 1
帶 1
姆 1
管 1
车 1
時期 1
寺 1
黄@@ 1
取得 1
森 1
增加 1
28 1
如@@ 1
北部 1
歌曲 1
世@@ 1
經@@ 1
設計 1
世纪 1
这个 1
案 1
數 1
恩 1
中华人民共和国 1
奧@@ 1
lt 1
方@@ 1
过 1
亚@@ 1
老@@ 1
刘@@ 1
重 1
這個 1
立@@ 1
永@@ 1
开@@ 1
活動 1
羅@@ 1
百@@ 1
沒有 1
沒 1
社會 1
游戏 1
命名 1
星 1
德国 1
之間 1
任何 1
如果 1
回@@ 1
社 1
戰 1
心@@ 1
当时 1
勒 1
書 1
给 1
共有 1
神 1
堂 1
场 1
代@@ 1
海拔高度 1
劉@@ 1
字@@ 1
国际 1
迪@@ 1
田 1
街道 1
政@@ 1
進 1
除了 1
意 1
26 1
不是 1
学校 1
受@@ 1
莫@@ 1
改@@ 1
轄 1
种 1
控制 1
布 1
根据 1
设计 1
信 1
音 1
福@@ 1
梅@@ 1
万@@ 1
英@@ 1
角 1
一次 1
車@@ 1
岁 1
學校 1
發行 1
米@@ 1
波 1
0 1
常@@ 1
皆 1
數@@ 1
杜@@ 1
陈@@ 1
000 1
台@@ 1
該@@ 1
期间 1
版本 1
' 1
首@@ 1
电影 1
朱@@ 1
27 1
之前 1
問題 1
纳 1
% 0.2250739180454165
城@@ 1
英国 1
維@@ 1
機@@ 1
獎 1
南部 1
A 0.30484734360675564
電@@ 1
節目 1
平均 1
点 1
因为 1
大量 1
屆 1
號@@ 1
唐@@ 1
体 1
埃@@ 1
館 1
教@@ 1
胡@@ 1
立 1
马 1
奇 1
时期 1
出版 1
開 1
們 1
院 1
級 1
轉@@ 1
岛 1
商@@ 1
品 1
入@@ 1
經 1
灣@@ 1
目 1
维@@ 1
曲 1
地理 1
發生 1
河@@ 1
見 1
聖@@ 1
青@@ 1
保@@ 1
建筑 1
權 1
非常 1
女@@ 1
界 1
31 1
塞@@ 1
比赛 1
直接 1
達@@ 1
时间 1
無 1
流 1
商 1
之间 1
2004 0.8512903851490046
流@@ 1
手@@ 1
組織 1
宗 1
全国 1
冠 1
民 1
问题 1
色 1
形 1
影响 1
納@@ 1
各 1
鄉 1
推出 1
作為 1
期間 1
泰@@ 1
已经 1
有限公司 1
植物 1
方法 1
级 1
为@@ 1
一起 1
設 1
動 1
員 1
重新 1
让 1
甚至 1
該國 1
帝 1
電視 1
著名 1
風@@ 1
教授 1
公 1
奥@@ 1
29 1
师 1
川 1
皮@@ 1
100 0.9397711020442417
總@@ 1
進入 1
雖然 1
工@@ 1
千@@ 1
半@@ 1
區@@ 1
列 1
| 1
過@@ 1
直@@ 1
包含 1
女子 1
经济 1
出现 1
帕@@ 1
愛@@ 1
车站 1
发生 1
航空 1
最佳 1
机 1
利用 1
龍@@ 1
西班牙 1
信@@ 1
形式 1
播出 1
称为 1
列@@ 1
師 1
接@@ 1
馬@@ 1
两个 1
位置 1
定@@ 1
蘭@@ 1
第三 1
主任 1
船 1
希@@ 1
进入 1
史@@ 1
通 1
身 1
直到 1
东 1
對@@ 1
用@@ 1
代 1
列表 1
英 1
戰@@ 1
舉行 1
班 1
電 1
面积 1
每@@ 1
行政区划 1
完全 1
並且 1
头 1
50 1
火@@ 1
市@@ 1
寫 1
蘇@@ 1
最終 1
of 0.0128064273225767
漢@@ 1
共同 1
單@@ 1
源 1
巴 1
活动 1
話 1
成員 1
托@@ 1
出生 1
士@@ 1
不能 1
雙@@ 1
連@@ 1
男子 1
造 1
总面积 1
交@@ 1
奇@@ 1
還@@ 1
路@@ 1
分別 1
章 1
參加 1
苏@@ 1
一部分 1
首 1
达@@ 1
音樂 1
再次 1
演出 1
计划 1
家族 1
指@@ 1
先@@ 1
龙@@ 1
康@@ 1
2003 0.8908429753591764
后来 1
當 1
提@@ 1
置 1
情 1
赫@@ 1
土@@ 1
共@@ 1
值 1
類 1
家庭 1
這 1
民主 1
選舉 1
桥 1
跟 1
战争 1
霍@@ 1
二 1
獲 1
決定 1
不過 1
大陆 1
居民 1
星@@ 1
低 1
月台 1
希望 1
能力 1
瓦 1
義@@ 1
非@@ 1
共和 1
那 1
群 1
索@@ 1
总@@ 1
意大利 1
魚 1
许多 1
言 1
时@@ 1
最@@ 1
殺 1
莱@@ 1
至@@ 1
罗 1
巴士 1
取 1
斯特 1
伊 1
早期 1
华@@ 1
后@@ 1
而且 1
服務 1
給 1
恩@@ 1
通過 1
发@@ 1
種 1
嘉@@ 1
節 1
房 1
汉@@ 1
根 1
納 1
當地 1
性@@ 1
真@@ 1
部@@ 1
政 1
宗@@ 1
總 1
交通 1
纳@@ 1
曼 1
圖 1
西部 1
人士 1
技术 1
最终 1
收@@ 1
你 1
政策 1
紅@@ 1
往 1
该@@ 1
宋@@ 1
委員會 1
当 1
安全 1
以上 1
平方千米 1
沃@@ 1
近 1
歐洲 1
初@@ 1
深@@ 1
2002 0.8107094380902209
堡 1
大部分 1
戰爭 1
經濟 1
視 1
關@@ 1
木 1
報 1
官@@ 1
學院 1
若 1
在@@ 1
法律 1
運動 1
the 0.006419870653934931
世 1
萨@@ 1
功能 1
未@@ 1
學生 1
方向 1
風 1
蘭 1
经 1
許多 1
C 0.9893331696211436
鲁@@ 1
使得 1
音@@ 1
中華民國 1
道@@ 1
模式 1
已經 1
红@@ 1
吳@@ 1
司 1
朝 1
富@@ 1
龙 1
书 1
军@@ 1
化@@ 1
… 1
B 0.9323349758828636
但@@ 1
面@@ 1
張 1
双@@ 1
万 1
决定 1
計劃 1
托 1
票 1
峰 1
数 1
特別 1
最初 1
去世 1
原因 1
中共 1
薩@@ 1
世紀 1
40 1
指出 1
加拿大 1
力@@ 1
應 1
常 1
运动 1
組 1
業 1
间 1
修@@ 1
先 1
口@@ 1
拍 1
甲@@ 1
迪 1
超@@ 1
何@@ 1
草 1
生涯 1
空@@ 1
想 1
店 1
奖 1
傳 1
密@@ 1
目@@ 1
反 1
打 1
官方 1
仍然 1
很多 1
架 1
松@@ 1
男 1
體@@ 1
事@@ 1
描述 1
玉@@ 1
進@@ 1
兩個 1
更@@ 1
清 1
走 1
赛 1
景@@ 1
雅@@ 1
的@@ 1
徐@@ 1
道路 1
選@@ 1
死亡 1
諾@@ 1
團 1
現 1
裡 1
聯賽 1
宮 1
团 1
則@@ 1
相關 1
华 1
丁@@ 1
志@@ 1
廳 1
威@@ 1
电@@ 1
总人口 1
兰 1
集@@ 1
起@@ 1
情况 1
年度 1
負責管 1
理 1
革命 1
除 1
类 1
关系 1
奧 1
党 1
夏@@ 1
目的 1
組成 1
建 1
寶@@ 1
登 1
兼 1
唯一 1
居 1
亚 1
社会 1
会议 1
瑞@@ 1
門@@ 1
蒂@@ 1
权 1
庄 1
野@@ 1
梁@@ 1
端 1
擁有 1
聲 1
全球 1
失@@ 1
杨@@ 1
民族 1
相 1
学@@ 1
1990 0.854753522673507
教 1
曼@@ 1
球隊 1
板 1
得@@ 1
结构 1
带 1
表 1
諾 1
图 1
貝@@ 1
娜 1
火 1
左@@ 1
相同 1
魯@@ 1
佛@@ 1
資料 1
机构 1
理@@ 1
應@@ 1
那@@ 1
全部 1
住 1
解@@ 1
阳 1
封@@ 1
全 1
領@@ 1
第一次 1
賽@@ 1
男性 1
萊@@ 1
溪 1
夫@@ 1
無法 1
分别 1
勒@@ 1
併 1
實@@ 1
華 1
省份 1
結果 1
单@@ 1
施@@ 1
来自 1
作用 1
病 1
这种 1
+ 1
成员 1
公路 1
頓 1
登@@ 1
低@@ 1
季 1
工 1
署 1
制@@ 1
推@@ 1
法國 1
精@@ 1
路線 1
主义 1
大型 1
雷 1
总统 1
盃 1
邦 1
班@@ 1
组成 1
门@@ 1
修 1
佩@@ 1
最后 1
樂@@ 1
发 1
師@@ 1
程 1
獨立 1
樓 1
初 1
設有 1
層 1
京@@ 1
結束 1
及其 1
报 1
志 1
项目 1
情況 1
聯@@ 1
古 1
每年 1
三年 1
制度 1
食 1
楊@@ 1
總統 1
鐵@@ 1
一部 1
普 1
建築 1
身@@ 1
不久 1
或者 1
德國 1
或@@ 1
1999 0.7569447456739515
学生 1
傳@@ 1
! 0.6795717920383113
演唱 1
町 1
超過 1
夏季 1
楼 1
1998 0.830340516188423
蒙@@ 1
演@@ 1
第一@@ 1
校 1
美元 1
用于 1
思@@ 1
列車 1
時代 1
名字 1
朝@@ 1
采用 1
部队 1
參 1
导致 1
頭@@ 1
穆@@ 1
建设 1
明朝 1
对@@ 1
为了 1
生于 1
牌 1
繼續 1
季@@ 1
拥有 1
他@@ 1
当地 1
毕业 1
查@@ 1
遭到 1
望 1
歌 1
條 1
列车 1
教堂 1
透過 1
尾 1
层 1
境内 1
曾@@ 1
员 1
建造 1
防@@ 1
並在 1
独立 1
背景 1
〉 1
并且 1
副@@ 1
〈 1
兒 1
核@@ 1
今@@ 1
吉 1
复@@ 1
然 1
洛 1
兵@@ 1
集团 1
广@@ 1
茨 1
最後@@ 1
土地 1
玩家 1
1980 0.9735491594898958
西北 1
卷 1
白 1
佔 1
州@@ 1
皮 1
吴@@ 1
公園 1
占 1
展 1
一年 1
集團 1
毛@@ 1
宣@@ 1
送 1
藏 1
欧洲 1
产生 1
风@@ 1
接壤 1
兰@@ 1
專@@ 1
战 1
贝@@ 1
宗教 1
青年 1
索 1
素 1
弗@@ 1
生物 1
中国@@ 1
省@@ 1
地球 1
转@@ 1
空 1
沙 1
回到 1
引起 1
较 1
香@@ 1
著@@ 1
举行 1
承@@ 1
音乐 1
第二@@ 1
组 1
治 1
松 1
余@@ 1
机场 1
甲 1
故 1
1997 0.8405324656926775
最早 1
清朝 1
进@@ 1
傳統 1
動@@ 1
越 1
野 1
五 1
条 1
守@@ 1
命 1
熱@@ 1
地位 1
採用 1
氣 1
阿 1
苏联 1
單位 1
熱帶 1
角@@ 1
基本 1
母@@ 1
越南 1
这@@ 1
春@@ 1
選 1
作家 1
速度 1
支 1
身份 1
改 1
诺 1
语言 1
經過 1
会@@ 1
停@@ 1
克斯 1
劇 1
影片 1
元年 1
摩@@ 1
再@@ 1
導致 1
親@@ 1
落 1
興@@ 1
強 1
校@@ 1
郭@@ 1
升 1
四 1
整@@ 1
畢業 1
果 1
管@@ 1
制作 1
取代 1
近@@ 1
月@@ 1
底 1
機場 1
中部 1
自然 1
仁@@ 1
論 1
少@@ 1
出身 1
解 1
– 0.08017026650946509
歐@@ 1
廣@@ 1
圖@@ 1
塞 1
服务 1
不少 1
讀 1
公尺 1
！ 1
主持 1
200 1
任命 1
地面 1
天主教 1
丁 1
发行 1
伯 1
境 1
福 1
加上 1
M@@ 0.4804386824640764
数@@ 1
組@@ 1
歌手 1
热@@ 1
军队 1
還 1
放@@ 1
書@@ 1
改革 1
取@@ 1
反应 1
請 1
延@@ 1
增@@ 1
雪@@ 1
聯 1
客 1
60 1
技術 1
橋 1
出任 1
邊 1
诺@@ 1
治@@ 1
参与 1
鐵路 1
乌@@ 1
俄罗斯 1
西南 1
行動 1
卢@@ 1
分析 1
动 1
立法 1
The 0.026790733897645275
洪@@ 1
內容 1
義 1
戈@@ 1
只是 1
維 1
烏@@ 1
留@@ 1
聯盟 1
机@@ 1
皇帝 1
這種 1
毫米 1
真 1
蒂 1
葉@@ 1
基地 1
设 1
1996 0.7712028105041849
草@@ 1
原本 1
向@@ 1
地下 1
还有 1
球@@ 1
关于 1
谷 1
酒 1
負責 1
至今 1
臣 1
圈 1
表演 1
雲@@ 1
看 1
旧 1
耶@@ 1
车@@ 1
韓國 1
少 1
包@@ 1
骨 1
仅 1
馆 1
平台 1
主教 1
一定 1
人员 1
过程 1
T 1
X 1
鎮 1
结束 1
生产 1
款 1
秀@@ 1
情@@ 1
父親 1
祖@@ 1
縣@@ 1
極@@ 1
D@@ 0.41303752010744127
曲@@ 1
左右 1
获 1
桑@@ 1
英文 1
日至 1
步 1
期@@ 1
运动员 1
母 1
发布 1
具 1
届 1
居住 1
封 1
樂 1
唱片 1
警@@ 1
守 1
惠@@ 1
新加坡 1
單曲 1
同意 1
半 1
大多 1
500 1
湖@@ 1
個@@ 1
形@@ 1
武 1
限制 1
短@@ 1
部长 1
？ 1
概念 1
辦 1
1994 0.7780986237675915
日起 1
現@@ 1
血@@ 1
來@@ 1
一家 1
公共 1
南京 1
輪 1
被@@ 1
接 1
必須 1
抗@@ 1
宣 1
有些 1
之後@@ 1
川@@ 1
梅 1
團體 1
病@@ 1
戴@@ 1
武器 1
魏@@ 1
表@@ 1
越@@ 1
业 1
s 0.17441372524384952
即@@ 1
社@@ 1
经过 1
獲@@ 1
随后 1
城区 1
人口普查 1
节 1
產生 1
支@@ 1
投@@ 1
聖 1
澳門 1
罪 1
1992 0.7487087896664385
線@@ 1
好@@ 1
鄭@@ 1
警察 1
兄弟 1
1995 0.7572087219628654
切@@ 1
離@@ 1
屋 1
差 1
乡镇级 1
br 1
故@@ 1
继续 1
我们 1
隆 1
厂 1
初期 1
S 1
委 1
联赛 1
藏@@ 1
委员 1
場@@ 1
图@@ 1
科技 1
從@@ 1
学习 1
進士 1
变化 1
号线 1
油@@ 1
篇 1
中華 1
產@@ 1
负责 1
多次 1
元素 1
港@@ 1
什@@ 1
烏克蘭 1
複 1
丹@@ 1
开发 1
呈 1
动@@ 1
战@@ 1
媒體 1
酸 1
會議 1
需 1
造@@ 1
忠@@ 1
單 1
仁 1
變 1
議員 1
這是 1
鐵 1
紀錄 1
T@@ 0.3688667412428389
微@@ 1
曾任 1
二世 1
使@@ 1
相关 1
传@@ 1
虽然 1
能@@ 1
隨@@ 1
叶@@ 1
位@@ 1
藝術 1
擊 1
康 1
赵@@ 1
菲@@ 1
飾 1
第二次 1
力量 1
节目 1
感@@ 1
1993 0.7804945287100503
排@@ 1
有人 1
計畫 1
尾@@ 1
泰 1
辛@@ 1
巴西 1
廠 1
盧@@ 1
球队 1
老 1
詞 1
飛@@ 1
凱@@ 1
追@@ 1
若@@ 1
研究所 1
00 1
份 1
宫 1
K@@ 0.41173538602145576
边 1
联盟 1
公布 1
G@@ 0.3833925993472791
威 1
对于 1
綫 1
足 1
區域 1
海拔 1
1991 0.7367711275314422
亞洲 1
倫@@ 1
短 1
中学 1
柯@@ 1
人員 1
演員 1
流域 1
巴黎 1
宁 1
它们 1
顯示 1
轉 1
次@@ 1
姓 1
現時 1
森@@ 1
有關 1
據 1
早 1
戶 1
王朝 1
超过 1
槍 1
信息 1
範圍 1
氣@@ 1
調 1
美國@@ 1
或是 1
質 1
引@@ 1
首都 1
殿 1
所属 1
海军 1
客@@ 1
达到 1
遠 1
島@@ 1
流行 1
保 1
籍 1
浙江 1
部隊 1
连@@ 1
已@@ 1
男@@ 1
麥@@ 1
隆@@ 1
營 1
公园 1
却 1
父 1
文物保护 1
強@@ 1
結構 1
調@@ 1
語@@ 1
1950 1
一世 1
居@@ 1
医院 1
实@@ 1
景 1
M 1
厅 1
过@@ 1
土 1
驻 1
感 1
伦 1
創作 1
皇@@ 1
是否 1
園 1
開發 1
舊 1
服 1
新聞 1
妻子 1
始建 1
标准 1
保持 1
调@@ 1
環境 1
意@@ 1
父亲 1
觀 1
当@@ 1
色@@ 1
興 1
冠军 1
圣 1
a 0.009273329338450086
運@@ 1
返回 1
甘@@ 1
動物 1
区域 1
进 1
市場 1
旗 1
二年 1
经@@ 1
蔡@@ 1
宝@@ 1
第三@@ 1
如下 1
B@@ 0.3325193831338816
結@@ 1
D 0.9072854115130196
叶 1
網 1
調查 1
廟 1
领导 1
機構 1
1949 1
救@@ 1
症 1
第四 1
李 1
动物 1
程度 1
朗 1
變@@ 1
佐@@ 1
们 1
专@@ 1
榜 1
棲息 1
過程 1
勝 1
批准 1
落@@ 1
分子 1
周 1
哥 1
传统 1
排名 1
80 1
相當 1
物@@ 1
博士 1
看@@ 1
爲 1
1988 0.8199269630491729
依@@ 1
十分 1
F 1
學家 1
公分 1
俱乐部 1
兹 1
丹 1
游@@ 1
1970 0.7978223263659193
内容 1
体@@ 1
考@@ 1
君 1
牛@@ 1
影 1
我們 1
根@@ 1
重建 1
職 1
配@@ 1
彈 1
授 1
营 1
名稱 1
E 1
別 1
麻@@ 1
下午 1
洲 1
秦@@ 1
竹@@ 1
求@@ 1
企业 1
I 0.22625208722619716
食@@ 1
舉辦 1
成績 1
當中 1
2@@ 1
人類 1
科学 1
按 1
雅 1
风 1
象 1
選擇 1
水域 1
改為 1
范围 1
印@@ 1
不再 1
錄 1
报告 1
数据 1
银行 1
環@@ 1
協會 1
因而 1
』 1
職業 1
『 1
知道 1
接近 1
设立 1
社区 1
兴@@ 1
域 1
距離 1
皇家 1
料 1
1989 0.7469291631644505
0.@@ 1
泉 1
小时 1
这一 1
更名 1
联@@ 1
動畫 1
勢 1
理论 1
昌 1
关@@ 1
时代 1
尚@@ 1
大臣 1
陽 1
正在 1
還有 1
方案 1
爱@@ 1
改为 1
and 0.007834759755386481
降@@ 1
姆@@ 1
上映 1
无 1
聯合 1
表現 1
偏@@ 1
右@@ 1
四川 1
张 1
柏@@ 1
保护 1
什 1
太平洋 1
歌@@ 1
主演 1
切 1
1945 0.7180131384048045
截至 1
G 1
职 1
業@@ 1
而是 1
衛@@ 1
密 1
支援 1
设有 1
提名 1
毛 1
點@@ 1
现在 1
书记 1
专业 1
头@@ 1
网 1
岩 1
令@@ 1
標準 1
质 1
工业 1
著作 1
青 1
良 1
非洲 1
结果 1
倫 1
職@@ 1
包 1
取消 1
特别 1
費@@ 1
论 1
未能 1
35 1
枚 1
强 1
法院 1
库@@ 1
查 1
稱@@ 1
彭@@ 1
勝@@ 1
保留 1
韦@@ 1
交流 1
写 1
良@@ 1
快 1
攻擊 1
給@@ 1
直至 1
70 1
知 1
孫@@ 1
溫@@ 1
剧 1
等@@ 1
庫 1
艺术 1
昌@@ 1
1960 0.8294538372425828
旗下 1
干@@ 1
警方 1
招@@ 1
冰@@ 1
振@@ 1
眼 1
深 1
村@@ 1
作者 1
2022 1
停止 1
病毒 1
材料 1
其它 1
欧@@ 1
云@@ 1
各地 1
看到 1
韩国 1
巨@@ 1
十年 1
逝世 1
扎@@ 1
45 1
思想 1
速 1
新增 1
高中 1
二十@@ 1
六 1
倍 1
佛 1
于@@ 1
一樣 1
赛季 1
词 1
盛@@ 1
離 1
快速 1
智@@ 1
赴 1
项 1
太 1
又名 1
可達 1
见 1
建成 1
园 1
铁@@ 1
電子 1
州市 1
存 1
坑 1
親 1
億 1
特殊 1
任务 1
紅 1
声 1
博物馆 1
黨@@ 1
牛 1
雄 1
和平 1
网络 1
媒体 1
威廉 1
記 1
四年 1
西方 1
东北 1
投票 1
总 1
省级 1
发表 1
私@@ 1
鎮區 1
艦 1
賽事 1
再度 1
能夠 1
R 0.9035799967601663
船@@ 1
藍@@ 1
軍隊 1
300 1
編@@ 1
遂 1
派@@ 1
据 1
乐@@ 1
兩 1
顿 1
統@@ 1
隨著 1
柱 1
只能 1
報@@ 1
农@@ 1
年间 1
油 1
孩子 1
告@@ 1
90 1
村落 1
无法 1
联合 1
帝国 1
行动 1
視@@ 1
瑪@@ 1
許@@ 1
陵 1
尚未 1
1985 0.8120390971990237
易@@ 1
帝國 1
4@@ 1
俄羅斯 1
公民 1
天津 1
豐@@ 1
超 1
改名 1
件 1
韋@@ 1
交 1
n 0.46980992214801226
協助 1
照 1
舰 1
營@@ 1
收入 1
孙@@ 1
朋友 1
32 1
設立 1
尤其 1
產 1
之外 1
知@@ 1
莉 1
群@@ 1
福建 1
曆 1
擊@@ 1
中學 1
文件 1
務 1
公主 1
～ 1
預@@ 1
春 1
京 1
早年 1
命令 1
末 1
公開 1
紫@@ 1
功 1
曹@@ 1
以前 1
1984 0.7970316953295624
先生 1
文章 1
当选 1
暴@@ 1
項 1
维 1
艘 1
齐@@ 1
播放 1
決賽 1
寧@@ 1
阿尔@@ 1
名称 1
僅 1
茲 1
井 1
蒙 1
蒙古 1
极@@ 1
項目 1
簡稱 1
擊敗 1
多年 1
現在 1
裔 1
模型 1
普通 1
洞 1
愛 1
地震 1
射@@ 1
大樓 1
1986 0.7685370321865864
不會 1
L 0.6203778407072394
連 1
五年 1
尤@@ 1
环境 1
節@@ 1
優@@ 1
安排 1
局@@ 1
P@@ 0.3033818335324667
畫 1
军事 1
狀 1
赛@@ 1
退@@ 1
协会 1
條@@ 1
集中 1
設@@ 1
H@@ 0.36381486044838895
士兵 1
E@@ 0.3636962625077706
都@@ 1
提高 1
兩人 1
仙@@ 1
麗@@ 1
參與 1
广场 1
台北 1
赤@@ 1
瑞 1
努@@ 1
选举 1
鎮@@ 1
眾 1
發表 1
以外 1
联邦 1
員@@ 1
議會 1
失去 1
变@@ 1
葉 1
略 1
沃 1
远 1
气@@ 1
陸 1
許 1
奥 1
范@@ 1
持續 1
大道 1
1987 0.7502216545378875
翼 1
气 1
漫畫 1
程序 1
这是 1
移民 1
全國 1
拿 1
除@@ 1
佛教 1
孟@@ 1
0@@ 1
此后 1
至少 1
市民 1
醫院 1
生產 1
保護 1
創@@ 1
in 0.006020622586243994
選區 1
突@@ 1
久 1
孔@@ 1
引擎 1
費 1
不明 1
掉 1
户 1
河南 1
有关 1
探@@ 1
以来 1
載 1
語言 1
三个 1
党@@ 1
潘@@ 1
謝@@ 1
默@@ 1
股份 1
往@@ 1
伦@@ 1
规定 1
銀行 1
球員 1
供 1
樂團 1
群島 1
裝@@ 1
軍事 1
类似 1
表面 1
中文 1
時候 1
实现 1
年間 1
线路 1
酒店 1
射 1
菜 1
义 1
避免 1
基础 1
机车 1
这样 1
思 1
共和国 1
團@@ 1
隻 1
休@@ 1
以來 1
某些 1
要@@ 1
之下 1
海岸 1
国王 1
陽@@ 1
2.@@ 1
中国共产党 1
U 0.7827921899005925
随着 1
畫@@ 1
航 1
友 1
兼@@ 1
投入 1
眼@@ 1
C@@ 0.34776676174509363
提 1
海域 1
书@@ 1
屬@@ 1
牠 1
高度 1
镇@@ 1
主題 1
K 1
3@@ 1
農@@ 1
有效 1
申@@ 1
靈@@ 1
杯 1
各種 1
郎 1
1982 0.7946150626853862
湾 1
距 1
希 1
韓@@ 1
設施 1
處理 1
物理 1
前身 1
基金 1
本地 1
一同 1
善 1
L@@ 0.2681216712577861
行为 1
執行 1
健康 1
孝@@ 1
得以 1
温@@ 1
N@@ 0.3228853720021702
如此 1
舊@@ 1
时候 1
拜 1
基督教 1
消息 1
兴 1
院@@ 1
从@@ 1
黎@@ 1
核 1
影@@ 1
创作 1
直 1
云 1
核心 1
选择 1
P 1
瑞典 1
運動員 1
盛 1
三個 1
致@@ 1
编码 1
庫@@ 1
凯@@ 1
權@@ 1
禁止 1
排 1
標 1
護@@ 1
同一 1
處@@ 1
运行 1
部份 1
十二 1
破@@ 1
忠 1
喜@@ 1
几@@ 1
隧道 1
不过 1
瑞士 1
广州 1
鱼 1
出口 1
河流 1
物种 1
迴 1
博 1
杰@@ 1
曾經 1
澤@@ 1
右 1
樹@@ 1
1.@@ 1
逐漸 1
裝 1
合并 1
分为 1
恢复 1
澳洲 1
黑 1
沈@@ 1
1983 0.7753398489504129
散 1
反对 1
議 1
宁@@ 1
特色 1
强@@ 1
羽毛球 1
務@@ 1
归@@ 1
S@@ 0.24920587907385233
夏 1
嚴重 1
卫@@ 1
宮@@ 1
一系列 1
南方 1
之中 1
薩 1
年底 1
作出 1
僅@@ 1
文字 1
编@@ 1
英語 1
莫 1
隊@@ 1
尽管 1
乘客 1
收 1
找到 1
空間 1
救 1
大区 1
效力 1
香 1
荷@@ 1
开 1
炮 1
乙@@ 1
坦@@ 1
渡@@ 1
跨@@ 1
赫 1
源@@ 1
唐 1
善@@ 1
述 1
中國@@ 1
演 1
个人 1
一条 1
必须 1
學習 1
本身 1
異@@ 1
升@@ 1
距离 1
属下 1
酒@@ 1
圓@@ 1
指定 1
hans 1
哈 1
耶 1
美国@@ 1
英尺 1
片@@ 1
战役 1
知名 1
一段 1
資 1
趙 1
于是 1
征@@ 1
崇@@ 1
联 1
东部 1
獨@@ 1
散@@ 1
數據 1
一颗 1
先后 1
F@@ 0.2918692471484602
1979 0.7620937960853251
坊 1
专辑 1
冷@@ 1
虎 1
以色列 1
谢@@ 1
快@@ 1
提升 1
精神 1
容易 1
司@@ 1
遷 1
约翰 1
尼亚 1
導@@ 1
调查 1
A@@ 0.29831484183762785
产品 1
市场 1
股 1
氏@@ 1
津@@ 1
执行 1
能够 1
朗@@ 1
記者 1
儿子 1
卿 1
證 1
遠@@ 1
7@@ 1
激@@ 1
統 1
8@@ 1
杀 1
秒 1
體長 1
北京@@ 1
互@@ 1
巡@@ 1
临@@ 1
地铁 1
空间 1
部门 1
國立 1
电 1
震@@ 1
基礎 1
哥@@ 1
城鎮 1
萨 1
夜 1
樹 1
选 1
运营 1
魔@@ 1
廣播 1
傑 1
父@@ 1
齊@@ 1
大使 1
幾@@ 1
字母 1
特定 1
學者 1
理論 1
砲 1
国际@@ 1
亮 1
雲 1
輕@@ 1
輕 1
早@@ 1
假@@ 1
入侵 1
持 1
生命 1
劇@@ 1
產品 1
库 1
迅速 1
人口数量 1
程@@ 1
邨 1
套 1
应用 1
现代 1
俄@@ 1
柳@@ 1
配合 1
血 1
遭 1
1978 0.7676446832395489
一度 1
實際 1
盤 1
乐 1
6@@ 1
功@@ 1
大西洋 1
相似 1
離開 1
攻 1
衣 1
莱 1
導演 1
邮政编码 1
皇后 1
秀 1
失 1
航@@ 1
应 1
雜誌 1
轮 1
駐 1
郑@@ 1
放 1
難 1
報告 1
中央@@ 1
九 1
还是 1
帝@@ 1
魚@@ 1
5@@ 1
聲@@ 1
叫 1
運動會 1
乘@@ 1
果@@ 1
旅@@ 1
批 1
目標 1
領 1
选区 1
产 1
刀 1
終@@ 1
台湾 1
O@@ 0.30217149877381866
森林 1
攝 1
等等 1
種@@ 1
部落 1
寬 1
奈@@ 1
麦@@ 1
運 1
J@@ 0.3840438167937357
禮@@ 1
H 1
商業 1
定义 1
勞@@ 1
轨道 1
古代 1
主義 1
同樣 1
感到 1
按照 1
禮 1
留 1
諸@@ 1
銀@@ 1
漢 1
應用 1
祖父 1
小時 1
死@@ 1
连接 1
旅客 1
父母 1
议会 1
人们 1
葛@@ 1
生长 1
壁 1
備 1
县@@ 1
品牌 1
韩@@ 1
予 1
交易 1
儘 1
編號 1
岩@@ 1
溪@@ 1
远@@ 1
费@@ 1
鐵道 1
電視劇 1
席 1
孔 1
设置 1
考 1
举办 1
第五 1
歸@@ 1
小说 1
阳@@ 1
房@@ 1
計@@ 1
调 1
颱 1
帮助 1
病例 1
衛 1
人类 1
超級 1
树 1
才能 1
类型 1
表明 1
始 1
橫@@ 1
墓 1
宽 1
很大 1
骨@@ 1
语@@ 1
參@@ 1
如何 1
1981 0.7051771524973186
英雄 1
電視台 1
营@@ 1
附@@ 1
巨大 1
攻@@ 1
晚上 1
选@@ 1
tw 1
普遍 1
經營 1
旁 1
母親 1
一样 1
兒子 1
° 0.5942575284191906
本站 1
亭 1
活@@ 1
傷 1
展@@ 1
仍@@ 1
背@@ 1
各种 1
輪@@ 1
記載 1
民國 1
白色 1
N 0.9037606769661413
朝鲜 1
授予 1
豪@@ 1
井@@ 1
紀念 1
离开 1
意思 1
底@@ 1
谷@@ 1
案件 1
首府 1
改變 1
卫 1
护@@ 1
評@@ 1
侯@@ 1
訓練 1
设备 1
七 1
amp 0.2303800331456945
疾病 1
北方 1
東部 1
V@@ 0.30721780830303574
與@@ 1
％ 1
高速公路 1
V 0.7325774252956554
事故 1
严重 1
简称 1
董事 1
電腦 1
委員 1
改造 1
東京 1
味 1
飞机 1
菲 1
夫人 1
禁@@ 1
400 1
罗马 1
涅@@ 1
亲@@ 1
言@@ 1
榮 1
建議 1
街@@ 1
处理 1
新闻 1
舒@@ 1
效果 1
陸@@ 1
階段 1
异@@ 1
雄@@ 1
出席 1
逐渐 1
試@@ 1
传 1
银@@ 1
導 1
因素 1
太阳 1
我@@ 1
絲 1
报道 1
冠@@ 1
全面 1
助@@ 1
规划 1
函数 1
48 1
佳@@ 1
小型 1
海外 1
雨 1
行為 1
主角 1
文物 1
工人 1
应@@ 1
变 1
hk 1
物種 1
國際@@ 1
水平 1
京都 1
x 0.6525047009103445
i 0.32198911584117484
移@@ 1
é 0.2925532337498381
侯 1
来@@ 1
供@@ 1
順@@ 1
缺乏 1
反應 1
离@@ 1
價 1
幼@@ 1
36 1
圍 1
崔@@ 1
建制 1
這樣 1
33 1
容 1
額 1
雪 1
环@@ 1
飛機 1
本土 1
记载 1
台灣@@ 1
未來 1
细胞 1
到@@ 1
坎@@ 1
法案 1
機會 1
企業 1
足@@ 1
摩 1
不足 1
科學 1
實 1
很快 1
更加 1
O 0.4907266500565485
管理@@ 1
規定 1
菌 1
办 1
显示 1
马来西亚 1
结@@ 1
9@@ 1
維持 1
线@@ 1
整个 1
充@@ 1
祖 1
被迫 1
印 1
状 1
唱 1
参@@ 1
西亞 1
降 1
梁 1
提到 1
戈 1
完整 1
HD 1
察@@ 1
将军 1
收錄 1
素@@ 1
它們 1
为主 1
傑@@ 1
聽 1
分鐘 1
仲@@ 1
玉 1
需求 1
高速 1
爆发 1
庙 1
陰@@ 1
儿 1
尚 1
／ 1
遗址 1
领域 1
涉及 1
能量 1
律 1
1946 0.8285460259108155
J 1
Windows 1
詩@@ 1
稱為 1
餘@@ 1
34 1
而成 1
浦@@ 1
戰役 1
人工 1
个@@ 1
杰 1
延伸 1
遊@@ 1
頂 1
自治 1
旅 1
住宅 1
分類 1
沉@@ 1
画 1
宇宙 1
改善 1
陶@@ 1
义@@ 1
別@@ 1
大戰 1
走@@ 1
倒 1
西藏 1
38 1
友@@ 1
干 1
舉 1
一切 1
續 1
夜@@ 1
易 1
爱 1
条件 1
工業 1
统治 1
1958 0.852488609416283
句 1
然后 1
耳@@ 1
江西 1
風格 1
1948 0.821704015536899
帕 1
信仰 1
R@@ 0.24987372395880664
主義@@ 1
細@@ 1
风格 1
葡萄牙 1
品@@ 1
国家@@ 1
秋@@ 1
战斗 1
滿 1
喀@@ 1
措施 1
問@@ 1
敗 1
退出 1
并@@ 1
学者 1
滿@@ 1
左 1
操作 1
报@@ 1
隸屬 1
爭議 1
楚@@ 1
独@@ 1
轻@@ 1
电视 1
大學@@ 1
晚@@ 1
随@@ 1
整個 1
晋@@ 1
天文 1
治療 1
劇情 1
吕@@ 1
必@@ 1
簡@@ 1
網路 1
埃 1
修改 1
滑@@ 1
职业 1
留下 1
广东 1
博物 1
学家 1
典 1
犯 1
是@@ 1
敬@@ 1
警 1
琳 1
降低 1
埃及 1
大約 1
频道 1
槍@@ 1
军区 1
原名 1
燕@@ 1
陆@@ 1
量@@ 1
撤销 1
活 1
帶@@ 1
拉斯 1
假 1
塊 1
吸引 1
用户 1
照片 1
明治 1
組合 1
急@@ 1
尼亞 1
只@@ 1
连 1
一帶 1
大小 1
正常 1
一支 1
加盟 1
象@@ 1
健@@ 1
跑 1
m 0.23096876719105783
1920 0.7859472251827078
過去 1
國民 1
八 1
W@@ 0.2778094380168023
大约 1
注意 1
关 1
糖 1
保存 1
約翰 1
牧@@ 1
时区 1
肉 1
协议 1
涅 1
一條 1
待 1
照@@ 1
變化 1
投资 1
伊斯 1
湖南 1
站@@ 1
連續 1
童@@ 1
表现 1
舞 1
1940 0.706277892617075
虎@@ 1
興建 1
鳥 1
敏 1
批評 1
倒@@ 1
西北部 1
de 0.0035192709603258147
慶@@ 1
不可 1
真正 1
第一个 1
蛇 1
舞台 1
患者 1
夏令时 1
话 1
云南 1
奉@@ 1
即使 1
人民政府 1
少年 1
賓@@ 1
1976 0.6410874338449394
朝鮮 1
洋@@ 1
魚綱 1
亦@@ 1
國民黨 1
紀 1
莎 1
目标 1
INSEE 1
汉 1
退 1
飛 1
展示 1
比例 1
存@@ 1
相信 1
呼@@ 1
上午 1
浮@@ 1
車輛 1
出演 1
装@@ 1
之子 1
1975 0.6059517330353801
潮 1
那些 1
綠@@ 1
制造 1
基因 1
墨西哥 1
西南部 1
輻鰭 1
形象 1
土耳其 1
吃 1
食物 1
热 1
山东 1
事務 1
转 1
完@@ 1
富 1
确诊 1
步@@ 1
观@@ 1
首先 1
容@@ 1
網@@ 1
宜@@ 1
記@@ 1
冬季 1
檢@@ 1
合成 1
求 1
运 1
任務 1
1972 0.6067682899417147
狀況 1
河畔 1
庆@@ 1
異 1
戰鬥 1
* 0.30337647190048506
破 1
音樂@@ 1
遺@@ 1
連接 1
工具 1
匈牙利 1
度@@ 1
桂@@ 1
铁 1
感染 1
官员 1
指挥 1
观 1
六年 1
聚@@ 1
1930 0.761843068863305
两 1
幾乎 1
扎 1
修建 1
平方米 1
艇 1
树@@ 1
設置 1
澳大利亚 1
一步 1
多个 1
球季 1
预@@ 1
装 1
智 1
珠 1
1956 0.7808316405015897
茶 1
報導 1
池 1
私人 1
賣 1
记 1
磁@@ 1
久@@ 1
計 1
今日 1
陳@@ 1
榮@@ 1
狀態 1
领@@ 1
堅@@ 1
恢 1
中国人民解放军 1
内部 1
拜@@ 1
阶段 1
丽@@ 1
投降 1
版@@ 1
國王 1
減少 1
一所 1
环 1
兼任 1
溫 1
得知 1
錢 1
幕 1
服@@ 1
固定 1
配音 1
每个 1
票房 1
比如 1
沿@@ 1
37 1
昭@@ 1
刺 1
借@@ 1
繼@@ 1
依 1
二人 1
資訊 1
迷@@ 1
寧 1
1937 0.8859103260847857
伊朗 1
相比 1
球會 1
亨利 1
塘 1
播 1
母亲 1
其後@@ 1
經歷 1
教區 1
记录 1
演员 1
优@@ 1
冊 1
大陸 1
3.@@ 1
次年 1
穿 1
琴 1
用作 1
金牌 1
红 1
註 1
斷 1
橋@@ 1
章@@ 1
大致 1
系@@ 1
JR 1
址 1
原始 1
祥 1
重点 1
雨@@ 1
东南 1
盟 1
家人 1
符合 1
秘密 1
中國大陸 1
例子 1
灵@@ 1
芳 1
1947 0.8040992031169423
解放 1
乾隆 1
宝 1
路口 1
上述 1
國會 1
民国 1
玛@@ 1
击 1
含 1
靈 1
列入 1
了解 1
用途 1
北京市 1
现 1
称@@ 1
蓋 1
觀@@ 1
護 1
1941 0.6354061081447433
黑色 1
年初 1
网站 1
载 1
通道 1
声@@ 1
齊 1
方言 1
約@@ 1
隔 1
需@@ 1
拒絕 1
逢 1
細胞 1
舰队 1
南北 1
莉@@ 1
一份 1
仔 1
厚 1
突然 1
莫斯科 1
熱 1
深度 1
幫助 1
鲁 1
廣場 1
下降 1
告 1
尊@@ 1
狄@@ 1
舍 1
重大 1
茲@@ 1
国会 1
微 1
捷 1
殘@@ 1
仔@@ 1
藤@@ 1
波兰 1
袁@@ 1
箱 1
烈 1
总理 1
尖@@ 1
英格蘭 1
分為 1
爆發 1
止 1
極 1
茶@@ 1
1952 0.8110535620253937
杂志 1
候 1
曾经 1
津 1
有所 1
处@@ 1
支流 1
座@@ 1
廷@@ 1
術 1
进攻 1
蘇聯 1
資@@ 1
奥林匹克运动会 1
1000 1
山西 1
1968 0.5904231748855654
喜 1
55 1
頻道 1
点@@ 1
日期 1
新疆 1
制定 1
1973 0.6022883593688545
協@@ 1
淡水 1
醫@@ 1
退休 1
暗@@ 1
類@@ 1
64 1
卒 1
团@@ 1
攝@@ 1
自行 1
養 1
特征 1
規@@ 1
端@@ 1
零@@ 1
辖 1
柏林 1
确定 1
芬 1
彈@@ 1
蛋白 1
坦克 1
维尔 1
倫敦 1
擔 1
很@@ 1
建設 1
办事处 1
42 1
46 1
硬@@ 1
分钟 1
权@@ 1
獎@@ 1
呂@@ 1
亂 1
占领 1
條件 1
疫情 1
国务院 1
源自 1
汽車 1
準備 1
to 0.00674115172048024
大会 1
竹 1
娛樂 1
教會 1
藝@@ 1
代码 1
边@@ 1
化石 1
化合物 1
董@@ 1
三世 1
丙@@ 1
黃@@ 1
几乎 1
網站 1
劳@@ 1
妮 1
这里 1
赢得 1
旧@@ 1
飞@@ 1
W 1
文学 1
状态 1
统一 1
嘉 1
廷 1
击@@ 1
助 1
模@@ 1
策 1
嚴@@ 1
藩 1
汽车 1
X@@ 0.8017073008969332
不斷 1
數量 1
横@@ 1
灰@@ 1
印尼 1
电子 1
混合 1
膜 1
务 1
分配 1
区@@ 1
覺 1
妃 1
1977 0.6090182459682816
节@@ 1
公元 1
貿易 1
防 1
每個 1
跳@@ 1
遜 1
聯邦 1
還是 1
纪念 1
補@@ 1
眾@@ 1
具@@ 1
圆@@ 1
准备 1
外交 1
城堡 1
最近 1
占@@ 1
週@@ 1
喬@@ 1
弱 1
行星 1
課程 1
现@@ 1
导@@ 1
醫療 1
解散 1
授@@ 1
作战 1
引入 1
腳 1
业务 1
拿@@ 1
盘 1
攻击 1
程式 1
海洋 1
而言 1
建于 1
旗@@ 1
始@@ 1
宏@@ 1
側 1
司令 1
珠@@ 1
英语 1
獸 1
宇 1
基于 1
的關 1
卓@@ 1
岭 1
變成 1
机关 1
混@@ 1
牙@@ 1
家中 1
徒 1
七年 1
舉@@ 1
块 1
慈@@ 1
太子 1
此次 1
1955 0.7873760252981523
广泛 1
佐 1
以后 1
1964 0.633086555310779
實施 1
立即 1
粉 1
顺@@ 1
洋 1
態 1
1974 0.5617317391596093
上海市 1
资源 1
麗 1
持续 1
1966 0.6485824251330914
退役 1
依然 1
人們 1
1938 0.7276981226569004
晚 1
題 1
开放 1
坡 1
一致 1
运@@ 1
發出 1
舞@@ 1
决赛 1
女兒 1
譯 1
已有 1
坦 1
少女 1
年前 1
致 1
带@@ 1
渡 1
胜 1
导演 1
商业 1
做出 1
平原 1
不到 1
允许 1
標@@ 1
須 1
結婚 1
半島 1
冲@@ 1
逮捕 1
统计 1
殖民地 1
鼠 1
丘@@ 1
發售 1
序 1
按@@ 1
緣 1
肉@@ 1
自由@@ 1
固@@ 1
儀 1
经常 1
金融 1
小說 1
藥 1
数量 1
600 1
丰@@ 1
同样 1
阻@@ 1
Z@@ 0.289505891453585
役 1
票@@ 1
步兵 1
觀眾 1
戲@@ 1
努力 1
吸@@ 1
此時 1
都市 1
食品 1
拍摄 1
論@@ 1
千 1
環 1
39 1
征 1
相对 1
劑 1
服務@@ 1
严@@ 1
反對 1
送@@ 1
人次 1
第四@@ 1
农业 1
一場 1
遊 1
廣告 1
業務 1
葬 1
今天 1
選手 1
U@@ 0.3587851590027603
深圳 1
評價 1
詩 1
撤@@ 1
1939 0.6150728994976067
臨@@ 1
民眾 1
紐約 1
隨後@@ 1
1954 0.7560589552230499
成本 1
1944 0.5336043116026555
亚洲 1
持@@ 1
議@@ 1
不会 1
管辖 1
庄@@ 1
75 1
心理 1
弟 1
哲@@ 1
公爵 1
坪 1
酶 1
政治@@ 1
群岛 1
派遣 1
比较 1
施 1
詞@@ 1
软件 1
將會 1
1971 0.5513598936386526
奪 1
天皇 1
建议 1
陆军 1
下令 1
备 1
拒绝 1
城镇 1
录 1
百 1
朝廷 1
犯罪 1
資格 1
奏 1
創立 1
房屋 1
找 1
鹿@@ 1
调整 1
鄉@@ 1
球場 1
多個 1
本人 1
钱 1
65 0.7780804467889519
齒 1
洗@@ 1
現場 1
办公室 1
击败 1
列出 1
10@@ 1
內部 1
贏得 1
自身 1
山脈 1
水库 1
王國 1
往往 1
文學 1
巡 1
从而 1
昂 1
挪威 1
撒@@ 1
德语 1
随 1
顯@@ 1
伯特 1
露 1
雙 1
絕@@ 1
領域 1
1965 0.6084263351256934
走向 1
便@@ 1
刺史 1
徵@@ 1
結 1
藥@@ 1
蓋@@ 1
簡介 1
证明 1
習性 1
更新 1
記錄 1
軌道 1
阴@@ 1
额 1
自動 1
身體 1
婚 1
御@@ 1
师@@ 1
命@@ 1
44 1
圍@@ 1
設備 1
茂@@ 1
评价 1
宪法 1
換@@ 1
壓 1
乘 1
近年 1
經常 1
專業 1
剂 1
召开 1
讀@@ 1
奈 1
劍 1
歐 1
避@@ 1
800 1
社區 1
積@@ 1
歸 1
蕭@@ 1
费 1
消@@ 1
试@@ 1
斗 1
济@@ 1
惠 1
采@@ 1
b 0.4159283916280429
1969 0.571513472770591
管理局 1
设施 1
鼓@@ 1
某 1
北美 1
名為 1
傷@@ 1
苏 1
原子 1
乔@@ 1
事業 1
胜@@ 1
国内 1
毁 1
炎 1
限 1
解釋 1
迎@@ 1
1959 0.6891819275591369
俊@@ 1
团体 1
由此 1
150 1
昂@@ 1
生成 1
阻止 1
诗 1
助理 1
经历 1
日军 1
代理 1
c 0.3987868317693819
药 1
類似 1
太陽 1
荒@@ 1
介@@ 1
大會 1
锡@@ 1
丈夫 1
简@@ 1
衣@@ 1
廣泛 1
培@@ 1
41 1
認@@ 1
某@@ 1
诸@@ 1
怀@@ 1
標為 1
阿拉伯 1
顶 1
伏@@ 1
Y@@ 0.4117914122566464
廢@@ 1
毒 1
瑟@@ 1
─ 1
營運 1
太空 1
決@@ 1
登上 1
繁@@ 1
出版社 1
起源 1
同盟 1
绿@@ 1
規劃 1
光緒 1
1942 0.5955480389986771
名为 1
鏡 1
電台 1
态 1
到达 1
盖 1
庭 1
毒@@ 1
获@@ 1
利益 1
写@@ 1
算 1
邊@@ 1
视 1
九年 1
鄧@@ 1
省委 1
服役 1
靠 1
升格 1
1957 0.6963055174859836
浙江省 1
益 1
轮@@ 1
蘇 1
刻 1
桑 1
1953 0.7390115587154972
兒童 1
英國@@ 1
火箭 1
認 1
現代 1
举@@ 1
破壞 1
十 1
改制 1
刻@@ 1
錫@@ 1
1936 0.7105495947120851
參賽 1
虫 1
第六 1
创@@ 1
理事 1
图书馆 1
高級 1
佳 1
批@@ 1
养@@ 1
折@@ 1
中期 1
示 1
陣 1
敌 1
價值 1
終 1
含@@ 1
经济@@ 1
1967 0.5621090388562265
5.@@ 1
离 1
昆@@ 1
咸@@ 1
翁 1
进一步 1
大利 1
昭和 1
甚@@ 1
43 1
鳳@@ 1
弟弟 1
遗@@ 1
改变 1
弹@@ 1
託 1
批评 1
协@@ 1
价 1
派出 1
給予 1
一天 1
化学 1
監 1
背 1
玄@@ 1
討論 1
湘@@ 1
君主 1
大區 1
冬@@ 1
唐朝 1
賽季 1
未知 1
大多数 1
婚@@ 1
站台 1
上市 1
投 1
魔 1
彼得 1
47 1
拆除 1
主力 1
賴@@ 1
事情 1
贸易 1
礼@@ 1
星系 1
以南 1
伦敦 1
證@@ 1
創 1
播@@ 1
湖北 1
孫 1
岸 1
羽 1
市政府 1
王子 1
棒球 1
许@@ 1
实施 1
破坏 1
江苏 1
察 1
王国 1
改編 1
中共中央 1
後來 1
药@@ 1
打算 1
1962 0.6079858933691871
駐@@ 1
山峰 1
承 1
伊利 1
琴@@ 1
講@@ 1
辦@@ 1
1943 0.5699494965455676
養@@ 1
薛@@ 1
灵 1
戴 1
申請 1
计算 1
番 1
樣 1
奉 1
52 1
嶺 1
宇@@ 1
庆 1
约@@ 1
貨@@ 1
业@@ 1
万人 1
來源 1
釋 1
阮@@ 1
桃@@ 1
t 0.19957586530536314
姚@@ 1
指揮 1
順 1
争议 1
1961 0.6278702764556349
1951 0.7498275941489523
原住民 1
狗 1
彩@@ 1
从事 1
君@@ 1
以北 1
餐 1
岳@@ 1
规模 1
則是 1
體系 1
1963 0.5997128566562463
質@@ 1
作戰 1
标@@ 1
靠近 1
卫星 1
种@@ 1
寮 1
齐 1
有限 1
外部 1
末@@ 1
视@@ 1
减少 1
Y 1
盖@@ 1
岡@@ 1
广东省 1
週 1
人數 1
成都 1
懷@@ 1
殺@@ 1
泽@@ 1
默 1
火山 1
公开 1
公元前 1
鄉試 1
審@@ 1
沿海 1
原有 1
p 0.4457700977166463
三十@@ 1
遇到 1
1935 0.765039811918571
談 1
積 1
胜利 1
貴 1
啟@@ 1
特性 1
錦標賽 1
此时 1
单 1
替 1
遭@@ 1
联系 1
勤 1
差@@ 1
艦隊 1
51 1
開放 1
满@@ 1
山东省 1
採@@ 1
敏@@ 1
墨@@ 1
讚 1
資源 1
on 0.014058304986635715
移 1
正面 1
含有 1
实际 1
詹姆斯 1
试图 1
斗@@ 1
試 1
历任 1
组@@ 1
襲 1
阿爾@@ 1
脈 1
婚姻 1
急 1
器@@ 1
讷 1
各自 1
栽培 1
計算 1
概要 1
監@@ 1
残@@ 1
成員@@ 1
靜@@ 1
突破 1
舍@@ 1
创建 1
市长 1
厘米 1
協議 1
世界@@ 1
捕@@ 1
组建 1
纪@@ 1
統治 1
配 1
分裂 1
6.@@ 1
收到 1
市区 1
弗 1
產業 1
司令部 1
’ 0.037870586910658616
五月 1
穆斯林 1
务@@ 1
浩@@ 1
审@@ 1
温 1
长期 1
四川省 1
地名 1
酸@@ 1
南非 1
任教 1
斯特@@ 1
飓风 1
執@@ 1
學位 1
本線 1
首播 1
首席 1
研@@ 1
羽@@ 1
加州 1
候@@ 1
另@@ 1
參考 1
雙方 1
鄰 1
羊@@ 1
暴力 1
淡@@ 1
爆炸 1
乃 1
月球 1
空军 1
尊 1
成绩 1
得名 1
買 1
主持人 1
养 1
珍@@ 1
大廈 1
厄@@ 1
嘉靖 1
波斯 1
尔斯 1
全長 1
刺@@ 1
負@@ 1
進攻 1
頓@@ 1
乾@@ 1
断@@ 1
領導 1
扮演 1
一款 1
夢 1
晉@@ 1
主張 1
憑 1
測試 1
輝 1
接替 1
・ 1
起来 1
憲@@ 1
廣 1
坐@@ 1
解決 1
減@@ 1
耳 1
奥地利 1
乃@@ 1
实 1
裏 1
持有 1
介 1
难 1
部門 1
插@@ 1
漫@@ 1
臨 1
卡尔 1
钱@@ 1
不断 1
柴@@ 1
髮 1
意外 1
抽@@ 1
財@@ 1
雷斯 1
欲 1
爭 1
II 0.18357993084867383
豪 1
訪 1
萧@@ 1
屬於@@ 1
两人 1
4.@@ 1
俱樂部 1
啟用 1
泽 1
風暴 1
肯 1
反映 1
康熙 1
中山 1
教育部 1
見@@ 1
沿 1
十三 1
农村 1
凡 1
傅@@ 1
惡@@ 1
牙 1
斯基 1
× 1
市中心 1
又称 1
统@@ 1
阿根廷 1
席@@ 1
质量 1
揚 1
首相 1
商人 1
典@@ 1
20@@ 1
賀@@ 1
解决 1
萊 1
NBA 1
济 1
电视台 1
理解 1
空中 1
同名 1
解释 1
细@@ 1
投資 1
免 1
刑@@ 1
然後@@ 1
女儿 1
衝突 1
良好 1
紀@@ 1
注 1
十六 1
裂 1
稿 1
茨@@ 1
圖書館 1
河北 1
双方 1
壓@@ 1
弘@@ 1
發動 1
承认 1
图示 1
害 1
曰 1
恆星 1
满 1
運作 1
移動 1
沖 1
豆 1
植@@ 1
礼 1
杭州 1
戲 1
孤@@ 1
资格 1
所在 1
丘 1
訊 1
廣東 1
八年 1
性能 1
产@@ 1
童 1
喜歡 1
构成 1
文明 1
飾演 1
民間 1
准@@ 1
锦标赛 1
乳@@ 1
出售 1
实验 1
耀@@ 1
共产党 1
評論 1
气候 1
~ 1
指示 1
河道 1
保障 1
團隊 1
隱@@ 1
互相 1
視為 1
肯@@ 1
输入 1
只要 1
荷蘭 1
高等 1
职务 1
幣 1
本作 1
训练 1
幅 1
露@@ 1
实行 1
奥运会 1
人民@@ 1
学会 1
熙 1
日治 1
特徵 1
指控 1
d 0.09050633602569387
偶像 1
显@@ 1
第十@@ 1
冠軍@@ 1
測@@ 1
氣象 1
袭击 1
几个 1
雜@@ 1
沒@@ 1
瓜@@ 1
备@@ 1
卡拉 1
莊@@ 1
邦@@ 1
幸@@ 1
益@@ 1
瑟 1
俄 1
分类 1
桥@@ 1
勢力 1
在位 1
消失 1
永 1
禁 1
完工 1
方便 1
甫 1
九龍 1
物质 1
社会主义 1
未有 1
略@@ 1
為止 1
汗 1
蓝@@ 1
浪@@ 1
敵 1
每天 1
寄@@ 1
总部 1
接收 1
固 1
四十@@ 1
崎@@ 1
追 1
孙 1
余 1
静@@ 1
熊@@ 1
執導 1
此站 1
重庆 1
y 0.01292858178451093
分支 1
应该 1
斯坦 1
压@@ 1
上海@@ 1
枝 1
记@@ 1
就@@ 1
規模 1
警告 1
南極洲 1
旅游 1
架@@ 1
自然@@ 1
证 1
農 1
考慮 1
54 1
结合 1
檔 1
聽@@ 1
芬@@ 1
法庭 1
最多 1
速@@ 1
条约 1
狀@@ 1
留在 1
浦 1
唱@@ 1
珍 1
请 1
澳@@ 1
球员 1
泥@@ 1
军事@@ 1
爆@@ 1
難@@ 1
強烈 1
汪@@ 1
創辦 1
燈 1
防止 1
育 1
響 1
穩定 1
價@@ 1
秋 1
毀 1
访问 1
I@@ 0.2543860783882433
资@@ 1
绝@@ 1
1933 0.6243908916417121
敦@@ 1
園@@ 1
臨時 1
治疗 1
120 1
专家 1
杀@@ 1
確定 1
上升 1
屋@@ 1
拿下 1
苦@@ 1
扬 1
伤 1
1928 0.7110769471887535
小学 1
歷@@ 1
天文台 1
每日 1
01 1
常見 1
地點 1
第五@@ 1
潮@@ 1
尼斯 1
政权 1
主题 1
港口 1
勇 1
以此 1
司法 1
典型 1
议员 1
官員 1
現象 1
外交部 1
巴赫 1
河南省 1
1% 1
用来 1
桃園 1
教会 1
石油 1
發布 1
诗@@ 1
注@@ 1
身上 1
地利 1
毛泽东 1
斯克 1
問 1
所屬 1
延 1
别@@ 1
粉@@ 1
形目 1
仙 1
常用 1
法官 1
寶 1
機關 1
辰 1
不得 1
另一方面 1
氧化 1
截@@ 1
奧林匹克 1
画@@ 1
濟 1
迁 1
質量 1
事务 1
接任 1
产业 1
辛 1
飛行 1
中华民国 1
抵@@ 1
當選 1
判@@ 1
育@@ 1
中式 1
爵 1
樓@@ 1
身分 1
材 1
任期 1
增长 1
行政院 1
cn 1
56 1
盡 1
悲@@ 1
并于 1
平面 1
特有 1
武汉 1
周年 1
實驗 1
伍@@ 1
召@@ 1
被捕 1
艾 1
笑 1
围@@ 1
出来 1
慶 1
使用者 1
一场 1
网@@ 1
烈@@ 1
第七 1
輯 1
科夫 1
想@@ 1
支付 1
構造 1
絲@@ 1
農業 1
念 1
錦@@ 1
焦@@ 1
玛 1
體育 1
1931 0.7610647158277722
這次 1
弹 1
矿@@ 1
四个 1
賢 1
冲突 1
手段 1
美洲 1
二十 1
凌晨 1
h 0.32077300534202585
編 1
西安 1
贾@@ 1
藝 1
1932 0.7270841161867133
同日 1
並非 1
选手 1
權力 1
地形 1
第一位 1
该省 1
銷售 1
那里 1
息 1
刑 1
少數 1
o 0.08896506187587307
運輸 1
codice 1
路段 1
1927 0.7660386035811289
考虑 1
設定 1
整 1
场@@ 1
碼 1
羅馬 1
炮@@ 1
魯 1
萬人 1
移动 1
读 1
收集 1
控@@ 1
大賽 1
49 1
社会@@ 1
广西 1
极 1
證明 1
记者 1
麥 1
生存 1
难@@ 1
鼻@@ 1
53 1
艦@@ 1
欧元 1
58 1
潭 1
所在地 1
物質 1
坚@@ 1
性质 1
補 1
准 1
领导人 1
计@@ 1
恒星 1
成就 1
應該 1
海上 1
泉@@ 1
準 1
不要 1
承認 1
惡 1
藝人 1
合約 1
返@@ 1
凤@@ 1
政黨 1
做@@ 1
股@@ 1
冰 1
澤 1
坐标 1
运输 1
通知 1
放棄 1
标 1
首位 1
负@@ 1
明顯 1
继@@ 1
刊 1
鬼 1
宋 1
失敗 1
一項 1
未来 1
旅行 1
掌 1
升任 1
控 1
邁@@ 1
集合 1
旺@@ 1
开通 1
周邊 1
偷@@ 1
壘 1
池@@ 1
顺 1
新闻@@ 1
許多@@ 1
广播 1
訂 1
名单 1
小學 1
议@@ 1
游泳 1
蟲 1
並將 1
is 0.010439670721347893
提及 1
金属 1
棒 1
700 1
意义 1
柱@@ 1
商品 1
墓@@ 1
早上 1
何 1
拍@@ 1
獎項 1
亿元 1
硬 1
邀 1
潛@@ 1
终@@ 1
墙 1
驻@@ 1
糖@@ 1
能源 1
苑 1
當年 1
湯@@ 1
后者 1
有时 1
两种 1
絕 1
寫@@ 1
利亞 1
必要 1
四個 1
律@@ 1
歡迎 1
淘汰 1
殼 1
连续 1
席位 1
民主@@ 1
一级 1
式@@ 1
既 1
大幅 1
部長 1
透@@ 1
落成 1
翻@@ 1
演奏 1
紅色 1
稳定 1
夢@@ 1
乡@@ 1
敵@@ 1
軟體 1
完 1
登場 1
下属 1
纽约 1
德拉 1
鮮@@ 1
院长 1
盐@@ 1
壽@@ 1
数学 1
1934 0.6592623087190931
定居 1
儿童 1
腹@@ 1
增 1
食用 1
数字 1
堂@@ 1
商店 1
江苏省 1
苦 1
题 1
貝 1
即位 1
出道 1
邓@@ 1
安徽 1
东临 1
荷兰 1
古老 1
大夫 1
贝 1
餘 1
大桥 1
俊 1
宣傳 1
希臘 1
狂@@ 1
车辆 1
十一 1
工厂 1
乱 1
介紹 1
廊 1
脫@@ 1
填@@ 1
公斤 1
抗日 1
东西 1
侍@@ 1
跡 1
视频 1
另有 1
模 1
湖泊 1
见@@ 1
縮 1
祠 1
說法 1
劇集 1
论@@ 1
享年 1
輛 1
贝尔 1
72 1
脂 1
筆 1
液 1
纪 1
体育 1
杂@@ 1
乐队 1
粒子 1
压 1
发动 1
賈@@ 1
改建 1
較@@ 1
最低 1
金屬 1
似 1
货@@ 1
裝置 1
来说 1
术 1
識 1
观点 1
兹@@ 1
交通@@ 1
十八 1
引发 1
赞@@ 1
令人 1
舞蹈 1
彩 1
57 1
原先 1
火星 1
本片 1
冯@@ 1
捷@@ 1
廣州 1
儀式 1
评论 1
爵士 1
直播 1
起义 1
校长 1
搜@@ 1
隔@@ 1
撰 1
當局 1
碑 1
大家 1
发射 1
理想 1
負 1
吸收 1
恰@@ 1
1@@ 1
宣传 1
综合 1
疑 1
这次 1
逃@@ 1
规则 1
廖@@ 1
一人 1
创办 1
教宗 1
枪@@ 1
峰@@ 1
理由 1
下列 1
陕西 1
翔 1
汝@@ 1
沟 1
蹟 1
丸 1
鱼@@ 1
輔@@ 1
临时 1
高雄市 1
推動 1
類型 1
乔治 1
飞 1
侵@@ 1
饰 1
里斯 1
祭@@ 1
億@@ 1
打破 1
词@@ 1
兄 1
1929 0.6441230999108427
‘ 0.6619802308602242
针对 1
東北 1
出入口 1
壓力 1
抵抗 1
十四 1
现象 1
不滿 1
鍾 1
偉@@ 1
监@@ 1
學名 1
國內 1
电视剧 1
测@@ 1
兒@@ 1
12@@ 1
归 1
店@@ 1
迈@@ 1
配置 1
奎@@ 1
學會 1
置@@ 1
疑@@ 1
举 1
宅 1
北海道 1
千米 1
CD 0.7623208180943079
姜@@ 1
叛@@ 1
貴@@ 1
复 1
發射 1
明显 1
ー 1
汉族 1
势 1
號線 1
e 0.13116120499909198
統計 1
基督 1
飞行 1
扶@@ 1
將其 1
失败 1
發起 1
一百@@ 1
麵 1
慧@@ 1
已知 1
一项 1
戶@@ 1
蹤 1
零 1
英格兰 1
通用 1
妻 1
人数 1
援助 1
網絡 1
隐@@ 1
玻璃 1
契@@ 1
游 1
似乎 1
祭 1
兩年 1
计 1
螺 1
g 0.33421137071237733
兩種 1
2% 1
時任 1
毫@@ 1
上下 1
宫@@ 1
权力 1
界@@ 1
表達 1
杜 1
市區 1
k 0.28679155777511706
多數 1
牆 1
撤退 1
形容 1
族@@ 1
斑 1
子女 1
宜 1
常见 1
督@@ 1
决@@ 1
1918 0.5257998813372303
型@@ 1
青岛 1
譜 1
鲍@@ 1
並以 1
布朗 1
丝 1
陷入 1
经营 1
处于 1
领 1
比利 1
1912 0.7097965703471261
徽 1
惟@@ 1
波蘭 1
冰川 1
乌克兰 1
健 1
彌@@ 1
质@@ 1
引种 1
贵 1
出來 1
肥@@ 1
板@@ 1
观众 1
在内 1
示@@ 1
列为 1
洪 1
讨论 1
尼克 1
天下 1
疫苗 1
13@@ 1
屈@@ 1
規則 1
办理 1
for 0.011380700402905631
免@@ 1
辽@@ 1
泰國 1
液@@ 1
並沒有 1
最好 1
风暴 1
逃 1
大街 1
憲法 1
当年 1
幕@@ 1
精 1
23@@ 1
76 1
耐@@ 1
展開 1
練 1
福建省 1
围绕 1
莎@@ 1
大楼 1
聯合國 1
積為 1
脱@@ 1
暨 1
汇@@ 1
痛 1
非法 1
匯@@ 1
85 1
加利福尼 1
結合 1
关注 1
斑@@ 1
邵@@ 1
十字 1
地圖 1
聚落 1
上帝 1
凡@@ 1
成長 1
の 1
补@@ 1
威脅 1
中有 1
安娜 1
魔法 1
历@@ 1
翌年 1
过去 1
较@@ 1
影像 1
维奇 1
女王 1
剪@@ 1
教师 1
平衡 1
尋@@ 1
来到 1
资料 1
遭受 1
61 1
收購 1
议 1
62 1
展开 1
課 1
望@@ 1
床 1
首歌 1
通信 1
透露 1
历 1
抵达 1
瓜 1
腔 1
委@@ 1
实际上 1
测试 1
此地 1
聚 1
此事 1
众 1
萬元 1
第八 1
紋 1
文化@@ 1
辆 1
内陆 1
66 1
針 1
國東 1
税 1
經驗 1
16@@ 1
一首 1
住@@ 1
起初 1
掌@@ 1
59 1
率领 1
德里 1
購 1
... 0.2637788853856803
贵@@ 1
作曲 1
商場 1
浪 1
第六@@ 1
援 1
鬼@@ 1
碧@@ 1
操@@ 1
并入 1
停靠 1
換 1
陸續 1
一半 1
冷 1
決 1
穿@@ 1
泛@@ 1
朴@@ 1
鹿 1
重量 1
想要 1
三人 1
勇@@ 1
估計 1
抗 1
历史@@ 1
异 1
没 1
63 1
r 0.4677023574481096
辭 1
问 1
戀 1
hant 1
双 1
荣@@ 1
以便 1
河北省 1
角度 1
亡 1
定期 1
間@@ 1
启@@ 1
總理 1
带来 1
粗@@ 1
危@@ 1
蟹 1
女孩 1
→ 1
引發 1
內閣 1
演化 1
工作室 1
95 1
客运 1
标志 1
88 1
薄@@ 1
融合 1
通往 1
鋼@@ 1
价值 1
學系 1
月底 1
明星 1
相反 1
菌@@ 1
準@@ 1
以西 1
很少 1
段@@ 1
瑪 1
更是 1
同性 1
袭 1
朱 1
聚集 1
计算机 1
一枚 1
联合会 1
兆@@ 1
策略 1
功率 1
译 1
銀 1
了@@ 1
常常 1
側@@ 1
伊州 1
十五 1
遭遇 1
黄 1
院士 1
多名 1
姬 1
编辑 1
绝对 1
旺 1
信號 1
衍生 1
申 1
四月 1
奥运 1
新建 1
羊 1
疏@@ 1
引 1
燕 1
希腊 1
开展 1
1919 0.5475423412597943
尽@@ 1
套@@ 1
中共@@ 1
尼亞@@ 1
信号 1
斯塔 1
鸟 1
TV 0.3250968267054357
港元 1
總部 1
胸@@ 1
現代@@ 1
呎 1
贡献 1
锦@@ 1
编 1
西亚 1
台北市 1
沿岸 1
剛@@ 1
权利 1
州府 1
市委 1
途中 1
項@@ 1
達成 1
1924 0.631856787569864
時段 1
旋@@ 1
公眾 1
連結 1
俗 1
判 1
頂@@ 1
热带 1
说法 1
敦 1
遇 1
佩 1
籌@@ 1
衝@@ 1
介绍 1
评@@ 1
綱 1
關注 1
导 1
密度 1
訓 1
念@@ 1
滅 1
租@@ 1
鳥@@ 1
娃 1
情形 1
效率 1
展出 1
高级 1
讲@@ 1
柴油机 1
简单 1
驚@@ 1
青少年 1
探 1
案@@ 1
组合 1
凌@@ 1
政党 1
開設 1
航班 1
賞 1
搬 1
冬 1
半岛 1
南美洲 1
逆@@ 1
華人 1
主流 1
接觸 1
撒 1
有着 1
花園 1
天体 1
大规模 1
硫@@ 1
參選 1
先後@@ 1
隨即 1
对象 1
幻@@ 1
邀請 1
丽 1
歷 1
肺炎 1
序列 1
赛事 1
伏 1
主打 1
末期 1
伊拉克 1
繫 1
奪得 1
累@@ 1
衛生 1
检@@ 1
凱 1
新界 1
执@@ 1
算@@ 1
燃料 1
立陶宛 1
参赛 1
古典 1
构@@ 1
继承 1
餐@@ 1
安装 1
道德 1
玩@@ 1
簡單 1
腳@@ 1
26@@ 1
利亚 1
整合 1
代替 1
島嶼 1
政權 1
賓 1
淮@@ 1
裡@@ 1
校区 1
兩者 1
氣旋 1
剛 1
芳@@ 1
霸 1
自我 1
數位 1
Q@@ 0.5416248562118094
克拉 1
第@@ 1
Z 0.9477296717300419
霸@@ 1
听@@ 1
昇 1
確@@ 1
控股 1
l 0.06310594960023853
差異 1
肖@@ 1
晓@@ 1
陷 1
圓 1
巴基斯坦 1
救援 1
偶@@ 1
分成 1
年齡 1
恐怖 1
时任 1
许 1
人生 1
月初 1
奪@@ 1
来源 1
鹽 1
熊 1
14@@ 1
罪@@ 1
清代 1
動力 1
效 1
盡@@ 1
1925 0.6400142071262322
其實 1
國民@@ 1
迹 1
楼@@ 1
犹太人 1
跨 1
麟 1
援@@ 1
设@@ 1
魚類 1
陣@@ 1
新型 1
菲律賓 1
小组 1
伯爵 1
妹 1
答 1
時代@@ 1
棋 1
玩 1
動作 1
確 1
像是 1
常委 1
爭@@ 1
埔@@ 1
限@@ 1
仪式 1
備@@ 1
68 1
莊 1
受傷 1
条@@ 1
條例 1
1917 0.5825109681148407
单曲 1
捐@@ 1
運行 1
勝利 1
1926 0.625075043293138
引用 1
癌 1
拍攝 1
分校 1
大学@@ 1
Google 1
换@@ 1
純@@ 1
原理 1
折 1
1914 0.5678733332994025
燃@@ 1
劇場 1
倉 1
皇 1
誤@@ 1
DVD 0.9930636513313953
區的 1
厚@@ 1
卢瓦尔 1
亞州 1
尖 1
柔@@ 1
筆@@ 1
km 0.13161489480341718
资 1
屯 1
去@@ 1
翻译 1
吨 1
協 1
新竹 1
签署 1
八月 1
30@@ 1
结婚 1
超级 1
电子@@ 1
幾個 1
公众 1
7.@@ 1
体系 1
跳 1
争@@ 1
挑戰 1
貌 1
現今 1
主管 1
晉 1
艺术@@ 1
壇 1
胡 1
興趣 1
收藏 1
传播 1
安裝 1
航空@@ 1
事實 1
样 1
轨 1
支持者 1
25@@ 1
冀@@ 1
格式 1
澳大利 1
拆@@ 1
参数 1
稅 1
攻打 1
涉@@ 1
us 0.16892560890214509
創造 1
如今 1
宽@@ 1
售@@ 1
万美元 1
实验室 1
儒@@ 1
貓 1
北市 1
民族@@ 1
回應 1
維爾 1
请求 1
坐 1
競爭 1
机会 1
洲@@ 1
寿@@ 1
柏 1
耗@@ 1
濟@@ 1
十二@@ 1
f 0.4632709906056902
福州 1
遷@@ 1
安徽省 1
天然 1
考古 1
評 1
匹 1
干部 1
信徒 1
十月 1
醇 1
卡斯 1
曾祖 1
蔣@@ 1
近代 1
别 1
动画 1
行政@@ 1
大聯盟 1
鄂@@ 1
針對 1
溫度 1
邑 1
27@@ 1
农 1
起來 1
顶@@ 1
南海 1
党员 1
恶@@ 1
蒲@@ 1
證據 1
采取 1
威胁 1
依照 1
菜@@ 1
休 1
哲学 1
亨 1
此前 1
入境 1
1922 0.6132877205118306
荣 1
潜@@ 1
教育@@ 1
載@@ 1
相互 1
蛋 1
愛爾蘭 1
麻 1
亨@@ 1
罗斯 1
充 1
崖 1
高原 1
他人 1
相当 1
想法 1
太平 1
超越 1
侧 1
翠@@ 1
联合国 1
七月 1
允許 1
毅 1
顏色 1
依據 1
众多 1
聞 1
適@@ 1
纽@@ 1
湖南省 1
裂@@ 1
专门 1
廉@@ 1
视为 1
全长 1
率@@ 1
成分 1
财@@ 1
二月 1
俠 1
逐@@ 1
特点 1
拉克 1
迪士尼 1
意識 1
縱@@ 1
三角 1
99 1
卖 1
赖@@ 1
装置 1
族群 1
格勒 1
隨 1
至於 1
放在 1
編劇 1
裁@@ 1
壽 1
拳 1
突出 1
67 1
技术@@ 1
死刑 1
機器 1
上方 1
裕 1
工业@@ 1
工作@@ 1
洞@@ 1
狼 1
均@@ 1
e@@ 0.17750275480146296
研究院 1
艺 1
澳 1
学科 1
階@@ 1
設計@@ 1
馮@@ 1
採取 1
構 1
部署 1
尔德 1
序@@ 1
征服 1
医学 1
郵@@ 1
停 1
女主角 1
並未 1
什麼 1
伸@@ 1
剧@@ 1
万元 1
领袖 1
沿革 1
布魯@@ 1
習 1
拓@@ 1
學術 1
扩大 1
全国政协 1
范 1
牌@@ 1
主場 1
德國@@ 1
豆@@ 1
柄 1
函數 1
划归 1
海峡 1
多种 1
烟@@ 1
那么 1
技@@ 1
放弃 1
銷量 1
岡 1
一带 1
寨 1
原來 1
範@@ 1
创造 1
高雄 1
堪@@ 1
德斯 1
氣候 1
星等 1
犬 1
碳 1
克里@@ 1
定理 1
物品 1
班次 1
邱@@ 1
紹@@ 1
邊界 1
閣 1
尔特 1
大眾 1
宾@@ 1
发起 1
积@@ 1
窗 1
78 1
阿富汗 1
六月 1
庭@@ 1
掌握 1
宿 1
仪 1
号@@ 1
病逝 1
藤 1
抗議 1
說@@ 1
岩石 1
红色 1
平等 1
付 1
埔 1
束 1
聘 1
芒 1
十九 1
缘 1
危機 1
屯@@ 1
山地 1
损失 1
牵引 1
上面 1
成熟 1
一共 1
内战 1
國家隊 1
巷 1
胶@@ 1
地点 1
教徒 1
用以 1
屏 1
上陣 1
成人 1
藉 1
祝@@ 1
医@@ 1
貼 1
鷹 1
自动 1
原則 1
阿里 1
流量 1
逊 1
铜@@ 1
平民 1
涉嫌 1
自此 1
宿@@ 1
表达 1
戒@@ 1
山区 1
武装 1
性質 1
館@@ 1
关闭 1
71 1
代表团 1
盟@@ 1
磨@@ 1
替代 1
250 1
相對 1
声称 1
現任 1
噴@@ 1
首度 1
航空公司 1
传说 1
出色 1
币 1
地上 1
討@@ 1
隨後 1
吻 1
镜 1
襲擊 1
轴 1
岳 1
泡 1
祿 1
控制@@ 1
贵族 1
殖民 1
购买 1
三月 1
生產@@ 1
謀 1
議員@@ 1
an 0.012185060803013565
敬 1
民众 1
紐@@ 1
電車 1
变成 1
积 1
兵团 1
傳說 1
陵@@ 1
革@@ 1
一套 1
改编 1
道光 1
山西省 1
销售 1
清楚 1
理念 1
74 1
怪 1
转移 1
阳市 1
顧@@ 1
1921 0.5872313354228499
公共@@ 1
唯@@ 1
喷@@ 1
推行 1
仿@@ 1
鄰近 1
银 1
邀请 1
MV 1
哥哥 1
芝加哥 1
反而 1
$ 0.14300358869332538
書院 1
中間 1
迷你 1
一方 1
袋 1
婦 1
珊 1
幫 1
8.@@ 1
试验 1
方程 1
行走 1
四大 1
28@@ 1
省政府 1
鼓 1
格拉 1
英国@@ 1
路易 1
委任 1
居民点 1
大阪 1
棘 1
该市 1
类@@ 1
入选 1
具体 1
成年 1
海軍@@ 1
勃@@ 1
詹@@ 1
排行榜 1
知識 1
名單 1
選出 1
工廠 1
泰勒 1
排列 1
旋 1
将@@ 1
聲音 1
御史 1
合同 1
73 1
可用 1
願 1
券 1
年轻 1
谢 1
加以 1
环形山 1
载@@ 1
教練 1
钢@@ 1
比較 1
化學 1
现任 1
西班牙语 1
晶@@ 1
断 1
抵達 1
86 1
人大代表 1
榮譽 1
醒 1
周边 1
减@@ 1
阿拉 1
77 1
史密斯 1
陨石坑 1
電影@@ 1
夫斯基 1
示威 1
装备 1
震 1
座位 1
做法 1
觀測 1
下方 1
隊伍 1
校長 1
妹妹 1
废@@ 1
典禮 1
满足 1
領袖 1
丰 1
长江 1
塞尔 1
1.5 1
棋@@ 1
通车 1
81 1
待@@ 1
69 1
任天堂 1
俄国 1
調整 1
一間 1
路上 1
团队 1
周围 1
連載 1
矛盾 1
不得不 1
值@@ 1
強調 1
碼頭 1
杨 1
进士 1
濱@@ 1
西接 1
山市 1
两次 1
创立 1
与@@ 1
晚期 1
尋找 1
82 1
認識 1
神社 1
遇@@ 1
測量 1
化学@@ 1
構@@ 1
測 1
天使 1
藥物 1
ン 1
編輯 1
賢@@ 1
螺@@ 1
保守 1
緊 1
獨 1
部位 1
貢@@ 1
3000 1
奔@@ 1
全世界 1
電話 1
韦 1
蛛 1
世界杯 1
5% 1
刀@@ 1
訪問 1
鯉 1
1913 0.6388902674617165
1911 0.6756813549420853
囊 1
手中 1
軌 1
策@@ 1
謝 1
水深 1
蕨 1
偉 1
缺@@ 1
婆 1
拖@@ 1
種族 1
估计 1
織 1
1923 0.5829854050724966
管制 1
作曲家 1
斯坦@@ 1
蓮@@ 1
音乐@@ 1
生態 1
公交 1
说@@ 1
多利 1
胎 1
劍@@ 1
污染 1
傳播 1
激烈 1
淑@@ 1
课程 1
租界 1
可是 1
队伍 1
劃 1
知縣 1
湖北省 1
复杂 1
当局 1
正是 1
对应 1
暴 1
规@@ 1
政治家 1
法國@@ 1
顾@@ 1
05 1
欧 1
荷 1
寬@@ 1
绍@@ 1
逐步 1
剩下 1
積極 1
嘗試 1
斜@@ 1
87 1
尹@@ 1
如同 1
蘇格蘭 1
徵 1
獻@@ 1
談@@ 1
℃ 1
戰後@@ 1
入口 1
整體 1
錄@@ 1
售 1
經典 1
行人 1
领土 1
胺 1
事业 1
十大 1
观察 1
荣誉 1
巫@@ 1
3% 1
貫 1
試圖 1
勞 1
意見 1
路线 1
連任 1
全新 1
捕 1
导弹 1
藉由 1
恒@@ 1
藍 1
課@@ 1
翻譯 1
色彩 1
重返 1
主张 1
天津市 1
疏 1
奴 1
检测 1
特拉 1
廢除 1
靜 1
输@@ 1
運用 1
u 0.18422141546840287
新聞@@ 1
泰国 1
女人 1
总督 1
15@@ 1
合法 1
嚴 1
四世 1
方程式 1
施工 1
蔡 1
軍團 1
艺@@ 1
α 1
贡 1
卢 1
職務 1
众@@ 1
劫 1
中间 1
國際賽 1
進步 1
一生 1
延長 1
琉球 1
黑人 1
三名 1
马尔@@ 1
剑 1
兵力 1
大批 1
发动机 1
堆 1
戀@@ 1
资金 1
彥 1
推翻 1
劳 1
小組 1
桃 1
第一部 1
北面 1
醫學 1
撞 1
鮑@@ 1
壁@@ 1
座堂 1
1900 0.5825131851045146
韋 1
佔領 1
并未 1
什么 1
芬兰 1
琪 1
东北部 1
首任 1
權利 1
隶属于 1
東西 1
98 1
舰@@ 1
动力 1
拔@@ 1
修道院 1
勃 1
岸@@ 1
覆盖 1
秘书长 1
原型 1
长度 1
醫生 1
祥@@ 1
旨在 1
示威者 1
符 1
最小 1
答@@ 1
101 1
賴 1
之戰 1
當中陸 1
一篇 1
广 1
左翼 1
楚 1
努 1
燈@@ 1
沙田 1
29@@ 1
修正 1
全国人民代表大会 1
三次 1
汤@@ 1
並不@@ 1
氢@@ 1
江南 1
氧 1
彰化 1
筒 1
84 1
卷@@ 1
地中海 1
人才 1
人民币 1
顧問 1
樂隊 1
研究生 1
槽 1
92 1
實現 1
沉 1
尚书 1
衛星 1
紧@@ 1
買@@ 1
献@@ 1
商业@@ 1
境外 1
男女 1
笔 1
9.@@ 1
粒 1
贈 1
質疑 1
虛@@ 1
賣@@ 1
中正 1
探索 1
交易所 1
誠@@ 1
貢獻 1
第三次 1
之上 1
預計 1
頁 1
顯 1
據@@ 1
鬥 1
海南 1
96 1
其餘 1
宏 1
紙 1
慕尼黑 1
24@@ 1
翼@@ 1
迷 1
衡 1
意见 1
宾 1
法令 1
帶來 1
吧 1
同步 1
错误 1
腿 1
英里 1
賜 1
后期 1
錦 1
星期 1
接触 1
曲目 1
觀點 1
錯誤 1
斷@@ 1
医生 1
民進 1
減 1
首個 1
新城 1
曉@@ 1
誤 1
奏@@ 1
北平 1
捷克 1
厝 1
泥 1
戰士 1
视星等 1
东方 1
妮@@ 1
郡@@ 1
录@@ 1
工程师 1
旁@@ 1
武裝 1
事務@@ 1
確認 1
途 1
才@@ 1
亿 1
铁路局 1
保險 1
觉 1
鐘@@ 1
贡@@ 1
簽署 1
79 1
雜 1
室@@ 1
解除 1
哲 1
迫使 1
納州 1
DNA 1
禄 1
定義 1
武帝 1
丝@@ 1
根本 1
# 0.41926695676919407
读@@ 1
階 1
百姓 1
洛夫 1
公室 1
柬埔寨 1
上游 1
光绪 1
肯定 1
德意志 1
機械 1
现场 1
軸@@ 1
问@@ 1
顧 1
大部份 1
銷 1
炸@@ 1
百年 1
多人 1
比利时 1
變得 1
模特 1
藩@@ 1
教学 1
薇 1
拼@@ 1
提交 1
放送 1
東方 1
出场 1
盐 1
先前 1
好友 1
暖 1
阁 1
卜@@ 1
綠色 1
枪 1
中原 1
裝備 1
顾问 1
鬥@@ 1
冲 1
算法 1
坝 1
欣@@ 1
下来 1
十二年 1
83 1
齡 1
盾 1
漁@@ 1
王位 1
凝@@ 1
布尔 1
籃球 1
杆 1
侧@@ 1
剧情 1
秦 1
容量 1
生物@@ 1
诚 1
亿美元 1
强度 1
風險 1
灌@@ 1
民主党 1
篮球 1
院校 1
本名 1
请@@ 1
听 1
除此之外 1
宪@@ 1
‧ 1
私立 1
保安 1
1909 0.7089203669311894
蓬@@ 1
訪@@ 1
量子 1
陈 1
mm 0.38627306774339665
關閉 1
定位 1
映 1
教師 1
洛杉磯 1
鄰@@ 1
高地 1
110 1
鐘 1
九月 1
加强 1
欣 1
知府 1
08 1
譽 1
货运 1
銅@@ 1
压力 1
神秘 1
電視@@ 1
叫做 1
社交 1
发出 1
园@@ 1
魏 1
坛 1
巢 1
歌唱 1
請@@ 1
勤@@ 1
z 0.22857462259170788
舟 1
總督 1
间@@ 1
校舍 1
金山 1
仇 1
華盛頓 1
嗣 1
崎 1
儀@@ 1
划@@ 1
氧@@ 1
亞歷 1
續@@ 1
拱@@ 1
89 1
蒙特 1
裁判 1
其余 1
梯@@ 1
结 1
确认 1
补 1
边界 1
洛克 1
級@@ 1
吹@@ 1
違@@ 1
町@@ 1
接管 1
大公 1
农民 1
市長 1
耀 1
属@@ 1
加利 1
丹尼 1
加工 1
株 1
災 1
玲 1
公告 1
布拉@@ 1
國家@@ 1
蔣 1
两年 1
一群 1
纪录 1
侍郎 1
敗@@ 1
對象 1
祭祀 1
古巴 1
福利 1
繼承 1
德尔 1
錢@@ 1
仅@@ 1
学术 1
伤@@ 1
印刷 1
对此 1
建築物 1
奶@@ 1
较大 1
獵@@ 1
一批 1
繪 1
這裡 1
噶@@ 1
太守 1
南面 1
生長 1
每次 1
子公司 1
覆@@ 1
十一年 1
锡 1
竣工 1
布里@@ 1
觸@@ 1
论文 1
矿 1
以往 1
寺@@ 1
永久 1
布里 1
領土 1
政治部 1
阿拉@@ 1
碳@@ 1
战略 1
恭@@ 1
06 1
喜欢 1
患 1
高架 1
35@@ 1
93 1
蛇@@ 1
钟@@ 1
頻 1
遊行 1
筹@@ 1
败 1
劃@@ 1
陀 1
接著 1
大字 1
初年 1
证据 1
丰富 1
滩 1
豐 1
日報 1
妇女 1
弦 1
繼 1
揭@@ 1
祖先 1
億元 1
缅甸 1
气旋 1
宣言 1
山脉 1
晶 1
標誌 1
900 1
移居 1
91 1
第九 1
贵州 1
煙@@ 1
亲 1
前者 1
郊 1
反抗 1
恆@@ 1
白人 1
是因为 1
译@@ 1
即可 1
召 1
架構 1
軌@@ 1
带有 1
入球 1
自治区 1
滑 1
智慧 1
小姐 1
己@@ 1
敌@@ 1
启用 1
解放军 1
徑 1
定性 1
慢 1
戲劇 1
有意 1
年任 1
较为 1
al 0.03094651417353368
謀@@ 1
1916 0.6086433178946252
榜@@ 1
怪@@ 1
离子 1
暫@@ 1
對方 1
合唱 1
勝出 1
最新 1
山口 1
顏@@ 1
礦@@ 1
推 1
指令 1
兩名 1
擁@@ 1
吐@@ 1
第七@@ 1
顆 1
棟 1
魂 1
HR 1
飯 1
吾 1
律師 1
温度 1
汀 1
高校 1
押 1
利斯 1
外界 1
韓國@@ 1
甜@@ 1
貞@@ 1
便是 1
强烈 1
医 1
掩@@ 1
册 1
價格 1
壳 1
印地安 1
期刊 1
其父 1
圈@@ 1
穆罕默德 1
罰 1
斯托 1
知县 1
實行 1
不仅 1
还@@ 1
芝 1
說明 1
智利 1
講述 1
国家队 1
喬治 1
确@@ 1
豫@@ 1
律师 1
料@@ 1
嘴 1
遮@@ 1
奖项 1
老師 1
十二月 1
任職 1
愿 1
原来 1
国立 1
送到 1
元朝 1
释放 1
阿爾 1
消 1
丹麦 1
训 1
蒋@@ 1
學士 1
演員@@ 1
自殺 1
球场 1
迫@@ 1
齿 1
芒@@ 1
1910 0.5271700048286327
多種 1
谱 1
女神 1
蝶 1
靖@@ 1
09 1
拉丁 1
潜艇 1
襄@@ 1
登陸 1
畔 1
误@@ 1
回答 1
九龍@@ 1
协助 1
取自 1
访 1
堤 1
年時 1
得分 1
迫 1
机械 1
变得 1
彼此 1
息@@ 1
附 1
东南部 1
爱尔兰 1
1915 0.5783769671026361
扩展 1
旅遊 1
拉姆 1
价格 1
十三年 1
競@@ 1
飛彈 1
劇本 1
可見 1
似@@ 1
議題 1
困 1
專門 1
九州 1
責任 1
三位 1
總站 1
路易斯 1
至此 1
般 1
官至 1
挑@@ 1
僧@@ 1
日本@@ 1
批判 1
江戶 1
东北@@ 1
損失 1
受伤 1
牧 1
有名 1
陀@@ 1
工程@@ 1
寒@@ 1
府@@ 1
布拉 1
肇@@ 1
马克 1
铺 1
層@@ 1
遣 1
黑暗 1
斗争 1
吃@@ 1
豹 1
恐@@ 1
97 1
書籍 1
紙@@ 1
之名 1
杀死 1
電力 1
祐 1
事物 1
刺激 1
贺@@ 1
弱@@ 1
向量 1
立場 1
頗 1
鹽@@ 1
難以 1
题@@ 1
安全@@ 1
指导 1
獄 1
明代 1
兩次 1
社群 1
染@@ 1
莱茵 1
分解 1
注入 1
兩位 1
站房 1
番@@ 1
加強 1
灯 1
该地 1
叙利亚 1
御 1
势力 1
專 1
克里 1
i@@ 0.19895207306511314
07 1
多数 1
迦@@ 1
通車 1
Q 1
貝爾@@ 1
福特 1
辭@@ 1
公式 1
亞目 1
滕@@ 1
更改 1
а 0.0781580451663478
啟 1
爾頓 1
维持 1
貴族 1
一旦 1
茂 1
寿 1
新人 1
昭 1
頒獎 1
十七 1
態度 1
煤@@ 1
金融@@ 1
突厥 1
裕@@ 1
搭 1
地址 1
各國 1
萨尔 1
戰車 1
主辦 1
姓氏 1
畢@@ 1
列為 1
逾 1
垂直 1
尺寸 1
04 1
坂@@ 1
盆地 1
各类 1
日报 1
太后 1
構成 1
礁 1
脚@@ 1
教区 1
運動@@ 1
东京 1
累计 1
刊@@ 1
龜 1
编号 1
芝@@ 1
爾斯 1
打擊 1
南極條 1
晉級 1
更好 1
收购 1
内阁 1
服务@@ 1
楊 1
滨@@ 1
男孩 1
公署 1
閉@@ 1
福音 1
阻 1
鲜@@ 1
金曲 1
波特 1
电视@@ 1
簽約 1
猛@@ 1
国民政府 1
二次 1
停留 1
研 1
本科 1
本屆 1
轉換 1
建有 1
所謂 1
幕府 1
用戶 1
這項 1
印象 1
刚 1
平行 1
体育@@ 1
大獎 1
现有 1
召開 1
墨 1
穿越 1
米尔 1
键 1
迁@@ 1
性格 1
數字 1
签订 1
勋章 1
幽@@ 1
轴@@ 1
伴@@ 1
妙 1
議席 1
宣告 1
搜索 1
總會 1
技巧 1
提前 1
赤經 1
申请 1
大帝 1
多尔 1
文化大革命 1
研發 1
这颗 1
滨海 1
等待 1
旧址 1
鰭 1
种子 1
正月 1
證實 1
高達 1
作業 1
布雷 1
氧化@@ 1
公转 1
特里 1
錯 1
騎 1
它@@ 1
排名第 1
詢 1
僧 1
盘@@ 1
简介 1
誠 1
綜合 1
大埔 1
次日 1
追求 1
優勢 1
免費 1
最高法院 1
世界各地 1
40@@ 1
讲述 1
登陆 1
密切 1
投手 1
防守 1
當天 1
造型 1
天府 1
平成 1
月份 1
漫画 1
抢@@ 1
通行 1
細 1
哲學 1
揚@@ 1
生产@@ 1
整体 1
海峽 1
愛情 1
不可@@ 1
兽 1
秘@@ 1
函@@ 1
聲明 1
2.5 1
員工 1
燒@@ 1
02 1
该国 1
懷 1
储@@ 1
選人 1
r@@ 0.15542767489271847
科学@@ 1
騎士 1
困@@ 1
塘@@ 1
军官 1
叔@@ 1
大衛 1
中华 1
启动 1
危机 1
菲律宾 1
药物 1
这座 1
革命@@ 1
临 1
宿舍 1
SAO 1
参谋长 1
首批 1
少将 1
阳县 1
意识 1
機制 1
威爾@@ 1
丹麥 1
姊妹 1
基本上 1
其子 1
條約 1
该党 1
出自 1
测量 1
澎湖 1
夏天 1
身体 1
垂@@ 1
霞 1
对手 1
骑兵 1
擬@@ 1
高山 1
文献 1
鐸 1
剧院 1
就任 1
惊@@ 1
大选 1
濃@@ 1
伯格 1
说明 1
1901 0.6957714126936925
琉@@ 1
5000 1
下游 1
病人 1
颜色 1
第八@@ 1
乾 1
加速 1
幹 1
王室 1
三甲 1
蒸@@ 1
鼎@@ 1
移交 1
赤緯 1
際 1
彼@@ 1
华人 1
科学院 1
话@@ 1
真實 1
隋@@ 1
割@@ 1
新北市 1
元音 1
因應 1
乙 1
党委 1
冈@@ 1
男人 1
行政区 1
运用 1
醫 1
坚持 1
貫@@ 1
境@@ 1
产地 1
卑@@ 1
其后 1
簽訂 1
错 1
两侧 1
碩士 1
陕西省 1
桂 1
灾 1
雀 1
壞 1
付@@ 1
基督徒 1
珀 1
截止 1
褐色 1
科学家 1
UTC 1
谋@@ 1
酮 1
买@@ 1
呈@@ 1
孝 1
互联网 1
弟子 1
十一月 1
纹 1
洪水 1
n@@ 0.13814175338741574
办@@ 1
時會 1
检查 1
腐@@ 1
优势 1
改称 1
有時 1
笔@@ 1
草案 1
軟@@ 1
巴斯 1
一艘 1
骑@@ 1
衡@@ 1
博士学位 1
一詞 1
出戰 1
也@@ 1
儲@@ 1
1905 0.5493949249304731
瓶 1
码 1
豐富 1
譯@@ 1
同志 1
抗日战争 1
不但 1
克林 1
蘋果 1
贤 1
as 0.007522025064556795
騎@@ 1
南斯拉夫 1
乌 1
茅@@ 1
一架 1
违@@ 1
94 1
像@@ 1
這場 1
加斯 1
17@@ 1
告訴 1
真的 1
称号 1
鴻@@ 1
一片 1
碟 1
猪笼草 1
候选人 1
咖啡 1
誌 1
声明 1
村民 1
注册 1
原则 1
東南 1
趕@@ 1
将领 1
幫@@ 1
缸 1
霖 1
人員@@ 1
發表@@ 1
长沙 1
剑@@ 1
负 1
给予 1
銀經 1
鼓勵 1
评为 1
願@@ 1
公寓 1
叔 1
添加 1
清真寺 1
翁@@ 1
外国 1
脫 1
偶 1
邮@@ 1
整理 1
娱乐 1
遺址 1
勳 1
斌 1
涵 1
强调 1
娘 1
閃@@ 1
00@@ 1
丞 1
坎 1
銀緯 1
考察 1
冒@@ 1
课 1
盧 1
名叫 1
梯 1
秩序 1
安德@@ 1
搬@@ 1
怒 1
欺@@ 1
中華@@ 1
種類 1
B1900.0 1
兴建 1
积极 1
面向 1
谈判 1
不僅 1
平定 1
谈 1
晋 1
乘坐 1
弄 1
拉特 1
监 1
软@@ 1
種子 1
雖@@ 1
名人 1
文学@@ 1
陶 1
成果 1
瓦尔 1
車隊 1
行业 1
請求 1
YouTube 1
粵語 1
这部 1
风险 1
山東 1
效@@ 1
层@@ 1
雌@@ 1
广告 1
x@@ 0.35943678884103664
一本 1
中心@@ 1
回合 1
鬆 1
者@@ 1
3D 1
嗣@@ 1
秘书 1
困難 1
治所 1
画家 1
美軍@@ 1
公開賽 1
130 1
状况 1
希特勒 1
知识 1
轨道交通 1
一面 1
仰@@ 1
然@@ 1
頒 1
亿@@ 1
郎中 1
． 1
人權 1
纵@@ 1
一日 1
信息@@ 1
身亡 1
當日 1
陸軍@@ 1
03 1
出土 1
吊@@ 1
抗议 1
酯 1
花园 1
深入 1
医疗 1
披@@ 1
菊@@ 1
33@@ 1
庵 1
梦@@ 1
符号 1
戰鬥機 1
纪念@@ 1
屆@@ 1
愛的 1
慈善 1
國語 1
稍@@ 1
裸@@ 1
格林 1
弥@@ 1
霍 1
戰隊 1
拳@@ 1
钟 1
促进 1
大同 1
幸 1
John 0.08366312427736211
於@@ 1
围 1
升級 1
人群 1
吏部 1
潘 1
稅@@ 1
購@@ 1
任意 1
罗伯特 1
回国 1
劫@@ 1
徒@@ 1
二级 1
艺术家 1
眼睛 1
尊重 1
窗@@ 1
緊@@ 1
建築@@ 1
苏格兰 1
透 1
庚@@ 1
生效 1
卡特 1
戒 1
苗@@ 1
軸 1
伟 1
一路 1
护 1
數學 1
會員 1
柳 1
機車 1
开工 1
抚@@ 1
東京@@ 1
供奉 1
职@@ 1
优秀 1
鱸 1
地域 1
院長 1
感情 1
审查 1
捲 1
國道 1
v 0.44472226526336606
鑑 1
降雨量 1
相应 1
適合 1
主唱 1
纯@@ 1
旨 1
租 1
名义 1
慈 1
杭@@ 1
藍色 1
晚年 1
殿@@ 1
十五年 1
河口 1
西斯 1
乎 1
這也 1
坑@@ 1
棄 1
太陽@@ 1
舉人 1
費用 1
兄@@ 1
會長 1
节度使 1
語言@@ 1
电力机车 1
危 1
37@@ 1
不满 1
精神@@ 1
报纸 1
á 0.5100264959315528
選為 1
维护 1
適 1
雖 1
審 1
明确 1
com 1
讲 1
样@@ 1
圆 1
大規模 1
悬@@ 1
娶 1
纲 1
扬@@ 1
政委 1
第一名 1
少量 1
主体 1
把@@ 1
中以 1
手法 1
達到 1
回家 1
采访 1
回歸 1
綱@@ 1
稻@@ 1
縮@@ 1
岗 1
拔 1
都督 1
階級 1
第二次世界大战 1
可能性 1
闭@@ 1
殷@@ 1
鐵路車 1
教學 1
北魏 1
中将 1
告诉 1
い 1
哪@@ 1
看法 1
交界 1
分享 1
穆 1
娅 1
拜占庭 1
立法院 1
当天 1
跑道 1
培 1
刘 1
旦 1
科技@@ 1
火车站 1
冈 1
岛@@ 1
诗人 1
雞 1
攀@@ 1
空气 1
裴@@ 1
监狱 1
片段 1
嘴@@ 1
等级 1
经验 1
己 1
神父 1
考试 1
濱 1
基金会 1
短期 1
链 1
二战 1
檢查 1
縣人 1
藻 1
改良 1
盤@@ 1
購買 1
予以 1
手机 1
例@@ 1
困难 1
赏 1
34@@ 1
廢 1
空氣 1
負責@@ 1
又@@ 1
1903 0.6331050775376197
赞 1
直径 1
饰演 1
据@@ 1
开设 1
亮相 1
無線 1
撞击 1
十四年 1
地鐵 1
習@@ 1
考入 1
貝爾 1
本次 1
腦@@ 1
一处 1
特區 1
任职 1
纯 1
脑@@ 1
抵 1
沙漠 1
稍 1
体育场 1
卵@@ 1
哀@@ 1
抓@@ 1
换乘 1
得主 1
振 1
克里斯 1
情感 1
族人 1
覺@@ 1
手機 1
無論 1
赤 1
奧運 1
兩國 1
其他人 1
麦 1
並與 1
之战 1
一級 1
灯@@ 1
符號 1
亚历山大 1
厂@@ 1
暫 1
忍 1
一顆 1
苏州 1
關鍵 1
id 0.4384707709375832
第一代 1
考試 1
懷疑 1
臣@@ 1
隶属 1
这场 1
抱 1
耕@@ 1
形態 1
日語 1
证@@ 1
桓@@ 1
购@@ 1
海水 1
OS 1
尤 1
企@@ 1
升级 1
大都 1
恐龍 1
瑜 1
1500 1
殺害 1
下面 1
华盛顿 1
恨 1
换 1
靖 1
須@@ 1
廉 1
保羅 1
修复 1
并非 1
餐廳 1
氯@@ 1
串@@ 1
增長 1
蜂 1
太郎 1
燒 1
狼@@ 1
感染者 1
稱作 1
防空 1
呈現 1
薄 1
跟@@ 1
曹操 1
180 1
1908 0.5241846570545068
寒 1
亡@@ 1
附加 1
国民 1
五世 1
崙 1
内蒙古 1
军团 1
噸 1
封面 1
符@@ 1
耶穌 1
年期 1
評估 1
税@@ 1
PlayStation 1
美國人 1
聘@@ 1
伴 1
克拉@@ 1
闽@@ 1
苯@@ 1
各国 1
檔案 1
触@@ 1
驅@@ 1
往返 1
虚@@ 1
斯堡 1
婆@@ 1
巧@@ 1
覆蓋 1
中国科学院 1
南昌 1
鼠@@ 1
太原 1
定律 1
為主 1
所谓 1
北宋 1
腦 1
级@@ 1
包圍 1
謂 1
培养 1
巡洋舰 1
秉@@ 1
依靠 1
浩 1
保证 1
緩 1
覆 1
脉 1
腺@@ 1
壮@@ 1
声音 1
南下 1
边境 1
二十年 1
舱 1
總裁 1
美國海 1
尺 1
丑 1
危險 1
帽 1
о 0.11539212018819266
南宋 1
法语 1
這一@@ 1
南端 1
亲王 1
城墙 1
西侧 1
世代 1
一期 1
at 0.01025319467827748
翰@@ 1
五個 1
些 1
ISTAT 1
戰場 1
爆 1
播映 1
午 1
懸@@ 1
嫁 1
河谷 1
堅持 1
忘@@ 1
亩 1
在于 1
国民党 1
佑 1
甘 1
議院 1
里昂 1
style 0.2013562912623819
周圍 1
衝 1
脚 1
铁路@@ 1
Category 1
日常 1
队长 1
动车组 1
影展 1
拥@@ 1
带领 1
職位 1
北美洲 1
夷 1
江西省 1
神話 1
舌@@ 1
矩 1
南路 1
次列车 1
享@@ 1
作物 1
解放@@ 1
球迷 1
驗 1
云南省 1
言論 1
160 1
蜜@@ 1
憲 1
车队 1
刊登 1
牽@@ 1
中市 1
繁殖 1
責管 1
香港@@ 1
範 1
主义者 1
床@@ 1
36@@ 1
亦可 1
猎@@ 1
慕@@ 1
融@@ 1
暫時 1
匹@@ 1
草原 1
遼@@ 1
勘@@ 1
通訊 1
共计 1
奴@@ 1
机制 1
戰略 1
威尼斯 1
冠状病毒 1
尼西 1
销 1
告知 1
庸 1
酷 1
静 1
灭 1
恩斯 1
沈阳 1
朝鲜@@ 1
黛@@ 1
抑制 1
科學@@ 1
爭取 1
暗 1
溶液 1
少数 1
校園 1
元朗 1
遵@@ 1
一職 1
南市 1
推动 1
之意 1
灰 1
合理 1
划分 1
鼎 1
y@@ 0.15519538726932933
模仿 1
邪 1
民间 1
繼承@@ 1
風警報 1
星期一 1
春秋 1
譚@@ 1
续@@ 1
射擊 1
苏丹 1
增強 1
排除 1
外國 1
徽@@ 1
稱呼 1
浸@@ 1
兵部 1
电力 1
忽@@ 1
敵人 1
运动会 1
坡@@ 1
1906 0.5391722368905962
格里 1
一張 1
逆 1
傳媒 1
电话 1
NGC 0.9307235800971727
俄羅斯@@ 1
1907 0.5350843349844062
防部 1
寻找 1
第一批 1
自主 1
align 0.817704730497898
中华@@ 1
儿@@ 1
全国@@ 1
因子 1
泛 1
衰@@ 1
宁波 1
道歉 1
滕 1
足夠 1
沪 1
棚 1
喜劇 1
堡@@ 1
倉@@ 1
洪武 1
十六年 1
賀 1
信任 1
赐 1
全國@@ 1
地質 1
土壤 1
山坡 1
继 1
甘肃 1
工作者 1
綠 1
立委 1
原定 1
周期 1
铜牌 1
弘 1
歐盟 1
促使 1
被告 1
黨籍 1
红军 1
万历 1
手槍 1
款@@ 1
熟@@ 1
装饰 1
痛@@ 1
达成 1
阶 1
尝试 1
飲@@ 1
扇 1
娛樂@@ 1
堆@@ 1
炎@@ 1
人大 1
保罗 1
分离 1
第十三届 1
卫生 1
責 1
賊 1
首歌曲 1
社會@@ 1
国军 1
尽 1
克莱@@ 1
怕 1
美军 1
郎@@ 1
男主角 1
順利 1
象征 1
梦 1
文獻 1
观测 1
清水 1
烷 1
之處 1
师范大学 1
图像 1
大连 1
操 1
完美 1
废除 1
犯@@ 1
额@@ 1
山县 1
放置 1
技能 1
辨@@ 1
樑 1
幢 1
訊息 1
刚@@ 1
宣稱 1
貓@@ 1
1904 0.5521401146626665
闻 1
厄尔 1
兩岸 1
天空 1
坤 1
主權 1
蕾 1
没@@ 1
伍 1
富士 1
專家 1
鸡@@ 1
享有 1
份@@ 1
公共交通 1
氣體 1
雅典 1
III 0.21921936841387996
祀 1
中共中央@@ 1
亲自 1
前方 1
宴 1
差距 1
经济学 1
鋒 1
colspan 1
上任 1
局长 1
屏@@ 1
校友 1
渠 1
打造 1
搭配 1
霧 1
窄 1
罕 1
厄 1
排行 1
概述 1
廿@@ 1
鋼 1
雕 1
逸@@ 1
陕@@ 1
訴 1
伊斯兰 1
用來 1
電視動畫 1
一角 1
前后 1
替@@ 1
d@@ 0.12027183115671655
货物 1
冯 1
辉 1
测 1
參加@@ 1
沟@@ 1
专区 1
毕@@ 1
最为 1
簡歷 1
斯顿 1
經濟@@ 1
姐妹 1
自稱 1
公立 1
臂 1
p@@ 0.1279446137631014
釋@@ 1
初步 1
競賽 1
香港政府 1
昆明 1
吉林 1
免费 1
蟲@@ 1
废 1
玛丽 1
焚@@ 1
敌人 1
框架 1
排球 1
场所 1
推进 1
坐落 1
习@@ 1
频率 1
各个 1
感覺 1
艙 1
熟 1
电影@@ 1
低氣壓 1
史上 1
代表性 1
140 1
尚書 1
滑雪 1
适@@ 1
各级 1
園區 1
缩写 1
立刻 1
薪@@ 1
科學家 1
蛙 1
蜀 1
經紀 1
採 1
勒斯 1
里克 1
各個 1
钦@@ 1
新冠 1
全年 1
籤 1
索尼 1
呼 1
屯門 1
強度 1
錫 1
區劃 1
对外 1
故障 1
资产 1
火力 1
促進 1
龐@@ 1
为此 1
性別 1
耶夫 1
拉德 1
缺 1
航行 1
終點 1
伐 1
受害者 1
況 1
年末 1
幸福 1
客车 1
汽@@ 1
新区 1
本部 1
櫻@@ 1
邪@@ 1
率領 1
年龄 1
王后 1
效应 1
總教區 1
西亞@@ 1
移至 1
奖@@ 1
千年 1
夺得 1
比亞 1
消防 1
枢纽 1
催@@ 1
绕 1
区别 1
绿色 1
銘 1
訂@@ 1
教练 1
肺@@ 1
淺@@ 1
贊@@ 1
片中 1
状@@ 1
歌詞 1
刑事 1
並不 1
貧@@ 1
市立 1
托马斯 1
妻@@ 1
职位 1
火炮 1
職棒 1
攻入 1
翌日 1
\ 1
威尔 1
神經 1
回应 1
廠@@ 1
唐代 1
植 1
融 1
五十 1
國的 1
着@@ 1
差异 1
辅@@ 1
血液 1
BD 1
單元 1
摄@@ 1
政协 1
市政 1
la 0.002553299440539611
涛 1
仪@@ 1
访@@ 1
贫@@ 1
卡爾 1
否 1
周恩来 1
福德 1
認定 1
障礙 1
道教 1
户@@ 1
流行@@ 1
地图 1
平安 1
财政 1
采 1
城际 1
意味着 1
绥@@ 1
疾 1
樣@@ 1
代表作 1
蓮 1
授權 1
監督 1
肩@@ 1
冠狀 1
发售 1
提案 1
潭@@ 1
银牌 1
緬甸 1
口岸 1
辽宁省 1
喬 1
牟@@ 1
扩@@ 1
维亚 1
东侧 1
卵 1
苯 1
裝甲 1
45@@ 1
埠 1
沼@@ 1
識@@ 1
炳@@ 1
違反 1
統治@@ 1
擴展 1
爐 1
货币 1
战后 1
突 1
波音 1
輸 1
克羅@@ 1
駕駛 1
該片 1
督府 1
擔@@ 1
輛@@ 1
面对 1
五个 1
手術 1
末年 1
夷@@ 1
登記 1
创新 1
总局 1
支部 1
消除 1
80@@ 1
交換 1
爺 1
首个 1
開幕 1
首張 1
實驗室 1
第二季 1
軍官 1
北起 1
中世纪 1
肝@@ 1
寺院 1
被判 1
形态 1
第九@@ 1
减 1
同治 1
委會 1
葬@@ 1
指導 1
侵犯 1
辞职 1
簽@@ 1
闊 1
現實 1
? 0.2064315568180011
奎 1
主義者 1
国民@@ 1
巨人 1
司馬@@ 1
網球 1
腹 1
6% 1
统 1
吴 1
查理 1
雕像 1
科會試 1
諮 1
名義@@ 1
胞@@ 1
疆@@ 1
烏 1
那裡 1
截 1
荷蘭@@ 1
当中 1
既@@ 1
似的 1
50@@ 1
記憶 1
這段 1
運輸@@ 1
月刊 1
Linux 1
岗@@ 1
綜藝 1
两名 1
区间 1
劉 1
授权 1
傾向 1
4% 1
庶 1
摧毁 1
编剧 1
兆 1
越来越 1
38@@ 1
得出 1
吉他 1
虹@@ 1
執 1
犹太 1
適用 1
涂@@ 1
高峰 1
事宜 1
認證 1
漢字 1
住房 1
漫 1
搶 1
技 1
运河 1
大橋 1
繁忙 1
39@@ 1
et 0.006077722056141613
悉 1
安置 1
允 1
扭@@ 1
防御 1
頻@@ 1
主義的 1
仅仅 1
十七年 1
附属 1
s@@ 0.07881259105820065
日舉行 1
不利 1
汉语 1
洛斯 1
叫@@ 1
罩 1
阵 1
电台 1
经典 1
同月 1
二戰 1
尉 1
徐 1
一点 1
英寸 1
卡爾@@ 1
閘@@ 1
房子 1
崇拜 1
柯 1
公社 1
午@@ 1
吹 1
原料 1
骑 1
重視 1
東區 1
责任 1
打击 1
负责人 1
凸@@ 1
慘@@ 1
礦 1
駛@@ 1
重要性 1
岛屿 1
鄭 1
拯救 1
隊長 1
单独 1
科幻 1
一台 1
文革 1
面前 1
鸿@@ 1
武装@@ 1
韩 1
誰 1
弟@@ 1
会员 1
魁 1
扫@@ 1
行政区域 1
跨越 1
铜 1
恒 1
洗 1
360 1
上校 1
辽宁 1
資金 1
感受 1
斐@@ 1
ing 0.04406821489386423
函 1
太祖 1
翰林院 1
共享 1
鹰 1
審查 1
普及 1
强大 1
這部 1
格斯 1
貨 1
台幣 1
姬@@ 1
短片 1
改稱 1
共产主义 1
群众 1
c@@ 0.14623692109047784
罗马尼亚 1
or 0.019594855315853824
谈@@ 1
施行 1
海姆 1
欧洲@@ 1
增强 1
拒 1
写作 1
溶@@ 1
订@@ 1
雕塑 1
老人 1
頻率 1
三大 1
假設 1
硬币 1
私 1
哈拉 1
终于 1
底層 1
保護@@ 1
攻占 1
um 0.05094004946961161
戏剧 1
十八年 1
贴 1
配備 1
民主派 1
將軍@@ 1
规 1
夏威夷 1
乌斯 1
淺 1
領地 1
仿 1
国家级 1
蓄@@ 1
background 0.7103422511901643
审 1
人文 1
獨特 1
要塞 1
一小 1
途@@ 1
须 1
污@@ 1
山大 1
談判 1
卜 1
攝影 1
β 1
一代 1
扣@@ 1
日子 1
症狀 1
城县 1
戌 1
印度尼西亚 1
吉林省 1
监督 1
修訂 1
原址 1
週期 1
电脑 1
栋 1
鳳 1
大卫 1
影響力 1
货 1
若干 1
扩建 1
收費 1
蓝色 1
蜂@@ 1
另一@@ 1
普通@@ 1
来源于 1
義的 1
全市 1
呼籲 1
沿用 1
軒 1
逻辑 1
次子 1
站名 1
− 0.6193603728849961
格尔 1
醫師 1
愈@@ 1
禧 1
纵队 1
姆斯 1
燃 1
勋 1
第二代 1
公車 1
大厦 1
定義@@ 1
認同 1
改进 1
附屬 1
癌症 1
繞 1
德勒 1
龄 1
擁 1
汶@@ 1
不佳 1
境內 1
核酸 1
四名 1
材@@ 1
冒險 1
格雷 1
医学院 1
台南 1
布政使 1
紀念@@ 1
边缘 1
險@@ 1
桌@@ 1
参议院 1
唇 1
局長 1
贯 1
俗@@ 1
и 0.0069264906609701775
人均 1
建筑面积 1
穴 1
仓 1
掠 1
罪名 1
災@@ 1
奧運會 1
煤 1
对抗 1
彬 1
戏@@ 1
斯塔@@ 1
盜@@ 1
充分 1
中旬 1
法定 1
锋 1
三角形 1
夾@@ 1
朵 1
畫面 1
皆@@ 1
不知 1
天體 1
彙 1
卖@@ 1
率先 1
钢 1
一道 1
帖 1
签@@ 1
口徑 1
员@@ 1
重修 1
豬 1
成化 1
射击 1
农场 1
尋求 1
北路 1
時報 1
觀光 1
劳动@@ 1
三十 1
试 1
山區 1
烧@@ 1
堅 1
更为 1
逼 1
儒 1
卫视 1
售票 1
勾@@ 1
箭 1
镜头 1
枝@@ 1
並由 1
缩@@ 1
爱德华 1
的话 1
聯合@@ 1
350 1
动作 1
迫害 1
斥 1
欲@@ 1
紐 1
宋朝 1
地帶 1
青春 1
死去 1
现存 1
講 1
西路 1
蘇聯@@ 1
利物浦 1
设在 1
国防@@ 1
接到 1
淡 1
關於 1
出兵 1
報道 1
輝@@ 1
濕@@ 1
碑@@ 1
尿@@ 1
秘魯 1
克萊@@ 1
聖經 1
稀@@ 1
芙@@ 1
陨坑 1
8% 1
借 1
尼古拉 1
真实 1
约瑟夫 1
伪@@ 1
狱 1
埃尔@@ 1
悠久 1
全美 1
瑞克 1
讯 1
宅@@ 1
掛@@ 1
死者 1
PC 0.8810467958585517
决议 1
潤 1
民籍 1
相較 1
黏@@ 1
10.@@ 1
数据@@ 1
萨克 1
力学 1
第十 1
龍科 1
完善 1
生前 1
馆@@ 1
出发 1
東北@@ 1
插 1
释 1
提议 1
缓@@ 1
不如 1
手下 1
态度 1
決議 1
斯拉夫 1
束@@ 1
顿@@ 1
齒@@ 1
隔离 1
出賽 1
广州市 1
循@@ 1
桥梁 1
给出 1
品質 1
机械@@ 1
书院 1
收录 1
限定 1
維護 1
60@@ 1
center 0.26146530386674444
充滿 1
变种 1
垣 1
推荐 1
採訪 1
名古屋 1
戏 1
董事长 1
怡 1
煙 1
狭@@ 1
滿足 1
浮 1
郑州 1
鍵 1
交换 1
洛杉矶 1
粤@@ 1
掠@@ 1
发明 1
杀害 1
損 1
黄河 1
大队 1
客家 1
纸 1
信奉 1
景区 1
梨 1
拟@@ 1
联合@@ 1
貨幣 1
介入 1
島式 1
傷害 1
碼@@ 1
觀察 1
使者 1
吳 1
洛特 1
盜 1
中央军委 1
彗星 1
右翼 1
渔@@ 1
薩爾@@ 1
寄生 1
概@@ 1
趁@@ 1
蜜 1
協定 1
CO@@ 0.9116574207084567
惑 1
7% 1
预计 1
竞争 1
股票 1
腺 1
仕@@ 1
轉移 1
交通部 1
涌 1
创始人 1
一件 1
生意 1
运转 1
1898 0.5693819626639003
马丁 1
實力 1
徹 1
縱 1
创 1
期望 1
藝術@@ 1
惟 1
戰術 1
輸出 1
夫卡 1
独特 1
磅 1
下旬 1
呼吸 1
恶 1
灰色 1
黄色 1
畫家 1
体现 1
北侧 1
大師 1
氢 1
輸@@ 1
早已 1
叉 1
後期 1
占据 1
黑龙江省 1
漂@@ 1
現為 1
轄@@ 1
並獲 1
女歌手 1
帆 1
意義 1
正確 1
輔 1
重點 1
鎊 1
镇压 1
晚間 1
資產 1
越南@@ 1
穗 1
匪 1
祖籍 1
划 1
圆形 1
獻 1
color 0.36484961449569153
盒 1
认识 1
城市@@ 1
標本 1
胎@@ 1
员工 1
猫 1
促@@ 1
犬@@ 1
与其 1
勁 1
邻@@ 1
105 1
壯@@ 1
規 1
集团军 1
甲基 1
黄金 1
团长 1
改由 1
治理 1
案例 1
葡萄牙语 1
领地 1
混凝土 1
游客 1
慧 1
是从 1
邀@@ 1
独立@@ 1
阔 1
ST@@ 1
从此 1
委会 1
慎 1
粘@@ 1
推广 1
理学 1
繪@@ 1
避 1
資助 1
喪@@ 1
建筑物 1
域名 1
前期 1
剧本 1
天氣 1
承担 1
1902 0.5143351902844658
駕駛@@ 1
逃亡 1
递@@ 1
休息 1
忘 1
神话 1
全程 1
該校 1
首部 1
檢測 1
局部 1
貨物 1
TO@@ 1
克拉克 1
新教 1
为止 1
里亚 1
交付 1
啦 1
邊境 1
多位 1
樂器 1
獲得@@ 1
墙@@ 1
改任 1
鯉@@ 1
卫生@@ 1
开发区 1
认定 1
篇@@ 1
姐姐 1
皇室 1
研发 1
迎 1
雍正 1
鞋 1
甘肃省 1
築 1
滨 1
肌肉 1
人民法院 1
武力 1
觉得 1
隙 1
欽@@ 1
长子 1
北京大学 1
变量 1
改用 1
马恩省 1
严格 1
寇 1
平方 1
明確 1
a@@ 0.15775135266923876
俘 1
身高 1
業者 1
緣@@ 1
外觀 1
豬@@ 1
颶風 1
导师 1
前任 1
亮@@ 1
發明 1
訊號 1
随即 1
无症状 1
最高@@ 1
甸 1
小孩 1
赶@@ 1
劳动 1
形狀 1
影响力 1
教士 1
割 1
宰相 1
赖 1
浅@@ 1
卓 1
妥@@ 1
送往 1
惨@@ 1
最為 1
ia 0.13591206685619575
疾@@ 1
輸入 1
积分 1
無人 1
陆续 1
凯 1
危险 1
洁 1
姐 1
觸 1
不幸 1
紹 1
雍@@ 1
形状 1
徐州 1
致力 1
t@@ 0.09481676246368796
依据 1
出發 1
舌 1
text 0.4814719782395491
出局 1
文本 1
梨@@ 1
转向 1
只好 1
哈利 1
此後@@ 1
安妮 1
干涉 1
擴張 1
斯科 1
標賽 1
降落 1
孕@@ 1
昆 1
赵 1
一词 1
止@@ 1
術@@ 1
越來 1
法人 1
這一 1
研制 1
藝術家 1
公投 1
扩张 1
推薦 1
故此 1
並有 1
覽 1
第一届 1
矩阵 1
銜 1
害@@ 1
治安 1
防禦 1
页 1
企圖 1
射入 1
弓@@ 1
科進士 1
批复 1
遺產 1
1895 0.5736987519824049
不敢 1
奥尔@@ 1
歡 1
IN@@ 0.9728471506924768
享受 1
十五@@ 1
器官 1
帶領 1
擬 1
累積 1
鶴@@ 1
一大 1
by 0.006610146708780662
居委会 1
水中 1
巴拉 1
贊助 1
乘車 1
桐@@ 1
梵@@ 1
确保 1
罪行 1
佛羅里 1
地处 1
暂@@ 1
出战 1
本來 1
印度洋 1
印度@@ 1
两位 1
败@@ 1
写道 1
对方 1
任內 1
网络@@ 1
足以 1
忌 1
總監 1
足够 1
布萊@@ 1
緊急 1
勇士 1
含量 1
將領 1
各有 1
好評 1
相当于 1
遵守 1
学堂 1
汁 1
樂園 1
水上 1
西站 1
數個 1
達州 1
戰時 1
爾特 1
熔@@ 1
蝶@@ 1
西元 1
太阳@@ 1
低于 1
显著 1
级别 1
預測 1
书籍 1
利亞@@ 1
契 1
í 0.5702825747934183
允@@ 1
玄 1
竞选 1
收視 1
四人 1
65@@ 1
耶路撒冷 1
22@@ 1
措 1
首映 1
角逐 1
讷@@ 1
墟 1
統一 1
er 0.012776064820407745
險 1
吞@@ 1
疆 1
真相 1
颁发 1
摩尔 1
拘捕 1
决 1
活性 1
南站 1
半部 1
挑战 1
體育館 1
鏡@@ 1
判決 1
第十一届 1
第一季 1
東亞 1
猶太人 1
贝格 1
這類 1
三種 1
同學 1
摧毀 1
接下 1
人稱 1
接下来 1
薪 1
姓名 1
殉@@ 1
思考 1
衣服 1
相近 1
鳴@@ 1
黎明 1
周刊 1
敘述 1
基本@@ 1
流通 1
屠@@ 1
扣 1
水面 1
同期 1
葛 1
走廊 1
南侧 1
吾@@ 1
生日 1
州长 1
该站 1
军衔 1
環球 1
腰 1
偽@@ 1
免疫 1
辖区 1
引進 1
沃尔@@ 1
兔 1
逸 1
障 1
交往 1
砂@@ 1
重力 1
用地 1
蒙德 1
鋪 1
圣母 1
面對 1
予@@ 1
偏 1
太平@@ 1
流亡 1
富有 1
穿著 1
試驗 1
循环 1
甚 1
等級 1
之際 1
仲 1
滋@@ 1
撞@@ 1
伐@@ 1
警員 1
审判 1
研究员 1
ü 1
潔 1
人力 1
分歧 1
超人 1
将会 1
斯大林 1
添@@ 1
不用 1
南至 1
地质 1
喇嘛 1
押@@ 1
開放@@ 1
原作 1
坚 1
爾德 1
办公厅 1
直徑 1
物體 1
盲@@ 1
SO@@ 1
自杀 1
j 0.41934341339718356
公平 1
巴克 1
鯨 1
標題 1
相连 1
視覺 1
认@@ 1
野生 1
發動機 1
鸡 1
叙@@ 1
规范 1
日益 1
骸 1
膠@@ 1
职业生涯 1
軍人 1
多斯 1
构造 1
本魚 1
職員 1
俗稱 1
鱗@@ 1
伽 1
情報 1
马拉@@ 1
帳@@ 1
碎 1
证实 1
宣称 1
監獄 1
凭借 1
执导 1
癸@@ 1
延續 1
指數 1
法律@@ 1
One 0.1395310117604086
影集 1
禾 1
猜@@ 1
真菌 1
群体 1
夫斯 1
地表 1
し 1
泉州 1
瓦拉 1
海底 1
訓@@ 1
苗 1
卡區 1
Love 0.33088843167629056
責@@ 1
塗@@ 1
鏈 1
岛上 1
青山 1
傅 1
味@@ 1
熟悉 1
那麼 1
洛阳 1
培训 1
相邻 1
讨 1
共產黨 1
o@@ 0.10319025954213197
闻@@ 1
心率 1
專用 1
财产 1
神经@@ 1
營業 1
直隶 1
必 1
火車 1
辐射 1
AT@@ 1
历史学家 1
直通 1
延安 1
星期六 1
第二天 1
盗@@ 1
凹@@ 1
分離 1
彻底 1
菲利普 1
天津@@ 1
雞@@ 1
主教练 1
刊物 1
寻@@ 1
慮 1
建筑师 1
納入 1
前夕 1
怀 1
欧盟 1
中午 1
流浪 1
之地 1
保育 1
分局 1
建筑@@ 1
足協 1
劇院 1
局面 1
嶼 1
所得 1
烯 1
微博 1
最具 1
侦@@ 1
曹 1
第一任 1
血管 1
高等教育 1
ス 1
各省 1
漢語 1
籍@@ 1
純 1
理器 1
缩 1
亚军 1
イ 1
岭@@ 1
山谷 1
筑 1
学位 1
设计@@ 1
联军 1
德克 1
跟随 1
姑@@ 1
轉乘 1
修正案 1
伽@@ 1
机器 1
一行 1
宗教@@ 1
恭 1
肌@@ 1
幹線 1
济南 1
同事 1
多夫 1
桶 1
重播 1
分區 1
裁定 1
山上 1
巴勒斯坦 1
倍@@ 1
硕士 1
事实上 1
繩@@ 1
貞 1
暫停 1
包围 1
肉食性 1
DC 0.5822788348617691
傳奇 1
驅 1
哈德 1
村庄 1
行列 1
邻 1
蒙特@@ 1
ā 1
入圍 1
恐怖@@ 1
墩 1
3.5 1
忍@@ 1
航線 1
革 1
鴨 1
箭@@ 1
主動 1
習慣 1
4000 1
本劇 1
騎兵 1
更大 1
战胜 1
涉 1
不及 1
乔 1
拋@@ 1
官兵 1
诺夫 1
日出 1
靠@@ 1
主人 1
抱@@ 1
诉 1
西州 1
9% 1
促 1
願意 1
彰 1
資本 1
高雄@@ 1
以东 1
圓形 1
娘@@ 1
窟 1
英超 1
友好 1
情节 1
it 0.014559074763190911
行駛 1
难以 1
校园 1
达尔 1
BBC 0.41363169823046525
呢 1
库尔 1
貪@@ 1
中国人民@@ 1
戰鬥@@ 1
司马 1
勸 1
种族 1
青年@@ 1
北端 1
气体 1
眠 1
黎 1
十八@@ 1
綜合@@ 1
韻@@ 1
黑龙江 1
每月 1
聯絡 1
卯 1
有線 1
光明 1
彦@@ 1
開啟 1
大使馆 1
德军 1
车厢 1
正德 1
贝尔@@ 1
離子 1
冥@@ 1
体制 1
学术@@ 1
日文 1
僅次 1
優 1
旋律 1
郭 1
笑@@ 1
棕@@ 1
理性 1
龜@@ 1
传媒 1
大將 1
搭乘 1
大城市 1
耶稣 1
价@@ 1
發揮 1
轉變 1
东风 1
栖息 1
態@@ 1
肢 1
十年代 1
型號 1
延长 1
下去 1
內戰 1
召集 1
脊 1
47@@ 1
雀@@ 1
啟動 1
娥 1
秘書長 1
十六@@ 1
阿斯 1
漏 1
並止 1
詳@@ 1
挺 1
蓝 1
維奇 1
质疑 1
ん 1
真人 1
Facebook 1
苏维埃 1
針@@ 1
展覽 1
理查德 1
砂 1
服务器 1
翻新 1
吋 1
World 0.059473555389833385
多元 1
婦女 1
气象@@ 1
产物 1
螺旋 1
希臘@@ 1
辅助 1
与此同时 1
新生 1
兩側 1
尚有 1
腓特烈 1
管道 1
一事 1
公頃 1
島上 1
日晚 1
安县 1
AS@@ 0.7065795408155314
人权 1
分散 1
尹 1
徙 1
撰写 1
工會 1
攻擊@@ 1
齋 1
战士 1
财政@@ 1
法蘭@@ 1
進行@@ 1
SP@@ 0.8526836542899331
聲稱 1
刑部 1
輔助 1
见于 1
勳章 1
多少 1
巴尔@@ 1
戰艦 1
星期日 1
这时 1
自治@@ 1
е 0.04645003535327129
鯰 1
幻 1
影帶 1
奉命 1
48@@ 1
分割 1
合金 1
改成 1
18@@ 1
农业@@ 1
拉尔 1
智能 1
英格蘭@@ 1
贤@@ 1
提倡 1
六個 1
勃艮第 1
g@@ 0.09420232016236182
种类 1
市鎮 1
恆 1
会长 1
录制 1
斯蒂@@ 1
-- 1
誘@@ 1
陆 1
斯科@@ 1
档 1
特點 1
西德 1
新西兰 1
札@@ 1
重新@@ 1
體育場 1
寫作 1
建设@@ 1
偷 1
討 1
基隆 1
摘@@ 1
桐 1
这项 1
b@@ 0.11277282876191903
從事 1
染 1
沿線 1
練@@ 1
县城 1
滅絕 1
歸類 1
觀察@@ 1
淨@@ 1
现实 1
【 1
】 1
项@@ 1
粒@@ 1
闪@@ 1
幹@@ 1
開辦 1
弃 1
构 1
眾多 1
大選 1
奧爾@@ 1
赠 1
面临 1
55@@ 1
军人 1
适用 1
關於@@ 1
哈尔滨 1
布局 1
场景 1
背面 1
透明 1
圣经 1
所知 1
效應 1
潔@@ 1
菊 1
績 1
叛乱 1
氮 1
誉 1
這時 1
闻名 1
慰@@ 1
穩 1
Microsoft 0.8238139541218387
倾向 1
幾 1
掃@@ 1
ó 0.12066088861558054
公演 1
罗马帝国 1
普鲁士 1
布鲁@@ 1
北上 1
磨 1
舖 1
踏@@ 1
史料 1
秋季 1
买 1
协定 1
地带 1
纸@@ 1
撞擊 1
模拟 1
愛德華 1
戊@@ 1
集會 1
元件 1
物体 1
政变 1
特区 1
颜@@ 1
北站 1
弓 1
碰@@ 1
網上 1
遍 1
移植 1
美術 1
苗栗 1
亞科 1
背鰭 1
轉為 1
例外 1
匯 1
帅 1
一职 1
強大 1
图案 1
鳴 1
庆祝 1
利亚@@ 1
反射 1
忙 1
牵@@ 1
近似 1
制备 1
展览 1
緩@@ 1
众议院 1
卸任 1
獅 1
宗座 1
編成 1
SE@@ 0.92709201891294
en 0.0027759106130090506
襲@@ 1
进步 1
适合 1
塚 1
el 0.005218010624364608
with 0.00597242043870094
以为 1
啤酒 1
棘@@ 1
金星 1
链接 1
北伐 1
欢@@ 1
芬蘭 1
主播 1
н 0.2327264813219851
※ 1
兩條 1
颁布 1
故意 1
现为 1
遣@@ 1
公顷 1
1896 0.5156174622516122
發音 1
衍 1
證券 1
和平@@ 1
俞@@ 1
珀@@ 1
交由 1
草地 1
晨@@ 1
棄@@ 1
妙@@ 1
1890 0.4848255292674491
加利福尼亚州 1
协调 1
怀疑 1
广播电台 1
招募 1
搭@@ 1
装甲 1
具體 1
文學@@ 1
该校 1
输出 1
酒精 1
清廷 1
詔@@ 1
旅遊@@ 1
裝甲@@ 1
半年 1
理事会 1
轄區 1
布斯 1
抗战 1
贾 1
恩省 1
一方面 1
以至 1
爪 1
蝙蝠 1
新村 1
話@@ 1
乐团 1
栏 1
六世 1
喊 1
模擬 1
春季 1
踢 1
课@@ 1
械 1
維爾@@ 1
蓬 1
诏 1
46@@ 1
埃尔 1
中國共產黨 1
罕@@ 1
暴露 1
麓 1
即將 1
蛋白质 1
慕容 1
波士 1
終止 1
行使 1
頒發 1
缺陷 1
麥克 1
中華民國@@ 1
先进 1
巧 1
餅 1
挖@@ 1
氯 1
開業 1
互動 1
推進 1
情緒 1
浙@@ 1
仕 1
遊客 1
外交官 1
特尔 1
筑@@ 1
下來 1
评估 1
活跃 1
麦克@@ 1
慶祝 1
札 1
怡@@ 1
发射@@ 1
誕生 1
绕@@ 1
硕士学位 1
里奥 1
仗 1
操作系统 1
第一次世界大战 1
内地 1
特徵@@ 1
署@@ 1
工作人员 1
德利 1
淨 1
斯山 1
侵略 1
自称 1
韶@@ 1
主導 1
精英 1
龍類 1
廟@@ 1
瀑布 1
汇 1
名列 1
蒂斯 1
鳥類 1
战场 1
音樂錄 1
領隊 1
愈 1
南投 1
巴尔 1
中等 1
傾@@ 1
參與@@ 1
收回 1
深刻 1
斯科特 1
預定 1
鼻 1
section 0.22449411177710654
多家 1
位居 1
支队 1
ensis 0.4746066478015817
斬 1
伊斯兰教 1
前面 1
参考 1
斯卡 1
晴@@ 1
垃圾 1
論文 1
宪 1
督 1
北岸 1
火车 1
映@@ 1
种植 1
橡@@ 1
跑@@ 1
瀨@@ 1
擴大 1
詳細 1
路易@@ 1
主场 1
預算 1
丘陵 1
助攻 1
辯@@ 1
青海 1
寅 1
驻地 1
大堂 1
文帝 1
斜 1
有机 1
New 0.031994516272087464
h@@ 0.1047952313048595
威爾 1
故居 1
棉@@ 1
演讲 1
玩具 1
鄂 1
嚴格 1
護照 1
AR@@ 0.7436146490179344
多部 1
伊夫 1
相继 1
雙打 1
假设 1
偵@@ 1
孔子 1
德川 1
船只 1
全數 1
遊戲@@ 1
104 1
1897 0.5018189492995161
組賽 1
钦 1
吉斯 1
篮@@ 1
评 1
鴻 1
佩斯 1
杏@@ 1
歡@@ 1
東南亞 1
優秀 1
斋 1
荒 1
迈克尔 1
贏 1
中央委员会 1
化学式 1
最少 1
行者 1
m@@ 0.13302846784364297
工部 1
西岸 1
丈 1
埋 1
神经 1
进程 1
た 1
杉 1
深受 1
逝 1
維亞 1
览 1
搞 1
奇幻 1
回收 1
頭部 1
炸彈 1
連續劇 1
擔心 1
脫離 1
108 1
裁 1
飲 1
列斯 1
翰 1
莲@@ 1
宰 1
提議 1
規範 1
鼓励 1
发挥 1
克林@@ 1
塞尔维亚 1
玫瑰 1
櫃 1
辞@@ 1
橫 1
打入 1
曾祖父 1
谋 1
鱼类 1
漸漸 1
克雷@@ 1
70@@ 1
收視率 1
辦法 1
单元 1
重庆市 1
个人@@ 1
极大 1
錯@@ 1
Live 0.4436454005086886
事实 1
绍 1
诸 1
待遇 1
穀 1
墨西哥@@ 1
從此 1
位列 1
AKB48 1
幻想 1
桿 1
码头 1
蓉 1
判决 1
安德烈 1
杉@@ 1
释@@ 1
布置 1
认可 1
寡@@ 1
當作 1
葡萄 1
辦理 1
溝通 1
痛苦 1
登堡 1
饮@@ 1
削@@ 1
報紙 1
柔 1
色情 1
通勤 1
以東 1
拿破仑 1
深圳市 1
原子@@ 1
彰@@ 1
米兰 1
百科 1
斐 1
估@@ 1
呼吁 1
清末 1
纂 1
总经理 1
立场 1
週年 1
在場 1
孟加拉 1
短暂 1
那样 1
开行 1
纪念碑 1
巨星 1
总额 1
科尔 1
罗讷 1
圭@@ 1
高宗 1
暗示 1
中南部 1
地下@@ 1
驱@@ 1
ar 0.059844582913165856
植物@@ 1
源于 1
猪 1
財 1
49@@ 1
北海 1
上空 1
ル 1
之用 1
創建 1
十名 1
哈尔 1
她们 1
浪漫 1
区分 1
各界 1
為期 1
调任 1
最快 1
清华大学 1
溝 1
經常@@ 1
部下 1
障碍 1
拿到 1
方形 1
编制 1
愛荷華州 1
獅@@ 1
更換 1
设定 1
里奇 1
委員@@ 1
弗雷 1
物理学 1
賽車 1
三十年 1
協調 1
大火 1
猛 1
科斯 1
指挥官 1
最長 1
蝦 1
增設 1
掛 1
攻勢 1
累 1
遙@@ 1
串 1
消滅 1
漸@@ 1
郊@@ 1
閱讀 1
僅有 1
净@@ 1
前进 1
彭 1
辞 1
撫@@ 1
几年 1
而已 1
11.@@ 1
一個區 1
爾斯@@ 1
甲板 1
公子 1
损 1
攝影@@ 1
創下 1
墓地 1
帥 1
识 1
长春 1
炮兵 1
租借 1
紫 1
翅 1
驗@@ 1
兴趣 1
崇禎 1
迦 1
天地 1
滅@@ 1
生态 1
以後@@ 1
殖 1
高層 1
初中 1
日耳曼 1
正确 1
瘤 1
納粹 1
终 1
林斯 1
特急 1
一层 1
個案 1
被俘 1
競選 1
底部 1
う 1
抄@@ 1
診斷 1
引力 1
母艦 1
遇上 1
判定 1
泡@@ 1
短篇 1
辭職 1
錦標 1
万平方米 1
加龙省 1
炉 1
匈奴 1
萍 1
觉@@ 1
辟 1
供應 1
壩 1
行程 1
11@@ 1
匠 1
工艺 1
违反 1
102 1
儲存 1
步行 1
留学 1
首领 1
古城 1
屠殺 1
担心 1
指挥@@ 1
慢@@ 1
庞@@ 1
竟 1
帮 1
庶@@ 1
贈@@ 1
宗室 1
專案 1
弘治 1
擅長 1
全民 1
抑@@ 1
睡 1
葵 1
蜀@@ 1
直升 1
中立 1
总裁 1
球員@@ 1
轟炸機 1
指数 1
縮寫 1
黎巴嫩 1
三种 1
队@@ 1
魚科 1
l@@ 0.09539222949732118
不論 1
剩 1
客戶 1
灣的 1
猴 1
軟 1
場景 1
繳@@ 1
可靠 1
棠 1
险@@ 1
绝 1
中場 1
家乡 1
巴特 1
扁 1
蕾@@ 1
身為 1
拉夫 1
激素 1
經費 1
句@@ 1
數目 1
胡同 1
蒋介石 1
他于 1
查理@@ 1
特朗普 1
转换 1
括 1
比利牛斯 1
鎖 1
推廣 1
澄@@ 1
悟 1
中途 1
俱@@ 1
大名 1
活動@@ 1
乃至 1
蜥 1
通讯 1
MO@@ 1
參賽者 1
委托 1
宋代 1
比亞@@ 1
费用 1
党委书记 1
弗里@@ 1
季後賽 1
习 1
伊尔 1
卫队 1
輻射 1
长安 1
翡翠台 1
比亚 1
AM@@ 0.940685035502187
想到 1
欽 1
矢@@ 1
行省 1
意志 1
姿@@ 1
当代 1
樂壇 1
省道 1
子彈 1
上訴 1
俄罗斯联邦 1
北大 1
牙齒 1
尔顿 1
民兵 1
南京@@ 1
党组 1
纳德 1
綁 1
You 0.23232741059431813
1200 1
对阵 1
扰 1
煌 1
103 1
研究@@ 1
一開始 1
塔尼 1
小巴 1
犹@@ 1
紋@@ 1
東側 1
融入 1
錄音 1
中央政府 1
三天 1
同位素 1
普拉 1
瓶@@ 1
峻 1
悉尼 1
親王 1
顯著 1
布莱@@ 1
棒@@ 1
喝@@ 1
铺@@ 1
且@@ 1
兰州 1
穿过 1
编组 1
搖滾 1
部件 1
k@@ 0.10231537356593731
港澳 1
荡 1
瓦爾@@ 1
碎@@ 1
诗歌 1
玻@@ 1
44@@ 1
空軍@@ 1
不良 1
湯 1
第二名 1
170 1
歷任 1
有趣 1
害怕 1
滑冰 1
拓跋 1
码@@ 1
蘿@@ 1
實體 1
木材 1
代號 1
司机 1
鮮 1
夫妇 1
閱 1
1899 0.4659640451343686
内蒙古自治区 1
湘 1
顾 1
嵌 1
帕拉 1
攻陷 1
深夜 1
萬張 1
人大常委会 1
流程 1
LO@@ 1
凉@@ 1
崛起 1
東南@@ 1
争 1
展現 1
谭@@ 1
19.@@ 1
該區 1
夹@@ 1
日本政府 1
武昌 1
三星 1
淮 1
余人 1
就读于 1
磷@@ 1
赴@@ 1
途径 1
面上 1
窗口 1
指责 1
論壇 1
研究者 1
AC 0.5381246393908286
维也纳 1
郁@@ 1
意為 1
办公 1
菲尔德 1
精靈 1
顺时针 1
西面 1
化工 1
繪畫 1
脱离 1
葡@@ 1
歇@@ 1
溪流 1
鉴 1
大陸@@ 1
撤回 1
耿@@ 1
茎 1
這座 1
驱动 1
夫妻 1
有力 1
第二个 1
讀者 1
一邊 1
俯@@ 1
莲 1
上演 1
哺乳 1
尼夫 1
財政 1
辱 1
鸟@@ 1
大地 1
所用 1
恰 1
打敗 1
找@@ 1
受欢迎 1
流放 1
般的 1
乞@@ 1
加密 1
旭@@ 1
蒸汽 1
一號 1
喜剧 1
盈@@ 1
侍 1
擴@@ 1
鏡頭 1
前作 1
磁 1
0.5 1
Android 1
亂@@ 1
哈特 1
爵位 1
履@@ 1
Ch@@ 0.1065202859598452
参 1
飲食 1
50% 1
共用 1
查尔斯 1
砖@@ 1
国道 1
惜 1
巡演 1
活躍 1
西北@@ 1
戰國 1
混淆 1
社團 1
资助 1
水系 1
昔日 1
孕 1
稱號 1
识别 1
UA 1
轉向 1
2.0 1
公所 1
林肯 1
矮 1
其次 1
速率 1
陪@@ 1
募@@ 1
取名 1
酬 1
信長 1
转变 1
一個@@ 1
椅 1
误 1
處長 1
运作 1
擋 1
民政 1
集体 1
柴油 1
温带 1
黃色 1
攻下 1
辉@@ 1
夺@@ 1
司令员 1
股權 1
韻 1
虞@@ 1
奠定 1
羽球 1
區間 1
新任 1
自行车 1
Music 0.15712400144244124
两者 1
交給 1
一等 1
各項 1
明尼@@ 1
125 0.9709600314848132
穩@@ 1
大师 1
珊瑚 1
f@@ 0.08999584842557738
童年 1
西側 1
軍事@@ 1
妇@@ 1
挂 1
水道 1
危害 1
混亂 1
AL@@ 0.8657624054180139
候選人 1
元帅 1
办法 1
攻克 1
碰撞 1
紐西蘭 1
狹@@ 1
一集 1
塞纳 1
倪@@ 1
RO@@ 1
NHK 1
泳 1
仇@@ 1
政府@@ 1
簡 1
經理 1
消耗 1
术语 1
積分 1
筋 1
政治委员 1
四周 1
汕@@ 1
主编 1
摩斯 1
吉隆坡 1
對此 1
平坦 1
日以 1
虛構 1
崩 1
应当 1
疫 1
二层 1
国旗 1
鬚 1
喇@@ 1
细 1
1.2 1
一张 1
發電廠 1
称之为 1
女士 1
波蘭@@ 1
烟 1
重型 1
106 1
原為 1
起兵 1
開通 1
交给 1
培養 1
額@@ 1
12.@@ 1
禅@@ 1
頭銜 1
鱷 1
裝飾 1
识字率 1
躍@@ 1
放映 1
荆@@ 1
不想 1
三国 1
尼亚@@ 1
协 1
銅 1
夺取 1
生理 1
显 1
媒@@ 1
芽 1
р 0.24756361938672578
析 1
证券 1
指揮官 1
讨@@ 1
迁至 1
隋朝 1
推測 1
天后 1
眉 1
猶太@@ 1
毗邻 1
酒吧 1
end 0.06306598571825757
前去 1
承諾 1
AC@@ 0.8957900206057658
永遠 1
烯@@ 1
训@@ 1
密集 1
考量 1
全壘 1
工委 1
热带风暴 1
獵 1
裡面 1
德州 1
逼@@ 1
on@@ 0.09542710709035726
20.@@ 1
戚 1
排序 1
109 1
安打 1
致使 1
と 1
执政 1
界面 1
诞生 1
雕刻 1
靈魂 1
占地 1
捐款 1
毒性 1
牛津 1
制服 1
被选为 1
10% 1
队员 1
冒 1
希尔 1
目的地 1
鹏 1
则@@ 1
嘉義@@ 1
年份 1
怪物 1
招 1
築@@ 1
詢@@ 1
婉@@ 1
1889 0.5050483861330375
后续 1
央@@ 1
外交@@ 1
廣東省 1
末端 1
泳@@ 1
阜@@ 1
烹@@ 1
哥倫比亞 1
暖@@ 1
进球 1
可追溯 1
宴@@ 1
準決賽 1
敏感 1
绘画 1
巢@@ 1
直属 1
TE@@ 1
am 0.023417812174975655
過度 1
叛亂 1
醉 1
電池 1
线性 1
金斯 1
些@@ 1
撤出 1
接手 1
乒乓球 1
掃 1
榆@@ 1
物资 1
Al@@ 0.10045778482079983
出去 1
暴雨 1
第十一 1
菲律 1
学士 1
补充 1
具備 1
电影节 1
聞@@ 1
制裁 1
怎@@ 1
本书 1
政部 1
文斯 1
该片 1
趣 1
既有 1
江市 1
爾州 1
现代@@ 1
阿塞拜疆 1
則為 1
化物 1
县级 1
科研 1
華語 1
或稱 1
盛行 1
中將 1
僱@@ 1
在线 1
氫 1
鹤@@ 1
就此 1
公安@@ 1
衍@@ 1
合共 1
驚 1
马里 1
silver 0.5284265137048036
培訓 1
地產 1
元首 1
勞動 1
映射 1
枢@@ 1
喉@@ 1
字符 1
次數 1
酷@@ 1
man 0.045843404570338614
处长 1
浓@@ 1
IC@@ 0.8757713084289458
School 0.06421401234843983
主权 1
挽@@ 1
曝光 1
FC 0.16104609219918153
行車 1
ラ 1
客串 1
崩@@ 1
获取 1
不受 1
葡萄酒 1
一周 1
错@@ 1
ö 1
伟大 1
伍德 1
瑪麗 1
葵@@ 1
怒@@ 1
規格 1
公益 1
疊@@ 1
判斷 1
清晨 1
壬@@ 1
法語 1
贏@@ 1
父子 1
碎片 1
閩@@ 1
顛@@ 1
騙 1
奧斯@@ 1
拟 1
高清 1
感觉 1
擲 1
普里 1
一千@@ 1
物業 1
从未 1
重视 1
耗 1
響@@ 1
驱逐 1
• 0.6624747106990891
参议员 1
省会 1
阿尔卑斯 1
党人 1
推理 1
否定 1
销量 1
南岸 1
房间 1
驾驶 1
中国人民解放军@@ 1
順序 1
v@@ 0.11269252191103005
盟友 1
贵州省 1
韓 1
促成 1
循環 1
除非 1
倡@@ 1
投入使用 1
四位 1
區負 1
銘@@ 1
主體 1
返 1
增至 1
一块 1
舟@@ 1
猶@@ 1
始于 1
患有 1
旺角 1
锁 1
蘇丹 1
在外 1
司職 1
松山 1
即将 1
杖 1
铁道 1
武士 1
涌@@ 1
预测 1
南京市 1
寻求 1
比尔 1
全境 1
大獎賽 1
預期 1
比起 1
出入 1
情报 1
严 1
向前 1
洋基 1
行業 1
妇 1
用品 1
搶@@ 1
眉@@ 1
夸@@ 1
奔 1
熙@@ 1
腹部 1
塑@@ 1
起訴 1
膠 1
挖掘 1
迎接 1
鸟类 1
安定 1
海洋@@ 1
骨骼 1
115 1
中日 1
电路 1
禪@@ 1
服裝 1
告示牌 1
尔曼 1
当前 1
产量 1
最受 1
一只 1
單打 1
和解 1
回归 1
少数民族 1
庇@@ 1
描@@ 1
格雷@@ 1
屍體 1
日後@@ 1
腰@@ 1
其頓 1
國防 1
CA@@ 0.670152329613745
囊@@ 1
大大 1
愿意 1
狗@@ 1
か 1
繩 1
综合@@ 1
覺得 1
w 0.27255915453975754
琳娜 1
木星 1
移除 1
擺@@ 1
起點 1
顆@@ 1
奮@@ 1
陷@@ 1
团结 1
桑那州 1
劇團 1
第三代 1
轰炸 1
購入 1
暂时 1
並於@@ 1
頸 1
假日 1
适应 1
全省 1
描寫 1
騰 1
引进 1
標示 1
馮 1
斯洛伐克 1
标本 1
維修 1
總經理 1
南北朝 1
編碼 1
頒@@ 1
停車場 1
淳 1
碗 1
尸体 1
浴@@ 1
恋@@ 1
而來 1
可汗 1
描 1
波士顿 1
藉此 1
争取 1
氟@@ 1
64@@ 1
並被 1
教学@@ 1
在家 1
俄國 1
配备 1
雄性 1
开发@@ 1
笛 1
所有人 1
天橋 1
拼音 1
21.@@ 1
女友 1
娜@@ 1
希伯@@ 1
粮@@ 1
斯托@@ 1
航线 1
中文@@ 1
可惜 1
領導@@ 1
孚 1
金剛 1
離婚 1
MS 0.7817119503240826
平日 1
镜@@ 1
型号 1
廚@@ 1
會將 1
穎 1
一點 1
前鋒 1
原創 1
損@@ 1
NE@@ 1
題材 1
勞工 1
塞爾@@ 1
爛 1
亞的 1
其实 1
外观 1
107 1
型態 1
赤道 1
支出 1
翻唱 1
航天 1
訓練@@ 1
事变 1
值得 1
加勒比海 1
戎 1
节点 1
升降 1
弧@@ 1
数据库 1
下載 1
制成 1
助手 1
影視 1
氨酸 1
BO@@ 1
出于 1
猴@@ 1
111 1
三國 1
漆 1
艺人 1
莖 1
存储 1
鎖@@ 1
彦 1
購物 1
赛会 1
客運 1
帆船 1
攜帶 1
人體 1
參演 1
脱 1
al@@ 0.07064582233002317
纹@@ 1
克西 1
称呼 1
竞@@ 1
天主@@ 1
有用 1
璋 1
痕 1
砖 1
老师 1
两座 1
南朝 1
天气 1
帝國@@ 1
生物学 1
硫 1
究 1
箱@@ 1
一班 1
卧@@ 1
总书记 1
全线 1
哈里 1
嗎 1
塞爾維亞 1
崗@@ 1
90@@ 1
零售 1
貢 1
入選 1
慢慢 1
老虎 1
抵制 1
獲勝 1
克利 1
发音 1
數碼 1
軟條 1
主事 1
标记 1
大众 1
派系 1
IC 0.905122787918809
投資@@ 1
教友 1
东站 1
品种 1
絕對 1
钻@@ 1
假期 1
出境 1
面臨 1
驱逐舰 1
奧斯卡 1
足球@@ 1
塔克 1
説 1
哭 1
借用 1
粵@@ 1
否則 1
比分 1
管轄 1
es 0.010839008396685123
公正 1
灾@@ 1
遵循 1
卡尔@@ 1
流入 1
哥伦比亚 1
人民共和国 1
简 1
大正 1
中止 1
教室 1
郝@@ 1
高等法院 1
遞@@ 1
占地面积 1
灭绝 1
英军 1
跌@@ 1
房間 1
奶 1
搭載 1
烧 1
光年 1
大法官 1
姑 1
賭@@ 1
之所以 1
議長 1
其餘@@ 1
轻 1
並無@@ 1
67@@ 1
上将 1
污 1
流傳 1
狐@@ 1
编写 1
43@@ 1
丛@@ 1
共和党 1
卢瓦尔河 1
設計師 1
险 1
庙@@ 1
史蒂芬 1
屋苑 1
墜@@ 1
中华人民共和国@@ 1
咸 1
德語 1
近期 1
ID 1
巴登 1
伙 1
塔尔 1
財產 1
金額 1
针 1
中方 1
據點 1
昆蟲 1
吉尔@@ 1
支線 1
伟@@ 1
宗旨 1
彩虹 1
椎@@ 1
毅@@ 1
氟 1
EP 0.3879932391467344
大概 1
檢 1
诱@@ 1
這張 1
仓@@ 1
出場 1
丞相 1
省人民政府 1
称赞 1
淋@@ 1
射手 1
業務@@ 1
ch@@ 0.06591876986825282
奴隶 1
指揮@@ 1
接着 1
炭 1
烈士 1
楠 1
有利 1
铁道部 1
權益 1
吏 1
疲@@ 1
长轴 1
GB 1
全線 1
慕 1
相机 1
額外 1
分部 1
千人 1
颗 1
共識 1
高达 1
携带 1
设计师 1
輯@@ 1
一类 1
田径 1
藤原 1
強制 1
抓 1
禍 1
途經 1
邊緣 1
籌備 1
分店 1
向东 1
99@@ 1
表演@@ 1
夏朗德 1
直隸 1
棲@@ 1
220 1
腐 1
生育 1
千瓦 1
強化 1
瓦斯 1
領先 1
华北 1
巴德 1
粮食 1
賈 1
喙 1
に 1
坂 1
自動@@ 1
18.@@ 1
1860 0.4988040659205458
支线 1
以致 1
有期徒刑 1
相互作用 1
骑士 1
之時 1
认证 1
世宗 1
敢 1
地质@@ 1
弗里 1
硝@@ 1
环境@@ 1
监察 1
紛紛 1
流传 1
知名度 1
结论 1
空降 1
福克 1
称作 1
cm 0.250002167376039
夫婦 1
聯會 1
中北部 1
招生 1
雷達 1
旅游@@ 1
22.@@ 1
关键 1
點為 1
赣@@ 1
個體 1
敘@@ 1
群眾 1
南美 1
叠 1
麦克 1
中子 1
承诺 1
理工 1
滾@@ 1
硬件 1
1880 0.4499240256621125
五大 1
圖案 1
恋 1
长官 1
妖@@ 1
摩洛哥 1
谁 1
中路 1
桂林 1
阵@@ 1
零件 1
格里@@ 1
涼@@ 1
鵬 1
轉型 1
关联 1
潛 1
現有 1
阶@@ 1
亞利 1
加词 1
沪@@ 1
资本 1
歧义 1
妾 1
政局 1
徹底 1
三日 1
力學 1
容器 1
布拉格 1
长江@@ 1
死后 1
皮膚 1
開播 1
乳 1
平均@@ 1
里程 1
釋放 1
陇@@ 1
东路 1
交叉 1
匣 1
米勒 1
.@@ 0.12999973135963833
AN 1
祁@@ 1
an@@ 0.0575175738754229
​ 1
全體 1
平方英里 1
題@@ 1
睡@@ 1
辦事處 1
伊丽莎白 1
毒品 1
屏幕 1
摩根 1
步枪 1
每小時 1
额外 1
鰭@@ 1
出品 1
削弱 1
溫泉 1
暂停 1
最先 1
汤 1
反对派 1
注重 1
生母 1
1600 1
飞行员 1
450 1
國籍 1
集體 1
20% 1
距@@ 1
巴伐利 1
接待 1
纳入 1
虹 1
应对 1
托勒密 1
曾多次 1
国共 1
國旗 1
路德 1
一句 1
一百 1
廣東@@ 1
接口 1
职责 1
DS 1
影院 1
當初 1
职工 1
謙 1
凶@@ 1
學科 1
清晰 1
泰山 1
致命 1
第三名 1
组成部分 1
AV 1
le 0.0044097747512548665
な 1
邢@@ 1
凤 1
陰 1
誓@@ 1
翅@@ 1
两条 1
清理 1
世纪末 1
歌词 1
翻 1
前提 1
廣島 1
潮州 1
凌 1
传教士 1
本属 1
68@@ 1
登進士 1
青海省 1
鱂 1
星球 1
看見 1
西洋 1
道具 1
网球 1
代表@@ 1
公墓 1
雌性 1
潛艇 1
言论 1
誕@@ 1
旋转 1
縣長 1
美術館 1
預備 1
AN@@ 0.9198735605656647
社長 1
樊@@ 1
趾 1
圣殿 1
检察@@ 1
民生 1
致力于 1
詩人 1
繪入 1
240 1
其為 1
大力 1
役@@ 1
肥 1
RE@@ 0.9876260001995579
CR@@ 1
打出 1
地主 1
興建@@ 1
航天@@ 1
銷@@ 1
公安 1
水果 1
閉 1
1800 0.7100080220637189
国防 1
軟件 1
主办 1
代数 1
司法@@ 1
書記 1
水泥 1
織@@ 1
並成 1
乡村 1
受损 1
咖啡@@ 1
彼得@@ 1
雁@@ 1
福斯 1
嫡@@ 1
La 0.012796662557623458
公约 1
1894 0.4685224896984032
秘書 1
14.@@ 1
头衔 1
繞@@ 1
追溯到 1
情節 1
伤亡 1
聊@@ 1
逃往 1
馬來 1
112 1
診@@ 1
Ar@@ 0.09229900495420237
巴爾@@ 1
胃@@ 1
作客 1
外形 1
奋@@ 1
奥斯@@ 1
详细 1
亚热带 1
口罩 1
當時@@ 1
高级@@ 1
in@@ 0.045161130756157006
任務@@ 1
法兰西 1
画面 1
萨尔@@ 1
Me 0.32046853014540955
十九年 1
極為 1
′ 1
人氣 1
左派 1
嘉賓 1
煽@@ 1
球衣 1
读者 1
不詳 1
年區 1
ト 1
理查 1
要素 1
參見 1
探險隊 1
顺序 1
一時 1
万吨 1
建国 1
谱@@ 1
针@@ 1
变换 1
1871 0.50018064940943
混乱 1
58@@ 1
脊@@ 1
る 1
美食 1
司徒 1
八路军 1
指挥部 1
蟻 1
TVB 1
不變 1
孙中山 1
布列塔尼 1
希腊@@ 1
德堡 1
描绘 1
时速 1
生态@@ 1
赠@@ 1
工会 1
老挝 1
英文名 1
1870 0.4194799361651179
逐 1
醛 1
发生@@ 1
撤銷 1
信心 1
咒 1
缀 1
西邊 1
監察 1
週刊 1
物理学家 1
兰德 1
症状 1
高铁 1
並為 1
失望 1
比特 1
定为 1
实践 1
脈@@ 1
各方 1
紧急 1
造船 1
别名 1
佔@@ 1
可分 1
所有@@ 1
里尼 1
4.5 1
保加利亚 1
献 1
铭 1
南邊 1
党校 1
辽 1
图尔 1
宣傳@@ 1
唇@@ 1
埋@@ 1
弼 1
盟军 1
三重 1
傑克 1
餐厅 1
高于 1
叢@@ 1
B型 1
第一期 1
文中 1
台湾@@ 1
现代化 1
維亞@@ 1
之路 1
回憶 1
微软 1
悅 1
渭@@ 1
绿 1
int 1
处理器 1
甄@@ 1
56@@ 1
哩 1
夕 1
莱斯 1
輩 1
Xbox 1
屍@@ 1
撫 1
更换 1
郊区 1
仆@@ 1
廢止 1
數值 1
牧師 1
0.0@@ 1
出家 1
樟@@ 1
欠@@ 1
哥伦比亚@@ 1
荃灣 1
染色 1
战区 1
拱 1
罵 1
缺少 1
船舶 1
对称 1
新疆维吾尔自治区 1
23.@@ 1
瑟夫 1
传输 1
谴责 1
克尔 1
政變 1
栗@@ 1
機動 1
阶级 1
向北 1
平县 1
二百@@ 1
校方 1
David 0.10884350997531882
意味著 1
q 0.4090981250146275
供应 1
新疆@@ 1
24.@@ 1
消費者 1
轟炸 1
反派 1
涵蓋 1
碱@@ 1
衙@@ 1
西西里 1
明清 1
贊 1
文藝 1
有所不同 1
大将军 1
开办 1
鎮壓 1
手术 1
流經 1
建築師 1
签约 1
峙 1
斯汀 1
杯@@ 1
欢迎 1
13.@@ 1
丛 1
安市 1
作詞 1
赏@@ 1
巡撫 1
漿 1
莱昂 1
后裔 1
纪录片 1
签 1
達爾@@ 1
丟@@ 1
纳粹 1
賞@@ 1
這兩個 1
验@@ 1
当日 1
體制 1
利夫 1
數的 1
论坛 1
照顧 1
彈藥 1
抽 1
57@@ 1
预算 1
依次 1
政事 1
炮台 1
古典@@ 1
克勒 1
向南 1
紮 1
陣容 1
俗称 1
初次 1
吐蕃 1
练 1
克鲁@@ 1
春天 1
虽 1
審判 1
假名 1
下半@@ 1
外籍 1
一个@@ 1
发掘 1
條款 1
贞 1
鋼琴 1
土地@@ 1
吉士 1
幾年 1
销@@ 1
南洋 1
特斯 1
维修 1
料理 1
音室 1
物件 1
生活@@ 1
A型 1
卡洛斯 1
立面 1
集結 1
心中 1
資訊@@ 1
夜間 1
現存 1
统治者 1
三分之一 1
曲线 1
北側 1
晋级 1
體型 1
削 1
卡斯蒂利亚 1
觀音 1
天堂 1
憂@@ 1
西南@@ 1
五百 1
屬下 1
最长 1
特拉@@ 1
安葬 1
满洲 1
科隆 1
舰只 1
定名 1
诏@@ 1
一组 1
勢@@ 1
塞尔@@ 1
婦@@ 1
米爾@@ 1
流動 1
委书记 1
駕@@ 1
西藏自治区 1
领导@@ 1
不願 1
其为 1
衝擊 1
战列舰 1
处决 1
美术@@ 1
朝日 1
芭@@ 1
举人 1
宣誓 1
晋升 1
贪@@ 1
阿基坦 1
one 0.016800407234376712
區別 1
拘留 1
胸 1
失利 1
IS@@ 0.7387306510655212
贸易@@ 1
观看 1
客量 1
障@@ 1
二甲 1
发展@@ 1
海关 1
站位 1
嘉慶 1
打擊率 1
萌@@ 1
蔬菜 1
SH@@ 1
回忆 1
拓展 1
活佛 1
兔@@ 1
实体 1
寓@@ 1
龐大 1
è 1
人事 1
毁@@ 1
颇@@ 1
名录 1
德罗 1
畏 1
執政 1
婷 1
宦官 1
中層 1
剿 1
挺@@ 1
脑 1
起草 1
星期@@ 1
隔年 1
售出 1
International 0.08332016438999686
都御史 1
University 0.036655841575897734
多瓦 1
阅读 1
工商 1
斯州 1
词汇 1
学系 1
颇 1
漳@@ 1
里面 1
In 0.006713670174698901
袍 1
觀念 1
金像 1
敘利亞 1
蘆@@ 1
漫畫家 1
阅 1
拘@@ 1
依法 1
图书 1
深水 1
贞@@ 1
大氣 1
扬州 1
還在 1
配套 1
循 1
瓣 1
還要 1
98@@ 1
RNA 1
法国@@ 1
傷亡 1
場比賽 1
中国政府 1
共同@@ 1
衷 1
一中 1
中西部 1
口號 1
径@@ 1
倫敦@@ 1
饶@@ 1
露出 1
該庄 1
黨員 1
稳@@ 1
天水 1
殊@@ 1
闆 1
發生@@ 1
野战军 1
充满 1
摄影 1
敲@@ 1
通报 1
全球@@ 1
幾何 1
及後@@ 1
壯 1
庄村 1
抛@@ 1
旋轉 1
扳@@ 1
起到 1
注射 1
您 1
第二位 1
薯 1
豫 1
劇中 1
卡拉@@ 1
干线 1
忽略 1
日食 1
連同 1
碱 1
具备 1
捷運 1
公安局 1
遂@@ 1
容纳 1
寇@@ 1
編入 1
卡羅@@ 1
藝名 1
尋 1
船上 1
频@@ 1
年春 1
熱門 1
赐@@ 1
鱼雷 1
亚美尼亚 1
哈佛 1
国外 1
戰敗 1
游行 1
遥@@ 1
厅长 1
所作 1
指南 1
掌管 1
周末 1
承受 1
外科 1
書店 1
拉丁文 1
朔@@ 1
每秒 1
屍 1
径 1
15.@@ 1
几何 1
可见 1
里尔 1
第十二届 1
一員 1
拉萨 1
獲獎 1
藻@@ 1
不详 1
改進 1
虜 1
剝@@ 1
名舉 1
学员 1
琦 1
留守 1
态@@ 1
检 1
此处 1
年均 1
支配 1
清政府 1
车体 1
性别 1
担当 1
水利@@ 1
細節 1
被称作 1
車型 1
琳@@ 1
大人 1
润@@ 1
簽下 1
簽證 1
虐待 1
巴里 1
粮 1
插入 1
步槍 1
轉會 1
中断 1
喬治亞州 1
一对 1
埃爾 1
衰落 1
三十四年 1
情报@@ 1
群體 1
30% 1
曼谷 1
缅@@ 1
保护@@ 1
則在 1
太宗 1
希特 1
登记 1
先行 1
阿布@@ 1
保险 1
朋@@ 1
經由 1
蒙古@@ 1
贝克 1
с 0.012123093052498151
包裹 1
表彰 1
异常 1
戰機 1
每周 1
向西 1
多倫多 1
军长 1
天王 1
駿 1
台上 1
el@@ 0.06569009254581734
响应 1
狐 1
该剧 1
網頁 1
軍方 1
6000 1
实力 1
年亞洲 1
总司令 1
懂 1
臀鰭 1
中學@@ 1
企图 1
創始 1
第一座 1
哈爾 1
往來 1
微軟 1
细节 1
经理 1
普斯 1
中型 1
有助 1
水利 1
胤 1
進口 1
人口@@ 1
催化 1
比斯 1
水手 1
財政@@ 1
转会 1
認知 1
元帥 1
大王 1
情人 1
1885 0.43329745414223575
一段时间 1
拾 1
市委书记 1
进口 1
南側 1
彩色 1
忍者 1
毀@@ 1
訴訟 1
重复 1
同知 1
哥本哈根 1
工黨 1
騰@@ 1
交汇 1
出名 1
殖@@ 1
闖@@ 1
衞 1
读书 1
17.@@ 1
户部 1
矣 1
磡 1
UN@@ 0.6777521981427935
先發 1
同行 1
幣@@ 1
銳 1
势@@ 1
酉 1
摩泽尔 1
相等 1
制品 1
笠 1
第四次 1
行李 1
適當 1
有著 1
约翰逊 1
放射性 1
斥@@ 1
訊@@ 1
聯合會 1
估 1
捐 1
湾@@ 1
广西壮族自治区 1
鮋 1
上行 1
遗迹 1
校區 1
沿途 1
狂 1
山东@@ 1
控制器 1
編寫 1
88@@ 1
一女 1
厦门 1
清除 1
駁 1
东南亚 1
六个 1
其种 1
演藝 1
交戰 1
劝@@ 1
巴布 1
廓 1
成名 1
渤海 1
统计@@ 1
东汉 1
外表 1
繼位 1
肖 1
卑 1
滅亡 1
甲级联赛 1
运输@@ 1
市内 1
消歧義 1
閱@@ 1
科目 1
重组 1
变为 1
所长 1
民意 1
簿 1
纷纷 1
获胜 1
林中 1
中毒 1
人知 1
基本法 1
撤 1
201 1
份子 1
存放 1
延期 1
負面 1
前线 1
分行 1
续 1
肌 1
背部 1
陆地 1
雇@@ 1
非裔 1
唱歌 1
數為 1
東海 1
結局 1
迪克 1
當晚 1
單獨 1
獅子 1
卓越 1
岛式 1
轟 1
分子@@ 1
改裝 1
英軍@@ 1
嘉義縣 1
时段 1
廣西 1
慰 1
辖@@ 1
乱@@ 1
年成 1
田徑 1
雲南 1
隱 1
在校 1
潤@@ 1
组长 1
85@@ 1
三级 1
創意 1
埼 1
奥古@@ 1
畿 1
ER 1
便利 1
昏@@ 1
體驗 1
撲 1
波尔@@ 1
爬@@ 1
粟@@ 1
自治市 1
補充 1
芦@@ 1
斯克@@ 1
杰克逊 1
甲組 1
传递 1
珠海 1
確實 1
坐在 1
应用程序 1
投资@@ 1
矮@@ 1
適應 1
逃走 1
聂@@ 1
谓 1
25.@@ 1
公約 1
主动 1
兄長 1
卡通 1
转向架 1
宛@@ 1
流派 1
记忆 1
仅次于 1
蝴蝶 1
期待 1
阿尔 1
罷@@ 1
公国 1
白金 1
真理 1
警察局 1
隊員 1
缘@@ 1
選票 1
喀 1
增援 1
這兩@@ 1
禄@@ 1
参见 1
反攻 1
尼泊尔 1
車廂 1
山镇 1
抄 1
钢琴 1
旱@@ 1
保證 1
演技 1
上車 1
挖 1
电池 1
延续 1
法军 1
本季 1
翠 1
車身 1
鈴@@ 1
海面 1
孟 1
扁@@ 1
诉讼 1
名词 1
坪@@ 1
账@@ 1
星光 1
河川 1
落敗 1
兩人@@ 1
參議院 1
发达 1
天正 1
拒@@ 1
時刻 1
棕色 1
迪斯 1
家协会 1
除外 1
培育 1
塔拉 1
科尔@@ 1
腸 1
發電 1
祖母 1
類別 1
地鐵@@ 1
横 1
研究室 1
謠 1
金門 1
夺 1
照明 1
各式 1
中山@@ 1
回來 1
水晶 1
法学院 1
张家@@ 1
炸弹 1
財務 1
大战 1
招收 1
奉天 1
神像 1
阎@@ 1
堵 1
见到 1
某个 1
武汉市 1
西山 1
佩尔 1
兰人 1
個國家 1
臭@@ 1
選中 1
灘 1
电动机 1
碧 1
編曲 1
IP 0.9045049179055202
字体 1
坏 1
發行@@ 1
侠 1
兵器 1
判处 1
墓葬 1
塞爾 1
臉@@ 1
氫@@ 1
澳门 1
鯛 1
全港 1
打开 1
数百@@ 1
汶 1
聖母 1
认 1
鞭@@ 1
揭露 1
暹@@ 1
澄 1
韵@@ 1
Team 0.17377774536132615
已于 1
推廣@@ 1
消灭 1
阴 1
制动 1
后代 1
成长 1
z@@ 0.06849060297426884
交響 1
135 1
280 1
佛罗里达州 1
地方@@ 1
德国@@ 1
溝@@ 1
今年 1
罢@@ 1
上诉 1
已成 1
組織@@ 1
邓小平 1
条例 1
网友 1
阿列 1
台中市 1
契丹 1
指向 1
斯特拉 1
美术 1
搖@@ 1
灭亡 1
爱情 1
土著 1
膽 1
德里@@ 1
蛤@@ 1
AT 0.8213148212615322
芙 1
郁 1
饼 1
幼年 1
接力 1
际 1
垂 1
总体 1
柴 1
标准@@ 1
漏@@ 1
降格 1
230 1
薇@@ 1
冲击 1
斯卡@@ 1
日公 1
爽 1
高丽 1
Re@@ 0.1132703174941502
立方米 1
冬天 1
始终 1
总是 1
羽毛 1
洞穴 1
陪同 1
湛@@ 1
制造@@ 1
好评 1
家臣 1
結論 1
罕見 1
守備 1
拓 1
歧視 1
籌 1
配角 1
In@@ 0.10572864870841993
選拔 1
嬰兒 1
封锁 1
尾巴 1
蛋@@ 1
囚犯 1
教派 1
迄今 1
東縣 1
嫌@@ 1
中西 1
統治者 1
爆炸@@ 1
勸@@ 1
蘭教 1
113 1
抬@@ 1
焦 1
立方 1
虛擬 1
牆@@ 1
情绪 1
城内 1
四十 1
文集 1
阿肯色州 1
联络 1
蛾 1
ME@@ 0.8288823817087906
等于 1
66@@ 1
多爾@@ 1
隔離 1
新宿 1
1.6 1
明白 1
簧 1
食性 1
加大 1
過世 1
詠 1
加里 1
醉@@ 1
LE@@ 0.996634355050545
ク 1
给@@ 1
ref 0.5218033951702259
景点 1
磷酸 1
删除 1
宫殿 1
屈 1
ア 1
五名 1
那个 1
人格 1
东亚 1
成年人 1
收益 1
本科@@ 1
練習 1
Saint 0.05440717495868046
慾 1
提醒 1
本書 1
氏族 1
氣象局 1
流经 1
只得 1
新秀 1
深海 1
细菌 1
選秀 1
频 1
路徑 1
三部曲 1
俘虏 1
物理@@ 1
魁@@ 1
創新 1
罚@@ 1
语法 1
辑 1
59@@ 1
国防部 1
海灣 1
16.@@ 1
番茄 1
超市 1
隨著@@ 1
鸣 1
概率 1
衔 1
驾@@ 1
一线 1
化成 1
验 1
排放 1
濤 1
加快 1
淵 1
特勒 1
系统@@ 1
组织部 1
自立 1
十一@@ 1
桿@@ 1
倒塌 1
參觀 1
啊 1
有效@@ 1
聞名 1
90% 1
〜 1
梓@@ 1
際@@ 1
190 1
二十三年 1
緯 1
大厅 1
影業 1
文化遗产 1
維基 1
諾夫 1
輻鰭魚 1
合肥 1
复兴 1
心臟 1
铸币 1
塾 1
捷克斯洛伐克 1
減弱 1
缓 1
两国 1
俄亥俄州 1
君士坦丁堡 1
宣传部 1
战斗机 1
發射@@ 1
病疫情 1
贺 1
保健 1
看作 1
迁移 1
分公司 1
分出 1
橘@@ 1
田中 1
初始 1
描繪 1
车手 1
各州 1
爬 1
现今 1
般@@ 1
80% 1
隊友 1
ä 1
修订 1
回族 1
富豪 1
航站楼 1
電流 1
大赛 1
披露 1
海地 1
任何人 1
绵@@ 1
菩薩 1
角色扮演 1
保持@@ 1
正好 1
痕@@ 1
負擔 1
挂@@ 1
泊@@ 1
管轄@@ 1
128 1
世紀@@ 1
名義 1
孜@@ 1
白俄 1
1.8 1
乏 1
煮 1
道格拉斯 1
慎@@ 1
極大 1
財團 1
企劃 1
國務院 1
堵@@ 1
拆卸 1
组织@@ 1
逃跑 1
中文版 1
向上 1
转化 1
高加索 1
26.@@ 1
数学家 1
驻扎 1
毓@@ 1
邏輯 1
7.5 1
り 1
彎@@ 1
战术 1
桓 1
述@@ 1
關聯 1
防疫 1
阿瑟 1
喝 1
遞 1
PS 0.47187466756511937
日元 1
现已 1
女生 1
登山 1
宵 1
晴 1
刻有 1
牧师 1
音樂會 1
但後來 1
旭 1
维多利亚 1
美麗 1
脉@@ 1
吞 1
弗拉@@ 1
贼 1
有机@@ 1
賦 1
Twitter 1
販售 1
龍屬 1
湿@@ 1
竞赛 1
系主任 1
郡王 1
意指 1
陝西 1
侨@@ 1
外圍 1
人称 1
方面军 1
此劇 1
爵@@ 1
訴@@ 1
贸 1
分泌 1
普尔 1
青岛市 1
憂 1
用法 1
伺服器 1
機率 1
謙@@ 1
日前 1
非常@@ 1
僵@@ 1
洛克@@ 1
吉爾 1
文化部 1
晓 1
遗产 1
都城 1
т 0.1434227847730601
リ 1
沛 1
美丽 1
鸣@@ 1
据说 1
開發@@ 1
威力 1
涵盖 1
砌 1
總計 1
之稱 1
國人 1
景观 1
埃纳 1
民国@@ 1
大綱 1
水準 1
站上 1
華納 1
多項 1
鬥爭 1
奥斯卡 1
米蘭 1
习惯 1
匙 1
履行 1
標記 1
综@@ 1
趙@@ 1
遜@@ 1
地理位置 1
场地 1
特種 1
疼痛 1
三等 1
室内 1
興起 1
軍艦 1
家長 1
雯 1
不敵 1
分手 1
斯拉 1
決策 1
一分 1
劃分 1
否认 1
登基 1
人心 1
教育局 1
此類 1
1892 0.40547794228432327
之役 1
臥@@ 1
街頭 1
領導人 1
副教授 1
對手 1
米哈@@ 1
下行 1
植被 1
ER@@ 1
阿波罗 1
驅動 1
不好 1
港府 1
马德里 1
三层 1
党组书记 1
美金 1
二等 1
前進 1
链@@ 1
77@@ 1
得票率 1
蓄 1
ar@@ 0.06335732075777298
上台 1
欄 1
淳@@ 1
迈 1
通稱 1
科下 1
鵝@@ 1
氰@@ 1
0.00 1
優惠 1
多樣 1
很小 1
煤炭 1
閩 1
基尔 1
科索沃 1
肩 1
媽 1
此舉 1
40% 1
神圣 1
機槍 1
牢@@ 1
金色 1
電壓 1
俘@@ 1
键@@ 1
雷达 1
29.@@ 1
县委 1
灭@@ 1
获奖 1
My 0.26109254738124454
總長 1
1893 0.39743993647639736
内斯 1
战队 1
記憶體 1
阵线 1
IV 0.20074820057128162
模糊 1
水扁 1
沈 1
非正式 1
斯图@@ 1
分數 1
戰事 1
混 1
蕃 1
道夫 1
马力 1
Mac 0.8954944389529684
受邀 1
日到 1
极端 1
炮塔 1
绘 1
迭@@ 1
姿 1
邸 1
不應 1
立法@@ 1
框 1
特曼 1
舒 1
AP@@ 0.7649114002146811
土司 1
教育家 1
斩@@ 1
民航 1
諸 1
高潮 1
ae 0.17805573037105973
呈现 1
專屬 1
懿 1
指標 1
男爵 1
州立 1
締@@ 1
臉 1
富裕 1
泗@@ 1
灣省 1
种族@@ 1
脊椎 1
os 0.05744346236357654
取景 1
帮@@ 1
织@@ 1
东南@@ 1
中世紀 1
到底 1
条款 1
细胞@@ 1
SS 0.33503848644960965
惡化 1
转任 1
迪南 1
广播公司 1
榴彈 1
率部 1
抽象 1
无线电 1
最有 1
肯塔基州 1
27.@@ 1
不列颠 1
布羅@@ 1
滇@@ 1
蒼@@ 1
竞争@@ 1
麥克@@ 1
賜@@ 1
奖章 1
联邦@@ 1
背叛 1
只會 1
氮@@ 1
空襲 1
疑似 1
は 1
腾 1
發展@@ 1
擾 1
殊 1
粉絲 1
一幅 1
紧张 1
练@@ 1
胡安 1
ata 0.15017067556127112
崇 1
進而 1
憤怒 1
瑞拉 1
ai 0.13858607388644853
新年 1
不管 1
扮 1
率兵 1
使命 1
友人 1
字形 1
摔角 1
特人 1
諭 1
阿克 1
114 1
that 0.00519257106112169
淚 1
捍@@ 1
钠 1
28.@@ 1
琛 1
许可 1
起诉 1
胆@@ 1
Type 0.769105687947627
埃爾@@ 1
斯克州 1
雕@@ 1
RA@@ 0.9013343000963302
一輛 1
操控 1
常务@@ 1
那個 1
届@@ 1
廈 1
煉 1
69@@ 1
崇祯 1
肃@@ 1
趨勢 1
遲@@ 1
擠 1
有轨电车 1
杰出 1
纤维 1
卡塔 1
膜@@ 1
乐器 1
前線 1
岑@@ 1
直升机 1
認可 1
订 1
海军@@ 1
1884 0.44428194330029364
拆 1
相遇 1
褒@@ 1
低气压 1
實踐 1
那不勒斯 1
高等@@ 1
w@@ 0.09106045001746017
就读 1
槍管 1
车次 1
Pro 0.3843981611501052
收取 1
消防@@ 1
衛視 1
努斯 1
人为 1
悔 1
耶尔 1
邁 1
洛林 1
七世 1
之星 1
塑 1
巴伐利亚 1
海盜 1
公使 1
潟 1
二氧化碳 1
得票 1
辞去 1
陞 1
冰原 1
剩余 1
瑙 1
福克斯 1
裡的 1
1887 0.4350784245598644
分化 1
判断 1
年後@@ 1
悠@@ 1
景點 1
篇小说 1
事後@@ 1
侣 1
政治局 1
1886 0.42912384058590897
210 1
RI@@ 0.9427426017916454
戲院 1
阵地 1
一塊 1
客機 1
路面 1
不安 1
戈尔 1
等同 1
而後@@ 1
赋 1
封為 1
當代 1
當然 1
蕊 1
邻近 1
ch 0.1254560030113598
哉 1
鳞@@ 1
停泊 1
十九@@ 1
对话 1
54@@ 1
建國 1
之初 1
伦堡 1
四方 1
傑出 1
動工 1
抚 1
之亂 1
玩法 1
衰退 1
伊德 1
响 1
啓 1
民建 1
西區 1
愚@@ 1
沙皇 1
CH@@ 0.8405384462045111
体操 1
工学院 1
博士生 1
大阪府 1
打開 1
找出 1
撤离 1
資深 1
可作 1
囚禁 1
or@@ 0.06973105916067171
传教 1
iOS 1
握 1
适 1
西域 1
集成 1
题材 1
專注 1
两岸 1
代表大会 1
電氣 1
提起 1
李氏 1
理工大学 1
賠償 1
水源 1
渊 1
衛斯理 1
錶 1
j@@ 0.0891856654410563
三角洲 1
刃 1
南越 1
車手 1
南山 1
合一 1
崗 1
文件@@ 1
盗 1
繼任 1
區內 1
意圖 1
液体 1
堯 1
总监 1
濃度 1
農民 1
阔@@ 1
William 0.08002146214761156
一号 1
嫁给 1
硅@@ 1
預告 1
三座 1
巾 1
吐 1
編組 1
運送 1
駕 1
118 1
奥斯曼帝国 1
年幼 1
級賽 1
终止 1
晶片 1
有功 1
相隔 1
稜 1
第一家 1
脂@@ 1
美國國家 1
陣營 1
53@@ 1
椎 1
品種 1
眾議院 1
紫色 1
堤@@ 1
廳@@ 1
正教 1
治愈 1
重組 1
僧人 1
永安 1
客運@@ 1
伯里 1
生命@@ 1
加拉 1
开辟 1
第二年 1
趕 1
雅克 1
Game 0.3283893653851632
漫威 1
进军 1
都尉 1
握@@ 1
牺牲 1
困境 1
堀@@ 1
塞克斯 1
巡洋艦 1
籃@@ 1
醒@@ 1
偏西 1
1888 0.40828543965152153
像素 1
was 0.002235389584259457
北非 1
拖 1
整修 1
無關 1
诺贝尔@@ 1
高速铁路 1
含义 1
書中 1
杭州市 1
前来 1
巡抚 1
臨床 1
中隊 1
五人 1
原聲 1
地獄 1
奢@@ 1
必然 1
斤 1
特鲁@@ 1
顺利 1
瓊@@ 1
园区 1
橢@@ 1
育有 1
手持 1
地势 1
神奈川 1
學界 1
封鎖 1
碘 1
松江 1
浓度 1
首長 1
全身 1
小學@@ 1
住所 1
殼@@ 1
禪 1
罪犯 1
譴責 1
傘 1
UB 1
淵@@ 1
聰 1
電路 1
魅力 1
杰克 1
加勒@@ 1
沧@@ 1
印第安 1
夥伴 1
工事 1
叉@@ 1
女演员 1
守護 1
纲@@ 1
臟 1
电子游戏 1
皮埃尔 1
遲 1
117 1
寫成 1
按察使 1
楚国 1
比克 1
海口 1
AR 0.88092017109824
James 0.0852948207324201
怨 1
吕 1
腸@@ 1
一組 1
中斷 1
科学技术 1
750 0.9839021543109712
古希腊 1
射程 1
尼奥 1
雅各 1
依舊 1
不合 1
伪 1
指派 1
纪委 1
譜@@ 1
责@@ 1
单一 1
敲出 1
长约 1
日間 1
赛车 1
为首 1
發言人 1
集会 1
强制 1
後方 1
盈 1
维莱 1
ana 0.09831998996580285
下台 1
學家@@ 1
挪@@ 1
景觀 1
百萬 1
亮度 1
冕 1
巴林 1
日常生活 1
典礼 1
变更 1
哲学家 1
正統 1
汉字 1
真空 1
评选 1
浅 1
Group 0.12705704380980004
團長 1
小米 1
此處 1
苍@@ 1
防線 1
电气化 1
长城 1
冊@@ 1
尖沙咀 1
屋顶 1
手指 1
描写 1
搭载 1
诊断 1
酸盐 1
大片 1
疏散 1
下载 1
同学 1
期限 1
中環 1
合物 1
滴 1
破裂 1
祈@@ 1
语系 1
雜的 1
全力 1
網友 1
个体 1
五代 1
恐懼 1
塌 1
工党 1
王公 1
1861 0.4395188111838494
中東 1
漸 1
-& 1
座椅 1
担@@ 1
債 1
巴爾 1
缴@@ 1
體積 1
再也 1
吉他手 1
在此期间 1
大屠杀 1
拉丁美洲 1
旗帜 1
運算 1
里夫 1
以免 1
緩慢 1
四次 1
埃德@@ 1
服装 1
肅@@ 1
航海 1
悬挂 1
棍 1
广州@@ 1
德軍@@ 1
產量 1
程序@@ 1
75@@ 1
from 0.005494028220166544
檔@@ 1
护照 1
泊 1
狄 1
確診 1
茅 1
里德 1
en@@ 0.04097244163255447
漢人 1
環繞 1
饭 1
高斯 1
5.5 1
78@@ 1
习近平 1
緯@@ 1
農場 1
填海 1
存活 1
展覽@@ 1
弊 1
賦予 1
书写 1
幕式 1
六十 1
塵 1
幽默 1
手上 1
米德 1
阿布 1
依賴 1
倭@@ 1
分隔 1
大革命 1
德曼 1
前來 1
年时 1
损@@ 1
枯@@ 1
陣亡 1
勉@@ 1
嘲@@ 1
她@@ 1
机器人 1
瓦解 1
始祖 1
年级 1
獨立@@ 1
л 0.14483029519593635
信件 1
旅程 1
明亮 1
癒 1
穷 1
補助 1
选秀 1
塔斯 1
紐約市 1
1876 0.4463586782803474
吉尔 1
家庭@@ 1
蔽 1
116 1
2500 1
銅鑼灣 1
er@@ 0.045161786110003814
一說 1
克特 1
廣為 1
逼近 1
胞 1
基斯 1
法師 1
火焰 1
琼@@ 1
赛艇 1
本届 1
橄榄@@ 1
眾人 1
舞曲 1
茄 1
总共 1
淹@@ 1
韵 1
三菱 1
旧金山 1
術語 1
配有 1
灌溉 1
異常 1
教材 1
第二任 1
水庫 1
肺 1
122 1
AM 0.44685147559259986
玻璃@@ 1
薦 1
上場 1
會社 1
清军 1
營運@@ 1
督察 1
第二部 1
算是 1
二十一年 1
宁县 1
心理@@ 1
天才 1
尺度 1
朴 1
東方@@ 1
檐 1
留學 1
閣@@ 1
冠军@@ 1
胆 1
哨 1
違 1
坠@@ 1
誓 1
愿@@ 1
维埃纳 1
茱@@ 1
修斯 1
不变 1
旱 1
最強 1
特别@@ 1
直隸@@ 1
腾@@ 1
開展 1
发源 1
所述 1
架构 1
羅馬@@ 1
味道 1
水下 1
奪取 1
栖@@ 1
預 1
转为 1
一處 1
奴隸 1
宣传@@ 1
巴士站 1
科长 1
100@@ 1
京城 1
册@@ 1
太保 1
梧@@ 1
看出 1
缺席 1
肢@@ 1
伯恩 1
亭@@ 1
俄语 1
公會 1
理工学院 1
總統府 1
條目 1
醫學院 1
禹 1
鑽 1
锋@@ 1
拜仁 1
盆 1
髓 1
一至 1
大奖赛 1
領銜 1
属性 1
正值 1
股東 1
争夺 1
ic@@ 0.12657723465629742
各大 1
捨 1
阅@@ 1
債@@ 1
发送 1
总管 1
托斯 1
沿着 1
神明 1
途徑 1
判官 1
擒 1
經濟學 1
閒@@ 1
十七@@ 1
同性恋 1
内存 1
交战 1
螢幕 1
同進士 1
视觉 1
诸多 1
之後在 1
保定 1
則有 1
医学@@ 1
瞄準 1
薩克 1
劣@@ 1
锐 1
奕 1
改组 1
救出 1
最终幻想 1
概况 1
в 0.0027878446896699685
不易 1
诸如 1
ISO 1
屠杀 1
義務 1
該劇 1
际@@ 1
一把 1
兩座 1
單一 1
塔恩 1
婚禮 1
安德森 1
气温 1
百貨 1
動態 1
命運 1
歌剧 1
疊 1
磁場 1
ol@@ 0.08760902096697391
纪念馆 1
缓慢 1
儀器 1
威尔士 1
畏@@ 1
之女 1
共計 1
少將 1
建交 1
維斯 1
名詞 1
壁画 1
最後在 1
港鐵 1
踢@@ 1
提供@@ 1
殿試 1
過往 1
風力 1
总结 1
魂@@ 1
氧化物 1
絡 1
犧牲 1
签证 1
天子 1
绩 1
音符 1
上限 1
安全性 1
藏族 1
將在 1
观察@@ 1
阿曼 1
IG@@ 1
祂 1
第三季 1
個性 1
围攻 1
珊@@ 1
紡@@ 1
其间 1
李克@@ 1
江县 1
辯論 1
准确 1
正如 1
职能 1
001 1
79@@ 1
剧场 1
擔當 1
铎 1
后任 1
抒@@ 1
霹@@ 1
三百 1
发言人 1
地方法院 1
多半 1
大奖 1
就要 1
拉丁语 1
诚@@ 1
階層 1
1.3 1
會面 1
現代化 1
生子 1
刑事@@ 1
普罗旺斯 1
淀@@ 1
祕 1
A1 1
投影 1
星座 1
時區 1
主义@@ 1
学士学位 1
调查@@ 1
127 1
二級 1
客户 1
海市 1
調查局 1
選民 1
同為 1
寺庙 1
若望 1
藏品 1
if 0.08080598588463292
第十二 1
选民 1
伤害 1
消費 1
iPhone 1
廟宇 1
陪 1
外型 1
已故 1
政務@@ 1
相連 1
超出 1
马克思主义 1
德森 1
清治 1
硫酸 1
1891 0.3770355859351425
代碼 1
擴大@@ 1
習俗 1
衫 1
北區 1
An@@ 0.06725434760193423
成像 1
队友 1
馨 1
孤立 1
这位 1
在此之前 1
散文 1
樞機 1
淘@@ 1
霞@@ 1
高祖 1
格羅@@ 1
男友 1
歐元 1
犀@@ 1
統一@@ 1
过渡 1
阵亡 1
前後@@ 1
к 0.027593128607422888
並稱 1
內設 1
动态 1
米爾 1
電信 1
全书 1
让@@ 1
ed 0.029499590814711905
影视 1
會堂 1
纳斯 1
擢 1
西大區 1
平壤 1
121 1
右手 1
倾@@ 1
受損 1
301 1
奧克@@ 1
市场@@ 1
公民@@ 1
天文学家 1
庐@@ 1
普魯士 1
职业@@ 1
频繁 1
左岸 1
憑@@ 1
染病 1
確保 1
轰炸机 1
马尔 1
一辆 1
甲級 1
123 1
細菌 1
未曾 1
讨伐 1
76@@ 1
放出 1
漲 1
獸@@ 1
200@@ 1
寂 1
布爾@@ 1
猛烈 1
跃@@ 1
之际 1
傳遞 1
固体 1
土星 1
专用 1
发电机 1
奠@@ 1
蒿 1
讲话 1
工商@@ 1
香山 1
克莱 1
宁夏 1
莱尔 1
财富 1
局势 1
落入 1
吸血鬼 1
混血 1
董事会 1
调节 1
大气 1
業界 1
銀牌 1
修行 1
全家 1
后方 1
多德 1
潮流 1
驅逐艦 1
上法蘭 1
澄清 1
皮肤 1
指引 1
不便 1
儲 1
白天 1
详@@ 1
副局长 1
右岸 1
晨 1
某種 1
爪哇 1
咨询 1
坝@@ 1
瑾 1
範疇 1
嚇 1
崑 1
边区 1
鄒@@ 1
青衣 1
叠@@ 1
柔道 1
襪 1
家屬 1
无锡 1
肅 1
閘 1
弗洛@@ 1
毗@@ 1
端的 1
〔 1
勳@@ 1
偉大 1
钾 1
〕 1
江湖 1
罚 1
剌 1
遺跡 1
260 1
公務員 1
媽@@ 1
歌迷 1
級別 1
苏军 1
党派 1
完結 1
根据地 1
酿@@ 1
are 0.009095781712423515
城中 1
新式 1
梅克@@ 1
民俗 1
總教練 1
岐@@ 1
布雷@@ 1
玉米 1
稽 1
頌 1
AP 0.5658361381561611
人造 1
仪器 1
奧運@@ 1
答案 1
贷款 1
下水 1
主导 1
國外 1
峽 1
圭 1
尼拉 1
是非 1
遺體 1
1850 0.43429198107122746
斯巴@@ 1
水位 1
射器 1
日本海 1
釜山 1
厚度 1
威爾斯 1
棱@@ 1
識別 1
1.1 1
二者 1
傍晚 1
蹄@@ 1
am@@ 0.08450116016642184
駒 1
di 0.11457337030797862
介面 1
撕@@ 1
红旗 1
脂肪 1
填 1
實質 1
对比 1
運營 1
上尉 1
六四 1
銅牌 1
號碼 1
演變 1
石刻 1
緻 1
板块 1
警察@@ 1
辛格 1
捉@@ 1
下设 1
商务@@ 1
大门 1
朱元璋 1
登场 1
确立 1
西克 1
全台 1
领导小组 1
猪@@ 1
心理学 1
菲利@@ 1
还原 1
高出 1
Robert 0.08646342102970109
分開 1
山顶 1
便宜 1
帕克 1
禧@@ 1
經營@@ 1
街区 1
三千 1
曾一度 1
梅斯 1
線性 1
不足以 1
火灾 1
烤 1
百合 1
鑄@@ 1
光譜 1
弄@@ 1
名譽 1
掌控 1
图形 1
改設 1
浙 1
竞技 1
順治 1
拉尼 1
浆 1
物流 1
電梯 1
鰍 1
无论 1
牌照 1
的士 1
武術 1
滤@@ 1
1883 0.4327545630475077
地區@@ 1
存者 1
晶体 1
考古@@ 1
中国国民党 1
探测器 1
正義@@ 1
爾曼 1
確立 1
EN@@ 1
圍賽 1
夫區 1
西湖 1
争论 1
原著 1
常规 1
璧 1
醬 1
Paul 0.07778697305954399
世界排名 1
大隊 1
洋行 1
鑑@@ 1
阿拉伯@@ 1
同情 1
永远 1
節度 1
菇 1
血統 1
顶部 1
格局 1
车型 1
AL 0.979324845648379
IT 0.8379481060766029
停车场 1
名人堂 1
弦@@ 1
江蘇 1
當選@@ 1
马拉 1
1862 0.4249972513067996
停車 1
多姆 1
档案 1
卑斯山 1
是羅馬尼亞 1
獎金 1
交涉 1
歷史@@ 1
辩论 1
炸 1
縫 1
澳門@@ 1
过于 1
盔 1
緬@@ 1
魯斯 1
夜晚 1
总会 1
明市 1
职员 1
民用 1
焦點 1
編制 1
德甲 1
版權 1
號的 1
釋出 1
中視 1
临床 1
比率 1
爸爸 1
贬@@ 1
卡利 1
原文 1
媽媽 1
岱 1
游击队 1
郑 1
IBM 0.965056443740994
朗德 1
半徑 1
商船 1
英镑 1
陝@@ 1
刑法 1
封闭 1
族自治州 1
查爾斯 1
精度 1
運會 1
奏曲 1
峡@@ 1
軍籍 1
閥 1
交會 1
你们 1
四等 1
二十二年 1
新世 1
易名 1
自幼 1
荃 1
鞍@@ 1
ina 0.09171941588201016
會員@@ 1
淪@@ 1
董 1
客运@@ 1
总长 1
提督 1
皇太后 1
鞍山 1
對外 1
漆@@ 1
氯化 1
空調 1
绍兴 1
评论家 1
阿拉伯人 1
工业部 1
曼聯 1
二十四年 1
哈尔@@ 1
策划 1
一連串 1
密歇@@ 1
拉里 1
百分@@ 1
1868 0.43703488055761675
官方@@ 1
语音 1
金錢 1
鈞 1
香港中文 1
为期 1
導彈 1
悉@@ 1
辩@@ 1
雙方@@ 1
二十九年 1
原市 1
后面 1
投訴 1
早晨 1
此曲 1
纽约市 1
菲爾德 1
刻意 1
勒姆 1
南道 1
各類 1
建安 1
急性 1
週末 1
ッ 1
波尔 1
西蒙 1
大殿 1
电压 1
語的 1
谢尔省 1
使用@@ 1
保守派 1
出版@@ 1
长达 1
籃 1
巡回@@ 1
新竹市 1
汉堡 1
船员 1
鱸@@ 1
Java 0.8470260697784137
依赖 1
曲線 1
格利 1
雾 1
五位 1
be 0.010486781977877745
棉花 1
玛丽亚 1
分类法 1
叛 1
大海 1
神奇 1
琼斯 1
英屬 1
燃燒 1
74@@ 1
SU@@ 1
军舰 1
听到 1
城邦 1
第二批 1
Mar@@ 0.07275703808420458
日语 1
檀@@ 1
渠@@ 1
升至 1
生下 1
佩里 1
化身 1
参观 1
桌 1
欠 1
歇 1
艰@@ 1
灌木 1
诺曼底 1
专利 1
保有 1
加特 1
安哥拉 1
山城 1
等奖 1
办公@@ 1
相鄰 1
身邊 1
鄉村 1
共產@@ 1
形势 1
相繼 1
侍中 1
喻 1
新世界 1
净 1
菱@@ 1
追加 1
重心 1
紛@@ 1
神祇 1
荣获 1
随之 1
ac@@ 0.10228813088713196
上將 1
乡镇 1
光学 1
半球 1
商業@@ 1
崔 1
斯普@@ 1
甲烷 1
发电 1
四分之一 1
膏 1
首領 1
龙省 1
北角 1
国主义 1
窑 1
US 0.05063397444180813
交通局 1
使徒 1
和尚 1
国务@@ 1
委內 1
糧食 1
资本主义 1
车道 1
办学 1
汽油 1
狮 1
Apple 0.5701462433330828
标题 1
矢 1
逃出 1
驳 1
兰语 1
常有 1
降水 1
分院 1
波德 1
討伐 1
ica 0.1459667664471297
北洋 1
就算 1
雲林縣 1
之歌 1
埋葬 1
齿@@ 1
体育馆 1
费尔@@ 1
转入 1
ま 1
弗朗@@ 1
随机 1
μ 1
一个月 1
汗@@ 1
絡@@ 1
萨克森 1
关键@@ 1
炼 1
貿 1
CA 0.5013305555426648
微生物 1
替换 1
欣賞 1
风速 1
拉瓦 1
滲@@ 1
失踪 1
干擾 1
日治@@ 1
石碑 1
AD@@ 0.7190689468788783
开播 1
全能 1
綜@@ 1
即便 1
客人 1
帽子 1
旗幟 1
金鐘 1
兩地 1
发育 1
颜 1
饱@@ 1
兴起 1
民事 1
纽约州 1
舜@@ 1
弃@@ 1
探討 1
闸 1
Michael 0.1021681780711601
Super 0.20862310980641238
學園 1
底下 1
证书 1
飞船 1
@ 1
主人公 1
塑料 1
1867 0.41855695624997563
凉 1
总数 1
奥林匹克 1
東邊 1
宫廷 1
攜@@ 1
苹果 1
li 0.2451847865596259
不必 1
中央人民政府 1
寄 1
川县 1
簡化 1
繁荣 1
MI@@ 1
分析@@ 1
嘎@@ 1
演講 1
砍@@ 1
さ 1
喉 1
布蘭@@ 1
磷 1
as@@ 0.07815237096641146
主委 1
地貌 1
布什 1
帳 1
逐出 1
da 0.032531523294110506
大洋洲 1
福德@@ 1
精确 1
頂點 1
小镇 1
平反 1
混合@@ 1
三級 1
重点@@ 1
一書 1
瓷 1
离婚 1
光子 1
內外 1
综合性 1
耕 1
觀看 1
一一 1
人工@@ 1
加尔@@ 1
預防 1
优 1
峡 1
浴 1
专科学校 1
五千 1
二期 1
伊斯@@ 1
優先 1
压缩 1
沙特阿拉伯 1
体验 1
懷孕 1
毛澤東 1
瑛 1
肖像 1
ang 0.17013758702132786
世俗 1
医疗@@ 1
神學 1
世家 1
侏@@ 1
充足 1
寒冷 1
电流 1
蜿蜒 1
運河 1
长大 1
僅僅 1
陸地 1
古建筑 1
开启 1
联邦政府 1
选出 1
出院 1
宇航员 1
阿姆斯特丹 1
体积 1
花費 1
悦 1
聯邦@@ 1
海平面 1
粗體 1
評為 1
動機 1
清洗 1
準確 1
凍 1
凭 1
合格 1
餘人 1
平息 1
捕捉 1
轟@@ 1
代号 1
塞特 1
撤離 1
時常 1
渝 1
迁往 1
俗名 1
干燥 1
電影節 1
验证 1
側式 1
用到 1
加热 1
哈萨克斯坦 1
教導 1
哈利@@ 1
马来@@ 1
剧团 1
弗雷德里克 1
茹 1
550 1
IS 0.7987978842588839
罐 1
遠鏡 1
² 0.0860577881279439
后于 1
負責人 1
巨型 1
时刻 1
偶然 1
是屬 1
應付 1
毛利 1
米特 1
椭@@ 1
穿過 1
供电 1
剧集 1
德米特里 1
起源于 1
推测 1
珍珠 1
做到 1
盆@@ 1
奥弗涅 1
搜查 1
普查 1
湧@@ 1
纠@@ 1
貼@@ 1
1848 0.3828666780865424
趁 1
後續 1
此案 1
近年来 1
宁市 1
河水 1
音乐学院 1
1873 0.4223975345583766
淹 1
耶和@@ 1
蜘蛛 1
貸款 1
陶瓷 1
搬迁 1
小提琴 1
猿 1
经由 1
致敬 1
1878 0.38021035800552044
专 1
晉升 1
機械@@ 1
此类 1
導師 1
提取 1
殺手 1
膛 1
襄 1
320 1
先是 1
瑪麗亞 1
胡志@@ 1
辅 1
70% 1
ا 1
篡@@ 1
罕见 1
金正@@ 1
服用 1
法蘭 1
一層 1
基础设施 1
溶 1
禹@@ 1
策劃 1
鞋@@ 1
體育@@ 1
が 1
種植 1
124 1
大理 1
总决赛 1
新四军 1
氣溫 1
业余 1
发行@@ 1
夜间 1
大于 1
白俄罗斯 1
隨機 1
て 1
基部 1
运算 1
僑@@ 1
十字@@ 1
堪薩斯州 1
注目 1
猎 1
考生 1
145 1
朔 1
紀念碑 1
梭 1
涼 1
DJ 0.572478166652937
出使 1
汪 1
游泳池 1
制片人 1
力士 1
安德尔 1
该书 1
魔戒 1
威廉斯 1
手工 1
浸 1
联合国@@ 1
Oricon 1
愛爾蘭@@ 1
沿线 1
系数 1
丧@@ 1
师范学校 1
机务段 1
法规 1
老鼠 1
克里斯蒂安 1
擺 1
諡 1
难民 1
建筑群 1
笼 1
糾@@ 1
National 0.03619941981394127
u@@ 0.0942082227221171
一郎 1
加冕 1
區議會 1
州人 1
皇子 1
1864 0.39005447628586004
1879 0.40543013006004763
书中 1
悼 1
撰@@ 1
望远镜 1
碩@@ 1
並對 1
原创 1
战败 1
暗中 1
看台 1
1.4 1
四川@@ 1
摆@@ 1
率军 1
章程 1
诉@@ 1
关押 1
利安 1
年生 1
探测 1
時空 1
物資 1
oc@@ 0.11913093743023861
歐洲@@ 1
牢 1
翔@@ 1
锁@@ 1
本质 1
西太平洋 1
餘下 1
ATP 0.7380906420139878
中尉 1
GDP 1
SA@@ 0.6215475780611599
多为 1
甸@@ 1
钩 1
防衛 1
不了 1
中美洲 1
华侨 1
地板 1
戰績 1
1877 0.41740054320100906
笼@@ 1
缝 1
莽 1
限于 1
性行 1
县长 1
实验@@ 1
き 1
克服 1
官吏 1
專欄 1
打败 1
合稱 1
出版物 1
湿地 1
發達 1
壽命 1
苔 1
辛亥革命 1
首爾@@ 1
一個種 1
事先 1
巴哈 1
穷@@ 1
羞@@ 1
袋@@ 1
銀河 1
96@@ 1
共产@@ 1
原版 1
封閉 1
屋頂 1
直流 1
一说 1
停播 1
可供 1
子弟 1
波斯@@ 1
療 1
内外 1
多面 1
最佳@@ 1
累計 1
节日 1
還會 1
饭店 1
Sh@@ 0.103790267848596
剖@@ 1
樞@@ 1
甜 1
犯罪@@ 1
抓住 1
會產生 1
遷移 1
二十六年 1
反擊 1
彎 1
擴建 1
爭論 1
跌 1
執法 1
少卿 1
右派 1
日后 1
窩 1
終於@@ 1
训练@@ 1
SM 1
狸 1
一体 1
丧生 1
动画@@ 1
域@@ 1
摇@@ 1
產物 1
拉曼 1
病患 1
迅@@ 1
ate 0.04498222661428078
刪除 1
莱德 1
蕩 1
该堂 1
CPU 1
作法 1
丢@@ 1
屡@@ 1
源地 1
畅@@ 1
自從 1
伊凡 1
制造商 1
影音 1
斯蒂 1
旁边 1
虞 1
受体 1
弗拉 1
顺治 1
CD@@ 0.7957732708546971
岐 1
損害 1
6.5 1
三號 1
取决于 1
推移 1
示器 1
禁令 1
继任 1
伊特 1
司马@@ 1
网上 1
内有 1
富山 1
ot@@ 0.08695529637406255
原生 1
否認 1
蒙古族 1
8000 1
伙@@ 1
出生@@ 1
ES@@ 0.5897507740128396
克劳@@ 1
普法尔茨 1
皖@@ 1
禽 1
山村 1
差別 1
芜@@ 1
輕人 1
不丹 1
剛果 1
泄@@ 1
測器 1
滿洲 1
激 1
綴 1
BS 1
老院 1
轉播 1
DE@@ 0.8250456005697108
委员长 1
泵 1
购 1
動詞 1
弗朗什 1
手球 1
用水 1
米格 1
中位 1
奈良 1
段落 1
计算机@@ 1
邮件 1
雖然@@ 1
年秋 1
强化 1
师长 1
內政部 1
方位 1
法学 1
肯尼迪 1
北周 1
旁邊 1
美少女 1
韦尔 1
专业@@ 1
匡@@ 1
国民革命军 1
每週 1
瓦兹省 1
光度 1
始終 1
對立 1
幼 1
行政村 1
大连@@ 1
掉@@ 1
收获 1
胶 1
琅 1
中队 1
土耳其@@ 1
奖励 1
山路 1
股东 1
自家 1
芯 1
蔚@@ 1
证券@@ 1
逃離 1
外借 1
欢 1
去年 1
反对@@ 1
日軍@@ 1
格魯@@ 1
首支 1
庚 1
曾效力 1
短缺 1
希德 1
比爾 1
相接 1
识@@ 1
斯洛文@@ 1
黑洞 1
冠名 1
清初 1
溢@@ 1
电气 1
頂級 1
人性 1
小心 1
版权 1
C++ 1
TV@@ 0.9432069202706584
公安部 1
隱藏 1
1875 0.40850987466743544
事务所 1
米亚 1
肃 1
度假 1
稻 1
東路 1
罹患 1
高等学校 1
卡片 1
宿主 1
榜首 1
由該 1
新娘 1
Co@@ 0.14428930757870026
乡试 1
加尔 1
编程 1
回國 1
執政@@ 1
體重 1
元代 1
提早 1
活躍@@ 1
650 1
传奇 1
正規 1
釐 1
1865 0.38822761418378693
刷 1
反叛 1
辦公@@ 1
亚斯 1
及第 1
涨 1
籠 1
這位 1
效益 1
永樂 1
1882 0.38674994324997003
杭 1
City 0.04597828266110285
七個 1
值得注意 1
意義@@ 1
收费 1
第三方 1
恶化 1
榴@@ 1
所著 1
武田@@ 1
肠 1
艾伦 1
SM@@ 1
尼尔 1
本質 1
永康 1
王家 1
32@@ 1
圍繞 1
上马 1
剪 1
將來 1
戰中 1
日記 1
假面 1
区内 1
奉行 1
美國陸 1
酵 1
前锋 1
島峰 1
歧视 1
車廠 1
召回 1
宰@@ 1
一律 1
塑造 1
近海 1
並由@@ 1
付出 1
议长 1
霍尔 1
129 1
1881 0.3775418892422065
廂 1
挡 1
瓦特 1
第四名 1
降水量 1
债务 1
目脂 1
茜 1
动机 1
存有 1
效忠 1
至元 1
宜蘭 1
根據@@ 1
漳州 1
等式 1
IM@@ 0.7742326316174608
发布会 1
天主教徒 1
巡航 1
荊@@ 1
趋势 1
躲避 1
伴随 1
入伍 1
磚@@ 1
首尔 1
口号 1
司职 1
海滩 1
糧 1
进展 1
罢工 1
联络@@ 1
莫里斯 1
伊勒 1
單車 1
攻破 1
秘 1
第十三 1
綿@@ 1
霧@@ 1
折返 1
民族主义 1
聲優 1
分治 1
广播电视 1
某個 1
终身 1
鬧 1
伴奏 1
冤@@ 1
匹配 1
國中 1
幼稚 1
托利 1
第二期 1
音乐会 1
傲 1
帕尔@@ 1
所示 1
仑 1
尼日利亚 1
摄影@@ 1
纵 1
美的 1
鸿 1
滴@@ 1
监管 1
配樂 1
不見 1
别墅 1
歷經 1
社会党 1
胰@@ 1
保卫 1
安南 1
鰓 1
戰前 1
營養 1
F1 1
墳 1
李登輝 1
菲尔 1
表述 1
傳出 1
华东@@ 1
常數 1
詮釋 1
變動 1
酵@@ 1
窦@@ 1
虐 1
半决赛 1
海道 1
淮南 1
發電@@ 1
不起 1
哈爾@@ 1
沿著 1
终点 1
來往 1
台大 1
村级 1
樸 1
邹@@ 1
汽 1
飞行@@ 1
三家 1
做好 1
等到 1
Go 0.4906443347888756
凤凰 1
特省 1
赋予 1
可行 1
媒介 1
石川 1
西汉 1
多重 1
手稿 1
政府军 1
退伍 1
利沃夫 1
登錄 1
礁@@ 1
onlyinclude 0.40159044310337205
名誉 1
嘉庆 1
国会议员 1
岁@@ 1
戚@@ 1
旅客列车 1
绝大多数 1
八世 1
回去 1
萨斯 1
175 1
之心 1
幾內亞 1
梓 1
無人車 1
趋@@ 1
兵團 1
女皇 1
岑 1
汉口 1
販@@ 1
传动 1
先進 1
动车 1
墮@@ 1
2.2 1
保护区 1
孵@@ 1
展现 1
猶 1
評級 1
博士@@ 1
樓宇 1
處理@@ 1
一子 1
人家 1
小鎮 1
愛知 1
计划@@ 1
运会 1
迟@@ 1
Par@@ 0.10526779355300807
喻@@ 1
獎牌 1
126 1
60% 1
飛行員 1
一时期 1
邱 1
AB@@ 0.8041179767646001
MP@@ 0.9350789312911234
因病 1
汾@@ 1
呂 1
轨@@ 1
堡垒 1
曉 1
滚@@ 1
特快 1
玉山 1
总公司 1
日圓 1
診 1
貢士 1
重慶 1
為界 1
中小 1
受命 1
山本 1
棵 1
尼克斯 1
总统@@ 1
感謝 1
慣@@ 1
濕 1
鹤 1
HK@@ 1
佛山 1
索姆省 1
衛隊 1
东方@@ 1
姜 1
梅里 1
橫濱 1
起点 1
鍊 1
宠@@ 1
擴充 1
水流 1
绘@@ 1
菸 1
兼容 1
流域面积 1
海豚 1
梅尔 1
空中@@ 1
索恩 1
继位 1
詹姆士 1
連線 1
鰕 1
定向 1
以示 1
反共 1
節奏 1
縣名 1
聚合物 1
並向 1
挫@@ 1
捐赠 1
敷 1
钧 1
回歸@@ 1
指責 1
終身 1
启 1
四日 1
秀吉 1
陽光 1
驾驶@@ 1
Th@@ 0.1199668457069288
倫斯 1
勇敢 1
弗里德里希 1
罗马@@ 1
金陵 1
马里@@ 1
鹅 1
动词 1
士官 1
MTV 0.6162964786429321
name 0.037554675730972924
底特律 1
軍在 1
扇@@ 1
贴@@ 1
王氏 1
失效 1
新石器 1
棲性 1
莉亞 1
155 1
博物院 1
东德 1
互动 1
有限责任 1
GO@@ 1
师团 1
聖殿 1
輿論 1
SS@@ 0.8197892358124326
一是 1
卢森堡 1
里斯本 1
at@@ 0.06901871516883198
冶@@ 1
埗 1
特殊@@ 1
語音 1
辈 1
黜 1
人体 1
巴拉圭 1
趨 1
科普 1
卡斯特 1
參數 1
不肯 1
世祖 1
叔叔 1
暴動 1
船厂 1
亞馬遜 1
奸@@ 1
肿瘤 1
莓 1
87@@ 1
可达 1
會議員 1
續集 1
區分 1
喜爱 1
蚌@@ 1
部族 1
鑒 1
並曾 1
文艺 1
朝鲜半岛 1
烏斯 1
蔭@@ 1
1874 0.39879196781398235
命运 1
獲取 1
腐败 1
陽縣 1
Entertainment 0.2916413618098217
un@@ 0.028657799012243558
波羅@@ 1
彻 1
潜在 1
成都市 1
投身 1
羅德 1
来看 1
魁北克 1
63@@ 1
半径 1
喬治@@ 1
na 0.06224200208132629
全名 1
勞動@@ 1
巴哈@@ 1
會區 1
ation 0.03819355601644061
十字架 1
武功 1
裙 1
觀塘 1
躲@@ 1
豪斯 1
道奇 1
噪音 1
斯泰因 1
頜 1
30.@@ 1
大大@@ 1
推迟 1
時至 1
CP 0.8547467443451305
渴望 1
炼@@ 1
瑞斯 1
连任 1
下滑 1
變為 1
阿仙奴 1
黑山 1
YO@@ 1
及时 1
目录 1
东海 1
斯洛@@ 1
朝鮮@@ 1
石油@@ 1
變換 1
首演 1
119 1
企 1
奧斯曼 1
明帝 1
流电 1
观念 1
De@@ 0.10756917754757495
四季 1
鄉道 1
领先 1
1840 0.45799807595705067
丁目 1
伙伴 1
兩項 1
打進 1
技術@@ 1
时报 1
超新星 1
1863 0.38125957066716676
一根 1
共振 1
冰球 1
水量 1
苻 1
詐 1
諧 1
面具 1
專利 1
摩托@@ 1
站点 1
譯名 1
次郎 1
民居 1
电视节目 1
一文 1
生素 1
科大 1
飾@@ 1
os@@ 0.09643424763987847
岬 1
效能 1
es@@ 0.06330255174045255
ら 1
出租 1
大军 1
株@@ 1
港台 1
緊張 1
虫@@ 1
魔鬼 1
THE 1
说服 1
选中 1
音源 1
蕨@@ 1
傳入 1
攔@@ 1
新一代 1
议席 1
太空@@ 1
奪冠 1
篤 1
投票@@ 1
方针 1
一番 1
乌鲁木齐 1
去除 1
叙 1
附有 1
25% 1
英国人 1
7000 1
冒险 1
润 1
底質 1
法典 1
烃 1
飯店 1
シ 1
千里 1
天文@@ 1
山下 1
擊隊 1
演唱会 1
演藝@@ 1
矮星 1
确实 1
秘鲁 1
第五次 1
美术馆 1
蕭 1
长时间 1
Netflix 1
冷却 1
喪 1
永乐 1
矛@@ 1
优化 1
师范 1
瞄@@ 1
亞視 1
偽 1
剧中 1
司機 1
否则 1
数值 1
療@@ 1
諸葛@@ 1
谦 1
霸王 1
图片 1
校址 1
万立方米 1
当晚 1
所生 1
西夏 1
发电@@ 1
株式 1
喪失 1
月亮 1
1872 0.39591591077226795
ap@@ 0.08118234084342847
不停 1
城门 1
懸掛 1
睡眠 1
袁 1
共和@@ 1
巴比 1
级市 1
维斯 1
斬@@ 1
渠道 1
解体 1
趨@@ 1
US@@ 0.39705692185653974
並開始 1
勇者 1
無法@@ 1
特工 1
轄下 1
豪森 1
Car@@ 0.09646128531321657
大東部 1
此種 1
聯盟@@ 1
System 0.21273613902992247
do 0.047722090717991134
放大 1
Open@@ 1
件@@ 1
地底 1
密西西比@@ 1
科特 1
86@@ 1
接種 1
檢驗 1
箕 1
中性 1
希腊语 1
意识形态 1
纤@@ 1
陣線 1
HK 1
專員 1
文法 1
陡@@ 1
將於 1
被誉为 1
解析 1
跳舞 1
进化 1
阿德 1
卸@@ 1
名额 1
样本 1
动工 1
地委 1
塞拉 1
拉格 1
本来 1
霜 1
270 1
補給 1
认同 1
中南 1
動物@@ 1
安东尼 1
皇太子 1
納德 1
晋国 1
相應 1
成员国 1
阿波@@ 1
之内 1
情片 1
艱@@ 1
鸭@@ 1
修女 1
诺尔 1
屢@@ 1
昏 1
构建 1
爾德@@ 1
現已 1
繼承人 1
腎@@ 1
分区 1
厭@@ 1
車票 1
達爾 1
雷德 1
交出 1
填詞 1
干扰 1
精確 1
總署 1
HO@@ 1
駛 1
功臣 1
太陽系 1
派兵 1
降级 1
侵入 1
出面 1
澀 1
糧@@ 1
光碟 1
印度教 1
杂 1
貶@@ 1
台南市 1
太太 1
客运专线 1
西端 1
關東 1
围棋 1
文艺复兴 1
紧 1
起義 1
身穿 1
偏南 1
基區 1
決心 1
羌 1
布尔@@ 1
灵感 1
現行 1
觀賞 1
這麼 1
骗 1
之位 1
和弦 1
塔爾@@ 1
帝王 1
意图 1
印第安人 1
穿着 1
族自治县 1
聶@@ 1
氟化 1
窮 1
你@@ 1
写成 1
胞胎 1
酚 1
营业 1
辛普森 1
千名 1
在世 1
芹 1
評論家 1
阿爾及 1
上线 1
省立 1
警署 1
遗体 1
鸦@@ 1
保守@@ 1
內容@@ 1
台风 1
哀 1
撥@@ 1
两台 1
沙特 1
腓@@ 1
帛 1
戏剧@@ 1
极为 1
估算 1
專線 1
文档 1
条目 1
消散 1
綽號 1
西伯利亚 1
場所 1
大清 1
巳 1
谋杀 1
奖牌 1
结构@@ 1
逃到 1
加爾@@ 1
奸 1
媒 1
权威 1
農村 1
降雨 1
鹰@@ 1
巧克力 1
祿@@ 1
北邊 1
強迫 1
泰晤@@ 1
讷省 1
令人@@ 1
哭@@ 1
外面 1
州大学 1
某种 1
放入 1
相機 1
碘@@ 1
聖誕@@ 1
北区 1
工程学院 1
有化 1
畢 1
花费 1
被控 1
鰻 1
山縣 1
扶 1
鶴 1
复制 1
親自 1
一股 1
华盛顿@@ 1
礙 1
行動@@ 1
露天 1
將軍 1
遇难 1
FI@@ 0.6486010826136436
尼爾 1
类别 1
维特 1
街市 1
人間 1
动员 1
喀什 1
審議 1
屑 1
总队 1
總數 1
隸 1
不得@@ 1
勵 1
場合 1
电信 1
重大@@ 1
霍夫 1
It 0.011509913446878515
切爾@@ 1
影評 1
法例 1
一屬 1
保羅@@ 1
空袭 1
西班牙人 1
Unicode 1
临近 1
延遲 1
汀@@ 1
牛奶 1
IP@@ 0.9520036630452362
王妃 1
89@@ 1
八個 1
吉林@@ 1
后卫 1
希爾 1
库尔@@ 1
煤矿 1
稽@@ 1
同伴 1
少校 1
楠@@ 1
企業@@ 1
光學 1
沦@@ 1
铝 1
升高 1
射線 1
普遍@@ 1
炒@@ 1
利尔 1
二百 1
堪 1
犯人 1
除去 1
St 0.1208654382020708
之作 1
事項 1
暢銷 1
一隊 1
咬@@ 1
團結 1
巴拉@@ 1
师范学院 1
扭曲 1
村莊 1
海战 1
遠征 1
闸@@ 1
湯姆 1
娟 1
進展 1
况 1
呼吸@@ 1
孜 1
涵@@ 1
首場 1
鼓手 1
寸 1
緒 1
虑 1
鋒@@ 1
152 1
上部 1
华东 1
器材 1
年入 1
提示 1
现状 1
盪 1
目睹 1
软件@@ 1
飲料 1
唯一一 1
增设 1
就業 1
消费者 1
遺 1
先知 1
利人 1
午夜 1
贝拉 1
三大@@ 1
之夜 1
同胞 1
太和 1
盲 1
礼部 1
行驶 1
嵩 1
广义 1
月號 1
椰@@ 1
話題 1
阮福@@ 1
多条 1
新港 1
Metacritic 1
之王 1
企业家 1
反击 1
普林@@ 1
篷 1
All 0.06701574911702124
到来 1
南區 1
數次 1
George 0.06945693729000883
亞人 1
壓縮 1
梳@@ 1
闡@@ 1
饒 1
山丘 1
晚会 1
神戶 1
经费 1
頌@@ 1
ah 0.1403244778650539
弗兰克 1
流动 1
濒 1
爾縣 1
环球 1
羅斯 1
萼 1
音樂劇 1
CO 0.7115307819938373
嘉定 1
增多 1
大将 1
巴布@@ 1
服飾 1
第十四 1
芯片 1
逃离 1
上市公司 1
俠@@ 1
弹药 1
活力 1
場地 1
當前 1
耶维奇 1
各部 1
昆士@@ 1
獨自 1
儒家 1
分之一 1
壹 1
嫌 1
西里 1
该寺 1
begin 0.38292368013138794
之父 1
副作用 1
机枪 1
禮部 1
苏联@@ 1
く 1
神宗 1
债@@ 1
学历 1
宗教信仰 1
退化 1
轩 1
麾下 1
宜蘭縣 1
隆頭 1
万人次 1
八大 1
几天 1
命中 1
員會 1
斯頓 1
森林@@ 1
禅 1
舰艇 1
还要 1
古埃及 1
官邸 1
接駁 1
珊瑚礁 1
簽 1
茹@@ 1
中书 1
外地 1
後衛 1
祭司 1
將他 1
衔@@ 1
调用 1
39.@@ 1
媛 1
支撑 1
格林@@ 1
為名 1
菊科 1
吉姆 1
大事 1
琼 1
相望 1
種種 1
OVA 1
三段 1
击沉 1
溶于 1
琴家 1
袁世凯 1
轉任 1
駿@@ 1
齋@@ 1
二十五年 1
橙@@ 1
玲@@ 1
首发 1
2.4 1
信用 1
基隆市 1
石頭 1
表格 1
變形 1
一千 1
亥 1
冰島 1
加拿@@ 1
北洋政府 1
尔克 1
巴利 1
幹部 1
成為@@ 1
監禁 1
相傳 1
貿易@@ 1
阿尔巴尼亚 1
中校 1
射箭 1
投靠 1
厦门@@ 1
大乘 1
所致 1
分拆 1
南宁 1
施政 1
醚 1
交替 1
屏東 1
鬱 1
鹹 1
137 1
SA 0.3732397989835462
發掘 1
竟然 1
商务 1
阿尔卑斯省 1
飛行@@ 1
中书@@ 1
最常見 1
流失 1
缺點 1
英文@@ 1
费城 1
埃德 1
惠州 1
耶律@@ 1
外星人 1
夥 1
宽度 1
电站 1
酪 1
100% 1
卡罗@@ 1
孤 1
撰寫 1
灌丛 1
獎勵 1
萨拉 1
克洛@@ 1
卢瓦 1
约翰@@ 1
绥 1
再生 1
简化 1
下半年 1
ara 0.11320503100432801
並設 1
乃是 1
乔治@@ 1
密切@@ 1
徽章 1
慢性 1
赫尔@@ 1
上班 1
事后 1
捐贈 1
浚 1
被視 1
度过 1
筹建 1
追擊 1
錄影 1
kg 0.2959483359015895
万余 1
后世 1
攻势 1
演变 1
节奏 1
兽@@ 1
博客 1
竟@@ 1
韦尔@@ 1
指标 1
昔@@ 1
波利 1
湛 1
配偶 1
開始@@ 1
飯@@ 1
居住@@ 1
毕业生 1
钓@@ 1
剩餘 1
希爾@@ 1
次数 1
汗国 1
皋 1
减弱 1
妨@@ 1
艾倫 1
花序 1
过度 1
165 1
兰特 1
制式 1
袭@@ 1
觀賞魚 1
鱷@@ 1
を 1
信念 1
務局 1
台視 1
寵@@ 1
封建 1
激光 1
票价 1
筹备 1
賺 1
默尔 1
CE 0.5679009932709255
会见 1
李宗@@ 1
为什么 1
人為 1
外出 1
施加 1
百万 1
阵容 1
幡 1
發言 1
th@@ 0.07363482960265744
干预 1
特雷@@ 1
84@@ 1
三子 1
北道 1
巴塞罗那 1
瘋狂 1
健身 1
收复 1
舅@@ 1
起始 1
om@@ 0.0904042519755509
格拉斯哥 1
淫 1
溫帶 1
19@@ 1
季度 1
带到 1
应急 1
析@@ 1
波器 1
王府 1
趣@@ 1
四國 1
大敗 1
山姆 1
LE 1
der 0.0016772848168817144
吉安 1
國民小學 1
奥斯曼 1
核武器 1
濾@@ 1
南昌@@ 1
密码 1
括@@ 1
流感 1
薩斯州 1
Club 0.06790702623251617
坏@@ 1
大学生 1
Office 0.22840070749323108
家属 1
满洲国 1
病情 1
開出 1
两层 1
尉@@ 1
帖@@ 1
知事 1
首届 1
市郊 1
文人 1
温州 1
禾本科 1
膨脹 1
装甲@@ 1
量子@@ 1
公路@@ 1
擔任@@ 1
本區 1
漏洞 1
上层 1
世子 1
司令官 1
抗爭 1
曙@@ 1
贯@@ 1
全体 1
叙述 1
愤怒 1
萬英 1
選秀@@ 1
足协 1
DO@@ 1
勝利@@ 1
彝@@ 1
公國 1
南港 1
厌@@ 1
跋@@ 1
快樂 1
鵝 1
COVID 0.2958823582060125
淑 1
滙 1
财政部 1
先锋 1
漠 1
衰 1
EM@@ 1
中飾演 1
参考@@ 1
快速@@ 1
树木 1
锅@@ 1
ad@@ 0.06027660328220572
怨@@ 1
数十@@ 1
檢討 1
講師 1
住院 1
千葉@@ 1
官員@@ 1
敗給 1
盎@@ 1
體的 1
会上 1
活塞 1
漠@@ 1
許多人 1
評審 1
天然气 1
提拔 1
省长 1
釀@@ 1
位元 1
路易斯安那州 1
中信 1
引爆 1
財富 1
酰@@ 1
龟 1
公理 1
反复 1
每集 1
131 1
劳工 1
反应堆 1
大賞 1
陵墓 1
高句丽 1
鲜 1
中全会 1
侵 1
做成 1
历史沿革 1
显然 1
窮@@ 1
傳輸 1
埃里克 1
嫩 1
摩擦 1
灣大學 1
葫@@ 1
1869 0.3907126648914586
参谋 1
赋@@ 1
偏向 1
商标 1
巨 1
无限 1
粗 1
辯 1
一间 1
徑@@ 1
沃爾@@ 1
籃板 1
腾讯 1
97@@ 1
博览会 1
婚礼 1
鄉份 1
之处 1
学派 1
斯河 1
舍人 1
騷@@ 1
劉備 1
妖 1
傘@@ 1
傲@@ 1
尸 1
庄园 1
开发者 1
波爾 1
甫@@ 1
結業 1
继承人 1
駐守 1
强迫 1
is@@ 0.07545350885454166
sh@@ 0.0761537838639379
工業@@ 1
拉蒙 1
教科@@ 1
歷山大 1
莎拉 1
ie 0.06340587711881564
偵探 1
处罚 1
奥多 1
意大@@ 1
最後一個 1
有別 1
磚 1
Time 0.22617803834152495
共分 1
必需 1
恐 1
罗斯福 1
阿拉斯加 1
前端 1
圳 1
奕@@ 1
張個 1
薩摩@@ 1
驶@@ 1
扎克 1
日時 1
预防 1
自古 1
钢铁 1
1866 0.30326013756804765
Se@@ 0.10273826442736317
氯化@@ 1
瑶@@ 1
Mark 0.15184626572926455
叔父 1
回来 1
武將 1
途经 1
音樂家 1
告片 1
头部 1
師範@@ 1
聚会 1
首要 1
des 0.00250774110301836
卡里 1
縣治 1
橙色 1
注意力 1
Con@@ 0.09035882584144811
カ 1
匈@@ 1
羌@@ 1
运送 1
並無 1
擦@@ 1
收看 1
新高 1
瓦夫 1
依旧 1
剿@@ 1
檢察官 1
管治 1
维尔@@ 1
路径 1
1300 1
15% 1
ine 0.0626480560328229
刷新 1
士林 1
鯨@@ 1
ad 0.10341040529430744
四十二年 1
地理@@ 1
戟 1
绘制 1
舆论 1
例行 1
利比亚 1
陶器 1
こ 1
渗@@ 1
龚@@ 1
契約 1
女婿 1
聯隊 1
中国中央电视台 1
差不多 1
庞大 1
弗拉基米尔 1
閻@@ 1
塵@@ 1
徵召 1
丧 1
報章 1
大學生 1
寻 1
尧 1
消费 1
蠻 1
電動 1
傑克@@ 1
师从 1
意甲 1
溴@@ 1
燃烧 1
關節 1
史前 1
壶 1
客户端 1
海灘 1
膽@@ 1
偏北 1
哈布斯堡 1
弗朗索瓦 1
精通 1
军方 1
国籍 1
河系 1
福島 1
重申 1
一书 1
辣 1
预备@@ 1
γ 1
学部 1
稀少 1
ta 0.07713352215753999
司法部 1
德文 1
闵@@ 1
掘@@ 1
刚刚 1
王星 1
NET 1
width 0.6870588878807221
列宁 1
常数 1
恕 1
法兰克福 1
神庙 1
萬年 1
蜥@@ 1
铸@@ 1
日记 1
软 1
三省 1
剌@@ 1
打死 1
On 0.018310022479291276
丙 1
作业 1
利文 1
峨@@ 1
白堊紀 1
米拉 1
最後一@@ 1
毀滅 1
菲斯 1
重回 1
高尔@@ 1
基辅 1
妈 1
紳 1
鈴 1
僕 1
州区 1
粉丝 1
贿@@ 1
储 1
可行@@ 1
整数 1
頜@@ 1
黑白 1
手臂 1
损害 1
模块 1
立體 1
他將 1
夫特 1
威斯康@@ 1
小于 1
弧 1
737 1
影视@@ 1
哈斯 1
崁 1
萬名 1
圖片 1
财 1
鯰科 1
已婚 1
捷運@@ 1
一下 1
偵測 1
納爾@@ 1
後者 1
星期五 1
蝕 1
晃 1
浏览器 1
訴求 1
錐@@ 1
预期 1
Center 0.10342622050413586
Co 0.26935273542673466
對應 1
小区 1
鎌 1
132 1
保险@@ 1
環節 1
好莱坞 1
CC 0.6086365486382758
CI@@ 0.6003438883662967
丹尼尔 1
多处 1
帶有 1
當他 1
組別 1
205 1
Show 0.21941771145885175
八一 1
特別@@ 1
臀@@ 1
鯰形 1
假如 1
广播@@ 1
政司 1
歇尔 1
股权 1
赌@@ 1
軍中 1
不大 1
冕@@ 1
拦@@ 1
汝拉省 1
满族 1
生化 1
追击 1
党内 1
山水 1
汉朝 1
而聞名 1
奮 1
碩 1
野外 1
佩戴 1
无人 1
汞 1
無限 1
燃油 1
严重@@ 1
全書 1
北约 1
文獻@@ 1
气象 1
湖南@@ 1
男歌手 1
兩度 1
卻@@ 1
文教 1
渊@@ 1
责 1
揮@@ 1
速器 1
洽 1
隐 1
一站 1
两项 1
政法@@ 1
浪潮 1
肾@@ 1
金字塔 1
ON 1
姑娘 1
海南省 1
逢@@ 1
军政 1
农历 1
暴动 1
無效 1
硬體 1
AI 1
主攻 1
得獎 1
核心@@ 1
沁@@ 1
統計@@ 1
み 1
奥布省 1
峇 1
改革开放 1
獎章 1
直轄市 1
難度 1
鷹@@ 1
交匯處 1
斯人 1
特利 1
雨量 1
其間 1
出资 1
莆@@ 1
靈感 1
两艘 1
拉拉 1
旅館 1
蔓延 1
交通工具 1
托夫 1
副校长 1
將軍澳 1
溴 1
哥倫 1
四面 1
學生@@ 1
晶體 1
東面 1
西伯 1
进制 1
阮 1
馬拉@@ 1
38.@@ 1
0% 1
St@@ 0.08135861820751468
台語 1
波爾@@ 1
這件 1
Park 0.06358425798623435
介石 1
濒@@ 1
秋天 1
講座 1
酋 1
中外 1
关系@@ 1
切尔 1
长春@@ 1
電鐵 1
成員國 1
引述 1
根州 1
副会长 1
引致 1
桨 1
AK@@ 1
两天 1
多项式 1
密院 1
步兵@@ 1
至上 1
1.7 1
主修 1
古生物 1
尾部 1
普雷@@ 1
私下 1
袖@@ 1
138 1
144 1
三面 1
当然 1
son 0.009596980198244376
咸豐 1
姚 1
宮崎@@ 1
德福 1
清河 1
集中@@ 1
巨蛋 1
所產生 1
托尔 1
AI@@ 0.719495621996903
光谱 1
懋@@ 1
普京 1
望遠鏡 1
汇入 1
萱 1
历代 1
西尔 1
1400 1
Games 0.15165450440216272
Star 0.1522724601489614
勿 1
客场 1
并称 1
會合 1
聰@@ 1
转而 1
都督府 1
阶层 1
隅 1
re 0.06544605146234825
正义 1
不錯 1
代數 1
列夫 1
开国 1
糖尿病 1
CE@@ 0.5043578159122788
一般@@ 1
兩天 1
石头 1
全食 1
共青团 1
副省长 1
塞纳省 1
BL@@ 1
仓库 1
化学家 1
地層 1
摔跤 1
环绕 1
者則 1
遣使 1
驅逐 1
世界遗产 1
中國人 1
伊莎@@ 1
剩@@ 1
勉 1
四強 1
城南 1
大理石 1
タ 1
分开 1
划入 1
央视 1
採購 1
擊出 1
早前 1
重用 1
武德 1
美好 1
薩克@@ 1
一向 1
爱好者 1
那时 1
铸造 1
亞洲@@ 1
全国人大 1
容許 1
殖民者 1
33.@@ 1
夸克 1
歼 1
莱特 1
梭@@ 1
此举 1
苷 1
兩場 1
控告 1
克斯坦 1
往来 1
網民 1
ng 0.8886941462432247
南韓 1
茅斯 1
荔枝 1
追捕 1
斯通 1
競選@@ 1
蘇格蘭@@ 1
费尔德 1
列宁@@ 1
地段 1
塞斯 1
拉斯@@ 1
敷@@ 1
繁 1
编辑@@ 1
阿勒@@ 1
BC 0.24169695536477778
乙酸 1
克罗地亚 1
共生 1
IT@@ 0.8077288798832454
中是 1
懲@@ 1
添 1
第六次 1
耆 1
藉@@ 1
佛像 1
索馬@@ 1
览@@ 1
赫拉 1
ABC 0.3895357647529204
乾隆帝 1
修理 1
可容納 1
華視 1
號班機 1
七个 1
传记 1
安大略省 1
敢@@ 1
无效 1
蔡依林 1
見面 1
化學@@ 1
守護@@ 1
植物种 1
灾害 1
电车 1
专员 1
逃避 1
ka 0.08848233377093785
中亚 1
修士 1
北纬 1
大碟 1
掀起 1
落實 1
首屆 1
七十 1
录音 1
航母 1
防治 1
改革@@ 1
第一书记 1
肝 1
遗传 1
更為 1
為何 1
索尔 1
蟾 1
伊泽尔 1
克利@@ 1
南开大学 1
塞浦路斯 1
妥 1
巖 1
挥@@ 1
生殖 1
API 1
层次 1
韓民國 1
场合 1
虚构 1
大受 1
格鲁吉亚 1
米亞 1
Charles 0.06646047421537365
佐藤 1
夏洛特 1
退位 1
双向 1
地震@@ 1
辨 1
〇 1
內地 1
哈佛大学 1
增大 1
戴维斯 1
監察@@ 1
句子 1
帕斯 1
盾@@ 1
之神 1
佛寺 1
場館 1
家用 1
狙@@ 1
总量 1
渐@@ 1
瀕@@ 1
販賣 1
贩@@ 1
高温 1
体内 1
支持率 1
栓 1
茨堡 1
飽 1
歌舞 1
阿拉伯语 1
大阪市 1
寵物 1
楼梯 1
補選 1
通訊@@ 1
Thomas 0.07242010682883214
京师 1
仁宗 1
修筑 1
决策 1
啶 1
火災 1
相對@@ 1
睿 1
机组 1
虎尾 1
连续@@ 1
阻礙 1
之弟 1
光滑 1
官僚 1
將其@@ 1
新浪 1
百度 1
辣@@ 1
一月 1
二十八年 1
今屬 1
切割 1
山頂 1
颂 1
普特 1
靈頓 1
一九@@ 1
投奔 1
科罗@@ 1
究竟 1
第二届 1
足球队 1
ロ 1
吉爾@@ 1
咬 1
嵩@@ 1
波利斯 1
莫斯 1
詔 1
陛下 1
舷 1
荔@@ 1
騎士@@ 1
2.3 1
AS 0.4151892331501924
协商 1
封为 1
百名 1
體育會 1
奥尔良 1
小隊 1
平地 1
氣氛 1
二十世纪 1
度量 1
有者 1
落后 1
公職 1
免疫@@ 1
則會 1
和谐 1
在建 1
普利 1
演算法 1
上半 1
兄弟@@ 1
南北向 1
哪 1
奥德 1
森特 1
灣區 1
繁榮 1
线索 1
藓 1
配件 1
另一名 1
膨胀 1
蒸汽@@ 1
向下 1
最高峰 1
网民 1
id@@ 0.08546300502444641
医科大学 1
彤 1
泰坦 1
爱国 1
起因 1
门外 1
亚历山@@ 1
住宿 1
匿名 1
堰 1
沂@@ 1
驳@@ 1
EX@@ 1
IN 1
好萊塢 1
小林 1
川崎 1
未經 1
由來 1
上層 1
剥夺 1
宁波市 1
星际 1
特效 1
中文系 1
名次 1
太多 1
御史@@ 1
腹足 1
136 1
154 1
五十@@ 1
匿 1
壮 1
局勢 1
滥@@ 1
筆名 1
處決 1
輸給 1
送回 1
曾于 1
电影院 1
聪@@ 1
弹劾 1
深圳@@ 1
休斯 1
委員會委員 1
平市 1
引导 1
怀特 1
缩短 1
口市 1
可知 1
調節 1
山田 1
嵌@@ 1
网页 1
走出 1
鋸@@ 1
伊本 1
副司令员 1
妖怪 1
瓊 1
衛生@@ 1
佐夫 1
兀@@ 1
改版 1
比重 1
熹 1
第一款 1
膝@@ 1
NO@@ 0.6889852135966672
下跌 1
巴巴 1
战略@@ 1
纽约时报 1
美国政府 1
讀書 1
帕爾@@ 1
成份 1
腕 1
自从 1
选票 1
东面 1
圣马@@ 1
多尼 1
多项 1
搞笑 1
橘 1
機隊 1
匈牙利语 1
挑戰@@ 1
新政府 1
灵魂 1
耶律 1
末日 1
浙江@@ 1
科羅@@ 1
还会 1
高考 1
TBS 1
主机 1
其名 1
奇怪 1
運載 1
翻译@@ 1
进而 1
上旬 1
两端 1
發育 1
紧急@@ 1
罗夫 1
虚拟 1
頒布 1
風速 1
Li@@ 0.1818644465286235
差别 1
损坏 1
新版 1
科研@@ 1
那樣 1
餓 1
三代 1
中段 1
北縣 1
梅花 1
轉化 1
瑪麗@@ 1
首爾 1
動員 1
單式 1
季節 1
寶石 1
灣總 1
硅 1
腓力 1
跳水 1
VI@@ 0.9839582990469323
一边 1
而后 1
修缮 1
加油 1
孙子 1
曲棍球 1
沸@@ 1
英宗 1
鯊 1
鴨@@ 1
TS 0.8172449890038709
僕@@ 1
尼克松 1
悼@@ 1
或称 1
薩斯@@ 1
侄子 1
右側 1
想起 1
擴散 1
泣 1
di@@ 0.06881468598888385
哈里森 1
战斗@@ 1
阁@@ 1
十字军 1
沟通 1
科學院 1
编入 1
州政府 1
归属 1
硝酸 1
科拉 1
死後@@ 1
辖境 1
ra 0.05281040549303432
個堂區 1
单词 1
激活 1
埃斯 1
建構 1
德国人 1
戮 1
措@@ 1
液體 1
激進 1
il@@ 0.08189197348707505
對面 1
执教 1
犯下 1
科舉 1
饰@@ 1
世人 1
产业@@ 1
加泰罗尼亚 1
字幕 1
廈門 1
彻@@ 1
数码 1
法家 1
爭奪 1
觀光@@ 1
撲@@ 1
棲 1
狮@@ 1
軍用 1
不夠 1
交代 1
信義@@ 1
多芬 1
惯例 1
難民 1
算子 1
茨基 1
CS 0.6368163276788013
奥尔 1
恐慌 1
愉@@ 1
无关 1
永和 1
阳性 1
185 1
八十 1
新民 1
珍妮 1
这张 1
吸引力 1
嘉義市 1
淫@@ 1
阻力 1
阿道夫 1
168 1
书法 1
公开赛 1
总站 1
日及 1
浮雕 1
組建 1
送给 1
顧客 1
工资 1
饮 1
公開@@ 1
廠商 1
軍陸 1
达尔@@ 1
飼養 1
婭 1
惹 1
以為 1
分会 1
排水量 1
监禁 1
积极@@ 1
1.0 1
古斯塔夫 1
嘉宾 1
機身 1
沃克 1
书记处 1
炭@@ 1
烷@@ 1
上司 1
仰 1
占有 1
好像 1
诺维奇 1
141 1
滿意 1
砍 1
あ 1
不堪 1
並列 1
參議員 1
弗雷德 1
替补 1
杜鹃 1
區議 1
埠@@ 1
检验 1
苣 1
預賽 1
亞斯 1
侦察 1
召集人 1
大部 1
妍 1
橫跨 1
ma 0.11444763059629208
几种 1
加利@@ 1
擾動 1
蔚 1
褐@@ 1
高空 1
其一 1
學部 1
巴洛克 1
梗 1
毗鄰 1
社团 1
街上 1
電磁@@ 1
书店 1
眷@@ 1
耕地 1
匾 1
同等 1
审理 1
心情 1
摩爾 1
日才 1
看起来 1
臟@@ 1
一丁 1
判刑 1
大仙 1
弗吉尼亚州 1
瞬@@ 1
釣魚 1
主题曲 1
亚种 1
偵察@@ 1
傣@@ 1
官職 1
手枪 1
肋@@ 1
行动@@ 1
事迹 1
壞@@ 1
核准 1
病毒@@ 1
聖公會 1
ec@@ 0.09175615598621562
停刊 1
終於 1
邦政府 1
151 1
AG@@ 0.9051358688242386
三分之二 1
之事 1
塔吉@@ 1
多米@@ 1
恩河 1
朝向 1
荀@@ 1
零售@@ 1
字典 1
惡劣 1
楷 1
麟@@ 1
黔@@ 1
墳@@ 1
格鲁@@ 1
ジ 1
劇組 1
家里 1
鉴定 1
吗 1
大安 1
掩护 1
樱@@ 1
滇 1
人民检察院 1
修讀 1
咸丰 1
烂 1
翅膀 1
音节 1
九江 1
印第安@@ 1
感知 1
行事 1
陷阱 1
兩部 1
母公司 1
焰 1
知识@@ 1
社会科学 1
論述 1
1830 0.3962607168462182
一族 1
嶽 1
明德 1
星際@@ 1
蛤 1
遷往 1
霄 1
习俗 1
有如 1
海防 1
演奏@@ 1
糊@@ 1
32.@@ 1
槍械 1
溜@@ 1
狹窄 1
販 1
雷恩 1
两部 1
夕@@ 1
患上 1
糕 1
伸 1
八个 1
化名 1
尊敬 1
對戰 1
巴勒@@ 1
所说 1
擇 1
で 1
取向 1
牛肉 1
肆 1
156 1
亞美尼亞 1
山省 1
巩固 1
權威 1
防控 1
高层 1
MA 0.4600241923236389
上去 1
倚@@ 1
口径 1
员外郎 1
托米 1
新興 1
機體 1
芬蘭@@ 1
赔偿 1
頻繁 1
侶 1
信中 1
硒 1
舅 1
杆@@ 1
死亡率 1
每位 1
烤@@ 1
畿@@ 1
貴州 1
重工 1
2.8 1
反革命 1
取而代之 1
废弃 1
意味 1
祸 1
隶 1
Street 0.07262773761379013
博覽會 1
男子@@ 1
立法局 1
罐@@ 1
表示@@ 1
讓@@ 1
乙烯 1
全国人大常委会 1
史蒂@@ 1
后勤@@ 1
尼亞州 1
歌舞@@ 1
琪@@ 1
瓦爾 1
竊 1
133 1
三分 1
二號 1
惊 1
文科 1
致死 1
Peter 0.08035420652945854
一季 1
一般而言 1
战线 1
改正 1
沛@@ 1
监督@@ 1
鑽@@ 1
东西@@ 1
倆 1
医药 1
新兴 1
潜 1
相差 1
OK 1
佔據 1
學派 1
当作 1
林彪 1
自动@@ 1
自然保护区 1
交易@@ 1
包裝 1
司长 1
生产总值 1
葵涌 1
赞助 1
這條 1
隕石 1
唯 1
波多黎各 1
泽尔 1
護理 1
一國 1
之乱 1
崩潰 1
ya 0.03174005024573325
二度 1
全日制 1
南極 1
埕 1
州長 1
无锡@@ 1
早就 1
Media 0.1986520475352986
德兰 1
矛 1
艾哈@@ 1
谢尔@@ 1
进驻 1
人及 1
波羅 1
第三位 1
蚤 1
不愿 1
利比 1
線上 1
總共 1
謎 1
0.3 1
158 1
High 0.07347763939054272
帶動 1
开业 1
扰@@ 1
會選舉 1
極端 1
著称 1
吉米 1
同一个 1
爪@@ 1
美獎 1
舵 1
风景 1
College 0.04874176374273046
揭幕 1
棕 1
細胞@@ 1
三部 1
交配 1
提斯 1
里亞 1
1853 0.4567534330478043
吊 1
山中 1
眼鏡 1
鶯 1
事館 1
刺客 1
友谊 1
封信 1
尼加拉瓜 1
席次 1
戎@@ 1
橄欖@@ 1
河内 1
災難 1
高壓 1
ul@@ 0.08395848586424424
曼恩 1
榕 1
索引 1
著手 1
补给 1
丧失 1
中东 1
北北@@ 1
執行長 1
广东@@ 1
搭档 1
支撐 1
交所 1
付费 1
击退 1
戀愛@@ 1
物語 1
西甲 1
誅 1
逃犯 1
魨 1
吡@@ 1
年僅 1
顶级 1
颈@@ 1
Web 0.7197398187536383
全县 1
卫生部 1
比喻 1
Wii 1
一任 1
懼 1
環保 1
發性 1
追封 1
Br@@ 0.10229525970099236
Life 0.1271299183471483
台山 1
处死 1
奧林匹克@@ 1
慕容@@ 1
沼 1
衛冕 1
Red 0.1140720176012583
ic 0.08222211757653314
北韓 1
威廉姆斯 1
駁@@ 1
公会 1
大河 1
拆解 1
村镇 1
枕@@ 1
糟糕 1
英美 1
雨水 1
下文 1
否@@ 1
租用 1
組件 1
酰 1
干事 1
生死 1
瘦@@ 1
襄阳 1
一封 1
學業 1
怎麼 1
整數 1
独 1
给定 1
虔@@ 1
行銷 1
郵件 1
颖 1
0.1 1
乾燥 1
太空船 1
氛@@ 1
语言@@ 1
雨林 1
佛陀 1
库容 1
湖广 1
償 1
复旦大学 1
标识 1
榮獲 1
茵河 1
理事长 1
第二轮 1
藏传佛教 1
觀察到 1
139 1
1700 0.8649353971535404
1858 0.4156070133356019
五次 1
栖息地 1
法蘭克 1
试验@@ 1
不同于 1
假定 1
四種 1
警戒 1
造像 1
闭 1
山東@@ 1
慨 1
時尚 1
祖国 1
競爭@@ 1
自由泳 1
舞者 1
警務處 1
须@@ 1
ers 0.0318818376020382
π 1
南区 1
安平 1
活化 1
總督@@ 1
二段 1
廁所 1
LED 1
执法 1
斯省 1
水河 1
该州 1
亚科 1
吉利 1
国有 1
字型 1
西安市 1
贸@@ 1
起降 1
到場 1
協會@@ 1
悲 1
選擇@@ 1
领事馆 1
合适 1
摺 1
普森 1
水池 1
總兵 1
阿卡 1
霉@@ 1
馬場 1
骆@@ 1
148 1
安德鲁 1
战时 1
英冠 1
謹 1
黎加 1
南阳 1
微博@@ 1
蒙古人 1
參謀 1
大怒 1
尼基 1
拉罕 1
擢@@ 1
白石 1
竖@@ 1
雙層 1
法治 1
總統@@ 1
金属@@ 1
ur@@ 0.07433512926375635
会馆 1
无需 1
片尾曲 1
美女 1
變數 1
亞種 1
全国代表大会 1
城池 1
摩托 1
不太@@ 1
二二八 1
峯 1
幅@@ 1
推力 1
暗杀 1
重傷 1
保護區 1
文物@@ 1
晏@@ 1
爱沙尼亚 1
環保@@ 1
赴美 1
集团公司 1
左手 1
幫忙 1
探測 1
炳 1
翟@@ 1
三十六年 1
古希臘 1
塗 1
擴 1
收视率 1
遗传@@ 1
36.@@ 1
DA 0.6351405309631014
保密 1
少年@@ 1
德爾 1
星星 1
無限@@ 1
獲選為 1
系列@@ 1
务员 1
巷@@ 1
樂曲 1
焉 1
睦 1
結盟 1
赦免 1
邏@@ 1
量化 1
House 0.05897292844240108
現址 1
華裔 1
鑫 1
马来亚 1
响@@ 1
子弹 1
自旋 1
TA 0.5462609859247392
克拉斯 1
司空 1
电动 1
结局 1
遺傳 1
右侍郎 1
城外 1
度假@@ 1
译作 1
體內 1
储存 1
參謀長 1
咪 1
寂@@ 1
年出 1
懿@@ 1
过来 1
底层 1
志愿军 1
汤姆 1
肠@@ 1
褲 1
长征 1
屬名 1
港區 1
牡丹 1
SD@@ 0.9060485707789906
中央研究院 1
停用 1
夫曼 1
拉赫 1
克森 1
天上 1
微分 1
恩斯特 1
武汉大学 1
現況 1
笛@@ 1
1100 1
SBS 1
牌子 1
科医生 1
330 1
布利 1
福尔 1
科殿試 1
窑@@ 1
精彩 1
邮政 1
1859 0.36086500126607457
FM 0.21760997864498846
客家人 1
拨@@ 1
雛@@ 1
音譯 1
2.1 1
un 0.0030246726739701414
上表 1
啟發 1
林根 1
金刚 1
星期二 1
米尔@@ 1
脸 1
表情 1
金朝 1
鑲@@ 1
出征 1
執照 1
ella 0.0943143005867367
安提@@ 1
磁场 1
罷 1
考取 1
BA 0.5330022590237588
三十二年 1
恪 1
抹 1
跆拳道 1
RS 0.6080944098701799
me 0.07386844116405168
法拉利 1
目錄 1
这么 1
音樂節 1
ド 1
乙级 1
娃娃 1
小子 1
撥 1
湖区 1
评论@@ 1
工業區 1
币@@ 1
派出所 1
紀錄片 1
違法 1
镶@@ 1
非政府 1
ab@@ 0.038929681703412836
お 1
后人 1
天生 1
家村 1
想像 1
施泰因 1
語系 1
マ 1
便利@@ 1
致仕 1
蝠 1
運轉 1
134 1
Man 0.12198051478829498
勋@@ 1
撰文 1
极限 1
调查局 1
49.@@ 1
MP 0.33270706870850925
不列 1
實業 1
数目 1
煩 1
胃 1
讽刺 1
一派 1
分数 1
戰線 1
西省 1
211 1
Big 0.14762786562079938
三条 1
厦 1
塔瓦 1
搖滾@@ 1
特克 1
谦@@ 1
MBC 1
出血 1
參選@@ 1
报社 1
第四代 1
维克@@ 1
華僑 1
軒@@ 1
千克 1
彪 1
适当 1
atus 0.3207046957771715
义务 1
人會 1
諷 1
ak 0.10547936392553295
故事@@ 1
整编 1
斯德哥@@ 1
死因 1
烏克蘭@@ 1
竞技@@ 1
倖@@ 1
标注 1
校名 1
甲第 1
苗族 1
跃 1
並擔 1
古罗马 1
安迪 1
年轻人 1
監督@@ 1
亚洲@@ 1
成效 1
緊密 1
詢問 1
關心 1
院系 1
厨@@ 1
古迹 1
因其 1
擅长 1
格蘭@@ 1
满意 1
漁業 1
迁徙 1
閩南@@ 1
齡@@ 1
GO 1
國土 1
地被 1
大廳 1
沉没 1
法西斯 1
越野 1
阿登 1
壟斷 1
季节 1
疗@@ 1
票口 1
鈉 1
0.2 1
三條 1
多功能 1
有機 1
洛陽 1
Per@@ 0.08780239155598658
大門 1
故鄉 1
蒙古国 1
血统 1
该区 1
诺斯 1
PS@@ 0.7833474294567115
不知@@ 1
人來 1
堂区 1
定居@@ 1
平均水平 1
明天 1
殷 1
相當@@ 1
ME 1
侖 1
分界 1
博格 1
原屬 1
小熊 1
水力 1
猩猩 1
四十年 1
布鲁克 1
数字@@ 1
203 1
380 1
傾斜 1
其弟 1
家具 1
术@@ 1
波罗的海 1
解剖 1
钥 1
一战 1
克里米亚 1
南華 1
印刷@@ 1
常住人口 1
會試 1
极其 1
烧毁 1
韓語 1
僑 1
必定 1
机型 1
歷年 1
相交 1
答應 1
蘭州 1
党中央 1
困擾 1
妓 1
姓@@ 1
完好 1
承擔 1
教廷 1
稍微 1
胡椒 1
倉庫 1
外交政策 1
寶可夢 1
斯里蘭卡 1
缓解 1
而来 1
遼 1
互通 1
动力学 1
對陣 1
巴伐利亚州 1
其後在 1
大氣層 1
插曲 1
症候群 1
花蓮 1
英法 1
陌@@ 1
1854 0.405522493717769
借助 1
询问 1
貝克 1
傳染 1
反响 1
色素 1
ph@@ 0.11280598558082405
开幕 1
誦 1
1857 0.3843354653627337
克魯@@ 1
华裔 1
峡谷 1
東漢 1
棉 1
主任委员 1
大嶼 1
影子 1
恢@@ 1
正選 1
準則 1
集中营 1
高棉 1
俄勒@@ 1
固醇 1
聚會 1
脏 1
诸侯 1
賽馬會 1
れ 1
事略 1
協商 1
卡車 1
拉丁字母 1
歌劇 1
監視 1
李世@@ 1
瓦西里 1
至于 1
装有 1
中飾 1
亚当斯 1
什省 1
吉祥物 1
尿 1
攻城 1
新北 1
計算@@ 1
Ex@@ 0.13251461242347634
决心 1
大脑 1
對付 1
詠@@ 1
鯉科 1
EN 1
创下 1
q@@ 0.22468744962558077
不像 1
利润 1
路士 1
转播 1
騎師 1
ol 0.136397055404146
三振 1
夠 1
星團 1
三郎 1
大英 1
時裝 1
波美拉 1
胸部 1
衰竭 1
要么 1
间隔 1
嫁給 1
物理系 1
珍珠@@ 1
闲@@ 1
一類 1
孩童 1
就业 1
市辖区 1
庇護 1
曦 1
水县 1
渦輪 1
等候 1
黨部 1
ea 0.14235576092191343
太尉 1
德克萨斯州 1
新店 1
櫃@@ 1
瑩 1
路軌 1
202 1
King 0.06964625041526308
No 0.1071031844222856
兵庫 1
奖金 1
娄@@ 1
峽@@ 1
辅音 1
僚 1
拼 1
捉 1
春日 1
爷 1
西临 1
電廠 1
大麻 1
失控 1
客流 1
小田@@ 1
日内瓦 1
知识分子 1
那年 1
夺冠 1
栗 1
衡量 1
資格賽 1
布勒 1
棺@@ 1
毯 1
河岸 1
矩@@ 1
裝有 1
進球 1
高大 1
因在 1
文艺@@ 1
机车车辆 1
諸多 1
起用 1
会战 1
巴塞 1
摇滚 1
破产 1
的則 1
算符 1
解體 1
里士@@ 1
主機 1
取得@@ 1
屢 1
武漢 1
海港 1
皓 1
羚 1
侮辱 1
衆 1
電子@@ 1
圣彼得堡 1
常侍 1
晋升为 1
滯 1
鞘 1
CL@@ 1
之家 1
全都 1
各樣 1
崩溃 1
金日成 1
op@@ 0.08889675356326646
县委书记 1
大雨 1
費爾@@ 1
ag@@ 0.06448166216941283
可靠性 1
对待 1
巴拿馬 1
紀元 1
自小 1
虛 1
西非 1
遷入 1
倖 1
參與者 1
吉拉 1
年版 1
流出 1
炒 1
Tr@@ 0.07609474604498952
任内 1
军阀 1
国歌 1
城巴 1
大明 1
學上 1
暨@@ 1
泾@@ 1
身心 1
颁奖典礼 1
平交道 1
若瑟 1
虽@@ 1
下部 1
為例 1
璃 1
科爾@@ 1
莉莉 1
莞@@ 1
詩歌 1
諡@@ 1
吻@@ 1
尼茨基 1
过后 1
魔王 1
動畫@@ 1
哈里斯 1
携@@ 1
梗@@ 1
煮@@ 1
看似 1
蝶屬 1
配乐 1
Richard 0.08826872133253381
伯明翰 1
各项 1
天神 1
春秋@@ 1
第三部 1
納斯 1
進修 1
阿卜杜勒 1
上野 1
作畫 1
英國倫敦 1
陰謀 1
音乐家 1
黔 1
□ 1
到期 1
华南 1
噬 1
左側 1
祝 1
遠離 1
采集 1
亿立方米 1
别人 1
喜好 1
屬性 1
師長 1
揭示 1
甚麼 1
窝 1
組合@@ 1
蛮 1
辰@@ 1
NASA 0.5911984701646208
伴侶 1
儿童@@ 1
北京市@@ 1
糾紛 1
警報 1
远东 1
Intel 1
一时 1
各站 1
美人 1
代谢 1
会谈 1
军校 1
升為 1
塔利班 1
布爾 1
排水 1
衝鋒 1
谥号 1
透过 1
革新 1
EL@@ 0.9329882459305795
九巴 1
套件 1
宇文@@ 1
排斥 1
換成 1
正统 1
石器 1
矽@@ 1
科威特 1
秘書@@ 1
阿方索 1
三司 1
安東尼 1
数次 1
租金 1
艦艇 1
莉絲 1
行道 1
一轮 1
体重 1
分打點 1
所指 1
賄@@ 1
仙台 1
击剑 1
唯有 1
寿命 1
普羅@@ 1
考克 1
诊@@ 1
34.@@ 1
伞@@ 1
學中 1
纳粹德国 1
改以 1
昆虫 1
电梯 1
组件 1
钟楼 1
長@@ 1
上海市@@ 1
印有 1
教皇 1
新罗 1
日方 1
毘 1
瓦尔@@ 1
用語 1
秋田 1
第三届 1
事务@@ 1
互聯網 1
受到@@ 1
文昌 1
橡胶 1
铝@@ 1
94@@ 1
克里夫 1
六名 1
托克 1
渣@@ 1
铃@@ 1
並把 1
任者 1
凍@@ 1
合法@@ 1
報名 1
打进 1
樺 1
Mo@@ 0.13371431025593133
丕 1
唐玄宗 1
格拉@@ 1
碑文 1
空军@@ 1
終結 1
誼@@ 1
進黨 1
鹿港 1
1856 0.3777457078678437
抹@@ 1
曜 1
金馬獎 1
En@@ 0.10182117767453536
ed@@ 0.0968910144688303
债 1
優異 1
北方@@ 1
孢子 1
沙巴 1
涂 1
绳 1
Limited 0.47535891760569793
TC 0.49188595948249547
傳聞 1
妹@@ 1
景泰 1
盒@@ 1
總共@@ 1
营地 1
レ 1
人選 1
军分区 1
参考文献 1
哥斯@@ 1
大成 1
室外 1
东区 1
之手 1
冰岛 1
基亚 1
宇文 1
心脏 1
混合物 1
玉环 1
秦国 1
配属 1
卤@@ 1
瓦利 1
聚焦 1
起飛 1
全明星 1
學金 1
密碼 1
握把 1
电报 1
领事 1
獵物 1
看来 1
睿@@ 1
老大 1
賓夕 1
饶 1
交叉口 1
大山 1
天山 1
矿物 1
編為 1
聘请 1
腿@@ 1
谣 1
默兹省 1
入法 1
奥会 1
愛國 1
损伤 1
躲 1
剥@@ 1
大本@@ 1
徵收 1
曹魏 1
规格 1
俱 1
商務 1
子集 1
斯利 1
曲面 1
毫無@@ 1
蛋糕 1
起飞 1
切爾尼@@ 1
紧密 1
San 0.03341385700777831
交匯 1
清华 1
青森 1
华为 1
即為 1
患@@ 1
玻利@@ 1
聯同 1
遠東 1
原子核 1
巴馬州 1
志願 1
磺@@ 1
里州 1
马其顿 1
Le@@ 0.09009170874988318
達斯 1
俄罗斯@@ 1
基督@@ 1
梵蒂@@ 1
沐@@ 1
鍵@@ 1
主線 1
孟加拉国 1
日夜 1
會場 1
炮弹 1
狩獵 1
许可证 1
车辆段 1
運動場 1
頭顱 1
顎 1
俄军 1
友好城市 1
國軍@@ 1
安省 1
忽 1
殘 1
笨@@ 1
走私 1
义军 1
加来 1
央 1
嫩@@ 1
守军 1
库斯 1
战国 1
當中@@ 1
矩陣 1
葡萄@@ 1
足球联赛 1
直線 1
訥 1
身为 1
低音 1
工部@@ 1
愛沙尼亞 1
纜 1
先鋒 1
功夫 1
块@@ 1
居士 1
德里克 1
架空 1
螢@@ 1
人选 1
匪@@ 1
宾馆 1
成吉思汗 1
江陵 1
稿@@ 1
鉤 1
225 1
万名 1
利率 1
康德 1
弗朗西斯 1
披 1
茨克 1
集结 1
153 1
會用 1
每人 1
祺@@ 1
鄉民 1
阿什 1
齐国 1
疹 1
结识 1
誼 1
钙 1
顯得 1
146 1
λ 1
享 1
内核 1
吏@@ 1
常州 1
斯蒂芬 1
有罪 1
綏@@ 1
维拉 1
鈴木 1
鱗 1
分发 1
山麓 1
崖@@ 1
救助 1
祝福 1
SK@@ 1
二十七年 1
原籍 1
叱@@ 1
新西蘭 1
旋即 1
泰尔 1
淚@@ 1
瑞典@@ 1
航道 1
騷擾 1
商標 1
摸 1
硕@@ 1
升班 1
快乐 1
田站 1
置于 1
諒 1
鹅@@ 1
优先 1
侯爵 1
au 0.007108574265978923
下車 1
助教 1
叛军 1
大典 1
毆 1
西里@@ 1
铸 1
235 1
256 1
310 1
光芒 1
克爾 1
參戰 1
开封 1
饲@@ 1
鴉片 1
中山路 1
中縣 1
今属 1
墓碑 1
市政厅 1
証 1
阿瓦 1
影评人 1
操纵 1
改隸屬 1
直线 1
起事 1
鏈@@ 1
集數 1
3.2 1
公交线路 1
房地产 1
拉斐@@ 1
阿里@@ 1
雙重 1
鸚鵡 1
均衡 1
法兰克 1
癌@@ 1
總是 1
而行 1
通告 1
遍@@ 1
阳区 1
陈列 1
143 1
中级 1
市级 1
氦 1
鄧 1
镇江 1
其母 1
巴塞隆 1
施塔特 1
毒素 1
漢堡 1
猶太 1
球賽 1
點位 1
Company 0.07714349730029729
書法 1
生病 1
百人 1
EF@@ 1
信用@@ 1
居民区 1
帐@@ 1
幾種 1
扩散 1
Ver@@ 0.05150488051964761
出行 1
劣 1
北約 1
等价 1
花蓮縣 1
和约 1
晖 1
法文 1
草本植物 1
1851 0.407466229482976
AG 0.2383109923660562
南县 1
河西 1
焚 1
瑞安 1
穹@@ 1
迁入 1
逻@@ 1
鍋 1
隼 1
Project 0.2833638614995032
上線 1
攬 1
最高人民法院 1
東岸 1
石化 1
鐵路線 1
8.5 1
單一@@ 1
對決 1
棋手 1
混音 1
畢業@@ 1
蔣經國 1
釘 1
上下行 1
中古 1
中央委员 1
帕特 1
撥款 1
水星 1
河南@@ 1
禽@@ 1
虚 1
鄞@@ 1
Studio 0.3445668016000436
二個 1
值得一提的是 1
合計 1
層面 1
纬@@ 1
過的 1
AK 1
不定 1
中国民主@@ 1
国务院@@ 1
戈里 1
氨@@ 1
江苏@@ 1
遇害 1
马克@@ 1
人民代表大会常务委员会 1
显得 1
舉例 1
隨時 1
KBS 1
一员 1
商會 1
山脊 1
時將 1
曼哈頓 1
未经 1
没收 1
資產@@ 1
2.6 1
3.0 1
PL@@ 0.8544351809605211
內陸 1
摩西 1
林地 1
歷程 1
視頻 1
郑州市 1
靼 1
口味 1
施瓦@@ 1
○ 1
將近 1
益格 1
麗魚 1
147 1
一侧 1
挑戰賽 1
查看 1
民间@@ 1
爾諾 1
病死 1
罷工 1
雷特 1
ps 0.19923437011942993
圖形 1
實用 1
廣義@@ 1
特首 1
籠@@ 1
西区 1
Bar@@ 0.07126093320322488
妄@@ 1
湄@@ 1
肚 1
銳@@ 1
阴谋 1
传入 1
最多@@ 1
聯手 1
裸 1
類動物 1
仁川 1
凡尔@@ 1
时间@@ 1
电气@@ 1
節日 1
馬克 1
162 1
75% 1
入住 1
多為 1
奴隶@@ 1
有所@@ 1
民用@@ 1
溶解 1
車款 1
鳳凰@@ 1
之久 1
對抗 1
自願 1
表达式 1
le@@ 0.06596010658967356
女排 1
婴儿 1
定義為 1
所部 1
执 1
當代@@ 1
第一所 1
一夜 1
分隊 1
太古 1
懲罰 1
有權 1
有毒 1
渡河 1
苔@@ 1
0.8 1
ち 1
中央电视台 1
井上 1
姊姊 1
嬪 1
情景 1
歐陽@@ 1
畝 1
車門 1
间谍 1
月食 1
椒 1
沈阳@@ 1
皇族 1
防护 1
临时政府 1
倫州 1
基座 1
少有 1
弗吉尼亚 1
明珠 1
村委会 1
虾 1
其範圍 1
旅行@@ 1
熊本 1
皖 1
腳類 1
ED@@ 1
TH@@ 1
UT@@ 1
二十四 1
參議 1
女巫 1
萝@@ 1
追溯 1
市內 1
散布 1
日照 1
海戰 1
畜@@ 1
脏@@ 1
菩提 1
麻省@@ 1
宣判 1
淮河 1
能否 1
高音 1
五日 1
励 1
夫勒省 1
石家庄 1
采纳 1
214 1
一流 1
戶部 1
颈 1
列克 1
报刊 1
索菲@@ 1
分辨 1
溺@@ 1
白宫 1
破產 1
营运 1
諷刺 1
return 0.10679493422033921
侵蚀 1
處分 1
CBS 0.4142756398556159
VO@@ 1
两大 1
卡普@@ 1
湯瑪@@ 1
阪 1
不下 1
車道 1
車體 1
辜 1
雷射 1
中區 1
缆 1
腊 1
固有 1
报复 1
it@@ 0.06786253184034875
一具 1
中国工程院 1
庄隸屬 1
第十六 1
選舉區 1
哈密 1
坤@@ 1
山西@@ 1
演习 1
辖市 1
阿爾巴尼亞 1
場面 1
接納 1
祚 1
走上 1
鈾 1
奥利@@ 1
日向 1
深造 1
统一@@ 1
軼@@ 1
附属@@ 1
附設 1
参演 1
本市 1
江口 1
演習 1
都柏林 1
馬克@@ 1
則以 1
君王 1
崙@@ 1
莊園 1
轰@@ 1
隆慶 1
Mk 1
分辨率 1
幼儿园 1
憩 1
米斯 1
胖 1
高手 1
乍@@ 1
偶尔 1
分段 1
工商管理 1
幸存 1
氨 1
減輕 1
35.@@ 1
China 0.06807551517239449
re@@ 0.018690132068915476
ti@@ 0.06606124900131552
藔 1
露西 1
供水 1
孚日 1
庭院 1
廣州@@ 1
忒 1
毙 1
禮儀 1
穗@@ 1
臻 1
傀儡 1
唐太宗 1
巡逻 1
溶剂 1
篮 1
踏 1
劝 1
参与者 1
潮汐 1
濁 1
蛙@@ 1
隊史 1
Me@@ 0.131717836838104
Un@@ 0.09379916098404617
du 0.0037447797656855455
两家 1
可怕 1
合成@@ 1
吉祥 1
学生@@ 1
汇报 1
瘟疫 1
范畴 1
評分 1
马赛 1
专注 1
东岸 1
供应@@ 1
傭@@ 1
否決 1
奥斯卡@@ 1
敕@@ 1
泉水 1
聯軍@@ 1
荐 1
譬如 1
起步 1
0.4 1
募 1
合作社 1
武官 1
稠@@ 1
公司@@ 1
其妻 1
咨@@ 1
字樣 1
孫權 1
抗戰 1
現役 1
皈依 1
辩 1
ο 0.05059376142801289
不准 1
American 0.020451291918153015
ay 0.09392805705518387
坍@@ 1
拉多 1
神学 1
该镇 1
康熙帝 1
建筑风格 1
总计 1
部副 1
GNU 1
ç 1
伊藤@@ 1
增建 1
德爾@@ 1
拷@@ 1
熟知 1
第五届 1
一曲 1
内尔 1
商学院 1
青年团 1
排出 1
時速 1
标签 1
校尉 1
江蘇@@ 1
洛伊 1
職責 1
庾@@ 1
無人@@ 1
田市 1
西元前 1
輕軌 1
夏令 1
始发 1
政务 1
生代 1
肛@@ 1
Air 0.07813290048385838
GUNDAM 1
亚人 1
人則 1
優點 1
外交关系 1
奉祀 1
文化局 1
犁@@ 1
纸币 1
英皇 1
org 1
損壞 1
教科 1
水稻 1
無力 1
聚合 1
壺 1
昏迷 1
牌坊 1
符腾堡 1
话题 1
201@@ 1
住戶 1
年號 1
手套 1
畫作 1
21@@ 1
企業家 1
學術@@ 1
布尔什维克 1
決定@@ 1
特兰 1
限期 1
www 1
師團 1
母語 1
理论@@ 1
股份@@ 1
计算@@ 1
風球 1
142 1
新月 1
滾 1
瓷@@ 1
諫 1
加爾 1
坚决 1
署理 1
鸦 1
区段 1
和田 1
埃塞俄比亚 1
本州 1
歇爾 1
畜 1
辽东 1
魔女 1
ICE 1
之称 1
卡河 1
機能 1
緝 1
罷免 1
48.@@ 1
劃入 1
單純 1
天文学 1
補償 1
車室 1
195 1
乌兹别@@ 1
偏好 1
惩罚 1
打倒 1
抗原 1
沒有@@ 1
海關 1
音效 1
GA 0.8372076516635271
人名 1
廈@@ 1
斧 1
欄@@ 1
相位 1
索恩省 1
豎@@ 1
隸@@ 1
頂部 1
北齐 1
文庫 1
謹@@ 1
議案 1
订购 1
赛道 1
間諜 1
Ge@@ 0.11841467463950843
一體 1
参谋部 1
啟德 1
外星 1
德林 1
更具 1
正方形 1
駱@@ 1
type 0.07821459380373522
中国社会@@ 1
使馆 1
图斯 1
师师长 1
平方公尺 1
据点 1
沮@@ 1
制止 1
大败 1
媽祖 1
宮廷 1
臘 1
諧@@ 1
趟 1
重生 1
大主教 1
暉 1
李文@@ 1
滬@@ 1
页面 1
風波 1
Ne@@ 0.12268434832721024
四處 1
彈劾 1
纽 1
PO@@ 0.7338401322537113
事人 1
击中 1
春节 1
生人 1
白沙 1
监测 1
社长 1
ION 1
人質 1
猫@@ 1
美方 1
辛基 1
選定 1
步骤 1
當成 1
亚州 1
史蒂夫 1
時間@@ 1
晉身 1
渲染 1
禮物 1
亞當 1
尤里 1
改编自 1
波及 1
测定 1
珠江 1
相距 1
37.@@ 1
伊犁 1
君士坦丁 1
溃@@ 1
监控 1
规律 1
汴@@ 1
湿 1
瓦多 1
福爾 1
稻田 1
警官 1
宜蘭@@ 1
揆 1
樓梯 1
磊 1
落地 1
伊莉莎白 1
停站 1
安东尼奥 1
屏東縣 1
敖德@@ 1
瓷器 1
界限 1
财务 1
et@@ 0.06097148626522822
希臘語 1
忌@@ 1
拓扑 1
結識 1
雍 1
东经 1
輕型 1
都察院 1
丸@@ 1
伊利诺@@ 1
合约 1
客車 1
云南@@ 1
後備 1
斯泰尔 1
洩@@ 1
瓜分 1
华沙 1
土木工程 1
如來 1
延至 1
民歌 1
王者 1
硼@@ 1
諾州 1
Day 0.13053431905105467
何塞 1
內心 1
勘 1
委員長 1
尽管如此 1
敦煌 1
熔岩 1
藥品 1
道士 1
一门 1
券@@ 1
同源 1
微小 1
鞏固 1
佛罗伦萨 1
层面 1
朝阳 1
溫哥華 1
自治州 1
苓 1
休闲 1
們@@ 1
探险@@ 1
李家 1
窝@@ 1
筹 1
顶点 1
名錄 1
張學@@ 1
思潮 1
相容 1
腫瘤 1
評論@@ 1
AV@@ 0.9915920166819499
± 1
乙醇 1
奥托 1
姿態 1
尼爾@@ 1
氨基酸 1
沉默 1
空缺 1
考核 1
财经@@ 1
连接@@ 1
mo 0.40357178420591233
代言人 1
八強 1
彈頭 1
窃 1
葬礼 1
鉴@@ 1
鍋@@ 1
锦 1
难度 1
骚@@ 1
平章 1
据称 1
不時 1
哈里@@ 1
居留 1
平均气温 1
鉴于 1
包装 1
法規 1
米歇尔 1
身边 1
501 1
im@@ 0.0552154652398948
一列 1
災害 1
踏入 1
中曾 1
外貌 1
戰勝 1
投出 1
海湾 1
特拉斯 1
颁@@ 1
之類 1
化市 1
坐落于 1
拿出 1
機組 1
霜@@ 1
香蕉 1
0.6 1
208 1
取決 1
哥特式 1
夠@@ 1
淤@@ 1
隐藏 1
1855 0.3700987184776922
抄本 1
机动 1
樹林 1
盈利 1
蒲 1
代價 1
哨@@ 1
支柱 1
普通话 1
約定 1
聚居 1
花蓮@@ 1
這顆 1
閃 1
阳光 1
驻军 1
高橋 1
嗜@@ 1
改装 1
汗國 1
签名 1
舜 1
菩薩@@ 1
香料 1
三路 1
不够 1
塔利 1
大幅度 1
成因 1
敛 1
方針 1
热尔省 1
爆發@@ 1
甲酸 1
监视 1
营销 1
高鐵 1
Bo@@ 0.09906310576131984
PA 0.33858147709126807
停辦 1
囚 1
基底 1
尔比 1
尚書@@ 1
山寺 1
年國際 1
激进 1
示范 1
筒@@ 1
纺织 1
谕 1
黑海 1
旅长 1
时尚 1
濾 1
總體 1
LIVE 1
不設 1
人道 1
建康 1
斃 1
昊 1
月間 1
绪@@ 1
菁@@ 1
赫尔 1
並認 1
榜单 1
特蘭 1
症@@ 1
蒂尔 1
产权 1
失誤 1
心靈 1
楓 1
蔷@@ 1
试剂 1
龄@@ 1
八達 1
半导体 1
奥委会 1
姻@@ 1
揮 1
暑假 1
溥@@ 1
珂 1
謝爾@@ 1
前述 1
南縣 1
實習 1
寨@@ 1
脱贫 1
醜聞 1
頸@@ 1
休閒 1
君子 1
攤@@ 1
湊 1
裁撤 1
賦@@ 1
锌 1
青铜@@ 1
前途 1
听说 1
外国人 1
熱情 1
阿利 1
三十八年 1
因斯 1
外行星 1
格陵@@ 1
第一副 1
经济学家 1
诺克 1
204 1
MB 1
工程系 1
渐渐 1
狙擊@@ 1
至正 1
酸性 1
â 1
不出 1
偿@@ 1
抑 1
漕@@ 1
间接 1
伊勢 1
傳媒@@ 1
复杂@@ 1
药品 1
远程 1
ED 1
ton 0.06533163685526876
可可 1
斯皮@@ 1
生出 1
貿@@ 1
惯@@ 1
现出 1
生殖@@ 1
茜@@ 1
食品@@ 1
饒@@ 1
ON@@ 1
之声 1
以作 1
布萊恩 1
數十@@ 1
泛指 1
淄@@ 1
獅子@@ 1
船員 1
象棋 1
退回 1
预选赛 1
伞 1
珪 1
祭典 1
荊州 1
逊@@ 1
重整 1
850 1
http 0.815331952380692
iTunes 1
主炮 1
公信 1
孔雀 1
故而 1
沈阳市 1
缔@@ 1
高中生 1
鱈 1
乘降 1
搜集 1
日因 1
环节 1
組長 1
證書 1
選項 1
Al 0.06439824328397865
兩隊 1
咒@@ 1
暴力@@ 1
自衛隊 1
輻@@ 1
1847 0.4123116351361019
報導@@ 1
寬度 1
布袋 1
愛上 1
本集 1
轉到 1
卡德 1
百分之@@ 1
研究会 1
魚雷 1
专用@@ 1
中间@@ 1
兩邊 1
冻@@ 1
加藤 1
最大@@ 1
羟基 1
觀塘@@ 1
鯛科 1
淞@@ 1
罰款 1
性命 1
时空 1
連鎖 1
城門 1
按察司 1
狱@@ 1
落差 1
认知 1
Inc 0.9027025096879351
一門 1
中叶 1
入狱 1
戰區 1
招待 1
擊落 1
斯敦 1
朱德 1
男生 1
百萬@@ 1
ONE 1
lo@@ 0.08626235398203658
創作@@ 1
實際上 1
联队 1
赫梅利 1
送給 1
206 1
NBC 0.4305306004731277
保險@@ 1
判處 1
古墳 1
年史 1
恐龙 1
戴維斯 1
肆@@ 1
剂@@ 1
动物园 1
建校 1
数个 1
蜥蜴 1
傳送 1
兩層 1
总工会 1
純粹 1
附中 1
1841 0.45341334178834164
ST 0.9514789882220219
嫁@@ 1
巴斯克 1
第三个 1
面貌 1
亞州@@ 1
卡洛 1
小屋 1
户籍 1
為主題 1
环路 1
瓦尔德 1
税收 1
谷地 1
401 1
磯 1
精神病 1
肽 1
苏州市 1
門票 1
順位 1
制片厂 1
合作@@ 1
同屬 1
地球@@ 1
屿 1
平常 1
开除 1
毋@@ 1
狮子 1
王國@@ 1
航速 1
几次 1
罗德 1
螺旋@@ 1
遍布 1
雇主 1
207 1
伊斯坦@@ 1
对立 1
懂@@ 1
第四季 1
而定 1
AD 0.3062615494904031
MC 0.4772100447850839
他現 1
兵役 1
家庄 1
很难 1
明日 1
異性 1
两国@@ 1
定罪 1
模范 1
次要 1
玉祥 1
立下 1
反之 1
未必 1
榕@@ 1
迄@@ 1
大為 1
布宜@@ 1
所處 1
指導@@ 1
语言学 1
傳教 1
冠軍賽 1
园林 1
多瑙河 1
正中 1
編修 1
邦德 1
霍普@@ 1
瑞士@@ 1
善良 1
王牌 1
管控 1
雅各布 1
顏 1
三藏 1
亚尔 1
克勞@@ 1
六日 1
奋 1
特質 1
销售@@ 1
首秀 1
相似@@ 1
福州市 1
笔名 1
解决方案 1
贝里 1
As@@ 0.1059784445922891
约合 1
饮食 1
馬路 1
九世 1
字體 1
年紀 1
游击 1
經由@@ 1
背后 1
血腥 1
一口 1
之道 1
变形 1
弊@@ 1
斯多夫 1
氨基 1
珀斯 1
罹@@ 1
乞 1
合力 1
四座 1
大師賽 1
猜想 1
稳定性 1
纖維@@ 1
练习 1
资格赛 1
录取 1
換取 1
極限 1
渐 1
電訊 1
预言 1
167 1
保卫@@ 1
取出 1
戰死 1
總局 1
157 1
Boy 0.3534197341428163
DOS 1
仇恨 1
家督 1
将来 1
着手 1
终结 1
缺失 1
ú 0.5003877120994932
为名 1
司馬 1
建置 1
放射 1
淀 1
當選為 1
银行@@ 1
192 1
del 0.004284111987597403
三百@@ 1
攻读 1
斯里兰卡 1
示范@@ 1
も 1
尧@@ 1
希姆 1
礼堂 1
维耶 1
伏尔@@ 1
區區 1
反恐 1
周边@@ 1
槳 1
Girls 0.380258018852037
多元化 1
德尼 1
捧 1
斯曼 1
湿润 1
紀念館 1
峭 1
廣大 1
意即 1
歼灭 1
沉重 1
繡 1
莲花 1
著重 1
銜@@ 1
149 1
420 1
卢瓦雷 1
地球物理 1
推崇 1
照顾 1
El@@ 0.08268311918286526
Road 0.08117314634292688
ak@@ 0.07629741568706491
列車@@ 1
司長 1
挂牌 1
有害 1
理会 1
纬 1
阿拉斯加州 1
三台 1
君主制 1
國共@@ 1
感兴趣 1
托尼 1
林下 1
给事中 1
艾森@@ 1
霍华德 1
li@@ 0.07556208676200023
侄@@ 1
史稱 1
廢棄 1
核能 1
停运 1
搭建 1
洁@@ 1
電荷 1
頭角 1
魚亞 1
人工智能 1
斷層 1
火山@@ 1
維克@@ 1
4.2 1
all 0.014692905334350739
三期 1
前一天 1
蚀 1
1852 0.3806587302700085
一圈 1
人类@@ 1
普勒 1
織田 1
一卷 1
托馬斯 1
报导 1
无人@@ 1
汪精@@ 1
潮湿 1
议会@@ 1
龔@@ 1
亚克 1
冀 1
愛好者 1
有权 1
温和 1
第一轮 1
網民@@ 1
螺科 1
重伤 1
馳 1
st@@ 0.05203119827940035
中游 1
愚 1
抱怨 1
漂亮 1
爾夫 1
獲准 1
田径@@ 1
厘 1
只限 1
極度 1
概 1
神經@@ 1
鋁 1
173 1
ne 0.02193720635266983
us@@ 0.06924175749621733
全州 1
刺杀 1
后果 1
法屬 1
绳@@ 1
嘎 1
城隍 1
彈性 1
沫@@ 1
銷售量 1
铅@@ 1
高溫 1
鴉 1
CC@@ 0.5129213827242928
不符 1
伦特 1
侃 1
坑壁 1
存款 1
年將 1
札幌 1
波里 1
火炬 1
約克@@ 1
萊斯 1
藝員 1
陪伴 1
高麗 1
介乎 1
宙@@ 1
樞 1
納粹德國 1
Or@@ 0.08794762376752543
亞區 1
厉 1
會導致 1
有個 1
氣壓 1
沙河 1
誉@@ 1
赫爾@@ 1
初級 1
務部 1
半衰期 1
孔泰大區 1
幅度 1
張錄 1
温泉 1
耶稣会 1
速箱 1
鳞 1
中山大学 1
却是 1
周日 1
多伦多 1
尘 1
斯托克 1
瞭解 1
纏 1
不服 1
坊@@ 1
流星 1
浑@@ 1
港人 1
燒毀 1
維新 1
苹果@@ 1
誕 1
費城 1
電腦@@ 1
163 1
Ltd 0.38598074291887535
乌兰@@ 1
圃 1
大港 1
广大 1
当地人 1
暗殺 1
林寺 1
肚@@ 1
哲學家 1
地盤 1
天台 1
放到 1
數年 1
新泽@@ 1
火箭@@ 1
鹼 1
上架 1
拜堂 1
是將 1
樣子 1
登陸@@ 1
祺 1
這對 1
雪山 1
馬爾 1
Di@@ 0.09152106698999228
地铁站 1
奖学金 1
富蘭@@ 1
歷屆 1
磁性 1
老化 1
荣誉@@ 1
高低 1
仇者 1
偏食 1
切尔@@ 1
成品 1
瓊斯 1
莒@@ 1
行至 1
驗證 1
匾@@ 1
姊 1
布罗@@ 1
延迟 1
开采 1
数年 1
砂拉越 1
空難 1
靶@@ 1
上古 1
並從 1
其下 1
出版商 1
哥特 1
开源 1
扮@@ 1
揭發 1
濬 1
電機 1
ING 1
中州 1
折磨 1
神聖@@ 1
迁居 1
市府 1
老街 1
违法 1
2.7 1
class 0.07965310319570561
丹尼斯 1
唤 1
壹@@ 1
字节 1
快车 1
控股@@ 1
搖 1
維也納 1
NT 1
乙未 1
地下室 1
塑像 1
大勝 1
太大 1
椅@@ 1
湖南卫视 1
潰@@ 1
邓 1
ax 0.3484523915552869
创刊 1
厲@@ 1
哈尔滨市 1
微信 1
疫@@ 1
稳 1
膝 1
臧@@ 1
邯@@ 1
骚乱 1
166 1
370 1
住持 1
城北 1
帽@@ 1
残疾人 1
水文 1
深厚 1
聯車 1
血型 1
轉往 1
new 0.018248245216828038
克兰 1
拉巴 1
清潔 1
贊成 1
主編 1
年制 1
投資者 1
石山 1
繆@@ 1
該黨 1
预警 1
马哈迪 1
东正教 1
右侧 1
扯 1
機上 1
琰 1
747 1
RT 0.7639048672149756
平時 1
新政 1
歉 1
流體 1
爾人 1
留言 1
福田 1
花生 1
衍生物 1
000@@ 1
党籍 1
华语 1
左侧 1
截面 1
立方@@ 1
荷尔 1
谥 1
雷霆 1
霍爾@@ 1
光線 1
層級 1
探讨 1
梦想 1
电机 1
縣市 1
行署 1
龟@@ 1
オ 1
创意 1
完畢 1
引導 1
文武 1
進會 1
交界处 1
合法性 1
宣德 1
專訪 1
敌军 1
日式 1
當地@@ 1
穿梭 1
芭蕾@@ 1
萨拉@@ 1
誇@@ 1
諱 1
阿米 1
不已 1
减轻 1
劍橋 1
城區 1
斯艾利斯 1
英勇 1
謠@@ 1
黨團 1
不高 1
公學校 1
動式 1
北極 1
直屬 1
美分 1
艷@@ 1
莫拉 1
马萨诸塞州 1
鲁迅 1
不當 1
明末 1
條文 1
漁港 1
獵人 1
绵 1
茵 1
1849 0.35490831753761554
3.6 1
ong 0.1305682625363336
四肢 1
曼城 1
牛顿 1
球菌 1
马克思 1
匈 1
启发 1
國聯 1
敦促 1
綿 1
繼母 1
電源 1
敕 1
每逢 1
脆弱 1
財經 1
边形 1
通商 1
人民日报 1
基層 1
多年生 1
学界 1
持久 1
會以 1
眼中 1
诞 1
邯郸 1
高级中学 1
3.3 1
人人 1
棋子 1
锐@@ 1
阿尔代什 1
出海 1
單行本 1
國鐵 1
宗派 1
帆@@ 1
忧@@ 1
翼龍 1
食者 1
首座 1
創業 1
拜登 1
粉絲@@ 1
通州 1
铅 1
韋爾@@ 1
吉斯@@ 1
拾@@ 1
港島 1
筛@@ 1
譯為 1
輕微 1
LGBT 0.7112839241247296
以求 1
发放 1
威斯特 1
师生 1
桌面 1
画作 1
畢業生 1
粗糙 1
ir@@ 0.0634794862976577
入獄 1
变体 1
存取 1
將此 1
干流 1
廊@@ 1
打冠 1
禦 1
95@@ 1
執教 1
大洋 1
悼念 1
战俘 1
参政 1
腎 1
萨瓦省 1
魚亞目 1
債務 1
奥巴马 1
妝@@ 1
正殿 1
流亡@@ 1
港督 1
進駐 1
鑽石 1
敖@@ 1
教官 1
闯@@ 1
首家 1
急速 1
提琴 1
河东 1
祈禱 1
華特 1
马上 1
鲸 1
参军 1
史丹@@ 1
溥 1
笙 1
郊區 1
野生@@ 1
阻碍 1
柜 1
次序 1
跟踪 1
遇見 1
鳩 1
他成 1
劑@@ 1
商用 1
小吃 1
朝政 1
格蘭 1
远离 1
附件 1
保安@@ 1
妈@@ 1
就职 1
蜘蛛@@ 1
高度@@ 1
佛法 1
倾斜 1
展商 1
炮击 1
职人员 1
西蒙@@ 1
赞成 1
骑士团 1
GP@@ 0.9999559514864511
亿年 1
國有 1
增添 1
澳大@@ 1
硬幣 1
脸@@ 1
通讯@@ 1
Be@@ 0.07549596020484385
à 0.0024061305737831016
安徽@@ 1
摩天 1
監管 1
突击 1
翻譯@@ 1
落实 1
铀 1
フ 1
也就是说 1
同類 1
尸@@ 1
嶺@@ 1
新加坡@@ 1
日漸 1
福建@@ 1
自民黨 1
锂 1
161 1
博尔@@ 1
山形 1
法制 1
用力 1
發放 1
西海岸 1
養子 1
183 1
商场 1
大肆 1
學及 1
府城 1
歧@@ 1
玛格丽特 1
美麗@@ 1
郵 1
1.9 1
2023 1
开元 1
开放@@ 1
彎曲 1
急救 1
旦@@ 1
用性 1
耦合 1
胚胎 1
習生 1
贞观 1
迪斯@@ 1
1815 0.38751382869725065
口中 1
基輔 1
恶劣 1
林市 1
縣道 1
舊址 1
進出 1
金币 1
号召 1
廂@@ 1
拨款 1
眷 1
蠟@@ 1
進度 1
OH 1
八號 1
川市 1
蒂安 1
这份 1
麥可 1
1846 0.39032418221856774
σ 1
尼古拉斯 1
年少 1
果實 1
防禦率 1
von 0.0032685988725559673
初一 1
本屬 1
沁 1
特务 1
相互@@ 1
芽@@ 1
188 1
三度 1
之旅 1
华中 1
南明 1
團員 1
平凡 1
永久性 1
污水 1
組為 1
选择@@ 1
世锦赛 1
厭 1
壓制 1
大腦 1
庄為 1
蕴@@ 1
迪亚 1
马耶讷 1
伦西亚 1
威尔@@ 1
岡市 1
潰 1
瀛 1
猜 1
171 1
209 1
内特 1
冶金 1
在一起 1
度過 1
拖延 1
西九龍 1
許可 1
Am@@ 0.09925208306079182
七日 1
圻 1
塞夫 1
將該 1
拉普@@ 1
樹木 1
颗粒 1
颠@@ 1
女優 1
浙江大学 1
老板 1
SARS 1
im 0.004660488530035857
众人 1
开皇 1
彝族 1
株式会社 1
腔@@ 1
諾曼 1
近乎 1
酋長 1
商圈 1
斑點 1
灾难 1
赶 1
221 1
嚴厲 1
摘 1
泌@@ 1
縣立 1
选拔 1
陸上 1
拜訪 1
海地区 1
音樂人 1
鸭 1
184 1
TR@@ 0.9219319457430971
不具 1
凯尔 1
姐@@ 1
市政局 1
採集 1
無緣 1
王世@@ 1
3.7 1
A2 1
у 0.03139874595446978
之後他 1
兜@@ 1
兩家 1
總值 1
蚊@@ 1
表现@@ 1
西貢 1
谊@@ 1
集镇 1
预定 1
鼬 1
USB 1
十三@@ 1
档案@@ 1
第十八 1
M1 1
勛 1
記述 1
質素 1
Col@@ 0.11375519095514543
Hall 0.07609246195726593
IA 0.7235174479566222
SE 0.6188572784285444
二元 1
剧组 1
安東尼@@ 1
影业 1
戍@@ 1
有助于 1
泸@@ 1
精選 1
世紀末 1
中華民國國 1
意大利语 1
汲@@ 1
這款 1
阜 1
阿尔及利亚 1
下级 1
原住 1
常务委员 1
开头 1
戀者 1
突擊 1
中华人民共和国政府 1
人事@@ 1
匡 1
檢察@@ 1
潼@@ 1
焊接 1
蘇維埃 1
象徵@@ 1
鞭 1
也许 1
多克 1
慶長 1
挑 1
智能@@ 1
現出 1
贫困 1
農民@@ 1
一樓 1
史学家 1
官职 1
法兰@@ 1
相传 1
空间站 1
阿基@@ 1
ε 0.8432329616879759
叡 1
嘆 1
專科@@ 1
横跨 1
福井 1
部长@@ 1
д 0.10334226725441238
不住 1
代牧區 1
夥@@ 1
娱乐@@ 1
引退 1
民營 1
瓦勒 1
紐約州 1
迅 1
O2 1
乳房 1
催化剂 1
口音 1
同居 1
大軍@@ 1
就會 1
恐惧 1
想象 1
泡沫 1
海軍陸 1
ang@@ 0.10095804036899443
刷@@ 1
南通 1
埃米 1
定型 1
尼日@@ 1
居多 1
島的 1
李光@@ 1
白河 1
翰林 1
艾爾@@ 1
距今 1
元老 1
外線 1
染色体 1
求助 1
漢族 1
鹼@@ 1
ley 0.05951091276381964
一致@@ 1
卡卡 1
喜剧@@ 1
港鐵@@ 1
神廟 1
绒 1
花岗@@ 1
該處 1
豆科 1
倫理 1
儂 1
开创 1
瑜伽 1
真人秀 1
赞扬 1
近郊 1
追踪 1
追逐 1
過渡 1
會會長 1
歌仔 1
瑪格@@ 1
綱脂 1
航程 1
莫里 1
該次 1
防线 1
159 1
中央政治局 1
垄断 1
增长@@ 1
幹事 1
科爾 1
而產生 1
Cor@@ 0.08535550541829001
万年 1
三十一年 1
世紀時 1
幹道 1
操作@@ 1
東晉 1
滿分 1
甘肅 1
總面 1
耳朵 1
自信 1
闊@@ 1
主席团 1
入伙 1
告牌 1
有利于 1
概況 1
比數 1
絮 1
豁免 1
赶到 1
追究 1
頒授 1
事變 1
傳記 1
圖曼 1
地层 1
易斯 1
民調 1
水塘 1
穎@@ 1
第一支 1
谷歌 1
ρ 1
志愿者 1
ل 1
← 1
愛麗@@ 1
構想 1
沙丘 1
确 1
裘@@ 1
二号 1
外围 1
暢 1
栏目 1
禎 1
花卉 1
莫夫 1
譯本 1
金华 1
1820 0.3218782298753105
NA 0.5940330144368136
Ro@@ 0.10719931783894435
下一代 1
出走 1
型式 1
夏威夷@@ 1
万亩 1
体化 1
党组织 1
名額 1
垦 1
城縣 1
庇 1
悔@@ 1
流形 1
簡易 1
侠@@ 1
創刊 1
喚 1
对流 1
法蘭西 1
衢@@ 1
赣 1
阿特 1
入場 1
军委 1
扑@@ 1
摆脱 1
播音 1
烘@@ 1
玻利維亞 1
畸@@ 1
皮卡@@ 1
稱之為 1
輩@@ 1
击者 1
區位 1
性化 1
换成 1
本国 1
活动家 1
療法 1
联合国教科文组织 1
贯通 1
驚人 1
CCTV 1
三方 1
台州 1
固定@@ 1
文書 1
来往 1
汉密尔顿 1
畜牧 1
百强 1
纳尔@@ 1
說家 1
连同 1
道理 1
高爾夫 1
佑@@ 1
倫堡 1
公报 1
励@@ 1
原为 1
字样 1
平方@@ 1
永平 1
爱因斯坦 1
界線 1
紳@@ 1
重庆@@ 1
鉛 1
集群 1
一字 1
分流 1
多間 1
老城 1
肋 1
船長 1
萎@@ 1
222 1
ES 0.7370363309020436
多尔@@ 1
尔省 1
帥@@ 1
悚@@ 1
时常 1
特洛伊 1
结盟 1
重疊 1
金城 1
面部 1
三項 1
京都府 1
噪@@ 1
寓意 1
尔森 1
巡防 1
秦王 1
蘿 1
1845 0.3872008961454543
南极 1
持股 1
海報 1
瞿@@ 1
第一条 1
第五名 1
警備 1
Server 1
塑膠 1
大湖 1
巫師 1
會館 1
突尼斯 1
自动化 1
164 1
下分 1
利克 1
壬辰 1
孢@@ 1
曲榜 1
沂 1
送入 1
鯊@@ 1
178 1
290 1
交响@@ 1
多样性 1
客机 1
惹@@ 1
资产阶级 1
215 1
側線 1
内务@@ 1
厉@@ 1
合資 1
对外开放 1
康乃@@ 1
格罗 1
检查@@ 1
營造 1
現身 1
荆州 1
阿克@@ 1
霰@@ 1
176 1
chem 1
中華職 1
二字 1
出手 1
隔天 1
隨後在 1
飢@@ 1
马来 1
双打 1
同盟会 1
審理 1
新安 1
景色 1
漢地 1
1844 0.41546010427134533
AMD 1
丹佛 1
侵害 1
各級 1
安东 1
宝石 1
宾夕法尼亚州 1
正交 1
溯 1
特委 1
白旗 1
別墅 1
圖書 1
失落 1
悖@@ 1
突袭 1
Go@@ 0.15525921517828462
余年 1
地下水 1
封印 1
果然 1
绑架 1
South 0.029321791690271177
官司 1
宮殿 1
幕僚 1
扶手 1
改組 1
昧 1
科雷兹省 1
麻雀 1
Galaxy 0.9276895765242359
MHz 0.9330662979188296
信号@@ 1
金像奖 1
委内瑞拉 1
审议 1
指导@@ 1
收容 1
白山 1
讲师 1
基人 1
巴格 1
庄镇 1
稷 1
第七批 1
素材 1
聚居@@ 1
開創 1
time 0.012478536025423417
中為 1
傳承 1
加裝 1
弯@@ 1
維斯@@ 1
英吉@@ 1
英國人 1
覆盖@@ 1
開頭 1
my@@ 0.42461644277303284
无机@@ 1
晤 1
標語 1
照射 1
祈祷 1
sa 0.0161953467083629
传感器 1
有线@@ 1
當場 1
迹@@ 1
夹 1
巴黎@@ 1
常年 1
為準 1
一手 1
候补委员 1
充当 1
女配角 1
慈善@@ 1
级数 1
艾迪 1
靴 1
182 1
一届 1
戊戌 1
林业@@ 1
呼和浩@@ 1
威尔逊 1
嫌疑人 1
德比 1
河北@@ 1
行军 1
逾@@ 1
Instagram 1
上书 1
圣诞@@ 1
奈特 1
有點 1
红十字@@ 1
魔術 1
Association 0.059464723034977816
Records 0.08042420257384963
占用 1
卫星@@ 1
西卡 1
运动@@ 1
马克斯 1
XP 1
付款 1
会合 1
小丑 1
投球 1
指代 1
浏@@ 1
男双 1
革命党 1
騙@@ 1
MS@@ 0.673114025099384
公認 1
性交 1
恤 1
礦物 1
ter 0.04775999775375787
É 1
一再 1
下议院 1
不清 1
出示 1
加斯@@ 1
局局长 1
特权 1
纖維 1
舍尔 1
1A 1
二樓 1
保祿 1
克朗 1
公交@@ 1
國小 1
工人@@ 1
抑制@@ 1
收藏@@ 1
栽@@ 1
礼仪 1
祈求 1
競技 1
表揚 1
高中@@ 1
172 1
ν 1
以供 1
在职 1
推举 1
板橋 1
约克 1
辜@@ 1
飘@@ 1
代尔 1
北投 1
百老 1
绎 1
輔音 1
酷刑 1
顯然 1
首张 1
一球 1
人民代表大会 1
初選 1
替換 1
縣治@@ 1
英九 1
諸如 1
181 1
代言 1
依附 1
容納 1
布鲁斯 1
影版 1
有史 1
民法 1
电荷 1
福岡縣 1
西周 1
鄭月 1
CT 0.7663321029407987
中华人民共和国国务院 1
乏@@ 1
外來 1
施泰@@ 1
智力 1
瞬間 1
谈话 1
開闢 1
95% 1
破碎 1
舉動 1
變遷 1
鈣 1
鑿 1
齣 1
三人@@ 1
動脈 1
因為@@ 1
重金 1
骨架 1
凭@@ 1
吟 1
損傷 1
歡樂 1
远征 1
阿里山 1
顺位 1
印地安人 1
对面 1
干預 1
织 1
钱币 1
參照 1
吸 1
接入 1
现时 1
CEO 0.34150566104024677
Te@@ 0.1259145912272397
傑克森 1
入學 1
劲 1
川家康 1
布吕@@ 1
廣域 1
形勢 1
斯威夫特 1
樞紐 1
解救 1
邑@@ 1
康拉德 1
教导 1
海事 1
立案 1
譚 1
踏上 1
单打 1
官话 1
巴托 1
积累 1
腊@@ 1
至尊 1
苷@@ 1
頑@@ 1
微波 1
患病 1
看待 1
矿业 1
維拉 1
貨車 1
靡 1
196 1
Ad@@ 0.11587712816322955
北歐 1
省略 1
第十七 1
萨克森州 1
隨着 1
三國@@ 1
品质 1
圣公会 1
天竺 1
帶著 1
常務@@ 1
看见 1
科羅拉多州 1
缩小 1
菁 1
侵蝕 1
初级@@ 1
命中@@ 1
布兰@@ 1
擱@@ 1
本剧 1
橡膠 1
燦@@ 1
社会学 1
解密 1
人以 1
凱文 1
友誼 1
发言 1
專門@@ 1
怎么 1
搏@@ 1
朝鲜战争 1
越過 1
下放 1
关税 1
即時 1
国有@@ 1
多达 1
梁振英 1
海路 1
老年人 1
芮@@ 1
莫尔 1
蒙大@@ 1
警員@@ 1
遙 1
Store 0.7989765056705715
す 1
分站 1
辩护 1
代史 1
兴市 1
姪 1
岔 1
建物 1
惱 1
時則 1
簧@@ 1
说话 1
馈 1
上半年 1
乘法 1
凯瑟琳 1
拳击 1
新华社 1
空调 1
茉@@ 1
交通大学 1
历时 1
压器 1
微弱 1
月面 1
維克 1
480 1
垒 1
定制 1
尼科 1
普罗@@ 1
正當 1
造就 1
入学 1
吟@@ 1
唐山 1
解析@@ 1
0.7 1
ts 0.04134777697340899
況@@ 1
遵 1
锥@@ 1
212 1
not 0.00895796842737411
周六 1
大气@@ 1
大田 1
枫@@ 1
碳酸 1
薩斯 1
词典 1
部首 1
驰 1
单个 1
大坝 1
布洛@@ 1
海因里希 1
總結 1
切断 1
國務@@ 1
發電機 1
驻守 1
189 1
仲裁 1
传承 1
克隆 1
太平洋@@ 1
家康 1
法老 1
警隊 1
陷落 1
‰ 1
大城 1
提速 1
歷代 1
运载火箭 1
三维 1
彈匣 1
敘 1
海盗 1
统称 1
达州 1
Ph@@ 0.17970491755454263
Play 0.35302254608900513
二是 1
回忆@@ 1
学说 1
打工 1
方可 1
煉@@ 1
球形 1
磐@@ 1
萊特 1
任用 1
协调@@ 1
反覆 1
幾天 1
强奸 1
油田 1
焦点 1
競技場 1
芝加哥@@ 1
虧@@ 1
身長 1
遊樂場 1
高昂 1
300@@ 1
被困 1
詞語 1
輔導 1
陆军@@ 1
骨頭 1
IGN 0.6331249939940863
MO 1
位處 1
妓女 1
居所 1
棺 1
馳@@ 1
一属 1
此為 1
死神 1
濠 1
熱烈 1
玄武@@ 1
萧 1
计算机科学 1
遴@@ 1
選舉@@ 1
10000 1
三十五年 1
交接 1
無數 1
看守 1
职权 1
親自@@ 1
修院 1
别的 1
和歌 1
甦 1
考证 1
街头 1
鐘獎 1
北港 1
吞吐量 1
多爾 1
已經@@ 1
後才 1
擅自 1
生性 1
生會 1
短短 1
音節 1
切斯 1
劳伦斯 1
劾 1
完毕 1
微分方程 1
最年 1
碉@@ 1
te 0.026821128888228993
you 0.09381742940957988
夺回 1
庸@@ 1
晶体@@ 1
科維奇 1
蘭德 1
限度 1
麒麟 1
45.@@ 1
North 0.03521104245357985
免去 1
加利福@@ 1
小说@@ 1
权益 1
殲@@ 1
沙灘 1
海里 1
現金 1
第十五 1
纠纷 1
表中 1
覽@@ 1
電器 1
238 1
之內 1
嘉義 1
擅@@ 1
禁忌 1
第一百 1
聰明 1
音频 1
ini 0.09193315885127236
十四@@ 1
瓦河 1
脊椎@@ 1
調任 1
颖@@ 1
BL 1
Qu@@ 0.09438026489935301
三元 1
吞并 1
嘻@@ 1
微型 1
撃 1
结尾 1
骂 1
鬍 1
鲤@@ 1
事发 1
亞裔 1
無罪 1
瓦兹 1
突襲 1
線路 1
聪 1
︰ 1
340 1
PE@@ 0.8419133261576934
军事委员会 1
咀 1
委派 1
此片 1
濮@@ 1
界別 1
逼迫 1
音乐节 1
Best 0.08993922556778004
Le 0.008538993656382384
元旦 1
动物@@ 1
基因组 1
岡縣 1
楷@@ 1
濁@@ 1
瑤 1
甲午 1
終極 1
纳州 1
語族 1
1812 0.35983125873855903
EST 1
卡西@@ 1
暱 1
産 1
石勒苏 1
考官 1
賽場 1
DE 0.6135241965081034
じ 1
咽@@ 1
審團 1
杆菌 1
纳米 1
陋 1
亞瑟 1
分級 1
尔河 1
正義 1
法則 1
混双 1
薰 1
进会 1
93.@@ 1
噸@@ 1
情境 1
武警 1
署名 1
XX 0.18953594573419644
买下 1
外海 1
推官 1
百大 1
3.1 1
分明 1
卡塔尔 1
摇滚@@ 1
杜省 1
环线 1
皇位 1
Black 0.08399905449328934
兼职 1
样式 1
牛頓 1
迎娶 1
酋@@ 1
Mr 0.48805196943594586
工匠 1
櫻 1
正线 1
中舉 1
免受 1
坑底 1
朽 1
蒋 1
電氣@@ 1
99.@@ 1
北段 1
却@@ 1
尼古@@ 1
座落 1
恰好 1
放下 1
无产阶级 1
殖民@@ 1
別名 1
卢瓦省 1
哺乳动物 1
归类 1
第六届 1
譯作 1
阿勒 1
1843 0.41445560250131847
产值 1
各大@@ 1
坟@@ 1
多處 1
夢想 1
察院 1
布瓦 1
视角 1
兩大@@ 1
回憶@@ 1
埃斯特 1
瀏覽器 1
臘@@ 1
Max 0.1569599738305055
之类 1
乌尔@@ 1
渦@@ 1
祠堂 1
风波 1
一次@@ 1
佔地 1
勒索 1
千歲 1
外援 1
激起 1
青州 1
傾 1
女作 1
橄欖球 1
毫 1
种群 1
七名 1
共识 1
大象 1
實際@@ 1
小麦 1
尼察@@ 1
建武 1
此一 1
管弦 1
葛拉@@ 1
衰變 1
骨灰 1
中称 1
南京大学 1
引人@@ 1
栏@@ 1
法国人 1
變體 1
較長 1
並會 1
中等@@ 1
佛羅@@ 1
击落 1
梅森 1
自然界 1
补助 1
Sony 0.4007278943413475
安达@@ 1
征伐 1
海尔 1
先祖 1
区域性 1
尼泊爾 1
岡山 1
指稱 1
旁白 1
贵阳 1
WWE 0.4093528142643627
几 1
反感 1
否决 1
平板 1
汉斯 1
this 0.009804461285972952
侬 1
停办 1
礙@@ 1
祭拜 1
纜@@ 1
臭 1
进出 1
勁歌 1
环保 1
纳尔 1
達尼@@ 1
鈕 1
KO@@ 1
交汇处 1
仅存 1
以至于 1
入围 1
利特 1
南段 1
執行@@ 1
搬到 1
濃 1
知州 1
砂岩 1
绣 1
维利 1
西魏 1
GT@@ 0.7821147836581119
梅州 1
糯@@ 1
錄片 1
預計@@ 1
實驗@@ 1
根源 1
气压 1
水路 1
江北 1
海岸线 1
精密 1
1814 0.3922015386256367
Mc@@ 0.08537772367994734
关心 1
典籍 1
岐阜 1
布莱恩 1
氧气 1
浦东 1
特技 1
用户@@ 1
223 1
em@@ 0.05334585655394524
交互@@ 1
传达 1
国家足球队 1
學員 1
性感 1
约束 1
車頭 1
鄉鎮 1
MVP 0.9280093982278083
佣 1
候車 1
先驱 1
南太平洋 1
工場 1
整车 1
曼努@@ 1
曼哈顿 1
西門 1
僱 1
全国性 1
小组赛 1
崇德 1
戴维 1
泰國@@ 1
浜 1
答应 1
菩萨 1
野心 1
两地 1
四种 1
柯南 1
貧窮 1
鳳凰 1
吉布@@ 1
外国语 1
搞@@ 1
松本 1
海濱 1
航天局 1
1842 0.3929981183234862
上级 1
全体会议 1
分入 1
同時@@ 1
塔爾 1
感動 1
永昌 1
海德 1
濫用 1
玛利亚 1
門檻 1
冷战 1
州立大学 1
渥@@ 1
相片 1
空地 1
谨@@ 1
名家 1
楔@@ 1
潞@@ 1
百科@@ 1
相对论 1
計師 1
铃 1
Lee 0.11049556955253578
山林 1
憤 1
摄政 1
柳州 1
比利亚 1
直系 1
第一台 1
脆 1
變星 1
酬@@ 1
187 1
克里斯托弗 1
古今 1
離職 1
RT@@ 0.6697600102137827
ity 0.06809702355825466
所長 1
罰@@ 1
蒸 1
薹 1
警报 1
po@@ 0.07656207122218445
伊朗@@ 1
北越 1
同一天 1
多种@@ 1
女座 1
極高 1
煥 1
給出 1
维基百科 1
缺点 1
罗斯@@ 1
自愿 1
重慶市 1
鑲 1
601 1
不宜 1
小野 1
平均值 1
棱 1
減低 1
略有 1
直达 1
總部設 1
類學 1
X射线 1
举重 1
加重 1
容积 1
Com@@ 0.10117025737186343
东晋 1
京劇 1
前景 1
卡罗来纳州 1
尺@@ 1
峽谷 1
條紋 1
機型 1
烟台 1
航运 1
較少 1
凸 1
古斯 1
外郎 1
層次 1
布林 1
当今 1
近现代 1
邮票 1
防衛@@ 1
Pro@@ 0.11664787027563872
俄語 1
則由 1
嵌入 1
接收@@ 1
精力 1
精美 1
紗@@ 1
纖@@ 1
长沙市 1
首脑 1
驾 1
47.@@ 1
多月 1
故乡 1
水电站 1
汉武帝 1
经营@@ 1
萌 1
雁 1
九個 1
加之 1
国营 1
扁平 1
无论是 1
逃生 1
雇员 1
預算@@ 1
177 1
no 0.010743494737328933
免除 1
召喚 1
埃拉 1
希拉 1
新聞台 1
海豹 1
獻給 1
芷@@ 1
起義@@ 1
避難 1
阿格 1
CH 0.9169747777023673
李自成 1
自由党 1
铭@@ 1
ROM 1
一戰 1
克爾@@ 1
国内外 1
成祖 1
文宗 1
Don 0.1261378042879365
之妻 1
最低@@ 1
枣@@ 1
试点 1
陵园 1
ã 1
东莞 1
侨 1
國民大會 1
大洲 1
慣例 1
法王 1
绒@@ 1
转型 1
造反 1
务局 1
女演員 1
抗生素 1
新星 1
科院 1
si@@ 0.1123452687580766
一刻 1
上杉@@ 1
会面 1
区长 1
徹@@ 1
狩猎 1
盧森堡 1
降級 1
不算 1
台地 1
弗兰@@ 1
托爾金 1
第一本 1
隔日 1
ô 0.7968606375385224
两支 1
之變 1
佣@@ 1
半導體 1
参议 1
售票@@ 1
太傅 1
存储@@ 1
模組 1
湖水 1
牲畜 1
皇太@@ 1
第十届 1
co@@ 0.0487512303817509
大同@@ 1
小聯盟 1
軍長 1
逃脫 1
高效 1
197 1
430 1
キ 1
三十六 1
从中 1
兇@@ 1
工藝 1
独自 1
石灰岩 1
羧@@ 1
410 1
Kong 0.16137816579066439
ator 0.09124398491429091
丹娜 1
夜市 1
居家 1
德意志@@ 1
抨擊 1
水解 1
紀律 1
覓 1
174 1
反坦克 1
專頁 1
年老 1
弯曲 1
灌 1
蔓@@ 1
重奏 1
世上 1
伽利略 1
倡議 1
加德 1
升入 1
半數 1
吉亞 1
回覆 1
大戰@@ 1
強行 1
洪都拉斯 1
瞻@@ 1
西村 1
面体 1
UE 1
冷戰 1
希斯 1
弈 1
汕 1
起伏 1
起火 1
To 0.0913392046831739
刪@@ 1
复活 1
港幣 1
特蘭大 1
荣耀 1
解雇 1
語法 1
預警 1
不屬 1
执行官 1
盾牌 1
续集 1
遍及 1
首週 1
Henry 0.07062255932846973
Jean 0.044212845904956714
RAM 1
Su@@ 0.1292928374221147
ur 0.09823186406032523
忽必烈 1
郵政 1
vs 0.7949977748936242
升空 1
嬰 1
拉脱维亚 1
涅夫 1
湖廣 1
玉縣 1
监察@@ 1
緬甸@@ 1
SP 0.6922793117352645
光线 1
哈赤 1
处分 1
散射 1
海邊 1
特地 1
评审 1
诞@@ 1
之力 1
低下 1
佛教@@ 1
挑選 1
演藝圈 1
一個屬 1
佬 1
外交部长 1
該島 1
迪瓦 1
那時 1
京都市 1
兴县 1
墨爾@@ 1
委員會@@ 1
戈斯 1
扶梯 1
消化@@ 1
重臣 1
開墾 1
Internet 0.18390808672911507
出租车 1
剑桥大学 1
十個 1
國歌 1
板球 1
縣份 1
这条 1
逃脱 1
隘 1
代理人 1
史记 1
圣保罗 1
安德魯 1
猷 1
空白 1
籃球隊 1
統稱 1
該鎮 1
连载 1
228 1
DB 0.6557213398536946
中會 1
傳達 1
光源 1
墊 1
威克 1
尼亞人 1
征收 1
斡@@ 1
果实 1
水分 1
第一首 1
義為 1
羲 1
讯@@ 1
迪亞 1
遏@@ 1
風季 1
城牆 1
大业 1
烦 1
甘蔗 1
租賃 1
羅斯@@ 1
裳 1
鳍 1
120@@ 1
UC@@ 0.8818096832854113
尘@@ 1
幼蟲 1
施密特 1
由美國 1
說服 1
Envir@@ 1
交互 1
卵形 1
反對@@ 1
塢 1
年來 1
校董 1
首輪 1
Mac@@ 0.11702114555594624
ha 0.032126120706158987
参选 1
史书 1
承建 1
搁@@ 1
死于 1
皂 1
305 1
乔木 1
分量 1
卫兵 1
完整@@ 1
瑙@@ 1
福爾@@ 1
莫尔@@ 1
设想 1
饥荒 1
tr@@ 0.052581637972262715
っ 1
么 1
五星 1
史考特 1
夭@@ 1
膺 1
駝 1
de@@ 0.048911065107804595
中场 1
之命 1
人將 1
哆 1
大哥 1
尼昂 1
明史 1
朋 1
江泽民 1
稀有 1
網際 1
通航 1
閔@@ 1
非洲@@ 1
首日 1
169 1
My@@ 0.2612656243707847
則稱 1
德市 1
會有 1
洛桑 1
狸藻 1
萊茵 1
關卡 1
鲁豫 1
ro@@ 0.0684203551679888
利奥 1
大修 1
清華大學 1
滋 1
预留 1
凹 1
加里@@ 1
安门 1
幽州 1
德温 1
本影 1
薩克森 1
饮料 1
3A 1
不慎 1
亨特 1
人民公社 1
充分@@ 1
南岛 1
改元 1
日落 1
机关@@ 1
杀人 1
着陆 1
逗留 1
大炮 1
屬的 1
废止 1
戰鬥中 1
扔 1
辦公 1
還原 1
互 1
国际象棋 1
建新 1
悟空 1
橙 1
此人 1
浑 1
訂定 1
跡@@ 1
路德维希 1
馬爾@@ 1
bi@@ 0.060871987764559925
ler 0.04848609324580405
to@@ 0.09034163487456283
优点 1
册封 1
國安@@ 1
日舉 1
胺@@ 1
隊成員 1
共产国际 1
凤凰@@ 1
國子@@ 1
團的 1
岔@@ 1
战死 1
爺@@ 1
福布斯 1
葡萄糖 1
历经 1
磺 1
诊 1
财政收入 1
越国 1
高官 1
低成本 1
保送 1
阮朝 1
IX 0.3255144261615408
副处长 1
受限 1
屯門@@ 1
晟 1
檀 1
氛 1
生物学家 1
磐 1
绰@@ 1
获得者 1
葡萄牙人 1
ans 0.025167159527439958
佔轄區 1
保住 1
大溪 1
奚@@ 1
持续@@ 1
皇冠 1
维吾尔族 1
裝設 1
賞識 1
Steam 1
亲属 1
处在 1
宁夏回族自治区 1
栖 1
沼泽 1
票數 1
粉碎 1
袖 1
下层 1
更高 1
球面 1
粵 1
苑@@ 1
英國國會 1
計算機 1
辣椒 1
逵 1
驕@@ 1
六大 1
协同 1
花瓣 1
之母 1
以防 1
前部 1
实例 1
德島 1
畅 1
缅 1
评分 1
貸 1
區議員 1
友善 1
土城 1
城下 1
安第@@ 1
格朗 1
滄@@ 1
番禺 1
身材 1
不一 1
人文@@ 1
倡导 1
小島 1
苟@@ 1
つ 1
不料 1
功效 1
国公 1
威利 1
纺织@@ 1
詹 1
金時 1
孫子 1
彼得堡 1
械@@ 1
济南市 1
蜡@@ 1
HBO 0.9664898364707492
United 0.0162641146726979
ViuTV 1
並用 1
乡级 1
亞太@@ 1
倦 1
古籍 1
史記 1
国人 1
服从 1
第四届 1
约国 1
茄@@ 1
著名@@ 1
進化 1
阿尔伯特 1
193 1
м 0.05366020654414357
一街庄 1
加泰@@ 1
旅游业 1
莫桑@@ 1
触 1
里安 1
金球 1
SI@@ 0.6819815744636983
吸入 1
愛丁堡 1
接續 1
欧拉 1
虚拟@@ 1
訂購 1
ミ 1
人民党 1
代价 1
国民议会 1
地標 1
塞勒 1
威爾斯@@ 1
燮 1
貝拉 1
青藏@@ 1
44.@@ 1
Cl@@ 0.19456143528144992
保全 1
斯特拉斯堡 1
留学生 1
盛大 1
罗伯@@ 1
美聯 1
這使 1
ISBN 1
PP@@ 0.9229043477233262
三河 1
卧 1
受體 1
女童 1
帕特里克 1
足联 1
隨之 1
0.9 1
多以 1
布达@@ 1
捕食 1
灵顿 1
阪神 1
體現 1
佩德 1
媒体报道 1
江区 1
海王星 1
秘书@@ 1
近親 1
馆长 1
AB 0.4745545783099281
亚特兰@@ 1
从小 1
会堂 1
偕 1
冻 1
埃塞 1
奇妙 1
民党 1
經濟部 1
遺憾 1
金额 1
CS@@ 0.5335992201478091
Up 0.2542971985329945
二氧化@@ 1
地勢 1
女真 1
芸 1
西岛 1
距離@@ 1
中常 1
伊万 1
周遭 1
廣播劇 1
朱利安 1
科恩 1
911 1
Girl 0.3216584486898023
天宝 1
康斯坦丁 1
挫 1
探險@@ 1
注释 1
烏爾@@ 1
玩笑 1
警示 1
高压 1
ti 0.1133979721091715
交通运输 1
人中 1
地牙哥 1
界线 1
破解 1
科西@@ 1
锅 1
代理@@ 1
巴拿@@ 1
录音室 1
戈登 1
投射 1
挤 1
推舉 1
正模 1
淘汰@@ 1
运营商 1
逆轉 1
這份 1
這年 1
過海 1
兑@@ 1
抵達@@ 1
本田 1
蘇州 1
We 0.14109963000766002
串流 1
国际足联 1
土木 1
摄像@@ 1
有不同 1
歌剧院 1
歷時 1
递 1
钊 1
下屬 1
巫 1
干旱 1
并不@@ 1
樵 1
沙拉 1
深化 1
自由式 1
Unix 1
主线 1
族裔 1
此書 1
犹太教 1
論點 1
飛往 1
马赫 1
46.@@ 1
城乡 1
山羊 1
歲@@ 1
理科 1
自動車 1
译名 1
贿 1
3.8 1
DD 1
兇手 1
复合 1
寅@@ 1
弗利 1
托洛@@ 1
東非 1
欠缺 1
江縣 1
灣道 1
疯狂 1
载人 1
錄得 1
冶 1
大理寺 1
擦音 1
滞@@ 1
煞@@ 1
聲援 1
裁决 1
西雅圖 1
高科技 1
400@@ 1
Ac@@ 0.1364571191793345
Joseph 0.06512807175907358
亚特 1
滤 1
璽 1
阿密 1
创业 1
北欧 1
博爾@@ 1
喪生 1
四角 1
國安法 1
毁灭 1
游戏机 1
瀋 1
自助 1
自行@@ 1
西南面 1
213 1
δ 1
人隊 1
新設 1
波長 1
等国 1
索夫 1
蹄 1
轮渡 1
面世 1
南南西 1
器具 1
存器 1
汐@@ 1
特赦 1
脂肪@@ 1
賭場 1
Martin 0.06958884457419591
別人 1
字符串 1
抵御 1
福利@@ 1
购物 1
骨折 1
具体@@ 1
安息 1
悟@@ 1
斐濟 1
新华@@ 1
曾孙 1
电阻 1
北斗 1
大都会 1
山站 1
潛力 1
芭芭拉 1
馬力 1
佳績 1
兇 1
德宗 1
渣 1
研究成果 1
耐 1
認為@@ 1
贝尔福 1
阵营 1
コ 1
体长 1
強風 1
拉塔 1
是繼 1
泄露 1
纳斯@@ 1
醫藥 1
τ 0.869936168840313
侵略@@ 1
保管 1
吨@@ 1
東西@@ 1
特意 1
证人 1
門將 1
防御@@ 1
全日 1
加速度 1
壓區 1
无线 1
步驟 1
爬行 1
门口 1
齿轮 1
八旗 1
叢 1
奠基 1
婆羅@@ 1
宣帝 1
富含 1
戏曲 1
留有 1
移到 1
稚@@ 1
約旦 1
获得@@ 1
中国共产@@ 1
公交车 1
坞 1
山南 1
承接 1
整治 1
热门 1
秦始皇 1
結尾 1
镍 1
Mon@@ 0.07581584164038854
中国人民政治协商会议 1
主板 1
城西 1
完全相同 1
甥 1
萃 1
西斯@@ 1
事业@@ 1
侗@@ 1
僧侶 1
接連 1
歷來 1
爱国@@ 1
監控 1
表決 1
談話 1
Bi@@ 0.10317009883200366
会议@@ 1
前秦 1
噴射 1
德尔@@ 1
拍照 1
溪县 1
濂 1
皮划艇 1
被害@@ 1
贯穿 1
防護 1
小項 1
指揮部 1
水雷 1
研討@@ 1
竿 1
躺 1
218 1
Win@@ 0.2769500972577082
ve 0.013516917578332606
巴比@@ 1
昨@@ 1
迟 1
酸钠 1
179 1
公认 1
卷入 1
壕 1
尼卡 1
獨家 1
研究生院 1
编译 1
高新@@ 1
引來 1
新幹線 1
泰安 1
科学研究 1
而將 1
鋼鐵 1
NT@@ 0.9406346184350518
凶 1
四十四年 1
濫@@ 1
而出 1
靂 1
食邑 1
下落 1
亚当 1
俾斯@@ 1
光速 1
区委 1
呆 1
島市 1
粉嶺 1
臉書 1
蒐集 1
近地 1
選民@@ 1
合適 1
平和 1
有序 1
消化 1
納州@@ 1
鬱@@ 1
哥罗德 1
战事 1
条纹 1
首周 1
年級 1
林家 1
簽名 1
约旦 1
藏有 1
配方 1
阐述 1
鰻@@ 1
EC@@ 0.7284627543803192
勐@@ 1
厄瓜 1
四十一年 1
壢 1
学业 1
恒大 1
扣押 1
教練@@ 1
普朗克 1
海底隧道 1
男演员 1
终点站 1
继承@@ 1
屏障 1
慶典 1
豐田 1
阿萨@@ 1
50.@@ 1
依赖于 1
克里克 1
水球 1
特产 1
绑 1
谟 1
醫學@@ 1
乐园 1
偵查 1
区划 1
可夫 1
墨尔@@ 1
大學士 1
晋察@@ 1
普敦 1
謨 1
诗集 1
都统 1
麥隆 1
天花 1
汽车@@ 1
獎禮 1
西欧 1
千余 1
基因@@ 1
境界 1
學生會 1
寰 1
小小 1
普頓 1
迪亞@@ 1
铭文 1
ing@@ 0.08525968331964365
伊拉 1
列寧 1
募集 1
和歌山 1
埋伏 1
大力@@ 1
完全@@ 1
密西@@ 1
投放 1
投稿 1
比爾@@ 1
礦業 1
突擊@@ 1
公務@@ 1
喬治亞 1
文书 1
肯特 1
饥@@ 1
鲨@@ 1
BB 0.9193508498103339
代管 1
停火 1
发表声明 1
建中 1
洙 1
菅@@ 1
二十一 1
全場 1
市委常委 1
愉快 1
掘 1
潑 1
瞻 1
顽@@ 1
佚 1
八卦 1
子孙 1
归国 1
无线@@ 1
槟城 1
毛里@@ 1
特聘 1
谐@@ 1
軍營 1
达赖 1
采购 1
医师 1
噪 1
外野手 1
帐 1
航海@@ 1
三立 1
兩間 1
声母 1
实时 1
導入 1
战机 1
数千 1
沃斯 1
港区 1
潍@@ 1
牛津大学 1
禪師 1
軍將 1
零星 1
埃罗 1
堇 1
學堂 1
星空 1
河县 1
现名 1
航天器 1
衣物 1
鎖定 1
鑑定 1
陈述 1
下达 1
刚果 1
文史 1
有過 1
槃 1
猿@@ 1
论证 1
饋 1
三间 1
但此 1
学院@@ 1
思想家 1
瓦克 1
篩@@ 1
船队 1
鋁@@ 1
雕塑@@ 1
頸部 1
CP@@ 0.4838917283552731
Grand 0.05508222975956468
IUCN 1
你們 1
克威尔 1
教學@@ 1
貨運 1
号码 1
哪些 1
堂區 1
多方 1
护卫@@ 1
普顿 1
校歌 1
英雄@@ 1
首名 1
高速@@ 1
Do@@ 0.1656811304289024
Hello 1
彻斯特 1
查询 1
疗法 1
第一集 1
营业@@ 1
一對 1
三者 1
世界纪录 1
乙丑 1
关卡 1
军政府 1
懸 1
時事 1
梵文 1
特許 1
自達 1
輕小說 1
Hong 0.15624406399072324
丰县 1
众议员 1
兰科 1
景象 1
橇 1
池塘 1
隋文帝 1
1789 0.47724410412998947
1832 0.3782125437819207
三角@@ 1
攻略 1
斋@@ 1
涡轮 1
留校 1
護士 1
賣給 1
216 1
☆ 1
冗@@ 1
南接 1
夔 1
天啟 1
总领事馆 1
擦 1
轉而 1
辑@@ 1
黄金@@ 1
伊恩 1
征战 1
教员 1
现实主义 1
窩@@ 1
西行 1
詛咒 1
轉動 1
里程碑 1
og@@ 0.11507317092148195
奇特 1
強姦 1
撈 1
中興 1
微笑 1
會戰 1
Dis@@ 0.1293060652477269
冉@@ 1
几位 1
只用 1
合肥@@ 1
声调 1
嫻 1
徒刑 1
概括 1
炮火 1
阿拉巴马州 1
難者 1
雲林 1
B1 1
在野 1
季后@@ 1
开来 1
歸屬 1
里加 1
sur 0.008154159590034337
一個羅馬 1
东至 1
切斯特 1
担忧 1
非官方 1
303 1
九一@@ 1
出台 1
大公国 1
尼亚语 1
尼托 1
拉邦 1
段时间 1
赦 1
食材 1
186 1
^ 1
able 0.02693684836704785
up 0.013804342225474045
国土 1
柑@@ 1
獲選 1
美國空 1
美籍 1
聖誕 1
許可@@ 1
超自然 1
限量 1
陵县 1
se 0.0032041518754091208
一小部分 1
兖@@ 1
動量 1
古拉 1
暑@@ 1
澜 1
發表聲明 1
芋 1
融资 1
裁決 1
言中 1
開支 1
陨@@ 1
青铜 1
制得 1
同化 1
尔茨 1
理工大 1
省市 1
並不會 1
官府 1
弗朗西斯科 1
超音速 1
River 0.03991646241369311
咖@@ 1
宣宗 1
戒指 1
抗衡 1
芥@@ 1
通報 1
餉 1
加纳 1
宣统 1
家园 1
常規 1
德雷@@ 1
涡@@ 1
电力@@ 1
砸 1
親衛隊 1
迦太基 1
澈 1
荃@@ 1
蠕@@ 1
si 0.047343741202085766
兩國@@ 1
十分@@ 1
多媒体 1
将近 1
并用 1
旬 1
大中 1
推遲 1
政界 1
豪華 1
IE@@ 0.9412094641130841
二日 1
供给 1
刮@@ 1
合资 1
挑战@@ 1
深深 1
然不同 1
禾@@ 1
維吉尼亞州 1
赛区 1
鲨 1
中港 1
介于 1
伊麗莎白 1
公共汽车 1
战绩 1
王安@@ 1
睦@@ 1
草属 1
补偿 1
达科他州 1
金花 1
門口 1
電視節 1
飞往 1
Video 0.2577993423512969
克羅地亞 1
孛 1
枫 1
海省 1
艾滋病 1
薛 1
迈阿密 1
通俗 1
东欧 1
劲@@ 1
四天 1
格爾@@ 1
止步 1
爐@@ 1
益州 1
第三期 1
事前 1
位移 1
搏 1
电器 1
總冠 1
臂@@ 1
遣返 1
敞@@ 1
爵夫人 1
琮 1
粵劇 1
纷@@ 1
鈴木@@ 1
預言 1
华北@@ 1
反向 1
暴行 1
江山 1
濫 1
結合@@ 1
维克 1
衡阳 1
贷 1
262 1
噶尔 1
安慰 1
宪章 1
新田 1
緬 1
蝙蝠侠 1
赔@@ 1
ok 0.2117716070313337
体型 1
多拉 1
大器 1
实质 1
明州 1
盛名 1
遺傳@@ 1
my 0.11733292428899383
也门 1
国安 1
阻擋 1
乃木坂 1
新几内亚 1
民黨 1
水市 1
沽 1
这件 1
217 1
SD 0.7478098507163953
僖@@ 1
妃@@ 1
恐怖分子 1
瓦西 1
申报 1
越过 1
酋长 1
1835 0.35873090423652015
交响乐团 1
嘯 1
巴拿马 1
汙@@ 1
航空兵 1
蔭 1
鞑@@ 1
黑森 1
希米 1
星際 1
辽宁@@ 1
佐治 1
動物園 1
咤 1
羰@@ 1
蒜 1
青春@@ 1
先天 1
屏蔽 1
日光 1
牡丹@@ 1
泄 1
海县 1
北极 1
应用@@ 1
柔佛 1
獨裁 1
祉 1
開拓 1
飄@@ 1
1839 0.3654349493930425
3.4 1
Japan 0.06424420199280349
廖 1
马六甲 1
公开@@ 1
大马士革 1
巴斯蒂安 1
普林斯 1
模板 1
残留 1
聖地 1
袁世@@ 1
魄 1
卜勒 1
斯拉@@ 1
計劃@@ 1
變身 1
他州 1
哈尔滨@@ 1
意向 1
組裝 1
缪尔 1
地人 1
海棠 1
短途 1
該市 1
豚 1
吵 1
呼叫 1
展品 1
炫@@ 1
芮 1
雷诺 1
中村 1
作賽 1
精選@@ 1
腐敗 1
艏 1
苞 1
三届 1
凝 1
忧 1
意願 1
昭宗 1
ob@@ 0.0823136018739723
地产 1
埤 1
塔山 1
塞纳@@ 1
書面 1
缝@@ 1
西北面 1
资源@@ 1
反應@@ 1
名司 1
咎 1
接种 1
民主化 1
緝@@ 1
肯尼亚 1
荫 1
丑闻 1
专著 1
娛 1
小山 1
总领事 1
朕 1
東線 1
第四批 1
這兩種 1
骗@@ 1
高爾@@ 1
均匀 1
思想@@ 1
私家 1
鐵路@@ 1
鹿兒 1
不上 1
大国 1
樣本 1
永嘉 1
蒙哥 1
德县 1
渔业 1
資金@@ 1
通路 1
錐 1
em 0.06786215399466042
中国工农红军 1
全校 1
忍受 1
191 1
ani 0.09246402737070793
付費 1
国家元首 1
所羅門 1
支廳 1
新南 1
界定 1
地基 1
斛 1
斜坡 1
熊猫 1
西南方 1
俸 1
皮革 1
表態 1
西晋 1
Dr 0.5067632551391664
Radio 0.08821408935951398
嚇@@ 1
材質 1
笃@@ 1
视察 1
轉入 1
365 1
演繹 1
防卫 1
餅@@ 1
戊辰 1
斯特罗 1
湖廣@@ 1
重慶@@ 1
1801 0.44950237757487443
BR 0.816973778918673
劝说 1
化县 1
现行 1
苏区 1
醋 1
Lo@@ 0.1168499118268782
布鲁塞尔 1
格纳 1
Man@@ 0.07295375952110264
U21 1
卡梅@@ 1
1821 0.3767442192116314
й 0.04325870500589686
下層 1
抗体 1
木儿 1
變種 1
265 1
堰@@ 1
總獎 1
198 1
av@@ 0.06608006031558955
外側 1
憾 1
rpm 1
印度支那 1
流水 1
琵琶 1
神星 1
设法 1
動性 1
总指挥 1
1795 0.501670894036343
4.6 1
App 1
穴@@ 1
荷蘭人 1
1838 0.35446766416337167
个别 1
塌@@ 1
寵 1
渝@@ 1
献给 1
私人@@ 1
辐@@ 1
226 1
TP 0.9039091685546311
ς 0.803751729870906
一二 1
勝負 1
厝@@ 1
海军陆战队 1
綁@@ 1
諮@@ 1
3500 1
我要 1
擺脫 1
褚@@ 1
负担 1
SC 0.19581822573527066
ter@@ 0.05583550631378653
强档 1
樓層 1
百慕@@ 1
瞞 1
穫 1
铵 1
休假 1
多样 1
誘 1
一舉 1
三十三年 1
激发 1
唑 1
基础@@ 1
大校 1
孀 1
立大学 1
第七届 1
篠 1
罢 1
鳚 1
610 1
ner 0.054480375586651676
合作伙伴 1
孝宗 1
舱@@ 1
其時 1
田村 1
而生 1
La@@ 0.137140978811597
テ 1
消費@@ 1
钢铁@@ 1
勻 1
嫉@@ 1
北半球 1
堕@@ 1
烏拉圭 1
鍵盤 1
1806 0.3856597786074276
一條@@ 1
中國國家 1
便于 1
兰斯 1
庇护 1
勾 1
熵 1
鰈 1
1793 0.410614025972144
拨 1
祇 1
英文版 1
500@@ 1
凯特 1
勃兰@@ 1
枢 1
255 1
CG 1
乌拉圭 1
創校 1
唔 1
摔@@ 1
普利@@ 1
ナ 1
不多 1
首都@@ 1
升起 1
大甲@@ 1
庫斯 1
灶 1
锥 1
驼 1
232 1
Power 0.1895845114514082
射炮 1
銷售@@ 1
Smith 0.07618813085261948
卫军 1
纏@@ 1
腫 1
变动 1
李小@@ 1
球星 1
Er@@ 0.06322934988148214
ey 0.08212779126043893
th 0.06207333060382012
淇 1
源頭 1
薑 1
1836 0.3471153347887821
233 1
SNH48 1
京師 1
特维尔 1
蕉 1
This 0.01376810521477742
line 0.030961986642881315
凿 1
周期@@ 1
天国 1
親屬 1
郵票 1
删@@ 1
天启 1
婴 1
捞 1
質數 1
雇用 1
SL@@ 0.7303475493773269
开枪 1
垃@@ 1
大学士 1
虔 1
中島 1
尼派 1
撼 1
头号 1
支那 1
管弦@@ 1
酰胺 1
1792 0.46191864766690377
寄宿 1
谏 1
闢 1
km2 0.30694161951491256
沌 1
澱 1
酗@@ 1
闽 1
31.@@ 1
Ber@@ 0.07515367308069991
乂 1
瞭@@ 1
紗 1
隶@@ 1
Mor@@ 0.07227511061149425
侄 1
卸 1
诬@@ 1
嫔 1
竭@@ 1
PL 0.9737516228072919
ī 0.44353982707585743
叹 1
年来 1
炯@@ 1
199 1
Inter@@ 0.1031309419477173
戛@@ 1
湖州 1
溃 1
焕 1
維拉@@ 1
苏黎世 1
Blue 0.12874206017251116
山道 1
蘚 1
尼泊@@ 1
工人党 1
洛德 1
纯粹 1
躍 1
刁@@ 1
涯 1
翡@@ 1
4.0 1
竇@@ 1
NS@@ 0.5237011155715798
祠@@ 1
茵@@ 1
Youtube 1
忙@@ 1
鈔 1
LA 0.3064621227282609
News 0.13996087631653562
Switch 1
ET 0.855383529500731
愛達 1
樁 1
墾@@ 1
暮@@ 1
朱棣 1
194 1
249 1
ET@@ 0.7934946573945274
Ma@@ 0.08815133096206429
_@@ 1
謬@@ 1
ウ 1
暢@@ 1
热带@@ 1
衛門 1
鈍 1
中甲 1
妳 1
貴妃 1
IR@@ 0.5905541970501507
MD 0.5207852943308376
や 1
暑 1
薨 1
2D 1
GT 0.5538011136170397
拉多州 1
癮 1
稀 1
豔 1
ブ 1
宇宙@@ 1
檳@@ 1
活动@@ 1
鑰@@ 1
950 1
Be 0.328975948683958
渾@@ 1
揚州 1
昕 1
eg@@ 0.06632759721004657
瑶 1
蹈@@ 1
黄海 1
219 1
4.8 1
Har@@ 0.07689845922155511
剛好 1
布政@@ 1
苯基 1
打擊@@ 1
筠 1
貶 1
ι 0.6710132445951248
帧 1
宸 1
酱 1
镁 1
left 0.03345057707206474
廣播@@ 1
熱潮 1
縛 1
Tom 0.12252765680596178
煩@@ 1
马斯 1
巔@@ 1
南北@@ 1
妝 1
幌@@ 1
擠@@ 1
轎@@ 1
Network 0.1810283829392494
傭 1
携 1
炀@@ 1
甬@@ 1
粟 1
ant 0.026855597030603987
毕 1
1837 0.33294572865183586
275 1
ni@@ 0.09872085243833524
牽 1
777 1
Young 0.11387140139524832
斩 1
糞 1
躁 1
嬰@@ 1
樸@@ 1
汝 1
胚@@ 1
801 1
League 0.024180362697187437
擒@@ 1
篤@@ 1
57.@@ 1
尬 1
肝炎 1
俩 1
殭 1
Art 0.04902719192005071
倭 1
荧@@ 1
9000 1
棚@@ 1
RA 0.3657898970039345
喚@@ 1
摸@@ 1
ñ 1
だ 1
愁 1
釀 1
高松 1
格拉斯 1
遮 1
« 0.0030747454556319595
丑@@ 1
墾 1
瀉 1
炔 1
2A 1
od@@ 0.09173724275368521
谣@@ 1
5.1 1
West 0.032245544172145695
朵@@ 1
饑 1
眶 1
粤 1
耍 1
裙@@ 1
For@@ 0.10111669163170472
SQL 1
楨 1
701 1
掙@@ 1
殆@@ 1
砌@@ 1
脾@@ 1
307 1
440 1
倾 1
厅@@ 1
担 1
溧@@ 1
訝 1
贖@@ 1
醣 1
231 1
Str@@ 0.08611436261760863
大会@@ 1
悄@@ 1
螈 1
229 1
淋 1
綜 1
阐@@ 1
224 1
轍 1
空手@@ 1
State 0.027012215247388824
sg 1
サ 1
槟 1
1831 0.3594768705484259
务段 1
泪 1
idae 0.12756943649105038
嘗 1
秩@@ 1
姻 1
牒 1
琥@@ 1
繳 1
雉 1
Island 0.061890180130221656
Now 0.2827948412950588
era 0.02019182407727894
勿@@ 1
圾@@ 1
4.3 1
誣@@ 1
308 1
void 1
洼@@ 1
昱 1
書館 1
谨 1
se@@ 0.053720318264352716
氹 1
秃@@ 1
西班@@ 1
eb@@ 0.06672414176215204
森州 1
葆@@ 1
蟬 1
褒 1
飼@@ 1
HTML 1
251 1
ay@@ 0.09592685930426853
渚 1
绞@@ 1
1824 0.3992922492563798
6.2 1
640 1
哥伦@@ 1
阡@@ 1
il 0.0059634406950047885
蛋白@@ 1
輾@@ 1
Mobile 0.4587744014334986
ent 0.027761465220459733
1825 0.3795025640629624
Jump 1
吓 1
Sir 0.09300917609656437
耆@@ 1
Online 0.41144641661561077
邏 1
兌@@ 1
綸 1
靳@@ 1
306 1
妊@@ 1
Min@@ 0.12487404898828808
Top 0.1130542978986596
佛罗里@@ 1
仆 1
扫 1
粥 1
防禦@@ 1
驿@@ 1
7.62 1
BE 1
EC 0.44651070426728584
竭 1
蜗@@ 1
射线 1
﹐ 1
Cr@@ 0.11557416009752218
巩@@ 1
胖@@ 1
斯泰@@ 1
淇@@ 1
鉛@@ 1
嶋 1
海啸 1
蠅 1
Pr@@ 0.08983754329717696
彼 1
恥 1
绪 1
锯@@ 1
駭@@ 1
Si@@ 0.15389181533185722
UN 0.32751796848944487
co 0.04122199271271487
qu@@ 0.07141455989032988
渥 1
Core 1
RPG 1
政厅 1
票率 1
颂@@ 1
ale 0.0463196217056625
nm 1
执行@@ 1
诛@@ 1
轄市 1
les 0.002756656633274664
对外@@ 1
掷 1
Sp@@ 0.09175677547625256
游击@@ 1
婺@@ 1
盔@@ 1
壳@@ 1
抨@@ 1
Gr@@ 0.07193943095871624
戍 1
榔 1
欖 1
鍾@@ 1
锻@@ 1
07@@ 1
302 1
拉多@@ 1
泳池 1
糊 1
6.4 1
FA 0.2133824163574362
挤@@ 1
瞰 1
粹 1
09@@ 1
M2 1
net 0.17243872903954527
羚@@ 1
瑋 1
520 1
CI 0.6140101966443667
拌 1
謊@@ 1
Institute 0.0628213102363159
小平 1
He@@ 0.09495730850193357
厢 1
05@@ 1
毗 1
爱尔@@ 1
蘆 1
蚁 1
﹑ 1
1833 0.35100722910754373
io 0.102769882395267
檸@@ 1
row 0.1580592018816565
咪@@ 1
敖 1
闹@@ 1
FS 0.873651028444326
ek 0.09944004516230065
受害@@ 1
ω 1
1790 0.40728050421344775
CT@@ 0.7037299256021837
洽@@ 1
瑄 1
2.9 1
5.6 1
59.@@ 1
Home 0.1453095381642213
Mal@@ 0.06585173360460303
Plus 0.242902005812633
Python 1
S2 1
ei 0.12045384814513534
ム 1
檬@@ 1
憤@@ 1
韶 1
390 1
560 1
溢 1
69.@@ 1
膳 1
242 1
脖@@ 1
245 1
5.2 1
AA 0.35175421554632247
Production 0.1949623842498985
聊 1
豹@@ 1
六甲 1
撐 1
譽@@ 1
谭 1
克罗@@ 1
楓@@ 1
鲸@@ 1
Fi 1
哈萨克@@ 1
325 1
唸 1
燦 1
西藏@@ 1
鋪@@ 1
MT@@ 0.7810294578033499
峪@@ 1
ens 0.03980351448621532
now 0.02828652504953864
Asia 0.11378950482690696
垮@@ 1
1804 0.4559056263809689
1810 0.3545173921665593
Fe@@ 0.20008051691747308
エ 1
泼@@ 1
Bank 0.09370150963465772
プ 1
肤@@ 1
骏 1
Society 0.06058600894868699
ys 0.11647394879026587
ig@@ 0.0653885561545311
叻 1
拿破@@ 1
栈 1
魅@@ 1
227 1
惜@@ 1
英格@@ 1
廬@@ 1
讳 1
110@@ 1
5.8 1
ri@@ 0.06793422715019973
盼 1
荡@@ 1
驛 1
阿卜杜@@ 1
乌鲁木@@ 1
乎@@ 1
拉丁@@ 1
杏 1
羅馬尼亞 1
車場 1
285 1
Vista 0.791839472695126
硼 1
雳 1
膳@@ 1
饿 1
碟@@ 1
亏@@ 1
卦 1
法拉@@ 1
芸@@ 1
鯰@@ 1
媚 1
460 1
Jack 0.10631132915210538
攸@@ 1
ous 0.04915942810797015
慷@@ 1
轿@@ 1
ell 0.06069935124608771
畑@@ 1
ism 0.0709350691956637
仑@@ 1
匿@@ 1
庞 1
汾 1
out 0.01305048444408331
庐 1
摇 1
鋰 1
龕 1
Ho@@ 0.10508562394991967
萃@@ 1
蟾@@ 1
6.1 1
Dream 0.3917231073058413
IEEE 1
kh@@ 0.0885726418178916
哈迪 1
寡 1
残 1
窯 1
隋 1
摆 1
age 0.017361033781701455
垣@@ 1
縫@@ 1
XML 1
which 0.004046523834951994
CV 0.7441578041301283
伎 1
桩 1
煥@@ 1
砷 1
诈@@ 1
IL@@ 0.8639913882988207
no@@ 0.09791960269515765
239 1
悍 1
赎@@ 1
羈@@ 1
瀛@@ 1
陂 1
謎@@ 1
254 1
消费@@ 1
爽@@ 1
58.@@ 1
UR@@ 0.9424859895670984
ə 1
蛮@@ 1
飽@@ 1
PRO@@ 1
拐@@ 1
偕@@ 1
1799 0.49125059790579184
チ 1
昵@@ 1
诵 1
its 0.006245707037067942
CF@@ 0.4944204833495048
Research 0.09156212113131076
land 0.026790548528456744
冢 1
B2 1
撾 1
璜 1
94.@@ 1
GM 0.5414719043835777
UR 1
妒 1
有利@@ 1
Rock 0.09531772704113795
惕 1
鉅 1
311 1
琦@@ 1
踪@@ 1
嬌 1
憶@@ 1
醇@@ 1
1644 1
刹@@ 1
簇 1
bo@@ 0.06441249344954615
་ 1
韌@@ 1
暱@@ 1
獄@@ 1
篆@@ 1
韃@@ 1
EA 0.610302178312646
https 0.6430771761951787
殴@@ 1
318 1
Good 0.23370638951777567
Junior 0.15804198261443728
よ 1
詳 1
1809 0.4045667557247626
聆@@ 1
谊 1
234 1
グ 1
分类@@ 1
Vi@@ 0.11886697460001679
弯 1
Ag@@ 0.11864535411538203
S1 1
right 0.04946666272758371
鮨 1
澎@@ 1
知名@@ 1
赂 1
垫 1
筋@@ 1
901 1
ene 0.06877725955769809
厘@@ 1
柵@@ 1
Open 0.08532129826716128
par@@ 0.05211226630874446
放射@@ 1
衷@@ 1
遥 1
1776 0.5711592120123614
佥@@ 1
呀 1
舵@@ 1
pH 0.8303418231483672
栅@@ 1
贫 1
68.@@ 1
Sports 0.12952831792921982
Tour 0.061092871934645056
惩@@ 1
雌 1
ite 0.057247384983043374
1834 0.317895975777262
264 1
纳粹@@ 1
绅 1
530 1
涪@@ 1
600@@ 1
瀾 1
部曲 1
he 0.0031070475615065955
ly 0.041817441878650954
ニ 1
丕@@ 1
行榜 1
252 1
92.@@ 1
key 0.09444833528104485
1822 0.39388094382039446
540 1
Award 0.0483436383582831
Magazine 0.1988032164640967
相对@@ 1
閏 1
304 1
Billboard 0.1178527059353601
First 0.05539262009054681
伺@@ 1
5.7 1
FF@@ 0.6733700809861879
ko 0.08766454822752946
蛛@@ 1
轶@@ 1
3.9 1
580 1
Church 0.04485519505858562
勁@@ 1
勒省 1
8.1 1
Comic 0.702446320951793
乾隆@@ 1
旨@@ 1
缪@@ 1
241 1
Po@@ 0.09026990226063364
White 0.06664054668491415
蟬@@ 1
4.1 1
630 1
傻@@ 1
襪@@ 1
ac 0.10844363141309488
攤 1
西雅@@ 1
1813 0.33772045346432145
470 1
嫡 1
普鲁@@ 1
淞 1
T1 1
踩 1
C1 1
MAX 1
QQ 1
ee 0.10767140810620147
ist 0.004176926028616994
ung 0.03476777544692478
交叉@@ 1
皿 1
Bur@@ 0.08825782057562892
Night 0.15358082487237867
» 0.0027400291374964835
岱@@ 1
386 1
CN 0.9676210259977972
Cy@@ 0.3251858061227043
ov 0.09142731625436841
苛@@ 1
慘 1
歪@@ 1
け 1
苞@@ 1
LINE 1
osaurus 0.48811455763311523
廁 1
槐 1
1828 0.3453029216778117
286 1
デ 1
ャ 1
CM 0.6601783729723575
苏维@@ 1
訟@@ 1
辟@@ 1
饭@@ 1
Service 0.08382317106892681
蕙 1
蠢 1
嵐 1
葡 1
鷲 1
梧 1
鹦@@ 1
1826 0.36214822341211744
蘊@@ 1
詭@@ 1
Do 0.19996299057600894
掣 1
暇 1
葱 1
鉉 1
Mary 0.06697504022167548
ke 0.0583205581353225
埤@@ 1
246 1
攏 1
Channel 0.17600688675990267
CNN 0.8580382503694176
瀚 1
褶@@ 1
路军 1
Louis 0.04572921805098135
絨 1
Adobe 1
坳 1
窃@@ 1
常务委员会 1
逝@@ 1
Green 0.09123976447566047
贛@@ 1
720 1
晃@@ 1
湳 1
璟 1
For 0.03226469581594639
PE 0.8611966657274889
翎 1
跪 1
骄@@ 1
氓 1
酮@@ 1
ena 0.09864442175008349
ir 0.07626189264026931
俸@@ 1
剃@@ 1
框@@ 1
荫@@ 1
麼 1
肿 1
1819 0.3979265842838403
Your 0.2206285640724548
芜 1
钮 1
麴 1
懋 1
芦 1
Web@@ 0.38994720336627614
2025 1
岷@@ 1
澜@@ 1
玺 1
璞 1
邺 1
隴@@ 1
om 0.13146835334417042
鉀 1
CN@@ 0.4237520806624364
East 0.04024994186870939
兜 1
匝@@ 1
遗 1
263 1
バ 1
奄@@ 1
抗日@@ 1
榆 1
瘦 1
究@@ 1
5.3 1
Data 0.4356942120563865
ge 0.07886589878707029
ty 0.07010646945652037
冤 1
擂@@ 1
晏 1
1807 0.398743411458753
Cal@@ 0.09119662743508028
兗@@ 1
嗜 1
鄱@@ 1
鷗 1
um@@ 0.04273208405654086
擄 1
枕 1
滞 1
犁 1
1805 0.410357498761377
620 1
HTC 1
PP 0.5306276575374723
Ⅱ 1
丫@@ 1
艳 1
莹 1
诠@@ 1
魁北@@ 1
243 1
323 1
ja 0.07760518681292576
1794 0.41242712237954043
Visual 0.7668596568746912
楞 1
anus 0.22999659738029413
van 0.07376932713132016
俄亥@@ 1
吼 1
宠 1
1.0@@ 1
倩 1
Maria 0.06950213816126238
江省 1
滩@@ 1
稟 1
MB@@ 1
钉 1
De 0.025905890826412616
Point 0.1508781709075613
ki 0.09205193565950642
僚@@ 1
桢 1
謊 1
Act 0.06587571781280412
Arts 0.06683899644529256
Line 0.09592142155470094
貧 1
预 1
Is 0.17183310235748295
Ti@@ 0.15525260900566062
Corporation 0.11493716886262904
Sal@@ 0.08012112470952831
Sun 0.13419397480698042
哇@@ 1
4.7 1
78.@@ 1
吠@@ 1
噬@@ 1
玟 1
SR 0.2166110538508617
Science 0.08780465830906689
竊@@ 1
贖 1
SI 0.5637908380302425
償@@ 1
绸@@ 1
1808 0.36544502178939864
618 1
Sch@@ 0.035643988137628084
椒@@ 1
VII 0.19854391345098932
曳 1
史密@@ 1
妓@@ 1
瘋@@ 1
1791 0.4578076496107343
BT 0.8712790382469833
丞@@ 1
挾@@ 1
董事@@ 1
闹 1
я 0.04289670937423997
煞 1
脹 1
邮 1
ard 0.06177571503562983
灼@@ 1
秒@@ 1
翊@@ 1
靶 1
6.7 1
Her@@ 0.07089103677544076
ff 0.15832678387333116
莞 1
240@@ 1
To@@ 0.12220926316665157
ex 0.09975638348642683
銓 1
1829 0.33661571170983395
5.4 1
iPad 1
蛺@@ 1
蝸@@ 1
衬@@ 1
谓@@ 1
253 1
Ser@@ 0.09555857044862427
public 0.024743732695415403
媛@@ 1
忻@@ 1
撓 1
VI 0.14353749670112162
婿 1
璇 1
瘋 1
4.4 1
拇@@ 1
昔 1
312 1
680 1
SL 0.5698690904093316
General 0.030897343962295595
have 0.006863620535312222
š 0.4901751255183709
克萨@@ 1
1796 0.45016951104965347
ni 0.0492676285310287
│ 0.12341674410853568
倩@@ 1
愧 1
擅 1
椿 1
紐約@@ 1
維吉@@ 1
266 1
GS 0.6286351153345318
锈@@ 1
6.8 1
Ki@@ 0.20187504666805348
偿 1
昼@@ 1
蔥 1
訶@@ 1
钞 1
孢 1
纽约@@ 1
膀 1
st 0.09342231592565248
分之@@ 1
妲 1
飪 1
EP@@ 0.6068282455910844
Edward 0.08158743164485673
ari 0.09377103158576494
斂 1
斧@@ 1
査 1
螂 1
Cre@@ 0.14972444505122973
E3 1
So@@ 0.1085907769411362
play 0.032397223606809744
暂 1
毓 1
Game@@ 1
俭 1
基隆@@ 1
賠@@ 1
315 1
COM 0.9210878828303665
eri 0.1685110747525219
僻 1
喊@@ 1
悅@@ 1
楞@@ 1
洩 1
矯@@ 1
詐@@ 1
1823 0.37898187545031603
236 1
per 0.03137377195926042
κ 0.7510382464917181
赢 1
鼩 1
7.2 1
El 0.007051454366786568
ep@@ 0.1032530402546499
ュ 1
271 1
Station 0.08701689961366528
ium 0.18518030268212834
孟加拉@@ 1
睞 1
肇 1
150@@ 1
弗雷@@ 1
擾@@ 1
黛 1
叭 1
競技@@ 1
79.@@ 1
ala 0.0878100320845716
ino 0.06187927510359571
姨@@ 1
迭 1
1818 0.33748017919768974
GPS 0.9509009334429557
den 0.0025617740546999257
湧 1
芥 1
007 1
244 1
ACE 1
迺@@ 1
雏@@ 1
况@@ 1
叮@@ 1
妆 1
斯大@@ 1
襯@@ 1
负责@@ 1
鳅 1
281 1
282 1
Bal@@ 0.06645060570087322
Mag@@ 0.10206350831205006
SN@@ 0.5772018786521815
囚@@ 1
敞 1
BE@@ 1
YG 1
ense 0.16391658980910576
癱@@ 1
Battle 0.08771788816134292
MG 0.6417251670875166
疾人 1
鄺@@ 1
饷 1
257 1
г 0.029590756184526074
绣@@ 1
鸞 1
08@@ 1
1775 0.5179517914603069
248 1
1803 0.3393418725348026
匆@@ 1
焘 1
LOVE 1
ot 0.07155222345808404
ut@@ 0.07700261192204959
弥 1
Chinese 0.06429086907834292
Super@@ 0.1299498586056969
儉 1
喃 1
MW 0.49960697694043765
ィ 1
查德 1
禍@@ 1
诈 1
Mozilla 1
scope 0.38403055292251415
发布@@ 1
攀 1
趋 1
237 1
CL 0.6645561198209271
彥@@ 1
比利@@ 1
洮@@ 1
醜@@ 1
1802 0.3813393886449926
338 1
厢@@ 1
Mnet 1
昶 1
纂@@ 1
鏢 1
憶 1
绑@@ 1
龛 1
1816 0.3379301774771661
9.5 1
丁堡 1
mol 1
佟@@ 1
涿@@ 1
美術@@ 1
321 1
臼@@ 1
阿姆@@ 1
麒 1
con@@ 0.04445880508060066
so 0.013097887913341466
灑 1
熄@@ 1
牲@@ 1
页@@ 1
-. 1
鵰 1
247 1
7.8 1
ML 0.7480347689622906
鑄 1
2400 1
2600 1
6.3 1
Party 0.04024646810894829
パ 1
硕 1
272 1
Hill 0.07133707919864368
mg 0.7539420134182837
ن 0.7755274436876408
碁 1
357 1
CK 1
歙@@ 1
sp@@ 0.05800238497145693
ê 0.823227708922489
伶 1
煎 1
蝽 1
319 1
98.@@ 1
per@@ 0.04353260089339472
嘱 1
墜 1
樟 1
廚 1
颍@@ 1
彌 1
艋 1
268 1
帕特@@ 1
旌@@ 1
沅@@ 1
960 1
HE@@ 1
亞美@@ 1
瘓 1
蕃@@ 1
1798 0.3920281491831104
虧 1
3DS 1
僉 1
檗 1
261 1
CV@@ 0.8427481281820606
pr@@ 0.06232580553365683
ر 0.7601267078477899
伦斯 1
舺 1
黴@@ 1
284 1
崧 1
碰 1
胥 1
Note 0.27882227345325417
蓼 1
Force 0.07149249519978904
ハ 1
杠 1
卿@@ 1
堯@@ 1
脅@@ 1
葺 1
音速 1
Ab@@ 0.03649886334831238
JAP@@ 1
ion 0.12979270032968826
え 1
寝 1
秩 1
骁@@ 1
撿 1
歴 1
730 1
纱@@ 1
骷@@ 1
295 1
903 1
同盟@@ 1
UP 0.690271338518011
沾@@ 1
VR 0.9929213456701114
わ 1
誡 1
鎂 1
ik@@ 0.05784171764862423
well 0.01340258232550404
締 1
阀 1
鹏@@ 1
IF@@ 0.5403506794970215
咐 1
囑 1
鏽 1
2100 1
瀏@@ 1
2024 1
Firefox 1
ou 0.010599581432936517
賂 1
Ni@@ 0.13528605720070142
web 0.143981384955947
峨 1
蝦@@ 1
6.6 1
Mike 0.11895022593122823
桅@@ 1
殯@@ 1
LS 0.7560791405382659
Royal 0.0385990161168954
绩@@ 1
缠@@ 1
has 0.0046023154083101895
孩@@ 1
頰 1
1568 1
辱@@ 1
pa 0.14576218487401746
С 0.023638771114731373
LP 0.20858653432554536
RC 0.33746361866853597
WTA 0.5795679897640766
屎 1
询 1
黯@@ 1
Little 0.10656206270496481
扼@@ 1
潟@@ 1
蓟@@ 1
输 1
1817 0.352683191106223
Hz 1
煎@@ 1
660 1
H2O 1
MI 0.6389496093184294
Mer@@ 0.08228885785166291
SW@@ 0.6116288191896322
伶@@ 1
僉@@ 1
剔@@ 1
510 1
999 1
FL@@ 0.8226639877779987
Vol@@ 0.14047052044629693
ß 0.22482195534251587
国语 1
钻 1
1780 0.4587382642828902
274 1
We@@ 0.11635004998618965
tr 1
德華 1
螨 1
258 1
Digital 0.2461008381979797
FO@@ 0.6198160364779305
OR@@ 0.8117670567658011
berg 0.04988617915136903
bit 0.20962506842241918
赁 1
mo@@ 0.0641031119270243
倘@@ 1
BSD 1
以色@@ 1
膚@@ 1
艳@@ 1
288 1
η 0.028945236874871057
Alexander 0.07277467719112281
cc@@ 1
first 0.004713314884297262
娃@@ 1
琉 1
薯@@ 1
Awards 0.057591345185328977
oides 0.32429974888787017
● 1
檎 1
诰 1
Scott 0.09599970098064857
aw@@ 0.08008432013512336
匠@@ 1
Book 0.14014667264923428
DA@@ 1
DI 0.696611957821219
tu@@ 0.08132316418507059
沥@@ 1
籽 1
践@@ 1
辗@@ 1
269 1
276 1
PR@@ 0.5296634725837412
TW@@ 1
283 1
垦@@ 1
壤@@ 1
钩@@ 1
驸@@ 1
Daniel 0.08301643097681015
塞州 1
捆@@ 1
滁@@ 1
II@@ 0.6395460062668041
were 0.0030965416444113944
沽@@ 1
笈 1
DT@@ 1
ach@@ 0.058346115226739464
逍@@ 1
醮 1
鬧@@ 1
1750 0.5687379487995049
can 0.012359190971497179
缚 1
1650 0.7803727024980778
313 1
瀝@@ 1
缴 1
Of 0.11347021135950425
凋@@ 1
96.@@ 1
AX 1
ab 0.022019546290425917
錘 1
閒 1
髒 1
PC@@ 0.5240336403837598
ba 0.07578287717209949
墘 1
櫛@@ 1
除此@@ 1
AND 1
PM 0.5237767727871118
more 0.009705517687714332
ida 0.06356653139003865
唤@@ 1
域性 1
謬 1
var 0.3689771132076907
MX 0.9649785131273233
瑤@@ 1
55.@@ 1
威特 1
驰@@ 1
FF 0.437259535620372
est 0.001973905972121588
ガ 1
垫@@ 1
沙市 1
42.@@ 1
Great 0.060564844762872015
IV@@ 0.7577093976827027
ah@@ 0.07783671986517786
莘@@ 1
Gu@@ 0.07251484125266684
Kar@@ 0.0651518197145786
te@@ 0.057180220016390185
宵@@ 1
醯 1
钴 1
52.@@ 1
棍@@ 1
潢 1
艙@@ 1
WS 0.8878302019522906
貌@@ 1
咏@@ 1
遁 1
1645 1
7.1 1
Del@@ 0.09516712899820237
Phone 1
ber@@ 0.06254418722738082
锤 1
1622 1
Gar@@ 0.09726318375203355
HTTP 1
AF 0.47373500242516914
Bel@@ 0.06863309551560234
40.@@ 1
窒@@ 1
窖 1
1788 0.48968260466525776
北洋@@ 1
掖 1
SF@@ 0.67851155877917
dia 0.19096920307538393
兀 1
徘@@ 1
梵 1
榄 1
緒@@ 1
腕@@ 1
议院 1
333 1
TCP 1
刪 1
安大@@ 1
橄@@ 1
AE@@ 0.6312431541684208
LD 0.9533652212503376
疗 1
2030 1
375 0.9994824965144721
J2 1
堺 1
晦 1
槐@@ 1
皂@@ 1
740 1
Cl 1
ひ 1
洼 1
湊@@ 1
舷@@ 1
4.9 1
南省 1
孺 1
199@@ 0.9497022918792533
259 1
277 1
309 1
綾@@ 1
蚕@@ 1
メ 1
拂@@ 1
歼@@ 1
萨克@@ 1
隧@@ 1
1640 0.7986750760335473
威斯@@ 1
廁@@ 1
++ 1
憎@@ 1
1787 0.4893271534725152
DM 0.45386788819352586
Technology 0.1367303254734339
愛荷華@@ 1
焕@@ 1
苳 1
莺 1
Master 0.12491022611759556
ca 0.06944805290828276
п 0.13000449847176399
287 1
ダ 1
佗 1
Na@@ 0.1840717075628141
咳@@ 1
騷 1
4500 1
APG 1
osa 0.10257099018423087
奘 1
滯@@ 1
胥@@ 1
As 0.016964669666498466
Jr 0.14342747244870446
ND@@ 1
攜 1
蘑@@ 1
54.@@ 1
几内亚 1
孺@@ 1
ico 0.0925454552746862
160@@ 1
570 1
his 0.0022011364083947505
婢 1
Drive 0.3109561213354579
Pi@@ 0.09889880325013632
way 0.027678755902983312
彬@@ 1
柩 1
賭 1
鹃@@ 1
7.7 1
IL 0.4897200499663142
佃@@ 1
肘 1
膀@@ 1
Power@@ 0.5677510098530542
SV@@ 0.9306637534467357
姨 1
阙 1
GHz 1
767 1
CW 0.8209971532248304
Mel@@ 0.11256275879481208
砸@@ 1
AO@@ 1
彝 1
魮 1
DR@@ 0.705002581201355
Frank 0.08084006075714939
RE 0.699539002020582
Software 0.2838561308374767
侈 1
勵@@ 1
拙 1
279 1
Hot 0.12515524406316436
ita 0.06364667912493528
world 0.027093300872991798
function 0.11256411894274143
歳 1
涧 1
誥 1
雇 1
A3 1
Brown 0.0775064202618558
釉 1
鬣@@ 1
鹘 1
德华 1
釣@@ 1
JavaScript 1
ii 0.304881874077662
烽@@ 1
皓@@ 1
裴 1
慣 1
民國@@ 1
瘫@@ 1
296 1
Union 0.031118133121323697
鞍 1
餵 1
1783 0.46575021280319023
66.@@ 1
end@@ 0.049550695245544354
坟 1
湍@@ 1
街庄 1
2200 1
Mat@@ 0.08745942195601297
Taiwan 0.2429158925054606
anensis 1
螯 1
ap 0.15752653375393022
″ 1
妆@@ 1
7.6 1
Lake 0.053560006265432065
嚮 1
曬 1
穆斯@@ 1
180@@ 1
LG 1
日耳@@ 1
Global 0.1870478212417634
War 0.020546643290493338
悦@@ 1
新西@@ 1
森堡 1
腭 1
97.@@ 1
谎@@ 1
刹 1
摄 1
蝇 1
43.@@ 1
und 0.000942424865031231
抬 1
歉@@ 1
狩@@ 1
Works 0.1934428173489084
栃 1
膛@@ 1
荼 1
710 1
A4 1
Sin@@ 0.14521784760698744
煜 1
睾@@ 1
闰 1
1827 0.32676070431579524
299 1
ura 0.09779563857364708
沱@@ 1
资本@@ 1
蠻@@ 1
5.0 1
system 0.02284949498897894
南極@@ 1
栓@@ 1
徊 1
灶@@ 1
贬 1
130@@ 1
俾@@ 1
滦@@ 1
65.@@ 1
堃 1
弼@@ 1
簷 1
账 1
參謀@@ 1
蔔 1
324 1
Chris 0.11151079827001387
θ 1
筱@@ 1
谜 1
亚美@@ 1
焰@@ 1
He 0.003522699419626258
IB@@ 0.6262760366898626
289 1
780 1
Model 0.24231515067259
Wi 1
嗓@@ 1
骚 1
298 1
忱 1
桅 1
绸 1
羅門 1
謗 1
do@@ 0.09599302646374056
冼@@ 1
娩 1
癖 1
385 1
MM 0.9443173207570666
喇 1
鑰 1
335 1
Ha@@ 0.13042425767834098
512 1
73.@@ 1
No@@ 0.12450572911463167
檯 1
蔗@@ 1
331 1
沃夫 1
Cup 0.027234400509438685
Joe 0.09659620488354874
Mi@@ 0.11198982696378024
York 0.014336893332459681
ي 0.4600625159266363
丈@@ 1
槌 1
56.@@ 1
Journal 0.11208668308322987
Series 0.07720718954070943
所在@@ 1
璐 1
繕 1
Net@@ 0.3724169908491202
ker 0.07580750947603536
交界@@ 1
甯 1
痪 1
278 1
塔特 1
崴 1
挠 1
疣 1
BBS 1
Santa 0.048837849840585756
Special 0.13311041018748965
瀧@@ 1
膨@@ 1
CBA 1
field 0.029807882119594287
抢 1
DF@@ 0.7765951304623915
GE 0.7031652173130104
273 1
7.3 1
76.@@ 1
Explorer 0.5976486917195276
凳 1
赢@@ 1
馴@@ 1
1592 1
820 1
PG 1
set 0.024853155860452877
ë 0.3618573681364011
委常委 1
2300 1
267 1
742 1
ao 0.12228120700268898
ase 0.08018772887923024
ō 0.12268998501784255
婁@@ 1
趾@@ 1
72.@@ 1
opsis 0.40415939803659257
م 0.3755166097187949
爸 1
膏@@ 1
鲷 1
als 0.0035616487824996395
筲@@ 1
ビ 1
钝 1
闖 1
51.@@ 1
Andrew 0.11335121445012615
め 1
琅@@ 1
顛 1
驯@@ 1
757 1
UI 1
pi@@ 0.0727697426735014
ь 0.09872705406676784
佘@@ 1
惇 1
郴@@ 1
蔽@@ 1
蟹@@ 1
霉 1
1811 0.3284663058648749
Square 0.16121608390336123
纶 1
蜱 1
62.@@ 1
Lady 0.11416387482873144
廓@@ 1
轎 1
鈔@@ 1
NS 0.3045524003950155
ru@@ 0.07240791676393454
攔 1
笃 1
臼 1
警務@@ 1
韬 1
so@@ 0.07529537694341652
姊@@ 1
屠 1
炉@@ 1
M3 1
ance 0.059800264818703604
que 0.0015120768671891987
垮 1
釜 1
櫚@@ 1
糸 1
be@@ 0.032921489566706215
棣 1
璃@@ 1
镶 1
Free 0.15445113511865435
HP 0.5340582534358367
Is@@ 0.09798306854076666
PT@@ 0.670434803550728
but 0.005150068936774694
住民 1
燭 1
衮 1
621 1
KK@@ 1
U19 1
Val@@ 0.08104848817582119
寞 1
揽 1
曝@@ 1
杞 1
菱 1
alis 0.15759215714091332
inae 0.22500708805017772
克福 1
74.@@ 1
At@@ 0.09621762924958922
BOX 1
发表@@ 1
Express 0.1775575107456564
胄 1
讽 1
WO@@ 0.9634032101673419
tis 0.12191754075257791
75.@@ 1
FX 1
Hy@@ 0.17717380575863254
man@@ 0.05312351783001089
ville 0.02116908225912059
铉 1
髻 1
590 1
978 1
ary 0.0499178095445733
僭 1
宇航@@ 1
忒@@ 1
阿爾巴@@ 1
AF@@ 0.35404823055220985
Les 0.009789591005986127
M4 1
賄 1
踝 1
An 0.03190632555207547
喆 1
嬉@@ 1
磋@@ 1
φ 0.9952765180288692
惧 1
薰@@ 1
鸠 1
06@@ 1
589 1
670 1
Town 0.07998345225023216
x86 1
樽 1
莪 1
190@@ 1
Cu@@ 0.14500669677642003
粲 1
艇@@ 1
53.@@ 1
880 1
NO 0.9098506067798869
and@@ 0.055663091794802146
宁波@@ 1
阿姆斯特@@ 1
鞠@@ 1
鵬@@ 1
12.5 1
291 1
292 1
SK 0.35674242792673766
ov@@ 0.06784307572174572
反应@@ 1
啤@@ 1
嘗@@ 1
沾 1
颶@@ 1
405 1
AST 1
Christian 0.04444405703705399
File 1
Pre@@ 0.08762331342167294
va 0.054127243396027265
羣 1
鈎 1
钛 1
1582 1
293 1
Museum 0.04441016614449918
亚历@@ 1
198@@ 0.9720777570610125
690 1
AAA 0.7150644976920829
1580 0.9369854872207374
NVIDIA 1
捏@@ 1
犀 1
膦 1
go@@ 0.10756146308235735
杞@@ 1
柠@@ 1
綢 1
C2 0.8316278476283242
IRT 1
Mi 0.4276112217330699
Star@@ 0.15269299987208002
賺@@ 1
逗@@ 1
郸@@ 1
鎚 1
饪 1
10.5 1
Lam@@ 0.16599510240196794
gi@@ 0.08465536152743926
苏格@@ 1
ML@@ 0.568360366055763
ano 0.04291613265831066
mi 0.08992815578915833
― 0.6551340618291953
ょ 1
纱 1
铬 1
瘾 1
能性 1
蝠@@ 1
Hi@@ 0.2672729770233806
愤@@ 1
瑰@@ 1
纺@@ 1
馬斯 1
758 1
JYP 1
ba@@ 0.09695902791435629
lin 0.10157925601565349
榴 1
314 1
5.9 1
Bill 0.08449175471502428
SHO@@ 1
咏 1
獎賽 1
訟 1
NCAA 0.1383689948069332
窄@@ 1
驹 1
63.@@ 1
Code 0.19887732841417566
hi@@ 0.09811093619332985
泵@@ 1
綺@@ 1
250@@ 1
322 1
FIFA 0.17158043958115834
What 0.15630819506751614
67.@@ 1
ろ 1
殲 1
泼 1
艉 1
鋅 1
钥@@ 1
1583 1
1797 0.369462023780293
404 1
FT 1
MMC 1
mRNA 1
吒 1
嗅@@ 1
痴@@ 1
羁@@ 1
謁 1
鈦 1
1550 0.8268975735025366
1777 0.5095505124918679
2700 1
Council 0.0356267815400087
马克思@@ 1
77.@@ 1
SN 0.8531099324019668
Sar@@ 0.0833765121595236
竄 1
Ca@@ 0.18676018167939987
CoV 1
祸@@ 1
345 1
珉 1
耻 1
肄@@ 1
＋ 1
宾夕法@@ 1
鎧@@ 1
Op@@ 0.17337619832083356
缔 1
BM@@ 0.6047339898928407
PAGASA 1
圩 1
妤 1
鱇 1
1598 1
Hol@@ 0.07981698701736
卅@@ 1
糟 1
諜 1
7.4 1
H2 1
ula 0.1684472807277501
么@@ 1
驿 1
607 1
Fr@@ 0.07817014500866985
ho@@ 0.07757231896516721
糕@@ 1
闕 1
鴿 1
64.@@ 1
70.@@ 1
Cos@@ 0.22221072438585432
VS 1
ver@@ 0.019009431148076145
安東@@ 1
莽@@ 1
1571 1
多倫@@ 1
蔑 1
釉@@ 1
502 1
ger 0.0876842443302053
升为 1
禱@@ 1
跪@@ 1
闇 1
0x@@ 1
1570 0.9133439067880234
Heart 0.1991917740526895
KB 1
荥@@ 1
294 1
IEC 1
疵 1
鮭 1
友好@@ 1
浊 1
艷 1
316 1
Mas@@ 0.07430695782502683
紛 1
要性 1
490 1
1648 0.6580308779868134
830 1
PV 1
data 0.060699181490083555
inus 0.227236588206855
two 0.005508129655576429
弩 1
耿 1
麽 1
蟒 1
賽馬@@ 1
787 1
810 1
DR 0.4806566779372305
DS@@ 0.4823598744264429
FDA 0.831717303531613
SR@@ 0.5403671088504304
翹 1
OT@@ 1
稠 1
絞@@ 1
路德@@ 1
鮟 1
ne@@ 0.06040550302544853
厥 1
捧@@ 1
氾 1
渦 1
翊 1
腫@@ 1
逮@@ 1
317 1
AW@@ 0.6644934529892829
au@@ 0.05677309698944555
峻@@ 1
London 0.02321927998813258
ons 0.03180222344752491
愷 1
检察院 1
毕业@@ 1
1621 1
德克萨@@ 1
505 1
SF 0.527596646408841
宕 1
挡@@ 1
肿@@ 1
輿@@ 1
HIV 0.4356748330743474
奬 1
聆 1
Net 0.6515524203514723
SU 0.5897531424881842
ada 0.02016298963049195
匣@@ 1
資格@@ 1
60.@@ 1
UL@@ 0.8372874221902287
б 0.11963199314657945
馏 1
707 1
Summer 0.06624364763213522
ue 0.07712943364430329
嫂 1
尝 1
柚@@ 1
邵 1
高句@@ 1
4G 1
VA 0.43550747581295923
倪 1
兮 1
334 1
Flash 0.5249230250370016
LC 0.5887766211997334
ane 0.059647555733855245
羞 1
虐@@ 1
逕 1
霆 1
噴 1
诱 1
琨 1
蝎@@ 1
1625 0.9369366530893676
OF 1
odon 0.5447994814160918
舆@@ 1
AU 0.5766531374849287
FBI 0.36035595375652296
锰 1
君主@@ 1
拢 1
1778 0.47964395717044284
760 1
廬 1
矚@@ 1
第十二@@ 1
CM@@ 0.5013822420399893
NP 0.9209614615219193
Trans@@ 0.1321302108353493
ora 0.08966032907961562
⋯ 1
履 1
佤@@ 1
呤 1
夾 1
扭 1
畠 1
裤 1
誹@@ 1
402 1
APP 1
America 0.03559535648399609
地面积 1
1770 0.4549388655788575
CR 0.3610872863270695
Centre 0.0635771905282711
ci@@ 0.06647739635166147
go 0.04661260067300911
厕@@ 1
拐 1
檬 1
tus 0.20816775347159577
剎@@ 1
＂ 1
we 0.04410020170714735
唾@@ 1
诫 1
谅 1
PK 0.9753850025428672
PSP 1
TE 0.4965762979515607
ズ 1
碇 1
荆 1
贩 1
驟@@ 1
Festival 0.04157579164327755
af@@ 0.048305713667023346
塚@@ 1
腈 1
Steve 0.10634066873158059
Tri@@ 0.09676522796055459
摔 1
撇@@ 1
穹 1
膩 1
革命军 1
Can@@ 0.08742455339861856
VC 0.5455494274871943
楣 1
镀@@ 1
顱@@ 1
297 1
Ta@@ 0.13187622425362844
ы 0.05368961696262472
峪 1
斯特拉@@ 1
缉@@ 1
蕉@@ 1
353 1
Eric 0.14513621876340171
XT 1
329 1
Two 0.0582071704502967
__@@ 1
灘@@ 1
脇 1
4A 1
JT@@ 1
eus 0.2541640024288703
鷺 1
姦 1
檐@@ 1
比亚@@ 1
泪@@ 1
臥 1
麼@@ 1
IMAX 1
吵@@ 1
茛@@ 1
蘊 1
hu@@ 0.10094267917213469
璘 1
EMI 0.6425918283178561
不同@@ 1
丐 1
天然@@ 1
羟@@ 1
颅@@ 1
Sol@@ 0.08037720263264203
ist@@ 0.07796711747183904
槭 1
425 1
周恩@@ 1
幽 1
曜@@ 1
蕈 1
鋸 1
閑 1
PER 1
YouTuber 1
恺 1
鐮@@ 1
钓 1
蔑@@ 1
su@@ 0.07292519975573888
媳@@ 1
352 1
FN 1
ber 0.09582070557642475
緋@@ 1
婉 1
路斯 1
醬@@ 1
Studios 0.1395867421002734
蚜 1
髓@@ 1
Central 0.03631396573518472
孩 1
汛 1
游戏@@ 1
鮭@@ 1
355 1
GN 1
佬@@ 1
2800 1
465 1
Bor@@ 0.0684044344013218
Management 0.12680147246287285
³ 0.256158920467803
谜@@ 1
RFC 0.8411386000932058
Ros@@ 0.0748540078947955
atum 0.3060737768928476
za 0.062305831030014115
匈牙@@ 1
瀕 1
競 1
厌 1
暈 1
555 1
8.2 1
Pe@@ 0.08986974559795544
ч 0.13286985591248449
5G 1
910 1
Char@@ 0.09728772300984834
STAR 1
ø 0.8855422569854985
贻@@ 1
Place 0.17665229177736377
モ 1
揭 1
褲@@ 1
跋 1
583 1
Dance 0.17390915494778722
Systems 0.2039255186978413
А 0.04022163494138033
牡@@ 1
犹太@@ 1
瑕@@ 1
竺@@ 1
诽@@ 1
ARM 1
拉省 1
狡@@ 1
涨@@ 1
玖 1
褐 1
迥@@ 1
384 1
BRT 1
Cap@@ 0.10588069690668231
Tel@@ 0.16103369175216697
iPod 1
巒 1
愤 1
暮 1
漱@@ 1
猝@@ 1
颗@@ 1
1628 0.967147166339433
840 1
Key 0.31107917329718743
Pierre 0.048898135592349304
滥 1
瞳@@ 1
荊 1
镰@@ 1
12.7 1
407 1
Pol@@ 0.07149387371084086
ē 1
帅@@ 1
搜 1
武汉@@ 1
赚@@ 1
USS 0.21338098760437826
az@@ 0.06174552474407096
oni 0.10294159927964239
乒@@ 1
托爾@@ 1
晷 1
770 1
STS 0.9142220424005983
宦 1
蔓 1
凑 1
喘 1
择@@ 1
櫸 1
班機 1
Box 0.26355197412078674
Design 0.12777975336492797
峭@@ 1
邂@@ 1
鹉 1
1785 0.4345173665991078
89.@@ 1
MA@@ 1
梢 1
藜 1
1630 0.739991752596507
ated 0.019544369056641253
ola 0.10996530706458438
焉@@ 1
绛 1
Gal@@ 0.07995244663813461
Sky 0.21629338481555122
Astro 1
PD 0.6339257656036652
蔻 1
1784 0.3981926402281706
刮 1
哥倫@@ 1
扑 1
昊@@ 1
槟@@ 1
］ 1
359 1
6.9 1
HA 0.5456799340499526
aria 0.08942472570849914
oph@@ 0.12174204069598445
哇 1
扔@@ 1
牧區 1
祷@@ 1
酱@@ 1
403 1
Ch 1
肾 1
逅 1
颁 1
br@@ 0.0373724062177204
tia 0.15593804168902792
扈@@ 1
脅 1
鞅 1
威廉@@ 1
鹛 1
327 1
354 1
BP 0.4905549268811063
哩@@ 1
胱 1
＝ 1
懲 1
邕 1
Micro@@ 0.28283422239609013
咕@@ 1
咽 1
MK 0.9001348126293515
字率 1
惰@@ 1
石灰@@ 1
［ 1
328 1
Football 0.04431308529397766
GPU 1
Pan@@ 0.09644182717899102
П 0.1129203487726351
婪 1
碲 1
鈕@@ 1
麝@@ 1
3G 1
潼 1
Ben 0.10551836550621588
ū 0.44872025687779576
办事@@ 1
祯 1
踞 1
銃 1
鳃 1
344 1
ex@@ 0.04000189792696841
ath@@ 0.08892822477101821
ff@@ 0.07962970048417949
豌@@ 1
頤 1
IND 1
叟 1
碾@@ 1
輿 1
1631 1
1661 0.8592221406470396
356 1
ore 0.06360110701855842
嘧@@ 1
و 0.07555487933579594
Des@@ 0.07155384939663552
Wo@@ 0.2000235799563861
1573 1
1636 0.9894743162184603
ge@@ 0.030348407270982196
525 1
伊斯兰@@ 1
壠 1
玛丽@@ 1
笋 1
羹 1
萍@@ 1
1521 1
歧 1
罄 1
Kin@@ 0.1507794168496995
Δ 0.7943910540320877
禦@@ 1
统治@@ 1
1601 1
GP 0.44211137424258556
TER 0.9344318115267044
せ 1
曇 1
维吾@@ 1
記憶@@ 1
6.0 1
Bob 0.09832065510227468
tra 0.08581627908194643
懈 1
纤 1
蓉@@ 1
O4 1
Van 0.07782546287597521
ish 0.05723375699956603
off 0.019091581231656392
蝗@@ 1
1565 1
1616 1
416 1
PO 0.5979627867118077
ama 0.07229237733118458
溜 1
煦 1
贮@@ 1
921 1
Lin@@ 0.13163098251068275
ting 0.033442717545124366
夸 1
柿@@ 1
蜆 1
解决@@ 1
谤 1
888 1
Hu@@ 0.0938059303731291
mi@@ 0.08084180812209994
貪 1
140@@ 1
EX 1
Pop 0.205632448362763
哈根 1
巅@@ 1
泾 1
op 0.13614467426158638
wood 0.05425383295127615
瘤@@ 1
闲 1
韧@@ 1
1553 1
Out 0.13816338837433656
vi@@ 0.0565103539771496
戳 1
炫 1
炯 1
疟@@ 1
瞒 1
肯塔@@ 1
诅@@ 1
鼐 1
1603 0.8191179864165764
367 1
Edge 0.4380018244567478
F2 1
Song 0.08546947100933379
瑟琳 1
翌@@ 1
錨 1
ile 0.026671865897025082
ou@@ 0.046462243865517235
勖 1
卦@@ 1
挣@@ 1
毛泽@@ 1
115@@ 1
1786 0.4458183579942861
395 1
870 1
930 1
Su 0.0349562394160224
VE 1
斡 1
渾 1
RX 1
ato 0.06870121582087718
脷 1
菸@@ 1
隍@@ 1
88.@@ 1
睐 1
1368 1
GN@@ 0.8320734993525258
SG 0.3730528287025404
瓚 1
絃 1
蚓 1
诃 1
1620 0.700183624030972
G1 1
VL@@ 1
kW 0.3190741195468037
嗽 1
蚌 1
Light 0.14110455943957462
Marie 0.05308499964402274
Chi@@ 0.09702684380020878
mann 0.04355748593798395
ong@@ 0.1341677737900797
弁 1
枣 1
諦 1
遐@@ 1
358 1
860 1
Beyond 0.490569656435555
District 0.023714756569705377
衢 1
鄴 1
鎬 1
阿尔卑@@ 1
MR 0.688662343835795
欖@@ 1
缉 1
襟 1
EDT 1
H3@@ 1
yl@@ 0.09442468712800288
К 0.05836770460257754
噁 1
樊 1
踪 1
DL@@ 0.9695141246730307
E2 1
Gi@@ 0.10112091112138699
PDF 1
玫@@ 1
1646 1
晝@@ 1
桁@@ 1
IO@@ 0.7570995140308379
TL 1
ks 0.047421083510122475
ops 0.22172133789164353
悠 1
谿 1
鲤 1
1643 0.8996191379668659
ri 0.11187285814381477
椿@@ 1
氙 1
醋@@ 1
钞@@ 1
Sam 0.12468407454959606
Tor@@ 0.06615408338720355
孚@@ 1
拮@@ 1
耽@@ 1
蚜@@ 1
1772 0.4616515370516785
had 0.0032541384360373904
垒@@ 1
轩@@ 1
County 0.014570966354551072
ari@@ 0.09139001933540944
厦@@ 1
嘌@@ 1
弛 1
抖@@ 1
95.@@ 1
UK@@ 0.8567582685986013
don 0.07103366152787488
sub@@ 0.03211877831914602
壢@@ 1
聿@@ 1
陕 1
Mod 1
will 0.015016887653213684
琵@@ 1
賑@@ 1
軀@@ 1
HT 1
滘 1
346 1
UT 0.6324140312842864
code 0.08237442015159714
BR@@ 0.5091862584828957
Ko@@ 0.07038765649095556
苛 1
1586 1
Kh@@ 0.07899263228565623
宙 1
嵐@@ 1
掏@@ 1
矗@@ 1
蠶@@ 1
貳 1
1760 0.49748894699496365
Ap@@ 0.11637770321892436
瞳 1
蜓 1
1577 1
705 1
H2@@ 1
在此@@ 1
寸@@ 1
蚂@@ 1
8.8 1
8.3 1
car@@ 0.040847085765831036
ek@@ 0.05453966630565441
抉@@ 1
立陶@@ 1
BAN@@ 1
Space 0.13816801828763955
sch@@ 0.027541217981885194
菠@@ 1
锑 1
髏 1
Ray 0.13508269626983863
č 0.38701249867899484
Johnson 0.0686303744602968
Tar@@ 0.08028974849303709
聯網 1
螞@@ 1
1624 0.9519596118865759
1st 0.06304089733945813
351 1
ART 0.8250289849260114
cc 0.46278350050588496
1763 0.4752183571058158
7.9 1
ACK 1
Ju 0.8764631398841047
Lu@@ 0.10957264709484407
WH@@ 0.6284144528522502
back 0.017133002045669327
恥@@ 1
滋病 1
祗 1
1574 1
411 1
Hel@@ 0.11481240877734741
Public 0.06742032639351637
RN@@ 0.5491486367909713
ette 0.04591382974096964
up@@ 0.07179927517828993
特蘭@@ 1
訥@@ 1
1781 0.45136991774256563
Law 0.06921817731218623
绅@@ 1
鍛@@ 1
鏞 1
ts@@ 0.06610993812973551
D1 1
Disney 0.11062026953004858
Press 0.10771064477029538
杵 1
衙 1
鎳 1
鮑 1
鹵@@ 1
--- 1
343 1
361 1
Class 0.13950452539517816
Not@@ 0.10600946304195932
WOR@@ 1
rowspan 1
tri@@ 0.06535666776517066
幂 1
捷克@@ 1
桔@@ 1
蒴@@ 1
625 1
Stephen 0.10393145216802198
图书@@ 1
窘@@ 1
訣 1
閔 1
485 1
UE@@ 0.6753874232479037
ns 0.09466174196452479
谏@@ 1
EV@@ 1
HO 1
ok@@ 0.07319046396129283
专线 1
寓 1
1610 0.7563107863722984
1619 0.9799403635016277
195@@ 1
336 1
BMW 0.3430303802453085
Block 0.3009432507967855
ERS 1
舆 1
1642 0.7725051206869323
980 1
res 0.1271876953218639
爛@@ 1
DF 0.588611215504617
Ke@@ 0.08988758916127237
SIG 1
over 0.007806360772217116
媳 1
谍@@ 1
霑 1
326 1
Ri@@ 0.07207633976611061
yn@@ 0.1347459886047033
亳@@ 1
塊@@ 1
釁 1
371 1
Alpha 0.3213663709166378
British 0.016335052478400995
ford 0.06375732875631922
挨@@ 1
籲@@ 1
胱@@ 1
鱨 1
ゆ 1
嚼 1
岚 1
浓 1
ce 0.010006861745874856
lo 0.010841431453621559
裹 1
ASCII 1
Children 0.15814263390360472
Foundation 0.07612669329132095
巾@@ 1
泻 1
燧 1
鸚@@ 1
Im@@ 0.0944149552554748
sa@@ 0.1101353211442296
壤 1
棧 1
餚 1
MUSIC 1
oo 0.22859647797019436
their 0.003954926307230595
娠 1
浆@@ 1
鑫@@ 1
number 0.013056297270379226
Sa@@ 0.08882387993077544
Story 0.19367545230781033
ul 0.10857401510358812
安人 1
璧@@ 1
鞏@@ 1
627 1
GL 0.9951365850449844
use 0.013912430581377996
倚 1
悍@@ 1
憐 1
SH 0.4706627019159573
怜 1
悶 1
Last 0.1773129953008717
San@@ 0.07637097609100285
ona 0.06637183000477233
彷 1
自成 1
企业@@ 1
1615 0.9914596558548849
337 1
8.6 1
Player 0.18318715915549572
澡 1
稚 1
鑣 1
馥 1
while 0.011424731562709605
慌@@ 1
昇@@ 1
113@@ 1
Film 0.02618855604720076
size 0.05258443522917644
壘@@ 1
感染@@ 1
旷@@ 1
獾 1
酐 1
鱲 1
Por@@ 0.0866367107036957
Williams 0.06544931976222958
弔 1
灸 1
眠@@ 1
1618 0.7880933254987385
Du@@ 0.07761478666789061
Ter@@ 0.09096574281652976
icus 0.23352893728171809
let 0.09324363882184557
薔@@ 1
Final 0.08623509589555668
NCT 1
ji 0.09660358889249022
80.@@ 1
Av@@ 0.09830646026605787
Ba@@ 0.09914121417302298
der@@ 0.046558031455163636
少数@@ 1
惑@@ 1
掩 1
敲 1
洵 1
狠@@ 1
邮政@@ 1
581 1
ill 0.07239024776700763
箔 1
行本 1
雾@@ 1
＆ 1
MR@@ 0.7615776714842171
碍 1
Fire 0.1456856103918408
GE@@ 0.7168157925035108
New@@ 0.14449398578084152
UM 0.7493620248650908
for@@ 0.04073412549558456
枋@@ 1
碌 1
128@@ 1
1590 0.8208222038341322
406 1
AO 0.6358493583731837
ira 0.09606481022290979
俞 1
疚 1
龐 1
332 1
Academy 0.04056553101622805
CON@@ 1
NI@@ 1
UC 0.36060291007985773
咀@@ 1
捆 1
3200 1
535 1
urus 0.451616090860137
婴@@ 1
幔 1
打點 1
豁@@ 1
铂 1
鳄 1
1.5@@ 1
帘 1
档@@ 1
貂@@ 1
迂@@ 1
酿 1
隘@@ 1
arg@@ 0.22141754350320053
124@@ 1
NH@@ 0.6693475883719122
TRA@@ 1
з 0.07514670567657997
岚@@ 1
985 1
Jones 0.06133165591495421
兑 1
417 1
DV 1
ology 0.06058445248079048
篆 1
馀 1
528 1
LM 0.6459357941738373
MF 0.8258883297922471
MG@@ 1
М 0.06798890438222081
傍@@ 1
壩@@ 1
彧 1
Hal@@ 0.08601855609964641
Mini 0.5144062589301752
ent@@ 0.02633562517627751
ry 0.07952108295727853
圩@@ 1
昀 1
柑 1
瓯 1
诛 1
1589 1
605 1
ng@@ 0.12372347177332965
塞拜@@ 1
炱 1
礫@@ 1
繹@@ 1
肴 1
1730 0.5695890290779224
940 1
INE 0.7240301665183264
gu@@ 0.05817213669957206
现实@@ 1
纖 1
Name 0.05421178984195073
Wal@@ 0.07501728796782342
yr@@ 0.13832747641916682
В 0.003071573448492872
芯@@ 1
1000@@ 1
1627 0.891860108706073
1774 0.42036808594826075
341 1
Band 0.045723848094764125
HC 0.30567691184612555
主题@@ 1
侷 1
Redmi 1
鸽 1
1604 0.9098504524589273
HS 0.37681423525674207
Ku@@ 0.12196232497552176
also 0.00293694953034446
酥 1
Mir@@ 0.11760371746046332
ma@@ 0.07271222444285709
咲@@ 1
娑 1
宛 1
巽@@ 1
焊@@ 1
1585 0.9423540181522172
Bre@@ 0.07839620184281669
DI@@ 0.6851577410472153
Moon 0.17676351205465465
TO 1
WHO 0.9009904492711699
ŋ 1
祚@@ 1
驼@@ 1
415 1
556 1
D2 0.732710384914912
Sor@@ 0.10915354304242139
俟 1
渔 1
114@@ 1
栢 1
爷@@ 1
粱 1
紐西@@ 1
维希 1
菴 1
鑾 1
闍 1
LG@@ 0.9644032114637471
犹 1
窦 1
Air@@ 0.20957321327431266
Kal@@ 0.06468082514838774
剃 1
璉 1
筏 1
谐 1
3C 1
Arthur 0.07376359823890953
SO 0.48931045177116006
Sub@@ 0.0856691956234788
1683 0.7772484297066065
342 1
DNS 1
Post@@ 0.1239731561965331
U17 1
弋@@ 1
綾 1
虢 1
褶 1
366 1
DP 0.4188622495632563
Earth 0.0852399487214253
ID@@ 0.5512584861735544
ISA 0.7328373336317365
art 0.020826758020530925
oma 0.12360939027521536
ı 0.1681958118149182
1609 0.8347002475956306
Hotel 0.10020567932388263
偃@@ 1
冥 1
淦 1
狩 1
瘧@@ 1
葱@@ 1
鴞 1
383 1
大理@@ 1
惧@@ 1
袜 1
1782 0.3853382497219218
group 0.015235533929368132
南南@@ 1
叩@@ 1
恨@@ 1
戦 1
Edition 0.25946607423324874
bl@@ 0.046226181383796486
｢ 1
907 1
Bay 0.04771910487284856
Control 0.20641220575641495
JO@@ 1
弩@@ 1
賤@@ 1
109@@ 1
1634 0.8080560586379238
Bridge 0.09385619324599999
Kr@@ 0.061534060623019624
棟@@ 1
１ 1
Let 0.22540169536719262
ain 0.07086745027261472
浇@@ 1
睢@@ 1
祐@@ 1
虏 1
諺@@ 1
15000 1
476 1
Lord 0.05681781978235133
咎@@ 1
熏@@ 1
腱 1
蕙@@ 1
马萨诸@@ 1
399 1
ali 0.0929152116452167
main 0.019928875185832702
wa 0.03918056436166306
348 1
VV@@ 1
of@@ 0.07841964114853563
ど 1
寰@@ 1
汞@@ 1
AZ@@ 1
IE 1
ade 0.06199549243392705
hi 0.11190978839043268
粪@@ 1
1559 0.9521025926511227
196@@ 0.8736887300180867
KDE 1
PT 0.5292370249465457
aya 0.08841108976320285
呆@@ 1
扳 1
碍@@ 1
9.2 1
的是 1
920 1
Jim 0.0971998544407406
PH@@ 0.8225881784692858
ech 0.1638287584407792
歆 1
珩 1
脩 1
铯 1
飆@@ 1
鰨 1
20000 1
970 1
Sy@@ 0.1351097972411676
瀨 1
踩@@ 1
377 1
PI@@ 0.6634653894609542
value 0.08098548850732738
闵 1
骠@@ 1
508 1
Avenue 0.07762184851157271
God 0.07790642775726962
Sc@@ 0.12704085802307116
TY 1
歪 1
泮@@ 1
1723 0.7333755337637695
list 0.03595160918406543
紓 1
綬 1
绢 1
鶯@@ 1
116@@ 1
194@@ 1
71.@@ 1
AH 0.6250459579883813
EL 0.6552775956144724
GR@@ 0.5942937714061083
R2 1
So 0.045105534355136215
嘔@@ 1
林匹@@ 1
柜@@ 1
1660 0.49353269480681655
347 1
California 0.026080476269783343
PR 0.33997503908622806
Pal@@ 0.07359669628831862
栾@@ 1
箏 1
193@@ 1
non 0.01671436288886351
ow@@ 0.08159489431307218
筍 1
醍@@ 1
釣 1
435 1
617 1
cha 0.07217184192327963
side 0.018516230101792062
懶 1
aceae 0.15211208791061573
aw 0.25688840474695684
睽 1
酯@@ 1
靴@@ 1
驴 1
412 1
427 1
U2 0.8763570039501403
共青@@ 1
厥@@ 1
枋 1
砾@@ 1
秧@@ 1
蚊 1
袞 1
pm 0.2366603903975284
抖 1
蜈@@ 1
鵑 1
傢 1
摊@@ 1
轰 1
41.@@ 1
Dragon 0.23388369742985296
POP 1
墅@@ 1
季後@@ 1
络 1
胁@@ 1
芋@@ 1
轭 1
1680 0.606334588749646
BEST 1
Ban@@ 0.08550486466593549
Taylor 0.08213948226049908
bar 0.04838161258669027
霄@@ 1
Business 0.09486797185436326
寢 1
槿@@ 1
軀 1
1613 0.9291404217377005
8.4 1
Jos 1
cor@@ 0.043562747712683134
eng 0.12439431199568084
ta@@ 0.09801738859668972
帚 1
轅 1
1595 0.9189319338994939
1779 0.4337209036919769
BMT 1
CF 0.28700679355658965
History 0.01796769501356507
MT 0.6033901527744834
On@@ 0.11885584470367179
Queen 0.062388245568757994
ich 0.0511077074270643
棵@@ 1
蜍 1
339 1
408 1
551 1
内蒙古@@ 1
嶄@@ 1
珈 1
纥 1
询@@ 1
Fe 0.23565658880090548
ati 0.09111882721391287
憬 1
蜻@@ 1
遶 1
117@@ 1
1556 1
Walter 0.068373327890776
gr@@ 0.04395561022151534
Д 0.1445390041600706
喵 1
囉 1
骰@@ 1
KY@@ 1
SAT 0.8798177267914414
ach 0.0512395811330317
ب 0.4476858496358964
俚@@ 1
嬌@@ 1
槓@@ 1
舫 1
醐 1
隈 1
1562 1
185@@ 1
廍 1
慄 1
旻 1
螃@@ 1
387 1
612 1
GL@@ 0.77401793855326
HT@@ 0.7359966877051766
May 0.012324846131572828
SB 0.5397309043171294
全会 1
利亚州 1
匕@@ 1
荚 1
醴@@ 1
409 1
82.@@ 1
EOS 1
QS 1
mon@@ 0.03719486607638337
導體 1
諏 1
鱈@@ 1
Baby 0.22933682571312142
Simon 0.08154226710592156
ito 0.07384977549349878
self 0.058244515229580414
ze@@ 0.13348481674600107
机车@@ 1
疯@@ 1
002 1
364 1
381 1
398 1
727 1
91.@@ 1
T2 1
UNIX 1
light 0.04040727335649297
普魯@@ 1
辍@@ 1
1662 0.8290972918991386
States 0.010906180156025513
USA 0.043449169955636455
赈@@ 1
頁@@ 1
LTE 1
剋 1
叹@@ 1
噩@@ 1
烴 1
耻@@ 1
AY 1
Bl@@ 0.07608132257154372
Jo@@ 0.10695906138538257
Vita 0.714090995235148
狠 1
讞 1
谔 1
鄙@@ 1
1755 0.5361821442933169
like 0.017874608620144467
悌 1
蚣 1
恂 1
晒 1
讶 1
479 1
Yahoo 1
die 0.0008201471012911101
our 0.044674363390091135
劭 1
卅 1
居民@@ 1
滔 1
腻 1
菏@@ 1
阪@@ 1
186@@ 1
378 1
418 1
475 1
Gen@@ 0.09837603366972582
Ly@@ 0.11870137696781723
macOS 1
懇@@ 1
榨@@ 1
焯 1
甄 1
钚 1
372 1
AE 0.6180859101357162
NFL 0.10432000710246211
媲@@ 1
浚@@ 1
蝉@@ 1
賊@@ 1
鰂 1
368 1
IK@@ 1
PAR@@ 1
Talk 0.45620827420497506
Ur@@ 0.06451167558001944
into 0.005746352986135422
other 0.005658806879414962
桦@@ 1
澍 1
鸥 1
1612 0.8562757372018018
Ang@@ 0.09741297164581399
攸 1
钡 1
1517 1
Back 0.17308178478012312
綺 1
貂 1
4K 1
Dr@@ 0.07328238477787297
噶 1
爹 1
螳@@ 1
이 1
Apache 0.642938112228068
ゅ 1
ェ 1
佯@@ 1
儁 1
眺@@ 1
石坑 1
辈@@ 1
內亞 1
寢@@ 1
煒 1
373 1
Jackson 0.07073286099773501
ations 0.02139715542566992
bus 0.06886736401321952
ev@@ 0.05059092928908119
事處 1
奠 1
芎 1
酉@@ 1
11.5 1
Operation 0.1117917089553558
ky 0.0786650171981058
£ 0.0671278706159513
嘻 1
弋 1
彿 1
螢 1
郢 1
1547 0.9332711595527982
1567 1
4D 1
Like 0.09735526274271494
List 0.04415098519072561
pop 0.0681336110527033
晕 1
瀚@@ 1
矫@@ 1
賤 1
499 1
509 1
619 1
Can 0.1925248723289519
Li 0.13570545978062035
MAN 1
Ma 0.19069168963822583
O3 1
Times 0.05104344547667527
box 0.0896018910684852
桔 1
漁 1
瀧 1
驊 1
1508 1
376 1
Alex 0.12400784893937453
Long 0.06597923031637956
怠@@ 1
昴 1
靼@@ 1
VF 1
凿@@ 1
瑭 1
貯@@ 1
12.8 1
Lisp 1
主任@@ 1
1250 0.7692167216891537
ides 0.06734870219659102
嬅 1
磅@@ 1
蛹 1
392 1
506 1
552 1
bu@@ 0.07150690211806757
day 0.015289601201232416
ich@@ 0.0684352820333486
脆@@ 1
襟@@ 1
镖 1
187@@ 1
Land 0.04355819476664298
UK 0.035872366967823886
ess 0.06446018410761274
圳@@ 1
釗 1
Metro 0.13970521871174993
they 0.005433357197837391
宥 1
洒 1
膚 1
548 1
Way 0.15311453668885117
eta 0.0670036171203808
ć 0.14984143265965685
主席@@ 1
仄 1
侈@@ 1
墊@@ 1
栅 1
1637 0.8420217625594398
1701 0.659265212586858
486 1
else 0.25003260892413975
ノ 1
歹@@ 1
氐 1
滚 1
熬 1
瓮@@ 1
轟炸@@ 1
顫@@ 1
466 1
Who 0.15216786285862025
ati@@ 0.0596934644076431
pe@@ 0.06001568377972012
喧@@ 1
1773 0.4411668434561126
K2 1
Red@@ 0.10862606216428772
UM@@ 0.5875332783276696
日成 1
389 1
Kids 0.34808234733074755
Link 0.3527895986417713
sen 0.04776314596304808
产阶级 1
寝@@ 1
鮃 1
432 1
English 0.020164657274344428
Happy 0.35979361973893886
INK 1
elli 0.08398704128894083
str@@ 0.04256281738112907
tic 0.060212591802726145
tor 0.07879799131379492
ua 0.11375107642841806
ョ 1
1607 0.8871588828689937
9.1 1
Old 0.057341143305644285
RI 0.4206652456496363
Sam@@ 0.0729709082085323
With 0.030917069419198168
嫖@@ 1
漳 1
622 1
Development 0.07048363939358003
PD@@ 0.6894656985081237
ics 0.07012303647870285
point 0.019893812373649362
then 0.007842727573046422
ł 1
颐 1
83.@@ 1
Alan 0.11720277472597025
Albert 0.05996864027915494
Beta 0.5281961928976387
get 0.042981636297257333
kin 0.08881150251552608
隕 1
442 1
9.8 1
After 0.009869874487235046
常委会 1
溺 1
焙 1
茫 1
驱 1
1511 1
503 1
ath 0.09459726158995498
そ 1
庠 1
烦@@ 1
鸾 1
Bus 0.23117587905070264
Wilson 0.07539186828070145
ets 0.03422103256938706
謚 1
453 1
5500 1
C4 1
Es@@ 0.06261246535429058
Karl 0.04761752848260168
任何@@ 1
修正@@ 1
矶 1
絨@@ 1
覃@@ 1
詣 1
諜@@ 1
轼 1
ツ 1
卞@@ 1
诡@@ 1
黍 1
1569 0.9409166445636064
1765 0.48241337061007306
form 0.018743044020557053
不列@@ 1
解放军@@ 1
｣ 1
61.@@ 1
European 0.024115664537573328
LR 0.8562688257216471
Mur@@ 0.07555028097689379
model 0.04582396805261164
td 1
沧 1
179@@ 1
414 1
451 1
And@@ 0.3348047608318497
MPEG 1
Voice 0.27882566023871386
con 0.0025863974804721255
low 0.032335209837101406
窟@@ 1
锤@@ 1
11.3 1
E1 1
Far@@ 0.08253940326688856
尼西亚 1
369 1
388 1
397 1
ant@@ 0.05879311787137225
ut 0.07519398211188956
姦@@ 1
葦 1
170@@ 1
1771 0.48645652754353996
Kir@@ 0.10374165518645007
MBA 0.7060651759048201
TY@@ 1
map 0.16503998069290382
厲 1
堇@@ 1
痴 1
胚 1
雯@@ 1
2.0@@ 1
2B 1
FE 0.7991322277843648
PM@@ 1
less 0.02519697170661989
蛟 1
604 1
Tony 0.09024804627366623
ins 0.02203051347475619
oi 0.20152692717777299
small 0.019059134670255076
尷@@ 1
畲@@ 1
DD@@ 1
dis 0.16669916973206622
峒 1
榷 1
涸 1
胀 1
IF 0.3061271998911795
log 0.36826942528020407
tin 0.0488136975273719
巍 1
戸 1
诵@@ 1
輟@@ 1
197@@ 0.7775840053858356
495 1
掸@@ 1
攘@@ 1
斯威@@ 1
濑@@ 1
颅 1
鮠 1
504 1
Carl 0.06543969784736917
KS 0.5183107963831126
妄 1
欺 1
清華@@ 1
罂@@ 1
躋@@ 1
鴿@@ 1
鹭 1
433 1
机器@@ 1
蔬@@ 1
誦@@ 1
谅@@ 1
1535 0.9167170659998121
1740 0.4512163282719365
396 1
413 1
哔@@ 1
基金@@ 1
婁 1
屁@@ 1
9.3 1
LL 1
eh@@ 0.05126101312358073
tica 0.12323616081122497
ワ 1
亘 1
烛 1
Br 1
Francis 0.07520400019887452
博覽@@ 1
夭 1
幺 1
蚀@@ 1
酪@@ 1
锺 1
184@@ 1
Cat@@ 0.1049291174199583
Kim 0.08412718732867912
俑 1
塹 1
簾 1
Wi@@ 0.14348197239292293
二八 1
躬 1
9.6 1
EE 0.3518890960034259
ling 0.04811286727867602
忆@@ 1
1762 0.4760926930586953
455 1
Script 1
ik 0.06569021516695192
old 0.019470971123447218
★ 1
ゃ 1
囪 1
大師@@ 1
柿 1
稼@@ 1
莪@@ 1
1649 0.7358851491943408
445 1
OP 1
dium 0.36707300809032345
乖@@ 1
广西@@ 1
菈 1
錘@@ 1
Sunday 0.11009159593027627
敍 1
飄 1
1560 0.6931809902712737
9.7 1
Samuel 0.09076481559484495
cr@@ 0.04619002391038162
ray 0.16509501275247143
æ 0.917336218870414
娶@@ 1
瓘 1
骏@@ 1
鴉@@ 1
14.5 1
721 1
C3 1
Gaon 1
Hor@@ 0.06556124942213189
Tom@@ 0.1088818611077602
ib@@ 0.07285870194096412
tvN 1
漯@@ 1
秤 1
簇@@ 1
蠍@@ 1
BB@@ 0.5457220823460307
IM 0.5370893539030549
tor@@ 0.05171805471886288
Å 1
摧@@ 1
腋@@ 1
1541 0.9795953701274863
391 1
90.@@ 1
Brian 0.09761443250428782
her 0.00356693325227272
皱@@ 1
镐 1
EST@@ 1
pe 0.05786055915293824
多样@@ 1
婷@@ 1
盂 1
518 1
BF 0.7814060674972856
Chrome 1
F3 1
People 0.060262281948566566
Sur@@ 0.07620105729450148
υ 0.9970178662425287
洛杉@@ 1
菀 1
賬@@ 1
鲍 1
1720 0.5009234285773027
1736 0.6705323370285339
1748 0.5776233533864673
7.0 1
Next 0.24115294147041527
ell@@ 0.05369814676370898
oh@@ 0.08986423540496369
畴 1
蒐 1
驟 1
3600 1
606 1
8.9 1
End 0.1428942852581781
SY@@ 0.9721496456089168
ick 0.07297477727382731
mer 0.038124957265630956
娣 1
翟 1
1.4@@ 1
1001 1
422 1
585 1
Men@@ 0.07671814135222656
facebook 1
lu@@ 0.06425562784703952
咲 1
擎@@ 1
镍@@ 1
1629 0.7283919459105913
Prot@@ 0.14811910232131972
Th 1
Touch 0.6117008091987896
the@@ 0.10373799570072313
Т 0.15598059313814125
扈 1
沔@@ 1
竇 1
蟻@@ 1
DL 0.5464420302552235
KP@@ 0.835994052321483
Kevin 0.12039852608540763
Mus@@ 0.07116583782200415
ens@@ 0.033145328534076667
蟠@@ 1
1769 0.46024113237330894
362 1
363 1
mar@@ 0.042697471610000176
奥林匹克@@ 1
悬 1
空间@@ 1
赎 1
m3 1
尻@@ 1
188@@ 1
Cube 1
MAR@@ 1
Mil@@ 0.06662111896643541
ical 0.040237241813707164
縻 1
赓 1
ALL 1
Just 0.15088417733574414
Ker@@ 0.09173171486226349
MU@@ 1
Year 0.05635146773168235
Р 0.19746429407168964
堀 1
奚 1
恪@@ 1
特兰@@ 1
猖@@ 1
譴@@ 1
Fre@@ 0.08813721168631505
L1 1
Patrick 0.08673852744194477
Real 0.060104589721625794
巽 1
掾 1
漾 1
邕@@ 1
511 1
990 1
All@@ 0.11807777898764758
Will 0.1436068166863949
port 0.04360757368596377
临时@@ 1
喃@@ 1
懶@@ 1
擇@@ 1
榻 1
532 1
Bu@@ 0.08888031256863393
Mak@@ 0.11187763078429076
min 0.11352956128223522
啄@@ 1
壕@@ 1
歎 1
瑁 1
1757 0.5238492898091502
189@@ 0.9973297184820815
Bas@@ 0.07171819313379216
Library 0.0841263122956541
PI 0.4947420269476424
ran@@ 0.06757694995524909
tion 0.0485618837323231
蓓@@ 1
谬 1
529 1
Dor@@ 0.07707564669525338
TT@@ 0.7172888247020552
he@@ 0.05786820109270413
亥@@ 1
杓 1
毎 1
泗 1
溯@@ 1
盼@@ 1
砷@@ 1
邃 1
549 1
645 1
Ki 0.5032394652298723
墮 1
1651 0.7778118290724166
431 1
666 1
Ben@@ 0.07362351353866234
CB 0.42586049153737876
od 0.11572687971977463
煌@@ 1
麒@@ 1
428 1
639 1
aj@@ 0.06905791193733973
cu@@ 0.054255021004046375
ero 0.053474543289840935
啉 1
巴士@@ 1
蛟@@ 1
連續@@ 1
鮫 1
1450 0.7418285827688326
443 1
515 1
553 1
567 1
7500 1
863 1
Gre@@ 0.08439183541065656
四军 1
1724 0.6537864551574653
536 1
Han@@ 0.09240128854728875
com@@ 0.04899225300017241
eng@@ 0.05110665466360924
劈 1
感器 1
甾@@ 1
531 1
DO 0.5983666833696074
ESS 1
Socket 1
Ste@@ 0.07231505509678542
och@@ 0.10180371271317494
ɛ 1
夯@@ 1
期徒刑 1
甩@@ 1
遽 1
1523 1
349 1
632 1
646 1
925 1
Ol@@ 0.07016664954521533
SpaceX 1
Ubuntu 1
vi 0.12494830723356803
≤ 1
柘@@ 1
426 1
est@@ 0.03775707634674401
ga 0.08382593201351912
坛@@ 1
釧 1
1B 0.9914660622647781
537 1
Ger@@ 0.05306659739195935
MY 1
RD 0.5349933317934016
Tre@@ 0.0937380933205997
宦@@ 1
摊 1
芭 1
653 1
NG 0.9894634134541684
Tur@@ 0.06989404133804453
eo 0.08981684936202923
mat@@ 0.07662020046180001
恬 1
愉 1
懺@@ 1
湃 1
DLC 1
Kan@@ 0.07293816261090565
呕@@ 1
帷@@ 1
躯@@ 1
394 1
侏 1
勐 1
貸@@ 1
575 1
Fam@@ 0.4381897717077062
Ha 0.14846858395980733
KA 0.5848158194379707
Lisa 0.20873618379352202
渴 1
1756 0.4818960514761339
890 1
摒@@ 1
燭@@ 1
Adam 0.08335017585823368
if@@ 0.07209531441640034
癡 1
闪 1
2nd 0.06073181884246455
3.0@@ 1
554 1
Bad 0.08162318256314756
Gear 0.7692617057569056
ICO 1
That 0.05488877966901356
佚@@ 1
憧@@ 1
焊 1
籬 1
褫@@ 1
1689 0.5754926116720118
382 1
AIM 1
戌@@ 1
浣@@ 1
真人@@ 1
鳌 1
1647 0.8356541179337441
ATA 1
CH3 1
En 0.0027415869812473254
Magic 0.21628434739035907
垢 1
崭@@ 1
FOX 1
Mol@@ 0.0884554332420008
ett 0.0642730902604267
ung@@ 0.061403353851955715
嶠 1
顷 1
494 1
ELE@@ 1
ro 0.10984931275074218
仗@@ 1
624 1
Cer@@ 0.09793478229510776
GeForce 1
Rose 0.09399147905745459
Sim@@ 0.09308122388570608
Zero 0.3380531107832461
轿 1
陂@@ 1
Medi@@ 0.151171029899777
dis@@ 0.016209659947005184
ela 0.07494952317282819
紊@@ 1
鮡 1
13.5 1
1529 0.9652086993511918
1688 0.5878747785688405
423 1
468 1
538 1
636 1
686 1
Opera 0.13104868745712192
Pa@@ 0.12434164158288345
Valley 0.050406106710269905
bar@@ 0.03665317575712398
chi@@ 0.10149101658562265
栎 1
璿 1
1623 0.7379027235009964
8.7 1
84.@@ 1
DT 0.4943647700181461
Mu@@ 0.09852033959425432
惶@@ 1
1578 0.8895714478531562
1588 0.8227299848517915
534 1
790 1
Cur@@ 0.09682037342565782
ITV 0.43530293153160443
Ruby 0.49350612202425775
呋@@ 1
牟 1
禿 1
虱 1
1490 0.9883684147054275
800@@ 1
RP 0.7142884580328748
灿@@ 1
禱 1
缠 1
萩@@ 1
钵 1
1727 0.5961330321363668
762 1
ce@@ 0.12255135552426684
ip@@ 0.13183706366192904
嫦@@ 1
寥@@ 1
琊 1
迥 1
1745 0.5132993112993521
CAS@@ 1
DB@@ 0.9492034058169996
F4 1
IO 0.9887382478645677
std 1
癲@@ 1
10.6 1
125@@ 1
454 1
751 1
Family 0.07797503147412545
The@@ 0.14029520003472098
del@@ 0.07570034058922558
ian 0.06212868260770409
岌@@ 1
拥 1
涡 1
翘 1
鍛 1
1670 0.5848507394792666
1758 0.44515719993018793
2C 1
Market 0.19419533530040703
Surface 1
Vo@@ 0.1519335014313794
ki@@ 0.09629504592391926
缕 1
472 1
675 1
GPL 1
Get@@ 0.6719335344511378
Nokia 0.5755741134970673
Pacific 0.05091488033401272
S3 1
U20 0.6736521861091976
络@@ 1
罔@@ 1
虾@@ 1
貽@@ 1
赦@@ 1
1764 0.4423274153326493
1768 0.40359451203235647
507 1
5A 1
IU@@ 1
Miss 0.0831346456548111
Services 0.09919228454186302
WN 1
head 0.021563771761941485
star 0.057418309408172
yc@@ 0.15094064186741207
实际@@ 1
杲 1
泓 1
瀬 1
煬@@ 1
鏗 1
0.01 1
AME 1
Education 0.04216938082073036
J1 1
Jason 0.14352740487813914
top 0.019923043607373955
忆 1
讼@@ 1
闰@@ 1
1635 0.6476332717618595
602 1
END 1
Ryan 0.11634115804880295
ten 0.010672910044999533
丢 1
剎 1
祀@@ 1
苟 1
铲@@ 1
鳄@@ 1
6500 1
651 1
Tim 0.12994492494403986
Ul@@ 0.10752185847972007
亞馬@@ 1
岖 1
择 1
萝 1
鄚 1
霾 1
1502 1
1505 1
379 1
ence 0.046076821603738945
佼@@ 1
鈺 1
603 1
626 1
Meg@@ 0.1656073520599383
Sky@@ 0.23587759069779649
Under 0.06395034057457696
You@@ 0.5581700842556386
az 0.07420987405871363
sh 0.37972066811668825
唆 1
恼 1
暹 1
蕪 1
.. 0.0731870209672497
1.7@@ 1
439 1
elle 0.0071375289173235285
men 0.01332910012441619
悚 1
珥 1
374 1
436 1
516 1
bi 0.12488802849482766
gen@@ 0.04290407456746162
ㄧ 1
嵊@@ 1
洄@@ 1
狹 1
鯙 1
12000 1
5.56 1
577 1
586 1
755 1
Golden 0.07724204254648419
chi 0.04598300788176737
xi@@ 0.21278604653638997
帑 1
漪 1
稔 1
蛭 1
1667 0.6662141663347285
615 1
BI@@ 0.9566683247665763
Bon@@ 0.08352127099968558
EF 0.5390258767409546
OK@@ 1
TB 0.8812375240119961
囱 1
榭 1
祈 1
鳖 1
1591 0.9308375606412059
522 1
TGV 1
瑠@@ 1
鐸@@ 1
424 1
456 1
CSS 1
Eu@@ 0.2643002717908965
愍 1
阿卜@@ 1
馨@@ 1
42@@ 1
Dan 0.11690682131883794
ESPN 0.3653359496461335
Harry 0.07453593183518942
MP3 1
OR 0.6304840482872481
WW@@ 0.43161175910082095
兌 1
燊 1
颚 1
UB@@ 0.9511437803630689
ali@@ 0.08539919102122145
克里斯托@@ 1
拂 1
痊 1
絹 1
1538 0.9544236737001071
DH@@ 0.659668386319127
DOHC 1
MAC 0.623709948837169
Mah@@ 0.07278854022858312
Radeon 1
剷 1
摹 1
秉 1
筝 1
1526 0.7775996201906158
393 1
摯@@ 1
805 1
AY@@ 1
Met@@ 0.11488680456375433
ates 0.02156557411300686
德米@@ 1
搅@@ 1
涩 1
硤 1
礫 1
鉑 1
1626 0.7228849861514998
1735 0.5723671523637393
1759 0.47914493204459613
492 1
ARA 1
LCD 1
Pin@@ 0.08794124818265071
title 0.020890382751297756
瑗 1
禿@@ 1
谒 1
444 1
Collection 0.19924189958969452
GC 0.4041426063861601
LO 1
mac@@ 0.16641511356402577
sc@@ 0.06015947312836178
ys@@ 0.09602150765564599
栩@@ 1
汁@@ 1
綵 1
肱@@ 1
軾 1
颌@@ 1
419 1
Are 0.2366052609517726
Framework 0.9429272212706963
Holdings 0.43943672468634637
Pas@@ 0.0795302980261297
ye 0.05321409685557131
加拉@@ 1
浊@@ 1
漲@@ 1
穢 1
芹@@ 1
1597 0.8597722605625057
561 1
Stadium 0.07000939613281955
Tower 0.1396168552867889
吩@@ 1
海因@@ 1
绶 1
蒜@@ 1
鉅@@ 1
1.8@@ 1
Amazon 0.2706708947074556
DX 1
EVA 1
FR 0.6327002852365212
ema 0.1231715235876563
gen 0.057942699681959794
lis 0.09839347383895053
ば 1
孽 1
嵇@@ 1
耘 1
酥@@ 1
545 1
MIT 0.3608721842066783
Na 0.2527176126788608
ly@@ 0.10537253256535122
ご 1
乩 1
拘 1
曠@@ 1
琬 1
瑕 1
镉 1
731 1
85.@@ 1
86.@@ 1
Angel 0.18021616399417845
Soul 0.23056056452044724
Xperia 1
ʰ 1
疽 1
里希 1
1487 1
541 1
565 1
oa 0.13060611302324937
勅 1
瑋@@ 1
聾 1
1370 1
1606 0.7835666871998175
557 1
Ru@@ 0.07504849473513452
Stage 0.23255384174354396
Victor 0.08952549189981718
igo 0.23255384174354396
onia 0.11460656085552143
尼克@@ 1
砾 1
綏 1
總部@@ 1
羯 1
臚 1
533 1
936 1
CJ 1
CU@@ 1
Engine 0.4205608954463055
IPA 1
Mad@@ 0.07201683573581674
ted 0.02218843129013789
砦 1
羨@@ 1
込 1
霓@@ 1
Social 0.06845944293695475
懦@@ 1
栈@@ 1
渎 1
蝰 1
酌 1
釘@@ 1
1767 0.4473695559050606
523 1
A330 1
Port 0.06718558662075616
蚕 1
蛾@@ 1
邈 1
镓 1
髦 1
ty@@ 0.12164743692180974
where 0.006149631771456611
维吾尔@@ 1
闾 1
鸽@@ 1
1.25 1
452 1
524 1
711 1
905 1
Alice 0.11836851056237624
king 0.038756354860427104
micro@@ 0.09441640013879331
戡@@ 1
楹 1
瀆 1
灼 1
荨@@ 1
餡@@ 1
715 1
Prince 0.051862747279385044
ish@@ 0.07382344797975517
lan@@ 0.08603610451076742
long 0.01219910741638672
收視@@ 1
桦 1
1752 0.5365018237265463
458 1
725 1
Gam@@ 0.2230628930377327
ass 0.11042538990756813
ave@@ 0.2569773293440689
print 0.13886583017554696
斯塔夫 1
裘 1
贛 1
韜 1
Sound 0.1239891875587705
ice 0.033974837764655416
嚨 1
擱 1
梟 1
矶@@ 1
粘 1
缪 1
钒 1
.1 1
457 1
613 1
DDR@@ 1
ra@@ 0.07109205269606436
巍@@ 1
梳 1
詹姆@@ 1
鐮 1
钯 1
颐@@ 1
722 1
Cas@@ 0.06116518918482712
Die 0.002322918180307728
Fran 1
Main 0.0673236202767033
Si 0.062215291434671735
ず 1
嘛 1
苇 1
4C 1
Capital 0.1348388650458627
Samsung 0.41845099222468973
View 0.3290284327566751
ll 0.5536381940609101
pre@@ 0.03027267632569493
tic@@ 0.09178783545210263
傻 1
喘@@ 1
跻@@ 1
1572 0.7088201264974446
493 1
929 1
973 1
Not 0.11465096848417843
ast 0.07904073239615189
su 0.002752716218861406
Ⅰ 1
涟@@ 1
畹@@ 1
1493 1
1544 0.9929488286796465
628 1
634 1
aro 0.11927931344419404
def 1
ud@@ 0.08790790747914644
繇 1
茴@@ 1
釐@@ 1
TG@@ 1
than 0.007545599687283121
績@@ 1
钙@@ 1
614 1
655 1
Bo 0.4033946793288341
V8 0.37832036257055257
钨 1
1545 0.9050784308015969
1633 0.7260284270207772
546 1
547 1
Friedrich 0.04076978208924501
cell 0.08142899036859476
iz@@ 0.054467603443754876
檜 1
祁 1
馬州 1
668 1
815 1
9.4 1
Dakota 0.14373702594840368
د 0.4615049129406121
س 0.38614027590449784
澹 1
EE@@ 1
NH 0.6680754560974205
Os@@ 0.08614179780060588
T3 1
me@@ 0.054219399241364874
oth@@ 0.09957755487936011
una 0.0023482500687013633
yi 0.13252206238007339
蕴 1
顗 1
Am 0.014578516962037855
Dark 0.14969230806552108
Take 0.3190858668286964
ha@@ 0.0958814781041028
pl@@ 0.0423056210739283
康熙@@ 1
晞 1
1.6@@ 1
527 1
Bar 0.14292654398481275
Cl2 1
GSM 1
Tu@@ 0.09819078782706787
ings 0.029576581228276576
喂@@ 1
齦 1
571 1
643 1
759 1
OM 0.7534994932712418
RB 0.5514711175808366
hp 0.6031164573139115
慌 1
戟@@ 1
賠 1
餌 1
1575 0.832301542162699
Level 0.30491026436037905
N2 1
ef@@ 0.05939784068585344
ho 0.16816265234458222
ure 0.04573357006816083
ζ 0.7936960342219853
尻 1
炙@@ 1
荠 1
逐艦 1
钉@@ 1
鹊 1
1555 0.7737708569653015
1659 0.7004790146021467
576 1
623 1
87.@@ 1
9.9 1
915 1
Interactive 0.5282894588758775
cher 0.05393379887227974
掺@@ 1
隧 1
568 1
608 1
Cross 0.07287630101976977
Department 0.0323242083384426
MK@@ 1
char 0.5503011521444687
iko 0.14824653688132547
セ 1
儸 1
捻 1
湟@@ 1
疼 1
鍍 1
A320 1
Information 0.12414828596992138
ative 0.03720559097989145
ichthys 1
lin@@ 0.0679212701933846
tra@@ 0.13743425085633224
事实@@ 1
溫哥@@ 1
肯尼@@ 1
蘋 1
颌 1
ASS 1
Ace 0.5358460221211194
Ed@@ 0.10203519860717226
Em@@ 0.08100132663750671
Kur@@ 0.05177312711006672
ello 0.057228218228198485
ima 0.10877089472502809
ze 0.04542414876042288
啮@@ 1
嘯@@ 1
骥 1
Access 0.3385845894872346
Pixel 1
ame 0.09747870473579422
暈@@ 1
様 1
燁 1
1540 0.5685316801377459
BM 0.4495350034246295
Ham@@ 0.08149469499547383
Jane 0.10656476491923958
Ken 0.17784946698223353
µ 1
亢 1
薊@@ 1
1632 0.6255267714480055
578 1
And 0.08480336994051992
ash@@ 0.0959075627911882
之為 1
恃 1
捣@@ 1
滸@@ 1
璨 1
鈺@@ 1
1457 1
1733 0.5902371061186441
438 1
GameSpot 1
Ir@@ 0.08122432715169771
QU@@ 1
TOP 1
Zone 0.12723763047256395
mal@@ 0.045147410526254844
ser@@ 0.046197223594261226
俐 1
癸 1
1639 0.7663757887311781
519 1
521 1
717 1
A5 1
BI 0.48797492344168825
PCI 1
俭@@ 1
遊樂@@ 1
1.9@@ 1
498 1
544 1
684 1
902 1
Kiss 0.3619116146994183
VPN 1
密西西@@ 1
瘡 1
祜@@ 1
鷺@@ 1
1652 0.6845144800162932
421 1
Davis 0.06800881636338771
Sport 0.0880042452125626
墨西@@ 1
壬 1
沭@@ 1
漿@@ 1
燮@@ 1
瞄 1
诲 1
路易斯@@ 1
鱧 1
0.0 0.7011436216889837
1664 0.6746441813022903
635 1
648 1
only 0.006057850299052781
ʁ 1
嬪@@ 1
晟@@ 1
獺 1
羲@@ 1
颊 1
1594 0.8348573852236448
596 1
611 1
France 0.009071604301448478
OL 0.9692630952086507
作曲@@ 1
哮@@ 1
垩@@ 1
涇@@ 1
1728 0.6131207148384017
598 1
C2@@ 1
du@@ 0.0528382516378729
min@@ 0.05782100166366844
phy@@ 0.1841227003787355
pi 0.23328753831478594
琐 1
迂 1
邢 1
锚 1
驍@@ 1
KO 0.5085498305362924
Oh 0.301564964556485
PHP 1
Women 0.032961773368101084
ania 0.13414457441412714
ois 0.13813893085014564
犍 1
耶稣@@ 1
肽@@ 1
1684 0.7022924757690309
3300 1
AIR 1
Anthony 0.08894176315485115
Base 0.1314733921583027
Juan 0.030303598844737045
NPC 1
Unit 0.19289295417908933
ome 0.10265811153447671
sky 0.06778417670271121
同性@@ 1
恳@@ 1
陇 1
1584 0.8096190494946536
629 1
704 1
ICO@@ 1
匐 1
妒@@ 1
痘 1
絶 1
羔@@ 1
豎 1
鄙 1
釷 1
钼 1
镛 1
765 1
Elizabeth 0.05949026546305496
Human 0.09871058679540018
P1 0.9822526147944052
UD 0.4863879845540754
been 0.0036934564243077117
los 0.0015448831492797914
love 0.04894874523131409
tom@@ 0.10038952894958526
伊利@@ 1
嚕 1
缆@@ 1
192@@ 1
526 1
587 1
656 1
682 1
Bio@@ 0.38565283904817516
Lewis 0.07159157116967582
Tan@@ 0.09615592704014513
忏@@ 1
痺 1
衅 1
1654 0.607970511253662
1725 0.5676704683959998
464 1
559 1
Committee 0.03878396661575448
Health 0.06120241289783395
uk 0.12298373686038432
偃 1
娄 1
屡 1
蒯@@ 1
蜡 1
閏@@ 1
鰲 1
app 0.2427141241467059
cal@@ 0.06476189935478285
ili@@ 0.0846410899019666
愛沙@@ 1
綦@@ 1
萸 1
西斯科 1
饿@@ 1
Prix 0.05326622993668649
导体 1
恺@@ 1
撐@@ 1
睹 1
铁道@@ 1
1655 0.6750420320149267
1713 0.5468277069564046
926 1
Computer 0.16202397094496818
Play@@ 0.25352184706051445
ai@@ 0.12368083186971791
ax@@ 0.11124328736831351
ev 0.08255157976653128
Б 0.13085716357034483
淅@@ 1
漬 1
狸@@ 1
471 1
908 1
Anim@@ 0.39291386912417003
Jay 0.15045530427059792
Poly@@ 0.1510017223085963
UFO 0.9827169366312374
ten@@ 0.03098085481298599
旻@@ 1
罩@@ 1
览会 1
437 1
483 1
488 1
702 1
len 0.07610091923934725
tes 0.024158568170880017
栽 1
糙@@ 1
胭@@ 1
野手 1
锦赛 1
562 1
Theatre 0.05339628658503022
ere 0.04423650256470671
og 0.17018737546898238
ppm 1
匍@@ 1
奥林匹@@ 1
奧林匹@@ 1
悄 1
柵 1
汙 1
汰 1
淖@@ 1
辻@@ 1
金馬@@ 1
050 1
1350 0.6944690780328562
447 1
448 1
712 1
PS2 1
Pentium 1
х 0.025155293245705042
胪 1
茗 1
1050 1
446 1
aki 0.09004474915385358
ales 0.02440709560801452
asa 0.1081029138119484
婕 1
恙 1
瘟 1
1721 0.5716616831594461
461 1
965 1
Anna 0.05955805094930326
Christopher 0.11016595072210457
Division 0.01840903918700756
U23 0.5693649021766989
VB 0.8473264398232164
WA 0.28806506492701106
shell 0.17839666770384457
嘅 1
媚@@ 1
幌 1
烂@@ 1
迄 1
钰 1
頃 1
鳍@@ 1
ova 0.08546415466046703
槛 1
浒@@ 1
演唱@@ 1
熾@@ 1
543 1
572 1
H1 1
L2 1
LV@@ 0.8056455650663525
Standard 0.12053651328332854
尝@@ 1
汛@@ 1
痰 1
竿@@ 1
茫@@ 1
鈸 1
1080 1
825 1
Board 0.04589655968573553
po 0.1400591852341871
uc@@ 0.08327350572889967
壺@@ 1
渭 1
珅 1
璠 1
盏 1
砵 1
铋 1
麓@@ 1
681 1
685 1
81.@@ 1
HMS 0.13538241254193376
Philip 0.09371036179165983
Wiki 1
orum 0.15006499433081158
峠 1
漩 1
玫 1
642 1
975 1
Cam@@ 0.09711266773626644
FM@@ 1
Il@@ 0.07489506646785124
NY 0.19687033491981387
Wil@@ 0.06959059441671465
iv@@ 0.062405876862005855
score 0.04387350826653778
加泰罗@@ 1
婕@@ 1
恤@@ 1
掀@@ 1
沅 1
示威@@ 1
荀 1
1707 0.5229484353717663
1761 0.443413716286525
962 1
ota 0.08621403472679669
pp@@ 0.10695637075606117
侗 1
铊 1
锗 1
1638 0.646388575912232
434 1
482 1
Free@@ 0.7336959943668928
IU 1
Mount 0.06189727663386188
Pay 0.7720793186296183
Sea 0.058089538735371635
ami 0.06489812948756561
互联@@ 1
1754 0.4640775153405048
469 1
558 1
Raw 0.2593582785015519
aka 0.08642691347386189
down 0.016812734091365498
house 0.016963360363829796
not@@ 0.06467445150884776
usa 0.11357262919830569
咄@@ 1
尴@@ 1
岛市 1
峴 1
溉@@ 1
滬 1
澗 1
582 1
NCC 1
冉 1
出租@@ 1
潇@@ 1
窪@@ 1
003 1
709 1
NR@@ 0.46125541041711604
YS 1
xx 0.8085183014658102
瓣@@ 1
輻 1
铨 1
靺 1
496 1
918 1
G2 1
Syn@@ 0.17044879029763776
War@@ 0.0608392507430685
ise 0.026817252912586107
苴 1
478 1
802 1
Miller 0.08006949469524739
PH 0.7353987273836525
html 1
乍 1
清华@@ 1
連串 1
1766 0.4161531395882212
616 1
Je@@ 0.11234238767954488
Pl@@ 0.06503001001486824
Portable 1
next 0.020729372594308983
Ⅲ 1
嗪 1
嵯@@ 1
掖@@ 1
菩@@ 1
0.02 1
459 1
熹@@ 1
瑣@@ 1
谥@@ 1
1260 0.9545862132606228
692 1
Stone 0.08206884064574894
榈 1
瀾@@ 1
盞 1
鐳 1
陲 1
Roger 0.07752683841501631
ix 0.16553477095975838
俺 1
嫌疑@@ 1
230@@ 1
756 1
Gaga 0.6340307233609547
VHS 0.5246295382125936
ネ 1
揣@@ 1
榈@@ 1
郢@@ 1
頗@@ 1
1369 1
1751 0.5032179703919557
1753 0.3867865757691283
467 1
CB@@ 0.5043743575154784
Ra@@ 0.09488272956159777
Sun@@ 0.12103251961895113
灑@@ 1
缸@@ 1
駒@@ 1
487 1
638 1
Advance 0.7298549381918044
Part 0.15580933897647237
Rem@@ 0.09536779522802151
ock 0.09426430950670053
娼 1
闫@@ 1
鞨 1
鱺 1
542 1
971 1
ERO 1
FP@@ 0.7907172423569595
How 0.17682520645194444
Pascal 0.29556479686188536
U18 0.7299660133138398
VCD 1
icum 0.3186957094368092
栋@@ 1
皺 1
祜 1
酌@@ 1
鈣@@ 1
497 1
Paris 0.012323295292656791
ny 0.08551756393808085
oro 0.07550956581982368
偈 1
眺 1
窪 1
笹@@ 1
荻@@ 1
萤@@ 1
0.25 1
1466 1
1561 0.8381082903458442
429 1
8.0 1
AU@@ 0.8341162979877166
Hans 0.04653226924932524
Pop@@ 0.15600205887301036
彪@@ 1
斯德@@ 1
沫 1
1587 0.8106194481702398
1729 0.5970838492745164
738 1
Bf 0.9723637399065568
NC 0.3000721483347915
PF 0.5378104100891506
after 0.003929886176092756
ibn 0.15800274924267504
勺 1
卡斯蒂@@ 1
啡 1
玄宗 1
臧 1
荔 1
轨电车 1
鰺 1
1690 0.49336075311993677
Az@@ 0.0766660165813337
CAS 0.8667731932793664
Nor@@ 0.06436940413744607
ake 0.11198020908297034
bis 0.0038070041023631177
eon 0.25095850242863016
height 0.10024348665815898
澧@@ 1
923 1
Over 0.07582489540700546
PS3 1
SIM@@ 1
颓@@ 1
駙@@ 1
1460 0.8619821462819673
[...]
