the 153307488
, 143958089
. 126872125
of 84761505
and 73096771
in 64238841
&quot; 57075854
to 50962509
a 49553683
was 31680994
@-@ 28215936
The 25680845
is 23660650
) 21842243
( 21815566
for 20319936
as 19653843
on 19344075
with 17642440
by 17423373
&apos;s 15730555
that 14075044
at 13316005
from 12754559
his 11207769
an 10330293
In 10195014
he 9332878
were 8304289
which 7471490
are 7238644
it 7194169
He 6783224
also 6124318
; 6111639
had 6086655
be 6039384
or 5996816
: 5925151
– 5673399
has 5665825
first 5488686
It 4915315
their 4836792
its 4698708
one 4650378
who 4525757
her 4355918
not 4345138
but 4335049
two 4027352
have 4020441
this 3897011
been 3777123
&apos; 3773354
after 3372208
time 3167270
they 3119463
other 3053880
into 2986249
A 2967521
she 2853656
all 2765700
% 2607027
On 2599290
more 2593834
ing 2552860
New 2547758
would 2534197
when 2528611
years 2527559
up 2489390
over 2455571
/ 2452128
This 2412673
1 2409766
during 2394560
where 2382179
year 2363409
only 2321359
season 2302365
new 2279422
between 2263050
out 2249391
three 2215702
made 2197585
ed 2171004
him 2143860
later 2130623
then 2115905
used 2112483
United 2108872
s 2085539
&amp; 2085483
known 2068411
such 2067832
most 2062947
about 2047853
American 2037739
can 2025699
2 2015718
part 2001795
became 1999807
team 1985423
University 1984465
She 1965672
under 1962090
born 1922828
well 1920075
than 1897010
including 1867589
being 1841382
film 1840484
there 1836659
I 1822203
some 1782148
second 1760170
against 1728918
through 1722720
de 1695111
After 1690030
while 1659310
before 1656148
work 1646435
many 1638292
3 1626403
until 1603361
World 1587913
family 1582191
both 1582117
them 1580206
people 1565596
played 1548772
States 1548678
album 1536593
National 1511139
no 1504143
name 1501436
released 1484315
number 1461014
series 1453075
life 1438169
won 1436093
As 1433091
area 1431463
may 1423637
called 1413130
school 1411579
four 1409140
May 1391242
4 1386964
March 1363460
re@@ 1355747
September 1348712
un@@ 1344943
January 1342098
June 1322042
age 1320716
career 1318327
October 1316170
several 1313526
following 1310073
July 1308148
same 1308001
early 1303542
city 1303307
state 1302960
August 1286241
John 1286227
School 1277133
April 1272613
use 1270008
South 1268247
game 1263916
based 1258123
They 1257085
es 1251259
found 1246580
began 1243808
y 1243442
November 1241229
these 1236043
since 1231638
will 1229242
10 1226031
December 1225753
His 1218594
end 1211300
County 1189154
group 1186326
amp 1185178
so 1182324
al 1181483
5 1176661
held 1167553
place 1163448
located 1157949
At 1146743
War 1139744
York 1134886
$ 1132956
son 1132767
government 1129584
man 1122513
ate 1119456
6 1118114
named 1114373
member 1114220
There 1113213
former 1112691
took 1112393
back 1111778
State 1108453
February 1105704
high 1100771
day 1099556
British 1097267
each 1096797
City 1095266
population 1094437
League 1090800
century 1090641
served 1082698
music 1075812
now 1073156
2010 1067788
station 1066247
’ 1060132
- 1055346
ated 1053331
ation 1049481
song 1048659
line 1048072
company 1048058
However 1039683
any 1037646
received 1035671
home 1031826
did 1030562
around 1027541
led 1019852
ers 1012738
could 1008615
2011 1007241
North 1006914
built 1000457
town 992444
able 991076
due 982918
long 981880
off 970443
single 970296
2012 968352
system 967696
left 964949
like 964660
local 962993
7 962136
along 959055
12 956347
History 955761
band 954320
During 953708
died 952849
2014 950508
men 947410
members 945000
five 943530
species 942579
S@@ 938075
published 936042
2013 935764
public 934942
2016 934368
20 933948
side 933735
2015 931737
said 928255
include 927301
18 926746
final 923378
within 923066
club 917328
8 912859
set 911838
2008 908749
building 907815
2009 907414
large 903515
because 902582
B@@ 900572
world 889303
own 887247
2018 886135
15 885518
included 884585
land 882874
2017 882032
third 879604
village 879259
2019 864283
small 863294
For 858803
way 858285
2007 847614
College 847356
French 845542
show 843068
national 841910
2006 839949
T@@ 837823
death 835366
9 834555
football 827846
&apos;@@ 827728
D@@ 826794
election 822473
last 822368
main 821633
children 820677
moved 819655
&#93; 817854
&#91; 817208
English 815497
play 814994
P@@ 814407
2020 813354
West 812900
very 809395
those 809375
er 804047
L@@ 804042
history 803878
million 803351
if 802224
still 801789
11 799629
G@@ 799558
District 799437
women 797679
water 794775
N@@ 793028
German 791340
30 791157
s@@ 790831
form 788577
K@@ 788564
down 787986
W@@ 787887
another 786140
old 781754
service 780171
in@@ 776331
— 773734
major 771742
house 770830
book 770080
war 769861
district 767556
International 766706
often 763842
II 763516
16 761025
near 758724
River 758203
U.S. 756660
London 756057
north 752948
When 751919
different 747781
A@@ 745399
father 744439
14 742085
established 741503
games 735875
field 734275
country 734055
19 733872
announced 733840
late 733608
original 733176
again 732572
best 732119
All 731661
House 728216
R@@ 725159
M@@ 725059
record 724876
Cup 720314
south 720074
dis@@ 719254
F@@ 718635
started 717081
order 716285
US 714898
six 713708
title 710454
role 710181
top 710015
One 708103
per 707467
went 707074
13 706821
law 699995
period 698628
_ 696802
came 695729
do 695679
25 694787
worked 693741
just 690817
head 687188
what 685368
O@@ 685027
much 684537
joined 684249
support 684134
C@@ 682807
17 678234
produced 678125
among 675530
2005 670683
using 668848
H@@ 668742
power 666052
make 665665
2021 661906
England 659993
E@@ 658714
wrote 658636
become 656416
having 655769
described 655707
given 655628
married 653775
total 652563
general 649681
next 648495
community 647961
ted 647282
These 647185
European 646063
returned 644881
ating 644652
24 644021
player 643984
non 642783
Park 642337
various 642226
less 641172
works 640325
even 639766
development 639188
written 639037
General 638358
t 636805
political 636801
East 636325
created 633705
William 633510
2000 632417
From 630719
V@@ 625830
2004 622954
ts 618448
production 618101
point 617237
21 616914
d 616646
J@@ 616339
Church 615275
site 610324
ly 610083
Party 609811
India 608397
ar 608035
Australia 607012
round 604720
formula 604369
level 603385
however 602401
By 602291
founded 601426
= 600720
! 600640
elected 600103
take 599968
Council 599173
continued 598730
position 598193
win 597559
few 594821
Army 594454
According 594348
France 594212
High 593535
students 593184
Street 592819
days 592819
west 588373
right 587821
military 582788
church 582014
times 580166
ch@@ 579704
James 579566
signed 579023
co 578222
Division 578057
King 577431
party 577396
region 577052
George 576056
without 575544
east 574817
100 573736
am 573659
i 572742
version 569893
San 569402
opened 566694
event 566660
television 565076
making 564911
St. 564825
match 564712
22 564619
m 561927
lost 561837
ates 561655
run 561250
considered 560012
appointed 558731
present 558554
President 557882
art 557791
professional 557624
recorded 557340
California 557325
short 556074
d@@ 555793
als 555343
half 554448
ting 553495
full 550946
America 550498
international 548657
e@@ 548057
ist 547534
Canada 547502
el 546550
language 546357
ally 545620
ous 544677
education 544483
debut 543939
style 543605
formed 543390
research 541646
2003 541113
&apos;t 540155
together 537864
story 537535
program 536469
o@@ 535936
et 535566
appeared 535000
0 534009
us 532630
re 531700
working 530718
Association 530412
further 529545
wife 529291
g@@ 528661
With 528475
developed 527940
23 527501
ations 525242
ic 524271
important 522130
Early 521687
Union 521606
B 520847
ity 520836
2002 520569
e 520129
an@@ 518958
term 518469
class 517931
points 517928
sh@@ 516964
areas 516162
While 514877
release 512674
teams 511954
video 510387
case 510184
result 509863
2001 509826
lead 509193
Royal 508832
ans 507145
Indian 505977
business 505420
office 505233
Australian 505029
playing 504767
addition 504664
I@@ 503712
TV 503475
“ 501247
control 501185
away 499868
” 499640
director 497433
every 497129
popular 492300
h@@ 492075
although 491485
average 491389
similar 490675
Award 490078
Championship 489625
Club 489220
O 489202
list 488872
28 488039
ship 487797
example 486759
design 486576
26 485380
social 485300
Germany 485164
league 483440
others 482549
ar@@ 482539
First 481730
27 479768
across 478869
body 478862
low 478253
himself 477619
Z@@ 475637
president 475558
project 474879
en@@ 474826
events 471586
David 471518
China 470488
race 470031
services 469849
Road 469723
common 469315
Company 468933
u 468636
living 468345
f@@ 466870
... 466049
gt 465993
p@@ 463653
sold 463119
though 460201
live 459293
finished 458498
Central 457340
lt 457204
Court 455997
al@@ 455603
Some 454685
daughter 454665
Group 454264
mother 453746
U@@ 453603
1999 453215
Europe 452597
months 451610
how 451583
Music 450469
road 450436
free 449634
followed 448989
available 448748
gave 448554
Thomas 447032
we 447001
never 445990
o 445482
y@@ 444962
completed 444415
t@@ 443364
Japanese 443341
taken 443135
air 442268
th 442161
r@@ 441991
construction 441717
Robert 441642
ley 441326
performed 440964
b 440639
ton 440033
open 439786
Japan 438894
coach 438702
white 438336
track 438193
remained 438084
29 437349
Air 436436
largest 435919
designed 435802
seven 435526
character 435467
stage 435242
ad@@ 434385
young 433682
reported 433591
UK 433560
modern 433256
Washington 433246
Ch@@ 433229
ine 433165
An 432248
Charles 431953
leading 431771
k 431327
Her 430619
should 430285
Center 430044
Hall 429788
originally 427596
Western 427467
once 426799
songs 426634
co@@ 426268
w@@ 426151
ten 425948
players 424842
Other 424558
1998 424025
th@@ 423131
great 422556
Department 422349
seen 421963
process 421576
h 421325
current 421064
directed 420408
ings 420160
Russian 420024
return 419778
Paul 419594
Institute 419426
performance 419187
refer 419183
brother 419001
groups 418340
study 418139
en 417834
Although 417618
light 417464
Since 417359
post 417033
features 416573
ary 416486
includes 415743
la 414518
Sh@@ 414492
ism 413694
Chinese 413553
eight 413468
throughout 412781
el@@ 412232
training 411933
official 411650
c 411428
Canadian 411267
Island 410845
on@@ 409868
le 409127
Society 408969
does 408789
sent 408377
help 408229
1996 408074
forces 407633
see 407161
featured 406907
Y@@ 405616
awarded 405154
n@@ 404416
African 404377
involved 403069
currently 402403
1997 402333
n 401577
Mar@@ 401493
ended 401182
or@@ 401052
50 400732
range 400536
information 399748
stated 399716
eventually 399559
de@@ 399298
episode 398851
schools 398243
b@@ 397919
Minister 397560
good 396551
er@@ 396048
red 395965
front 395540
go 395520
Its 394285
C 393444
degree 392997
human 392266
board 391770
you 391444
Academy 391217
central 391170
added 391168
countries 390481
fire 388669
Act 388509
p 387799
replaced 387239
close 386907
Al@@ 386119
black 385871
families 385547
Women 385310
winning 384883
usually 383949
placed 383267
Ar@@ 383088
car 382980
competition 382909
fourth 382852
private 381895
Africa 381616
special 381394
either 381250
court 380682
1995 380622
31 379497
Spanish 378951
previous 378574
get 378407
provided 378255
police 377806
ors 377056
1992 376479
college 375458
center 375195
reached 374839
killed 374705
Great 374680
1994 374549
l@@ 374408
radio 374398
km 374345
Lake 373377
as@@ 372701
must 372461
least 371624
To 371322
List 371179
Italian 370974
Michael 370876
active 370379
ant 370197
action 369283
states 368913
Best 368586
owned 368573
above 367962
type 367656
rights 367624
ever 367130
Henry 367096
listed 367024
k@@ 366577
attended 366556
scored 366017
aircraft 365277
section 365239
ical 365236
Football 364873
introduced 364422
Republic 364301
media 364217
saw 364143
change 364094
over@@ 363955
upon 363767
l 363618
related 362444
attack 362237
sub@@ 362028
am@@ 361027
ia 360843
st@@ 360518
railway 360001
campaign 359659
ists 359628
j@@ 359452
decided 359351
St 359190
parts 358409
via 358296
space 358188
contract 357785
Awards 356371
rock 356277
shows 356135
White 355957
Career 355883
D 355350
size 355022
c@@ 354978
mid 354543
king 353869
female 353315
census 353125
Ireland 353024
1990 352844
1993 352579
40 352243
ent 351291
films 351241
1991 350586
put 350071
ground 349522
Museum 349293
person 349163
Saint 349103
Texas 348322
writing 348004
success 347915
previously 347582
goal 347319
es@@ 347278
v@@ 347120
La 346725
model 346538
represented 346347
start 345857
river 345513
Kingdom 345061
rather 344845
Following 344592
instead 344514
tournament 344384
Education 344345
Christian 344271
buildings 343850
Two 343765
studio 342988
at@@ 342322
g 341671
books 341257
whose 341059
R 340539
provide 340498
Black 340363
inter@@ 339993
ap@@ 339310
successful 338693
behind 338451
Peter 338417
im@@ 338134
lived 337987
z@@ 337821
ab@@ 337224
brought 336716
almost 336705
health 336513
Roman 336470
force 336178
Government 336073
Art 335175
Los 334971
novel 334787
Mc@@ 334337
a@@ 333445
era 333415
data 333111
Paris 332504
division 332396
Grand 332028
ons 331526
movement 331089
ran 330203
Committee 329602
ability 329500
week 329499
Catholic 329145
defeated 329028
Later 328681
units 328619
base 328049
soon 327907
approximately 327793
Championships 327713
significant 327446
Soviet 327321
Mary 327306
ment 326962
outside 326456
possible 326110
le@@ 325911
structure 325815
organization 325665
market 325608
In@@ 325344
Zealand 325081
1989 324937
met 324895
changed 324836
se@@ 324657
taking 324486
allowed 324255
northern 323502
Smith 323152
uses 323127
primary 322675
especially 322377
industry 322136
plays 321761
runs 321600
interest 320175
wood 319538
um 319487
De@@ 319485
southern 319349
Red 319259
ad 319240
Life 318959
lower 318106
disambiguation 317748
der 317561
too 316861
regular 316653
summer 316182
night 315835
island 315667
1988 315175
Richard 315000
woman 314962
ish 314511
est 314107
beginning 314061
&#124; 314005
Olympics 313791
spent 313553
No. 312797
Re@@ 312797
capital 312587
x 312526
wide 312294
L 312163
our 312150
artist 312066
leader 311981
itself 311197
Arts 310804
Virginia 310767
highest 310230
studies 310131
hit 310118
ch 309744
systems 309454
Summer 309442
ol@@ 309427
Most 309202
Festival 309018
little 308927
An@@ 308906
Chicago 308888
os 308811
whom 308696
room 307662
towards 307318
Bay 307211
sometimes 306865
lines 306782
i@@ 306506
closed 306285
Second 305505
traditional 305312
independent 305041
county 304815
Records 304122
ets 303900
plant 303663
higher 303406
western 303144
1st 303100
opening 303098
magazine 302879
for@@ 302756
far 302675
length 302548
operations 302485
loss 302307
di@@ 302156
generally 301984
bridge 301676
running 301168
studied 301132
seat 300622
ks 300487
Film 300324
route 300307
come 300181
course 300074
according 300027
noted 299472
culture 299232
army 299105
strong 299080
launched 299060
Force 298901
Con@@ 298821
network 298527
thus 298145
# 297967
T 297789
park 297717
1987 297522
entered 297319
et@@ 297266
collection 297168
U 296973
future 296633
em@@ 296507
Italy 296451
date 296270
hand 296246
ice 296069
child 295878
.@@ 295861
self 295646
below 295624
writer 295421
required 295264
money 295240
genus 294703
issues 294624
You 294502
Games 294391
Navy 293196
Mexico 293054
1986 292782
month 292495
Hill 292474
ag@@ 292395
X 291059
means 290712
practice 290639
ator 290489
tour 290389
location 290276
Battle 289942
Many 289938
real 289917
matches 289873
1984 289426
sea 289050
operated 288961
out@@ 288938
ology 288146
earlier 288002
senior 287994
Northern 287928
les 287919
Angeles 287833
centre 287161
ships 287149
key 286732
property 286696
ot@@ 286578
St@@ 286343
economic 286322
results 286062
cases 285812
da 285660
gold 285316
pre@@ 285173
ah 285165
If 285160
1980 285058
companies 284297
J. 284160
1985 284154
increased 283774
individual 283712
singer 283276
Russia 283172
appearance 283013
associated 282969
selected 282827
older 282805
victory 282659
becoming 282631
numerous 282492
F 282006
Bar@@ 281413
majority 281226
already 281170
Day 280714
ative 280681
Car@@ 280535
ir@@ 279985
ai 279883
decision 279879
Greek 279533
author 279347
cover 279304
manager 278882
contains 278709
Joseph 278685
find 278493
tions 278287
competed 278285
activities 277923
rest 277891
anti 277819
lo@@ 277294
ana 277000
natural 276556
initially 276543
caused 276306
serving 275816
commercial 275801
shot 275751
award 275522
love 275196
unit 275116
going 275095
m@@ 274692
move 274665
income 274662
M 274509
ur@@ 274222
food 274200
issue 274194
terms 273956
limited 273723
tr@@ 273710
annual 273638
ty 273540
student 273369
Board 273255
ite 273214
lies 273140
forms 272772
supported 272741
Irish 272143
1983 272022
personal 271594
trade 271586
is@@ 271584
Par@@ 271523
changes 271477
ka 271465
nine 271365
access 271300
mostly 271048
retired 271047
Wales 270682
artists 270667
Florida 270600
rate 270474
z 270404
Sir 270396
ie 270199
eastern 270047
bo@@ 270038
Route 270019
goals 269834
Service 269738
additional 269726
+ 269469
standard 269289
better 269035
A. 268861
act 268692
characters 268386
Pacific 268254
chief 268185
municipality 267972
me 267788
staff 267637
university 267590
Research 267491
Se@@ 267357
elections 267291
1982 267271
particularly 267184
forced 266963
thought 266619
past 266423
passed 266394
fact 266055
word 265285
ya 265131
Southern 265058
my 264974
husband 264761
Assembly 264613
edition 264419
claimed 264189
cast 264100
religious 263629
ter 263136
ec@@ 262972
ti@@ 262829
bi@@ 262716
ro@@ 262709
officer 262654
Valley 262549
1979 262444
om@@ 262133
plan 262118
management 262095
entire 261822
1972 261177
complete 261153
con@@ 260692
create 260463
subsequently 260322
Year 260051
Congress 259942
na 259805
politician 259707
Louis 259520
give 259454
view 259292
That 259239
Public 259135
stone 258941
remains 258820
championship 258807
wing 258778
Parliament 258544
feature 258511
Al 258509
evidence 258484
E 258427
medical 258201
engine 258192
legal 258006
fall 257715
battle 257067
? 256955
programs 256671
status 256633
earned 256527
ak 256515
relationship 256506
science 256449
Spain 256444
hours 256434
raised 256396
tic 256336
id@@ 256299
ents 256284
musical 255976
turn 255951
Province 255802
names 255668
today 255166
Jewish 254579
report 253777
Old 253702
ance 253536
El@@ 253476
19th 253265
1976 253257
Commission 253225
score 253048
ak@@ 252979
1981 252911
Law 252699
under@@ 252608
Th@@ 252410
sister 252082
1974 252049
ey 252006
particular 251933
Their 251901
helped 251806
1945 251695
face 251628
Democratic 251452
referred 251010
weeks 250804
Times 250783
ell 250699
presented 250586
2nd 250554
1970 250066
meeting 250038
Martin 249844
larger 249831
1968 249435
Science 249059
Railway 249015
material 248750
1975 248700
shown 248471
energy 248442
believed 248162
1978 248150
response 248092
ina 248057
complex 247669
aged 247614
Despite 247586
minutes 247376
Empire 247206
ler 247071
ness 246889
Tr@@ 246883
got 246883
Man@@ 246769
failed 246456
seasons 246254
leaving 246032
parents 245954
famous 245862
longer 245758
deal 245742
stations 245718
Green 245674
basketball 245485
u@@ 244982
specific 244953
composed 244233
Le@@ 244051
acquired 243954
Line 243533
po@@ 243338
People 243327
ul@@ 243318
Personal 243128
surface 243069
Lord 243056
increase 243019
sp@@ 242960
carried 242826
Q@@ 242753
takes 242557
certain 242052
Eastern 241981
policy 241926
Per@@ 241880
houses 241719
But 241625
footballer 241432
multiple 241402
financial 241362
fight 241357
themselves 241327
Big 240920
offered 240820
1973 240806
theory 240776
cost 240762
overall 240745
1977 240686
ely 240642
it@@ 240475
Conference 240442
graduated 240355
mainly 240216
Queen 240209
Town 240207
sports 240025
need 240015
regional 240013
federal 239922
ay 239888
Chief 239829
Series 239765
br@@ 239726
latter 239529
remaining 239514
promoted 239356
native 239233
starting 238862
200 238805
Edward 238628
S 238428
vote 238176
ies 237951
III 237830
star 237775
Radio 237462
Station 237279
Carolina 237084
1971 236999
source 236894
subject 236883
proposed 236626
li@@ 236304
ties 236006
operation 235795
troops 235749
1969 234994
Star 234957
consists 234740
effect 234720
medal 234559
Har@@ 234309
Britain 234141
variety 233899
Poland 233845
cities 233816
marriage 233804
individuals 233774
male 233613
par@@ 233405
separate 233353
turned 233234
master 233096
cultural 233088
-@@ 232912
ic@@ 232788
appears 232741
1980s 232384
train 232305
V 232084
ford 232053
Dutch 231896
appearances 231896
command 231784
care 231420
recording 231249
G 231145
acting 230600
experience 230575
department 230428
60 230350
Team 230224
1967 230207
test 230180
Brown 230174
Lee 230089
civil 230008
speed 229976
middle 229924
prior 229864
tracks 229747
influence 229635
square 229588
done 229496
ner 229443
society 229433
meaning 229230
ac@@ 229056
actor 228634
op@@ 228586
historical 228483
always 228323
titled 228313
Bank 228293
producer 228259
aw@@ 228086
des 228062
fifth 227982
professor 227650
Co@@ 227433
broadcast 227165
Biography 227106
oc@@ 226966
despite 226931
friend 226835
65 226709
K 226611
discovered 226280
20th 226250
Man 226181
ending 226067
foreign 225721
attempt 225650
il@@ 225600
conditions 225361
cr@@ 225164
£ 225121
N 225092
1964 225057
Open 225024
responsible 224717
per@@ 224670
provides 224553
managed 224522
issued 224355
Both 224337
Prince 224244
covered 224061
arrived 223928
Dr. 223704
records 223594
Creek 223296
administrative 223082
serve 222865
Love 222711
news 222670
Another 222643
wanted 222583
ville 222498
Asian 222422
car@@ 222403
Under 222296
sound 222076
nearly 221852
1970s 221732
FC 221561
finally 221438
ages 221310
We 221123
be@@ 221118
ve 221083
av@@ 220932
r 220852
recent 220837
asked 220819
ess 220502
2022 220205
nearby 220144
Scotland 220059
constructed 219907
Pennsylvania 219854
border 219830
technology 219795
Senate 219742
extended 219253
transferred 219068
Theatre 218997
cut 218887
movie 218815
plans 218675
told 218236
mis@@ 218117
bank 218092
likely 218065
problems 218038
1965 217536
Latin 217462
direct 217440
Mark 217333
ard 217246
X@@ 217222
enough 217212
os@@ 217163
fish 216777
Development 216478
officially 216345
ang 216315
participated 216314
province 216304
Jones 216226
might 216144
lands 215938
mission 215876
rural 215865
council 215621
ens 215542
text 215376
ters 215004
Be@@ 214650
saying 214565
alongside 214545
primarily 214536
products 214514
Order 214505
port 214439
heavy 214375
1960 214233
1966 213786
workers 213748
ying 213748
function 213633
Foundation 213629
Men 213559
allow 213541
Br@@ 213423
tive 213345
pre 213248
br 213212
cause 212999
residents 212870
ill 212758
us@@ 212651
directly 212636
ong 212507
Un@@ 212493
Michigan 212388
review 212346
Boston 212156
Governor 212010
leave 211845
positive 211791
ling 211755
1944 211662
channel 211659
elements 211560
Civil 211466
Mal@@ 211406
value 211238
Republican 211192
ex@@ 211131
God 211071
Health 211043
oil 211017
candidate 211006
ants 210955
double 210898
Bo@@ 210855
levels 210793
Centre 210771
appear 210684
ends 210471
editor 210470
C. 210190
here 210172
Francisco 209836
1990s 209757
Ohio 209694
places 209692
Mor@@ 209675
nature 209438
id 209191
friends 208979
newspaper 208934
idea 208897
Young 208709
ence 208524
coming 208409
whether 208237
ed@@ 208104
makes 208090
lack 208073
host 207877
ics 207855
mon@@ 207681
renamed 207480
grew 207465
Johnson 207093
Secretary 207086
yard 207059
Asia 206784
whole 206758
No 206737
4@@ 206677
households 206621
man@@ 206553
fully 206440
activity 206400
ful 206392
divided 206245
Cor@@ 206183
call 206122
Scottish 206103
45 206082
cross 205930
ian 205867
ph@@ 205730
Director 205611
numbers 205444
5@@ 205345
ically 205343
den 205250
ordered 205247
Polish 205011
1960s 204960
projects 204958
hospital 204930
growth 204577
di 204368
lives 204258
str@@ 204083
ins 204021
Major 204014
Sea 203731
words 203630
Israel 203314
un 203236
ne 203139
Alexander 203057
executive 202998
rule 202905
se 202826
end@@ 202768
continue 202749
Williams 202702
officers 202357
planned 202249
conducted 202166
weight 202009
label 201947
Georgia 201532
ani 201366
security 201359
letter 200850
intended 200765
notable 200731
bl@@ 200582
prominent 200578
Three 200435
mo@@ 200402
Office 200221
stars 200152
Avenue 200151
Highway 199572
forward 199515
Columbia 199475
females 199465
produce 199403
te 199159
chart 199083
w 198952
El 198897
1963 198744
ha 198630
1962 198546
ta 198355
scene 198138
coast 198030
minor 198007
highly 197820
soldiers 197808
effects 197716
moving 197597
Fort 197512
stop 197393
ra 197344
races 197339
ball 197245
revealed 197153
treatment 197072
removed 197062
stories 197038
formerly 196915
organized 196905
commonly 196816
P 196795
Bill 196738
parish 196727
ancient 196720
mm 196620
basis 196439
capacity 196387
Also 196221
M. 196116
Middle 196057
1942 196026
youth 196018
ter@@ 195850
1948 195793
ee 195768
Mac@@ 195650
Super 195510
administration 195375
ways 195296
Corps 195246
distance 195127
smaller 195098
follows 194803
ae 194598
My 194454
quickly 194419
dedicated 194375
table 194361
500 194320
quality 194310
singles 193992
ata 193944
Sydney 193935
Hospital 193879
bar@@ 193509
En@@ 193431
comes 193364
tion 193280
floor 193200
Or@@ 193155
awards 193155
assistant 192998
fellow 192919
BBC 192753
ality 192471
drama 192452
Bal@@ 192316
rec@@ 192257
mixed 192192
trial 192022
Historic 191782
Coast 191656
leaders 191595
settlement 191557
1940 191387
ore 191339
yet 191266
News 191232
Tour 191183
paper 191069
efforts 190995
1941 190929
pass 190811
purchased 190741
assigned 190565
3rd 190429
initial 190365
1961 190093
relations 190086
historic 190043
median 189999
winner 189937
firm 189746
Ministry 189698
Jack 189511
1939 189482
Of 189437
immediately 189402
giving 189385
potential 189380
As@@ 189229
Little 189149
estimated 189058
ators 188996
respectively 188821
ur 188813
eg@@ 188799
BC 188685
1946 188578
defeat 188500
founder 188345
join 188315
facilities 188115
Blue 188048
charge 187831
Am@@ 187826
to@@ 187744
Federal 187605
featuring 187064
E. 187006
probably 186703
cars 186642
poor 186626
af@@ 186563
typically 186547
color 186505
Jersey 186504
compared 186497
build 186374
1956 186371
Olympic 186183
identified 186114
scale 186053
focus 185996
types 185984
ge@@ 185932
ding 185915
clubs 185700
Illinois 185674
conference 185663
piece 185625
percent 185503
ver@@ 185441
needed 185332
inside 185298
article 185239
declared 185176
agreed 185117
1943 185071
gained 184998
physical 184719
upper 184657
ized 184637
ats 184523
80 184491
owner 184358
attention 184078
paid 184029
Scott 184026
destroyed 183920
hosted 183907
housing 183687
S. 183674
ara 183669
Post 183664
operating 183445
pay 183433
positions 183392
Jean 183328
format 183204
amount 183173
crew 183168
Victoria 183091
miles 182995
largely 182959
W. 182806
reach 182737
Earth 182643
try 182634
Airport 182566
pr@@ 182517
Mon@@ 182502
languages 182417
Justice 182379
up@@ 182374
Berlin 182288
35 182276
1950 182224
adopted 182213
Ro@@ 182200
roles 182143
Rock 182139
committee 182121
alized 182044
widely 181993
els 181766
museum 181730
1958 181702
suffered 181510
B. 181409
Gr@@ 181408
online 181386
estate 181351
press 181162
ational 181141
Frank 181022
1947 180849
Bur@@ 180843
branch 180622
leaves 180532
ke 180421
ars 180395
accepted 180360
1959 180359
ranked 180307
agreement 180263
istic 180147
H. 180105
territory 180099
communities 179906
sons 179781
gr@@ 179760
votes 179742
yards 179724
ery 179671
confirmed 179652
res@@ 179614
street 179589
hold 179564
captured 179559
website 179340
reviews 179238
sources 179193
ing@@ 179137
minister 179082
flight 179050
pressure 178979
Each 178831
Me@@ 178740
keep 178677
direction 178595
ded 178566
occurred 178495
designated 178323
Kong 178252
teacher 178220
green 178181
taught 178146
Iran 178119
Mount 178091
scoring 178029
computer 178011
job 177947
Corporation 177854
war@@ 177852
semi 177619
academic 177472
Hong 177436
approach 177396
tree 177343
dance 177221
meet 177173
FM 177163
episodes 177151
resulted 177069
product 176896
formation 176888
1957 176645
Ad@@ 176645
serves 176175
leadership 176149
Com@@ 176136
ev@@ 175980
ry 175893
gun 175873
combined 175840
ach@@ 175825
Supreme 175806
recognized 175806
concept 175765
hard 175741
Before 175695
Islands 175623
Massachusetts 175472
f 175464
losing 175362
plants 175352
alone 175144
W 174975
purpose 174762
ri@@ 174710
gas 174691
v 174658
campus 174645
critical 174618
union 174528
ory 174461
Sports 174431
metal 174421
Stadium 174362
mass 174332
kh@@ 174287
wall 174265
90 174055
recently 174054
silver 174029
row 173970
Korea 173920
nominated 173911
analysis 173909
presence 173902
titles 173796
platform 173724
nation 173612
code 173515
mentioned 173507
32 173456
CD 173407
camp 173165
method 173123
equipment 173087
Bishop 173045
therefore 173008
Time 173006
worth 172972
Ab@@ 172942
Elizabeth 172899
felt 172898
dec@@ 172896
Kar@@ 172828
Professor 172716
prison 172684
Tom 172683
ho@@ 172632
ov 172623
expanded 172580
1952 172293
fell 172118
cell 172113
albums 172095
heart 172040
Background 172019
store 171994
birth 171864
sc@@ 171847
od@@ 171839
connected 171767
sex 171644
difficult 171559
com@@ 171535
Home 171504
Pakistan 171426
Born 171403
Family 171350
buried 171313
70 171258
distribution 171248
Santa 171199
account 171150
Ex@@ 171138
offers 171128
il 171120
aries 171089
expected 171017
qu@@ 170949
parties 170931
1949 170873
1955 170643
draw 170628
secondary 170598
cor@@ 170577
remain 170566
Library 170538
Duke 170536
reduced 170175
Swedish 170054
growing 170038
except 169716
Final 169499
performances 169369
Geography 169364
voice 169325
clear 169253
Police 169119
Don 168917
newly 168911
Prime 168840
3@@ 168818
champion 168763
H 168723
Top 168699
solo 168631
von 168603
defined 168591
ay@@ 168575
Col@@ 168536
digital 168449
don 168413
fields 168390
sites 168296
literature 168283
Ne@@ 167986
eb@@ 167964
ds 167917
ma 167879
content 167786
Atlantic 167784
inspired 167707
pop 167698
Di@@ 167657
Ma@@ 167550
Mo@@ 167436
Toronto 167417
1954 167372
mountain 167261
twice 167177
rules 167148
granted 167020
painting 167018
density 167007
ines 166860
models 166777
ik@@ 166659
R. 166519
ol 166338
ari 166267
x@@ 166255
true 166145
problem 166049
organizations 166013
actions 165914
resulting 165908
Joe 165872
figure 165816
surname 165783
minute 165501
ini 165453
spread 165417
Brazil 165194
existing 165177
1953 165109
De 165068
disease 165024
damage 164984
chairman 164941
ang@@ 164846
ge 164838
contemporary 164781
sw@@ 164766
marked 164758
Ber@@ 164732
Cross 164675
couple 164546
generation 164512
um@@ 164465
Media 164273
Bel@@ 164200
Ontario 164104
ological 164041
share 164013
suggested 163931
Nations 163814
Qu@@ 163734
ob@@ 163725
ko 163639
quarter 163626
Jackson 163490
males 163441
background 163405
obtained 163368
cur@@ 163367
ches 163282
seats 163223
box 163203
break 163161
creation 163129
surrounding 163030
travel 163027
4th 163018
kept 162913
Bridge 162733
offer 162695
del 162652
sides 162370
actually 162287
he@@ 162225
showed 162166
acts 162106
urban 162045
continues 162009
comedy 161985
providing 161909
ene 161895
ids 161877
atic 161768
cells 161714
ised 161537
twenty 161348
1918 161279
Kh@@ 161273
Me 161193
officials 161108
van 160996
Rome 160952
cl@@ 160783
Military 160721
64 160673
Premier 160634
ves 160562
Korean 160543
Social 160534
develop 160532
association 160527
Philadelphia 160492
Game 160321
ses 160302
greater 160240
occupied 159980
har@@ 159932
finish 159905
teaching 159863
politics 159804
Show 159721
1951 159619
ot 159580
bus 159537
versions 159361
injury 159225
USA 158970
tower 158931
split 158918
1936 158722
spring 158657
claims 158655
te@@ 158629
Township 158516
billion 158497
‘ 158483
Long 158468
D. 158459
becomes 158251
ala 158138
alism 158029
sets 158000
ones 157968
ring 157870
feet 157733
tried 157665
attacks 157597
Because 157591
authorities 157545
super@@ 157528
guitar 157476
metres 157460
ane 157435
Regiment 157432
lot 157424
1920 157329
receive 157268
arms 157206
Over 157168
we@@ 157096
finals 156908
1938 156836
governor 156827
festival 156773
knowledge 156765
regions 156628
Among 156597
Book 156523
situated 156438
succeeded 156344
Netherlands 156283
Sun 156200
Community 156138
Wilson 156121
sexual 156107
interview 156010
villages 155965
lake 155944
pl@@ 155837
pe@@ 155774
Mr. 155699
impact 155668
arrested 155650
sixth 155555
effort 155465
applied 155464
traffic 155401
block 155338
younger 155325
opposition 155263
stand 155237
rank 155234
entry 155226
Dis@@ 155172
Ho@@ 155094
Sp@@ 155060
kind 155048
library 155025
Billboard 154833
effective 154692
P. 154507
tradition 154421
unique 154365
dead 154356
scientific 154350
Captain 154339
Between 154248
blue 154224
gives 154109
tax 153984
headquarters 153926
sales 153908
ek 153747
Str@@ 153687
air@@ 153627
ut@@ 153597
10@@ 153460
Daniel 153414
2.@@ 153302
9@@ 153254
no@@ 153180
image 153146
let 153103
captain 153094
He@@ 152971
sky 152932
facility 152891
tells 152851
says 152798
holds 152782
hour 152774
trans@@ 152733
Lady 152636
goes 152591
Like 152561
approved 152445
Andrew 152366
baseball 152331
figures 152330
Technology 152321
allowing 152173
commander 152139
fighting 152065
6@@ 152064
commissioned 151897
ig@@ 151876
software 151756
dark 151703
Business 151611
bar 151462
trains 151352
ov@@ 151329
Due 151300
climate 151300
squad 151284
classes 151268
settled 151258
Special 151256
theatre 151256
arts 151158
8@@ 151155
cannot 151118
returning 151105
aired 151078
completely 151069
critics 151023
ino 150848
situation 150650
visit 150629
Sweden 150624
1950s 150585
laws 150543
risk 150532
claim 150525
Death 150488
2@@ 150476
Taylor 150471
Arthur 150369
ments 150304
Register 150293
Field 150280
Port 150105
Gu@@ 150009
big 150008
allows 149977
brothers 149933
simply 149924
1919 149850
notes 149841
Oxford 149779
44 149766
ica 149764
ano 149738
blood 149725
Mike 149701
know 149651
1937 149627
promotion 149445
bought 149370
faced 149142
sign 149119
Maria 149109
boat 148997
visited 148980
deep 148960
achieved 148902
environment 148833
Castle 148745
ti 148623
refused 148622
7@@ 148618
materials 148613
chosen 148601
advanced 148527
oldest 148453
Medical 148378
ass@@ 148311
ps 148186
Emperor 148131
Mountain 148109
frequently 148053
And 147837
reports 147775
berg 147669
Golden 147597
relatively 147568
Inter@@ 147490
Americans 147479
look 147254
Kal@@ 147211
Pr@@ 146868
industrial 146586
Van 146425
For@@ 146424
Le 146422
portion 146417
head@@ 146328
drive 146314
forest 146271
Four 146265
Francis 146190
ese 146136
Several 146063
ah@@ 145774
things 145727
household 145606
Po@@ 145490
theme 145485
1930 145450
ale 145386
Junior 145373
publication 145329
read 145329
Sch@@ 145328
begins 145322
lers 145272
temple 145180
transport 145121
Master 145057
actress 145050
mile 145022
creating 144916
Press 144810
sur@@ 144724
focused 144578
ne@@ 144474
ā@@ 144411
murder 144381
authority 144218
bed 144188
broke 144164
starring 144090
her@@ 144053
something 143913
foot 143858
enter 143741
brand 143712
° 143627
necessary 143577
1917 143395
transfer 143262
1914 143246
Beach 143235
consisted 143212
founding 143120
Davis 143080
bring 143008
fans 142960
Chris 142912
pair 142762
hall 142553
Mer@@ 142488
Pro@@ 142481
Plot 142452
and@@ 142445
Journal 142332
1935 142313
fought 142266
Federation 142233
conflict 142212
attempted 142122
architecture 142062
1933 141956
Region 141912
dr@@ 141898
du 141876
subsequent 141848
concert 141817
NCAA 141675
Network 141547
audience 141514
unable 141484
Minnesota 141330
Sal@@ 141242
supply 141224
retirement 141130
Cr@@ 141128
agent 141043
origin 140984
employed 140983
follow 140948
Ver@@ 140921
Today 140920
begin 140834
Prize 140764
ase 140659
selling 140654
partner 140620
safety 140574
attacked 140533
principal 140350
performing 140340
defense 140211
so@@ 140169
districts 140127
ent@@ 140085
methods 140082
ce 140079
perform 140044
girl 140035
18th 139937
prevent 139853
Mexican 139812
shared 139808
receiving 139675
daily 139663
ick 139635
Hol@@ 139633
joint 139545
dropped 139474
entitled 139403
vice 139277
covers 139246
animals 139119
300 139098
Co 139014
L. 138993
reason 138935
ky 138922
Inc. 138911
opposed 138892
ney 138875
og@@ 138874
winter 138839
5th 138836
beat 138834
der@@ 138582
protection 138527
engineering 138430
economy 138426
ath@@ 138400
1928 138260
33 138107
Bob 137952
setting 137948
expansion 137865
Reception 137856
reference 137851
J 137811
electric 137800
unknown 137792
1929 137774
volume 137765
representing 137721
write 137625
Mas@@ 137557
sense 137495
trees 137465
qualified 137413
exchange 137337
ys 137335
determined 137259
System 137172
morning 137172
mayor 137048
crime 137045
machine 137040
girls 136896
ea 136894
au 136861
presidential 136816
00 136796
Sar@@ 136669
fiction 136643
Steve 136541
towns 136535
represent 136513
Gold 136500
pro@@ 136411
Lo@@ 136343
Forest 136318
edge 136248
attempts 136159
rise 136152
Kansas 136128
permanent 136096
Go@@ 136035
1934 135947
standing 135895
ward 135878
highway 135749
Te@@ 135736
boy 135699
scheduled 135601
onto 135590
contributed 135565
Jr 135564
extensive 135560
tu@@ 135487
increasing 135463
Melbourne 135450
Area 135378
cancer 135364
articles 135307
converted 135249
shortly 135226
ett 135110
400 135074
Description 135059
bronze 135031
ging 134991
memory 134978
36 134960
resources 134951
containing 134875
guest 134840
say 134772
influenced 134770
Missouri 134708
Sunday 134697
ultimately 134688
ella 134672
hockey 134644
vehicles 134585
fl@@ 134576
pieces 134567
derived 134532
copies 134472
Fox 134312
e.g. 134300
institutions 134198
ish@@ 134138
tries 134128
Moscow 134053
Muslim 134025
global 133982
Memorial 133979
constituency 133975
guns 133912
locations 133867
ber@@ 133813
learning 133719
racing 133713
structures 133648
mark 133601
citizens 133565
Pre@@ 133530
Jim 133503
meant 133487
documentary 133483
Stephen 133471
card 133438
Country 133407
educational 133402
Lewis 133296
farm 133272
Night 133241
tri@@ 133179
holding 133161
controlled 133067
Wisconsin 133065
em 133030
Cape 132983
rail 132959
properties 132935
letters 132802
ologist 132782
sector 132690
st 132607
simple 132516
Power 132482
maximum 132406
phase 132368
flow 132359
mar@@ 132331
airport 132276
Bi@@ 132216
1932 132159
More 132144
EP 132004
hands 132002
NFL 131996
i.e. 131976
Live 131970
ja 131930
1924 131868
stock 131856
birds 131710
centuries 131690
headed 131685
bound 131671
Project 131637
alization 131575
lyrics 131445
powerful 131367
drug 131359
Turkish 131347
domestic 131285
passing 131129
sa 131068
Her@@ 130993
condition 130941
establishment 130883
Turkey 130839
funding 130827
ki 130691
offices 130690
launch 130656
sought 130642
laid 130579
Mat@@ 130530
Point 130529
Sciences 130424
ita 130414
Queensland 130401
1922 130382
ze 130336
ker 130314
beyond 130271
Ac@@ 130250
Television 130234
application 130167
yellow 130090
Mah@@ 130054
doing 130050
Philippines 130030
Production 130013
factory 129974
Norway 129896
ise 129845
castle 129806
independence 129760
Vietnam 129733
identity 129731
att@@ 129708
cre@@ 129603
expressed 129449
supporting 129381
bands 129352
recognition 129297
matter 129277
occurs 129218
contact 129162
Upon 129120
views 129120
ently 129108
vehicle 129021
walls 128940
ites 128938
75 128887
invited 128887
F. 128886
finishing 128837
consecutive 128828
ni@@ 128767
slightly 128733
1927 128686
Prior 128684
ens@@ 128682
stay 128659
ns 128636
ou@@ 128635
34 128611
Tennessee 128598
proved 128596
producing 128569
bre@@ 128548
functions 128475
bill 128428
reasons 128346
inc@@ 128258
armed 128242
1921 128241
Jews 128226
Channel 128137
height 128124
candidates 128123
Song 128113
Land 128084
temperature 128080
aid 127956
developing 127917
eh@@ 127861
peace 127773
technical 127765
Manchester 127757
alternative 127699
Cambridge 127645
ette 127582
Khan 127511
1912 127459
category 127389
1931 127367
royal 127353
Native 127263
fleet 127257
die 127255
contained 127226
ye 127213
educated 127155
search 127132
du@@ 127092
Building 127087
successfully 127045
sport 126969
want 126856
ast 126817
writers 126804
vi@@ 126787
Norwegian 126778
orders 126709
judge 126647
journalist 126646
hotel 126601
needs 126583
architect 126564
protein 126551
Maryland 126512
abandoned 126397
graduate 126382
Class 126378
Indiana 126372
existence 126357
violence 126244
Bor@@ 126233
COVID 126103
horse 126066
rugby 126051
Studies 126037
Notable 125999
Colorado 125869
loan 125839
stating 125783
Christmas 125777
investigation 125734
Tournament 125704
Services 125661
ged 125608
Ko@@ 125601
Labour 125599
38 125430
San@@ 125357
1925 125350
Hot 125297
negative 125250
brown 125165
normal 125132
refers 125105
decades 125090
Austria 125067
patients 124991
voted 124987
merged 124966
screen 124888
speech 124870
Portuguese 124834
joining 124787
ls 124786
incorporated 124757
ths 124746
Affairs 124728
IV 124678
combat 124660
basic 124634
enemy 124514
multi 124501
1923 124480
fe@@ 124455
Cal@@ 124429
G. 124390
go@@ 124383
hired 124317
core 124306
shaped 124219
ization 124198
Then 124145
La@@ 124062
operate 124023
resigned 123943
1926 123856
literary 123849
alist 123831
maintained 123823
Su@@ 123820
planning 123816
honor 123810
Harry 123797
acy 123771
ement 123729
trained 123724
Infantry 123717
registered 123649
composer 123533
straight 123531
ably 123452
connection 123451
Albert 123382
fr@@ 123374
ceremony 123344
Arizona 123335
kill 123255
Min@@ 123206
herself 123198
reaching 123190
exhibition 123179
argued 123175
om 123171
establish 123093
ago 123013
affected 122968
nuclear 122921
funds 122891
1910 122868
grade 122793
ow@@ 122746
To@@ 122685
Foreign 122672
1916 122664
regarding 122648
Pe@@ 122635
installed 122556
ington 122504
representative 122501
me@@ 122495
Walter 122493
rear 122484
Ros@@ 122439
collected 122428
junior 122324
Revolution 122307
1915 122062
Sri 122055
shape 122044
specifically 122003
Entertainment 121985
ex 121968
pur@@ 121967
display 121965
ade 121935
Bre@@ 121885
Fr@@ 121833
ides 121824
About 121790
dates 121670
worldwide 121659
wins 121616
Swiss 121496
entrance 121416
Oregon 121352
classical 121338
ir 121240
Ke@@ 121118
glass 121060
heard 121039
References 121033
pilot 121009
ure 120962
zone 120903
Management 120897
passes 120894
Representatives 120892
religion 120874
scenes 120838
finds 120833
powers 120746
ath 120736
Ali 120723
observed 120723
heavily 120693
occur 120668
Human 120666
Islamic 120631
Miller 120527
back@@ 120431
Census 120428
engaged 120419
ruled 120337
Political 120320
secretary 120308
rooms 120270
Ford 120211
tors 120165
Switzerland 120139
question 120106
ep@@ 119996
é 119931
page 119896
Winter 119879
Miss 119740
sal@@ 119735
programme 119686
anti@@ 119661
rare 119661
roof 119649
Head 119629
someone 119608
Egypt 119576
avoid 119570
lin 119435
ru@@ 119359
Places 119347
Singapore 119197
fuel 119153
poet 119151
Pope 119118
q@@ 119090
gu@@ 119063
ou 119048
1900 119021
serious 119006
az@@ 118933
failure 118900
ek@@ 118878
Sam@@ 118866
carry 118830
etc 118789
ci@@ 118756
fied 118744
regarded 118698
T. 118682
cricket 118647
Holy 118636
Earl 118626
iron 118626
Only 118550
Medal 118549
ion 118544
concluded 118492
j 118446
exist 118435
incident 118355
* 118300
inhabitants 118270
northeast 118232
importance 118219
choice 118193
statement 118186
compete 118116
praised 118053
programming 118048
protect 117972
pi@@ 117971
What 117928
promote 117912
foundation 117894
reserve 117863
Though 117839
Ukraine 117800
MP 117760
Hor@@ 117727
think 117597
municipal 117531
Sur@@ 117468
roads 117458
Mag@@ 117419
spot 117354
poetry 117303
ders 117280
Tony 117276
Regional 117238
0.@@ 117219
Design 117200
Arab 117182
Security 117171
consisting 117096
mer@@ 117044
internal 116992
rich 116919
eman 116877
Do@@ 116871
sections 116866
Member 116831
passenger 116802
historian 116771
Bureau 116709
price 116694
kin 116688
Professional 116606
Is 116597
users 116534
Youth 116461
ama 116421
weapons 116419
toward 116339
causing 116314
Main 116295
quite 116234
credited 116166
twelve 116036
tically 116006
Temple 115998
Greece 115857
grounds 115804
ously 115785
Kentucky 115734
adult 115725
Howard 115687
selection 115672
entirely 115650
Free 115626
closely 115624
driver 115622
improve 115474
starred 115446
1930s 115441
invasion 115426
ham 115333
Mur@@ 115176
peak 115111
tical 115096
So@@ 115012
environmental 114988
stadium 114927
Hockey 114899
des@@ 114862
Engineering 114861
Brigade 114806
paintings 114780
possibly 114714
Y 114694
calls 114680
ahead 114679
Gar@@ 114671
Forces 114653
1913 114644
Hamilton 114631
1911 114618
trying 114612
17th 114601
Mil@@ 114593
Ge@@ 114557
do@@ 114479
Liberal 114463
storm 114394
und@@ 114368
Ag@@ 114348
sale 114264
ideas 114247
Square 114225
im 114182
personnel 114180
Ser@@ 114163
ach 114155
ada 114153
Senior 114137
acted 114132
ati 114132
gain 114108
target 114096
ins@@ 114073
employees 114057
DC 113973
bodies 113910
Er@@ 113838
homes 113816
ste@@ 113814
escape 113810
steel 113795
1.@@ 113789
Administration 113663
Anne 113663
standards 113603
Mad@@ 113550
stands 113504
bu@@ 113499
At@@ 113492
starts 113442
Vice 113406
premiered 113369
37 113331
advance 113322
ile 113278
northwest 113268
Ben 113211
6th 113118
believe 113118
animal 113057
accused 113052
Pol@@ 112949
door 112895
tropical 112852
dy 112834
Operation 112818
42 112817
Israeli 112815
tor@@ 112806
den@@ 112780
draft 112753
agency 112725
boys 112724
Marine 112723
ain 112688
ma@@ 112664
broken 112618
improved 112587
really 112564
sell 112559
ji 112506
equal 112501
values 112481
speaking 112460
Naval 112295
Squadron 112194
describes 112126
Raj@@ 112102
ena 112021
seventh 112006
ges 112005
Third 111873
charged 111823
ac 111760
corner 111688
Prix 111670
residence 111588
regularly 111577
ards 111573
briefly 111543
seconds 111397
opportunity 111381
killing 111373
Houston 111289
48 111283
Patrick 111260
Tar@@ 111172
Thus 111143
7th 111096
hip 111062
extension 111035
Del@@ 111033
Du@@ 110974
dem@@ 110957
injured 110952
courses 110946
1908 110941
mine 110866
min@@ 110860
drawn 110843
painted 110841
reduce 110814
distributed 110691
Val@@ 110631
your 110620
Stone 110584
chose 110543
opera 110506
getting 110459
Fame 110425
hill 110421
Gal@@ 110318
Light 110307
Rural 110227
Simon 110108
introduction 110102
ering 110043
Diego 110006
Hotel 109884
Super@@ 109855
wind 109828
Brian 109786
ades 109716
calling 109690
Far@@ 109686
combination 109597
fine 109576
Sub@@ 109544
Iowa 109536
Once 109525
agricultural 109428
Ocean 109414
tie 109345
applications 109329
engineer 109314
neighborhood 109243
si@@ 109200
Mus@@ 109166
ash 109163
bur@@ 109122
hom@@ 109098
step 109049
interests 108984
dry 108944
marine 108863
DVD 108861
ace 108854
weather 108848
Works 108838
Water 108792
col@@ 108786
Executive 108763
Ram@@ 108756
Out 108659
I. 108656
hi@@ 108650
interior 108490
iv@@ 108448
Samuel 108428
journal 108406
resistance 108369
chain 108299
Communist 108275
hand@@ 108274
engines 108271
tional 108237
earliest 108232
replace 108225
missions 108223
cycle 108181
ned 108167
iting 108136
looking 108120
rating 108106
strength 108053
debuted 107970
atory 107860
owners 107860
address 107851
session 107844
singing 107787
reading 107772
ethnic 107690
valley 107630
dated 107618
Anderson 107560
Li@@ 107559
ren@@ 107558
composition 107545
Frederick 107535
ber 107513
equ@@ 107510
Danish 107477
SR 107466
ok@@ 107447
causes 107346
Rugby 107287
frame 107283
Can@@ 107270
formal 107262
adjacent 107253
water@@ 107093
We@@ 107085
q 106956
advantage 106935
ited 106901
16th 106899
leg 106877
Anthony 106862
fast 106851
objects 106838
coal 106805
55 106646
gene 106639
Bowl 106636
decade 106624
actual 106616
islands 106542
ff 106516
1,@@ 106372
techniques 106356
ali 106353
demand 106342
Lieutenant 106340
southeast 106337
mental 106329
survived 106292
mill 106268
organisation 106211
Sam 106206
actors 106184
Alabama 106116
humans 106104
duty 106030
Pal@@ 106027
Jesus 106010
So 106007
AD 105988
Program 105935
notably 105929
Modern 105901
Baseball 105841
ell@@ 105814
Mayor 105775
measures 105767
Quebec 105757
experienced 105750
Tokyo 105744
musician 105701
gi@@ 105655
stores 105633
rel@@ 105623
ched 105577
Children 105505
criminal 105504
Pro 105477
reception 105461
ked 105457
participate 105448
vers 105420
vocals 105414
leads 105411
Village 105376
wave 105372
bottom 105354
Philip 105344
racial 105330
est@@ 105317
rejected 105312
Space 105294
signal 105285
Magazine 105268
churches 105265
charges 105261
piano 105216
Juan 105205
net 105184
plot 105157
Commonwealth 105152
committed 105143
ill@@ 105134
Imperial 105121
Lincoln 105033
contain 105004
meters 104982
ography 104977
philosophy 104904
Is@@ 104835
eye 104788
greatest 104750
heads 104734
partnership 104722
Hollywood 104717
Allen 104715
examples 104713
mind 104712
Douglas 104525
ching 104524
ger 104492
opposite 104492
tw@@ 104484
easily 104374
Hungarian 104373
Argentina 104339
goods 104335
War@@ 104299
typical 104284
Christ 104262
bass 104260
Clark 104249
Z 104199
mor@@ 104164
Heritage 104143
strike 104122
Czech 104115
southwest 104089
Independent 103957
businesses 103908
fired 103835
gets 103807
budget 103803
cat@@ 103752
wards 103744
AM 103736
wh@@ 103716
ils 103626
Legislative 103591
comic 103564
Detroit 103563
designs 103560
nor 103529
Cemetery 103491
hi 103461
sub 103444
seems 103441
details 103440
operates 103423
Ph@@ 103342
sequence 103340
purchase 103334
hundred 103327
Adam 103321
Band 103269
Oklahoma 103245
ads 103233
motion 103205
1905 103163
theater 103159
Miami 103117
equivalent 103051
Des@@ 103041
musicians 103041
ered 103018
Denmark 103014
factors 103010
links 102910
41 102904
damaged 102862
Puerto 102843
images 102753
Mississippi 102710
FA 102692
collaboration 102675
Gallery 102595
mining 102577
user 102568
plane 102547
didn 102526
fo@@ 102479
dating 102439
Ottoman 102408
Fire 102399
Gordon 102276
ished 102259
ures 102185
gender 102182
champions 102176
stood 102174
au@@ 102135
sk@@ 102134
chemical 102120
residential 102110
provincial 101988
criticized 101980
jazz 101971
passengers 101966
request 101964
contrast 101949
ba 101937
Local 101914
medium 101910
winners 101865
Antonio 101858
sen 101854
pro 101846
secret 101798
protected 101795
intelligence 101756
Iraq 101754
mer 101737
skills 101654
ni 101574
admitted 101522
accompanied 101495
ati@@ 101495
1906 101483
ances 101426
tics 101387
contributions 101373
reality 101342
maintain 101267
bor@@ 101262
defeating 101262
Reserve 101259
arian 101248
flat 101215
Cap@@ 101204
freedom 101155
habitat 101113
Marie 101105
items 101080
Doctor 101070
costs 101055
bishop 101053
Rose 101044
39 101038
arranged 101033
52 101025
Singles 101020
Constitution 101013
Belgium 100986
routes 100965
why 100965
distinct 100955
bit 100869
commission 100864
assumed 100846
ist@@ 100788
capture 100773
retained 100772
1907 100770
divisions 100761
flying 100732
sl@@ 100609
Up 100601
stages 100576
Dr@@ 100557
Dublin 100535
prize 100465
attached 100449
Athletics 100441
deputy 100418
lawyer 100397
persons 100346
Trust 100230
ays 100195
1909 100168
Ban@@ 100164
sing 100086
aya 100046
tur@@ 100036
Tor@@ 100026
Ste@@ 100021
Louisiana 99994
Railroad 99988
kers 99957
bas@@ 99951
driving 99947
delivered 99890
communication 99829
profit 99827
mal@@ 99813
AC 99786
flag 99781
bad 99741
inf@@ 99642
ue 99638
arm 99619
documents 99601
mobile 99574
Chi@@ 99572
Five 99558
ef@@ 99495
contest 99480
extra 99476
ap 99423
Ukrainian 99401
lu@@ 99384
nothing 99338
ra@@ 99309
mann 99300
ving 99243
micro@@ 99204
Harvard 99191
Hungary 99131
determine 99039
ities 99029
Bell 98976
colonial 98976
electronic 98921
Palace 98907
Pan@@ 98892
reaction 98876
Char@@ 98873
understanding 98866
acid 98771
attend 98715
Season 98655
Moore 98627
trip 98560
Demographics 98551
painter 98542
path 98526
heat 98483
falls 98475
ack 98468
linked 98444
represents 98435
investment 98418
streets 98390
Brazilian 98331
pers 98327
Not 98309
Additionally 98267
poem 98267
fashion 98242
crisis 98220
reign 98215
separated 98203
Kim 98199
adapted 98181
formally 98143
brief 98138
showing 98134
ownership 98067
3.@@ 98060
publications 98054
anniversary 98002
Anna 98000
can@@ 97975
significantly 97945
interested 97919
CEO 97913
restored 97909
degrees 97854
sel@@ 97810
translated 97808
SS 97753
visual 97719
ca 97717
12th 97712
47 97678
sive 97661
ran@@ 97610
device 97544
shooting 97544
rates 97517
ts@@ 97501
See 97489
filed 97480
hosts 97470
Gor@@ 97460
amb@@ 97432
1904 97365
ok 97334
Rights 97260
Deputy 97252
Cre@@ 97247
ab 97240
Saturday 97175
regiment 97105
Connecticut 97100
rose 97097
fixed 97090
policies 97087
ski 97011
pandemic 97009
ura 97006
Battalion 97004
ash@@ 97004
folk 96995
ain@@ 96985
dynasty 96940
chair 96898
purposes 96884
caught 96873
Guard 96822
difference 96790
popularity 96774
del@@ 96771
carrying 96749
Edinburgh 96734
print 96712
flows 96708
Sol@@ 96703
bury 96699
8th 96622
forming 96619
Cl@@ 96569
Internet 96534
phone 96510
behavior 96484
classified 96474
ba@@ 96414
49 96411
courts 96357
lie 96357
publishing 96351
concerns 96321
object 96303
franchise 96285
bird 96256
gen@@ 96255
Ben@@ 96237
not@@ 96220
accident 96215
ant@@ 96198
Kr@@ 96126
US@@ 96123
thing 96114
severe 96108
Good 96106
township 96015
factor 96014
map 95984
Age 95928
Sw@@ 95830
Wal@@ 95830
Margaret 95828
Nor@@ 95828
Austrian 95784
shop 95670
qualifying 95661
biggest 95653
appearing 95593
stopped 95571
ao 95478
zed 95463
Kan@@ 95453
naval 95402
arrival 95400
learned 95371
va 95292
suggests 95284
guard 95276
missing 95268
Montreal 95265
save 95257
duties 95246
aka 95240
Atlanta 95217
150 95206
link 95204
K. 95195
DNA 95135
Tamil 95110
require 95110
ten@@ 95082
za 95048
powered 95047
tied 95023
filled 95017
membership 95006
legislation 95001
Cas@@ 94985
Even 94955
institution 94938
mouth 94883
Indonesia 94869
13th 94817
1902 94797
offensive 94779
ABC 94724
Ri@@ 94702
Mountains 94701
weekly 94682
scholars 94673
ul 94657
wounded 94624
priest 94493
faculty 94425
Week 94422
rounds 94405
involving 94401
covering 94400
gun@@ 94387
commune 94342
Wil@@ 94316
competitions 94311
1901 94301
perhaps 94290
eng@@ 94278
Q 94269
idae 94216
Portugal 94204
script 94166
defensive 94158
borough 94122
Ray 94076
chance 94025
down@@ 94001
stayed 93994
43 93989
flowers 93970
Colonel 93951
prepared 93946
Max 93901
gate 93891
José 93888
Now 93855
Broadway 93813
Command 93786
New@@ 93763
pe 93611
occupation 93604
Defense 93597
prime 93592
fre@@ 93571
off@@ 93553
subjects 93536
daughters 93528
medicine 93527
crossing 93515
Metropolitan 93464
windows 93453
ning 93375
note 93371
ranking 93349
Lawrence 93324
li 93306
criticism 93293
51 93279
measure 93277
1903 93210
reform 93157
respect 93100
extremely 93036
46 93031
moth 93006
successor 92987
tier 92975
PA 92974
Cleveland 92966
roughly 92963
Ryan 92962
tennis 92955
responsibility 92953
waters 92946
Global 92932
yl@@ 92929
1,000 92866
No@@ 92853
locality 92811
io 92806
hits 92804
9th 92741
Construction 92708
Mul@@ 92701
Pi@@ 92666
walk 92641
ona 92639
bringing 92633
nations 92602
Chairman 92462
Liverpool 92456
ensure 92417
testing 92380
otherwise 92362
relative 92322
poverty 92275
boats 92264
wa 92201
Champions 92199
Walker 92160
Malaysia 92107
ency 92068
turns 92061
peaked 92050
arch@@ 91960
thousands 91951
Welsh 91894
practices 91868
context 91838
Nazi 91836
differences 91829
enc@@ 91679
pur 91674
narrow 91657
Alan 91539
non@@ 91538
Red@@ 91537
mean 91530
parliament 91528
edited 91507
Upper 91506
Harris 91498
Men@@ 91489
pattern 91465
markets 91450
description 91430
lock 91427
authors 91414
aspects 91408
15th 91404
Es@@ 91389
universities 91386
brick 91384
solution 91370
plus 91364
Vienna 91363
Track 91305
Ol@@ 91289
Round 91156
adding 91126
assembly 91120
Dar@@ 91115
Mi@@ 91111
expression 91101
hot 91076
conduct 91061
Mel@@ 90986
Tri@@ 90953
banks 90934
stream 90908
Seattle 90899
Sand@@ 90895
justice 90875
Kor@@ 90864
Singh 90837
Ash@@ 90778
Kur@@ 90778
Im@@ 90735
ff@@ 90712
challenge 90680
teachers 90669
lin@@ 90641
assistance 90615
Gulf 90605
coastal 90604
returns 90556
Bl@@ 90551
Eric 90521
innings 90478
ech@@ 90378
cher 90376
graduating 90358
bs 90354
lists 90340
cap@@ 90332
Dec@@ 90318
explained 90274
Ta@@ 90250
Bas@@ 90244
Gre@@ 90233
mid@@ 90187
10th 90172
soil 90164
mounted 90143
Studios 90097
thr@@ 90068
Si@@ 90036
storage 90015
Culture 89973
Schools 89941
replacement 89937
Through 89928
Av@@ 89921
window 89909
Orchestra 89896
cards 89852
proper 89836
restaurant 89795
Commander 89793
of@@ 89770
ingly 89768
mi 89753
su@@ 89744
D.C. 89718
Baltimore 89655
14th 89654
ora 89649
Ham@@ 89598
classic 89592
tim@@ 89566
Meanwhile 89553
oni 89553
heritage 89489
talk 89470
brain 89356
changing 89328
Pur@@ 89299
95 89281
novels 89265
cited 89150
Cathedral 89127
scheme 89094
ony 89085
Transport 89060
translation 89019
labor 89007
grown 88964
chi 88953
Crown 88951
Basketball 88943
ams 88931
capable 88884
Sel@@ 88879
Dean 88871
ung 88864
evening 88858
Jordan 88836
forests 88836
parliamentary 88792
Alliance 88790
devices 88731
equipped 88730
Por@@ 88620
pol@@ 88616
Disney 88568
appointment 88519
Your 88502
Kelly 88492
Ross 88485
victims 88480
Officer 88380
Kennedy 88345
enti@@ 88337
Agency 88324
ik 88308
signing 88306
Hal@@ 88276
Player 88271
Front 88270
ster 88244
Carl 88191
ms 88182
si 88182
Morgan 88141
Athletic 88102
.com 88099
depth 88078
1920s 88050
garden 88050
hu@@ 87999
wear 87996
squadron 87971
prisoners 87949
threat 87918
coverage 87917
Kevin 87874
listing 87861
medieval 87846
Grant 87822
Wood 87788
Camp 87781
electoral 87780
breaking 87668
critic 87642
ich 87621
Garden 87604
grow 87580
replacing 87576
drawing 87565
temporary 87555
elli 87503
Ba@@ 87489
Sa@@ 87475
54 87445
parallel 87444
Energy 87440
ements 87401
artistic 87297
aj@@ 87253
ban 87233
Ltd 87230
Cur@@ 87202
tank 87178
Li 87118
ock 87117
han 87097
tin 87091
opinion 87089
offering 87068
technique 87043
post@@ 87030
drop 87023
fishing 87009
reg@@ 86915
Jane 86910
Hills 86901
inner 86873
instance 86857
fly 86838
ble 86821
friendly 86746
controversy 86676
losses 86653
declined 86644
ind@@ 86644
1@@ 86613
inger 86604
onic 86561
Han@@ 86544
Lane 86540
approval 86537
Conservative 86513
oph@@ 86507
Thompson 86495
Here 86436
ann@@ 86411
entering 86387
requirements 86380
slow 86363
sec@@ 86347
branches 86336
fan 86312
soccer 86304
1898 86298
driven 86297
treated 86292
Chart 86285
finding 86277
wooden 86271
cu@@ 86268
Review 86265
nomination 86217
Convention 86177
picture 86176
dale 86164
Roger 86158
Sarah 86153
May@@ 86100
tail 86095
broad 86090
tly 86077
def@@ 86052
oth@@ 86049
&apos;m 86035
questions 86032
Rio 86027
tor 86027
influential 86004
landing 85981
ium 85978
Tur@@ 85966
NBA 85939
studying 85927
processes 85913
celebrated 85908
Lower 85880
credit 85841
tra 85812
Boys 85766
increasingly 85766
eighth 85761
Russell 85668
childhood 85610
ida 85582
struck 85542
element 85538
boundary 85505
km2 85486
Dan 85476
ected 85398
debate 85383
Finland 85381
existed 85356
Opera 85353
Metro 85348
Pittsburgh 85348
railroad 85312
Bangladesh 85306
Voivodeship 85255
Hu@@ 85209
threatened 85205
proposal 85180
ev 85177
ancy 85158
competing 85157
osis 85150
Vi@@ 85099
downtown 85061
safe 85060
ey@@ 85019
Kent 84992
vessels 84979
affairs 84963
raise 84929
medals 84913
facing 84897
requires 84896
frequency 84894
achieve 84887
Trump 84881
Donald 84872
guitarist 84756
gar@@ 84733
denied 84723
Il@@ 84714
Taiwan 84635
components 84635
Ter@@ 84631
feel 84564
fort 84501
Whit@@ 84488
mas@@ 84484
Information 84463
strongly 84439
task 84373
Senator 84326
manufacturing 84324
genre 84308
Ap@@ 84225
11th 84224
Test 84215
Peace 84205
lar@@ 84179
the@@ 84125
lay 84078
Dallas 84054
tons 84052
ake 84043
hair 84003
limit 83966
Austin 83913
1899 83906
Stewart 83904
Murray 83897
rot@@ 83865
End 83854
pool 83826
elling 83789
reputation 83763
Arkansas 83758
annually 83750
filmed 83707
Real 83688
Training 83682
Birmingham 83668
ize 83647
strategy 83603
message 83572
appeal 83566
v. 83544
considerable 83543
Kir@@ 83535
Bruce 83529
instruments 83523
accounts 83503
Pierre 83472
ear@@ 83461
helping 83460
Kam@@ 83451
Campbell 83429
Brothers 83419
Authority 83384
tered 83384
modified 83344
10,000 83336
constant 83329
gl@@ 83324
handed 83309
Ha@@ 83293
experiences 83249
artillery 83247
collections 83238
Daily 83232
if@@ 83211
web 83204
Ger@@ 83197
dog 83174
Orthodox 83129
preserved 83124
recordings 83106
involvement 83096
Ten 83077
Nelson 83065
ri 83052
alleged 83043
tis 83040
ishing 83026
surrounded 82990
fund 82980
Adams 82965
colour 82945
und 82888
lasted 82875
Alex 82821
ova 82805
ences 82800
expedition 82800
1890 82770
huge 82760
ises 82714
Express 82708
indicated 82643
meets 82633
Dance 82626
skin 82620
representation 82603
papers 82561
pal@@ 82550
eleven 82533
ass 82475
85 82415
adaptation 82358
Our 82303
sponsored 82287
lat@@ 82273
championships 82259
emergency 82215
funded 82194
Franklin 82191
Girls 82185
ans@@ 82155
charts 82137
decline 82080
rival 82046
rated 82029
Christopher 82004
Heart 81977
66 81960
ly@@ 81955
concrete 81933
ny 81908
completion 81888
Medicine 81876
ato 81875
count 81865
visitors 81834
ple@@ 81769
CA 81741
Dave 81732
touchdown 81714
&apos;re 81713
Ti@@ 81690
camera 81683
consider 81669
drew 81664
Mission 81656
progress 81655
oned 81652
F.C. 81651
bal@@ 81651
Judge 81639
Robinson 81617
ire 81599
option 81599
Long@@ 81598
AS@@ 81569
Fe@@ 81547
Cro@@ 81495
counties 81465
Dor@@ 81461
tell 81444
Ku@@ 81421
Way 81375
voting 81360
cas@@ 81336
tion@@ 81330
movements 81288
Wright 81260
contested 81242
op 81232
sees 81225
survey 81223
Utah 81203
eliminated 81201
somewhat 81197
1896 81184
sed 81179
penalty 81149
suspended 81073
classification 81035
fer@@ 81002
ft 80984
Ak@@ 80968
Unlike 80942
favor 80936
Norman 80925
wings 80917
Originally 80909
Critical 80875
amateur 80839
la@@ 80783
ored 80751
ston 80736
Romania 80689
surviving 80678
executed 80650
inv@@ 80650
Trade 80641
songwriter 80623
Just 80605
Brooklyn 80572
portrayed 80533
Baron 80523
ika 80493
CBS 80485
ture 80459
Alfred 80437
wine 80434
Princess 80406
Movement 80403
0@@ 80398
vessel 80382
Economic 80357
ight 80349
53 80344
mountains 80338
Dun@@ 80320
Six 80313
continuing 80294
ther@@ 80293
affiliated 80279
soundtrack 80245
definition 80236
elevation 80176
shares 80167
1895 80157
uncle 80153
tall 80151
populations 80147
Organization 80141
donated 80138
directors 80118
all@@ 80117
lieutenant 80116
š@@ 80069
ect 80029
benefit 80026
ough 79974
tic@@ 79958
ken 79915
carbon 79830
56 79805
organised 79799
cm 79786
printed 79780
ami 79779
UEFA 79777
Ann 79774
72 79769
ib@@ 79740
participation 79731
aki 79705
Silver 79681
doubles 79681
secure 79662
Racing 79644
Around 79634
ela 79631
doors 79621
illegal 79585
Fre@@ 79556
distinguished 79556
infrastructure 79525
employment 79497
les@@ 79494
Belgian 79470
Within 79449
thirty 79416
graphic 79357
Bachelor 79284
ty@@ 79263
manner 79244
Theater 79231
Sc@@ 79215
Place 79202
Spring 79189
designer 79189
steam 79185
arrest 79149
Marshall 79126
Trophy 79062
happened 79050
Bat@@ 79038
emerged 79031
Cat@@ 79028
Stanley 79019
Thailand 79010
Who 78996
250 78989
Wood@@ 78988
1897 78981
ened 78976
Sound 78946
Ed@@ 78921
deaths 78914
visiting 78903
grant 78874
Tower 78805
speak 78790
wild 78776
Pin@@ 78767
Ru@@ 78759
widespread 78723
Jimmy 78691
pan@@ 78681
resolution 78677
recommended 78675
bid 78673
domain 78664
controversial 78662
occasionally 78659
posted 78647
tests 78641
Treaty 78607
effectively 78547
Bro@@ 78541
fin@@ 78529
relief 78518
FIFA 78502
Portland 78466
bul@@ 78372
themes 78360
Nar@@ 78347
chapter 78335
ola 78330
cold 78316
Victorian 78311
newspapers 78304
eyes 78287
jobs 78282
discovery 78279
Boy 78277
visible 78234
yn 78207
circuit 78202
rivers 78148
Wrestling 78128
attracted 78120
sil@@ 78106
whereas 78099
od 78029
spoken 78024
learn 78019
Carter 78015
esh@@ 78004
LP 77986
attributed 77953
1000 77947
vision 77928
Carlos 77899
Pas@@ 77890
couples 77889
blocks 77842
ut 77827
roots 77818
suicide 77766
agriculture 77763
output 77758
traveled 77751
Sin@@ 77739
fruit 77713
characteristics 77705
Victor 77687
57 77648
Matt 77641
Bol@@ 77629
Staff 77608
minimum 77605
ruling 77589
dominated 77580
ei 77576
Go 77553
Kil@@ 77516
counter@@ 77511
wheel 77471
spoke 77464
ecting 77450
patient 77445
Jan@@ 77418
CA@@ 77401
Roy 77361
Serbian 77361
99 77342
depending 77318
Egyptian 77301
meetings 77269
Shortly 77229
seed 77221
journey 77201
feed 77175
grand 77122
competitive 77121
Girl 77118
Iron 77117
Gi@@ 77103
viewed 77078
youngest 77031
Cultural 77011
tioned 76999
esses 76991
je@@ 76954
Billy 76953
protest 76950
Ur@@ 76931
Tim 76927
600 76847
Lu@@ 76845
Richmond 76842
verse 76830
800 76827
grandfather 76791
associate 76783
trading 76742
faith 76740
longest 76721
comp@@ 76716
stor@@ 76708
Ward 76666
entertainment 76658
onal 76633
massive 76626
hy@@ 76585
accept 76578
platforms 76576
underground 76559
pped 76553
shore 76501
1893 76500
kn@@ 76496
Champion 76486
Further 76486
Graham 76484
Ly@@ 76466
AR@@ 76442
Instead 76436
remainder 76411
transition 76410
58 76409
emb@@ 76408
whilst 76402
pa 76383
wor@@ 76353
ō 76344
runner 76339
Finnish 76338
satellite 76329
che@@ 76313
Nick 76312
demolished 76302
Limited 76269
solid 76269
Distribution 76265
Serbia 76252
ong@@ 76250
med 76232
ising 76180
turning 76118
dies 76107
dam 76098
Defence 76084
surgery 76082
column 76077
Moon 76057
belonging 76055
rapidly 76043
ening 76041
mode 76035
land@@ 76031
pick 76031
Mu@@ 76025
eh 76023
Glasgow 76012
ud@@ 76012
videos 75972
Pl@@ 75938
injuries 75901
departure 75868
tribe 75867
endemic 75858
processing 75855
Hampshire 75846
erected 75825
architectural 75811
Cricket 75780
Windows 75760
Indians 75757
Trans@@ 75752
SA 75688
ker@@ 75682
SP@@ 75681
Draft 75671
anything 75663
Star@@ 75656
tenure 75606
Muhammad 75566
fit 75564
Romanian 75562
Fleet 75536
1889 75524
lap 75521
representatives 75506
Sim@@ 75487
counter 75482
maintenance 75474
cousin 75470
fur@@ 75465
1894 75457
ard@@ 75457
Madrid 75427
Knight 75422
oh@@ 75414
versus 75397
ta@@ 75378
tools 75366
Canal 75360
1892 75349
landscape 75314
diameter 75269
NBC 75265
moment 75258
yl 75242
knew 75218
infantry 75213
bro@@ 75208
steps 75186
uk@@ 75185
writes 75169
keeping 75143
Arabic 75117
abad 75116
generated 75091
suffering 75085
chapel 75065
hal@@ 75003
align 74994
Capital 74936
NHL 74924
intersection 74915
Natural 74900
venue 74891
Las 74882
Orleans 74877
greatly 74869
protests 74864
occasions 74849
easy 74827
terminal 74774
ha@@ 74760
ular 74753
defence 74730
transportation 74705
Dan@@ 74702
networks 74683
Islam 74662
claiming 74654
Jo@@ 74645
everything 74639
supporters 74634
Benjamin 74600
SC 74600
Afghanistan 74599
centers 74574
motor 74574
cabinet 74554
regime 74554
Will 74542
integrated 74501
Base 74450
watch 74445
Matthew 74422
hundreds 74400
channels 74386
Dev@@ 74353
Last 74350
Var@@ 74334
21st 74321
kg 74315
ills 74288
concerned 74278
describe 74263
vocal 74253
Mediterranean 74228
igh@@ 74227
schedule 74178
yn@@ 74131
grave 74119
Morris 74087
concern 74083
encouraged 74083
agents 74066
ari@@ 74058
sentenced 74021
yan 74021
1885 74020
unusual 74014
periods 73977
document 73931
relationships 73919
Municipality 73918
license 73894
ce@@ 73893
contr@@ 73893
ito 73873
shell 73866
Nigeria 73815
tory 73813
statue 73776
Books 73748
Bush 73743
Tre@@ 73734
Historical 73731
Ay@@ 73724
producers 73714
Johnny 73706
Mak@@ 73700
defending 73674
Yorkshire 73673
horses 73667
reportedly 73642
suit 73632
burg 73628
63 73610
62 73598
foot@@ 73598
Germans 73563
Farm 73554
indigenous 73552
oma 73542
stroke 73527
PC 73491
colspan 73463
begun 73443
Note 73435
assist 73424
bay 73410
vely 73397
gradually 73369
colony 73330
pen@@ 73319
Seven 73306
Hispanic 73303
send 73267
categories 73249
eta 73232
supplies 73206
Delhi 73202
afterwards 73170
missed 73163
territories 73144
Until 73111
1891 73086
Bon@@ 73085
abroad 73085
Rico 73080
marketing 73080
Gary 73069
thousand 73054
frequent 73051
pun@@ 73039
viewers 73036
Chile 73024
Back 73015
Tu@@ 73015
immediate 73000
hearing 72984
characterized 72981
Az@@ 72972
59 72958
ym@@ 72932
memorial 72925
Lanka 72915
Jan 72900
loc@@ 72898
Zone 72878
doctor 72835
participants 72835
exists 72813
cancelled 72790
Fund 72757
je 72680
relocated 72676
graphy 72664
hor@@ 72655
honour 72651
agencies 72645
obtain 72644
Em@@ 72602
stable 72558
gone 72556
crowd 72543
inaugural 72533
ich@@ 72519
amongst 72511
absence 72501
alists 72496
governments 72484
ratio 72408
rapid 72405
1888 72404
normally 72375
athletes 72352
Arena 72342
linear 72329
Honours 72306
Maine 72284
aimed 72252
conservative 72236
Lin@@ 72235
Labor 72204
Nicholas 72184
Jerusalem 72174
assault 72174
wr@@ 72151
Liga 72144
spending 72144
toured 72143
supports 72140
Tan@@ 72106
creative 72105
LA 72096
concerts 72083
Pen@@ 72061
poems 72045
Ni@@ 72034
commanded 72025
wa@@ 72021
styles 72017
seeking 71981
Dur@@ 71946
Os@@ 71914
transmission 71900
She@@ 71891
ome 71878
bone 71874
cable 71866
fled 71850
Sun@@ 71844
hard@@ 71834
unc@@ 71823
ys@@ 71821
seek 71810
Tal@@ 71796
67 71767
scholar 71760
cer@@ 71750
profile 71738
submarine 71717
publicly 71707
iz@@ 71661
mi@@ 71616
Greater 71609
descent 71589
burn 71588
ready 71586
Rad@@ 71578
picked 71577
string 71577
CO@@ 71571
Karl 71565
5,000 71547
ninth 71538
ean 71525
duo 71503
Fellow 71499
Work 71473
recovered 71462
Ra@@ 71459
Members 71446
moves 71418
poly@@ 71406
exception 71405
Charlie 71390
conf@@ 71370
substantial 71366
Don@@ 71348
Bristol 71323
perfect 71314
Wh@@ 71311
Jason 71288
az 71270
ga 71255
identify 71254
Vancouver 71233
Ka@@ 71229
operational 71205
compilation 71200
Transportation 71199
AP 71194
asts 71172
Warner 71160
sho@@ 71154
deployed 71150
behalf 71138
V. 71133
makeup 71128
Alice 71110
mu@@ 71110
panel 71075
rap@@ 71039
ser@@ 71010
EU 70976
eding 70969
attending 70961
N. 70951
Tam@@ 70950
Sho@@ 70936
convention 70929
elle 70911
gre@@ 70892
resident 70881
external 70866
Sk@@ 70857
Ang@@ 70835
monument 70819
opportunities 70818
Category 70815
Sy@@ 70809
extent 70791
Persian 70765
Mitchell 70762
Beijing 70744
Late 70737
Milan 70730
MS 70726
audio 70724
Andy 70722
MA 70716
releases 70708
sentence 70688
rebuilt 70686
Mir@@ 70669
Diocese 70667
suitable 70667
advertising 70660
contribution 70649
ame 70648
Part 70629
segment 70624
2,@@ 70623
ician 70602
Ir@@ 70583
ranks 70552
Pres@@ 70538
mat@@ 70471
illa 70455
1865 70447
Tak@@ 70430
researchers 70404
closure 70403
Bu@@ 70384
1880 70375
leaf 70370
earning 70350
gay 70307
adults 70306
eds 70299
symbol 70276
68 70258
ologists 70244
onlyinclude 70229
licensed 70223
× 70190
77 70138
commented 70136
Baker 70135
Caribbean 70111
4,@@ 70104
Digital 70084
Bible 70038
61 70011
component 70001
spiritual 69973
beach 69962
que 69933
apparently 69930
volumes 69907
wi@@ 69897
sions 69869
ick@@ 69864
ceased 69835
ray 69834
benefits 69791
borders 69783
restoration 69775
oy@@ 69768
assisted 69760
broadcasting 69749
ests 69698
customers 69688
ira 69672
secured 69669
enjoyed 69654
corporate 69652
Jeff 69640
rain 69637
insurance 69633
sch@@ 69603
mus@@ 69598
abuse 69582
spo@@ 69557
Pan 69550
instrumental 69533
rescue 69520
Challenge 69516
ales 69492
indicate 69461
Vol@@ 69449
Orange 69406
looked 69373
Count 69344
1864 69337
Mol@@ 69330
Iranian 69310
ole 69277
1887 69271
sol@@ 69251
load 69249
implemented 69203
1870 69192
Stars 69158
file 69157
legislative 69146
Having 69108
Along 69087
businessman 69075
elled 69071
Communications 69063
Manhattan 69060
bat@@ 69028
ots 69026
69 69023
pm 69012
Charlotte 69004
Warren 69001
ote 68997
detailed 68995
mate 68971
My@@ 68965
plate 68959
kingdom 68958
Ran@@ 68941
none 68910
eligible 68902
scr@@ 68873
ere 68872
legs 68863
eless 68851
possession 68849
UN 68828
animated 68806
lets 68804
premiere 68803
buy 68796
beautiful 68795
96 68793
una 68793
Evans 68772
junction 68772
percentage 68751
Results 68749
1861 68747
Bir@@ 68747
conventional 68745
significance 68740
lif@@ 68737
activist 68733
eth@@ 68719
78 68702
belonged 68690
Med@@ 68679
ve@@ 68667
Friday 68660
publisher 68646
76 68633
swe@@ 68595
71 68559
74 68558
fac@@ 68556
nearest 68555
establishing 68549
partially 68544
ately 68531
1940s 68525
voters 68498
understand 68461
née 68442
uc@@ 68429
struggle 68413
West@@ 68409
disc 68400
exposed 68391
Hawaii 68373
Harrison 68368
oon 68300
Market 68299
drugs 68288
experimental 68257
destruction 68242
CE 68232
apart 68217
fighter 68217
lose 68210
stein 68206
violent 68200
Alberta 68170
responded 68161
coalition 68122
Songs 68119
Wayne 68119
Fine 68083
Gil@@ 68061
everyone 68060
outer 68059
sey 68039
opponents 68031
Tom@@ 68025
Initially 68005
Wars 68002
mathematics 67993
palace 67979
88 67976
det@@ 67969
Shi@@ 67966
attorney 67942
jury 67941
pos@@ 67941
spaces 67935
gs 67934
lights 67933
eling 67930
substitute 67921
principles 67914
Falls 67898
partly 67898
esh 67892
izing 67876
texts 67844
Commissioner 67817
gro@@ 67811
On@@ 67794
organ 67794
ports 67785
extreme 67784
sum 67767
spirit 67754
Win@@ 67751
spar@@ 67747
lane 67739
Hel@@ 67723
swimming 67698
1886 67694
craft 67662
drafted 67645
− 67643
municipalities 67642
lam@@ 67630
discussed 67594
Fred 67579
VI 67574
star@@ 67574
Together 67572
ug@@ 67569
assets 67545
1862 67518
inch 67510
add 67498
scientists 67472
Muslims 67468
apartment 67456
concentration 67439
Section 67396
Na@@ 67381
Rangers 67349
instrument 67339
Hindu 67316
Story 67310
YouTube 67308
productions 67299
movies 67293
Ker@@ 67289
Municipal 67276
Sport 67269
Soon 67268
ub@@ 67251
1863 67218
subsidiary 67191
Throughout 67190
constitution 67152
qualify 67146
angle 67136
ved 67135
possibility 67126
signs 67113
Guinea 67090
hr@@ 67071
dismissed 67069
oms 67059
Gol@@ 67045
sole 67042
sang 67039
short@@ 67039
locally 67034
ero 66997
merchant 66986
tribes 66983
ban@@ 66972
Nag@@ 66956
revenue 66951
parent 66946
outbreak 66939
wants 66937
tend 66925
Philippine 66909
useful 66904
Bul@@ 66886
belief 66884
Freedom 66882
marks 66868
statistics 66861
medi@@ 66855
accessible 66836
radi@@ 66833
ew@@ 66830
terminus 66829
AA 66809
120 66807
1.5 66800
settlers 66798
Ian 66769
immigrants 66761
produces 66754
&apos;ve 66719
Trinity 66718
continuous 66712
honorary 66706
provinces 66704
ongoing 66689
restricted 66673
Studio 66667
conservation 66664
Nova 66658
passage 66650
tures 66646
ride 66640
pointed 66632
essential 66630
coaching 66629
fitted 66628
2,000 66581
withdrew 66567
trust 66565
neither 66557
fair 66551
expensive 66549
wedding 66541
1884 66536
ke@@ 66524
Socialist 66434
Broadcasting 66428
Tigers 66418
talent 66412
chamber 66406
civilian 66388
fill 66358
Sav@@ 66329
Rem@@ 66315
20@@ 66265
thesis 66264
numbered 66262
Cooper 66243
rising 66211
merger 66202
completing 66198
farmers 66191
Common 66189
matters 66181
relation 66177
physics 66169
fication 66165
eng 66122
balance 66118
ection 66114
scholarship 66112
displayed 66111
Parker 66109
amp@@ 66102
apply 66073
84 66071
Fer@@ 66058
throne 66055
partners 66008
liber@@ 66000
Pat@@ 65992
Branch 65984
cup 65982
repair 65972
Kat@@ 65963
closing 65952
but@@ 65940
Gmina 65927
Such 65910
personality 65910
Grade 65906
soft 65900
abilities 65884
vs. 65872
initiated 65869
umb@@ 65867
ili@@ 65854
playoffs 65851
ires 65847
Clinton 65818
syn@@ 65816
Adelaide 65807
cemetery 65805
Barry 65795
cle@@ 65794
1881 65783
uri 65774
ć 65762
seeing 65756
ima 65753
Mun@@ 65752
cal@@ 65735
Video 65732
initiative 65707
Universal 65695
false 65668
eri 65665
aim 65658
Armenian 65640
Not@@ 65640
hat 65616
sculpture 65610
asks 65569
uk 65554
Legacy 65531
Oblast 65525
Dakota 65497
ading 65496
98 65491
crash 65484
cour@@ 65432
ith 65411
itor 65381
Parish 65376
Allied 65348
sessions 65330
cy@@ 65323
trials 65301
touring 65269
arrangement 65260
respective 65256
choose 65243
suburb 65238
Attorney 65233
dispute 65225
honors 65189
81 65187
3,@@ 65180
minority 65168
RAF 65151
ons@@ 65148
tar@@ 65131
73 65126
electricity 65124
charity 65108
Reg@@ 65105
Sky 65100
Syria 65079
guilty 65064
traditions 65026
ands 65024
Bar 65012
falling 65005
Code 64990
Wall 64986
pursue 64968
connecting 64943
Action 64935
metre 64934
Jonathan 64925
lowest 64915
Soccer 64891
2000s 64848
Virgin 64840
diverse 64838
Tim@@ 64834
Admiral 64815
Standard 64805
Pradesh 64760
Turner 64759
ele 64741
crossed 64740
mut@@ 64740
Type 64726
anyone 64709
exclusively 64707
sailed 64697
fictional 64693
wrestling 64691
weekend 64685
ster@@ 64680
illness 64660
ws 64646
remove 64638
communications 64610
92 64587
PhD 64578
unsuccessful 64539
flower 64533
multi@@ 64532
Buffalo 64529
desire 64523
Kings 64522
Barbara 64500
retail 64488
closer 64487
Cuba 64485
aps 64472
clinical 64463
alliance 64457
ranging 64455
our@@ 64436
Fin@@ 64395
eldest 64368
wearing 64348
judges 64344
Saints 64338
Be 64303
Je@@ 64303
limits 64303
margin 64289
occasion 64274
men@@ 64268
principle 64263
pitch 64245
vo@@ 64232
solar 64201
electrical 64191
advice 64190
crimes 64176
ung@@ 64169
treaty 64134
appropriate 64124
Technical 64119
focuses 64109
Abbey 64107
dominant 64102
fee 64061
pas@@ 64027
doesn 64018
Years 63995
1882 63978
Gl@@ 63974
credits 63974
Peninsula 63962
Furthermore 63956
battalion 63924
Food 63920
Woman 63914
Hunter 63878
earth 63877
marry 63859
references 63852
regulations 63841
Classic 63825
requested 63779
path@@ 63774
emperor 63745
ping 63724
Control 63714
86 63711
Baptist 63695
beating 63683
patterns 63670
submitted 63659
banned 63640
Collins 63616
Peru 63597
traded 63595
colors 63592
Tech 63588
awa 63588
isolated 63564
reduction 63553
Century 63525
Brisbane 63524
Hudson 63523
oke 63507
operator 63502
82 63489
0s 63487
allies 63477
Assistant 63443
pu@@ 63384
grey 63359
Saudi 63347
Therefore 63345
Alaska 63274
Race 63270
Rom@@ 63243
shift 63231
conclusion 63221
Munich 63209
centr@@ 63205
Cook 63196
Ice 63196
circumstances 63181
Conservation 63169
Catherine 63156
Sor@@ 63149
Bengal 63144
neur@@ 63115
cargo 63093
layer 63088
clearly 63072
Buddhist 63069
Jacob 63031
connections 63002
low@@ 62999
comm@@ 62989
aring 62977
Anglo 62953
vin@@ 62948
ores 62929
decisions 62923
strategic 62862
conversion 62841
ST@@ 62835
ship@@ 62833
practical 62825
dual 62824
crown 62804
NY 62787
iti@@ 62762
scope 62760
drummer 62754
ects 62719
editions 62703
IS@@ 62698
travelled 62698
else 62676
sin@@ 62660
ensis 62648
Cincinnati 62647
housed 62622
backs 62609
battery 62606
iss@@ 62604
Urban 62593
Mrs. 62591
AC@@ 62590
aj 62590
bing 62550
soldier 62535
lis 62533
clothing 62526
16@@ 62509
int@@ 62504
hunting 62502
ax 62496
cul@@ 62494
och@@ 62481
aling 62472
activated 62451
Language 62449
stones 62443
roll 62424
Lloyd 62417
influences 62412
speci@@ 62412
Industry 62399
hin@@ 62395
bin 62391
grows 62377
yer 62371
wo@@ 62359
12@@ 62344
Down 62342
Nation 62329
originated 62329
Model 62325
Kon@@ 62324
yr@@ 62324
Kin@@ 62304
bomb 62285
sisters 62285
indicates 62284
organic 62249
Students 62233
drums 62232
recognised 62205
wan@@ 62197
prot@@ 62194
apparent 62191
boundaries 62164
79 62161
tunnel 62157
negotiations 62138
photography 62131
cinema 62130
repeated 62126
defended 62124
internationally 62118
93 62116
jurisdiction 62101
evolution 62096
Faculty 62074
suggest 62059
intention 62046
monastery 62037
por@@ 62030
Territory 62027
cent 62005
Arch@@ 61983
reveals 61977
drivers 61967
decides 61964
involves 61949
Trail 61940
1883 61931
Over@@ 61901
97 61892
settlements 61875
hop 61874
Black@@ 61842
Oliver 61841
Tro@@ 61803
87 61778
origins 61754
mechanism 61750
ver 61750
ger@@ 61749
locomotives 61745
á@@ 61744
Barcelona 61742
timber 61724
ax@@ 61720
relevant 61703
pain 61699
sun@@ 61697
PS 61693
manufactured 61690
raising 61689
proteins 61676
Unit 61669
Springs 61652
sufficient 61642
Dark 61636
alised 61636
1871 61635
ula 61609
Out@@ 61561
Mid@@ 61546
mix 61538
Do 61533
riding 61531
100,000 61523
tested 61518
mechanical 61495
tone 61493
Kol@@ 61476
Jay 61473
UN@@ 61448
1876 61437
edi@@ 61413
mel@@ 61403
opponent 61384
survive 61379
exhibited 61341
sa@@ 61335
TC 61334
Masters 61288
Operations 61284
1860 61271
overseas 61263
Latino 61228
essing 61224
83 61215
acquisition 61207
Father 61205
hol@@ 61196
Apple 61188
Fl@@ 61185
1878 61181
eter 61177
ast@@ 61169
thereafter 61169
cash 61165
Hugh 61135
Hans 61109
increases 61104
Phoenix 61095
Nevada 61069
SE@@ 61067
Ven@@ 61066
temperatures 61063
Kas@@ 61032
Luis 61029
Hebrew 60998
leg@@ 60988
tom@@ 60986
warm 60968
strip 60964
boards 60959
Current 60898
Bernard 60882
Leeds 60881
fear 60874
Democrat 60853
Roberts 60850
09 60827
landed 60816
ez@@ 60815
sts 60798
copy 60791
acres 60789
aming 60788
Les 60782
cattle 60772
Colombia 60764
wealthy 60757
otic 60739
hole 60736
tot@@ 60733
Bab@@ 60717
Cam@@ 60712
twin 60705
bow 60697
Microsoft 60696
Shah 60690
mention 60683
romantic 60683
Democrats 60673
wid@@ 60659
Dead 60643
aging 60633
debt 60625
promoting 60614
truth 60610
ota 60584
reviewed 60555
Let 60532
Res@@ 60501
Cer@@ 60490
arr@@ 60479
Sab@@ 60466
campaigns 60464
sti@@ 60462
genetic 60432
festivals 60425
Systems 60395
tha 60393
Wild 60390
fifteen 60384
Industrial 60379
89 60327
Players 60326
oked 60325
tanks 60304
Finally 60277
Chamber 60266
delivery 60252
Herbert 60221
assists 60204
orchestra 60192
planet 60182
Fi@@ 60180
permission 60123
Nepal 60113
Gro@@ 60112
shoot 60088
preferred 60073
Vincent 60072
manufacturer 60064
participating 60038
outstanding 60030
collaborated 60022
traditionally 60014
demonstrated 60010
resignation 59997
bases 59990
rocks 59968
managing 59967
Symphony 59952
How 59943
ains 59911
94 59907
topics 59907
exp@@ 59904
Archbishop 59899
Rec@@ 59895
Borough 59820
sum@@ 59820
soul 59818
magazines 59798
photographs 59781
forcing 59761
venture 59748
dependent 59741
shall 59741
owed 59737
rarely 59724
Dem@@ 59713
deemed 59709
Athens 59703
ute 59700
Costa 59626
mines 59581
oid 59581
ier 59579
91 59568
biological 59560
midfielder 59556
Azerbaijan 59555
DJ 59552
Electric 59551
stress 59541
hope 59516
dle 59499
placing 59496
ez 59483
Rail 59450
Pot@@ 59433
certified 59426
flights 59421
Wing 59400
usual 59398
vertical 59382
ented 59375
variant 59364
ight@@ 59362
Jazz 59352
eggs 59340
mail 59337
Christianity 59331
expand 59308
Bad@@ 59297
discussion 59294
funeral 59288
tro@@ 59286
airing 59251
compiled 59249
ert 59232
bear 59218
vast 59170
Formula 59157
Cu@@ 59148
Pictures 59145
moral 59141
ums 59125
Wang 59109
Nebraska 59097
Madison 59084
Hy@@ 59078
peoples 59076
favour 59071
implementation 59060
ref 59049
convicted 59032
symptoms 59029
exercise 59014
industries 59011
pole 58985
Lar@@ 58973
1867 58965
Jr. 58952
playoff 58940
interpretation 58921
08 58902
cooperation 58891
1872 58888
Norfolk 58854
ond@@ 58828
departed 58803
Circuit 58798
thick 58789
ī@@ 58782
lift 58769
thi@@ 58767
1875 58734
finance 58726
pping 58672
Formation 58666
describing 58653
Ul@@ 58631
unlike 58630
psych@@ 58626
don@@ 58623
mil@@ 58613
usage 58607
Kenya 58593
Hope 58589
vary 58589
gang 58585
ees 58554
Blues 58539
1879 58522
economics 58518
Lions 58512
adi 58506
sion 58500
sharing 58498
hum@@ 58487
sy@@ 58470
extensively 58468
slaves 58467
sor@@ 58466
Dal@@ 58457
kar@@ 58438
manage 58438
virus 58436
constitutional 58412
devoted 58412
delayed 58399
Bos@@ 58393
Gray 58388
alis 58381
Fo@@ 58376
baby 58367
ministry 58359
ali@@ 58356
5,@@ 58352
enrolled 58352
express 58330
chi@@ 58329
Much 58304
contributing 58299
Drive 58292
coat 58289
mag@@ 58286
wealth 58286
Sil@@ 58268
width 58262
Pap@@ 58256
oral 58169
inducted 58153
rep@@ 58131
informed 58123
wider 58109
roster 58076
Those 58073
BA 58072
machines 58060
thin 58051
defend 58049
Bay@@ 58046
giant 58030
walking 58025
athlete 58016
AL@@ 58010
exposure 58005
Non 57995
1868 57970
prices 57958
ello 57947
ess@@ 57941
ective 57935
supposed 57932
ential 57928
narrative 57927
IC@@ 57911
elsewhere 57909
Giants 57888
partial 57883
ace@@ 57880
circle 57829
inherited 57827
designation 57822
ridge 57821
bers 57818
tes 57813
corresponding 57806
ained 57793
Sen@@ 57792
preparation 57790
trail 57786
Pri@@ 57765
farming 57763
Rogers 57759
sized 57751
Nov@@ 57746
Commons 57745
reaches 57745
breeding 57739
Croatia 57736
householder 57735
pages 57727
tournaments 57690
aboard 57664
correct 57656
filming 57652
son@@ 57651
USS 57627
Newcastle 57622
tribute 57617
Air@@ 57614
Vel@@ 57588
Ki@@ 57584
ested 57582
Architecture 57560
SA@@ 57560
Independence 57539
anger 57529
lying 57502
17@@ 57484
ues 57479
approached 57475
bachelor 57462
Side 57438
Op@@ 57436
Plan 57418
believes 57414
charter 57402
Phil 57378
camps 57373
fresh 57344
til@@ 57330
Da@@ 57325
Range 57301
ush@@ 57290
decorated 57285
concerning 57261
resumed 57259
Fair 57253
commenced 57224
Jerry 57223
wer 57215
cricketer 57205
Album 57203
ori 57199
exclusive 57190
1874 57184
posts 57174
Abu 57163
AT@@ 57153
incumbent 57149
Policy 57119
Vegas 57108
zero 57108
AP@@ 57097
golf 57097
Primary 57079
Confederate 57076
Derby 57072
All@@ 57066
sounds 57041
ions 57034
ox@@ 57029
reporting 57029
Terry 57009
oo 57003
automatic 56992
liberal 56990
recalled 56986
waste 56983
winds 56958
inspiration 56956
expert 56952
lan@@ 56950
1873 56940
ming 56940
worker 56913
grandson 56911
tured 56907
my@@ 56859
diplomatic 56857
2.5 56855
identical 56855
alcohol 56841
app@@ 56837
dangerous 56836
depression 56829
1877 56791
imperial 56787
Wo@@ 56786
specialized 56784
weapon 56763
ide@@ 56756
Storm 56750
Denver 56732
ables 56726
3,000 56716
São 56671
scar@@ 56653
Der@@ 56645
depicted 56640
1866 56635
cin@@ 56627
€ 56624
Neil 56620
physician 56613
Argentine 56599
bi 56580
pitched 56557
Pa@@ 56547
buses 56543
ven@@ 56535
Sultan 56514
Mill 56493
Bulgarian 56476
legislature 56476
arch 56472
Jefferson 56465
Species 56460
speaker 56458
Ed 56445
wick 56435
ification 56419
Based 56418
Croatian 56409
diseases 56403
Petersburg 56401
Pedro 56390
Southeast 56386
belongs 56382
tering 56376
AM@@ 56328
Florence 56322
ow 56311
alities 56308
evolved 56302
gaining 56297
seem 56297
Jose 56296
exhibitions 56284
nominations 56274
700 56270
communist 56257
ava 56253
qualification 56251
ton@@ 56250
Anti 56238
Lang@@ 56236
thinking 56233
clan 56219
ign@@ 56219
shops 56216
uniform 56209
ech 56208
log@@ 56208
repe@@ 56179
band@@ 56168
sand 56164
TA 56154
Ridge 56136
corruption 56108
shopping 56074
black@@ 56069
Nature 56067
ased 56064
onian 56058
portrait 56056
mot@@ 56034
Eventually 56033
kl@@ 56029
Warsaw 56024
arriving 56008
enters 56005
CC 55984
historians 55971
iled 55965
Can 55944
cha 55931
gallery 55927
hero 55923
anc@@ 55918
ye@@ 55904
Amsterdam 55901
legacy 55886
Murphy 55876
č@@ 55870
measured 55863
burned 55848
legend 55843
OS 55840
till 55829
horror 55805
oa 55786
speakers 55761
Ottawa 55758
13@@ 55737
Helen 55713
ians 55710
relegated 55701
canal 55687
Lam@@ 55668
departments 55667
difficulties 55667
Economy 55661
A.@@ 55647
Climate 55628
Comics 55615
brigade 55612
enforcement 55607
Auckland 55588
Mand@@ 55586
reducing 55581
argument 55579
summit 55578
Christians 55574
sung 55572
wel@@ 55557
extend 55532
phrase 55531
Dick 55508
mainstream 55482
osa 55438
15@@ 55433
interviews 55412
Play 55410
columns 55408
oriented 55396
Ty@@ 55378
oper@@ 55373
visits 55370
belt 55357
challenges 55353
Bulgaria 55320
ă@@ 55305
punk 55277
Syrian 55270
siege 55233
Edwards 55231
mol@@ 55218
grass 55212
Delaware 55206
Den@@ 55205
Green@@ 55205
scores 55182
tool 55179
clean 55176
proof 55164
Yale 55155
Chapel 55151
connect 55151
lo 55146
Keith 55104
fighters 55103
atr@@ 55096
Shanghai 55074
Luke 55072
Currently 55067
ordinary 55048
unincorporated 55037
bert 55027
onia 55023
removal 55016
deck 55012
pul@@ 55012
Perry 54983
excellent 54975
maker 54972
attempting 54967
dia 54967
Venice 54959
Sierra 54958
lows 54952
authored 54942
aga 54939
Shar@@ 54896
rows 54887
prove 54880
helps 54873
execution 54871
spend 54855
regard 54843
murdered 54841
Writing 54829
looks 54828
Campaign 54824
exact 54815
affect 54814
historically 54810
Lebanon 54801
Harold 54785
ial 54780
recovery 54769
permitted 54768
actively 54746
Finance 54734
che 54723
Grace 54714
characteristic 54701
ua 54691
Obama 54683
sitting 54674
birthday 54666
red@@ 54653
met@@ 54643
writings 54643
carrier 54633
AT 54621
spin 54614
awareness 54605
inn@@ 54605
guests 54571
pairs 54567
decide 54554
temporarily 54548
Mis@@ 54528
beauty 54526
disbanded 54523
basin 54487
aria 54486
latest 54477
internet 54469
flew 54468
academy 54455
coached 54439
illy 54427
slave 54396
colleges 54384
ico 54370
ail 54361
prop@@ 54359
Release 54342
remote 54326
saved 54319
Protestant 54306
counts 54284
aks 54275
collective 54272
Thai 54255
AS 54248
Manuel 54248
1869 54230
supplied 54214
sample 54203
spots 54202
Tel@@ 54187
therapy 54141
Child 54131
Robin 54131
fy 54087
coins 54064
parks 54063
1848 54062
Anglican 54053
Wellington 54047
dollars 53990
Protection 53978
gener@@ 53970
jump 53959
variable 53953
Stage 53943
perspective 53935
predecessor 53935
Ken 53926
indicating 53923
cavalry 53915
abolished 53913
earthquake 53912
4.@@ 53903
payment 53881
weak 53875
neck 53862
reporter 53857
dress 53848
backed 53846
3D 53813
affair 53807
accurate 53798
Che@@ 53791
beetle 53784
dissolved 53782
gauge 53759
Gregory 53736
Bobby 53734
was@@ 53723
• 53717
Future 53716
Craig 53714
soci@@ 53713
tours 53711
Ghana 53702
simultaneously 53696
faces 53660
demands 53654
Stuart 53644
printing 53641
ben@@ 53640
Report 53638
slowly 53632
emotional 53617
Collection 53616
jo 53613
restrictions 53594
deser@@ 53583
ases 53578
Lor@@ 53573
Former 53571
bly 53569
Mother 53564
worst 53539
RA 53505
Workers 53504
coup 53484
sun 53484
Larry 53483
01 53482
mature 53473
Short 53471
sat 53462
Flight 53458
switched 53457
copper 53452
07 53434
… 53434
alive 53432
tal@@ 53416
Financial 53414
citing 53390
distinction 53386
Ten@@ 53378
earn 53376
Guy 53372
Hughes 53363
revolution 53361
namely 53358
iy@@ 53355
carries 53336
root 53327
cutting 53325
ū@@ 53321
ila 53317
worn 53280
Ing@@ 53273
documented 53266
pulled 53266
Gen@@ 53257
Contemporary 53252
dow@@ 53250
plain 53245
atmosphere 53235
Every 53228
unless 53209
Hay@@ 53208
Gilbert 53190
chemistry 53187
crosses 53185
pushed 53184
inj@@ 53180
Water@@ 53179
hence 53162
ister 53152
distinctive 53146
tle 53141
maps 53129
ack@@ 53122
ball@@ 53119
theories 53116
ME@@ 53110
ocean 53075
collapse 53069
nephew 53067
options 53050
tenth 53030
ministers 53012
elder 53009
pres@@ 52991
tan@@ 52974
Venezuela 52972
gap 52963
lion 52963
Bad 52958
attendance 52949
clock 52944
binding 52939
monthly 52930
ush 52926
pit 52919
Ken@@ 52918
imp@@ 52917
aded 52907
nes 52885
Harbor 52881
valuable 52864
anga 52859
escaped 52840
Byzantine 52839
aware 52835
Key 52817
far@@ 52803
leagues 52800
inhabited 52796
CDP 52792
cop@@ 52789
Eagles 52773
Exchange 52767
administered 52758
sugar 52757
targets 52742
1850 52719
MC 52719
waiting 52711
guide 52704
Computer 52693
Han 52680
Sullivan 52678
Playing 52669
Males 52668
wan 52655
Indonesian 52639
Dam 52624
anda 52623
rev@@ 52619
IN@@ 52617
Hitler 52605
05 52598
Guardian 52595
feeling 52583
Ralph 52566
Ju@@ 52560
crops 52548
graduation 52546
Aviation 52527
Albums 52523
Š@@ 52522
efficient 52518
scientist 52482
grades 52479
beam 52477
Run 52472
victim 52470
ruler 52469
evil 52465
ze@@ 52455
Next 52451
Vermont 52447
Mari@@ 52442
S.@@ 52439
ki@@ 52424
elementary 52416
recipient 52416
tery 52415
elite 52412
elevated 52398
Environmental 52387
cap 52373
coaches 52372
ater 52362
enn@@ 52347
zi 52345
06 52335
amounts 52329
comparison 52321
outdoor 52312
descendants 52303
lined 52303
Bag@@ 52302
Dennis 52286
work@@ 52282
functional 52278
adi@@ 52274
á 52258
gathered 52256
ured 52244
restaurants 52238
atively 52236
Joint 52233
ERA 52224
Gran@@ 52193
Montana 52192
Delta 52190
fire@@ 52159
Sto@@ 52158
Provincial 52134
vol@@ 52127
Agriculture 52121
yo 52121
Productions 52090
etta 52089
inter 52086
receives 52082
regulation 52082
compound 52081
ety 52081
Mr 52078
organisations 52077
Villa 52072
bus@@ 52072
cy 52069
Prefecture 52047
Sheffield 52025
apping 52015
Butler 52011
bridges 51989
connects 51978
approaches 51965
Yugoslavia 51944
gardens 51940
sequel 51935
explains 51932
technologies 51909
telling 51899
altitude 51884
motor@@ 51818
Steven 51815
Artillery 51784
asking 51783
sy 51776
stem 51763
Kerala 51758
objective 51757
dom 51739
ais@@ 51715
error 51709
M.@@ 51708
Berkeley 51706
consumption 51694
etti 51685
emphasis 51683
ost@@ 51681
30@@ 51678
seemed 51675
comprises 51674
worship 51671
framework 51661
forth 51657
hills 51654
residing 51652
Secondary 51642
consistent 51641
alternate 51638
tourism 51623
hur@@ 51594
seeds 51585
understood 51577
essentially 51575
Ancient 51572
challenged 51572
breaks 51571
bearing 51569
archaeological 51563
reforms 51559
Small 51554
vocalist 51541
forty 51530
radical 51521
capita 51520
Leo 51493
meter 51490
14@@ 51486
ticket 51482
studios 51475
tel@@ 51436
Monday 51434
dre@@ 51409
eth 51390
meat 51369
Jacques 51363
Friends 51348
referring 51348
Bran@@ 51326
dean 51326
ny@@ 51325
rice 51320
affiliate 51289
Google 51268
aggregate 51246
installation 51239
predominantly 51204
patrol 51198
Cabinet 51196
Stanford 51195
bombing 51192
Susan 51191
reflect 51191
Student 51178
improvements 51160
Roosevelt 51144
Post@@ 51143
dramatic 51129
suspension 51128
Days 51118
agree 51110
ffs 51102
Fall 51089
destroy 51086
hat@@ 51084
Nashville 51065
disaster 51065
The@@ 51059
undergraduate 51059
lord 51058
Motor 51047
Ma 51044
ment@@ 51042
Up@@ 51030
Gun@@ 51022
atus 51000
Finals 50984
Performance 50957
eer 50953
Mills 50951
Bak@@ 50949
difficulty 50943
institute 50938
defender 50932
fi@@ 50931
Interstate 50924
Armed 50919
shut 50894
bars 50887
labour 50884
threw 50879
experiments 50875
Horse 50872
ask 50871
favorite 50868
tourist 50854
kilometers 50834
extinct 50811
&apos;d 50782
dev@@ 50780
tube 50772
ai@@ 50767
quarterback 50758
distr@@ 50754
recruited 50738
retiring 50737
stat@@ 50730
petition 50722
news@@ 50712
ø@@ 50712
martial 50709
Cruz 50708
alize 50703
talks 50696
impossible 50695
teach 50690
hood 50661
structural 50657
External 50653
failing 50650
truck 50643
Ga@@ 50625
volunteers 50617
Met@@ 50613
metropolitan 50613
ories 50599
tributary 50587
answer 50581
Watson 50568
sn@@ 50559
clo@@ 50549
citizen 50544
wrong 50538
Intelligence 50537
Methodist 50531
ham@@ 50530
Gur@@ 50519
battles 50514
eva 50512
intellectual 50510
form@@ 50504
colleagues 50499
makers 50483
procedure 50477
ES@@ 50464
superior 50461
authorized 50434
firing 50426
oe 50423
asa 50421
gh@@ 50420
aining 50414
fil@@ 50408
ro 50400
aw 50384
Holland 50371
eted 50367
politicians 50355
ped 50320
Dame 50319
comprehensive 50315
Coach 50307
Higher 50296
pin@@ 50288
tia 50287
phon@@ 50285
Ron 50281
bo 50277
North@@ 50274
aled 50269
attacking 50245
taxes 50241
Starting 50239
plastic 50236
Dream 50220
argues 50219
Lev@@ 50204
CH@@ 50197
exhibit 50186
Wallace 50177
kar 50166
nik 50163
aqu@@ 50161
raid 50154
Beginning 50146
Ry@@ 50146
yc@@ 50139
Sony 50135
oz@@ 50132
silent 50130
salt 50128
laboratory 50115
rac@@ 50082
ema 50080
Box 50071
ough@@ 50061
wasn 50061
Representative 50043
exactly 50021
wer@@ 50020
1857 50015
Private 49992
Mos@@ 49989
stri@@ 49984
HMS 49975
Ball@@ 49974
drove 49969
Vietnamese 49964
ko@@ 49959
Leg@@ 49929
developments 49925
hidden 49911
ł@@ 49907
Commerce 49903
Wells 49886
1859 49884
convinced 49879
efficiency 49872
ler@@ 49852
consist 49843
dic@@ 49836
Lan@@ 49824
20,000 49823
manuscript 49815
Eddie 49799
touchdowns 49792
casualties 49776
oli 49752
contracts 49742
stops 49742
Overview 49731
nickname 49725
Ci@@ 49713
Ny@@ 49704
char@@ 49701
sure 49694
bell 49691
Hum@@ 49685
sustained 49665
parking 49664
eness 49660
literally 49660
nationally 49655
aer@@ 49649
Ivan 49635
High@@ 49629
bol@@ 49627
MD 49618
CC@@ 49589
runners 49587
oning 49586
mic 49581
van@@ 49565
Sem@@ 49555
sort 49551
loop 49549
fundamental 49548
Pop 49546
bel@@ 49515
ambassador 49514
illustrated 49514
Phillips 49509
MTV 49504
Golf 49490
Mason 49482
outs 49482
fastest 49476
golden 49461
Raymond 49452
Nevertheless 49447
compositions 49432
Cold 49423
integration 49422
revised 49406
etic 49401
hel@@ 49365
comments 49348
shots 49346
fifty 49341
Ground 49337
happy 49332
aro 49328
perceived 49320
unds 49315
Moh@@ 49313
Rick 49312
aspect 49304
Gothic 49303
diocese 49303
logo 49300
flo@@ 49292
Ca@@ 49287
dan 49286
explain 49277
Palestine 49275
nar@@ 49272
relay 49272
any@@ 49265
din@@ 49264
ishes 49238
refugees 49237
oring 49231
ip@@ 49222
waves 49213
willing 49213
renowned 49207
Ambassador 49199
thanks 49188
emen 49175
widow 49172
veteran 49170
Fourth 49162
shipping 49157
tap@@ 49147
CE@@ 49146
dig@@ 49144
mainland 49113
rant 49110
hospitals 49108
calendar 49107
bit@@ 49105
engagement 49105
anian 49104
aims 49103
Price 49102
Jon 49089
cuts 49084
ratings 49069
rig@@ 49063
Railways 49058
ink 49054
fying 49047
arians 49045
imprisoned 49044
AFL 49031
radar 49026
Indies 49013
Fol@@ 49011
new@@ 48994
Wor@@ 48976
serial 48968
variation 48962
drinking 48956
Arnold 48936
Bou@@ 48928
gen 48918
Revolutionary 48873
emp@@ 48863
shi@@ 48861
iri 48822
tan 48820
ej@@ 48817
ider 48815
input 48810
Leonard 48806
ison 48782
spr@@ 48776
bri@@ 48757
Angel 48754
cultures 48734
bat 48711
Northwest 48704
Hon@@ 48699
fa@@ 48696
Literature 48695
Prague 48678
Magic 48677
ation@@ 48675
gift 48658
pictures 48654
eous 48641
Maj@@ 48631
sight 48626
victories 48615
Junction 48610
Bil@@ 48601
oxygen 48601
orange 48595
Columbus 48561
underwent 48542
essed 48539
ado 48528
Economics 48518
puts 48518
shire 48518
6,@@ 48516
Gabriel 48510
examination 48502
Celtic 48500
hyper@@ 48497
lan 48488
Romanized 48479
reflected 48477
neighboring 48472
thereby 48459
Grey 48458
Dr 48447
ail@@ 48446
Ze@@ 48444
Congo 48432
Newton 48430
construct 48410
Harvey 48409
putting 48408
Grove 48407
handle 48407
Election 48406
Politics 48405
Hom@@ 48404
locomotive 48399
poll 48391
discuss 48390
Sat@@ 48346
top@@ 48301
Gh@@ 48289
Mars 48269
Die 48263
focusing 48256
lawsuit 48248
smooth 48224
discrimination 48219
progressive 48209
aviation 48198
Pon@@ 48193
accommodate 48186
Good@@ 48175
programmes 48173
celebration 48169
diesel 48155
Car 48141
Rus@@ 48140
Chair 48134
imposed 48132
extending 48096
travels 48077
avi@@ 48074
empire 48062
Tommy 48061
maintaining 48057
bonus 48048
rem@@ 48046
ree 48037
exile 48027
discontinued 48005
cylinder 47992
founders 47989
statements 47985
04 47976
airline 47954
sen@@ 47954
Abraham 47952
Renaissance 47942
summary 47940
interaction 47925
signals 47921
Oscar 47895
bond 47893
ailed 47887
allegations 47884
Airlines 47879
judicial 47878
err@@ 47866
detail 47861
Record 47845
interesting 47840
prints 47840
virtual 47831
beaten 47827
Clarke 47825
dimensional 47808
Competition 47805
Films 47803
equation 47768
prevented 47763
Palestinian 47758
Grammy 47754
controls 47739
CI@@ 47732
immigration 47723
god 47718
artificial 47715
south@@ 47715
indic@@ 47712
wore 47711
ret@@ 47707
syndrome 47707
familiar 47688
traveling 47675
inal 47674
molecular 47674
Hamburg 47633
lit 47624
C.@@ 47611
Right 47606
ord@@ 47606
Otto 47601
dy@@ 47591
afternoon 47589
Hir@@ 47588
relating 47588
Vladimir 47570
eo 47567
ump 47565
concepts 47564
fold 47562
owns 47561
FI@@ 47552
theatrical 47550
Weekly 47533
experiment 47528
CP@@ 47523
pin 47522
iness 47513
revolutionary 47503
Wa@@ 47485
Fair@@ 47452
Cork 47448
Ball 47439
sem@@ 47438
Shu@@ 47437
universal 47427
samples 47410
planes 47399
Bri@@ 47398
CS 47389
1854 47380
Statistics 47374
with@@ 47374
RO@@ 47365
comics 47364
improvement 47359
Essex 47357
ols 47355
Minor 47352
zo 47346
ck 47340
prepare 47333
addressed 47332
milk 47330
contribute 47326
updated 47324
broadcasts 47323
horn 47323
enzyme 47322
ów 47321
biology 47316
dogs 47309
sciences 47293
rebounds 47289
Boulevard 47281
B.@@ 47274
colonies 47258
flood 47244
fires 47231
Ev@@ 47222
Arabia 47204
ense 47198
moderate 47197
democracy 47194
consumer 47191
iding 47180
O. 47176
AR 47165
universe 47145
empty 47144
liquid 47140
Ph.D. 47139
thirteen 47133
arding 47122
snow 47107
ices 47104
ž@@ 47089
Dragon 47081
warning 47081
extends 47078
mul@@ 47066
Liu 47064
governing 47056
permanently 47054
Commercial 47048
Liberty 47047
radiation 47024
enemies 47018
readers 47018
counted 47009
1855 47008
segments 46998
Camp@@ 46991
FL 46979
ibn 46967
pioneer 46967
feelings 46963
generate 46963
Iraqi 46946
CO 46945
ideal 46945
outs@@ 46927
Honor 46911
Hunt 46903
Ren@@ 46901
Campus 46886
faster 46872
has@@ 46872
solutions 46856
&apos;ll 46852
ā 46850
atives 46839
Cameron 46833
Milwaukee 46833
genes 46828
preserve 46816
centres 46814
select 46810
lifetime 46793
computers 46783
Pel@@ 46777
allegedly 46774
cro@@ 46774
Montgomery 46770
Serie 46761
Pearl 46760
exit 46756
flies 46742
holiday 46723
inform@@ 46713
paint 46712
psychology 46712
Stakes 46706
demanded 46701
ose 46695
Musical 46665
wars 46659
Jamaica 46655
succession 46636
encies 46627
agreements 46620
arrives 46620
Punjab 46619
val@@ 46608
NE@@ 46607
fle@@ 46605
loaded 46602
literacy 46589
continental 46588
ag 46586
specified 46582
Perth 46580
ual 46575
fairly 46572
photo 46572
referendum 46571
fun 46569
Panama 46567
ranges 46557
manga 46554
sely 46537
infection 46532
intense 46530
ania 46523
ily 46515
Maurice 46514
ode 46514
prince 46514
venues 46510
1856 46508
Prot@@ 46499
pure 46485
engage 46483
Wolf 46475
Leader 46464
announcement 46463
arrive 46462
Outstanding 46457
reverse 46447
missile 46433
Ye@@ 46424
Site 46415
tre@@ 46414
burial 46406
cave 46400
mos@@ 46397
resort 46392
cathedral 46370
AN@@ 46362
ces 46351
Danny 46350
Data 46340
í 46338
1858 46337
lakes 46335
enberg 46334
renewed 46332
Ann@@ 46322
codes 46320
magic 46311
cult 46299
Hart 46298
sively 46298
Morning 46296
oy 46289
Elementary 46286
yp@@ 46284
vers@@ 46279
Loc@@ 46274
rebellion 46272
fewer 46255
Revival 46245
shorter 46242
AD@@ 46240
eas@@ 46240
Shaw 46232
Nam@@ 46225
hear 46215
mixture 46212
regul@@ 46210
sending 46199
handling 46197
Joan 46182
populated 46177
Original 46171
sign@@ 46136
Rolling 46135
aman 46132
Population 46117
employee 46114
photographer 46112
aking 46105
ner@@ 46093
Marvel 46092
enabled 46092
throw 46091
Dam@@ 46073
haz@@ 46068
break@@ 46064
educ@@ 46062
Survey 46045
Pil@@ 46039
Bosnia 46031
independently 46026
diversity 46021
fame 46021
Bennett 46014
Oakland 46009
graph 46004
artwork 46001
acc@@ 45999
generations 45993
Article 45989
Notes 45988
Brunswick 45986
patent 45986
realized 45980
pes 45974
arena 45960
fallen 45958
min 45947
itz 45920
Bot@@ 45911
span 45902
estone 45901
Kot@@ 45897
Sher@@ 45893
revival 45876
Friedrich 45874
drum 45873
tea 45873
eventual 45872
dubbed 45870
confidence 45859
requiring 45854
experts 45851
Sz@@ 45848
astic 45845
Laura 45838
Pu@@ 45837
Miguel 45827
stationed 45827
sle@@ 45825
110 45824
transi@@ 45824
repeatedly 45823
Kit@@ 45815
Gul@@ 45807
fu@@ 45802
Pit@@ 45790
Cos@@ 45788
shifted 45786
disorder 45783
eck 45783
footage 45782
retreat 45772
boarding 45758
promised 45758
Greg 45735
plates 45729
queen 45727
vel@@ 45726
tip 45718
stored 45716
Source 45707
bench 45707
Has@@ 45700
assembled 45691
tissue 45685
catch 45684
freight 45675
slavery 45675
aside 45656
ords 45650
impl@@ 45643
advocate 45637
treat 45636
displays 45612
han@@ 45591
hardware 45589
Cle@@ 45579
portions 45555
Georgian 45544
Spencer 45534
Ky@@ 45530
Pic@@ 45529
variants 45526
Name 45523
IP 45508
amed 45488
pp@@ 45487
chers 45470
Cardinal 45466
dialogue 45459
fantasy 45453
lighting 45441
Spirit 45440
animation 45424
su 45416
hydro@@ 45406
reserves 45401
Baby 45398
dancing 45374
Hat@@ 45350
Mot@@ 45350
belong 45332
cat 45327
Forum 45305
urs 45302
inscription 45297
editorial 45292
witness 45288
surrender 45258
particles 45245
predic@@ 45236
pilots 45211
assessment 45209
Academic 45205
Scientific 45204
ket 45185
rivals 45183
Mario 45180
fourteen 45177
DS 45171
CD@@ 45167
circulation 45165
cel@@ 45161
magnetic 45154
investigate 45134
Stockholm 45133
boxing 45125
asting 45124
MO@@ 45118
Bus 45107
SO@@ 45104
Land@@ 45100
Lost 45088
sk 45087
bright 45080
dil@@ 45077
telephone 45062
02 45059
Mumbai 45057
len@@ 45047
án 45045
Dow@@ 45044
Johann 45040
Wilhelm 45035
Where 45030
backing 45025
anime 45003
teeth 44993
democratic 44965
Sid@@ 44948
Location 44946
Rel@@ 44943
noise 44940
Flying 44934
remembered 44934
athletic 44928
extr@@ 44925
Mang@@ 44922
Room 44921
qui@@ 44907
Meg@@ 44900
Shakespeare 44894
activists 44886
dic 44886
Legal 44874
surprise 44874
variations 44874
anus 44872
spell 44869
pitcher 44865
Louise 44862
naming 44844
ops 44841
Foster 44840
Rob@@ 44832
ovich 44827
kick 44813
ović 44808
retain 44806
mere 44804
Albanian 44788
1840 44783
ust 44774
app 44772
Facebook 44771
eau 44770
followers 44763
Wi@@ 44753
Paulo 44749
Manila 44743
beliefs 44737
1851 44734
prestigious 44734
rich@@ 44723
shed 44721
Haw@@ 44706
severely 44704
situations 44704
sixteen 44703
alling 44699
provisions 44699
ulation 44693
dealing 44674
matrix 44673
intervention 44658
Penn 44657
releasing 44647
index 44646
ordained 44643
pad@@ 44626
Pakistani 44616
Cuban 44596
criteria 44596
switch 44593
CS@@ 44579
Grande 44571
enlisted 44570
utes 44563
civilians 44557
suspected 44553
notice 44547
3.5 44544
bach 44542
Cot@@ 44539
freestyle 44528
tape 44516
D.@@ 44515
Uganda 44500
neighbouring 44500
upcoming 44500
instruction 44496
win@@ 44489
specimens 44488
berry 44484
similarly 44473
commitment 44470
inning 44470
Nine 44465
friendship 44463
dream 44449
Din@@ 44436
voiced 44422
orph@@ 44419
DA 44415
seriously 44413
professionals 44400
conducting 44391
comprising 44375
Ear@@ 44369
Eagle 44361
prisoner 44357
ander 44356
IT 44344
divorce 44343
Manager 44337
noting 44335
layout 44326
confused 44320
oth 44319
altered 44312
5.@@ 44298
Hill@@ 44282
ries 44278
Low 44266
keys 44266
choir 44253
interpreted 44253
chapters 44247
Aaron 44245
Kun@@ 44244
orn 44244
François 44237
Advanced 44234
separation 44226
ells 44224
RC 44223
Jam@@ 44219
societies 44218
dialect 44212
centered 44201
Blood 44200
topped 44188
behaviour 44187
kin@@ 44172
targeted 44169
seized 44165
Mut@@ 44153
dar@@ 44128
00@@ 44126
aff@@ 44123
Mam@@ 44106
Mobile 44098
Somerset 44096
fal@@ 44085
ine@@ 44080
conductor 44066
eled 44063
marking 44059
manufacturers 44052
observation 44041
liner 44030
Continental 44026
triple 44023
Isaac 44022
Vir@@ 44009
biography 44003
ester 44002
clay 44000
Wildlife 43986
let@@ 43986
Cul@@ 43985
Sean 43978
Laboratory 43969
streams 43965
Vis@@ 43956
heir 43955
Circle 43922
custom 43921
jail 43911
lateral 43902
AI@@ 43893
acoustic 43890
Indianapolis 43886
presents 43885
Sak@@ 43882
aci@@ 43879
Secret 43877
Owen 43862
Maz@@ 43852
Sum@@ 43850
isation 43839
Voice 43834
potentially 43819
p.m. 43810
heading 43805
goalkeeper 43801
Fal@@ 43783
personally 43783
wake 43783
journalists 43780
Besides 43778
Sussex 43778
celebrate 43772
specialist 43751
thrown 43746
NASA 43744
wish 43743
ashes 43740
Tennis 43725
tender 43706
invented 43698
Guide 43694
Scotia 43689
Durham 43685
assed 43673
transit 43641
1852 43632
Ted 43632
codice 43628
03 43626
adventure 43625
iro 43625
adj@@ 43606
AG 43605
Mac 43597
ori@@ 43592
Gardens 43587
Ernest 43581
signature 43576
enh@@ 43572
Examples 43571
aces 43567
arrangements 43566
Bird 43565
considering 43565
destination 43562
wood@@ 43544
Cardinals 43542
har 43535
Gate 43533
Pass 43520
Lim@@ 43514
Cole 43507
Heights 43507
volleyball 43507
check 43506
Mes@@ 43504
Aires 43502
favorable 43500
tackles 43486
Environment 43474
Nas@@ 43467
arm@@ 43463
Are 43460
clients 43452
rifle 43452
findings 43442
din 43438
jet 43432
Buenos 43423
ani@@ 43421
blu@@ 43405
Reading 43401
Vin@@ 43390
Fisher 43381
indeed 43377
RE@@ 43361
enter@@ 43357
uted 43353
sid@@ 43350
gli@@ 43313
Ages 43310
ph 43301
ser 43300
package 43288
ager 43287
tasks 43285
varied 43285
corps 43284
merely 43275
quick 43262
viewing 43254
Nat@@ 43247
Sox 43236
Luc@@ 43233
Artists 43231
Kel@@ 43230
requirement 43228
Bow@@ 43186
orbit 43184
associations 43180
pen 43179
mad@@ 43176
concentrated 43172
Mass 43171
stand@@ 43171
Reed 43169
Lithuania 43167
Triple 43164
audiences 43141
presentation 43136
Aboriginal 43134
floors 43129
encourage 43121
unions 43106
idi@@ 43101
pursued 43092
101 43077
Wu 43077
Mik@@ 43064
Oc@@ 43058
bears 43046
relatives 43037
decrease 43030
ide 43024
Rhode 42969
VII 42963
desert 42956
une 42952
Kate 42948
Isle 42947
commentary 42942
congregation 42940
files 42940
ius 42936
Phil@@ 42932
Bears 42927
idge 42916
Westminster 42910
circular 42899
Knights 42889
hometown 42883
maintains 42876
asc@@ 42869
discovers 42864
Nancy 42834
BCE 42833
suggesting 42825
Armenia 42824
IS 42821
Lucas 42815
doctorate 42815
zer 42812
volunteer 42805
ski@@ 42804
Sad@@ 42803
play@@ 42803
manages 42797
sin 42793
1853 42786
brings 42784
allo@@ 42779
touch 42776
vector 42774
psychological 42771
IM@@ 42768
ours 42767
threats 42767
ous@@ 42751
interchange 42748
exterior 42739
duc@@ 42726
nec@@ 42726
sequences 42716
sit 42715
coffee 42709
NO@@ 42708
iko 42706
indoor 42705
RA@@ 42701
hoped 42679
Div@@ 42672
intermediate 42670
Transit 42641
Teams 42640
divorced 42640
encountered 42640
23@@ 42625
à 42625
law@@ 42623
Rovers 42617
paying 42615
conflicts 42614
lab 42612
Son 42606
planted 42589
kil@@ 42583
Todd 42570
Pet@@ 42565
Justin 42557
transformed 42555
entr@@ 42543
operators 42507
rainfall 42494
pat@@ 42460
Newport 42455
Rev. 42455
gear 42447
creates 42435
Vic@@ 42433
Nan@@ 42431
prim@@ 42419
Steel 42417
bot@@ 42417
identification 42414
Tampa 42403
averaged 42403
migration 42396
theorem 42388
Rice 42378
expanding 42367
siblings 42362
Morocco 42359
brook 42356
unt 42354
Copenhagen 42351
130 42347
wire 42342
recognize 42321
R.@@ 42318
staged 42308
Salt 42303
AFC 42302
Kom@@ 42296
skill 42291
deeply 42290
warfare 42290
Block 42279
praise 42274
cos@@ 42271
Using 42262
citizenship 42249
improving 42242
Marc 42238
pale 42232
Drama 42231
continent 42205
closest 42199
Buc@@ 42195
prototype 42193
eller 42189
iling 42187
4,000 42185
Hindi 42173
properly 42157
pel@@ 42143
sheet 42143
con 42137
prec@@ 42137
Parliamentary 42136
Lancashire 42132
achievements 42123
alia 42110
eland 42110
zo@@ 42102
pianist 42086
1849 42083
Haz@@ 42070
axis 42066
Chester 42060
honours 42055
God@@ 42049
Sir@@ 42047
mo 42040
Pat 42007
edly 42007
procedures 42000
Vas@@ 41994
emerging 41993
Hurricane 41985
rebels 41981
antly 41978
survival 41977
Parks 41976
colours 41962
banking 41958
Diamond 41955
nationwide 41955
achievement 41947
Bus@@ 41944
trio 41944
Franco 41940
farms 41939
journals 41936
Palmer 41927
teen 41906
nineteenth 41905
collegiate 41891
panels 41890
lim@@ 41875
ks@@ 41868
varies 41852
Amendment 41848
owski 41841
Ahmed 41840
Rob 41836
singers 41828
50,000 41815
olo 41798
CR 41796
Oil 41794
survivors 41793
Fighter 41780
criticised 41773
Safety 41771
Pad@@ 41761
Idaho 41758
By@@ 41753
autumn 41743
Lithuanian 41733
Davies 41717
ict 41715
headquartered 41710
acknowledged 41691
Bud@@ 41686
Dom@@ 41669
Cher@@ 41665
Tem@@ 41657
graphics 41653
honored 41635
Chen 41627
egg 41624
Ring 41618
Care 41614
pregnant 41609
Jay@@ 41607
Plant 41596
Cyprus 41595
elec@@ 41592
LE@@ 41591
register 41581
Hag@@ 41579
database 41572
ci 41569
IC 41541
Lat@@ 41537
Lisa 41529
Oak 41525
impressive 41514
Bell@@ 41507
restore 41501
interface 41493
journalism 41491
ais 41478
streak 41472
mini 41467
Stevens 41459
colonel 41457
ng@@ 41455
carved 41450
conjunction 41445
allied 41430
Yang 41424
Bis@@ 41423
ros@@ 41420
AB@@ 41419
Brussels 41415
Malta 41413
Events 41398
consultant 41394
Ferdinand 41385
bow@@ 41383
knee 41381
scorer 41377
ump@@ 41370
book@@ 41366
Chelsea 41365
class@@ 41360
sleep 41360
Micro@@ 41351
scandal 41351
1847 41347
pupils 41343
í@@ 41341
Under@@ 41333
tag 41329
Ruth 41317
Annual 41310
duration 41305
hosting 41305
school@@ 41298
Cavalry 41295
SS@@ 41290
provision 41279
feeding 41268
onwards 41266
squ@@ 41266
Off@@ 41258
Mill@@ 41257
sharp 41255
oni@@ 41252
7,@@ 41251
quot 41248
san@@ 41248
quarters 41246
Giovanni 41236
Sr. 41231
Canterbury 41230
ayan 41207
chy 41197
messages 41197
Personnel 41196
collect 41177
Rat@@ 41176
curve 41172
pros@@ 41172
towers 41167
Gold@@ 41165
trouble 41160
quoted 41158
po 41151
wet 41146
priests 41141
lecturer 41140
ferry 41135
guidance 41133
danger 41130
impressed 41128
Santiago 41119
Af@@ 41117
stolen 41107
nest 41102
Kn@@ 41098
kings 41097
fluid 41088
dis 41087
uni@@ 41078
welfare 41076
grants 41073
ī 41071
disappeared 41063
Wat@@ 41057
stability 41044
Soul 41043
random 41042
{ 41038
Still 41037
dock 41026
lum 41026
Tir@@ 41022
advisor 41021
Living 41019
locked 41011
Peak 41007
author@@ 41007
entity 41000
liked 40986
dor@@ 40982
batting 40959
circum@@ 40951
fed 40951
withdrawn 40939
HIV 40938
travelling 40938
suddenly 40934
len 40933
valid 40930
presidency 40915
apo@@ 40914
prey 40911
array 40908
rapper 40904
deliver 40902
hu 40892
resource 40886
sensitive 40875
Napoleon 40869
burning 40866
relegation 40865
How@@ 40863
southeastern 40861
layers 40859
som@@ 40859
rounded 40853
capit@@ 40842
deals 40842
upgraded 40838
mentions 40827
fortress 40820
engineers 40818
lik@@ 40789
consensus 40786
anna 40784
HD 40781
Sul@@ 40776
governed 40774
privately 40765
punishment 40759
Artist 40736
smo@@ 40709
lineup 40708
cotton 40698
wickets 40678
sam@@ 40671
receiver 40656
Saskatchewan 40637
Chancellor 40633
conferences 40630
Armstrong 40629
eat 40625
tru@@ 40624
Estate 40620
assignment 40616
Ob@@ 40613
cam@@ 40607
RI@@ 40595
Additional 40592
practiced 40588
rest@@ 40587
Sus@@ 40582
favourite 40578
Left 40571
doctors 40567
Queens 40557
enable 40557
Cardiff 40543
Machine 40535
Spec@@ 40533
gers 40529
bak@@ 40525
Fernando 40520
Bun@@ 40491
Twitter 40484
sailing 40482
ott 40478
tile 40472
oes 40467
tale 40464
occurring 40460
topic 40457
Dominican 40456
Chapter 40447
configuration 40444
mates 40436
yan@@ 40436
Princeton 40431
Wall@@ 40427
deposits 40417
Franz 40410
900 40398
quantum 40394
Sabha 40392
sal 40380
imprisonment 40373
anth@@ 40372
corn 40370
los 40358
transported 40354
vic@@ 40350
Marcus 40340
RS 40335
insky 40332
rocket 40331
larvae 40330
proceeded 40328
Actor 40324
Solomon 40304
AF@@ 40293
fraud 40288
Lak@@ 40285
tain 40282
Far 40281
anism 40262
reliable 40260
ayed 40253
eses 40253
lab@@ 40250
Interior 40247
stretch 40245
pounds 40244
gan 40242
wage 40238
mall 40227
dh@@ 40225
acking 40218
tomb 40210
1846 40209
flooding 40199
watching 40189
Emma 40183
Belgrade 40181
Eng@@ 40172
Powell 40166
permit 40166
Sl@@ 40165
domin@@ 40156
strikes 40156
supporter 40148
AB 40146
Holmes 40145
reveal 40142
aba 40139
Presbyterian 40137
.. 40134
18@@ 40132
Dynasty 40125
lig@@ 40119
Page 40111
Geneva 40101
temples 40084
Total 40076
voyage 40074
wheels 40070
wind@@ 40061
rat 40056
performers 40051
delay 40049
Nav@@ 40044
Laur@@ 40036
automatically 40034
Hull 40030
Tiger 40019
esis 40019
neutral 40011
pronounced 39999
Moreover 39988
styl@@ 39984
phenomenon 39968
uch@@ 39959
estates 39957
Law@@ 39954
territorial 39945
fiel@@ 39938
advis@@ 39924
curriculum 39917
acquire 39916
grid 39915
investors 39911
ku@@ 39906
ave 39905
Thor@@ 39901
muscle 39898
varying 39892
drink 39886
Nintendo 39880
drawings 39863
Zhang 39857
ther 39851
Pete 39847
cally 39834
1,0@@ 39831
Ellis 39814
Amateur 39812
stown 39801
Sha@@ 39796
sm@@ 39792
Kingston 39784
beer 39772
compounds 39771
reactions 39758
Hen@@ 39756
algorithm 39747
8,@@ 39744
ined 39741
pot@@ 39740
Popular 39709
Without 39709
north@@ 39703
flu@@ 39702
bee 39687
Bradford 39680
entries 39675
ovo 39674
corporation 39673
Fac@@ 39672
reads 39662
theology 39661
Sec@@ 39655
clar@@ 39643
preliminary 39639
myth@@ 39633
og 39632
membrane 39631
noble 39624
dynamic 39610
ually 39604
mes@@ 39603
posed 39598
Double 39596
lem@@ 39596
blues 39590
amo@@ 39588
Similarly 39578
push 39577
registration 39575
march 39572
interactions 39566
symbol@@ 39559
Engineers 39558
ie@@ 39556
XI 39555
ful@@ 39542
ails 39539
northeastern 39534
EC 39520
ners 39518
publish 39513
Fifth 39511
eating 39511
struggled 39498
lectures 39497
Plat@@ 39496
intensity 39495
Sudan 39490
Java 39480
sing@@ 39480
Albania 39474
Cav@@ 39473
Dol@@ 39469
ō@@ 39463
Ali@@ 39462
Relations 39460
aa 39455
define 39448
Desert 39445
Nu@@ 39439
Yellow 39438
ein 39420
Chil@@ 39418
customer 39417
flowering 39411
fel@@ 39404
oting 39403
easier 39401
Lodge 39400
kilometres 39393
Woods 39390
super 39377
Conn@@ 39367
sson 39367
environments 39366
Simpson 39359
finite 39344
discover 39342
ruins 39338
Distinguished 39324
Herald 39324
Wol@@ 39318
hydrogen 39316
conver@@ 39315
competitors 39309
Subsequently 39301
Ah@@ 39297
currency 39285
PlayStation 39280
aftermath 39275
prompted 39272
lit@@ 39271
shelter 39269
Indigenous 39266
gy 39254
NATO 39251
embarked 39243
ante 39242
Ronald 39241
libraries 39241
disputed 39219
eni 39215
Again 39209
agu@@ 39204
yi 39202
Som@@ 39187
client 39186
onist 39167
discipline 39166
tight 39166
Rev@@ 39165
Tree 39162
phot@@ 39161
Advisory 39150
Manitoba 39145
\ 39140
handled 39138
Pre 39137
acclaim 39127
Andrews 39125
solely 39123
stab@@ 39116
Nic@@ 39100
firms 39095
J.@@ 39094
holder 39083
colored 39071
FBI 39067
ammunition 39067
hous@@ 39063
Recording 39050
ett@@ 39049
decreased 39046
Comedy 39032
sli@@ 39029
verses 39027
Us 39026
reconstruction 39013
teammate 39013
Julian 39009
sters 39005
helicopter 39004
cut@@ 38984
IBM 38983
res 38979
Medi@@ 38963
rivalry 38956
oking 38953
1812 38949
nom@@ 38949
Rab@@ 38942
Say@@ 38942
edy 38936
shoulder 38932
Cour@@ 38929
dozen 38926
casting 38903
apped 38900
fusion 38890
governmental 38889
militia 38886
attraction 38882
Hur@@ 38881
bassist 38877
ho 38870
peer 38869
Cel@@ 38859
Bah@@ 38855
ble@@ 38836
alled 38834
Julia 38833
ener 38826
1830 38823
spl@@ 38812
watched 38806
zones 38800
Wind 38799
hitting 38798
pil@@ 38794
Basin 38787
icity 38776
gathering 38767
Guards 38765
consent 38764
ju@@ 38764
interim 38760
H.@@ 38752
Brooks 38749
armies 38746
Sm@@ 38745
Mid 38727
terrain 38727
Return 38726
1845 38716
twentieth 38716
Eight 38708
girlfriend 38707
Eugene 38705
beneath 38671
tari@@ 38671
Publishing 38666
conquest 38665
Hop@@ 38657
Pir@@ 38654
solve 38649
explosion 38646
LGBT 38635
dying 38627
Abdul 38622
occasional 38616
varieties 38616
prayer 38614
joins 38612
striking 38607
180 38606
Legislature 38603
analy@@ 38603
Vo@@ 38595
Caroline 38593
TV@@ 38574
tribal 38571
Plaza 38567
feels 38558
Duncan 38553
pa@@ 38552
agh 38549
kills 38549
Complex 38546
South@@ 38540
proposals 38537
Kenneth 38534
Memphis 38531
bacteria 38523
Rag@@ 38505
aus@@ 38503
Others 38502
Lakes 38498
export 38496
Official 38492
creator 38490
Legion 38485
ballot 38484
southwestern 38479
Cy@@ 38471
Prom@@ 38469
farmer 38469
ref@@ 38469
Det@@ 38466
bills 38461
insects 38454
Chase 38451
bounded 38448
observations 38442
Had@@ 38438
Critics 38430
peti@@ 38430
locks 38425
Philosophy 38418
learns 38415
Shah@@ 38412
portraits 38406
shallow 38406
Colonial 38404
settle 38403
Tang 38386
mph 38385
Against 38373
encounter 38371
grain 38368
lasting 38368
shock 38360
human@@ 38344
virtually 38335
dri@@ 38331
aches 38326
storyline 38318
Republicans 38311
Universe 38310
Arsenal 38308
vegetation 38307
stronger 38302
wers 38302
Number 38300
iki 38293
trend 38292
moon 38291
lessons 38289
Allan 38286
regardless 38279
intr@@ 38278
absolute 38275
ified 38275
missionary 38269
itt 38264
Hus@@ 38262
tives 38262
explore 38255
ón 38255
trips 38223
ih@@ 38218
Get 38213
Emily 38210
road@@ 38210
Rabbi 38206
rap 38206
MS@@ 38191
wat@@ 38184
Am 38179
inclusion 38178
Anti@@ 38175
Surrey 38175
unclear 38173
Amazon 38171
cleared 38168
accomplished 38157
incidents 38148
é@@ 38147
AIDS 38143
mutual 38142
person@@ 38139
aver@@ 38137
mansion 38137
estr@@ 38136
Bog@@ 38122
organisms 38113
consequence 38110
transformation 38110
Course 38108
Plan@@ 38108
manor 38107
Edition 38106
aerial 38101
Henri 38093
ion@@ 38093
Glen 38086
Bryan 38080
Saf@@ 38078
RNA 38074
1800 38072
doc@@ 38072
Planning 38071
Gibson 38068
Gan@@ 38059
genera 38044
snow@@ 38034
nose 38031
sits 38030
surfaces 38017
uma 38005
doctrine 37997
guards 37994
kov 37962
compensation 37959
Kap@@ 37944
Estonia 37942
hopes 37925
6.@@ 37922
rape 37920
ensemble 37918
long@@ 37914
furniture 37912
Band@@ 37909
by@@ 37909
Calgary 37908
collecting 37906
reservoir 37898
phic 37891
run@@ 37890
Episcopal 37888
renovation 37888
NA 37886
oner 37886
ultimate 37885
rowing 37878
ó@@ 37874
å@@ 37872
developer 37866
preservation 37858
aft 37855
magnitude 37855
trac@@ 37853
habitats 37844
soap 37826
Leon 37821
entation 37819
Reform 37817
attitude 37814
lia 37810
Michel 37800
autonomous 37794
bishops 37794
oted 37792
Richardson 37791
Liber@@ 37784
standings 37783
advised 37777
Ow@@ 37776
MLB 37770
cross@@ 37769
Lucy 37768
raw 37765
Actress 37757
Hem@@ 37756
servant 37744
Blake 37740
Eg@@ 37733
character@@ 37733
congressional 37733
Ath@@ 37731
ographic 37725
Colin 37712
P.@@ 37703
expelled 37702
pper 37696
dancer 37694
mur@@ 37693
Ok@@ 37690
absorbed 37690
Fil@@ 37683
sheep 37682
loading 37677
Nigerian 37676
pack 37673
escu 37658
stepped 37657
Leslie 37647
Iceland 37640
oll 37635
Filipino 37634
eton 37634
Bailey 37628
crowned 37628
diet 37625
adoption 37623
hybrid 37623
kw@@ 37623
bic@@ 37618
revenge 37617
acks 37609
Progressive 37607
inches 37595
Angels 37592
uni 37580
Frankfurt 37562
workshops 37558
involve 37553
mont 37547
Study 37543
clothes 37543
Off 37539
fate 37536
1837 37533
introduce 37533
talking 37533
blocked 37525
eline 37520
irs 37518
equally 37516
Capitol 37515
Deep 37493
act@@ 37490
symbols 37490
Josh 37485
But@@ 37475
50@@ 37458
sacred 37450
stake 37450
Pul@@ 37447
Sky@@ 37447
Mont@@ 37445
Lem@@ 37440
monitoring 37437
rough 37437
withdrawal 37437
hydr@@ 37435
unk@@ 37430
Hi@@ 37423
holes 37417
sporting 37417
furn@@ 37415
Alpha 37413
sman 37410
diagnosed 37398
profession 37394
collapsed 37390
condemned 37390
commanding 37388
promise 37385
MP@@ 37383
plan@@ 37378
committees 37352
zi@@ 37348
riders 37341
nicknamed 37334
balls 37330
fer 37324
bles 37319
Presidential 37318
moments 37315
Rachel 37314
theoretical 37313
garrison 37312
Bed@@ 37302
offs 37299
Regular 37285
Stor@@ 37285
intent 37282
manual 37279
Bradley 37273
ious 37272
Henderson 37267
Resources 37251
ections 37249
USSR 37220
photos 37219
Brighton 37218
patron 37217
preparing 37216
Kum@@ 37203
anchor 37200
consequences 37199
eu@@ 37197
Aircraft 37196
wed 37188
AL 37181
chorus 37173
estimate 37171
investigated 37170
receptor 37160
alty 37158
renovated 37158
guided 37154
Bull 37146
loved 37138
exploration 37131
Cox 37112
Kos@@ 37106
Top@@ 37105
WWE 37103
Plymouth 37098
Nak@@ 37094
inaugurated 37093
Edmund 37090
mp@@ 37088
fees 37087
morph@@ 37074
25@@ 37072
argue 37072
Stock 37071
conceived 37071
Lit@@ 37070
las 37068
Agreement 37065
Fish 37064
sad@@ 37063
enders 37060
een 37058
1500 37057
Chal@@ 37047
aves 37046
augh@@ 37034
E.@@ 37022
Robertson 37019
accordance 37018
necessarily 37013
sley 37010
poorly 37005
TS 37002
socialist 37000
NS@@ 36995
Eurovision 36989
ground@@ 36981
undertaken 36981
imb@@ 36979
semifinals 36978
aster@@ 36974
united 36973
rotation 36964
initi@@ 36956
mathematical 36945
subspecies 36939
Notre 36938
boss 36933
Roc@@ 36927
sur 36919
cler@@ 36914
vin 36913
shut@@ 36900
Lav@@ 36893
walks 36884
strict 36882
pit@@ 36878
wal@@ 36870
Inter 36865
desired 36865
IX 36860
Liberation 36855
sustainable 36854
rent 36849
rid@@ 36842
polic@@ 36836
power@@ 36830
CR@@ 36815
lied 36815
Tol@@ 36814
nor@@ 36811
viol@@ 36809
Van@@ 36803
sword 36792
vis@@ 36787
faction 36768
Fur@@ 36766
slopes 36758
eting 36757
mosque 36737
depicting 36735
Support 36732
statistical 36731
imagin@@ 36730
lease 36730
350 36727
healthy 36709
revived 36708
cot@@ 36703
allocated 36701
Curtis 36699
Jar@@ 36684
125 36682
tourists 36676
inae 36674
limestone 36668
Tyler 36667
spectrum 36658
vo 36656
Til@@ 36648
1841 36643
manufacture 36642
Vil@@ 36633
Will@@ 36629
astr@@ 36622
vir@@ 36602
ologically 36597
ware 36594
Saxon 36591
24@@ 36568
elimination 36561
Oslo 36547
Lutheran 36529
confusion 36523
simul@@ 36519
developers 36512
Nathan 36510
Sou@@ 36504
ska 36502
chess 36497
sculptor 36493
María 36490
prosec@@ 36489
Deb@@ 36485
architects 36485
Edmonton 36476
Amy 36469
Claude 36468
2.0 36455
bones 36449
resolved 36448
Windsor 36447
Vid@@ 36439
aggressive 36439
doubt 36438
eti@@ 36435
mills 36435
fin 36415
asi 36407
ichi 36404
1.2 36401
upset 36397
estimates 36389
massacre 36383
Son@@ 36377
optical 36376
agrees 36373
1844 36371
orientation 36370
Located 36366
Porter 36366
ims 36363
acclaimed 36360
ku 36359
predicted 36353
proclaimed 36350
6,000 36340
integral 36326
Lou@@ 36324
questioned 36321
Preston 36317
BS 36316
lay@@ 36316
probability 36307
vicinity 36307
suburbs 36305
CF@@ 36292
Naples 36269
mechanisms 36267
Administrative 36265
weak@@ 36260
legally 36255
customs 36253
badly 36252
tables 36249
Slovenia 36240
capabilities 36240
cs 36236
Agricultural 36233
eing 36231
scor@@ 36228
Globe 36227
Gos@@ 36227
VIII 36220
pace 36220
stick 36216
directing 36213
iny 36211
promotional 36211
Orlando 36203
Yan@@ 36203
ark@@ 36193
genres 36191
Eve 36181
wildlife 36176
Physics 36169
Play@@ 36165
consideration 36156
vulnerable 36155
1838 36153
nominee 36140
Prussian 36132
Canyon 36127
torpedo 36126
depends 36124
doctoral 36112
Impact 36109
hull 36107
Nadu 36106
Sang@@ 36104
Americas 36102
kitchen 36097
administrator 36090
logic 36083
assassination 36080
terrorist 36079
secre@@ 36073
bold 36066
manuscripts 36066
constantly 36063
researcher 36059
Reynolds 36056
edges 36056
Lyon 36055
log 36050
neg@@ 36048
inus 36045
plat@@ 36043
comprised 36041
grass@@ 36040
anim@@ 36035
CP 36032
happen 36028
Kab@@ 36017
revol@@ 36017
nationalist 36012
ike 36011
explored 36005
Bear 35997
knows 35992
Principal 35990
interviewed 35990
streaming 35990
tious 35986
bowl 35981
ão 35975
1836 35969
Burton 35966
Speaker 35962
opposing 35948
ached 35947
ji@@ 35946
measuring 35945
distant 35929
premises 35924
Etymology 35923
shield 35922
bankruptcy 35917
Chand@@ 35914
Hun@@ 35911
brands 35907
depicts 35898
Electoral 35897
ogen@@ 35897
ann 35895
aro@@ 35890
net@@ 35886
Copa 35881
Ahmad 35865
sm 35856
pink 35855
northwestern 35853
innovative 35852
set@@ 35843
Milton 35822
Bond 35821
lob@@ 35820
Rod@@ 35818
Cab@@ 35806
sian 35793
Zo@@ 35788
assing 35784
Being 35779
landmark 35775
Emmy 35766
Inn 35747
eli@@ 35746
bore 35736
crop 35724
recover 35719
woods 35711
finale 35709
zes 35708
Chap@@ 35704
screenplay 35702
Albany 35701
Les@@ 35701
SE 35701
Ray@@ 35695
vinyl 35695
Clar@@ 35692
facade 35675
1839 35674
Sisters 35670
stere@@ 35669
delegation 35667
Petr@@ 35661
considers 35655
eli 35654
Monte 35653
blind 35647
ii 35643
succeed 35643
Fraser 35642
Discovery 35639
caps 35626
arded 35621
Ng@@ 35619
Religion 35613
25th 35609
Kumar 35605
Dog 35602
discussions 35597
patch 35596
ingen 35593
trop@@ 35591
instructions 35586
reserved 35585
separately 35582
convert 35574
oll@@ 35571
Belfast 35565
horizontal 35565
nia 35557
conspiracy 35554
thriller 35553
Boeing 35552
gal@@ 35545
Wyoming 35528
arose 35528
Tropical 35526
ordin@@ 35517
tak@@ 35512
Sah@@ 35510
trick 35500
Mass@@ 35492
advocated 35485
hon@@ 35478
organize 35470
rally 35461
Harbour 35457
Warriors 35446
aying 35444
rav@@ 35434
bits 35428
scattered 35426
prof@@ 35422
repairs 35422
compact 35421
aceae 35418
inge 35418
restr@@ 35418
kel@@ 35413
Trav@@ 35394
withdraw 35393
Halifax 35392
betr@@ 35390
CT 35387
Cornwall 35386
Hopkins 35382
icing 35381
Near 35380
considerably 35377
Coalition 35368
enjoy 35363
McDonald 35360
peninsula 35346
sequ@@ 35337
Flo@@ 35315
feminist 35310
37@@ 35300
af 35299
Miles 35296
ici@@ 35280
Mit@@ 35278
spe@@ 35276
pressed 35275
Burns 35271
acker 35268
investigations 35262
rises 35260
iti 35256
Classical 35252
sit@@ 35237
naturally 35236
Cir@@ 35232
hub 35227
refuses 35227
bed@@ 35217
Exhibition 35194
Au@@ 35190
Founded 35190
hamlet 35184
conserv@@ 35183
abortion 35182
periodic@@ 35182
hurricane 35174
oi 35165
dimensions 35160
trophy 35154
hypothesis 35146
elect 35143
ques 35143
rain@@ 35143
encing 35138
oids 35138
que@@ 35135
uz@@ 35131
ritual 35127
alt 35125
Herzegovina 35120
alb@@ 35116
navy 35116
ules 35115
Wel@@ 35112
crucial 35112
eighteen 35107
anta 35091
dian 35091
jointly 35088
proportion 35075
Nik@@ 35072
shipped 35060
Bru@@ 35059
ancing 35058
basement 35055
1842 35054
Guild 35052
vi 35051
Crystal 35038
aic 35036
prohibited 35030
best@@ 35016
26@@ 35008
anz@@ 35006
hun@@ 35006
unveiled 34995
Devon 34990
20.@@ 34979
outcome 34962
tes@@ 34955
iter@@ 34949
Catholics 34946
aun@@ 34943
noticed 34943
Kosovo 34932
ern@@ 34932
legendary 34922
oak 34921
Case 34916
Literary 34915
origin@@ 34914
convoy 34913
marble 34913
scales 34909
wrestler 34909
oto 34903
conversation 34892
subfamily 34890
fossil 34886
Cohen 34883
emigrated 34880
rhythm 34875
proj@@ 34870
André 34853
Reid 34851
mac@@ 34850
alleg@@ 34848
Rap@@ 34847
Portsmouth 34842
Wednesday 34827
consistently 34822
Southwest 34819
Springfield 34809
cycles 34809
bout 34805
Ton@@ 34802
flagship 34796
ples 34792
21.@@ 34787
sculptures 34785
Wy@@ 34776
Istanbul 34773
Tourism 34762
opens 34762
tioning 34760
eri@@ 34759
Working 34751
1832 34746
Depression 34744
recreational 34744
rendered 34744
Criminal 34731
7.@@ 34723
cred@@ 34715
politically 34707
Bod@@ 34698
kinds 34695
remarkable 34690
implement 34685
4.5 34682
Brook 34680
360 34677
saving 34665
ost 34661
physically 34660
composers 34658
lag@@ 34649
mount 34648
Cinema 34636
exhibits 34633
22.@@ 34626
Fellowship 34626
SM@@ 34625
athletics 34614
Rosa 34610
grandmother 34609
Andrea 34607
23.@@ 34606
killer 34603
healthcare 34593
Neg@@ 34590
underlying 34586
ud 34584
pay@@ 34583
certainly 34582
Rep@@ 34577
flav@@ 34570
Alexandria 34569
examined 34568
tz 34566
clerk 34557
Macedonia 34552
Train 34548
list@@ 34544
Indo 34542
arguing 34540
fortune 34540
velocity 34526
Snow 34508
Salvador 34506
phy@@ 34500
vital 34499
Martha 34493
1835 34488
dense 34488
Writers 34482
lifestyle 34476
ashed 34475
140 34467
lus@@ 34467
attract 34458
Carlo 34454
Tab@@ 34451
supervision 34448
Broad@@ 34442
cluster 34437
saf@@ 34436
Spider 34435
ond 34433
dressed 34426
payments 34418
Movie 34417
cribed 34413
Lords 34406
27@@ 34405
Hil@@ 34401
fies 34399
Software 34393
Wit@@ 34393
maternal 34390
commerce 34387
Rah@@ 34378
aut 34371
var@@ 34363
beds 34361
PS@@ 34357
protagonist 34357
Baltic 34344
strategies 34338
folded 34337
bulk 34333
proximity 34333
contracted 34328
9,@@ 34322
wait 34316
sweet 34315
theor@@ 34314
1843 34313
inst@@ 34311
gi 34309
cal 34302
Web 34297
Physical 34280
Batt@@ 34274
responsibilities 34266
Net@@ 34265
PO@@ 34265
Arctic 34261
WA 34254
draws 34249
offense 34246
45@@ 34227
Lind@@ 34224
geographical 34221
interrupted 34198
Change 34197
propaganda 34194
arguments 34191
olls 34191
gates 34190
philosopher 34189
Bath 34187
Zimbabwe 34181
museums 34170
IT@@ 34167
Lancaster 34164
Yu@@ 34164
Harper 34162
Rid@@ 34159
Bes@@ 34150
Thursday 34143
pic@@ 34140
proceedings 34137
Gas@@ 34133
toll 34133
Kaz@@ 34130
Sup@@ 34128
pull 34122
wild@@ 34107
Bra@@ 34105
dish 34102
ury 34095
Hell 34090
eville 34086
filling 34083
Ethiopia 34082
Associate 34076
Publications 34076
160 34072
adjus@@ 34071
scre@@ 34068
thy 34062
minimal 34056
Gir@@ 34055
breed 34050
dol@@ 34048
tas@@ 34047
ysis 34046
lover 34043
cian 34039
recurring 34036
Sn@@ 34035
imported 34032
Linda 34025
Rochester 34023
Pass@@ 34020
Contest 34017
umi 34017
Hugo 34013
Jac@@ 34012
Ras@@ 34008
Hard@@ 34003
essay 33996
CIA 33986
Silva 33983
tus 33978
iles 33974
carriage 33970
graduates 33970
Rivers 33968
disabled 33965
lesser 33963
gastropod 33958
Sheriff 33955
instructor 33951
forec@@ 33945
Jun@@ 33944
voices 33942
voltage 33939
Paralympics 33937
ographer 33934
30,000 33931
Seminary 33929
Headquarters 33926
Theodore 33920
Directors 33917
dinner 33916
Buddhism 33915
icker 33905
removing 33903
aly 33896
bility 33887
excess 33885
ovsky 33882
synthesis 33875
nh@@ 33861
witnesses 33859
constituted 33854
wit@@ 33854
boxes 33848
Bros. 33846
Jennifer 33834
Factory 33832
explanation 33830
facilitate 33823
Pos@@ 33821
mit@@ 33817
availability 33815
Mercury 33813
wn 33810
shirt 33807
pipe 33796
cher@@ 33795
seal 33795
sand@@ 33791
tric 33786
8,000 33782
sponsor 33773
ram@@ 33767
ling@@ 33758
reader 33757
sectors 33757
knocked 33755
pollution 33755
Ellen 33751
tend@@ 33747
NASCAR 33742
Yo@@ 33737
Apart 33724
Faith 33724
Nacional 33723
tackle 33723
port@@ 33720
Vale 33716
Rhine 33714
wise 33698
inland 33693
25.@@ 33689
Various 33681
diving 33677
tiv@@ 33677
Syn@@ 33669
ups 33664
24.@@ 33655
Testament 33653
Inside 33647
phosph@@ 33639
Fran@@ 33637
Morrison 33629
&apos;Brien 33621
stint 33620
murders 33618
Haven 33614
Beg@@ 33612
Ecuador 33608
nan 33603
ask@@ 33595
ket@@ 33594
suburban 33587
Single 33582
spelled 33582
Jesse 33579
cool 33578
masters 33575
Kul@@ 33573
Santos 33573
she@@ 33570
UC 33569
specimen 33569
ATP 33568
deployment 33555
cloud 33553
thermal 33552
mineral 33545
vet@@ 33543
ache 33540
performer 33538
ease 33534
ady 33533
lifted 33532
opo@@ 33531
Chess 33527
Spe@@ 33527
ili 33526
substance 33526
Moses 33524
ep 33524
endangered 33521
breast 33519
decree 33516
electron 33502
cameras 33490
Bet@@ 33489
kr@@ 33487
Ari@@ 33484
Lab@@ 33484
yo@@ 33484
presenter 33482
molecules 33478
ort 33474
Shir@@ 33468
HS 33464
batteries 33458
rushing 33455
novelist 33450
utility 33448
sha 33444
Devil 33438
alizing 33430
aus 33430
I.@@ 33421
spotted 33421
show@@ 33417
acre 33412
Wagner 33401
Gaelic 33399
Ji@@ 33399
rulers 33389
priority 33386
valued 33382
distinguish 33378
anese 33377
xi@@ 33376
ille 33369
Self 33368
Barr@@ 33359
Monroe 33356
Seoul 33356
Fri@@ 33355
Est@@ 33350
ui 33348
unsuccessfully 33347
NSW 33346
Chuck 33344
alumni 33333
hospit@@ 33332
0,000 33329
Sweet 33328
heroes 33317
delegates 33316
disciplinary 33313
NC 33303
oration 33300
surrendered 33287
Lynn 33284
pon@@ 33283
Chilean 33279
rebel 33278
differ 33277
DE@@ 33268
hap@@ 33265
custody 33263
initiatives 33259
iler 33258
Glen@@ 33253
Mich@@ 33249
Prim@@ 33247
Store 33242
Og@@ 33240
Online 33238
Churchill 33237
zing 33237
mythology 33228
enko 33226
commercially 33216
clin@@ 33215
download 33214
navigation 33208
Luxembourg 33205
calculated 33205
drives 33202
Never 33195
tam@@ 33195
oro 33192
Salem 33188
raids 33188
Lion 33179
nights 33178
millions 33177
Bac@@ 33176
innovation 33173
zz@@ 33170
Gerald 33169
illed 33167
Reb@@ 33165
Kyle 33163
mand@@ 33159
Manor 33152
Watch 33143
shaft 33142
batt@@ 33140
loyal 33134
performs 33125
runway 33124
rob@@ 33121
Swimming 33100
Tul@@ 33097
Aj@@ 33095
chim@@ 33085
IP@@ 33084
tail@@ 33074
trav@@ 33071
aug@@ 33070
chlor@@ 33066
pot 33065
bike 33061
successive 33055
ingham 33046
heim 33042
proven 33040
phones 33037
Access 33031
akes 33030
quarter@@ 33030
highlighted 33027
ESPN 33025
mill@@ 33025
placement 32996
Hall@@ 32994
Maritime 32994
Mod@@ 32989
icon 32984
orum 32983
tobacco 32965
View 32954
camp@@ 32953
ID 32945
Baronet 32930
ER@@ 32928
Lines 32922
endorsed 32919
organizing 32919
night@@ 32918
Euro 32916
Apollo 32905
liver 32898
salary 32898
regiments 32896
GA 32895
induced 32892
Glenn 32888
Cad@@ 32886
Level 32886
ust@@ 32872
consciousness 32871
bonds 32853
thi 32844
Algeria 32843
fights 32841
grap@@ 32840
Ve@@ 32838
Scar@@ 32836
eus 32832
tension 32829
27.@@ 32824
accuracy 32824
invitation 32823
kids 32815
Banks 32810
enhanced 32799
mystery 32796
foundations 32792
keeper 32790
ancestry 32783
Edgar 32779
worthy 32776
Stat@@ 32766
Style 32766
circles 32757
consumers 32756
Forbes 32755
Ulster 32755
PM 32737
reopened 32737
particle 32736
Head@@ 32729
tar 32727
obtaining 32718
aker 32712
romance 32710
AI 32705
directions 32698
Cla@@ 32686
val 32685
Julius 32683
Winnipeg 32671
Poly@@ 32669
Heaven 32664
monks 32664
Speedway 32660
endor@@ 32654
hips 32654
demonstrate 32653
motorcycle 32653
Full 32652
Prussia 32644
depot 32644
Estonian 32639
monuments 32639
ceremonies 32638
altar 32637
airs 32634
lanes 32632
powder 32629
rolling 32625
workshop 32615
Malaysian 32608
eon 32606
vacant 32602
continuously 32582
tism 32582
certificate 32577
pursuit 32571
TE@@ 32570
otes 32567
Barnes 32564
donations 32563
achieving 32557
notion 32554
Sag@@ 32551
manipul@@ 32549
settings 32540
secular 32535
Te 32527
Flor@@ 32524
qualities 32523
hide 32517
26.@@ 32514
Similar 32514
outlets 32512
comfortable 32507
complicated 32506
asted 32499
obvious 32499
chaired 32498
Richards 32497
Soci@@ 32495
AF 32484
Dy@@ 32480
æ@@ 32478
throwing 32475
tal 32466
Rocky 32456
² 32449
Industries 32445
Carol 32442
Money 32440
Brah@@ 32438
correc@@ 32437
40@@ 32436
borne 32436
violin 32434
ceiling 32430
1815 32427
rectangular 32410
Gene 32408
illing 32406
Prison 32397
0.5 32392
pled 32391
miss 32390
truly 32390
referee 32387
Overall 32385
frames 32381
bil@@ 32380
enterprise 32373
respond 32355
Myanmar 32353
commissioner 32345
lic@@ 32343
Slovakia 32339
ers@@ 32336
highways 32331
gies 32328
Bronze 32326
coin 32322
Liv@@ 32321
neighbourhood 32321
editing 32320
preventing 32315
managers 32309
disorders 32301
presenting 32296
beg@@ 32294
Del 32290
introducing 32287
ature 32286
accompanying 32283
Hayes 32281
lengths 32278
dro@@ 32277
Marion 32272
treating 32272
flowing 32261
blo@@ 32256
Spo@@ 32253
RT 32248
Squ@@ 32248
orian 32243
Recent 32241
29@@ 32238
Cornell 32231
PR 32230
Taxonomy 32230
ettes 32225
Rot@@ 32215
lady 32215
Rich 32210
rum@@ 32210
Annie 32207
aji 32205
invested 32204
Yankees 32199
Elections 32194
Come 32193
diplomat 32192
prominence 32191
rookie 32186
passion 32185
Antarctic 32183
tham 32175
challenging 32172
eping 32170
battalions 32167
cabin 32160
tactics 32159
auction 32158
elly 32154
jo@@ 32147
disk 32146
revolt 32143
Superior 32138
ave@@ 32138
steep 32138
conquered 32135
King@@ 32133
Leicester 32130
Frances 32125
Louisville 32124
escort 32123
ry@@ 32119
Dig@@ 32112
Grammar 32111
Kids 32109
Mine 32109
Johnston 32100
preceding 32082
apartments 32051
Gri@@ 32050
arg@@ 32048
Table 32041
longtime 32037
Constantinople 32028
t. 32028
Raz@@ 32026
parade 32025
taste 32024
gods 32021
Jake 32017
pri@@ 32017
advancing 32012
snail 32010
Emergency 32006
urn@@ 32006
Constitutional 32004
tica 31995
evaluation 31994
web@@ 31991
elaborate 31984
humanity 31982
phen@@ 31981
MI@@ 31974
Elliott 31972
labels 31971
Nobel 31969
absent 31964
alls 31960
protesters 31954
Cat 31953
UFC 31943
Raiders 31938
Pay@@ 31936
ority 31927
Ballet 31925
Picture 31925
aristoc@@ 31921
veterans 31921
ego 31919
Fighting 31905
refuge 31894
Marco 31893
ennial 31893
Thi@@ 31884
Ludwig 31882
Yugoslav 31875
bread 31867
marketed 31866
nomin@@ 31862
sville 31862
Karen 31861
Tit@@ 31847
Jamie 31846
GM 31844
Institution 31840
loans 31838
pan 31836
Ach@@ 31831
had@@ 31828
tun@@ 31828
jan 31827
uli@@ 31827
División 31823
Beyond 31818
pain@@ 31818
pass@@ 31815
G.@@ 31810
stimul@@ 31807
reinforced 31805
Sons 31804
ig 31804
crews 31799
Marines 31794
Tran@@ 31792
poets 31789
1.6 31786
Learning 31784
Religious 31783
arily 31779
accidentally 31778
evol@@ 31773
sudden 31773
inary 31768
Diana 31760
ader 31760
arc 31760
Pop@@ 31759
Betty 31754
AN 31752
flat@@ 31751
orous 31748
trucks 31748
Cs 31747
dealt 31744
Edwin 31743
IL 31742
bio@@ 31741
tem@@ 31736
Cop@@ 31724
openly 31716
Mall 31715
Dorothy 31711
Newfoundland 31709
Kazakhstan 31708
merchants 31701
emissions 31700
Carroll 31692
uta 31690
declaration 31689
demonstration 31687
item 31681
illo 31677
Female 31676
hotels 31674
termin@@ 31656
barrel 31652
1.1 31649
broad@@ 31648
1814 31646
Brother 31646
Indoor 31645
pending 31640
lav@@ 31639
Eye 31635
cont@@ 31634
regulated 31634
quit 31633
responses 31629
knockout 31626
refer@@ 31623
ped@@ 31622
ashi 31617
Clay 31614
pedi@@ 31614
Malcolm 31610
factories 31610
loads 31606
Jeremy 31601
artifacts 31600
F.@@ 31599
satis@@ 31591
static 31591
companion 31585
activation 31578
partnered 31572
lev@@ 31559
owing 31552
1.3 31550
Structure 31547
ete 31542
urged 31540
cycling 31539
das 31538
essays 31532
Baldwin 31531
Carnegie 31531
aud@@ 31529
cream 31525
Brook@@ 31518
ram 31498
purple 31494
shi 31490
aine 31489
climbing 31488
lacked 31486
eff@@ 31484
fro@@ 31479
Housing 31477
skir@@ 31472
1834 31471
wering 31469
Yu 31468
sponsorship 31468
Cairo 31467
retire 31462
equality 31457
Dale 31455
xes 31452
stairs 31450
Run@@ 31439
ord 31437
SP 31435
pic 31435
branded 31426
protecting 31425
rankings 31425
warned 31425
unded 31423
industri@@ 31420
lowing 31420
Was@@ 31411
Swe@@ 31410
Raja 31407
errors 31405
Nottingham 31394
controlling 31382
105 31377
Tribune 31373
Thames 31370
yst@@ 31366
aph@@ 31362
entities 31361
Previously 31360
iss 31355
mal 31349
insisted 31347
Cou@@ 31344
fiscal 31340
los@@ 31338
believing 31337
chem@@ 31335
reviewer 31335
recommendations 31328
invaded 31312
lens 31312
ballet 31309
admission 31302
cell@@ 31297
dropping 31295
Episode 31294
hectares 31290
Logan 31287
oks 31286
immune 31285
rian 31284
EM@@ 31282
Mohammad 31281
Radi@@ 31280
asi@@ 31279
29.@@ 31273
comedian 31273
satisfied 31271
acceptance 31270
Large 31268
surgeon 31260
seri@@ 31259
premier 31258
Astr@@ 31257
abor@@ 31256
Programme 31248
ided 31239
Aftermath 31236
pose 31236
Hos@@ 31235
respected 31231
Theory 31229
chest 31225
parishes 31225
contestants 31220
Ernst 31216
lec@@ 31216
terrorism 31216
www.@@ 31216
Rud@@ 31212
som 31207
acceptable 31204
ame@@ 31203
agan 31202
pine 31201
19.@@ 31199
Rock@@ 31199
Charleston 31198
lining 31196
cri@@ 31185
Newman 31184
Xi@@ 31182
lac@@ 31180
Heinrich 31179
mon 31176
spite 31174
hot@@ 31171
Crawford 31168
aws 31156
IR@@ 31155
host@@ 31152
batted 31151
Link 31145
Budapest 31140
professionally 31140
Holocaust 31138
neighborhoods 31136
aur@@ 31132
careers 31126
Romans 31125
deceased 31124
lod@@ 31122
ive 31116
emia 31114
minim@@ 31111
Chiefs 31099
zy@@ 31088
abstract 31087
ij@@ 31084
lic 31078
Colony 31076
IA 31075
uts 31070
enced 31067
ken@@ 31063
starter 31063
volcanic 31057
Ladies 31047
ticism 31044
unity 31041
communic@@ 31024
~ 31021
Metal 31005
isi@@ 30995
sail 30991
facts 30988
28@@ 30983
comedi@@ 30981
Individual 30977
Twin 30970
Burke 30968
metric 30964
rescued 30959
Boy@@ 30957
Nin@@ 30956
ó 30956
Minneapolis 30950
storey 30948
Aberdeen 30947
eal 30945
cons@@ 30943
trap 30938
berger 30936
civic 30928
uli 30917
Chronicle 30914
Insurance 30904
possessed 30903
harbour 30896
electro@@ 30885
Blair 30883
boxer 30880
Choice 30875
proceeds 30871
tram 30871
sible 30867
Combat 30862
leased 30861
FF 30838
spac@@ 30834
Ot@@ 30832
Glass 30824
reflects 30823
eze 30822
Scout 30821
yg@@ 30821
80@@ 30820
Planet 30820
Tex@@ 30820
monitor 30820
overcome 30819
locals 30816
mandatory 30813
500,000 30809
aders 30795
perception 30795
.C. 30790
Doug 30787
Burma 30784
mar 30783
accommodation 30781
Arms 30780
ris@@ 30780
critically 30779
stance 30779
gross 30767
negoti@@ 30765
enacted 30758
gray 30755
milli@@ 30754
MW 30749
smoke 30748
sep@@ 30745
rings 30742
1831 30737
cand@@ 30737
dollar 30729
tune 30729
1820 30728
nurse 30724
seating 30724
chen 30720
bet@@ 30717
enses 30714
interven@@ 30713
mit 30699
sizes 30692
28.@@ 30687
Fel@@ 30685
Neur@@ 30685
tened 30681
bombs 30680
aunt 30678
orship 30677
CN@@ 30674
narrowly 30665
Tel 30663
copyright 30659
nu@@ 30659
Kenny 30654
Chemical 30653
aud 30653
sburg 30636
Ho 30631
Gat@@ 30613
heating 30611
compl@@ 30609
SH 30607
aults 30605
bes 30604
Shadow 30601
fragments 30583
tax@@ 30583
orchestr@@ 30582
Enterprise 30579
climb 30578
barrier 30577
lee 30574
Charter 30571
Wimbledon 30571
loose 30564
mammals 30562
testimony 30560
elderly 30559
instruc@@ 30555
Log@@ 30554
intact 30541
variables 30539
Clara 30537
charted 30536
Task 30531
adopt 30529
conviction 30518
ew 30517
Tat@@ 30514
aught 30510
pent@@ 30506
immigrant 30502
Southampton 30496
True 30496
tains 30487
Bavaria 30486
geometry 30482
nice 30480
toler@@ 30479
crashed 30469
Lebanese 30465
Doubles 30464
Gam@@ 30464
saint 30457
25,000 30454
eves 30445
Panthers 30444
Hero 30442
Cancer 30441
Ou@@ 30441
infected 30440
rell 30435
uncertain 30429
Nixon 30425
Set 30425
quest 30418
Janeiro 30417
reconnaissance 30417
shel@@ 30415
Ja@@ 30414
Nuclear 30413
server 30410
destroyer 30405
Shin@@ 30400
amendment 30400
philosophical 30399
SM 30398
bud@@ 30398
Heat 30397
town@@ 30396
Shore 30390
deer 30386
jur@@ 30383
advantages 30381
hair@@ 30381
Happy 30380
induc@@ 30369
tickets 30362
ather@@ 30349
ender 30346
Kl@@ 30343
witnessed 30342
Palm 30338
ives 30332
detection 30330
rie 30329
pastor 30311
Summit 30307
Ober@@ 30304
SL 30300
objectives 30299
ae@@ 30297
aja 30297
ju 30295
tain@@ 30295
destroying 30287
Walt 30285
Drake 30284
novel@@ 30283
Walsh 30281
Doc@@ 30277
profits 30277
Bern@@ 30273
sculp@@ 30270
mysterious 30266
Uruguay 30264
Speed 30263
Tag 30263
Index 30261
formats 30261
opted 30260
luxury 30257
alisation 30252
resided 30250
themed 30244
undertook 30236
Statistical 30231
Schedule 30230
1833 30228
dome 30225
shan 30220
alien 30219
Educational 30216
remix 30206
eston 30203
sued 30203
fare 30202
memories 30200
techn@@ 30200
preceded 30198
Cass@@ 30196
creek 30193
taining 30188
Dubai 30179
Ps 30177
strings 30175
projected 30172
Krishna 30163
knowing 30162
consecrated 30161
yield 30158
Fu@@ 30155
etal 30152
spelling 30145
Sebastian 30143
embr@@ 30143
Aqu@@ 30140
constituencies 30140
uprising 30130
750 30128
FK 30128
recreation 30128
seeks 30128
derives 30123
broadcaster 30116
accounting 30113
dorsal 30113
fail 30111
reunited 30108
Dylan 30105
maritime 30100
freshman 30099
3000 30096
tee 30090
} 30090
governance 30088
Open@@ 30082
violation 30073
prosecution 30069
Ish@@ 30068
Pun@@ 30068
auto@@ 30068
Northeast 30061
terminated 30061
threatening 30058
tices 30043
complaints 30042
embassy 30042
yd@@ 30042
EC@@ 30040
unlikely 30036
shor@@ 30034
wheat 30034
VA 30028
Well 30028
detected 30027
ng 30025
diagnosis 30021
aint 30020
Jin 30018
sens@@ 30011
Adult 30004
productive 30001
tin@@ 29998
Afghan 29996
aching 29995
bag 29992
speaks 29979
zation 29977
Leadership 29974
Uni@@ 29972
goal@@ 29954
interference 29953
Kad@@ 29952
Victory 29951
ights 29938
aton 29930
Observatory 29926
Poetry 29924
disputes 29923
fol@@ 29917
Kurt 29903
hem@@ 29903
uy@@ 29903
coloured 29901
Grand@@ 29895
mortality 29895
pregnancy 29894
geographic 29893
Path@@ 29891
trails 29891
Rum@@ 29890
eres 29888
laps 29887
lawyers 29887
Beatles 29880
Rak@@ 29880
MPs 29878
ank 29863
trafficking 29860
Streets 29856
acked 29855
patr@@ 29847
Half 29835
slope 29827
Settlement 29822
Vision 29818
skull 29815
DO@@ 29813
bordered 29813
oles 29810
Joel 29809
Cowboys 29805
reasonable 29803
rubber 29800
skating 29795
staying 29795
Joshua 29789
sibility 29785
kan@@ 29783
oval 29782
Pine 29776
speeds 29774
Tasmania 29772
ș@@ 29771
Patriots 29765
skilled 29764
Built 29756
icus 29756
raced 29756
gin 29750
transmitter 29749
isa 29748
tab@@ 29748
7.5 29743
apa 29731
Sicily 29730
pref@@ 29730
Outside 29726
tens 29726
harm 29723
eve 29721
automobile 29718
nursing 29716
Call 29707
kit 29705
inga 29703
Julie 29697
blog 29693
dict@@ 29690
platinum 29687
mechan@@ 29682
rider 29681
Georges 29678
Gospel 29672
fossils 29651
achi 29649
Lov@@ 29645
capability 29644
navig@@ 29644
airfield 29642
bir@@ 29640
Heath 29638
Twenty 29626
Qatar 29621
accompl@@ 29608
postponed 29605
Pirates 29600
cognitive 29600
measurement 29599
Madonna 29597
Treasury 29592
Ghost 29589
N.@@ 29582
exercises 29581
cio 29569
eters 29568
coc@@ 29567
farm@@ 29565
Adrian 29560
screened 29559
carriers 29554
Riv@@ 29548
bac@@ 29541
-- 29538
verb 29535
boom 29534
aux 29533
suff@@ 29529
Take 29527
Appeals 29524
serv@@ 29521
orth@@ 29519
1880s 29518
SI@@ 29515
cooking 29508
wound 29508
accredited 29506
crater 29499
Fiji 29479
linking 29478
Sud@@ 29469
ackers 29463
valve 29461
implic@@ 29458
contents 29456
certification 29455
CF 29452
gameplay 29451
bie 29449
slot 29446
high@@ 29429
provider 29428
Lot@@ 29424
correspondence 29421
Karnataka 29417
ido 29412
RT@@ 29404
Monument 29403
shells 29396
Graduate 29391
attractive 29391
uss@@ 29382
promising 29375
Use 29370
grand@@ 29362
Ox@@ 29347
ume 29347
Creative 29345
Sherman 29344
Expedition 29342
ital 29341
railways 29338
Roy@@ 29331
wicket 29331
gravity 29328
Cow@@ 29326
Anton 29314
Marshal 29313
snake 29312
Edge 29302
Trinidad 29299
collector 29299
wishes 29292
appealed 29289
Solar 29288
rower 29288
70@@ 29287
Rhodes 29285
granite 29281
audi@@ 29280
izes 29278
trainer 29275
med@@ 29273
Leipzig 29264
Terminal 29262
Volume 29261
asses 29261
theaters 29260
asing 29252
enlarged 29248
defunct 29245
Easter 29240
Ferry 29239
encomp@@ 29238
trol@@ 29238
Rifle 29232
Willie 29231
opinions 29226
sick 29224
Animal 29221
ś@@ 29218
Rica 29217
Bach 29216
Batman 29213
Len@@ 29211
inn 29211
Bolivia 29210
explicitly 29209
Mathematics 29207
loaned 29198
Gay 29192
Legend 29191
contacts 29185
asser@@ 29183
illustrations 29177
depend@@ 29176
ect@@ 29176
Vit@@ 29168
generating 29167
editors 29155
lar 29148
Claire 29147
wak@@ 29147
35@@ 29136
Stein@@ 29119
electronics 29112
smallest 29111
enrollment 29100
traces 29100
comment 29095
Om@@ 29094
adher@@ 29090
elin 29087
enclosed 29085
LLC 29083
Pod@@ 29078
fruits 29075
storms 29074
finger 29071
UCLA 29064
iker 29060
yu 29060
chron@@ 29057
inquiry 29056
hostile 29052
machinery 29052
buying 29051
bombers 29048
Sugar 29045
aut@@ 29041
clergy 29038
Downtown 29037
Sanskrit 29036
Fir@@ 29034
Syracuse 29031
cats 29027
mak@@ 29024
drainage 29022
aca 29020
sav@@ 29018
entrepreneur 29016
equity 29013
Chang 29012
mechanics 29012
missionaries 29012
butterfly 29010
amps 29009
Chan 28999
Confederation 28998
UNESCO 28989
endra 28986
Counties 28982
Strait 28979
1,500 28972
Wid@@ 28972
suc@@ 28970
Od@@ 28969
autobiography 28967
polar@@ 28963
dissolution 28959
15,000 28958
modes 28952
Aber@@ 28949
beta 28939
sh 28938
Archives 28931
Merit 28928
shar@@ 28902
Mach@@ 28900
screening 28896
icious 28894
1.4 28890
wished 28886
avoided 28880
Ferguson 28879
Fantasy 28874
descended 28874
termed 28874
uv@@ 28873
teamed 28869
Greene 28863
cent@@ 28860
paths 28857
Fiction 28853
spacecraft 28853
Equ@@ 28846
ITV 28839
Lisbon 28835
Belarus 28828
newer 28824
Greatest 28823
laser 28822
tel 28821
mask 28817
Empress 28814
aters 28814
Associated 28812
equations 28812
Hand@@ 28810
coordinates 28808
arium 28806
Pav@@ 28803
cab@@ 28803
Any 28801
Communication 28801
1825 28797
broader 28797
Gau@@ 28794
paved 28794
missiles 28789
Ner@@ 28787
Given 28786
dose 28785
integr@@ 28785
pet@@ 28783
Jag@@ 28774
eliminate 28773
Gab@@ 28772
VC 28765
cruise 28765
flee 28761
flown 28760
thor@@ 28757
igh 28756
alli 28755
Johns 28750
cho@@ 28749
judgment 28748
Č@@ 28736
Cin@@ 28734
Marathon 28730
Electronic 28729
pron@@ 28725
47@@ 28724
step@@ 28724
casts 28720
Scot@@ 28717
Ibn 28715
auc@@ 28714
PR@@ 28707
Bengali 28699
acute 28695
Tuesday 28693
plain@@ 28692
igns 28691
amy 28686
Rav@@ 28680
marched 28678
erg@@ 28675
stal@@ 28675
likes 28664
shrine 28663
ec 28662
Augustus 28661
rod 28661
servants 28661
struggles 28657
defines 28655
gest@@ 28655
decorative 28653
pend@@ 28653
advisory 28650
voluntary 28650
Cave 28644
comparable 28643
distribut@@ 28643
ought 28642
Jur@@ 28636
Lap@@ 28635
computing 28634
educator 28628
led@@ 28618
Generation 28610
Thomson 28610
Marriage 28605
atin 28603
10.@@ 28601
remin@@ 28601
slo@@ 28597
may@@ 28595
walked 28592
risks 28590
Hardy 28585
licence 28585
pottery 28584
etus 28573
Mohammed 28568
kins 28566
celebrity 28562
Chemistry 28556
subtropical 28552
plantation 28550
translator 28546
chassis 28540
dom@@ 28538
7,000 28530
extrem@@ 28530
GB 28527
Il 28527
assume 28524
stems 28520
utilized 28520
alg@@ 28517
Hampton 28515
fi 28514
itary 28506
Rol@@ 28500
holders 28498
AG@@ 28497
Kerry 28497
aul@@ 28497
SEC 28491
nobility 28476
Tanzania 28468
Body 28461
fur 28460
regulatory 28460
igan 28456
Santo 28455
eper 28453
formations 28453
realistic 28450
a.m. 28447
hiding 28445
Troy 28444
trace 28442
Fe 28430
inception 28424
García 28418
wingspan 28408
Hood 28404
extraordinary 28401
surveillance 28401
quiet 28394
cru@@ 28392
contributor 28388
transform 28386
Madagascar 28385
1821 28382
feld 28382
50th 28374
Telugu 28368
coordinator 28366
retr@@ 28364
mob@@ 28362
secretly 28362
Shield 28348
Webb 28347
complexity 28346
ait 28344
30.@@ 28343
keyboard 28330
PC@@ 28328
Stu@@ 28326
Maharashtra 28323
Roll 28322
similarities 28321
Māori 28319
phases 28319
commanders 28317
Phot@@ 28314
kab@@ 28314
Biology 28309
Tag@@ 28309
tensions 28307
salv@@ 28305
Francesco 28304
adds 28303
Bombay 28302
Oh 28302
isn 28298
evident 28291
worse 28289
strictly 28287
Yuan 28278
Origin 28274
com 28270
ighted 28269
councils 28267
Yar@@ 28266
garage 28263
bowling 28261
tho@@ 28260
decoration 28257
quar@@ 28256
Suffolk 28251
T.@@ 28246
curved 28246
costume 28245
Fen@@ 28243
celebrations 28240
settling 28240
providers 28236
W.@@ 28227
Darwin 28226
ancestors 28223
Bedford 28220
lung 28212
CI 28207
Phase 28204
plaque 28204
translations 28204
determination 28203
200,000 28202
avi 28202
lighter 28187
combining 28179
Dre@@ 28178
nam@@ 28178
ushes 28171
nam 28170
protocol 28169
ono 28165
Floyd 28164
Rush 28164
photograph 28162
ignored 28157
sided 28155
Tus@@ 28152
Sacramento 28145
Honorary 28143
abbreviated 28142
PL@@ 28136
livestock 28136
divine 28132
descendant 28123
instances 28123
couldn 28117
leton 28113
Providence 28108
LO@@ 28098
Winston 28095
foods 28095
Hed@@ 28094
tig@@ 28092
stre@@ 28091
Denis 28089
deb@@ 28087
1828 28085
Bob@@ 28085
Jorge 28082
Aw@@ 28080
UTC 28077
Hawaiian 28068
rou@@ 28065
develops 28064
Kid 28061
Duchy 28057
anthology 28055
measurements 28053
Maxwell 28049
realizes 28048
Da 28046
partisan 28045
guidelines 28037
resign 28036
Below 28033
Partners 28029
Heavyweight 28028
ont@@ 28023
tut@@ 28014
tended 28010
loyalty 28001
struggling 27998
HC 27997
dining 27992
Cumberland 27990
kes 27988
ault 27984
Bruno 27981
Basel 27976
indie 27975
seeded 27973
Sandy 27972
iced 27971
holy 27968
refin@@ 27967
demanding 27964
playwright 27954
bats 27952
Nur@@ 27948
eti 27948
shortened 27948
sent@@ 27938
sers 27937
Toyota 27932
urg@@ 27930
portfolio 27925
listening 27922
Bulldogs 27916
investments 27916
Griffin 27914
tracking 27909
Aer@@ 27908
Crime 27906
inct 27904
swing 27904
filmmaker 27903
Vernon 27901
ehouse 27901
specif@@ 27900
happens 27890
Garcia 27886
TO@@ 27885
nesses 27885
Brad 27883
requests 27881
Sara 27880
Castro 27873
Chennai 27873
epic 27869
archives 27865
na@@ 27864
engaging 27859
trailer 27849
Boris 27846
Papua 27844
alignment 27844
mandate 27844
Eur@@ 27840
Direc@@ 27835
Luther 27827
angry 27825
backup 27824
onom@@ 27819
wen 27818
cies 27816
tasked 27816
Sometimes 27811
peaceful 27811
alar@@ 27808
forts 27808
DE 27803
gul@@ 27803
oun 27803
peaking 27802
excluded 27790
slight 27786
coupled 27785
hanging 27784
unanimous 27783
aided 27779
GT 27777
102 27769
leather 27769
Recreation 27766
schemes 27755
submarines 27753
persuaded 27752
Plus 27747
att 27744
informal 27744
Walk 27743
Highland 27740
Montenegro 27740
Whitney 27739
dancers 27736
aran 27733
Border 27730
Guatemala 27728
rely 27727
tailed 27725
Siege 27724
fe 27724
cataly@@ 27716
Heavy 27713
Pand@@ 27708
highlights 27706
Ō@@ 27701
20s 27698
Synopsis 27697
kel 27696
odd 27695
Tibetan 27691
gan@@ 27691
1810 27690
ethics 27683
expense 27676
Cru@@ 27674
kicked 27673
resides 27673
1.8 27672
goddess 27672
awn 27670
Sant@@ 27668
discre@@ 27667
Rao 27665
quit@@ 27665
α 27664
dialects 27660
floating 27649
capturing 27640
Rein@@ 27635
Reagan 27633
ported 27629
Ming 27627
garnered 27623
Mind 27622
icians 27621
Rh@@ 27617
reun@@ 27616
Northwestern 27615
designers 27613
uka 27613
sandstone 27609
Lynch 27608
hai 27607
spreading 27606
ural 27602
1824 27599
advocacy 27594
bicycle 27588
figur@@ 27588
Laws 27583
fa 27581
traits 27570
bush 27566
Ep@@ 27563
Things 27559
atorial 27559
tubes 27548
vaccine 27548
seemingly 27544
Scots 27542
penalties 27540
1829 27533
Rain@@ 27533
Felix 27531
Midland 27531
pon 27531
Nord@@ 27527
Shak@@ 27523
wartime 27522
Volunteer 27520
sacrifice 27512
strange 27510
tis@@ 27509
Match 27502
Ful@@ 27500
Kashmir 27496
hav@@ 27496
Stories 27478
substantially 27478
flank 27477
Sit@@ 27474
hus@@ 27473
Derek 27471
bigger 27468
impression 27468
swept 27457
Or 27456
websites 27454
hunt 27453
elt 27450
correspondent 27447
8.@@ 27446
oxide 27436
thirds 27436
Norton 27434
Alternative 27428
hurst 27426
gar 27424
systematic 27421
sphere 27420
Pink 27412
Buddha 27411
kat@@ 27411
Mann 27409
burgh 27407
sends 27406
Christ@@ 27404
canceled 27404
transmitted 27402
diplom@@ 27399
BO@@ 27397
PP 27389
wives 27389
Zero 27388
Qing 27387
Tot@@ 27382
oria 27381
dell 27380
spectators 27370
Bour@@ 27364
norm@@ 27363
bon@@ 27362
colleague 27359
usa 27359
phere 27344
enjoy@@ 27338
searching 27337
possess 27332
ental 27327
resol@@ 27325
mild 27323
advances 27319
Sex 27318
aesthetic 27317
enhance 27316
oud 27316
remember 27308
Telegraph 27306
modest 27305
ward@@ 27305
Sofia 27303
Hak@@ 27302
MVP 27286
memor@@ 27286
Compar@@ 27285
IF@@ 27271
affiliation 27269
crest 27269
lip 27266
nave 27262
Editor 27260
viewer 27259
Thunder 27253
effectiveness 27252
B.A. 27249
IF 27248
busy 27248
kal@@ 27248
Gibraltar 27247
Mercedes 27243
ghost 27242
gains 27238
Jav@@ 27235
Morton 27230
grammar 27228
Helena 27226
trapped 27223
Civic 27222
parameters 27221
bad@@ 27218
precise 27216
finalist 27214
Sources 27208
fault 27203
esting 27202
cho 27201
terrestrial 27199
ems 27198
popul@@ 27197
Et@@ 27194
bey 27194
thre@@ 27194
Dragons 27192
0.1 27188
oss 27181
ify 27177
supervised 27177
experiment@@ 27175
moderni@@ 27174
unofficial 27174
Comp@@ 27171
dys@@ 27170
mentor 27169
mes 27159
tent 27156
laun@@ 27154
acids 27153
Cambodia 27152
Worcester 27147
constitute 27147
Hawks 27145
aire 27143
commit 27142
inscriptions 27138
Unfortunately 27136
Power@@ 27129
olling 27129
Stan 27128
Gang@@ 27120
chains 27120
Sporting 27111
progressed 27109
canton 27108
Jacksonville 27103
seasonal 27102
lacking 27100
rd 27097
trustees 27097
addresses 27093
banner 27092
Embassy 27089
Mail 27086
Democracy 27081
SL@@ 27073
quarterfinals 27072
lecture 27065
replied 27065
Canton 27061
Inspector 27061
SD@@ 27054
tively 27054
Gandhi 27052
invention 27048
retaining 27047
Hey@@ 27042
Wei 27040
dur@@ 27040
expenses 27040
sunk 27039
ock@@ 27036
Latvia 27033
dimension 27032
ition 27030
Wool@@ 27023
Excellence 27019
pleasure 27017
ras@@ 27015
revealing 27012
Cran@@ 27009
Blu@@ 27007
tu 27004
Herman 27001
Powers 26996
cloth 26991
Hab@@ 26987
legitimate 26987
Py@@ 26982
chore@@ 26982
Hits 26975
bomber 26970
Rafael 26969
damages 26967
gather 26965
mirror 26964
Achievement 26963
Roberto 26963
fashi@@ 26959
ede 26957
rab@@ 26954
Lau@@ 26952
Dixon 26950
convince 26950
Dag@@ 26949
statues 26948
diamond 26945
striker 26934
sacked 26932
everyday 26927
Kah@@ 26923
illumin@@ 26921
rag@@ 26921
Tunnel 26919
republic 26918
Rams 26915
Thir@@ 26909
tornado 26904
Plains 26897
UP 26895
GP 26886
adic 26883
anas 26881
Ram 26879
Cri@@ 26878
delegate 26878
penetr@@ 26876
Tales 26875
tra@@ 26872
ape 26870
fabric 26866
fluor@@ 26865
securing 26865
nic@@ 26857
Linux 26856
1813 26854
Potter 26853
DR 26845
excessive 26845
46@@ 26844
Battery 26842
SH@@ 26842
steady 26840
Letters 26835
Czechoslovakia 26834
atomic 26831
enabling 26831
Inf@@ 26828
tonnes 26823
ows 26822
Cant@@ 26821
Sas@@ 26819
matched 26809
Netflix 26804
Dil@@ 26799
onn@@ 26797
prolific 26792
whatever 26791
Helsinki 26785
Organisation 26783
proceed 26780
reversed 26780
Sacred 26769
boyfriend 26768
positi@@ 26765
enormous 26764
freshwater 26759
extant 26757
continuation 26755
differential 26754
Chi 26748
Initiative 26743
usi@@ 26740
seller 26738
Flag 26725
Jets 26723
Eli@@ 26714
dust 26714
Norwich 26711
kan 26706
lock@@ 26705
binary 26702
remake 26694
Carey 26688
Adventures 26684
uns 26683
Georgetown 26678
jer@@ 26675
countryside 26674
Cologne 26673
alter@@ 26671
ood 26667
suffer 26666
Adolf 26655
Analysis 26649
Michelle 26647
iders 26643
prizes 26642
1890s 26638
Georg 26638
Gra@@ 26631
Hard 26627
posthumously 26627
adver@@ 26626
tongue 26621
Gardner 26620
differs 26620
planets 26617
displaced 26614
discharge 26608
Bin@@ 26607
Coleman 26607
identifying 26601
geography 26600
Nicolas 26590
complications 26587
ron 26586
mouse 26579
neys 26579
Acc@@ 26568
Davidson 26568
Slovak 26567
Chapman 26565
Casey 26561
hab@@ 26557
routine 26556
Concert 26555
sworn 26553
rocky 26552
skiing 26552
totally 26550
Vatican 26544
humor 26544
tran@@ 26544
Talk 26539
financing 26538
rub@@ 26535
sometime 26535
Berry 26530
Cities 26529
hoping 26528
Rules 26523
iga 26520
Broncos 26519
cyclone 26519
agr@@ 26518
fic@@ 26514
Baden 26509
infl@@ 26508
Chin@@ 26504
armor 26499
CT@@ 26498
welcomed 26497
&apos;an 26496
chronic 26496
Senators 26495
unemployment 26494
quantity 26492
rode 26490
eship 26489
Slav@@ 26487
religions 26482
reformed 26476
Belle 26472
combine 26469
beats 26464
104 26463
Internal 26463
Wings 26460
amino 26459
compatible 26458
Negro 26455
Chang@@ 26452
1826 26449
fri@@ 26449
sixty 26447
Fight 26444
competitor 26443
highlight 26441
strongest 26438
atha 26436
traced 26436
Maya 26432
comput@@ 26427
Roads 26424
senator 26424
Co. 26421
Pau@@ 26418
day@@ 26418
Sheikh 26417
Origins 26414
iture 26411
realm 26406
mond 26403
Dawn 26402
Bolton 26401
attained 26397
wil@@ 26392
Lag@@ 26387
Meyer 26385
demo 26384
Gas 26381
disciplines 26374
Naz@@ 26373
encoded 26373
cc 26370
Cob@@ 26364
Deutsche 26364
Freeman 26361
manif@@ 26360
Ric@@ 26359
Shim@@ 26359
Scor@@ 26353
ER 26351
Honda 26351
drag 26350
Libya 26347
torture 26345
ind 26341
succeeding 26340
ML@@ 26339
torate 26339
modifications 26333
Title 26331
heter@@ 26329
pi 26326
ideology 26325
launching 26324
ë 26323
favored 26321
preference 26321
Tw@@ 26318
SI 26317
lard 26313
Jer@@ 26309
pretty 26309
itis 26307
oversaw 26307
intensive 26306
bin@@ 26305
sprint 26298
investigating 26292
Swan 26291
da@@ 26288
ocks 26284
borg 26283
screenwriter 26282
nerve 26281
ST 26280
detective 26277
Jessica 26276
Marsh 26268
positioned 26267
expertise 26266
presumably 26262
bark 26261
Lis@@ 26258
Soundtrack 26253
fat 26251
blow 26248
ear 26247
sar@@ 26245
Cli@@ 26242
sig@@ 26236
roc@@ 26233
autonomy 26231
age@@ 26227
onds 26226
strain 26224
Pride 26223
É@@ 26220
priv@@ 26210
Winners 26204
imaging 26202
nd@@ 26202
Yet 26198
migrated 26195
Crisis 26193
domains 26191
capped 26185
conn@@ 26183
Rule 26182
cuisine 26178
monarchy 26177
fitness 26174
gic 26171
cone 26168
1818 26162
beck 26158
eder 26156
charitable 26154
Timothy 26152
mood 26143
olo@@ 26142
harsh 26141
commemorate 26125
explaining 26116
Lun@@ 26106
encounters 26104
formesFamily 26104
Ana 26095
upgrade 26092
Lud@@ 26091
consolidated 26090
idity 26090
ín 26089
sank 26088
Lum@@ 26085
Philippe 26081
compens@@ 26081
Johannes 26080
marsh@@ 26080
than@@ 26080
summari@@ 26074
Acting 26073
Jo 26072
radius 26071
communicate 26070
complaint 26067
anywhere 26063
mess@@ 26062
ES 26057
Mar 26054
Underground 26054
aster 26053
48@@ 26045
eson 26039
sentences 26037
violations 26037
maj@@ 26034
organ@@ 26033
Almost 26029
rush 26029
itive 26027
osh@@ 26027
CL@@ 26025
Big@@ 26023
annexed 26023
ocene 26018
Jon@@ 26013
Slavic 26013
lots 26010
melody 26009
Fun@@ 26008
Why 26005
applying 26003
zh@@ 25999
meg@@ 25997
Jal@@ 25996
Hermann 25992
5.5 25991
Lew@@ 25980
applies 25977
harv@@ 25976
33@@ 25974
Tun@@ 25974
autom@@ 25974
ont 25973
HA 25970
jumping 25970
Paramount 25963
cruiser 25963
demolition 25963
plas@@ 25962
linguistic 25955
san 25955
scholarly 25954
Appeal 25948
ony@@ 25944
Baroque 25943
regards 25943
Collegiate 25942
bling 25936
AllMusic 25934
synthes@@ 25932
ilized 25930
oed 25930
UCI 25927
woodland 25923
sovereignty 25922
precipitation 25917
frog 25916
distances 25911
ander@@ 25910
blamed 25910
9.@@ 25909
Bundesliga 25908
Colombian 25908
esque 25904
Riley 25899
finest 25893
icks 25892
Kay 25890
hiatus 25890
cultivated 25886
Strategic 25881
interactive 25877
int 25875
approaching 25868
Saxony 25864
one@@ 25862
Lou 25856
Elec@@ 25854
Fitz@@ 25852
rein@@ 25845
enz@@ 25844
Coc@@ 25840
Europa 25840
viral 25840
450 25837
suspect 25834
uck 25827
eur@@ 25825
11@@ 25824
alising 25824
infant 25821
consulting 25816
uring 25816
ope 25805
otype 25803
hua 25800
accepting 25797
azi 25797
acceler@@ 25792
Lad@@ 25786
esian 25776
coll@@ 25768
Boyd 25767
MIT 25767
Churches 25765
thro@@ 25765
Composition 25764
ogen 25761
1.7 25757
py@@ 25755
teenager 25754
alo 25753
corridor 25752
Stefan 25751
hic 25751
teaches 25749
odi@@ 25747
tag@@ 25737
torn 25737
CM@@ 25734
alan 25731
voy 25728
Rican 25727
illi@@ 25727
Turks 25724
affecting 25722
evacuated 25722
Carson 25721
organs 25721
technological 25720
Stoke 25717
duction 25709
dar 25707
WW@@ 25705
acquain@@ 25704
FIBA 25703
coined 25703
surprised 25703
suited 25700
commentator 25699
employer 25699
Seg@@ 25698
Jenkins 25696
wen@@ 25693
stained 25692
44@@ 25691
Dodgers 25685
sup@@ 25685
Toledo 25677
Ashley 25676
Engineer 25669
occupy 25667
designing 25662
interact 25661
Canberra 25656
Haiti 25655
supposedly 25653
Consequently 25651
abundant 25649
bred 25645
classroom 25641
ime 25640
stopping 25638
cartoon 25634
gifts 25634
Webster 25632
master@@ 25631
fake 25628
adequate 25627
oug@@ 25627
celebrities 25626
freely 25622
propri@@ 25622
Tap@@ 25621
quantities 25620
assemb@@ 25615
motivated 25614
processor 25614
Sig@@ 25607
expired 25603
reflecting 25602
prefer@@ 25600
Jeffrey 25598
chair@@ 25597
Sidney 25596
Pablo 25595
operative 25585
cens@@ 25584
defining 25579
lords 25578
Rebecca 25576
aco 25573
beings 25571
chrom@@ 25571
lery 25569
Nab@@ 25568
Glacier 25564
agar 25561
30th 25551
Eff@@ 25547
Raw@@ 25543
Fire@@ 25541
Visual 25540
pursuing 25540
update 25540
Hot@@ 25539
immun@@ 25539
MHz 25538
ges@@ 25538
publishers 25538
Stan@@ 25536
rit@@ 25536
mixing 25532
heated 25523
acle 25522
Bergen 25521
hou 25519
ecological 25512
resemble 25512
isolation 25510
VI@@ 25507
remnants 25505
10,@@ 25502
functioning 25497
remarked 25494
incorporate 25489
sings 25486
devi@@ 25485
keeps 25485
mothers 25485
legislat@@ 25484
seventeen 25484
cyclist 25482
irregular 25482
Brandon 25479
evich 25476
corporations 25473
refl@@ 25472
ate@@ 25469
ben 25468
Shiva 25466
agon@@ 25463
Janet 25460
Monica 25460
cultivation 25457
uph@@ 25456
beside 25454
Mrs 25451
absor@@ 25447
60@@ 25445
Fletcher 25445
ck@@ 25444
tactical 25444
Alberto 25443
rats 25442
integrity 25441
Lima 25439
nevertheless 25439
knife 25432
constr@@ 25427
Sau@@ 25424
teachings 25424
harmon@@ 25422
Malay 25417
decom@@ 25409
builder 25406
Albion 25403
exemp@@ 25403
fair@@ 25403
mentally 25401
uro 25400
1806 25399
expectations 25398
par 25393
springs 25393
Afterwards 25391
Exeter 25390
Sharon 25388
López 25386
Kirk 25383
interred 25383
suggestion 25382
trademark 25379
Raf@@ 25377
Pick@@ 25376
inda 25371
1801 25365
talented 25364
landscapes 25363
55@@ 25361
Male 25354
reward 25351
stamps 25346
abe 25344
publishes 25340
Back@@ 25337
Madras 25331
SW@@ 25331
carefully 25327
Swift 25320
halls 25318
1.0 25317
toxic 25313
portrayal 25311
65@@ 25310
103 25309
keen 25309
fron@@ 25307
attractions 25304
Truth 25303
thoughts 25303
Drew 25302
feared 25296
Tang@@ 25295
Nordic 25293
albeit 25292
pub 25288
Alexandra 25286
fatal 25286
stun@@ 25286
oh 25281
Very 25279
O.@@ 25275
bias 25272
sanctuary 25264
Xavier 25263
tre 25263
detention 25259
Barn@@ 25258
Browns 25258
ix 25256
Kane 25254
oric 25250
Singer 25249
bis 25249
watershed 25248
soils 25244
riots 25238
ession 25236
even@@ 25236
Sutton 25232
Hannah 25230
Xbox 25229
Ultimate 25226
Hit@@ 25225
Stalin 25222
bun@@ 25221
Europeans 25219
surveys 25219
Patricia 25218
49@@ 25208
vern 25207
mistake 25206
220 25202
Sister 25199
uniforms 25199
filter 25197
Congressional 25196
recommendation 25196
1827 25190
cooling 25189
lengthy 25177
limitations 25174
tends 25174
mix@@ 25171
ilization 25167
contacted 25166
miners 25166
Tok@@ 25165
metro 25164
1816 25159
Beck 25159
ME 25155
auxiliary 25155
DS@@ 25154
nav@@ 25153
Sophie 25149
adventures 25143
compar@@ 25143
contestant 25143
Shane 25142
squadrons 25140
hop@@ 25138
paired 25132
Metacritic 25130
incomplete 25127
Nothing 25125
40,000 25123
24th 25121
laying 25121
18.@@ 25119
awa@@ 25116
evo 25115
allu@@ 25113
hil@@ 25113
tough 25113
Now@@ 25110
ials 25109
Paradise 25108
pump 25108
Motion 25107
Caesar 25106
aze 25105
BR 25104
dozens 25102
Cum@@ 25099
Cecil 25090
arcade 25085
Sund@@ 25077
abr@@ 25077
proph@@ 25075
Wind@@ 25070
evangel@@ 25069
Sally 25066
pension 25066
tural 25066
rehear@@ 25065
emphasized 25060
Homer 25058
dynamics 25058
tac@@ 25058
uan 25057
appropri@@ 25056
dos 25052
dist@@ 25051
111 25050
Basic 25050
Chad 25050
adian 25050
Evening 25049
courage 25037
detect 25035
Jackie 25030
Sixth 25029
Sham@@ 25026
resid@@ 25026
rati@@ 25025
Hin@@ 25024
Past 25020
contrary 25018
River@@ 25017
impacts 25017
ICC 25012
dat@@ 25012
Kay@@ 25007
anne 25006
Zagreb 25005
sacks 24999
fails 24995
Lac@@ 24994
2.2 24992
complained 24992
scrip@@ 24992
Clare 24991
Dum@@ 24989
eria 24986
activism 24984
exceptional 24978
rej@@ 24977
regained 24976
Wak@@ 24973
sitcom 24967
efully 24964
aha 24963
round@@ 24961
Ministers 24958
console 24957
auto 24954
kit@@ 24954
ligh@@ 24953
Ibrahim 24950
stad 24949
materi@@ 24945
dam@@ 24944
biom@@ 24942
silk 24939
cran@@ 24936
Shan@@ 24935
Gall@@ 24932
TE 24932
facto 24932
determining 24931
overtime 24931
ric 24927
asserted 24921
egan 24917
Lok 24916
dreams 24913
gam@@ 24913
Rog@@ 24912
alla 24912
oko 24910
Paper 24907
MI 24905
tigh@@ 24904
Islam@@ 24902
Ale@@ 24901
Sanders 24900
Sap@@ 24900
Rally 24898
Kak@@ 24896
teenage 24895
unda 24895
gor@@ 24894
obic 24894
demonstrations 24891
amin@@ 24888
Day@@ 24887
Trans 24886
Fields 24884
Coaching 24883
prevention 24879
sexually 24875
Dim@@ 24871
anticipated 24866
Away 24864
peaks 24863
Joyce 24860
dible 24860
teammates 24855
š 24853
generic 24851
deity 24848
idal 24848
baptis@@ 24846
pound 24842
Raion 24840
doubled 24838
Ther@@ 24831
Russians 24824
shr@@ 24821
FO@@ 24818
Progress 24812
Products 24808
eleventh 24806
lip@@ 24800
Aviv 24799
Dav@@ 24795
108 24794
attributes 24793
ank@@ 24789
encouraging 24786
resur@@ 24786
villagers 24786
Roland 24785
aligned 24773
rays 24773
weakened 24772
Alpine 24770
otherapy 24768
Wer@@ 24765
comeback 24764
implies 24762
brilliant 24761
bos@@ 24757
humanitarian 24755
Ever@@ 24751
plasma 24745
Card 24743
publicity 24741
ecology 24738
Torres 24737
rid 24735
González 24730
egu@@ 24730
Geoffrey 24729
gall@@ 24724
racism 24724
1819 24718
PE@@ 24714
1803 24713
utions 24711
Cloud 24705
natur@@ 24704
Las@@ 24702
distingu@@ 24698
fielder 24696
Monastery 24693
Investment 24690
topo@@ 24682
FCC 24678
isha 24675
ectivity 24674
ring@@ 24674
Nazis 24670
akers 24670
metals 24670
BP 24665
repeat 24664
counsel 24663
tendency 24648
eto 24646
persist@@ 24645
liberation 24644
now@@ 24638
Wonder 24633
Joy 24628
tico 24626
gir@@ 24625
comfort 24620
legi@@ 24617
twelfth 24617
Allies 24615
imagery 24615
Carr 24614
GDP 24614
Key@@ 24613
prov@@ 24607
Katherine 24605
discography 24604
preced@@ 24604
TR@@ 24601
memoir 24600
rom@@ 24599
maiden 24597
Percy 24590
asis 24587
Hearts 24586
decisive 24586
115 24584
rey 24583
armament 24582
1822 24578
Wis@@ 24577
Worth 24577
Yak@@ 24573
specially 24573
fun@@ 24572
bon 24571
Berg@@ 24569
conduc@@ 24569
Gel@@ 24565
RBI 24564
eries 24564
yar@@ 24557
Facilities 24555
Brad@@ 24552
nus 24546
instructed 24542
momentum 24535
iser 24533
televised 24532
resp@@ 24530
blade 24529
rushed 24529
Normandy 24525
sailors 24524
0.3 24523
ector 24521
5000 24515
chap@@ 24515
Rotten 24513
ambitious 24513
competes 24511
brid@@ 24506
fever 24492
Gun 24490
plac@@ 24488
protective 24487
undergo 24483
Rather 24481
Iz@@ 24472
hir 24470
esman 24469
Drug 24468
Ž@@ 24468
Conservatory 24467
conce@@ 24461
bond@@ 24458
tide 24457
Vill@@ 24456
Vikings 24450
sufficiently 24440
polar 24439
spare 24438
Erie 24437
abandon 24437
odes 24429
Cros@@ 24428
Uttar 24428
Malayalam 24427
clause 24426
divide 24426
BL 24422
lu 24422
archive 24419
Got 24415
public@@ 24415
xy 24414
direc@@ 24411
Kav@@ 24408
ratic 24408
Randy 24404
tiny 24404
las@@ 24401
Holdings 24400
6.5 24399
Conrad 24399
draf@@ 24392
frontier 24386
outcomes 24385
Nash 24383
Heroes 24381
L.@@ 24381
McC@@ 24381
lain 24381
aver 24378
Auto 24375
Reds 24368
ISO 24367
vor@@ 24367
idi 24366
36@@ 24365
shapes 24364
wages 24363
eem 24361
unified 24361
anning 24360
offshore 24357
gri@@ 24354
Hastings 24353
Winchester 24350
Yam@@ 24350
contradic@@ 24344
whe@@ 24344
joy 24336
Historically 24333
Kyiv 24333
106 24332
tales 24326
Beautiful 24324
Savage 24321
Dundee 24320
½ 24319
Pool 24318
β 24318
DB 24316
nervous 24314
Midlands 24310
omo 24307
Adventure 24304
achment 24303
feder@@ 24303
gel@@ 24297
hurt 24294
Chor@@ 24292
emphas@@ 24292
tings 24288
Erik 24283
Ferr@@ 24279
abbey 24276
graves 24276
rational 24271
shoots 24270
alian 24269
solic@@ 24268
1823 24266
oga 24263
Benedict 24256
read@@ 24255
submit 24253
Seventh 24252
engrav@@ 24250
telec@@ 24250
Cotton 24247
neo 24245
switching 24245
Di 24243
forum 24236
Mosque 24235
Philharmonic 24223
dedication 24221
Pasha 24216
Hartford 24213
estan 24213
Icelandic 24212
Tunisia 24212
collision 24209
AV@@ 24207
Valencia 24204
neutr@@ 24202
lions 24198
home@@ 24197
algebra 24196
yon 24191
MB 24188
grouped 24188
aea 24185
inspection 24185
stra@@ 24185
other@@ 24184
Boh@@ 24183
Declaration 24182
Nielsen 24182
financed 24181
trunk 24181
tos 24172
feedback 24171
Yard 24170
Tank 24169
Traditional 24165
amine 24165
UC@@ 24161
Galaxy 24160
assessed 24157
choosing 24157
crystal 24155
1809 24153
It@@ 24153
symbolic 24152
strengthen 24151
Penn@@ 24147
Mohamed 24145
escal@@ 24141
Constantine 24138
ingo 24131
Munster 24127
tract 24127
finishes 24126
kon@@ 24126
109 24124
Pierce 24121
quet 24120
anced 24117
narrator 24113
carto@@ 24112
outing 24111
EL@@ 24106
HL 24104
Bau@@ 24103
econom@@ 24100
rod@@ 24099
ă 24099
destinations 24091
gubernatorial 24090
Macedonian 24087
rehabilitation 24086
Android 24084
myth 24081
Angola 24080
sophomore 24079
thinks 24077
Hyde 24075
tooth 24074
Abdullah 24071
EA 24068
curves 24067
monarch 24067
Tucker 24066
plains 24063
prob@@ 24062
Ard@@ 24059
Trent 24059
apprentic@@ 24059
Gloucester 24058
loses 24056
triangle 24056
emotions 24054
subdivision 24053
Aur@@ 24052
Pier@@ 24046
wal 24045
Raw 24044
Dro@@ 24041
ACC 24037
donation 24037
module 24037
Sing@@ 24031
nan@@ 24029
AU 24026
brass 24023
ares 24020
synchron@@ 24019
23rd 24018
dealer 24012
eph@@ 24012
Horn 24011
pinn@@ 24006
34@@ 24004
Mixed 24004
beaches 24004
analog 24001
Art@@ 23999
marker 23999
Judaism 23986
pioneering 23985
flora 23983
CBC 23976
112 23972
postal 23970
textile 23969
Wong 23967
22nd 23965
Quinn 23965
1,4@@ 23962
Cali@@ 23961
Hyderabad 23960
ogenic 23952
Face 23949
locate 23946
counting 23945
intern@@ 23945
speculation 23945
Hassan 23943
wounds 23942
ecclesiastical 23941
employers 23940
phil@@ 23940
lor@@ 23938
excluding 23933
guitars 23933
enta 23932
Lub@@ 23929
balanced 23929
detained 23929
revenues 23928
hypo@@ 23926
Bhar@@ 23924
Roma 23924
apple 23922
ceremonial 23917
Cao 23916
observ@@ 23915
Islander 23913
Make 23913
deeper 23906
Tin@@ 23897
Companies 23894
0.2 23893
Cath@@ 23889
genome 23889
rail@@ 23888
spirits 23887
PN@@ 23885
mud 23884
tiles 23881
CL 23880
Strong 23878
Zi@@ 23877
fix 23877
Cherry 23874
istan 23872
rim@@ 23869
turn@@ 23869
virtu@@ 23869
Christine 23868
personalities 23868
solved 23865
accessed 23861
aving 23861
isms 23858
sham 23857
esi 23856
modeling 23855
Neo 23853
SN@@ 23853
ernmost 23849
specul@@ 23847
matching 23846
inher@@ 23845
Agnes 23844
Dresden 23843
Newark 23839
Dru@@ 23836
Primera 23834
Vor@@ 23834
discussing 23833
incorporating 23833
Rey 23832
imental 23832
Leone 23830
cot 23821
subs@@ 23821
recur@@ 23820
rus@@ 23816
eps 23813
ron@@ 23807
frequencies 23806
monk 23806
Andhra 23805
Hav@@ 23802
osity 23800
Koh@@ 23793
negotiated 23790
cliff 23785
cheese 23784
eley 23784
receptors 23784
breakthrough 23780
Rudolf 23778
sworth 23778
uru 23776
wireless 23772
consumed 23769
Coal 23760
resembles 23760
atum 23757
pathway 23755
exceptions 23753
Clyde 23751
ancestor 23750
Flora 23749
intelligent 23749
Auburn 23747
osaurus 23744
expend@@ 23742
ult 23737
Applied 23736
Ethiopian 23734
galleries 23734
GO@@ 23732
WH@@ 23729
ān 23728
judged 23727
Arabian 23723
iman 23723
Kolkata 23721
palm 23721
Have 23720
inclin@@ 23719
loves 23719
75@@ 23718
lineage 23715
Know 23714
stead 23712
sion@@ 23711
temper@@ 23710
Performing 23708
Middlesex 23707
HP 23702
relates 23699
Antwerp 23696
Venezuelan 23695
wara 23694
Carr@@ 23690
counterpart 23690
fortified 23689
Kid@@ 23688
labeled 23686
combines 23684
consequently 23680
Hell@@ 23679
asset 23679
Officers 23677
Kho@@ 23676
HBO 23674
yearly 23673
Kut@@ 23669
Coventry 23663
Oriental 23662
snails 23662
Emirates 23656
anonymous 23656
ishment 23650
GS 23639
Rahman 23639
mist@@ 23639
GT@@ 23638
cellular 23637
ix@@ 23636
Thur@@ 23633
Dawson 23632
Mile 23629
podcast 23628
disability 23626
pupil 23626
1793 23625
ca@@ 23625
1817 23624
Ferrari 23624
executives 23624
Omaha 23623
ologic 23620
Yemen 23617
ision 23617
lyn 23617
additions 23616
amended 23614
1808 23612
Dou@@ 23611
resolve 23610
clusters 23600
commercials 23597
Mt 23595
Coun@@ 23593
Motors 23591
gaming 23590
valleys 23590
found@@ 23587
cinemat@@ 23585
surgical 23585
body@@ 23582
disrup@@ 23582
aspir@@ 23580
atoms 23579
ensuing 23579
Patterson 23578
adviser 23576
realize 23576
analyst 23575
ilo 23569
90@@ 23568
ishi 23562
ven 23562
Kus@@ 23561
Duchess 23558
grav@@ 23556
porch 23555
gem@@ 23549
encompasses 23547
Kenn@@ 23544
Voc@@ 23544
cli@@ 23544
classrooms 23543
Non@@ 23542
gee 23542
asteroid 23539
collaborative 23539
Calcutta 23537
visu@@ 23536
escent 23535
exec@@ 23535
nucleus 23531
dances 23530
A1 23527
oshi 23526
Hand 23522
Reverend 23520
handful 23520
Tracy 23519
relied 23517
Clo@@ 23515
Classification 23514
relieved 23512
flam@@ 23511
Frank@@ 23506
Gang 23506
Bass 23505
Activities 23496
wreck 23492
surve@@ 23490
embedded 23488
ologies 23487
Pra@@ 23477
incorporates 23477
resistant 23473
deliberately 23470
ef 23467
chip 23464
Clinical 23462
ign 23460
marriages 23460
Too 23459
cannon 23454
tallest 23452
framed 23451
Lorenzo 23450
Jesuit 23447
Giuseppe 23446
aan 23446
itors 23445
Tax 23444
condem@@ 23439
eler 23434
Superman 23433
bag@@ 23430
oming 23430
declining 23429
ald 23428
discrimin@@ 23427
Inner 23422
rah 23422
Psychology 23419
ulus 23417
confluence 23414
Boat 23409
Parade 23409
Titans 23409
feminine 23405
chemicals 23402
insufficient 23401
confined 23397
purchasing 23397
Zar@@ 23396
Nad@@ 23391
Der 23389
uti@@ 23388
alpha 23387
amen 23387
Brid@@ 23380
Chambers 23377
WR 23377
employ 23375
irrigation 23373
MT@@ 23364
reform@@ 23362
andi 23361
commissions 23361
chancellor 23360
aye 23359
nationals 23358
treatments 23355
Aut@@ 23354
choices 23352
tionally 23351
mim@@ 23350
bull 23349
emergence 23345
purely 23344
eld 23342
rever@@ 23342
financially 23339
accusations 23338
bays 23336
Antoine 23335
oso 23334
reduces 23333
Osaka 23326
atten@@ 23325
cane 23323
swimmer 23322
ody 23318
Lin 23314
Tow@@ 23314
Brit@@ 23313
Arlington 23312
Kuwait 23308
aulted 23308
Theological 23306
abol@@ 23304
SF 23303
answered 23300
radic@@ 23299
Bang 23294
fiber 23292
alpine 23290
rendering 23287
smoking 23285
darker 23283
mas 23283
Hul@@ 23281
vertebr@@ 23280
bes@@ 23277
pec@@ 23272
rector 23272
Rising 23271
uri@@ 23267
zu 23262
get@@ 23261
enables 23260
whereby 23259
vent@@ 23257
GP@@ 23251
Miz@@ 23251
Hour 23249
Angela 23245
Ut@@ 23245
oda 23243
Cerambycidae 23234
Plain 23225
Hip 23223
atric 23222
anch@@ 23220
Venus 23218
vs 23218
tumor 23216
1807 23214
Oak@@ 23214
polls 23214
Leigh 23211
iTunes 23211
atop 23206
Rich@@ 23203
organis@@ 23202
barely 23201
shoes 23200
Koz@@ 23196
pursu@@ 23195
Ham 23194
Eleanor 23193
exploring 23192
170 23190
var 23188
Cast@@ 23186
43@@ 23185
Slam 23184
consum@@ 23184
shrub 23184
itation 23181
dioc@@ 23180
dal 23179
decommissioned 23179
sovereign 23171
Roh@@ 23170
ellip@@ 23168
onset 23168
email 23165
downstream 23163
tech 23161
ée 23161
Acts 23160
mapping 23157
Greeks 23155
lifting 23154
Dudley 23153
dial 23153
Sinclair 23151
eaten 23151
concentrations 23149
smith 23145
optional 23143
differenti@@ 23138
subjected 23138
cit@@ 23137
chor@@ 23134
explosive 23133
1794 23127
Wave 23127
1798 23126
Willis 23126
1795 23125
barn 23125
fru@@ 23123
Na 23117
sealed 23115
bled 23114
Arn@@ 23109
freed 23109
Irving 23107
Lang 23106
Matthews 23103
privacy 23103
León 23101
deciding 23100
mans 23098
art@@ 23096
welcome 23093
38@@ 23092
Opposition 23091
posting 23091
rel 23088
Viscount 23087
sheets 23082
flash 23081
1804 23080
Lon@@ 23078
ilia 23078
bypass 23076
lon 23075
CNN 23071
drops 23069
pressing 23069
1870s 23062
Scouts 23059
pocket 23058
trends 23055
import 23053
besides 23049
sanctioned 23049
maid 23046
Arm@@ 23045
Braves 23037
coinc@@ 23036
conform@@ 23036
Yi 23032
tat@@ 23029
Lambert 23028
eans 23027
Sub 23026
Teachers 23026
nica 23023
vault 23020
pointing 23018
Parkway 23016
1805 23014
eur 23012
readily 23011
Credit 23003
esan 23001
Bryant 22997
Reservoir 22997
ampton 22997
athy 22997
painters 22993
McCarthy 22992
creatures 22992
angles 22990
2010s 22985
Brady 22984
tarian 22983
Quarter 22981
Wanderers 22978
bet 22975
endeav@@ 22975
ethical 22974
Coll@@ 22973
seated 22972
pseudonym 22969
accepts 22968
s.@@ 22968
Mongolia 22966
1,5@@ 22962
Restoration 22958
polo 22958
guaranteed 22957
indi@@ 22956
meal 22955
ensuring 22949
derivative 22946
temp@@ 22945
1811 22944
taxonom@@ 22944
Alder@@ 22943
Variety 22943
Gujarat 22939
diploma 22939
averaging 22937
box@@ 22937
plic@@ 22937
itely 22932
Screen 22927
commands 22926
Points 22925
della 22924
Veterans 22919
Eva 22918
electorate 22918
Augusta 22914
Wad@@ 22914
mollusk 22914
mang@@ 22913
parti@@ 22913
cum@@ 22912
trans 22912
vowel 22898
Prairie 22897
para 22893
fly@@ 22892
eda 22889
Bermuda 22882
councillors 22877
emi 22875
Autonomous 22874
collectively 22871
masses 22871
rented 22871
tones 22869
Pig@@ 22868
AAA 22866
Porto 22863
SK 22857
Wade 22857
mutations 22857
inmates 22856
Tibet 22851
ograph 22847
Lopez 22843
isted 22843
triangular 22843
Italia 22840
chase 22839
tempo 22837
Cove 22836
Fashion 22836
rope 22834
repertoire 22830
Sle@@ 22829
advocates 22826
Shirley 22825
Rang@@ 22823
specializing 22823
evolutionary 22818
congr@@ 22816
Pearson 22815
128 22814
Tehran 22813
dres@@ 22813
obj@@ 22811
declaring 22809
feat 22801
bath@@ 22799
participant 22797
ican 22793
Gates 22791
mb@@ 22786
shadow 22784
Iv@@ 22783
Brigadier 22782
bu 22780
enes 22780
lug@@ 22779
Clement 22775
turing 22775
iva 22774
eb 22773
destroyers 22770
holdings 22770
Lif@@ 22769
dissertation 22766
Lindsay 22765
ballad 22764
sponsors 22763
Bangkok 22760
conventions 22760
void 22756
Kok@@ 22754
lighthouse 22754
portal 22752
tunnels 22750
gian 22749
Atlas 22748
survives 22746
av 22744
distor@@ 22741
inging 22740
anthem 22732
Flash 22731
Shor@@ 22731
reflection 22727
synthetic 22726
Schmidt 22724
Word 22720
ago@@ 22719
shaw 22718
Eden 22717
athi 22717
Lt. 22715
homeless 22715
Folk 22712
sleeping 22712
Cameroon 22708
&apos;Connor 22707
Resolution 22707
acquiring 22707
KO@@ 22700
sever@@ 22700
Basque 22699
Beh@@ 22699
SU 22699
Flu@@ 22697
displacement 22695
throat 22691
Eyes 22685
primitive 22680
Gov@@ 22679
erosion 22679
Trevor 22671
successes 22667
pump@@ 22663
observe 22660
Promotion 22658
roof@@ 22658
Patr@@ 22656
VFL 22654
Era 22652
nucle@@ 22652
Spr@@ 22650
Tonight 22647
Yas@@ 22647
Dub@@ 22646
Beauty 22645
Johan 22645
sel 22645
marathon 22643
itan 22639
PGA 22638
Filming 22637
uh@@ 22637
spanning 22635
Marina 22634
lon@@ 22629
alise 22627
employs 22622
fish@@ 22620
faithful 22618
occupies 22609
prior@@ 22607
spin@@ 22603
Motor@@ 22601
Hop 22599
itarian 22596
spec@@ 22591
cad@@ 22589
2.3 22588
App@@ 22584
lunar 22584
peac@@ 22584
lap@@ 22583
sch 22583
alter 22581
coun@@ 22581
glu@@ 22579
rup@@ 22577
Bulls 22572
Bh@@ 22570
forewings 22569
kad@@ 22566
Pitt 22565
stripped 22565
Mom@@ 22564
Boxing 22563
eke 22561
Indeed 22560
hung 22559
tment 22559
rot 22558
2.1 22556
recall 22555
RCA 22553
Tomatoes 22553
IN 22549
mice 22548
atics 22544
circa 22540
EN@@ 22539
Elite 22539
Def@@ 22532
notation 22530
after@@ 22529
heart@@ 22528
sketch 22527
breakdown 22523
Innovation 22519
Jin@@ 22515
apur 22515
branding 22513
Tong@@ 22512
esia 22510
CM 22509
complement 22509
Zoo 22506
Peterson 22502
Well@@ 22499
lio 22499
Standing 22494
counsel@@ 22493
Ble@@ 22490
s. 22489
Math@@ 22487
Brun@@ 22485
Phillip 22483
inflation 22483
row@@ 22483
cryp@@ 22482
Thr@@ 22481
eros 22475
debris 22473
edr@@ 22471
loosely 22470
constitu@@ 22468
atro@@ 22464
halt 22464
Cherokee 22461
JR 22461
Aston 22460
borrowed 22460
fascin@@ 22460
pond 22459
granddaughter 22451
cooperative 22449
sbury 22449
catalogue 22446
lightweight 22446
adap@@ 22439
Sti@@ 22437
spy 22435
uki 22432
default 22431
sophisticated 22430
2.4 22427
Challenger 22427
Ori@@ 22426
evid@@ 22423
flexible 22419
separ@@ 22418
traders 22418
trim 22414
main@@ 22413
afford 22408
SR@@ 22407
terly 22407
Universities 22406
Alps 22401
1790 22400
Mickey 22400
Shi 22399
Names 22398
pag@@ 22397
sexuality 22395
Hind@@ 22394
Rig@@ 22394
Cent@@ 22392
135 22383
wald 22383
installations 22382
Bid@@ 22378
solving 22371
accommod@@ 22370
ather 22370
refugee 22369
hang 22365
dramatically 22362
Clarence 22360
gly@@ 22359
explicit 22356
localities 22355
Barton 22354
Mining 22352
continuity 22350
dairy 22347
ković 22341
voc@@ 22339
Meeting 22338
Supporting 22337
nation@@ 22337
Hence 22333
compromise 22333
ista 22332
107 22331
Raj 22331
Pow@@ 22330
consul@@ 22327
westward 22326
pac@@ 22325
Set@@ 22324
Investigation 22321
Beat 22320
god@@ 22316
migrants 22316
Carlton 22314
Countess 22314
mud@@ 22314
bra@@ 22312
prevalent 22312
governors 22308
colli@@ 22307
summers 22306
Hou@@ 22302
dge 22300
ool 22298
Net 22293
Carlisle 22288
sim@@ 22285
ū 22284
statute 22282
PP@@ 22280
rituals 22278
Known 22276
councillor 22276
Rand@@ 22275
ère 22275
utt@@ 22270
Clayton 22263
SD 22263
57@@ 22261
breach 22260
Feder@@ 22259
dispos@@ 22255
Anniversary 22250
igg@@ 22250
ames 22248
Spar@@ 22247
presidents 22245
hid 22244
Du 22238
Nah@@ 22238
Moor@@ 22235
consult@@ 22230
tian 22228
Kis@@ 22227
Barack 22225
Kre@@ 22223
Neal 22219
interval 22219
motto 22219
excavations 22217
modern@@ 22217
Benson 22216
Mad 22215
lot@@ 22211
Peruvian 22210
delays 22210
rifles 22210
child@@ 22207
explo@@ 22206
bourne 22205
theological 22203
deacon 22201
aned 22196
magical 22196
Salisbury 22194
enterprises 22192
nonprofit 22189
threshold 22188
nationalism 22187
edi 22186
geon 22186
itic 22185
campuses 22182
hik@@ 22182
carp@@ 22179
suffrage 22172
nationality 22167
relax@@ 22167
Fro@@ 22164
esi@@ 22164
opsis 22164
orch@@ 22162
elia 22159
repaired 22159
eas 22158
foster 22152
transcription 22151
LC 22150
institutional 22148
Baghdad 22147
manship 22147
mutation 22139
recruit 22136
Barrett 22135
fir@@ 22131
Conservatives 22130
vegetables 22129
steering 22127
NT@@ 22125
Hydro@@ 22124
inheritance 22123
1802 22121
Cash 22118
Paraguay 22117
wanting 22117
alphabet 22113
Carpenter 22108
merge 22108
Carmen 22107
Unity 22107
frac@@ 22107
dings 22104
paternal 22104
lear@@ 22098
algorithms 22097
Charity 22093
guy 22093
riot 22091
Rou@@ 22090
defenders 22088
submission 22078
compliance 22073
iconic 22071
documentation 22069
costumes 22068
1792 22067
spans 22067
Gaza 22065
yon@@ 22064
bye 22063
http 22063
listen 22063
orbital 22063
Sergeant 22062
medalist 22061
columnist 22057
Klein 22056
Volleyball 22055
isi 22055
acknowled@@ 22054
Muk@@ 22050
aquatic 22050
Hale 22047
Smart 22046
ą@@ 22046
affects 22043
ę@@ 22042
associates 22031
feas@@ 22030
Genesis 22029
Vol 22028
Fat@@ 22025
transfers 22023
Jerome 22020
infections 22020
moist 22018
oons 22016
Giant 22014
clinic 22014
migr@@ 22014
catcher 22010
scrapped 22008
canon 22005
vacuum 22000
Augustine 21998
comb 21997
Him@@ 21996
flooded 21996
Cut@@ 21995
illustr@@ 21995
pageant 21993
Cho@@ 21992
gig@@ 21992
Archdiocese 21989
Four@@ 21989
Semi 21987
Cubs 21980
Bec@@ 21978
unexpected 21974
numbering 21973
Reformed 21971
unnamed 21968
descriptions 21966
Mikhail 21965
tri 21964
contractor 21962
mathematician 21959
Pratt 21958
rim 21955
vacc@@ 21951
ini@@ 21943
rad@@ 21941
underwater 21938
Warwick 21935
Airways 21934
Waterloo 21933
Squad 21930
Leon@@ 21927
screens 21925
Often 21924
helicopters 21922
Features 21919
depriv@@ 21919
Murder 21918
ML 21917
och 21917
tist 21915
trilogy 21913
Comic 21911
Lab 21911
burst 21909
Cand@@ 21908
Din 21908
proportional 21908
conscious 21907
ahi 21906
inventor 21906
Valentine 21905
expressing 21905
Normal 21904
transferring 21904
coordinate 21903
economist 21903
princess 21898
tips 21898
igned 21897
royal@@ 21896
atmospheric 21895
safely 21894
NS 21891
uss 21891
preparations 21890
Form@@ 21888
testified 21884
lacks 21883
Beth 21881
prose 21881
Elder 21879
phenomena 21879
ED 21877
inspir@@ 21874
naked 21872
persecution 21871
theatres 21867
Andreas 21866
Meh@@ 21863
CB 21862
nat@@ 21862
Hansen 21860
ET 21858
superintendent 21857
yak@@ 21857
Blu 21852
overwhel@@ 21852
owl 21851
Foot 21847
shooter 21846
Rodríguez 21844
22@@ 21843
gambling 21838
hierarchy 21838
wholly 21838
Germanic 21837
ox 21837
amm@@ 21834
promotes 21834
Piano 21832
wagon 21832
delivering 21828
Gru@@ 21823
reside 21822
methyl@@ 21821
inski 21818
ado@@ 21817
arches 21817
Ipswich 21816
Bach@@ 21813
Christie 21813
Cunningham 21813
humid 21812
relate 21812
duet 21808
Amanda 21806
Pain@@ 21805
Jupiter 21804
ighter 21800
ente 21796
saves 21796
ink@@ 21795
transaction 21793
Antarctica 21790
USC 21788
part@@ 21788
pistol 21784
rejoined 21773
Stop 21771
itz@@ 21762
excavated 21759
1789 21757
stu@@ 21756
timing 21755
dioxide 21754
respond@@ 21751
RI 21749
schooling 21747
Omar 21744
uncommon 21741
Cedar 21740
ingredients 21735
awak@@ 21734
ias 21734
MLS 21730
mascot 21730
strengthened 21730
Elisabeth 21728
batsman 21728
Alfonso 21727
exports 21727
fauna 21727
.S. 21726
Beverly 21726
Engine 21726
lesbian 21723
Pall@@ 21721
Cham@@ 21716
coordinated 21709
Was 21704
gran@@ 21703
Riverside 21696
addressing 21696
eks 21696
Gen. 21695
holidays 21695
virtue 21695
gia 21694
healing 21690
Corn@@ 21687
wrestlers 21679
erman 21676
Thirty 21675
warriors 21674
dive 21673
demonstrating 21670
Samoa 21668
cord 21666
pap@@ 21664
Ranch 21663
occupying 21663
alle@@ 21661
Web@@ 21659
Lil@@ 21657
SO 21657
Bo 21651
psychiatr@@ 21645
Trial 21637
appointments 21637
evacuation 21635
percussion 21633
ango 21629
arc@@ 21627
Rebellion 21625
Moss 21624
underway 21624
Isabella 21620
sni@@ 21614
expon@@ 21608
singular 21608
Shire 21607
agi 21603
Wild@@ 21602
RN@@ 21598
bis@@ 21596
Gustav 21592
Flanders 21589
Gloria 21585
Re 21585
minorities 21583
outskirts 21580
edo 21576
imit@@ 21576
Howe 21574
Catalan 21572
ionally 21570
EP@@ 21568
ogr@@ 21566
scripts 21565
aru 21564
Marx 21563
tric@@ 21563
Lankan 21559
sis 21558
modification 21551
ret 21548
blast 21545
targeting 21542
Whe@@ 21541
triggered 21540
injection 21539
Technologies 21536
eponymous 21535
motorway 21529
aku 21528
plateau 21528
eagle 21526
ario 21525
robin 21525
Jenny 21524
explores 21521
remarks 21520
molecule 21519
smart 21518
reorganized 21514
Leopold 21507
Weber 21507
Gazette 21506
Fam@@ 21501
excellence 21501
gable 21501
Kiss 21500
Song@@ 21498
clim@@ 21495
kara 21495
Akh@@ 21494
Steelers 21493
feud 21493
thetic 21492
floods 21491
antenna 21490
oka 21490
announcing 21489
physicist 21488
steal 21485
Cheshire 21484
Khal@@ 21483
fuselage 21475
partnerships 21472
cleaning 21469
convent 21469
Kaw@@ 21468
submerged 21459
negotiate 21458
phosphate 21456
olog@@ 21455
basal 21454
Id@@ 21450
1796 21449
practicing 21445
wrong@@ 21440
manned 21439
Wesley 21438
forested 21434
ushing 21434
tionary 21430
Peters 21429
collabor@@ 21429
Shannon 21424
Belt 21423
nit@@ 21420
Coastal 21417
Joey 21414
eded 21414
Tan 21409
factions 21409
Das 21408
ando 21406
color@@ 21405
oath 21405
unding 21405
ʻ@@ 21401
expan@@ 21397
nitrogen 21397
HR 21395
listeners 21395
expos@@ 21394
juvenile 21389
dominance 21386
transactions 21385
assuming 21384
broadly 21382
exploitation 21377
acies 21374
Latvian 21373
bour@@ 21373
mamm@@ 21373
vent 21365
Lip@@ 21359
chin 21358
monster 21357
vered 21354
pillars 21349
Alb@@ 21345
hara 21342
GC 21337
finalists 21336
operas 21336
activ@@ 21335
chances 21335
dered 21335
ranch 21332
Low@@ 21331
ppy 21331
structured 21331
Marketing 21328
etz 21327
satisfaction 21327
cultur@@ 21326
reconstructed 21326
BMW 21318
fan@@ 21315
pet 21315
upstream 21315
decorations 21314
meteor@@ 21313
hire 21312
correctly 21310
sodium 21310
burnt 21308
liturg@@ 21303
imi 21302
Mess@@ 21301
PBS 21301
folklore 21300
reli@@ 21300
eno 21299
IB@@ 21298
ashing 21298
debates 21298
fu 21294
ú@@ 21294
Made 21292
catches 21292
12,@@ 21290
Citizens 21288
Pak@@ 21288
sof@@ 21286
caves 21284
exam 21283
Recordings 21282
flan@@ 21280
Tell 21277
Gy@@ 21276
esty 21275
Jacobs 21274
Parsons 21274
bells 21274
Hundred 21272
gospel 21270
specialty 21266
113 21263
Stuttgart 21263
ladies 21261
counterparts 21260
ason 21259
suite 21259
graph@@ 21257
expect 21255
Guil@@ 21252
airports 21251
innocent 21251
undefeated 21251
Suc@@ 21250
Architects 21241
Ec@@ 21241
Bucharest 21240
SV 21240
Bowie 21237
aid@@ 21235
composite 21231
onable 21231
Bash@@ 21230
accidents 21228
pipeline 21227
Von 21226
Elena 21224
warehouse 21222
Turin 21221
anos 21221
congress 21219
dishes 21219
subdivided 21219
Burmese 21216
craf@@ 21213
chicken 21211
TH@@ 21209
1799 21207
Shr@@ 21205
rer@@ 21205
horns 21202
Marcos 21201
leigh 21200
lander 21199
prospect 21197
1,6@@ 21194
Preservation 21193
Manning 21191
proc@@ 21191
stipul@@ 21183
harbor 21182
promises 21180
slogan 21180
ethn@@ 21179
gol@@ 21179
accounted 21178
René 21177
Relief 21176
zon@@ 21170
BM@@ 21166
corners 21166
U.@@ 21163
nobl@@ 21161
fortifications 21159
Devils 21156
Honduras 21148
captained 21148
ometric 21146
interfer@@ 21142
civilization 21141
Camden 21136
parody 21136
thorpe 21134
waived 21134
Pius 21132
eate 21129
adays 21128
warrant 21125
Call@@ 21123
Kannada 21117
Foot@@ 21114
genocide 21113
jan@@ 21112
mort@@ 21112
pushing 21112
memorable 21109
pride 21106
Mick 21104
aments 21100
avoiding 21100
depend 21100
arise 21096
Tracks 21091
Taipei 21089
asylum 21089
complement@@ 21088
pools 21088
feast 21085
Colleges 21084
selective 21084
talents 21081
Buck 21078
facilit@@ 21077
iron@@ 21077
Wildcats 21074
XII 21073
listings 21073
similarity 21066
courtyard 21063
Jakarta 21062
Better 21061
criminals 21061
Habitat 21053
midnight 21044
&apos;Neill 21041
Zhou 21040
jour@@ 21040
styled 21038
Gad@@ 21037
praising 21037
alike 21035
iya 21033
Bronx 21030
Rodriguez 21030
spatial 21029
27th 21028
discharged 21027
Ski 21025
Monster 21023
Evangelical 21020
calcium 21018
Horn@@ 21015
bery 21015
II@@ 21013
Applications 21012
interpre@@ 21012
exc@@ 21010
tance 21009
33.@@ 21008
Standards 21008
heli@@ 21003
Plate 21002
attitudes 21002
esta 21000
unga 21000
Sutherland 20999
fence 20998
Fish@@ 20997
celebrating 20997
Jam 20994
barracks 20993
emerge 20993
profitable 20992
stic@@ 20992
Aus@@ 20991
fixture 20985
reco@@ 20985
Midwest 20984
PL 20980
automated 20980
identifies 20980
Stand 20979
escapes 20979
ism@@ 20979
sound@@ 20974
therap@@ 20973
Sales 20970
Galway 20967
unanimously 20963
underneath 20963
stamp 20960
PT@@ 20959
200@@ 20957
26th 20956
Yan 20953
Shab@@ 20950
destin@@ 20950
generals 20949
AV 20947
conc@@ 20946
Waters 20944
afterward 20944
Bihar 20943
osp@@ 20942
detached 20940
sketches 20940
Pole 20938
mobility 20933
Highlands 20931
odds 20930
Dee 20929
licensing 20925
restric@@ 20922
Row@@ 20920
procur@@ 20920
Barker 20919
altogether 20914
oj@@ 20914
11,@@ 20913
outlet 20911
Hammond 20909
boot 20903
chiefs 20902
kidnapped 20900
Australians 20897
glo@@ 20897
retains 20897
boost 20895
Teaching 20893
300,000 20892
Nord 20892
CW 20891
Nationals 20883
Doyle 20882
professors 20882
Rain 20881
Dover 20877
kling 20876
Williamson 20874
sar 20869
epo@@ 20868
Travis 20867
whenever 20866
villain 20865
niece 20864
wolf 20864
improvis@@ 20863
strips 20862
Noah 20861
Sed@@ 20861
picks 20861
Everything 20858
Renault 20857
Cal 20853
Rac@@ 20852
Colts 20851
minerals 20851
keyboards 20850
lifelong 20845
Glory 20844
Bang@@ 20841
1,3@@ 20840
spir@@ 20839
iner 20838
precursor 20837
wells 20832
comparing 20831
Blackburn 20829
Light@@ 20828
andra 20828
bottle 20825
Gay@@ 20823
Falcons 20822
Tay@@ 20822
sberg 20820
speeches 20818
Rescue 20816
pipes 20816
hes@@ 20814
lef@@ 20812
plantations 20810
articul@@ 20809
syndic@@ 20808
Fitzgerald 20805
BR@@ 20803
MV 20802
worm 20802
adjoining 20796
corresponds 20796
mare 20793
Governorate 20790
parap@@ 20789
Jack@@ 20788
12,000 20787
node 20786
authentic@@ 20785
exiled 20781
Wheeler 20780
Ig@@ 20778
Dob@@ 20777
bags 20777
Expressway 20776
progression 20776
postseason 20774
Mayo 20773
processed 20773
Walton 20771
agenda 20770
Randolph 20763
Controversy 20761
common@@ 20761
ellers 20759
Emmanuel 20755
lands@@ 20752
trauma 20752
Dictionary 20750
Bologna 20748
diary 20747
oc 20747
plots 20746
rides 20745
arities 20742
enne 20742
imm@@ 20742
inscribed 20741
realism 20741
Mann@@ 20737
residences 20737
erst@@ 20736
Evil 20735
folding 20734
concludes 20732
admiral 20731
billed 20731
residency 20731
appeals 20730
0.4 20729
retreated 20729
iz 20728
Hau@@ 20727
aluminum 20727
amped 20725
bitter 20725
icist 20725
Lafayette 20723
harassment 20718
Kim@@ 20716
Mi 20716
cost@@ 20716
flags 20716
advertisements 20712
Maple 20710
benef@@ 20710
antine 20709
button 20708
cancellation 20707
positively 20705
facial 20704
violated 20704
anu 20703
Psych@@ 20702
prominently 20702
fears 20701
sinking 20701
Fork 20699
hunter 20699
sensitivity 20697
Canon 20690
240 20687
skaya 20681
ka@@ 20680
U. 20679
bedroom 20679
homeland 20678
specification 20677
Fuller 20675
touched 20674
voter 20673
Vy@@ 20672
abundance 20668
MG 20667
Tah@@ 20667
Commodore 20664
dwelling 20664
dragon 20662
shin@@ 20660
tragedy 20659
Packers 20658
anj@@ 20656
physicians 20655
biblical 20650
stric@@ 20650
DP 20649
Honors 20649
detachment 20647
ible 20647
creature 20646
fantas@@ 20646
fitting 20645
tenants 20644
astronomy 20643
curator 20642
grandchildren 20642
antic 20640
campaigned 20639
Bug@@ 20637
Returning 20636
visitor 20635
count@@ 20633
Tru@@ 20628
estu@@ 20628
constructing 20627
Viking 20623
ps@@ 20621
Hanover 20620
coff@@ 20618
Ruby 20617
Josef 20613
Rainbow 20613
Assam 20612
Present 20610
alt@@ 20609
Map@@ 20602
globe 20602
wn@@ 20602
ei@@ 20601
handball 20601
udi@@ 20599
Daw@@ 20595
Mem@@ 20594
polis 20594
anxiety 20593
1797 20592
comprom@@ 20591
Chak@@ 20590
Nem@@ 20584
lier 20581
roller 20581
1860s 20580
sted 20580
firef@@ 20577
deficit 20574
matic 20574
drought 20573
Got@@ 20569
otti 20569
grace 20568
examine 20566
ric@@ 20564
Cong@@ 20563
forbidden 20563
nel 20562
teens 20558
classi@@ 20555
theft 20555
kidney 20551
tributaries 20551
originating 20550
aliz@@ 20549
controller 20548
Jab@@ 20541
Rita 20539
receptions 20537
pier 20536
Clan 20535
Whilst 20535
39@@ 20533
Territorial 20533
photographic 20533
mons 20531
trigger 20531
Angelo 20530
Taliban 20527
heavier 20527
rog@@ 20522
Apostolic 20520
arti@@ 20520
Frontier 20516
bal 20511
natives 20511
compression 20506
inters 20504
eders 20503
pig@@ 20503
jus@@ 20500
deep@@ 20496
ightly 20494
oman 20493
saw@@ 20493
inform 20491
overnight 20489
rants 20489
Saw@@ 20487
maxim@@ 20484
Bom@@ 20483
Zam@@ 20483
Lom@@ 20481
asters 20481
propon@@ 20481
Property 20480
patri@@ 20480
1776 20468
possessions 20467
cement 20466
ocking 20464
steadily 20464
podium 20462
genuine 20460
vari@@ 20459
zy 20454
accompany 20452
Pérez 20451
Bangalore 20447
scru@@ 20447
patents 20445
limiting 20443
perennial 20441
Kurdish 20437
Admiralty 20436
Patrol 20434
Pioneer 20432
Shop 20430
orn@@ 20429
tox@@ 20428
č 20428
exceeded 20425
precision 20424
ared 20421
Marxist 20417
overlooking 20417
cover@@ 20412
aller 20410
Infrastructure 20406
harmony 20404
otypes 20398
Blo@@ 20397
Asi@@ 20396
Somalia 20396
prefer 20396
Seymour 20393
duke 20393
Nina 20390
qui 20390
Credits 20387
instituted 20386
Christchurch 20379
Holly 20379
verbs 20374
bullet 20372
Dhar@@ 20371
Harlem 20370
porno@@ 20369
twe@@ 20369
Flemish 20366
Hours 20364
ès 20361
plural 20359
1900s 20358
Tsu@@ 20355
oides 20353
barriers 20345
green@@ 20341
aller@@ 20339
Rouge 20335
Hague 20334
Syl@@ 20334
Geographic 20332
Shel@@ 20332
2,500 20331
geological 20329
intentions 20326
ui@@ 20324
Edith 20322
lobby 20321
Work@@ 20319
geometric 20318
Lahore 20316
Mo 20316
umes 20316
overhead 20315
Reich 20314
Rox@@ 20313
Arabs 20312
fraternity 20312
syndicated 20311
reactor 20307
56@@ 20303
gram 20303
Isles 20300
Steam 20296
stellar 20296
sandy 20294
chambers 20290
Techn@@ 20288
train@@ 20285
incre@@ 20284
Namibia 20281
Conver@@ 20280
Close 20278
13,@@ 20277
Archaeological 20277
Moy@@ 20275
kick@@ 20275
oti@@ 20275
canvas 20272
Taiwanese 20270
Vista 20267
ingle 20266
tenor 20266
orse 20265
[...]
