ใน 1
ที่ 1
และ 1
ของ 1
เป็น 1
มี 1
ได้ 1
การ 1
" 0.11980356370556568
) 0.0017697498103878984
( 0.0028883953502091045
โดย 1
กับ 1
. 0.12751065674527742
ว่า 1
ปี 1
จาก 1
จะ 1
ซึ่ง 1
ให้ 1
ไม่ 1
พ.ศ. 1
ไป 1
เมื่อ 1
, 0.08499144077010372
มา 1
พระ 1
หรือ 1
ค.ศ. 1
อยู่ 1
นี้ 1
- 1
คือ 1
ใช้ 1
ก็ 1
แต่ 1
เขา 1
วันที่ 1
คน 1
ถูก 1
ๆ 1
ด้วย 1
แห่ง 1
ประเทศ 1
์ 1
ทาง 1
เพื่อ 1
ได้รับ 1
ยัง 1
ขึ้น 1
อย่าง 1
2 1
จึง 1
ส 1
เมือง 1
นั้น 1
1 1
ผู้ 1
สามารถ 1
ไทย 1
กัน 1
ถึง 1
แล้ว 1
หนึ่ง 1
การ@@ 1
3 1
ทำให้ 1
ชื่อ 1
สร้าง 1
ล 1
เธอ 1
ทรง 1
ต่อ 1
แบบ 1
จังหวัด 1
ชาว 1
ตาม 1
น 1
เรื่อง 1
() 1
อร 1
ระหว่าง 1
เกิด 1
ออก 1
ต่อมา 1
เพลง 1
ตัว 1
วัด 1
ร์ 1
ทั้ง 1
นา 1
ทีม 1
อีก 1
มาก 1
ความ 1
ริ 1
แรก 1
ปัจจุบัน 1
ต้อง 1
ทำ 1
กลุ่ม 1
ดี 1
เช่น 1
ส่วน 1
สำหรับ 1
4 1
: 0.447878489969071
ด้าน 1
เดือน 1
พบ 1
ลง 1
พระองค์ 1
รา 1
ใหม่ 1
เรียก 1
ช่วง 1
กา 1
หลาย 1
บน 1
ที่สุด 1
เข้า 1
เอ 1
รี 1
อำเภอ 1
ภาษา 1
วัน 1
เริ่ม 1
จัด 1
โอ 1
ความ@@ 1
มิ 1
5 1
พระเจ้า 1
ลา 1
ครั้ง 1
เล่น 1
โรงเรียน 1
ภาพยนตร์ 1
อา 1
ไว้ 1
ตั้งแต่ 1
โลก 1
ยา 1
จำนวน 1
เด 1
ต่าง 1
หลัง 1
การแข่งขัน 1
ลิ 1
ซี 1
– 0.6922281498999336
กว่า 1
จน 1
นำ 1
ตา 1
มาจาก 1
ต 1
รัฐ 1
ด 1
สอง 1
ม 1
สี 1
ซา 1
; 0.44466962294731993
พื้นที่ 1
ก 1
อ 1
ระดับ 1
ส@@ 1
อาจ 1
ใหญ่ 1
ทั้งหมด 1
งาน 1
อื่น 1
ที่จะ 1
ค 1
สมเด็จ 1
เขต 1
ญี่ปุ่น 1
ราช 1
ม@@ 1
คำ 1
ระบบ 1
เร 1
โร 1
จีน 1
ได้แก่ 1
ส์ 1
ก่อน 1
ก@@ 1
เคย 1
นาย 1
ผ่าน 1
ประมาณ 1
รอบ 1
ในประเทศ 1
ลี 1
6 1
ณ 1
สมัย 1
มหาวิทยาลัย 1
เนื่องจาก 1
มัน 1
รวม 1
น้ำ 1
น@@ 1
ท 1
เพราะ 1
ล@@ 1
ตำแหน่ง 1
ผู้@@ 1
นัก 1
บ้าน 1
เซ 1
วิ 1
เพียง 1
ชุด 1
ลักษณะ 1
บริษัท 1
เต 1
การศึกษา 1
บริเวณ 1
คา 1
เวลา 1
เดิม 1
สำคัญ 1
ตำบล 1
ชนิด 1
บาง 1
ง 1
เท 1
นิ 1
สูง 1
เม 1
ซิ 1
ต@@ 1
ช 1
ค@@ 1
แก่ 1
ว 1
ชิ 1
หลังจาก 1
7 1
โก 1
-@@ 1
ฟ 1
อัน 1
อังกฤษ 1
อ@@ 1
ฟุตบอล 1
หลัก 1
ตั้งอยู่ 1
(@@ 1
อันดับ 1
ฝ่าย 1
รัฐบาล 1
เกม 1
ส่ง 1
โค 1
รายการ 1
เปิด 1
10 1
โน 1
โต 1
อัลบั้ม 1
ชาติ 1
แสดง 1
บ 1
8 1
แบ่ง 1
ร 1
กีฬา 1
ประวัติ 1
เก 1
รับ 1
ยาว 1
ว@@ 1
ด@@ 1
ย 1
ประกาศ 1
ฝรั่งเศส 1
สโมสร 1
ผล 1
เกี่ยวกับ 1
ภายใน 1
บ@@ 1
ภาพ 1
สาย 1
"@@ 1
ท@@ 1
กลับ 1
ภาค 1
ปลา 1
ย@@ 1
องค์ 1
เป็นการ 1
อี 1
กลาง 1
ป@@ 1
” 1
/ 0.5673297846016699
อดีต 1
โอลิมปิก 1
& 1
กำลัง 1
ดา 1
ผลงาน 1
รูป 1
สงคราม 1
รุ่น 1
ร@@ 1
ช@@ 1
ยุค 1
วา 1
ติ 1
เจ้า 1
“ 0.6383174711684101
วงศ์ 1
รูปแบบ 1
ดังกล่าว 1
บา 1
สาม 1
เค 1
ฮา 1
ล้าน 1
เดียว 1
น้อย 1
of 0.040313146414208946
ลีก 1
์@@ 1
มากกว่า 1
ช่วย 1
เปลี่ยน 1
วง 1
ครั้งแรก 1
พรรค 1
จนถึง 1
คณะ 1
ตั้ง 1
9 1
นอกจากนี้ 1
ร่วม 1
บี 1
ฟ@@ 1
เห็น 1
ชั้น 1
เกาะ 1
ถนน 1
เขียน 1
ดู 1
ใต้ 1
โม 1
ท่าน 1
อาหาร 1
20 1
จิ 1
เกิดขึ้น 1
โล 1
ย์ 1
ทหาร 1
ป 1
โด 1
ยู 1
ตน 1
ดิ 1
ประเภท 1
เน@@ 1
เข้าร่วม 1
หน้า 1
ง@@ 1
ตอน 1
พวกเขา 1
ทอง 1
ก็ได้ 1
มหา 1
ข้อมูล 1
สุดท้าย 1
ฤดูกาล 1
ซ 1
เหนือ 1
มีนาคม 1
รางวัล 1
เจ 1
สิงหาคม 1
หา 1
กองทัพ 1
แห่งชาติ 1
ที่อยู่ 1
สมาชิก 1
ชาย 1
ศึกษา 1
เดียวกัน 1
เสียง 1
ตุลาคม 1
อายุ 1
12 1
ขนาด 1
ปรากฏ 1
ออกมา 1
ชีวิต 1
เข้ามา 1
พัฒนา 1
เดินทาง 1
บาท 1
กลายเป็น 1
ออกจาก 1
ช่อง 1
กันยายน 1
เอง 1
ประกอบ 1
อาคาร 1
ส่วนใหญ่ 1
' 1
ประกอบด้วย 1
ยังมี 1
เมษายน 1
มกราคม 1
ธันวาคม 1
สาขา 1
แทน 1
15 1
จักรพรรดิ 1
ชา 1
แต่ละ 1
ออ 1
พฤษภาคม 1
โรค 1
ฐานะ 1
ต่างๆ 1
พวก 1
สกุล 1
น. 1
ทา 1
นี 1
หมายถึง 1
กรกฎาคม 1
มนุษย์ 1
รวมถึง 1
มัก 1
ทุก 1
ประชากร 1
หญิง 1
ใจ 1
ศรี 1
เลือก 1
แนว 1
เพิ่ม 1
การเลือกตั้ง 1
ย้าย 1
ประชาชน 1
พ@@ 1
โซ 1
ทั้งสอง 1
จ@@ 1
มิถุนายน 1
ต์ 1
เมตร 1
นาง 1
เล@@ 1
บุคคล 1
ที 1
กำหนด 1
กรุง 1
16 1
ราชวงศ์ 1
ลด 1
นัด 1
สู่ 1
พฤศจิกายน 1
ทั่วไป 1
สิ่ง 1
ชนะ 1
นิยม 1
30 1
อีกครั้ง 1
ไอ 1
สหรัฐอเมริกา 1
), 1
เท่านั้น 1
โท 1
วิ@@ 1
อะ 1
เล็ก 1
ตี 1
กุมภาพันธ์ 1
การปกครอง 1
อาศัย 1
อิ 1
ขอ 1
สนับสนุน 1
แม่น้ำ 1
ภายใต้ 1
ซ@@ 1
ระ 1
11 1
ดังนี้ 1
หัว 1
เงิน 1
ะ 1
ประจำ 1
รัก 1
ห@@ 1
จบ 1
เม@@ 1
ซ์ 1
ชื่อว่า 1
พิเศษ 1
แข่งขัน 1
เป็น@@ 1
(; 1
เครื่อง 1
วี 1
เบ@@ 1
หนังสือ 1
ผลิต 1
เหตุการณ์ 1
สัตว์ 1
นาน 1
The 0.08906323078986302
รวมทั้ง 1
19 1
เดอะ 1
อาร์ 1
ฤดูร้อน 1
14 1
สุ 1
18 1
ร่วมกับ 1
") 1
คณะกรรมการ 1
ด์ 1
เสียชีวิต 1
สัน 1
เด็ก 1
พระราชทาน 1
ทำงาน 1
ตัน 1
ถ้า 1
กิ 1
ฯ 1
เรือ 1
คู่ 1
สาร 1
จากนั้น 1
กะ 1
สังกัด 1
สูงสุด 1
ยังคง 1
แม่ 1
กลับมา 1
แอ 1
ไม้ 1
เส้น 1
อาการ 1
ตะวันออก 1
ร์@@ 1
กู 1
หลวง 1
หน่วย 1
มะ 1
การแสดง 1
ใบ 1
ไฟ 1
ฮิ 1
ขาว 1
ฉบับ 1
โบ 1
เอส 1
พา 1
คล้าย 1
เล 1
คิด 1
13 1
จุด 1
ประวัติศาสตร์ 1
เรา 1
จำกัด 1
แยก 1
นักแสดง 1
รู 1
คอ 1
นับ 1
เลย 1
ป่า 1
ซู 1
สาธารณรัฐ 1
นก 1
น้ำ@@ 1
เข้าไป 1
​ 1
ยุโรป 1
เก@@ 1
รอ 1
ข@@ 1
เหล่านี้ 1
ขนาดใหญ่ 1
บท 1
อำนาจ 1
อินเดีย 1
เจ้าชาย 1
นคร 1
กระ@@ 1
เป็นที่ 1
พระ@@ 1
25 1
ออกอากาศ 1
ที่สอง 1
17 1
รักษา 1
เป็นหนึ่ง 1
โครงการ 1
ปา 1
ละคร 1
% 0.35327233414974557
กษัตริย์ 1
ธรรม 1
the 0.013230655845343225
เข้าสู่ 1
บุตร 1
สภา 1
เรียน 1
ราย 1
สหรัฐ 1
โย 1
สังคม 1
ก่อตั้ง 1
พิ@@ 1
ชัย 1
ชิง 1
เอ@@ 1
เป็นต้น 1
ดาว 1
ภายหลัง 1
gt 1
ตะวันตก 1
ลูก 1
คำ@@ 1
จนกระทั่ง 1
lt 1
แดง 1
อิ@@ 1
ต้น 1
ทะเล 1
ดำรงตำแหน่ง 1
จำหน่าย 1
ธ 1
สถานี 1
แสง 1
สถาบัน 1
น์ 1
จำนวนมาก 1
ประ@@ 1
จี 1
เอา 1
การพัฒนา 1
ละ 1
ปลาย 1
เซลล์ 1
หาก 1
เสีย 1
ตนเอง 1
ระบุ 1
ตระกูล 1
ตรง 1
ดินแดน 1
บิดา 1
วาง 1
แมน 1
ใด 1
กร 1
อย่างไรก็ตาม 1
ครอบครัว 1
เจ้าหญิง 1
กิน 1
24 1
วิธี 1
เสด็จ 1
อักษร 1
เชื่อ 1
ห์ 1
วิทยาลัย 1
ส่วนหนึ่ง 1
บิ 1
ใกล้ 1
ดนตรี 1
21 1
จัดตั้ง 1
หลังจากนั้น 1
มาร 1
ในขณะที่ 1
มักจะ 1
ก่อ 1
พ 1
สมาคม 1
ชัน 1
เท@@ 1
แปล 1
พี 1
เฮ 1
ราว 1
อา@@ 1
บิน 1
ออกแบบ 1
ศาสนา 1
มี@@ 1
เฟ@@ 1
ยะ 1
อเมริกัน 1
อาชีพ 1
นาม 1
สี่ 1
แม้ 1
เพื่อให้ 1
ท่า 1
ประตู 1
เทพ 1
อีกด้วย 1
ครั้งนี้ 1
สนาม 1
รัสเซีย 1
เกิน 1
โดยเฉพาะ 1
ชี 1
แตก 1
กฎหมาย 1
นิ@@ 1
นัก@@ 1
ดังนั้น 1
พม่า 1
ห้อง 1
ฐาน 1
ศูนย์ 1
มณฑล 1
อาจจะ 1
ติด 1
อิน 1
ฮ@@ 1
พยายาม 1
รถ 1
คลอง 1
งา 1
ทาง@@ 1
ค่า 1
เยอรมนี 1
เว@@ 1
จักรวรรดิ 1
มือ 1
ตัวเอง 1
มากขึ้น 1
วา@@ 1
เอก 1
เพ 1
บันทึก 1
ห 1
อัล 1
ก่อสร้าง 1
พระยา 1
เอเชีย 1
วิน 1
ต้องการ 1
กิโลเมตร 1
โฮ 1
ยก 1
แผ่นดิน 1
อาณาจักร 1
เน 1
วัฒนธรรม 1
มา@@ 1
คะแนน 1
เหมือน 1
กรม 1
เซอร์ 1
เทคโนโลยี 1
กว้าง 1
เป@@ 1
แก้ว 1
ยิง 1
ดำ 1
เลอ 1
คน@@ 1
หมู่ 1
0 1
ควบคุม 1
พืช 1
จา 1
่ 1
สถานที่ 1
แพ้ 1
เป็นทางการ 1
ป้องกัน 1
ไซ 1
เจ@@ 1
พร้อมกับ 1
รายชื่อ 1
รอง 1
มากมาย 1
ชน 1
ตรา 1
ตาย 1
ประธาน 1
ศิลปิน 1
ยอด 1
เริ่มต้น 1
ตัวละคร 1
กอ 1
ต่อไป 1
กรุงเทพมหานคร 1
กุ 1
พอ 1
หมู่บ้าน 1
เฉพาะ 1
ข้าง 1
ขาย 1
22 1
ค่าย 1
เปิดตัว 1
ปกครอง 1
เช@@ 1
โ@@ 1
รา@@ 1
23 1
นักเรียน 1
ทำการ 1
พล 1
ทำหน้าที่ 1
ซิงเกิล 1
มีชื่อเสียง 1
เก่า 1
หลังจากที่ 1
ม. 1
โจมตี 1
นา@@ 1
หิน 1
อุ 1
ฉาย 1
กิ@@ 1
เป็นที่รู้จัก 1
วิชา 1
ย่อย 1
ดำเนินการ 1
ลำดับ 1
อิตาลี 1
ครู 1
เยอรมัน 1
เด@@ 1
ศ 1
อน 1
ลู 1
วิหาร 1
ไฟฟ้า 1
นักร้อง 1
กี 1
ธรรมชาติ 1
วัง 1
ความสัมพันธ์ 1
กล่าว 1
ฟ้า 1
ศิลปะ 1
ความสามารถ 1
พันธุ์ 1
ถ@@ 1
เกี่ยวข้อง 1
ปัญหา 1
พระนาง 1
). 1
นอก 1
= 1
า 1
แชมป์ 1
นอ 1
สเปน 1
รู้ 1
รู้จัก 1
ตะ 1
ต่อต้าน 1
กล่าวว่า 1
ขยาย 1
การผลิต 1
อื่นๆ 1
เชิง 1
โอ@@ 1
ญ 1
รุ 1
จริง 1
ญ@@ 1
สิทธิ 1
ดิน 1
นะ 1
ทำลาย 1
พร้อม 1
ใส่ 1
สัญลักษณ์ 1
เก็บ 1
รัฐมนตรี 1
ไท 1
รับรางวัล 1
โบราณ 1
เดิน 1
ขนาดเล็ก 1
วิทยาศาสตร์ 1
ดูแล 1
กอง 1
ฟา 1
จัดการ 1
สภาพ 1
่ง 1
เอ็ม 1
สมาชิกสภาผู้แทนราษฎร 1
การเมือง 1
ผู้นำ 1
ทำ@@ 1
พัน 1
วร 1
23@@ 1
ฉ@@ 1
ตัวอย่าง 1
สหราชอาณาจักร 1
(" 1
สุ@@ 1
เซ@@ 1
โครงสร้าง 1
s 0.36472649676050756
ต่างกัน 1
26 1
สอน 1
แม้ว่า 1
ท์ 1
ลูก@@ 1
จ 1
เหลือ 1
รายงาน 1
สวน 1
หลักสูตร 1
กรรม 1
ประธานาธิบดี 1
ทศวรรษ 1
ภูมิภาค 1
ทำให้เกิด 1
แรง 1
28 1
อากาศ 1
คุณ 1
สุด 1
สม@@ 1
ทราบ 1
เครื่อง@@ 1
บางส่วน 1
เศรษฐกิจ 1
นายกรัฐมนตรี 1
ปาก 1
ดอก 1
ปล่อย 1
ยึด 1
ใช่ 1
แต่งตั้ง 1
สั้น 1
เย 1
โรงพยาบาล 1
100 1
ประสบความสำเร็จ 1
นักกีฬา 1
ขณะที่ 1
ภาวะ 1
ริน 1
คุ 1
พิธี 1
รัชกาล 1
หลักฐาน 1
เส้นทาง 1
โจ 1
เป็นเวลา 1
แหล่ง 1
ว่าการ 1
สำเร็จ 1
เป็นครั้งแรก 1
", 1
27 1
้ 1
อุตสาหกรรม 1
ไว 1
คืน 1
เพ@@ 1
หน้าที่ 1
พลังงาน 1
ชุมชน 1
ธ@@ 1
สยาม 1
องค์กร 1
ทั่วโลก 1
บอ 1
วะ 1
เพิ่มขึ้น 1
เวียดนาม 1
ฝั่ง 1
ที่ดิน 1
เช่นกัน 1
ตัว@@ 1
ธิดา 1
จู 1
ราช@@ 1
วิทยา 1
อาจารย์ 1
ลิง 1
สมอง 1
เลือด 1
เวอร์ 1
แคว้น 1
เลี้ยง 1
ร่างกาย 1
ลิ@@ 1
บริการ 1
แค 1
ลาย 1
เนอ 1
ตลอด 1
สา@@ 1
อู 1
บรม 1
ยา@@ 1
ท้องถิ่น 1
คริสต์ศตวรรษ 1
ภาษาอังกฤษ 1
งาน@@ 1
ธง 1
ว์ 1
เบอร์ 1
โม@@ 1
ชอบ 1
29 1
ทัพ 1
คาร์ 1
กำกับ 1
เสนอ 1
รั@@ 1
วิดีโอ 1
ธุรกิจ 1
ถือเป็น 1
สำนักงาน 1
ศักดิ์ 1
ระ@@ 1
บุ 1
ข้อ@@ 1
เหตุ 1
ราม 1
สาว 1
จอห์น 1
พ่อ 1
แผ่น 1
รบ 1
สัปดาห์ 1
ปกติ 1
ดำเนิน 1
เชียงใหม่ 1
ซีรีส์ 1
เร@@ 1
กา@@ 1
ผ@@ 1
ตำรวจ 1
เรื่องราว 1
ชู 1
ซื้อ 1
สต 1
การ์ตูน 1
นท 1
ณ@@ 1
โทรทัศน์ 1
ได 1
ศ@@ 1
ในที่สุด 1
ร่วมกัน 1
คอน 1
แถบ 1
มอ 1
A 0.28939461918215037
วงการ 1
เค@@ 1
เอาชนะ 1
พร 1
้ง 1
หมายเลข 1
พื้น 1
่@@ 1
รับ@@ 1
ตลาด 1
ยอดเยี่ยม 1
พระมหากษัตริย์ 1
ลำ 1
เครื่องบิน 1
เล่ม 1
and 0.01644780389601259
พูด 1
ทางการเมือง 1
การทำงาน 1
สื่อ 1
ทฤษฎี 1
โอรส 1
บุญ 1
ไร 1
นี่ 1
ตก 1
ต่างประเทศ 1
ี 1
กุล 1
ถือว่า 1
พลัง 1
2016 0.5946372026532296
แพทย์ 1
ลา@@ 1
ตะ@@ 1
หัวหน้า 1
ค้นพบ 1
ไร่ 1
ขณะ 1
ฟี 1
่น 1
แนวคิด 1
นโยบาย 1
ใกล้เคียง 1
ลาว 1
เจริญ 1
ดัง 1
คู 1
อาวุธ 1
บางครั้ง 1
โกะ 1
แต่ง 1
เอ็น 1
อเมริกา 1
ห้า 1
เ@@ 1
2012 0.5527731671678212
เหล่า 1
เรีย 1
เยาวชน 1
_ 0.5976617661673854
ร่าง 1
มุ 1
ปราสาท 1
2014 0.5560892799633376
ข้อ 1
สม 1
แม@@ 1
การเปลี่ยนแปลง 1
ข่าว 1
จับ 1
พระนาม 1
50 1
แบ 1
วัตถุ 1
คัดเลือก 1
ปิด 1
ยอมรับ 1
สิบ 1
ต่อเนื่อง 1
24@@ 1
2010 0.43748583251312306
2018 0.5851849640346282
มีชื่อ 1
ขาด 1
ตัด 1
อุปกรณ์ 1
อั@@ 1
ด้วยกัน 1
ห่าง 1
ฆ่า 1
อก 1
เนื้อ 1
2554 1
ติดต่อ 1
ที่มา 1
ซาน 1
ชก 1
ผสม 1
เกาหลี 1
ความนิยม 1
ซัน 1
ทีวี 1
ใคร 1
หนัก 1
ออสเตรเลีย 1
ศึก 1
ที่@@ 1
ที่เกิด 1
ตาม@@ 1
โดย@@ 1
2020 0.6513202128947807
นำมา 1
ะ@@ 1
บอก 1
ลม 1
2550 1
กล@@ 1
31 1
็@@ 1
มารดา 1
เผยแพร่ 1
ที่ตั้ง 1
เพื่อน 1
เขียว 1
ปรับ 1
เอฟ 1
ระยะ 1
กรณี 1
ราชอาณาจักร 1
วอ 1
ร้อยละ 1
ิน 1
ราชการ 1
ชิ้น 1
้น 1
พล@@ 1
เจ้าพระยา 1
ควร 1
ทั่ว 1
นุ 1
อม 1
เบ 1
เนีย 1
เต็ม 1
ศาสตร์ 1
ไ@@ 1
ตั้งขึ้น 1
ทางหลวง 1
วน 1
สปีชีส์ 1
จันทร์ 1
โตะ 1
ริ@@ 1
ภัย 1
อัตรา 1
บทบาท 1
เนื้อหา 1
เป็นสมาชิก 1
กิจการ 1
อุ@@ 1
กิจกรรม 1
การนำ 1
การรักษา 1
[[ 1
ประ 1
กระบวนการ 1
สัญญา 1
ให้บริการ 1
ต. 1
เกาหลีใต้ 1
มาตรฐาน 1
ตีพิมพ์ 1
ดะ 1
หนอง 1
ข้าม 1
ถือ 1
เช่นเดียวกับ 1
เสมอ 1
ฮ์ 1
ไหล 1
อ่อน 1
โพ 1
สมรส 1
ชาวไทย 1
กองกำลัง 1
สะพาน 1
สถาน 1
ิ@@ 1
กล่าวถึง 1
2557 1
นานาชาติ 1
จง 1
รส 1
คอมพิวเตอร์ 1
ทั้งสิ้น 1
ออฟ 1
โป 1
ไฮ 1
กระทรวง 1
ก่อนที่จะ 1
สถิติ 1
กระจาย 1
ถวาย 1
๊@@ 1
ก. 1
คัน 1
2553 1
ต่ำ 1
โรมัน 1
พา@@ 1
คล@@ 1
2015 0.4961863485457503
แขวง 1
แอน 1
โอกาส 1
หนี 1
่า 1
พิจารณา 1
กร@@ 1
ล่า 1
น่า 1
กัมพูชา 1
ตำนาน 1
ซอ 1
ติ@@ 1
เกือบ 1
สถาปัตยกรรม 1
ประสาท 1
รับบท 1
การต่อสู้ 1
ตัดสินใจ 1
ทอ 1
มหาสมุทร 1
ให้@@ 1
ง่าย 1
ตู 1
ระยะเวลา 1
อด 1
]] 1
รัน 1
การสอน 1
ทิ้ง 1
ศูนย์กลาง 1
เหรียญ 1
ระเบิด 1
สา 1
พิมพ์ 1
ช้าง 1
นอกจาก 1
ยาก 1
สมบูรณ์ 1
นิตยสาร 1
ลี่ 1
เย@@ 1
ช่วงเวลา 1
2017 0.5241277347365273
2561 1
2551 1
เดี่ยว 1
วัย 1
รุนแรง 1
ฺ@@ 1
วิธีการ 1
มาถึง 1
ช่วยเหลือ 1
ตา@@ 1
เทียบ 1
40 1
รายได้ 1
รัฐธรรมนูญ 1
2555 1
นู 1
สินค้า 1
2549 1
ยุ 1
นักศึกษา 1
ต่อสู้ 1
อิทธิพล 1
โนะ 1
เพศ 1
แต่งงาน 1
เฮ@@ 1
บ้าง 1
ในขณะนั้น 1
แก 1
บริหาร 1
โดยทั่วไป 1
2559 1
หน่วยงาน 1
2562 1
ชั่น 1
ผู้ป่วย 1
ธาตุ 1
คริสต์ 1
ศตวรรษ 1
อง 1
บังคับ 1
ดร. 1
2008 0.4676821079823107
คณะ@@ 1
คัพ 1
สถาปนา 1
มั@@ 1
ค่า@@ 1
ส่วนตัว 1
นิกาย 1
เล่า 1
in 0.011254098053325869
วง@@ 1
แลนด์ 1
ตัดสิน 1
ขา 1
ยศ 1
(, 1
2013 0.46208625754313537
เห 1
อะไร 1
ดี@@ 1
พื้นฐาน 1
เมืองหลวง 1
วอลเลย์บอล 1
formula 0.5892142979758214
ทั้งนี้ 1
ขน 1
ผม 1
กรรมการ 1
เห@@ 1
ิ 1
พระราชวัง 1
ครอง 1
เต@@ 1
อุณหภูมิ 1
ล์ 1
2560 1
สำนัก 1
กั@@ 1
ซี@@ 1
ค์ 1
บัว 1
คา@@ 1
ริก 1
เลน 1
ไชย 1
คิ 1
หัว@@ 1
ประชาธิปไตย 1
รถไฟ 1
รวดเร็ว 1
เชื่อม 1
แฟน 1
เลือกตั้ง 1
ปืน 1
า@@ 1
ขึ้นไป 1
ฝึก 1
กรม@@ 1
อธิบาย 1
ปฏิบัติการ 1
ชัดเจน 1
ภูมิ 1
นี@@ 1
โดยที่ 1
แ@@ 1
ศาล 1
หยุด 1
มีส่วน 1
ดอน 1
ปริมาณ 1
2019 0.4983046739586781
ร้อง 1
สากล 1
ซูเปอร์ 1
ท่าอากาศยาน 1
สถานะ 1
2011 0.3960153657851338
ฉาก 1
ส่งผล 1
บรรดา 1
ตรวจ 1
ไต 1
2552 1
เมีย 1
เส@@ 1
ของ@@ 1
ที่สาม 1
อ. 1
ชิงแชมป์ 1
ผล@@ 1
เจ้าหน้าที่ 1
ทั้งคู่ 1
ขุน 1
การค้า 1
a 0.013365427147010524
สิ้นพระชนม์ 1
หัวใจ 1
รัชสมัย 1
คนใน 1
การเรียน 1
สุขภาพ 1
เจอ 1
กิจ 1
เจ้าฟ้า 1
ลอนดอน 1
หนัง 1
.@@ 1
ระหว่างประเทศ 1
พระราชินี 1
! 0.6905816213510093
เพิ่มเติม 1
สาย@@ 1
ทิ@@ 1
ปฏิเสธ 1
เสีย@@ 1
แบ@@ 1
น้ำหนัก 1
พระพุทธรูป 1
กระดูก 1
หอ 1
เข้า@@ 1
บู 1
เจดีย์ 1
งวง 1
2558 1
มู 1
โปรแกรม 1
ร. 1
กลาย 1
ขวา 1
ความเร็ว 1
ส่งเสริม 1
ศพ 1
เคมี 1
มิ@@ 1
บาร์ 1
ทุกคน 1
แผน 1
หรือไม่ 1
การบริหาร 1
2556 1
โปรดเกล้าฯ 1
ตั้ง@@ 1
ู 1
รัส 1
บวร 1
ลดลง 1
คดี 1
ชาร์ต 1
ลัทธิ 1
ผู้หญิง 1
จิต 1
ลำตัว 1
พี่น้อง 1
ชิน 1
อัล@@ 1
เน้น 1
้น@@ 1
ปฏิบัติ 1
ใจ@@ 1
เชอ 1
เบล 1
จุด@@ 1
มงคล 1
เสร็จ 1
เร็ว 1
ขุนนาง 1
นาที 1
ประสูติ 1
ชั่วโมง 1
พุทธศักราช 1
สั่ง 1
ศิ 1
มหา@@ 1
สิ้นสุด 1
เอช 1
เคน 1
ทา@@ 1
รัง 1
ฤดูหนาว 1
เป้าหมาย 1
สตรี 1
ซะ 1
พระราชโอรส 1
ไอ@@ 1
น้ำมัน 1
น้อยกว่า 1
ประทับ 1
หล@@ 1
ลู@@ 1
เวล 1
2009 0.4016945299912603
ซ้าย 1
หมด 1
ฟิลิปปินส์ 1
อ่าน 1
ยอม 1
เขตการปกครอง 1
ปั@@ 1
ร้องเพลง 1
หม@@ 1
เซน 1
หาย 1
มอบ 1
เย็น 1
ราคา 1
แชมป์โลก 1
ฟรี 1
คร@@ 1
อินโดนีเซีย 1
มีอายุ 1
บิล 1
2563 1
พั@@ 1
โดยตรง 1
รู้สึก 1
ดั้งเดิม 1
แกน 1
ให้การ 1
เซนติเมตร 1
เชีย 1
แล 1
ฟัน 1
มีบทบาท 1
เท่ากับ 1
ภูเขา 1
โร@@ 1
เพชร 1
เว 1
บู@@ 1
มีผล 1
เหล็ก 1
โช 1
แอ@@ 1
งะ 1
ทู 1
แข่ง 1
B 0.7415609528929317
ทร 1
ภรรยา 1
แช 1
แก้ 1
ดา@@ 1
2007 0.41566561922189643
เล็กน้อย 1
คอย 1
ฮี 1
ความเชื่อ 1
เวน 1
รูปร่าง 1
ลึก 1
ความหมาย 1
สิริ 1
นอกจากนั้น 1
ปีก่อน 1
รัฐสภา 1
อิสระ 1
ตามลำดับ 1
ตรวจสอบ 1
ศ. 1
โล@@ 1
ไวรัส 1
กระแส 1
คง 1
ปรากฏตัว 1
C 0.7668259406016896
การประชุม 1
ชาวบ้าน 1
สิ 1
โว 1
br 1
ใช้งาน 1
แจ้ง 1
2006 0.41938568814516763
สิทธิ์ 1
สด 1
สึ 1
คอนเสิร์ต 1
รอย 1
สัญญาณ 1
แทนที่ 1
นักบุญ 1
มหาราช 1
ฟัง 1
รับรอง 1
เสริม 1
มอน 1
สีแดง 1
มุม 1
ออน 1
พัก 1
ละ@@ 1
เดนมาร์ก 1
ลั@@ 1
ใช้เวลา 1
รวบรวม 1
ผิด 1
แอล 1
ือ 1
ตอนที่ 1
ต่อ@@ 1
ความคิด 1
มาเลเซีย 1
หมู่เกาะ 1
ครึ่ง 1
ทดสอบ 1
)" 1
ยืนยัน 1
แคนาดา 1
ปู 1
เลีย 1
แสน 1
องค์การ 1
อยุธยา 1
ออสเตรีย 1
ซาร์ 1
แตกต่าง 1
ครองราชย์ 1
ชั้น@@ 1
มิส 1
ยิ่ง 1
กรีก 1
2548 1
ปริญญาตรี 1
ปี@@ 1
พฤติกรรม 1
เทคนิค 1
จา@@ 1
แข็ง 1
อันเป็น 1
ฮ่องกง 1
เมน 1
เซีย 1
ร้าย 1
หน@@ 1
โปรตุเกส 1
สำเร็จการศึกษา 1
พงษ์ 1
ร็อก 1
นับถือ 1
่ง@@ 1
แท@@ 1
มีโอกาส 1
พันธมิตร 1
ไกล 1
นักฟุตบอล 1
ก่อนที่ 1
สะ 1
การเขียน 1
ผู้คน 1
ปา@@ 1
มิวสิก 1
หวัง 1
อาณาเขต 1
จิน 1
แซ 1
แร 1
ครอบคลุม 1
ยกเลิก 1
นั่น 1
มาน 1
ยาน 1
โบสถ์ 1
สต์ 1
จิ@@ 1
ผลิตภัณฑ์ 1
เนเธอร์แลนด์ 1
พระองค์เจ้า 1
ห้าม 1
00 1
ประโยชน์ 1
รี่ 1
เครือข่าย 1
2@@ 1
สี@@ 1
ที่สูง 1
ตั้งชื่อ 1
อาทิ 1
อ้างอิง 1
สติ 1
กะ@@ 1
มายัง 1
การประกวด 1
เวที 1
แก้ไข 1
60 1
ฟู 1
โตเกียว 1
ปลูก 1
ท้าย 1
คอมมิวนิสต์ 1
่ว 1
คลื่น 1
มิได้ 1
ประจำปี 1
อี@@ 1
เตรียม 1
อียิปต์ 1
หลากหลาย 1
เซนต์ 1
สาเหตุ 1
กล 1
กซ์ 1
ออก@@ 1
บั@@ 1
n 0.6298214013527236
คำสั่ง 1
ความรู้สึก 1
ไล@@ 1
ประเพณี 1
รถยนต์ 1
แม่@@ 1
ลงมา 1
ก่อนหน้า 1
บุก 1
รถ@@ 1
ติดกับ 1
เทศ 1
ไน 1
นำไปสู่ 1
โค@@ 1
บอล 1
อยาก 1
สนธิสัญญา 1
อวกาศ 1
แซ@@ 1
ตามที่ 1
์" 1
อารมณ์ 1
ิง 1
ยาง 1
เว็บไซต์ 1
ทางการ 1
ไค 1
สู้ 1
เผ่า 1
เวท 1
ดัดแปลง 1
วิ่ง 1
ู@@ 1
เหมือนกับ 1
ส์@@ 1
ไม้@@ 1
ตาราง 1
เหตุผล 1
ละครโทรทัศน์ 1
ผลกระทบ 1
รัตน์ 1
ปร@@ 1
สิ@@ 1
ชม 1
ความรู้ 1
ิน@@ 1
วัคซีน 1
สิ่งมีชีวิต 1
สุข 1
สาขาวิชา 1
วิเคราะห์ 1
อย 1
แฮ 1
นอน 1
ฟอ 1
พระราชบัญญัติ 1
เงิน@@ 1
เปลี่ยนแปลง 1
ค่อนข้าง 1
โปแลนด์ 1
ฉัน 1
ชิงชนะเลิศ 1
เข้ากับ 1
ความแตกต่าง 1
มอง 1
ตร@@ 1
ที่นั่ง 1
สถานีโทรทัศน์ 1
อน@@ 1
เดน 1
หาง 1
2564 1
น่า@@ 1
ภาษาไทย 1
เจ้า@@ 1
ส่วน@@ 1
ดวง 1
บทความ 1
แอฟริกา 1
ท้าว 1
รวมกัน 1
แกรนด์ 1
วั@@ 1
โชว์ 1
ประดิษฐาน 1
ชนะเลิศ 1
ไม่@@ 1
ไข่ 1
บวก 1
กบฏ 1
ภ@@ 1
สหภาพโซเวียต 1
เหมาะสม 1
เข@@ 1
ตี้ 1
ขึ้นอยู่กับ 1
พิพิธภัณฑ์ 1
นั่ง 1
นิว 1
ยกเว้น 1
หน้า@@ 1
กาย 1
แค่ 1
เรียง 1
สถานการณ์ 1
ปล@@ 1
อร์ 1
ดิ@@ 1
โป@@ 1
บราซิล 1
ศักดิ์สิทธิ์ 1
เปอร์ 1
สตาร์ 1
ศัตรู 1
อก@@ 1
เจน 1
เนื้อที่ 1
สังหาร 1
ก็ตาม 1
ความเสียหาย 1
ถิ่น 1
หก 1
เนื้อเรื่อง 1
ผิว 1
ประพันธ์ 1
ก์ 1
เจ้าอาวาส 1
วัน@@ 1
หลายครั้ง 1
คุณสมบัติ 1
แว@@ 1
บุ@@ 1
ร้อย 1
เติบโต 1
สตูดิโอ 1
้@@ 1
หนังสือพิมพ์ 1
ฺ 1
บา@@ 1
หู 1
เคา 1
สนใจ 1
หลวงพ่อ 1
เท่า 1
พรีเมียร์ 1
ปรับปรุง 1
บรา 1
ยุทธการ 1
สต@@ 1
อย@@ 1
เลื่อน 1
แท้จริง 1
รหัส 1
ปิ@@ 1
80 1
ษ 1
สูตร 1
กี่ 1
แอร์ 1
ตรี 1
องค์ประกอบ 1
เอกสาร 1
ต้นไม้ 1
จัด@@ 1
ทุน 1
ประดับ 1
ล่าง 1
สวีเดน 1
หลุยส์ 1
คอม 1
คอร์ 1
นิ้ว 1
ลับ 1
กฎ 1
ณ์ 1
เทศบาลตำบล 1
ผู้อำนวยการ 1
เจ้าเมือง 1
เปิดเผย 1
ลัน 1
เชื้อสาย 1
สัมพันธ์ 1
อร์@@ 1
ยูไนเต็ด 1
คม 1
การทดลอง 1
2547 1
ซุน 1
เป็นผล 1
อุโบสถ 1
คาด 1
นักเขียน 1
สิงห์ 1
เทียน 1
อ้าง 1
ร้าน 1
เป็นตัวแทน 1
เป 1
สิ่งแวดล้อม 1
เชื่อมต่อ 1
๊ก 1
ทำได้ 1
ม้า 1
เจ้าของ 1
อบ 1
แล@@ 1
อริ 1
ลำ@@ 1
ระยะทาง 1
แนะนำ 1
ดาร 1
กุ@@ 1
รถไฟฟ้า 1
จุฬาลงกรณ์ 1
ความรัก 1
โฆษณา 1
่า@@ 1
ร่วมใน 1
ภารกิจ 1
เครื่องยนต์ 1
กำหนดให้ 1
สรุป 1
สะ@@ 1
เอา@@ 1
+ 0.8791815588788642
นั@@ 1
เสา 1
ยูฟ่า 1
to 0.012544225719206025
ภายนอก 1
ตัด@@ 1
อาหรับ 1
ุ@@ 1
บรรจุ 1
ผ้า 1
ยง 1
นับตั้งแต่ 1
ผู้จัดการ 1
มิติ 1
โรง 1
แหลม 1
ภา 1
มัง 1
มะ@@ 1
เท้า 1
แปลง 1
หา@@ 1
สาร@@ 1
ชายฝั่ง 1
นนท์ 1
ตารางกิโลเมตร 1
ทิ 1
2000 0.3863106997719486
สิงคโปร์ 1
้า 1
อิง 1
่น@@ 1
ริม 1
เคลื่อนที่ 1
ปารีส 1
ลาน 1
เขมร 1
รอน 1
กรุงเทพ 1
พายุ 1
เวิลด์ 1
เป็นที่ตั้ง 1
ปีก 1
ข้าว 1
วาง@@ 1
เจ็ด 1
ผู้ใช้ 1
200 1
อพยพ 1
ศาสตราจารย์ 1
ดู@@ 1
แอนด์ 1
ยอ 1
ศิลป์ 1
ดยุก 1
แน@@ 1
มีค่า 1
ฮั@@ 1
ความขัดแย้ง 1
ชัยชนะ 1
สัง@@ 1
ฟอร์ด 1
องศา 1
2004 0.41707873085631203
I 0.2368636784657636
จอม 1
ทันที 1
รักษ์ 1
ทัน 1
งค์ 1
ฏ@@ 1
ที่ว่า 1
พลเอก 1
ท้อง 1
เป็นเรื่อง 1
คณิตศาสตร์ 1
ได้มา 1
ฮังการี 1
ตกลง 1
โดดเด่น 1
เป็นตัว 1
พระพุทธ 1
เข้าใจ 1
2021 0.4655784077635763
มัธยมศึกษา 1
สมบัติ 1
นิวยอร์ก 1
2005 0.3893068812733348
ตลอดจน 1
ซี่ 1
ป่า@@ 1
้อ 1
การปฏิวัติ 1
วิจารณ์ 1
โซเวียต 1
็ง 1
บุตรชาย 1
กำเนิด 1
ข้อความ 1
รายละเอียด 1
แพ 1
ความร้อน 1
บัณฑิต 1
แค@@ 1
กรุณา 1
ราชสำนัก 1
แปซิฟิก 1
ได้@@ 1
คนอื่น 1
ร้อน 1
ีย@@ 1
เอกชน 1
สืบ 1
ขับ 1
สมัยใหม่ 1
x 0.9255474330881336
สงครามโลกครั้งที่สอง 1
นครราชสีมา 1
รับราชการ 1
ตอนเหนือ 1
รุกราน 1
วงดนตรี 1
็ก 1
ยืน 1
เกียรติ 1
โซ@@ 1
ทองคำ 1
ดาบ 1
ยุติ 1
วรรณกรรม 1
ลบ 1
จอ 1
พรรษา 1
ี@@ 1
ัน@@ 1
ฌ@@ 1
ฮัน 1
ลง@@ 1
เช่นนี้ 1
กล้ามเนื้อ 1
โดน 1
ขอบ 1
อด@@ 1
จัดอันดับ 1
เอกราช 1
ว่าด้วย 1
วัฒน 1
หว@@ 1
จ่าย 1
เปีย 1
ช่าง 1
สายพันธุ์ 1
เรียกร้อง 1
ไร้ 1
ดารา 1
มีความหมาย 1
ฮ 1
โต@@ 1
มวล 1
นิยาม 1
ดอลลาร์สหรัฐ 1
ทะเลสาบ 1
ทุ่ง 1
คนเดียว 1
อาณานิคม 1
สถานีรถไฟ 1
คุณภาพ 1
มรดก 1
โทษ 1
แรงงาน 1
ที่ปรึกษา 1
ใบ@@ 1
คณะสงฆ์ 1
ชุมนุม 1
มีอำนาจ 1
จัน 1
เชิญ 1
ทุ@@ 1
ในสังกัด 1
E 1
ซิง 1
นส์ 1
ไล 1
ผลการแข่งขัน 1
งบประมาณ 1
รองรับ 1
ผู้ชนะ 1
ในนาม 1
เจมส์ 1
นำแสดง 1
เช 1
เรื่อย 1
ครบ 1
ความจริง 1
บันเทิง 1
อย่างหนึ่ง 1
กำแพง 1
ภู 1
ซอน 1
ย่าน 1
สันนิษฐาน 1
พระราชพิธี 1
ติก 1
[ 1
ภาคใต้ 1
เสือ 1
การควบคุม 1
เหล่านั้น 1
ฐ@@ 1
ยิว 1
สหภาพ 1
ผู้โดยสาร 1
บะ 1
ให้ได้ 1
ธิ@@ 1
ฝ@@ 1
ประการ 1
2546 1
ลอย 1
พระที่นั่ง 1
วัสดุ 1
โจว 1
สนามกีฬา 1
สืบ@@ 1
ถัดมา 1
ข้าว@@ 1
รองชนะเลิศ 1
นาง@@ 1
ซู@@ 1
รูป@@ 1
ยาวนาน 1
ความปลอดภัย 1
ที่วัด 1
เฟอร์ 1
นัส 1
ู่ 1
กว้างขวาง 1
นำเสนอ 1
สุวรรณ 1
โปรด 1
รวมไปถึง 1
ษ@@ 1
นต์ 1
่อ 1
ปลา@@ 1
สวยงาม 1
สะสม 1
คะ 1
กำจัด 1
ทำประตู 1
อัส 1
อนุญาต 1
เก่าแก่ 1
ทราย 1
2544 1
ธนาคาร 1
มังกร 1
อง@@ 1
การคัดเลือก 1
งานวิจัย 1
งค@@ 1
ุ 1
ตอบสนอง 1
กลิ่น 1
สิ่ง@@ 1
2542 1
ค้นหา 1
ติดเชื้อ 1
สกี 1
ร่วมงาน 1
วิจัย 1
โลหะ 1
ึ@@ 1
] 1
อิน@@ 1
32 1
ปฏิกิริยา 1
ราก 1
สอบ 1
ไม@@ 1
จั@@ 1
โก@@ 1
กัส 1
ยุบ 1
มือ@@ 1
วิลเลียม 1
เฟ 1
ปรัชญา 1
ความต้องการ 1
รม 1
| 1
งู 1
ปฏิ@@ 1
อล 1
2539 1
บาล 1
อ้างว่า 1
ั@@ 1
สหพันธ์ 1
ยักษ์ 1
ดาวเคราะห์ 1
มิตร 1
เพลิง 1
พ้น 1
รุ@@ 1
จอร์จ 1
ชั่วคราว 1
คุณ@@ 1
ชื่อเล่น 1
รัตน 1
เป็นอย่างมาก 1
ผู้ชม 1
ติด@@ 1
เรือ@@ 1
การป้องกัน 1
สาม@@ 1
ซ้ำ 1
ถ้ำ 1
มวยปล้ำ 1
อม@@ 1
เกีย 1
สระ 1
หย@@ 1
ที่ผ่านมา 1
คัมภีร์ 1
ส่วนมาก 1
โค้ง 1
สามัญ 1
้า@@ 1
ช้า 1
มหาชน 1
พุทธ@@ 1
พระบาทสมเด็จพระจุลจอมเกล้าเจ้าอยู่หัว 1
ิด 1
เม็กซิโก 1
ขั้น 1
เขตร้อน 1
เปรียบเทียบ 1
... 0.6290791798151384
เหลือง 1
ลุ 1
ไต้หวัน 1
พรรคการเมือง 1
หนู 1
S 1
M 1
มุข 1
บัน 1
เอาไว้ 1
โช@@ 1
ซา@@ 1
ความสนใจ 1
โซน 1
บรมวงศ์ 1
สหประชาชาติ 1
เข้าถึง 1
็น 1
ซิ@@ 1
2540 1
ทั@@ 1
ตุ 1
ครีบ 1
พารา 1
ภาย 1
ราชา 1
ย์@@ 1
ผู้ใหญ่ 1
ใน@@ 1
คู่@@ 1
ศาลา 1
2535 1
โปร 1
ตี@@ 1
นวนิยาย 1
สีเหลือง 1
รี@@ 1
คิม 1
คณะรัฐมนตรี 1
โรงแรม 1
ธรรมดา 1
ขุด 1
สูญเสีย 1
แสดงให้เห็น 1
แม 1
35 1
G@@ 0.3160484294249979
เพลย์ 1
จำเป็นต้อง 1
่ม 1
ถ่าย 1
ความสูง 1
ทาน 1
ฝัง 1
มวย 1
ฏ 1
70 1
ดังต่อไปนี้ 1
วาน 1
โปรตีน 1
จักร 1
ผี 1
ดัน 1
ติดตาม 1
ต้น@@ 1
ลิเวอร์พูล 1
ไซ@@ 1
เอน 1
ทุก@@ 1
หนุ่ม 1
ล่าสุด 1
ตามมา 1
บางคน 1
ประดิษฐ์ 1
์, 1
คิ@@ 1
D 0.760195398132032
กาล 1
รร@@ 1
๋ 1
ต่ำกว่า 1
เทียม 1
ขบวนการ 1
จุ@@ 1
เมล็ด 1
ศาล@@ 1
เบน 1
ตก@@ 1
ผู้ช่วย 1
นาค 1
ซิตี 1
แจ@@ 1
2545 1
ฟิ@@ 1
นิวเคลียร์ 1
มูลนิธิ 1
มีอิทธิพล 1
ติดตั้ง 1
บาดเจ็บ 1
ก่อให้เกิด 1
คนไข้ 1
พระพุทธศาสนา 1
เทือกเขา 1
อินเตอร์ 1
ขบวน 1
ต้า 1
สำรวจ 1
สาธารณะ 1
2543 1
เฉลี่ย 1
ซับซ้อน 1
ยุทธ 1
กัน@@ 1
อิสราเอล 1
มาตรา 1
ฆ@@ 1
T@@ 0.28822157300048057
ฮั่น 1
ประถมศึกษา 1
เชื้อ 1
เตอร์ 1
N 1
๋@@ 1
สวรรค์ 1
แบน 1
ห้วย 1
สังเกต 1
เดช 1
เนื้อ@@ 1
สะท้อน 1
1990 0.47384139403043934
วอร์ 1
การกระทำ 1
ทวีป 1
เป็นอดีต 1
นำมาใช้ 1
พุทธ 1
มีประสิทธิภาพ 1
อนุ@@ 1
แผนก 1
โย@@ 1
แปด 1
ชายแดน 1
เทศกาล 1
เสียง@@ 1
แพร่หลาย 1
ภาพ@@ 1
กรุงศรีอยุธยา 1
ฟังก์ชัน 1
คิว 1
WWE 1
อิหร่าน 1
เหรียญทอง 1
ความพยายาม 1
บูร 1
ดั@@ 1
เรย์ 1
ภาษา@@ 1
ยอดขาย 1
ก่อนหน้านี้ 1
บูชา 1
ฉายา 1
ทางเศรษฐกิจ 1
จำ@@ 1
ตะวันออกเฉียงเหนือ 1
จาง 1
มู@@ 1
์ส 1
วิวัฒนาการ 1
อุป@@ 1
พี@@ 1
รับประทาน 1
จำเป็น 1
ภาค@@ 1
ท้อง@@ 1
สลับ 1
กระตุ้น 1
การเคลื่อนไหว 1
amp 0.27001187159704215
90 1
ปัญญา 1
ตั@@ 1
วิชาการ 1
เลิก 1
ราย@@ 1
ทัวร์ 1
หนา 1
พันธ์ 1
เหมือนกัน 1
สัมผัส 1
สิน 1
ลักษณ์ 1
ปาง 1
เป็นต้นมา 1
เสนอชื่อ 1
é 0.3476201873835536
เต้น 1
ขณะนั้น 1
ผู้เข้าแข่งขัน 1
บอย 1
ภูมิศาสตร์ 1
ล้อม 1
บุรี 1
หลง 1
โร่ 1
พุ@@ 1
เครื่องมือ 1
คิง 1
นิยาย 1
ปรากฏการณ์ 1
รู้@@ 1
เทศบาล 1
กลม 1
เข้าแข่งขัน 1
ตอ 1
ทิศเหนือ 1
ครั้งหนึ่ง 1
ไฮ@@ 1
แฟ@@ 1
เข 1
พงศ์ 1
ด่าน 1
ปัจจัย 1
ฟุ 1
จำ 1
จาร 1
บูรณะ 1
ทางใต้ 1
ตกแต่ง 1
ถาวร 1
กี้ 1
ออนไลน์ 1
งาม 1
H 1
อนิเมะ 1
อินเทอร์เน็ต 1
ถู 1
ผู้เสียชีวิต 1
พี่ชาย 1
ปราบ 1
กระทรวงศึกษาธิการ 1
เวอร์ชัน 1
เซ็นสัญญา 1
ร่วมมือ 1
คว้าแชมป์ 1
โรค@@ 1
B@@ 0.26304839109043665
คอ@@ 1
กรด 1
ไม 1
น่าจะ 1
รอด 1
45 0.9953811462105665
ด้านหน้า 1
มีชีวิต 1
ความถี่ 1
จักรวาล 1
หลังคา 1
ไม่ต้อง 1
พิ 1
ก้า 1
ลด@@ 1
สวรรคต 1
ความสำเร็จ 1
์ค 1
ย่อ 1
ดง 1
ทิศตะวันออก 1
2538 1
ความร่วมมือ 1
ป. 1
วาร 1
แฮ@@ 1
นายก 1
อบ@@ 1
ราชินีนาถ 1
โซล 1
ฮะ 1
ัน 1
โครง 1
ทรัพย์ 1
ตัวอักษร 1
F 0.8652993972565516
ประชุม 1
่ม@@ 1
ดับเบิลยู 1
บท@@ 1
on 0.023111967745844373
คอน@@ 1
นาซี 1
เจรจา 1
ี่ 1
โดยเฉพาะอย่างยิ่ง 1
ท้องที่ 1
ฤทธิ์ 1
สวม 1
ได้ดี 1
การแพทย์ 1
ข 1
คริสตกาล 1
@@ 0.21970965809002105
วาด 1
มัส 1
2002 0.370874134136645
สุโขทัย 1
พญา 1
พระนคร 1
ชา@@ 1
น้อง 1
พจน์ 1
อภิเษกสมรส 1
ไมล์ 1
เฮนรี 1
ยุ@@ 1
สุนทร 1
ความเป็น@@ 1
ไก 1
ชีพ 1
ได้รับแต่งตั้ง 1
แร@@ 1
ซั@@ 1
โบ@@ 1
น้ำแข็ง 1
ผู้ชาย 1
หมาย 1
เลขาธิการ 1
ด้านล่าง 1
การวิจัย 1
มีความสำคัญ 1
ทั้งหลาย 1
ฯลฯ 1
หลักการ 1
ญาณ 1
กองทัพบก 1
ตุ@@ 1
เป็นที่นิยม 1
ถ้วย 1
ฟุต 1
การใช้งาน 1
อันตราย 1
ความมั่นคง 1
เฉ@@ 1
คี@@ 1
ราง 1
หม่อมเจ้า 1
2003 0.37392653135122045
ร่า 1
มองเห็น 1
เบา 1
ตึก 1
ขอให้ 1
พระครู 1
กล้อง 1
มะเร็ง 1
กองทัพเรือ 1
ความเห็น 1
ยืม 1
ตอบ 1
เซต 1
อุทยานแห่งชาติ 1
ความเสี่ยง 1
ื@@ 1
แดน 1
)@@ 1
จอมพล 1
บางอย่าง 1
ลอง 1
ปอ 1
โด่งดัง 1
เวช 1
ทิศตะวันตก 1
ศีรษะ 1
เป็นหลัก 1
ความรุนแรง 1
ที่หนึ่ง 1
เดิน@@ 1
รัง@@ 1
นาถ 1
แผ่นดินไหว 1
ดิน@@ 1
จ. 1
โรงงาน 1
ผู้ปกครอง 1
ต์@@ 1
ประมุข 1
ยิ่งใหญ่ 1
เลข 1
ตรวจ@@ 1
หาร 1
ทั่วประเทศ 1
รับผิดชอบ 1
ในอนาคต 1
ทางเพศ 1
ยึดครอง 1
ถูกต้อง 1
เอกลักษณ์ 1
ฝ่าย@@ 1
โจ@@ 1
เสื้อ 1
T 0.8034678195160724
เข้ม 1
โฟ@@ 1
กง 1
บ. 1
วาย 1
ลูกชาย 1
ธี 1
ใกล้ชิด 1
ท่อ 1
ประเด็น 1
ระบอบ 1
นักวิชาการ 1
โระ 1
X 0.7403279943922728
ซุ 1
ค่ำ 1
นักการเมือง 1
1980 0.5379860574027103
้ง@@ 1
แน่นอน 1
โด@@ 1
วิญญาณ 1
วิทยุ 1
เบิล 1
สัก 1
รังสี 1
มูล 1
ยีน 1
มเหสี 1
เบลเยียม 1
อนุภาค 1
อ่าว 1
๑@@ 1
500 0.9031831107681938
i 0.3457497471064583
ถึงแม้ว่า 1
การสำรวจ 1
นัน 1
ียน 1
ไม่ค่อย 1
ยก@@ 1
ทิศ 1
ทะ 1
ตัวผู้ 1
ลล์ 1
P@@ 0.261799581801911
S@@ 0.23295093600293662
แถว 1
ความช่วยเหลือ 1
สงสัย 1
คั@@ 1
ดี้ 1
ภาคเหนือ 1
ไอร์แลนด์ 1
ช่วงแรก 1
อับ 1
ชาว@@ 1
พระราชธิดา 1
พิธีกร 1
กรุงเทพฯ 1
ผู้บัญชาการ 1
ผา 1
ด้านหลัง 1
ยื่น 1
ดำรง 1
เก้า 1
O 0.5227266450793173
มูลค่า 1
ทุกวัน 1
บริจาค 1
เชียง 1
แห้ง 1
โมเลกุล 1
หมอ 1
กระทรวงมหาดไทย 1
สิน@@ 1
หมวดหมู่ 1
ทางสังคม 1
ส. 1
ชั@@ 1
ถิ่นกำเนิด 1
ทรัพย์สิน 1
สัดส่วน 1
แผนการ 1
บำรุง 1
ชน@@ 1
เกณฑ์ 1
การเกษตร 1
ร์ก 1
ณี 1
ตุรกี 1
ล็อก 1
พ่ายแพ้ 1
ดวงอาทิตย์ 1
สงฆ์ 1
อัด 1
บรรยาย 1
ตัวอย่างเช่น 1
การปรับปรุง 1
วางแผน 1
อะตอม 1
เปลือก 1
กระ 1
ออกเสียง 1
เสรี 1
สัญชาติ 1
ผ้า@@ 1
อู่ 1
ทดลอง 1
น้ำตาล 1
พรหม 1
บริ@@ 1
ตอนแรก 1
พระราชา 1
ช่วงต้น 1
V 0.7316761793320187
ไพ 1
ปุ 1
เต็มที่ 1
โคล 1
เพื่อที่จะ 1
เสกสมรส 1
แป@@ 1
แชมเปียนส์ 1
ปกป้อง 1
บอร์ด 1
ฝัน 1
แพทยศาสตร์ 1
วิถี 1
เมะ 1
ตลก 1
นต@@ 1
ยู@@ 1
สั@@ 1
เรือน 1
ไป@@ 1
เปล@@ 1
ทร@@ 1
ใช้@@ 1
for 0.02124644885196739
บัญญัติ 1
ผู้กำกับ 1
ไท@@ 1
ไมเคิล 1
ปุ@@ 1
แขน 1
อิส 1
เอก@@ 1
G 0.8792135219399889
บาง@@ 1
โอน 1
ฟื้นฟู 1
ภู@@ 1
เฉลิม 1
ตัวแทน 1
ล้วน 1
หวาน 1
แอบ 1
การ์ด 1
ลิขสิทธิ์ 1
จัดทำ 1
สันตะปาปา 1
่ย 1
็อก 1
ล. 1
เสาร์ 1
บัตร 1
ไทยแลนด์ 1
de 0.003977747372091254
เถ@@ 1
กรอบ 1
งานเขียน 1
วาระ 1
ปริญญาโท 1
ทูต 1
เขตเลือกตั้ง 1
คุ้มครอง 1
วดี 1
นครศรีธรรมราช 1
สังคมนิยม 1
เพียงแค่ 1
แมค 1
ทางรถไฟ 1
เยือน 1
section 0.9279743655949492
ราน 1
จักรพรรดินี 1
ทุกปี 1
ซ่า 1
ร็@@ 1
ฤ@@ 1
ไหน 1
น่าน 1
ข้าราชการ 1
สายการบิน 1
ใช้ชีวิต 1
กล้า 1
มวยสากล 1
นัย 1
ธิ 1
ข้อตกลง 1
ยกทัพ 1
เด็ก@@ 1
เทศบาลเมือง 1
เบส 1
แสดงว่า 1
ประสบการณ์ 1
แม้แต่ 1
ข้าง@@ 1
งอ 1
จับ@@ 1
พิษ 1
เง@@ 1
เช้า 1
เปลี่ยนเป็น 1
/& 1
อต 1
บ่อยครั้ง 1
ผู้แทน 1
ป้อม 1
เกมส์ 1
เติม 1
่อน 1
เบร@@ 1
ไตร 1
ราชบัลลังก์ 1
ือ@@ 1
ธงชาติ 1
หลบหนี 1
ท่าเรือ 1
M@@ 0.27128447469147093
น้องชาย 1
ลอ@@ 1
บรรยากาศ 1
จิตใจ 1
ซิม 1
บัง 1
เกะ 1
พื้นผิว 1
วิสุงคามสีมา 1
เทวี 1
อร@@ 1
โรม 1
2001 0.3268798982604759
ฎ@@ 1
ช. 1
พากย์ 1
วิทยาเขต 1
หุ้ม 1
P 1
เอ็ดเวิร์ด 1
หร@@ 1
ขา@@ 1
สำเนียง 1
แฮม 1
ผนัง 1
ภา@@ 1
นิช 1
แบคทีเรีย 1
ละเอียด 1
หลายชนิด 1
สร้างสรรค์ 1
รก 1
World 0.22865885112591577
จำลอง 1
สงบ 1
เหยื่อ 1
ขึ้นกับ 1
เปลี่ยนไป 1
แท้ 1
เวย์ 1
บ่อย 1
มาส 1
อย่างไรก็ดี 1
กรีซ 1
วรรณ 1
แต@@ 1
ศรัทธา 1
ตต์ 1
สงขลา 1
ลูกสาว 1
ซุ@@ 1
เซ็น 1
ธิบดี 1
มงกุฎ 1
ญา 1
ัก@@ 1
แบร์ 1
ไบ 1
ก้าว 1
ชื่อดัง 1
ลาก 1
นิค 1
ยาม 1
ฤดู 1
หลัก@@ 1
วี@@ 1
ใส 1
เส้น@@ 1
ทำนอง 1
ดับ 1
ิต 1
O@@ 0.27537359075927764
ภ 1
กลัว 1
แต่เดิม 1
สร 1
โอะ 1
มีปัญหา 1
กลอง 1
ฉลอง 1
ถัง 1
เป็นระบบ 1
ครั้น 1
เอ็กซ์ 1
ปลายปี 1
กลีบ 1
ีย 1
้ม 1
48 1
แก@@ 1
โท@@ 1
ประกวด 1
หลายอย่าง 1
ห์@@ 1
สก 1
แอน@@ 1
หม่อม 1
L 0.4743789496035559
คุ@@ 1
ประท้วง 1
2541 1
พระธาตุ 1
2537 1
สำนักพิมพ์ 1
พยาบาล 1
ผู้ผลิต 1
เชียงราย 1
แก๊ส 1
ถึง@@ 1
อิสลาม 1
เห็น@@ 1
แล้วก็ 1
สีน้ำตาล 1
นอร์เวย์ 1
นักวิทยาศาสตร์ 1
แมตช์ 1
ค่าใช้จ่าย 1
ธร 1
เป็นไปได้ 1
พนม 1
็ก@@ 1
R 0.6490637212508541
ซึม 1
ถ่ายทอด 1
สมัคร 1
คาบสมุทร 1
็ด 1
กระทั่ง 1
ท. 1
ลส์ 1
ลอ 1
ทิศทาง 1
มองว่า 1
พระราช@@ 1
สว่าง 1
จารึก 1
ตรงข้าม 1
แต่ว่า 1
สวน@@ 1
2534 1
มณี 1
คี 1
โพธิ์ 1
ลล@@ 1
เข้ารอบ 1
การสื่อสาร 1
มุมมอง 1
ตรา@@ 1
วัต 1
อุดมศึกษา 1
ไฟ@@ 1
y 0.019047737537959984
โรง@@ 1
ฝีมือ 1
คว้า 1
หล่อ 1
อักเสบ 1
ซ้อน 1
ทำเป็น 1
ยัน 1
แด@@ 1
อิสริยยศ 1
มหานิกาย 1
เวียง 1
300 1
D@@ 0.22978320477228606
เคลื่อน 1
ชนบท 1
เช่นเดียวกัน 1
33 1
ชะ 1
วัยรุ่น 1
ธรรม@@ 1
รัชทายาท 1
ล้อ 1
อิรัก 1
กันที่ 1
ฑ@@ 1
ว่ายน้ำ 1
เชื้อเพลิง 1
กลไก 1
แลกเปลี่ยน 1
ติดต่อกัน 1
แคลิฟอร์เนีย 1
ดุ@@ 1
เติ@@ 1
ทรง@@ 1
เชิง@@ 1
่าง 1
ป่วย 1
K@@ 0.24708595988316714
N@@ 0.25526190204367644
ิร์@@ 1
ธา 1
บ่อ 1
เตือน 1
เลก 1
บัส 1
เลส 1
กวาง 1
ซอง 1
ฟาโรห์ 1
วัตถุประสงค์ 1
อย่างไร 1
แด 1
ทัศน์ 1
วินาที 1
๑ 1
ขนส่ง 1
ชุ@@ 1
เชษฐา 1
ประสบ 1
ซอฟต์แวร์ 1
ื่อ 1
แร่ 1
ดาราศาสตร์ 1
ทางทหาร 1
ัก 1
ปริ@@ 1
ภักดี 1
ระบาด 1
หอย 1
ดำเนินงาน 1
แพร่ 1
ทาส 1
กระทำ 1
ปีศาจ 1
ตัวเมีย 1
สุด@@ 1
ได้ยิน 1
ลี@@ 1
จับกุม 1
วงกลม 1
วิก 1
ยูเครน 1
อว@@ 1
นอก@@ 1
ีย์ 1
โฮ@@ 1
แตน 1
ก้าน 1
ผู้สนับสนุน 1
ฝน 1
ฟิ 1
อะ@@ 1
เด่น 1
ขั้นตอน 1
แรงบันดาลใจ 1
ญาติ 1
ศุกร์ 1
อนุชา 1
เครื่องหมาย 1
ปอนด์ 1
ผู้ก่อตั้ง 1
ผู้บริหาร 1
อัน@@ 1
็อ@@ 1
งก 1
การประ@@ 1
จังหวะ 1
ทางเหนือ 1
ดีขึ้น 1
นุ@@ 1
มป@@ 1
สิ้นสุดลง 1
ณะ 1
t 0.25666504555557595
เกล้า 1
สังเคราะห์ 1
2536 1
ภูมิ@@ 1
อาสน 1
พระพุทธเจ้า 1
นิง 1
เบื้องต้น 1
เป็นไป 1
กึ่ง 1
การเงิน 1
ับ 1
ถ่ายทำ 1
เวสต์ 1
เปิด@@ 1
ลัย 1
m 0.22700557240527547
แพ@@ 1
ทางตะวันตก 1
ขัน 1
ทะ@@ 1
ปราบปราม 1
เหล@@ 1
็ค 1
ข้า 1
บก 1
ล้านนา 1
อ่อน@@ 1
เงื่อนไข 1
เธ@@ 1
เวลส์ 1
ประสิทธิภาพ 1
ยกฐานะ 1
ร์ด 1
ของวัด 1
สลาย 1
แมลง 1
กิโลกรัม 1
ป้าย 1
มพ@@ 1
สู้รบ 1
อนุมัติ 1
1992 0.41035475476249755
ขั้ว 1
นายพล 1
กระจก 1
โรงเรียน@@ 1
ทักษะ 1
นาย@@ 1
พอ@@ 1
มุสลิม 1
นัดดา 1
วงจร 1
เทว@@ 1
1996 0.3948623879734834
ดอกไม้ 1
ห้อง@@ 1
ตั้งใจ 1
บริโภค 1
พร้อมด้วย 1
สิ้น 1
ิม 1
ขับไล่ 1
ที@@ 1
กลาง@@ 1
ขน@@ 1
ชลบุรี 1
ดีกว่า 1
34 1
เป็นเจ้าของ 1
การทหาร 1
สภาผู้แทนราษฎร 1
idae 1
เยี่ยม 1
ขอ@@ 1
จัดตั้งขึ้น 1
จุ 1
เส 1
วจะ 1
เกราะ 1
วินิจฉัย 1
ญา@@ 1
ปฏิทิน 1
พิสูจน์ 1
นซ์ 1
การปฏิรูป 1
ทอด 1
มวยไทย 1
พอใจ 1
ทรัพยากร 1
ป์ 1
ผู้สร้าง 1
พระทัย 1
มอญ 1
รัม 1
2533 1
ภาษี 1
ขวัญ 1
1998 0.35936874653625683
ส์" 1
ลาย@@ 1
พัด 1
การขนส่ง 1
พระศพ 1
เศษ 1
จอมเกล้า 1
ออ@@ 1
การท่องเที่ยว 1
ย่า 1
ัด 1
ถูก@@ 1
หมื่น 1
หมุน 1
ออสการ์ 1
คริสเตียน 1
เลขที่ 1
นด์ 1
น้องสาว 1
ปลด 1
รน 1
ชวน 1
ปีเตอร์ 1
สวิตเซอร์แลนด์ 1
โดยรวม 1
สภาวะ 1
วัดราษฎร์ 1
กส์ 1
ภาควิชา 1
นั่นเอง 1
แสดง@@ 1
ครั้งนั้น 1
พระสงฆ์ 1
เกษตร 1
ฝูง 1
เที่ยวบิน 1
เซา 1
ดั้ม 1
วิชาชีพ 1
E@@ 0.2562252324365471
บี@@ 1
พัฒนาการ 1
พื้น@@ 1
ราบ 1
ัย 1
แทบ 1
เศรษฐศาสตร์ 1
กีตาร์ 1
กด 1
." 1
สามี 1
เผา 1
ถาม 1
วย 1
เรียว 1
ความสำคัญ 1
ตัวเลข 1
วด 1
1999 0.3193440906510909
แสดงนำ 1
รุก 1
ลงนาม 1
H@@ 0.2540597857653681
2531 1
พระเจ้าอยู่หัว 1
แต่@@ 1
ด้านบน 1
ต้นกำเนิด 1
สตัน 1
พี่ 1
รัช 1
วัล 1
d 0.11997828729800344
นก@@ 1
1970 0.4689041245803673
แมว 1
แม็ก 1
’ 0.04747295767444303
ิล@@ 1
"" 1
° 0.4854935499377736
กม. 1
เพราะว่า 1
36 1
ราชภัฏ 1
ช์ 1
เสด็จสวรรคต 1
ดวงจันทร์ 1
ัง@@ 1
ยอง 1
ระดับสูง 1
เดวิด 1
ดร 1
สุลต่าน 1
สนิท 1
R@@ 0.2247215891995993
แม่ทัพ 1
อิเล็กทรอนิกส์ 1
หญ้า 1
เลียน 1
มปิก 1
หลอด 1
เมา 1
ศา@@ 1
ไล่ 1
ซาก 1
ระเบียบ 1
่ำ 1
ทุกอย่าง 1
หลาน 1
เอเชียตะวันออกเฉียงใต้ 1
่อง 1
ส่วนประกอบ 1
์ก 1
พนักงาน 1
สุสาน 1
L@@ 0.1928548616754178
ศร 1
โทร 1
ชาน 1
แนวทาง 1
กลางคืน 1
ดึง 1
กัด 1
ทำร้าย 1
ฟิสิกส์ 1
กองทัพอากาศ 1
กิ่ง 1
อส 1
ตอนกลาง 1
นำไปใช้ 1
ประหารชีวิต 1
ป็อป 1
พรรคประชาธิปัตย์ 1
ส่ง@@ 1
อี้ 1
ลก 1
สวามี 1
b 0.45851787475266553
มุ่ง 1
จุดเริ่มต้น 1
A@@ 0.22464389019209338
ส.ส. 1
สงครามโลก 1
เดย์ 1
เคียว 1
การณ์ 1
เจียง 1
มหาวิทยาลัยธรรมศาสตร์ 1
ทหารบก 1
เชน 1
เชื่อมโยง 1
ขอบเขต 1
สุนัข 1
K 0.7767326961974256
สัตว์ป่า 1
สันติภาพ 1
เว็บ 1
จดหมาย 1
สร@@ 1
1997 0.36625086323186923
บุรีรัมย์ 1
พิทักษ์ 1
พื้นเมือง 1
คิน 1
นิสัย 1
ศัพท์ 1
เนส 1
;/ 1
จัก 1
ปก 1
ยกย่อง 1
หอม 1
ใต้ดิน 1
จำพวก 1
แข็งแกร่ง 1
F@@ 0.21593431199878327
ทับ 1
1960 0.5003249615650016
ณา 1
จิตรกร 1
หมวด 1
ตส์ 1
บริสุทธิ์ 1
หายใจ 1
เปอร์เซีย 1
แวร์ 1
ทรู 1
ตู้ 1
บ้าน@@ 1
เยื่อ 1
แห่ 1
ครา 1
ชวา 1
สมการ 1
เมริเดียน 1
ยั@@ 1
ส" 1
อุบัติเหตุ 1
ธรรมเนียม 1
ต่อไปนี้ 1
มินิ 1
รถถัง 1
ช่าง@@ 1
มี่ 1
ไผ่ 1
พลเมือง 1
สกอตแลนด์ 1
กรรม@@ 1
ขอนแก่น 1
ียง 1
นักดนตรี 1
ทวีปยุโรป 1
ฟิล์ม 1
บลู 1
ทางอากาศ 1
ชี้ 1
มาลา 1
ปริญญา 1
ความผิดปกติ 1
จัดแสดง 1
ผลไม้ 1
่อ@@ 1
ียว 1
พร้อมกัน 1
ละลาย 1
จอด 1
ปีการศึกษา 1
ดอย 1
ต่าง@@ 1
ที่ทำการ 1
ขัง 1
ดาวฤกษ์ 1
ยม 1
หนาน 1
ไก่ 1
ปฏิวัติ 1
คนไทย 1
V@@ 0.24218806388521036
ขับร้อง 1
คุม 1
สุร 1
หมิง 1
ประสงค์ 1
รัฐประหาร 1
เลิศ 1
สอดคล้อง 1
อิเล็กตรอน 1
เบื้องหลัง 1
การออกอากาศ 1
ซ์@@ 1
ชะ@@ 1
เกษตรกรรม 1
พันธุกรรม 1
พิษณุโลก 1
กวน 1
รับใช้ 1
วัว 1
เหลี่ยม 1
องค์การบริหารส่วนตำบล 1
สัม@@ 1
เบิร์ก 1
แล้วจึง 1
ไทร 1
บิ@@ 1
สัมภาษณ์ 1
แปร@@ 1
งิ 1
ศาสนาพุทธ 1
หลิว 1
เช่า 1
กระสุน 1
ผัน 1
วัฒนา 1
ซอย 1
น็อค 1
โน@@ 1
ธนบุรี 1
เกินไป 1
เลิฟ 1
ลุ@@ 1
พร้อมทั้ง 1
ล่มสลาย 1
พรรค@@ 1
ศิษย์ 1
หยาง 1
ตร 1
ปืนใหญ่ 1
แย@@ 1
สืบทอด 1
ทายาท 1
คติ 1
อย่างยิ่ง 1
ลำปาง 1
ศาสนาคริสต์ 1
แสดงถึง 1
โฟร์ 1
อภิ@@ 1
โดยมาก 1
ย่อม 1
อาญา 1
ฮัน@@ 1
แผนที่ 1
— 0.03615037131881948
ซีเรีย 1
เซียน 1
คราว 1
ทารก 1
2529 1
จุฬา 1
ชนมายุ 1
อย่างเช่น 1
้ำ 1
ปี่ 1
ผู้ฝึกสอน 1
ผู้สมัคร 1
ริชาร์ด 1
โคน 1
เต่า 1
ทั้ง@@ 1
อุดม 1
เกา 1
เรื่องย่อ 1
ฮินดู 1
จู@@ 1
สิ่งก่อสร้าง 1
ยี 1
บรรพบุรุษ 1
บ้านเมือง 1
อุบลราชธานี 1
ษา 1
เท่ากัน 1
โต๊ะ 1
,@@ 1
38 1
บาน 1
วุฒิ 1
เป็นประจำ 1
แค้น 1
ได้ที่ 1
ับ@@ 1
๊ 1
ครอบครอง 1
สีน้ำเงิน 1
เป็นเจ้าภาพ 1
/@@ 1
ที่สี่ 1
เร็@@ 1
โรมาเนีย 1
คริสตจักร 1
นิว@@ 1
พืชดอก 1
วิศวกรรม 1
เสียหาย 1
ฉัตร 1
ยูโร 1
เทิร์น 1
หมู 1
อัคร 1
2518 1
p 0.4920238746156806
ก๊@@ 1
ซึ 1
อวัยวะ 1
เจ้านาย 1
นิวซีแลนด์ 1
ประเมิน 1
c 0.41297867785937403
พอล 1
ประโยค 1
ว่า@@ 1
บัญชี 1
การตอบรับ 1
ต่อกัน 1
ต้าน 1
หลอดเลือด 1
เน็ต 1
ชิ@@ 1
มง 1
กิน@@ 1
ศิลา 1
ฮิต 1
ขี้@@ 1
จิตวิทยา 1
สห 1
บัลลังก์ 1
วก 1
สนามบิน 1
โพ@@ 1
ปิ 1
นม 1
ราชินี 1
ครั้งสุดท้าย 1
อาณา 1
เกลือ 1
ไบ@@ 1
C@@ 0.2261061418065884
ประจำการ 1
็ง@@ 1
โยะ 1
2530 1
กล่าวคือ 1
พระเยซู 1
เกียรติยศ 1
เงา 1
2532 1
หัวเมือง 1
๒ 1
ชี@@ 1
ดิจิทัล 1
ทวี 1
พิชิต 1
ไตร@@ 1
อัง 1
กุหลาบ 1
ดาวเทียม 1
เป็นงาน 1
สุทธิ 1
็อง@@ 1
อาหาร@@ 1
ล้มเหลว 1
หะ 1
วัยเด็ก 1
ฮุ@@ 1
37 1
กู้ 1
เอะ 1
ซ่อน 1
ตามกฎหมาย 1
พระมารดา 1
1,000 1
ราษฎร 1
แรง@@ 1
ชนนี 1
โปเกมอน 1
โฟ 1
คลาสสิก 1
พัฒน 1
มิด 1
เจาะ 1
สวัสดิ์ 1
บึง 1
ฮิตเลอร์ 1
ลุง 1
แล้ 1
คลินิก 1
ทางการแพทย์ 1
ทางเดิน 1
มีมติ 1
ปาก@@ 1
ดอก@@ 1
นนทบุรี 1
นามสกุล 1
แลน 1
รด 1
แรม 1
เหรียญรางวัล 1
แคน 1
ลัส 1
ที่อยู่อาศัย 1
ต้อง@@ 1
ปิด@@ 1
โชกุน 1
ดุ 1
ขึ้น@@ 1
ทิเบต 1
ผิวหนัง 1
เสา@@ 1
ม่วง 1
ลาด 1
ตง 1
ก่อตัว 1
กั้น 1
นักมวย 1
นักวิจัย 1
สมัครเล่น 1
ความหลากหลาย 1
สาธารณสุข 1
็ต 1
พลเรือน 1
1991 0.3529114078936535
ต้นฉบับ 1
บัญชีรายชื่อ 1
วันอาทิตย์ 1
วอน 1
ในเครือ 1
หัก 1
ขัด@@ 1
ไหม 1
2519 1
่าย 1
1994 0.346719519495085
ภาษาจีน 1
มนตรี 1
เสด็จพระราชดำเนิน 1
ฎ 1
ประชา 1
อนุ 1
คลา 1
ทีน 1
สถาปนิก 1
ณฑ@@ 1
สน 1
ลอน 1
ใดๆ 1
การพิจารณา 1
การเรียนรู้ 1
จัดจำหน่าย 1
หง@@ 1
หลีกเลี่ยง 1
แลก 1
เบอร์ลิน 1
เหลืออยู่ 1
นัม 1
al 0.056772549523363934
ปรัสเซีย 1
สมา 1
2522 1
ึก@@ 1
โขง 1
ทว่า 1
แกรมมี่ 1
us 0.2499851399485112
กรมหลวง 1
ู้ 1
แบบนี้ 1
้อย 1
ก้อน 1
ประสาน 1
บันได 1
ฐ 1
นายทหาร 1
อัศวิน 1
ขวาง 1
เกล@@ 1
ใช้กับ 1
คล้ายคลึง 1
สิ้น@@ 1
โส@@ 1
เพียงพอ 1
ผู้เชี่ยวชาญ 1
มิน@@ 1
“@@ 1
กำ@@ 1
ลวดลาย 1
เกร@@ 1
โปรดิวเซอร์ 1
้ย 1
กระบวน 1
ฉะนั้น 1
อาร์เจนตินา 1
บริติช 1
จิต@@ 1
ตารางวา 1
ร้อย@@ 1
เรียบเรียง 1
คำนวณ 1
ตลอดเวลา 1
ปล้ำ 1
พุทธศาสนา 1
ื่น 1
:@@ 1
ทางวิทยาศาสตร์ 1
เพิ่ง 1
นันท์ 1
สมทบ 1
is 0.01277889142747694
ผ่าตัด 1
ฮัม 1
ติดอันดับ 1
มืด 1
สมาชิกวุฒิสภา 1
เคลื่อนไหว 1
ตำรา 1
สะดวก 1
โฉม 1
75 0.976184308135689
J@@ 0.26270993383285957
เหน@@ 1
เร่ง 1
กวี 1
บุคลากร 1
จดทะเบียน 1
ซีน 1
สไตล์ 1
ไลท์ 1
็ด@@ 1
ปฐม 1
ชีวภาพ 1
ทักษิณ 1
หมายความว่า 1
จนได้ 1
ดื่ม 1
ปลอดภัย 1
สถาน@@ 1
อัญเชิญ 1
เนิน 1
โดยปกติ 1
ตสึ 1
1,@@ 1
จ้าง 1
นารี 1
อาย 1
เวียงจันทน์ 1
สู@@ 1
อิก 1
นาฬิกา 1
ยับยั้ง 1
เอ็ด 1
ได@@ 1
ลิป 1
เครื่องราชอิสริยาภรณ์ 1
เรียนรู้ 1
ร่วม@@ 1
ห้องเรียน 1
โห@@ 1
แอนิเมชัน 1
โบราณคดี 1
หุ้น 1
โต้ 1
ตรง@@ 1
ทอม 1
รัศมี 1
น้อยที่สุด 1
สวย 1
เสื่อม 1
รับเชิญ 1
ริเริ่ม 1
นักประวัติศาสตร์ 1
อากาศยาน 1
ผัก 1
แบ่งกลุ่ม 1
ไฟล์ 1
กรีฑา 1
แฮร์รี่ 1
ดัตช์ 1
ท็อป 1
สำนักงานใหญ่ 1
สกา 1
มหาสารคาม 1
กรอง 1
ปักกิ่ง 1
พายุหมุน 1
สป@@ 1
ร์ท 1
ช่อ 1
อุทยาน 1
โรเบิร์ต 1
2022 0.6983038477127717
ล้อมรอบ 1
รัต 1
อุทิศ 1
เทพเจ้า 1
ผู้อื่น 1
อาคารเรียน 1
งบ 1
2528 1
คลี 1
ถอด 1
ที่นั่น 1
ผสมผสาน 1
เมฆ 1
เกล 1
University 0.13483846969317326
บุรุษ 1
ม่า 1
พรรณ 1
1993 0.3499479055353962
บวช 1
ประชา@@ 1
พระภิกษุ 1
ฟอน 1
เขื่อน 1
มน@@ 1
นิติ@@ 1
ปะ 1
ลเล@@ 1
แบบจำลอง 1
สมเด็จพระ@@ 1
ที่ประชุม 1
55 1
ไรเดอร์ 1
สน@@ 1
an 0.018417038390997627
ที่นี่ 1
พัง 1
ร์ต 1
บันทึกเสียง 1
ครบรอบ 1
คูณ 1
สำ@@ 1
กัปตัน 1
พืช@@ 1
ฮู 1
ศรี@@ 1
เกาหลีเหนือ 1
พ่อแม่ 1
หัวหน้าพรรค 1
าะ 1
ทางวัฒนธรรม 1
งดงาม 1
ซัง 1
ำ 1
โบราณสถาน 1
1995 0.3247289695908452
ทิพย์ 1
เลต 1
คู่แข่ง 1
ปทุม 1
หุ่นยนต์ 1
เทพ@@ 1
เนื้อเยื่อ 1
โจโฉ 1
สุร@@ 1
ท์@@ 1
ออกซิเจน 1
เต็มไปด้วย 1
ียง@@ 1
เป็นโรค 1
้าว 1
ความหนาแน่น 1
บรรเลง 1
่าน 1
ส่วนภูมิภาค 1
กระดาษ 1
ชันษา 1
พัน@@ 1
ลิต 1
ผลักดัน 1
ลงโทษ 1
ลัก 1
วต 1
กัว 1
จ์ 1
มิต 1
รับรู้ 1
สาน 1
หม่อมราชวงศ์ 1
ประยุกต์ 1
อัตโนมัติ 1
าย 1
ญญา 1
ตอง 1
หลวงปู่ 1
ไปหา 1
จิง 1
โรมันคาทอลิก 1
จอง 1
บริเตน 1
บาร์เซโลนา 1
ลำต้น 1
เสนา 1
ฐาน@@ 1
Love 0.8570753538891409
อยู่@@ 1
ชื่นชอบ 1
เข้าเรียน 1
๒@@ 1
ควรจะ 1
ประกัน 1
พยัญชนะ 1
กอง@@ 1
ปอด 1
หั@@ 1
2525 1
นักท่องเที่ยว 1
สว@@ 1
เนียน 1
คว@@ 1
ร.@@ 1
บรรดาศักดิ์ 1
แอฟริกาใต้ 1
เกิ้ล 1
โทรศัพท์ 1
ต้นปี 1
รายการโทรทัศน์ 1
400 0.8057496817756657
บอ@@ 1
บรร@@ 1
มอบให้ 1
วิเศษ 1
ไพร 1
กระโดด 1
พระตำหนัก 1
หนี้ 1
นักวิจารณ์ 1
พ.@@ 1
ัง 1
ชุน 1
หมด@@ 1
เสื้อผ้า 1
.) 1
ด์@@ 1
ซัส 1
มน 1
ค้น 1
ตอนนี้ 1
ผู้พูด 1
2516 1
W@@ 0.20605240171258032
เห็นชอบ 1
ทซ์ 1
สลา 1
็น@@ 1
รว@@ 1
อยู่แล้ว 1
แหล่งข้อมูล 1
นิพนธ์ 1
พาณิชย์ 1
แช@@ 1
ละครใน 1
โรงภาพยนตร์ 1
กัง 1
ด้า 1
ที่ราบ 1
พระราม 1
รูปทรง 1
อิล 1
็กซ์ 1
นักรบ 1
ล์@@ 1
ฟต์ 1
เอ็@@ 1
ลาออก 1
อ้วน 1
สารประกอบ 1
กระท@@ 1
2523 1
U 0.4360102535987116
ปกคลุม 1
42 0.9814174106079965
นางแบบ 1
จี@@ 1
สื่อสาร 1
าน@@ 1
เพชรบุรี 1
โก้ 1
ไขมัน 1
ตัวเมือง 1
เป้า 1
เสนาบดี 1
ภูเขาไฟ 1
สเป@@ 1
รวมตัวกัน 1
2526 1
สงครามกลางเมือง 1
ทหาร@@ 1
ฟื้น 1
ระดับนานาชาติ 1
โควิด 1
็อก@@ 1
ตอน@@ 1
1988 0.376285232329644
ซึมเศร้า 1
สำนักงานเขต 1
นักบิน 1
ลูกค้า 1
แล้วเสร็จ 1
จัดงาน 1
นโปเลียน 1
ภร 1
ปริศนา 1
เซ็@@ 1
โรล 1
นอกเหนือจาก 1
นับว่า 1
ชุ 1
นับแต่ 1
ปฏิบัติหน้าที่ 1
สร้าง@@ 1
ไกร 1
ฆ 1
มาริ 1
แป้ง 1
สอบสวน 1
องค์กรปกครองส่วนท้องถิ่น 1
บุตรสาว 1
International 0.2869594726089949
จักรยาน 1
ชาล 1
ดุล 1
ร์ส 1
ร่วมสมัย 1
อาราม 1
สุรินทร์ 1
เอเชียนเกมส์ 1
กำลังจะ 1
วิทยา@@ 1
ได้รับการยกย่อง 1
ประเสริฐ 1
พาย 1
การตลาด 1
เข้าด้วยกัน 1
ลงคะแนน 1
สท์ 1
ได้รับบาดเจ็บ 1
มัด 1
๋ง 1
ซิก 1
ยามา 1
บัง@@ 1
หัวข้อ 1
ชาย@@ 1
โดยรอบ 1
ชั้นสูง 1
ขยายตัว 1
ทน 1
บริษัท@@ 1
รู@@ 1
ลด์ 1
ศาสตรบัณฑิต 1
สิง@@ 1
เสี่ยง 1
เรียบร้อย 1
กด@@ 1
เปิล 1
รัก@@ 1
หิ@@ 1
เรอ 1
แผน@@ 1
ได้รับอนุญาต 1
1989 0.34753268398210896
ขาด@@ 1
ไร@@ 1
้ม@@ 1
​@@ 1
2565 1
กุ้ง 1
เห็นด้วย 1
พรมแดน 1
หน้าต่าง 1
เข้มข้น 1
การตัดสินใจ 1
จัง 1
จุดประสงค์ 1
วิทยาการ 1
คงอยู่ 1
ตะวัน 1
นว 1
สายตา 1
แรงดัน 1
คุกคาม 1
จาน 1
ดีน 1
64 0.7924939020028409
โรจน์ 1
r 0.5612310671976718
มาย 1
แคบ 1
สเต@@ 1
ื้อ 1
รอย@@ 1
กี@@ 1
ทางเลือก 1
แป 1
39 1
ปลัด 1
แม่เหล็ก 1
กุฏิ 1
นำเข้า 1
ริม@@ 1
คู@@ 1
คุณหญิง 1
มาสู่ 1
เหรียญเงิน 1
". 1
ภัณฑ์ 1
ตับ 1
กล่าว@@ 1
คำแนะนำ 1
ระงับ 1
เฝ้า 1
เพลงชาติ 1
ไทม์ 1
็อง 1
ย็อง 1
เกน 1
้ว 1
เทป 1
2527 1
การปฏิบัติ 1
ถึงแม้ 1
แทนที่จะ 1
ทันสมัย 1
ล้ม 1
ฟฟ์ 1
1945 0.3323024365598553
ทั้งที่ 1
มป์ 1
อล@@ 1
อาน 1
่ว@@ 1
จากกัน 1
นักบวช 1
บล็อก 1
เอลิซาเบธ 1
2517 1
เรือง 1
คาร์บอน 1
ถอย 1
๓ 1
ขึ้นทะเบียน 1
ปุ่ม 1
เด็@@ 1
เปลี่ยน@@ 1
คลุม 1
ซีดี 1
ดยุค 1
e 0.1493163974433606
ค่อย 1
เรียบ 1
มด 1
เสรีภาพ 1
2524 1
ตรงกลาง 1
ตาก 1
มีระบบ 1
หลุม 1
ทำสงคราม 1
ม์ 1
วันหนึ่ง 1
โหวต 1
65 0.6385786379466732
ขวบ 1
ชิต 1
นักแต่งเพลง 1
เปล่า 1
สง@@ 1
คัล 1
เฉิน 1
เดีย 1
โดยสาร 1
พร@@ 1
โล่ 1
'@@ 1
ท่ามกลาง 1
หมัด 1
การคำนวณ 1
ฤกษ์ 1
อิฐ 1
2500 1
กฎ@@ 1
ทางแยก 1
สวด 1
เนื่องใน 1
เมล 1
ไลฟ์ 1
k 0.32426175333426127
ภั@@ 1
แปลก 1
มัธยม 1
แมน@@ 1
บอน 1
ฝ่ายสัมพันธมิตร 1
ผลลัพธ์ 1
เกษม 1
เหย้า 1
แย่ 1
ในขณะเดียวกัน 1
มัล@@ 1
พระชายา 1
พระอุโบสถ 1
ดาว@@ 1
สัง 1
เอนไซม์ 1
๒๕@@ 1
I@@ 0.254096382718229
สภาพแวดล้อม 1
หง 1
อัฟกานิสถาน 1
คนสำคัญ 1
คำตอบ 1
ราชบุรี 1
44 0.8355511942324362
o@@ 0.2467137556170045
วินัย 1
สส 1
ส้ม 1
ร้าง 1
แน่น 1
ใช้การ 1
ซม. 1
ดูเหมือน 1
ผิดปกติ 1
ช่อง@@ 1
บอก@@ 1
J 1
การประเมิน 1
ชิป 1
ผลประโยชน์ 1
คุก 1
ช่วยว่าการ 1
น้อยลง 1
พื้นดิน 1
หมาย@@ 1
ตามหา 1
พ. 1
พระราชวงศ์ 1
ฟิลิป 1
ลอร์ด 1
ผสมพันธุ์ 1
ละคร@@ 1
อนาคต 1
อย่า 1
อเล็กซานเดอร์ 1
ิล 1
ถา 1
มุ@@ 1
แอก 1
เฉลิมพระเกียรติ 1
ทุกข์ 1
มัสยิด 1
์) 1
คนโต 1
ุน 1
็ค@@ 1
คิดค้น 1
ดิส 1
อาทิตย์ 1
ดัก 1
เกียร์ 1
เลา 1
ความรับผิดชอบ 1
พราหมณ์ 1
เท่าที่ 1
ฉีด 1
สุก 1
กก 1
ปลดปล่อย 1
ปฏิรูป 1
สับสน 1
ตลอดกาล 1
ราษฎร์ 1
ใช้ประโยชน์ 1
ลพบุรี 1
ถือ@@ 1
นครปฐม 1
ปากีสถาน 1
ข้างเคียง 1
เสนาสนะ 1
วิกิพีเดีย 1
วินโดวส์ 1
สมัย@@ 1
150 0.9779601171421461
47 1
พาน 1
มลายู 1
รัล 1
หยวน 1
เกอร์ 1
เวลา@@ 1
คนละ 1
หันมา 1
อาชญากรรม 1
จมูก 1
มัน@@ 1
ศีล 1
2520 1
ทุกวันนี้ 1
ที่ทำงาน 1
ภาพเขียน 1
กองพล 1
ขนม 1
ธน 1
พระประธาน 1
รวมทั้งหมด 1
ร็อค 1
ลือ 1
นิ่ง 1
41 1
น้ำตก 1
หัน 1
คอม@@ 1
เที่ยว 1
โคก 1
ใช้ได้ 1
จนกว่า 1
ชิ้นส่วน 1
ปรา@@ 1
มิลลิเมตร 1
รร 1
ราชสมบัติ 1
สู 1
วารสาร 1
สมุทรปราการ 1
ยาย 1
วงษ์ 1
แซม 1
แวน 1
ชีววิทยา 1
มีน 1
เคารพ 1
You 0.615201514985199
กรมหมื่น 1
ดัม 1
มีเดีย 1
วอชิงตัน 1
สนุก 1
W 0.8511368670828989
ของเหลว 1
ถ่ายภาพ 1
เสมือน 1
ในกรณีที่ 1
ดอร์ 1
มม. 1
ing 0.09022367676500445
อีสาน 1
หุ@@ 1
เทวดา 1
ลุ่ม 1
เว้น 1
ขับเคลื่อน 1
ภูมิคุ้มกัน 1
สัก@@ 1
ไช 1
New 0.0805977899576727
สุดยอด 1
เวียน 1
20@@ 1
กระบี่ 1
ค้า 1
ชื่นชม 1
นักเตะ 1
u 0.2516200847422348
ชมรม 1
ข้อเสนอ 1
จิตรกรรม 1
บิ๊ก 1
บ้านเกิด 1
เสถียร 1
มัย 1
อฟ 1
แต่ละคน 1
เรียกกันว่า 1
มหานคร 1
การลงทุน 1
ชั้นมัธยมศึกษา 1
บร 1
วัย@@ 1
โกล@@ 1
ขโมย 1
ประทับใจ 1
ผูก 1
อ็อง 1
จูเนียร์ 1
แอม 1
โซ่ 1
ยุทธศาสตร์ 1
อนุรักษ์ 1
คัดค้าน 1
ดีเอ็นเอ 1
น้ำท่วม 1
โง 1
็บ 1
จำคุก 1
พอที่จะ 1
แทร@@ 1
โหมด 1
จรวด 1
ลงทุน 1
อุดรธานี 1
ี่ยว 1
มีพลัง 1
ล้าง 1
แพร่กระจาย 1
ท่อน 1
ธนู 1
ก๊ก 1
end 0.17136348742274454
ธา@@ 1
ลัง 1
ปะทะ 1
กราฟ 1
แพน 1
o 0.08783709931894143
ตั้งถิ่นฐาน 1
ตกเป็น 1
เช่นนั้น 1
2515 1
อุปสรรค 1
เลข@@ 1
ลัด 1
เจีย 1
เหรียญทองแดง 1
แห่งประเทศไทย 1
ดิบ 1
พี่สาว 1
แด่ 1
แปร 1
มหาวิทยาลัยเกษตรศาสตร์ 1
เก่ง 1
มอง@@ 1
อาวุโส 1
เป็นพิเศษ 1
บรรลุ 1
ความดัน 1
เทนนิส 1
l 0.07383665836886096
ก่อ@@ 1
ขั้นตอนวิธี 1
ถอน 1
ทวีปเอเชีย 1
ฝึกหัด 1
มกุฎราชกุมาร 1
นพ 1
กรี@@ 1
รีบ 1
ถ 1
พุ 1
สำรอง 1
หมาก 1
แฟชั่น 1
อาเซียน 1
ี่ย 1
แบ่งแยก 1
วู@@ 1
ฮอต 1
แยกตัว 1
1984 0.36966663926006027
หู@@ 1
เตะ 1
เมื่อ@@ 1
กรีน 1
บี้ 1
ค. 1
ลุย 1
สมดุล 1
สมุทร 1
สิบสอง 1
เท่า@@ 1
้อ@@ 1
พระนครศรีอยุธยา 1
อิม 1
ความตาย 1
U@@ 0.2720046612313435
กาแฟ 1
จำแนก 1
รำ@@ 1
ทอง@@ 1
ประกาศใช้ 1
ทางเข้า 1
พื้นบ้าน 1
แข็งแรง 1
ภูมิประเทศ 1
ร่อง 1
เครือ 1
ดังที่ 1
ตรัส 1
พู 1
ยิ่งขึ้น 1
รณ 1
อภิ 1
โชค 1
น์@@ 1
สลัก 1
ปะ@@ 1
ตอนนั้น 1
รากฐาน 1
1950 0.39289250016918487
ก๊าซ 1
สหรัฐฯ 1
หัก@@ 1
กลยุทธ์ 1
ฟินแลนด์ 1
ือน 1
แปลก@@ 1
ึก 1
กัล 1
ปู่ 1
เพียงแต่ 1
คัด 1
เกิดเหตุ 1
ถึงแก่กรรม 1
ยอน 1
สภานิติบัญญัติ 1
!" 1
คะแนนเสียง 1
เหลียง 1
ทิน 1
เมรุ 1
ต้นแบบ 1
สมาพันธ์ 1
ความจำ 1
ประชาสัมพันธ์ 1
ดีเด่น 1
ด้วยเหตุนี้ 1
วน@@ 1
อธิบดี 1
เดีย@@ 1
ในเวลานั้น 1
พบเห็น 1
ดุสิต 1
กองทหาร 1
แตก@@ 1
ซีเกมส์ 1
ปัสสาวะ 1
เจ้าจอมมารดา 1
แท่น 1
วิพากษ์วิจารณ์ 1
สละ 1
หมา@@ 1
เป็นช่วง 1
II 0.1592647715035077
กางเขน 1
ถา@@ 1
ทางทิศใต้ 1
เหย@@ 1
กรร 1
ธาร 1
ข้างต้น 1
ข่าน 1
ถูกจับ 1
บัลแกเรีย 1
อุตรดิตถ์ 1
แทรก 1
ลัม 1
กุน 1
ื่อย 1
หญิงสาว 1
โส 1
h 0.2996233835484251
ผิด@@ 1
ภูเก็ต 1
มติ 1
หยุด@@ 1
แหวน 1
โนน 1
á 0.8185732858249372
กองเรือ 1
คัง 1
ตอนต้น 1
พระบาทสมเด็จพระมงกุฎเกล้าเจ้าอยู่หัว 1
กว@@ 1
นัล 1
เป็นลำดับ 1
โยน 1
เวทมนตร์ 1
กลับคืน 1
พ่อค้า 1
ท้า 1
มีผลต่อ 1
ใบหน้า 1
2521 1
จีเอ็มเอ็ม 1
ทหารราบ 1
ปริญญาเอก 1
ส่วนท้องถิ่น 1
เจ้าคณะ 1
ใ@@ 1
ก้าวหน้า 1
ู่@@ 1
ซ่ง 1
ติง 1
สามก๊ก 1
ดัชเชส 1
ตะวันตกเฉียงเหนือ 1
เรียล 1
โคลน 1
ผนวก 1
ขัดขวาง 1
มาศ 1
อนึ่ง 1
หนาแน่น 1
กก. 1
สมาธิ 1
ชักชวน 1
ว่าง 1
ฉุกเฉิน 1
บัล 1
วัง@@ 1
สัน@@ 1
ขนาน 1
นครสวรรค์ 1
ืด 1
หน้ากาก 1
ค้า@@ 1
ชุม@@ 1
ธุ@@ 1
สึ@@ 1
แขนง 1
ตะวันตกเฉียงใต้ 1
ฟอร์ม 1
ลอบ 1
ศาสนาอิสลาม 1
เวิร์@@ 1
แอตแลนติก 1
ปราศจาก 1
ส่วนผสม 1
ี้ย@@ 1
กลืน 1
ถกเถียง 1
้าง 1
;& 1
ปน 1
ละครเวที 1
เนอร์ 1
กิตติ 1
ทุน@@ 1
บ้า 1
คลัง 1
ปั้น 1
Best 0.5572623804283446
ยิ่ง@@ 1
ไลน์ 1
ชั้นนำ 1
ปาร 1
ate 0.17284372507974863
พัก@@ 1
พิง 1
รุ่งเรือง 1
แหล่งน้ำ 1
ูล 1
Z@@ 0.20768082292074233
วิกตอเรีย 1
ไพ@@ 1
ี่ยง 1
เนียม 1
เลื่อนชั้น 1
46 0.985752001705965
ความเข้าใจ 1
พังก์ 1
วันนี้ 1
ฉลาด 1
เจ็บ 1
เพื่อน@@ 1
2512 1
วิจิตร 1
พราน 1
สเตอร์ 1
สแต@@ 1
๔ 1
ไข้ 1
ปัน 1
พับ 1
สล@@ 1
ข้อหา 1
ถัดไป 1
ลม@@ 1
ลิตร 1
แน่ชัด 1
ยูนิ@@ 1
เนล 1
คัส 1
แต่งเพลง 1
ต้ม 1
อำ@@ 1
ทหารเรือ 1
สกัด 1
พุทธศตวรรษ 1
วุ@@ 1
การถ่ายภาพ 1
ที่ทาง 1
มห@@ 1
เครื่องดนตรี 1
พุธ 1
อาร์@@ 1
ูด 1
ation 0.15210469284314646
สิ่งของ 1
็ท 1
1986 0.33739174415696577
ทรา@@ 1
ภาพถ่าย 1
y@@ 0.25948857850028284
สุ่ม 1
สูญ 1
๕ 1
ตัวนำ 1
ต่างชาติ 1
โจร 1
หมายเหตุ 1
็อต 1
49 1
ดาราจักร 1
ดวง@@ 1
พรรคเพื่อไทย 1
เนื้อร้อง 1
โมเดล 1
or 0.036384633896346705
อารยธรรม 1
ครัว 1
พบกัน 1
มุ่งหน้า 1
)) 1
พูดถึง 1
เนชันแนล 1
เบีย 1
52 0.9118919596335452
ฟ้า@@ 1
หวง 1
เนะ 1
เม็ด 1
ลอสแอนเจลิส 1
ทุ 1
ปูน 1
ผู้ใด 1
สุดา 1
รต 1
วี่ 1
ประจุ 1
สอ 1
43 0.9462271154793717
ความคิดเห็น 1
ด็@@ 1
ตะวันออกเฉียงใต้ 1
เหตุ@@ 1
น่าสนใจ 1
หมี 1
เชล 1
เฟร 1
เริ่มแรก 1
แนวร่วม 1
สตา@@ 1
สภา@@ 1
เผ@@ 1
มาดริด 1
สุพรรณบุรี 1
กระทรวงกลาโหม 1
วิศวกร 1
จุน 1
เซฟ 1
ความลับ 1
อ่อนแอ 1
ซัล@@ 1
บุนนาค 1
ปร 1
มีประโยชน์ 1
2513 1
ผ่าน@@ 1
การตาย 1
ฉา@@ 1
ชินวัตร 1
ตั้งครรภ์ 1
๊ด 1
ความผิด 1
ตรงกันข้าม 1
ภายในประเทศ 1
รอบ@@ 1
รัด 1
เมือง@@ 1
แดด 1
ศาลาการเปรียญ 1
สิทธิ@@ 1
เวีย 1
เสร็จสิ้น 1
แผง 1
”@@ 1
ดับ@@ 1
2514 1
ครัวเรือน 1
รณรงค์ 1
ระบบประสาท 1
โดะ 1
การกำกับ 1
สัตว์@@ 1
เวอร์@@ 1
จิ๋ว 1
ปทุมธานี 1
มาร@@ 1
ส่วนกลาง 1
4,@@ 1
ทางราชการ 1
บริหารงาน 1
เป็นเหตุให้ 1
ไหลผ่าน 1
เกิร์ล 1
เผชิญ 1
ชนชั้น 1
ดาวน์ 1
ร่ม 1
ลาด@@ 1
แต่อย่างใด 1
1940 0.4105532311971652
Music 0.37681664978664947
พระบรมราชโองการ 1
รายนาม 1
แฟ 1
? 0.3625952640242214
ชล 1
ตอบรับ 1
ทัต 1
ยี่ 1
เช็ก 1
จัตุรัส 1
ชิล 1
วิว 1
แฟนตาซี 1
ผู้สำเร็จราชการ 1
ผู้เขียน 1
แบล็ก 1
บ้านเรือน 1
ยอดนิยม 1
ลงวันที่ 1
เพียง@@ 1
เหมาะ 1
คาทอลิก 1
วย@@ 1
เปา 1
2475 1
ชรา 1
ฝรั่ง 1
ลต์ 1
เรต 1
แคล@@ 1
ชิง@@ 1
วิกฤต 1
ทดแทน 1
ยิ@@ 1
ตัวตน 1
บทเพลง 1
ผลผลิต 1
บะ@@ 1
ชั้นใน 1
หากิน 1
เกล็ด 1
กองทุน 1
เพรส 1
แผล 1
n@@ 0.19928105428825704
จม 1
ริว 1
ลอง@@ 1
เพาะ 1
กรัม 1
มอเตอร์ 1
เรียกชื่อ 1
ถล่ม 1
การรับรู้ 1
ทูล 1
นว@@ 1
ปัตตานี 1
ลงสมัครรับเลือกตั้ง 1
แสวงหา 1
เก็ต 1
2,000 1
นวล 1
ประธานกรรมการ 1
ฟีฟ่า 1
อวอร์ด 1
นิวเคลียส 1
รวมตัว 1
บาป 1
ยากจน 1
สนาม@@ 1
ผัง 1
ร้ายแรง 1
สถานศึกษา 1
กรุ๊ป 1
ซื่อ 1
มอสโก 1
ชุม 1
ปฏิบัติงาน 1
สิงโต 1
บพิตร 1
ประติมากรรม 1
แรกเริ่ม 1
โชติ 1
หลุด 1
ใย 1
กล่อง 1
ฮอ@@ 1
แห@@ 1
กรุงธนบุรี 1
จน@@ 1
ประหาร 1
ภาษาละติน 1
ขัดแย้ง 1
คำร้อง 1
จัดหา 1
อนา@@ 1
แกะ 1
กิ่งอำเภอ 1
ภัทร 1
เบอร์@@ 1
ตอนปลาย 1
ทาวน์ 1
บาทหลวง 1
ปัก@@ 1
เรีย@@ 1
๐ 1
School 0.15441360022441025
ชร 1
ลี้ภัย 1
เรื่อยๆ 1
ชื่อจริง 1
ศักยภาพ 1
Y 0.7683326199997754
ยอดเขา 1
อังคาร 1
อำนวยการ 1
โรคมะเร็ง 1
ตย์ 1
เล็บ 1
แม่นยำ 1
53 1
ธนา 1
ส่งสัญญาณ 1
แผ่นดินใหญ่ 1
จินดา 1
จิ้น 1
ฟอร์@@ 1
ระดับโลก 1
อุปสมบท 1
กุมาร 1
คค 1
รบกวน 1
วงโคจร 1
เนื่องด้วย 1
กรุ 1
อาร์เซนอล 1
ไฮโดรเจน 1
ชำ@@ 1
เชียร์ 1
=" 1
ภูมิอากาศ 1
แนว@@ 1
ความทรงจำ 1
เลขานุการ 1
ความจุ 1
งส์ 1
บางแห่ง 1
ประทาน 1
ผูก@@ 1
วุฒิสภา 1
ไร้@@ 1
ขาย@@ 1
ตุลาการ 1
ปรับเปลี่ยน 1
พิกัด 1
1987 0.3143221775594843
g 0.3072245237262624
อัม 1
ึ 1
การทูต 1
ควีน 1
ทธ@@ 1
ปัจจุบันนี้ 1
ยุค@@ 1
um 0.08895003989369009
กิง 1
เบิร์น 1
แท่ง 1
สัตว์เลี้ยงลูกด้วยนม 1
เหมา 1
begin 1
การบุก 1
โคจร 1
"( 1
72 1
สงวน 1
ือง 1
95 1
ฆ่าตัวตาย 1
บร@@ 1
ทำพิธี 1
ภคินี 1
ทิศใต้ 1
เคร@@ 1
เป็นสาเหตุ 1
al@@ 0.17248241416517252
กำ 1
สติ@@ 1
หลวง@@ 1
การฟื้นฟู 1
ข่ม@@ 1
องค@@ 1
อภัย 1
เวส 1
หิมะ 1
ตัวแปร 1
พฤหัสบดี 1
ิด@@ 1
ทีมงาน 1
ท้องฟ้า 1
นักแสดงหญิง 1
เชื้อชาติ 1
เอนเตอร์เทนเมนต์ 1
จัดสรร 1
ระบบ@@ 1
หงส์ 1
้อง 1
คัน@@ 1
ทางวิชาการ 1
ผึ้ง 1
มัง@@ 1
ยกระดับ 1
เผย 1
งานการ 1
ลำพูน 1
ห่วง 1
อารี 1
เตา 1
มากเกินไป 1
โมะ 1
มาร์ค 1
ไส@@ 1
Y@@ 0.28325279598305503
วิตามิน 1
สะกด 1
เขต@@ 1
เข็ม 1
2,@@ 1
กรมศิลปากร 1
นทร์ 1
สง 1
เมอร์ 1
ฝาก 1
สมควร 1
คลับ 1
เซ็นเตอร์ 1
54 0.9786382271745389
พยากรณ์ 1
คลื่น@@ 1
ถอนตัว 1
มหาศาล 1
โฟน 1
่าย@@ 1
aceae 1
ยาเสพติด 1
หมา 1
เซอร์เบีย 1
ระบาย 1
ล้ม@@ 1
วิทย์ 1
เป็นไปตาม 1
โกลด์ 1
กองกลาง 1
99 1
บาย 1
ความกำกวม 1
ตกรอบ 1
ระดับน้ำทะเล 1
อนุสาวรีย์ 1
อายุ@@ 1
อำนวย 1
แคระ 1
กรี 1
จุล@@ 1
ดึงดูด 1
มาร์ก 1
อส์ 1
จับคู่ 1
ชาตินิยม 1
เทค 1
51 0.9030429614690304
r@@ 0.20806246964744865
คงที่ 1
รอง@@ 1
เนปาล 1
เอิร์ล 1
การจับสลาก 1
ท่า@@ 1
ตัส 1
ในแง่ 1
กบ 1
ดอลลาร์ 1
ประถม 1
สื่อมวลชน 1
คาด@@ 1
นัง 1
บำบัด 1
แลง 1
f 0.4648292927451494
รถไฟใต้ดิน 1
เมทัล 1
แถลง 1
บัก 1
120 1
เป็นรอง 1
บัติ 1
เห็นได้ชัด 1
นิสิต 1
ลน 1
มิใช่ 1
รอดชีวิต 1
ร้านอาหาร 1
1985 0.3122840128859421
ปริ 1
ระดับชั้น 1
คลอด 1
ฉลาม 1
ธี@@ 1
กฎหมาย@@ 1
เดิล 1
ธาน 1
นางสาว 1
มุง 1
ียด 1
เป็นแนว 1
แบ็ก 1
่วง@@ 1
เครื่องดื่ม 1
แบรนด์ 1
คาถา 1
คำถาม 1
งา@@ 1
สัต@@ 1
สารสนเทศ 1
งด 1
1.5 1
สันสกฤต 1
สั่งการ 1
ร้า 1
สรร@@ 1
วร์ 1
หาด 1
ชาวเมือง 1
ซีซั่น 1
แกะสลัก 1
3,@@ 1
ชาร์ลส์ 1
นิล 1
ื่@@ 1
ประสิทธิ์ 1
สามเหลี่ยม 1
เหนียว 1
ประกอบอาชีพ 1
ิ่น 1
ใด@@ 1
ที่แล้ว 1
ณรงค์ 1
ตร. 1
ตลาด@@ 1
อัต 1
แฟร์ 1
รสชาติ 1
อ้อม 1
เขตแดน 1
เอ็น@@ 1
ภูมิพล 1
หุบเขา 1
อบอุ่น 1
ออตโตมัน 1
ไบรอัน 1
สมาชิกสภา 1
สุขาภิบาล 1
ื่อ@@ 1
ซ่อมแซม 1
นายแพทย์ 1
มล@@ 1
หลัง@@ 1
ียส 1
เทา 1
2511 1
at 0.015046975928027877
ชื้น 1
อธิการบดี 1
โดร 1
ชัก 1
สาธารณชน 1
แจ 1
ทู@@ 1
บอนด์ 1
พระธรรม 1
ศูนย์@@ 1
เชี่ยวชาญ 1
เบียร์ 1
800 0.9640476534825531
พึ่ง 1
สบาย 1
หฺ 1
ี้ยน 1
เดียน 1
ชิด 1
ประกาศนียบัตร 1
ศรีสะเกษ 1
57 1
ปานกลาง 1
อัต@@ 1
ซือ 1
สโตน 1
เผชิญหน้า 1
แขก 1
X@@ 0.46995072725792336
หันไป 1
อัลบัม 1
ซัว 1
ประเทศ@@ 1
ลังกา 1
อนุสรณ์ 1
ตาล 1
บางกอก 1
สีเทา 1
ฝั่งทะเล 1
อนุบาล 1
ี่@@ 1
รุ่นใหม่ 1
ัส 1
แจ็กสัน 1
แต่กลับ 1
แท 1
ทะลุ 1
อนุกรม 1
มาลี 1
ึง 1
กำลัง@@ 1
จริงจัง 1
ฒ@@ 1
ระยะแรก 1
1972 0.3273168775372856
ดิสนีย์ 1
พระนารายณ์ 1
มอบหมาย 1
รับหน้าที่ 1
หนองคาย 1
ซัม 1
ขันธ์ 1
ระยะยาว 1
เสน 1
ทธิ 1
แฮร์ 1
นรก 1
ปุระ 1
ไอดอล 1
ขณะเดียวกัน 1
สืบเชื้อสาย 1
ส่วนพระองค์ 1
เอียง 1
ขีด@@ 1
บีบ 1
ทางการเงิน 1
มาสเตอร์ 1
อีกต่อไป 1
เบอ 1
ไปมา 1
ฆาตกรรม 1
พ่าย 1
ป่าไม้ 1
สอด@@ 1
เพล@@ 1
อสูร 1
จตุ@@ 1
ทวีปแอฟริกา 1
โกศ 1
2505 1
คีรี 1
ทางทะเล 1
ลอก 1
สุราษฎร์ธานี 1
เลี้ยงดู 1
in@@ 0.10880405190627089
สเซิล 1
อาสา 1
แก๊ง 1
ปาเลสไตน์ 1
56 0.9824120327677891
ทัล 1
พาร์ก 1
ศุภ 1
ไพร@@ 1
ลึกลับ 1
่ำ@@ 1
๊ค 1
นิคม 1
พระบรม@@ 1
พำนัก 1
พิธีกรรม 1
600 0.9161730029394684
จร 1
TV 0.29399175308640135
วัตร 1
ี่ยน 1
พระราชกฤษฎีกา 1
ลิ้น 1
เตียง 1
เถระ 1
ชื่อเสียง 1
วาล 1
สปอร์ต 1
สันติ 1
จุดเด่น 1
่วง 1
ดัชนี 1
ผู้ว่าการ 1
มองโกล 1
สเตชัน 1
หลง@@ 1
เชือก 1
ๆ@@ 1
จิก 1
สมภพ 1
จอร์เจีย 1
สัญญา@@ 1
เมา@@ 1
ic 0.3354701154962269
นั้นๆ 1
เคิล 1
v 0.5887828230555222
จันทบุรี 1
แมนเชสเตอร์ 1
คอร์@@ 1
สามัคคี 1
พอร์ต 1
หลอก 1
ดิก 1
ทำนาย 1
บุตร@@ 1
พลา@@ 1
สังเกตการณ์ 1
หลิน 1
ฟอง 1
ยามะ 1
เอฟเอคัพ 1
แผ@@ 1
ถือได้ว่า 1
พยา@@ 1
ย้อน 1
อดุลยเดช 1
กระจ@@ 1
คุณธรรม 1
สุวรรณภูมิ 1
โห 1
ผัก@@ 1
หอ@@ 1
เฟอร์@@ 1
2503 1
ปัก 1
อาชีวศึกษา 1
มาร์ติน 1
ศุ@@ 1
ตซ์ 1
ครองเมือง 1
ครึ่งหนึ่ง 1
ปก@@ 1
ลักเซมเบิร์ก 1
เป็นส่วนใหญ่ 1
ทอ@@ 1
น้ำมัน@@ 1
ฟ์ 1
หาว่า 1
ต้านทาน 1
หมึก 1
นักธุรกิจ 1
รูปปั้น 1
ล์ม 1
หยก 1
กลา@@ 1
ทูบ 1
แต่ทว่า 1
ราชสกุล 1
10,000 1
85 0.9470382042179136
ia 0.23041516045164248
บกพร่อง 1
เพลง@@ 1
กาญจนบุรี 1
ผืน 1
มนต์ 1
มั่น 1
ยกตัวอย่างเช่น 1
รพิ 1
รีต 1
แผ่ 1
ตะกอน 1
นอง 1
ลำน้ำ 1
วีระ 1
บัญชา 1
สามเณร 1
แอนน์ 1
ไหว 1
นักโทษ 1
สุริยุปราคา 1
อาสาสมัคร 1
เอม 1
กระจุก 1
รักษาโรค 1
วางไข่ 1
ศรีลังกา 1
เสียใจ 1
โกส 1
ไทย@@ 1
ณิ@@ 1
สนามแม่เหล็ก 1
โดยเฉลี่ย 1
ช่วงนี้ 1
เรื่อง@@ 1
2499 1
2510 1
58 0.9811415044391477
Z 0.833057086044336
วิลล์ 1
สารคดี 1
เศ@@ 1
นิทรรศการ 1
บทประพันธ์ 1
บูรพา 1
ปรีชา 1
ผู้ดูแล 1
ล่วงหน้า 1
หมวก 1
ิก 1
กาฬสินธุ์ 1
ชาวนา 1
สูญพันธุ์ 1
กล้วย 1
สารเคมี 1
ฮอร์โมน 1
เยน 1
เลี้ยง@@ 1
ine 0.2264830565082438
กอ@@ 1
การอนุรักษ์ 1
เชลซี 1
มั่นคง 1
พายุไต้ฝุ่น 1
สมุ@@ 1
ขั@@ 1
นานา 1
ประมง 1
สว 1
นอร์ท 1
มัธยมศึกษาตอนปลาย 1
ยังอยู่ 1
ษฐ์ 1
ประจำตัว 1
หาง@@ 1
เป็นที่ยอมรับ 1
แบ่ง@@ 1
ไอออน 1
บรรณาธิการ 1
ร์ล 1
ดจ์ 1
มุนี 1
แหล่ง@@ 1
วส์ 1
าน 1
เจ้าภาพ 1
การวินิจฉัย 1
ปกรณ์ 1
พาร์ 1
มอล@@ 1
ยิ้ม 1
สม่ำเสมอ 1
อัป@@ 1
มีความรู้ 1
มุ่งเน้น 1
สตอ 1
หม้อ 1
่าง@@ 1
กันเอง 1
จารย์ 1
พฤ@@ 1
ยุติธรรม 1
สรรพ@@ 1
อภิปราย 1
ูน 1
National 0.11217803230978829
ขัด 1
คลาย 1
คำสอน 1
ล้าง@@ 1
จอร์แดน 1
นร 1
ไว้@@ 1
โค้ช 1
โรงละคร 1
บรรทุก 1
บริหารธุรกิจ 1
บิต 1
ยินดี 1
่อง@@ 1
คณะกรรมาธิการ 1
หม้อ@@ 1
on@@ 0.19689072076148162
ค้าง 1
หลั่ง 1
โกรธ 1
1983 0.3025386425042559
ียร 1
ี้@@ 1
เก็บรักษา 1
เค้า 1
com 1
เกรด 1
เคล@@ 1
เปียโน 1
i@@ 0.23196186695141255
ทรงกลม 1
สาวก 1
แพร@@ 1
เสี้ยว 1
แกนนำ 1
ทด 1
บ์ 1
สงครามโลกครั้งที่หนึ่ง 1
ครบ@@ 1
น้ำจืด 1
อินทรีย์ 1
ักษ@@ 1
ชนก 1
ทุกๆ 1
บ้านพัก 1
ไหล่ 1
2498 1
คำวิจารณ์ 1
มอ@@ 1
มิส@@ 1
วู 1
เบิร์ต 1
อุปถัมภ์ 1
พูน 1
เฟร@@ 1
โว@@ 1
๓@@ 1
ที่พัก 1
มีส่วนร่วม 1
ทริป 1
อิสรภาพ 1
จักร@@ 1
พรหม@@ 1
เผด็จการ 1
วิชา@@ 1
โพรง 1
ช่องแคบ 1
เพล 1
โพสต์ 1
กระทรวงสาธารณสุข 1
ขาดแคลน 1
สหพันธรัฐ 1
ตามปกติ 1
พันธุ์@@ 1
ระดับชาติ 1
ชัก@@ 1
เซี่ยงไฮ้ 1
กระจายเสียง 1
พะเยา 1
สิทธิมนุษยชน 1
ส์, 1
หนาม 1
ทาย 1
ศักราช 1
เฮาส์ 1
ชำระ 1
วีร 1
หน่วย@@ 1
หน้าตา 1
ทะเลทราย 1
ผลึก 1
สวม@@ 1
สี่เหลี่ยม 1
ท้ายที่สุด 1
แบนด์ 1
ถุง@@ 1
ปรุง 1
ลอบสังหาร 1
ชิลี 1
ดูด 1
สมา@@ 1
เอเอฟ 1
โพธิ 1
th 0.351431257857785
ข่าย 1
ยอมให้ 1
รำ 1
2508 1
คาน 1
บรรจบ 1
แน 1
แอ่ง 1
พ่อ@@ 1
ศา 1
สูง@@ 1
เนต 1
แก้ปัญหา 1
1.@@ 0.66983572739518
ขณะนี้ 1
คุณค่า 1
ตีความ 1
บทกวี 1
ราว@@ 1
ซัล 1
ต้อนรับ 1
ทางกายภาพ 1
วรรณคดี 1
สมมติฐาน 1
อัตราส่วน 1
กติกา 1
ขั้นพื้นฐาน 1
ที่รัก 1
รอยัล 1
ส.@@ 1
.. 0.9185281189827977
สกลนคร 1
หน 1
โดม 1
ตัวจริง 1
พุ่ง 1
โรงเรียนมัธยม 1
ชุมพร 1
มิลาน 1
สมุนไพร 1
เสื่อม@@ 1
[@@ 1
ส่งออก 1
เดิมที 1
่อย 1
้อน 1
กัก@@ 1
ชั่ว 1
ตัม 1
นางเอก 1
บุญธรรม 1
ภพ 1
ละเมิด 1
เออ 1
ครอง@@ 1
ตอบแทน 1
ปืน@@ 1
63 1
66 0.9552266263210862
In 0.015402840854352715
จับตัว 1
สกาย 1
ิร์น 1
ียร์ 1
เหมือง 1
2506 1
ดิจิตอล 1
ท้าทาย 1
นีย์ 1
ศิ@@ 1
2.5 1
งานศิลปะ 1
ภาคี 1
1930 0.37135606447221675
59 1
นวัตกรรม 1
พิธี@@ 1
เกย์ 1
เคลือบ 1
๋น 1
จด 1
บาตร 1
แมนเชสเตอร์ยูไนเต็ด 1
My 0.65619098466402
ครั้ง@@ 1
นัย@@ 1
พลาสติก 1
เดอร์ 1
เตียว 1
1979 0.29581209951417986
ความเครียด 1
พิสัย 1
ีต 1
1968 0.30644211107241826
ครรภ์ 1
เครื่องจักร 1
67 1
กอล์ฟ 1
มหาวิทยาลัย@@ 1
กุมารี 1
กู@@ 1
การถ่ายทำ 1
ภาครัฐ 1
ร้อยเอ็ด 1
สูท 1
อย่าง@@ 1
ียว@@ 1
๊ก@@ 1
จอ@@ 1
เรือน@@ 1
กรุงรัตนโกสินทร์ 1
ความสุข 1
ภิ@@ 1
โลหิต 1
ข้า@@ 1
ซีก 1
พลอย 1
เพื่อนสนิท 1
โครง@@ 1
๊ะ 1
!@@ 1
บริหาร@@ 1
มีแนวโน้ม 1
ว์@@ 1
โทน 1
"; 1
ควบ 1
บิด 1
คฤหาสน์ 1
ตัวย่อ 1
นค 1
ลูกหลาน 1
ลูกเรือ 1
สตี 1
อัสสัมชัญ 1
ชาญ 1
พอดี 1
ลูกศิษย์ 1
สวดมนต์ 1
หมั้น 1
no 0.05264857812786317
ปาน 1
รุ่น@@ 1
ออกเดินทาง 1
ทิม 1
ปฏิกรณ์ 1
มุฮัมมัด 1
ห้องสมุด 1
one 0.03769001217313454
วงแหวน 1
อินโดจีน 1
5,@@ 1
งานแสดง 1
จิตร 1
ปลอม 1
สถานี@@ 1
เทียบเท่า 1
1920 0.36253249804157045
ทร์ 1
คาดการณ์ 1
เอ็ม@@ 1
โทร@@ 1
ไส้ 1
1982 0.28633374038958564
กระดูกสันหลัง 1
นิ้ว@@ 1
บดี 1
สูบ 1
เดา 1
# 0.4198106752213553
ก่อนคริสต์ศักราช 1
เปล 1
ใบอนุญาต 1
จักรี 1
ที่อื่น 1
ฟท์ 1
ยุทธ@@ 1
ให้กำเนิด 1
1981 0.2890587467752132
2501 1
ราชบุตร 1
3,000 1
Award 0.30355581858104425
ทางใน 1
วอ@@ 1
เก็น 1
คณะวิทยาศาสตร์ 1
ตุ๊กตา 1
ผง 1
สนทนา 1
สอบ@@ 1
กระทรวงการต่างประเทศ 1
เป็นเพื่อน 1
ติดกัน 1
ถือกำเนิด 1
สถิต 1
เนา 1
ทั้งปวง 1
ยูโกสลาเวีย 1
อินทร์ 1
เทศบาลนคร 1
g@@ 0.15958334161803384
ค้าขาย 1
พงศาวดาร 1
พระเอก 1
เจได 1
ไดโนเสาร์ 1
ดัล 1
ผู้ว่าราชการ 1
ชายหาด 1
ซามูไร 1
ราชกิจจานุเบกษา 1
องค์การ@@ 1
ปลงพระชนม์ 1
ให้ความสำคัญ 1
1976 0.2984108013576971
ข้าศึก 1
ดีวีดี 1
ฟา@@ 1
สำนักนายกรัฐมนตรี 1
ฮีโร่ 1
ฤ 1
สสาร 1
เนรเทศ 1
นินจา 1
* 0.14569833351950076
1964 0.33299220638916777
คาบ 1
ถอย@@ 1
ทีเดียว 1
เทว 1
แทน@@ 1
ตะเภา 1
บิน@@ 1
กลอน 1
ขยาย@@ 1
ผิดพลาด 1
มหาวิทยาลัยมหิดล 1
ยิงประตู 1
ความฝัน 1
ดาน 1
ตลาดหลักทรัพย์ 1
ชีวประวัติ 1
ตัวรับ 1
สมัยโบราณ 1
เทควันโด 1
แอร์ไลน์ 1
ลีโอ 1
อู@@ 1
เพิ่มมากขึ้น 1
นันท 1
พวง 1
สีม่วง 1
ั้น 1
77 1
ตีเมือง 1
ทางการค้า 1
อุปราช 1
เฟส 1
พูดคุย 1
ศก 1
บัญชาการ 1
ปรุง@@ 1
ลักษ@@ 1
สถาบัน@@ 1
อักษรย่อ 1
กับ@@ 1
เฉพาะ@@ 1
เซิน 1
เต้ 1
ขนานนาม 1
ดวงตา 1
ธรณี 1
ฟ้อง 1
มีสิทธิ์ 1
z 0.23069290751897922
กองหน้า 1
ดอง 1
ฟูจิ 1
บิชอป 1
ลืม 1
เลิก@@ 1
เอฟ@@ 1
68 0.9825748068060792
การวางแผน 1
กุญแจ 1
ตำหนัก 1
ทรมาน 1
ปะการัง 1
ปัญ@@ 1
ผ่า 1
ราชมงคล 1
ถุง 1
ลวง 1
่อม 1
คัม 1
รุ่ง 1
เรตติ้ง 1
แพ้คะแนน 1
กุศล 1
ถ่าย@@ 1
ที่เก็บ 1
ระบบปฏิบัติการ 1
1941 0.30933443013289014
นึง 1
พิการ 1
รับจ้าง 1
สะอาด 1
เทิน 1
เปรียบ 1
ควาย 1
ทัย 1
วาดภาพ 1
ขุ@@ 1
คำพูด 1
ปฏิสังขรณ์ 1
ำ@@ 1
โจเซฟ 1
1975 0.2784935561586637
จี้ 1
ฒ 1
ห่างไกล 1
เศรษฐี 1
กรา@@ 1
เลือด@@ 1
เหล็ก@@ 1
แส@@ 1
ไมโครซอฟท์ 1
2490 1
5,000 1
ตุง 1
ทั้งสองฝ่าย 1
ล้านช้าง 1
เชฟ 1
เชื่อ@@ 1
แวง 1
กรวย 1
สั่ง@@ 1
อุโมงค์ 1
่าว 1
จริงๆ 1
เล่น@@ 1
้อม 1
ควบคู่ 1
ทรอ 1
ร่วง 1
อล์ฟ 1
คืน@@ 1
ตรัง 1
พะ 1
พ์ 1
เซาท์ 1
ไพ่ 1
ก้น 1
ชาติ@@ 1
ต่างหาก 1
ศูนย์การค้า 1
เวิร์ด 1
แพง 1
ช่วยกัน 1
ดิง 1
John 0.09742305996221753
ตื่น@@ 1
ผู้พิพากษา 1
ภรณ์ 1
ลวด 1
ห้องปฏิบัติการ 1
แทรกแซง 1
กดดัน 1
โครเอเชีย 1
มหาอำนาจ 1
รับสั่ง 1
ค้นคว้า 1
จำเลย 1
สน์ 1
สีชมพู 1
เรื่องสั้น 1
เลื่อน@@ 1
s@@ 0.108299246970452
กะเหรี่ยง 1
ฉิน 1
ประจำจังหวัด 1
ปริมณฑล 1
2489 1
คำอธิบาย 1
รองเท้า 1
ฮาวาย 1
จิม 1
ซาว 1
ซุ้ม 1
เด็ดขาด 1
กฤษ@@ 1
วาท 1
แคน@@ 1
พริก 1
สหาย 1
เทพี 1
เรียนต่อ 1
สังคมศาสตร์ 1
สำนึก 1
โปรเจกต์ 1
ความเป็นมา 1
ตอบโต้ 1
สืบราชบัลลังก์ 1
สุริ@@ 1
โทษ@@ 1
คส์ 1
บทภาพยนตร์ 1
วรรค 1
วัก 1
ขยายพันธุ์ 1
ธนาคาร@@ 1
รับมือ 1
หุ่น 1
ัด@@ 1
ประกาศ@@ 1
เฉพาะที่ 1
เนตร 1
เนื้อเพลง 1
เบียน 1
แต่ง@@ 1
คาร์@@ 1
จื่อ 1
สังเกตว่า 1
ด้านใน 1
ตัง 1
๖ 1
สระบุรี 1
อเมริกาใต้ 1
ภาระ 1
อาลี 1
ไมโคร@@ 1
ญญ@@ 1
ตั๋ง 1
ฟุตซอล 1
อป 1
1939 0.31889060167961203
69 1
;@@ 1
ข้อจำกัด 1
อริ@@ 1
คนรัก 1
ดาวน์โหลด 1
ถึงกับ 1
ประจำชาติ 1
หนวด 1
อยด์ 1
เจิ@@ 1
4@@ 0.39172097073022805
ตรวจจับ 1
้าน 1
สำนัก@@ 1
เนื่องมาจาก 1
เรือรบ 1
2507 1
ตามเวลา 1
สาระ 1
ให้เหตุผล 1
จุฬา@@ 1
มิตรภาพ 1
เกิด@@ 1
เคราะห์ 1
1944 0.2770378437611362
พระบาทสมเด็จพระปรมินทรมหาภูมิพลอดุลยเดช 1
ภาพลักษณ์ 1
มีเสียง 1
กระแสไฟฟ้า 1
พันธะ 1
ระฆัง 1
เพ็ญ 1
oc@@ 0.32567832245093503
ถ่ายทอดสด 1
ปกเกล้า 1
ประสาท@@ 1
มีความสุข 1
สำ 1
เทีย@@ 1
เป่า 1
เมตตา 1
แม้กระทั่ง 1
700 1
จง@@ 1
มิวนิก 1
รัตนโกสินทร์ 1
หัน@@ 1
ื่อง 1
กิจ@@ 1
ค่าตัว 1
ิลส์ 1
เป็นเกียรติ 1
ไทร@@ 1
ขนิษฐา 1
ความเป็นไปได้ 1
ชัด 1
ลย์ 1
เลียนแบบ 1
เส้นใย 1
ส่วนบุคคล 1
โป่ง 1
โอเพน 1
ดราม่า 1
มีราคา 1
ยุคสมัย 1
แง@@ 1
ซิตี้ 1
ณา@@ 1
ลงมติ 1
เมือ 1
โดยทั่วไปแล้ว 1
กองบัญชาการ 1
ฉะเชิงเทรา 1
ปาล์ม 1
เฮา 1
ก่อการ 1
ย่าง 1
ออร์@@ 1
เหนือกว่า 1
1978 0.28117122497093266
ดส์ 1
ผู้รับ 1
ฝา 1
ทอน 1
ส, 1
จู่โจม 1
ประหลาด 1
ฝั่งแม่น้ำ 1
100,000 1
62 0.9067307184559033
อรุณ 1
เข้มแข็ง 1
เค็ม 1
เหม@@ 1
ช่วง@@ 1
ผจญภัย 1
ล่วง@@ 1
สมเด็จพระเทพรัตนราชสุดาฯ 1
ข้างหน้า 1
ทางกฎหมาย 1
รัฐศาสตร์ 1
สอด 1
๙ 1
ขี่ 1
ปลายเดือน 1
ฮี@@ 1
โรแมนติก 1
ō 0.8863448737310068
กิตติมศักดิ์ 1
องศาเซลเซียส 1
นิร@@ 1
บรรเทา 1
บาส 1
บำเพ็ญ 1
ยืน@@ 1
วูด 1
สัม 1
เป็นประโยชน์ 1
an@@ 0.11265899158632538
ธีร 1
ประชามติ 1
พลังงาน@@ 1
มูล@@ 1
ัม 1
เอกอัครราชทูต 1
จำพรรษา 1
นำ@@ 1
สีส้ม 1
หัตถ@@ 1
Awards 0.3779568080174581
นางงาม 1
บล@@ 1
ปล้น 1
สุรา 1
โข@@ 1
− 0.8192167716151944
ซอล 1
นโรดม 1
ษี 1
สัตว์น้ำ 1
โฉ@@ 1
โต้แย้ง 1
1974 0.27670018253852585
ความเกี่ยวข้อง 1
ทาร์ 1
น" 1
ปากแม่น้ำ 1
วันเดียวกัน 1
j 0.617090041580357
ทูล@@ 1
พิบูล 1
ออง 1
เมืองท่า 1
2509 1
ความหวัง 1
ด้านนอก 1
วร@@ 1
เขียน@@ 1
เป็นพิษ 1
2504 1
Championship 0.3022965569673275
ตาน 1
เจ้าของ@@ 1
การสังหาร 1
ชาวต่างชาติ 1
นูน 1
มีด 1
หม่อมหลวง 1
หย่า 1
เกษตรกร 1
with 0.009537928362354661
คณบดี 1
ฟิล@@ 1
มาร์@@ 1
รัฐ@@ 1
เผ่าพันธุ์ 1
2502 1
การกุศล 1
จฉา 1
นครพนม 1
บาสเกตบอล 1
ตช์ 1
ปต์ 1
เทอร์@@ 1
ปวด 1
พระบรมศพ 1
มิสเตอร์ 1
ยึดอำนาจ 1
หนุน 1
เปร@@ 1
er 0.01866528454907457
คง@@ 1
ชิพ 1
ฟี่ 1
วิทยุ@@ 1
อท 1
ปู@@ 1
ริ้ว 1
เปรู 1
เวียนนา 1
กระแส@@ 1
ลดา 1
สเตเดียม 1
อัตรา@@ 1
ี้ยว 1
กลุ่มคน 1
การระเบิด 1
่ย์ 1
ch@@ 0.12485374188033918
พริ@@ 1
พอสมควร 1
ระดับ@@ 1
่อน@@ 1
นิวตรอน 1
บุคลิก 1
มหาดเล็ก 1
ี๋@@ 1
เงินทุน 1
เชษฐ 1
การแสดงออก 1
คำศัพท์ 1
ความดี 1
มัค 1
ขีปนาวุธ 1
นเรศวร 1
ภิ 1
มัธยมศึกษาตอนต้น 1
รองประธาน 1
แสดงละคร 1
d@@ 0.14681586892426524
จรด 1
รงค์ 1
ข้าพเจ้า 1
หัตถ์ 1
ข้าหลวง 1
คนอื่นๆ 1
ถอน@@ 1
ท่องเที่ยว 1
ลงสนาม 1
วลี 1
ไวน์ 1
et 0.007856751925257309
กระทบ 1
ชัง 1
นพ@@ 1
รังสิต 1
แบร์ค 1
t@@ 0.134024571676439
กัด@@ 1
เราะ 1
ปิง 1
อนามัย 1
ไนท์ 1
ความล้มเหลว 1
เคิร์@@ 1
กระดูก@@ 1
ชายา 1
ยาง@@ 1
ี๊@@ 1
เฉล@@ 1
วาฬ 1
หอคอย 1
เพดาน 1
เฟิน 1
เอ็ก@@ 1
แอปเปิล 1
2491 1
กำลังใจ 1
ขีด 1
จัดเก็บ 1
ปรางค์ 1
ฮา@@ 1
ā 1
คัดออก 1
จ้าว 1
นครหลวง 1
รัต@@ 1
วิกฤตการณ์ 1
อุ่น 1
เพื่อนบ้าน 1
‘ 0.439657611847888
ความก้าวหน้า 1
พระบรมวงศานุวงศ์ 1
วิศวกรรม@@ 1
เต็มตัว 1
แฝง 1
ไล่@@ 1
2493 1
ชานเมือง 1
สันนิบาต 1
หิน@@ 1
เจตนา 1
ชีวิต@@ 1
มาตรการ 1
ออกฤทธิ์ 1
เฮย 1
ล่า@@ 1
สบ 1
สักการะ 1
นีโอ 1
ศาส@@ 1
เป็นจริง 1
เอน@@ 1
ทวิ@@ 1
ปวด@@ 1
ฬ@@ 1
e-@@ 1
การเจริญเติบโต 1
ชัยภูมิ 1
สนธิ 1
สยามบรมราชกุมารี 1
เขตเมือง 1
6,@@ 1
?@@ 1
การอพยพ 1
ซับ 1
ปม 1
เกิล 1
๋า 1
ed 0.07105916574474053
ก้อง 1
มองโกเลีย 1
ยูเนสโก 1
เมดิเตอร์เรเนียน 1
บังเอิญ 1
แมก 1
ไจ 1
้าย 1
2497 1
ทองแดง 1
ทอด@@ 1
ทุจริต 1
ละติน 1
ิง@@ 1
ขู่ 1
ประสบปัญหา 1
พระบรมราชินีนาถ 1
สรรเสริญ 1
หลาก 1
อินทรี 1
โตโยต้า 1
ทวีปอเมริกาเหนือ 1
บาย@@ 1
สภาพอากาศ 1
เสียงร้อง 1
ให@@ 1
ol@@ 0.20634544182463127
แย่งชิง 1
ไว้วางใจ 1
2495 1
น็อก 1
บีซี 1
ลิว 1
กรร@@ 1
กัง@@ 1
ตัวเอก 1
ต่อม 1
นักข่าว 1
พระประวัติ 1
วันเกิด 1
อภิสิทธิ์ 1
ัย@@ 1
ึง@@ 1
ภิกษุ 1
เชิงพาณิชย์ 1
ที่รวม 1
ท่านผู้หญิง 1
ปส์ 1
รย์ 1
ล์ฟ 1
วันนั้น 1
เดือด 1
แยก@@ 1
มูน 1
ศาสดา 1
สิง 1
ทัน@@ 1
ปัญญา@@ 1
รอม 1
กระทรวงการคลัง 1
ชนชาติ 1
ที่จริง 1
นิมิต 1
พระราชดำริ 1
องค์การบริหารส่วนจังหวัด 1
แซ็ง 1
ลอย@@ 1
ศาลเจ้า 1
เจน@@ 1
ความลึก 1
ภาพรวม 1
250 0.7726450695782019
ซ็อง 1
ทุกครั้ง 1
ความใน 1
ธ์ 1
ทิว 1
มก 1
เฮลิคอปเตอร์ 1
e@@ 0.13812989143294205
ชีว 1
ฟาร์ม 1
ลำบาก 1
โฆษก 1
• 1
by 0.009147861748107758
พระสนม 1
ระยอง 1
ศวร 1
เสรีนิยม 1
แกง 1
ํ@@ 1
ซง 1
สมุทรสาคร 1
เรียม 1
คารา@@ 1
ประจำ@@ 1
h@@ 0.1620805345841636
นิต 1
บ่งชี้ 1
ีน 1
แดนซ์ 1
71 0.9217299414825919
กู้@@ 1
ความงาม 1
บังคับใช้ 1
โดเมน 1
ชู@@ 1
ประมวล@@ 1
มพร 1
มีฤทธิ์ 1
รม@@ 1
กล้าหาญ 1
ปัส 1
ริมแม่น้ำ 1
เป็นที่@@ 1
แต้ม 1
ศาสนสถาน 1
ไมตรี 1
ส่วนราชการ 1
ปป@@ 1
ผู้กำกับภาพยนตร์ 1
ลฟ์ 1
เข้าใจผิด 1
เอ็ก 1
ฝึกอบรม 1
มัธยมปลาย 1
ยอมจำนน 1
็ม 1
2488 1
กรุง@@ 1
ความสงบ 1
ด้วยว่า 1
ธรณีวิทยา 1
ฟิน 1
ร้านค้า 1
วาส 1
หัวหน้า@@ 1
แถม 1
๋ว 1
22@@ 1
คนงาน 1
ทช์ 1
ส่วนสำคัญ 1
ส่วนหัว 1
อัฐิ 1
ชื่น 1
ทับ@@ 1
แอล@@ 1
ism 0.36986173587376214
ชัย@@ 1
บาน@@ 1
ภัยพิบัติ 1
สลายตัว 1
อำนาจ@@ 1
อินโด 1
แก่น 1
ขุน@@ 1
ทาน@@ 1
พันเอก 1
ตำ 1
ลอด 1
เซียม 1
เบะ 1
เป็นอิสระ 1
ทั่ว@@ 1
ไลต์ 1
2492 1
กลา 1
กำไร 1
ทบ@@ 1
เป็นต้นไป 1
เห็ด 1
แสงอาทิตย์ 1
ยาปฏิชีวนะ 1
การคมนาคม 1
ช่องว่าง 1
พระชนม์ชีพ 1
หมุนเวียน 1
เบา@@ 1
× 0.6994700305698187
น, 1
พักผ่อน 1
ระวัง 1
สมัชชา 1
เมนต์ 1
ดินเผา 1
ย้าย@@ 1
ลุค 1
บังคับบัญชา 1
ปูนปั้น 1
แก้ไขปัญหา 1
ซิ่ง 1
ปิ่น 1
พระบรมมหาราชวัง 1
มหาวิทยาลัยรามคำแหง 1
สแควร์ 1
เพิ่ม@@ 1
เมย์ 1
สมรภูมิ 1
อุดมการณ์ 1
เกียวโต 1
๗ 1
2484 1
คุณลักษณะ 1
เทร@@ 1
การกีฬา 1
ทวิ 1
ทางน้ำ 1
รับมอบหมาย 1
ลูกทุ่ง 1
สุข@@ 1
หมัก 1
os@@ 0.2542764167136741
จำเพาะ 1
สมัยก่อน 1
เฉลิมฉลอง 1
แสดงออก 1
88 0.8958922081215308
Me 0.5799668939394963
พฤกษศาสตร์ 1
รส@@ 1
อนันต์ 1
พยัคฆ์ 1
รางวัลโนเบล 1
ร่ำรวย 1
เต็ม@@ 1
ยานพาหนะ 1
เป็นอันตราย 1
เอเชียน 1
๕@@ 1
จินตนาการ 1
นายร้อย 1
เคลื่อนย้าย 1
เรื้อรัง 1
ไข@@ 1
วัด@@ 1
โญ 1
2476 1
กระต่าย 1
ด้วย@@ 1
ระลึกถึง 1
ประกัน@@ 1
ศักย์ 1
เฉา 1
เบิร์ด 1
1969 0.2724940091744448
ตริ@@ 1
ตามคำสั่ง 1
ที่ระลึก 1
วัช@@ 1
วัลย์ 1
แพท@@ 1
2494 1
กระบอก 1
การจำแนก 1
คับ@@ 1
ฌ 1
ภาษาเยอรมัน 1
มรณะ 1
เซีย@@ 1
1948 0.3075165156315761
ทำไม 1
ธิเบศร 1
ส่อง 1
เตอร์@@ 1
ข้าม@@ 1
จาม 1
ผู้บริโภค 1
ว่าที่ 1
สัตว@@ 1
กองพัน 1
พัง@@ 1
สเปอร์ 1
จับได้ 1
รวม@@ 1
เกรง 1
เบรก 1
กระนั้น 1
สังข์ 1
โยธา 1
96 0.8875976596654508
กระชับ 1
กล้อง@@ 1
ค่อน 1
พลี 1
พิชัย 1
พ้อง 1
ลักษณะเด่น 1
ว. 1
ศิลป 1
1967 0.2746927970156045
73 0.9391464120889519
ขจร 1
คุ้ง 1
จุล 1
ชั่ว@@ 1
ตะวันออกกลาง 1
รยอ 1
เพาะปลูก 1
ทัศ@@ 1
หลอด@@ 1
หลับ 1
เถา 1
เวร 1
as 0.007370108359519716
สถานีวิทยุโทรทัศน์ 1
ประหยัด 1
1977 0.2642665038095304
98 0.9262199416549516
or@@ 0.14737368172498638
คณิต 1
ถั่ว@@ 1
บทละคร 1
ลีลา 1
61 0.8474628093982074
ราม@@ 1
สปา 1
คัด@@ 1
อินทร 1
เข้าเฝ้า 1
เปอร์เซ็นต์ 1
ฟาน 1
ยั่งยืน 1
ร่องรอย 1
เพียร 1
กราด 1
81 0.9325894704482244
กบ@@ 1
ชีวะ 1
ศาลา@@ 1
Ch@@ 0.16770268349695733
ot@@ 0.21184182527361803
%) 1
1971 0.2523303853256221
2496 1
86 0.9417661245082204
ดุษฎีบัณฑิต 1
เมทริกซ์ 1
ไปรษณีย์ 1
]@@ 1
จุดมุ่งหมาย 1
ผิดกฎหมาย 1
ล" 1
อร์ส 1
อุป 1
1956 0.30913573305923614
กลางปี 1
คบ@@ 1
ต่อหน้า 1
พันปี 1
ยูโรปา 1
ระยะ@@ 1
ราก@@ 1
กลับบ้าน 1
รักษา@@ 1
สถาบันการศึกษา 1
ตระ 1
ถ้วน 1
มีแผน 1
เศรษฐ@@ 1
งอก 1
ที่ว่าการอำเภอ 1
มะพร้าว 1
ศอก 1
คุย 1
ป.@@ 1
ประสานงาน 1
ป้อมปราการ 1
อธิการ 1
แน่ 1
ทศ@@ 1
84 0.9197998918085489
ทะเบียน 1
พัทลุง 1
ศักดินา 1
สก@@ 1
ปักษ์ 1
พี่@@ 1
เจอร์ 1
ท้าย@@ 1
พว@@ 1
ฟิลด์ 1
สก์ 1
สมเด็จพระสังฆราช 1
หีบ 1
กระด@@ 1
กำแพงเพชร 1
บาลี 1
กลางเมือง 1
จดจำ 1
ชี้@@ 1
รท 1
ร่อน 1
(), 1
f@@ 0.14084491001881239
ตำ@@ 1
ปัจจัย@@ 1
โกน 1
โปร@@ 1
es 0.018215709205094265
ทหารม้า 1
ร้าน@@ 1
สรร 1
สืบพันธุ์ 1
เบื้อง@@ 1
กวางตุ้ง 1
จัดพิมพ์ 1
ดัช 1
ฟี@@ 1
ยัง@@ 1
ื่อง@@ 1
เข้าชม 1
เท็กซัส 1
เรียบง่าย 1
แนวความคิด 1
กูเกิล 1
จิตรกรรมฝาผนัง 1
ชิคาโก 1
ต่อม@@ 1
พจนานุกรม 1
้วง 1
ปริมาตร 1
พยางค์ 1
ระเบียง 1
วัณ 1
ี่ย@@ 1
Man 0.3724824135871788
ฐานข้อมูล 1
บารมี 1
พายุ@@ 1
แอลกอฮอล์ 1
กิริยา 1
ค่าย@@ 1
ผู้รักษาประตู 1
อุตุนิยมวิทยา 1
1942 0.2779692782998034
ทำอาหาร 1
ปราก 1
ฟุ@@ 1
เล่าเรื่อง 1
King 0.2161532463910122
Thailand 1
รักษาการ 1
เป็นปัญหา 1
ไมโคร 1
ไรน์ 1
..." 1
ลู่ 1
สตาลิน 1
สถานที่ท่องเที่ยว 1
ียด@@ 1
แต่งกาย 1
ขอม 1
นัยสำคัญ 1
วิด 1
ใบไม้ 1
0.@@ 0.6824783291771174
กาม 1
การบำบัด 1
การอธิบาย 1
ฤๅษี 1
์. 1
ถม 1
เรียนจบ 1
แทง 1
บูล 1
ประชวร 1
ปั่น 1
1973 0.2469466644640072
ng 1
นาว 1
พัทยา 1
ราชธานี 1
สวิส 1
อาร์ม 1
เด็กชาย 1
่าม 1
ด่วน 1
ผู้ทรง 1
หนาว 1
พอตเตอร์ 1
มหัศจรรย์ 1
เนส@@ 1
โทรคมนาคม 1
โน้ต 1
จากไป 1
ธม 1
พลตรี 1
ความเปลี่ยนแปลง 1
คิวบา 1
ร้อนที่ 1
สปีด 1
เทิล 1
เริง 1
เวิ@@ 1
78 0.8653944484886839
ทุกชนิด 1
รื้อ 1
เสน่ห์ 1
๘ 1
2.@@ 0.48294765831558245
ae 0.352370526148885
ชานชาลา 1
วงศา 1
สั่น 1
เดะ 1
แฟร@@ 1
74 0.8481384480217649
ปลด@@ 1
วางขาย 1
สีสัน 1
เจ้าจอม 1
ข้อกำหนด 1
ทางออก 1
โถง 1
บริวาร 1
มิวสิค 1
วิเชียร 1
คลา@@ 1
ตล@@ 1
ภาวะ@@ 1
ยินยอม 1
ฮาร์ด 1
ุ่น 1
ได้ผล 1
ไว@@ 1
้ว@@ 1
ต่ำสุด 1
ถั่ว 1
มายา 1
เขียนหนังสือ 1
เซ็นทรัล 1
เบี้ย 1
onlyinclude 0.9557156464550237
ฝ่า 1
ความเป็นจริง 1
บางที 1
สตี@@ 1
องคมนตรี 1
ชาติพันธุ์ 1
มาโดยตลอด 1
ลาง 1
แฟรงก์ 1
ดำริ 1
ปฏิบัติตาม 1
หุ 1
ใคร่ 1
ไอ้ 1
้อง@@ 1
79 0.9526921868104503
ดวงดาว 1
ปรึกษา 1
เตียน 1
ซ่อม 1
นตา 1
สร้อย 1
เลี่ยง 1
รพ 1
:// 1
ฉาง 1
ทีวีสี 1
สิ่งเร้า 1
สูญหาย 1
เฟล@@ 1
ครุ@@ 1
ช้างเผือก 1
บอส 1
ภาษาบาลี 1
อู๋ 1
เต็@@ 1
er@@ 0.09314348848643801
กังวล 1
ข้อเท็จจริง 1
น่าจะเป็น 1
ปรารถนา 1
สุริย 1
เนื่อง 1
ลิด 1
อำมาตย์ 1
แบบอย่าง 1
ü 1
ป้า 1
ฝึกซ้อม 1
ภาพเหมือน 1
ลิทัวเนีย 1
สวนสัตว์ 1
เศร้า 1
โธ@@ 1
It 0.02889341178925354
นาก 1
บอกเล่า 1
เกียรติ@@ 1
เป็ด 1
์ด 1
ดอ 1
ม.@@ 1
เจียน 1
เชียงแสน 1
เลสเต 1
ชั่วร้าย 1
มีลูก 1
สำเร็จ@@ 1
เข็ม@@ 1
94 0.9913241555723443
ภู่ 1
วัตถุดิบ 1
หลา@@ 1
อันเดอร์ 1
5@@ 0.3304272511906509
พระญาติ 1
มาริโอ 1
ร์ค 1
สำราญ 1
เลวร้าย 1
โจม 1
it 0.018971481830030723
การรัฐประหาร 1
ฆาต 1
ดำรงอยู่ 1
บอสเนีย 1
ราชย์ 1
หน้าใหม่ 1
เรียง@@ 1
แย่ง 1
83 0.9391676887163073
ขนมปัง 1
1918 0.31144260536052837
บริบท 1
วชิร 1
ี่ยง@@ 1
แพร 1
ไห่ 1
การค้าขาย 1
คอนกรีตเสริมเหล็ก 1
ตัก 1
ตาก@@ 1
พ่น 1
ได้เปรียบ 1
คริ@@ 1
ควัน 1
จระเข้ 1
นายกเทศมนตรี 1
พิพากษา 1
วิท@@ 1
m@@ 0.18381265682872303
กระเป๋า 1
ครอบ 1
ลุก 1
แฟล@@ 1
76 0.7979597798513827
คบหา 1
ธานี 1
ฝ่ายตรงข้าม 1
ฟิว@@ 1
ยี่สิบ 1
สถานที่@@ 1
จันทร 1
นักปรัชญา 1
ผู้เข้าร่วม 1
แล้ง 1
101 1
ขายดี 1
ปรกติ 1
การอนุมัติ 1
คลาส 1
นราธิวาส 1
อิสริยาภรณ์ 1
Entertainment 0.68812109445867
กวนอู 1
นด 1
ยุง 1
วียน 1
หาดใหญ่ 1
แกล้ง 1
ไมค์ 1
ค้างคาว 1
นักออกแบบ 1
ประชาคม 1
หนอน 1
ูก 1
เทีย 1
โลว์ 1
ราด 1
ซัคเซิน 1
พระไตรปิฎก 1
พิก 1
พิจิตร 1
รังสี@@ 1
ส่วนที่เหลือ 1
แจ็ก 1
กระบวน@@ 1
จิตวิญญาณ 1
เจล 1
แผ่นเสียง 1
โคลอมเบีย 1
ใหญ่@@ 1
กริยา 1
ห์น 1
แซ่ 1
การสมรส 1
ชีวิตประจำวัน 1
ทลาย 1
ธนะ 1
ผิง 1
ือก 1
เหลว 1
โคร@@ 1
ให้เสียง 1
ํ 1
01 0.9467520335436936
ชุก 1
ภาพวาด 1
สำนักงาน@@ 1
เนย 1
โรงไฟฟ้า 1
้อย@@ 1
คุณพ่อ 1
สัตว์เลี้ยง 1
สัมพันธ@@ 1
แต่เพียง 1
1936 0.31391162115343646
ความเจ็บปวด 1
ซึ@@ 1
ปะทุ 1
รามา 1
อัป 1
ถัดจาก 1
เสถียรภาพ 1
เสนอ@@ 1
โคลัมเบีย 1
โฮม 1
91 0.9469591501549931
ที่ราบสูง 1
บุตรี 1
ข่าวลือ 1
คริสต์ศักราช 1
ตลอดชีวิต 1
ฝึกฝน 1
มารวิชัย 1
สถานีวิทยุ 1
p@@ 0.13114780134381573
นิวตัน 1
ยิงปืน 1
เชิด 1
แจ็ค 1
กุด 1
ที่ราบลุ่ม 1
ี้ย 1
เข้ายึดครอง 1
็อน@@ 1
วนา 1
เนื้องอก 1
โปรเตสแตนต์ 1
el@@ 0.11379475537748447
จุลจอมเกล้า 1
หอก 1
ฮ่องเต้ 1
เสน@@ 1
ไข้หวัดใหญ่ 1
ไต@@ 1
93 0.8940477168440395
กาฬ 1
ความตกลง 1
ชิน@@ 1
บุคลิกภาพ 1
อัก 1
เขา@@ 1
เจริญรุ่งเรือง 1
เอเธนส์ 1
แขวน 1
แมง 1
โคลง 1
ตกต่ำ 1
วีรบุรุษ 1
แปลงร่าง 1
แร็ป 1
็อล@@ 1
ชม. 1
พุ่ม 1
ระนาบ 1
วิง 1
เบย์ 1
แส 1
ไม่ต้องการ 1
2482 1
25@@ 1
ช่วงหลัง 1
บนสุด 1
มากยิ่งขึ้น 1
ไคร@@ 1
กิต 1
ของขวัญ 1
มาหา 1
ระบอบประชาธิปไตย 1
ปากน้ำ 1
ผนึก 1
ผลสำเร็จ 1
ลิก 1
วอล@@ 1
เส้นประสาท 1
คดี@@ 1
ปรับตัว 1
เอธิโอเปีย 1
โรงเรียนสาธิต 1
th@@ 0.1819126939614898
ฝ่ายค้าน 1
พระจันทร์ 1
พระปริยัติธรรม 1
ระยะสั้น 1
ศาลฎีกา 1
สเซ@@ 1
ียน@@ 1
ใต้@@ 1
รินทร์ 1
อัจฉริยะ 1
7,@@ 1
ด้วง 1
พระพุทธองค์ 1
ยื่น@@ 1
ร์น 1
ล่าสัตว์ 1
แบบ@@ 1
แปรรูป 1
0@@ 0.5341182912962199
Q 0.8265773757304297
ar 0.08153211403030614
คอนกรีต 1
นีล 1
ลำพัง 1
เอส@@ 1
1962 0.2712096161515105
การพิสูจน์ 1
ขาน 1
เป็นอันมาก 1
แนวรบ 1
ขับ@@ 1
คาดหวัง 1
ชกมวย 1
ชื่อย่อ 1
ยน 1
วีดีโอ 1
สค์ 1
เคาะ 1
ปรับ@@ 1
กิล 1
มหาวิทยาลัยศรีนครินทรวิโรฒ 1
วงใน 1
อ้าย 1
เรื่องเล่า 1
กาย@@ 1
ถนอม 1
บุญ@@ 1
ฟรานซิส 1
สุขุมวิท 1
เจ้าคุณ 1
ธุรกิจ@@ 1
น่ารัก 1
ประยุกต์ใช้ 1
หน้าจอ 1
ห่อ 1
อรร@@ 1
เลนส์ 1
เหล้า 1
แจก 1
แชร์ 1
แมก@@ 1
แล้วแต่ 1
ไอซ์แลนด์ 1
สดใส 1
หน้าบัน 1
อนุพันธ์ 1
อบรม 1
เตรียมอุดมศึกษา 1
แสดงผล 1
ในนามของ 1
6@@ 0.3685654529793465
ครู@@ 1
ฟัน@@ 1
กรณี@@ 1
ความผิดพลาด 1
นส 1
ลิน@@ 1
ขับรถ 1
ถ้าหาก 1
ฟ. 1
ไขสันหลัง 1
$ 0.09793578468156762
จ่า 1
ต้นทุน 1
ทธ 1
ประยุทธ์ 1
พยาน 1
เต๋า 1
แสตมป์ 1
ใจกลาง 1
กู่ 1
ิร์ต 1
โดยประมาณ 1
"... 1
Team 0.30234477368672796
คริสต์มาส 1
ฟส์ 1
มนุษ@@ 1
รูปไข่ 1
วีน 1
หยิบ 1
แก้@@ 1
คบ 1
ฌ็อง 1
พง 1
ร่ม@@ 1
เข่า 1
เวียร 1
ครูใหญ่ 1
ชาต 1
ทย์ 1
ทำตาม 1
ประวัติการ 1
ป่วน 1
พรร@@ 1
เตี้ย 1
เท่าใด 1
ไซต์ 1
ไน@@ 1
ขั้น@@ 1
ควอนตัม 1
ชอบ@@ 1
นิน 1
ปีน 1
ษา@@ 1
สายลับ 1
คีย์ 1
ลุ่มน้ำ 1
สื่อ@@ 1
องครักษ์ 1
ous 0.2174716809759982
การปะทะ 1
ปลายทาง 1
มีระดับ 1
หาย@@ 1
เหมือนเดิม 1
กลางวัน 1
ลักษณะเฉพาะ 1
วัตถุ@@ 1
เลือดแดง 1
เฮีย 1
คิด@@ 1
จริยธรรม 1
ผลัด@@ 1
ภาษาศาสตร์ 1
หลบ 1
เป็นได้ 1
แรด 1
ไนน์ 1
สวนสาธารณะ 1
หนึ่งเดียว 1
เฟล 1
เมจิ 1
1943 0.24888979104662198
กองหลัง 1
การสงคราม 1
เจริญ@@ 1
1963 0.26403990812078
การปรับตัว 1
ดรีม 1
ตริ 1
มุ่งมั่น 1
รุ่ง@@ 1
เศษ@@ 1
82 0.8305591553401305
c@@ 0.1535080447224199
กล่าวหา 1
ต้องห้าม 1
นิด 1
ปล้อง 1
ฝ้าย 1
ยี่ห้อ 1
โหลด 1
คาส 1
นท์ 1
ประกบ 1
ผู้ว่าราชการจังหวัด 1
ลท์ 1
หนา@@ 1
เกร็ด 1
ขุนพล 1
ความเหมาะสม 1
ทรัพย์@@ 1
นันท@@ 1
บรรพ@@ 1
บัตร@@ 1
ฝาง 1
ฟาง 1
ษั@@ 1
อาทิเช่น 1
ียม 1
คุมขัง 1
ลัทธิ@@ 1
อีก@@ 1
เศียร 1
แนะ 1
แล่น 1
): 1
20,000 1
ซัมเมอร์ 1
ป๊อป 1
ฮีบรู 1
๔@@ 1
กลีบดอก 1
งู@@ 1
จด@@ 1
ระเบียบ@@ 1
วรร@@ 1
สถานที่สำคัญ 1
ื้อง 1
แทบจะ 1
1949 0.2820625529343644
ฉี 1
ช่องทาง 1
ดอ@@ 1
บุษ@@ 1
มนุษยศาสตร์ 1
สวา@@ 1
หมอก 1
อึน 1
เชส 1
ชายหนุ่ม 1
ญวน 1
ภูมิทัศน์ 1
มวล@@ 1
ราชโองการ 1
ศัก@@ 1
แดเนียล 1
แฟรนไชส์ 1
โอเวอร์ 1
05 0.9334918444081508
a@@ 0.17601853685008212
ถ่ายโอน 1
ประภา 1
หมากรุก 1
เส้นขนาน 1
เอิร์ธ 1
แฉก 1
9@@ 0.38859531370523437
กระดาน 1
นาวี 1
บัค 1
ฟัก 1
ขนส่งมวลชน 1
ขั้วโลกเหนือ 1
บังกลาเทศ 1
ฟลอริดา 1
ย้อนกลับ 1
ลิน 1
วันหยุด 1
180 1
กช 1
มัวร์ 1
สมณศักดิ์ 1
แซก 1
130 1
3@@ 0.3462483119733676
In@@ 0.18058925389925196
พอน 1
ลำไส้ 1
ห้อย 1
เจ้าผู้ครองนคร 1
เผยแผ่ 1
แฟนคลับ 1
1952 0.29211659347767066
อล์@@ 1
1947 0.28342150495307816
คุ้นเคย 1
ชม@@ 1
ตลอด@@ 1
ผู้ติดตาม 1
ผู้อ่าน 1
เจิ้ง 1
Star 0.37508010553842563
กราฟิก 1
คำนึงถึง 1
ฮอ 1
เครือจักรภพ 1
เสมอ@@ 1
กข์ 1
ขุด@@ 1
ม้า@@ 1
เสมา 1
โครโมโซม 1
ขยะ 1
มโน@@ 1
ศิลป@@ 1
อรรถ 1
เวย์@@ 1
โอด 1
20.@@ 1
มหาวิทยาลัยเชียงใหม่ 1
ฮอล 1
เสื้อ@@ 1
แอด 1
กาบ 1
ช่วย@@ 1
ซากดึกดำบรรพ์ 1
ปลาน้ำจืด 1
ผู้สืบทอด 1
ฮิ@@ 1
1000 0.5028258250107015
นุช 1
สนุกสนาน 1
อย่างนี้ 1
เซนต์@@ 1
กล้องโทรทรรศน์ 1
พาด 1
รับสมัคร 1
อ๋อง 1
ทรัพยากรธรรมชาติ 1
ผู้ให้บริการ 1
เข้าหา 1
x@@ 0.30060509761751214
กำหนดการ 1
ปิดทอง 1
มุก 1
รับเงิน 1
87 0.8430082350768856
One 0.1604614695932068
กรวม 1
ค่าเฉลี่ย 1
ประพฤติ 1
มส์ 1
ร์" 1
วิถีชีวิต 1
เวฟ 1
แต 1
ต้นเดือน 1
ปฏิบัติธรรม 1
มัล 1
ระยะห่าง 1
สยองขวัญ 1
เครื่องประดับ 1
เนิ@@ 1
้ำ@@ 1
ดอร์@@ 1
พักอาศัย 1
สมรรถภาพ 1
หลา 1
เขตเทศบาล 1
เจริญเติบโต 1
เป็นกลาง 1
เมเจอร์ 1
1938 0.27294885464606905
ขยับ 1
ครอส 1
ความเอนเอียง 1
ซ้ำ@@ 1
ไข่@@ 1
III 0.20567894730924088
ขวด 1
คล 1
ซัก 1
นิทาน 1
สมมติ 1
สัตว์ประหลาด 1
1946 0.25485435081698693
ac@@ 0.2025936742253574
ข่าว@@ 1
ชื่อเรื่อง 1
พฤกษ์ 1
ฟลอเรนซ์ 1
ยะลา 1
วงกว้าง 1
อสุจิ 1
เรขาคณิต 1
แยร์ 1
97 0.8606843894632032
คณะนิติศาสตร์ 1
ความกังวล 1
ตระหนัก 1
ถึงแก่อสัญกรรม 1
ฝนตก 1
ยานอวกาศ 1
ยฺ@@ 1
รีด 1
ลงสมัคร 1
วัจ 1
สค@@ 1
เข็มขัด 1
เซ็ต 1
็อล 1
1965 0.23942066125720612
ความพ่ายแพ้ 1
พินอิน 1
ฮอร์@@ 1
เถร 1
เท็น 1
เบรียล 1
l@@ 0.12388094261227618
www 1
มัตสึ 1
สาธารณ@@ 1
สาหร่าย 1
8,@@ 1
ภาณุ 1
k@@ 0.1343552991846727
ข่าวสาร 1
คาร 1
ชอ@@ 1
สนอง@@ 1
อาเซอร์ไบจาน 1
แพร่ภาพ 1
ณัฐ 1
ดาวอังคาร 1
ทัศนคติ 1
นักสืบ 1
ป้อน 1
ผู้บัญชา 1
รัตน@@ 1
าม 1
เสี่ยว 1
แต่ก่อน 1
ö 1
กระเบื้อง 1
กัล@@ 1
ฌาน 1
น่าเชื่อถือ 1
ร่างรัฐธรรมนูญ 1
เซ็ง 1
เตรียมการ 1
แกม 1
แอม@@ 1
โขน 1
โครงเรื่อง 1
89 0.8558161829929177
กลับ@@ 1
ฝุ่น 1
อกซ์ 1
เลค 1
เวอ 1
เวเนซุเอลา 1
en 0.0033625808733510325
กาตาร์ 1
ตรี@@ 1
ตลอดทั้ง 1
ทางจิต 1
ยืดหยุ่น 1
รง 1
รองนายกรัฐมนตรี 1
ฤดูใบไม้ผลิ 1
ิว 1
ื้อ@@ 1
แคลเซียม 1
แถลงการณ์ 1
1958 0.2631843741367646
2478 1
ขุนศึก 1
ร์, 1
สาบาน 1
หนังสือ@@ 1
la 0.0024712716677680177
ประตู@@ 1
ส่งตัว 1
หมาป่า 1
เปิดโอกาส 1
เพศชาย 1
แพล@@ 1
ไหว้ 1
๒๔@@ 1
จารุ 1
นุ่ม 1
เฉิง 1
เพี้ยน 1
แบตเตอรี่ 1
แพลตฟอร์ม 1
da 0.0641850643010978
ความพร้อม 1
ความเจริญ 1
บรูไน 1
ภาษี@@ 1
ยะ@@ 1
ระดม 1
ศัย 1
อยู่อาศัย 1
แพท 1
โลน 1
ー@@ 1
ก.@@ 1
ความคล้ายคลึง 1
ซึง 1
บริบูรณ์ 1
ว่าง@@ 1
เก็บ@@ 1
โสภณ 1
คริสตัล 1
สมโภช 1
หยา@@ 1
ันท@@ 1
ึ่ง 1
เด็น 1
ไบแซนไทน์ 1
บรม@@ 1
ยุทธวิธี 1
วิชัย 1
ส่งผ่าน 1
หงสาวดี 1
เบล@@ 1
92 0.7837149868416872
กวาด 1
การปลดปล่อย 1
ความเป็นอยู่ 1
บอกซ์ 1
วิตกกังวล 1
เคร่งครัด 1
เฌ@@ 1
เทศนา 1
เหงียน 1
8@@ 0.35319610832947573
บาต 1
ห้า@@ 1
ั้@@ 1
เข้มงวด 1
นิวส์ 1
บุช 1
ลอม 1
สาลี 1
แคม 1
โจรสลัด 1
ไชยา 1
as@@ 0.15260100949416092
re@@ 0.05217836605013174
ขั้วโลกใต้ 1
ขี่ม้า 1
ตั้งแต่นั้นมา 1
ศาสตร 1
เบลารุส 1
เยื่อ@@ 1
แยกกัน 1
แสงสว่าง 1
โทลคีน 1
็อค 1
2485 1
กลุ่มชาติพันธุ์ 1
กีฬา@@ 1
ขาม 1
ทมิฬ 1
ทำลายล้าง 1
ที่ว่าง 1
หลบ@@ 1
หาทาง 1
อธิปไตย 1
อนุสัญญา 1
ฮอลล์ 1
เซิร์@@ 1
เต้า 1
เอฟเอ็ม 1
แม็ค 1
1966 0.23653701095289723
ชำนาญ 1
ประจักษ์ 1
พิน@@ 1
ภูมิใจ 1
สึนามิ 1
เรือนจำ 1
ó 0.14183543093983839
ดีเจ 1
นบ 1
ปรี@@ 1
ฝ่ายบริหาร 1
ัว 1
เบิร์@@ 1
เสก 1
โมะ@@ 1
โรคหัวใจ 1
3.@@ 0.5815477006223683
United 0.05553486789511464
การแก้ปัญหา 1
ข้อสรุป 1
ครุ 1
จำนวน@@ 1
น่าน@@ 1
ูน@@ 1
เมกา 1
เสียด@@ 1
แคร@@ 1
7@@ 0.3448444300887359
ชมพู 1
ประมวล 1
ประสบ@@ 1
พิจารณาคดี 1
ภิรมย์ 1
สมุทรสงคราม 1
อสังหาริมทรัพย์ 1
เทิ@@ 1
man 0.06173955737819857
om@@ 0.20279901306938677
จอน 1
ซอส 1
ต้นสังกัด 1
พระอุปัชฌาย์ 1
เปรม 1
เวกเตอร์ 1
0,000 1
บด 1
พูด@@ 1
ยิม 1
หอสมุด 1
เพลงลูกทุ่ง 1
ชาวมุสลิม 1
มรณภาพ 1
ระบบนิเวศ 1
ล่าช้า 1
แม่มด 1
ครีม 1
รายใหญ่ 1
เกตุ 1
1954 0.2793266655379438
จนา 1
ดาย 1
ทางกาย 1
นิติ 1
ยิน 1
ศิริราช 1
อุทธรณ์ 1
1961 0.255733465220283
2480 1
ap@@ 0.17198539772253624
ดราก้อน 1
ปัง 1
พระบรมราชูปถัมภ์ 1
สมเด็จพระนางเจ้าสิริกิติ์ 1
หลวงพระบาง 1
เบญ@@ 1
เรือดำน้ำ 1
2481 1
All 0.1462335040976063
กานา 1
การจราจร 1
การศึก 1
น้ำตา 1
บูรณ 1
บ่าย 1
ผา@@ 1
สัณฐาน 1
แกล@@ 1
แท็กทีม 1
cell 0.7016668107234802
ชื่อ@@ 1
ตำหนิ 1
ภาคอีสาน 1
สถานภาพ 1
จัดระเบียบ 1
ถ่านหิน 1
ฝี@@ 1
มีประสบการณ์ 1
มืออาชีพ 1
ริ่ง 1
่ออก 1
ทางด่วน 1
มหายาน 1
มาดากัสการ์ 1
สร้างชื่อเสียง 1
องค์การอนามัยโลก 1
โจ้ 1
900 1
คณะวิศวกรรมศาสตร์ 1
มีประวัติ 1
ไถ@@ 1
ฝังศพ 1
พรม 1
พระเจดีย์ 1
ินส์ 1
เกียรติประวัติ 1
09 0.8185563241260219
กล่อม 1
ซิม@@ 1
ถ่ายแบบ 1
พูล 1
๋อ 1
Group 0.22080064460152787
ดังเช่น 1
มร@@ 1
ฮก 1
เต้นรำ 1
เบร์ 1
ai 0.2320723061855327
การลงนาม 1
ชวร 1
ชุด@@ 1
ทุ่ม 1
หอประชุม 1
คอบ 1
คุ้ม 1
ช่อดอก 1
ทบทวน 1
นุภาพ 1
บทนำ 1
ผ่อน@@ 1
พลาด 1
อุทกภัย 1
เคมบริดจ์ 1
ไพบูลย์ 1
กวัด 1
การทำ@@ 1
ความน่าจะเป็น 1
ประเทศราช 1
ปล่อยตัว 1
พลู@@ 1
ลำเลียง 1
ศาสนจักร 1
หม่า 1
เป็@@ 1
เฟีย 1
แคริบเบียน 1
ในเวลาเดียวกัน 1
04 0.8990400747764753
ปิดล้อม 1
สี่แยก 1
สุมาตรา 1
op@@ 0.22850792956023552
กระบ@@ 1
กัม 1
ข่าวกรอง 1
ซาอุดีอาระเบีย 1
ประยูร 1
พน 1
พระพันปี 1
ศาสน 1
อันเนื่องมาจาก 1
เตย 1
แมนจู 1
4,000 1
ซื้อขาย 1
ประสิทธิผล 1
ร้องขอ 1
อักขระ 1
ียบ 1
ar@@ 0.10412427388994382
ชลประทาน 1
ดาวหาง 1
พยาธิ 1
อ๊@@ 1
คอล 1
คิดถึง 1
คุณภาพ@@ 1
ตัวอ่อน 1
ผีเสื้อ 1
พนมเปญ 1
สามัญชน 1
American 0.055388839678869185
Black 0.26452380816233334
ติดอาวุธ 1
ยวง 1
ลูกโลก 1
ั้ง 1
เส้นผ่านศูนย์กลาง 1
เอกภพ 1
แยกจาก 1
่วน 1
ชิ้น@@ 1
เมื่อใด 1
เอช@@ 1
แบล็ค 1
ให้คะแนน 1
ยืด 1
el 0.00600264625426533
en@@ 0.070822945049384
กระทรวงคมนาคม 1
การปฏิ@@ 1
บำ@@ 1
บุตรธิดา 1
มหาวิทยาลัยขอนแก่น 1
โลก@@ 1
คม@@ 1
ชนพื้นเมือง 1
ตรงกัน 1
ทำบุญ 1
นาวิกโยธิน 1
พอง 1
พุทธเจ้า 1
สมเด็จพระนางเจ้า 1
สวรร@@ 1
เสิร์ฟ 1
Re@@ 0.17733651923812965
ชะตา 1
ญาติ@@ 1
ทันต@@ 1
ทิน@@ 1
หรูหรา 1
เงียบ 1
เจ้าพนักงาน 1
เพิ่มจำนวน 1
เรือง@@ 1
แมลง@@ 1
ไท่ 1
22.@@ 1
งก@@ 1
ชั้นปี 1
ทั้งเป็น 1
พลู 1
ราชวรวิหาร 1
ic@@ 0.22022110815626908
ข้อต่อ 1
ทางธรรมชาติ 1
ปฏิสัมพันธ์ 1
มอน@@ 1
ราชาภิเษก 1
เม็ดเลือด 1
เลบานอน 1
แชมเป@@ 1
แอปพลิเคชัน 1
ไข 1
Battle 0.38920004660351054
ครูเสด 1
ชอง 1
ตกใจ 1
ทึบ 1
พบปะ 1
พันธ@@ 1
รอ@@ 1
สุน@@ 1
อำนาจหน้าที่ 1
เครดิต 1
เจ้าหน้าที่ตำรวจ 1
เบน@@ 1
เลียม 1
เสียงข้างมาก 1
โตะ@@ 1
w 0.3566224946434817
กรมพระยา 1
หาญ 1
ห้าง 1
อุดมสมบูรณ์ 1
ุม 1
เหมาะกับ 1
ไข้@@ 1
คลอ 1
บวม 1
พระพรหม 1
ลาดตระเวน 1
สวิ@@ 1
ออกไซด์ 1
เครื่องแต่งกาย 1
็ส 1
กรุ่น 1
คุรุ 1
ชัยนาท 1
ดั่ง 1
ติมอร์ 1
ภรา@@ 1
ร้อนใน 1
หลักเกณฑ์ 1
ฮู@@ 1
เซ่ 1
เปลือก@@ 1
แต่งตัว 1
โดยส่วนใหญ่ 1
โดส 1
จดหมายเหตุ 1
ทิล 1
ที่หก 1
สุขุม 1
เตือน@@ 1
เอกภาพ 1
ไวยากรณ์ 1
ชว 1
ธิการ@@ 1
ยุคใหม่ 1
สรรค์ 1
สาธิต 1
อ่าง 1
เคเบิล 1
เจ็บป่วย 1
เจ้าฟ้า@@ 1
เถรวาท 1
คำขวัญ 1
ซอก 1
ฝาแฝด 1
ระยะไกล 1
สนามหลวง 1
สีหนุ 1
หน่วยความจำ 1
เซิร์ฟเวอร์ 1
โอกะ 1
ความวุ่นวาย 1
ชำระ@@ 1
ณฑ์ 1
ผลกำไร 1
พีระมิด 1
มีผลกระทบ 1
เบงกอล 1
ชั้นล่าง 1
ณิช 1
ทับศัพท์ 1
ฟิล 1
ศาลรัฐธรรมนูญ 1
หน้าอก 1
เสนา@@ 1
แหล่งกำเนิด 1
โครงสร้างพื้นฐาน 1
9,@@ 1
b@@ 0.12492780210991754
จะงอย 1
จิร 1
ถึงขั้น 1
บรมนาถบพิตร 1
พระบาทสมเด็จพระมหาภูมิพลอดุลยเดชมหาราช 1
ร.ศ. 1
เนินเขา 1
เพลิงศพ 1
ทรยศ 1
ทำกิจกรรม 1
พัฒ@@ 1
สารอาหาร 1
เวลานี้ 1
Al@@ 0.12751685546390085
ตัน@@ 1
ปราจีนบุรี 1
พระชนม์ 1
หมิ่น 1
อิม@@ 1
เฉียบพลัน 1
เบาหวาน 1
กรมพระราชวัง 1
ข้อบังคับ 1
พัด@@ 1
ละออง 1
หนึ่ง@@ 1
อัยการ 1
เด่นชัด 1
เพจ 1
โจนส์ 1
ไม่ได้ 1
กรมสามัญศึกษา 1
พรต 1
ลิเบีย 1
เทคโนโลยีสารสนเทศ 1
แกร@@ 1
ดิ่ง 1
มาลัย 1
เกี่ยว 1
เบสบอล 1
กัลยา@@ 1
ครี@@ 1
ปริภูมิ 1
พิท@@ 1
ภาคพื้นดิน 1
มรสุม 1
ลิงก์ 1
|@@ 1
ผู้อพยพ 1
วัชร 1
สัตว์เลื้อยคลาน 1
เสือ@@ 1
ทศ 1
ฟอส@@ 1
อว์@@ 1
ความกลัว 1
จราจร 1
ช่องจราจร 1
ต" 1
ทางผ่าน 1
ม้วน 1
อุตสาห@@ 1
โพน 1
%@@ 1
Time 0.48178687586817626
ch 0.20327379644506446
นามปากกา 1
ปาร์ค 1
รอด@@ 1
ความปรารถนา 1
ดอม 1
นำทาง 1
ภูมิหลัง 1
ศิลปศาสตร์ 1
สะด@@ 1
หนุ@@ 1
เฒ่า 1
เดลี 1
เรียงลำดับ 1
ซุปเปอร์ 1
ตราด 1
ทัวร์นาเมนต์ 1
ปลูก@@ 1
ยอมแพ้ 1
สุเทพ 1
ห้างสรรพสินค้า 1
อเนกประสงค์ 1
เตีย 1
เสบียง 1
โยม 1
An@@ 0.11568591021468581
ul@@ 0.19711594024918358
รุ่นพี่ 1
เดินรถ 1
แข็ง@@ 1
่ย@@ 1
Girl 1
กาชาด 1
ขอร้อง 1
ตารางเมตร 1
ทัพเรือ 1
นันทน์ 1
พระมหากรุณาธิคุณ 1
2479 1
ความชอบ 1
จีนกลาง 1
ดัส 1
ปว@@ 1
สัมฤทธิ์ 1
สิทธิบัตร 1
อาร์กติก 1
ำเ@@ 1
เกสร 1
เงะ 1
เชย 1
เชื่อมั่น 1
เซียว 1
เตร@@ 1
ค่าที่ 1
ตัวประกัน 1
มั่นใจ 1
รัฐวิสาหกิจ 1
สนอง 1
เปร 1
"), 1
1959 0.248094763695372
ur@@ 0.1757075092520351
ทำความสะอาด 1
รมย์ 1
รัย 1
ศีลธรรม 1
ือร@@ 1
โนะ@@ 1
๋ย 1
es@@ 0.12488345506438274
พระพุทธบาท 1
ยโสธร 1
สท@@ 1
หล 1
ฮับ 1
เอื้อ 1
แก้แค้น 1
No 0.2600828351655295
ทหารอากาศ 1
ทิก 1
พนักงาน@@ 1
สะเทิน@@ 1
อภัย@@ 1
เนชั่น 1
เพชรบูรณ์ 1
์น 1
10@@ 0.41296320644510826
2483 1
ตาราง@@ 1
ท่าทาง 1
นิเทศศาสตร์ 1
ผี@@ 1
ผู้พิทักษ์ 1
ฝา@@ 1
พลโท 1
พารา@@ 1
ฤดูฝน 1
หน้าตัก 1
เจต@@ 1
เป็นเจ้า 1
้าน@@ 1
ตว@@ 1
ตะกั่ว 1
ทะเล@@ 1
พระเยาว์ 1
รุ้ง 1
อัคร@@ 1
เมืองขึ้น 1
น้ำทะเล 1
สปริง 1
เที่ยง 1
Sh@@ 0.1914473002723815
กำเริบ 1
ทวีปอเมริกาใต้ 1
สีมา 1
เกือบจะ 1
CO@@ 0.8381195921766095
Th@@ 0.23098118181521105
กวา 1
คาย 1
ตื่น 1
บรา@@ 1
ผนวช 1
รุณ 1
ออกดอก 1
เหม่ 1
แรงม้า 1
การซื้อขาย 1
ขนาดที่ 1
ทางการทหาร 1
ธรรมา 1
สรรพ 1
อัย@@ 1
เยอ 1
เสนี 1
เอ็มทีวี 1
โพธิ@@ 1
College 0.11242535721599818
ชาวยุโรป 1
ย้ำ 1
รุด 1
อุทัย 1
เทคโนโลยี@@ 1
เสมอกัน 1
เส้า 1
โปรดเกล้า 1
am 0.028822649318201093
di@@ 0.15411542876640105
นอกเหนือ 1
ผิดหวัง 1
พึ่งพา 1
ฟั@@ 1
ล้มล้าง 1
ห่ม 1
อัตลักษณ์ 1
โมน 1
กรดไขมัน 1
คงจะ 1
ตัวเลือก 1
ระดับความสูง 1
แก่ง 1
แบงก์ 1
โปรตอน 1
~ 1
นั่ง@@ 1
นิติศาสตร์ 1
พะ@@ 1
ฮอลลีวูด 1
at@@ 0.13253278714563516
กุม 1
คลื่นวิทยุ 1
คะ@@ 1
ดม 1
สวมใส่ 1
อารักขา 1
แซง 1
แพร่@@ 1
้ด 1
ครอบงำ 1
คริสต์ศาสนา 1
ตัวถัง 1
พย@@ 1
วุธ 1
งม 1
สำนักงานคณะกรรมการ@@ 1
อิบน์ 1
มุม@@ 1
ร่างพระราชบัญญัติ 1
เฉียว 1
ใช้อำนาจ 1
ity 0.20428144652897448
ทิศตะวันออกเฉียงเหนือ 1
เค้า@@ 1
เบญจ@@ 1
โผล่ 1
Royal 0.1680984519286378
ก่อการร้าย 1
ฑ 1
ตู@@ 1
ธ. 1
ฝ่า@@ 1
มนเทียร 1
รัว 1
ลอส 1
วรวิหาร 1
สุพรรณ 1
แฝด 1
โมร็อกโก 1
110 0.845768538191719
จูน 1
ดวล 1
ผู้เข้าประกวด 1
วัตต์ 1
สมมุติ 1
สละราชสมบัติ 1
อัค 1
เวนิส 1
เศรษฐ 1
โทมัส 1
08 0.7733923185568474
ก็@@ 1
ดาล 1
ทธา 1
ส) 1
สุภา 1
อัญมณี 1
แซ็ก 1
02 0.9555966381715276
การงาน 1
การจัด@@ 1
ตุลา 1
นายอำเภอ 1
ฟร็อง@@ 1
มว@@ 1
มาซิโดเนีย 1
รุม 1
วิมล 1
สองชั้น 1
หลักทรัพย์ 1
1919 0.27145862089180794
City 0.08488491717102731
ชอบธรรม 1
ดำรงชีวิต 1
นมัสการ 1
ฝ่ายใน 1
ส่งมอบ 1
เพร@@ 1
็บ@@ 1
นจ์ 1
บอร์น 1
สีห์ 1
อวัยวะ@@ 1
เท็จ 1
ทางไกล 1
ศิษย์เก่า 1
อันโต 1
เค้ก 1
19.@@ 1
1900 0.3431569805564723
กลุ่มชน 1
ชุ่ม 1
ดีมาก 1
ต่อจากนั้น 1
ทนายความ 1
ที่มั่น 1
ล้อเลียน 1
เฮด 1
่าน@@ 1
จัดกิจกรรม 1
ซากุระ 1
ทำเนียบ 1
ป้องกันตัว 1
วิสัย 1
สมอ 1
โทรเลข 1
1957 0.2462316960232281
นายแบบ 1
มหิดล 1
อยู่รอด 1
เกิน@@ 1
แหล@@ 1
โมเดิร์น 1
ph@@ 0.26294959834713394
ซูดาน 1
ตอนจบ 1
ประลอง 1
ฝัง@@ 1
เดต 1
แอนตาร์กติกา 1
โดราเอมอน 1
の@@ 1
ความไม่@@ 1
ด้วยตัวเอง 1
ถนน@@ 1
ทำนา 1
น้ำเงิน 1
ปฏิ 1
ประจวบคีรีขันธ์ 1
พระอารามหลวง 1
ฟลู@@ 1
ข้อกล่าวหา 1
คู่ต่อสู้ 1
ทัส 1
ผู้ประท้วง 1
พหลโยธิน 1
เพ็@@ 1
โกง 1
โรงเรียนสตรี 1
le 0.00573677843783875
ชนวน 1
ฟรา@@ 1
วอด 1
สรี@@ 1
เลซ 1
1912 0.3271015377061767
CO 1
กักกัน 1
ตกไป 1
นักประพันธ์ 1
สารละลาย 1
อมร 1
เป็นกรด 1
แวก 1
ไหม้ 1
รุก@@ 1
โทะ 1
๐@@ 1
กรง 1
ถึงแก่อนิจกรรม 1
ยานเกราะ 1
ลูกเสือ 1
หนัง@@ 1
อุลตร้าแมน 1
ิ้ล 1
ไบต์ 1
กลวง 1
ครั้งก่อน 1
ชื่อสกุล 1
ฮอนด้า 1
ฯ@@ 1
เครื่องแบบ 1
เฉพาะตัว 1
เทน 1
Live 0.47616629944858796
หฤทัย 1
เคิดส์ 1
เซน@@ 1
ใส่ใจ 1
000,000 1
กต์ 1
กลศาสตร์ 1
ชั่น@@ 1
ธำรง 1
ปง 1
ผู้ทรงคุณวุฒิ 1
ผู้ออกแบบ 1
สก็อต 1
เฉพาะทาง 1
เด็กหญิง 1
โปรโม@@ 1
็อบ 1
ควบคุม@@ 1
ฆา 1
นรา 1
พร้อม@@ 1
ริกา 1
อุบล 1
เข้าใกล้ 1
เชีย@@ 1
เดินเรือ 1
แยกแยะ 1
ไอริช 1
หน่อ 1
หัด 1
to@@ 0.26930371413059595
ตั๋ว 1
ยุทธ์ 1
รั้ว 1
ลำดับ@@ 1
วุฒิ@@ 1
ว่าจ้าง 1
เกษียณอายุ 1
เรียกตัว 1
Center 0.21126823339037715
กมล 1
คองโก 1
คาซัคสถาน 1
ชาวพุทธ 1
ตน@@ 1
ลิขิต 1
สัมปทาน 1
เชลย 1
ช่วยชีวิต 1
สติปัญญา 1
สโล@@ 1
อาร@@ 1
อำ 1
เต๋อ 1
แข้ง 1
โนวา 1
ค่อยๆ 1
ช้า@@ 1
ซี้ด 1
ทรานส์ 1
ทอย 1
ประมาณการ 1
ปรีดี 1
ลงทะเบียน 1
เซะ 1
เนื้อสัตว์ 1
เปน 1
ความเคารพ 1
จำต้อง 1
ถ่ายรูป 1
นิเวศ 1
พลศึกษา 1
สตีเฟน 1
ส่งผลให้เกิด 1
หนัก@@ 1
เก้าอี้ 1
แตกแยก 1
ความตั้งใจ 1
คำพิพากษา 1
จุดยอด 1
ธีม 1
นัลด์ 1
พรรณนา 1
ภริยา 1
เพลิน 1
ไส้@@ 1
06 0.8175196893948259
พรรณ@@ 1
ภาชนะ 1
วบ 1
แอลเบเนีย 1
โยง 1
โยธิน 1
โลมา 1
ขืน 1
ที่ต่ำ 1
พนัน 1
หารือ 1
ของแข็ง 1
ชนกลุ่มน้อย 1
ดอล@@ 1
สัมมา 1
ส่วนต่อ 1
อดิ 1
เกียรติคุณ 1
เซ็ก@@ 1
เว่น 1
เสริมสร้าง 1
แรงโน้มถ่วง 1
กลุ่ม@@ 1
ตระ@@ 1
ฟง 1
วสี 1
สงบศึก 1
เฟน 1
แคร์ 1
การบรรยาย 1
ความสวยงาม 1
คุ้มกัน 1
จากนี้ 1
ผุ@@ 1
สารีริกธาตุ 1
สำนวน 1
แรกเกิด 1
แหลม@@ 1
นักแสดงชาย 1
สวัสดิ 1
ไฟฟ้า@@ 1
ana 0.15083165237818846
กาจ 1
ซาก@@ 1
ตัวประกอบ 1
ทับที่ 1
นิวคาสเซิล 1
ปกรณัม 1
มาตร@@ 1
ม่าน 1
ยุคล 1
อนิ@@ 1
อโร@@ 1
เข้าทำงาน 1
เติล 1
Wrestling 0.8790770307490213
กราว 1
ขงเบ้ง 1
ขนม@@ 1
ดอนเมือง 1
บรรทัด 1
มล 1
มหาวิทยาลัยนเรศวร 1
รถจักร 1
รูปสี่เหลี่ยม@@ 1
ละทิ้ง 1
เซียง 1
เทน@@ 1
แสน@@ 1
21.@@ 1
ขอความช่วยเหลือ 1
ทัก@@ 1
นัว 1
ย่อย@@ 1
ลูกครึ่ง 1
ล่วง 1
สารภาพ 1
อดทน 1
เฟต 1
เวชศาสตร์ 1
ญญู 1
ตลอดมา 1
ทธิ@@ 1
รัช@@ 1
อมตะ 1
ฮัด 1
เฉย 1
เต็มดวง 1
โลห@@ 1
id 0.3187489009765012
is@@ 0.1483768747370009
การส่งออก 1
ชานุ 1
ทรุดโทรม 1
นิโคลัส 1
ปัด 1
ปั้น@@ 1
ภาส 1
วิล 1
เชื้อไวรัส 1
ซิล@@ 1
ซิลิ@@ 1
ตรึง 1
นครรัฐ 1
ผู้ตัดสิน 1
รวิ 1
รามาธิบดี 1
ศิลปกรรม 1
สิต 1
อุต@@ 1
เยาว@@ 1
เสนาธิการ 1
2460 1
นคร@@ 1
ฟาก 1
ภายใต้การควบคุม 1
ลุมพินี 1
สะเทือน 1
เครือ@@ 1
เฉพาะกิจ 1
เพศสัมพันธ์ 1
ไต่@@ 1
1953 0.2499359214894698
ตื้น 1
บอง 1
ผู้บังคับบัญชา 1
ฝ่ายซ้าย 1
วัยเยาว์ 1
สภาพ@@ 1
เล่าเรียน 1
โครงข่าย 1
กัมมันตรังสี 1
บทบัญญัติ 1
ประพาส 1
ฮย็อน 1
เรนเจอร์ 1
สืบต่อ 1
หลีก 1
อัลเบิร์ต 1
อีสต์ 1
เภสัชศาสตร์ 1
แมงมุม 1
ช็อน 1
ประจำเดือน 1
ยิ่งกว่า 1
ราฟาเอล 1
ละติจูด 1
วซ์ 1
ศร์ 1
เชียล 1
เม็ดเลือดแดง 1
แชนแนล 1
้อม@@ 1
ec@@ 0.1935363093267766
กรรมสิทธิ์ 1
กิ่ง@@ 1
ระเหย 1
รับงาน 1
วาร@@ 1
สภาพภูมิอากาศ 1
ึกิ 1
ือก@@ 1
แต่ละครั้ง 1
แถลงข่าว 1
แนวหน้า 1
แสบ 1
โบราณวัตถุ 1
การเข้ารหัส 1
คริสโตเฟอร์ 1
พลเรือเอก 1
มุกดาหาร 1
เฝ้า@@ 1
เส้นตรง 1
จื้อ 1
พาหนะ 1
มิยา 1
วัล@@ 1
โรคระบาด 1
กนก 1
ขงจื๊อ 1
ผู้สำเร็จราชการแทนพระองค์ 1
ลิ่ง 1
เกศ 1
เสวย@@ 1
โจทย์ 1
โซเฟีย 1
โทรศัพท์มือถือ 1
ให้ความสนใจ 1
ขี้ 1
งุ 1
ชดเชย 1
กัส@@ 1
ความชื้น 1
บีบีซี 1
พระเจ้าแผ่นดิน 1
ล่อง@@ 1
วก@@ 1
สุรทิน 1
เภสัช@@ 1
เหว่ 1
เอะ@@ 1
แจง 1
แจ๊ส 1
โชซ็อน 1
ไก่@@ 1
1933 0.24195027247301681
ฉ 1
ดาวรุ่ง 1
ปัว 1
มีเรื่อง 1
ศิลปวัฒนธรรม 1
สุภาพ 1
อ่างทอง 1
กำนัน 1
ณั@@ 1
ดล 1
พลิก 1
สตรีท 1
สืบสวน 1
สุภาพ@@ 1
ือบ@@ 1
เลื้อย 1
โอ้ 1
id@@ 0.17396481068282105
ชล@@ 1
ซิน 1
ตามเดิม 1
ปิน 1
รองศาสตราจารย์ 1
1955 0.23863688301214825
คืนชีพ 1
จ้าง@@ 1
ริบ 1
เชลล์ 1
เลเซอร์ 1
เวต 1
แตร 1
โธ 1
ใบ้ 1
ata 0.21559147527289976
จริ@@ 1
มีความจำเป็น 1
เหนือ@@ 1
!! 1
กระดอง 1
พิมพ์@@ 1
ยศาสตร์ 1
ศิลปวิทยา 1
สับ@@ 1
หลอดเลือดดำ 1
เปอ 1
แตง 1
การฉาย 1
พระวรวงศ์เธอ 1
มาเก๊า 1
หลอม 1
็อป 1
การฝึกฝน 1
กุย 1
ขากรรไกร 1
ซ้อม 1
มดลูก 1
สตรีม 1
เกรย์ 1
ธุ 1
พระบรมราชานุญาต 1
หรือ@@ 1
หอพัก 1
อัครมเหสี 1
เปิดรับ 1
เป็นปกติ 1
เพน@@ 1
เวส@@ 1
แห้งแล้ง 1
โดยอัตโนมัติ 1
Day 0.30855289806129754
กรมตำรวจ 1
ควา@@ 1
ดนตรีไทย 1
ทำเงิน 1
ยุบ@@ 1
ระเบิด@@ 1
สารานุกรม 1
อโศก 1
เกลียด 1
เฟซบุ๊ก 1
เยรูซาเลม 1
เหว@@ 1
ไพศาล 1
1917 0.2774965784916077
50,000 1
คณาจารย์ 1
ดีเซล 1
น้อม 1
พาวเวอร์ 1
รวง@@ 1
รึ 1
สุดท้อง 1
สไตน์ 1
หินปูน 1
ฮอร์ 1
แม่ฮ่องสอน 1
ฉีดวัคซีน 1
ถือศาสนา 1
มิชชันนารี 1
รายสัปดาห์ 1
ลักพาตัว 1
หัส@@ 1
"& 1
07 0.7622094341942622
ทุกข์@@ 1
นเท็น 1
พายุโซนร้อน 1
มณฑป 1
มิเตอร์ 1
รัญ 1
ลำไส้@@ 1
สระแก้ว 1
สั่งสอน 1
เต็ง 1
เว้า 1
โงะ 1
โอชา 1
ชย 1
ผู้มีอำนาจ 1
ยวดยิ่ง 1
ยุคปัจจุบัน 1
ว็อน 1
ศัลย@@ 1
สถาบันวิจัย 1
อุปรากร 1
เรียกขาน 1
แมร์ 1
แห 1
ไซปรัส 1
ํา 1
ขุ 1
ความจำเป็น 1
ฌา@@ 1
ดูเหมือนว่า 1
ทอดพระเนตร 1
สถิ@@ 1
สมมาตร 1
สัญจร 1
หด 1
แกง@@ 1
โภ@@ 1
ในทันที 1
ในทางปฏิบัติ 1
ไห 1
กงสุล 1
กลี 1
กวาดล้าง 1
ข้างล่าง 1
ครองราชสมบัติ 1
คอร์ด 1
คาร์บอนไดออกไซด์ 1
รากศัพท์ 1
สเตอร@@ 1
หวาย 1
อนุวงศ์ 1
เมกะ 1
เรนซ์ 1
ก้าน@@ 1
ครองแชมป์ 1
นาซา 1
บรรพชา 1
ผู้บังคับการ 1
รวมกลุ่ม 1
สุริยวงศ์ 1
ือร์@@ 1
เปลือกโลก 1
เลย์ 1
ite 0.20181838089798507
ชาตรี 1
นิวกินี 1
ปืนกล 1
อาการ@@ 1
เท่าเทียมกัน 1
โคว@@ 1
160 1
ST@@ 0.8663769178404178
คาราบาว 1
จิ้งจอก 1
ช็อง 1
ทิศตะวันตกเฉียงเหนือ 1
บั้นปลาย 1
ผู้ประกอบการ 1
พาณิช@@ 1
ระนอง 1
ฮกเกี้ยน 1
ถึงกระนั้น 1
บุกรุก 1
War 0.08749737130552925
กราน 1
การเฉลิมฉลอง 1
ตม 1
ป่วย@@ 1
หลุม@@ 1
ไช@@ 1
ン@@ 1
คลิป 1
ดัด 1
ตัวกลาง 1
ทิวเขา 1
พรี@@ 1
ลึกซึ้ง 1
สถูป 1
สำโรง 1
หุ่น@@ 1
เท่าไร 1
เรดาร์ 1
ใหญ่โต 1
La 0.015418208710134256
กลาโหม 1
กำพร้า 1
นัด@@ 1
นาฏ 1
ผู้อำนวยการสร้าง 1
พิฆาต 1
ยูนิต 1
รับคำ 1
ลำธาร 1
สมาพันธรัฐ 1
ึน 1
เซ็กซ์ 1
2477 1
ab@@ 0.08211027431847781
กราบ 1
นาน@@ 1
นาวา 1
ป่อง 1
ผู้สูงอายุ 1
สัมพุทธ 1
เครื่องเล่น 1
เลขา 1
เสรี@@ 1
แอตแล@@ 1
System 0.3704343640798863
í 0.4957947248589403
กรรมฐาน 1
กระสวย 1
ตั้@@ 1
นาโน 1
ยอดจำหน่าย 1
รูปภาพ 1
ลย@@ 1
เยาว์ 1
เสวย 1
140 1
ครีบหาง 1
ปูชนียวัตถุ 1
พญาไท 1
พวกเรา 1
ร็อบ 1
ลูกบาศ@@ 1
วิไล 1
สตูล 1
สันต์ 1
อุด@@ 1
เชิดชู 1
เมโทร 1
เสือโคร่ง 1
แนวนอน 1
คนดู 1
จำปาศักดิ์ 1
ทวน 1
ธัญ@@ 1
นำพา 1
บง 1
บอร์เนียว 1
มหาธาตุ 1
ราชาธิปไตย 1
เกษียณ 1
เดือดร้อน 1
แนน 1
โคม 1
am@@ 0.1287639430864693
การกลายพันธุ์ 1
การร้อง 1
คันทรี 1
ผู้มีชื่อเสียง 1
ภาวนา 1
ลูกเธอ 1
หาอาหาร 1
อภิเษก 1
ินี 1
โพก 1
1937 0.23828166829587868
กราบทูล 1
การปกป้อง 1
งคราว 1
ทั้งปี 1
บารอน 1
ปอง 1
ผลข้างเคียง 1
ราง@@ 1
อิส@@ 1
เอย 1
ไก@@ 1
+@@ 1
กินเวลา 1
จุดสูงสุด 1
ชนชั้นสูง 1
ดำเนินคดี 1
ตัวสำรอง 1
ปาร์@@ 1
อานา 1
ฮิปฮอป 1
โป้ 1
จบ@@ 1
ด็อก 1
ตีน 1
ถวายพระ@@ 1
ทฤษฎีบท 1
สุจริต 1
อล์น 1
เก็บภาษี 1
ใส่@@ 1
์ท 1
ขบวนรถ 1
คลี@@ 1
ฉาน 1
นักฟิสิกส์ 1
ผลิ 1
พระบาทสมเด็จพระพุทธเลิศหล้านภาลัย 1
พระราชนิพนธ์ 1
ยึด@@ 1
อนุรักษนิยม 1
เยเมน 1
เอื้อ@@ 1
แขกรับเชิญ 1
็จ 1
กะทันหัน 1
ทำลายสถิติ 1
เติร์ก 1
เพลิงไหม้ 1
แบก 1
โกศล 1
กัก 1
จ็อง 1
ย. 1
ย่อ@@ 1
อึ 1
เกจ 1
เหร@@ 1
CD 0.31117715482575503
Q@@ 0.2463556760743391
ขอบคุณ 1
ความยุติธรรม 1
คอลเล@@ 1
ตกใน 1
ถิ่นฐาน 1
วัฏจักร 1
อาร์ต 1
อิต 1
เซมิ 1
แต่ละ@@ 1
ในบางกรณี 1
Life 0.2569853880976653
http 1
system 0.09578196717404595
กาลเวลา 1
ดำเนินต่อไป 1
ทม 1
บางปะ@@ 1
ผิว@@ 1
พฤติ@@ 1
ศรีราชา 1
หวัด 1
ี้ 1
ธาตุ@@ 1
บาร์@@ 1
บ่อ@@ 1
พระอาทิตย์ 1
พราง 1
ฟ็อน 1
มิก 1
ศิวะ 1
เกลียว 1
เว้นแต่ 1
2473 1
os 0.07849656868294363
u@@ 0.14991799422863888
กิม 1
ขนาด@@ 1
ตู้@@ 1
พิธีการ 1
ระบบสุริยะ 1
วาดอร์ 1
หลาน@@ 1
อักษรศาสตร์ 1
เชิงเส้น 1
li 0.3785477682004465
ดำน้ำ 1
ดูดซึม 1
ปฐม@@ 1
พระปรมาภิไธย 1
วันรุ่งขึ้น 1
อ้อย 1
แบดมินตัน 1
108 1
2487 1
ฉ้อ@@ 1
พง@@ 1
พระราชาคณะ 1
ภาษามลายู 1
สมรรถนะ 1
อดัม 1
ฮัง 1
เพช@@ 1
กระเบน 1
ชด 1
บู่ 1
ผูกพัน 1
ผู้ถือหุ้น 1
เดล@@ 1
เหนี่ยวนำ 1
ไทมส์ 1
กสิ@@ 1
ก็ต่อเมื่อ 1
ตัวกระตุ้น 1
ถือหุ้น 1
ปลัด@@ 1
พลับพลา 1
อัพ 1
เบิ@@ 1
Ar@@ 0.10781772848473635
ทัง 1
ทำปฏิกิริยา 1
ทูน 1
บน้ำ 1
บูรณ์ 1
มหาวิทยาลัยศิลปากร 1
สเปกตรัม 1
อุด 1
03 0.8493791689650243
คราวนี้ 1
ฆ่า@@ 1
ชนะ@@ 1
ชั้นบน 1
ชีวิตครอบครัว 1
นง 1
ผู้ควบคุม 1
ผู้แต่ง 1
พลัด@@ 1
ภาษาถิ่น 1
สมเด็จพระบรมโอรสาธิ@@ 1
สมเด็จพระเจ้าตาก@@ 1
สังฆ@@ 1
แคป 1
โง@@ 1
กระทรวงยุติธรรม 1
ทัพ@@ 1
พก 1
สยาม@@ 1
สังคม@@ 1
สี่เหลี่ยม@@ 1
สเบิร์ก 1
เปี่ยม 1
โน้@@ 1
คต 1
ซาง 1
ทาวเวอร์ 1
ทีละ 1
ธรรมยุ@@ 1
ปลี 1
พันธสัญญา 1
พิพิธภัณฑ@@ 1
รูปลักษณ์ 1
ร้าย@@ 1
สเปซ 1
เกียง 1
2486 1
กระจัดกระจาย 1
จิว 1
นต์@@ 1
บรรณ 1
ปรก 1
วาว 1
สาว@@ 1
หลงรัก 1
อนุสรณ์สถาน 1
เงือก 1
เพศหญิง 1
→ 1
Co@@ 0.23131563999164334
Un@@ 0.20563454934381525
จอก 1
จุดโทษ 1
ณ์@@ 1
ตกเป็นของ 1
นำหน้า 1
ปลุก 1
ผืนผ้า 1
ยันต์ 1
อธิ 1
เป็นมิตร 1
เฟรม 1
ไอโซโทป 1
คติ@@ 1
จำนวนเต็ม 1
ซัม@@ 1
บัด@@ 1
ปติ 1
ผลดี 1
อธิษฐาน 1
ฮิลล์ 1
เพราะ@@ 1
แบบแผน 1
โปรโมต 1
่ะ 1
2472 1
Association 0.14738722005181343
co@@ 0.12789216541595946
การดำรงตำแหน่ง 1
ซึ่งกันและกัน 1
ผู้พัฒนา 1
ร้องไห้ 1
สงเคราะห์ 1
อุดมคติ 1
ไพเราะ 1
ไฮโดร 1
," 1
กระทำการ 1
กระเพาะอาหาร 1
คอลัมน์ 1
ชี้แจง 1
ซิดนีย์ 1
บ่ง 1
ประจ@@ 1
ฟาสซิสต์ 1
มกุ@@ 1
อร์ต 1
้นท์ 1
360 1
from 0.007712633286642249
un@@ 0.04747894841766011
ช่างภาพ 1
ตามล่า 1
นภา 1
บำรุงรักษา 1
ระกา 1
สมัคร@@ 1
อินทร@@ 1
เด็กหนุ่ม 1
โค่น 1
โซมาเลีย 1
6,000 1
กระแทก 1
การออกกำลังกาย 1
กิตติ@@ 1
ขันที 1
จันทร@@ 1
จู่ 1
ดัก@@ 1
ธรรมราชา 1
นิติบัญญัติ 1
ประกอบ@@ 1
ปลูกสร้าง 1
พิภพ 1
ร้อง@@ 1
วิ่ง@@ 1
และ@@ 1
โศก@@ 1
3.5 1
To 0.23856519818408625
ure 0.31415984087390186
ความมั่นใจ 1
ทางบก 1
พึง 1
ภิกษุ@@ 1
เป็นต้น@@ 1
โพล 1
ข้าวโพด 1
ความไม่พอใจ 1
ชอน 1
สมบูรณ์แบบ 1
หิรัญ 1
ไต้ฝุ่น 1
ฉันท์ 1
ฌู 1
ทีป 1
รัชต 1
ราชาธิราช 1
สต็อก 1
สย@@ 1
อรี 1
เชื้อ@@ 1
เรือหลวง 1
เสพ 1
colspan 0.6923467861315933
ขม 1
จุดกำเนิด 1
มิวสิ@@ 1
ศาสน@@ 1
อาร์ค 1
เชื้อพระวงศ์ 1
เล่นงาน 1
แปล@@ 1
1934 0.2497579678497921
Super 0.3127257518934741
ถือครอง 1
ยู่ 1
วุ่น 1
เฮฟวี่เวท 1
แอ็ก 1
โถ 1
ความดันโลหิต 1
สมาน 1
เรียส 1
เฮอริเคน 1
แก่@@ 1
ya 0.06164718034631878
ทางเดินอาหาร 1
ผู้ริเริ่ม 1
สตีฟ 1
สอง@@ 1
หยุดยั้ง 1
เคลื่อนตัว 1
เป็นต้นแบบ 1
เมน@@ 1
เล็ง 1
แข็งตัว 1
350 0.9291778220155613
กว่าง 1
ขั้วโลก 1
งานเลี้ยง 1
ซีกโลก 1
ตรัสรู้ 1
ที่ใด 1
ผู้ทำ 1
สนิทสนม 1
อ่าวไทย 1
แอนดรูว์ 1
แอนติ@@ 1
Show 0.39225488047803264
กาน 1
ตื่นเต้น 1
ธนบัตร 1
ปนเปื้อน 1
ฟอ@@ 1
มอนสเตอร์ 1
ลูกพี่ลูกน้อง 1
หนทาง 1
เดร@@ 1
112 1
กล้า@@ 1
ก๊าซ@@ 1
ข้อพิพาท 1
ฑา 1
ทุ่ง@@ 1
อิ่มตัว 1
เหยี่ยว 1
เฮฟ@@ 1
ไหลเวียน 1
นเดิส 1
ลาติน 1
สวามิภักดิ์ 1
ี๋ยน 1
ไพร่พล 1
1932 0.2622976092659853
ชั้นนอก 1
ดำเนินเรื่อง 1
น) 1
พิพัฒน์ 1
ภูฏาน 1
อีซี 1
เกิลส์ 1
เวทย์ 1
่วม@@ 1
ขอพระราชทาน 1
ถนัด 1
ธรรมะ 1
ย่ำ@@ 1
ระหว่างทาง 1
ล, 1
ฮอกกี้ 1
โรคติดเชื้อ 1
ๆ. 1
กัวลาลัมเปอร์ 1
งคืน 1
ทุ่งหญ้า 1
ธัญ 1
บางประการ 1
ฟิช 1
วีร@@ 1
หลอ@@ 1
เวิร์ก 1
แน่ใจ 1
แพ็ค 1
็อน 1
Con@@ 0.1583577310751095
et@@ 0.13205378927363953
ขิง 1
คล้ำ 1
ซ่อนตัว 1
นาโต 1
สินทรัพย์ 1
หอระฆัง 1
ฮาร์ด@@ 1
แกนกลาง 1
โหด 1
Institute 0.19265775920207567
ความคิด@@ 1
ตระเวน 1
ตั้งวง 1
น้ำนม 1
ฤดูใบไม้ร่วง 1
ลาม 1
สุริยะ 1
อัลลอ@@ 1
เดินขบวน 1
เป้ 1
เสม@@ 1
เหงือก 1
ative 0.25031130733294177
กลับเป็น 1
กลิ่นหอม 1
คาดหมาย 1
น้า 1
ผลรวม 1
พญา@@ 1
พีซี 1
อ์ 1
เรน 1
เลี่ยน 1
1924 0.26424193475948876
de@@ 0.12569998857319012
กรู 1
นำมาซึ่ง 1
ราชนาวี 1
วิทยาคม 1
สรีรวิทยา 1
สายเลือด 1
สำนักสงฆ์ 1
หด@@ 1
เภสัชกรรม 1
è 1
กันและกัน 1
กึ@@ 1
คู่หู 1
ทรงพลัง 1
นักปราชญ์ 1
บรรณาการ 1
ประกอบธุรกิจ 1
ผิวน้ำ 1
อาลัย 1
เบิ้ล 1
เปรียบเสมือน 1
เปาโล 1
ไวท์ 1
ก่ออิฐถือปูน 1
ถัน 1
ทึม 1
บีทีเอส 1
ปกปิด 1
ผู้เดียว 1
สกอร์ 1
แสวงบุญ 1
๊บ 1
1,500 1
กษ์ 1
ทโธ@@ 1
ยว 1
ยัก 1
รักษาตัว 1
รายการ@@ 1
สตาฟ 1
สมัยกลาง 1
หนึ่งในสี่ 1
ือย 1
เหลือ@@ 1
แปด@@ 1
โซเดียม 1
ใช้กำลัง 1
ไรต์ 1
ชกา 1
ทัศน@@ 1
ทางเรือ 1
ทเทิล 1
นครนายก 1
ประจัญบาน 1
สาวน้อย 1
สูบบุหรี่ 1
เชียง@@ 1
แนวตั้ง 1
แมว@@ 1
ida 0.23635491016227708
ขำ 1
คลั่ง 1
นัน@@ 1
วิกิ 1
เล็ต 1
30,000 1
ad@@ 0.10309741404786842
ง่ายๆ 1
ชาร์จ 1
ตัวเล็ก 1
วิศวกรรมศาสตร์ 1
สปอร์ 1
อค 1
8.@@ 1
ina 0.13145694267195282
ทิส 1
ประณาม 1
ปัจเจ@@ 1
ปิยะ 1
พลิก@@ 1
มนุษยชาติ 1
มิค 1
ล่อ 1
สำริด 1
หยาบ 1
ห้าม@@ 1
อย่างนั้น 1
เคนยา 1
เธ 1
แต้จิ๋ว 1
ข้อมูล@@ 1
ธิปไตย 1
พิม 1
สั่น@@ 1
เธีย 1
เมิน@@ 1
ไม้ยืนต้น 1
1,0@@ 1
ติกาล 1
บัน@@ 1
ปลีก 1
ภิกข@@ 1
เภ@@ 1
เวอร์จิเนีย 1
แท่นบูชา 1
แพ่ง 1
ไต่ 1
q 0.45208031864799264
กลางเดือน 1
การปล่อยตัว 1
ฆะ 1
ชนา 1
ซุย 1
นด์@@ 1
ปีใหม่ 1
ปี้ 1
มาตร 1
สำนักข่าว 1
เขี้ยว 1
1935 0.23626290268852926
tic 0.3354911498581145
พาร์@@ 1
ยูโรเปียน 1
ษฏ@@ 1
เจ้าหลวง 1
เพล็กซ์ 1
เพาะ@@ 1
โน่ 1
High 0.13759802393073822
กระทรวง@@ 1
ก้า@@ 1
ขั้นสูง 1
ยูเร@@ 1
อัด@@ 1
เดฟ 1
เอว 1
กัญญา 1
การก่อการร้าย 1
ครองตำแหน่ง 1
ทำสัญญา 1
พิบูล@@ 1
ราศี 1
รื้อถอน 1
ลงรัก 1
ล์ว 1
วุย 1
ษ์ 1
สรณ 1
สังเกตเห็น 1
สำมะโน 1
อัมสเตอร์ดัม 1
โศก 1
ต่างดาว 1
ถ้วย@@ 1
ทำเนียบ@@ 1
บุกเบิก 1
บ่งบอก 1
มอนเตเนโกร 1
ฮาร์@@ 1
เหมาะสำหรับ 1
โฆ@@ 1
๊ง 1
1928 0.24190248283329333
ang 0.24581810991216219
ase 0.317253152101424
นิดหนึ่ง 1
ปิโตรเลียม 1
ฟ้องร้อง 1
ระมัดระวัง 1
โพ้นทะเล 1
คงคา 1
คฤ@@ 1
ทะยาน 1
พายุดีเปรสชัน 1
สัต 1
อ็อง@@ 1
ั่ง@@ 1
โม่ 1
ไม้ตาย 1
2468 1
กอด 1
ผู้ลี้ภัย 1
มีเหตุผล 1
หายตัว 1
ห้องพัก 1
เวิร์ส 1
แก้ว@@ 1
โต้ตอบ 1
๖@@ 1
2470 1
Ex@@ 0.25566284973079617
st 0.3152836011949511
ความต้านทาน 1
คุณแม่ 1
บรมราชาภิเษก 1
ราชการทหาร 1
ลัก@@ 1
ศาสนา@@ 1
สั่งซื้อ 1
หันต์ 1
อัม@@ 1
อัลเฟรด 1
ุก 1
เขย 1
เมค 1
กระทิง 1
กะโหลก 1
ตั้งรกราก 1
นิมนต์ 1
ฟอง@@ 1
มีทาง 1
ยูโด 1
สามสิบ 1
อังวะ 1
อุปนิสัย 1
2.0 1
ขนา@@ 1
ความมืด 1
ดัช@@ 1
ฝัก 1
รวดี 1
เนีย@@ 1
เอดส์ 1
ใหล 1
กลม@@ 1
กาซา 1
ด้อย 1
บีบ@@ 1
ปากคลอง 1
สาคร 1
สำมะโนประชากร 1
อัศ@@ 1
โดยธรรมชาติ 1
ไทใหญ่ 1
ไนจีเรีย 1
8,000 1
คราม 1
คูหา 1
จาก@@ 1
ญ์ 1
ดน@@ 1
ปรินิพพาน 1
เนี@@ 1
เบีย@@ 1
โค่นล้ม 1
ไฟไหม้ 1
ด" 1
ต์" 1
ธรรมศาสตร์ 1
บาดแผล 1
มีฝีมือ 1
ย่างกุ้ง 1
ลึง 1
สเก@@ 1
เพชร@@ 1
เอี้ย 1
แอฟริกัน 1
บรรลุ@@ 1
ผู้เข้าชม 1
พระราชประสงค์ 1
ร่างกฎหมาย 1
สงบสุข 1
สิ่งใด 1
เจี้ยน 1
เฟซ 1
แข@@ 1
แมง@@ 1
ไหว@@ 1
ความบันเทิง 1
นายก@@ 1
นิเวศวิทยา 1
รติ 1
ร์ก@@ 1
ลิ้ม 1
ศรีวิชัย 1
เมล@@ 1
j@@ 0.11324492457486013
ol 0.25999871519699314
คณะรัฐศาสตร์ 1
บัดนี้ 1
ประเทศชาติ 1
มรกต 1
ย็อน 1
รายวัน 1
สจ@@ 1
ส์) 1
เล็ก@@ 1
ในที่นี้ 1
2474 1
กินี 1
ฉุ@@ 1
ซ็อง@@ 1
ตติย 1
ตำรวจภูธร 1
ผ่อง 1
สนม 1
สิ่งพิมพ์ 1
สืบเนื่อง 1
ฮง 1
เกาะ@@ 1
เน็ต@@ 1
it@@ 0.13656752625151036
คณะราษฎร 1
ฐ์ 1
ปราโมช 1
พลศาสตร์ 1
พุต 1
รณี 1
หลี 1
ไรเฟิล 1
1951 0.22258186226681856
Park 0.10855623163583783
ดอกบัว 1
นิรันดร์ 1
บอสตัน 1
พิทยา@@ 1
มัส@@ 1
ระดมทุน 1
ลูกน้อง 1
วรา@@ 1
วิษณุ 1
เคียง 1
เลิ@@ 1
เอ็นเตอร์เทนเมนต์ 1
การบรรจุ 1
การสัมผัส 1
ขวัญ@@ 1
ข้างใน 1
ชเว 1
ดู่ 1
ตาย@@ 1
นที 1
พรรคพลังประชาชน 1
ฟเฟ@@ 1
ไห@@ 1
Academy 0.19654865161693208
กลั่น@@ 1
คลุ@@ 1
คว่ำ 1
ญฺ@@ 1
ธารา 1
ยิมนาสติก 1
วรมหาวิหาร 1
เขน 1
แหล่งท่องเที่ยว 1
โพร@@ 1
2457 1
AS@@ 0.5741071271800321
Great 0.2163269372333175
lo@@ 0.18046972551923554
กาง 1
กำแพงเมือง 1
ก่อนประวัติศาสตร์ 1
ขม@@ 1
ขึ้นฝั่ง 1
จลาจล 1
ฐานทัพ 1
บัญชาการ@@ 1
มีความผิด 1
ล้อ@@ 1
สัมพันธ์กัน 1
เส้นเลือด 1
โสม 1
ในทางกลับกัน 1
ไอซ์ 1
2463 1
Grand 0.14034363765463562
Top 0.32188458199413006
ขึ้นอยู่ 1
คว้า@@ 1
ติน 1
บิท 1
ศาสตรมหาบัณฑิต 1
ศิริ@@ 1
เป็นกำลัง 1
แกล 1
2455 1
On 0.03056657915090747
ขง 1
ขจัด 1
ความสามารถพิเศษ 1
คะแนน@@ 1
คูเวต 1
ซุ่ม 1
ตอนท้าย 1
ปานามา 1
ผู้ประกาศข่าว 1
สระ@@ 1
อาบ 1
ีบ 1
เลื่อมใส 1
ไอบี@@ 1
การตาม 1
ขอโทษ 1
ชาร์ท 1
ทท 1
ทางเทคนิค 1
รวมเล่ม 1
ล้ำ@@ 1
ศี@@ 1
อันดามัน 1
ฮุ่ย 1
เจ้าพ่อ 1
ของเล่น 1
คัฟ 1
จำกัดความ 1
ซัด 1
ทิศตะวันตกเฉียงใต้ 1
มอบ@@ 1
มาร์ช 1
รู้เรื่อง 1
วิส 1
ส้ม@@ 1
หลานชาย 1
ี่ยม 1
เร็น 1
2471 1
กึ่ง@@ 1
พระโพธิสัตว์ 1
มีพิษ 1
รำลึกถึง 1
สนามฟุตบอล 1
อิงประวัติศาสตร์ 1
ฮอก@@ 1
เจอกัน 1
เจา 1
เจียว 1
House 0.10777795274234139
em@@ 0.12539939175708356
ความสะดวก 1
รวย 1
วางตัว 1
สิ่งอำนวยความสะดวก 1
หินทราย 1
เลียบ 1
แคทเธอรีน 1
โด้ 1
ไทเป 1
จัดเรียง 1
ฎีกา 1
ณัฐ@@ 1
ตอบคำถาม 1
พวง@@ 1
พิน 1
พินิจ 1
ภุ@@ 1
รัฐประศาสน@@ 1
สนามรบ 1
หมี่ 1
โมง 1
ไกล@@ 1
125 0.874376201333195
AC 0.4865408610818523
Film 0.12383817166572444
ซุป 1
ทัว 1
น้ำดี 1
พุ่ม@@ 1
มานุษยวิทยา 1
มิสซัง 1
มูลฐาน 1
รอยต่อ 1
รูปสามเหลี่ยม 1
เพิ@@ 1
โต้เถียง 1
โอะ@@ 1
Science 0.2803633367431162
St 0.18844891598267627
ขออนุญาต 1
ครั@@ 1
ตำแหน่ง@@ 1
ทั้งตัว 1
สหกรณ์ 1
อีกที 1
อีส 1
เงียบ@@ 1
เผาไหม้ 1
แข 1
ah 0.21946965843406277
ผู้เรียน 1
พระพุทธ@@ 1
ภี@@ 1
หินอ่อน 1
เคียน 1
เลี้ยว 1
style 0.12479840453577286
กรดอะมิโน 1
ดุริยางค์ 1
ตลอดปี 1
ทธิ์ 1
ทรุ@@ 1
ทวีปอเมริกา 1
ธง@@ 1
น่ากลัว 1
ผู้ต้อง@@ 1
หวาดกลัว 1
อธิก@@ 1
อำนวยความสะดวก 1
แช่@@ 1
film 0.03810179781227808
ti@@ 0.12987580629793807
คนร้าย 1
ดร@@ 1
ทนทาน 1
ทุติ@@ 1
นาว@@ 1
นิกซ์ 1
ประมูล 1
ปูน@@ 1
พระราชกรณียกิจ 1
สับ 1
การกบฏ 1
นช์ 1
มีคุณค่า 1
ยาสูบ 1
ยี@@ 1
อุย 1
โดดเดี่ยว 1
โบว์ 1
้องกัน 1
"คน 1
Asia 0.3271578438967862
William 0.09839356263174552
บรอด@@ 1
ปฐมภูมิ 1
พังงา 1
ฟอสซิล 1
ร์ม็อง 1
วอลล์ 1
อับ@@ 1
ฮุย 1
เป็นความ 1
แคว 1
คมนาคม 1
ตัวอาคาร 1
ตาบอด 1
ทสึ 1
เซลล@@ 1
เดอะ@@ 1
๐๐ 1
DC 0.45352535645623127
นบี 1
พรรคพวก 1
ฟอก 1
ลักลอบ 1
สร้างภาพ 1
สัญ@@ 1
สันติ@@ 1
เจ้าแม่ 1
เวิร์ค 1
กรมพระยาดำรงราชานุภาพ 1
กร่อน 1
จักรยานยนต์ 1
ด้ว@@ 1
ตองอู 1
ทำนอง@@ 1
นน@@ 1
บาดเจ็บสาหัส 1
เครื่องใช้ 1
เดอะสตาร์ 1
เด็กสาว 1
เรียน@@ 1
การตั้งถิ่นฐาน 1
ซื่อสัตย์ 1
ตย 1
ที่พำนัก 1
บถ 1
ผดุ@@ 1
ผัด 1
พระบรมราช@@ 1
สิก@@ 1
อุบาย 1
เชา 1
เป็นอัน 1
เย็น@@ 1
โซนี่ 1
ไถ 1
2456 1
James 0.10535354158626718
na 0.09204000811890817
กราบบังคมทูล 1
คำปรึกษา 1
ชั้นเดียว 1
ทับทิม 1
ทิศตะวันออกเฉียงใต้ 1
นิด@@ 1
พัล 1
มร 1
รรษ 1
วิทยาศาสตร์@@ 1
สฤษดิ์ 1
อไรด์ 1
เกี่ยวพัน 1
เคารพ@@ 1
เป็นใหญ่ 1
้วม 1
ชาดก 1
มาลาเรีย 1
สมุด 1
แคโร@@ 1
โดยไม่@@ 1
Art 0.13148654150448255
à 0.005098941109125223
กิ้งก่า 1
พหุ@@ 1
ลอว์ 1
สวัสดิการ 1
สังค 1
อัยยิกา 1
อึ้ง 1
โสภา 1
0.5 1
ent 0.07618351234161602
จาการ์ตา 1
ดับเบิล 1
ทบ. 1
นีส 1
ประมวลผล 1
พูดว่า 1
มีสีสัน 1
วิธาน 1
สิบเอ็ด 1
อวตาร 1
ไม้พุ่ม 1
4.@@ 0.6067327675258533
ธัม@@ 1
รับสัญญาณ 1
เอ็นเตอร์เทน 1
แว่น@@ 1
ใช้สอย 1
AR@@ 0.609897093824982
Mar@@ 0.09686105843438354
le@@ 0.1255890039642137
กาว 1
ซิลเวอร์ 1
ผู้สอน 1
พระศรี@@ 1
พาล 1
พิพาท 1
ยอด@@ 1
รู้ตัว 1
เยอะ 1
โฮะ 1
...@@ 1
ref 0.581293050024848
กระทรวงพาณิชย์ 1
กินใน 1
นีย@@ 1
น้ำพุ 1
ปน@@ 1
พระคุณ 1
ลูกจ้าง 1
ื้@@ 1
ฉนวน 1
ธรรมการ 1
ปลุก@@ 1
ฝึกงาน 1
วิทยาลัยครู 1
อว์น 1
อัง@@ 1
แพะ 1
ator 0.20988316955105626
การชนะ 1
ดาภิเษก 1
เป็นไปไม่ได้ 1
เพิก@@ 1
แจกจ่าย 1
Car@@ 0.14223096634016874
กฎเกณฑ์ 1
คิก 1
คุมกำเนิด 1
ชเล 1
ตำรวจ@@ 1
ธวัช 1
บริดจ์ 1
บอลติก 1
ประกวดนางงาม 1
ยาพิษ 1
สิ้นเชิง 1
เขตปกครองตนเอง 1
้าง@@ 1
王@@ 0.41164161729001436
w@@ 0.10782294088558023
กองโจร 1
การสืบสวน 1
ชู้ 1
ฐา@@ 1
นางใน 1
นึ่ง 1
พรสวรรค์ 1
วิปัสส@@ 1
อัลกุรอาน 1
อาด 1
เท่าไหร่ 1
แฌ@@ 1
โค้ด 1
โภชนาการ 1
200,000 1
คู่ขนาน 1
ดาน@@ 1
ทรั@@ 1
ยืด@@ 1
ลงมือ 1
ศักดิ์@@ 1
สหรัฐอาหรับเอมิเรตส์ 1
หนิง 1
เชิ@@ 1
แสง@@ 1
โจน 1
ไล่ล่า 1
z@@ 0.0760351352294542
ธูป 1
นั้น@@ 1
บรัสเซลส์ 1
ปิตุลา 1
สวา 1
หมู@@ 1
ฮุน 1
เชสเตอร์ 1
เถื่อน 1
แผ่รังสี 1
ให้หลัง 1
ed@@ 0.17670701271932465
ความมั่งคั่ง 1
จุดหมายปลายทาง 1
บัต 1
มาณ@@ 1
มุด 1
วัณ@@ 1
เคีย 1
เซิล 1
ไซด์ 1
์ต 1
ated 0.0803529887645112
กค 1
กริด 1
กายวิภาคศาสตร์ 1
ก๋@@ 1
ถวาย@@ 1
ถัด 1
นาการ 1
พล.@@ 1
ยูนนาน 1
ย้อนหลัง 1
รัด@@ 1
วอร์@@ 1
องค์ความรู้ 1
เบร 1
เลง 1
แอร์@@ 1
500,000 1
Series 0.27780204606760844
ขว@@ 1
ชั้@@ 1
ตุล 1
ธรรมนูญ 1
พ.ต.ท. 1
พระราชพงศาวดาร 1
พันธุ@@ 1
มหาบัณฑิต 1
มุสโสลินี 1
ราคาแพง 1
สถานทูต 1
สห@@ 1
สิริ@@ 1
ื่น@@ 1
เครื่องค@@ 1
เช่น@@ 1
แกร์ 1
การประมง 1
จริง@@ 1
ชีว@@ 1
ชุมพล 1
ผู้ฟัง 1
ในความเป็นจริง 1
ความยาวคลื่น 1
คอร์น 1
ซีส 1
ตามหลัง 1
บีเอ 1
ผู้สื่อข่าว 1
พลัง@@ 1
ลูกผสม 1
วล์ 1
วุ่นวาย 1
อรี่ 1
อ่างเก็บน้ำ 1
เจ้ากรม 1
เช็ค 1
เหมืองแร่ 1
Red 0.19470677448530305
si@@ 0.253039489716694
คัมภีร์ไบเบิล 1
ดูแลรักษา 1
ประชาชาติ 1
ฝอย 1
พายัพ 1
หนี้@@ 1
โต้@@ 1
1.2 1
Par@@ 0.14801929932274402
Year 0.2999687342592001
กระแสน้ำ 1
ต้าร์ 1
ที่กล่าว@@ 1
ที่ไหน 1
ฝูงบิน 1
พยุ@@ 1
เนียร 1
กว้างใหญ่ 1
กานต์ 1
คนสนิท 1
ความอุดมสมบูรณ์ 1
ณัติ 1
ดิสก์ 1
นางฟ้า 1
นาฏศิลป์ 1
ฝึกสอน 1
พรุน 1
วงเวียน 1
สพ 1
"” 1
7.@@ 0.8961521124528794
]]@@ 1
a-@@ 1
ง่ายดาย 1
ดังเดิม 1
นป@@ 1
บ็อกซ์ 1
สัจ@@ 1
สเกต 1
ือย@@ 1
เร่ง@@ 1
โหดร้าย 1
้อน@@ 1
1911 0.28860929705285504
5.@@ 0.6643908435836527
ers 0.0544649862711528
กาด 1
กุม@@ 1
ขะ 1
ทย@@ 1
ทวา@@ 1
ธิการ 1
บ็อบ 1
พัทธสีมา 1
ภาร 1
ว่าน 1
สหศึกษา 1
ิ้ง 1
เทศน์ 1
กลูโคส 1
ซิส 1
ถั@@ 1
น้ำตาล@@ 1
บัด 1
อิ่ม 1
เครื่องเทศ 1
เซเวน 1
2467 1
ea 0.24970206304812212
ครุฑ 1
จำนง 1
ช่วงอายุ 1
ทรงกระบอก 1
นาคา 1
พระบาทสมเด็จพระวชิรเกล้าเจ้าอยู่หัว 1
พึงประสงค์ 1
ฟัง@@ 1
ภัย@@ 1
รถบรรทุก 1
สดุ@@ 1
หล่อ@@ 1
อีฟ 1
เอียน 1
โปรด@@ 1
18.@@ 1
was 0.002631462136511212
กลั่น 1
การสืบทอด 1
ความผูกพัน 1
ด่าง 1
ธรรมา@@ 1
ธุร@@ 1
น้ำเหลือง 1
พิมาน 1
อิด 1
เ 1
เทล 1
เหง้า 1
กันต์ 1
การจับกุม 1
คงเหลือ 1
บิก 1
มีส่วนช่วย 1
สาส์น 1
หย่าร้าง 1
เงินเดือน 1
เชิงลบ 1
เวเนีย 1
ไนโตรเจน 1
็อท 1
450 1
ary 0.18090844450635563
ตะกร@@ 1
ทส์ 1
นุต 1
พระมหา@@ 1
ลูคัส 1
สารพิษ 1
อรรถกถา 1
เตรียม@@ 1
เล็ม 1
เอสโตเนีย 1
แมสซาชูเซตส์ 1
แอลจีเรีย 1
์ธ 1
); 1
Party 0.12556496260673664
กม 1
กะปิ 1
บาด 1
หนองบัวลำภู 1
หลาย@@ 1
ออง@@ 1
อักษะ 1
เฉพาะเจาะจง 1
เหลียว 1
แถ@@ 1
โปรดักชั่น 1
der 0.0025204779451307524
คัต 1
คั่น 1
บ่ง@@ 1
ภาร@@ 1
มะกอก 1
รถราง 1
ษฎา 1
สง่า 1
ออดิ@@ 1
1910 0.25413283886834176
ก่อน@@ 1
ซ์" 1
ดำเนินชีวิต 1
ดิ้ง 1
ทุนนิยม 1
นารายณ์ 1
ฟู@@ 1
โปร่ง 1
Song 0.35237788641565587
ter 0.09985240083240984
กก@@ 1
กึ่งกลาง 1
ควง 1
จัก@@ 1
ชั้นหิน 1
ถ้อย@@ 1
ทางเดียว 1
นราธิวาสราชนครินทร์ 1
พลตำรวจเอก 1
ภัตตา@@ 1
มะนิลา 1
วาจา 1
สองเท่า 1
หุ้นส่วน 1
อี๋ 1
เวียด 1
แนวโน้ม 1
โอลิ@@ 1
Big 0.25109553992420397
ก่อเหตุ 1
ชาร์@@ 1
ด้า@@ 1
ต่อรอง 1
นอต 1
นารา 1
บาก 1
บูรณาการ 1
ผลงานวิจัย 1
ผังเมือง 1
ละเลย 1
ศุลกากร 1
หันหน้า 1
เยี่ยมชม 1
โชคดี 1
โรเจอร์ 1
2443 1
กิริยา@@ 1
ครึ่งหลัง 1
คิ้ว 1
คึก@@ 1
จุลินทรีย์ 1
ถอดถอน 1
ประสู@@ 1
พน@@ 1
พลอากาศ@@ 1
พ่อขุน 1
วรรณยุกต์ 1
สิบห้า 1
เดรีย 1
็ต@@ 1
105 0.9514874101418913
us@@ 0.13483551619771156
คำสาป 1
ทริ@@ 1
นตำ@@ 1
ผัน@@ 1
พระพักตร์ 1
ริล@@ 1
สีดา 1
ส่วนล่าง 1
ีย์@@ 1
เจี๋ย 1
เบ็น 1
เฟร์นัน 1
เรียนหนังสือ 1
โมนาโก 1
1914 0.21434289224818015
2461 1
การประมวลผล 1
ควน 1
ความสูญเสีย 1
ชิ่ง 1
ช้าง@@ 1
ทรา 1
ปาฏิหาริย์ 1
ผู้นำ@@ 1
มหากาพย์ 1
ยมทูต 1
สถานการณ์ฉุกเฉิน 1
สมี 1
สัจ 1
หว้า 1
เดือน@@ 1
โปรโมท 1
่ห์ 1
“" 1
16.@@ 1
ant 0.06750627862044488
คิริ 1
ผู้บุกเบิก 1
ล็อต 1
อานนท์ 1
เฟ้อ 1
เรน@@ 1
แคป@@ 1
แพร่ระบาด 1
กระรอก 1
ตานี 1
ทิต 1
ภาพประกอบ 1
รซ 1
วัส 1
ศึกษาศาสตร์ 1
สิก 1
หาเสียง 1
อินเตอร์เนชั่นแนล 1
าะ@@ 1
เจือ 1
เหลียน 1
โฟร 1
្@@ 1
1922 0.2358551716954248
2469 1
Japan 0.1517762263611246
กรณ์ 1
กระทรวงเกษตรและสหกรณ์ 1
จาม@@ 1
ถึงขนาด 1
ท่วม 1
ท้า@@ 1
สายฟ้า 1
ฮิป@@ 1
เค็น 1
เปรี้ยว 1
โดยสิ้นเชิง 1
ใฝ่@@ 1
ology 0.2662231252096719
กอบ@@ 1
การศึกษา@@ 1
ความแข็งแรง 1
คาร์ดินัล 1
คู่ปรับ 1
บรรทม 1
รักษาพยาบาล 1
สำอาง 1
หลอม@@ 1
อ้างสิทธิ์ 1
กระต@@ 1
ทัศนะ 1
นาฏกรรม 1
นาวา@@ 1
ปฏิบัติภารกิจ 1
สงครามเย็น 1
เมนท์ 1
​​ 1
2450 1
EP 0.35297556316618667
SE@@ 0.6884010524966347
กรมการ@@ 1
กรรมการผู้จัดการ 1
กำลังภายใน 1
ความตึงเครียด 1
ช่อ@@ 1
ผู้อยู่อาศัย 1
ภัส@@ 1
ภิบาล 1
ยุโรปตะวันออก 1
รอก 1
ลอยตัว 1
สเซียม 1
หวน 1
เงินตรา 1
โฆษณา@@ 1
โซม 1
2453 1
กฤ@@ 1
การผจญภัย 1
ค่าจ้าง 1
จม@@ 1
จินต 1
ซู่ 1
ทำคะแนน 1
ปฐมทัศน์ 1
รถโดยสารประจำทาง 1
สะดุ@@ 1
อะลูมิเนียม 1
อินท@@ 1
เลี่ยม 1
การออก@@ 1
ชาวพื้นเมือง 1
ณห@@ 1
ธงชัย 1
บดินทรเดชา 1
ประกาย 1
ผู้รับผิดชอบ 1
ยุวชน 1
รูด 1
หัส 1
อุจจาระ 1
ฮ์@@ 1
โหราศาสตร์ 1
ก้อนหิน 1
คอก 1
ชีส 1
ชี้ให้เห็น 1
บาหลี 1
บุคคล@@ 1
รถโดยสาร 1
ลักษณะ@@ 1
วลัย 1
เพาะเลี้ยง 1
โปร่ง@@ 1
ไวโอลิน 1
1908 0.2864456592009007
ag@@ 0.10984190793531863
ene 0.18875702234370914
คต@@ 1
จงรักภักดี 1
ซุ้มประตู 1
พรรคพลัง@@ 1
รุณ@@ 1
หมอลำ 1
เคด 1
เคียง@@ 1
เดียน@@ 1
แยกทาง 1
โพส 1
ได้ชื่อ 1
111 1
En@@ 0.17484532582038603
ขาบ 1
ชะงัก 1
ประกอบการ 1
ป้าย@@ 1
รัส@@ 1
วิกฤติ 1
หลอน 1
หลุด@@ 1
อัซ 1
แบ่งปัน 1
ไซเบอร์ 1
IN@@ 0.6490874097101227
จั่น 1
จีบ 1
ถอดรหัส 1
ถ่าน 1
นักลงทุน 1
รณ@@ 1
วงจร@@ 1
ษฎ@@ 1
สมอง@@ 1
อาศัย@@ 1
แบร์@@ 1
โพธิสัตว์ 1
ensis 0.36229762704166246
กำแพง@@ 1
ครั้@@ 1
คีย์บอร์ด 1
ชั้นเรียน 1
ทริก 1
ยกน้ำหนัก 1
สอบถาม 1
ออกคำสั่ง 1
เซ็นเซอร์ 1
แตะ 1
Young 0.2790725913091581
คัม@@ 1
จัส 1
ด้าย 1
มีชัย 1
สื่อสารมวลชน 1
เป็นธรรม 1
โคราช 1
ควร@@ 1
จ๊ก 1
ตกหลุมรัก 1
ประหลาดใจ 1
ผู้ตาย 1
ผู้ประพันธ์ 1
มะละ@@ 1
ลองจิจูด 1
วัติ 1
โล่ง 1
กรับ 1
คิล 1
คู่รัก 1
ฉับพลัน 1
ตบ 1
ตับ@@ 1
บาล@@ 1
ปรับอากาศ 1
รัตนา 1
ล้วนแต่ 1
หมุ@@ 1
อาเจียน 1
ั่น 1
เครียด 1
เทิง 1
เสียสละ 1
เอี่ยม 1
2459 1
ตูม 1
ผู้ยิ่งใหญ่ 1
ยล 1
ราชการ@@ 1
รีฟ 1
ลาดพร้าว 1
ลาภ 1
วอล์ค 1
เกลี้ยง 1
เกี่ยวเนื่อง 1
เทียร 1
์บง 1
Di@@ 0.1727582078294057
Michael 0.1258395924410842
per@@ 0.13013031794243787
ครับ 1
ความชำนาญ 1
ความยากลำบาก 1
จันทรา 1
ดุร้าย 1
น.@@ 1
ป๋อง 1
ลุกฮือ 1
สโลวีเนีย 1
ี้ยน@@ 1
เข้าที่ 1
เนียล 1
เบียน@@ 1
เสือดาว 1
2466 1
คงตัว 1
จับสลาก 1
ซัมซุง 1
ติ้ง 1
ปิย 1
ฟื้นตัว 1
รุต 1
อุซเบกิสถาน 1
เอ็สเอ็ส 1
แบร์ก 1
แผ่@@ 1
แวดล้อม 1
โน้มถ่วง 1
ไบร 1
WBC 1
ir@@ 0.12120824886125407
งุ@@ 1
ญญากาศ 1
ดูด@@ 1
ท่าที 1
มหกรรม 1
หนุ่มสาว 1
ออริกอน 1
อัยกา 1
ูกิ 1
เกรง@@ 1
เยีย 1
เอิร์น 1
แฟมิ@@ 1
แล็ก@@ 1
แอนดรอยด์ 1
็ป 1
่งข@@ 1
Records 0.16004806369236516
คู่มือ 1
ตุ่ม 1
บำเพ็ญกุศล 1
ป้อง 1
พลี@@ 1
พันธุ 1
มนตรี@@ 1
ลิบ 1
ลิป@@ 1
ลี้ 1
สงกรานต์ 1
สระน้ำ 1
เคือง 1
เจนีวา 1
เนบิวลา 1
แวมไพร์ 1
ใคร@@ 1
2465 1
งิ้ว 1
ตรร@@ 1
ตระหนักถึง 1
ธุดงค์ 1
ผสาน 1
ฝีปาก 1
สมิ@@ 1
หนาว@@ 1
หิมาลัย 1
อร์ท 1
อากร 1
อุดร 1
อเรชั่น 1
เกี่ยว@@ 1
เจ็บปวด 1
เซี่ย 1
เบก 1
แซลมอน 1
โยกย้าย 1
ไซบีเรีย 1
กรอ 1
กัณ@@ 1
ครึ่ง@@ 1
ญั@@ 1
พุทธศาสนิกชน 1
ราชสันตติวงศ์ 1
ลเฮ็ล์ม 1
สัท@@ 1
ิ่น@@ 1
เฉียง 1
เป็นต่อ 1
แดง@@ 1
115 1
การบัญชี 1
คอล@@ 1
ค้อน 1
น้ำผึ้ง 1
บันทึก@@ 1
บิดเบ@@ 1
วัฒนะ 1
หายนะ 1
อุรุกวัย 1
เนน@@ 1
เอกฉันท์ 1
แขวนนวม 1
โดยปริยาย 1
ไร้สาย 1
Mon@@ 0.16524394404050222
Night 0.4161099181118445
Rock 0.25149178715214465
กล้วยไม้ 1
กษา 1
คนพิการ 1
จิตต์ 1
ชำ 1
ณิ 1
นิธิ 1
นิ่ม 1
ปัญจ 1
ภาย@@ 1
ยุโรปตะวันตก 1
สเก็ต 1
หลงเหลือ 1
เจิน 1
Of 0.3480919189213072
การจลาจล 1
การชน 1
ก้านใบ 1
ขนนก 1
ขวาน 1
คชั่น 1
ความดูแล 1
จก 1
ฉีก 1
ซิว 1
ฐานันดรศักดิ์ 1
ศิลาจารึก 1
เผา@@ 1
List 0.20218413711939817
all 0.027123526473000183
ข่า 1
คร 1
ปลอมตัว 1
มื้อ 1
รีส@@ 1
หมดสัญญา 1
อารมณ์@@ 1
ือน@@ 1
เก็บเกี่ยว 1
เข้าออก 1
เจาะจง 1
เฉลิมพระชนมพรรษา 1
เตรียมตัว 1
เป็นระยะ 1
เพนกวิน 1
แอลฟา 1
ไง 1
Robert 0.10139649525045492
ory 0.37175754256650145
การสูญพันธุ์ 1
ชะลอ 1
ดีใจ 1
ตติ 1
ธิราช@@ 1
นอนหลับ 1
ยุ่ง 1
รถไฟ@@ 1
วันสุดท้าย 1
หน้าผา 1
ฮัมหมัด 1
เท่าที่@@ 1
ไขว@@ 1
คมชัด 1
ครุศาสตร์ 1
ดุก 1
ตึง 1
ถิ@@ 1
ทะเลาะ 1
พฤติ 1
รัฐบาล@@ 1
วชิราวุธ 1
ศิลปะการแสดง 1
ออฟฟิศ 1
อาคาร@@ 1
เส้นผ่าศูนย์กลาง 1
แปรสภาพ 1
แมกซ์ 1
ในการนี้ 1
1929 0.20227337579428745
teams 0.14929030452051367
กระท่อม 1
ความเคลื่อนไหว 1
จุดตัด 1
ดำเนินกิจการ 1
ตรรก@@ 1
ประสม 1
ผิวขาว 1
ฟันดาบ 1
รณา 1
ราศ 1
ฤต 1
ลูกโทษ 1
สุริยคติ 1
เปลือย 1
เวลากลางวัน 1
2440 1
กังฟู 1
ง" 1
ติ่ง 1
ลส 1
วินิ@@ 1
หลุมดำ 1
เซอร์@@ 1
เสียงดัง 1
7,000 1
Thai 1
ซานฟรานซิสโก 1
ซูเปอร์@@ 1
ฏิ 1
ทุ่มเท 1
นามธรรม 1
ประมาท 1
ปิดกั้น 1
ลูกบอล 1
ษฐ 1
เกียรตินิยม 1
เหวียน 1
แยง@@ 1
แรงจูงใจ 1
แร่ธาตุ 1
First 0.14682897456160957
กรณ์@@ 1
กีดกัน 1
ข้อดี 1
ปีมะ@@ 1
ผู้ให้ 1
มีความรู้สึก 1
อดิเรก 1
ืน@@ 1
เคียฟ 1
เชิงซ้อน 1
เฟียร์ 1
แคมป์ 1
แย้ง 1
โปรดปราน 1
ให้ผล 1
6.@@ 0.7188046897767815
row 0.39119509965267946
v@@ 0.09434247105772642
กนิษฐ@@ 1
กาแล 1
คอง 1
ซีด 1
พลังงานไฟฟ้า 1
มลพิษ 1
ยึดถือ 1
ยูเรเนียม 1
ลงตัว 1
หุ้ม@@ 1
เฟิร์@@ 1
เส้าหลิน 1
แพ็ก 1
แรงกดดัน 1
โหนด 1
1904 0.3037683250353166
กระแสเลือด 1
กัลยา 1
ขับขี่ 1
บ้า@@ 1
ประการหนึ่ง 1
ประจำวัน 1
พอล@@ 1
พิษ@@ 1
สมุน 1
เจ้าสาว 1
แกมมา 1
แสวง 1
์กอ@@ 1
di 0.13169104223221315
กลุ่มย่อย 1
ทรงอิทธิพล 1
มัณฑ@@ 1
รวบ 1
ศิลา@@ 1
ส่องสว่าง 1
อาชญากร 1
เขียนจดหมาย 1
แต่ต้น 1
โพรโท@@ 1
การคุม 1
การชัก 1
ช็อก 1
ซัย@@ 1
ซามัว 1
นินเทนโด 1
ฟะฮ์ 1
มานะ 1
มิ่ง 1
ม่อน 1
ราชบัณฑิตยสถาน 1
ราชิ 1
ราตรี 1
หยิน 1
ูด@@ 1
เครื่องหมาย@@ 1
เคี้ยว 1
เพื่อนร่วม@@ 1
แท้ง 1
แลร์ 1
ข้อย@@ 1
คนใด 1
ชง 1
ดูดซับ 1
ทิวทัศน์ 1
นับ@@ 1
น้อง@@ 1
พระราชดำรัส 1
พิพิธ 1
มีหน้า 1
ยมราช 1
รัน@@ 1
สมั@@ 1
อ.@@ 1
เต็มใจ 1
เสียงสระ 1
เหม็ด 1
แวะ 1
โปรดเกล้าโปรดกระหม่อม 1
ไค@@ 1
2464 1
IV 0.2068364338719627
had 0.012599780828633275
กระทำความผิด 1
กันต@@ 1
ความถูกต้อง 1
งานเทศกาล 1
ชาม 1
ซารา@@ 1
บุหรี่ 1
พส์ 1
ระบำ 1
ล้า 1
สังฆ 1
สุต 1
สแกนดิเน@@ 1
อดุ@@ 1
เลดี้ 1
เลี้ยงลูก 1
เล่า@@ 1
เวิร์คพอยท์ 1
แม่พระ 1
โตร@@ 1
้ก 1
Cor@@ 0.16062148018336544
Project 0.46634260704807723
คาม 1
จาบ 1
ตวน 1
ต่อเรือ 1
บ๊@@ 1
ปริมาณน้ำฝน 1
ฟิน@@ 1
ลัตเวีย 1
วม 1
หนองน้ำ 1
หย่ง 1
เชื้อโรค 1
เร่ 1
โดด 1
โผน 1
การคลัง 1
ขนง 1
จำนวนจริง 1
นี่@@ 1
นึกถึง 1
นเสียง 1
มีผลบังคับใช้ 1
มือถือ 1
มูฟ@@ 1
ยานยนต์ 1
ลักษณะพิเศษ 1
ศักดิ 1
ห้องน้ำ 1
เกียจ 1
เดียม 1
แล้วไป 1
.ศ. 1
2449 1
=@@ 1
sh@@ 0.10546544088590123
ดาวพฤหัสบดี 1
ติณ 1
บาดาล 1
ลุกขึ้น 1
วโรกาส 1
หมดสิ้น 1
อนัน@@ 1
อึ@@ 1
เจ๋อ 1
ä 1
กลด 1
ตุร@@ 1
ปราศรัย 1
ปริญญาบัตร 1
ปิศาจ 1
พักตร์ 1
พัช 1
ยกขึ้น 1
ลิเก 1
แนม 1
od@@ 0.21382406744809385
ข้าราชการพลเรือน 1
จุดอ่อน 1
ตัล 1
ทันทีที่ 1
ปัจ@@ 1
ปี่@@ 1
ศึ@@ 1
อาจารย์ใหญ่ 1
เพ็ง 1
ความสงบเรียบร้อย 1
ด้วยมือ 1
ทัณฑ์ 1
ประณ@@ 1
ประเวณี 1
ล้มลุก 1
สตีเวน 1
สังคายนา 1
สาทร 1
สิงห์บุรี 1
อุทัยธานี 1
อ่านหนังสือ 1
เบิล@@ 1
เวีย@@ 1
แข่ง@@ 1
te 0.052124283199908285
กข@@ 1
ทุม 1
ปารากวัย 1
มัธยมต้น 1
ร่ว@@ 1
ออล 1
อากาศ@@ 1
เมียม 1
De@@ 0.1368118179203739
codice 0.6928807256488102
กางเกง 1
คนขับ 1
จีโนม 1
จี๋ 1
ดาวบริวาร 1
ถาง 1
ทิพ 1
ปล่อย@@ 1
มหาวิทยาลัยรังสิต 1
มเป@@ 1
รีม 1
ศ์ 1
หวั@@ 1
เมล์ 1
เวก 1
เสมอภาค 1
เอล@@ 1
1921 0.21785432870612903
ka 0.12631280262160552
ong 0.2343889913695633
คันจิ 1
ผาก 1
พระตะบอง 1
พฤตินัย 1
วัช 1
สมุด@@ 1
สัย@@ 1
อื้อฉาว 1
เบญจม@@ 1
เป็นพื้น 1
เพลา 1
135 1
IS@@ 0.6532718539259516
Tr@@ 0.12021367310029907
We 0.2895959822269964
ชี่ 1
ซอ@@ 1
ตี้@@ 1
ปศุสัตว์ 1
พาร์ค 1
มหาวิทยาลัยสงขลานครินทร์ 1
ยกกำลัง 1
ย้ง 1
ลาดกระบัง 1
สำเภา 1
สิรินธร 1
หมอ@@ 1
เปลี่ยนตัว 1
่อย@@ 1
大@@ 0.15091855335695692
Club 0.09148782199260302
Hall 0.13937813230878454
ขั้นต้น 1
ความจงรักภักดี 1
งานฉลอง 1
จอตา 1
จิตรลดา 1
จิ้ง@@ 1
ชว@@ 1
บัณฑิตศึกษา 1
มณเฑ@@ 1
แตร์ 1
โบลิเวีย 1
ไอศ@@ 1
2454 1
Bo@@ 0.16871045481341299
การอบรม 1
ของเสีย 1
คาบ@@ 1
ชั่ง 1
ดน้ำ 1
ดอน@@ 1
บังคับการ 1
พระเกียรติ 1
พึงพอใจ 1
ม" 1
หะ@@ 1
อุก@@ 1
ฮ็อล@@ 1
ัล 1
เฮอร์เซโกวีนา 1
โกรธ@@ 1
โลโก้ 1
2458 1
กษ@@ 1
การครอบครอง 1
ขนส่งสินค้า 1
ตฺ 1
ธาดา 1
นัท 1
ประจำสัปดาห์ 1
ผู้อ@@ 1
วิบูลย์ 1
สมาชิกรัฐสภา 1
เผือก 1
เศร้า@@ 1
23.@@ 1
AT@@ 0.7332648122648259
ella 0.1437192261878447
ฐานัน@@ 1
ปริมาณมาก 1
เจริญพันธุ์ 1
เรณู 1
โกแลต 1
ใช้จ่าย 1
2451 1
HD 0.7226960532959689
ฆาตกร 1
ญจน 1
ผิวดำ 1
มัชฌ@@ 1
หน่อย 1
เปีย@@ 1
แมรี่ 1
anti@@ 0.21552999710126125
inae 0.7150904246470152
กฤษฎีกา 1
ขยายอำนาจ 1
ฉาย@@ 1
ชวน@@ 1
ชาด 1
ตรอน 1
ท่านหญิง 1
นีเซีย 1
บาด@@ 1
ฮวน 1
เตา@@ 1
แสงแดด 1
ไดรฟ์ 1
1925 0.21366060363649272
220 1
กามา 1
ถวายตัว 1
ที่สาธารณะ 1
ปิ้ง 1
ยึดมั่น 1
ริน@@ 1
สัมพัทธภาพ 1
อัมพาต 1
เปิดฉาก 1
State 0.06195704352989567
กวาดต้อน 1
การขับ 1
กุก 1
ก้าวร้าว 1
ซุก 1
ตั้งต้น 1
ทวิตเตอร์ 1
ร่วมวง 1
ลงคะแน@@ 1
วิจัยและพัฒนา 1
อัส@@ 1
เม็ก 1
เลี้ยว@@ 1
แขน@@ 1
Windows 0.3689349339634324
กรรมาธิการ 1
กลบ 1
คริสต์ศาสนิกชน 1
นิก 1
ฝ่ามือ 1
พก@@ 1
รับทุน 1
วัส@@ 1
เนลล์ 1
เบื้อง 1
แก้ม 1
14@@ 0.585307909121595
1926 0.20921369769061887
acid 0.6836444522133936
กาญจน์ 1
ตำรับ 1
ทำความเข้าใจ 1
ที่ย@@ 1
ภาวะแทรกซ้อน 1
มาตุ@@ 1
ศิลาแลง 1
สาธารณูปโภค 1
โทรม 1
ไนล์ 1
ไวโอ@@ 1
("@@ 1
1.6 1
are 0.00997700840015501
me 0.11114202390653063
คำกล่าว 1
ดักลาส 1
ประสบอุบัติเหตุ 1
ประสานเสียง 1
ฝืน 1
ฝูง@@ 1
วาร์ด 1
สรวง 1
เที่ยง@@ 1
แวดวง 1
โอบ@@ 1
์ช 1
116 1
ต้า@@ 1
ลูกยาเธอ 1
สุนทรพจน์ 1
ห้องประชุม 1
อันนา 1
โจทก์ 1
David 0.0947116188259763
การยุติ 1
ขึ้นบก 1
ข้อง 1
คณะสถาปัตยกรรมศาสตร์ 1
ซ่อม@@ 1
ตกหนัก 1
สังคมสงเคราะห์ 1
สัมพันธมิตร 1
อุ้ม 1
เสฉวน 1
แช่ 1
MO@@ 0.8926926369723096
กระเบื้อง@@ 1
กาญจนาภิเษก 1
ขั้นต่ำ 1
ดุจ 1
มาร์กาเร็ต 1
มิลลิ@@ 1
ลำโพง 1
หัวเราะ 1
–@@ 1
US 0.05669492749441105
ฉือ 1
ตั้งคำถาม 1
ติดตัว 1
ทำตัว 1
รักบี้ 1
ิร์ล 1
เรียลลิ@@ 1
เส้นศูนย์สูตร 1
โฆ 1
โปรแกรม@@ 1
้วน 1
การเดินเรือ 1
กูด 1
ตัดผ่าน 1
ท่อง 1
ผลัก 1
ผู้ชนะเลิศ 1
พระชนมพรรษา 1
ภัค 1
รวน 1
ศัตรู@@ 1
ศ์@@ 1
ฮอลแลนด์ 1
แซค 1
แวนต์ 1
9.@@ 0.9367518506039998
ie 0.08369281204150095
กต 1
กษา@@ 1
กองร้อย 1
กำมะ@@ 1
ชายเลน 1
บัว@@ 1
ปลาย@@ 1
รอบตัว 1
สืบราชสมบัติ 1
ส่ว@@ 1
ออม 1
อาจารย์@@ 1
เรือใบ 1
League 0.05357169522429662
Per@@ 0.13119442928710548
White 0.16540168588124451
กายภาพ 1
ทำนองเดียวกัน 1
ปปี้ 1
ปราการ 1
พรุ 1
พันตรี 1
สุม 1
เฉียน 1
เซา@@ 1
โฟล์@@ 1
กรุ@@ 1
ฆราวาส 1
ดง@@ 1
ดีไซน์ 1
ภาคพื้น 1
มพล 1
ยุ่งยาก 1
รังสรรค์ 1
รูม 1
ศรั@@ 1
อัศจรรย์ 1
ฮานอย 1
เกล้า@@ 1
เร้า 1
1931 0.20416751613380765
Festival 0.13863928335622835
Miss 0.3932912854177777
age 0.041429880444765387
ical 0.1815169277160581
ชีวิ@@ 1
ต่อเวลา 1
บางท่าน 1
ยูง 1
หริ@@ 1
์ฟ 1
"ส 1
Is 0.43908497394233015
St@@ 0.10946108652798582
WWF 1
คล่องแคล่ว 1
บรรพ 1
ภาษาราชการ 1
มุข@@ 1
รอบนอก 1
ศอ 1
เกร็ง 1
ในกรณีนี้ 1
-- 1
1906 0.27025493096921716
BO@@ 1
Ne@@ 0.19724454061018648
Paul 0.08411218932980125
กฏ 1
ไฮโดร@@ 1
ขบวน@@ 1
ผู้ต้องหา 1
พิมล 1
สิ่งประดิษฐ์ 1
อำพัน 1
เวกัส 1
un 0.00443257335285091
คนดี 1
ประตูชัย 1
เลอร์ 1
แต่แรก 1
im@@ 0.08948357475989936
คืบ@@ 1
จุลทรรศน์ 1
พอก 1
รามคำแหง 1
สแกน 1
เร่งด่วน 1
แน่น@@ 1
แอ็@@ 1
1923 0.2109798772878891
กวน@@ 1
นึก 1
รวจ@@ 1
รองหัวหน้า 1
เณ@@ 1
โซะ 1
ธรร@@ 1
พริก@@ 1
เสริม@@ 1
โคล@@ 1
0,@@ 0.3628697481091844
2452 1
Se@@ 0.13251647642369185
bi@@ 0.11638579261815998
การะ 1
อุมา 1
ั้ง@@ 1
13.@@ 1
13@@ 0.5291996986788032
be 0.011350643036526855
ขอบฟ้า 1
โสม@@ 1
ak@@ 0.1261049012325135
par@@ 0.12471042962083617
มะขาม 1
วบ@@ 1
อาระเบีย 1
เกลียดชัง 1
เข้ารหัส 1
เลือก@@ 1
แบบฉบับ 1
แหง 1
10,@@ 1
2445 1
ica 0.1575946782612327
ดิโอ 1
มัก@@ 1
มัว 1
ยับ@@ 1
สำเน@@ 1
สือ 1
องุ่น 1
ep@@ 0.26469048878434975
you 0.16909780799484936
สท 1
หย่า@@ 1
ี้ยง 1
เมอ@@ 1
็อกซ์ 1
103 1
Charles 0.08872849089915534
Network 0.38488288733703646
cortex 1
oph@@ 0.4101756211669157
กง@@ 1
กอน 1
ศึกษา@@ 1
กระทำ@@ 1
นิเวศ@@ 1
ป๊@@ 1
ละเม@@ 1
เซ็ก 1
เดิ@@ 1
เหง@@ 1
เหมย 1
2462 1
General 0.07814628280713427
กวี@@ 1
ควบ@@ 1
แท้@@ 1
AL@@ 0.609738456380333
CT 1
แทรก@@ 1
ไบร@@ 1
Company 0.11601861799029405
Cup 0.07963812732383142
States 0.043477610654245956
TNA 1
syndrome 1
ตะวันออก@@ 1
ทวี@@ 1
พล.ต.อ. 1
ลื้อ 1
้าย@@ 1
re 0.08539953929193028
กำลังกาย 1
ฟิส 1
เฟรด 1
Girls 0.6081772198154732
He@@ 0.21006133795222848
กระเป@@ 1
อาณา@@ 1
โคตร 1
26@@ 0.670050043022265
ad 0.13042941512037437
สละ@@ 1
George 0.08408217757925607
TH@@ 1
ชัน@@ 1
ทรัมป์ 1
๙@@ 1
1927 0.19727474538761242
7.5 1
Blue 0.2645671906454263
able 0.05255983774102709
ak 0.14908972142695026
กะโหล@@ 1
กายวิ@@ 1
ด้าน@@ 1
2447 1
Prince 0.2434594099116875
il@@ 0.1094678450313325
คั่ง 1
ยธรรม 1
ศีล@@ 1
เนื่อง@@ 1
4.5 1
ER 1
ma 0.15369404294441713
เท็@@ 1
๘@@ 1
106 1
UN@@ 0.5647710942269131
ist 0.009849175007239369
ณุ 1
พัทธ@@ 1
แล้ว@@ 1
2444 1
po@@ 0.1372090809204498
ขด@@ 1
บอด 1
วัฒ@@ 1
time 0.02124711650521975
นิพพาน 1
ียม@@ 1
Final 0.30953173317884297
บ่อย@@ 1
แขวน@@ 1
จะ@@ 1
พลเรือ@@ 1
ยากลำบาก 1
ส่อง@@ 1
NE@@ 0.7703975202706287
York 0.04066079438970522
ริยะ 1
Be 0.6626241883516698
Don 0.2239016565275072
ล่ม 1
เกีย@@ 1
1896 0.3209170646247878
NXT 1
cor@@ 0.16540160506126125
ro@@ 0.1234581801947376
จันทน์ 1
ตเตอร์ 1
Your 0.5159265007489879
line 0.06168999266316653
บว@@ 1
ศัพ@@ 1
109 1
Mr 0.8297822105225344
ปิฎก 1
อิง@@ 1
320 1
สัมพัทธ@@ 1
สาป 1
102 0.9261759270363439
group 0.05561728582482415
ะฮ์ 1
Arts 0.1579152930915361
Master 0.3327154110627718
River 0.07527276337296165
model 0.18246743750088
st@@ 0.08124514603388784
คื@@ 1
ผ 1
วด@@ 1
อาวุ@@ 1
เฮา@@ 1
1890 0.2985212943573679
ฆา@@ 1
ดก 1
40,000 1
ta 0.09359609632218538
กิสถาน 1
ธรณี@@ 1
สมเด็จ@@ 1
1.8 1
15.@@ 1
Media 0.2596944009200592
Society 0.12995627303821503
รวง 1
หนอง@@ 1
แท็ก@@ 1
1905 0.22532034351381997
1915 0.22055354998133067
ū 1
ติฐาน 1
ลาส@@ 1
สมมุ@@ 1
ob@@ 0.15593306051448821
ฐิ 1
ทองค@@ 1
ื้อน 1
li@@ 0.1158817607226296
ดิ์ 1
117 1
30@@ 0.5192258311945638
ara 0.1314042000272142
scope 0.9169410923559934
ดำเนิน@@ 1
นอน@@ 1
ปราชญ์ 1
เสบ 1
WBA 1
ข้างมาก 1
ปฐ@@ 1
ก็ดี 1
ซิสต์ 1
มั่งคั่ง 1
เมิน 1
osis 0.5209321641377589
บาท@@ 1
แนล 1
Ad@@ 0.18896527166356974
ing@@ 0.1536723932591337
world 0.07144070400293787
นามัย 1
นึก@@ 1
ชด@@ 1
นิจ 1
*@@ 1
disorder 1
อุบัติ@@ 1
Queen 0.2263158948051597
ห่าง@@ 1
DNA 0.4534869282510428
Research 0.19562786510550934
up 0.025048845597188427
นติ@@ 1
ประท@@ 1
สโต@@ 1
เภสั@@ 1
เวช@@ 1
กาก 1
จันท@@ 1
‍ 1
ขัน@@ 1
ฮอน@@ 1
1907 0.23724927206543447
300,000 1
Heart 0.5641222141431758
Story 0.6413676836892447
Up 0.43741779531373454
บิด@@ 1
ื้อย@@ 1
15,000 1
2,500 1
ชน์ 1
ยนต@@ 1
หรา 1
ฮิน@@ 1
แฝ@@ 1
1.3 1
11.@@ 0.9810686863491302
2439 1
Little 0.2575922854319035
ก้าว@@ 1
เกษ@@ 1
1913 0.20367842035354106
ang@@ 0.15591562267263145
ans 0.04294353715260552
ผลิต@@ 1
เที่ย@@ 1
750 0.8367846938738961
des 0.0028844764969632583
ธยา 1
สวัสดิ@@ 1
Good 0.49092977596032156
South 0.045911582346261026
ซุง 1
ูป@@ 1
170 0.871734438378589
neur@@ 0.5012110773275693
ถัมภ์ 1
น้อย@@ 1
พลตำรวจ@@ 1
รื้อ@@ 1
วิวัฒ@@ 1
แทก 1
Prec@@ 1
von 0.0049609005256902325
ประส@@ 1
ระหว่าง@@ 1
รี้ยว 1
007 1
og@@ 0.20188776314321363
oid 0.8594142970990978
ซึ้ง 1
ไหล@@ 1
17.@@ 1
1916 0.2147181165095774
Act 0.14568519731636023
นิน@@ 1
107 1
PC 0.4282500059279731
ig@@ 0.13192967693034455
งคา@@ 1
ยม@@ 1
ยาน@@ 1
วล 1
เทียบ@@ 1
Boy 0.5037990730172833
Council 0.097451935259984
no@@ 0.20008471209385348
non@@ 0.5922294813146719
คอง@@ 1
ธิเบ@@ 1
สัตย์ 1
โทรศัพท์@@ 1
โหน@@ 1
12@@ 0.4043039422697597
name 0.0387063857379593
tri@@ 0.20753390261474694
ลึ@@ 1
โภค 1
5.5 1
ผืน@@ 1
ผู้เข้า@@ 1
สิบ@@ 1
โดด@@ 1
As@@ 0.15104765831691125
Pro@@ 0.18832083420471268
บดิน@@ 1
เหล่า@@ 1
้ล 1
้วย 1
AN@@ 0.6307277408059412
CA@@ 0.43690781222301095
China 0.09207967499886134
ī 0.8003858837296985
กีด@@ 1
ยอร์@@ 1
วัต@@ 1
ิว@@ 1
เคลื่อน@@ 1
UTC 0.9710269601241451
กระหม่อม 1
ัติ 1
114 1
tr@@ 0.08600699182191511
กล้าม@@ 1
บพิ@@ 1
ฮอล@@ 1
เคราะ@@ 1
2441 1
Last 0.5638889724931788
Technology 0.3329716746918959
ve 0.02281877295449706
คุก@@ 1
ดีไซ@@ 1
นต่อ 1
พิวเตอร์ 1
หมุน@@ 1
… 0.12232404227183875
127 1
East 0.08606787100405935
เซล 1
English 0.07232492787980019
Who 0.541946952812053
car@@ 0.12595691424871316
of@@ 0.26170777542988716
จุก 1
ราชทูต 1
สังฆราช 1
อิตา@@ 1
แฟน@@ 1
14.@@ 1
2448 1
ฉี@@ 1
ใฝ@@ 1
British 0.051086416259696676
्@@ 1
ถึงแก่@@ 1
ธั@@ 1
ยาก@@ 1
รวด 1
เปรีย@@ 1
12.@@ 0.9145888159814116
Golden 0.30711733076307995
Hello 1
Model 0.6033395837074667
พลาส@@ 1
สถ 1
หมู่@@ 1
๊ป 1
2435 1
Generation 0.772448197720359
OS 0.48361773751467246
Or@@ 0.12400516331230936
sub@@ 0.09718834908211724
มง@@ 1
WCW 1
มุ่งหมาย 1
สมณ@@ 1
ืน 1
Air 0.10348894760036599
SO@@ 0.645919144785401
end@@ 0.12112647177651371
นาท 1
ลอบ@@ 1
เภท 1
2436 1
Asian 0.25548549516694397
Lee 0.17197619489348542
London 0.062472368521782215
True 1
วิถี@@ 1
Com@@ 0.15761233649826306
Le@@ 0.1140675670392477
tion 0.18099797119959832
ฤษ@@ 1
วิน@@ 1
แอนิเม@@ 1
atus 0.3856883786378755
ต.@@ 1
เณร 1
ไธ@@ 1
1,200 1
IC@@ 0.5350011754785272
้อำนาจ 1
SP@@ 0.44604819440323357
ปาล 1
มุก@@ 1
ั่ง 1
เกษตรศาสตร์ 1
เป้า@@ 1
ISO 0.9576676035945727
Kingdom 0.1634551130285918
Man@@ 0.12462568077381263
ics 0.24418570215053612
ยำ 1
โคลัม@@ 1
language 0.10675570955463881
ปราคา 1
พาส 1
123 1
Men 0.23705553249128966
RE@@ 0.6443396135513741
ura 0.23592012385112068
ด้วยเหตุ@@ 1
พระเจ้า@@ 1
อนด์ 1
ูก@@ 1
เกส 1
เบต 1
104 0.8483490430314208
2442 1
Women 0.13695742583363246
pr@@ 0.1364424736031349
คิว@@ 1
จญ@@ 1
ผู้แทน@@ 1
ศิล@@ 1
10.@@ 0.5924004145555548
1800 0.4669191364007742
Dis@@ 0.21150341235962064
GN 1
MRI 1
se@@ 0.09713546825727935
tive 0.20467186256002548
คุ้ม@@ 1
ยนต์ 1
ริยา@@ 1
ลลิ@@ 1
15@@ 0.45972142252205994
1870 0.2813511158961939
Inc 1
RO@@ 0.6874656228789029
pre@@ 0.12068791990163065
แฮร์@@ 1
Bangkok 1
นต้น 1
ยาม@@ 1
រ@@ 1
CYP 1
DS 0.6403823997702112
Dream 0.734853685919936
NWA 1
Open 0.16626971102871876
that 0.004093753291059298
สติก 1
ิต@@ 1
ไปรษณ@@ 1
イ@@ 1
1860 0.3198614914867693
Bar@@ 0.08919320475132536
Go 0.45638591294807634
Special 0.3212755674863982
song 0.05273394137095387
คล่อง@@ 1
นงาน 1
Be@@ 0.1043127206918808
Business 0.3064997240853699
Dr 0.8289913254765463
atic 0.33377911377257596
ตถ@@ 1
1889 0.3008996116501049
Game 0.2584271605757694
ei 0.22081584563334622
สด@@ 1
โปรเจ@@ 1
1871 0.32838710558082657
40@@ 0.6538486968121525
Program 0.4803133080921021
Thomas 0.07878673401771549
เซ็นทรั@@ 1
เยี่ยม@@ 1
12,@@ 1
121 1
Super@@ 0.2718407936156982
yl@@ 0.2685564753339156
จอม@@ 1
ชนี 1
ศิษ@@ 1
เรียก@@ 1
Home 0.2640082184567762
Tag 0.3163255216386431
ng@@ 0.37613080575393626
ri@@ 0.12564041432923942
this 0.01451166709154673
33@@ 0.7495800757663833
๗@@ 1
THE 1
TO@@ 0.9378480573388116
จัน@@ 1
ชัด@@ 1
son 0.010148643440647497
นาม@@ 1
าก@@ 1
do 0.04569401433905186
ra 0.05767898662824887
Br@@ 0.11460444711360225
PS 0.3437655341228661
Peter 0.08928809166752048
ú 0.6413381647466412
นเร@@ 1
พิว@@ 1
มวลชน 1
แปลง@@ 1
People 0.20793363830838868
their 0.01154071645655
tis 0.2924329961761049
ดาห์ 1
แจก@@ 1
แฉ@@ 1
1901 0.23621437469403542
West 0.05519726424582521
Pre@@ 0.21145247067194858
ion 0.27115935552367343
um@@ 0.08383177158974124
ฉั@@ 1
1.4 1
Le 0.012189903098977118
our 0.142282444645784
ted 0.08339618785576872
ปราย 1
วาย@@ 1
วาส@@ 1
หน่าย 1
ฬา@@ 1
25,000 1
ac 0.20500759124960471
ani 0.14776013050922038
{ 0.27690905445454705
£ 0.2155341028987426
กัม@@ 1
ดรา@@ 1
มเปญ 1
เฮอร์@@ 1
1,4@@ 1
113 0.9926958076221204
ER@@ 0.7428530715798837
ภิเษก 1
BF 1
ah@@ 0.16781911177415051
ความถ@@ 1
พร้าว 1
ลัง@@ 1
ั 1
เสพติด 1
Green 0.17426645058990228
Richard 0.10162996206677359
Ro@@ 0.1444556613691476
ดื่@@ 1
16@@ 0.4018374859748928
1880 0.27638592177110965
จูด 1
Am@@ 0.1310541758741747
ne 0.028134954613270594
side 0.05643366825645765
ดัง@@ 1
บัล@@ 1
หยิ@@ 1
เอิ@@ 1
12,000 1
Chart 0.5009635292376179
Tour 0.11256168143659492
ee 0.2007424104069434
ne@@ 0.1479673921021171
ular 0.38818923557876284
ซาน@@ 1
ประมาณ@@ 1
ระนา@@ 1
วาด@@ 1
โองการ 1
11,@@ 1
2446 1
330 1
Dance 0.4439320671020729
series 0.03591224217328737
กัว@@ 1
กำเ@@ 1
ตตา@@ 1
ทัย@@ 1
บรมราช@@ 1
ลิก@@ 1
ศรีนคริน@@ 1
สาวรีย์ 1
หม 1
เฮ็@@ 1
What 0.3705074828784092
mo@@ 0.1330698201211211
กูล 1
สะเท@@ 1
ออน@@ 1
ิบ 1
ati@@ 0.1895928211437047
not 0.01229893066875902
ok 0.3238023788311782
คล้อง 1
มณฑ@@ 1
ออกซิ@@ 1
แม้@@ 1
1898 0.24674068518684766
CH@@ 0.6019439452225416
sa 0.02175880649005798
จร@@ 1
ติศาสตร์ 1
ทน@@ 1
บอล@@ 1
ย้อน@@ 1
รรมศาสตร์ 1
สหภาพ@@ 1
240 0.8868407628400173
วิพา@@ 1
Mo@@ 0.15096183336010963
จินต@@ 1
สุนั@@ 1
แก๊@@ 1
118 1
AD 0.3735416772423753
Island 0.102266232437263
News 0.22297900809360946
1,8@@ 1
For 0.05996259172847458
Street 0.07647968943909197
ti 0.1640564605528552
คล้าย@@ 1
บรรทั@@ 1
แซน@@ 1
่อม@@ 1
Dragon 0.693040826014594
Inter@@ 0.16292293533061206
ทรี 1
ฤษ 1
สาหัส 1
หญ@@ 1
เกา@@ 1
1909 0.20365249671022784
2310 1
2400 1
27@@ 0.5212699622602605
AP 0.43466959898829816
IM@@ 0.6474778105632581
ay 0.10974218409780168
eg@@ 0.10583106149356235
ni 0.09405543803154777
sp@@ 0.11431285631366182
ประวัติ@@ 1
ศรีนคริ@@ 1
Hot 0.2676243393419285
mon@@ 0.11161831790229146
ter@@ 0.08617478518371376
­@@ 1
เพื่อ@@ 1
2430 1
RA@@ 0.6229735873193504
sel@@ 0.192522935519207
α 0.42476501962321533
จิตร@@ 1
ริช 1
รู้ส@@ 1
AC@@ 0.47784070324026434
AT 0.5366524691103953
America 0.08555512103747921
Class 0.37452084026204874
Si@@ 0.25342015887734426
Str@@ 0.13886808091172134
ence 0.15886680930279717
บันดา@@ 1
ยส์ 1
ฤดู@@ 1
17@@ 0.45237727930228316
AKB 1
AM 0.32777214861845727
Global 0.399842183102752
Princess 0.5718208451395808
Union 0.06656733647870874
disease 0.3139406540173732
receptor 1
กุญ@@ 1
จริต 1
าว 1
1500 0.38238964377797047
190 0.9392703766059314
SS 0.23361386581858243
Sea 0.2220469988636796
ance 0.13305826481172572
ly 0.07412193724279244
team 0.025879434903316956
กรณียกิจ 1
ถ่วง 1
มด@@ 1
สงค์ 1
128 0.8466006057208599
Bal@@ 0.12640830522566393
Sp@@ 0.15052880300888993
du 0.004306856976657352
state 0.03968911400086758
กิโล@@ 1
ดึง@@ 1
ถอด@@ 1
ฤษฎ@@ 1
1903 0.21558023530723228
RNA 0.9121964178983881
Season 0.48090590570555697
Tokyo 0.3105980437844363
ou 0.020893767440058317
te@@ 0.11648527022779856
ร่าง@@ 1
1902 0.21757838830398918
Po@@ 0.1591706530958617
eb@@ 0.10710661250180402
กลายพันธุ์ 1
การณ์@@ 1
ขย@@ 1
ศั@@ 1
Ge@@ 0.13588966583717482
É 1
กาญ@@ 1
ตอ@@ 1
นอร์@@ 1
มิว@@ 1
2.2 1
Concert 1
FM 0.22607167859677352
This 0.020990057673638308
center 0.10875625980637799
คลาน 1
ซ็อน 1
Su@@ 0.17540146338768164
กาพย์ 1
นิสถาน 1
ฟื้น@@ 1
ศาสตร์@@ 1
ในทาง@@ 1
000 0.12947362641772825
Qu@@ 0.12339594468334253
Video 0.37107982914129745
ครร@@ 1
ือบ 1
ๅ 1
1,6@@ 1
az@@ 0.14929017692095217
ฟิก 1
ยาท 1
เอิร์@@ 1
Episode 1
Power 0.2827584814386385
Ser@@ 0.17402432328321468
สาบ 1
เข้ 1
แรก@@ 1
126 1
Google 0.4268163712829428
LE@@ 0.6294793696393556
Management 0.30065149919274275
Republic 0.13409759867287052
หม่อม@@ 1
เชื่อถือ 1
13,@@ 1
1895 0.24239255400398593
Digital 0.47281493696295857
il 0.009404864138347636
มอร์ 1
ศิลปะ@@ 1
อัญ@@ 1
เดชา 1
แหน@@ 1
้วน@@ 1
2.4 1
European 0.07259481836747633
MP@@ 0.7485073185921328
Space 0.352608132097149
X- 1
ini 0.11835799182807026
กุระ 1
Chinese 0.11862103009072983
ong@@ 0.33427980557301906
มีผล@@ 1
ร่ำ@@ 1
สะเก@@ 1
1.1 1
230 0.9340280949680255
if 0.05884871621472309
kh@@ 0.1454794645190519
กราบ@@ 1
เต็ด 1
ns 0.24243965939684897
กระดา@@ 1
ル@@ 1
AM@@ 0.4549555136386505
Ph@@ 0.22633624677963574
San 0.03541863849922006
ha 0.04273061970135127
ç 1
สูญ@@ 1
าก 1
ียล 1
..@@ 1
9,000 1
คลาส@@ 1
จำแน@@ 1
ฉัน@@ 1
เซ็นต์ 1
เปรียบ@@ 1
1,9@@ 1
Bi@@ 0.14047890519483328
El@@ 0.09525970553571465
MP 0.3324413837249591
alism 0.3028098163918618
ath@@ 0.21282762519552198
ox@@ 0.4512386183084563
พึง@@ 1
อุลตร@@ 1
โศ@@ 1
ไทน์ 1
Duke 0.24783770010713896
ระย@@ 1
เชล@@ 1
DVD 0.21780590900895916
VS 1
อรีน 1
14,@@ 1
1888 0.2736766006241779
34@@ 0.6787140190751564
poly@@ 0.38322874330977164
they 0.01562259994834856
ข้น 1
ญญา@@ 1
1899 0.22850076324842175
AB@@ 0.6276878865180979
Bank 0.14799156136544558
Har@@ 0.11319162589054481
RS 0.5916178102703348
ス@@ 1
1868 0.3168109224404351
210 0.9848663643269201
Central 0.08284282010300442
Corporation 0.19839095420728642
Health 0.2132312772701805
MS 0.40546892012634933
Out 0.3307758243825262
member 0.04354378818437395
กระจาย@@ 1
6.5 1
Foundation 0.19169653323247385
ME@@ 0.5041197716818568
and@@ 0.11698917320339006
ถุ@@ 1
มน์ 1
มหาดไทย 1
มาภิไธย 1
สนุก@@ 1
00@@ 0.5327244228879625
1815 0.44577861209086406
MHz 1
Tri@@ 0.2152783644501287
pH 1
กรรมา@@ 1
มาดา@@ 1
หญิง@@ 1
เดช@@ 1
Line 0.16378667565303753
SM@@ 0.800942867780846
Te@@ 0.1523752387926876
กัป@@ 1
ดราก@@ 1
น้ำฝน 1
ไห้ 1
天@@ 0.27787304292696413
1893 0.2532578013800277
Airport 0.2333359642538117
DA 0.6023976972031675
Do@@ 0.22220538303388462
MA 0.42917657358782224
ik@@ 0.10522707543536
ตูน 1
ลิง@@ 1
ุก@@ 1
1.7 1
122 0.9502581282974932
1830 0.36851509465082893
1867 0.3038809835892778
Billboard 0.1916498178594429
Lady 0.23220803186571512
ach@@ 0.10834309729900463
em 0.09387560773154278
ji 0.2435751645236595
ς@@ 1
จาร@@ 1
IS 0.5751912611238711
ge 0.13235304388155078
ถง 1
นรี 1
สมเด็จพระเจ้า@@ 1
สเตอร์@@ 1
เลม 1
…@@ 1
ラ@@ 1
1,5@@ 1
est 0.0036869402961096347
ko 0.14201398773044105
ō@@ 0.5494343948918713
งก์ 1
นบุรี 1
ื่อน 1
แกร่ง 1
// 1
60,000 1
oma 0.3181237712475402
ขี@@ 1
เปอร์@@ 1
28@@ 0.5050310226259844
Education 0.13055440242020785
ization 0.37099478554602583
land 0.04227835730648856
van 0.12315928261210227
ค่อน@@ 1
ลื@@ 1
เบิก 1
1848 0.27809357988661265
Bur@@ 0.14276503796220538
Channel 0.2866741435773048
art 0.05343876464675627
ge@@ 0.06975476122202186
จะเป็น 1
บุก@@ 1
พลิ@@ 1
ราะ@@ 1
วิสุ@@ 1
1897 0.22349752831522604
God 0.20283363608799257
RI@@ 0.584104216467838
protein 0.3309525674772069
ประจำทาง 1
ปราบ@@ 1
ผู้แทนราษฎร 1
มั่น@@ 1
หวาด@@ 1
โดยตลอด 1
Empire 0.12316765210192109
Service 0.13548266918546673
TE@@ 0.7036420439107222
quot 0.5931107659826197
ตแลนด์ 1
ประธาน@@ 1
ภาษ@@ 1
เป็นอัน@@ 1
str@@ 0.11736343543971485
แพ้@@ 1
Anti@@ 0.3756804956957194
DS@@ 0.9927191172070177
inal 0.5319449008754416
nerve 1
子@@ 0.5310998490888672
29@@ 0.5149225284585766
Cal@@ 0.14868821294747211
Henry 0.08691517070278859
IP 0.5175345960793077
Pop 0.4671492095884649
gen@@ 0.13128921892511788
20.00 1
Apple 0.3943322482531203
Ma@@ 0.12208695090820973
North 0.041689195160750134
con@@ 0.07617924036710436
ung 0.05523009280402403
â 1
บัญญ@@ 1
สิริกิติ์ 1
หยัด 1
ា@@ 1
บอร์@@ 1
บุ๊ก 1
อธิ@@ 1
เซล@@ 1
่วย 1
000,@@ 1
CE@@ 0.4258812072996352
Legend 1
Sub@@ 0.21320986552160523
Times 0.13632902908603264
formes 0.41363602309667846
sive 0.3656935192754373
ting 0.07553447654862908
ซ่อน@@ 1
ตุ๊ก@@ 1
ปราช@@ 1
เยา@@ 1
เว็บ@@ 1
่าว@@ 1
124 0.9686556053659375
Law 0.16197462179660038
Order 0.19323156077620304
Way 0.4100437576671504
man@@ 0.10454385114209003
บูรณา@@ 1
ละเอ@@ 1
ี่ยว@@ 1
Marvel 0.5111407205217741
bo@@ 0.09836301568649826
ดำรง@@ 1
พอย@@ 1
วินิจฉ@@ 1
สนิ@@ 1
AL 0.6420237735719327
Ac@@ 0.16928936249030632
DE@@ 0.5812782449930225
Games 0.128623355312599
ari 0.1543037927144535
och@@ 0.29215006296244433
ut@@ 0.128560718088186
วรรณ@@ 1
สวัส@@ 1
อิเล็ก@@ 1
อุณห@@ 1
เที่ยว@@ 1
๋อง 1
280 0.9553168131006317
Book 0.24408608127095052
Development 0.18892414720676592
Free 0.2982461088863905
Me@@ 0.1312633403724925
per 0.051730120308770715
กระตุ@@ 1
กวาง@@ 1
น้ำเ@@ 1
ฝู@@ 1
ระลึก 1
ื่อย@@ 1
เดิม@@ 1
LO@@ 0.7353855959195099
Road 0.08546390465625886
als 0.006817757232177037
cu@@ 0.15430201485611414
muscle 1
se 0.00409586178958679
é@@ 0.07615602322419807
บรรณา@@ 1
Min@@ 0.17571207442141884
My@@ 0.3121981708999575
Nepenthes 1
align 0.2528691731763075
สก็@@ 1
โอเพ@@ 1
band 0.04382968339986524
my 0.14970052369892486
out 0.019251836510849284
จักรวรร@@ 1
ต้อน 1
สุโข@@ 1
Light 0.3127473718654794
Mal@@ 0.0943212547084049
function 0.20431070845295513
trans@@ 0.14122619694669464
yc@@ 0.4396806846898532
· 0.034491859296853736
ฉีด@@ 1
Cr@@ 0.16144124452353814
Design 0.2703047826542336
MS@@ 0.730855614004862
Radio 0.1136672426974133
ci@@ 0.13565673434422754
tic@@ 0.28010242919275324
นซิ@@ 1
ประยู@@ 1
Album 0.15589523630390156
CH 1
D- 1
Family 0.2252180776263989
Mark 0.12193798118624816
Mas@@ 0.1475652257904933
SA@@ 0.42574275541895584
กษ์@@ 1
ษะ 1
Edition 0.62323327213432
av@@ 0.08503623307971984
ay@@ 0.1318651303381962
ler 0.057656596984499604
ni@@ 0.13248221476237554
ดำ@@ 1
ศาสนิกชน 1
136 1
Ab@@ 0.06061781982014183
Ho@@ 0.1519225130648444
IBF 1
PD 1
ค่อย@@ 1
ปฏิบัติ@@ 1
ประดิ@@ 1
ปวง 1
ราคา@@ 1
วิทยุโทรทัศน์ 1
เลส@@ 1
Martin 0.08386086192799971
Olympic 0.21631458228592906
https 0.9261912427543308
ts 0.04612636495112553
พระองค์@@ 1
อเล็กซาน@@ 1
Band 0.10761543569516185
Fire 0.3366402268569738
Television 0.27943339092049463
effect 0.18499940745504684
ness 0.16578084812291963
ือง@@ 1
1878 0.2561504739723253
do@@ 0.17429167905454945
field 0.05475893453871851
form 0.0488689737269031
ชฌ@@ 1
นิยม@@ 1
ปราโม@@ 1
พึ่ง@@ 1
มงค@@ 1
สินธุ์ 1
ออส@@ 1
็ 1
1885 0.2306445628887386
2.1 1
Emperor 0.2867085728383849
FI@@ 0.47635293910966736
IT@@ 0.6411707747585068
Like 0.24556540876095445
Mer@@ 0.1366928041459593
Ver@@ 0.04834693956663345
ore 0.13430836682975938
กษัตริ@@ 1
บัณฑิต@@ 1
opsis 0.7305680834270619
ขระ 1
129 1
1600 0.6258769648933045
18.00 1
260 0.9213077916561129
Hy@@ 0.32741834618180005
MTV 0.4318229587472352
org 1
กษั@@ 1
ศว@@ 1
เสบ@@ 1
Louis 0.06843652798321909
Mag@@ 0.16040921583860207
Sar@@ 0.15801472274048667
Studio 0.31691850405667565
del 0.004300269422498795
inter@@ 0.06657658851168614
กัมมันต@@ 1
คณ@@ 1
งำ 1
帝@@ 1
BBC 0.15810218486759045
Back 0.4263912205606894
Lost 0.6553645979777486
Public 0.14765768956340666
ala 0.13719687267962416
ane 0.11611447021577938
ty 0.1056907151587231
นอง@@ 1
1892 0.2280400557028308
Go@@ 0.16401249766044212
Mor@@ 0.09186658766801246
ent@@ 0.06025888055820154
go 0.09128841610447577
001 1
2,0@@ 1
Her@@ 0.10800650346488234
MM 1
aw@@ 0.13125002974954955
ou@@ 0.09782148623747734
ข้าราชการ@@ 1
ท่อง@@ 1
อเร@@ 1
Journal 0.19870219465297817
Saint 0.030089391465464195
array 0.9703615122856012
motor 0.2617394894453755
onic 0.427171555470359
ความดัน@@ 1
จิน@@ 1
145 0.873247047465492
1850 0.26818361954978764
BC 0.19110345404277024
Stadium 0.1984796069558908
ium 0.28349640916717594
yl 0.3736966183083424
กางเก@@ 1
ษฐ@@ 1
1,7@@ 1
1894 0.22554602720041417
550 0.8504394800480117
KO@@ 1
SA 0.2742483941996052
ton 0.06282053576498878
กรรมการ@@ 1
กลี@@ 1
คาย@@ 1
เปื้อน 1
Kim 0.21455879481253246
To@@ 0.18328308302835777
ap 0.26967698119610245
wa 0.09042505825019799
กวม 1
ทิว@@ 1
24.@@ 0.7467975360278818
For@@ 0.12955249212756959
Pol@@ 0.14168949471664147
ber@@ 0.10311910311747197
era 0.026182066326422615
ian 0.1690731142705953
กลั@@ 1
ตร์ 1
PAGASA 1
alis 0.2802038268703873
งใจ 1
บูร@@ 1
มุ่ง@@ 1
141 1
15,@@ 1
175 0.8235570445244942
Do 0.28588253467389024
Force 0.11144927681590006
af@@ 0.09232532051755385
ax 0.33803811960053454
ex@@ 0.08046683341208354
ทรรศน์ 1
นาญ 1
แจ๊@@ 1
—@@ 1
1,3@@ 1
1840 0.31313685431106664
250,000 1
AP@@ 0.4136224727408301
EN@@ 0.7488682148468199
Old 0.14016947138957195
Play 0.3670118958208046
Raw 0.7823261716427223
qu@@ 0.0930030099691221
ประโย@@ 1
มาณ 1
Dark 0.4263481290292442
Pro 0.21347150795462355
ino 0.09300450514019935
ish 0.11555253159289955
su 0.007801040483576649
ประเว@@ 1
Death 0.21937933833440568
GM 0.7273663384551212
aka 0.26013065967576265
pro@@ 0.15602632928732588
ē 1
กลิ่น@@ 1
ประสา@@ 1
1,000,000 1
400,000 1
ES@@ 0.37688419731825473
Engineering 0.3037785786098758
Social 0.18957983653337046
gi@@ 0.15089344664118093
node 1
nucleus 1
เนร@@ 1
Long 0.15646562354651347
Summer 0.12229598069691294
ade 0.1391226882887249
ita 0.10541065104401791
q@@ 0.18872443764368294
ตอเรีย 1
หาร@@ 1
โหด@@ 1
็กซัส 1
1884 0.24221637306828248
ccTLD 1
first 0.007376582953710345
format 0.1734444870106538
hyper@@ 0.5691117560651905
ir 0.10806529966812617
left 0.041123897836452344
yr@@ 0.30048989376140617
พวก@@ 1
ฟิลิ@@ 1
ยั้ง 1
สัป@@ 1
เจ็บ@@ 1
โน้ม@@ 1
い@@ 1
747 1
CI@@ 0.43773180582446364
Col@@ 0.1117383325091414
Earth 0.18723009524136194
UK 0.08501535696349796
edron 1
type 0.07057190719964361
ประทับ@@ 1
ปัตย์ 1
ไดร@@ 1
150,000 1
1886 0.2332499414787317
Joseph 0.07182066979876928
Limited 0.39856374691036106
Mel@@ 0.18338639975316695
Universal 0.362442280839672
ale 0.05890439714731739
ao 0.20753629818181948
region 0.06669812098180389
² 0.053997548136404776
พระบรมราชานุ@@ 1
เปา@@ 1
แนะ@@ 1
1861 0.24493334964939462
2.3 1
650 0.8300431737926991
Gu@@ 0.11409878034077493
Lo@@ 0.13580214054244133
Three 0.18179636214862765
US@@ 0.26670513053465644
background 0.218258562455012
ist@@ 0.1454070235141235
mal@@ 0.12761541923390213
ขึ@@ 1
ผู้กำกับ@@ 1
ลุก@@ 1
สูบ@@ 1
อดิ@@ 1
เผด็@@ 1
แคลน 1
Let 0.4913279864889818
Round 0.39128526384475315
ess 0.15089255444701516
he@@ 0.14515579340108714
ov@@ 0.11758729099633854
tin 0.11776654308672176
มภ@@ 1
ม็อง 1
119 0.9150706907848833
155 0.8681122489476472
1862 0.25024175438850255
As 0.027231052002807076
hi@@ 0.1712771195637487
ึกดำบรรพ์ 1
เลขา@@ 1
1.0 1
1891 0.21530248017526554
A- 1
MC 0.42932232910916773
PA 0.3013046499049456
ตาร์ 1
36@@ 0.5564954063969143
AN 0.6233338923129872
ID 0.6248431275762983
cer@@ 0.2295835174097083
ran@@ 0.16730916950077276
จรรย์ 1
ทรงคุณ@@ 1
0.1 1
1789 0.5184483004112783
Er@@ 0.07362070669524584
OP@@ 1
UN 0.40180405311065526
dae 1
ides 0.15487653127449508
ilia 0.7879757744811692
ography 0.36229538763876057
text@@ 1
ประติมา@@ 1
ฝาผนัง 1
1866 0.21360862837992084
Cy@@ 0.4337702925329387
De 0.0360724782131387
amine 0.9917667048886302
clue 1
fish 0.17287271037671345
point 0.0462398496033222
so@@ 0.12580710402918818
รรยา 1
เฝ@@ 1
’@@ 1
DO@@ 0.6770908734543978
FC 0.06713951614054188
MI@@ 0.6163459110853624
Maria 0.0960940141465369
Pr@@ 0.11038451044669373
chi@@ 0.25576099533849106
ot 0.10269107361096876
pi@@ 0.12051267110996026
ทรีย์ 1
皇@@ 1
3.0 1
CA 0.29358864833096643
Mac@@ 0.12139846557766001
ates 0.05608533592043951
ค้าน 1
หุ้น@@ 1
เรก 1
Chi@@ 0.1869678039817825
Li 0.3050833549692732
SC 0.2207378544550104
Sun 0.1843852601682423
Voice 0.6416015623095044
block 0.22756606881498465
istic 0.2093828325447272
ซื่อ@@ 1
พระยา@@ 1
พล.ต.@@ 1
้วย@@ 1
165 0.9179306596697666
Ltd 0.34596113027052927
SS@@ 0.510120638233217
That 0.13569623157735797
สะท@@ 1
หาด@@ 1
・@@ 1
Can 0.42855697929763764
France 0.02477541666879748
ME 0.7918187017490903
Mah@@ 0.18626579887222264
Sal@@ 0.10946678613444688
ating 0.05855343735755918
br@@ 0.06907382799952377
oh@@ 0.21312908125438146
ov 0.1207449925518336
pe@@ 0.13579736072615015
ณิช@@ 1
09.@@ 1
aki 0.24960413478453236
be@@ 0.05395405259178328
way 0.04285197426981637
~@@ 1
มุฮัม@@ 1
ยี่@@ 1
สูร 1
อนุรั@@ 1
AI@@ 0.4989749218979404
Are 0.6014056615330693
Co 0.18784961379894863
Gold 0.17622359483515004
Gr@@ 0.08693915996366093
SAR@@ 1
co 0.049599603691344085
my@@ 0.39713375667966355
ขั้ว@@ 1
ราชานุ@@ 1
ศาสตร@@ 1
人@@ 0.19914159256897476
17.00 1
1814 0.38262362225200947
80@@ 0.527581625273834
der@@ 0.09340744319887526
dis@@ 0.03979888600979477
ki 0.12386247020695702
ก่า 1
อัจฉ@@ 1
เซียส 1
เม็กซิ@@ 1
80,000 1
Sports 0.1654791240822531
ab 0.032514772938339175
ley 0.05514289656108877
next 0.05807722585890883
） 0.011774798782064767
3.1 1
Sciences 0.21262287395550183
Secret 0.5880017843064432
VI@@ 0.6888736882977026
ek 0.11973403832360084
su@@ 0.12825463658088002
text 0.1514407471354607
ิ่ม 1
李@@ 0.17678916176108975
144 0.9197292803780936
1864 0.22771292310224356
340 1
Now 0.3257030136318579
ast@@ 0.2739533381848072
cy@@ 0.37604626583665174
ho@@ 0.12923468804695337
music 0.03446596378748315
off 0.03518028394551281
oku 1
ภ์ 1
วิสาหกิจ 1
สูงอายุ 1
365 1
4.0 1
C- 1
Car 0.494256474899363
Human 0.2632206164764412
Original 0.4656003546402327
Stone 0.22738457208494636
ell 0.07432328384585674
im 0.004237437442934271
ราษฎร์@@ 1
ลัม@@ 1
สังขรณ์ 1
ี๋ย 1
เอ็นเตอร์@@ 1
เอ็ส 1
ในแง@@ 1
າ@@ 1
133 0.9293960567431002
Ch 1
Five 0.3143079031188461
ational 0.19575677973112632
ey 0.09038033828296854
factor 0.3144991914017829
ish@@ 0.18715172903762767
ur 0.09698363906400198
yo 0.3021431545662449
16,@@ 0.8924960023104366
1863 0.23468053899403843
CP@@ 0.49360129244604645
Dec@@ 0.229820502154799
EX@@ 1
Four 0.21496283740826622
Heavyweight 1
Online 0.4705292507260188
ons 0.05323370186247848
theory 0.1518838573410531
ver@@ 0.03141241403905731
width 0.4542903786372349
ขนาน@@ 1
ยุ่ง@@ 1
เภา 1
NO@@ 0.47654621385176377
Single 0.3254156514722217
TR@@ 0.7971569288715978
based 0.029251105916087275
cal@@ 0.17150684910513128
down 0.045638213625444755
lateral 0.559319556643925
ทึ@@ 1
ภักดิ์ 1
อุบล@@ 1
เวท@@ 1
17,@@ 0.9284521737256161
1887 0.21569594614827217
380 1
ABA 1
Federation 0.22895203274761125
Mc@@ 0.08170557472055406
ai@@ 0.32649493072778607
go@@ 0.17200575862034279
mat@@ 0.17895678067306053
memory 0.26899710436519053
บล 1
มณ@@ 1
รวบ@@ 1
สมาชิก@@ 1
ือด 1
ูปถัมภ์ 1
เร็ง 1
ト@@ 1
1879 0.2307691182432674
CEST 1
IC 0.35534447043486383
Internet 0.1785058726864812
ok@@ 0.13792436981605555
set 0.03844107868535403
ต่อเมื่อ 1
เลียง 1
แผ่น@@ 1
Cl@@ 0.19143540730418993
County 0.026773442346163842
Movie 0.7027997640038067
Museum 0.07042392039501762
So@@ 0.14341723563646508
Ste@@ 0.16668433074745
ard 0.08063806489427175
body 0.07518761374159343
ins 0.04842882641911021
oth@@ 0.2511642358798827
return 0.08515660151409904
ทิศ@@ 1
รณภาพ 1
ัม@@ 1
ใช@@ 1
ales 0.06429961529635765
bu@@ 0.15188301597933454
contributor 1
net 0.19807970292718458
tor@@ 0.11545051353637506
มนุษย@@ 1
โจม@@ 1
1200 0.4751905592865433
131 0.866957762770299
1882 0.22349550225943624
3.2 1
Li@@ 0.12641554730472446
Sur@@ 0.16986868225711801
neuron 1
pop 0.1431277140963456
นครินทร์ 1
สถ์ 1
ียร@@ 1
เพศ@@ 1
1875 0.23385902688200974
1877 0.2342440990186915
1881 0.2183373723897864
End 0.31723243413002467
Max 0.1455829766293804
TVB 1
WrestleMania 1
ce 0.018742679960871752
log 0.7914939813564521
กลาย@@ 1
ลิซาเบธ 1
อยุ@@ 1
เสิร์@@ 1
185 1
1865 0.2221586393835433
50@@ 0.41543691316274634
Baby 0.46519745721230144
Char@@ 0.16418934364357338
Des@@ 0.12487019015856303
Kh@@ 0.1432352147686404
Lord 0.11191980219828473
Two 0.09656976164167112
game 0.02778666641227687
ner 0.057313051603785706
timestamp 1
รอยด์ 1
1801 0.45811248983181824
Al 0.052676847205744615
Football 0.07649134664680139
Op@@ 0.27278888892787595
Sc@@ 0.2510084484440511
When 0.04651219787154403
red 0.0736778979655894
thumb 1
ดุริยา@@ 1
พักผ@@ 1
เฟิล 1
ク@@ 1
山@@ 0.286596686418399
132 0.7906555983358878
137 0.9119281427634592
201 0.9218640621356875
CP 0.492550152704984
Edward 0.10509945009495644
Ko@@ 0.12646359001561036
emia 0.7048279556350209
ib@@ 0.15892246123631065
ma@@ 0.13933561481658288
oides 0.4393562951856591
จัง@@ 1
เหลี่ยม@@ 1
แบล@@ 1
์ม 1
35@@ 0.43315688221834836
AR 0.42121985323954403
EN 0.8796557501935278
Homo 1
SH@@ 0.725947900199718
So 0.0888267918954052
Treaty 0.4403643039567734
au 0.005423438791082119
index 0.6461088752220333
om 0.1629757432836111
ung@@ 0.13974397450123677
ตตา 1
โหว@@ 1
CBT 1
GT 0.5754183350350787
Jean 0.04143186322595166
Microsoft 0.2619053190596614
Sound 0.29792732192209265
Station 0.111593819934381
WBO 1
^ 1
ens 0.0454396763789173
จฉ@@ 1
ฟร็@@ 1
08.@@ 1
AF 0.6461435555918186
Jr 0.2019331114486338
NK 1
Office 0.14255120451944822
Over 0.20025931736943633
Palace 0.2990199792034557
awa 0.3051480134321864
up@@ 0.12876527755110728
คับ 1
ฟลอ@@ 1
วิกฤ@@ 1
เทค@@ 1
แชน@@ 1
0.2 1
Ag@@ 0.13930969506361202
At@@ 0.14404124955469993
California 0.05079129286030756
Cyprinidae 1
NA 0.4990293687157172
ato 0.11893246688453982
au@@ 0.08940842261621702
for@@ 0.07543640146110143
odon 0.8508163253481886
order 0.04832490198277109
vs 0.7152655500280382
จน์ 1
ปลอด@@ 1
อุดม@@ 1
1790 0.4474844213398447
256 1
270 0.774347026092658
Children 0.2848751139759936
Double 0.5621112576590057
Is@@ 0.1456615677019785
ind@@ 0.18901201839670945
จูงใจ 1
ฉบ@@ 1
ลพ@@ 1
สู้@@ 1
ห้าง@@ 1
เดน@@ 1
600,000 1
737 1
Fe@@ 0.22322905810220905
Ka@@ 0.23815142701131814
Mary 0.08044972123760846
back 0.03036017285272598
gang@@ 0.7596664247389268
กว้าง@@ 1
ดำรัส 1
ธน@@ 1
บัญชี@@ 1
ลงกรณ์ 1
อัก@@ 1
205 0.9352914606734962
Blood 0.5268760436122166
GT@@ 0.6803562860428215
IEEE 1
La@@ 0.13843177455076286
ek@@ 0.09559627480520153
ev@@ 0.10119109482876117
ser@@ 0.11226421551276165
ue 0.1205416130185735
กติก 1
กฤษฎ@@ 1
ศูนย์สูตร 1
ียบ@@ 1
8.5 1
850 0.9511975317840446
ECW 1
Hero 0.8127956553268578
Organization 0.39011900224870305
USA 0.08516848109164968
ant@@ 0.12110141330460643
cr@@ 0.09727902288146316
ment 0.08662637360159693
tree 0.184162678975075
use 0.024999569763321672
สถาปัตยกรรมศาสตร์ 1
สลา@@ 1
อิทธิ@@ 1
ฮอลลี@@ 1
An 0.04712966948663813
Det@@ 0.4642749843901256
With 0.06256820217493861
light 0.07877454358668406
more 0.012976640402470848
nd 1
ost@@ 0.17728614951181715
therapy 0.6240502251188969
ขอบ@@ 1
คริสต@@ 1
ถึงแก@@ 1
สมัครรับเลือกตั้ง 1
สุนทร@@ 1
เทศ@@ 1
ッ@@ 1
Ap@@ 0.2001964613376192
Land 0.08689830101130698
Star@@ 0.2257815863703465
Ta@@ 0.20667073343067158
key 0.10914026247810531
pol@@ 0.16747513876342562
ติกา 1
ราญ 1
ล่ม@@ 1
วชิร@@ 1
เปรียญ 1
134 0.870377532057273
143 0.9686933465336508
146 0.939951688773389
148 1
199 1
AS 0.26448758528308236
Johnson 0.11846848431516169
Kar@@ 0.08674480639239462
LA 0.3078039991166977
Moon 0.3218574534524794
com@@ 0.10487505735234082
dia 0.25514400851961055
eus 0.39570843629287034
fer@@ 0.11162739598792415
the@@ 0.21751751478772977
yn@@ 0.23535046210972266
กระเพาะ@@ 1
นราธิ@@ 1
พร่อง 1
โหม 1
シ@@ 1
Boys 0.26528013155668645
Can@@ 0.13589887124321126
Control 0.3790436238435938
Medical 0.202727937938332
Pan@@ 0.15693690191061763
ations 0.041900617788922095
class 0.06350905735567358
du@@ 0.12660979449881557
micro@@ 0.21641143935003118
ori 0.2777255179842544
right 0.0562259736814673
username 1
ô 0.6881742412562688
กระจา@@ 1
นุกรม 1
อาศ@@ 1
1883 0.21415950561834163
2.7 1
Alexander 0.09400535758073157
IT 0.4081801048790823
Sel@@ 0.18283328937146398
Tower 0.31380531985182736
ena 0.11557568757480607
gen 0.13078452009973068
its 0.006995730406846442
super@@ 0.12271087616396452
tor 0.15616818714739694
กิ้ง@@ 1
งคู่ 1
ฬ 1
แห่ง@@ 1
リ@@ 1
ABC 0.24231340122716993
Ber@@ 0.07472501861486891
Days 0.48713882899511496
Los 0.021888099523126002
Net@@ 0.5153944441534148
Roman 0.07444346528890847
Sweet 0.6683991086886258
ada 0.03055412687150226
­ 0.4302963454716522
ì 1
พระนคร@@ 1
แต่น@@ 1
โกร@@ 1
ไรด์ 1
1839 0.34407980852209996
48@@ 0.5333151510099123
Index 0.6190196015435283
Scott 0.12295260959400041
ality 0.16768378289651575
ax@@ 0.26581147653137527
jpg 1
new 0.014419953820568723
ora 0.13622371369291417
งบ@@ 1
งเกิล 1
ท่ว@@ 1
แอนตาร์@@ 1
154 0.9234129983392089
1859 0.24010706925868916
206 1
CV@@ 1
Cross 0.16849312318793042
Hol@@ 0.11713205072338423
hi 0.20385718395099303
osa 0.13639443489913367
urus 0.7827820872592939
ฉวน 1
ดนตรี@@ 1
มาลา@@ 1
ริด 1
สามัญศึกษา 1
20,@@ 0.643450932359377
AI 0.6128531484933701
Bad 0.1722049230054581
Centre 0.09607511093329416
High@@ 0.4807483734140383
IP@@ 0.5240163385826468
PO@@ 0.525470221972534
Paris 0.030455017994083074
TC 0.3373082304733515
We@@ 0.14662730201596225
ama 0.1170133029651971
anus 0.2660912706166166
code 0.13703681626088665
ile 0.043547770040946024
less 0.050013946667089845
mag@@ 0.23484296811534291
sc@@ 0.13278402571031306
ud@@ 0.19915597691899134
วรวงศ์เธอ 1
สุทธิ์ 1
เอลา 1
Committee 0.09123862714342762
Impact 0.5814186285425516
San@@ 0.13111392934417476
eng 0.22945533782728966
los@@ 0.41314503300015964
px 1
ความสะอาด 1
ตอบ@@ 1
ที่ว่า@@ 1
ธัน@@ 1
1872 0.21629941417706308
3000 0.2960164358063631
Court 0.0676454097690193
ES 0.577324955696965
Mi@@ 0.15281646394227183
Money 0.6681662683551314
Trans@@ 0.1967425876102211
ker 0.10377100527090191
ps 0.1405475996274024
self 0.10830288703687486
ym@@ 0.2388311964702059
} 0.1937859839836775
วิท 1
ศล 1
แอป@@ 1
ไบเบิล 1
1,600 1
202 0.9515635391845527
Cap@@ 0.16272644658747024
Poly@@ 0.3525804408376552
Temple 0.21387650988654255
bone 0.41002712028475935
number 0.022169842229082647
tra 0.1365069245435034
คีน 1
บีเรีย 1
ร์ม 1
ស@@ 1
37@@ 0.392611710763551
AK@@ 0.8766568984253402
SR 0.24804182409264855
Seven 0.35660848929077366
ชชา 1
ตึงเครียด 1
บริจา@@ 1
เคีย@@ 1
168 0.985551869544996
1700 0.5398950718142337
2.6 1
55@@ 0.545743103799203
All@@ 0.23728468188196122
Crown 0.3189489198881167
ON 1
ca 0.08964152581887493
ula 0.23973537851599017
งัก 1
ทด@@ 1
มศึกษา 1
มีความ@@ 1
ั้น@@ 1
1873 0.20851929203328276
And 0.19101620620297083
England 0.040946271121866475
Garden 0.275787169128951
IA 0.548618480777211
Mus@@ 0.141525264038525
\ 0.2919916129647764
ano 0.060144338950045256
anthus 1
clear 0.1882057584270426
control 0.05237290869274249
ja 0.08774212166790679
yo@@ 0.4949667831374859
ฝั่ง@@ 1
ศี 1
สัย 1
อักษร@@ 1
เตอร์เทน@@ 1
်@@ 1
0.6 1
1820 0.2498064943216783
208 1
Beautiful 0.8855987418034139
Down 0.33695345065911647
Gar@@ 0.12235670494810022
Hor@@ 0.12835895695413532
Kiss 0.8068435027850716
Sa@@ 0.1477187496112998
TA 0.3459225994780755
ids 0.16645334793589922
ly@@ 0.22590863639384523
reflex 1
sh 0.7880620809301853
test 0.11675720427866361
ā@@ 0.1364999242029599
เยซู 1
后@@ 0.6018588414562305
152 0.7516739603412887
1806 0.3551503650640705
183 1
222 1
AND 1
Han@@ 0.18507497580343985
Kong 0.13509245943923673
Ni@@ 0.16270124245384368
Open@@ 0.56892939297718
Prot@@ 0.29057165983476224
ê 0.9434747176187067
ลาส 1
โค้@@ 1
142 0.8819648097093142
151 0.8989575291632732
Alliance 0.2500341926475196
India 0.04580730110537518
Mask 1
Match 0.5517768557258738
Not@@ 0.17164265618150795
Sol@@ 0.11806892428930456
ona 0.10976672224255167
กาฬ@@ 1
ทั่ง 1
บรู@@ 1
ผู@@ 1
ราะ 1
รูปร@@ 1
1,300 1
19,@@ 0.6782537832067677
225 0.8306435815581258
3,0@@ 1
Fast 0.7862464695129626
GDP 0.9542164383216146
If 0.10493889860552164
On@@ 0.21037219243966881
Sport 0.1955382474050152
TS 0.4811317682793405
ga 0.16697406525874034
head 0.04439833221390274
mar@@ 0.08349191086623341
met@@ 0.23260724661709475
กลีบ@@ 1
กอก 1
ทั้@@ 1
นวม 1
ภูเขา@@ 1
มิช@@ 1
รัศ@@ 1
ื 1
เวียด@@ 1
EM@@ 0.5548256278867686
FA 0.21072095047450476
IV@@ 0.9033479549650731
Lin@@ 0.20196936633049342
Studios 0.20390848077118157
Vi@@ 0.12490903693864897
den 0.0029359641485103265
lia 0.33505599319255264
ประยุ@@ 1
รามา@@ 1
วี่@@ 1
1874 0.20471195323897515
1876 0.1943392368798059
2.8 1
310 1
Kan@@ 0.14448740961512832
LE 0.8320721558926533
Next 0.46068898756564547
No@@ 0.1616313695101714
SE 0.45797139828655775
Sch@@ 0.03964221100173129
Universe 0.628129445609096
area 0.021610200999381254
ba 0.09198833365655822
icus 0.38053072547699146
tions 0.08486690050438109
CC@@ 0.3659573137682571
CET 1
Fame 0.2204535462221449
Lake 0.06809131058148135
Pe@@ 0.1310019045400227
Zone 0.27704601376328486
ba@@ 0.13142315039813598
ets 0.06315255299464245
frontal 1
have 0.007687642767911185
io 0.10156549407936308
ke 0.06269984010801778
ys 0.1168263050409034
พื@@ 1
ีก@@ 1
1849 0.2573804076022941
235 0.9891312311541046
25.@@ 0.5532510154226334
65@@ 0.5266455930672904
Del@@ 0.11564526844644672
Get 0.5311827468921546
Magic 0.4257987193737653
mi@@ 0.12260143360487721
tidae 1
บัณฑิ@@ 1
สันหลัง 1
เว้น@@ 1
แม่ม@@ 1
ម@@ 1
Ang@@ 0.17206570321179337
GB 0.43558948904093936
Honda 0.576385512865134
Jack 0.1065292981911091
Nations 0.14061933773565294
Performance 0.4404489686094096
Ray 0.2104307874639568
UT@@ 0.8888357942140109
all@@ 0.11283020794284322
ath 0.17225797806489163
คุม@@ 1
สถา@@ 1
宗@@ 0.5773509827359298
1858 0.2509353308454768
Again 0.5829741491603578
Arena 0.24885274414880307
Iron 0.29625683221107924
LS 0.8533077952039678
Pacific 0.10154769555524025
comment 0.5058503297820184
est@@ 0.0731527627130482
les 0.0026655033845245707
process 0.07201779521864336
กประสงค์ 1
กัมมัน@@ 1
ศรีอยุธยา 1
ั้ม 1
เยา 1
เริ่ม@@ 1
เอมิเรตส์ 1
中@@ 0.0900880277721463
（@@ 1
1869 0.2113439596857918
192 1
Rose 0.1838372008253761
SI 0.5976870561891593
SM 0.49386444120917905
Shin@@ 0.5240641716882551
hy@@ 0.2438924874078719
king 0.08018189989457285
จจะ 1
ทบ 1
นน 1
รณ์ 1
เร็ต 1
147 0.8622934864237365
238 1
Bas@@ 0.13584702024926815
Bel@@ 0.08197783190023136
Code 0.2625384399156693
Hay@@ 0.30770358420075233
Tar@@ 0.12361054227962848
Type 0.3068070356513405
Wars 0.35512937811338324
ks 0.07186274583255303
psych@@ 0.272610658945242
ster@@ 0.17071872726226092
เครน 1
0.3 0.8792600883975925
153 0.9191177289628876
60@@ 0.46381922446776697
Bor@@ 0.09658995680448713
Bridge 0.1545269545397219
Brown 0.09491816768002849
Champion 0.29441249072789005
Junior 0.15902927100466932
Kids 0.610933733654778
Micro@@ 0.40657872928526245
Not 0.2364170309862789
OH 0.8701257777880275
Pu@@ 0.26422383373626657
RT@@ 0.5138759357251405
Sain@@ 1
SmackDown 0.938627641736253
aya 0.146554061709001
jo 0.18761776599687313
me@@ 0.11297910358608007
onia 0.23250316254935835
yp@@ 0.3211875547760139
เก่า@@ 1
26.@@ 0.5580710563227325
420 0.9792181587899007
Beauty 0.9862879763738847
CD@@ 0.3679882063413947
Chemical 0.7414759885830535
HE@@ 1
History 0.03038364443123509
Hong 0.13076558320227397
MIT 0.7189357457368861
bul@@ 0.1972120842936654
des@@ 0.049358659377658806
gr@@ 0.07450527885518872
pent@@ 0.4555529477912816
ru@@ 0.0922927780849505
มเห@@ 1
ลิส 1
เนียร์ 1
172 1
173 1
1857 0.23352588946867428
221 1
Happy 0.6255429433133098
Mur@@ 0.13437714666340364
bas@@ 0.12550528485335916
can 0.014337313877149004
chi 0.09050477338748851
wiki 1
ตัดสิน@@ 1
AA 0.33101592358772886
District 0.035073813157418025
ET 0.7338391870943499
Fox 0.15219111191286566
Hotel 0.16137975572888105
IR@@ 0.5139956704274204
Men@@ 0.14061017518971636
data 0.08066218473122563
fiber 1
tu@@ 0.0928623733705621
บุรุ@@ 1
มเบิร์ก 1
วงศา@@ 1
ฬิ@@ 1
ึ้ง 1
ន@@ 1
、@@ 1
10.00 1
204 1
38@@ 0.4086877599646762
39@@ 0.4635150995159544
Bill 0.10905763268874451
Bre@@ 0.12463399908764375
DB 0.5021558418328546
Faculty 0.4625254445316667
HC 0.47954754932504684
Im@@ 0.1445593430895358
Language 0.4080594362849011
Modern 0.2210959928581453
Toyota 0.5629403504410735
bar@@ 0.06986642392587222
ens@@ 0.06068789174849694
ri 0.16500687908692713
β 0.42738682276283946
ชมพ@@ 1
ธนา@@ 1
ภูธร 1
มภ์ 1
ระบ@@ 1
อินเตอร์@@ 1
านุ@@ 1
ไหร่ 1
178 1
1793 0.34914849932887515
Christian 0.05662151940178957
Division 0.03922556925277969
Smith 0.06597966765414985
col@@ 0.10903308579412439
！@@ 1
158 0.9393001935761205
184 1
212 0.9660644294278024
44@@ 0.4950803397400447
99@@ 0.7687051912417265
Army 0.04596347326629013
Ba@@ 0.15241422960591897
Brothers 0.25483094396949774
Church 0.044671087047896324
Computer 0.33872071523651787
ED 0.8114252966268697
Rankings 1
day 0.026141334197297923
ki@@ 0.18290013492111937
will 0.02211739247206663
ye 0.10407797385353693
ys@@ 0.1872519915292776
ญาต 1
เฉียบ@@ 1
เมริ@@ 1
0.8 1
Commission 0.09106887896051273
EF 1
Woman 0.3440385872769317
ice 0.06741104315595771
multi@@ 0.2299099038800757
que 0.0018773673998940675
vi@@ 0.0809496910396241
ซื้อ@@ 1
รบ@@ 1
็ม@@ 1
‌ 1
,000 1
2,9@@ 1
4.2 1
Chris 0.1333433306575024
El 0.007425268733419975
Mac 0.33550027298636426
S- 1
ae@@ 0.5215086389829071
dec@@ 0.10506701858041434
law 0.03974942757473679
phy@@ 0.3757377622653925
æ 1
ฅ@@ 1
จืด 1
หน้าที่@@ 1
太@@ 0.37905479404692904
18,@@ 0.7493060086666092
22,@@ 0.631371901935206
303 1
Cure 1
From 0.04427822934696002
Multi@@ 0.6549566816962431
SP 0.5139704652599109
Tak@@ 0.19669931031582225
channel 0.134149856334828
ome 0.20960584414370764
space 0.078724503310498
would 0.011313187130417589
ทักษิ@@ 1
แบตเต@@ 1
138 0.7261751792222668
193 1
27.@@ 0.5403058864575356
3,500 1
301 0.9262061101801343
Artist 0.5618037219603425
Bu@@ 0.15873802303096132
Jackson 0.11706557384607635
Korea 0.14972652699140795
Na 0.48230122552710725
alization 0.21277931811699863
ese 0.04831492423911596
lion 0.3613916703118017
mm 0.06089224500454851
so 0.013895397409644444
version 0.0368214742959211
š 0.4955359428326416
ซุป@@ 1
ตอม 1
นิก@@ 1
ป้อมปรา@@ 1
พย์ 1
พระบาทสมเด็จพระ@@ 1
อาชญา@@ 1
เจ้าอยู่@@ 1
1.9 1
1792 0.38328618515670815
315 1
430 1
AB 0.3599842819013135
Box 0.3536146637441734
Knight 0.28597190504638054
Mat@@ 0.10160552718143957
Operation 0.18395035678374164
RA 0.31317203386227194
Ring 0.3428769442508309
Standard 0.2486401963895357
Ter@@ 0.13595901869841207
Wi@@ 0.24755430829728042
ast 0.15412324040546851
ell@@ 0.09422895586136573
esis 0.4855264152954491
value 0.12737810963475826
กาง@@ 1
ดอลลาร์@@ 1
นอกเหนือ@@ 1
ประกวด@@ 1
รี้@@ 1
วชิ@@ 1
สนาน 1
แปซิ@@ 1
公@@ 0.2258953985652533
156 0.8125237807777873
163 0.9261476348391421
2,6@@ 1
46@@ 0.44885709065563323
Agency 0.28024621711007813
Ha@@ 0.1534406192416616
IN 0.6246893140845036
Once 0.23547055398521982
Sor@@ 0.16634420471920636
ide 0.20708937605360045
otic 0.43390185279280785
som@@ 0.28727182477812807
umi 0.4291162432959969
กฤต 1
ปลง@@ 1
เวียน@@ 1
Data 0.4240327426842425
Hal@@ 0.12925013180145642
ON@@ 0.6783868594988935
RT 0.49374726980698364
SI@@ 0.505473334400014
Ti@@ 0.15445906284141148
Web 0.3925432563368847
album 0.014530134963955988
รรม 1
ันต์ 1
ื้น 1
เม็ด@@ 1
0.4 1
1,100 1
157 0.9468621898144879
45@@ 0.3668629469929937
Hem@@ 0.3157919430820518
Information 0.24210131940958388
Ke@@ 0.12960986531789376
Magazine 0.18794838392724536
Stage 0.43643654952933
Version 0.22766629255976528
acy 0.2081311083572827
ali@@ 0.15859588330494723
artery 1
ber 0.12500212528290522
onal 0.2342390946887918
ors 0.06067515413394803
yu 0.4793106124329369
ละติ@@ 1
สันตติวงศ์ 1
สารี@@ 1
เอเช@@ 1
ア@@ 1
195 0.8662755764453579
3.6 1
BB 0.6864175357014234
Die 0.00443322699197701
EC 0.38328694840420274
KBS 1
MV 0.5751088874437335
Real 0.10434363003797212
Road@@ 1
SF 0.6499599318944648
Shi@@ 0.2742188815339878
Siam 1
Stars 0.25307325812686476
ami 0.13223035893602603
ann@@ 0.14742446961934927
lu@@ 0.11056864548448564
pl@@ 0.08162008730878707
tia 0.20742483462538366
ปรากฏ@@ 1
ร่อง@@ 1
แ 1
EA 0.553081132857177
Imperial 0.2084571378641645
Vol 0.722440364166232
action 0.05627773955911326
anterior 0.20980054237339993
ติธรรม 1
แกม@@ 1
ได้รับ@@ 1
‘@@ 1
1795 0.3946767196008311
777 1
99.@@ 1
CL@@ 0.5718887345331201
Cat@@ 0.17527122330083394
Heaven 0.6021437520339961
Hill 0.07289348941520252
Islands 0.1435770929484026
Kur@@ 0.09972304102729646
Part 0.3185303744941697
TV@@ 0.4020897900352523
bl@@ 0.0695489120964923
ili@@ 0.1667896028968088
single 0.025889660939354214
ta@@ 0.15162707900729186
thi@@ 0.25256829521551655
ร้อ@@ 1
สถ@@ 1
สัมผ@@ 1
องค์กร@@ 1
เบธ 1
文@@ 0.1540549818500764
167 0.834617636203226
1854 0.2257575119622743
265 1
AD@@ 0.29322274114957586
Age 0.23868914384820572
Da@@ 0.24715772132594382
GO@@ 0.6438523841371787
HO@@ 0.7466647588344185
Harry 0.13528624154159274
How 0.35975201122510087
Mountain 0.15269635914225418
Mu@@ 0.17404540217961442
Nar@@ 0.1891644417597059
Second 0.08177908993004843
Tom 0.1011998564338927
color 0.081722857316468
didae 1
duc@@ 0.3706092467383614
hom@@ 0.15666510101802503
ine@@ 0.34568075193707476
lin@@ 0.1298433296644028
°@@ 1
บำเพ็ญ@@ 1
เจาะ@@ 1
เจ้าหน้าที่@@ 1
แชมป์@@ 1
2,4@@ 1
47@@ 0.41893651278771155
999 1
Ca@@ 0.22301144040475038
Just 0.25498826067008956
Non@@ 0.6936698352877473
ema 0.22458305936265893
min@@ 0.11167429485599356
polar@@ 0.479309050767998
ry 0.11563918078399911
sur@@ 0.07573723738575065
ตกล@@ 1
ระเบ@@ 1
เมียร์ 1
189 1
2,8@@ 1
309 1
800,000 1
AG@@ 0.4628393635638726
Government 0.07796824984521077
HA 0.6934220093267428
Met@@ 0.20698379905959063
Post@@ 0.18166445019882
QS 1
Steve 0.13229029730240593
Sy@@ 0.20160851871706756
Theatre 0.1043411826517328
Ther@@ 0.39552946445992154
Wall 0.2890933125456865
dr@@ 0.08651795605423254
ette 0.06350501146351899
low@@ 0.2798802086245448
mg 0.7357358316209253
ทนา 1
บัญ@@ 1
มนตร์ 1
อะมิโน 1
0.7 1
181 1
1831 0.2947735104828771
214 0.9827364314826189
216 1
Core 0.8164446397324847
Indian 0.05092299901092085
Sam@@ 0.11596620593603085
Sir 0.07813874632315776
Studies 0.1833497508520408
Ur@@ 0.0998503232674195
Water 0.21244324827042918
Yes 1
Yu@@ 0.4827204739945513
ain 0.10450285703032702
bias 0.7114447851864009
box 0.13999170290043536
cl@@ 0.11418633948553158
ings 0.05529322668310787
leg 0.22060656468392295
love 0.09404518565630085
station 0.0216503054856796
tract 1
ul 0.1520437065100548
ysis 0.6743215813033113
จล 1
ปิโตร@@ 1
แทรกซ้อน 1
1,400 1
203 0.8628876047858199
BT 0.8041381418328651
ING 1
LP 0.2115037750610565
Revolution 0.14773104336231863
SBS 1
Sho@@ 0.2568216576816124
Sky 0.27441702233329673
ability 0.07954082266430408
aria 0.11449255530480482
list 0.053432697325842125
กลุ@@ 1
ประการ@@ 1
ผสม@@ 1
ยุว@@ 1
สัมป@@ 1
な@@ 1
神@@ 0.3054587211373673
1837 0.265816623916712
3.4 1
CR@@ 0.40440806261137235
Dor@@ 0.12850729786644946
EG@@ 1
Economic 0.29909829881118405
Hel@@ 0.1556806040839613
Jones 0.08698012136651899
PL@@ 0.4753197925770666
Por@@ 0.12106671150425914
Rubiaceae 1
ari@@ 0.12205027046328513
ich@@ 0.10641882762880439
match 0.03379112812969283
phot@@ 0.41165569854813344
sin 0.045209025179202396
top 0.03472476790238124
ภาพยนต@@ 1
สุขา@@ 1
อาช@@ 1
แกะ@@ 1
แหล่งข@@ 1
元@@ 0.35505310874362334
179 1
191 1
196 1
3.3 1
Action 0.2689679359027831
Championships 0.07731691930682523
Cur@@ 0.16555904494127494
Francis 0.12075115580398262
GN@@ 1
German 0.03267937635500949
Holy 0.20774082082184567
PC@@ 0.5295540376940846
Tent@@ 1
Web@@ 0.3563424350257185
YouTube 0.2090374651084743
let 0.12965504566591984
life 0.01824420754403742
methyl@@ 1
ops 0.2916612426947
over 0.010679933589213583
take 0.043824961857299914
จื@@ 1
อเน@@ 1
เข้าใจ@@ 1
ในบาง@@ 1
ダ@@ 1
1812 0.2397221918082513
182 0.8555261848717086
1845 0.24797169969726285
2,7@@ 1
35,000 1
French 0.030398035830167265
Head 0.18243296422651953
Japanese 0.05872583640770745
NT 0.7765304173802294
Sh 1
like 0.026936831367396233
mer 0.06200419053954461
ray 0.26487164515445566
ut 0.11846186343713924
za 0.0769556573926622
ទ@@ 1
--- 1
139 0.7696531998218363
149 0.8345737841252949
162 0.8203671575236645
1851 0.22644551621632839
Angel 0.3158806919199608
Apiaceae 1
Christmas 0.18471720337996067
Dead 0.28006444251445844
Energy 0.2451914493955138
Fr@@ 0.09066120452031849
Justice 0.12274551129948723
Medicine 0.2836963495476745
NET 1
Nature 0.33614076332316883
Nissan 0.8072094408218263
Pi@@ 0.10417568466928623
Sil@@ 0.1791651711060668
Soul 0.4033429631802576
WHO 1
atum 0.37203376008479533
ection 0.27812905601398585
eng@@ 0.08436087916969229
op 0.17486052454196024
ประชาธิ@@ 1
ปไต@@ 1
อร์ด 1
แขก@@ 1
2023 0.6611830883970277
480 0.8617716526143778
Actress 0.6618234104664269
CDC 1
CIA 0.42099453634462186
Got@@ 0.3969948936737599
Never 0.5236982874519865
OF 1
Res@@ 0.20492757301379927
ashi 0.4510869909131939
ech@@ 0.12110538161582642
ha@@ 0.17249285601287062
kin 0.13658784256528192
search 0.20141648165579507
กาล@@ 1
ทวีป@@ 1
ฮิล@@ 1
‎ 1
161 0.8449552812793688
1791 0.41536769418235087
1856 0.20363917480465568
251 1
ATP 0.2923259204462417
CC 0.283215187856091
CT@@ 0.5661570978993384
Convention 0.22189262956140057
IG@@ 0.6883736045277793
Ku@@ 0.1692236737297446
May 0.018110799559596935
Rainbow 0.8148973726905665
Tor@@ 0.08574006962425013
VI 0.13278793784729961
ania 0.24568207365876016
berg 0.04942180280910653
complex 0.10357529473396763
ef@@ 0.10682430397935175
inc@@ 0.09697384031571096
oo 0.3052962130507413
parentid 1
solid 0.3290729948403482
tical 0.21240148801870745
ปลอม@@ 1
ล้วน@@ 1
สเกต@@ 1
อาง 1
−@@ 1
南@@ 0.11746746109351179
1824 0.31476385381529876
304 1
375 0.9812992409779772
70,000 1
BA 0.2733332660447518
Ben 0.13088393713333238
Bl@@ 0.11161078646896287
EC@@ 0.504093263970656
Express 0.1947512224531086
Grammy 0.31279967273870507
Mobile 0.36160479532987694
Search 0.9147088298716235
Sim@@ 0.15381466862766707
enia 0.5571090637435533
national 0.023549669072450506
second 0.013421029419459397
ve@@ 0.1624001034488437
video 0.043196721898101476
which 0.003432158257349884
zone 0.078602756232621
คณา@@ 1
สมเด็จพระนางเจ้า@@ 1
ฮอป 1
เด็ด@@ 1
169 0.9166141062321689
21,@@ 0.5451736619698746
After 0.014978029964743995
Come 0.5159777743976498
Na@@ 0.1877767337131074
Out@@ 0.2759926551299336
Right 0.43153203600802054
SN@@ 0.5272813837239323
ST 0.537331501713658
Will 0.2283863309718574
her@@ 0.0726995567104907
ii 0.31419222473419606
la@@ 0.13232285335677377
pa 0.14135273049700922
power 0.03771300586524297
ra@@ 0.12405504759269563
sa@@ 0.14591552109756012
}@@ 1
ñ 1
งวด 1
ดม@@ 1
ศิษย์@@ 1
，@@ 1
1821 0.2739823228779168
1852 0.22284370660147768
215 0.8246195323425254
370 0.8477744849471626
Ben@@ 0.11744546502359159
EL@@ 0.4795441840410386
Hydro@@ 0.5587146130858823
JR 0.5059787665781053
Mad@@ 0.12356777504102187
Mid@@ 0.2876525385885077
Mil@@ 0.10524880777707195
Pal@@ 0.10385708729240546
YO@@ 1
analysis 0.14328427684447012
ery 0.12589626804931553
ky 0.11573732911596639
medial 1
membrane 0.5498953537986637
oli 0.22719772917773967
sch@@ 0.03558439146237836
ze 0.08074209797865772
ø 1
กล้วย@@ 1
カ@@ 1
177 0.8999468228445862
Area 0.16218972020718225
Bay 0.0659104847900338
COVI@@ 1
Challenge 0.24774030682432213
Champions 0.18364495601085834
Joe 0.10181466236479218
Most 0.07847915747478401
Ol@@ 0.11197767670624065
Tan@@ 0.17318963720225164
enceph@@ 1
free 0.05507053940791007
get 0.0642879813162503
he 0.002669268425896715
ocy@@ 0.7226818336015407
ret@@ 0.20529757481247082
sin@@ 0.11591393534907347
ณู 1
พระบาทสมเด็จพระมงกุ@@ 1
อุท@@ 1
เกล้าเจ้าอยู่หัว 1
แอต@@ 1
3.7 1
BSD 1
Century 0.29166411078604526
Fantasy 0.4599637844567565
Full 0.5467357702395916
MB 0.5593929340056866
Meg@@ 0.27201171404217067
PP 0.45952515332851734
PR@@ 0.5022539002976694
Santa 0.05144347331349579
Side 0.327912675336658
ex 0.08948576897695389
mac@@ 0.2780762078110168
pan@@ 0.13329209201522815
tional 0.21492856787623385
ton@@ 0.1552929366484712
uk@@ 0.14771302722211513
พ.ต.@@ 1
สนิท@@ 1
25,@@ 0.5848165818249442
29.@@ 0.4959987208527453
70@@ 0.401962294547755
AF@@ 0.3756045088100817
Arthur 0.09967735698176954
Hospital 0.09883952603452219
JMA 1
Jo@@ 0.15207102243417167
Kr@@ 0.0840113466468061
Oh 0.5293766610023785
SO 0.6500556931114477
Square 0.17010732643161308
Ul@@ 0.17547422917981653
ash@@ 0.16778894168572497
cus 0.4843182904904111
ira 0.12667828269972228
men 0.021919877285166384
then 0.011591880321436819
var 0.35454807064002075
ชับ 1
ติ์ 1
ทรัพยากร@@ 1
นแรง 1
ศึกษาธิการ 1
ีก 1
1,800 1
1828 0.29143967757496325
194 1
209 0.9469308922576443
DE 0.3808850662333756
Doctor 0.17095346934700117
Du@@ 0.10116070264248062
Future 0.34141649937943364
Pap@@ 0.16243344808821322
Stephen 0.13198605399421523
Tre@@ 0.1471228897992718
amin@@ 0.4225121691588079
inus 0.25060460490915887
len 0.13585419111404043
ling 0.07270818719326039
pal@@ 0.11780417680109591
si 0.03325946200930464
tion@@ 0.16044048361165028
tom@@ 0.17726177417384853
ī@@ 0.23742070816994926
ปูชนีย@@ 1
มัธย@@ 1
สนะ 1
ฬิกา 1
2,5@@ 1
410 0.9812874292543279
Cer@@ 0.1550954277967726
Country 0.14581384142362394
Jazz 0.1712243505716461
PE@@ 0.5133943476384653
Room 0.4322409322141936
Var@@ 0.16717079446907065
ati 0.12660812154921264
elle 0.011597439487542771
ger 0.09616636752650339
ito 0.10338478567697322
pu@@ 0.1348630757359912
were 0.0029587260180989716
จรา@@ 1
บัณฑ@@ 1
วัตถ@@ 1
明@@ 0.2081621946663332
120,000 1
Elizabeth 0.10391826719184052
Face 0.489597185029004
Hu@@ 0.11274812120155603
LD 0.8917497200074197
Ph 1
ars 0.09395279619409781
ye@@ 0.27996603562455263
จรร@@ 1
ผู้ว่า@@ 1
โฆษ@@ 1
三@@ 0.09928367046406877
171 0.8707134848237514
174 0.9022029744353041
305 0.8946951361474191
Cre@@ 0.13154745551129668
Gre@@ 0.12924468756810661
March 0.017627420879067757
Press 0.13396995372714127
Raj@@ 0.16181924470212056
Return 0.5173116991162787
Sin@@ 0.1450366231174625
ding 0.1089900399099826
lev 1
people 0.015469146233190562
son@@ 0.12790711285376727
virus 0.21256905095481127
water 0.029846909817921822
ã 1
คคี 1
ยื@@ 1
ราชบัณฑิตย@@ 1
หรี่ 1
ในเวลา@@ 1
11,000 1
1300 0.5030681943376762
26,@@ 0.5662023915917035
67@@ 0.5674798399957647
700,000 1
Albums 0.24922091913073777
Az@@ 0.13909941351356522
Disney 0.1367115489113462
FF 0.4070716184537281
Kat@@ 0.1552026121251569
Marie 0.06380845306465281
Mind 0.5897820569067631
Point 0.12874370013713343
Songs 0.18352271542984236
Town 0.08345176396199606
XX 0.11718303369870223
adi@@ 0.13917638184501935
html 1
ico 0.08999089588072327
iv@@ 0.11015281077620599
major 0.028140305118154862
mi 0.09476742947004371
tus 0.22924396840235248
พฤษภา@@ 1
เทียม@@ 1
武@@ 0.23624404105137306
Cop@@ 0.3684361439715619
HTML 1
Her 0.052171728235288414
Kal@@ 0.0841448325693584
Neur@@ 0.3153382643958939
Only 0.1839243578481041
Peace 0.2454670473263219
Prize 0.1537383395984441
Sw@@ 0.1685828980267545
Vol@@ 0.1286245959503177
active 0.05901375802687711
cap@@ 0.1352833939026407
ect@@ 0.36891197669390025
low 0.04649159250719424
rate 0.0776900089239625
คที@@ 1
อย่างใด 1
่วย@@ 1
マ@@ 1
国@@ 0.2917288219449229
朝@@ 0.5664535016442306
1853 0.21329689804596616
23,@@ 0.5266160256317204
239 1
Cl 1
Daniel 0.07654351844513835
FF@@ 0.532925200842132
His 0.019399872710425217
Intel 0.5432711408953937
Kam@@ 0.14452126709628152
SD 0.49392071098102713
SD@@ 0.42259022616937514
hum@@ 0.24370901709538947
ichi 0.3146906957101055
into 0.00790768776865982
ten 0.01671649804280492
ty@@ 0.19662815804841077
una 0.0038872530696450348
ซึม@@ 1
บัณฑิตย@@ 1
វ@@ 1
ん@@ 1
176 0.8201439190197438
1832 0.24824147834948046
1841 0.24312593383555675
Frank 0.07772633907533012
GO 0.7584171733778635
Hell 0.4460429131249284
ION 1
Karl 0.06723467962925297
OR 0.9701739319711831
Pictures 0.2466288830165558
Producer 1
ROH 1
Sen@@ 0.1725040939956917
Take 0.5190770649606555
Th 1
Triple 0.3565886064211858
cur@@ 0.08893464389546
factory 0.1812419364929603
if@@ 0.10921389104187866
kg 0.12337994752884851
ny 0.15149622865623247
potential 0.12318491896132615
und 0.0009219910547554141
ยยศ 1
ลใจ 1
สมเด็จพระเทพรัตนราช@@ 1
ド@@ 1
306 1
460 0.9747728146899328
@ 0.6464931043431063
Dr@@ 0.09962633556015126
Les 0.009961731282568758
Place 0.19525373422199407
Tom@@ 0.15703116050895935
ites 0.09583388199352864
lam@@ 0.14998320364165652
otr@@ 0.37236121061666533
surface 0.06942210391170059
± 0.640389964608986
กาศ@@ 1
ปัส@@ 1
มาเล@@ 1
ยอม@@ 1
ร์นัน 1
วอลเล@@ 1
か@@ 1
ジ@@ 1
이@@ 1
166 0.7892464434888187
243 1
CE 0.2315127067795905
IX 0.20266339636268113
Ly@@ 0.15911438552653165
Middle 0.11259099257380595
More 0.154154613795049
Ob@@ 0.2054785367164894
Over@@ 0.24909679309660201
PCR 1
Pl@@ 0.11247186929372824
Singer 0.5798752972517586
aden@@ 0.5212157480156157
esia 0.4366658690291026
stere@@ 0.5859775654195755
wave 0.20620685635463276
บน@@ 1
สงบ@@ 1
สามัญ@@ 1
เผย@@ 1
レ@@ 1
金@@ 0.11498800612363032
159 0.8092465623359171
211 0.7739611371303038
308 1
78@@ 0.6758904877618422
Blind 0.8992950922238979
CCD 1
Child 0.34194388959218325
Cro@@ 0.16331799125451682
Fe 0.3073912168305664
Mode 0.6121423531308811
Natural 0.22716470281267512
ONE 1
RN@@ 0.6391870181780103
Tree 0.45507241368226037
Wild 0.25116841027574754
Years 0.31491965814761047
iTunes 0.5324995943023526
map 0.2293577542844761
men@@ 0.08343329238990994
superior 0.15225539820052195
ts@@ 0.07868485638937886
คลิ@@ 1
ใส@@ 1
1803 0.28435670180121253
1847 0.21472966243515781
Cu@@ 0.14434593150227013
DI 0.6035145362402486
Fashion 0.7356733907676652
GC 0.6161770322491332
Ger@@ 0.07779096423772479
Ir@@ 0.13195390251247344
MI 0.5502687544903819
MO 0.6909283121948286
NO 0.8773221839579274
Our 0.24056301372640332
Production 0.14395165684745645
Youth 0.17537911686091695
ake 0.1939538540181578
amb@@ 0.12693551818596113
aph@@ 0.34090803535787434
bar 0.06283081323540853
can@@ 0.0873788638628973
fr@@ 0.06729077033123841
rock 0.04599571188172908
平@@ 0.21156695307423082
1808 0.29499023189314094
1825 0.26831288441403156
2300 1
4,0@@ 1
Character 1
Department 0.05183165468659918
Gal@@ 0.08751626059614846
Os@@ 0.13669146796879594
Pseud@@ 0.5822063286476555
Ros@@ 0.08064824492837822
Visual 0.6022049073359386
ies 0.06649527388582864
ik 0.09200513828617078
ines 0.0695066643219644
ker@@ 0.11213214801956552
method 0.1309600156848306
ological 0.13287380152071623
post@@ 0.15466156329380046
prop@@ 0.19486697202040507
prot@@ 0.17202692152680932
raj@@ 1
rowspan 1
tics 0.1999368807725424
กลับกัน 1
คุ้น@@ 1
บัม 1
รัตนราช@@ 1
ษณ@@ 1
‎@@ 1
′ 0.4990285660351063
1805 0.32469315037378144
1835 0.2304614120450956
246 1
28.@@ 0.4522074353986856
Angeles 0.054950867221912766
Audition 1
Ay@@ 0.14917615585109156
Ban@@ 0.10940950870671738
Cathedral 0.23944643713891337
Eastern 0.08795274598073871
LDL 1
PM 0.4564297778066319
Ranking 1
Short 0.3508262209233399
Val@@ 0.07902112023329917
erectus 1
ku 0.32486911323283824
mann 0.049460755890744
tar@@ 0.10693143821157394
จัย 1
ฟริ@@ 1
ลุ่ม@@ 1
ลเลียม 1
ูป 1
43@@ 0.43559916134257815
5000 0.2557343840497006
AST 1
Know 0.619765380309547
Pierre 0.052485819541939836
Rain 0.6735818186854868
VII 0.15943037339426724
bic@@ 0.31170974811413876
die 0.0010676579498088638
ement 0.0517093144431048
hypo@@ 0.610666433721098
ial 0.2661260559723092
por@@ 0.11928932417667822
yg@@ 0.3626223403061148
จอมมารดา 1
หลีก@@ 1
ក@@ 1
186 0.8698053683989837
187 0.888019388361507
207 0.8509681477900098
223 0.9926583658435535
Am 0.022769843244938113
Av@@ 0.11647408233193969
Broadcasting 0.2906174289408795
CM@@ 0.5056188859765531
FIFA 0.16872815031814947
Friends 0.34044397399884485
Machine 0.356396212092949
Motor 0.1723165971757894
Pin@@ 0.1320232536194556
cognitive 0.7014034052998921
eri 0.13702398809611616
gene 0.18051522957721725
พิจาร@@ 1
ราธิ@@ 1
วะ@@ 1
สงคราม@@ 1
ฬา 1
國@@ 0.14941711519800654
西@@ 0.09060253444362372
14,000 1
1799 0.35762883925151256
295 1
323 1
4.1 1
Acanth@@ 1
Ali 0.11051165765083991
Conference 0.08303140806497751
Field 0.11746457423260395
Food 0.2960141537327841
Idol 0.800111372486933
Mir@@ 0.14125568627843707
SW@@ 0.5099576800931541
Som@@ 0.2354494842930149
Stop 0.6469385169315767
don 0.07982545673036776
ect 0.23855170818604113
eth@@ 0.1893766374882968
house 0.027852174015373304
ler@@ 0.0917667239577664
lidae 1
ola 0.11691521152480566
star 0.08382425297485682
tes 0.038970852746262316
work 0.013471533635680473
your 0.18842874726739972
าคม 1
新@@ 0.09745750035474048
1660 0.598258117376382
1826 0.2744642324262047
AO@@ 0.8807167462993483
Animation 0.6463775898806511
Ash@@ 0.1804101294413749
Bell 0.15334424294962373
By 0.0361768112649884
Castle 0.11854045662517561
Director 0.09266769797414612
Got 0.587105629235697
Kevin 0.16529155643091192
MR 0.7420859524762733
Protocol 1
RIAA 1
SU@@ 0.6267892827524761
Sony 0.22703766294708158
Southern 0.07600662327256368
Spring 0.22896016117728674
Syn@@ 0.27749742287967577
dy@@ 0.3064595790969618
eh@@ 0.06903823714358784
ika 0.14080170247085855
ima 0.16859075146437716
mas@@ 0.11655142660137564
minor 0.10626632711907295
rom@@ 0.20266765466573516
μ 0.6032716808991401
ชาลา 1
โบว@@ 1
ာ@@ 1
☆ 1
し@@ 1
城@@ 0.3309803712264117
1844 0.2234303766669806
30.@@ 0.4652281917606328
49@@ 0.3967957612832556
Board 0.07370796478787969
Gen@@ 0.12426037341241618
Hz 0.9917213462625775
Johnny 0.18137189806698245
Nan@@ 0.2836336335258678
but 0.00486588020054118
del@@ 0.10850426362286096
dorsal 0.5351588395852498
network 0.07320538820616447
pattern 0.23784773087798006
ศัพท์@@ 1
เดียวกับ 1
ใหญ@@ 1
164 0.7471749848552156
255 0.8935691356491826
4.3 1
Ai 0.5631954842190746
Freedom 0.2661966069401766
Gate 0.3781483219218822
Here 0.21807909547296436
Name 0.06368250491194553
allo@@ 0.3557501497737543
not@@ 0.10382485368325262
od 0.15889208353369505
ole 0.12966994447981242
osp@@ 0.429110267586485
radi@@ 0.14719993980117696
social 0.0327762551809689
tube 0.3265390093585553
ub@@ 0.13900709045845006
ชื่น@@ 1
ท่าน@@ 1
ริโอ 1
ฤทัย 1
เหรียญ@@ 1
オ@@ 1
之@@ 0.09675775717439615
16,000 1
1648 0.6248260484828699
1813 0.24821074087997333
CJ 1
Classification 0.6592530324237463
Fran 1
Make 0.6068930537146306
Ty@@ 0.20212634159596637
aj@@ 0.0944563270021775
asi@@ 0.253566556221926
atr@@ 0.14126452485263435
bus 0.08668689481338768
dys@@ 0.5646650755628234
ill@@ 0.07483967888490875
iy@@ 0.20403297888938543
oz@@ 0.17224481587790694
print 0.20511215139475072
ture 0.1887763533881902
ə 1
กราก 1
ดารา@@ 1
ถ้า@@ 1
ษฐาน 1
ロ@@ 1
06.@@ 1
1400 0.49058377108080176
501 0.7964466991209486
950 0.9306715646885678
AG 0.11022249790641671
ATC 1
African 0.051245920508259865
Bachelor 0.19108228102785701
Call 0.485787452983686
Change 0.49489582837010154
Common 0.2783317951599009
Hi@@ 0.25001554526102054
Oc@@ 0.2752411143283658
Pot@@ 0.16924289209843826
Romance 0.8328347748580236
und@@ 0.09950806058454909
well 0.010974290627222664
ł 1
ซเบ@@ 1
ปลักษณ์ 1
พรา@@ 1
เลื@@ 1
ウ@@ 1
海@@ 0.12270596001751889
1822 0.282780796990663
227 0.9806607515331798
29,@@ 0.5937589082917945
302 0.9715834434287844
57@@ 0.4462286398059222
ARA 1
CN@@ 0.3138407619998678
Chicago 0.04849950965274829
Dynasty 0.4990264865116172
Fi@@ 0.15182024609846131
Kas@@ 0.13836891205696233
MBC 1
elli 0.10613548275196893
her 0.0047112535574073714
iz@@ 0.08058258760867283
only 0.009207937645874966
rec@@ 0.0565778275658964
sy@@ 0.21163422393926526
uk 0.18818420112955006
คราว@@ 1
ผู้รักษา@@ 1
พยัค@@ 1
มพู@@ 1
รัมย์ 1
ษฐา 1
เจร@@ 1
州@@ 0.5086762681963887
1080 1
1649 0.9307387030624331
1842 0.21512996513189742
24,@@ 0.4727683216751942
252 1
290 0.7603484798675044
56@@ 0.4603413271420409
660 1
Access 0.4992805625262466
Classic 0.2359958285498408
Congress 0.07862164112881873
DR 0.45101536262314723
Dar@@ 0.10680845688678141
ESPN 0.509584013087943
Heroes 0.610313015100906
Pter@@ 0.7394825986593565
Washington 0.035089840524403705
ach 0.06176390123422603
air 0.03855615113189287
aku 0.4677137557264042
lower 0.06594458582855464
pe 0.075802522823815
public 0.01893596341397727
rd 0.6928296736095141
room 0.0675175271489935
ther@@ 0.14431952778380888
two 0.005267127177384271
ulation 0.3014186258655886
white 0.04796271466515481
การี 1
บัติ@@ 1
อัฟ@@ 1
อาสา@@ 1
เรื่อย@@ 1
ត@@ 1
ャ@@ 1
1603 0.8272848753089567
1707 0.7934223220591369
2024 0.8708692965214462
249 1
27,@@ 0.5127775561964567
3,5@@ 1
3.8 1
307 1
4.6 1
58@@ 0.4771905434122284
AV 0.4420270312717691
AW@@ 0.615835717197635
Actor 0.46517113374872376
BL@@ 0.7370203861032553
Cel@@ 0.22303345003310618
Deep 0.3536734670081819
Eric 0.1411170964895099
Forest 0.12675414104172297
GA 0.380534339457444
Korean 0.12853394271647112
Number 0.4704165283886376
Platform 1
Pur@@ 0.15772053436530237
Ram@@ 0.11488454334298462
Rec@@ 0.15856169159292813
Sun@@ 0.18990599503741026
VO@@ 0.6472572556460103
Van 0.08049067270044818
Virgin 0.2596496946835511
book 0.026924642990375468
ellidae 1
hem@@ 0.34782825069838086
inhibitor 1
ll 0.7859776176930907
orum 0.23039478807678737
pes 0.19719929074383744
phase 0.08420964797976373
phosphate 0.7786713223794067
ulus 0.40666180315911493
vein 1
we 0.04279288132447973
ǎ 1
มัด@@ 1
道@@ 0.4082899920385164
1783 0.3923014837369483
18,000 1
1836 0.21263976747173224
1846 0.19478703934112385
1855 0.1734087209584417
5.1 0.9112195122705993
720 1
Albert 0.07450764398795312
BE 0.8096247851153762
DV@@ 0.6530534281484377
Gl@@ 0.13789314166054648
Je@@ 0.1737710615305842
Jean@@ 1
LED 0.8839690215417375
NS@@ 0.3216801111714917
Nag@@ 0.18089889998024614
Player 0.20036653692096595
Rhin@@ 0.8383861088415215
See 0.09886421561905431
She 0.010587685467786767
Silver 0.20294128388266836
Sword 1
Zero 0.45150675548758
ace@@ 0.23694035616809137
alb@@ 0.14343593480652336
basal 0.7287411350828121
case 0.04019358763861397
cin@@ 0.1588058951306881
eta 0.08244447244739911
his 0.00186655128237043
level 0.03447470313771122
oy@@ 0.14719054903892734
size 0.057959891483797536
คณะกรรมการ@@ 1
ยิกา 1
รนด์ 1
ลอส@@ 1
สุขุ@@ 1
13,000 1
197 0.8566424114563219
28,@@ 0.5377290389764983
90@@ 0.41525006979701196
CS 0.2512926726539646
Crazy 0.6809345502074914
Ham@@ 0.11898246738556383
Han 0.2076001740908788
Ky@@ 0.22917840813200513
Lu@@ 0.11619552898589079
Ru@@ 0.10546651651825524
Security 0.1593345963043721
ere 0.06654536170722247
family 0.01312757350179461
ham 0.1282716341673378
ise 0.04119994979442811
wrestler 0.5902540356059831
yi 0.19041637757902738
ต่ำ@@ 1
ปริยัติธรรม 1
มิเนียม 1
วัค@@ 1
วิศว@@ 1
แลก@@ 1
劉@@ 0.2937934117577905
安@@ 0.11297145070176413
왕@@ 1
188 0.7355465269905577
198 0.8364413952441223
333 0.9595080572064051
440 0.7549313155701393
53@@ 0.47365863066158764
59@@ 0.48682170728032687
Andrew 0.09903812664893004
Ann@@ 0.19417122727319439
Bowl 0.1502394044618307
Drama 0.2867175352107042
Ed@@ 0.1473475467393975
Long@@ 0.15230230466762926
Mis@@ 0.15872099636783277
Nine 0.3757556796391862
PP@@ 0.4978164995026964
Run 0.28374357294876795
The@@ 0.18809856860472915
XIII 0.1883988372408723
football 0.02058638167264175
ight 0.2157757862382635
lan@@ 0.1209478103064942
min 0.14648536403486603
otro@@ 0.5771527436458814
over@@ 0.05397298642501181
root 0.3651399489307121
ship 0.04156226353441827
ten@@ 0.04615638044313505
them 0.013026885783718682
ขี่@@ 1
พลับ@@ 1
อุปั@@ 1
แน่@@ 1
မ@@ 1
バ@@ 1
275 0.728400043192498
285 0.946341747401036
75@@ 0.44084609430590355
911 0.9175415152030096
AJ 1
Adam 0.10920471737127359
Cat 0.44580211393615826
Count 0.27281924249399236
Edge 0.4365839906236514
Fer@@ 0.11926854698649193
Ji 0.6539360025420575
Medi@@ 0.1992860035547611
Mini 0.5537217451909803
Monster 0.5562909756253336
New@@ 0.15633328973384206
Nor@@ 0.09919559709159197
PS@@ 0.3199667199752793
Wonder 0.5492417717924303
atidae 1
els 0.0501447916107885
fl@@ 0.07400719662298542
ful 0.09443409511649545
mer@@ 0.061208698788446
mon 0.2814059298829995
oni 0.10006172911037707
ow@@ 0.09313974275243984
stone 0.07382704031983077
sul@@ 0.4296307050796548
กองทัพ@@ 1
ดาวน์@@ 1
ฝรั@@ 1
ราชภั@@ 1
สกล@@ 1
สุพรรณ@@ 1
เวียง@@ 1
โนเบล 1
1,700 1
1804 0.29532100222073554
234 0.9306967436553498
3,9@@ 1
5.0 1
5.7 1
6.3 1
Administration 0.12450935394871618
Advanced 0.34654276591438
BS 0.35072359277557175
CV 0.4843317855108583
DD 0.6049611837809686
Earl 0.13239528118997698
Fre@@ 0.11188768336682257
Ghost 0.47492728482132707
Tiger 0.343605367756724
atory 0.18228114099933018
cha 0.08189666894729644
ci 0.043049073108454086
cm 0.05743971361560867
def 1
har@@ 0.07635388341509475
inum 0.8871216835966792
kin@@ 0.21361358225588073
ode 0.19724420180308444
oil 0.09425644775065992
primary 0.06291466135317847
uri 0.170705939149093
vesti@@ 0.627902258632609
ò 0.6707213019124662
กต@@ 1
นิษฐา 1
บำรุง@@ 1
บุค@@ 1
ราชาธิ@@ 1
一@@ 0.061198192896160616
1701 0.7635361200753186
1796 0.3224531591741818
1802 0.2802489348607956
1810 0.22897427711543364
218 0.785113153399378
Air@@ 0.2280590418720067
Away 0.562284484962902
HBO 0.5074191931755407
HDL 1
Hybrid 1
Mul@@ 0.13285505386704116
Western 0.042745354082626794
ency 0.2029299513151923
flow 0.14740567926575587
matrix 0.4028847462619911
trace 0.4368135336913082
visual 0.17598059634541574
yst@@ 0.29977768024745316
ฝ 1
ยภาพ 1
ลี้@@ 1
สปริ@@ 1
หนิ 1
1794 0.287475551314058
264 0.9715012924629532
286 1
30,@@ 0.5861733922650616
Dan@@ 0.1399876930451583
Hollywood 0.11643592217073691
Khan 0.1182631438303781
Ocean 0.16198753671661073
Pas@@ 0.10680013249446221
SSRI 1
Si 0.08543391565985152
Tur@@ 0.08902113698555203
Wang 0.23032858797546396
burg@@ 0.42877219517198367
cop@@ 0.2088751567523583
mes@@ 0.17267898205396404
ony 0.19351434678084137
res@@ 0.0593381139068058
tw@@ 0.10530385457615492
กำกวม 1
กเตอร์ 1
ราชา@@ 1
อีย@@ 1
อ่าน@@ 1
เยรูซา@@ 1
「@@ 1
217 0.8066372441717858
245 0.8513756302909554
Bat@@ 0.12083317249657592
CEO 0.16898067062778185
Cas@@ 0.08335886947325337
Che@@ 0.24629939029625061
Collection 0.26386840269794354
DJ 0.1751148209866447
GP@@ 0.45845265135753227
IL@@ 0.5471423089386347
IUPAC 1
Ju@@ 0.1513215613795553
MT 0.6618348698562413
PR 0.372033031997022
Play@@ 0.36002197605792385
TP 0.5059664374223342
Wu 0.31628130926881964
Ze@@ 0.16864690074861405
ass@@ 0.06272593353178928
astr@@ 0.20867566321926634
den@@ 0.07150901623631852
iPhone 0.7093127376549633
ip@@ 0.16987093109226775
les@@ 0.1319385763183433
mor@@ 0.0655769995484351
ometr@@ 1
sacc@@ 1
school 0.014025185397498514
xi@@ 0.27793587908308076
ซัค@@ 1
สวี@@ 1
グ@@ 1
高@@ 0.08992778487322185
1843 0.20805386276042714
228 0.882847287243401
244 0.9826894493447951
253 0.9704203223228929
Drive 0.24519028089789777
FO@@ 0.45772718085221614
Hom@@ 0.16844475855854316
May@@ 0.13277354404326377
Software 0.22536278894702097
TE 0.44261122404575676
Theory 0.482636133414911
WW@@ 0.557375241031534
War@@ 0.08856910677040553
ali 0.10073903189880766
bit 0.15765784796071722
entr@@ 0.09667801649969605
hu@@ 0.09239157168353114
iri 0.21671183039700692
posterior 0.24545244476498077
ster 0.08864984143322122
ˈ 1
ดิสน@@ 1
ร้อน@@ 1
เคน@@ 1
เนชั่นแนล 1
ເ@@ 1
07.@@ 1
1650 0.5762211812949324
1798 0.2834664697101014
1817 0.2607286386422816
232 0.7690338274972564
247 1
640 0.8980639828396951
AY 1
CBS 0.17504371741259248
Cam@@ 0.13885605541142235
ICE 0.7765327303656695
Jan 0.12020105363642845
Key 0.285765494670845
Library 0.1032109527033234
Mak@@ 0.1369266363905244
McMahon 0.8095862352948637
Mike 0.08839301767676067
Off 0.3314222250323991
Popular 0.20838821518860015
Works 0.15527700232764582
aea 0.39391875898144274
dium 0.43417405912247314
ein 0.0036066873100684175
iko 0.20210215016212343
ny@@ 0.19382011102315222
ostom@@ 1
ph 0.3407257499941754
war 0.0035362287363941885
who 0.0043238533443715945
ชอป 1
พลัน 1
โยธ@@ 1
โรดม 1
ガ@@ 1
日@@ 0.1158028475596448
226 0.8881707212827052
241 0.9014749527428135
258 1
36.@@ 0.6544069622270835
4.8 1
CSE 1
Federal 0.07851244787040124
GS 0.43019817209236
Hunter 0.2182189138282549
Kor@@ 0.07407204443899937
Mars 0.20964511174376124
Orchestra 0.15655759738078712
Prunus 1
Sem@@ 0.1619834871294325
Speed 0.4527953507103025
Subaru 1
Tony 0.10548524452858082
Warner 0.170608977022129
ago 0.10343921630247277
aw 0.2765550934155658
az 0.09488028937782875
ero 0.06550818041071561
ich 0.05606964364190343
itis 0.3760301854372517
kl@@ 0.10323156880506261
ko@@ 0.12616506831866459
link 0.18791512626270784
ney 0.09942816430434975
ois 0.19038505407384146
opo@@ 0.3110011424410555
ota 0.12254917100198773
pin@@ 0.17745576415914996
show 0.021606116430796515
wood 0.05202761210215029
การประมวล@@ 1
การ์ 1
ณะ@@ 1
มิตร@@ 1
มแดน 1
ยาย@@ 1
เนียว 1
た@@ 1
タ@@ 1
4.4 1
76@@ 0.6260067217475889
88@@ 0.5110804009412901
Africa 0.04808005536855696
Brassicaceae 1
Capital 0.1778504937185569
Civil 0.07192965065833794
Culture 0.1361589368739514
DF 0.5731883348288596
Fall 0.1152197926418631
Fl@@ 0.10651306981339828
Front 0.12902575673052044
HV@@ 1
Ice 0.23208395815168667
MCU 1
Mission 0.14865265247698503
Mnet 1
Nam@@ 0.24838234993781586
Post 0.07794345827872758
Ran@@ 0.16555625163371673
Rights 0.17440084901003244
WS 0.6499289331195103
dem@@ 0.09163083346947229
ger@@ 0.06243005286056953
glu@@ 0.556950564276227
iki 0.09285011934604351
ized 0.10306271456606976
ket@@ 0.33999049994396785
opathy 1
pos@@ 0.1034918683311322
sal@@ 0.06610243408422918
sea 0.048374424285033586
tro@@ 0.1540712660993886
upper 0.10172654628768713
ซิล 1
ดร์ 1
≤ 1
光@@ 0.20440291121202114
漢@@ 0.33945194379008864
대@@ 1
1100 0.4845228850058149
11@@ 0.28185802755493816
1776 0.3609926758225417
1807 0.264698332729041
1834 0.203919409331802
3,7@@ 1
32,@@ 0.7123893438067627
325 0.7892582814160057
Carl 0.07573540695993969
Choice 0.43357074693879055
Electronic 0.4480478088990012
Forward 0.8813402318939544
GE 0.5507995905195637
He 0.0028109099792722756
Il@@ 0.10469091760671453
Jim 0.10268358371559319
MB@@ 0.7092996913908012
Nak@@ 0.29216969667516096
Wind 0.2791035003157858
back@@ 0.14849046091671433
change 0.04712790510432947
has 0.003362927989560767
ius 0.18841602440672775
ogen@@ 0.25144254631602686
our@@ 0.13085845631492318
revision 0.7915764602924603
sion 0.18131386827609722
vertex 1
word 0.07108438010672864
yrus 1
ǐ 1
ฃ 1
ชนีย@@ 1
รุ่งขึ้น 1
ฦ@@ 1
สัญกรรม 1
สุล@@ 1
ົ@@ 1
1066 1
18@@ 0.21381249179435052
2.9 0.911238213276585
224 0.79144942501471
520 0.8860583672039685
AV@@ 0.40727128210636815
Astr@@ 0.24819782773920768
At 0.01637583275662487
Democratic 0.07342123883757685
FCW 1
FDA 0.686046782037507
Fly 0.6320264511063034
Ji@@ 0.33441230439492325
Lim@@ 0.16774545538795405
NJPW 1
PE 0.5505166306762317
Ri@@ 0.07071145535572988
Supreme 0.10376692900861396
Under 0.07987996473272017
Where 0.35046458892232657
Wil@@ 0.09652460266738101
XML 0.9077956319151558
ally 0.033838964199982564
ants 0.04102418166076573
iss@@ 0.10027158153858817
omat@@ 0.9619395185455467
sk@@ 0.06873409802692391
sw@@ 0.08039588027586977
tism 0.5546667385161822
ทมิ@@ 1
พงศาว@@ 1
มานุษ@@ 1
สุริย@@ 1
เอนเอียง 1
ไหม@@ 1
戦@@ 1
237 0.9714238402530823
242 0.8341550894044738
ACT 0.8057788251307658
Anatom@@ 1
Australian 0.035467180362686763
Born 0.1004472728903836
Der@@ 0.13524944799547517
Executive 0.15682218492247602
Eyes 0.5391854300159198
Plus 0.14549666329258415
Shanghai 0.229208115477756
ani@@ 0.1692739617002499
any 0.01752116858024675
dor@@ 0.14904232900904651
eo 0.10736856861287324
oa 0.16550696218342734
ron@@ 0.27287028362588567
กรรไกร 1
เฉลิ@@ 1
宋@@ 0.3624632098878986
1809 0.25013307748884095
35,@@ 0.664881747975873
5.2 1
787 1
85@@ 0.5949733342135427
90,000 1
AZ@@ 1
CI 0.3559771278111443
Columbia 0.06873944420062698
Lion 0.3583262258557458
Mol@@ 0.10610341458607177
Record 0.3055599912913935
Rem@@ 0.1327297313856519
UR 0.7730172085596001
act@@ 0.2383796095870822
agent 0.09635450418930344
aim@@ 0.4915834472244375
also 0.0029628317889563377
apo@@ 0.18065677422370474
board 0.046171727307102735
brain 0.20516885238441368
cas@@ 0.09444427054117796
inidae 1
ith@@ 0.38182350785213254
ke@@ 0.12526615405210825
ocyte 1
oni@@ 0.16751432926457452
osus 0.5752221176865142
ro 0.13181556188215243
sp 1
table 0.07922799324596176
vol@@ 0.0921241650397965
we@@ 0.07109002271186804
คาสเซิล 1
งับ 1
บเขา 1
สาวร@@ 1
สิงค@@ 1
@@ 1
3.9 1
311 0.9802817202096482
4,500 1
625 1
About 0.1389542390685223
Ak@@ 0.08496473207692576
Authority 0.19653676725076485
Bab@@ 0.15650589631750325
Beach 0.09561552421678572
Bro@@ 0.11730386602737919
Evil 0.537366567433214
Forever 0.5653228118256599
Gi@@ 0.09352039024765207
Hat@@ 0.20813944449145477
ID@@ 0.5439454071214103
Memorial 0.11219841647164266
PO 0.5316152911526887
Picture 0.44818027799323523
RI 0.4539008406086127
UL@@ 0.679328438820898
Winter 0.09742045395107951
aster 0.3129139913182515
cular 0.7300257895095296
eter 0.11337382976148498
lat@@ 0.1075731551527745
mph 0.39770155222518255
ms 0.1354099025899137
phon@@ 0.2438415460702327
ua 0.1242077479282022
ual 0.289656903396688
ush@@ 0.2149191994984381
ผู้ครองนคร 1
สซา@@ 1
อัครราชทูต 1
ังก@@ 1
เซี่ยง@@ 1
แจ็ก@@ 1
る@@ 1
江@@ 0.24614160183818937
1640 0.5680555581887761
1838 0.18763681772156446
294 1
4.7 1
54@@ 0.4346341169471245
6.2 1
Australia 0.026311061531674187
Bot@@ 0.14873616846055276
Community 0.10510233247703839
Cru@@ 0.31559942972469307
Diamond 0.3136814816710572
HS 0.36792866260117596
Higher 0.3354778032696267
IO@@ 0.6762894702547029
Perfect 0.6958293394535947
RC 0.23378449359148257
Ry@@ 0.19618488636285586
SL 0.36877041875796285
Simon 0.08521992540853769
Valley 0.05988184003327401
Wal@@ 0.0739752866195271
aer@@ 0.20892839417733203
cat@@ 0.10511916751307467
cle 0.7750415958619314
epo@@ 0.6267424262863852
fe@@ 0.09231766122549828
icism 1
ill 0.07026515087524483
ital 0.297901548178437
lar@@ 0.09133613935576972
len@@ 0.09888903285611553
nm 0.6202268605086755
pi 0.3022926151363043
scale 0.09649659813413362
tem@@ 0.1609961904770671
ters 0.05953128171695418
ver 0.08366172462343167
xi 0.47707405032298805
zh 0.18078432549502207
ดูแล@@ 1
ถน@@ 1
ถ่ายทอด@@ 1
บูล@@ 1
ภค@@ 1
มารี 1
รวด@@ 1
โตรเจน 1
້@@ 1
う@@ 1
0.0@@ 1
0.9 0.8306106600099685
1818 0.2218899278040486
AU 0.46837662898680754
Architecture 0.2210823603418543
CG 0.6360767148558014
Fair 0.25551159362635245
Fi 0.5837528951444265
Florida 0.053076636853947805
HT 1
IBM 0.25458708149674786
Ker@@ 0.10413067980491471
Kin@@ 0.1337914372810806
Lat@@ 0.19108713489450035
Link 0.3746011733394735
Pat@@ 0.13221793427133938
Report 0.2795330461954306
There 0.01619937284768992
Tomorrow 0.7970781559995935
ag 0.15984210052292527
base 0.0257464180135922
cc 0.4228114865227885
ching 0.15469684623876256
city 0.013925249379041754
dynasty 0.18749714880155882
eria 0.29968093867157886
etic 0.343841469445636
ho 0.21247053609209174
layer 0.28224321837190375
lin 0.0809459203254019
lock 0.16216195090380503
oly@@ 0.7837432427584168
oon 0.223355777431287
ort 0.13394484414616883
species 0.019247873467174395
tric 0.4702499904683175
ume 0.28981087897168795
vo@@ 0.13425469379189994
weight 0.0886017010920785
yan@@ 0.22510496912667013
ตอง@@ 1
บวน 1
ฟ้อง@@ 1
มัธ@@ 1
ึ่ง@@ 1
1819 0.24789759348349635
213 0.7356700413167875
262 0.8177255459251984
74@@ 0.5498610894221044
Assembly 0.06634702206807676
Beat 0.4517368970115457
CW 0.5815896297411542
Case 0.3934368442067116
DL@@ 0.8422695080605371
Dreams 0.61276734588861
FE 0.8416418854762894
Giovanni 0.1632688081251356
MA@@ 0.8624068033856781
MAX 1
Masters 0.18576456898889718
Pen@@ 0.12972130588138053
Planet 0.36909714809335575
Rap@@ 0.21709353905322767
Say 0.5532107192257288
They 0.014291446804817412
Yu 0.3770836633270086
aba 0.03132103241155194
agonal 1
cycle 0.12023855491351827
entia 0.7061202111884846
ins@@ 0.07194333688283512
ox 0.4631640413385331
oxid@@ 0.5025929461564337
vir@@ 0.1495930215796143
ก้อน@@ 1
ธาน@@ 1
พราหม@@ 1
สมุทร@@ 1
แร่@@ 1
€ 0.17181721396602856
1797 0.2875691446565845
219 0.7887614441337675
272 0.9474395288820484
38.@@ 0.5728859095036785
6.6 1
AAA 0.541483992544723
ACC 0.6090015717680565
AFC 0.2865666328062793
Alan 0.12419774231053168
Anne 0.08049641873385707
Arch@@ 0.1736169282495283
Contest 0.37570227161614067
Flash 0.4186592353170353
LOVE 1
Lab@@ 0.1906247606458637
PRO@@ 0.9576161625220468
Pit@@ 0.21832201814418936
RF 0.7284796637780017
Store 0.3502232151440393
Theme 1
View 0.3999346363129659
Walter 0.06933110191309974
asis 0.4366653162745519
central 0.03138083907446009
ds 0.07670718043128863
ective 0.28315695808354235
edi@@ 0.1390064015489013
eli@@ 0.19720121104945543
hydro@@ 0.2375758504703169
lic 0.4989522831484077
mu@@ 0.09276303971588559
sen 0.050527044990469894
sexual 0.09312410356636212
study 0.04269248385148784
trop@@ 0.24533653581877637
va 0.04213624601272341
wikitext 1
zu 0.0031807171981789307
ปรัช@@ 1
ยิง@@ 1
เลือดดำ 1
เวณ 1
เหมา@@ 1
เอ็ส@@ 1
ニ@@ 1
白@@ 0.14529428993615
276 0.9952950892674904
390 0.8336699635716811
4000 0.32623997821646333
5.6 1
540 0.82484601149451
64@@ 0.431702413470121
68@@ 0.3774003384367723
Alone 0.9469705235625028
Bak@@ 0.18857199793686577
Chemistry 0.5278671400357469
Enter@@ 0.5680127851923928
Era 0.23177980320123193
Ford 0.08709466262893238
Ga@@ 0.17854243931793803
Galaxy 0.3938643361766989
Heter@@ 0.6313473309030039
Official 0.4126337188481941
ROM 0.6332825296219566
Radi@@ 0.17771562246052452
Rel@@ 0.18315268145799735
SK@@ 0.6321109941158789
Services 0.11503902787664284
Set 0.4003426599432932
Tales 0.3961121797218486
Unit 0.24276551350735404
Wor@@ 0.19380251015590189
bular 1
cul@@ 0.12155132430959206
find 0.06346261084379819
ku@@ 0.16424485056020743
mark 0.10001017625380351
mic 0.3255406363796856
part 0.007701269891335009
platform 0.10105219776831734
sapiens 1
sia 0.3962888735302712
through 0.010290636170228198
ug@@ 0.1062349504556193
usa 0.1478179059716414
ฃ@@ 1
พอยท์ 1
ลายตัว 1
วุฒ@@ 1
ศิลปา@@ 1
สันนิ@@ 1
女@@ 0.2768163013320959
17,000 1
1833 0.19495080474017196
2,400 1
229 0.8484392726451581
2350 1
268 0.9565154269387749
278 0.9934663105082009
3,6@@ 1
39,@@ 0.7134064154995917
Alice 0.1415269668514318
Bob 0.08469422452213934
Ca 0.7301120945760701
Cold 0.2947322171311932
Devil 0.3905499183685412
Dic@@ 0.4332975358601785
Fin@@ 0.12863476102383709
Hyper@@ 0.42621079594337113
Lev@@ 0.1787787673330703
Main 0.08121968979428487
Nation 0.18289566454797046
Neo@@ 1
Oxford 0.08405731949216462
Pa@@ 0.14116405392918951
Philip 0.12031899446719815
Russian 0.04127339326063553
Sir@@ 0.20667493333722156
Ten@@ 0.16125650721722598
Williams 0.06066478853222934
bor@@ 0.08533837442743157
cos@@ 0.20669190789439532
eal 0.3515073952017602
hin@@ 0.11181871893165897
ila 0.13001996204779329
mail 0.24873479827077952
phen@@ 0.43296740034732023
sor@@ 0.10619300141017685
tos 0.103090130663628
uc@@ 0.10680982609550366
ทันที@@ 1
พิมพ@@ 1
สมเด็จพระบรม@@ 1
สลาก 1
สโม@@ 1
อัลบ@@ 1
เติบ@@ 1
โบราณ@@ 1
ប@@ 1
1642 0.6748698238758635
269 0.994039575517081
Aqu@@ 0.27100774808757633
BN 0.8906257994930693
Ball 0.19727186913056283
Canada 0.023900492812805655
Es@@ 0.06512197608401732
Europe 0.023286670918744104
Facebook 0.21049418212153595
IF@@ 0.3501118901058417
Mother 0.27478572128925033
Motion 0.4656148368950516
Net 0.501775069738819
Screen 0.5599859333138678
Singh 0.16740264847600858
TEC 1
Talk 0.4509704411057066
Test 0.15304374876008514
Wave 0.49792670645662296
aur@@ 0.15215439364226863
bi 0.14351569412403417
cells 0.10666512735759845
cip@@ 0.6229678712370549
ential 0.26943982754924783
int 0.3161013104718564
ists 0.04716761546550963
mRNA 1
old 0.020807729740085802
opus 0.31510891330782514
range 0.04301165734629342
tra@@ 0.16731283760703186
yn 0.13277793128761192
ข์ 1
คอป@@ 1
รณะ 1
หลุ@@ 1
に@@ 1
1644 0.6675053202725081
350,000 1
Morning 0.276150353898229
NT@@ 0.4332003299616598
Pseudo@@ 0.7920765881222387
Rat@@ 0.1678975297643146
Sunday 0.11645411424892389
Tesla 0.9273350466863663
anc@@ 0.1177779606140999
ation@@ 0.17114065962087183
col 0.34526779918207834
ents 0.04485477473815769
ess@@ 0.11002839611419347
graphy 0.23120833871881957
ick 0.07807812127517802
temporal 0.461381498989627
year 0.007310379156205237
ฎก 1
ทำลาย@@ 1
นิรัน@@ 1
อังก@@ 1
ไพร่@@ 1
学@@ 0.3750605079526803
小@@ 0.07477106658743353
1609 0.7542769403945299
386 1
401 0.8371002278495585
639 1
900,000 1
Auto 0.244602173281582
Johann 0.05305309673813129
Node 1
Orange 0.1584831425093826
PET 1
Province 0.0625152263769151
Sister 0.54708944658131
Sky@@ 0.26439088329146687
Systems 0.16422054863695562
Taekwondo 1
Texas 0.03735354481718022
Tu@@ 0.1168370235499057
XP 0.7750577964371957
anth@@ 0.2718288400271812
cel@@ 0.13747800640033928
ello 0.06878501637766384
ichthys 1
long@@ 0.26959114385452526
mot@@ 0.15231351668574325
oi 0.20693317903381184
play 0.020206503164424457
rot@@ 0.09746272665835165
tag@@ 0.24584969657907407
tre@@ 0.12913061388422226
trial 0.0881733128711198
unit 0.06091589076286504
ค้น@@ 1
จู่@@ 1
อุทก@@ 1
โมเด@@ 1
ไซม์ 1
་@@ 1
1772 0.38768015306097436
2030 0.758030633534367
34.@@ 0.5728568035850637
98@@ 0.6046674732569279
AH 0.5767808794887629
BM@@ 0.44481121803557
Brian 0.10199564254549456
Countdown 1
Em@@ 0.09639983991772867
Fight 0.471899990434873
Fu 0.5610096759431403
Greatest 0.43349707807228377
IB@@ 0.43192288669707524
LAN 1
MR@@ 0.6646616395171602
Mod@@ 0.1956978973829476
Pearl 0.2629220657470765
Police 0.08999164751482319
SUV 1
TH 1
Tel@@ 0.1291423359420229
Tim@@ 0.13763081480510211
Trich@@ 0.4656853399201656
UR@@ 0.5105875166679913
Walk 0.42456981491336027
Wilson 0.0762342123662398
ev 0.10091423917057733
eye 0.12897683664137075
hor@@ 0.10955890519780817
loop 0.31562454963432474
nor@@ 0.14542190435482022
otype 0.4443812241735892
service 0.01619883080895064
sky 0.08208986348792509
zi 0.13877848690636527
ß 0.14533119738917005
ć 0.14908135117226864
จำนว@@ 1
ทรุด@@ 1
นวน 1
ฟ่า 1
ยาว@@ 1
ศิลปากร 1
แฟรน@@ 1
フ@@ 1
的@@ 0.3400378119800905
1620 0.5703931255565359
1788 0.3207586253795655
200@@ 0.30902176097769535
257 0.9007602885311694
33.@@ 0.5155781630087874
6.0 1
9.5 1
ABS 0.85650261874764
Antonio 0.054161963948116516
CL 0.4020039120378781
Electric 0.19381010899066758
Eye 0.3830226775635607
Foreign 0.12747918839291777
Hit@@ 0.32080746102526037
Ma 0.18595302908486727
Military 0.09867661837025507
NH 0.760309775814005
PWG 1
QF 1
Reg@@ 0.09086504077606826
Shu@@ 0.2451296121624079
Spider@@ 1
Spir@@ 0.5376464146835168
Style 0.3360879663364763
Symphony 0.22739242745372792
Tal@@ 0.09408759740999606
Tam@@ 0.1294170380460362
Teen 0.6373573820164967
Tetra@@ 1
Trade 0.1756047632595325
Zhang 0.28307016019432923
acc@@ 0.16332236599980918
ace 0.09972094202302594
alia 0.18840760075525098
amo@@ 0.20506092209104548
chain 0.14774638268405865
culture 0.04025357368929738
han 0.034055367638024546
horn 0.19501189310009606
icul@@ 0.4469410340325672
inn@@ 0.13263589112975982
lo 0.009509340787050142
log@@ 0.14032739262911387
long 0.014038933339639802
nucle@@ 0.5195028365252806
ocar@@ 0.4736926892478026
orn 0.19674398673621663
site 0.020446348002130296
α@@ 0.33431494267526685
จีน@@ 1
ภอ 1
อาทิ@@ 1
เวเน@@ 1
ไดออกไซด์ 1
ນ@@ 1
家@@ 0.17102071748445005
05.@@ 1
1526 0.8403322462850487
1688 0.6204949381138282
37.@@ 0.5799126822155274
620 1
66@@ 0.42714955313236375
7.2 1
ACE 0.7609075669081025
Bar 0.1652353629537724
Beyond 0.40085822292372714
Giant 0.568331396043292
LG@@ 0.8389817047813009
Note 0.1732736362532205
Phoenix 0.18582545078646973
Pun@@ 0.29786146825063714
Server 0.45215765932874497
TER 0.7350272681788393
UC@@ 0.3788231563122317
Vision 0.32848224803658405
Ware 0.5675975917875873
amp@@ 0.11867018586539897
apeuti@@ 1
cho@@ 0.21967209841410326
ending 0.07233371318420771
hu 0.3047517052613423
human 0.04229308428481492
ide@@ 0.11144741661541042
macro@@ 0.43395154497728233
oxy@@ 0.5442597570749188
spp 1
sy 0.24179256490129228
tan@@ 0.09514486611856245
vector 0.3289868389999504
web 0.0910535896823909
ฟื@@ 1
ราชิ@@ 1
หรับ 1
เงื่อน@@ 1
เถียง 1
เลื่อ@@ 1
と@@ 1
德@@ 0.09072868088149295
1453 1
1829 0.19741796355582317
261 0.8825026074654081
3,8@@ 1
33,@@ 0.5828967324539989
5,0@@ 1
6.7 1
63@@ 0.46887325538830327
Anime 0.5434551826464644
BE@@ 0.8079018696973332
Blu@@ 0.34528068684901564
CS@@ 0.23518941502413485
Chamber 0.24135866626173627
Comics 0.16748387607734846
Dev@@ 0.12136505640569142
Gor@@ 0.08458881903545247
JTWC 1
Lucky 0.5300893908549864
Other 0.03821316273732429
Pic@@ 0.1623840119310626
Pres@@ 0.10808071175102778
Review 0.15332340460744207
Together 0.2237812817118921
UT 0.5155605135399962
Under@@ 0.30499136618323064
Want 0.5711314014501142
ball 0.05746786536718266
ben@@ 0.09352193205663745
ett 0.0683871159191434
ez@@ 0.08445546081199125
media 0.03471955090805271
mode 0.10437472907523447
nu@@ 0.18539414251090494
ose 0.1373097426710962
port 0.04516757005317767
py@@ 0.35257622970092356
san@@ 0.09173691903851486
tam@@ 0.17779533638620715
tel@@ 0.07466138680986635
tha 0.1711764121551639
ven@@ 0.09905927127716833
ฉับ@@ 1
นั่น@@ 1
สารคาม 1
ຈ@@ 1
り@@ 1
仁@@ 0.42495061762197156
233 0.7783427340810951
266 0.8733353616909924
279 0.9684817297051571
35.@@ 0.5587204255682793
BMW 0.2863894618826387
Card 0.45445381248425704
Da 0.056491904331144455
Dog 0.33012435273452834
Franz 0.07706045073463529
Gang@@ 0.28387140371699526
Hir@@ 0.1319063703760402
Learning 0.4317592358584999
Macro@@ 1
Pel@@ 0.14147901776598062
Prim@@ 0.18736563348287374
Rod@@ 0.1885633259663927
Smart 0.49387931261275064
Third 0.1340660478232819
Warriors 0.3379051071852329
char@@ 0.10670386767479141
corpus 0.9214178703683616
each 0.014900950765666474
heart 0.09269430760068068
idi@@ 0.1604205644867109
illa 0.07516848887249745
ken 0.04507580709163945
loc@@ 0.10885825662430035
ment@@ 0.1458211877533393
pathway 0.6850976646849138
uridae 1
war@@ 0.06248019295991603
ı 0.14934111025419616
กรุณาธิคุณ 1
ตติ้ง 1
หยุ่น 1
เลี้ย@@ 1
デ@@ 1
生@@ 0.19650438018998187
長@@ 1
318 0.9834397371473107
AO 0.5340796968573546
APG 1
Angels 0.3194419827177207
Another 0.07032382566327662
CR 0.2653955734706096
EPA 0.7954851312911839
Engine 0.45539417008253497
Gallery 0.13130914008909175
Hen@@ 0.17689474931019294
Leg@@ 0.1480499906782774
MT@@ 0.39712045498032683
NFL 0.09730106272947475
PH@@ 0.7149496117953632
Pink 0.33690727492453015
Son 0.03291485920382478
ain@@ 0.0979379488104452
atin 0.2636900958552004
blood 0.10701713510287221
dy 0.10242472140592015
ense 0.09713413261492165
fer 0.059507350912365246
ister@@ 0.2943780644012575
nh 1
other 0.005307141753130686
software 0.0873457939467574
ventr@@ 0.5346420154932061
ก๊า@@ 1
ณาธิ@@ 1
ภาพร@@ 1
มัติ 1
่มน้อย 1
キ@@ 1
12.5 1
1610 0.6086015675316896
6.1 1
77@@ 0.4857866270698371
79@@ 0.5564104753106769
960 0.9434715426804121
ASEAN 1
DA@@ 0.7448068968312216
Dem@@ 0.09905490373705898
Fan 0.5220363037103772
IUCN 0.4576927429192571
KO 0.5712996934099865
Major 0.06362778498078299
Mit@@ 0.08488815949424776
Sak@@ 0.1948709713726992
Samuel 0.08945248539205801
Study 0.3434209041518367
TO 0.9628850018670411
Victor 0.09726710571253544
Victoria 0.05757994999861641
Work 0.19973585454516704
acea 0.7137319970388042
ean 0.16833470804799006
icular 0.8542512980902777
local 0.014245862716984924
path 0.15927879544068857
phosph@@ 0.336078989962278
uni@@ 0.1678345110799703
wan 0.2054354559995558
π@@ 0.40437880479333776
กรด@@ 1
ตราย 1
ปุ่น 1
ฟรานซิสโก 1
ງ@@ 1
ុ@@ 1
河@@ 0.24722423266034727
1368 1
1770 0.32674169389658964
1827 0.21251230302984472
283 0.9433620153547517
298 1
39.@@ 0.5604600240955104
470 0.6839809610749954
ART 0.6489621157275394
And@@ 0.3156741461711118
Blues 0.1570906955799792
Charlotte 0.12582874843591532
Christ 0.10314865964293299
Fire@@ 0.42642263853937445
Gundam 1
Hits 0.3188236922769898
IOC 0.8488500476732164
Kid 0.3519000760386946
Kir@@ 0.09915954520634154
Lam@@ 0.11499486633546824
NBC 0.15525527374779827
Nguy 1
Prix 0.06103130151009059
[...]
