. 53840228
, 39979949
der 32724654
und 25565690
die 21009532
in 19118192
&quot; 17849450
@-@ 13896996
von 12297818
den 10263450
) 9862494
( 9853715
des 8916248
im 8616327
mit 8036939
er 7436199
wurde 6895326
dem 6645279
ist 6368187
das 6246427
Die 6186032
als 6018895
zu 5588372
auf 5496115
für 5410343
ein 5371672
eine 5183549
sich 4950735
an 4929731
war 4760257
aus 3608401
auch 3461887
bis 3428960
nach 3286556
am 3268219
: 3217303
“ 3201910
„ 3181527
bei 3105927
Der 3041904
sie 2829883
zum 2810263
einer 2804359
es 2427638
– 2271555
durch 2256630
einem 2223102
Im 2181156
werden 2127689
nicht 2116366
Das 2109941
sind 2106098
; 1982774
In 1966053
wird 1965763
zur 1940249
einen 1915517
über 1903197
um 1892144
oder 1793239
wurden 1772057
dass 1584626
/ 1579432
Er 1563168
Jahr 1508959
unter 1498421
wie 1334789
vor 1300345
sowie 1251507
vom 1245994
seiner 1219334
Nach 1208716
- 1182160
nur 1171882
hatte 1166721
seine 1139634
noch 1123354
Jahre 1107549
Sie 1071112
zwei 1070728
en 1060358
aber 1059245
waren 1050474
hat 1020112
ab 1018557
* 990943
eines 968584
de 951329
Jahren 945211
zwischen 938917
Am 933188
sein 922760
ten 917684
dieser 893309
gegen 874815
er@@ 866679
Es 866103
en@@ 812594
ersten 806527
Zeit 800951
ver@@ 792275
seit 781783
of 781226
jedoch 780636
Stadt 775376
s 764052
te 763611
etwa 739016
so 736842
drei 732275
wieder 704787
ung 702905
Geschichte 700741
man 692950
Als 679400
Leben 675963
seinem 671910
seinen 646695
später 643788
Von 643585
beim 642835
Bei 641614
liegt 638953
mehr 638274
ischen 634990
ische 634763
aus@@ 632403
ungen 627341
Ende 623513
diese 621065
ab@@ 619479
ihre 618624
1. 615876
m 608513
Ver@@ 608481
ein@@ 608084
kann 603500
kam 588247
wo 585909
konnte 583547
sch@@ 582617
Mit 579783
erste 578740
1 577911
Gemeinde 576331
ihm 565301
auf@@ 556195
August 554700
Mai 552350
ungs@@ 550554
un@@ 550049
März 548458
Januar 546720
Sch@@ 545910
t 542992
Teil 542454
heute 541359
Oktober 541013
da 537294
an@@ 529506
ihrer 527743
haben 525821
dann 524808
&amp; 521488
bereits 521227
dort 519698
’ 519538
September 515383
† 513786
April 509910
Juni 507018
Universität 505348
Juli 502827
2 500370
ihn 497287
Kirche 495652
anderen 494839
während 493342
Dezember 492753
US 490662
erhielt 490256
z@@ 485853
gab 478980
Ein 478915
November 477250
Saison 476826
km 475133
vier 473480
ihr 472868
beiden 472437
Diese 471110
el@@ 469583
% 463008
dessen 459326
ern 457385
Seit 456607
Platz 452989
Deutschland 452107
können 451910
diesem 449637
alle 447724
An@@ 446678
isch 444784
gibt 444780
über@@ 444607
Berlin 443607
Jahrhundert 442300
Ab@@ 439441
t@@ 435181
Mitglied 428457
Februar 428124
ter 426408
vor@@ 426382
L@@ 426039
s@@ 424758
Eine 424215
Vor@@ 407204
B@@ 406615
Auch 404365
zurück 403289
el 400860
be@@ 400854
damit 400831
S@@ 398353
Für 397861
K@@ 397644
G@@ 396788
deutschen 396736
ge@@ 396204
R@@ 395622
zunächst 391572
deren 391490
enden 389278
ent@@ 387679
Auf 387431
ihren 386444
Familie 384587
3 384081
zusammen 383156
keine 382691
_ 381714
Aus@@ 379859
befindet 379359
sehr 376945
Ort 376614
F@@ 373610
weitere 372664
um@@ 372460
Ober@@ 370894
Namen 370541
D@@ 369758
W@@ 367193
ins 366438
begann 366412
ende 366150
steht 365054
ischer 364942
nahm 363472
Film 362997
Sohn 362870
k@@ 362653
Ein@@ 360485
worden 358583
bekannt 357706
P@@ 357228
spielte 357125
gewann 354740
ens 352493
liche 352406
bzw. 351669
allem 350799
ebenfalls 350578
Personen 349828
lichen 348384
n@@ 348382
H@@ 347680
2010 346758
E@@ 346382
anderem 345367
2011 345033
ers 344982
statt 343139
l 342703
lich 341108
st@@ 340628
Z@@ 339647
T@@ 338721
was 331010
denen 329436
al@@ 329342
selbst 325015
ohne 324764
ging 324438
trat 323418
2015 322222
and 321962
neuen 321813
2009 321140
2012 320754
Unter@@ 320448
dabei 320295
2008 319677
2014 318138
gehörte 316906
2013 316452
4 313956
formula 313314
führte 312948
Während 312321
19. 312076
ch@@ 311989
hier 311656
&apos; 311387
deutscher 310978
Er@@ 309900
Meter 309022
2016 307951
neue 306819
2. 305966
e@@ 305919
Jahrhunderts 305790
erstmals 305691
2007 305507
ler 302829
Ab 299963
tes 298811
bezeichnet 298434
immer 298260
-@@ 296558
berg 296461
sei 295873
New 295260
l@@ 295220
fünf 295214
es@@ 294394
2017 294062
mann 292319
Seine 291866
The 291161
n 290370
at 290227
St. 289948
O@@ 289888
2006 289842
f@@ 289395
gehört 289318
Name 289261
Haupt@@ 287030
stand 286595
igen 285472
Titel 284856
N@@ 284420
z 283074
Deutschen 282882
A@@ 282803
arbeitete 282537
schon 281984
wegen 281409
zweiten 280753
e 280179
M@@ 278753
2018 278257
2019 277566
Band 277390
fand 277175
sondern 276863
einige 276795
Gruppe 276724
Zu 275824
et 275302
seines 275292
Sein 274847
V@@ 274695
ner 273128
So 272981
d 271562
Liste 271192
ens@@ 270853
ige 268899
the 268628
erst 268559
teil 268128
rund 268032
ihrem 267355
neben 266687
studierte 266482
w@@ 266196
hatten 266034
Bau@@ 265851
Karriere 264567
Menschen 264552
Friedrich 263799
2005 263589
10 263359
mehrere 262506
in@@ 262229
St@@ 261491
unter@@ 260881
andere 259527
besteht 258509
ert 257989
20. 257787
ter@@ 256846
20 256625
au 256220
dieses 254773
großen 254635
Anfang 254476
Durch 253776
2000 253418
genannt 253131
Tod 252558
B. 252412
deutsche 252229
3. 250836
Art 250806
18. 250545
1945 250309
letzten 249708
wenn 248567
sollte 248540
Kilometer 247198
große 246353
tätig 246197
2004 244550
erfolgte 244490
diesen 244468
Da 243662
5 243643
le 243620
ten@@ 243343
ken 243182
wechselte 242836
Unternehmen 242826
weiter 241950
2020 241369
allerdings 241327
amp 241250
or@@ 241173
Gebiet 240528
Johann 239651
on 239483
Über@@ 237921
wobei 237666
g@@ 237482
führt 236481
Einwohner 236303
soll 235984
end 234930
Straße 234830
d@@ 234647
ä@@ 233430
Mitte 233426
gegründet 232874
ke 232470
Land@@ 232139
Frau 231220
chen 230298
A 229970
us 228982
Nachdem 228712
ts 228351
Be@@ 228304
15. 227797
blieb 227466
erreichte 227429
15 227134
Mannschaft 227096
Verein 226897
Zweiten 226088
folgenden 225762
Karl 225736
Region 225450
übernahm 225331
em 225030
nun 224741
eren 224664
sechs 224570
i@@ 224548
musste 224539
jeweils 224355
r@@ 224159
Auf@@ 224089
z. 223785
ar@@ 222864
weiteren 222451
Gebäude 222292
schließlich 221316
viele 220986
on@@ 219306
al 219186
as 218365
lang 218164
bach 217716
Vater 217696
Bis 217625
16. 216874
17. 216788
ale 215806
2003 215187
2001 215021
USA 214999
4. 214924
b@@ 214671
6 214071
Norden 213995
J@@ 213271
a. 212850
m@@ 212306
je 212144
straße 211933
Wasser@@ 211776
g 211524
acht 211482
licher 211373
Landes@@ 211006
Bereich 210510
alten 210499
neu 210299
2002 209880
eb@@ 209787
An 209582
Al@@ 209104
insgesamt 208492
Form 208485
gewählt 208373
ich 208177
welche 208070
aufgrund 207995
u. 207948
erhalten 207848
iert 207395
re@@ 207072
University 206253
Dort 206084
ene 206015
et@@ 205660
darauf 204552
Stadt@@ 204358
verwendet 204094
Tochter 203969
Dabei 203804
entstand 203678
verschiedenen 203512
Album 203292
Musik@@ 203249
2021 202853
Un@@ 202394
is 202214
dazu 202147
Haus 201890
Land 201449
isches 201288
allen 201073
König 200944
Süden 200887
Wilhelm 200689
Bau 200537
100 200292
Amt 200118
k 199949
us@@ 199837
München 199649
13. 199539
14. 199520
sen 199442
zeit 199229
zog 199186
le@@ 198512
finden 198243
ließ 198214
Prozent 198121
folgender 197972
erschien 197707
Kinder 197623
Wien 197408
erneut 197379
Werk 196772
30 196562
B 195615
enen 195610
Ge@@ 195563
Rahmen 195483
a 195472
Millionen 195294
gt 194606
1999 194290
Weltkrieg 193889
eg@@ 193740
Mal 193734
C@@ 193194
Bundes@@ 193160
Dies 192971
Arbeit 192796
I@@ 192752
Entwicklung 192664
Stand 192523
FC 192427
John 192315
Einsatz 192094
gilt 192024
meist 191955
insbesondere 191868
Groß@@ 191795
errichtet 191300
at@@ 191253
Lage 191210
Neben 191162
Dieser 190993
ing 190686
schen 190646
Rolle 190567
Heinrich 190274
12. 190272
konnten 190215
h@@ 190172
6. 189260
Bevölkerung 189102
Richtung 188648
Provinz 188617
Nord@@ 188364
Dorf 188128
ie 187909
In@@ 187733
Osten 187644
1990 187163
stein 186213
Re@@ 186115
5. 185739
Westen 185683
Staaten 185395
starb 185287
davon 185085
Frankreich 184297
U@@ 184255
i 184055
it@@ 183911
erte 183801
eigenen 183404
ingen 183073
Tr@@ 182916
eingesetzt 182610
bestand 182550
Frauen 182500
7. 182399
U 182292
Hans 181349
tr@@ 181209
Gesellschaft 180596
8. 180445
innerhalb 180230
fast 180111
II. 180013
stellte 179971
Beginn 179943
16 179896
Schule 179712
y 179590
1998 179148
sten 179133
York 179121
Bedeutung 178992
ellen 178738
habe 178738
lt 178648
kommt 178600
Aus 178505
elle 178450
Seite 178291
oft 178157
ger@@ 177818
Partei 177731
em@@ 177601
Peter 177593
der@@ 177570
damals 177535
Paris 177522
ere 177426
Mar@@ 177380
9. 177174
Um@@ 176933
Beispiel 176803
os 176754
th@@ 176673
Außerdem 176447
zweite 176212
18 175999
de@@ 175831
Paul 175660
dies 175372
is@@ 175312
also 175194
la 175158
8 175154
Jahres 175090
Folge 175054
ach 175036
Um 174873
10. 174494
darunter 174131
ik@@ 174082
Landkreis 173524
Schul@@ 173448
stark 173261
ol@@ 173235
Hoch@@ 173199
lag 173169
Nach@@ 172907
gel@@ 172903
Zur 172873
ehemaligen 172410
Musik 171874
Regierung 171832
folgte 171743
Höhe 171644
Süd@@ 171446
11. 171150
Unter 170836
50 170776
ation 170392
end@@ 169969
heutigen 169552
kurz 169534
12 169419
0 169001
gut 168841
p@@ 168799
ierte 168222
1994 168089
alen 168053
zurück@@ 167764
ien 167760
ierten 167543
weil 167389
ag@@ 167355
bar 167336
Mittel@@ 166972
werk 166653
Grund@@ 166639
geht 166551
sp@@ 166269
ar 166027
gegenüber 165932
ell 165693
1996 165638
se@@ 165511
lange 165464
it 165105
ot@@ 164765
se 164676
1997 164443
Österreich 164345
isten 164275
1992 164269
7 164214
= 164119
14 164001
Team 163950
o@@ 163912
ch 163863
ber@@ 163802
Serie 163751
veröffentlicht 163672
Ar@@ 163537
gen@@ 163533
ig@@ 163497
Spiel 163433
zahlreiche 162848
ations@@ 162206
französischen 161933
ca. 161879
sowohl 161841
Spiel@@ 161655
Burg 161203
eln 161185
findet 161104
sehen 161045
land 160808
Welt 160568
zehn 160535
geboren 160524
Kreis 160304
nach@@ 160286
ne 160176
ek@@ 160063
ur@@ 160055
durch@@ 160006
bau 159743
muss 159691
Zum 159681
zudem 159555
I. 159335
schule 159171
h 159124
1995 158764
Krieg 158753
1991 158651
&#91; 158336
danach 158198
setzte 158145
&#93; 158082
verschiedene 157912
ak@@ 157733
ender 157728
Berg@@ 157289
iger 157166
30. 157013
Liga 156494
ung@@ 156403
innen 156386
gruppe 156317
Sitz 156285
1993 156079
Str@@ 156050
besuchte 156040
Insel 155611
erten 155462
sche 155373
gemeinsam 155180
gen 154956
21. 154847
j@@ 154691
ti@@ 154687
au@@ 154399
Her@@ 154354
schloss 154214
besonders 154157
Alter 153895
Gemeinden 153433
ts@@ 153305
Professor 153148
lassen 153099
y@@ 153076
I 153052
schrieb 152901
gleichen 152569
ka 152483
machte 152337
eh@@ 152172
zeigt 152092
recht 151965
Vertrag 151882
Se@@ 151855
Maria 151830
Kon@@ 151714
beispielsweise 151610
zuvor 151375
West@@ 151371
Spieler 151295
sieben 151133
Stein@@ 151078
Hamburg 151015
doch 150969
stellen 150741
ö@@ 150696
burg 150530
1989 150369
13 150180
meisten 149938
ationen 149827
London 149769
kamen 149621
Mutter 149503
ener 149486
str@@ 149369
Sommer 149017
ow 148826
eng@@ 148241
nen 148140
teilweise 147965
ben 147941
hinaus 147825
Mann 147508
amerikanischen 147214
ieren 147088
Ch@@ 147080
Schweiz 146880
os@@ 146776
ach@@ 146649
Bar@@ 146631
Werke 146604
O 146526
kommen 146496
id@@ 146391
gelang 146262
befinden 146190
Europa 145799
ed@@ 145792
stehen 145732
bereich 145394
a@@ 145254
o 144741
Kr@@ 144322
25. 144252
b 144237
gehören 144137
DDR 144053
hin 143948
ihnen 143916
Vereinigten 143689
schaft 143675
Georg 143642
genutzt 143382
26. 143216
Schloss 142953
eten 142749
spielen 142667
men 142250
Strecke 142214
22. 141945
veröffentlichte 141895
absolvierte 141628
daher 141494
leben 141470
Staats@@ 141291
Spielen 141167
erung 141062
ad@@ 141009
Armee 140892
eigene 140864
Film@@ 140663
League 140625
Mitglieder 140455
u@@ 140343
ing@@ 140277
Franz 140070
platz 140070
as@@ 139911
Studium 139908
heim 139827
enz@@ 139799
Betrieb 139731
Danach 139724
di@@ 139671
ul@@ 139494
nachdem 139453
Ausbildung 139185
te@@ 139171
inger 139115
Br@@ 138999
40 138971
ler@@ 138945
etwas 138873
and@@ 138845
25 138720
gründete 138630
Reihe 138625
kleinen 138481
28. 138430
24. 138423
ges@@ 137572
Saint 137552
stellt 137536
liegen 137488
Deutsche 137362
itz 137352
handelt 137236
Bruder 137174
Di@@ 136990
Le@@ 136979
17 136956
23. 136901
Tag 136817
kon@@ 136591
möglich 136579
aufgenommen 136431
Volks@@ 136163
liches 136028
aller 135967
Ludwig 135926
Weitere 135895
ismus 135875
entstanden 135706
Politiker 135687
Ost@@ 135549
1972 135435
kein 135266
tern 135194
1933 135177
aten 135176
beide 135106
Ersten 135055
1988 134959
bahn 134740
gesch@@ 134708
19 134626
häufig 134584
Jugend@@ 134569
feld 134524
einigen 134491
deutlich 134428
Hier 134421
La 134417
Ger@@ 134368
Zwischen 134213
27. 133856
onen 133709
kleine 133679
arbeiten 133596
9 133481
letzte 133404
zen 133243
Olympischen 133190
erreicht 133105
ker 132939
Michael 132886
enten 132681
ste 132668
Gr@@ 132631
sk@@ 132518
Bahnhof 132263
Bereits 132171
hinter 132107
Museum 132047
C 131988
Ber@@ 131943
folgende 131931
st 131833
sch 131589
weit 131583
somit 131461
Arten 131425
tigen 131393
lässt 131247
1980 131155
zwar 131075
im@@ 130951
Buch 130843
erin 130655
Kur@@ 130492
Stelle 130424
vielen 129959
Nähe 129915
außerdem 129846
1987 129714
Den 129551
weg 129457
Fach@@ 129436
29. 129433
² 129394
El@@ 129169
ursprünglich 129090
Linie 129054
1970 129039
ernannt 128982
her@@ 128955
Kunst@@ 128896
County 128877
Über 128638
bau@@ 128610
Berliner 128372
ß@@ 127929
ze 127732
mehreren 127693
Ziel 127679
bel@@ 127528
il@@ 127520
direkt 127406
1939 127361
Thomas 127118
Mit@@ 127053
Finale 126683
dafür 126549
Zudem 126354
Siehe 125729
los 125725
kehrte 125602
1938 125591
Buch@@ 125527
gewesen 125403
südlich 125293
Wasser 125265
1986 125257
selben 125193
Robert 125050
anschließend 125007
Bi@@ 124984
erwähnt 124924
Nieder@@ 124921
gebiet 124867
am@@ 124858
1974 124821
Präsident 124774
Bezeichnung 124655
mit@@ 124581
u 124537
31. 123946
Reichs@@ 123944
mer@@ 123928
Sport@@ 123926
Arbeits@@ 123919
Sp@@ 123868
weniger 123633
11 123632
Kar@@ 123631
pro 123583
1984 123571
Kriegs@@ 123461
Erfolg 123432
San 123389
dritten 123380
AG 123297
1975 123212
ang@@ 123058
Martin 122891
Gründung 122880
1985 122795
Einwohnern 122680
Preis 122601
Ihre 122553
entwickelte 122504
stadt 122418
Spiele 122369
führen 122323
Holz@@ 122272
National 122226
est@@ 122163
Chr. 122064
verheiratet 122060
gebaut 122003
ums 121672
heiratete 121631
1944 121570
Militär@@ 121376
ate 121323
Schw@@ 121286
br@@ 121204
politischen 121092
me 121029
erster 120911
Klasse 120641
geb@@ 120553
Nachfolger 120509
1978 119926
Produktion 119839
ihres 119799
1968 119692
mm 119673
Lebens@@ 119657
stammt 119537
größten 119363
len 119338
Schweizer 119330
cm 119255
Einzel@@ 119233
haus 119223
ei 118983
Sprache 118673
Dieses 118457
Kor@@ 118376
om@@ 118371
1969 118305
Par@@ 118248
nördlich 118215
1979 117748
ü@@ 117643
1973 117595
1983 117468
1971 117325
els 117161
Euro 117134
ir@@ 117118
Neu@@ 117109
1982 117028
Kultur@@ 116999
Weg 116967
li@@ 116954
ans 116882
International 116837
bildet 116501
ich@@ 116473
fer@@ 116451
West 116439
Beim 116219
see 116186
ser@@ 116174
1976 115944
Familienname 115915
Köln 115842
Verbindung 115647
befand 115557
Institut 115522
Grund 115513
Ur@@ 115460
welches 115235
Damit 115126
diente 115056
ier@@ 115012
Besitz 114846
ganz 114750
1960 114679
City 114670
Kloster 114592
Johannes 114510
Teile 114381
umfasst 114218
be 114180
na 114152
Hof@@ 114067
Per@@ 113987
Raum 113854
Meister 113661
amerikanischer 113530
Frankfurt 113501
stieg 113485
! 113449
Carl 113425
Truppen 113403
Qu@@ 113146
ehemalige 113075
He@@ 113068
anz@@ 113035
Anschließend 112913
1950 112852
Wal@@ 112803
bl@@ 112801
1946 112659
ia 112622
schw@@ 112555
Staffel 112521
dorf 112469
größte 112358
1981 112345
che 112297
England 112256
Kaiser 112244
Tage 112150
Joseph 112092
sel@@ 111985
Wahl 111960
Rang 111890
auer 111854
erst@@ 111789
Bischof 111642
einmal 111593
kl@@ 111571
Nr. 111534
ri@@ 111492
Italien 111408
Rechts@@ 111343
är@@ 111213
Leitung 111089
fanden 111069
spielt 111055
v. 110888
Kom@@ 110765
Hälfte 110687
Rennen 110569
p 110490
hohen 110481
System 110381
Otto 110099
Politik 110067
damaligen 109937
Rück@@ 109930
geschichte 109813
Zuge 109668
Or@@ 109665
rat 109605
Sieg 109588
benannt 109500
tung 109451
brachte 109429
nahe 109409
1964 109407
21 109343
f 109309
1977 109085
wenig 109047
enberg 109029
Haus@@ 108989
or 108950
spiel 108946
Grenze 108910
zu@@ 108884
wer@@ 108868
Mon@@ 108863
1967 108849
ebenso 108714
britischen 108673
Landes 108611
Ihr 108568
französische 108558
Ernst 108557
GmbH 108483
dar 108411
enf@@ 108396
belegte 108349
Länge 108270
di 108192
24 108155
alte 108092
tige 108057
Th@@ 107961
Ortsteil 107960
Arbeiten 107850
mer 107718
Runde 107690
Kunst 107665
Bad 107572
ell@@ 107348
sh@@ 107266
ob 107172
Kirchen@@ 107071
ß 106999
V 106982
beträgt 106868
60 106726
r 106656
sogar 106627
Leipzig 106557
bevor 106505
entfernt 106494
v@@ 106486
Ehe 106393
Begriff 106284
to 106281
elt 106257
lagen 106214
1965 106154
Nationalmannschaft 106097
den@@ 106038
besitzt 105975
ne@@ 105870
Wirtschafts@@ 105819
Tour 105814
Kanton 105756
Division 105719
kr@@ 105517
G 105510
Stil 105509
De@@ 105382
machen 105378
1966 105353
National@@ 105338
Leiter 105308
Herrschaft 105293
Gesamt@@ 105036
See 105023
Aufgrund 104954
S 104952
bi@@ 104947
einzige 104924
Zentrum 104798
Orts@@ 104705
östlich 104510
weiterhin 104495
deutsch 104349
200 104319
aktiv 104268
ge 104236
späteren 103961
1963 103951
1961 103943
ausgezeichnet 103874
tischen 103839
Fall 103718
hielt 103696
Christian 103692
isch@@ 103670
entwickelt 103566
all@@ 103564
one 103505
1952 103301
Republik 103297
1962 103203
enz 103192
westlich 103072
1956 103047
betrieb 102896
1940 102881
Theater 102854
Bayern 102733
halten 102640
frühen 102561
Tor@@ 102540
Sachsen 102365
istischen 102317
1948 102281
geführt 102252
ierung 102191
wohl 102170
° 102083
op@@ 101964
alt@@ 101925
Park 101905
Männer 101859
verbunden 101828
her 101782
Später 101774
Wald@@ 101728
Polen 101681
Wie 101645
Wer@@ 101644
eher 101488
1949 101432
Fahr@@ 101394
Fläche 101363
Firma 101347
fr@@ 101345
D 101257
Mal@@ 101130
politische 101119
Zahl 101003
ologie 100898
bisher 100875
del 100836
Lang@@ 100794
ität 100787
stelle 100764
internationalen 100558
1941 100510
gestellt 100487
erzielte 100455
meister 100430
ken@@ 100239
enthält 100198
müssen 100127
fest 100116
1942 100023
1943 99987
Erst 99840
Geographie 99818
art 99811
Hilfe 99645
ff@@ 99578
verlor 99431
Klein@@ 99418
1958 99362
Verwaltungs@@ 99348
Kreuz@@ 99236
agen 99181
lediglich 99102
Wiener 99101
Literatur 98990
wuchs 98800
nieder@@ 98756
Akademie 98683
ern@@ 98642
ker@@ 98479
Kultur 98378
Kl@@ 98324
ja 98289
amt 98268
II 98198
ap@@ 98037
len@@ 97975
legte 97728
E 97707
Bahn 97666
fiel 97622
ok@@ 97550
gew@@ 97521
David 97477
enn@@ 97443
tete 97418
1959 97398
kirche 97344
gehen 97285
General 97261
Vor 97184
Wirtschaft 97178
Funktion 97176
Beschreibung 97078
form 97036
mal 96999
William 96956
lichkeit 96875
Meisterschaft 96831
weise 96795
Weltmeisterschaft 96783
College 96695
Gattung 96677
gest@@ 96579
beteiligt 96468
enst@@ 96448
leicht 96401
sollten 96361
Alexander 96322
Zeit@@ 96321
ob@@ 96239
Version 96196
Schlacht 96105
22 96007
sdorf 95993
ina 95856
Abschluss 95844
1947 95738
Ne@@ 95681
1957 95666
gleich@@ 95665
iten 95587
Regel 95446
Verwendung 95276
tel@@ 95237
Vorsitzender 95205
ster 95165
Schiff 95108
würde 95066
Pr@@ 94948
Richard 94944
Bürgermeister 94935
Uhr 94928
tem 94887
nimmt 94769
amerikanische 94725
endorf 94218
beg@@ 94207
ersetzt 94203
ling 94189
hohe 94174
Har@@ 94090
tische 94080
1918 94019
wollte 93986
1953 93904
langen 93881
1934 93821
viel 93765
genommen 93704
1955 93673
1936 93650
neun 93647
land@@ 93644
1954 93643
L 93581
erreichen 93528
Ent@@ 93451
du 93439
ger 93418
Zeitpunkt 93412
Mitarbeiter 93373
1920 93302
trägt 93287
anischen 93077
Welt@@ 93073
1919 92999
Flug@@ 92957
Bel@@ 92892
Lehr@@ 92826
lebte 92744
Am@@ 92599
Forschungs@@ 92586
Doppel@@ 92401
istische 92359
zahlreichen 92234
iz@@ 92224
Pol@@ 92155
lebten 92105
Man 91921
cher 91883
Hochschule 91877
oben 91855
heraus 91677
eben 91658
folgten 91643
tig 91639
Gruppen 91611
Pro@@ 91544
nahmen 91481
fer 91431
Künstler 91408
En@@ 91361
Dollar 91311
nächsten 91231
Spielzeit 91152
Position 91118
verläuft 91090
vier@@ 91056
bald 91013
Cup 90956
ette 90898
wenige 90894
Teil@@ 90885
… 90802
besten 90801
hauptsächlich 90785
Union 90752
Bal@@ 90675
tet 90620
Inter@@ 90593
eröffnet 90579
ons 90568
siehe 90509
Feld@@ 90494
Heute 90482
School 90445
knapp 90437
ut@@ 90157
betrug 90136
beendete 90072
Hermann 90041
bilden 90011
sollen 90000
keinen 89841
Sonder@@ 89825
zer@@ 89733
tisch 89696
‘ 89541
Roman 89503
Rom 89489
berger 89481
Jean 89469
Vertreter 89435
Stadtteil 89401
weisen 89394
Wahl@@ 89345
Anzahl 89342
Baden 89321
1937 89277
gesamte 89263
Projekt 89189
Kinder@@ 89183
gebracht 89165
scher 89000
ben@@ 88916
Verfügung 88915
dr@@ 88908
macht 88794
Metern 88772
früher 88753
erfolgreich 88749
wirkte 88740
Trainer 88630
ehemaliger 88545
China 88427
Max 88387
men@@ 88355
ist@@ 88346
Bo@@ 88287
gehörten 88277
1951 88203
Tätigkeit 88115
1935 88034
ster@@ 87993
Organisation 87983
Gegensatz 87977
age 87919
Handlung 87889
Mor@@ 87872
mussten 87807
per@@ 87744
Verkehr 87739
ant 87721
Unterstützung 87696
Eltern 87676
gem@@ 87650
+ 87610
ef@@ 87605
Fr@@ 87592
Anlage 87591
zeigen 87380
vermutlich 87315
K 87180
darüber 87107
1930 87019
James 86962
zusammen@@ 86875
lebt 86835
Natur@@ 86693
III. 86593
for 86592
Gemeinde@@ 86564
Ex@@ 86561
Hol@@ 86561
We@@ 86478
sen@@ 86395
World 86209
Dresden 86196
Alt@@ 86137
daraufhin 86111
Berg 86081
Fernseh@@ 86021
George 86018
leitete 85970
gefunden 85955
eck 85938
mel@@ 85854
dadurch 85847
Gymnasium 85705
vollständig 85698
äre 85666
nie 85383
Soldaten 85335
Man@@ 85200
Schüler 85155
500 85147
führung 85110
Grab@@ 85036
besch@@ 84987
pr@@ 84935
einzelnen 84881
Verlag 84837
gleichzeitig 84593
Car@@ 84571
Stiftung 84514
Hauptstadt 84492
baren 84455
Ste@@ 84446
si@@ 84406
Y@@ 84344
Jugend 84257
öffentlichen 84216
bringen 84190
Dienst 84146
zi@@ 84087
ausge@@ 84064
geh@@ 84034
ator 84027
Reich 83972
ik 83905
Anschluss 83900
pf@@ 83896
hoch@@ 83859
Hof 83831
eller 83826
verließ 83809
erwarb 83789
anlage 83785
Mannschaften 83766
Alle 83754
all 83707
indem 83670
Fluss 83612
Verlauf 83536
verband 83528
ro@@ 83501
Weltmeisterschaften 83468
we@@ 83460
re 83451
Bl@@ 83432
isierung 83423
Zug@@ 83344
Bundesliga 83338
kt 83318
Bor@@ 83314
überwiegend 83288
wiederum 83239
denn 83218
än@@ 83202
Einfluss 83143
1914 83141
ort 83123
Dr. 83121
zuletzt 83092
Ko@@ 83060
Artikel 83011
bietet 82990
übernommen 82937
1928 82793
kar@@ 82757
ine 82733
Main 82726
will 82700
sogenannten 82534
wieder@@ 82513
Li@@ 82493
süd@@ 82406
Me@@ 82303
itz@@ 82236
Kol@@ 82210
gegeben 82196
frei 82016
tragen 81962
tionen 81892
gek@@ 81873
gemacht 81810
ah@@ 81791
Zusammenhang 81782
system 81775
80 81742
Friedhof 81672
1929 81641
River 81606
Zwei 81586
Hannover 81580
mindestens 81548
Rot@@ 81503
Direktor 81500
Verwaltung 81461
per 81252
Fest@@ 81242
verloren 81237
Geschäfts@@ 81222
Grenz@@ 81218
ausschließlich 81212
iden 81188
Dazu 81096
Dr@@ 81035
Zusammenarbeit 81025
Auftrag 81014
Rad@@ 80885
werke 80824
sti@@ 80815
Zeitschrift 80805
ür@@ 80773
1932 80743
treten 80731
Japan 80703
dern 80659
Luft@@ 80629
gesamten 80629
Club 80627
gingen 80491
Ri@@ 80474
Basis 80457
Walter 80439
galt 80397
ur 80396
Lied 80352
Schauspieler 80313
gleich 80284
Rhein@@ 80266
Minuten 80220
bestehen 80189
Nord 80178
Wappen 80177
verkauft 80115
« 80115
historischen 80007
schul@@ 79992
Darüber 79985
tor 79894
jeder 79818
War@@ 79811
schaften 79765
Monate 79760
zerstört 79759
seien 79722
1900 79711
» 79704
Außen@@ 79697
ente 79677
kaum 79605
23 79570
90 79530
Charles 79485
Kreis@@ 79464
American 79380
ser 79371
Graf 79364
Papst 79359
ks 79305
van 79268
Halb@@ 79256
führten 79221
Seiten 79139
Anna 79117
Orte 79057
Bildung 78995
heutige 78991
Zeitung 78948
buch 78830
ersch@@ 78826
startete 78741
verkehr 78712
ausgetragen 78693
betrieben 78684
Abteilung 78604
folgt 78580
alt 78542
Umgebung 78534
c@@ 78532
Josef 78471
R 78465
entlang 78422
ech@@ 78389
Ländern 78356
Ges@@ 78295
europäischen 78269
Russland 78260
erfolgt 78202
wald 78194
großer 78103
Kapelle 78020
esch@@ 77979
Kre@@ 77957
heißt 77912
Sal@@ 77901
ats 77828
Kritik 77762
Einige 77687
Wein@@ 77668
arbeitet 77510
durchgeführt 77496
1970er 77490
entdeckt 77431
fen 77371
As@@ 77331
trug 77281
pe 77263
Ma@@ 77248
Post@@ 77192
Autor 77185
Insgesamt 77161
35 77159
mittel@@ 77145
zug@@ 77126
Brücke 77090
regelmäßig 77073
zug 77072
Recht 77064
fl@@ 77032
katholischen 77021
Te@@ 77016
bare 76998
bild 76971
Thema 76966
ta 76934
tin 76886
spieler 76841
aden 76752
Stuttgart 76750
setzt 76719
For@@ 76707
1925 76700
ent 76663
ad 76660
Le 76650
Bezirk 76523
welcher 76522
Regierungs@@ 76514
if@@ 76427
af@@ 76346
erstes 76338
Fußball 76335
Kirch@@ 76320
Turm 76287
ost@@ 76240
Mark 76200
Darstellung 76089
Zürich 76069
gruppen 76046
lern 76025
Bürger@@ 76014
zwölf 75930
Ak@@ 75806
w 75790
erbaut 75765
zusätzlich 75761
südlichen 75728
Zentral@@ 75679
stellung 75673
lo@@ 75668
Mer@@ 75636
fall 75631
Sozial@@ 75599
1980er 75589
Not@@ 75552
bildete 75517
Bild 75479
eter 75468
österreichischen 75446
Verfahren 75413
beginnt 75394
Straßen@@ 75375
Hinter@@ 75371
Kal@@ 75363
SPD 75349
iker 75326
Hintergrund 75266
1924 75257
Verkehrs@@ 75226
Bahnstrecke 75150
hin@@ 75149
tion 75119
kur@@ 75112
Obwohl 75109
70 75067
Vom 75065
weiterer 75062
V. 74964
1927 74962
elte 74946
Daneben 74915
ha 74859
iges 74834
Ros@@ 74750
Fl@@ 74746
Punkte 74670
Finanz@@ 74645
bes@@ 74599
dienst 74508
Selbst@@ 74506
ko 74496
Nordosten 74488
T 74456
geben 74396
he@@ 74375
Laufbahn 74365
‚ 74294
Grün@@ 74279
ph@@ 74165
Amts@@ 74158
Département 74155
voll@@ 74107
hof 74099
x@@ 74010
to@@ 73940
en- 73932
sodass 73908
General@@ 73860
kel@@ 73857
kh@@ 73852
1910 73801
ons@@ 73685
Reich@@ 73679
Schutz 73679
Gen@@ 73556
ier 73545
Sol@@ 73532
Wochen 73526
deshalb 73522
zentrum 73376
F 73374
Doch 73348
Stück 73314
32 73310
lers 73302
ang 73283
gebildet 73272
Pf@@ 73193
rechts 73143
Award 73120
Siedlung 73083
verliehen 72982
Fußball@@ 72970
Markt 72951
tw@@ 72911
v 72884
russischen 72861
ak 72854
tsch@@ 72811
kel 72720
1960er 72696
lief 72654
politik 72630
Ro@@ 72590
selten 72542
United 72419
Handels@@ 72391
raum 72384
nehmen 72352
endes 72339
gewinnen 72293
Lehrer 72215
weitgehend 72208
gesellschaft 72199
verein 72179
best@@ 72104
1931 72084
45 72072
c 72053
Best@@ 72011
Betriebs@@ 72000
Herbst 71998
1921 71979
spiele 71933
Südwesten 71929
1990er 71925
ep@@ 71913
Königreich 71884
Wohn@@ 71848
Schutz@@ 71833
weiter@@ 71814
bekam 71809
enburg 71802
anderer 71756
Ton@@ 71747
Kan@@ 71740
tor@@ 71739
son 71730
Heim@@ 71725
400 71722
relativ 71696
dritte 71682
Halle 71681
Fußballspieler 71678
Mo@@ 71659
weist 71633
größere 71605
ez@@ 71584
ör@@ 71577
ett 71565
erschienen 71522
ati@@ 71518
Single 71500
führer 71487
Song 71388
Bahn@@ 71370
Seiten@@ 71346
Steuer@@ 71340
tritt 71336
Dom@@ 71316
Ortschaft 71257
Burg@@ 71255
tal 71246
Angaben 71182
od@@ 71137
schwer 71104
Grand 71033
italienischen 71027
Weltkriegs 70967
x 70967
Allerdings 70928
vertreten 70924
1923 70915
laut 70849
berufen 70751
ber 70743
Daten 70734
ters 70725
1926 70705
entr@@ 70653
Hand@@ 70652
preis 70642
ton 70597
Mas@@ 70582
Kn@@ 70546
Fahrzeuge 70541
weltweit 70517
Sammlung 70476
Wieder@@ 70448
fest@@ 70427
endete 70422
fort 70418
Dre@@ 70334
Führung 70237
mannschaft 70204
dient 70131
wahrscheinlich 70123
? 70046
Tor 70042
Laufe 70027
Großen 70011
hoch 69967
sieht 69928
1912 69891
Stunden 69889
Herkunft 69887
gang 69867
Open 69811
stein@@ 69781
Stimmen 69770
jährigen 69721
wagen 69690
hausen 69674
heraus@@ 69651
Nordwesten 69636
tiert 69636
vorhanden 69632
Kategorie 69614
š@@ 69588
geprägt 69584
vierten 69577
Teilnehmer 69563
Gast@@ 69555
westlichen 69549
assen 69518
Auswahl 69485
Kampf 69461
Anteil 69431
Beide 69425
Forschung 69420
Spanien 69419
stammen 69377
größeren 69343
ig 69327
nördlichen 69230
spiel@@ 69169
sah 69145
TV 69139
jährlich 69123
Louis 69097
heit 69093
Schriftsteller 69083
Rudolf 69076
1922 69071
oren 69031
leiter 68987
Staat 68982
schnell 68909
inzwischen 68905
Südosten 68902
Festival 68895
err@@ 68841
englischen 68819
Programm 68818
und@@ 68786
nis 68766
anlagen 68762
Kind 68715
rechten 68680
Möglichkeit 68582
standen 68439
ären 68403
id 68348
Philosophie 68337
are 68267
Tri@@ 68219
höchsten 68209
End@@ 68196
N 68190
Württemberg 68181
Hal@@ 68161
unternehmen 68158
Maler 68148
Weise 68128
Größe 68100
ys 67989
genannten 67969
einge@@ 67963
26 67948
verfügt 67916
geworden 67912
ie@@ 67904
sogenannte 67875
Veröffentlichung 67818
il 67778
lage 67726
Wolfgang 67612
Prä@@ 67534
Albert 67504
Ad@@ 67496
dagegen 67494
Familien 67472
fahrt 67446
me@@ 67400
ana 67374
eingestellt 67334
Typ 67329
beschrieben 67325
Punkten 67306
ow@@ 67304
Regie 67292
Juden 67261
kreis 67243
é 67236
brücke 67227
Eis@@ 67223
Großbritannien 67195
az@@ 67143
Gelände 67099
zer 67081
Städte 67080
Folgen 67054
inen 67031
seite 67012
versch@@ 66864
gespielt 66848
Ergebnis 66802
Abschnitt 66656
Tore 66645
gr@@ 66620
M 66613
Vier@@ 66597
Ehefrau 66546
Modell 66541
produziert 66522
Tal@@ 66505
300 66497
Krieges 66467
ass@@ 66467
außerhalb 66462
anten 66400
Aufgaben 66344
ft 66302
sin@@ 66179
war@@ 66172
Wind@@ 66158
san@@ 66153
ai 66123
jeweiligen 66115
Bewegung 66085
wichtige 66080
verw@@ 66063
äl@@ 66031
früheren 66000
nh@@ 65996
Verbreitung 65961
ete 65952
jungen 65888
Privat@@ 65884
Tier@@ 65872
ner@@ 65841
Pre@@ 65794
tigkeit 65783
zwe@@ 65755
Nutzung 65749
enthalten 65744
28 65714
Reg@@ 65648
Cor@@ 65620
ehe 65552
wasser@@ 65501
kom@@ 65492
Wirken 65475
onlyinclude 65435
Boden 65373
aler 65357
1913 65329
bekannten 65313
Geb@@ 65309
ek 65258
darin 65245
Bur@@ 65230
ib@@ 65216
cht 65194
6@@ 65150
Frage 65108
Qualifikation 65088
Erfolge 65075
man@@ 65053
ew@@ 65030
gelegenen 64996
Royal 64994
stoff@@ 64988
zeit@@ 64975
bar@@ 64963
mittel 64941
eingeführt 64938
Turnier 64912
Bas@@ 64873
Erst@@ 64801
Herzog 64768
5@@ 64688
mehrfach 64665
leitung 64580
nichts 64497
hervor 64447
geschrieben 64397
bestritt 64363
Mari@@ 64334
igkeit 64314
Merkmale 64293
ko@@ 64292
mi@@ 64292
könnte 64216
Lo@@ 64191
Los 64140
Hessen 64101
tierte 64094
internationale 64087
Ho@@ 64032
Gegen@@ 64031
teils 64012
Grafen 64010
Inseln 64006
Motor 63949
27 63936
ni@@ 63933
kan@@ 63926
hält 63897
wäre 63882
Wert 63871
Tal 63848
Ungarn 63761
Kopf 63756
Vergleich 63733
ober@@ 63730
Schwester 63684
Frauen@@ 63660
trotz 63645
hingegen 63540
unterstützt 63529
gerade 63500
Island 63489
neuer 63488
1911 63478
nord@@ 63469
bildung 63464
enh@@ 63438
ähnlich 63427
Gleich@@ 63399
qu@@ 63372
Fre@@ 63330
Orgel 63288
bedeutet 63285
Wil@@ 63274
SV 63245
gegründeten 63245
Sprach@@ 63200
Wol@@ 63175
Hand 63157
gleichnamigen 63086
Bremen 63079
fällt 63078
offiziell 63072
Kas@@ 63015
Bundesstaat 62985
ischem 62975
Nur 62972
Süd 62968
Schweden 62965
Ser@@ 62960
Washington 62946
A. 62929
gericht 62823
Frühjahr 62813
wert 62773
vers@@ 62717
Po@@ 62671
berg@@ 62656
Ö@@ 62654
aufgelöst 62638
ru@@ 62635
hätte 62611
zugleich 62589
Herren 62545
linie 62543
1000 62535
Sand@@ 62511
Familien@@ 62494
zeigte 62494
ut 62465
S. 62423
Pl@@ 62420
Architektur 62407
Kindern 62365
Vaters 62276
Gas@@ 62249
Wald 62198
Bild@@ 62160
1907 62153
fahr@@ 62145
erhielten 62112
anische 62111
tan@@ 62108
alb@@ 62048
Westfalen 62033
elf 62026
Grundlage 62021
Voll@@ 62014
geschlossen 62001
ün@@ 62000
mar@@ 61986
verwaltung 61946
fläche 61945
verantwortlich 61939
1905 61899
esen 61895
Körper@@ 61878
ran@@ 61873
ordnung 61858
spr@@ 61812
hal@@ 61779
Regional@@ 61775
Wagen 61749
rechte 61714
kre@@ 61680
katholische 61643
teil@@ 61631
Quellen 61555
Themen 61552
2022 61518
jahr 61518
Bank 61511
Gold@@ 61479
formen 61471
Rückkehr 61468
gesetzt 61396
elten 61389
Durch@@ 61376
umbenannt 61375
Berufs@@ 61369
Schulen 61360
Pi@@ 61337
ade 61306
sw@@ 61301
obwohl 61300
zählt 61267
tion@@ 61200
Hor@@ 61195
namens 61194
Renn@@ 61180
Jazz 61172
höchste 61138
1917 61117
entspricht 61116
× 61111
werde 61076
verlassen 61012
fallen 60993
bewegung 60962
Landwirtschaft 60917
mon@@ 60911
oc@@ 60903
Deutsch 60893
tions@@ 60882
ann 60858
Dor@@ 60852
Stamm@@ 60835
Theater@@ 60788
Con@@ 60768
tiger 60751
oh@@ 60743
Is@@ 60717
arbeit 60712
d. 60680
inter@@ 60674
Schon 60654
Teams 60649
traf 60638
Sowjetunion 60627
Bes@@ 60622
verfahren 60587
wenigen 60561
Aufbau 60554
eck@@ 60533
1908 60518
chen@@ 60472
Adolf 60422
Aufgabe 60401
tre@@ 60394
Mag@@ 60379
tel 60369
Teilen 60350
erg@@ 60333
Fern@@ 60296
neues 60273
lauf 60264
ät 60244
Tiere 60236
j 60167
Söhne 60084
ki@@ 60080
Ost 60065
SS 60060
Mel@@ 60057
Ebene 60039
Noch 60009
Heiligen 59954
les 59946
ae 59910
Opfer 59892
Moskau 59891
lich@@ 59891
Tur@@ 59887
film 59860
Marie 59849
solche 59849
erweitert 59847
pp@@ 59847
Straf@@ 59844
fahren 59831
Winter 59826
Viele 59790
Ni@@ 59781
iss@@ 59768
Wettbewerb 59751
stoff 59740
weiß 59734
älteste 59734
zeichen 59664
dahin 59655
fuhr 59647
Sinne 59640
Wort 59615
WM 59596
Düsseldorf 59571
bauten 59559
Hel@@ 59544
ard 59487
SC 59456
Präsidenten 59449
Co@@ 59441
Dar@@ 59419
Technik 59416
ini 59402
Rat 59400
weiteres 59389
linken 59358
th 59352
Werdegang 59349
wichtigsten 59315
Chor@@ 59289
wissenschaftlichen 59234
Leistung 59210
park 59164
schrift 59137
änge 59074
gehalten 59039
Frank 58994
versuchte 58901
Objekte 58875
sheim 58870
Schiffe 58860
britische 58830
Wegen 58811
schied 58801
els@@ 58763
Distrikt 58751
EU 58743
groß 58726
ren@@ 58707
reichen 58704
ste@@ 58693
bestimmt 58625
Jahres@@ 58577
Andreas 58573
no 58568
Ru@@ 58562
bekannte 58561
Person 58554
ki 58542
hergestellt 58498
Mus@@ 58486
Neben@@ 58471
dar@@ 58453
Aufstieg 58449
aum 58401
Hektar 58396
Müller 58377
ec@@ 58374
ex@@ 58366
Gründen 58351
Station 58329
Ehren@@ 58195
Hör@@ 58186
junge 58169
Gesch@@ 58152
eingerichtet 58140
prä@@ 58120
1906 58105
ng@@ 58082
Medien 58080
versucht 58058
jüdischen 58055
Air 58054
CDU 58049
ant@@ 57985
Schl@@ 57981
ma 57942
Laut 57927
Musiker 57902
Brandenburg 57847
ino 57844
Ä@@ 57840
Bre@@ 57813
kg 57798
Halbfinale 57784
baute 57784
erungen 57772
preußischen 57763
anti@@ 57733
Einführung 57710
un 57699
Gesetz 57613
h. 57602
Wenn 57593
Interesse 57563
kraft 57553
1950er 57552
inne 57540
wissenschaftliche 57533
Weiß@@ 57529
Kern@@ 57516
oberen 57501
Bezirks@@ 57453
mittels 57415
Dem 57409
Industri@@ 57405
Eisenbahn@@ 57374
Erd@@ 57371
Ergebnisse 57335
blieben 57224
he 57159
chten 57123
Ha@@ 57121
römisch 57066
kor@@ 57029
Niederlage 56985
At@@ 56979
form@@ 56979
Winter@@ 56949
dargestellt 56944
erklärt 56944
Werner 56878
gesetz 56873
Polizei 56858
besaß 56857
Weltkrieges 56854
De 56853
Weiteren 56796
Gew@@ 56789
liegenden 56773
zählen 56770
&#124; 56747
Produktions@@ 56747
Zu@@ 56708
beschäftigt 56694
Ker@@ 56674
verlegt 56654
Z 56627
Bonn 56585
Architekten 56555
Abitur 56551
ebenda 56551
programm 56540
Zentimeter 56508
Gut 56503
Es@@ 56481
erscheint 56481
äch@@ 56480
Philipp 56476
gi@@ 56466
Sh@@ 56423
gewicht 56423
1909 56383
angeboten 56362
Dem@@ 56346
wodurch 56327
fließt 56293
bo@@ 56280
ica 56264
Kraft 56234
traten 56212
Europäischen 56201
Gold 56186
schiff 56171
Ortes 56151
är 56151
östlichen 56109
losen 56088
kul@@ 56062
ese 55982
.@@ 55980
verbreitet 55951
Sa@@ 55899
do 55875
kal@@ 55857
ho@@ 55853
band 55847
gemäß 55820
klasse 55812
Records 55773
Australien 55762
gezeigt 55722
Im@@ 55699
flächen 55682
1904 55673
7@@ 55613
Wirkung 55583
X 55574
etz@@ 55557
nung 55548
ug@@ 55526
Fritz 55524
Bildungs@@ 55511
ns 55508
entsprechend 55489
nominiert 55467
Punkt 55466
Auszeichnungen 55446
lag@@ 55419
Rock 55415
Anton 55397
Hamburger 55389
kleiner 55388
Heimat@@ 55383
zuerst 55366
4@@ 55358
allein 55353
ess@@ 55332
Bücher 55302
8@@ 55238
Chor 55102
Ban@@ 55097
mo@@ 55056
ac@@ 55049
zen@@ 55048
So@@ 55028
egen 55027
essen 54997
burger 54981
unmittelbar 54942
Company 54924
nationalen 54895
Verband 54891
römischen 54884
mühle 54870
yl@@ 54856
Nacht 54849
Kurz@@ 54844
Kle@@ 54834
äh@@ 54831
1915 54795
Sprachen 54791
Min@@ 54721
65 54720
Rhein 54708
Vol@@ 54690
endet 54690
Elisabeth 54679
Heimat 54669
Schwer@@ 54662
Nummer 54647
Gre@@ 54624
freien 54616
J. 54557
ata 54547
alität 54543
Innen@@ 54526
og@@ 54492
Alfred 54470
schafts@@ 54458
südöstlich 54436
PS 54417
tur@@ 54350
Kurz 54346
breit 54285
Liebe 54268
Erste 54234
digen 54234
historische 54174
französischer 54164
alter 54156
alismus 54139
südwestlich 54123
Flughafen 54118
uk@@ 54115
Häuser 54110
name 54106
bleibt 54096
Lau@@ 54093
Kanada 54016
Studien 53993
lands 53977
Des 53973
jährige 53967
av@@ 53965
pen@@ 53951
Preußen 53920
enes 53913
Dreh@@ 53885
bestimmten 53863
Lauf 53846
gelten 53840
36 53832
Nor@@ 53816
Debüt 53799
Wand@@ 53785
würden 53781
achten 53776
unterschiedlichen 53773
zahl 53766
cht@@ 53752
La@@ 53734
sberg 53716
beste 53701
Su@@ 53695
stre@@ 53667
west@@ 53653
Internationalen 53639
Weg@@ 53636
geschaffen 53619
Regisseur 53610
Standort 53552
Sub@@ 53544
Leistungen 53542
Start 53512
Henry 53508
Dienst@@ 53504
ite 53476
König@@ 53472
Ausgabe 53469
ziehen 53458
zweimal 53387
Anti@@ 53364
mal@@ 53360
mehr@@ 53296
stätte 53294
Angeles 53271
Sport 53247
Mat@@ 53229
Mehr@@ 53190
Parlament 53180
ologe 53159
tag 53111
sions@@ 53110
1903 53091
Text 53086
reich 53067
teilen 53053
Fernsehen 53018
isen 52941
belegt 52919
ologische 52909
Aufnahme 52894
ano 52891
Quelle 52890
theorie 52884
W 52879
Kap@@ 52847
ic@@ 52847
produktion 52801
legen 52771
Richter 52759
Fisch@@ 52756
Schauspielerin 52732
Nürnberg 52725
State 52717
enk@@ 52699
Trotz 52678
the@@ 52652
kurze 52639
ke@@ 52612
spielten 52599
Jung@@ 52587
ley 52578
polnischen 52558
setzen 52532
verkaufte 52502
arten 52478
33 52475
Villa 52464
Erzbischof 52458
1916 52457
Durchmesser 52442
zugeordnet 52438
rechts@@ 52398
sur 52355
uten 52355
Situation 52338
Daniel 52318
iner 52310
ligen 52272
lin@@ 52250
gewonnen 52226
bleiben 52222
punkt 52221
entschied 52207
ans@@ 52205
ener@@ 52201
zunehmend 52187
Gl@@ 52168
9@@ 52162
nordwestlich 52159
verfasste 52157
Ferdinand 52155
Eigen@@ 52154
X@@ 52143
lose 52142
ra 52130
vertrat 52127
dre@@ 52112
äng@@ 52089
erklärte 52084
Pfarrer 52073
jetzt 52028
teten 52010
Tsch@@ 51998
Spr@@ 51996
atoren 51985
Autoren 51966
schließt 51954
Auflösung 51953
ed 51951
Zi@@ 51941
Sänger 51937
Fakultät 51901
nordöstlich 51892
forschung 51890
Münster 51822
Rund@@ 51811
Probleme 51806
Christoph 51794
wesen 51790
Literatur@@ 51787
Früh@@ 51782
bezeichnete 51781
Werk@@ 51754
ot 51753
Feuer@@ 51727
Kirchen 51711
Pfarrkirche 51710
Films 51709
errichtete 51707
ile 51688
strecke 51677
1902 51676
Top 51649
erstreckt 51645
Informationen 51623
genau 51621
Erde 51603
Radio 51598
ele 51592
mus@@ 51585
schutz@@ 51574
bestimmte 51568
angelegt 51544
Gerichts@@ 51520
Bach 51505
Ke@@ 51448
Gar@@ 51429
§ 51409
Bewohner 51396
Ol@@ 51395
angen 51365
barkeit 51348
übertragen 51345
Beziehungen 51335
Fenster 51335
Ausstellung 51307
fern 51289
Pal@@ 51272
Kommission 51267
Sicherheits@@ 51225
Regiment 51212
Freund 51211
Mittelalter 51203
Besch@@ 51157
zw@@ 51142
by 51087
ol 51087
promoviert 51084
fre@@ 51077
Erb@@ 51074
plan 51065
Por@@ 51028
Sel@@ 51024
min 51007
Dach@@ 50975
tri@@ 50961
Kosten 50952
Gustav 50882
istisch 50862
Öffentlichkeit 50860
Sommer@@ 50857
Ag@@ 50850
schutz 50824
ay 50800
Straßen 50799
29 50796
grenzt 50763
stets 50754
ze@@ 50751
ganze 50732
Filme 50712
1901 50682
Fil@@ 50660
Bod@@ 50650
kung 50638
South 50631
Freiburg 50604
reicht 50590
Gel@@ 50561
Tro@@ 50532
P 50525
außer 50491
organisation 50490
Dorf@@ 50483
Einheit 50448
Formen 50442
Leit@@ 50442
House 50387
ill@@ 50371
Tre@@ 50354
Geld 50328
Sam@@ 50271
jede 50261
ann@@ 50238
starken 50237
daran 50218
Wel@@ 50181
lingen 50175
ski 50175
ase 50162
Ich 50123
ologischen 50097
fin@@ 50085
dienen 50079
so@@ 50077
werken 50074
ani 50065
dete 50056
ät@@ 50029
eigentlich 50025
wirtschaft 49976
schl@@ 49971
Brüder 49957
34 49911
üch@@ 49904
modernen 49886
Eigenschaften 49881
Gal@@ 49857
ane 49821
öl@@ 49793
Königs 49779
Herstellung 49767
ins@@ 49748
kol@@ 49728
Länder 49720
Revolution 49703
Besetzung 49698
Raum@@ 49692
1848 49677
Music 49673
Mädchen 49673
Pfalz 49661
Del@@ 49639
Ir@@ 49602
pel@@ 49588
Col@@ 49551
öffentliche 49547
geg@@ 49531
Teilnahme 49520
ps 49519
Stein 49503
Society 49484
gelegene 49476
Farb@@ 49416
besitzen 49407
ats@@ 49397
bank 49369
75 49368
Dadurch 49365
Spitze 49359
brach 49338
Verw@@ 49332
pi@@ 49320
Si@@ 49301
leistung 49293
umfasste 49291
aufgestellt 49283
31 49255
Anwendung 49237
IV. 49213
Ze@@ 49191
seitdem 49187
1899 49184
gegründete 49173
gebäude 49164
ließen 49163
zuständig 49158
ett@@ 49157
Infrastruktur 49147
japanischen 49144
Alben 49132
Rein@@ 49114
Glas@@ 49062
par@@ 49052
aufgeführt 49032
1,@@ 49019
aut 49010
Bürger 49009
Dis@@ 49001
po@@ 48952
eng 48918
bek@@ 48913
Pfarr@@ 48882
Gi@@ 48864
Geografie 48836
Theologie 48833
North 48831
Du@@ 48829
Deutschlands 48821
vi@@ 48799
mündet 48788
ungs- 48773
wir@@ 48723
unterhalb 48715
iken 48702
toren 48695
ti 48612
geborene 48607
est 48572
Tradition 48539
eins 48534
acht@@ 48520
hervor@@ 48513
ogen 48510
Geh@@ 48410
entweder 48396
ativ 48383
nahezu 48383
Küste 48368
Gebiete 48346
zeiten 48334
ide@@ 48281
Il@@ 48239
erkennen 48228
Mol@@ 48216
verstarb 48200
150 48191
Bilder 48178
spricht 48175
gebiete 48174
leitet 48156
mittlerweile 48136
Mil@@ 48133
Mitgliedern 48129
ensch@@ 48128
hr@@ 48119
begonnen 48108
All@@ 48095
1898 48087
dt 48064
ante 48040
etten 48025
turm 48023
besetzt 47993
inn@@ 47988
wesentlich 47943
links 47912
ors 47890
Indien 47885
om 47868
Mi@@ 47847
Szene 47804
kennen 47800
nisse 47759
Drei 47754
Em@@ 47746
64 47715
gesehen 47709
schließen 47691
Titel@@ 47659
markt 47656
Kalifornien 47637
älteren 47607
Ang@@ 47603
aufgebaut 47594
des@@ 47574
1890 47558
freie 47550
wahl 47534
Entstehung 47516
lang@@ 47501
Radi@@ 47500
Hockey 47487
Lehre 47473
angegeben 47460
isiert 47458
ausgestattet 47452
Vereins 47451
Vereine 47431
Friedens@@ 47401
Stre@@ 47395
ursprünglichen 47395
ven 47395
begannen 47384
hätten 47359
groß@@ 47337
Zusammen 47336
abteilung 47336
2@@ 47333
Stahl@@ 47331
Jan 47323
mt 47288
fach@@ 47284
unteren 47282
38 47241
verbrachte 47220
Figuren 47190
ennen 47173
ei@@ 47166
Einheiten 47161
zahlen 47137
Körper 47136
stellten 47098
iti@@ 47092
unk@@ 47091
ō 47083
familie 47077
gemeinsamen 47064
no@@ 47054
tungs@@ 47053
Formel 47051
Konzept 47001
of@@ 46969
jedes 46959
zweiter 46945
bot 46941
abgeschlossen 46934
Hall 46925
hinzu 46879
Bezug 46871
III 46871
mor@@ 46857
Besuch 46852
Tagen 46851
Gemein@@ 46849
Stellung 46831
lichem 46828
Santa 46818
C. 46809
Schön@@ 46799
Wi@@ 46791
Pas@@ 46781
aw@@ 46772
ers@@ 46752
Status 46751
zählte 46739
Parteien 46734
Kontakt 46726
Christ@@ 46721
Wahlkreis 46696
Zeiten 46662
H 46619
Kraft@@ 46618
späten 46613
pl@@ 46605
jedem 46602
Druck 46588
dortigen 46574
Aufnahmen 46533
lin 46528
gar 46522
Stadion 46519
Rechte 46511
Städten 46496
treffen 46493
CD 46478
gezogen 46473
kleinere 46469
Chicago 46464
spätere 46464
Band@@ 46459
eröffnete 46449
Pierre 46418
kirchen 46400
ov@@ 46398
Pan@@ 46372
Daraufhin 46365
Schriften 46362
schuf 46360
theater 46333
Landtag 46329
Untersuchungen 46281
Große 46276
voll 46262
ag 46255
1895 46254
weite 46244
fe 46241
alles 46223
befördert 46218
schlag 46217
löste 46198
Mess@@ 46196
por@@ 46193
Meer 46162
m. 46146
ton@@ 46145
serie 46135
Basel 46133
Zunächst 46117
Heidelberg 46107
1896 46059
Theorie 46025
politisch 45983
pre@@ 45983
Neubau 45948
Sil@@ 45912
Daher 45895
Züge 45834
weg@@ 45833
Meisterschaften 45826
Amtszeit 45801
Entscheidung 45800
Super@@ 45796
spanischen 45796
Association 45792
Sankt 45788
Einwohnerzahl 45783
Prag 45777
Tode 45770
Namens@@ 45763
verschiedener 45755
Rau@@ 45750
Ben@@ 45748
Mio. 45748
Kloster@@ 45726
1870 45719
erhoben 45718
Hotel 45704
Medizin 45703
nitz 45698
Rand 45683
Les@@ 45674
völlig 45674
Des@@ 45658
geplant 45648
Künstler@@ 45638
ange@@ 45631
do@@ 45616
schlug 45611
Heinz 45602
griechischen 45592
tier@@ 45586
Mannschafts@@ 45583
einzigen 45579
mern 45537
ministerium 45518
kurzen 45513
Bus@@ 45509
besondere 45507
Kat@@ 45506
Lieder 45474
Werken 45466
3@@ 45443
Wall@@ 45423
Sieger 45413
Ausland 45412
vorwiegend 45393
Kreuz 45391
Gericht 45367
High 45366
Macht 45346
Sar@@ 45344
Gu@@ 45342
iche 45340
Förderung 45322
ecke 45321
Prozess 45320
rech@@ 45295
1871 45290
ick@@ 45273
Nachbargemeinden 45268
Angriff 45267
beziehungsweise 45248
á@@ 45244
1897 45239
Verhältnis 45231
sitz 45230
Go@@ 45220
sprache 45206
Millimeter 45157
Mexiko 45144
Kö@@ 45072
plätze 45062
unterschiedliche 45040
benutzt 45022
Herz@@ 45015
lu@@ 44999
wasser 44998
up@@ 44981
fe@@ 44976
ise 44971
Jakob 44937
ind@@ 44928
gute 44900
Institute 44884
erh@@ 44865
Abgeordneter 44863
bislang 44859
ebene 44859
Nordrhein 44780
Markt@@ 44760
Kin@@ 44733
ey 44659
Gott 44644
schen@@ 44643
Ebenfalls 44616
uf@@ 44581
Beruf 44563
Beziehung 44549
dienst@@ 44549
wal@@ 44543
werks 44542
Sor@@ 44540
liegende 44534
Fol@@ 44516
Holz 44516
schwer@@ 44484
Gleichzeitig 44480
istik 44466
Einrichtungen 44458
Pap@@ 44410
handelte 44406
auen 44399
Roh@@ 44390
Elemente 44385
Ung@@ 44376
Figur 44309
gekommen 44299
ältesten 44297
55 44286
Landschafts@@ 44280
mäßig 44276
Mainz 44275
Einrichtung 44266
Reise 44261
übrigen 44240
Boot 44238
Abs 44234
ets 44230
Schleswig 44226
Sk@@ 44215
Charts 44168
ück@@ 44159
versehen 44147
Ki@@ 44139
beschreibt 44137
besser 44125
Marine 44109
Zustand 44109
Val@@ 44099
Sach@@ 44088
Schle@@ 44059
British 44053
schweren 44038
All 44010
züge 43998
M. 43995
ick 43990
Hil@@ 43972
zogen 43970
gelegt 43960
Komponist 43943
Natur 43939
Fragen 43938
Universitäten 43938
Sehenswürdigkeiten 43933
Fer@@ 43920
tliche 43907
Trans@@ 43902
Rat@@ 43891
Schwerpunkt 43878
Com@@ 43865
Bistum 43863
Brand@@ 43855
Öl@@ 43805
graben 43795
Schwarz@@ 43771
österreichischer 43768
Breite 43751
Pe@@ 43731
Tonnen 43731
Vi@@ 43731
Arrondissement 43724
ativen 43722
Zeitraum 43701
Songs 43691
erinnert 43691
tar@@ 43677
ation@@ 43675
ates 43662
0er 43660
wand 43660
Hin@@ 43648
Wissenschaften 43639
Heil@@ 43611
nt 43599
bel 43504
wollen 43493
zentrale 43452
42 43438
NS 43427
kn@@ 43408
hoher 43384
tu@@ 43380
Ausstattung 43372
Zusammen@@ 43370
starke 43353
uss 43339
wechsel 43320
vorgesehen 43311
Wach@@ 43304
Q@@ 43303
chte 43300
nieder 43286
zufolge 43270
Grafschaft 43242
44 43237
Handel 43222
Ufer 43192
kat@@ 43190
ings 43182
Bundesrepublik 43181
aktiven 43179
wirtschaftlichen 43178
Lig@@ 43176
phase 43175
Klaus 43168
tieren 43165
Bu@@ 43163
800 43156
nannte 43150
erhält 43146
Lake 43140
li 43122
Vereinigung 43121
ative 43118
ungefähr 43104
einschließlich 43097
Daten@@ 43096
könne 43072
verurteilt 43055
Arts 43019
Zivil@@ 42988
geb 42972
Ring@@ 42955
großes 42937
gaben 42928
Star@@ 42925
parallel 42913
Nicht 42901
Academy 42879
shaus 42863
Zugang 42859
Entwicklungs@@ 42853
Gut@@ 42850
ales 42840
Tar@@ 42830
Mehrheit 42827
vertrag 42826
Lö@@ 42814
Salz@@ 42790
Veranstaltungen 42789
sa 42789
Cal@@ 42788
Idee 42774
Sä@@ 42774
dis@@ 42768
37 42749
San@@ 42736
grenze 42734
Wahlen 42731
tigt 42708
Aktivitäten 42695
promovierte 42694
üt@@ 42675
unten 42674
wir 42672
ev@@ 42669
Met@@ 42665
ichen 42659
folgen 42646
Lebens 42645
ged@@ 42642
entlassen 42641
ack 42620
Monaten 42613
kten 42604
ecken 42594
Schne@@ 42587
ute 42574
international 42564
1893 42549
Ausnahme 42534
Minister 42534
weder 42524
station 42519
erk@@ 42509
ari@@ 42507
fälle 42496
Men@@ 42491
Hersteller 42490
lernte 42472
reich@@ 42423
El 42413
Theodor 42399
Wild@@ 42380
Oper 42379
Braunschweig 42375
Gemeindegebiet 42347
bahnen 42341
Dänemark 42338
Klosters 42326
sel 42304
einzelne 42300
600 42287
berichtet 42275
ängen 42270
Bernhard 42264
pol@@ 42261
Rheinland 42256
Wehr@@ 42254
unterscheiden 42247
erreichten 42245
anz 42243
Geld@@ 42239
aff@@ 42208
uch@@ 42205
Inhalt 42151
nationale 42143
Gegner 42139
Reis@@ 42134
ard@@ 42130
verpflichtet 42128
Regionen 42096
Kurt 42087
öffentlich 42078
Ba@@ 42069
Großteil 42069
möglicherweise 42056
Bil@@ 42053
1850 42045
Europameisterschaft 42043
üh@@ 42029
unden 42016
Ter@@ 42004
ck 41990
urkundlich 41970
Fuß@@ 41965
Struktur 41959
ßen 41944
mung 41888
Weibchen 41876
min@@ 41869
Türkei 41864
Mur@@ 41842
gemeinschaft 41841
ore 41822
achen 41811
Lin@@ 41788
betrachtet 41788
Bayerischen 41784
führenden 41769
Os@@ 41754
Halbinsel 41733
Infanterie 41724
Schach@@ 41724
³ 41721
versetzt 41715
1892 41694
bestätigt 41694
Gol@@ 41689
Fuß 41684
Silber@@ 41680
ganzen 41680
Fällen 41679
fs 41679
ehen 41676
Roten 41671
for@@ 41669
deutschsprachigen 41664
Ehr@@ 41660
Initiative 41660
nennt 41642
getrennt 41639
Kongress 41635
bieten 41635
1880 41611
eigenes 41582
aner 41571
sionen 41565
zeitweise 41554
Landschaft 41538
Zug 41535
bruch 41523
č@@ 41498
Errichtung 41483
Besitzer 41468
Kauf@@ 41467
Bern 41463
Europameisterschaften 41444
wies 41444
gelegentlich 41432
holte 41403
technischen 41401
Maßnahmen 41399
zieht 41396
Hir@@ 41382
abe 41372
vorher 41363
üm@@ 41361
wissenschaft 41348
Hö@@ 41343
Kammer@@ 41332
derzeit 41318
Label 41305
damalige 41280
Belgien 41261
Schmidt 41259
Kiel 41257
Ordnung 41242
Hoh@@ 41224
Königin 41223
namen 41222
Ulrich 41220
Bibliothek 41216
Rezeption 41197
ou@@ 41195
Gegen 41170
Energie 41163
außen 41163
Star 41128
Essen 41092
zig 41082
ide 41079
Bestandteil 41046
Sieg@@ 41044
öh@@ 41020
ella 41007
Gouverneur 41001
ara 40988
Versuch 40985
ve 40985
sprach 40979
Haup@@ 40972
Linien 40958
einfach 40953
Strom@@ 40951
licht 40933
cher@@ 40931
Universitäts@@ 40926
blatt 40919
ou 40917
falls 40899
kopf 40882
Wissenschaft 40877
Mos@@ 40869
Hafen 40864
kte 40864
Neue 40863
48 40860
erungs@@ 40840
plan@@ 40833
este 40821
asse 40805
dung 40790
früh@@ 40789
1885 40787
bahn@@ 40784
Netz@@ 40753
ih@@ 40753
ub@@ 40749
tungen 40739
Umwelt@@ 40728
richtung 40714
äu@@ 40710
schwedischen 40707
utz@@ 40701
Klub 40643
Kampf@@ 40639
Center 40629
miteinander 40621
stammte 40617
Untersuchung 40615
Spezial@@ 40612
Silber 40556
museum 40551
Mittel 40541
Studenten 40538
Licht@@ 40531
gl@@ 40531
1894 40527
Ritter 40522
grund@@ 40507
Han@@ 40493
Kam@@ 40465
gemeinsame 40434
erlangte 40430
witz 40428
Bronzemedaille 40419
karriere 40412
anfangs 40405
Salzburg 40400
Göttingen 40378
Group 40375
Metal 40364
ernannte 40364
1888 40347
geschlagen 40341
wa 40340
Woche 40314
lige 40314
1,5 40308
ose 40291
Sendung 40283
Förder@@ 40266
befanden 40266
sozialen 40245
verbindet 40233
enti@@ 40230
zweit@@ 40221
satz 40203
vern@@ 40186
offiziellen 40177
Ul@@ 40149
Web@@ 40128
1889 40101
acher 40097
heiligen 40087
fünf@@ 40084
bert 40077
hol@@ 40075
1874 40068
verl@@ 40061
Pflanzen 40037
istin 40032
ermöglicht 40031
ath@@ 40030
sm@@ 40013
Kriegsende 39996
wirken 39991
Science 39988
wirtschaftliche 39969
seh@@ 39961
Verfassung 39958
tierten 39951
schulen 39926
Aber 39921
Kop@@ 39902
emp@@ 39896
ül@@ 39884
trifft 39874
Zeichen 39870
leg@@ 39862
enstraße 39857
Erz@@ 39849
Football 39841
H. 39806
benannte 39797
Generation 39792
angesehen 39785
musik 39783
1930er 39776
del@@ 39776
fünften 39773
les@@ 39764
Funktionen 39745
1891 39728
Hauses 39727
39 39724
Do@@ 39708
ck@@ 39704
ologisch 39700
Material 39695
wider@@ 39685
Beg@@ 39684
druck 39684
folge 39672
Satz 39666
Variante 39662
Pil@@ 39660
dige 39658
hi@@ 39653
verg@@ 39653
Holstein 39651
Gerhard 39634
mittleren 39602
zus@@ 39586
reg@@ 39583
Druck@@ 39579
Chemie 39563
Sicherheit 39554
Gegend 39550
Kontrolle 39541
früh 39531
sagte 39526
za 39520
Plan@@ 39519
Julius 39512
Brasilien 39503
klassischen 39498
bringt 39491
Mc@@ 39474
Motor@@ 39465
welt 39462
erb@@ 39459
benachbarten 39454
Ortschaften 39440
ba@@ 39423
Mark@@ 39418
tischer 39417
Saison@@ 39382
Todes@@ 39374
uren 39370
sprechen 39364
Gem@@ 39351
bet@@ 39346
Ball@@ 39327
vierte 39320
haus@@ 39311
endgültig 39310
kammer 39306
mann@@ 39295
Show 39288
Dann 39287
bil@@ 39243
Ach@@ 39238
mehrerer 39221
Ukraine 39220
á 39219
darf 39218
Israel 39213
aut@@ 39183
ologen 39163
erter 39151
det 39129
Filmen 39118
ff 39116
Bad@@ 39102
Phase 39099
Bon@@ 39093
Nutz@@ 39091
ars 39089
Internationale 39080
Sender 39067
Medien@@ 39062
Simon 39046
schluss 39045
verbandes 39045
teile 39034
angenommen 39022
Arzt 39011
entsteht 39009
chinesischen 39008
Grab 38998
Smith 38991
Beruf@@ 38973
widmete 38973
elen 38933
vergeben 38931
sowjetischen 38918
Ob@@ 38917
Produkte 38912
Tief@@ 38907
forderte 38898
Wechsel 38895
kapelle 38881
zentralen 38880
Lu@@ 38875
lehrer 38861
Weltcup 38849
Texte 38846
bestehenden 38845
1860 38837
unabhängig 38835
scheiterte 38817
Nationalsozialismus 38815
Kir@@ 38814
Straß@@ 38813
Ph@@ 38810
Joachim 38809
ack@@ 38803
bisherigen 38795
Eing@@ 38789
Seg@@ 38773
fertiggestellt 38768
rot 38763
rich@@ 38758
industrie 38737
Volkszählung 38731
getragen 38722
Eng@@ 38704
ausen 38677
NSDAP 38665
Eduard 38663
hieß 38650
Unternehmens 38639
Vorder@@ 38633
aren 38611
Jo@@ 38601
Black 38598
kle@@ 38591
stellvertretender 38585
Lad@@ 38584
aufen 38581
Spitz@@ 38562
scheint 38553
1879 38551
legt 38542
enstein 38517
verhindern 38515
har@@ 38503
Frankfurter 38472
ā@@ 38472
Kader 38468
auten 38464
ache 38463
Studien@@ 38437
gestaltet 38432
russische 38415
ausgeführt 38411
Patienten 38410
Ster@@ 38407
gelangte 38402
tak@@ 38402
1866 38400
offizielle 38399
Orden 38393
Kun@@ 38392
ice 38382
pfen 38382
errichten 38377
Pfarrei 38376
istischer 38361
Güter@@ 38358
lungen 38348
Spieltag 38343
1500 38325
shausen 38319
tum 38316
ester 38303
tig@@ 38302
kosten 38300
existiert 38296
stück 38266
kop@@ 38261
Schließlich 38257
Gebieten 38252
geriet 38250
kleineren 38249
osen 38232
ierter 38224
Jur@@ 38221
Praxis 38219
Ritter@@ 38218
unterlag 38207
Groß 38191
entstehen 38187
sofort 38180
stehenden 38169
Industrie 38158
Historiker 38147
schaft@@ 38146
emann 38137
Einen 38109
liste 38103
enzen 38100
nahme 38084
Portugal 38068
maßnahmen 38054
italienische 38049
Lager 38043
Feld 38037
Beispiele 38036
Widerstand 38034
guten 38023
Far@@ 38015
Live 38010
Auflage 37998
Naturschutzgebiet 37998
kampf 37989
stoffe 37988
icht 37969
eingesch@@ 37960
feierte 37946
Wit@@ 37941
ergibt 37917
Arthur 37911
direktor 37904
My@@ 37895
Paar 37876
tal@@ 37874
Eisen@@ 37833
Win@@ 37820
Gemälde 37808
Konrad 37805
manchmal 37803
To@@ 37797
Krankenhaus 37784
krieg 37782
Cr@@ 37774
Test@@ 37774
kungen 37773
reihe 37770
Charakter 37751
Bro@@ 37736
isierte 37732
österreichische 37724
ville 37717
far@@ 37714
Mes@@ 37713
britischer 37709
Zusätzlich 37703
Fischer 37699
untergebracht 37692
Besonders 37687
Engagement 37685
Spe@@ 37680
wertung 37679
1875 37677
Repräsentantenhaus 37672
bed@@ 37659
elles 37632
eig@@ 37616
Publikum 37605
ni 37599
Super 37596
trag@@ 37596
off 37595
Anlagen 37594
Verhalten 37585
fabrik 37582
Vereins@@ 37574
ya 37571
Einsatz@@ 37568
sor@@ 37557
gern 37553
Zwe@@ 37545
stätten 37533
wor@@ 37524
Fluss@@ 37523
haltung 37486
englische 37474
halb@@ 37468
existieren 37448
Mühle 37432
weißen 37419
schaffte 37417
Oberliga 37412
Sonn@@ 37400
lig@@ 37397
dennoch 37394
zumeist 37381
Meister@@ 37378
ky 37348
Kölner 37341
jeden 37341
spitze 37314
lager 37312
Plan 37302
organisiert 37296
nah@@ 37294
unterricht 37292
get@@ 37283
Behandlung 37282
rot@@ 37282
sport@@ 37274
Vorbild 37268
daraus 37241
Ausdruck 37233
Junioren 37220
Poly@@ 37219
dig 37204
debütierte 37200
Verfassungs@@ 37199
Trag@@ 37196
Bauern 37191
Weiterhin 37173
bild@@ 37167
Eisenbahn 37162
Vorstand 37162
Neuen 37141
beck 37141
Bay 37126
250 37115
Bot@@ 37102
zt 37099
Bö@@ 37098
Bet@@ 37073
wand@@ 37068
klar 37062
Rest 37049
wechsel@@ 37035
1887 37015
uh@@ 37012
Eröffnung 37008
Party 37003
Sicht 37002
1867 36982
Schauspiel@@ 36981
schreibt 36981
bestanden 36979
höheren 36968
Architekt 36963
Eich@@ 36963
Angebot 36959
entwicklung 36958
Gemeinschaft 36938
Erfahrungen 36934
ls 36918
Spielklasse 36908
zumindest 36908
port 36902
41 36897
wür@@ 36893
Altar@@ 36889
Stu@@ 36888
nor@@ 36888
Operation 36887
Studio 36880
Bir@@ 36875
Š@@ 36874
umgebaut 36873
leich@@ 36869
1886 36859
Dörfer 36855
Entwurf 36855
ursprüngliche 36853
kommission 36844
ver 36824
entsprechenden 36822
Oster@@ 36821
genannte 36821
Klima 36787
produzierte 36787
Tag@@ 36780
mb@@ 36765
Arbeit@@ 36759
Fahrzeug 36755
jüdische 36754
52 36751
nutzen 36746
Internet 36735
Bol@@ 36714
Wes@@ 36708
Dorfes 36705
Person@@ 36699
anstalt 36694
erzählt 36676
ven@@ 36675
Monat 36646
Schrift 36642
The@@ 36638
43 36631
Bedingungen 36629
Verbindungen 36622
minister 36621
King 36620
weit@@ 36618
Deutscher 36607
material 36603
heim@@ 36600
oberhalb 36578
sab@@ 36572
dem@@ 36568
ms 36565
sches 36563
flug@@ 36554
unterstützte 36554
Hom@@ 36552
umgeben 36552
tatsächlich 36537
Rio 36534
120 36528
getötet 36521
Chef 36489
Bereichen 36481
Fahrer 36475
eler 36473
Dennoch 36462
Brand 36449
tz@@ 36444
Lieb@@ 36443
erer 36422
Fel@@ 36417
Fi@@ 36407
W. 36404
ehr@@ 36400
2,@@ 36387
Schwe@@ 36386
desselben 36385
Männchen 36381
Francisco 36356
gleiche 36351
körper 36332
volle 36330
Gestaltung 36297
Garten@@ 36269
Ebenso 36257
Sen@@ 36247
lau@@ 36246
Bund 36237
1872 36226
sieg 36214
Freien 36205
kaufte 36199
Ursprünglich 36192
Flügel@@ 36191
Ausbau 36189
weshalb 36183
setzten 36177
Wolf 36175
ark@@ 36160
nächste 36144
breite 36140
owski 36137
ž@@ 36132
1884 36123
ehemals 36123
komplett 36109
Schn@@ 36103
Pokal 36100
felder 36096
Stad@@ 36067
fungierte 36061
00 36057
versammlung 36048
ahr@@ 36046
Instituts 36041
Erich 36033
Río 36030
bildeten 36017
Religion 36015
Systematik 36001
Kos@@ 36000
Flucht 35995
1873 35991
schaffen 35983
ekt 35954
niederländischen 35938
technik 35937
langer 35935
lar@@ 35935
Rom@@ 35934
Ruf 35932
1868 35929
Staat@@ 35919
geweiht 35913
abl@@ 35903
studium 35898
unterschrieb 35896
Edward 35883
lauf@@ 35880
überhaupt 35874
Andere 35870
ön@@ 35844
Stellen 35834
47 35829
breiten 35826
Blut@@ 35822
basiert 35811
Augen 35803
entin 35799
gewannen 35799
Post 35797
José 35794
linien 35790
Veröffentlichungen 35787
Tanz@@ 35777
wur@@ 35765
Hilfs@@ 35762
Fund@@ 35757
Fe@@ 35756
och@@ 35756
lan@@ 35746
Software 35734
Künste 35729
Reste 35725
ther@@ 35717
Niederlande 35706
... 35700
itzer 35699
ret@@ 35678
Boden@@ 35666
eti@@ 35655
Viertelfinale 35650
reise 35639
bew@@ 35637
rad@@ 35632
Grenzen 35631
onalen 35582
Lauf@@ 35574
lebens@@ 35565
io 35564
kreuz 35564
aben 35554
bas@@ 35544
gründen 35542
punkte 35514
womit 35494
Zukunft 35482
wer 35482
Sängerin 35477
old 35475
ass 35458
Orten 35452
Vielzahl 35437
Adam 35429
reiche 35429
era 35427
Kassel 35422
mu@@ 35421
ähnliche 35412
garten 35402
Denkmal 35391
1881 35385
1882 35380
Char@@ 35339
hören 35338
lehrte 35328
Ziel@@ 35327
Don 35318
Behörden 35305
uss@@ 35293
bauen 35291
Mac@@ 35275
Münchner 35273
issen 35261
51 35257
schi@@ 35254
Au@@ 35249
Reaktion 35246
su@@ 35233
Mathematik 35230
Augen@@ 35222
States 35216
Herbert 35202
Norwegen 35196
Verein@@ 35191
Würzburg 35185
lokalen 35168
Gemeinderat 35130
beigesetzt 35120
1920er 35087
struktur 35078
straßen 35061
bu@@ 35044
uch 35042
Op@@ 35039
49 35038
einiger 35038
ov 35033
staatlichen 35018
ppen 35014
aktive 35012
Neb@@ 35004
Woiwodschaft 34990
Kaiser@@ 34988
Ordens@@ 34974
allgemein 34966
verwendete 34950
stell@@ 34947
bestehende 34923
werk@@ 34906
Schiff@@ 34896
Maschinen 34873
beschäftigte 34872
Alten 34866
Magdeburg 34865
1883 34859
ari 34849
zeichnete 34833
1878 34829
Don@@ 34828
Blüten 34819
Leistungs@@ 34807
dor@@ 34804
ände 34804
Kranken@@ 34799
ierungs@@ 34779
Hu@@ 34773
Schlag@@ 34773
Sim@@ 34772
lautet 34768
sä@@ 34768
Rollen 34767
Route 34767
erscheinen 34761
46 34760
baus 34756
ellen@@ 34747
Zuschauer 34737
Bronze 34726
grün@@ 34713
Vergangenheit 34706
Farbe 34700
Zweit@@ 34680
Ti@@ 34668
wahlen 34657
sa@@ 34626
icht@@ 34625
fte 34624
Street 34617
0@@ 34610
Waffen 34608
Posten 34603
Modelle 34600
vereins 34600
notwendig 34596
ungs 34557
Bühne 34554
Organisationen 34553
pro@@ 34548
tive 34537
verein@@ 34534
behandelt 34528
ks@@ 34523
Auszeichnung 34521
moderne 34519
geleitet 34516
Luft 34515
ausgebaut 34506
ausschuss 34474
Mikro@@ 34472
fragen 34470
Senat 34466
1876 34461
Denkmalschutz 34447
gebieten 34440
veröffentlichten 34436
ea 34433
wichtigen 34431
üblich 34407
liga 34404
Gründer 34403
1861 34391
Pop@@ 34390
verfügte 34352
dürfen 34347
Neur@@ 34338
Etwa 34333
siegte 34332
Festung 34320
Wunsch 34320
kow 34298
holz 34288
Anerkennung 34285
Video 34280
Mensch 34273
ord@@ 34271
verhaftet 34247
Methode 34246
nungs@@ 34243
Medi@@ 34232
privaten 34223
nachgewiesen 34211
anders 34210
Gesundheits@@ 34206
Problem 34206
unde 34206
bezieht 34196
Nachbar@@ 34193
Zweck 34192
ilen 34186
Flugzeug@@ 34185
militärischen 34170
rück@@ 34168
app@@ 34163
Beh@@ 34162
Metall@@ 34160
Ruhestand 34158
Cas@@ 34151
ändern 34150
tlichen 34140
appen 34121
Tages@@ 34119
natur@@ 34106
Standard@@ 34084
Geheim@@ 34068
ast 34056
Übersetzung 34055
erworben 34052
Kron@@ 34043
bern 34042
grün 34037
iß@@ 34022
machten 34014
ften 34013
tigung 33990
christlichen 33987
Lösung 33984
gemeinde 33975
beschlossen 33971
fortan 33957
braun 33955
arbeit@@ 33942
Sche@@ 33934
bal@@ 33927
Studie 33915
Anhalt 33911
Jazz@@ 33891
gegangen 33866
Arbeiter@@ 33862
Gest@@ 33851
Verkauf 33841
schwarz 33830
behörde 33822
einz@@ 33819
flügel 33819
eingegliedert 33814
ena 33805
1869 33801
Pres@@ 33798
Aut@@ 33796
selbst@@ 33795
egel 33792
netz 33790
fielen 33787
igung 33785
anhand 33772
Alten@@ 33762
bedeutende 33756
ses 33754
ausbildung 33753
Kirchengemeinde 33749
Parte@@ 33749
Gener@@ 33742
deten 33737
technische 33737
85 33735
Bü@@ 33729
Erwähnung 33717
France 33709
Fort 33693
Massen@@ 33693
Rö@@ 33693
Aachen 33689
eigener 33685
ee 33682
stärker 33675
Niedersachsen 33673
ahl 33663
anlässlich 33663
regierung 33662
Rem@@ 33658
E. 33657
Baureihe 33645
nis@@ 33645
elli 33637
1864 33636
erhöht 33631
mis@@ 33629
Herr@@ 33623
zweif@@ 33622
Datum 33617
Red 33614
Jagd@@ 33612
iste 33609
Sü@@ 33583
ili@@ 33576
Volk 33569
Sonnen@@ 33565
Stefan 33562
schlossen 33551
abgerissen 33548
Gro@@ 33545
beschloss 33538
10.000 33532
Ziele 33519
bt 33518
neu@@ 33508
nämlich 33508
oper@@ 33498
Jürgen 33492
Afrika 33488
95 33487
Gemeinsam 33478
Töchter 33462
Mary 33461
unterscheidet 33453
Farben 33440
Frieden 33437
Silbermedaille 33433
Ras@@ 33428
inner@@ 33425
schwere 33418
Inschrift 33401
Marke 33401
zul@@ 33400
1865 33395
setzung 33391
net 33385
ys@@ 33381
ika 33380
jener 33376
Dek@@ 33347
Einer 33344
Erster 33341
Mis@@ 33336
oni 33333
schn@@ 33332
Final@@ 33325
Tübingen 33290
ł@@ 33279
schiffe 33274
ote 33273
runde 33264
Licht 33255
Kombination 33252
ali@@ 33252
beendet 33240
ermöglichen 33239
inge 33236
rit@@ 33236
sozial@@ 33231
Insbesondere 33229
ausgestrahlt 33212
Garten 33193
Reiches 33184
Priester 33178
1815 33175
Albrecht 33172
Entfernung 33172
Kopf@@ 33163
mat@@ 33162
1862 33153
amp@@ 33146
Einzel 33127
ure 33119
1877 33116
Kanal 33107
Kul@@ 33105
ierenden 33102
Fernsehserie 33091
sicher 33088
bad 33084
Online 33080
film@@ 33064
wissenschaftlicher 33057
Allgemeinen 33046
aufge@@ 33042
Lor@@ 33039
Prix 33037
1849 33031
hierbei 33027
Hause 33026
Design 33020
n. 32994
Texas 32986
fort@@ 32985
aft 32975
Pfe@@ 32959
angebracht 32954
Sekunden 32942
Kapit@@ 32935
Kabinett 32933
Plätze 32923
0,@@ 32922
Neustadt 32920
Antonio 32911
stes 32895
zeug@@ 32889
Hauptrolle 32888
Kommandeur 32885
Herausgeber 32881
Seinen 32872
Thüringen 32872
Graz 32868
aktion 32863
Dach 32862
Kran@@ 32855
Magazin 32850
sal@@ 32849
trafen 32847
echt 32844
Amsterdam 32841
Lokomotiven 32832
Mecklenburg 32817
Regionalliga 32815
schreiben 32813
oll@@ 32798
Maschine 32797
Biografie 32792
lung 32790
Gründungs@@ 32788
Sin@@ 32783
Gor@@ 32778
ah 32776
insel 32764
Drittel 32761
Bericht 32750
res@@ 32750
begrenzt 32747
entsprechende 32723
kunst 32706
verstärkt 32703
lat@@ 32680
engagierte 32676
Und 32670
Niederlanden 32667
Staates 32633
2,5 32630
54 32622
bezirk 32607
teln 32597
buch@@ 32595
kas@@ 32578
Journalist 32576
Krieg@@ 32569
seither 32562
Suche 32561
solchen 32557
Siedlungs@@ 32555
reiste 32553
zeich@@ 32551
wärts 32543
teilung 32537
Partner 32532
fall@@ 32532
Bevölkerungs@@ 32531
rates 32520
iv@@ 32504
tert 32498
Auto 32490
kW 32488
ath 32473
soziale 32459
tiges 32454
manns 32453
Stimme 32444
sche@@ 32442
Menge 32440
si 32435
Landgemeinde 32430
tis 32426
Fraktion 32421
Dampf@@ 32402
zweier 32389
inger@@ 32384
brachten 32371
Technischen 32368
verz@@ 32363
Wehrmacht 32357
höhere 32354
Lee 32351
abgesch@@ 32345
entwickelten 32334
Übernahme 32317
ala 32316
hand@@ 32310
Zwischen@@ 32308
Mühl@@ 32307
ac 32294
enfeld 32292
Ku@@ 32283
Pläne 32282
Lag@@ 32274
Hochschul@@ 32270
Unabhängigkeit 32269
enhaus 32257
projekt 32248
entschieden 32244
its 32233
tiv@@ 32232
Veränderungen 32231
offenen 32227
ling@@ 32219
Projekte 32216
Tu@@ 32205
uns 32198
Karlsruhe 32191
durfte 32190
eckt 32190
änderte 32178
infolge 32175
eff@@ 32165
kreis@@ 32164
Erweiterung 32163
fähigkeit 32160
stedt 32156
ographie 32154
Ausstellungen 32145
Altstadt 32140
ien@@ 32140
Vel@@ 32129
enbach 32127
Stil@@ 32125
leit@@ 32122
Jungen 32121
Standard 32117
Darmstadt 32116
− 32103
Nationen 32092
aj@@ 32086
mittlere 32078
Siegen 32071
Management 32066
werte 32048
nungen 32044
Partien 32032
Arbeiter 32013
Assistent 32009
Sz@@ 32009
tlich 31995
wi@@ 31995
bacher 31994
Gipfel 31982
Leg@@ 31979
Amateur@@ 31959
ha@@ 31951
sport 31942
Königs@@ 31930
D. 31913
Güter 31909
Hugo 31902
größer 31899
Energi@@ 31894
op 31892
etz 31885
KZ 31876
prozess 31864
weiten 31859
heit@@ 31858
Abstand 31857
akademie 31857
Studi@@ 31836
du@@ 31835
Wohnung 31829
Co. 31827
Leichtathletik 31824
anzen 31807
Brenn@@ 31805
verbindung 31801
mes@@ 31795
ros@@ 31793
gefähr@@ 31784
zone 31766
Medaille 31763
Flügel 31756
definiert 31756
Botschafter 31753
Physik 31745
Wesentlichen 31739
kräfte 31734
gabe 31732
Gau@@ 31727
Lind@@ 31727
entwickeln 31726
akt 31719
tt@@ 31699
bilder 31694
Panzer@@ 31684
gezählt 31683
titel 31673
erei 31661
tä@@ 31657
Can@@ 31646
Tom 31638
Besucher 31630
Quer@@ 31621
mark 31620
Chi@@ 31619
wel@@ 31619
etzen 31617
vorgestellt 31617
Beiträge 31616
möglichst 31615
Pro 31604
Tempel 31598
Hill 31590
Ka@@ 31588
Mutter@@ 31586
einst 31586
handel 31579
Start@@ 31571
Zahlen 31568
Len@@ 31567
stil@@ 31563
erfolgten 31560
digung 31549
Kandidaten 31539
Mission 31503
Saisonende 31486
wil@@ 31478
Offizier 31474
begleitet 31472
zugänglich 31471
Wa@@ 31469
Mand@@ 31462
Wur@@ 31458
pu@@ 31458
bedingt 31457
Gruppen@@ 31445
Donau 31444
Tak@@ 31436
Minute 31432
chs 31429
änden 31426
vorbei 31425
Gefängnis 31392
abge@@ 31390
Wander@@ 31388
Besatzung 31387
bereit 31386
höher 31385
Sti@@ 31383
Stern 31377
wissenschaftler 31373
bei@@ 31372
ständig 31370
atische 31357
eit@@ 31353
brechen 31347
Kommando 31339
stücke 31339
sucht 31338
Has@@ 31334
Spi@@ 31333
amen 31320
Orchester 31319
Oscar 31315
Anspruch 31305
Geschichts@@ 31299
Bildhauer 31298
bund 31287
e. 31286
Malerei 31268
Gewinn 31267
viel@@ 31255
Volk@@ 31252
wirkt 31248
Promotion 31246
Flotte 31241
traditionellen 31240
ock 31239
terin 31232
kultur 31224
Baron 31218
nummer 31216
Stücke 31196
Boh@@ 31194
Al 31192
ren 31192
psych@@ 31181
räume 31181
bahnhof 31167
lad@@ 31151
Ap@@ 31148
dienten 31144
Plat@@ 31135
offen 31135
verändert 31134
zeugen 31127
1863 31124
bücher 31124
yn@@ 31119
sich@@ 31117
Klein 31114
Griechenland 31104
Augsburg 31102
fen@@ 31102
Krone 31097
möglichen 31090
Unternehmens@@ 31081
städtischen 31080
Gran@@ 31071
verlängert 31060
Schnell@@ 31056
Anhänger 31055
Best 31052
Eingang 31050
errichteten 31039
56 31034
ös@@ 31034
eigenständige 31031
zy@@ 31028
Venedig 31027
Vorkommen 31020
Funde 31014
meisterschaft 31014
Master 31006
gebietes 31005
Sem@@ 31004
Front 31002
bedingungen 30997
Sy@@ 30992
verlauf 30982
verboten 30969
Chem@@ 30966
einheiten 30964
1800 30955
evangelischen 30955
solcher 30939
Komponisten 30936
Lam@@ 30924
übernehmen 30910
führende 30904
Jan@@ 30902
ong 30898
Planung 30891
iter 30890
G. 30878
reifen 30877
Geg@@ 30869
Major 30868
Awards 30851
Höhen@@ 30844
Van 30843
Alters@@ 30840
Ensemble 30814
amm 30802
äm@@ 30799
Prinz 30797
bergs 30792
Anwesen 30791
Bauwerk 30791
Netz 30791
Religions@@ 30779
dänischen 30778
tz 30770
Ägypten 30768
drei@@ 30748
eingeweiht 30726
Reb@@ 30725
arbeiteten 30718
Brief 30717
isse 30701
bü@@ 30700
militärische 30699
SA 30698
ders 30696
Führ@@ 30695
F. 30681
fel@@ 30677
miss@@ 30658
Stand@@ 30656
Bri@@ 30649
könnten 30648
Freiheit 30646
ältere 30636
Dam@@ 30633
schlag@@ 30618
ir 30607
Expedition 30606
bezeichnung 30602
Krankheit 30593
auff@@ 30588
bewer@@ 30584
betreibt 30553
ada 30552
gedreht 30548
Ferner 30543
iler 30542
amm@@ 30541
größe 30536
R. 30530
kreuz@@ 30523
Milliarden 30522
Rathaus 30518
Polizei@@ 30517
beschädigt 30516
53 30507
verteilt 30504
Pot@@ 30502
Mach@@ 30500
ader 30494
Prot@@ 30483
Ehren 30464
ě@@ 30458
ast@@ 30453
ds 30448
ud@@ 30448
Gewalt 30428
Sto@@ 30427
1856 30424
wettbewerb 30419
heimer 30417
länger 30411
bayerischen 30410
bor@@ 30408
Co 30404
Hier@@ 30399
Dissertation 30386
frühere 30379
Drehbuch 30376
hl 30368
mach@@ 30360
haften 30353
Altar 30348
tende 30348
mehrmals 30347
Prim@@ 30337
Ereignisse 30336
arzt 30332
Kro@@ 30330
port@@ 30330
wandte 30327
paar 30323
inneren 30317
erlaubt 30308
bekanntesten 30303
geblieben 30298
enge 30294
Blick 30280
einheit 30275
zusätzliche 30275
Baus@@ 30269
son@@ 30260
Leh@@ 30242
staatliche 30234
Meinung 30228
Grad 30225
Besitz@@ 30221
Auftritt 30218
Frau@@ 30218
Methoden 30214
bibliothek 30206
ita 30203
übersetzt 30200
Geburt 30183
sonst 30181
Dichter 30177
artige 30176
ce 30176
Ther@@ 30172
Bos@@ 30161
Freunde 30156
alisierung 30154
Gesang 30146
anerkannt 30142
nde 30133
Geschäftsführer 30132
Informations@@ 30131
recht@@ 30130
Boston 30129
ausgebildet 30117
horn 30104
Vier 30094
ille 30089
Tel@@ 30088
anischer 30086
Modus 30084
Tan@@ 30082
prüfung 30079
72 30050
att@@ 30044
beeinflusst 30043
Wissenschaftler 30040
ida 30035
Pat@@ 30033
seg@@ 30027
Weltmeister 30025
Je 30022
stände 30012
Nachfolge 30007
Strecken@@ 30003
57 29993
Mak@@ 29986
systeme 29984
Fassung 29983
Der@@ 29981
Irland 29981
ma@@ 29969
Preis@@ 29954
lig 29941
Mont@@ 29930
westliche 29925
Eg@@ 29913
Wor@@ 29907
Mannheim 29903
tag@@ 29899
Wege 29886
à 29881
Bran@@ 29878
erie 29876
Gefahr 29868
artigen 29864
partei 29862
Höh@@ 29861
Viertel 29857
boden 29856
Ham@@ 29845
Mündung 29842
steigen 29840
tur 29830
Gebäudes 29829
beteiligte 29828
Dortmund 29824
Helmut 29820
gut@@ 29820
isti@@ 29812
Unterschied 29810
hofen 29806
wiesen 29802
eth@@ 29786
ft@@ 29781
Vorgänger 29780
wachsen 29773
angeschlossen 29769
Kindheit 29763
ahn 29759
rä@@ 29746
Kenn@@ 29745
fällen 29743
Systems 29742
erfolgreichen 29732
Sozi@@ 29729
gesprochen 29729
nes 29726
up 29713
Kupfer@@ 29710
Register 29709
läuft 29708
Play 29697
Verhandlungen 29694
überliefert 29693
Tourismus 29689
Fal@@ 29688
1840 29683
italienischer 29676
rein 29674
Pariser 29659
NGC 29653
Rumänien 29652
schle@@ 29652
unterschieden 29640
Oberfläche 29628
Normal@@ 29627
bs 29627
wiederholt 29610
nte 29601
stattdessen 29601
ku@@ 29596
Exemplare 29591
Ble@@ 29579
ils 29579
ny 29572
Morgen 29567
Thi@@ 29564
gelangen 29560
Rostock 29551
richtete 29542
ergänzt 29541
sk 29539
fein@@ 29533
Qualität 29524
träger 29509
Les 29507
Herren@@ 29506
Force 29504
Wechsel@@ 29489
Rede 29488
Bestand 29487
Schrift@@ 29487
sam@@ 29486
ütz@@ 29477
Service 29473
zäh@@ 29472
Hitler 29465
laufen 29465
Kilometern 29462
besonderen 29460
Back@@ 29447
festgelegt 29441
Pin@@ 29433
Breslau 29421
gef@@ 29420
Sebastian 29418
rö@@ 29417
evangelische 29408
Kreises 29400
Pen@@ 29394
Flächen 29382
Barbara 29378
Hierbei 29377
Nationalsozialisten 29374
erheblich 29371
hielten 29349
fri@@ 29346
frag@@ 29344
Computer@@ 29331
Haf@@ 29330
fal@@ 29318
herr@@ 29316
Jena 29315
71 29312
vol@@ 29309
Mailand 29305
Ot@@ 29304
Tabelle 29297
Singles 29294
sicherte 29293
grad 29289
Führungs@@ 29285
ona 29285
letztlich 29284
Barcelona 29278
1859 29277
Südafrika 29268
nten 29262
estr@@ 29253
1.@@ 29249
Schiffs@@ 29240
grund 29236
schicht 29219
Objekt 29216
Big 29214
04 29213
nissen 29213
Klavier@@ 29209
iss 29209
Schil@@ 29206
aktuellen 29204
edi@@ 29200
Englisch 29199
benötigt 29194
ager 29192
Lebensweise 29188
Ram@@ 29188
NHL 29185
Übergang 29182
Abgeordneten 29177
schützen 29166
verletzt 29158
Ursprung 29156
Zentr@@ 29153
Amerika 29152
gänge 29152
pos@@ 29151
Unterricht 29148
Herzogtum 29141
Ly@@ 29134
Williams 29125
Jones 29121
engl 29101
Nah@@ 29099
ege 29093
Mass@@ 29089
Konzerte 29087
Bord 29086
Lok@@ 29086
eis@@ 29080
Psych@@ 29079
nischen 29079
Werte 29073
No@@ 29072
tenberg 29072
Baum@@ 29062
700 29056
achte 29050
zehn@@ 29047
verzeichnet 29041
58 29033
yr@@ 29030
Prinzip 29029
Aussage 29025
ting 29023
Konstruktion 29018
beschrieb 29018
igem 29018
Ausbildungs@@ 29016
private 29016
Tokio 29012
ba 29007
ges 28997
66 28996
You 28988
1806 28986
unterschiedlich 28985
Möglichkeiten 28972
bereiche 28956
Funk@@ 28951
Heimatstadt 28947
Gottes 28938
maximal 28931
oten 28930
Ah@@ 28928
mittelalterlichen 28925
adi@@ 28918
Matthias 28911
ichten 28909
änder 28907
Leopold 28899
Fahrzeug@@ 28898
allgemeinen 28895
Verteidigung 28873
Wetter@@ 28873
weiler 28872
Sul@@ 28868
not@@ 28866
ode 28850
nutzte 28849
diesmal 28841
unterstützen 28839
Lübeck 28831
Jack 28822
beobachtet 28814
kanadischen 28813
bogen 28800
Franzosen 28795
litz 28791
flug 28772
partner 28760
übergeben 28754
ermittelt 28750
Fort@@ 28746
siert 28739
Pass@@ 28734
Nikolaus 28728
Regel@@ 28723
isl@@ 28719
Columbia 28715
art@@ 28704
national@@ 28699
isierten 28697
platte 28681
errang 28661
Brut@@ 28653
bus@@ 28649
zel 28647
bekommen 28646
Inn@@ 28643
Roman@@ 28639
Umbau 28635
örtlichen 28634
türkischen 28633
elt@@ 28623
ufen 28623
baum 28621
SG 28616
Kunden 28604
East 28595
speziell 28594
Persönlichkeiten 28590
Bern@@ 28583
Reformation 28576
vollen 28574
ock@@ 28567
Somit 28563
Premierminister 28560
eg 28556
Weiler 28554
mäch@@ 28550
Dol@@ 28540
Schwarz 28531
ori@@ 28530
96 28526
Mount 28519
bem@@ 28510
Madrid 28509
politischer 28508
ücken 28501
europäische 28499
Rücktritt 28497
wirkung 28497
Corps 28487
sam 28484
Bands 28480
Dec@@ 28478
terung 28475
kw@@ 28474
Strecken 28470
Ansicht 28468
saß 28466
nern 28449
Verlängerung 28443
mag@@ 28429
ci@@ 28428
Unternehmer 28427
05 28422
Son@@ 28416
Kommun@@ 28413
Völker@@ 28413
Kamera 28404
ga 28404
siedlung 28399
uer@@ 28397
eden@@ 28391
Mik@@ 28371
alm@@ 28358
organisierte 28349
oph@@ 28348
annten 28346
Interessen 28345
darstellt 28333
unbekannt 28321
Höhepunkt 28316
Umsetzung 28315
Wür@@ 28308
63 28307
hab@@ 28299
förmig 28297
Kern 28292
blätter 28286
wahr@@ 28286
utsch@@ 28283
mitglieder 28273
geringen 28265
Fassade 28261
untersucht 28257
Fried@@ 28253
Alte 28246
Rek@@ 28238
atur 28235
regionalen 28229
Pri@@ 28226
lehre 28223
unternahm 28219
Weiter@@ 28206
eingemeindet 28197
gelegen 28197
erinnen 28195
Nachkommen 28187
Patr@@ 28184
einfachen 28182
ame 28178
Emil 28169
Bachelor 28167
Europas 28161
sub@@ 28161
Beteiligung 28160
bre@@ 28158
Weiß 28148
tors 28146
reichte 28141
Streit 28139
ierende 28139
Gewicht 28131
Kli@@ 28120
Ring 28119
ř@@ 28091
Brief@@ 28088
gestorben 28085
Presse 28082
59 28076
62 28069
Bauten 28067
Diplom 28058
schnitt 28058
Joe 28049
diverse 28046
roten 28046
jüngeren 28038
Modell@@ 28029
Ra@@ 28015
wär@@ 28015
Bauern@@ 28013
größtenteils 28013
Sur@@ 28006
onn@@ 28004
Zahn@@ 27998
ost 27998
üs@@ 27995
stand@@ 27986
unterrichtete 27984
ähnlichen 27983
Brown 27982
Synagoge 27978
sitz@@ 27974
qualifizierte 27973
Wagner 27971
08 27964
kap@@ 27943
gearbeitet 27942
Juan 27932
linge 27918
sbach 27916
hauses 27914
rats 27905
Edel@@ 27901
Hein@@ 27899
Hem@@ 27895
schwarzen 27895
1855 27888
letzter 27883
Hen@@ 27881
Stadtgebiet 27879
Positionen 27874
gefangen 27870
stufe 27870
1857 27866
aufgegeben 27864
nig 27864
ras@@ 27864
Umfang 27858
2.@@ 27857
ausgewiesen 27856
bin 27855
Militär 27851
Stationen 27843
oz@@ 27843
Szenen 27840
Loh@@ 27838
Erhebung 27837
aufnahmen 27834
täglich 27834
Bruch@@ 27833
1854 27827
pen 27826
Grünen 27824
Gemarkung 27823
sechsten 27823
wichtiger 27818
Alpen 27813
Varianten 27811
Feuer 27803
ca 27802
hundert 27801
usch@@ 27800
saal 27798
unterteilt 27798
Albums 27797
dreimal 27791
1830 27789
andererseits 27786
lebenden 27785
ister 27784
modell 27783
Premiere 27777
inde 27763
e.V. 27761
Abt 27755
Gegenwart 27754
atur@@ 27752
Glocken 27749
Männern 27744
ausstellung 27744
Spar@@ 27740
unterstellt 27730
abhängig 27725
datiert 27724
Bundesstraße 27716
mel 27713
09 27712
Küsten@@ 27707
wissenschaften 27706
Goldmedaille 27704
hinter@@ 27699
hel@@ 27696
got@@ 27690
Seitdem 27689
dungen 27674
Evangelischen 27664
vertrieben 27659
Trieb@@ 27658
Regeln 27657
Mad@@ 27651
derselben 27651
Series 27634
ato 27632
Nationalpark 27626
beider 27618
techn@@ 27613
Fin@@ 27608
Ann@@ 27606
fenster 27598
Virginia 27588
bauer 27588
thal 27585
Arnold 27557
atz 27544
auch@@ 27542
Plänen 27541
einerseits 27534
Original@@ 27532
Kollegen 27530
anen 27530
wert@@ 27527
Herr 27522
Definition 27510
Potsdam 27508
Kapitän 27505
Eber@@ 27495
Zwar 27495
lehr@@ 27492
Gottfried 27490
Ing@@ 27483
Meyer 27479
Lü@@ 27466
kin 27463
äten 27463
Research 27461
Sir 27460
hängt 27454
suchen 27448
Jurist 27447
Flu@@ 27446
Bucht 27429
tief 27422
Rand@@ 27418
abgelöst 27415
3000 27413
positiv 27397
ange 27394
mögliche 27391
Zus@@ 27390
Einsätzen 27380
European 27377
Innerhalb 27377
Quell@@ 27376
Navy 27375
1858 27368
On@@ 27363
q@@ 27363
ish@@ 27356
ott 27339
onien 27329
tief@@ 27328
ym@@ 27327
ografie 27317
erlebte 27316
Zweiter 27304
flü@@ 27290
geschäft 27284
Hau@@ 27282
1852 27278
Botschaft 27278
Harry 27278
Kammer 27274
Nahrungs@@ 27271
Tschechien 27271
Witwe 27269
Regensburg 27241
maschinen 27240
aug@@ 27233
1803 27232
umgewandelt 27227
Tau@@ 27223
Red@@ 27216
mün@@ 27208
sächsischen 27208
Pos@@ 27203
esti@@ 27202
las 27197
Art. 27187
etc. 27183
hren 27183
etes 27175
Petersburg 27167
fern@@ 27167
Lord 27162
abel 27153
Schottland 27151
Athen 27145
Typs 27144
halt 27142
sang 27138
Justiz@@ 27133
Love 27130
engen 27128
Jahrzehnten 27127
François 27126
hier@@ 27125
Verteidigungs@@ 27124
lehnte 27119
Bundeswehr 27118
offenbar 27117
hell@@ 27103
P. 27102
wählte 27100
Dieter 27099
sichtbar 27094
Team@@ 27084
ip@@ 27080
chi@@ 27079
fahrten 27077
Publikationen 27063
erforderlich 27057
aufgeteilt 27053
61 27051
pa 27051
Bog@@ 27050
hu@@ 27049
Sinn 27047
egel@@ 27039
Museums 27032
Trennung 27028
orf 27015
Monuments 27014
reisen 27009
Rich@@ 26999
ahl@@ 26999
Rot 26997
legung 26990
Rechtsanwalt 26987
Maschinen@@ 26983
Bereiche 26980
geändert 26979
Jedoch 26972
gründeten 26956
olen 26956
menge 26950
Tunnel 26949
keits@@ 26947
arr@@ 26945
Tom@@ 26944
maschine 26941
vermutet 26934
Zuvor 26933
ball 26933
Florida 26926
Küh@@ 26918
einander 26916
co 26905
Rod@@ 26889
Streitkräfte 26885
sorgte 26877
Dat@@ 26874
Carolina 26863
verkehrs@@ 26860
bedeutendsten 26847
kenn@@ 26842
Auftritte 26839
Earl 26836
Spitzen@@ 26834
Studenten@@ 26832
One 26828
shof 26827
67 26822
Bank@@ 26821
itäts@@ 26821
älter 26814
standes 26812
welt@@ 26806
kunde 26805
68 26803
äus@@ 26803
ifen 26794
nam@@ 26784
Deshalb 26783
maßgeblich 26781
teilte 26772
wan@@ 26769
í@@ 26764
gegliedert 26763
Championship 26759
Dynastie 26757
Innsbruck 26755
aturen 26752
polnische 26749
Fels@@ 26735
richter 26725
ogen@@ 26715
Konflikt 26714
enheit 26714
integriert 26714
Träger 26711
hafte 26709
DVD 26703
turen 26702
wichtigste 26695
mak@@ 26694
Bür@@ 26690
Kinos 26689
mas@@ 26682
Nar@@ 26680
Ok@@ 26678
Neu 26671
gerufen 26671
owitsch 26668
Mah@@ 26660
White 26658
platten 26656
plätzen 26650
Inneren 26647
Ausgaben 26637
Bach@@ 26636
Systeme 26625
sech@@ 26625
Rel@@ 26624
Neuseeland 26620
Schwierigkeiten 26617
wollten 26613
onischen 26610
ander@@ 26604
Sprecher 26597
ø@@ 26595
Karte 26590
stehende 26588
vorhandenen 26585
dec@@ 26579
indi@@ 26579
ungsh@@ 26579
mar 26575
atr@@ 26574
Ju@@ 26573
Schneider 26565
99 26561
Leipziger 26558
EM 26557
Mün@@ 26556
keit 26550
Ernennung 26548
Erscheinung 26547
Parti@@ 26546
halle 26530
Pul@@ 26525
sek@@ 26525
Mod@@ 26519
owa 26518
entspringt 26517
Samuel 26513
Fas@@ 26509
betriebe 26507
ink@@ 26501
ergeben 26496
leb@@ 26496
bes 26495
übte 26491
Bat@@ 26489
steig@@ 26489
Č@@ 26489
Schloss@@ 26487
kern 26481
eder@@ 26473
Versionen 26470
idi@@ 26467
Western 26459
eingebaut 26454
Eigentümer 26453
Beitrag 26440
Transport 26440
Wissen 26440
Hus@@ 26438
1845 26427
zeichnet 26418
Pa@@ 26415
atischen 26413
Landkreises 26412
direkte 26412
Will@@ 26410
trainer 26410
ement 26409
indischen 26397
Famili@@ 26387
lam@@ 26387
haf@@ 26386
stil 26384
Argentinien 26380
Jacques 26360
mauer 26356
aun@@ 26342
ech 26339
Ski@@ 26330
enstr@@ 26329
theit 26329
Wales 26328
1818 26325
ius 26322
nische 26321
Original 26319
wen@@ 26316
beig@@ 26315
Analyse 26306
Ta@@ 26294
gefördert 26294
version 26289
Rechtswissenschaften 26286
aur@@ 26283
tun 26283
let@@ 26280
Wag@@ 26277
tenden 26269
lein 26265
reduziert 26259
Hy@@ 26257
zin@@ 26252
ul 26250
Felix 26248
erfolgen 26247
76 26245
zes 26238
direkten 26237
eil@@ 26237
Mittelpunkt 26235
orn 26233
St.-@@ 26225
menschlichen 26225
IV 26224
Ehemann 26220
tik@@ 26219
ands 26217
alg@@ 26210
lass@@ 26210
Zo@@ 26207
Urkunde 26199
Änderungen 26197
fes@@ 26195
Abend 26186
Wo@@ 26184
Regen@@ 26181
viertel 26177
Den@@ 26163
Eck@@ 26161
Lat@@ 26151
Scott 26150
Studiums 26148
herrschaft 26143
haft 26138
Geschwindigkeit 26137
Mauer 26133
Anne 26126
eigentlichen 26125
Mul@@ 26096
satz@@ 26094
Dro@@ 26092
ossen 26089
fes 26083
Ü@@ 26079
1851 26069
kündigte 26069
unbe@@ 26061
kritisiert 26049
Vorsitzende 26045
Komposition 26036
Herz 26031
Indi@@ 26028
la@@ 26026
derung 26022
ʿ@@ 26010
engagiert 26008
bedient 26007
Kathedrale 25990
bezüglich 25968
Wohl@@ 25963
nden 25962
Hall@@ 25956
Horst 25928
Sonne 25927
Kolonial@@ 25925
off@@ 25923
Heer 25922
verbindungen 25922
Hügel 25920
Jacob 25913
Fri@@ 25909
eingetragen 25902
gar@@ 25893
é@@ 25888
Massachusetts 25880
besucht 25878
Einsätze 25877
kurzer 25877
Ersatz@@ 25872
stattfand 25867
Wies@@ 25866
sburg 25866
fried@@ 25856
tik 25854
Arn@@ 25851
Autobahn 25851
sl@@ 25846
Siedlungen 25839
Bis@@ 25832
esten 25832
gefertigt 25827
Schritt 25805
zugunsten 25796
kapit@@ 25786
Kaufmann 25783
verpasste 25781
Gitarre 25779
spät@@ 25774
steine 25774
1813 25773
digt 25770
verbände 25770
Kad@@ 25766
Veranstaltung 25755
Bergen 25753
ont@@ 25747
Giovanni 25742
voneinander 25741
Lehrstuhl 25738
Onkel 25733
starben 25730
bedeutenden 25728
digten 25728
ra@@ 25724
kämpfte 25718
Katharina 25716
1847 25709
bezogen 25706
Marin@@ 25705
Provinzen 25705
australischen 25704
Marburg 25700
Erstmals 25697
versorgung 25697
met@@ 25696
dig@@ 25683
küste 25678
Existenz 25675
Begriffsklärung 25665
berichtete 25651
möchte 25651
Österreichischen 25645
Central 25641
artig 25641
sz@@ 25640
historiques 25637
Pennsylvania 25632
Castle 25631
ain 25622
persönlichen 25621
Na@@ 25620
enth@@ 25607
finanziellen 25606
nennen 25604
pass@@ 25602
höhe 25601
enten@@ 25598
gerät 25597
ede 25593
L. 25589
Versorgung 25580
Nordamerika 25578
ebr@@ 25578
zugelassen 25574
07 25572
then 25572
Army 25570
Gesetz@@ 25563
seln 25559
rennen 25558
verlief 25558
verwendeten 25552
88 25548
Misch@@ 25537
freier 25535
Französischen 25526
Verkehr@@ 25525
1816 25519
hierfür 25516
Dietrich 25513
verstanden 25504
Macht@@ 25503
Trier 25503
sum@@ 25496
Budapest 25491
weiße 25491
steigt 25487
nete 25483
74 25482
Auswirkungen 25482
japanische 25482
zur@@ 25481
verantwor@@ 25476
Instrument 25474
Hauptort 25473
Charakter@@ 25468
einfache 25466
1846 25464
Olympi@@ 25458
Fürsten 25450
nochmals 25448
Doktor@@ 25446
englisch 25443
Ortsteile 25442
Bou@@ 25441
ford 25436
Dan@@ 25434
J 25433
fähig 25431
Verdienste 25428
bach@@ 25422
anschließenden 25421
gem 25420
griff 25418
taus@@ 25418
Transport@@ 25409
umfangreiche 25405
Anders 25403
1853 25400
Bill 25389
Innenstadt 25382
Mu@@ 25378
sprachen 25377
Korps 25370
mes 25364
arbeiter 25361
Spielern 25342
Kamp@@ 25337
hen 25333
eien 25331
eber@@ 25330
erenden 25327
ring 25323
Verlust 25322
Flugzeug 25320
Vorsitzenden 25319
wa@@ 25313
Treffer 25311
äußeren 25309
steh@@ 25301
Produzent 25298
110 25297
Ausbruch 25297
ausgewählt 25297
englischer 25294
bus 25292
esp@@ 25291
Damen 25290
98 25288
Zell@@ 25279
Flusses 25259
Aufmerksamkeit 25258
leistete 25257
kanal 25254
ama 25242
T. 25240
Kardinal 25217
landes 25216
nunmehr 25215
filme 25210
ay@@ 25206
gebildeten 25202
ermordet 25182
lerin 25180
heiten 25176
Toren 25175
einrichtungen 25164
Minister@@ 25163
Berge 25154
alter@@ 25150
Hard@@ 25149
kleines 25139
entdeckte 25138
lieferte 25132
Zerstörung 25126
Ed@@ 25125
Automobil@@ 25121
geteilt 25114
evangelisch 25112
iter@@ 25109
77 25105
Ämter 25085
Leo 25081
samt 25073
Führer 25070
gez@@ 25070
tierung 25070
staaten 25068
Ministerium 25062
ium 25056
Doppel 25055
natürlichen 25054
fahrer 25039
ais 25033
steinen 25029
lus@@ 25028
fs@@ 25025
Kritiken 25018
Off@@ 25017
FDP 25016
St 25008
Got@@ 25004
ße 25000
kommun@@ 24992
Gebrauch 24986
Stadtrat 24980
Mang@@ 24965
AC 24962
Maß@@ 24955
Hallen@@ 24952
üblichen 24950
od 24947
Kapitel 24946
verfolgt 24946
í 24938
jahren 24936
usw. 24924
Sekretär 24921
Strukturen 24921
Dsch@@ 24915
ergab 24915
orte 24915
Aktion 24913
becken 24912
präsentiert 24911
erstellt 24897
Az@@ 24891
Zer@@ 24886
angesch@@ 24882
Zeitschriften 24877
tend 24874
grundsätzlich 24873
Feder@@ 24871
ennung 24871
Geist 24867
sar@@ 24867
Linz 24864
Pflanz@@ 24862
São 24857
seitig 24856
Europäische 24849
ländischen 24849
möglichkeiten 24830
Spielzeiten 24829
ungarischen 24828
IC 24827
besiedelt 24817
Weil 24813
tour@@ 24813
Johnson 24812
isieren 24805
ok 24803
Haltung 24795
häuser 24792
hart 24787
anzu@@ 24784
Lim@@ 24778
Blatt@@ 24777
Kommunikation 24775
aute 24772
Victoria 24766
geplanten 24764
Karten 24757
trugen 24756
Cap@@ 24754
Sitz@@ 24754
Mot@@ 24753
achse 24746
eberg 24741
omen 24741
wo@@ 24740
78 24739
Flach@@ 24733
grenzen 24732
zweites 24730
Umwelt 24725
östliche 24725
Kü@@ 24717
sämtliche 24716
beginnen 24712
Bruno 24710
wid@@ 24710
Deutsch@@ 24690
Wiederaufbau 24689
eckte 24682
Vo@@ 24681
restlichen 24677
André 24660
förmigen 24660
Deck@@ 24657
ausgeb@@ 24655
ion 24650
Ideen 24634
Av@@ 24633
voraus@@ 24633
Mir@@ 24631
wächst 24626
Blätter 24625
klein 24624
ider 24623
lösen 24617
Ac@@ 24609
geschickt 24607
maler 24596
herr 24594
ora 24592
Buchstaben 24590
Gestalt 24586
Pir@@ 24586
angen@@ 24585
Auff@@ 24584
Front@@ 24584
Wid@@ 24584
Schluss 24580
bürger@@ 24579
nehmer 24571
we 24569
win@@ 24569
Finnland 24555
Moritz 24549
Bekannt 24548
Rech@@ 24546
durchsetzen 24542
Frei@@ 24539
Charlotte 24530
Umfeld 24528
analy@@ 24520
Häusern 24516
Lebensraum 24510
reform 24509
Mun@@ 24506
ücke 24503
Istanbul 24501
Junioren@@ 24499
Weimar 24493
dicht 24490
EP 24488
lö@@ 24484
angeordnet 24479
esische 24479
73 24473
herren 24471
Abstieg 24470
Warschau 24470
Reisen 24462
üsse 24461
Personal@@ 24455
gas@@ 24453
Miss@@ 24452
tab@@ 24452
kes 24451
unterbrochen 24450
Med@@ 24442
Cl@@ 24441
sprach@@ 24429
stammten 24428
bewusst 24424
Flagge 24414
hinein 24412
rein@@ 24408
ätze 24403
Ford 24401
sol@@ 24397
ferner 24395
schwan@@ 24390
Fenster@@ 24386
Erfurt 24382
Weber 24370
Räume 24365
aten@@ 24364
ektive 24362
Schi@@ 24358
1814 24338
ess 24337
Gesam@@ 24333
kommen@@ 24330
Oberst 24327
Sab@@ 24324
Königsberg 24313
Young 24310
ufer 24308
Verleihung 24306
bestehend 24302
Vorrunde 24296
Dienste 24291
Highway 24290
Ern@@ 24288
Dur@@ 24268
Lit@@ 24267
Bühnen@@ 24259
Chef@@ 24255
Kooperation 24255
karten 24253
fehlen 24250
Line 24249
macher 24245
Hun@@ 24244
Tiefe 24233
langsam 24231
äs@@ 24231
durchschnittlich 24222
keiner 24219
freund@@ 24218
Rücken 24207
Schreib@@ 24196
Spor@@ 24196
Sprint 24190
gau 24186
Las@@ 24182
wege 24182
ums@@ 24181
igt 24175
Konzert 24173
sau@@ 24173
Syn@@ 24170
Sturm 24164
gehenden 24158
Berater 24155
Fur@@ 24151
Zweite 24150
ots 24150
Ausführung 24145
erzeugt 24143
Geschichten 24140
beauftragt 24138
herausgegeben 24135
Verordnung 24127
sierte 24122
musik@@ 24120
Betrieb@@ 24116
Aussagen 24108
ermöglichte 24108
Darstellungen 24106
schein@@ 24106
Jerusalem 24097
92 24089
länge 24087
Meer@@ 24085
keiten 24078
Rettungs@@ 24076
Mike 24075
dauerte 24075
seiten 24074
kus 24071
Bundes 24060
Einzugsgebiet 24060
e- 24054
Forst@@ 24053
Tschechoslowakei 24048
ruh@@ 24046
AS@@ 24039
verwenden 24035
quelle 24034
altet 24033
Liter 24026
ome 24017
ator@@ 24006
Falle 24004
liert 23996
dürfte 23994
Urteil 23993
inf@@ 23991
verst@@ 23989
Treffen 23983
abgelehnt 23981
kers 23981
Stich@@ 23977
ministeriums 23972
Preise 23970
üssen 23967
Schwestern 23963
Wir@@ 23959
anus 23957
Ohio 23955
Fahrt 23949
Ty@@ 23949
Log@@ 23944
Christen 23942
Stern@@ 23940
ong@@ 23939
Beste 23934
Böh@@ 23924
81 23923
93 23923
Bew@@ 23923
Davis 23913
ams 23912
bekleidete 23911
schiff@@ 23910
Befehl 23909
Schäden 23909
Motoren 23901
Christus 23896
ji 23894
umgesetzt 23892
Einstellung 23891
gestaltete 23890
Namens 23887
liger 23887
gezwungen 23880
meisterschaften 23861
ähr@@ 23853
ausgestellt 23851
Fertigstellung 23850
amb@@ 23846
meisters 23842
86 23837
lug@@ 23837
gang@@ 23835
Sonstiges 23834
esischen 23833
ierungen 23833
Erklärung 23832
69 23831
änger 23831
Meeres@@ 23829
og 23828
zieh@@ 23827
Ball 23826
ensis 23824
eber 23822
isen@@ 23821
angeblich 23820
umstritten 23816
Luxemburg 23814
GB 23803
funktion 23803
kämpfen 23801
Anlass 23800
Anforderungen 23798
co@@ 23789
Punk@@ 23787
Je@@ 23784
Kot@@ 23777
spezielle 23777
Michel 23772
Mär@@ 23769
richten 23769
schau 23769
gener@@ 23767
römische 23758
Ingenieur 23756
Vil@@ 23748
eit 23748
Künstlern 23745
laufenden 23743
durchschnittliche 23736
Basketball 23734
geringe 23732
Kür@@ 23730
beschränkt 23724
mitglied 23723
lik@@ 23722
onie 23718
Schlos@@ 23703
angeh@@ 23699
Auseinandersetzungen 23695
ungst@@ 23689
äußerte 23687
eckten 23686
bester 23681
Wohnhaus 23680
handlung 23680
abschloss 23679
Green 23673
aufnahme 23672
Histor@@ 23670
gesetz@@ 23669
va 23665
Trau@@ 23657
urg 23656
helfen 23651
meistens 23644
Mut@@ 23643
Landgericht 23628
ages 23628
Europ@@ 23624
born 23619
ura 23616
82 23615
ther 23614
Bab@@ 23609
Dom 23605
spielerin 23603
Sammel@@ 23601
Maximilian 23598
Pel@@ 23593
Kräfte 23591
1843 23588
Manager 23584
woraufhin 23584
getroffen 23583
Var@@ 23581
az 23575
Now@@ 23572
Games 23571
erende 23571
Marx 23569
84 23567
cke 23562
berücksichtigt 23556
religiösen 23556
Prof@@ 23554
Sitze 23552
ue 23552
bildungs@@ 23551
vieler 23550
orden 23547
voller 23545
Energie@@ 23544
First 23544
q 23540
1844 23536
entstandenen 23536
chn@@ 23532
istr@@ 23531
Weißen 23527
altung 23521
darstellen 23520
Dreißigjährigen 23518
Pop 23505
Legende 23501
Österreichs 23501
Fürst 23493
schottischen 23489
begründete 23487
gefärbt 23486
Code 23481
Jesu 23468
teren 23465
gemein@@ 23461
zweig@@ 23459
alar@@ 23456
erfolgreiche 23455
Fürst@@ 23453
klein@@ 23452
ī@@ 23445
Chile 23442
Fusion 23435
ental 23430
Auseinandersetzung 23418
sit@@ 23418
zusammengefasst 23414
medi@@ 23400
betr@@ 23391
erhältlich 23391
Sektion 23388
Studios 23381
ekte 23379
decken 23378
ütte 23378
$ 23377
ole 23372
bedeut@@ 23362
blau 23359
Spuren 23356
chron@@ 23347
1832 23337
Marien@@ 23327
antiken 23324
Kriminal@@ 23322
Stockholm 23321
eter@@ 23321
zeigten 23320
region 23314
1835 23309
Abtei 23304
Adel@@ 23297
alis 23297
freiheit 23296
erkennbar 23291
aufmerksam 23285
Galerie 23282
ly 23273
rechtlichen 23272
verstorbenen 23268
tigte 23266
eigentliche 23265
Tim@@ 23260
1842 23253
derer 23253
Gesundheit 23234
Champions 23233
klassen 23224
Für@@ 23222
elektrische 23219
historisch 23213
zi 23213
Jahrzehnte 23210
Rez@@ 23198
tier 23196
Blue 23195
Council 23195
ola 23195
geschwindigkeit 23193
Verbreitungsgebiet 23191
Dresdner 23188
DM 23187
nd@@ 23186
burg@@ 23182
Herrscher 23178
Jesus 23177
Brüssel 23175
Renaissance 23170
Kant@@ 23167
deut@@ 23167
scheid 23166
welchem 23160
Spre@@ 23151
enr@@ 23145
nicht@@ 23145
SK 23143
strecken 23137
Betriebe 23136
Francis 23135
Zir@@ 23124
Stoff@@ 23123
mp@@ 23119
Pau@@ 23118
zel@@ 23104
post@@ 23100
länder 23099
ppe 23094
Meistertitel 23091
Dafür 23087
Hohen@@ 23087
ausger@@ 23084
Sek@@ 23081
Gedichte 23078
ont 23077
allgemeine 23076
tens 23067
Vorgänger@@ 23063
erhaltenen 23057
dan@@ 23054
vater 23052
Reserve 23045
spanische 23042
ologischer 23038
Boote 23037
übersch@@ 23037
Vogel@@ 23035
Seit@@ 23030
Victor 23030
Det@@ 23028
Palä@@ 23028
VI. 23026
Hül@@ 23024
atus 23012
Form@@ 23007
edr@@ 23007
Professur 23005
Turm@@ 23005
aktuelle 23005
farben 23005
Ren@@ 23004
polizei 23002
ungsin@@ 23000
versuchen 22995
Kel@@ 22993
entgegen 22993
Klass@@ 22990
Klavier 22990
Nov@@ 22989
Zw@@ 22984
wald@@ 22983
Recht@@ 22980
Prüfung 22973
üst@@ 22968
Seen 22960
systems 22960
Hag@@ 22958
Direk@@ 22956
theim 22956
näher 22951
besetzten 22950
geeignet 22948
Klassen 22946
Aussch@@ 22943
spann@@ 22942
ausgeschlossen 22941
Ursache 22933
Kohlen@@ 22929
afen 22929
Ziegel@@ 22927
fäh@@ 22927
sicht 22922
Produktionen 22912
Kass@@ 22908
ding 22908
# 22907
gekennzeichnet 22906
Anh@@ 22903
kurzzeitig 22898
AS 22896
Serien@@ 22892
kun@@ 22889
äure 22887
öch@@ 22885
3.@@ 22883
Oblast 22876
Scher@@ 22876
Folgende 22874
weibliche 22870
Res@@ 22867
Kopenhagen 22866
Hä@@ 22862
1837 22861
aufgehoben 22857
festgestellt 22855
Tages 22854
südliche 22852
Kino 22848
Generalmajor 22843
ekten 22842
Amerikaner 22831
position 22830
Demokratischen 22828
Et@@ 22828
ertes 22824
3,@@ 22814
gleicher 22814
ao 22807
mir 22807
Stimm@@ 22802
Committee 22801
Keller 22798
Lob@@ 22792
Carlos 22791
Stunde 22791
06 22781
Orgel@@ 22776
Vis@@ 22774
fle@@ 22773
stieß 22772
ativ@@ 22761
Koch 22760
leh@@ 22759
Sowohl 22757
Grundschule 22750
Geographische 22748
gestellten 22747
Durchbruch 22744
suchte 22744
ref 22743
Briten 22741
ners 22740
lem@@ 22735
diversen 22733
führ@@ 22731
verk@@ 22731
Henri 22727
Folgezeit 22720
” 22718
Bass 22716
Roger 22712
pe@@ 22704
s. 22702
Bob 22697
Nag@@ 22695
Abl@@ 22690
ain@@ 22686
ektiv 22686
Wort@@ 22683
ZDF 22673
erschienenen 22670
gerichts@@ 22656
stoffen 22655
geschützt 22653
sammelte 22653
qualifizierten 22652
keln 22645
Gang 22644
Sw@@ 22640
5000 22637
iten@@ 22637
Grundstück 22632
Punkt@@ 22629
Wich@@ 22626
Ostpreußen 22624
Erbe 22623
festen 22619
erbaute 22618
Runden 22617
schwarze 22617
Personen@@ 22616
Formation 22615
pal@@ 22610
Bewer@@ 22607
wahl@@ 22607
Blues 22604
aum@@ 22602
bergen 22602
Roll@@ 22589
berechtigt 22588
alien 22586
Tex@@ 22585
Leb@@ 22583
uter 22583
chi 22580
kulturellen 22580
natürliche 22575
Cre@@ 22568
lokale 22566
Genf 22564
lit@@ 22561
leistungs@@ 22557
musikalische 22553
darauffolgenden 22548
Sit@@ 22547
Hart@@ 22544
behielt 22543
Kantons 22541
genden 22541
musikalischen 22539
California 22537
Rektor 22537
Bier@@ 22534
Institutionen 22527
Oxford 22525
firma 22520
diger 22519
ello 22519
Spezi@@ 22516
Hum@@ 22507
mark@@ 22506
tigten 22506
lebende 22503
vari@@ 22502
durchaus 22496
Kredit@@ 22494
Bud@@ 22475
KG 22473
räumen 22471
Brunnen 22470
Patrick 22470
91 22466
fehlt 22466
Illinois 22464
Christi 22460
Gru@@ 22460
83 22453
Bester 22449
ule 22449
zahl@@ 22441
enc@@ 22439
auftreten 22438
Fabrik 22437
Schülern 22436
1810 22432
Ben 22426
gend 22426
87 22425
enthielt 22423
Fortsetzung 22421
asch@@ 22421
Toronto 22417
barer 22414
erne 22409
trägen 22409
Tot@@ 22406
spar@@ 22404
außer@@ 22398
fördern 22390
Brigade 22387
Präfektur 22384
längere 22379
nik 22375
Vir@@ 22369
ucht 22366
disch 22363
äf@@ 22361
Zweitligisten 22351
abgeleitet 22349
Turnier@@ 22339
neh@@ 22339
rief 22339
Serien 22338
bedeckt 22337
1838 22334
berge 22331
Nacht@@ 22330
ense@@ 22330
Rus@@ 22328
zusch@@ 22327
1841 22326
gerichts 22326
weis@@ 22323
Wende 22321
Freiherr 22312
Glauben 22310
Pod@@ 22310
Stell@@ 22308
krise 22308
000 22306
Diözese 22304
diert 22300
hinten 22299
Petr@@ 22294
vertr@@ 22294
kirch@@ 22291
Rose 22287
emen 22287
königlichen 22287
Spiegel 22286
Hinzu 22278
Kritiker 22276
innere 22276
Belagerung 22272
Archiv@@ 22271
Lager@@ 22271
79 22268
beinhaltet 22268
Iran 22262
rückte 22262
mannschaften 22256
schwe@@ 22256
abges@@ 22254
gewidmet 22253
yn 22252
endem 22250
abgebrochen 22247
Centre 22245
Sydney 22245
Zusammensetzung 22243
oth@@ 22240
Deb@@ 22236
Life 22236
entscheiden 22230
Mein@@ 22224
Bah@@ 22221
Fach 22217
Prak@@ 22210
endung 22210
daneben 22209
Aff@@ 22207
Braun@@ 22204
1839 22203
3,5 22198
Volksschule 22197
olle 22197
Volksrepublik 22196
person@@ 22196
verlieh 22196
Versuche 22195
Baum 22187
89 22186
erw@@ 22185
filmen 22184
Hab@@ 22182
Zellen 22181
fäl@@ 22180
äußerst 22180
ebt 22178
Rob@@ 22174
motor 22163
Günther 22159
stiegen 22158
bundes 22156
las@@ 22150
beziehen 22148
Eroberung 22147
Kolonie 22128
geringer 22123
trieb@@ 22121
Rü@@ 22119
Was 22112
erfährt 22110
rasch 22110
teilt 22108
Alt 22107
norwegischen 22106
Reform@@ 22105
Cam@@ 22102
Dür@@ 22100
Franken 22098
Town 22098
Vog@@ 22091
Road 22084
Sum@@ 22079
Wind 22079
lungs@@ 22075
Arena 22073
bur@@ 22064
Tat@@ 22060
cha 22060
Ihm 22059
Erinnerung 22057
künstlerische 22054
Zeitungen 22053
Point 22046
arische 22035
Pandemie 22033
manchen 22033
Ran@@ 22032
Schmi@@ 22031
ri 22031
Wir 22020
erzielt 22017
Manfred 22011
Haft 22007
Geburtstag 22005
förmige 21993
laden 21992
staat 21992
Lot@@ 21987
ic 21986
leisten 21984
Frucht@@ 21983
Top@@ 21982
trieb 21981
Corporation 21979
Ortsname 21979
Phil@@ 21971
gende 21970
1808 21968
Gottes@@ 21966
UEFA 21964
Jura 21960
ati 21954
hör@@ 21952
Computer 21949
katholischer 21949
nördliche 21948
ffen 21942
legten 21941
tene 21937
Ehrungen 21934
Schau@@ 21933
Gri@@ 21932
gefährdet 21923
struktur@@ 21921
Akadem@@ 21919
ign@@ 21916
Kalk@@ 21910
1836 21908
Abstammung 21904
zeitlichen 21903
Grä@@ 21895
Gebäuden 21894
fährt 21876
asien 21874
Partie 21872
äne 21872
stoß 21871
etti 21867
Französisch 21865
Brau@@ 21855
Flugzeuge 21849
ständigen 21847
Plattform 21843
Peking 21840
kauf@@ 21840
vorgenommen 21836
kulturelle 21833
atten 21829
1834 21827
beteiligten 21823
geplante 21821
Einzug 21819
Verbindungs@@ 21819
mol@@ 21812
Mann@@ 21811
wes@@ 21809
Preußischen 21805
Spreng@@ 21803
ez 21802
Zusammenschluss 21799
hr 21797
D.C. 21794
olz 21793
Konkurrenz 21790
eri@@ 21786
Philadelphia 21785
ffer 21782
stür@@ 21778
Komödie 21772
Geschlecht 21765
Chris 21764
Stab@@ 21764
Vorbereitung 21756
ells 21752
breit@@ 21751
runden 21750
gelb 21748
stellungen 21747
sozi@@ 21745
USD 21744
Kontakte 21742
Schlosses 21740
1821 21725
Säulen 21723
Lab@@ 21721
Verbesserung 21714
zustand 21713
Sieb@@ 21704
Ausschuss 21703
befasste 21701
igungs@@ 21700
Lem@@ 21696
ela 21696
Nachrichten 21694
Parks 21694
Refer@@ 21694
Stephan 21692
Est@@ 21689
stadt@@ 21689
gelingt 21687
oni@@ 21687
gelände 21685
praktisch 21680
vielleicht 21678
1820 21675
900 21660
Autom@@ 21656
Taylor 21654
äufe 21648
Eigentum 21645
digte 21645
genaue 21643
dauer 21642
enter 21642
Menschen@@ 21639
eigen@@ 21635
typischen 21635
Me 21632
beginn 21631
eingestuft 21631
frühe 21631
hang 21631
ents 21630
Psychologie 21627
Lan@@ 21626
Wilson 21625
kommenden 21619
Weihnachts@@ 21618
Rote 21615
tiv 21615
Durchführung 21611
low@@ 21609
Eff@@ 21607
Kri@@ 21598
eri 21591
Port 21585
Sau@@ 21583
.-@@ 21581
wirk@@ 21575
fertigte 21573
Trocken@@ 21572
entsprach 21571
Interview 21567
Hon@@ 21564
Oldenburg 21558
Church 21557
Vas@@ 21556
s- 21555
ali 21553
iz 21553
männlichen 21541
stab@@ 21537
kin@@ 21535
Mund@@ 21534
Freundin 21529
log@@ 21528
97 21527
ball@@ 21522
gel 21519
verhältnis 21518
Test 21512
Antrag 21509
trans@@ 21509
habilitierte 21507
verhalten 21507
Medizin@@ 21506
Verwaltungssitz 21505
bez@@ 21502
Finanzierung 21501
finanzielle 21497
Fremd@@ 21496
Wirk@@ 21496
figur 21496
Gewässer 21485
Powiat 21484
Südwest@@ 21478
red@@ 21478
Ž@@ 21463
druck@@ 21462
tiere 21461
Verfolgung 21459
mut@@ 21458
enthal 21455
Kä@@ 21451
Steve 21450
tus 21449
Such@@ 21445
mitteln 21445
Terr@@ 21444
spe@@ 21444
Stif@@ 21439
Änderung 21439
Eberhard 21435
Ide@@ 21435
obj@@ 21432
Pu@@ 21430
Jänner 21427
My 21427
tiven 21427
gehende 21426
isation 21425
pres@@ 21424
punkten 21424
Strom 21423
Büro 21421
Hollywood 21420
Koh@@ 21413
Ordens 21405
Prinzessin 21405
Jugendliche 21403
klassische 21401
Kus@@ 21398
begründet 21395
Episoden 21388
lis 21387
Sech@@ 21385
Hey@@ 21383
zählten 21383
zeichnen 21382
jähriger 21381
woh@@ 21377
leger 21376
schütz@@ 21372
Grundriss 21370
Hell@@ 21370
Drama 21367
Kaisers 21366
vers 21364
los@@ 21361
Lehen 21360
Heirat 21358
dh@@ 21355
fach 21344
walde 21342
01 21340
künstlerischen 21338
Tieren 21336
tels 21334
Toten 21329
terte 21326
Jackson 21324
Orchestra 21324
Rap@@ 21321
94 21320
Museen 21316
Aufstand 21315
bekannter 21303
wohnte 21303
Wiesbaden 21300
gasse 21299
10@@ 21298
lernen 21294
Nik@@ 21286
Saale 21286
zweigt 21284
Bay@@ 21282
gekauft 21280
Fein@@ 21275
eres 21273
Böhmen 21271
äts@@ 21271
erneuert 21267
wang 21264
ahlen 21261
aktionen 21259
zahlreicher 21252
Werkstatt 21250
schem 21247
Rä@@ 21242
bevölkerung 21236
offene 21233
antrat 21225
äd@@ 21225
Ton 21224
Peter@@ 21216
Times 21216
Tirol 21212
Dritter 21210
leistungen 21202
persönlich 21202
Markus 21198
äuser 21196
Bauwerke 21195
persönliche 21190
bit@@ 21183
preis@@ 21180
isi@@ 21171
Erstligisten 21169
Kok@@ 21169
beherbergt 21167
feste 21165
owo 21165
warf 21161
amtes 21154
bezog 21149
Samen 21145
Abgeordnete 21144
betroffen 21144
Pseudonym 21140
leuch@@ 21135
cker 21132
geschätzt 21132
Dauer 21126
Roth@@ 21124
Pokal@@ 21121
Verantwortung 21120
Ner@@ 21115
Viel@@ 21111
130 21110
Gliederung 21110
achtet 21108
landschaft 21108
Stattdessen 21107
Ky@@ 21103
blo@@ 21103
ill 21098
Organ@@ 21096
100.000 21093
Sophie 21091
sicher@@ 21089
COVID 21087
Zone 21085
Entdeckung 21084
Hütte 21083
sieren 21079
Vorschlag 21072
wanderung 21071
gangs 21068
Wissenschafts@@ 21065
ero 21063
Angelegenheiten 21060
Oper@@ 21059
Elbe 21053
vorsitzender 21050
stimmen 21048
afrikanischen 21042
erzielen 21037
Nachrichten@@ 21024
Fähigkeiten 21022
Feuerwehr 21015
asi@@ 21012
uc@@ 21012
eingezogen 21004
Windows 21002
ingt 20999
sil@@ 20998
Kamer@@ 20993
stag 20991
Ecke 20990
Archiv 20989
Cur@@ 20983
Geräte 20981
Kategorien 20981
sagen 20980
Sciences 20977
oftmals 20977
aster 20976
gesichert 20975
restauriert 20974
Text@@ 20972
dis 20972
etzung 20971
funktion@@ 20971
besitzer 20970
bezirke 20969
erhaltene 20959
til@@ 20959
Pon@@ 20954
Thor@@ 20953
engesch@@ 20953
Vizepräsident 20950
Atom@@ 20948
1831 20944
Werft 20940
Eth@@ 20937
eindeutig 20933
Wochen@@ 20927
Technische 20923
Insel@@ 20916
regulären 20916
russischer 20906
sichern 20905
verfügen 20905
gefolgt 20900
verblieb 20900
Auge 20895
Abkürzung 20886
siebten 20885
gens 20884
team 20882
1828 20880
Goethe 20878
karte 20878
Versch@@ 20875
müsse 20873
Priv@@ 20871
nahen 20859
endlich 20857
Vorstellung 20855
arischen 20852
aja 20850
sagt 20849
angehörte 20845
Eig@@ 20843
Ersatz 20843
symbol@@ 20841
Nebenfluss 20837
mich 20837
Fass@@ 20833
Schluss@@ 20833
Unterschiede 20830
Vermögen 20828
Zulassung 20828
Lewis 20826
grau 20823
Weimarer 20814
ecker 20812
schläge 20806
Cambridge 20799
Statistik 20799
Luftwaffe 20796
benannten 20796
Tätigkeiten 20793
aub@@ 20788
vorkommen 20788
mil@@ 20778
hängen 20773
Asien 20771
ausgabe 20764
Media 20754
Londoner 20750
Hat@@ 20745
Training 20734
Langhaus 20733
uli@@ 20729
belgischen 20728
Festivals 20723
lo 20718
rechtliche 20718
bat 20717
änen 20716
Schlesien 20715
lichkeiten 20710
weichen 20704
UN 20700
Flor@@ 20696
1812 20694
wehr@@ 20694
erhebt 20693
Nahrung 20690
Hinweis 20689
üb@@ 20687
inus 20686
ausschusses 20682
eld 20681
kürz@@ 20679
Erzählung 20675
Jersey 20666
Wester@@ 20666
erfolglos 20663
Gesamtwertung 20659
bewegen 20657
German@@ 20656
enger 20649
Areal 20647
Winterspielen 20643
Sav@@ 20641
besiegte 20641
Liebes@@ 20640
angel@@ 20638
deutsch@@ 20638
Ob 20637
lie@@ 20635
ATP 20634
umliegenden 20633
Gletscher 20624
180 20622
Auffassung 20616
Unfall 20615
jahre 20615
1200 20614
Graf@@ 20614
FK 20613
Fir@@ 20612
Tournee 20611
Phot@@ 20609
anderes 20604
qualifizieren 20602
fass@@ 20601
Symbol 20598
kombin@@ 20593
weiblichen 20593
teilnehmen 20592
Oliver 20591
dich@@ 20590
verbot 20587
Frankreichs 20585
Klinik 20584
professor 20580
Forsch@@ 20577
friedhof 20577
Herrschafts@@ 20570
Fehler 20569
Materialien 20568
Nachwuchs@@ 20561
ó@@ 20561
angesiedelt 20556
Art@@ 20554
Lib@@ 20544
altar 20543
fil@@ 20538
verfasst 20537
enhof 20536
trag 20536
entwarf 20530
Bei@@ 20526
Bul@@ 20523
Douglas 20521
Kandidat 20521
Reihen 20511
ehrt 20508
erinnern 20505
asti@@ 20504
Anbau 20500
ris@@ 20498
winkel 20493
planung 20491
anien 20486
siv 20486
Autorin 20480
Bremer 20480
ausgerichtet 20476
Rab@@ 20475
Women 20475
öhe 20473
Rüc@@ 20470
1817 20469
Benjamin 20469
Challenger 20465
ney 20462
Brun@@ 20461
ühr@@ 20461
wichtig 20459
sson 20457
Bedarf 20456
Handel@@ 20453
ardt 20451
Nun 20450
Mau@@ 20447
elektrischen 20447
una 20444
Neuzeit 20443
Tony 20442
use 20433
abger@@ 20430
steuer@@ 20429
Zustimmung 20425
solle 20421
Ministerpräsident 20408
regionale 20408
prinzip 20407
sth@@ 20406
Bun@@ 20400
Identität 20399
real@@ 20399
Spielfilm 20398
Freundschaft 20396
Bezeichnungen 20391
Hochschullehrer 20391
Wolf@@ 20391
küh@@ 20391
Südseite 20385
etti@@ 20381
förderte 20379
Straßburg 20378
Papier@@ 20373
ty 20372
anger@@ 20371
abhäng@@ 20361
erlitt 20361
Bochum 20355
ai@@ 20355
ust@@ 20353
inden 20352
Pflanzen@@ 20343
gesellschaften 20343
ahrt 20342
Erfahrung 20336
wort 20332
1833 20324
ersetzte 20320
Regierungsbezirk 20318
Glocke 20316
ta@@ 20315
verstehen 20313
Parallel 20307
mus 20306
genug 20305
vorstand 20304
änd@@ 20303
Gab@@ 20297
Vill@@ 20297
Leib@@ 20292
höh@@ 20291
Becken 20287
Ausrichtung 20284
kosten@@ 20283
Heb@@ 20277
fassung 20277
brunn 20276
gehörenden 20272
bachs 20262
streifen 20261
wirtschaftlich 20261
Kil@@ 20258
portal 20256
Lokal@@ 20253
ond@@ 20252
orientierte 20251
vgl. 20251
angebaut 20248
gab@@ 20248
iden@@ 20248
Ablauf 20247
ches 20241
trä@@ 20238
Sing@@ 20234
sichtlich 20233
Anwendungen 20231
Bit@@ 20230
erkannt 20228
ines 20228
yp@@ 20227
ask@@ 20222
befindlichen 20221
Liber@@ 20219
träge 20216
häng@@ 20214
Zoll@@ 20213
ständiger 20213
Schlüssel@@ 20211
Tab@@ 20210
Fehl@@ 20207
leiten 20207
Cer@@ 20206
Straßenbahn 20206
Produzenten 20205
Rundfunk 20203
unterrichtet 20202
Romane 20197
Slowakei 20196
Stars 20194
Achtelfinale 20191
angeb@@ 20191
ückt 20191
begleitete 20189
lä@@ 20182
portugiesischen 20177
behörden 20176
erfüllt 20171
Fünf@@ 20167
Fran@@ 20165
punkt@@ 20161
schwedische 20157
Eishockey@@ 20153
bewohnt 20149
läufer 20149
Brauerei 20143
Duo 20142
Verhältnisse 20130
Erhaltung 20127
ause 20121
hil@@ 20121
grünen 20117
flu@@ 20113
Projekt@@ 20111
Format 20110
sog. 20109
stationiert 20102
our 20099
entworfen 20093
uti@@ 20092
Leute 20091
Besonderheit 20087
Münz@@ 20086
komponierte 20083
Gebirge 20075
beweg@@ 20073
Territorium 20069
Amtes 20068
Gang@@ 20062
heil@@ 20062
läng@@ 20061
Stol@@ 20060
Mehrere 20059
sieb@@ 20050
Ausstellungs@@ 20049
Heid@@ 20033
ausgesetzt 20030
Museums@@ 20028
lied 20027
utz 20026
Verk@@ 20024
ög@@ 20023
internationaler 20022
mangel@@ 20022
aden@@ 20021
betre@@ 20020
sach@@ 20017
zugs@@ 20017
Anfangs@@ 20014
Schreiben 20012
zeuge 20011
Handlungs@@ 20010
Tour@@ 20010
Hochzeit 20008
Gebietsreform 20004
richtungen 20004
ester@@ 20000
1825 19997
Gil@@ 19997
igkeiten 19997
drehte 19996
ares 19992
Eindruck 19989
gestellte 19989
Haut 19988
Rekord 19987
verkauften 19987
zeichneten 19987
organisationen 19984
krimin@@ 19983
daten 19981
def@@ 19975
Uraufführung 19973
Landtagswahl 19971
Konferenz 19970
spezi@@ 19967
Siege 19966
Journal 19962
Bru@@ 19957
field 19952
Kompositionen 19950
Vorsprung 19949
Blut 19947
sowjetische 19944
Antike 19941
atz@@ 19935
Auß@@ 19934
Ostr@@ 19933
Saar@@ 19929
Geschäft 19927
typische 19926
abgebaut 19921
Lar@@ 19910
Bauer 19908
Denkmal@@ 19906
strom 19899
wenden 19898
erweiterte 19897
Obj@@ 19894
Lern@@ 19893
tin@@ 19893
Gö@@ 19892
mers 19892
Gattungen 19882
K. 19881
übernahmen 19880
ordens 19876
Temperatur 19868
vergleich@@ 19863
Mengen 19857
pend@@ 19857
ith 19853
Real 19852
fahrzeuge 19850
Stahl 19849
Löwen 19848
Hauptmann 19847
geordneten 19845
ensystem 19844
Fälle 19838
Palast 19834
dokumentiert 19833
angepasst 19829
Oder 19828
Wurzeln 19828
vielfach 19828
ī 19828
Weich@@ 19827
rechtlich 19826
urs@@ 19826
Kreisstadt 19824
nötig 19822
verlegte 19821
Stellvertreter 19819
viert 19818
sprech@@ 19814
realisiert 19808
versteht 19808
Mä@@ 19807
bot@@ 19807
Dozent 19804
Eur@@ 19799
ags 19796
iens 19796
asen 19793
abr@@ 19792
Blat@@ 19790
Klin@@ 19789
eta 19786
Junge 19778
Tisch@@ 19777
Eva 19764
Segel@@ 19763
Rechts 19762
wechseln 19759
Distanz 19757
Rats@@ 19755
rad 19755
20.000 19753
annen 19752
freig@@ 19751
Dame 19750
Schlagzeuger 19744
mod@@ 19743
fordert 19737
lesen 19735
Milch@@ 19734
Hinweise 19731
Angehörigen 19730
Dreharbeiten 19729
regel@@ 19728
ater 19726
Tatsache 19718
jüngere 19716
Alternative 19715
handeln 19714
üblicherweise 19712
Zäh@@ 19705
izen 19705
bere@@ 19704
kraft@@ 19702
yl 19702
gewölbe 19699
Brem@@ 19694
schriften 19692
erfuhr 19690
funk@@ 19689
ilfe 19689
Flug 19684
Fron@@ 19683
Breit@@ 19681
Anteile 19679
Angehörige 19673
Val 19670
tlicher 19659
Schicksal 19658
rote 19656
förder@@ 19655
identisch 19655
figuren 19654
Klar@@ 19651
Eins@@ 19650
Effekt 19649
Rückzug 19649
Besitzungen 19647
Journalisten 19647
1809 19645
Rh@@ 19644
Athleten 19641
uen 19638
que 19634
Acker@@ 19631
bin@@ 19631
öß@@ 19631
oms 19630
vermeiden 19630
Kommunal@@ 19629
Duisburg 19626
Lein@@ 19626
tret@@ 19622
Vorteil 19621
itt 19620
Hex@@ 19618
Jeder 19618
bestätigte 19615
preußische 19607
Box@@ 19605
iern 19603
sahen 19600
Endrunde 19599
verbliebenen 19597
seinerzeit 19593
DB 19591
Anordnung 19590
armee 19589
Erforschung 19585
Rep@@ 19579
verhältnisse 19579
feh@@ 19569
kup@@ 19562
nisch 19561
Pet@@ 19558
sun@@ 19557
Steine 19556
Inhaber 19555
netz@@ 19555
offen@@ 19551
enhausen 19550
Sammlungen 19547
veranstaltet 19545
mi 19543
igungen 19538
Masse 19534
Redakteur 19532
ico 19528
Firmen 19526
sierten 19522
Diplom@@ 19519
ū@@ 19519
verfügbar 19515
mittelalterliche 19514
03 19510
Vorpommern 19508
medizinischen 19507
mati@@ 19506
Himmel 19504
adel@@ 19500
zügen 19494
hersteller 19493
ichte 19492
jährliche 19492
Beschluss 19489
Amtsgericht 19488
Zauber@@ 19487
Rev@@ 19486
aussch@@ 19485
Ist 19483
Günter 19479
Brücken@@ 19476
bezeichneten 19474
gering 19473
hinsichtlich 19469
Exil 19468
Fans 19468
angrenzenden 19466
seltener 19466
Rum@@ 19459
Tä@@ 19458
Million 19456
jap 19456
Linien@@ 19455
iger@@ 19447
weiß@@ 19447
Mandat 19443
fol@@ 19439
Alpen@@ 19437
Information 19436
Ansatz 19431
illa 19431
Rekord@@ 19428
teur 19428
1807 19424
Kommunikations@@ 19424
Molek@@ 19423
neten 19421
enne 19419
Umgang 19418
Luc@@ 19417
Hoffmann 19413
Gründe 19412
bereit@@ 19410
Neapel 19406
Enkel 19403
platzierten 19402
Lebensmittel@@ 19401
zellen 19398
Großvater 19395
Rock@@ 19395
Haushalte 19394
zten 19392
fluss 19390
organis@@ 19388
ikation 19387
schaftliche 19387
Nassau 19384
beruf@@ 19377
Rohr@@ 19376
gesucht 19376
verwaltet 19376
350 19374
Zeichnungen 19368
irischen 19367
orum 19366
kt@@ 19363
brand 19362
Mitarbeitern 19360
Gedenk@@ 19355
ärer 19354
Lange 19351
unver@@ 19349
Bundesstaates 19346
bevorzugt 19345
Niederösterreich 19342
begraben 19341
1824 19337
Bedeut@@ 19333
Dun@@ 19331
thaus 19327
160 19326
körper@@ 19323
DFB 19322
völ@@ 19320
Erdgeschoss 19319
Dritten 19317
dach 19316
Mario 19314
Sommerspielen 19314
Theologe 19312
Politische 19309
å@@ 19308
einrichtung 19305
treff@@ 19303
vollständige 19303
dau@@ 19300
Ulm 19297
Andrew 19288
Valley 19287
Park@@ 19284
Fellow 19283
meister@@ 19279
neun@@ 19278
Haushalten 19274
Jer@@ 19272
existierte 19265
steller 19265
getr@@ 19263
Stor@@ 19259
abgew@@ 19258
Bündnis 19257
ungsver@@ 19252
HC 19249
Gleis@@ 19248
Hauptrollen 19248
enau 19241
fuhren 19240
malerei 19236
1826 19232
Begegnung 19228
letztes 19223
sorge 19221
Vorstellungen 19220
1798 19219
bisherige 19218
Flora 19216
heißen 19208
gebung 19203
gs 19203
Reh@@ 19200
aktuell 19200
Gießen 19189
Abend@@ 19188
Diskussion 19173
durften 19169
Inh@@ 19164
hessischen 19163
unterschiedlicher 19159
gefallen 19157
Stat@@ 19156
if 19151
posten 19150
uz@@ 19150
circa 19148
Platzierung 19140
diskutiert 19134
wurf 19126
Bundestag 19124
Glocken@@ 19124
Marc 19123
ungen@@ 19123
Bundesregierung 19122
Überreste 19122
versuchten 19119
fü@@ 19115
abzu@@ 19112
1829 19111
Rosen@@ 19109
umfassende 19109
Florenz 19108
Draft 19106
aufweisen 19105
gesetzes 19104
Spiels 19099
stärke 19099
olo 19097
richtet 19097
Eugen 19096
ban@@ 19093
statt@@ 19091
einziger 19089
brunnen 19088
band@@ 19087
Marathon 19086
steil 19086
khaus 19084
onne 19084
Edition 19078
front 19077
gewöhnlich 19077
Reihenfolge 19076
Angst 19070
Stärke 19068
zuz@@ 19058
sig@@ 19057
spezialisiert 19057
Besiedlung 19055
ash@@ 19055
Platte 19049
Piloten 19046
Stift 19046
1822 19045
verbundenen 19045
gebauten 19042
flügel@@ 19040
low 19033
Programme 19032
Ven@@ 19029
ies 19021
Koblenz 19020
ernen 19012
ump@@ 19009
Rit@@ 19008
Schriftstellerin 19008
häufiger 19008
orten 19005
Instrumente 19003
skirche 19003
bein 19002
famili@@ 19002
jene 18998
bundes@@ 18995
Gabriel 18993
Zugehörigkeit 18992
anstelle 18988
dierte 18986
Trainer@@ 18985
tenen 18985
Grundlagen 18981
kos@@ 18980
ito 18976
Partei@@ 18968
ausreichend 18968
ap 18967
kreisen 18962
Qualifikations@@ 18956
Verständnis 18955
befasst 18955
une 18953
igte 18951
vergleichsweise 18951
Dal@@ 18949
Kontext 18942
Schwester@@ 18942
vereine 18936
Dass 18935
gebirge 18930
kunst@@ 18924
Wohnungen 18921
Bekanntheit 18920
Tit@@ 18911
SED 18909
auszu@@ 18908
zeichnung 18905
vertret@@ 18904
ement@@ 18902
schlüsse 18898
Hamilton 18891
Osnabrück 18891
Miner@@ 18890
vorübergehend 18890
Bestimmung 18884
gelassen 18883
Zimmer 18882
selber 18880
ügen 18880
religiöse 18876
zeitung 18874
Portal 18873
bedeutete 18869
kri@@ 18868
zustellen 18867
Musical 18866
kompon@@ 18862
publizierte 18859
endi@@ 18858
Jahr@@ 18855
stat@@ 18854
under@@ 18852
pan@@ 18842
betreut 18841
ć 18840
ira 18838
Stur@@ 18836
füh@@ 18836
America 18835
Doktor 18835
sion 18833
Weit@@ 18831
Armen@@ 18825
Was@@ 18819
erhöhte 18818
Manuel 18816
ment@@ 18814
neug@@ 18813
gebiets 18812
Summe 18811
empfing 18811
Schiffen 18810
geschlossenen 18805
Dah@@ 18802
Main@@ 18800
medizin 18798
ald 18797
tra 18797
alisch 18796
Ten@@ 18791
gesellschaftlichen 18788
eur@@ 18782
Etappe 18781
Express 18779
Jury 18778
fu@@ 18777
Adler 18772
esisch 18772
Gesellschaften 18768
scher@@ 18768
stammende 18765
Great 18762
fel 18762
ätz@@ 18760
Annahme 18755
fuß@@ 18755
Beton@@ 18754
Nation 18749
entstandene 18749
Zahlreiche 18746
eu@@ 18746
hardt 18746
regi@@ 18745
Prozess@@ 18736
our@@ 18735
ais@@ 18734
Moderne 18726
ards 18725
traditionell 18721
jew 18720
schlecht 18720
weis 18720
griechisch 18718
Heiz@@ 18717
5.000 18716
Streifen 18716
Ruhr 18713
Ged@@ 18712
verwandt 18710
Element 18701
präsentierte 18701
Zuschauern 18698
1802 18692
basis 18692
Da@@ 18690
ister@@ 18690
ekt@@ 18689
meldete 18687
Kommune 18685
Endspiel 18684
Sc@@ 18678
Treib@@ 18676
Hagen 18675
kette 18675
beruht 18672
nen@@ 18672
But@@ 18669
sky 18668
1819 18665
Kh@@ 18664
uk 18664
Parlament@@ 18661
erreichbar 18661
Jahrhunderte 18658
ends 18657
Golden 18652
Jäger 18652
Dörfern 18651
mär@@ 18649
1811 18644
tos 18641
Forschungen 18639
lösung 18636
→ 18634
Saarbrücken 18633
erfasst 18633
Firmen@@ 18632
Landrat 18631
auses 18631
verzichtete 18630
kritisierte 18628
Versammlung 18627
Tat 18622
strom@@ 18619
inst@@ 18618
Russischen 18617
besuchen 18616
lichsten 18616
männliche 18613
verhindert 18612
Schwan@@ 18610
schlagen 18609
Viz@@ 18605
sinn@@ 18599
hor@@ 18598
Tam@@ 18594
folgend 18594
Aufenthalt 18593
Alb@@ 18592
Fabrik@@ 18589
bene 18589
fi@@ 18588
kultur@@ 18588
entsprechen 18587
Tür@@ 18584
agert 18584
tsch 18583
Tran@@ 18581
Okres 18580
einzu@@ 18579
rat@@ 18579
sig 18578
entstammte 18575
Ec@@ 18573
Engel 18573
Mobil@@ 18570
20@@ 18566
veränder@@ 18565
Beförderung 18564
Nordseite 18562
Bauarbeiten 18559
Bände 18557
Stamm 18555
int@@ 18555
Architektur@@ 18551
vereinigung 18550
dunkel@@ 18548
Innere 18547
ec 18546
Act 18542
Bistums 18542
Wahrheit 18541
ax 18539
Jar@@ 18538
Mauer@@ 18536
Mig@@ 18530
trop@@ 18529
IT 18528
Nu@@ 18528
verwaltungs@@ 18527
awa 18522
auftritt 18521
onia 18521
einziges 18520
derten 18519
€ 18519
ebte 18514
zwanzig 18514
fränkischen 18512
verbesserte 18511
Höhle 18505
platzes 18503
Sound 18499
Pfer@@ 18492
usi@@ 18491
Soldat 18488
Tem@@ 18488
Chin@@ 18487
Hit 18487
Amt@@ 18486
Tennis@@ 18484
parti@@ 18483
Y 18482
let 18480
Engel@@ 18472
Kleine 18469
Weiterentwicklung 18469
sern 18468
andt 18467
darum 18466
demokratischen 18466
Netzwerk 18463
Eishockey 18461
Hi@@ 18458
Railway 18458
Meg@@ 18456
testen 18455
rate 18452
intensiv 18451
Turniers 18450
chter 18448
erlernte 18443
management 18442
Trio 18437
Elektro@@ 18433
tan 18433
chens 18432
wären 18430
Spieler@@ 18429
tom@@ 18429
Mond@@ 18425
Produkt 18424
wissen 18422
Carlo 18418
Programm@@ 18418
Stufe 18415
rau@@ 18415
chinesische 18413
sons 18413
wach@@ 18409
Human@@ 18407
ütze 18401
Claude 18398
Mannes 18398
klass@@ 18398
Davon 18394
Kommandant 18391
Nationalen 18391
Ali 18383
Thron@@ 18382
Vertrags@@ 18381
gewisse 18381
veranstaltungen 18379
Kanzel 18374
Blüten@@ 18370
besitz 18370
selb@@ 18369
Gegenstand 18367
aller@@ 18367
Quadratkilometer 18365
dank 18361
Gräfin 18359
Politi@@ 18358
traditionelle 18358
Eishockeyspieler 18353
Schwerin 18353
Karls 18352
Produkt@@ 18351
kamp@@ 18350
Integration 18349
aufzu@@ 18349
0,5 18348
Motiv 18347
szene 18347
Hoffnung 18342
Vereinigte 18341
pil@@ 18341
sur@@ 18341
feiern 18337
niederländische 18336
ausgerüstet 18331
igsten 18330
einsatz 18326
Konzert@@ 18325
annt 18325
Plätzen 18320
km@@ 18320
sag@@ 18319
tn@@ 18319
Geschäfte 18318
Rec@@ 18315
Zugleich 18315
affen 18314
abschnitt 18313
gebaute 18311
heits@@ 18311
Verbandes 18310
rang 18310
erkannte 18307
Ruine 18306
verbreitete 18304
Beach 18303
finanziert 18303
anisch 18302
Fest 18297
Knoten 18294
Bulgarien 18293
Fünf 18291
Uni@@ 18286
Johanna 18283
Dialog@@ 18282
nutzt 18274
sofern 18274
Sees 18272
rec@@ 18270
Gebirgs@@ 18265
Anwalt 18263
Selb@@ 18262
bezirks 18261
kus@@ 18259
Versicherungs@@ 18258
Premier 18255
Worten 18251
etzte 18250
öt@@ 18249
eingeb@@ 18247
inische 18247
atik 18246
Horn@@ 18244
Maur@@ 18244
Erkrankung 18241
Glaubens@@ 18241
lautete 18234
Sig@@ 18230
asser 18230
zusätzlichen 18224
1827 18223
aun 18220
Offen@@ 18219
frage 18219
westlicher 18219
Heeres@@ 18214
aki 18214
Internet@@ 18213
echnik 18213
öfe 18209
Vertretern 18208
versicherung 18206
Einkommen 18203
deutet 18203
UNESCO 18200
Time 18196
Graben 18194
jüngste 18192
140 18191
Aufhebung 18187
Büchern 18187
Verbände 18186
blick 18183
Restaurant 18180
Yorker 18180
klin@@ 18179
Zuf@@ 18170
1801 18169
spiegel 18168
welle 18168
phys@@ 18163
Gallen 18158
Trotzdem 18158
US@@ 18156
Nat@@ 18153
beauftragte 18151
verkehrs 18150
Flüsse 18149
Gesetze 18146
Gesellschafts@@ 18138
erischen 18133
Originaltitel 18129
Kämpfe 18128
aria 18127
Berichte 18124
Haushalts@@ 18123
Mitbegründer 18121
Monte 18119
arbeits@@ 18119
Erziehung 18118
ín 18118
stuf@@ 18117
02 18116
has@@ 18115
DNA 18114
verbessern 18111
orium 18108
Gelegenheit 18107
griechische 18106
Zehn@@ 18105
1805 18100
ebe 18098
Stau@@ 18097
dienstes 18096
begriff 18094
Schlaf@@ 18089
Auslands@@ 18084
bessere 18080
worauf 18080
Ep@@ 18079
Prince 18076
Autobahn@@ 18072
Kleinstadt 18069
Aufklärung 18063
Flugplatz 18062
grä@@ 18059
ider@@ 18059
gefeiert 18058
Elizabeth 18053
lichste 18052
Weiter 18051
lau 18050
Debütalbum 18041
Dev@@ 18037
Vögel 18033
Schu@@ 18031
neur@@ 18022
sank 18021
transportiert 18020
Ex 18019
1804 18015
Mich@@ 18015
platz@@ 18015
Eric 18013
anden 18013
Ausgangs@@ 18010
club 18008
Nachkriegszeit 18003
ARD 17998
Nas@@ 17996
Offiziere 17994
verkaufen 17992
üg@@ 17992
Historic 17990
Interpretation 17988
ikern 17985
etten@@ 17984
Day 17983
NATO 17977
werfen 17977
tiefe 17974
Wein 17973
entlich 17972
Aspekte 17971
Verbot 17970
Pass 17964
fang 17964
icher 17964
Bek@@ 17961
erbte 17961
mw@@ 17958
Triebwagen 17957
Schichten 17954
ex 17952
Tennis 17950
Bag@@ 17949
ösen 17942
don 17941
nachfolgenden 17934
Creek 17925
Roland 17924
Little 17922
Verteidiger 17919
ützen 17919
1793 17918
Harvard 17916
geber 17915
erfahren 17914
Messe 17904
Darin 17902
Vorsitz 17902
Statue 17897
Golf 17894
versamm@@ 17886
erkennt 17884
rund@@ 17878
Kup@@ 17876
Gesicht 17870
ausgel@@ 17866
out 17865
Eines 17864
literatur 17858
werks@@ 17857
Früchte 17856
herum 17856
spanischer 17852
ansonsten 17851
übernimmt 17847
eingeladen 17846
lings@@ 17845
Hierzu 17842
fläch@@ 17842
dert 17840
projekte 17840
erklären 17832
nationalsozialistischen 17830
Jugoslawien 17823
ny@@ 17821
leute 17820
ächte 17820
ünde 17818
atin 17817
lem 17816
Lyon 17815
ingenieur 17814
Chance 17810
Rosa 17809
Hop@@ 17808
speziellen 17806
förderung 17803
Mord 17802
betrieb@@ 17801
Nich@@ 17800
Verluste 17800
eli@@ 17800
umgeb@@ 17799
geln 17794
Nicht@@ 17793
aster@@ 17789
Hafen@@ 17786
Sonntag 17784
arabischen 17783
della 17782
Vorlage 17781
spätestens 17781
Danzig 17778
stammenden 17777
Aussehen 17775
It 17775
onal@@ 17774
1@@ 17771
linger 17770
linke 17769
Geburts@@ 17767
Lav@@ 17767
odi@@ 17764
Geologie 17762
Gast 17760
singen 17759
reak@@ 17757
retten 17754
stellungs@@ 17752
1,2 17749
Sanierung 17749
punk@@ 17748
geöffnet 17747
Bäume 17746
bestimmen 17743
ova 17742
Zentimetern 17741
bekommt 17741
Kauf 17740
ima 17739
Berufung 17738
LP 17737
wag@@ 17737
Som@@ 17736
Regiments 17733
Ruh@@ 17733
its@@ 17732
Sta@@ 17731
Mö@@ 17730
bog@@ 17730
Vereinten 17729
geräte 17727
unmittelbarer 17727
bö@@ 17724
Mischung 17722
Höl@@ 17721
berühmten 17721
spannung 17721
Allgemeine 17720
sicherheit 17716
menschliche 17715
Männer@@ 17714
alleine 17711
Manchester 17710
wirklich 17704
Gulden 17696
Gum@@ 17693
Islam@@ 17693
schaftlichen 17693
sieg@@ 17688
Fahrzeugen 17687
landwirtschaftliche 17685
Dokumentation 17681
Südamerika 17681
Details 17680
Vizemeister 17676
Lehrer@@ 17674
händler 17673
Brücken 17670
bestattet 17667
onen@@ 17667
tex@@ 17667
Zuletzt 17666
geleg@@ 17665
kab@@ 17660
Reit@@ 17659
Waren 17655
Lediglich 17652
PC 17652
Kulturdenkmale 17651
Ingenieur@@ 17641
Sicht@@ 17637
innen@@ 17637
Wilhelms 17636
gemeinden 17636
Schwar@@ 17635
iziert 17634
Eier 17632
Sportliche 17632
Bielefeld 17628
Atelier 17625
oss 17623
japanischer 17617
bo 17616
Georges 17611
chemische 17609
tic@@ 17609
verlässt 17608
val@@ 17606
ofen 17604
erfolgreichsten 17597
Himmel@@ 17595
Gedanken 17591
lach 17590
Michigan 17585
Kraftwerk 17584
Janeiro 17583
verbind@@ 17582
aux 17580
Opposition 17578
feier 17577
loc@@ 17573
4,@@ 17572
Foundation 17571
obere 17571
schwach 17569
belegen 17566
Lizenz 17563
Technologie 17563
Domin@@ 17561
Hauptbahnhof 17560
Siegfried 17559
stattfinden 17559
Gir@@ 17558
Wart@@ 17551
Nördlich 17549
lateinischen 17548
Dauer@@ 17547
Andrea 17546
Vorgeschichte 17546
Rajon 17545
Pommern 17542
landwirtschaftlich 17536
grab 17533
abgegeben 17531
seig@@ 17531
Personal 17529
stimm@@ 17528
thi@@ 17527
verd@@ 17527
Therapie 17526
verpflich@@ 17524
Austausch 17523
besaßen 17521
division 17520
er- 17520
oli 17520
taucht 17517
Rolf 17516
Zeh@@ 17516
ater@@ 17515
tisches 17515
wovon 17514
Blau 17513
bricht 17511
Testament 17507
bestellt 17507
installiert 17506
KPD 17504
gedruckt 17502
Falls 17499
Schüler@@ 17496
attr@@ 17495
Ausgrabungen 17494
christliche 17491
tere 17482
Friedrich@@ 17479
Ny@@ 17477
hy@@ 17475
kün@@ 17472
Astr@@ 17471
ätigkeit 17471
dot@@ 17468
iertes 17458
öfen 17457
kurz@@ 17456
1823 17454
Sohnes 17454
überraschend 17452
Wend@@ 17451
Schwarzen 17447
inski 17447
prot@@ 17445
1600 17444
bat@@ 17439
öck@@ 17439
nit@@ 17438
Gewinner 17430
iko 17430
Grun@@ 17428
Wirbel@@ 17427
äg@@ 17422
Zufluss 17420
russisch 17418
Heilig@@ 17417
angef@@ 17417
studi@@ 17417
alisiert 17416
gebnis 17414
periode 17413
ragt 17413
Gespräch 17412
hierzu 17409
Raj@@ 17404
Hirsch@@ 17403
BBC 17402
Miller 17399
gie@@ 17396
Pak@@ 17389
Vide@@ 17389
Aktiv@@ 17388
schmi@@ 17388
Antrieb 17386
Bürgerkrieg 17378
Bildern 17373
aup@@ 17370
aka 17367
kraftwerk 17367
Darunter 17362
Maße 17362
Bamberg 17361
wood 17361
Entscheidungen 17360
zurückzuführen 17360
Jud@@ 17358
stock 17358
ry 17352
zeitschrift 17347
Gäste 17346
Demokratie 17343
antreten 17340
entw@@ 17340
issen@@ 17338
Inzwischen 17334
stuhl 17333
ziel 17332
kum 17326
Königreichs 17325
zentr@@ 17324
Pfund 17323
positive 17323
technisch 17323
esi@@ 17320
unklar 17320
Din@@ 17318
Tauf@@ 17318
ühle 17316
mut 17314
digungen 17309
Koll@@ 17307
medizinische 17306
Kaserne 17304
Schreibweise 17299
Latein@@ 17298
Innenraum 17296
Jak@@ 17293
Palais 17285
gebunden 17285
go 17285
lieb@@ 17284
isten@@ 17276
umfangreichen 17276
tek@@ 17274
gesperrt 17270
Model 17268
Emp@@ 17267
unterzeichnete 17267
Bahnhof@@ 17264
Mitteleuropa 17263
kandidierte 17262
Ca@@ 17261
ō@@ 17261
Gra@@ 17260
Schar@@ 17258
Township 17258
erfüllen 17258
Zweig@@ 17257
Kreise 17254
Alex 17250
urgischen 17249
wissenschaftlich 17245
Sand 17243
gedacht 17241
Krise 17239
gotischen 17238
Hospital 17235
Obergeschoss 17235
soweit 17235
Lokomotive 17234
Begriffe 17233
gegen@@ 17231
Voraussetzungen 17228
Bernd 17227
Salzburger 17225
erz@@ 17224
IC@@ 17223
kub@@ 17221
orientiert 17221
Übertragung 17221
frau 17216
typisch 17215
Platten@@ 17214
Fiction 17207
Techn@@ 17205
Kommand@@ 17204
Feuerwehr@@ 17200
Liv@@ 17197
Gun@@ 17196
Europe 17195
aro 17195
ava 17193
Anthony 17192
ansässigen 17189
IN@@ 17188
Jagd 17186
enseite 17185
Auto@@ 17184
setz@@ 17184
gewächse 17183
schi 17182
Country 17180
Tas@@ 17180
Mineral@@ 17179
Costa 17178
Zwecke 17177
mitte 17177
kost@@ 17176
Vorläufer 17174
bers 17174
Business 17172
unweit 17167
zugeteilt 17164
Nacional 17163
Kost@@ 17158
dach@@ 17158
sak@@ 17158
ausgest@@ 17153
qualifiziert 17152
Direkt@@ 17150
wählen 17145
TSV 17144
pflanzen 17143
Hände 17142
schef 17139
einger@@ 17137
Gitarrist 17136
quellen 17136
Bernard 17135
keinem 17132
Eis 17130
hain 17129
vorerst 17126
Schild@@ 17125
platzierte 17123
bro@@ 17122
Staatsexamen 17118
für@@ 17116
ativer 17115
Aufführung 17111
Entlassung 17110
Glück 17110
Anf@@ 17105
ye 17105
ides 17104
Pur@@ 17102
wen 17100
Holland 17098
geordnet 17098
turnier 17097
Übersicht 17096
Allen 17095
stabil@@ 17094
trich@@ 17094
ham 17092
grenz@@ 17088
Racing 17087
Napoleon 17086
Diesen 17083
Arab@@ 17082
ograf@@ 17081
Bogen 17080
Lebensjahr 17074
Lady 17071
Erzählungen 17069
OS 17067
Zusatz@@ 17065
Zwisch@@ 17065
Naturschutz@@ 17062
ministers 17056
mäßige 17055
izi@@ 17049
Samm@@ 17047
Titelverteidiger 17045
Klima@@ 17044
ämp@@ 17040
Brü@@ 17037
Sper@@ 17033
Cat@@ 17031
produkte 17030
alist 17028
Kim 17027
altungen 17022
Nationalversammlung 17021
Pferde 17018
Abkommen 17016
Kriterien 17009
beenden 17008
fertig@@ 17008
vorne 17008
angestellt 17007
überführt 17007
Forum 17003
Blas@@ 17001
Erzbistum 17001
Tabellen@@ 16997
Bass@@ 16996
fotograf@@ 16995
District 16992
gelangt 16992
umfassen 16992
4.@@ 16988
Temperaturen 16986
holen 16986
uppen 16985
tens@@ 16984
zugeschrieben 16978
š 16970
Wachstum 16967
War 16967
Liefer@@ 16966
Rah@@ 16965
Pflege 16962
ünden 16959
ju@@ 16957
1700 16955
alteten 16952
hinteren 16950
Luther 16943
Verletzung 16941
lös@@ 16939
star@@ 16939
urs 16937
Minnesota 16936
Stephen 16934
arch@@ 16930
Wesen 16928
Jim 16927
unge 16927
Gemeinschafts@@ 16924
Werbe@@ 16924
halte 16923
samen 16923
Eu@@ 16922
eth 16921
Bald 16915
vorher@@ 16913
Bä@@ 16909
Vieh@@ 16909
vielmehr 16907
Prozesse 16906
Clubs 16903
Gur@@ 16903
gh@@ 16899
ori 16895
oll 16894
Pflanze 16888
Grube 16881
Luis 16881
App@@ 16879
erschossen 16879
geld 16876
neuer@@ 16876
zut@@ 16876
arm@@ 16875
human@@ 16873
Lissabon 16872
dichte 16869
Rainer 16868
Wer 16868
Oskar 16866
kum@@ 16865
Alliierten 16863
Verz@@ 16862
igen@@ 16861
Wahr@@ 16860
ahn@@ 16858
zell@@ 16858
wohl@@ 16857
Maz@@ 16853
alisi@@ 16853
großem 16844
Fres@@ 16843
Stadtbezirk 16842
Marcus 16841
luft@@ 16838
125 16837
Evangelisch 16831
Schwein@@ 16831
Train@@ 16830
eler@@ 16830
Vorfeld 16829
ão 16828
Begleit@@ 16827
ever@@ 16826
ächer 16824
Erlangen 16821
ried 16820
Generalleutnant 16819
HK 16819
koh@@ 16819
rati@@ 16819
schwerer 16816
Entwicklungen 16815
Bridge 16813
Clemens 16808
kaiserlichen 16806
stands 16806
zwei@@ 16806
egr@@ 16803
sion@@ 16802
plante 16799
Motive 16797
abgel@@ 16795
fliehen 16795
ansässig 16794
Website 16792
Katholiken 16790
ungser@@ 16790
könig@@ 16789
Klang@@ 16788
ständen 16776
bedarf 16775
nationaler 16775
wesentliche 16775
Chemnitz 16770
br 16769
Mom@@ 16767
druc@@ 16767
Episode 16764
straf@@ 16764
geschah 16762
Nürnberger 16761
ES@@ 16760
gliedert 16758
under 16758
anne 16757
Louise 16756
Süß@@ 16752
derte 16748
ift 16743
inischen 16743
Jugendlichen 16736
angebot 16734
ith@@ 16734
DJ 16733
ehren 16731
sten@@ 16726
zehnten 16725
car@@ 16723
Kne@@ 16722
motoren 16721
ax@@ 16720
Aires 16715
verbinden 16715
äuf@@ 16711
Dritte 16703
werten 16703
jahres 16702
staat@@ 16702
schlech@@ 16700
Nordwest@@ 16696
stillgelegt 16696
Waffe 16694
ebung 16693
hö@@ 16693
kommende 16693
dy 16691
übergab 16690
Problemen 16689
Evangelische 16687
Tap@@ 16684
frem@@ 16684
ächter 16684
ilde 16683
schlechten 16682
Song@@ 16680
automatisch 16680
na@@ 16680
liz@@ 16679
uth 16677
aufgaben 16675
Affäre 16673
Redaktion 16670
schwarz@@ 16669
sichts@@ 16669
Quar@@ 16667
gu@@ 16667
dorfer 16665
Power 16658
etta 16656
Feh@@ 16652
album 16651
Grande 16642
Thailand 16642
maximale 16642
Heide 16641
Ret@@ 16641
sied@@ 16637
ów 16637
vögel 16636
umb@@ 16633
berichten 16631
vorderen 16631
jährlichen 16629
Disziplin 16628
kehrt 16623
dritter 16621
sü@@ 16620
Siedler 16618
erneuten 16616
5,@@ 16615
Wand 16613
Laut@@ 16612
Lorenz 16610
Standorte 16610
tim@@ 16610
äischen 16607
Vogel 16606
Baudenkmäler 16605
wirtschafts@@ 16605
geschehen 16604
Long 16603
eur 16603
Bataillon 16602
Konzer@@ 16602
spreis 16601
demnach 16600
untere 16597
Kroatien 16589
modern@@ 16589
Hak@@ 16588
Bewertung 16587
Spät@@ 16585
Verletzungen 16585
stel@@ 16585
eich@@ 16583
Artillerie 16581
Jag@@ 16580
Platz@@ 16580
Kit@@ 16579
Free 16577
komplex 16577
aya 16569
jan@@ 16568
any 16567
Denk@@ 16566
Abr@@ 16565
Oslo 16563
zeitliche 16563
Buenos 16562
Steiermark 16561
Vermutlich 16560
Insekten 16559
tem@@ 16558
verlaufen 16556
wesens 16551
Wellen@@ 16549
Turin 16547
mende 16546
Horn 16542
Komponenten 16542
Becker 16538
ska 16536
Moder@@ 16533
Umgeben 16531
Tum@@ 16528
jan 16527
Gesangs@@ 16522
Terror@@ 16521
bewegt 16519
Überblick 16516
fah@@ 16514
Münzen 16513
brannte 16513
Industrie@@ 16507
Regelung 16507
trennen 16506
Forscher 16505
Verteilung 16502
Ple@@ 16501
Forderungen 16499
äger 16499
Priesterweihe 16497
Alter@@ 16496
Ek@@ 16493
Lac@@ 16489
Reinhard 16488
Islam 16484
loch 16483
Taus@@ 16478
Täter 16477
erschlossen 16476
erwies 16475
gewählte 16470
Airport 16469
gleichnamige 16468
landwirtschaftlichen 16468
Einflüsse 16463
ffer@@ 16463
alle@@ 16459
Kap 16457
SP@@ 16456
wolle 16453
Pedro 16451
ly@@ 16451
geregelt 16449
Planungen 16445
schlägt 16445
Vorjahr 16443
tür@@ 16439
Könige 16436
not 16436
Conrad 16432
Dessen 16426
liter@@ 16423
yst@@ 16422
dekor@@ 16419
schiffen 16417
pers 16414
Badminton 16413
Gedicht 16408
Konservatorium 16405
tner 16405
Bret@@ 16404
denkmalgeschützten 16403
forsch@@ 16401
eder 16397
Übergangs@@ 16397
jur@@ 16396
Gros@@ 16391
Johann@@ 16391
Schlagzeug 16390
personen 16387
Julia 16386
Sterne 16384
ary 16384
1794 16383
chem@@ 16383
bri@@ 16379
etablierte 16379
Lev@@ 16375
Presse@@ 16371
mau@@ 16369
arm 16367
Letz@@ 16361
betont 16358
Leon@@ 16356
Versorgungs@@ 16356
Kampagne 16355
mente 16354
gelöst 16353
schneller 16351
konzentrierte 16349
ý@@ 16349
Sam 16347
müh@@ 16345
versorgt 16344
res 16341
Bergbau 16336
sitzen 16336
lichung 16328
Gebietes 16326
See@@ 16326
Rang@@ 16325
hinweg 16325
marke 16323
Drehbuchautor 16322
gehandelt 16322
Pflicht@@ 16321
stati@@ 16318
kirchlichen 16316
hn@@ 16311
spä@@ 16308
zunehmen 16308
Typen 16302
Bus 16298
akademischen 16298
apo@@ 16297
bek 16297
Hubraum 16293
Fall@@ 16292
schlägen 16291
Cy@@ 16289
Parlaments 16288
ektiv@@ 16288
Büro@@ 16285
Kirchspiel 16284
ziger 16284
bühne 16283
erhebliche 16283
Wirt@@ 16281
farbe 16277
junger 16275
Cos@@ 16274
Moh@@ 16273
position@@ 16271
vereinigt 16269
Straßenbahn@@ 16267
bürgerlichen 16265
tigungen 16265
zentren 16265
inklusive 16263
esh@@ 16262
eger 16258
Überlieferung 16256
ani@@ 16251
chef 16251
ausgelegt 16249
Senator 16247
same 16247
Inhalte 16246
Schall@@ 16246
Ankunft 16244
mauern 16244
č 16244
Fo@@ 16242
pflich@@ 16240
with 16237
etts 16232
Diesel@@ 16230
fasste 16229
Alice 16223
DE@@ 16223
esse 16220
Struktur@@ 16219
ständige 16219
Ereignis 16215
Verleger 16206
Vorgäng@@ 16201
Träger@@ 16200
fo@@ 16198
Hochschulen 16197
Wohnungs@@ 16197
gro@@ 16197
Jörg 16196
Hammer@@ 16195
codice 16190
studieren 16188
bemerk@@ 16187
Bed@@ 16185
orchester 16185
Bell@@ 16183
unabhängige 16183
verteidigen 16182
eu 16181
Boc@@ 16173
Schaf@@ 16173
literarischen 16170
gehabt 16169
É@@ 16168
Asien@@ 16166
Muster 16165
Hoff@@ 16163
fragt 16163
ve@@ 16162
Theatre 16160
kriegs@@ 16157
ult@@ 16155
Kristall@@ 16154
blü@@ 16151
Sache 16148
sin 16147
Umbenennung 16146
namentlich 16146
echte 16143
Humboldt 16142
René 16142
magazin 16140
Bevölkerungsdichte 16139
sitzt 16138
Rumpf 16136
ganz@@ 16134
Vorlesungen 16131
ärz@@ 16131
Mord@@ 16130
Turnieren 16129
fliegen 16125
bestritten 16123
jüngerer 16122
rich 16119
Tür 16116
büchern 16116
iß 16110
detail@@ 16109
Ausrüstung 16108
NFL 16108
zwischenzeitlich 16108
Stipendium 16106
Westseite 16103
Koalition 16101
Landesstraße 16098
gegeneinander 16093
Howard 16092
geliefert 16091
arisch 16088
ungszeit 16084
Luzern 16082
zung 16079
Dör@@ 16075
amer@@ 16075
Oberbürgermeister 16074
gesagt 16073
Paulo 16072
dritt@@ 16069
AR@@ 16068
Phosph@@ 16068
show 16068
BMW 16067
gericht@@ 16067
bericht 16066
Schacht 16061
Voraussetzung 16060
Soziologie 16059
abschluss 16059
näch@@ 16059
Fulda 16058
Helsinki 16057
Hotels 16055
grüne 16054
Blatt 16053
Sommerspiele 16052
forscher 16052
Musikern 16049
stern 16044
thalle 16044
gerichtet 16043
legi@@ 16040
Polize@@ 16038
Elektron@@ 16037
jewitsch 16037
trotzdem 16033
Angriffe 16032
Gör@@ 16032
Speicher@@ 16031
ähn@@ 16028
ula 16026
metall@@ 16023
angekündigt 16022
Bör@@ 16021
Heilige 16020
sow 16014
1790 16007
dic@@ 16007
Läng@@ 16006
NBA 16005
gemessen 16004
präsident 16004
Pferd 16003
ebel 16001
debüt 15998
eser 15998
arz@@ 15996
Fun@@ 15993
endeten 15992
geschw@@ 15992
Südlich 15987
gol@@ 15987
unterhält 15987
Flüchtlinge 15986
Ausdehnung 15983
Elementen 15982
Willen 15982
ifen@@ 15980
Kämpfen 15977
Qualitäts@@ 15977
französisch 15977
Studioalbum 15976
Handball@@ 15973
ruf 15973
Betre@@ 15969
hoff 15967
Laur@@ 15963
Saal 15963
Zeche 15960
Gemäß 15959
analyse 15959
Zensus 15957
Elektr@@ 15953
Mül@@ 15951
aufnehmen 15949
horst 15949
zeitgenössischen 15949
Ci@@ 15948
Texten 15946
Tatsächlich 15944
sicherung 15943
engl@@ 15941
geführte 15938
Game 15935
kritisch 15935
Genehmigung 15933
registriert 15931
finnischen 15930
Kab@@ 15927
Kie@@ 15926
stad@@ 15922
Brust@@ 15921
eus 15920
Francesco 15919
Immun@@ 15918
längeren 15918
wind@@ 15915
System@@ 15914
Brian 15913
Ray 15912
Film- 15911
autor 15910
teilten 15910
bares 15905
Bruders 15904
Paderborn 15903
Polar@@ 15898
pflanz@@ 15898
Dich@@ 15896
Fle@@ 15896
dänische 15896
Lich@@ 15895
1792 15894
Winkel 15894
Begründung 15892
Neuk@@ 15892
Fro@@ 15891
schwierig 15889
dreh@@ 15888
Sprung 15887
Geistlicher 15886
Mör@@ 15886
zig@@ 15886
extrem 15884
trom@@ 15884
Handball 15881
reine 15881
UdSSR 15879
publiziert 15879
Bez@@ 15878
Bronz@@ 15878
Agrar@@ 15877
icke 15877
Erben 15876
renoviert 15874
rolle 15872
saison 15870
Schnitt@@ 15869
kä@@ 15869
Verbrechen 15866
Glasgow 15865
gesammelt 15864
halben 15862
1940er 15861
Römer 15861
ulen 15861
Zier@@ 15857
Franken@@ 15856
entiert 15856
Tempel@@ 15855
gewöl@@ 15853
stütz@@ 15853
Mitteln 15852
bereichen 15852
medizin@@ 15850
töten 15849
welchen 15847
goldenen 15844
liefert 15843
ücks 15838
schaf@@ 15835
Lis@@ 15831
Spä@@ 15828
boot 15824
angetrieben 15822
Landwirtschafts@@ 15818
Camp@@ 15817
Mercedes 15817
Ausscheiden 15808
Gärten 15807
ST@@ 15806
tiefen 15806
Koordin@@ 15804
äume 15804
Net@@ 15802
Missions@@ 15800
Eigenschaft 15799
DC 15793
Harald 15792
Leicht@@ 15791
IS@@ 15788
Reform 15787
seitens 15787
fünfte 15785
Kleinen 15782
Rog@@ 15778
sat@@ 15777
Ry@@ 15776
Herrn 15772
1.000 15771
Zar@@ 15771
doppel@@ 15769
Teuf@@ 15765
Restaurierung 15763
Ärzte 15763
bedroht 15755
älterer 15753
August@@ 15752
dauerhaft 15751
Jüng@@ 15750
zo 15750
ă@@ 15750
Asteroid 15748
revolution 15747
engeb@@ 15745
Mathematiker 15743
zugehen 15742
Schließung 15741
Unentschieden 15741
leitungen 15739
Gefangenschaft 15738
ular@@ 15737
itäten 15736
May@@ 15734
tern@@ 15733
zentrums 15733
zuführen 15733
verzeichnis 15732
ersetzen 15730
Unterscheidung 15728
Heilbronn 15727
ilig 15727
räum@@ 15725
kan 15722
fur@@ 15721
Hauptsitz 15720
Freizeit@@ 15719
Sl@@ 15719
Stadium 15718
Vordergrund 15717
agt 15717
Güterverkehr 15715
katholisch 15714
Dinge 15713
Tol@@ 15712
Säng@@ 15710
Chir@@ 15708
idae 15708
tes@@ 15708
ängt 15707
Peru 15704
Synchron@@ 15704
Ort@@ 15702
sturm 15700
Montreal 15698
bi 15695
werkes 15693
Geburt@@ 15689
kund@@ 15686
Lamp@@ 15685
änder@@ 15683
Vereinen 15680
reicher 15679
unterschied 15676
Wen@@ 15674
Freil@@ 15671
Uhr@@ 15670
Laub@@ 15669
dei 15669
deutschsprachige 15666
Streit@@ 15665
konstruk@@ 15665
ändischen 15665
verursacht 15661
ander 15659
rak@@ 15658
öl 15658
4,5 15656
Achse 15656
verarbeitet 15655
Pic@@ 15654
Schal@@ 15653
Georgia 15648
beobachten 15648
Höchst@@ 15644
Sou@@ 15642
gedeckt 15641
Loire 15639
arte 15639
Staatlichen 15636
1789 15632
Ganz@@ 15631
verschoben 15631
gre@@ 15628
lim@@ 15625
Freunden 15623
23@@ 15621
Takt 15621
Hit@@ 15620
12@@ 15619
sieger 15611
ovice 15610
siv@@ 15608
1797 15604
Ross 15604
ance 15601
samm@@ 15601
Block 15600
well 15599
Leser 15596
engel@@ 15596
modi@@ 15594
IS 15593
gewissen 15593
flachen 15591
Litauen 15590
Over@@ 15589
Landesregierung 15588
Stück@@ 15587
Drei@@ 15585
din 15585
demokrati@@ 15580
markiert 15580
verkehren 15576
sem@@ 15574
Chefredakteur 15573
Reserv@@ 15573
laufbahn 15572
ehenden 15570
verließen 15568
Fot@@ 15567
flüssig@@ 15567
Historische 15566
Rande 15566
türkische 15561
Biografien 15559
Olympische 15555
AL@@ 15554
maßen 15553
Dokumente 15549
Fürstentum 15546
Lippe 15539
Löwen@@ 15536
organ@@ 15529
Nachbarorte 15528
prim@@ 15528
Befreiung 15526
Fotos 15525
Sports 15524
Wuppertal 15524
normalen 15524
losigkeit 15521
Abgrenzung 15516
ey@@ 15516
Jes@@ 15515
Bord@@ 15513
Flo@@ 15512
produkt 15512
geehrt 15511
Sandstein 15510
ausgesch@@ 15510
chteten 15505
ßt 15504
Lud@@ 15503
links@@ 15502
Flam@@ 15500
teilnahm 15499
seitlich 15496
Benedikt 15493
Römischen 15492
verteidigte 15492
Behörde 15491
aufweist 15490
Aufstellung 15488
Daraus 15487
historischer 15484
tron@@ 15483
unge@@ 15483
verkehr@@ 15483
Rundfunk@@ 15482
Lek@@ 15479
osa 15476
Diskografie 15474
Gle@@ 15470
vornehmlich 15470
Long@@ 15467
Entscheidungs@@ 15466
mag 15464
änderung 15464
wahr 15463
erkran@@ 15459
graf@@ 15455
Gordon 15454
Hü@@ 15454
Ay@@ 15453
beliebt 15453
umfassenden 15453
schä@@ 15448
erneute 15442
Konstanz 15441
New@@ 15441
Moor@@ 15440
akte 15440
ring@@ 15438
VfL 15433
Teilung 15432
Trom@@ 15432
abend 15430
Sicherung 15429
\ 15429
kad@@ 15426
lieg@@ 15426
BGB 15423
Nationale 15423
besonderer 15422
Arbeitgeber 15421
Junior 15421
Queen 15420
lieder 15420
Skulpturen 15419
Stanley 15416
kran@@ 15415
digkeit 15414
änke 15413
Kurs 15409
bindung 15407
tschechischen 15407
mischen 15406
ère 15406
Alan 15405
galten 15403
Periode 15402
Zucker@@ 15402
gers 15400
tas@@ 15399
wendet 15396
Germanistik 15393
archiv 15393
Bomben@@ 15392
davor 15389
Jede 15385
Umzug 15384
Sternbild 15383
Wis@@ 15381
eds 15381
sterben 15381
Brüdern 15377
sierung 15374
Felsen 15371
Hinsicht 15367
ziert 15367
eingewechselt 15363
liberalen 15363
enzi@@ 15360
nheim 15359
Ehepaar 15356
mf@@ 15353
Haltepunkt 15351
Admiral 15349
älle 15349
eden 15348
Römer@@ 15346
projek@@ 15345
Australian 15344
Südost@@ 15340
Archäologie 15334
zeug 15332
vergleichbar 15331
poem 15330
polnischer 15330
Fleisch@@ 15329
Bahnhofs 15325
pper 15324
Kast@@ 15315
entliche 15314
Neub@@ 15311
Roc@@ 15311
Las 15310
Kub@@ 15308
Schö@@ 15307
AB 15306
Neg@@ 15306
No 15302
gier 15301
Höhen 15299
Fame 15297
Syrien 15297
unabhängigen 15296
Küche 15295
ades 15295
fizierung 15294
Abbau 15290
omb@@ 15289
Anstellung 15287
gerne 15281
Rest@@ 15280
Stürmer 15280
Chron@@ 15278
besetzte 15276
domin@@ 15271
Durchschnitt 15270
Santiago 15270
Ries@@ 15268
benen 15268
Bar 15267
stücken 15266
Ga@@ 15259
Cro@@ 15258
urop@@ 15256
hagen 15254
Eb@@ 15252
Neckar 15251
hom@@ 15251
landete 15250
Index 15246
Kolonien 15245
Eintritt 15243
krieg@@ 15243
Romans 15242
allmählich 15237
Gall@@ 15235
ünd@@ 15234
Ander@@ 15233
Finn@@ 15232
Neus@@ 15232
RS 15230
anteil 15229
Textil@@ 15227
lehnt 15227
Stuttgarter 15226
guter 15225
Austragung 15220
wig 15220
Mitgliedschaft 15219
dortige 15218
ikan@@ 15217
Ontario 15213
offizier 15211
iller 15209
Är@@ 15207
Imp@@ 15206
trags@@ 15206
ähnelt 15204
kommando 15202
lossenen 15201
Eh@@ 15200
Abraham 15191
regeln 15190
programme 15189
Panzer 15188
Hauptrunde 15186
tro@@ 15186
ungsp@@ 15186
Aug@@ 15184
Ari@@ 15183
Personenverkehr 15182
esch 15179
Well@@ 15178
Drogen@@ 15175
atisch 15173
chemischen 15172
Vater@@ 15171
geklärt 15171
Ausgangspunkt 15169
Staffeln 15169
avi@@ 15163
gründung 15163
prüf@@ 15162
Bemühungen 15159
Herrenhaus 15157
finanz@@ 15157
mig@@ 15156
ania 15154
zun@@ 15152
Tim 15151
hinterließ 15151
konstruktion 15150
Initi@@ 15147
Konstruk@@ 15147
Ostseite 15146
nom@@ 15145
ä 15145
gutes 15144
verarbeitung 15142
abgehalten 15140
Ostsee 15139
gewählten 15138
Eisen 15137
steuer 15137
Leich@@ 15134
Cu@@ 15133
ainer 15132
vorzeitig 15132
Edinburgh 15131
Leutnant 15130
Tax@@ 15129
funk 15128
wälder 15123
Hang@@ 15122
albahn 15122
Henn@@ 15121
bedeutender 15121
stetten 15119
rel@@ 15118
med@@ 15117
kreises 15114
ators 15113
reis@@ 15113
tropischen 15113
echten 15112
Austria 15110
Cheftrainer 15108
ron 15108
prache 15107
Düsseldorfer 15106
feld@@ 15104
allgemein@@ 15103
Pfleg@@ 15102
eignet 15101
lü@@ 15096
säure 15096
10.@@ 15094
Veränderung 15093
Wär@@ 15093
frei@@ 15092
geprägten 15091
erische 15090
Sarah 15089
Diego 15088
bezeichnen 15086
erwartet 15085
po 15085
stadion 15085
Ox@@ 15083
fertigen 15082
ty@@ 15082
ätzen 15082
Regime 15080
familien 15080
eingeschränkt 15078
musiker 15078
Betreiber 15077
öse 15077
Proz@@ 15074
gehalt 15074
Thüringer 15073
berief 15071
gebenden 15065
plötzlich 15065
erfolgreichste 15064
FA 15063
Herzogs 15060
quote 15060
Beendigung 15057
dens@@ 15057
sorgen 15057
Tier 15056
produktionen 15056
Moskauer 15055
serien 15052
Philip 15051
dik@@ 15050
Lied@@ 15047
Hohl@@ 15045
Bibel 15044
Damals 15043
Reederei 15042
Mythologie 15041
Manche 15037
heiraten 15036
Marco 15035
CSU 15034
ausstellungen 15033
verzichtet 15033
Bein@@ 15032
Maurice 15032
Moschee 15031
Passagiere 15029
nomin@@ 15029
Kath@@ 15026
Schmal@@ 15026
lten 15025
Waffen@@ 15024
mäßigen 15024
Diplomat 15022
Projek@@ 15022
Kurzfilm 15019
Zürcher 15019
altes 15018
mutter 15017
aktu@@ 15016
aufzunehmen 15016
Freie 15015
Kennzeichen 15015
forderten 15015
maß 15014
wachsenden 15013
Christopher 15011
ihe 15011
Schnitt 15006
vermehrt 15006
anst@@ 15005
old@@ 15005
Entertainment 15004
Mauern 15004
Lip@@ 15003
etzt 14999
Erk@@ 14997
dienste 14997
mont 14994
brü@@ 14993
Dank 14989
Colorado 14987
Aktionen 14983
fassen 14983
ami 14981
EG 14979
Faktoren 14979
Oft 14978
Kombin@@ 14971
betreiben 14971
barocke 14970
besseren 14970
0.000 14969
Van@@ 14969
Tanz 14966
damp@@ 14965
aer 14964
fertig 14964
uchs@@ 14964
verbessert 14961
angegriffen 14958
30@@ 14957
Skel@@ 14957
bewaffneten 14957
bür@@ 14948
Vorlauf 14947
lar 14947
Serbien 14946
Wladimir 14944
pa@@ 14943
abweich@@ 14941
ix 14939
schoss 14939
Hits 14938
ender@@ 14938
Donau@@ 14937
Erreichen 14937
Umständen 14935
bewertet 14934
enfels 14932
Vit@@ 14931
Bak@@ 14930
Nord- 14930
alischen 14929
Cou@@ 14928
ordnungen 14928
Künstlerin 14927
Opern@@ 14927
ci 14927
Fast 14926
Adresse 14924
Old 14924
Kunstgeschichte 14921
belegten 14921
jo 14921
bekannteste 14918
Missouri 14912
ès 14908
Königlichen 14907
betreute 14907
fassade 14907
wesentlichen 14906
utt@@ 14903
Exemplaren 14902
dün@@ 14902
Mam@@ 14899
big 14898
burgischen 14897
Dokumentarfilm 14896
ota 14895
Kugel@@ 14894
otische 14894
gestartet 14892
füllt 14891
Pastor 14890
UN@@ 14890
NRW 14889
ime 14889
offensichtlich 14889
Continental 14886
fiz@@ 14886
kunden 14885
geholt 14883
konz@@ 14882
ere@@ 14880
geordnete 14880
versi@@ 14878
ations 14875
nchen 14872
Kleidung 14866
geometr@@ 14865
Ans@@ 14862
Grim@@ 14852
Hamb@@ 14852
saniert 14851
VfB 14850
angesichts 14848
Bestimmungen 14847
boten 14847
Sun 14846
án 14846
Organisations@@ 14844
Zy@@ 14844
verliebt 14841
Infolge 14838
bestes 14838
Wett@@ 14834
Maß 14828
Technology 14827
ndorf 14826
Vorhaben 14825
aufeinander 14824
unterwegs 14824
Donald 14821
differenz@@ 14820
Briefe 14818
Nachlass 14816
zeitigen 14810
örtliche 14810
befindliche 14809
eo 14804
Pius 14802
übertrug 14801
heb@@ 14800
loser 14800
Streich@@ 14799
brenn@@ 14799
Asch@@ 14798
daß 14798
ński 14798
bruch@@ 14797
Had@@ 14796
Nachweis 14794
Erwin 14793
ogenen 14793
ente@@ 14789
tot 14789
einzeln 14787
gefahren 14783
komplette 14783
ian 14779
Bundeslig@@ 14772
Konzern 14771
Beut@@ 14770
beinahe 14768
Völker 14762
Ferrari 14761
Luise 14760
acker 14759
ear@@ 14759
konzentr@@ 14759
Niederlagen 14757
ländische 14756
näher@@ 14756
Ära 14756
marsch@@ 14754
Zwangs@@ 14750
Ken@@ 14747
spur@@ 14747
Duke 14745
Ermordung 14743
Kurfürsten 14743
kontin@@ 14743
Naturpark 14741
Residenz 14741
Böden 14739
age@@ 14738
beruh@@ 14734
Mountains 14733
natürlich 14727
wol@@ 14725
gan@@ 14723
schlüssel@@ 14721
Fred 14720
Nikolai 14720
Niveau 14719
angriff 14718
teri@@ 14718
Public 14711
ij@@ 14711
Kapazität 14710
liefern 14709
markt@@ 14708
dien@@ 14707
Night 14706
rag@@ 14706
oi 14705
Blum@@ 14699
Dep@@ 14699
Italien@@ 14696
law 14696
Beamten 14693
Moment 14692
elemente 14692
Seh@@ 14691
Selbst 14691
Mr. 14690
Mathemati@@ 14689
Willy 14689
Adams 14688
alisierten 14688
Fauna 14687
vermittelt 14684
vergangenen 14683
Bac@@ 14682
Q 14678
Turn@@ 14677
eingeteilt 14676
Kni@@ 14675
Aufsteiger 14671
Generationen 14671
verpflichtete 14669
Gregor 14667
befestigt 14666
Bundesstaaten 14663
spre@@ 14661
Vincent 14658
jugend@@ 14658
Gras@@ 14657
Schre@@ 14656
themati@@ 14656
itter 14654
astr@@ 14653
Abteilungen 14648
Borussia 14648
Sieben@@ 14648
sender 14648
Einnahmen 14646
Bewegungen 14645
UK 14644
Ernährung 14643
VII. 14642
konservativen 14642
Wappen@@ 14641
Johnny 14639
ua 14639
wall 14639
Weblinks 14638
viermal 14637
Trasse 14636
Veranstaltungs@@ 14636
Nominierung 14634
Campus 14630
Syndrom 14630
verteilung 14630
post 14627
strö@@ 14626
inseln 14621
Death 14620
det@@ 14619
ée 14616
Gos@@ 14613
radi@@ 14612
stoßen 14612
Torped@@ 14610
Verkauf@@ 14609
hafen 14609
Erstlig@@ 14608
SE@@ 14607
Außenminister 14605
erhaus 14599
üf@@ 14597
Felder 14596
polnisch 14595
Run@@ 14589
Münster@@ 14588
uraufgeführt 14583
zeitgleich 14583
Forderung 14579
Welle 14577
verletzung 14576
Nek@@ 14575
Untersuchungs@@ 14570
ket@@ 14570
ox@@ 14562
Tageszeitung 14561
U.S. 14561
auffäl@@ 14560
waffen 14560
Kün@@ 14559
niedrigen 14557
reit@@ 14555
ukrainischen 14555
ope 14554
Produk@@ 14552
Themen@@ 14549
Gegenstände 14547
BSG 14546
Hals@@ 14544
Aqu@@ 14540
Airlines 14538
basierte 14538
stirbt 14538
Schwanz 14537
Risiko 14534
bol@@ 14534
Prager 14533
Rund 14533
floh 14533
seitigen 14533
bildern 14529
rhein@@ 14527
til 14525
Erfolg@@ 14524
Landtag@@ 14523
egg 14523
klassi@@ 14523
kritischen 14522
Individuen 14520
Order 14520
erhöhen 14520
Sturz 14519
Schwimm@@ 14518
annte 14514
Stief@@ 14510
Kontr@@ 14509
abermals 14509
zerstörten 14509
atorium 14508
ausschied 14508
1799 14506
verlust 14506
jährig 14503
stationen 14500
Akt 14496
Assistenz@@ 14496
eb 14496
kischen 14496
Arm@@ 14494
jüdischer 14493
malte 14493
ystem 14493
ennetz 14491
schil@@ 14489
betätigte 14487
steiner 14486
zugewiesen 14484
äß@@ 14484
manche 14482
zerstörte 14482
Court 14480
Clark 14478
Südkorea 14477
Längs@@ 14476
Franz@@ 14475
eburg 14474
vertritt 14474
Bischöfe 14471
Restaur@@ 14471
Händen 14470
eigenständigen 14469
herrn 14468
Geschwister 14467
Lausanne 14467
nar@@ 14467
Gam@@ 14466
iler@@ 14465
offs 14465
Gymnasiums 14461
sechs@@ 14460
äss@@ 14459
Mindest@@ 14458
con@@ 14457
Dienstleistungen 14453
leben@@ 14450
Hain@@ 14449
Kiew 14448
gesetzten 14447
ordnete 14446
dat@@ 14445
sens 14445
betriebs@@ 14444
entes 14444
gestaltung 14442
Viertel@@ 14440
gemeldet 14437
Angeb@@ 14434
Politikerin 14433
Reaktionen 14433
Sag@@ 14431
treu 14431
Giuseppe 14429
astronom@@ 14428
neunten 14428
rup@@ 14428
Häufig 14426
ake 14426
Haut@@ 14425
ef 14425
stunden 14422
ersdorf 14420
fasst 14420
gerecht 14420
mische 14419
unterstand 14418
sammeln 14417
itischen 14416
baut 14413
Stufen 14412
hütte 14412
Jimmy 14410
ro 14410
Biographie 14409
fas@@ 14407
Board 14406
präs@@ 14404
Law 14403
Hyper@@ 14402
Chief 14399
angs 14399
äumt 14398
Dres@@ 14397
Anti 14396
Fähigkeit 14396
ous 14395
weltmeisterschaft 14395
Mitglieds@@ 14394
Hotel@@ 14393
litt 14393
Moore 14392
Repräsent@@ 14390
Fürsten@@ 14389
produzierten 14389
Verlags@@ 14388
dies@@ 14386
Anderson 14384
Wirtschaft@@ 14384
durchquert 14383
urt 14383
Kreuzung 14377
äger@@ 14376
icus 14375
ande 14374
Lap@@ 14366
Solo 14366
umen 14366
Aur@@ 14365
Bewohnern 14365
Anlehnung 14364
Kontroll@@ 14363
lenden 14361
Allianz 14360
aufgelistet 14360
pfung 14360
ostr@@ 14358
eingenommen 14355
Stämme 14352
frucht@@ 14352
geschäfts@@ 14352
Unterneh@@ 14351
Vize 14349
gebildete 14348
Mühlen@@ 14345
geraten 14343
nisses 14342
Digit@@ 14337
entwässert 14337
Atmosphäre 14330
Volkes 14329
Kansas 14328
Woll@@ 14326
eht 14326
rufen 14325
Bin@@ 14319
Wettbewerbe 14318
stands@@ 14318
Lothringen 14317
Send@@ 14317
verkehrt 14317
Konflikten 14315
Mayer 14314
Minder@@ 14313
schild 14313
Weser 14312
absolviert 14312
herzog@@ 14310
Seminar 14309
greifen 14308
Disziplinen 14307
Wittenberg 14301
stiftung 14300
Musikvideo 14298
Stän@@ 14298
biet 14297
Unfall@@ 14295
ländlichen 14290
zuf@@ 14287
Adelsgeschlecht 14285
flossen 14283
befreit 14281
mah@@ 14281
Kontin@@ 14277
sive 14277
spezifische 14277
Kulturen 14276
Hammer 14272
Temperatur@@ 14272
zte 14272
immer@@ 14270
Antarctic 14268
Anwesenheit 14268
üge 14264
motor@@ 14263
emb@@ 14262
zuk@@ 14262
Lexikon 14261
Talent 14261
ypen 14258
Path@@ 14257
Naturschutz 14256
Stock 14254
USS 14254
konzipiert 14252
verschi@@ 14252
Platten 14251
deswegen 14251
Belgrad 14247
ordnen 14247
brasilianischen 14245
brau@@ 14242
æ@@ 14241
Wy@@ 14240
Zwer@@ 14240
Greifswald 14239
Seele 14239
begleit@@ 14239
Abbildung 14238
Playoffs 14238
lat 14238
Generalsekretär 14237
Kavallerie 14234
braucht 14234
äußersten 14231
5.@@ 14230
Zusch@@ 14229
gewal@@ 14228
tis@@ 14225
Geschlechts@@ 14223
eigenem 14221
Vermess@@ 14220
itsch 14219
Hinter 14217
überzeugen 14217
kritische 14216
Erdbeben 14215
Dö@@ 14214
ele@@ 14214
sand@@ 14214
Stock@@ 14213
Verfilmung 14210
mte 14209
öm@@ 14205
entschloss 14203
Berechnung 14202
Stab 14202
aue 14200
Seil@@ 14198
finanziell 14195
Keller@@ 14193
versuche 14193
verwundet 14193
Reiter 14189
13@@ 14187
Rechtswissenschaft 14187
Stadtr@@ 14186
Sportler 14185
Schein@@ 14184
scheibe 14184
Nes@@ 14183
Wird 14180
sekretär 14177
Denn 14176
ew 14176
Buches 14173
Panz@@ 14168
Pacific 14164
normalerweise 14163
0ern 14162
Bühn@@ 14162
verläng@@ 14162
ausgesprochen 14160
Klim@@ 14159
ehrten 14159
muster 14159
Seither 14158
Wälder 14157
deh@@ 14157
einzelner 14155
ises 14154
stürzte 14154
Vin@@ 14149
vorhandene 14148
Loch 14146
enko 14144
Schild 14142
Wiedervereinigung 14142
demokratische 14138
750 14136
entierten 14135
Arm 14133
ej@@ 14132
wein 14132
Biologie 14131
Schad@@ 14131
langjährigen 14131
Wirklichkeit 14130
deutliche 14129
Roth 14128
Wisconsin 14128
ecks 14128
Projekten 14127
vorherigen 14127
unken 14126
Ursachen 14122
May 14121
üstung 14119
Gleise 14116
feier@@ 14111
Philologie 14109
pflege 14108
Christine 14107
rats@@ 14107
via 14106
sonn@@ 14105
ergaben 14104
therapie 14103
Billy 14102
onale 14102
auseinander@@ 14100
Kno@@ 14097
Zweig 14097
ebenen 14096
Bruch 14094
Schaffung 14093
6,@@ 14092
Hildesheim 14092
Nachricht 14092
yer 14091
Detroit 14090
unbekannten 14088
ören 14088
Mittelmeer 14086
chor 14085
wände 14085
systemen 14084
fik@@ 14083
Passagier@@ 14081
Wert@@ 14081
innehatte 14080
Space 14079
fang@@ 14079
entfernten 14077
Basis@@ 14076
Petrus 14076
Junior@@ 14072
Antwort 14070
kriti@@ 14068
Memorial 14067
Welter@@ 14067
Rub@@ 14066
gegebenen 14066
schnit@@ 14066
Erziehungs@@ 14065
Fuchs 14065
Schwarze 14065
finale 14065
kampf@@ 14065
spendete 14064
EC 14063
decke 14063
konferenz 14063
schmalen 14062
abgesetzt 14061
anf@@ 14061
1795 14059
Hydro@@ 14058
Profi 14058
greift 14057
Mainzer 14056
Zweitlig@@ 14056
Garde 14055
xen 14051
namens@@ 14050
zylinder 14048
äußere 14048
Bind@@ 14047
Nachwuch@@ 14045
dos 14044
Haag 14041
Perspektive 14040
Unterrichts@@ 14039
Schaden 14038
unds 14038
itzen 14036
ops 14036
ogene 14035
Dekanat 14034
herzustellen 14034
Krimin@@ 14032
AD@@ 14031
Räumen 14031
ble@@ 14031
Benz 14028
Gerät 14028
Privates 14026
inform@@ 14024
Bischofs@@ 14023
jo@@ 14023
schnellen 14023
yc@@ 14022
gebrochen 14021
Vorstandsmitglied 14019
belieb@@ 14019
konzept 14018
Schauspiel 14017
anger 14017
dauert 14016
deutsches 14016
ehrte 14013
Derzeit 14008
Erstausstrahlung 14008
kes@@ 14008
hi 14007
ý 14007
Conference 14004
ER@@ 14003
forst@@ 14002
vergrößert 13999
Dirigent 13998
Lüneburg 13998
SO@@ 13996
blu@@ 13995
Eröffnungs@@ 13994
Philippinen 13992
Geis@@ 13991
Matr@@ 13989
Strand 13989
achter 13988
landes@@ 13987
schriftlich 13987
ÖVP 13987
sho@@ 13986
ment 13985
2.000 13984
fahren@@ 13984
Hans@@ 13983
Weih@@ 13983
fertigung 13983
zimmer 13983
verständnis 13982
Benz@@ 13980
Seeh@@ 13979
Leiden 13972
fahrzeug 13972
o- 13970
zusammengeschlossen 13970
Karl@@ 13969
Polizisten 13969
Zentrale 13969
ehende 13969
herz@@ 13968
dien 13965
kräften 13965
appe 13964
Spielbetrieb 13963
Eintracht 13962
leichter 13961
Cel@@ 13959
fuß 13959
Dan 13953
praxis 13952
ariat 13950
identifiziert 13948
Fähr@@ 13946
text 13946
Kommunalwahl 13945
Melbourne 13939
chow 13938
Norweg@@ 13937
größter 13935
was@@ 13935
empel 13934
xe 13934
Kärnten 13933
asiatischen 13933
Hanau 13932
tiefer 13930
Schicht 13927
ländern 13927
Sinn@@ 13925
Hef@@ 13923
.de 13922
Seel@@ 13921
Dekan 13917
äußer@@ 13917
Unterarten 13916
Wahlbezirk 13916
rechter 13915
Wertung 13913
Ihren 13912
Hügel@@ 13907
kau 13907
Ohne 13906
École 13905
ó 13905
untersuchte 13903
preußischer 13899
División 13898
Kompanie 13898
Wenige 13897
Charlie 13896
Hess@@ 13895
Zerstörer 13893
orientierten 13892
Paare 13891
aufs 13889
größerer 13888
Gegenzug 13886
arium 13884
stur@@ 13884
büro 13881
eingesetzten 13880
deuten 13877
Eil@@ 13875
MS 13874
Blu@@ 13873
Strafe 13873
26@@ 13872
Papier 13871
Handlungen 13870
istisches 13867
Reichstag 13864
erobert 13864
provisor@@ 13864
Kohl@@ 13863
105 13862
niemals 13862
Bour@@ 13861
Deg@@ 13861
fahrt@@ 13861
Home 13858
Willi 13858
häufigsten 13858
ensi@@ 13857
agentur 13856
dring@@ 13854
uni@@ 13854
Gebiets@@ 13851
status 13851
treiben 13850
bereitung 13849
Kurfürst 13847
borg 13847
positionen 13846
sfeld 13846
Kum@@ 13844
neutr@@ 13842
Barock@@ 13839
stag@@ 13838
Fußballnationalmannschaft 13835
Us@@ 13834
Block@@ 13830
lutherischen 13830
spek@@ 13830
zusammeng@@ 13830
stärksten 13824
Fokus 13822
erteilt 13821
pon@@ 13821
verfassungs@@ 13821
Schlacht@@ 13819
keinerlei 13819
schieden 13819
undet 13817
Florian 13815
Planeten 13814
UCI 13814
dorthin 13813
eau 13813
ütz 13811
Vertretung 13810
­ 13810
aud 13808
trainierte 13807
Kuh@@ 13800
hohem 13799
Medaillen 13798
Anführer 13797
Goldenen 13796
Indianer 13795
Vorfahren 13795
ą@@ 13795
Publik@@ 13793
erzeugen 13792
genauer 13792
Schatz@@ 13791
SS@@ 13789
leichten 13789
ingen@@ 13787
Kette 13785
han 13782
sle@@ 13782
rechnung 13781
Bob@@ 13779
gliederung 13779
tiz@@ 13779
ital 13777
U20 13775
schafft 13775
Wohnsitz 13773
schichten 13772
Kinder- 13770
kiert 13770
mess@@ 13770
Erlaubnis 13769
Unterseite 13768
sprecher 13768
Glas 13767
Ermittlungen 13762
geschoss 13762
tia 13761
Alkohol@@ 13757
Außer 13755
Ägyp@@ 13755
Stütz@@ 13754
öff@@ 13754
Provinz@@ 13751
Bewegungs@@ 13750
Regelungen 13750
Gewer@@ 13749
Rittergut 13749
vo@@ 13748
Hos@@ 13746
Opfer@@ 13742
ammlung 13742
Hubert 13741
lug 13741
Cross 13740
Militärdienst 13735
notwendigen 13734
Dob@@ 13732
dungs@@ 13732
SPÖ 13731
gehör@@ 13730
schreib@@ 13730
Adels@@ 13729
Wild 13729
Zoll 13728
ausdrücklich 13728
Ev@@ 13724
go@@ 13723
je@@ 13722
marken 13722
Vergleich@@ 13721
Angabe 13718
Irak 13718
Werbung 13715
pers@@ 13714
ism@@ 13713
ores 13712
schre@@ 13710
alische 13709
beschreiben 13709
versuch 13709
kind 13708
verabschiedet 13708
ühren 13707
Anfänge 13706
architekton@@ 13706
fran@@ 13706
ollen 13706
Darauf 13705
eke 13700
Is 13698
450 13696
maß@@ 13696
stechnik 13692
Öl 13691
It@@ 13690
Lösungen 13689
olog@@ 13688
Alber@@ 13687
riffen 13687
tener 13687
ikum 13683
seits 13683
1,3 13682
Erkenntnisse 13682
berech@@ 13681
einfluss@@ 13677
Dance 13675
1796 13674
Leder@@ 13671
Du 13669
Wagen@@ 13669
ikerin 13669
Beine 13668
estern 13668
gelen@@ 13667
öp@@ 13667
chung 13666
Leucht@@ 13664
ental@@ 13664
Kapital@@ 13663
überall 13663
Rugby 13661
gä@@ 13661
kov 13661
Legislaturperiode 13660
aal 13660
geschaffenen 13659
eil 13657
regelmäßige 13657
vertretung 13657
50.000 13651
Vancouver 13651
blauen 13651
gültigen 13650
enswert 13648
sprung 13648
zusetzen 13648
Aufzeichnungen 13644
Vermittlung 13642
gemeint 13642
entum 13641
Projekts 13639
16@@ 13638
30.000 13638
Feier@@ 13638
Wiesen 13635
Vorteile 13632
Dau@@ 13631
vollendet 13630
kanadische 13627
uft 13625
Bebauung 13624
untereinander 13624
Erhalt 13622
Weid@@ 13622
freiwillig 13622
Verhaltens@@ 13620
zuständigen 13620
deter 13619
1300 13615
enswerte 13613
pol 13613
Nicolas 13612
27@@ 13611
Begründer 13611
Länderspiele 13611
Ministerpräsidenten 13611
ho 13608
Gründungsmitglied 13606
gerech@@ 13606
RE@@ 13602
Offizi@@ 13600
interessiert 13600
Verwandten 13596
4000 13595
rede 13592
Rückseite 13591
Dün@@ 13590
kennt 13590
een 13588
Metall 13587
Vul@@ 13584
gene 13583
vermögen 13583
ämter 13583
organisierten 13581
Heeres 13580
mun@@ 13579
römischer 13579
äße 13579
städtische 13577
südwestlichen 13576
Amerikan@@ 13575
Nachfrage 13575
Départements 13574
Ō@@ 13569
plant 13568
verfassung 13566
Kollek@@ 13563
kreise 13563
digungs@@ 13562
Sultan 13561
erlaubte 13561
Wohnhäuser 13560
Liedern 13559
Werkes 13559
eim 13559
konstitu@@ 13559
Erhöhung 13558
äub@@ 13558
angene 13553
Fox 13549
Jäger@@ 13545
Dorfkirche 13543
Stettin 13538
inae 13538
zar@@ 13537
tent@@ 13536
kurs 13535
Walther 13532
Schaff@@ 13530
Master@@ 13529
Bruce 13527
ungarische 13527
ück 13527
erwähnte 13525
fürst@@ 13522
Anlässlich 13519
Mountain 13519
kunft 13519
Stadtteile 13517
Koch@@ 13514
Kaiserreich 13512
Prom@@ 13510
fordern 13510
Bischofs 13508
städter 13506
unkte 13506
1791 13504
assen@@ 13504
Luf@@ 13503
Schot@@ 13503
Spannung 13502
Marcel 13499
char@@ 13498
Institution 13495
Oberösterreich 13495
Siemens 13493
vollständigen 13489
ennt 13488
interpretiert 13486
ffs 13485
Sende@@ 13482
masse 13480
zustande 13479
Los@@ 13476
Spiegel@@ 13475
kig 13475
speich@@ 13474
eland 13473
Darsteller 13472
Stiftungs@@ 13472
ü 13471
beheimatet 13469
meier 13469
Kreuzer 13468
Dritt@@ 13466
behauptet 13465
gelungen 13465
spi@@ 13465
Europameister 13463
Baumeister 13461
Baudenkmale 13460
misst 13458
Partnerschaft 13457
Kob@@ 13456
Blütezeit 13455
amts@@ 13455
mot@@ 13454
täglichen 13452
ME@@ 13451
Jen@@ 13450
Anwendungs@@ 13449
richtig 13449
Spring@@ 13448
urkundliche 13448
Bauch@@ 13445
Indiana 13445
Auguste 13443
Buc@@ 13443
Flecken 13442
spitzen 13442
Folgejahr 13436
vereinzelt 13434
Obst@@ 13432
Til@@ 13427
obersten 13427
ehr 13425
sichten 13422
7,5 13418
pur@@ 13418
Olympiasieger 13416
geführten 13415
wonach 13415
Renovierung 13413
Sat@@ 13413
uner@@ 13413
Sak@@ 13411
felde 13411
niederländischer 13411
Ortsteilen 13410
prozesse 13410
Bell 13408
iser 13407
1784 13403
Riv@@ 13401
Ähnlich 13401
Viol@@ 13399
IP 13398
Ufer@@ 13397
tori@@ 13395
bemerkt 13394
fund@@ 13393
meln 13392
Grav@@ 13389
Identi@@ 13389
Bayreuth 13388
HMS 13387
Naturdenkmale 13385
su 13384
Sequ@@ 13382
Staffel@@ 13382
lebens 13382
reihen 13381
Dram@@ 13378
Sperr@@ 13377
Bezirks 13375
steins 13375
schau@@ 13374
Mont 13373
urn@@ 13371
Ansiedlung 13370
ession 13364
güter 13364
Absicht 13363
Mineral 13363
U23 13362
Funktion@@ 13359
Königlich 13359
Professorin 13359
Beweis 13358
Wirkungs@@ 13358
Rates 13356
gerichte 13355
scha 13355
stufen 13353
wirkten 13353
Communauté 13352
ire 13351
produk@@ 13351
Gesetzes 13349
Hed@@ 13349
Weis@@ 13346
mo 13346
eten@@ 13344
Astronomen 13343
auftrat 13343
Bra@@ 13342
Feldzug 13342
Mississippi 13341
Korn@@ 13337
entation 13337
uppe 13337
Weiße 13336
Still@@ 13334
101 13333
Kons@@ 13333
Multi@@ 13332
mechan@@ 13332
entierte 13329
harmon@@ 13325
Cruz 13323
weih@@ 13323
Fotografie 13320
Einheits@@ 13319
rollen 13317
blättern 13316
Atlanta 13315
lichkeits@@ 13311
Hessischen 13310
zugrunde 13310
Standards 13308
thr@@ 13308
Fu@@ 13307
islamischen 13307
qualität 13306
hingerichtet 13301
tätigen 13301
Male 13300
lierte 13300
zurückkehrte 13298
tam@@ 13296
Philippe 13295
Range 13293
Lands@@ 13291
eli 13290
ikers 13290
register 13290
entscheidend 13289
és 13289
Chronik 13287
Wahrnehmung 13287
trau@@ 13285
AM@@ 13284
Beck 13283
griffen 13283
unverändert 13281
Poliz@@ 13280
inhal@@ 13278
schiffs 13278
Kongress@@ 13276
kanadischer 13276
bewegungen 13275
wann 13275
tol@@ 13274
Jane 13271
Begegnungen 13270
tra@@ 13269
1780 13266
Schwed@@ 13266
ichs 13265
Kund@@ 13262
Kreb@@ 13261
Tests 13261
grös@@ 13261
bögen 13260
Roy 13259
streng 13258
rom@@ 13255
send@@ 13255
Ali@@ 13254
Gh@@ 13254
Holding 13253
Mittlerweile 13253
isol@@ 13253
stetig 13253
Nation@@ 13252
tritts@@ 13252
ehren@@ 13250
könig 13250
stin 13250
Monarchie 13249
Pferde@@ 13249
scheid@@ 13249
Hang 13248
lobte 13248
kommend 13246
zweig 13246
öll@@ 13244
spor@@ 13243
überw@@ 13243
Zeitungs@@ 13242
hau@@ 13241
verfolgung 13241
Heer@@ 13240
empfangen 13240
Kilogramm 13239
Schützen@@ 13239
Gewerbe@@ 13238
verbreit@@ 13238
anzutreffen 13237
jeweilige 13235
ennamen 13234
Jedes 13232
ias 13232
Gefangenen 13230
These 13229
Cricket 13228
Hongkong 13228
Ozean 13228
lagern 13228
Banken 13227
Untergrund 13227
akt@@ 13227
bad@@ 13227
neben@@ 13226
reinen 13222
Reformen 13220
Cot@@ 13219
Hauptstraße 13219
wirtschaftlicher 13218
Area 13217
ion@@ 13216
7,@@ 13214
verlag 13214
gräber 13212
schickte 13211
Kohle@@ 13210
Arizona 13209
CA@@ 13209
Last 13209
Deren 13208
Epoche 13206
fels 13206
Reichweite 13205
Standorten 13204
generell 13203
Delegation 13201
Fernsehserien 13198
Pakistan 13195
sequ@@ 13195
Nordischen 13194
Klassi@@ 13193
passiert 13193
Sendungen 13190
Aktiengesellschaft 13189
Öffnung 13188
Gemeindeteil 13185
erheblichen 13184
Stadtmauer 13182
vorgeschlagen 13182
Gewässer@@ 13178
Klu@@ 13178
schlan@@ 13175
Erik 13174
Porträts 13174
mehrheitlich 13174
ägyptischen 13174
wohnten 13173
Aller@@ 13172
Oh@@ 13172
Morgen@@ 13170
Schiffes 13169
Braun 13166
line 13166
betroffenen 13164
jung@@ 13164
Lehn@@ 13162
Kohle 13160
ausgeliefert 13159
Schwanz@@ 13157
einfacher 13157
ike 13157
fließen 13156
lernt 13156
Audi@@ 13155
Magazine 13150
klassigen 13148
Stammspieler 13146
Bäumen 13145
Lus@@ 13145
Helden 13144
Hund 13143
Inszenierung 13140
Porsche 13140
Dial@@ 13139
Normandie 13139
Entsprechend 13138
vog@@ 13138
beschrän@@ 13136
Urkunden 13133
direk@@ 13133
Benennung 13132
ims 13129
Kra@@ 13126
Sportarten 13125
Pyr@@ 13124
Autor@@ 13122
iga 13122
ibn 13120
Waff@@ 13118
hilfe 13118
Geor@@ 13117
Special 13116
eiten 13116
arab@@ 13115
Kör@@ 13113
Amerikanischen 13111
Gerichtsbezirk 13111
Abhängigkeit 13110
Mediziner 13110
Rou@@ 13109
antrieb 13109
Hunder@@ 13106
Rücken@@ 13106
kontinuierlich 13106
gerechnet 13105
Genre 13104
Verst@@ 13103
Gefecht 13097
Typ@@ 13097
Chemiker 13096
Krankheiten 13096
entspr@@ 13096
ays 13094
Québec 13091
tau@@ 13091
verliert 13091
Platzierungen 13090
Copa 13087
Eingangs@@ 13087
Tun@@ 13086
kommunistischen 13085
schrieben 13084
Railroad 13083
oth 13083
pläne 13082
Not 13080
Vorschriften 13080
half 13074
Westlich 13073
Server 13072
nischer 13071
Kevin 13070
mos@@ 13068
Motors 13067
Hay@@ 13063
Invasion 13061
annähernd 13061
ändert 13061
bekamen 13060
eles 13060
peln 13060
Berger 13052
TU 13051
Türk@@ 13051
verbreiteten 13050
entz@@ 13049
sorgt 13049
Bibel@@ 13047
Erwerb 13045
Hahn 13044
14@@ 13043
kehr@@ 13041
uma 13041
Funktions@@ 13039
Physiker 13038
steil@@ 13037
ón 13037
Gas 13036
maus 13035
Arch@@ 13033
Sens@@ 13031
erischer 13030
ila 13030
train@@ 13029
Labor 13028
endem@@ 13028
1,6 13027
Eingang@@ 13027
breiter 13027
Sun@@ 13026
Uwe 13024
Municipio 13021
blüh@@ 13020
Frühe 13018
Ruhr@@ 13018
benötigte 13018
Bischofsweihe 13017
Bereit@@ 13015
geschäf@@ 13015
Unmittelbar 13007
Luk@@ 13005
wirft 13004
Schatten 13003
ado 13000
Binnen@@ 12999
getriebe 12999
lie 12998
fortgesetzt 12997
verkörperte 12997
Kies@@ 12996
ulation 12996
Titeln 12994
pos 12993
1785 12992
Dublin 12992
Kosten@@ 12992
aufbewahrt 12992
ungewöhnlich 12992
RTL 12991
strukturen 12991
Southern 12990
Obersten 12989
feuer@@ 12988
gänzlich 12986
wende 12986
Beis@@ 12985
Breisgau 12983
beträch@@ 12983
undete 12983
Abstimmung 12982
ffe 12981
perf@@ 12980
ausführ@@ 12979
lock@@ 12978
stab 12977
warten 12976
isierungs@@ 12975
Strategie 12971
Spann@@ 12970
Vielfalt 12970
Höfe 12969
Bekämpfung 12967
alli@@ 12967
Pra@@ 12965
last 12965
brück 12964
negativ 12964
Nadel@@ 12963
Minderheit 12962
Teilnehmern 12960
situation 12959
1750 12958
trennte 12958
chin@@ 12957
Kuba 12954
Prinzen 12954
ema 12951
Ath@@ 12950
Bayerische 12949
pokal 12949
helm 12947
Termin@@ 12946
Beteil@@ 12945
dynam@@ 12943
Festland 12941
Impf@@ 12941
vorgel@@ 12941
Verd@@ 12939
Sakristei 12933
geschichtlichen 12933
iro 12933
enges@@ 12932
Schaffen 12929
fing 12929
Häus@@ 12928
eign@@ 12927
prin@@ 12926
Sizilien 12925
Commonwealth 12924
literarische 12924
Andre@@ 12922
Heck@@ 12922
entums 12922
Weihbischof 12921
grab@@ 12920
meinte 12919
AT@@ 12917
mexikanischen 12917
Reichs 12916
Haupts@@ 12914
Tower 12913
geschieht 12913
voraus 12913
ritten 12912
iber@@ 12911
alia 12910
hut 12907
Thron 12906
Vik@@ 12906
1787 12905
IF 12904
Kau@@ 12904
Pit@@ 12903
Videos 12903
kriege 12894
verweist 12894
hinaus@@ 12893
geschäfte 12891
Department 12888
jew@@ 12888
brief 12887
Opera 12886
Stone 12883
Konstantinopel 12882
brüche 12882
flieg@@ 12880
Arti@@ 12879
Wör@@ 12878
wahrgenommen 12878
Wat@@ 12875
tica 12872
Flieg@@ 12871
Höchstgeschwindigkeit 12868
journal@@ 12865
Oze@@ 12863
Schie@@ 12863
kontrolle 12863
other@@ 12863
juristischen 12862
ago 12861
energie 12861
LE@@ 12860
Nad@@ 12858
parks 12857
Fische 12856
lio 12856
ms@@ 12856
union 12855
′ 12853
Ansichten 12852
zeitige 12852
Rud@@ 12850
Stammes@@ 12850
170 12849
verziert 12849
Marken 12848
slo@@ 12848
Office 12847
Chlor@@ 12846
ank@@ 12844
Schuh@@ 12843
gegenüber@@ 12843
starker 12843
fangen 12842
Kō@@ 12841
Liverpool 12841
Box 12840
CO@@ 12840
ethnischen 12840
aufgel@@ 12839
Premier@@ 12836
Stausee 12836
Staatsbürgerschaft 12835
Operationen 12834
nordöstlichen 12833
Lach@@ 12831
Fab@@ 12827
Masters 12827
Auswahl@@ 12826
besitz@@ 12823
Kupfer 12822
bittet 12818
zuh@@ 12817
tenburg 12811
Bürgerschaft 12809
Landesliga 12808
Stewart 12808
nad 12808
Schir@@ 12807
beispi@@ 12805
machung 12803
Paulus 12802
Tennessee 12802
ity 12802
Katholischen 12797
vul@@ 12797
bewoh@@ 12796
Kais@@ 12793
Kunsth@@ 12793
lossen@@ 12792
SA@@ 12789
Tageb@@ 12789
Besonderheiten 12787
ihen 12785
Staatsanwaltschaft 12784
atischer 12784
beur@@ 12784
Adel 12783
Krakau 12783
schauspi@@ 12783
Gerichtsbarkeit 12781
Challenge 12780
Hav@@ 12778
Cover 12774
Kirchengebäude 12774
Tang@@ 12771
Herzog@@ 12770
zeitlich 12770
Haar@@ 12769
Grupp@@ 12768
kurse 12768
Stadtzentrum 12767
Weltrangliste 12767
geschlossene 12764
oma 12764
Techniken 12762
empfind@@ 12762
gängen 12762
Magnus 12761
tat 12761
Kreisen 12758
aga 12758
Atlan@@ 12757
Hals 12757
ikanten 12757
inhaftiert 12757
Priester@@ 12756
kamer@@ 12755
Afghanistan 12754
Sie@@ 12753
materi@@ 12751
Maine 12750
Abriss 12749
Sign@@ 12746
ausländischen 12746
giebel 12746
tausend 12743
MW 12742
Robin 12741
esz@@ 12741
formation 12740
ensen 12739
meist@@ 12739
gelb@@ 12738
abgesehen 12737
bildenden 12735
brücken 12733
ungstr@@ 12733
Turniere 12731
schwedischer 12731
DS 12729
lokal@@ 12729
falsch 12728
berechtigten 12727
Händler 12725
Ärz@@ 12725
ott@@ 12723
abgebildet 12722
Rückspiel 12720
Türen 12719
ogr@@ 12719
inghausen 12717
häusern 12713
enträger 12712
otte 12707
Riga 12706
Dist@@ 12705
Deleg@@ 12704
kommens 12704
leiden 12704
teilungen 12703
Sklaven 12702
ili 12700
liefer@@ 12700
produzieren 12700
erwerben 12699
Arbeitsgemeinschaft 12697
Koalitions@@ 12697
Lincoln 12696
führender 12694
steigenden 12693
Feier 12692
leidet 12692
Denkmalliste 12691
Habilitation 12691
stimmte 12690
Viktor 12687
uerung 12687
Café 12686
Semin@@ 12686
Planungs@@ 12685
keit@@ 12685
Möglicherweise 12684
ems 12684
hof@@ 12684
einzig@@ 12682
Beschäftigung 12681
tigungs@@ 12681
Abschnitte 12680
Inner@@ 12680
bir@@ 12680
Basilika 12679
Edmund 12679
tums 12678
Posen 12677
Neuf@@ 12676
mitunter 12675
Meisterschafts@@ 12673
Put@@ 12673
Vorgehen 12673
meyer 12673
Anfangs 12672
Austr@@ 12672
Hop 12672
Sus@@ 12672
18@@ 12671
Eichen@@ 12669
Hinblick 12669
Ursula 12669
Auftreten 12668
Namensgeber 12666
engel 12666
History 12665
verfolgen 12665
Ablehnung 12664
Schwerpunkte 12664
mithilfe 12664
sohn 12664
Tir@@ 12662
usen 12661
Trainings@@ 12660
Worte 12660
Margaret 12659
verseh@@ 12659
orthodoxen 12655
anges@@ 12654
Ve@@ 12653
oy@@ 12650
deutlichen 12648
Loc@@ 12647
abstr@@ 12647
1400 12645
Zehn 12645
berufliche 12644
Brust 12643
Sitzung 12643
Todes 12643
Ful@@ 12640
Norm 12640
behaart 12639
cken 12639
menden 12638
erkenn@@ 12637
Komitee 12636
Kantons@@ 12635
Sierra 12635
Agnes 12634
Kenntnisse 12633
rom 12632
Links@@ 12631
temperatur 12628
ë@@ 12627
Bedrohung 12625
fache 12625
meint 12625
Söhnen 12623
kro@@ 12622
listen 12622
Trin@@ 12619
automati@@ 12619
sage 12619
Khan 12617
ampf 12616
Ant@@ 12615
pel 12615
Konzerten 12612
agn@@ 12612
court 12612
sim@@ 12611
Ligakonkurrenten 12608
Wolff 12608
riff@@ 12606
dende 12603
studio 12602
behalten 12600
französ@@ 12600
Microsoft 12599
Vertrieb 12599
holz@@ 12599
sterb@@ 12599
lende 12597
selbständige 12597
pul@@ 12594
Connecticut 12592
gehend 12592
prak@@ 12592
zurückkehren 12592
erhob 12591
Knochen 12590
Nick 12590
Pause 12590
benachbarte 12590
mitten 12590
sächsische 12590
glaubt 12589
fär@@ 12588
Singapur 12587
Konsum@@ 12586
Nuk@@ 12585
Südwest 12585
Ressourcen 12584
alitäten 12583
bs@@ 12583
Jahrhunderten 12582
Staub@@ 12582
südöstlichen 12581
Teils 12580
Chal@@ 12576
oppelt 12575
Ausnahmen 12574
fikation 12574
feuer 12571
nutzten 12571
Konflikte 12570
gesellschaftliche 12569
prop@@ 12568
Neckar@@ 12567
Porträt 12567
Programms 12565
etabliert 12565
proz@@ 12562
Beispielsweise 12561
Wider@@ 12561
hofs 12559
einges@@ 12558
Soundtrack 12554
fonds 12554
Kühl@@ 12552
Ohr@@ 12552
üste 12551
Übersetzungen 12550
ust 12549
Theorien 12548
schie@@ 12547
assung 12546
3.000 12541
unden@@ 12540
wichtiges 12539
Gruppenphase 12538
Köl@@ 12538
springen 12538
Lloyd 12533
Theaters 12532
eingel@@ 12532
Lüb@@ 12528
otischen 12528
Skulptur 12527
Vorname 12524
württembergischen 12524
berechnet 12523
assistent 12522
Wall 12521
Global 12519
Krist@@ 12518
Schieß@@ 12517
massiv 12517
Emma 12511
Freistil 12510
ängerin 12510
Lizenz@@ 12508
tei 12505
park@@ 12504
Komplex 12503
live 12503
erzielten 12502
ová 12502
wechselt 12501
Cottbus 12500
Trepp@@ 12500
öst@@ 12500
6.@@ 12499
barocken 12499
Antoine 12498
Fund 12498
station@@ 12498
wahren 12497
Faktor 12494
Auflagen 12493
aches 12491
verb@@ 12489
vogel 12486
ährung 12485
gerichtshof 12483
beamter 12480
etablieren 12480
siedelte 12476
Spenden 12474
pfte 12473
Achter 12471
Manga 12470
Performance 12470
jenseits 12469
denkmal 12468
Zuh@@ 12467
genauso 12467
Miami 12465
sammlung 12465
sätze 12465
Wik@@ 12464
arg@@ 12461
direktion 12461
Experten 12460
Werks@@ 12460
quer 12460
Jordan 12458
non 12457
mitgliedern 12456
Östlich 12456
ský 12455
Zeugen 12454
angeführt 12454
veränderte 12454
Decke 12453
Schwieger@@ 12453
Australia 12452
By@@ 12452
ligisten 12450
vel@@ 12449
ächen 12448
trieben 12447
Sainte 12446
atorischen 12446
Slaw@@ 12444
haupt@@ 12444
Zentrums 12443
Breiten@@ 12442
more 12442
Bologna 12440
Gewerkschaft 12439
Damp@@ 12438
Nam@@ 12438
Hauptquartier 12436
Kriegsgefangenschaft 12436
klingen 12436
DIN 12435
erhöh@@ 12435
Bekannte 12434
aufnahm 12433
braunen 12433
ife 12433
Russlands 12432
Autos 12431
Speyer 12430
besser@@ 12430
Bukarest 12427
Hartmann 12426
nutz@@ 12426
zeugung 12426
ematik 12425
Inschriften 12424
Keramik 12424
festival 12423
flo@@ 12423
leichte 12422
entscheidenden 12420
Besatzungs@@ 12417
Up 12417
mans 12416
Erstbeschreibung 12415
Marsch@@ 12413
enhauses 12413
nachweisen 12413
Gefähr@@ 12411
Jac@@ 12411
anter 12411
korps 12409
Baudenkmal 12404
DA 12404
Port@@ 12403
flüge 12403
Social 12402
pert 12401
Zweifel 12400
Einladung 12399
Gastgeber 12399
Magdalena 12399
etliche 12399
pat@@ 12398
trennt 12398
dominiert 12397
pfe@@ 12396
Kunstakademie 12395
Realität 12395
CA 12392
Touristen 12392
org@@ 12392
weich@@ 12388
Rol@@ 12384
binden 12383
Verkaufs@@ 12381
egt 12379
Gebäude@@ 12378
rumänischen 12378
Dur 12377
ees 12377
Gemeinder@@ 12376
Mind@@ 12376
Oberstleutnant 12376
Material@@ 12375
Prototyp 12375
braune 12372
angewendet 12371
dieselbe 12370
strasse 12370
Boris 12369
Lichten@@ 12369
erfolgreicher 12366
Konstantin 12363
zeitweilig 12363
Synchronisation 12361
messer 12361
Burgen 12357
Meeresspiegel 12357
Tochter@@ 12355
konzentriert 12354
misch 12354
CS 12351
Liter@@ 12351
Lübecker 12351
Letztere 12350
hofer 12349
Pedal 12348
reden 12348
AB@@ 12347
Küst@@ 12347
blich 12347
Via 12346
Steuerung 12344
schanze 12343
3D 12342
Landschaften 12340
Gotha 12339
On 12338
Place 12338
Sofia 12338
eigens 12338
angestell@@ 12335
Ehrenmitglied 12334
Neumann 12333
ichtet 12333
methoden 12329
Allgemeines 12327
Aufnah@@ 12327
Gottlieb 12324
Raub@@ 12323
tend@@ 12323
Bauzeit 12319
versorg@@ 12319
Tod@@ 12318
oxid 12317
zweck 12317
Nomin@@ 12316
dah@@ 12316
zim@@ 12316
zugeben 12316
aktiver 12315
Haft@@ 12312
tagen 12311
Nelson 12309
Patent 12309
erzi@@ 12309
pflicht 12308
iki 12307
Konzentration 12306
tragene 12304
ellip@@ 12303
tot@@ 12303
Edgar 12302
Woh@@ 12302
Clara 12300
Erkrankungen 12300
Merkmal 12300
unmöglich 12297
Pianist 12296
elung 12296
stahl 12295
gelegten 12292
ßer 12292
Aufschwung 12291
rand 12290
Ermland 12285
Schalt@@ 12285
Weh@@ 12284
Roma 12280
schar@@ 12280
verglichen 12279
genossenschaft 12278
liefen 12278
Antwerpen 12276
Anstieg 12275
Christentum 12275
Sachver@@ 12275
Wände 12273
mitt@@ 12273
gemeinschaften 12272
ington 12268
laub@@ 12268
hob 12266
Esch@@ 12265
ausgeliehen 12265
don@@ 12265
1786 12264
Shanghai 12264
dia 12261
räder 12261
Wähler@@ 12260
fak@@ 12259
stan@@ 12259
Abenteuer 12258
da@@ 12258
ografische 12257
Gewalt@@ 12256
Ruhe 12255
bildungen 12255
zitiert 12255
Meilen 12253
1,4 12246
Spur 12246
etische 12246
Meth@@ 12245
Erscheinungsbild 12244
bewohner 12244
Söl@@ 12242
Steinen 12241
Schmetter@@ 12239
äusern 12238
Rezep@@ 12237
ony@@ 12235
Spannungen 12234
Axel 12232
Störungen 12231
Vertr@@ 12231
ungenen 12231
Lothar 12230
stärkste 12229
befeh@@ 12228
ede@@ 12228
übt 12228
Trak@@ 12227
Kulturdenkmäler 12224
Pflanzenart 12224
gestalten 12224
ischt 12224
Norbert 12222
Umsatz 12222
sene 12222
vertreter 12221
bedingten 12220
bung 12220
Nutzer 12218
atorin 12218
Afr@@ 12217
Häftlinge 12217
Harris 12216
Patron@@ 12216
Betreuung 12214
Kenntnis 12213
Religionen 12213
siedelten 12213
Forest 12212
wäldern 12212
Dave 12211
essor 12211
ikon 12210
absolvieren 12209
fried 12209
Bayer 12208
Puerto 12208
o. 12205
staats@@ 12205
Studies 12204
wechselten 12204
And@@ 12202
Mü@@ 12202
eröffneten 12202
vormals 12202
Ebenen 12201
Schweizerischen 12201
Alexand@@ 12200
Sir@@ 12200
Wäldern 12200
än 12200
Ausstrahlung 12199
Gattin 12199
orts@@ 12199
Pilot 12198
pf 12198
äufer 12198
Konkurrenten 12197
Tul@@ 12197
Vari@@ 12197
prägte 12196
seel@@ 12196
Stadtverwaltung 12192
gelben 12192
Reichsk@@ 12189
dan 12189
moderner 12189
Sächsischen 12188
bloc@@ 12188
git@@ 12188
lte 12188
nat@@ 12188
Basketball@@ 12186
Denis 12184
Weltcup@@ 12184
seitige 12183
uktur@@ 12183
Festungs@@ 12179
afrikanische 12177
Parlamentswahlen 12175
Motto 12170
Wahrscheinlichkeit 12169
Reif@@ 12168
regelmäßigen 12168
Ruth 12167
hä@@ 12167
asa 12164
rek@@ 12164
ichts@@ 12163
fahrts@@ 12162
werkstatt 12162
Taiwan 12161
akten 12160
bte 12158
spät 12157
autor@@ 12156
national 12155
phy@@ 12155
flach 12154
banken 12151
Ents@@ 12150
zurückgezogen 12148
Schä@@ 12147
Wöl@@ 12147
Maul@@ 12146
beut@@ 12146
gotische 12145
rücken 12145
migen 12142
Truppe 12141
gewachsen 12141
kugel@@ 12137
reibung 12137
2000er 12136
eckung 12133
Kriege 12131
Landschaftsschutzgebiet 12131
vorn 12130
zunehmenden 12130
behauptete 12129
Zwerg@@ 12128
fül@@ 12128
Verbands@@ 12127
nordwestlichen 12126
Absch@@ 12124
Estland 12124
anten@@ 12124
anze 12122
bec@@ 12121
strich 12120
ory 12119
leg 12117
agerten 12116
zentral 12116
Protagonisten 12112
positiven 12110
1788 12109
by@@ 12109
warum 12109
sy@@ 12108
führungs@@ 12105
ungsgebiet 12104
reis 12102
Rak@@ 12099
kandidat 12095
lossene 12095
Zun@@ 12094
gebe 12094
elerin 12091
heilige 12091
1,8 12090
marsch 12090
Eingemeindung 12088
Sieben 12087
Gräber 12085
Gul@@ 12085
Gewinn@@ 12084
ordentlicher 12082
Haushalt 12081
Hass@@ 12080
fers 12079
israelischen 12078
Kirchturm 12077
inc@@ 12077
streit 12076
archäologische 12075
äuch@@ 12075
Zeich@@ 12074
eim@@ 12074
Vorträge 12072
Gewinnung 12071
elektron@@ 12070
kritiker 12070
linker 12070
grau@@ 12069
leuten 12068
kraut 12066
Mönche 12065
Luftlinie 12064
Systemen 12061
A.@@ 12060
Verpflichtung 12060
ario 12059
15@@ 12058
auseinander 12058
Gesetzes@@ 12055
Wahlgang 12053
Jas@@ 12052
Nordost@@ 12052
Hut@@ 12051
Lawrence 12051
iefert 12050
krone 12050
gere@@ 12049
niederlage 12048
ż@@ 12048
FFH 12045
Falken@@ 12042
Radsport@@ 12042
Maj@@ 12041
Lichtjahre 12040
benutzte 12040
zweist@@ 12040
Ler@@ 12038
Meh@@ 12038
stä@@ 12031
Canada 12029
Knochen@@ 12027
Sage 12027
angewiesen 12027
220 12026
Goldene 12026
Debatte 12024
Grün 12024
schnelle 12024
Sax@@ 12020
Ass@@ 12017
Orchester@@ 12016
Kreisstraße 12015
Elb@@ 12014
eisen@@ 12014
oper 12014
verfolgte 12012
Fachwerk@@ 12010
Hip 12007
tags 12007
Aktivität 12006
Mönchengladbach 12006
Zahlungs@@ 12004
Beobachtung 12003
vorbereitet 12003
Gestapo 12002
besuchten 12002
Verlag@@ 12001
deb@@ 12001
doppelt 11999
aik@@ 11997
umgestaltet 11997
Seef@@ 11996
hohes 11995
Landstraße 11994
übliche 11992
plattform 11989
IUCN 11988
Nachbarschaft 11988
Schienen@@ 11986
pp 11986
rass@@ 11986
anc@@ 11984
Kandidatur 11983
Pom@@ 11983
Porto 11983
sum 11982
Ralph 11981
Franklin 11979
montiert 11978
tow 11977
gi 11976
ür 11976
Amtsbezirk 11974
alls 11972
festgenommen 11972
angek@@ 11971
halb 11971
spiels 11969
Captain 11967
lei 11967
Mitglieder@@ 11966
Pokalsieger 11964
zugesprochen 11963
Eid@@ 11962
Coburg 11961
beruflich 11961
verordnung 11961
Hohen 11960
Sec@@ 11960
Golf@@ 11959
tigkeiten 11959
yd@@ 11958
gebraucht 11957
gebäudes 11956
institut 11956
Wettbewerben 11955
felden 11955
isses 11955
Interess@@ 11954
Dialog 11953
steuerung 11953
Reak@@ 11952
rahmen 11952
farb@@ 11948
hammer 11948
vorherrsch@@ 11948
Hur@@ 11947
Nachbarn 11947
fähigen 11947
Ech@@ 11946
Justiz 11946
flugzeug 11946
zusammenhäng@@ 11946
now 11945
dreif@@ 11943
gymnasium 11941
Übersetzer 11941
Kommunistischen 11939
australische 11939
Bundestagswahl 11938
beruflichen 11938
Mensch@@ 11937
arti@@ 11936
önen 11934
Innern 11933
Atem@@ 11931
Abfahrt 11929
MA 11929
Berücksichtigung 11928
Länderspiel 11928
eben@@ 11928
kompliz@@ 11928
ović 11928
EN 11927
bestimmung 11927
dit 11927
1783 11925
Key@@ 11925
nachweisbar 11923
Hot 11922
Regen 11922
Schulzeit 11922
Ländereien 11921
Überlegungen 11920
elektronische 11919
Stade 11918
assi@@ 11918
Out@@ 11916
och 11916
Modellen 11915
last@@ 11915
Sockel 11914
Iwan 11913
bett 11913
erfolg@@ 11913
Raus@@ 11911
rohr 11911
Lehrerin 11909
gebend 11904
Brig@@ 11903
Ansprüche 11900
Mans 11900
itung 11900
schriftliche 11900
gött@@ 11899
Ruf@@ 11896
malige 11896
triebenen 11896
Departamento 11894
Kirchenschiff 11894
Bürgern 11892
manns@@ 11891
ziemlich 11891
Flur@@ 11890
rah@@ 11890
Dokumentar@@ 11889
glas@@ 11889
wirtschaft@@ 11887
Flüssig@@ 11883
poli@@ 11881
Ruder@@ 11880
Künstlers 11878
ologin 11878
Demokraten 11877
Laura 11876
Aufgebot 11875
rung 11875
aceae 11873
kirchliche 11873
Bundesautobahn 11872
eiförmig 11872
ehl 11871
nenn@@ 11868
gezogenen 11867
endel@@ 11866
mund@@ 11866
Russell 11865
eto 11864
Signal@@ 11862
verlaufenden 11862
wak@@ 11860
fung 11855
Wiederherstellung 11850
Disney 11848
Liechtenstein 11848
amtierte 11848
äche 11847
beton@@ 11844
iere 11844
able 11843
Comics 11841
Caspar 11840
verteidigung 11839
dol@@ 11838
ort@@ 11838
verwandten 11838
Let@@ 11837
uri 11837
überzeugt 11837
Lou@@ 11835
ausländische 11835
bun@@ 11833
Spit@@ 11831
komitees 11828
Zwi@@ 11826
gehörende 11824
1770 11822
kels 11821
ár@@ 11821
hessen 11820
Philosoph 11819
neter 11819
Persönlichkeit 11818
ids 11817
Kryp@@ 11816
flog 11815
NS@@ 11814
kö@@ 11813
schätzungsweise 11811
Laubblätter 11810
schön@@ 11808
Trophy 11807
komplexe 11807
alis@@ 11806
räte 11806
Ludwigs 11805
aph@@ 11805
ligkeit 11805
Fleisch 11803
achsen 11802
Il 11800
enfenster 11797
siven 11794
Wetter 11792
schreiber 11791
Gefährdung 11789
Iowa 11786
Maxim@@ 11786
europäischer 11785
olympischen 11784
Mixed 11783
notwendige 11782
wander@@ 11781
Zimmer@@ 11779
Telefon@@ 11778
VIII. 11778
als@@ 11777
Lucas 11776
kuli@@ 11775
knü@@ 11771
Palästina 11768
Sob@@ 11768
Rotterdam 11767
derin 11767
Kali@@ 11765
demselben 11765
ix@@ 11764
Barr@@ 11763
ige@@ 11763
Aktien 11762
bedeutendste 11759
tragenen 11756
Karten@@ 11755
Uh@@ 11755
furt 11755
Miet@@ 11754
Mrd. 11752
Notwendigkeit 11752
zurzeit 11752
Vietnam 11751
venti@@ 11751
Are@@ 11750
Informatik 11750
lands@@ 11749
Mahl@@ 11748
aba 11748
enheim 11748
Nachfol@@ 11746
zeitgenössische 11745
eman 11742
irgend@@ 11742
veranlasste 11741
Plateau 11740
wohnt 11739
sendung 11736
Mehr 11735
miert 11735
zuverl@@ 11735
lings 11731
Will 11730
Morgan 11729
Spanier 11727
forder@@ 11727
kant@@ 11727
locken 11725
unfall 11725
Frederick 11724
Milli@@ 11723
Popularität 11723
such@@ 11720
heiz@@ 11718
ky@@ 11718
Orleans 11717
will@@ 11717
Beobachtungen 11715
vek@@ 11715
Fraktions@@ 11714
verlangt 11714
spruch 11713
1772 11712
bedeutend 11705
Aufführungen 11704
Marokko 11701
gering@@ 11701
Stör@@ 11700
Truppen@@ 11700
drücken 11700
einander@@ 11700
Hochaltar 11698
lokal 11698
Wikipedia 11697
elektronischen 11697
Miss 11694
stellerin 11694
AM 11693
Kolum@@ 11692
fluss@@ 11692
Hl 11690
sportlichen 11690
beit@@ 11689
eni 11688
Apsis 11687
Real@@ 11687
Zügen 11684
Diensten 11682
AP 11681
Ott@@ 11678
Vulkan@@ 11678
gestiftet 11678
Bearbeitung 11677
Stücken 11677
Kaiserslautern 11675
Zit@@ 11675
Flieger@@ 11674
gert 11673
ish 11672
Big@@ 11671
Kolumbien 11671
mö@@ 11671
Auschwitz 11663
eventuell 11663
schenkte 11662
time 11662
ands@@ 11661
publiz@@ 11661
15.000 11659
Sich@@ 11659
Forst 11658
Leist@@ 11658
Preisträger 11658
Stoff 11658
Ann 11657
dener 11657
Flus@@ 11655
löst 11655
zumal 11655
Bühnen 11654
Guts@@ 11654
Russen 11654
bul@@ 11652
annter 11651
Bauweise 11650
starten 11650
genehmigt 11648
neueren 11645
Program@@ 11644
orien 11644
Betr@@ 11641
Repertoire 11641
klinik 11641
Bevor 11640
Instand@@ 11639
mächtigen 11639
steiger 11639
Heraus@@ 11638
Österreichische 11638
flotte 11637
lieder@@ 11636
identi@@ 11634
tha 11634
niedriger 11633
reste 11633
seltene 11633
Gus@@ 11630
Mode 11630
besiegt 11630
erweiterten 11630
grafie 11630
jahr@@ 11630
Konfession 11629
Mond 11629
Propaganda 11629
getreten 11629
rig 11628
rath 11627
Städ@@ 11625
größ@@ 11625
wil 11619
Div@@ 11618
Streck@@ 11618
zugehörigen 11618
Ökologie 11618
Stoffe 11616
garanti@@ 11616
GT 11615
Käl@@ 11613
partner@@ 11613
Grundstein 11612
agr@@ 11611
informiert 11611
üren 11611
Kongo 11610
mund 11610
angaben 11609
Caroline 11607
N. 11606
eif@@ 11605
verm@@ 11602
Masuren 11601
Nummern 11601
ð@@ 11601
Erscheinen 11599
Gn@@ 11599
überlassen 11598
Nova 11596
schließ@@ 11596
erstellte 11594
Bestände 11591
aufzubauen 11591
Hamm 11590
Moderator 11589
Arzneimit@@ 11587
Neffe 11587
gerettet 11586
tauchen 11583
darstellte 11581
Fan@@ 11580
ziehung 11580
Ausgang 11579
Flensburg 11579
armen 11579
philosophischen 11579
efer@@ 11577
ästhe@@ 11576
Renault 11575
gif@@ 11575
Indonesien 11574
Maschin@@ 11574
Milchstraße 11573
Politisch 11573
enser 11571
laufende 11571
38@@ 11570
entscheidende 11570
gegense@@ 11570
schäden 11570
Monument 11569
Jonathan 11568
Tuch@@ 11567
Italiens 11566
begangen 11566
fun@@ 11564
Jung 11563
anda 11563
zueinander 11563
Lungen@@ 11562
net@@ 11562
pri@@ 11561
arien 11560
beschleun@@ 11559
Profil@@ 11558
Verlegung 11557
Zusammenbruch 11556
täg@@ 11556
pler 11554
worth 11554
Schlüssel 11553
· 11553
DP 11551
gle@@ 11551
rif@@ 11550
17@@ 11547
Dorothea 11546
gesungen 11546
kleinste 11545
zucht 11544
BK 11543
Schm@@ 11543
Uruguay 11543
schaftlich 11543
transport 11543
Farm 11542
Kindergarten 11542
kritik 11541
ßer@@ 11541
Dialekt 11540
erre@@ 11540
städte 11540
berater 11537
kämp@@ 11537
Rauch@@ 11533
Harz 11532
Signal 11532
Anbieter 11531
Zah@@ 11531
koordin@@ 11531
orts 11531
Frag@@ 11530
Kolon@@ 11530
inspiriert 11529
veröffentlichen 11529
Andererseits 11528
Dim@@ 11528
Schulz 11528
onz@@ 11527
Kindes 11526
ense 11526
entalen 11525
Altenburg 11524
einbezogen 11523
Bowl 11521
Landtags 11520
för@@ 11520
genutzten 11520
grube 11520
sexu@@ 11520
erschienene 11519
from 11519
komitee 11519
28@@ 11518
gelegte 11518
Rent@@ 11516
Johan 11515
Philosophen 11513
fähige 11513
Richtlinie 11512
Angreifer 11509
iner@@ 11509
länd@@ 11509
äum@@ 11509
Haute 11507
Dän@@ 11504
Synthese 11504
avancierte 11502
Empore 11499
Büros 11498
Olympia 11498
Air@@ 11497
Jens 11497
dom@@ 11497
einkommen 11497
misch@@ 11497
Lagen 11493
erhöhten 11493
Skispr@@ 11492
witsch 11492
herunter@@ 11491
Fak@@ 11490
Verfasser 11490
kehr 11488
ungsverfahren 11488
pass 11487
Zähne 11486
tigkeits@@ 11485
beit 11483
Gotteshaus 11482
Satteldach 11482
Handeln 11481
Aufsichts@@ 11480
enzug 11479
Ausschusses 11476
Regierungszeit 11475
Fahrrad@@ 11474
tnis 11474
Bom@@ 11473
Metz 11473
Färbung 11472
Pav@@ 11471
nutzung 11470
Worms 11469
nah 11469
tiken 11468
baden 11465
Schuld 11464
tümer 11464
arius 11463
pfälzischen 11462
Lang 11460
nacht 11460
Publikation 11459
assenen 11459
Einweihung 11457
Unruhen 11457
block 11457
Bezirk@@ 11456
Spektrum 11456
ektiven 11456
1775 11455
phe 11455
Marseille 11454
Verhältnissen 11452
aufgest@@ 11452
ege@@ 11451
Rollen@@ 11450
Venti@@ 11450
Volkspartei 11450
erstand 11450
ORF 11449
verstärkte 11449
Weinbau 11448
strahl@@ 11448
diejenigen 11446
studiert 11446
ú@@ 11446
paare 11445
Landeshauptstadt 11443
Lisa 11442
Argent@@ 11441
DV@@ 11441
spunkt 11441
nördlicher 11437
Zelle 11436
solches 11436
Pfarrhaus 11435
Staatssekretär 11435
negative 11433
ändische 11433
Trich@@ 11432
adr@@ 11429
Broadway 11427
Posi@@ 11426
Niedergang 11425
absolute 11424
án@@ 11423
FI@@ 11422
Klubs 11422
Gedenken 11421
befreien 11421
konserv@@ 11420
sens@@ 11419
droh@@ 11418
riss 11418
überquert 11418
FIFA 11416
Leonhard 11416
Verbr@@ 11414
hinzugefügt 11414
etr@@ 11407
betragen 11406
Gleis 11405
Kem@@ 11405
ör 11404
wirks@@ 11403
Haltestelle 11401
wofür 11400
ziele 11400
atten@@ 11399
Angebote 11397
andes 11396
Grau@@ 11395
king 11395
spezifischen 11395
ähnlicher 11395
heide 11393
Rup@@ 11392
VP 11392
zunehmende 11392
verbands 11387
Einsch@@ 11385
360 11384
Magnet@@ 11381
af 11381
Bisch@@ 11380
gemau@@ 11379
Chr@@ 11378
erwähnten 11377
Univers@@ 11375
kon 11375
Anton@@ 11374
Unterfamilie 11372
Sparkasse 11370
ständigkeit 11367
Avenue 11365
Realschule 11363
bemühte 11360
HD 11359
ifer 11358
Nachkriegs@@ 11357
Englischen 11356
O. 11356
Verbund@@ 11356
myth@@ 11356
Einz@@ 11354
Bürgermeisters 11353
genossen 11353
Kult@@ 11352
Aufenth@@ 11351
enl@@ 11351
kaufen 11348
Bundesministerium 11347
Denken 11347
niedrig@@ 11347
archen 11345
trainiert 11345
vollkommen 11345
Verb@@ 11344
osse 11344
ka@@ 11343
Genres 11342
Emeritierung 11341
Bundesland 11340
web@@ 11340
Nörd@@ 11337
burgs 11337
bekann@@ 11336
Meisterin 11335
Zuordnung 11332
Gerd 11329
SD 11329
syn@@ 11329
Strahl@@ 11328
Virus 11328
Mangel 11327
ehmen 11324
Folgejahren 11323
Pensionierung 11323
vir@@ 11322
Bünd@@ 11320
Mittel- 11320
gemäß@@ 11320
8.@@ 11319
einfach@@ 11318
Erzähler 11315
Bergbau@@ 11312
Naturwissenschaften 11312
probleme 11311
AZ 11309
online 11309
News 11308
Phänomen 11308
Sho@@ 11308
charakter@@ 11308
schung 11308
Geleg@@ 11307
Scho@@ 11307
izieren 11304
gefordert 11303
Türme 11302
hü@@ 11302
Polens 11301
uer 11301
24@@ 11299
schir@@ 11299
Finanzen 11298
Gegenüber 11298
ebel@@ 11298
kommissar@@ 11298
Aufsicht 11296
gestrichen 11296
Dynamo 11295
letztendlich 11295
Nutzen 11293
Benannt 11292
drücke 11292
gesetzlichen 11292
fün@@ 11286
kow@@ 11286
wiedergewählt 11285
übertragung 11285
Match 11282
denken 11282
einsätzen 11281
modelle 11281
Mechan@@ 11280
klär@@ 11280
schluss@@ 11280
hölzerne 11279
mä@@ 11279
RA@@ 11277
forderung 11276
mens@@ 11276
Ö 11276
Lieder@@ 11274
ision 11274
schüler 11274
Rückstand 11273
Wais@@ 11273
Houston 11270
mission 11269
Großer 11268
ausges@@ 11267
Senioren 11266
Kelly 11265
upp@@ 11265
ö 11265
itas 11264
Mill@@ 11263
schien 11263
ausgelöst 11260
Wunder@@ 11259
Schröder 11258
Siegel 11258
scheinen 11258
Tiroler 11256
verbänden 11256
läufe 11255
träg@@ 11254
Frem@@ 11252
Grundst@@ 11252
behin@@ 11247
ug 11247
verschwunden 11247
gas 11244
traße 11244
Melodie 11243
Engineering 11242
Eul@@ 11242
Verdacht 11242
Berner 11241
Pionier@@ 11241
Einteilung 11240
Regie@@ 11239
Ruinen 11237
Miguel 11236
Spons@@ 11236
juristische 11236
Fischer@@ 11235
Vize@@ 11235
Blau@@ 11234
angelegten 11231
Eisenbahnstrecke 11229
Fernsehsender 11229
bestimmter 11229
Flas@@ 11228
Kling@@ 11227
auswahl 11227
südlicher 11226
Deh@@ 11225
pap@@ 11225
osp@@ 11224
Langen@@ 11223
enta 11222
sein@@ 11221
schein 11220
westfälischen 11217
End 11216
Nenn@@ 11216
mt@@ 11216
dro@@ 11215
dräng@@ 11214
way 11214
imb@@ 11211
komplexen 11211
ș@@ 11211
Anbindung 11209
Blanken@@ 11207
Wettkampf 11207
konzert 11207
Ja@@ 11203
Kennedy 11203
Kulturgüter 11200
theoretischen 11198
vereinen 11198
Maximilians 11197
SSR 11197
Österreich@@ 11197
Menschenrechte 11196
geschichtliche 11195
etet 11194
Teilnehmer@@ 11191
sieben@@ 11190
Ind@@ 11185
Pädagogik 11185
Contest 11184
Traditionen 11184
verput@@ 11184
enfahr@@ 11182
ku 11180
massiven 11180
Glaubens 11179
gestr@@ 11179
kämpfe 11179
braun@@ 11177
pfer@@ 11175
ses@@ 11175
qui@@ 11173
edt 11171
Abschluss@@ 11170
sexuelle 11170
teure 11167
Py@@ 11165
verstorben 11165
verschw@@ 11164
Steuern 11162
Ket@@ 11159
Erfinder 11158
störungen 11158
29@@ 11155
Effekte 11155
bauweise 11154
Einwohnerentwicklung 11152
stif@@ 11151
Boy@@ 11150
Offensive 11150
Story 11147
empf@@ 11147
niedersächsischen 11146
Abbruch 11145
steilen 11145
Nations 11144
nee 11144
ört 11144
halbes 11142
klar@@ 11142
schaff@@ 11140
rei 11139
nachträglich 11138
German 11136
abel@@ 11134
senden 11134
Pietro 11133
üng@@ 11133
überqu@@ 11132
AN@@ 11130
igny 11130
VI 11128
Zimmermann 11127
Fernando 11126
communes 11126
wirksam 11123
drück@@ 11122
eigung 11122
Absatz 11121
Marketing 11119
Andy 11118
Helene 11117
sicht@@ 11117
Journalistin 11116
Mittelfeld 11116
Rapper 11116
berühmte 11116
nd 11116
vorkommt 11116
Öff@@ 11115
Prinzipien 11114
Ereignissen 11113
Vierter 11113
digitalen 11113
Aufträge 11112
Fußballverein 11111
Maryland 11111
dunklen 11111
Neutr@@ 11108
zwang 11108
Hilf@@ 11105
Dagegen 11104
Mars 11104
Isol@@ 11103
resp@@ 11101
Raymond 11100
jus@@ 11100
giert 11099
Walker 11098
Peak 11097
argum@@ 11097
sau 11097
Gewerkschafts@@ 11096
still@@ 11093
Auftritten 11092
verti@@ 11092
kräf@@ 11091
1782 11090
Gitarristen 11090
Bauart 11089
Malers 11089
Bit 11088
Juli@@ 11088
fahrzeug@@ 11088
archäologischen 11087
Charaktere 11086
kandidaten 11086
pas@@ 11086
Meist 11083
Mog@@ 11083
Slowenien 11082
Alpes 11081
Gef@@ 11080
NE@@ 11080
ś@@ 11080
erwiesen 11076
igten 11076
ls@@ 11076
reiten 11076
Student 11075
gebende 11075
Philosoph@@ 11071
weisung 11071
Präsidentin 11069
entrans@@ 11069
hervorrag@@ 11069
Passau 11068
Entw@@ 11067
Nier@@ 11067
oro 11067
rock 11067
Nan@@ 11066
Orch@@ 11066
1776 11065
owitz 11063
Millimetern 11062
leih@@ 11062
spitz@@ 11062
Höch@@ 11061
alliierten 11061
lor@@ 11060
acken 11059
stitut 11059
Heiligen@@ 11057
stor@@ 11057
Zin@@ 11056
tad@@ 11056
scharf 11054
Talsperre 11053
imp@@ 11053
Hann@@ 11052
Uhrzeigersinn 11052
afeln 11049
interess@@ 11049
aken 11048
Umwandlung 11047
durchgehend 11046
gelangten 11045
Fertig@@ 11044
Fußballspielen 11044
stellvertretenden 11044
holt 11043
Antonius 11042
Blan@@ 11040
him@@ 11040
zuges@@ 11040
Ansbach 11039
kollek@@ 11039
Prüf@@ 11038
erho@@ 11038
Etymologie 11037
Früher 11037
Go 11037
Graham 11035
ammer 11035
Latein 11034
altete 11034
restaur@@ 11034
Begleitung 11033
Engagements 11033
Speich@@ 11033
Canadian 11032
BC 11031
glück@@ 11031
Senior 11029
Erinnerungen 11028
unterlagen 11028
Bassist 11027
tage 11027
DO@@ 11026
ISO 11026
gewöhn@@ 11025
Af@@ 11024
Bere@@ 11024
Dog@@ 11023
Monats@@ 11023
deg@@ 11023
lateinisch 11022
Dü@@ 11021
Hanno@@ 11020
Schrif@@ 11020
Diskussionen 11019
teams 11018
sämt@@ 11017
Wick@@ 11015
orb@@ 11015
Minden 11013
enförmig 11013
AK 11012
Gerichte 11012
unkt 11012
Armen 11010
zeichnungen 11010
Berat@@ 11009
Chinas 11007
Cour@@ 11005
ektion 11005
digitale 11004
Car 11001
Ketten@@ 11001
mond 10999
variiert 10998
Sturm@@ 10996
hoff@@ 10996
lum 10996
Sprachraum 10994
Bewusstsein 10992
bart 10992
preise 10992
Komman@@ 10991
spieler@@ 10991
bauf@@ 10990
kommunalen 10990
umpf 10989
Bahnen 10988
opfer 10988
füg@@ 10987
orit@@ 10987
GG 10986
ows 10986
wegs 10984
Helm 10982
oberfläche 10980
meisterin 10978
Elsass 10977
Gly@@ 10976
Käfer 10973
gedr@@ 10973
technischer 10973
Giebel@@ 10970
Pier@@ 10970
stätigkeit 10970
anern 10969
sees 10969
Korea 10967
Pilot@@ 10965
Ahr@@ 10964
Schnabel 10964
Ses@@ 10964
Boys 10963
Stralsund 10963
Insolvenz 10962
eme@@ 10962
Geistes@@ 10961
Gymnasi@@ 10961
tie 10961
Verbleib 10960
Baby 10959
boote 10959
Überwachung 10959
Blüte 10956
Hills 10956
busch 10953
Rechen@@ 10952
ois 10952
-Arten 10950
7.@@ 10950
gewertet 10950
ings@@ 10949
pent@@ 10948
Bande 10945
ppel 10945
einst@@ 10944
illustri@@ 10943
universität 10943
fassten 10942
Campbell 10941
Nerven@@ 10941
begab 10941
Interviews 10940
Distrik@@ 10939
Ukrain@@ 10937
dichten 10937
dierung 10937
gänger 10937
oux 10937
Landung 10934
minder@@ 10934
Busch 10933
ministerin 10933
verdäch@@ 10933
installi@@ 10932
kir@@ 10932
auto@@ 10931
kapitän 10931
ständ@@ 10931
Entwürfe 10930
eroberte 10930
primär 10929
jenes 10928
wappen 10928
Fertigung 10927
Mitkonsekratoren 10927
schießen 10927
Bug@@ 10925
Richtungen 10925
Neum@@ 10923
iefer@@ 10923
Wey@@ 10922
afr@@ 10922
steigern 10922
wider 10922
inspir@@ 10920
Komp@@ 10919
Bauer@@ 10918
Flächen@@ 10917
Seeb@@ 10917
Oc@@ 10916
erem 10916
rode 10915
Genua 10914
Kak@@ 10914
Klaus@@ 10913
Oberseite 10913
marschall 10913
Amateur 10911
Nikol@@ 10911
Sid@@ 10911
Evans 10910
Zeichner 10910
Vegetation 10909
Tank@@ 10908
inmitten 10907
bedroh@@ 10905
Erfindung 10904
Zul@@ 10904
4.000 10903
umgekehrt 10903
sätzen 10902
wirt 10901
Neun@@ 10898
stags 10898
Beachtung 10897
Allee 10896
Deutschland@@ 10895
Bevölkerungsentwicklung 10894
dner 10893
tons 10893
Oberlauf 10891
Braunkoh@@ 10890
endgültigen 10889
alben 10888
fft 10888
Acht@@ 10887
Solche 10887
beginnend 10887
Franziskus 10886
Palm@@ 10884
Empire 10883
NO@@ 10883
antwor@@ 10883
böhmischen 10883
mäß@@ 10882
Angel@@ 10880
Schien@@ 10879
Beratung 10878
gezeichnet 10878
gestiegen 10877
Bosnien 10876
reuth 10876
win 10876
Marine@@ 10875
Å@@ 10875
Zeichnung 10874
115 10873
Ltd. 10872
bisch@@ 10872
halter 10872
klärung 10872
Klöster 10871
einstigen 10870
uktur 10870
staatlich 10868
Krim@@ 10867
hem@@ 10866
kostete 10866
Meinungs@@ 10865
bay@@ 10865
Bindung 10863
Beschäftigten 10862
Nab@@ 10862
Rhône 10862
Ansehen 10861
Muslime 10860
Satelliten 10860
ausgetragenen 10860
leer 10860
inszenierte 10859
sherr@@ 10859
Countys 10858
Peters 10858
hn 10858
bos@@ 10855
Base 10854
sing@@ 10854
Pest 10853
vorrangig 10852
wirtschaf@@ 10852
selbständig 10851
Gehäuse 10850
Bilder@@ 10849
Großherzogtum 10849
kend@@ 10849
bogen@@ 10848
Bev@@ 10845
Tochtergesellschaft 10845
subj@@ 10844
anti 10843
repräsentiert 10843
Wohn- 10842
Lieutenant 10841
parteil@@ 10841
Sm@@ 10840
Meißen 10838
Schönheit 10838
Damen@@ 10836
Patri@@ 10835
Hot@@ 10834
Logo 10833
grav@@ 10833
verheiratete 10833
Kreuzes 10832
IX. 10828
deckt 10828
Harmon@@ 10826
sey 10826
aqu@@ 10825
Ori@@ 10822
frequ@@ 10822
betonte 10821
Paaren 10820
methode 10819
Kohlenstoff@@ 10818
höher@@ 10816
Abwehr 10815
studien 10815
Mittelalters 10814
Unterhaltungs@@ 10814
goldene 10814
B.@@ 10813
anstatt 10813
Solo@@ 10812
Unterart 10812
wendung 10812
WDR 10811
regional 10811
versteckt 10811
Bestr@@ 10810
Dallas 10810
Aussterben 10808
Gewerbe 10808
Schwab@@ 10808
Südtirol 10807
lia 10807
Nordsee 10804
Benutz@@ 10801
Disk@@ 10801
interessierte 10800
verlieren 10800
zulegen 10800
BA 10799
Sant 10799
1777 10798
IT@@ 10798
pack@@ 10797
Adj@@ 10796
niemand 10796
mierung 10795
norwegische 10795
uv@@ 10795
AT 10792
ains 10791
Kirchenkreis 10790
Tunnel@@ 10790
vin@@ 10790
Rechtsprechung 10789
Sechs 10789
dest@@ 10789
messe 10789
Comic@@ 10787
ę@@ 10787
Dit@@ 10785
häuf@@ 10785
Weiss 10784
hüt@@ 10784
ido 10784
wöch@@ 10784
Malta 10783
Schnec@@ 10783
Regierungen 10782
schnitten 10782
5,5 10781
fahrung 10781
Ernest 10779
Kentucky 10779
Instanz 10778
kasten 10778
kooper@@ 10777
ries@@ 10777
Chil@@ 10773
Erhebungen 10773
Kind@@ 10773
Zü@@ 10772
imi 10772
startet 10772
genommenen 10770
Stuart 10769
Gottesdienst 10768
Comic 10767
einsetzte 10767
Development 10766
kot@@ 10763
resul@@ 10763
dunkel 10761
vermitteln 10761
internen 10759
schnitte 10759
aly@@ 10758
sturz 10757
ID 10756
Besondere 10754
Planck 10754
esk@@ 10754
plung 10754
Runs 10752
astischen 10752
ihrerseits 10752
gegebene 10750
Clar@@ 10749
Forstwirtschaft 10749
Cav@@ 10746
gebr@@ 10746
Zel@@ 10745
theologischen 10745
enfabrik 10744
Hütten@@ 10742
Klage 10742
romanischen 10742
gefasst 10740
beschreibung 10739
Freitag 10738
empir@@ 10738
raten 10737
Räumlichkeiten 10736
Schlach@@ 10736
widmet 10736
ichi 10733
teilgenommen 10730
Gerichtshof 10729
Northern 10729
Resultat 10729
mechanische 10729
ehre 10727
fördert 10727
urg@@ 10722
Berges 10721
Stimmung 10720
glauben 10719
Holocaust 10718
Kön@@ 10718
lege 10718
neg@@ 10718
sozialistischen 10717
Parteivor@@ 10715
attungen 10715
genutzte 10715
Spir@@ 10714
hard 10714
zyklus 10713
Fresken 10712
Community 10711
ücken@@ 10711
Anstalt 10710
siedlungen 10710
Phasen 10709
ären@@ 10709
Greif@@ 10708
olo@@ 10707
Boeing 10703
Zyklus 10701
Quadr@@ 10699
sex@@ 10699
Ältere 10698
gestanden 10697
Nationalrat 10696
Schmid 10696
abgeschafft 10696
Abwesenheit 10694
Hubble 10694
atiker 10694
läs@@ 10694
anschluss 10692
aufgeben 10691
ular 10689
Menschenrechts@@ 10688
Single@@ 10688
Erneuerung 10687
Erstellung 10687
esi 10687
Lipp@@ 10686
cor@@ 10685
fusionierte 10683
Larven 10682
gäng@@ 10682
kür@@ 10682
Brom@@ 10681
Französische 10680
spur 10679
102 10678
Apple 10677
Gä@@ 10677
ensee 10677
Dru@@ 10674
Pilger@@ 10672
erheb@@ 10672
fru@@ 10672
sters 10672
ämmer@@ 10672
Ris@@ 10671
nice 10671
lagen@@ 10669
Inspek@@ 10668
assozi@@ 10667
uche 10666
Teilweise 10665
Madonna 10663
scheinbar 10663
Klosterkirche 10662
Max@@ 10662
treib@@ 10660
put@@ 10659
uls 10659
ron@@ 10658
zukommen 10658
Einfluss@@ 10657
derungen 10657
smus 10655
Gat@@ 10654
Mex@@ 10654
Blättern 10652
Alois 10651
Islands 10651
provinz 10650
ine@@ 10649
Fäl@@ 10648
Parker 10646
quer@@ 10646
Cousin 10645
Größen 10645
Lyr@@ 10645
vorgeworfen 10645
zufällig 10644
Dez@@ 10643
Glat@@ 10643
Wahlperiode 10643
Wandel 10642
theoretische 10640
grafschaft 10638
wunder@@ 10637
ahme 10636
praktische 10634
Stadtteils 10632
Parlaments@@ 10631
Zig@@ 10631
fehlenden 10629
handel@@ 10629
öffnen 10629
[...]
