, 4589380
. 4059641
του 2797782
και 2709470
της 1973792
το 1876961
&quot; 1466922
την 1365039
από 1249766
με 1113737
) 949684
( 945028
η 890577
ο 888514
να 880923
τον 851373
που 778315
των 756625
στην 719828
για 686161
σε 685176
στο 678502
είναι 594120
τη 578568
τα 551795
Η 513925
τους 485874
Το 462172
@-@ 442241
Ο 441430
οι 430806
ήταν 397239
στη 367660
ως 338609
τις 333525
: 296761
στις 269833
ένα 259764
ή 246832
ότι 235934
στον 230179
μια 229241
« 218447
» 217092
στα 208789
δεν 198521
Οι 185821
΄ 173941
είχε 161876
κατά 154614
έχει 150651
αλλά 145965
ενώ 136856
οποία 132932
θα 129226
όπως 128375
δύο 127389
&apos; 126918
- 120734
μετά 114944
επίσης 108578
όπου 104071
/ 103096
Τα 98834
καθώς 92708
οποίο 91206
μία 88402
στους 86135
όταν 84514
μέχρι 84367
μεταξύ 83349
αυτό 80479
έγινε 79536
Α 78510
χρόνια 77701
ών 76456
πρώτη 76314
έχουν 76302
πιο 74054
προς 73978
Β 73076
Στις 72715
; 71912
2 71839
αν 71549
περιοχή 70631
πόλη 70479
Σ@@ 69934
ος 69896
μπορεί 69834
θέση 69378
αυτή 68949
ική 68848
ικό 68637
1 68315
ομάδα 67183
ων 67009
διάρκεια 65588
αιώνα 64316
ου 64127
ένας 63025
οποίος 61287
Από 60696
αν@@ 60013
&amp; 59007
ό 58269
Στην 57737
% 57174
– 56709
α 56477
περίοδο 56113
3 56108
ικής 55921
έναν 55784
μέρος 55643
μόνο 55402
ία 55337
είχαν 54965
ά 54815
πολύ 54792
μαζί 53989
ενός 53988
Μετά 53880
ικά 53611
σ@@ 53384
ικού 53350
ους 53212
ικές 53153
έως 52969
Με 52943
ες 52555
ός 51461
ής 51188
ικών 50984
περίπου 50924
βρίσκεται 50765
ές 50450
όμως 50434
ίας 50367
προ@@ 49171
Π@@ 48802
Κ@@ 48081
εν@@ 47609
4 47197
αργότερα 47169
Στο 47014
τότε 46858
όνομα 46822
Τ@@ 46629
ι 46610
τ@@ 46469
κάθε 46398
Κατά 46261
ης 45772
Α@@ 45459
Μ@@ 45312
μέσα 45206
ι@@ 45186
υπο@@ 44415
φορά 44237
&#93; 44168
&#91; 43581
χ@@ 43149
Τον 42999
Είναι 42991
Σε 42720
δι@@ 42607
απο@@ 42546
πρώτο 42545
Ν@@ 42418
β@@ 42264
λόγω 41870
ο@@ 41525
κ@@ 41508
πως 41226
ν@@ 41156
πριν 41130
υπό 40854
ταινία 40792
κυρίως 40709
Την 40328
ού 40194
Χ@@ 39965
γκ@@ 39890
συνέχεια 39890
α@@ 39634
Λ@@ 39577
φ@@ 39537
μ@@ 39436
5 39389
Β@@ 39171
σειρά 39023
εκ@@ 38944
ικός 38813
ίδια 38597
Για 38565
ς 38451
πάνω 38375
ας 38164
ε 38018
τ 37901
έργο 37768
ζ@@ 37073
10 36891
Ελλάδα 36776
ά@@ 36426
εξ@@ 36369
Στη 36319
π@@ 36206
2011 36074
Ρ@@ 35968
Φ@@ 35915
αρ@@ 35842
χωριό 35736
Ήταν 35703
ετών 35542
ου@@ 35323
σήμερα 35175
σαν 34977
χωρίς 34800
μη 34796
αντι@@ 34247
μπ@@ 34158
γ@@ 33794
ί 33636
αυτά 33584
επι@@ 33562
6 32864
Ι@@ 32720
σύμφωνα 32641
φορές 32609
ίου 32519
Επίσης 32512
μέσω 32471
μιας 32400
Σύμφωνα 32317
μεγάλη 32315
κ 32308
Γ 32218
αποτέλεσμα 32203
Μπ@@ 32182
θ@@ 31989
Ο@@ 31959
ούς 31837
μέλος 31827
πόλης 31744
εν 31665
εποχή 31665
_ 31621
ομάδες 31513
ιστορία 31470
έτσι 31413
πολλές 31248
λ 31235
τμήμα 31186
ιν@@ 31002
Δ@@ 30967
τσ@@ 30874
στοιχεία 30743
δ@@ 30715
ό@@ 30676
ίδιο 30397
εκλογές 30274
έκανε 30252
τρεις 30134
στ@@ 30097
άλλα 30079
λ@@ 30073
τού 30004
π.Χ. 29869
ε@@ 29843
αναφέρεται 29811
Ε@@ 29743
τέλος 29545
αρχές 29425
χώρα 29296
Ωστόσο 29082
επί 29071
= 28946
20 28887
12 28855
συν@@ 28853
αποτελεί 28757
Ζ@@ 28704
τίτλο 28685
πολλά 28615
λι@@ 28575
τόσο 28442
ί@@ 28399
άλλες 28223
αλ@@ 28195
ν 28169
ηλικία 28083
κοντά 28014
ξεκίνησε 27962
ίων 27953
γιος 27946
8 27844
ρο@@ 27785
όλα 27719
ανα@@ 27686
The 27563
τα@@ 27538
ζωή 27384
υπάρχει 27375
παρ@@ 27354
κατα@@ 27198
7 27165
έδρα 26999
πρωτάθλημα 26901
κι 26864
τικό 26862
έλαβε 26797
κόρη 26796
μεγάλο 26755
Γ@@ 26731
2010 26711
κατοίκους 26668
ικ@@ 26613
απ@@ 26568
ρ@@ 26541
ώστε 26532
έργα 26522
τική 26518
οί 26473
15 26434
χρήση 26425
όσο 26424
έ@@ 26361
ει 26317
μέλη 26188
Ιουλίου 26156
Αυγούστου 26075
ρ 25933
εκ 25637
ρι@@ 25627
Μαρτίου 25622
Εθνική 25603
χρόνο 25603
of 25511
αυτές 25426
αφού 25329
βι@@ 25313
υπάρχουν 25278
Σεπτεμβρίου 25203
κα@@ 25203
Οκτωβρίου 25147
βάση 25141
ακόμη 25028
formula 24962
μ 24935
’ 24904
Ά@@ 24879
τος 24873
Ιουνίου 24864
ω@@ 24853
ια 24851
Στα 24825
οποίες 24812
Μαΐου 24788
γύρω 24753
ον@@ 24717
περιοχές 24658
Όταν 24636
Ιανουαρίου 24608
ακ@@ 24527
άν@@ 24501
ισ@@ 24418
δεύτερη 24375
πρέπει 24305
επ@@ 24283
συχνά 24140
Απριλίου 24132
ακόμα 24117
σεζόν 24108
σύστημα 24088
έ 24070
εκτός 24049
το@@ 23999
μα 23957
κυβέρνηση 23773
μορφή 23687
αρχικά 23646
Αυτό 23641
τι@@ 23629
Αγίου 23628
νέα 23557
υ@@ 23541
Νοεμβρίου 23505
ατ@@ 23478
τελευταία 23460
ευ@@ 23429
ομάδας 23412
εκεί 23361
Ιστορία 23314
σι@@ 23250
ντε 23227
ουν 23101
ερ@@ 23050
τες 23031
έν@@ 23027
Αθήνα 23016
εναντίον 23008
ονομασία 22981
30 22977
τι 22961
16 22944
11 22907
πρώην 22900
2012 22855
ού@@ 22821
κοινότητα 22748
14 22704
προσ@@ 22687
Γκ@@ 22681
Αν@@ 22632
αγώνες 22593
όλη 22549
τελικά 22520
σχετικά 22506
ον 22501
9 22487
γλώσσα 22365
Έχει 22317
δηλαδή 22298
συνήθως 22238
κέντρο 22222
Δεκεμβρίου 22191
όχι 22187
πήρε 22153
2009 22051
βασιλιά 22044
είτε 21977
gt 21946
2008 21901
ρόλο 21851
ομ@@ 21725
2014 21707
μένη 21691
πρώτος 21642
μπορούν 21638
άς 21607
τικά 21580
ώ@@ 21561
μέτρα 21533
ίες 21526
πλέον 21480
18 21457
ήσει 21373
Φεβρουαρίου 21335
κατηγορία 21334
lt 21324
δια@@ 21287
2015 21272
άλλων 21259
2013 21145
όν 21071
μεγαλύτερο 21066
ικούς 21037
γεννήθηκε 21019
13 20967
Βιογραφία 20915
Τζ@@ 20909
άλμπουμ 20885
αγώνα 20779
αγ@@ 20731
άλλη 20717
ούν 20711
γίνει 20692
άν 20624
άρχισε 20565
ανάμεσα 20517
κυκλοφόρησε 20504
γεγονός 20472
κάτω 20419
παιδιά 20404
Ως 20403
έτος 20394
Πανεπιστήμιο 20385
ρα@@ 20383
Τσ@@ 20376
2007 20336
τζ@@ 20277
κέρδισε 20259
ώντας 20256
μεγαλύτερη 20254
17 20185
πρώτα 20163
Αν 20156
2016 20079
δεύτερο 20046
ΗΠΑ 20022
χώρας 20008
γνωστή 19988
25 19976
χρονιά 19968
ύ@@ 19961
περι@@ 19958
ορ@@ 19952
ήθηκε 19895
ξ@@ 19886
σχεδόν 19868
δεκαετία 19842
Δ 19732
υπήρξε 19672
Ελλάδας 19649
όλες 19591
γνωστό 19585
τικής 19580
η@@ 19566
τέλη 19527
σχέση 19523
ιδιαίτερα 19508
τρ@@ 19480
Έ@@ 19478
de 19456
χώρες 19428
σκ@@ 19405
περιοχής 19404
Έτσι 19401
2006 19390
ση 19382
να@@ 19372
αι@@ 19360
μένο 19329
τρία 19313
επειδή 19305
ασ@@ 19185
ερ 19172
υπερ@@ 19092
οποίοι 19050
ιών 19026
ρί@@ 18997
the 18909
περισσότερο 18845
θάνατο 18719
μετα@@ 18675
πολιτική 18667
ισμός 18666
συμμετείχε 18642
κόσμο 18613
ίδιος 18560
τρόπο 18557
2019 18538
Ευρώπη 18509
μάχη 18488
παραγωγή 18488
γίνεται 18471
είς 18463
0 18420
κάνει 18416
19 18412
πληθυσμό 18367
πι@@ 18310
εκείνη 18237
ελ@@ 18226
ωστόσο 18205
ολ@@ 18187
πέντε 18114
απογραφή 18103
σης 18065
ισμού 18055
μένα 18055
ει@@ 18025
όν@@ 18003
Προ@@ 17965
πατέρα 17962
εί 17956
2017 17903
χρησιμοποιείται 17885
αφ@@ 17834
εία 17816
νέο 17760
οντας 17755
όρος 17745
ισμό 17743
2018 17733
παράδειγμα 17684
αρκετά 17653
άρ@@ 17627
ρα 17604
άτομα 17600
πέθανε 17594
οικογένεια 17575
γι@@ 17565
Αθηνών 17550
χιλιόμετρα 17534
Γαλλία 17527
Μια 17510
21 17463
2004 17451
θεωρείται 17434
κλ@@ 17408
τικών 17399
Ένα 17361
βόρεια 17360
ιδρύθηκε 17304
αριθμός 17244
Δι@@ 17217
2000 17209
Πρωτάθλημα 17203
νότια 17156
δυνάμεις 17151
ζωής 17083
πατέρας 17065
επιτυχία 17017
Αλ@@ 17005
οικισμός 16957
μας 16942
δυο 16937
Καρ@@ 16917
βρίσκονται 16911
ρά@@ 16896
ανά 16864
περιλαμβάνει 16829
τικές 16825
-@@ 16821
θεί 16750
τραγούδι 16748
κο@@ 16747
ικοί 16724
Γι@@ 16709
πρόεδρος 16697
ρου 16659
ιο 16657
αυτός 16649
ίν@@ 16647
ήδη 16578
22 16561
2005 16551
λε@@ 16546
πόλεις 16528
ή@@ 16524
χώρο 16508
.@@ 16448
διάστημα 16417
Αρ@@ 16404
πλ@@ 16391
θε@@ 16315
έγιναν 16292
24 16248
μουσική 16241
Γεννήθηκε 16219
μήκος 16205
ρος 16168
παρά 16161
δε 16153
αμ@@ 16115
τά@@ 16056
σημείο 16043
ελληνική 16020
αυτών 16012
γνωστός 15992
ονται 15984
&#124; 15932
ανάπτυξη 15932
ανέλαβε 15909
Θ@@ 15902
amp 15893
πίσω 15836
έδωσε 15808
πο@@ 15760
ότητα 15731
2001 15726
Στον 15687
εται 15681
κατάσταση 15674
ιά 15609
άλλους 15586
ωση 15584
μι@@ 15575
Ανα@@ 15565
οποίων 15559
αυτόν 15557
περιόδου 15556
κάποια 15554
βασιλιάς 15519
Αυτή 15516
εκατομμύρια 15509
μένος 15506
όλο 15487
εποχής 15469
αυτού 15443
έκδοση 15433
φ 15407
23 15398
άλλο 15385
Γερμανία 15365
εντός 15357
αυτής 15342
επίπεδο 15259
μπορούσε 15249
τερ@@ 15245
οπ@@ 15242
μου 15218
Παρ@@ 15208
διάφορες 15205
κάτι 15186
ησε 15178
όνομά 15177
υ 15129
ω 15126
ων@@ 15115
πλευρά 15096
τικού 15063
επέστρεψε 15029
πόλεμο 15024
Δεν 15002
Νέα 14999
νησί 14950
αριθμό 14947
δεκαετίας 14923
Έλληνας 14914
ζ 14876
εξής 14863
εταιρεία 14857
· 14856
μητέρα 14853
Γαλλίας 14772
πολέμου 14768
συμμετοχή 14763
Παγκόσμιο 14759
μον@@ 14749
τρι@@ 14746
λα@@ 14745
βρισκόταν 14740
περισσότερα 14729
μόλις 14717
είο 14705
Μαρία 14665
ψ@@ 14631
28 14594
χαρακτηριστικά 14554
κάτοικοι 14550
Ένωση 14544
ονομάζεται 14518
λίγο 14452
ώθηκε 14441
ήσεις 14440
τε@@ 14365
Συν@@ 14344
χλμ. 14336
τών 14335
δημιουργία 14324
1990 14322
καριέρα 14321
ποτέ 14320
Κου@@ 14318
ήσουν 14316
Κύπελλο 14292
μήνες 14276
100 14265
όρο 14262
τελικό 14239
Ό@@ 14230
! 14191
βιβλίο 14191
αναφέρει 14181
Ου@@ 14179
επόμενη 14170
είται 14142
ανήκει 14139
είδη 14138
παρέμεινε 14098
θέσεις 14097
Ιταλία 14079
2002 14057
ογ@@ 14044
ώ 14042
σημαίνει 14040
χωριού 14037
μένες 14036
26 14007
Γου@@ 14001
κά@@ 13986
Ε 13966
μα@@ 13955
πρωτεύουσα 13838
ρο 13824
2020 13821
σημαντικό 13817
περίπτωση 13814
s 13800
βαθμό 13786
ανδρών 13780
2003 13749
όλων 13746
C 13733
οβ@@ 13728
περισσότερες 13715
50 13691
Ιωάννης 13653
27 13651
είδος 13632
εις 13577
... 13566
Ιωάννη 13552
γαλλικά 13536
Μαρ@@ 13535
τικός 13524
έξι 13522
κατασκευή 13520
νίκη 13511
β 13503
πάλι 13503
ίδα 13476
αποτελούν 13476
ουν@@ 13422
σκοπό 13414
1999 13389
επαρχία 13354
οποίου 13346
όπουλος 13327
μά@@ 13321
τέσσερις 13312
σώμα 13307
είας 13284
ίνα 13257
ίσ@@ 13243
υπ@@ 13225
φαίνεται 13164
ούσε 13140
γιο 13119
αρχή 13118
ταινίες 13110
όρ@@ 13081
οδ@@ 13059
σημαντική 13053
αντ@@ 13028
μάτων 13001
έρ@@ 12994
άλ@@ 12980
μικρό 12940
πληθυσμού 12934
επικεφαλής 12928
έγραψε 12920
κατέκτησε 12865
αυτήν 12808
πρόγραμμα 12794
κατάφερε 12760
Εθνικής 12755
π 12732
ντ 12731
ηση 12726
Θεσσαλονίκης 12705
οφ@@ 12702
1997 12701
Έλληνες 12659
έκταση 12658
ξανά 12643
αυτο@@ 12641
εκκλησία 12627
περ@@ 12614
29 12609
Παρίσι 12594
έχοντας 12588
εξουσία 12578
πρώτες 12575
άσ@@ 12566
αποτελείται 12527
ρε@@ 12503
ότητας 12489
γυναίκες 12474
δύναμη 12466
συνολικά 12437
πρ@@ 12434
διάφορα 12422
ίνη 12413
ησαν 12413
οπότε 12393
Πολέμου 12391
μικρή 12390
μεγάλες 12361
κα 12354
έπειτα 12347
Σχολή 12312
ώσει 12297
απέκτησε 12287
γάμο 12284
μην 12283
τη@@ 12260
πολυ@@ 12197
τς 12192
απόσταση 12189
1η 12179
επίσημα 12165
συγκρότημα 12150
οκ@@ 12142
σπίτι 12131
ανατολικά 12060
υλ@@ 12057
ονταν 12034
Καλ@@ 12032
παραγωγής 12026
καλ@@ 12019
σύνολο 12015
είου 12001
μέτρων 11968
ίδες 11949
οσ@@ 11947
μαν@@ 11932
αγωνίστηκε 11924
εί@@ 11904
εθνική 11898
Δημοκρατίας 11896
οδήγησε 11855
πληθυσμός 11844
1998 11809
έφτασε 11801
Εν@@ 11798
Κά@@ 11795
δυτικά 11792
προέρχεται 11791
ίν 11774
έτη 11764
στρατό 11754
ήθηκαν 11744
1991 11725
κας 11710
προκειμένου 11706
κοινό 11695
1980 11687
ρού@@ 11678
Παν@@ 11644
ηθεί 11641
σχέδιο 11632
τας 11616
θ 11613
ίσει 11602
Δημοκρατία 11590
υπήρχε 11584
Πόλεμο 11573
Δήμου 11554
υψόμετρο 11532
ιλ@@ 11527
στιγμή 11516
ις 11514
Βασίλειο 11506
μερικές 11483
ημέρα 11474
1996 11473
αυτούς 11469
Σου@@ 11433
μέσο 11427
αρκετές 11402
σημαντικά 11366
κου@@ 11360
.. 11334
Μον@@ 11328
and 11323
άκη 11262
απεβίωσε 11262
σπ@@ 11256
άρα 11238
ποδοσφαίρου 11217
ούσαν 11214
Αργότερα 11207
Ί@@ 11192
Απο@@ 11187
br 11172
πηγές 11171
πρωταθλήματος 11157
φάση 11156
ίδης 11151
τέ@@ 11142
βοήθεια 11117
ιν 11116
αφορά 11109
κόμμα 11105
παρουσία 11081
λέξη 11074
επαν@@ 11025
πολλούς 11009
ουλ@@ 10997
νερό 10992
θέμα 10990
Ένωσης 10982
+ 10981
αρχαία 10961
Νέας 10952
Υ@@ 10951
1970 10947
ϊ@@ 10946
Μά@@ 10939
π.χ. 10930
μένων 10929
ημέρες 10926
έκ@@ 10891
μέγεθος 10878
αγγλικά 10872
in 10866
ησης 10856
χ 10852
άγ@@ 10847
ίστηκε 10814
κράτος 10814
καλοκαίρι 10799
βραβείο 10796
περί 10789
άρι 10785
1992 10772
ταινίας 10769
θούν 10757
τον@@ 10753
έλεγχο 10752
πολιτικός 10723
τε 10721
διαδικασία 10715
μ. 10715
ωσης 10713
ιστ@@ 10707
οικογένειας 10701
2021 10690
Κύπρου 10677
Σήμερα 10671
λόγο 10668
1960 10664
οικ@@ 10664
Μακ@@ 10654
περιλαμβάνουν 10654
Πολιτείες 10644
επίθεση 10632
σα 10632
μαν 10630
Εξ@@ 10626
άκης 10616
άρ 10612
τμήματα 10604
του@@ 10603
τύπου 10601
παράδοση 10582
Γερμανίας 10579
δημιουργήθηκε 10578
31 10563
γυναίκα 10563
μένοι 10549
τί@@ 10542
δούκα 10533
Κόμμα 10530
τρίτη 10527
εγ@@ 10506
δήμο 10492
1994 10483
Αυτοκρατορίας 10482
αδ@@ 10479
1993 10451
σχέσεις 10436
Επιπλέον 10413
Μέχρι 10409
Ηνωμένες 10374
γιατί 10373
νε@@ 10363
όλους 10352
τέσσερα 10326
παν@@ 10325
Βρίσκεται 10324
ούνται 10321
νέου 10319
έπρεπε 10316
εφ@@ 10312
γκ 10309
εισ@@ 10305
40 10285
ήματα 10283
Σι@@ 10272
καθ@@ 10268
βαρ@@ 10263
Βι@@ 10247
άκι 10238
πολλοί 10227
λλ@@ 10217
καν@@ 10216
όπ@@ 10215
άλλοι 10209
δράση 10203
όμ@@ 10168
εμ@@ 10157
ώνει 10151
1995 10149
αστ@@ 10136
κατοίκων 10136
έν 10134
σειράς 10131
1989 10083
Αντι@@ 10073
γυναικών 10073
νομού 10059
τού@@ 10058
ντ@@ 10046
εσ@@ 10039
παιχνίδι 10026
Ευ@@ 10011
στική 9995
τά 9986
άκ@@ 9976
Ιανουάριο 9967
Πανεπιστημίου 9963
θέματα 9953
παντρεύτηκε 9949
ώνεται 9947
πάντα 9933
άνο 9928
μέ@@ 9926
πέρασε 9921
συνέχισε 9920
1974 9914
δε@@ 9906
Οικογένεια 9901
° 9898
Ρώμη 9890
Μουσείο 9877
τραγούδια 9877
ελ 9873
απέναντι 9870
αβ@@ 9868
μερ@@ 9852
κάποιο 9851
περιπτώσεις 9837
ίνο 9819
Υπάρχουν 9812
απ 9801
πορεία 9796
Αγώνες 9785
Και 9783
ίζει 9782
συγγραφέας 9781
Απ@@ 9775
γκολ 9766
λογ@@ 9765
κυβέρνησης 9744
λειτουργία 9743
αμέσως 9737
πά@@ 9729
άνδρες 9722
ποταμού 9717
βουλευτής 9684
Ευρώπης 9678
Ρωσία 9664
νη 9661
Ένας 9621
μυ@@ 9609
Γεώργιος 9603
αποφάσισε 9588
εμφάνιση 9586
Οκτώβριο 9576
συ@@ 9567
δήμου 9563
τής 9534
τουλάχιστον 9508
Ελλάδος 9507
Σεπτέμβριο 9507
έλ@@ 9505
ματ@@ 9503
με@@ 9500
κάστρο 9490
οχ@@ 9490
μάλιστα 9477
θηκε 9462
ούτε 9454
Αγίας 9453
νο@@ 9447
ουσ@@ 9446
μέρη 9443
Κατ@@ 9440
ποσοστό 9440
Ιούνιο 9431
A 9424
προβλήματα 9418
δική 9417
Εθνικό 9409
Πρόεδρος 9396
Άγιος 9392
ηθοποιός 9381
ύψος 9367
τιμή 9365
βά@@ 9360
συλλογή 9354
ολογία 9352
Εκεί 9346
εμφανίζεται 9346
εύ@@ 9342
έτους 9336
όσ@@ 9316
κόμη 9293
μ.Χ. 9291
κυ@@ 9290
συνθήκες 9283
Μπο@@ 9278
ομάδων 9259
τοπική 9225
εξελέγη 9219
συνεργασία 9217
Μάιο 9205
παρα@@ 9199
χρησιμοποιούνται 9191
Κάτω 9185
συγκεκριμένα 9179
1940 9169
θηκαν 9163
τελευταίο 9155
περιέχει 9135
ελληνικό 9128
θεωρία 9126
Μάρτιο 9124
τή 9118
καρ@@ 9113
γραμμή 9112
κύρια 9105
γαλλική 9104
τερ 9096
ιμ@@ 9095
ώσεις 9086
Ιούλιο 9080
υπήρχαν 9057
a 9037
νομό 9036
μέση 9010
ώνουν 8999
ιερ@@ 8998
συγκροτήματος 8988
έπαιξε 8986
ματος 8986
αρχ@@ 8971
χαρακτήρα 8968
Αύγουστο 8967
έα 8955
πραγματοποιήθηκε 8953
κιν@@ 8952
Μπρ@@ 8949
επίσημη 8941
προσπάθεια 8939
σμ@@ 8937
όμενη 8930
ύ 8930
κύριο 8921
Οίκο 8916
αζ@@ 8914
φιλ@@ 8914
βρέθηκε 8911
οποίας 8908
Αγγλίας 8905
μπο@@ 8902
ναός 8896
Ντ@@ 8888
Δήμος 8884
Κορ@@ 8882
Παγκοσμίου 8882
κορυφή 8881
Αμερική 8871
παράλληλα 8870
ακολούθησε 8862
σία 8854
Κωνσταντινούπολη 8853
νι@@ 8840
πολ@@ 8838
ικα 8831
άνα 8830
κατηγορίας 8827
ίκ@@ 8822
αχ@@ 8822
γενικά 8818
ιδ@@ 8814
αντίθεση 8799
σή 8799
θη@@ 8790
βα 8773
όμενο 8768
μο@@ 8753
όλοι 8752
κράτους 8744
δικό 8742
60 8740
έδαφος 8735
Βόρεια 8720
επόμενο 8719
υπέγραψε 8714
Δεκέμβριο 8711
ιού 8709
τικούς 8707
μο 8705
ίσως 8704
Τζον 8693
ώρες 8658
Αυτοκρατορία 8639
αποτελέσματα 8639
ειδικά 8632
υποστήριξη 8631
Εκκλησία 8626
1981 8610
Βαλ@@ 8605
αυ@@ 8604
Αγία 8598
θέ@@ 8592
έρευνα 8591
έργου 8588
αντίστοιχα 8588
μελέτη 8586
ετ@@ 8581
άνθρωποι 8575
σπουδές 8569
Άν@@ 8565
Κα@@ 8565
Νοέμβριο 8564
στρατού 8560
έρ 8556
σσ@@ 8549
τούν 8546
Θε@@ 8545
ιστική 8542
Η@@ 8539
άδες 8539
ίζεται 8534
Πολωνίας 8532
λί@@ 8531
Αρχ@@ 8530
εδάφη 8529
Λι@@ 8510
1950 8498
άστηκε 8484
συμμετείχαν 8483
παρακάτω 8469
συστήματος 8468
χαρ@@ 8458
ότ@@ 8456
Όπως 8453
θρόνο 8444
Αγγλία 8437
τώρα 8436
υγ@@ 8432
Απρίλιο 8413
ταν@@ 8409
είων 8408
πρωτο@@ 8402
Επι@@ 8399
χω@@ 8397
Εκτός 8396
κόρης 8394
τέχνης 8393
οποίους 8392
γλώσσες 8385
αδελφός 8380
μένης 8377
Μιχαήλ 8363
ριν@@ 8355
πρό@@ 8352
επί@@ 8345
επτά 8343
διαθέτει 8329
Παρά 8326
πληροφορίες 8326
κο 8324
δήλωσε 8322
έγ@@ 8318
βιβλία 8309
σκι 8292
ρέ@@ 8289
Εκ@@ 8283
ρω@@ 8274
ανθρώπους 8273
ώθηκαν 8273
ίνης 8257
άζει 8255
δο@@ 8254
Λιγκ 8246
Ελλήνων 8239
γι 8221
διοίκηση 8221
λιγότερο 8221
τυ@@ 8207
εξαιτίας 8201
επαρχίας 8197
άδα 8190
περίοδος 8189
μέρες 8175
Μα@@ 8168
Τη 8166
σχολείο 8163
Σαρ@@ 8162
κόσμου 8154
ίδιου 8149
έφερε 8140
δήμος 8137
πέ@@ 8133
έξω 8123
80 8120
έμεινε 8112
οικονομική 8109
μουσικής 8103
Δήμο 8102
συμφωνία 8101
1945 8098
επιφάνεια 8088
ρεκόρ 8081
1985 8076
όμενος 8073
κι@@ 8072
σημερινή 8064
βλ@@ 8063
1944 8061
αντ 8058
ηλ@@ 8046
Είχε 8044
μεν@@ 8030
ίδας 8028
ώρα 8026
λά@@ 8017
όνα 8016
ωσε 8011
διοργάνωση 8007
άρχισαν 8004
περιφέρεια 8004
μέρα 7994
αγι@@ 7982
νησιού 7981
χρησιμοποιήθηκε 7973
απόφαση 7966
σύνθεση 7966
ώς 7964
τρίτο 7962
δίνει 7961
διοικητική 7957
ιστές 7953
ήττα 7951
εντάχθηκε 7951
αντί 7950
δημιούργησε 7949
σ 7946
τές 7938
κολ@@ 7934
αποτέλεσε 7919
κάποιες 7919
εργάστηκε 7914
I 7911
σον 7909
Λου@@ 7904
1988 7894
φορ@@ 7891
υπέρ 7890
ειας 7887
εκπαίδευση 7878
περιοδικό 7877
αναφέρονται 7871
Αγ@@ 7866
ιζ@@ 7865
ήσεων 7864
1986 7863
Πολωνία 7862
Κατα@@ 7861
εμφανίστηκε 7853
πηγή 7849
λα 7845
Περ@@ 7841
δόθηκε 7837
τίτλος 7837
θέατρο 7835
συμ@@ 7834
μεγάλα 7833
εξ 7825
έργων 7822
ωθεί 7821
αρχική 7819
ΐ@@ 7818
Τελικά 7808
ντεμπούτο 7807
στερ@@ 7807
ρου@@ 7800
κατηγορίες 7798
καθηγητής 7797
ανά@@ 7795
ιστικό 7784
υλικό 7768
M@@ 7766
ην@@ 7762
19ου 7761
πολλών 7755
Όμως 7754
κόμματος 7753
ξ 7740
ελληνικής 7737
τρο@@ 7736
όρους 7736
ρον@@ 7731
ζω@@ 7722
Ρωσίας 7717
ιστεί 7716
Μακεδονίας 7712
1987 7701
Ιταλίας 7700
παραπάνω 7698
δί@@ 7689
χωριά 7685
σύνορα 7676
μετέπειτα 7674
πλαίσιο 7670
Κο@@ 7667
ψυχ@@ 7660
λο 7655
ορισμένες 7654
θάνατό 7645
γκα 7643
ών@@ 7642
ιάς 7634
μένους 7634
όλ@@ 7632
κομμάτι 7625
ενδιαφέρον 7623
αλλ@@ 7620
θεραπεία 7608
200 7607
τικοί 7604
στρατιώτες 7603
αυτοκράτορα 7602
όρια 7599
ανακοίνωσε 7592
σχέδια 7591
συλλόγου 7582
σημαντικές 7571
έχασε 7568
πόντους 7567
τό 7562
πατ@@ 7558
1920 7537
Λονδίνο 7536
ήρθε 7532
Γεωργίου 7528
ανό 7528
ίδρυσε 7522
Θεσσαλονίκη 7521
άνι 7517
οφ 7516
πλοία 7507
οργάνωση 7506
1975 7504
κοινότητας 7496
αλ 7495
περισσότεροι 7495
1984 7494
όγ@@ 7490
δυνατότητα 7478
ίστηκαν 7477
ξης 7476
1982 7474
Κωνσταντίνος 7463
Νε@@ 7462
ναό 7459
υν@@ 7454
Καλλικράτης 7450
φέρει 7450
Ενώ 7443
Παράλληλα 7443
παιδί 7429
τσι@@ 7427
εκστρατεία 7426
άζ@@ 7418
Φεβρουάριο 7417
ώσουν 7411
Ηνωμένων 7409
έλ 7407
σει 7407
τομέα 7406
Σαν 7400
νερού 7400
εια 7391
ημ@@ 7389
ητή 7389
Ελληνική 7382
εξέλιξη 7379
σχήμα 7375
όφ@@ 7375
Μαν@@ 7372
Αρχικά 7367
Άλ@@ 7337
ήματος 7336
ματα 7336
1979 7334
κατέλαβε 7334
πραγματικότητα 7329
συμπεριλαμβανομένων 7323
άποψη 7321
ουμε 7317
πήγε 7317
70 7311
Βασιλείου 7308
Ξ@@ 7306
κατ@@ 7301
1967 7299
κίνηση 7296
τελική 7290
διεξήχθη 7285
Κύπρο 7277
λόγους 7277
Κλ@@ 7272
ουρ@@ 7271
διορίστηκε 7268
ιος 7267
συμβόλαιο 7265
ελληνικά 7260
αύξηση 7259
εαυτό 7257
στόχο 7246
μπορούσαν 7242
παρουσιάζει 7242
γραφ@@ 7238
ανήκε 7233
τιμ@@ 7231
1941 7230
Κ 7229
1912 7224
νέων 7220
σύντομα 7217
στικό 7208
Φιλ@@ 7204
Χά@@ 7204
ηθούν 7196
κυκλοφορία 7189
έννοια 7188
Μου@@ 7181
Συμβούλιο 7177
αλλαγή 7177
τριών 7176
Καν@@ 7175
ίδη 7175
τελ@@ 7169
ητές 7166
εφημερίδα 7163
” 7162
Αθήνας 7160
Ισπανία 7158
έρα 7146
βασ@@ 7146
δέκα 7146
ίδρυση 7141
ίζοντας 7140
T@@ 7135
λερ 7133
γεγονότα 7131
αγορά 7130
δικαιώματα 7129
άσει 7123
ζήτησε 7121
νησιά 7121
στρατιωτική 7121
ικο 7117
διαδέχθηκε 7116
αποστολή 7110
δεύτερος 7110
πα@@ 7109
αρχηγός 7106
στο@@ 7103
δικαίωμα 7100
Ασία 7098
Μεταξύ 7090
ορίζεται 7088
λεπτά 7078
Κόμματος 7077
έναντι 7064
ιδέα 7059
μένου 7058
“ 7055
μοντέλο 7050
1978 7048
μορφές 7048
εάν 7046
σφ@@ 7041
1983 7034
ίνι 7034
έχ@@ 7033
λειτουργεί 7031
οκτώ 7030
A@@ 7028
αναφορά 7027
ξη 7021
έσ@@ 7020
Σκ@@ 7019
x 7017
ώνα 7012
Τρι@@ 7009
90 7001
έας 6997
ανός 6997
1973 6989
εικόνα 6981
γρήγορα 6980
διά@@ 6979
Πλ@@ 6975
γνωστοί 6956
πολιτικής 6956
ημα 6946
διευθυντής 6943
σί@@ 6943
1976 6937
θάλασσα 6933
κον@@ 6932
Επιτροπής 6930
οποι@@ 6930
συζύγου 6927
ρού 6926
ώματα 6921
ότερο 6919
1930 6916
επιρροή 6915
ταυτόχρονα 6910
Κατηγορία 6902
είπε 6901
ζει 6884
ούν@@ 6875
Κον@@ 6872
1977 6871
o 6870
υπουργός 6869
εκδοχή 6864
λέ@@ 6863
σημασία 6863
σύλλογος 6861
Μαλ@@ 6853
1971 6852
γύρο 6850
είδους 6848
μερικά 6843
σκορ 6842
άνω 6838
αδελφό 6835
αμπ@@ 6835
Α. 6830
Επιτροπή 6830
Πριν 6827
ενεργ@@ 6825
χος 6824
όνι 6806
ριο 6799
εσωτερικό 6796
δο 6787
έδρας 6785
δώσει 6782
περιβάλλον 6775
1972 6771
1968 6767
πάρει 6767
ιου 6764
ώνοντας 6764
δρόμο 6759
άρια 6751
επιπλέον 6745
θερμοκρασία 6741
τοι 6741
χρησιμοποιεί 6739
χρόνου 6736
κτίριο 6732
σύζυγος 6732
1964 6731
εφαρμογή 6729
πρώτου 6726
Πι@@ 6723
χορ@@ 6717
εταιρείας 6713
καταγωγή 6707
ανού 6706
δομή 6704
κτ@@ 6700
Μεγάλη 6694
ακριβώς 6685
Άννα 6683
ίζουν 6682
ότερα 6675
αποτελούσε 6674
ίτης 6672
ανάλογα 6672
Τότε 6669
Ι 6660
κεντρική 6657
1961 6654
εξωτερικό 6641
Εκκλησίας 6640
Αφρική 6637
ίτη 6636
ηγ@@ 6636
αλλαγές 6633
ανακ@@ 6630
ονομ@@ 6629
ποταμό 6629
χρονικό 6626
δημόσια 6625
αξι@@ 6620
όβ@@ 6618
Βιογραφικά 6617
ροι 6616
Μετα@@ 6615
1939 6610
τικ@@ 6610
προστασία 6607
όμενα 6606
πλειοψηφία 6605
κε 6603
συστήματα 6582
τιο 6578
εστ@@ 6574
αι. 6570
ώδη 6568
δολάρια 6565
χώρος 6565
Κοινότητα 6562
αγωνίζεται 6562
κάνουν 6561
σημεία 6556
ιτ@@ 6552
αυτοί 6549
ίτες 6544
καταγωγής 6543
οργαν@@ 6541
1821 6537
Ολυμπιακούς 6531
ποι@@ 6530
ενέργεια 6529
Λόγω 6528
πρώτης 6526
τύπος 6519
1963 6515
διαφορετικές 6504
ωσαν 6504
καθεστώς 6502
μίας 6502
γνωστά 6499
πρόσωπο 6497
ποδοσφαιριστής 6496
τεχν@@ 6495
ινγκ 6493
άνοδο 6490
δυνάμεων 6489
επίδραση 6488
παραμένει 6486
δίπλα 6484
υπηρεσίες 6484
αναδείχθηκε 6480
ίνος 6478
Κάρολος 6472
έκαναν 6470
ιστής 6469
γονείς 6465
τιν@@ 6465
Νότια 6461
ωνα 6458
πίνακα 6456
ηθ@@ 6453
αί@@ 6452
μεγαλύτερος 6452
τσα 6452
Καθώς 6446
επιλογή 6443
υπηρέτησε 6437
άμ@@ 6436
ίνου 6433
βάρος 6433
ορι@@ 6430
Κάρ@@ 6428
ακολουθεί 6428
επιστροφή 6427
Επ@@ 6425
ίλ@@ 6425
ύπαρξη 6421
Υπο@@ 6420
# 6415
Μπι@@ 6414
μετάλλιο 6413
ωμα 6410
μπροστά 6409
Ντά@@ 6408
ένωση 6404
δα 6404
ιστορικό 6403
Ω@@ 6402
μετρ@@ 6402
προπονητής 6402
παράγεται 6401
n 6400
τρί@@ 6400
εγκ@@ 6399
μος 6397
Αφού 6396
άφ@@ 6387
Μπου@@ 6384
έτα 6383
προσπάθησε 6381
εμφανίσεις 6377
διετέλεσε 6376
1.@@ 6375
ονομάστηκε 6375
πρόβλημα 6372
ζουν 6369
έστειλε 6367
υπόθεση 6367
Ντι@@ 6366
άβ@@ 6364
μήνα 6364
E@@ 6363
ητών 6363
σύγχρονη 6348
Κι@@ 6346
εκδόσεις 6344
1943 6341
γλώσσας 6341
δη 6338
1969 6334
ματική 6333
K@@ 6330
τρα 6328
ανθρώπων 6323
μικρά 6323
Ασ@@ 6320
Ερρίκος 6317
νίκες 6312
1946 6311
λάβει 6310
ρία 6310
ηγεσία 6309
Ρου@@ 6307
S@@ 6305
χρησιμοποιώντας 6305
έλα 6304
κατόπιν 6304
λιμάνι 6304
άνθρακα 6303
Περι@@ 6298
καλά 6298
νέες 6296
κερδίσει 6291
Πρ@@ 6282
οποίηση 6281
R@@ 6276
υδρο@@ 6274
υρ@@ 6273
άντα 6272
σταδιοδρομία 6270
ιστορίας 6266
άνη 6265
χο 6261
ονόματα 6260
στρατεύματα 6258
χει@@ 6258
Όσκαρ 6253
Κυπέλλου 6249
ακή 6248
λη@@ 6245
υσ@@ 6244
To 6239
χρώμα 6238
επιχειρήσεις 6236
ότερη 6232
Πέθανε 6224
ναού 6224
Άγιο 6223
σχ@@ 6222
ότερες 6211
μικρο@@ 6207
στοιχείο 6207
νομ@@ 6198
B@@ 6186
Κομ@@ 6183
κύ@@ 6183
κορ@@ 6176
i 6175
ιγ@@ 6172
ούνταν 6171
στάδιο 6171
τέχνη 6168
υφ@@ 6167
εξαιρετικά 6166
Αλέξανδρος 6164
καλύτερη 6159
τύπο 6159
στρατός 6154
ίο 6153
έκθεση 6148
Υπήρξε 6144
δεδομένων 6143
Σ 6141
ιστών 6138
ενάντια 6136
ιχ@@ 6136
Συμβουλίου 6135
ωμένο 6128
2@@ 6127
Ευρωπαϊκό 6127
μεγάλου 6124
Τσι@@ 6121
κατ 6121
σημείωσε 6117
υπηρεσία 6116
1965 6112
απο 6111
καν 6102
Μάρ@@ 6098
πρωταθλήματα 6098
σκηνή 6098
προκάλεσε 6093
πεδίο 6092
ακό 6085
πρωθυπουργός 6085
ώνονται 6072
άζουν 6068
ταλ@@ 6064
έδρες 6062
έπ@@ 6062
σκηνοθεσία 6062
μέν@@ 6057
Βραβείο 6055
Παπ@@ 6052
άτομο 6038
500 6037
γράφει 6037
δεδομένα 6034
παιχνίδια 6032
γνώρισε 6031
ικότητα 6031
ειο 6024
βί@@ 6022
όμενες 6022
τσι 6020
1918 6018
χρησιμοποιηθεί 6014
πιθανώς 6008
μήκους 6006
τοποθεσία 6005
χέρια 6005
ταν 6004
Σαλ@@ 5999
σώματος 5999
Μάχη 5996
άδ@@ 5992
όριο 5991
τερμάτισε 5987
προσπάθειες 5986
καιρό 5978
κερ@@ 5975
Βαρ@@ 5972
ωμένη 5972
1966 5971
Άνω 5968
οξ@@ 5967
2.@@ 5966
έναρξη 5964
στι@@ 5963
Ηνωμένο 5962
ύστερα 5956
Σπούδασε 5952
ιακή 5950
μελών 5947
χαρακτηριστικό 5947
χρυσό 5947
τεχνική 5946
Έπειτα 5942
δος 5940
πε@@ 5938
οικογένειες 5932
ίζ@@ 5931
κράτη 5931
έζησε 5928
εργασίες 5925
γη 5922
πολιτικό 5914
Μία 5910
ασκ@@ 5910
ημάτων 5909
χάρη 5908
τέκνα 5907
πραγματοποίησε 5906
ολοκληρώθηκε 5905
χρονιάς 5904
Ισπανίας 5898
γραμμές 5897
μεγάλης 5886
αντικείμενο 5885
αρνήθηκε 5882
εργασίας 5881
καμία 5880
Κρήτης 5870
έμ@@ 5865
εθνικής 5864
σχολή 5863
ολογίας 5861
to 5859
θητεία 5859
ενέργειας 5855
έλαβαν 5853
φον 5851
ητής 5849
ναν 5847
κοινή 5846
1928 5841
Σύστημα 5841
τεί 5841
ροφ@@ 5836
Γεωγραφία 5835
μελ@@ 5835
μαρ@@ 5823
Γκα@@ 5821
Κίνα 5820
λίμνη 5817
βαθμούς 5814
φυσική 5812
τελευταίος 5811
έβ@@ 5809
Πά@@ 5807
ελλ@@ 5807
πρόταση 5805
δραστηριότητες 5803
ήθελε 5802
ολόκληρη 5794
κίνημα 5792
σπούδασε 5781
d 5774
κυριαρχία 5773
P@@ 5770
L@@ 5766
βασίλειο 5766
1947 5764
δραστηριότητα 5758
παρελθόν 5753
χρησιμοποιούν 5753
άλλαξε 5752
σταθμός 5743
R 5739
Ελ@@ 5739
συγ@@ 5739
Καναδά 5737
εισβολή 5736
σημερινό 5735
οπλ@@ 5731
ρίας 5730
βίντεο 5728
συμμετοχές 5727
Ιαπωνία 5724
νης 5724
Τουρκία 5721
Αμ@@ 5718
αδελφή 5715
y 5713
κριτική 5708
κος 5705
νέος 5702
πολίτες 5702
όδ@@ 5702
ατόμων 5700
Ορ@@ 5697
περαιτέρω 5696
αντί@@ 5695
καλλιτέχνες 5694
F@@ 5691
διαφορά 5691
Με@@ 5690
όνια 5690
χιλιάδες 5688
νο 5687
Λού@@ 5686
σίας 5682
C@@ 5675
ίζονται 5675
φυ@@ 5672
O 5670
ελληνικού 5668
οξύ 5661
Σοβιετική 5659
αντικείμενα 5659
σεων 5658
πολιτικές 5653
N@@ 5652
εργασία 5649
ρίου 5649
ίσουν 5647
Πολ@@ 5644
παίκτης 5642
1948 5641
Αμερικής 5641
σύζυγό 5641
1958 5639
δείχνει 5639
Κάθε 5637
Τέλος 5637
διεθνή 5632
πτώση 5631
λύ@@ 5626
εδ@@ 5625
πρίγκιπα 5622
Στ@@ 5618
επαφή 5618
αγωνιστική 5617
μη@@ 5616
ιντ 5615
μάν@@ 5614
κανείς 5613
μεταφορά 5613
Καριέρα 5610
1962 5609
Κολ@@ 5609
χρώματα 5609
τάξη 5607
Μονή 5606
λος 5606
Λέ@@ 5604
επανάσταση 5604
γεν@@ 5602
συγκεκριμένη 5602
ξεκίνησαν 5601
1956 5598
Ζαν 5597
άλ 5597
Γιώργος 5593
ίνες 5592
μοναστήρι 5590
πλοίο 5588
Πρόκειται 5584
εβ@@ 5578
μοναδικό 5577
κό@@ 5575
Ελισάβετ 5570
Πέ@@ 5565
Δύο 5564
Λονδίνου 5563
διότι 5561
ΦΚ 5560
προϊόντα 5559
Πειραιά 5556
Ακαδημία 5550
O@@ 5549
Ε.@@ 5548
διαφορετικά 5547
άζεται 5546
αϊ@@ 5546
ιρ@@ 5536
ερμηνεία 5534
Ντα@@ 5533
έζ@@ 5532
κεντρικό 5525
λέει 5525
στά@@ 5525
κομ@@ 5524
Παλ@@ 5518
άστηκαν 5518
Γη 5515
κομμάτια 5514
32 5512
Ανατολικής 5511
εντ@@ 5510
αρ 5506
επίπεδα 5495
ρά 5494
ανθ@@ 5489
όκ@@ 5489
εδώ 5483
καταστροφή 5481
έφ@@ 5476
οι@@ 5475
μεγαλύτερες 5474
δεκαετίες 5472
Κό@@ 5471
35 5467
δρ@@ 5456
δίσκο 5455
κατάκτηση 5454
S 5452
Άρ@@ 5449
μικρές 5446
οικονομικά 5446
μυθιστόρημα 5442
Αυτός 5437
αποκλειστικά 5436
δυτική 5436
H@@ 5434
μεταφέρθηκε 5429
μετονομάστηκε 5423
αρχικό 5419
ζε 5418
1919 5415
Ομοσπονδία 5415
Στους 5410
επόμενα 5406
Υόρκης 5404
δουλειά 5403
πράξη 5403
ότητες 5403
Γαλ@@ 5402
μάχης 5402
μόνη 5402
o@@ 5399
γκο 5398
άνια 5396
αντίδραση 5394
on 5391
δίκτυο 5390
Γκου@@ 5388
άλη 5386
άπ@@ 5386
μισό 5385
απλά 5384
μάλλον 5382
Ντε@@ 5367
ητ@@ 5363
κάποιος 5362
1955 5359
διαγωνισμό 5357
εργ@@ 5354
πόλεμος 5349
Πολιτειών 5348
φυσικό 5348
μακριά 5344
ανεξαρτησία 5343
συγκεκριμένο 5343
Μπαρ@@ 5342
στής 5342
ενότητα 5339
ητικό 5338
βρεθεί 5337
εξέγερση 5337
οποίησης 5337
ρας 5334
Νικ@@ 5331
σενάριο 5330
άντ 5329
κατοχή 5328
φύση 5328
1959 5327
ταγ@@ 5325
γερμανική 5321
στικά 5318
ητική 5313
διοικητής 5312
πέτυχε 5309
ψε 5309
ανή 5307
δια 5303
επιστρέψει 5303
συνδυασμό 5300
καλαθοσφαίρισης 5295
ταχύτητα 5294
300 5287
δούκας 5286
Βρετανία 5280
ισμένο 5279
συνέπεια 5277
1942 5275
F 5272
αναφορές 5271
πλήρως 5270
m 5268
γιου 5268
παλιά 5268
D@@ 5267
— 5265
σταθμό 5261
Κέντρο 5258
αξίωμα 5253
φυσικά 5253
ζώνη 5244
ιτς 5242
διεθνής 5240
Καμ@@ 5238
δημ@@ 5237
ογραφία 5236
παγ@@ 5235
κοσμ@@ 5233
Ελληνικής 5231
Πατ@@ 5228
ξι@@ 5228
μονάδες 5220
οτ@@ 5218
ζώα 5211
et 5210
αποκτήσει 5210
νό@@ 5209
Μακεδονία 5208
κόμης 5206
εθνικό 5205
ματικό 5204
G@@ 5203
ref 5203
Μαζί 5201
ποδόσφαιρο 5200
1951 5199
L 5199
Ενότητα 5198
ϋ@@ 5198
υπόλοιπο 5194
στα@@ 5193
Στρατού 5191
πλήρη 5186
ίρ 5184
άλλ@@ 5182
ισμένη 5178
1922 5176
άζοντας 5171
H 5170
είες 5170
σταδιακά 5170
ΦΕΚ 5168
μεγάλος 5168
Υπουργείο 5166
οικονομία 5166
προσωπικό 5166
κλίμα 5165
Μορ@@ 5164
Επανάσταση 5160
πλαίσια 5160
ειών 5159
παλ@@ 5157
σε@@ 5157
υπολογ@@ 5156
1936 5155
αέρα 5153
Ακαδημίας 5150
άχ@@ 5149
υπάγεται 5143
οικισμό 5141
λίγα 5140
ουσιαστικά 5139
Εθνικού 5138
ιακό 5137
ιας 5135
μείωση 5131
κατασκευής 5127
πίεση 5125
1949 5117
Αυστρίας 5116
βασίζεται 5116
σύγκρουση 5113
ειδών 5112
Χάρ@@ 5111
άλα 5111
βρίσκονταν 5111
κατά@@ 5110
χρησιμοποίησε 5110
Βόρειας 5109
γερμανικά 5105
βραβεία 5104
τια 5104
αρι@@ 5103
Κωνσταντίνου 5098
ΣΤ 5098
λιο 5098
ανήκουν 5097
Κ. 5089
τιος 5088
επιθέσεις 5087
πανεπιστήμιο 5084
σύζυγο 5084
νω@@ 5083
λευ@@ 5082
Αίγυπτο 5081
επικ@@ 5079
ανέφερε 5074
σουν 5074
εγκαταστάθηκε 5072
ουσα 5072
μετακόμισε 5071
εχ@@ 5068
ιστικά 5067
Αλλά 5066
V@@ 5065
άρθρο 5065
ώνας 5065
δύ@@ 5063
κυκλ@@ 5063
1957 5061
Έγινε 5061
όνων 5061
γ 5060
χώρου 5054
B 5053
όχ@@ 5053
ίνας 5048
μαθητές 5046
Ασίας 5045
Βερ@@ 5041
Νικόλαος 5039
γαλ@@ 5039
παρόμοια 5039
μακ@@ 5034
1938 5033
Λουδοβίκος 5030
δυ@@ 5029
άνου 5027
κάτοικοί 5021
ονομαζόταν 5021
τολ@@ 5020
ραβ@@ 5019
τό@@ 5018
Μι@@ 5017
πίνακας 5017
θρ@@ 5016
παγκόσμια 5015
Λα@@ 5005
ανακοινώθηκε 5003
οφείλεται 5003
4@@ 5002
λέγεται 5000
λόγος 5000
νίκησε 4998
πιθανότατα 4997
ανάπτυξης 4992
αναπτύχθηκε 4992
1952 4991
ιστορική 4989
X 4988
Ιν@@ 4985
όρι@@ 4985
βρέθηκαν 4983
κ.ά. 4983
ανατολική 4982
οδό 4982
όπουλου 4982
Ισραήλ 4981
γήπεδο 4981
Βασ@@ 4978
ματά 4975
Αττικής 4973
Σερβίας 4973
Φεστιβάλ 4972
στικής 4972
ιστή 4967
ωνε 4964
κοινού 4963
1924 4962
συμβ@@ 4962
αθ@@ 4961
τοξ@@ 4960
άνθρωπος 4957
ορισμένα 4951
Αυτές 4949
ψηφ@@ 4946
μετ@@ 4943
Συ@@ 4942
έρι 4941
διακ@@ 4941
Αυτά 4938
Ζ 4932
φως 4930
ρυ@@ 4929
φων@@ 4925
Ινστιτούτο 4924
διεξήχθησαν 4924
άι 4921
ασία 4921
ευκαιρία 4921
πρώτοι 4920
στή 4918
φτάσει 4917
1927 4915
Απεβίωσε 4913
κοινωνική 4913
ρίων 4912
συνδέεται 4911
κατακτήσει 4908
αγγ@@ 4905
δικά 4905
εμπόριο 4898
ιστικές 4897
ρό@@ 4897
πρόκειται 4895
σμού 4895
γίνονται 4891
τρια 4890
Ινδία 4889
μουσείο 4888
ετ 4887
δεξιά 4884
χαρακτηρίζεται 4883
Ρώμης 4882
σπίτια 4877
θερ@@ 4874
σημαία 4874
Ρό@@ 4871
ατική 4866
μνημείο 4862
Σά@@ 4858
βασιλείας 4858
οικογένειά 4855
απελευθέρωση 4854
παγκοσμίως 4854
χαλ@@ 4852
μισ@@ 4850
Μάν@@ 4849
ορθ@@ 4848
περιλαμβάνονται 4848
οδηγεί 4845
τιμές 4843
υποστήριξε 4843
ότερος 4842
άκια 4841
συγγραφείς 4840
βρήκε 4838
στικές 4838
λίγες 4835
περισσότερους 4835
μό 4833
σου@@ 4833
στών 4833
ύν@@ 4833
μν@@ 4832
πέρα 4829
ιστορικός 4828
τίτλους 4828
1953 4827
Ανατολική 4826
Σχολής 4826
μπα 4825
κοινωνία 4824
καμπ@@ 4823
μελέτες 4822
πί@@ 4822
συμπεριφορά 4821
εικον@@ 4820
κριτικές 4820
3@@ 4818
σύμβολο 4818
φαινόμενο 4815
Άρη 4813
ελλην@@ 4813
μόνος 4811
εντολή 4809
παρέχει 4809
τηκαν 4809
σκα 4807
45 4806
t 4805
Υόρκη 4800
Δημήτριος 4799
αναγκάστηκε 4795
1929 4794
ιστορικά 4793
στερ 4792
άνιο 4790
1954 4789
κείμενο 4789
γάμος 4788
ευρέως 4788
χωρών 4784
Γεν@@ 4783
Μέ@@ 4782
βόρειο 4781
σειρές 4780
έπεσε 4776
Αυτοκράτορα 4772
παλαιότερα 4772
ισε 4769
κείμενα 4768
αία 4767
D 4765
Δυτικής 4763
αρχίζει 4762
βολ@@ 4762
γενική 4761
τμήματος 4759
πλατεία 4758
άτα 4757
Γκά@@ 4756
ειες 4754
εμφανίζονται 4754
ιση 4754
μαχ@@ 4754
1935 4753
ώνες 4752
πρόσβαση 4749
ισης 4748
κύριος 4748
ευρώ 4747
Π 4745
Χαλ@@ 4741
θανάτου 4740
όπουλο 4738
ημερολόγιο 4735
άνων 4732
μβ@@ 4731
υδ@@ 4730
Δυτική 4729
καλύτερα 4728
τοπικό 4728
χν@@ 4724
χιλιομέτρων 4723
απέκτησαν 4722
ωρ@@ 4722
κατασκευάστηκε 4721
συγγραφέα 4718
κω@@ 4717
Νίκος 4711
ίγ@@ 4711
άλι 4708
νόμο 4705
ρυθμ@@ 4704
ημένο 4700
έφυγε 4698
άμεσα 4696
Άλλες 4695
λίστα 4695
αγώνων 4694
Μπερ@@ 4693
μεσ@@ 4693
ίδων 4691
ασι@@ 4689
ουσία 4689
αγκ@@ 4688
αρχαίας 4688
γης 4687
επιχείρηση 4687
μυθολογία 4686
μοναδική 4685
στούντιο 4685
φαν@@ 4684
πα 4680
Κού@@ 4678
Βουλή 4676
αγώνας 4676
μεγάλων 4676
δικ@@ 4675
άσουν 4674
μονάδα 4666
συμμετάσχει 4662
Πόλεμος 4657
αγων@@ 4657
δολοφονία 4657
ιδιότητες 4653
παίκτες 4652
πό@@ 4652
ραγ@@ 4652
δημιουργήσει 4650
έντονα 4646
περιγράφει 4645
ντα 4644
ολογικά 4644
Τμήμα 4642
άρη 4641
στεί 4640
έδωσαν 4639
τάξης 4639
Ε.Π.Σ. 4637
Ξεκίνησε 4636
μεταλλ@@ 4636
στικών 4636
διαίρεση 4633
διοργανώσεις 4632
περί@@ 4631
πόδια 4631
μνήμη 4630
πρώτους 4630
τέτοια 4629
Ντέ@@ 4628
Στρ@@ 4628
δημοσίευσε 4628
la 4624
όμενοι 4623
νες 4622
οπο@@ 4619
διεθνείς 4618
παίζει 4617
Κινηματογράφου 4616
ημι@@ 4615
δημοτική 4613
γεω@@ 4612
διαφ@@ 4612
ημένη 4612
ρη@@ 4612
Ν. 4609
ηλικίας 4609
1926 4607
ΑΕΚ 4607
ικ 4604
επαρχίες 4599
ιδι@@ 4599
ίτ@@ 4593
πλήθος 4592
συγκ@@ 4591
πρόσωπα 4588
άνης 4586
είσοδο 4586
χρόνων 4585
κύκλο 4584
αξία 4581
Γιάννης 4576
έφεραν 4575
πραγματικό 4575
δρα@@ 4571
επέκταση 4571
Κάστρο 4567
γινόταν 4561
Μέσα 4560
εμπ@@ 4560
σου 4560
Σύνταγμα 4559
άνοιξε 4557
ανάλυση 4557
Λα 4556
Αιγύπτου 4552
βασικό 4551
Ερ@@ 4550
τω@@ 4550
καλή 4549
αργ@@ 4548
θεωρούνται 4548
χτίστηκε 4548
βασίλισσα 4547
συνθήκη 4546
ώσεων 4544
λαμβάνει 4543
σω@@ 4541
διαφόρων 4540
χρήματα 4539
ικανότητα 4536
μικρότερο 4536
αστική 4535
μπι 4534
τεν 4531
Ιστορικό 4530
εβδομάδες 4529
οποιαδήποτε 4525
Στάδιο 4523
2η 4522
περιόδους 4522
άδεια 4521
μή@@ 4519
1933 4518
αρκ@@ 4518
σεν 4518
Τζέιμς 4517
λη 4517
βιομηχανία 4516
μορφ@@ 4516
Γενικά 4514
Σού@@ 4512
ασχολήθηκε 4512
παρά@@ 4512
ασης 4508
Ουγγαρίας 4506
βεν@@ 4506
διπλ@@ 4506
Ιδρύθηκε 4505
άει 4505
πρόσ@@ 4503
Θέατρο 4502
Κωνσταντινούπολης 4502
σεις 4502
αρχιτεκτονική 4500
ξουν 4500
Υπάρχει 4499
βαν@@ 4498
λυ@@ 4498
Ντου@@ 4497
μεγαλύτερα 4496
μαγ@@ 4495
οικισμού 4495
ιβ@@ 4493
έων 4490
στάση 4488
Ρόμπερτ 4487
ποταμός 4487
Καστ@@ 4482
άφησε 4481
αυτοκράτορας 4480
εταιρείες 4480
1934 4478
μητέρας 4477
υποψήφιος 4475
-- 4472
υπήρξαν 4471
Αφρικής 4469
διαβ@@ 4468
χρονολογείται 4468
οντα 4466
Καρόλου 4465
τηλεοπτική 4465
ακολούθησαν 4463
λειτουργίας 4462
ρακ@@ 4462
Κύ@@ 4461
λεϊ 4461
φέρουν 4460
Ευρωπαϊκή 4459
Παρισιού 4459
I@@ 4456
κατασκευ@@ 4456
1937 4455
πρω@@ 4455
τέθηκε 4453
εννέα 4450
χέρι 4449
ίδ@@ 4448
πολιτικών 4445
3.@@ 4444
γράφτηκε 4443
κου 4440
κ.α. 4437
άδων 4436
όρα 4434
Μελ@@ 4433
ζωγράφος 4433
έτ 4431
μαθήματα 4431
πώς 4431
μάχες 4429
Μπέ@@ 4428
επιτρέπει 4428
ώματος 4428
Χαρ@@ 4427
Συνολικά 4424
αναλάβει 4424
δίσκος 4424
Ρά@@ 4423
όργανα 4422
Αυστραλία 4420
γλ@@ 4420
1923 4419
δου 4418
κεφάλι 4416
ολογική 4415
Αχαΐας 4412
έντονη 4409
γράμματα 4408
πρότεινε 4408
βιβλιοθήκη 4405
ιες 4405
κίνδυνο 4405
παραστάσεις 4405
ακτές 4401
ξε 4401
εκτέλεση 4398
εύκολα 4395
ολογικό 4391
1932 4389
αιώνες 4389
θη 4389
ιδιαίτερη 4386
Πολλοί 4385
πολιορκία 4385
προπονητή 4384
Κερ@@ 4382
Ολυμπιακό 4378
εθνικ@@ 4378
κατεύθυνση 4378
ομώνυμο 4377
https 4375
χαρακτήρες 4375
εκδόθηκε 4372
φωτός 4372
υπόλοιπα 4371
αθλητές 4368
Πε@@ 4365
εκκλησίας 4365
άδας 4364
προγράμματος 4364
στ 4364
Κρήτη 4363
κατέ@@ 4363
βερ@@ 4361
ποίηση 4359
Χίτλερ 4357
μπερ@@ 4357
παραλ@@ 4355
Αμερικανός 4354
Τεχνών 4351
νέ@@ 4348
Γερμανοί 4347
Ερρίκου 4347
ταξίδι 4346
ανών 4344
εγκαταστάσεις 4344
κτίρια 4344
παραιτήθηκε 4343
πολιτικά 4342
Αφ@@ 4341
βασιλική 4341
δίσκου 4338
χώρους 4338
400 4337
κέντρα 4337
φήμη 4335
5@@ 4334
αναγνώριση 4333
τεν@@ 4331
‘ 4331
ρι 4330
λι 4329
τέτοιο 4327
ημερομηνία 4325
όρου 4324
Ισ@@ 4323
κη 4319
φαν 4318
εγκαταστάθηκαν 4317
Φίλιππος 4316
στυλ 4316
Εν 4314
Σί@@ 4313
αστεί 4310
κανένα 4308
Βουλγαρία 4306
έρχεται 4306
ισμένος 4306
Παλαι@@ 4305
έμπ@@ 4305
1917 4304
Τ 4302
βοηθήσει 4302
θάλασσας 4296
κατέλαβαν 4294
χα@@ 4294
µ@@ 4289
Λε@@ 4289
τοκ@@ 4287
1925 4283
γερμ. 4280
βαλ@@ 4278
ματικές 4278
υγείας 4278
άντ@@ 4276
στοιχείων 4275
φερ@@ 4275
δέχτηκε 4274
Συνθήκη 4272
προσφέρει 4272
σμός 4271
Τρ@@ 4268
άμεση 4267
Λουδοβίκου 4266
ακτή 4266
σι 4266
Σερ@@ 4265
ώνων 4265
Δ. 4264
κοινότητες 4263
αρχαιότητα 4259
πλούσια 4259
σιο 4258
προέρχονται 4257
περιοδεία 4255
Μεν@@ 4254
ικότητας 4254
ταρ@@ 4254
ζαν 4253
βοήθησε 4251
ανι@@ 4249
μικρότερη 4249
ονομάζονται 4248
Ιερ@@ 4245
παθ@@ 4245
Ελληνικό 4244
εντελώς 4243
συμμετέχει 4243
μόν@@ 4242
πίνακες 4240
όμενων 4240
λιν 4239
ανάγκη 4238
γνω@@ 4237
συμπεριλαμβανομένου 4234
απόψεις 4231
Γ. 4230
δεκα@@ 4229
ιατρική 4229
γου@@ 4226
ήγ@@ 4225
επιτροπή 4224
άσεις 4223
πόλεων 4223
φασ@@ 4221
ην 4219
εκείνος 4218
οδήγησαν 4218
υμ@@ 4218
γιους 4217
παρακ@@ 4217
τός 4217
έι 4216
ματο@@ 4216
V 4214
Αλ 4213
άδης 4211
μονή 4211
Μπλ@@ 4210
ειδ@@ 4210
επεισόδιο 4208
παράσταση 4208
Λίγο 4207
ωμένα 4207
σύλλογο 4206
άκρο 4205
καταστ@@ 4205
Κεντρική 4203
κύπελλο 4201
Πολιτική 4200
Επειδή 4199
υπέστη 4199
τηλεόραση 4197
τηκε 4195
άκ 4194
επίσημο 4194
απλ@@ 4193
τυπ@@ 4189
αυλή 4188
Γης 4186
Σαιν 4184
τελευταίες 4182
υλικά 4181
δ 4180
ίς 4179
ρών 4179
περιέχουν 4178
όρ 4175
ποικιλία 4172
τούς 4172
τοπ@@ 4170
Βραβεία 4168
τετρα@@ 4167
παρουσίασε 4165
πατρίδα 4163
1914 4162
εκλογή 4162
βου@@ 4157
παλαι@@ 4154
όνη 4153
ματικά 4152
δες 4151
ταχ@@ 4151
έλλειψη 4149
Μάλιστα 4145
αίο 4145
Γουλιέλμος 4144
στρατόπεδο 4144
τω 4144
Ελλην@@ 4143
al 4142
συμβούλιο 4139
σο@@ 4137
Συγκεκριμένα 4135
ωπ@@ 4135
ιδίως 4133
κύτταρα 4133
πρόεδρο 4133
ικη 4131
διαμέρισμα 4130
καθαρ@@ 4129
στη@@ 4124
νότιο 4121
προέδρου 4119
εκπαίδευσης 4118
κατάληψη 4116
μπήκε 4115
Δανίας 4114
ιστούν 4114
σπάνια 4114
εξέδωσε 4111
ορίστηκε 4111
σκηνές 4109
κρίση 4108
Έδρα 4107
εφ 4107
όσα 4107
στές 4106
διάφορους 4105
33 4104
W@@ 4103
εργάζεται 4100
τούσαν 4100
εξουσίας 4099
νικ@@ 4099
ψει 4099
Eurovision 4096
Περιφέρεια 4095
μικρός 4095
αιώνας 4094
Εταιρείας 4092
σκ 4092
προγράμματα 4091
στρατηγός 4091
us 4090
Γάλλος 4088
Χ 4088
ποδοσφαιρική 4087
Ού@@ 4085
στατ@@ 4085
ερς 4084
σχετίζεται 4083
μεγαλ@@ 4082
υψηλή 4081
βουλευτικές 4080
ημένα 4079
θυμ@@ 4079
Ακ@@ 4078
φυλακή 4078
Σερβία 4077
ρική 4075
Σαμ@@ 4074
άριο 4074
θεωρήθηκε 4073
ταινιών 4073
υποστηρίζει 4073
ρύ@@ 4072
La 4071
Α.@@ 4070
εμπορική 4070
Ιερουσαλήμ 4068
εκπομπή 4068
μάτια 4068
σχολεία 4068
βρει 4067
μουσικό 4066
χρήσης 4066
διοργάνωσης 4065
δρόμου 4065
Του@@ 4057
νεο@@ 4057
ολογικές 4056
Στα@@ 4055
τούτου 4055
σεως 4053
διάδοχος 4050
ισαν 4049
φτάνει 4048
κτήριο 4047
τρόπος 4047
τυχ@@ 4046
καριέρας 4045
συμβαίνει 4045
Μαρίας 4043
Σαν@@ 4043
πια 4042
Επαρχία 4038
έγκ@@ 4038
ιακά 4035
ψης 4035
χι@@ 4034
όσον 4031
εισαγωγή 4030
απόδοση 4029
ανέ@@ 4028
νέας 4028
Κυβέρνηση 4027
σμό 4027
εύεται 4026
ώδες 4025
Κεντρικής 4024
Ιωαννίνων 4022
αξ@@ 4021
ερείπια 4019
Τούρκους 4018
ακά 4018
Σιν@@ 4017
τούσε 4017
νά@@ 4012
απόλυτο 4011
μά 4011
τιμήν 4009
ερμην@@ 4006
τραγουδιού 4006
New 4005
ειρ@@ 4005
λογική 4003
συνδυ@@ 4002
Χρυσ@@ 4000
Βασιλιά 3999
Μπαλ@@ 3999
τέταρτη 3999
ρη 3998
ότεροι 3995
Πέτρος 3994
άλλος 3992
θος 3992
πορ@@ 3992
Νικολάου 3991
Κοινοβούλιο 3990
19ο 3987
δείχνουν 3983
μπου@@ 3982
ούλ@@ 3981
άρι@@ 3980
1913 3978
1931 3978
βασιλείου 3978
ίδιας 3977
Σοβιετικής 3975
Αστ@@ 3974
Βου@@ 3973
τουρνουά 3973
ανατ@@ 3972
συνολικό 3972
Θ 3971
Ματ@@ 3970
Νότιας 3969
Σοφία 3969
τουρκική 3968
όφ 3965
εδάφους 3964
παράγει 3964
χειμώνα 3964
κόμματα 3962
παράγοντες 3961
Σα@@ 3960
άντρες 3960
εκτιμάται 3959
σκοτώθηκε 3959
ιερό 3958
βο@@ 3957
Αμπ@@ 3956
ίλ 3956
κανάλι 3956
ντι 3956
όπλα 3956
όργανο 3956
Βιβλιοθήκη 3955
γραμμής 3955
δράσης 3954
N 3953
μές 3952
ξε@@ 3951
Σάν@@ 3950
ξει 3950
ακές 3948
πρίγκιπας 3948
περιοχών 3945
Αποτελεί 3944
επίσκοπος 3942
μης 3940
θέσης 3936
ιδέες 3936
Αυστρία 3935
ανταγων@@ 3935
δω@@ 3935
φι@@ 3935
όλου 3933
φεστιβάλ 3932
κρα@@ 3931
εκείνο 3930
ξεκινήσει 3930
φθ@@ 3924
εκδηλώσεις 3923
Αχ@@ 3922
ητο 3922
Διεθνές 3919
λλα 3919
μεν 3919
p 3917
σας 3917
Ομοσπονδίας 3915
Σύ@@ 3914
ρατ@@ 3914
πιθανόν 3913
αποχώρησε 3910
συμμετέχουν 3910
νύχτα 3909
επιστολή 3907
γέφυρα 3906
36 3902
ιστικής 3902
έχουμε 3901
αστεροειδής 3901
ισχύ 3901
στεν@@ 3899
χά@@ 3899
θρησκεία 3897
ιοι 3896
Κώστας 3895
κυκλοφόρησαν 3894
έδειξε 3893
ποιητής 3892
Κρά@@ 3888
από@@ 3887
δης 3886
μαζ@@ 3886
Τόμας 3885
χρον@@ 3885
περιελάμβανε 3884
μέθοδος 3883
αποστ@@ 3882
δών 3882
λογαριασμό 3882
ζευγάρι 3881
Τουρκίας 3878
διαδρομή 3877
ώδης 3877
ιους 3876
οικισμούς 3876
τεράστια 3876
γνωστές 3875
βάσει 3874
προκαλεί 3871
ρίν@@ 3871
προ 3870
l 3868
έτ@@ 3866
Π.@@ 3865
έφτασαν 3864
θυ@@ 3864
υψηλής 3864
Που@@ 3863
ύγ@@ 3863
ομοι@@ 3862
Ευρωπαϊκής 3859
ανάγκες 3858
επάνω 3858
ιστικών 3858
ελέγχου 3856
σκόρερ 3856
ούμενος 3855
Πρωταθλήματος 3854
Αι@@ 3852
συμμαχία 3852
75 3850
πλευρές 3848
αζε 3844
σχετίζονται 3843
φρούριο 3843
νη@@ 3842
σύμβουλος 3841
άτου 3838
σύζυγός 3838
θερμ@@ 3837
Βουλής 3836
Μικ@@ 3836
χρυσ@@ 3834
Μόσχα 3833
αντιδράσεις 3833
ύρ@@ 3833
μεγέθους 3832
προώθηση 3832
διέταξε 3831
ενεργό 3831
πράγμα 3828
ισχυρή 3824
νόμου 3823
προσέγγιση 3822
1900 3818
Μ. 3818
Γερμανούς 3817
σελίδα 3816
τεχνικές 3816
Αυ@@ 3815
ατσ@@ 3815
δας 3814
Επιστημών 3812
άνος 3811
δομ@@ 3811
μοντέλα 3808
Ανατολή 3804
Αϊ@@ 3803
ασε 3803
Λος 3802
Φυσικά 3801
άνθρωπο 3801
επιτυχίες 3800
Λί@@ 3799
Υπουργός 3799
φιλοσοφία 3799
παιχνιδιού 3797
ριών 3797
Κόν@@ 3795
Στά@@ 3795
ηχ@@ 3794
χλμ 3794
34 3793
ητικά 3793
απώλεια 3791
εκκλησίες 3791
παραδοσιακά 3791
όλης 3791
δρόμους 3789
συνεχώς 3789
προσοχή 3788
Παντρεύτηκε 3787
νωρίτερα 3786
αίου 3785
ημένος 3784
εκλογών 3782
πρόσφατα 3781
φόρ@@ 3781
Ανδρέα 3780
Μ 3778
αντίσταση 3773
σκοπ@@ 3773
προηγούμενη 3772
ότητά 3772
Βεν@@ 3770
Ρωμαϊκή 3768
νοτιοδυτικά 3768
ελι@@ 3767
αποκ@@ 3760
μάν 3760
κατοικία 3759
συγκεντρ@@ 3759
Ελληνικού 3757
Γερ@@ 3756
δέ@@ 3756
Διετέλεσε 3755
Δημήτρης 3754
Αντ@@ 3753
Εταιρεία 3752
άτο 3752
τέρ@@ 3752
Ιστορικά 3751
αρχαι@@ 3751
κάποιον 3751
πεζ@@ 3750
τρα@@ 3750
ψη 3750
παίρνει 3749
περάσει 3748
ενώσεις 3746
ρόλους 3746
στικού 3746
βορειοδυτικά 3745
Ρωμαϊκής 3744
Μεγάλου 3743
εξαίρεση 3743
ισμοί 3742
Μπεν@@ 3740
δρο@@ 3740
ίσθηκε 3739
ακού 3739
κοιλάδα 3739
Δημοτικό 3737
στρ@@ 3737
ορ 3736
συνελήφθη 3736
εικόνες 3735
3η 3734
Μόσχας 3734
κανόνες 3733
μπλε 3733
προϊόντων 3733
ζόταν 3732
Ανακαλύφθηκε 3731
επιγραφή 3731
επιστημονική 3731
μι 3731
πιθανό 3728
Ζώνης 3726
ήν@@ 3726
μαλ@@ 3726
Ακόμη 3721
Νό@@ 3721
ατζ@@ 3721
συνοικία 3721
1921 3718
χρ@@ 3717
μπεργκ 3716
is 3715
M 3714
ροί 3714
σύ@@ 3713
προσθήκη 3712
Κρ@@ 3709
κόκκινο 3709
πλάτος 3705
Φερ@@ 3704
κυβερνήτης 3704
σκηνοθέτης 3704
κερδίζοντας 3701
Αργ@@ 3700
οντες 3700
Εκείνη 3699
Εξωτερικών 3699
Φλ@@ 3699
βασική 3698
κρατ@@ 3698
ταμ@@ 3697
ηττήθηκε 3696
παγκόσμιο 3694
Έν@@ 3690
όλ 3690
Βά@@ 3689
κυνηγ@@ 3687
μεγάλωσε 3687
τ.χλμ. 3686
Νυμφεύτηκε 3685
Ρού@@ 3685
λογοτεχνία 3685
χορηγ@@ 3685
αυτοκρατορίας 3684
θύ@@ 3682
Θεωρείται 3681
Μερ@@ 3681
Ν 3680
εύει 3680
γενιά 3679
ευρήματα 3679
Μεγάλο 3677
αντικαταστάθηκε 3676
εθνικές 3676
έρευνες 3675
ούρα 3675
b 3673
Επανάστασης 3672
Ουγγαρία 3672
λύση 3672
Σε@@ 3671
γένος 3671
εγκατέλειψε 3669
for 3667
δυτικό 3667
πωλήσεις 3666
Οίκου 3665
έληξε 3665
κανον@@ 3665
ργ@@ 3664
7@@ 3662
ακών 3662
ρόλος 3662
ντε@@ 3661
τεσσάρων 3660
τρο 3659
Αντίθετα 3658
ιω@@ 3658
μπουργκ 3655
Ηπείρου 3654
Ταρ@@ 3654
ητικές 3654
συνολική 3653
εζ@@ 3652
εύουν 3651
e 3650
ζήτημα 3649
ύφος 3649
00 3648
ανέβηκε 3648
Πειραιώς 3647
Σουηδία 3647
κάνοντας 3646
λαβ@@ 3645
τοπικές 3645
ογραφίας 3644
Άλλα 3638
ρούς 3638
Φρειδερίκος 3637
8@@ 3636
Ηλιακό 3635
κού@@ 3635
τομείς 3635
ωτικό 3634
έρας 3633
όντα 3631
ινό 3630
ς.@@ 3630
επεισόδια 3627
20ού 3625
Τι@@ 3624
κυπέλλου 3624
Εθνών 3623
επέτρεψε 3623
55 3620
συνέβη 3619
αποτελούσαν 3615
καταστράφηκε 3613
έθεσε 3612
ειδική 3612
ειρήνη 3612
κατάφεραν 3612
έδ@@ 3611
Έλ@@ 3610
Ανδρέας 3610
II 3609
μετάφραση 3609
τάν@@ 3609
διατηρεί 3608
παραδ@@ 3608
βιβλίων 3607
Παρόλο 3605
League 3604
λέξεις 3604
πήραν 3604
σύγκριση 3603
ίστ@@ 3602
πρότυπο 3602
Μπό@@ 3601
εθν@@ 3600
βορειοανατολικά 3598
κινηματογράφου 3597
Κυ@@ 3596
αίθουσα 3595
Ψ@@ 3593
απειλ@@ 3593
Βερολίνο 3592
Μιλ@@ 3592
λεκ@@ 3592
παρόλο 3592
Θάλασσα 3591
Λυ@@ 3591
ολοκλήρωσε 3591
δίνοντας 3589
φρά@@ 3588
παρουσιάστηκε 3585
φοβ@@ 3585
συνεργάστηκε 3584
απλώς 3583
βο 3583
μού 3581
ψήφων 3580
Σαξονίας 3579
ακής 3579
στόχος 3579
ητα 3577
συμπεριλαμβανομένης 3577
άτες 3575
κακ@@ 3575
γεννημένος 3574
παραγωγός 3574
ολόκληρο 3572
πεν@@ 3572
κης 3571
τροφ@@ 3571
αναφέρουν 3569
δυσ@@ 3569
εβδομάδα 3567
μενος 3567
T 3566
1910 3565
λευκό 3565
Κίνας 3564
αγγλική 3564
νοτιοανατολικά 3564
Βενετία 3563
ευρύτερη 3563
νοσοκομείο 3562
Διεθνούς 3561
αι 3561
ούρ@@ 3560
παπ@@ 3560
συνάρτηση 3559
38 3558
πέρασμα 3558
παιδιών 3558
εποχών 3557
καταλάβει 3557
ιακές 3554
πλανήτη 3554
ηλι@@ 3553
Records 3551
έλλ@@ 3551
αιτία 3551
επιβ@@ 3551
Καρλ 3549
άδη 3549
εξω@@ 3549
ξεν@@ 3549
ριμπάουντ 3549
ροκ 3547
υψ@@ 3547
9@@ 3546
μέρους 3546
ενέργειες 3545
αμερικανική 3544
Σουηδίας 3542
ΕΕ 3541
ισσ@@ 3541
συμμετοχής 3541
φωνή 3540
διοικητικά 3539
πρώτων 3539
Α.Ο. 3537
αυτοκίνητο 3537
εμπο@@ 3537
κάστρου 3537
δικα@@ 3536
κ. 3535
αίων 3534
ζώων 3533
Περιγραφή 3531
κρι@@ 3531
πρακτική 3531
08 3530
Αβ@@ 3530
ριος 3530
Μάικλ 3529
Αζ@@ 3528
ασφάλεια 3527
ισμένα 3526
ριζ@@ 3526
δαν@@ 3525
πρεμιέρα 3525
Οθωμανική 3524
P 3523
άζονται 3521
άνοιξη 3521
ούλα 3520
ψουν 3520
όρων 3517
Τρί@@ 3516
πραγματοποιήθηκαν 3516
Μπέρ@@ 3515
τάση 3514
Ε. 3513
0,@@ 3512
γλωσσ@@ 3512
ιδε@@ 3511
έρν@@ 3510
ασαν 3508
ινο 3507
κε@@ 3506
Γεώργιο 3504
Καλιφόρνια 3504
γράψει 3504
Βιέννη 3503
εταιρία 3503
ξεκινά 3503
αγαπ@@ 3498
ερι@@ 3498
στρατ@@ 3498
Μεσ@@ 3497
αζαν 3497
Μουσ@@ 3496
πολιτισμού 3496
αποφοίτησε 3495
γκα@@ 3495
Παναγίας 3493
πιθανότητα 3492
τικότητα 3492
20@@ 3490
Δούκα 3490
ιές 3488
6@@ 3487
World 3487
di 3487
Άντζελες 3487
δημοσι@@ 3487
κατάλογο 3487
Ομ@@ 3486
Προσωπική 3486
καθήκοντα 3486
συνεργ@@ 3486
ωθούν 3486
αεροσκάφη 3484
παρο@@ 3484
σιν@@ 3484
ηγέτης 3483
κατείχε 3482
σοσιαλ@@ 3481
Δημ@@ 3480
ίπ@@ 3478
μπού@@ 3476
λοιπόν 3474
λέγοντας 3473
στίχους 3473
ατικό 3472
ήν 3471
διεύθυνση 3468
πολιτεία 3468
Πα@@ 3467
ισμούς 3467
Πέτρου 3466
Βενετίας 3465
τέταρτο 3465
τύ@@ 3464
ιστορίες 3462
στρατιωτικό 3462
όμιλο 3462
προσαρτήθηκε 3459
42 3458
Κατάλογος 3458
G 3457
συμπτώματα 3457
υλικού 3456
ότερους 3456
στρατιωτικές 3454
ψήφους 3454
νομίσματα 3453
ολογ@@ 3453
πράγματα 3452
τρίτος 3451
διέθετε 3449
Βουλγαρίας 3448
είδε 3448
τησαν 3448
Σ. 3445
ράς 3445
ϊ 3445
Θα 3444
μφ@@ 3443
αρίου 3442
σχετική 3441
Όλα 3440
Βασιλιάς 3440
Πάπας 3440
αρχίσει 3438
γραμματέας 3438
προηγουμένως 3438
ἐ@@ 3438
δει 3437
καλύτερο 3437
Αζερμπαϊτζάν 3436
Μεγάλης 3436
θει@@ 3436
Πάπα 3434
απευθείας 3434
απέχει 3433
ρυθμό 3432
φύλλα 3432
άτη 3431
ιαν@@ 3431
περιοδικά 3431
Διεθνής 3430
προστατευ@@ 3429
γον@@ 3427
ωνία 3425
Ιωσήφ 3424
αεροδρόμιο 3423
διακρίσεις 3423
BBC 3422
έστ@@ 3422
37 3420
Ή@@ 3420
οστ@@ 3419
ουντ 3419
single 3418
πολύ@@ 3418
2ο 3417
Γκλ@@ 3417
οργάνωσης 3417
πιστ@@ 3417
ζούσε 3416
ιταλική 3416
πον@@ 3416
150 3415
αντίπαλο 3414
μικ@@ 3412
ένιο 3411
προσωπική 3411
υδρ@@ 3411
1915 3410
4.@@ 3410
Καποδίστριας 3409
Περιφερειακή 3408
βάθος 3408
διακοσμ@@ 3407
κινήματος 3407
λαντ 3407
Ακολούθησε 3406
Ντέιβιντ 3406
διαφορετική 3406
αδελφού 3405
τελετή 3405
Τζάκσον 3403
Ουρ@@ 3402
κόστος 3402
δημιουργώντας 3401
εκατομμυρίων 3401
Σεβ@@ 3400
Ποδοσφαίρου 3399
μάζα 3399
μικρού 3399
τακ@@ 3399
τόπο 3399
αίματος 3398
καλύπτει 3397
γραφή 3396
ματικής 3396
λου@@ 3395
σταμάτησε 3395
τιμήθηκε 3394
um 3393
γκερ 3393
Κύριας 3391
ακ 3391
δημιουργ@@ 3391
περιοδικού 3391
τορ@@ 3391
νερά 3389
αντίτυπα 3388
ολοκλήρωση 3388
ισμα 3387
1908 3386
Δια@@ 3385
έξ@@ 3385
ανθρώπου 3385
δικαιωμάτων 3384
Ρουμανία 3383
Ρο@@ 3382
διαφορές 3382
ώσ@@ 3382
Συμμετείχε 3380
ηλεκτρο@@ 3380
ήλ@@ 3379
οικοδομ@@ 3378
φυλακ@@ 3378
διεξαγωγή 3377
σύνδεση 3377
πληροφοριών 3375
κράτησε 3374
έλι 3371
μου@@ 3370
συμβολ@@ 3370
αδέλφια 3369
Γερμανός 3368
άτης 3368
ελληνικών 3368
Ιερά 3367
Θεού 3366
διοικ@@ 3366
Γαλλική 3365
Πολυ@@ 3365
ασχολείται 3364
αρν@@ 3362
αναγνωρίστηκε 3361
όφσκι 3361
Ελένη 3360
Πρώτα 3359
όντων 3358
αριθμ@@ 3357
προσπαθεί 3356
ίωση 3355
χαρακτήρας 3355
επρόκειτο 3353
ερευνητές 3353
οδηγήσει 3353
ούμενη 3353
φυλή 3353
Τέχνης 3352
ρίζες 3352
συγκέντρωσε 3352
επόμενες 3351
ιδών 3351
ίσεις 3350
εύτηκε 3345
κλπ. 3345
ρές 3345
αερ@@ 3344
αρχών 3343
οριστικά 3343
Α1 3342
Νομ@@ 3342
ίτα 3341
αγάπη 3340
απώλειες 3340
βα@@ 3340
Τούρκοι 3339
μέρει 3339
ούμενο 3338
ρικό 3338
ρό 3338
καλλιεργ@@ 3337
Μυ@@ 3336
αίας 3335
αστυνομία 3335
δεύτερης 3335
ολογικής 3335
ουργ@@ 3335
στούν 3335
Πανελλήνιο 3334
προσφορά 3333
64 3332
φέρεται 3331
τζ 3330
διο 3328
διεθνές 3327
Μπορεί 3325
E 3324
όντας 3322
ασίας 3320
ίκα 3318
65 3316
συνεργασίας 3315
άμπ@@ 3313
πόλ@@ 3313
επιστήμη 3312
Μαγ@@ 3311
ελευθερία 3311
ουσες 3311
Πρόεδρο 3310
μονα@@ 3310
χρησιμοποιήθηκαν 3310
Μπά@@ 3309
Βασιλ@@ 3308
Εγ@@ 3308
βιτς 3308
χώ@@ 3308
* 3307
θάνατος 3307
ωλ@@ 3305
αγγλ. 3304
πο 3303
γενικές 3301
είτο 3299
τησε 3299
Πρωτο@@ 3298
άρης 3298
Ουκρανία 3296
μερ 3296
ψευδ@@ 3293
πάει 3292
μύ@@ 3290
ακός 3288
ρκ@@ 3288
άνει 3287
John 3285
ύψους 3285
περιγραφή 3282
Μεσσηνίας 3281
διαχείριση 3281
τοπικής 3281
δίκη 3280
στίβου 3280
διάκριση 3279
μός 3279
Π. 3278
αγωνιστεί 3277
ευση 3277
περιλάμβανε 3276
πρωταθλητής 3276
48 3275
συγκρούσεις 3274
σώματα 3274
άθ@@ 3273
δήμαρχος 3273
ειά 3273
νέους 3272
κόρες 3271
θέσεων 3269
s@@ 3268
αυτοκρατορία 3266
ιστικού 3266
πος 3266
βασιλεία 3265
απάντηση 3263
Κουρ@@ 3262
αφήνοντας 3261
Ολυμπιακός 3260
von 3259
σύνδεσμοι 3258
πίστη 3257
Πρόγραμμα 3256
βαθ@@ 3256
λαό 3256
ται 3256
Βερολίνου 3255
βράδυ 3255
νόμος 3255
όνου 3255
1916 3254
αρκετούς 3254
κων 3254
$ 3253
ίσματα 3253
πυρήνα 3253
απαγορ@@ 3252
ελληνικές 3252
ρισ@@ 3252
ανακάλυψη 3251
δίου 3251
μέθοδο 3249
Να@@ 3247
ζούσαν 3247
Z@@ 3246
βαθμολογία 3246
Ολλανδία 3245
περιουσία 3245
10@@ 3244
Καθ@@ 3244
εμπειρία 3244
μυθ@@ 3241
1ο 3240
? 3240
Τεχν@@ 3240
θεάτρου 3239
διπλό 3237
Κόρ@@ 3235
κατοικ@@ 3235
ονόματος 3235
Γιάννη 3234
κινηματογράφο 3233
ωμένος 3230
ζητήματα 3229
ποσότητα 3229
ενα@@ 3228
εσωτερική 3227
ριά 3226
φημ@@ 3226
αυλ@@ 3225
Εξωτερικοί 3224
ασθενείς 3224
ιπ@@ 3221
δημιουργήθηκαν 3220
επανα@@ 3220
τροπ@@ 3220
έρευνας 3218
παι@@ 3218
αστρονόμο 3217
επο@@ 3217
μό@@ 3217
Γκι@@ 3216
αστικό 3216
πράξεις 3216
ξεις 3213
ηματ@@ 3212
Γκρ@@ 3211
έφθασε 3211
αγοράς 3211
διάλυση 3209
πρωταθλήτρια 3209
Β. 3208
αγωνιζόταν 3208
ενότητας 3208
Νι@@ 3207
Τις 3206
τοί 3204
1905 3202
αμ 3202
Πολλά 3201
ιώ@@ 3201
ρες 3201
συναυλίες 3200
κομητεία 3199
πραγματική 3199
σημασίας 3197
άρθρα 3196
δημοτικό 3196
υπηρεσιών 3195
όροι 3195
Επί 3193
Θράκης 3192
ωμένες 3192
φω@@ 3191
γερ@@ 3189
φίλος 3189
18ου 3186
απαρ@@ 3186
απελευθερ@@ 3186
U@@ 3185
You 3185
ίτσα 3185
συνεχίζει 3185
Απόλλωνα 3184
οβιτς 3183
ομίλου 3183
Απέχει 3182
μόνον 3182
προέλευση 3182
φορντ 3180
όνιο 3180
ΕΣΣΔ 3179
Ουκρανίας 3179
Διοικητικά 3178
αστικά 3178
γνώση 3178
εκτίμηση 3178
ήσεως 3177
αίμα 3177
ανακηρύχθηκε 3176
κινητήρα 3176
πραγματικά 3176
τησης 3175
Βασιλική 3174
βιβλίου 3174
επαγγελματική 3174
άλης 3173
Δημητρίου 3172
σαρ@@ 3172
ιακού 3170
ραφ@@ 3169
Μαργαρίτα 3168
αθλητής 3168
δέχεται 3168
μιο 3167
K 3166
φλ@@ 3165
ατικά 3164
κατοχής 3164
σχεδιασμό 3164
τραυματ@@ 3163
5.@@ 3162
Εργ@@ 3162
άι@@ 3162
ωνας 3162
διασ@@ 3161
οειδή 3161
ασθένεια 3160
σημαντικός 3160
τοποθετήθηκε 3160
ογράφος 3159
Βί@@ 3158
υγεία 3158
χρειάζεται 3158
Πορτογαλίας 3157
εργοστάσιο 3157
ουσι@@ 3157
λιγ@@ 3156
τόπος 3155
πατρι@@ 3154
Α2 3153
Κάρολο 3152
ιταλικά 3152
προϊόν 3151
Πατρών 3149
Καπ@@ 3147
λογία 3147
Ρι@@ 3145
στεγ@@ 3145
αρχηγό 3143
ευγενείς 3142
Γιουγκοσλαβίας 3140
προκαλέσει 3139
ομώνυμης 3137
ΚΚΕ 3133
ίκι 3133
γεωργία 3133
39 3132
Προσ@@ 3132
αντιμετώπισε 3131
Κ.@@ 3130
σήμα 3130
Οθωμανικής 3128
λαμβάνουν 3127
ρός 3126
Παρ 3125
ριες 3122
σπουδών 3122
Ο.@@ 3121
διαμερίσματα 3120
πολιτισμό 3120
Έκανε 3119
βάσεις 3119
εφαρμογές 3119
τοπικά 3119
Τα@@ 3118
γάμου 3116
ευσης 3116
44 3115
Πρώτη 3115
ηγέτες 3114
47 3113
συμβολή 3113
ισμών 3112
προτού 3112
υβ@@ 3112
οικισμοί 3111
Αστεροειδών 3110
Σκωτίας 3110
κοπ@@ 3108
Πολλές 3107
δικές 3107
πού 3107
Αλβανία 3106
ελεύθερη 3105
στενά 3104
οικονομικών 3102
δυναστείας 3101
ανατολικό 3100
συνδέονται 3100
g 3099
αρχαίο 3099
τραγουδίστρια 3099
ανακαλύφθηκε 3096
πρόσφυγες 3096
υπέρ@@ 3096
κώδικα 3094
εκείνης 3093
εμπορικό 3092
Ατ@@ 3091
κατέληξε 3091
φά@@ 3091
Συγκ@@ 3090
καταναλ@@ 3089
τάξεις 3088
τρέχουσα 3087
ωνική 3087
τελε@@ 3085
αρχεία 3084
διών 3084
παλιό 3084
δημοφιλής 3083
χειρο@@ 3082
f 3081
ρωσική 3081
λεγ@@ 3080
ποσό 3079
600 3078
ιον@@ 3078
ουά 3077
52 3076
λήξη 3076
όρισε 3075
Φραγκ@@ 3074
ήρ@@ 3074
θεωρ@@ 3074
παλάτι 3073
συνεχίσει 3073
δων 3072
πιστεύεται 3072
• 3072
πόν@@ 3070
άτ 3069
Ρομ@@ 3067
ιακής 3067
αναπ@@ 3066
οϊ@@ 3066
ήμ@@ 3064
αλλάξει 3064
τί 3064
επαγγελματίας 3063
συλλ@@ 3063
Αντί@@ 3062
βία 3062
κοινωνικής 3062
οικονομικής 3062
όνας 3061
χθηκε 3060
J@@ 3057
προγραμματ@@ 3057
1906 3055
ίρ@@ 3055
περιεχόμενο 3055
Ανάμεσα 3054
άτ@@ 3054
γραμ@@ 3054
δώδεκα 3054
Συνέλευση 3053
Μεσαίωνα 3052
κανονική 3052
εντ 3050
πάπα 3050
διαμάχη 3049
καθ 3049
κλη@@ 3049
νικητής 3049
πρότυπα 3049
κατανομή 3048
φυτά 3048
ησή 3047
συνθέτης 3046
ήσ@@ 3045
δύσκολο 3045
διατήρηση 3044
σιμο 3044
ινή 3043
οντάς 3043
ητικής 3042
μαύρο 3042
πη 3042
Ινδίας 3041
Ναός 3041
μων 3041
απέτυχε 3040
κατάστασης 3040
τηλε@@ 3039
επιχειρήσεων 3038
σχε@@ 3037
Ελβετία 3036
Πάτρα 3036
ανέπτυξε 3036
μέτωπο 3036
− 3036
αποσύρθηκε 3033
αρχίας 3032
δυνατό 3032
στες 3032
μπαλ@@ 3031
θέλει 3030
ρωσικά 3030
βραβ@@ 3029
align 3028
γενιάς 3028
Βοσνίας 3026
Λογ@@ 3025
Χα@@ 3025
αισθη@@ 3025
υψηλότερη 3025
ισχύει 3024
κυβερν@@ 3022
Μεγαλ@@ 3021
ίους 3021
λειτουργούν 3021
μπ 3021
τηθεί 3021
παντρευτεί 3020
αναγνω@@ 3019
πάρκο 3019
Ηρακλείου 3018
αριθμού 3018
λει@@ 3018
Γκρέ@@ 3017
οτήτων 3016
Μασ@@ 3015
δυνατή 3014
ψηφοφορία 3014
αντά@@ 3013
νι 3013
n@@ 3012
βρ@@ 3010
Τζορτζ 3008
διά 3008
αλι@@ 3007
αμφ@@ 3007
συνάντηση 3007
τακτική 3007
800 3006
αυξ@@ 3005
an 3003
εγκατάσταση 3003
ραν 3003
ωνίας 3003
διανο@@ 3002
μπάσκετ 3002
νου 3002
Τού@@ 3001
41 2999
Ύ@@ 2999
θέα 2999
Music 2998
μεθυλ@@ 2998
αμά@@ 2997
θεωρεί 2997
πλατ@@ 2997
σού@@ 2997
γίνουν 2996
δημοσιογράφος 2996
τελείωσε 2995
κρε@@ 2994
πυροβολ@@ 2993
ανεξάρτητα 2992
εβιτς 2992
βουνά 2991
δικηγόρος 2991
όμενης 2991
Ηρακλή 2989
προκύπτει 2989
υπεύθυνος 2989
φθινόπωρο 2989
έγγραφα 2988
φύ@@ 2987
Τά@@ 2986
σχολ@@ 2986
Χάν@@ 2985
γνώμη 2983
επανάστασης 2983
ποδ@@ 2982
υπό@@ 2982
4η 2980
βασικά 2980
Άρης 2978
λαού 2978
πολιτών 2978
άγαλμα 2977
ετε 2977
τίου 2977
ίβ@@ 2976
αρχιτεκτονικής 2976
αίος 2975
λεπτό 2975
σοβαρά 2975
τείχη 2975
Σω@@ 2974
ετήσια 2974
καλλιέργεια 2974
μένει 2974
Κασ@@ 2973
όγκ@@ 2973
τήριο 2972
Νέ@@ 2970
δημοψήφισμα 2970
ενημερ@@ 2970
ζωγραφική 2968
σφαι@@ 2968
Κωνσταντίνο 2967
κοινωνίας 2967
Στέφανος 2966
Νορβηγία 2965
δρά@@ 2965
ξανα@@ 2964
πρωταγωνίστησε 2964
Disney 2963
Έρ@@ 2963
Χριστού 2962
διατ@@ 2962
Αλεξάνδρου 2961
άμ 2961
at 2960
Κατηγορίας 2960
δάση 2960
ολόγος 2960
Καλλι@@ 2959
τισμό 2959
όμενου 2959
1904 2958
ενς 2958
συλλογές 2958
Αναφέρεται 2957
Πορ@@ 2957
ούντα 2956
ρίες 2956
ωτική 2956
ανασ@@ 2955
διαστάσεις 2955
Κέ@@ 2954
ΠΑΟΚ 2954
είκοσι 2954
κρί@@ 2954
85 2953
βουνό 2953
χρονικά 2952
Windows 2951
ιον 2951
Τιμ@@ 2950
μοιάζει 2949
Κέν@@ 2948
τρόπους 2948
θεραπ@@ 2947
τισ@@ 2947
ωμ@@ 2947
1,@@ 2946
καφέ 2946
ς- 2946
συρ@@ 2945
βουλευτές 2942
Εάν 2940
ανθρώπινη 2940
διατήρησε 2937
Κάν@@ 2936
γκου@@ 2936
λογίας 2936
παρατηρούσε 2936
ειακό 2935
Γεωργ@@ 2934
κίν@@ 2933
σινγκλ 2933
Ιαπωνίας 2932
αίσθηση 2932
αεροσκάφος 2932
νερ 2932
κύριες 2931
Ηλείας 2930
άλας 2929
βελ@@ 2929
θεωρούν 2929
εξαρτάται 2928
προήλθε 2928
φιλοξεν@@ 2928
ανεξάρτητη 2925
1911 2924
Τάγματος 2924
χρόνους 2923
αποσαφήνιση 2922
μονο@@ 2922
παρέμειναν 2921
Νο@@ 2919
ζυγ@@ 2919
95 2918
γωνία 2918
επομένως 2918
αντικατέστησε 2917
ασίστ 2917
κλίμακα 2916
προηγούμενο 2916
χολ@@ 2915
Συνήθως 2914
αριστερά 2914
ασφαλ@@ 2914
μέλλον 2914
ορο@@ 2914
Λά@@ 2913
Μεξικό 2913
παντρεμένος 2913
​ 2913
παρατ@@ 2912
h 2911
Τερ@@ 2910
DNA 2909
δεκ@@ 2908
δου@@ 2908
εκπαιδευ@@ 2907
Περσ@@ 2906
νεαρή 2906
ουμ 2906
04 2905
καταργήθηκε 2905
αντιμετωπίσει 2902
δημιούργησαν 2901
ιστορικοί 2901
σχεδίου 2901
Μιν@@ 2899
παίξει 2898
περιείχε 2898
αφιερ@@ 2896
κινήσεις 2896
πτήση 2896
συμπ@@ 2896
προχώρησε 2895
e@@ 2894
Βελ@@ 2894
ήττες 2893
διώ@@ 2893
λαμβάνοντας 2893
μεταγραφή 2893
συνα@@ 2893
όι 2893
Κέντρου 2892
ιου@@ 2892
γράμμα 2891
μει@@ 2891
σύγχρονο 2890
Ερρίκο 2889
δοθεί 2888
el 2887
ίκ 2887
ίμ 2887
λιθ@@ 2887
ραν@@ 2887
τεχνολογία 2887
ίμ@@ 2886
περιφέρειας 2886
οδού 2885
συμβουλίου 2885
1896 2882
Αιγαίου 2882
οποιήθηκε 2881
Αγι@@ 2880
στάδια 2880
ευρωπαϊκή 2878
ρή@@ 2878
Όλ@@ 2877
Ιράν 2877
σπουδ@@ 2877
ἀ@@ 2877
ιακών 2876
πτυχίο 2876
συνεχ@@ 2876
προβλ@@ 2875
επιτροπής 2874
τελ 2874
Οικονομικών 2873
Παναθηναϊκό 2872
Έχουν 2871
Σέρ@@ 2871
απλό 2870
07 2869
παραμονή 2869
c 2868
ασμό 2868
κατέχει 2868
λίμνης 2868
μείνει 2867
εφημερίδες 2865
1907 2864
ανδ@@ 2863
Έλαβε 2862
συστημάτων 2862
σύν@@ 2862
Χου@@ 2861
Παπανδρέου 2860
Φιλίππου 2860
43 2858
μετέφερε 2857
des 2855
Νέων 2855
Περίπου 2855
ατα 2855
μεταφοράς 2855
τροχ@@ 2854
αυξήθηκε 2853
ξαν 2853
παραγ@@ 2853
k 2852
name 2852
u 2852
δημοκρατία 2852
μπόρεσε 2852
ροή 2852
συνεχίστηκε 2851
2022 2850
Γεω@@ 2849
Δία 2847
Μάγ@@ 2847
τοπο@@ 2847
περιφέρειες 2846
ώνη 2846
αφορούν 2845
ατο@@ 2843
εύονται 2843
παραλία 2843
δικτύου 2842
μεθόδους 2842
ώτης 2842
μαθηματικά 2841
παράγοντας 2841
ημερών 2840
φοιτητές 2840
φρ@@ 2840
Βυζαντινή 2839
έκρηξη 2839
ίζονταν 2838
περιστρέφεται 2837
καθηγητή 2836
εξωτερική 2835
λόγια 2835
Ανατολής 2833
ευρωπαϊκές 2833
ώδεις 2833
Νέο 2832
διαπραγματεύσεις 2832
´ 2830
ΕΣ@@ 2830
έι@@ 2830
οποιοδήποτε 2830
σαλ@@ 2830
εκπρόσωπος 2829
αντιστοιχεί 2827
ατρ@@ 2827
δεξι@@ 2827
ατόμου 2826
εγκαταλείψει 2826
ροβ@@ 2826
υποστηρίζουν 2826
κυττάρων 2825
ανακάλυψε 2824
δημιουργεί 2824
ρον 2824
βοηθός 2823
ευτική 2823
πλοίων 2822
αύ@@ 2821
Αγίων 2820
ινών 2820
πλο@@ 2820
προσωρινά 2820
ιδρυτής 2819
κλει@@ 2819
πρωτοβουλία 2819
παραμείνει 2818
ρν@@ 2818
Άλλοι 2817
επιδρομές 2817
κρατών 2817
παρουσιάζουν 2817
άρων 2816
γραφείο 2816
άσθηκε 2814
Κιν@@ 2813
επιστήμονες 2813
πλη@@ 2813
σιος 2813
Αφγανιστάν 2811
άλια 2811
άρο 2811
γγ@@ 2810
διάταγμα 2810
ελα@@ 2810
εϊ 2810
ζα 2810
παρόμοιο 2810
υπόλοιπες 2810
46 2808
κύκλου 2808
μονής 2808
συγκέντρωση 2808
υποψηφιότητα 2808
γραφία 2807
εισήχθη 2807
20ου 2806
ασφαλείας 2806
όζ@@ 2804
Γεωργίας 2803
Χό@@ 2803
γυ@@ 2803
δημιουργηθεί 2803
διέ@@ 2802
ευνο@@ 2802
Εφ@@ 2801
φωτο@@ 2801
μάχ@@ 2800
συνόλου 2800
χρήστες 2800
Νορβηγίας 2799
ζονται 2799
μεταφέρθηκαν 2799
κυκλοφορίας 2798
Στίβου 2796
Σ.@@ 2795
ίος 2795
1909 2793
έβαλε 2793
δυναστεία 2793
Καζ@@ 2792
Χαν 2792
Ολλανδ@@ 2790
σχηματισμό 2790
Έκ@@ 2789
Αικατερίνη 2789
φυσικής 2786
Φρειδερίκου 2785
Τούρκων 2782
έρες 2782
αριθμούς 2782
αριθμών 2782
διαχει@@ 2782
ιλ 2782
τηλεοπτικό 2782
Κατόπιν 2781
Μπάρ@@ 2781
γραφής 2781
θερμοκρασίες 2781
Κάλ@@ 2780
π. 2780
Θεοτόκου 2779
ημένες 2779
X@@ 2778
άνε 2778
διοικητικό 2778
τύπους 2778
ακρο@@ 2777
ομώνυμη 2777
οπούλου 2777
σταθερ@@ 2777
1000 2776
17ου 2776
βασιλείς 2776
σχεδίων 2776
μπρ@@ 2775
Καλλ@@ 2774
Μέγας 2774
κυβερνήτη 2774
νούμερο 2774
τσο 2774
ανής 2773
αξίας 2773
βασικός 2773
όμενους 2773
εκτείνεται 2772
επιτέθηκε 2772
τίποτα 2771
Ολυμπιακού 2770
θεωρούσε 2770
λαϊκή 2770
δύναμης 2769
κοινοβούλιο 2769
μιν@@ 2769
Βολ@@ 2767
ακου@@ 2766
ικανοποι@@ 2766
χρόνος 2765
ασμού 2763
δυν@@ 2763
Ιβάν 2762
Φου@@ 2762
γραμματ@@ 2761
ξέσπασε 2761
τευ@@ 2761
υψηλότερο 2761
ξυλ@@ 2760
σταθερά 2760
φρου@@ 2760
Προέδρου 2759
άκα 2759
πλευ@@ 2759
άσα 2758
αση 2758
τραπεζ@@ 2758
πλοίου 2757
Αυτοί 2756
διοίκησης 2756
έντα 2755
αποφάσισαν 2755
αρχία 2754
ηθοποιό 2754
λόφο 2754
φυλές 2754
Στέ@@ 2753
μών 2753
U 2752
Περί 2752
διαφορετικό 2752
ησι@@ 2752
υψηλό 2752
δίνουν 2751
κυρι@@ 2751
r 2750
οικονομικές 2750
Αλέξανδρο 2749
Πηγές 2749
επιστρέφει 2749
ρασ@@ 2749
er 2747
Φορ@@ 2746
χλ@@ 2746
βαθιά 2744
ειδικότερα 2744
χρησιμοποιούσαν 2743
ητη 2741
στερε@@ 2741
άου 2740
ειδικό 2740
επιτυχημένη 2740
καμ@@ 2740
καταφύγιο 2740
Συρία 2739
ίτσ@@ 2738
επιπέδου 2738
κους 2738
Βαυαρίας 2737
Κέρκυρας 2737
ετή 2737
Παραγωγή 2736
άρχης 2736
εμφανίστηκαν 2736
έμφαση 2734
βολή 2734
ισπανικά 2734
φυλλ@@ 2734
εκτάσεις 2733
καλλιτέχνη 2733
σταθμού 2733
χημική 2733
Billboard 2732
καὶ 2732
Γρηγοριανό 2731
απομον@@ 2731
σκηνοθέτη 2731
ρωμαϊκή 2730
ρικ@@ 2729
όνες 2729
Μηχαν@@ 2728
έκλεισε 2728
σύνταγμα 2728
Αρμενίας 2727
συστ@@ 2727
Υπουργείου 2725
απλή 2723
λις 2723
ίκη 2722
56 2721
Μικρά 2719
Νομού 2719
εντά@@ 2719
κοινά 2718
έκφραση 2717
ίντ 2717
δρόμος 2716
Μόνο 2715
στικός 2715
τομ@@ 2715
τροχιά 2715
Βραζιλία 2714
μνημεία 2714
φύγει 2714
Μί@@ 2712
ΟΥΕΦΑ 2712
ιλι@@ 2712
χάσει 2712
δάσος 2711
ριακό 2710
βλ. 2709
νυμφεύτηκε 2709
προεδρικές 2708
Ντο@@ 2707
ανασκαφές 2707
Μπελ@@ 2706
έμαθε 2706
δεύτερου 2705
Φαρ@@ 2704
Κυριακή 2703
οντ@@ 2703
πρωί 2703
Γιαν 2702
καλλιτέχνης 2702
Ευρωπαϊκού 2701
Καμπ@@ 2701
ξεων 2701
style 2700
απογόνους 2700
δυνατόν 2700
χα 2700
en 2699
εφόσον 2699
ιάν@@ 2699
έρων 2698
δημιουργίας 2698
γκεν 2696
ούσ@@ 2696
σκοτώθηκαν 2696
επέλεξε 2695
κοιν@@ 2695
κόλπο 2695
λαχ@@ 2694
1.000 2693
εξακολουθεί 2693
καλές 2693
ανιχν@@ 2692
θεατών 2691
ματικού 2691
ατμόσφαιρα 2690
γενικός 2690
νησι@@ 2690
ακόλουθα 2689
ωνικό 2689
Θεόδωρος 2688
δικαστήριο 2687
51 2686
αποστολής 2686
επιθυμία 2686
ζωγραφ@@ 2686
Καζακστάν 2685
βελτίωση 2685
ζωγραφικής 2685
απαιτεί 2684
ώνος 2684
έτες 2683
ενεργά 2682
Πο@@ 2680
έλι@@ 2680
μες 2679
όνος 2679
αναστ@@ 2677
Ομάδα 2676
εφημερίδας 2676
γερμαν@@ 2675
σύντομη 2675
09 2674
Ηνωμένου 2674
Ψυχ@@ 2674
άνες 2674
αστικές 2672
στρατιωτικός 2672
αποτελούνταν 2671
δού@@ 2671
ωτή 2671
όνο 2671
υποθέσεις 2670
τραγουδιστής 2669
αποκατάσταση 2668
ειος 2668
επιφαν@@ 2668
i@@ 2667
ταξίδεψε 2667
Φ 2664
ασμένη 2664
παραδοσιακή 2664
Ρουμανίας 2663
διάδοχο 2663
καταστάσεις 2663
που@@ 2662
1897 2661
άρκ@@ 2661
ητικών 2661
λατινικά 2661
ήλιο 2660
αποτυχία 2660
όγκο 2660
φυλ@@ 2659
δηλ. 2658
ικος 2658
όβα 2658
συμφώνησε 2657
χη 2657
Πλοκή 2656
άμυνα 2652
ψεις 2652
αξιωματικός 2651
θρησκευτική 2651
πανεπιστημι@@ 2651
Ιησού 2649
Λύ@@ 2649
ισχυρό 2649
άλλου 2647
αρκετοί 2646
ειρήνης 2646
ποσότητες 2646
στοχ@@ 2646
τεκ@@ 2646
επεξεργασία 2645
κύκλος 2645
Παγ@@ 2644
γαλλικό 2644
Εβραίοι 2643
μή 2643
δημόσιο 2642
λάθος 2642
τετρ@@ 2642
γερμανικό 2641
χωρητικότητας 2641
54 2640
Παύλου 2640
κάν@@ 2640
καρδιά 2640
Υγείας 2639
βελτι@@ 2639
ιδιότητα 2639
κάρ@@ 2639
Βρετανίας 2638
Παύλος 2638
Προς 2638
κυκλοφορήσει 2638
αποφασ@@ 2637
Γουλιέλμου 2636
ιάν 2636
προβλημάτων 2635
υκ@@ 2635
ίλα 2634
Σικελίας 2633
αντίθετα 2633
κοινωνικές 2633
λου 2633
120 2632
ανατολ@@ 2632
μπο 2632
νόμισμα 2632
Λατ@@ 2631
πλευρό 2631
Μαυ@@ 2630
Πιο 2630
κάποτε 2629
συγκέντρωσης 2629
τύπων 2629
άμε@@ 2628
περιγράφεται 2627
Αυτοκράτορας 2626
επιλέχθηκε 2626
Γαλλικής 2625
Ρωσική 2625
τικότητας 2625
υδρογόνου 2625
CD 2624
έλη 2624
βασικές 2624
ιδιοκτησία 2624
μπλ@@ 2624
Πελοπόννησο 2623
διαλύθηκε 2623
κορυφαία 2623
κλασική 2622
Ενότητας 2619
σο 2617
συλλόγους 2617
ετς 2616
ματικών 2616
όσους 2616
ίσματος 2615
λειτουργίες 2615
πεντα@@ 2615
διάταξη 2614
κληρονομ@@ 2614
72 2613
παραδείγματα 2613
ματικός 2612
οργανισμούς 2612
σλαβ@@ 2612
υπόλοιπη 2612
χρωματ@@ 2612
Ευαγγελ@@ 2611
ούσα 2611
τέρματα 2611
απειλή 2610
ημερ@@ 2609
απέ@@ 2607
βλέπει 2607
π.Χ 2607
λόγ@@ 2606
παρατηρ@@ 2606
πους 2606
Κώστα 2605
αγορ@@ 2605
χου 2605
οξέος 2604
ΕΠΣ 2601
αμφι@@ 2601
Σαχ@@ 2600
ευσε 2599
ινά 2599
τισμός 2599
χρησιμοποιούνταν 2599
16ο 2598
πουλ@@ 2598
Ι. 2597
Λίν@@ 2597
Μο@@ 2597
Μπού@@ 2597
έτι 2597
ΚΑ@@ 2596
10.000 2595
άγκ@@ 2595
σιν 2595
εύσει 2594
πόλεως 2594
18ο 2593
Μολ@@ 2593
Συντάγματος 2593
κατάταξη 2593
εντα@@ 2592
6.@@ 2591
ανε 2591
ότου 2591
σελ@@ 2590
στόλο 2590
όνης 2590
ίνων 2589
ατικής 2589
1903 2588
σημ@@ 2588
όλε@@ 2587
Ναυτικού 2586
αντα@@ 2586
ασσ@@ 2586
χρησιμοποιήσει 2585
Εβραίων 2584
εκλέχθηκε 2584
χρησιμοποιούσε 2584
θους 2583
Βουργουνδίας 2582
γνωστ@@ 2582
ραδι@@ 2582
τελευταίου 2582
49 2580
Πόλη 2580
καλύτερες 2580
06 2578
Μπα@@ 2578
ενσωματ@@ 2578
καταφέρει 2578
πτ@@ 2578
σμα 2578
Ντί@@ 2577
αντιμετώπιση 2576
απαιτείται 2576
κλι@@ 2576
σβ@@ 2576
Γυναικών 2575
Ακόμα 2574
Μερικά 2574
Τομ@@ 2574
Αγκ@@ 2573
Τζι@@ 2571
πολιτείας 2571
Όμιλος 2570
Ολλανδίας 2570
Σαβοΐας 2569
εισήγαγε 2569
θου 2567
Φω@@ 2566
δέχθηκε 2566
κάποιοι 2565
είδ@@ 2564
κεν@@ 2564
ταξινομ@@ 2564
τορας 2564
Πελοποννήσου 2563
γραφεία 2563
δηλώνει 2563
εκτελε@@ 2563
ελάχιστα 2563
ia 2562
Υπερ@@ 2562
πολιτικού 2561
στρατευμάτων 2561
ηχογραφ@@ 2560
μαθητής 2560
παίκτη 2559
σκοπούς 2559
γενικότερα 2558
ονία 2557
εμφανιστεί 2556
Χατζ@@ 2555
υιοθε@@ 2555
μεταφέρει 2554
Πάν@@ 2553
Του 2553
πολιορκ@@ 2553
συστάθηκε 2553
Μητροπολίτης 2552
λειτουργ@@ 2552
ποιήματα 2552
ριστ@@ 2552
ΑΣ@@ 2551
αποτέλεσαν 2551
ικου 2551
λιά 2551
συμπερι@@ 2551
ωτών 2551
ούχο 2550
παραμένουν 2550
ροπ@@ 2549
Δημήτρη 2546
Μερικές 2546
βαθμ@@ 2546
καθιστώντας 2546
οβα 2546
εκθέσεις 2545
ητήριο 2545
μολ@@ 2545
πολεμ@@ 2545
σύντομο 2545
παροχή 2544
φόρο 2543
έτο 2542
βρίσκει 2542
πρόποδες 2542
διαχω@@ 2541
Ιωάννα 2540
επισκέπτες 2540
Τράπεζα 2539
Τσε@@ 2539
ενημέρωσης 2539
καλό 2538
υπολογιστή 2538
όλι@@ 2538
Κρί@@ 2537
συνέχισαν 2537
Υ 2536
δημοφιλές 2536
διοικητή 2536
ιων 2536
μέτρο 2536
Βέλγιο 2535
ουζ@@ 2535
σταθερή 2535
όχθη 2535
Μπέν@@ 2534
ήρθαν 2534
αντέ@@ 2534
εστι@@ 2534
τιδα 2534
αντιπροσωπεύει 2533
ντερ 2533
τηση 2533
λογοτεχνίας 2532
ώτη 2532
διαθέτουν 2530
μπά@@ 2530
24@@ 2529
Πον@@ 2529
Φρανς 2529
Ελληνίδα 2528
ηματική 2528
υγρό 2527
4ο 2526
αναπαρ@@ 2526
Ρέ@@ 2524
Ρωμαίοι 2524
δευ@@ 2524
εκατοντάδες 2524
12@@ 2523
Νου@@ 2523
πυκνότητα 2523
53 2522
5η 2522
Τσάμπιονς 2522
διδ@@ 2522
z 2521
Εμμανουήλ 2521
Υπό 2521
αστικής 2521
λίγους 2520
προβλήθηκε 2520
Σχ@@ 2519
βασιλικό 2519
μέσων 2519
μερικούς 2519
οργανώσεις 2519
πεδίου 2519
Γερμανών 2517
Ελ 2517
τζι 2517
1878 2516
57 2516
άρχη 2516
σημερινής 2516
αντιπρόεδρος 2515
αρχι@@ 2515
Δημοτική 2514
Πάτρας 2514
φανέλα 2514
Οικ@@ 2511
Χρήστος 2511
αναφέρθηκε 2511
Χορ@@ 2510
άβα 2510
πεθάνει 2510
άνδρα 2509
ακρίβεια 2509
πλαγιές 2509
σύγχρονης 2509
φράση 2509
άξονα 2508
άρχ@@ 2506
a@@ 2504
Διεθνή 2504
Κρι@@ 2502
Ίν@@ 2501
Κί@@ 2501
Ναυτικό 2501
Πορτογαλία 2501
νομικά 2501
ποιν@@ 2501
Χέ@@ 2500
άκρη 2500
απογραφές 2500
ψαν 2500
TV 2499
ικαν@@ 2499
λια 2499
χαμηλή 2498
1890 2497
δικαι@@ 2497
πολιτικούς 2497
Δανία 2496
ΙΙ 2496
ιό 2496
πίστευε 2496
Βάρ@@ 2495
Σύλλογος 2495
επώνυμο 2495
ονίας 2495
Λό@@ 2494
J 2493
έδινε 2493
58 2492
συνδέει 2492
Live 2491
σερ@@ 2491
88 2490
x@@ 2490
θεωρηθεί 2490
πραξικόπημα 2487
χρονική 2487
λειτούργησε 2486
αίοι 2485
βάλει 2485
υποστηρικτές 2485
d@@ 2484
πραγματοποιείται 2484
στέλεχος 2484
δίδαξε 2483
επεκτάθηκε 2483
ποιητή 2483
βοηθ@@ 2481
κεφαλ@@ 2481
17ο 2480
αντίστοιχο 2480
τροφίμων 2480
Ναπολέοντα 2479
πριγκίπισσα 2479
Τε@@ 2478
εκλεγ@@ 2478
φυσικού 2478
χρονολογούνται 2478
μην@@ 2477
φρον@@ 2476
άγει 2475
δήμους 2474
Ζερ@@ 2473
Ορθόδοξη 2473
φα 2473
ωσή 2473
Λάρισας 2472
κάλεσε 2472
κανόνα 2472
κη@@ 2472
ρίζεται 2472
συνάντησε 2472
Γιου@@ 2470
αίνει 2470
2.000 2469
ογι@@ 2469
Αξι@@ 2468
επικράτησε 2468
σα@@ 2468
διαδικασίες 2467
πολέμους 2467
Τί@@ 2466
μεγάλους 2466
κ.λπ. 2465
Βορείου 2464
Πάρ@@ 2463
κες 2462
ότες 2462
επικράτεια 2461
τάν 2460
ανατολικής 2459
εύσεις 2459
πετρελαίου 2459
στρατηγό 2459
άριος 2458
δύσκολη 2458
ομιλ@@ 2458
φαρμακ@@ 2457
Άρτας 2456
ψευδώνυμο 2455
Λ 2454
Πίτερ 2454
ηγέτη 2454
κατάταξης 2453
κατανο@@ 2453
νας 2452
Αρκαδίας 2451
Ντε 2451
διεθνούς 2451
θύματα 2451
ιζε 2451
πολη 2451
Τάγμα 2450
ασμός 2450
Βιέννης 2449
καθόλου 2449
διδασκαλία 2447
σταματήσει 2447
Ρωσικής 2446
Γιουγκοσλαβία 2444
ανο@@ 2444
ιέ 2444
μετά@@ 2444
αντιπροσωπ@@ 2442
Αλεξάντερ 2441
Αψβούργων 2441
Παρόλα 2441
Χρυσή 2441
ερν@@ 2441
πρωτεύουσας 2440
ύλη 2440
λεπτομέρειες 2439
φάρμακα 2439
δείξει 2438
καθεστώτος 2438
ούμε 2438
ντεν 2437
Αρχαία 2436
Σερρών 2436
έδειξαν 2436
βάρους 2436
θο 2436
ούρ 2435
Μπουρ@@ 2434
επέμβαση 2434
προέκυψε 2434
5.000 2433
Κρη@@ 2433
ευρωπαϊκό 2433
ποιότητα 2433
δίνεται 2432
χή 2432
66 2431
Ιρλανδία 2431
Κέρκυρα 2431
μετάλλια 2431
αναλ@@ 2429
εύθηκε 2429
αίν@@ 2428
ριβ@@ 2428
χρησιμοποι@@ 2428
έρι@@ 2427
καταλήγει 2427
πρα@@ 2427
Black 2426
es 2426
Δικαστήριο 2426
Μαχ@@ 2426
αποικ@@ 2425
θεωρούνταν 2425
παραδόσεις 2425
Αλβανίας 2424
Πολ 2424
Σαβ@@ 2424
1899 2423
Αγ 2423
Ουκραν@@ 2423
παιδική 2422
ρεύμα 2422
φίλους 2422
16ου 2421
άρας 2421
βάλ@@ 2421
πολεμική 2421
αγωγ@@ 2420
ρευ@@ 2420
σχηματίζει 2420
φωτιά 2420
Κοινοβουλίου 2419
αναφοράς 2418
γενν 2418
ρεί 2418
τήρια 2418
πνεύμα 2417
ριου 2417
σχηματίζουν 2417
πιθανή 2416
συνεχή 2415
τηρίου 2415
αγόρασε 2414
15@@ 2413
Ρίτσαρντ 2413
αφορμή 2413
ποινή 2413
84 2412
International 2412
ητό 2412
καθιερώθηκε 2412
ορισμένων 2412
διεκδικ@@ 2411
τορ 2411
ήλθε 2410
Ηλι@@ 2409
ωνόταν 2409
Ίδρυμα 2408
Μόν@@ 2408
άνοιγμα 2408
ίκης 2407
ζημιές 2406
θαν@@ 2405
κέρδισαν 2405
ίδου 2404
καιρούς 2404
απόπειρα 2403
βορ@@ 2403
οχώρι 2403
χρω@@ 2402
Man 2401
SS 2401
Αραγωνίας 2401
Οθωμανούς 2401
ήθ@@ 2401
Αγώνων 2400
Κρε@@ 2400
δραματική 2400
πιθαν@@ 2400
άσεων 2399
εκτιμ@@ 2398
άται 2397
ιακός 2396
ομίλους 2396
τσε 2396
Πασά 2394
ιζόταν 2394
λή@@ 2394
ακολουθούν 2393
δολοφονήθηκε 2393
γαμ@@ 2392
Ζωή 2391
ένδειξη 2391
αποχώρηση 2391
εκπομπές 2391
68 2390
Η.Π.Α. 2390
αποστολές 2389
αρχαίων 2389
αρχείο 2389
βαν 2389
προτάσεις 2388
Γενικός 2386
άντες 2386
γενν@@ 2386
παρέχουν 2386
ρίζ@@ 2386
3ο 2385
αγνο@@ 2385
θή@@ 2385
Μέρ@@ 2384
αντάλλαγμα 2384
Αρι@@ 2383
ορεινό 2383
αρχος 2382
καλλιτεχνών 2382
ξεκινώντας 2382
σής 2382
τορα 2382
δοκιμ@@ 2381
προβολή 2381
67 2380
αποφάσεις 2380
χωρίζεται 2380
ανέρχεται 2379
Σέ@@ 2378
παραγωγ@@ 2378
σκότωσε 2378
ing 2377
Αλεξάνδρεια 2377
άου@@ 2377
ανούς 2377
αποδίδεται 2377
ταυτότητα 2377
ευρύ 2376
ισμένοι 2376
κινηματογραφική 2376
χαρακτηριστεί 2376
παραίτηση 2375
Σάντα 2374
αγώνισμα 2374
νόμους 2374
πολι@@ 2374
φτάνοντας 2374
05 2373
δασ@@ 2373
υποβιβάστηκε 2373
νεφ@@ 2372
πυρ@@ 2372
χάλκινο 2372
Βισ@@ 2371
γεωργ@@ 2371
δικής 2371
1870 2370
μελετητές 2370
der 2367
άχ 2367
καταστήματα 2367
Ρωμαίους 2366
μηχανή 2366
αρχιτέκτονα 2365
νευ@@ 2365
οδός 2365
πράσινο 2365
τραγουδιών 2365
στρατηγική 2364
σωματείο 2364
τήθηκε 2364
θεωρίας 2363
καταλ@@ 2362
σχολι@@ 2362
φάν@@ 2362
κρ@@ 2361
Ροδ@@ 2360
θεωρίες 2360
βρα@@ 2359
ταυ@@ 2359
όχθες 2359
k@@ 2358
λιος 2358
Μέγα 2357
όλι 2357
άκος 2356
βίας 2356
βιο@@ 2356
πρώιμη 2356
Α.Ε. 2355
οικονομίας 2355
τάφ@@ 2355
ησ@@ 2354
Φρ@@ 2352
άγνωστο 2352
ομιλία 2352
πληθυσμών 2352
υλικών 2352
83 2351
Μέν@@ 2351
Φέρ@@ 2351
Σταδιοδρομία 2350
αριστερό 2350
δάσκαλος 2350
πν@@ 2350
́ 2349
Δούκας 2349
pop 2348
Πρω@@ 2348
πηγ@@ 2348
Εξελέγη 2347
ίδρυσαν 2347
Γουίλιαμ 2346
Πατρι@@ 2346
ευθύνη 2346
ώνης 2346
1881 2345
άθλημα 2345
ατς 2345
βιν@@ 2345
ούχος 2345
Μόλις 2344
αλφάβητο 2344
αποκλείστηκε 2344
γέννηση 2344
κρά@@ 2344
62 2343
γνωρίζει 2343
δημοσιεύθηκε 2343
ελεύθερο 2343
ικες 2343
μορφής 2343
Πρώτος 2342
επέστρεψαν 2342
επανήλθε 2342
εμπορικά 2341
τεύ@@ 2341
Βλ@@ 2340
250 2339
ίλι 2339
κια 2339
προηγούμενες 2339
συναυλία 2339
Μερικοί 2338
θητείας 2338
κιθάρα 2338
προκαλώντας 2338
Γνω@@ 2337
κάποιου 2337
περιβάλλοντος 2337
σωματεία 2337
Κλε@@ 2336
κτιρίου 2336
συμπέρασμα 2336
εργαζόταν 2335
ωνος 2334
81 2333
βυζαντινή 2333
ρούν 2333
χαρτο@@ 2333
ισχύος 2332
κάλυψη 2332
τιν 2332
καπν@@ 2331
πέρασαν 2331
τζα 2331
ωρι@@ 2330
διάρκειας 2329
ημέρας 2329
σεν@@ 2329
Μίλ@@ 2328
γερμανικής 2328
πελ@@ 2328
όπλων 2328
ήσουμε 2327
νά 2327
ονόμασε 2326
δυναμικό 2325
ώδους 2325
78 2324
υπεύθυνη 2324
θεμελι@@ 2323
καθολ@@ 2323
μίλια 2323
ίδρυμα 2322
φαντα@@ 2322
Μονής 2321
Παγκόσμιος 2321
τή@@ 2320
υνση 2320
υπολογιστών 2320
δερ@@ 2319
στό 2319
Βο@@ 2317
Λευκωσίας 2317
Μαδρίτης 2317
εκατό 2317
όλλ@@ 2317
Ντού@@ 2316
βρετανική 2316
βυθ@@ 2316
ποιότητας 2316
ενίσχυση 2315
καταδικάστηκε 2315
Γυμνάσιο 2314
θείο 2314
ογραφίες 2314
Όθωνα 2313
οντος 2313
προεδρία 2313
14@@ 2312
Λε 2312
άτι 2312
ιερέας 2312
τήσει 2312
1902 2311
ασμένο 2311
μικρότερα 2311
ΑΣ 2310
σκλη@@ 2309
απεικόνιση 2308
απονεμήθηκε 2308
μισθ@@ 2308
Αιτωλοακαρνανίας 2306
Κόμ@@ 2306
Υπηρέτησε 2306
ανεξαρτησίας 2305
γλωσσών 2305
έρχονται 2304
αμερικανικό 2304
φυσικές 2304
1880 2303
Y@@ 2303
αυξάνεται 2303
πάν@@ 2303
background 2302
δόθηκαν 2302
άνας 2301
αναζήτηση 2301
ευτικό 2301
οποιηθεί 2301
μπαν@@ 2299
ώτες 2299
Παι@@ 2298
δείγμα 2298
δημοφιλή 2298
προστασίας 2298
στρατηγού 2298
όπερα 2298
23@@ 2297
Χριστιαν@@ 2297
μπι@@ 2297
Σίτι 2296
διάμετρος 2296
ουσίες 2296
Κοιν@@ 2295
Λουδοβίκο 2295
μορφω@@ 2295
πετοσφαίρισης 2295
υπογραφή 2295
οβο 2294
παραδοσιακό 2294
Ηρακλής 2293
διήρκεσε 2293
μετατράπηκε 2293
πισ@@ 2293
ωματ@@ 2293
p@@ 2292
Πακιστάν 2292
Συνέδριο 2292
ae 2291
δομές 2291
κρο@@ 2291
Ισλάμ 2289
ολογικού 2289
Φι@@ 2288
μουσικά 2288
έρθει 2287
τυπο@@ 2287
χρησιμοποίησαν 2287
Παναγιώτης 2286
Τέ@@ 2286
έκτη 2286
κλίμακας 2286
ισο@@ 2285
ραδιο@@ 2285
στόλου 2285
ενι@@ 2284
ράν 2284
φυτών 2284
59 2283
αίνοντας 2283
ασχολούνται 2283
ιτ 2283
πύλη 2283
υψηλ@@ 2283
Γερμανική 2282
δημοτικά 2282
εκλογική 2282
μπορούμε 2282
σχολής 2282
Παναγία 2281
έργ@@ 2281
αστές 2281
κασ@@ 2281
χρη@@ 2281
μηχανική 2280
ορισμένοι 2280
61 2279
63 2279
z@@ 2279
ίχνη 2279
γενε@@ 2279
λάβ@@ 2279
ύς 2279
Αυστραλίας 2278
Παγκόσμια 2277
Συχνά 2277
ικώς 2277
νεκ@@ 2277
παράγουν 2277
προσπάθησαν 2277
εξέταση 2276
τροφή 2276
Ρωμαίων 2275
αγγλ@@ 2275
επιστήμες 2275
τσαρτ 2275
ίτιδα 2274
στρατιωτών 2274
Πολιτισμού 2273
Σμύρνης 2273
κατάλογος 2273
έπαιζε 2272
Έχοντας 2271
ανδρ@@ 2271
μακρ@@ 2271
φίλο 2271
1895 2270
Μέση 2270
αλλιώς 2270
βάρ@@ 2270
βρά@@ 2269
κοινωνικά 2269
οποίησε 2269
Φίλιππο 2268
έται 2268
βασιλικής 2268
y@@ 2267
Καπ 2267
διαρ@@ 2267
ιδίου 2267
ριακή 2267
Πήρε 2266
περιέγραψε 2266
1835 2265
δεχτεί 2265
προηγ@@ 2265
ΙΑ 2264
αποφασίζει 2264
ουδ@@ 2264
Ν.@@ 2263
δολαρίων 2263
εμβ@@ 2263
παλαιότερη 2263
παρουσιάζεται 2263
φάσμα 2263
Όλοι 2262
Ιταλός 2262
αποθηκ@@ 2262
τυπικά 2262
7.@@ 2261
Ειρήνη 2261
άζ 2261
πιν@@ 2261
ριακού 2261
σχέσεων 2261
Φρανκ 2260
ανία 2260
δηλώσει 2260
71 2258
αστέρες 2258
εργαστήριο 2258
θι@@ 2258
λεπ@@ 2258
στάλθηκε 2258
t@@ 2257
αερίου 2257
Ναυ@@ 2256
Σύντομα 2256
ικης 2256
ιτών 2256
μόνιμα 2256
παρουσι@@ 2256
αζόταν 2255
διαλυ@@ 2255
έσοδα 2254
εξελίχθηκε 2254
τροποποι@@ 2254
αντίληψη 2252
ειακή 2252
τύποι 2252
Ρε@@ 2251
ηρω@@ 2251
ικανότητες 2251
16@@ 2250
1@@ 2250
74 2250
αναγνώρισε 2249
δημοσιεύτηκε 2249
ιδιαίτερο 2249
νος 2249
υποστεί 2249
φυσικών 2249
Μω@@ 2248
ριση 2248
Λι 2247
Μαρκ 2247
εϊ@@ 2247
χοι 2247
700 2246
Βασίλης 2246
επίθεσης 2246
86 2245
ευρεία 2245
μητρ@@ 2245
αιν@@ 2244
πασ@@ 2244
τιμής 2244
Νά@@ 2243
Πετ@@ 2243
Συμ@@ 2243
αληθ@@ 2242
Ταυτόχρονα 2241
ανταλλαγή 2241
Σεν@@ 2240
κυβερνήσεις 2240
θέσει 2239
καταγόταν 2239
μηνών 2239
ακού@@ 2238
οικονομικό 2238
συλλογής 2238
ακολουθήσει 2237
ενμπεργκ 2236
ώνται 2236
… 2236
Εσ@@ 2235
αμμ@@ 2235
καθαρά 2235
προσώπου 2234
σώζονται 2234
χθεί 2234
Ντρ@@ 2233
01 2232
Πατριάρχης 2232
επιπτώσεις 2232
τάφο 2232
Καταλ@@ 2231
συντηρη@@ 2231
13@@ 2230
καρι@@ 2230
σημαντικότερα 2230
ύρας 2229
ΕΛ@@ 2228
δεδομένου 2228
πρεσβ@@ 2228
βιος 2227
θεατές 2227
ότερων 2227
03 2226
Βασίλισσα 2225
καθιερ@@ 2225
Love 2224
άσματα 2224
ναυ@@ 2224
ορκ@@ 2224
εντοπ@@ 2223
λεύ@@ 2223
μέσος 2223
εξορία 2222
ευτεί 2222
στρατιωτικών 2222
ωτό 2222
Le 2221
Μάρτιν 2221
επιστήμης 2221
οσκ@@ 2221
σχεδιάστηκε 2221
98 2220
διαιρείται 2220
δηλ@@ 2219
εκείνα 2219
κόσμος 2219
ανήκαν 2218
θων 2218
Αρμενία 2217
Διακ@@ 2217
δεσμούς 2217
Al@@ 2216
Αντιπροσώπων 2216
Ευρ@@ 2216
έκδοσης 2216
βήμα 2216
κλασ@@ 2216
μικρότερος 2216
τόνους 2216
ίσα 2215
απορροφ@@ 2215
θαλασσ@@ 2215
ομώνυμου 2215
πέμπτη 2214
ύλου 2214
color 2213
μερικοί 2213
as 2212
Ζω@@ 2212
πιάνο 2212
82 2211
δείγματα 2211
οργανισμός 2211
Αρχαι@@ 2210
ιστορικούς 2210
96 2209
αποφασίστηκε 2209
ειδικές 2209
εμφαν@@ 2209
συνέντευξη 2209
Νόμπελ 2208
προσαρτάται 2208
ρισης 2208
ειρην@@ 2207
εορτα@@ 2207
θρόνου 2207
ριας 2207
όψη 2207
Γαλλ@@ 2206
Καλών 2206
διάθεση 2206
πραγματ@@ 2206
σά@@ 2206
ωμάτων 2206
Γερμανό 2205
δουκάτο 2205
κλήθηκε 2205
ουσας 2205
φαρ@@ 2205
92 2204
v@@ 2204
Θάλασσας 2204
ισμένων 2204
λαός 2204
σοβαρές 2204
Σικελία 2203
κωμόπολη 2203
προσωπικά 2203
ρικά 2203
συμβεί 2203
Γάλλοι 2202
πάντως 2202
τύχη 2202
Χ. 2201
ιστοσελίδα 2201
κληρονομιά 2201
συνέδριο 2201
τεχνολογίας 2201
τσου@@ 2201
Rock 2200
Γιάν@@ 2200
Στρατ@@ 2200
γενικό 2200
Βάλ@@ 2199
Μεσόγειο 2199
Στρατό 2199
βήματα 2199
τεχνών 2199
No 2198
Σουηδ@@ 2198
βας 2198
σκοτώσει 2198
σωματ@@ 2198
αγωγή 2197
ποι 2197
26@@ 2196
κέντρου 2196
καθημερινή 2196
κανονικά 2196
τοιχογραφίες 2196
Ναό 2195
ατικές 2195
οπτική 2195
υπάρξει 2195
2,@@ 2194
βασισμένη 2194
λαμ@@ 2194
ογραφ@@ 2194
προέλευσης 2194
ρούσε 2194
ταφ@@ 2194
όνε 2194
Υπηρεσία 2193
έκτοτε 2193
αλο 2193
διεθνώς 2193
Άμυνας 2192
Ινδ@@ 2192
Σχολ@@ 2192
έλες 2192
αναλαμβάνει 2192
εδαφών 2192
οπαδούς 2192
αντα 2191
γυναίκας 2191
δισεκατομμύρια 2191
φωτογραφίες 2191
χρυσά 2191
γεγονότων 2190
κορυφ@@ 2190
3.000 2189
αποικία 2189
οιν@@ 2189
Ιράκ 2188
ένωσης 2188
Αδ@@ 2187
ανεξάρτητο 2187
έγγραφο 2186
ίδι 2186
κατασκευάστηκαν 2186
νεαρός 2186
συσκευές 2186
εθνικών 2185
οποιεί 2185
τοπικών 2185
ώνονταν 2185
1901 2184
73 2184
έμειναν 2184
ανοί 2184
93 2183
Πρωσίας 2182
βορρά 2182
ποίημα 2182
Πρωθυπουργός 2181
ήθελαν 2181
λόγου 2181
προφ@@ 2181
ώνιο 2181
5ο 2180
Σούπερ 2180
μάτι 2180
πες 2180
φρα@@ 2180
{ 2179
Σαιντ 2179
μπερτ 2179
τουρκικά 2179
δέντρα 2178
επίσημες 2178
συνεπώς 2178
γέν@@ 2177
ηδ@@ 2177
ούζ@@ 2177
τέν 2176
8.@@ 2175
αντζ@@ 2175
μί@@ 2175
τινγκ 2175
ήχου 2174
κίνησης 2174
πού@@ 2174
Τρα@@ 2173
Βραζιλίας 2172
Κροατίας 2172
εκείνες 2172
οργάνων 2172
Δράμας 2171
Εδώ 2171
κατάρρευση 2171
μάγ@@ 2171
σες 2171
συστατικά 2171
συχνότητα 2171
76 2170
Εβραίους 2170
απουσία 2170
ασπ@@ 2170
εξετά@@ 2170
ζή@@ 2170
ιδρύματα 2170
νέοι 2170
ξη@@ 2170
τελικός 2170
φο 2170
Κυπριακή 2169
Ουν@@ 2169
Χίου 2169
άγνωστη 2169
άσεως 2169
δημοφιλ@@ 2169
Top 2168
Λωρραίνης 2168
Μουσείου 2168
εως 2168
99 2167
Απόλλων 2167
παρακολούθησε 2167
Μπαν@@ 2166
αριθμοί 2166
πανεπιστημίου 2166
Δ.@@ 2165
συγγενείς 2165
τοποίηση 2165
τοποθεσίες 2165
ΠΑΣΟΚ 2164
θετική 2164
ρις 2164
υπολογίζεται 2164
69 2163
ητικού 2163
καρκίνο 2163
μεταβολές 2163
προτείνει 2163
Μεξικού 2162
Μό@@ 2162
τελει@@ 2162
σύλλογοι 2161
97 2160
Διοίκηση 2160
διαφορετικών 2160
ύρων 2160
στελέχη 2159
Μύ@@ 2158
Πρά@@ 2158
έχασαν 2158
αυτ@@ 2158
πυ@@ 2158
ωδ@@ 2158
όλος 2158
Σβ@@ 2157
θρησκευτικές 2157
εξασφαλίσει 2156
παραχώρησε 2156
ητες 2155
στρατιωτικής 2155
εισήλθε 2153
εκδήλωση 2153
πίεσης 2153
στενή 2153
συνόρων 2153
ύλ@@ 2153
Σεν 2152
θια 2152
διευθυντή 2150
μοναδικός 2150
πιστεύουν 2150
χρησιμοποιηθούν 2150
le 2149
μικρών 2149
87 2148
τρέ@@ 2148
φωτειν@@ 2148
Ρέν@@ 2147
αγωγής 2147
αναφερθεί 2147
απόλυτη 2147
τοποθετείται 2147
φύσης 2147
Γιόχαν 2146
Επαν@@ 2146
ίνσκι 2146
αρχής 2146
Me 2145
δολοφον@@ 2145
στέμμα 2145
Αλλ@@ 2144
Γάλλους 2144
μικρής 2144
30@@ 2143
6ο 2143
Χάρι 2143
μεθ@@ 2143
πολωνικά 2143
Βασιλικό 2142
Κοινότητας 2142
ισπανική 2142
ωτικά 2142
Όρ@@ 2141
σημει@@ 2141
μηχανικός 2140
πει 2140
ρή 2140
μέγιστο 2139
χήρα 2139
ιστορικές 2138
Λεβ@@ 2137
ΟΗΕ 2137
Παρασκευή 2137
Πασ@@ 2137
Χαρακτηριστικά 2137
άσι@@ 2137
ελευθερ@@ 2137
θέτει 2137
πόσο 2137
σταθμούς 2136
μετέ@@ 2135
Θεσσαλίας 2134
Σαμπ@@ 2134
ίχ@@ 2134
σφαίρα 2134
φέρ@@ 2134
Κρο@@ 2133
επικοινωνία 2133
Αγγλ@@ 2132
αστρο@@ 2132
Ζακ 2131
διαμόρφωση 2131
λειτουργούσε 2131
σμοί 2131
j@@ 2129
Αύγουστος 2129
διάσημο 2129
κεντρικής 2129
Ελληνικά 2128
Ρεάλ 2127
Σελ@@ 2127
επιτέθηκαν 2127
παλαιά 2127
Φρά@@ 2126
αποδείχθηκε 2126
συνθέσεις 2126
φορείς 2125
ωνικού 2125
άλλον 2124
άνθ@@ 2124
αίθουσες 2123
άλλοτε 2122
άστ@@ 2122
βό@@ 2122
ισμένες 2122
άντι 2121
δυσκολίες 2121
συνθέτη 2121
cm 2120
Όλες 2120
ρέει 2120
ψεων 2120
Εμ@@ 2119
Ιστορίας 2119
1898 2118
Θεός 2118
επικοινωνίας 2118
πολης 2118
συμπληρ@@ 2118
Αλέξανδρου 2117
γενικ@@ 2117
φωνητικά 2117
χειρ@@ 2117
Χι@@ 2116
νομική 2116
συνέβαλε 2115
ζήτησαν 2114
ποίησης 2114
πολέμησε 2114
ειδή 2113
Γενική 2112
άδια 2112
θεά 2112
κτίστηκε 2112
μεταβολ@@ 2112
παράγονται 2112
πης 2112
m@@ 2111
αποκαλ@@ 2111
ορισμένους 2111
παραλλαγές 2111
τόν@@ 2111
ήλθαν 2110
διακρίνονται 2110
Βελιγράδι 2109
οργανισμό 2109
οχή 2109
επίδοση 2108
επαγγελματικό 2108
τομή 2108
Εβρα@@ 2106
Ισαβέλλα 2106
απόδειξη 2106
εμπορίου 2106
άσης 2105
ανική 2105
ισμ@@ 2105
ντοκιμαντέρ 2105
ρικής 2105
σκάφος 2105
Θράκη 2104
αφήσει 2104
δέρμα 2104
ευε 2104
ϊκό 2104
b@@ 2103
όσοι 2103
αέριο 2102
αστή 2102
άμα 2101
φάσης 2101
ημένων 2100
ξένων 2100
77 2099
ανάγκασε 2099
νότο 2099
οργανισμού 2099
ΠΑ@@ 2098
Παναθηναϊκός 2098
δήλωση 2098
ενδείξεις 2098
υπηρε@@ 2098
Ιάκωβος 2097
Περιοχή 2097
αναπτύσσεται 2097
δευτερ@@ 2097
αμβ@@ 2096
απάντησε 2096
κοβιτς 2096
πληρω@@ 2096
79 2095
ιστο@@ 2095
ούμενοι 2095
ραδιοφ@@ 2095
σεβ@@ 2095
γένους 2094
μούς 2093
φιλοξενεί 2093
αγορές 2092
σύλληψη 2092
Γιού@@ 2091
σήμαινε 2091
σύμβολα 2091
εργαλεία 2090
Αναγέννηση 2089
εικ@@ 2089
ρίσ@@ 2089
συγκεκριμένες 2089
φαιν@@ 2089
All 2088
αποτελούνται 2088
επιγραφές 2088
προτάθηκε 2088
γραφική 2087
ρίζα 2087
όχου 2087
Βαρσοβίας 2086
Εθνικός 2086
γκι 2086
πλευράς 2086
πλησι@@ 2086
ποδοσφαιριστές 2086
αίτημα 2085
ίλι@@ 2084
νευρ@@ 2084
όρι 2084
Μικράς 2083
τηλεοπτικές 2083
ύσ@@ 2083
Γκέ@@ 2080
άφιξη 2080
ήχ@@ 2080
νωρίς 2080
υψηλές 2080
κί@@ 2079
φασματικός 2079
ώνου 2079
Δύση 2077
Χού@@ 2077
αντικειμένων 2076
κωμωδία 2076
λαν@@ 2076
λιου 2076
mm 2075
Μή@@ 2075
αλήθεια 2075
ογραφικό 2075
πλήρης 2075
ατών 2074
θετικές 2074
ξεχωριστή 2074
φυλής 2074
Nissan 2073
καφ@@ 2073
κιλά 2073
κύκλους 2073
ρεύ@@ 2073
δημοκρατίας 2072
εκστρατείας 2072
επικοινων@@ 2072
Ειδικότερα 2071
Τουρ@@ 2071
δευτερόλεπτα 2071
κατανάλωση 2071
σκο 2071
στικ@@ 2071
γαλλικής 2070
διάμετρο 2070
ινγκ@@ 2070
κατοικίες 2070
τισμού 2070
Λουί 2069
νύ@@ 2069
ωνι@@ 2068
εξοπλισμό 2066
Καλαθοσφαίρισης 2065
άσσ@@ 2065
ήχο 2065
αιγυπτι@@ 2065
εμφ@@ 2065
επιστημονικής 2065
θεατρικό 2065
περιορισμένη 2065
τάφηκε 2065
Άννας 2064
αραβικά 2064
ονομασίες 2064
πρωτ@@ 2064
Γιώργο 2063
Νορμανδίας 2063
Ιλ 2062
Σο@@ 2062
εισόδου 2062
ισσα 2062
ευγενών 2061
μπορ@@ 2061
φυσι@@ 2061
χρηματοδο@@ 2061
Α.Σ. 2060
Χανίων 2059
ένταση 2059
Αρκ@@ 2058
Νορβηγ@@ 2058
σκευ@@ 2058
συλλόγων 2057
σύνδρομο 2057
NGC 2056
ήρωα 2056
αυτοκίνητα 2056
ελί@@ 2056
καυ@@ 2056
παγκόσμιας 2056
αναλογία 2055
γει@@ 2055
θετικά 2055
οθε@@ 2055
άτων 2054
μακρά 2054
ονική 2054
πανεπιστήμια 2054
Times 2053
Θέ@@ 2053
ωμένοι 2053
Πληθυσμός 2052
Σώμα 2051
Τσαρλς 2051
στήρια 2051
στόλος 2051
Πί@@ 2050
ακριβής 2050
λατρεία 2050
μουσικός 2050
συζήτηση 2050
χρώματος 2050
Άραβες 2049
αφιερωμένο 2049
εξηγ@@ 2049
13ο 2048
Δούναβη 2048
δεκάδες 2048
πεπ@@ 2048
αρντ 2047
ευτικά 2047
ουρά 2047
στας 2047
ΕΛΑΣ 2046
κατέφυγε 2046
Αγγλικά 2045
Σμιθ 2045
Τελ@@ 2044
έρο 2044
αιμ@@ 2044
βιομηχανίας 2044
οποιήσει 2044
σκι@@ 2044
στράφηκε 2044
όμορφη 2044
Ar@@ 2043
c@@ 2043
αγρι@@ 2043
απεικονίζει 2043
επισ@@ 2043
παρατηρήσεις 2043
σοβαρή 2043
Βελγίου 2042
αντίστοιχη 2042
ολο@@ 2042
αρχαίος 2041
ζωντανά 2041
κατακτώντας 2041
τριβ@@ 2041
man 2040
Τουρκ@@ 2040
διατηρούσε 2040
επιρροές 2040
πλέι 2040
διν@@ 2038
g@@ 2037
κτηνοτροφία 2036
μενο 2036
NBA 2035
One 2035
ευαν 2035
μουσ@@ 2035
ρίστηκε 2035
ερω@@ 2034
or 2033
αντιπάλους 2033
κλάδο 2033
υφίσταται 2033
Μιλάνο 2032
αερο@@ 2032
λο@@ 2032
καθιστά 2030
μέγιστη 2028
Συρίας 2027
έμβλημα 2027
διαλ@@ 2027
ισχυρίστηκε 2027
W 2026
άσματος 2026
ξύλο 2026
σοφ@@ 2026
τετραγωνικά 2026
όρη 2026
1,5 2025
1889 2025
94 2025
Μητρόπολη 2025
ερή 2024
μικρότερες 2024
χωρητικότητα 2024
Βόρειο 2023
ατικών 2023
μενη 2023
Κυρι@@ 2022
Σκωτία 2022
αιρε@@ 2022
τουρκικό 2022
Έντουαρντ 2021
συμφων@@ 2021
υπόψη 2021
Έσσης 2020
εξειδικευ@@ 2020
επιβεβαι@@ 2020
παρατηρείται 2020
100.000 2019
Ώ@@ 2019
μοναχ@@ 2019
Αφρικαν@@ 2018
διατηρήσει 2018
επιστ@@ 2017
συγγραφή 2017
τάρ 2017
Παιδείας 2016
αρχαίου 2016
δεύ@@ 2016
μέτρηση 2016
στήλη 2016
28@@ 2015
αριθμούσε 2015
ιόν 2015
κοινωνικό 2015
παίζοντας 2015
βαριά 2014
Νάπολης 2013
αμυν@@ 2013
γιατρός 2013
ντο 2013
Πωλ 2012
μεταρρυθμίσεις 2012
ουκ 2012
αντικ@@ 2011
πάρα 2011
σκοπός 2011
Επέστρεψε 2010
διαδικασίας 2010
δοκ@@ 2010
Τζων 2009
αναλογ@@ 2009
παρουσίαση 2009
φυτό 2009
Εσωτερικών 2008
άσια 2008
ανθρώπινο 2008
βασιλ@@ 2008
διαφορετικούς 2008
στρατόπεδα 2008
άλμα 2007
αποκαλείται 2007
επισκέφθηκε 2007
μεγαλύτερους 2007
πλήρες 2007
λήψη 2006
σιμη 2006
Οίκος 2005
Οθωμαν@@ 2005
Υπ@@ 2005
σκηνοθε@@ 2005
E9E9E9 2004
ευθεί 2004
Εδουάρδος 2003
Πετρ@@ 2003
Σύνοδο 2003
άλου 2003
Όρος 2002
Πάνω 2002
εγγονός 2002
Ανδρών 2001
απέρριψε 2001
απε@@ 2001
ειακές 2001
ετησίως 2001
νων 2001
τιμών 2001
Λέων 2000
Σερ 2000
αστής 2000
χερσόνησο 2000
ορισμός 1999
προσκ@@ 1999
Ανήκει 1998
Ρόδου 1998
αρά 1998
θησαν 1998
ομένων 1998
Θάνατος 1997
τρού@@ 1997
επισημ@@ 1996
ηχογραφήσεις 1996
θεού 1996
ϊν@@ 1995
Ινστιτούτου 1994
δέν@@ 1994
νεαρό 1994
συνέλευση 1994
15ο 1993
Λεον@@ 1993
εργάτες 1993
καλείται 1993
πετύχει 1993
My 1992
Ον@@ 1992
έψει 1992
ντι@@ 1992
φυσικός 1992
Περιφέρειας 1991
ισχυρ@@ 1991
μπα@@ 1991
μπουρ@@ 1991
λλο 1990
ορισμό 1990
ουσιών 1990
αρχο 1989
δίσκους 1989
κήρυξε 1989
Ολυμπιακών 1988
Ρόλου 1988
αίες 1988
αργά 1988
ονόματι 1988
metal 1987
Αμέσως 1987
Λεμεσού 1987
αλλού 1987
διαδοχή 1987
σκέψη 1987
όμε@@ 1987
Μανουήλ 1986
ετα@@ 1986
δρα 1985
Αντώνιος 1984
Καστίλης 1984
Τραγουδιού 1984
εθνικά 1984
θεραπείας 1984
κλάδος 1984
πρωθυπουργού 1984
σπουδαι@@ 1984
Διοικητική 1983
κν@@ 1983
Μονάχου 1981
αναφερόταν 1981
αυτοκινήτων 1981
ητος 1981
Πρό@@ 1980
τώντας 1980
Εύ@@ 1979
ότερης 1979
Γ.Σ. 1978
αναπτυχθεί 1978
απαιτήσεις 1978
τάφος 1978
Αγρο@@ 1977
Βρετανική 1977
Σχέδιο 1977
ίνια 1977
διαθέ@@ 1977
σια 1977
Αργεντινή 1976
Δού@@ 1976
Κοζάνης 1976
εση 1976
κάποιους 1976
02 1975
Θεό 1975
Σοφ@@ 1975
σύγχρονες 1975
τηλεόρασης 1975
Αλε@@ 1974
άνγκ 1974
γύ@@ 1974
κρατική 1974
ναζ@@ 1974
ΟΣ 1973
Κορέα 1972
Φρανσουά 1972
ΑΕ 1971
σύσταση 1971
1830 1970
Επί@@ 1970
Πέτρο 1970
σιμα 1970
τικο 1970
2ου 1969
Θεάτρου 1969
Πέρ@@ 1969
αλλάζει 1969
ζοντας 1969
Πρίγκιπα 1968
άσκηση 1968
αντιπολίτευσης 1968
κς 1968
WWE 1967
Γι 1967
Κριμαίας 1967
γερμανικές 1967
επισήμως 1967
ολοκλήρου 1967
άκου 1966
αναλυ@@ 1966
Μαζ@@ 1965
Ποι@@ 1965
κατηγορ@@ 1965
παρ 1965
σις 1965
Γεωργία 1964
Ειρήνης 1964
εκτελέστηκε 1964
λογοτεχν@@ 1964
οκα@@ 1964
6η 1963
ίδιες 1963
ρων 1963
Εθνοσυνέλευση 1962
Τοποθεσία 1962
κωδικ@@ 1962
περιλαμβάνεται 1962
ρίδα 1962
1885 1961
III 1961
δυνατότητες 1961
χαρακτήρων 1961
Αγγελ@@ 1960
Γιανν@@ 1960
Ιαπ@@ 1960
διάγνωση 1960
διαφοροποι@@ 1960
Κίν@@ 1959
Πελ@@ 1959
εσης 1959
άκρα 1958
χρήστη 1958
Δημοκρατικό 1957
Επικ@@ 1957
άδος 1957
ακόλουθες 1957
Μεσογείου 1956
Νερ@@ 1956
αινε 1956
μέσου 1956
πάροδο 1956
προϊστο@@ 1956
συμφ@@ 1956
τοποθέτηση 1956
βασίζονται 1955
θεός 1955
οστά 1955
υπέ@@ 1955
ώσεως 1955
Κροατία 1954
αμερικαν@@ 1954
αποσπ@@ 1954
ειακά 1954
οθόνη 1954
ούμενα 1954
Γ.@@ 1953
διαγων@@ 1953
μάρ@@ 1953
Ντάν@@ 1952
αδελφ@@ 1952
Γερουσία 1951
Κράτους 1951
Ρί@@ 1951
Φώ@@ 1951
έλας 1951
κόντρα 1951
σκάφη 1951
ταξίδια 1951
Αθηναίων 1950
εκπομπής 1950
εξασφάλισε 1950
14ο 1949
Σφ@@ 1949
προσωρινή 1949
del 1948
γλυ@@ 1948
πληρ@@ 1948
Ναζί 1947
Πέρσες 1947
ηγήθηκε 1947
νεότερος 1947
προστέθηκε 1947
συνοδευ@@ 1947
τερματ@@ 1947
Ποδοσφαιρική 1946
δυτικής 1946
παί@@ 1946
Εξαιτίας 1945
Πρα@@ 1945
βος 1945
επεξ@@ 1945
91 1944
Βασίλειος 1944
εύτηκαν 1944
ραμ@@ 1944
da 1943
Μπί@@ 1943
ζεται 1943
ηκε 1943
προκαλούν 1943
τριάντα 1943
Καλύτερης 1942
Σπ@@ 1942
ζητήσει 1942
h@@ 1941
Ομίλου 1941
λατινική 1941
μειώθηκε 1941
περνάει 1941
σύνθεσης 1941
Saint 1940
Νεκ@@ 1940
δέντρο 1940
καθένα 1940
πει@@ 1940
μηδεν@@ 1938
νησιών 1938
1860 1937
άνους 1937
κατε@@ 1937
παρείχε 1937
τοποι@@ 1937
στοιχ@@ 1936
διαστάσεων 1935
υλι@@ 1935
Ο. 1934
μπει 1934
Ακολούθησαν 1933
Κλέ@@ 1933
17@@ 1932
Δυνάμεων 1932
Ειδ@@ 1932
Κίνημα 1932
Σύν@@ 1932
ανα 1932
Βυζαντινής 1931
Ουάσινγκτον 1931
ελε@@ 1931
λε 1930
σύγχρονα 1930
Αθανάσιος 1929
Μέτωπο 1929
ίνιο 1929
δοκιμές 1929
κινητήρες 1929
στασ@@ 1928
εξέγερσης 1927
τέλ 1927
καλλιτεχνική 1926
κρίθηκε 1926
ντα@@ 1926
89 1925
DVD 1925
Αριστ@@ 1925
δά@@ 1925
κακή 1925
παραμ@@ 1925
Άγγλος 1924
αντίπαλ@@ 1924
κενό 1924
κυκλοφορεί 1924
ήθη 1923
ίτ 1923
δίκτυα 1923
θείος 1923
Γενικό 1922
ΠΟ@@ 1922
στήριξη 1922
υπόλοιποι 1922
1848 1921
εκ. 1920
Star 1919
βιλ 1919
δωμάτιο 1919
πολιτιστική 1919
εκμεταλλ@@ 1918
Χάλ@@ 1917
άνθη 1917
γυναικεία 1917
χθηκαν 1917
γράφ@@ 1916
μόνιμη 1916
ρίδας 1916
άνδρας 1915
δρομ@@ 1915
κτήρια 1915
χρηματ@@ 1915
Δουκάτο 1914
Εποχή 1914
Πολύ@@ 1914
αγωνίσματα 1914
λίμνες 1914
γεωγραφικό 1913
συσκευή 1913
τίνα 1913
ΕΠ@@ 1912
ακολουθώντας 1912
καταλήφθηκε 1912
οί@@ 1912
συγκροτήματα 1912
0@@ 1911
Ύστερα 1911
βγήκε 1911
δελ@@ 1911
πρωθυπουργό 1911
χαμ 1911
ΐα 1910
Ιεράς 1910
ομίλων 1910
παρόν 1910
εδρεύει 1909
εργαστεί 1909
ρούχα 1909
συγχώνευση 1909
Χέρ@@ 1908
θεία 1907
μηχανές 1907
πεδία 1907
φιλόσοφος 1907
χρονιές 1907
York 1906
v 1906
Μπον@@ 1906
Οργανισμού 1906
γν@@ 1906
ιζαν 1906
λαβ 1906
πηγαίνει 1906
δημοσίευση 1905
υνε 1905
9.@@ 1904
Φραγκίσκος 1904
οδηγίες 1904
ποταμών 1904
χωρ@@ 1904
πνευ@@ 1903
υποψήφια 1903
φαντασίας 1903
27@@ 1902
Αποτελέσματα 1902
Μετ@@ 1902
υποστήριζε 1902
επωνυμία 1901
ηπ@@ 1901
τέχνες 1901
du 1900
Νικόλαο 1900
Παλάτι 1900
άσκησε 1900
μάζ@@ 1900
Χέν@@ 1899
διαμορφ@@ 1899
οξειδ@@ 1899
τιου 1899
φρουρά 1899
ύλης 1899
In 1898
l@@ 1898
Κιλκίς 1898
Μπορ@@ 1898
ία@@ 1898
δία 1898
εξετάσεις 1898
ιατρικής 1898
στηκαν 1898
Συνέχισε 1897
αλε@@ 1897
βολές 1897
βρήκαν 1897
εμφάνισή 1897
κομμουν@@ 1897
r@@ 1896
έλλειψης 1896
βασίστηκε 1896
οθ@@ 1896
συμπεριλήφθηκε 1896
όπη 1896
ίδος 1895
γράφεται 1895
θαλ@@ 1895
θείου 1895
στόχους 1895
Οικονομία 1894
ημιτελικό 1894
κατάργηση 1894
τρόφιμα 1894
Νήσων 1893
γυρίσματα 1893
διόρισε 1893
ινός 1893
κυριαρχίας 1893
μεγ@@ 1893
τόπου 1893
χές 1893
20.000 1892
Τους 1892
εκτοπ@@ 1892
έκτασης 1891
επηρε@@ 1891
μάζας 1891
πλείστον 1891
ΕΚ 1890
ζώνες 1890
κοινωνικών 1890
Παναγ@@ 1889
έλεγχος 1889
συνεργάτες 1889
Στάλιν 1888
ενδο@@ 1888
ριακές 1888
τέρμα 1888
υχ@@ 1888
Αντόνιο 1887
αίνουν 1887
εύοντας 1887
ζι@@ 1887
μετανάστες 1887
σημειώνοντας 1887
Τύ@@ 1886
αστούν 1886
αγροτική 1885
αδερφή 1885
πουλιά 1885
² 1884
Σικάγο 1884
βίλ 1884
καταστροφές 1884
περισσότερων 1884
American 1883
έξοδο 1883
διδακτορικό 1883
κολλ@@ 1883
συνορεύει 1883
ολογικών 1882
τερς 1882
διανομή 1881
επιχειρ@@ 1881
ωνίου 1881
Λάν@@ 1880
ειακού 1880
εκατοστά 1880
πρωτότυπο 1880
συνδέθηκε 1880
μήνυμα 1879
μού@@ 1879
Βόλου 1878
Σημ@@ 1878
δι 1878
ζητώντας 1878
πραγματοποιήσει 1878
Τρο@@ 1877
ανίας 1877
βες 1877
επηρέασε 1877
παιδ@@ 1877
σωμάτων 1877
τακτικά 1877
Time 1876
θεώρησε 1876
× 1875
Έρικ 1875
Ενω@@ 1875
ακαδημαϊκ@@ 1875
αποδ@@ 1875
ερευν@@ 1875
καθε@@ 1875
λεί 1875
οχήματα 1875
στίχοι 1875
φίλ@@ 1875
άσο 1874
διαγ@@ 1874
θλ@@ 1874
φάσεις 1874
γεν. 1873
Καβάλας 1872
Λίμνη 1872
Χρ@@ 1872
δικαίου 1872
ιστορικών 1872
Ρα@@ 1871
Σμύρνη 1871
σχηματίστηκε 1871
τραγουδιστή 1871
Ρ 1870
Ραμ@@ 1870
αιθ@@ 1870
ασθένειες 1870
εξίσωση 1870
πτυχ@@ 1870
σερβ@@ 1870
συντον@@ 1870
τέν@@ 1870
ar@@ 1869
Θεοδ@@ 1869
σιών 1869
άνοι 1868
αναπαραγωγής 1868
προσέφερε 1868
πότε 1868
Φινλανδία 1867
επιχειρηματ@@ 1867
μηχαν@@ 1867
ΑΟ 1866
Αλι@@ 1866
Πρώτο 1866
αντιμετωπ@@ 1866
επιβλ@@ 1866
νικώντας 1866
σμών 1866
σχεδιασμού 1866
Λιθουανίας 1865
Πατριάρχη 1865
μελε@@ 1865
πληθυσμούς 1865
πολωνική 1865
τερα 1865
Πό@@ 1864
κειμένου 1864
υπολογιστές 1864
όπλο 1864
ασμα 1863
ολόγων 1862
πλούσιο 1862
Ηλία 1861
κουν@@ 1861
ρε 1861
σώζεται 1861
Αραβ@@ 1860
επάγγελμα 1860
θεμάτων 1860
θεν@@ 1860
μηδέν 1860
Μπερν@@ 1859
αίτηση 1859
λαμπρ@@ 1859
φαινόμενα 1859
Παρα@@ 1858
ελαφρώς 1858
εμπορικές 1858
ενισχυ@@ 1858
μασ@@ 1858
προφανώς 1858
υιοθέτησε 1858
φιλοσοφίας 1858
el@@ 1857
επανεξελέγη 1857
σημερινού 1857
φαγ@@ 1857
1866 1856
Δήμαρχος 1856
ασίες 1856
δίκαιο 1856
εύς 1856
οικο@@ 1856
σημαντικότερο 1856
χρονολογ@@ 1856
Αιτωλ@@ 1855
Παναθηναϊκού 1855
κυπ@@ 1855
τάσεις 1855
υποψήφιοι 1855
Γκο@@ 1854
άχθηκε 1854
ζώνης 1854
κελ@@ 1854
Play 1853
αιναν 1853
μορ@@ 1853
νεκροταφείο 1853
πτήσεις 1853
1ου 1852
Πεν@@ 1852
αριστερή 1852
ενώσεων 1852
χιλι@@ 1852
δείτε 1851
εκλεγεί 1851
θαλάσσια 1851
φίλοι 1851
χαρακτηριστική 1851
Ιρλανδ@@ 1850
Πάρκο 1850
θεσης 1850
προσωπικότητα 1850
πωλ@@ 1850
συνεργάτης 1850
Παγκόσμιας 1849
Χένρι 1849
λεξ@@ 1849
λόφου 1849
σημαντικότερες 1849
Αί@@ 1848
Μόναχο 1848
στροφ@@ 1847
Βουρβόνων 1846
Μόρ@@ 1846
κόμ@@ 1846
ορίζει 1846
στρα@@ 1846
ότα 1846
It 1845
ΑΤ@@ 1845
Διατ@@ 1845
αδερφός 1845
συν 1845
Μάντσεστερ 1844
άσι 1844
στέφθηκε 1844
Ιρλανδίας 1842
Λαμπ@@ 1842
Περιφερειακής 1842
αδελφούς 1842
πάντοτε 1842
πειρα@@ 1842
ρια 1842
Έγραψε 1841
μουσικούς 1841
τάς 1841
φάρμακο 1841
1894 1840
Ναβ@@ 1840
Σταθμός 1840
διαλύ@@ 1840
παλαιότερο 1840
σχόλια 1840
διακοπή 1839
κατάλληλη 1839
πύργος 1839
ρυθμού 1839
επιστολές 1838
ηματο@@ 1838
τεράστιο 1838
Εισ@@ 1837
Χω@@ 1837
δυσκολ@@ 1837
κατανόηση 1837
σχηματίζοντας 1837
υποστηρίξει 1837
Συμφωνία 1836
εγκρίθηκε 1836
μνήμης 1836
συνέπειες 1836
τζο 1836
1879 1835
Αεροπορίας 1835
Αυλή 1835
Χίλ@@ 1835
εξαιρετική 1835
ροής 1835
στρο@@ 1835
τέτοιες 1835
τιά 1835
Οσ@@ 1834
Σερβ@@ 1834
Συλλόγου 1834
ιδιω@@ 1834
Γρηγόριος 1833
ένια 1833
καταρ@@ 1833
κλίση 1833
2,5 1832
Βέλ@@ 1832
Συγ@@ 1832
βάσης 1832
μεγαλύτερου 1832
μους 1832
ύτερο 1832
Αγωνίστηκε 1831
δισκ@@ 1831
πολλαπλ@@ 1831
προσωπικού 1831
ωνικές 1831
Δρά@@ 1830
Τηλε@@ 1830
λογισμικού 1830
12ο 1829
Γάλλο 1829
σερβικά 1829
γιορτή 1828
Παγκόσμιου 1827
βασισμένο 1827
σταϊν 1827
χτυπ@@ 1827
ψηλ@@ 1827
επιθετικός 1826
μόρφωση 1826
περ. 1826
πιστοποι@@ 1826
επιτρέπουν 1825
καλαθοσφαιριστής 1825
ράφ@@ 1825
σχηματίζεται 1825
τυφλ@@ 1825
καθυστερ@@ 1824
λεγόμενη 1824
μύθο 1824
πεδιάδα 1824
διοργανώθηκε 1823
κοι 1823
τέκνο 1823
In@@ 1822
βολής 1822
οργάνωσε 1822
χημικό 1822
Δυνάμεις 1821
Στρατός 1821
έντι 1821
διαν@@ 1821
καταλαμβάνει 1821
κρύ@@ 1821
παρέμβαση 1821
Λόρ@@ 1820
γίνονταν 1820
κατασκευές 1820
χαρντ 1820
15ου 1819
Κορέας 1819
αποικίες 1819
και@@ 1819
πρακτικές 1819
προερχ@@ 1819
De 1818
αλληλ@@ 1818
ανθρώπινης 1818
απεικονίζεται 1818
Εργάστηκε 1817
Τρεις 1817
παρουσιάζονται 1817
σιγά 1817
αναπτύξει 1816
αστικών 1816
επιχείρησης 1816
οδηγώντας 1816
παραλλαγή 1816
πολιτισμός 1816
ότητάς 1816
CE 1815
Στιούαρτ 1815
δό@@ 1815
κινδύνου 1815
κριτήρια 1815
ντελ 1815
οφόρα 1815
συνέ@@ 1815
τιση 1815
φου 1815
Πετρούπολη 1814
νωση 1814
παίρνοντας 1814
σχεδίασε 1814
Κάποια 1813
Λαϊκό 1813
αλλαγής 1813
διεξαγωγής 1813
μαθηματικών 1813
διαταραχή 1812
δραστηριότητας 1812
ολοκληρωθεί 1812
πρι@@ 1812
πρωτότοκος 1812
στρατηγ@@ 1812
χαρακτηρίστηκε 1812
2ος 1811
Ημέρα 1811
βέβαια 1811
δίπλωμα 1811
δωρεάν 1811
σκληρή 1811
φτωχ@@ 1811
νικ 1810
πέμπτο 1810
συνεργαστεί 1810
φυλακίστηκε 1810
όντ@@ 1810
Ch@@ 1809
Λιβ@@ 1809
ελεύθερος 1809
μετάδοση 1809
Σπάρτη 1808
ήματά 1808
ματς 1808
Γκραν 1807
Χουάν 1807
έντονο 1807
ανε@@ 1807
εκδοχές 1807
Ιστο@@ 1806
Πολων@@ 1806
κατοικούσαν 1806
Hot 1805
αναρ@@ 1805
ζεύγος 1805
νομοθεσία 1804
σεξουαλική 1804
ψυχή 1804
παίζουν 1803
τμημάτων 1803
ύτερη 1803
Βορρά 1802
αστικού 1802
λαμβάνεται 1802
Γκραντ 1801
Κρέ@@ 1801
Νότιο 1801
Χρον@@ 1801
άντρα 1801
απασχολ@@ 1801
διακυβέρνηση 1801
θερμοκρασίας 1801
οξυγόνο 1801
Ανθ@@ 1800
Ολ@@ 1800
δίδ@@ 1800
καλύτερος 1800
κορυφές 1800
πυρκαγιά 1800
Ηλίας 1799
γυμνάσιο 1799
κουλτούρα 1799
προορισμό 1799
σχήματος 1799
ωδία 1799
ιμο 1798
Μαρτ@@ 1797
Μονα@@ 1797
γαρ@@ 1797
κοιλι@@ 1797
σημειώθηκε 1797
ar 1796
Λουίζα 1796
ιμος 1796
ινού 1796
κεντρ@@ 1796
τραγ@@ 1796
Ιστορική 1795
Ουίλιαμ 1795
ετούς 1795
ληφθεί 1795
πάρ@@ 1795
Έλληνα 1794
Διαδ@@ 1794
κομμάτων 1794
μπαράζ 1794
σχολές 1794
} 1793
Αιγ@@ 1793
επίκεντρο 1793
τίθεται 1793
σχηματ@@ 1792
ταξι@@ 1792
Ξάνθης 1791
αποφ@@ 1791
διακρίνεται 1791
διαρκεί 1791
διαστήματα 1791
στά 1791
τίν 1791
Σατ@@ 1790
δίν@@ 1790
ευόταν 1790
ηλεκτρ@@ 1790
ημένης 1790
υποψηφιότητες 1790
Αμερικανική 1789
ηχογράφηση 1789
ιδιωτική 1789
περνά 1789
ΕΡ@@ 1788
ηθική 1788
χημικά 1788
χρηματοδότηση 1788
χώροι 1788
διού 1787
μοίρα 1787
νερ@@ 1787
νότιας 1787
οποιείται 1787
ταχύτητας 1787
φυγ@@ 1787
χαρακτηρίζονται 1787
χριστιαν@@ 1787
κυμαίνεται 1786
Αλβαν@@ 1785
ΕΡΤ 1785
αδερφό 1785
αντίστασης 1785
ετής 1785
κερδίζει 1785
μετέβη 1785
οξυγόνου 1785
συνταγ@@ 1785
ωκε@@ 1785
census 1784
διαπ@@ 1784
κατόρθωσε 1784
ορισμού 1784
σταυ@@ 1784
1892 1783
Γκάρ@@ 1783
απαραίτητη 1783
πνευματική 1783
School 1782
Σαρλ 1782
hous 1781
­ 1781
Αρά@@ 1781
Εύβοιας 1781
Σολ@@ 1781
γραφές 1781
κριτικούς 1781
τισε 1781
National 1780
επίσκεψη 1780
μοιρα@@ 1780
ξεκινάει 1780
πάπας 1779
www.statistics.gr 1778
Αξιοθέατα 1778
Πέρα 1778
γά@@ 1778
χυ@@ 1778
Νίκο 1777
Πλατ@@ 1777
άλβεδό 1777
έλθει 1777
ανάδειξη 1777
αναγκα@@ 1777
βη@@ 1777
όλια 1777
.Το 1776
άλε 1776
ίνει 1776
θεωρούσαν 1776
κίτρινο 1776
ρινή 1776
όνους 1776
Mar@@ 1775
Ονομασία 1775
οργανισμών 1775
περιεχομένου 1775
χειρουργ@@ 1775
Βρετανοί 1774
Ναζ@@ 1774
αγωνιστικές 1774
εύρος 1774
οχυρω@@ 1774
προσφύγων 1774
ψυχρ@@ 1774
Γουλιέλμο 1773
Δεύτερη 1773
αναρχ@@ 1773
διακρι@@ 1773
εθ 1773
πρωταγωνιστές 1773
ριακής 1773
βιομηχανική 1772
είσοδος 1772
εκτιμήσεις 1772
κυβέρνησε 1772
σταφ@@ 1772
έμ 1771
ανατολικές 1771
ολυμπιονίκης 1771
συνεχείς 1771
τέλους 1771
Σέλ@@ 1770
διπλωματ@@ 1770
ενδ@@ 1770
σος 1770
Μάρκο 1769
αρμον@@ 1768
μαρτυ@@ 1768
νών 1768
αρχιτέκτονας 1767
ουελ 1767
πληγ@@ 1767
Αλή 1766
επεξεργασίας 1766
ολόγο 1766
ποντας 1766
άλλης 1765
δημόσιες 1765
ταρ 1765
χο@@ 1765
χρυσού 1765
ύτερα 1765
αναγκάστηκαν 1764
διάδοση 1764
πιστεύει 1764
ΕΤ@@ 1763
γραμμ@@ 1763
διατηρήθηκε 1763
δραστηριοτήτων 1763
ρούσαν 1763
έλο 1762
κρέας 1762
φέρονται 1762
φυγή 1762
Δομ@@ 1761
Νίκαιας 1761
Χάιν@@ 1761
ρης 1761
τραγουδ@@ 1761
υποδηλώνει 1761
μετατροπή 1760
τωση 1760
Σοφίας 1759
ακτινοβολία 1759
αμιν@@ 1759
αρκετών 1759
διαγωνισμού 1759
φωτογραφ@@ 1759
Λαϊκή 1758
προσφέρουν 1758
στηρι@@ 1758
φυσ@@ 1758
ίδιοι 1757
ξενοδοχείο 1757
ούπολη 1757
χάρτη 1757
επίσκοπο 1756
μαύρη 1756
διαφέρουν 1755
ενδιαφέροντος 1755
θν@@ 1755
ξεχωριστά 1755
υποχρεω@@ 1755
Γενικού 1754
ολική 1754
ολοκληρω@@ 1754
ρομαν@@ 1754
Ιουδ@@ 1753
Πρωταθλητής 1753
αγρότες 1753
ημά 1753
αεροσκαφών 1752
βλάστηση 1752
δικού 1752
θηλυκά 1752
στέγ@@ 1752
διαφέρει 1751
εργασιών 1751
Ερζεγοβίνης 1750
Μάλ@@ 1750
απαραίτητα 1750
κατηγορού@@ 1750
Νιού@@ 1749
Πολύ 1749
Πρωτεύουσα 1749
περσ@@ 1749
σύγκ@@ 1749
τευσε 1749
φτάνουν 1749
γνωρίζουμε 1748
γνώσεις 1748
ρίζουν 1748
4ου 1747
Ήλιο 1747
Βιετνάμ 1747
Βοσνία 1747
μαζική 1747
παρασκευ@@ 1747
Μπακ@@ 1746
Τράπεζας 1746
αρσενικά 1746
προτιμ@@ 1746
id 1745
Ράιν@@ 1745
εσωτερικά 1745
οντο@@ 1745
σακ@@ 1745
στεφ@@ 1745
φαλ@@ 1745
1871 1744
Hall 1744
Συμβ@@ 1744
ακολουθία 1744
ανθρακ@@ 1744
αφηγ@@ 1744
θήκη 1744
σκην@@ 1744
Πρε@@ 1743
βασαν@@ 1743
γράφοντας 1743
διεξάγεται 1743
εκστρατείες 1743
Microsoft 1742
άρχου 1742
γα 1742
7ο 1741
αδελφοί 1741
4.000 1740
ίωσης 1740
σύνθετος 1740
Ευρω@@ 1739
Τορ@@ 1739
άλων 1739
διαχείρισης 1739
κατευθυν@@ 1739
απαραίτητο 1738
ευμένη 1738
κινείται 1738
τεται 1738
ωναν 1738
Νιου 1737
Πλά@@ 1737
κόλπου 1737
Κιέβου 1736
Τρε@@ 1736
Φυσικής 1736
δικούς 1736
μπάλα 1736
σετ 1736
τούνται 1736
ώρας 1736
ολι@@ 1735
περιφερειακής 1735
Μουσική 1734
αερίων 1734
κατάλληλο 1734
χλω@@ 1734
Θερινούς 1733
ΚΟ@@ 1733
ήτρια 1733
ασμένος 1733
λί 1733
Απολλ@@ 1732
άντο 1732
αμφισβη@@ 1732
ιδρυτικό 1732
κινουμένων 1732
κύμα 1732
μέθοδοι 1732
ρεαλ@@ 1732
σκόραρε 1732
συνεχεία 1732
χών 1732
Σταυροφορία 1731
ανακοίνωση 1731
ασφάλειας 1731
τηρ@@ 1731
τιμωρ@@ 1731
φαρμάκων 1731
Χατζη@@ 1730
πουν 1730
καλύ@@ 1729
κατηγορήθηκε 1729
ποσ@@ 1729
ρόλου 1729
Άμστερνταμ 1728
Βελιγραδίου 1728
Σίν@@ 1728
Σχολείο 1728
δράμα 1728
πολεμικές 1728
στροφή 1728
υση 1728
Μουσικής 1727
ειακών 1727
υπογράψει 1727
Αδελφ@@ 1726
δοξ@@ 1726
προκάλεσαν 1726
al@@ 1725
ισοπαλία 1725
παλι@@ 1725
ποια 1725
Βασιλικής 1724
Φύ@@ 1724
δημιουργείται 1724
μασε 1724
UNESCO 1723
Γιώργου 1723
αμε 1723
ημένου 1723
πλακ@@ 1723
συγκεντρώσει 1723
Μαυροβουνίου 1722
εκατομμύριο 1722
ομαλ@@ 1722
συμμαχ@@ 1722
χρήσεις 1722
ψάρια 1722
Ντελ@@ 1721
αξίες 1721
βοηθη@@ 1721
διαθέσιμο 1721
ινς 1721
πέν@@ 1721
πέφτει 1721
παλαιό 1721
14ου 1720
Γραμματέας 1720
αυξηθεί 1720
πλεονέκτημα 1720
σώ@@ 1720
τηρίων 1720
φωτογραφία 1720
on@@ 1719
Μολδαβίας 1719
Ρίο 1719
δίων 1719
κάτο@@ 1719
νησ@@ 1719
νικητές 1719
κυρία 1718
Κέρδισε 1717
εκτοξ@@ 1717
ισι 1717
τία 1717
έννοιες 1716
αντάρτες 1716
πλατφόρμα 1716
γων@@ 1715
εταιρίας 1715
παραιτηθεί 1715
Νί@@ 1714
Χαμ@@ 1714
έστερη 1714
διαφημ@@ 1714
ελκυ@@ 1714
εντρ@@ 1714
ιώτης 1714
μεταρρύθμιση 1714
ουσίας 1714
προσεγγ@@ 1714
ύπ@@ 1714
1893 1713
ήτης 1713
ενταχθεί 1713
ναυτικό 1713
νευρο@@ 1713
πτέρυγα 1713
1822 1712
Γάλλων 1712
αντλ@@ 1712
κάτοχος 1712
συζητήσεις 1712
ωμένων 1712
όου 1712
άρου 1711
1888 1710
απόκτηση 1710
ιώτη 1710
σί 1710
σταθερό 1710
ωτά 1710
CO@@ 1709
f@@ 1709
Βοημίας 1709
Βρα@@ 1709
Σομ@@ 1709
αί 1709
κάπως 1709
κέν@@ 1709
κυβ@@ 1709
πων 1709
φή 1709
Αιγάλεω 1708
ανταλλ@@ 1708
θεώρημα 1708
στόμα 1708
Πλατεία 1707
ερχ@@ 1707
ιτζ@@ 1707
ναι 1707
τελικούς 1707
χες 1707
χριστιανική 1707
Βίν@@ 1706
λογισμικό 1706
Όσον 1705
αποτελεσματική 1705
Φλωρεντία 1704
επιλογής 1704
κέρ@@ 1704
λέξης 1704
υποχρεώσεις 1704
χρε@@ 1704
Γύρω 1703
Λύκειο 1703
αρχαιότητας 1703
αστέρια 1703
βασίλισσας 1703
βρετανικό 1702
δισκογραφική 1702
πλά@@ 1702
εξελίξεις 1701
ισλαμ@@ 1701
Jean 1700
Super 1700
Δημοκρατικού 1700
άσκ@@ 1700
γραμμένο 1700
εξερευν@@ 1700
900 1699
Στάν@@ 1699
Τεν@@ 1699
ηδες 1699
σκα@@ 1699
ήρωας 1698
εγκατασταθεί 1698
μετανάστευση 1698
μπέ@@ 1698
ολόγ@@ 1698
παντρ@@ 1698
αποκτά 1697
γνώριζε 1697
θμ@@ 1697
καταφέρνει 1697
κρατήσει 1697
στηρίζεται 1697
ωνικά 1697
1884 1696
Γιουνάιτεντ 1696
Ράν@@ 1696
αθλητικό 1696
διοικητικές 1696
ποσοστά 1696
Ελβετίας 1695
Μωάμεθ 1695
ακριβ@@ 1695
επιδόσεις 1695
ηλικιω@@ 1695
ρικών 1695
ανικής 1694
μελέτης 1694
πεί@@ 1694
περ 1694
110 1693
7η 1693
van 1693
ΝΑΤΟ 1693
μπε 1693
Μίν@@ 1692
πολις 1692
σόλο 1692
Ανατολικό 1691
Ανζού 1691
ποιος 1691
χαμηλό 1691
Λευκ@@ 1690
έγραφε 1690
θρησκευτικό 1690
ικόν 1690
πραγματοποι@@ 1690
σοβιετική 1690
Σοσιαλ@@ 1689
Τό@@ 1689
διαταγή 1689
μοντέλου 1689
πόρων 1689
Μάρκος 1688
Μαξ 1688
Χόλσταϊν 1688
ίδρυσης 1688
σκοτ@@ 1688
άζονταν 1686
τευση 1686
τλ@@ 1686
or@@ 1685
Βιρτζίνια 1685
Γκον@@ 1685
άνοντας 1685
διοργάνωσε 1685
στείλει 1685
στρια 1685
στρώματα 1685
ένταξη 1684
διορ@@ 1684
σόου 1684
τίτλου 1684
Καίσαρα 1683
διάσημος 1683
κεντρικός 1683
πληθυσμοί 1683
υρο 1683
Βρ@@ 1682
Εθν@@ 1682
Λιμ@@ 1682
βάλλει 1682
νόμ@@ 1682
Αεροδρόμιο 1681
άμυνας 1681
ατικού 1681
εκάστοτε 1681
μετακιν@@ 1681
ναλ@@ 1681
ούκ 1681
υδρογόνο 1681
ανεβ@@ 1680
σχολείου 1680
Νέου 1679
Ρος 1679
λοβ@@ 1679
ποπ 1679
υπόλοιπους 1679
Ασι@@ 1678
γύρος 1678
επιστημονικά 1678
προωθ@@ 1678
συμφωνίας 1678
φιλελεύθερ@@ 1678
Αμερικανίδα 1677
οροσειρά 1677
τισης 1677
άδι 1676
αραβ@@ 1676
βουνού 1676
μείγμα 1676
συμπεριφοράς 1676
Ρώσοι 1675
εκτελ@@ 1675
μονάδων 1675
τραυματίστηκε 1675
φου@@ 1675
Λέσβου 1674
έγκριση 1674
απαγόρευση 1674
ογκ@@ 1674
παρότι 1674
τισσα 1674
University 1673
Υπόθεση 1673
δυναμική 1673
εθνικού 1673
ηκαν 1673
προσωπικότητες 1673
σημαντικότερους 1673
αστρονομ@@ 1672
βραβεύτηκε 1672
ελαφ@@ 1672
ηφ@@ 1672
κτισμένο 1672
παρόμοιες 1672
συνηθ@@ 1672
όβι@@ 1672
1ος 1671
έφσκι 1670
πρα 1670
διάσπαση 1669
κατασκεύασε 1669
λίου 1669
φοιτη@@ 1669
χε 1669
King 1668
εδρών 1668
νώ@@ 1668
στης 1668
Αποτελείται 1667
ευαίσθη@@ 1667
ια@@ 1667
μειωθεί 1667
μετονομ@@ 1667
μεταφορ@@ 1666
Κουν@@ 1665
Νίκου 1665
βόρειας 1665
δημοτικής 1665
επέ@@ 1665
οδηγούν 1665
ούλης 1665
σχετικές 1665
κυν@@ 1664
μοναχός 1664
πόρους 1664
ριακών 1664
ρικού 1664
Κοντά 1663
Φρανσίσκο 1663
ιερείς 1663
κουρ@@ 1663
λεν 1663
περισσότερη 1663
πρωταθλητή 1663
1867 1662
Citroën 1662
μένουν 1662
Οθωμανών 1661
Χρησιμ@@ 1661
ζήσει 1661
μεθαν@@ 1661
ταξινόμηση 1661
τημα 1661
Βιλ@@ 1660
Νταν@@ 1660
υπν@@ 1660
Αναγέννησης 1659
στηκε 1659
βγ@@ 1658
εξίσου 1658
κοντινή 1658
στρατιωτικά 1658
Λιθου@@ 1657
αρτη@@ 1657
βομβαρδι@@ 1657
κρίσης 1657
μαρτυρίες 1657
προέρχονταν 1657
FIFA 1656
Ηράκλειο 1656
Νικολ@@ 1656
Ντέιβις 1656
Στέφανο 1656
αποκλ@@ 1656
δυτικές 1656
φιλντ 1656
χημικών 1656
Ισπαν@@ 1655
Μπάν@@ 1655
ειν@@ 1655
ενμπουργκ 1655
25@@ 1654
Ζου@@ 1654
Καθολική 1654
γρ@@ 1654
πολεμικό 1654
φοίτησε 1654
θρησκευτικά 1653
ιππο@@ 1653
οποιούνται 1653
φυλακές 1652
1886 1651
Οδός 1651
Φερδινάνδος 1651
γραμμάτων 1651
ευτές 1651
ηλεκτρικό 1651
Βιογραφικό 1650
ίλλ@@ 1650
ίοι 1650
εγκεφαλ@@ 1650
ετήσιο 1650
νυν 1650
πόδι 1650
έλλα 1649
έφυγαν 1649
ανοιχ@@ 1649
τείνουν 1649
ύνει 1649
αστέρων 1648
ικο@@ 1648
κοινοτήτων 1648
περιστατικό 1648
na 1647
θεό 1647
ρεύματος 1647
όπο@@ 1647
όφωνο 1647
1891 1646
ανο 1646
βαφ@@ 1646
νεκρούς 1646
χαρακτη@@ 1646
Μαρκ@@ 1645
Τομ 1645
δάκ@@ 1645
εντολές 1645
ηνός 1645
νόσου 1645
πέναλτι 1645
ˈ@@ 1644
Χέρμαν 1644
ονικό 1644
τσας 1644
Ντό@@ 1643
ζι 1643
Εδουάρδου 1642
κάλ@@ 1642
καταγραφή 1642
παραπ@@ 1642
τυχαία 1642
θηλυκό 1641
ρικ 1641
στρά@@ 1641
τείχος 1641
ύπαρξης 1641
Club 1640
θρησκείας 1640
σκηνής 1640
ταλέντο 1640
χειρόγραφα 1640
εθ@@ 1639
θιο 1639
κοινων@@ 1639
κτη@@ 1639
κύματα 1639
οδηγ@@ 1639
ς@@ 1639
σπουδάσει 1639
υλο@@ 1639
11ο 1638
1500 1638
κλάδου 1638
προκρι@@ 1638
πώληση 1638
ξή 1637
προστά@@ 1637
en@@ 1636
Μπε@@ 1636
διακρίθηκε 1636
ηπειρωτική 1636
πέτρα 1636
ρίνη 1636
οπαδοί 1635
περιβαλλον@@ 1635
χημεία 1635
όκα 1635
1864 1634
επιθε@@ 1633
ημένοι 1633
κλειστό 1633
υπηρεσίας 1633
οριστεί 1632
αυξημένη 1631
εκφρά@@ 1631
Ούν@@ 1630
Σπουδών 1630
Τέξας 1630
εκείνους 1630
ισσας 1630
τοπίο 1630
Δικαιοσύνης 1629
Καστοριάς 1629
ατ 1629
αυστ@@ 1629
εικονογραφ@@ 1629
ονα 1629
προφορά 1629
χαμηλ@@ 1629
€ 1629
ch@@ 1628
Βαλκάνια 1628
Φα@@ 1628
ήσαν 1628
δώσουν 1628
ελεύθερα 1628
ονος 1628
χαρακτήρισε 1628
όξ@@ 1628
Τόσο 1627
γυμνα@@ 1627
εκτεταμένη 1627
κανάλια 1627
ίτσας 1626
οδο@@ 1626
ριστεί 1626
ψία 1626
1840 1625
Βορ@@ 1625
Μέλ@@ 1625
18@@ 1624
Δικα@@ 1624
Εντούτοις 1624
ίμων 1624
τοπία 1624
10.@@ 1623
άκο 1623
ετερ@@ 1623
καθένας 1623
κυνήγι 1623
ωγ@@ 1623
αντι 1622
αφορούσε 1622
γειτον@@ 1622
δηλώνοντας 1622
πείσει 1622
1850 1621
Metal 1621
Γραφείο 1621
διεξ@@ 1621
εθνο@@ 1621
Π.χ. 1620
Τζόουνς 1620
αϊκ@@ 1620
θορ@@ 1620
οθωμανική 1620
προετοιμασία 1620
προηγούμενα 1620
ραι@@ 1620
ίκο 1619
αδυναμία 1619
καθοδήγηση 1619
πέσει 1619
συναισθ@@ 1619
an@@ 1618
Δί@@ 1618
Φ.@@ 1618
αυθεν@@ 1618
επεκ@@ 1618
ισορροπία 1618
Paul 1617
Q@@ 1617
άσου 1617
πολιτείες 1617
σημειώνει 1617
αντικαθιστώντας 1616
αντικαταστήσει 1616
δημιουργούν 1616
διαπιστ@@ 1616
ευρύτερης 1616
μόρια 1616
φροντίδα 1616
Πάσχα 1615
Σταυρού 1615
ένοπλ@@ 1615
αναμέτρηση 1615
εδρ@@ 1615
ευτικές 1615
λης 1615
λό@@ 1615
πρωταγωνιστικό 1615
0,0@@ 1614
Δημήτριο 1614
ανέγερση 1614
λεγόμενο 1614
τοντας 1614
ώρ@@ 1614
ήσι@@ 1613
διοργαν@@ 1613
κίνδυνος 1613
κυκλο@@ 1613
ουραν@@ 1613
υψηλά 1613
22@@ 1612
εξοπλ@@ 1612
κεφάλαιο 1612
φι 1612
Μαντ@@ 1611
ίλη 1611
απαντά 1611
ασχοληθεί 1611
βιν 1611
κλε@@ 1611
ϋ 1611
Εκπαίδευση 1610
Ιταλική 1610
Σέν@@ 1610
θεσμ@@ 1610
κάθ@@ 1610
περιορ@@ 1610
ρής 1610
ιερέα 1609
ινές 1609
πέρας 1609
ρίδης 1609
σφαγή 1609
τερο 1609
ηθοποιούς 1608
πέθαναν 1607
τοιχ@@ 1607
Αλμπ@@ 1606
Λακ@@ 1606
έρια 1606
πηδ@@ 1606
1887 1605
Νομική 1605
Πινακοθήκη 1605
δημιουργήσουν 1605
καταστράφηκαν 1605
λείψανα 1605
προειδ@@ 1605
προσδι@@ 1605
χαμ@@ 1605
Ετυμολογία 1604
απαντάται 1604
κανένας 1604
ξία 1604
Αργεντινής 1603
Πρώ@@ 1603
άνεια 1603
συνδε@@ 1603
φεύγει 1603
Θ. 1602
ανγκ@@ 1602
Ήδη 1601
ατμ@@ 1601
ονες 1601
παράδοσης 1601
Βόλ@@ 1600
Γέν@@ 1600
εγκληματ@@ 1600
μοι@@ 1600
οδηγούσε 1600
συνταξι@@ 1600
ΑΝ@@ 1599
Φραντσέσκο 1599
γραφεί 1599
ισή 1599
νό 1599
ήγηση 1598
ακριβή 1598
θω@@ 1598
θεατρική 1597
ορχήστρα 1597
παχ@@ 1597
προστ@@ 1597
σιμες 1597
ed 1596
οζ@@ 1596
παρουσίας 1596
Y 1595
αδύνα@@ 1595
βιβλιοθήκης 1595
επέτρεπε 1595
κρασί 1595
James 1594
Τόκιο 1594
έτης 1594
μυστική 1594
ογλου 1594
προκρίθηκε 1594
1882 1593
one 1593
Λορ@@ 1593
άνουν 1593
τραβ@@ 1593
ότ 1593
Κυβέρνησης 1592
Μισ@@ 1592
Τζόνσον 1592
επιλεγ@@ 1592
κεντρικά 1592
μαγνη@@ 1592
οκομ@@ 1592
σημαντικούς 1592
τήρες 1592
φθάνει 1592
Studios 1591
διδάσκ@@ 1591
διος 1591
ενισχύ@@ 1591
επαναστάτες 1591
ισπαν@@ 1591
ροσ@@ 1591
τερματίζοντας 1591
φιλανθρωπ@@ 1591
Δεύτερο 1590
μέταλλα 1590
προγραμματισμού 1590
πρόσφατη 1590
συναντά 1590
τίων 1590
1833 1589
βάλλουν 1589
προνόμια 1589
χειρουργική 1589
χημ@@ 1589
Έκτοτε 1588
πολλαπλασι@@ 1588
www.@@ 1587
Πύργος 1587
Χερ@@ 1587
δηλώσεις 1587
εισβολής 1587
εξέ@@ 1587
επιφάνειας 1587
κλπ 1587
μυθιστορήματα 1587
παρατηρηθεί 1587
χτηκε 1587
Αττική 1586
Ελευθερ@@ 1586
ιδιοκτησίας 1586
τιζ@@ 1586
David 1585
in@@ 1585
αίους 1585
ανάκτορο 1585
αρμ@@ 1585
επιτρέποντας 1585
τελικώς 1585
13ου 1584
1883 1584
αξιώματα 1584
οροφή 1584
σκηνοθέτησε 1584
στε 1584
ωνικών 1584
Τμήματος 1583
βια 1583
Δημοκρατ@@ 1582
οδηγός 1582
ούπολης 1582
Παλαιά 1581
Τοπική 1581
γε@@ 1581
εξακολουθούν 1581
ναυτική 1581
right 1580
Γκέρ@@ 1580
Ιδρύματος 1580
Χώρα 1580
ηγεμόνα 1580
ινα 1580
κατσ@@ 1580
περιστ@@ 1580
χιον@@ 1580
William 1579
μητρο@@ 1579
Μάρκου 1578
ελαφρά 1578
μυθιστορήματος 1578
χωρι@@ 1578
Δικ@@ 1577
Μ.@@ 1577
ατομικό 1577
γυναικείο 1577
δεξί 1577
εγκατέλειψαν 1577
επισκοπή 1577
μπιν 1577
πρωτεΐνες 1577
29@@ 1576
Ζηλανδία 1576
Νόρ@@ 1576
βόρ@@ 1575
ονγκ 1575
στρω@@ 1575
συγχων@@ 1575
Πύλη 1574
Ρεπουμπλικαν@@ 1574
ανοιχτό 1574
αυτονομία 1574
διαταγές 1574
ολυμπ@@ 1574
παράλια 1574
ρίζει 1574
σπήλαιο 1574
τεθεί 1574
τησή 1574
όριζε 1574
Αποστολ@@ 1573
άνα@@ 1573
απεικον@@ 1573
Δεδομένου 1572
Μνημείο 1572
έλια 1572
δικαιοδοσία 1572
εξωτερικά 1572
ηλεκτρική 1572
κοκ@@ 1572
μιλ@@ 1572
Όσο 1571
Ανάπτυξης 1571
Ρον 1571
μεί 1571
υψηλού 1571
1,2 1570
Βέρ@@ 1570
γερμανικών 1570
ολογίες 1570
10ο 1569
FIBA 1569
αντισφαίρισης 1569
αποφύγει 1569
απρό@@ 1569
οίκο 1569
ολόγηση 1569
1828 1568
Πολωνοί 1568
συνδυασμός 1568
Πολι@@ 1567
κακό 1567
μεσαιωνική 1567
ξέσπασμα 1567
πραγμάτων 1567
συνεισφορά 1567
χώρων 1567
Βοιωτίας 1566
αποδοχή 1566
δημοκρατ@@ 1566
μιά 1566
ολοκληρώσει 1566
ύχ@@ 1566
Συνεπώς 1565
ανοιχτά 1565
βοσκ@@ 1565
δανεικός 1565
μειώνεται 1565
μμ@@ 1565
ντέ@@ 1565
ογραφική 1565
συνθηκών 1565
ταξ@@ 1565
ήρων 1564
βοηθήσουν 1564
ιμη 1564
περιφερ@@ 1564
os 1563
Παιδ@@ 1563
ένκο 1563
παρόντος 1563
χων 1563
όβια 1563
Χοσέ 1562
επιβεβαίωσε 1562
θεσμό 1562
ιδιωτικό 1562
καλύπτεται 1562
ΗΣ 1561
έψ@@ 1561
εγκλήματα 1561
κατέστρεψε 1561
Έργα 1560
αξιωματικούς 1560
αφιερωμένη 1560
χαλκού 1560
όφιλ@@ 1560
Γκαλ@@ 1559
Λευκωσία 1559
Σκοτ 1559
Χέλ@@ 1559
κατασκευαστεί 1559
κρέ@@ 1559
πλάκα 1559
σχεδιασμός 1559
τούνταν 1559
Κρατικό 1558
λέγ@@ 1558
μπαρ@@ 1558
πίστευαν 1558
πούλησε 1558
ωσ@@ 1558
ισμάτων 1557
συστατικό 1557
φορολογ@@ 1557
Αθηναίοι 1556
Ναρ@@ 1556
αστών 1556
κλί@@ 1556
νομοθε@@ 1556
οικία 1556
σχετικό 1556
τυπική 1556
φαγητό 1556
Μπασ@@ 1555
Παλλ@@ 1555
άση 1555
άτος 1555
ευεργ@@ 1555
τυλ@@ 1555
1834 1554
ka 1554
Έπαιξε 1554
Αποφοίτησε 1554
Τοπ@@ 1554
άγνωστος 1554
άλες 1554
έντονες 1554
ικοι 1554
κληρονόμησε 1554
κυτταρ@@ 1554
Αντώνης 1553
Πρεσβ@@ 1553
Φάση 1553
αγάλματα 1553
αγρο@@ 1553
αιτ@@ 1553
επιμέρους 1553
ορθόδοξ@@ 1553
πλήρωμα 1553
ωμένου 1553
Βα@@ 1552
Μιλάνου 1552
Υψηλ@@ 1552
ιδιοκτήτης 1552
1877 1551
Βρετανούς 1551
αστέρας 1551
γενή 1551
ιδρυτή 1551
παρήγαγε 1551
Κωνστ@@ 1550
κηδεία 1550
κόπ@@ 1550
ντου@@ 1550
ομολογ@@ 1550
παρόμοι@@ 1550
Κόλ@@ 1549
Μισέλ 1549
έκρινε 1549
αντικατάσταση 1549
βατ@@ 1549
λεψε 1549
Καρυ@@ 1548
Μαρι@@ 1548
Μπαρτσελόνα 1548
Τρικάλων 1548
είσ@@ 1548
ούνι 1548
ρεύματα 1548
ρισμού 1548
ψήφου 1548
Σκι@@ 1547
γεωγραφική 1547
ολογείται 1547
πύργο 1547
σιδήρου 1547
κοιμ@@ 1546
μαλλιά 1546
9ο 1545
Οχ@@ 1545
Πομ@@ 1545
γαλλικού 1545
ενήλικες 1545
υλο 1545
χτ@@ 1545
χωριών 1545
γεννημένη 1544
ζύ@@ 1544
υθ@@ 1544
όσι@@ 1544
Βικ@@ 1543
Ζι@@ 1543
προκαλείται 1543
σαφώς 1543
χής 1543
χρειαζόταν 1543
Διευθυντής 1542
Παρέμεινε 1542
ζητά 1542
μεταφρά@@ 1542
ντράμερ 1542
1815 1541
Ευρωλίγκα 1541
Μπρι@@ 1541
αιθαν@@ 1541
κλασικό 1541
Deep 1540
IV 1540
αθλήτρια 1540
ιανός 1540
νυχτερ@@ 1540
οσι@@ 1540
ρωσικό 1540
τοπικού 1540
διακόσμηση 1539
περιγράψει 1539
τσον 1539
ta 1538
Γουίν@@ 1538
Κομμουν@@ 1538
έκα@@ 1538
εποπτεία 1538
θεατρικά 1538
κόν@@ 1538
λιν@@ 1538
ναυπηγ@@ 1538
ούλη 1538
ότα@@ 1538
Όμιλο 1537
Αρν@@ 1537
Γκού@@ 1537
Καθολ@@ 1537
γυναικ@@ 1537
δολοφονίας 1537
ναούς 1537
Βόρ@@ 1536
Κάποιοι 1536
καταγράφηκε 1536
μάρ 1536
μόριο 1536
οργ@@ 1536
Επομένως 1535
τορες 1535
Μιχάλης 1534
έστειλαν 1534
ήγησης 1534
καταγραφεί 1534
έκα 1533
ανέθεσε 1533
ανακοιν@@ 1533
αρχικές 1533
μαθητών 1533
όμιλος 1533
ΚΑ 1532
άτσ@@ 1532
αρνήθηκαν 1532
ατύχημα 1532
ετοι@@ 1532
ξεχωριστό 1532
φθορο@@ 1532
ωθ@@ 1532
Όθων 1531
άο 1531
θύμα 1531
σοβαρ@@ 1531
χτισμένο 1531
εύσουν 1530
παραδόθηκε 1530
χάνοντας 1530
ότερου 1530
Αμερικανικό 1529
αδρ@@ 1529
αναφερ@@ 1529
διατηρείται 1529
μής 1529
ΝΒΑ 1528
ήρια 1528
γαλλ@@ 1528
γας 1528
συνθε@@ 1528
Κυκλοφόρησε 1527
Φαλ@@ 1527
ήμα 1527
διαδέχτηκε 1527
διαι@@ 1527
ομοσπονδία 1527
Χιλ@@ 1526
γκαρντ 1526
off 1525
Μανι@@ 1525
βιομηχανίες 1525
ιστορικού 1525
ομαδ@@ 1525
τέως 1525
όρες 1525
Φρειδερίκο 1524
άγρια 1524
αντιδρα@@ 1524
ερημ@@ 1524
θεν 1524
3ος 1523
Φραγκίσκου 1523
αρχαίους 1523
κειμένων 1523
Channel 1522
Κατσ@@ 1522
ίκας 1522
γραπτά 1522
εύρεση 1522
ιφ@@ 1522
κτιρίων 1522
Χαν@@ 1521
ρωση 1521
σιδηρο@@ 1521
τοποθετη@@ 1521
φεμιν@@ 1521
Cup 1520
Τζακ 1520
εξουσίες 1520
μοντ 1520
συνεπ@@ 1520
τελικού 1520
φη 1520
Life 1519
Χρησιμοποιείται 1519
αμυντικός 1519
αποδειχθεί 1519
ημιτελ@@ 1519
θησης 1519
ιταλικό 1519
καπ@@ 1519
προπον@@ 1519
μουσικών 1518
Ναπολέων 1517
ίση 1517
μεταβολή 1517
σημαντικ@@ 1517
τουριστ@@ 1517
000.000 1516
Awards 1516
Βαλκαν@@ 1516
ίσεων 1516
αδελφές 1516
γραφικά 1516
εκλέγεται 1516
πλέ@@ 1516
Ήπειρο 1515
Μέλη 1515
έθνος 1515
ίασε 1515
βου 1515
χαμηλής 1515
μπαρόκ 1514
ούμενες 1514
πραγματοποιηθεί 1514
χερσονήσου 1514
180 1513
άγνωστα 1513
λήμμα 1513
ρολογ@@ 1513
Κατοχής 1512
Πού@@ 1512
Πόντου 1512
ασμένα 1512
δήλωσαν 1512
ητικός 1512
προπαν@@ 1512
απέσπασε 1511
αστέρα 1511
γεύση 1511
δειν@@ 1511
μακρο@@ 1511
παρέδωσε 1511
αφαίρεση 1510
βέρ@@ 1510
εμφύλιο 1510
εξυπηρε@@ 1510
ιο@@ 1510
1861 1509
Βασίλη 1509
Εικ@@ 1509
ενιαίο 1509
ηχογραφήθηκε 1509
κρη@@ 1509
σεισμό 1509
1876 1508
Δυναστεία 1508
Ιούλιος 1508
Λέοντα 1508
Σάμου 1508
έρα@@ 1508
λατιν@@ 1508
φθηκαν 1508
ύρου 1508
αγγει@@ 1507
διεκδίκησε 1507
εφαρμογής 1507
κόρ@@ 1507
σημαντικών 1507
τιέ 1507
φιλία 1507
Έχ@@ 1506
Κάσ@@ 1506
Κούρ@@ 1506
Οθωμανοί 1506
ζέ 1506
καλύπτουν 1506
οφόρο 1506
ρίτης 1506
φυλάκιση 1506
ΑΕΠ 1505
Βρετανός 1505
Ελεύθερ@@ 1505
μπαχ 1505
ουα 1505
οχής 1505
φτερά 1505
φωσφ@@ 1505
έλης 1504
γεμ@@ 1504
εγκαθ@@ 1504
εκδ@@ 1504
πρά@@ 1504
όσες 1504
αΐ@@ 1503
σπι@@ 1503
Διαθέτει 1502
επιτυχ@@ 1502
κορίτσια 1502
ομοσπονδιακ@@ 1502
οργανισμοί 1502
ψηφίστηκε 1502
Βαν 1501
Ιακώβου 1501
ανάκ@@ 1501
αρο@@ 1501
δικών 1501
επιλογές 1501
Χονγκ 1500
μνημ@@ 1500
στρώμα 1500
6.000 1499
ina 1499
Αμβέρσα 1499
Πρωταθλήματα 1499
Συμμαχία 1499
ειακής 1499
μορι@@ 1499
νεκρών 1499
σαν@@ 1499
Βιν@@ 1498
Παραπομπές 1498
αλυσίδα 1498
ανθρώπινα 1498
διαταραχές 1498
εξωτερικού 1498
λευκ@@ 1498
μονομ@@ 1498
νομιμ@@ 1498
παράγοντα 1498
τέλεια 1498
er@@ 1497
επιζ@@ 1497
οικονομ@@ 1497
τήσουν 1497
διατυπ@@ 1496
καταγράφεται 1496
μικρ@@ 1496
χημικές 1496
ωφ 1496
αντιν@@ 1495
αρσενικό 1495
δέκατο 1495
επιβάτες 1495
ιδρύσει 1494
φορτίο 1494
ωτής 1494
Διακρίσεις 1493
ανησυχ@@ 1493
Γαλλικά 1492
Λατινική 1492
ελάχιστη 1492
νομός 1492
ούρι 1492
συγκεντρώσεις 1492
Αρχι@@ 1491
αρχηγού 1491
Άσ@@ 1490
Βενιζέλου 1490
Μαυρο@@ 1490
Πιερ 1490
ανόδου 1490
γρα@@ 1490
εικόνας 1490
τέθηκαν 1490
Εμπ@@ 1489
εκείνων 1489
καλύτερους 1489
μετάβαση 1489
ογραφικά 1489
προταθεί 1489
ρίνης 1489
χρονών 1489
1875 1488
8ο 1488
ήνων 1488
εγγυ@@ 1488
οχυρ@@ 1488
πληρώσει 1488
Βρεταν@@ 1487
Βρετανικό 1487
εναλλακτική 1487
επιστημών 1487
νεώ@@ 1487
πρωτοπο@@ 1487
φτερ@@ 1487
ωνικός 1487
Βαρσοβία 1486
Διαγωνισμό 1486
Ταξι@@ 1486
βασιλέων 1486
ιστορικής 1486
ουρανό 1486
συνοδεύ@@ 1486
υποψήφιο 1486
ωτές 1486
τόνων 1485
χρονη 1485
1863 1484
Car@@ 1484
Ανεξάρτη@@ 1484
αποκάλυψε 1484
βις 1484
ευγενής 1484
μετεγ@@ 1484
φύλο 1484
130 1483
Company 1483
Μπουλ@@ 1483
Ορισμένοι 1483
βορειοανατολική 1483
μαρ 1483
μεγαλύτερης 1483
πέτρες 1483
τεχνικής 1483
γαλλ. 1482
διαθέσιμα 1482
ειδικ@@ 1482
επαγγελματικά 1482
καλλιτεχν@@ 1482
σεξουαλ@@ 1482
College 1481
Επαρχίας 1481
Ομάδας 1481
Ταν@@ 1481
αξιοθέατα 1481
επαναλαμβαν@@ 1481
κληρονομιάς 1481
μορφών 1481
πληροφορία 1481
προχωρήσει 1481
τμ@@ 1481
Τύπου 1480
στενό 1480
φυλε@@ 1480
House 1479
Ορισμένες 1479
ήτες 1479
αιτι@@ 1479
δεύτερ@@ 1479
κοφ 1479
λατ@@ 1479
ρίζονταν 1479
ρωμαϊκής 1479
υπέγραψαν 1479
Κωνσταντινουπόλεως 1478
Ναού 1478
Ουλ@@ 1478
κοινο@@ 1478
πεζικού 1478
πλειονότητα 1478
υδρα@@ 1478
Λ. 1477
Μπάλ@@ 1477
Σλαβ@@ 1477
ίκων 1477
ζη@@ 1477
ινγκεν 1477
Δικαίου 1476
Νάπολη 1476
Οικονομ@@ 1476
Χόλ@@ 1476
απόκ@@ 1476
διάφοροι 1476
καλλιτεχνικό 1476
κορίτσι 1476
κρυσταλλ@@ 1476
λιβ@@ 1476
οχυρό 1476
ρυθμός 1476
Αμερικαν@@ 1475
ίστας 1475
διαδικτυ@@ 1475
διοργανώνει 1475
πολεμικά 1475
πράγματι 1475
ενσωματώθηκε 1474
ιδρυ@@ 1474
κυρ@@ 1474
κόμισσα 1474
πρωταθλημάτων 1474
συγγραφέων 1474
τεκμηρι@@ 1474
Δυ@@ 1473
Μεγ@@ 1473
Ξεν@@ 1473
ικων 1473
1868 1472
αφήνει 1472
σταση 1472
έσει 1471
πολυμερ@@ 1471
συστη@@ 1471
ωνικής 1471
1825 1470
Δε@@ 1470
Σκοπός 1470
άγιος 1470
επιχειρηματίας 1470
κρυπτο@@ 1470
συνένωση 1470
τικα 1470
ωτικού 1470
Αμμοχώστου 1469
Κλά@@ 1469
Κληρονομιάς 1469
αποτυπ@@ 1469
καθολική 1469
κλασσ@@ 1469
3,5 1468
Βρετανικής 1468
Κονγκ 1468
αρχίζουν 1468
περιβάλλεται 1468
προστέθηκαν 1468
Ανώτατο 1467
άρχες 1467
έγκλημα 1467
αντικειμεν@@ 1467
αϊκή 1467
εκμετάλλευση 1467
συναντήσει 1467
τελειώνει 1467
Θεσσαλία 1466
μεί@@ 1466
Re@@ 1465
ica 1465
ακμή 1465
εμφανίζει 1465
επιδ@@ 1465
επιδράσεις 1465
ευγεν@@ 1465
κανονικής 1465
λέξεων 1465
μεμον@@ 1465
Robert 1464
έξοδα 1464
αναπτύχθηκαν 1464
ασημένιο 1464
ινι@@ 1464
προκρίθηκαν 1464
υποστήριξης 1464
5ου 1463
Γαλλικό 1463
Τζέ@@ 1463
Φράγκων 1463
διατηρούν 1463
δωμάτια 1463
καταργ@@ 1463
ξένες 1463
Μπράουν 1462
αντες 1462
διάσημη 1462
ετική 1462
δομής 1461
απαι@@ 1460
βάν 1460
λιών 1460
νεότερη 1460
νεύ@@ 1460
πάρουν 1460
παράταση 1460
ράβ@@ 1460
Q 1459
Νομό 1459
εγκαινιάστηκε 1459
επιτρέπεται 1459
εταιρειών 1459
λεκάνη 1459
πρόθεση 1459
ρικές 1459
Πειρα@@ 1458
μπάντα 1458
τριπλ@@ 1458
φαι@@ 1458
Μαίρη 1457
αγν@@ 1457
Πολιτικής 1456
Χανς 1456
θέν 1456
λάδι 1456
Βαρκελώνης 1455
Μπάμπ@@ 1455
Σάρ@@ 1455
αυγά 1455
γοτθ@@ 1455
γραφίας 1455
δούκισσα 1455
μετακινήθηκε 1455
ονομάζονταν 1455
πτει 1455
`@@ 1454
Ομάδες 1454
έλεγε 1454
δρόμων 1454
καιρ@@ 1454
πύλες 1454
ρίδιο 1454
ώνυμα 1454
3ου 1453
Radio 1453
ΟΥ@@ 1453
αυξάνει 1453
ξένους 1453
Ρωμαίος 1452
ανάγκης 1452
διατριβή 1452
μεταβλ@@ 1452
ομπ@@ 1452
ποδοσφαιρικό 1452
Παπαδ@@ 1451
ανεκ@@ 1451
δεχθεί 1451
δραστηριοποιείται 1451
εισέβαλε 1451
ισθεί 1451
παραμονής 1451
Χωρίς 1450
βουν@@ 1450
εξέφρασε 1450
εργαστήρια 1450
εργοστάσια 1450
καλλιέργειες 1450
πλην 1450
έθ@@ 1449
καλύτερης 1449
κουζίνα 1449
πετ@@ 1449
στιγ@@ 1449
όπερας 1449
Αερ@@ 1448
Αρμεν@@ 1448
Μπρί@@ 1448
αισθητική 1448
αντίγραφο 1448
ηφαιστ@@ 1448
Χριστιανοί 1447
αντιπροσωπεύουν 1447
αρκετό 1447
βού@@ 1447
γόν@@ 1447
καταλάβουν 1447
πολιτιστικό 1447
σταθ@@ 1447
υιοθετήθηκε 1447
χειμερ@@ 1447
Μονακό 1446
Σλέσβιχ 1446
άγος 1446
ίαν 1446
ελαι@@ 1446
ενέκρινε 1446
λεγόταν 1446
οποιήθηκαν 1446
παιδιού 1446
Ισραηλ@@ 1445
Νορ@@ 1445
αναγ@@ 1445
αστυνομίας 1445
μητρική 1445
στήριο 1445
ότο 1445
am 1444
by 1444
Λεύ@@ 1444
άρει 1444
διατηρώντας 1444
εύματα 1444
ζωντανή 1444
θαμ@@ 1444
καμιά 1444
κυβερνη@@ 1444
ρισε 1444
Πόλης 1443
άντης 1443
έντεκα 1443
ελευθερίας 1443
ενθουσι@@ 1443
εσωτερικές 1443
Χριστ@@ 1442
απόσπασμα 1442
πλαν@@ 1442
τουρκ@@ 1442
Ελε@@ 1441
Τόμ@@ 1441
ίκια 1441
ασκεί 1441
επηρεάζει 1441
ζωγράφου 1441
θεση 1441
ισχυρίζεται 1441
μοιάζουν 1441
Πεζικού 1440
έζ 1440
επίδ@@ 1440
καταστολή 1440
Association 1439
Σιλ@@ 1439
Χασ@@ 1439
άλογα 1439
ανοσ@@ 1439
καρυ@@ 1439
μαζικής 1439
μαθαίνει 1439
συνορι@@ 1439
Αυτο@@ 1438
Πάντως 1438
Πρέ@@ 1438
Τρίτη 1438
άντη 1438
ανατροπή 1438
ανεμ@@ 1438
αρνητική 1438
είλει 1438
καταλαμβάνοντας 1438
μουσικές 1438
παρατήρηση 1438
συζητ@@ 1438
χίλια 1438
ωνυμ@@ 1438
Grand 1437
ΕΑ 1437
έιν 1437
δηλητηρι@@ 1437
επισκέφτηκε 1437
ζονταν 1437
ιερά 1437
Καρδίτσας 1436
Σμ@@ 1436
άξ@@ 1436
εφαρμόζεται 1436
Σπάρτης 1435
ετοιμ@@ 1435
παιχνιδιών 1435
σταδιοδρομίας 1435
Κοπ@@ 1434
Τσου@@ 1434
δημοφιλείς 1434
διάλεκτο 1434
δοκιμα@@ 1434
κλασικής 1434
πολέμων 1434
ποτάμι 1434
στολ@@ 1434
Μαυροβούνιο 1433
Πυθ@@ 1433
άριου 1433
ητά 1433
κεραμ@@ 1433
συνέθεσε 1433
υπουργό 1433
χορήγηση 1433
βορειο@@ 1432
θεμέλια 1432
καρδι@@ 1432
μυρ@@ 1432
οκρατίας 1432
τίστηκε 1432
Michael 1431
http 1431
εντύπωση 1431
επίτευξη 1431
ηθοποιού 1431
θησαυ@@ 1431
προγραμμάτων 1431
ρύθμιση 1431
συντά@@ 1431
φήμες 1431
φρόν@@ 1431
Ιππο@@ 1430
εξοπλισμού 1430
ευτής 1430
ητός 1430
ιστος 1430
μεταγράφηκε 1430
ράκης 1430
σύνολα 1430
χαμηλότερη 1430
Μπολόνια 1429
έτας 1429
δυναμ@@ 1429
τραχ@@ 1429
8η 1428
Ι.@@ 1428
Περιλαμβάνει 1428
σουλ@@ 1428
ψηλά 1428
Κινέζ@@ 1427
Κύπρος 1427
ενώπιον 1427
ιέρ@@ 1427
μονα 1427
μόνων 1427
σώσει 1427
τελείως 1427
Λέν@@ 1426
Παλαιότερα 1426
Φράν@@ 1426
ακρα@@ 1426
είχ@@ 1426
θανά@@ 1426
προσώπων 1426
στου 1426
τερος 1426
1862 1425
1873 1425
Γερμανικής 1425
ίστρια 1425
διαδίκτυο 1425
εκτελέσεις 1425
ελέγχεται 1425
κατάστημα 1425
κατέστησε 1425
λατινικό 1425
τροφής 1425
Βιβλίο 1424
αρχείων 1424
δήμων 1424
διακυβέρνησης 1424
εχθρούς 1424
κόβ@@ 1424
σελίδες 1424
j 1423
Κλειστό 1423
βη 1423
επιτευχθεί 1423
υσή 1423
City 1422
it 1422
Ε.Σ.@@ 1422
Να 1422
Ροβέρτος 1422
άγι@@ 1422
αδέρφια 1422
αναπληρωτής 1422
κουλ@@ 1422
λάβουν 1422
ντο@@ 1422
συνολικού 1422
τετραγ@@ 1422
τωρ 1422
Πρί@@ 1421
Ριχάρδος 1421
άγνω@@ 1421
αγγεία 1421
αντιπολίτευση 1421
αρίων 1421
ρίσκ@@ 1421
τέρ 1421
χρειάζονται 1421
Κουλ@@ 1420
Ονομ@@ 1420
Παρασκευής 1420
αυστη@@ 1420
επιστημονικό 1420
Air 1419
ΚΕ 1419
αγροτικές 1419
δεσμεύ@@ 1419
πρόκριση 1419
Ζή@@ 1418
Νορμαν@@ 1418
τρε@@ 1418
θεσμού 1417
ιταλικής 1417
μαντ@@ 1417
νόημα 1417
ολιγ@@ 1417
ορφαν@@ 1417
σημειωθεί 1417
φεουδ@@ 1417
χώρι 1417
Διοικ@@ 1416
Χρυσό 1416
αγωγών 1416
κρυφά 1416
πειραματ@@ 1416
συλλογ@@ 1416
Πρίγκιπας 1415
βαση 1415
γνώσης 1415
γύρισε 1415
διδασκαλίας 1415
δισ@@ 1415
ειου 1415
επιρροής 1415
ερμηνείες 1415
κερ 1415
μόνιμους 1415
παραδοσιακές 1415
ποιητές 1415
προϋπόθεση 1415
Διαφ@@ 1414
δημιουργός 1414
κεντρικού 1414
ξεως 1414
σπιτιού 1414
σύμπλεγμα 1414
τοίχο 1414
Κοσ@@ 1413
Σωματείων 1413
έπαιξαν 1413
αμοιβ@@ 1413
απόλυ@@ 1413
βιβλι@@ 1413
εκκλησιαστική 1413
ιστό 1413
κρεμ@@ 1413
προσανατολ@@ 1413
km 1412
Πιέρ 1412
γεννη@@ 1412
ευμένο 1412
ημιτελικά 1412
οικογενειών 1412
ουλα 1412
παραγωγές 1412
σωστή 1412
Επαναστατ@@ 1411
Ζά@@ 1411
Συνταγ@@ 1411
βαθμολογίας 1411
διατάξεις 1411
ευρωπαϊκών 1411
κανονικό 1411
κεφαλή 1411
μόδας 1411
Group 1410
οικογεν@@ 1410
σίες 1410
τελευταίας 1410
1800 1409
Νοσοκομείο 1409
οδομ@@ 1409
ρικός 1409
συναρτήσεις 1409
σύνταξη 1409
χάνει 1409
Αχαι@@ 1408
άγεται 1408
δυνα@@ 1408
συμμάχους 1408
υποτροφία 1408
Συνέλευσης 1407
ισχυρές 1407
μεταβ@@ 1407
ομο@@ 1407
τσου 1407
υπέστησαν 1407
όμαστε 1407
ώνιος 1407
Επιχείρηση 1406
Στρατιωτική 1406
αδερφ@@ 1406
ιερ 1406
κόμικς 1406
λαών 1406
μαθη@@ 1406
πρακτικά 1406
σκόπ@@ 1406
φύλου 1406
Έθελ@@ 1405
γκο@@ 1405
εκείνοι 1405
κατέκτησαν 1405
παραχωρήθηκε 1405
σαφές 1405
σεναριογράφος 1405
τρέχ@@ 1405
χωρίζονται 1405
Βρυξέλλες 1404
αρχαίοι 1404
γάλα 1404
γυρίστηκε 1404
οντα@@ 1404
ουχ@@ 1404
συνεν@@ 1404
Κυβερνήτης 1403
Κυν@@ 1403
Μπρο@@ 1403
Φόρ@@ 1403
γραμμών 1403
ευρωπαϊκά 1403
ξεχ@@ 1403
πειράματα 1403
πηγών 1403
1836 1402
Λάρισα 1402
Φθιώτιδας 1402
Φλόριντα 1402
απομάκρυνση 1402
εκπαιδευτικό 1402
επαφές 1402
συνελήφθησαν 1402
An@@ 1401
Βυζάντιο 1401
Ελβ@@ 1401
βλάβη 1401
διαδοχικά 1401
κλινική 1401
προσχώρησε 1401
Αικατερίνης 1400
Αρσ@@ 1400
Μυρ@@ 1400
Φερδινάνδου 1400
Φυλ@@ 1400
έξυπ@@ 1400
αιο 1400
απόγονοι 1400
γματα 1400
εκκλησι@@ 1400
εξηγεί 1400
προσπαθούν 1400
συμφωνίες 1400
Αντρ@@ 1399
Ηγ@@ 1399
Στί@@ 1399
Τουρκοκρατίας 1399
Χο@@ 1399
αεροπορική 1399
αποσυρθεί 1399
πόνο 1399
σύρ@@ 1399
τεχνικών 1399
Στε@@ 1398
έστω 1398
αγόρι 1398
δυσκολία 1398
λω@@ 1398
παλαιότερες 1398
πυρι@@ 1398
συμφέροντα 1398
όσια 1398
Άγγελος 1397
Καβ@@ 1397
Το@@ 1397
διάλυμα 1397
διαδηλώσεις 1397
ευτικής 1397
θέματος 1397
θηλυκ@@ 1397
ιαπωνική 1397
λιση 1397
προήχθη 1397
τόπους 1397
ύκ@@ 1397
ΣΚ 1396
διασπ@@ 1396
θέτοντας 1396
μάθει 1396
ριοι 1396
ς. 1396
1ης 1395
Con@@ 1395
Αριστοτέλη 1395
Βυζαντινών 1395
Συνορεύει 1395
δράσεις 1395
ενιαία 1395
λάμβανε 1395
ξηρά 1395
ορού@@ 1395
όγκου 1395
Πέντε 1394
ατικός 1394
1826 1393
Αμφ@@ 1393
Βουλγαρ@@ 1393
προοδευ@@ 1393
ρίζοντας 1393
φρε@@ 1393
1869 1392
βοηθά 1392
πρωταγωνιστή 1392
σει@@ 1392
Καρα@@ 1391
ίτο 1391
ομό@@ 1391
πυρο@@ 1391
συμπληρω@@ 1391
τρας 1391
ψύ@@ 1391
Ιωάννου 1390
Κεφαλ@@ 1390
Λιθουανία 1390
ήφ@@ 1390
ανέλαβαν 1390
κακο@@ 1390
περιορι@@ 1390
πλάτη 1390
μετέφεραν 1389
μουσικοί 1389
παρακολούθηση 1389
τελετουργ@@ 1389
τρόπαιο 1389
αντίστοιχ@@ 1388
ευτή 1388
προσπαθώντας 1388
σύγχυση 1388
φιλμ 1388
όπολη 1388
UEFA 1387
Ντόναλντ 1387
Φόρμουλα 1387
αγορα@@ 1387
αντιμετωπίζει 1387
διασφαλ@@ 1387
πας 1387
στιγμές 1387
ται@@ 1387
φόβο 1387
Φινλανδίας 1386
αναγνωρισ@@ 1386
ανεπαρκ@@ 1386
αξιολογ@@ 1386
καταστροφ@@ 1386
οριστική 1386
πε 1386
τυπικό 1386
φοι@@ 1386
έγι@@ 1385
διχ@@ 1385
κάποιων 1385
κοινής 1385
περιορισμό 1385
συγγεν@@ 1385
Οργανισμός 1384
Πράγματι 1384
Τρά@@ 1384
διαδοχής 1384
μεταναστών 1384
μόνα 1384
σον@@ 1384
τζιο 1384
υπουργού 1384
χρονος 1384
Διοίκησης 1383
ηματικά 1383
καλεί 1383
κωμική 1383
συνοδεία 1383
τιους 1383
αποδεκτή 1382
αυξανόμενη 1382
καρδιακ@@ 1382
συμβολίζει 1382
θεσε 1381
συνεχόμενη 1381
with 1380
Στεφαν@@ 1380
Φού@@ 1380
αφήγηση 1380
βιβλιοθήκες 1380
διαρκ@@ 1380
εκλέγονται 1380
εκφρα@@ 1380
θεωρώντας 1380
πλασ@@ 1380
πρωταγων@@ 1380
συνεχόμενες 1380
Επιπρόσθετα 1379
Θεω@@ 1379
Μπιλ 1379
αναμένεται 1379
αποκαλύφθηκε 1379
αποστάσεις 1379
ασθενών 1379
λαμβάνονται 1379
λογικής 1379
τάξεως 1379
ϊκή 1379
Αρχαιολογικό 1378
Κρατ@@ 1378
Ολυμπιάδα 1378
μεταφορές 1378
πολιτικοί 1378
ταυτ@@ 1378
φος 1378
χορό 1378
χρόν@@ 1378
ότυπο 1378
Κακ@@ 1377
Κρις 1377
Μαρί 1377
Πρέβεζας 1377
ίως 1377
αρχικής 1377
αφρικαν@@ 1377
ευρύτερα 1377
Γκρί@@ 1376
Κέρ@@ 1376
καθημερινά 1376
κινη@@ 1376
σύμβαση 1376
Ακολουθεί 1375
Πετρούπολης 1375
βιβλιογραφία 1375
εξαφαν@@ 1375
κτισμένη 1375
υπονο@@ 1375
1872 1374
Κριστ@@ 1374
Νόμος 1374
διεθνών 1374
εμφάνισης 1374
ενδεχομένως 1374
πρωθυπουργία 1374
τέλει 1374
Αγώνα 1373
ακαν@@ 1373
αμερικανικής 1373
επόμενης 1373
λόγιος 1373
πτέρυγες 1373
Έργο 1372
Ιλ@@ 1372
Νίκη 1372
Συμφ@@ 1372
αποτελεσματικά 1372
ιγι@@ 1372
καλι@@ 1372
μαρκ@@ 1372
ναί 1372
σεξ 1372
συναντήθηκε 1372
τζαμί 1372
Φινλανδ@@ 1371
άλογο 1371
έσπασε 1371
ακολουθ@@ 1371
ανέφεραν 1371
βαθμού 1371
ινη 1371
μπάσο 1371
ούλι 1371
πανελλήνιο 1371
ποδηλ@@ 1371
τράπεζα 1371
Αυλ@@ 1370
Βού@@ 1370
επιτεθεί 1370
καστ@@ 1370
νόμων 1370
πιέσεις 1370
BMW 1369
Εκδόσεις 1369
Μη 1369
ανάλυσης 1369
ανν@@ 1369
διαπραγματ@@ 1369
κίτρι@@ 1369
κλιν@@ 1369
νικήτρια 1369
ριστής 1369
στήρι@@ 1369
ΕΝ@@ 1368
αφότου 1368
εκπροσώπους 1368
ελπίδα 1368
κυριολεκτικά 1368
μαυ@@ 1368
τει 1368
φον@@ 1368
Αμερικανικής 1367
Λεόν 1367
Πιερ@@ 1367
Φαίνεται 1367
γή@@ 1367
ερωμένη 1367
καρκιν@@ 1367
ολοκληρ@@ 1367
ραϊκ@@ 1367
τσαρ@@ 1367
1865 1366
Purple 1366
Σπύρος 1366
έμβ@@ 1366
πόρτα 1366
ρίνα 1366
συμμετέχοντες 1366
συστηματική 1366
1874 1365
ίστα 1365
ανθρωπ@@ 1365
ελέγχει 1365
ευτυχ@@ 1365
μεταφερθεί 1365
πεθερ@@ 1365
στάθηκε 1365
συναντάται 1365
Δημο@@ 1364
Ευρωμπάσκετ 1364
επαγγελματ@@ 1364
έντο 1363
αναφ@@ 1363
ιατ@@ 1363
ισχυ@@ 1363
κατάλληλα 1363
μουσουλμαν@@ 1363
πή@@ 1363
τηλεφ@@ 1363
χαρακτηρίζει 1363
Λουξεμβούργου 1362
Πλα@@ 1362
ασμένες 1362
επίλυση 1362
βρουν 1361
διασχίζει 1361
μεταφέρουν 1361
ούχου 1361
τελευταίων 1361
τόμους 1361
Μητρο@@ 1360
Ρώσος 1360
ένων 1360
αξιολόγηση 1360
0.@@ 1359
Entertainment 1359
Ωκεανό 1359
χαν 1359
Μοναστήρι 1358
εκδότης 1358
ιατρός 1358
κέρδη 1358
καθαρό 1358
ρίς 1358
top 1357
ανς 1357
γραφικό 1357
ινε 1357
ροφ 1357
St@@ 1356
Z 1356
Άμ@@ 1356
Κολέγιο 1356
έζα 1356
αθλήματα 1356
αρνητικά 1356
κατηγόρησε 1356
όμορφα 1356
αποσπάσματα 1355
ελεγχ@@ 1355
πάγκο 1355
συμφώνησαν 1355
συχν@@ 1355
Αιγυπτι@@ 1354
Αμπελ@@ 1354
Σκωτσέζ@@ 1354
Σώματος 1354
αναπαράσταση 1354
επικεντρώνεται 1354
λένε 1354
προσκυν@@ 1354
Αθλητικός 1353
Ιερό 1353
Ρομά 1353
Σουλτάν 1353
δαλ@@ 1353
εννο@@ 1353
ιδρύ@@ 1353
φρέ@@ 1353
El 1352
Γερμανικό 1352
Κράτος 1352
Λίβερπουλ 1352
Μητροπολίτη 1352
Φ. 1352
ανατέθηκε 1352
αντίστοιχες 1352
βαρυ@@ 1352
ερμήνευσε 1352
μάς 1352
τηγ@@ 1352
30.000 1351
Google 1351
Τσί@@ 1351
διαμάχες 1351
ιατρ@@ 1351
καρδιακή 1351
κύματος 1351
τρίτου 1351
φραγ@@ 1351
ύλια 1351
ol@@ 1350
αέρια 1350
απόγευμα 1350
βραχ@@ 1350
μπος 1350
ορκίστηκε 1350
πλάκες 1350
πολιτ@@ 1350
συνθέτες 1350
350 1349
Καλαβρύτων 1349
Σέρβων 1349
Φρί@@ 1349
δεν@@ 1349
ινες 1349
λευκά 1349
νήσου 1349
ρίσουν 1349
ψηφοφορίας 1349
όγκος 1349
ανώτερη 1348
επαρχ@@ 1348
πρώ@@ 1348
σιου 1348
τάγμα 1348
φιλοξένησε 1348
χώρισε 1348
Κοσσυφοπεδίου 1347
Τορίνο 1347
Τρίπολης 1347
καζ@@ 1347
σημαντικότερη 1347
συμμετέχοντας 1347
συνοδ@@ 1347
φορέας 1347
Δω@@ 1346
Πατριαρχείου 1346
Σχε@@ 1346
αστερισμό 1346
ρωσικής 1346
φορέα 1346
Ορθ@@ 1345
Πικ@@ 1345
αποτελεσμάτων 1345
αρχικού 1345
αυτόνομη 1345
εβραϊκή 1345
κοπέλα 1345
περνούσε 1345
υγι@@ 1345
Λουκά 1344
Πρωταθλήτρια 1344
δώρο 1344
εξορ@@ 1344
ώπ@@ 1344
Charles 1343
έπεισε 1343
αντίθετη 1343
Ελλ@@ 1342
αδελφής 1342
αποκαλύπτει 1342
τηλεφων@@ 1342
υπουργείο 1342
u@@ 1341
αναλύ@@ 1341
ηγεμόνας 1341
κριτικός 1341
υποστήριξαν 1341
χρονο 1341
6ου 1340
Μικρασι@@ 1340
Ορλεάνης 1340
ανοικ@@ 1340
επαγγελματίες 1340
ετία 1340
ξεπέρασε 1340
ριακά 1340
στέρ@@ 1340
τως 1340
Σχεδόν 1339
αρνη@@ 1339
γνώ@@ 1339
κτήσεις 1339
κόστους 1339
ντά@@ 1339
ορφ@@ 1339
σκέψης 1339
τρι 1339
φαίνονται 1339
ata 1338
Διεθνείς 1338
Κοζ@@ 1338
Πτολεμαίος 1338
ανικό 1338
μενα 1338
σωστά 1338
υποστηρικτής 1338
φιλικό 1338
w@@ 1337
αίρεση 1337
αγωνιστής 1337
γερμανικού 1337
γμα 1337
δον@@ 1337
ενώθηκε 1337
ισσες 1337
τονται 1337
Πάλ@@ 1336
αμος 1336
αρο 1336
γεωγραφικά 1336
πενήντα 1336
ωδίες 1336
Άγγλους 1335
ελικ@@ 1335
επιστρέψουν 1335
ευτικών 1335
κτι@@ 1335
πάγου 1335
πυροβόλα 1335
Ιμπραήμ 1334
αναπνευ@@ 1334
αντίγραφα 1334
δουλ@@ 1334
θετικό 1334
θρησκευτικών 1334
κιν 1334
οξείδιο 1334
παρακολουθ@@ 1334
ταυτίζεται 1334
υπάλληλος 1334
χθούν 1334
San 1333
Αιγαίο 1333
ακτινοβολίας 1333
εργαλείο 1333
θεότητα 1333
καλα@@ 1333
μεσο@@ 1333
ναρκωτικών 1333
ομορφιά 1333
παικτών 1333
πειρατ@@ 1333
τέταρτος 1333
Παραδείγματα 1332
αλίας 1332
δούλ@@ 1332
νου@@ 1332
προστατ@@ 1332
Μεθ@@ 1331
Σκύ@@ 1331
Φαν@@ 1331
ίκου 1331
αδελφών 1331
γειτονική 1331
διαιτη@@ 1331
εξάπλωση 1331
εργάζονται 1331
μπερ 1331
DC 1330
ers 1330
Δαβίδ 1330
Μεδίκων 1330
Στεφάνου 1330
ανώτερο 1330
δαπ@@ 1330
κατατάχθηκε 1330
κατευθύν@@ 1330
μετείχαν 1330
ση@@ 1330
Young 1329
Βρανδεμβούργου 1329
Ρεθύμνου 1329
ήρωες 1329
αναμ@@ 1329
κατοχ@@ 1329
κυρί@@ 1329
Ασφαλείας 1328
Γκό@@ 1328
Κάρλος 1328
έγραψαν 1328
δημοτικότητα 1328
δώρα 1328
ιδα 1328
οδος 1328
τοποθετηθεί 1328
γίν@@ 1327
γελ@@ 1327
ολόγοι 1327
σκεπ@@ 1327
τιστεί 1327
τυχόν 1327
Κομμουνιστικού 1326
Πράσιν@@ 1326
ηλεκτρικής 1326
λευκή 1326
νικήσει 1326
προκύπτουν 1326
τιμάται 1326
Royal 1325
Μέσης 1325
Ορθόδοξης 1325
Ρω@@ 1325
έρωτα 1325
ίρι 1325
αρχιεπίσκοπος 1325
κυρίαρχη 1325
ϊκ@@ 1325
όργ@@ 1325
Λαζ@@ 1324
γνωστούς 1324
Red 1323
Πυ@@ 1323
αρχαίες 1323
μαρτυρία 1323
μοντέλων 1323
πυρήνας 1323
σκληρά 1323
χαμηλά 1323
1824 1322
δ. 1322
δίκ@@ 1322
εγγεγραμ@@ 1322
μιος 1322
σερ 1322
σχεδιασ@@ 1322
χαρτί 1322
ωβ@@ 1322
ωτικών 1322
όχημα 1322
Εκλογές 1321
Λάμ@@ 1321
ανάδ@@ 1321
ζώο 1321
οπτικά 1321
ωτικές 1321
± 1320
Αεροπορία 1320
Κόσμου 1320
αμερικανικού 1320
ευρωπαϊκής 1320
συντήρηση 1320
Καποδίστρια 1319
Ντον@@ 1319
αναγνωρίζεται 1319
κωμ@@ 1319
λάν 1319
πεποίθηση 1319
Κοινοβουλευτική 1318
ευρω@@ 1318
ούδ@@ 1318
πλοκή 1318
πυρα@@ 1318
ύβ@@ 1318
Νάξου 1317
ανιψιός 1317
βάλλονται 1317
κεφάλαια 1317
λόγοι 1317
συμπαγ@@ 1317
συχνές 1317
φτι@@ 1317
όμα 1317
όμορφ@@ 1317
9η 1316
Πατριαρχείο 1316
Παύλο 1316
Ροσ@@ 1316
αρχαιολογικά 1316
μορ 1316
προδοσία 1316
προσωνύμιο 1316
συγκρο@@ 1316
τελετές 1316
υποστηρίζοντας 1316
Sh@@ 1315
Πηγ@@ 1315
περιφέρεται 1315
όδια 1315
Λυκ@@ 1314
Πρι 1314
Ράιχ 1314
διατροφή 1314
καθηγητές 1314
κινηματογραφικές 1314
φόρους 1314
ie 1313
Γερουσίας 1313
Κομμουνιστικό 1313
Σάμ@@ 1313
Χώρες 1313
άντε@@ 1313
ανταπο@@ 1313
αποσπάστηκε 1313
επιστημονικές 1313
ιτσα 1313
κάστρα 1313
κατέγραψε 1313
μιμ@@ 1313
ναοί 1313
οφόρος 1313
πεθαίνει 1313
τούρα 1313
10η 1312
Ελένης 1312
Ιπ@@ 1312
Κλίμα 1312
ανές 1312
ελάχιστες 1312
εμπειρίες 1312
ραχ@@ 1312
στος 1312
τοις 1312
codice 1311
άγουν 1311
απαιτούν 1311
μεταφρα@@ 1311
νους 1311
παρεκκλήσι 1311
πετυχαίνοντας 1311
χειρόγραφο 1311
Κλι@@ 1310
Λακωνίας 1310
αστέρι 1310
δολοφ@@ 1310
εκδο@@ 1310
μουσείου 1310
οφείλει 1310
τοίχους 1310
τροχιάς 1310
χτισμένη 1310
όμορφο 1310
Νο 1309
αξιωματικοί 1309
δημόσιας 1309
εκείνον 1309
επιδημ@@ 1309
ημένους 1309
ισχυρά 1309
ογράφο 1309
ούδας 1309
άρρ@@ 1308
έθνους 1308
εκλέχτηκε 1308
εξυπηρετεί 1308
κτηρίου 1308
μέταλλο 1308
μύθος 1308
πληθ@@ 1308
ϊκά 1308
Ακολούθως 1307
Ανδ@@ 1307
Σάλ@@ 1307
άρες 1307
γες 1307
δωρ@@ 1307
λωρίδα 1307
μάτι@@ 1307
ψεύ@@ 1307
Ρώσους 1306
Ταλ@@ 1306
άλους 1306
δόσεις 1306
οφορ@@ 1306
ιός 1305
μουσεία 1305
στασης 1305
τρου 1305
χαμηλότερο 1305
επαρκ@@ 1304
μονάχα 1304
ορχήστρας 1304
1829 1303
Μέγαρο 1303
Νεο@@ 1303
Φλάνδρας 1303
ανακαλύφθηκαν 1303
αποκτήθηκε 1303
εθνικός 1303
κρυ@@ 1303
ρώ@@ 1303
τρίτης 1303
υποχρε@@ 1303
φάρ@@ 1303
φυλών 1303
Θεοφ@@ 1302
αυστηρά 1302
γυμν@@ 1302
μπορέσει 1302
πιλ@@ 1302
προσβολή 1302
Διοικητικές 1301
αρνείται 1301
πλουσι@@ 1301
πτηνά 1301
συνασπισμού 1301
συνοικίες 1301
τρων 1301
όκο 1301
Κασσ@@ 1300
Λευ@@ 1300
επισκόπου 1300
θοι 1300
μικρούς 1300
μοναστήρια 1300
νήσο 1300
στάιν 1300
συγκλ@@ 1300
σχημάτισε 1300
Ντον 1299
επιτρέψει 1299
ισον 1299
κυριαρχ@@ 1299
παρών 1299
Λομβαρ@@ 1298
αρχιτεκτον@@ 1298
δεια 1298
οκ 1298
όρε 1298
50@@ 1297
Κόλπο 1297
ανακαλύπτει 1297
ελά@@ 1297
πακ@@ 1297
πολύπλοκ@@ 1297
τικ 1297
χορού 1297
Αθανασίου 1296
Ατλαντικό 1296
Γυμναστήριο 1296
Ιατρικής 1296
αρθρ@@ 1296
γλυπτά 1296
δικαιολογ@@ 1296
κλείσει 1296
κλειδί 1296
κρίσεις 1296
πέραν 1296
Ουαλίας 1295
Ωδείο 1295
αρωματ@@ 1295
ελληνικός 1295
θεσαν 1295
παππούς 1295
παραλίες 1295
πλάι 1295
πρόσοψη 1295
πτερ@@ 1295
σιλ@@ 1295
χάρτες 1295
χους 1295
Δημιουργήθηκε 1294
Νικολάι 1294
Ντεν@@ 1294
απαιτούσε 1294
κοινοβουλίου 1294
παρακμή 1294
ταλ 1294
τοφ 1294
w 1293
Οργάνωση 1293
άνδ@@ 1293
άντε 1293
αυτοκινήτου 1293
ετός 1293
λατρείας 1293
πάλης 1293
περιουσίας 1293
ριων 1293
1.0@@ 1292
Λίγα 1292
Μαδρίτη 1292
Πύργου 1292
βαλλ@@ 1292
δελφ@@ 1292
εμφανίζουν 1292
ινής 1292
ρίζονται 1292
τομέας 1292
αγγελ@@ 1291
βε@@ 1291
βιομηχαν@@ 1291
βυζαντινής 1291
κομητείας 1291
κριτικής 1291
ραλ@@ 1291
τεράστι@@ 1291
φόρου 1291
office 1290
έντομα 1290
αποκτήσουν 1290
εδαφ@@ 1290
κήπο 1290
μέτρησης 1290
παράθυρα 1290
άμι 1289
αυτοκρατορική 1289
ισμένους 1289
προαναφερ@@ 1289
es@@ 1288
αρκετή 1288
ηχογράφησε 1288
τούν@@ 1288
όβου 1288
Ισλαμ@@ 1287
διωγ@@ 1287
διώξεις 1287
καθεδρικό 1287
ονας 1287
οποιημένη 1287
σουλτάνου 1287
τηλ@@ 1287
χαμηλές 1287
1856 1286
Βίος 1286
αδύνατο 1286
ανθεκ@@ 1286
ελάχιστο 1286
Τζο 1285
τελικής 1285
140 1284
Ελληνικών 1284
Μέσω 1284
αθλη@@ 1284
βαθμός 1284
βαθμών 1284
κοινωνι@@ 1284
ποτάμια 1284
ρινγκ 1284
ύλους 1284
Βυρτεμβέργης 1283
έθιμα 1283
αποκλεισμό 1283
βερ 1283
διπλή 1283
λαδ@@ 1283
ουζ 1283
Μπράιαν 1282
Χριστιανός 1282
έπει 1282
ζωγράφισε 1282
περιστασιακά 1282
στολή 1282
συνεχίζεται 1282
Ιουλι@@ 1281
Ποσειδώνα 1281
αραβική 1281
πόντοι 1281
ρεν@@ 1281
συνεχίζουν 1281
Ἀ@@ 1281
Maria 1280
Marvel 1280
Βλαχ@@ 1280
ΕΜ@@ 1280
Ειρηνικού 1280
Κρού@@ 1280
Παπαδόπουλος 1280
Φασ@@ 1280
δικτατορίας 1280
σταδίου 1280
σύγχρονων 1280
Δίκαιο 1279
Εκκλησι@@ 1279
βάλλεται 1279
βουλευτή 1279
δίωξη 1279
κινήματα 1279
προηγούμενης 1279
σαράντα 1279
1854 1278
Εμπορίου 1278
ΝΑ. 1278
Τόνι 1278
διακόπ@@ 1278
λάμβαναν 1278
ούμενων 1278
τετράγωνο 1278
όμηση 1278
Gr@@ 1277
Λαμ@@ 1277
εζ 1277
ειδικών 1277
επιτυχώς 1277
ζήτηση 1277
ικία 1277
κοντιν@@ 1277
ξέν@@ 1277
ρισμα 1277
συνεργάζεται 1277
Βραβ@@ 1276
Δαρ@@ 1276
Λόγ@@ 1276
εξωτερικών 1276
ημιτελικούς 1276
οικογενειακό 1276
στροφές 1276
Περίοδος 1275
εμπιστ@@ 1275
ριζοσπ@@ 1275
σκοτειν@@ 1275
στικότητα 1275
συνεχίστηκαν 1275
τελευταίοι 1275
Λασιθίου 1274
Πάφου 1274
Παναγιώτη 1274
Χαρακτηριστικό 1274
αγωνίστηκαν 1274
δημιουργούνται 1274
λιμάνια 1274
μηχανικής 1274
σοβαρό 1274
τοποθέτησε 1274
ΙΔ 1273
Κυρ@@ 1273
ικανός 1273
οδική 1273
πήγαν 1273
τσί@@ 1273
Έβρου 1272
Μπρους 1272
δέκατη 1272
δευτερεύ@@ 1272
ετό 1272
λειτουργικό 1272
συγκεκριμένου 1272
0.000 1271
160 1271
Αλφόνσος 1271
Διονύσιος 1271
ίσκο 1271
αγγέλ@@ 1271
αράς 1271
γιοι 1271
παίρνουν 1271
παρούσα 1271
ποσο@@ 1271
1859 1270
Τσέχ@@ 1270
απομακρυσ@@ 1270
αριού 1270
νάτριο 1270
νησης 1270
ρεφ@@ 1270
Αρχηγός 1269
Εδ@@ 1269
Λευκορωσίας 1269
Πρόσ@@ 1269
γειτονικές 1268
στός 1268
Αργυ@@ 1267
Δελ@@ 1267
Σίλ@@ 1267
αποτελείτο 1267
διασκευή 1267
ηκ@@ 1267
καθιέρωσε 1267
μερική 1267
σιμος 1267
τελειώσει 1267
.gr 1266
Ντάρ@@ 1266
Πάολο 1266
Παρκ 1266
Τ. 1266
αγωνιστικής 1266
γηπέδου 1266
εκπαιδεύ@@ 1266
επισκοπ@@ 1266
λύσεις 1266
υποδοχή 1266
ωμένους 1266
ὰ 1266
Αμερικανό 1265
Τορόντο 1265
αντιστασ@@ 1265
διαστ@@ 1265
διατελέσει 1265
εγκαταλείφθηκε 1265
επίβλεψη 1265
ράν@@ 1265
συναντήσεις 1265
σχήματα 1265
1844 1264
40@@ 1264
Αρχιεπίσκοπος 1264
Λένιν 1264
Νοβ@@ 1264
Τσα@@ 1264
διατηρη@@ 1264
ζευγάρια 1264
καρκίνου 1264
λεια 1264
οίκ@@ 1264
τείται 1264
τριχ 1264
ωμένης 1264
Night 1263
Ιατρική 1263
Ιζ@@ 1263
αγοράσει 1263
αυτόματα 1263
γεγονότος 1263
διεξάγονται 1263
νίκησαν 1263
τωσης 1263
Παρατηρ@@ 1262
αποχωρήσει 1262
εντάχθηκαν 1262
κατείχαν 1262
ραδιόφωνο 1262
Μπολ@@ 1261
επιθυμούσε 1261
ιδιο@@ 1261
Αστέρας 1260
Οργαν@@ 1260
Ορισμένα 1260
Φωκ@@ 1260
αποτελώντας 1260
βικ 1260
εκδόθηκαν 1260
κορυφαίος 1260
μέλους 1260
συνεχής 1260
Επισ@@ 1259
δεί@@ 1259
ιδρύθηκαν 1259
κτήματα 1259
λαιμό 1259
πουλήσει 1259
ριον 1259
τοῦ 1259
χορο@@ 1259
όδου 1259
ίνγκ 1258
ασθεν@@ 1258
διάφορων 1258
επιχείρησε 1258
θέτουν 1258
οπαδών 1258
συνωμοσία 1258
Εκλογική 1257
άνοδος 1257
βασίλεια 1257
γκλ@@ 1257
διαδραματ@@ 1257
εξέλιξης 1257
κατηγοριών 1257
μάζει 1257
μετατραπεί 1257
ούτ@@ 1257
σιακή 1257
τέ 1257
υπηκοότητα 1257
υπηρέ@@ 1257
Μπαχ@@ 1256
βαλκαν@@ 1256
γέφυρας 1256
γεωμετρία 1256
μετακίνηση 1256
όρε@@ 1256
ύνεται 1256
Μέσ@@ 1255
γρήγορη 1255
δισκογραφικής 1255
μετρήσεις 1255
μόνιμο 1255
Apple 1254
Αλί 1254
Γερμανικά 1254
Μπουν@@ 1254
άγιο 1254
βασιλέα 1254
γέννησε 1254
δεσμό 1254
κρατικό 1254
πτήσης 1254
ine 1253
Σαπ@@ 1253
Τίτλοι 1253
άδου 1253
ίδιους 1253
ακτής 1253
διακόπηκε 1253
σύγχρονου 1253
τάχθηκε 1253
Βέ@@ 1252
Λάρνακας 1252
αιγίδα 1252
ακτίνα 1252
μιών 1252
προοπτική 1252
συνέγραψε 1252
Έκθεση 1251
Αλέξιος 1251
μπλ 1251
νατρίου 1251
ογραφικές 1251
στρατιωτικού 1251
υπηρετήσει 1251
υπολείμματα 1251
αγίου 1250
αντρών 1250
αυτοκρατορ@@ 1250
μελλον@@ 1250
ρωμαϊκό 1250
σμπεργκ 1250
αναπτύσσονται 1249
ασμ@@ 1249
θεωρείτο 1249
υποβιβασμό 1249
φύλλο 1249
is@@ 1248
άζα 1248
άνευ 1248
χαϊμ 1248
ωδών 1248
Αλίκη 1247
Βυζαντινούς 1247
αντιστοιχούν 1247
απόλυτα 1247
εμφυλίου 1247
ιανή 1247
μαγειρ@@ 1247
μεγάλοι 1247
μετασχηματ@@ 1247
σιτς 1247
Game 1246
ανεγέρθηκε 1246
εξασφαλ@@ 1246
θεών 1246
ορος 1246
σπορ 1246
Επιχειρ@@ 1245
αμο 1245
γραμμα 1245
διάσταση 1245
κλα 1245
κόσ@@ 1245
πικ@@ 1245
σχέσης 1245
δεχ@@ 1244
σφραγ@@ 1244
τραμ 1244
υπερβολικά 1244
1814 1243
at@@ 1243
Καλαμ@@ 1243
Κόλπου 1243
αναγνωρίσει 1243
αποτελέσει 1243
ιακ@@ 1243
νησίδα 1243
ξαφνικά 1243
προκαλέσουν 1243
όκαστρο 1243
Αστέρα 1242
Γαρ@@ 1242
Καναδ@@ 1242
άρνηση 1242
αλλαγών 1242
εκλογικές 1242
καστ 1242
περάσουν 1242
φιναλίστ 1242
όροφο 1242
ύνουν 1242
Ιλλ@@ 1241
Μουν@@ 1241
Στρατηγ@@ 1241
ίζα 1241
αίτια 1241
δημοτικές 1241
εκείνου 1241
ηματικό 1241
ιππικό 1241
νόσο 1241
περιστροφή 1241
στρες 1241
όχους 1241
Αντιόχειας 1240
ζητούσε 1240
μιρ 1240
πολιτισμ@@ 1240
τομο 1240
φίλη 1240
Αφροδίτη 1239
Λέγεται 1239
Μοσχ@@ 1239
ανταρτών 1239
εμβολι@@ 1239
επίθετο 1239
ιδιοκτήτες 1239
όνγκ 1239
Ενε@@ 1238
ΙΙΙ 1238
ετές 1238
νότιες 1238
ορει@@ 1238
περιελάμβαναν 1238
συνταγματάρχη 1238
τέρων 1238
τικη 1238
χρέη 1238
ωτικής 1238
Βαθμολογία 1237
Σελήνη 1237
αγωνιζόμενος 1237
αλογ@@ 1237
αποδο@@ 1237
απορρίφθηκε 1237
εξώ@@ 1237
καταδικα@@ 1237
προάστιο 1237
προσπαθούσε 1237
πρόοδο 1237
σκου@@ 1237
Άρθουρ 1236
Γκαρ@@ 1236
ίντα 1236
δημοσί@@ 1236
διαφορε@@ 1236
εκπέμπει 1236
θέντες 1236
θεατρικές 1236
λας 1236
λεγόμενα 1236
υρι@@ 1236
4ος 1235
Αρχή 1235
ήρας 1235
διατηρηθεί 1235
διατρ@@ 1235
λαούς 1235
οκράτες 1235
παρέμενε 1235
George 1234
Αστρονομ@@ 1234
Επιστημον@@ 1234
Πύ@@ 1234
Τρία 1234
αθλητών 1234
ακτών 1234
αντιπάλου 1234
γυμ@@ 1234
δεσμευ@@ 1234
συγχέεται 1234
τάφοι 1234
Δεκ@@ 1233
ερχόταν 1233
θεούς 1233
καταγράφει 1233
οντ 1233
συγκεκριμένης 1233
συντάγματος 1233
τεστ 1233
υπέβαλε 1233
υπερασπ@@ 1233
ύλες 1233
ana 1232
as@@ 1232
Μαραθ@@ 1232
Παλι@@ 1232
Χολ@@ 1232
ήμισυ 1232
αστερ@@ 1232
διαθήκη 1232
είμεν@@ 1232
εορτή 1232
επηρεάστηκε 1232
εποχές 1232
ιστού 1232
κυρίαρχ@@ 1232
λλου 1232
μενοι 1232
σκληρό 1232
υπέρο@@ 1232
District 1231
ίκους 1231
αγγλικό 1231
δολ@@ 1231
οφθαλ@@ 1231
προσαρμογή 1231
12ου 1230
Βαγ@@ 1230
Μαντόνα 1230
Τυρ@@ 1230
ακαδημίες 1230
νορβηγ@@ 1230
ρινό 1230
τυφ@@ 1230
υψηλότερα 1230
χωρεί 1230
1820 1229
Βιβλιοθήκης 1229
Λαϊκής 1229
Περίοδο 1229
εγι@@ 1229
κορυφαίους 1229
κυαν@@ 1229
στρέμματα 1229
Αλβέρτος 1228
Αρα@@ 1228
Ταμ@@ 1228
απώ@@ 1228
γάμους 1228
ηθοποιοί 1228
καθαρή 1228
κατέληξαν 1228
παραγωγό 1228
Εμπο@@ 1227
Τρέ@@ 1227
Τσερ@@ 1227
εξορίστηκε 1227
επίσημος 1227
μαγν@@ 1227
ούρων 1227
παιδικά 1227
προβλήματος 1227
ραμα 1227
ρεπ@@ 1227
ρούνται 1227
στήθος 1227
τίας 1227
3,@@ 1226
Award 1226
ad 1226
Αντιόχεια 1226
Πύλου 1226
αποδίδει 1226
δή 1226
κέρματα 1226
νε 1226
πολεμικών 1226
χώρισαν 1226
όφελος 1226
Αρχαίας 1225
Δόξα 1225
Τζέν@@ 1225
καντ@@ 1225
πάσα 1225
προκριματικά 1225
Υπουργ@@ 1224
εκπροσώπησε 1224
πυκν@@ 1224
τιμωρία 1224
τούρκ@@ 1224
Ρόδο 1223
Φιλίπ@@ 1223
αμπελ@@ 1223
ανθρώπινου 1223
καιν@@ 1223
σχεδιαστεί 1223
φτάσουν 1223
Νότου 1222
θι 1222
μιλούν 1222
προσπάθειά 1222
χρωμάτων 1222
ύμνος 1222
Άλαν 1221
Αθηναϊκ@@ 1221
Κατερίνα 1221
Τ.@@ 1221
αλκο@@ 1221
ανακαιν@@ 1221
ερο 1221
θεσπ@@ 1221
στέ@@ 1221
Αθλ@@ 1220
Βούλγαροι 1220
Εργασίας 1220
έντ 1220
ίζ 1220
γειτονικό 1220
εκβολές 1220
μηχανικό 1220
ψήφισε 1220
ωνες 1220
Βυζαντίου 1219
Θωμά 1219
Υπήρχαν 1219
εγκαταλεί@@ 1219
επιτυχημένο 1219
λεπτών 1219
οειδών 1219
υπόβαθρο 1219
όδων 1219
όκ 1219
όσι 1219
ens 1218
Δου@@ 1218
αντικατασταθεί 1218
αντιμετώπιζε 1218
ανώτατο 1218
θολ@@ 1218
ιδεολογία 1218
Δημοκρατική 1217
Δρυ@@ 1217
Μπεν 1217
Νίκαια 1217
έτο@@ 1217
εγκεφάλου 1217
ειάς 1217
ζων@@ 1217
κυρίου 1217
μετάλλων 1217
οδο 1217
οκρατία 1217
συγκρούσεων 1217
σύγχρονοι 1217
ώρου 1217
ΐας 1216
ανου@@ 1216
πτυχές 1216
υστερ@@ 1216
Αραγ@@ 1215
ΒΔ. 1215
απλού@@ 1215
ασμούς 1215
βοήθησαν 1215
κοιλάδας 1215
μηχανισμός 1215
μιούζικαλ 1215
μπουλ@@ 1215
ογεν@@ 1215
ολοένα 1215
σύνη 1215
ότσ@@ 1215
ύλων 1215
ΕΣ 1214
Εκπαίδευσης 1214
αστικ@@ 1214
βαρύ 1214
κλείσιμο 1214
ουγ@@ 1214
πράσ@@ 1214
συμμετάσχουν 1214
Παί@@ 1213
Πρι@@ 1213
αιρέ@@ 1213
ανοικτό 1213
εντυπω@@ 1213
ιδεών 1213
μερικών 1213
οχημάτων 1213
παραγόντων 1213
προξεν@@ 1213
1832 1212
Αντρέ 1212
Σφαίρα 1212
άρους 1212
ακα 1212
επόμενους 1212
εστ 1212
ιδιωτικά 1212
μεσολαβ@@ 1212
περίφημο 1212
De@@ 1211
Βασιλικού 1211
Πιν@@ 1211
Χάρβαρντ 1211
Χριστίνα 1211
αισ@@ 1211
βλέποντας 1211
ευτούν 1211
ζωγράφο 1211
μακρύ 1211
οικογένειάς 1211
προϋπολογισμό 1211
σκοτώνει 1211
συνηθισμένο 1211
Καρολίνα 1210
Φλωρεντίας 1210
άσπρο 1210
δέχονται 1210
δέχτηκαν 1210
διοικητικής 1210
εκτελέστηκαν 1210
ούδα 1210
παλιότερα 1210
παρουσίαζε 1210
τρόμου 1210
Χάρη 1209
άθλ@@ 1209
διαζύγιο 1209
εντυπωσι@@ 1209
ούλ 1209
ούλια 1209
περιορίζεται 1209
Γυμνα@@ 1208
Ιατρ@@ 1208
Κοκκιν@@ 1208
Πύργο 1208
ΡΙ@@ 1208
έσουν 1208
ακτίνες 1208
εργασ@@ 1208
κατο@@ 1208
λόφους 1208
μένοντας 1208
νεότερο 1208
σήματα 1208
χελ@@ 1208
→ 1208
Κανον@@ 1207
Μεραρχία 1207
άλατα 1207
βαδ@@ 1207
γνωρίσει 1207
ιντεν 1207
ξεκινούν 1207
ριους 1207
σχηματίσει 1207
τουρ@@ 1207
υπερβολική 1207
Κλί@@ 1206
Κουτσ@@ 1206
Μικρασιατική 1206
άλλαξαν 1206
επικαλ@@ 1206
ευθ@@ 1206
υπεράσπιση 1206
φοράς 1206
Λίγκα 1205
Πόρτο 1205
Σουδάν 1205
ήσιο 1205
κανα@@ 1205
κυρίαρχο 1205
μετρό 1205
νεϊ 1205
οειδές 1205
8.000 1204
Πρωταθλητριών 1204
γνωστού 1204
γουελ 1204
διώκ@@ 1204
ολ 1204
σταλ@@ 1204
Κογκρέσο 1203
Λαϊκού 1203
απαλλ@@ 1203
διορθ@@ 1203
εκπρόσωποι 1203
ολόγους 1203
πολιτιστικά 1203
τάνα 1203
Αραβία 1202
Λιν@@ 1202
Νοτίου 1202
ακολουθούσε 1202
ανη@@ 1202
απόδ@@ 1202
βασικών 1202
βενζ@@ 1202
δανει@@ 1202
δημοσιεύ@@ 1202
ενδέχεται 1202
θυμίζει 1202
καλυμ@@ 1202
κινς 1202
ούντ 1202
συνάρτησης 1202
ταχθεί 1202
όδους 1202
1851 1201
RNA 1201
Αχμέτ 1201
Μεχμέτ 1201
έναρξης 1201
αιώνων 1201
εξελιχθεί 1201
ηγε@@ 1201
κρυφ@@ 1201
μίσ@@ 1201
οφόρων 1201
χαρακτηριστικών 1201
Γκρά@@ 1200
Πορτογαλ@@ 1200
Ρεν@@ 1200
αξιωματικών 1200
διαθέσιμη 1200
λογικά 1200
σταθμοί 1200
φορο@@ 1200
Best 1199
Όρους 1199
Γερμανού 1199
Παρθέν@@ 1199
άντρας 1199
δόγμα 1199
ερεθ@@ 1199
ιε 1199
μεσαία 1199
νοτιο@@ 1199
προερχόταν 1199
πρόκληση 1199
σίγουρα 1199
τουργ@@ 1199
ώνια 1199
Δημοσι@@ 1198
Δυτικό 1198
Εκπαιδευ@@ 1198
Ζάγκρεμπ 1198
Παρότι 1198
δημοτικού 1198
επαρχιών 1198
μαθ@@ 1198
πληθώρα 1198
προετοι@@ 1198
στεγάζεται 1198
τιδας 1198
Όν@@ 1197
Βρετάνης 1197
Θεωρ@@ 1197
Ρότζερ 1197
αποφυγή 1197
δεκαπέντε 1197
δρο 1197
ενεργή 1197
ομορφ@@ 1197
τάφους 1197
χρωμοσ@@ 1197
όρθ@@ 1197
11η 1196
Βίκινγκ 1196
Κεντρ@@ 1196
ίφ@@ 1196
αναγνωρίζει 1196
δημο@@ 1196
σύγκρουσης 1196
τσος 1196
Is 1195
Γάλλου 1195
Σύνοδος 1195
δείκτη 1195
ζόν 1195
καλύψει 1195
κοι@@ 1195
στατο 1195
τέα 1195
τηρού@@ 1195
χαρακ@@ 1195
50.000 1194
δευτερότοκος 1194
θανατ@@ 1194
κραν@@ 1194
ναυτικού 1194
οικογενειακή 1194
παρεμβ@@ 1194
Κριτική 1193
Σάο 1193
έστερ@@ 1193
δους 1193
εισέβαλαν 1193
επέτειο 1193
ινων 1193
λάν@@ 1193
πορείας 1193
ρίτη 1193
σημάδια 1193
συνδέσεις 1193
Μέλος 1192
Μυκ@@ 1192
Στρατιά 1192
διακεκρι@@ 1192
διοικητικού 1192
ενσωμάτωση 1192
ναυμαχία 1192
ναύτες 1192
ομιλητές 1192
περιγράφουν 1192
συνολικής 1192
Αθηνά 1191
Συνόδου 1191
απορ@@ 1191
θάλ@@ 1191
μόν 1191
υπάρχ@@ 1191
Εσθονία 1190
Πιστεύεται 1190
θελ@@ 1190
στιν 1190
ταραχές 1190
1843 1189
Ανρί 1189
Κολλέγιο 1189
Ντάνιελ 1189
Χρονικά 1189
ίγια 1189
θυρε@@ 1189
λοφ@@ 1189
ουτσ@@ 1189
παρέ@@ 1189
παρασκευή 1189
τείνει 1189
Iron 1188
q 1188
Μαύρη 1188
Μεσογ@@ 1188
ήτη 1188
αποτρέψει 1188
διαδρομής 1188
είμαι 1188
εδρα@@ 1188
ερασι@@ 1188
μολυσ@@ 1188
ντόπιους 1188
πίστης 1188
περιορισμούς 1188
ποδα 1188
πρόσφερε 1188
συντριπτική 1188
φοιτητών 1188
1,3 1187
facto 1187
Λουθηραν@@ 1187
έθνη 1187
βουλ@@ 1187
εκατ. 1187
παράνομη 1187
bit 1186
Κάποιες 1186
άμου 1186
έθιμο 1186
ήχθησαν 1186
διδακ@@ 1186
εκφράζει 1186
ευλογ@@ 1186
μηχανισμό 1186
σκαλ@@ 1186
τειχών 1186
ψή 1186
Big 1185
Βίλχελμ 1185
Βιτ@@ 1185
Κυπ@@ 1185
Νέβιλ 1185
Ριζ@@ 1185
έκθεσης 1185
έρτο 1185
αστικός 1185
δέρματος 1185
εισηγ@@ 1185
εμπρός 1185
ενώθηκαν 1185
τεχνικό 1185
ΟΥ 1184
ξιμο 1184
όραμα 1184
Αντωνίου 1183
Ενόπλων 1183
Νάσσαου 1183
έκ 1183
αποφάσεων 1183
κινητήρας 1183
μεταναστ@@ 1183
ξής 1183
οστοιχ@@ 1183
συμπεριλαμβ@@ 1183
χωρισ@@ 1183
Κιου@@ 1182
Ρασ@@ 1182
εκτέλεσης 1182
εχθρό 1182
θέρμανση 1182
ισότητα 1182
κώ@@ 1182
οποιονδήποτε 1182
πραγματοποιούνται 1182
ρισμός 1182
σπονδυλ@@ 1182
συντεταγμένες 1182
τηθούν 1182
τροφοδο@@ 1182
Κοκ@@ 1181
Χριστιανισμό 1181
άθροισμα 1181
αποτελεσματικότητα 1181
γιαγιά 1181
γύρου 1181
ευκολ@@ 1181
λατρ@@ 1181
τσια 1181
1858 1180
ec@@ 1180
Διαθήκη 1180
Μίλαν 1180
Σταυ@@ 1180
διαδόχου 1180
εικα@@ 1180
λυρ@@ 1180
ρισαν 1180
On 1179
Πέν@@ 1179
ανσ@@ 1179
ατομική 1179
καθιέρωση 1179
σταγ@@ 1179
σχηματισμού 1179
τεράστιες 1179
ότης 1179
Ανατολ@@ 1178
Απόστολος 1178
Γυναικείου 1178
Ιω@@ 1178
Τακ@@ 1178
ήμερο 1178
κλάδους 1178
παππού 1178
πλούτο 1178
πρόληψη 1178
τρες 1178
τρόπου 1178
11@@ 1177
Ιταλ@@ 1177
Πατέρας 1177
άρθρωση 1177
ασθένειας 1177
γήπεδα 1177
σεβασμό 1177
υπογράφηκε 1177
χάρισε 1177
.Η 1176
Δερ@@ 1176
Περού 1176
απόγονος 1176
βουλγαρ@@ 1176
ιππικού 1176
ιταλ@@ 1176
κιθαρίστα 1176
σιδηροδρομική 1176
υρό 1176
.com 1175
ja 1175
Άργος 1175
Βουλ@@ 1175
Τώρα 1175
Φον@@ 1175
αντίδρασης 1175
κτίσμα 1175
συνδέ@@ 1175
υπαγόταν 1175
box 1174
Ήλιου 1174
Μάλτα 1174
γυαλ@@ 1174
επιθυμ@@ 1174
καταστροφής 1174
κινούνται 1174
μπε@@ 1174
ξεπεράσει 1174
υπερβολ@@ 1174
ψιμο 1174
ΕΑΜ 1173
Πανιώνιο 1173
Πολωνών 1173
ακτιν@@ 1173
αλογον@@ 1173
εμπλου@@ 1173
εταιρίες 1173
οίκου 1173
οδών 1173
ουγγρ@@ 1173
ley 1172
Σιλεσίας 1172
ανεπάρκεια 1172
πόντων 1172
σκελε@@ 1172
son 1171
Δημιουργ@@ 1171
Σταυρό 1171
ήνη 1171
ανήλθε 1171
πρόσβασης 1171
πρόσθεσε 1171
χαμηλού 1171
1841 1170
1845 1170
et@@ 1170
Παραδ@@ 1170
Προτεστ@@ 1170
Σάββατο 1170
Χαλκιδικής 1170
αινα 1170
αρμεν@@ 1170
βουδι@@ 1170
εισόδημα 1170
ισθ@@ 1170
κερδοσκοπ@@ 1170
ραξη 1170
συνέλαβε 1170
συρ 1170
τάνιο 1170
υψηλότερες 1170
ωρη 1170
ώρι@@ 1170
ic@@ 1169
Πανεπιστημι@@ 1169
αθηναϊκ@@ 1169
εγώ 1169
επιβολή 1169
θεσμός 1169
κατέστη 1169
οξέα 1169
ριού 1169
υποχώρηση 1169
1827 1168
Αλεξάνδρειας 1168
Μαρίνα 1168
αναπαραγωγή 1168
απόδοσης 1168
γράφτηκαν 1168
κοιλ@@ 1168
λογοτεχνικό 1168
τσά 1168
υποτίθεται 1168
όντως 1168
ini 1167
Κή@@ 1167
Τραγούδια 1167
άουτ 1167
εκατο@@ 1167
ηλεκτρον@@ 1167
κολέγιο 1167
μπια 1167
πάθος 1167
παριστ@@ 1167
παρουσιάσει 1167
προστάτης 1167
450 1166
Αγαθ@@ 1166
αθλητισμό 1166
αμερ@@ 1166
αξιωματούχους 1166
διαγνω@@ 1166
ερωτευ@@ 1166
κύριους 1166
πρεσβεία 1166
Ίνγκ@@ 1165
Εσωτερ@@ 1165
Μεγάλος 1165
Ρουσ@@ 1165
αφορούσαν 1165
ισόπ@@ 1165
μεταφράσεις 1165
μυστικό 1165
περιήλθε 1165
πόρ@@ 1165
Μάλτας 1164
Σαίξπηρ 1164
Τζού@@ 1164
ίρα 1164
ανάλογη 1164
επωφελ@@ 1164
ηλίου 1164
λες 1164
νυ@@ 1164
ξαναπ@@ 1164
ολογικός 1164
πρωταθλ@@ 1164
ταση 1164
Cor@@ 1163
Ford 1163
αγάπης 1163
αλγεβ@@ 1163
αναπτυσσ@@ 1163
βάλουν 1163
κοινώς 1163
λεϋ 1163
πρόσκληση 1163
πυρά 1163
τασ@@ 1163
φωλι@@ 1163
χεί@@ 1163
ύθηκε 1163
1823 1162
Γούν@@ 1162
Γρηγορίου 1162
ίαση 1162
διασωθεί 1162
λίτρων 1162
μειώνει 1162
μπήκαν 1162
τίζεται 1162
Ολί@@ 1161
αντανακλ@@ 1161
δορυφόρος 1161
ενε@@ 1161
ιταλ. 1161
καλαθοσφαίριση 1161
μαύρα 1161
ρήξη 1161
υδατο@@ 1161
ύν 1161
Κρίστιαν 1160
ΠΑ 1160
ελίτ 1160
μεσαι@@ 1160
νικητή 1160
ορεινή 1160
ποδοσφαιρικών 1160
ρίδες 1160
υποδυ@@ 1160
υς 1160
φθεί 1160
Κορίνθου 1159
Συνα@@ 1159
Τζέρ@@ 1159
εθνόσημο 1159
ειων 1159
εσωτερικών 1159
περνώντας 1159
πλήρους 1159
πνευμον@@ 1159
προσδιορισμό 1159
Δημοτικού 1158
Κυκλάδων 1158
Προσωπ@@ 1158
Ρογ@@ 1158
Σπαν@@ 1158
έττα 1158
αύξησης 1158
είδαν 1158
εξήγηση 1158
εξαφάνιση 1158
εξουσι@@ 1158
περικ@@ 1158
τημένη 1158
Ανατολικού 1157
Ρώσων 1157
βόρειες 1157
κεντρο@@ 1157
μνημον@@ 1157
ουλο 1157
ποτά@@ 1157
σιμων 1157
τισαν 1157
ύρα 1157
1812 1156
Γιόζεφ 1156
Στο@@ 1156
ίδρυσή 1156
απογ@@ 1156
εμπορικών 1156
εσωτερικής 1156
ηνών 1156
ναβ@@ 1156
ξεχωρίζει 1156
παρακολουθεί 1156
πυροβολικού 1156
ῖ@@ 1156
Γιουγκοσλαβ@@ 1155
Φράνσις 1155
αιτίες 1155
είος 1155
είσα 1155
εκπομπών 1155
θεσή 1155
κοβ@@ 1155
ματοποι@@ 1155
μευ@@ 1155
τονία 1155
τραγωδία 1155
ψι@@ 1155
Film 1154
Πασάς 1154
γκου 1154
εσωτερικού 1154
κοινές 1154
νηστ@@ 1154
σπάνιο 1154
συνθήκης 1154
Εκτελε@@ 1153
έπεσαν 1153
ανακτήσει 1153
αποτυχημένη 1153
εγχώ@@ 1153
επιφάνειες 1153
μετρι@@ 1153
ρωσης 1153
σιά 1153
στρα 1153
συνοικ@@ 1153
Αμερικανοί 1152
Ανώ@@ 1152
Ελεονώρα 1152
Πηγή 1152
Ταϊ@@ 1152
αραι@@ 1152
διέφυγε 1152
κ.@@ 1152
κατοικίας 1152
μετατρέπεται 1152
μουσουλμάνοι 1152
πολλ@@ 1152
πραγματοποίησαν 1152
προέβλεπε 1152
τήρα 1152
Tr@@ 1151
Ιταλοί 1151
Ωκε@@ 1151
έμπνευση 1151
επιχειρησι@@ 1151
λαγ@@ 1151
μυελ@@ 1151
οποίον 1151
περιοδ@@ 1151
ράκ@@ 1151
σταθερότητα 1151
υπεύθυνο 1151
φέρνει 1151
Μπομπ 1150
Οδού 1150
έχτισε 1150
ακολούθως 1150
θέρ@@ 1150
ιστικός 1150
κβαν@@ 1150
προϋποθέσεις 1150
τουρκικού 1150
τριες 1150
υδρογον@@ 1150
12.@@ 1149
Λάι@@ 1149
αντίθετο 1149
αφιερωμένος 1149
εισιτήρια 1149
μοιράζονται 1149
μυστικά 1149
ολοκλήρω@@ 1149
πολυτελ@@ 1149
τέκ@@ 1149
υποδομής 1149
χρυσή 1149
Ανάπτυξη 1148
Βερν@@ 1148
γάτες 1148
γενέτειρά 1148
διάσκεψη 1148
εγκατεστη@@ 1148
ευθεία 1148
καρ 1148
τζε 1148
τσες 1148
Ιταλούς 1147
Φλώρινας 1147
απορρί@@ 1147
αρσεν@@ 1147
δραστηρι@@ 1147
είν@@ 1147
επισκέπτης 1147
ματός 1147
πρόσφατες 1147
σωματίδια 1147
σύνοδο 1147
τίτλοι 1147
υποχρεωτική 1147
ωνο 1147
Κάρλο 1146
Κλη@@ 1146
Μπράν@@ 1146
αγαθών 1146
ασθενής 1146
επιδρομή 1146
πολεμήσει 1146
σοβ@@ 1146
σύγχρονους 1146
υπέφερε 1146
4,@@ 1145
Αλέ@@ 1145
Αλφόνσο 1145
ΕΠΟ 1145
Μοντε@@ 1145
δόση 1145
ιαπωνικά 1145
κορυφαίο 1145
ορίων 1145
οργανική 1145
ποιητική 1145
τελευταίους 1145
τσιο 1145
Al 1144
Άνχαλτ 1144
Αστεροσκοπείο 1144
Ουγγρ@@ 1144
ανασκαφ@@ 1144
αφαι@@ 1144
βαπ@@ 1144
κατέφυγαν 1144
κλήρωση 1144
λων 1144
σουηδ@@ 1144
ταυτότητας 1144
Δομιν@@ 1143
Λοθ@@ 1143
ΜΜΕ 1143
Φερν@@ 1143
έρχονταν 1143
αφενός 1143
βοταν@@ 1143
γλυκ@@ 1143
χωρίζει 1143
Γραφείου 1142
Εσθονίας 1142
Κυπριακής 1142
Σαχ 1142
ανατολικού 1142
αρχείου 1142
καθολικό 1142
καλοκαιριού 1142
λαϊκής 1142
μένας 1142
μελέτησε 1142
νίκης 1142
προκριθεί 1142
Euro 1141
Your 1141
Κογκρέσου 1141
αναζη@@ 1141
διεξαχθεί 1141
επιχείρημα 1141
μεταξ@@ 1141
πλανήτες 1141
υδάτων 1141
ΕΟ@@ 1140
Νομοθε@@ 1140
Τίτο 1140
αγκά@@ 1140
αεροπλάνο 1140
απομακρύν@@ 1140
γενιές 1140
γύρους 1140
εμπόδια 1140
ούχων 1140
πολλαπλών 1140
πτηνών 1140
τερη 1140
1853 1139
Tour 1139
Ρενέ 1139
Σπαρτιάτες 1139
ήπειρο 1139
λίρες 1139
πελάτες 1139
ταξιδιού 1139
τουρκικής 1139
³ 1138
ΕΔ@@ 1138
ανοιχτή 1138
γεφ@@ 1138
εριν@@ 1138
θέας 1138
ιερού 1138
κόκκινη 1138
μαθητή 1138
νοτιοανατολική 1138
περιφερειακή 1138
σταυρό 1138
στρατο@@ 1138
ταξε 1138
Βόν@@ 1137
Κόμης 1137
αναγνώρισης 1137
αποκορύφωμα 1137
επένδυση 1137
κρυμ@@ 1137
μις 1137
μονό@@ 1137
ολό@@ 1137
προσαρμοσ@@ 1137
σχολείων 1137
τουρίστες 1137
1793 1136
OS 1136
Un@@ 1136
Άλφρεντ 1136
Βουν@@ 1136
Ιερός 1136
Ιωάννινα 1136
ίσσ@@ 1136
γραπ@@ 1136
εικόνων 1136
τριτο@@ 1136
Αιμ@@ 1135
Ακρόπολη 1135
Δοκ@@ 1135
Ερζεγοβίνη 1135
ανάμεσά 1135
βουλευτών 1135
κόκ@@ 1135
πιστός 1135
πτω@@ 1135
ρίδια 1135
υποκριτική 1135
ανανέωση 1134
βαθμολογ@@ 1134
ιστες 1134
ρίσει 1134
σχηματισμός 1134
Τέιλορ 1133
Υπηρεσίας 1133
αποκαταστάθηκε 1133
διάγραμμα 1133
διαμορφώθηκε 1133
εκκλησιών 1133
επεν@@ 1133
θέντα 1133
καθορίζει 1133
κατανομής 1133
μοναχοί 1133
τζερ 1133
φθάσει 1133
φθορ@@ 1133
Blue 1132
Κρα@@ 1132
Μού@@ 1132
Πρέμιερ 1132
Σέρβοι 1132
ένοπλες 1132
δοβ@@ 1132
εξοχ@@ 1132
κατάρ@@ 1132
κωδικό 1132
παράδ@@ 1132
στρατηγικής 1132
υγρού 1132
όβιο 1132
ot@@ 1131
Αμερικάν@@ 1131
Βουκουρέστι 1131
Κεν@@ 1131
Πριγκίπισσα 1131
ερα 1131
ευγενή 1131
μεταφέρεται 1131
νόμοι 1131
ογενείς 1131
τεία 1131
Μπούν@@ 1130
Φρίντριχ 1130
Χάμ@@ 1130
βετερ@@ 1130
ράκη 1130
Θερ@@ 1129
Σάου@@ 1129
βράχο 1129
μαθή@@ 1129
παραστ@@ 1129
πυρην@@ 1129
τρένο 1129
Είχαν 1128
διαμαρτυρ@@ 1128
εγχείρημα 1128
επανάληψη 1128
ερειπ@@ 1128
ικερ 1128
ποικιλίες 1128
σελ. 1128
σιακές 1128
1849 1127
Ασκ@@ 1127
Ζακύνθου 1127
Τζόζεφ 1127
Φιλελευθέρων 1127
ήσια 1127
αθλητική 1127
δεχόταν 1127
ηλικ@@ 1127
θέλουν 1127
ιδίων 1127
κτήμα 1127
πολυάριθμες 1127
ταιν@@ 1127
1837 1126
Διαθήκης 1126
Κέι@@ 1126
Καραμανλή 1126
Στεν@@ 1126
αστρονόμος 1126
κατώτερ@@ 1126
μετάδοσης 1126
ντόπ@@ 1126
τητα 1126
υποστηρι@@ 1126
χιλιάδων 1126
NASA 1125
Park 1125
Βουλγάρων 1125
Κοινοπολιτείας 1125
Σλοβ@@ 1125
έκτο 1125
αια 1125
αρνητικές 1125
ιδρυτές 1125
λογικό 1125
μπαρ 1125
ομέ@@ 1125
παραδώσει 1125
τρομοκρατ@@ 1125
4,5 1124
Εδουάρδο 1124
Πράγα 1124
ίλια 1124
γενικής 1124
εγκαταλείψουν 1124
καναλιού 1124
ουντ@@ 1124
τερματίσει 1124
os@@ 1123
Πολωνούς 1123
διαγωνισμός 1123
διαλέξεις 1123
ειο@@ 1123
ετυμ@@ 1123
κά 1123
οτεχν@@ 1123
τούρ@@ 1123
φράγμα 1123
11ου 1122
Day 1122
Thomas 1122
ya 1122
ΒΑ. 1122
Κεντ 1122
Νεφ@@ 1122
Χόλιγουντ 1122
άτι@@ 1122
έιρα 1122
ανάληψη 1122
γκρουπ 1122
ηλεκτρονική 1122
κάν 1122
περίπλοκ@@ 1122
φού@@ 1122
φτιάχν@@ 1122
Γρεβενών 1121
Μαϊ@@ 1121
Ταινίας 1121
διαφων@@ 1121
κατέρρευσε 1121
κατώ@@ 1121
μαρξ@@ 1121
οικισμών 1121
ρυθμούς 1121
συμπο@@ 1121
τῆς 1121
χαθεί 1121
Κρό@@ 1120
Σώ@@ 1120
αντάρ@@ 1120
αντιπάλων 1120
ανώτα@@ 1120
βορει@@ 1120
διου 1120
καθηγήτρια 1120
κώδικας 1120
ορειν@@ 1120
περιπτώσεων 1120
σημερινός 1120
στοιχείου 1120
τοποθε@@ 1120
ti 1119
Ανδρ@@ 1119
Τουρκική 1119
ανταποκρι@@ 1119
γκι@@ 1119
διαπίστωσε 1119
δυλ@@ 1119
επεισοδίων 1119
κατάστασή 1119
κύριοι 1119
μουσικού 1119
παρατηρήθηκε 1119
πλούσι@@ 1119
προσωπικές 1119
συνεται@@ 1119
υποσχέθηκε 1119
11.@@ 1118
Αλεξανδ@@ 1118
Θρ@@ 1118
Χίο 1118
εκλογ@@ 1118
ηπειρω@@ 1118
ινγκτον 1118
μετρική 1118
ολιθ@@ 1118
ουμένων 1118
πλάτους 1118
στοιχει@@ 1118
τακτικές 1118
τριας 1118
Κέλ@@ 1117
αλβαν@@ 1117
ανεξ@@ 1117
αντιπαράθεση 1117
επιτύχει 1117
μπαίνει 1117
παραχθεί 1117
πεποιθήσεις 1117
τζαζ 1117
τικο@@ 1117
Sonic 1116
Αμπντούλ 1116
Ατλαντικού 1116
Γύ@@ 1116
Λυών 1116
Τρίπολη 1116
Χρονιάς 1116
έμπορος 1116
ακίν@@ 1116
αντίπαλος 1116
εκτελεί 1116
εφευρέ@@ 1116
θυμάτων 1116
καλοκαίρια 1116
οφιλ@@ 1116
πρωτεϊνών 1116
συμπερ@@ 1116
σχηματίζονται 1116
ακούς 1115
αναγνωριστεί 1115
αργύρου 1115
διευθύν@@ 1115
λεμφ@@ 1115
μεταγενέστερα 1115
ξεπερ@@ 1115
ομοιότητες 1115
101 1114
Χαλκίδα 1114
ίτσι 1114
διεργασίες 1114
επέβαλε 1114
συνηθισμένη 1114
υγρά 1114
COVID 1113
Μουσταφά 1113
ΠΑΣ 1113
εκλογικό 1113
κοντινό 1113
περιβάλλοντα 1113
πρωτοπ@@ 1113
φαινόταν 1113
όρκο 1113
ώσπου 1113
CH3@@ 1112
Άξονα 1112
Ματθίλδη 1112
Ροζ@@ 1112
Ρόζ@@ 1112
άνκα 1112
καβ@@ 1112
κατάληξη 1112
προκάτο@@ 1112
τεύχος 1112
χρυσός 1112
Αλεξανδρείας 1111
Διοικητής 1111
Ναύπλιο 1111
Παπα@@ 1111
Πρώιμη 1111
Συνδέσμου 1111
Συνθήκης 1111
βίζ@@ 1111
επιλέξει 1111
προχω@@ 1111
1806 1110
Qu@@ 1110
Ημι@@ 1110
Τολ@@ 1110
βορειοδυτική 1110
θερμότητας 1110
οργανώσεων 1110
τοπικούς 1110
χριστιανικό 1110
Μαργαρίτας 1109
Μπόρ@@ 1109
Ντέν@@ 1109
Ρήνου 1109
επισκ@@ 1109
μισε 1109
μοναχούς 1109
νοσ@@ 1109
ξεκίνημα 1109
φρούτα 1109
Football 1108
ac@@ 1108
Κυρί@@ 1108
Ροδόπης 1108
εκδηλώσεων 1108
εκστρατ@@ 1108
καυσίμου 1108
παρατηρούνται 1108
τοποθετούνται 1108
όψ@@ 1108
Περιφερ@@ 1107
δύσκολα 1107
ετο 1107
κίονες 1107
ογράφ@@ 1107
υφυπουργός 1107
ύψ@@ 1107
33@@ 1106
Δαμ@@ 1106
Μιχ@@ 1106
αυγ@@ 1106
διοικητές 1106
ελεύθερης 1106
μέτρου 1106
οροσειράς 1106
ρους 1106
Αλεξάν@@ 1105
Λευκορωσία 1105
Μεκλεμβούργου 1105
Μεταξά 1105
άντας 1105
έφτανε 1105
ανθρωπιστ@@ 1105
ευσαν 1105
θεωρητικά 1105
λογαρι@@ 1105
μερικώς 1105
μοναστηριού 1105
στάσεις 1105
τιων 1105
Warner 1104
Αξ@@ 1104
Δικαιωμάτων 1104
Λαβ@@ 1104
άρε@@ 1104
ενισχύσει 1104
επανειλημμένα 1104
κατακτά 1104
καταλή@@ 1104
ληση 1104
ξεκ@@ 1104
περίφημ@@ 1104
σηκ@@ 1104
σολ@@ 1104
.Ο 1103
1.500 1103
Ανατολικών 1103
Εστ@@ 1103
Λίγες 1103
ήνες 1103
αναμετρήσεις 1103
κρέατος 1103
ορά 1103
σωματείου 1103
1831 1102
δουλειές 1102
δρόμοι 1102
εύονταν 1102
λογικές 1102
ρεμ@@ 1102
σιδηροδρομικό 1102
στέψη 1102
τo 1102
φιλοξενήσει 1102
Άρχισε 1101
Τόρ@@ 1101
έκφρασης 1101
δυνατ@@ 1101
κατατάσσεται 1101
παντρεμένη 1101
υποστηρίζεται 1101
Βλάχ@@ 1100
έδρασε 1100
ανάγεται 1100
αρχαιο@@ 1100
βυζαντινό 1100
εξώφυλλο 1100
ισχύ@@ 1100
καταστραφεί 1100
καυσίμων 1100
προοριζόταν 1100
τατουάζ 1100
χλωρο@@ 1100
1857 1099
7.000 1099
Martin 1099
Άγ@@ 1099
Αρε@@ 1099
Βρισκόταν 1099
Γλώσσα 1099
Κάμ@@ 1099
Κορυφ@@ 1099
αυλής 1099
διοξείδιο 1099
θρησκευ@@ 1099
στάλθηκαν 1099
στηρί@@ 1099
am@@ 1098
Άλμπερτ 1098
Αρκετοί 1098
Γιαν@@ 1098
Καλαμάτας 1098
έρου 1098
αναζήτησης 1098
αξιοσημείωτη 1098
διπλωματικές 1098
εκδίδει 1098
ενοποίηση 1098
εύκολη 1098
κατεστραμ@@ 1098
μαλλ@@ 1098
μοναρχία 1098
οποιήσεις 1098
παράταξη 1098
πολιτιστικές 1098
πορτρέτα 1098
σμούς 1098
1792 1097
Όρη 1097
Βουδαπέστη 1097
Κονγκό 1097
Παυσανίας 1097
Περσών 1097
αποδεικνύεται 1097
ητεία 1097
κατατά@@ 1097
μεταναστευ@@ 1097
μονοπάτι 1097
οδον@@ 1097
προσάρτηση 1097
στόχ@@ 1097
συμμετρ@@ 1097
Εγκ@@ 1096
ηγεμόνες 1096
θεάς 1096
καρα@@ 1096
κόλ@@ 1096
μακροχρόνια 1096
ουστ@@ 1096
οφυλ@@ 1096
πολύτιμ@@ 1096
ρεν 1096
σύμπ@@ 1096
φορτίου 1096
Per@@ 1095
Μεσολογγίου 1095
Παρισίων 1095
άκων 1095
έριο 1095
αναδείχτηκε 1095
εκτίθενται 1095
εξεγέρσεις 1095
ιμα 1095
μιγαδ@@ 1095
περίμενε 1095
περιπέτειες 1095
σωματική 1095
τέτοιων 1095
χιλιοστά 1095
Les 1094
Βίσ@@ 1094
Ειρηνικό 1094
Οδηγ@@ 1094
Φράνκο 1094
αγόρια 1094
γνωρίζοντας 1094
ηλεκτ@@ 1094
νεαρ@@ 1094
ολοκληρώθηκαν 1094
ορυκτά 1094
περιεκτικότητα 1094
στικούς 1094
υπηρετεί 1094
χάλκινα 1094
Λαγ@@ 1093
αγγελι@@ 1093
διηγ@@ 1093
διορισμό 1093
μυαλό 1093
σύνδεσης 1093
τομία 1093
αποδείξεις 1092
επιστροφής 1092
πολεοδομ@@ 1092
Δευτέρα 1091
αποθέματα 1091
γίγ@@ 1091
ιμπν 1091
οξέων 1091
ριστή 1091
χμ 1091
Θανάσης 1090
Κομητεία 1090
Λειτουργ@@ 1090
Ρουμάν@@ 1090
αμφί@@ 1090
αριστοκρατ@@ 1090
διαμερίσματος 1090
δοκι@@ 1090
εχθρ@@ 1090
μεσογ@@ 1090
νομούς 1090
ξύ@@ 1090
συγκεντρώθηκαν 1090
ale 1089
ino 1089
Όλγα 1089
Της 1089
ήρος 1089
απολύ@@ 1089
αποχώρησαν 1089
γος 1089
δόγ@@ 1089
κρίν@@ 1089
κρατά 1089
πολί@@ 1089
στού 1089
τρόπ@@ 1089
Βυζαντινοί 1088
Χρονικό 1088
αγαθά 1088
αρχαιολογικό 1088
ειδικός 1088
εργαζομένων 1088
κατακτη@@ 1088
κινηματογραφ@@ 1088
νή 1088
παραίτησή 1088
σημείων 1088
στρατιωτικούς 1088
σύμπαν 1088
τίμησε 1088
φωλιά 1088
χριστιανοί 1088
Αίθουσα 1087
Στοιχεία 1087
άδο 1087
δικαστήρια 1087
επηρεάζουν 1087
μελή 1087
μοσχ@@ 1087
ποικίλ@@ 1087
πολίτης 1087
προϊόντος 1087
συμμαχίας 1087
ότερ@@ 1087
ώνυμο 1087
1789 1086
OH 1086
Άλλ@@ 1086
ακτο@@ 1086
επικρατ@@ 1086
ηλεκτρονικών 1086
ναλ 1086
φρουρίου 1086
ur@@ 1085
Άγγλοι 1085
Διαμέρισμα 1085
Κορν@@ 1085
Μάικ 1085
άντων 1085
εκδόσεων 1085
ικισμό 1085
κύρος 1085
ματικούς 1085
σκορ@@ 1085
τοποθετήθηκαν 1085
Έως 1084
Ίδρυση 1084
Αγγλική 1084
αρχικός 1084
κανόνων 1084
κριτικών 1084
μικροσκοπ@@ 1084
πύργους 1084
σεισμός 1084
συνάδελφ@@ 1084
Κάιρο 1083
Πλέ@@ 1083
Φυσική 1083
απήχηση 1083
αυξήσει 1083
διασημ@@ 1083
επέκτασης 1083
επικεντρ@@ 1083
καταπι@@ 1083
παρατήρησε 1083
τηλεοπτικής 1083
ωφ@@ 1083
όχων 1083
Louis 1082
Άργους 1082
Βουδι@@ 1082
ΝΔ 1082
Πρωσία 1082
Πόν@@ 1082
Σημαντικ@@ 1082
ανθρώπινες 1082
αποχώρησή 1082
διαμαρτυρίες 1082
επαναστατ@@ 1082
ιδιωτικές 1082
κερδ@@ 1082
κινήθηκε 1082
λού@@ 1082
νομισμάτων 1082
φόρων 1082
Απελευθερ@@ 1081
Γκαν@@ 1081
Δηλαδή 1081
Δομή 1081
Οιν@@ 1081
Φωκίδας 1081
Χρυσής 1081
γραφών 1081
δακτύλιο 1081
μειώσει 1081
ρασαν 1081
σχεδι@@ 1081
υπόγ@@ 1081
no 1080
Αντώνη 1080
έβαλαν 1080
βαθμοί 1080
δορυφορ@@ 1080
λογότυπο 1080
μαζε 1080
οκρα@@ 1080
ούταν 1080
τηλεοπτικά 1080
Επτά 1079
Θεωρία 1079
γενετική 1079
δεσμ@@ 1079
ενισχύσεις 1079
θώ@@ 1079
σχεδίαζε 1079
CH3 1078
Κόμη 1078
Μακεδόνες 1078
Οξφόρδης 1078
αφηρη@@ 1078
διαδεδομένη 1078
ιδρυθεί 1078
καταστατικό 1078
προνομ@@ 1078
ρίδη 1078
ρρο@@ 1078
στάνταρ 1078
τήθηκαν 1078
ῦ@@ 1078
9,@@ 1077
em 1077
Βαρκελώνη 1077
Μπέρν@@ 1077
Ρον@@ 1077
Στρατιάς 1077
απεικονίζουν 1077
επισκευ@@ 1077
μποργκ 1077
μόνες 1077
συνεισ@@ 1077
τολόγ@@ 1077
Richard 1076
ad@@ 1076
Μουρ 1076
θάλαμο 1076
θέντων 1076
καρδιάς 1076
λύκειο 1076
Βυζαντινός 1075
Κορινθίας 1075
βρετανικού 1075
γραφίες 1075
ετι@@ 1075
ευφυ@@ 1075
ζευγ@@ 1075
όντος 1075
AL@@ 1074
Br@@ 1074
άγια 1074
αντιμετωπίσουν 1074
αποδείξει 1074
ηλεκτρικού 1074
ηχογράφησαν 1074
πολιτο@@ 1074
πτηνό 1074
σιακό 1074
υποστήριζαν 1074
Li@@ 1073
Κυβερνήτη 1073
Πολιτισμός 1073
Ραχ@@ 1073
Συλλογ@@ 1073
αρχίες 1073
γενικού 1073
ενήλ@@ 1073
επικράτηση 1073
καλός 1073
περνούν 1073
τάκης 1073
χειροτονήθηκε 1073
1847 1072
Δρ. 1072
Κι 1072
Φιλι@@ 1072
άξει 1072
έζε 1072
αιτίας 1072
ανοίξει 1072
διαπρά@@ 1072
ελο 1072
κορε@@ 1072
παγαν@@ 1072
περιγράφονται 1072
προσωπο@@ 1072
σού 1072
τώ 1072
χρειάστηκε 1072
Bo@@ 1071
it@@ 1071
ne 1071
έλου 1071
έφθασαν 1071
αλιεία 1071
ανεξάρτητες 1071
ζωντανές 1071
κατακτήσεις 1071
λντ 1071
στων 1071
τύμπανα 1071
Βλαντιμίρ 1070
Κινεζ@@ 1070
απω@@ 1070
εύκολο 1070
ικανή 1070
London 1069
έψουν 1069
αλκοόλ 1069
βασης 1069
δεξαμενή 1069
εβο 1069
επανδρ@@ 1069
εχτ 1069
σκάνδαλο 1069
σχεδιαστής 1069
ὶ 1069
Αυτοκρατορ@@ 1068
Προοδευ@@ 1068
δικαιοσύνη 1068
εβραϊκ@@ 1068
εναλλ@@ 1068
εντοπιστεί 1068
κρου@@ 1068
μεταρρυθμ@@ 1068
μοτίβα 1068
σημαίας 1068
υποταγή 1068
όλας 1068
El@@ 1067
Αρχηγ@@ 1067
Σαμ 1067
ατη 1067
γρί@@ 1067
επαναστατική 1067
θήκης 1067
μοι 1067
ονομασίας 1067
ρί 1067
Βέν@@ 1066
Δίας 1066
Δεκα@@ 1066
ειδήσεων 1066
ζού@@ 1066
θηλ@@ 1066
κανέναν 1066
μεταπτυχιακό 1066
μπού 1066
νόμιμη 1066
ρίν 1066
στεγάζει 1066
Έσ@@ 1065
Γέφυρα 1065
Δικαστηρίου 1065
Κριτικών 1065
Συμεών 1065
Χωρών 1065
αποκλει@@ 1065
διαστημικό 1065
εξακολουθούσε 1065
επιβί@@ 1065
κανόνας 1065
λόρ@@ 1065
μιλάει 1065
ουλ 1065
ϊκού 1065
th@@ 1064
Αυγουστ@@ 1064
Σύρου 1064
Τσεχοσλοβακία 1064
Φλά@@ 1064
ίρη 1064
ακυρ@@ 1064
αφοσι@@ 1064
διεκδικήσει 1064
δικαστική 1064
θέν@@ 1064
ιδιοκτήτη 1064
κυμάτων 1064
κυμαίνονται 1064
πλησίον 1064
ταξη 1064
τουρκικές 1064
φωνές 1064
Κυκλ@@ 1063
Χιλή 1063
έμποροι 1063
γο 1063
εκδηλ@@ 1063
κοσμήματα 1063
σηματοδο@@ 1063
q@@ 1062
Μπάντεν 1062
Σωτήρος 1062
αφιέρωσε 1062
εκτεταμένες 1062
ερευνη@@ 1062
τούμενο 1062
όκι 1062
όπλ@@ 1062
όσων 1062
Σταύρος 1061
Ταγ@@ 1061
έικ 1061
ίσο 1061
αποκλεί@@ 1061
αυξαν@@ 1061
θερμότητα 1061
μαθηματ@@ 1061
μαθηματικός 1061
μεθάνιο 1061
υλών 1061
χωρίστηκε 1061
ΑΠΟΕΛ 1060
Θεατρ@@ 1060
Κίεβο 1060
Παλαιό 1060
Στίβεν 1060
Τηλ@@ 1060
αποτυχ@@ 1060
ισραηλ@@ 1060
κιού 1060
κρατούσε 1060
μεριά 1060
προετοιμ@@ 1060
τεχνητή 1060
Επίσημη 1059
Εύβοια 1059
Μυλ@@ 1059
θεολογία 1059
καλύπτονται 1059
μελές 1059
ούμ 1059
πολεμικής 1059
υζ@@ 1059
χτεί 1059
όπτερα 1059
Bal@@ 1058
Peter 1058
St 1058
Ελληνικές 1058
Επισκοπή 1058
έστερα 1058
ζεύγη 1058
καταστρέψει 1058
καταφύγει 1058
κατορθ@@ 1058
τέτοιου 1058
ψήφισαν 1058
ϊκής 1058
όμος 1058
ΑΠ@@ 1057
Αριστο@@ 1057
Πολιτεία 1057
αεροσκάφους 1057
αθλήτριες 1057
δίας 1057
εμπιστοσύνη 1057
επ 1057
παρατηρού@@ 1057
πλοκ@@ 1057
τρό@@ 1057
χορός 1057
ani 1056
Κω@@ 1056
Ντομ@@ 1056
απεικονίσεις 1056
απογραφής 1056
αριθμεί 1056
βλέπουν 1056
γενναι@@ 1056
πατρίδας 1056
πολέμησαν 1056
σιμ@@ 1056
χης 1056
~ 1055
Ζηλανδίας 1055
Κιμ 1055
Σαλαμίνα 1055
Τάρ@@ 1055
Χαϊ@@ 1055
ακτ@@ 1055
απευθύν@@ 1055
επιτυγχάνεται 1055
ερυθρ@@ 1055
σπάνιες 1055
σπουδαία 1055
στέλνει 1055
1855 1054
Βασίλισσας 1054
Μπατ@@ 1054
αιτήματα 1054
γραφείου 1054
γωνίες 1054
καταδίκη 1054
πολιτιστικής 1054
General 1053
Βυζαντινό 1053
ανεξάρτητος 1053
εκπροσωπείται 1053
ερασιτεχνική 1053
ιλς 1053
κομμουνιστές 1053
μόνοι 1053
ροποι@@ 1053
συλλογικό 1053
υποδύθηκε 1053
Μπάτ@@ 1052
Σερβικής 1052
έλευση 1052
αξιωματούχοι 1052
ειακός 1052
ευρύτερο 1052
ζο 1052
ούλας 1052
πλοι@@ 1052
στέγη 1052
συγκρότηση 1052
υπερβ@@ 1052
ότζ@@ 1052
Αντιπρόεδρος 1051
Απογραφή 1051
Βαλουά 1051
Κιρ@@ 1051
Στι@@ 1051
αίνεται 1051
αναβαθμ@@ 1051
αφετέρου 1051
γένη 1051
εξέχ@@ 1051
επιβεβαιώθηκε 1051
κατακόρυφ@@ 1051
μυστηρι@@ 1051
οξι@@ 1051
οστών 1051
ουρα@@ 1051
σημειώθηκαν 1051
3ης 1050
play 1050
te 1050
Κε@@ 1050
ήνης 1050
ίσουμε 1050
δωρεά 1050
ειπ@@ 1050
επαφής 1050
επηρεάσει 1050
θυγατρική 1050
ιτσ@@ 1050
καθορίζεται 1050
κατοικούν 1050
μέρ@@ 1050
προγενέστερ@@ 1050
τίζονται 1050
ωρών 1050
Show 1049
ΚΟ 1049
Λάνκαστερ 1049
Ορο@@ 1049
Ρεθύμνης 1049
Τέν@@ 1049
δουλεύει 1049
παρασ@@ 1049
ψίας 1049
12η 1048
1600 1048
Μπαχ 1048
Ντόν@@ 1048
Οξιτανίας 1048
Πολεμικό 1048
Φιν@@ 1048
ήρα 1048
αθω@@ 1048
δεσ@@ 1048
διαστημ@@ 1048
δολοφονίες 1048
κήπους 1048
μάρτυρας 1048
προέκυψαν 1048
τοποίησης 1048
Bar@@ 1047
Αλκ@@ 1047
Ισλανδία 1047
Οδ@@ 1047
γράφος 1047
δυαδ@@ 1047
εξαπλ@@ 1047
επτα@@ 1047
οκτ@@ 1047
ομοί@@ 1047
σμά 1047
σταδιακή 1047
Lord 1046
Αγίους 1046
Αθλητική 1046
Λευκάδας 1046
Τρω@@ 1046
αστρονομία 1046
θήκες 1046
ιλι 1046
κτλ. 1046
νοτιοδυτική 1046
συμβατ@@ 1046
συνδικαλι@@ 1046
τουρκο@@ 1046
τραυματισμό 1046
15.000 1045
st@@ 1045
Αδελαΐδα 1045
Ακρο@@ 1045
Γενεύης 1045
Ημερ@@ 1045
ΙΚ@@ 1045
Νείλου 1045
Σακ@@ 1045
δει@@ 1045
διάσ@@ 1045
κατασκοπ@@ 1045
ολα 1045
προσφυγ@@ 1045
σαρκοφ@@ 1045
χρησιμοποιήσουν 1045
Κορινθ@@ 1044
αριστοκρατία 1044
γραφικών 1044
θυγατρ@@ 1044
μονάδας 1044
παθη@@ 1044
προσανατολισμό 1044
στε@@ 1044
Αθλητισμός 1043
Μεσσ@@ 1043
Μπόλ@@ 1043
Τιρ@@ 1043
άμβ@@ 1043
αχθεί 1043
βοήθειας 1043
βρύ@@ 1043
ελβε@@ 1043
καλλ@@ 1043
μερίδιο 1043
στερη 1043
from 1042
Μολδαβία 1042
Προστασίας 1042
Σουλεϊμάν 1042
αιρ@@ 1042
ανάγνωση 1042
ανεπτυγ@@ 1042
διμερ@@ 1042
εξαπ@@ 1042
επαναλ@@ 1042
θεωρού@@ 1042
θηλαστικά 1042
καταστήσει 1042
ναύαρχος 1042
οποιημένο 1042
προσαρ@@ 1042
Χάουαρντ 1041
αναπληρω@@ 1041
βλήθηκε 1041
μαϊκ@@ 1041
σχεδίαση 1041
Ανάλογα 1040
Κόκκινο 1040
Ορέ@@ 1040
έρος 1040
διέθεταν 1040
εισέλθει 1040
ενεργός 1040
εστιατόρια 1040
ηθικό 1040
κηρύχθηκε 1040
ουκραν@@ 1040
ριακός 1040
1852 1039
Mega 1039
kg 1039
Αντιθέτως 1039
Μεγάλες 1039
Ολυμπιακή 1039
Συμμετοχή 1039
Χριστός 1039
άτσι 1039
αγόρ@@ 1039
επαναστά@@ 1039
καταλύ@@ 1039
κριτικοί 1039
τουριστικό 1039
Άτ@@ 1038
Βιομηχαν@@ 1038
Γότ@@ 1038
Δημόσιας 1038
Ελευθερία 1038
Μαύρης 1038
Τελευταία 1038
ασχολ@@ 1038
βρεθούν 1038
ηφαίστειο 1038
στρο 1038
στρογγυλ@@ 1038
τάζ 1038
υποτελ@@ 1038
ύλα 1038
gr 1037
Σοβιετικοί 1037
αιμία 1037
ακερ@@ 1037
αναστολή 1037
αξιοσημείωτο 1037
βιοτεχν@@ 1037
ευρίσκεται 1037
προφέρεται 1037
υλοποίηση 1037
ώθηση 1037
Com@@ 1036
Ζα@@ 1036
Νατ@@ 1036
άνονται 1036
θης 1036
θρησκευτικής 1036
νταμπλ 1036
ριστές 1036
σεισμ@@ 1036
συζη@@ 1036
συσχε@@ 1036
Mor@@ 1035
oc@@ 1035
Χιλι@@ 1035
αριστερ@@ 1035
βιβλ@@ 1035
διαθέσιμες 1035
τυ 1035
χαλαρ@@ 1035
ψήφισμα 1035
ώντα 1035
Αγγ@@ 1034
Δημοτικής 1034
Ελληνο@@ 1034
Καλαμάτα 1034
Καραβ@@ 1034
Πυρ@@ 1034
Χατ@@ 1034
άρχοντες 1034
αρία 1034
τίζει 1034
Εβ@@ 1033
Σιδηροδρομικός 1033
αναδρομή 1033
δραπέτευσε 1033
ηλεκτρομαγνη@@ 1033
ηνού 1033
θες 1033
προημιτελικά 1033
προκλήθηκε 1033
προπ@@ 1033
id@@ 1032
Έρευνας 1032
Αρκετά 1032
Κλαρκ 1032
αγοράστηκε 1032
ανακαλύ@@ 1032
αντρ@@ 1032
ανώτερ@@ 1032
δεκτή 1032
μοιρά@@ 1032
πάλη 1032
σταμάτησαν 1032
συνθέ@@ 1032
ea 1031
Διαδίκτυο 1031
Ηγε@@ 1031
Σόλ@@ 1031
έπαψε 1031
βακτήρια 1031
δοκιμή 1031
επέζησε 1031
ερευνών 1031
μπολ@@ 1031
οδι@@ 1031
συνολικός 1031
τέρας 1031
υγρασία 1031
220 1030
Σχετικά 1030
Τσεχία 1030
αθλητικές 1030
αντίθε@@ 1030
ησής 1030
μάρτυρες 1030
οχωρίου 1030
παραβι@@ 1030
τίες 1030
χερσ@@ 1030
όγλου 1030
re@@ 1029
us@@ 1029
Δύσης 1029
Λήμνου 1029
Ντόρ@@ 1029
Χριστιανούς 1029
ισό@@ 1029
στιγμής 1029
σύγχρονος 1029
ταύ@@ 1029
φάλ@@ 1029
Αλπ 1028
Επαγγελματική 1028
Ιάπωνες 1028
γράφηση 1028
θαλάσσιο 1028
μέν 1028
μελι@@ 1028
μοτίβο 1028
πύργου 1028
τιτς 1028
όμ 1028
PlayStation 1027
sh@@ 1027
Άντερσον 1027
Γενικές 1027
Γεννημένος 1027
Επίσκοπος 1027
Οξ@@ 1027
διασχ@@ 1027
καταχωρ@@ 1027
κοινοβουλευτική 1027
ορίζονται 1027
πλαγιά 1027
τάσης 1027
φωσφορ@@ 1027
mg 1026
Βαλένθια 1026
Ναβάρρας 1026
επαναληπ@@ 1026
κατέστρεψαν 1026
νεαρού 1026
πι 1026
πολιτισμούς 1026
προστάτη 1026
συνδυάζει 1026
τσέν@@ 1026
φάνηκε 1026
όρις 1026
Αναστάσιος 1025
Μουσολίνι 1025
Σεργκέι 1025
ήχους 1025
ίσκος 1025
γέννησης 1025
διαχωρισμό 1025
επαιν@@ 1025
κύτταρο 1025
λεσ@@ 1025
Αλεξάνδρα 1024
Σιγισμ@@ 1024
άρματα 1024
έλλι 1024
αγγλικής 1024
ακρωτήριο 1024
αλυσίδας 1024
αντικειμένου 1024
βι 1024
δὲ 1024
εκτέλεσε 1024
επομένη 1024
μέγ@@ 1024
μεθόδων 1024
μηνύματα 1024
πιστοί 1024
φόντο 1024
Παλαιστίνη 1023
Χριστο@@ 1023
ίνοι 1023
εμπιστοσύνης 1023
ευρισκ@@ 1023
ξεχωριστές 1023
πιά 1023
πινάκων 1023
ρισμό 1023
σύνθε@@ 1023
200.000 1022
Be@@ 1022
Αριστοτέλης 1022
Γκορ@@ 1022
Λουίς 1022
Ντάγκλας 1022
Ντυ@@ 1022
έλα@@ 1022
ανθρωπο@@ 1022
αντίποινα 1022
αποφασίσει 1022
γκέτο 1022
διετία 1022
ηλεκτρονικά 1022
λόγων 1022
οργανώθηκε 1022
πιθανές 1022
συνδεθεί 1022
υαλ@@ 1022
1204 1021
ra 1021
Διασ@@ 1021
Εξωτερ@@ 1021
Μιρ@@ 1021
Μοχ@@ 1021
Πτολεμαίου 1021
Συμμετέχει 1021
ανακήρυξε 1021
ευαισθη@@ 1021
ιππ@@ 1021
κατασκευάσει 1021
λιους 1021
πετρ@@ 1021
χιλιόμετρο 1021
Πεζ@@ 1020
Στοκχόλμη 1020
ειδικούς 1020
ιζερ 1020
καθοδηγ@@ 1020
λή 1020
Αξιοσημείω@@ 1019
Βίλ@@ 1019
Λει@@ 1019
Τμήματα 1019
Υδρο@@ 1019
γονιμ@@ 1019
κρατάει 1019
μετοχών 1019
μονοπ@@ 1019
περίφημη 1019
σελην@@ 1019
ἔ@@ 1019
5,@@ 1018
Th@@ 1018
Ιησούς 1018
Οδό 1018
Τζόρ@@ 1018
απελευθερώθηκε 1018
εκρηκ@@ 1018
θυσία 1018
νομικό 1018
προβιβ@@ 1018
προωθη@@ 1018
συγκεντρώνοντας 1018
τερματοφύλακας 1018
χρημάτων 1018
500.000 1017
Of 1017
Ακαδημ@@ 1017
Γον@@ 1017
Μογγ@@ 1017
Χανιά 1017
έκτισε 1017
δευτερόλεπτο 1017
δικαιοσύνης 1017
ηττήθηκαν 1017
κορυφής 1017
περιλάμβαναν 1017
πορν@@ 1017
όλα@@ 1017
www.eetaa.gr 1016
Αριθμ@@ 1016
Ασχολήθηκε 1016
Καλιφόρνιας 1016
Μαρόκο 1016
Νησιά 1016
Πεπ@@ 1016
Πιέτρο 1016
ίμα 1016
αιότητα 1016
ανάγκασαν 1016
αποκαλούσαν 1016
αρχαιολογικές 1016
γαλλικές 1016
γνωστών 1016
γονίδια 1016
διαδρομές 1016
θετο 1016
θρεπ@@ 1016
μάρμαρο 1016
μετανάστευσης 1016
οκτη@@ 1016
ολυμπιακούς 1016
περιγραφές 1016
χρή@@ 1016
metaboles 1015
ter 1015
Βαλκανικό 1015
Κοινότητος 1015
Μέρος 1015
άκουσε 1015
γραμματέα 1015
διεργασία 1015
κάπου 1015
μικούς 1015
οκρατ@@ 1015
περιηγ@@ 1015
σκο@@ 1015
συναισθήματα 1015
υδατοσφαίρισης 1015
όμετρο 1015
details.php 1014
Πίν@@ 1014
Τζωρτζ 1014
Ω 1014
αργυρό 1014
διδάσκει 1014
ηπειρωτικό 1014
κληρονόμ@@ 1014
κόσια 1014
λανδ@@ 1014
Sony 1013
me 1013
Έντ@@ 1013
Ασσυ@@ 1013
Ελίζαμπεθ 1013
Ερε@@ 1013
αθλητικός 1013
αρχηγοί 1013
ατος 1013
βιώ@@ 1013
γεωμετρικό 1013
δυστυχ@@ 1013
εφαλ@@ 1013
προσχ@@ 1013
πρωταρχ@@ 1013
10ου 1012
DS 1012
Βεατρίκη 1012
άχθηκαν 1012
ανιψιά 1012
αυτοκρατορικό 1012
διοργανώνεται 1012
εθελοντές 1012
ισχυρός 1012
λαϊκό 1012
νιτρ@@ 1012
ουφ 1012
ραμ 1012
Κοσσυφοπέδιο 1011
Μοχάμεντ 1011
Νη@@ 1011
Νικηφόρος 1011
ΣΕ 1011
αζώτου 1011
ενδεχόμενο 1011
επερχ@@ 1011
κυβερνούσε 1011
συμμάχησε 1011
σύνθημα 1011
Art 1010
di@@ 1010
ΕΚ@@ 1010
Ιδιαίτερα 1010
Μπράουνσβαϊγκ 1010
βοηθώντας 1010
γράψουν 1010
διοργανώτρια 1010
εκπροσωπεί 1010
ινγκς 1010
μεγάλ@@ 1010
νήθηκε 1010
ριντ 1010
χωρο@@ 1010
όφυ@@ 1010
Αμερικανούς 1009
Νέος 1009
Ντέρ@@ 1009
Φραντς 1009
ακαδημ@@ 1009
αλληλεπίδραση 1009
αναθεωρ@@ 1009
αριστ@@ 1009
δεκτός 1009
επέτρεψαν 1009
πείραμα 1009
ποικίλλει 1009
τρικ 1009
τροπή 1009
ψαριών 1009
rock 1008
Επαγγελ@@ 1008
Πανελλήν@@ 1008
Τσέ@@ 1008
άγα 1008
δαι@@ 1008
επιστημονικών 1008
κινεζ@@ 1008
κυκλοφορούν 1008
κύπελλα 1008
ολλανδ@@ 1008
ουμπ@@ 1008
πάρκα 1008
προχώρησαν 1008
φύλα 1008
Αθηναίους 1007
Β.@@ 1007
Βίκτορ 1007
Πρωταγων@@ 1007
Σό@@ 1007
ίγκ@@ 1007
ασκούσε 1007
κατασκευασμένο 1007
νοι 1007
πεδιν@@ 1007
σκοπο@@ 1007
συνομιλίες 1007
Μακεδονικό 1006
αρμοδιότητες 1006
αφ 1006
γαι@@ 1006
δήμοι 1006
επιτυχίας 1006
θέατρα 1006
κρυστ@@ 1006
μει 1006
ορυκτό 1006
φανερ@@ 1006
όλυση 1006
Λιούις 1005
Σιχ 1005
ακτίνων 1005
βεν 1005
γη@@ 1005
διάλεκτος 1005
ευχαρ@@ 1005
κομματιού 1005
κόμικ 1005
μπεκ 1005
χαρτ 1005
όμου 1005
Don 1004
Αλβέρτου 1004
Αντικ@@ 1004
Προκειμένου 1004
Σαφ@@ 1004
Φιλαδέλφεια 1004
βοηθούν 1004
ζωγράφους 1004
καταρρί@@ 1004
μηνι@@ 1004
μοί 1004
οξυ@@ 1004
πωλήσεων 1004
τσεχ@@ 1004
ψαρ@@ 1004
ano 1003
oikmet 1003
un@@ 1003
Ίσως 1003
Βαλκανικούς 1003
Ελευθερίας 1003
Καντακουζ@@ 1003
Σλοβενία 1003
άκιο 1003
αιχμαλωσία 1003
βιογραφία 1003
γέφυρες 1003
διπλωμάτης 1003
εγκαταστάσεων 1003
εμπλοκή 1003
εφήβων 1003
πρότζεκτ 1003
συνέδρια 1003
συναλλαγές 1003
σφετερ@@ 1003
YouTube 1002
Α.Π.@@ 1002
Καυκάσου 1002
Κύριος 1002
Σελήνης 1002
Ψηφ@@ 1002
άφησαν 1002
αργή 1002
γειτονιά 1002
ιανού 1002
ινου 1002
περιτ@@ 1002
στήλες 1002
τιμω@@ 1002
il@@ 1001
Δυναστείας 1001
Καβάλα 1001
Ουέσσεξ 1001
ΣΥΡΙΖΑ 1001
Σκυ@@ 1001
ανικών 1001
αύξησε 1001
δοί 1001
επενδύσεις 1001
ντερ@@ 1001
περιστατικά 1001
πραγματικός 1001
σκέψεις 1001
τροποποιήσεις 1001
ύτερ@@ 1001
Le@@ 1000
άμπα 1000
έχω 1000
απογοητευ@@ 1000
γεννήθηκαν 1000
επιτυχημένες 1000
καινοτ@@ 1000
ντυ@@ 1000
ούντο 1000
περιοδείας 1000
ρωσ@@ 1000
υπουργ@@ 1000
360 999
Ανδρικού 999
Χάρις 999
γράφου 999
εκτική 999
πειρά@@ 999
συμβουλευ@@ 999
τζι@@ 999
τιμηθεί 999
Βίκ@@ 998
Εργατικό 998
έρημο 998
ανθρωπίνων 998
ατμοσφαι@@ 998
εμποδ@@ 998
καταδικ@@ 998
κληση 998
μεθόδου 998
μετατρέ@@ 998
νόσος 998
προβολής 998
πρόωρα 998
τράπεζες 998
χάν 998
ψηφιακή 998
όη 998
1797 997
Αλγερία 997
Δεκαετία 997
Σημαντική 997
ένα@@ 997
έπαιρνε 997
γράφημα 997
ελεύθερες 997
κρού@@ 997
λογοτεχνικά 997
σκηνοθέτες 997
τωμα 997
υπ 997
1700 996
80@@ 996
Λάου@@ 996
είστηκε 996
μέλ@@ 996
μαχος 996
πόρτες 996
σκακ@@ 996
χάρ@@ 996
ch 995
Ανν@@ 995
ήγαγε 995
αποδίδονται 995
δικτατορία 995
κατοικιών 995
παρασκ@@ 995
περιστροφής 995
σκόνη 995
συναντήθηκαν 995
συνείδηση 995
ψευ@@ 995
1842 994
center 994
Γιος 994
Κομνηνός 994
Πανα@@ 994
έκτακ@@ 994
ήκ@@ 994
κατοικείται 994
κηρύ@@ 994
Pictures 993
ab@@ 993
Αλεξ@@ 993
Αρβαν@@ 993
Λιγ@@ 993
Μπαϊ@@ 993
άμεσο 993
αφηγείται 993
γειτονικά 993
δόντια 993
ενδιαφέροντα 993
εφαρμοσ@@ 993
πιάτο 993
προτειν@@ 993
χε@@ 993
όλιο 993
34@@ 992
Γκυ 992
Στέφαν 992
Χριστιανών 992
έλαιο 992
αποτελεσματ@@ 992
βγαίνει 992
ειλε 992
ηρε@@ 992
ιδρύματος 992
κατακτήθηκε 992
μάθησης 992
παλατιού 992
συνεχούς 992
τάγματα 992
Πολιτι@@ 991
ανησυχία 991
δεσμών 991
ενίοτε 991
λιας 991
οροπέδιο 991
ούμενους 991
Se@@ 990
Αδρι@@ 990
Κύρια 990
Περιστ@@ 990
αλα 990
ανδρος 990
απού@@ 990
διαφορ@@ 990
κομητείες 990
λησης 990
μπέρ 990
στάν 990
ταχύτητες 990
40.000 989
Εξέγερση 989
Ματθ@@ 989
ηψης 989
καθεδρικός 989
κιβώτιο 989
ταφή 989
τόμο 989
χαμηλότερα 989
US 988
Βαλδουίνος 988
Στερεάς 988
ήτων 988
βγει 988
ειές 988
ενεργειών 988
εξωτερικές 988
θε 988
λιού 988
μυθολογίας 988
υπηρετούν 988
χον@@ 988
χρηματο@@ 988
35@@ 987
Αθλητισμού 987
ΕΑ@@ 987
Καλύτερου 987
Ουίν@@ 987
αποδεκτό 987
γλύπτη 987
δη@@ 987
εκδίκηση 987
κείμεν@@ 987
παράλληλ@@ 987
συμπεριλαμβάνονται 987
τρισδιά@@ 987
χρήστης 987
Or@@ 986
Μπέλα 986
Τι 986
Φάρ@@ 986
δίνη 986
ηλεκτρικά 986
λινγκ 986
μηχανής 986
ρούμε 986
σήματος 986
συντομογραφία 986
σχημάτισαν 986
ύρης 986
Ακουιτανίας 985
Βλά@@ 985
Θωμάς 985
Ναν@@ 985
άματος 985
ήπι@@ 985
επιτρέ@@ 985
τολής 985
Αιν@@ 984
Σερβική 984
Ταμπ@@ 984
ακυρώθηκε 984
ανοικτά 984
αξαν 984
εκπαιδευτικά 984
εξαγωγή 984
επιμέλεια 984
άντια 983
έκοψε 983
ανίου 983
γεννι@@ 983
διέρχεται 983
δωρεές 983
επεκταθεί 983
επονομ@@ 983
μεταλλίων 983
παραχωρ@@ 983
πηλ@@ 983
τραυματίες 983
ans 982
Αποτελ@@ 982
Ιταλικής 982
Κούβα 982
Νορμανδία 982
ακούγεται 982
απαιτούνται 982
δαί@@ 982
θωρακ@@ 982
παραγωγοί 982
τρέχει 982
ανιψιό 981
ατιν@@ 981
δοσ@@ 981
μιση 981
ογενή 981
οτι 981
περιεχ@@ 981
περιμένει 981
τεσ@@ 981
5ος 980
om@@ 980
Αυστραλι@@ 980
Γεωγραφικά 980
Μεραρχίας 980
Τέρ@@ 980
ινούς 980
οδηγό 980
πετρώματα 980
πόλο 980
συνεδρίαση 980
υργ@@ 980
Λούις 979
Σοσιαλιστική 979
Σταν@@ 979
Τελ 979
αλκοολ@@ 979
ανακοίνωσαν 979
επιτυχής 979
ιατρικές 979
κινεζική 979
μπόρεσαν 979
νού 979
ξύλου 979
παραγγελία 979
τραγούδησε 979
φόρος 979
ψυχαγωγ@@ 979
ότοπος 979
EP 978
Pr@@ 978
ίρης 978
ετίας 978
ετο@@ 978
ευρ@@ 978
συγκρι@@ 978
συνεχίσουν 978
φίλου 978
ψήφο 978
όλυ@@ 978
Center 977
Di@@ 977
Fame 977
High 977
Βουλγαρική 977
Εισαγγελ@@ 977
Κλεοπάτρα 977
Ουσ@@ 977
ανόταν 977
αποτελεσ@@ 977
διευκολ@@ 977
επιθέσεων 977
εφεδρ@@ 977
ιαπ@@ 977
κατηγορι@@ 977
λειτουργούσαν 977
νομικός 977
ουλι@@ 977
περτ 977
φέ@@ 977
36@@ 976
Μάγκνους 976
αναγωγή 976
ειό 976
ιδιαιτέρως 976
κοινωνίες 976
μειωμένη 976
προάστια 976
προβληματ@@ 976
ρίσεις 976
όμο 976
11,@@ 975
Μελισσ@@ 975
έμενε 975
βρώ@@ 975
δικηγ@@ 975
εξόρι@@ 975
θηκ@@ 975
μεθυλο 975
ορισ@@ 975
πέρ@@ 975
στέκ@@ 975
τέλει@@ 975
7ου 974
As@@ 974
Αγνή 974
Θέρ@@ 974
Ιππ@@ 974
Κύριο 974
Περσίας 974
Ταϊβάν 974
ακίου 974
αποδοθεί 974
αποικι@@ 974
δικτύων 974
επιτυχή 974
ισμένου 974
κρατώντας 974
μεθοδ@@ 974
μεταφορών 974
περιγραφεί 974
πρωταθλητές 974
Ερευνών 973
Καθεδρικό 973
Κινήματος 973
Κύπελλα 973
Λαμία 973
άιτ 973
αφήν@@ 973
αϊκό 973
καθήκον 973
μέτρια 973
σκούρο 973
τῶν 973
ωκεανό 973
ύρια 973
1813 972
Βίττελσμπαχ 972
Ηρόδοτος 972
Κυπελλούχων 972
Κόπα 972
Ομόνοια 972
Ορχήστρα 972
Παλαιάς 972
Προφήτη 972
Ρωμαιοκαθολ@@ 972
Υποκατάσταση 972
ήρες 972
εταιρ@@ 972
μίνη 972
μεγέθη 972
μμα 972
πολιορκίας 972
σάν 972
στασίου 972
συμφιλι@@ 972
συνταγματάρχης 972
σύγ@@ 972
ῶν 972
1846 971
Die 971
Street 971
ir@@ 971
Αθηνάς 971
Βόσ@@ 971
Τοσκάνης 971
Υποθέσεων 971
βίου 971
βουλή 971
γεμάτη 971
γραφο 971
διανομής 971
δρυ@@ 971
ερευνητής 971
μετείχε 971
μπουρκ 971
χριστιανούς 971
ation 970
Πιστ@@ 970
Πλάτωνα 970
Πληροφορίες 970
αυτοκινητοβιομηχανία 970
γρά@@ 970
δραστηριοποιήθηκε 970
δωματίου 970
ευμα 970
κή@@ 970
οξιτανικά 970
πασά 970
προγραμματιστεί 970
Βραζιλι@@ 969
Ευρυτανίας 969
Ισπανός 969
Μητ@@ 969
Σιμ@@ 969
Χαϊδελβέργη 969
έστερο 969
έφαλ@@ 969
ήπια 969
ήχος 969
αναφορικά 969
απονομή 969
βέβαιο 969
εκδώσει 969
μενες 969
παλλ@@ 969
πιθανότητες 969
πρωτεΐνη 969
τσκ 969
υψηλών 969
125 968
Έλενα 968
Θεόδωρο 968
Πουλ@@ 968
ήλ 968
ίσθηκαν 968
ανάλογο 968
ανήλ@@ 968
απολογ@@ 968
δυναμικού 968
εύματος 968
ηρ@@ 968
θεώρησαν 968
πολυάριθμα 968
σταρ 968
ότυπα 968
Άντονι 967
Ανεξαρτησίας 967
Κένεντι 967
ήλιος 967
αποτελούμενη 967
εξισώσεις 967
επεκτείνει 967
ζωντανό 967
κοφ@@ 967
μεταμορφ@@ 967
συχνή 967
τάγματος 967
Κινγκ 966
Λιβάνου 966
Παρουσι@@ 966
Φίλ@@ 966
ανγκ 966
αποκατάστασης 966
απονέ@@ 966
αποφοίτησή 966
γα@@ 966
γαν@@ 966
δίκης 966
διαφύγει 966
λοι@@ 966
μ.ό. 966
μελλοντική 966
μεταφράζεται 966
οριών 966
τουρκοκρατίας 966
τόξο 966
Rolling 965
Ερασι@@ 965
Οδυσσέα 965
Πουέρτο 965
Τζό@@ 965
άγγελ@@ 965
έβδομη 965
βρίσκουν 965
ερυθ@@ 965
ογέν@@ 965
Αθ@@ 964
Γερμανικού 964
Θησ@@ 964
Ρωμαϊκ@@ 964
εκτίθεται 964
επέφερε 964
καταπολέμηση 964
κλιμακ@@ 964
ναών 964
οργή 964
παράθυρο 964
σιδηροδρομ@@ 964
χρονολογία 964
ti@@ 963
Άνταμ 963
Γιορκ 963
Σλοβακία 963
έσκου 963
έφαλος 963
αντιμετωπίζουν 963
ασβεστ@@ 963
ελατ@@ 963
εξετα@@ 963
επιχειρηματία 963
σχηματίσουν 963
ταρα@@ 963
υλος 963
υπόγειο 963
Par@@ 962
ag@@ 962
Γιουρόπα 962
ΔΕ@@ 962
Δείτε 962
αδι@@ 962
αντιλήψεις 962
διστ@@ 962
σημαντικοί 962
ψωμί 962
38@@ 961
Δέκα 961
Ινδου@@ 961
Πρωταγωνιστούν 961
Ρωσ@@ 961
Τόν@@ 961
Χριστουγέννων 961
απολύθηκε 961
νοκ 961
τυποποι@@ 961
φινλανδ@@ 961
ωτ@@ 961
Lee 960
ant 960
Ζενίτ 960
Μαγνησίας 960
Ρουμαν@@ 960
Σπά@@ 960
άγονται 960
άλλωστε 960
άρεσε 960
γκε 960
διπλασι@@ 960
εμβλ@@ 960
ηλεκτρονικό 960
κωδικός 960
οντότητα 960
ποιο 960
πρόσθετα 960
σκότωσαν 960
Αντί 959
Ας 959
Αστυνομίας 959
Καρλόττα 959
Πισ@@ 959
Ποιν@@ 959
αποτελ@@ 959
ασθενειών 959
ατυχ@@ 959
βασιλικού 959
βρο@@ 959
μνημείων 959
ριχ@@ 959
υλική 959
1839 958
AR@@ 958
Joseph 958
Μετάλλιο 958
Οδυσσέας 958
Παράδ@@ 958
έσπ@@ 958
αλληλεπι@@ 958
αναγνωρισμένο 958
ανώτατη 958
αρχιτέκτονες 958
ιμες 958
ιππότες 958
λίν 958
λησαν 958
οργάνου 958
ριζαν 958
13η 957
1809 957
Κόσ@@ 957
Σκου@@ 957
Τζ 957
Φυσ@@ 957
άξουν 957
ασφαλή 957
γάτα 957
ερευνητικό 957
ηλεκτρόνια 957
καταλόγους 957
λεμ 957
προεξ@@ 957
στηρίου 957
συζυγ@@ 957
τίτλων 957
χάλυβα 957
Αεροπο@@ 956
Αλα@@ 956
Βενιζέλος 956
Γκουρού 956
Κόστα 956
Λέσ@@ 956
Μαθ@@ 956
δημοσιεύσει 956
λογοτεχνική 956
πανδημίας 956
παράνομ@@ 956
παρέχοντας 956
σημείου 956
τιζόταν 956
χρωμη 956
Βό@@ 955
Γκερ@@ 955
Εμφυλίου 955
Μνημ@@ 955
Τεχνολογίας 955
Φίν@@ 955
Χρόνια 955
γκελ@@ 955
διέκοψε 955
διασκεδ@@ 955
νεκρός 955
πομπ@@ 955
συνέβαλαν 955
τεχνικά 955
όνειρο 955
6,@@ 954
Φίλιπ 954
άλωση 954
έντον@@ 954
αλληλο@@ 954
σμπουργκ 954
συντάκτης 954
τιμος 954
ate 953
Ασφάλειας 953
Εχ@@ 953
Νεπάλ 953
Σαντ 953
έλυσε 953
ήρω@@ 953
αγωγός 953
επιμελ@@ 953
ηπατ@@ 953
ικους 953
ιλία 953
πληροφορι@@ 953
προσκήνιο 953
στοι 953
τσεν@@ 953
9ου 952
ai 952
Ανατ@@ 952
Πολέμους 952
Τατ@@ 952
Τιβ@@ 952
δείκτης 952
διακοπές 952
ηνα@@ 952
θεώρηση 952
κυβερνητική 952
μίλησε 952
μπους 952
ντόπιοι 952
πρόσωπό 952
σωλήνα 952
φαράγγι 952
Κικ@@ 951
Σαλαμίνας 951
αλλεργ@@ 951
αυστηρή 951
βασιζόταν 951
ευρεσιτεχνίας 951
ιγκ@@ 951
ιθ@@ 951
καί 951
συστηματικά 951
ψυχής 951
und 950
Δημογραφία 950
Ντι 950
Πιερίας 950
Τοπικής 950
έρη 950
ανάκτηση 950
ανησυχίες 950
δεξιό 950
ενότητες 950
εργατών 950
πληροφορ@@ 950
Δραστηρι@@ 949
Σχηματ@@ 949
αξιωματούχος 949
δέντρων 949
δεψε 949
επικράτειας 949
κυριαρχεί 949
οσία 949
Άγγλων 948
Ηθ@@ 948
Λο@@ 948
Μαγι@@ 948
Προέλευση 948
άμπ 948
ήλου 948
ελς 948
εμφύ@@ 948
ιστι@@ 948
κινδύ@@ 948
συντομ@@ 948
υνσης 948
υπαρ@@ 948
1810 947
Λοκ@@ 947
Ντιναμό 947
Σκά@@ 947
άκμασε 947
έκπληξη 947
αρνητικό 947
διευρ@@ 947
δις 947
προκριματικό 947
ύφους 947
Ασφάλεια 946
Ζακ@@ 946
Πρακ@@ 946
Ραδιοφ@@ 946
Χριστούγεννα 946
άκοι 946
απεργ@@ 946
βόλεϊ 946
δίχως 946
εορτασμό 946
επίτροπος 946
ζημ@@ 946
λαμβ@@ 946
μετατοπ@@ 946
μονες 946
οικοδομήθηκε 946
οφέλη 946
πανηγ@@ 946
χτίστηκαν 946
όκερ 946
Αρκετές 945
ΕΙ@@ 945
Κέιμπριτζ 945
Καϊ@@ 945
Νόμο 945
αποδόθηκε 945
καθορι@@ 945
κοί 945
λιτς 945
μητροπολιτική 945
μνημείου 945
ποδοσφαιρικός 945
πολωνικό 945
συγκεντρώνει 945
συμβάλλει 945
σφαίριση 945
Mercedes 944
Society 944
Αβραάμ 944
Ηνωμένα 944
Ιγκ@@ 944
Τυπ@@ 944
κατασκευάζεται 944
κηδεύτηκε 944
μετανάστευσαν 944
μορίων 944
ολόκληρης 944
ομαι 944
συντελεστές 944
σωματιδίων 944
σύνορο 944
φαντασία 944
AC 943
Corporation 943
Stone 943
Άλπεις 943
Ράσελ 943
Ρότ@@ 943
Στρο@@ 943
Σύμβ@@ 943
Φυ@@ 943
αλία 943
βαρύτητας 943
εκλεκ@@ 943
μαραθ@@ 943
οτά@@ 943
παντού 943
ρασι@@ 943
σή@@ 943
σεναρίου 943
στρων 943
συλλαβ@@ 943
τήρηση 943
ύποπ@@ 943
France 942
Ιβάν@@ 942
Τζέιν 942
άρχοντα 942
ήτριας 942
γκρι 942
κει@@ 942
τοσ@@ 942
105 941
Καντ@@ 941
Λόν@@ 941
Ούγος 941
Σημειώσεις 941
ίστες 941
ανακαλύψει 941
βαλβ@@ 941
επισκέψεις 941
ευρωπαϊκού 941
ιανών 941
κρίσιμη 941
ξεχωριστός 941
ορατ@@ 941
προωθήσει 941
στόχοι 941
τηλεοπτικός 941
φίλων 941
em@@ 940
Βαυαρία 940
Λειτουργία 940
Νησί 940
Τσέλσι 940
άρντο 940
έντασης 940
αναφέροντας 940
βελτιώσεις 940
βομβ@@ 940
ελλαδικό 940
λετ 940
μοντέρν@@ 940
ολόγου 940
οποιούν 940
οτυπ@@ 940
πετρέλαιο 940
πλήρω@@ 940
συναν@@ 940
όψεις 940
Co@@ 939
En@@ 939
Final 939
out 939
ul@@ 939
Αραβίας 939
Περί@@ 939
δογ@@ 939
ερώτημα 939
καθάρι@@ 939
καταλήξει 939
λους 939
μεταφραστεί 939
οδικό 939
οστό 939
παντρεύτηκαν 939
προβιβάστηκε 939
τουν 939
υφίστανται 939
ψήφ@@ 939
ψυχολογία 939
ότη 939
Sp@@ 938
Αντρέα 938
Φλαμαν@@ 938
αιότητας 938
ενορία 938
ητήρια 938
θέλησε 938
λεξε 938
οριοθε@@ 938
πολλαπλές 938
ρέν@@ 938
συνδεδεμένη 938
10,@@ 937
ā@@ 937
Πνευ@@ 937
Σειρά 937
άστρα 937
άχτηκε 937
απάν@@ 937
απλές 937
απόφασης 937
ιζόμενος 937
μαχών 937
περιορίστηκε 937
σκάκι 937
συγκεκριμένων 937
un 936
Ανδρόνικος 936
Οργανισμό 936
ανυψ@@ 936
βασικούς 936
δρομέ@@ 936
ελήφθη 936
θει 936
καλύπτοντας 936
οπα@@ 936
πέταξε 936
στραμ@@ 936
συνεντεύξεις 936
τσάς 936
φιλοτεχν@@ 936
hp 935
Ευρωπαίους 935
Πολεμικού 935
Σοσιαλιστικό 935
ίφη 935
απόστασης 935
κιθαρίστας 935
λς 935
οκλ@@ 935
παρουσιάστηκαν 935
συγγενής 935
ταξαν 935
χαρακτηριστ@@ 935
Si@@ 934
Αλεξίου 934
Οχάιο 934
Περισσ@@ 934
άνοιξαν 934
έτου 934
αστυνομ@@ 934
εμπόδιο 934
εντυπωσιακό 934
επιστήμονας 934
εφέ 934
ονομάτων 934
οργανωμένη 934
ριανή 934
συλλαμβ@@ 934
όα 934
Bur@@ 933
Αγων@@ 933
Διπλ@@ 933
Λογοτεχν@@ 933
ΣΤ@@ 933
άγο 933
αντοχή 933
αχν@@ 933
γραπτή 933
ιρλανδ@@ 933
κατάλληλες 933
καταλήγουν 933
κινδύνους 933
λωρίδες 933
συγκρα@@ 933
ωφελ@@ 933
Αριστεράς 932
Ινδονησία 932
αγωνίζονται 932
ανοίγει 932
αρχιτεκτονικό 932
γιγ@@ 932
γυναικείου 932
ενδοχώρα 932
ενθαρρ@@ 932
ευκαιρίες 932
μαθηματική 932
μω@@ 932
τεχνολογίες 932
τόρ 932
χορωδία 932
χριστιανών 932
re 931
Ασπ@@ 931
Κρυ@@ 931
Ντιν 931
αεροδυναμ@@ 931
ανό@@ 931
εντοπίζεται 931
θαυ@@ 931
κατάγεται 931
κοινοβουλευ@@ 931
λαμπ@@ 931
λειτουργικά 931
νοι@@ 931
παρουσί@@ 931
προτεραιότητα 931
ριάς 931
60@@ 930
Fox 930
Δέλτα 930
Δουκάτου 930
ΙΒ 930
Μερκίας 930
εκπροσωπήσει 930
ούτ 930
περιφερειακές 930
προβολ@@ 930
ράφηκε 930
συντήρησης 930
τουρισμό 930
τρεψε 930
qu@@ 929
Βουκουρεστίου 929
Ντιν@@ 929
Σπουδ@@ 929
Τουρκικής 929
αποδεκ@@ 929
αποζημίωση 929
γιορτά@@ 929
ετικά 929
εων 929
ιθαγενείς 929
καθυστέρηση 929
κανονικές 929
κατευθύνσεις 929
παγκόσμιου 929
ταξιδεύει 929
τηλεσκόπιο 929
τοποθετεί 929
φύγουν 929
ύδατα 929
ύνθηκε 929
ώνησε 929
Europe 928
FM 928
SA 928
Άντρι@@ 928
Αρχιτεκτονική 928
Γκόρντον 928
ΕΛ 928
Μεταφορές 928
ΝΔ. 928
Σημειώνεται 928
έμφ@@ 928
αναγκαία 928
απόρ@@ 928
γκεν@@ 928
μήκη 928
πεντά@@ 928
σκεφ@@ 928
τετραγωνικών 928
τρομ@@ 928
υπόθεσης 928
ώνιου 928
Λαού 927
Μετώπου 927
ένι 927
αθώ@@ 927
ακρόπολη 927
βρετανικής 927
γιου@@ 927
διακρίν@@ 927
εξεγερ@@ 927
επιτροπές 927
εφηβ@@ 927
θρησκείες 927
μέσ@@ 927
μεταγενέστερη 927
μετρικά 927
ομοσπονδίας 927
προηγούμενων 927
φυτού 927
20ό 926
Γαλλικού 926
Λω@@ 926
Ροβέρτου 926
Σάρα 926
Σκορ@@ 926
έσωσε 926
αλά 926
ευαισθησία 926
ιεραρχία 926
μεσαίο 926
παραμένοντας 926
πετυχ@@ 926
στρεμμάτων 926
υπολογισμό 926
χαρά 926
χρωμ@@ 926
χτύπημα 926
ψαλ@@ 926
Alpha 925
Βρετανών 925
Επιστήμης 925
Εποχής 925
Μουσουλμάνοι 925
Πάουλ 925
Φαρμακ@@ 925
απέτυχαν 925
βάλλοντας 925
γεμάτο 925
ελαφρ@@ 925
εντούτοις 925
θριαμβ@@ 925
μεσαιωνικό 925
ξεχωρίζουν 925
προσγει@@ 925
ρικούς 925
σχοιν@@ 925
τσερ 925
υπηρέτησαν 925
υπόγεια 925
Αυστ@@ 924
Αχιλλέα 924
Κώδικα 924
Μικρή 924
άνονταν 924
αποφευχθεί 924
γνωρίζουν 924
καπνού 924
κορυφαίες 924
ογράφοι 924
παράγωγα 924
πειρατές 924
τρομερ@@ 924
ύλιο 924
Γραμ@@ 923
Θήβα 923
Ιντιάνα 923
Λετονίας 923
Τασ@@ 923
ήνα 923
απειλές 923
αυση 923
ζε@@ 923
λλος 923
συνόλων 923
τήρ@@ 923
ταχυδρομ@@ 923
υπεροχή 923
χρηστών 923
Festival 922
Άκ@@ 922
Λουκ@@ 922
ΣΑ@@ 922
ΩΝ 922
έτρ@@ 922
αντικαταστάθηκαν 922
αποκαλούνται 922
αυξήθηκαν 922
εγκέφαλο 922
εντς 922
μονάρχη 922
νεκροί 922
ρέφ@@ 922
στασή 922
χειμώνες 922
όχο 922
MTV 921
width 921
Διάσκεψη 921
Κοινωνία 921
άλογ@@ 921
έδιναν 921
δασών 921
εφο@@ 921
κυκλοφορ@@ 921
μεύ@@ 921
ορα 921
οτί@@ 921
ουστ 921
πρώιμ@@ 921
συνόδευσε 921
τοφ@@ 921
CIA 920
Media 920
Ποδοσφαι@@ 920
γκς 920
δεύτηκε 920
λίγοι 920
μεταλλουργ@@ 920
οδηγήθηκε 920
πάνε 920
περίεργ@@ 920
πλού@@ 920
πονται 920
ρερ 920
σιακός 920
στασι@@ 920
τύχ@@ 920
1790 919
1818 919
Αλφ@@ 919
Αρχές 919
Βορειο@@ 919
Γοργ@@ 919
Ερω@@ 919
Μπλέ@@ 919
Μπολσεβ@@ 919
Σιδηρ@@ 919
ένοπλη 919
ακαδημία 919
αντιδρά 919
αστεροειδή 919
εκδικ@@ 919
εναλλακ@@ 919
επόμενος 919
ερσ@@ 919
θρω@@ 919
κλαμπ 919
κλασικά 919
μελη@@ 919
ρυ 919
συνεργάτη 919
σύντροφ@@ 919
ταχεία 919
do 918
Πολιτείας 918
αήττη@@ 918
αγου@@ 918
διενεργ@@ 918
δουν 918
μουσικ@@ 918
ξεκινούσε 918
πυρε@@ 918
ταμι@@ 918
τρελ@@ 918
ύλοι 918
Μετρό 917
Μικρό 917
ήμερ@@ 917
απαιτ@@ 917
απολύτως 917
επικεντρώθηκε 917
ηγεσίας 917
οπές 917
οσμ@@ 917
ουτ@@ 917
περικυκλ@@ 917
Γκρι@@ 916
Επιστροφή 916
Πέρασε 916
Στόχος 916
δρομολόγια 916
κατασκευάζονται 916
λιμανιού 916
λλας 916
πληρωμή 916
συνεχίζοντας 916
τ. 916
20ο 915
News 915
Α.Ε.@@ 915
Αλφόνσου 915
Θεοδώρα 915
Ιδρυ@@ 915
ΠΑΟ 915
Παλατινάτου 915
Φάλ@@ 915
Χιλ 915
απαγόρευσε 915
ελάχ@@ 915
λιθου@@ 915
μενων 915
μπας 915
σκάφους 915
φιλοσοφ@@ 915
Ζώνη 914
Κουίν@@ 914
Σιδη@@ 914
Τελικός 914
Φωτο@@ 914
ίτιδας 914
αδικ@@ 914
γεννα@@ 914
ελέγ@@ 914
επέκτεινε 914
επιδημία 914
μεταπτυχ@@ 914
μπάντας 914
προσθέτοντας 914
σμήνος 914
φυλακής 914
χριστιανικές 914
Out 913
li@@ 913
Κολούμπια 913
Κόρινθο 913
Μελι@@ 913
Ραβ@@ 913
Χάινριχ 913
άσιο 913
αίσ@@ 913
ανακαλυφθεί 913
ανταλλαγής 913
δημοσίων 913
εκσυγχρον@@ 913
εψε 913
κατεχ@@ 913
μοναρχίας 913
οπτικό 913
ορεινός 913
ορυχεία 913
παράλληλη 913
σάλ@@ 913
τάι 913
φθορι@@ 913
1838 912
av@@ 912
Άνταμς 912
Επαρχ@@ 912
Πρώτου 912
άνειας 912
ήλιου 912
ήσω 912
βέν@@ 912
γεννηθεί 912
δράσει 912
εξαρτη@@ 912
ευημερία 912
ιακούς 912
παύ@@ 912
πλάσμα 912
σίου 912
υδροξ@@ 912
χρει@@ 912
19@@ 911
200@@ 911
ed@@ 911
Όπερα 911
Αλεξάντρ 911
Ανγκ@@ 911
Αντα@@ 911
Ιησου@@ 911
Κοιλάδα 911
Μιχάλη 911
Ντερ@@ 911
ΣΕ@@ 911
γιά 911
εβα 911
κατέθεσε 911
κολυμβ@@ 911
κυβερνητικές 911
ματάρχη 911
ομόλογ@@ 911
οπισθ@@ 911
ουβ@@ 911
ούδες 911
πλησιάζει 911
πολε@@ 911
πτική 911
σημειώσεις 911
χέ@@ 911
CH@@ 910
ap@@ 910
Έντου@@ 910
Διά@@ 910
Μπάρι 910
αίσθημα 910
βουλγαρική 910
γκτον 910
γραφικές 910
δικαστής 910
ειξης 910
κτισ@@ 910
κυριότερα 910
οχυρώσεις 910
προηγούμενου 910
χώρησε 910
όζα 910
Αμφι@@ 909
Ιμπ@@ 909
Στή@@ 909
έλε 909
αλφαβ@@ 909
αποθήκευσης 909
αριθμητική 909
γράφουν 909
επιστρέφοντας 909
κυκλική 909
ουκ@@ 909
πρώιμο 909
ραγκ@@ 909
στόχων 909
υγειονομ@@ 909
όσημο 909
Αφροδίτης 908
Κολοκοτρώνη 908
Μαρν 908
Οικονομίας 908
Ούλ@@ 908
Πρέπει 908
Προπονητής 908
επιτρ@@ 908
λαφ 908
πήγαινε 908
ποδοσφαιριστή 908
ποιο@@ 908
χτύπησε 908
όσφαιρα 908
ότητος 908
Αθηνα@@ 907
Αρί@@ 907
Κινηματο@@ 907
Μετσ@@ 907
Σαλβαδόρ 907
Σισ@@ 907
Σωματ@@ 907
άργυρο 907
έλεγαν 907
αντιτορπιλ@@ 907
λιγότερα 907
προσφέροντας 907
ραση 907
συμβαίνουν 907
ϊν 907
βαρύτητα 906
γραμμένη 906
εγκαταλελειμ@@ 906
εμπνευσ@@ 906
επιβατών 906
καθήκοντά 906
κλίματος 906
μότητα 906
ξενοδοχεία 906
οβολ@@ 906
ουφ@@ 906
σμένα 906
συναντάμε 906
χυμ@@ 906
Ag@@ 905
Αρμενίων 905
Αυγ@@ 905
Εμφύλιο 905
Πέτερ 905
έβλεπε 905
αλληλογραφία 905
βιομηχανικό 905
ζωνταν@@ 905
κρατούμενοι 905
μειονότητα 905
μουν@@ 905
στιλ 905
τεκτον@@ 905
φαινομένου 905
1200 904
Cr@@ 904
Αλγερίας 904
Επιστρέφοντας 904
Στέφανου 904
ίρο 904
αεροπορία 904
διαφθορά 904
εγκλήματος 904
θησε 904
ιππείς 904
μαϊ@@ 904
μπουν 904
παλαιότερων 904
πεν 904
πρωθυπουργ@@ 904
συγκοινων@@ 904
τάκη 904
Mo@@ 903
Ε.Π.@@ 903
αλάτι 903
αρχιτεκτονικά 903
αύξ@@ 903
γεωγραφικές 903
δίσκων 903
επίπεδ@@ 903
οφείλονται 903
παραδόθηκαν 903
πλεονεκτήματα 903
ότσι 903
Arts 902
Γκαμπ@@ 902
Τραϊ@@ 902
άργ@@ 902
έδειχνε 902
απέκλεισε 902
ασμών 902
βορειοδυ@@ 902
βρετανικά 902
δήλ@@ 902
ερωτική 902
ιστούσε 902
κερκ@@ 902
μίνι 902
στιαν@@ 902
υποδομές 902
άουα 901
έλλει 901
αίτη@@ 901
αρχηγούς 901
βιολί 901
γραφικής 901
λαχανικά 901
μουσουλμάνους 901
νεαρά 901
πρωτοπόρος 901
σ. 901
συγγραφ@@ 901
ύλακες 901
Box 900
Γουέστ 900
Κοσμ@@ 900
Μάριο 900
Στιβ 900
έλεγ@@ 900
βιομηχανικές 900
διαιρε@@ 900
σηματοδότησε 900
υπόδ@@ 900
CA@@ 899
Γουόρ@@ 899
Ιταλών 899
Μαν 899
Πομερανίας 899
Τιτ@@ 899
έδες 899
θίασο 899
ιστικούς 899
οθέ@@ 899
παραστάσεων 899
πληκ@@ 899
πυγ@@ 899
τήρι 899
Ανθρω@@ 898
Πρόεδροι 898
Ριχάρδου 898
Φά@@ 898
ακοί 898
γιορτές 898
διάσημ@@ 898
εγίου 898
καλέσει 898
ξυ@@ 898
παραδίδ@@ 898
πνευματικής 898
τακτικός 898
φοί@@ 898
όφωνη 898
Paris 897
Κωστ@@ 897
ΜΑ@@ 897
Σκο@@ 897
Συμμάχων 897
Τάν@@ 897
ανάκτορα 897
διαφωνία 897
είμενο 897
μετα 897
ποδιών 897
προφίλ 897
χώρησης 897
όντουσαν 897
1807 896
Ακτή 896
Ιεροσολύμων 896
Παλαιολόγος 896
αιχμάλωτος 896
απαντώνται 896
διατηρούνται 896
διατροφής 896
εκλέγ@@ 896
ολο 896
παρατσούκλι 896
περιοδικών 896
συμπι@@ 896
συμφωνούν 896
συνασπισμό 896
τακτικό 896
υποστηρικ@@ 896
album 895
Βέρμαχτ 895
Γκολ@@ 895
Επικεφαλής 895
Φελ@@ 895
ακαδημαϊκή 895
αμαξ@@ 895
αναγκά@@ 895
ανος 895
απέδειξε 895
απεβ 895
διατήρησης 895
εμφανής 895
επόμενου 895
τραγουδιστές 895
les 894
Ίαν 894
Αυστραλ@@ 894
Λάζ@@ 894
Ρέι 894
Σιδ@@ 894
ανίκαν@@ 894
απαίτηση 894
βίαια 894
εντυπωσιακή 894
ηθικής 894
καταδίκασε 894
μαγνητικό 894
μιλούσε 894
ολόγησε 894
ορατό 894
πνευματικό 894
πρεσβύτερος 894
σφοδ@@ 894
ώνυμος 894
Εί@@ 893
Μακ 893
Ξενοφ@@ 893
ασκείται 893
εξαιρετικές 893
κοινός 893
μέλλ@@ 893
ούντ@@ 893
περιλαμβάνονταν 893
προφορ@@ 893
πρωτόκολλο 893
ρινός 893
White 892
Α.Σ.@@ 892
Αποστόλων 892
Ρ. 892
Φαραώ 892
Φοίτησε 892
Χοεντσόλερν 892
Χριστιανισμού 892
εντάσσεται 892
εξαπλώθηκε 892
ητικούς 892
καταλόγου 892
καταστάθηκε 892
κλειδ@@ 892
μιλήσει 892
τονταν 892
υποψηφίων 892
φοιτητής 892
Who 891
Αίγυπτος 891
Γουινέα 891
Δούκισσα 891
Εκστρατεία 891
Κατασκευ@@ 891
αλλοι@@ 891
αμαρτ@@ 891
ανέβει 891
αναπτύσσει 891
απομόνωση 891
δάσκαλο 891
δυτικού 891
ιστία 891
ισχυρίζονται 891
καλίου 891
ομιλείται 891
οτιδήποτε 891
σπαθί 891
φυσικούς 891
We 890
Επιτελείου 890
Μπρά@@ 890
Πλαταν@@ 890
έβδομο 890
ήρυ@@ 890
αγιάς 890
ασθενή 890
ολοκληρωτικά 890
ούσι 890
σειρών 890
τοχ@@ 890
ψηλότερο 890
im@@ 889
Άγγλο 889
Αμερικανών 889
Κοινοβουλευτικής 889
Χημ@@ 889
ίνουν 889
ημερομηνίες 889
νουν 889
ξαν@@ 889
ουερ 889
ούζ 889
πλατείας 889
σίων 889
συγκροτ@@ 889
σχεδιάζει 889
ταί@@ 889
τευσης 889
1803 888
Renault 888
Βάλτερ 888
Γκότ@@ 888
Δημογραφικά 888
Διορίστηκε 888
Εθνοσυνέλευσης 888
Σίμ@@ 888
Σημαντικό 888
Σρι 888
αγωνιστικό 888
αναλαμβάνοντας 888
αποδείχτηκε 888
ατα@@ 888
επικρατώντας 888
εφεύρεση 888
μεταβλητή 888
ούσας 888
πεδινό 888
πολυάριθμ@@ 888
στάσιο 888
τόνοι 888
χωρη@@ 888
Γκίλ@@ 887
Τσερν@@ 887
αγωγική 887
ακαδημαϊκό 887
αναζητ@@ 887
αρραβωνι@@ 887
διάνυσμα 887
εκδίδεται 887
ερό 887
θυσι@@ 887
λησε 887
μ.Χ 887
μέσον 887
μματα 887
ξεφύγει 887
οδοξία 887
παρακολουθήσει 887
προηγηθεί 887
συσκευών 887
τύρ@@ 887
ότητές 887
System 886
ler 886
Γιάκομπ 886
Γλ@@ 886
Υπουργού 886
έγκυος 886
δουκάτου 886
εγκ 886
εξωτερικής 886
ετσι@@ 886
ικς 886
καταγεγραμ@@ 886
πηγάζει 886
σκοτώνοντας 886
τάρ@@ 886
τινο 886
φορούσαν 886
1808 885
United 885
Άλλη 885
Αραβικά 885
Επισκ@@ 885
Ζαΐ@@ 885
Κεντρικό 885
Νέλσον 885
Ταχ@@ 885
έγερσης 885
εμ 885
εορτά@@ 885
θέλ@@ 885
κρατικής 885
μεγαλύτερων 885
ξένη 885
σεναρι@@ 885
ψηφία 885
ωτι@@ 885
1804 884
CH 884
ic 884
ton 884
Διοργανώσεις 884
Ζού@@ 884
Κωνσταντ@@ 884
Φεν@@ 884
αμερικανικές 884
ανατολή 884
ανταγωνισμό 884
απρο@@ 884
γυναικείας 884
διαμαρτυρίας 884
ηρος 884
ισχύς 884
ξι 884
ξύλινο 884
οκίν@@ 884
περιφερειακό 884
πρέσβης 884
φορτισ@@ 884
χωρίστηκαν 884
Διάδ@@ 883
Δυστυχώς 883
Ιταλικά 883
ΚΟΠ 883
Κατ 883
Κισ@@ 883
Ουαλία 883
Ποδ@@ 883
Σέρβους 883
κατέχουν 883
κτίσματα 883
ξεπερνά 883
οξεία 883
οσή 883
ούργ@@ 883
πλατινένιο 883
ρέφονται 883
ραζ@@ 883
στενός 883
τιμήσει 883
υποβρυχ@@ 883
ψηφοφόρων 883
8,@@ 882
sa 882
Άμπ@@ 882
Βέττιν 882
Βίλα 882
Μηχανικών 882
Ποδοσφαιρικών 882
Σακελλ@@ 882
αναγεννησι@@ 882
απαραίτητες 882
απονέμεται 882
αριά 882
αστυνομικό 882
ατήριο 882
εισπράξεις 882
εμφανιζόταν 882
επιτραπέζ@@ 882
κάποιας 882
μοναχών 882
ογιάννη 882
παρελθόντος 882
στησαν 882
τάξεων 882
Λατινικά 881
Νομικής 881
Νταλ@@ 881
Πελοποννησι@@ 881
Χιούστον 881
αυτοκινητο@@ 881
ησίου 881
μαι 881
οβ 881
προβλέπει 881
Βε@@ 880
Γενικής 880
ΙΓ 880
Κλα@@ 880
Ούρ@@ 880
Τζιμ 880
έβη 880
ίφης 880
βροχή 880
ισμένης 880
καλλιέργειας 880
μαζικές 880
μισή 880
οργανώσει 880
περιορισμένο 880
σελ 880
2,3 879
Κυβερνείο 879
Μεσιέ 879
αεροπορικές 879
ανάγλυφο 879
γενείς 879
δράσεων 879
επισκοπής 879
κατετάγη 879
μελετη@@ 879
ντυ 879
οκά@@ 879
οκτα@@ 879
ουλος 879
παραβίαση 879
πρωσ@@ 879
πυρήνες 879
σκέφ@@ 879
υπηρετούσε 879
ωρα@@ 879
Κύκλ@@ 878
Ολυμπ@@ 878
Φιλελεύθερ@@ 878
Χασάν 878
ήλι@@ 878
αδιά@@ 878
διαχωρισμός 878
εκτελέσει 878
εκφράσεις 878
ηλα@@ 878
μεικ@@ 878
μπασ@@ 878
ογράφου 878
πολωνικής 878
τεια 878
όκερ@@ 878
Journal 877
Γκρε@@ 877
αιθυλ@@ 877
εβί@@ 877
ερές 877
εργάζονταν 877
ησία 877
κήπος 877
κρατικές 877
μανία 877
φύλων 877
Κάλλ@@ 876
Παυσανία 876
Πράγας 876
Σταυρός 876
Σύλλογο 876
Τραγ@@ 876
άνεται 876
ανταρ@@ 876
αποκρού@@ 876
αρισ@@ 876
βιολογία 876
ηλιακό 876
ισχυρούς 876
μοριακό 876
νομοθετικό 876
προώθησε 876
πυρπολ@@ 876
σκηνικό 876
Be 875
Nintendo 875
Έζησε 875
Κελσίου 875
Χιλής 875
γκερ@@ 875
δοκιμών 875
εντίν 875
επισκέπτεται 875
εποχ@@ 875
θευ@@ 875
κατασκευαστές 875
κόμβο 875
νακ@@ 875
περιπολ@@ 875
πνευματικά 875
πραγματοποιεί 875
συμμάχων 875
ωνικούς 875
όδρομο 875
art 874
Αδόλφος 874
Βαθ@@ 874
Ουάσιγκτον 874
διοργανώσεων 874
θαυμα@@ 874
ικάν@@ 874
ινος 874
μακροχρόν@@ 874
οστάσιο 874
χημικός 874
39@@ 873
Αντρέι 873
Αργολίδας 873
Καταγόταν 873
ΝΑ 873
Ραφαήλ 873
Σλ@@ 873
έσκο 873
γράφονται 873
εβραϊκής 873
επιπέδων 873
ηλεκτρονίων 873
κοινωνικού 873
λήφθηκε 873
λεστ@@ 873
μεταπτυχιακές 873
νημ@@ 873
σκυ 873
συνομ@@ 873
τρέφονται 873
τροποποίηση 873
1798 872
7,@@ 872
Θεριν@@ 872
Καλλιθέας 872
Μουσουλμαν@@ 872
Συμμαχ@@ 872
δαπάνες 872
εισέρχεται 872
κάς 872
λιμένα 872
μαστ@@ 872
ναρ@@ 872
ρολόι 872
ρουμαν@@ 872
σταματήσουν 872
φύλακες 872
201@@ 871
à 871
Θεόδωρου 871
Μουντιάλ 871
Πανιωνίου 871
άρρω@@ 871
ίλιο 871
αθλήματος 871
ανανε@@ 871
βιολ@@ 871
θεότητες 871
ιστορ@@ 871
ρεύεται 871
στατη 871
συνάντησης 871
240 870
Ιάκωβο 870
Μπαμπ@@ 870
Πετρο@@ 870
Πολεμική 870
Τσεχίας 870
Τύπο 870
αρμό@@ 870
αψ@@ 870
βρετανικών 870
διαφωνίες 870
ερήμ@@ 870
ιώτες 870
μεταλλικό 870
1795 869
orum 869
Κώ@@ 869
Μπάου@@ 869
Μπελ 869
Μπους 869
Παλέρμο 869
Φθ@@ 869
έχθηκε 869
ίφ 869
βαλε 869
δημογραφική 869
εγγονή 869
πριγκιπάτο 869
σσας 869
ύστερη 869
1770 868
ΑΚ 868
Υπουργό 868
ανώτερος 868
βαθμολογικού 868
βορειοδυτικό 868
γιό 868
γνωρίστηκε 868
επενδυ@@ 868
ερευνητική 868
ζωές 868
λεία 868
οικονομικούς 868
ποσά 868
σταθμών 868
συμπαίκτη 868
Γυ@@ 867
Χώ@@ 867
άματα 867
άτωση 867
απόλ@@ 867
βάν@@ 867
επιστρέφουν 867
ητου 867
μαξ@@ 867
μεθυλο@@ 867
νύχτας 867
σκαγια 867
στρατοπέδου 867
υβρι@@ 867
φιλο@@ 867
Fiat 866
colspan 866
Νήσος 866
Ολο@@ 866
Σημαία 866
Σκην@@ 866
άντος 866
αναγνωρί@@ 866
απου@@ 866
ασπίδα 866
θεοί 866
πλανήτης 866
συνταγματική 866
Θηβ@@ 865
Σύγχρονη 865
Τάκης 865
άξονας 865
ίλο 865
αγαπημένη 865
αντιπρόσωπος 865
απουσίας 865
εκρήξεις 865
θρι@@ 865
κυπριακή 865
λιπ@@ 865
νί 865
ξίας 865
τήρας 865
φατ@@ 865
φιν@@ 865
37@@ 864
Bank 864
Little 864
Queen 864
ner 864
Καλύτερη 864
Λετονία 864
Νεκροταφείο 864
Πολωνός 864
Ρίτσ@@ 864
Σιμόν 864
άνθρακες 864
ασμοί 864
βάλ 864
γλύπτης 864
κρύβ@@ 864
ληθεί 864
μετανάστευσε 864
μνη@@ 864
οντο 864
πη@@ 864
πραξικοπήματος 864
προσφέρθηκε 864
ράκι 864
συντάκ@@ 864
2ης 863
ΒΔ 863
Γουινέας 863
Πόλ@@ 863
Σέριε 863
Σόφια 863
Τηλεόραση 863
αιχμαλώτους 863
αντς 863
αϊκής 863
επαγγελματικής 863
επηρεάζεται 863
λάθη 863
μοίρες 863
προσπαθήσει 863
τιοι 863
χιλιετία 863
Ήλιος 862
Γοδεφρείδος 862
Τριφυλίας 862
άζι 862
αλυσίδες 862
βαρών 862
γενής 862
δυστύχημα 862
εμπειρ@@ 862
επιτεύγματα 862
λαϊκ@@ 862
λουλούδια 862
οκύ@@ 862
παραχωρήσει 862
παροχής 862
υποβιβ@@ 862
ύφασμα 862
Αμπού 861
Δεξ@@ 861
Ομοσπονδιακή 861
Πρωθυπουργού 861
αλος 861
ανάμνηση 861
αναπτυξι@@ 861
ειρα 861
επικρατεί 861
πολιτι@@ 861
χάλκιν@@ 861
Na@@ 860
Νεολαίας 860
Υπολογ@@ 860
αιγυπτιακή 860
αρχικών 860
δίνονται 860
καταγράφονται 860
λεβ@@ 860
παλιάς 860
σιμότητα 860
Super@@ 859
Βαλτικής 859
Βατ@@ 859
Δήμητρα 859
Κυβ@@ 859
Ράιτ 859
ΣΥ@@ 859
Σκανδιναβ@@ 859
ίνους 859
αγροτών 859
αμφισβητ@@ 859
ασχολούνταν 859
βάσεων 859
διαδοχ@@ 859
διεξήγαγε 859
επιχει@@ 859
εφαρμογών 859
θεατρικών 859
ισπανικό 859
μπλοκ 859
[...]
