. 4356003
, 4172105
на 4004648
и 2320637
в 1920556
е 1754925
от 1465483
се 1006596
( 964235
) 964196
за 880867
@-@ 862337
с 753893
„ 677459
“ 671893
&quot; 646002
да 609224
по 467456
– 441593
са 439347
г. 410464
като 386605
през 383030
г 342054
си 325151
до 271633
година 265319
През 254786
В 242634
му 235334
а 227036
че 198305
: 197731
не 186564
но 180246
това 152737
към 151051
които 145558
най 141767
при 140127
който 139249
след 138803
или 136734
На 130040
във 122270
; 122009
фон 121479
има 118226
част 108863
време 108105
ни 105343
която 103253
години 102311
След 100902
което 100811
със 96818
той 94846
ните 92842
те 84588
град 83040
1 82484
По 81564
ната 79746
/ 79319
не@@ 78964
България 77025
около 74438
става 74333
много 73292
век 73138
между 72352
ски 72191
От 71908
ска 71652
Той 71107
село 70089
2 69283
† 67096
може 66501
го 66199
ѝ 66111
един 65634
ската 64817
където 64688
както 61390
ския 61269
други 61230
война 61210
също 60055
ния 59381
под 59261
ва 57703
им 57256
този 56050
3 54747
започва 54362
А@@ 54101
пре@@ 53979
късно 52818
ното 52702
ка 52690
само 52347
Е@@ 51353
още 51192
ли 50629
За 49958
души 49522
над 49484
него 49240
ци 48854
я 48008
една 47892
срещу 47453
т 47446
път 47070
4 46876
края 46361
ско 46299
когато 46124
така 45997
ти 45973
I 45786
Биография 45618
из@@ 45600
л 45261
вид 44878
български 44851
началото 44834
на@@ 44820
няколко 44373
всички 44215
селото 44078
II 43764
m 42975
km 42134
тях 41930
10 41857
семейство 41857
д 41811
5 41548
река 41131
ското 40997
за@@ 40995
н 40821
София 40768
ските 40739
20 40621
та 40596
ване 40367
две 40305
ите 40297
ният 40237
раз@@ 40182
ват 40179
м 39890
май 39887
септември 39788
ди 39782
ла 39456
6 39324
заедно 38916
ще 38838
О@@ 38801
Това 38793
% 38472
получава 38243
място 37866
ът 37721
тя 37682
тази 37588
тези 37424
града 37414
Според 37335
дъщеря 37223
лен 37158
ката 37154
ден 37013
имат 36935
януари 36900
ра 36777
к 36675
намира 36478
октомври 36417
- 36271
САЩ 36174
ви 36116
върху 36100
е@@ 36065
юни 36035
у@@ 35878
юли 35861
името 35665
август 35605
преди 35597
различни 35461
Македония 35457
бъде 35404
ко@@ 35249
чрез 35074
март 35048
то 34859
граф 34803
област 34740
април 34551
ка@@ 34541
но@@ 34397
о 34316
ят 34259
ноември 34096
ците 34096
работи 33978
декември 33827
Ко@@ 33794
община 33743
ре@@ 33546
три 33538
син 33443
два 33268
по@@ 33264
р 33082
до@@ 32749
ването 32695
15 32597
о@@ 32564
История 32404
&amp; 32371
Ка@@ 32314
ки 31821
някои 31781
група 31630
7 31621
често 31339
де@@ 30983
У@@ 30844
С 30813
ли@@ 30606
ги 30492
12 30485
8 30461
При 30454
лите 30278
страната 30226
Тя 30005
ри@@ 29949
февруари 29636
30 29525
С@@ 29512
ди@@ 29502
ни@@ 29435
от@@ 29416
език 29141
ра@@ 29115
нов 28857
Те 28782
И@@ 28643
могат 28538
сред 28537
жени 28381
център 28359
а@@ 28304
съ@@ 28239
пр.н.е. 28233
империя 28105
вече 28078
ти@@ 27699
Разпространение 27587
Видът 27505
повече 27477
чен 27416
университет 27389
Италия 27297
с@@ 27279
завършва 27191
отново 27189
прави 27159
Северна 27106
ките 27019
про@@ 26973
без 26956
Ма@@ 26893
използва 26813
те@@ 26692
лни 26668
участва 26522
страна 26500
9 26494
бил 26345
000 26312
ма 26241
ро@@ 26239
ският 26212
роден 26171
По@@ 26086
жители 26062
ми@@ 26041
рите 26017
училище 25903
части 25751
населението 25720
височина 25635
16 25577
Най 25536
ле@@ 25523
я@@ 25431
поради 25428
лна 25362
световна 25269
трябва 25269
под@@ 25267
нея 25250
сезон 25223
ри 25189
първата 25182
ма@@ 25137
периода 25130
к@@ 25122
малко 24920
обаче 24839
14 24838
11 24607
ви@@ 24605
според 24602
води 24483
ми 24453
18 24444
ран 24431
&apos; 24428
име 24425
дни 24392
голяма 24356
то@@ 24268
III 24257
ст 24181
ков 24158
ко 24138
чни 24027
Германия 24019
19 23980
мо@@ 23953
ла@@ 23821
Франция 23716
своя 23636
си@@ 23580
член 23574
Русия 23554
в@@ 23424
армия 23232
би 23230
На@@ 23131
13 23113
ло 23055
ш 23013
м@@ 22974
система 22939
умира 22939
край 22938
Свети 22909
ени 22888
2010 22868
25 22808
били 22683
* 22658
ник 22583
л@@ 22579
смъртта 22556
при@@ 22553
лно 22505
17 22489
Не@@ 22488
км 22316
д@@ 22079
да@@ 22066
Гърция 22025
2011 21996
тите 21964
та@@ 21892
де 21879
чна 21870
църква 21839
рани 21817
ван 21812
население 21785
Иван 21738
Европа 21727
Георги 21562
рат 21546
у 21515
Въпреки 21491
За@@ 21434
га@@ 21428
ята 21305
Де@@ 21253
докато 21140
би@@ 21119
днес 21103
Ми@@ 20918
ч 20870
първи 20853
играе 20770
ба@@ 20769
едно 20744
Ви@@ 20709
ва@@ 20701
пи@@ 20629
Мария 20626
времето 20609
г@@ 20590
деца 20496
отбор 20473
цията 20417
Роден 20351
групата 20265
баща 20259
се@@ 20252
живот 20245
Бо@@ 20205
ме@@ 20202
тъй 20197
печели 20125
Ме@@ 20075
Населението 20020
Из@@ 19972
големи 19931
Па@@ 19902
първия 19902
щата 19834
нови 19820
крал 19762
ку@@ 19730
период 19719
Ра@@ 19709
окръг 19656
сили 19645
ност 19567
ш@@ 19496
Ба@@ 19473
ране 19442
остава 19414
Южна 19408
страни 19371
т@@ 19316
га 19245
х@@ 19245
Има 19226
провинция 19018
рен 19016
па@@ 18977
нова 18956
ло@@ 18954
ница 18937
ството 18866
първите 18808
2000 18784
21 18757
света 18737
др 18714
войната 18709
ници 18679
бъдат 18629
дава 18568
П@@ 18533
брат 18456
Б@@ 18425
во 18402
места 18395
почти 18388
пе@@ 18376
начин 18345
Ку@@ 18335
няма 18300
Д@@ 18286
2012 18254
2009 18252
ве@@ 18243
голям 18227
2007 18208
Се@@ 18174
24 18129
вайки 18125
2008 18090
пред 18083
вани 18019
продължава 17959
К@@ 17942
тен 17932
пише 17899
филм 17871
з@@ 17862
22 17847
са@@ 17814
включва 17803
Пре@@ 17802
и@@ 17795
п 17782
ки@@ 17773
п@@ 17763
Александър 17735
известен 17691
Първата 17677
щи 17673
ен 17665
2006 17638
й@@ 17599
Са@@ 17570
ща 17533
хора 17451
Ха@@ 17434
използват 17386
ниците 17368
двете 17322
данни 17297
бе@@ 17253
ф@@ 17235
об@@ 17211
зи 17194
без@@ 17166
ата 17153
все 17149
цел 17098
ността 17084
ци@@ 17082
работа 17066
Си@@ 17034
всеки 17019
Ре@@ 16987
Ди@@ 16969
Димитър 16940
̀ 16935
американски 16930
Пе@@ 16888
Ро@@ 16870
лната 16832
семейството 16739
бо@@ 16727
успява 16718
ър 16640
н@@ 16584
чи@@ 16581
со@@ 16531
резултат 16527
50 16523
рия 16523
север 16511
Ли@@ 16486
областта 16485
вата 16463
същата 16451
награда 16449
ц 16434
море 16425
района 16411
Ле@@ 16388
Фридрих 16359
дейност 16338
23 16323
територията 16301
чно 16297
император 16287
х 16248
чев 16208
юг 16173
била 16130
четири 16078
Про@@ 16070
Мо@@ 16027
тът 16022
Бе@@ 16017
че@@ 16002
ция 16000
100 15995
там 15986
нията 15941
ман 15939
го@@ 15870
Втората 15858
Ла@@ 15855
й 15829
Като 15802
степен 15802
В@@ 15789
съюз 15787
2013 15782
малки 15766
първият 15712
Ш@@ 15647
отбора 15642
зи@@ 15623
партия 15608
заради 15596
Я@@ 15583
пъти 15579
генерал 15577
председател 15572
рана 15563
своите 15559
2014 15515
дори 15514
Ал@@ 15503
република 15493
рано 15489
изток 15477
сти 15473
три@@ 15461
албум 15452
2005 15400
М@@ 15390
вен 15376
ващи 15344
своята 15327
регион 15326
въз@@ 15274
бу@@ 15176
То@@ 15154
чната 15150
26 15137
При@@ 15123
площ 15122
ру@@ 15106
б@@ 15090
ф 15090
множество 15078
мача 15064
27 15056
преминава 15054
су@@ 15042
голямата 15020
например 15020
възраст 15018
° 15012
обикновено 15001
28 14987
вите 14980
участие 14959
църквата 14904
живота 14887
филма 14830
съпруга 14827
2001 14810
Към 14783
управление 14756
пред@@ 14754
IV 14750
Бу@@ 14712
А 14666
дължина 14653
острови 14651
разпространен 14642
остров 14632
лия 14583
Т@@ 14559
з 14549
2015 14543
Карл 14535
лу@@ 14505
излиза 14447
Би@@ 14421
вал 14416
история 14416
2004 14406
1944 14384
организация 14351
близо 14325
надморска 14309
Република 14298
сен 14270
40 14247
вана 14243
Османската 14227
До@@ 14224
включително 14151
До 14111
2002 14108
ха@@ 14104
лните 14099
сто@@ 14074
ду@@ 14073
Когато 14067
общината 14058
достига 14025
линия 13983
ха 13977
_ 13961
хи@@ 13948
групи 13932
кариера 13920
съвет 13919
Та@@ 13891
чните 13891
съпругата 13877
състои 13864
Съ@@ 13841
The 13833
особено 13824
род 13793
ч@@ 13790
запад 13763
Освен 13754
среща 13752
министър 13747
брой 13710
gt 13705
тогава 13692
Ри@@ 13685
Ру@@ 13680
ча@@ 13669
йски 13656
щ 13654
създава 13648
вода 13606
средата 13587
форма 13562
власт 13560
предимно 13551
Те@@ 13542
живее 13541
География 13521
историята 13481
хо@@ 13471
добре 13466
² 13444
войски 13443
ан@@ 13426
Ф@@ 13424
избран 13414
започват 13408
вали 13378
З@@ 13340
втората 13339
жена 13291
Ва@@ 13282
българи 13280
Ню 13262
лов 13215
пра@@ 13204
нието 13195
Лу@@ 13194
ство 13149
вида 13081
ца 13043
Пи@@ 13025
Ки@@ 13020
lt 13013
връзка 13010
въпреки 13009
Ве@@ 12992
вероятно 12936
силно 12920
29 12915
Г@@ 12900
нарича 12879
сти@@ 12836
херцог 12833
Хайнрих 12829
отнася 12814
Да@@ 12805
гу@@ 12750
сл 12740
служба 12738
нен 12733
договор 12732
състава 12718
e 12707
ев 12685
1990 12627
ново 12626
Така 12623
чи 12604
защото 12567
Х@@ 12566
тата 12563
вия 12555
Ар@@ 12546
влиза 12540
Йохан 12518
годишна 12517
видове 12514
право 12498
Никола 12494
лата 12483
2016 12464
во@@ 12426
рането 12425
Завършва 12412
ба 12386
сън 12363
№ 12341
И 12334
Петър 12330
Су@@ 12315
Мар@@ 12295
60 12252
застрашен 12239
&#93; 12209
било 12199
българска 12191
ста@@ 12167
роля 12165
Разпространен 12149
б 12143
големите 12127
Пловдив 12103
ено 12096
Го@@ 12082
&#91; 12062
изчезване 12051
ту@@ 12046
ако 12002
само@@ 12001
неговата 11996
представлява 11982
назначен 11953
зо@@ 11937
общо 11925
2003 11886
Ти@@ 11874
па 11854
район 11847
Га@@ 11845
ар@@ 11842
хората 11839
майка 11836
Рим 11798
ето 11798
тип 11792
2017 11786
От@@ 11739
повечето 11730
Ю@@ 11728
песни 11724
ин@@ 11710
Джон 11706
състав 11703
Васил 11702
свят 11637
всяка 11594
дена 11594
носи 11577
ен@@ 11576
втори 11562
комитет 11540
Кар@@ 11525
провежда 11481
Англия 11462
ге@@ 11459
тни 11455
ше@@ 11444
стите 11423
академия 11419
Раз@@ 11405
редица 11370
фи@@ 11360
човек 11324
йки 11323
ча 11309
държава 11294
р@@ 11274
мен 11257
циите 11254
0 11237
31 11237
ров 11230
дите 11222
ж@@ 11217
милиона 11206
Ни@@ 11197
ле 11197
кът 11182
българската 11171
му@@ 11167
ши@@ 11161
Испания 11154
он 11152
ля@@ 11135
свързани 11133
учи 11133
ги@@ 11124
мач 11119
графиня 11108
гръцки 11086
V 11055
щите 11044
казва 11028
руски 10990
Нова 10983
чо 10980
Париж 10975
мата 10967
Стефан 10946
лния 10946
ке@@ 10934
манастир 10908
ж 10902
полк 10900
Н@@ 10896
1912 10882
командир 10869
Филип 10867
ващ 10862
живеят 10828
80 10818
ваща 10779
метра 10766
пет 10761
ста 10759
бързо 10758
сила 10713
Америка 10701
пла@@ 10694
Великобритания 10692
музика 10691
жи@@ 10685
голямо 10680
ява 10674
неговите 10673
образование 10670
друг 10660
връх 10652
дивизия 10648
Китай 10629
дени 10622
1991 10612
разположен 10556
Африка 10554
развитие 10544
политически 10539
ника 10525
тна 10472
Христо 10457
полу@@ 10429
1945 10426
Умира 10416
движение 10403
друга 10402
месеца 10396
Со@@ 10389
разположени 10388
ст@@ 10383
приема 10352
Ло@@ 10350
заема 10330
пи 10326
театър 10314
продължение 10281
сът 10262
основно 10245
ме 10239
берг 10235
1999 10223
2018 10207
реката 10207
1913 10197
що 10187
пр 10174
СССР 10155
зе@@ 10150
правителство 10143
ро 10129
цар 10128
+ 10120
То 10114
ман@@ 10114
произход 10112
връща 10106
кон@@ 10084
държави 10076
гимназия 10070
Този 10067
литература 10049
70 10048
директор 10024
създаването 10014
първенство 10003
— 9987
Хе@@ 9986
лятото 9984
Ц@@ 9964
ц@@ 9957
Япония 9955
тън 9952
мястото 9951
Йорк 9943
новата 9920
чета 9910
останалите 9905
английски 9894
стил 9893
управлението 9888
птица 9880
ъ@@ 9872
известна 9853
це@@ 9848
= 9841
известни 9841
лят 9838
of 9833
лъ@@ 9830
цялата 9827
Първият 9814
1992 9791
ша 9787
Българската 9776
Хо@@ 9775
първото 9770
точка 9769
ля 9768
мен@@ 9751
1941 9750
Му@@ 9747
политик 9735
1989 9717
ок 9716
Но@@ 9712
Ге@@ 9709
Николай 9698
книги 9694
френски 9692
действия 9685
пу@@ 9682
Вилхелм 9680
отношение 9646
us 9636
вър@@ 9631
центъра 9629
чния 9622
жи 9596
намират 9578
Анна 9574
1998 9571
рата 9569
служи 9569
Полша 9563
лин 9557
Западна 9555
XIX 9541
Св 9531
напуска 9531
другите 9523
йн 9521
Михаил 9497
малка 9493
двата 9487
Някои 9477
ел 9454
formula 9443
роман 9437
Москва 9432
правителството 9431
същото 9419
футболист 9418
разположено 9410
мите 9405
вания 9397
C 9393
дьо 9392
албума 9388
1997 9380
децата 9374
ън 9373
чка 9349
Че@@ 9340
ролята 9337
бряг 9331
епископ 9331
едва 9329
щати 9319
чу@@ 9305
Във 9291
Тази 9288
неговото 9286
превръща 9286
сина 9286
Там 9272
! 9267
значение 9267
означава 9254
Ту@@ 9243
1996 9237
Ан@@ 9236
Намира 9235
последните 9228
битката 9227
Азия 9211
тно 9193
Тези 9188
Хи@@ 9178
военни 9173
учител 9172
разлика 9170
началник 9154
200 9149
песента 9144
лига 9140
ю@@ 9136
Ин@@ 9112
главен 9105
ши 9103
мм 9094
Ду@@ 9093
Турция 9087
1995 9086
йския 9073
Селото 9060
княз 9060
Кон@@ 9051
скоро 9051
1994 9035
книга 9034
ша@@ 9026
дата 9023
Поради 9003
стават 8977
Индия 8976
лното 8965
напълно 8959
фа@@ 8957
же@@ 8952
ър@@ 8952
ан 8949
главно 8933
изкуство 8932
информация 8924
течение 8921
малък 8918
Света 8915
издава 8915
двамата 8913
ер 8912
1980 8897
Елизабет 8895
Описание 8890
решава 8888
компания 8887
кс 8886
Сърбия 8872
Гу@@ 8866
кораба 8863
90 8857
мъ@@ 8853
територия 8848
кла@@ 8836
кораби 8828
лът 8828
мо 8823
президент 8823
ани 8817
ал@@ 8810
щ@@ 8809
въстание 8796
влияние 8788
изследвания 8781
никът 8781
Сан 8776
Константин 8761
Ке@@ 8753
Варна 8752
поле 8740
ск@@ 8738
анти@@ 8732
развитието 8727
следва 8723
ред 8722
Лудвиг 8720
кан@@ 8715
събрание 8685
Кара@@ 8682
кръг 8679
градове 8673
планина 8671
исторически 8649
дъ@@ 8647
кри@@ 8643
защита 8642
политика 8623
­ 8621
Участва 8615
писател 8609
Австралия 8601
опит 8598
известно 8597
mm 8594
производство 8572
българските 8571
.@@ 8553
целия 8550
случай 8538
професор 8532
завръща 8530
нски 8527
идва 8513
изцяло 8513
1993 8509
дву@@ 8508
членове 8508
кра@@ 8505
произведения 8491
сте@@ 8480
шка 8478
преброяването 8476
неговия 8475
Лондон 8461
нат 8457
успех 8457
развива 8456
обявява 8449
култура 8441
Украйна 8428
ян 8413
лю@@ 8405
участват 8403
s 8400
Йо@@ 8392
ер@@ 8386
следващите 8385
появява 8383
2019 8370
сестра 8363
съд 8344
музей 8327
планината 8318
Ша@@ 8314
Но 8304
кораб 8298
села 8296
1943 8291
първо 8288
мир 8276
Бразилия 8251
тия 8250
хе@@ 8250
1878 8243
състояние 8239
йската 8216
бата 8212
фе@@ 8207
Източна 8204
рът 8202
клуб 8201
всичко 8193
официално 8165
земи 8162
първоначално 8160
Ор@@ 8151
игри 8148
над@@ 8144
стра@@ 8144
вестник 8143
годината 8134
Бра@@ 8132
условия 8123
жен 8117
вото 8112
половина 8100
Сред 8088
1970 8081
br 8079
помощта 8076
против 8073
Гра@@ 8067
значително 8066
1900 8064
Разположено 8052
себе 8044
кия 8043
райони 8038
техните 8038
Р@@ 8034
системи 8028
издаден 8027
километра 8021
езици 8013
открива 8007
бург 8003
годините 8003
чното 7999
1918 7994
флот 7992
Фамилия 7989
столицата 7989
институт 7985
ща@@ 7981
записва 7974
цели 7973
ние 7970
Кри@@ 7967
представител 7960
елементи 7946
включват 7928
разположена 7922
пръв 7921
българско 7915
компанията 7914
поли@@ 7914
ве 7912
Стара 7910
Л@@ 7907
Марк 7900
гра@@ 7898
кли@@ 7891
едно@@ 7871
книгата 7865
военен 7853
основава 7848
селище 7846
точки 7838
проект 7835
позволява 7827
смята 7827
ско@@ 7825
участието 7824
близост 7823
ден@@ 7820
Австрия 7818
пътя 7811
секретар 7809
следващата 7808
версия 7807
ор@@ 7797
шки 7795
решение 7793
the 7787
макар 7780
1960 7779
освен 7777
бива 7764
лица 7763
гола 7759
Други 7748
обща 7747
часа 7745
предлага 7744
кова 7740
средства 7732
брак 7727
титлата 7725
ска@@ 7721
толкова 7719
Между 7704
ръ@@ 7701
1940 7693
изключително 7685
гре@@ 7673
кар@@ 7666
фо@@ 7662
оказва 7661
армията 7660
ня@@ 7656
щайн 7656
автор 7655
ху@@ 7650
вски 7648
песен 7648
сезона 7645
жда 7641
лен@@ 7640
cm 7639
военна 7638
сметка 7637
работата 7630
кръ@@ 7624
дело 7611
1942 7610
езерото 7577
Мексико 7566
ниво 7564
такива 7560
процес 7558
сни 7555
поставя 7550
Мак@@ 7548
шест 7547
Първоначално 7538
idae 7537
Не 7537
заместник 7536
филми 7535
сигурност 7529
втория 7518
помощ 7511
Унгария 7510
добър 7495
Ши@@ 7494
понякога 7493
чески 7492
джи@@ 7486
губи 7482
дер 7482
големият 7468
показва 7460
своето 7457
дж@@ 7455
Фи@@ 7451
2020 7440
температура 7440
йска 7439
ФК 7438
омъжва 7434
жа 7427
награди 7426
водата 7425
следните 7418
българския 7392
сграда 7385
дено 7378
чин 7378
шампион 7378
Църквата 7377
гр 7377
новия 7373
Много 7356
представя 7353
ства 7349
мрежа 7347
тната 7347
Канада 7345
възможност 7345
зона 7331
събития 7324
сия 7311
ьо@@ 7305
1986 7295
500 7294
отказва 7289
основа 7287
острова 7279
дружество 7276
мът 7276
ждат 7272
формата 7272
Ман@@ 7265
вни 7253
висока 7248
гла@@ 7247
Централна 7236
правят 7236
определя 7234
тре@@ 7229
тук 7225
Още 7223
1988 7218
Ста@@ 7217
проблеми 7209
Б 7192
списание 7188
бра@@ 7184
южната 7178
Йоан 7172
лото 7167
тните 7167
Кирил 7164
ген 7163
животни 7159
1950 7156
яване 7156
съдържа 7145
създадена 7144
ции 7135
достигат 7124
М 7123
Преди 7108
Ай@@ 7103
ано 7101
позиция 7101
... 7093
новите 7093
1934 7091
властта 7091
рамките 7083
области 7080
Кра@@ 7078
извършва 7071
1905 7060
опитва 7060
тър@@ 7060
месец 7045
оръдия 7043
треньор 7039
дали 7031
двама 7028
Ако 7025
стена 7023
Фа@@ 7020
пар@@ 7015
родена 7014
Египет 7001
културата 6990
приток 6989
програма 6984
същия 6978
Бар@@ 6973
лски 6973
северната 6972
къ@@ 6959
публикува 6958
впоследствие 6957
хиляди 6957
националния 6953
смърт 6949
.. 6946
извън 6946
басейн 6936
вала 6936
ващите 6935
тро@@ 6934
границата 6933
основните 6928
Румъния 6923
ну@@ 6922
Под@@ 6909
Ер@@ 6908
бър@@ 6905
права 6895
ран@@ 6892
избори 6876
нито 6858
футбол 6852
попада 6850
лка 6849
a 6833
ални 6832
къщи 6827
тан@@ 6827
лена 6824
наградата 6824
доста 6822
морски 6818
тъ@@ 6812
построена 6796
консул 6794
тялото 6790
ител 6785
модел 6785
1985 6781
вете 6779
1920 6768
гори 6767
установява 6760
рок 6758
Ча@@ 6757
сите 6751
принцеса 6747
начело 6746
поема 6744
ус 6738
1987 6730
причина 6726
ъ 6725
ити 6723
Името 6722
Население 6721
срещат 6716
изпълнява 6712
немски 6712
деец 6707
Рай@@ 6702
създаден 6700
вият 6686
случаи 6686
капитан 6685
езеро 6682
представители 6680
Чи@@ 6677
Кор@@ 6673
Фе@@ 6670
300 6663
сега 6661
1984 6656
фамилията 6654
лан@@ 6652
кариерата 6649
стъ@@ 6639
рен@@ 6636
получават 6635
ек@@ 6633
1939 6624
Първите 6624
кови 6620
Ч@@ 6615
отношения 6613
тон 6608
1981 6605
съществува 6603
Произход 6600
1968 6594
35 6594
Во@@ 6583
рията 6582
Борис 6581
национален 6580
Берлин 6569
офицер 6566
дът 6553
Виена 6543
скорост 6541
високо 6536
клас 6536
основни 6534
1974 6533
Д 6528
Балканската 6527
ствата 6524
точно 6515
водо@@ 6513
статут 6505
региона 6501
Джеймс 6500
пак 6500
митрополит 6499
тра@@ 6494
пара@@ 6492
Също 6491
войници 6491
Баща 6489
епархия 6489
промени 6489
XX 6487
много@@ 6485
стта 6478
негов 6460
1979 6458
ген@@ 6456
ций 6450
ницата 6449
гора 6447
дия 6444
планински 6444
план 6442
среда 6439
нос 6434
вер@@ 6430
занимава 6425
храм 6421
производството 6410
долината 6409
форми 6399
1978 6395
Ху@@ 6389
1948 6387
VI 6386
мия 6386
ний 6384
ари 6383
1971 6381
големия 6381
западната 6371
Хар@@ 6364
Административен 6359
стен 6357
турнира 6355
чат 6344
посока 6339
широко 6339
убит 6335
1928 6332
земя 6331
Це@@ 6328
нал 6328
контрол 6327
влизат 6321
жа@@ 6320
1982 6315
вано 6294
електро@@ 6294
чки 6289
зите 6288
1976 6286
отбелязва 6284
Разположен 6280
вна 6273
как 6273
дълго 6271
местообитание 6270
щия 6268
победа 6265
1946 6264
открити 6262
иска 6254
винаги 6246
Левски 6244
школа 6244
европейски 6238
жените 6236
сто 6228
ше 6222
Владимир 6221
практика 6220
рени 6218
проекта 6217
италиански 6216
войни 6214
ръководството 6209
1972 6206
ционни 6205
сградата 6201
вен@@ 6200
твърди 6196
бен 6192
дна 6190
столица 6188
мост 6186
използвани 6181
ново@@ 6180
момент 6178
кан 6174
тор 6172
ясно 6171
местните 6170
1930 6164
све@@ 6164
т.нар. 6164
чест 6160
бри@@ 6158
университета 6156
сен@@ 6152
Три@@ 6143
из 6143
ково 6138
мар@@ 6131
сло@@ 6129
зата 6127
т.е. 6125
творчество 6120
къща 6117
остават 6113
източната 6105
Димитров 6092
цялото 6089
Градът 6085
Всички 6078
1975 6077
редактор 6074
общество 6070
шо@@ 6068
присъединява 6066
1947 6065
океан 6064
оби@@ 6063
Калифорния 6057
бе 6057
постепенно 6057
Об@@ 6049
бар@@ 6048
жителите 6040
Сто@@ 6030
ръководител 6019
45 6017
свързва 6016
тор@@ 6013
типа 6006
Днес 6005
наричат 5998
ван@@ 5993
вил 5992
1969 5991
Солун 5986
Ото 5980
лер 5979
битка 5972
Ше@@ 5968
1973 5967
Площта 5963
организацията 5961
рал 5960
1983 5954
Започва 5954
пер@@ 5950
de 5943
ческа 5940
ланд 5939
отива 5934
земята 5931
Хай@@ 5926
ера 5925
дете 5915
православна 5912
дър@@ 5908
заминава 5904
1927 5903
сон 5903
революция 5902
трите 5894
Югославия 5892
полуостров 5892
Луи 5891
ъл 5890
рена 5887
Тодор 5886
ително 5884
сгради 5884
дел 5883
Саксония 5882
1919 5875
реките 5875
турски 5869
йна 5867
съответно 5867
специално 5862
гле@@ 5861
държавата 5857
бите 5856
1923 5852
1967 5851
ря@@ 5844
Един 5842
Бер@@ 5838
бивш 5838
яват 5831
дават 5826
различните 5826
дом 5823
щат 5819
Кал@@ 5818
Земята 5811
трети 5810
минава 5809
описва 5808
изпраща 5805
бор@@ 5804
актьор 5799
енергия 5799
българското 5796
семейства 5796
кратко 5787
зу@@ 5785
лени 5785
говори 5783
жението 5776
науки 5772
издание 5770
дворец 5762
1962 5761
манастира 5760
Бургас 5754
Павел 5752
зен 5752
майор 5748
отделни 5747
Май@@ 5746
организира 5743
ващо 5738
зависимост 5737
ня 5737
рин 5730
актриса 5729
основата 5729
-@@ 5723
гол 5722
Ел@@ 5714
граница 5714
ита 5706
местността 5704
1966 5699
подписва 5697
ждане 5696
военно 5694
парк 5687
статистиката 5686
материали 5684
пле@@ 5684
положение 5684
десет 5682
ет@@ 5678
пло@@ 5674
ре 5674
организации 5671
ционен 5670
кралство 5668
крайна 5663
открит 5663
бро@@ 5660
титла 5657
сравнително 5648
Щ@@ 5643
господар 5642
йските 5641
годишен 5637
кре@@ 5636
нена 5636
лина 5634
рода 5634
1965 5631
ална 5631
вторият 5631
БКП 5628
системата 5628
Георг 5617
Община 5616
цата 5615
1977 5611
когото 5604
1959 5603
1964 5603
дял 5601
Тук 5598
четата 5594
вла@@ 5592
Бре@@ 5590
1915 5588
лска 5585
Жан 5566
Уилям 5565
епоха 5565
управлява 5562
Тогава 5560
ос@@ 5555
южно 5555
следващия 5551
паметник 5550
папа 5550
стане 5547
1949 5545
ителни 5541
Работи 5540
1938 5539
Формула 5537
дем 5534
2021 5532
Иванов 5527
зна@@ 5525
подкрепа 5524
факултет 5524
лният 5517
имало 5515
мер@@ 5514
стър 5514
Пу@@ 5513
наречен 5512
ално 5503
първа 5498
градът 5496
взема 5494
лий 5488
романа 5484
Бър@@ 5482
родния 5478
градски 5475
политическа 5469
Т 5462
нейната 5462
борба 5460
1961 5457
територии 5455
сла@@ 5453
лин@@ 5449
ционна 5447
Заедно 5446
1956 5443
действие 5442
зад 5440
тира 5439
художник 5439
Голяма 5437
посещава 5436
северно 5436
К 5431
поддържа 5427
Гвинея 5425
орден 5419
обучение 5418
1963 5417
вместо 5417
Швеция 5415
възможно 5415
ато@@ 5414
ат@@ 5408
ск 5408
гите 5406
миналото 5406
теория 5399
яването 5396
Търново 5394
вица 5393
маса 5393
глава 5391
дома 5390
стка 5388
1958 5385
ителна 5385
1000 5382
ати 5379
ене 5378
вена 5377
нява 5375
бан@@ 5374
Скопие 5373
долара 5370
ати@@ 5368
ет 5367
източници 5364
лев 5364
отколкото 5360
стойност 5358
премества 5355
Докато 5354
известните 5354
со 5352
рис 5344
негово 5342
средно 5342
клуба 5340
активно 5336
представ@@ 5336
1936 5329
обект 5328
нати 5327
тер 5322
1924 5321
селата 5320
свой 5318
водят 5317
училището 5316
разполага 5311
турската 5310
32 5303
Член 5302
рядко 5299
Ги@@ 5294
музиката 5291
Константинопол 5289
наследство 5289
нали 5287
Тракия 5285
ак@@ 5285
режисьор 5285
О 5284
Ж@@ 5282
спо@@ 5282
подобни 5281
революционер 5277
? 5275
Вер@@ 5273
стро@@ 5271
1926 5268
цяло 5262
тичен 5261
езика 5260
никога 5256
Кариера 5255
Етнография 5254
превод 5253
успяват 5242
гри@@ 5241
1903 5238
работят 5237
римски 5235
ос 5234
техника 5224
Сан@@ 5222
добра 5222
създават 5221
Ен@@ 5220
пан@@ 5217
Тъй 5215
статистика 5215
броя 5214
носител 5212
гата 5210
раните 5210
он@@ 5203
фи 5203
използването 5201
шко 5200
це 5198
кото 5187
тов 5185
лова 5182
режисьора 5182
млн. 5181
Стра@@ 5180
продължават 5177
Джа@@ 5175
връзки 5175
крайцери 5172
радио@@ 5170
достатъчно 5169
линии 5166
германски 5157
ю 5153
Пла@@ 5147
Дра@@ 5145
герой 5144
ще@@ 5141
определени 5138
тото 5137
партията 5133
мъже 5130
чена 5130
Швейцария 5129
число 5129
залив 5125
успешно 5122
издадена 5121
тски 5121
последния 5117
революционна 5117
научни 5116
храма 5112
високи 5111
1935 5108
Ак@@ 5107
база 5106
реки 5104
150 5103
търговски 5102
1952 5097
дълбочина 5096
чиято 5096
дя@@ 5091
1929 5079
стига 5077
свои 5074
1914 5073
сингъл 5073
Първа 5070
йското 5067
рий 5067
фронт 5066
размери 5065
мина@@ 5060
нин 5059
Джордж 5058
Елена 5052
сна 5049
ѐ@@ 5049
ООН 5048
имена 5047
Софийския 5045
1925 5044
мин@@ 5044
гара 5041
собственост 5041
минути 5040
Колумбия 5039
мов 5039
счита 5037
коле@@ 5036
административен 5032
1921 5031
номер 5025
ствена 5025
използван 5024
християни 5023
централната 5020
Мон@@ 5015
спа@@ 5015
хан 5015
ган 5010
ВМОРО 5004
цвят 5002
Поли@@ 5000
т.н. 4991
Около 4988
птици 4987
творби 4987
ур@@ 4986
въ@@ 4985
тяхната 4983
седем 4981
гли@@ 4975
човека 4974
400 4963
главния 4961
икономически 4961
довете 4960
ностите 4960
зия 4957
1908 4953
Националната 4950
1922 4943
построен 4939
Министерството 4935
есента 4935
кула 4933
Бал@@ 4932
американската 4932
войвода 4932
думи 4930
Вла@@ 4929
тин 4929
споменава 4922
финала 4921
Пер@@ 4919
серия 4917
държавен 4916
линията 4916
Русе 4914
Пан@@ 4913
брега 4913
ьо 4913
тона 4909
тел 4908
1951 4904
такъв 4904
П 4902
кор@@ 4902
алната 4901
жат 4901
стени 4898
втора 4894
помага 4892
продукти 4892
Брат 4891
комплекс 4891
поп 4891
шен 4884
1953 4879
Г 4879
Римската 4877
създаване 4876
чени 4876
1877 4873
Велики 4872
лан 4871
българите 4869
вар@@ 4866
Белгия 4864
1933 4863
игра 4863
променя 4859
върха 4855
код 4854
после 4850
тични 4847
1957 4841
обратно 4841
крайцера 4840
Горна 4834
ате@@ 4834
власти 4833
Къ@@ 4832
дума 4831
Руската 4824
пристига 4823
провеждат 4821
Загора 4820
поредица 4820
народен 4811
защитава 4809
Съединените 4808
действа 4805
Луций 4803
дан 4802
храна 4795
1937 4793
et 4793
структура 4790
ал 4787
характер 4786
Филмът 4785
изкуството 4783
ит@@ 4781
братя 4779
1904 4775
дълги 4769
ред@@ 4767
пролетта 4765
тика 4757
нейните 4756
вижда 4752
рон 4752
Университета 4751
вя@@ 4751
2@@ 4749
Лю@@ 4748
склонове 4748
хода 4747
гер 4745
1917 4740
Под 4739
роли 4739
селища 4739
лд 4738
Пар@@ 4734
налага 4734
образуват 4734
единствено 4732
употреба 4731
френския 4729
направи 4727
принц 4727
проф 4723
чер@@ 4721
гъ@@ 4715
сту@@ 4714
беше 4712
затова 4706
последната 4703
пехотен 4702
годишно 4701
пари 4701
VII 4700
именно 4699
военните 4698
гръцката 4698
Мъ@@ 4697
Е 4694
али@@ 4694
пъ@@ 4694
гът 4692
осъществява 4692
Бор@@ 4688
Франц 4687
футболен 4687
дно 4686
изключение 4682
Една 4681
след@@ 4680
отряд 4678
вът 4676
камък 4675
фор@@ 4672
осем 4669
вени 4668
наричан 4667
Купата 4665
взима 4660
Сюжет 4657
комисия 4653
дейността 4651
ева 4650
йн@@ 4650
X 4648
1954 4646
Пред@@ 4645
американска 4644
интерес 4642
Зе@@ 4641
A 4638
международни 4637
ѝ@@ 4636
използване 4634
растения 4634
ален 4631
Гай 4630
заявява 4629
нала 4628
намалява 4627
дела 4623
поста 4620
старите 4620
Мартин 4618
отдел 4618
благодарение 4615
преподава 4615
труд 4613
ори 4612
заповед 4611
Дунав 4604
Пет@@ 4601
Син@@ 4599
появяват 4591
микро@@ 4590
’ 4589
хайм 4588
ком@@ 4587
1932 4585
местни 4584
пост 4581
дел@@ 4580
основан 4580
нещо 4579
сведения 4579
кмет 4578
изпратен 4573
чите 4573
сви@@ 4569
Съюза 4567
1910 4566
корпус 4566
носят 4565
Повечето 4562
жда@@ 4562
цен@@ 4561
дените 4559
побеждава 4559
сме@@ 4558
оръжие 4556
сериал 4552
обекти 4550
лската 4545
лява 4545
Тур@@ 4544
тер@@ 4544
гър@@ 4536
наречена 4534
постъпва 4533
веднага 4532
тин@@ 4532
Дже@@ 4530
in 4529
Индонезия 4528
Робърт 4527
телевизия 4527
нар@@ 4526
Вал@@ 4524
идеята 4523
шката 4519
1955 4517
замък 4515
йско 4511
Вър@@ 4508
крепост 4506
наследник 4502
командването 4497
рин@@ 4497
биват 4496
добри 4493
Фердинанд 4492
образува 4491
лейтенант 4489
лението 4486
ЦСКА 4485
вър 4485
Конрад 4483
св 4481
i 4480
цяла 4474
срещи 4472
ителен 4470
бер@@ 4467
относно 4464
просто 4460
едновременно 4454
режим 4452
материал 4451
открито 4445
Атина 4444
ери 4444
самия 4444
стадион 4441
чийто 4441
Бан@@ 4440
Гер@@ 4437
войска 4437
тяхното 4437
дън 4436
северозапад 4435
количество 4434
раната 4434
нер 4433
чието 4432
между@@ 4429
стре@@ 4429
училища 4428
полета 4427
ън@@ 4427
пространство 4426
тяло 4424
Междусъюзническата 4423
Мал@@ 4422
цки 4417
Аржентина 4415
произлиза 4414
Фу@@ 4413
постоянно 4412
мин 4411
стру@@ 4410
Автор 4408
Ернст 4404
негови 4404
алните 4402
щаб 4402
Албания 4400
ези@@ 4400
ум 4400
Южен 4399
полски 4399
and 4397
Томас 4394
изпълнение 4394
прекарва 4394
спрямо 4393
ждането 4378
шу@@ 4378
ращи 4368
паша 4366
квартал 4365
стри@@ 4359
Тре@@ 4352
източно 4351
лон 4349
ческия 4348
Хитлер 4346
ев@@ 4344
Дъ@@ 4343
добрите 4340
канал 4338
тична 4338
Богородица 4337
La 4335
зала 4334
основен 4334
Впоследствие 4324
Село 4323
играят 4320
победата 4319
западно 4318
бре@@ 4315
важна 4315
операция 4313
голямото 4310
президента 4309
1931 4304
Пол 4302
поредицата 4301
тема 4299
ражда 4296
кул@@ 4295
мон 4294
ок@@ 4294
Учи 4293
Гор@@ 4292
гърци 4292
мета@@ 4291
Например 4290
документи 4289
нейния 4289
тове 4287
програмата 4286
сравнение 4286
диа@@ 4280
Обикновено 4279
пада 4276
Едуард 4274
високата 4272
сериала 4272
чката 4268
зе 4265
полковник 4263
Мор@@ 4262
библиотека 4260
кара 4260
лис 4258
североизток 4257
кър@@ 4256
дер@@ 4255
ем 4254
негова 4253
руския 4253
зов 4251
райки 4251
чиито 4250
йни 4249
Става 4248
логия 4248
лет 4247
дж 4246
общини 4241
33 4238
даден 4237
Кан@@ 4234
наре@@ 4233
ква 4231
Ци@@ 4230
опа@@ 4230
югоизток 4229
икономика 4226
Хер@@ 4225
въпроси 4225
ствен 4225
Корея 4223
кал@@ 4223
станция 4223
Пра@@ 4221
рак 4221
високо@@ 4219
Чу@@ 4217
градовете 4217
общност 4216
Албрехт 4213
турнир 4212
Илия 4209
класа 4209
ръководи 4207
1916 4205
изградена 4205
руската 4205
н.в. 4204
приет 4203
уни@@ 4203
устието 4200
Бри@@ 4199
причини 4199
сътрудничество 4199
шев 4197
конгрес 4194
зва 4192
вната 4187
британски 4185
75 4182
бя@@ 4181
Дейвид 4180
сно 4180
всяко 4179
епи@@ 4177
висок 4176
нейното 4175
разбира 4175
Макар 4174
1906 4173
дре@@ 4173
всичките 4168
00 4167
важни 4167
получи 4167
дро@@ 4166
определен 4162
Първото 4158
хидро@@ 4158
показват 4155
контра@@ 4154
крепостта 4151
пол@@ 4148
съществуват 4148
гори@@ 4145
правото 4145
ся@@ 4145
Мари@@ 4143
Фо@@ 4143
ке 4142
еди@@ 4135
ческата 4134
Родена 4132
погребан 4132
рова 4132
ъл@@ 4132
основната 4131
разказва 4131
Първи 4129
учени 4128
вец 4126
върне 4124
дра@@ 4124
38 4123
ем@@ 4123
краля 4122
страните 4119
запа@@ 4115
царство 4111
Н 4110
км2 4110
обхваща 4109
полет 4109
Ботев 4105
приятел 4104
изследване 4103
йт 4101
нар 4100
ити@@ 4098
философия 4098
сцена 4097
Кру@@ 4095
Иран 4094
хи 4094
km2 4092
поет 4089
търговия 4089
род@@ 4088
фа 4088
затвор 4086
Кър@@ 4085
големина 4085
сам 4085
фаза 4084
лекар 4083
щото 4081
Август 4079
лично 4079
Фор@@ 4078
въоръжение 4078
племена 4076
победи 4076
Обитава 4075
представляват 4074
Ек@@ 4072
Кур@@ 4070
свещеник 4066
ческо 4066
фу@@ 4064
фото@@ 4060
Сер@@ 4057
кон 4057
седмици 4057
бригада 4056
основана 4056
ък 4056
вено 4055
ствени 4055
произвежда 4052
син@@ 4051
оценка 4049
Хр 4047
Израел 4046
изграждането 4046
Двамата 4040
бъ@@ 4040
проекти 4040
лесно 4039
източник 4038
крайбрежие 4036
вина 4035
теле@@ 4035
зъм 4033
поход 4033
Национален 4031
каза 4030
ности 4030
селището 4030
джа@@ 4028
чо@@ 4024
нямат 4021
предизвиква 4021
1911 4019
постига 4018
Хесен 4015
тен@@ 4015
осигурява 4014
сър@@ 4013
ул 4008
образованието 4004
ин 4003
специалност 4003
рали 4001
ена 4000
лар@@ 4000
независимост 3999
36 3998
затвора 3997
обявен 3995
старо@@ 3995
фер@@ 3994
тежки 3993
събира 3991
34 3989
Долна 3988
коло@@ 3987
притежава 3986
общ 3983
1902 3982
Край@@ 3981
югозапад 3980
друго 3979
лки 3977
науките 3976
Георгиев 3972
флота 3971
Малко 3968
Мюнхен 3968
граждани 3968
правата 3968
Гар@@ 3967
Климент 3962
руските 3959
1907 3957
главната 3957
завър@@ 3955
Хенри 3954
ителните 3953
машини 3950
Нидерландия 3949
Христос 3949
лице 3948
изъм 3947
преподавател 3947
рина 3947
Петров 3946
Ф 3946
бойни 3946
медал 3946
убийството 3946
членовете 3946
мени 3945
Адолф 3944
рово 3940
вич 3938
зация 3937
вариант 3936
улица 3936
они 3931
хил. 3928
Голямата 3926
увеличава 3924
Кънчов 3919
вин 3919
владетел 3919
Кръ@@ 3916
архитектура 3915
открита 3915
размер 3914
тния 3914
ски@@ 3911
Гри@@ 3909
пен 3909
Коста 3907
ранните 3906
главата 3902
1909 3899
ващата 3899
мира 3899
поне 3899
няват 3898
силата 3898
преда@@ 3896
зимата 3895
amp 3894
сов 3894
Вар@@ 3893
рио@@ 3893
Стоян 3892
планини 3891
федерация 3891
народна 3890
олимпийски 3890
Вътрешната 3888
бизнес 3885
зан 3884
династията 3883
120 3880
ширина 3878
автори 3876
национално 3874
свет@@ 3873
стар@@ 3870
сан 3869
Тра@@ 3864
ган@@ 3862
функции 3862
гор@@ 3861
инструменти 3860
пове@@ 3860
войските 3856
Част 3854
залива 3854
стки 3854
къщата 3853
Милано 3852
вно 3851
загуби 3848
произведен 3848
арестуван 3846
Португалия 3845
преминават 3845
Европейския 3840
противо@@ 3837
зира 3836
Словения 3834
Кре@@ 3833
Въз@@ 3832
избухването 3828
отборът 3828
пръ@@ 3820
Атанас 3819
запазени 3819
Насау 3817
дърво 3817
култури 3815
хра@@ 3815
Скоро 3814
Гро@@ 3813
технически 3813
1885 3810
пет@@ 3809
600 3808
дис 3806
единственият 3806
съдържание 3806
так@@ 3801
Антон 3799
мер 3799
ум@@ 3798
радио 3794
Вол@@ 3793
Конго 3793
Тан@@ 3793
1873 3791
Втора 3790
Ла 3783
смър@@ 3783
дин 3778
жни 3777
нически 3777
устройство 3777
наблюдава 3776
Виктор 3773
езера 3770
подобно 3768
въпрос 3766
55 3764
бира 3763
старата 3763
кси@@ 3761
тур@@ 3760
чужбина 3760
ителната 3758
Цариград 3756
участник 3756
бежанци 3755
жите 3754
гар@@ 3753
ческите 3753
подготовка 3750
целта 3750
дей@@ 3748
търси 3748
бле@@ 3746
мар 3745
моно@@ 3745
пояснение 3745
орган 3741
поставени 3741
Съвета 3739
придобива 3739
Йе@@ 3738
Велико 3737
нев 3737
Численост 3736
тя@@ 3736
кралица 3734
&#124; 3733
накрая 3731
съветник 3729
съветски 3729
кръст 3727
стопанство 3727
ей 3726
Херман 3725
слабо 3724
твърде 3721
Среща 3720
Бавария 3719
дебютира 3719
закон 3718
Анти@@ 3715
Майкъл 3715
ванията 3715
повърхността 3714
Ев@@ 3713
национални 3713
водите 3711
турци 3706
дейности 3705
приемат 3704
програми 3703
бал@@ 3701
кар 3699
категория 3698
статии 3698
ученици 3698
македоно 3696
жна 3695
крайцер 3694
щето 3694
местен 3693
процеса 3693
Ирландия 3692
Оскар 3692
йският 3692
Руско 3689
единици 3689
обществото 3688
партии 3688
експедиция 3687
звезда 3687
Кралство 3684
начало 3684
броят 3683
звание 3680
лс 3677
фестивал 3677
журналист 3676
медицина 3676
онова 3676
текст 3675
смятат 3674
Методий 3672
ара 3669
в. 3668
рос 3667
Виетнам 3664
национална 3664
музикални 3663
изо@@ 3662
37 3660
архиепископ 3659
американския 3657
рай@@ 3657
такава 3656
Лос 3655
Сти@@ 3655
етап 3655
любов 3655
всъщност 3654
ръка 3654
тър 3653
използвана 3652
метод 3652
играч 3651
нина 3650
Уи@@ 3648
компании 3647
изиграва 3645
спи@@ 3645
изборите 3642
майстор 3641
ничен 3641
ционните 3641
жава 3637
малките 3637
мили@@ 3637
Белград 3636
тима 3636
ян@@ 3636
Националния 3634
промяна 3634
характеристики 3634
зани 3633
скали 3632
границите 3631
дру@@ 3631
Стоянов 3630
Норвегия 3629
Съветския 3629
включени 3629
бели 3628
градче 3627
добро 3626
Кла@@ 3624
Николов 3624
ета 3624
отделя 3623
тори 3623
вка 3619
водни 3617
дължи 3617
1901 3616
ву@@ 3614
предава 3614
42 3611
времена 3611
Чер@@ 3609
бо 3609
мисия 3609
лек@@ 3608
мон@@ 3603
помощник 3603
последният 3603
май@@ 3602
ляв 3599
отбори 3599
пуснат 3599
турците 3598
джа 3595
Стан@@ 3593
гот@@ 3593
анд@@ 3590
дове 3590
Кали@@ 3589
знак 3589
ители 3589
атака 3588
нов@@ 3588
разделя 3587
второ 3586
династия 3586
специални 3585
250 3584
неговият 3584
VIII 3583
ец 3583
Бил 3582
вин@@ 3582
приблизително 3580
Босна 3578
сед@@ 3575
функция 3575
чева 3574
десен 3573
културно 3572
I. 3571
Въл@@ 3568
ческото 3568
ЦК 3565
борбата 3565
сръбски 3565
им@@ 3564
новото 3563
нас 3562
Института 3561
едноименния 3560
елемент 3560
запознава 3560
предполага 3558
базата 3557
въстанието 3557
самолети 3557
пазар 3556
принуден 3554
вра@@ 3553
гия 3553
Жи@@ 3552
дения 3552
кин 3552
сата 3552
ваните 3551
движението 3551
лност 3551
убити 3551
братята 3550
островите 3549
работ@@ 3547
бах 3546
силите 3546
Баден 3545
бой 3543
свързан 3543
ход 3542
дар@@ 3540
пример 3540
думата 3539
дин@@ 3534
изви@@ 3531
свързана 3531
отговаря 3529
управител 3529
Окръг 3528
конфликт 3528
Дж@@ 3527
играта 3527
изкуства 3527
равнина 3527
чният 3527
Кюстендил 3525
изглежда 3525
лови 3523
Дю@@ 3522
кино@@ 3522
Бен@@ 3520
Х 3520
двора 3520
сценарий 3519
Дей@@ 3518
is 3517
ителите 3517
световно 3515
освободен 3513
певица 3513
Ран@@ 3512
жено 3512
повод 3511
единица 3510
бли@@ 3509
избира 3509
пти@@ 3509
кат 3507
Както 3506
логи@@ 3506
Р 3504
Кам@@ 3502
прове@@ 3501
списък 3499
местното 3496
нето 3496
Ну@@ 3494
отбраната 3493
слу@@ 3492
вало 3490
сцената 3489
два@@ 3487
Асен 3486
Кли@@ 3486
създадени 3486
фен 3485
кур@@ 3484
писмо 3480
замъка 3478
Сър@@ 3477
пол 3477
Же@@ 3476
Ам@@ 3475
65 3474
епизод 3471
спечели 3471
Съединени 3470
e@@ 3467
Ричард 3467
Тър@@ 3467
четири@@ 3467
Бъ@@ 3466
Перу 3466
вол@@ 3463
тното 3461
Джо@@ 3458
Шу@@ 3458
смисъл 3457
новски 3456
оставя 3456
Списък 3453
же 3452
кампания 3451
светлина 3451
частично 3451
клон 3450
завръщането 3449
чава 3449
отговор 3446
т. 3444
1895 3442
западните 3442
драма 3436
ед@@ 3436
морето 3435
трудно 3435
кове 3434
дат 3433
публикуван 3433
игра@@ 3431
нощта 3431
църкви 3431
Нико@@ 3430
ун@@ 3429
долина 3428
M@@ 3427
пъл@@ 3427
Кай@@ 3426
лети 3426
Андрей 3425
основна 3423
кло@@ 3422
знае 3421
лово 3421
мини 3421
графство 3419
дълга 3419
мачове 3419
мини@@ 3418
болница 3417
дър 3417
чани 3417
космически 3416
ствено 3416
главните 3415
пли@@ 3412
памет 3411
притоци 3411
Плевен 3406
запазва 3406
фамилия 3406
Рудолф 3405
прием@@ 3405
мат@@ 3404
покри@@ 3404
рено 3404
лъчеперка 3403
тира@@ 3402
офицери 3401
изпълняват 3400
сберг 3400
джи 3399
разкази 3399
строителството 3397
тина 3397
дал 3396
империята 3396
био@@ 3395
граници 3395
второто 3394
физика 3394
вещества 3393
испански 3393
Гла@@ 3392
дълго@@ 3392
издига 3391
пътища 3389
френската 3388
плани@@ 3385
Л 3382
възможността 3382
народ 3382
позиции 3377
спе@@ 3376
южните 3376
дадена 3373
мили 3372
пя@@ 3372
оп@@ 3371
Същата 3370
пехотна 3369
око@@ 3368
политиката 3368
йл 3367
см 3367
Област 3366
мир@@ 3366
Получава 3365
борда 3364
вре@@ 3364
Вашингтон 3363
Сен 3362
лов@@ 3362
екзархия 3361
Сейнт 3360
нени 3360
удар 3360
кин@@ 3359
традиция 3359
1896 3358
йо@@ 3358
родителите 3358
гръ@@ 3357
съдове 3357
дка 3356
Битоля 3355
северните 3355
E@@ 3354
Петербург 3354
приятели 3354
Христов 3352
кани 3351
Габрово 3349
доктор 3348
веднъж 3347
световен 3347
сел@@ 3345
достъп 3344
художествена 3344
символ 3343
ръцете 3341
ца@@ 3340
нение 3339
инди@@ 3338
фелд 3338
дже@@ 3337
водосборния 3336
полза 3336
Ана@@ 3335
лева 3335
ге 3334
състезания 3334
дните 3333
определят 3333
държи 3331
Българска 3327
Кипър 3327
диалект 3326
мна 3326
тежко 3322
методи 3319
дор 3316
Зи@@ 3315
тивна 3314
изисква 3312
бни 3311
Пен@@ 3310
временно 3310
технологии 3309
B 3308
нения 3306
щият 3306
нер@@ 3303
стът 3301
Тро@@ 3300
надпис 3300
4@@ 3299
Дания 3297
вкарва 3297
еми 3297
стан@@ 3297
вените 3296
Луис 3295
банка 3294
текстове 3294
дебют 3293
американските 3291
природата 3291
стари 3290
Лин@@ 3289
Северен 3289
лист 3289
нението 3289
Групата 3288
ар 3288
ску@@ 3288
нено 3287
популярност 3286
важен 3284
мно 3284
лация 3283
домакинства 3281
ниска 3281
двор 3280
ВМРО 3278
европейските 3278
пор@@ 3278
събират 3277
жанра 3273
изпра@@ 3273
останали 3273
Черна 3270
конкурс 3267
благо@@ 3266
ква@@ 3265
Бол@@ 3264
опълчение 3264
форд 3264
Тер@@ 3263
горната 3263
дол 3263
плъ@@ 3263
коре@@ 3262
ут@@ 3260
лагер 3259
гау 3258
раст@@ 3255
дов 3254
музикален 3254
броне@@ 3253
навлиза 3253
Гре@@ 3251
директно 3251
процеси 3251
свири 3251
чето 3248
Венеция 3247
Ван@@ 3246
кат@@ 3246
сле@@ 3246
Черно 3245
тече 3245
1899 3244
дан@@ 3242
менти 3242
двигател 3241
трима 3241
лечение 3238
романи 3238
Йосиф 3237
Кристиан 3237
Малайзия 3237
корабите 3237
независимо 3237
свобода 3237
транспорт 3237
Ей@@ 3236
признава 3234
институции 3233
пътува 3233
курс 3231
мести 3231
поло@@ 3231
Или@@ 3230
звезди 3230
операции 3230
научна 3229
Анджелис 3225
Често 3225
интернет 3225
Бел@@ 3224
природни 3224
рий@@ 3224
карта 3223
внимание 3222
ensis 3221
ръководство 3219
споразумение 3218
лос 3217
наука 3216
промишленост 3216
трябвало 3215
тар@@ 3214
мент 3213
800 3212
ae 3209
Санкт 3209
археологически 3208
криза 3206
сови 3206
ковски 3205
самата 3204
ьор 3204
У 3203
Йордан 3201
Тру@@ 3200
бур@@ 3200
копия 3200
лу 3200
опити 3200
загуба 3199
военната 3197
какво 3196
кули 3195
Няколко 3194
Йозеф 3193
широка 3193
разстояние 3191
останки 3190
стън 3190
задача 3188
трона 3188
японски 3188
Кро@@ 3187
следи 3187
Мен@@ 3186
услуги 3186
уче@@ 3186
млади 3185
Римска 3183
излъчва 3183
инженер 3183
Каролина 3182
Мер@@ 3181
преврат 3181
нищо 3180
окончателно 3180
определена 3179
третата 3179
ото 3178
едни 3177
тръ@@ 3177
Зо@@ 3176
латински 3174
огън 3174
Сла@@ 3171
Сити 3168
ради@@ 3168
Лан@@ 3167
48 3166
мена 3165
слав 3165
старши 3165
джиев 3164
C@@ 3163
праз@@ 3162
купа 3161
Мин@@ 3160
кг 3160
um 3158
класи@@ 3158
насочва 3158
реали@@ 3158
събор 3158
ЕС 3156
$ 3155
Агнес 3155
Джи@@ 3154
наличието 3154
сериозно 3153
хро@@ 3152
Уе@@ 3151
идеи 3148
чак 3145
бъл 3143
жп 3143
ланд@@ 3143
44 3141
1876 3140
жка 3140
зони 3140
Ска@@ 3139
жение 3139
Вай@@ 3138
бан 3138
Тайланд 3137
Световната 3136
пълно@@ 3136
финал 3136
команд@@ 3132
малкото 3132
няване 3132
силен 3132
засе@@ 3131
транс@@ 3131
мощност 3130
она 3129
модели 3127
39 3125
парламент 3123
ата@@ 3122
рев@@ 3122
съпротива 3122
течението 3121
ционната 3121
граничи 3120
климат 3120
предаване 3120
Само 3118
Със 3118
рания 3118
високите 3117
разглежда 3117
нарежда 3114
влиянието 3111
чност 3111
мни 3110
ител@@ 3109
клетки 3108
3@@ 3107
кият 3107
Симеон 3106
1894 3105
издания 3105
сена 3105
рак@@ 3103
Само@@ 3101
Ловеч 3100
Шумен 3099
x 3097
ващия 3097
направени 3097
трета 3097
Син 3096
Сирия 3096
лог 3096
дружина 3093
герои 3091
икономиката 3091
Шарл 3090
газ 3090
41 3089
омъжена 3089
зло@@ 3088
участък 3088
вци 3086
ление 3086
бившия 3084
мото 3084
Анхалт 3083
Бур@@ 3080
Ля@@ 3078
пите 3078
Пър@@ 3077
кандидат 3077
Вен@@ 3076
зо 3076
Попов 3075
иде@@ 3075
органи 3075
Югоизточна 3074
картини 3074
земите 3073
изграден 3073
все@@ 3072
основано 3072
художници 3071
имената 3070
самият 3070
твър@@ 3070
Ханс 3067
нин@@ 3067
киселина 3066
важните 3065
анализ 3064
третия 3064
проблем 3062
цо@@ 3061
връзката 3060
къл 3058
обез@@ 3058
шър 3058
Бело@@ 3057
Охридски 3057
въл@@ 3056
листа 3056
тирани 3056
продуцент 3055
Хърватия 3054
бю@@ 3054
факта 3054
ционния 3053
ели@@ 3052
V@@ 3050
различен 3050
арабски 3049
построени 3049
стен@@ 3048
труда 3048
Армения 3047
ствените 3047
женен 3046
наследява 3045
лския 3043
стар 3043
Й@@ 3042
Маргарета 3042
Дължината 3041
гимназията 3041
тият 3041
връ@@ 3040
лира 3039
познат 3039
послед@@ 3039
A@@ 3038
махала 3037
обявена 3037
писатели 3037
стични 3037
далеч 3036
даде 3035
43 3034
мати@@ 3034
sa 3033
качеството 3033
науката 3033
стои 3033
Ал 3032
рас@@ 3031
B@@ 3030
въздуха 3030
бял 3029
цо 3029
Бранденбург 3028
известния 3028
създаде 3028
Нор@@ 3026
Ангел 3025
Танзания 3025
населени 3025
стват 3023
0@@ 3022
бреговете 3022
мор@@ 3021
Вюртемберг 3019
научен 3019
изградени 3018
изве@@ 3017
песните 3017
1880 3016
1898 3016
XIV 3016
Мадрид 3016
Прага 3015
мъж 3014
Луиза 3013
Тай@@ 3013
T@@ 3011
посредством 3011
приета 3011
лено 3010
нор@@ 3010
пен@@ 3008
1897 3006
XVIII 3006
асоциация 3005
Съществуват 3004
дски 3004
ито 3004
градина 3003
Битката 3002
Вой@@ 2998
Заради 2998
кти@@ 2998
международен 2998
съдържат 2997
ресурси 2996
левия 2994
плоча 2994
съвместно 2994
Ной@@ 2993
държавна 2993
вътрешните 2990
тивни 2989
Кле@@ 2988
деня 2988
щи@@ 2987
дъл@@ 2985
to 2984
Све@@ 2984
осъден 2984
поставен 2984
мало@@ 2983
устройства 2979
разпространение 2978
външните 2977
ент@@ 2977
опита 2976
8@@ 2975
маркграф 2975
някой 2975
решават 2975
лати@@ 2974
Лай@@ 2973
мит@@ 2973
нео@@ 2971
поставят 2971
английския 2970
годишната 2969
основател 2969
откриват 2967
ун 2965
S@@ 2964
цът 2964
Кол@@ 2963
кали@@ 2963
Локомотив 2962
Основните 2962
държавни 2960
сната 2960
императора 2959
47 2958
жават 2958
закона 2958
Сар@@ 2957
пис@@ 2957
тим 2957
коми@@ 2956
Македоно 2955
сражение 2955
Всяка 2954
Торино 2954
зъ@@ 2954
награден 2954
синът 2952
лидер 2951
пропаганда 2951
Популацията 2950
композитор 2950
ляне 2950
народи 2950
обита@@ 2949
калибър 2948
турне 2948
Виктория 2947
тират 2947
тегло 2946
вните 2945
доби@@ 2942
Играе 2941
ети@@ 2941
продава 2940
почи@@ 2938
създа@@ 2938
пилот 2937
обя@@ 2936
Св. 2935
Майка 2934
седмица 2934
стените 2934
приложение 2933
възниква 2932
одринска 2932
последователно 2932
подоб@@ 2928
алното 2927
” 2927
обе@@ 2926
стър@@ 2926
Ала@@ 2925
напрежение 2925
прода@@ 2924
сва@@ 2924
длъжността 2923
забра@@ 2923
гел 2922
Ау@@ 2921
цял 2921
Пол@@ 2920
шат 2920
йс 2919
пови@@ 2919
ьор@@ 2919
налягане 2918
решения 2918
учен 2918
десетилетия 2916
първенството 2915
Али@@ 2914
ъгъл 2914
бол@@ 2912
предмети 2912
чичо 2912
Сте@@ 2911
кара@@ 2908
формира 2908
тска 2906
L@@ 2905
Чехия 2905
Черно@@ 2903
мал@@ 2903
рик 2903
тис 2903
средната 2902
Всеки 2901
въоръжени 2901
продължи 2901
реш@@ 2901
йно 2900
теми 2898
ителят 2897
техния 2897
Ян 2896
включен 2896
летище 2896
професионален 2896
Бай@@ 2895
военно@@ 2895
артилерийски 2894
водещ 2894
хан@@ 2894
бозайник 2893
нива 2893
принадлежи 2893
отделение 2892
вследствие 2890
договора 2890
линг 2890
Лъ@@ 2889
самолет 2889
пода@@ 2888
Ара@@ 2887
версии 2886
диаметър 2886
другата 2886
бен@@ 2885
нична 2885
повърхност 2885
покрай 2885
допълнително 2884
ков@@ 2884
контрола 2884
стата 2884
довежда 2883
самолета 2883
Средна 2881
ане 2881
ора 2881
тивно 2881
оттегля 2880
поколение 2880
имал 2879
лични 2879
продъл@@ 2878
съобщава 2878
горски 2877
ителното 2877
малката 2877
социални 2877
бей 2876
патриаршия 2876
яна 2876
край@@ 2875
чар@@ 2875
подкрепя 2873
ефект 2872
мет@@ 2872
силни 2872
ърс 2871
atus 2870
кино 2870
различна 2869
пее 2868
ниски 2867
IX 2865
поведение 2865
Пал@@ 2864
каза@@ 2863
1890 2859
оказват 2859
съществуването 2857
Санта 2856
стика 2855
1500 2854
изучава 2854
ите@@ 2854
излъчване 2853
започне 2852
рии 2849
самото 2848
дотогава 2847
колкото 2847
принцип 2847
Международната 2846
морска 2846
нараства 2846
поезия 2846
фонд 2846
n 2845
митология 2843
продукт 2843
световното 2842
Пор@@ 2840
деление 2840
опера 2840
пуска 2840
многобройни 2839
Сре@@ 2838
дълъг 2837
оръжия 2837
роман@@ 2837
черно@@ 2837
Втори 2835
теорията 2835
гене@@ 2834
лицето 2834
провинции 2834
окръга 2833
уда@@ 2833
излизат 2832
титли 2832
Судан 2829
пазара 2829
хар@@ 2829
графски 2828
завод 2828
1879 2827
двореца 2827
ду 2827
единствен 2827
заемат 2826
кле@@ 2826
ранен 2826
състезание 2825
четирите 2825
1891 2822
Дар@@ 2822
меди@@ 2822
изя@@ 2821
64 2820
есте@@ 2819
идея 2819
свързано 2819
Все 2817
авто@@ 2817
йка 2817
рява 2817
видео 2816
разделят 2816
Затова 2815
отношенията 2815
щава 2815
700 2814
ническа 2814
нят 2814
средна 2814
търговията 2814
XVI 2813
Поп@@ 2813
шкото 2813
командване 2812
52 2811
камъни 2809
съм 2809
янето 2808
приключва 2807
управля@@ 2807
бер 2806
гер@@ 2806
ръко@@ 2806
тиран 2805
́ 2803
спира 2801
D@@ 2800
зва@@ 2800
наслед@@ 2800
химия 2800
P@@ 2799
Чрез 2798
мерки 2797
Световното 2795
дената 2795
липсата 2794
собствена 2794
тично 2793
план@@ 2792
тай@@ 2792
колек@@ 2790
думите 2789
ранг 2789
лат@@ 2786
право@@ 2786
ета@@ 2785
Херцеговина 2784
знаме 2784
скоростта 2784
kg 2783
бар 2783
десния 2783
Брауншвайг 2781
Народно 2781
Ръ@@ 2781
длъжност 2781
индустрия 2781
сел 2781
Неговият 2780
Сливен 2780
Хаджи@@ 2780
Хан@@ 2780
единствената 2780
скри@@ 2779
Бро@@ 2778
Бог 2777
етаж 2775
Пара@@ 2774
наричана 2774
широк 2773
бори 2772
събитие 2772
съпруг 2772
Тар@@ 2771
землището 2770
Катарина 2769
планините 2769
тически 2769
Неапол 2768
въвежда 2767
момента 2767
пътна 2767
Българското 2766
публикувани 2766
t 2764
кер@@ 2764
отбрана 2764
лии 2763
нични 2763
одринското 2762
стката 2762
народни 2759
оста@@ 2759
резултати 2758
низи@@ 2757
дели 2756
икони 2756
хал@@ 2756
Прусия 2755
обръща 2755
стария 2754
Цезар 2753
гнат 2753
забележителности 2753
Албумът 2752
консу@@ 2752
пис 2751
стартира 2751
Мала 2750
депутат 2750
пристанище 2750
Тор@@ 2749
интер@@ 2749
тиране 2749
фигури 2749
1870 2748
Венецуела 2748
ево 2748
откриването 2748
историк 2745
Основната 2744
двойки 2743
колеж 2743
музикална 2743
чване 2743
фон@@ 2742
убива 2741
лай@@ 2740
лар 2739
частни 2739
предвид 2738
рит 2738
варира 2737
откри@@ 2737
откъдето 2736
свойства 2736
македонски 2735
нато 2735
монети 2734
падането 2733
проте@@ 2733
ъри 2733
O@@ 2732
вели@@ 2732
дъщери 2732
Народна 2731
Теодор 2731
вземат 2730
лър 2730
местния 2728
писателка 2728
ил 2727
тан 2727
тена 2727
днешна 2726
значителни 2725
шни 2725
нало@@ 2724
средното 2724
46 2722
ана 2722
научно 2722
хаузен 2722
o@@ 2721
воде@@ 2721
жки 2721
световната 2720
прие@@ 2718
принос 2718
Доб@@ 2717
архитект 2717
жената 2716
тежка 2715
Освобождението 2714
студиен 2713
Междувременно 2712
фри@@ 2712
настоя@@ 2711
Вра@@ 2710
северозападно 2710
тическа 2710
успехи 2709
Ос@@ 2708
ливи 2708
златен 2707
протежение 2706
западния 2705
певец 2702
тръгва 2702
ненията 2701
телевизионен 2701
седалище 2700
яни 2700
конференция 2699
разделени 2699
риа@@ 2698
Песента 2696
l 2691
самостоятелно 2690
Дър@@ 2689
девет 2689
дървета 2689
религиозни 2689
търсене 2689
85 2687
парламента 2687
Спартак 2686
дорф 2686
евреи 2686
позна@@ 2686
тивен 2686
1893 2684
раща 2683
Следва 2682
Василий 2681
важно 2681
зае@@ 2681
отличава 2679
Ново@@ 2678
купата 2678
причи@@ 2677
ХХ 2676
близки 2675
последното 2675
класира 2673
разви@@ 2673
тичната 2673
Ню@@ 2672
извършват 2672
присъ@@ 2672
средство 2672
центрове 2672
Марко 2671
дар 2671
сер@@ 2671
чението 2671
любовта 2670
нович 2670
прото@@ 2670
съюз@@ 2670
християнски 2670
германските 2669
решението 2667
зацията 2666
случая 2666
условията 2666
9@@ 2665
наречени 2665
хо 2665
Мишев 2664
протича 2664
третият 2664
фил@@ 2664
чево 2663
оглавява 2662
италианския 2661
ращ 2661
ствената 2660
чан@@ 2660
Али 2659
бек 2659
производ@@ 2659
чено 2659
1889 2656
a@@ 2656
издадени 2656
Мит@@ 2655
пълна 2655
сните 2655
Книгата 2654
гов 2653
пълно 2653
ровка 2653
гло@@ 2652
отделните 2652
ад@@ 2651
галерия 2648
зву@@ 2648
кол@@ 2647
оркестър 2647
СС 2645
растение 2645
рев 2645
Коло@@ 2644
мюсюлмани 2643
1892 2642
кер 2642
лей@@ 2642
мей@@ 2642
секретаря 2642
Еквадор 2641
дри@@ 2641
Хал@@ 2640
съвсем 2640
лист@@ 2639
риба 2639
Петко 2638
Фло@@ 2638
ляват 2638
съвременните 2638
1886 2637
ански 2636
сп@@ 2636
бор 2635
източните 2635
лон@@ 2634
югозападно 2634
бел 2633
най@@ 2633
опитват 2633
появата 2632
допълнителни 2630
студенти 2630
Въ@@ 2628
Ол@@ 2628
Ян@@ 2628
революционен 2627
тон@@ 2626
C. 2625
живопис 2625
басейни 2623
задачи 2622
издигнат 2622
изобраз@@ 2622
кам@@ 2622
кен@@ 2622
концерти 2620
ура 2619
етата 2618
Богородично 2617
алния 2617
силна 2616
предаването 2615
ходът 2614
малкия 2611
мери@@ 2610
глас 2609
пряко 2609
кро@@ 2607
списъка 2607
тация 2607
берт 2606
ционно 2606
Пфалц 2605
кър 2604
стоки 2604
L 2603
автомобили 2603
отбеля@@ 2603
подава 2603
евро 2602
ток 2602
анали@@ 2601
Български 2600
Внук 2600
нос@@ 2600
патриарх 2600
прав@@ 2600
теоре@@ 2600
живо 2598
провинцията 2598
Хор@@ 2597
зат@@ 2596
изследва 2595
пояс 2595
Последният 2594
кръсто@@ 2594
сектор 2594
служители 2594
сне@@ 2594
храни 2594
ia 2593
общи 2593
Демократична 2592
Сицилия 2592
отне@@ 2592
Може 2591
напред 2590
она@@ 2590
подкрепата 2589
политическата 2589
уд 2589
Чили 2586
графи@@ 2586
капацитет 2586
произ@@ 2586
1881 2585
Гю@@ 2585
кру@@ 2585
наричани 2585
официален 2585
уби@@ 2585
демокра@@ 2583
отхвър@@ 2583
културни 2582
живе@@ 2581
катедралата 2581
прави@@ 2581
случва 2581
изва@@ 2579
предизви@@ 2579
изпълнението 2578
Семейство 2576
британската 2576
чет@@ 2576
недо@@ 2575
комедия 2574
невро@@ 2574
проучвания 2574
скъ@@ 2573
Полу@@ 2572
дале@@ 2572
използва@@ 2572
опи@@ 2572
гро@@ 2571
екипа 2569
сна@@ 2569
XVII 2568
Косово 2568
кос 2568
яр@@ 2568
бяга 2567
слой 2567
g 2566
Кения 2566
фло@@ 2566
Академията 2564
администрация 2564
криста@@ 2564
сан@@ 2562
карти 2561
комунистическа 2561
7@@ 2558
нис 2558
развиват 2558
рите@@ 2556
УЕФА 2555
зависи 2555
инвести@@ 2555
54 2553
графия 2552
концерт 2552
сцени 2552
Видин 2549
Холандия 2549
пости@@ 2548
кана 2547
ъм 2547
видни 2546
льо 2546
БАН 2545
раждането 2545
сума 2545
тел@@ 2545
76 2544
малкият 2544
чин@@ 2543
състезава 2540
тран@@ 2540
Улрих 2539
котловина 2539
K@@ 2536
o 2536
Пиер 2536
помежду 2535
проявява 2535
разгле@@ 2535
стер@@ 2535
шно 2535
германската 2534
мъжка 2534
напусне 2534
дната 2533
кате@@ 2533
пока@@ 2533
съда 2533
Кат@@ 2532
идват 2532
1884 2531
Джу@@ 2531
Тексас 2531
лат 2531
мат 2531
парка 2531
тю@@ 2531
грижи 2530
дебелина 2530
нската 2530
паметници 2530
воден 2529
рисува 2527
стин@@ 2527
Наполеон 2526
вид@@ 2526
печелят 2526
фрайхер 2526
значителна 2525
обществени 2525
поставена 2524
ученик 2524
произведение 2523
1883 2522
обучението 2522
разкрива 2522
рес 2522
термин 2522
Две 2521
къл@@ 2521
нд 2521
популярни 2521
шкия 2520
сар@@ 2519
пан 2517
наши 2516
относително 2516
югоизточно 2516
Средната 2514
дадено 2514
метро@@ 2514
шампионат 2514
вълна 2513
Стро@@ 2512
56 2511
лун@@ 2511
пое@@ 2511
желание 2508
зар 2508
преговори 2508
специален 2508
Фла@@ 2507
ема 2507
крило 2507
пом@@ 2506
сор@@ 2506
супер@@ 2506
йците 2505
начина 2505
ниско 2504
висше 2503
състезанието 2503
тру@@ 2503
чете 2502
пена 2501
плочи 2501
3000 2500
Дан@@ 2500
мски 2500
слава 2500
дръ@@ 2499
машина 2498
спорт 2498
дядо 2497
представяне 2497
Пъ@@ 2495
армии 2495
51 2494
пър@@ 2494
чават 2494
написана 2493
обем 2492
тар 2491
ственото 2490
on 2487
ителния 2486
подобен 2486
религия 2485
родното 2485
североизточно 2485
F 2484
6@@ 2483
народа 2483
съвременни 2483
ров@@ 2482
музея 2481
цветове 2481
Кю@@ 2480
ита@@ 2480
общата 2480
Джовани 2479
нг 2479
взри@@ 2478
рал@@ 2478
шоу 2478
възможности 2477
вят 2477
конструкция 2477
товете 2477
южния 2477
глу@@ 2476
долната 2476
закони 2476
османски 2476
шите 2476
Казахстан 2475
просвет@@ 2475
Финландия 2474
правила 2474
Але@@ 2473
Ари@@ 2472
влива 2472
лет@@ 2472
асистент 2471
забав@@ 2471
половината 2471
стъп@@ 2471
тс 2471
Егейска 2470
дията 2470
присъства 2470
предоставя 2469
ствения 2469
дълбоко 2468
документ 2467
вяр@@ 2466
необходимо 2465
тура 2464
епизода 2463
националната 2463
тка 2462
95 2461
Windows 2459
съгласно 2458
1860 2456
НАСА 2456
започ@@ 2456
Френска 2455
чисто 2455
нивото 2454
съвременната 2454
базиран 2453
мани@@ 2453
напред@@ 2453
хвър@@ 2453
Административно 2452
народно 2452
човешки 2452
творчеството 2451
характерни 2451
злато 2449
посо@@ 2449
нан 2448
интереси 2446
ствието 2446
Еле@@ 2445
Републикански 2445
нския 2445
източно@@ 2444
Вел@@ 2441
пери@@ 2441
Река 2440
атор 2439
гат 2439
допълнение 2439
млад 2439
горното 2438
многократно 2438
римската 2437
ления 2436
Грузия 2435
противника 2435
намаляване 2432
щането 2432
пристигат 2431
удостоен 2431
управ@@ 2431
Шотландия 2430
рих 2430
електрически 2429
верига 2425
свободен 2425
фигура 2425
72 2423
женията 2423
итите 2423
поро@@ 2423
фирма 2422
XV 2421
играчи 2421
създадено 2421
гръцките 2420
Фри@@ 2419
мс 2419
пат@@ 2419
прило@@ 2418
обо@@ 2417
Византия 2416
площад 2416
направен 2415
северния 2415
бог 2413
вди@@ 2413
женски 2413
представен 2413
реакция 2412
изда@@ 2411
лив 2411
липса 2411
моби@@ 2411
наем 2411
ума 2411
зен@@ 2410
градска 2408
Хъ@@ 2407
гар 2407
дизайн 2406
тови 2406
Молдова 2405
Фил@@ 2405
местност 2405
нично 2405
акт 2404
изка@@ 2404
сътрудник 2404
Уелс 2401
лката 2401
околната 2401
собствени 2401
58 2400
вали@@ 2400
XII 2399
Ели@@ 2399
продукция 2399
кис 2398
оръдие 2398
привлича 2398
централна 2398
Population 2397
ането 2397
шан@@ 2397
Добруджа 2396
оборудване 2396
македонска 2395
общински 2395
световни 2394
турата 2394
жката 2393
ов@@ 2393
стична 2393
Мир@@ 2392
десетки 2392
назначава 2392
рей@@ 2392
Без@@ 2391
Тодоров 2391
медицински 2391
предлагат 2391
вътрешността 2390
марка 2390
метъл 2390
нико@@ 2390
од@@ 2390
политическите 2390
I@@ 2389
активна 2388
Лига 2387
изразява 2387
Гали@@ 2386
вой@@ 2386
черен 2386
Macédoine 2384
лей 2383
плато 2383
агенция 2381
благород@@ 2381
пълен 2381
събитията 2381
1,5 2380
двигатели 2380
люби@@ 2378
снати 2378
Chrétienne 2377
Гру@@ 2377
почетен 2377
Благоевград 2376
Носител 2376
дати@@ 2376
змът 2376
кита@@ 2376
площта 2376
кт 2375
огра@@ 2375
1888 2374
Вторият 2374
корпуса 2374
мнение 2374
мъжете 2374
пад@@ 2373
французите 2373
гледна 2371
сли@@ 2371
хор 2371
възлиза 2369
тела 2369
Шан@@ 2368
ел@@ 2368
епохата 2368
боя 2367
дон 2366
дейци 2364
съоръжения 2364
Европейската 2363
Фер@@ 2363
няването 2362
предложение 2362
шава 2361
Смит 2359
Шар@@ 2359
фестивала 2359
49 2357
Тео@@ 2357
гориво 2357
53 2356
Слънцето 2355
собствен 2355
тската 2354
зма 2353
издаването 2353
Мей@@ 2352
Хари 2352
пиано 2352
цу@@ 2352
Над 2351
жен@@ 2351
кори@@ 2351
публикувана 2351
пари@@ 2350
стрел@@ 2350
читалище 2350
Нови 2348
оти@@ 2348
чаване 2348
явява 2348
близък 2345
четвърти 2345
Ана 2344
зин@@ 2344
известната 2344
полицията 2344
положението 2344
фабрика 2344
бин@@ 2343
домакин@@ 2343
Дом 2342
ул@@ 2342
екип 2341
изпълнители 2341
класацията 2341
пе 2341
уз@@ 2341
стила 2340
Златен 2339
въздух 2339
плодове 2339
учители 2339
Климатът 2338
доказателства 2338
пит@@ 2338
Предполага 2337
Спи@@ 2337
допъл@@ 2337
леко 2337
посланик 2337
Балканите 2336
Мил@@ 2336
лец 2336
неин 2336
мина 2335
позицията 2335
Григорий 2334
ас 2334
Голям 2333
новият 2333
ела 2332
ене@@ 2332
родо@@ 2332
грани@@ 2331
каменни 2331
печат@@ 2331
собственик 2331
Ъ@@ 2330
морския 2329
обиколка 2329
бие 2328
представена 2328
рота 2328
Сергей 2327
руска 2327
5@@ 2326
апарат 2325
биха 2325
усилия 2325
уч@@ 2325
Северо@@ 2324
свободно 2324
нападение 2323
червен 2323
Золмс 2322
Дитрих 2321
вод@@ 2321
германския 2321
държат 2321
произвеждат 2321
Беларус 2320
Рейн 2320
защитник 2320
непосредствено 2320
Рей@@ 2319
изграждане 2319
нови@@ 2319
0,@@ 2318
цу 2317
понеже 2316
частици 2316
Бла@@ 2315
Благодарение 2315
леви 2315
достигне 2314
мъжки 2314
позволяват 2314
синте@@ 2313
G@@ 2312
Квинт 2312
гост 2312
d 2311
la 2311
личности 2311
бас 2310
инициатива 2310
чужди 2310
Дру@@ 2309
детска 2309
нес 2309
специална 2309
жения 2308
коп@@ 2308
местната 2308
Ган@@ 2307
бена 2307
мостта 2307
Сградата 2306
басейна 2306
войската 2306
низъм 2306
претърпява 2306
1848 2305
популярен 2305
сценарист 2304
филмът 2304
действията 2303
зията 2303
ъра 2303
логията 2302
Червената 2301
едноименната 2301
блок 2300
Обединеното 2299
ана@@ 2299
гражданска 2299
предприятия 2299
сис 2299
строителство 2298
южна 2298
тем@@ 2297
входа 2296
напускат 2296
телевизионни 2296
хла@@ 2296
шата 2296
Смята 2295
автономен 2295
XI 2294
етите 2294
Пиемонт 2293
Юлий 2293
нове 2292
представени 2292
поч@@ 2291
1882 2290
детски 2290
Питър 2287
бяха 2285
контро@@ 2285
Мери 2284
изображения 2284
литературата 2284
настъпва 2284
считат 2284
Върховния 2283
Целта 2283
Враца 2282
отваря 2282
кост 2281
пило@@ 2281
рон@@ 2281
сключва 2281
наред 2280
Бой@@ 2279
орбита 2279
характеризира 2277
албан@@ 2276
вска 2276
гру@@ 2276
структури 2276
китара 2275
стати@@ 2275
аси@@ 2273
Горно 2272
вниманието 2272
златни 2272
1871 2271
рил 2271
68 2270
F@@ 2269
врата 2269
демо@@ 2269
финансови 2269
y@@ 2268
брака 2268
говорят 2268
гръцкия 2268
лизъм 2268
XIII 2267
гър 2267
древните 2267
Вероятно 2266
календар 2266
Гвиана 2265
еца 2265
срав@@ 2265
фт 2265
Зеландия 2264
Флорида 2264
енерги@@ 2264
нации 2264
сериозни 2264
ход@@ 2264
Сал@@ 2263
артилерия 2263
вява 2262
знание 2262
нощ 2262
Аделхайд 2261
1887 2260
Източен 2259
ракети 2259
57 2258
топ@@ 2258
географски 2257
издават 2257
Адам 2256
дово 2256
построява 2256
N 2255
Киев 2255
Личен 2255
плу@@ 2254
транспор@@ 2254
филология 2253
шна 2253
шест@@ 2252
театъра 2251
Ирак 2249
оставка 2249
поко@@ 2249
тския 2249
екипажа 2248
имперски 2248
Неговата 2247
изго@@ 2247
математика 2247
нагоре 2247
основите 2247
свеще@@ 2246
1,@@ 2245
Пакистан 2245
Пат@@ 2245
загива 2244
историческа 2244
растителност 2244
въз 2243
червено 2243
вземе 2242
доброволци 2242
Охрид 2241
цена 2241
аз 2240
активни 2238
Вит@@ 2237
сно@@ 2237
Понякога 2236
секунди 2236
Букурещ 2235
Чо@@ 2235
беля@@ 2235
хер@@ 2235
чва 2235
кано@@ 2234
премина@@ 2234
работници 2234
рец 2234
Дон@@ 2233
бащата 2233
въпроса 2233
държа@@ 2233
лагане 2233
активност 2232
джамия 2231
такова 2231
жаване 2230
низина 2229
популярна 2229
Ед@@ 2228
традиции 2228
уре@@ 2228
Аб@@ 2227
Три 2227
римляните 2227
цов 2226
Ан 2225
ту 2224
Вил@@ 2223
Гал@@ 2223
властите 2223
издателство 2223
Да 2222
Пазарджик 2222
северна 2222
63 2221
дължината 2221
Дон 2220
вли@@ 2220
минута 2220
добива 2219
духовник 2219
разширява 2219
киното 2218
лев@@ 2218
плат@@ 2218
Гър@@ 2217
вам 2217
стабилна 2217
стран@@ 2217
футболна 2217
Антонио 2216
Спо@@ 2216
икономическа 2216
пределите 2215
Си 2214
кой 2214
ку 2214
180 2213
вицата 2213
изди@@ 2213
природа 2213
цикъл 2213
числа 2213
наименование 2212
име@@ 2211
практически 2211
съхранява 2210
1875 2209
Дисни 2209
газо@@ 2208
пътуване 2208
тиката 2208
хай@@ 2208
основателите 2207
снимки 2207
Кьолн 2206
гард 2206
доброто 2206
носа 2206
рови 2206
Бю@@ 2205
чов 2205
S 2204
Емил 2204
Кьо@@ 2204
годишния 2204
фин@@ 2204
Обе@@ 2203
Франк 2203
действието 2203
морската 2203
тил 2203
намери 2202
ползва 2202
трето 2202
Основни 2201
Холщайн 2201
жо@@ 2201
последен 2201
празник 2201
съседните 2201
час 2201
вар 2200
ляни 2200
възстановяване 2199
температурата 2199
Икономика 2198
Сел@@ 2198
изследовател 2198
съл 2198
Петков 2197
британските 2197
разнообразие 2197
• 2197
Вирджиния 2196
братовчед 2196
младите 2196
формират 2196
дол@@ 2195
насо@@ 2195
Друг 2194
гласа 2194
ръковод@@ 2194
Международния 2193
стоя@@ 2193
зни 2192
Главен 2191
Историята 2191
турска 2191
вал@@ 2190
изложби 2190
състоя@@ 2190
1872 2189
инструмент 2189
сова 2189
строежа 2189
гръцка 2188
ителя 2188
музикант 2187
обяснява 2187
Шо@@ 2186
века 2186
планинска 2186
самостоятелна 2186
софтуер 2186
Куба 2184
Теле@@ 2183
избор 2183
функциона@@ 2183
мати 2182
полската 2182
публиката 2182
Хоенлое 2181
музиканти 2181
приложения 2181
студио 2181
агент 2180
заболявания 2180
слага 2180
температури 2180
лян 2179
НАТО 2178
връщат 2178
действат 2178
качества 2177
ль@@ 2177
поддръжка 2177
отдале@@ 2176
съответствие 2176
Авто@@ 2175
римския 2175
търговец 2175
Максимилиан 2174
независимостта 2174
дие 2173
източния 2173
нататък 2173
първо@@ 2173
изнася 2172
62 2171
Злат@@ 2171
Спа@@ 2171
кап@@ 2171
личен 2171
название 2171
ремонт 2171
съставена 2171
Кот@@ 2170
дисертация 2170
рийски 2170
чувства 2170
Висо@@ 2169
кович 2169
насам 2169
корабо@@ 2168
рио 2168
посочва 2167
построяването 2167
хребет 2167
лек 2166
Боливия 2165
ментът 2165
фен@@ 2165
Вин@@ 2164
Пав@@ 2164
видна 2164
нените 2164
помогне 2164
H@@ 2163
френските 2163
пря@@ 2162
експлоатация 2161
покрива 2161
лична 2160
Гло@@ 2159
дото 2159
извън@@ 2159
оце@@ 2159
Леополд 2158
белите 2158
напре@@ 2158
племен@@ 2158
адвокат 2157
покрити 2157
предварително 2157
сет 2157
66 2156
западно@@ 2156
шампионата 2156
бър 2155
ули@@ 2155
Рио 2154
местности 2154
долното 2153
псевдонима 2153
рам@@ 2153
стване 2152
участници 2152
чане 2151
Няма 2150
мор 2149
основаването 2149
лит 2148
свободна 2148
стан 2148
шоуто 2148
Серия 2147
индивиду@@ 2147
приеме 2147
фирмата 2147
административно 2146
ваме 2146
нан@@ 2146
обработка 2146
поражение 2146
тора 2146
Истанбул 2145
Организацията 2145
ангажи@@ 2145
доб@@ 2145
дребни 2144
разпространени 2144
World 2143
Свет@@ 2143
бург@@ 2143
губят 2143
звук 2142
славянски 2142
съединения 2142
тният 2140
Награди 2139
Папуа 2139
Мианмар 2138
Пле@@ 2138
обла@@ 2138
организират 2138
основават 2138
почви 2138
сията 2138
Анри 2137
Самият 2136
Сен@@ 2136
летни 2136
спор@@ 2136
телевизията 2136
китайски 2135
личност 2135
етнически 2134
ръце 2134
физи@@ 2134
общественик 2133
израз@@ 2132
доброволец 2131
международно 2131
полис 2131
искат 2129
къде 2129
немския 2129
Хуан 2128
подножието 2128
подобна 2128
стотици 2128
функционира 2127
Неговите 2126
поддържат 2126
представят 2126
щен 2126
сек@@ 2125
69 2123
загубата 2123
изи@@ 2123
ия 2123
мед 2123
Варшава 2122
включена 2121
онлайн 2121
парале@@ 2121
You 2120
загиват 2120
критика 2120
помо@@ 2120
торите 2120
кот@@ 2119
повторно 2119
ничка 2118
Марица 2117
Чарлз 2117
заве@@ 2117
певицата 2117
Юнайтед 2115
вечер 2115
датира 2115
животните 2115
изма 2115
разделена 2115
шките 2115
дат@@ 2114
ментите 2114
поръ@@ 2114
Би 2113
жертви 2113
Барселона 2112
Известен 2112
130 2111
Карлос 2111
Североизточна 2111
гледа 2111
социална 2111
съпрово@@ 2111
зина 2110
леки 2110
Михайлов 2109
ващото 2109
направление 2109
срещата 2108
изпълня@@ 2107
британския 2106
официални 2106
проучване 2106
Пло@@ 2103
Хей@@ 2103
културен 2102
лива 2102
намерени 2102
състав@@ 2102
черни 2102
купува 2100
рав@@ 2100
сестри 2100
Заема 2099
Кир@@ 2099
Мат@@ 2099
активен 2099
пони@@ 2099
списания 2099
албуми 2097
лика 2097
Франческо 2096
заглавие 2096
пресича 2096
Бракът 2095
спортни 2095
вел 2094
особености 2094
Нов 2093
вач 2092
лността 2092
службата 2092
Дер@@ 2091
Фран@@ 2091
дра 2091
имали 2091
мит 2091
общото 2091
максимална 2090
граф@@ 2089
пал@@ 2089
Войната 2088
установяват 2088
щение 2088
останалата 2086
разпространява 2086
атаки 2085
зване 2084
майката 2084
султан 2084
гон 2083
изследователи 2083
метър 2082
неутра@@ 2082
5000 2081
ай@@ 2081
кто@@ 2081
мната 2081
простира 2081
реч 2081
свободата 2081
Ломбардия 2080
Стивън 2080
данните 2080
Тръ@@ 2079
клубове 2079
посветен 2079
Публий 2078
ам@@ 2078
написва 2078
номиниран 2078
главна 2076
книгите 2076
лизация 2076
заселват 2075
коли 2075
момиче 2075
отраз@@ 2075
обеди@@ 2074
племе 2073
Фили@@ 2072
върховенството 2072
излъчен 2072
масово 2072
s@@ 2071
стъл@@ 2071
шена 2071
Хр. 2070
планове 2070
присти@@ 2070
Даниел 2069
палуба 2069
82 2068
изключ@@ 2068
лока@@ 2068
реда 2068
тво@@ 2067
N@@ 2066
избрана 2065
централен 2064
Монтана 2063
външната 2063
обекта 2063
Тю@@ 2062
европейската 2062
лежи 2062
строй 2062
Лазар 2061
кари@@ 2061
литературен 2061
резиденция 2061
хор@@ 2061
Уилямс 2059
съветските 2059
хими@@ 2059
ata 2058
контакт 2058
къси 2058
Интер@@ 2057
Мел@@ 2057
надолу 2057
D 2056
комплек@@ 2055
християнството 2055
нация 2054
женитба 2053
околните 2053
Използва 2052
Македонската 2052
виден 2052
престола 2052
Представлява 2051
преброяванията 2051
светлината 2051
старото 2051
1869 2050
WWE 2050
Военно@@ 2050
Средновековието 2050
войните 2050
Народното 2049
зана 2049
Союз 2048
гово 2048
доведе 2048
ут 2048
Лий 2047
богат 2047
игрален 2047
изпъл@@ 2047
линген 2047
разделен 2047
сни@@ 2047
‰ 2047
1867 2046
R@@ 2046
кола 2046
научава 2046
хите 2046
1864 2045
защитата 2045
способността 2045
поток 2044
Основан 2043
способност 2043
фак@@ 2043
ценни 2043
физически 2041
Йерусалим 2040
мирен 2040
Тихия 2039
кв. 2039
отве@@ 2039
прекра@@ 2039
яв@@ 2039
обединение 2038
пия 2038
сии 2038
Нем@@ 2037
наб@@ 2037
Джак 2036
бла@@ 2035
нет 2035
оцен@@ 2035
бой@@ 2034
вдовица 2034
региони 2034
Атанасов 2033
младия 2033
нен@@ 2033
разпростра@@ 2033
вяват 2032
южно@@ 2032
Произлиза 2031
отразява 2031
сово 2031
осигури 2030
Том 2029
външен 2029
количества 2029
споделя 2029
превръщат 2028
укреп@@ 2028
Австро 2027
вино 2027
дефини@@ 2027
крайцерите 2027
приемането 2027
убе@@ 2027
чан 2027
увеличаване 2026
Панама 2025
Съгласно 2025
градския 2025
съдбата 2025
Изенбург 2024
зер 2024
съдия 2024
110 2023
вяра 2022
суб@@ 2022
съставлява 2022
месе@@ 2021
уско@@ 2021
Уин@@ 2020
италианската 2019
модела 2017
пома@@ 2017
88 2016
колони 2016
сове 2016
френска 2016
Добрич 2014
гон@@ 2014
мрежи 2014
Деца 2013
лян@@ 2013
Друга 2012
Скот 2012
международна 2012
зират 2011
псевдоним 2011
Пише 2010
описание 2010
докторска 2009
изку@@ 2009
копи@@ 2009
лож@@ 2009
обича@@ 2009
мандат 2008
мащаб 2008
морета 2008
фактори 2008
язовир 2008
присъединяват 2007
хва@@ 2007
мова 2006
стихове 2006
съгла@@ 2005
скала 2004
Афганистан 2003
Кристоф 2003
ател 2003
представителите 2003
Йотинген 2002
независима 2002
n@@ 2001
електри@@ 2001
племето 2001
удъл@@ 2000
Терминът 1999
бавно 1999
неща 1999
редки 1999
Алън 1998
изпълнител 1998
концер@@ 1998
нама@@ 1998
писателя 1997
попадат 1997
Пирин 1995
класиране 1995
морско 1995
Хасково 1993
зад@@ 1993
конститу@@ 1993
свър@@ 1993
ске@@ 1993
Закона 1992
Словакия 1992
бин 1992
изчис@@ 1992
характеристика 1991
Мадагаскар 1990
дух 1990
конституция 1990
чение 1990
Успение 1989
Флоренция 1989
наречено 1989
съставен 1989
шо 1988
очите 1987
ката@@ 1986
настъпление 1986
Долно 1985
Кърджали 1985
Тайван 1985
сърби 1985
уме@@ 1985
Еберхард 1984
Луната 1984
месеци 1984
Оби@@ 1983
батальон 1983
горе@@ 1983
лага 1983
окръ@@ 1982
качество 1981
Погребан 1980
дова 1980
бяло 1978
живо@@ 1978
ливо 1978
месо 1978
богата 1977
зем@@ 1977
тическата 1977
картина 1976
ковци 1976
подви@@ 1976
жела@@ 1974
сърцето 1974
куп@@ 1973
написан 1973
нару@@ 1973
Азербайджан 1972
Мозамбик 1972
Сталин 1972
защо 1972
лството 1972
печат 1972
1200 1971
бойна 1971
гръцкото 1971
нец 1971
рез@@ 1971
Манчестър 1970
Ранни 1970
оните 1970
разши@@ 1970
рала 1970
тясно 1970
Адрианопол 1969
Кос@@ 1969
лагера 1969
нска 1969
възпита@@ 1968
мора@@ 1968
59 1967
i@@ 1967
бяла 1967
вока@@ 1967
врати 1967
академи@@ 1966
лият 1966
щур@@ 1966
160 1965
Василев 1965
гражданин 1965
движения 1965
енето 1965
900 1964
изпада 1964
морското 1964
психо@@ 1964
учениците 1964
мино@@ 1963
Бей@@ 1962
бездетен 1962
вор@@ 1962
Магдалена 1961
периоди 1961
предприема 1961
p@@ 1960
колони@@ 1960
лас 1960
майстори 1960
су 1960
Дебютира 1959
Милан 1959
компози@@ 1959
лета 1959
мани 1959
хит 1959
вай@@ 1958
ним 1958
служат 1958
Де 1957
ждани 1957
баро@@ 1956
рението 1956
топ 1956
чът 1956
бойните 1955
желанието 1955
събра@@ 1955
уеб 1955
експедицията 1953
колежа 1953
Дел@@ 1952
Ком@@ 1952
Франсоа 1952
посветена 1952
кция 1951
планетата 1951
обявено 1950
отпечат@@ 1950
тово 1950
di 1949
тери@@ 1949
еро@@ 1947
етно@@ 1947
записи 1947
кет 1946
ковите 1946
пси@@ 1946
свръх@@ 1946
турнири 1946
внук 1945
глави 1945
статия 1945
h 1944
военното 1944
жно 1944
нау 1944
осъ@@ 1944
резултатите 1944
схема 1944
сце@@ 1944
Класи@@ 1943
ЮНЕСКО 1943
авио@@ 1943
пита@@ 1943
римска 1943
Жак 1942
гръцко 1942
налите 1942
полиция 1942
гане 1941
гна@@ 1941
дов@@ 1940
ор 1940
тал 1940
яне 1940
Любомир 1939
възела 1939
командва 1939
избяга 1938
ока@@ 1938
рица 1938
вътрешни 1937
домини@@ 1937
новете 1937
публикации 1937
1874 1936
Едва 1936
адмирал 1936
градската 1936
жът 1936
зале@@ 1936
различно 1936
школата 1936
Кул@@ 1935
Пин@@ 1935
Тъ@@ 1935
дървени 1935
милиарда 1935
остане 1935
отделен 1935
славата 1935
стрелба 1935
кили@@ 1934
плаване 1934
селски 1934
изкуствата 1933
публично 1933
ринг 1933
установка 1933
иму@@ 1932
спорта 1932
трилър 1932
законодате@@ 1931
срок 1931
ѫ@@ 1931
1868 1930
Кристина 1930
шната 1930
изпълните@@ 1929
йд 1929
губернатор 1928
конфликти 1928
крайбрежието 1928
лства 1928
обкръ@@ 1928
популярните 1928
запис 1927
мият 1927
оба@@ 1927
търсят 1927
уе@@ 1927
Максим 1926
аеро@@ 1926
денията 1926
здраве 1926
щението 1926
Кен@@ 1925
Ул@@ 1925
дъното 1925
мос 1925
никой 1925
нове@@ 1925
Мари 1924
Северозападна 1924
вет@@ 1924
изпратени 1924
иконо@@ 1924
прилага 1924
званието 1923
Именно 1922
някога 1922
сини 1922
беле@@ 1921
върнат 1921
посе@@ 1921
тенис 1921
Кер@@ 1920
Тем@@ 1920
вий 1920
67 1919
местно 1919
папата 1919
синовете 1919
огъня 1918
водач 1917
евреите 1917
психология 1917
1866 1916
Сим@@ 1916
сре@@ 1916
61 1915
Общата 1915
еви 1914
западна 1914
наблюдават 1914
Двете 1913
мъжкото 1913
сръбската 1913
указ 1913
Вели@@ 1912
Народен 1911
мисията 1911
78 1910
затворен 1910
изме@@ 1910
ес 1909
конкурса 1908
сенатор 1908
херцо@@ 1908
Нигерия 1907
индустри@@ 1907
ктори 1907
приблизителна 1907
Варнен@@ 1906
Жу@@ 1906
едната 1906
използвайки 1906
колекция 1906
лекции 1906
ситуация 1906
употребата 1906
Алберт 1905
мел@@ 1905
посочено 1905
югоизточната 1905
96 1904
Инди@@ 1904
Макс 1904
Френската 1904
архив 1904
принуждава 1904
участия 1904
Папа@@ 1903
вит@@ 1903
лън 1903
моли 1903
редовно 1903
отборите 1902
древно@@ 1899
мър@@ 1899
бул 1898
каче@@ 1898
лие 1898
музикално 1898
1861 1897
Известни 1897
състоянието 1897
художника 1897
Реал 1896
екзархисти 1896
нацията 1896
Ерик 1895
Доротея 1894
меха@@ 1894
спечелва 1894
членки 1894
произве@@ 1893
сферата 1893
разработва 1892
същите 1892
R 1891
Records 1891
Ново 1891
възра@@ 1891
злат@@ 1891
ов 1891
Рика 1890
литературни 1890
полети 1890
списанието 1890
определено 1889
публи@@ 1889
Илиев 1888
призна@@ 1888
велик 1887
серията 1887
чуждестранни 1887
биологи@@ 1886
зрители 1886
филмите 1886
възстановява 1885
кват 1885
преобразу@@ 1885
разположение 1885
хов 1884
шин@@ 1884
вател 1883
земеделието 1883
отличие 1883
съветската 1883
2,5 1882
Радо@@ 1882
дипломат 1882
македонския 1882
мил 1882
види 1881
класически 1881
проце@@ 1881
факт 1881
филмов 1880
Перник 1879
Люксембург 1878
очаква 1878
жната 1877
издате@@ 1877
непрекъснато 1877
председателя 1877
националните 1876
разкри@@ 1876
сво@@ 1876
хия 1876
quot 1875
Сингапур 1875
бани 1874
департамент 1874
ранени 1874
Комисията 1873
гео@@ 1873
синове 1873
крити@@ 1871
риите 1870
сми@@ 1870
ІІ 1869
Аз 1869
другия 1869
емост 1869
окупи@@ 1869
рас 1869
турските 1869
ходи 1869
близките 1868
въоръ@@ 1868
основния 1868
подготовката 1868
днешния 1867
историческата 1867
немските 1867
Имат 1865
НС 1865
възстановяването 1865
двадесет 1865
зали@@ 1865
Цар@@ 1864
отхвърля 1864
цвет@@ 1864
присъстват 1863
щаба 1862
Ел 1861
социално 1861
Кинг 1860
избухва 1860
стара 1860
73 1859
притежават 1859
Вън@@ 1858
гат@@ 1858
Ори@@ 1857
Стре@@ 1857
чети 1857
завършват 1856
Джо 1855
въглища 1855
джаз 1855
мисли 1855
разнообразни 1855
ранната 1855
сексу@@ 1855
щане 1855
350 1854
86 1854
джър 1854
мя@@ 1854
органи@@ 1854
отлич@@ 1854
фер 1854
Тран@@ 1853
жертва 1852
неза@@ 1852
погре@@ 1852
черно 1852
княжество 1851
крака 1851
майки 1851
ори@@ 1851
дрехи 1850
запазена 1850
контроли@@ 1850
различават 1850
чват 1850
АД 1849
дина 1849
написани 1849
ническата 1849
сков 1849
Държавния 1848
Едно 1848
дълбока 1848
Сед@@ 1847
поме@@ 1847
президентът 1847
тията 1847
фин 1847
Откри@@ 1846
истории 1846
писане 1846
преводач 1846
снима 1846
Одрин 1844
прието 1844
чения 1844
Уязвим 1843
секс 1843
бозайници 1842
Ву@@ 1841
Естония 1841
връщане 1841
състезател 1841
Романът 1840
дове@@ 1840
преброяване 1840
структурата 1840
съеди@@ 1840
търговска 1840
реформи 1839
извърш@@ 1838
нич@@ 1838
секре@@ 1838
Ско@@ 1837
баба 1837
лека 1837
натиск 1837
проблемите 1837
съзнание 1837
Браун 1836
Камерун 1836
земеделски 1836
проек@@ 1836
Анге@@ 1835
кел 1835
лик 1835
плен 1835
Божи@@ 1834
камера 1834
пола 1834
въгле@@ 1832
клю@@ 1832
обявяват 1832
средно@@ 1832
Фин@@ 1831
гал 1831
Мате@@ 1830
обек@@ 1830
заслуги 1829
признание 1829
реша@@ 1829
Храмът 1828
болести 1828
зирани 1828
опис@@ 1828
служби 1828
84 1827
Литва 1827
двигателя 1827
дели@@ 1827
заболяване 1827
околностите 1827
отправя 1827
Кана@@ 1826
домакин 1826
140 1825
d@@ 1825
кана@@ 1825
германците 1824
разпада 1824
твърдят 1824
фина@@ 1824
1863 1823
98 1823
въоръжена 1823
тила 1823
гражданите 1822
живи 1822
замест@@ 1822
иска@@ 1822
Цър@@ 1821
аб@@ 1821
виждат 1821
образ 1821
произхожда 1821
Лей@@ 1820
Средиземно 1820
тана 1820
флу@@ 1820
базилика 1819
ней@@ 1819
основното 1819
пиеси 1819
терен 1819
цин 1819
медии 1818
Радио 1817
лес 1817
Ген@@ 1816
бакалавърска 1816
унищо@@ 1816
водеща 1815
наци@@ 1815
спу@@ 1815
хът 1815
чил 1815
атаку@@ 1814
възвишение 1814
лд@@ 1814
надесет 1814
подготвя 1814
чените 1814
79 1813
Западен 1813
грама 1813
дълбо@@ 1813
хранене 1813
замяна 1812
ничество 1812
Густав 1811
Македонски 1811
занима@@ 1811
родината 1811
добавя 1810
зването 1810
нало 1810
рам 1810
съкра@@ 1810
НО@@ 1809
двойка 1809
равно@@ 1809
разпреде@@ 1809
рекорд 1809
участниците 1809
Давид 1808
Шуленбург 1808
континента 1808
ордена 1808
помещения 1808
туристически 1808
административни 1807
нападател 1807
югозападната 1807
графовете 1806
правило 1806
принудени 1806
Герман@@ 1805
Годи@@ 1805
Държавната 1805
Стар@@ 1805
атакува 1805
емигрира 1805
кръв 1805
стая 1805
or@@ 1804
Алжир 1804
заре@@ 1804
лянето 1804
посеща@@ 1804
1850 1803
Ата@@ 1803
обединява 1803
пистата 1803
свързват 1803
хърват@@ 1803
държавната 1802
зар@@ 1802
мента 1802
подчи@@ 1802
станцията 1802
Владислав 1801
Хил@@ 1801
взаимо@@ 1801
съвременния 1801
хер 1801
74 1800
вътрешната 1800
йци 1800
самостоятелен 1800
сва 1800
чността 1800
годишнината 1799
открития 1799
Чехословакия 1798
дъщерята 1798
миш@@ 1798
обър@@ 1798
полага 1798
утвър@@ 1798
вън 1797
лято 1797
нил 1797
падат 1797
съществу@@ 1797
вки 1796
графството 1796
доцент 1796
насекоми 1796
прин@@ 1796
шен@@ 1796
1865 1795
джу@@ 1795
комбинация 1795
рекла@@ 1795
албумът 1794
движи 1794
моста 1794
огромен 1794
стойности 1794
Хан 1793
съгласява 1793
възник@@ 1792
необходими 1792
тат 1792
чен@@ 1792
заплаха 1791
мал 1791
отказват 1791
продадени 1791
Цар 1790
английската 1790
кучета 1790
подход 1790
Етиопия 1789
преси@@ 1789
сингъла 1789
следват 1789
Влиза 1788
променят 1788
сложни 1788
Служи 1787
Стой@@ 1787
дипломирането 1787
Почти 1786
източна 1786
естествено 1785
линейни 1785
свое 1785
убийство 1785
1830 1784
вари@@ 1784
повди@@ 1784
постижения 1784
самостоятелни 1784
Драго@@ 1783
Живо@@ 1783
владения 1783
коалиция 1783
текста 1783
Етнически 1782
бележи 1782
дере 1782
изгражда 1782
постоянен 1782
търговци 1782
Истори@@ 1781
бит 1781
вате@@ 1781
йе@@ 1781
мява 1781
ника@@ 1781
отнасят 1781
традиционно 1781
Атлантическия 1780
исля@@ 1780
кел@@ 1780
Шарлота 1779
гря@@ 1779
дови 1779
дят 1779
поли 1779
for 1778
Амалия 1778
Епи@@ 1777
знач@@ 1777
Такива 1776
вълни 1776
диск 1776
истински 1776
пети 1776
присъствие 1776
спира@@ 1776
Лен@@ 1775
Раковски 1775
немската 1775
опазване 1775
разкопки 1775
торът 1775
Княжество 1774
граждански 1774
обсадата 1774
ранна 1774
строеж 1774
сухо@@ 1774
херцогиня 1774
Ангола 1773
Връ@@ 1773
Отборът 1773
избират 1773
топо@@ 1773
Чикаго 1772
главни 1772
гъл 1772
1800 1771
Сестра 1771
еврейски 1771
обществено 1771
пове 1771
специалисти 1771
масата 1770
отец 1770
цент@@ 1770
Ямбол 1769
североизточната 1769
остро@@ 1768
шия 1768
Коле@@ 1767
морските 1767
нената 1767
възможни 1766
мисии 1766
османските 1766
потвърждава 1766
произведени 1766
Ден@@ 1765
вещество 1765
причината 1765
психи@@ 1765
y 1764
Негов 1764
гията 1764
молба 1764
туризъм 1764
Арабия 1763
древни 1763
северозападната 1763
умения 1763
мента@@ 1762
определя@@ 1762
полузащитник 1762
рид 1762
успеха 1762
цин@@ 1762
ническо 1761
отгле@@ 1761
фентъзи 1761
Лука 1760
букви 1760
завърши 1760
международната 1760
орът 1760
днешно 1759
ническия 1759
операцията 1759
рение 1759
тност 1759
нейният 1758
вер 1757
значителен 1757
чик 1757
ефекти 1756
компютри 1756
тоест 1756
Свещената 1755
заменен 1755
териториите 1755
известният 1754
прекъс@@ 1754
Зим@@ 1753
Купа 1753
интензи@@ 1753
мпи@@ 1753
философ 1753
Love 1752
Бран@@ 1751
вице@@ 1751
идеите 1751
измер@@ 1751
наблюдение 1751
Спор@@ 1750
присъствието 1750
Стари 1749
кос@@ 1749
организми 1749
точ@@ 1749
Барбара 1748
Бого@@ 1748
Симон 1748
Хосе 1748
канали 1748
копа@@ 1748
листи 1748
лич@@ 1748
сър 1748
съществуване 1748
in@@ 1747
Делчев 1747
адапти@@ 1747
визу@@ 1747
зна 1747
подвод@@ 1747
трудо@@ 1747
Шри 1746
евски 1746
корона 1746
радика@@ 1746
смесено 1746
съпер@@ 1746
богати 1745
закри@@ 1745
нс 1745
станции 1745
b 1744
Държавна 1744
Камбоджа 1744
завършен 1744
ремон@@ 1744
Министерство 1743
гне 1743
лето 1743
разработ@@ 1743
Представ@@ 1742
ис@@ 1742
рибо@@ 1742
манд@@ 1741
позната 1741
ънс 1741
Франциско 1740
деното 1740
напада 1740
отделно 1740
сили@@ 1740
Бру@@ 1739
Родопи 1739
Юго@@ 1739
лента 1739
разузнаване 1739
Готфрид 1738
ваната 1738
водени 1738
електронни 1738
лийски 1738
листата 1737
определяне 1737
чество 1737
посвещава 1736
81 1735
Смо@@ 1735
77 1734
бившата 1734
военния 1734
самите 1734
Ербах 1733
Кло@@ 1733
участъци 1733
лището 1732
духов@@ 1731
извори 1731
корени 1731
представи 1731
ралните 1731
хълма 1731
векове 1730
земни 1730
мните 1730
вилаетите 1729
дението 1729
коро@@ 1729
Бат@@ 1728
категории 1728
курфюрст 1728
притежа@@ 1728
състоят 1728
войниците 1727
годишни 1727
дил 1727
мляко 1727
подо@@ 1727
последно 1727
пто@@ 1727
тримата 1727
трудове 1727
Творчество 1726
автомати@@ 1726
битки 1726
вестници 1726
мска 1726
детето 1725
лиев 1725
пристигането 1725
същевременно 1725
технология 1725
Хю@@ 1724
отделят 1724
пато@@ 1724
черна 1724
Древен 1723
Национална 1723
Оттогава 1723
използвано 1723
масло 1723
наследници 1723
огромни 1723
федера@@ 1723
Общината 1722
Хоен@@ 1722
жан@@ 1722
кьой 1722
облек@@ 1722
Джоунс 1721
Мета@@ 1721
кожата 1721
разказ 1721
тик 1721
c 1720
град@@ 1720
средновековна 1720
типове 1720
торпе@@ 1720
Илинденско 1719
дю@@ 1719
енберг 1719
изложба 1719
они@@ 1719
сбург 1719
свидетелства 1719
стра 1719
отразяваща 1718
шън 1718
c@@ 1716
ав@@ 1716
драматичен 1716
емите 1716
зали 1716
крат@@ 1716
форми@@ 1716
Нар@@ 1715
квар@@ 1715
неу@@ 1715
побе@@ 1715
Брюксел 1714
Марс 1714
Опера@@ 1714
Подобно 1714
Сил@@ 1713
дружеството 1713
иг@@ 1713
католически 1713
убие 1713
зирана 1712
кратък 1712
нак 1712
държавните 1711
моти@@ 1711
склон 1711
общо@@ 1710
английска 1709
херцогство 1709
Алфред 1708
върш@@ 1708
жу@@ 1708
лем 1707
политическо 1707
ато 1706
бът 1706
наброява 1706
преве@@ 1706
Гоце 1705
византийски 1705
висши 1705
публика 1705
ралното 1705
съдържанието 1705
Мом@@ 1704
автор@@ 1704
дския 1704
предмет 1704
придоби@@ 1704
Ката@@ 1703
автомобил 1703
лекар@@ 1703
лските 1703
ляване 1703
никакви 1703
равнище 1703
чина 1703
защит@@ 1702
коли@@ 1702
мотиви 1702
ниската 1702
черти 1702
Бон@@ 1701
Фол@@ 1701
административна 1701
армен@@ 1701
допринася 1701
естествени 1701
катедрала 1701
ковете 1701
конструкцията 1701
лацията 1701
майсторство 1701
направена 1701
селското 1701
сри@@ 1701
DVD 1700
Македо@@ 1700
графска 1700
дес 1700
нав@@ 1700
ристи@@ 1700
Монастир 1699
отде@@ 1699
Марков 1698
грамо@@ 1698
налата 1698
танци 1698
разрешение 1697
резер@@ 1697
градини 1696
интервю 1696
обществена 1696
целите 1696
2022 1695
Крис 1695
бази@@ 1695
републикан@@ 1695
легенда 1694
нуждите 1694
шните 1694
азбука 1693
вената 1693
войводство 1693
рения 1693
социалните 1693
БЗНС 1692
Сава 1692
люб@@ 1692
Близкия 1691
Изток 1691
Музиката 1691
мската 1691
хово 1691
Бернхард 1690
отда@@ 1690
Център 1689
произведенията 1689
целе@@ 1689
92 1688
колония 1688
османците 1688
разде@@ 1688
юн@@ 1688
Одрин@@ 1687
названието 1687
операта 1687
потоци 1687
резерват 1687
спор 1687
1856 1686
71 1686
Търговище 1686
гласи 1686
изхвър@@ 1686
ктор 1686
повишен 1686
път@@ 1686
… 1686
Волфганг 1685
въздушни 1685
катастрофа 1685
червени 1685
Петро@@ 1684
владе@@ 1684
първенства 1684
студент 1684
цев 1684
водна 1683
отблъ@@ 1683
сте 1683
третото 1683
O 1682
изгот@@ 1682
кай@@ 1682
Премиерата 1681
Сай@@ 1681
контролира 1681
порт 1681
Хол@@ 1680
има@@ 1680
сета 1680
ужа@@ 1680
83 1679
Ах@@ 1679
диригент 1679
очаква@@ 1679
половин 1679
прести@@ 1679
тайно 1679
успешен 1679
alis 1678
Дя@@ 1678
дн 1678
известност 1678
ландски 1678
общия 1678
отстъпва 1678
писма 1678
регистър 1678
железопътна 1677
ителността 1677
наградите 1677
сайта 1677
Дет@@ 1676
1862 1675
Екатерина 1675
височината 1675
новен 1675
познати 1675
предвижда 1675
произхода 1675
румънски 1675
сътрудничи 1675
училищ@@ 1675
Так@@ 1674
древността 1674
екра@@ 1674
плодо@@ 1674
рицар 1674
родители 1674
сей 1674
Битка 1673
болест 1673
личността 1672
пъту@@ 1672
стандар@@ 1672
циф@@ 1672
практику@@ 1671
вход 1670
набор 1670
понятието 1670
прекратява 1670
пригот@@ 1670
развити 1670
тропи@@ 1670
критично 1669
обра@@ 1669
общности 1669
откриване 1669
разли@@ 1669
Кала@@ 1668
миро@@ 1668
пата 1668
съветска 1668
хен@@ 1668
Салоника 1667
минера@@ 1667
1859 1666
Исус 1666
лизацията 1666
никата 1666
проход 1666
руското 1666
20@@ 1665
възрастни 1665
ждение 1665
наблюда@@ 1665
ческият 1665
ѣ@@ 1665
Ю 1664
ани@@ 1664
завършването 1664
запази 1664
реду@@ 1664
87 1663
Гватемала 1663
Елеонора 1663
Комнин 1663
бна 1663
владичество 1663
коне 1663
ология 1663
яйца 1663
историческите 1662
йните 1662
подножие 1662
щица 1662
ПФК 1661
планинските 1661
тат@@ 1661
термо@@ 1661
Големия 1660
Щолберг 1660
имоти 1660
литературна 1660
нята 1660
лини 1658
рира 1658
рове 1658
Шампионската 1657
ник@@ 1657
предназначени 1657
Герхард 1656
минават 1656
99 1655
жиз@@ 1655
картината 1655
Преображенското 1654
Форд 1654
зеле@@ 1654
зова 1654
постъп@@ 1654
сон@@ 1654
хард 1654
2,@@ 1653
заме@@ 1653
превър@@ 1653
формат 1653
Либия 1652
Прилеп 1652
бело@@ 1652
вестника 1652
дската 1652
жните 1652
огромна 1652
потребителите 1652
Ройс 1651
застава 1651
изображение 1651
йната 1651
лията 1651
поле@@ 1651
фла@@ 1651
Селището 1650
видно 1650
включ@@ 1650
земеделие 1650
отворен 1650
цветни 1650
Хондурас 1649
# 1648
ващият 1648
зави@@ 1648
ничеството 1647
стер 1647
съюзници 1647
информацията 1646
чките 1646
Вазов 1645
Ур@@ 1645
зараз@@ 1645
мяна 1645
станал 1645
тур 1645
бит@@ 1644
вътре 1644
кал 1644
маршал 1644
неделя 1644
организирани 1644
работе@@ 1644
превземането 1643
прину@@ 1643
сит@@ 1643
стратеги@@ 1643
хвърля 1643
явайки 1643
Липе 1642
базирана 1642
зоната 1642
ните@@ 1642
разпространението 1642
рида 1642
Сту@@ 1641
владение 1641
родни 1641
J@@ 1640
значението 1640
нист 1640
оси@@ 1640
османската 1640
Американската 1639
взе@@ 1639
възрожденска 1639
вън@@ 1639
външни 1639
отличия 1639
юрист 1639
гли 1638
нася@@ 1638
отиват 1638
Пала@@ 1637
наименованието 1637
расте 1637
Генерал 1636
Председател 1636
главният 1636
западното 1636
зон 1636
протестан@@ 1636
совете 1636
Последните 1635
дев 1635
стената 1635
Стру@@ 1634
Уганда 1634
вярва 1634
сол 1634
марки 1633
мла@@ 1633
оло@@ 1633
фалши@@ 1633
Най@@ 1632
Неговото 1632
влезе 1632
горите 1632
ландграф 1632
отток 1632
разбиране 1632
сер 1632
Пале@@ 1631
генера@@ 1631
действителност 1630
служител 1630
стиката 1630
широки 1630
защитен 1629
Иса@@ 1628
Парк 1628
гьо@@ 1628
закон@@ 1628
Централния 1627
нейни 1627
рини 1627
учебни 1627
вие 1626
генерален 1626
документа@@ 1626
зин 1625
образуването 1625
T 1624
опасност 1624
поста@@ 1623
японската 1623
E 1622
W@@ 1622
Вместо 1622
валежи 1622
държавите 1622
отстъп@@ 1622
техники 1622
Ван 1621
благородник 1621
жесто@@ 1621
крайно 1621
тра 1621
умират 1621
g@@ 1620
Британската 1620
Майнц 1620
Никарагуа 1620
водещи 1620
получил 1620
явление 1620
Бяла 1619
Особено 1619
алкохо@@ 1619
гражданство 1619
задъл@@ 1619
изгнание 1619
стично 1619
удари 1619
Тек@@ 1618
Тома 1618
бло@@ 1618
раното 1618
бай@@ 1617
лагери 1617
лега@@ 1617
незастрашен 1617
пусната 1617
фан 1617
бъдещия 1616
възгледи 1616
наказате@@ 1616
отпада 1616
спортен 1616
съхраняват 1616
сява 1616
варя 1615
вя 1615
гнати 1615
развита 1615
рей 1615
Атанасий 1614
Кате@@ 1614
гнали 1614
пани 1614
Военното 1613
вле@@ 1613
пиесата 1613
софи@@ 1613
тари@@ 1613
цер 1613
Тони 1612
земната 1612
паметта 1612
рьо@@ 1612
Нобелова 1611
Антоний 1610
постоянна 1610
Културни 1609
Фар@@ 1609
арти@@ 1609
етническите 1609
кампанията 1609
мато@@ 1609
президент@@ 1609
равни 1609
случайно 1609
събрани 1609
Ней@@ 1608
номинации 1608
останките 1608
почет@@ 1608
член@@ 1608
Силистра 1607
богато 1607
варианти 1607
вкус 1607
министерство 1607
пап@@ 1607
младият 1605
обича 1605
купи 1604
ръкоположен 1604
Клавдий 1603
Мохамед 1603
мах@@ 1603
метали 1603
могила 1603
преработ@@ 1603
днев@@ 1602
околия 1602
поту@@ 1602
проведени 1602
световния 1602
термина 1602
трон 1602
ica 1601
Дори 1601
Зна@@ 1601
Коли@@ 1601
забеле@@ 1601
намиращ 1601
насилие 1601
ровете 1601
89 1600
Ил@@ 1600
Ца@@ 1600
делят 1600
завършена 1600
мън 1600
подпомага 1600
учред@@ 1600
чата 1600
Гьо@@ 1599
Мароко 1599
изучаване 1599
статистическа 1599
хранителни 1599
al@@ 1598
Сомалия 1598
суфектконсул 1598
Останалите 1597
историци 1597
образ@@ 1597
пожар 1597
частност 1597
графията 1596
коремоного 1596
терена 1596
шават 1596
шан 1596
Висконти 1595
Иван@@ 1595
Офици@@ 1595
дене 1595
знаци 1595
хотел 1595
шков 1595
графа 1594
масив 1594
нира 1594
Прави 1593
гаран@@ 1593
ковата 1593
фал@@ 1593
Всичко 1591
Холмс 1591
нади@@ 1591
прочу@@ 1591
роби 1591
северно@@ 1591
спаси 1591
шево 1591
щатски 1591
Хел@@ 1590
експло@@ 1590
мис@@ 1590
руско 1590
източното 1589
патри@@ 1589
предло@@ 1589
тома 1589
Мехмед 1588
зиран 1588
мяната 1588
рязко 1588
храната 1588
як 1588
Ад@@ 1587
бият 1587
изпит@@ 1587
исляма 1587
митрополия 1586
новци 1586
пристанището 1586
тов@@ 1586
утвърждава 1586
фронта 1586
Земя 1585
Славия 1585
кръвта 1585
лак 1585
либера@@ 1585
Между@@ 1584
атмосферата 1584
насле@@ 1584
фами@@ 1584
фре@@ 1584
Сяр 1583
дивизии 1583
низма 1583
нужда 1583
стин 1583
творба 1583
щат@@ 1583
юр@@ 1583
водещите 1582
изчезва 1582
кожи 1582
престол 1582
провеждане 1582
съчета@@ 1582
але@@ 1581
дейки 1581
ракета 1581
чко 1581
Тейлър 1580
настоява 1580
предви@@ 1580
румъ@@ 1580
състезате@@ 1580
тей 1580
тивната 1580
Вис@@ 1579
Произве@@ 1579
Сарафов 1579
групите 1579
прекалено 1579
Дор@@ 1578
бра 1578
магистърска 1578
нон 1578
постав@@ 1578
профе@@ 1578
склю@@ 1578
Състои 1577
вед@@ 1577
ствие 1577
Коро@@ 1576
достав@@ 1576
изте@@ 1576
испанския 1576
спре 1576
среща@@ 1576
тели 1576
актьори 1575
жанр 1575
задължително 1575
колко 1575
пишат 1575
постигне 1575
срещ@@ 1575
героите 1574
заети 1574
иди 1574
метри@@ 1574
мра@@ 1574
символи 1574
фикация 1574
Разград 1573
задачата 1573
низация 1573
онът 1573
рели 1573
стия 1573
Група 1572
Мест@@ 1572
магни@@ 1572
младежки 1572
потвър@@ 1572
смесени 1572
спорове 1572
ук 1572
ВМС 1571
Якоб 1571
Два 1570
близко 1570
излизането 1570
нът 1570
разре@@ 1570
късните 1569
образни 1569
ic@@ 1568
запис@@ 1568
португа@@ 1568
стреми 1568
Лар@@ 1567
западен 1567
честота 1567
ежегодно 1566
медали 1566
съответ@@ 1566
Компанията 1565
Кръстьо 1565
конфликта 1565
лище 1565
превъз@@ 1565
риби 1565
фактор 1565
борд 1564
гове 1564
фици@@ 1564
единственото 1563
женска 1563
поляр@@ 1563
Костов 1562
смя@@ 1562
социалистическа 1562
събиране 1562
церемония 1562
изделия 1561
лил 1561
организа@@ 1561
Проектът 1560
очи 1560
поя@@ 1560
служе@@ 1560
хт 1560
Видове 1559
бунт 1559
гради@@ 1559
дини 1559
лед 1559
наси@@ 1559
нелега@@ 1559
рели@@ 1559
G 1558
Вардарска 1558
лича 1558
работил 1558
свързва@@ 1558
93 1557
Остров 1557
колонии 1557
турско 1557
Есте@@ 1556
вку@@ 1556
животински 1556
инспектор 1556
чков 1556
4000 1555
Емилия 1555
Негови 1555
Общо 1555
аку@@ 1555
емо 1555
оттам 1555
пер 1555
преименуван 1555
ру 1555
храброст 1555
хри@@ 1555
Маргарита 1554
интелекту@@ 1554
обслуж@@ 1554
писва 1554
соленост 1554
Фредерик 1553
починал 1553
ящи 1553
Гене@@ 1552
Евро@@ 1552
Живот 1552
дей 1552
звайки 1552
кли 1552
отдава 1552
теглото 1552
жаването 1551
опит@@ 1551
тивните 1551
звез@@ 1550
източен 1550
императрица 1550
рене 1550
бав@@ 1549
танкова 1549
центри@@ 1549
Кин@@ 1548
дирек@@ 1548
мисъл 1548
Монте@@ 1547
Охайо 1547
гната 1547
доклад 1547
пота@@ 1547
рел 1547
цве@@ 1547
m@@ 1546
Александ@@ 1546
владетели 1546
зелени 1546
курсове 1546
премине 1546
бия 1545
въоръжените 1545
десни 1545
Лайнинген 1544
летните 1544
подгот@@ 1544
совата 1544
on@@ 1543
Управление 1543
гор 1543
Джей 1542
Дмитрий 1542
лер@@ 1541
престъпления 1541
прибли@@ 1541
секция 1541
тени 1541
Електро@@ 1540
т.ч. 1540
Интер 1539
заглавието 1539
1858 1538
данъ@@ 1538
западни 1538
заселници 1538
рените 1538
собствените 1538
среди 1538
събира@@ 1538
съм@@ 1538
българо 1537
различава 1537
сар 1537
сък 1537
Ланка 1536
приети 1536
снаряди 1536
учебната 1536
бивша 1535
муску@@ 1535
православен 1535
тогавашния 1535
Ама@@ 1534
Карло 1534
Разположена 1534
Троица 1534
валежите 1534
въста@@ 1534
дясната 1534
ологи@@ 1534
слабо@@ 1534
цени 1534
бази 1533
късната 1533
скро@@ 1533
стенописи 1533
Бала@@ 1532
Лам@@ 1532
Пон@@ 1532
епизоди 1532
личе@@ 1532
образу@@ 1532
оли@@ 1532
престъп@@ 1532
разполагат 1532
Стокхолм 1531
к.с. 1531
стъпка 1531
сутринта 1531
Пис@@ 1530
Сибир 1530
Хен@@ 1530
Югозападна 1530
гов@@ 1530
кулата 1530
мнозинство 1530
мус 1530
пилоти 1530
пото@@ 1530
Салвадор 1529
рису@@ 1529
традиционните 1529
Брайън 1528
завършване 1528
кване 1528
украински 1528
Валтер 1527
Дой@@ 1527
Уай@@ 1527
низ@@ 1527
хоро@@ 1527
гнал 1526
жив 1526
зел 1526
метал 1526
шението 1526
t@@ 1525
ta 1525
Бохемия 1525
Фре@@ 1525
зват 1525
импер@@ 1525
кореспондент 1525
лове 1525
продължителност 1525
участ@@ 1525
Ас@@ 1524
Супер@@ 1524
белги@@ 1524
долу 1524
женските 1524
зада@@ 1524
чия 1524
чник 1524
Следват 1523
вила 1523
дира 1523
композиция 1523
тичните 1523
1840 1522
кръво@@ 1522
общинския 1522
техни 1522
човешкото 1522
Васи@@ 1521
десетте 1521
младежи 1521
сборник 1521
Пау@@ 1520
Петер 1520
гол@@ 1520
полския 1520
сул@@ 1520
формирането 1520
97 1519
Добро@@ 1519
Мю@@ 1519
ТВ 1519
високото 1519
въвеждането 1519
говор 1519
отделна 1519
присъедини 1519
сигнал 1519
сма@@ 1519
шено 1519
Мол@@ 1518
Сега 1518
боевете 1518
вилает 1518
пита 1518
рист 1518
тий 1518
труд@@ 1518
канала 1517
мията 1517
принадлежат 1517
Ани@@ 1516
Джорджия 1516
Палестина 1516
албански 1516
избрани 1516
издъл@@ 1516
кен 1516
куче 1516
механизъм 1516
определи 1516
превземат 1516
bTV 1515
p 1515
Маха@@ 1515
Първо 1515
драматург 1515
завива 1515
зиране 1515
зър@@ 1515
легендата 1515
перси@@ 1515
стандарт 1515
1300 1514
b@@ 1514
Фро@@ 1514
пространството 1514
сму@@ 1514
сражения 1514
цио@@ 1514
шени 1514
Ст@@ 1513
бое@@ 1513
градуса 1513
марки@@ 1513
парчета 1513
тежък 1513
укре@@ 1513
успешна 1513
кожа 1512
маси@@ 1512
мския 1512
отличават 1512
победител 1512
рабо@@ 1512
фирми 1512
91 1511
Ц 1511
баня 1511
бръ@@ 1511
ети 1511
истори@@ 1511
маси 1511
професионални 1511
творбите 1511
циан 1511
Кавказ 1510
записани 1510
консервати@@ 1510
фанта@@ 1510
Основният 1509
Сло@@ 1509
вието 1509
производител 1509
фийлд 1509
Асе@@ 1508
Сиера 1508
Трета 1508
вния 1508
заменя 1508
смятан 1508
тино 1508
Искър 1507
датират 1507
милион 1507
Будапеща 1506
Динамо 1506
Рек@@ 1506
застра@@ 1506
осигуряване 1506
чест@@ 1506
Гана 1505
Западните 1505
Мла@@ 1505
видят 1505
седем@@ 1505
Сала@@ 1504
Уол@@ 1504
атаката 1504
бат@@ 1504
непосредствена 1504
порта 1504
прия@@ 1504
равенство 1504
ч. 1504
ари@@ 1503
буквално 1503
мел 1503
катедра 1502
приемане 1502
сменя 1502
oc@@ 1501
Семейството 1501
Уругвай 1501
всякакви 1501
гърба 1501
дже 1501
зер@@ 1501
терминът 1501
успешни 1501
Източ@@ 1500
лва 1500
Броят 1499
Главният 1499
Корнелий 1499
ат 1499
проти@@ 1499
рото 1499
уволнен 1499
Алексей 1498
избора 1498
изисквания 1498
комунистически 1498
британците 1497
дипло@@ 1497
ели 1497
режима 1497
U 1496
възвишения 1496
ждайки 1496
зан@@ 1496
квартала 1496
кови@@ 1496
мол@@ 1496
позволя@@ 1496
страници 1496
усилията 1496
1600 1495
Средно@@ 1495
бел@@ 1495
год@@ 1495
изпълнителен 1495
израз 1495
концерта 1495
лигата 1495
младши 1495
извор 1494
редовен 1494
съюза 1494
човешката 1494
Роман 1493
Токио 1493
лизира 1493
похода 1493
съединение 1493
уха@@ 1493
ционното 1493
ленията 1492
ранни 1492
Z@@ 1491
Помпей 1491
англичаните 1491
гин 1491
стина 1491
ял 1491
450 1490
засне@@ 1490
комисар 1490
Много@@ 1489
съгласие 1489
Ангелов 1488
гравита@@ 1488
кръстен 1488
лай 1488
петро@@ 1488
получаване 1488
разполо@@ 1488
ракетата 1488
циона@@ 1488
читалището 1488
Шварцбург 1487
взето 1487
компютър 1487
параклис 1487
пункт 1487
алпи@@ 1486
дървен 1486
отряда 1486
укра@@ 1486
Военната 1485
духовна 1485
обеща@@ 1485
ползва@@ 1485
противопоставя 1485
el@@ 1484
бал 1484
бюро 1484
гари 1484
затори 1484
Град 1483
Нед@@ 1483
Сам 1483
Сезон 1483
изгу@@ 1483
мъл@@ 1483
ничната 1483
слав@@ 1483
стой@@ 1483
Британска 1482
Струма 1482
броня 1482
годишният 1482
назад 1482
пресе@@ 1482
прили@@ 1482
Ирина 1481
мито@@ 1481
председате@@ 1481
сайт 1481
сам@@ 1481
Ем@@ 1480
жаба 1480
противник 1480
ескадра 1479
компи@@ 1479
копие 1479
народите 1479
означа@@ 1479
теро@@ 1479
ch@@ 1478
лицата 1478
препратки 1478
темата 1478
яйки 1478
1849 1477
Гил@@ 1477
Древна 1477
Латвия 1477
архитектурно 1477
горе 1477
мбо@@ 1477
организирана 1477
посветени 1477
следния 1477
тайна 1477
тици 1477
извър@@ 1476
мански 1476
стичен 1476
явления 1476
h@@ 1475
Филипини 1475
външна 1475
изход@@ 1475
лови@@ 1475
сладководни 1475
техниката 1475
частен 1475
Витгенщайн 1474
Нан@@ 1474
Редовни 1474
корабът 1474
независими 1474
ничните 1474
оръдията 1474
подобряване 1474
пс 1474
слад@@ 1474
ВВС 1473
Вардар 1473
Сю@@ 1473
бита 1473
градско 1473
осем@@ 1473
тява 1473
ходен 1473
Обаче 1472
дния 1472
празници 1472
признат 1472
съвременен 1472
универса@@ 1472
филмова 1472
що@@ 1472
05 1471
Дружеството 1471
гайки 1471
дете@@ 1471
лации 1471
отка@@ 1471
реле@@ 1471
Сара@@ 1470
Спорт 1470
зима 1470
Кей@@ 1469
Пари@@ 1469
Юта 1469
базирани 1469
тео@@ 1469
цови 1469
чешки 1469
23@@ 1468
Ир@@ 1468
Северно 1468
десетилетие 1468
освобождението 1468
актрисата 1467
реално 1467
човешките 1467
Архи@@ 1466
Графство 1466
Лом 1466
задължения 1466
интерпре@@ 1466
ност@@ 1466
порно@@ 1466
сп 1466
Народния 1465
даже 1465
дипломатически 1465
евро@@ 1465
експеримента@@ 1465
футболисти 1465
нско 1464
чването 1464
Александра 1463
изяви 1463
кардинал 1463
личния 1463
нали@@ 1463
намеса 1463
сени 1463
фантастика 1463
94 1462
Меди@@ 1462
военноморски 1462
гласовете 1462
критик 1462
лошо 1462
модул 1462
нападения 1462
спортна 1462
Велес 1461
акции 1461
мона@@ 1461
пър 1461
Сара 1460
принципи 1460
унгарски 1460
Региона@@ 1459
Хра@@ 1459
лища 1459
³ 1458
Първонача@@ 1458
керамика 1458
командващ 1458
обви@@ 1458
тят 1458
юго@@ 1458
Пру@@ 1457
Шлезвиг 1457
комуника@@ 1457
пин@@ 1457
серии 1457
Главната 1456
Известно 1456
Сле@@ 1456
Стюарт 1456
взимат 1456
онези 1456
сния 1456
сфера 1456
Кари@@ 1455
Рилски 1455
загу@@ 1455
интегри@@ 1455
фили@@ 1455
Образование 1454
водно 1454
електрическа 1454
мб@@ 1454
музе@@ 1454
навод@@ 1454
наме@@ 1454
нии 1454
пел 1454
1806 1453
X@@ 1453
изследванията 1453
клетъ@@ 1453
лива@@ 1453
маните 1453
око 1453
окупация 1453
отря@@ 1453
сама 1453
Google 1452
ря 1452
свети 1452
съхранение 1452
26@@ 1451
Тех@@ 1451
израства 1451
погребана 1451
полка 1451
строи 1451
фай@@ 1451
M 1450
Андреа 1450
Гражданската 1450
автомоби@@ 1450
вест@@ 1450
кора 1450
космоса 1450
поддържа@@ 1450
чици 1450
ърът 1450
Me 1449
вулка@@ 1449
въздействие 1449
диференци@@ 1449
птиците 1449
смо@@ 1449
финансова 1449
ina 1448
Лайпциг 1448
Новият 1448
Ради@@ 1448
Станислав 1448
Тит 1448
бърг 1448
диви 1448
мулти@@ 1448
наистина 1448
нараст@@ 1448
помагат 1448
спасява 1448
Конституцията 1447
бивши 1447
благоприя@@ 1447
изпис@@ 1447
международните 1447
поета 1447
производители 1447
Бя@@ 1446
бъдеще 1446
защитени 1446
Обер@@ 1445
Рак@@ 1445
архи@@ 1445
духа 1445
икономическо 1445
клубът 1445
провеждането 1445
уст@@ 1445
Саудитска 1444
Тунис 1444
компоненти 1444
населено 1444
носни 1444
обособ@@ 1444
отглеждат 1444
рус 1444
Лъв 1443
Мано@@ 1443
варя@@ 1443
делото 1443
кралски 1443
нителен 1443
орбит@@ 1443
подходящи 1443
посещение 1443
упо@@ 1443
Идеята 1442
Матилда 1442
зно 1442
инженер@@ 1442
програмиране 1442
учените 1442
щаст@@ 1442
Изабела 1441
небето 1441
рисунки 1441
римско 1440
K 1439
Край 1439
Постепенно 1439
Четвър@@ 1439
тие 1439
Георгиос 1438
избирате@@ 1438
иск@@ 1438
мба@@ 1438
мощ@@ 1438
сигурността 1438
хълм 1438
цената 1438
Наслед@@ 1437
избегне 1437
ик 1437
концентри@@ 1437
непо@@ 1437
предстоя@@ 1437
рецеп@@ 1437
страда 1437
тев 1437
1854 1436
Англи@@ 1436
Парагвай 1436
Сей@@ 1436
спече@@ 1436
стопански 1436
теории 1436
New 1435
Трите 1435
карто@@ 1435
киселини 1435
кислород 1435
платформа 1435
съобщения 1435
Дъщеря 1434
бру@@ 1434
кодът 1434
ограничена 1434
парите 1434
писателите 1434
екипаж 1433
подкрепят 1433
швед@@ 1433
ври 1432
ждан 1432
случаите 1432
ства@@ 1432
мър 1431
предварите@@ 1431
1@@ 1430
Замбия 1430
Фройд 1430
момче 1430
подполковник 1430
Избран 1429
Обеди@@ 1429
Остро@@ 1429
Санд@@ 1429
дадени 1429
желязо 1429
историческо 1429
слоеве 1429
тки 1429
Запа@@ 1428
Малта 1428
Над@@ 1428
Сардиния 1428
Софийската 1428
нското 1428
обу@@ 1428
отношението 1428
полска 1428
приклю@@ 1428
собствено 1428
трибун 1428
щни 1428
Аба@@ 1427
Юрий 1427
дс 1427
ждания 1427
ползват 1427
рум 1427
феновете 1427
Ав@@ 1426
австрийски 1426
здра@@ 1426
личната 1426
мениджър 1426
съответните 1426
codice 1425
действа@@ 1425
забелязва 1425
отчасти 1425
Интернет 1424
запазен 1424
казват 1424
нато@@ 1424
разработен 1424
релеф 1424
съвременна 1424
тизъм 1424
Бек@@ 1423
Мето@@ 1423
Ордена 1423
австрали@@ 1423
бъдещето 1423
гости 1423
комуникация 1423
номина@@ 1423
предавания 1423
пру@@ 1423
централния 1423
Аре@@ 1422
класическа 1422
мети@@ 1422
резерва 1422
Гун@@ 1421
Пит@@ 1421
Съществува 1421
археологи@@ 1421
енергията 1421
еска@@ 1421
образец 1421
постове 1421
специалист 1421
четник 1421
ьорите 1421
Исландия 1420
аре@@ 1420
место@@ 1420
предпочита@@ 1420
събота 1420
Кита@@ 1419
Понастоящем 1419
измерване 1419
осигуряват 1419
предполага@@ 1419
пъл 1419
учител@@ 1419
ъгъл@@ 1419
Ник@@ 1418
Фон@@ 1418
излъч@@ 1418
конструи@@ 1418
лявата 1418
образовате@@ 1418
същество 1418
учителка 1418
Великата 1417
Светия 1417
постоянни 1417
преоблада@@ 1417
примери 1417
пул@@ 1417
Зеле@@ 1416
вну@@ 1416
италианските 1416
насочени 1416
фан@@ 1416
Валдек 1415
Пътят 1415
Рам@@ 1415
глобус 1415
лети@@ 1415
пази 1415
поведението 1415
Култура 1414
Смолян 1414
Филипините 1414
варят 1414
изби@@ 1414
католическата 1414
тическия 1414
цифри 1414
Мишел 1413
Северния 1413
върхове 1413
записан 1413
кит@@ 1413
разгро@@ 1413
разпадането 1413
романът 1413
ръката 1413
фите 1413
виж 1412
дри 1412
леп@@ 1412
мрежата 1412
основният 1412
потребители 1412
превежда 1412
професионална 1412
Ливърпул 1411
буква 1411
вярата 1411
кралят 1411
маща@@ 1411
първи@@ 1411
Microsoft 1410
Френ@@ 1410
Хон@@ 1410
детай@@ 1410
лес@@ 1410
могъ@@ 1410
почвата 1410
Каза@@ 1409
Сао 1409
девет@@ 1409
зор@@ 1409
надежд@@ 1409
Вернер 1408
Независимо 1408
Рейн@@ 1408
Съвремен@@ 1408
датата 1408
екологи@@ 1408
количеството 1408
комунистическата 1408
основи 1408
продават 1408
роди@@ 1408
улиците 1408
юри 1408
1853 1407
дор@@ 1407
изпитания 1407
лани 1407
мед@@ 1407
ников 1407
премиера 1407
Климат 1406
нър 1406
повре@@ 1406
телефонният 1406
Евровизия 1405
Юлия 1405
ид@@ 1405
изпращат 1405
политическия 1405
1857 1404
Европейски 1404
библиотеката 1404
десе@@ 1404
желез@@ 1404
рет 1404
ряване 1404
седми@@ 1404
тренира 1404
Без 1403
Централната 1403
връщането 1403
летен 1403
организиран 1403
освобод@@ 1403
теат@@ 1403
гробище 1402
кабинета 1402
партизански 1402
пълни 1402
сражението 1402
Мала@@ 1401
ада 1401
архиепископия 1401
морфо@@ 1401
убежище 1401
An@@ 1400
Атлан@@ 1400
магистрала 1400
ограничен 1400
пътеше@@ 1400
равна 1400
стойността 1400
тропически 1400
шница 1400
БНТ 1399
автономна 1399
договори 1399
ецът 1399
произнася 1399
старият 1399
турнето 1399
Гол@@ 1398
Джърси 1398
Стария 1398
европейска 1398
поти@@ 1398
фрон@@ 1398
Мекленбург 1397
Хуго 1397
зии 1397
научната 1397
някаква 1397
плана 1397
хилядолетие 1397
ценности 1397
гората 1396
опро@@ 1396
стана 1396
om@@ 1395
Асоциацията 1395
Дейвис 1395
Димит@@ 1395
Ким 1395
прости 1395
сериали 1395
ьори 1395
Ня@@ 1394
комплекса 1394
нишки 1394
смяна 1394
четирима 1394
мандата 1393
монах 1393
опусто@@ 1393
провод@@ 1393
разпозна@@ 1393
следването 1393
циони@@ 1393
ella 1392
Йор@@ 1392
Самоа 1392
бед@@ 1392
изпълнена 1392
литов@@ 1392
организма 1392
Свобо@@ 1391
гани 1391
дим 1391
класическата 1391
низацията 1391
фар@@ 1391
видовете 1390
манов 1390
ровски 1390
терапия 1390
хранят 1390
КНР 1389
апарати 1389
вара 1389
лите@@ 1389
младата 1389
наблюдения 1389
обвинява 1389
оре@@ 1389
разбира@@ 1389
регент 1389
рита 1389
споменат 1389
ствията 1389
тес 1389
ь@@ 1389
Италиан@@ 1388
музикалната 1388
собствената 1388
чие 1388
Дрезден 1387
архитектурата 1387
възел 1387
кафяви 1387
рие 1387
фрагменти 1387
заснет 1386
премиер 1386
принципа 1386
ol@@ 1385
op@@ 1385
детството 1385
дон@@ 1385
експери@@ 1385
мери 1385
поде@@ 1385
представля@@ 1385
пче@@ 1385
Рим@@ 1384
римските 1384
Александров 1383
икономи@@ 1383
катедрата 1383
ловци 1383
предишните 1383
протока 1383
разработка 1383
разрушен 1383
Евгений 1382
Костур 1382
др. 1382
инструмента@@ 1382
преместен 1382
ращите 1382
страх 1382
философията 1382
Оу@@ 1381
Пей@@ 1381
квадратни 1381
стоят 1381
тските 1381
ot@@ 1380
ph@@ 1380
вътрешен 1380
гана 1380
динг 1380
оценява 1380
реформа 1380
urus 1379
З 1379
Последната 1379
Хамбург 1379
лате@@ 1379
находища 1379
предават 1379
северо@@ 1379
кааза 1378
каменна 1378
предната 1378
режисиран 1378
селе@@ 1378
Оре@@ 1377
Ред@@ 1377
Ър@@ 1377
германска 1377
кратки 1377
минало 1377
ниско@@ 1377
тек@@ 1377
вратар 1376
отбра@@ 1376
подкрепя@@ 1376
Сидни 1375
Тен@@ 1374
стандарти 1374
Гай@@ 1373
Дани@@ 1373
Франкфурт 1373
причините 1373
спомена@@ 1373
ърт 1373
жо 1372
нарича@@ 1372
формацията 1372
10@@ 1371
1700 1371
валу@@ 1371
лидери 1371
мис 1371
регистрирани 1371
усво@@ 1371
Демокра@@ 1370
болестта 1370
експерименти 1370
начини 1370
парламентарните 1370
ar@@ 1369
× 1369
Свищов 1369
Север 1369
космическа 1369
лъчи 1369
ляр@@ 1369
находки 1369
нисък 1369
превзема 1369
систе@@ 1369
токси@@ 1369
Прин@@ 1368
планира 1368
специализира 1368
автоматично 1367
национа@@ 1367
er@@ 1366
Специ@@ 1366
дам 1366
издигната 1366
нападат 1366
подписан 1366
последователни 1366
растеж 1366
Хаджи 1365
вянето 1365
глед 1365
леку@@ 1365
селяните 1365
стор 1365
тъмно@@ 1365
Местоположение 1364
Ску@@ 1364
изследователски 1364
паза@@ 1364
потенци@@ 1364
устройството 1364
na 1363
Балканския 1363
направено 1363
ниските 1363
носители 1363
танка 1363
Проду@@ 1362
Хоенцолерн 1362
извършени 1362
изигра@@ 1362
лез@@ 1362
мозъ@@ 1362
обса@@ 1362
охрана 1362
Джонсън 1361
Стефанов 1361
портрети 1361
стръмни 1361
формация 1361
Печели 1360
бени 1360
бун@@ 1360
отво@@ 1360
подчинение 1360
{ 1359
Любен 1359
Тим@@ 1359
брегове 1359
долини 1359
комбини@@ 1359
лед@@ 1359
цето 1359
Al@@ 1358
Вижте 1358
генери@@ 1358
мюсюлман@@ 1358
предприятие 1358
продажба 1358
религията 1358
Music 1357
Национа@@ 1357
гс 1357
естествен 1357
затор 1357
метални 1357
сребърен 1357
шпи@@ 1357
Малък 1356
Рей 1356
автора 1356
данъци 1356
млада 1356
пост@@ 1356
стръ@@ 1356
Пос@@ 1355
живял 1355
сий 1355
устрой@@ 1355
Гръцката 1354
Йохана 1354
Медичи 1354
контакти 1354
опитите 1354
скални 1354
k@@ 1353
u 1353
консул@@ 1353
момичета 1353
функцията 1353
Рабо@@ 1352
нататъ@@ 1352
реакции 1352
Българския 1351
Главните 1351
дост 1351
симво@@ 1351
съще@@ 1351
Рождество 1350
аспекти 1350
гне@@ 1350
изработени 1350
математи@@ 1350
установки 1350
x@@ 1349
жертвите 1349
оценки 1349
попадения 1349
раждане 1349
ренесан@@ 1349
125 1348
Бен 1348
Непал 1348
Отече@@ 1348
ау@@ 1348
библиоте@@ 1348
борби 1348
мени@@ 1348
мъжките 1348
семинария 1348
Кот 1347
ват@@ 1347
иденти@@ 1347
османска 1347
племенник 1347
рика 1347
СУ 1346
авиация 1346
гробница 1346
здравето 1346
медицинска 1346
мет 1346
натруп@@ 1346
осигур@@ 1346
превърне 1346
преминаването 1346
съюзниците 1346
управляват 1346
Женева 1345
Кем@@ 1345
газове 1345
мас 1345
обгра@@ 1345
Сръбско 1344
блокове 1344
ликвиди@@ 1344
реак@@ 1344
циви@@ 1344
грешка 1343
днешните 1343
опти@@ 1343
разширение 1343
синьо 1343
Казанлък 1342
Катерина 1342
ено@@ 1342
Цве@@ 1341
дани 1341
мисле@@ 1341
ней 1341
партньор 1341
тежките 1341
27@@ 1340
Нача@@ 1340
мената 1340
мене@@ 1340
телевизионна 1340
UTC 1339
домашни 1339
призовава 1339
химик 1339
Хри@@ 1338
взети 1338
види@@ 1338
длъж@@ 1338
дует 1338
лето@@ 1338
местата 1338
предотвра@@ 1338
хомосексу@@ 1338
вери@@ 1337
живопис@@ 1337
Христо@@ 1336
днешен 1336
стъпки 1336
тане 1336
тери 1336
храмът 1336
цка 1336
30@@ 1335
Лау@@ 1335
военачалник 1335
журнали@@ 1335
прехвър@@ 1335
сат 1335
слуш@@ 1335
сното 1335
унищожени 1335
th@@ 1334
Твор@@ 1334
включваща 1334
държавно 1334
зано 1334
леги@@ 1334
привлечен 1334
тури 1334
Брай@@ 1333
Запад 1333
вици 1333
демокрация 1333
ещи 1333
пещерата 1333
схайм 1333
тера@@ 1333
гу 1332
нападението 1332
настан@@ 1332
носе@@ 1332
отговорност 1332
среден 1332
шение 1332
шин 1332
Архитектура 1331
Думата 1331
Мансфелд 1331
играл 1331
медиите 1331
поети 1331
том 1331
Бир@@ 1330
Велика 1330
Леон 1330
Лотарингия 1330
алният 1330
алтерна@@ 1330
олимпи@@ 1330
рацията 1330
Генералния 1329
Кова@@ 1329
Монако 1329
блоки@@ 1329
обработ@@ 1329
червена 1329
Бангладеш 1328
бран@@ 1328
личните 1328
логични 1328
тирана 1328
105 1327
Джоузеф 1327
Лек@@ 1327
Марин 1327
Намибия 1327
вене@@ 1327
водоизместимост 1327
пов 1327
пораз@@ 1327
прово@@ 1327
реализира 1327
юноше@@ 1327
абсолю@@ 1326
българският 1326
излезе 1326
прогон@@ 1326
прости@@ 1326
фона 1326
Александрия 1325
Рила 1325
Сак@@ 1325
ками@@ 1325
кира 1325
обединени 1325
предназначение 1325
сами 1325
фра@@ 1325
des 1324
Година 1324
Кан 1324
запозна@@ 1324
изпълнения 1324
настъп@@ 1324
озаглавен 1324
отвъд 1324
траги@@ 1324
окръжен 1323
организи@@ 1323
пускат 1323
сем@@ 1323
сил@@ 1323
склоновете 1323
следователно 1323
стихотворения 1323
яващи 1323
Първия 1322
младеж 1322
площи 1322
разходи 1322
тори@@ 1322
Бюдинген 1321
бомбарди@@ 1321
дио@@ 1321
множеството 1321
надесе@@ 1321
свободни 1321
сос 1321
Богдан 1320
Масачузетс 1320
Монголия 1320
Роберт 1320
Софийска 1320
болницата 1320
електронна 1320
кръстоносен 1320
лик@@ 1320
нефт 1320
нит 1320
правилата 1320
чащи 1320
P 1319
Кало@@ 1319
гур@@ 1319
курор@@ 1319
бари@@ 1318
гам 1318
дал@@ 1318
дебюта 1318
ограничени 1318
приятелски 1318
стаи 1318
субек@@ 1318
театрални 1318
as 1317
Алексий 1317
Хър@@ 1317
гвардей@@ 1317
легион 1317
освобождава 1317
посрещ@@ 1317
m3 1316
вари 1316
география 1316
записват 1316
избя@@ 1316
лагат 1316
монаси 1316
общините 1316
ограничения 1316
сърце 1316
течения 1316
Родопите 1315
масови 1315
трево@@ 1315
бва 1314
еванге@@ 1314
мък 1314
пещера 1314
преход 1314
проби@@ 1314
сяване 1314
насят 1313
потъ@@ 1313
тирането 1313
турския 1313
уча@@ 1313
r@@ 1312
компютърни 1312
крайната 1312
нави@@ 1312
Мисисипи 1311
Реги@@ 1311
Рьо@@ 1311
Сви@@ 1311
брази@@ 1311
възстанови 1311
заси@@ 1311
извършено 1311
концепция 1311
маги@@ 1311
нейна 1311
покрив 1311
преминаване 1311
славяни 1311
части@@ 1311
Включва 1310
Роу@@ 1310
покрита 1310
растенията 1310
Роб@@ 1309
акту@@ 1309
изми@@ 1309
краката 1309
последва 1309
предпа@@ 1309
редов@@ 1309
ситуацията 1309
установи 1309
хипер@@ 1309
ам 1308
египет@@ 1308
лието 1308
нати@@ 1308
нах 1308
нка 1308
образа 1308
тичния 1308
университети 1308
финанси@@ 1308
Ето 1307
дебе@@ 1307
надесети 1307
поз@@ 1307
промяната 1307
сливането 1307
социалната 1307
І 1306
Лаос 1306
кило@@ 1306
предаде 1306
преподавате@@ 1306
прилож@@ 1306
уве@@ 1306
хме 1306
Дре@@ 1305
Началото 1305
Създаден 1305
атакуват 1305
бившите 1305
изкачва 1305
мий 1305
недостатъ@@ 1305
пазар@@ 1305
рази@@ 1305
Етимология 1304
заливи 1304
застъп@@ 1304
модер@@ 1304
пози@@ 1304
сериалът 1304
функциони@@ 1304
Живее 1303
гнез@@ 1303
доли@@ 1303
културна 1303
несени 1303
ническите 1303
нощ@@ 1303
чеството 1303
Диего 1302
Крал 1302
депутати 1302
дроб 1302
магазин 1302
сели@@ 1302
шел@@ 1302
зя@@ 1301
имала 1301
критиката 1301
обществен 1301
разред 1301
студиото 1301
Дол@@ 1300
Изпъл@@ 1300
Източната 1300
Оли@@ 1300
Същевременно 1300
петте 1300
религиозна 1300
съвет@@ 1300
Библията 1299
Тон@@ 1299
гин@@ 1299
невъзможно 1299
сира 1299
условие 1299
джан@@ 1298
синг 1298
тани 1298
тическите 1298
храмове 1298
Новата 1297
Резолюция 1297
ента@@ 1297
изне@@ 1297
ителка 1297
миналия 1297
министъра 1297
стов 1297
1821 1296
H 1296
Западната 1296
Училището 1296
започнали 1296
описани 1296
работен 1296
сай@@ 1296
тско 1296
убиват 1296
хове 1296
художествени 1296
170 1295
Всъщност 1295
капита@@ 1295
метода 1295
наказание 1295
официална 1295
пеене 1295
Ева 1294
вратата 1294
дружества 1294
заслу@@ 1294
кръга 1294
кул 1294
факти 1294
хартия 1294
частна 1294
Пример 1293
екзархията 1293
задълбо@@ 1293
рево 1293
снаряда 1293
стилове 1293
характерен 1293
чист 1293
Остава 1292
анимационен 1292
влизането 1292
днешното 1292
ефективно 1292
комуни@@ 1292
мемо@@ 1292
ряването 1292
фрайин 1292
Уч@@ 1291
изли@@ 1291
побеждават 1291
портрет 1291
практики 1291
разглеждат 1291
Брю@@ 1290
Крит 1290
един@@ 1290
китарист 1290
линг@@ 1290
риболов 1290
селяни 1290
Диа@@ 1289
Емануил 1289
Им@@ 1289
Крум 1289
Трети 1289
манастир@@ 1289
силните 1289
увол@@ 1289
Джаксън 1288
вац 1288
кръгове 1288
способен 1288
Дат@@ 1287
войник 1287
заведения 1287
зависи@@ 1287
осе@@ 1287
продажби 1287
цивилизация 1287
ъс 1287
Нари@@ 1286
Пъл@@ 1286
въпросите 1286
доне@@ 1286
паметника 1286
прехвърля 1286
Древ@@ 1285
кралицата 1285
кратен 1285
против@@ 1285
тос 1285
чар 1285
чувство 1285
шотланд@@ 1285
Мър@@ 1284
После 1284
Сандански 1284
лското 1284
почва 1284
тълку@@ 1284
човечеството 1284
Къщата 1283
Ов@@ 1283
значимите 1283
поръчка 1283
преглед 1283
сръбските 1283
Юж@@ 1282
андар@@ 1282
богатите 1282
гането 1282
институция 1282
кас 1282
македонските 1282
полето 1282
получат 1282
северното 1282
101 1281
j@@ 1281
Пенсилвания 1281
академик 1281
дво@@ 1281
запла@@ 1281
моне@@ 1281
проведен 1281
бестселъри 1280
добив 1280
доказва 1280
лник 1280
направят 1280
специфи@@ 1280
Проек@@ 1279
азиат@@ 1279
американците 1279
бове 1279
варират 1279
гражданската 1279
инженерство 1279
научно@@ 1279
предизвикват 1279
inus 1278
Мур@@ 1278
Хам@@ 1278
1815 1277
главнокомандващ 1277
едър 1277
побед@@ 1277
подписват 1277
родени 1277
старо 1277
физиката 1277
In 1276
Ат@@ 1276
Жо@@ 1276
вили 1276
православни 1276
съставени 1276
Йемен 1275
боговете 1275
ловата 1275
пин 1275
приспособ@@ 1275
продължа@@ 1275
царя 1275
Възможно 1274
Гюнтер 1274
Катрин 1274
Чад 1274
бу 1274
задържа 1274
рекор@@ 1274
ряват 1274
фикси@@ 1274
цвета 1274
Бак@@ 1273
Рав@@ 1273
Ранен 1273
Теодора 1273
бъде@@ 1273
взаимно 1273
гиган@@ 1273
дисциплини 1273
канад@@ 1273
ниц 1273
паси@@ 1273
специфични 1273
тън@@ 1273
v@@ 1272
Българско 1272
Върху 1272
Нейният 1272
Физи@@ 1272
възприема 1272
зки 1272
идентифици@@ 1272
1831 1271
l@@ 1271
ЗИП 1271
дък 1271
мле@@ 1271
родната 1271
фелс 1271
фир@@ 1271
1812 1270
Дължина 1270
Ливан 1270
вло@@ 1270
данък 1270
етническа 1270
жител 1270
подразделения 1270
сев 1270
z@@ 1269
Водо@@ 1269
воля 1269
възникват 1269
живеещи 1269
задвиж@@ 1269
рер 1269
църковна 1269
ьон 1269
Августа 1268
блат@@ 1268
мега@@ 1268
ръст 1268
чук 1268
Води 1267
Марина 1267
Форт 1267
къс@@ 1267
почивка 1267
манастирът 1266
поглед 1266
претен@@ 1266
1835 1265
Ar@@ 1265
Опит@@ 1265
Солунската 1265
бути@@ 1265
зова@@ 1265
клетка 1265
финансите 1265
цит@@ 1265
Дупница 1264
Уест 1264
зор 1264
ивица 1264
присъеди@@ 1264
пустинята 1264
способ@@ 1264
стаби@@ 1264
формации 1264
чув@@ 1264
Грай@@ 1263
МВР 1263
адаптация 1263
боже@@ 1263
взаимодействие 1263
многобройните 1263
подре@@ 1263
строителни 1263
Валерий 1262
крайните 1262
окси@@ 1262
осигу@@ 1262
това@@ 1262
шампиони 1262
1829 1261
My 1261
Бургундия 1261
Ти 1261
борн 1261
изра@@ 1261
подредени 1261
еволю@@ 1260
лта 1260
населя@@ 1260
отдавна 1260
оттеглят 1260
придру@@ 1260
съхра@@ 1260
тест 1260
Хил 1259
вното 1259
връзките 1259
идването 1259
ну 1259
родните 1259
хърватски 1259
щения 1259
Все@@ 1258
Създа@@ 1258
забранява 1258
разработването 1258
сли 1258
стомана 1258
туристи 1258
Уни@@ 1257
акция 1257
вката 1257
глаго@@ 1257
деле@@ 1257
еле@@ 1257
кю@@ 1257
национал@@ 1257
Соци@@ 1256
Хората 1256
намаляваща 1256
отглеждане 1256
турското 1256
Гъ@@ 1255
бестселър 1255
инцидент 1255
лег@@ 1255
лодки 1255
млрд. 1255
пасища 1255
програми@@ 1255
специализирани 1255
чила 1255
240 1254
Малави 1254
Сенегал 1254
Ювентус 1254
ей@@ 1254
изработ@@ 1254
липсва 1254
нася 1254
незабавно 1254
нужди 1254
хар 1254
вериги 1253
историческия 1253
знания 1252
нинг 1252
Брон@@ 1251
Дармщат 1251
Обо@@ 1251
Територията 1251
изпълнени 1251
кад@@ 1251
кора@@ 1251
целу@@ 1251
Лудогорец 1250
Мака@@ 1250
промените 1250
риален 1250
спада 1250
фикацията 1250
бургграф 1249
валд 1249
гарнизон 1249
официалната 1249
падане 1249
разру@@ 1249
родна 1249
тракийски 1249
ДНК 1248
Образу@@ 1248
Страсбург 1248
външния 1248
древногръцката 1248
ид 1248
лско 1248
оръ@@ 1248
строго 1248
чаването 1248
Кирхберг 1247
последовате@@ 1247
предложението 1247
прозра@@ 1247
равен 1247
разрушена 1247
османското 1246
подзем@@ 1246
присъда 1246
риту@@ 1246
Ивоар 1245
Педро 1245
Фернандо 1245
арски 1245
бронзов 1245
изтък@@ 1245
крепости 1245
пъте@@ 1245
хет@@ 1245
Кара 1244
активи@@ 1244
вътрешно 1244
змия 1244
понятие 1244
ство@@ 1244
комисията 1243
лоя@@ 1243
нейно 1243
разграни@@ 1243
способни 1243
1855 1242
anus 1242
запъл@@ 1242
лизи@@ 1242
превоз@@ 1242
съществено 1242
04 1241
3,5 1241
Исторически 1241
Музика@@ 1241
въведен 1241
горния 1241
инфраструктура 1241
кцията 1241
постоян@@ 1241
стова 1241
титуляр 1241
уси@@ 1241
it@@ 1240
АС 1240
Накрая 1240
народната 1240
обръ@@ 1240
стигне 1240
съвмести@@ 1240
цио 1240
ядро 1240
Сам@@ 1239
ез@@ 1239
кус 1239
мана 1239
огромно 1239
окол@@ 1239
потомци 1239
товите 1239
Воде@@ 1238
Колорадо 1238
Фра@@ 1238
гос 1238
кадри 1238
природен 1238
рато@@ 1238
ром 1238
сватбата 1238
кост@@ 1237
кости 1237
кухня 1237
съобраз@@ 1237
университе@@ 1237
цити@@ 1237
Йон@@ 1236
знамени@@ 1236
комеди@@ 1236
плановете 1236
пясъ@@ 1236
фондация 1236
ea 1235
Рен@@ 1235
диску@@ 1235
защитена 1235
насе@@ 1235
позициите 1235
убеждава 1235
артилерията 1234
блата 1234
ирланд@@ 1234
попад@@ 1234
разстоянието 1234
рация 1234
Един@@ 1233
Игна@@ 1233
Мав@@ 1233
градчето 1233
дублаж 1233
зало@@ 1233
мю@@ 1233
открие 1233
Външни 1232
Ланд@@ 1232
Цари@@ 1232
глобал@@ 1232
избягва 1232
прекъсва 1232
стадиона 1232
статус 1232
театрална 1232
Константинов 1231
Съветът 1231
Тирол 1231
Щип 1231
магне@@ 1231
намираща 1231
цар@@ 1231
вътрешна 1230
дий 1230
ида 1230
критици 1230
Малки 1229
Пери@@ 1229
етническата 1229
изобщо 1229
нача@@ 1229
обшир@@ 1229
хижа 1229
Държавен 1228
напр. 1228
проведе 1228
рифове 1228
способности 1228
унд 1228
църковни 1228
Бистрица 1227
Рю@@ 1227
благотворите@@ 1227
държавния 1227
екран 1227
крайцерът 1227
прека@@ 1227
разно@@ 1227
техническо 1227
функциите 1227
дска 1226
освобождаването 1226
убий@@ 1226
− 1226
1852 1225
кол 1225
лда 1225
лево 1225
научните 1225
отнема 1225
предше@@ 1225
1845 1224
византийския 1224
ляването 1224
мови 1224
посве@@ 1224
ралната 1224
свети@@ 1224
страница 1224
шов 1224
Херцогство 1223
ано@@ 1223
емо@@ 1223
изследването 1223
късния 1223
обвинения 1223
покривка 1223
съзна@@ 1223
1828 1222
африкан@@ 1222
нки 1222
обикновен 1222
основа@@ 1222
фек@@ 1222
чита@@ 1222
яко@@ 1222
28@@ 1221
Лимбург 1221
великия 1221
запазват 1221
знанието 1221
категори@@ 1221
следва@@ 1221
спомени 1221
съвремен@@ 1221
съкратено 1221
франк@@ 1221
102 1220
вета 1220
епо@@ 1220
измъ@@ 1220
концепцията 1220
линкори 1220
нини 1220
роднини 1220
съпротивата 1220
Каме@@ 1219
магазини 1219
ориенти@@ 1219
стни 1219
тическо 1219
фолклор 1219
icus 1218
Илинойс 1218
ените 1218
лагането 1218
нителна 1218
предоставят 1218
хребета 1218
цветовете 1218
Арнолд 1217
Епир 1217
Тради@@ 1217
въздушна 1217
жъл@@ 1217
кутия 1217
необходимостта 1217
орел 1217
смес 1217
спътник 1217
Флавий 1216
вене 1216
задово@@ 1216
кабинет 1216
твърдо 1216
ута 1216
действ@@ 1215
железопътната 1215
композиции 1215
магистра@@ 1215
мото@@ 1215
правен 1215
преименува 1215
разработката 1215
тения 1215
участвал 1215
изгра@@ 1214
новска 1214
оттогава 1214
сдорф 1214
стък@@ 1214
тясна 1214
Кенеди 1213
Литекс 1213
въздушните 1213
ейки 1213
отвори 1213
повишаване 1213
разследване 1213
растителни 1213
U@@ 1212
Леоне 1212
американското 1212
животно 1212
образци 1212
отличен 1212
полезни 1212
протести 1212
регу@@ 1212
рек 1212
речни 1212
стващи 1212
характерна 1212
Основен 1211
Самоков 1211
Среден 1211
ректор 1211
спуска 1211
фестивали 1211
Веднага 1210
Григор 1210
Музеят 1210
изтла@@ 1210
искане 1210
обединяват 1210
персона@@ 1210
платото 1210
разпръ@@ 1210
чай@@ 1210
Африкан@@ 1209
Науч@@ 1209
висшето 1209
жата 1209
изтреб@@ 1209
лаборатория 1209
правени 1209
Участ@@ 1208
дате@@ 1208
женската 1208
лага@@ 1208
скоро@@ 1208
традицията 1208
футбо@@ 1208
Гей@@ 1207
Пай@@ 1207
възстановен 1207
дското 1207
заболяването 1207
заповядва 1207
овце 1207
около@@ 1207
полице@@ 1207
сро@@ 1207
ur@@ 1206
Висшата 1206
Трай@@ 1206
Фландрия 1206
икономическата 1206
някакъв 1206
оставят 1206
фелдмаршал 1206
ходите 1206
боеве 1205
джо 1205
пласти@@ 1205
поля@@ 1205
поручик 1205
фогт 1205
химични 1205
1820 1204
Майк 1204
Одеса 1204
Централен 1204
богатство 1204
душ@@ 1204
прак@@ 1204
различия 1204
сформи@@ 1204
Аш@@ 1203
Звез@@ 1203
Изда@@ 1203
Ман 1203
магистър 1203
може@@ 1203
опреде@@ 1203
почит@@ 1203
съпротив@@ 1203
Палеолог 1202
Роман@@ 1202
двойно 1202
заседание 1202
надписи 1202
плаща 1202
сие 1202
френското 1202
Кюстенди@@ 1201
обслужва 1201
събитието 1201
съществувала 1201
1837 1200
Петка 1200
включващ 1200
днешната 1200
замър@@ 1200
занимават 1200
истината 1200
мачовете 1200
намали 1200
нк@@ 1200
покрит 1200
трасето 1200
шведски 1200
Екс@@ 1199
Закон 1199
Островът 1199
Уилсън 1199
рят 1199
хран@@ 1199
цветя 1199
Дал@@ 1198
бета 1198
грузин@@ 1198
назна@@ 1198
старта 1198
удовлетво@@ 1198
атмосфера 1197
готите 1197
контак@@ 1197
напу@@ 1197
революцията 1197
стките 1197
тността 1197
фор 1197
десан@@ 1196
звездите 1196
историко 1196
т.@@ 1196
администрацията 1195
законите 1195
изграждат 1195
охра@@ 1195
преговорите 1195
добавят 1194
лство 1194
опозиция 1194
отговор@@ 1194
1814 1193
анима@@ 1193
домаш@@ 1193
ждана 1193
започна 1193
ограничава 1193
правни 1193
строе@@ 1193
цъф@@ 1193
Клуб 1192
арестувани 1192
заловен 1192
лиан 1192
листите 1192
нанася 1192
освет@@ 1192
оформя 1192
Операция 1191
горните 1191
общества 1191
свето@@ 1191
сио 1191
трудности 1191
Езерото 1190
Общото 1190
биографи@@ 1190
евич 1190
изложени 1190
имението 1190
мнението 1190
опе@@ 1190
писа@@ 1190
пят 1190
товар@@ 1190
форт 1190
1847 1189
STS 1189
Ака@@ 1189
Боян 1189
аресту@@ 1189
архитектур@@ 1189
древен 1189
оне@@ 1189
професия 1189
ралния 1189
степ@@ 1189
боли@@ 1188
дват 1188
интегра@@ 1188
класове 1188
примирие 1188
проблема 1188
християнско 1188
Анаста@@ 1187
Крим 1187
Мали 1187
дама 1187
живели 1187
номера 1187
отбележи 1187
практиката 1187
южното 1187
ana 1186
Сръбска 1186
внучка 1186
навлизат 1186
образуване 1186
хектара 1186
an@@ 1185
Гео@@ 1185
Павлов 1185
критиците 1185
монт 1185
наложи 1185
нея@@ 1185
огла@@ 1185
сбор@@ 1185
1841 1184
Сяр@@ 1184
бълга@@ 1184
вход@@ 1184
двой@@ 1184
добрата 1184
зда@@ 1184
изобре@@ 1184
линей@@ 1184
напад@@ 1184
покров@@ 1184
средни 1184
Алпи 1183
Даун 1183
Индийския 1183
Кири@@ 1183
единствения 1183
ентите 1183
загиналите 1183
момчета 1183
обстоятелства 1183
онен 1183
предназначен 1183
пренебре@@ 1183
шах 1183
152 1182
220 1182
Бела 1182
Гос@@ 1182
Желез@@ 1182
Кукуш 1182
автен@@ 1182
възстановена 1182
декора@@ 1182
доказателство 1182
завладя@@ 1182
мунд 1182
поглъ@@ 1182
прохода 1182
съставено 1182
тинг 1182
3,@@ 1181
ac@@ 1181
Балтийско 1181
гърците 1181
задната 1181
изменения 1181
каф@@ 1181
кримина@@ 1181
легенди 1181
прикри@@ 1181
старт 1181
Бурга@@ 1180
Клубът 1180
попъл@@ 1180
разказа 1180
разпределение 1180
ску 1180
фолк 1180
r 1179
Архангел 1179
Бул@@ 1179
Сфорца 1179
Шьонбург 1179
вяване 1179
дика 1179
комерси@@ 1179
мах 1179
миси@@ 1179
монархия 1179
ползване 1179
пребива@@ 1179
Par@@ 1178
вината 1178
захран@@ 1178
значими 1178
красива 1178
международния 1178
област@@ 1178
поемат 1178
помещава 1178
представянето 1178
прояви 1178
танкове 1178
тег@@ 1178
Вул@@ 1177
Коре@@ 1177
влак 1177
намиращи 1177
подобрява 1177
ръчно 1177
служ@@ 1177
Нюрнберг 1176
Партията 1176
Провинции 1176
Третия 1176
венециан@@ 1176
излиза@@ 1176
мисля 1176
опашката 1176
основание 1176
проток 1176
юри@@ 1176
БСП 1175
атрак@@ 1175
дява 1175
еко@@ 1175
класификация 1175
лм 1175
пускането 1175
ранния 1175
скулптура 1175
спортове 1175
Джузепе 1174
Опа@@ 1174
виде@@ 1174
епископ@@ 1174
зет 1174
кратка 1174
рит@@ 1174
топло@@ 1174
тъл@@ 1174
os@@ 1173
Дне@@ 1173
Източници 1173
Осман@@ 1173
враг 1173
дит 1173
затворени 1173
изучаването 1173
испанската 1173
линкора 1173
мените 1173
писта 1173
рая 1173
тесни 1173
​ 1173
Битол@@ 1172
Театър 1172
градските 1172
композирана 1172
кторите 1172
нау@@ 1172
риск 1172
учения 1172
шима 1172
Алфонсо 1171
Висшия 1171
Гот@@ 1171
Националният 1171
възстанов@@ 1171
геро@@ 1171
испан@@ 1171
лея 1171
собстве@@ 1171
традиционни 1171
шения 1171
Дъл@@ 1170
Тиберий 1170
Ща@@ 1170
биология 1170
осъще@@ 1170
партизани 1170
посред@@ 1170
разби@@ 1170
същества 1170
турите 1170
феода@@ 1170
Фило@@ 1169
австри@@ 1169
изпълни 1169
мала@@ 1169
марката 1169
образи 1169
рациона@@ 1169
скалите 1169
цигани 1169
09 1168
Долни 1168
Льо@@ 1168
Челси 1168
идва@@ 1168
иран@@ 1168
късно@@ 1168
сов@@ 1168
ур 1168
установено 1168
физик 1168
Голе@@ 1167
Морис 1167
Побед@@ 1167
вателна 1167
заку@@ 1167
изискванията 1167
колона 1167
повтар@@ 1167
рог 1167
стъкло 1167
Загреб 1166
Монте 1166
Ще@@ 1166
гю@@ 1166
инду@@ 1166
сръбска 1166
шанс 1166
International 1165
Болоня 1165
Вселенската 1165
Марио 1165
ССР 1165
ерите 1165
икона 1165
конституцията 1165
предишния 1165
слож@@ 1165
Бел 1164
Габон 1164
Копривщица 1164
Синът 1164
апарата 1164
ватели 1164
достъпни 1164
зът 1164
координа@@ 1164
критикува 1164
лози 1164
народното 1164
полож@@ 1164
славян@@ 1164
01 1163
Зай@@ 1163
гате@@ 1163
деви@@ 1163
епархията 1163
навсякъде 1163
престой 1163
топка 1163
чини 1163
Големият 1162
Таймс 1162
ловете 1162
осу@@ 1162
пил 1162
постигане 1162
професиона@@ 1162
тексто@@ 1162
църковно 1162
юриди@@ 1162
Араб@@ 1161
Буда 1161
Кларк 1161
Млади 1161
завръщат 1161
понастоящем 1161
препоръчва 1161
приходи 1161
продуцент@@ 1161
произво@@ 1161
скалата 1161
унгар@@ 1161
Родителите 1160
вирту@@ 1160
десет@@ 1160
кораб@@ 1160
обединението 1160
обмен 1160
пиеса 1160
потенциал 1160
щети 1160
1851 1159
Ваймар 1159
догово@@ 1159
личното 1159
мънд 1159
отначало 1159
придоб@@ 1159
провъзгла@@ 1159
раб@@ 1159
ственост 1159
стопан@@ 1159
боен 1158
ир 1158
марк@@ 1158
Московския 1157
географската 1157
издигат 1157
изиск@@ 1157
казване 1157
поеме 1157
сградите 1157
съответства 1157
търговско 1157
Гран 1156
автомобила 1156
гни@@ 1156
гористи 1156
добрия 1156
преобладават 1156
уд@@ 1156
японските 1156
Добри 1155
Праз@@ 1155
бюджет 1155
душата 1155
каз@@ 1155
моменти 1155
пиро@@ 1155
работниците 1155
станало 1155
съвпада 1155
цеп@@ 1155
щен@@ 1155
дана 1154
достига@@ 1154
нор 1154
оглед 1154
руп@@ 1154
светилище 1154
чината 1154
1844 1153
Джейн 1153
Транспорт 1153
дире@@ 1153
маг@@ 1153
мити@@ 1153
натиска 1153
оператор 1153
периоди@@ 1153
следната 1153
слънцето 1153
улици 1153
ядрото 1153
врагове 1152
завладява 1152
поредни 1152
продукцията 1152
тестове 1152
хата 1152
хен 1152
1846 1151
Примери 1151
алкохол 1151
братство 1151
възрастните 1151
деният 1151
нидерланд@@ 1151
ходни 1151
6000 1150
Октавиан 1150
сборника 1150
сложна 1150
спре@@ 1150
at 1149
eus 1149
Златна 1149
бела@@ 1149
дивизията 1149
кса 1149
пехота 1149
подписването 1149
провинци@@ 1149
ранното 1149
рената 1149
рим@@ 1149
скулп@@ 1149
сме 1149
сра@@ 1149
360 1148
ІІІ 1148
Арсенал 1148
Артур 1148
Уотсън 1148
диалек@@ 1148
заменени 1148
икономическите 1148
класифици@@ 1148
напояване 1148
поражението 1148
призе@@ 1148
пътуването 1148
Смърт 1147
купол 1147
мето@@ 1147
украса 1147
чански 1147
Армен@@ 1146
Септември 1146
измест@@ 1146
испанците 1146
купол@@ 1146
лили 1146
обвър@@ 1146
предпочита 1146
театрален 1146
чести 1146
Сми@@ 1145
графи 1145
грешки 1145
движат 1145
депресия 1145
континентален 1145
популярната 1145
четвъртият 1145
1836 1144
Амстердам 1144
Доктор 1144
гова 1144
ждали 1144
каже 1144
опла@@ 1144
пласт@@ 1144
предшественик 1144
продуциран 1144
резервата 1144
финансиране 1144
es 1143
Дву@@ 1143
МС 1143
Наградата 1143
копри@@ 1143
литра 1143
обвинен 1143
k 1142
z 1142
Беле@@ 1142
Никифор 1142
Ферари 1142
кали 1142
континент 1142
пфалцграф 1142
разпространена 1142
съставя 1142
вицепрезидент 1141
дебютния 1141
жното 1141
санд@@ 1141
скан@@ 1141
08 1140
Команд@@ 1140
Нейната 1140
ият 1140
католическа 1140
летището 1140
пространства 1140
сване 1140
теж@@ 1140
хоризонта@@ 1140
цен 1140
Зимбабве 1139
Комитета 1139
Нил 1139
Скопския 1139
короната 1139
почита@@ 1139
прогре@@ 1139
студентите 1139
чиев 1139
Евро 1138
Патрик 1138
Пламен 1138
сват 1138
стовете 1138
фактически 1138
формално 1138
чуж@@ 1138
Колев 1137
Ун@@ 1137
зря@@ 1137
обявяването 1137
фран@@ 1137
Live 1136
is@@ 1136
Артър 1136
Залм 1136
Основ@@ 1136
Основна 1136
дипломира 1136
захар 1136
зени@@ 1136
зрите@@ 1136
ителният 1136
композитори 1136
меж@@ 1136
политици 1136
свален 1136
семей@@ 1136
сил 1136
топлина 1136
трупа 1136
Индиана 1135
Нер@@ 1135
Орегон 1135
гласуване 1135
донася 1135
индивиди 1135
нител 1135
спас@@ 1135
стратегически 1135
сушата 1135
часов@@ 1135
Вале@@ 1134
Здра@@ 1134
Зевс 1134
водните 1134
каса@@ 1134
магьос@@ 1134
руда 1134
сала 1134
сребърни 1134
строят 1134
чувств@@ 1134
Анд@@ 1133
Мило@@ 1133
Узбекистан 1133
лак@@ 1133
пля@@ 1133
фе 1133
центра@@ 1133
Вет@@ 1132
ателите 1132
отговорен 1132
писан 1132
ровите 1132
f 1131
Германската 1131
Гней 1131
Създадена 1131
безопасност 1131
буди@@ 1131
комен@@ 1131
планета 1131
централните 1131
Основно 1130
героя 1130
журналисти 1130
засил@@ 1130
изобразява 1130
кулите 1130
официалното 1130
посещават 1130
последван 1130
съща 1130
ядрени 1130
Уа@@ 1129
кралството 1129
къса 1129
ляна 1129
нещата 1129
претор 1129
стван 1129
Валентин 1128
влияте@@ 1128
водена 1128
започнал 1128
максимум 1128
обстановка 1128
прокурор 1128
смет@@ 1128
френско 1128
цита@@ 1128
Благо@@ 1127
Гръц@@ 1127
ДС 1127
армейски 1127
илю@@ 1127
отсе@@ 1127
палу@@ 1127
постановки 1127
проза 1127
Оупън 1126
Районът 1126
Румелия 1126
Сатурн 1126
Яко@@ 1126
гно@@ 1126
едри 1126
йм 1126
механика 1126
пулос 1126
четвъртия 1126
шум 1126
1400 1125
Дебър 1125
Неврокоп@@ 1125
американско 1125
играчите 1125
индиан@@ 1125
камен@@ 1125
принадлежност 1125
роза 1125
студент@@ 1125
течност 1125
тиците 1125
трай@@ 1125
численост 1125
ьон@@ 1125
Второто 1124
Чарли 1124
зелен 1124
изоста@@ 1124
изявява 1124
категорията 1124
конструк@@ 1124
поканен 1124
получени 1124
постройка 1124
сана 1124
шията 1124
Люнебург 1123
възраждане 1123
тяхна 1123
Социалистическа 1122
бизнеса 1122
дас 1122
националното 1122
товата 1122
1792 1121
2500 1121
Оператор 1121
арт 1121
духо@@ 1121
източни 1121
международното 1121
печата 1121
посла@@ 1121
Почетен 1120
готов 1120
мърт@@ 1120
размера 1120
Алек@@ 1119
Позна@@ 1119
изискват 1119
липсват 1119
манастири 1119
математиката 1119
мнозина 1119
нявайки 1119
отбор@@ 1119
пев@@ 1119
преживя@@ 1119
Есте 1118
Сената 1118
Тур 1118
бои 1118
висо@@ 1118
италианска 1118
катедра@@ 1118
лизма 1118
пазари 1118
посоката 1118
разтво@@ 1118
сив@@ 1118
os 1117
Основното 1117
Правителството 1117
Твър@@ 1117
Фир@@ 1117
блус 1117
жилищ@@ 1117
зовава 1117
преселници 1117
уроци 1117
06 1116
Буш 1116
Дим@@ 1116
гласове 1116
дости@@ 1116
запазване 1116
накло@@ 1116
стве@@ 1116
удоб@@ 1116
хожда 1116
0,5 1115
Трен@@ 1115
мове 1115
наследството 1115
патрио@@ 1115
подпоручик 1115
свещеници 1115
стото 1115
телефон@@ 1115
Бот@@ 1114
Висшето 1114
Източно@@ 1114
Райх@@ 1114
длъжности 1114
озна@@ 1114
океана 1114
прах 1114
сребро 1114
er 1113
Берг 1113
Надежда 1113
Оста@@ 1113
Спас 1113
желае 1113
журналистика 1113
носо@@ 1113
оставяйки 1113
площадка 1113
поди@@ 1113
постройки 1113
проя@@ 1113
унгарския 1113
Зон@@ 1112
Лет@@ 1112
Птолемей 1112
възможностите 1112
жилища 1112
описват 1112
проник@@ 1112
соли@@ 1112
часова 1112
29@@ 1111
Игра@@ 1111
Мед@@ 1111
езико@@ 1111
изоли@@ 1111
интересува 1111
пон@@ 1111
семена 1111
яд@@ 1111
ГДР 1110
Търгов@@ 1110
нината 1110
облекло 1110
оправ@@ 1110
отговарят 1110
откло@@ 1110
сумата 1110
формиран 1110
Андроник 1109
Източните 1109
ветрове 1109
енти 1109
индустрията 1109
обещава 1109
откро@@ 1109
паркове 1109
правител@@ 1109
селскостопански 1109
фо 1109
Ахмед 1108
Двата 1108
византи@@ 1108
държани 1108
машино@@ 1108
нами@@ 1108
последователи 1108
преведени 1108
пътници 1108
юноши 1108
влечуго 1107
диалекти 1107
обществения 1107
писмени 1107
препоръ@@ 1107
роднина 1107
тъм@@ 1107
Холивуд 1106
вятър 1106
добитък 1106
охла@@ 1106
повреди 1106
португалски 1106
превода@@ 1106
сюжета 1106
феде@@ 1106
Манастирът 1105
Маринов 1105
Министерския 1105
Сайн 1105
мане 1105
ниче@@ 1105
учат 1105
хиля@@ 1105
язовира 1105
Tour 1104
жълто 1104
правилно 1104
програм@@ 1104
ролите 1104
Вене@@ 1103
Венера 1103
Еритрея 1103
Пекин 1103
Персия 1103
Шпи@@ 1103
вели 1103
впечат@@ 1103
дието 1103
електромагни@@ 1103
изчезнал 1103
ном 1103
обявени 1103
рой 1103
романите 1103
страда@@ 1103
упраж@@ 1103
чай 1103
Цан@@ 1102
впечатля@@ 1102
коди@@ 1102
плътност 1102
подходящ 1102
тацията 1102
християнска 1102
Анастасия 1101
британска 1101
войводата 1101
гей 1101
изложение 1101
покана 1101
правителствени 1101
увре@@ 1101
футболни 1101
Борисов 1100
Гон@@ 1100
Жъл@@ 1100
Йоахим 1100
Наум 1100
бомби 1100
дълбоки 1100
кни@@ 1100
меч@@ 1100
намери@@ 1100
съветския 1100
телевизионния 1100
шаване 1100
Волга 1099
Вътреш@@ 1099
Жана 1099
Йордания 1099
бърза 1099
върхов@@ 1099
заряд 1099
императорски 1099
климати@@ 1099
летате@@ 1099
радиото 1099
рето 1099
увеличават 1099
целият 1099
чино 1099
шу 1099
Бруно 1098
Мало@@ 1098
Народната 1098
ад 1098
европейския 1098
кафе 1098
психологи@@ 1098
пътят 1098
християнската 1098
al 1097
Действието 1097
Яков 1097
дарения 1097
жния 1097
заселени 1097
защити 1097
лиране 1097
насяне 1097
премиерата 1097
снаб@@ 1097
статуя 1097
CD 1096
Мустафа 1096
Следващата 1096
Спе@@ 1096
Тау@@ 1096
високият 1096
представления 1096
пускане 1096
тун@@ 1096
Бога 1095
Лихтенщайн 1095
Мисури 1095
Следователно 1095
бъл@@ 1095
ваше 1095
километър 1095
ливост 1095
лорд 1095
мерно 1095
овладя@@ 1095
откъс@@ 1095
снато 1095
стипендия 1095
Гълъ@@ 1094
дългогодишен 1094
излъ@@ 1094
изселва 1094
могли 1094
монумента@@ 1094
прене@@ 1094
приемник 1094
спек@@ 1094
ъка 1094
Алекс 1093
Зем@@ 1093
Маркс 1093
Рене 1093
Юлиана 1093
агре@@ 1093
единия 1093
естествена 1093
многото 1093
нарко@@ 1093
наследен 1093
откъм 1093
шното 1093
07 1092
1839 1092
1843 1092
вения 1092
задължител@@ 1092
използвали 1092
крила 1092
наследничка 1092
уро@@ 1092
Западния 1091
Ок@@ 1091
брони@@ 1091
гвардия 1091
господството 1091
диоксид 1091
обсада 1091
откаже 1091
поколения 1091
преименувано 1091
разчита 1091
руснаците 1091
черве@@ 1091
Дек@@ 1090
Костадин 1090
Мара@@ 1090
масиви 1090
почива 1090
регионални 1090
сухи 1090
БН@@ 1089
елементите 1089
крале 1089
лените 1089
мак 1089
планиране 1089
създател 1089
тъкан 1089
хоф 1089
художествен 1089
шести 1089
Дебър@@ 1088
Женен 1088
Тереза 1088
бела 1088
жре@@ 1088
празника 1088
ситуации 1088
шените 1088
Гранд 1087
Лацио 1087
Републиканската 1087
Руска 1087
бого@@ 1087
вка@@ 1087
коно@@ 1087
махали 1087
нек 1087
сръбския 1087
строителен 1087
Братя 1086
Кук 1086
Мори@@ 1086
бойното 1086
гарантира 1086
групи@@ 1086
признаци 1086
режисура 1086
тера 1086
учение 1086
ходя@@ 1086
Геминген 1085
Източния 1085
върви 1085
достигнат 1085
намаляват 1085
позволи 1085
ствия 1085
сърбите 1085
тенберг 1085
учре@@ 1085
фланг 1085
Андре 1084
местна 1084
украин@@ 1084
Изку@@ 1083
Тоскана 1083
каквито 1083
катастро@@ 1083
лък 1083
любов@@ 1083
незакон@@ 1083
рея 1083
сериозна 1083
фундамента@@ 1083
Иванова 1082
Себастиан 1082
дебю@@ 1082
завършил 1082
обширни 1082
претенции 1082
Каледония 1081
Разработ@@ 1081
Суринам 1081
етажа 1081
жилищни 1081
извежда 1081
ландската 1081
установени 1081
втори@@ 1080
графската 1080
експедиции 1080
Берлинския 1079
СК 1079
жица 1079
заета 1079
петна 1079
преместват 1079
професионално 1079
Вре@@ 1078
Типи@@ 1078
видео@@ 1078
допълнителна 1078
игрите 1078
лищ@@ 1078
нареждане 1078
носен 1078
писменост 1078
Фрай@@ 1077
деноно@@ 1077
партизанин 1077
причинява 1077
Първична 1076
Скоп@@ 1076
Сол@@ 1076
екзеку@@ 1076
екзо@@ 1076
хва 1076
Македонския 1075
верен 1075
дървена 1075
евенту@@ 1075
летния 1075
намира@@ 1075
оцелели 1075
раждат 1075
Родо@@ 1074
Шумен@@ 1074
ази@@ 1074
атмосфер@@ 1074
васа@@ 1074
геоло@@ 1074
издържа 1074
изло@@ 1074
пере@@ 1074
седа@@ 1074
снимките 1074
царица 1074
Джен@@ 1073
Религии 1073
Футбо@@ 1073
аристокра@@ 1073
артист 1073
бла 1073
лиценз 1073
мово 1073
ол@@ 1073
риал@@ 1073
усъвършен@@ 1073
ционният 1073
280 1072
Австрийска 1072
Били 1072
очер@@ 1072
палата 1072
трапе@@ 1072
четвъртата 1072
чл 1072
Грами 1071
зал 1071
квадра@@ 1071
клуб@@ 1071
компютърна 1071
космо@@ 1071
мексикан@@ 1071
нел 1071
проро@@ 1071
републиката 1071
симптоми 1071
цилиндри@@ 1071
Воден 1070
Живков 1070
Михаел 1070
Уо@@ 1070
госту@@ 1070
дисциплина 1070
изследовате@@ 1070
къс 1070
лам@@ 1070
лит@@ 1070
медицината 1070
походи 1070
сате@@ 1070
социален 1070
цивилни 1070
Анто@@ 1069
Дамян 1069
Страната 1069
движе@@ 1069
ела@@ 1069
емиграция 1069
мания 1069
минимум 1069
нака@@ 1069
отиде 1069
пати@@ 1069
привърженици 1069
пръстен 1069
стратегия 1069
съвмест@@ 1069
ся 1069
тексти@@ 1069
хин 1069
шахмат 1069
Причината 1068
Рено 1068
Чин@@ 1068
Шекспир 1068
ансамбъл 1068
вероя@@ 1068
дала 1068
корей@@ 1068
тайни 1068
технологи@@ 1068
философ@@ 1068
дарява 1067
дъб 1067
зеленчуци 1067
интересите 1067
колекции 1067
лизирани 1067
независим 1067
повлия@@ 1067
съсед@@ 1067
фат@@ 1067
Гъстотата 1066
Манасти@@ 1066
Новия 1066
делегация 1066
долините 1066
живя@@ 1066
започнат 1066
идентичност 1066
корен@@ 1066
народните 1066
Галия 1065
кипър@@ 1065
ливади 1065
монгол@@ 1065
поклон@@ 1065
профил 1065
равнин@@ 1065
стрелбата 1065
4,@@ 1064
Бундеслига 1064
Джими 1064
Кастел 1064
Опреде@@ 1064
Прав@@ 1064
заим@@ 1064
преко@@ 1064
разработена 1064
случа@@ 1064
One 1063
Бари 1063
Сме@@ 1063
близка 1063
европейското 1063
зал@@ 1063
плит@@ 1063
потом@@ 1063
традиционната 1063
успешните 1063
шил 1063
м. 1062
охлюв 1062
партий@@ 1062
серви@@ 1062
сман 1062
тяването 1062
Военна 1061
Музей 1061
Фул@@ 1061
начално 1061
съоръжение 1061
харесва 1061
Работата 1060
Франсис 1060
еднакви 1060
ент 1060
завода 1060
ис 1060
крайбрежията 1060
прите@@ 1060
тано 1060
убийства 1060
W 1059
Мани@@ 1059
адрес 1059
земетресение 1059
кръст@@ 1059
моду@@ 1059
навечерието 1059
постижение 1059
произведението 1059
специализи@@ 1059
четници 1059
Влива 1058
ТКЗС 1058
Тесалия 1058
Феликс 1058
дето 1058
емоциона@@ 1058
конкурен@@ 1058
отдясно 1058
оти 1058
приятелите 1058
спомага 1058
унищожава 1058
Оде@@ 1057
актьорско 1057
измисле@@ 1057
кология 1057
котка 1057
минерални 1057
новини 1057
сигнали 1057
увеличи 1057
en 1056
Големите 1056
дания 1056
кс@@ 1056
построяване 1056
робо@@ 1056
хов@@ 1056
1818 1055
Кау@@ 1055
празнува 1055
премах@@ 1055
пристани@@ 1055
тали@@ 1055
филмови 1055
храсти 1055
Джони 1054
Мусолини 1054
величина 1054
годишнина 1054
жител@@ 1054
монаше@@ 1054
обхваща@@ 1054
обществените 1054
помещение 1054
преодо@@ 1054
стома@@ 1054
съдържащи 1054
Апри@@ 1053
ит 1053
насър@@ 1053
персонал 1053
преводи 1053
1832 1052
TV 1052
Бос@@ 1052
Макси@@ 1052
Савойски 1052
Сли@@ 1052
Стив 1052
Япон@@ 1052
височини 1052
възрастта 1052
колеги 1052
областите 1052
огне@@ 1052
търсе@@ 1052
чеш@@ 1052
Антарктида 1051
Ленинград 1051
МКС 1051
Орден 1051
изтича 1051
наличие 1051
освобождение 1051
отгоре 1051
хляб 1051
Къп 1050
единство 1050
замъкът 1050
крак 1050
наше@@ 1050
покой@@ 1050
председателят 1050
терми@@ 1050
установяването 1050
формула 1050
царството 1050
1838 1049
Костур@@ 1049
допуска 1049
изстре@@ 1049
лителни 1049
пленен 1049
полицейски 1049
прекъсване 1049
сезон@@ 1049
убеди 1049
1834 1048
opus 1048
Евре@@ 1048
Ени@@ 1048
Софийски 1048
Теодосий 1048
асоции@@ 1048
бана@@ 1048
волейбол 1048
дос 1048
обяви 1048
съпру@@ 1048
Коми@@ 1047
Управлението 1047
архипелага 1047
бягат 1047
глад 1047
емата 1047
зий 1047
иници@@ 1047
разпределени 1047
съвременното 1047
талант 1047
Дай@@ 1046
Нау@@ 1046
Провежда 1046
Свър@@ 1046
Хау@@ 1046
департамента 1046
дец 1046
карти@@ 1046
салон 1046
създадат 1046
5,@@ 1045
Рад@@ 1045
Силезия 1045
Южния 1045
молекули 1045
пренася 1045
химически 1045
Топ 1044
Фиджи 1044
албанци 1044
богове 1044
мари@@ 1044
обикновени 1044
районите 1044
рисуване 1044
тежи 1044
тютю@@ 1044
шахмат@@ 1044
Констан@@ 1043
Радев 1043
Ски@@ 1043
бота@@ 1043
вливат 1043
енбург 1043
жил 1043
корпора@@ 1043
минерали 1043
мони@@ 1043
осъзна@@ 1043
продуци@@ 1043
риан@@ 1043
селско 1043
сь@@ 1043
тава 1043
хитове 1043
ширината 1043
Киргизстан 1042
Клод 1042
Паул 1042
Ривър 1042
гали 1042
детайли 1042
залата 1042
победен 1042
радва 1042
странични 1042
суша 1042
тържествено 1042
финалите 1042
шко@@ 1042
Еди@@ 1041
Цариградската 1041
гени 1041
гроб 1041
кандидат@@ 1041
мечка 1041
общин@@ 1041
преживява 1041
републикански 1041
чената 1041
Адриан 1040
Джъ@@ 1040
Румен 1040
Светослав 1040
Траки@@ 1040
бедните 1040
всеки@@ 1040
изобразен 1040
пещери 1040
противници 1040
стал 1040
творчески 1040
трае 1040
усе@@ 1040
формули@@ 1040
частите 1040
четите 1040
Пир@@ 1039
изчисления 1039
ила 1039
каните 1039
красота 1039
лю 1039
нава 1039
намерен 1039
отряди 1039
сочат 1039
централно 1039
Антъни 1038
Бостън 1038
гроба 1038
ограничено 1038
повишава 1038
съобщение 1038
750 1037
арменски 1037
пехотата 1037
полуострова 1037
ристи 1037
став@@ 1037
стигат 1037
1810 1036
Исак 1036
Реката 1036
ард 1036
бившият 1036
ждава 1036
забранено 1036
затворници 1036
института 1036
класация 1036
относ@@ 1036
потреб@@ 1036
триъгъл@@ 1036
цер@@ 1036
Продължителността 1035
Рос 1035
бандата 1035
общността 1035
потушаването 1035
промоция 1035
тесен 1035
часове 1035
Айова 1034
Ивайло 1034
Мичиган 1034
говоре@@ 1034
континента@@ 1034
максималната 1034
нак@@ 1034
носи@@ 1034
обитават 1034
обучава 1034
пореден 1034
привърженик 1034
разгрома 1034
световните 1034
сив 1034
установяване 1034
ховете 1034
чисти 1034
Дж 1033
Любо@@ 1033
гва 1033
знамето 1033
коса 1033
новено 1033
обли@@ 1033
счето@@ 1033
34,@@ 1032
Док@@ 1032
Преподава 1032
Русен@@ 1032
Юн@@ 1032
възрастният 1032
дупка 1032
ентът 1032
изв@@ 1032
точни 1032
Вила 1031
Тюрингия 1031
вгра@@ 1031
заговор 1031
изчер@@ 1031
летна 1031
определение 1031
столи@@ 1031
1793 1030
Йорданов 1030
Настоя@@ 1030
План@@ 1030
ара@@ 1030
дубли@@ 1030
засяга 1030
обуча@@ 1030
разпространяват 1030
редба 1030
рим 1030
тит@@ 1030
тръгват 1030
футбола 1030
хармо@@ 1030
Волфенбютел 1029
аржен@@ 1029
класациите 1029
линеен 1029
мощни 1029
мюсюлмански 1029
наклон 1029
общ@@ 1029
пас@@ 1029
правителства 1029
приятелка 1029
продаден 1029
члена 1029
янов 1029
бавар@@ 1028
близкото 1028
бъдещата 1028
дки 1028
дъл 1028
звучене 1028
зон@@ 1028
изобразени 1028
имо@@ 1028
нишка 1028
обикновена 1028
отзиви 1028
цело@@ 1028
id@@ 1027
ti 1027
Того 1027
Уил@@ 1027
валута 1027
възло@@ 1027
класирането 1027
плате@@ 1027
техният 1027
127 1026
Гонзага 1026
Обществото 1026
гени@@ 1026
голе@@ 1026
дъно 1026
земен 1026
наем@@ 1026
ова@@ 1026
пара 1026
преследване 1026
разбират 1026
1842 1025
Бей 1025
Бил@@ 1025
Камен@@ 1025
Християн@@ 1025
Цюрих 1025
асфал@@ 1025
бърз 1025
вод 1025
годе@@ 1025
кала 1025
менти@@ 1025
придружава 1025
пур@@ 1025
ВЕЦ 1024
Възник@@ 1024
Олга 1024
академията 1024
ждават 1024
индо@@ 1024
модифици@@ 1024
правосъдието 1024
редиците 1024
съзнанието 1024
фенове 1024
Влашко 1023
Дядо 1023
Петрич 1023
дякон 1023
изма@@ 1023
йо 1023
камер@@ 1023
рън 1023
търже@@ 1023
фира 1023
Царство 1022
постави 1022
собствеността 1022
средствата 1022
Червено 1021
адре@@ 1021
дви@@ 1021
дек@@ 1021
маршрут 1021
насочена 1021
ол 1021
органични 1021
отро@@ 1021
поречието 1021
стването 1021
тюр@@ 1021
участвали 1021
щават 1021
Златната 1020
Лерин 1020
Поло@@ 1020
виц 1020
въртя@@ 1020
гама 1020
дея 1020
екземпляри 1020
завинаги 1020
застрахо@@ 1020
конкре@@ 1020
летя@@ 1020
математически 1020
подробно 1020
подчер@@ 1020
растението 1020
сяването 1020
ti@@ 1019
Габров@@ 1019
Другите 1019
Чарлс 1019
консерватория 1019
натите 1019
сион 1019
съюзник 1019
Генуа 1018
Цвайбрюкен 1018
просветен 1018
терористи@@ 1018
og@@ 1017
Апосто@@ 1017
спектър 1017
стено@@ 1017
трибу@@ 1017
ховен 1017
Боб 1016
Европейското 1016
Зигфрид 1016
Счита 1016
гас 1016
дии 1016
ледник 1016
шев@@ 1016
вул@@ 1015
гимнази@@ 1015
екземпляра 1015
лингви@@ 1015
лищата 1015
партизан@@ 1015
системите 1015
считан 1015
сяват 1015
1825 1014
Аполо 1014
Жителите 1014
Ленин 1014
вто@@ 1014
вярват 1014
гово@@ 1014
драмати@@ 1014
еро 1014
зато@@ 1014
защита@@ 1014
крайбре@@ 1014
поставянето 1014
проже@@ 1014
разликата 1014
стри 1014
Горни 1013
Построена 1013
Тенеси 1013
диско@@ 1013
кампании 1013
нападате@@ 1013
отли@@ 1013
сали@@ 1013
1100 1012
Баба 1012
Валдбург 1012
гащи 1012
мба 1012
метри 1012
племената 1012
сблъсък 1012
тематика 1012
яния 1012
All 1011
Касел 1011
Манд@@ 1011
включващи 1011
забеля@@ 1011
критику@@ 1011
ора@@ 1011
пва 1011
пети@@ 1011
проявяват 1011
собствения 1011
спи 1011
стови 1011
френският 1011
Вод@@ 1010
Порт 1010
анти 1010
впечатление 1010
далечни 1010
кина 1010
кош@@ 1010
модернизация 1010
противополож@@ 1010
тман 1010
1822 1009
Ерих 1009
Паисий 1009
Присъединява 1009
Том@@ 1009
Хара@@ 1009
Хърват@@ 1009
актьора 1009
китайската 1009
конту@@ 1009
н. 1009
оригина@@ 1009
състояния 1009
характерно 1009
шах@@ 1009
Ди 1008
Злата@@ 1008
Международен 1008
вай 1008
зре@@ 1008
кор 1008
награ@@ 1008
настъплението 1008
снат 1008
танц@@ 1008
шенията 1008
190 1007
il@@ 1007
Оряховица 1007
Политическа 1007
ФГ 1007
германското 1007
жили 1007
катаревуса 1007
кой@@ 1007
конден@@ 1007
македонската 1007
напуснат 1007
особен 1007
разширяване 1007
Бруней 1006
Копа 1006
Хенриета 1006
ави@@ 1006
архитектурни 1006
бъбре@@ 1006
завладяването 1006
оранже@@ 1006
осве@@ 1006
педагог 1006
писите 1006
снима@@ 1006
тухли 1006
финансов 1006
флаг 1006
хаус 1006
чене 1006
четвърто 1006
Доми@@ 1005
автобиографи@@ 1005
ала 1005
банки 1005
вис 1005
колата 1005
маз@@ 1005
могили 1005
немска 1005
пловдив@@ 1005
сегашното 1005
1813 1004
Арги@@ 1004
Димитрова 1004
Лигата 1004
абатството 1004
изпитва 1004
навига@@ 1004
описан 1004
отляво 1004
поезията 1004
спират 1004
човешка 1004
Бле@@ 1003
Ли 1003
Пловдив@@ 1003
отделения 1003
писана 1003
разбива 1003
урба@@ 1003
чица 1003
Икономиче@@ 1002
Отново 1002
Смъртта 1002
Фал@@ 1002
автономия 1002
илюстра@@ 1002
народ@@ 1002
неприя@@ 1002
повърхност@@ 1002
показатели 1002
прити@@ 1002
св@@ 1002
усп@@ 1002
чър 1002
It 1001
Господне 1001
Занимава 1001
Съюз 1001
Третата 1001
апо@@ 1001
аторите 1001
влади@@ 1001
камара 1001
погребани 1001
съвети 1001
Кралската 1000
Малка 1000
Мориц 1000
Принц 1000
Южно@@ 1000
кий 1000
обикаля 1000
построи 1000
стенописите 1000
Ада@@ 999
Сюлейман 999
високия 999
зако@@ 999
кола@@ 999
материал@@ 999
оспор@@ 999
предаден 999
пристанища 999
слън@@ 999
Близо 998
Лили 998
Олденбург 998
Рос@@ 998
Слав@@ 998
Соб@@ 998
Четири@@ 998
британското 998
намерят 998
нските 998
параметри 998
предизвика 998
публични 998
разработени 998
руският 998
ръкописи 998
чака 998
щастие 998
Енер@@ 997
Желяз@@ 997
Шьон@@ 997
онер 997
офанзива 997
парче 997
скандал 997
съдебен 997
техен 997
фур@@ 997
Бръ@@ 996
Кунигунда 996
визия 996
второ@@ 996
ело 996
засилва 996
късни 996
лом@@ 996
ола 996
поддържане 996
принципите 996
стро 996
съществуващите 996
царски 996
Конгреса 995
бр 995
влюбва 995
гото 995
гръбна@@ 995
дио 995
зала@@ 995
кота 995
кули@@ 995
материя 995
сал@@ 995
сребър@@ 995
струк@@ 995
херцога 995
хил 995
шкият 995
Веселин 994
Джим 994
Кралския 994
Крон@@ 994
емигран@@ 994
завод@@ 994
митрополи@@ 994
нила 994
обединена 994
ориентация 994
отдела 994
предотврати 994
Life 993
вския 993
гърдите 993
отглежда 993
форум 993
булевард 992
преименувана 992
приятел@@ 992
сх@@ 992
употребява 992
централа 992
ченко 992
югослав@@ 992
Айрес 991
Клю@@ 991
Пред 991
Щутгарт 991
африкански 991
извърши 991
прекратяване 991
стове 991
Байерн 990
Кун@@ 990
Оригина@@ 990
бана 990
голмайстор 990
дуин 990
енщайн 990
лекарства 990
средните 990
тока 990
Бисмарк 989
Вален@@ 989
Жорж 989
Злато@@ 989
Каро@@ 989
Кора@@ 989
Лорънс 989
Спасов 989
бойци 989
видните 989
демонстрира 989
императорът 989
картините 989
любовен 989
портре@@ 989
престоя 989
продължително 989
християните 989
Group 988
Граф 988
Джули@@ 988
Маргарет 988
Неофит 988
Самуил 988
Хиро@@ 988
Центъра 988
голове 988
изпратена 988
итен 988
канцлер 988
колекцията 988
пазят 988
слънце 988
художествено 988
шампионка 988
Пръ@@ 987
вестниците 987
вов 987
дис@@ 987
затруд@@ 987
изчисле@@ 987
оригиналния 987
отглеждането 987
познава 987
стичните 987
тското 987
уле@@ 987
чиста 987
Хро@@ 986
лио 986
наречената 986
получа@@ 986
работник 986
републики 986
риан 986
сей@@ 986
следното 986
станали 986
Витоша 985
Воен@@ 985
Негово 985
Тринидад 985
вира 985
ещ 985
изто@@ 985
лекари 985
освобо@@ 985
публикуват 985
размерите 985
Видин@@ 984
Рон@@ 984
Черни 984
благородници 984
лъв 984
нички 984
сат@@ 984
слаби 984
Бели 983
Секре@@ 983
вас 983
нем@@ 983
неуспешен 983
рай 983
съчи@@ 983
товари 983
точност 983
трикорабна 983
философски 983
Y 982
Игор 982
Окръ@@ 982
Северната 982
Слу@@ 982
бремен@@ 982
вне@@ 982
дили 982
дли@@ 982
издател 982
ковска 982
музикалния 982
нашествие 982
оча@@ 982
плен@@ 982
примити@@ 982
Българ@@ 981
Кампания 981
Сухо@@ 981
аматьор@@ 981
бий 981
бомба 981
меня@@ 981
ниста 981
предприемат 981
Израства 980
гроб@@ 980
жеството 980
максимално 980
мозък 980
Близ@@ 979
Дъглас 979
Род@@ 979
българ@@ 979
звука 979
излъчват 979
майчина 979
мраз@@ 979
нни 979
океани 979
преподаватели 979
проектът 979
редовни 979
религиозните 979
следващото 979
фът 979
Billboard 978
ys 978
Пиетро 978
избух@@ 978
краищата 978
крепост@@ 978
очевидно 978
рийската 978
странно 978
териториал@@ 978
Академия 977
Блан@@ 977
Предистория 977
Унгар@@ 977
Хали@@ 977
Цялото 977
дърво@@ 977
кред@@ 977
пова 977
подчертава 977
припис@@ 977
работещи 977
шек 977
Буенос 976
Вилхелмина 976
Ден 976
вяне 976
илюстри@@ 976
македонци 976
направления 976
официалния 976
партнира 976
покаже 976
скоп@@ 976
степени 976
тетра@@ 976
Les 975
Аг@@ 975
Балканските 975
Крушево 975
Руанда 975
Създава 975
дирекция 975
заеме 975
пусне 975
разрушени 975
родът 975
черния 975
an 974
Институт 974
Слън@@ 974
внезапно 974
музикалните 974
персийски 974
сток 974
уа 974
02 973
V. 973
Нигер 973
Саарбрюкен 973
Урал 973
вик 973
дворцо@@ 973
езерата 973
менидж@@ 973
нио 973
спечелил 973
финансово 973
фини@@ 973
широко@@ 973
1789 972
f@@ 972
Дома@@ 972
Леонардо 972
близкия 972
вей 972
обикновените 972
реши 972
свире@@ 972
стието 972
сформира 972
цялостно 972
АС@@ 971
Савоя 971
Хановер 971
блестя@@ 971
вземане 971
времен@@ 971
завою@@ 971
макси@@ 971
повлиян 971
повтаря 971
предимство 971
прилагат 971
пролет 971
стери@@ 971
студена 971
съседни 971
съществувало 971
учението 971
фаши@@ 971
фикации 971
чле@@ 971
Мали@@ 970
Народ@@ 970
Револю@@ 970
Фугер 970
вската 970
изстрела 970
мохамедани 970
промишлеността 970
селек@@ 970
съответната 970
търгу@@ 970
шар@@ 970
щит 970
1795 969
Ханау 969
Юпитер 969
бат 969
възползва 969
инте@@ 969
лиш@@ 969
320 968
as@@ 968
ВИ@@ 968
Взема 968
Роджър 968
загинали 968
кини 968
модерни 968
мозъка 968
оригиналната 968
предложения 968
пълното 968
тенденция 968
техническа 968
укри@@ 968
Black 967
Тат@@ 967
боеприпаси 967
бокс 967
дли 967
ждащи 967
изключен 967
направил 967
пат 967
рила 967
Кристофър 966
Мати@@ 966
Осо@@ 966
борят 966
географско 966
площада 966
провинциите 966
текстовете 966
церемонията 966
Бащата 965
Жени 965
Майн 965
бързи 965
действащи 965
делата 965
ждал 965
заменена 965
мощ 965
нология 965
разходите 965
строена 965
търсенето 965
фауна 965
чането 965
1803 964
Системата 964
Стъ@@ 964
авторът 964
динами@@ 964
дока@@ 964
конен 964
лизирана 964
начи@@ 964
нома@@ 964
обсъ@@ 964
обяс@@ 964
планинската 964
сериозен 964
en@@ 963
Хонконг 963
арх@@ 963
биография 963
жаби 963
зово 963
имение 963
коня 963
обвиня@@ 963
рова@@ 963
степента 963
вечерта 962
мали 962
механизми 962
мур 962
нарушения 962
ниан 962
образувания 962
опозицията 962
размен@@ 962
районът 962
ценен 962
АТ@@ 961
ООД 961
Обще@@ 961
Съюзниците 961
древна 961
комитета 961
окупа@@ 961
пшеница 961
Държав@@ 960
Програмата 960
Продължава 960
древния 960
забрана 960
заведение 960
мерите 960
обслужване 960
пала@@ 960
реди@@ 960
религиозен 960
ствола 960
Z 959
lo@@ 959
Клет@@ 959
Либерия 959
Румъ@@ 959
Третият 959
Цанков 959
белтъ@@ 959
въведена 959
живява 959
квалификациите 959
размно@@ 959
ствани 959
ственият 959
1797 958
Кит@@ 958
Странджа 958
законодателство 958
захар@@ 958
лоу 958
междин@@ 958
нем 958
олтара 958
совите 958
услугите 958
чува 958
шир 958
ьой 958
Торонто 957
дупки 957
кван@@ 957
красиви 957
лената 957
понти@@ 957
реб@@ 957
следствие 957
съгласни 957
таен 957
фов 957
Банско 956
Лион 956
Наблю@@ 956
Панайот 956
Пуерто 956
Четири 956
аро@@ 956
израв@@ 956
полско 956
привър@@ 956
работни 956
сценари@@ 956
Велико@@ 955
Вермахта 955
джия 955
заха@@ 955
кала@@ 955
конгре@@ 955
наричано 955
осъществяват 955
проверка 955
пропорциона@@ 955
седемте 955
сложен 955
улицата 955
формирана 955
Tr@@ 954
am@@ 954
Алабама 954
Гел@@ 954
Режи@@ 954
Участник 954
веригата 954
горска 954
греб@@ 954
етапа 954
ждението 954
изрази 954
напитки 954
немците 954
увеличение 954
цилин@@ 954
школи 954
Barbus 953
Белиз 953
Ред 953
гъби 953
даря 953
дошли 953
есен@@ 953
отворена 953
постигат 953
предназначена 953
разстояния 953
урата 953
църковен 953
четвърта 953
чили 953
230 952
Бон 952
Зак@@ 952
Путин 952
Структура 952
българин 952
книжо@@ 952
кърмата 952
мъжкия 952
напрежението 952
споделят 952
топката 952
чешма 952
широ@@ 952
ul@@ 951
Андерсън 951
Аристотел 951
Полската 951
дърветата 951
кандидати 951
пече@@ 951
пията 951
разкло@@ 951
сайтове 951
самоубива 951
тет 951
транспорта 951
швейцар@@ 951
1790 950
Награден 950
Оръ@@ 950
Прото@@ 950
Размножаване 950
вален@@ 950
елимини@@ 950
жие 950
изстрел@@ 950
крие 950
освободи 950
осъдени 950
писателката 950
прилича 950
холанд@@ 950
четене 950
4,5 949
Грийн 949
Световния 949
бараба@@ 949
взаим@@ 949
влаж@@ 949
възможна 949
доро@@ 949
еквивален@@ 949
забележителност 949
земе@@ 949
общественото 949
опери@@ 949
поставено 949
призната 949
протест 949
рище 949
триум@@ 949
хе 949
Джумая 948
Лон@@ 948
Окръжния 948
английските 948
изтъ@@ 948
лителна 948
лф 948
свидетелстват 948
уреди 948
фасада 948
orum 947
Парма 947
бов 947
гла 947
нарису@@ 947
родове 947
тимът 947
файлове 947
фли@@ 947
ops 946
Дева 946
Нат@@ 946
Обща 946
Уот@@ 946
измежду 946
кода 946
лийския 946
лири@@ 946
мест@@ 946
нара@@ 946
озаглавена 946
отклонява 946
полските 946
разкриват 946
рико 946
уязвим 946
ърд 946
Латинска 945
Оклахома 945
Релефът 945
Старото 945
атоми 945
вършва 945
зака@@ 945
йния 945
клави@@ 945
организирано 945
тинския 945
югоизточна 945
Анастас 944
Кня@@ 944
Лоренцо 944
авиацион@@ 944
завърне 944
изгон@@ 944
изпрати 944
ляво 944
ожени 944
полити@@ 944
пур 944
слаба 944
сътруд@@ 944
хълмове 944
чал 944
Шей@@ 943
аз@@ 943
буря 943
готови 943
джамията 943
комунистите 943
простран@@ 943
сключват 943
тас 943
Изградена 942
Капитан 942
австрийския 942
защитават 942
звездата 942
поява 942
селската 942
шената 942
1819 941
eri 941
Бли@@ 941
Мигел 941
господство 941
индивида 941
интелигент@@ 941
кръста 941
купу@@ 941
лезли 941
лекси@@ 941
обичаи 941
основате@@ 941
присъединяването 941
разклонения 941
родом 941
японския 941
Монфор 940
Хауърд 940
Юридическия 940
атин@@ 940
допри@@ 940
дъжд 940
единият 940
конвенция 940
пета 940
продук@@ 940
работна 940
стичната 940
ционер 940
Копенхаген 939
НИ@@ 939
болни 939
изработен 939
л. 939
небе@@ 939
поми@@ 939
превърнат 939
странни 939
строене 939
тивите 939
фокуси@@ 939
Краков 938
Пя@@ 938
бежанско 938
гови 938
госпо@@ 938
дванадесет 938
жките 938
използвал 938
компак@@ 938
покритие 938
посмъртно 938
събирането 938
съпругът 938
физическа 938
човешкия 938
Car@@ 937
In@@ 937
Rock 937
Бенин 937
Червен 937
добро@@ 937
зната 937
медала 937
озву@@ 937
предска@@ 937
разновидности 937
Поя@@ 936
Фридерика 936
бодлоперка 936
боснен@@ 936
дести@@ 936
земна 936
извършване 936
йк 936
лах 936
мюсюлманите 936
надлъж@@ 936
наркотици 936
нормално 936
опита@@ 936
писате@@ 936
хорст 936
японците 936
Вид 935
Мис 935
Мно@@ 935
главното 935
изписани 935
изсе@@ 935
интерфейс 935
кине@@ 935
ключо@@ 935
мину@@ 935
насочват 935
ническото 935
носец 935
художникът 935
Моно@@ 934
ОК 934
ака@@ 934
допи@@ 934
мнозинството 934
одобрява 934
технологията 934
хвърлят 934
1833 933
ec@@ 933
Британия 933
Камарата 933
разболява 933
ритъм 933
тъкани 933
Клара 932
Тялото 932
Хин@@ 932
лински 932
необходимите 932
отстранен 932
преследва 932
ранно@@ 932
1,2 931
1805 931
Бара@@ 931
Боро@@ 931
Ерне@@ 931
болка 931
зареждане 931
квалификация 931
мила 931
неф@@ 931
оперативно 931
офис 931
тист 931
траки@@ 931
ura 930
Класификация 930
Клу@@ 930
Робер 930
дент@@ 930
драз@@ 930
единствена 930
лизиран 930
машината 930
ниите 930
нили 930
статуи 930
струва 930
тичното 930
тури@@ 930
тютюн 930
Арена 929
Оман 929
випуск 929
докторат 929
другият 929
затворена 929
изпъ@@ 929
квалифика@@ 929
либе@@ 929
общите 929
построено 929
преди@@ 929
преци@@ 929
чове@@ 929
шведския 929
Веле@@ 928
Националното 928
Траян 928
анг@@ 928
базиликата 928
дано 928
дино 928
дските 928
коко@@ 928
организирането 928
плаването 928
позити@@ 928
пропуска 928
проследява 928
разсъ@@ 928
саксо@@ 928
стиче@@ 928
сърбо@@ 928
творче@@ 928
Бун@@ 927
Жа@@ 927
Средно 927
великите 927
върховете 927
жанрове 927
извира 927
лари 927
отрича 927
пълноводие 927
пътешествие 927
тието 927
хоно@@ 927
Бет@@ 926
Европейска 926
Император@@ 926
Мануел 926
Палау 926
австро 926
дома@@ 926
иконите 926
иту@@ 926
лице@@ 926
освободени 926
подпомагане 926
предоста@@ 926
продукции 926
пътни 926
реги@@ 926
регистри@@ 926
ске 926
средния 926
укрепления 926
da 925
абстрак@@ 925
византийската 925
дне@@ 925
краен 925
краища 925
купола 925
линкорите 925
лодка 925
опера@@ 925
певци 925
сирене 925
станат 925
схеми 925
четвърт@@ 925
шаването 925
Wrestling 924
вале@@ 924
влошава 924
кава 924
музеи 924
пънк 924
разделянето 924
снаряд 924
щайки 924
305 923
ap@@ 923
Бори@@ 923
Проф 923
СП@@ 923
астро@@ 923
бри 923
версията 923
владенията 923
изданието 923
мес 923
насърчава 923
равнини 923
социали@@ 923
хищ@@ 923
художе@@ 923
Андре@@ 922
Завръща 922
Струмица 922
бните 922
въздействието 922
кеч 922
кралската 922
лята 922
можем 922
подходяща 922
пробле@@ 922
проведена 922
разход@@ 922
сдружение 922
сят 922
Използва@@ 921
Обла@@ 921
Рекърдс 921
Северно@@ 921
астронавт 921
данов 921
експо@@ 921
москов@@ 921
неиз@@ 921
признати 921
природните 921
страху@@ 921
ГЕРБ 920
Излиза 920
Кава@@ 920
Коб@@ 920
Мале@@ 920
Нав@@ 920
Прия@@ 920
Таджикистан 920
въве@@ 920
дългата 920
легендар@@ 920
паро@@ 920
пр@@ 920
li@@ 919
per 919
Геро@@ 919
Договорът 919
Касти@@ 919
Кевин 919
Пот@@ 919
вост 919
гей@@ 919
дай@@ 919
извънбра@@ 919
издаване 919
кв 919
намесата 919
неправи@@ 919
отплава 919
химн 919
Java 918
ro@@ 918
Вюрцбург 918
Играл 918
анархи@@ 918
балет 918
верто@@ 918
вулкана 918
задълженията 918
иконостаса 918
католици 918
признават 918
реставри@@ 918
сингли 918
таун 918
тридесет 918
Арда 917
Понеже 917
Хат@@ 917
бля@@ 917
гнато 917
отстрани 917
подхранване 917
преход@@ 917
прехода 917
промишлени 917
сети 917
сходни 917
съмнение 917
формиране 917
Мантуа 916
Цо@@ 916
изчезна@@ 916
напускането 916
озвучават 916
отвле@@ 916
поща 916
принудена 916
собственото 916
уста@@ 916
Карлово 915
актове 915
гала 915
изкуствено 915
изработва 915
княгиня 915
мовете 915
нар. 915
нашите 915
необходимост 915
подложени 915
преде@@ 915
религии 915
решено 915
ринга 915
титу@@ 915
хибри@@ 915
03 914
1808 914
u@@ 914
Алпите 914
Горно@@ 914
Зигмунд 914
Свето@@ 914
абатство 914
бала@@ 914
дора 914
женят 914
компонент 914
организатор 914
охри@@ 914
парти@@ 914
процент 914
разпо@@ 914
сбо@@ 914
седи@@ 914
статута 914
теленовела 914
успе@@ 914
числе@@ 914
широката 914
36@@ 913
Бене@@ 913
Канзас 913
Куманово 913
Льо 913
Начин 913
Нос@@ 913
варианта 913
вълната 913
двигате@@ 913
делегат 913
инста@@ 913
клиенти 913
лита 913
проведено 913
рицари 913
ръководители 913
самолетите 913
цигулка 913
ag@@ 912
ha 912
le 912
Залцбург 912
Фалкенщайн 912
бук@@ 912
веще@@ 912
ефективност 912
жд@@ 912
контекст 912
мита 912
море@@ 912
нева 912
новени 912
подводници 912
претър@@ 912
хит@@ 912
Византи@@ 911
Неделя 911
Старо@@ 911
бук 911
наместник 911
обозна@@ 911
огни@@ 911
отло@@ 911
пътищата 911
услож@@ 911
шич 911
яс 911
ed@@ 910
Бло@@ 910
Бонд 910
Константинос 910
Факултета 910
енер@@ 910
имену@@ 910
кога 910
математик 910
мезо@@ 910
настъ@@ 910
обхва@@ 910
преврата 910
р.@@ 910
ръб 910
ръб@@ 910
световно@@ 910
служеб@@ 910
or 909
Археологи@@ 909
НА 909
Потър 909
Русев 909
адвокат@@ 909
зъби 909
космонав@@ 909
кции 909
оператив@@ 909
престава 909
първоначалния 909
сфери 909
таблица 909
услуга 909
характер@@ 909
1816 908
Диленбург 908
Лонг 908
Оди@@ 908
Сахара 908
Състав 908
екстра@@ 908
животът 908
обширна 908
рока 908
1799 907
Бод@@ 907
Нийл 907
Хасан 907
Чен@@ 907
бърн 907
волята 907
консулство 907
мине 907
ог@@ 907
ожесто@@ 907
потребителя 907
тибе@@ 907
хам@@ 907
чиновник 907
Билборд 906
Джор@@ 906
Екваториална 906
Калабрия 906
Рин@@ 906
вертика@@ 906
гун 906
защитни 906
изписана 906
ляните 906
натри@@ 906
околността 906
регули@@ 906
съответния 906
Чърчил 905
вз@@ 905
композитора 905
логически 905
никаква 905
понятия 905
реше@@ 905
соло 905
сутрин 905
Площ 904
Рем@@ 904
Трябва 904
алността 904
бет 904
йнс 904
мида 904
осъзнава 904
популярно 904
тив@@ 904
Вануату 903
Рико 903
Урсула 903
Франклин 903
гробницата 903
ембле@@ 903
масова 903
присъжда 903
приятелство 903
прозорци 903
събере 903
тяхно 903
ястия 903
1750 902
Соломонови 902
възпа@@ 902
гра 902
екзекутиран 902
официалните 902
прецен@@ 902
ровката 902
териториално 902
Априлското 901
Бурунди 901
Зиг@@ 901
Уайт 901
Хамилтън 901
апосто@@ 901
далечина 901
дерн 901
дик@@ 901
диска 901
изпълнен 901
император@@ 901
индианците 901
лост 901
номинация 901
нта 901
образователни 901
отвор 901
публици@@ 901
Гала@@ 900
Ква@@ 900
Кръстев 900
Лисабон 900
Стар 900
барабани 900
летът 900
лиза@@ 900
мп@@ 900
шият 900
1796 899
Лод@@ 899
Световно 899
авторски 899
видния 899
ере@@ 899
малната 899
мални 899
милиони 899
нисти 899
паз@@ 899
получили 899
светло@@ 899
стя@@ 899
текто@@ 899
Арн@@ 898
СС@@ 898
Скри@@ 898
Троян@@ 898
въобще 898
държав@@ 898
необ@@ 898
обичай@@ 898
обръщат 898
обстрел 898
подпома@@ 898
равнината 898
рски 898
съвета 898
1817 897
ing 897
Балкан@@ 897
Животът 897
Мадона 897
Новото 897
Осман 897
актьорите 897
вачи 897
географска 897
гъсто 897
използваните 897
концентрация 897
конче 897
напомня 897
ова 897
полкът 897
рибар@@ 897
сват@@ 897
станала 897
тини 897
тическото 897
фабриката 897
Послед@@ 896
Швабия 896
аранжи@@ 896
атели 896
док 896
замества 896
ктор@@ 896
обхват 896
ралд 896
симетри@@ 896
убиец 896
чифлик 896
щет 896
Аляска 895
Ой@@ 895
Сигизмунд 895
външ@@ 895
губерния 895
дина@@ 895
запас 895
зася@@ 895
мъж@@ 895
ориз 895
преселва 895
проуч@@ 895
скла@@ 895
социализма 895
сух 895
тивното 895
Ага@@ 894
Ази@@ 894
Мур 894
Чар@@ 894
алпийски 894
бица 894
бовете 894
министри 894
неизвестни 894
норми 894
проваля 894
снява 894
34@@ 893
der 893
di@@ 893
Андрю 893
Вселената 893
Корне@@ 893
Мавриций 893
Присъ@@ 893
добавени 893
дясна 893
напише 893
опожа@@ 893
отразяват 893
правоъгъл@@ 893
фолкло@@ 893
Мизия 892
Процесът 892
Световен 892
Фондация 892
героиня 892
конструкции 892
монтирани 892
подчинени 892
праща 892
синг@@ 892
210 891
Коледа 891
Лип@@ 891
Фак@@ 891
Хенеберг 891
добав@@ 891
конкретно 891
миграция 891
минг 891
полубрат 891
предпочитат 891
противопоставят 891
радиус 891
тените 891
шел 891
шина 891
Постоян@@ 890
Рома 890
едноимен@@ 890
кацане 890
матри@@ 890
оне 890
появи 890
приве@@ 890
сървър@@ 890
115 889
Надморската 889
Ръковод@@ 889
антарк@@ 889
вятъра 889
годишните 889
довеждат 889
елемента 889
инвестиции 889
недалеч 889
полукълбо 889
преслед@@ 889
регистри 889
решенията 889
светци 889
темати@@ 889
1.@@ 888
Адамс 888
Валденбург 888
Хабсбург 888
жар@@ 888
избро@@ 888
нарушение 888
нинген 888
останал 888
параклиса 888
предво@@ 888
прогно@@ 888
прототип 888
пътуват 888
1826 887
Бремен 887
Бурбон 887
Вестникът 887
Друго 887
Регенсбург 887
Сина@@ 887
Скоро@@ 887
замина@@ 887
затваря 887
зимните 887
изправя 887
населените 887
отри@@ 887
пациенти 887
помогнат 887
разлики 887
сестрите 887
съветското 887
формите 887
чит@@ 887
Следващият 886
Топ@@ 886
астронав@@ 886
вис@@ 886
вожд 886
Красимир 885
Нелсън 885
Подоб@@ 885
Ромео 885
говор@@ 885
гтън 885
демонстри@@ 885
мари 885
нестаби@@ 885
построяват 885
първоначалното 885
стоман@@ 885
тогавашната 885
цир@@ 885
четвърт 885
Аз@@ 884
Иисус 884
Картаген 884
Кел@@ 884
кир@@ 884
легат 884
лус 884
образувана 884
полюс 884
прилагане 884
устойчивост 884
царевица 884
чеви 884
Вследствие 883
Ники 883
Следващите 883
Хол 883
автомобилен 883
бара 883
буржо@@ 883
видеоклип 883
посоки 883
приз@@ 883
реклама 883
свин@@ 883
тръби 883
устата 883
фина 883
шва 883
1801 882
Ch@@ 882
et@@ 882
Габриел 882
Люби@@ 882
Марти@@ 882
Пауло 882
Президентът 882
Туркменистан 882
Цвет@@ 882
замръ@@ 882
лау 882
обогат@@ 882
отча@@ 882
реални 882
сблъсъци 882
совалката 882
товар 882
тува 882
фокусира 882
яма 882
Apple 881
es@@ 881
Бояджиев 881
Йоанис 881
Следва@@ 881
Стани@@ 881
бежански 881
библиотеки 881
венти@@ 881
графика 881
изуча@@ 881
кооперация 881
пид 881
пирами@@ 881
предлага@@ 881
прив@@ 881
редици 881
рински 881
розо@@ 881
сор 881
съдебни 881
университетски 881
фоне@@ 881
1807 880
Балкан 880
Дийн 880
Йов@@ 880
Малките 880
Райнхард 880
Филаделфия 880
Цялата 880
гън 880
емигранти 880
образно 880
рка 880
туристическа 880
po@@ 879
Блу@@ 879
Брен@@ 879
Нерон 879
велики 879
ловски 879
назначение 879
оз@@ 879
разраст@@ 879
разраства 879
родоп@@ 879
творци 879
тински 879
тънки 879
яла 879
Новите 878
Пие@@ 878
Противо@@ 878
бунта 878
кторът 878
лод@@ 878
мека 878
министерството 878
раният 878
светец 878
типичен 878
умерен 878
хипотеза 878
Еди 877
Продъл@@ 877
РМС 877
Сериалът 877
дек 877
индийски 877
ковия 877
оскъ@@ 877
творбата 877
убед@@ 877
Аку@@ 876
Сантяго 876
Шон 876
англ 876
временни 876
външно 876
енд 876
заключ@@ 876
затво@@ 876
изсел@@ 876
личането 876
мун@@ 876
представено 876
промо@@ 876
протести@@ 876
рах 876
фено@@ 876
Американски 875
Построен 875
вит 875
глата 875
ендо@@ 875
заселва 875
зис 875
комуникации 875
кона 875
обяснение 875
островът 875
офи@@ 875
пка 875
речник 875
цкия 875
Демократическата 874
Ези@@ 874
Иде@@ 874
Лотар 874
Пото@@ 874
вампи@@ 874
дица 874
дунав@@ 874
измен@@ 874
интеграция 874
полуфинал 874
поставяне 874
равно 874
сирий@@ 874
скандина@@ 874
чаща 874
Ере@@ 873
Кап@@ 873
анската 873
вдо@@ 873
въобра@@ 873
вярвания 873
езикова 873
ещите 873
звания 873
излизане 873
лим@@ 873
обществеността 873
постигнат 873
придава 873
рако@@ 873
скулптор 873
султана 873
трени@@ 873
фика@@ 873
хуба@@ 873
художниците 873
ченията 873
Аполон 872
Елзас 872
Чан@@ 872
кафява 872
лири 872
оръдието 872
патру@@ 872
пий 872
писателят 872
препода@@ 872
сани@@ 872
свидетел 872
сол@@ 872
състояща 872
същи 872
търговските 872
БВП 871
Верона 871
Пет 871
Стър@@ 871
Филипи@@ 871
архимандрит 871
единствените 871
кристали 871
летите 871
окончате@@ 871
положителни 871
проб@@ 871
слова@@ 871
телност 871
унгарската 871
aceae 870
Блек 870
Казимир 870
документален 870
жде@@ 870
меч 870
мостове 870
налягането 870
опашка 870
премест@@ 870
прилагането 870
рито@@ 870
характера 870
чища 870
260 869
EP 869
Памет 869
Плей@@ 869
Цветовете 869
бронзови 869
документални 869
климата 869
мането 869
обучават 869
плавате@@ 869
привличат 869
средновековен 869
Мун@@ 868
боле@@ 868
детската 868
кръгли 868
налия 868
оттегли 868
скулптури 868
успешния 868
хам 868
югославски 868
Балдуин 867
Бое@@ 867
Клубна 867
бактерии 867
земните 867
икономист 867
коефициент 867
комунистическия 867
обиколки 867
облаци 867
разделяне 867
съпът@@ 867
съчетание 867
550 866
Entertainment 866
Гур@@ 866
Ери@@ 866
Книга 866
Мери@@ 866
Мини@@ 866
австрийската 866
веков@@ 866
нео 866
посетители 866
силната 866
системати@@ 866
стопанска 866
типично 866
цените 866
1635 865
Аризона 865
Бонапарт 865
Министър 865
Панай@@ 865
Последното 865
Тома@@ 865
Я 865
автобу@@ 865
бом@@ 865
европейско 865
единични 865
жин@@ 865
какъвто 865
карат 865
лада 865
логично 865
миче@@ 865
резултата 865
рият 865
туберкулоза 865
яро@@ 865
Вертхайм 864
Едгар 864
Наред 864
Фьодор 864
Черноморец 864
дърве@@ 864
ителство 864
оттеглянето 864
преса 864
приказки 864
р. 864
театри 864
химията 864
шване 864
109 863
1648 863
650 863
Вир@@ 863
вярно 863
дес@@ 863
звуци 863
зиму@@ 863
кауза 863
кралска 863
осветена 863
партизанска 863
развит 863
сдру@@ 863
срещне 863
сценария 863
същин@@ 863
Ямайка 862
еже@@ 862
заклю@@ 862
наподобява 862
отбелязват 862
протокол 862
румънската 862
скат 862
транспортни 862
108 861
Британ@@ 861
Дебю@@ 861
Магнус 861
Ниш 861
Фолк@@ 861
Цон@@ 861
али 861
въздушно 861
еднакво 861
късен 861
литературно 861
модерна 861
опасни 861
опози@@ 861
особеност 861
пите@@ 861
превзет 861
предполагат 861
рамка 861
сражава 861
тания 861
установена 861
Бесарабия 860
Вя@@ 860
Дионисий 860
Научна 860
Щра@@ 860
анс 860
вателни 860
дното 860
записите 860
избра@@ 860
каквато 860
някоя 860
пване 860
том@@ 860
щания 860
1804 859
at@@ 859
Бутан 859
Еги@@ 859
Орга@@ 859
бразилски 859
докос@@ 859
лечението 859
продажбите 859
риско@@ 859
секунда 859
туристи@@ 859
учителя 859
цикъла 859
104 858
Преоблада@@ 858
Световна 858
Сон@@ 858
Срещат 858
идеология 858
испанските 858
италиан@@ 858
малните 858
подразделение 858
първонача@@ 858
релефа 858
сочи 858
ствал 858
ура@@ 858
one 857
Апостол 857
Гюр@@ 857
Младенов 857
Пробле@@ 857
временен 857
вро@@ 857
деб@@ 857
кинс 857
лила 857
лога 857
минима@@ 857
плюс 857
посолство 857
пътувания 857
35@@ 856
omys 856
Вестфалия 856
Дън@@ 856
Еври@@ 856
Едновременно 856
Оттук 856
Сена 856
Сибила 856
Староза@@ 856
влизане 856
доза 856
заса@@ 856
конгреса 856
планинско 856
последователност 856
пролом 856
споменават 856
106 855
el 855
Александер 855
МО@@ 855
баланс 855
две@@ 855
изгар@@ 855
логика 855
ними 855
отворени 855
партньори 855
Денис 854
Ролите 854
Столицата 854
въоръжен 854
камери 854
негати@@ 854
разделение 854
рес@@ 854
ственици 854
1794 853
Емили@@ 853
Стати@@ 853
бс 853
елита 853
живописта 853
кура@@ 853
кури@@ 853
мирно 853
порода 853
пресата 853
пролет@@ 853
редакти@@ 853
стъра 853
човекът 853
шосе 853
270 852
Съвет@@ 852
агенти 852
административ@@ 852
банов 852
бара@@ 852
запаси 852
заслуга 852
индианци 852
каквото 852
метеоро@@ 852
наимену@@ 852
нуждае 852
нян 852
прибав@@ 852
селска 852
собственици 852
схва@@ 852
умерено 852
Дакота 851
Замъкът 851
Основана 851
Тал@@ 851
анска 851
вътрешния 851
дефинира 851
змии 851
изоби@@ 851
или@@ 851
кони 851
процесът 851
рар@@ 851
спътници 851
физ@@ 851
Брус 850
Завър@@ 850
МиГ 850
Наталия 850
Плани@@ 850
Тобаго 850
вяването 850
идеологи@@ 850
инстали@@ 850
клетката 850
командира 850
комплекси 850
носовата 850
обитава 850
остро 850
осъжда 850
пряк 850
ралният 850
тяват 850
хол@@ 850
Еванге@@ 849
Исля@@ 849
Преминава 849
Славейков 849
Учред@@ 849
Яр@@ 849
взрив 849
запи@@ 849
кация 849
ком 849
надписа 849
отбелязани 849
писът 849
практикува 849
призо@@ 849
произлизат 849
променя@@ 849
пуснати 849
рион 849
сезони 849
стандарти@@ 849
съкрови@@ 849
фабрики 849
фун@@ 849
язови@@ 849
Американска 848
Бед@@ 848
Вера 848
Гебхард 848
Фюрстенберг 848
ализъм 848
дати 848
костите 848
разстре@@ 848
реклами 848
сключен 848
съгласието 848
съл@@ 848
удостоена 848
функционират 848
Алберто 847
Покри@@ 847
Рот@@ 847
вати 847
денберг 847
достигайки 847
курса 847
неизвестен 847
ничния 847
окупацията 847
работилница 847
религиозно 847
сня@@ 847
ствана 847
стие 847
хията 847
чията 847
Общият 846
Ся@@ 846
визи@@ 846
гския 846
интереса 846
квартали 846
малцинство 846
обединените 846
периодично 846
пили 846
провер@@ 846
пръст 846
съпротивление 846
тинската 846
хон@@ 846
Анди 845
Възнесение 845
Лев 845
Него@@ 845
берг@@ 845
действащ 845
намере@@ 845
нова@@ 845
олтар@@ 845
ото@@ 845
пада@@ 845
int 844
Греъм 844
Параскева 844
Севлиево 844
Сне@@ 844
аристокрация 844
арх 844
бързото 844
внуш@@ 844
гано 844
дизе@@ 844
излож@@ 844
лизат 844
останат 844
пето 844
стна 844
султан@@ 844
състави 844
тум 844
цова 844
шният 844
1791 843
80@@ 843
Истин@@ 843
жкото 843
иначе 843
канадски 843
началника 843
необходима 843
сената 843
тизма 843
ултра@@ 843
фос@@ 843
фро@@ 843
40@@ 842
Виз@@ 842
Рузвелт 842
актьор@@ 842
битките 842
възприемат 842
зограф 842
квалифици@@ 842
подроб@@ 842
стеро@@ 842
съветници 842
съхраня@@ 842
тежката 842
успял 842
Виа 841
Охри@@ 841
абсолютно 841
висш 841
долния 841
загра@@ 841
класическия 841
рун@@ 841
учебно 841
Милър 840
Остин 840
Роберто 840
Съста@@ 840
Тюбинген 840
гване 840
зелено 840
казар@@ 840
класации 840
куку@@ 840
популярността 840
префект 840
работите 840
регент@@ 840
сбли@@ 840
Дин@@ 839
Император 839
Мила@@ 839
Перу@@ 839
Строителството 839
въведени 839
есета 839
изказва 839
изящни 839
младо@@ 839
настояване 839
охлаждане 839
пътешественик 839
сора 839
тации 839
Бобо@@ 838
Лазаров 838
бойната 838
взаимоотношения 838
вокалист 838
домове 838
завърш@@ 838
кау@@ 838
контекста 838
ксе@@ 838
мара 838
мощен 838
мрежо@@ 838
орга@@ 838
представа 838
район@@ 838
селищата 838
спря@@ 838
средновековната 838
успоко@@ 838
шеф 838
шоф@@ 838
Андреас 837
Бълга@@ 837
Венето 837
Икономи@@ 837
Мона@@ 837
бок@@ 837
бронепалу@@ 837
бус 837
декларация 837
заглавия 837
затруднения 837
кинг 837
космическия 837
масива 837
нският 837
публикуването 837
разу@@ 837
103 836
111 836
Арханге@@ 836
Куку@@ 836
Паоло 836
ХV@@ 836
влажни 836
изписва 836
профи@@ 836
разбере 836
рап 836
седми 836
споразумението 836
харду@@ 836
Le 835
Грант 835
Ната@@ 835
Нормандия 835
Пил@@ 835
Популяр@@ 835
Първо@@ 835
ФА 835
Ш 835
арабите 835
декара 835
етапи 835
кви@@ 835
курорт 835
лял 835
натура@@ 835
неуспешни 835
оке@@ 835
пей@@ 835
публицист 835
смята@@ 835
спиране 835
стъпва 835
танк 835
твърда 835
управлявал 835
Алфа 834
Валенсия 834
Матей 834
Мир 834
Стефа@@ 834
Тол@@ 834
богинята 834
брата 834
дебър@@ 834
есе@@ 834
инг 834
концентра@@ 834
наследствен 834
отпад@@ 834
престъпление 834
състоящ 834
танц 834
1772 833
Голямо 833
Преми@@ 833
Разде@@ 833
Сливен@@ 833
Шенк 833
вет 833
гласуват 833
звуко@@ 833
макро@@ 833
особена 833
отв@@ 833
поражения 833
чаров 833
ченото 833
º 832
Амадей 832
Ахе@@ 832
Магдебург 832
Модер@@ 832
Състезава 832
Тибет 832
Хаити 832
азбу@@ 832
артисти 832
бените 832
бъри 832
гарата 832
географ@@ 832
експер@@ 832
жество 832
имущество 832
крилата 832
кум 832
маркси@@ 832
мрамор 832
нари@@ 832
некро@@ 832
нна 832
последици 832
премахване 832
продуцира 832
пропаганд@@ 832
ресторант 832
чере@@ 832
Ник 831
Рафа@@ 831
батарея 831
бюдже@@ 831
горещо 831
дълг 831
изоставя 831
лову@@ 831
оксид 831
представителство 831
титуляр@@ 831
тъмни 831
уз 831
шампион@@ 831
Вак@@ 830
Добри@@ 830
Зу@@ 830
Пиро@@ 830
болен 830
бон 830
висшите 830
воюва 830
възпрепят@@ 830
дзи@@ 830
императори 830
клетките 830
оригинални 830
слаб 830
слави@@ 830
типи@@ 830
треска 830
турни 830
1824 829
33@@ 829
Великите 829
Вран@@ 829
Дона 829
Изо@@ 829
Кеймбридж 829
вед 829
наречените 829
пос@@ 829
прякора 829
разузнавате@@ 829
сените 829
синхро@@ 829
смисле@@ 829
яно 829
330 828
Академик 828
Виен@@ 828
Димов 828
Университет 828
бей@@ 828
издир@@ 828
изкуствени 828
огром@@ 828
отбелязано 828
поляна 828
съди@@ 828
усил@@ 828
1680 827
Висок 827
Предви@@ 827
Преди@@ 827
Цу@@ 827
балкански 827
дско 827
мишки 827
образувани 827
пано@@ 827
раса 827
съдба 827
съдържащ 827
WWF 826
Име@@ 826
Линкълн 826
Рок@@ 826
Хъл@@ 826
ате 826
афера 826
добрият 826
извършена 826
класират 826
консер@@ 826
разказва@@ 826
решаване 826
хова 826
1576 825
1798 825
J 825
Бах 825
Дро@@ 825
Мат 825
инфра@@ 825
йерар@@ 825
комунисти 825
лати 825
мярка 825
справи 825
сътрудничеството 825
чества 825
широколистни 825
Барбароса 824
Йоаким 824
Микронезия 824
СА 824
Франсиско 824
Хум@@ 824
аспект 824
есто@@ 824
инструкции 824
кози 824
координати 824
ктът 824
масо@@ 824
мно@@ 824
одобрение 824
паралелно 824
плати 824
ракет@@ 824
символизира 824
съставяща 824
териториални 824
традициите 824
фил 824
Уисконсин 823
блъ@@ 823
дъна 823
зая@@ 823
камбанария 823
корпу@@ 823
кръстоносците 823
лиза 823
маха@@ 823
мура 823
нане@@ 823
нери 823
ниши 823
отрежда 823
почит 823
професионалния 823
работническа 823
тари 823
тено 823
ьол@@ 823
1634 822
1660 822
De 822
Берое 822
Зат@@ 822
Прова@@ 822
ант 822
аудио 822
вечер@@ 822
взел 822
гна 822
декоративни 822
зания 822
изградено 822
изкопаеми 822
изразено 822
конкурси 822
лук 822
мбах 822
наха 822
отказ 822
попадение 822
североизточна 822
синтез 822
частно 822
шевски 822
.-@@ 821
135 821
1827 821
Ави@@ 821
Аугсбург 821
Баварски 821
Тин@@ 821
буд@@ 821
взета 821
взи@@ 821
денбург 821
журито 821
карва 821
литературната 821
хип 821
2.@@ 820
Професиона@@ 820
Стран@@ 820
Фай@@ 820
Шампион 820
гробището 820
експерт 820
кале 820
княже@@ 820
консултант 820
личи 820
пропа@@ 820
разделено 820
региона@@ 820
селските 820
сняват 820
станови@@ 820
уточ@@ 820
цина 820
1823 819
XXI 819
Валери 819
Гари 819
Рехберг 819
Сула 819
Федерация 819
Щер@@ 819
внася 819
дневно 819
допълнителен 819
конфиску@@ 819
лв 819
лок 819
модернизи@@ 819
монасите 819
мските 819
мското 819
проф@@ 819
процесите 819
разработват 819
строй@@ 819
същност 819
твърдения 819
толо@@ 819
хожда@@ 819
целя@@ 819
112 818
Y@@ 818
Бог@@ 818
Жанейро 818
Нацистка 818
Работ@@ 818
Състеза@@ 818
близката 818
бърт 818
връчва 818
гии 818
зага@@ 818
изтребител 818
лекува 818
лера 818
насти@@ 818
съюзи 818
типични 818
le@@ 817
si 817
Армията 817
Мех@@ 817
Мой@@ 817
Нике@@ 817
Сек@@ 817
Хомбург 817
атлан@@ 817
борите 817
въвеждане 817
въртене 817
другото 817
зах@@ 817
земноводно 817
истинска 817
контин@@ 817
настанени 817
никакъв 817
процента 817
ръкопис 817
слънчеви 817
честот@@ 817
1640 816
Голямото 816
Хабсбургите 816
авари@@ 816
архипелаг 816
дане 816
диапазон 816
лидерите 816
мъртвите 816
нишката 816
някъде 816
писец 816
познания 816
президентските 816
st@@ 815
Шам@@ 815
архитектурен 815
ирландски 815
кмета 815
начал@@ 815
приходите 815
сгло@@ 815
1688 814
w@@ 814
Дука 814
Казан@@ 814
Кентъки 814
Осло 814
Отгле@@ 814
Чавдар 814
Юр@@ 814
ваното 814
вация 814
водната 814
дет 814
ист 814
лони 814
направ@@ 814
нински 814
пленени 814
пожар@@ 814
последна 814
предградие 814
простират 814
растат 814
сино@@ 814
строен 814
съществ@@ 814
уважение 814
хоп 814
чис@@ 814
380 813
Cor@@ 813
No 813
Земе@@ 813
Нобе@@ 813
Проте@@ 813
СВ 813
Фамилията 813
Хедвиг 813
билото 813
взет 813
дари 813
дискове 813
идите 813
льо@@ 813
мотив 813
оте@@ 813
префектура 813
принуждават 813
професионалната 813
селскостопан@@ 813
споде@@ 813
твърд 813
тост 813
яните 813
1570 812
203 812
37@@ 812
Албан@@ 812
Гръ@@ 812
Джей@@ 812
Кайро 812
Касте@@ 812
Пап@@ 812
Уста@@ 812
активните 812
докторан@@ 812
петък 812
пилотите 812
първоначалната 812
софтуер@@ 812
спомените 812
стол 812
финалната 812
японска 812
Бенковски 811
Граничи 811
Двой@@ 811
Играта 811
Пий 811
Прилеп@@ 811
Уолтър 811
Франс 811
бързо@@ 811
въздуш@@ 811
гай@@ 811
довело 811
ежеднев@@ 811
запаса 811
зовават 811
институ@@ 811
кратно 811
къщите 811
методите 811
мобилни 811
наема 811
пале@@ 811
погрешно 811
прилежа@@ 811
пълната 811
сваля 811
слебен 811
строенето 811
175 810
АК 810
Крес@@ 810
Фокс 810
Швед@@ 810
вакан@@ 810
историческото 810
крайното 810
кралския 810
насочване 810
отсъ@@ 810
подло@@ 810
получаването 810
традиционен 810
хомо@@ 810
черта 810
1780 809
Cal@@ 809
Баварска 809
Джер@@ 809
Инте@@ 809
Състезате@@ 809
аро 809
буквата 809
герб 809
доброволно 809
електроника 809
закреп@@ 809
картофи 809
ленд 809
ливите 809
мяват 809
пътека 809
сгъ@@ 809
скон@@ 809
107 808
3D 808
Айлънд 808
Аспару@@ 808
Жен@@ 808
Национално 808
грамати@@ 808
достъп@@ 808
монго@@ 808
него@@ 808
оставката 808
ринг@@ 808
химиче@@ 808
шлем 808
8000 807
Доминикан@@ 807
Забележителности 807
Мет@@ 807
Оси@@ 807
Отначало 807
Патри@@ 807
Самю@@ 807
Слънчевата 807
Хек@@ 807
бъдещите 807
верни 807
зови 807
инженери 807
мислене 807
могъл 807
присъдата 807
прозвището 807
разтвор 807
1530 806
Ботсвана 806
Изгра@@ 806
Маг@@ 806
Майер 806
Мериленд 806
Родът 806
активната 806
излага 806
капе@@ 806
обозначава 806
отлично 806
оцелелите 806
планети 806
предприемач 806
ренията 806
спир@@ 806
фел 806
Месопотамия 805
Райън 805
византийска 805
внимателно 805
добровол@@ 805
еврейско 805
здрави 805
конкретни 805
намерение 805
публикувано 805
реконструкция 805
скок 805
спомагате@@ 805
сюже@@ 805
треньора 805
уи 805
хинген 805
църквите 805
Долината 804
Ками@@ 804
Литератур@@ 804
Оливър 804
Хидро@@ 804
жкия 804
жник 804
зимни 804
лава 804
облик 804
освобождаване 804
отвън 804
оформя@@ 804
тей@@ 804
ърк@@ 804
Company 803
per@@ 803
Лас 803
Методи 803
Платон 803
Спарта 803
Уолт 803
бро 803
груповата 803
истинската 803
криминален 803
непре@@ 803
никови 803
оре 803
осъществи 803
отстъпват 803
предадени 803
продължат 803
прослед@@ 803
цигу@@ 803
ale 802
Каравелов 802
Кума@@ 802
Хелена 802
енец 802
започнала 802
изход 802
подарява 802
свободното 802
сесия 802
1606 801
35,@@ 801
бизнесмен 801
бол 801
намирал 801
настъпват 801
насянето 801
пера 801
потъва 801
премести 801
роу 801
физическо 801
Дос@@ 800
алност 800
ангел 800
звукозапис@@ 800
йони@@ 800
осветление 800
прес 800
съперник 800
съществуващи 800
училищата 800
цит 800
ьов 800
Законът 799
Музея 799
Онтарио 799
Харис 799
гъвка@@ 799
дизайна 799
елит 799
корейски 799
леля 799
неочаквано 799
обърк@@ 799
писи 799
поддържаща 799
пробив 799
прозорец 799
разка@@ 799
своеобраз@@ 799
срещани 799
частта 799
odon 798
Албер@@ 798
Ани 798
Екипът 798
Охридска 798
влияния 798
йв 798
колега 798
лският 798
нашата 798
някогаш@@ 798
отре@@ 798
стически 798
съставляват 798
хим@@ 798
1763 797
Изследовате@@ 797
Клаус 797
Комунистическата 797
Минесота 797
Скала 797
Художествената 797
анекси@@ 797
бир@@ 797
вокал 797
грозде 797
елени 797
енс 797
инер@@ 797
йон 797
лип@@ 797
местообитания 797
навън 797
пейзажи 797
произти@@ 797
развеждат 797
славянските 797
тарен 797
успоредно 797
шестте 797
Кори@@ 796
Хари@@ 796
Чал@@ 796
Янтра 796
арк@@ 796
вероятност 796
завръщане 796
изключения 796
к. 796
котки 796
местоположение 796
надви@@ 796
напа@@ 796
фази 796
і@@ 796
1676 795
1802 795
Места 795
интересни 795
информа@@ 795
мило@@ 795
нително 795
пътнически 795
сението 795
сите@@ 795
строителна 795
съдеб@@ 795
хек@@ 795
im@@ 794
Младеж@@ 794
енорийски 794
занаятчи@@ 794
ивици 794
каме@@ 794
кръстонос@@ 794
латин@@ 794
подходящо 794
принци@@ 794
сля@@ 794
стоун 794
учебна 794
12@@ 793
Култур@@ 793
РО 793
Рафаел 793
англо 793
дого@@ 793
железни 793
интерпретация 793
надежда 793
надесетте 793
нести 793
обем@@ 793
отмъ@@ 793
пора@@ 793
сюжет 793
трайно 793
ува@@ 793
1809 792
Абу 792
Пелаго@@ 792
Стоун 792
бали@@ 792
въздушен 792
говорите 792
гъл@@ 792
дъга 792
избиран 792
каменен 792
категорично 792
комитети 792
нула 792
ограни@@ 792
фасадата 792
чело 792
Лондон@@ 791
СДС 791
Успехи 791
Феде@@ 791
Франко 791
виз@@ 791
довата 791
дови@@ 791
евакуи@@ 791
лщайн 791
ню@@ 791
пела@@ 791
подложен 791
съгласу@@ 791
сян 791
ула@@ 791
уравнения 791
БНР 790
Кристи@@ 790
ОС 790
Ог@@ 790
адютант 790
варовици 790
възпитание 790
дива 790
жал@@ 790
кината 790
клетва 790
наря@@ 790
обичайно 790
отстоя@@ 790
пно 790
пов@@ 790
положен 790
сблъсква 790
стик 790
украсени 790
яващ 790
Каспийско 789
Младотурската 789
Павия 789
двойката 789
жълт 789
ира 789
конфлик@@ 789
налице 789
обши@@ 789
придобиват 789
разтвори@@ 789
редовна 789
спад 789
сура 789
съседното 789
учебници 789
хълми@@ 789
oides 788
Мемо@@ 788
Средиземно@@ 788
бора 788
бягство 788
измът 788
младежкия 788
нахлуват 788
нацистите 788
поминък 788
реч@@ 788
северен 788
ферата 788
филмовата 788
черуп@@ 788
114 787
24@@ 787
Географско 787
Джан@@ 787
Знач@@ 787
Кели 787
Теат@@ 787
Тир@@ 787
Шипка 787
ализация 787
влю@@ 787
декан 787
законо@@ 787
записана 787
индивидуални 787
интензивно 787
качва 787
клан@@ 787
наново 787
остатъци 787
отправят 787
пясък 787
фат 787
хеликоп@@ 787
22@@ 786
Кому@@ 786
Кралят 786
Малката 786
Чудо@@ 786
бина 786
дворцов 786
евре@@ 786
нели 786
продажбата 786
реца 786
сняг 786
Аполо@@ 785
Марта 785
Орфей 785
Примера 785
авторите 785
акти@@ 785
вливаща 785
евата 785
жълти 785
лков 785
ничката 785
няк 785
обнов@@ 785
развито 785
117 784
Балкански 784
Кулата 784
Рок 784
СА@@ 784
Централните 784
Шлай@@ 784
апсида 784
археология 784
видя@@ 784
знаят 784
отсъствие 784
пана 784
патриарше@@ 784
провал 784
редакция 784
социалистически 784
съотбор@@ 784
учредена 784
1650 783
Драм@@ 783
Карпат@@ 783
Лихтенберг 783
Мавритания 783
Нейните 783
Украин@@ 783
вземането 783
духовно 783
качествени 783
месечна 783
пруски 783
реконструи@@ 783
санджак 783
сим@@ 783
спокой@@ 783
уми@@ 783
яваща 783
1623 782
водород 782
грам 782
гран@@ 782
деспо@@ 782
здравеопазването 782
истин@@ 782
кисе@@ 782
ковица 782
кодекс 782
кози@@ 782
лъ 782
надпреварата 782
насил@@ 782
покриват 782
резолюция 782
сара@@ 782
сиво 782
снали 782
традиционна 782
характеризират 782
Дале@@ 781
Доналд 781
Изграден 781
Публикува 781
Развитие 781
Хайделберг 781
атът 781
експерти 781
записано 781
златна 781
кърва@@ 781
нуждата 781
пените 781
смъртни 781
телни 781
федерален 781
Армстронг 780
Бойко 780
Волф 780
Драга@@ 780
Държавно 780
Кастилия 780
Ние 780
Професионална 780
Тунджа 780
включи 780
гел@@ 780
ефек@@ 780
зирането 780
инцидента 780
ителност 780
йезу@@ 780
крайни 780
модели@@ 780
мъжа 780
нити 780
опас@@ 780
премиер@@ 780
прикритие 780
ращо 780
революционната 780
служителите 780
Десау 779
Джери 779
Неврокоп 779
Повече 779
Поле@@ 779
аналоги@@ 779
артилерийска 779
вес 779
вокали 779
вор 779
готовност 779
имигранти 779
мей 779
нната 779
обема 779
обособени 779
отказа 779
произношение 779
сбърг 779
съсе@@ 779
1618 778
Авре@@ 778
брат@@ 778
износ 778
изтребители 778
казано 778
породата 778
предпаз@@ 778
привържениците 778
социалистиче@@ 778
съдилища 778
уеб@@ 778
хървати 778
Война 777
Втория 777
Обществени 777
Парламентар@@ 777
Приз@@ 777
вдъх@@ 777
извършен 777
инструктор 777
македо@@ 777
манипу@@ 777
мероприятия 777
модификации 777
плата 777
силното 777
сне 777
традиционния 777
Долен 776
Еми 776
Царе@@ 776
бунтове 776
вдига 776
дефи@@ 776
доброво@@ 776
еш 776
миграцията 776
наи@@ 776
погле@@ 776
свързващ 776
снимка 776
теч@@ 776
яр 776
.com 775
Сво@@ 775
Тим 775
Трансилвания 775
Фьо@@ 775
бреговата 775
вдясно 775
водът 775
генни 775
завет 775
обществе@@ 775
остави 775
оцелява 775
слиза 775
спора 775
стира 775
тениси@@ 775
тепе 775
технологичен 775
християнските 775
щу@@ 775
Студената 774
Съветската 774
ХІХ 774
Цин@@ 774
анто@@ 774
бната 774
градското 774
джо@@ 774
коте@@ 774
оформят 774
риф 774
светилището 774
сигур@@ 774
сигурно 774
снего@@ 774
тък 774
унищожаване 774
1740 773
ei 773
Гьор@@ 773
КА 773
Маями 773
Плевен@@ 773
Сараево 773
бедни 773
включване 773
дъждове 773
ефективността 773
изображението 773
кане 773
лицен@@ 773
ложки 773
недоволство 773
пуска@@ 773
разбой@@ 773
рино 773
ставайки 773
ству@@ 773
тивата 773
устро@@ 773
→ 773
School 772
pr@@ 772
Диана 772
Ита@@ 772
Кънектикът 772
административния 772
дейно 772
еволюцията 772
мага@@ 772
пера@@ 772
сякаш 772
топлин@@ 772
трав@@ 772
уникален 772
хумани@@ 772
Калоян 771
Каси@@ 771
Категория 771
Солу@@ 771
Червения 771
атите 771
време@@ 771
гъста 771
заем 771
затвър@@ 771
отнася@@ 771
пави@@ 771
помощ@@ 771
поражда 771
усло@@ 771
хирурги@@ 771
j 770
Албу@@ 770
Брез@@ 770
Герман 770
Кувейт 770
Партия 770
богиня 770
важ@@ 770
дойде 770
дървото 770
иглолистни 770
изгаря 770
кладенец 770
нард 770
областния 770
преви@@ 770
противоре@@ 770
пруската 770
рийска 770
шния 770
югозападна 770
1787 769
Гарсия 769
Йена 769
Квебек 769
Международна 769
Мястото 769
Срав@@ 769
Студио 769
Хим@@ 769
демократична 769
елимина@@ 769
изолация 769
капитал 769
комунистическите 769
корен 769
матика 769
номе@@ 769
репреси@@ 769
телата 769
търпи 769
128 768
1770 768
38@@ 768
Айзен@@ 768
Брак 768
Княже@@ 768
Майсен 768
Милев 768
Ора@@ 768
Хънт 768
бег 768
венец 768
електронен 768
зли 768
зърнени 768
мислят 768
молеку@@ 768
пехотни 768
плебе@@ 768
променено 768
таланти 768
точката 768
турнета 768
фактът 768
хуманитар@@ 768
царе 768
Борислав 767
Калифорнийския 767
Крепостта 767
Осе@@ 767
Професор 767
Стри@@ 767
Цветан 767
англо@@ 767
върховен 767
десети 767
допринасят 767
зена 767
лампи 767
лствата 767
мъртъв 767
навлизането 767
нинът 767
ничното 767
номинирана 767
отдих 767
писането 767
предишната 767
свалянето 767
северозападна 767
спечел@@ 767
теленовелата 767
WTA 766
Апе@@ 766
Титлата 766
бери 766
дение 766
етажна 766
зам@@ 766
избягат 766
иконостас 766
невероя@@ 766
промен@@ 766
риз@@ 766
ръководителите 766
самоубийство 766
свирят 766
съавторство 766
харти@@ 766
чита 766
Time 765
Бертхолд 765
Всяко 765
Изди@@ 765
Простира 765
Разстоянието 765
Тара@@ 765
бря@@ 765
въглероден 765
делтата 765
деспот 765
медия 765
мора 765
необича@@ 765
притежание 765
публику@@ 765
рези@@ 765
синод 765
социалистическия 765
съсредото@@ 765
фата 765
щна 765
Миха@@ 764
Мок@@ 764
Обре@@ 764
Порт@@ 764
амино@@ 764
боро@@ 764
гис 764
жило 764
ленти 764
мръ@@ 764
насочен 764
настав@@ 764
обувки 764
омъжи 764
политическото 764
семействата 764
сфери@@ 764
терапев@@ 764
ru@@ 763
Драма 763
Кий@@ 763
Конструкция 763
Маршал 763
графове 763
гробища 763
дългите 763
лежа@@ 763
нера@@ 763
правомощия 763
уи@@ 763
университетите 763
фар 763
цик@@ 763
6,@@ 762
Атлетико 762
Виде@@ 762
Гамбия 762
Глайхен 762
Международни 762
Смя@@ 762
алът 762
веното 762
законен 762
изкачване 762
изселват 762
персонаж 762
провод 762
проектира 762
разрешава 762
числото 762
Mar@@ 761
v 761
Георги@@ 761
Картър 761
Леонид 761
Петри@@ 761
Хана 761
влияе 761
екшън 761
изгле@@ 761
консумация 761
неблагоприя@@ 761
отговори 761
отстра@@ 761
пват 761
подразде@@ 761
показва@@ 761
поне@@ 761
рекорда 761
татар@@ 761
узур@@ 761
фрак@@ 761
чове 761
Галеацо 760
Дан 760
Иво 760
Ивреа 760
Лаза@@ 760
Средновековие 760
Срещу 760
Уче@@ 760
аргу@@ 760
графския 760
евентуално 760
записа 760
зрителите 760
коефици@@ 760
конференции 760
организиране 760
организъм 760
османско 760
разда@@ 760
ранглиста 760
туризма 760
1610 759
Зайн 759
Кариб@@ 759
белези 759
възникването 759
гледа@@ 759
дясно 759
жди 759
имен@@ 759
ключови 759
министрите 759
мут 759
нахлува 759
поред@@ 759
пренесени 759
смесен 759
спечелени 759
сраженията 759
стотата 759
теку@@ 759
технологиите 759
no@@ 758
Клеве 758
Костурско 758
Луиджи 758
Самата 758
Ту 758
барон 758
бойно 758
констан@@ 758
ловите 758
обратна 758
природо@@ 758
1625 757
OS 757
Българският 757
Види@@ 757
Прак@@ 757
Свободна 757
Сливница 757
бащина 757
безплатно 757
власи 757
дневна 757
дъждов@@ 757
емостта 757
наход@@ 757
осъществяване 757
правителствена 757
прекръстено 757
придвор@@ 757
реагира 757
референдум 757
романи@@ 757
сорт 757
татари 757
тух@@ 757
филд 757
финансира 757
bi@@ 756
Андреев 756
Горен 756
Росица 756
Сент 756
видите 756
генералния 756
загубва 756
мацията 756
норма@@ 756
поддръжници 756
пострадва 756
самоуправление 756
1632 755
1774 755
ig@@ 755
Джибути 755
Димо 755
Единственият 755
Карл@@ 755
Квин@@ 755
Киров 755
Резултати 755
Техните 755
Фабри@@ 755
враже@@ 755
дейл 755
лките 755
машин@@ 755
мето 755
напо@@ 755
околийски 755
орка 755
червените 755
щани 755
1768 754
Базел 754
Бела@@ 754
Великото 754
Ети@@ 754
Хава@@ 754
бад 754
банда 754
бови 754
достъпен 754
завеждащ 754
изповя@@ 754
индуст@@ 754
помаци 754
ритуали 754
символизи@@ 754
стаята 754
тенисистка 754
чиците 754
щал 754
Данните 753
Изслед@@ 753
Проуч@@ 753
Цай@@ 753
боля@@ 753
воли 753
еваку@@ 753
зим@@ 753
издръж@@ 753
информационни 753
истина 753
капа@@ 753
нберг 753
популация 753
соли 753
тръба 753
цветен 753
ula 752
Апо@@ 752
Кастро 752
Солунския 752
Съединението 752
Фей@@ 752
арка 752
зелена 752
ителството 752
кръстена 752
нари 752
нища 752
освободителна 752
печатница 752
психоанали@@ 752
танцу@@ 752
фотография 752
Дани 751
Избра@@ 751
Интере@@ 751
Крал@@ 751
Награда 751
Олимпийските 751
Расте@@ 751
Стенли 751
Шиш@@ 751
Шишман 751
анализа 751
бис 751
включването 751
въпро@@ 751
гил@@ 751
драматур@@ 751
духовен 751
ефективни 751
зайки 751
изворите 751
карбо@@ 751
каро@@ 751
коритото 751
критието 751
племенница 751
подводни 751
потока 751
правна 751
рел@@ 751
рили 751
факултета 751
хара 751
Дире@@ 750
Залата 750
Касанд@@ 750
Полинезия 750
Стамболийски 750
Стандар@@ 750
Сън@@ 750
Ч 750
атия 750
изпък@@ 750
изслед@@ 750
изследователска 750
контузия 750
латори 750
мид 750
навътре 750
онна 750
ориента@@ 750
оста 750
пал 750
стат@@ 750
темпера@@ 750
триъгълник 750
яние 750
Порто 749
СБ@@ 749
Тетово 749
артистите 749
говора 749
композира 749
крайния 749
лищен 749
мазнини 749
миров 749
наподобя@@ 749
нена@@ 749
повете 749
подкрепления 749
подобри 749
премахва 749
процедура 749
сения 749
смес@@ 749
средновековни 749
физиологи@@ 749
юридически 749
явно 749
7000 748
Кейп 748
Крива 748
Купър 748
Петрова 748
Стойчев 748
Хюстън 748
годишното 748
дера 748
дефиниция 748
дългосро@@ 748
каде@@ 748
носещ 748
образуван 748
пиг@@ 748
погребението 748
пряка 748
рито 748
Авъл 747
Батенберг 747
Използването 747
Калу@@ 747
Корабът 747
ваха 747
гарни@@ 747
довите 747
заплашва 747
кризата 747
културните 747
летието 747
ловни 747
обектите 747
плод 747
после@@ 747
построе@@ 747
привлекате@@ 747
разработки 747
слово 747
стор@@ 747
умре 747
1560 746
Братята 746
Еф@@ 746
Издава 746
Камен 746
Кейт 746
Ланча 746
СИ@@ 746
Хън@@ 746
Шаумбург 746
борът 746
г.@@ 746
говете 746
започвайки 746
каква 746
колело 746
кън 746
нужно 746
нци 746
памук 746
писани 746
реалност 746
сатири@@ 746
7,@@ 745
Васили@@ 745
Голд@@ 745
Каринтия 745
Панчо 745
РИ@@ 745
СТ@@ 745
Сръбската 745
Христово 745
битови 745
вице 745
даването 745
ждащ 745
жива 745
завземат 745
завое@@ 745
заседа@@ 745
мине@@ 745
нт 745
отпадъци 745
отслаб@@ 745
пише@@ 745
сиви 745
телите 745
тъмно 745
урежда 745
Екзархията 744
Пере@@ 744
Разбиване 744
Свети@@ 744
Теодо@@ 744
археоло@@ 744
ация 744
вей@@ 744
встъп@@ 744
енен 744
мъдро@@ 744
отстранява 744
педагоги@@ 744
тал@@ 744
управляващ 744
1776 743
Архе@@ 743
Вита@@ 743
Жечпосполита 743
Запад@@ 743
Лове@@ 743
вкл. 743
забо@@ 743
значи@@ 743
изява 743
марк 743
натъ@@ 743
пода 743
последвалите 743
природ@@ 743
психологията 743
с.ш. 743
секции 743
сортове 743
сткото 743
транспортен 743
филмо@@ 743
шли 743
южни 743
Антония 742
Главния 742
Директор 742
Зан@@ 742
Юний 742
винов@@ 742
възобнов@@ 742
екс@@ 742
кардина@@ 742
лесо@@ 742
нанасят 742
партньор@@ 742
пие 742
плащат 742
покровител 742
предизвикате@@ 742
разпоред@@ 742
рован 742
скалисти 742
слов@@ 742
стоява 742
точна 742
Алвенслебен 741
Воден@@ 741
Грей@@ 741
Кралски 741
Око@@ 741
Публи@@ 741
Уикипедия 741
Управителния 741
впис@@ 741
възможен 741
въстаниците 741
дара 741
денонощия 741
денти 741
дихате@@ 741
епидемия 741
зрение 741
зър 741
нахлу@@ 741
отражение 741
отрицате@@ 741
притока 741
специфичен 741
съчетава 741
тийнейдж@@ 741
ъгъла 741
1775 740
1811 740
Администра@@ 740
Филипо@@ 740
Художе@@ 740
Чет@@ 740
геометрия 740
далеко@@ 740
десети@@ 740
йз 740
критики 740
налагат 740
описана 740
основани 740
отчита 740
плаз@@ 740
планинския 740
рь@@ 740
скане 740
събо@@ 740
твор@@ 740
чудови@@ 740
480 739
Ей 739
Леон@@ 739
Монреал 739
вънс 739
датски 739
ескор@@ 739
изразяват 739
логична 739
мбу@@ 739
национал 739
преграда 739
снабдяването 739
споразумения 739
християнство 739
1616 738
Баня 738
Бин@@ 738
Далмация 738
Киев@@ 738
Психо@@ 738
Флора 738
араб@@ 738
дател 738
доставя 738
заводи 738
кано 738
местоположението 738
моги@@ 738
морф@@ 738
надеж@@ 738
отра@@ 738
привилегии 738
революционни 738
регла@@ 738
сбирка 738
симфо@@ 738
слива 738
хумористи@@ 738
€ 738
Азиат@@ 737
Алтенбург 737
Ару@@ 737
Наме@@ 737
Севиля 737
вак 737
европейците 737
зари 737
изхода 737
ина 737
ово@@ 737
природно 737
ращия 737
рийския 737
съдържа@@ 737
часовник 737
чевски 737
шампиона 737
Bo@@ 736
del 736
Катар 736
Коз@@ 736
Свобода 736
експозиция 736
континенталната 736
поетеса 736
предните 736
ръба 736
спокойно 736
статистически 736
уника@@ 736
БРП 735
Кил@@ 735
Контро@@ 735
Латин@@ 735
Образ@@ 735
Отец 735
Стай@@ 735
влакове 735
въплъ@@ 735
доставки 735
известното 735
изгонен 735
командири 735
нима@@ 735
остри 735
ринген 735
риска 735
роб@@ 735
селищ@@ 735
техническите 735
Empire 734
Вацлав 734
Византийската 734
Възраждането 734
Телевиса 734
Фур@@ 734
Шоуто 734
включено 734
задържат 734
инструк@@ 734
йката 734
подобие 734
признае 734
проектирането 734
северни 734
творец 734
телевизионно 734
фармацев@@ 734
ярко 734
1630 733
Злати@@ 733
Независи@@ 733
Тете@@ 733
бежанците 733
гава 733
глад@@ 733
дистанция 733
душе@@ 733
електроенергия 733
изглеждат 733
изчезват 733
отдели 733
паунда 733
пощен@@ 733
телен 733
хат 733
Con@@ 732
Географска 732
Глу@@ 732
Стопан@@ 732
Сур@@ 732
Шампионска 732
имаше 732
контролират 732
левски 732
мара@@ 732
нес@@ 732
посещения 732
привлече 732
разполага@@ 732
сериите 732
създавайки 732
тунел 732
Ало@@ 731
Ви 731
Възраждане 731
Движението 731
Кьониг@@ 731
Окта@@ 731
Рига 731
актив@@ 731
бират 731
бърка 731
глу 731
държавното 731
жина 731
излиш@@ 731
нела 731
нителните 731
пие@@ 731
прием 731
тус 731
Амбро@@ 730
Бентхайм 730
Боте@@ 730
Виенския 730
Дио@@ 730
Каса@@ 730
Место@@ 730
Назначен 730
важната 730
обре@@ 730
оръжието 730
пречи@@ 730
сестрата 730
строител 730
удря 730
ad@@ 729
Оксфорд 729
Черната 729
артилерий@@ 729
изклю@@ 729
приятеля 729
раздели 729
разкрити 729
средиземно@@ 729
стващите 729
упражнява 729
фни 729
чели 729
Два@@ 728
Й 728
Паметникът 728
Прогре@@ 728
Старата 728
Янко 728
бари 728
бово 728
будизма 728
вакси@@ 728
велосипе@@ 728
влакна 728
врага 728
герман@@ 728
гражданско 728
дистрибу@@ 728
езикът 728
неподви@@ 728
османския 728
остар@@ 728
поемата 728
приписва 728
тенето 728
христи@@ 728
1701 727
7,5 727
Вормс 727
ЕЛ@@ 727
ИК 727
Летните 727
Петрович 727
Хайн@@ 727
Центра@@ 727
атент@@ 727
бло 727
възрожден@@ 727
гласува 727
говорен 727
дарен 727
нок@@ 727
пох@@ 727
превозни 727
проектиране 727
пясъчните 727
съществували 727
унищожена 727
ядрена 727
Балти@@ 726
Браунфелс 726
Димитриос 726
Започ@@ 726
Ковачев 726
Рикардо 726
Там@@ 726
Членовете 726
вълк 726
градината 726
гуми 726
домакинските 726
замени 726
коридор 726
кюр@@ 726
матични 726
мие 726
нете 726
прекарват 726
рт 726
сето 726
соци@@ 726
ed 725
Враня 725
Джулия 725
Йоханес 725
Нами@@ 725
Радомир 725
водене 725
вското 725
измервания 725
опер@@ 725
прилепи 725
противоречи@@ 725
раж 725
разцвет 725
регистрира 725
стълб 725
фик@@ 725
Дейв 724
Зограф 724
Личности 724
Папа 724
Шаранови 724
Шел@@ 724
картата 724
появи@@ 724
преобразува 724
свидетелство 724
славяните 724
съотношение 724
фраз@@ 724
честър 724
American 723
à@@ 723
Абат@@ 723
Антиох 723
Българските 723
Зад@@ 723
Лит@@ 723
Лов@@ 723
Политбюро 723
Рихард 723
Ря@@ 723
Север@@ 723
Фан@@ 723
агреси@@ 723
вою@@ 723
дет@@ 723
залож@@ 723
заложен 723
инж 723
кавалерията 723
кет@@ 723
клиника 723
майстор@@ 723
нидерландски 723
паланка 723
пресъ@@ 723
ристите 723
с. 723
1598 722
1788 722
Американ@@ 722
Дона@@ 722
Доро@@ 722
Трир 722
банката 722
вода@@ 722
върши 722
граничен 722
докумен@@ 722
игумен 722
кевич 722
лечеб@@ 722
олтар 722
превъзходство 722
предостав@@ 722
прозореца 722
рю@@ 722
сек 722
трафик 722
25@@ 721
Per@@ 721
SS 721
Алеко 721
Големи 721
Иконостасът 721
банк 721
дневен 721
здрав@@ 721
ителски 721
капиту@@ 721
като@@ 721
напр 721
отделянето 721
платинен 721
побеждавайки 721
режисира 721
споменато 721
съществени 721
творческо 721
тивния 721
ястие 721
1627 720
Квар@@ 720
Москов@@ 720
Невада 720
вдъхновение 720
висшата 720
египетски 720
медалист 720
отсъствието 720
руините 720
суро@@ 720
съвместна 720
създателите 720
тенденции 720
шер 720
1683 719
IBM 719
ar 719
Деветосептемврийския 719
Лин 719
Пенев 719
Шин@@ 719
блу@@ 719
вой 719
елементар@@ 719
икономическото 719
керамични 719
лого@@ 719
превърната 719
разположението 719
разузна@@ 719
речта 719
телно 719
унищожаването 719
учеб@@ 719
учителите 719
вертикално 718
дизайнер 718
ждата 718
излъчването 718
интели@@ 718
красив 718
ориен@@ 718
офор@@ 718
патриаршисти 718
присъединяване 718
продуцирана 718
родно 718
скорост@@ 718
странна 718
създате@@ 718
удара 718
форма@@ 718
хевиметъл 718
щината 718
яй@@ 718
ref 717
Водосборният 717
Дълго@@ 717
Командир 717
Раду@@ 717
атаките 717
избирането 717
кова@@ 717
кур 717
монета 717
написването 717
отвежда 717
повтор@@ 717
погребал@@ 717
понеделник 717
произвеждан 717
софийски 717
стко 717
условно 717
учебен 717
1651 716
to@@ 716
Бисау 716
Дунавската 716
Законодате@@ 716
Известна 716
Курт 716
Служба 716
Уру@@ 716
венството 716
дзе 716
естествените 716
инвазия 716
иро@@ 716
кореспонденция 716
намерението 716
норвежки 716
нува 716
писа 716
психологически 716
трансфер 716
унищожават 716
фамилии 716
ъгли 716
яз@@ 716
1540 715
Андон 715
Гау@@ 715
Лун@@ 715
Мануил 715
РНК 715
атив@@ 715
генция 715
графско 715
ледници 715
лона 715
междувременно 715
моряци 715
начина@@ 715
нините 715
откритите 715
платформата 715
правнук 715
проектиран 715
противоречия 715
разо@@ 715
сменят 715
ствеността 715
цикло@@ 715
Аби@@ 714
Гале@@ 714
Канад@@ 714
[...]
