{"[PAD]":0,"[SOS]":1,"[EOS]":2,"[UNK]":3,"[MASK]":4,"!":5,"#":6,"$":7,"%":8,"&":9,"(":10,")":11,"*":12,"+":13,",":14,"-":15,".":16,"/":17,"0":18,"1":19,"2":20,"3":21,"4":22,"5":23,"6":24,"7":25,"8":26,"9":27,":":28,";":29,"=":30,"?":31,"@":32,"A":33,"B":34,"C":35,"D":36,"E":37,"F":38,"G":39,"H":40,"I":41,"J":42,"K":43,"L":44,"M":45,"N":46,"O":47,"P":48,"Q":49,"R":50,"S":51,"T":52,"U":53,"V":54,"W":55,"X":56,"Y":57,"Z":58,"\\":59,"^":60,"_":61,"a":62,"b":63,"c":64,"d":65,"e":66,"f":67,"g":68,"h":69,"i":70,"j":71,"k":72,"l":73,"m":74,"n":75,"o":76,"p":77,"q":78,"r":79,"s":80,"t":81,"u":82,"v":83,"w":84,"x":85,"y":86,"z":87,"{":88,"}":89,"~":90,"¡":91,"¢":92,"£":93,"¤":94,"¥":95,"¦":96,"§":97,"¨":98,"©":99,"ª":100,"¬":101,"®":102,"¯":103,"°":104,"±":105,"²":106,"³":107,"µ":108,"¶":109,"·":110,"¸":111,"¹":112,"º":113,"¼":114,"½":115,"¾":116,"¿":117,"À":118,"Á":119,"Â":120,"Ã":121,"Ä":122,"Å":123,"Æ":124,"Ç":125,"È":126,"É":127,"Ê":128,"Ë":129,"Ì":130,"Í":131,"Î":132,"Ï":133,"Ð":134,"Ñ":135,"Ò":136,"Ó":137,"Ô":138,"Õ":139,"Ö":140,"×":141,"Ø":142,"Ù":143,"Ú":144,"Û":145,"Ü":146,"Ý":147,"Þ":148,"ß":149,"à":150,"á":151,"â":152,"ã":153,"ä":154,"å":155,"æ":156,"ç":157,"è":158,"é":159,"ê":160,"ë":161,"ì":162,"í":163,"î":164,"ï":165,"ð":166,"ñ":167,"ò":168,"ó":169,"ô":170,"õ":171,"ö":172,"÷":173,"ø":174,"ù":175,"ú":176,"û":177,"ü":178,"ý":179,"þ":180,"ÿ":181,"Ā":182,"ā":183,"Ă":184,"ă":185,"Ą":186,"ą":187,"Ć":188,"ć":189,"Ĉ":190,"ĉ":191,"Ċ":192,"Č":193,"č":194,"Ď":195,"ď":196,"Đ":197,"đ":198,"Ē":199,"ē":200,"ĕ":201,"Ė":202,"ė":203,"Ę":204,"ę":205,"Ě":206,"ě":207,"ĝ":208,"Ğ":209,"ğ":210,"Ġ":211,"ġ":212,"ģ":213,"ĥ":214,"Ħ":215,"ħ":216,"ĩ":217,"Ī":218,"ī":219,"ĭ":220,"Į":221,"į":222,"İ":223,"ı":224,"ĵ":225,"Ķ":226,"ķ":227,"ĸ":228,"Ĺ":229,"ĺ":230,"Ļ":231,"ļ":232,"Ľ":233,"ľ":234,"Ŀ":235,"Ł":236,"ł":237,"Ń":238,"ń":239,"Ņ":240,"ņ":241,"Ň":242,"ň":243,"ŋ":244,"Ō":245,"ō":246,"ŏ":247,"Ő":248,"ő":249,"Œ":250,"œ":251,"Ŕ":252,"ŕ":253,"Ř":254,"ř":255,"Ś":256,"ś":257,"Ŝ":258,"ŝ":259,"Ş":260,"ş":261,"Š":262,"š":263,"Ţ":264,"ţ":265,"Ť":266,"ť":267,"ũ":268,"Ū":269,"ū":270,"ŭ":271,"Ů":272,"ů":273,"Ű":274,"ű":275,"ų":276,"ŵ":277,"ŷ":278,"Ÿ":279,"Ź":280,"ź":281,"Ż":282,"ż":283,"Ž":284,"ž":285,"ſ":286,"Ɔ":287,"ƒ":288,"Ơ":289,"ơ":290,"ư":291,"ǎ":292,"ǐ":293,"ǒ":294,"ǔ":295,"ǣ":296,"Ǵ":297,"ǵ":298,"Ǻ":299,"ȃ":300,"ș":301,"ț":302,"Ȼ":303,"ɐ":304,"ɑ":305,"ɒ":306,"ɔ":307,"ə":308,"ɚ":309,"ɛ":310,"ɜ":311,"ɨ":312,"ɪ":313,"ɫ":314,"ɴ":315,"ɵ":316,"ɹ":317,"ɾ":318,"ʀ":319,"ʃ":320,"ʊ":321,"ʌ":322,"ʐ":323,"ʒ":324,"ʔ":325,"ʚ":326,"ʤ":327,"ʦ":328,"ʲ":329,"ʺ":330,"ʻ":331,"ʼ":332,"ʾ":333,"ʿ":334,"ˆ":335,"ˇ":336,"ˈ":337,"ˌ":338,"ː":339,"˘":340,"˙":341,"˚":342,"˛":343,"˜":344,"˝":345,"ˡ":346,"̀":347,"́":348,"̃":349,"̆":350,"̇":351,"̈":352,"̍":353,"̣":354,"̤":355,"̯":356,"̱":357,"̶":358,"͘":359,"͡":360,"΄":361,"Ά":362,"Έ":363,"Ό":364,"Ώ":365,"ΐ":366,"Α":367,"Β":368,"Γ":369,"Δ":370,"Ε":371,"Ζ":372,"Η":373,"Θ":374,"Ι":375,"Κ":376,"Λ":377,"Μ":378,"Ν":379,"Ο":380,"Π":381,"Ρ":382,"Σ":383,"Τ":384,"Υ":385,"Φ":386,"Χ":387,"Ω":388,"ά":389,"έ":390,"ή":391,"ί":392,"α":393,"β":394,"γ":395,"δ":396,"ε":397,"ζ":398,"η":399,"θ":400,"ι":401,"κ":402,"λ":403,"μ":404,"ν":405,"ξ":406,"ο":407,"π":408,"ρ":409,"ς":410,"σ":411,"τ":412,"υ":413,"φ":414,"χ":415,"ψ":416,"ω":417,"ϊ":418,"ϋ":419,"ό":420,"ύ":421,"ώ":422,"Ё":423,"Ђ":424,"Ѓ":425,"Є":426,"Ѕ":427,"І":428,"Ї":429,"Ј":430,"Љ":431,"Њ":432,"Ћ":433,"Ќ":434,"Ў":435,"Џ":436,"А":437,"Б":438,"В":439,"Г":440,"Д":441,"Е":442,"Ж":443,"З":444,"И":445,"Й":446,"К":447,"Л":448,"М":449,"Н":450,"О":451,"П":452,"Р":453,"С":454,"Т":455,"У":456,"Ф":457,"Х":458,"Ц":459,"Ч":460,"Ш":461,"Щ":462,"Ъ":463,"Ы":464,"Ь":465,"Э":466,"Ю":467,"Я":468,"а":469,"б":470,"в":471,"г":472,"д":473,"е":474,"ж":475,"з":476,"и":477,"й":478,"к":479,"л":480,"м":481,"н":482,"о":483,"п":484,"р":485,"с":486,"т":487,"у":488,"ф":489,"х":490,"ц":491,"ч":492,"ш":493,"щ":494,"ъ":495,"ы":496,"ь":497,"э":498,"ю":499,"я":500,"ё":501,"ђ":502,"ѓ":503,"є":504,"ѕ":505,"і":506,"ї":507,"ј":508,"љ":509,"њ":510,"ћ":511,"ќ":512,"ў":513,"џ":514,"Ѳ":515,"ѳ":516,"Ґ":517,"ґ":518,"ғ":519,"ҙ":520,"қ":521,"Ҡ":522,"ҡ":523,"ң":524,"ү":525,"ұ":526,"һ":527,"ә":528,"ө":529,"ְ":530,"ֲ":531,"ֳ":532,"ִ":533,"ֵ":534,"ַ":535,"ָ":536,"ֹ":537,"ּ":538,"ֿ":539,"ׁ":540,"א":541,"ב":542,"ג":543,"ד":544,"ה":545,"ו":546,"ז":547,"ח":548,"ט":549,"י":550,"כ":551,"ל":552,"ם":553,"מ":554,"ן":555,"נ":556,"ס":557,"ע":558,"פ":559,"ץ":560,"צ":561,"ק":562,"ר":563,"ש":564,"ת":565,"،":566,"ؒ":567,"؛":568,"ء":569,"آ":570,"أ":571,"إ":572,"ئ":573,"ا":574,"ب":575,"ة":576,"ت":577,"ث":578,"ج":579,"ح":580,"خ":581,"د":582,"ذ":583,"ر":584,"ز":585,"س":586,"ش":587,"ص":588,"ض":589,"ط":590,"ظ":591,"ع":592,"غ":593,"ـ":594,"ف":595,"ق":596,"ك":597,"ل":598,"م":599,"ن":600,"ه":601,"و":602,"ى":603,"ي":604,"ً":605,"ٌ":606,"َ":607,"ُ":608,"ِ":609,"ّ":610,"ْ":611,"ټ":612,"پ":613,"ځ":614,"چ":615,"ک":616,"گ":617,"ہ":618,"ۂ":619,"ۆ":620,"ی":621,"ې":622,"۞":623,"۰":624,"۱":625,"۲":626,"۳":627,"۴":628,"۵":629,"۶":630,"۷":631,"۸":632,"۹":633,"ߖ":634,"ߧ":635,"߮":636,"अ":637,"आ":638,"ई":639,"क":640,"ग":641,"च":642,"छ":643,"ज":644,"ञ":645,"ट":646,"ण":647,"त":648,"थ":649,"द":650,"ध":651,"न":652,"प":653,"ब":654,"भ":655,"म":656,"य":657,"र":658,"ल":659,"व":660,"श":661,"स":662,"ह":663,"ा":664,"ि":665,"ी":666,"ु":667,"े":668,"ो":669,"्":670,"ॐ":671,"०":672,"१":673,"५":674,"९":675,"গ":676,"চ":677,"ট":678,"ন":679,"প":680,"ম":681,"র":682,"া":683,"ি":684,"ু":685,"্":686,"க":687,"ங":688,"ச":689,"ட":690,"த":691,"ன":692,"ப":693,"ம":694,"ய":695,"ர":696,"வ":697,"ஷ":698,"ா":699,"ி":700,"ு":701,"ூ":702,"ெ":703,"ை":704,"ோ":705,"்":706,"ಐ":707,"ಯ":708,"ರ":709,"ವ":710,"ಶ":711,"ಾ":712,"ೆ":713,"ೈ":714,"್":715,"ೖ":716,"ക":717,"ദ":718,"പ":719,"ല":720,"വ":721,"ഷ":722,"ീ":723,"്":724,"න":725,"ම":726,"ර":727,"ව":728,"හ":729,"ු":730,"ก":731,"ข":732,"ค":733,"ฆ":734,"ง":735,"จ":736,"ฉ":737,"ช":738,"ญ":739,"ฎ":740,"ฑ":741,"ณ":742,"ด":743,"ต":744,"ถ":745,"ท":746,"ธ":747,"น":748,"บ":749,"ป":750,"ผ":751,"ฝ":752,"พ":753,"ฟ":754,"ภ":755,"ม":756,"ย":757,"ร":758,"ฤ":759,"ล":760,"ว":761,"ศ":762,"ษ":763,"ส":764,"ห":765,"อ":766,"ฮ":767,"ะ":768,"ั":769,"า":770,"ำ":771,"ิ":772,"ี":773,"ึ":774,"ื":775,"ุ":776,"ู":777,"฿":778,"เ":779,"แ":780,"โ":781,"ใ":782,"ไ":783,"็":784,"่":785,"้":786,"๊":787,"์":788,"๑":789,"ຄ":790,"ງ":791,"ຈ":792,"ດ":793,"ຖ":794,"ນ":795,"ບ":796,"ມ":797,"ລ":798,"ວ":799,"ັ":800,"າ":801,"ຸ":802,"ຽ":803,"་":804,"ད":805,"བ":806,"ོ":807,"ა":808,"ბ":809,"გ":810,"დ":811,"ე":812,"ვ":813,"თ":814,"ი":815,"კ":816,"ლ":817,"მ":818,"ნ":819,"ო":820,"პ":821,"რ":822,"ს":823,"ტ":824,"უ":825,"ქ":826,"ღ":827,"შ":828,"ც":829,"ხ":830,"ჯ":831,"ህ":832,"ሓ":833,"ሕ":834,"መ":835,"ም":836,"ረ":837,"ራ":838,"ር":839,"ሰ":840,"ስ":841,"ሻ":842,"ሽ":843,"ቀ":844,"ቐ":845,"በ":846,"ባ":847,"ተ":848,"ት":849,"ቶ":850,"ነ":851,"ን":852,"አ":853,"ኣ":854,"ኤ":855,"እ":856,"ኦ":857,"ካ":858,"ክ":859,"ዋ":860,"ው":861,"ዓ":862,"ዕ":863,"የ":864,"ይ":865,"ደ":866,"ዲ":867,"ገ":868,"ጋ":869,"ጨ":870,"ጽ":871,"ፅ":872,"ፈ":873,"ፍ":874,"፣":875,"ᐃ":876,"ᑦ":877,"ᒃ":878,"ᓄ":879,"ḍ":880,"ḏ":881,"ḥ":882,"ḫ":883,"ḳ":884,"ṇ":885,"ṉ":886,"ṛ":887,"ṣ":888,"ṭ":889,"ṳ":890,"ẋ":891,"ạ":892,"ả":893,"ấ":894,"ầ":895,"ẩ":896,"ậ":897,"ắ":898,"ằ":899,"Ẳ":900,"ặ":901,"ẻ":902,"ẽ":903,"ế":904,"ề":905,"ể":906,"ễ":907,"ệ":908,"ỉ":909,"ị":910,"ọ":911,"ỏ":912,"ố":913,"ồ":914,"ổ":915,"ộ":916,"ớ":917,"ờ":918,"ở":919,"ỡ":920,"ợ":921,"ụ":922,"ủ":923,"ứ":924,"ừ":925,"ử":926,"ữ":927,"ự":928,"ỳ":929,"ỹ":930,"ἀ":931,"ἅ":932,"Ἀ":933,"ἔ":934,"Ἔ":935,"Ἡ":936,"Ἥ":937,"ἰ":938,"Ἱ":939,"Ὑ":940,"ά":941,"ὶ":942,"ῆ":943,"ῖ":944,"ῥ":945,"ῦ":946,"‐":947,"‑":948,"‒":949,"―":950,"‖":951,"‛":952,"‟":953,"†":954,"‡":955,"•":956,"‰":957,"′":958,"″":959,"‶":960,"‹":961,"›":962,"※":963,"‼":964,"‽":965,"⁄":966,"ⁿ":967,"₂":968,"₠":969,"₤":970,"₩":971,"₪":972,"€":973,"₴":974,"₵":975,"⃛":976,"℃":977,"ℓ":978,"№":979,"™":980,"Ω":981,"℮":982,"⅔":983,"⅛":984,"⅞":985,"Ⅱ":986,"←":987,"↑":988,"→":989,"↓":990,"↔":991,"⇒":992,"⇗":993,"⇢":994,"∀":995,"∈":996,"−":997,"√":998,"∞":999,"∫":1000,"∴":1001,"∶":1002,"∼":1003,"≈":1004,"≠":1005,"≤":1006,"≥":1007,"≪":1008,"≫":1009,"⋅":1010,"⌃":1011,"⌘":1012,"①":1013,"②":1014,"③":1015,"─":1016,"│":1017,"╚":1018,"╞":1019,"╩":1020,"█":1021,"░":1022,"■":1023,"□":1024,"▪":1025,"▲":1026,"△":1027,"▸":1028,"►":1029,"▼":1030,"◆":1031,"◇":1032,"◈":1033,"◊":1034,"○":1035,"◎":1036,"●":1037,"◙":1038,"◦":1039,"★":1040,"☆":1041,"☎":1042,"☏":1043,"☑":1044,"☺":1045,"☻":1046,"☼":1047,"♀":1048,"♂":1049,"♠":1050,"♣":1051,"♥":1052,"♦":1053,"♪":1054,"♫":1055,"✿":1056,"➔":1057,"➚":1058,"➟":1059,"➲":1060,"Ⰶ":1061,"ⲉ":1062,"ⲟ":1063,"Ⲡ":1064,"ⲣ":1065,"ⲩ":1066,"、":1067,"。":1068,"々":1069,"《":1070,"》":1071,"「":1072,"」":1073,"『":1074,"』":1075,"【":1076,"】":1077,"〔":1078,"〕":1079,"〜":1080,"あ":1081,"ぃ":1082,"い":1083,"う":1084,"え":1085,"お":1086,"か":1087,"が":1088,"き":1089,"ぎ":1090,"く":1091,"ぐ":1092,"け":1093,"げ":1094,"こ":1095,"ご":1096,"さ":1097,"ざ":1098,"し":1099,"じ":1100,"す":1101,"ず":1102,"せ":1103,"ぞ":1104,"た":1105,"だ":1106,"ち":1107,"ぢ":1108,"っ":1109,"つ":1110,"づ":1111,"て":1112,"で":1113,"と":1114,"ど":1115,"な":1116,"に":1117,"ね":1118,"の":1119,"は":1120,"ば":1121,"ひ":1122,"ふ":1123,"ぷ":1124,"へ":1125,"べ":1126,"ま":1127,"み":1128,"む":1129,"め":1130,"も":1131,"や":1132,"ょ":1133,"よ":1134,"ら":1135,"り":1136,"る":1137,"れ":1138,"ろ":1139,"わ":1140,"ゐ":1141,"ゑ":1142,"を":1143,"ん":1144,"゛":1145,"ア":1146,"ィ":1147,"イ":1148,"ゥ":1149,"ウ":1150,"ェ":1151,"エ":1152,"オ":1153,"カ":1154,"キ":1155,"ク":1156,"グ":1157,"ケ":1158,"ゲ":1159,"コ":1160,"ゴ":1161,"サ":1162,"ザ":1163,"シ":1164,"ジ":1165,"ス":1166,"セ":1167,"ソ":1168,"タ":1169,"ダ":1170,"チ":1171,"ッ":1172,"ツ":1173,"テ":1174,"デ":1175,"ト":1176,"ド":1177,"ナ":1178,"ニ":1179,"ネ":1180,"ハ":1181,"バ":1182,"パ":1183,"ヒ":1184,"ビ":1185,"フ":1186,"ブ":1187,"プ":1188,"ベ":1189,"ペ":1190,"ホ":1191,"ボ":1192,"マ":1193,"ミ":1194,"ム":1195,"メ":1196,"モ":1197,"ャ":1198,"ュ":1199,"ユ":1200,"ョ":1201,"ヨ":1202,"ラ":1203,"リ":1204,"ル":1205,"レ":1206,"ワ":1207,"ン":1208,"・":1209,"ー":1210,"ㄤ":1211,"ㅣ":1212,"㎡":1213,"䟩":1214,"一":1215,"七":1216,"万":1217,"三":1218,"上":1219,"下":1220,"不":1221,"与":1222,"丘":1223,"东":1224,"两":1225,"丨":1226,"个":1227,"中":1228,"丸":1229,"丹":1230,"为":1231,"主":1232,"丽":1233,"举":1234,"久":1235,"义":1236,"之":1237,"乌":1238,"乎":1239,"乐":1240,"乗":1241,"乙":1242,"九":1243,"习":1244,"书":1245,"了":1246,"事":1247,"二":1248,"于":1249,"云":1250,"互":1251,"五":1252,"井":1253,"些":1254,"亜":1255,"交":1256,"产":1257,"京":1258,"人":1259,"亿":1260,"什":1261,"仁":1262,"今":1263,"从":1264,"付":1265,"仙":1266,"代":1267,"以":1268,"仮":1269,"仲":1270,"价":1271,"伊":1272,"伎":1273,"会":1274,"伝":1275,"伟":1276,"传":1277,"伯":1278,"伴":1279,"伸":1280,"但":1281,"位":1282,"住":1283,"佐":1284,"佑":1285,"体":1286,"何":1287,"余":1288,"作":1289,"你":1290,"佰":1291,"侍":1292,"依":1293,"便":1294,"俊":1295,"信":1296,"修":1297,"倉":1298,"倍":1299,"倒":1300,"假":1301,"做":1302,"健":1303,"備":1304,"储":1305,"儀":1306,"儉":1307,"元":1308,"光":1309,"克":1310,"免":1311,"入":1312,"全":1313,"八":1314,"公":1315,"六":1316,"共":1317,"关":1318,"兵":1319,"其":1320,"具":1321,"内":1322,"冊":1323,"写":1324,"农":1325,"决":1326,"况":1327,"冷":1328,"净":1329,"凄":1330,"准":1331,"几":1332,"出":1333,"分":1334,"切":1335,"列":1336,"刘":1337,"则":1338,"刚":1339,"別":1340,"刨":1341,"利":1342,"别":1343,"到":1344,"制":1345,"前":1346,"剑":1347,"剣":1348,"剥":1349,"副":1350,"劇":1351,"力":1352,"功":1353,"加":1354,"务":1355,"动":1356,"助":1357,"势":1358,"動":1359,"勝":1360,"勢":1361,"勧":1362,"勿":1363,"包":1364,"化":1365,"北":1366,"匡":1367,"匹":1368,"区":1369,"医":1370,"匿":1371,"十":1372,"千":1373,"华":1374,"协":1375,"卓":1376,"单":1377,"卖":1378,"南":1379,"博":1380,"卡":1381,"卦":1382,"危":1383,"却":1384,"厂":1385,"原":1386,"去":1387,"县":1388,"参":1389,"及":1390,"友":1391,"反":1392,"发":1393,"取":1394,"受":1395,"变":1396,"口":1397,"古":1398,"只":1399,"叫":1400,"可":1401,"台":1402,"史":1403,"号":1404,"司":1405,"吃":1406,"合":1407,"吉":1408,"吊":1409,"名":1410,"后":1411,"向":1412,"吗":1413,"君":1414,"否":1415,"吧":1416,"听":1417,"吴":1418,"吸":1419,"吹":1420,"呀":1421,"呂":1422,"呆":1423,"告":1424,"呑":1425,"周":1426,"味":1427,"呼":1428,"和":1429,"咬":1430,"哈":1431,"哲":1432,"唐":1433,"售":1434,"唸":1435,"商":1436,"問":1437,"啤":1438,"啦":1439,"喜":1440,"嘉":1441,"嘛":1442,"嘟":1443,"器":1444,"四":1445,"回":1446,"団":1447,"囧":1448,"园":1449,"固":1450,"国":1451,"图":1452,"圆":1453,"國":1454,"圍":1455,"圓":1456,"土":1457,"在":1458,"地":1459,"圳":1460,"场":1461,"坊":1462,"坐":1463,"型":1464,"垣":1465,"城":1466,"堂":1467,"報":1468,"場":1469,"塔":1470,"塗":1471,"塾":1472,"墟":1473,"壊":1474,"士":1475,"壮":1476,"売":1477,"壳":1478,"处":1479,"备":1480,"変":1481,"夕":1482,"外":1483,"多":1484,"大":1485,"天":1486,"太":1487,"夫":1488,"央":1489,"头":1490,"夷":1491,"夹":1492,"奇":1493,"奈":1494,"奉":1495,"套":1496,"奚":1497,"女":1498,"奶":1499,"好":1500,"如":1501,"妖":1502,"妻":1503,"始":1504,"娃":1505,"娥":1506,"娱":1507,"婁":1508,"媛":1509,"子":1510,"字":1511,"存":1512,"季":1513,"学":1514,"孴":1515,"學":1516,"宁":1517,"安":1518,"宗":1519,"官":1520,"定":1521,"宜":1522,"宝":1523,"实":1524,"実":1525,"客":1526,"宣":1527,"宫":1528,"宮":1529,"家":1530,"容":1531,"宿":1532,"寄":1533,"密":1534,"寤":1535,"寧":1536,"寨":1537,"寶":1538,"寸":1539,"对":1540,"寺":1541,"寿":1542,"専":1543,"将":1544,"小":1545,"少":1546,"尘":1547,"就":1548,"尾":1549,"尿":1550,"局":1551,"居":1552,"屈":1553,"届":1554,"屋":1555,"屏":1556,"属":1557,"山":1558,"岐":1559,"岗":1560,"岡":1561,"岩":1562,"岭":1563,"岷":1564,"島":1565,"崎":1566,"崔":1567,"崩":1568,"嵥":1569,"嶺":1570,"川":1571,"州":1572,"巧":1573,"己":1574,"巴":1575,"巻":1576,"市":1577,"布":1578,"师":1579,"希":1580,"帝":1581,"帥":1582,"常":1583,"幌":1584,"干":1585,"平":1586,"年":1587,"幸":1588,"幹":1589,"幾":1590,"广":1591,"庁":1592,"広":1593,"庄":1594,"庆":1595,"应":1596,"底":1597,"店":1598,"庚":1599,"府":1600,"度":1601,"庫":1602,"廣":1603,"建":1604,"开":1605,"弁":1606,"弄":1607,"式":1608,"弔":1609,"引":1610,"张":1611,"弦":1612,"張":1613,"强":1614,"当":1615,"形":1616,"彩":1617,"彭":1618,"彰":1619,"役":1620,"彻":1621,"征":1622,"很":1623,"律":1624,"後":1625,"徒":1626,"得":1627,"復":1628,"微":1629,"徳":1630,"德":1631,"徹":1632,"心":1633,"必":1634,"忆":1635,"忍":1636,"志":1637,"応":1638,"快":1639,"念":1640,"怒":1641,"思":1642,"怡":1643,"急":1644,"性":1645,"怪":1646,"恵":1647,"悠":1648,"您":1649,"悩":1650,"悪":1651,"情":1652,"惠":1653,"惧":1654,"惯":1655,"想":1656,"意":1657,"愛":1658,"態":1659,"慢":1660,"慣":1661,"慶":1662,"憶":1663,"憾":1664,"成":1665,"戒":1666,"戴":1667,"戶":1668,"户":1669,"戸":1670,"所":1671,"手":1672,"才":1673,"打":1674,"找":1675,"承":1676,"技":1677,"投":1678,"折":1679,"抜":1680,"护":1681,"报":1682,"押":1683,"担":1684,"拉":1685,"拓":1686,"拟":1687,"括":1688,"拳":1689,"拼":1690,"拿":1691,"持":1692,"挂":1693,"指":1694,"挡":1695,"振":1696,"损":1697,"据":1698,"捷":1699,"掉":1700,"排":1701,"掛":1702,"探":1703,"接":1704,"控":1705,"掻":1706,"揂":1707,"揃":1708,"提":1709,"握":1710,"援":1711,"搅":1712,"損":1713,"摂":1714,"摇":1715,"摩":1716,"撫":1717,"撮":1718,"操":1719,"支":1720,"收":1721,"攻":1722,"放":1723,"故":1724,"敏":1725,"救":1726,"教":1727,"散":1728,"数":1729,"整":1730,"文":1731,"斗":1732,"料":1733,"新":1734,"方":1735,"施":1736,"旅":1737,"族":1738,"无":1739,"日":1740,"时":1741,"昇":1742,"明":1743,"易":1744,"星":1745,"春":1746,"昭":1747,"是":1748,"显":1749,"晏":1750,"晨":1751,"普":1752,"景":1753,"智":1754,"暂":1755,"暫":1756,"暴":1757,"曝":1758,"更":1759,"書":1760,"最":1761,"月":1762,"有":1763,"朝":1764,"木":1765,"本":1766,"札":1767,"朱":1768,"机":1769,"李":1770,"杏":1771,"材":1772,"村":1773,"条":1774,"来":1775,"杨":1776,"東":1777,"松":1778,"板":1779,"林":1780,"果":1781,"架":1782,"查":1783,"柱":1784,"柴":1785,"树":1786,"校":1787,"株":1788,"栽":1789,"桂":1790,"桶":1791,"梁":1792,"梅":1793,"检":1794,"森":1795,"椅":1796,"植":1797,"検":1798,"業":1799,"極":1800,"楼":1801,"楽":1802,"樓":1803,"標":1804,"横":1805,"樹":1806,"機":1807,"檀":1808,"次":1809,"欢":1810,"款":1811,"歌":1812,"止":1813,"正":1814,"此":1815,"步":1816,"武":1817,"歩":1818,"死":1819,"殊":1820,"殷":1821,"殻":1822,"殿":1823,"毁":1824,"毓":1825,"比":1826,"毛":1827,"氏":1828,"民":1829,"气":1830,"気":1831,"氣":1832,"水":1833,"求":1834,"汇":1835,"汉":1836,"汕":1837,"江":1838,"汤":1839,"汴":1840,"決":1841,"沙":1842,"没":1843,"沢":1844,"沪":1845,"沱":1846,"油":1847,"治":1848,"況":1849,"泉":1850,"泊":1851,"法":1852,"波":1853,"泥":1854,"注":1855,"泰":1856,"泽":1857,"洋":1858,"洛":1859,"洞":1860,"活":1861,"派":1862,"流":1863,"测":1864,"济":1865,"浙":1866,"浜":1867,"浦":1868,"浴":1869,"海":1870,"涂":1871,"深":1872,"混":1873,"清":1874,"済":1875,"渋":1876,"渝":1877,"温":1878,"港":1879,"湖":1880,"湯":1881,"湾":1882,"満":1883,"溝":1884,"溢":1885,"溪":1886,"滞":1887,"滬":1888,"漢":1889,"潢":1890,"潮":1891,"澤":1892,"濟":1893,"灣":1894,"火":1895,"灰":1896,"灾":1897,"点":1898,"為":1899,"烏":1900,"烦":1901,"热":1902,"無":1903,"然":1904,"焼":1905,"煙":1906,"照":1907,"煩":1908,"煮":1909,"熟":1910,"熨":1911,"熱":1912,"燗":1913,"爆":1914,"爪":1915,"爱":1916,"父":1917,"片":1918,"版":1919,"牌":1920,"牙":1921,"物":1922,"特":1923,"状":1924,"独":1925,"献":1926,"率":1927,"玉":1928,"王":1929,"珈":1930,"珍":1931,"珠":1932,"班":1933,"球":1934,"理":1935,"琢":1936,"琲":1937,"璐":1938,"瓶":1939,"甜":1940,"生":1941,"用":1942,"田":1943,"甲":1944,"申":1945,"电":1946,"町":1947,"留":1948,"畢":1949,"略":1950,"畿":1951,"疑":1952,"疗":1953,"疫":1954,"病":1955,"痛":1956,"痴":1957,"癌":1958,"発":1959,"登":1960,"白":1961,"百":1962,"的":1963,"皇":1964,"皮":1965,"盆":1966,"益":1967,"盗":1968,"盛":1969,"目":1970,"直":1971,"相":1972,"省":1973,"看":1974,"県":1975,"真":1976,"眩":1977,"眼":1978,"着":1979,"睦":1980,"知":1981,"石":1982,"码":1983,"砂":1984,"确":1985,"確":1986,"磨":1987,"示":1988,"礼":1989,"社":1990,"祖":1991,"神":1992,"票":1993,"祭":1994,"祸":1995,"祿":1996,"禁":1997,"禅":1998,"福":1999,"禪":2000,"禹":2001,"秀":2002,"秉":2003,"秋":2004,"种":2005,"科":2006,"租":2007,"积":2008,"称":2009,"移":2010,"程":2011,"稲":2012,"稼":2013,"空":2014,"立":2015,"站":2016,"竞":2017,"章":2018,"端":2019,"競":2020,"竹":2021,"第":2022,"答":2023,"签":2024,"简":2025,"箍":2026,"箕":2027,"管":2028,"箱":2029,"節":2030,"米":2031,"粤":2032,"粵":2033,"精":2034,"糖":2035,"系":2036,"紂":2037,"紅":2038,"紋":2039,"納":2040,"純":2041,"紙":2042,"索":2043,"紧":2044,"細":2045,"終":2046,"経":2047,"結":2048,"絞":2049,"続":2050,"網":2051,"綺":2052,"線":2053,"繁":2054,"约":2055,"级":2056,"纸":2057,"纹":2058,"纽":2059,"线":2060,"细":2061,"经":2062,"绞":2063,"网":2064,"罗":2065,"罪":2066,"置":2067,"署":2068,"羅":2069,"美":2070,"群":2071,"義":2072,"羲":2073,"羽":2074,"翁":2075,"習":2076,"翻":2077,"耀":2078,"老":2079,"考":2080,"者":2081,"而":2082,"耐":2083,"耳":2084,"联":2085,"聖":2086,"聞":2087,"育":2088,"背":2089,"胜":2090,"胞":2091,"胡":2092,"能":2093,"脑":2094,"脖":2095,"脱":2096,"腹":2097,"膚":2098,"臂":2099,"臈":2100,"臓":2101,"臘":2102,"臧":2103,"臨":2104,"自":2105,"至":2106,"致":2107,"臺":2108,"舁":2109,"舅":2110,"舍":2111,"舐":2112,"舖":2113,"舞":2114,"舣":2115,"舩":2116,"航":2117,"舫":2118,"般":2119,"良":2120,"色":2121,"艳":2122,"节":2123,"芝":2124,"芦":2125,"花":2126,"苏":2127,"苑":2128,"若":2129,"英":2130,"茜":2131,"茨":2132,"茶":2133,"草":2134,"荣":2135,"莲":2136,"菜":2137,"華":2138,"菱":2139,"葉":2140,"董":2141,"蒋":2142,"蒸":2143,"蔓":2144,"蔚":2145,"藤":2146,"蘇":2147,"虑":2148,"蛋":2149,"螨":2150,"螳":2151,"血":2152,"行":2153,"術":2154,"街":2155,"表":2156,"裂":2157,"装":2158,"裕":2159,"西":2160,"要":2161,"見":2162,"覧":2163,"親":2164,"见":2165,"视":2166,"角":2167,"解":2168,"言":2169,"訃":2170,"訓":2171,"記":2172,"設":2173,"許":2174,"試":2175,"詰":2176,"話":2177,"詳":2178,"語":2179,"說":2180,"読":2181,"調":2182,"請":2183,"諸":2184,"謑":2185,"證":2186,"讃":2187,"计":2188,"讣":2189,"议":2190,"讯":2191,"许":2192,"设":2193,"证":2194,"识":2195,"试":2196,"诘":2197,"话":2198,"该":2199,"详":2200,"语":2201,"请":2202,"调":2203,"谢":2204,"谷":2205,"豆":2206,"貌":2207,"財":2208,"貢":2209,"販":2210,"貮":2211,"貰":2212,"賀":2213,"賢":2214,"贊":2215,"贡":2216,"货":2217,"质":2218,"贱":2219,"贳":2220,"贷":2221,"赌":2222,"赛":2223,"赤":2224,"赵":2225,"赶":2226,"起":2227,"超":2228,"越":2229,"足":2230,"跆":2231,"跨":2232,"路":2233,"踌":2234,"蹟":2235,"躇":2236,"躊":2237,"躍":2238,"身":2239,"車":2240,"軍":2241,"較":2242,"載":2243,"輪":2244,"车":2245,"转":2246,"载":2247,"较":2248,"辛":2249,"辞":2250,"辱":2251,"込":2252,"过":2253,"迎":2254,"近":2255,"返":2256,"这":2257,"进":2258,"连":2259,"迷":2260,"送":2261,"适":2262,"逃":2263,"选":2264,"途":2265,"通":2266,"速":2267,"連":2268,"逸":2269,"遇":2270,"過":2271,"道":2272,"達":2273,"遗":2274,"遝":2275,"適":2276,"遪":2277,"遭":2278,"遲":2279,"遷":2280,"遽":2281,"邑":2282,"那":2283,"郎":2284,"郑":2285,"郝":2286,"部":2287,"郷":2288,"都":2289,"鄂":2290,"酉":2291,"配":2292,"酎":2293,"酒":2294,"采":2295,"釉":2296,"里":2297,"重":2298,"野":2299,"量":2300,"金":2301,"釣":2302,"鉋":2303,"銀":2304,"銭":2305,"鋍":2306,"鋑":2307,"鋒":2308,"鋓":2309,"鋖":2310,"鋘":2311,"鋜":2312,"鋝":2313,"鋟":2314,"録":2315,"鍋":2316,"鎚":2317,"鏡":2318,"鐵":2319,"针":2320,"钓":2321,"钟":2322,"钢":2323,"钦":2324,"钧":2325,"钱":2326,"铁":2327,"银":2328,"锈":2329,"锋":2330,"锦":2331,"键":2332,"镜":2333,"長":2334,"长":2335,"門":2336,"開":2337,"間":2338,"関":2339,"閣":2340,"閥":2341,"閩":2342,"關":2343,"门":2344,"问":2345,"间":2346,"闻":2347,"闽":2348,"阜":2349,"阪":2350,"防":2351,"阳":2352,"阿":2353,"陀":2354,"际":2355,"降":2356,"院":2357,"除":2358,"陳":2359,"陵":2360,"陶":2361,"陽":2362,"隆":2363,"隊":2364,"难":2365,"雄":2366,"集":2367,"雙":2368,"雛":2369,"雲":2370,"電":2371,"露":2372,"青":2373,"静":2374,"非":2375,"面":2376,"革":2377,"靳":2378,"音":2379,"頂":2380,"項":2381,"順":2382,"須":2383,"頑":2384,"頭":2385,"題":2386,"顗":2387,"顯":2388,"页":2389,"顶":2390,"预":2391,"颐":2392,"题":2393,"颜":2394,"風":2395,"风":2396,"飛":2397,"飞":2398,"食":2399,"飲":2400,"飼":2401,"館":2402,"饮":2403,"馆":2404,"香":2405,"馬":2406,"駄":2407,"駅":2408,"験":2409,"騙":2410,"騜":2411,"验":2412,"骨":2413,"髄":2414,"體":2415,"高":2416,"鬼":2417,"魔":2418,"鰀":2419,"鰃":2420,"鰄":2421,"鰈":2422,"鰊":2423,"鰎":2424,"鱲":2425,"鱼":2426,"鲁":2427,"鲞":2428,"鳩":2429,"鴻":2430,"鵜":2431,"鷹":2432,"鸭":2433,"鹈":2434,"鹿":2435,"麗":2436,"黄":2437,"黒":2438,"黚":2439,"黡":2440,"黨":2441,"黮":2442,"黵":2443,"黷":2444,"龍":2445,"龙":2446,"검":2447,"고":2448,"구":2449,"국":2450,"군":2451,"권":2452,"김":2453,"뀌":2454,"나":2455,"년":2456,"노":2457,"는":2458,"니":2459,"님":2460,"다":2461,"단":2462,"당":2463,"대":2464,"도":2465,"돌":2466,"동":2467,"드":2468,"딩":2469,"레":2470,"려":2471,"로":2472,"루":2473,"마":2474,"막":2475,"맨":2476,"면":2477,"목":2478,"문":2479,"바":2480,"반":2481,"뱅":2482,"번":2483,"법":2484,"별":2485,"빅":2486,"빛":2487,"사":2488,"서":2489,"성":2490,"세":2491,"셜":2492,"소":2493,"스":2494,"습":2495,"시":2496,"신":2497,"양":2498,"어":2499,"었":2500,"에":2501,"영":2502,"오":2503,"왕":2504,"월":2505,"웨":2506,"유":2507,"으":2508,"읍":2509,"이":2510,"인":2511,"일":2512,"자":2513,"작":2514,"적":2515,"전":2516,"정":2517,"제":2518,"조":2519,"주":2520,"지":2521,"짝":2522,"창":2523,"천":2524,"체":2525,"추":2526,"층":2527,"치":2528,"키":2529,"태":2530,"터":2531,"트":2532,"티":2533,"폐":2534,"피":2535,"한":2536,"향":2537,"호":2538,"회":2539,"ﬁ":2540,"ﬂ":2541,"ﷲ":2542,"︰":2543,"！":2544,"＄":2545,"（":2546,"）":2547,"＊":2548,"，":2549,"－":2550,"．":2551,"：":2552,"；":2553,"？":2554,"［":2555,"］":2556,"ｔ":2557,"､":2558,"･":2559,"ｫ":2560,"ｲ":2561,"ｻ":2562,"ｿ":2563,"ﾜ":2564,"ﾟ":2565,"￠":2566,"￥":2567,"�":2568,"𐌰":2569,"𐌴":2570,"𐌸":2571,"𐌼":2572,"𐌽":2573,"𐍃":2574,"𐍉":2575,"𠐄":2576,"𢥲":2577,"𧵮":2578,"en":2579,"er":2580,"in":2581,"ch":2582,"th":2583,"an":2584,"es":2585,"on":2586,"un":2587,"is":2588,"at":2589,"it":2590,"ie":2591,"or":2592,"al":2593,"the":2594,"re":2595,"st":2596,"ar":2597,"der":2598,"ich":2599,"ion":2600,"as":2601,"ur":2602,"le":2603,"te":2604,"and":2605,"of":2606,"ein":2607,"ge":2608,"ent":2609,"to":2610,"be":2611,"de":2612,"au":2613,"und":2614,"om":2615,"ung":2616,"ing":2617,"die":2618,"ro":2619,"den":2620,"el":2621,"wi":2622,"ig":2623,"ic":2624,"ed":2625,"ol":2626,"am":2627,"us":2628,"im":2629,"il":2630,"ter":2631,"ver":2632,"for":2633,"ten":2634,"sch":2635,"ot":2636,"se":2637,"ation":2638,"zu":2639,"op":2640,"ab":2641,"he":2642,"ut":2643,"ra":2644,"we":2645,"ies":2646,"ist":2647,"hr":2648,"-@":2649,"@-@":2650,"em":2651,"ul":2652,"os":2653,"ct":2654,"ne":2655,"ber":2656,"qu":2657,"gen":2658,"lich":2659,"ve":2660,"ap":2661,"ür":2662,"icht":2663,"all":2664,"um":2665,"isch":2666,"das":2667,"ier":2668,"ir":2669,"pro":2670,"ke":2671,"that":2672,"con":2673,"est":2674,"omm":2675,"ess":2676,"are":2677,"ach":2678,"so":2679,"auf":2680,"wir":2681,"von":2682,"ce":2683,"wer":2684,"sp":2685,"ad":2686,"id":2687,"wh":2688,"ll":2689,"In":2690,"et":2691,"für":2692,"mit":2693,"our":2694,"ly":2695,"kt":2696,"ere":2697,"ort":2698,"eine":2699,"if":2700,"la":2701,"des":2702,"urop":2703,"ck":2704,"quot":2705,"ind":2706,"with":2707,"tr":2708,"The":2709,"su":2710,"pr":2711,"ow":2712,"aus":2713,"dies":2714,"ou":2715,"Ver":2716,"dem":2717,"Europ":2718,"af":2719,"me":2720,"iv":2721,"ment":2722,"ag":2723,"ell":2724,"ts":2725,"men":2726,"ate":2727,"iss":2728,"ha":2729,"apos":2730,"ay":2731,"ex":2732,"Un":2733,"ungen":2734,"gr":2735,"nen":2736,"ta":2737,"ben":2738,"ischen":2739,"fr":2740,"com":2741,"co":2742,"this":2743,"lo":2744,"00":2745,"ien":2746,"not":2747,"res":2748,"ze":2749,"An":2750,"Sie":2751,"nicht":2752,"sich":2753,"ust":2754,"art":2755,"ity":2756,"ges":2757,"ive":2758,"ho":2759,"ma":2760,"ant":2761,"ers":2762,"St":2763,"ah":2764,"end":2765,"über":2766,"Re":2767,"werden":2768,"ib":2769,"än":2770,"ann":2771,"dass":2772,"auch":2773,"lie":2774,"li":2775,"ial":2776,"ser":2777,"by":2778,"port":2779,"have":2780,"wor":2781,"sen":2782,"fa":2783,"Die":2784,"igen":2785,"vor":2786,"will":2787,"uld":2788,"wo":2789,"ht":2790,"Be":2791,"pe":2792,"its":2793,"ern":2794,"you":2795,"fe":2796,"tel":2797,"oll":2798,"ommiss":2799,"da":2800,"tz":2801,"ik":2802,"als":2803,"iel":2804,"du":2805,"man":2806,"hen":2807,"wie":2808,"ions":2809,"Th":2810,"mo":2811,"no":2812,"Europe":2813,"ac":2814,"was":2815,"Sch":2816,"We":2817,"hal":2818,"ther":2819,"tra":2820,"per":2821,"ungs":2822,"which":2823,"ted":2824,"ste":2825,"has":2826,"ommission":2827,"..":2828,"up":2829,"Pro":2830,"sind":2831,"str":2832,"form":2833,"ident":2834,"schaf":2835,"from":2836,"can":2837,"age":2838,"out":2839,"fer":2840,"einer":2841,"wird":2842,"En":2843,"ip":2844,"ard":2845,"fü":2846,"able":2847,"hat":2848,"inter":2849,"do":2850,"imm":2851,"fen":2852,"aben":2853,"ug":2854,"bei":2855,"pos":2856,"uss":2857,"one":2858,"ön":2859,"ure":2860,"je":2861,"Par":2862,"Er":2863,"einen":2864,"ische":2865,"fin":2866,"ger":2867,"Ar":2868,"ine":2869,"enn":2870,"pl":2871,"ft":2872,"iz":2873,"bes":2874,"od":2875,"cl":2876,"ise":2877,"Au":2878,"br":2879,"ite":2880,"unter":2881,"err":2882,"ament":2883,"urch":2884,"pol":2885,"iten":2886,"oder":2887,"ang":2888,"haben":2889,"sh":2890,"European":2891,"hren":2892,"ige":2893,"zur":2894,"ide":2895,"ire":2896,"Mit":2897,"Ho":2898,"sie":2899,"ore":2900,"po":2901,"Pr":2902,"also":2903,"ass":2904,"Aus":2905,"200":2906,"uns":2907,"ally":2908,"her":2909,"ia":2910,"ations":2911,"war":2912,"chen":2913,"lichen":2914,"part":2915,"kön":2916,"comp":2917,"ction":2918,"Ein":2919,"Fr":2920,"Wir":2921,"ational":2922,"ition":2923,"mö":2924,"ät":2925,"ult":2926,"ank":2927,"hl":2928,"dr":2929,"aten":2930,"ok":2931,"dern":2932,"nach":2933,"ated":2934,"gan":2935,"spe":2936,"ill":2937,"reg":2938,"che":2939,"io":2940,"ange":2941,"ieren":2942,"sten":2943,"cht":2944,"schaft":2945,"Ge":2946,"very":2947,"ans":2948,"og":2949,"ice":2950,"ob":2951,"äs":2952,"go":2953,"Union":2954,"gro":2955,"stell":2956,"ble":2957,"alle":2958,"ff":2959,"Ich":2960,"Se":2961,"Das":2962,"är":2963,"iert":2964,"cess":2965,"ates":2966,"your":2967,"kann":2968,"leg":2969,"work":2970,"dar":2971,"vel":2972,"EU":2973,"ue":2974,"ear":2975,"yst":2976,"rit":2977,"einem":2978,"hin":2979,"ish":2980,"ander":2981,"durch":2982,"wur":2983,"keit":2984,"elt":2985,"tet":2986,"ight":2987,"Gr":2988,"comm":2989,"Vor":2990,"pt":2991,"Mr":2992,"ord":2993,"It":2994,"ember":2995,"ün":2996,"coun":2997,"können":2998,"national":2999,"weit":3000,"Commission":3001,"Ber":3002,"ystem":3003,"ub":3004,"cre":3005,"ign":3006,"bo":3007,"there":3008,"Herr":3009,"liche":3010,"tim":3011,"use":3012,"ical":3013,"more":3014,"fre":3015,"hre":3016,"ast":3017,"but":3018,"now":3019,"ken":3020,"igh":3021,"beit":3022,"ame":3023,"ome":3024,"ommen":3025,"ance":3026,"pre":3027,"mar":3028,"would":3029,"ör":3030,"Ab":3031,"ary":3032,"ple":3033,"sho":3034,"üs":3035,"ud":3036,"sel":3037,"chte":3038,"ese":3039,"ain":3040,"heit":3041,"ahr":3042,"lic":3043,"Ent":3044,"been":3045,"ak":3046,"Le":3047,"19":3048,"This":3049,"zum":3050,"Europä":3051,"pla":3052,"land":3053,"lin":3054,"cial":3055,"dis":3056,"diese":3057,"zen":3058,"wä":3059,"glich":3060,"tre":3061,"gel":3062,"their":3063,"any":3064,"ile":3065,"min":3066,"bar":3067,"Ges":3068,"other":3069,"gt":3070,"Unter":3071,"should":3072,"ins":3073,"ute":3074,"Al":3075,"chn":3076,"nur":3077,"Pres":3078,"hand":3079,"De":3080,"av":3081,"polit":3082,"uch":3083,"Es":3084,"neh":3085,"mer":3086,"ens":3087,"produ":3088,"cr":3089,"ents":3090,"Der":3091,"Kon":3092,"prov":3093,"way":3094,"unser":3095,"ner":3096,"par":3097,"soll":3098,"act":3099,"ong":3100,"äsident":3101,"new":3102,"ase":3103,"reich":3104,"For":3105,"ution":3106,"noch":3107,"Hotel":3108,"must":3109,"ück":3110,"ierung":3111,"teil":3112,"dieser":3113,"sol":3114,"Dies":3115,"ahl":3116,"gram":3117,"Kommission":3118,"geb":3119,"under":3120,"net":3121,"etz":3122,"ful":3123,"vie":3124,"Sp":3125,"ian":3126,"countr":3127,"...":3128,"kon":3129,"stand":3130,"bere":3131,"bet":3132,"ktion":3133,"fol":3134,"ev":3135,"who":3136,"daß":3137,"ely":3138,"mehr":3139,"mat":3140,"Te":3141,"gem":3142,"tro":3143,"own":3144,"hn":3145,"cent":3146,"Co":3147,"ded":3148,"20":3149,"President":3150,"formation":3151,"sein":3152,"schen":3153,"ces":3154,"müs":3155,"sit":3156,"sup":3157,"sta":3158,"fore":3159,"over":3160,"Inter":3161,"Präsident":3162,"like":3163,"aber":3164,"ings":3165,"ks":3166,"year":3167,"cur":3168,"off":3169,"they":3170,"ments":3171,"ities":3172,"glie":3173,"ual":3174,"kl":3175,"sib":3176,"Auf":3177,"wick":3178,"müssen":3179,"utz":3180,"gre":3181,"wurde":3182,"Um":3183,"anz":3184,"gegen":3185,"ty":3186,"wenn":3187,"ßen":3188,"only":3189,"system":3190,"ef":3191,"immer":3192,"time":3193,"Ma":3194,"leich":3195,"about":3196,"get":3197,"serv":3198,"day":3199,"kommen":3200,"fl":3201,"nah":3202,"Reg":3203,"assen":3204,"stat":3205,"olle":3206,"lament":3207,"Fra":3208,"gesch":3209,"amp":3210,"need":3211,"Mitglie":3212,"Ze":3213,"cts":3214,"nis":3215,"nehmen":3216,"velop":3217,"cy":3218,"bie":3219,"ph":3220,"alt":3221,"pres":3222,"ced":3223,"olog":3224,"zw":3225,"ütz":3226,"sehr":3227,"liament":3228,"ack":3229,"ious":3230,"Parlament":3231,"Mar":3232,"führ":3233,"oc":3234,"cons":3235,"ms":3236,"hnen":3237,"some":3238,"these":3239,"cil":3240,"tell":3241,"fir":3242,"ität":3243,"king":3244,"10":3245,"Member":3246,"ied":3247,"tain":3248,"import":3249,"ild":3250,"ammen":3251,"ative":3252,"dire":3253,"bis":3254,"diesem":3255,"sa":3256,"ld":3257,"det":3258,"ater":3259,"ause":3260,"wen":3261,"Men":3262,"ket":3263,"ors":3264,"ichtig":3265,"setz":3266,"onder":3267,"report":3268,"tern":3269,"ibt":3270,"weiter":3271,"usammen":3272,"vers":3273,"erson":3274,"Bes":3275,"best":3276,"develop":3277,"dif":3278,"kte":3279,"stit":3280,"eines":3281,"ular":3282,"ustr":3283,"such":3284,"gu":3285,"&#":3286,"ility":3287,"ateg":3288,"atz":3289,"ople":3290,"Parliament":3291,"ihre":3292,"erg":3293,"int":3294,"Europäischen":3295,"los":3296,"my":3297,"ures":3298,"halten":3299,"dam":3300,"igkeit":3301,"änd":3302,"ific":3303,"As":3304,"Mitglied":3305,"unden":3306,"sche":3307,"most":3308,"gest":3309,"many":3310,"geben":3311,"ctive":3312,"viel":3313,"möchte":3314,"come":3315,"iven":3316,"rel":3317,"Im":3318,"oper":3319,"entr":3320,"Ne":3321,"mal":3322,"uß":3323,"cle":3324,"sub":3325,"people":3326,"into":3327,"bal":3328,"tho":3329,"ient":3330,"neu":3331,"what":3332,"well":3333,"them":3334,"bas":3335,"ihr":3336,"iden":3337,"inv":3338,"äl":3339,"ism":3340,"Jahr":3341,"conom":3342,"wel":3343,"zeit":3344,"iger":3345,"mon":3346,"ating":3347,"arbeit":3348,"ds":3349,"just":3350,"States":3351,"international":3352,"igt":3353,"lau":3354,"Zeit":3355,"ices":3356,"lung":3357,"Über":3358,"vo":3359,"zie":3360,"hier":3361,"uropä":3362,"pub":3363,"stru":3364,"mach":3365,"Or":3366,"countries":3367,"dition":3368,"fo":3369,"isten":3370,"cause":3371,"ement":3372,"por":3373,"Con":3374,"vis":3375,"view":3376,"Me":3377,"hel":3378,"amen":3379,"techn":3380,"pen":3381,"Ch":3382,"So":3383,"zwe":3384,"than":3385,"och":3386,"Bericht":3387,"xt":3388,"ats":3389,"Frau":3390,"stellen":3391,"pon":3392,"were":3393,"ansp":3394,"ider":3395,"read":3396,"dec":3397,"Coun":3398,"polic":3399,"europä":3400,"itte":3401,"support":3402,"hol":3403,"Menschen":3404,"stütz":3405,"order":3406,"econom":3407,"room":3408,"eing":3409,"les":3410,"ail":3411,"important":3412,"son":3413,"gleich":3414,"ert":3415,"etzt":3416,"Tr":3417,"ieden":3418,"änder":3419,"wend":3420,"led":3421,"legen":3422,"dieses":3423,"partic":3424,"program":3425,"qual":3426,"incl":3427,"agre":3428,"when":3429,"bre":3430,"emp":3431,"Str":3432,"know":3433,"allen":3434,"cont":3435,"first":3436,"gibt":3437,"essen":3438,"vom":3439,"Council":3440,"Land":3441,"tschaft":3442,"ru":3443,"again":3444,"ory":3445,"deut":3446,"ards":3447,"propos":3448,"roug":3449,"ale":3450,"halb":3451,"ages":3452,"12":3453,"zwischen":3454,"oft":3455,"sible":3456,"US":3457,"enz":3458,"ele":3459,"lä":3460,"loc":3461,"Ger":3462,"bin":3463,"Mitgliedsta":3464,"make":3465,"Nach":3466,"rei":3467,"quest":3468,"hotel":3469,"ster":3470,"press":3471,"Entwick":3472,"hör":3473,"ließ":3474,"Pol":3475,"besonder":3476,"take":3477,"vent":3478,"ween":3479,"Fin":3480,"muss":3481,"halt":3482,"Zu":3483,"arge":3484,"gar":3485,"forder":3486,"ence":3487,"proble":3488,"ware":3489,"erv":3490,"bs":3491,"issen":3492,"istr":3493,"cour":3494,"fact":3495,"möglich":3496,"ights":3497,"ives":3498,"where":3499,"between":3500,"fra":3501,"sowie":3502,"Comm":3503,"thing":3504,"eng":3505,"gew":3506,"bed":3507,"Bere":3508,"set":3509,"bu":3510,"äch":3511,"world":3512,"He":3513,"his":3514,"main":3515,"gh":3516,"because":3517,"fort":3518,"unsere":3519,"ject":3520,"keine":3521,"All":3522,"wür":3523,"oh":3524,"see":3525,"Ihre":3526,"Produ":3527,"els":3528,"information":3529,"ural":3530,"uation":3531,"inn":3532,"Mitgliedstaaten":3533,"Fl":3534,"bst":3535,"ßer":3536,"ister":3537,"zial":3538,"mp":3539,"issu":3540,"Europa":3541,"line":3542,"Ihnen":3543,"Her":3544,"akt":3545,"Min":3546,"trag":3547,"bel":3548,"ital":3549,"Arbeit":3550,"ci":3551,"same":3552,"Art":3553,"here":3554,"Grund":3555,"rat":3556,"ous":3557,"cted":3558,"versch":3559,"If":3560,"organ":3561,"spr":3562,"right":3563,"Proble":3564,"finden":3565,"jed":3566,"nat":3567,"made":3568,"zahl":3569,"two":3570,"igung":3571,"bess":3572,"Zusammen":3573,"real":3574,"voll":3575,"ähr":3576,"öff":3577,"Wenn":3578,"sicher":3579,"unkt":3580,"clear":3581,"ionen":3582,"arr":3583,"icher":3584,"ink":3585,"sicht":3586,"years":3587,"bring":3588,"lag":3589,"ße":3590,"Ex":3591,"Rat":3592,"policy":3593,"dit":3594,"ler":3595,"anderen":3596,"wever":3597,"199":3598,"respon":3599,"brauch":3600,"good":3601,"every":3602,"Vorsch":3603,"sc":3604,"ting":3605,"even":3606,"llen":3607,"high":3608,"letz":3609,"ys":3610,"then":3611,"chten":3612,"Kr":3613,"ös":3614,"ständ":3615,"Br":3616,"prom":3617,"weise":3618,"being":3619,"num":3620,"ischer":3621,"throug":3622,"ko":3623,"wa":3624,"schließ":3625,"those":3626,"chä":3627,"unity":3628,"mittel":3629,"cept":3630,"nahmen":3631,"keiten":3632,"med":3633,"fall":3634,"uring":3635,"Pl":3636,"gemein":3637,"spre":3638,"Haus":3639,"diesen":3640,"public":3641,"effe":3642,"Mon":3643,"belie":3644,"welt":3645,"Bereich":3646,"uman":3647,"itik":3648,"währ":3649,"less":3650,"ument":3651,"There":3652,"market":3653,"ional":3654,"amil":3655,"urn":3656,"dann":3657,"ium":3658,"lang":3659,"may":3660,"last":3661,"isation":3662,"find":3663,"att":3664,"Des":3665,"bus":3666,"offen":3667,"cer":3668,"vir":3669,"stehen":3670,"beste":3671,"had":3672,"acht":3673,"deb":3674,"Diese":3675,"jo":3676,"wichtig":3677,"ited":3678,"isen":3679,"fahren":3680,"beg":3681,"zeich":3682,"innen":3683,"person":3684,"vern":3685,"particular":3686,"rest":3687,"wieder":3688,"On":3689,"damit":3690,"tem":3691,"how":3692,"aut":3693,"gener":3694,"trans":3695,"weil":3696,"present":3697,"differ":3698,"requ":3699,"Bo":3700,"gra":3701,"fach":3702,"ändern":3703,"Welt":3704,"process":3705,"lim":3706,"15":3707,"lish":3708,"conc":3709,"del":3710,"wurden":3711,"gehen":3712,"nung":3713,"habe":3714,"Ihr":3715,"ict":3716,"Ja":3717,"Sta":3718,"star":3719,"sure":3720,"ior":3721,"rag":3722,"trä":3723,"play":3724,"possible":3725,"say":3726,"wort":3727,"place":3728,"Hand":3729,"entlich":3730,"lage":3731,"Gro":3732,"wohl":3733,"air":3734,"economic":3735,"unserer":3736,"fun":3737,"stitution":3738,"wirtschaft":3739,"Europäische":3740,"ält":3741,"elle":3742,"Wo":3743,"You":3744,"chts":3745,"reichen":3746,"kr":3747,"No":3748,"Bür":3749,"used":3750,"ven":3751,"ters":3752,"iness":3753,"rent":3754,"val":3755,"aller":3756,"rif":3757,"jedoch":3758,"ick":3759,"ows":3760,"einz":3761,"wirk":3762,"ree":3763,"app":3764,"cor":3765,"ade":3766,"aum":3767,"lobal":3768,"ough":3769,"concern":3770,"incre":3771,"trol":3772,"Was":3773,"Gem":3774,"far":3775,"uro":3776,"tegr":3777,"prote":3778,"To":3779,"führen":3780,"30":3781,"human":3782,"Sicher":3783,"area":3784,"iti":3785,"ausge":3786,"Gen":3787,"System":3788,"fest":3789,"comple":3790,"point":3791,"sim":3792,"di":3793,"ellen":3794,"angen":3795,"neue":3796,"ath":3797,"after":3798,"Än":3799,"put":3800,"political":3801,"industr":3802,"Information":3803,"seine":3804,"ace":3805,"sondern":3806,"Fe":3807,"change":3808,"ants":3809,"lagen":3810,"richt":3811,"ith":3812,"Program":3813,"contin":3814,"hö":3815,"heute":3816,"gestell":3817,"alth":3818,"fund":3819,"help":3820,"want":3821,"eln":3822,"erst":3823,"itt":3824,"Unternehmen":3825,"Änder":3826,"Bar":3827,"ßnahmen":3828,"therefore":3829,"plic":3830,"lassen":3831,"access":3832,"through":3833,"grund":3834,"ince":3835,"uer":3836,"text":3837,"wert":3838,"fahr":3839,"mich":3840,"sur":3841,"000":3842,"Bet":3843,"does":3844,"tens":3845,"development":3846,"ready":3847,"transp":3848,"exper":3849,"ix":3850,"aur":3851,"Wie":3852,"bereits":3853,"appro":3854,"isp":3855,"rights":3856,"Ro":3857,"kle":3858,"ker":3859,"could":3860,"adt":3861,"level":3862,"satz":3863,"sollte":3864,"Ind":3865,"At":3866,"prof":3867,"Teil":3868,"provide":3869,"dat":3870,"europäischen":3871,"ganz":3872,"Man":3873,"number":3874,"against":3875,"raft":3876,"exam":3877,"great":3878,"50":3879,"var":3880,"govern":3881,"ability":3882,"Pre":3883,"loy":3884,"sign":3885,"icult":3886,"key":3887,"itä":3888,"pra":3889,"gung":3890,"kom":3891,"Entwicklung":3892,"utions":3893,"hist":3894,"ohne":3895,"Frage":3896,"within":3897,"ierte":3898,"ihrer":3899,"sollten":3900,"finan":3901,"avail":3902,"country":3903,"back":3904,"pect":3905,"neuen":3906,"selbst":3907,"fung":3908,"fle":3909,"much":3910,"zug":3911,"look":3912,"Am":3913,"Richt":3914,"ude":3915,"old":3916,"itz":3917,"tal":3918,"führt":3919,"einfach":3920,"offer":3921,"Jahren":3922,"open":3923,"ason":3924,"kun":3925,"Gemein":3926,"Mö":3927,"operation":3928,"Mo":3929,"oftware":3930,"viron":3931,"andere":3932,"both":3933,"sm":3934,"Wer":3935,"18":3936,"large":3937,"Daten":3938,"gent":3939,"ics":3940,"cap":3941,"ga":3942,"Ko":3943,"unterstütz":3944,"still":3945,"Leben":3946,"ierten":3947,"eigen":3948,"Chin":3949,"free":3950,"meas":3951,"ätz":3952,"ved":3953,"Bürger":3954,"immt":3955,"agement":3956,"que":3957,"position":3958,"Kom":3959,"group":3960,"lick":3961,"hop":3962,"woll":3963,"hlen":3964,"ros":3965,"down":3966,"denen":3967,"ulation":3968,"ests":3969,"fur":3970,"schn":3971,"inst":3972,"Is":3973,"priv":3974,"Part":3975,"grö":3976,"zwei":3977,"vironment":3978,"fä":3979,"posit":3980,"consider":3981,"ep":3982,"ask":3983,"social":3984,"machen":3985,"ffic":3986,"ator":3987,"liegt":3988,"hän":3989,"tow":3990,"different":3991,"fut":3992,"long":3993,"unt":3994,"luss":3995,"quality":3996,"sk":3997,"cit":3998,"bur":3999,"esen":4000,"without":4001,"bil":4002,"zeug":4003,"une":4004,"Ste":4005,"seit":4006,"schafts":4007,"ret":4008,"spec":4009,"kehr":4010,"geht":4011,"Kommiss":4012,"That":4013,"ctor":4014,"Mittel":4015,"eld":4016,"fern":4017,"arbe":4018,"sprechen":4019,"bietet":4020,"Bed":4021,"inner":4022,"verschieden":4023,"ctions":4024,"licher":4025,"believe":4026,"services":4027,"Fre":4028,"ux":4029,"komm":4030,"current":4031,"kten":4032,"But":4033,"Stand":4034,"Da":4035,"ittee":4036,"alten":4037,"power":4038,"too":4039,"az":4040,"gef":4041,"nahme":4042,"ways":4043,"ren":4044,"üh":4045,"dazu":4046,"ised":4047,"ision":4048,"global":4049,"require":4050,"ime":4051,"future":4052,"inc":4053,"already":4054,"eben":4055,"statt":4056,"rap":4057,"certain":4058,"available":4059,"viele":4060,"strateg":4061,"cord":4062,"könn":4063,"Dem":4064,"Internet":4065,"ship":4066,"11":4067,"besser":4068,"kes":4069,"besondere":4070,"Person":4071,"besch":4072,"jetzt":4073,"ivid":4074,"fil":4075,"aher":4076,"pass":4077,"sor":4078,"bt":4079,"think":4080,"cannot":4081,"ichte":4082,"Wor":4083,"thor":4084,"ispiel":4085,"chan":4086,"ists":4087,"ustom":4088,"mir":4089,"Möglich":4090,"Ziel":4091,"business":4092,"ves":4093,"member":4094,"let":4095,"today":4096,"met":4097,"ollow":4098,"Arbe":4099,"darauf":4100,"ize":4101,"gestellt":4102,"course":4103,"lif":4104,"93":4105,"ER":4106,"mb":4107,"atur":4108,"findet":4109,"disc":4110,"iver":4111,"Maßnahmen":4112,"service":4113,"amer":4114,"ktur":4115,"law":4116,"91":4117,"stellung":4118,"sehen":4119,"bau":4120,"legal":4121,"ienst":4122,"2009":4123,"Finanz":4124,"before":4125,"design":4126,"ritt":4127,"uf":4128,"employ":4129,"gut":4130,"ness":4131,"betr":4132,"ahmen":4133,"omen":4134,"nor":4135,"iß":4136,"recht":4137,"entwick":4138,"Tre":4139,"cing":4140,"kur":4141,"technolog":4142,"redu":4143,"uten":4144,"environment":4145,"row":4146,"Energ":4147,"klär":4148,"Res":4149,"Rahmen":4150,"denn":4151,"products":4152,"Commissioner":4153,"question":4154,"enter":4155,"curity":4156,"uck":4157,"Informationen":4158,"ismus":4159,"isl":4160,"opt":4161,"dafür":4162,"nisse":4163,"integr":4164,"okrat":4165,"neg":4166,"ically":4167,"invest":4168,"mor":4169,"anken":4170,"pf":4171,"agen":4172,"seiner":4173,"har":4174,"imple":4175,"isk":4176,"suc":4177,"Med":4178,"ience":4179,"zus":4180,"red":4181,"schon":4182,"Russ":4183,"folg":4184,"case":4185,"ving":4186,"issue":4187,"wissen":4188,"situation":4189,"arch":4190,"imin":4191,"special":4192,"Fall":4193,"data":4194,"falls":4195,"einige":4196,"lossen":4197,"olution":4198,"debate":4199,"EN":4200,"fast":4201,"jor":4202,"ately":4203,"Po":4204,"nam":4205,"ahre":4206,"bieten":4207,"gend":4208,"energ":4209,"verb":4210,"ante":4211,"citiz":4212,"Af":4213,"zentr":4214,"Herrn":4215,"saf":4216,"Com":4217,"cond":4218,"ues":4219,"bereit":4220,"nun":4221,"car":4222,"fully":4223,"gesam":4224,"Amer":4225,"begr":4226,"enth":4227,"Kommissar":4228,"Kin":4229,"financial":4230,"zusammen":4231,"Euro":4232,"Tra":4233,"spra":4234,"öl":4235,"rooms":4236,"necess":4237,"Lage":4238,"individ":4239,"problem":4240,"conf":4241,"reason":4242,"sam":4243,"ides":4244,"alen":4245,"leist":4246,"Serv":4247,"gress":4248,"nov":4249,"proposal":4250,"And":4251,"setzung":4252,"offers":4253,"follow":4254,"custom":4255,"liegen":4256,"ont":4257,"activ":4258,"meine":4259,"achie":4260,"Bei":4261,"meet":4262,"kunft":4263,"bl":4264,"fair":4265,"wach":4266,"page":4267,"stellt":4268,"würde":4269,"Politik":4270,"Qu":4271,"zurück":4272,"wollen":4273,"However":4274,"Ad":4275,"direct":4276,"said":4277,"hof":4278,"Verein":4279,"16":4280,"char":4281,"adv":4282,"ihren":4283,"sagen":4284,"uni":4285,"udget":4286,"illion":4287,"14":4288,"plan":4289,"cost":4290,"ziel":4291,"heiten":4292,"immung":4293,"ett":4294,"miss":4295,"regard":4296,"worden":4297,"Spe":4298,"ica":4299,"Rechts":4300,"äß":4301,"ible":4302,"heits":4303,"Eine":4304,"Aussch":4305,"example":4306,"Arbeits":4307,"grow":4308,"rie":4309,"ply":4310,"top":4311,"Für":4312,"iving":4313,"pay":4314,"steht":4315,"ually":4316,"antwort":4317,"means":4318,"bewer":4319,"Pal":4320,"bsite":4321,"haf":4322,"La":4323,"unseren":4324,"auto":4325,"ilt":4326,"Jahre":4327,"iele":4328,"cas":4329,"major":4330,"abil":4331,"folgen":4332,"Länder":4333,"verfü":4334,"hil":4335,"punkt":4336,"uding":4337,"count":4338,"nie":4339,"applic":4340,"allem":4341,"Best":4342,"waren":4343,"iter":4344,"pend":4345,"gl":4346,"action":4347,"call":4348,"compet":4349,"IN":4350,"Lös":4351,"inen":4352,"na":4353,"lose":4354,"isierung":4355,"ron":4356,"taken":4357,"ktionen":4358,"ward":4359,"kün":4360,"Kolle":4361,"amend":4362,"cell":4363,"stär":4364,"Our":4365,"hig":4366,"tun":4367,"small":4368,"ationen":4369,"ichter":4370,"With":4371,"äm":4372,"famil":4373,"legt":4374,"Proje":4375,"Vorschlag":4376,"ily":4377,"Lin":4378,"13":4379,"aupt":4380,"asse":4381,"during":4382,"Nor":4383,"since":4384,"schein":4385,"Unterstütz":4386,"bringen":4387,"author":4388,"iff":4389,"ensure":4390,"using":4391,"Parlaments":4392,"struct":4393,"equ":4394,"based":4395,"China":4396,"wes":4397,"Und":4398,"measures":4399,"cken":4400,"eas":4401,"allow":4402,"mus":4403,"Ant":4404,"ffen":4405,"common":4406,"agreement":4407,"oren":4408,"thank":4409,"discuss":4410,"Zwe":4411,"defin":4412,"sozial":4413,"Recht":4414,"modern":4415,"energy":4416,"wicht":4417,"ying":4418,"Änderungs":4419,"erhalten":4420,"citizens":4421,"Zimmer":4422,"ential":4423,"gangen":4424,"Stadt":4425,"sy":4426,"scheid":4427,"vi":4428,"ordin":4429,"etwas":4430,"während":4431,"build":4432,"schrif":4433,"doch":4434,"Ur":4435,"ound":4436,"conta":4437,"setzen":4438,"trib":4439,"leben":4440,"Fir":4441,"side":4442,"lungs":4443,"ding":4444,"success":4445,"arbeiten":4446,"control":4447,"road":4448,"give":4449,"AN":4450,"including":4451,"each":4452,"ürlich":4453,"utes":4454,"colle":4455,"hm":4456,"Techn":4457,"vote":4458,"bank":4459,"inde":4460,"Mein":4461,"Ser":4462,"linie":4463,"cult":4464,"further":4465,"25":4466,"dra":4467,"gehör":4468,"areas":4469,"Web":4470,"Su":4471,"necessary":4472,"tes":4473,"ased":4474,"ized":4475,"Unterstützung":4476,"col":4477,"hmen":4478,"log":4479,"aren":4480,"2010":4481,"city":4482,"hält":4483,"Geschä":4484,"specific":4485,"Durch":4486,"agt":4487,"ordnung":4488,"AT":4489,"stre":4490,"einmal":4491,"Markt":4492,"ca":4493,"Bild":4494,"rece":4495,"result":4496,"gesetzt":4497,"hope":4498,"ahn":4499,"spiel":4500,"ablish":4501,"legisl":4502,"security":4503,"verwen":4504,"problems":4505,"Verfü":4506,"sing":4507,"aid":4508,"24":4509,"Problem":4510,"next":4511,"insbesondere":4512,"unde":4513,"mil":4514,"IT":4515,"three":4516,"ache":4517,"porte":4518,"ird":4519,"utzen":4520,"atic":4521,"schaften":4522,"Qual":4523,"cho":4524,"außer":4525,"sum":4526,"Deb":4527,"UN":4528,"budget":4529,"Zusammenarbeit":4530,"earch":4531,"wish":4532,"ared":4533,"bede":4534,"Ländern":4535,"umf":4536,"verl":4537,"ersten":4538,"vention":4539,"lik":4540,"17":4541,"few":4542,"glichen":4543,"letzten":4544,"fts":4545,"EC":4546,"IS":4547,"why":4548,"kauf":4549,"Sit":4550,"pack":4551,"addition":4552,"opport":4553,"company":4554,"establish":4555,"zess":4556,"2008":4557,"Committee":4558,"Spiel":4559,"histor":4560,"gang":4561,"größ":4562,"ines":4563,"incip":4564,"ged":4565,"genommen":4566,"dig":4567,"ES":4568,"kä":4569,"stim":4570,"ichten":4571,"ditions":4572,"ules":4573,"cover":4574,"Mad":4575,"ining":4576,"ktiv":4577,"Deut":4578,"Sicherheit":4579,"health":4580,"New":4581,"tragen":4582,"Form":4583,"cooperation":4584,"lead":4585,"pat":4586,"Dar":4587,"pop":4588,"commun":4589,"Umwelt":4590,"lungen":4591,"whe":4592,"leicht":4593,"wal":4594,"dress":4595,"walt":4596,"princip":4597,"entlichen":4598,"glau":4599,"ements":4600,"spl":4601,"Rest":4602,"implement":4603,"inform":4604,"Bel":4605,"while":4606,"besteht":4607,"pract":4608,"lt":4609,"however":4610,"hap":4611,"ja":4612,"start":4613,"Dienst":4614,"invol":4615,"esse":4616,"Regierung":4617,"ext":4618,"streng":4619,"sequ":4620,"Beit":4621,"beim":4622,"markt":4623,"aurant":4624,"Group":4625,"Kunden":4626,"Fragen":4627,"systems":4628,"drei":4629,"umen":4630,"Ob":4631,"programm":4632,"öt":4633,"zept":4634,"fiel":4635,"given":4636,"Tag":4637,"ellschaft":4638,"igten":4639,"Hin":4640,"ises":4641,"treten":4642,"ierungs":4643,"jen":4644,"life":4645,"einge":4646,"tour":4647,"wäre":4648,"Ital":4649,"ning":4650,"Ir":4651,"wär":4652,"needs":4653,"protection":4654,"lay":4655,"örder":4656,"San":4657,"cially":4658,"zü":4659,"gaben":4660,"Organ":4661,"Gesch":4662,"bit":4663,"What":4664,"uc":4665,"itäten":4666,"uge":4667,"fte":4668,"cher":4669,"complete":4670,"lemen":4671,"ified":4672,"führung":4673,"Energie":4674,"region":4675,"book":4676,"shall":4677,"igin":4678,"licht":4679,"zo":4680,"Sol":4681,"rele":4682,"Ben":4683,"Kollegen":4684,"alled":4685,"mot":4686,"refer":4687,"ising":4688,"Hil":4689,"Bedeut":4690,"clos":4691,"consum":4692,"They":4693,"wendung":4694,"handelt":4695,"don":4696,"government":4697,"ialog":4698,"diff":4699,"rechte":4700,"sibility":4701,"ively":4702,"zieh":4703,"prü":4704,"Stra":4705,"muß":4706,"Flug":4707,"anal":4708,"spol":4709,"zeigt":4710,"Seite":4711,"Gu":4712,"atte":4713,"gether":4714,"100":4715,"exp":4716,"häng":4717,"compan":4718,"porteur":4719,"always":4720,"Mal":4721,"Ap":4722,"better":4723,"ader":4724,"asch":4725,"House":4726,"genau":4727,"Bedeutung":4728,"ichterstat":4729,"care":4730,"appe":4731,"stay":4732,"iet":4733,"ätze":4734,"iety":4735,"conne":4736,"eig":4737,"nal":4738,"initi":4739,"accept":4740,"Not":4741,"step":4742,"deren":4743,"bereich":4744,"ton":4745,"Ergeb":4746,"half":4747,"did":4748,"working":4749,"hang":4750,"Lis":4751,"interest":4752,"Vol":4753,"welche":4754,"dabei":4755,"Besch":4756,"politischen":4757,"poin":4758,"Entscheid":4759,"mult":4760,"reach":4761,"load":4762,"tradition":4763,"USA":4764,"Vertrag":4765,"pur":4766,"Eng":4767,"dren":4768,"programme":4769,"self":4770,"Eben":4771,"When":4772,"United":4773,"Mrs":4774,"ivil":4775,"production":4776,"ling":4777,"2007":4778,"full":4779,"bind":4780,"gabe":4781,"Community":4782,"Aber":4783,"rapporteur":4784,"große":4785,"respect":4786,"Bus":4787,"mm":4788,"Regel":4789,"druck":4790,"crit":4791,"kosten":4792,"elf":4793,"ina":4794,"ildren":4795,"seinen":4796,"Namen":4797,"kenn":4798,"Programm":4799,"recent":4800,"wirklich":4801,"trade":4802,"These":4803,"Auto":4804,"uter":4805,"state":4806,"bon":4807,"transport":4808,"mater":4809,"rän":4810,"Mus":4811,"ingungen":4812,"chäft":4813,"dom":4814,"stra":4815,"Verfügung":4816,"124":4817,"Port":4818,"ane":4819,"assung":4820,"ategor":4821,"Mil":4822,"located":4823,"bekann":4824,"großen":4825,"EUR":4826,"cks":4827,"Fraktion":4828,"centr":4829,"water":4830,"Strateg":4831,"Service":4832,"issues":4833,"träge":4834,"km":4835,"lad":4836,"Thema":4837,"difficult":4838,"deal":4839,"Staaten":4840,"exist":4841,"ww":4842,"low":4843,"Rom":4844,"Fun":4845,"daher":4846,"wide":4847,"Gar":4848,"Kinder":4849,"notwend":4850,"particularly":4851,"term":4852,"Schutz":4853,"word":4854,"together":4855,"account":4856,"Berichterstat":4857,"uft":4858,"kets":4859,"ross":4860,"Probleme":4861,"date":4862,"dan":4863,"itor":4864,"Seiten":4865,"Hier":4866,"management":4867,"AR":4868,"making":4869,"Tur":4870,"non":4871,"wee":4872,"davon":4873,"Fol":4874,"role":4875,"mut":4876,"näch":4877,"Kar":4878,"become":4879,"opp":4880,"Möglichkeit":4881,"ches":4882,"erforder":4883,"deta":4884,"clus":4885,"hy":4886,"Beispiel":4887,"whether":4888,"uments":4889,"gelegen":4890,"proje":4891,"Auch":4892,"tax":4893,"Lebens":4894,"darüber":4895,"extre":4896,"jeder":4897,"contrib":4898,"list":4899,"ention":4900,"Zug":4901,"iben":4902,"Famil":4903,"found":4904,"second":4905,"enten":4906,"ners":4907,"Wett":4908,"ose":4909,"CO":4910,"terms":4911,"reform":4912,"Zahl":4913,"reco":4914,"halts":4915,"vious":4916,"joy":4917,"research":4918,"proper":4919,"wand":4920,"ash":4921,"ikan":4922,"going":4923,"unterstützen":4924,"Fort":4925,"sever":4926,"bestimm":4927,"stud":4928,"aty":4929,"address":4930,"könnte":4931,"basis":4932,"Wahl":4933,"sector":4934,"iate":4935,"Gener":4936,"views":4937,"AS":4938,"fon":4939,"darf":4940,"ifen":4941,"hervor":4942,"oth":4943,"short":4944,"weisen":4945,"suchen":4946,"kommt":4947,"pers":4948,"carr":4949,"schied":4950,"40":4951,"Viel":4952,"guar":4953,"rad":4954,"commit":4955,"express":4956,"ums":4957,"instit":4958,"ölker":4959,"Zukunft":4960,"meiner":4961,"ocr":4962,"International":4963,"another":4964,"Frauen":4965,"material":4966,"tschafts":4967,"around":4968,"eigenen":4969,"Mill":4970,"kein":4971,"Weg":4972,"schnell":4973,"ziehen":4974,"kre":4975,"speak":4976,"alles":4977,"lichkeit":4978,"fect":4979,"fert":4980,"gegenüber":4981,"hoto":4982,"Weise":4983,"geord":4984,"ars":4985,"aim":4986,"enzen":4987,"children":4988,"benef":4989,"Ihrer":4990,"Kre":4991,"Software":4992,"iod":4993,"aff":4994,"Per":4995,"bild":4996,"conditions":4997,"profess":4998,"decision":4999,"üt":5000,"whole":5001,"vour":5002,"2000":5003,"weitere":5004,"women":5005,"Sk":5006,"kämp":5007,"lack":5008,"entfern":5009,"klar":5010,"gese":5011,"Als":5012,"inclu":5013,"politik":5014,"dist":5015,"matter":5016,"schließlich":5017,"sowohl":5018,"Air":5019,"wier":5020,"prior":5021,"site":5022,"stimmung":5023,"writ":5024,"industry":5025,"cut":5026,"org":5027,"Vers":5028,"schutz":5029,"sele":5030,"innov":5031,"Gegen":5032,"cel":5033,"Situation":5034,"sto":5035,"companies":5036,"burg":5037,"ieg":5038,"wegen":5039,"dings":5040,"install":5041,"igr":5042,"negot":5043,"blick":5044,"Produkt":5045,"local":5046,"xim":5047,"neten":5048,"ipt":5049,"Industr":5050,"Mehr":5051,"erreichen":5052,"Alle":5053,"frei":5054,"selves":5055,"natürlich":5056,"gn":5057,"auer":5058,"Wettbewer":5059,"guarante":5060,"scheiden":5061,"II":5062,"doc":5063,"personal":5064,"comes":5065,"Richtlinie":5066,"show":5067,"racht":5068,"create":5069,"coming":5070,"done":5071,"ultur":5072,"gesehen":5073,"light":5074,"geschlossen":5075,"espe":5076,"yo":5077,"frien":5078,"weg":5079,"improv":5080,"möchten":5081,"iges":5082,"ika":5083,"vest":5084,"month":5085,"Artik":5086,"anc":5087,"him":5088,"lauf":5089,"Forsch":5090,"cris":5091,"Ende":5092,"distr":5093,"typ":5094,"DE":5095,"ktor":5096,"cal":5097,"effect":5098,"Grup":5099,"besonders":5100,"Rolle":5101,"atten":5102,"gere":5103,"Zentr":5104,"automat":5105,"centre":5106,"isches":5107,"proced":5108,"ury":5109,"ody":5110,"hä":5111,"ihnen":5112,"regul":5113,"Fo":5114,"near":5115,"various":5116,"visit":5117,"approach":5118,"ban":5119,"user":5120,"innerhalb":5121,"abhäng":5122,"face":5123,"favour":5124,"job":5125,"ences":5126,"oney":5127,"Chr":5128,"zip":5129,"Minister":5130,"äuß":5131,"spolitik":5132,"demand":5133,"gegeben":5134,"amm":5135,"ably":5136,"Haupt":5137,"million":5138,"isions":5139,"60":5140,"especially":5141,"soc":5142,"hoch":5143,"dessen":5144,"beach":5145,"ief":5146,"geführt":5147,"ety":5148,"amework":5149,"ground":5150,"Afr":5151,"Verbrauch":5152,"äd":5153,"sprache":5154,"Fahr":5155,"Währ":5156,"experience":5157,"finanz":5158,"ativen":5159,"continue":5160,"break":5161,"befindet":5162,"verschiedenen":5163,"really":5164,"cording":5165,"origin":5166,"dür":5167,"project":5168,"hard":5169,"facil":5170,"product":5171,"Terr":5172,"Den":5173,"pose":5174,"ministr":5175,"crisis":5176,"equip":5177,"resolution":5178,"Schluss":5179,"post":5180,"third":5181,"Lie":5182,"rä":5183,"German":5184,"80":5185,"private":5186,"feat":5187,"head":5188,"Je":5189,"employment":5190,"IC":5191,"vielen":5192,"Bl":5193,"imp":5194,"internationalen":5195,"europäische":5196,"samen":5197,"Sy":5198,"instr":5199,"resour":5200,"Kol":5201,"hatte":5202,"Grün":5203,"understand":5204,"fficient":5205,"lines":5206,"trodu":5207,"entfernt":5208,"läs":5209,"progress":5210,"ende":5211,"run":5212,"Wirtschaft":5213,"ots":5214,"big":5215,"Wind":5216,"rop":5217,"food":5218,"Ausschuss":5219,"negoti":5220,"ons":5221,"ifiz":5222,"tag":5223,"War":5224,"dou":5225,"dort":5226,"serious":5227,"Geschäfts":5228,"oment":5229,"Berichterstatter":5230,"ization":5231,"communic":5232,"turn":5233,"though":5234,"Comp":5235,"directive":5236,"rael":5237,"called":5238,"represent":5239,"regional":5240,"sport":5241,"antrag":5242,"test":5243,"opin":5244,"Deutsch":5245,"Ihren":5246,"Meinung":5247,"ivers":5248,"ksam":5249,"kung":5250,"Transp":5251,"gentlemen":5252,"Wirtschafts":5253,"wind":5254,"2006":5255,"lock":5256,"software":5257,"something":5258,"lands":5259,"ifft":5260,"Char":5261,"Li":5262,"institution":5263,"frage":5264,"adop":5265,"version":5266,"ils":5267,"Partner":5268,"contra":5269,"introdu":5270,"My":5271,"period":5272,"itself":5273,"Tour":5274,"asing":5275,"TO":5276,"hinaus":5277,"Technolog":5278,"Uhr":5279,"welcome":5280,"draw":5281,"Gesund":5282,"Invest":5283,"single":5284,"iday":5285,"AL":5286,"genann":5287,"mäß":5288,"ances":5289,"ativ":5290,"ugen":5291,"zwar":5292,"schaffen":5293,"tele":5294,"anzu":5295,"rules":5296,"forward":5297,"Cl":5298,"Madam":5299,"ither":5300,"Fest":5301,"organis":5302,"ühr":5303,"kind":5304,"peace":5305,"ino":5306,"agr":5307,"general":5308,"urs":5309,"Rück":5310,"erste":5311,"ichtet":5312,"Nutz":5313,"atives":5314,"ago":5315,"fang":5316,"agree":5317,"läge":5318,"gern":5319,"excell":5320,"Kl":5321,"Lösung":5322,"close":5323,"gesagt":5324,"ols":5325,"direkt":5326,"keep":5327,"RO":5328,"name":5329,"Artikel":5330,"among":5331,"ierungen":5332,"ults":5333,"Dire":5334,"hlt":5335,"town":5336,"ließen":5337,"grat":5338,"El":5339,"pa":5340,"mark":5341,"langu":5342,"optim":5343,"werk":5344,"einzel":5345,"Ta":5346,"Komm":5347,"Abgeord":5348,"begrü":5349,"mos":5350,"nehmer":5351,"hät":5352,"often":5353,"Frei":5354,"house":5355,"ände":5356,"unehmen":5357,"table":5358,"terr":5359,"ichts":5360,"affen":5361,"strong":5362,"deli":5363,"ingen":5364,"Zusammenhang":5365,"Germany":5366,"bestehen":5367,"she":5368,"imate":5369,"ov":5370,"Gebie":5371,"Hilfe":5372,"folgt":5373,"several":5374,"ferenz":5375,"cke":5376,"mention":5377,"flex":5378,"ped":5379,"home":5380,"Präsidentin":5381,"Entschließ":5382,"subject":5383,"growth":5384,"institutions":5385,"Gleich":5386,"politische":5387,"Hotels":5388,"anges":5389,"event":5390,"AG":5391,"taking":5392,"ritte":5393,"Dr":5394,"least":5395,"vol":5396,"milit":5397,"entsprechen":5398,"wahr":5399,"zeitig":5400,"Demokrat":5401,"ived":5402,"towards":5403,"Fisch":5404,"online":5405,"TV":5406,"function":5407,"weis":5408,"igkeiten":5409,"ragen":5410,"individual":5411,"range":5412,"absol":5413,"gelegt":5414,"ours":5415,"Spra":5416,"Uns":5417,"network":5418,"Projekt":5419,"money":5420,"hnt":5421,"Pe":5422,"ians":5423,"AC":5424,"konn":5425,"Treaty":5426,"Dieses":5427,"idency":5428,"aussch":5429,"cript":5430,"leistungen":5431,"ets":5432,"Jan":5433,"Gä":5434,"ittle":5435,"Deshalb":5436,"leis":5437,"once":5438,"Verantwort":5439,"Do":5440,"extrem":5441,"particip":5442,"orn":5443,"increase":5444,"positive":5445,"Region":5446,"Ac":5447,"teilung":5448,"Car":5449,"beiden":5450,"Wasser":5451,"iere":5452,"Ele":5453,"iken":5454,"ffiz":5455,"following":5456,"opportunity":5457,"reicht":5458,"ival":5459,"World":5460,"sweise":5461,"away":5462,"field":5463,"flo":5464,"ican":5465,"Dis":5466,"Entwicklungs":5467,"standards":5468,"ote":5469,"enjoy":5470,"beh":5471,"Natur":5472,"Frank":5473,"stain":5474,"erien":5475,"idar":5476,"auen":5477,"Kü":5478,"wün":5479,"racy":5480,"halte":5481,"days":5482,"Go":5483,"hler":5484,"asst":5485,"dest":5486,"Produkte":5487,"IP":5488,"Haushalts":5489,"class":5490,"einander":5491,"weniger":5492,"Wes":5493,"daran":5494,"zogen":5495,"Emp":5496,"Red":5497,"technology":5498,"unserem":5499,"excellent":5500,"entscheiden":5501,"web":5502,"bitte":5503,"comfort":5504,"prochen":5505,"Sw":5506,"teilen":5507,"oun":5508,"Gre":5509,"Gemeinschaft":5510,"Stud":5511,"Members":5512,"macht":5513,"feel":5514,"price":5515,"forderungen":5516,"ification":5517,"Zust":5518,"partners":5519,"ünst":5520,"icle":5521,"illa":5522,"Klim":5523,"things":5524,"ones":5525,"Kosten":5526,"resources":5527,"grün":5528,"betre":5529,"fäh":5530,"pot":5531,"ference":5532,"mag":5533,"Sep":5534,"tlich":5535,"hunder":5536,"Bank":5537,"obje":5538,"Berlin":5539,"Fil":5540,"Park":5541,"proposals":5542,"AP":5543,"Date":5544,"gewähr":5545,"Kultur":5546,"uellen":5547,"zer":5548,"def":5549,"amendments":5550,"bi":5551,"uses":5552,"23":5553,"Bas":5554,"idence":5555,"isse":5556,"troll":5557,"21":5558,"via":5559,"Ru":5560,"ruck":5561,"framework":5562,"abo":5563,"groß":5564,"öffentlichen":5565,"prä":5566,"mean":5567,"foc":5568,"vier":5569,"lear":5570,"Punkt":5571,"brauchen":5572,"Personen":5573,"baren":5574,"utet":5575,"leisten":5576,"erwar":5577,"force":5578,"family":5579,"edom":5580,"Schl":5581,"raph":5582,"anim":5583,"little":5584,"signific":5585,"etc":5586,"leit":5587,"Initi":5588,"Span":5589,"seem":5590,"Stell":5591,"Verfahren":5592,"eded":5593,"amental":5594,"soci":5595,"reiche":5596,"ever":5597,"Bau":5598,"tage":5599,"Europas":5600,"Millionen":5601,"Abstimmung":5602,"host":5603,"kennen":5604,"lon":5605,"Jul":5606,"enden":5607,"gemacht":5608,"tember":5609,"verständ":5610,"ächlich":5611,"Aussprache":5612,"fragen":5613,"jähr":5614,"yet":5615,"erfolg":5616,"rather":5617,"olf":5618,"content":5619,"solution":5620,"elect":5621,"economy":5622,"until":5623,"indem":5624,"apart":5625,"aufge":5626,"quite":5627,"Verhand":5628,"known":5629,"sichtlich":5630,"Stru":5631,"gilt":5632,"gute":5633,"verbunden":5634,"greifen":5635,"ume":5636,"Israel":5637,"activities":5638,"Institution":5639,"location":5640,"might":5641,"Priv":5642,"persön":5643,"Dieser":5644,"ry":5645,"jeden":5646,"ideo":5647,"legislation":5648,"ently":5649,"ladies":5650,"2005":5651,"costs":5652,"Sozial":5653,"safety":5654,"ension":5655,"Zugang":5656,"sogar":5657,"Preis":5658,"vision":5659,"Erfahr":5660,"ckt":5661,"apan":5662,"anst":5663,"value":5664,"bare":5665,"unterstützt":5666,"öffentlich":5667,"ON":5668,"One":5669,"völker":5670,"Tür":5671,"zimmer":5672,"adopted":5673,"Pa":5674,"Ebene":5675,"National":5676,"points":5677,"Can":5678,"situ":5679,"Pat":5680,"mann":5681,"attra":5682,"standard":5683,"stimmen":5684,"Sü":5685,"Geld":5686,"demokrat":5687,"altung":5688,"tt":5689,"glaube":5690,"vert":5691,"sat":5692,"lei":5693,"challen":5694,"regel":5695,"round":5696,"Tats":5697,"State":5698,"educ":5699,"border":5700,"constru":5701,"rechts":5702,"gerade":5703,"appropr":5704,"mind":5705,"som":5706,"schl":5707,"ave":5708,"democr":5709,"ucht":5710,"remain":5711,"beral":5712,"Stre":5713,"einzu":5714,"etwa":5715,"ämlich":5716,"zeigen":5717,"model":5718,"Kap":5719,"ebenfalls":5720,"manu":5721,"Geb":5722,"mail":5723,"provided":5724,"request":5725,"September":5726,"mobil":5727,"agricult":5728,"meisten":5729,"effective":5730,"mess":5731,"Website":5732,"unterschied":5733,"ided":5734,"Nov":5735,"üssel":5736,"ison":5737,"opinion":5738,"nämlich":5739,"zunehmen":5740,"viol":5741,"raum":5742,"ght":5743,"Unsere":5744,"wahl":5745,"sichtig":5746,"ify":5747,"AD":5748,"staat":5749,"building":5750,"einigen":5751,"sour":5752,"Bezug":5753,"gestimmt":5754,"ric":5755,"Instr":5756,"eren":5757,"treat":5758,"haus":5759,"derzeit":5760,"object":5761,"Son":5762,"künft":5763,"dürfen":5764,"darin":5765,"photo":5766,"Bal":5767,"sty":5768,"win":5769,"2004":5770,"ring":5771,"inge":5772,"denken":5773,"After":5774,"members":5775,"prove":5776,"team":5777,"voted":5778,"words":5779,"kar":5780,"ideal":5781,"EL":5782,"front":5783,"include":5784,"Text":5785,"four":5786,"rate":5787,"Sel":5788,"laub":5789,"22":5790,"responsibility":5791,"iding":5792,"Verbraucher":5793,"context":5794,"bzw":5795,"iful":5796,"ager":5797,"nete":5798,"Abkommen":5799,"imes":5800,"teile":5801,"risk":5802,"Jahres":5803,"arbeitet":5804,"Qualität":5805,"stant":5806,"uen":5807,"results":5808,"pages":5809,"nationalen":5810,"policies":5811,"makes":5812,"concerned":5813,"week":5814,"relation":5815,"änger":5816,"za":5817,"recomm":5818,"tober":5819,"having":5820,"body":5821,"entire":5822,"times":5823,"Sou":5824,"strategy":5825,"reserv":5826,"CD":5827,"administr":5828,"left":5829,"importance":5830,"fordern":5831,"Wach":5832,"questions":5833,"Strategie":5834,"projects":5835,"70":5836,"freedom":5837,"betrifft":5838,"thod":5839,"len":5840,"attention":5841,"verkehr":5842,"Ort":5843,"Sal":5844,"staff":5845,"Sub":5846,"nichts":5847,"contact":5848,"provides":5849,"Benutz":5850,"minister":5851,"application":5852,"verbess":5853,"deutlich":5854,"fig":5855,"Dank":5856,"erklär":5857,"shop":5858,"Rei":5859,"Fortsch":5860,"lat":5861,"Mär":5862,"Janu":5863,"Rechte":5864,"Pos":5865,"mass":5866,"zeichnet":5867,"ihn":5868,"icial":5869,"laden":5870,"send":5871,"Design":5872,"website":5873,"wiesen":5874,"Op":5875,"telle":5876,"gratul":5877,"ständig":5878,"weiterhin":5879,"möglichen":5880,"environmental":5881,"Austr":5882,"keinen":5883,"bleiben":5884,"simply":5885,"ott":5886,"istan":5887,"Leist":5888,"cop":5889,"Rates":5890,"past":5891,"wärt":5892,"geschlagen":5893,"Änderungsan":5894,"Verbind":5895,"Bem":5896,"Fä":5897,"moder":5898,"forts":5899,"Kolleg":5900,"sites":5901,"Wh":5902,"autiful":5903,"iled":5904,"Dok":5905,"ona":5906,"OS":5907,"never":5908,"Organisation":5909,"Book":5910,"lease":5911,"greater":5912,"sollen":5913,"mosph":5914,"Beschäft":5915,"answer":5916,"others":5917,"unkte":5918,"easy":5919,"Nicht":5920,"check":5921,"zustellen":5922,"groups":5923,"ocracy":5924,"aktiv":5925,"Deutschland":5926,"beginn":5927,"oting":5928,"Disk":5929,"above":5930,"society":5931,"bour":5932,"komple":5933,"itionen":5934,"sal":5935,"structure":5936,"add":5937,"super":5938,"Prof":5939,"entliche":5940,"sof":5941,"ihm":5942,"zusätz":5943,"stum":5944,"mitt":5945,"Sitz":5946,"hip":5947,"ächst":5948,"drück":5949,"Che":5950,"seinem":5951,"wan":5952,"graph":5953,"increasing":5954,"wichtige":5955,"ented":5956,"ledge":5957,"gebung":5958,"along":5959,"Sicherheits":5960,"dell":5961,"Room":5962,"isiert":5963,"erziel":5964,"total":5965,"central":5966,"ampf":5967,"OR":5968,"Mail":5969,"wenig":5970,"aged":5971,"clearly":5972,"Gesetz":5973,"principle":5974,"benöt":5975,"Ter":5976,"ported":5977,"istic":5978,"ihrem":5979,"wirtschaftlichen":5980,"ging":5981,"kurz":5982,"Ansicht":5983,"onstr":5984,"utzt":5985,"Windows":5986,"bew":5987,"East":5988,"ders":5989,"bedeutet":5990,"hes":5991,"unächst":5992,"dien":5993,"came":5994,"overn":5995,"due":5996,"uell":5997,"minutes":5998,"Verkehr":5999,"Buch":6000,"significant":6001,"link":6002,"Hö":6003,"lot":6004,"leader":6005,"essential":6006,"hoffe":6007,"stu":6008,"sustain":6009,"Demokratie":6010,"Gäste":6011,"solche":6012,"ift":6013,"infl":6014,"würden":6015,"cli":6016,"cu":6017,"authorities":6018,"äre":6019,"Pra":6020,"verfahren":6021,"return":6022,"mechan":6023,"firm":6024,"trolle":6025,"gas":6026,"changes":6027,"Restaurant":6028,"deshalb":6029,"sug":6030,"27":6031,"heim":6032,"Bezieh":6033,"quick":6034,"terror":6035,"ka":6036,"pool":6037,"llt":6038,"schö":6039,"heart":6040,"method":6041,"Nä":6042,"schwer":6043,"Stat":6044,"Just":6045,"charac":6046,"uelle":6047,"PC":6048,"beautiful":6049,"ehr":6050,"Groß":6051,"Schul":6052,"forman":6053,"zehn":6054,"verein":6055,"iers":6056,"behalf":6057,"friend":6058,"unst":6059,"Umsetzung":6060,"griff":6061,"Ira":6062,"hörden":6063,"Fund":6064,"achieve":6065,"Bil":6066,"proposed":6067,"distrib":6068,"ands":6069,"besten":6070,"nutzen":6071,"struktur":6072,"Sa":6073,"werde":6074,"Schwe":6075,"share":6076,"lange":6077,"extra":6078,"young":6079,"ana":6080,"interess":6081,"arian":6082,"stadt":6083,"responsible":6084,"inten":6085,"zä":6086,"fish":6087,"setzt":6088,"Prozess":6089,"cir":6090,"2003":6091,"bung":6092,"termin":6093,"passen":6094,"funktion":6095,"aup":6096,"fundamental":6097,"Gesellschaft":6098,"Lo":6099,"Menschenrechte":6100,"offe":6101,"moment":6102,"required":6103,"assist":6104,"anten":6105,"Off":6106,"ichen":6107,"beispiel":6108,"internal":6109,"liches":6110,"nu":6111,"customers":6112,"vement":6113,"sei":6114,"Meer":6115,"teilt":6116,"technical":6117,"manufact":6118,"First":6119,"Klima":6120,"züglich":6121,"crimin":6122,"aging":6123,"Verbesser":6124,"nächsten":6125,"gebracht":6126,"Wel":6127,"Russia":6128,"ME":6129,"mals":6130,"prec":6131,"bro":6132,"related":6133,"currently":6134,"Betrie":6135,"Hol":6136,"solutions":6137,"lar":6138,"haltung":6139,"democracy":6140,"inzip":6141,"remo":6142,"Vorschläge":6143,"Kur":6144,"Netz":6145,"meeting":6146,"sea":6147,"safe":6148,"Verantwortung":6149,"amb":6150,"aud":6151,"Trans":6152,"gehört":6153,"anderer":6154,"Japan":6155,"richtig":6156,"Bevölker":6157,"frist":6158,"posed":6159,"perfect":6160,"training":6161,"affe":6162,"ama":6163,"Mor":6164,"Steuer":6165,"station":6166,"natural":6167,"Ziele":6168,"stück":6169,"schre":6170,"Industrie":6171,"Richtung":6172,"ators":6173,"neuer":6174,"hens":6175,"longer":6176,"ID":6177,"Opt":6178,"Daher":6179,"gliche":6180,"atal":6181,"Förder":6182,"tin":6183,"wirkungen":6184,"bekannt":6185,"ished":6186,"Von":6187,"platz":6188,"Herren":6189,"Vertr":6190,"iar":6191,"grup":6192,"bahn":6193,"needed":6194,"pflicht":6195,"stor":6196,"subs":6197,"198":6198,"berg":6199,"ames":6200,"länd":6201,"anced":6202,"Govern":6203,"corre":6204,"aden":6205,"Gl":6206,"auszu":6207,"itäts":6208,"efforts":6209,"umente":6210,"uz":6211,"notwendig":6212,"Apr":6213,"By":6214,"ref":6215,"fight":6216,"Struktur":6217,"ri":6218,"continu":6219,"cure":6220,"implementation":6221,"ene":6222,"cultural":6223,"Jahrhunder":6224,"enthalten":6225,"Wert":6226,"lö":6227,"commod":6228,"interests":6229,"unver":6230,"November":6231,"capital":6232,"rela":6233,"markets":6234,"boten":6235,"aufgrund":6236,"lab":6237,"May":6238,"gefähr":6239,"try":6240,"Erweiter":6241,"regulation":6242,"prevent":6243,"enough":6244,"Version":6245,"Aspe":6246,"happen":6247,"Parte":6248,"Sh":6249,"competit":6250,"Christ":6251,"allerdings":6252,"looking":6253,"democratic":6254,"ined":6255,"unge":6256,"board":6257,"ench":6258,"Anwendung":6259,"months":6260,"span":6261,"directly":6262,"How":6263,"competition":6264,"Erfolg":6265,"Sport":6266,"Bedingungen":6267,"scheint":6268,"kei":6269,"ses":6270,"civil":6271,"hib":6272,"spir":6273,"parties":6274,"danken":6275,"requirements":6276,"takt":6277,"holiday":6278,"apply":6279,"ßt":6280,"recogn":6281,"active":6282,"Interesse":6283,"uth":6284,"äsent":6285,"gemeinsamen":6286,"involved":6287,"fehl":6288,"Debatte":6289,"aurants":6290,"Außen":6291,"Cor":6292,"SE":6293,"file":6294,"Grundlage":6295,"etzen":6296,"regions":6297,"IM":6298,"Wohn":6299,"negotiations":6300,"Ide":6301,"chter":6302,"Tro":6303,"option":6304,"schluss":6305,"Please":6306,"Ihrem":6307,"Jo":6308,"betra":6309,"Angelegen":6310,"berück":6311,"volle":6312,"night":6313,"Erklär":6314,"Fern":6315,"vielleicht":6316,"äter":6317,"iellen":6318,"dy":6319,"messen":6320,"llig":6321,"normal":6322,"schwier":6323,"Verf":6324,"More":6325,"Mitarbeit":6326,"weder":6327,"Frieden":6328,"ulture":6329,"bevor":6330,"developed":6331,"fis":6332,"Inst":6333,"500":6334,"verwendet":6335,"Funktion":6336,"ites":6337,"hinder":6338,"gemeinsam":6339,"Krit":6340,"amo":6341,"modif":6342,"live":6343,"clar":6344,"stop":6345,"organisation":6346,"linien":6347,"Institutionen":6348,"foreign":6349,"zel":6350,"vorsch":6351,"erfü":6352,"yp":6353,"fün":6354,"mbH":6355,"ibility":6356,"General":6357,"Wieder":6358,"Tele":6359,"themselves":6360,"beispielsweise":6361,"Ju":6362,"Wort":6363,"Reihe":6364,"Schlussel":6365,"events":6366,"Foto":6367,"extremely":6368,"brit":6369,"Dam":6370,"please":6371,"April":6372,"fordert":6373,"Gebiet":6374,"merksam":6375,"Einsatz":6376,"freund":6377,"mand":6378,"ables":6379,"vorgeschlagen":6380,"unternehmen":6381,"disk":6382,"aper":6383,"Möglichkeiten":6384,"Entscheidung":6385,"bath":6386,"nimmt":6387,"cast":6388,"Integr":6389,"mob":6390,"according":6391,"farm":6392,"cases":6393,"tä":6394,"nature":6395,"Aktiv":6396,"könnten":6397,"Plan":6398,"hon":6399,"Mer":6400,"Far":6401,"ada":6402,"andid":6403,"erreicht":6404,"Kenn":6405,"Besuch":6406,"fairs":6407,"Änderungsantrag":6408,"camp":6409,"relev":6410,"developing":6411,"Außer":6412,"tar":6413,"RE":6414,"sozialen":6415,"hung":6416,"lex":6417,"ought":6418,"alter":6419,"Selbst":6420,"wider":6421,"umfassen":6422,"ball":6423,"peten":6424,"dev":6425,"appropriate":6426,"herr":6427,"Presidency":6428,"sitz":6429,"rup":6430,"stead":6431,"acc":6432,"Team":6433,"Doch":6434,"dialog":6435,"2001":6436,"prep":6437,"Real":6438,"unch":6439,"formance":6440,"actions":6441,"soon":6442,"kor":6443,"contain":6444,"Damen":6445,"weiß":6446,"separ":6447,"acy":6448,"Früh":6449,"Tages":6450,"GmbH":6451,"Pub":6452,"card":6453,"respe":6454,"seits":6455,"harmon":6456,"ermöglich":6457,"presented":6458,"funds":6459,"90":6460,"jeweil":6461,"standen":6462,"ape":6463,"eth":6464,"combin":6465,"monitor":6466,"erwä":6467,"richtung":6468,"improve":6469,"Proto":6470,"gesetz":6471,"thus":6472,"gleichen":6473,"Diskuss":6474,"hinzu":6475,"maxim":6476,"Öff":6477,"history":6478,"atch":6479,"minim":6480,"gemeinsame":6481,"Auswirkungen":6482,"moun":6483,"From":6484,"euro":6485,"item":6486,"Nähe":6487,"Heraus":6488,"Schritt":6489,"hab":6490,"climate":6491,"....":6492,"altern":6493,"charge":6494,"entwickelt":6495,"gelten":6496,"lig":6497,"bra":6498,"chem":6499,"depend":6500,"fel":6501,"states":6502,"Brit":6503,"denke":6504,"lied":6505,"previous":6506,"Verhandlungen":6507,"Sc":6508,"höch":6509,"ases":6510,"Druck":6511,"fortun":6512,"type":6513,"upon":6514,"true":6515,"ested":6516,"Zus":6517,"sucht":6518,"caus":6519,"Kön":6520,"indic":6521,"demonstr":6522,"allgem":6523,"bot":6524,"Unser":6525,"Insel":6526,"reib":6527,"erforderlich":6528,"Geschichte":6529,"kleinen":6530,"amt":6531,"Musik":6532,"itens":6533,"Ergebnis":6534,"helfen":6535,"anti":6536,"held":6537,"Mitglieder":6538,"music":6539,"achten":6540,"maintain":6541,"language":6542,"scho":6543,"Wissen":6544,"encour":6545,"character":6546,"additional":6547,"relax":6548,"Host":6549,"condition":6550,"Rechn":6551,"Nie":6552,"Mot":6553,"iner":6554,"atory":6555,"recommend":6556,"una":6557,"Liste":6558,"education":6559,"final":6560,"erhö":6561,"ctors":6562,"Cour":6563,"Verwalt":6564,"sus":6565,"prices":6566,"immed":6567,"facilities":6568,"istischen":6569,"AM":6570,"Bre":6571,"France":6572,"2002":6573,"expect":6574,"laim":6575,"ielle":6576,"ax":6577,"weltweit":6578,"kra":6579,"created":6580,"Inform":6581,"avo":6582,"entsch":6583,"achen":6584,"schriften":6585,"Du":6586,"arbeitung":6587,"fünf":6588,"Antwort":6589,"Apart":6590,"tats":6591,"initiative":6592,"itions":6593,"nehm":6594,"protect":6595,"yl":6596,"guests":6597,"phone":6598,"verschiedene":6599,"pict":6600,"Programme":6601,"licken":6602,"Änderungsanträge":6603,"analys":6604,"exten":6605,"seen":6606,"Hinblick":6607,"useum":6608,"onen":6609,"Nord":6610,"century":6611,"links":6612,"Abgeordneten":6613,"Kraft":6614,"Iran":6615,"befinden":6616,"Dienstleistungen":6617,"26":6618,"för":6619,"bisher":6620,"haps":6621,"document":6622,"either":6623,"isieren":6624,"idea":6625,"ermöglicht":6626,"commer":6627,"happ":6628,"suggest":6629,"Platz":6630,"Bü":6631,"Kunst":6632,"schie":6633,"unik":6634,"Agr":6635,"vic":6636,"Regionen":6637,"gesamten":6638,"ey":6639,"verfügt":6640,"resol":6641,"Kolleginnen":6642,"comb":6643,"Binnen":6644,"intens":6645,"ibr":6646,"actually":6647,"receive":6648,"getr":6649,"Dialog":6650,"ingt":6651,"gesellschaft":6652,"ürz":6653,"procedure":6654,"jenigen":6655,"Let":6656,"hout":6657,"Luft":6658,"akzept":6659,"angenommen":6660,"mel":6661,"Ausdruck":6662,"iffen":6663,"sound":6664,"Tatsache":6665,"hold":6666,"verantwort":6667,"Aug":6668,"impact":6669,"Tod":6670,"concerns":6671,"28":6672,"Kle":6673,"ano":6674,"bedeuten":6675,"erhe":6676,"zone":6677,"Raum":6678,"krä":6679,"ändert":6680,"workers":6681,"Handels":6682,"darum":6683,"effiz":6684,"Ris":6685,"ony":6686,"ceed":6687,"Terror":6688,"seite":6689,"einzelnen":6690,"mission":6691,"Blick":6692,"South":6693,"partner":6694,"space":6695,"Vertre":6696,"spielen":6697,"ebenso":6698,"enable":6699,"cies":6700,"Rad":6701,"ländern":6702,"almost":6703,"Paris":6704,"emphas":6705,"communication":6706,"works":6707,"www":6708,"fam":6709,"ilities":6710,"Forschung":6711,"gain":6712,"bildung":6713,"colleag":6714,"PL":6715,"rates":6716,"esten":6717,"strengthen":6718,"Außerdem":6719,"refle":6720,"adurch":6721,"fu":6722,"prim":6723,"majority":6724,"hatten":6725,"gegenwärt":6726,"users":6727,"living":6728,"Landes":6729,"Office":6730,"certainly":6731,"investment":6732,"Cas":6733,"everything":6734,"heiß":6735,"profit":6736,"kämpfung":6737,"restaurant":6738,"thre":6739,"sprech":6740,"Krise":6741,"frü":6742,"ping":6743,"wr":6744,"parts":6745,"Arch":6746,"ination":6747,"ausgest":6748,"Minuten":6749,"rieben":6750,"Beziehungen":6751,"bef":6752,"va":6753,"Turkey":6754,"Bereichen":6755,"fähigkeit":6756,"leistet":6757,"tack":6758,"cru":6759,"igration":6760,"Haushalt":6761,"CH":6762,"mitteln":6763,"Führ":6764,"ired":6765,"West":6766,"jud":6767,"abge":6768,"unique":6769,"wachsen":6770,"Seit":6771,"included":6772,"Net":6773,"gab":6774,"existing":6775,"relations":6776,"Vereinigten":6777,"hätte":6778,"chs":6779,"abon":6780,"center":6781,"American":6782,"internationale":6783,"Beitrag":6784,"leading":6785,"igungs":6786,"Portug":6787,"takes":6788,"keyword":6789,"hor":6790,"Kos":6791,"hend":6792,"mentioned":6793,"usst":6794,"enor":6795,"spräsident":6796,"Gruppe":6797,"Mob":6798,"ule":6799,"knowledge":6800,"Zum":6801,"unded":6802,"weiteren":6803,"accommod":6804,"French":6805,"designed":6806,"Gelegen":6807,"folge":6808,"lok":6809,"ffer":6810,"tion":6811,"cen":6812,"hinter":6813,"Wettbewerbs":6814,"guarantee":6815,"spricht":6816,"wichtigen":6817,"Har":6818,"Aufgabe":6819,"Türkei":6820,"doing":6821,"länder":6822,"formen":6823,"ond":6824,"situated":6825,"dict":6826,"dre":6827,"uren":6828,"Zur":6829,"five":6830,"genie":6831,"Will":6832,"Bevölkerung":6833,"parliament":6834,"vö":6835,"Up":6836,"aner":6837,"ception":6838,"iting":6839,"Familien":6840,"lis":6841,"amerikan":6842,"writing":6843,"jedem":6844,"consequ":6845,"ternal":6846,"Online":6847,"coordin":6848,"Einzel":6849,"Reform":6850,"ilar":6851,"aware":6852,"chsel":6853,"Government":6854,"ature":6855,"prakt":6856,"Fischere":6857,"pal":6858,"mid":6859,"mitted":6860,"indest":6861,"bleibt":6862,"rachten":6863,"Interessen":6864,"Stabil":6865,"committee":6866,"sess":6867,"reiben":6868,"Ha":6869,"größer":6870,"Proz":6871,"programmes":6872,"änden":6873,"heut":6874,"Handel":6875,"ira":6876,"ari":6877,"Home":6878,"Lon":6879,"assess":6880,"Weiter":6881,"park":6882,"rich":6883,"Hoch":6884,"amount":6885,"associ":6886,"lle":6887,"meinen":6888,"Staats":6889,"schle":6890,"breakfast":6891,"zif":6892,"enlarge":6893,"claim":6894,"ült":6895,"search":6896,"code":6897,"Beg":6898,"Vis":6899,"Kontrolle":6900,"cep":6901,"ften":6902,"prüfen":6903,"correct":6904,"exclus":6905,"relig":6906,"features":6907,"decisions":6908,"Themen":6909,"öst":6910,"Schaf":6911,"connection":6912,"mü":6913,"across":6914,"handeln":6915,"barkeit":6916,"gangenen":6917,"agreements":6918,"media":6919,"corpor":6920,"35":6921,"mein":6922,"conflic":6923,"Verpflicht":6924,"Erweiterung":6925,"worten":6926,"reasons":6927,"Dan":6928,"verständlich":6929,"Werk":6930,"bru":6931,"throughout":6932,"neut":6933,"travel":6934,"America":6935,"professional":6936,"Ka":6937,"wirtschaftliche":6938,"vil":6939,"Play":6940,"bald":6941,"zeugen":6942,"Thank":6943,"absolute":6944,"fli":6945,"Di":6946,"attet":6947,"Lisbon":6948,"mend":6949,"sag":6950,"joint":6951,"Kampf":6952,"Akt":6953,"jobs":6954,"Behörden":6955,"club":6956,"jede":6957,"Verbindung":6958,"präsent":6959,"1999":6960,"Förderung":6961,"later":6962,"Benutzer":6963,"gän":6964,"aster":6965,"comfortable":6966,"teid":6967,"Entschließung":6968,"files":6969,"Prior":6970,"bekommen":6971,"Bu":6972,"Haf":6973,"outside":6974,"Wachstum":6975,"anzen":6976,"Agen":6977,"complex":6978,"community":6979,"Zentrum":6980,"package":6981,"ersch":6982,"LE":6983,"nothing":6984,"concerning":6985,"unabhäng":6986,"heißt":6987,"ava":6988,"North":6989,"handlung":6990,"Liss":6991,"bad":6992,"itten":6993,"quis":6994,"Sor":6995,"approv":6996,"entre":6997,"customer":6998,"values":6999,"heraus":7000,"vin":7001,"ktive":7002,"hear":7003,"gleichzeitig":7004,"Ukra":7005,"Standard":7006,"konnte":7007,"van":7008,"consult":7009,"military":7010,"--":7011,"Verordnung":7012,"Lösungen":7013,"objectives":7014,"London":7015,"famous":7016,"PE":7017,"conclus":7018,"ausch":7019,"took":7020,"integration":7021,"Server":7022,"raf":7023,"completely":7024,"sent":7025,"hase":7026,"unseres":7027,"August":7028,"fallen":7029,"publish":7030,"practice":7031,"sieht":7032,"race":7033,"original":7034,"Dokument":7035,"hours":7036,"ires":7037,"Angeb":7038,"digital":7039,"älle":7040,"ald":7041,"richten":7042,"wunder":7043,"fortunately":7044,"jahr":7045,"performance":7046,"Debian":7047,"Lissabon":7048,"ären":7049,"aler":7050,"note":7051,"early":7052,"Met":7053,"pan":7054,"ps":7055,"allows":7056,"fail":7057,"garant":7058,"illegal":7059,"immungen":7060,"später":7061,"kn":7062,"promise":7063,"nachhalt":7064,"dete":7065,"gemäß":7066,"Aben":7067,"jedes":7068,"Court":7069,"image":7070,"richtungen":7071,"Innen":7072,"population":7073,"forms":7074,"ester":7075,"rund":7076,"clean":7077,"built":7078,"Folgen":7079,"amera":7080,"Centr":7081,"fal":7082,"Global":7083,"29":7084,"kungen":7085,"hohe":7086,"official":7087,"koll":7088,"download":7089,"gerichtet":7090,"Damit":7091,"Mag":7092,"Finally":7093,"wenden":7094,"dle":7095,"Now":7096,"spezie":7097,"agricultural":7098,"lässt":7099,"iens":7100,"congratul":7101,"Barcel":7102,"äss":7103,"ST":7104,"Kern":7105,"igte":7106,"nahe":7107,"45":7108,"Since":7109,"bedingungen":7110,"essour":7111,"300":7112,"Ster":7113,"contains":7114,"objective":7115,"reports":7116,"basic":7117,"plant":7118,"party":7119,"game":7120,"Management":7121,"capac":7122,"credit":7123,"ufig":7124,"unities":7125,"regarding":7126,"Kor":7127,"neben":7128,"benefit":7129,"ush":7130,"fördern":7131,"Linux":7132,"Russland":7133,"extens":7134,"Anal":7135,"enthält":7136,"Fur":7137,"traditional":7138,"transfer":7139,"osen":7140,"sense":7141,"Verbesserung":7142,"established":7143,"cri":7144,"Innov":7145,"satis":7146,"Bitte":7147,"Rel":7148,"fs":7149,"box":7150,"efficient":7151,"krit":7152,"iment":7153,"poor":7154,"includes":7155,"prozess":7156,"Amend":7157,"Forder":7158,"below":7159,"appear":7160,"kleine":7161,"wichtigsten":7162,"sex":7163,"erweise":7164,"ris":7165,"iterr":7166,"oblig":7167,"simple":7168,"Gesundheit":7169,"potential":7170,"Binnenmarkt":7171,"Booking":7172,"categor":7173,"speed":7174,"fonds":7175,"move":7176,"angemessen":7177,"Mater":7178,"Pass":7179,"quickly":7180,"transl":7181,"huge":7182,"schön":7183,"iversit":7184,"Lux":7185,"guide":7186,"Febru":7187,"entwickeln":7188,"Fehler":7189,"Notwend":7190,"plann":7191,"aspe":7192,"verg":7193,"gesamt":7194,"lux":7195,"applications":7196,"instrument":7197,"friendly":7198,"culture":7199,"ovo":7200,"bezüglich":7201,"computer":7202,"ec":7203,"zahlen":7204,"Dec":7205,"Darüber":7206,"unsch":7207,"vertr":7208,"Augen":7209,"Ergebnisse":7210,"wise":7211,"Frankreich":7212,"onom":7213,"construction":7214,"Here":7215,"hinsichtlich":7216,"orf":7217,"Some":7218,"ieben":7219,"Informations":7220,"Log":7221,"broad":7222,"div":7223,"got":7224,"ull":7225,"stage":7226,"closed":7227,"beteil":7228,"plies":7229,"trotz":7230,"verbessern":7231,"achieved":7232,"auber":7233,"nissen":7234,"pet":7235,"schließend":7236,"anzös":7237,"iveness":7238,"igent":7239,"focus":7240,"Fuß":7241,"ermöglichen":7242,"flä":7243,"dialogue":7244,"vorschriften":7245,"DV":7246,"indeed":7247,"consumers":7248,"tic":7249,"mehrere":7250,"Nutzung":7251,"spend":7252,"Wochen":7253,"hoben":7254,"received":7255,"Macht":7256,"verwenden":7257,"san":7258,"breit":7259,"Gelegenheit":7260,"industrial":7261,"governments":7262,"seems":7263,"gerne":7264,"sett":7265,"MS":7266,"beein":7267,"Volks":7268,"Arbeitspl":7269,"lant":7270,"ming":7271,"kulture":7272,"grundlegen":7273,"ET":7274,"export":7275,"successful":7276,"loss":7277,"pite":7278,"Initiative":7279,"amendment":7280,"stellungen":7281,"choice":7282,"although":7283,"Kir":7284,"increased":7285,"alte":7286,"OL":7287,"Second":7288,"Mic":7289,"buch":7290,"Konferenz":7291,"Schaffung":7292,"Univers":7293,"See":7294,"stoff":7295,"learn":7296,"Get":7297,"gefunden":7298,"brigen":7299,"Eur":7300,"ba":7301,"kraft":7302,"kennt":7303,"theless":7304,"oss":7305,"konkre":7306,"onnen":7307,"Auswahl":7308,"Therefore":7309,"erster":7310,"erlau":7311,"server":7312,"Nat":7313,"prob":7314,"recently":7315,"sustainable":7316,"Gip":7317,"stens":7318,"völlig":7319,"Mitarbeiter":7320,"Gree":7321,"diskut":7322,"Business":7323,"spect":7324,"independ":7325,"nuclear":7326,"ieb":7327,"gewä":7328,"sun":7329,"territ":7330,"ti":7331,"geeig":7332,"ganzen":7333,"Frühstück":7334,"internet":7335,"iko":7336,"archite":7337,"verfüg":7338,"Bahn":7339,"sicherheit":7340,"schriftlich":7341,"treatment":7342,"walk":7343,"publik":7344,"nation":7345,"regular":7346,"schließen":7347,"arg":7348,"haupt":7349,"ipl":7350,"ganze":7351,"circ":7352,"Stunden":7353,"31":7354,"jour":7355,"Ober":7356,"purch":7357,"Anfang":7358,"creation":7359,"treffen":7360,"irgend":7361,"dynam":7362,"ograph":7363,"tung":7364,"Pan":7365,"experien":7366,"everyone":7367,"öhn":7368,"dring":7369,"Gewalt":7370,"Further":7371,"Woche":7372,"nern":7373,"tliche":7374,"stances":7375,"itness":7376,"agreed":7377,"Voraus":7378,"Verwendung":7379,"Veranst":7380,"zeugt":7381,"Tat":7382,"verstär":7383,"register":7384,"commitment":7385,"west":7386,"großer":7387,"Regierungen":7388,"offenen":7389,"soziale":7390,"balance":7391,"gerä":7392,"fan":7393,"Strand":7394,"cross":7395,"meinem":7396,"atast":7397,"counter":7398,"subsid":7399,"Pla":7400,"ological":7401,"Club":7402,"added":7403,"197":7404,"equipped":7405,"profession":7406,"measure":7407,"spar":7408,"direction":7409,"equipment":7410,"Maß":7411,"Install":7412,"Änderungen":7413,"liz":7414,"Anzahl":7415,"Fach":7416,"Lauf":7417,"mis":7418,"double":7419,"Reise":7420,"relevant":7421,"cker":7422,"aufzu":7423,"Barcelona":7424,"exchange":7425,"üsse":7426,"wählen":7427,"levels":7428,"limited":7429,"ini":7430,"Notwendigkeit":7431,"news":7432,"pleas":7433,"engine":7434,"Aufen":7435,"oil":7436,"rein":7437,"principles":7438,"deliver":7439,"sichtigt":7440,"esh":7441,"gal":7442,"Aufenth":7443,"guten":7444,"suit":7445,"icles":7446,"goods":7447,"eindeut":7448,"PS":7449,"Don":7450,"Bur":7451,"Central":7452,"inne":7453,"verfügen":7454,"riften":7455,"gesprochen":7456,"feld":7457,"union":7458,"Angebot":7459,"mobile":7460,"Ham":7461,"genannten":7462,"maßnahmen":7463,"sorgen":7464,"covered":7465,"scient":7466,"prise":7467,"ilität":7468,"shown":7469,"June":7470,"higher":7471,"Gebä":7472,"grenz":7473,"fix":7474,"stress":7475,"tempor":7476,"iglich":7477,"verstehen":7478,"sterdam":7479,"matters":7480,"asked":7481,"äußerst":7482,"Gew":7483,"FR":7484,"Of":7485,"Krieg":7486,"Miss":7487,"Les":7488,"pflich":7489,"Material":7490,"fahrt":7491,"itel":7492,"ills":7493,"shows":7494,"Überein":7495,"Amsterdam":7496,"rail":7497,"örper":7498,"Zeitpunkt":7499,"schnitt":7500,"eigene":7501,"eller":7502,"Exper":7503,"placed":7504,"WTO":7505,"wonder":7506,"stark":7507,"Col":7508,"categories":7509,"essourcen":7510,"solid":7511,"ski":7512,"Mac":7513,"steller":7514,"Konfli":7515,"tatsächlich":7516,"spezif":7517,"stic":7518,"highly":7519,"bestät":7520,"style":7521,"Sto":7522,"sufficient":7523,"blo":7524,"SS":7525,"former":7526,"Tage":7527,"Herzen":7528,"supply":7529,"Dat":7530,"gesamte":7531,"frieden":7532,"Social":7533,"einzig":7534,"ategorien":7535,"Komprom":7536,"six":7537,"größten":7538,"draft":7539,"ope":7540,"letter":7541,"beginning":7542,"mented":7543,"erve":7544,"wobei":7545,"Solidar":7546,"ufen":7547,"Integration":7548,"Vereinbar":7549,"Gesundheits":7550,"undes":7551,"creen":7552,"iell":7553,"response":7554,"Ukraine":7555,"Süd":7556,"hindern":7557,"promote":7558,"Position":7559,"HT":7560,"band":7561,"Gemeinschafts":7562,"Eigen":7563,"rid":7564,"reduce":7565,"Hinter":7566,"ially":7567,"bauen":7568,"Mai":7569,"status":7570,"Stellung":7571,"mod":7572,"innovative":7573,"Oc":7574,"stag":7575,"Ok":7576,"emiss":7577,"English":7578,"ption":7579,"zunächst":7580,"vorhand":7581,"tool":7582,"sterreich":7583,"Sim":7584,"effects":7585,"Post":7586,"Män":7587,"hne":7588,"carried":7589,"Einführung":7590,"perhaps":7591,"istische":7592,"artige":7593,"Beschäftigung":7594,"office":7595,"popular":7596,"Sum":7597,"review":7598,"sl":7599,"City":7600,"Neu":7601,"spruch":7602,"prepared":7603,"nä":7604,"Kommissarin":7605,"oppel":7606,"Wettbewerb":7607,"Transport":7608,"mäßig":7609,"priority":7610,"pressure":7611,"enlargement":7612,"kam":7613,"gewährleisten":7614,"scht":7615,"gehören":7616,"external":7617,"ähn":7618,"klus":7619,"Kosovo":7620,"advan":7621,"Anwend":7622,"lediglich":7623,"Inde":7624,"opportunities":7625,"gült":7626,"Open":7627,"Sil":7628,"aschinen":7629,"choose":7630,"Fortschritte":7631,"iation":7632,"Develop":7633,"wissenschaft":7634,"xis":7635,"wünschen":7636,"freien":7637,"zy":7638,"Erfahrung":7639,"mains":7640,"Liefer":7641,"lies":7642,"fält":7643,"Nieder":7644,"commercial":7645,"Wahr":7646,"Produktion":7647,"talk":7648,"Ferien":7649,"liberal":7650,"Erachten":7651,"Site":7652,"Ausschusses":7653,"aspects":7654,"Erachtens":7655,"hotels":7656,"bestimmte":7657,"funding":7658,"Roman":7659,"billion":7660,"vertreten":7661,"similar":7662,"Lat":7663,"Article":7664,"Bekämpfung":7665,"aving":7666,"setting":7667,"acceptable":7668,"Juni":7669,"door":7670,"criter":7671,"läss":7672,"Protokoll":7673,"Somm":7674,"orient":7675,"wortern":7676,"Affairs":7677,"gy":7678,"spac":7679,"versuchen":7680,"compre":7681,"Aktivitäten":7682,"supported":7683,"capacity":7684,"video":7685,"UR":7686,"Star":7687,"Well":7688,"vorliegen":7689,"worth":7690,"Auff":7691,"condu":7692,"infra":7693,"Pf":7694,"transparen":7695,"size":7696,"konzentr":7697,"thanks":7698,"ehm":7699,"ends":7700,"reached":7701,"cul":7702,"erheb":7703,"iplom":7704,"registr":7705,"south":7706,"details":7707,"IL":7708,"hören":7709,"Zw":7710,"Drit":7711,"block":7712,"Auss":7713,"Dinge":7714,"rom":7715,"floor":7716,"Vertrags":7717,"Aut":7718,"bert":7719,"volution":7720,"aufgenommen":7721,"consumer":7722,"behind":7723,"kan":7724,"Kommunik":7725,"Personal":7726,"remains":7727,"Kontakt":7728,"veh":7729,"elekt":7730,"verpflich":7731,"haft":7732,"atastrop":7733,"öffnet":7734,"Während":7735,"possibility":7736,"Stim":7737,"erfolgreich":7738,"Leit":7739,"aul":7740,"pie":7741,"obtain":7742,"Systems":7743,"imension":7744,"Africa":7745,"considered":7746,"pret":7747,"latest":7748,"beschäft":7749,"Standpunkt":7750,"green":7751,"fluss":7752,"abor":7753,"smo":7754,"secure":7755,"hohen":7756,"uchen":7757,"Schlusselwortern":7758,"rought":7759,"lower":7760,"highl":7761,"krimin":7762,"wimm":7763,"Punkte":7764,"schütz":7765,"Instrument":7766,"whose":7767,"Dabei":7768,"kü":7769,"ios":7770,"rang":7771,"Mich":7772,"Familie":7773,"traffic":7774,"phys":7775,"günst":7776,"Computer":7777,"thin":7778,"coll":7779,"ierenden":7780,"Such":7781,"usion":7782,"ghan":7783,"materials":7784,"meines":7785,"sofort":7786,"Jugend":7787,"wesentlich":7788,"maß":7789,"EM":7790,"iterrane":7791,"Sicht":7792,"pleased":7793,"bringt":7794,"series":7795,"adap":7796,"decided":7797,"trägt":7798,"ierter":7799,"bein":7800,"Tor":7801,"Down":7802,"arily":7803,"Spain":7804,"prepar":7805,"Bul":7806,"deck":7807,"print":7808,"engen":7809,"defen":7810,"zweite":7811,"morgen":7812,"garden":7813,"determin":7814,"sätz":7815,"sprechend":7816,"setzungen":7817,"mem":7818,"abzu":7819,"istics":7820,"quar":7821,"iency":7822,"solchen":7823,"furn":7824,"Sprache":7825,"Höhe":7826,"Erklärung":7827,"König":7828,"Prä":7829,"Medien":7830,"mbol":7831,"Dez":7832,"concl":7833,"Vorschriften":7834,"ffe":7835,"airport":7836,"easily":7837,"schätz":7838,"vergangenen":7839,"braucht":7840,"gets":7841,"Berg":7842,"ij":7843,"ausschuss":7844,"wohn":7845,"suffer":7846,"bestimmten":7847,"Convention":7848,"solidar":7849,"Hy":7850,"stands":7851,"gerecht":7852,"High":7853,"avoid":7854,"mous":7855,"presents":7856,"Eing":7857,"sagte":7858,"legung":7859,"Gruppen":7860,"Bud":7861,"wertung":7862,"somit":7863,"leb":7864,"Preise":7865,"ees":7866,"allein":7867,"fangen":7868,"providing":7869,"Sup":7870,"places":7871,"Aufmerksam":7872,"Nur":7873,"neigh":7874,"gives":7875,"Ansatz":7876,"itation":7877,"ico":7878,"arenz":7879,"nommen":7880,"sätze":7881,"wurf":7882,"Mehrheit":7883,"Umgebung":7884,"Staat":7885,"atmosph":7886,"sibilities":7887,"Bestimmungen":7888,"Cal":7889,"Market":7890,"agenda":7891,"Super":7892,"discussion":7893,"Golf":7894,"industrie":7895,"äst":7896,"Western":7897,"vorgesehen":7898,"pression":7899,"virt":7900,"click":7901,"Basis":7902,"Tät":7903,"stability":7904,"compromise":7905,"IV":7906,"obwohl":7907,"source":7908,"independent":7909,"Entscheidungen":7910,"Technologie":7911,"display":7912,"fehlen":7913,"Prü":7914,"December":7915,"iately":7916,"ya":7917,"Privat":7918,"assistance":7919,"handel":7920,"außerdem":7921,"osp":7922,"regulations":7923,"ries":7924,"uted":7925,"vollen":7926,"letzt":7927,"jün":7928,"Rot":7929,"Ph":7930,"map":7931,"roat":7932,"Ratspräsident":7933,"SP":7934,"zeuge":7935,"creating":7936,"Aufmerksamkeit":7937,"akter":7938,"message":7939,"concept":7940,"ork":7941,"Berichts":7942,"Gefahr":7943,"tät":7944,"emer":7945,"Tex":7946,"kannst":7947,"British":7948,"Java":7949,"erous":7950,"announ":7951,"einschließlich":7952,"accommodation":7953,"erhält":7954,"steps":7955,"rule":7956,"ruh":7957,"Italy":7958,"death":7959,"iture":7960,"einheit":7961,"shar":7962,"reading":7963,"einzige":7964,"fisher":7965,"ras":7966,"Today":7967,"warm":7968,"Transparenz":7969,"Anforderungen":7970,"ette":7971,"Services":7972,"lösen":7973,"Bad":7974,"ühungen":7975,"Meine":7976,"March":7977,"tom":7978,"abkommen":7979,"eval":7980,"produced":7981,"danger":7982,"else":7983,"arm":7984,"aust":7985,"Kop":7986,"Flughaf":7987,"Stelle":7988,"bey":7989,"ques":7990,"instruments":7991,"obvious":7992,"Landwirtschaft":7993,"Republic":7994,"ollar":7995,"vorher":7996,"Neben":7997,"Dezember":7998,"wander":7999,"ateral":8000,"Verkehrs":8001,"produce":8002,"oben":8003,"standing":8004,"leitet":8005,"dadurch":8006,"otes":8007,"Anfrage":8008,"reign":8009,"transpar":8010,"begrüße":8011,"Last":8012,"stein":8013,"legislative":8014,"Bereiche":8015,"lam":8016,"pover":8017,"movement":8018,"sprün":8019,"expla":8020,"Diskussion":8021,"Erzeug":8022,"1998":8023,"stelle":8024,"zahlreiche":8025,"Projekte":8026,"leave":8027,"influ":8028,"Dom":8029,"Sign":8030,"Italien":8031,"Analy":8032,"exhib":8033,"ously":8034,"statement":8035,"contribution":8036,"stärker":8037,"summer":8038,"modified":8039,"Investitionen":8040,"Präsidenten":8041,"beziehen":8042,"property":8043,"DVD":8044,"cup":8045,"went":8046,"Metho":8047,"repe":8048,"pointed":8049,"alb":8050,"Agent":8051,"brechen":8052,"erfahren":8053,"Det":8054,"32":8055,"französ":8056,"ausgestattet":8057,"wesen":8058,"arrange":8059,"Öffentlich":8060,"task":8061,"Spa":8062,"Cre":8063,"Free":8064,"ürf":8065,"ühm":8066,"Freiheit":8067,"üst":8068,"Prinzip":8069,"insgesamt":8070,"ständigen":8071,"wall":8072,"ilen":8073,"bezogen":8074,"Grenzen":8075,"violence":8076,"rene":8077,"wichtiger":8078,"Aktion":8079,"purpose":8080,"procedures":8081,"Agrar":8082,"kit":8083,"keits":8084,"kürz":8085,"brought":8086,"record":8087,"regards":8088,"geln":8089,"ki":8090,"bell":8091,"Stär":8092,"Sitzung":8093,"zweiten":8094,"iterranean":8095,"activity":8096,"January":8097,"pain":8098,"Rooms":8099,"fficiency":8100,"Oper":8101,"keiner":8102,"ritts":8103,"medium":8104,"reibung":8105,"ugs":8106,"gros":8107,"vorhanden":8108,"benötigen":8109,"ering":8110,"thous":8111,"Loc":8112,"Test":8113,"effort":8114,"Schweiz":8115,"falt":8116,"anders":8117,"Pap":8118,"nöt":8119,"Mult":8120,"atmosphere":8121,"contract":8122,"Iraq":8123,"UK":8124,"Also":8125,"inger":8126,"October":8127,"Bildung":8128,"Bilder":8129,"sitzen":8130,"ique":8131,"erwarten":8132,"iffe":8133,"schw":8134,"wirken":8135,"itzer":8136,"conference":8137,"foot":8138,"Regeln":8139,"Video":8140,"Every":8141,"Arbeitnehmer":8142,"März":8143,"Ist":8144,"child":8145,"transparency":8146,"getan":8147,"yer":8148,"lös":8149,"rum":8150,"Sen":8151,"verse":8152,"etimes":8153,"Hins":8154,"dut":8155,"trip":8156,"Hinsicht":8157,"Del":8158,"vital":8159,"Afghan":8160,"verkauf":8161,"distribution":8162,"Bon":8163,"path":8164,"Bestell":8165,"Sommer":8166,"ike":8167,"utter":8168,"Bra":8169,"dise":8170,"196":8171,"Your":8172,"Unternehmens":8173,"eingesetzt":8174,"uner":8175,"ffet":8176,"allowed":8177,"niedr":8178,"erinn":8179,"criteria":8180,"resse":8181,"labour":8182,"stabil":8183,"benefits":8184,"möglichkeiten":8185,"eigentlich":8186,"forderung":8187,"leistungs":8188,"relationship":8189,"legit":8190,"zweif":8191,"rig":8192,"Wein":8193,"rowser":8194,"ails":8195,"CE":8196,"dienen":8197,"fine":8198,"cou":8199,"lives":8200,"ellow":8201,"europäischer":8202,"instead":8203,"genießen":8204,"deten":8205,"Wä":8206,"etary":8207,"neues":8208,"ourselves":8209,"compon":8210,"ather":8211,"häufig":8212,"Mediterranean":8213,"parte":8214,"griffen":8215,"PH":8216,"TH":8217,"Tem":8218,"accep":8219,"fishing":8220,"minor":8221,"Museum":8222,"Hung":8223,"aktuellen":8224,"giving":8225,"ault":8226,"Veränder":8227,"ünd":8228,"unterst":8229,"Rede":8230,"verbind":8231,"zieht":8232,"ón":8233,"ams":8234,"forget":8235,"Präsidentschaft":8236,"decl":8237,"ored":8238,"auern":8239,"prises":8240,"wimming":8241,"cos":8242,"gebaut":8243,"advantage":8244,"Nationen":8245,"Party":8246,"Schwier":8247,"Sache":8248,"challenges":8249,"quare":8250,"Auffassung":8251,"Datei":8252,"Mod":8253,"interesting":8254,"base":8255,"Furthermore":8256,"uit":8257,"durchgeführt":8258,"Volk":8259,"leider":8260,"Lebensmittel":8261,"types":8262,"Bemühungen":8263,"Os":8264,"länger":8265,"King":8266,"York":8267,"provisions":8268,"Oktober":8269,"erkenn":8270,"sort":8271,"exact":8272,"consist":8273,"IA":8274,"höher":8275,"poverty":8276,"elections":8277,"Wider":8278,"occur":8279,"except":8280,"morrow":8281,"Belg":8282,"Untersuch":8283,"Armut":8284,"PD":8285,"integrated":8286,"mensch":8287,"solidarity":8288,"Koh":8289,"Portugal":8290,"largest":8291,"tools":8292,"congratulate":8293,"Many":8294,"ology":8295,"heben":8296,"Instit":8297,"train":8298,"reli":8299,"tomorrow":8300,"Stad":8301,"Gründen":8302,"Cap":8303,"Bürgern":8304,"growing":8305,"Villa":8306,"dient":8307,"surround":8308,"konnten":8309,"paid":8310,"ark":8311,"beitragen":8312,"started":8313,"Gel":8314,"Juli":8315,"Linie":8316,"betreffen":8317,"written":8318,"Heute":8319,"electron":8320,"comprehens":8321,"study":8322,"ktiven":8323,"Ged":8324,"section":8325,"documents":8326,"Empfehl":8327,"sinn":8328,"dates":8329,"scheinlich":8330,"colleagues":8331,"kontroll":8332,"Palest":8333,"damage":8334,"Development":8335,"unten":8336,"bewusst":8337,"geschaffen":8338,"Flü":8339,"constit":8340,"leiten":8341,"frequ":8342,"requires":8343,"apartment":8344,"humanit":8345,"prefer":8346,"gewöhn":8347,"Jahrhundert":8348,"institutional":8349,"geworden":8350,"Kennt":8351,"consequences":8352,"ehe":8353,"perform":8354,"film":8355,"ifik":8356,"wenige":8357,"Ren":8358,"AK":8359,"useful":8360,"geber":8361,"icy":8362,"ife":8363,"limit":8364,"liar":8365,"Bulgar":8366,"Gast":8367,"Grand":8368,"serve":8369,"ost":8370,"berühm":8371,"launch":8372,"Tagesordnung":8373,"drücklich":8374,"ney":8375,"conven":8376,"lesen":8377,"Start":8378,"operating":8379,"conflict":8380,"Öffentlichkeit":8381,"Bot":8382,"Film":8383,"school":8384,"decken":8385,"dank":8386,"poses":8387,"Bürgerinnen":8388,"Ressourcen":8389,"hältnis":8390,"Dateien":8391,"öffentliche":8392,"victim":8393,"Republik":8394,"vergessen":8395,"demokratischen":8396,"sole":8397,"größte":8398,"Aufgaben":8399,"July":8400,"curren":8401,"ielt":8402,"Schließ":8403,"mä":8404,"Center":8405,"island":8406,"Italian":8407,"listen":8408,"Januar":8409,"behandelt":8410,"dence":8411,"itude":8412,"alternative":8413,"Stabilität":8414,"erneut":8415,"wood":8416,"crucial":8417,"komp":8418,"üb":8419,"folgenden":8420,"langfrist":8421,"Rights":8422,"Natürlich":8423,"equal":8424,"Ereign":8425,"reality":8426,"renov":8427,"IF":8428,"36":8429,"Beteil":8430,"ierende":8431,"zusch":8432,"werte":8433,"bü":8434,"IB":8435,"Fon":8436,"Werte":8437,"constant":8438,"legation":8439,"Lassen":8440,"verstanden":8441,"Phil":8442,"immediately":8443,"annual":8444,"happy":8445,"tains":8446,"ihres":8447,"offiz":8448,"Städ":8449,"NAT":8450,"rosoft":8451,"Lu":8452,"payment":8453,"hesion":8454,"practical":8455,"produz":8456,"dlich":8457,"employees":8458,"Auftrag":8459,"Amendment":8460,"nice":8461,"sonst":8462,"Forschungs":8463,"fän":8464,"ias":8465,"Milliar":8466,"kil":8467,"geleg":8468,"dienst":8469,"forces":8470,"perfe":8471,"goes":8472,"Straßen":8473,"Bro":8474,"implemented":8475,"Nachbar":8476,"Mart":8477,"craft":8478,"ero":8479,"enh":8480,"Stu":8481,"zuführen":8482,"systeme":8483,"elements":8484,"1997":8485,"terrorism":8486,"variety":8487,"Hel":8488,"hätten":8489,"preis":8490,"deral":8491,"wid":8492,"won":8493,"gnis":8494,"applied":8495,"ples":8496,"entsprechenden":8497,"diejenigen":8498,"erc":8499,"48":8500,"richtige":8501,"AB":8502,"dent":8503,"Fällen":8504,"Flughafen":8505,"Hostels":8506,"sw":8507,"ienz":8508,"klein":8509,"Küche":8510,"processes":8511,"bilden":8512,"ursprün":8513,"wart":8514,"ista":8515,"Rechtsvorschriften":8516,"Zweitens":8517,"zufrieden":8518,"Sinne":8519,"Nr":8520,"Saf":8521,"verhindern":8522,"ured":8523,"north":8524,"ausgezeich":8525,"uration":8526,"waste":8527,"steigen":8528,"adequ":8529,"angesichts":8530,"analysis":8531,"Spezial":8532,"Monaten":8533,"efficiency":8534,"univers":8535,"Mid":8536,"config":8537,"opol":8538,"beant":8539,"sprach":8540,"kunden":8541,"zeichnen":8542,"Gal":8543,"berücksichtigt":8544,"unmittel":8545,"behalten":8546,"Universit":8547,"Modell":8548,"Obje":8549,"entsprechend":8550,"Security":8551,"zeichnung":8552,"veröffentlich":8553,"übrigen":8554,"Schn":8555,"drive":8556,"spee":8557,"organisations":8558,"erkennen":8559,"ara":8560,"IR":8561,"effizient":8562,"Microsoft":8563,"Even":8564,"Hä":8565,"Wohl":8566,"monitoring":8567,"warum":8568,"copy":8569,"Bedürf":8570,"würdig":8571,"Tal":8572,"cement":8573,"zep":8574,"fühl":8575,"aign":8576,"imat":8577,"freie":8578,"Finanzierung":8579,"ogle":8580,"Rats":8581,"temporary":8582,"paar":8583,"fresh":8584,"doubt":8585,"ality":8586,"discrimin":8587,"früher":8588,"fügen":8589,"Bundes":8590,"roll":8591,"Dritt":8592,"eher":8593,"nes":8594,"Vertreter":8595,"partnership":8596,"kap":8597,"beschrän":8598,"hom":8599,"spirit":8600,"hair":8601,"gewesen":8602,"afr":8603,"iveau":8604,"cription":8605,"bür":8606,"Aller":8607,"Firma":8608,"Tradition":8609,"expl":8610,"sichtigen":8611,"Beginn":8612,"Koordin":8613,"ades":8614,"zahlt":8615,"bor":8616,"Behandlung":8617,"News":8618,"ls":8619,"kategorien":8620,"bedingt":8621,"Vertrauen":8622,"erns":8623,"gewiesen":8624,"osop":8625,"Although":8626,"saying":8627,"Angelegenheit":8628,"Spanish":8629,"sektor":8630,"Enter":8631,"lernen":8632,"architect":8633,"operations":8634,"beru":8635,"berecht":8636,"lichkeiten":8637,"farmers":8638,"Centre":8639,"nachten":8640,"highest":8641,"perman":8642,"Minder":8643,"nungen":8644,"jüng":8645,"zi":8646,"75":8647,"voting":8648,"befür":8649,"finally":8650,"herz":8651,"tempt":8652,"sports":8653,"estic":8654,"expe":8655,"comprehensive":8656,"ücke":8657,"würd":8658,"depart":8659,"minimum":8660,"izin":8661,"quiet":8662,"Anstreng":8663,"options":8664,"ato":8665,"Cr":8666,"Urlaub":8667,"cert":8668,"leistung":8669,"400":8670,"Folge":8671,"During":8672,"Wann":8673,"gelt":8674,"bear":8675,"carry":8676,"splan":8677,"Terrorismus":8678,"Download":8679,"losen":8680,"coast":8681,"technologies":8682,"itzen":8683,"Winter":8684,"verz":8685,"beyond":8686,"ideas":8687,"Gericht":8688,"és":8689,"klass":8690,"iro":8691,"utt":8692,"Inhalt":8693,"scientific":8694,"Erfahrungen":8695,"Vergangen":8696,"wertungen":8697,"sales":8698,"dauer":8699,"meaning":8700,"Econom":8701,"SD":8702,"accord":8703,"accession":8704,"reduction":8705,"mic":8706,"weist":8707,"Secondly":8708,"historical":8709,"Aufenthalt":8710,"Green":8711,"challenge":8712,"Mann":8713,"preci":8714,"stock":8715,"deine":8716,"screen":8717,"Mos":8718,"anlage":8719,"restaurants":8720,"Änderung":8721,"tex":8722,"select":8723,"vollständig":8724,"begin":8725,"ado":8726,"bien":8727,"technischen":8728,"erfüllen":8729,"wards":8730,"Kredit":8731,"historic":8732,"Val":8733,"alität":8734,"track":8735,"Camp":8736,"überhaupt":8737,"served":8738,"endlich":8739,"formul":8740,"verläss":8741,"bezieh":8742,"stehenden":8743,"versucht":8744,"anden":8745,"wasser":8746,"rapid":8747,"Dien":8748,"Ost":8749,"Praxis":8750,"ellschaften":8751,"distance":8752,"Are":8753,"usch":8754,"gruppe":8755,"jem":8756,"trägen":8757,"weeks":8758,"Alt":8759,"occas":8760,"target":8761,"fire":8762,"session":8763,"late":8764,"steuer":8765,"schützen":8766,"Wil":8767,"abe":8768,"krise":8769,"village":8770,"shops":8771,"Parteien":8772,"las":8773,"Wunsch":8774,"Berichterstatterin":8775,"förder":8776,"deep":8777,"changed":8778,"wahrscheinlich":8779,"schönen":8780,"daily":8781,"circum":8782,"GN":8783,"Tagen":8784,"ML":8785,"alone":8786,"laufen":8787,"tritt":8788,"Moreover":8789,"friends":8790,"Mand":8791,"Viele":8792,"Flex":8793,"Schritte":8794,"format":8795,"iker":8796,"Altern":8797,"Menschenrechts":8798,"dep":8799,"wanted":8800,"campaign":8801,"Grö":8802,"likely":8803,"join":8804,"wechsel":8805,"kannt":8806,"Spieler":8807,"Aspekte":8808,"ständige":8809,"verantwortlich":8810,"Opfer":8811,"ays":8812,"wine":8813,"erklärt":8814,"ories":8815,"orial":8816,"eingesch":8817,"150":8818,"vorzu":8819,"fried":8820,"hervorragen":8821,"fas":8822,"opping":8823,"Public":8824,"sechs":8825,"genug":8826,"Ange":8827,"agieren":8828,"maximum":8829,"reference":8830,"numerous":8831,"Herausforderungen":8832,"umfang":8833,"ologie":8834,"AF":8835,"erfolgt":8836,"persons":8837,"clients":8838,"kret":8839,"Verteid":8840,"Flor":8841,"Vergangenheit":8842,"Ire":8843,"critic":8844,"trächt":8845,"thought":8846,"Spanien":8847,"verab":8848,"Islam":8849,"pursu":8850,"Soll":8851,"Telefon":8852,"Human":8853,"Tier":8854,"beginnen":8855,"plans":8856,"teach":8857,"begrüßen":8858,"netz":8859,"Produktions":8860,"innovation":8861,"ford":8862,"Zivil":8863,"restr":8864,"Allerdings":8865,"candid":8866,"businesses":8867,"Gest":8868,"raised":8869,"Nun":8870,"Google":8871,"Ireland":8872,"worldwide":8873,"Solidarität":8874,"Pet":8875,"Atmosph":8876,"01":8877,"email":8878,"fill":8879,"Mess":8880,"verpflichtet":8881,"Gebäude":8882,"sichern":8883,"Vir":8884,"Moder":8885,"offering":8886,"strategic":8887,"bessere":8888,"lost":8889,"33":8890,"starting":8891,"spannen":8892,"Sm":8893,"Entschließungs":8894,"daten":8895,"sectors":8896,"advert":8897,"adopt":8898,"Cy":8899,"sult":8900,"nungs":8901,"Sat":8902,"Arab":8903,"leaders":8904,"kop":8905,"MP":8906,"losigkeit":8907,"motor":8908,"sil":8909,"machine":8910,"Einige":8911,"DA":8912,"gekommen":8913,"zeiten":8914,"iö":8915,"plus":8916,"Austria":8917,"trust":8918,"nel":8919,"Berat":8920,"interested":8921,"ischem":8922,"urgent":8923,"erwartet":8924,"säm":8925,"icated":8926,"reichend":8927,"probably":8928,"offered":8929,"Schwierigkeiten":8930,"powers":8931,"iste":8932,"holen":8933,"images":8934,"staaten":8935,"anything":8936,"Adresse":8937,"Archite":8938,"Falls":8939,"Directive":8940,"apartments":8941,"modernen":8942,"regime":8943,"versor":8944,"valid":8945,"Arbeitsplätze":8946,"Unterkategorien":8947,"Conference":8948,"weiten":8949,"Chinese":8950,"jeweiligen":8951,"published":8952,"Prem":8953,"Waren":8954,"Krank":8955,"Firmen":8956,"substant":8957,"Wik":8958,"concentr":8959,"karte":8960,"relating":8961,"fällt":8962,"sorg":8963,"hilfe":8964,"rise":8965,"brand":8966,"Dann":8967,"prüft":8968,"plat":8969,"zusetzen":8970,"methods":8971,"absolutely":8972,"Vergleich":8973,"gemeinschaft":8974,"seiten":8975,"breite":8976,"Denn":8977,"aktion":8978,"calls":8979,"Distr":8980,"letzte":8981,"Hoff":8982,"Shop":8983,"became":8984,"zukünft":8985,"kämpfen":8986,"atalog":8987,"aver":8988,"ruption":8989,"nütz":8990,"stets":8991,"gruppen":8992,"Afghanistan":8993,"Karte":8994,"reviews":8995,"anderem":8996,"justice":8997,"sometimes":8998,"gers":8999,"chance":9000,"oo":9001,"bote":9002,"zumindest":9003,"Verfassung":9004,"Ins":9005,"1996":9006,"languages":9007,"mountain":9008,"vari":9009,"elling":9010,"games":9011,"honour":9012,"domin":9013,"appreci":9014,"Milliarden":9015,"schlag":9016,"wrong":9017,"sens":9018,"angeboten":9019,"stieg":9020,"emissions":9021,"OT":9022,"simpl":9023,"scale":9024,"urance":9025,"Schlüssel":9026,"NATO":9027,"Kapital":9028,"Landwir":9029,"caused":9030,"heutigen":9031,"mögen":9032,"release":9033,"adjust":9034,"verurs":9035,"Code":9036,"extent":9037,"historischen":9038,"QL":9039,"langen":9040,"automatisch":9041,"Restaurants":9042,"operate":9043,"Agenda":9044,"Roma":9045,"Ord":9046,"restrict":9047,"flexible":9048,"Verwaltung":9049,"außerhalb":9050,"Liberal":9051,"gment":9052,"Konzept":9053,"affected":9054,"Sonder":9055,"übernehmen":9056,"legant":9057,"erinnern":9058,"Annahme":9059,"verm":9060,"privaten":9061,"Only":9062,"genutzt":9063,"While":9064,"bir":9065,"syn":9066,"Atmosphäre":9067,"accepted":9068,"Swiss":9069,"uern":9070,"Prozent":9071,"Stellen":9072,"Georg":9073,"Indeed":9074,"fläche":9075,"voraus":9076,"eindeutig":9077,"erlaubt":9078,"geschütz":9079,"enze":9080,"dringend":9081,"dro":9082,"feed":9083,"raten":9084,"dung":9085,"mas":9086,"ighted":9087,"bitten":9088,"SM":9089,"Erstens":9090,"Infra":9091,"hilfen":9092,"touch":9093,"Out":9094,"verme":9095,"2020":9096,"gehend":9097,"konom":9098,"Mass":9099,"getragen":9100,"ritten":9101,"EG":9102,"sitting":9103,"geschrieben":9104,"initiatives":9105,"Homepage":9106,"investig":9107,"Regierungs":9108,"Kan":9109,"führte":9110,"player":9111,"genu":9112,"Gesamt":9113,"players":9114,"brid":9115,"eingehen":9116,"zahlreichen":9117,"38":9118,"banks":9119,"element":9120,"reduz":9121,"Anstrengungen":9122,"degre":9123,"confidence":9124,"Bis":9125,"minute":9126,"targe":9127,"speziell":9128,"installation":9129,"Gipfel":9130,"AV":9131,"ek":9132,"University":9133,"processing":9134,"Gas":9135,"bul":9136,"Ihres":9137,"influence":9138,"borders":9139,"Airport":9140,"expert":9141,"Sterne":9142,"diplom":9143,"Dazu":9144,"Überwach":9145,"slow":9146,"heard":9147,"Antrag":9148,"gesche":9149,"izes":9150,"persönlichen":9151,"Ven":9152,"Doppel":9153,"pictures":9154,"heav":9155,"sav":9156,"komplex":9157,"talking":9158,"trying":9159,"renew":9160,"erweiter":9161,"negative":9162,"Ve":9163,"danke":9164,"committed":9165,"este":9166,"Zeichen":9167,"reforms":9168,"demands":9169,"manufactur":9170,"Stock":9171,"critical":9172,"Slo":9173,"remember":9174,"stattung":9175,"chair":9176,"Sky":9177,"parking":9178,"bestimmt":9179,"Stil":9180,"Gra":9181,"Zentral":9182,"menu":9183,"Immobil":9184,"Obwohl":9185,"currency":9186,"comments":9187,"overall":9188,"Fischerei":9189,"Leg":9190,"uded":9191,"Einfluss":9192,"Besonder":9193,"welches":9194,"Betriebs":9195,"ecut":9196,"Wahlen":9197,"Angelegenheiten":9198,"PT":9199,"amerikanischen":9200,"Russian":9201,"exerc":9202,"Trotz":9203,"Voll":9204,"Constitution":9205,"fit":9206,"iling":9207,"separate":9208,"expressed":9209,"Pak":9210,"Ca":9211,"morning":9212,"stoffe":9213,"bemü":9214,"barer":9215,"fields":9216,"zudem":9217,"vorgelegt":9218,"cohesion":9219,"stimm":9220,"Verpflichtungen":9221,"datab":9222,"Organisationen":9223,"compar":9224,"sper":9225,"Bay":9226,"ausschließlich":9227,"End":9228,"priorities":9229,"deutschen":9230,"lier":9231,"spa":9232,"despite":9233,"Wissenschaft":9234,"Systeme":9235,"izing":9236,"administration":9237,"She":9238,"überzeugt":9239,"Kriterien":9240,"selection":9241,"stimme":9242,"begrenz":9243,"größere":9244,"Em":9245,"gebie":9246,"Ausschuß":9247,"Tar":9248,"flü":9249,"benutzt":9250,"zusätzliche":9251,"allgemeinen":9252,"chtet":9253,"SQL":9254,"IE":9255,"Tun":9256,"Zweif":9257,"beide":9258,"expected":9259,"bedarf":9260,"guest":9261,"ühren":9262,"konstru":9263,"uls":9264,"entschieden":9265,"transparent":9266,"improved":9267,"erkennung":9268,"pun":9269,"Schwer":9270,"lass":9271,"bran":9272,"accordance":9273,"structural":9274,"übernachten":9275,"Inn":9276,"goal":9277,"Einrichtung":9278,"Power":9279,"darstellt":9280,"Cast":9281,"NG":9282,"cycl":9283,"scope":9284,"representatives":9285,"occup":9286,"Vier":9287,"getroffen":9288,"Ther":9289,"otion":9290,"Palestin":9291,"nationale":9292,"sü":9293,"bill":9294,"sprü":9295,"intended":9296,"erstör":9297,"elegant":9298,"erung":9299,"Kompromiss":9300,"approved":9301,"Vereinbarung":9302,"läuft":9303,"lern":9304,"Zustimmung":9305,"Grie":9306,"italien":9307,"isely":9308,"ober":9309,"namely":9310,"Nutzen":9311,"decide":9312,"supports":9313,"natür":9314,"altet":9315,"respond":9316,"sych":9317,"seines":9318,"attack":9319,"militär":9320,"Verhalten":9321,"Lang":9322,"poll":9323,"Reformen":9324,"mill":9325,"forced":9326,"thaf":9327,"Acht":9328,"automatically":9329,"Ausgaben":9330,"Bestand":9331,"intell":9332,"opening":9333,"beschlossen":9334,"Kauf":9335,"reisen":9336,"rob":9337,"unemployment":9338,"Irak":9339,"lebt":9340,"competitive":9341,"aktuelle":9342,"descri":9343,"valu":9344,"Eigent":9345,"ham":9346,"Reserv":9347,"Partei":9348,"Gerä":9349,"Photo":9350,"fälle":9351,"votes":9352,"positions":9353,"kaufs":9354,"sensit":9355,"season":9356,"folger":9357,"entgegen":9358,"Bemer":9359,"icken":9360,"bourg":9361,"IG":9362,"ethn":9363,"increasingly":9364,"sagt":9365,"divers":9366,"administrative":9367,"Agre":9368,"ended":9369,"hood":9370,"shopping":9371,"buffet":9372,"Profess":9373,"cities":9374,"counts":9375,"Mittelme":9376,"east":9377,"34":9378,"Eind":9379,"LAN":9380,"zeichen":9381,"unbedingt":9382,"cred":9383,"running":9384,"globalen":9385,"Hause":9386,"gezeigt":9387,"explo":9388,"encourage":9389,"Garten":9390,"Frankfur":9391,"arus":9392,"mainly":9393,"Nacht":9394,"Gold":9395,"freuen":9396,"ties":9397,"Öl":9398,"lück":9399,"victims":9400,"temper":9401,"teuer":9402,"hoffen":9403,"herunter":9404,"moderne":9405,"conclusion":9406,"Vie":9407,"usw":9408,"Sektor":9409,"worked":9410,"erwähnt":9411,"dere":9412,"Paket":9413,"tot":9414,"Funktionen":9415,"yourself":9416,"älter":9417,"igungen":9418,"angegeben":9419,"reduced":9420,"Leute":9421,"contribute":9422,"Idee":9423,"glauben":9424,"akzeptieren":9425,"samm":9426,"ichert":9427,"län":9428,"angesprochen":9429,"gst":9430,"hour":9431,"Waffen":9432,"Ausgang":9433,"Why":9434,"effectively":9435,"Mc":9436,"Mex":9437,"ube":9438,"fähig":9439,"listed":9440,"circumstances":9441,"Dro":9442,"debt":9443,"elektron":9444,"Schließlich":9445,"Card":9446,"entwickel":9447,"Friedens":9448,"zt":9449,"sichten":9450,"Glück":9451,"berücksichtigen":9452,"tabled":9453,"proceed":9454,"crime":9455,"Mün":9456,"destens":9457,"hinweisen":9458,"planning":9459,"suitable":9460,"tit":9461,"Innovation":9462,"oten":9463,"Österreich":9464,"agraph":9465,"Dollar":9466,"laws":9467,"Vorteile":9468,"anda":9469,"führten":9470,"Mio":9471,"mix":9472,"Konflikt":9473,"ehemal":9474,"sicherzustellen":9475,"protected":9476,"Schla":9477,"entwicklung":9478,"confirm":9479,"kitchen":9480,"ergreifen":9481,"generation":9482,"Richtlinien":9483,"attle":9484,"buy":9485,"Völker":9486,"geändert":9487,"Anerkennung":9488,"ückt":9489,"began":9490,"phr":9491,"agriculture":9492,"abr":9493,"cret":9494,"sources":9495,"kaum":9496,"infrastructure":9497,"graf":9498,"37":9499,"fellow":9500,"relate":9501,"erzielt":9502,"brief":9503,"leichter":9504,"Licht":9505,"mittler":9506,"says":9507,"ione":9508,"immern":9509,"Any":9510,"gelöst":9511,"Dub":9512,"discussed":9513,"summit":9514,"decor":9515,"deckt":9516,"bathroom":9517,"quem":9518,"shof":9519,"entspricht":9520,"Sam":9521,"mär":9522,"Falle":9523,"abwe":9524,"schrift":9525,"Technologien":9526,"bege":9527,"anger":9528,"hagen":9529,"gesund":9530,"pendence":9531,"verfügbar":9532,"stable":9533,"55":9534,"ola":9535,"ensuring":9536,"Fakt":9537,"Vo":9538,"atter":9539,"ery":9540,"paper":9541,"mi":9542,"Nahr":9543,"chann":9544,"motion":9545,"Termin":9546,"structures":9547,"Wettbewerbsfähigkeit":9548,"Nations":9549,"angeb":9550,"Asia":9551,"gestellten":9552,"DP":9553,"India":9554,"selbstverständlich":9555,"itch":9556,"Fel":9557,"competen":9558,"ambit":9559,"Produkten":9560,"ifizierung":9561,"entsprechende":9562,"Ty":9563,"Lad":9564,"Künst":9565,"risks":9566,"CO2":9567,"Garant":9568,"Democr":9569,"visitors":9570,"hot":9571,"unterschiedlichen":9572,"ugg":9573,"Costa":9574,"lying":9575,"Elekt":9576,"Zwischen":9577,"Luxem":9578,"villa":9579,"ita":9580,"Its":9581,"Herz":9582,"Emiss":9583,"rasch":9584,"orea":9585,"nahm":9586,"Zunächst":9587,"willing":9588,"medic":9589,"schreiten":9590,"asks":9591,"rot":9592,"swimming":9593,"wält":9594,"Griechen":9595,"russ":9596,"aries":9597,"Mitteilung":9598,"ids":9599,"discussions":9600,"tete":9601,"umgesetzt":9602,"developments":9603,"functions":9604,"spart":9605,"Weit":9606,"powerful":9607,"1990":9608,"Belarus":9609,"Beruf":9610,"defined":9611,"Osten":9612,"SL":9613,"Chance":9614,"möglicherweise":9615,"Lab":9616,"Erd":9617,"introduced":9618,"Durchführung":9619,"Standards":9620,"Status":9621,"families":9622,"gleiche":9623,"kept":9624,"Infrastruktur":9625,"lager":9626,"vere":9627,"quant":9628,"Dig":9629,"Hintergrund":9630,"ense":9631,"tourist":9632,"lemente":9633,"detailed":9634,"aupts":9635,"Sprachen":9636,"binden":9637,"spective":9638,"Liz":9639,"ibilität":9640,"manage":9641,"marks":9642,"budgetary":9643,"benutzen":9644,"mindestens":9645,"wants":9646,"icip":9647,"bia":9648,"hund":9649,"represents":9650,"regret":9651,"moral":9652,"street":9653,"rechten":9654,"ivity":9655,"Station":9656,"seek":9657,"understanding":9658,"aded":9659,"ED":9660,"Haltung":9661,"cting":9662,"wogen":9663,"feature":9664,"participation":9665,"bestehenden":9666,"Script":9667,"selben":9668,"analy":9669,"zuletzt":9670,"senden":9671,"Banken":9672,"Beitritts":9673,"Effe":9674,"mehreren":9675,"rural":9676,"entry":9677,"Währung":9678,"Cze":9679,"plement":9680,"Por":9681,"aint":9682,"ley":9683,"kommenden":9684,"Installation":9685,"ye":9686,"button":9687,"ütze":9688,"Abschluss":9689,"isol":9690,"artigen":9691,"Work":9692,"lust":9693,"client":9694,"avig":9695,"ampag":9696,"gehalten":9697,"Netzwerk":9698,"verkehrs":9699,"Zudem":9700,"aimed":9701,"resort":9702,"klare":9703,"cers":9704,"Ident":9705,"äu":9706,"zielle":9707,"Pack":9708,"era":9709,"atoren":9710,"Veranstalt":9711,"lymp":9712,"Anspruch":9713,"warten":9714,"Qualitäts":9715,"Kal":9716,"technische":9717,"Inhalte":9718,"liefert":9719,"evening":9720,"achtet":9721,"ktoren":9722,"iat":9723,"asser":9724,"Boden":9725,"Milit":9726,"Patient":9727,"Then":9728,"spann":9729,"Kommunikation":9730,"closely":9731,"Anwendungen":9732,"assessment":9733,"Bush":9734,"alloc":9735,"schlä":9736,"flow":9737,"multip":9738,"Dre":9739,"electronic":9740,"managed":9741,"animals":9742,"liefer":9743,"siehe":9744,"dio":9745,"audio":9746,"näher":9747,"Alp":9748,"Fonds":9749,"Regional":9750,"attempt":9751,"exactly":9752,"Schaden":9753,"stät":9754,"ständen":9755,"Anpass":9756,"immen":9757,"finanziellen":9758,"adequate":9759,"schwierig":9760,"1995":9761,"love":9762,"white":9763,"tur":9764,"verbessert":9765,"Sing":9766,"angezeigt":9767,"oker":9768,"festgelegt":9769,"schul":9770,"guard":9771,"stechn":9772,"corporate":9773,"dead":9774,"speaking":9775,"hochwert":9776,"iser":9777,"Vorbereit":9778,"erfüllt":9779,"stated":9780,"plants":9781,"ureau":9782,"People":9783,"bürger":9784,"Körper":9785,"notwendigen":9786,"extensive":9787,"schem":9788,"init":9789,"uchs":9790,"tp":9791,"precisely":9792,"pension":9793,"tief":9794,"Kenntnis":9795,"black":9796,"gerichte":9797,"ISO":9798,"uly":9799,"constitution":9800,"tail":9801,"radio":9802,"satisf":9803,"breiten":9804,"99":9805,"geschä":9806,"ints":9807,"verfolgen":9808,"Abschließend":9809,"Rand":9810,"weite":9811,"marketing":9812,"chines":9813,"klicken":9814,"guidelines":9815,"discrimination":9816,"ION":9817,"uals":9818,"aming":9819,"Spr":9820,"provider":9821,"Aufnahme":9822,"Motor":9823,"amber":9824,"manner":9825,"spunkt":9826,"Middle":9827,"Klimawand":9828,"income":9829,"Cli":9830,"weak":9831,"specifically":9832,"Christian":9833,"properly":9834,"gency":9835,"terrace":9836,"08":9837,"TR":9838,"becoming":9839,"According":9840,"Besucher":9841,"erzielen":9842,"Olymp":9843,"watch":9844,"CS":9845,"usually":9846,"Agreement":9847,"Unfortunately":9848,"competitiveness":9849,"Czech":9850,"camera":9851,"britann":9852,"born":9853,"introduction":9854,"gründet":9855,"zentrum":9856,"comment":9857,"John":9858,"cia":9859,"Holz":9860,"proport":9861,"delivery":9862,"Ausbildung":9863,"astr":9864,"erstellt":9865,"09":9866,"collection":9867,"mitten":9868,"aschine":9869,"eingeschrän":9870,"symbol":9871,"Each":9872,"hle":9873,"conver":9874,"Mensch":9875,"linked":9876,"Never":9877,"freiheit":9878,"Board":9879,"enterprises":9880,"Suche":9881,"vermeiden":9882,"Betr":9883,"rahmen":9884,"Sea":9885,"Berichte":9886,"erhöhen":9887,"genannt":9888,"gering":9889,"lob":9890,"ancen":9891,"besonderen":9892,"bereitet":9893,"Bade":9894,"ales":9895,"reje":9896,"immigration":9897,"programs":9898,"liebe":9899,"freue":9900,"aters":9901,"speech":9902,"Jetzt":9903,"Abend":9904,"arischen":9905,"Greece":9906,"verring":9907,"improving":9908,"Pakistan":9909,"Leistungs":9910,"anderes":9911,"supporting":9912,"Turk":9913,"2011":9914,"sicherlich":9915,"werke":9916,"Beitritt":9917,"referred":9918,"thousands":9919,"considerable":9920,"Apartments":9921,"Vielen":9922,"purposes":9923,"geeignet":9924,"financing":9925,"64":9926,"pati":9927,"lio":9928,"assungs":9929,"Warum":9930,"expand":9931,"funktioniert":9932,"aby":9933,"selected":9934,"Risiko":9935,"itzerland":9936,"color":9937,"Lib":9938,"präsident":9939,"resist":9940,"facing":9941,"voller":9942,"atively":9943,"Sand":9944,"presidency":9945,"GB":9946,"ienen":9947,"PHP":9948,"defic":9949,"police":9950,"Arten":9951,"nachdem":9952,"itter":9953,"mitglie":9954,"betonen":9955,"MB":9956,"vac":9957,"students":9958,"phrase":9959,"Grundsatz":9960,"jur":9961,"weap":9962,"save":9963,"Ern":9964,"Vorgehen":9965,"Other":9966,"Büro":9967,"Bruss":9968,"Einrichtungen":9969,"whom":9970,"Switzerland":9971,"idential":9972,"Dienste":9973,"EAD":9974,"vit":9975,"Guest":9976,"electric":9977,"Instrumente":9978,"uropa":9979,"founded":9980,"gran":9981,"stärken":9982,"Straße":9983,"getting":9984,"Jed":9985,"führer":9986,"crete":9987,"prison":9988,"stattfinden":9989,"Presse":9990,"combat":9991,"rück":9992,"Großbritann":9993,"iance":9994,"winter":9995,"Initiativen":9996,"lieben":9997,"lebr":9998,"roy":9999,"ikal":10000,"OF":10001,"dram":10002,"räge":10003,"Abgeordnete":10004,"Aust":10005,"affect":10006,"Bos":10007,"iums":10008,"Brussels":10009,"prem":10010,"Bio":10011,"ologischen":10012,"picture":10013,"Stimme":10014,"dule":10015,"coordination":10016,"bewertungen":10017,"Forderung":10018,"Dol":10019,"Arg":10020,"belieb":10021,"Moment":10022,"Engagement":10023,"provision":10024,"Vielfalt":10025,"opened":10026,"duty":10027,"idents":10028,"pleasant":10029,"interpret":10030,"February":10031,"itate":10032,"Salz":10033,"schöne":10034,"richtigen":10035,"popul":10036,"earlier":10037,"Zweck":10038,"kern":10039,"ünft":10040,"Verwaltungs":10041,"Monate":10042,"wären":10043,"Regelung":10044,"Immobilien":10045,"forest":10046,"jene":10047,"jederzeit":10048,"Veränderungen":10049,"gelangen":10050,"Desk":10051,"luxur":10052,"stet":10053,"Wege":10054,"39":10055,"animal":10056,"44":10057,"wagen":10058,"proto":10059,"ifying":10060,"mechanis":10061,"Prote":10062,"compens":10063,"Bi":10064,"Ratsvor":10065,"submitted":10066,"omet":10067,"verur":10068,"medical":10069,"isierten":10070,"gewün":10071,"iffer":10072,"idet":10073,"otherwise":10074,"wanderung":10075,"walking":10076,"fisheries":10077,"Wellness":10078,"ING":10079,"ideos":10080,"erreich":10081,"Ak":10082,"wegung":10083,"iler":10084,"Bereit":10085,"Plen":10086,"applies":10087,"hnung":10088,"Mitgliedstaat":10089,"Las":10090,"auth":10091,"Menge":10092,"hängt":10093,"followed":10094,"Analyse":10095,"Over":10096,"Leider":10097,"thinking":10098,"expens":10099,"parliamentary":10100,"öm":10101,"felt":10102,"anging":10103,"meld":10104,"definit":10105,"07":10106,"remind":10107,"ergän":10108,"networks":10109,"Vereinten":10110,"Som":10111,"Schiff":10112,"Prioritäten":10113,"3D":10114,"anlagen":10115,"compat":10116,"experts":10117,"openhagen":10118,"arf":10119,"prüfung":10120,"Maschinen":10121,"staatlichen":10122,"fixed":10123,"üp":10124,"urban":10125,"Webseite":10126,"Frankfurt":10127,"chmal":10128,"Ban":10129,"haften":10130,"difficulties":10131,"recognis":10132,"metres":10133,"ju":10134,"utin":10135,"auty":10136,"suppl":10137,"Kindern":10138,"konkrete":10139,"drawn":10140,"His":10141,"Check":10142,"gefordert":10143,"Private":10144,"Note":10145,"actual":10146,"Währungs":10147,"celebr":10148,"entirely":10149,"lement":10150,"konzentrieren":10151,"components":10152,"dagegen":10153,"Kompon":10154,"alley":10155,"Zweifel":10156,"Band":10157,"nieder":10158,"MA":10159,"Tätigkeit":10160,"tte":10161,"gewinnen":10162,"Mechan":10163,"dealing":10164,"spielt":10165,"Herausforderung":10166,"flexibility":10167,"Anteil":10168,"gewicht":10169,"paragraph":10170,"rufen":10171,"euch":10172,"ips":10173,"gebiet":10174,"Associ":10175,"Most":10176,"inal":10177,"sold":10178,"ai":10179,"connected":10180,"Firstly":10181,"darunter":10182,"Pun":10183,"rank":10184,"wirks":10185,"Unabhäng":10186,"Sinn":10187,"dens":10188,"criminal":10189,"Casino":10190,"exclusive":10191,"bequem":10192,"refuge":10193,"49":10194,"informed":10195,"behör":10196,"stände":10197,"hindert":10198,"sized":10199,"Research":10200,"strict":10201,"shower":10202,"finanzielle":10203,"esterday":10204,"ökonom":10205,"Katastrop":10206,"core":10207,"acqu":10208,"Poland":10209,"dish":10210,"amin":10211,"Gästebewertungen":10212,"hands":10213,"zählen":10214,"rain":10215,"Dennoch":10216,"Einigung":10217,"kel":10218,"iles":10219,"Leistungen":10220,"gesp":10221,"Ed":10222,"durchaus":10223,"amente":10224,"elimin":10225,"Charakter":10226,"Brüssel":10227,"ausdrücklich":10228,"Fle":10229,"declar":10230,"Harmon":10231,"opposition":10232,"http":10233,"Beschl":10234,"bemer":10235,"Grenz":10236,"cook":10237,"presence":10238,"eingerichtet":10239,"chron":10240,"aucher":10241,"darstellen":10242,"tourism":10243,"Because":10244,"anspr":10245,"Programms":10246,"Schengen":10247,"tut":10248,"Barro":10249,"Sach":10250,"Teile":10251,"domestic":10252,"signal":10253,"seriously":10254,"beds":10255,"consideration":10256,"degree":10257,"Verständ":10258,"informieren":10259,"Dav":10260,"hafte":10261,"kaufen":10262,"Policy":10263,"Ti":10264,"playing":10265,"Meter":10266,"Übergang":10267,"entweder":10268,"gradu":10269,"welcher":10270,"helpful":10271,"exter":10272,"Forum":10273,"wollte":10274,"drop":10275,"saw":10276,"kund":10277,"suite":10278,"Texte":10279,"Schlaf":10280,"Versch":10281,"accur":10282,"05":10283,"Rum":10284,"grade":10285,"Rä":10286,"bericht":10287,"ecutive":10288,"Prag":10289,"besitz":10290,"preise":10291,"Übereinkommen":10292,"entstehen":10293,"Arbeiten":10294,"ordinary":10295,"Top":10296,"Zeitraum":10297,"Once":10298,"Krä":10299,"gewährleistet":10300,"bodies":10301,"Bran":10302,"icks":10303,"ication":10304,"Adr":10305,"landsc":10306,"einiger":10307,"Gebieten":10308,"vereinbar":10309,"purchase":10310,"humanitarian":10311,"öffnen":10312,"beha":10313,"assure":10314,"tie":10315,"freut":10316,"Under":10317,"detail":10318,"threat":10319,"äden":10320,"Economic":10321,"Ba":10322,"benötigt":10323,"estate":10324,"authority":10325,"spie":10326,"played":10327,"EADS":10328,"ameter":10329,"möglichst":10330,"aims":10331,"splä":10332,"impress":10333,"mögliche":10334,"Lehr":10335,"Worte":10336,"Königreich":10337,"igkeits":10338,"geleistet":10339,"Regul":10340,"Aspekt":10341,"MO":10342,"sand":10343,"propose":10344,"nächste":10345,"vertrag":10346,"verloren":10347,"erfolgen":10348,"verlei":10349,"enormous":10350,"beauf":10351,"Aufbau":10352,"erleben":10353,"database":10354,"lokalen":10355,"Poker":10356,"ending":10357,"diskutieren":10358,"scher":10359,"Mitte":10360,"inside":10361,"belong":10362,"sage":10363,"aspect":10364,"Leistung":10365,"kräfte":10366,"ores":10367,"wait":10368,"erstellen":10369,"wonderful":10370,"schreiben":10371,"abgeschlossen":10372,"cin":10373,"Support":10374,"cards":10375,"larger":10376,"besuchen":10377,"Sem":10378,"easier":10379,"appears":10380,"195":10381,"leitung":10382,"contr":10383,"politischer":10384,"konferenz":10385,"unterstütze":10386,"PDF":10387,"kräft":10388,"sle":10389,"licherweise":10390,"jeweils":10391,"percent":10392,"meetings":10393,"ny":10394,"Hauses":10395,"telephone":10396,"offee":10397,"average":10398,"ometer":10399,"zz":10400,"tests":10401,"items":10402,"erklären":10403,"etze":10404,"icians":10405,"vernünft":10406,"Februar":10407,"95":10408,"EP":10409,"bio":10410,"Anges":10411,"ength":10412,"Meiner":10413,"nennen":10414,"65":10415,"Zeiten":10416,"geschehen":10417,"600":10418,"God":10419,"isine":10420,"scen":10421,"Flücht":10422,"concrete":10423,"Barroso":10424,"buildings":10425,"800":10426,"schech":10427,"Komfort":10428,"bound":10429,"Entsch":10430,"Afrika":10431,"rep":10432,"App":10433,"Entschließungsantrag":10434,"owners":10435,"abilities":10436,"eit":10437,"Wirk":10438,"qualität":10439,"reise":10440,"verw":10441,"kostenlos":10442,"ni":10443,"balanced":10444,"gezogen":10445,"Stellungnahme":10446,"ernsthaf":10447,"habit":10448,"church":10449,"delay":10450,"sin":10451,"unacceptable":10452,"überprüfen":10453,"komfort":10454,"Betrieb":10455,"Frem":10456,"Versuch":10457,"Name":10458,"ünen":10459,"weight":10460,"Irish":10461,"Mun":10462,"Hersteller":10463,"Fen":10464,"pap":10465,"practices":10466,"het":10467,"peaceful":10468,"permanent":10469,"krat":10470,"gemüt":10471,"istence":10472,"signed":10473,"Sur":10474,"ental":10475,"starke":10476,"Forderungen":10477,"defence":10478,"numbers":10479,"teilweise":10480,"discover":10481,"plätze":10482,"fügt":10483,"AU":10484,"yn":10485,"sets":10486,"gelassen":10487,"Break":10488,"Hor":10489,"gegenseit":10490,"strength":10491,"veröffentlicht":10492,"vey":10493,"phil":10494,"politics":10495,"Link":10496,"Wi":10497,"beob":10498,"Asyl":10499,"Allgem":10500,"fear":10501,"houses":10502,"absolut":10503,"implementing":10504,"Due":10505,"Einhaltung":10506,"condem":10507,"reasonable":10508,"statements":10509,"entit":10510,"Angaben":10511,"photograph":10512,"Cur":10513,"Ps":10514,"betrachtet":10515,"vul":10516,"maßen":10517,"gelungen":10518,"vehicles":10519,"ök":10520,"availability":10521,"failure":10522,"Patienten":10523,"Messe":10524,"Hard":10525,"differences":10526,"happened":10527,"ügen":10528,"natur":10529,"Partnerschaft":10530,"Samm":10531,"myself":10532,"Ratsvorsitz":10533,"reducing":10534,"EF":10535,"Europeans":10536,"Rechnung":10537,"fulfil":10538,"orders":10539,"hner":10540,"carefully":10541,"Fi":10542,"Großbritannien":10543,"imag":10544,"Health":10545,"Verhältnis":10546,"acknow":10547,"Links":10548,"Eisen":10549,"erscheint":10550,"tür":10551,"geräum":10552,"Sorge":10553,"promoting":10554,"äger":10555,"liance":10556,"flanzen":10557,"reiber":10558,"Umfang":10559,"isierte":10560,"monetary":10561,"Click":10562,"Defin":10563,"fanta":10564,"owned":10565,"USB":10566,"Madrid":10567,"Black":10568,"trading":10569,"Nahrungs":10570,"punkte":10571,"advanced":10572,"gestalten":10573,"Achtung":10574,"täglich":10575,"Ul":10576,"angs":10577,"Entwicklungen":10578,"Kritik":10579,"korre":10580,"Est":10581,"ahead":10582,"unabhängig":10583,"Kil":10584,"Wald":10585,"machines":10586,"positiv":10587,"kulturellen":10588,"behaup":10589,"Ideen":10590,"experienced":10591,"producers":10592,"holt":10593,"persönlich":10594,"Tip":10595,"leiden":10596,"zeugung":10597,"calling":10598,"ente":10599,"charged":10600,"Irland":10601,"appoint":10602,"Herstellung":10603,"packages":10604,"seh":10605,"seven":10606,"becomes":10607,"Quest":10608,"Element":10609,"Wall":10610,"unterschiedliche":10611,"profitieren":10612,"kul":10613,"vents":10614,"erf":10615,"vertre":10616,"initial":10617,"tzen":10618,"names":10619,"wett":10620,"elegan":10621,"niemand":10622,"communications":10623,"06":10624,"PR":10625,"Kommissions":10626,"economies":10627,"feststellen":10628,"Arbeitslosigkeit":10629,"mbly":10630,"Verpflichtung":10631,"verlassen":10632,"establishment":10633,"verfolgt":10634,"gave":10635,"dennoch":10636,"spacious":10637,"Überwachung":10638,"Sehens":10639,"Kompeten":10640,"Num":10641,"introduce":10642,"Priorität":10643,"booking":10644,"Treffen":10645,"Komple":10646,"ads":10647,"karten":10648,"generally":10649,"endgült":10650,"Karten":10651,"hing":10652,"Wand":10653,"ishing":10654,"gegenwärtig":10655,"Technik":10656,"Press":10657,"geograph":10658,"Found":10659,"membership":10660,"consumption":10661,"demokratische":10662,"einsetzen":10663,"gg":10664,"bruch":10665,"wenigen":10666,"Stärkung":10667,"regionalen":10668,"aves":10669,"raise":10670,"umin":10671,"hingewiesen":10672,"üben":10673,"agencies":10674,"Gott":10675,"handels":10676,"Media":10677,"Führung":10678,"improvement":10679,"Mark":10680,"Na":10681,"wirksam":10682,"difference":10683,"Anlagen":10684,"Polen":10685,"dangerous":10686,"strongly":10687,"ennen":10688,"achtung":10689,"Austral":10690,"übertragen":10691,"Schw":10692,"gegenwärtigen":10693,"Prov":10694,"Tic":10695,"gelegten":10696,"Environment":10697,"neighbour":10698,"Ol":10699,"ray":10700,"bereiten":10701,"unfortunately":10702,"Diskrimin":10703,"Lesung":10704,"wirkt":10705,"Manager":10706,"Scho":10707,"umwelt":10708,"convin":10709,"hosp":10710,"Control":10711,"multi":10712,"ael":10713,"kunfts":10714,"Kingdom":10715,"03":10716,"worfen":10717,"erforderlichen":10718,"aufmerksam":10719,"roh":10720,"mack":10721,"noon":10722,"weiterer":10723,"hängen":10724,"Origin":10725,"zustimmen":10726,"Titel":10727,"Fortschritt":10728,"master":10729,"cuisine":10730,"earn":10731,"Format":10732,"47":10733,"Begriff":10734,"immediate":10735,"vollkommen":10736,"versorgung":10737,"passt":10738,"acts":10739,"kompliz":10740,"derer":10741,"schwe":10742,"verbundenen":10743,"ausgewä":10744,"Offen":10745,"conv":10746,"Street":10747,"expend":10748,"phase":10749,"Europäer":10750,"Problemen":10751,"grant":10752,"hose":10753,"stone":10754,"Absatz":10755,"told":10756,"stums":10757,"died":10758,"appar":10759,"EX":10760,"Kontin":10761,"typical":10762,"gewalt":10763,"Cam":10764,"Fire":10765,"kontext":10766,"üter":10767,"impossible":10768,"convenient":10769,"imit":10770,"evidence":10771,"attach":10772,"führenden":10773,"gig":10774,"Gran":10775,"zuvor":10776,"Trade":10777,"III":10778,"Resort":10779,"Gemeinsamen":10780,"eingeführt":10781,"dir":10782,"mine":10783,"motiv":10784,"Gleichzeitig":10785,"stil":10786,"Wien":10787,"tätig":10788,"adoption":10789,"üss":10790,"factory":10791,"wohner":10792,"2013":10793,"fiscal":10794,"Regelungen":10795,"Digital":10796,"genet":10797,"grammat":10798,"zig":10799,"rounded":10800,"suche":10801,"election":10802,"umfasst":10803,"Formen":10804,"zentrale":10805,"folgende":10806,"Zuständ":10807,"sensitive":10808,"guarantees":10809,"wortet":10810,"HO":10811,"Lam":10812,"Main":10813,"excess":10814,"frag":10815,"models":10816,"Angesichts":10817,"voice":10818,"Drogen":10819,"Et":10820,"combination":10821,"aums":10822,"tabel":10823,"geschützt":10824,"mittag":10825,"betroffen":10826,"Erklärungen":10827,"iegen":10828,"installed":10829,"jet":10830,"genuine":10831,"ehrte":10832,"überein":10833,"shared":10834,"Mat":10835,"Gewähr":10836,"Prime":10837,"Rein":10838,"Nevertheless":10839,"Wür":10840,"DR":10841,"continues":10842,"Klein":10843,"Mobil":10844,"toler":10845,"governmental":10846,"recognition":10847,"Bedürfnisse":10848,"African":10849,"dlichen":10850,"tasks":10851,"compla":10852,"vorliegenden":10853,"spent":10854,"Bewertung":10855,"wom":10856,"translation":10857,"qualifiz":10858,"Jeder":10859,"continued":10860,"district":10861,"medizin":10862,"Gent":10863,"Chancen":10864,"Geschäft":10865,"ffizienz":10866,"Agentur":10867,"garantiert":10868,"Geist":10869,"Bib":10870,"fare":10871,"Blog":10872,"schrän":10873,"wishes":10874,"aria":10875,"anyone":10876,"vielfält":10877,"associated":10878,"änge":10879,"bestell":10880,"trav":10881,"Heil":10882,"einfachen":10883,"grenzüber":10884,"Griechenland":10885,"Geschäftsordnung":10886,"Bern":10887,"miteinander":10888,"waiting":10889,"Player":10890,"Kopf":10891,"andidaten":10892,"legitim":10893,"offensichtlich":10894,"insurance":10895,"Strom":10896,"füll":10897,"Indien":10898,"zählt":10899,"keeping":10900,"background":10901,"Option":10902,"Vielzahl":10903,"mun":10904,"Polize":10905,"Terrasse":10906,"linge":10907,"iano":10908,"excl":10909,"Rezept":10910,"approxim":10911,"convinced":10912,"uba":10913,"ategory":10914,"98":10915,"truly":10916,"transition":10917,"finance":10918,"Finn":10919,"umfassende":10920,"Yet":10921,"haltet":10922,"führungen":10923,"Nutzer":10924,"changing":10925,"harm":10926,"Beschreibung":10927,"atures":10928,"Militär":10929,"reservation":10930,"organiz":10931,"instance":10932,"proof":10933,"allel":10934,"lösung":10935,"Registr":10936,"ibrary":10937,"Live":10938,"Heimat":10939,"closer":10940,"spending":10941,"Jahrhunderts":10942,"passed":10943,"figures":10944,"pi":10945,"02":10946,"Klicken":10947,"hum":10948,"attractive":10949,"Studio":10950,"collabor":10951,"Rou":10952,"stance":10953,"definition":10954,"Lizenz":10955,"beglück":10956,"eingere":10957,"Swe":10958,"Globalisierung":10959,"ashion":10960,"rock":10961,"Tourismus":10962,"Elemente":10963,"Pil":10964,"arten":10965,"satell":10966,"uster":10967,"Rechnungs":10968,"registered":10969,"grenzen":10970,"announced":10971,"Verlust":10972,"Hafen":10973,"Mel":10974,"Märkte":10975,"Wün":10976,"Beif":10977,"mächt":10978,"enables":10979,"Act":10980,"Third":10981,"spo":10982,"gap":10983,"zö":10984,"participate":10985,"psych":10986,"marked":10987,"reliable":10988,"ania":10989,"Distrib":10990,"Vien":10991,"nutz":10992,"ilateral":10993,"mak":10994,"Speicher":10995,"spezielle":10996,"length":10997,"Erst":10998,"örter":10999,"studies":11000,"spot":11001,"spread":11002,"1994":11003,"rough":11004,"stärk":11005,"Nah":11006,"üssen":11007,"Sof":11008,"tran":11009,"learning":11010,"Enterprise":11011,"gewiss":11012,"conclusions":11013,"ieht":11014,"ih":11015,"ernst":11016,"Wichtig":11017,"Mü":11018,"Cop":11019,"asil":11020,"iking":11021,"possibilities":11022,"ißen":11023,"barr":11024,"rightly":11025,"bieter":11026,"einfache":11027,"qualit":11028,"ECU":11029,"religious":11030,"04":11031,"outcome":11032,"gegründet":11033,"Einkommen":11034,"ambitious":11035,"atta":11036,"Maße":11037,"beteiligt":11038,"Jour":11039,"Van":11040,"ugos":11041,"sicherung":11042,"micro":11043,"Erhö":11044,"greatest":11045,"würdigkeiten":11046,"asyl":11047,"Association":11048,"langt":11049,"schiede":11050,"devices":11051,"ausreichend":11052,"courses":11053,"forth":11054,"Entwurf":11055,"ensions":11056,"perspective":11057,"tainment":11058,"wünsche":11059,"nötig":11060,"dimension":11061,"tenance":11062,"taste":11063,"matic":11064,"Roy":11065,"Turkish":11066,"sides":11067,"Mik":11068,"Another":11069,"onto":11070,"Sonnen":11071,"jährigen":11072,"Konz":11073,"Worten":11074,"cm":11075,"revolution":11076,"Flash":11077,"finde":11078,"factor":11079,"label":11080,"Mitteln":11081,"Atlant":11082,"rol":11083,"intervention":11084,"Gesprä":11085,"reden":11086,"dorf":11087,"keinerlei":11088,"honourable":11089,"Kohäs":11090,"mie":11091,"überall":11092,"Wechsel":11093,"Nether":11094,"Commun":11095,"glass":11096,"gebe":11097,"krank":11098,"bestätigt":11099,"CP":11100,"krieg":11101,"Where":11102,"42":11103,"endum":11104,"adapt":11105,"ologische":11106,"capable":11107,"allowing":11108,"ata":11109,"article":11110,"Stein":11111,"iertes":11112,"orge":11113,"store":11114,"Breakfast":11115,"advance":11116,"match":11117,"Mitglieds":11118,"venue":11119,"wettbewer":11120,"verabschie":11121,"asylum":11122,"Back":11123,"blog":11124,"exhibition":11125,"elected":11126,"clo":11127,"Gründe":11128,"JavaScript":11129,"Find":11130,"appeal":11131,"Marketing":11132,"erei":11133,"Syn":11134,"Palestinian":11135,"dated":11136,"Teilnehmer":11137,"citizen":11138,"update":11139,"mode":11140,"Foundation":11141,"gegangen":11142,"indire":11143,"wendet":11144,"Santa":11145,"seeing":11146,"NI":11147,"kete":11148,"Paläst":11149,"SA":11150,"Time":11151,"confir":11152,"Zahlen":11153,"commitments":11154,"interface":11155,"stimmt":11156,"advis":11157,"Tab":11158,"haupts":11159,"Sound":11160,"uting":11161,"respective":11162,"desire":11163,"angt":11164,"Alex":11165,"schir":11166,"großes":11167,"umn":11168,"desk":11169,"Gerichtshof":11170,"dispos":11171,"middle":11172,"phen":11173,"plays":11174,"solcher":11175,"cars":11176,"fand":11177,"gypt":11178,"größeren":11179,"coffee":11180,"internationaler":11181,"nom":11182,"failed":11183,"pure":11184,"Monat":11185,"Beteiligung":11186,"PPE":11187,"sale":11188,"asy":11189,"matik":11190,"wesentlichen":11191,"write":11192,"architecture":11193,"described":11194,"lehnt":11195,"Hinweis":11196,"Fore":11197,"unless":11198,"Datenbank":11199,"empfehlen":11200,"controls":11201,"Universität":11202,"grand":11203,"sämtliche":11204,"Verteidigung":11205,"books":11206,"Wiederauf":11207,"chnet":11208,"Verbrechen":11209,"Ruhe":11210,"hall":11211,"starken":11212,"istisch":11213,"Justice":11214,"Justiz":11215,"Schön":11216,"Grunde":11217,"Budget":11218,"completed":11219,"platform":11220,"komplett":11221,"ellos":11222,"Eastern":11223,"68":11224,"Gaz":11225,"Kombin":11226,"wealth":11227,"istik":11228,"Marken":11229,"Sehenswürdigkeiten":11230,"bag":11231,"scr":11232,"advertising":11233,"Beschäftigungs":11234,"vorschlag":11235,"vorschlagen":11236,"totally":11237,"erecht":11238,"diesel":11239,"Urs":11240,"sofern":11241,"relativ":11242,"Flexibilität":11243,"SC":11244,"klang":11245,"ral":11246,"ktors":11247,"Set":11248,"spät":11249,"wahren":11250,"correspon":11251,"Todes":11252,"payments":11253,"Anlage":11254,"skills":11255,"ergeben":11256,"moving":11257,"User":11258,"ller":11259,"Engl":11260,"garantieren":11261,"Dut":11262,"highlight":11263,"allery":11264,"udes":11265,"betrachten":11266,"Dorf":11267,"französischen":11268,"Saint":11269,"released":11270,"grundsätz":11271,"Custom":11272,"sensus":11273,"drin":11274,"Kontroll":11275,"Minutes":11276,"Freund":11277,"disease":11278,"Aussicht":11279,"Künstler":11280,"candidate":11281,"Experten":11282,"Größe":11283,"unit":11284,"okraten":11285,"combined":11286,"SV":11287,"Geh":11288,"compared":11289,"Architektur":11290,"obviously":11291,"schung":11292,"Niveau":11293,"Empfehlungen":11294,"exercise":11295,"250":11296,"technik":11297,"Deutsche":11298,"zufolge":11299,"benach":11300,"nachhaltige":11301,"colleague":11302,"außen":11303,"yesterday":11304,"attform":11305,"territory":11306,"sobald":11307,"chst":11308,"Verb":11309,"contrary":11310,"ärm":11311,"teilnehmen":11312,"aktionen":11313,"reception":11314,"achieving":11315,"Zugriff":11316,"erhöht":11317,"posite":11318,"Colle":11319,"Gol":11320,"MU":11321,"Mindest":11322,"command":11323,"gutes":11324,"Politiker":11325,"teten":11326,"nationaler":11327,"organised":11328,"route":11329,"Netherlands":11330,"Mir":11331,"delic":11332,"weapons":11333,"arbeite":11334,"Aktionen":11335,"änglich":11336,"danach":11337,"argument":11338,"Rob":11339,"Verständnis":11340,"ela":11341,"figur":11342,"Ereignisse":11343,"stood":11344,"Great":11345,"erfordert":11346,".-":11347,"Botschaft":11348,"TP":11349,"geist":11350,"observ":11351,"expenditure":11352,"Datenschutz":11353,"vorgeschlagenen":11354,"ausschusses":11355,"Dimension":11356,"leun":11357,"targets":11358,"holung":11359,"bewegen":11360,"limits":11361,"Beihilfen":11362,"beinhaltet":11363,"individuals":11364,"Croat":11365,"NL":11366,"Vorsitzen":11367,"memory":11368,"Kind":11369,"ausgewogen":11370,"himself":11371,"ungsverfahren":11372,"sequent":11373,"Kirche":11374,"jüngsten":11375,"Methode":11376,"lect":11377,"unternommen":11378,"cycle":11379,"Formular":11380,"atever":11381,"unable":11382,"hergestellt":11383,"älfte":11384,"stimul":11385,"Studien":11386,"faces":11387,"annt":11388,"Thus":11389,"Risiken":11390,"zerstör":11391,"Hoffnung":11392,"ena":11393,"meant":11394,"spezial":11395,"factors":11396,"Summit":11397,"EW":11398,"si":11399,"earth":11400,"bett":11401,"biggest":11402,"pil":11403,"extended":11404,"einverstanden":11405,"informiert":11406,"court":11407,"ktivität":11408,"Realität":11409,"Sar":11410,"Tisch":11411,"equality":11412,"goals":11413,"Seine":11414,"Zoll":11415,"television":11416,"besitzt":11417,"Mutter":11418,"Day":11419,"Syr":11420,"Those":11421,"rechtlichen":11422,"Gegenteil":11423,"liter":11424,"Ear":11425,"amoun":11426,"Nu":11427,"museum":11428,"inspe":11429,"winn":11430,"fruit":11431,"labor":11432,"Welche":11433,"omb":11434,"governance":11435,"Gesetzgebung":11436,"storage":11437,"flug":11438,"Tha":11439,"tu":11440,"erb":11441,"Journal":11442,"handlungen":11443,"Mitgliedern":11444,"spolit":11445,"Data":11446,"proz":11447,"griffe":11448,"neither":11449,"window":11450,"Ebenso":11451,"britischen":11452,"Kurz":11453,"threaten":11454,"successfully":11455,"Fotos":11456,"sorgfält":11457,"verteid":11458,"tzentr":11459,"Paul":11460,"White":11461,"Eindruck":11462,"kmal":11463,"trollen":11464,"igrants":11465,"winden":11466,"chain":11467,"angene":11468,"patent":11469,"Front":11470,"speziellen":11471,"verste":11472,"bene":11473,"mittels":11474,"establishing":11475,"Ausland":11476,"beaches":11477,"beginnt":11478,"öp":11479,"usual":11480,"Hamburg":11481,"Hall":11482,"asking":11483,"Alban":11484,"estim":11485,"Sho":11486,"olo":11487,"Fraktionen":11488,"geschieht":11489,"Ganz":11490,"gä":11491,"accessible":11492,"evalu":11493,"piece":11494,"zusätzlich":11495,"hlten":11496,"Pers":11497,"Report":11498,"aktual":11499,"testen":11500,"Gebiete":11501,"Relig":11502,"granted":11503,"liothe":11504,"advice":11505,"Fert":11506,"continuing":11507,"iques":11508,"ancient":11509,"tten":11510,"notice":11511,"Beob":11512,"engl":11513,"Städte":11514,"Beach":11515,"dedicated":11516,"subje":11517,"expression":11518,"prop":11519,"antages":11520,"nehmern":11521,"vulner":11522,"Bahnhof":11523,"raw":11524,"außerord":11525,"daraus":11526,"glad":11527,"testing":11528,"arrival":11529,"Administr":11530,"allgemeine":11531,"song":11532,"voc":11533,"verletz":11534,"tent":11535,"ausführ":11536,"erneuer":11537,"fraud":11538,"grounds":11539,"Minderheiten":11540,"iber":11541,"chosen":11542,"appointed":11543,"grie":11544,"Obama":11545,"browser":11546,"agency":11547,"binding":11548,"Beifall":11549,"Bor":11550,"regeln":11551,"Bedarf":11552,"schneller":11553,"surface":11554,"device":11555,"iche":11556,"lastung":11557,"recommendations":11558,"obligations":11559,"lägen":11560,"gerufen":11561,"visual":11562,"independence":11563,"Vorteil":11564,"Corpor":11565,"Know":11566,"Vil":11567,"Verfüg":11568,"festgestellt":11569,"rown":11570,"Peter":11571,"Phase":11572,"hostels":11573,"jemand":11574,"wichtigste":11575,"Meeres":11576,"gewisse":11577,"Pool":11578,"constantly":11579,"philosop":11580,"mittelt":11581,"sell":11582,"merely":11583,"Show":11584,"Box":11585,"Refer":11586,"Plä":11587,"Wander":11588,"Ke":11589,"pä":11590,"ablen":11591,"Arbeitsmarkt":11592,"Gegensatz":11593,"Unabhängigkeit":11594,"ida":11595,"bezeichnet":11596,"ump":11597,"anischen":11598,"laut":11599,"ua":11600,"tried":11601,"Slow":11602,"intelle":11603,"promotion":11604,"perfectly":11605,"entitled":11606,"Liber":11607,"Latin":11608,"sequently":11609,"abol":11610,"meters":11611,"Grundrechte":11612,"Blue":11613,"Meinungs":11614,"jun":11615,"quer":11616,"künd":11617,"genannte":11618,"edia":11619,"Muslim":11620,"ichern":11621,"ula":11622,"Verletz":11623,"prevention":11624,"claims":11625,"sec":11626,"angeht":11627,"Special":11628,"Festival":11629,"Lob":11630,"sid":11631,"Prüfung":11632,"Bestandteil":11633,"story":11634,"Liberalisierung":11635,"Überprüfung":11636,"stream":11637,"gebil":11638,"England":11639,"surrounding":11640,"Erwart":11641,"globale":11642,"Vienna":11643,"theit":11644,"umb":11645,"versions":11646,"mechanism":11647,"burden":11648,"Michael":11649,"situations":11650,"advantages":11651,"maintenance":11652,"46":11653,"Wirkung":11654,"beruf":11655,"betroffenen":11656,"massive":11657,"Effizienz":11658,"türk":11659,"nar":11660,"ador":11661,"Bol":11662,"herzlich":11663,"Foreign":11664,"eur":11665,"onia":11666,"science":11667,"manchmal":11668,"Agency":11669,"Greek":11670,"wann":11671,"anen":11672,"Finan":11673,"geöffnet":11674,"consistent":11675,"OM":11676,"existence":11677,"Unterkunft":11678,"gesellschaften":11679,"Voraussetzungen":11680,"PRO":11681,"strategie":11682,"push":11683,"kontin":11684,"zentral":11685,"breitung":11686,"thes":11687,"communities":11688,"richtlinie":11689,"pas":11690,"Fitness":11691,"hauptsächlich":11692,"instru":11693,"intensive":11694,"Einkaufs":11695,"conclude":11696,"Beim":11697,"echte":11698,"rec":11699,"Teilen":11700,"oral":11701,"klusive":11702,"Ros":11703,"iode":11704,"beachten":11705,"Caf":11706,"Fa":11707,"ässer":11708,"Fax":11709,"recovery":11710,"Nichtr":11711,"Rumän":11712,"Wal":11713,"Model":11714,"Fü":11715,"trend":11716,"sicherstellen":11717,"ée":11718,"category":11719,"disch":11720,"arms":11721,"nearby":11722,"Schrif":11723,"guter":11724,"Nachrichten":11725,"vereign":11726,"schlagen":11727,"sovereign":11728,"urge":11729,"kehren":11730,"Ton":11731,"Win":11732,"laid":11733,"ausländ":11734,"Rome":11735,"pul":11736,"gesundheit":11737,"Diskriminierung":11738,"mov":11739,"Farben":11740,"Austrian":11741,"quid":11742,"ausreichen":11743,"gespe":11744,"consensus":11745,"veget":11746,"Express":11747,"Fac":11748,"intention":11749,"Romania":11750,"reagieren":11751,"ördert":11752,"ENT":11753,"inary":11754,"tend":11755,"holidays":11756,"mes":11757,"einzigen":11758,"discussing":11759,"sched":11760,"Niederland":11761,"Kurs":11762,"substantial":11763,"Ker":11764,"zil":11765,"bringing":11766,"besseren":11767,"diskutiert":11768,"atlant":11769,"Verkauf":11770,"fragt":11771,"journal":11772,"igem":11773,"addressed":11774,"organization":11775,"Mittelmeer":11776,"cat":11777,"personen":11778,"beauty":11779,"compl":11780,"fühlen":11781,"responsibilities":11782,"160":11783,"qualified":11784,"putting":11785,"produktion":11786,"Kyo":11787,"plause":11788,"kleiner":11789,"fuel":11790,"erh":11791,"Bildungs":11792,"tos":11793,"deiner":11794,"Zustand":11795,"LT":11796,"persönliche":11797,"Nichtraucher":11798,"Erhöhung":11799,"semin":11800,"Apparte":11801,"drän":11802,"organisationen":11803,"relaxing":11804,"dynamic":11805,"texts":11806,"Generation":11807,"extend":11808,"Muse":11809,"submit":11810,"vehicle":11811,"Methoden":11812,"Weitere":11813,"Kyoto":11814,"Tom":11815,"contents":11816,"railway":11817,"aufen":11818,"Sweden":11819,"colour":11820,"Korea":11821,"wers":11822,"employed":11823,"Prakt":11824,"Beschluss":11825,"120":11826,"convent":11827,"Stadtzentr":11828,"Cypr":11829,"compliance":11830,"Koordinierung":11831,"geste":11832,"nia":11833,"Wegen":11834,"blue":11835,"strengthening":11836,"Gut":11837,"yr":11838,"cheap":11839,"gewünsch":11840,"ausende":11841,"boot":11842,"Pflicht":11843,"deration":11844,"outstanding":11845,"bekannten":11846,"itage":11847,"territorial":11848,"Skype":11849,"Both":11850,"ickt":11851,"pill":11852,"kombin":11853,"Klimawandel":11854,"holders":11855,"ura":11856,"Regulation":11857,"dele":11858,"etter":11859,"gir":11860,"Haut":11861,"vak":11862,"bezieht":11863,"inens":11864,"trifft":11865,"Gefühl":11866,"flu":11867,"explain":11868,"angel":11869,"seeking":11870,"CC":11871,"fiz":11872,"Teilnahme":11873,"ansion":11874,"contained":11875,"Engine":11876,"causes":11877,"bureau":11878,"Akte":11879,"planned":11880,"aircraft":11881,"Energy":11882,"flight":11883,"weiteres":11884,"talks":11885,"luxury":11886,"900":11887,"fertigt":11888,"registration":11889,"Sun":11890,"politisch":11891,"85":11892,"approximately":11893,"idung":11894,"golf":11895,"sichts":11896,"ktions":11897,"praktisch":11898,"Fälle":11899,"beschäftigt":11900,"kürzlich":11901,"behandeln":11902,"Prodi":11903,"nations":11904,"ala":11905,"ordnungs":11906,"Export":11907,"Männer":11908,"Reaktion":11909,"decades":11910,"guaranteed":11911,"hebung":11912,"Hälfte":11913,"auben":11914,"BR":11915,"Class":11916,"modell":11917,"betont":11918,"examples":11919,"Bedenken":11920,"index":11921,"Nik":11922,"higkeit":11923,"übernommen":11924,"Gedanken":11925,"Roh":11926,"bindung":11927,"vieler":11928,"Kooperation":11929,"Streit":11930,"Ra":11931,"jungen":11932,"someone":11933,"metho":11934,"treated":11935,"respekt":11936,"Hostelsclub":11937,"Absicht":11938,"edge":11939,"Anti":11940,"physical":11941,"attacks":11942,"án":11943,"reply":11944,"preserv":11945,"zuverläss":11946,"1992":11947,"explan":11948,"ervice":11949,"akzeptiert":11950,"evaluation":11951,"brings":11952,"oram":11953,"regelmäßig":11954,"beeinfl":11955,"koordin":11956,"orgnis":11957,"Tool":11958,"usetzen":11959,"Reisen":11960,"romant":11961,"Anliegen":11962,"Sow":11963,"ideale":11964,"stellte":11965,"ländlichen":11966,"Angriff":11967,"Austausch":11968,"ky":11969,"disposal":11970,"ml":11971,"Chamber":11972,"ruhigen":11973,"truth":11974,"square":11975,"meist":11976,"wodurch":11977,"Vorbereitung":11978,"Lake":11979,"wing":11980,"Spiele":11981,"ignor":11982,"Ausnahme":11983,"patients":11984,"positiven":11985,"attractions":11986,"anbieten":11987,"Ass":11988,"Altstadt":11989,"liefern":11990,"läu":11991,"früh":11992,"Zahlungs":11993,"Beweis":11994,"schafft":11995,"präsentiert":11996,"mlich":11997,"Fenster":11998,"Hist":11999,"ategorie":12000,"competence":12001,"destroy":12002,"Institute":12003,"isierungs":12004,"fällen":12005,"schau":12006,"veranst":12007,"Unterschiede":12008,"Inner":12009,"welchen":12010,"default":12011,"zwungen":12012,"Financial":12013,"Alliance":12014,"remove":12015,"geiz":12016,"Company":12017,"enge":12018,"1000":12019,"Nachdem":12020,"werten":12021,"Palace":12022,"Sprach":12023,"FA":12024,"leads":12025,"Vielleicht":12026,"Diskussionen":12027,"höchst":12028,"Radio":12029,"sibly":12030,"Jahrzehn":12031,"selten":12032,"Details":12033,"technological":12034,"Dokumente":12035,"dé":12036,"Komment":12037,"occasion":12038,"Graf":12039,"Sehr":12040,"incent":12041,"befassen":12042,"Willen":12043,"Vom":12044,"abhängig":12045,"magn":12046,"Veröffentlich":12047,"investments":12048,"jährlich":12049,"verlieren":12050,"Federal":12051,"conduct":12052,"satellite":12053,"esty":12054,"kurs":12055,"Located":12056,"Übernach":12057,"issens":12058,"manufacturing":12059,"consolid":12060,"erscheinen":12061,"ws":12062,"zeß":12063,"unto":12064,"Non":12065,"river":12066,"cool":12067,"Martin":12068,"istenz":12069,"sprachen":12070,"assum":12071,"Rules":12072,"surpr":12073,"räume":12074,"verstärkt":12075,"agiert":12076,"Umständen":12077,"onial":12078,"Internationalen":12079,"conditioning":12080,"stö":12081,"rupt":12082,"sieben":12083,"secon":12084,"dealt":12085,"Anpassung":12086,"hit":12087,"Pop":12088,"folio":12089,"gewählt":12090,"complic":12091,"willkommen":12092,"error":12093,"Signal":12094,"asp":12095,"Schwar":12096,"industries":12097,"looks":12098,"mountains":12099,"Lö":12100,"fein":12101,"exec":12102,"Sanktionen":12103,"Charter":12104,"41":12105,"ius":12106,"teen":12107,"fashion":12108,"unanim":12109,"determined":12110,"Bill":12111,"Roll":12112,"spaces":12113,"stoffen":12114,"sanctions":12115,"quir":12116,"aca":12117,"ague":12118,"einzelne":12119,"berühmten":12120,"bereiche":12121,"Angebote":12122,"Browser":12123,"ergriffen":12124,"gearbeitet":12125,"agent":12126,"Schulden":12127,"migration":12128,"schritt":12129,"spezifischen":12130,"Pay":12131,"photos":12132,"Apartment":12133,"distin":12134,"gender":12135,"seitens":12136,"steel":12137,"warded":12138,"List":12139,"Lager":12140,"recognise":12141,"consultation":12142,"gestern":12143,"primarily":12144,"gone":12145,"consists":12146,"Paper":12147,"Dutch":12148,"Verfügbarkeit":12149,"Gebrauch":12150,"Thanks":12151,"Tim":12152,"Gesetze":12153,"Rem":12154,"entscheid":12155,"bestand":12156,"surv":12157,"43":12158,"HD":12159,"folgerungen":12160,"pp":12161,"theor":12162,"reject":12163,"smoking":12164,"Mak":12165,"wim":12166,"damals":12167,"optimal":12168,"üstung":12169,"reve":12170,"artists":12171,"überzeugen":12172,"therap":12173,"Kollege":12174,"deutsche":12175,"mutual":12176,"Ordnung":12177,"Fähigkeit":12178,"Delegation":12179,"wichtiges":12180,"unterschiedlich":12181,"Democrats":12182,"iced":12183,"lake":12184,"ücken":12185,"Solar":12186,"leadership":12187,"agno":12188,"derzeitigen":12189,"imper":12190,"grundlage":12191,"gigen":12192,"basiert":12193,"Fer":12194,"Argent":12195,"Handeln":12196,"participants":12197,"körper":12198,"igern":12199,"Audit":12200,"prinzip":12201,"begonnen":12202,"spezifische":12203,"genü":12204,"GNU":12205,"speakers":12206,"exception":12207,"Glas":12208,"eye":12209,"nochmals":12210,"bac":12211,"concil":12212,"regionale":12213,"older":12214,"controll":12215,"Aufgrund":12216,"Fischer":12217,"Tiere":12218,"stol":12219,"slight":12220,"surrounded":12221,"diversity":12222,"ktiver":12223,"systemat":12224,"lav":12225,"Before":12226,"accounts":12227,"zugleich":12228,"Morgen":12229,"spartner":12230,"Square":12231,"emphasise":12232,"OK":12233,"wachen":12234,"künst":12235,"junge":12236,"Brazil":12237,"THE":12238,"symp":12239,"Dublin":12240,"compatible":12241,"Rezeption":12242,"Feld":12243,"fassen":12244,"multiple":12245,"meister":12246,"Maßnahme":12247,"kommun":12248,"Strategien":12249,"fug":12250,"autom":12251,"previously":12252,"ando":12253,"Bewegung":12254,"orgt":12255,"Amerika":12256,"umfassenden":12257,"carbon":12258,"A3":12259,"Schne":12260,"Antworten":12261,"Strukturfonds":12262,"formal":12263,"fuhr":12264,"Gentoo":12265,"Pflanzen":12266,"Typ":12267,"eight":12268,"forum":12269,"Einklang":12270,"ora":12271,"Revolution":12272,"manufacturers":12273,"formed":12274,"plug":12275,"delegation":12276,"oted":12277,"Veranstaltungen":12278,"favor":12279,"Perspe":12280,"soft":12281,"significantly":12282,"Landschaft":12283,"inspir":12284,"bars":12285,"ifiziert":12286,"Landwirte":12287,"smaller":12288,"Fu":12289,"auchen":12290,"ships":12291,"nearly":12292,"couple":12293,"Joh":12294,"Unterschied":12295,"vous":12296,"furnished":12297,"griech":12298,"pleasure":12299,"Sä":12300,"identity":12301,"gegebenen":12302,"Untersuchung":12303,"Two":12304,"ía":12305,"sky":12306,"mechanisms":12307,"Alter":12308,"stations":12309,"Update":12310,"Erde":12311,"wirt":12312,"Premier":12313,"improvements":12314,"Tibet":12315,"extreme":12316,"approval":12317,"hi":12318,"entstanden":12319,"funktionieren":12320,"empt":12321,"thereby":12322,"700":12323,"Mach":12324,"traditionellen":12325,"Schwerpunkt":12326,"entially":12327,"driving":12328,"Definition":12329,"GDP":12330,"Andre":12331,"prepare":12332,"Besitz":12333,"knüp":12334,"Voraussetzung":12335,"Laufe":12336,"erheblich":12337,"species":12338,"Wachstums":12339,"Inseln":12340,"ampagne":12341,"Leitlinien":12342,"gs":12343,"dok":12344,"Grenze":12345,"disaster":12346,"Ferner":12347,"97":12348,"Grundsätze":12349,"repeated":12350,"vorgenommen":12351,"requested":12352,"Suite":12353,"resulting":12354,"Rund":12355,"calcul":12356,"proportion":12357,"Key":12358,"primary":12359,"title":12360,"Use":12361,"Mehrwert":12362,"rejected":12363,"TA":12364,"behörden":12365,"beraten":12366,"fif":12367,"knows":12368,"Zimmern":12369,"endor":12370,"bildet":12371,"none":12372,"politicians":12373,"Autor":12374,"zurückzu":12375,"grenzüberschreiten":12376,"Reich":12377,"termine":12378,"werfen":12379,"Einwanderung":12380,"TER":12381,"glück":12382,"anerkannt":12383,"gebunden":12384,"Despite":12385,"breitet":12386,"ikas":12387,"representative":12388,"Bör":12389,"iente":12390,"Cook":12391,"domain":12392,"meldung":12393,"assign":12394,"Tai":12395,"aktuell":12396,"association":12397,"Kaffe":12398,"Zul":12399,"Studie":12400,"Mol":12401,"turned":12402,"abled":12403,"Stunde":12404,"märkte":12405,"genauso":12406,"sichtigung":12407,"entschlossen":12408,"igerung":12409,"zielt":12410,"aturen":12411,"Krisen":12412,"incorpor":12413,"abl":12414,"Erwachsen":12415,"haber":12416,"Erwä":12417,"itze":12418,"Kombination":12419,"drugs":12420,"ispiele":12421,"landscape":12422,"Dadurch":12423,"m2":12424,"balcon":12425,"Airbus":12426,"flächen":12427,"horiz":12428,"ido":12429,"destru":12430,"BM":12431,"DI":12432,"Dach":12433,"mittlung":12434,"falsch":12435,"ae":12436,"aktive":12437,"GU":12438,"Pin":12439,"Pod":12440,"aux":12441,"obst":12442,"geboren":12443,"konkreten":12444,"andal":12445,"wegs":12446,"Swed":12447,"fem":12448,"Enjoy":12449,"websites":12450,"beab":12451,"dritten":12452,"Hilfs":12453,"output":12454,"Regime":12455,"Gewicht":12456,"holding":12457,"presentation":12458,"schlecht":12459,"unzu":12460,"usche":12461,"fers":12462,"omas":12463,"Freude":12464,"constructive":12465,"Dy":12466,"Hal":12467,"resolve":12468,"Lou":12469,"Dienstleistungs":12470,"96":12471,"Jun":12472,"Action":12473,"Late":12474,"Anfragen":12475,"Berück":12476,"höchste":12477,"Via":12478,"fassung":12479,"allgemein":12480,"vielmehr":12481,"orte":12482,"mutz":12483,"sn":12484,"poten":12485,"helping":12486,"Sau":12487,"imal":12488,"tact":12489,"Patent":12490,"Eigenschaften":12491,"ima":12492,"controlled":12493,"attitude":12494,"Ferienwohn":12495,"expensive":12496,"subsidiar":12497,"quote":12498,"condemn":12499,"Hong":12500,"taxes":12501,"regelmäß":12502,"Master":12503,"renewable":12504,"Menü":12505,"Publik":12506,"antly":12507,"contemporary":12508,"Freunde":12509,"AND":12510,"Allgemeinen":12511,"liber":12512,"spring":12513,"Royal":12514,"servers":12515,"verlangen":12516,"Liebe":12517,"authent":12518,"beauftrag":12519,"unsten":12520,"straße":12521,"substances":12522,"sight":12523,"CR":12524,"nummer":12525,"Glau":12526,"Rh":12527,"keines":12528,"Gewinn":12529,"Genehm":12530,"expertise":12531,"künftig":12532,"plate":12533,"Satell":12534,"faced":12535,"parlament":12536,"Eltern":12537,"reflect":12538,"Follow":12539,"dau":12540,"seien":12541,"Temper":12542,"Genau":12543,"Strategy":12544,"discharge":12545,"Zusatz":12546,"Tagung":12547,"lair":12548,"wiederum":12549,"beschrieben":12550,"Normen":12551,"kinds":12552,"enger":12553,"schools":12554,"Rotary":12555,"penal":12556,"hospital":12557,"tech":12558,"orien":12559,"USD":12560,"Access":12561,"Straf":12562,"streben":12563,"dependent":12564,"wear":12565,"info":12566,"riesigen":12567,"ipul":12568,"MySQL":12569,"delivered":12570,"ikanischen":12571,"expectations":12572,"represented":12573,"launched":12574,"exists":12575,"helps":12576,"zahlung":12577,"uts":12578,"illustr":12579,"skin":12580,"Egypt":12581,"städ":12582,"opposite":12583,"permit":12584,"lieb":12585,"Stück":12586,"Konsequ":12587,"entdeck":12588,"weltweiten":12589,"begann":12590,"thers":12591,"Verträge":12592,"afford":12593,"Gesicht":12594,"Entwicklungsländern":12595,"Ladies":12596,"Ungleich":12597,"Dafür":12598,"Nachfrage":12599,"requests":12600,"liability":12601,"ieties":12602,"appreciate":12603,"Sens":12604,"imb":12605,"bud":12606,"dah":12607,"enjo":12608,"Geräte":12609,"solve":12610,"grundlegenden":12611,"offic":12612,"1993":12613,"Nice":12614,"Ram":12615,"schwar":12616,"ultim":12617,"Touristen":12618,"Atom":12619,"gericht":12620,"Flä":12621,"Jose":12622,"Kann":12623,"sehe":12624,"zunehmend":12625,"recognised":12626,"Vision":12627,"pour":12628,"schwierigen":12629,"Agrarpolitik":12630,"southern":12631,"bridge":12632,"compensation":12633,"installiert":12634,"stuff":12635,"dramat":12636,"WC":12637,"refugees":12638,"fordere":12639,"Garantie":12640,"quellen":12641,"ziemlich":12642,"switch":12643,"höhere":12644,"alp":12645,"Umweltschutz":12646,"happens":12647,"extension":12648,"zulegen":12649,"diction":12650,"snow":12651,"umgeben":12652,"util":12653,"amongst":12654,"Dort":12655,"ehemaligen":12656,"Balt":12657,"comply":12658,"Klimaanlage":12659,"View":12660,"zugänglich":12661,"privacy":12662,"feeling":12663,"aktivieren":12664,"itime":12665,"wesentliche":12666,"Good":12667,"kulturelle":12668,"Ohne":12669,"Copy":12670,"birth":12671,"holds":12672,"gratulieren":12673,"covers":12674,"Metro":12675,"suffering":12676,"warn":12677,"coher":12678,"akes":12679,"führende":12680,"institutionellen":12681,"wachstum":12682,"isted":12683,"Gesam":12684,"Maria":12685,"ventionen":12686,"bedroom":12687,"trial":12688,"zweifellos":12689,"beziehung":12690,"hilft":12691,"Papier":12692,"venture":12693,"zusätzlichen":12694,"opposed":12695,"Gebur":12696,"Fahrzeug":12697,"Verbesserungen":12698,"corner":12699,"directives":12700,"Safety":12701,"Expl":12702,"finding":12703,"password":12704,"mandate":12705,"sinnvoll":12706,"operators":12707,"arrangements":12708,"menschlichen":12709,"uchten":12710,"fighting":12711,"emphasis":12712,"vast":12713,"iso":12714,"Island":12715,"heber":12716,"beträcht":12717,"Hauptstadt":12718,"Schweden":12719,"Stadtzentrum":12720,"Tit":12721,"Westen":12722,"Audio":12723,"Berücksichtigung":12724,"Essen":12725,"Page":12726,"Tel":12727,"uters":12728,"ille":12729,"buchen":12730,"mobility":12731,"diseases":12732,"Serie":12733,"Einstellung":12734,"wettbewerbs":12735,"Kandidaten":12736,"beseit":12737,"shape":12738,"gefördert":12739,"Hindern":12740,"gence":12741,"freundliche":12742,"heavy":12743,"uung":12744,"Wahrheit":12745,"apter":12746,"blood":12747,"annes":12748,"excit":12749,"hoher":12750,"amerikanische":12751,"1980":12752,"disast":12753,"Ministers":12754,"jährige":12755,"combating":12756,"iebs":12757,"Sonn":12758,"Kamera":12759,"healthy":12760,"hie":12761,"loaded":12762,"Kranken":12763,"entscheidend":12764,"interessiert":12765,"drücken":12766,"Sud":12767,"kurzem":12768,"Swedish":12769,"stake":12770,"ameras":12771,"thedr":12772,"plicit":12773,"affairs":12774,"Vorsitz":12775,"bezug":12776,"Tatsächlich":12777,"spok":12778,"naturally":12779,"Bö":12780,"Weiß":12781,"stellungs":12782,"iern":12783,"tedly":12784,"ermaßen":12785,"weshalb":12786,"umzusetzen":12787,"experiences":12788,"Polizei":12789,"entspannen":12790,"Nahrungsmittel":12791,"Four":12792,"anner":12793,"Zwei":12794,"handling":12795,"figure":12796,"capt":12797,"Take":12798,"Turn":12799,"Freizeit":12800,"recommended":12801,"repeat":12802,"oples":12803,"Gästen":12804,"Plaza":12805,"Schnitt":12806,"Erwartungen":12807,"staatliche":12808,"Wur":12809,"hlte":12810,"Kategorie":12811,"maschinen":12812,"Instead":12813,"Rule":12814,"Jer":12815,"diverse":12816,"proud":12817,"engineering":12818,"historische":12819,"protecting":12820,"Mont":12821,"begrün":12822,"rapporteurs":12823,"valuable":12824,"manager":12825,"nos":12826,"Like":12827,"cycling":12828,"Que":12829,"lebnis":12830,"courage":12831,"KMU":12832,"Lord":12833,"obligation":12834,"Technology":12835,"erhältlich":12836,"waters":12837,"verwalt":12838,"defend":12839,"Mittelpunkt":12840,"Applause":12841,"Nein":12842,"Old":12843,"involvement":12844,"stron":12845,"Av":12846,"personally":12847,"wissenschaftlichen":12848,"intellect":12849,"außergewöhn":12850,"parallel":12851,"Plug":12852,"contrast":12853,"windigkeit":12854,"produkte":12855,"Brenn":12856,"geschäft":12857,"confirmed":12858,"Los":12859,"inflation":12860,"cra":12861,"neter":12862,"tragung":12863,"ausgezeichneten":12864,"articles":12865,"familiar":12866,"uppen":12867,"gänz":12868,"München":12869,"Ku":12870,"Optim":12871,"Materialien":12872,"ami":12873,"Massen":12874,"Theater":12875,"lebens":12876,"grundlegende":12877,"Kunde":12878,"ingu":12879,"filter":12880,"Harmonisierung":12881,"verhalten":12882,"treaty":12883,"kolle":12884,"Problems":12885,"attemp":12886,"Websites":12887,"betrieben":12888,"Boot":12889,"niemals":12890,"Original":12891,"Beispiele":12892,"auens":12893,"Munich":12894,"ahnen":12895,"Bibliothe":12896,"Umgang":12897,"kostet":12898,"Beratung":12899,"cro":12900,"involving":12901,"EZ":12902,"arische":12903,"Schule":12904,"relatively":12905,"increases":12906,"UNO":12907,"quarter":12908,"ausgezeichnete":12909,"BSE":12910,"reten":12911,"soweit":12912,"Emissionen":12913,"grad":12914,"Moun":12915,"individuell":12916,"thorough":12917,"Mut":12918,"eröffnet":12919,"ischung":12920,"kontakt":12921,"betrieb":12922,"präz":12923,"Befug":12924,"zöger":12925,"AID":12926,"minuten":12927,"iction":12928,"happening":12929,"abgelehnt":12930,"Soc":12931,"obstac":12932,"ändler":12933,"automatic":12934,"Hü":12935,"Champ":12936,"sicherungs":12937,"charming":12938,"Britain":12939,"determine":12940,"runs":12941,"Dauer":12942,"Klar":12943,"Süden":12944,"künfte":12945,"fertig":12946,"ulted":12947,"aufzunehmen":12948,"Kapaz":12949,"criticism":12950,"verändert":12951,"durchzuführen":12952,"Fein":12953,"Life":12954,"abling":12955,"kurr":12956,"officials":12957,"rare":12958,"straight":12959,"safeguard":12960,"Englisch":12961,"Kä":12962,"Prüf":12963,"millions":12964,"reserve":12965,"drawing":12966,"destination":12967,"unmittelbar":12968,"Bedien":12969,"Nahen":12970,"units":12971,"nischen":12972,"producing":12973,"Überzeugung":12974,"Heiz":12975,"Steuern":12976,"MEPs":12977,"Bucht":12978,"Sad":12979,"mur":12980,"Drittens":12981,"intend":12982,"Word":12983,"trotzdem":12984,"äten":12985,"ateful":12986,"itäre":12987,"fee":12988,"Abschnitt":12989,"equally":12990,"Welcome":12991,"regen":12992,"verändern":12993,"marquis":12994,"Ag":12995,"legungen":12996,"Jean":12997,"Rumänien":12998,"marg":12999,"schnelle":13000,"hervorragende":13001,"Div":13002,"opinions":13003,"profile":13004,"nachzu":13005,"wareness":13006,"ausgesprochen":13007,"kontrolle":13008,"debates":13009,"resolved":13010,"ierend":13011,"Ausgabe":13012,"consc":13013,"Schäden":13014,"privile":13015,"entered":13016,"amounts":13017,"River":13018,"spür":13019,"detaill":13020,"resolutions":13021,"Standort":13022,"sparte":13023,"iene":13024,"catalog":13025,"Ann":13026,"retain":13027,"Provin":13028,"certainty":13029,"Punkten":13030,"decis":13031,"whatever":13032,"Very":13033,"Frü":13034,"uel":13035,"reds":13036,"moved":13037,"bek":13038,"magaz":13039,"ofin":13040,"ipp":13041,"unktions":13042,"rational":13043,"2012":13044,"Mitgliedschaft":13045,"flüge":13046,"eingeschränkt":13047,"bekämpfen":13048,"acquis":13049,"Alternative":13050,"lip":13051,"centres":13052,"Fluss":13053,"Whe":13054,"Framework":13055,"direkte":13056,"largely":13057,"umping":13058,"igence":13059,"Brasil":13060,"Amts":13061,"depends":13062,"BIP":13063,"Distribution":13064,"hardware":13065,"Kn":13066,"Spann":13067,"komme":13068,"Szen":13069,"David":13070,"gewonnen":13071,"hoff":13072,"western":13073,"Redner":13074,"reaching":13075,"flat":13076,"peoples":13077,"strategies":13078,"zentralen":13079,"interessant":13080,"Mas":13081,"verlangt":13082,"ais":13083,"starten":13084,"Gesetzes":13085,"religiö":13086,"Question":13087,"TE":13088,"creates":13089,"objects":13090,".....":13091,"beglückwünschen":13092,"sauber":13093,"Studenten":13094,"terrorist":13095,"liberalisation":13096,"bemüht":13097,"besitzen":13098,"Urlau":13099,"Croatia":13100,"schließt":13101,"büro":13102,"orten":13103,"Entwicklungsländer":13104,"string":13105,"creative":13106,"Luxembourg":13107,"fällig":13108,"Änderungsanträgen":13109,"Mem":13110,"define":13111,"volume":13112,"zuerst":13113,"president":13114,"Frühstücks":13115,"SO":13116,"neuesten":13117,"takte":13118,"Anwendungs":13119,"PA":13120,"conserv":13121,"regulatory":13122,"ehrgeiz":13123,"IX":13124,"rote":13125,"rev":13126,"Krimin":13127,"anschließen":13128,"applicable":13129,"entwickelten":13130,"behörde":13131,"Angst":13132,"lautet":13133,"Viertel":13134,"Haup":13135,"zin":13136,"ipel":13137,"Ausführungen":13138,"gehoben":13139,"stes":13140,"Direkt":13141,"FOR":13142,"Zert":13143,"Projekten":13144,"Abkommens":13145,"inzwischen":13146,"CL":13147,"discovered":13148,"Vi":13149,"enthus":13150,"Strukturen":13151,"natürlichen":13152,"annehmen":13153,"contributions":13154,"exclusively":13155,"Berufs":13156,"Wirklichkeit":13157,"Kroat":13158,"HTML":13159,"exceptional":13160,"Ungar":13161,"Hohen":13162,"reichung":13163,"künftigen":13164,"passengers":13165,"faction":13166,"Krankheiten":13167,"restrictions":13168,"esch":13169,"Anbieter":13170,"Bulgaria":13171,"angehör":13172,"Fremden":13173,"beträgt":13174,"exc":13175,"volunt":13176,"entdecken":13177,"lets":13178,"münd":13179,"einrichtungen":13180,"aufgefordert":13181,"ursprünglichen":13182,"Erinner":13183,"named":13184,"removed":13185,"gi":13186,"Verfassungs":13187,"splätzen":13188,"paläst":13189,"SMEs":13190,"chnen":13191,"anze":13192,"restric":13193,"derartige":13194,"vollständige":13195,"liegenden":13196,"päck":13197,"WLAN":13198,"Cent":13199,"Grad":13200,"ffend":13201,"Meet":13202,"Eisenbahn":13203,"iary":13204,"beizu":13205,"proved":13206,"schätzung":13207,"plen":13208,"advoc":13209,"Farb":13210,"Ware":13211,"Norden":13212,"oli":13213,"secret":13214,"meat":13215,"ario":13216,"Client":13217,"Aktien":13218,"remote":13219,"ossen":13220,"ermut":13221,"impression":13222,"achte":13223,"Küste":13224,"Jedes":13225,"üg":13226,"sorgt":13227,"topic":13228,"yes":13229,"icon":13230,"fehlt":13231,"dritte":13232,"Vorschlägen":13233,"berechtigt":13234,"ethnic":13235,"zulassen":13236,"wirtschaftlicher":13237,"palästinens":13238,"grateful":13239,"betreffenden":13240,"österreich":13241,"deter":13242,"eigenes":13243,"Rich":13244,"denk":13245,"veran":13246,"discip":13247,"liste":13248,"Cho":13249,"awareness":13250,"ießen":13251,"schwed":13252,"aside":13253,"Armen":13254,"legally":13255,"weisung":13256,"heil":13257,"helped":13258,"nachhaltigen":13259,"Anschluss":13260,"wirklichen":13261,"Ratspräsidentschaft":13262,"requirement":13263,"italienischen":13264,"EB":13265,"Putin":13266,"andererseits":13267,"module":13268,"realistic":13269,"involve":13270,"precise":13271,"shad":13272,"ole":13273,"ittees":13274,"erweitert":13275,"lobby":13276,"boat":13277,"facilitate":13278,"Inc":13279,"gather":13280,"verabschiedet":13281,"Arme":13282,"aka":13283,"ismen":13284,"Partnern":13285,"thet":13286,"angehen":13287,"äumen":13288,"eds":13289,"Zusätz":13290,"temperature":13291,"Stahl":13292,"Empfehlung":13293,"verursacht":13294,"mini":13295,"erlauben":13296,"universal":13297,"würdigkeit":13298,"para":13299,"Bauern":13300,"erwähn":13301,"richtet":13302,"award":13303,"sers":13304,"Wird":13305,"zeichnis":13306,"Jack":13307,"uier":13308,"unent":13309,"Their":13310,"serves":13311,"dor":13312,"gold":13313,"reiz":13314,"legte":13315,"TS":13316,"cable":13317,"Geschle":13318,"Got":13319,"Kohäsion":13320,"teils":13321,"reserves":13322,"schlägt":13323,"Schatten":13324,"1989":13325,"CF":13326,"Veranstaltung":13327,"obtained":13328,"higkeiten":13329,"ativer":13330,"worse":13331,"tours":13332,"derart":13333,"correctly":13334,"anstatt":13335,"entlang":13336,"Verring":13337,"letzter":13338,"privat":13339,"bilateral":13340,"westlichen":13341,"latter":13342,"verdient":13343,"preparation":13344,"conciliation":13345,"leisure":13346,"vig":13347,"identify":13348,"1991":13349,"hervorheben":13350,"operational":13351,"zne":13352,"deals":13353,"ilst":13354,"parliaments":13355,"telefon":13356,"höchsten":13357,"Ausführung":13358,"ruhig":13359,"continent":13360,"connections":13361,"hart":13362,"curs":13363,"gewinn":13364,"Music":13365,"furniture":13366,"Bew":13367,"bedrooms":13368,"cha":13369,"andon":13370,"bewält":13371,"Konto":13372,"vess":13373,"Balkan":13374,"minority":13375,"Il":13376,"Puer":13377,"anke":13378,"trop":13379,"schätzen":13380,"Komponenten":13381,"visa":13382,"Ski":13383,"tlichen":13384,"reported":13385,"Plus":13386,"Bug":13387,"whilst":13388,"Pen":13389,"speaker":13390,"kurze":13391,"Zentralbank":13392,"Planung":13393,"schef":13394,"trees":13395,"Übereinstimmung":13396,"oring":13397,"welfare":13398,"auftreten":13399,"Entscheidungs":13400,"schirm":13401,"ops":13402,"locations":13403,"LO":13404,"Drittländern":13405,"pick":13406,"kette":13407,"Edit":13408,"erinner":13409,"ungefähr":13410,"ighten":13411,"flege":13412,"prohib":13413,"Maastr":13414,"ancy":13415,"School":13416,"ahme":13417,"messages":13418,"aps":13419,"Behinder":13420,"angebot":13421,"langsam":13422,"ticket":13423,"außerordentlich":13424,"Ret":13425,"Rent":13426,"fänger":13427,"bele":13428,"conflicts":13429,"freiwill":13430,"ym":13431,"Executive":13432,"COM":13433,"schauen":13434,"genehm":13435,"viet":13436,"Mode":13437,"collective":13438,"kans":13439,"ão":13440,"Proced":13441,"erstre":13442,"Elect":13443,"Ferr":13444,"Außenpolitik":13445,"geprüft":13446,"wild":13447,"ograf":13448,"offices":13449,"Geträn":13450,"Indones":13451,"stab":13452,"noise":13453,"UM":13454,"Frien":13455,"ruct":13456,"Programmen":13457,"Ambien":13458,"organizations":13459,"klaren":13460,"Arbeitsplätzen":13461,"chinesischen":13462,"Tschech":13463,"firms":13464,"Bemerkungen":13465,"wirkung":13466,"produziert":13467,"arma":13468,"rac":13469,"Konsens":13470,"tags":13471,"Fähigkeiten":13472,"answers":13473,"verbesser":13474,"Verbindungen":13475,"Kommunikations":13476,"geäuß":13477,"subsidies":13478,"investors":13479,"Director":13480,"Infl":13481,"habt":13482,"lev":13483,"faster":13484,"Optionen":13485,"angemessene":13486,"abroad":13487,"issued":13488,"aught":13489,"eyes":13490,"kontinuier":13491,"cam":13492,"geboten":13493,"Church":13494,"Arbeitsplatz":13495,"themat":13496,"cancel":13497,"cutting":13498,"focused":13499,"onomie":13500,"Gespräche":13501,"cold":13502,"swe":13503,"angesehen":13504,"sichere":13505,"dich":13506,"kas":13507,"Polish":13508,"Subsid":13509,"schönsten":13510,"Vereinbarungen":13511,"effectiveness":13512,"Ambiente":13513,"parents":13514,"Gestaltung":13515,"organisiert":13516,"dienste":13517,"Kontext":13518,"Automobil":13519,"statistics":13520,"depth":13521,"Prinzipien":13522,"dishes":13523,"durchführen":13524,"maintained":13525,"füllung":13526,"bestätigen":13527,"Stimmen":13528,"Einstellungen":13529,"ussen":13530,"charges":13531,"ceeded":13532,"übernimmt":13533,"usern":13534,"Stift":13535,"gewissen":13536,"metal":13537,"notwendige":13538,"Noch":13539,"Gleichgewicht":13540,"Kabel":13541,"sexual":13542,"ource":13543,"Übersetzung":13544,"Yes":13545,"delighted":13546,"wirtschaftlich":13547,"Amerikan":13548,"itag":13549,"onymous":13550,"impressive":13551,"Bir":13552,"bestimmen":13553,"Vorschlags":13554,"waffen":13555,"zza":13556,"verringern":13557,"battle":13558,"faith":13559,"Phone":13560,"derung":13561,"vergleich":13562,"streets":13563,"begrüßt":13564,"zeptabel":13565,"Farbe":13566,"contracts":13567,"spectac":13568,"kohol":13569,"bildungs":13570,"rohung":13571,"remaining":13572,"pieces":13573,"Kommun":13574,"iot":13575,"navig":13576,"assend":13577,"regularly":13578,"SAP":13579,"abgestimmt":13580,"warr":13581,"Cyprus":13582,"witness":13583,"ema":13584,"akzeptabel":13585,"spanischen":13586,"oud":13587,"Ziffer":13588,"Anwen":13589,"Einheit":13590,"bedau":13591,"Investitions":13592,"Asien":13593,"Struct":13594,"Israeli":13595,"Mall":13596,"flag":13597,"promises":13598,"verwe":13599,"updated":13600,"Schuld":13601,"aktiven":13602,"passiert":13603,"effektiv":13604,"Ima":13605,"echten":13606,"jetz":13607,"nd":13608,"füllen":13609,"Lim":13610,"ziplin":13611,"Slovak":13612,"Edu":13613,"kill":13614,"sah":13615,"ilfe":13616,"vely":13617,"ifications":13618,"austausch":13619,"Plenum":13620,"Perhaps":13621,"ministers":13622,"früheren":13623,"root":13624,"isto":13625,"Bestellung":13626,"Trag":13627,"Aktual":13628,"settings":13629,"displayed":13630,"Monte":13631,"Blut":13632,"hinzufügen":13633,"weather":13634,"productive":13635,"Plattform":13636,"Canada":13637,"beschleun":13638,"Sund":13639,"George":13640,"corruption":13641,"gespielt":13642,"Verringerung":13643,"intent":13644,"sorge":13645,"veränder":13646,"aufnehmen":13647,"Verbot":13648,"IK":13649,"Küsten":13650,"Vene":13651,"leichtern":13652,"journey":13653,"DC":13654,"Food":13655,"DER":13656,"lists":13657,"onsor":13658,"Garden":13659,"Japanese":13660,"Regierungskonferenz":13661,"Abhäng":13662,"entertainment":13663,"Copenhagen":13664,"spekt":13665,"Agricult":13666,"customs":13667,"beschränkt":13668,"eins":13669,"hlung":13670,"usal":13671,"Ausstellung":13672,"erging":13673,"kommunik":13674,"Baltic":13675,"classic":13676,"DN":13677,"arab":13678,"israel":13679,"zuständigen":13680,"Erholung":13681,"connect":13682,"dinner":13683,"Anmer":13684,"werb":13685,"lined":13686,"succeed":13687,"rechen":13688,"pharma":13689,"Sorgen":13690,"Washing":13691,"Werbung":13692,"understood":13693,"erleichtern":13694,"arded":13695,"vorlegen":13696,"schuld":13697,"ogen":13698,"definiert":13699,"pattern":13700,"Friday":13701,"sorgfältig":13702,"Ado":13703,"doesn":13704,"icans":13705,"demanding":13706,"functioning":13707,"channel":13708,"verbrauch":13709,"schwä":13710,"zustand":13711,"Halb":13712,"inser":13713,"Europol":13714,"Fran":13715,"tickets":13716,"Faktoren":13717,"lu":13718,"license":13719,"66":13720,"outdoor":13721,"Deswegen":13722,"perfekt":13723,"noted":13724,"accompan":13725,"counting":13726,"unmöglich":13727,"B5":13728,"melden":13729,"configuration":13730,"finished":13731,"disp":13732,"emergency":13733,"bemühen":13734,"Vice":13735,"bezahlen":13736,"contacts":13737,"BO":13738,"foll":13739,"scheinen":13740,"zugunsten":13741,"gänge":13742,"Glauben":13743,"pollution":13744,"Kat":13745,"remark":13746,"verhindert":13747,"Partners":13748,"wünsch":13749,"bike":13750,"Sauna":13751,"Mobile":13752,"treiben":13753,"Ausgangspunkt":13754,"ugosla":13755,"Taiwan":13756,"dining":13757,"voran":13758,"Newsletter":13759,"protocol":13760,"dans":13761,"katastrop":13762,"Beiträge":13763,"careful":13764,"Werkzeug":13765,"anspruchs":13766,"Dynam":13767,"residence":13768,"characteristics":13769,"mung":13770,"Vermögen":13771,"freundlich":13772,"definitely":13773,"somewhat":13774,"collect":13775,"Buchung":13776,"igsten":13777,"Clear":13778,"kurzen":13779,"phenomen":13780,"gespeichert":13781,"ausgeschlossen":13782,"solar":13783,"ausgesetzt":13784,"hole":13785,"uttle":13786,"Nos":13787,"ani":13788,"leaving":13789,"iest":13790,"einzigartige":13791,"newly":13792,"Besorgnis":13793,"Jes":13794,"Max":13795,"justified":13796,"Charta":13797,"Pia":13798,"Var":13799,"Betre":13800,"Fair":13801,"Subsidiar":13802,"declaration":13803,"Guide":13804,"expansion":13805,"Badezimmer":13806,"verleihen":13807,"Adobe":13808,"Eis":13809,"getrenn":13810,"radi":13811,"Schü":13812,"Krie":13813,"actively":13814,"forschung":13815,"BC":13816,"electricity":13817,"trafficking":13818,"behavi":13819,"rechtliche":13820,"divided":13821,"Year":13822,"Beam":13823,"einig":13824,"corded":13825,"verschiedener":13826,"Führer":13827,"ausgeführt":13828,"bart":13829,"judicial":13830,"supposed":13831,"layer":13832,"Amendments":13833,"idden":13834,"gallery":13835,"geprä":13836,"enthalt":13837,"Baby":13838,"Urspr":13839,"intensiv":13840,"sodass":13841,"zir":13842,"Symbol":13843,"Verfahrens":13844,"LateRooms":13845,"installieren":13846,"library":13847,"eral":13848,"Washington":13849,"gol":13850,"alts":13851,"artet":13852,"prosper":13853,"Ersatz":13854,"Alles":13855,"acting":13856,"serviert":13857,"ferner":13858,"iron":13859,"Gesellschaften":13860,"credibility":13861,"kurzfrist":13862,"Kompetenz":13863,"committees":13864,"Polit":13865,"Pact":13866,"cab":13867,"kal":13868,"itar":13869,"replace":13870,"welchem":13871,"hundreds":13872,"imposed":13873,"ikes":13874,"caf":13875,"cohol":13876,"Brand":13877,"conducted":13878,"Edition":13879,"anne":13880,"Festlegung":13881,"demonstrated":13882,"ongoing":13883,"iessen":13884,"Mobilität":13885,"visible":13886,"Tarif":13887,"stehende":13888,"tagen":13889,"pekt":13890,"uropäischen":13891,"thand":13892,"comed":13893,"Beziehung":13894,"SK":13895,"Procedure":13896,"gezwungen":13897,"projekt":13898,"ст":13899,"gor":13900,"bottom":13901,"Read":13902,"parks":13903,"Marktes":13904,"drug":13905,"zusammenarbeiten":13906,"roads":13907,"Equ":13908,"Zyp":13909,"inhabit":13910,"trages":13911,"Schlafzimmer":13912,"enty":13913,"ultimately":13914,"nut":13915,"director":13916,"appeared":13917,"Är":13918,"Congress":13919,"PO":13920,"youth":13921,"interessante":13922,"pic":13923,"tackle":13924,"abandon":13925,"musste":13926,"frequently":13927,"Funds":13928,"BA":13929,"fab":13930,"Ausstattung":13931,"recommendation":13932,"grenzung":13933,"facts":13934,"Einbeziehung":13935,"bahnhof":13936,"WF":13937,"transatlant":13938,"schule":13939,"Schau":13940,"bilater":13941,"stem":13942,"Thirdly":13943,"mista":13944,"Gefahren":13945,"geltenden":13946,"VAT":13947,"Marina":13948,"CON":13949,"entscheidende":13950,"Holiday":13951,"denkt":13952,"wohnen":13953,"demonstrate":13954,"Hamas":13955,"angegebenen":13956,"Block":13957,"walls":13958,"renovated":13959,"Cer":13960,"Milch":13961,"printing":13962,"Jac":13963,"durchschnitt":13964,"äußern":13965,"Geheim":13966,"AKP":13967,"Argument":13968,"Veröffentlichung":13969,"gefügt":13970,"Alb":13971,"höheren":13972,"fantastic":13973,"GM":13974,"Beste":13975,"Ungarn":13976,"CA":13977,"minorities":13978,"sozi":13979,"Zielen":13980,"heutige":13981,"coal":13982,"restruct":13983,"input":13984,"seat":13985,"wollten":13986,"ox":13987,"uh":13988,"Author":13989,"Defiz":13990,"drink":13991,"emerging":13992,"Energien":13993,"indicated":13994,"traum":13995,"invite":13996,"Wild":13997,"Vorbe":13998,"iana":13999,"sq":14000,"driver":14001,"Jede":14002,"akte":14003,"decorated":14004,"86":14005,"boost":14006,"firstly":14007,"properties":14008,"Mangel":14009,"teams":14010,"stoß":14011,"nahezu":14012,"Klasse":14013,"Gaza":14014,"fac":14015,"Feuer":14016,"Cha":14017,"Mexico":14018,"Able":14019,"Description":14020,"Webseiten":14021,"Pakete":14022,"castle":14023,"sätzen":14024,"gefallen":14025,"Balkon":14026,"Neue":14027,"fohlen":14028,"einfacher":14029,"involves":14030,"respected":14031,"surroundings":14032,"ifies":14033,"wiegen":14034,"Camping":14035,"traditions":14036,"solange":14037,"uese":14038,"frame":14039,"56":14040,"Kräfte":14041,"Training":14042,"Krankheit":14043,"supplement":14044,"virtual":14045,"Dass":14046,"reiter":14047,"verwand":14048,"oub":14049,"Tech":14050,"organized":14051,"chemical":14052,"Fast":14053,"twent":14054,"conce":14055,"owner":14056,"Asse":14057,"DS":14058,"decre":14059,"verehrte":14060,"aussprechen":14061,"aggress":14062,"ield":14063,"sleep":14064,"kter":14065,"Führungs":14066,"Verpack":14067,"scheidet":14068,"ès":14069,"Legal":14070,"bestehende":14071,"endorse":14072,"drivers":14073,"loyment":14074,"Haft":14075,"reveal":14076,"Poten":14077,"Riv":14078,"Wa":14079,"Geschäfte":14080,"finish":14081,"Chinas":14082,"ports":14083,"sauna":14084,"schäd":14085,"Sollte":14086,"Maastricht":14087,"Games":14088,"kos":14089,"teilungen":14090,"Pic":14091,"itra":14092,"roof":14093,"doors":14094,"Ausmaß":14095,"stamm":14096,"nunmehr":14097,"wesend":14098,"züge":14099,"Opposition":14100,"verf":14101,"mother":14102,"flexib":14103,"Dusche":14104,"Politiken":14105,"kreis":14106,"Selbstverständlich":14107,"zard":14108,"Konsult":14109,"gestaltet":14110,"amerika":14111,"Hof":14112,"endung":14113,"77":14114,"Nap":14115,"stronger":14116,"schicken":14117,"posing":14118,"geräte":14119,"idge":14120,"kens":14121,"Gerät":14122,"russischen":14123,"starts":14124,"globalisation":14125,"Wohlstand":14126,"lays":14127,"ausgegeben":14128,"dur":14129,"Fehl":14130,"vorhandenen":14131,"Mrd":14132,"Hardware":14133,"eu":14134,"iegel":14135,"crimes":14136,"documentation":14137,"52":14138,"überras":14139,"afternoon":14140,"sensible":14141,"beeindruck":14142,"concluded":14143,"GE":14144,"Bemerkung":14145,"maintaining":14146,"Modul":14147,"GR":14148,"Monetary":14149,"competent":14150,"erhebliche":14151,"berge":14152,"lounge":14153,"Untersuchungen":14154,"dos":14155,"sugar":14156,"usehen":14157,"joined":14158,"apest":14159,"Thurs":14160,"Vorhaben":14161,"patient":14162,"unfair":14163,"verurteilt":14164,"Legisl":14165,"einheitlichen":14166,"Mur":14167,"Insbesondere":14168,"suites":14169,"Gerichte":14170,"Versionen":14171,"kin":14172,"kg":14173,"Kapitel":14174,"prozesses":14175,"overcome":14176,"tatsäch":14177,"ère":14178,"direkten":14179,"Whether":14180,"nine":14181,"td":14182,"cash":14183,"Canon":14184,"ausend":14185,"proven":14186,"Spaz":14187,"dürfte":14188,"fing":14189,"Einschrän":14190,"Respekt":14191,"reduzieren":14192,"gyp":14193,"Donner":14194,"corresponding":14195,"spoken":14196,"Umfeld":14197,"ausschuß":14198,"Einw":14199,"depending":14200,"rapidly":14201,"bekämpfung":14202,"stored":14203,"collaboration":14204,"Viet":14205,"proposes":14206,"beschäftigen":14207,"northern":14208,"Town":14209,"obli":14210,"eingereicht":14211,"stylish":14212,"accompanied":14213,"dim":14214,"shap":14215,"constitutional":14216,"follows":14217,"atre":14218,"dary":14219,"ifor":14220,"itts":14221,"elles":14222,"Gegend":14223,"assets":14224,"ausgestatte":14225,"verstärken":14226,"inations":14227,"wellen":14228,"zneimit":14229,"Videos":14230,"bedauer":14231,"verkaufen":14232,"Identität":14233,"behaviour":14234,"Himm":14235,"verbringen":14236,"assume":14237,"Kongress":14238,"Filter":14239,"Mission":14240,"Erzeugnisse":14241,"Glaub":14242,"Reduz":14243,"updates":14244,"versamm":14245,"Nachricht":14246,"lasting":14247,"Gründung":14248,"Kilometer":14249,"zneimittel":14250,"Chair":14251,"Hans":14252,"channels":14253,"subsidiarity":14254,"gewährt":14255,"imedia":14256,"Portuguese":14257,"heating":14258,"strategischen":14259,"Fleisch":14260,"heritage":14261,"Robert":14262,"Individ":14263,"Detail":14264,"intellectual":14265,"verd":14266,"zonen":14267,"akten":14268,"scheme":14269,"exciting":14270,"Sektoren":14271,"generated":14272,"entscheidender":14273,"britische":14274,"entwurf":14275,"Medik":14276,"digit":14277,"glaub":14278,"......":14279,"Sollten":14280,"Image":14281,"kür":14282,"Schlussfolgerungen":14283,"schweren":14284,"lässlich":14285,"bach":14286,"lit":14287,"gehe":14288,"Kontrollen":14289,"Besonders":14290,"Job":14291,"norm":14292,"individuelle":14293,"Award":14294,"Tsch":14295,"agers":14296,"Bedrohung":14297,"Schweizer":14298,"systemen":14299,"vulnerable":14300,"determination":14301,"burger":14302,"Formul":14303,"spakt":14304,"distributed":14305,"beziehungen":14306,"DO":14307,"wiederholen":14308,"transportation":14309,"Network":14310,"gross":14311,"copyright":14312,"88":14313,"orca":14314,"showing":14315,"Prague":14316,"explicit":14317,"widely":14318,"schaffung":14319,"immigrants":14320,"drückt":14321,"programms":14322,"celer":14323,"UT":14324,"sac":14325,"inos":14326,"käu":14327,"Persön":14328,"Tabak":14329,"cow":14330,"father":14331,"Übersetz":14332,"Wünsche":14333,"Given":14334,"Soviet":14335,"ounge":14336,"entsteht":14337,"Niger":14338,"techniques":14339,"accident":14340,"eastern":14341,"looked":14342,"balcony":14343,"vorstellen":14344,"cuts":14345,"antworten":14346,"Orte":14347,"bindet":14348,"fäll":14349,"verantwortungs":14350,"erfolgreiche":14351,"alcohol":14352,"unverzüglich":14353,"Spar":14354,"returned":14355,"Cle":14356,"upper":14357,"ameters":14358,"Konzer":14359,"ziele":14360,"legitimate":14361,"satisfied":14362,"Who":14363,"geteilt":14364,"Balkans":14365,"Email":14366,"Vize":14367,"Festpl":14368,"prin":14369,"Ansprü":14370,"possibly":14371,"beruht":14372,"heat":14373,"izer":14374,"Gepäck":14375,"Wart":14376,"til":14377,"atom":14378,"lokale":14379,"desired":14380,"Sonne":14381,"ausgezeichnet":14382,"präsentieren":14383,"deficit":14384,"konkret":14385,"theoret":14386,"erinnert":14387,"exceed":14388,"ACP":14389,"Luxus":14390,"ergänzen":14391,"oni":14392,"jegliche":14393,"kultur":14394,"banking":14395,"settlement":14396,"Baum":14397,"artist":14398,"Rechtsstaat":14399,"Freiheiten":14400,"Semin":14401,"Rechnungshof":14402,"protest":14403,"Interess":14404,"visited":14405,"letztlich":14406,"encouraging":14407,"Michel":14408,"Women":14409,"zed":14410,"Philosop":14411,"grunde":14412,"interven":14413,"defe":14414,"Resolution":14415,"technologie":14416,"identified":14417,"schieden":14418,"Verbreitung":14419,"brut":14420,"maritime":14421,"taxation":14422,"beteiligen":14423,"catch":14424,"exklus":14425,"transactions":14426,"Road":14427,"functional":14428,"viertel":14429,"oriented":14430,"greif":14431,"metro":14432,"izza":14433,"vised":14434,"Zwecke":14435,"motive":14436,"ibel":14437,"faßt":14438,"vorbereitet":14439,"Oder":14440,"Single":14441,"Protection":14442,"Structural":14443,"Gemeinde":14444,"sharing":14445,"mostly":14446,"desto":14447,"Sche":14448,"signs":14449,"Investment":14450,"Genehmigung":14451,"Lounge":14452,"uated":14453,"Versamm":14454,"interpre":14455,"offene":14456,"Katastrophe":14457,"isses":14458,"foundation":14459,"ville":14460,"Event":14461,"verbinden":14462,"plenary":14463,"ziellen":14464,"Subsidiarität":14465,"Thursday":14466,"NIC":14467,"übt":14468,"eva":14469,"Systemen":14470,"eignet":14471,"Belgium":14472,"winning":14473,"Übernachtung":14474,"herrscht":14475,"smooth":14476,"maschine":14477,"itors":14478,"wald":14479,"resistance":14480,"federal":14481,"Marke":14482,"kamen":14483,"infr":14484,"plications":14485,"passenger":14486,"Professional":14487,"orama":14488,"Stor":14489,"autonom":14490,"Without":14491,"VP":14492,"enswert":14493,"Vietnam":14494,"stolz":14495,"bol":14496,"outh":14497,"worr":14498,"exports":14499,"widmet":14500,"confer":14501,"belangt":14502,"examine":14503,"dex":14504,"werks":14505,"sparen":14506,"Erkennt":14507,"horizon":14508,"ré":14509,"beigetragen":14510,"partly":14511,"chnitten":14512,"samer":14513,"bekräft":14514,"Sony":14515,"übrigens":14516,"department":14517,"anwesend":14518,"gerät":14519,"Lobby":14520,"weile":14521,"Amt":14522,"Übergangs":14523,"Vorstellung":14524,"individuellen":14525,"Belast":14526,"attend":14527,"performed":14528,"Nachhalt":14529,"Vill":14530,"sicheren":14531,"directory":14532,"Fundamental":14533,"Sudan":14534,"prene":14535,"ergie":14536,"proposing":14537,"bereitgestellt":14538,"occasions":14539,"Gang":14540,"Betrag":14541,"Kreuz":14542,"uds":14543,"dream":14544,"woman":14545,"Franc":14546,"Glaubwürdigkeit":14547,"burn":14548,"shares":14549,"ersetzt":14550,"angewand":14551,"placement":14552,"Haftung":14553,"Bereitstellung":14554,"Mitarbeitern":14555,"Pot":14556,"oured":14557,"personnel":14558,"fertigen":14559,"educational":14560,"deposit":14561,"relaxation":14562,"einbezogen":14563,"läßt":14564,"stars":14565,"inclusion":14566,"zugang":14567,"belling":14568,"begrenzt":14569,"jung":14570,"rul":14571,"Verlauf":14572,"solches":14573,"Rechtsgrundlage":14574,"jenen":14575,"Auge":14576,"losses":14577,"Schrift":14578,"Look":14579,"ilater":14580,"housing":14581,"72":14582,"VER":14583,"batter":14584,"legale":14585,"containing":14586,"grundsätzlich":14587,"decisive":14588,"dign":14589,"suppliers":14590,"absen":14591,"Consum":14592,"complicated":14593,"Vater":14594,"manufacturer":14595,"Ernähr":14596,"Malta":14597,"Northern":14598,"organisieren":14599,"Hon":14600,"Ill":14601,"rical":14602,"Ansichten":14603,"empfohlen":14604,"Law":14605,"Hungary":14606,"interpretation":14607,"Potenzial":14608,"commission":14609,"tobac":14610,"informationen":14611,"Passwort":14612,"preparing":14613,"Donnerstag":14614,"zellen":14615,"portal":14616,"holm":14617,"Preisen":14618,"eingehalten":14619,"Klaus":14620,"behandlung":14621,"regarded":14622,"rub":14623,"vorrang":14624,"geladen":14625,"inhabitants":14626,"Ltd":14627,"interior":14628,"auseinander":14629,"Anstieg":14630,"Thomas":14631,"Einer":14632,"flights":14633,"splans":14634,"nationally":14635,"Gi":14636,"Vel":14637,"gige":14638,"ión":14639,"rüstung":14640,"impose":14641,"Darum":14642,"Dal":14643,"visory":14644,"erfolgreichen":14645,"Haushaltsplan":14646,"Letz":14647,"Moz":14648,"distingu":14649,"Wohnung":14650,"verkauft":14651,"component":14652,"Beschlüsse":14653,"Naz":14654,"traditionelle":14655,"clubs":14656,"betreiben":14657,"Budapest":14658,"herzustellen":14659,"konfront":14660,"Within":14661,"avec":14662,"urg":14663,"offiziellen":14664,"behoben":14665,"providers":14666,"anbelangt":14667,"schne":14668,"fleet":14669,"elsewhere":14670,"edition":14671,"adults":14672,"schluß":14673,"certific":14674,"ror":14675,"wines":14676,"Erstellung":14677,"schefs":14678,"Apple":14679,"ächt":14680,"zugrunde":14681,"schreck":14682,"Cit":14683,"erlebt":14684,"windows":14685,"51":14686,"arrive":14687,"Bang":14688,"58":14689,"theme":14690,"Konstru":14691,"ansprechen":14692,"angebracht":14693,"präch":14694,"fernen":14695,"Versand":14696,"cosy":14697,"Konsequenzen":14698,"milk":14699,"voluntary":14700,"überprüft":14701,"licens":14702,"Männern":14703,"newsp":14704,"unbe":14705,"saving":14706,"deleg":14707,"häuser":14708,"vermitteln":14709,"phones":14710,"gestattet":14711,"Betracht":14712,"Water":14713,"enhance":14714,"spannung":14715,"magnific":14716,"XP":14717,"festival":14718,"ancing":14719,"ensures":14720,"erreichbar":14721,"Tenn":14722,"Burg":14723,"ji":14724,"Bett":14725,"beantworten":14726,"bright":14727,"Mini":14728,"Urheber":14729,"declared":14730,"tobacco":14731,"cot":14732,"neun":14733,"Content":14734,"makers":14735,"amaz":14736,"iesen":14737,"exit":14738,"Beschrän":14739,"Exchange":14740,"Sicherung":14741,"Freitag":14742,"investieren":14743,"Schluß":14744,"immers":14745,"Freunden":14746,"Autobahn":14747,"bonus":14748,"Source":14749,"Verhandlungs":14750,"album":14751,"thir":14752,"strafe":14753,"Bulgarien":14754,"üne":14755,"explore":14756,"vacation":14757,"Güter":14758,"biz":14759,"strugg":14760,"Stras":14761,"Eurozone":14762,"studio":14763,"Ler":14764,"Straß":14765,"crib":14766,"Zivilgesellschaft":14767,"iera":14768,"istern":14769,"chnung":14770,"beschreibung":14771,"uche":14772,"Hungarian":14773,"kernel":14774,"einst":14775,"ähnlich":14776,"dark":14777,"cepts":14778,"dt":14779,"verboten":14780,"Deutschen":14781,"EZB":14782,"Spazier":14783,"57":14784,"thr":14785,"Verzöger":14786,"Willkommen":14787,"AIDS":14788,"Line":14789,"partment":14790,"Prop":14791,"beliebt":14792,"Korruption":14793,"HU":14794,"professionals":14795,"Hat":14796,"universit":14797,"Verbraucherschutz":14798,"Sant":14799,"Gegenstand":14800,"Earth":14801,"islands":14802,"imports":14803,"Ministerpräsident":14804,"französische":14805,"Satz":14806,"Based":14807,"Sind":14808,"bislang":14809,"bedeutend":14810,"repair":14811,"specially":14812,"insist":14813,"Werbe":14814,"1970":14815,"Dou":14816,"RA":14817,"Sl":14818,"replaced":14819,"abuse":14820,"Arzneimittel":14821,"Secret":14822,"referendum":14823,"sending":14824,"inklusive":14825,"secur":14826,"einerseits":14827,"boast":14828,"Kollegin":14829,"Point":14830,"Extre":14831,"finanziert":14832,"FI":14833,"verän":14834,"versichern":14835,"zutage":14836,"cean":14837,"ROM":14838,"Prozesse":14839,"savings":14840,"revision":14841,"Zahlung":14842,"54":14843,"Wolf":14844,"pm":14845,"iebe":14846,"Puerto":14847,"facility":14848,"broadcast":14849,"Kaffee":14850,"allzu":14851,"Schwä":14852,"Schulen":14853,"generate":14854,"großem":14855,"Wähler":14856,"ieller":14857,"wave":14858,"bestimmter":14859,"Fußball":14860,"destruction":14861,"valley":14862,"internen":14863,"Entlastung":14864,"Wählen":14865,"räumen":14866,"Brasilien":14867,"Reduzierung":14868,"chest":14869,"stammen":14870,"Alpen":14871,"Überlegungen":14872,"Dor":14873,"wiederholt":14874,"addresses":14875,"kö":14876,"packaging":14877,"großzü":14878,"elektronischen":14879,"afft":14880,"menschliche":14881,"Following":14882,"Lay":14883,"benutz":14884,"covering":14885,"wissenschaftliche":14886,"Kroatien":14887,"werken":14888,"handle":14889,"fähr":14890,"raising":14891,"Tax":14892,"lessons":14893,"Rock":14894,"spectacular":14895,"ärkt":14896,"Ang":14897,"Head":14898,"zentren":14899,"awarded":14900,"kehrt":14901,"career":14902,"Fün":14903,"iations":14904,"Kontakte":14905,"zielen":14906,"fitness":14907,"Strasbourg":14908,"Zone":14909,"bewähr":14910,"wahlen":14911,"arguments":14912,"aer":14913,"audit":14914,"Gros":14915,"kapital":14916,"dun":14917,"infe":14918,"beur":14919,"Ägyp":14920,"exe":14921,"ennung":14922,"consent":14923,"ibar":14924,"Commer":14925,"sozialer":14926,"prime":14927,"Made":14928,"tested":14929,"Übrigen":14930,"commerce":14931,"Fig":14932,"führungs":14933,"tourists":14934,"insp":14935,"ausgerichtet":14936,"greatly":14937,"beobachten":14938,"uries":14939,"verwaltung":14940,"merk":14941,"cooperate":14942,"parad":14943,"prosperity":14944,"frem":14945,"bereichen":14946,"adopting":14947,"ursprünglich":14948,"niveau":14949,"ausschau":14950,"excessive":14951,"Assembly":14952,"erzeugt":14953,"emot":14954,"visiting":14955,"Liter":14956,"dee":14957,"Vorder":14958,"uminium":14959,"dokument":14960,"igert":14961,"Positionen":14962,"Consult":14963,"Pas":14964,"rt":14965,"Gerecht":14966,"Wire":14967,"sou":14968,"considering":14969,"ührt":14970,"ferenzen":14971,"Treib":14972,"harmonisation":14973,"Wikitra":14974,"chr":14975,"verwende":14976,"solely":14977,"Zusätzlich":14978,"CAP":14979,"recorded":14980,"iland":14981,"resource":14982,"ifizieren":14983,"Poly":14984,"adding":14985,"thousand":14986,"genügend":14987,"endet":14988,"Anlass":14989,"bling":14990,"stoßen":14991,"enabled":14992,"abstimmen":14993,"Quellen":14994,"division":14995,"Wissens":14996,"Schle":14997,"Präsent":14998,"integriert":14999,"ARE":15000,"vorzulegen":15001,"rising":15002,"tennis":15003,"extraordinary":15004,"Atlantic":15005,"supplies":15006,"sop":15007,"deutsch":15008,"suggestions":15009,"asen":15010,"hinweg":15011,"vieles":15012,"promised":15013,"sheet":15014,"Ten":15015,"Stoffe":15016,"Franz":15017,"lift":15018,"zell":15019,"inational":15020,"Schloss":15021,"beding":15022,"gardens":15023,"entwickelte":15024,"united":15025,"vorgeschlagene":15026,"Trotzdem":15027,"Modelle":15028,"Praktiken":15029,"gekenn":15030,"portfolio":15031,"senz":15032,"substance":15033,"Fis":15034,"hundert":15035,"zukünftigen":15036,"Wikitravel":15037,"hill":15038,"Wirtschaftswachstum":15039,"Alexander":15040,"67":15041,"army":15042,"topics":15043,"Wetter":15044,"beln":15045,"lösungen":15046,"acknowledge":15047,"labelling":15048,"ivals":15049,"difficulty":15050,"nevertheless":15051,"uble":15052,"geleitet":15053,"applying":15054,"pursue":15055,"aking":15056,"einzusetzen":15057,"Tools":15058,"Indian":15059,"schlechter":15060,"Spaß":15061,"Zür":15062,"kir":15063,"Notes":15064,"absence":15065,"lichten":15066,"lief":15067,"Einwohner":15068,"Fernseh":15069,"effizienz":15070,"Städten":15071,"slightly":15072,"Dra":15073,"Toch":15074,"lor":15075,"Staates":15076,"künftige":15077,"herunterladen":15078,"jener":15079,"shadow":15080,"53":15081,"zuständig":15082,"Widerspruch":15083,"Spitzen":15084,"weilen":15085,"tor":15086,"politically":15087,"empf":15088,"hundred":15089,"irs":15090,
[...]
