. 1
, 0.761747378923997
der 1
und 1
die 1
in 0.9408087618281237
&quot; 0.8911378248506072
@-@ 1
von 1
den 1
er 1
) 1
( 1
des 1
im 1
mit 1
wurde 1
dem 1
ist 1
das 1
Die 1
als 1
zu 1
auf 1
an 1
ein 1
für 1
eine 1
sich 1
war 1
en 1
es 1
aus 1
ten 1
er@@ 1
k@@ 1
auch 1
en@@ 1
te 1
bis 1
am 1
nach 1
t 1
: 1
“ 1
bei 1
„ 1
Der 1
s@@ 1
ver@@ 1
ung 1
einer 1
S@@ 1
sie 1
t@@ 1
zum 1
K@@ 1
ischen 1
st@@ 1
um 1
a 0.13509021914126815
z@@ 1
be@@ 1
B@@ 1
H@@ 1
an@@ 1
sch@@ 1
L@@ 1
ische 1
Ver@@ 1
durch 1
– 1
einem 1
T@@ 1
W@@ 1
s 1
Sch@@ 1
n@@ 1
M@@ 1
e 1
b@@ 1
Im 1
einen 1
werden 1
f@@ 1
nicht 1
Das 1
D@@ 1
sind 1
de 1
ein@@ 1
l@@ 1
m@@ 1
; 0.8991248660687439
F@@ 1
wird 1
In 0.5953302136793001
G@@ 1
zur 1
P@@ 1
über 1
R@@ 1
g@@ 1
ungen 1
An@@ 1
d@@ 1
ge@@ 1
aus@@ 1
al@@ 1
oder 1
o 0.8933902399772949
wurden 1
ent@@ 1
ab@@ 1
el@@ 1
ar@@ 1
A@@ 1
N@@ 1
E@@ 1
St@@ 1
un@@ 1
i 0.8566187333369298
gen 1
- 1
Z@@ 1
dass 1
/ 1
Er 1
unter 1
ern 1
ungs@@ 1
Jahr 1
in@@ 0.9092644816579945
ter 1
h@@ 1
auf@@ 1
ä@@ 1
isch 1
lich 1
re@@ 0.7155579441450135
Er@@ 1
V@@ 1
Ab@@ 1
w@@ 1
C@@ 0.6533098218000611
ch@@ 1
vor 1
wie 1
on@@ 1
um@@ 1
n 1
is@@ 1
sowie 1
r@@ 1
vom 1
u@@ 1
i@@ 1
Aus@@ 1
seiner 1
it@@ 1
Nach 1
liche 1
noch 1
m 1
hatte 1
nur 1
Vor@@ 1
über@@ 1
el 1
J@@ 1
lichen 1
or@@ 1
seine 1
et@@ 1
vor@@ 1
O@@ 1
es@@ 1
ab 1
enden 1
Jahre 1
e@@ 0.9351829814931106
us 1
p@@ 0.6250734665854878
on 0.14637872146597045
aber 1
j@@ 1
ischer 1
y@@ 0.6940708305503503
Sie 1
zwei 1
ge 1
z 1
Ein@@ 1
waren 1
ö@@ 1
I@@ 1
ber@@ 1
ie 1
ger@@ 1
hat 1
o@@ 1
ende 1
eines 1
al 0.5849984673647798
au@@ 1
iert 1
* 1
k 1
d 1
l 1
zwischen 1
th@@ 0.9458855125862673
g 1
sein 1
gen@@ 1
Jahren 1
am@@ 1
le@@ 1
a@@ 1
Am 1
sten 1
zu@@ 1
gegen 1
at@@ 1
v@@ 0.7743728817710256
at 0.19028008370830693
dieser 1
ie@@ 1
1 0.7643613200645396
le 1
di@@ 1
ien 1
unter@@ 1
Es 1
Kon@@ 1
Be@@ 1
ag@@ 1
ak@@ 1
der@@ 1
2 0.8314510196623447
of 0.030418391207447288
ter@@ 1
ersten 1
man 1
so 1
ger 1
gel@@ 1
ar 0.7660313283597209
sp@@ 1
ei@@ 1
Zeit 1
ens 1
de@@ 0.8464652759887991
In@@ 1
jedoch 1
gesch@@ 1
seit 1
ers 0.4981049202646534
Stadt 1
ert 1
em@@ 1
ro@@ 1
as 0.11030711071631417
ol@@ 1
ierte 1
u 0.8232541236766997
os@@ 1
ken 1
ü@@ 1
ler 1
etwa 1
Al@@ 1
Ober@@ 1
drei 1
il@@ 1
ot@@ 1
ch 1
Auf@@ 1
ur@@ 1
Mar@@ 1
eten 1
schaft 1
wieder 1
chen 1
us@@ 1
sk@@ 1
Geschichte 1
enen 1
17@@ 1
ig@@ 1
ri@@ 0.9272510497613746
Bau@@ 1
ben 1
3 0.8323411138320695
mehr 1
U@@ 1
ke 1
Als 1
Unter@@ 1
Leben 1
16@@ 1
seinem 1
ra@@ 0.9730230708418119
geb@@ 1
ti@@ 1
Sp@@ 1
end@@ 1
ts@@ 1
liegt 1
li@@ 0.8324062327555106
as@@ 0.7825063359231038
ner 1
seinen 1
später 1
ens@@ 1
ale 1
ut@@ 1
beim 1
igen 1
Von 1
Bei 1
eg@@ 1
y 0.31162631252923645
da 1
enk@@ 1
kon@@ 1
ste 1
ten@@ 1
os 1
ik@@ 1
Ch@@ 0.8924803963776956
Ge@@ 1
b 1
den@@ 1
5 0.8437990068488807
ell@@ 1
Ende 1
ach@@ 1
diese 1
ad@@ 0.7008980108340747
1. 1
2@@ 0.8330508934583244
ihre 1
et 1
Ber@@ 1
Re@@ 1
elle 1
land 1
is 0.07654779009800525
end 0.9872835418405783
tet 1
kann 1
Über@@ 1
4 0.833329222006756
stand 1
gt 1
kam 1
alen 1
f 1
ige 1
wo 1
Fl@@ 1
konnte 1
ier@@ 1
erste 1
au 1
st 1
Mit 1
är@@ 1
Gemeinde 1
ir@@ 1
3@@ 0.9384866682120363
ne 1
ihm 1
eren 1
ene 1
erte 1
gew@@ 1
all@@ 1
Um@@ 1
fen 1
ck@@ 1
August 1
ek@@ 1
ellen 1
än@@ 1
Mai 1
15@@ 1
März 1
haben 1
be 0.2567264935502298
mann 1
Teil 1
Januar 1
si@@ 1
Oktober 1
licher 1
c@@ 0.2608930297480739
heute 1
ne@@ 1
om@@ 1
ist@@ 1
and 0.02226674737018181
se 1
ul@@ 0.9147172299204888
é@@ 1
Land@@ 1
ihrer 1
dessen 1
dann 1
ik 1
op@@ 0.8784193132824539
vier 1
alle 1
ere 1
bereits 1
berg 1
dort 1
’ 1
ör@@ 1
fl@@ 1
&amp; 0.6691144505686065
sh@@ 0.7580033325092949
September 1
† 1
qu@@ 1
Juni 1
tes 1
April 1
and@@ 1
ing@@ 1
gab 1
her@@ 1
Juli 1
Universität 1
ap@@ 0.8443067243024603
Kirche 1
Di@@ 1
ihn 1
hal@@ 1
anderen 1
gibt 1
US 1
während 1
erhielt 1
enz@@ 1
Dezember 1
men 1
Ar@@ 1
ieren 1
ia 0.6563581694239067
ess@@ 1
18@@ 1
November 1
Ein 1
Saison 1
km 1
iz@@ 1
ation 0.2579453860892231
beiden 1
im@@ 0.8059007659799285
ihr 1
Diese 1
ang@@ 1
enn@@ 1
Haupt@@ 1
mer@@ 1
ete 1
ung@@ 1
erung 1
Se@@ 1
% 0.4862950735482053
6 0.7712800634811662
eh@@ 1
Platz 1
Seit 1
wer@@ 1
ant@@ 1
or 0.17458720575104023
können 1
me 1
Deutschland 1
ges@@ 1
diesem 1
h 0.8094234851700097
ern@@ 1
Mon@@ 1
Kar@@ 1
ker 1
stadt 1
sen 1
ing 0.13401482185973343
em 1
Berlin 1
burg 1
cht 1
r 1
kl@@ 1
ber 1
Jahrhundert 1
len 1
Un@@ 1
4@@ 0.9464050079750652
anz@@ 1
ok@@ 1
zeit 1
steht 1
ts 0.5065793192278332
ins 1
det 1
Mitglied 1
Februar 1
Eine 1
ierten 1
che 1
ß 1
Nach@@ 1
ru@@ 1
Ne@@ 1
B 1
ig 1
denen 1
nahm 1
eln 1
ine 0.5451675003369959
ur 1
ast@@ 1
8 0.8165208784303666
deutschen 1
ep@@ 0.9701206596000402
se@@ 0.7526649024280051
Zu@@ 1
dern 1
Spiel@@ 1
enten 1
Qu@@ 1
man@@ 1
ent 0.5050982134126195
enb@@ 1
deren 1
af@@ 1
Kl@@ 1
ün@@ 1
Her@@ 1
ell 1
Par@@ 1
Auch 1
ster 1
ür@@ 1
zurück 1
ßen 1
14@@ 1
damit 1
5@@ 1
bet@@ 1
verb@@ 1
eb@@ 1
Bundes@@ 1
Für 1
ck 1
ob@@ 0.9561808059719998
tung 1
Le@@ 1
ingen 1
Süd@@ 1
El@@ 1
it 0.14824720622461587
.@@ 0.48672300607738717
zunächst 1
ft 1
ß@@ 1
Pro@@ 1
Auf 1
besch@@ 1
re 0.82314894524556
Gr@@ 1
ang 1
Fre@@ 1
7 0.7459120112271451
ierung 1
bekannt 1
fer@@ 1
Bl@@ 1
statt 1
ihren 1
Familie 1
keine 1
erk@@ 1
tr@@ 1
ationen 1
gest@@ 1
ill@@ 1
zusammen 1
befindet 1
he 0.12491010608501224
_ 1
ums 1
trat 1
Ort 1
straße 1
sehr 1
ass@@ 0.7141962107416819
Stadt@@ 1
nach@@ 1
isch@@ 1
A 0.3100066146144996
og@@ 1
weitere 1
gr@@ 1
Or@@ 1
20 0.8580397021805954
est@@ 1
aten 1
fe 1
lu@@ 1
Namen 1
ph@@ 0.9150306099263649
Bar@@ 1
begann 1
nen 1
wegen 1
tigen 1
ach 1
Neu@@ 1
gl@@ 1
Film 1
6@@ 0.9547650617045997
ben@@ 1
Y@@ 0.4900700760208107
Kom@@ 1
äl@@ 1
Sohn 1
worden 1
if@@ 1
ed@@ 0.7265261735698826
itz 1
bau 1
zeit@@ 1
spielte 1
rä@@ 1
kt 1
gewann 1
Nord@@ 1
ran@@ 1
13@@ 1
inn@@ 1
bel@@ 1
Personen 1
mit@@ 1
ser@@ 1
allem 1
lo@@ 1
bzw. 1
tra@@ 0.8862202143178534
Gesch@@ 1
Grund@@ 1
ebenfalls 1
2011 0.9891331050407943
schaften 1
lt 1
ac@@ 0.4062463260779171
kommen 1
anderem 1
Pl@@ 1
ster@@ 1
durch@@ 1
2010 0.9204971819184025
werk 1
10 0.6949642694999179
gung 1
ender 1
we@@ 1
nung 1
p 0.5641442913253214
ging 1
gef@@ 1
was 0.033199990711263845
cken 1
bar 1
ow@@ 0.8789476158122833
1@@ 1
gehörte 1
führte 1
-@@ 1
.000 1
En@@ 1
hr@@ 1
ord@@ 1
immer 1
teil 1
Gl@@ 1
und@@ 1
ausge@@ 1
zen 1
fest@@ 1
Fahr@@ 1
ologie 1
Schw@@ 1
Bo@@ 1
7@@ 0.9275912170293197
Sk@@ 1
9 0.708310964871475
ann@@ 1
mar@@ 0.9173605691874962
iger 1
erin 1
ohne 1
Gra@@ 1
ah@@ 1
Au@@ 1
ier 1
x@@ 0.827750929875747
ich@@ 1
Landes@@ 1
bau@@ 1
fer 1
ka 1
selbst 1
2009 0.9951181691815377
feld 1
O 0.9678324128545124
2015 1
neuen 1
enh@@ 1
ug@@ 1
verl@@ 1
2012 0.9616862669708728
per@@ 0.7040891493281436
ff@@ 1
acht 1
bl@@ 1
gebiet 1
2. 1
rich@@ 1
2008 0.9647153510677013
dabei 1
id@@ 0.7666527908895613
tig 1
Bi@@ 1
2014 0.9523364309069565
la@@ 0.730118243147642
12@@ 1
2013 0.9816274727937411
Man@@ 1
the 0.006351362775837996
D 0.9503074109803875
Mittel@@ 1
Ro@@ 1
formula 1
age 0.3271362521793828
Während 1
hier 1
19. 1
deutscher 1
&apos; 0.18152553797383067
sich@@ 1
Schul@@ 1
get@@ 1
2016 0.9454226537291159
Meter 1
neue 1
isten 1
geben 1
10@@ 0.9359077529226847
agen 1
Reg@@ 1
erstmals 1
arbeitete 1
50 1
isches 1
Ur@@ 1
2007 0.9811581940903812
Jahrhunderts 1
beg@@ 1
lung 1
erten 1
fand 1
az@@ 1
8@@ 0.9260443369312478
gel 1
eng@@ 1
Ab 1
ick@@ 1
Am@@ 1
gehört 1
Ger@@ 1
äh@@ 1
bach 1
Ma@@ 1
bezeichnet 1
West@@ 1
erst 1
unden 1
Groß@@ 1
sei 1
uch@@ 1
Ad@@ 1
New 0.3579192529819927
é 1
führt 1
fünf 1
2017 0.9447621262648529
The 0.0352686783412133
ic@@ 0.4966488462117484
Ex@@ 1
ise 0.9526763285555887
St. 1
2006 0.9634257030508682
Rück@@ 1
Seine 1
Name 1
stein 1
nis 1
ina 1
erst@@ 1
land@@ 1
ov@@ 0.8302893706761763
Lu@@ 1
dar@@ 1
National@@ 1
äch@@ 1
0 0.9090656783473288
ow 1
br@@ 1
geh@@ 1
G 1
oh@@ 1
Titel 1
15 0.7915086833632061
Schl@@ 1
äu@@ 1
zurück@@ 1
Car@@ 0.6923227357399537
Deutschen 1
bes@@ 1
onen 1
te@@ 0.8135194912603707
fahr@@ 1
zweiten 1
pl@@ 0.6524002558659469
schon 1
off@@ 1
einige 1
fre@@ 1
Bet@@ 1
ange@@ 1
Band 1
9@@ 0.8344155927180957
S 0.9472879508975198
bar@@ 1
Zu 1
He@@ 1
2018 0.8701478395769999
Nieder@@ 1
str@@ 1
wei@@ 1
ub@@ 1
seines 1
sondern 1
oc@@ 0.5057539835449779
Gruppe 1
tel 1
Me@@ 1
pf@@ 1
2019 0.8745693285547329
stellung 1
C 0.7572556523247098
heit 1
gte 1
Mit@@ 1
elt 1
schule 1
enz 1
dung 1
x 0.6889892632589881
Sein 1
So 1
Har@@ 0.9103413302882101
lin@@ 1
öl@@ 1
Liste 1
ersch@@ 1
hin@@ 1
ität 1
rü@@ 1
30 0.8223388908842083
I 0.3438602858514823
v 1
schw@@ 1
á@@ 1
c 0.4889460995077271
av@@ 0.7033018942902779
rund 1
tige 1
ihrem 1
halten 1
Hoch@@ 1
U 1
weise 1
kan@@ 1
mal 1
neben 1
heim 1
hatten 1
att@@ 0.8374349249445071
studierte 1
stellt 1
alten 1
Menschen 1
min@@ 0.8417484749174923
Karriere 1
Wer@@ 1
2005 1
zw@@ 1
mer 1
ho@@ 1
Staats@@ 1
Ges@@ 1
Lebens@@ 1
eil@@ 1
Friedrich 1
mehrere 1
fte 1
Ak@@ 1
her 0.18370248172639655
gebaut 1
Ost@@ 1
mal@@ 1
stre@@ 1
od@@ 0.7422024485570955
ven 1
stellte 1
to 0.015625538777121875
amp 0.6077298652982858
3. 1
besteht 1
For@@ 1
andere 1
est 0.5545189728877683
inger 1
Lin@@ 1
vi@@ 0.6513116715414751
ati@@ 1
rat 1
dieses 1
18 0.6961162420202499
Min@@ 1
deutsche 1
20. 1
Anfang 1
letzten 1
ut 1
Tod 1
16 0.814175527268802
großen 1
Hand@@ 1
genannt 1
B. 1
ma@@ 1
Sh@@ 0.45380216726316996
Ent@@ 1
Ko@@ 1
Art 1
rau@@ 1
Bel@@ 1
Mor@@ 1
2000 1
Tri@@ 1
Inter@@ 1
Durch 1
oren 1
del 1
Ru@@ 1
K 1
18. 1
zi@@ 1
ind@@ 1
ma 1
gestellt 1
1945 1
wenn 1
sollte 1
stell@@ 1
tor 1
ec@@ 0.5457697967255604
schl@@ 1
tz@@ 1
E 0.864842993179619
Best@@ 1
M 0.8401091634299496
Kilometer 1
bo@@ 0.8898370846917927
ismus 1
große 1
Da 1
sin@@ 1
diesen 1
Film@@ 1
ate 0.1833577230092055
ans 0.5244045088180037
gewählt 1
2004 1
wechselte 1
erfolgte 1
haus 1
Unternehmen 1
mon@@ 0.7068397826616288
ra 0.8146873316953384
tätig 1
zog 1
voll@@ 1
folgenden 1
L 0.8501642164734179
aff@@ 1
Nor@@ 1
tern 1
dre@@ 1
zwei@@ 1
12 0.6140062908045627
Con@@ 0.5002402857776096
weiter 1
icht 1
oten 1
kre@@ 1
unde 1
Th@@ 0.7796540573084982
Gebiet 1
eig@@ 1
gem@@ 1
eigen@@ 1
allerdings 1
2020 0.8385054340412909
Mo@@ 1
iss@@ 1
lag 1
ons 0.4658611499976916
Verb@@ 1
lich@@ 1
fel@@ 1
Johann 1
wobei 1
auer 1
Musik@@ 1
Gen@@ 1
sel@@ 1
X@@ 0.8727928272963964
tete 1
eich@@ 1
tion 0.5950888812371019
oll@@ 1
14 0.7673984855399593
ex@@ 0.4584861279005749
iel@@ 1
pp@@ 1
Einwohner 1
prä@@ 1
Straße 1
bi@@ 0.9802776423397485
ähr@@ 1
rit@@ 1
soll 1
reich@@ 1
Gar@@ 1
Kre@@ 1
üb@@ 1
Br@@ 1
Mitte 1
eit 1
Volks@@ 1
Tra@@ 1
gegründet 1
ant 0.38649135492301123
Per@@ 0.9179806863948746
ort 1
gang 1
erreichte 1
kt@@ 1
sch 1
je 1
Frau 1
ließ 1
ou@@ 0.5888761823765637
ett@@ 1
Mannschaft 1
nahmen 1
15. 1
Nachdem 1
blieb 1
form@@ 1
Welt@@ 1
Hei@@ 1
els 0.9073162436219165
Verein 1
Gu@@ 0.7028819197101823
allen 1
art 0.838934197507355
nun 1
Bre@@ 1
gra@@ 0.8502681575002835
are 0.09190856706923099
Region 1
musste 1
Zweiten 1
Dar@@ 1
Wei@@ 1
bel 1
übernahm 1
tionen 1
Wohn@@ 1
tw@@ 1
war@@ 0.8424050923849814
jeweils 1
Karl 1
z. 1
4. 1
sechs 1
F 0.8393037959255923
weiteren 1
komm@@ 1
ili@@ 1
schließlich 1
gleich@@ 1
uf@@ 1
R 0.7332430592227509
il 0.9377503512847338
viele 1
Gebäude 1
lang 1
genommen 1
führ@@ 1
Pf@@ 1
Mal@@ 1
13 0.7517233962297291
amm@@ 1
chen@@ 1
Kr@@ 1
stellen 1
Haus@@ 1
16. 1
Bis 1
stra@@ 1
II. 1
enti@@ 1
finden 1
Berg@@ 1
100 1
a. 1
Li@@ 1
25 0.7235346783090253
Lehr@@ 1
äm@@ 1
itz@@ 1
V 1
stehen 1
ön@@ 1
17. 1
Vater 1
etz@@ 1
net 1
ks 0.4917729547382902
2003 1
Norden 1
Alt@@ 1
2001 1
USA 1
Tr@@ 1
par@@ 0.5442455162847286
zug 1
Gel@@ 1
kom@@ 1
FC 1
alt@@ 1
spiel 1
uss@@ 1
erhalten 1
Bereich 1
seite 1
War@@ 1
ton 0.4387951791467603
Kriegs@@ 1
Form 1
T 0.6678619325396054
utz@@ 1
2002 1
ober@@ 1
40 1
An 1
neu 1
aufgrund 1
asse 1
sel 1
tor@@ 1
tri@@ 0.5605067632968147
meister 1
u. 1
erh@@ 1
17 0.7366647428798511
ard 0.5848490199137002
Fest@@ 1
vier@@ 1
insgesamt 1
5. 1
ensch@@ 1
Kor@@ 1
one 0.11366777877194513
welche 1
teil@@ 1
hen 1
app@@ 0.8406764568374953
art@@ 1
son 0.30041148234035675
rat@@ 1
Hin@@ 1
üch@@ 1
König@@ 1
wal@@ 1
Dort 1
icht@@ 1
bei@@ 1
enst@@ 1
la 1
sen@@ 1
University 0.32072790095960835
Kunst@@ 1
ations@@ 1
Flug@@ 1
gesetzt 1
ss@@ 1
darauf 1
zug@@ 1
Zeit@@ 1
Album 1
Haus 1
w 0.5553486260691817
Dabei 1
tig@@ 1
Kur@@ 1
entstand 1
hol@@ 1
setzte 1
dazu 1
assen 1
verwendet 1
spielen 1
Tochter 1
verschiedenen 1
Pal@@ 1
ana 0.720366050429925
Land 1
Wasser@@ 1
zer@@ 1
me@@ 0.9478662176110674
hö@@ 1
ott@@ 1
eil 1
Stre@@ 1
sol@@ 1
fin@@ 0.8534096662473503
183@@ 1
gemein@@ 1
ener 1
führung 1
geschichte 1
2021 0.8568431555607786
Em@@ 1
Wilhelm 1
Reich@@ 1
1,@@ 1
ute 1
ot 1
cher 1
13. 1
zeug@@ 1
ze 1
Arbeit@@ 1
sehen 1
bt 1
München 1
ahn 1
König 1
Bau 1
Teil@@ 1
14. 1
Amt 1
I. 1
folgender 1
19 0.6465488155002677
Süden 1
P 0.7404145811602559
platz 1
fe@@ 0.7382034297222732
üt@@ 1
6. 1
Lie@@ 1
Mag@@ 1
erneut 1
Kinder 1
erschien 1
lagen 1
nieder@@ 1
schafts@@ 1
iv@@ 1
schloss 1
Rahmen 1
Rechts@@ 1
Werk 1
Prozent 1
Wal@@ 1
ort@@ 1
gemeinde 1
grün@@ 1
gan@@ 1
Wien 1
raum 1
W 1
of@@ 1
alt 1
Tor@@ 1
Sport@@ 1
eter 1
reg@@ 1
Pre@@ 1
kur@@ 1
Fach@@ 1
Mal 1
rem@@ 0.9396614033984905
Arbeit 1
innen 1
1999 1
Weltkrieg 1
Dies 1
ett 1
Stand 1
11 0.5745284822980892
Su@@ 1
12. 1
Stein@@ 1
N 0.9619861016374968
all 0.18009303802485482
John 0.46278248376951847
konnten 1
kommt 1
einander 1
gilt 1
180@@ 1
ori@@ 1
meist 1
nisse 1
Ö@@ 1
Hel@@ 1
errichtet 1
Rolle 1
Millionen 1
Lage 1
schrieb 1
Sie@@ 1
he@@ 0.6143436712301975
Entwicklung 1
Dieser 1
hei@@ 1
Bur@@ 1
Ben@@ 1
stieg 1
Einsatz 1
Gew@@ 1
insbesondere 1
istischen 1
amt 1
ner@@ 1
eigenen 1
Orts@@ 1
eller 1
lassen 1
Neben 1
inen 1
Bevölkerung 1
met@@ 1
no@@ 0.7573379225082648
sor@@ 1
Heinrich 1
Dorf 1
gut 1
Fel@@ 1
8. 1
recht 1
haf@@ 1
Provinz 1
Kan@@ 1
,@@ 1
Osten 1
Richtung 1
po@@ 0.597466724470327
men@@ 1
Kultur@@ 1
Co@@ 0.6927153694567544
ai@@ 0.9474410423958698
1990 1
ette 1
ank@@ 1
starb 1
davon 1
Westen 1
om 1
7. 1
Ros@@ 1
to@@ 0.8630886327618903
Frankreich 1
ay@@ 0.5331675072235977
Ä@@ 1
fast 1
hi@@ 0.6439723925868494
Pri@@ 1
leben 1
ons@@ 1
bestand 1
9. 1
inter@@ 0.3604529454135121
Sti@@ 1
Staaten 1
stei@@ 1
arbeiten 1
nahme 1
Ant@@ 1
ation@@ 1
Sal@@ 1
aden 1
liegen 1
Eis@@ 1
bew@@ 1
Natur@@ 1
eingesetzt 1
ad 0.5343444565847011
tur@@ 0.8562571977917441
Frauen 1
folgte 1
dies 1
gh@@ 0.6264481136920447
Hans 1
du@@ 0.6807013371812274
60 1
oli@@ 1
ste@@ 1
innerhalb 1
esen 1
Buch@@ 1
Gesellschaft 1
ha@@ 0.5846696109426602
Ph@@ 1
Seite 1
Schule 1
Ri@@ 1
Beginn 1
derung 1
habe 1
verein@@ 1
1998 1
gi@@ 1
sm@@ 1
Bedeutung 1
uti@@ 1
York 0.49028625120912495
oft 1
damals 1
bahn 1
Bu@@ 1
geht 1
ände 1
ler@@ 1
Partei 1
Tre@@ 1
zer 1
Aus 1
bedeut@@ 1
Peter 1
Grün@@ 1
einge@@ 1
schen 1
cke 1
Jugend@@ 1
Kirch@@ 1
achen 1
Paris 1
äf@@ 1
na 1
mp@@ 1
feh@@ 1
techn@@ 1
eck@@ 1
also 0.08897427505090073
län@@ 1
zweite 1
Folge 1
Jahres 1
Außerdem 1
woh@@ 1
asi@@ 1
lang@@ 1
see 1
spiel@@ 1
unk@@ 1
Beispiel 1
10. 1
chte 1
letz@@ 1
wirk@@ 1
igkeit 1
Um 1
pro@@ 0.29428849700728443
Durch@@ 1
fall 1
stark 1
tel@@ 1
ien@@ 1
Paul 1
ef@@ 1
Wahl@@ 1
selben 1
darunter 1
lei@@ 1
zehn 1
Landkreis 1
weg 1
21 0.6632069418600256
handelt 1
Ed@@ 0.9564386574779864
Regierung 1
ache 1
mel@@ 1
ehemaligen 1
ei 1
Höhe 1
up@@ 0.5724397295779395
lange 1
los 1
Zur 1
nehmen 1
Pr@@ 1
Sen@@ 1
findet 1
tlich 1
tigt 1
Unter 1
Vier@@ 1
Ser@@ 1
Gemein@@ 1
ari@@ 1
tritt 1
liches 1
ül@@ 1
heutigen 1
Bor@@ 1
ück@@ 1
Christ@@ 1
amen 1
anz 1
tt@@ 1
nte 1
kurz 1
tre@@ 1
ade 1
Musik 1
mehr@@ 1
Lan@@ 1
11. 1
enth@@ 1
ütz@@ 1
enberg 1
ai 0.7372362592574293
amerikanischen 1
1994 1
24 0.6348307109609976
ften 1
Kirchen@@ 1
Bes@@ 1
io 1
hand@@ 1
ay 0.43702863144701587
ahn@@ 1
wes@@ 1
Inn@@ 1
Bahn@@ 1
kor@@ 1
süd@@ 1
nten 1
Besch@@ 1
1997 1
asch@@ 1
gegenüber 1
gu@@ 0.5082858527704915
Mil@@ 1
Verwaltungs@@ 1
olog@@ 1
zogen 1
form 0.5292255049011382
2,@@ 1
Te@@ 1
1996 1
0@@ 0.812766344577471
1992 1
Team 1
Österreich 1
rig@@ 1
sowohl 1
Serie 1
dorf 1
esch@@ 1
lan@@ 1
Haup@@ 1
veröffentlicht 1
= 0.6630866037802169
liga 1
üh@@ 1
gründete 1
Far@@ 1
Sek@@ 1
zahlreiche 1
weil 1
Fernseh@@ 1
lage 1
Spiel 1
west@@ 1
gek@@ 1
Burg 1
Sol@@ 1
französischen 1
lig@@ 1
lungen 1
fra@@ 1
ve 0.2856145853652341
vers@@ 1
zudem 1
1995 1
Einzel@@ 1
geboren 1
Sa@@ 1
Pi@@ 1
Im@@ 1
Kreis 1
amp@@ 0.9248615049851019
mat@@ 0.863643679240956
Krieg 1
zeigt 1
eit@@ 1
kirche 1
Syn@@ 1
Welt 1
1991 1
fanden 1
werk@@ 1
erg@@ 1
ca. 1
wor@@ 0.8596034539487094
ce 0.3732155961261012
for@@ 0.5209916468211456
Erst@@ 1
gegeben 1
essen 1
muss 1
statt@@ 1
glich 1
heit@@ 1
ode 1
Met@@ 1
Kap@@ 1
Cl@@ 0.946225932742813
erei 1
&#91; 0.3464754354499855
dem@@ 1
Gegen@@ 1
&#93; 0.3454033659102444
General@@ 1
tiert 1
80 1
Zum 1
danach 1
res@@ 0.4225119983788487
verschiedene 1
lauf@@ 1
Liga 1
eichen 1
Sitz 1
Kal@@ 1
iker 1
deck@@ 1
Geh@@ 1
hin 1
1993 1
Beg@@ 1
Pa@@ 1
30. 1
omm@@ 1
ote 1
Mark@@ 1
bereich 1
besuchte 1
Alter 1
gehen 1
standen 1
gemeinsam 1
isen 1
nt 1
í@@ 1
gleichen 1
sw@@ 0.9689997732973995
gesetz@@ 1
Po@@ 1
Insel 1
besonders 1
ich 1
gehören 1
Tur@@ 1
gs 1
21. 1
uk@@ 1
schie@@ 1
enburg 1
lichkeit 1
gruppe 1
Professor 1
kel 1
dis@@ 0.20736710165869807
schn@@ 1
ms 0.6796164375083144
0,@@ 1
mals 1
gs@@ 1
altung 1
kn@@ 0.9461879573236089
Bürger@@ 1
Studi@@ 1
22 0.650371968515873
setzung 1
fäl@@ 1
rie@@ 1
23 0.6681312129218921
We@@ 1
machte 1
Vertrag 1
genen 1
spieler 1
ennung 1
doch 1
Sommer 1
Europ@@ 1
yl@@ 0.9696349302433585
Krank@@ 1
res 0.6833466979828607
Hamburg 1
Gemeinden 1
beispielsweise 1
Res@@ 1
Maria 1
iti@@ 0.9890088321006265
dig@@ 1
zuvor 1
Hol@@ 1
Tro@@ 1
0er 1
1989 1
meisten 1
20@@ 0.8974133191712761
geführt 1
far@@ 1
kehrte 1
ock@@ 1
Fe@@ 1
London 0.6102052775854453
Rei@@ 1
Du@@ 1
Com@@ 0.8235722163113933
Reichs@@ 1
je@@ 1
sieben 1
weg@@ 1
Dem@@ 1
burger 1
Spieler 1
ente 1
tä@@ 1
lau@@ 1
kamen 1
Mutter 1
di 1
uren 1
lag@@ 1
itt@@ 1
heits@@ 1
möglich 1
leit@@ 1
Konz@@ 1
mei@@ 1
ev@@ 0.3987623544087413
teilweise 1
hinaus 1
spek@@ 1
Ha@@ 1
ja 1
aller 1
arch@@ 0.7595647454436539
son@@ 1
befinden 1
trä@@ 1
bereit@@ 1
weit 1
arbeitet 1
ordnung 1
ure 0.3471878994526958
Mann 1
Pol@@ 1
halb 1
tigte 1
Schweiz 1
per 0.45949111480155846
tion@@ 1
zusammen@@ 1
ath@@ 0.5534964848974809
Werke 1
Kn@@ 1
Cor@@ 0.72912937642818
gelang 1
Hor@@ 1
berger 1
tro@@ 0.9323496518581689
Europa 1
atz@@ 1
schul@@ 1
ester 1
aler 1
genutzt 1
ies 0.3185534254296419
folge 1
Mot@@ 1
Dis@@ 1
größ@@ 1
ks@@ 1
gelegt 1
kar@@ 1
ost@@ 1
Gal@@ 1
mann@@ 1
Gest@@ 1
arbeit@@ 1
Kin@@ 1
Georg 1
Gesamt@@ 1
Prof@@ 1
DDR 1
Ho@@ 1
lie@@ 1
25. 1
rei@@ 1
Schloss 1
League 0.40754637838744634
At@@ 1
Arten 1
ann 1
Bed@@ 1
Gro@@ 1
Klein@@ 1
Rad@@ 1
ihnen 1
ack@@ 1
zentr@@ 1
179@@ 1
leb@@ 1
Vereinigten 1
26. 1
ungsp@@ 1
ice 0.4747693637637733
eigene 1
Strecke 1
ren 1
buch 1
Por@@ 1
22. 1
daher 1
emp@@ 1
pre@@ 0.2767727395163002
Kreuz@@ 1
Bal@@ 1
tu@@ 1
ät@@ 1
Armee 1
Frei@@ 1
absolvierte 1
ator 0.6000615176963726
ehr@@ 1
satz 1
Fern@@ 1
ates 0.32327589933843826
gebracht 1
Hal@@ 1
veröffentlichte 1
ó@@ 1
atz 1
mittel@@ 1
nachdem 1
gän@@ 1
anischen 1
dau@@ 1
folgende 1
Mi@@ 1
Franz 1
wechsel@@ 1
Spielen 1
ichten 1
ey 0.4423851248288497
Bild@@ 1
Betrieb 1
70 1
Studium 1
fläche 1
einz@@ 1
Mitglieder 1
ren@@ 0.6993841846565902
ano 1
versch@@ 1
ord 1
ver 0.9702198458676662
ft@@ 1
H 1
aw@@ 0.6743860321497201
Danach 1
Fußball@@ 1
Arbeits@@ 1
90 1
200 1
Ter@@ 1
De@@ 0.6268519165174383
etwas 1
Ausbildung 1
Reihe 1
28. 1
kleinen 1
win@@ 1
Deutsche 1
Wil@@ 1
ci@@ 0.4349880217687447
24. 1
ze@@ 1
gegen@@ 1
Geb@@ 1
stan@@ 1
häufig 1
ir 0.6159037748311486
itä@@ 1
Saint 1
Haf@@ 1
Ludwig 1
aufgenommen 1
Tag 1
weisen 1
star@@ 1
weit@@ 1
reichen 1
bek@@ 1
Bruder 1
seit@@ 1
kein 1
ro 0.8535199657023755
wär@@ 1
einigen 1
ähn@@ 1
Weitere 1
ys 0.8113478891961566
23. 1
direkt 1
bert 1
stein@@ 1
entstanden 1
Mer@@ 0.9845423727834389
ges 0.8983529019795266
atur 1
Ersten 1
net@@ 1
Dreh@@ 1
Militär@@ 1
1972 1
beide 1
hielt 1
Techn@@ 1
eile 1
1988 1
acht@@ 1
1933 1
Vol@@ 1
sicht 1
Gast@@ 1
annte 1
La 1
Sy@@ 1
fung 1
deutlich 1
sche 1
kleine 1
San@@ 1
Dat@@ 1
letzte 1
Hier 1
oph@@ 1
Zwischen 1
geschlossen 1
Politiker 1
fol@@ 1
27. 1
angeb@@ 1
ram@@ 1
nah@@ 1
wand@@ 1
alität 1
äre 1
issen 1
spiele 1
dienst 1
legte 1
amm 1
stoff@@ 1
alb@@ 1
anten 1
erreicht 1
Kat@@ 1
eben 1
hän@@ 1
cht@@ 1
id 0.424796430027302
Gemeinde@@ 1
Bahnhof 1
Stand@@ 1
ak 0.5402063951528653
hinter 1
Bereits 1
Luft@@ 1
stellungen 1
Plan@@ 1
Bru@@ 1
Mün@@ 1
neu@@ 1
Michael 1
1980 1
Olympischen 1
zwar 1
ski 1
The@@ 1
ager 1
ud@@ 0.8246159514071799
gebäude 1
somit 1
ös@@ 1
lauf 1
assung 1
stelle 1
organis@@ 1
schaft@@ 1
Ag@@ 1
ip@@ 0.988684081270787
lässt 1
iges 1
Fu@@ 1
Prot@@ 1
schrift 1
außerdem 1
Rhein@@ 1
hausen 1
Museum 1
Buch 1
Hy@@ 1
assi@@ 0.842433935856276
los@@ 1
lebte 1
zy@@ 1
Schn@@ 1
All@@ 1
führen 1
zt 1
mm 1
ursprünglich 1
richtung 1
Pet@@ 1
vielen 1
La@@ 1
nor@@ 1
schied 1
sl@@ 0.9887272256765842
ander@@ 1
diente 1
ther@@ 0.9532673799740585
1987 1
29. 1
zählt 1
² 1
tungs@@ 1
Brü@@ 1
ennen 1
1970 1
Prin@@ 1
leh@@ 1
ali@@ 0.8569462102503381
Klasse 1
wald 1
stammt 1
Nähe 1
ore 0.5496216608873462
recht@@ 1
ling 0.6382222383144065
Tal@@ 1
ron@@ 1
ol 0.6716298596258778
Ziel 1
sdorf 1
County 0.334885050208621
Den 1
exist@@ 1
ernannt 1
Thomas 0.8909001865947416
werke 1
Stelle 1
ag 1
ammer 1
mehreren 1
Lei@@ 1
Sozial@@ 1
enhaus 1
istische 1
Linie 1
1939 1
Über 1
Finale 1
amb@@ 0.829371211552989
Erd@@ 1
ff 1
iten 1
grenz@@ 1
Berliner 1
th 0.2241751321509447
Innen@@ 1
keit 1
zeug 1
verkehr 1
igung 1
è@@ 1
viel@@ 1
langen 1
Wasser 1
AG 1
bild 1
ären 1
Dre@@ 1
Siehe 1
ahl@@ 1
gewesen 1
Gi@@ 1
auen 1
gar@@ 0.8235016795084095
dafür 1
Präsident 1
1974 1
macht 1
Ehr@@ 1
1938 1
südlich 1
sozial@@ 1
Wieder@@ 1
Gef@@ 1
Pra@@ 1
sion 0.38970994808621345
ech@@ 1
film 0.21001052654756613
erwähnt 1
Mat@@ 1
anschließend 1
ors 0.2728383773116645
ße 1
1986 1
frei@@ 1
ast 1
halt 1
spr@@ 1
gleich 1
un 0.8492929694268491
pro 1
26 0.6088812098611951
Robert 0.8715676295935512
Zudem 1
Zweit@@ 1
kal@@ 1
1984 1
Bay@@ 1
ane 0.7579089285198459
Bezeichnung 1
dritten 1
28 0.6064875995949577
Gründung 1
ena 1
hof 1
anische 1
erw@@ 1
San 0.6741165454735665
üsse 1
Holz@@ 1
imm@@ 1
erer 1
š@@ 1
31. 1
folgt 1
dr@@ 0.8556027170998247
Einwohnern 1
nord@@ 1
Kreis@@ 1
Mos@@ 1
sport@@ 1
Erfolg 1
Vi@@ 1
Spiele 1
ino 0.7909500558515025
gesellschaft 1
sozi@@ 1
chn@@ 1
punkt 1
hoch@@ 1
ass 0.998487011040305
weniger 1
Bot@@ 1
Preis 1
Pflanz@@ 1
ry 0.26259327695915147
Ihre 1
ahl 1
Ach@@ 1
entwickelte 1
Martin 1
mi@@ 1
Rom@@ 1
verheiratet 1
ley 0.374698599796021
1985 1
National 0.24914884273048254
1975 1
Geschäfts@@ 1
Gem@@ 1
su@@ 0.3319521039301008
Dor@@ 1
gericht 1
rück@@ 1
zieh@@ 1
engl@@ 1
iere 1
erster 1
Chr. 1
arten 1
bil@@ 1
ht 1
1978 1
grund@@ 1
ih@@ 1
heiratete 1
Hof@@ 1
Ol@@ 1
35 1
ah 0.5704675727343662
1944 1
eri@@ 1
Produktion 1
cm 1
anc@@ 0.5998131929125246
größte 1
Kinder@@ 1
Hil@@ 1
schei@@ 1
annt 1
Dieses 1
fahrt 1
Rö@@ 1
Mod@@ 1
Wald@@ 1
Stad@@ 1
Drit@@ 1
bezirk 1
fort 1
größten 1
Nachfolger 1
ihres 1
isiert 1
genden 1
Mel@@ 1
Win@@ 1
tigkeit 1
amerikanischer 1
Sprache 1
führer 1
Schweizer 1
aufge@@ 1
fahren 1
Zwei@@ 1
27 0.5901602609947907
ta 0.9538772650760923
1976 1
Spr@@ 1
1968 1
ingt 1
gaben 1
3,@@ 1
alis@@ 1
Herr@@ 1
Bek@@ 1
Wirtschafts@@ 1
500 1
ters 0.44746213553460273
Si@@ 0.8313133602812947
uh@@ 1
leg@@ 1
International 0.4722908078216743
anti@@ 1
itäts@@ 1
lossen 1
ahr@@ 1
co 0.39915293309317706
stri@@ 0.8081844062587447
alter 1
ion@@ 1
aut@@ 1
1969 1
Rund@@ 1
führten 1
To@@ 1
1983 1
Tour@@ 1
1979 1
Hö@@ 1
endet 1
jahr 1
1973 1
Neben@@ 1
ius 1
Weg 1
1982 1
sied@@ 1
nördlich 1
Köln 1
bildet 1
1971 1
Grund 1
mach@@ 1
Beim 1
Rang 1
West 0.4432877276860457
Feld@@ 1
onn@@ 1
bildung 1
Fer@@ 1
Winter@@ 1
befand 1
reiben 1
dar 1
gebildet 1
1960 1
ium 1
yn@@ 0.8176734826809183
Schiff@@ 1
Funk@@ 1
adi@@ 0.8447198756505782
ligen 1
ats@@ 1
Institut 1
politischen 1
frü@@ 1
Familienname 1
leist@@ 1
jährigen 1
verband 1
welches 1
bu@@ 0.5332221215498436
mor@@ 1
schwar@@ 1
umfasst 1
ders 0.4373189309815565
Pan@@ 1
hier@@ 1
hren 1
ahlen 1
denk@@ 1
Kath@@ 1
ue 0.5255268280208275
Kop@@ 1
wich@@ 1
setzt 1
Flu@@ 1
acher 1
ose 0.7438826278833411
ds 0.3440582153679645
ganz 1
betrieb 1
wagen 1
Damit 1
Finanz@@ 1
Chem@@ 1
Grenz@@ 1
strah@@ 1
City 0.3245284035165876
Teile 1
Euro 1
Sil@@ 1
178@@ 1
Besitz 1
Meister 1
för@@ 1
dient 1
esischen 1
ump@@ 0.9754626624540951
best@@ 1
ly 0.12485569423990507
uss 1
Truppen 1
Verbindung 1
alte 1
Frankfurt 1
Kloster 1
Außen@@ 1
II 0.40243264131240347
Tage 1
Kaiser 1
brau@@ 1
Pil@@ 1
1950 1
gende 1
ef 1
ologischen 1
ative 0.34291236436977784
Bun@@ 1
nimmt 1
dert 1
ehemalige 1
! 0.46853322853032464
Johannes 1
elten 1
Bro@@ 0.8549637852627593
Staffel 1
Not@@ 1
spielt 1
1981 1
Je@@ 1
Joseph 1
lief 1
och@@ 1
Hoh@@ 1
por@@ 0.7879110147548797
stand@@ 1
ese 1
Carl 1
England 0.520692179876909
Rot@@ 1
oth@@ 1
minister 1
Part@@ 1
alismus 1
ings 0.17629546864053658
erb@@ 1
Raum 1
gabe 1
einmal 1
ion 0.3621706972477416
Anschließend 1
tungen 1
entwickelt 1
End@@ 1
Sel@@ 1
benannt 1
brachte 1
sta@@ 1
Rek@@ 1
Z 1
chter 1
Del@@ 1
1946 1
Tab@@ 1
Wahl 1
Lau@@ 1
Han@@ 1
heiten 1
bin@@ 1
Otto 1
Italien 1
Dom@@ 1
32 1
do 0.3990266473096531
rol@@ 1
ügel 1
Komm@@ 1
ante 1
hohen 1
Fin@@ 0.7668393777335782
etzt 1
uli@@ 1
ob 1
Aut@@ 1
Sieg 1
Industri@@ 1
Den@@ 1
teten 1
Bischof 1
Hälfte 1
elte 1
lungs@@ 1
ic 0.13136916519685693
äuf@@ 1
damaligen 1
1964 1
Tel@@ 1
lichkeiten 1
Mont@@ 1
Gold@@ 1
ition 0.44970480783919164
Zuge 1
tive 0.477009038522955
reib@@ 1
v. 1
Nr. 1
Leitung 1
Rennen 1
edi@@ 1
bruch 1
ps 0.5150222093270742
Politik 1
Fra@@ 1
System 1
Os@@ 1
struk@@ 1
iele 1
nahe 1
45 1
belegte 1
Vari@@ 1
erfolg@@ 1
mitt@@ 1
Tran@@ 1
GmbH 1
1977 1
Gebi@@ 1
ensi@@ 1
Landes 1
Bra@@ 0.9078363325524071
pr@@ 0.7300989439628085
wenig 1
Wo@@ 1
Cal@@ 0.8519524234277205
Grenze 1
Wein@@ 1
ats 0.560305132574499
oo@@ 0.4799644149537092
essi@@ 1
Staat@@ 1
baren 1
gewiesen 1
städ@@ 1
Stra@@ 1
gesehen 1
krit@@ 1
Amts@@ 1
Str@@ 1
weiter@@ 1
Red@@ 1
lech@@ 1
endorf 1
fiel 1
upp@@ 1
nutz@@ 1
Runde 1
französische 1
tsch@@ 1
1967 1
Medi@@ 1
zahl 1
zen@@ 1
00 1
angs@@ 1
iner 1
Ernst 1
Kas@@ 1
Des@@ 1
ebenso 1
fort@@ 1
Länge 1
gebi@@ 1
Wor@@ 0.8008549186302888
Gebur@@ 1
besteh@@ 1
Art@@ 1
Ihr 1
V. 1
Werk@@ 1
rich 1
britischen 1
zeichnet 1
els@@ 1
wieder@@ 1
ed 0.04079150658479446
Begriff 1
Arbeiten 1
reiche 1
Leipzig 1
Hu@@ 1
SV 1
äss@@ 1
fest 1
weist 1
Don@@ 1
rech@@ 1
rän@@ 1
Division 0.5649154029579623
elt@@ 1
Pat@@ 1
besitzt 1
entfernt 1
kap@@ 1
Kunst 1
Bad 1
Tour 1
wir@@ 1
ica 0.911505715406785
tag 1
Kanton 1
Nationalmannschaft 1
ald 1
Ortsteil 1
1965 1
sogar 1
ausen 1
Eing@@ 1
Histor@@ 1
á 1
j 1
Stamm@@ 1
verk@@ 1
Geg@@ 1
Herrschaft 1
schein@@ 1
stellten 1
ama 0.7626523594893814
bevor 1
berg@@ 1
bra@@ 0.9424817414070246
leitete 1
Blü@@ 1
umen 1
Char@@ 1
einzige 1
gene 1
aren 1
machen 1
steh@@ 1
Fried@@ 1
Jo@@ 0.9523093347571135
stie@@ 1
Aufgrund 1
Ehe 1
Schwar@@ 1
lebt 1
ets 0.33294522579210506
Zw@@ 1
by 0.01821081764699469
29 0.5701752610664161
öh@@ 1
östlich 1
verein 1
Fran@@ 1
maß@@ 1
beträgt 1
fei@@ 1
See 1
Stil 1
ae 0.8399250799888055
ł@@ 1
Regierungs@@ 1
bro@@ 0.7409120508083135
deutsch 1
ki 1
1961 1
Gre@@ 0.795419194701734
rieb 1
wuchs 1
konz@@ 1
Sam@@ 1
mut@@ 1
Projek@@ 1
Leiter 1
Künst@@ 1
verfü@@ 1
Christian 0.9409802064786771
Zentrum 1
sa@@ 1
evangel@@ 1
setzen 1
üs@@ 1
digt 1
westlich 1
präs@@ 1
Col@@ 0.5353671886729126
1962 1
mu@@ 1
Rich@@ 1
weiterhin 1
ausgezeichnet 1
so@@ 0.9373697220678803
staat@@ 1
Verein@@ 1
old 0.2928042838415165
späteren 1
forder@@ 1
ograf@@ 1
1940 1
ehen 1
1966 1
Op@@ 1
Ap@@ 1
Fall 1
Zug@@ 1
ym@@ 0.8946053523041865
1963 1
erischen 1
linie 1
Ang@@ 1
Republik 1
ite 0.35350695531748694
verkehr@@ 1
75 1
wohl 1
Son@@ 1
klasse 1
bisher 1
aill@@ 1
erseits 1
Heimat@@ 1
Ul@@ 1
Bayern 1
wissenschaft@@ 1
dig 1
gefunden 1
wür@@ 1
wehr 1
Viz@@ 1
Männer 1
Val@@ 1
Mc@@ 0.3820284959443813
gn@@ 1
bild@@ 1
herr@@ 1
frühen 1
1956 1
Dorf@@ 1
verbunden 1
Ir@@ 1
1952 1
kämp@@ 1
Sachsen 1
äuß@@ 1
studi@@ 1
° 1
entlichen 1
oben 1
serv@@ 1
Leg@@ 1
1949 1
Firma 1
internationalen 1
ase 0.6110132034810544
1941 1
Weit@@ 1
Sand@@ 1
nehm@@ 1
stor@@ 0.8268355231822175
tierte 1
Sub@@ 1
1942 1
mo@@ 0.46818953662471596
eher 1
wi@@ 1
Theater 1
ong@@ 0.5556384895472404
Wie 1
sten@@ 1
1948 1
ard@@ 1
tliche 1
angen 1
Pap@@ 1
Person@@ 1
Fil@@ 1
Später 1
tigung 1
erie 1
Emp@@ 1
Kommun@@ 1
fü@@ 1
Is@@ 1
erzielte 1
Zahl 1
Polen 1
Ton@@ 1
Mich@@ 1
klein@@ 1
1943 1
nie 1
typ@@ 1
bed@@ 1
Halb@@ 1
asp@@ 1
Fläche 1
Dienst@@ 1
ther 0.9131392127819601
runde 1
Sar@@ 1
bs 0.9167765371817896
1.@@ 0.4577595544612846
histor@@ 1
uten 1
zum@@ 1
Wes@@ 1
1958 1
enthält 1
positi@@ 1
wäh@@ 1
Park 0.4842018746307262
aktiv 1
agt 1
sberg 1
Hilfe 1
schaf@@ 1
spar@@ 1
Geographie 1
würde 1
verlor 1
Forschungs@@ 1
Privat@@ 1
ständige 1
Frank@@ 1
breit@@ 1
Ren@@ 1
kauf@@ 1
ziehen 1
Erst 1
dro@@ 0.6946879639788699
dest@@ 1
müssen 1
Produk@@ 1
Il@@ 1
entlich 1
schluss 1
kun@@ 1
our@@ 0.5344474494132061
Lö@@ 1
ografie 1
Literatur 1
Fol@@ 1
ild@@ 1
dete 1
rach@@ 1
lte 1
Wol@@ 1
platz@@ 1
lediglich 1
für@@ 1
welt@@ 1
les 0.26418390180852175
aj@@ 0.819394793597858
tischen 1
Meisterschaft 1
teilt 1
ara 0.7933437625503369
Turn@@ 1
möglich@@ 1
Män@@ 1
tere 1
nis@@ 1
Wirtschaft 1
Kultur 1
ess 0.3676969961763527
Wider@@ 1
zeugen 1
Sommer@@ 1
fall@@ 1
spä@@ 1
druck 1
Arch@@ 0.9526375971186212
schriften 1
Wel@@ 1
Akademie 1
Ac@@ 0.5152839514762445
stag 1
Vor 1
ierungen 1
lein 1
weis@@ 1
bare 1
endete 1
William 0.4764355665648045
David 0.6368203914430944
Stud@@ 1
akter@@ 1
Ste@@ 1
Wiener 1
Med@@ 1
lau 1
Fot@@ 1
aub@@ 1
Meth@@ 1
rist@@ 1
reich 1
lebten 1
Mau@@ 1
ox@@ 1
bekann@@ 1
Schwer@@ 1
4,@@ 1
General 0.46881003084855843
Pe@@ 0.7585889338584745
inn 1
bilden 1
X 0.5961303955478447
leitung 1
1957 1
Sä@@ 1
Hinter@@ 1
ata 0.7128153605235761
sollten 1
Lo@@ 1
ologische 1
tin@@ 1
beteiligt 1
1959 1
loss@@ 1
fen@@ 1
Beschreibung 1
Bahn 1
ater 1
direk@@ 1
westlichen 1
Kü@@ 1
Regel 1
65 0.9220003542904253
itäten 1
Gattung 1
College 0.3534835736453759
van 1
Pok@@ 1
Weltmeisterschaft 1
igt 1
abge@@ 1
Funktion 1
1947 1
tei 1
Ob@@ 1
184@@ 1
Vorsitzender 1
ven@@ 0.6739931223773394
Schiff 1
folgten 1
wen@@ 1
politische 1
qualifiz@@ 1
du 1
gehörten 1
Version 1
teilung 1
Höh@@ 1
Typ@@ 1
allgem@@ 1
cken@@ 1
ella 1
sur 1
ack 0.7408274389992037
ritt 1
Da@@ 1
Lü@@ 1
Schlacht 1
Verfass@@ 1
Bürgermeister 1
Abschluss 1
rö@@ 1
stamm@@ 1
erne 1
Alexander 1
tions@@ 1
Verwendung 1
öffentlichen 1
Rel@@ 1
amerikanische 1
pol@@ 0.8162606986172045
Gott@@ 1
test@@ 0.8431724322632994
Lig@@ 1
ville 0.520671851831668
äs@@ 1
hohe 1
scher 1
ersetzt 1
wirkte 1
Richard 0.9218078493558428
verz@@ 1
Prä@@ 1
ini 1
geschrieben 1
ian 0.1823277038792921
pen@@ 0.8035748651853057
ücke 1
Hier@@ 1
Rep@@ 1
Publik@@ 1
produz@@ 1
brü@@ 1
fallen 1
basi@@ 1
Sonn@@ 1
Zeitpunkt 1
dien@@ 1
europ@@ 1
entschei@@ 1
wert 1
erreichen 1
1934 1
Sied@@ 1
1954 1
Dec@@ 1
wollte 1
1936 1
Burg@@ 1
1920 1
yp@@ 0.7574263249441073
eu@@ 1
gten 1
ifen 1
1953 1
gern 1
Jur@@ 1
Pass@@ 1
Sitz@@ 1
viel 1
Für@@ 1
ativen 1
ank 1
klass@@ 1
mäß@@ 1
Koh@@ 1
Uhr 1
ürz@@ 1
1919 1
Oper@@ 1
old@@ 1
Mari@@ 1
atik 1
zahlreichen 1
1955 1
liefer@@ 1
dor@@ 1
neun 1
1918 1
Univers@@ 1
gliedert 1
Mitarbeiter 1
entiert 1
Kol@@ 1
system 0.2985166625953998
erheb@@ 1
sitz 1
Ti@@ 1
mannschaft 1
Union 0.5449912838785698
ufen 1
ni@@ 1
ink@@ 1
bürger@@ 1
heraus 1
jah@@ 1
stände 1
itzer 1
riff 1
ied@@ 1
verläuft 1
nam@@ 0.940113100574198
Position 1
Sc@@ 0.5745895614153975
zentrum 1
etten 1
vis@@ 0.3718332080647718
Dollar 1
ales 1
č@@ 1
Cup 0.3944964185242416
ins@@ 1
hel@@ 1
setz@@ 1
lock@@ 1
enheit 1
illi@@ 1
schutz 1
Europameister@@ 1
Pau@@ 1
Künstler 1
betrieb@@ 1
Man 1
cker 1
sollen 1
trägt 1
wenige 1
ust 0.8806641021681666
Instit@@ 1
ock 0.6510936113689192
Gruppen 1
Spielzeit 1
III. 1
School 0.21923978883154768
siehe 1
Hochschule 1
Projekt 1
fil@@ 0.7297417443730487
Selbst@@ 1
finanz@@ 1
eröffnet 1
bald 1
fu@@ 1
schlag 1
Mu@@ 1
stab@@ 1
beendete 1
liste 1
är 1
Ju@@ 1
Regional@@ 1
hauptsächlich 1
… 1
kenn@@ 1
Verk@@ 1
knapp 1
lig 1
nern 1
ichtet 1
Pres@@ 1
36 1
rieb@@ 1
nächsten 1
Roman 0.8290351754099685
Heute 1
besten 1
ire 0.42242324240690304
Mehr@@ 1
regel@@ 1
Bus@@ 1
gem 1
Büh@@ 1
ek 0.8932919487266057
ha 0.8233326306190253
Fort@@ 1
Hermann 1
wo@@ 1
Anzahl 1
sth@@ 1
Sonder@@ 1
verw@@ 1
off 0.25625461282111694
serie 1
Renn@@ 1
bot 1
geleg@@ 1
moder@@ 1
fs 1
tlichen 1
Rom 1
ix 1
geschütz@@ 1
Schutz@@ 1
Kun@@ 1
‘ 0.7470716819075756
Verfügung 1
gesamte 1
jek@@ 1
kop@@ 1
uz@@ 1
Führ@@ 1
früher 1
grenzt 1
militär@@ 1
sburg 1
Et@@ 1
ust@@ 1
erfolgreich 1
Vertreter 1
une 1
keinen 1
eien 1
russ@@ 1
trol@@ 1
zeichnung 1
Doppel@@ 1
1937 1
klei@@ 1
Baden 1
ichte 1
Ban@@ 1
schau@@ 1
1951 1
Mann@@ 1
ehemaliger 1
hre 1
treten 1
ong 0.39278594928488725
leich@@ 1
ellen@@ 1
betrug 1
Tätigkeit 1
Pos@@ 1
ca 0.9489586576301436
Ham@@ 1
China 0.5846236286080008
Roll@@ 1
bus 1
deten 1
oden 1
Handlung 1
Stadtteil 1
Sau@@ 1
richt 1
uer 1
Rein@@ 1
ya 0.4521883702087603
Bil@@ 1
unterstütz@@ 1
Fle@@ 1
Gegensatz 1
mussten 1
Unterstützung 1
Lag@@ 1
hör@@ 1
zü@@ 1
+ 0.7983526349765522
trolle 1
1935 1
Ly@@ 1
einf@@ 1
reten 1
del@@ 0.9176949108906389
flu@@ 1
tum 1
opp@@ 1
äd@@ 1
eme 1
Spe@@ 1
Dok@@ 1
Q@@ 0.47500119808508234
leiter 1
lö@@ 1
Trainer 1
fach 1
ns 0.32952040928219545
Organisation 1
ika 1
ader 1
Eltern 1
Max 1
darüber 1
hervor@@ 1
Juni@@ 1
vermutlich 1
ause 1
etzung 1
sech@@ 1
formen 1
Eisenbahn@@ 1
bringen 1
liegenden 1
sprech@@ 1
Jean 1
uc@@ 0.7643226468644478
igkeiten 1
ume 1
sprach@@ 1
such@@ 1
Verkehr 1
1930 1
Denkmal@@ 1
ränk@@ 1
belie@@ 1
aktu@@ 1
wahl 1
Metern 1
Evangel@@ 1
James 0.4635910284095653
funk@@ 1
Hen@@ 1
atur@@ 1
bor@@ 0.5410040052635082
Dresden 1
for 0.013153278231384158
schnit@@ 1
kör@@ 1
wander@@ 1
we 0.5256536425314391
33 1
plan@@ 1
san@@ 1
Anti@@ 1
34 1
George 0.46074963213376263
gespielt 1
hab@@ 1
auses 1
Nachbar@@ 1
arbeit 1
park 0.924020558612782
Berg 1
aut 1
World 0.16680432436225975
getragen 1
anlage 1
tag@@ 1
Anlage 1
vollständig 1
dadurch 1
erungs@@ 1
no 0.16811972408887932
gleichzeitig 1
öff@@ 1
Verlag 1
daraufhin 1
Kauf@@ 1
ask@@ 1
sam 1
Ni@@ 1
Soldaten 1
ffen 1
Gymnasium 1
Energ@@ 1
ko 1
ands 0.7922382908653225
Bat@@ 1
Kli@@ 1
ola 0.9454979099614794
177@@ 1
Spitz@@ 1
Vorgän@@ 1
Lang@@ 1
Schüler 1
Plat@@ 1
Dam@@ 1
bietet 1
Offiz@@ 1
mar 1
schlä@@ 1
Wehr@@ 1
eilen 1
üst@@ 1
name 0.17425207917163538
legen 1
ßer@@ 1
Nation@@ 1
rom@@ 1
Eh@@ 1
hy@@ 0.6039459485524697
Psych@@ 1
Go@@ 1
einzelnen 1
Stim@@ 1
frei 1
Weltmeisterschaften 1
31 0.5403523532376405
TV 0.42301869939175285
rh@@ 1
ändert 1
regelmäßig 1
komp@@ 1
indung 1
gefähr@@ 1
erwarb 1
Wahr@@ 1
za 0.9810071615685526
klärung 1
denn 1
64 1
itt 1
deut@@ 1
wertung 1
Dienst 1
ais@@ 1
the@@ 0.7030143486177731
Mad@@ 0.7154933728571232
verließ 1
wissenschaften 1
stit@@ 1
Reich 1
Mess@@ 1
Indi@@ 1
Woh@@ 1
Kolon@@ 1
Dr. 1
Hof 1
Bern@@ 1
Gleich@@ 1
Pot@@ 1
bru@@ 1
Ku@@ 1
überwiegend 1
en- 1
d. 1
Alle 1
Flor@@ 1
Hauptstadt 1
Kenn@@ 1
ländischen 1
1914 1
chin@@ 1
ō 1
Meister@@ 1
Stiftung 1
1928 1
Anschluss 1
har@@ 0.43012617853618423
eff@@ 1
Mannschaften 1
enbach 1
Motor@@ 1
Herz@@ 1
Sz@@ 1
lok@@ 1
persön@@ 1
Jugend 1
lige 1
indem 1
000 1
ritten 1
ents 0.24225230960386684
Muse@@ 1
heraus@@ 1
Parti@@ 1
geg@@ 1
Volk@@ 1
gol@@ 1
ee 0.6153048388407661
Hannover 1
zeichen 1
Verlauf 1
Do@@ 1
zuletzt 1
Artikel 1
Tür@@ 1
Beit@@ 1
abil@@ 1
fi@@ 0.4354992549227175
wesen 1
Betriebs@@ 1
ischem 1
Tex@@ 1
förm@@ 1
Fluss 1
Zwei 1
ständ@@ 1
übernommen 1
25@@ 0.8272786661782133
leicht 1
wiederum 1
dienst@@ 1
gemacht 1
aktion 1
Einfluss 1
1929 1
Dazu 1
entsprech@@ 1
Main 1
zeigen 1
ausschließlich 1
historischen 1
will 0.20515360129565666
Entwickl@@ 1
Kurz@@ 1
Kri@@ 1
plat@@ 1
Les@@ 1
Bundesliga 1
Titel@@ 1
keits@@ 1
Ba@@ 1
Brie@@ 1
endes 1
ford 0.3800866257376579
trug 1
gend 1
da@@ 1
etes 1
deb@@ 1
Wass@@ 1
zweit@@ 1
Gesetz@@ 1
Vog@@ 1
iegel@@ 1
Deutsch@@ 1
400 1
achten 1
wie@@ 1
Direktor 1
dt 1
ement 0.3220681948590974
Österreich@@ 1
usses 1
verloren 1
lten 1
ax@@ 0.7775568131089576
Sprach@@ 1
Sem@@ 1
anne 1
gingen 1
sogenannten 1
heim@@ 1
Minuten 1
Gut@@ 1
lehr@@ 1
tiger 1
eist@@ 1
Basis 1
ierungs@@ 1
ble 0.33279211627989946
wel@@ 1
Japan 0.5726324127419803
ick 0.3944728126874761
mark@@ 0.8217774441820435
lik@@ 1
Auftrag 1
klassi@@ 1
isierung 1
fäh@@ 1
Zusammenhang 1
Schön@@ 1
mindestens 1
etz 1
Grab@@ 1
tak@@ 1
Chor@@ 1
55 1
iff@@ 1
schwer@@ 1
SC 1
Walter 1
zeiten 1
Zusammenarbeit 1
Radi@@ 1
ossen 1
versor@@ 1
östlichen 1
Verwaltung 1
gesamten 1
Schlag@@ 1
othek 1
zerstört 1
rad 1
Lied 1
hält 1
Engl@@ 1
italien@@ 1
38 1
ständigen 1
gemeinschaft 1
hinter@@ 1
37 1
Friedhof 1
Zeitung 1
galt 1
verkauft 1
ätz@@ 1
oy@@ 0.5934264504782077
7,@@ 1
unn@@ 1
Tar@@ 1
ologe 1
Papst 1
Rä@@ 1
verwaltung 1
jeder 1
seien 1
bri@@ 0.43541326902844335
Zeitschrift 1
Rez@@ 1
Bildung 1
wehr@@ 1
kreis 1
42 1
iel 1
Journ@@ 1
ball@@ 1
lingen 1
Phil@@ 1
ator@@ 1
1932 1
Nord 1
esse 1
startete 1
buch@@ 1
Seiten 1
under@@ 0.24691199214135692
entlang 1
ō@@ 1
willi@@ 1
iken 1
American 0.12081556128677054
kaum 1
Monate 1
reibt 1
leitet 1
bestehen 1
änge 1
30@@ 0.7986617798186605
ingungen 1
dens 1
yer 0.9197926943391856
ura 1
Anna 1
Darüber 1
heutige 1
ras@@ 1
beck 1
ele 1
aille 1
Mol@@ 1
Sich@@ 1
bekannten 1
Aktiv@@ 1
Schauspieler 1
ämp@@ 1
errich@@ 1
ri 1
Wappen 1
eiche 1
auff@@ 1
Kant@@ 1
Bon@@ 1
Graf 1
Zus@@ 1
Orte 1
Ern@@ 1
« 1
Bibli@@ 1
Post@@ 1
kün@@ 1
schutz@@ 1
zo@@ 1
1900 1
River 0.32028093292555027
tradition@@ 1
entwicklung 1
Umgebung 1
Josef 1
Feh@@ 1
Ländern 1
Club 0.49056680272847053
riert 1
ken@@ 1
atischen 1
Rau@@ 1
zeuge 1
Instr@@ 1
Alb@@ 1
besondere 1
heißt 1
syst@@ 1
Charles 0.5583612343355117
Chi@@ 0.9316879639514716
6,@@ 1
Abteilung 1
lieb@@ 1
» 1
19@@ 1
reihe 1
Zentral@@ 1
rom 1
NS@@ 1
kti@@ 1
schütz@@ 1
Mass@@ 1
usi@@ 1
groß@@ 1
Fal@@ 1
fuhr 1
verteidi@@ 1
Physi@@ 1
chten 1
änden 1
ausgetragen 1
entum 1
pe@@ 0.3136883332636917
tal 1
ult@@ 1
que 0.49422389725685045
lex@@ 1
Comp@@ 0.8458669508183165
Kritik 1
Kapelle 1
Ther@@ 1
spl@@ 1
Star@@ 1
lern 1
großer 1
aup@@ 1
erfolgt 1
bestä@@ 1
Assi@@ 1
riffen 1
Leit@@ 1
berufen 1
Zeich@@ 1
osen 1
Mark 1
Stat@@ 1
Brun@@ 1
keiten 1
enzen 1
va 0.7727296026246693
É@@ 1
Gener@@ 1
Feuer@@ 1
Besatz@@ 1
erreich@@ 1
entin 1
48 1
mot@@ 0.9473551641795338
1970er 1
zäh@@ 1
forsch@@ 1
0.000 1
Thema 1
durchgeführt 1
nissen 1
erhöh@@ 1
Autor 1
Einige 1
welcher 1
fli@@ 1
trag@@ 1
Stuttgart 1
Jahres@@ 1
katholischen 1
Jag@@ 1
use 0.16048054183380037
ø@@ 1
wand 1
entdeckt 1
port@@ 1
Pfar@@ 1
Web@@ 1
Franz@@ 1
stätte 1
Darstellung 1
tenen 1
Kamer@@ 1
bildete 1
berech@@ 1
burg@@ 1
Russland 1
erungen 1
betrieben 1
Heim@@ 1
Zürich 1
Lim@@ 1
inge 1
Recht 1
bay@@ 1
Wi@@ 0.993859850889343
affen 1
Ker@@ 1
Brücke 1
44 1
Forsch@@ 1
iv 1
digen 1
1925 1
1980er 1
dür@@ 1
Denk@@ 1
ätze 1
erstes 1
Hör@@ 1
Nov@@ 1
europäischen 1
turen 1
Stell@@ 1
jährlich 1
Silber@@ 1
ain@@ 0.353353961166429
ichts@@ 1
ile 0.3655066337922386
hard 1
österreichischen 1
ib@@ 0.9211693153991884
Bezirk 1
Turm 1
omen 1
Fußball 1
Krieg@@ 1
zwölf 1
Insgesamt 1
weiterer 1
Le 1
Viel@@ 1
Punkte 1
Zusammen@@ 1
gerä@@ 1
dene 1
Obwohl 1
sprache 1
ziel@@ 1
unternehmen 1
ando 1
Bild 1
preis 1
zusätzlich 1
ograph@@ 1
rechte 1
satz@@ 1
stär@@ 1
südlichen 1
schnitt 1
erbaut 1
ars 0.38727379010762186
wahrscheinlich 1
änd@@ 1
5,@@ 1
Hintergrund 1
ille 1
1927 1
Verfahren 1
hr 1
Bahnstrecke 1
akti@@ 1
Wir@@ 1
stammen 1
Tier@@ 1
ond@@ 0.8115424400313751
erweise 1
echn@@ 1
zus@@ 1
achsen 1
1924 1
Ev@@ 0.7892885000269358
mund 1
Dek@@ 1
eim@@ 1
Gol@@ 1
titel 1
tau@@ 1
des@@ 0.4251916634644142
bur@@ 0.56421109183058
schwed@@ 1
Gebäu@@ 1
Brau@@ 1
nungen 1
Steuer@@ 1
lo 1
Vom 1
ild 1
Sor@@ 1
sodass 1
Département 1
Lat@@ 1
Straßen@@ 1
mittl@@ 1
300 1
Autom@@ 1
erhal@@ 1
vertre@@ 1
beginnt 1
Hir@@ 1
Dan@@ 1
enge 1
falls 1
legung 1
Masch@@ 1
ā@@ 0.7163587720206833
Daneben 1
endung 1
Off@@ 1
rot@@ 1
Sach@@ 1
wurf 1
russischen 1
kel@@ 1
Nordosten 1
Award 0.46116583263072114
Dra@@ 0.9100316426627033
bauten 1
‚ 1
gehend 1
Laufbahn 1
Bei@@ 1
Disk@@ 1
Mitt@@ 1
ys@@ 1
Ok@@ 1
Hon@@ 0.6238020539057189
bung 1
sex@@ 1
Allgem@@ 1
Wech@@ 1
fern 1
deshalb 1
ias 1
Bri@@ 0.7382736545196524
Stück 1
entwick@@ 1
SPD 1
eiler 1
Seg@@ 1
sätze 1
Wall@@ 1
ew@@ 0.8944038387209025
ret@@ 0.641043247373261
lem 1
verpflich@@ 1
Wochen 1
kunft 1
etzen 1
öch@@ 1
Super@@ 1
emen 1
fluss 1
Gran@@ 1
dur@@ 1
weite 1
1910 1
not@@ 0.5916345454464346
hung 1
angel@@ 1
Schutz 1
gewand@@ 1
Ander@@ 1
Just@@ 1
rechts 1
US@@ 0.7035859778898557
teils 1
sowjet@@ 1
weitgehend 1
mün@@ 1
peri@@ 0.7232377738718989
ker@@ 1
ligisten 1
Alp@@ 1
wirtschaft@@ 1
Dr@@ 1
Elek@@ 1
gewinnen 1
ap 0.6861452405407696
Siedlung 1
haltung 1
them@@ 1
abhängig 1
spro@@ 1
1960er 1
Handels@@ 1
Tit@@ 1
ov 0.5857127057310392
Markt 1
law@@ 1
verliehen 1
Song 1
höh@@ 1
verfahren 1
1921 1
do@@ 0.47360070226739237
Freih@@ 1
Brand@@ 1
ktion 1
christ@@ 1
Seit@@ 1
Stu@@ 1
ont@@ 1
Nutz@@ 1
Can@@ 0.5588188452304456
Mik@@ 1
obil@@ 1
Eich@@ 1
anlagen 1
stärk@@ 1
Bas@@ 1
Kandid@@ 1
forschung 1
Königreich 1
United 0.10607319701181256
Tschech@@ 1
1990er 1
Ven@@ 1
Verkehrs@@ 1
Körper@@ 1
selten 1
Herbst 1
füh@@ 1
Pfer@@ 1
Kern@@ 1
turm 1
Gerichts@@ 1
relativ 1
Men@@ 1
Jung@@ 1
chron@@ 1
äng@@ 1
Mein@@ 1
1931 1
schuss 1
Doch 1
Gesund@@ 1
Bezirks@@ 1
größere 1
dan@@ 1
dritte 1
Temp@@ 1
Wind@@ 1
Dach@@ 1
freien 1
ünst@@ 1
Ins@@ 1
anderer 1
lers 1
priv@@ 1
ünd@@ 1
Fäl@@ 1
Weltkriegs 1
bekam 1
ermöglich@@ 1
Südwesten 1
sah 1
prü@@ 1
fertig@@ 1
zin@@ 1
sieht 1
regierung 1
Schrift@@ 1
Fisch@@ 1
iter 1
jährige 1
1923 1
1926 1
wend@@ 1
Halle 1
glied 1
Single 1
odi@@ 1
use@@ 1
Ortschaft 1
Angel@@ 1
Kapit@@ 1
Eng@@ 1
ätzlich 1
vertreten 1
Aug@@ 1
Anf@@ 1
sprung 1
Daten 1
Lehrer 1
Fahrzeuge 1
ministerium 1
On@@ 1
erschienen 1
zahlen 1
Anteil 1
weltweit 1
deutsch@@ 1
national@@ 1
natür@@ 1
kehr@@ 1
italienischen 1
? 0.6430798618104732
Allerdings 1
Herkunft 1
Dör@@ 1
Ra@@ 1
Angaben 1
Klu@@ 1
schwer 1
Grand 0.6634520338089701
kung 1
ätzen 1
Fußballspieler 1
gelegenen 1
wach@@ 1
rie 1
ani 0.5621198712730383
betre@@ 1
gesp@@ 1
Proz@@ 1
Open 0.9543583269463667
Lor@@ 1
ichts 1
41 1
ages 0.36600957315973437
männ@@ 1
Voll@@ 1
strecke 1
39 1
cker@@ 1
Jan@@ 1
näch@@ 1
geschlagen 1
Samm@@ 1
rechten 1
verhin@@ 1
elf 1
lim@@ 0.8524460675414867
digung 1
indungen 1
lieg@@ 1
fern@@ 1
Saison@@ 1
1922 1
inzwischen 1
laut 1
rang 1
klär@@ 1
Teilnehmer 1
gegründeten 1
Führung 1
Sim@@ 0.9969534211503241
lam@@ 1
ona 1
nehmer 1
Sammlung 1
Stur@@ 1
ekt 1
ly@@ 0.6561835584189086
oper@@ 0.6655298816855807
samm@@ 1
öp@@ 1
Tor 1
anischer 1
tiv@@ 0.7297946388845551
barkeit 1
trag 1
Mas@@ 1
52 1
fün@@ 1
47 1
yst@@ 0.9527211526476271
Kampf 1
Festival 0.6858604537747338
char@@ 0.5793294553409575
stru@@ 1
gewöhn@@ 1
Großen 1
arischen 1
1912 1
mensch@@ 1
Hom@@ 1
Stunden 1
läuf@@ 1
ikation 1
namen 1
Rudolf 1
tär 1
fass@@ 1
mittel 1
träge 1
Forschung 1
Laufe 1
Nordwesten 1
Moder@@ 1
Auswahl 1
ufe 1
Netz@@ 1
Spanien 1
nördlichen 1
hoch 1
Zwe@@ 1
Staat 1
geprägt 1
industri@@ 1
Stern@@ 1
Markt@@ 1
Hochschul@@ 1
größeren 1
scht 1
andes 1
vorhanden 1
pa@@ 1
ument 0.6866259306716334
genannten 1
geren 1
otte 1
steller 1
tron@@ 1
fal@@ 1
engag@@ 1
grenze 1
Maler 1
sicht@@ 1
iven 1
gangen 1
Rech@@ 1
ahr 1
stück 1
entsprechend 1
geworden 1
Kategorie 1
arti@@ 1
Bü@@ 1
Schriftsteller 1
mod@@ 1
ogra@@ 1
tem 1
kul@@ 1
Beide 1
tragen 1
englischen 1
schnell 1
reibung 1
Philosophie 1
Louis 0.8180116832454487
Weise 1
nes 1
fel 1
43 1
gehalten 1
AT@@ 0.9954013645807752
Fri@@ 0.8674318104249844
Niederlan@@ 1
elek@@ 1
film@@ 1
hergestellt 1
region@@ 1
Möglichkeit 1
eng 1
ls 0.7740497451650475
51 1
ift 1
raft 1
Programm 1
dagegen 1
eres@@ 1
Punkten 1
eck 1
Bevölkerungs@@ 1
medaille 1
Regie 1
Wander@@ 1
Brit@@ 1
Provin@@ 1
Wolfgang 1
Gouver@@ 1
sogenannte 1
Südosten 1
geteilt 1
verfügt 1
geweiht 1
inne 1
öst@@ 1
ame 0.6256881411982882
Großbritannien 1
krank@@ 1
Kind 1
verwend@@ 1
Typ 1
ish@@ 0.31736979279379657
85 1
Größe 1
sper@@ 1
geber 1
toren 1
My@@ 0.8513199550160933
fasst 1
Ke@@ 0.7550626010694337
Kra@@ 1
Stimmen 1
Gö@@ 1
geleitet 1
spitz@@ 1
sk 1
Veröffentlichung 1
Ged@@ 1
Tsch@@ 1
aner 1
bst@@ 1
olle@@ 1
Ergebnis 1
ash@@ 0.2771865977875088
mag@@ 0.5830414485147497
ball 0.6390331492784861
Abschnitt 1
ises 0.9906977855728559
8,@@ 1
vol@@ 0.6296268705935459
Württemberg 1
gebau@@ 1
zählung 1
Tu@@ 1
ierter 1
Modell 1
Mensch@@ 1
Deb@@ 1
yr@@ 1
Städte 1
00@@ 0.64240370285857
sal@@ 0.7618073094205091
fs@@ 1
produziert 1
Mus@@ 1
gelang@@ 1
vierten 1
Nam@@ 1
Sta@@ 1
weis 1
Der@@ 1
Kaiser@@ 1
spe@@ 0.6470486490174113
Familien 1
ativ 1
beschrieben 1
ga 0.9242690158978731
pan@@ 0.5804092539129959
bre@@ 0.3067411768489173
amt@@ 1
annten 1
66 1
Gelände 1
lernte 1
jeweiligen 1
wichtige 1
ruppe 1
.-@@ 1
Architek@@ 1
arbeitung 1
eingestellt 1
sitz@@ 1
wärts 1
Albert 1
dies@@ 1
fließt 1
Gru@@ 1
höchsten 1
orte 1
ppe 1
stimm@@ 1
ř@@ 1
ita 0.6732547885665237
ea 1
Wur@@ 1
Erfolge 1
alisierung 1
verp@@ 1
ügel@@ 1
Verbreitung 1
ule 1
ichtete 1
Ord@@ 1
schließen 1
suchen 1
ç@@ 1
nischen 1
46 1
bekannte 1
Krieges 1
zun@@ 1
63 1
Bir@@ 1
früheren 1
licht 1
mö@@ 1
Nutzung 1
wirtschaft 1
künstler@@ 1
Det@@ 1
Kraft@@ 1
dy 0.43913204084959484
Aufgaben 1
yth@@ 1
jungen 1
lands 0.7739931168810047
kanischen 1
Folgen 1
außerhalb 1
merk@@ 1
Juden 1
Rest@@ 1
56 1
Wirken 1
verwal@@ 1
Ta@@ 1
ain 0.33122684994963486
sport 1
Bewegung 1
ikan@@ 1
eth@@ 0.9500772028672493
Fr@@ 1
Kla@@ 1
ont 1
och 1
mm@@ 1
kompl@@ 1
Cast@@ 1
fig@@ 1
verbess@@ 1
darin 1
are@@ 0.8826985712114179
Mur@@ 0.8076903461553405
Ball@@ 1
Russ@@ 1
53 1
Reis@@ 1
Mand@@ 1
windigkeit 1
enthalten 1
schiff@@ 1
Salz@@ 1
eim 1
tische 1
Ehefrau 1
Tore 1
zahl@@ 1
neten 1
empf@@ 1
Mut@@ 1
mes 1
Klin@@ 1
Mart@@ 1
Wissenschaft@@ 1
teilen 1
Juli@@ 1
Cro@@ 0.5368181381379102
Wach@@ 1
onlyinclude 1
Familien@@ 1
ey@@ 0.5458868362458231
familie 1
hervor 1
Mathemati@@ 1
Organis@@ 1
fiz@@ 1
röm@@ 1
fehl@@ 1
Konf@@ 1
ais 1
ari 0.8082946854051185
gang@@ 1
Boden 1
elektr@@ 1
gebiete 1
Stock@@ 1
Stif@@ 1
veranst@@ 1
Ze@@ 1
band 0.21008120317140724
1913 1
Fund@@ 1
eingeführt 1
Hessen 1
bestritt 1
Rum@@ 1
ließen 1
ossi@@ 1
Nic@@ 1
kommun@@ 1
68 1
Frage 1
Los 0.5951202514428221
könnte 1
ösung 1
Royal 0.38943898381125436
Geor@@ 1
ric@@ 0.30736063000216907
Qualifikation 1
fül@@ 1
zählen 1
defin@@ 0.8805009263865695
mäch@@ 1
2.@@ 0.3576700984860358
Station 0.7232768597740946
Vorder@@ 1
notwen@@ 1
zip@@ 1
benen 1
kra@@ 1
54 1
pflanz@@ 1
versammlung 1
vergleich@@ 1
internationale 1
lin 0.9426105272070209
49 1
Turnier 1
ula 0.8611567149824764
Leicht@@ 1
dungen 1
uer@@ 1
ital@@ 1
vertrag 1
mehrfach 1
riere 1
ehm@@ 1
vari@@ 0.4836844520575768
mark 0.921493292463885
möglichen 1
Tal 1
lob@@ 1
Kopf 1
Vergleich 1
h. 1
Wit@@ 1
62 1
zeigte 1
95 1
Sicher@@ 1
Kron@@ 1
itionen 1
tal@@ 0.47939963616922393
Grafen 1
ance 0.11601735952481332
Freund@@ 1
nichts 1
wissenschaft 1
masch@@ 1
Boden@@ 1
Merkmale 1
gesetz 1
Zy@@ 1
chester 1
Restaur@@ 1
ez 0.6813902693977631
bedeutet 1
alle@@ 0.4974741828342018
theit 1
iers 1
lecht 1
Orgel 1
Schwester 1
gewicht 1
1911 1
ahnen 1
gerade 1
Herzog 1
Ki@@ 1
Kolle@@ 1
Motor 1
â@@ 1
Wert 1
Island 0.47542785164678125
det@@ 0.41681040814715625
spruch 1
ser 1
Jes@@ 1
sa 1
ähnlich 1
Bad@@ 1
adem@@ 1
flächen 1
amer@@ 1
Ehren@@ 1
Luf@@ 1
1000 1
dienen 1
Trans@@ 1
fried@@ 1
Nikol@@ 1
wissenschaftlichen 1
Inseln 1
kes 1
S. 1
Mac@@ 0.46404259583758584
67 1
kurz@@ 1
Panz@@ 1
SS 1
hätte 1
So@@ 0.7181675842497989
trotz 1
nitz 1
Vaters 1
anerk@@ 1
ko@@ 1
hingegen 1
ph 0.6817988167068324
Hand 1
Johann@@ 1
denden 1
aufgeführt 1
druck@@ 1
Ep@@ 1
Wagen 1
wäre 1
utnant 1
fir@@ 1
neuer 1
sil@@ 0.9590122351523521
Ungarn 1
umfang@@ 1
ständig 1
antwor@@ 1
sucht 1
Bundesstaat 1
Washington 0.448170146175411
Westfalen 1
derte 1
glie@@ 1
offiziell 1
agte 1
Get@@ 1
ban@@ 0.9872111141604684
Nur 1
Französ@@ 1
Hau@@ 1
stellvertreten@@ 1
unterstützt 1
Minist@@ 1
beruf@@ 1
dus 1
entierte 1
PS 1
Gas@@ 1
Architektur 1
Kompon@@ 1
Erfahr@@ 1
Bestand@@ 1
ungspro@@ 1
Bremen 1
gleichnamigen 1
Himm@@ 1
Rem@@ 1
Maxim@@ 1
anl@@ 1
aufgelöst 1
pe 0.7843784306427162
Regel@@ 1
mäßig 1
Herren 1
fas@@ 1
jen@@ 1
elli@@ 1
gesprochen 1
erlau@@ 1
Wissen@@ 1
fried 1
Afri@@ 1
schm@@ 1
Lar@@ 0.8690783839377737
iegel 1
gruppen 1
Som@@ 0.8407934378589339
Fün@@ 1
Dro@@ 1
Region@@ 1
Jahrzeh@@ 1
Schauspiel@@ 1
umb@@ 0.7971008739164606
setzungen 1
deckt 1
Süd 1
Autob@@ 1
ument@@ 1
Exper@@ 1
Frühjahr 1
gangs@@ 1
gar 1
Milli@@ 1
musikal@@ 1
katholische 1
Infanter@@ 1
alisiert 1
endgül@@ 1
57 1
Kindern 1
Schweden 1
erheit 1
durchschnitt@@ 1
Eish@@ 1
Bö@@ 1
Einz@@ 1
61 1
Themen 1
entliche 1
erhielten 1
Heil@@ 1
Frauen@@ 1
welt 1
Jazz 1
Letz@@ 1
Angeb@@ 1
Kriti@@ 1
Eigen@@ 1
EU 1
fünf@@ 1
entsp@@ 1
theater 1
mess@@ 1
Zahl@@ 1
steu@@ 1
Sat@@ 1
Fir@@ 1
liter@@ 1
Quellen 1
Untersuch@@ 1
verhält@@ 1
Grundlage 1
Bank 0.843285995034224
emann 1
dän@@ 1
1907 1
sheim 1
punk@@ 1
teur 1
zugleich 1
rieben 1
ty 0.1583183530605162
din@@ 1
SG 1
benö@@ 1
absol@@ 1
Test@@ 1
minist@@ 1
spezi@@ 1
Heiligen 1
Landwirtschaft 1
eur@@ 1
ckt 1
Zentr@@ 1
kost@@ 1
Früh@@ 1
len@@ 1
erv@@ 1
reform 1
Opfer 1
Sowjetunion 1
verbin@@ 1
Streit@@ 1
ächlich 1
wider@@ 1
smit@@ 1
kunde 1
last@@ 1
riffe 1
Deutsch 1
erwar@@ 1
same 0.14488867892902832
umbenannt 1
Will@@ 1
essel@@ 1
zeh@@ 1
bein@@ 1
rechts@@ 1
begrün@@ 1
Schulen 1
obwohl 1
Teilen 1
rati@@ 1
entspricht 1
í 1
Wald 1
besonder@@ 1
Hall@@ 1
verantwortlich 1
bewegung 1
stän@@ 1
na@@ 1
wenigen 1
Dich@@ 1
Raum@@ 1
türk@@ 1
fle@@ 1
zei@@ 1
Winter 1
eter@@ 1
Aufgabe 1
bü@@ 1
lehrer 1
namens 1
wit@@ 0.9294070339114832
links 1
schrif@@ 1
1905 1
psych@@ 0.7875260004895772
ühle 1
Vo@@ 0.85012426293258
eger 1
Trä@@ 1
weib@@ 1
unten 1
Form@@ 1
Ka@@ 1
tigten 1
Gebir@@ 1
Namens@@ 1
gerung 1
Schon 1
werde 1
punkte 1
Rückkehr 1
ada 0.6343717780756174
Schiffe 1
verwand@@ 1
2022 0.8102276227160659
bisher@@ 1
sto@@ 1
Ann@@ 1
koh@@ 1
Noch 1
Güter@@ 1
tier@@ 1
erweitert 1
Eth@@ 1
position 0.2706257008664029
ith 0.48336081136569775
äne 1
Fürst@@ 1
Kos@@ 1
58 1
weiteres 1
Frü@@ 1
Ide@@ 1
Ebene 1
unbe@@ 1
Länder@@ 1
1917 1
neues 1
Wettbewerb 1
eingesch@@ 1
traf 1
Söhne 1
1908 1
Sinne 1
Aufbau 1
derungen 1
Ram@@ 0.7613856985679418
verlassen 1
äusern 1
zeichn@@ 1
cks 0.6604941878965411
Schau@@ 1
atoren 1
Aufl@@ 1
inischen 1
ographie 1
Tiere 1
wichtigsten 1
Distrikt 1
solche 1
Log@@ 1
Naturschutz@@ 1
Teams 1
Ereig@@ 1
Adolf 1
ost 1
dahin 1
linken 1
Tau@@ 1
Marie 1
Viele 1
li 1
9,@@ 1
Platz@@ 1
ial@@ 1
bestimmt 1
Rat 1
beobach@@ 1
Präsidenten 1
Gedi@@ 1
alli@@ 1
zeichnete 1
wasser 1
besie@@ 1
versuchte 1
äger 1
Gitar@@ 1
nete 1
Hab@@ 1
worfen 1
Auss@@ 1
Ost 1
int@@ 0.4007856316701204
zipl@@ 1
asen 1
usst 1
Gü@@ 1
Wort 1
poln@@ 1
72 1
Cap@@ 0.6292901412908722
glichen 1
wasser@@ 1
höchste 1
Step@@ 1
Hum@@ 1
go 0.29691374400652454
weiß 1
wirtschaftlichen 1
× 1
Beh@@ 1
Beisp@@ 1
emals 1
aur@@ 1
traten 1
Technik 1
tie@@ 1
wahr@@ 1
Berufs@@ 1
ege 1
eres 1
Theater@@ 1
Person 1
fang 1
aben 1
junge 1
kern 1
wäl@@ 1
Moskau 1
Dep@@ 1
gelassen 1
A. 0.7612150584825697
Amat@@ 1
kräfte 1
bezieh@@ 1
Ort@@ 1
WM 1
Zul@@ 1
drit@@ 1
Span@@ 1
grund 1
kr@@ 1
Fabri@@ 1
irche 1
ritte 1
demokrat@@ 1
gemäß 1
Werdegang 1
urkund@@ 1
Müller 1
darf 1
Prü@@ 1
bezir@@ 1
car@@ 0.14052363056085995
unterschied@@ 1
rad@@ 1
iens 1
britische 1
ffer 1
Tä@@ 1
such 0.08774602304181825
ück 1
Eig@@ 1
testen 1
afri@@ 1
groß 1
produk@@ 1
chem@@ 1
ordin@@ 0.8870140095473261
wirtschaftliche 1
Kais@@ 1
Zer@@ 1
tö@@ 1
part@@ 0.4840650164552697
älteste 1
Band@@ 1
Air 0.40954698724681626
got@@ 1
hor@@ 0.475000808964061
59 1
zusätz@@ 1
sek@@ 1
stur@@ 1
Schä@@ 1
Frank 1
blätter 1
Düsseldorf 1
q@@ 0.5690383859910709
Ran@@ 1
eau 1
legt 1
Straß@@ 1
uth 1
Völ@@ 1
ierenden 1
maxim@@ 1
stammte 1
AR@@ 0.8497535463541583
erziel@@ 1
jüng@@ 1
issi@@ 1
Hoff@@ 1
Leistung 1
Lokomot@@ 1
eingerichtet 1
Imp@@ 1
1906 1
Aufstieg 1
Objekte 1
Licht@@ 1
tene 1
ham 0.4782508989459846
unterrich@@ 1
bleiben 1
stoff 1
fach@@ 1
Gründen 1
ums@@ 1
ive 0.7265511908128534
1950er 1
As@@ 0.9149721653470968
69 1
ros 1
flug@@ 1
swahl 1
kg 1
Weiter@@ 1
Schließ@@ 1
Saar@@ 1
deh@@ 1
ütte 1
blieben 1
Camp@@ 0.8694853031131201
les@@ 1
fällt 1
medi@@ 0.6516805605908941
Hektar 1
Bom@@ 1
ole 0.9241952900560626
Laut 1
gebir@@ 1
jün@@ 1
itig 1
Niederlage 1
station 0.16640946490432937
Gesetz 1
fein@@ 1
App@@ 0.5959840983251001
gliche 1
Musiker 1
min 1
Medien 1
De 1
Eu@@ 1
jähri@@ 1
Besuch@@ 1
abteilung 1
kulturel@@ 1
Polizei 1
oberen 1
sc@@ 0.14150602772426757
Andreas 1
kanad@@ 1
ua 1
römisch 1
neh@@ 1
Ritter@@ 1
iss 1
lass 1
geordn@@ 1
99 1
Ergebnisse 1
GB 1
sz@@ 1
Halbfinale 1
Bür@@ 1
baute 1
meisterschaft 1
gelegene 1
Wegen 1
Werner 1
etter@@ 1
gre@@ 0.5314099121418194
sters 0.8382051759483338
versucht 1
appen 1
telfinale 1
äische 1
Dokument@@ 1
num@@ 1
scheit@@ 1
Beruf@@ 1
besaß 1
Dem 1
Philipp 1
preußischen 1
III 0.5466138823632432
IV. 1
Mär@@ 1
musik 1
fung@@ 1
CDU 1
anges@@ 1
Interesse 1
könig@@ 1
Gut 1
Architekten 1
Einführung 1
mittelalter@@ 1
Konkur@@ 1
linge 1
allein 1
mittels 1
71 1
Literatur@@ 1
Wies@@ 1
ennt 1
neur 1
rel@@ 0.3704746928648496
shof 1
Herzog@@ 1
Port@@ 1
Frie@@ 1
Ortes 1
ans@@ 1
dargestellt 1
sem@@ 0.7385320629615459
struktion 1
vo@@ 0.484091296286037
Weiteren 1
ón 1
yn 0.7977300076239174
&#124; 0.25026147220882905
then 0.08155252218792843
Abitur 1
Wenn 1
50@@ 0.7936022262882537
Wild@@ 1
ome 0.7251685613539137
wissenschaftliche 1
Asi@@ 1
sekre@@ 1
uhl 1
Tenn@@ 1
Brandenburg 1
Kraft 1
Inform@@ 1
Rol@@ 1
ail@@ 0.6291132679321265
erscheint 1
ac 0.6778301272441989
Schwe@@ 1
Dol@@ 1
Wirkung 1
jüdischen 1
tation 0.7981207547453921
erklärt 1
aue 1
ister 1
selbst@@ 1
ital 0.653761183235539
Zentimeter 1
gericht@@ 1
istik 1
verbreitet 1
ution 0.33219182309757983
verlegt 1
zif@@ 1
halte 1
1909 1
erneu@@ 1
beeinfl@@ 1
Sum@@ 1
its 0.030679890140883043
album 0.112787572353558
cia 0.8767664579456873
Eben@@ 1
eption 0.8840286638491294
kampf 1
offizi@@ 1
spricht 1
bte 1
angeboten 1
isse 1
Unabhäng@@ 1
Objek@@ 1
Sprachen 1
hte 1
Damp@@ 1
mus 1
beschäftigt 1
ke@@ 0.5020566198890251
zul@@ 1
No@@ 0.7545258547527454
atten@@ 1
our 0.1921246389416713
seh@@ 1
J. 0.5858712342002226
ehmen 1
IS@@ 0.787374510236022
lus 1
Fi@@ 0.9572385813145853
wodurch 1
Priv@@ 1
Autor@@ 1
Europäischen 1
Bischof@@ 1
Wirk@@ 1
esische 1
gend@@ 1
Musi@@ 1
kleiner 1
Bonn 1
Company 0.3686081518917374
ebenda 1
Gold 1
Weltkrieges 1
Fass@@ 1
Australien 1
südwestlich 1
haupt@@ 1
uts 1
Auszeichnungen 1
häuf@@ 1
umente 1
sä@@ 1
Exempl@@ 1
länd@@ 1
gens 1
88 1
früh@@ 1
züge 1
benachbar@@ 1
osten 1
Charak@@ 1
trau@@ 1
Gottes@@ 1
teilte 1
außer@@ 1
Landtag@@ 1
egen 1
Records 0.5691339267154837
nationalen 1
sprü@@ 1
Pfarr@@ 1
ide 0.5910056376758439
ott 1
Vis@@ 1
hil@@ 1
furt 1
ros@@ 1
System@@ 1
annen 1
eben@@ 1
96 1
gelöst 1
nominiert 1
Tö@@ 1
Chor 1
eins 1
musi@@ 1
sionen 1
Trau@@ 1
Ü@@ 1
voll 1
mb@@ 1
Kloster@@ 1
unmittelbar 1
bes 1
Än@@ 1
Polit@@ 1
ô@@ 1
integ@@ 0.6561326633815818
äft 1
ment 0.119488734335058
römischen 1
Gie@@ 1
gezeigt 1
Hann@@ 1
genau 1
zwe@@ 1
Produz@@ 1
Bec@@ 1
zuerst 1
Nahr@@ 1
beschäf@@ 1
fan@@ 1
Hamburger 1
klar 1
Gesell@@ 1
istisch 1
trieb@@ 1
Temper@@ 1
iter@@ 1
amerika 1
xis 1
Rock 0.9374566083568363
Lok@@ 1
pres@@ 0.36689416419656995
Verband 1
AS@@ 0.8609229681754246
Sur@@ 0.530372002598799
oss 1
Landschafts@@ 1
behör@@ 1
sichtlich 1
Punkt 1
drück@@ 1
1904 1
Fritz 1
Tak@@ 1
folgen 1
racht 1
Arm@@ 1
Thür@@ 1
brücke 1
erlang@@ 1
Folge@@ 1
cup 1
Leh@@ 1
breit 1
Bos@@ 1
Alfred 1
Anton 1
Bücher 1
una 1
Trieb@@ 1
att 1
Erste 1
lar@@ 0.75149926409566
Produktions@@ 1
mechan@@ 0.7693392639943765
stehenden 1
liz@@ 0.8662966303415458
ling@@ 1
Nummer 1
Schm@@ 1
azin 1
Erb@@ 1
98 1
erfolgreich@@ 1
ril@@ 0.8811158058953285
ou 0.971855481751505
78 1
Zerstör@@ 1
Amerikan@@ 1
fabrik 1
enes 1
Fü@@ 1
südöstlich 1
handlungen 1
sie@@ 1
Hi@@ 1
1915 1
Roh@@ 1
fr@@ 1
Geist@@ 1
Patri@@ 1
schlag@@ 1
Persön@@ 1
Tages@@ 1
unterschiedlichen 1
Rat@@ 1
ständen 1
bewer@@ 1
ala 0.6073554076524186
dende 1
mus@@ 1
Heimat 1
Veranst@@ 1
via 0.29209910485887625
zugs@@ 1
by@@ 1
Mühl@@ 1
Weih@@ 1
gezogen 1
mung 1
Liebe 1
historische 1
Mei@@ 1
geeig@@ 1
roman@@ 1
ungs- 1
Sei@@ 1
Studien 1
Train@@ 1
isierte 1
ädagog@@ 1
Sig@@ 1
teile 1
Partei@@ 1
Vorsitz@@ 1
kin@@ 0.972454540330667
vorsitz@@ 1
Angeles 0.5858155001741754
Druck@@ 1
Eff@@ 1
isp@@ 1
ron 0.7392266334252658
Rhein 1
Erz@@ 1
wachs@@ 1
150 1
französischer 1
Standort 1
CD 0.7977677170810775
dru@@ 1
ory 0.23180524207786501
05 1
schre@@ 1
Nacht 1
Behör@@ 1
lern@@ 1
lose 1
Poly@@ 1
Rath@@ 1
August@@ 1
Gemeinder@@ 1
ris@@ 0.6293202455420218
Des 1
bleibt 1
04 1
Fernsehen 1
Kir@@ 1
ding 0.1274811754771379
iste 1
Cy@@ 0.7286344090745106
Daniel 1
latein@@ 1
mühle 1
Ausgabe 1
Debüt 1
Häuser 1
sub@@ 0.13083365130594976
Schauspielerin 1
Preußen 1
Internationalen 1
abhäng@@ 1
ico 0.8604435290123607
sigkeit 1
Gip@@ 1
Henry 0.4461723103720336
sam@@ 1
tats@@ 1
Eröff@@ 1
ñ@@ 0.865947742386153
garten 1
han@@ 1
bestimmten 1
Baum@@ 1
bahn@@ 1
ets@@ 1
Kurz 1
Sport 1
weil@@ 1
Leistungen 1
wiederhol@@ 1
ahren 1
Elisabeth 1
öß@@ 1
86 1
theorie 1
aux 1
wa 0.9801162807065696
Quelle 1
gress 1
nel 0.9107012316548336
Seiten@@ 1
ucht 1
Sü@@ 1
Lauf 1
beste 1
ernen 1
würden 1
zweimal 1
Alter@@ 1
Parlament@@ 1
Kampf@@ 1
digkeit 1
ologen 1
int 0.829775770827713
May@@ 0.8675261610406692
ora 0.8205154664061578
gers 1
Parlament 1
enten@@ 1
Flughafen 1
Lauf@@ 1
gelten 1
Text 1
Reb@@ 1
Regisseur 1
geschaffen 1
Villa 1
Ingenie@@ 1
museum 0.8940972484230225
Start 1
State 0.1472627539824694
Tun@@ 1
veröffentlich@@ 1
domin@@ 0.5128716621278812
zeichnungen 1
Kup@@ 1
Programm@@ 1
Maschin@@ 1
belegt 1
spielten 1
jüd@@ 1
Urs@@ 1
Gau@@ 1
Punk@@ 1
enstein 1
Bul@@ 0.7483091320254315
rei 1
tim@@ 0.4659683225098528
win 0.21263937773708713
arg@@ 0.930196304732237
Kanada 1
ammlung 1
Trotz 1
anzu@@ 1
rest@@ 0.8053146132523837
1903 1
österreich@@ 1
förmig 1
gegründete 1
ppen 1
schiff 1
speziel@@ 1
vertrat 1
Hub@@ 1
Auflösung 1
sätzen 1
Refer@@ 1
ental 0.3681406636850789
ela 0.8674523686041193
nordwestlich 1
Films 1
zeich@@ 1
umfass@@ 1
76 1
40@@ 0.9820068729051433
92 1
Sänger 1
Weg@@ 1
herz@@ 1
abger@@ 1
hie@@ 1
Informationen 1
rupp@@ 1
Nürnberg 1
öffent@@ 1
geist@@ 1
Situation 1
entschied 1
kurze 1
errichtete 1
formation 0.6622552883452444
Prop@@ 1
Rh@@ 1
Pfarrkirche 1
dienste 1
krä@@ 1
schließt 1
ged@@ 1
Opp@@ 1
Rec@@ 0.4019712946690619
Bä@@ 1
anda 0.68219627036983
Spar@@ 1
graben 1
onom@@ 0.7788888116727849
Leist@@ 1
polnischen 1
Richter 1
roffen 1
Bab@@ 0.9173917727330175
gro@@ 0.3180461898735389
verkaufte 1
Aufnahme 1
Territ@@ 1
nordöstlich 1
pflich@@ 1
reduz@@ 1
Kün@@ 1
bef@@ 1
zugeordnet 1
Probleme 1
Erzbischof 1
reicht 1
gewonnen 1
Förder@@ 1
Bis@@ 1
Straf@@ 1
erkennen 1
Ziel@@ 1
projek@@ 1
Gedenk@@ 1
verbreit@@ 1
Start@@ 1
ards 0.41734649714882144
over@@ 0.17164439400776857
Durchmesser 1
Christoph 1
Erschein@@ 1
ary 0.09721137966931093
nier 1
Unternehm@@ 1
ehe 1
Autoren 1
Wiederauf@@ 1
08 1
erklärte 1
1916 1
Kanz@@ 1
Mitglied@@ 1
Lam@@ 1
bezeichnete 1
Pati@@ 1
awa 0.767925194624705
sis 0.49292337064721325
Die@@ 1
Top 0.9429559713843574
zählte 1
enne 1
flo@@ 1
lei 1
Wen@@ 1
afrika 1
läng@@ 1
iedelt 1
800 1
haupt 1
pra@@ 0.7844614474401149
Bank@@ 1
blick 1
ý 1
con@@ 0.06210497302875747
South 0.12539555750970385
schau 1
handelte 1
Gün@@ 1
Brasili@@ 1
digte 1
linien 1
verli@@ 1
änen 1
geschoss 1
Pfarrer 1
Radio 0.6797784017291105
verfasste 1
trainer 1
Ferdinand 1
Leop@@ 1
Alten@@ 1
Vik@@ 1
Straßen 1
Münster 1
Besonder@@ 1
ide@@ 0.896985632294962
Beziehungen 1
Fakultät 1
Wettbewer@@ 1
jetzt 1
ney 0.33829429085390783
Wilhel@@ 1
zunehmend 1
Kommission 1
ümer 1
berühm@@ 1
Stau@@ 1
dige 1
dungs@@ 1
Freiburg 1
Mittelalter 1
Ausstellung 1
Ty@@ 0.8335913117857304
hebung 1
angelegt 1
jap@@ 1
Freund 1
stimmung 1
erstreckt 1
ics 0.13586378339476687
Fenster 1
Kirchen 1
iet 1
Sak@@ 1
dens@@ 1
verur@@ 1
1902 1
Betrieb@@ 1
niedri@@ 1
Rob@@ 0.8490067656919067
83 1
94 1
üter 1
77 1
Sign@@ 1
istin 1
Kro@@ 1
schafter 1
74 1
tz 1
fran@@ 0.9183190123295918
orien 1
atische 1
radi@@ 0.8222855049596257
Erde 1
Bewohner 1
quar@@ 0.8166434094914768
§ 1
edt 1
73 1
Gemäl@@ 1
Schwei@@ 1
Sw@@ 0.5380036479266636
Dies@@ 1
organisation 1
gungs@@ 1
übertragen 1
bür@@ 1
Besitz@@ 1
werken 1
82 1
gehörigen 1
Gloc@@ 1
09 1
Helm@@ 1
utsch@@ 1
Lit@@ 1
Straßenb@@ 1
Belgi@@ 1
wiesen 1
rop@@ 1
urg@@ 1
ganze 1
getrennt 1
Ich 1
Sozi@@ 1
Eur@@ 1
sy@@ 0.9309623390871372
07 1
elles 1
geborene 1
Besetzung 1
Wett@@ 1
promoviert 1
Kam@@ 1
gestaltet 1
löste 1
änder@@ 1
Bol@@ 1
fälle 1
Bach 1
House 0.21360751817363965
Kosten 1
Öffentlichkeit 1
bestimmte 1
Relig@@ 1
owski 1
600 1
Auß@@ 1
zip 1
zz@@ 0.908268515279132
Qualif@@ 1
prof@@ 0.6341229781258386
Fili@@ 1
zub@@ 1
grad 1
uns 1
Regiment 0.987222563168549
daran 1
dok@@ 1
Demokrat@@ 1
Formen 1
Filme 1
modernen 1
Geld 1
assen@@ 1
German@@ 1
onie 1
zustellen 1
jede 1
greif@@ 1
aufen 1
81 1
m. 1
ester@@ 1
gebro@@ 1
Stei@@ 1
wirtschafts@@ 1
Vir@@ 1
Einheit 1
Gri@@ 1
erfül@@ 1
Arn@@ 1
Teilnahme 1
Drei@@ 1
lex 1
Minister@@ 1
inf@@ 0.344984667677601
ok 0.7728907697607109
ionen 1
merks@@ 1
Brüder 1
Ortst@@ 1
stets 1
utz 1
Bou@@ 1
1901 1
Wand@@ 1
asste 1
01 1
Eigenschaften 1
außer 1
beit@@ 1
mäler 1
Köl@@ 1
japanischen 1
Gustav 1
Orgel@@ 1
lis 0.9828318204039391
tru@@ 0.7234106859598336
Böh@@ 1
Politi@@ 1
Grie@@ 1
let 0.4113425616916875
Revolution 1
Cre@@ 0.5464295723063676
Kämp@@ 1
walt 1
räge 1
93 1
Königs 1
ence 0.12484969444682899
stock 1
Kast@@ 1
Wolf@@ 1
haber 1
Mön@@ 1
eister 1
hunder@@ 1
err@@ 1
Anwendung 1
besitzen 1
fahrer 1
Olympi@@ 1
öffentliche 1
aft 1
ohn 1
starken 1
Abgeordn@@ 1
ration 0.34336001006846584
Mädchen 1
erl@@ 1
ept@@ 0.831983667801851
stat@@ 0.5293467566250251
dium 1
meister@@ 1
sächsischen 1
Spitze 1
eigentlich 1
ergän@@ 1
84 1
zeugt 1
etabli@@ 1
umfasste 1
Dadurch 1
ensburg 1
Music 0.3229355405116877
anstalt 1
Szene 1
geplan@@ 1
sidenten 1
drei@@ 1
zuständig 1
Bürger 1
Nah@@ 1
gener@@ 0.3776564728045556
Weiß@@ 1
affe 1
ı@@ 1
erbau@@ 1
Organ@@ 1
religiö@@ 1
87 1
Infrastruktur 1
Herstellung 1
Zusamm@@ 1
iff 1
seitdem 1
Gerä@@ 1
polit@@ 1
griech@@ 1
entri@@ 1
Society 0.3686433827311328
Länder 1
ail 0.2593083788764504
lerin 1
dunk@@ 1
Invest@@ 1
medizin@@ 1
ulp@@ 1
Sab@@ 0.9039027772851413
altet 1
wechsel 1
Mach@@ 1
brit@@ 1
Deutschlands 1
abe 1
1848 1
fft 1
ängerin 1
Leon@@ 1
alles 1
reiber 1
Cas@@ 0.7976163042467332
beauftra@@ 1
immer@@ 1
UN@@ 1
sweise 1
entw@@ 1
furter 1
riff@@ 1
Anhän@@ 1
89 1
ution@@ 1
Epis@@ 1
Marc@@ 1
kirchen 1
üm@@ 1
Pfalz 1
ime 0.7443211699338773
verlänger@@ 1
Maur@@ 1
fri@@ 1
Tie@@ 1
herrsch@@ 1
spann@@ 1
besitz@@ 1
aufgestellt 1
nahezu 1
Polizei@@ 1
anders 1
Mög@@ 1
Verteidi@@ 1
Nachrich@@ 1
kürz@@ 1
unterhalb 1
Fron@@ 1
drän@@ 1
ün 1
ée 0.9637869560929483
ferenz 1
riss 1
Geografie 1
zeitig 1
mündet 1
97 1
Behand@@ 1
ekt@@ 1
mittlerweile 1
North 0.14877094785401784
austral@@ 1
erforder@@ 1
Theologie 1
Ori@@ 1
freie 1
weiten 1
Tradition 1
markt 1
Drei 1
Auseinander@@ 1
Glas@@ 1
Sul@@ 1
Kabin@@ 1
iser 1
Stein 1
ässlich 1
Nar@@ 1
log@@ 0.5309322603494775
Hart@@ 1
1898 1
Blatt@@ 1
anst@@ 1
gig 1
Pu@@ 1
abgesch@@ 1
weich@@ 1
ässi@@ 1
ath 0.3868507894924835
1899 1
tenden 1
chs@@ 1
derzeit 1
entweder 1
kompon@@ 1
Wag@@ 1
ater@@ 1
Eisenb@@ 1
Rock@@ 1
Neub@@ 1
Schwarz@@ 1
entschieden 1
Bauern@@ 1
genöss@@ 1
rek@@ 1
wirkt 1
Jan 1
Bew@@ 1
Bilder 1
co@@ 0.10394940898626298
Stahl@@ 1
ill 0.24454374786725455
verschw@@ 1
itsch 1
Recht@@ 1
91 1
dopp@@ 1
Sprech@@ 1
direktor 1
rand 1
Alben 1
aufgebaut 1
Eber@@ 1
sprach 1
ikations@@ 1
Schnei@@ 1
Küste 1
hand 0.47258849750805
losen 1
Gründungs@@ 1
brach 1
wesentlich 1
Mun@@ 0.8286618295169651
teidig@@ 1
epunkt 1
verstarb 1
Gebiete 1
New@@ 0.3847360438177725
oren@@ 1
unteren 1
Spann@@ 1
Ris@@ 1
Ah@@ 0.9142461074184588
Indien 1
ücken 1
Bildungs@@ 1
Cur@@ 0.42721237642348137
begonnen 1
loss 0.4943664127735857
tif@@ 1
Sl@@ 1
Domin@@ 1
abgeschlossen 1
atorium 1
haus@@ 1
sieb@@ 1
tha 1
hätten 1
liederung 1
Mitgliedern 1
hoben 1
nungs@@ 1
Bli@@ 1
besetzt 1
ursprünglichen 1
verm@@ 1
eils 1
Fein@@ 1
Gefan@@ 1
NS 1
änglich 1
eröffnete 1
Kalifornien 1
Poli@@ 1
erfol@@ 1
gebild@@ 1
ches 0.2992377510022722
egte 1
prakt@@ 1
ächen 1
Ot@@ 1
Ring@@ 1
wart 1
born 0.07558571660238722
mittelt 1
lieben 1
C. 0.684053742994154
ington 0.3423917441016543
lichem 1
Eck@@ 1
stent 1
aller@@ 1
abzu@@ 1
Ursprün@@ 1
Zeh@@ 1
gemeinsamen 1
Philipp@@ 1
kleinere 1
ockey@@ 1
1890 1
Ensem@@ 1
fordert 1
Vereine 1
begannen 1
gekommen 1
sum@@ 0.555512837498192
Bezug 1
ju@@ 0.9981670606551812
wettbewer@@ 1
Höhen@@ 1
Stadion 1
Einheiten 1
Hockey 1
Tagen 1
arische 1
ausch 1
fassung 1
Parteien 1
ländische 1
Millimeter 1
tieren 1
inc@@ 0.19426752863760988
jur@@ 1
Dien@@ 1
läufer 1
Lehre 1
met 0.41139932287689884
ear@@ 0.2559548188719889
etten@@ 1
ücksich@@ 1
Aufnahmen 1
proz@@ 1
either 0.361442609618325
osp@@ 0.6504871475993231
Neubau 1
Entstehung 1
Liber@@ 0.8449200915948969
Eigent@@ 1
Macht 1
chmal 1
Vereins 1
poli@@ 1
Körper 1
Zusammen 1
Nat@@ 1
Tom@@ 0.9046488905022002
plätze 1
schauer 1
Original@@ 1
bildungs@@ 1
krieg@@ 1
üp@@ 1
verbrachte 1
Besuch 1
Stellung 1
Umwelt@@ 1
jedes 1
kan 1
Konzept 1
Komp@@ 1
schuf 1
Rod@@ 1
raße 1
ausgestattet 1
länder 1
79 1
angegeben 1
op 0.9846185674242488
änderungen 1
Daher 1
Quadrat@@ 1
Untersuchungen 1
Lux@@ 1
Hall 0.3383240126965203
therap@@ 1
Materi@@ 1
bevor@@ 1
späten 1
Landtag 1
ere@@ 1
Druck 1
Große 1
suche 1
Chicago 0.47092768348198655
stif@@ 1
spätere 1
Pfle@@ 1
Pierre 1
seits 1
jedem 1
älteren 1
änder 1
hinzu 1
rang@@ 1
ú@@ 1
kat@@ 1
Geld@@ 1
Santa 0.8434000733522182
ulen 1
beteili@@ 1
pal@@ 0.6741770471535554
meisterschaften 1
otz@@ 1
felder 1
terer 1
einzigen 1
Vill@@ 1
dortigen 1
Kab@@ 1
Fru@@ 1
M. 0.6908235119151643
künf@@ 1
SE@@ 1
oll 1
Meer 1
bank 0.6547347812735362
itik 1
kriegs@@ 1
zusamm@@ 1
gert 1
06 1
Formel 1
Adels@@ 1
Würz@@ 1
brechen 1
tschech@@ 1
zweiter 1
Wahlkreis 1
licherweise 1
selb@@ 1
Bud@@ 1
Ath@@ 1
wur@@ 1
denkmale 1
liegende 1
Status 1
brech@@ 1
erhoben 1
fertigt 1
Rechte 1
mischen 1
rün@@ 1
zuführen 1
ission 1
Py@@ 1
1895 1
DP 1
Gericht 1
Zunächst 1
entr@@ 1
schätz@@ 1
1896 1
Gle@@ 1
Theorie 1
bauen 1
Kontakt 1
kennen 1
sichts@@ 1
Hotel 1
chs 1
Krist@@ 1
Lieder 1
Sieger 1
befördert 1
1870 1
Mio. 1
Städten 1
iden 1
ye 0.5788245299137491
lowakei 1
Daraufhin 1
struktur 1
Figuren 1
bahnhof 1
Ausland 1
Nordrhein 1
eilig@@ 1
Jakob 1
Matth@@ 1
Zeiten 1
Züge 1
zerstör@@ 1
Vertre@@ 1
oth 0.45645858862126554
Š@@ 1
Schei@@ 1
Münch@@ 1
schlug 1
verschiedener 1
Tode 1
bess@@ 1
Medizin 1
án 1
Werken 1
publiz@@ 1
Kamp@@ 1
Rang@@ 1
3.@@ 0.3286792701822868
Fuß@@ 1
Prozess 1
aktiv@@ 1
Analy@@ 1
tnis 1
Gewer@@ 1
glieder 1
politik 1
wichtig@@ 1
Kammer@@ 1
dierte 1
richtungen 1
Lich@@ 1
mitteln 1
nchen 1
Angriff 1
Prag 1
chter@@ 1
Meisterschaften 1
Förderung 1
Schleswig 1
Entscheidung 1
Beobach@@ 1
geplant 1
länge 1
wuch@@ 1
hl 1
ions@@ 1
bestimm@@ 1
unterschiedliche 1
Heidelberg 1
did@@ 1
kol@@ 1
Magde@@ 1
Städ@@ 1
unver@@ 1
Text@@ 1
ign@@ 0.901560411823145
rag 1
kri@@ 1
illa 0.9445141246504063
gefasst 1
Basel 1
Bezir@@ 1
gewäh@@ 1
deg@@ 1
Kreuz 1
Rand 1
Amtszeit 1
Herren@@ 1
entstand@@ 1
Mannschafts@@ 1
ässer@@ 1
Kommunal@@ 1
mont 0.8726762696799177
vel@@ 0.6523750613395228
Reit@@ 1
Tief@@ 1
liefert 1
kurzen 1
ake 0.23927595076075264
feld@@ 1
Af@@ 0.8992286117444683
athlet@@ 0.8961270798643979
sbach 1
griechischen 1
gres@@ 0.9179401773173056
stes 1
tern@@ 1
zone 1
1,5 1
Bres@@ 1
Todes@@ 1
Na@@ 1
ständi@@ 1
Bronzemed@@ 1
ommern 1
Association 0.26285672297158713
stant@@ 1
Einwohnerzahl 1
alist 0.290009751823136
beziehungsweise 1
Miner@@ 1
schluss@@ 1
spanischen 1
Chin@@ 1
ris 0.6674929559363019
verg@@ 1
bende 1
ž@@ 1
zeichnen 1
mande@@ 1
eili@@ 1
Zustand 1
aum 1
benutzt 1
herausge@@ 1
verstär@@ 1
à 1
stands@@ 1
pass@@ 1
Schriften 1
kamp@@ 1
Institute 0.32488939612364853
beschä@@ 1
Cam@@ 0.699009746738607
Spezial@@ 1
1897 1
High 0.23501493385177236
werte 1
ring@@ 1
Elemente 1
wirken 1
vorhand@@ 1
Pen@@ 0.5777584255048324
Beziehung 1
erische 1
Gleichzeitig 1
Sankt 1
Versor@@ 1
dit@@ 1
rischen 1
witz 1
vorwiegend 1
ungs 1
CA@@ 0.5223549840069125
1871 1
ello 1
völlig 1
zufolge 1
altete 1
zentrale 1
Tot@@ 1
gute 1
Marine 1
beschreibt 1
Vereinigung 1
stätten 1
Verhältnis 1
gehö@@ 1
treffen 1
Boot 1
Elektro@@ 1
Liz@@ 1
werks 1
rachten 1
Auff@@ 1
bislang 1
erwor@@ 1
änderte 1
mauer 1
Nachbargemeinden 1
Heinz 1
Abgeordneter 1
Mak@@ 1
Präsid@@ 1
Charts 1
rift 1
ère 1
fläch@@ 1
Lev@@ 0.8390664479778153
Natur 1
Kommand@@ 1
Sehenswürdigkeiten 1
Farb@@ 1
Figur 1
Mexiko 1
Vort@@ 1
sein@@ 1
Einrichtungen 1
Sou@@ 0.6288799510686858
Fak@@ 1
Air@@ 0.7303564457793049
rik 1
hau@@ 1
Schwerpunkt 1
Einsatz@@ 1
ältesten 1
Gruppen@@ 1
dam 1
genheit 1
rol 1
versehen 1
Ebenfalls 1
Reise 1
übrigen 1
ror@@ 1
uel 1
Mainz 1
enheiten 1
völk@@ 1
eist 1
eich 1
stens 1
Beruf 1
ansässi@@ 1
bern 1
male 0.5742322399745914
British 0.1231324589139171
storben 1
Raj@@ 0.8266258911477194
Arrondissement 1
großes 1
alien 1
nieder 1
sig@@ 1
autom@@ 0.7403724967086293
erinnert 1
Auft@@ 1
besser 1
Kurfür@@ 1
Friedens@@ 1
mög@@ 1
Universitäten 1
Fragen 1
Strom@@ 1
volle 1
gerech@@ 1
gesell@@ 1
heimer 1
produktion 1
sprechen 1
Öl@@ 1
Tok@@ 1
Gott 1
mt 1
schaffen 1
ves 0.15387569500642512
ton@@ 1
fak@@ 1
lad@@ 1
dati@@ 1
kön@@ 1
Thr@@ 1
syn@@ 0.3721359354313148
Mah@@ 0.46080404538547537
Idee 1
geliefer@@ 1
ungefähr 1
politisch 1
Komponist 1
03 1
Archä@@ 1
Ufer 1
Arts 0.433447827374187
starke 1
progr@@ 1
field 0.1355947284162465
Bistum 1
kreises 1
Erzäh@@ 1
uter@@ 1
Holz 1
Top@@ 1
Lind@@ 1
Begriff@@ 1
igte 1
ao 0.5802090757324252
natur@@ 1
Gatt@@ 1
mögen 1
Herausge@@ 1
Jahr@@ 1
Zeitraum 1
gewer@@ 1
Witt@@ 1
vater 1
Rev@@ 0.8027863400341682
benannte 1
low@@ 0.7793808901409011
isation 1
geb 1
rates 0.8112284209401492
folgen@@ 1
sicher@@ 1
räum@@ 1
SR 0.754160601895
könne 1
afen 1
verurteilt 1
Är@@ 1
Klaus 1
Has@@ 1
nörd@@ 1
schweren 1
küste 1
kehrt 1
Klassi@@ 1
Tonnen 1
Unternehmens@@ 1
alog@@ 1
J 0.637080934549475
Prem@@ 1
Ret@@ 0.9048777222124363
erweit@@ 1
klin@@ 1
Mes@@ 1
owa 1
üssel@@ 1
Wahlen 1
Flügel@@ 1
kreuz 1
Rab@@ 1
Bundesrepublik 1
reichs 1
räume 1
Songs 1
Abs 1
brun@@ 1
häuser 1
Einrichtung 1
fährt 1
haup@@ 1
parallel 1
All 0.18163707321680878
verkauf@@ 1
öz@@ 1
Ass@@ 0.9198821877356215
Jahrhunder@@ 1
shaus 1
österreichischer 1
wir 1
emat@@ 1
Ähn@@ 1
taus@@ 1
Ausstattung 1
Academy 0.33986086154636636
Regim@@ 1
bli@@ 1
vorgesehen 1
ierende 1
schaffte 1
hoher 1
ring 0.292262564825057
Ägyp@@ 1
Tim@@ 0.893104124809154
üssen 1
Pow@@ 1
ielle 1
Darm@@ 1
einschließlich 1
Neb@@ 1
Roman@@ 0.7091390386388573
urg 1
Apost@@ 1
SA 1
Play@@ 0.5538840034769303
Bran@@ 1
Av@@ 0.9378217251354336
erhält 1
venti@@ 1
fangs 1
Zwischen@@ 1
akademie 1
Inhalt 1
Schle@@ 1
Frem@@ 1
heren 1
Kno@@ 1
leistung 1
Hersteller 1
ödie 1
anwalt 1
Ausnahme 1
jahren 1
gesellschaft@@ 1
Veranstaltungen 1
1893 1
besetz@@ 1
weder 1
Lake 0.35587900359479496
gehörige 1
ils 0.541548988524339
Syst@@ 1
eis@@ 1
hof@@ 1
konom@@ 1
Zivil@@ 1
Breite 1
Tat@@ 1
Wissenschaften 1
Misch@@ 1
rot 1
Jap@@ 1
meth@@ 1
Grafschaft 1
Verkehr@@ 1
let@@ 0.5880652177625517
räsident 1
wollen 1
Dänemark 1
Lebens 1
Handel 1
Jaz@@ 1
Repräsentant@@ 1
agen@@ 1
omet@@ 1
Ess@@ 1
Nicht 1
Oper 1
erinnen 1
ursprün@@ 1
Wirt@@ 1
international 0.23947420640445288
Klosters 1
rank@@ 1
agoge 1
lager 1
renz 1
Diet@@ 1
sachsen 1
denkmal@@ 1
193@@ 1
Braunschweig 1
Struk@@ 1
entlassen 1
Shi@@ 0.4220801857488323
col@@ 0.1859572779021064
müh@@ 1
onym 1
ucht@@ 1
Jun@@ 1
üd@@ 1
Blu@@ 1
ín 1
dlichen 1
ison 0.4508623574174593
Gor@@ 0.9726141040005235
promovierte 1
Bernhard 1
Kurt 1
Maß@@ 1
kir@@ 1
fo@@ 0.5098158383621887
ilfe 1
Monaten 1
Gegner 1
Woiwod@@ 1
fielen 1
ky 1
Schmidt 1
phi@@ 1
widm@@ 1
Minister 0.32882315464799183
nannte 1
1850 1
El 0.6552870419241179
asst 1
Bod@@ 1
Ruhest@@ 1
ags 1
verschie@@ 1
lowak@@ 1
funktion@@ 1
Struktur 1
Metal 1
kirch@@ 1
aturen 1
sky 0.4161804995798443
³ 1
Weibchen 1
einzelne 1
Gemeindegebiet 1
Großteil 1
schwier@@ 1
chst@@ 1
Entschei@@ 1
Mehrheit 1
anschließ@@ 1
bedingt 1
Halbinsel 1
bewoh@@ 1
Kub@@ 1
Sym@@ 1
damalige 1
unterscheiden 1
öpf@@ 1
inst@@ 0.5782842287986035
nennt 1
Türkei 1
angen@@ 1
wen 1
Spor@@ 1
frist@@ 1
Zugang 1
nationale 1
Maßnahmen 1
Luc@@ 0.8663669076906926
betrachtet 1
Entfern@@ 1
breite 1
enzeit@@ 1
deutschsprachigen 1
ragen 1
bron@@ 1
ringen 1
Theodor 1
Jer@@ 0.7179618888281812
02 1
Sav@@ 0.8551896304654508
ace 0.2596742455932751
Tats@@ 1
ston 0.38928015938043237
Hot@@ 1
Cha@@ 0.6160965888295573
Aust@@ 1
Initiative 1
Beam@@ 1
jähr@@ 1
Cr@@ 0.5846262278685157
Preuß@@ 1
Wun@@ 1
inger@@ 1
ativ@@ 1
bul@@ 0.6018115719787196
massi@@ 1
Label 1
Landschaft 1
han 0.9341940838921942
Len@@ 1
Adel@@ 1
gehör@@ 1
1880 1
itu@@ 1
befin@@ 1
stad@@ 1
Zug 1
agement 1
kathol@@ 1
regul@@ 0.4926077453138449
Bach@@ 1
1892 1
dorfer 1
Neue 1
ě@@ 1
Tag@@ 1
eland 1
Akti@@ 1
Premier@@ 1
öße 1
Est@@ 0.874817143624011
Ritter 1
physi@@ 0.4998490293847333
pet@@ 0.5451541692572222
izi@@ 1
elli 1
vent@@ 0.40257808005479284
ession 0.4497568975319399
Vers@@ 1
ato 0.9428159854238228
Jud@@ 0.6087811917788405
Kiel 1
stanz 1
Essen 1
Ludwig@@ 1
krieg 1
Ky@@ 1
atten 1
eister@@ 1
urop@@ 1
ysi@@ 1
Dist@@ 1
rt 1
ny 1
It@@ 1
Chef@@ 1
Theat@@ 1
nee 1
Platt@@ 1
cl@@ 0.14620360777708058
warf 1
Popul@@ 1
lit@@ 1
tens 1
genie@@ 1
Back@@ 1
ühl@@ 1
nei@@ 1
Ulrich 1
blei@@ 1
Karlsru@@ 1
1885 1
tier 0.867477402089617
arab@@ 1
strö@@ 1
enger 1
ses 0.30613683368231454
Dun@@ 0.5564481692661688
brecht 1
Hein@@ 1
ays 0.3654119515924966
rieg@@ 1
ohl 1
MS 0.7431977795841576
DAP 1
Mens@@ 1
Group 0.2762276257037351
Bern 1
heb@@ 1
blatt 1
erinn@@ 1
1888 1
Stol@@ 1
Protest@@ 1
Brenn@@ 1
dist@@ 0.5423612832291503
iden@@ 1
Engel@@ 1
Sin@@ 1
Past@@ 1
cal 0.3727830055385459
änger 1
Rud@@ 1
rak@@ 1
ba 0.9617085477323006
Veröffentlich@@ 1
RA@@ 0.6351065679819626
Center 0.28839054226941163
Got@@ 1
Holstein 1
Kle@@ 1
pat@@ 0.21857259128622486
Fei@@ 1
vern@@ 1
H. 0.6860072638742765
wan@@ 1
unkt 1
Finn@@ 1
öder@@ 1
Lab@@ 1
Football 0.3408262699519201
sta 0.8718868768031744
bus@@ 0.8187344414301548
Veg@@ 1
analy@@ 0.8431780657672677
neg@@ 1
Star 0.5250477086768846
Andre@@ 1
Kind@@ 1
Kul@@ 1
Hav@@ 0.7359019826257589
ial 0.16719456475758887
orn 1
over 0.04395048377343024
ange 1
arm@@ 0.41821637522034477
intensi@@ 1
mol@@ 1
tran@@ 0.29264276113644744
Vel@@ 1
dra@@ 0.22628123165938788
prin@@ 0.3756663739487343
Meckl@@ 1
Science 0.49864698851860645
Simon 1
inform@@ 1
schwei@@ 1
ian@@ 0.9735066388543306
1891 1
1894 1
dner 1
vermut@@ 1
urs 1
Arthur 0.7623989368421696
Lou@@ 1
Internationale 1
Black 0.35946497726712007
wom@@ 1
But@@ 0.8190988462078914
Material 1
Göttingen 1
Amer@@ 1
hu@@ 0.44044495149973206
mo 1
ots 0.20963990880684635
rats 1
lor@@ 1
ury 0.4401217622694178
air@@ 0.20232316444883486
Statist@@ 1
agne 1
woll@@ 1
mob@@ 1
Schu@@ 1
ago 0.5267163303176113
ota 0.6876453134666645
1889 1
were 0.014701247011910987
age@@ 1
dia 0.7621783497767216
wort 1
aison 1
Vie@@ 1
sign@@ 0.34516911194546795
Salzburg 1
Id@@ 1
1874 1
Julius 1
äus@@ 1
å@@ 1
Flag@@ 1
Ca@@ 0.9621733234749269
Pel@@ 1
Altern@@ 1
Dau@@ 1
ti 1
Bundessta@@ 1
Gerhard 1
mau@@ 1
äß@@ 1
lat@@ 0.5124627925483517
Jür@@ 1
Diplom@@ 1
Integ@@ 1
udi@@ 0.7240377814566038
Verhält@@ 1
Jak@@ 1
ision 0.8204569627036352
Sus@@ 0.7910035835541549
Pic@@ 0.7319651920413011
Rü@@ 1
1860 1
Main@@ 1
Hä@@ 1
rein@@ 1
aja 1
teren 1
Alexand@@ 1
Wür@@ 1
Län@@ 1
Pseud@@ 1
Ukraine 1
entfern@@ 1
dam@@ 1
offiziel@@ 1
sive 0.43648923911970555
ity 0.06420983246270437
Smith 0.3664411424592729
Lad@@ 1
AC 0.7122509099281721
Argent@@ 1
Bem@@ 1
preuß@@ 1
Alber@@ 1
ero 0.795719559903652
hoh@@ 1
erhin 1
Interpre@@ 1
issen@@ 1
don 0.4091831579283486
Show 0.7441794446447504
Generation 1
ū@@ 1
Pin@@ 1
Kö@@ 1
Joachim 1
ting 0.06910037188951573
Alli@@ 1
Konrad 1
gau 1
1879 1
Che@@ 1
Fischer 1
ska 1
onders 1
organ@@ 0.49160392807785075
Comm@@ 0.3036074065290447
post@@ 0.43830572941258006
Phase 1
theoret@@ 1
CO@@ 0.6858011231781799
DE@@ 1
Jac@@ 1
era 0.3232653562419877
Es@@ 0.9930712228119563
run@@ 0.49965226647726046
train@@ 1
1866 1
Kel@@ 1
Rak@@ 1
äuft 1
bination 1
Portugal 1
offiz@@ 1
Stan@@ 1
Andr@@ 1
Mast@@ 1
Mang@@ 1
ash 0.22656308595634492
pri@@ 0.18401147503141307
Dur@@ 0.7719059524579851
Pop@@ 1
spru@@ 1
wid@@ 0.48369656408938827
Sing@@ 1
ells 0.5710392526729902
Att@@ 1
material 0.4670250820612958
keit@@ 1
Eduard 1
miss@@ 0.8950654557011466
popul@@ 0.3848573906708703
1875 1
ements 0.28865869721565646
station@@ 1
Sn@@ 0.9389209942311559
exu@@ 1
1500 1
s. 0.5778909230960729
Anton@@ 1
Ful@@ 1
FI@@ 0.8311373895269898
Wa@@ 1
Bay 0.3754674279792489
Erzb@@ 1
ux 1
Sof@@ 1
ener@@ 1
Hun@@ 0.8939515832259151
Clu@@ 1
Sieg@@ 1
up 0.04503024895982898
Israel 0.5698870527063992
utes 0.8247125569601949
Aff@@ 1
Sper@@ 1
unterschei@@ 1
Ped@@ 1
ition@@ 1
nit@@ 1
ommen 1
Graf@@ 1
arbeiter 1
Leich@@ 1
Pir@@ 1
Dort@@ 1
Uni@@ 1
Merk@@ 1
OS 0.8928633587959105
aters 0.6323641014005295
Studio 1
Ara@@ 1
Live 0.8694159738595272
Nomin@@ 1
motor 1
gül@@ 1
ine@@ 0.7433364937620972
ped@@ 0.9284647312191796
Sow@@ 1
omb@@ 0.5862800856173459
denburg 1
ji 0.5647392652441178
mond 0.577718908025419
bran@@ 0.652891405595124
Nik@@ 1
ku@@ 1
wa@@ 0.5735587557361989
ehr 1
Laur@@ 1
mak@@ 0.47004508519587124
spor@@ 1
1887 1
Verbreit@@ 1
lieb 1
red 0.13270831257719992
kas 1
Prob@@ 1
1867 1
aka 0.5535742596304207
Super 0.5883233691327301
Bour@@ 1
ía 0.9578459033313496
Gil@@ 0.7138191074611449
eis 1
ystem 1
tent@@ 1
liber@@ 0.7011834292883394
ollen 1
ugos@@ 1
q 0.6428803658263728
sident 1
unmittel@@ 1
ull 0.42077912162098535
Zwisch@@ 1
aust@@ 1
Č@@ 1
bers 0.45272748347258795
Kontak@@ 1
4.@@ 0.3406265945741124
bibli@@ 1
King 0.19667828652201136
duk@@ 1
Plan 1
tei@@ 1
ilit@@ 1
passi@@ 1
Bah@@ 0.8797542336382285
Brand 1
Dipl@@ 1
W. 0.6256007320071063
diti@@ 1
oner 0.9562559292257435
Francisco 0.5384719197650322
Dopp@@ 1
bst 1
anger@@ 1
VP 1
Gir@@ 0.845144180991726
sand@@ 1
Dim@@ 1
low 0.17082620542003155
SP@@ 0.7920807846046964
Nag@@ 0.8805272023931716
erium 1
Dig@@ 0.9682140958574152
ular@@ 1
Rand@@ 1
spra@@ 1
250 1
dim@@ 1
Zi@@ 1
1886 1
Nachfol@@ 1
rise 0.7594718852089691
here 0.432923099760569
funk 1
Box@@ 1
Vil@@ 1
Río 1
oly@@ 1
Olymp@@ 1
versi@@ 0.7155758584722474
erklär@@ 1
Religion 1
Schü@@ 1
Operation 0.9747782592191605
gerichtet 1
dri@@ 0.3305321891833323
unterschie@@ 1
way 0.08740257176390583
äuser 1
Party 0.18563765654444347
Ele@@ 0.7929591315695579
ations 0.03918953464737394
Rio 1
1873 1
Tanz@@ 1
od 0.7573419912028697
Internet 1
1920@@ 1
120 1
ür 1
Mul@@ 0.9471635847200833
Tan@@ 1
1872 1
ul 0.8785502284343387
gemeinden 1
osph@@ 1
... 0.21525051386456934
1868 1
suchte 1
1884 1
spre@@ 1
Defin@@ 1
sterreich 1
strateg@@ 0.565690344655516
700 1
Sm@@ 0.5451425051479545
Them@@ 1
erhalb 1
trop@@ 1
SC@@ 0.9911141635885392
Post 0.6025930455458512
Cu@@ 0.9323804162738906
mis@@ 0.5906174701131642
list@@ 1
zur@@ 1
Edward 0.46511112795776394
e.@@ 1
arina 1
ams 0.3690482870926976
entur@@ 1
José 1
Corn@@ 0.7737490567619439
NG@@ 1
restaur@@ 0.7528938219792859
aker 0.36454487703014565
Software 1
dex 1
bit@@ 0.9048223437758438
ßen@@ 1
ischof 1
tin 1
Differ@@ 1
Clar@@ 0.6620955644288511
ames 0.7684786709370464
Staf@@ 1
tic@@ 0.2699371320642993
Lis@@ 0.9492573135405447
imp@@ 0.3219928532145753
1878 1
ultur 1
Distri@@ 1
Fen@@ 1
Peter@@ 1
Indu@@ 1
1882 1
epp@@ 1
pos@@ 0.3292578254319084
transpor@@ 1
DR 1
Mis@@ 1
zig 1
Cra@@ 0.47403248004229287
Basi@@ 1
Pas@@ 1
inner 0.6635990456991977
finan@@ 1
tour@@ 0.34323410586918524
Pul@@ 1
Wolf 1
ynast@@ 1
Miss@@ 1
ektur 1
gebung 1
Bronze 1
Herbert 1
1876 1
DF@@ 1
Num@@ 1
Kob@@ 1
States 0.06983581071704749
ax 0.5665701423522784
Adam 1
alog 1
region 0.18657016663486778
western 0.2593092994522895
1881 1
ielt 1
Rou@@ 1
sili@@ 1
Jos@@ 0.9476819292332016
PD 1
Cat@@ 0.589256256029133
mil@@ 0.5075694087189045
mir 1
initi@@ 0.4796443951181528
ë@@ 1
örd@@ 1
altar 1
archit@@ 0.8598214306997234
person@@ 0.570289784140585
ila 0.6686203049060017
hardt 1
Dres@@ 1
uch 1
Greg@@ 1
wer 0.863562390173898
1883 1
oun@@ 0.2133700815763291
ão 1
Route 0.3881165450976174
phase 0.8040943290143325
Dou@@ 0.632488273991885
fasste 1
Individu@@ 1
Probl@@ 1
rieg 1
lie 0.6382677525396158
etter 1
Liv@@ 1
agon@@ 1
amme 1
schließ@@ 1
Hem@@ 1
seln 1
ines 0.18800783138456548
1864 1
ieder@@ 1
under 0.05308701949021645
Bit@@ 1
Rus@@ 0.8534632221036196
famili@@ 1
pen 1
Video 1
Cou@@ 1
Don 0.6326523286985664
ants 0.12906032218293978
dic@@ 0.18395744270233202
utt@@ 1
Chron@@ 1
Viol@@ 1
gebor@@ 1
shire 0.2917938561582467
Rap@@ 1
hi 0.3789066153737726
Tol@@ 1
Thi@@ 1
Mül@@ 1
sequ@@ 0.3569846978543101
these 0.08489249602998178
iz 1
arf 1
1861 1
Erfol@@ 1
esp@@ 1
Bron@@ 1
undes@@ 1
1869 1
aches 0.392285704502044
Hit@@ 1
France 0.1765738453807985
kü@@ 1
Dal@@ 0.7780531051299127
vierte 1
iland 1
By@@ 0.735993760292487
einander@@ 1
1862 1
gab@@ 1
wass@@ 1
1815 1
pot@@ 0.6033062871567623
Eg@@ 1
revol@@ 0.5168676944445614
iller 1
oper 1
Moh@@ 0.687289038834753
Online 1
sul@@ 1
E. 0.5503748444879407
Street 0.17563426463836382
Fro@@ 1
UC@@ 0.9438525379063913
1865 1
Fort 0.5152891744402901
Stro@@ 1
Prix 0.9408303284980752
AS 0.9589257642476081
künst@@ 1
Aqu@@ 1
höch@@ 1
ander 1
ulation 0.5698579609152796
Design 0.8666833333268585
Gymnasi@@ 1
Stefan 1
bach@@ 1
aden@@ 1
ema 0.6552074778454952
bedro@@ 1
és 1
aria 0.8714473807661673
rup@@ 0.5638673122230792
sid@@ 1
olf 0.701813180803891
Frau@@ 1
ßt 1
internation@@ 1
Meg@@ 1
Tru@@ 0.7407304317616652
Ö 1
Mary 0.31154578155935253
1877 1
Direk@@ 1
oul@@ 0.4416770370056938
Arg@@ 1
motion 0.8065897491596979
Pon@@ 1
Gul@@ 0.7132533934193012
Mem@@ 0.6899509390398574
Amsterdam 1
ament 1
Fres@@ 1
anal@@ 1
plan 0.38769339385535373
G. 0.7881000068102533
1849 1
Arab@@ 0.6310209569725348
Park@@ 1
Texas 0.2888043281627071
stim@@ 1
instit@@ 0.4647388227013671
enhagen 1
Fo@@ 0.6918872032054929
uments 0.5664124619815752
Yor@@ 0.838095480460385
iko 1
Auto 1
Jon@@ 0.8321173023271283
IV 0.504952288106048
Fur@@ 0.4888460476448772
án@@ 1
Sold@@ 1
val@@ 0.3131317089114811
Inf@@ 1
ners 0.46930154081773656
Antonio 0.9622809412649123
iga 1
Divis@@ 1
Oli@@ 1
ez@@ 1
Red 0.31606240310719785
vers 0.26380634337692016
Standard 1
ensis 1
med@@ 0.4813295254212419
oz@@ 1
Lee 0.4382338873591091
Peri@@ 1
aya 0.47142259337067594
DF 1
thin 0.7205283015293479
elem@@ 1
IC@@ 0.7057079088986643
fließ@@ 1
ligen@@ 1
well 0.04797093070142864
Management 0.8339947863150874
Pro 0.918606023263573
− 1
umin@@ 0.885519653506604
individu@@ 1
Gun@@ 1
ends 0.2234593682998827
ati 0.5207821665620374
athl@@ 1
rum@@ 1
loc@@ 0.21652958901141414
indi@@ 1
Co. 1
Rah@@ 1
Baron 1
athol@@ 1
Mé@@ 1
instr@@ 0.39366990720408024
zes 0.8032214366394095
eton 0.8364777824375401
Kilom@@ 1
neur@@ 0.908549241979855
Mechan@@ 1
Hugo 1
ope 0.25276963698504873
aki 0.757821604719967
Mission 1
Pion@@ 1
protest@@ 1
ission@@ 0.6860149869102794
tain@@ 0.5615139834838928
Oscar 1
gan 0.5965579368878048
Republi@@ 1
bin 1
ultur@@ 1
harmon@@ 1
ffer@@ 1
Magn@@ 1
lock 0.47008606519297563
Wik@@ 1
ruppen 1
ova 0.6330584078005415
Vit@@ 1
vir@@ 0.34169111748859926
tit@@ 0.6503773026356627
Gabri@@ 1
ems 0.5746753551888801
Best 0.26290485985879547
Tax@@ 1
Wh@@ 0.3119069699874366
Revol@@ 1
Jah@@ 1
hen@@ 1
Hill 0.33131512023908083
Fas@@ 1
Force 0.31658480962642155
ique 0.606110808026497
ond 0.3626659806293813
alp@@ 1
kin 0.6932015100363034
Fa@@ 1
Depart@@ 1
out 0.03831921956066787
ical 0.07324515165855125
operation 0.3092204845018288
exp@@ 0.13316817108626167
sab@@ 1
text 0.43898063378270813
Entw@@ 1
ätter 1
ade@@ 0.9793829966172684
Schles@@ 1
einfl@@ 1
offs 0.8029468731966107
ög@@ 1
1800 1
Front 1
bet 1
vert@@ 1
lia 0.9001975588532114
Grupp@@ 1
Tom 0.5609232734218542
bol 1
ois 1
Cop@@ 0.5918082614419534
Cer@@ 0.5579107265298937
itation 0.34021726972950406
horn 1
Feder@@ 1
trans@@ 0.17802633354074376
Hay@@ 0.6560719614327135
eur 0.5016852379652407
Lem@@ 1
prim@@ 1
IT@@ 1
Major 0.4684084702675764
Al 0.3676888521832449
zunehm@@ 1
1863 1
Var@@ 0.9155209056405597
Kil@@ 1
D. 0.6417259956547614
row 0.26298081008555224
Mom@@ 1
e. 1
ike 0.6095349926639844
F. 0.737054235501827
о@@ 1
ania 0.3139299599515287
tos 1
Awards 0.2626752939910337
ees 1
profession@@ 1
ida 1
Nass@@ 1
erstre@@ 1
lan 1
Boston 0.4507841918571331
able 0.04411243107225835
any 0.08210858507522328
ief 1
Master 0.6520023454375004
osa 0.853372748889394
Fac@@ 0.36630450253260877
Leip@@ 1
aire 1
ließ@@ 1
Co 0.686038081150332
ER@@ 0.7372310189105341
tus 1
Expedition 1
bal@@ 0.5057543939971229
pon@@ 0.8176057926717434
Coll@@ 0.666907461146897
ń@@ 1
Jar@@ 1
zo 1
Hitler 1
ident@@ 1
Ari@@ 1
ito 0.8323957066484265
ony@@ 1
R. 0.5433902318995617
ado 0.6221650803878073
az 0.9670611058078001
c. 1
air 0.12038352728324163
Wat@@ 0.502919457873399
Cru@@ 0.793359982635456
aceae 1
Metro@@ 1
bun@@ 1
Ten@@ 1
Famili@@ 1
Bin@@ 1
ria 0.5437399473919466
Öff@@ 1
BM@@ 1
ilian 0.6808823244691412
sal 1
jo@@ 0.45902693180529663
Register 0.6066722258940982
bon@@ 0.5021602796219216
Roth@@ 1
zie@@ 1
olo 1
1856 1
sion@@ 1
Lun@@ 1
Stor@@ 0.777426437583375
Play 1
ivals 1
univers@@ 0.44082618163222304
orf 1
zin 1
version 0.1421810055585892
alien@@ 1
port 0.3433834974423301
én@@ 1
ér@@ 1
Alex@@ 1
Jack 0.48432316714653295
ment@@ 0.6781321826365608
Barbara 1
Brig@@ 1
own@@ 0.5157667276780763
Sebastian 1
eo 0.7086500806447051
And@@ 0.9204166414233215
altungen 1
tan@@ 0.7140984946086376
Service 0.3366668835088034
ous 0.06192751575927399
enter 0.5504884914345577
hielten 1
kund@@ 1
holm 1
ava 0.9109720962216244
geprä@@ 1
Van 0.6131748854649942
divers@@ 1
uk 1
Williams 0.43928065384909404
aster 0.3828369239499056
ret 0.8901628942657763
Fall@@ 1
1859 1
Systems 1
Barcelona 1
Singles 0.9097774628991513
ußen 1
Les 1
Budap@@ 1
1840 1
eth 0.401923210793005
private 0.2354493498736141
hom@@ 0.27389307254179623
Gon@@ 0.9218957987373209
You 0.306133664132244
front 0.22753627777520685
East 0.14187373587789126
fru@@ 0.5283470230790901
IN@@ 0.8095227627948657
Madrid 1
Vereinig@@ 1
rus 0.8515827658017315
Jones 0.40583779886781973
üt 1
FA 0.6222450025382459
NR@@ 1
si 0.9812663846859743
Franc@@ 1
adel@@ 1
Brown 0.38635596996586685
Hell@@ 1
identif@@ 0.5356125401184664
NHL 1
inus 1
Tou@@ 1
ätte 1
bat@@ 0.4154132546460754
Gall@@ 1
republik 1
philosoph@@ 1
immt 1
Napole@@ 1
Sec@@ 0.33806808847021413
Zo@@ 1
HC 1
Kön@@ 1
Cob@@ 1
Itali@@ 1
ish 0.11330848508164879
sson 1
Bist@@ 1
thal 1
Pod@@ 1
mi 0.8153991065126055
Pom@@ 1
parti@@ 0.6556882207436757
TA 0.7473504426778197
Ry@@ 0.9026357503470969
Vinc@@ 0.9816032770058372
ardo 1
ingu@@ 0.590798044109914
Mount 0.4886224255277157
osop@@ 1
orium 1
Bisch@@ 1
ony 0.21623833939375867
Now@@ 1
Columbia 0.4375823361105261
IC 1
stattung 1
symb@@ 1
ce@@ 0.4786597241930665
dep@@ 0.2869281303163973
200@@ 0.6232187348761903
Nav@@ 0.8987101031626501
eler 1
Corps 0.45555381721977584
Bachelor 1
ş@@ 1
Quar@@ 0.9717625244809764
emb@@ 0.4316110961330368
Sir 0.3218474667444927
heirat@@ 1
pi@@ 0.5946076346202503
leich 1
Big 0.3663693899395951
Ga@@ 0.7568763294168139
isse@@ 1
bo 0.9518515577379348
sur@@ 0.10559910834186988
Hard@@ 1
eilt 1
utr@@ 1
6.@@ 0.30094466805619047
OR@@ 1
Bag@@ 0.8897820405191916
Ale@@ 0.777602529622475
Beck@@ 1
niss@@ 1
ymnasi@@ 1
fun@@ 0.7839751655892839
sia 0.7270208880093361
französ@@ 1
Mir@@ 0.727884395209128
Ott@@ 0.9797177894142614
Rub@@ 1
Arnold 1
Def@@ 0.673308060165587
Initi@@ 0.933842726238069
Coun@@ 0.35924763611750676
Pun@@ 0.6670548624634195
Strateg@@ 1
onia 0.40005115865994173
Progr@@ 1
audi@@ 0.602611124554854
Harry 0.6880708156683819
Virginia 0.2832078863427532
iques 1
Dev@@ 0.5897038118575677
ows 0.2269716408285572
team 0.04338297835490322
Elem@@ 1
aly@@ 0.5689576905935962
ów 0.9021920264717376
Ras@@ 1
linder 1
1830 1
1857 1
vention 0.5140095345721883
diverse 1
wood 0.2127442183474745
statist@@ 0.7187458357538647
go@@ 0.2751571465787733
Colle@@ 0.5191986566468432
spir@@ 0.30794494724890986
5.@@ 0.31803904240707426
European 0.13325609377183442
dis 1
Joe 0.5131859612103313
1855 1
cor@@ 0.12102272657978515
Rain@@ 1
3000 1
anna 0.7399560487784453
Lord 0.3546408945717755
Rav@@ 0.9420040780302911
1854 1
aine 0.7885920072673528
Navy 0.2903259679007663
Jam@@ 0.4909343038709179
Bulgar@@ 0.7373621819388366
top@@ 0.37355059549859027
Joh@@ 1
insel 1
pil@@ 0.6445678563778411
Juan 0.8085049013179305
ento 1
probl@@ 1
Series 0.35210204750394736
idae 0.39457095366798406
interpre@@ 0.4951724707813031
Carolina 0.3642883334536967
lied 0.294226949488481
CS@@ 0.9201672649051434
bury 0.3405691792143688
stattet 1
Marath@@ 1
wig 1
Heb@@ 1
uß@@ 1
Love 0.3769340045950273
Wagner 1
Leb@@ 0.8133535231328793
differ@@ 0.26976276318920567
tic 0.17722897932891404
ächst 1
avi@@ 0.4058117051995171
frau 1
Bell@@ 1
Albums 1
One 0.11931138214627333
Florida 0.3140993993545052
ê@@ 1
Zun@@ 1
Massachusetts 0.4742641572579062
Horn@@ 1
Research 0.31106170856450777
ammen 1
dinal 1
endor@@ 1
oli 1
eröff@@ 1
Elec@@ 0.3092643743749934
Ax@@ 1
Ferr@@ 1
Ring 1
regist@@ 1
kov@@ 1
Fut@@ 1
utzt 1
mee 1
Las@@ 1
def@@ 0.10724121474997073
autob@@ 1
Beau@@ 0.7719732421394897
François 1
com@@ 0.08291916144361257
ional 0.4010892869199793
Einwohner@@ 1
tol@@ 0.9324635456611943
non 0.12133221035280932
1852 1
ores 0.45348415494271666
Alf@@ 1
zi 1
ğ@@ 1
Rober@@ 0.6012860710704562
Cent@@ 0.5713209759220328
ec 1
amerikan@@ 1
1858 1
ori 0.7278917657934025
Earl 0.7007680606932067
ī@@ 1
Gur@@ 1
Int@@ 1
oni 1
Ox@@ 1
а@@ 1
isl@@ 1
Holl@@ 1
Wales 0.305941797728256
yl 0.5125839331009845
ras 0.8065378433297751
Samuel 0.7579202520032433
igh@@ 0.27101356203008853
ión 1
Petersburg 1
real 0.28119067044157947
DS 0.6863261918612585
eta 0.873574918699338
geordnet 1
häl@@ 1
Fab@@ 1
Atl@@ 1
bul 1
Gh@@ 0.6408952660320697
Hur@@ 0.5723221099957166
deck 1
sog@@ 1
Intel@@ 1
ă@@ 0.8457752013591934
P. 0.5100337291339303
cu@@ 0.41565156906979434
alter@@ 0.8990077406023775
stands 0.7291981812308935
ophi@@ 0.9926665743664419
Regisse@@ 1
Western 0.1906480848772633
ral@@ 1
ameister@@ 1
edoch 1
Championship 0.1655820867618339
Transport 0.9078616071643829
sang 1
west 0.13082349738685223
ä 1
ni 0.6499269676314344
atus 0.746427803880656
extre@@ 1
ächs@@ 1
kau 1
meter 1
Dru@@ 1
Gang@@ 1
Cel@@ 0.5552949453079998
Boh@@ 1
Lond@@ 1
RE@@ 0.94937607190478
vin@@ 0.39347770523507747
dah@@ 1
ave 0.2442557770590255
rac@@ 0.21436075905974672
rec@@ 0.08698553255339257
Scott 0.447564390764813
ban 0.36778914368435467
ć 0.9025344024449681
Jacques 1
Original 1
Om@@ 1
Pennsylvania 0.368425771076569
White 0.22436476705857802
ʿ@@ 1
Central 0.17325222723071382
dat@@ 1
Giovanni 1
sym@@ 0.37600943740628
VI@@ 1
oto 0.7486562525588936
Anne 0.7078363637116974
Cath@@ 0.3178661939569791
king 0.07644204034257544
Thor@@ 0.817250188990163
sow@@ 1
Gam@@ 0.6658120046742712
cy 0.20874812101315424
stron@@ 0.8378931063918456
Anim@@ 0.9523208342768906
ó 1
verantwor@@ 1
Jacob 1
ook 0.33649122110670837
Nu@@ 0.8871596572611973
origin@@ 0.5726544791136382
Termin@@ 1
major 0.10257602803724723
Tam@@ 0.8073770391969722
DVD 0.6990620871840918
Fon@@ 1
1845 1
etta 0.8692194623557911
Ay@@ 0.6908660068366458
1851 1
tar@@ 0.3059144536911195
1847 1
T. 0.656898482154581
oo 0.5680772808853236
olas 0.7399636240860701
gyp@@ 1
enko 1
Sud@@ 0.7728939893825846
aid@@ 1
Pak@@ 1
Kör@@ 1
Cour@@ 0.5134678683108186
ulti@@ 0.6436232365287344
betrach@@ 1
Castle 0.530501442054758
big 0.5280618980642773
gio 1
vin 0.6577359694107848
7.@@ 0.26754704151493225
Bob@@ 0.8972894381031185
mosph@@ 0.8972894381031185
Arti@@ 1
Dynam@@ 1
Tas@@ 1
Az@@ 0.6749314356567702
Bla@@ 0.7744726087769062
ogs 0.6698460785625792
Gramm@@ 0.8887331092927989
etti 1
pers@@ 0.6134668917325469
High@@ 0.6710560714678093
Ron@@ 1
geograph@@ 1
110 1
1846 1
Ford 0.6476264659900893
ę@@ 1
rate 0.18660182114190707
alis 1
Y 0.33657729864720376
EP 0.5517333276362285
las 1
soli@@ 0.41870453181894285
ual 0.13177078004250695
CD@@ 0.5222139285147723
ink 0.4036613210498699
Wy@@ 0.7235254324981506
ador 0.8436684599173017
ockey 1
Leo 1
oid 0.6727811717784755
Bill 0.3980207442333746
8.@@ 0.3009271338336755
Pur@@ 0.4812436912490743
HL 1
Geschäf@@ 1
adrat@@ 1
Rog@@ 0.8453043481013387
bir@@ 0.6097212736712334
São 1
AM@@ 0.6639129706420684
ussion 0.8055082069123586
Ral@@ 0.9444284894562938
pur@@ 0.2742096878182222
Army 0.12957483957859778
и@@ 1
Johnson 0.3805280315833027
ning 0.14941794508868592
Phot@@ 1
Bak@@ 0.87991989663168
L. 0.5598202262060935
ae@@ 0.3471288474394255
ickl@@ 1
stütz@@ 1
š 1
dener 1
Trin@@ 0.6833957647501161
Nac@@ 1
kers 0.5613734461185196
St 0.20945314992969763
Victoria 0.41531125545827485
parks 1
Davis 0.537239768131488
optim@@ 1
MA 0.5582873521873271
eld@@ 1
ult 1
AC@@ 0.42015851253984726
losses 0.8926736778331928
gon@@ 1
Orchest@@ 1
Oc@@ 0.48112959334262106
lav@@ 0.8587081312810281
æ@@ 1
Din@@ 1
ize 0.2603747225608981
renov@@ 0.7117436327465444
1853 1
Bap@@ 0.8028737320596944
egt 1
wirt@@ 1
eiro 1
Charlotte 1
Champ@@ 0.6918119620029229
Ohio 0.35685922906017564
tend 1
Od@@ 0.8685116829854245
view 0.2285859330381828
Mike 0.511469620202939
ault 0.3399701254876545
jo 0.7328472484156567
iat@@ 1
ires 0.8293518110568123
ū 1
Ama@@ 0.8558164323126383
ones 0.17479585283967844
Kateg@@ 1
ffe 1
Line 0.3046533732733092
aro 1
prop@@ 0.45988637430370044
Lud@@ 1
Highway 0.3704864144008458
red@@ 0.8440395526218902
aw 0.4778195295125547
Basketball 0.8520966227608768
IT 0.8199108907631294
Rit@@ 1
oe 0.8867737875148474
ș@@ 1
Well@@ 0.8903626113239363
og 1
set 0.06475679913497157
Put@@ 1
Pop 1
Tob@@ 1
nec@@ 0.6444732868796487
video 0.14191713089187036
Maj@@ 0.841187303879713
Ken@@ 0.513129898945736
First 0.15430552008998172
Ja@@ 1
Sher@@ 0.47075656856839376
diag@@ 0.5456080825473708
yle 0.34302770795513016
thod@@ 1
Naz@@ 0.9339459447866432
pap@@ 0.4806023674521805
Emer@@ 0.7523950722678376
otyp@@ 0.5202740138714372
rey 0.5295597443027384
essor 0.3970616473032668
experim@@ 0.47389662458481147
Municip@@ 0.49872187181693484
real@@ 0.33773776934355143
cre@@ 0.1027267461261863
AN@@ 0.7123514818054819
ran 0.19757784360796535
Ny@@ 1
Wis@@ 1
Esp@@ 1
Lav@@ 1
iki 1
Armen@@ 0.597945273684333
nation@@ 0.3849281310967352
130 1
Ž@@ 1
Games 0.25049815265933834
# 0.23338480360893465
Young 0.3541324088450669
rix 0.9018065543801819
line 0.059584536733833064
bat 0.8512002505359525
Run@@ 1
Kh@@ 0.366395552209871
Hus@@ 1
Jerusalem 0.9698986829798733
einzel@@ 1
atom@@ 0.9273760152779544
Ball 1
aufhin 1
Sha@@ 0.30250570957777234
Blo@@ 0.8512215592746443
IS 1
ower 0.29909638649893966
Champions 0.7975030731316621
ST@@ 0.6979976903975891
gender 0.5950731968876994
oda 1
Green 0.2975519194998563
$ 0.06164145457049951
ähri@@ 1
BA 0.4876909022959619
Whit@@ 0.42149410718755714
eking 0.8300059287276677
Mid@@ 0.40833690535639616
Dub@@ 1
900 1
Max@@ 1
ummer 0.9167135377441212
trum 1
alg@@ 0.5432133274472639
Rose 0.7232751656471288
diplom@@ 0.626469694145601
ous@@ 0.45693400674543483
riech@@ 1
dé@@ 1
Clau@@ 1
cio 1
jan 0.5965174467905763
180 1
ws 0.1900611561276506
Studios 0.790161164670077
resul@@ 1
Francis 0.49337043311843126
zant@@ 1
Van@@ 0.9804479532107321
California 0.12950884773676286
Sowjet@@ 1
Renaissance 1
Vic@@ 0.6404839353933464
” 0.12901093468939984
Jesus 0.6516187205270231
sha@@ 0.7259005322970389
oms 0.2871102770283227
ty@@ 0.5864697939239688
Flugh@@ 1
Labor@@ 1
Council 0.11898955437753017
rit 0.4180339935348499
alia 0.8378659920480099
gements 1
own 0.05974904547570625
Gab@@ 1
inspi@@ 1
Blue 0.38170346666093036
emal@@ 1
Code 1
Chap@@ 0.4155283458714679
bad 0.6758088238405859
Carlos 0.9130801916304455
Cham@@ 0.5039890209654365
Ig@@ 1
Mr@@ 0.7372758416296765
Sult@@ 0.9054942250759086
Net@@ 0.7667561302388919
Chall@@ 1
gal@@ 1
Centre 0.3348612435704061
Reserve 0.7002671310161044
gelö@@ 1
asi 1
Weltmeister@@ 1
Neg@@ 0.8415032273758115
afür 1
Formation 1
ić 0.8191718797126973
phil@@ 0.6951224667965695
beginn@@ 1
Blues 1
aga 0.6712973776647441
eira 1
gon 0.6337401354703082
tot@@ 0.6625369965599988
Pav@@ 1
Oblast 1
norm@@ 0.8308716339437378
ogen@@ 0.781764133004689
Oxford 0.46029957891144396
sächs@@ 1
zei 1
Town 0.2942487496877393
Öffent@@ 1
е@@ 1
asket@@ 1
Committee 0.21089382111028251
Fant@@ 1
anger 0.6667696988124316
anus 1
tors 0.16995856204997897
get 0.1557724241476423
Life 0.21939062009630436
Sv@@ 1
kins 0.4708485252173295
systems 0.22322625010131572
wan 1
acker 1
ry@@ 0.7272782578587272
ators 0.16559699054472213
Bob 0.49440040444402594
ović 0.7856890621101561
ood 0.1946349890800215
sts 0.09894343092028847
brand 0.4643825800768737
hai 0.6778821177674896
Cla@@ 0.8255781391490832
ario 0.9455537659543695
sing@@ 0.6086006571775922
dimensi@@ 0.7825149783701489
rin@@ 1
äß 1
Iran 0.38905578489479015
Beat@@ 1
män@@ 1
Benn@@ 0.8306496483507161
Toronto 0.4193849807543219
ährt 1
ami 0.5638176770274282
olen 1
Cann@@ 0.9827840122537596
rob@@ 0.46176511398684256
essel 0.7591464512133173
iment 1
Ben 0.60393385440866
Chile 0.9390354404881834
quot@@ 0.6325765913269055
Haw@@ 0.46108256103531775
Point 0.5331036781278407
UEFA 0.8484321303004957
Illinois 0.37557249147201643
orph@@ 0.7478953571565807
pt 0.3598223037322094
Sydney 0.35523916737400285
Victor 0.8747423112610923
Road 0.1462207697985125
ci 1
eman 0.31867564152974354
Cli@@ 0.9472469671474913
esia 0.46944839799748583
nd 1
Portug@@ 1
Bog@@ 1
Legisl@@ 1
deutschsprach@@ 1
Ci@@ 0.6273460888705603
Goth@@ 0.8515300588640106
Expl@@ 1
Computer 1
Boo@@ 0.47332101198069554
erne@@ 1
qui@@ 0.7377819246008852
Zü@@ 1
stro@@ 0.5440682969277284
behin@@ 1
Ray@@ 0.6593429920809208
professor 0.29787230596466735
Roger 0.8056990973643637
Chr@@ 1
ref 0.9688257282616208
ex 0.37268240921123236
D.C. 0.749312488415031
Brigade 0.5974681522876765
SO@@ 0.9139482670315098
oven 1
gin 0.3947667253406096
9.@@ 0.281487409325434
Publi@@ 1
gleichnam@@ 1
Patrick 0.6037350801883579
Times 0.272679646382407
lit 1
AI@@ 0.4762567994606313
PC 0.6064546847701338
Unterstütz@@ 1
ep 0.26389012697974135
Port 0.4406073712810096
Black@@ 0.4518922724506243
Ric@@ 1
inter 1
provin@@ 1
BS 0.36425702895039674
ight 0.20319166029240798
Eli@@ 0.9057874860777837
Tha@@ 0.8339811914106874
ogn@@ 0.6263172373828096
Nich@@ 0.5559636403925976
Philadelphia 0.4225179234046917
him@@ 1
thro@@ 0.2542738857364225
н@@ 1
ife 0.9817277058093111
Wilson 0.4279424251647754
Corporation 0.3732392562409026
zahlreich@@ 1
ests 0.17594942386949833
Donald 0.47405181695199294
Windows 0.8070258131790727
flex@@ 1
ho 1
lier 0.8683020488682945
Cos@@ 0.7825811391490679
lic@@ 0.10008498042175483
sey 0.3922626750874481
gehöri@@ 1
Orchestra 0.7488869087183286
Mill@@ 0.7058892978486462
enc@@ 0.23337981430214694
Q 0.42284574874559444
arm 0.5712303677681835
idi@@ 1
ü 1
Church 0.10691540967729685
Taylor 0.4440825623552119
rif@@ 0.39523855215853915
rhein 1
tra 0.4928626834552052
intend@@ 0.7698770058425598
Soci@@ 0.4882910143601367
Spä@@ 1
lav 0.7790296039735468
11@@ 0.4286541968093299
bi 0.5634202742725775
fur@@ 0.34345839350629664
igu@@ 0.8988863863811297
wohner 1
Braun@@ 1
ails 0.6434784051495158
RT@@ 1
Steve 0.4815442817774085
ittel@@ 1
Stri@@ 0.8496700522276034
kilom@@ 1
Test 0.7706157984743192
iew 1
ätten 1
äche 1
Hop@@ 0.8036002227729208
Jackson 0.39770816814025206
Atlan@@ 1
fron@@ 0.37032919549361076
ept 0.5330288675412272
Griff@@ 1
Sciences 0.49441683491511534
ral 0.332578166714828
gor@@ 0.979522408557098
ı 1
р@@ 1
Arena 0.8976298748181748
Zone 0.9080433839913482
Hollywood 0.6291807322830973
frequ@@ 0.340301845966262
beha@@ 1
emper@@ 0.8422299447688745
My 0.3326061575396287
respon@@ 0.3754865840070219
DC 0.5040584278073728
Douglas 0.6304804348163674
Ali@@ 0.7902021833400719
ässt 1
iefer@@ 1
Oliver 1
UN 0.9087509470984035
vey 0.32738031886537206
Benjamin 0.8513160687176894
AL@@ 0.7786962632236417
Jersey 0.3459850772056244
Me 0.4080709623001725
Gött@@ 1
K. 0.6042543421111792
Thom@@ 1
geord@@ 1
bis@@ 1
Nep@@ 0.6320735998114705
Parlam@@ 1
anch@@ 0.5072602376789551
Chris 0.4430698017195098
Lewis 0.47566717970820716
Sax@@ 0.6935743754901167
illion 1
NA 0.4820296332387543
stadi@@ 1
ira 0.7684154949211466
cal@@ 0.19122960634542782
EC 0.8358154115590292
ouver@@ 1
now 0.054100883379470395
Aer@@ 0.9507659388219769
circ@@ 0.26104130400073183
empl@@ 0.5109222797590082
worth 0.2779422984046266
CE@@ 0.6708970396387732
Hung@@ 1
ops 0.28744716730073205
ason 0.3600975502143337
Alph@@ 1
eral 0.27097589440904457
ram 0.4647614875216307
ud 0.4956994371378162
Ever@@ 0.49839840198065954
Tony 0.554212460094096
ali 0.42314172930834143
tex@@ 0.5816722338414555
codi@@ 0.8344035749514973
Ira@@ 1
Training 0.7505514705448005
Carol@@ 1
deos 0.758383228015099
emer@@ 0.3898667830087578
ense 0.20920281497536053
Avi@@ 0.6325120020336418
olley@@ 0.9522664101413567
itor 0.3187501838383071
ree 0.2953868435656574
oma 0.4221223145585336
lio 0.9189638990739167
event@@ 0.5154230679461071
acc@@ 0.07407349567303514
ii 0.6777116159111951
Rho@@ 0.5701891230824092
even 0.07422784750955079
ls@@ 1
CI@@ 0.5352529575423756
ronom@@ 0.9477697344707846
Ungar@@ 1
rug 1
COVID 0.49176113512619557
eds 0.19527219634123574
Women 0.16137329778174678
cer@@ 0.11703558133733512
ival@@ 1
iop@@ 0.8762397407688586
AN 1
Dav@@ 0.935649025673173
getr@@ 1
allel 1
DJ 1
Media 0.3834080499873058
athan 0.5151739686622573
übri@@ 1
Cin@@ 0.6503290435367011
Sain@@ 0.6666257051477863
Serb@@ 0.3961543597604856
Cab@@ 0.7740129983769535
Salv@@ 0.8549912453035973
Raf@@ 1
wall 0.2871257865197402
mine 0.4938130002188347
Serge@@ 1
alz 1
alition 0.591806042316564
cul@@ 0.1054781595991699
materi@@ 1
erschein@@ 1
Stars 0.8931821394823402
rin 1
arc@@ 0.47113435147054383
basis 0.3147860230172628
dynam@@ 0.7315132314797667
stant 0.3434404830426164
half 0.09859653716716726
bad@@ 0.5165760395165204
org@@ 1
zial@@ 1
esses 0.2800717221485478
Á@@ 0.9962188570985202
Hamilton 0.5362674836130493
gh 0.3703341473294653
ttem@@ 1
aver@@ 0.33288649917343044
modern@@ 0.9385211776684201
my 0.19699508793514417
esa 1
Andrew 0.4065219624500892
don@@ 0.2355830173272628
Information 0.7186160464707959
oul 0.9028728137844262
Cambridge 0.4707597605346233
seg@@ 0.45009326577858627
Ash@@ 0.30807106914739796
iger@@ 1
geleit@@ 1
ble@@ 0.596259096591816
Real 0.7410748931542044
Jenn@@ 0.684892956985811
chi 0.6638481444400758
DV@@ 1
Circ@@ 0.4183481494832977
management 0.23090439195145027
tab@@ 0.7563816662821404
hib@@ 0.260837246033415
Out@@ 0.3617506961670082
Hz 0.9814096558594855
Spring@@ 1
Nation 0.9619415748287232
Kit@@ 0.7446044180587053
resi@@ 0.23517416641872468
forman@@ 0.8709299671307054
Valley 0.2301704267366481
dram@@ 0.5370542735507924
Bedeut@@ 1
IB@@ 0.8269338757476088
aul@@ 0.5323917979803454
ref@@ 0.24960411572258234
fres@@ 0.40256844897028
turel@@ 1
öss@@ 1
Journal 0.4298564027054146
Hob@@ 1
Diam@@ 0.9316230610793099
club 0.06437199690202522
ensive 0.23577551108309006
wendet 1
ą@@ 1
bles 0.26499793309657543
zeu@@ 1
cs 0.14398908782995615
hn@@ 1
hum@@ 0.32323944284539063
val 0.12417446309215174
AD@@ 0.8988602882114024
AP@@ 0.5733139860444707
Schrif@@ 1
Margar@@ 1
ī 1
Verwal@@ 1
osaur@@ 0.9602975896624428
Charl@@ 1
idd@@ 0.4099627505677324
Cri@@ 0.38148298537121794
vent 1
Lyn@@ 0.512918955279482
Pier@@ 0.9486386840592077
bot@@ 0.8957713983987908
Ey@@ 1
gas 0.32250520063004917
America 0.10783458062567691
Express 0.7190282878086288
Stadi@@ 1
Ji@@ 0.7490115880119644
ago@@ 1
ð@@ 1
programm@@ 0.8076473406140158
Great 0.1561959331651734
relev@@ 0.8061353701838376
Willi@@ 0.5893233774207273
→ 1
Abd@@ 0.9848507776085828
mem@@ 0.15540142850997887
Ruh@@ 1
124@@ 1
XX@@ 1
mir@@ 0.5126070999884569
Act 0.1496719548317628
Contin@@ 0.6959824702039991
din 0.7863281621356294
Draft 0.7568672663114795
€ 0.9949385573267828
prob@@ 0.6231782157846172
dae 0.37733747404952556
ME@@ 0.8498328414091
illu@@ 1
Golden 0.39134790701724376
pper 0.6253010911258364
omot@@ 1
Gy@@ 0.9594895292793594
Aar@@ 0.9025281556455811
ole@@ 1
eto 1
tür@@ 1
DNA 0.5585038239427301
Fellow 0.8156714709654034
Seh@@ 1
invest@@ 0.2467573240141715
live 0.11448592276643546
orts 0.3972213311049621
poly@@ 0.4758109298244563
sons 0.2720032899852407
motor@@ 0.5556383582116434
Pad@@ 0.688840070916136
ups 0.6382612987425719
itim@@ 0.7910909879929885
wich 0.48307575721476487
zy 0.7425002215404554
division 0.15657126081587194
Bow@@ 0.442225852365393
out@@ 0.07392621889268748
Isa@@ 0.7788584999915722
fabri@@ 1
NE@@ 0.5993766794829007
NO@@ 0.9478548953794762
eda 0.635055029659806
ied 0.3972748344112239
sus 0.35412743993887597
prot@@ 0.1019018904173747
Abra@@ 0.9622482837368953
Historic 0.29450916963731494
esc@@ 0.31253043094187477
uter 1
Iv@@ 0.5905294838115273
emin@@ 0.9877339439261551
Ple@@ 0.8763269596933706
spon@@ 0.636450654227049
ords 0.5328111913509882
Nan@@ 0.8762326592514189
Shar@@ 0.34717900718201106
obile 0.6303026379981405
с@@ 1
Prince 0.2539556033195071
Time 0.3270213426670438
ovo 0.6265876607357862
ś@@ 1
eiten 1
Saf@@ 0.5727016606696304
Eric 0.626738977967859
start 0.1597770346527035
thes@@ 0.6192581433176233
vic@@ 0.29034364959969083
LE@@ 0.9187736222484437
ology 0.06134676872291079
Beach 0.4013400324556004
Creek 0.2524217858475486
ö 1
Classi@@ 0.3853883240158412
ush@@ 0.2286178140170689
dit 0.3850869206413607
festival 0.3514015252359088
union 0.2589624322064208
Ali 0.4596925780169682
astro@@ 0.691085547159643
Nev@@ 0.5334834007597121
ham@@ 0.3866298524106729
Dah@@ 1
Little 0.30071604217854
bas@@ 0.300124267851205
0.@@ 0.10914592709920148
Symph@@ 0.8178795410940951
bon 0.2800836266684136
Cav@@ 0.48467535019244934
Sound 0.6986206951366978
besuch@@ 1
shi@@ 0.1216813384448271
Nad@@ 0.8799872996776951
ular 0.12322853577430659
wech@@ 1
magnet@@ 0.666417709506221
rone 0.6427687509902988
Premier 0.343551892488096
Dän@@ 1
Elizabeth 0.3137492178917271
Railway 0.22408793973381674
Zenti@@ 1
194@@ 0.7359712535750216
CA 0.40664992026011443
ivil@@ 1
Manchester 0.43439050971548737
Nürn@@ 1
rekt 1
blo@@ 0.9393174092599247
God@@ 0.5415324961381814
Acc@@ 0.5131363015461486
NBA 0.5676219075630804
abor@@ 0.25957594526121386
lied@@ 1
Indon@@ 0.36778675058911153
Commun@@ 1
my@@ 0.26870177740846324
Mov@@ 0.32817397674347726
more 0.020473364951247183
temper@@ 0.5410336739286432
Bernard 0.924455506717812
Michigan 0.25904720276849663
Hist@@ 1
ungsweise 1
She@@ 0.3319130172444456
eting 0.3448156377670598
row@@ 0.48554847965378467
LP 0.7101958300381445
sn@@ 0.2164799695134095
BBC 0.28502999537148904
ways 0.14369390025647313
dez 0.7270986536653249
hydro@@ 0.3246865377762296
ista 0.9129692187696336
It 0.011159782470085672
.A. 0.4367244137897676
Harvard 0.54709963512889
range 0.09757746704921033
alls 0.5382355525002639
aph@@ 0.7224060401464932
arib@@ 0.7365425800694878
Day 0.1953049892931267
Lady 0.3528914889630973
ths 0.2207608247401497
Deut@@ 1
Shak@@ 0.6116994060789515
ingham 0.4185781062172782
site 0.0882760862444023
Alex 0.6563484239552552
diglich 1
minim@@ 0.34466875580524964
Yam@@ 0.8216155502951332
othe@@ 1
verheirat@@ 1
Bridge 0.3325841777185717
mina 0.6105410025751556
mom@@ 0.3626059530313987
not 0.0123988823705185
itis 0.8615533898846965
Personal 0.21985038038932117
mand@@ 0.3687505574147133
Country 0.4055134330870785
human@@ 0.589095716283082
nommen 1
DA 0.5755062755504083
enab@@ 0.7188989661741308
Nap@@ 0.646933682878003
besa@@ 1
mas 1
Allen 0.5120611825713767
messer 1
Business 0.3603620378164497
Sier@@ 0.8651728955059944
boo@@ 0.32554268963921157
Tw@@ 0.38430770086444227
Chan@@ 0.7400881568263297
Isra@@ 1
Fig@@ 1
inea 0.6899078909029734
Luis 0.8634898409069186
TC 0.5576483405363731
24@@ 0.8855816220300151
Law@@ 0.5125730363336992
Europe 0.11869753620739927
Foundation 0.2469878573125546
sat@@ 0.26286283848365455
Racing 0.659509689171661
vo 0.776444031223374
Anthony 0.5097370484478407
Miller 0.44863192400657786
Power 0.39557961308715733
ces 0.09875624749971884
gewi@@ 1
Hamp@@ 0.42123254869392246
iro 0.7770889676343745
itar@@ 0.2732237713084087
loyd 0.58465538200232
show 0.06294484415506446
uma 0.859211928291532
agu@@ 0.6474234205458671
altern@@ 0.4428952716167496
ness 0.09366539722571815
bol@@ 0.7905873292407541
lines 0.1388766289322122
epi@@ 0.6339150858168934
PA 0.36829432025318964
Anth@@ 1
Hospital 0.26611684094228527
SS@@ 0.8680135580650943
Falls 0.7781712899582004
frag@@ 0.6752553177592217
Sid@@ 0.7554709415531575
intel@@ 0.4691454718411472
sidi@@ 0.5378659552077264
Stephen 0.3958943712130065
nar@@ 0.16322917754368527
positive 0.25005977927698
War 0.04613235510272751
Minnesota 0.3769279991779798
ael 0.8600266947116084
hou 0.5829749857524568
A.@@ 0.48867673110989784
can@@ 0.14475280046977199
vit@@ 0.6425516335557269
Thailand 0.6727554761638506
gewei@@ 1
District 0.06493332073170538
alo 0.527435567190087
vul@@ 0.6845451741621135
Buck@@ 0.6493420421675379
sum 0.721446976019169
ude 0.5438826426244614
NFL 0.37878105506854287
Kim 0.5353218299362679
amin 1
Long 0.33259701983791984
Model 0.8316157377475952
anist 0.7240419197211113
ashi 0.6915054990743031
br 0.21834760662263142
brig@@ 0.5652844837791324
act@@ 0.48877240996757
ima 0.8142422505324192
law 0.07278189546300178
ols 0.21379598566023927
elta 0.696127470767091
rez 0.803440045599112
ains 0.1841222426011738
rand@@ 0.8204232761514841
Sam 0.48154962724792566
Spi@@ 0.5296972838032864
tions 0.044187252215510196
Repräsent@@ 1
BC 0.2189986334321021
oom 0.48958429562487926
abri@@ 1
refer@@ 0.20701279130668687
10.@@ 0.536386426754702
mid 0.14713740237934736
adi 0.6020352900042562
heuti@@ 1
Howard 0.43734921241935676
Jim 0.3802284049925542
oa 0.4925316963560628
aqu@@ 0.4527567421140473
Islam 0.6903602464549458
Queen 0.2020428759867558
Township 0.3184290077172136
North@@ 0.3840873335218155
ool 0.2527255776794953
unk 0.4559010487033727
Free 0.4425748760848432
etts 1
with 0.0028804143896022528
ever 0.09477447913285938
ques 0.6939876040031008
sees 0.6284449631149132
ensus 1
Ross 0.5743834015975708
Ray 0.5338469702010706
asa 0.6993955616547448
Mäd@@ 1
journ@@ 0.3649800119488137
Bill@@ 1
Airport 0.27067190076388564
separ@@ 0.21992746535045757
Brian 0.4574460800717643
Montreal 0.5279407952008637
gressi@@ 0.7095159244856355
test 0.19407636435729564
AF 0.5385662160757471
Senator 0.6137963642877355
Dak@@ 0.584247906081618
Départ@@ 1
ware 0.5142418132663695
ook@@ 0.6597711686451289
Bang@@ 0.6401011570697283
Theatre 0.2299590529703383
Zh@@ 0.4173546211574449
tom@@ 0.3935077038492598
ý@@ 1
RO@@ 0.5593486485428871
bor 0.4251442796115281
Cher@@ 0.5353195107788508
Düssel@@ 1
ried 0.7895598453420543
regional 0.20722533742383223
schnitt@@ 1
may@@ 0.7425598044920524
AP 0.5390595311133399
Islam@@ 1
figur@@ 0.6350967019063215
č 1
uz 1
Liter@@ 0.5024866563991295
к@@ 1
Stadium 0.287778889200147
lab@@ 0.16075225518329156
Sac@@ 0.5592476886901845
cur@@ 0.09615023281347715
iti 0.5993936834854442
bom@@ 0.25586295225197847
lip@@ 0.7338748325777903
Lt@@ 0.38942680500377813
You@@ 0.528635689864971
digkeiten 1
ery 0.11577606116881976
IP 0.7233846322611505
Schol@@ 0.6968953435719475
tage 0.7402184200805774
Pho@@ 0.5569583448028317
Stadtt@@ 1
Entsteh@@ 1
modi@@ 0.3052879204317312
Gordon 0.48066167090982087
Over@@ 0.31894631793852596
nomin@@ 0.19711614263846247
Davi@@ 0.5870784354266547
biet@@ 1
che@@ 0.26119113113259024
Glasgow 0.6373222244600023
yo 0.6216523274246681
yan 0.27138576649936996
PC@@ 0.7644838472182226
\ 1
Conc@@ 0.4472692504748562
Game 0.3053663766889308
verse 0.2594018360218557
pul@@ 0.2941738281778089
Philosoph@@ 0.9018484339415307
Georgia 0.24166931202155326
perf@@ 0.4017266172503836
greg@@ 0.358607212961082
uan 0.42947944283451384
Conserv@@ 0.2232613775466978
MP@@ 0.5097911355174015
Diego 0.44981087120447893
phen@@ 0.4426411180230487
ark 1
Lith@@ 0.49483079914927997
bec 1
Stutt@@ 1
zwöl@@ 1
Philip 0.45450512552994765
promin@@ 0.9121859436642129
Peru 0.7669238874943927
Alice 0.6728657604351254
Pla@@ 0.5844783438472118
Sports 0.27452621181545556
var@@ 0.38348479788402173
Spec@@ 0.2853334343130553
can 0.021517188281204042
Fame 0.4421088813013684
Green@@ 0.37824355497137013
ids 0.14258944141127994
finale 1
wed@@ 0.5279856532009172
Aber@@ 0.7165297950775037
Stanley 0.5824943024134099
omen@@ 0.6714127574421347
cel@@ 0.34748243473471513
ological 0.08390854127075438
Mr. 0.3061092634186086
mers 0.3465214593607138
Guar@@ 0.5303414552460662
Jack@@ 0.5406605484347703
back 0.03876359766725565
his 0.0042264023754078886
emig@@ 0.7286577756697072
Missouri 0.34654039606358433
arri@@ 0.18330355175258775
ror 0.23221006054751145
öhn@@ 1
Sun@@ 0.4754983150586672
Adv@@ 0.5541606764332877
Administ@@ 0.8606549248014094
esh@@ 0.3980702309854616
ateg@@ 0.5914168489728898
ugh 0.2065596116636909
Junior 0.3306459620828812
Jul@@ 1
Musli@@ 0.7031553971275155
pp 1
ides 0.2849798667607398
anth@@ 0.4533588738426901
ve@@ 0.513064943047831
Are@@ 1
Loc@@ 0.2984633836753893
л@@ 1
CS 0.6713934195170931
vill@@ 0.5844357094533399
aks 0.24118257772951346
demon@@ 1
onder@@ 0.7341473356612365
Colorado 0.3802185089130169
poem 0.46009079984786944
vis 0.5938204878508052
Edinburgh 0.48645189506459774
Gaz@@ 0.6441228577405134
Ukra@@ 1
Australian 0.09150831236378829
Austria 0.37786330438685817
Admiral 0.6905967549617091
rid 0.5488867795934832
pole 0.646471233249947
Alan 0.5162255367366367
Brow@@ 0.533186611658902
Rid@@ 0.4151586609948487
beauf@@ 1
ext@@ 0.1109273225153503
Moore 0.45786002667796416
charts 0.5656641332279235
mas@@ 0.42145600107763515
Mountains 0.48300242388366355
Tim 0.5948266609855621
wendung 1
Christopher 0.5768824015420244
Ontario 0.2822084087521999
gran@@ 0.20267752971615527
No 0.2254377207709298
ody 0.24150331782786597
Johnny 0.6368345697255343
Las 0.6276537956338586
tem@@ 1
Public 0.1778509152994924
U.S. 0.06104957550619936
hold 0.22371151534097047
Old 0.18132939286533262
gin@@ 0.6246520686646415
oy 0.30581095791347984
Goo@@ 0.530719570127466
Ital@@ 1
ubl@@ 0.5815531701814977
­ 1
AT 0.5459032402658192
eal@@ 0.5797355859384442
Duke 0.26685605130601203
bring@@ 0.49225873143691834
nam 1
orith@@ 0.6520288095252309
LA 0.33907148749252225
För@@ 1
Lov@@ 0.5940856657991821
Entertainment 0.3709858552584162
Technology 0.29313941202625715
ising 0.1326064894536784
day 0.029938273170655148
reb@@ 0.5786119385198569
app 0.8767333198962008
nat@@ 0.599879166412302
Internation@@ 1
Space 0.41109917165713145
bing 0.2715594121718856
Ç@@ 1
marine 0.23116640039739816
republi@@ 1
Sarah 0.5017238909676042
tun@@ 0.37758920288494524
Night 0.33737357879901325
Adams 0.5608643685197826
CH@@ 0.549563530929364
Freder@@ 1
Sun 0.291821020674203
Ł@@ 1
CC 0.38325343409856993
Pit@@ 0.7257816455984304
edy 0.593232923195615
pati@@ 0.5013580255467641
graph@@ 0.5323574523745822
Pacific 0.1676859998717948
mul@@ 0.36230447336972194
onal 0.11082739835932466
asy 0.2438185580561064
Bar 0.6838976030016413
Fred 0.6501987236728487
cin@@ 0.2469322437279905
vel 0.4124112591771499
ο@@ 1
jewei@@ 1
Chief 0.1874407572380931
auth@@ 0.22811292635068048
ward 0.12841770147420778
Kansas 0.3233991692425734
ills 0.15899894814671836
Death 0.2955146734127052
ads 0.17574751693053137
dition@@ 1
Jimmy 0.5691211902358275
side 0.040985713927146096
uit 0.24857630467410344
Charlie 0.6291180170611731
ction 0.10959813560370578
Dan 0.5305823431664715
band@@ 0.6336986603305523
Board 0.16402407885298154
last 0.053493049663064264
Squ@@ 0.6586725884895738
в@@ 1
abin@@ 1
Theod@@ 0.8582423980107401
schieden 1
İ@@ 1
May 0.03196756793634043
Detroit 0.4249285334975412
cip@@ 0.13595429030483946
Tul@@ 0.6381261425183957
erine 0.43868841328887376
onym@@ 0.5541497786173961
uf 1
UK 0.10044771601966879
Clark 0.4275002597249874
omin@@ 0.49583714918934363
î@@ 1
Wisconsin 0.33329095054991464
Anderson 0.407874554544273
abs@@ 0.5539867698767563
Order 0.2054600509678587
Law 0.17537865133271646
Court 0.09602416671491651
bab@@ 0.33887493355009535
inv@@ 0.1039978708490063
Sah@@ 0.5392304931904104
ric 0.16229867053636085
Rugby 0.4111763747099125
zir@@ 1
lv@@ 0.9976539166700039
anny 0.6305960480244364
samen 1
Billy 0.5776695905576608
IM@@ 0.6281574108636392
Sho@@ 0.49530872006387894
Is 0.3234773156951073
Conference 0.18303954302390466
thers 0.3664659655991466
pack@@ 0.3678584932306816
rachte 1
but@@ 0.1252710389337724
Ō@@ 1
asion 0.48215634631051824
ature 0.11789224893272475
press@@ 1
Thur@@ 0.5695681038470227
ayne 0.3917253865999014
т@@ 1
commun@@ 0.19000503867269894
inten@@ 0.2843812082596911
mon 0.3987909968715777
Memorial 0.32089093050752865
ienen 1
orie 1
ours 0.14953103860764114
ough 0.22293224015221833
star 0.16665871337529664
Kum@@ 0.5224600789120343
Home 0.2522492327782703
sle@@ 0.32636815450411255
otes 0.6419465641322601
chan@@ 0.3449306012495613
Long@@ 0.6144958205443346
Melbourne 0.31340059328787484
lica 0.6312548460780916
plant 0.1447148333451578
istan 0.7570066681210208
erner 1
sogen@@ 1
Tig@@ 0.45613471359038643
Josep@@ 1
box@@ 0.3069921922383392
status 0.16380494814562935
Bronz@@ 1
Singap@@ 1
Brad@@ 0.362392373316848
ji@@ 0.593246448183715
ress 0.1280807078414062
stone 0.12507209220965826
bud@@ 1
Mississippi 0.40136207589335837
stud@@ 0.45348410488101715
ț@@ 1
mid@@ 0.20759985239861498
AM 0.3056516970205667
Bell 0.4135852447274601
eing 0.18137320950846236
ption 0.33419278278650666
Indiana 0.3246423524154503
gle 0.26446179523736496
lah 0.4787144630910207
Roy 0.5565520425569082
ameter 0.43798487637647004
wick 0.4215726549866008
Hud@@ 0.45625997531025697
AF@@ 0.49844275311561054
unt 0.35487024789379146
cus 0.5423242140029245
enname 1
AA 0.28197992818640744
mos@@ 0.4432790170286054
ally 0.02069154071477029
Söh@@ 1
anti 0.14419415960741386
oba 0.5704477894665081
Area 0.30668015533818616
dom@@ 0.269544136528225
chi@@ 0.5811382006134073
kehr 1
Cho@@ 0.4702372474085224
ennis 0.6602979103465372
Mountain 0.2807995017212378
Tower 0.5303342919845533
WW@@ 0.39315072932654554
ethn@@ 0.8008667464309341
som@@ 0.43677982798043946
aug@@ 0.9451326797431832
atory 0.10380165761488215
lug 1
Dance 0.5045358949215603
Last 0.5525632574062102
nov@@ 0.2041969454276962
aff 0.4303413412229674
Dri@@ 0.4447054929064205
ï@@ 1
Fox 0.3056832580259525
med 0.12648485312180943
zon 0.5322964466425253
evi@@ 0.3976155524332883
plem@@ 0.8794865415125473
ray 0.2716375820134056
These 0.0634985682576007
Vancouver 0.5825960496419698
Commonwealth 0.3856183817048714
bour@@ 0.27933282233505863
ocks 0.4874162412108776
Cross 0.2433598647014944
Arizona 0.32623543364817825
Pakistan 0.24192293469803125
acks 0.21713358056464974
studio 0.11735320162482495
Water@@ 0.40119136272533984
Atlanta 0.4331727418997652
Hawai@@ 0.39987102243579475
Under@@ 0.4279437391654483
lov@@ 0.2495480499365305
occ@@ 0.4178496519342329
add@@ 0.21188178896341156
Railroad 0.3905180407566364
ielsweise 1
Lanc@@ 0.39887870974105627
Magazine 0.3939582033158468
Stev@@ 0.4791295380935325
ries 0.1667714465001949
wn 0.09918673642244864
ior 0.253353812790314
Produc@@ 0.3361177362348328
drama 0.21223300801616007
Cricket 0.5403593923420473
Microsoft 0.5908874094677546
stan 0.5426626782173785
Phi@@ 0.5619386230376877
Labor 0.5705094349607746
rel 0.42888539514246754
Dublin 0.41323167415461326
eff 0.5322917984401647
fund@@ 0.22567978459592078
Department 0.09561837539931914
Opera 0.471841555458765
dge 0.18055288665192185
ugh@@ 0.34014557152886077
Centr@@ 1
ancy 0.2158344055828156
Stru@@ 0.6011688644721025
rison 0.25825300127043316
Maine 0.536399743200252
Bereit@@ 1
oundtrack 0.37304524768697045
rab@@ 0.5861108588443824
lerweile 1
rell 0.5489668555593011
beisp@@ 1
atives 0.1384532357832144
Jane 0.4674596253726998
IR@@ 0.47582526565193745
ering 0.08517896316765185
sens@@ 0.2423949923285178
sor 0.36602722314674385
Simp@@ 0.5060092791083179
Wood@@ 0.3407726769720548
blu@@ 0.4648971093624588
änger@@ 1
Khan 0.3069049785473624
Princ@@ 0.2842214610451014
rain 0.3076903941735608
Cant@@ 0.5219770138688803
Southern 0.15108785503776562
Up 0.3934973818504696
ż@@ 1
Matthe@@ 0.40365410086037623
beför@@ 1
ying 0.04756651051144784
oot 0.3016134591268867
Connecticut 0.4076995264087836
Württem@@ 1
Clin@@ 0.3226646209311968
Enter@@ 0.6160325839489776
regi@@ 1
illing 0.31229452569931243
anim@@ 0.15162232741127124
History 0.041548085112453
Arc@@ 0.5153693949571112
Buff@@ 0.43761195969090405
GA 0.5178984475740686
Stewart 0.4712212948381276
Bruce 0.48417689204743497
VI 0.4603626312186686
Weltk@@ 1
Associ@@ 0.40875222663407873
Cow@@ 0.42220771839178
Australia 0.06454136915349563
Liverpool 0.43719358142839987
ound@@ 0.24878386964418958
Ergeb@@ 1
Special 0.26257566033668595
Stone 0.3507579084440044
Nelson 0.46724308046316865
Kevin 0.45249659282019816
obs 0.35997938404493335
ades 0.28157152632223975
fac@@ 0.07323957683492106
Not 0.39143390544977574
Lincoln 0.38326189145109113
Up@@ 0.5315198934873047
Tai@@ 0.5937592974114637
hard@@ 0.27944187565543727
xed 0.2300232058510228
Margaret 0.4059655339194074
entation 0.2860798630401344
onnen 1
rid@@ 0.37706277244525316
streng@@ 0.5252159005734851
Challenge 0.560971726150545
apolis 0.44800581518856647
Tennessee 0.3012693524543003
Afghanistan 0.5122957971432421
Econom@@ 0.1911429823867785
NAS@@ 0.4198314262049883
äler 1
core 0.2594369781848995
Puerto 0.38671727080797497
burn 0.2966975773635388
rian 0.2681242384461095
emot@@ 0.351056733315186
publi@@ 0.8680865114474824
alem 1
Nick 0.4867362113215364
On 0.014851184332273983
assist 0.3393566632307688
appar@@ 0.2308657645006489
post 0.09310834718796357
Heidel@@ 1
Mitglie@@ 1
cial 0.1414137242850862
Fair@@ 0.3761920984579983
dh@@ 0.7419314536075521
rank 0.24324151672000707
slow@@ 0.4865113742270143
esis 0.4786354588359798
Office 0.19319158756888638
viol@@ 0.14805623225558173
а 1
agre@@ 0.3019502794891134
after 0.011138757221047986
Mex@@ 1
Jordan 0.4432620610452436
Miami 0.37542040645561936
eckl@@ 1
α@@ 1
vest@@ 0.3233180051599973
Global 0.40664992026011443
Stef@@ 1
national 0.04556491570102888
gespro@@ 1
AD 0.3171707218763083
kind 0.2522810710864638
ynam@@ 1
eli 1
dou@@ 0.17285921677196986
Captain 0.24562412483243862
Cle@@ 0.44159320986664574
Frederick 0.35833083606078425
usin 0.46742795112665975
Frit@@ 1
religi@@ 1
tional 0.13014678522003445
Lawrence 0.4053069185396494
Will 0.5067935956562271
een 0.25972423977395925
Russell 0.44453261842564323
′ 1
af 0.4908467228395496
fix@@ 0.4756358483332953
indu@@ 0.6302438128025887
Auth@@ 0.29391499180547676
Disney 0.4185934444847736
lear@@ 0.15124622228591403
than 0.019548170638904874
dale 0.3133289678746728
house 0.045005184294675385
iw@@ 1
Cum@@ 0.466509605951966
Hot 0.29620863532873787
Social 0.23086494054636236
ů@@ 1
Studies 0.2978100048269542
Sever@@ 1
adap@@ 0.14391601003444726
pass 0.19713540519712125
Forest 0.27181956542483515
Fund 0.507701447920906
Dé@@ 1
court 0.0964727728228299
Taiwan 0.45604350376911884
fang@@ 1
Orleans 0.5145264883486778
Admir@@ 1
Gib@@ 0.46273735745458694
aer@@ 0.4733410309349513
Harris 0.4068142896700821
main 0.04457117297166139
from 0.002908586989316341
Camer@@ 0.39538206926749886
Dave 0.45440287091177767
Place 0.4693682349238422
CP@@ 0.40672547590407665
S.@@ 0.5085339258199243
eld 0.4063808407697981
o. 1
sex 0.1374786294950829
affel 1
Trophy 0.4696157756928775
aska 0.514096510534609
ymn@@ 0.6324302553887268
King@@ 0.3596954610456974
symp@@ 0.3002750749128311
distri@@ 0.4456305326471926
felt 0.20816034383415466
Iowa 0.3297709653924787
äischen 1
arts 0.22493314899797645
Elis@@ 1
Tube 0.4812638045837995
Good@@ 0.4180999186209329
ely 0.04904253461870526
rock 0.10052477709419795
Jord@@ 1
Morgan 0.4216126236534542
Vietnam 0.2778582457981292
beit 1
Equ@@ 0.5004680273920936
gregation 0.4261505703597779
ktur 1
time 0.010970322244828079
squ@@ 0.16593315386202165
Broadway 0.38150661045831713
How@@ 0.446375565740593
mig@@ 0.20723633765578572
Sci@@ 0.3950087468896887
Canada 0.06572842965304988
lon@@ 0.3017854581467582
views 0.19075160849257658
yc@@ 0.3900725920024659
aste 0.27763694077565837
oud 0.33795250426544676
· 1
Ann 0.44932697660306314
Maryland 0.2830677561641776
Archit@@ 0.33686174846900097
Supp@@ 0.3374487036267086
µ@@ 1
play 0.03733962473614835
multi@@ 0.3248793290121052
Situ@@ 1
• 0.4743447473170169
ship 0.03630583621323923
bit 0.19056315031736373
Viet@@ 0.6836909302453293
ear 0.2167065747165506
negative 0.27880917421881535
Å@@ 1
Chel@@ 0.46607205702924087
Bowl 0.3316197038424712
ites 0.1333095315061999
ici@@ 0.10694099014924342
News 0.18165614306462208
Avenue 0.1792174990332481
Down 0.4702631341247073
Kennedy 0.398513422285891
ς 1
sit 0.22597807286786362
End 0.41329257440216566
eva 0.38224399473564796
block 0.22404768935575461
pu@@ 0.37819221358375626
Turk@@ 0.7855540037434192
Hills 0.4013459193382506
aid 0.19182643697382512
ihr@@ 1
inj@@ 0.2462710468079178
teams 0.0682793610461639
enna 0.6025019875216856
bey 0.293830356268056
Canadian 0.08439937408443018
N. 0.46642903545926817
Franklin 0.4183335996982942
Osc@@ 1
outh 0.4281597166613459
partner 0.24883102263535573
Graham 0.4365055859722704
sea 0.09831601718853347
Venezu@@ 0.44010473783872894
fro@@ 0.43058459868841364
Engineering 0.3082886910980882
head 0.04633820409706139
Houston 0.3026373512662584
agan 0.3967394424177191
Miss 0.2947131380303441
ential 0.14091265055207658
online 0.19081513728872
hatt@@ 0.44824520094504877
ture 0.058493586566236024
Kaz@@ 0.34851798107276677
Ś@@ 1
ld@@ 0.38323480025454937
chise 0.33574173566693927
ple 0.19514688842779024
yon 0.4297345218725137
state 0.024182419444836973
erland 1
Sais@@ 1
Sund@@ 0.5787510644952796
Nations 0.21026516241491353
brief 0.3458217611436911
entran@@ 0.8915404940467413
RC 0.4612641524935087
edition 0.09998815164998794
ox 0.21956709905533522
scheinlich 1
Li 0.36526474618496774
box 0.17149956414691173
cri@@ 0.09466995514400493
FIFA 0.42515984305261834
Northern 0.11761264783045826
Philli@@ 0.3513101008526597
Zusammenh@@ 1
esth@@ 0.4443698497734463
label 0.16617461047862336
ions 0.07379676814489061
ML@@ 0.32372865461617006
cester 0.4031359517462236
alif@@ 0.8310943302689032
Murray 0.3990085234470974
itive 0.1246305791001328
Swe@@ 0.38522873434569693
Empire 0.13768793033758753
ever@@ 0.34299778322098984
German 0.04221035881410698
Go 0.4227171186149406
ities 0.03941621923370854
Origin@@ 0.38021222437188984
Lieutenant 0.32035590705213035
r. 0.3186902003965754
Development 0.1541097692930321
Places 0.2765118759720723
arch 0.28713211914858866
rest 0.08262932326935572
Kelly 0.3841766939984698
ext 0.21682403644301887
plant@@ 0.41154835985173577
Direc@@ 0.24914805795222122
Community 0.21553529284538958
Senior 0.2943340499867487
Austin 0.4002335876433519
Campbell 0.38829558580502427
MP 0.2579090433154661
ettbewer@@ 1
ating 0.022491126630879675
yers 0.2601767069883639
Mitch@@ 0.40825714860999057
patri@@ 0.37395211311491966
Pear@@ 0.3550297252825278
ily 0.20891497534332532
oods 0.16133998023851162
zil 1
α 0.8029930453062628
.com 0.26668292436487406
Kentucky 0.288740183012343
Islands 0.18694552614864587
Ryan 0.35004372035001574
Dallas 0.3954568719545016
Walker 0.3506774177798172
iana 0.9253583890875872
reli@@ 0.21376221543133353
öffentlich@@ 1
ures 0.12266992431341255
BI 0.3823274652838919
Independent 0.31750245275985717
Brist@@ 0.42198533025232043
Network 0.23295876351866887
mac@@ 0.38208600086306505
Light 0.2964154112337641
Korea 0.18555615516545046
comp@@ 0.035372953468567704
thur 1
ated 0.00926947483260133
ight@@ 0.23145086568213738
nia 0.40670864304115334
ə@@ 1
ield 0.23959756625778866
lot 0.17267871474438284
Eag@@ 0.309544779959238
entit@@ 1
eline 0.281388379242428
ommer 1
territ@@ 0.29130793261683097
thor@@ 0.329359102705074
Boys 0.3688288039466214
Doc@@ 0.3765166758211281
Thompson 0.3779372497995306
ounds 0.13002254431418153
act 0.06898161533925255
sei@@ 0.36087907824867366
ā 0.6576474847512228
Brooklyn 0.405407292543506
arran@@ 0.23641091030649686
Administration 0.2877758044264665
Matt 0.4213741450050741
lies 0.062474867055097326
uten@@ 1
ll 0.3358046600428079
substan@@ 0.24581384287306265
Ut@@ 0.9307720856768985
Year 0.1231241046292596
Pac@@ 0.838121937122007
enson 0.4204322941559096
We 0.14428175550998365
bec@@ 0.6844900216715405
tures 0.09175351573356053
dian 0.22619822613409296
ollege 1
Out 0.29920014534132006
Carter 0.40169784890445315
Moun@@ 0.7679783791460472
Que@@ 0.461243866124044
Services 0.2507304397558465
rap@@ 0.1387777670823292
Braunschwei@@ 1
ality 0.048952652434557695
Ear@@ 0.3328561845929266
wing 0.06141707863464397
Base 0.4208189070287595
Sri 0.26091179512731577
ähe 1
programme 0.27003129660398206
g. 1
à@@ 1
Grant 0.35847973547438394
board 0.07561938008635279
rier 0.23539924096421572
ited 0.0403296624472638
John@@ 0.49008367815004966
but 0.00726086782585888
völ@@ 1
oon 0.16555787629048763
ühm@@ 1
Camp 0.35985616231754036
format 0.16261625939657204
ments 0.041775605559266966
Oregon 0.2546924311708775
brie@@ 1
ş 1
Billboard 0.2006647408663074
transport 0.21889949758328883
tempor@@ 0.4016126518254933
ilom@@ 1
light 0.056441299639624506
Field 0.2092474905795621
Gary 0.4146486222763509
down 0.03473371447467377
Wrestling 0.4066610769426094
Austral@@ 1
atic 0.057746469972459746
Knight 0.411731769552005
ampton 0.3619596677800291
gressive 0.24887394276033123
Cleveland 0.3251042783120305
Your 0.35527369156309624
ech 0.5286916864479914
Book 0.19519325976814514
aps 0.1958130945334498
Brothers 0.3714664937219854
Boy 0.40657655645646484
relati@@ 1
style 0.0567096827573629
Robinson 0.3766188728801302
ρ@@ 1
Dez@@ 1
Norwe@@ 1
nex@@ 0.5055811484774501
FL 0.21637668334679044
Coast 0.16108420303582263
Commission 0.12260698413956853
Alabama 0.2891114480449533
Batt@@ 0.20266822393405606
Birmingham 0.3515771167856888
Championships 0.09495027214720128
ė 1
Aller@@ 1
FM 0.17134530738656062
Head 0.2560827486186143
manager 0.11007065510800089
try 0.12136872164731208
£ 0.12861405283771257
borough 0.19893490371618971
enda 0.5511779258263424
uni@@ 0.23560942080984848
Kent 0.36288888885325365
itals 0.35316454097098887
ι@@ 1
sports 0.1077004754363156
Malaysia 0.324149852139455
ehemal@@ 1
Medical 0.2004152279319343
Niger@@ 0.264746041836012
elec@@ 0.05978978257700402
ource 0.2984975382198046
South@@ 0.2566825676737797
gradu@@ 0.11291663209477423
jun@@ 0.3940820779111252
tons 0.38185169192131696
cap@@ 0.05499329446269138
into 0.010022301296110368
ruption 0.3521433006773131
dom 0.20965163691970792
Seattle 0.3220604406161748
Trump 0.34953111620441596
formal 0.21754485934446519
sou@@ 0.12451519350820031
{ 0.5862096253100351
throp@@ 1
Dod@@ 0.38378253373397264
vard 0.5081484814601559
sty@@ 0.20443062465188144
Project 0.22691194544385176
flanz@@ 1
wind 0.2624009619404521
Hou@@ 0.8101228880181967
anthrop@@ 0.3342911025384214
vil 0.22189347878635357
õ@@ 1
administ@@ 0.195777686580513
mouth 0.17619175947489274
Louisiana 0.2968904285084906
Wright 0.3637898891112471
com 0.4409595319942755
oman 0.3441948824224132
plus 0.27409585521045476
cy@@ 0.10482988132406587
oke 0.16589018250785403
½ 1
ourn@@ 0.9975839003105178
Shel@@ 0.3807878049446475
τ@@ 1
Sea 0.1435286650986444
Regional 0.25265853430481516
Second 0.09711188798417672
ape 0.2985895592901813
main@@ 0.09457889546691556
vertreten@@ 1
hat@@ 0.2006635463835559
.. 0.4852704243558046
kh@@ 0.37100352278270926
Indian 0.05755772000039476
lif@@ 0.10387235156749637
Barbar@@ 1
Norman 0.3667827049398076
.D. 0.2827764528522578
Buddh@@ 0.29076496083847003
utn@@ 1
cli@@ 0.10140800295346429
ght 0.07457014949223388
gia 0.9432406890099391
innov@@ 0.30235011829098996
set@@ 0.5469327838135337
Verfü@@ 1
Strat@@ 0.9605075124921628
Modern 0.2682640337405628
Penn@@ 0.5887040425855363
roll 0.2357383193783652
Sebast@@ 1
ABC 0.2917504333126641
Garden 0.33021664360754177
Ten 0.3481509764652377
rose 0.26365487756997463
Hisp@@ 0.3044608569519299
Muhammad 0.36622199709263903
lec@@ 0.08775467565808041
Four 0.19595089103679755
eht 1
Scot@@ 0.35423311861190704
key 0.09657423073562024
adj@@ 0.9668787955747633
Ş@@ 1
Christ 0.2742261985924032
Commer@@ 0.2707239413659569
avy 0.35683142642578924
cast@@ 0.13646455065547164
Athlet@@ 1
eh 0.2921939745079547
Baltimore 0.32532685437618036
signal 0.27025373511437994
tric 0.46405152039674125
Portland 0.3558362824790165
sh 0.22414258667312256
Labour 0.22118335582295962
regiment 0.2815238993069911
town 0.025260519158958314
glas 1
atist@@ 1
д@@ 1
akes 0.11173937419486049
enter@@ 0.14364812403774124
design 0.057401788259175114
had 0.004544787463523541
ø 1
tie 0.2359024883329082
Seb@@ 1
anta 0.6618172300797522
olds 0.44048869701540255
— 0.034271817231369545
card 0.20948995485819683
ted 0.010974443241690628
Pers@@ 1
Prize 0.19398494429369414
Bh@@ 0.24836432023495575
Pittsburgh 0.31829625340691425
ming 0.14858727355727855
ő@@ 1
writer 0.06830724170843856
Hear@@ 0.3354288660797072
Metropolitan 0.2889760561832472
Scottish 0.13322559429362932
Track 0.30800840275960534
Metro 0.31939552708941066
overs 0.34279939934674114
owns 0.18103266099799065
rep@@ 0.04569361905241137
hon@@ 0.0629729531367097
ě 1
ń 0.8847218287003035
fa@@ 0.2050250500622578
As 0.01893477408015924
open 0.061516730458408976
Press 0.18435817695768705
ev 0.27498175346563253
Village 0.2596865621339425
sych@@ 1
Beng@@ 0.2175898739966973
201@@ 0.5250059857597301
Satur@@ 0.7458440452703826
cat@@ 0.07873556325565063
sent@@ 0.13507647194806538
acy 0.05928033435389921
Whe@@ 0.2799188822168658
isher 0.19851281511262353
Ú@@ 1
Eastern 0.11166167517166833
him 0.012443034048804483
Wood 0.3027377048021712
Medal 0.22204573389812957
situation 0.1811819471754706
People 0.10994576404698576
Oklahoma 0.25187939259808995
English 0.03282735808507068
Democ@@ 0.17241548521916383
Atlantic 0.15889876317005036
dec@@ 0.0582324649852175
Crit@@ 0.16389086503565006
load 0.22792303014687448
Î@@ 1
Jr 0.1949738777358248
films 0.07529654623650975
legal 0.07816498131758914
Federation 0.1851270928406219
List 0.07084605334599235
midt 1
African 0.06527589186310045
shops 0.26835186127503213
useum 1
Marshall 0.3255239005382722
bow 0.331935975863666
cont@@ 0.045158673027736844
cop@@ 0.08131728442731974
count 0.24685242833826343
spec@@ 0.03292609980582845
Angl@@ 0.32695203302986325
wind@@ 0.11713991038842606
Library 0.15583995338369813
eer 0.2095955702449926
Ere@@ 1
kilomet@@ 0.25969669377255294
quant@@ 0.2410084048792124
gam@@ 0.21083083476833375
olution 0.1320823253503677
Hind@@ 0.20080562753369355
French 0.030860146573048693
Nel@@ 1
orer 0.3157535318140534
dition 0.8609987618249083
ouse 0.15808451388114433
cla@@ 0.27133185440794627
nic@@ 0.2063985479746501
veget@@ 0.2823880421474839
song 0.02489816252227098
ú 1
tory 0.1764989800945535
path@@ 0.18255812508339583
ians 0.088602796969975
termin@@ 0.09780541095633595
clubs 0.13830045123482076
kshire 0.26582506232938286
Channel 0.2057983080857444
olo@@ 1
seen 0.06096062529208891
Ehe@@ 1
alternative 0.20348877499294463
ety 0.18644557691516328
has 0.00449496741197664
utation 0.23135091690688642
Contro@@ 0.25393776594798884
Fakultä@@ 1
Final 0.1529732055984747
new@@ 0.19995043935162335
Of 0.13590433749290212
essions 0.19709361649736282
Franç@@ 1
üss@@ 1
Silver 0.31831291637013526
vie@@ 0.3642026598984298
Academ@@ 0.32067576001322323
Isl@@ 1
No. 0.07963039488862063
Rug@@ 1
Player 0.2862732102772413
McC@@ 0.316402362838128
Two 0.07333336782478742
ational 0.057797202877646656
code 0.14224971229584563
phy 0.20595981815022574
Karls@@ 1
Utah 0.31082634239005985
ld 0.9998541520379844
ady 0.22644401412878887
ears 0.16543660154287101
ening 0.08428861597319313
rator 0.2870080721112525
ė@@ 1
Kong 0.14092867274239346
aliforn@@ 1
Executive 0.23053720496898936
Men 0.11776068002169857
Edu@@ 1
Health 0.11761258289902211
Fire 0.23946951777620257
just@@ 0.1279792073284896
ross 0.752478234650005
say 0.14669668234070207
Heart 0.29028906941872523
ò 1
iles 0.2340322177027638
Commander 0.27501905952520594
osoph@@ 1
Tokyo 0.23333069212249458
ights 0.18921895019697055
general 0.03757032763135056
left 0.025522685707911358
ʻ@@ 0.9894423193494762
aide 0.2949697455124554
theor@@ 0.31668899912501974
Education 0.07068354555450451
anced 0.1574208693549112
bridge 0.08112217501576204
thy 0.18714836718020206
boy 0.15496857309852485
Rac@@ 0.4374225568566603
Mexico 0.0832046817794604
ression 0.27307475180850554
ň@@ 1
uture 0.41626619631420847
route 0.08191601469467005
Good 0.2491009294944546
Broad@@ 0.20263575929221428
bal 0.29343764751341833
Census 0.2013856905176649
Colonel 0.25812694443846196
ă 1
rent 0.2276677051778246
Dean 0.2706192959772814
ood@@ 0.1489209702760316
´ 1
ć@@ 0.865354250812435
Cape 0.18221719675294548
pur 0.2104160702418888
μ@@ 0.816355050576105
rative 0.2327384256842782
Review 0.27264028744712215
wards 0.07343263387303463
ird 0.39905702056880343
Orthod@@ 0.26222334242249284
ural 0.1533809968999984
icklung 1
ν@@ 1
ues 0.1290952127809887
CEO 0.23848300952907295
Africa 0.06171735605829416
expan@@ 1
expres@@ 0.12787193983830258
web@@ 0.3678813475788815
olis 1
Energy 0.2716346445140842
ump 0.16178089678273858
ching 0.07981073566658763
Gusta@@ 1
ign 0.1390860670445869
ather 0.11667865481817098
Command 0.24805472591851147
strong 0.06949617140545342
liner 0.5154418051597238
media 0.060724927309180575
λ@@ 1
ε@@ 1
cle 0.10727843810163726
Director 0.11364761385641461
ademie 1
top 0.03175221821533488
run 0.04048550553631633
thus 0.07410404889641747
This 0.009553495846033731
abol@@ 0.17917231852967136
castle 0.12240195832160294
perman@@ 0.45366581183327775
ving 0.037730600273973985
Trust 0.23267042854120565
Micro@@ 0.4810281330823565
Naval 0.20152013385428413
sy 0.279687932810698
Alliance 0.26041117445085177
work 0.01313707285623562
ane@@ 0.18623432081267963
Phili@@ 1
ș 1
To 0.060884605338783516
part 0.0110934758750033
Family 0.11529695766863265
equ@@ 0.06718761612349108
cycl@@ 0.15314207775101885
favor@@ 0.20054154917447178
irc@@ 0.44515155891569447
element 0.26365981107774145
Infra@@ 1
orchest@@ 0.20616989393046048
sod@@ 1
qualif@@ 0.08047427728859016
nav@@ 0.11574419641834505
188@@ 0.6366189675393306
agers 0.2551967017361739
у@@ 1
feder@@ 0.378145408258939
ove 0.17786338058393342
junior 0.18127512086673503
occer 0.1458754150296875
Queensland 0.16832841370706153
eir 0.27793042527614714
eling 0.14370161360048392
Square 0.19321604791420594
abli@@ 1
infra@@ 0.25780804756639786
cast 0.06887883110703753
ives 0.10836165504841382
explo@@ 0.14682962522498463
agog@@ 0.3977497099252731
sted 0.047465391669769756
chor@@ 0.21504806653491176
emy 0.36824811980373007
hus@@ 0.7900139359273097
Water 0.20549917673105378
lor 0.8145422159437167
Swiss 0.17419774989206596
asses 0.21740705580252198
Five 0.2173433090613879
dings 0.18791962501688445
Irish 0.08244328384549984
Louis@@ 0.4570826575397605
Officer 0.24829929061451056
personal 0.08023160298344977
Human 0.1815841954224217
gold 0.07738096924250633
grade 0.11380276969932851
rar@@ 0.2500841581206536
oes 0.13037753147600048
til 0.27022804539843626
if 0.026775073368256293
Bureau 0.18805248426638665
past@@ 0.20037088713904977
school 0.01530375539898416
м@@ 1
abhän@@ 1
ining 0.15558297043645608
wick@@ 0.2220250088897719
ases 0.049307677329022324
uses 0.045216788776530695
Sup@@ 0.933398807211309
super@@ 0.05937246507355825
Athletic 0.2508915130666182
.S. 0.39324627116007543
Langu@@ 0.2540934052324528
å 1
ł 1
pun@@ 0.09172267752800219
hur@@ 0.12655080506020158
jing 0.23916675591184638
vision 0.11275820017995933
milit@@ 0.43427334439044074
What 0.18166652596688176
auß@@ 1
eph@@ 0.17983764410036704
gesam@@ 1
ading 0.0946316487138472
cky 0.30036846470368916
ences 0.03563097241318442
gate 0.16316483820820618
ground 0.044856660870196935
mad 0.3785932837471295
sus@@ 0.1670942900029981
Girls 0.25418180526031103
Professional 0.1827042452713831
femin@@ 0.25671638166604066
sec@@ 0.04020186268017635
Ø@@ 1
ism 0.01996206266128931
that 0.0015049849766613544
Baseball 0.20458784808117558
stages 0.19529782964587838
Doctor 0.20749849018404284
rachen 1
gegrün@@ 1
β 0.7600969130118025
Banglad@@ 0.21725187182822522
igation 0.20696049676117761
Nür@@ 1
gri@@ 0.19135825447285182
nie@@ 0.49446398442565676
He 0.0031096578111108877
Lane 0.24947067799933229
otz 1
wat@@ 0.09348647826241811
desig@@ 0.20314138606994062
diff@@ 0.2102066483084017
ford@@ 0.24337813282032808
mission 0.06400159626713407
temp@@ 0.4522929708033031
ination 0.07510007723360704
menti@@ 0.38760465451952536
″ 1
gest 0.05825000259089311
odes@@ 0.21005396149393207
any@@ 0.12754113702578507
akers 0.165528581160644
relative 0.21842547771236964
Lew@@ 0.8239507654475832
aissance 1
oti@@ 1
Germany 0.042572301883174124
abad 0.16855982528134078
rem 1
cr@@ 0.038847562214793054
tax@@ 0.12129275486565422
κ@@ 1
expl@@ 0.04134752965388288
schließend 1
è 1
stars 0.09938088793581777
Television 0.1557181876189453
That 0.0784699269502178
ories 0.05612221423730917
Ż@@ 1
aming 0.19522904226469626
Cub@@ 0.13245907513117244
ority 0.08685306082217667
Đ@@ 0.5714436646868942
ace@@ 0.14889448943685554
folk 0.13112178642855088
face 0.06438286666304402
nor 0.13857846389218081
Arkansas 0.2331455572700224
Cemetery 0.19369800378794685
less 0.02647629843569349
Colomb@@ 0.18431942203507107
adop@@ 0.19100780612579515
elling 0.07424774487750278
Fam@@ 0.4279922082398448
Summer 0.06404816535914513
life 0.013157506310520813
Asia 0.0968179449965486
Palace 0.20293244090200688
sole 0.21193822430725512
India 0.03266378710061104
Gallery 0.1924273720896649
aim@@ 0.12281852666380325
± 1
Ferdin@@ 1
mbH 1
Three 0.09779194452602134
Congress 0.07696678748270835
Vene@@ 1
bute 0.1353704938777877
cho@@ 0.09793640832586888
iting 0.04501007353814087
Colon@@ 0.30898668245910943
Temple 0.16855045537253377
you 0.05014633703671042
ē@@ 1
187@@ 0.6669488794375492
cou@@ 0.08012685918598839
Writ@@ 0.16552016817226592
lement 0.380019880762561
Repres@@ 1
cent@@ 0.04675571080090239
Forces 0.16948075687897587
m2 0.19583160103711816
Minn@@ 1
situ@@ 0.3990600321849935
♂ 1
cro@@ 0.07979873241129186
ë 0.7127653768775584
esh 0.10494117008756644
hop 0.23367342853865664
oration 0.1331636541470293
mobile 0.20357628888176307
standard 0.07126106017863436
cour@@ 0.07591202794932599
fell 0.10981467150119832
ful 0.039300961312211
radio 0.052350302597939234
stance 0.10427187596402872
For 0.02230572940027123
Youth 0.16580620426209972
prom@@ 0.09562202137228079
sing 0.06548870331216547
Daily 0.22840334797587952
Tay@@ 0.7670204604586746
okrat@@ 1
she@@ 0.09355116743139183
tennis 0.20327059153319108
Security 0.16299745502565174
Slov@@ 0.13911740471146405
outs 0.1496563597298403
stream 0.09719730276914144
.C. 0.13042024645965322
Chic@@ 0.6141892973650275
Police 0.11235461641331307
essing 0.13022074008531473
rd 0.740583738246391
this 0.004872445451687904
Scotland 0.08622883222599945
} 0.4825647278734625
Convention 0.22248805470261176
swe@@ 0.13036409455231157
Exp@@ 0.6558869681614748
œ@@ 1
cc@@ 0.7134223361626468
mile 0.11934822259169513
ň 1
CE 0.1604274261445838
Communic@@ 0.18653588137179855
deleg@@ 0.1734492036304188
prise 0.13482985650363127
Federal 0.10145877547361454
ivalent 1
user 0.16700835821106064
σ@@ 1
Building 0.14916697462039735
Military 0.11603992934429816
change 0.04021748808188685
ships 0.03502995718651209
iny 0.2174376302132419
mult@@ 0.19040041425518628
Hong 0.10577662180523449
Class 0.14736563966853944
Zealand 0.057099525272726
bass 0.17596831938870644
March 0.013696700057882837
impro@@ 0.09320449724690358
ency 0.05814528339863064
Age 0.19015085137614945
Secretary 0.09071489211186877
ush 0.10436253261192263
anni 0.9248089292262889
mental 0.07910479992050766
Earth 0.10063438126065717
God 0.08499946344558738
NCAA 0.1331204034429106
ease 0.14575837919985565
ellow@@ 0.18723167177999478
ultural 0.13587914722183342
sup@@ 0.20582548662018466
189@@ 0.5643305015854649
Works 0.16381722664078296
car 0.04467313922640435
wig@@ 1
edom 0.24864254153915083
ask 0.09123058720312026
ensatz 1
aching 0.10155924017548851
eks 0.20736939875832236
198@@ 1
exper@@ 0.10108413798204674
other@@ 0.16275646784781891
water 0.02159544408786059
ľ@@ 1
ucle@@ 0.3702824244666712
Agency 0.20634755743438365
ubli@@ 1
duc@@ 0.04928715619191544
maj@@ 0.38238213191223175
erc@@ 0.7220110829108154
oring 0.11711497489471896
Children 0.1686684003945589
cover 0.06443642440544423
Sept@@ 1
ization 0.043764672528111136
other 0.005705456295600876
premi@@ 0.18955263352063523
itur 1
new 0.007478956931695478
view@@ 0.10953394069289189
Canadi@@ 0.5386647965746271
Klo@@ 1
Vienna 0.19511029097005442
Battle 0.0606629188058525
Born 0.1022147219314717
former 0.015043224123615851
shop 0.12066049839864194
Ireland 0.049775072919896815
minute 0.10496478630070041
person 0.04825128425019391
works 0.023695033515053896
asing 0.11131734738709974
ples 0.05864894378512972
Justice 0.09591954160401786
idea 0.08097724340182072
nation 0.08745529439600248
utive 1
Government 0.05125839331009845
invol@@ 0.06063226045387373
sell 0.1544616762692699
phot@@ 0.06429244610370148
oral 0.11462558089921333
г@@ 1
forc@@ 0.10077865389191482
benach@@ 1
problem 0.10451113424496962
offer 0.10431508590343819
ishing 0.04433924038977804
ysis 0.3233325493797526
cover@@ 0.1319664305864742
Nazi 0.18983505812217433
Hug@@ 0.8252856158688046
Agric@@ 0.1857409278466746
ect 0.038973039356452535
spi@@ 0.09975892205533901
standards 0.14999936134839356
Weib@@ 1
sug@@ 0.07939674208522243
gun 0.09157816495809187
Großbritann@@ 1
ulture 0.0680807808040532
Victor@@ 0.18516040139073803
anic 0.13188185443975917
revi@@ 0.151189274438194
reser@@ 0.128263693263244
itude 0.10945572789085767
Milit@@ 1
Most 0.054428310624716
odes 0.3733319646085504
tow@@ 0.2452019342567427
very 0.016941410773851334
186@@ 0.6356841236159226
offensive 0.1808029241185516
pool 0.15768976669111084
damal@@ 1
sci@@ 0.15021434814803294
implem@@ 0.10769371405085137
dence 0.09981909526083958
xim@@ 0.24325129312338567
ò@@ 1
Third 0.148189415709233
orial 0.0642537056420135
Dut@@ 0.6104497537886848
amat@@ 0.1685804142191998
vice 0.11716933530545415
196@@ 1
phone 0.1561849770692618
Broo@@ 0.4163356766559397
Liberal 0.14203145759039573
journalist 0.12931418952500656
President 0.02924420980191901
computer 0.0907997446057849
ector 0.17263823677146492
ful@@ 0.15983272158533438
ists 0.02688035641900252
mur@@ 0.10468082525606671
opul@@ 1
aware 0.12779351888116883
б@@ 1
ious 0.06563017587790995
Assembly 0.06203234035199836
Å 1
conc@@ 0.043766121070874464
digital 0.09724640380180025
Asian 0.0722329600793652
inson 0.5059309961401819
amed 0.09458230462644475
saf@@ 0.1115710055732774
197@@ 1
tives 0.17482289597233241
ì 1
jud@@ 0.0935397503454491
Legislative 0.15253644739373162
big@@ 0.11806514737455746
how 0.03525678341462092
liest 1
Imperial 0.15163403377817328
dicine 0.08816735601129588
ç 1
Guard 0.16869617785790683
ilt 0.17302172087990444
leg 0.1399061213283146
ould 0.32112818620047534
Civil 0.07477127067508037
Muh@@ 0.7956614431970275
baller 1
gement 0.14489955161670007
Now 0.16753893375533663
Rail@@ 0.2543541344260645
Round 0.1737564917654738
Like 0.10360686361664173
Program 0.1492775771746739
Over 0.10004667596662709
older 0.043746116200455945
stage 0.03462879991110713
ź 0.9728833722068642
Dall@@ 1
Olympic 0.08489351870563422
clu@@ 0.10557357312340877
press 0.056492007536249
ammen@@ 1
pion@@ 0.1429463789222903
boys 0.10839014418697902
tronic 0.5097772775595094
hall 0.10199827686127973
Middle 0.07909012900453823
seud@@ 0.25981204540311453
~ 0.43354740926093754
Balti@@ 1
С@@ 1
й 1
unic@@ 0.26318546948250404
zing 0.15291265888901967
199@@ 1
ean 0.062379718637833835
cell@@ 0.1435926549376643
Montre@@ 1
coun@@ 0.031030093716524456
order 0.01975945251005883
älfte 1
ь@@ 1
Wash@@ 1
doc@@ 0.03939718936405698
185@@ 0.5598768969611976
And 0.10246331288649041
Mitg@@ 1
rev@@ 0.07652154029187762
Heritage 0.14255196019346514
pping 0.08870419419049415
astern 1
itar 0.5321913319942405
yard 0.05789919199138303
eps 0.14656318344924543
right 0.021843400990866967
Ocean 0.13581050258929775
rant 0.13509069072980764
deo 0.5919180820017714
Prior 0.11563340269266034
service 0.018996112820769784
suff@@ 0.06304992400357808
away 0.029347291442052784
wh@@ 0.03321509599943671
finals 0.06541784085104516
rail@@ 0.08655774373386492
Supreme 0.08350246444066163
Rights 0.15261233071727134
demonstr@@ 0.07317423717930371
Democratic 0.05998039525088768
cid@@ 0.09567403994045075
ered 0.025692742283481815
п@@ 1
Jerus@@ 1
bands 0.11558468471815346
modern 0.033896202385096844
separate 0.06292476486876737
loy@@ 0.3052675021236396
yland 0.5873433035559072
Christop@@ 1
hill 0.11398510418957691
umental 0.15757029590389543
ague 0.15055164997413586
covery 0.12801734251983468
More 0.11096823752789411
fan 0.15947787162461197
ž 1
lay 0.1548674013924915
ḫ@@ 1
ghts 0.07257327895237577
tweit 1
Thro@@ 0.08523017311602489
Also 0.0749642274339878
ufac@@ 0.4204152908958289
Fren@@ 0.7871883408861592
NBC 0.15989052474705626
entry 0.07799932137461339
vot@@ 0.0667438310867052
Æ@@ 1
Singh 0.15628921556948275
camp 0.08182348768242965
Environ@@ 0.14534064233734686
Francis@@ 0.5336083235438354
Season 0.14674632046687525
Upper 0.15793903868105064
owers 0.10039978795097493
vement 0.0653588676100789
owle@@ 0.7144517697723005
istry 0.12839192518637016
Professi@@ 1
Inc. 0.10203162262949193
extra 0.14146318896860996
Arrondiss@@ 1
ead 0.26256406099087565
е 1
administrative 0.06433061047040259
group 0.01198023101179878
bloc@@ 0.09913696622711043
got 0.05694172112615556
ties 0.030293335040007932
shows 0.03946459556073632
π@@ 1
non@@ 0.10118592996050496
normal 0.09981756146110014
albums 0.08141310181453566
bourne 0.41423440469889283
music 0.012799021425181594
и 1
pic@@ 0.05804467589592962
Ó@@ 0.9507297467420828
Defense 0.14792202012287162
voc@@ 0.059416883563635024
ods 0.08139630696881228
rache 1
put 0.028691711559883988
tical 0.04007663164793177
û@@ 1
ific@@ 0.08367239562411959
temporary 0.09718335878045459
open@@ 0.18472834052875226
shore 0.12771748361896054
Amster@@ 1
stadium 0.11701087397095011
tics 0.13282891241861886
ù 1
tain 0.06815990144498525
onic 0.087928047142611
oci@@ 0.2688149841692809
Kent@@ 1
master 0.05884997999702062
senior 0.047188300264544736
đ@@ 0.6832732361034042
original 0.017425856492597647
rägt 1
lion 0.1076480847790353
pie@@ 1
ν 1
cau@@ 0.0789792220227923
ongs 0.17624816998246245
zens 0.2630906365183238
Latin 0.06077435514091525
door 0.06332617822575357
inian 0.16036476356528845
center 0.0349456498103207
date 0.03931824236026085
ält 1
duz@@ 1
elop@@ 0.9617938526549383
Tamil 0.13599426975661968
tradition 0.0850270015342259
♀ 1
я 1
aking 0.056206476548292694
tific@@ 0.08384449944092572
195@@ 1
depart@@ 0.2081196233403121
ability 0.022149634668986923
When 0.01750001875121167
link 0.12431901540379602
missi@@ 0.13834971955848785
otel 1
Dänem@@ 1
bution 0.07926002700458744
orig@@ 0.19544175710671913
From 0.020733793031045278
tial 0.08346278449059404
valu@@ 0.11823708052131729
Sehens@@ 1
pip@@ 0.1301296906677492
ί@@ 1
ices 0.07580102686697585
ligence 0.2110028584291808
oting 0.07909287149714571
sla@@ 0.06870818689301371
acter@@ 0.11573723129221954
leader 0.04144368101595866
ő 1
Engine@@ 0.19271184407931247
ammad 0.37856204195171933
class 0.02390950846179247
eal 0.06454521343407742
generation 0.07873745419549584
software 0.08421411372597484
stic 0.04674692801983687
Affairs 0.10103840932598926
Christmas 0.09951615152015779
jet@@ 0.9456753414948328
sour@@ 0.5745637034978566
ecture 0.09607737603396335
ό@@ 1
Squadron 0.11417291667996043
Ü 1
With 0.023884894373942662
cep@@ 0.13819721472815166
still 0.015883123150714586
ival 0.3043524046434125
supp@@ 0.032685958624896705
they 0.004033901767388088
permanent 0.09201478398049855
struction 0.053091331122208874
won 0.008665636760116904
Foreign 0.10196704111974707
information 0.031236553656043806
embl@@ 0.10148206750058311
ų 1
burgh 0.45266850591540786
chant 0.1282583580413478
Kingdom 0.036138908680255516
NCA@@ 0.679266347009365
males 0.07648365153960614
inal 0.1251220575790805
rug@@ 0.4214936037658121
з@@ 1
sale 0.10834747022332109
cle@@ 0.04004607914397353
ved 0.02542388310879121
pit@@ 0.0539353306783241
Giov@@ 1
ables 0.07384879662169755
fit 0.13171895439069536
gets 0.07321440127904973
materials 0.08333132692720735
Under 0.055777058441709035
amount 0.0583979552354336
held 0.010501351207792267
Vice 0.10677298175590975
ebru@@ 1
world 0.013695013104800965
η@@ 1
Weltkrieg@@ 1
city 0.00901597876859238
edral 0.0818389737602837
ww@@ 0.2560528882234862
Govern@@ 0.2413854960356207
tax 0.07349892718552871
yal 0.14736673229921565
data 0.03600621088259989
medium 0.11839436832231451
span 0.07524639302540002
ḥ@@ 1
camp@@ 0.08558894370896637
γ@@ 1
Apri@@ 1
Austrian 0.1256933523696208
long 0.01201836142070452
Syd@@ 1
ished 0.02448001049463798
ologies 0.1091908386471036
о 1
His 0.009681906968918689
UE@@ 1
imag@@ 0.1303675150127308
ã@@ 1
adv@@ 0.0439729003408723
did 0.01125472018387518
Connec@@ 0.3352220698565256
minor 0.05806085629893861
struc@@ 0.06856154523942638
host 0.04951902237735284
awar@@ 0.13920428907324778
book 0.014641031477063884
document@@ 0.1092421786502453
plans 0.052676222535634275
sav@@ 0.06906070954953385
utions 0.09186863086370188
ř 1
Britain 0.049127491993676366
come 0.028239284333602288
tour 0.03927217417643203
ά@@ 1
igan 0.2972023751681955
Chinese 0.027306938116570076
list 0.02343773149808409
weils 1
‰ 1
lets 0.0929590392755522
ources 0.17495066409946264
pec@@ 0.21421736870845312
point 0.018304653898595397
orting 0.09483814774082136
sac@@ 0.09318238958433757
erwähn@@ 1
mov@@ 0.048380179094659734
aves 0.09807351744338044
ê 0.8875482864806502
If 0.03934989101499556
scape 0.09779346236134975
Welsh 0.12139630934700797
teen 0.03828952614235485
Bezieh@@ 1
destens 1
illustr@@ 0.07446415574737385
ools 0.1198937454870246
attri@@ 0.0838673358460258
prov@@ 0.11263997717083413
back@@ 0.039932700930083824
note 0.11675478988382422
install@@ 0.10684096472136756
pop 0.06700340884578301
sportation 0.07647438348896103
reti@@ 0.12340325863608033
training 0.026952218835065732
singer 0.03972620474848624
δ@@ 1
Production 0.0849934196380508
inary 0.07793569342877249
have 0.0027384621083477254
stry 0.13685793974393118
aders 0.10844926413712418
adron 0.12360845243320447
long@@ 0.09302543972559384
casting 0.0639936033155114
Þ@@ 1
ð 1
thwest 0.1321775422996359
trac@@ 0.06077240505732337
atures 0.07439038618850186
fem@@ 0.7163000015666766
Orig@@ 0.19399952962785158
enrol@@ 0.10403587532964098
night 0.029808669790377905
After 0.006392719981671361
hun@@ 0.11811554598105373
pow@@ 0.07900299809460473
simp@@ 0.20327638751655266
She 0.005475202218361635
cons@@ 0.03047503513520232
ehic@@ 0.44750092386119206
ellite 0.10949849334798492
solo 0.06377722688464904
tual 0.06812988659891027
westen 1
Kaliforn@@ 1
jaz@@ 1
area 0.007438564949392349
ultä@@ 1
room 0.031056867434269365
gir@@ 0.16745083822449158
Janu@@ 1
upon 0.02794905071644492
ection 0.05545287513473065
sprün@@ 1
1st 0.026862037415556338
mort@@ 0.09877475333154372
gefähr 1
klin 1
self 0.03129098891030126
schol@@ 0.03678792012482653
Dutch 0.045506311275621186
Sunday 0.07872455316578184
itions 0.027606665651113346
М@@ 1
Bishop 0.06104412680502962
Republic 0.028810917735881
Political 0.08591719351837174
υ@@ 1
total 0.016090378405208692
ellow 0.22870863759916366
nal 0.17671369808455017
exten@@ 0.12488408551914897
quest@@ 0.041868795996468575
Offic@@ 0.15734570372038112
writ@@ 0.07654189513144102
ility 0.07242732640338945
achers 0.08258567264189971
В@@ 1
Jewish 0.0399093942047834
eval 0.08259720035884661
pilot 0.08405768131468913
ple@@ 0.05563641479882871
standing 0.029732019988664673
cas@@ 0.0664451549574123
fic 0.21635140087007515
wei 0.6893106324238614
aging 0.034746236007868
reserve 0.08847729962336187
ا@@ 0.12494580711177686
Prime 0.06019563955753734
cross 0.048546919494032476
fic@@ 0.07222700173005049
veg@@ 0.9978647742646597
design@@ 0.09005534651429699
ŏ@@ 0.9747467903962259
itte@@ 0.18988484929568494
haupts@@ 1
stead 0.08623444147414373
Febru@@ 1
about 0.004906277847257031
ording 0.2521091599747424
soci@@ 0.045899938904099505
thing 0.03928595429697159
Ř@@ 1
municip@@ 0.14342055100687062
wissen@@ 1
Hekt@@ 1
hion 0.0791249406606393
Deputy 0.10545646507548112
diss@@ 0.059350520657270596
alu@@ 0.10131710568104575
songs 0.02335302168759299
sions 0.04737299119415177
best 0.013528157851875337
ältest@@ 1
Eliz@@ 0.33562165649781617
jec@@ 0.04255561382784214
building 0.010534224336049804
Í@@ 1
Columb@@ 0.5050116704529019
Rome 0.059922500400597
gart 1
fam@@ 0.1510241882200565
ince 0.49640010330307704
repor@@ 0.13264494353675096
Member 0.08317241560364692
There 0.008756729850523644
depend@@ 0.04992730798521933
tracks 0.04333554245054386
Gord@@ 0.8043624796353912
ography 0.02408940179256903
ographic 0.06307398757690766
Ont@@ 1
cies 0.029865079752504343
once 0.021849507982154844
final 0.010136716372803426
elimin@@ 0.07100342104009882
Her 0.02212017319621233
Local 0.09326985766512973
Holy 0.0795327188559663
At 0.008322522222186745
ť@@ 1
place 0.0079568677487208
ź@@ 1
fire 0.023383310394462047
upper 0.05170347342567094
acid 0.09286263946783821
isher@@ 0.1639717420403687
marks 0.07897331990254997
ppi 1
veter@@ 0.09776730642797743
About 0.07800421471567888
rebel@@ 0.09184746880015414
round 0.013438879236775355
far 0.03119422175033574
lay@@ 0.05159422845190206
sli@@ 0.06338660899839663
Chairman 0.10170192639742094
two 0.002326520729811217
ible 0.07830932794527246
ṣ@@ 0.8566732152197873
Virgin@@ 1
earning 0.08876541184695315
fly 0.0644686732123953
gebil@@ 1
ancing 0.05946910335378934
epis@@ 0.3700609620186563
ğ 1
hop@@ 0.0639712884762935
sever@@ 0.052335788158246285
cut@@ 0.0752101095799095
cket 0.071195774970002
gow 1
church 0.01526145133141479
tiful 0.0962459813256225
Americans 0.06180949513192679
Malay@@ 0.13087387000378103
phia 1
К@@ 1
П@@ 1
ы@@ 1
Americ@@ 0.17666387223814087
shall 0.15122289478622408
trav@@ 0.06782268198567708
first 0.0016511820818499807
Only 0.07639147944545693
Tournament 0.07299489362709717
coll@@ 0.10246986232538907
Republican 0.04355110192978378
champ@@ 1
etry 0.21270810367526805
gency 0.06110084269830784
opping 0.07711003204932358
starts 0.07912038652453826
substit@@ 0.07993542245300854
ded 0.012189253078862507
Œ@@ 1
road 0.014817152079981997
simil@@ 0.09424469870089741
value 0.0412308595210113
י@@ 0.6664151944243981
@ 0.4472891504920011
i.@@ 0.9600558530783305
sites 0.04556624641234591
ances 0.04928368471536516
bann@@ 0.07822807097677009
ials 0.15420901603679274
pris@@ 0.0604282365354226
sting 0.03152088878256644
Province 0.034302473955342645
prem@@ 0.08075634364881153
active 0.02007376745470069
uting 0.08801620665686212
eigh@@ 0.04293289099631094
ective 0.07491287073906912
ended 0.01190412807240857
like 0.007859398050407527
Week 0.09094892877035018
falen 1
ч@@ 0.9863175981505756
fare 0.0573440809594151
і@@ 1
gram 0.3472680320733564
promov@@ 1
tou@@ 0.04580895604901547
ct 0.09208334060601375
thern 1
Joach@@ 1
bow@@ 0.07041343473148928
itic 0.048789199584441764
loan 0.06174566752387857
mary 0.06543550897022603
wiegend 1
By 0.014134859736023022
Wels@@ 1
hip 0.031111020263041498
ו@@ 0.604545929124065
Mayor 0.07925598804649397
dates 0.057755096648238836
ules 0.07665028258871204
hio 1
divi@@ 0.11940019483247943
191@@ 0.5264833020776298
sylv@@ 0.9544174531761418
them 0.005153816658184814
Early 0.016032653300547473
Lincol@@ 0.45875844598911814
track 0.019497988151961965
ío 0.9311659035944415
ц@@ 1
› 1
issioner 0.08152716603499123
Ș@@ 0.9624114428856669
cent 0.03710569041925768
clo@@ 0.05883340610804974
four 0.0058368588578607255
kei 0.983756480027758
‹ 1
alley 0.28216734861324927
Ä 1
190@@ 0.24627152876054823
impres@@ 0.059995682203167706
β@@ 0.9068728445074911
Singapore 0.06893929479997418
body 0.01591818549768445
aring 0.0315804745836677
student 0.030193720973510463
foot 0.056597262712598725
ď@@ 1
А@@ 1
keep@@ 0.041923242524802826
lake 0.050624147321118855
Ḫ@@ 1
sas 1
ô 0.9149623205852574
Confeder@@ 0.07093256097937403
Muslim 0.060298335094618634
ʾ@@ 1
extrem@@ 0.06565431492797928
population 0.007330129903390731
rul@@ 0.043935765694370105
Alab@@ 1
most 0.0037809263891886474
broke 0.05183284082133232
ditions 0.06805871691293038
global 0.05943271369299389
Today 0.05556070081775442
ged 0.01578536081482256
least 0.021496973378942734
writing 0.021683068131578935
aper 0.2028412195522632
Ministry 0.04167441635700591
space 0.021677050240356495
Bevölk@@ 1
ports 0.06914201011257154
rather 0.022844941912194324
ything 0.04374116830694426
public 0.00815378019387004
ω@@ 1
ects 0.04498776722274512
comm@@ 0.008979305342390354
hotel 0.0608929852260879
Т@@ 1
fish 0.03506205771572759
force 0.019734858708451448
love 0.02811851198037024
potential 0.040002724694950594
Р@@ 1
craft 0.10977236849791554
dges 0.07584766182862082
bird 0.07988658379978336
sible 0.18855434349553796
ween 0.412219836532638
Kenne@@ 1
2nd 0.024951680196016172
Sehenswür@@ 1
в 0.8505768807511807
enty 0.13994377108330414
ound 0.13903700798773197
exam@@ 0.04769865011429381
racy 0.05286220629895911
tery 0.0426960576857424
etic 0.027628026744833837
ican 0.07183832038739137
igh 0.22678752561976878
Athletics 0.07437780537872468
Palest@@ 0.06553225215451569
yond 0.22069958742613727
ť 1
н 0.8751616857797693
match 0.013081056918623258
Catholic 0.022644524876114454
Other 0.01745384559939968
spok@@ 0.05479412851936973
arre@@ 0.3084955054041082
control@@ 0.0637523418382426
walls 0.056343848988528594
yet 0.03758371608581656
Native 0.05779696831041429
inning 0.06334788241990219
itors 0.032087141522631514
reau 0.39482816468589355
aries 0.021467723359376016
ourney 0.07390110439211629
scrip@@ 0.059984487411641085
Foll@@ 0.7727444576371446
shar@@ 0.025285047849834028
beat 0.0509944221835015
action 0.016567357889391107
year 0.003039437909058821
tian 0.07131323969267447
ã 1
20th 0.03112920174592561
arms 0.041090121984270866
religion 0.058912404037055256
ņ@@ 1
illery 0.04863648725464426
oning 0.06252706636559259
ù@@ 1
June 0.005340073378781762
ezu 1
itting 0.03699786705961546
î 1
led 0.005106035701913865
Б@@ 1
Constit@@ 0.10024790147367976
dependence 0.09461083104185967
Afghan@@ 1
ned 0.013767663747442925
Э@@ 1
engers 0.22019281730776966
good 0.017652100783535424
alty 0.039565342458456686
your 0.06195470841791607
έ@@ 1
ellschaft 1
zona 1
plane 0.05670564874206845
Quebec 0.06544637053010884
contin@@ 0.05538908397441659
atre 1
ì@@ 0.6278283804752492
designated 0.0348886523539396
sian 0.04209472446033337
entary 0.03331553622264441
ject 0.050829630990697566
mist@@ 0.0605694638279662
ṭ@@ 0.5675944916781994
aces 0.06305972784949146
magazine 0.022251308290484426
ainst 0.173945308693619
hood 0.03458012636717452
nin@@ 0.04416357285339885
cru@@ 0.03230838721067286
hockey 0.050283834131087245
elim@@ 0.15113903398863315
lack 0.032394713697131386
ortun@@ 0.6084419839190577
peace 0.05003768374317646
score 0.025912958556452877
Saturday 0.06823597045743433
cra@@ 0.03822291047319794
agent 0.04620610002064396
aling 0.03847707965355442
fans 0.04567423124342791
ipment 0.5010262344966783
king@@ 0.06260181293119504
green 0.03510284250726024
indic@@ 0.0182174559457775
where 0.002612451836952256
θ@@ 1
Н@@ 1
eding 0.025397198046029235
Г@@ 1
cav@@ 0.06721486285291146
deal 0.026800629394088216
3rd 0.02551237352864122
Another 0.028804944300746142
Treat@@ 0.06173186309701761
Kev@@ 1
alism 0.022093327587061624
cham@@ 0.058962428446586425
lights 0.06766060108700467
Д@@ 1
Argentina 0.061940273731557735
® 1
γ 0.7667023988750769
Oly@@ 0.4775347337018609
φ@@ 1
astic 0.04642550637223964
etime 0.05677759374812143
coach 0.01425080496669774
offic@@ 0.2537063661799829
alion 0.040109009415816584
due 0.006253193530515359
istics 0.04632863644323141
jects 0.048307064974159264
ï 1
exc@@ 0.012094799304345226
protein 0.05278721904609805
break 0.026332407835054285
ked 0.010439547825338668
phic 0.05630431072764911
Í 1
iron 0.052367348934595784
onian 0.05298128393083574
player 0.00951877598273373
ů 1
Educ@@ 0.13772255139123038
wins 0.05142645361603321
Infantry 0.05035660263580939
earch 0.2960657478952496
fine 0.056631758081639956
budget 0.059708138384057086
ж@@ 1
each 0.0056003147148933645
itage 0.06801354813418883
rail 0.04792410947342215
weight 0.024762486923973735
uty 0.05650649144613036
ember 0.1556757720417934
river 0.016854722491042067
я@@ 1
girl 0.04470729632306655
iddle 0.3320089922453372
ligh@@ 0.025319691858810355
Pope 0.051338284820868565
χ@@ 1
Л@@ 1
‑ 0.8613662013877946
cian 0.0437274616699295
single 0.006238424612159269
print 0.05523408481227904
fields 0.03619845350391828
ś 1
Δ@@ 0.9323502021691188
apos@@ 0.5460884085125718
issu@@ 0.14755921307950776
allow 0.02202959038327265
poration 0.10230256081228997
≈ 1
stop 0.0300221705841767
Afric@@ 0.23200072099692473
loo@@ 0.030309885040822843
ш@@ 1
child 0.01963176017970605
ə 1
model 0.016877126441551277
ought 0.20782168668403933
т 1
otic 0.04662679254891402
poin@@ 0.0575483835964074
princip@@ 0.059386411142671416
stable 0.05547667403144358
They 0.0046287627448530514
cient 0.10715007787216835
unte@@ 0.12603476592626697
type 0.015585857380329624
using 0.0074608650721874475
х@@ 0.9619408260431802
ample 0.07192346089916603
event 0.010210303575634766
oftware 1
farm 0.04388766084142007
ύ@@ 1
Color@@ 1
Once 0.05165741074305132
campus 0.032904343255978186
Champion@@ 1
Linc@@ 1
banks 0.05714050401781467
Α@@ 1
deter@@ 0.1127130265054708
inners 0.1538058490926269
isol@@ 0.052311933750538005
ouri 0.7036336928379847
Portugu@@ 1
case 0.010386900955369574
liqu@@ 0.05553239518003007
staff 0.021166850710317167
Develop@@ 0.2197229406864031
soll@@ 1
dential 0.10499862354525256
rics 0.1176137623863901
sed 0.018431114384725764
bed 0.015275885327967198
only 0.002394117392553295
asons 0.20687225054697184
ь 1
edge 0.04164177438820388
eless 0.027944595090888803
insula 0.056804231246320065
ollar 0.15870220930411594
appro@@ 0.02139713389459021
requ@@ 0.029829401354958297
semi 0.03081946692737065
bell 0.11376368302207791
made 0.002515764178974575
play@@ 0.02390659732752753
emor@@ 0.05670884052080081
forming 0.035491651427319026
cell 0.030238944636016046
later 0.0025643183202087097
she 0.0019287213552094033
shot 0.019663803599519705
ē 1
Some 0.011985814118408577
Rural 0.04848074527067184
ditional 0.06451936045736355
ground@@ 0.10540437697824363
habit@@ 0.10194060984277283
word 0.017221926068528647
א@@ 0.7836936364755952
prior 0.02355039323246338
Arab 0.04506085691657837
call@@ 0.21837184505726437
Secret@@ 0.22117511371159465
base 0.01628203719682873
acqu@@ 0.02706147866750228
ר@@ 0.6705512492871244
But 0.022027790359545617
Plot 0.03729502833441226
laun@@ 0.09367982358276399
color 0.026795031726594188
ι 0.9948399834934941
days 0.00818579796816504
party 0.009146339904348448
icide 0.048325161886481297
sho@@ 0.022516036478710758
tac@@ 0.030106547209657285
5th 0.027112217908108333
ivers@@ 0.8413803490960461
prises 0.053702414640605725
rence 0.3640504902049695
through 0.0029983166325498168
þ@@ 1
lic 0.047691086208111876
some 0.0029135868793912826
Before 0.02950217728734858
visions 0.0619135321202008
Minnes@@ 1
analysis 0.02943943691748994
batt@@ 0.0195044465412702
cue 0.05339122997732249
dance 0.029631184222738353
public@@ 0.0594030625540466
к 1
estab@@ 1
power 0.0077994182910607725
race 0.010099047106282528
store 0.02995131915995583
ل@@ 0.10943642861455169
sets 0.032348872517900806
street 0.02811171424825338
birds 0.03797594482984216
just 0.0074229816512652496
plays 0.013912463059524854
tly 0.01770399145376899
aked 0.029604624550753498
determin@@ 0.061139529369876475
tural 0.03031996342707871
work@@ 0.0310987296109934
О@@ 1
nament 0.9216204148369311
thir@@ 0.02690072890947455
arian 0.05017689753916011
micro@@ 0.03235002132106251
`@@ 0.2624271410393457
mix@@ 0.045125899302344015
orary 0.05220324848632146
ething 0.27613055352083626
flow 0.03745282206179281
letter 0.025183073615751336
market 0.014315446346611952
् 3.889578331732666e-05
Ḥ@@ 0.8602779836406574
ened 0.013347712502790567
heads 0.046616969269737754
ishment 0.054765104996452166
people 0.003151124801328977
й@@ 1
ored 0.01428543213178961
read 0.03291927925915212
who 0.0010842095585808186
Islamic 0.0410790167618792
mathemati@@ 0.03559946530876128
р 0.8853349692520205
hit 0.015762322423265022
maximum 0.03644005778954272
ț 1
4th 0.021301586717370025
done 0.0209320307200491
wr@@ 0.06865077853495054
anese 0.050975659785780794
ähr 1
eign 0.11002432907470629
whe@@ 0.023853730735957198
laws 0.02912179387280513
matter 0.0371111936513649
riage 0.07356807602225816
yed 0.02275184678940721
ạ@@ 0.39934376481284684
gery 0.045172530559233925
metal 0.026699454681909447
nur@@ 0.04371653126002193
their 0.0009856873771701537
winter 0.033546318875407495
Ā@@ 0.40469173444826795
ǧ@@ 1
ece 0.40105713076230454
η 0.8518495785320715
ա@@ 0.7421861845141496
erve 0.07245243380672546
opposition 0.030614481694206188
table 0.020514476281373456
train 0.02069936276775123
ywood 0.14059637133110958
promot@@ 0.02856706620917396
season 0.0020147902845978755
sound 0.021014293077291166
ơ@@ 0.42191938366909104
Benj@@ 1
Spain 0.018748440607573486
down@@ 0.01843204780531888
may 0.0033027465766626895
piano 0.045451008005619575
¹ 1
Governor 0.022377246311541855
Jimm@@ 0.6277127157036069
ending 0.007353397095569409
journal 0.04310839225651806
theast 0.05554785486988896
tree 0.028048625410281268
ilton 0.4888957420658695
Greek 0.016345395189249174
Queens@@ 0.5016058217949205
^ 0.3347592519524018
funding 0.035996852483968694
igher 0.09078053489544959
plac@@ 0.028971622927178337
sett@@ 0.018868431032477394
forts 0.16811434461832933
job 0.02598586539577556
rated 0.010240634840133272
there 0.0025224654202439835
counter 0.04007109774607427
gether 0.06823815596950525
rical 0.01998632759389576
7th 0.025992624598890755
Russian 0.010851201484152305
business 0.009018623872651517
eties 0.042612655192730005
heart 0.02617727519858898
intro@@ 0.041096857306178056
ל@@ 0.6979027396836481
anding 0.02828675954606916
cians 0.07519361613482618
ication 0.020431416915708725
Κ@@ 1
ized 0.007933052337734598
་ 0.47641562754105526
care 0.016208182216708354
airs 0.017089019713865453
many 0.002727486304517341
passes 0.036859688200138865
Braz@@ 0.04128213915684098
apart@@ 0.04386714598185892
dry 0.04072532584207377
estic 0.18455841429898223
lea@@ 0.05393668556504733
urban 0.02569462733325972
Afgh@@ 0.12280656730544422
details 0.04293494383943551
double 0.020881466747497912
proc@@ 0.013076575761797627
which 0.0005924687177559565
eye 0.04111584996350549
session 0.0378602817776777
with@@ 0.018766356597763007
ʾ 1
σ 0.699353709659626
toral 0.023721746295065863
vac@@ 0.03332397391310661
מ@@ 0.5529059345174627
abinet 0.03498104334773696
dership 0.10234881327199204
observ@@ 0.037167632428348356
Π@@ 1
relation@@ 0.05919882177276501
tered 0.019513946402833757
ệ@@ 0.3772696304547859
Sov@@ 0.1558532229023264
ased 0.012460597899190318
ayed 0.0253355471758003
suit 0.033846821454331905
ż 1
中@@ 0.6421288899927726
大@@ 0.5538512836472502
6th 0.023829082980978463
Spanish 0.01156807359096335
ified 0.02241696214587569
Barcel@@ 1
classi@@ 0.013301732011037962
fication 0.0239193216443357
fiel@@ 0.034413323914743194
speed 0.01850319644244746
Ε@@ 1
ر@@ 0.14316348406575385
ically 0.008440927495955649
iness 0.052990095786790974
istic 0.017576701467591455
return 0.010204809724932911
ults 0.025586259106645567
ч 0.709471306915568
Senate 0.019677566450889635
Swedish 0.02499279075091364
level 0.007042265181965914
nership 0.03430313211008905
spring 0.02350763713888846
angle 0.04123070589073033
educ@@ 0.04360964316051994
prominent 0.020859839561554707
what 0.005432435443603574
æ 0.6475760716471
Norwegian 0.03316082104205101
Between 0.027144223058303368
crew 0.022895888978541206
ined 0.01701217636192353
lost 0.007367260226048362
ש@@ 0.6837570348482112
risis 0.03358754230225832
И@@ 0.9645415596317493
学@@ 1
cut 0.01884586497419615
elev@@ 0.02248687208333735
requi@@ 0.01900539035181922
Ə@@ 1
corpor@@ 0.034611900354033505
disp@@ 0.025170576277081684
agues 0.03502613477330261
cars 0.02181065917002647
kill@@ 0.04006912468472828
ploy@@ 0.11089496791515269
rough@@ 0.03714921675713695
sub 0.039660020880785844
torate 0.03553153635725132
ʿ 1
Italian 0.010911460334535586
anian 0.02715558925361864
free 0.008891762104812996
told 0.018584204209585457
Ľ@@ 1
ễ@@ 0.43778101463409447
Egyp@@ 0.04334152104492618
oil 0.017634859411669337
Σ@@ 1
ancest@@ 0.03748959157704939
ected 0.018137059247282334
incorporated 0.02188124894299897
ricts 0.19227335086051076
story 0.007360891244531263
ư@@ 0.29233819152340024
Background 0.023356994914308937
duction 0.0329759206687818
spot 0.034166868176203395
λ 0.6026000647825271
Japanese 0.008834870231910857
utenant 0.05021640060759925
⚭ 1
beau@@ 0.02876269332637824
enth 0.017964149304675495
ή@@ 1
crit@@ 0.04489748476159827
game 0.0031067140709915317
onto 0.029476692681752396
erstör@@ 1
inclu@@ 0.0635847287250718
step 0.035711853697136565
take 0.00638064381314716
ternal 0.03023807099370081
Ć@@ 0.9055941056987189
9th 0.024470063386498347
administration 0.01980586482186761
investig@@ 0.02006932076165378
¼ 0.8980679725861127
Czech 0.037441199217744
comes 0.018002254002392054
limited 0.013813812235706905
mind 0.03572544124434453
parts 0.010167765583455616
pick@@ 0.03206699559513117
ährend 1
́ 0.46254382906850283
home 0.0037423991221780324
jazz 0.03751152330054558
when 0.0015239732878708507
chain 0.03408159287894321
dated 0.020112171719793907
legisl@@ 0.016268104124841743
ospital 1
simple 0.028719301849629522
192@@ 0.5124824313320537
8th 0.023607007919610245
Brookl@@ 0.6704757197478941
been 0.00100998508389505
boat 0.024076995797068294
glass 0.029604624550753498
pub@@ 0.23066276989544307
ulty 0.017964988742377282
caus@@ 0.2036482112590398
gesamt 1
stral@@ 1
election 0.0043911922116750155
hund@@ 0.046359105262725464
opin@@ 0.031212632957931002
structure 0.008732436642951369
â 0.9956342216190022
cann@@ 0.04736183632892362
erous 0.031359791207649895
musical 0.014462742925058862
problems 0.017356281430873175
thesis 0.026856097405746352
Ž 1
conf@@ 0.020891774962786713
З@@ 1
υ 1
و@@ 0.14506421598048672
aded 0.018732948496798567
kill 0.031957757887459616
pay@@ 0.025340438958265786
screen 0.028761982098713657
cil 0.28285525693328817
full 0.006649003121400418
rights 0.009649411958947314
saw 0.00861095982983093
ļ@@ 1
ы 0.9465127454330249
国@@ 1
tains 0.022254368549955803
unit 0.012938749869872156
woo@@ 0.030905890772055335
ה 0.9415047414889348
aths 0.03153065641114609
high 0.003283393314337204
ф@@ 1
ב@@ 0.5671128735480383
Russia 0.012477216293035514
ference 0.04115073789265352
hospital 0.017537225670475148
ishes 0.018185246426045104
wth 0.22935713157528015
young 0.008269057497017005
ą 1
Infan@@ 0.711210207177616
coh@@ 0.024970205539073673
hält@@ 1
special 0.009278315955812657
went 0.004725556866983046
ǎ@@ 0.8281214741109227
Parliament 0.013713329992643514
drive 0.02368101431774143
rele@@ 0.02901488495729062
key@@ 0.044361515649401786
writers 0.027640084629255192
м 0.9925198854007238
Pitts@@ 0.46102752587629253
scienti@@ 0.04630015635503444
م@@ 0.10262735261094345
abeth 1
continu@@ 0.013556994689287687
food 0.012486573828192297
ldwide 0.24215262469064422
נ@@ 0.6242298530943521
Moscow 0.025716037303896808
groups 0.008376091184924772
moun@@ 0.012715561005964
near 0.004604047303302257
scre@@ 0.016573402739740204
У@@ 1
ָ@@ 1
Puer@@ 0.8730184188953148
bility 0.010482479223295
bott@@ 0.056623653500470564
sign 0.017952039918970642
Represent@@ 0.056009111033831695
ÿ 1
Μ@@ 1
ḍ@@ 0.6356881071981882
Korean 0.021236897209943952
actions 0.013179603406923172
ced 0.012110278381759284
editor 0.015990790586475626
iversary 0.02814192412177708
opportun@@ 0.044542695072223595
poss@@ 0.017812962596637616
umes 0.026519344131720468
chang@@ 0.0348293216011691
conqu@@ 0.033000669799988794
fuel 0.027739981813061844
imming 0.03348583248554903
º 0.6648776565772307
rement 0.03189355551398695
rural 0.015712362971995766
urch 1
Ț@@ 1
ε 0.5551955828794037
econom@@ 0.0242958541947342
inking 0.027487731582899064
δ 0.6016759024256795
ְ@@ 1
Austri@@ 0.40093333703457334
argu@@ 0.0319297376570883
coming 0.012187474511560815
fied 0.00895656521913492
の@@ 0.9344066201962782
scri@@ 0.03761407278870534
white 0.007474046311771669
ω 0.6210478261273255
fleet 0.02615707712448032
owing 0.021153911038111328
theory 0.013530614687855458
week 0.009759080645709484
ˈ@@ 0.4685790860140132
alth 0.2604983997646856
chest@@ 0.21469095169012253
natural 0.011005157495878203
attle 0.043595430426261954
section 0.007552069947687839
↑ 1
interview 0.02094733921019382
oured 0.025301412252616867
Ó 0.25386237796585176
acking 0.031394199325622645
chap@@ 0.013640184209901535
storm 0.02741570810236803
ả@@ 0.2929984804175225
books 0.008951925855336529
known 0.0015351189234738914
direc@@ 0.013995437368737136
states 0.00832508646075192
ÿ@@ 1
census 0.008942580652573182
look 0.020999471083741353
miles 0.017673559306029495
‐ 0.6418041940803345
Build@@ 0.1660604144921467
Constitution 0.030819544596184616
Switzerland 0.026039539451652924
britann@@ 1
ergy 0.0780423120122433
erial 0.04004802853259854
swit@@ 0.021876528575153938
colon@@ 0.01236126227460693
frame 0.028828920730294996
human 0.00801652240342306
late 0.003986603083197152
municipal 0.02693657585091168
too 0.010080858022566851
ή 1
ailing 0.03149376440206663
black 0.007918472822644839
second 0.0017613985782229538
serve 0.012408097507936863
alists 0.01959470108734205
estim@@ 0.031074924919049285
history 0.0038498287043278482
assador 0.03089447832255005
extensive 0.02285070430739903
transl@@ 0.011358537228824081
woman 0.009755769406928329
Ω 0.7068950873326333
ي@@ 0.13356501007441784
bill 0.024106462781182055
ched 0.008176421990909283
ented 0.006686526796813659
visible 0.03080090479439026
want 0.023653655554505403
镇 1
itable 0.019372508035209967
onent 0.02117780986759331
trip 0.03097554379124214
quarters 0.03994238757836859
ה@@ 0.4144428629828692
Egypt 0.024800930292344734
essee 1
news 0.013511090333988939
oned 0.010457791749247105
chart 0.014531599085240878
faces 0.028346952616357786
щ@@ 1
Illin@@ 0.5276639089692589
soft 0.045868032453979156
wave 0.026456491797770754
Due 0.019499218026297144
tower 0.018739627661756426
Emperor 0.019233136176236027
insi@@ 0.024860869560465314
photograph@@ 0.020952276373729734
releg@@ 0.029706568850170697
staur@@ 1
ώ@@ 1
Ф@@ 1
ע@@ 0.7256266302960813
function 0.01355339101417991
make 0.004356576180142356
Σ 1
Norway 0.02219697576723491
bring 0.019962716828794493
civi@@ 0.045803449054966854
ised 0.004779646731826124
ittle 0.33065579861072847
little 0.009292693261843643
mill 0.02701196468539793
would 0.0011356513990758753
Ч@@ 1
д 1
会 1
graduate 0.015010022994437582
roads 0.020254337383762075
Found@@ 0.2218730800495428
Then 0.02256248089747582
cident 0.024486056750720537
civil 0.012354815285680559
portra@@ 0.010766072018989414
report 0.011168454273593587
scheduled 0.019902847247037916
theastern 0.02671237137813208
Polish 0.013815608361217443
Turkish 0.02118270599328411
chur@@ 0.09268334059907554
eals 0.023612348217458123
fellow 0.014646941307352562
image 0.018790370056468744
blue 0.018027956745371353
bound 0.02205864865736604
figh@@ 0.01785304344989535
know 0.018506777586572504
ד@@ 0.838619067540217
Denmark 0.027377573852317313
aining 0.017562827305652843
mass 0.015662879273918743
ּ@@ 1
services 0.005864696156545888
lower 0.008396590914990568
wide 0.007185978635482074
colle@@ 0.015173682952944096
course 0.008654592775133084
placed 0.006659905075216239
social 0.005635382618225874
song@@ 0.023100971815800828
three 0.0012266519783984864
¾ 1
х 1
│ 0.2678772574803183
Croati@@ 0.02352390591554846
cycle 0.0192542575880736
director 0.005487524038655696
science 0.01037431056845918
size 0.007227761439175744
trade 0.010020944313950578
ю@@ 1
с 1
ִ@@ 1
د@@ 0.17027682763602997
common 0.005359787426702219
eness 0.019506681740914508
gian 0.04635782216865496
performance 0.006394125702170736
у 0.9250168515806999
ъ@@ 1
,000 0.0027817749216104415
aged 0.006682010411911973
commer@@ 0.026651465549758734
susp@@ 0.013635208789220204
tells 0.017518215322718543
vely 0.013287793990089808
yards 0.013150178132817091
ţ@@ 0.26296465680387787
ن@@ 0.12509789444012767
along 0.0027037834449843545
used 0.0011480164663058951
ġ@@ 1
Philadel@@ 1
conom@@ 1
fiction 0.0188698480866846
term 0.005045076761834444
times 0.004535565423015937
Â@@ 1
ſ@@ 1
ο 1
ب@@ 0.10946870621287902
ircul@@ 0.16446815601816359
points 0.004994479297589534
∞ 0.7624686004877146
Communist 0.02364475152552986
Israeli 0.022145520713873882
approxim@@ 0.06493630104696703
hous@@ 0.10444052777348148
movie 0.01155631291907511
page 0.02162373127983349
sold 0.005529105972818182
ured 0.01190065884134304
0s 0.004971651893161752
alone 0.01442532964215534
based 0.002000545184100944
control 0.005058603292634462
pose 0.022553828089091663
provi@@ 0.040642929706238756
working 0.004640217415581798
È@@ 1
chall@@ 0.024112611582655936
dical 0.031087005821986168
Č 1
bronze 0.01847425055259876
diction 0.022183197578419793
essed 0.012667304093874907
without 0.004308534171293442
É 0.1801436803350095
π 0.31814053734635633
dead 0.015752508781109252
eup 0.020724315095275777
happ@@ 0.010979616469626025
liamentary 0.01904683467260489
mean@@ 0.03139564566788541
never 0.005502989697206241
pair 0.01754114025625512
runs 0.0076937089931096
↔ 1
between 0.0010827895917679042
eball 0.757992268195223
native 0.010235559670412741
while 0.0013920594620853502
À 1
clos@@ 0.008118965625109506
designs 0.023186430762402694
izes 0.022716305890392596
next 0.0037342013809483566
weather 0.02213618517544978
words 0.010775531124401095
ű@@ 1
ј@@ 1
Italy 0.00821903157482463
Many 0.008346673240150131
Upon 0.018786492891334806
л 1
ḥ 0.7931365469705768
both 0.0015116352174157238
comb@@ 0.022405175510994097
ocese 0.01706634091255463
olic 0.02813383781401342
turn 0.009502757953009576
ŭ@@ 0.6381064553013044
Λ@@ 1
Danish 0.022026572217718015
Sweden 0.015356953922736059
elements 0.011137648120341102
utional 0.017632370104970804
water@@ 0.01748661633860385
г 1
associ@@ 0.015440052438779656
country 0.003193384764252569
icient 0.01414949969722416
possible 0.006150295494743763
tified 0.023544199259961065
years 0.000931605996236045
் 0.15819926744813123
orders 0.014607718902586938
royal 0.018541356689133502
tings 0.15370045924033895
Ø 1
ַ@@ 1
behavi@@ 0.012184470094686652
father 0.0028166986949843997
girls 0.01649670630299761
league 0.004782178832552861
quick@@ 0.18196134980150958
scale 0.012556090580283483
û 1
ʼ@@ 0.09061275767123124
日@@ 0.9172554592333407
guar@@ 0.02248064669742647
Β@@ 1
Californ@@ 0.24559953100332207
crete 0.0211427697697171
friend 0.00771028321686094
ק@@ 0.7635470567826051
pped 0.0076480004221183605
themati@@ 0.9618202291866587
wings 0.01703948929701156
Ṣ@@ 1
Their 0.00887199107146116
around 0.002164672597385518
during 0.0009275011770145175
icro@@ 0.28935558666273137
soon 0.006963777495580363
subur@@ 0.015858417258787914
ynasty 0.01621629170174024
Τ@@ 0.8376924166368577
Brazil 0.01346910738188743
Turkey 0.01705027658596458
handen 1
rese@@ 0.6926969510684965
ρ 0.674059364941093
ת 0.8038248041810894
Einwoh@@ 1
against 0.0012754598624672053
contem@@ 0.08673349787686624
deli@@ 0.013130785103318313
formed 0.0031827106957250675
Ι@@ 1
山@@ 0.6930611597788661
award 0.00795931779506648
foc@@ 0.015764869284133707
govern@@ 0.009708871381256076
perc@@ 0.014670347668161372
rule 0.010729410164394066
ṯ@@ 1
Scott@@ 1
community 0.003341260129037321
immig@@ 0.012796675812381223
million 0.00269091725260815
short 0.0039022783231678314
utionary 0.01768043131565715
ː@@ 0.520974986810111
again 0.002933240649864215
azine 0.37587275197988
desc@@ 0.014481173995831289
erly 0.12316373706641229
≤ 0.45913570336782805
izing 0.013004684626883697
laid 0.016018247909405765
sent 0.004947857573723327
¡ 0.5134992615529506
Ν@@ 1
Х@@ 1
ё@@ 1
天@@ 0.6170806576601982
本@@ 1
Ire@@ 0.7498563379232561
While 0.0040982828272183485
actor 0.00879895653442556
portion 0.01162662838301115
Ñ@@ 0.9825703738304734
─ 0.7959368950023388
Exec@@ 0.2273198312013062
blood 0.01383569687111743
direct 0.008982286534487856
language 0.0037956929143075245
true 0.012631139511096201
À@@ 1
Edin@@ 0.863324235472862
Hungarian 0.019886040970653156
Mississi@@ 0.5616808278980066
Philippines 0.01602779350751818
bottom 0.019723385438810272
five 0.0021949954666196404
giving 0.010167092624789447
places 0.009796072434447268
transfer 0.014576188238311999
新@@ 0.8226972126270802
Career 0.005806363134573637
call 0.00992346634559491
conv@@ 0.0070341390626590915
esian 0.019745110035228178
hosts 0.020938708949251338
quality 0.00902203797077529
think 0.017412521945104453
Е@@ 1
ո@@ 0.7697302062066451
ầ@@ 0.2844998708771994
ἀ@@ 1
Cze@@ 0.042622468350244906
Mexican 0.014567917215559773
Oreg@@ 0.7111106118538271
better 0.0075042018747765666
cred@@ 0.018951166540705413
cross@@ 0.007370802797410774
culture 0.006842033405842197
local 0.0020937672289094967
sponsor@@ 0.0165155653535245
thre@@ 0.008653489791159433
website 0.011055610446897745
ם 0.47820330344177214
anded 0.00762236509242913
path 0.01986805890943892
Š 1
chose 0.01793395098294573
contr@@ 0.0642932999183255
deep 0.012973900937551661
engineering 0.014576674970655434
produc@@ 0.00704980730109303
small 0.002305587485297443
stations 0.008253949483721022
takes 0.0081678195734377
transm@@ 0.015115097117881846
י 0.6535445147037553
alled 0.017407374461361286
compar@@ 0.011209271985838749
succ@@ 0.009696929303917818
those 0.00243374675525394
threat@@ 0.01506305287533229
ל 0.6733488939372024
multiple 0.0080282164905229
must 0.005191552635579794
wise 0.012423865233404722
μ 0.3815491097403427
ր@@ 1
ن 0.11264163137385544
Bronzem@@ 1
flight 0.010455039428951452
great 0.00459918729559293
publ@@ 0.007518487370765089
script 0.01824778765053065
ά 1
ן 0.5401194336394672
pain@@ 0.009674178671601641
six 0.002675636621205127
zed 0.006213772576775201
being 0.0010276846449242326
death 0.002253443193335023
display 0.015462907397626274
grew 0.008994784416960609
much 0.0027566222966759067
partic@@ 0.02271988735046755
things 0.012976874164921085
Ο@@ 0.9149623205852574
Description 0.013767796270227877
before 0.0011339662804651551
comic 0.01802753246872295
gath@@ 0.016357584292675593
ician 0.03266880593984244
ĸ 1
ị 0.5763074356933116
文@@ 0.6307842579727788
inces 0.01726479730642832
issue 0.005723172032981574
nucle@@ 0.029990570464417072
prec@@ 0.007076502753390538
rare 0.01593403769182489
Φ@@ 0.6894535539731924
ח@@ 0.4771123453350609
村 0.36690218369333627
Netherlands 0.011896288349656399
ampion@@ 1
connec@@ 0.006705554476385869
friends 0.00869379386639456
liam@@ 0.0859926993031257
≥ 0.40846532168984706
人@@ 0.7571552304494725
Chair@@ 0.13211437501538278
alities 0.009602686108972722
coast 0.009151375596924326
studies 0.005875119244694975
title 0.0025535980206651977
س@@ 0.09606440091032524
ー@@ 0.39005196433113015
Poland 0.007713641711713845
compl@@ 0.007818825479828808
head@@ 0.009755961455449316
number 0.0012295606058312276
ǐ 1
Both 0.007786337134517675
activ@@ 0.007376982436997177
camer@@ 0.014654178735741041
ength 0.08657465133584663
events 0.0037915307953553723
nature 0.00841689582875978
office 0.0035148098882147425
ξ@@ 1
could 0.0017504282681316734
elor 0.02868220440706136
holding 0.013409819805646388
series 0.0012057283494787984
species 0.0017840070444720272
ǔ 0.9515608134086677
ained 0.005293525295715068
different 0.0023100247942400777
roit 1
source 0.00722858625087108
uries 0.021138906135970522
ª 1
פ@@ 0.5852637445108256
ồ@@ 0.4014949237087917
July 0.0013163031514677852
addition 0.003383680151753009
iled 0.01733178242211985
illed 0.022120350564226746
opera 0.01511380065184727
prac@@ 0.008564449946055248
production 0.0026336493087606903
towns 0.012362478599072099
φ 0.40114111592161533
‎ 0.16202078498226802
民@@ 0.9614125918782516
basketball 0.006881062131362822
cipl@@ 0.148801855870454
colum@@ 0.010412223643329494
expansion 0.01219506303942546
need 0.007064478232886681
touch@@ 0.0117876444545871
winner 0.008993966266937284
і 1
benef@@ 0.008264899015804449
feet 0.01051666933861587
ously 0.004326627308848054
ready 0.021054757555721795
Γ@@ 0.8486324295406972
Ц@@ 1
ḫ 1
西@@ 0.8614904966549501
constit@@ 0.006799930828688278
education 0.0030489762539070713
ologist 0.009242694994988152
pay 0.009255632484894681
research 0.003057268726312171
whi@@ 0.029659539981278606
ե@@ 0.8992772522323672
ر 0.16127640821957806
Iraq 0.016195709548052245
engine 0.006377874138900023
family 0.0010128039481087931
football 0.001992442299408888
found@@ 0.02035591196402316
give 0.0063574369134606545
profit 0.013709596187023495
wish 0.03653487915147596
women 0.0020581791278345787
ζ@@ 0.9745839254354246
ت@@ 0.14657330804701635
Olympics 0.005158834678862514
early 0.0012038977902437597
forest 0.01016436571655535
games 0.00218873053325554
guns 0.01224166333707558
location 0.005392705229382656
meters 0.013630723584137912
paid 0.008940999875425968
Ш@@ 1
ר 0.5489773923511544
Ṭ@@ 0.980316772055633
ṭ 1
Belgium 0.016022506194184518
cells 0.009932105597438743
development 0.0024078032146131207
genus 0.005406847218580782
rements 0.012467063829099448
schools 0.003966668718128825
tainment 0.02059775763068604
ἐ@@ 1
₂ 1
October 0.0012078535493809332
conserv@@ 0.009106312694257932
does 0.003892547681547698
east 0.002721166355524928
leading 0.0036626901005165522
onents 0.009472496722175507
promotion 0.010480228846329898
round@@ 0.010585807448041074
ɛ@@ 0.6740962290026156
ת@@ 0.6124645737795192
ی@@ 0.11791122157471493
美@@ 1
高@@ 0.7766760899377961
artist 0.00500421663666911
machine 0.011253636413903948
study 0.0037131908737070237
sylvania 0.10121817531740762
ֵ@@ 1
ֹ@@ 1
ṇ@@ 0.1460333950096667
三@@ 0.5661722533797239
京@@ 1
学 1
東@@ 0.6965408643553183
Greece 0.013419805230056576
Jews 0.012008167472737809
chair 0.013251441180154713
clin@@ 0.011117065952859967
descri@@ 0.005904744613055556
disc@@ 0.004470017627179107
factor 0.0152786561006138
gely 0.10477667570400886
going 0.005200016030265098
member 0.0013940238412046347
ę 1
科@@ 1
術@@ 1
Biography 0.006740651042704702
deci@@ 0.008928666954015852
eight 0.0034187535863856888
electric 0.009973923821423099
secre@@ 0.0191754936533321
Δ 0.41304013329277334
Among 0.00963183224315407
Thomp@@ 1
begin 0.01061346494834331
record 0.002071077747857595
ֶ@@ 1
architecture 0.010653737193223068
artic@@ 0.05009748893199518
channel 0.007063858454827226
chief 0.005609198866654312
consi@@ 0.006151947143299408
eled 0.012174410942830326
energy 0.005863776233067951
foot@@ 0.011551228654238301
large 0.0016466657166011407
ا 0.22316154160616036
ع@@ 0.10354511858475135
allery 0.025695490490163165
chosen 0.010001889471906042
correc@@ 0.012007586877187334
leav@@ 0.12233838206277192
otball 1
ķ@@ 1
ն 0.983552140940305
‒ 1
collec@@ 0.004657529323715474
discipl@@ 0.013534678614602138
find 0.005225290613803278
forms 0.003019797221623488
goes 0.00933457219630197
ingly 0.005701173434461372
money 0.005010307533760773
ounded 0.00718128175266012
pre 0.0067884272007176305
six@@ 0.014446165223336766
there@@ 0.01145899207546035
Ď@@ 1
ג@@ 0.759935482213669
公@@ 0.5507397595818162
acts 0.00710792094181039
actu@@ 0.01282989629608115
fight 0.00585712656995009
island 0.00452216504633951
learning 0.010645453244128966
risk 0.009399862796516598
role 0.0019968741107427184
tary 0.036376302435560656
ǐ@@ 1
ό 1
э@@ 0.628081741403609
寺 1
研@@ 1
Common@@ 0.6864568283938725
agric@@ 0.017186148981763016
leaders 0.007323470653676281
less@@ 0.011957080093577478
multi 0.011300035427137409
rants 0.012742721574084973
sched@@ 0.019034011399710407
week@@ 0.0067840383325096535
כ@@ 0.4700369416095974
ش@@ 0.15823797536774176
№ 0.3533981449879566
校 1
Representatives 0.011383864777711474
cultural 0.006007686569890889
drug 0.010483503410642839
horse 0.010819775824021702
really 0.0125480546823121
should 0.0032447390055627074
ucky 0.46132553979088614
ъ 0.9506102032054623
ס@@ 0.5994293638047182
ḏ@@ 1
ẓ@@ 1
一@@ 0.5738439641301266
central 0.0035326730524527315
conduc@@ 0.006095856613763351
curr@@ 0.01583674421295789
featuring 0.007425453759636202
joint 0.009553564040347256
names 0.0054628750346087385
release 0.0026495552186356778
scene 0.0069755953914561976
summer 0.0043496119745000585
ught 0.04005322446609117
安@@ 0.806985400764637
工@@ 1
advoc@@ 0.009242043642275329
amoun@@ 0.018114478728672688
aying 0.011424176808406261
break@@ 0.012312775139082995
estate 0.007554180321872997
found 0.001068756360921922
near@@ 0.01598466667689129
poet 0.011444181620828735
positions 0.005645476155891019
review 0.006288400828764656
stores 0.012479027831222825
villages 0.008689100860258855
ː 0.6266865209488064
北@@ 0.6931532731706496
山 0.7148143129572324
allows 0.008191566124352246
because 0.0014789469520369656
cow 0.08199013002647113
government 0.0011777422109367993
project 0.002810418591789543
reading 0.0120638233051255
sculp@@ 0.008172267400246305
square 0.0057732136108768544
zös@@ 1
õ 1
ħ@@ 0.506680578815271
ĩ@@ 0.42743669682046553
Later 0.003958406252770585
academ@@ 0.012847940734274461
citi@@ 0.013462898212619012
college 0.00349200699327037
company 0.0012280428036490975
construc@@ 0.01192087634116292
future 0.00442133283588075
iring 0.012002978257894764
offers 0.007696082258179126
political 0.00208751124993449
something 0.008935563888580548
ṣ 1
ῖ@@ 1
Descri@@ 0.08908948623632065
Nether@@ 0.1658616760801197
` 0.26863486187209573
crimin@@ 0.011061635085297868
enough 0.005955049977580798
every 0.002609893159597771
fif@@ 0.009339337204895298
owner 0.006374187711645914
plot 0.01248929905452128
rooms 0.008697483858407311
räsent@@ 1
said 0.0013969304201608397
scription 0.012597089322540738
together 0.002290739340055015
з 0.8108793052805853
ế 0.3420897069152469
ố@@ 0.4356963431358368
Its 0.003217509918726529
Soviet 0.003983187549214872
buted 0.015225534052399523
compos@@ 0.014363615707774844
demand 0.01179167249055436
earned 0.004863998417957584
episode 0.0032161904313796254
related 0.0033146805479480406
sense 0.009338371502586673
ď 1
Θ@@ 0.9915847809298356
ט@@ 0.8062418312233243
ṅ@@ 0.47140915814697104
ộ@@ 0.31031610050681907
ῶ@@ 1
ン@@ 0.39212670882225314
城@@ 1
ached 0.007369950287256089
arity 0.00814112561436261
bzw@@ 1
children 0.0014783502159646457
demic 0.006372218323819709
elect@@ 0.008738124746630483
electronic 0.012403034585618714
rating 0.007231320700611813
С 1
ه@@ 0.1624489233489258
⁄ 1
circum@@ 0.011845610008790806
claim 0.008110693996711332
dered 0.006227940580857704
district 0.0016075193197809465
help 0.0029941550478571415
images 0.012303823780273669
meeting 0.004974353206997721
mother 0.002498169320972367
äude 1
ŋ 0.6801113648949649
ʔ@@ 0.7604881625643698
butions 0.05718514503657859
chemical 0.011637451788110964
consci@@ 0.012056604517228868
elected 0.001922234619217843
growth 0.005818314763843225
making 0.002156291310394961
village 0.0013787166415971531
violence 0.009657160648841699
ŵ@@ 0.6433328816615091
家@@ 0.619147434982505
究@@ 1
院 1
exerc@@ 0.011022785612522531
four@@ 0.01714396442209978
gain 0.010264663688824022
influ@@ 0.006483161585861252
quite 0.01038169610854031
share 0.007361874983944918
ŋ@@ 0.46308297041866087
θ 0.24782727774698976
™ 0.5830181282249328
南@@ 0.4823780941861051
王@@ 0.3933957272974061
acting 0.005598794381985686
after@@ 0.005816913313916842
ailed 0.0056015477584556795
crime 0.00862718359595955
living 0.00251212800635994
records 0.0052528118317318765
sidents 0.027240324835619455
steel 0.010304010182716225
written 0.0018481822580343095
Α 0.6994072876654224
子@@ 0.6327970697925249
海@@ 0.528029343005683
16th 0.010438618629635384
background 0.0069556844136985044
celeb@@ 0.003922640012226811
current 0.002643164765746036
ested 0.0045343051436430755
fav@@ 0.004221636527127665
memory 0.008803922515093246
physical 0.006203554956846277
piece 0.006396846799710492
secon@@ 0.15169311753278653
ی 0.14337356812513827
ị@@ 0.29046422875722455
会@@ 1
among 0.0016824821698019706
canc@@ 0.007175125859233636
ently 0.0020014079916703814
method 0.006534891342686477
novel 0.0033735018694244587
parish 0.005586659861999647
seat 0.003786059832836326
support 0.0016625687772996254
tries 0.010203526426970512
uted 0.003946686424516025
Ħ@@ 1
Ī@@ 0.7075069058260837
ľ 1
ǫ@@ 0.7010750248640284
Χ@@ 0.9639781591880391
κ 0.44067572991453213
К 1
Р 1
յ@@ 0.9520771942597916
د 0.09688222705407427
ồ 0.4789953586027524
alized 0.0071736528866044305
distribution 0.006160504120399449
driver 0.009612167326694005
langu@@ 0.18858498434237717
obach@@ 1
ople 0.024471001841715825
signed 0.0019193185575745112
tured 0.007042374705586216
Ē@@ 1
ũ@@ 0.4539590641056025
ɪ@@ 0.3354476270160868
ւ@@ 0.715199657600336
צ@@ 0.6163509244360619
ف@@ 0.13783847946479202
ữ 0.8423462633959513
another 0.0013890943353449818
basic 0.008813921054800439
collection 0.003710177514876157
cust@@ 0.009202578393802879
flag 0.010865403919531587
grounds 0.008056236448554077
past 0.004126506489960017
reach 0.005914429997319053
voice 0.0064904673470013155
Ρ@@ 1
ί 1
ն@@ 0.582063083408032
ح@@ 0.08250728092605548
ế@@ 0.2832854550426924
ス@@ 0.5518820346387266
ably 0.004732155782701098
communic@@ 0.008990049821520584
effect 0.004544702945909636
every@@ 0.008693228699147338
heavy 0.005008003944090078
matches 0.0037406472632267266
process 0.0025409444109702707
technology 0.00493473913886743
wife 0.00201339528666815
ξ 1
ի@@ 0.7106503460856368
ة 0.10194566246075291
ი@@ 0.8926461664246415
ḗ@@ 1
☉ 1
Arkan@@ 0.5844707042066104
Okl@@ 0.6251295358035921
blast 0.04992353931764798
century 0.0009682140958574152
changes 0.003688552930600979
dark 0.006848613567439562
fact 0.003971378666302788
features 0.002538485050049897
hands 0.00806030907247596
heard 0.008847987275989302
seven 0.0024450682476502648
ǒ@@ 0.9984707863529594
ǔ@@ 0.9847931043481244
̯ 1
О 1
ي 0.11232796346470794
金@@ 0.3472941865575511
certain 0.0037835865766821532
close 0.002673084930430054
degang 1
enjo@@ 0.007046302045323508
few 0.0017507393488442697
houses 0.0042361545785623315
interest 0.003299958277058562
paper 0.005367513885019435
polic@@ 0.030009697103743866
primar@@ 0.08856061177917889
residence 0.009445043167135765
titled 0.004554611059431217
vote 0.004240226335936896
Õ@@ 1
Ǧ@@ 1
ɔ@@ 0.5738439641301266
τ 0.41764974904145313
ấ@@ 0.35115824670649537
水@@ 0.8402715189048283
石@@ 0.7842534176445063
Because 0.006488313061590152
always 0.004393437250037929
application 0.007726491028172882
champion 0.005928602358459397
classes 0.006782427898824952
disease 0.006118141707904094
grand@@ 0.004087786543848355
proved 0.007900971550934999
regar@@ 1
secret 0.010058910782430385
ἰ@@ 1
ately 0.0033955452629859896
centre 0.0035122276523971967
duced 0.01680312225690743
flat 0.009966074711025008
incor@@ 0.021597912147820322
response 0.004024431850860948
restric@@ 0.006515397769285904
theatre 0.006579731803406636
write 0.007206173614205953
Ō 1
ű 1
Ж@@ 0.9310771168382267
ه 0.16782377661528533
December 0.0008005661298431934
access 0.0036019636083526796
arly 0.004926943126369774
behind 0.0029276038866834883
bodies 0.007694083621858615
committee 0.005407766731547257
complex 0.003961817455116073
content 0.005777063913665226
further 0.0018611184460266637
given 0.0014884459540879524
initial 0.005127022035054841
might 0.004566797321352541
north 0.0013066790908691987
program 0.0018466823785191157
silver 0.005719075197304653
ц 1
א 0.6005544189169644
া@@ 0.06672826876855159
க@@ 0.20962748584837432
ậ@@ 0.26879653427331873
小@@ 0.4795794280559931
Emper@@ 0.20681788439992257
assistant 0.005064666108987564
concent@@ 0.005527270929497253
concept 0.005445750476658239
degree 0.002472176254742606
etimes 0.031465792715635786
feature 0.003690048640414179
floor 0.005001488594962542
guid@@ 0.007976864575903275
knowledge 0.005714799883733432
lead 0.0018657241562812393
notes 0.006752190460830203
playing 0.0018481025781289914
sales 0.006233137956163617
security 0.004617057680704735
singles 0.004979007425748555
society 0.004244346763889825
specific 0.003870562716634618
teidi@@ 1
within 0.0010502418761711052
Ú 1
ψ@@ 1
И 1
ὐ@@ 1
⅓ 0.8713926862716737
⅔ 1
communication 0.009349979918389493
diffic@@ 0.008723421743526017
edly 0.004520245778881221
hour 0.0060800609873711805
network 0.003218622163976482
properties 0.006987493174881957
restor@@ 0.0048301178311438925
says 0.006244258793113778
sides 0.005686527784867976
Ġ@@ 1
Ю@@ 1
ắ@@ 0.2337494979597373
。 0.5337280203414001
上@@ 0.43868056466416455
市 0.5207102637477075
画@@ 1
account 0.005386818357650942
covers 0.005084300924761791
finish 0.005790519004297231
fully 0.004013836185244739
greatest 0.008707879724019502
holds 0.006325261963056811
leave 0.0044025172557406855
lyrics 0.00717359631963875
middle 0.0040079387639939
police 0.0024305688378553642
rugby 0.0072356444944712845
today 0.0035664093571828393
ج@@ 0.10439313379627373
ọ@@ 0.29455527423267847
Ἀ@@ 0.7651252855068355
二@@ 0.9226510795817723
社 0.7842534176445063
aily 0.4837258612767953
areas 0.0017331485747941375
critic@@ 0.004976361634844309
distingu@@ 0.00628601088531188
guitar 0.005681944541449592
meas@@ 0.0035508458691493553
particip@@ 0.003488539715056956
passing 0.0068563821855081464
porary 0.13239910427188145
thous@@ 0.005114317714131952
¿ 0.4654029119860076
ũ 0.5035506916569917
ׁ@@ 1
ک@@ 0.17112307627340667
ა@@ 0.44516800276922464
ḍ 1
ὶ 0.9908578126153709
← 0.558483494383209
リ@@ 0.5850779464966952
・ 0.3963431250461484
古@@ 0.8301781673263918
址 1
beyond 0.006794676839501129
contest 0.00886554045307365
died 0.000911692120587498
direction 0.004915475421251266
etim@@ 0.6396393122632499
genous 0.007752204145531909
issance 0.027669625104806944
keep 0.004987234186525007
mean 0.008234195474218773
means 0.0030329951247349417
posed 0.004907050955092262
proced@@ 0.008520064524974563
twel@@ 0.03536829138396793
unique 0.005669598807425317
А 1
ד 0.7515761919093186
ז@@ 0.7332450652773841
م 0.12631532637131404
ḗ 1
Vanc@@ 0.7261605718930615
airport 0.006480719074849931
border 0.003938596914646979
cause 0.00404337707591517
charge 0.004494460634472223
comedy 0.0052728826825045256
destro@@ 0.005907895371970468
[...]
