the 1
, 1
. 1
of 1
and 1
in 1
a 1
&quot; 1
to 1
was 1
@-@ 0.9773576222503643
The 1
is 1
on 1
) 0.9603553981748228
( 0.9607751687211364
as 1
for 1
by 1
with 1
&apos;s 1
at 1
an 1
that 1
from 1
his 1
ing 1
In 1
he 1
were 1
it 1
ed 1
or 1
are 1
which 1
es 0.9129549202574659
S@@ 1
He 1
be 1
c@@ 1
y 1
C@@ 1
s 1
had 1
o 1
re@@ 1
also 1
; 1
t@@ 1
: 0.8275246157196426
i 1
has 1
ation 1
its 1
– 1
one 1
M@@ 1
first 1
b@@ 1
p@@ 1
L@@ 1
al 1
P@@ 1
s@@ 0.9164080528851416
T@@ 1
in@@ 1
B@@ 1
H@@ 1
It 1
D@@ 1
their 1
ers 1
N@@ 1
y@@ 1
d@@ 1
er 0.23727926052340984
who 1
F@@ 1
R@@ 1
her 1
not 1
but 1
f@@ 1
G@@ 1
K@@ 0.8028994463758643
g@@ 1
ate 1
A@@ 1
two 1
have 1
W@@ 0.9516154359722407
n@@ 0.9434821477673381
this 1
e 0.9469548534051521
un@@ 1
an@@ 0.8803899179328707
w@@ 1
t 0.6166846810544744
E@@ 1
been 1
&apos; 1
en@@ 0.5738851455730727
m@@ 0.987983575084085
A 1
v@@ 1
e@@ 1
al@@ 1
ated 1
st@@ 0.6986529371692671
ar@@ 1
h@@ 1
after 1
k@@ 0.5090925522556803
all 1
de 0.8675857951414422
time 1
l@@ 0.8768487829802005
ar 1
1 1
i@@ 1
V@@ 1
they 1
th@@ 1
ch@@ 1
other 1
into 1
O@@ 1
age 1
er@@ 0.4281252783172801
I@@ 1
de@@ 1
J@@ 1
ations 1
she 1
ly 1
over 1
o@@ 1
or@@ 1
2 1
u 1
el@@ 0.8569849798315794
ad@@ 1
more 1
am@@ 1
j@@ 1
us 1
d 1
ts 1
ac@@ 1
u@@ 1
On 1
% 1
up 1
ic 1
con@@ 1
New 1
as@@ 1
when 1
would 1
years 1
ted 1
at@@ 1
out 1
ent 1
it@@ 1
where 1
on@@ 1
k 1
/ 0.7363769954834469
li@@ 1
This 1
during 1
di@@ 1
ine 1
year 1
new 1
I 1
season 1
only 1
ro@@ 1
a@@ 1
is@@ 0.9671423114786221
ri@@ 1
r@@ 0.9839833955417087
le 1
3 1
dis@@ 1
n 0.942626536576892
Y@@ 1
used 1
between 1
ia 1
can 1
three 1
made 1
et@@ 1
him 1
Ch@@ 1
then 1
later 1
son 1
able 1
ra@@ 1
most 1
man 1
United 1
sh@@ 1
&amp; 1
known 1
em@@ 1
es@@ 0.9937533837325662
well 1
such 1
part 1
about 1
m 0.9115903873875782
American 1
2@@ 1
ally 1
5 1
ab@@ 0.6290627154659849
under 1
4 1
team 1
became 1
University 1
ings 1
ag@@ 1
el 0.9238816053533396
She 1
z@@ 0.4217839304157681
born 1
il@@ 1
than 1
.@@ 1
ch 1
ist 0.15512999613559897
end 1
including 1
ity 1
p 1
film 1
ant 1
being 1
there 1
U@@ 1
pro@@ 1
op@@ 1
ap@@ 1
ic@@ 1
im@@ 1
some 1
ul@@ 1
l 0.9738117753396565
et 1
second 1
while 1
work 1
through 1
th 1
ve 1
against 1
ting 1
Sh@@ 1
ance 1
After 1
h 1
se@@ 1
ent@@ 0.5158281528405746
ter 0.612334631864806
en 0.20174187839062593
ur@@ 1
3@@ 1
land 1
oc@@ 1
c 1
sp@@ 1
als 0.14582868180529382
before 1
ary 1
um 0.3398548948092112
ol@@ 1
am 0.2582867793588212
many 1
os@@ 1
6 1
ass@@ 1
family 1
played 1
them 1
si@@ 1
St@@ 0.5241012453771479
ian 1
until 1
World 1
pre@@ 1
ons 1
ex@@ 1
both 1
le@@ 0.9044127101637153
no 1
inter@@ 1
Z@@ 0.5261730170012429
om@@ 1
people 1
der 0.025261589994912657
Mar@@ 1
States 1
album 1
ot@@ 1
ed@@ 1
day 1
life 1
National 1
released 1
name 1
ti@@ 1
qu@@ 1
Con@@ 1
use 1
In@@ 1
ak@@ 0.9332430153092183
ton 1
ating 1
ous 1
re 1
Al@@ 1
number 1
series 1
b 1
7 1
won 1
est 1
ans 1
ry 1
As 1
area 1
school 1
co@@ 1
may 1
ment 1
four 1
8 1
called 1
state 1
ors 1
g 0.7862007074001939
um@@ 0.5833885904935456
per@@ 1
ies 1
ec@@ 1
be@@ 0.30279403818167927
May 1
led 1
ut@@ 1
10 1
March 1
city 1
fl@@ 1
ates 1
ks 1
early 1
September 1
January 1
la@@ 1
pl@@ 1
career 1
June 1
several 1
ep@@ 1
October 1
ical 1
following 1
ce 1
us@@ 0.9888984850749034
July 1
same 1
os 1
ding 1
&apos;@@ 1
ure 1
amp 1
car@@ 1
August 1
ie 0.6678639647839117
School 1
John 1
end@@ 1
9 1
so 0.8405177089828805
way 1
id@@ 1
4@@ 1
South 1
ob@@ 1
game 1
Car@@ 1
sub@@ 1
April 1
found 1
based 1
They 1
began 1
sc@@ 1
ter@@ 0.808011364292868
ir@@ 1
November 1
these 1
will 1
line 1
since 1
ence 1
ph@@ 1
December 1
located 1
back 1
ge 0.6244177765589516
tion 1
His 1
tra@@ 1
vi@@ 1
man@@ 1
An@@ 0.35606851602256695
ig@@ 0.9292951841340306
x@@ 1
ty 1
ou@@ 1
par@@ 1
own 1
place 1
ow@@ 1
County 1
now 1
ang@@ 1
au@@ 0.6400340189807013
x 1
ast@@ 1
ay 1
group 1
held 1
av@@ 1
former 1
tions 1
ics 1
set 1
res@@ 1
At 1
les 1
tri@@ 1
- 0.3089377773364802
took 1
any 1
ev@@ 1
War 1
York 1
su@@ 1
w 1
named 1
government 1
$ 1
20 1
There 1
town 1
State 1
like 1
February 1
member 1
British 1
each 1
mar@@ 1
ard 1
high 1
served 1
12 1
century 1
population 1
old 1
music 1
City 1
side 1
League 1
off 1
built 1
od@@ 1
2010 1
C 1
te@@ 1
station 1
5@@ 1
company 1
’ 0.9459829820197352
ov@@ 1
mon@@ 1
ay@@ 1
Bar@@ 1
ents 1
ism 1
king 1
song 1
ad 1
ver@@ 0.18941927315693122
However 1
18 1
did 1
men 1
Par@@ 1
around 1
received 1
ds 1
home 1
6@@ 1
est@@ 1
ative 1
due 1
2011 1
Ar@@ 1
Re@@ 0.8866200825325021
North 1
gu@@ 1
ley 1
could 1
lo@@ 1
16@@ 0.7460028404134897
under@@ 1
Gu@@ 1
com@@ 1
field 1
O 1
very 1
long 1
15 1
sion 1
ran@@ 1
species 1
per 1
D 1
ey 1
ship 1
att@@ 1
z 0.49843230475030886
ets 1
ci@@ 1
died 1
B 1
single 1
min@@ 1
local 1
2012 1
po@@ 1
left 1
along 1
form 1
public 1
he@@ 1
id 1
band 1
During 1
system 1
History 1
ion 1
play 1
final 1
2014 1
Th@@ 1
sk@@ 0.7266655281493896
17@@ 0.6874732549635703
ise 1
ha@@ 1
for@@ 1
five 1
eg@@ 0.7898765411945965
published 1
ing@@ 0.9970693367075564
7@@ 1
building 1
over@@ 1
2016 1
ne@@ 0.9403545055299524
include 1
ell 1
club 1
2015 1
2013 1
11 1
members 1
ice 1
rec@@ 1
Mon@@ 1
up@@ 1
and@@ 0.9812053585540759
said 1
Har@@ 1
T 1
comp@@ 1
within 1
ge@@ 0.2713417141048612
ology 1
ra 1
9@@ 1
2008 1
co 1
é@@ 0.9216929218213712
2009 1
R 1
ill@@ 1
10@@ 1
large 1
30 1
our 1
down 1
because 1
ite 1
all@@ 0.8603333047704822
world 1
se 0.9069453026074399
r 1
gh@@ 1
des 0.05178879052549249
2017 1
Le@@ 1
2018 1
ins 1
included 1
village 1
ves 1
hi@@ 1
8@@ 1
den 0.0413771006573534
third 1
16 1
og@@ 1
15@@ 0.7865400901382895
2019 1
cl@@ 1
S 1
tr@@ 1
comm@@ 1
red 1
For 1
ess@@ 0.9677708738386471
ana 1
,000 1
ck 1
small 1
do 1
election 1
14 1
2007 1
bo@@ 1
acc@@ 1
II 1
even 1
we@@ 1
children 1
ities 1
French 1
L 1
2006 1
show 1
ang 1
national 1
College 1
death 1
19 1
ying 1
0 1
ant@@ 0.9866619764214486
house 1
water 1
der@@ 0.5356140957674342
art 1
E 1
last 1
main 1
Co@@ 1
M 1
fe@@ 1
Mc@@ 1
25 1
sur@@ 1
football 1
ens@@ 0.687922962912597
13 1
Man@@ 1
ess 1
father 1
moved 1
2020 1
du@@ 1
if 1
war@@ 1
&#91; 1
&#93; 1
gra@@ 1
ants 1
Ad@@ 1
ters 1
ders 1
X@@ 1
ns 1
West 1
English 1
those 1
ber@@ 0.4193454333294707
ath@@ 1
District 1
war 0.09056758969944652
million 1
history 1
spec@@ 1
still 1
women 1
German 1
book 1
bar@@ 1
another 1
F 1
P 1
service 1
17 1
ah@@ 1
f 0.715825229342792
ited 1
late 1
ement 1
ish 1
ann@@ 1
ens 0.5264319103685045
major 1
using 1
def@@ 1
— 1
Be@@ 0.4883496158846013
ati@@ 1
out@@ 1
els 1
ck@@ 0.7491115975019939
gen@@ 0.4412981448675591
order 1
original 1
Per@@ 1
den@@ 0.66579523599547
often 1
what 1
International 1
air 1
no@@ 1
win 1
district 1
pe@@ 1
ell@@ 0.6613853050766778
vis@@ 1
app@@ 1
London 1
ke 0.599053585489511
River 1
less 1
went 1
ition 1
ments 1
bl@@ 1
near 1
ak 1
ble 1
north 1
U.S. 1
ok@@ 0.9330659931555001
different 1
inc@@ 1
me 0.8903919552209065
When 1
ash@@ 1
head 1
24 1
established 1
ru@@ 0.9421517881015175
games 1
ded 1
ely 1
works 1
announced 1
ial 1
country 1
az@@ 1
bi@@ 1
All 1
ended 1
ho@@ 1
best 1
1@@ 1
top 1
18@@ 0.7738169390890169
House 1
again 1
il 1
fin@@ 1
started 1
lin@@ 1
record 1
ator 1
Ex@@ 1
exp@@ 1
ore 1
Cup 1
cre@@ 1
Am@@ 1
US 0.7809950304392497
21 1
Di@@ 0.7723645938954784
ory 1
role 1
south 1
six 1
Sp@@ 0.5787386082145508
ina 1
tive 1
af@@ 0.9351229588520609
Mor@@ 1
Ab@@ 0.2808376560912133
title 1
law 1
El@@ 0.9680296755581304
cor@@ 1
ten@@ 0.6011448195980966
if@@ 1
joined 1
One 1
sts 1
round 1
col@@ 1
eb@@ 0.9429134564607959
ai 1
Ro@@ 1
ong 1
came 1
ale 0.5816187214969596
Pro@@ 0.9539460407093027
oo@@ 1
period 1
ner 0.5771573192059418
ms 1
formed 1
just 1
_ 0.9041238254429611
worked 1
right 1
position 1
ir 1
much 1
non 1
support 1
res 1
married 1
De@@ 1
ler 0.4931196159618397
among 1
ue 1
produced 1
bre@@ 1
England 1
bu@@ 1
mo@@ 1
Un@@ 0.8188426897745991
ford 1
ain@@ 1
2005 1
lic@@ 1
development 1
make 1
2021 1
wrote 1
given 1
low 1
ire 1
to@@ 1
player 1
power 1
having 1
me@@ 1
general 1
st 0.6092117458526289
tur@@ 1
described 1
ish@@ 1
become 1
22 1
production 1
ne 0.6179102953906299
next 1
continued 1
ality 1
14@@ 0.8039271866879004
ah 1
12@@ 1
These 1
ric@@ 1
community 1
ach@@ 0.5595148532937638
total 1
European 1
version 1
days 1
returned 1
various 1
ma@@ 1
pri@@ 1
Park 1
ub@@ 1
ps 1
ile 1
ber 0.7817285517116903
General 1
ending 1
23 1
written 1
rem@@ 1
ick 1
tor 1
ster 0.8408113304912991
enti@@ 1
East 1
elected 1
William 1
aw@@ 1
created 1
2000 1
political 1
From 1
half 1
2004 1
ling 1
13@@ 0.8494975365620514
Church 1
west 1
ick@@ 1
point 1
anc@@ 1
ma 1
go 1
Bo@@ 0.9992937542312239
ist@@ 0.6229818366254883
Cor@@ 1
site 1
ren@@ 1
take 1
ain 1
Australia 1
ving 1
her@@ 0.652106836869296
TV 1
ka 1
1.@@ 1
ur 0.7738968449327707
ill 1
road 1
ists 1
mer@@ 0.6979733053670697
air@@ 1
50 0.939841819956072
Tra@@ 1
ai@@ 1
level 1
church 1
founded 1
! 1
= 1
ars 1
Party 1
India 1
ked 1
Me@@ 1
however 1
ences 1
ised 1
Council 1
opened 1
By 1
Col@@ 1
ats 1
rep@@ 1
formula 0.9772870963408394
100 1
few 1
Army 1
ya 1
According 1
ages 1
France 1
har@@ 1
High 1
ability 1
iz@@ 0.6661985984593153
Street 1
ot 1
ol 1
students 1
ual 1
ture 1
arch@@ 1
N 1
ots 1
ail 1
cul@@ 1
fi@@ 1
te 0.09168750337755241
signed 1
ake 1
cont@@ 1
Division 1
Ma@@ 1
Ac@@ 1
military 1
region 1
James 1
east 1
George 1
King 1
met@@ 1
without 1
ered 1
party 1
via 1
Se@@ 0.6674268808326635
appeared 1
28 1
run 1
dic@@ 1
appointed 1
wor@@ 1
pat@@ 1
our@@ 1
War@@ 1
times 1
mat@@ 1
match 1
br@@ 1
ently 1
ized 1
ear@@ 1
26 1
ological 1
event 1
San 1
str@@ 1
bri@@ 1
ness 1
together 1
27 1
making 1
lost 1
ville 1
ines 1
gl@@ 0.8293362868666623
St. 1
Mo@@ 1
ong@@ 1
President 1
prot@@ 1
considered 1
recorded 1
present 1
professional 1
Bur@@ 1
Com@@ 1
Q@@ 1
range 1
television 1
California 1
Ed@@ 1
light 1
Qu@@ 0.7237287698718875
short 1
full 1
cap@@ 1
international 1
He@@ 1
America 1
language 1
ker 0.6594353159885006
Canada 1
eh@@ 0.6414473350425788
dra@@ 1
tor@@ 1
case 1
story 1
Sch@@ 0.13128232504022574
debut 1
working 1
education 1
ik@@ 0.4628525031159583
2003 1
Su@@ 1
research 1
style 1
des@@ 1
la 1
&apos;t 1
0@@ 1
v 1
U 1
ces 1
iv@@ 1
ug@@ 0.8941002202787284
atic 1
wife 1
class 1
ships 1
cer@@ 1
sol@@ 1
ever 1
fac@@ 1
lu@@ 0.7766626666981383
trans@@ 1
program 1
With 1
Association 1
amp@@ 1
important 1
further 1
sec@@ 1
video 1
á@@ 1
Mal@@ 1
cr@@ 1
Union 1
ution 1
areas 1
playing 1
developed 1
29 1
exc@@ 1
2002 1
wing 1
gr@@ 0.7507499595085366
ash 1
Early 1
ei@@ 0.3476850518898374
land@@ 0.9680998512483462
lies 1
ys 1
release 1
lead 1
ning 1
Royal 1
cur@@ 1
body 1
While 1
points 1
ase 1
ie@@ 0.31028555467482355
term 1
Cl@@ 1
ten 0.0734566456261953
Australian 1
teams 1
2001 1
away 1
race 1
we 1
gro@@ 1
0s 1
addition 1
ically 1
und@@ 0.8134778958299372
result 1
Ne@@ 0.6431566332639391
ade 1
ned 1
office 1
business 1
live 1
ged 1
ane 1
elec@@ 1
Li@@ 1
2.@@ 1
“ 0.08387156276930137
Indian 1
ari@@ 1
Br@@ 1
Pre@@ 1
oun@@ 1
control 1
” 1
ste@@ 1
Award 1
kn@@ 1
amm@@ 1
ace 1
Club 1
average 1
reg@@ 1
common 1
every 1
bor@@ 1
sw@@ 1
mother 1
expl@@ 1
Gra@@ 0.8116215367741701
Championship 1
coun@@ 1
ful 1
director 1
ro 1
although 1
similar 1
Sc@@ 1
ches 1
ser@@ 0.7502092042190465
K 1
popular 1
ow 0.9149253443801046
Fl@@ 0.45042771466602477
ud@@ 1
example 1
design 1
list 1
ved 1
Ber@@ 0.42593601326089714
G 0.8826408931264175
others 1
que 1
om 1
Germany 1
En@@ 0.7720769602493878
league 1
ished 1
For@@ 1
First 1
social 1
put 1
uses 1
taken 1
himself 1
alist 1
construction 1
val 1
across 1
forms 1
X 1
tro@@ 1
ino 1
daughter 1
assi@@ 1
finished 1
yl@@ 1
ose 1
ground 1
da 0.40023644654127744
Lu@@ 0.8886175313766463
tic 1
lt 0.6336443894233833
project 1
rel@@ 1
Music 1
David 1
president 1
Bl@@ 0.6596249747354471
do@@ 1
det@@ 1
amb@@ 1
0.@@ 1
gt 0.38936186470544215
services 1
act 1
Road 1
ering 1
ney 1
iti@@ 1
living 1
Company 1
events 1
ort 1
sted 1
gar@@ 1
ere 0.48402809345935927
China 1
é 0.8515154848238762
na 1
... 1
ges 1
off@@ 0.8930709557675809
ties 1
Pl@@ 0.723391192896352
change 1
ute 1
ali@@ 1
40 1
pres@@ 1
dy 1
Central 1
Nor@@ 1
sold 1
though 1
inn@@ 0.6982194341899577
pr@@ 1
ions 1
Court 1
shi@@ 1
ster@@ 0.7124438773280224
ort@@ 1
dec@@ 1
oll@@ 1
int@@ 1
Group 1
ented 1
stage 1
designed 1
Some 1
loc@@ 1
free 1
ring 1
ger 0.30058260003818044
acy 1
how 1
1,@@ 1
rated 1
un 1
ular 1
gave 1
stri@@ 1
Japanese 1
followed 1
Her@@ 0.5942037224323927
Europe 1
wh@@ 1
get 1
never 1
months 1
Em@@ 1
inf@@ 1
1999 1
Min@@ 0.9387142356442594
eng@@ 0.7979576117103468
fer@@ 0.6229814346826371
eight 1
available 1
coach 1
Fin@@ 1
Thomas 1
ration 1
dr@@ 1
Res@@ 1
white 1
open 1
character 1
once 1
ends 1
official 1
performed 1
ases 1
completed 1
Gar@@ 1
Air 1
ver 1
Robert 1
ental 1
Or@@ 0.6364142079543658
iting 1
por@@ 1
dro@@ 1
ven@@ 1
ect 1
Japan 1
em 0.5315461010528872
largest 1
Tri@@ 0.9318491805954362
active 1
31 1
current 1
Si@@ 1
bro@@ 1
ational 1
UK 1
Washington 1
yn@@ 1
reported 1
Her 1
modern 1
Charles 1
young 1
seven 1
Center 1
hon@@ 1
action 1
see 1
leading 1
ock 1
remained 1
section 1
tu@@ 1
structure 1
An 1
asi@@ 1
V 1
sent 1
ones 1
ington 1
Western 1
hy@@ 1
should 1
ili@@ 1
Sal@@ 1
ama 1
Ver@@ 0.1005013432900379
players 1
1998 1
Hall 1
track 1
songs 1
Other 1
Mer@@ 1
owned 1
Institute 1
ery 1
process 1
saw 1
Sk@@ 0.6914119137426129
Ho@@ 1
originally 1
inv@@ 1
dem@@ 1
seen 1
Department 1
adi@@ 1
brother 1
tran@@ 1
Ph@@ 1
Mac@@ 1
Russian 1
Since 1
study 1
ators 1
Kar@@ 0.5053079868624393
listed 1
directed 1
refer 1
ext@@ 1
board 1
currently 1
return 1
great 1
ther@@ 1
cent@@ 1
ern@@ 0.49798527193681474
features 1
western 1
Chinese 1
20@@ 1
rate 1
Bel@@ 0.8894885228967582
oy@@ 1
performance 1
ff@@ 0.6996606485119827
ee 1
post 1
W 1
im 0.02586582000989457
enn@@ 0.4760773754777393
1996 1
Bi@@ 0.7007463023691125
ata 1
aff@@ 0.9187907654199315
groups 1
Although 1
Island 1
includes 1
ses 1
Paul 1
Wor@@ 1
throughout 1
tal@@ 1
training 1
help 1
Society 1
Canadian 1
cs 1
tors 1
ek@@ 0.3977811759135647
car 1
forces 1
bur@@ 1
wn 1
vari@@ 1
placed 1
Ri@@ 1
Bro@@ 1
awarded 1
featured 1
Hol@@ 1
Gl@@ 0.6540254294829891
ements 1
does 1
usually 1
Gre@@ 1
fire 1
ony 1
ip@@ 1
African 1
come 1
sl@@ 1
ction 1
successful 1
onal 1
rest 1
wood 1
schools 1
tic@@ 1
involved 1
gener@@ 1
ach 0.5959726871385531
either 1
ization 1
1997 1
writer 1
added 1
ography 1
stated 1
Rec@@ 1
information 1
eventually 1
Can@@ 1
gi@@ 1
ack 1
atory 1
Minister 1
alle@@ 1
episode 1
Its 1
aged 1
front 1
good 1
Pe@@ 1
you 1
Cal@@ 1
black 1
Academy 1
Au@@ 0.64425627451508
1st 1
countries 1
Comm@@ 1
degree 1
close 1
hand@@ 1
replaced 1
Act 1
force 1
Women 1
human 1
Mil@@ 1
compet@@ 1
3.@@ 1
ishing 1
ously 1
central 1
ght 1
ind@@ 0.8313279189803199
court 1
supp@@ 1
doc@@ 1
families 1
winning 1
ards 1
ope 1
special 1
und 0.008054228217432602
media 1
fil@@ 1
ith 1
related 1
H 1
ani 1
ath 1
New@@ 1
cy 1
Africa 1
private 1
1995 1
possible 1
fourth 1
ov 1
not@@ 1
states 1
Te@@ 1
ways 1
ta 1
competition 1
wide 1
police 1
parts 1
provided 1
lines 1
ests 1
ae 1
ows 1
ano 1
ara 1
ws 1
rights 1
vers 1
stor@@ 1
hor@@ 1
yp@@ 1
Inter@@ 0.8070765605739877
upon 1
itions 1
au 0.35013340412387334
ass 1
1994 1
1992 1
killed 1
mem@@ 1
reached 1
college 1
center 1
Great 1
ran 1
must 1
ham 1
Cro@@ 1
previous 1
ack@@ 1
let 1
To 1
part@@ 1
km 0.42147986736090287
Spanish 1
size 1
rac@@ 1
List 1
ched 1
Michael 1
oli@@ 1
fied 1
above 1
ened 1
Italian 1
Henry 1
Lake 1
char@@ 1
type 1
radio 1
Bra@@ 1
-@@ 0.46525748634582337
least 1
conc@@ 1
the@@ 1
Pal@@ 0.9705633281161187
Best 1
ey@@ 1
plays 1
aj@@ 1
division 1
writing 1
Bu@@ 1
Football 1
aircraft 1
ature 1
bed 1
attended 1
closed 1
era 1
Hon@@ 1
St 1
super@@ 1
night 1
oph@@ 1
leg@@ 1
tre@@ 1
We@@ 1
changed 1
river 1
ast 1
space 1
person 1
pen@@ 1
sch@@ 0.08294544482633524
introduced 1
syn@@ 1
scored 1
duc@@ 1
Sy@@ 1
contract 1
Republic 1
ories 1
attack 1
rock 1
can@@ 1
ump@@ 1
60 0.9565091278401341
shire 1
Mad@@ 1
vo@@ 1
older 1
ts@@ 0.294078140419719
campaign 1
row 1
decided 1
Awards 1
railway 1
ica 1
art@@ 0.9290042153781553
cri@@ 1
hal@@ 0.38887968492790725
indic@@ 1
White 1
Bre@@ 0.8504155356740664
gest 1
books 1
pol@@ 1
shows 1
ood 1
sel@@ 0.8070994689501726
mag@@ 1
start 1
ena 1
ym@@ 1
met 1
Fre@@ 0.49218691059938957
female 1
ret@@ 1
sign@@ 1
census 1
pan@@ 1
ori@@ 0.9879771123281444
Bal@@ 1
films 1
Bor@@ 1
cons@@ 1
sea 1
Career 1
Ireland 1
Saint 1
defeated 1
hr@@ 0.5592930344657443
1993 1
tures 1
uc@@ 1
Texas 1
success 1
1990 0.9024716277923662
emp@@ 1
goal 1
studio 1
ward 1
mid 1
ased 1
previously 1
Dar@@ 0.8305321809460996
Museum 1
market 1
test@@ 1
ft 0.47705711612791046
Following 1
1991 1
but@@ 1
Education 1
stra@@ 0.8532636936673197
ays 1
bra@@ 1
disc@@ 1
Pri@@ 1
La 1
Two 1
Cur@@ 1
di 1
Kingdom 1
regular 1
ke@@ 1
ored 1
mer 0.7031506503007283
standing 1
rather 1
tical 1
ising 1
FC 0.8653958461593922
room 1
Christian 1
instead 1
cat@@ 1
mp@@ 1
ion@@ 1
Black 1
almost 1
organization 1
represented 1
Far@@ 1
edition 1
so@@ 1
provide 1
buildings 1
Jo@@ 1
ier 0.5605950200229751
tim@@ 1
ther 1
legal 1
aries 1
Government 1
taking 1
Peter 1
fre@@ 0.6496905700563296
Art 0.7228207527748727
bs 1
form@@ 0.7978839188183859
dri@@ 1
model 1
imp@@ 1
tournament 1
week 1
proc@@ 1
date 1
whose 1
novel 1
stone 1
Los 1
strong 1
Roman 1
Paris 1
behind 1
health 1
equ@@ 1
Gi@@ 1
lived 1
Pr@@ 1
cal 1
cal@@ 1
self 1
Wil@@ 1
ids 1
brought 1
ha 1
ands 1
Ros@@ 0.9651140438901546
gre@@ 1
units 1
Committee 1
data 1
ston 1
elled 1
Later 1
Gr@@ 0.4593237180673274
tw@@ 0.793208557776847
movement 1
pos@@ 1
ight 1
wal@@ 0.8590927638132925
ave 1
view 1
ress 1
bility 1
ici@@ 1
Grand 1
&#124; 0.8253068497802318
hom@@ 1
prin@@ 1
especially 1
Catholic 1
Smith 1
ained 1
approximately 1
vol@@ 1
base 1
allowed 1
ord@@ 0.5241058652431092
Mary 1
ese 1
Zealand 1
ly@@ 1
Po@@ 1
ap 1
183@@ 0.8419585713015162
mit 0.02187476292212016
Gro@@ 1
lower 1
med 1
ball 1
mission 1
nor@@ 1
significant 1
wards 1
uk@@ 1
lec@@ 1
outside 1
ame 1
cip@@ 1
industry 1
cast 1
cies 1
classi@@ 1
oper@@ 1
issue 1
1989 1
cop@@ 1
Championships 1
ging 0.5084254317303338
primary 1
far@@ 1
northern 1
nar@@ 1
eds 1
sis 1
soon 1
ax@@ 1
disambiguation 1
runs 1
Del@@ 1
beginning 1
val@@ 1
Soviet 1
ust 1
southern 1
domin@@ 1
spe@@ 1
Sur@@ 1
ram@@ 1
ank@@ 0.9157089022329707
No. 1
ven 0.658849593914871
olog@@ 1
Life 1
1988 1
hol@@ 0.8378108341237708
Richard 1
issues 1
vent@@ 1
tour@@ 1
ron@@ 1
ency 1
Reg@@ 0.5552094188008239
Red 1
San@@ 1
island 1
ā@@ 1
Arch@@ 1
interest 1
forced 1
summer 1
woman 1
Olympics 1
word 1
course 1
Festival 1
hand 1
vers@@ 1
US@@ 1
face 1
sky 1
Summer 1
artist 1
Wal@@ 0.8569508241176851
sm@@ 0.9336166403793198
q@@ 1
To@@ 1
towards 1
La@@ 1
launched 1
Arts 1
systems 1
Bay 1
highest 1
go@@ 1
spent 1
operation 1
thus 1
differ@@ 1
leader 1
capital 1
ek 1
my 1
collec@@ 1
main@@ 1
itself 1
peri@@ 1
too 1
tion@@ 1
hit 1
pp@@ 0.7065838128769556
Most 1
oth 1
III 1
Shi@@ 1
Wh@@ 1
little 1
ument 1
studies 1
va 1
Bri@@ 1
cle@@ 1
Sar@@ 1
sometimes 1
whom 1
lab@@ 1
zed 1
Char@@ 1
Chicago 1
independent 1
dep@@ 1
popul@@ 1
Virginia 1
ung 0.05718347258310227
mark@@ 1
Force 1
ene 0.2908151099331533
ut 0.6416478745696977
2nd 1
opening 1
sed 1
Ge@@ 0.2610974562476977
length 1
traditional 1
higher 1
lan@@ 0.9977158232370251
studied 1
operations 1
igh@@ 1
ense 1
ita 1
Film 0.44872610664317625
magazine 1
army 1
4.@@ 1
Second 1
Records 1
aker 1
bridge 1
far 1
ock@@ 1
Hor@@ 1
Ter@@ 1
appearance 1
county 1
seat 1
running 1
location 1
nam@@ 1
generally 1
ania 1
clos@@ 1
child 1
loss 1
entered 1
Is@@ 1
ams 1
route 1
ples 1
ening 1
natural 1
noted 1
65 1
Ag@@ 1
going 1
future 1
collection 1
genus 1
App@@ 1
according 1
culture 1
del@@ 1
arm@@ 1
ately 1
friend 1
pped 1
80 0.8993095867373705
celeb@@ 1
j 1
serving 1
J. 1
Games 1
sequ@@ 1
Navy 1
Mag@@ 0.8007341738734033
1987 1
required 1
ching 1
teen 1
sing 1
below 1
Ev@@ 1
plant 1
1986 1
tiv@@ 1
key 1
Mexico 1
# 1
Italy 1
enz@@ 0.3224656511138895
network 1
aging 1
You 1
month 1
io 0.9408759364081605
ians 1
means 1
real 1
tour 1
ada 1
ize 1
Hill 1
Sw@@ 1
stre@@ 0.6028257342117129
don 1
companies 1
Gen@@ 0.6572677510858012
operated 1
tional 1
Dis@@ 1
ó@@ 1
conv@@ 1
Pan@@ 1
ella 1
ison 1
Mah@@ 1
ez 1
practice 1
Cap@@ 1
atives 1
stat@@ 1
Rom@@ 1
Northern 1
Battle 1
matches 1
money 1
tly 1
Many 1
ide 1
alism 1
Leg@@ 1
uted 1
1984 1
park 1
lied 1
anti 1
Tr@@ 0.7276824293514949
1980 1
í@@ 0.9940513973915442
Russia 1
selected 1
200 0.9971451038140715
changes 1
ours 1
earlier 1
senior 1
prepar@@ 1
cases 1
complete 1
ca 1
invol@@ 1
Val@@ 1
van 1
If 1
shar@@ 1
Angeles 1
oned 1
ph 1
centre 1
gs 0.9940212330885301
ond@@ 1
enc@@ 1
gold 1
economic 1
Christ@@ 0.8986385325634136
1985 1
schol@@ 1
cli@@ 1
results 1
passed 1
property 1
Greek 1
gen 0.09509032048001566
ession 1
victory 1
500 1
Comp@@ 1
increased 1
individual 1
ox@@ 1
already 1
vir@@ 1
sports 1
author 1
associated 1
ced 1
Cre@@ 1
produc@@ 1
ills 1
sting 1
qualif@@ 1
majority 1
numerous 1
lif@@ 1
limited 1
ains 1
cks 1
contains 1
activities 1
itation 1
cy@@ 1
decision 1
food 1
back@@ 1
unit 1
Joseph 1
becoming 1
singer 1
shot 1
pur@@ 1
ury 1
spir@@ 1
manager 1
commercial 1
press 1
ola 1
Day 1
hu@@ 1
ail@@ 1
care 1
find 1
log@@ 1
competed 1
ium 1
terms 1
ination 1
cover 1
Station 1
Route 1
personal 1
certain 1
move 1
Ke@@ 1
cross@@ 1
sive 1
1983 1
artists 1
caused 1
love 1
fav@@ 1
nine 1
stic 1
ott@@ 0.7284724687950668
coming 1
ala 1
award 1
initially 1
medi@@ 1
annual 1
25@@ 1
moun@@ 1
income 1
access 1
connec@@ 1
ger@@ 0.1421853771147171
hi 1
cial 1
rat@@ 0.7079533867332989
30@@ 1
fall 0.8413702218636133
standard 1
ls 1
So@@ 1
Board 1
Mat@@ 1
70 0.9312609579890823
Sir 1
hip 1
sal@@ 1
45 1
ull 1
Tur@@ 0.9425827885153194
supported 1
student 1
oh@@ 0.5083001248146994
allow 1
post@@ 1
etic 1
Wales 1
Mi@@ 1
Service 1
better 1
elling 1
goals 1
transl@@ 1
mostly 1
90 0.9471024972636988
At@@ 1
retired 1
1982 1
elections 1
trade 1
+ 1
additional 1
itive 1
university 1
gradu@@ 1
Irish 1
Pacific 1
eil@@ 0.5509146291471536
ank 1
phot@@ 1
ric 1
sex 1
particularly 1
staff 1
Elec@@ 1
ures 1
Florida 1
Research 1
ette 0.7733436218465599
7.@@ 1
yer 1
aches 1
Hel@@ 0.7489037648370173
fact 1
past 1
eastern 1
port 1
survi@@ 1
adv@@ 1
claimed 1
ini 1
characters 1
religious 1
ital 1
ond 1
Pra@@ 1
berg 0.2756262791768261
batt@@ 1
chief 1
husband 1
za 1
Sol@@ 0.8782269106888051
6.@@ 1
termin@@ 1
ris@@ 1
bus 1
Southern 1
1972 0.9764022881414695
ff 1
ites 1
portra@@ 1
subsequently 1
anded 1
thro@@ 1
lands 1
sum@@ 1
thought 1
management 1
Ser@@ 0.8207774414804316
Valley 1
Assembly 1
officer 1
iss@@ 0.5876534185509101
Sec@@ 1
die 0.006696655937909204
earned 1
famous 1
medical 1
airs 1
anim@@ 1
1979 1
feature 1
municipality 1
yard 1
descri@@ 1
plan 1
prec@@ 1
Year 1
ote 0.896452129302529
essi@@ 1
Du@@ 0.9368840066524117
regul@@ 1
character@@ 1
asked 1
ze 0.7000636072757659
adap@@ 1
championship 1
parents 1
battle 1
viol@@ 1
particip@@ 1
don@@ 1
raised 1
That 1
create 1
science 1
today 1
arri@@ 1
tar@@ 1
politician 1
integ@@ 1
mor@@ 1
Public 1
Chi@@ 1
Parliament 1
status 1
appro@@ 1
here 1
musical 1
uti@@ 0.7754703925016203
aring 1
actions 1
remains 1
Louis 1
entire 1
programs 1
test 1
orial 1
give 1
Congress 1
Province 1
hel@@ 1
sen 0.31177735280168317
rit@@ 0.5899488605026559
star 1
? 1
continu@@ 1
antly 1
Jewish 1
engine 1
wi@@ 1
publ@@ 1
resi@@ 1
Al 1
Sub@@ 1
ac 1
cour@@ 1
19th 1
eding 1
relationship 1
evidence 1
1976 1
ested 1
fo@@ 1
down@@ 1
thing 1
physi@@ 1
ep 1
hours 1
00@@ 1
score 1
1974 1
Fac@@ 1
CA@@ 1
ads 1
meas@@ 1
Im@@ 0.8499896273578234
mi@@ 1
ib@@ 1
ew@@ 1
sister 1
ensive 1
report 1
Old 1
ingly 1
lim@@ 1
sn@@ 1
particular 1
Tran@@ 1
35 1
1981 1
minutes 1
colon@@ 1
Ben@@ 0.712781317872369
ich@@ 0.41721653172764744
Queen 1
Their 1
une 1
ard@@ 1
Cath@@ 1
3rd 1
bers 1
material 1
turn 1
try 1
1945 0.5326931061796502
mot@@ 1
presented 1
Spain 1
1975 1
helped 1
Dra@@ 1
Indi@@ 1
1968 1
energy 1
akes 1
names 1
Law 1
serve 1
grand@@ 1
Mur@@ 1
1970 0.928131690917574
Commission 1
techn@@ 0.7637360213476713
weight 1
ounds 1
instr@@ 1
lear@@ 1
believed 1
response 1
oms 1
1978 1
bury 1
referred 1
shown 1
specific 1
nomin@@ 1
meeting 1
ulture 1
Railway 1
leaving 1
refer@@ 1
ious 1
Times 1
weeks 1
got 1
Democratic 1
larger 1
composed 1
sen@@ 0.6478391385191152
tel@@ 0.7623211146536016
Martin 1
Pi@@ 0.8276441455102946
complex 1
basketball 1
seasons 1
Gal@@ 0.9168138294091321
Science 1
turned 1
Despite 1
sett@@ 1
pe 1
quest@@ 1
Sam@@ 1
ean 1
likely 1
Line 1
acquired 1
houses 1
ush@@ 1
vote 1
ive 1
Personal 1
ths 1
longer 1
prof@@ 1
offered 1
cou@@ 1
uch@@ 0.44598197238713877
ari 1
ix 1
mak@@ 1
Green 1
Empire 1
ower 1
formation 1
carried 1
constit@@ 1
ye 1
covered 1
cro@@ 1
fight 1
5.@@ 1
ined 1
ries 1
circ@@ 1
People 1
ils 1
takes 1
Fri@@ 1
1973 1
ential 1
issued 1
remaining 1
failed 1
mainly 1
istic 1
del 0.5191663348231791
multiple 1
surface 1
footballer 1
starting 1
My@@ 1
constructed 1
Pet@@ 1
wid@@ 1
deal 1
increase 1
of@@ 0.6678608633948595
promoted 1
ett 0.6754712373099806
1977 1
aired 1
Hy@@ 0.9860250516521332
theory 1
Eastern 1
consi@@ 1
Sha@@ 1
Series 1
Ram@@ 1
graduated 1
regional 1
Lord 1
ols 1
policy 1
But 1
stations 1
organ@@ 1
ref@@ 1
Coun@@ 1
sou@@ 1
activ@@ 1
ligh@@ 1
umb@@ 1
need 1
federal 1
Tor@@ 0.6632938931550347
ome 1
pic@@ 1
alis@@ 1
overall 1
illi@@ 1
native 1
Pen@@ 1
source 1
Play@@ 1
180@@ 0.6480355249923003
Chief 1
positions 1
cost 1
A. 1
actor 1
break 1
kl@@ 0.2920476844651713
Town 1
Big 1
ja 0.8685629536835318
themselves 1
ss@@ 0.6258373751054346
1971 1
proposed 1
ab 0.11488727539387691
suff@@ 1
Conference 1
Wi@@ 1
male 1
financial 1
subject 1
,@@ 0.5240277157120653
sem@@ 1
Star 1
Edward 1
run@@ 1
effect 1
struction 1
ook 1
aster 1
Ger@@ 0.4262106171804612
anda 1
chap@@ 1
legisl@@ 1
ski 0.9654411412416027
pun@@ 1
Rel@@ 1
lat@@ 1
Tro@@ 0.8428057665209574
psych@@ 1
ald 1
with@@ 1
ord 0.9106987135973049
host 1
8.@@ 1
1980s 1
Hu@@ 1
medal 1
appearances 1
eral 1
troops 1
dar@@ 0.43846345127281977
Radio 1
variety 1
consists 1
Lin@@ 0.48785860209051146
1969 1
2,@@ 0.7161519117070639
separate 1
invest@@ 1
thre@@ 1
voc@@ 1
mov@@ 1
latter 1
pet@@ 1
fu@@ 1
aking 1
individuals 1
Carolina 1
command 1
Britain 1
net 0.5836579905576199
sho@@ 1
32 1
ority 1
mental 1
ef@@ 0.7195687980858801
Poland 1
experience 1
always 1
Kn@@ 0.8570770862918604
done 1
speed 1
Man 1
hib@@ 1
ago 1
Ap@@ 1
Pol@@ 0.8512435237521683
opp@@ 1
1967 1
direct 1
Brown 1
ao 1
cities 1
cultural 1
dist@@ 1
ater 1
jec@@ 1
middle 1
plan@@ 1
fully 1
eing 1
eff@@ 1
master 1
table 1
worth 1
play@@ 1
BC 1
Team 0.7550912083413335
influence 1
appears 1
square 1
broadcast 1
Cra@@ 1
rap@@ 1
Dutch 1
recording 1
marriage 1
department 1
itors 1
civil 1
compl@@ 1
Som@@ 1
oul@@ 1
train 1
historical 1
meaning 1
ugh 1
titled 1
Mu@@ 1
ula 1
are@@ 1
gran@@ 1
pit@@ 1
prior 1
fifth 1
separ@@ 1
concern@@ 1
rical 1
professor 1
conditions 1
No@@ 1
20th 1
£ 1
aut@@ 1
ably 1
Both 1
finals 1
oil 1
commun@@ 1
vor@@ 0.10863707153917479
von 0.009951437439105912
ki 1
4th 1
ner@@ 0.6428031692430201
producer 1
top@@ 1
Dun@@ 1
despite 1
direc@@ 1
society 1
Je@@ 1
directly 1
ading 1
defin@@ 1
flu@@ 1
Lee 1
stand 0.20456523241729738
Cy@@ 1
Open 1
Biography 1
quality 1
attempt 1
Bank 1
anti@@ 1
Por@@ 0.8528528338645002
iel@@ 0.5158412643070249
tracks 1
West@@ 0.4089216379541026
responsible 1
words 1
ura 1
discovered 1
bles 1
ron 1
happ@@ 1
divided 1
1964 1
Dr. 1
lar@@ 1
sound 1
govern@@ 1
Creek 1
1970s 1
wind@@ 1
yst@@ 1
Prince 1
Mont@@ 1
initi@@ 1
inst@@ 1
arrived 1
records 1
Dem@@ 0.8077178769814986
provides 1
Love 1
conduc@@ 1
Asian 1
eth 1
Another 1
wat@@ 1
managed 1
ually 1
osp@@ 1
wanted 1
tered 1
let@@ 1
nearly 1
We 1
dge 1
respec@@ 1
ops 1
ung@@ 0.2580501573497918
nearby 1
foreign 1
Mark 1
cent 1
bel@@ 0.3386870047543856
Ly@@ 1
Ak@@ 0.45533227144635524
Lar@@ 1
ga 1
belie@@ 1
recent 1
ault 1
Jones 1
ected 1
ication 1
Er@@ 0.08409710345968725
Y 1
Des@@ 1
Under 1
organized 1
border 1
Scotland 1
fish 1
movie 1
Ob@@ 1
finally 1
plans 1
dou@@ 1
transferred 1
00 0.9906951456875175
ae@@ 1
news 1
yn 1
Cr@@ 1
administrative 1
enth 1
esses 1
real@@ 1
Vo@@ 1
sor@@ 0.6224523290337988
mechan@@ 1
ban 1
officially 1
Latin 1
9.@@ 1
ett@@ 0.513952283142726
tation 1
0,000 1
75 1
technology 1
vement 1
union 1
Pennsylvania 1
bank 1
soci@@ 1
2022 1
province 1
told 1
extended 1
participated 1
cut 1
Bul@@ 1
net@@ 0.8593426820409169
Theatre 1
Sou@@ 1
squ@@ 1
consider@@ 1
64 1
Ste@@ 1
instit@@ 1
exhib@@ 1
yle 1
enough 1
Senate 1
Alb@@ 1
wall 1
Conserv@@ 1
God 1
primarily 1
cle 1
rol@@ 1
requi@@ 1
Ra@@ 1
onia 1
ball@@ 1
Tre@@ 0.6540347145632615
Development 1
Sim@@ 1
vot@@ 1
ert 0.15103668811686033
heavy 1
1960 0.8918867207688075
problems 1
mark 1
eman 1
might 1
comes 1
value 1
Ru@@ 0.46166724814527704
inger 0.4486030535317554
sug@@ 1
Foundation 1
rural 1
saying 1
idea 1
review 1
1965 1
occup@@ 1
mm 0.883306234743157
cause 1
Order 1
1966 1
bat@@ 1
text 1
idae 1
ree 1
ured 1
bert 0.8447921009028583
ners 1
C. 1
editor 1
tru@@ 1
Fe@@ 0.7623972540583492
abor@@ 1
br 1
bul@@ 1
Michigan 1
council 1
vel@@ 1
candidate 1
residents 1
cher 0.5726614205768621
pre 1
Sa@@ 0.7114488476385091
wel@@ 1
ulty 1
alongside 1
elements 1
1944 0.9209277393863674
exec@@ 1
Ant@@ 0.6239188524420739
ri 1
eth@@ 1
Ohio 1
sym@@ 1
Men 1
sons 1
workers 1
Civil 1
double 1
Health 1
mil@@ 1
appear 1
pal@@ 1
sters 1
lin 1
yed 1
whether 1
friends 1
Centre 1
draw 1
levels 1
places 1
function 1
newspaper 1
Francisco 1
Mel@@ 0.9485520729110224
ust@@ 1
leave 1
amount 1
grew 1
nature 1
channel 1
Ir@@ 1
acting 1
ailed 1
door 1
positive 1
Jud@@ 1
ises 1
products 1
Governor 1
Vol@@ 0.8323725788950683
scre@@ 1
cross 1
edly 1
historic 1
sions 1
1990s 1
broad@@ 1
security 1
growth 1
Cha@@ 1
Ha@@ 0.7604713889682383
ris 1
Boston 1
Republican 1
achie@@ 1
awa 1
aya 1
Young 1
fort@@ 1
produce 1
exclu@@ 1
Ti@@ 1
univers@@ 1
week@@ 1
renamed 1
ional 1
households 1
cast@@ 1
Go@@ 1
med@@ 1
lives 1
Vi@@ 0.9016010487076092
makes 1
avi@@ 1
projects 1
assigned 1
och@@ 0.9812406115715636
aka 1
whole 1
Scottish 1
clear 1
Williams 1
lock 1
imm@@ 0.895977260953394
onom@@ 1
M. 1
cru@@ 1
ells 1
call 1
hold 1
Asia 1
ives 1
attrac@@ 1
Nov@@ 1
Camp@@ 1
AR@@ 1
Fur@@ 1
lig@@ 0.6834732410469528
stars 1
activity 1
vin@@ 1
No 1
continue 1
Israel 1
oods 1
she@@ 1
lack 1
my@@ 1
Dor@@ 0.9047351916242528
hospital 1
Director 1
build 1
chart 1
Sea 1
44 1
numbers 1
label 1
CD 1
Da@@ 1
Polish 1
Secretary 1
eigh@@ 1
parish 1
ror 1
AT@@ 1
J 1
demonstr@@ 1
planned 1
ime 1
ordin@@ 1
executive 1
Sil@@ 0.95529249928075
Econom@@ 1
Three 1
giving 1
ji 1
benef@@ 1
sil@@ 1
owner 1
ordered 1
rig@@ 0.6653277457056515
succ@@ 1
s. 1
1960s 1
officers 1
entary 1
mid@@ 1
Johnson 1
after@@ 1
nov@@ 1
pra@@ 1
Major 1
Pat@@ 1
rule 1
Sm@@ 1
sat@@ 1
emb@@ 1
conducted 1
ums 0.28870080293409445
ild 1
onn@@ 0.9357469477785912
prom@@ 1
cho@@ 1
IS@@ 1
rest@@ 1
Ko@@ 0.43058417066204024
prominent 1
whe@@ 1
wit@@ 1
intended 1
179@@ 0.73260124348894
ounded 1
Der@@ 1
je@@ 0.723647219178704
Columbia 1
Alexander 1
Georgia 1
eter 0.5549889529411345
ool 1
wa@@ 1
revol@@ 1
Fort 1
Tel@@ 0.9754975420605243
acts 1
ather 1
forward 1
prac@@ 1
jo@@ 1
mond 1
hab@@ 1
ghts 1
notable 1
tain 1
sent@@ 1
minor 1
Lim@@ 1
ok 1
Ol@@ 0.8914167364765689
yards 1
ild@@ 1
arly 1
unn@@ 1
ule 1
highly 1
races 1
nation 1
impro@@ 1
youth 1
bon 1
19@@ 1
El 1
females 1
ask 1
eal 1
Office 1
eless 1
stories 1
Hospital 1
moving 1
rev@@ 1
coast 1
Rich@@ 1
letter 1
dered 1
fol@@ 0.7958932602298546
agreed 1
itor 1
cia 1
Cam@@ 1
ora 1
soldiers 1
Kh@@ 1
vey 1
Highway 1
removed 1
stream 1
Family 1
commonly 1
mit@@ 0.3024673018714491
revealed 1
olution 1
1962 0.9309169456279793
Ash@@ 1
pain@@ 1
Win@@ 0.889968592243721
vely 1
Han@@ 0.950809304008248
box 1
stop 1
50@@ 1
ishes 1
bar 0.312634665664432
Super@@ 1
formerly 1
join 1
1948 0.9645336374904043
administration 1
omb@@ 1
demic 1
Middle 1
aded 1
1963 0.9643754053709283
Lat@@ 1
auth@@ 1
essed 1
acqu@@ 1
Avenue 1
lo 1
scene 1
ban@@ 1
ins@@ 1
yet 1
int 1
eption 1
itt@@ 0.7092466664990469
33 1
basis 1
marine 1
uss@@ 0.499829915985579
ancient 1
strateg@@ 1
cu@@ 1
Star@@ 1
restor@@ 1
capacity 1
ral 1
color 1
occasi@@ 1
Do@@ 1
mod@@ 1
Ul@@ 1
designated 1
My 1
aks 1
effects 1
depend@@ 1
vic@@ 1
sites 1
marked 1
1942 0.9830362538061113
Super 1
just@@ 1
ł@@ 1
Historic 1
liz@@ 1
follows 1
Bill 1
As@@ 1
settlement 1
loo@@ 1
enter@@ 1
travel@@ 1
distance 1
nav@@ 1
investig@@ 1
hood 1
treatment 1
paper 1
agreement 1
Sydney 1
ete 0.22492502853371174
susp@@ 1
singles 1
smaller 1
grade 1
awards 1
quickly 1
itar@@ 1
News 1
dedicated 1
keep@@ 1
36 1
Ni@@ 1
Tal@@ 0.8048237386115665
purchased 1
ih@@ 0.8541136453814303
Also 1
fir@@ 1
floor 1
bom@@ 1
Corps 1
B. 0.40959134321844165
charge 1
quar@@ 1
fellow 1
ink 1
ified 1
5th 1
potential 1
leaders 1
sign 1
ico 1
ough 1
add@@ 1
nation@@ 1
ole 1
initial 1
ody 1
poss@@ 1
fur@@ 1
Tour 0.9707435259691579
bel 0.4584200155360233
drama 1
hard 1
yth@@ 1
RA@@ 1
ril@@ 1
1940 0.9345702591736608
manufactur@@ 1
ask@@ 1
facilities 1
Ur@@ 0.33602018786734744
immediately 1
ader 1
frequ@@ 1
dated 1
oon 1
Dan@@ 1
assistant 1
repe@@ 1
pt 1
Coast 1
defeat 1
rot@@ 1
fas@@ 1
Pres@@ 1
graduate 1
itting 1
Cas@@ 1
Kal@@ 0.6470190637842569
enh@@ 0.31756066469508665
firm 1
edi@@ 0.9245187361287929
Ty@@ 1
Don@@ 0.9596600508487771
ich 0.6601950387735022
ñ@@ 1
BBC 1
focus 1
ection 1
pass 1
behavi@@ 1
respectively 1
estimated 1
Ministry 1
ax 1
1939 0.7720373735340735
eur 1
median 1
1961 0.9166512672162339
radi@@ 1
May@@ 1
sla@@ 1
1941 0.9575675960549735
Kr@@ 0.46395126513394447
acks 1
winner 1
expected 1
alities 1
lot 1
tou@@ 1
Lan@@ 0.5995456907822568
castle 1
Jack 1
thir@@ 1
views 1
efforts 1
person@@ 1
ati 1
conference 1
declared 1
Jersey 1
Mos@@ 0.8176577095356
tively 1
serves 1
Roman@@ 1
bas@@ 1
pursu@@ 1
All@@ 0.7726152570492775
identified 1
ela 1
essor 1
Air@@ 1
article 1
E. 1
Of 1
types 1
Jan@@ 1
1946 0.8573698585053622
clubs 1
typically 1
Little 1
housing 1
replac@@ 1
che@@ 1
1956 0.9085656523373307
relations 1
cars 1
vision 1
mis@@ 1
IV 1
1943 0.9625312703950835
deb@@ 1
Cast@@ 1
men@@ 0.5362170442102224
ius 0.8557454704602584
AS@@ 1
verse 1
Blue 1
ancy 1
poor 1
compared 1
da@@ 1
physical 1
green 1
reach 1
gun 1
inside 1
bin@@ 0.8944225739402741
largely 1
founder 1
gained 1
Rob@@ 1
Dec@@ 1
requ@@ 1
Ann@@ 1
toral 1
needed 1
probably 1
format 1
Airport 1
soli@@ 1
Federal 1
recogn@@ 1
percent 1
cally 1
stance 1
Olympic 1
ming 1
entry 1
featuring 1
flight 1
esh 1
S. 1
aver@@ 1
influ@@ 1
asy 1
Ker@@ 1
expres@@ 1
Wat@@ 1
Victoria 1
roles 1
attention 1
ost 1
ues 1
ept@@ 1
destroyed 1
34 1
operating 1
captured 1
trial 1
ple@@ 1
bal@@ 1
sin@@ 0.40296394294539556
contro@@ 1
head@@ 1
hosted 1
museum 1
ier@@ 0.16985726984852026
scale 1
Illinois 1
Ven@@ 1
incorporated 1
upper 1
hum@@ 1
ores 1
aters 1
autom@@ 1
votes 1
1958 0.9301564031342677
Post 1
elle 0.16205167549947927
website 1
affili@@ 1
bit 1
oth@@ 0.8730401832269395
ce@@ 1
elev@@ 1
bon@@ 1
Ban@@ 1
street 1
branch 1
Earth 1
rul@@ 1
covers 1
critic@@ 1
Justice 1
esc@@ 1
Ham@@ 1
gas 1
lay@@ 1
Med@@ 1
aid 1
committee 1
Berlin 0.2212614367699805
languages 1
Op@@ 0.9370561585671635
Rock 1
ex 1
cin@@ 1
Jean 1
widely 1
Cat@@ 1
rup@@ 1
distribution 1
1950 0.7792950059408793
paid 1
voted 1
Bat@@ 1
H. 1
crew 1
sources 1
W. 1
mixed 1
posed 1
38 1
confirmed 1
piece 1
communities 1
ona 1
portion 1
suffered 1
6th 1
online 1
accepted 1
Scott 1
dicine 1
direction 1
occurred 1
Mount 1
nel 1
computer 1
leadership 1
depic@@ 1
cell 1
Fi@@ 1
ything 1
spring 1
Jer@@ 1
ranked 1
represent@@ 1
ances 1
Each 1
leaves 1
semi 1
fication 1
meet 1
ulation 1
Frank 1
combined 1
yan 1
colle@@ 1
pay 1
scoring 1
ologist 1
miles 1
Mas@@ 1
son@@ 0.6536704585436911
trac@@ 1
estate 1
territory 1
taught 1
exper@@ 1
metal 1
Tar@@ 1
adopted 1
mel@@ 0.5573295918494089
BS 1
Supreme 1
episodes 1
Iran 1
academic 1
aching 1
fund@@ 1
Ran@@ 1
uit 1
reflec@@ 1
Mid@@ 1
stant 1
job 1
Corporation 1
oke 1
Mun@@ 1
conf@@ 1
1947 0.8937511006596803
Rep@@ 1
keep 1
Hen@@ 1
product 1
Kong 1
ason 1
Lo@@ 0.9867984115150448
uments 1
FM 1
recognized 1
Elizabeth 1
sever@@ 1
therefore 1
thous@@ 1
fron@@ 1
fell 1
plants 1
1957 0.9070706175138945
Massachusetts 1
concept 1
ota 1
ide@@ 1
Hong 1
own@@ 1
SR 1
ush 1
tery 1
Islands 1
mentioned 1
approach 1
bran@@ 1
pressure 1
AC@@ 1
resulted 1
code 1
Korea 1
teacher 1
1959 0.9281968044200472
felt 1
Before 1
mann 0.17271709435433547
camp 1
reviews 1
mass 1
zer@@ 0.46651553562058984
equipment 1
Bab@@ 1
ple 1
plat@@ 1
7th 1
compar@@ 1
ograph@@ 1
bishop 1
alone 1
alty 1
acted 1
itic 1
titles 1
purpose 1
arg@@ 1
ea 1
Sports 1
analysis 1
prison 1
dance 1
ben@@ 0.2586124484068262
viewed 1
nominated 1
commissioned 1
campus 1
37 1
tac@@ 1
1952 0.8370173947698901
concent@@ 1
ult@@ 1
recently 1
heart 1
critical 1
Time 1
tain@@ 1
urban 1
ects 1
ik 0.17883544426225387
Jam@@ 1
encour@@ 1
respon@@ 1
conserv@@ 1
presence 1
Tu@@ 1
è@@ 0.7351083242832667
rating 1
expanded 1
ou 1
arms 1
mig@@ 1
develop@@ 1
Nic@@ 1
mut@@ 0.890671785975072
advis@@ 1
method 1
Whit@@ 1
yr@@ 1
rail@@ 1
48 1
champion 1
gel 0.30838064200295656
q 1
Stadium 1
low@@ 1
albums 1
Ang@@ 0.8971135896785813
enced 1
Fran@@ 0.8833783035599213
aked 1
pot@@ 1
silver 1
platform 1
store 1
connected 1
jud@@ 1
cra@@ 1
42 1
Duke 1
kin@@ 1
account 1
Born 1
Liber@@ 1
forc@@ 1
gin 1
spi@@ 1
interpre@@ 1
casting 1
fran@@ 1
parties 1
Bishop 1
ayed 1
Background 1
ices 1
ume 1
Dre@@ 0.7314045404206606
zz@@ 1
Professor 0.6008605543008791
pping 1
Tom 1
Chap@@ 1
Swedish 1
crow@@ 1
Hal@@ 0.6492012758723192
1955 0.9242517730943597
Pa@@ 0.5866519697126614
amed 1
offers 1
deci@@ 1
secondary 1
Thro@@ 1
granted 1
buried 1
ys@@ 1
ods 1
ached 1
Met@@ 0.576432847907761
Cer@@ 1
aling 1
Prot@@ 0.6969182376238205
remain 1
content 1
hur@@ 1
sey 1
R. 1
lined 1
Top 1
fru@@ 1
eded 1
Home 1
xed 1
struc@@ 1
Police 1
fast 0.49415192791410767
say 1
rit 1
Santa 1
Spe@@ 1
voice 1
ria 1
difficult 1
Prime 1
Juli@@ 1
birth 1
cau@@ 1
compil@@ 1
losing 1
Cross 1
except 1
immig@@ 1
tax@@ 1
Mich@@ 0.8994663370672445
signific@@ 1
oes 1
Hav@@ 1
burg 0.20524165880331352
1949 0.8401747803798593
knowledge 1
mouth 1
versions 1
growing 1
Dou@@ 1
gets 1
solo 1
Library 1
minister 0.8061814917609843
literature 1
Pakistan 1
ems 1
incre@@ 1
diss@@ 1
organizations 1
hydro@@ 1
reduced 1
usi@@ 1
Mov@@ 1
newly 1
tural 1
Atlantic 1
1954 0.9041103356446468
ults 1
Sab@@ 1
rif@@ 1
appar@@ 1
deli@@ 1
sav@@ 1
Sem@@ 1
vention 1
Geography 1
Rev@@ 1
Spec@@ 1
Joe 1
dence 1
Don 1
rules 1
Final 1
minute 1
defined 1
Out@@ 1
tree 1
painting 1
bing 1
udi@@ 1
De 1
disease 1
onents 1
models 1
Sel@@ 0.7994187868522934
identif@@ 1
damage 1
sy@@ 1
digital 1
performances 1
pop 1
ott 1
rh@@ 1
ables 1
sides 1
wa 1
fields 1
bet@@ 0.2244887543612457
spread 1
strug@@ 1
density 1
lie 1
Clar@@ 1
icient 1
Mark@@ 0.5713377777913674
gh 1
asp@@ 0.8809061954585322
promot@@ 1
background 1
surname 1
ern 0.05820504519162897
rates 1
Jackson 1
She@@ 1
offer 1
Toronto 1
inspired 1
resulting 1
recomm@@ 1
mountain 1
ón 1
enter 1
ouse 1
ides 1
problem 1
Pic@@ 1
Brazil 1
bution 1
pul@@ 1
sens@@ 1
tax 1
comedy 1
laws 1
Ontario 1
Colle@@ 1
ific@@ 1
quarter 1
mes 1
suggested 1
Bus@@ 0.9812968161677549
true 1
oting 1
inner 1
The@@ 0.667162826965512
couple 1
184@@ 0.8847334440874088
55 0.9680117237038119
faced 1
existing 1
work@@ 1
Rome 1
lov@@ 1
figure 1
twice 1
creation 1
seats 1
boo@@ 1
liber@@ 1
accoun@@ 1
3,@@ 0.6952712679844999
MS 1
1953 0.8906500904046492
Shar@@ 1
dig@@ 0.582656593631922
gan 1
Den@@ 0.7945220759527093
continues 1
Lev@@ 1
gest@@ 0.2296454672293854
tains 1
males 1
uf@@ 0.3945315350996569
sculp@@ 1
colum@@ 1
AC 1
emer@@ 1
generation 1
travel 1
izing 1
sport 1
elt 0.32018879630095676
high@@ 1
ign 1
obtained 1
allows 1
any@@ 1
Bridge 1
Premier 1
disp@@ 1
share 1
Media 1
Crit@@ 1
Vis@@ 1
prop@@ 1
CO@@ 1
chairman 1
rich 0.8136140871564743
Nations 1
complet@@ 1
arts 1
contemporary 1
collabor@@ 1
aim@@ 1
ear 1
lers 1
rie 1
1951 0.9187735640911177
Social 1
Dr@@ 1
priv@@ 1
itted 1
twenty 1
Military 1
uth 1
association 1
Stud@@ 0.8895375392319942
Raj@@ 1
develop 1
8th 1
get@@ 0.28079111230539877
providing 1
Arthur 1
kept 1
sus 1
festival 1
successfully 1
ood@@ 1
š@@ 0.7020630296769281
view@@ 1
Ah@@ 1
actually 1
Gil@@ 1
Cop@@ 1
alli@@ 1
sian 1
showed 1
Univers@@ 0.9301092093353329
surrounding 1
Korean 1
Show 1
1938 0.6684620835357784
lake 1
yl 1
necessary 1
modi@@ 1
Township 1
Tom@@ 1
anding 1
cells 1
mont 1
1918 0.8910429749170787
finish 1
Dep@@ 1
ila 1
split 1
law@@ 1
teaching 1
Arab@@ 1
Pur@@ 1
guitar 1
Kan@@ 0.4569475087682943
P. 1
sa 1
feet 1
officials 1
41 1
orders 1
ior 1
eting 1
plac@@ 1
Game 1
ua 1
Philadelphia 1
forest 1
Fer@@ 0.736211602552053
1936 0.8692971966685636
han@@ 1
becomes 1
ique 1
rank 1
occupied 1
canc@@ 1
effort 1
tured 1
recover@@ 1
win@@ 0.6189519400224185
Ren@@ 0.8553839477334141
boat 1
9th 1
tried 1
zen 0.25601559167088733
Ju@@ 0.9400007999628482
exam@@ 1
sets 1
depar@@ 1
USA 0.3982826872169227
arrested 1
Me 1
ily 1
authorities 1
Sher@@ 1
claims 1
ous@@ 1
politics 1
uts 1
ound@@ 1
aining 1
Regiment 1
alion 1
dia 1
injury 1
mile 1
boy 1
Serb@@ 1
billion 1
Over 1
300 1
‘ 0.47352485694886615
les@@ 1
Oc@@ 1
Because 1
Book 1
receive 1
alists 1
aps 1
Not@@ 0.7504471248314133
Loc@@ 1
allowing 1
situated 1
Os@@ 0.7709996216890873
asing 1
span 1
minim@@ 1
tual 1
Mart@@ 1
figh@@ 1
Wilson 1
178@@ 0.7046128697078892
aw 1
wer@@ 0.18574892453679642
ancing 1
tific@@ 1
Billboard 1
versi@@ 1
wise 1
experim@@ 1
regions 1
tower 1
lis 1
sively 1
Pap@@ 0.8289227684311034
unique 1
1920 0.8342641957289523
Among 1
gives 1
itable 1
mess@@ 1
rison 1
ig 0.20021214728186598
mur@@ 1
dead 1
du 0.8710276930251644
lob@@ 1
athlet@@ 1
alized 1
attacks 1
opposed 1
Long 1
owing 1
Mr. 1
ée 1
greater 1
tradition 1
block 1
tial 1
ema 1
sixth 1
special@@ 1
implem@@ 1
hour 1
Sand@@ 0.8220891341652653
39 1
younger 1
villages 1
fle@@ 1
impact 1
anced 1
ign@@ 1
opposition 1
Af@@ 1
eling 1
stood 1
captain 1
goes 1
ine@@ 1
Captain 1
ural 1
blue 1
visit 1
forming 1
dark 1
interview 1
sales 1
sit 1
cid@@ 1
Cri@@ 1
micro@@ 1
Sweden 1
applied 1
ox 1
ike 1
Democ@@ 1
Sun 1
ren 0.583388781805093
Community 1
pap@@ 1
gene 0.7870425738191748
Kir@@ 1
gle 1
traffic 1
reli@@ 1
facility 1
Netherlands 1
broke 1
din@@ 1
folk 1
Lady 1
47 1
restric@@ 1
Bir@@ 1
succeeded 1
onic 1
Fu@@ 0.6319826768362503
400 0.9241609430193786
Technology 1
arity 1
cas@@ 1
contrac@@ 1
dom@@ 1
Cour@@ 1
che 0.19446212424762363
metres 1
borough 1
employed 1
occer 1
dae 1
Over@@ 1
bes 1
hall 1
Cub@@ 1
figures 1
ova 1
Port 1
ographic 1
scientific 1
deep 1
headquarters 1
Between 1
Sus@@ 1
drawn 1
opped 1
Bet@@ 0.2933921509658412
effective 1
oring 1
ille 1
rist@@ 0.8439866591035853
Like 1
theatre 1
Oxford 1
associ@@ 1
ko 0.9548164381656493
serv@@ 0.802286420406638
Dur@@ 1
bus@@ 1
inten@@ 1
itude 1
gres@@ 1
Register 1
claim 1
Daniel 1
administ@@ 1
propos@@ 1
brothers 1
1937 0.8737155445551024
climate 1
software 1
Sum@@ 1
1950s 1
library 1
approved 1
bought 1
explo@@ 1
nin@@ 1
risk 1
baseball 1
Death 1
cannot 1
ears 1
qualified 1
Emperor 1
fare 1
ø@@ 1
says 1
Batt@@ 1
governor 1
Red@@ 0.7503567367551116
Hi@@ 1
electric 1
Maria 0.540225077964265
know 1
promotion 1
commander 1
owns 1
critics 1
tells 1
gn@@ 0.7916599255894775
mal@@ 0.3112931994326697
aly@@ 1
Bol@@ 1
illustr@@ 1
kind 1
classes 1
Medical 1
Andrew 1
Indon@@ 1
oral 1
look 1
squad 1
ray 1
Sav@@ 1
Due 1
ero 1
returning 1
ender 0.2351761141988998
blood 1
Z 0.6967282151261144
belong@@ 1
oy 1
brand 1
drive 1
settled 1
Moh@@ 1
But@@ 1
core 1
Field 1
trains 1
Luc@@ 1
completely 1
Q 1
Special 1
fres@@ 1
rob@@ 1
simply 1
image 1
fighting 1
round@@ 1
Taylor 1
Haw@@ 1
1919 0.8233385789900939
environment 1
anian 1
read 1
advanced 1
ext 1
Black@@ 1
ado 1
oma 1
Municip@@ 1
big 1
achieved 1
rooms 1
visited 1
Americans 1
Tim@@ 1
Golden 1
Castle 1
Business 1
clu@@ 1
ingu@@ 1
perc@@ 1
49 1
tit@@ 1
ali 1
drew 1
mom@@ 1
Rock@@ 1
kins 1
situation 1
sli@@ 1
advert@@ 1
And 1
industrial 1
cycl@@ 1
Arm@@ 1
gency 1
rise 1
enjo@@ 1
desc@@ 1
Mike 1
sk 1
Le 1
edral 1
Mountain 1
° 0.6701739554135526
ech@@ 0.6343105891411559
gers 1
materials 1
frequently 1
Van 1
95 1
authority 1
analy@@ 1
Press 1
illa 1
omm@@ 0.5082123819763412
Land@@ 0.15071377167118644
kes 1
bour@@ 1
rati@@ 1
olved 1
43 1
oldest 1
destro@@ 1
Ret@@ 1
joining 1
pris@@ 1
D. 1
actress 1
ni@@ 0.8527600249440713
publication 1
tory 1
ision 1
something 1
reports 1
52 1
una 1
atures 1
chosen 1
arti@@ 1
sexual 1
Classi@@ 1
proce@@ 1
restaur@@ 1
BA 1
Mem@@ 1
op 1
Est@@ 1
holds 1
bute 1
mand@@ 1
Francis 1
advoc@@ 1
pi@@ 1
tier 1
supply 1
iss 1
oration 1
sty@@ 1
.C. 1
murder 1
dates 1
merged 1
relatively 1
refused 1
credited 1
ju@@ 1
Several 1
dit 1
Chris 1
venue 1
things 1
Four 1
essing 1
sportation 1
olf 1
illery 1
een 1
conclu@@ 1
nor 1
Cel@@ 1
stein 0.2699699770073907
Fo@@ 1
Ken@@ 1
od 1
shop 1
household 1
swe@@ 1
orts 1
ressed 1
eller 0.4118109403489455
ham@@ 1
pay@@ 1
Dev@@ 1
histor@@ 0.777487914498057
Circ@@ 1
1930 0.8159356189880157
rian 1
Hay@@ 1
hop@@ 1
Geor@@ 1
racing 1
ump 1
stock 1
Vir@@ 1
boys 1
fly 1
idd@@ 1
saf@@ 1
eme 0.8832279107102826
Ass@@ 1
AA 1
creating 1
distingu@@ 1
ied 1
Cent@@ 1
foot 1
esia 1
aus@@ 0.043027833064033696
touch@@ 1
bring 1
victi@@ 1
hat@@ 1
friend@@ 1
Il@@ 0.7802297685074174
1933 0.5584200299121254
fans 1
Master 1
transport 1
num@@ 1
starring 1
40@@ 1
Art@@ 0.7199351376601604
swit@@ 1
fted 1
Hur@@ 1
Today 1
concert 1
theme 1
audi@@ 1
18th 1
begins 1
joint 1
46 1
Junior 1
Boo@@ 1
Str@@ 0.7110268407655247
consisted 1
66 1
perform 1
focused 1
conflict 1
dom 1
ō@@ 0.9590279687651435
notes 1
Bon@@ 0.9710788140993427
challeng@@ 1
ales 0.8312184159256203
coh@@ 1
winter 1
Federation 1
elect@@ 1
owers 1
sta 1
1914 0.8830529327592895
ames 1
founding 1
CD@@ 1
by@@ 1
otyp@@ 1
scheduled 1
1917 1
onent 1
Bos@@ 1
methods 1
Corn@@ 1
Plot 1
racy 1
Davis 1
ission@@ 1
principal 1
temporary 1
bloc@@ 1
Gul@@ 1
Prize 1
missed 1
lie@@ 0.5304003305792235
selling 1
performing 1
ze@@ 0.5537047651582301
agent 1
origin 1
poli@@ 1
11@@ 1
beat 1
presents 1
FL 1
custom@@ 1
path@@ 1
begin 1
negoti@@ 1
receiving 1
inj@@ 1
safety 1
ility 1
utes 1
ost@@ 0.5256765358070973
unable 1
By@@ 1
articles 1
Donald 1
transfer 1
1935 0.8265405151526235
subur@@ 1
inary 1
roads 1
audience 1
Bob 1
exchange 1
fought 1
dur@@ 1
85 1
attempted 1
Beach 1
research@@ 1
ais@@ 0.8992994805774595
retirement 1
vice 1
Gran@@ 1
ight@@ 1
districts 1
pair 1
sequence 1
Cham@@ 1
prevent 1
á 0.7142037375118233
follow 1
ining 1
FA 1
Princ@@ 1
attacked 1
rey 1
Ele@@ 1
normal 1
girls 1
clo@@ 1
Rod@@ 1
fic@@ 1
zi@@ 0.30191306744227137
ocese 1
ont@@ 1
camp@@ 1
Av@@ 1
Network 1
structures 1
EP 1
hard@@ 1
subsequent 1
economy 1
Minnesota 1
reason 1
51 0.9853931400886341
partner 1
jur@@ 1
origin@@ 1
Nar@@ 1
ades 1
mann@@ 0.5194381067901219
Coll@@ 1
dies 0.41390384443865996
setting 1
Journal 1
prise 1
cycle 1
reference 1
Mexican 1
photograph@@ 1
architecture 1
tropical 1
kin 1
Region 0.332086536000441
Eur@@ 1
expansion 1
towns 1
write 1
morning 1
Tw@@ 1
shared 1
uz@@ 0.8348278666321534
daily 1
Kansas 1
loan 1
ras@@ 0.9389858834978242
temple 1
minist@@ 1
defense 1
clin@@ 1
dropped 1
cian 1
thesis 1
employ@@ 1
machine 1
fif@@ 1
converted 1
thin 1
Ku@@ 0.8878451454257682
Rober@@ 1
non@@ 1
box@@ 1
foc@@ 1
Slov@@ 1
System 0.6745459417121545
oo 1
Flor@@ 0.8899089388101106
dre@@ 0.3070051813117121
journ@@ 1
1928 0.8495860311894865
Kur@@ 0.36428054400872767
NCAA 1
Reception 1
determined 1
Bou@@ 1
PA 1
unknown 1
Bas@@ 1
protection 1
use@@ 1
econom@@ 1
mers 1
formal 1
bil@@ 0.611317952440804
Hum@@ 1
launch 1
entitled 1
SP@@ 1
Forest 1
Inc. 1
beau@@ 1
tha 1
Missouri 1
Tru@@ 1
animals 1
NFL 1
representing 1
cel@@ 1
fiction 1
permanent 1
impres@@ 1
Steve 1
L. 1
ety 1
girl 1
shortly 1
arran@@ 1
increasing 1
erv@@ 1
han 1
án 1
mathemati@@ 1
bered 1
entation 1
astic 1
grounds 1
crime 1
54 1
presidential 1
na@@ 1
ynasty 1
dian 1
sense 1
kers 1
Jr 1
volume 1
pow@@ 1
Mot@@ 0.5040508090619115
spar@@ 0.732167944049004
eness 1
Melbourne 1
istics 1
ield 1
Description 1
fli@@ 0.9474851110809338
attempts 1
influenced 1
Mus@@ 1
big@@ 1
AI@@ 1
educational 1
diag@@ 1
trees 1
engineering 1
copies 1
derived 1
emerg@@ 1
1929 0.8508460423408286
č@@ 0.7946627652396605
ilian 1
isher 1
elimin@@ 1
seg@@ 1
1934 0.7465360432166182
spok@@ 1
water@@ 1
Lewis 1
Area 1
ultimately 1
Co 1
present@@ 1
ram 1
Gold 1
correspon@@ 1
Moscow 1
guest 1
them@@ 0.9995228512782847
hin@@ 0.26861278261705074
vehicles 1
ace@@ 1
ç@@ 1
stay 1
greg@@ 1
FI@@ 1
Patri@@ 1
trav@@ 1
ultural 1
chem@@ 1
bronze 1
represent 1
e.g. 1
Soci@@ 1
Fox 1
ato 1
Fal@@ 0.9256132169392252
citizens 1
utional 1
parti@@ 1
properties 1
ester 0.4996822806486748
Memorial 1
Jim 1
birds 1
IC@@ 1
writ@@ 1
Pau@@ 0.7892872365627841
extensive 1
highway 1
ditionally 1
ulated 1
cancer 1
global 1
rier 1
ment@@ 1
prison@@ 1
Night 1
airport 1
constituency 1
Dal@@ 1
Gor@@ 1
vil 1
resources 1
contributed 1
maximum 1
Power 1
fort 0.6021928533162431
tra 1
ager 0.5473711315898475
mayor 1
containing 1
eter@@ 1
Is 1
learning 1
onto 1
Muslim 1
attri@@ 1
Lor@@ 1
powerful 1
coordin@@ 1
centuries 1
simple 1
Gir@@ 1
Eth@@ 1
meant 1
recru@@ 1
edge 1
pieces 1
ello 1
62 1
Stephen 1
tif@@ 1
Tit@@ 0.9799890493297164
Turkish 1
Hom@@ 1
flow 1
Sunday 1
tt@@ 0.39138310448474184
Direc@@ 1
Queensland 1
hockey 1
Country 1
fa@@ 1
itz 0.19906513699443484
usual 1
peace 1
responsi@@ 1
Live 1
Wisconsin 1
laid 1
CA 1
North@@ 1
wings 1
alg@@ 1
institutions 1
drug 1
ecture 1
guns 1
passing 1
dest@@ 0.7168393454942071
Sen@@ 0.4149261539031727
application 1
card 1
controlled 1
ject 1
ken 0.09574004389404636
locations 1
Sciences 1
UN@@ 1
pil@@ 1
More 1
63 0.9768979067646137
sector 1
phase 1
decre@@ 1
alt 0.3644752862211902
oot 1
vac@@ 1
hands 1
Ta@@ 1
farm 1
chron@@ 0.9808282509106534
miss@@ 1
iers 1
MA 1
reser@@ 1
1924 0.8941866830427088
Cape 1
substan@@ 1
walls 1
i.e. 1
domestic 1
offices 1
headed 1
Lam@@ 1
burn 1
holding 1
memory 1
star@@ 0.5156404880390283
transm@@ 1
Project 1
sle@@ 1
sought 1
distinc@@ 1
func@@ 1
vehicle 1
rat 0.27444369478406183
jects 1
armed 1
1932 0.8369633462231841
slightly 1
Television 1
sust@@ 1
thy 1
Hun@@ 1
Stra@@ 0.6488889006953508
threat@@ 1
mary 1
identity 1
200@@ 1
documentary 1
beyond 1
arc@@ 1
condition 1
gate 1
ights 1
1912 0.9595032261085487
inaug@@ 1
temperature 1
99 1
Vietnam 1
cover@@ 1
Sau@@ 0.7936799884676793
Song 0.9655144715478488
establishment 1
Turkey 1
LA 1
developing 1
Ath@@ 1
dor@@ 0.7515964727233794
Production 1
letters 1
Bow@@ 1
recognition 1
Cambridge 1
67 1
supporting 1
yellow 1
Prior 1
zone 1
liamentary 1
expressed 1
Tennessee 1
coast@@ 1
Bran@@ 1
cket 1
search 1
ingham 1
liter@@ 1
rain 1
bab@@ 1
reasons 1
invited 1
Norway 1
odi@@ 0.972777168932442
53 0.9538967439152106
Histor@@ 0.6579626864208837
iter@@ 1
proved 1
ō 0.8307959380947287
56 0.9436633104342046
funding 1
rail 1
Indiana 1
gress 1
lyrics 1
uni@@ 1
ba 1
consecutive 1
essions 1
height 1
hill 1
Organ@@ 1
1922 0.9428492710079976
educated 1
matter 1
mu@@ 0.6654312431449783
aste 1
Philippines 1
ternal 1
Point 1
61 1
candidates 1
Pun@@ 1
glass 1
producing 1
Khan 1
umes 1
want 1
abol@@ 1
occurs 1
aki 1
Upon 1
ky 1
Jews 1
foot@@ 1
outs 1
SA 1
eo 1
horse 1
Christmas 1
suit 1
rements 1
doing 1
Bah@@ 1
alog@@ 1
ud 1
functions 1
technical 1
hotel 1
screen 1
Manchester 1
rugby 1
1927 0.876403802486535
suppor@@ 1
omet@@ 1
anic 1
Def@@ 1
abandoned 1
contained 1
Mol@@ 0.8677324563544017
brown 1
aware 1
finishing 1
oured 1
bodies 1
Ever@@ 1
Auth@@ 1
1921 0.8993293740785924
G. 1
writers 1
bands 1
Techn@@ 0.5056128222342976
Native 1
68 0.9495905134577514
57 0.9979645894010765
agre@@ 1
pers@@ 1
F. 1
yers 1
Hind@@ 1
erg@@ 0.42998418597826366
factory 1
sus@@ 1
journalist 1
looking 1
Labour 1
Swiss 1
Services 1
needs 1
speech 1
Gh@@ 1
illing 1
anz@@ 0.1568975684061811
contact 1
independence 1
Notable 1
new@@ 1
72 1
eu@@ 0.7301867479958739
anch@@ 1
tern 0.2818490354303358
MP 1
tan@@ 1
bound 1
Lei@@ 0.5335792117113468
Hot 1
patients 1
category 1
1925 0.8516866354492925
bir@@ 1
Land 0.33576889053385217
Maryland 1
judge 1
Green@@ 1
ian@@ 1
bill 1
Affairs 1
refers 1
investigation 1
there@@ 1
1926 0.9106640166076015
1931 0.8953926919568929
fleet 1
Hamp@@ 1
hion 1
architect 1
negative 1
Class 1
NA 1
rying 1
tom@@ 1
4,@@ 0.6579464254205675
violence 1
planning 1
Arizona 1
ease 1
mine 1
royal 1
Norwegian 1
nic@@ 1
Portuguese 1
Building 1
combat 1
ove 1
existence 1
ul 1
alternative 1
COVID 1
Then 1
Harry 1
ceremony 1
Studies 1
Lt@@ 1
Ca@@ 1
decades 1
instruc@@ 1
reaching 1
eer 1
abinet 1
organis@@ 0.5144137258922741
Nag@@ 1
gressive 1
roman@@ 1
operate 1
sh 1
archit@@ 1
neigh@@ 1
Channel 1
maintained 1
motion 1
58 1
utions 1
Pot@@ 0.8006966649327691
Rang@@ 1
akers 1
fiel@@ 1
decor@@ 1
empl@@ 1
NS@@ 0.8299927706519875
ption 1
DC 1
otic 1
Tournament 1
resigned 1
multi 1
ped@@ 1
stro@@ 1
fest@@ 0.20128945759310732
lion 1
Sn@@ 1
1923 0.9011769001709755
basic 1
achers 1
every@@ 1
Fle@@ 0.7587381975971286
nership 1
Ky@@ 1
ation@@ 0.363568883780826
mus@@ 1
composer 1
var@@ 1
literary 1
Tun@@ 1
herself 1
mal 0.24986214906533738
Oregon 1
wer 1
Beng@@ 1
ni 1
Rus@@ 1
Infantry 1
shape 1
recei@@ 1
eval 1
regarding 1
contin@@ 1
Armen@@ 1
Austria 1
mul@@ 1
specifically 1
Rem@@ 1
embl@@ 1
junior 1
Colorado 1
honor 1
hired 1
gam@@ 1
rear 1
Kon@@ 0.077589909272052
convic@@ 1
1910 0.8691102817222964
installed 1
abilities 1
chan@@ 1
enemy 1
Clin@@ 1
â@@ 1
Men@@ 0.9195729042232448
neg@@ 1
counter@@ 1
establish 1
author@@ 1
Lou@@ 1
trained 1
rau@@ 0.2624465581412899
gender 1
Foreign 1
clim@@ 1
Walter 0.8190207170964932
risis 1
ept 1
exhibition 1
Kam@@ 1
shaped 1
Brun@@ 0.8497452640541358
circul@@ 1
event@@ 1
sponsor@@ 1
ane@@ 1
owners 1
straight 1
contri@@ 1
Entertainment 1
observed 1
secretary 1
cut@@ 1
Ali 1
lets 1
rele@@ 1
1916 1
References 1
phy 1
collected 1
ister 1
fuel 1
extrem@@ 1
stating 1
zes 1
Representatives 1
connection 1
nuclear 1
utionary 1
classical 1
registered 1
ami 1
argued 1
junction 1
pilot 1
ty@@ 1
correc@@ 1
display 1
eled 1
symp@@ 1
69 1
fer 0.2024876385032991
roll 1
1915 1
Revolution 1
inking 1
ulti@@ 1
wins 1
sac@@ 1
Sri 1
passes 1
ruled 1
bow@@ 1
iversary 1
OS 1
athan 1
funds 1
contribut@@ 1
film@@ 0.9553255776260717
ER@@ 1
Medal 1
affected 1
camer@@ 1
unk@@ 0.3723476550668615
worldwide 1
Places 1
1900 0.7815182844750831
pick@@ 1
dens 0.8193346594892027
Nich@@ 1
Human 1
Jon@@ 1
bit@@ 1
86 1
About 1
someone 1
guid@@ 1
Bay@@ 0.5237972736262051
Switzerland 1
plane 1
representative 1
Pow@@ 1
scenes 1
Political 1
finds 1
jan 1
religion 1
Census 1
Holy 1
exist 1
perf@@ 1
scrip@@ 1
Albert 0.9773353632666936
opin@@ 1
lex@@ 0.8269883460102524
Produc@@ 1
59 1
Yor@@ 1
Dam@@ 0.7597963726393515
Dom@@ 0.5812382745492913
Winter 1
Ba@@ 0.7859912707514258
therap@@ 1
entrance 1
poly@@ 1
abad 1
communic@@ 1
etc 1
question 1
emed 1
mitted 1
Egypt 1
serious 1
where@@ 1
heard 1
occur 1
promote 1
heavily 1
Ford 1
dale 1
Broad@@ 1
duction 1
engaged 1
tun@@ 1
wei@@ 0.23273970086376616
Zh@@ 1
profit 1
Gam@@ 1
importance 1
T. 1
marks 1
offs 1
protein 1
ible 1
orting 1
deploy@@ 1
iron 1
statist@@ 1
cust@@ 1
altern@@ 1
inher@@ 1
short@@ 1
eals 1
Es@@ 1
Domin@@ 1
avoid 1
bad@@ 1
eup 1
enth@@ 0.37865182929747265
regarded 1
ía 1
announ@@ 1
* 0.0642652170944716
Islamic 1
choice 1
Head 1
eph@@ 1
erous 1
77 1
wich 1
lon@@ 1
mach@@ 0.5501911830660214
sia 1
carry 1
fal@@ 0.9271720870684368
SE@@ 1
aten 0.17339913340135166
vin 1
Mir@@ 1
meters 1
statement 1
Singapore 1
Arab 1
Only 1
inhabitants 1
Miller 1
composition 1
thers 1
177@@ 0.7130289719569516
ti 1
failure 1
Though 1
Design 1
oner 1
vest@@ 1
pass@@ 1
northeast 1
Pope 1
What 1
poses 1
bey 1
ugh@@ 1
ag 0.49586821540204895
Management 1
Earl 1
Writ@@ 1
tie 1
roof 1
objec@@ 1
aying 1
onian 1
ks@@ 0.4379763513892713
pack@@ 1
poet 1
South@@ 1
Stor@@ 1
corpor@@ 1
selection 1
poetry 1
volunte@@ 1
dings 1
programme 1
song@@ 1
price 1
less@@ 1
incident 1
internal 1
observ@@ 1
stab@@ 0.698643002217581
Angel@@ 0.8914796914725981
AD 1
Cu@@ 1
bor 1
consisting 1
powers 1
unt 1
improve 1
storm 1
praised 1
concluded 1
Wood@@ 1
woo@@ 1
Security 1
hau@@ 1
opping 1
think 1
arily 1
ditions 1
enge 0.8484877962345102
Member 1
Wol@@ 0.6389721318166689
toward 1
eng 0.9221074469306572
programming 1
1930s 1
eton 1
itz@@ 0.2927177110629403
long@@ 1
Miss 1
insi@@ 1
stadium 1
nes 0.9203373425214828
compete 1
esh@@ 1
Mul@@ 1
Brad@@ 1
ogs 1
É@@ 0.8062892830575032
crimin@@ 1
page 1
spot 1
session 1
sections 1
Howard 1
bi 1
Cru@@ 1
invasion 1
17th 1
stead 1
High@@ 1
adult 1
chair 1
taining 1
German@@ 1
Youth 1
driver 1
88 1
Professional 1
flo@@ 1
twelve 1
agues 1
arm 1
gain 1
load 1
entirely 1
ective 1
inning 1
aria 1
homes 1
71 0.9925372411681387
Regional 1
Bureau 1
DS 1
protect 1
municipal 1
rare 1
arch 1
weapons 1
control@@ 1
Liberal 1
Main 0.7580762981208418
passenger 1
Alber@@ 1
foundation 1
cident 1
causing 1
Temple 1
Bulgar@@ 1
target 1
ahead 1
diplom@@ 1
trying 1
divisions 1
possibly 1
agency 1
eline 1
users 1
advance 1
nec@@ 1
Forces 1
insur@@ 1
reserve 1
Thus 1
stru@@ 0.8933541051244047
anna 1
Square 1
kill 1
Dig@@ 1
scape 1
1913 0.919539674094016
Lis@@ 1
ission 1
peak 1
quite 1
Israeli 1
Ukraine 1
closely 1
Greece 1
counter 1
Tony 1
Vice 1
Lyn@@ 1
draft 1
Croati@@ 1
Hamilton 1
Niger@@ 1
starred 1
SS 0.9566504854020593
Operation 1
CC 1
environmental 1
aves 1
cricket 1
Ay@@ 1
Cav@@ 1
demol@@ 1
Hockey 1
historian 1
ere@@ 1
covery 1
Free 1
Kentucky 1
torate 1
Az@@ 1
genous 1
aths 1
Ga@@ 1
starts 1
TA 1
Ben 1
sale 1
gath@@ 1
locomot@@ 1
personnel 1
effec@@ 1
rol 1
Houston 1
assist 1
briefly 1
preser@@ 1
Typ@@ 0.640932291045435
ans@@ 1
premiered 1
iden@@ 1
Confeder@@ 1
pects 1
charged 1
standards 1
calls 1
believe 1
steel 1
pon@@ 1
Sul@@ 1
leg 1
Palest@@ 1
Bud@@ 1
employees 1
animal 1
Naval 1
mir@@ 1
ports 1
child@@ 1
opera 1
On@@ 0.8593736058761592
Brigade 1
ideas 1
wind 1
Jos@@ 1
favor@@ 1
78 1
broken 1
bann@@ 1
CE 1
76 1
seconds 1
escape 1
ogra@@ 0.8849178723361656
Anne 1
enk@@ 0.09558614832403682
ensi@@ 0.5584030972477355
sing@@ 1
killing 1
ushed 1
empha@@ 1
oid 1
aul@@ 1
row@@ 1
alled 1
ori 1
prising 1
Senior 1
improved 1
accused 1
substit@@ 1
northwest 1
dram@@ 1
conver@@ 1
96 0.9855965887597434
AM 1
uan 1
ú@@ 1
design@@ 1
1911 0.9046232559117773
civili@@ 1
Rid@@ 1
sell 1
equal 1
CI@@ 1
corner 1
81 1
intel@@ 1
stands 1
Oper@@ 0.6482052593705085
aqu@@ 1
surround@@ 1
opportunity 1
chain 1
oning 1
Third 1
Trin@@ 1
Patrick 1
diction 1
predic@@ 1
user 1
Administration 1
agricultural 1
dam 1
etime 1
Rural 1
Stone 1
paintings 1
ror@@ 1
Vic@@ 1
seventh 1
lit@@ 1
Nam@@ 0.8961685730164749
pose 1
revi@@ 1
li 0.9921480670139908
Ale@@ 1
Ep@@ 0.9466114083751904
entially 1
describes 1
Marc@@ 1
Works 1
distributed 1
Lind@@ 1
ito 1
regularly 1
territ@@ 1
Pu@@ 1
tries 1
mist@@ 1
unk 1
Engineering 1
sci@@ 1
your 1
ats@@ 0.5172263044200279
Squadron 1
introduction 1
rant 1
phic 1
Marine 1
courses 1
mar 0.7037560475248306
speaking 1
actu@@ 1
democ@@ 1
licens@@ 1
92 1
AM@@ 1
Iowa 1
injured 1
Once 1
refu@@ 1
mix@@ 1
umin@@ 1
Rho@@ 1
chose 1
ady 1
fun@@ 1
really 1
16th 1
other@@ 1
acter@@ 1
Ocean 1
intro@@ 1
ayne 1
appropri@@ 1
rants 1
issi@@ 1
mas@@ 1
covering 1
stand@@ 0.5286469633032667
residence 1
extension 1
utation 1
emot@@ 1
Tak@@ 1
Light 1
resistance 1
5,000 1
gon 1
Jesus 1
wave 1
manufac@@ 1
Jun@@ 1
Hotel 1
Wall@@ 0.8048050030012546
construc@@ 1
reading 1
reduce 1
Brian 1
fine 1
gri@@ 1
istry 1
Prix 1
orchest@@ 1
asks 1
ele 0.7445963323667427
applications 1
Simon 1
weather 1
dating 1
pion@@ 1
valu@@ 1
ros@@ 1
haps 1
values 1
break@@ 1
rough@@ 1
74 1
I. 0.2961393546298394
Space 1
bership 1
filled 1
iring 1
Bern@@ 0.7026211379256163
nur@@ 1
sor 1
calling 1
combination 1
humans 1
past@@ 1
step 1
osed 1
prem@@ 1
dry 1
obs 1
tex@@ 1
Champ@@ 1
gement 1
Stan@@ 1
objects 1
Sat@@ 0.9454205972671065
SC 0.7088128210823949
ules 1
aur@@ 0.9776157415874464
uty 1
1908 0.9290958241164826
islands 1
Bei@@ 0.7935472612277136
print 1
vel 1
versy 1
Samuel 1
treat@@ 1
journal 1
Ara@@ 1
Colomb@@ 1
multi@@ 1
beg@@ 0.1925494495172613
neighborhood 1
osa 1
quarter@@ 1
deleg@@ 1
rose 1
cham@@ 1
quot@@ 1
ethnic 1
isol@@ 1
earliest 1
exerc@@ 1
Ci@@ 1
Leon@@ 1
mon 1
phen@@ 1
diffic@@ 1
racial 1
Executive 1
mind 1
stages 1
icide 1
98 0.9582317149382228
address 1
stores 1
aine 1
Fame 1
decade 1
Anderson 1
Jac@@ 1
dam@@ 1
Conc@@ 1
getting 1
strength 1
Braz@@ 1
atus 1
ein 0.010502739572662567
lic 1
advantage 1
survived 1
Beau@@ 1
interior 1
oundtrack 1
zo@@ 0.7240243143121169
demand 1
Danish 1
debuted 1
Communist 1
UC@@ 1
plus 1
frame 1
ologies 1
Bh@@ 1
experi@@ 1
87 1
rop@@ 1
causes 1
Acc@@ 1
84 1
Diego 1
shore 1
.A. 1
Water 1
replace 1
SC@@ 1
accur@@ 1
engineer 1
PC 1
strike 1
factors 1
organisation 1
vised 1
valley 1
eye 1
ographics 1
Pro 1
southeast 1
DVD 1
inces 1
Pas@@ 1
mean 1
olas 1
Sam 1
Out 1
Rol@@ 1
osph@@ 1
quant@@ 1
ancest@@ 1
renov@@ 1
sam@@ 1
83 1
partnership 1
oto 1
Kin@@ 0.39826977203657876
Rad@@ 0.40241444135281773
ords 1
izes 1
cred@@ 1
crete 1
Rugby 1
82 1
experienced 1
Modern 1
pool 1
comb@@ 1
neur@@ 1
Wy@@ 1
cell@@ 1
discipl@@ 1
eties 1
mi 1
adjacent 1
aces 1
Bowl 1
Commonwealth 1
interests 1
Oklahoma 1
ei 0.3328702172311643
mill 1
Mayor 1
Maur@@ 1
heads 1
leads 1
count 1
Alabama 1
operates 1
theastern 1
mort@@ 1
singing 1
signing 1
theater 0.9257596348902121
Heritage 1
.com 1
greatest 1
K. 1
document@@ 1
typical 1
tot@@ 1
notably 1
criminal 1
Archit@@ 1
eted 1
musician 1
Philip 1
engines 1
Tokyo 1
Program 1
bass 1
Children 1
oud 1
Nev@@ 1
Frederick 1
churches 1
ogn@@ 1
iles 1
97 1
umed 1
ny 1
Syn@@ 0.3554247664115882
rent 1
Ki@@ 0.8862775090751374
categ@@ 1
goods 1
Supp@@ 1
rement 1
Kor@@ 0.2730820069061967
gery 1
lia 1
appointment 1
Legislative 1
committed 1
pur 1
Ok@@ 0.7665575277758292
painted 1
Imperial 1
Eag@@ 1
73 0.9980325500917657
stable 1
treated 1
Plat@@ 0.6650262208910868
script 1
distinct 1
A.@@ 1
link 1
Mississippi 1
contain 1
So 0.20758276611403687
rom@@ 0.6610826567188983
participate 1
techniques 1
collap@@ 1
Quebec 1
bad 1
Juan 1
Allen 1
reception 1
anger 1
earning 1
r. 1
act@@ 1
adop@@ 1
rus 1
79 1
alition 1
designs 1
remov@@ 1
Greg@@ 1
phone 1
opposite 1
Commer@@ 1
molec@@ 1
bottom 1
enrol@@ 1
seems 1
faces 1
ican 1
Detroit 1
argu@@ 1
king@@ 1
Anthony 1
iced 1
chester 0.8804629983366922
Lieutenant 1
Railroad 1
oom 1
Village 1
port@@ 0.7275633122189751
rejected 1
hundred 1
Mak@@ 1
Antonio 1
ift 0.8232813130482286
aga 1
charges 1
polit@@ 1
Rh@@ 1
vocals 1
install@@ 1
IN@@ 1
bt 0.2809703632797406
philosophy 1
Fire 1
budget 1
89 1
itt 0.6660810906496217
decl@@ 1
measures 1
signal 1
chall@@ 1
circum@@ 1
mining 1
proced@@ 1
Andre@@ 1
Treat@@ 1
aming 1
Hungarian 1
Leb@@ 1
comic 1
Law@@ 1
nit@@ 1
onally 1
collaboration 1
musicians 1
Cemetery 1
Lau@@ 0.5011268616102271
fired 1
Rab@@ 1
motor@@ 1
Christ 1
Czech 1
piano 1
Baseball 1
Hollywood 1
chemical 1
consum@@ 1
damaged 1
elli 1
Clark 1
rich@@ 0.17462769651219132
Independent 1
meth@@ 1
Argentina 1
Trans@@ 0.871325973529346
examples 1
Philipp@@ 1
equivalent 1
evi@@ 1
plot 1
southwest 1
Adam 1
Ka@@ 0.9166808358677945
rid@@ 1
Form@@ 0.9180190458736965
Gallery 1
didn 1
94 0.9907490077417034
oa 1
Douglas 1
employment 1
protected 1
sel 0.26676164172651906
althy 1
anth@@ 1
Magazine 1
Physi@@ 0.7081694535162152
chor@@ 1
residential 1
August@@ 1
coal 1
details 1
ML@@ 1
esian 1
Territ@@ 1
jazz 1
Local 1
fs 0.618451147098121
easily 1
ossi@@ 0.851424229829281
exist@@ 0.43093184656223177
93 1
conqu@@ 1
desig@@ 1
rebel@@ 1
Var@@ 1
acking 1
AS 1
eps 1
Fair@@ 1
Ray@@ 1
duty 1
scription 1
rative 1
Band 0.19777640949750988
tes 0.10869892750478148
ails 1
flying 1
jo 1
links 0.9082024127715806
why 1
accommod@@ 1
ful@@ 1
Lincoln 1
sub 1
skills 1
tics 1
chise 1
God@@ 1
ode 0.34605634496934073
capture 1
ecting 1
Hawai@@ 1
Miami 1
raft 0.805840135295102
academ@@ 1
businesses 1
eil 0.2724711005205031
sig@@ 1
temper@@ 1
criticized 1
guar@@ 1
Ball@@ 0.8373226875745717
Lanc@@ 1
Kat@@ 0.4132227206424238
Constitution 1
shr@@ 1
Nep@@ 1
purchase 1
missions 1
.D. 1
Moore 1
ras 1
lawyer 1
accompanied 1
asses 1
issioner 1
winners 1
Doctor 1
King@@ 1
campaig@@ 1
Five 1
Gordon 1
Water@@ 1
secret 1
Meth@@ 0.5623776397509136
uel 1
kill@@ 1
1906 0.8989121230470544
apart@@ 1
Mand@@ 0.8297784532886486
ret 1
aders 1
dges 1
vements 1
imming 1
poin@@ 1
stan@@ 0.39667555614343375
91 1
Eu@@ 0.9453306506457174
some@@ 1
oss 0.9907750676101209
defeating 1
liqu@@ 1
Denmark 1
ef 0.4812718967733208
igation 1
actors 1
ble@@ 1
Bell 1
Iraq 1
assumed 1
passengers 1
Sin@@ 1
mo 1
alls 1
determine 1
flag 1
Bla@@ 1
costs 1
Up 1
admitted 1
Reserve 1
champions 1
zing 1
Dist@@ 1
phil@@ 1
pro 0.43778718344222434
items 1
medium 1
erine 1
communication 1
reality 1
intelligence 1
ource 1
Sud@@ 1
provincial 1
1905 0.8507558128771786
kilomet@@ 1
electronic 1
att 0.9873698691907543
path 1
contrast 1
maintain 1
flat 1
Sl@@ 1
arian 1
Puerto 1
freedom 1
acid 1
documents 1
Communic@@ 1
1907 0.8445533900466748
consci@@ 1
anders 1
Athletics 1
Mast@@ 1
Liv@@ 1
01 0.9523617736557866
alb@@ 0.40698921193629495
equi@@ 1
images 1
retained 1
Rose 1
delivered 1
pover@@ 1
Avi@@ 1
stances 1
factor 1
angle 1
tian 1
Hungary 1
contest 1
six@@ 1
reaction 1
Louisiana 1
Ukrainian 1
regiment 1
Not 1
extra 1
habitat 1
neighbor@@ 1
150 0.8873358542860631
Contro@@ 1
Belgium 1
Popul@@ 1
banks 1
hai 1
routes 1
arranged 1
commission 1
device 1
request 1
Harvard 1
tified 1
lying 1
1,000 1
attached 1
dex 1
Ottoman 1
contributions 1
zu@@ 0.05801315686465868
Marie 0.9008797799580508
pip@@ 1
formally 1
Buddh@@ 1
Industri@@ 0.4834825349137113
Alexand@@ 1
publications 1
Anna 0.6750753030474207
eck 0.7862511115003042
Son@@ 0.5191407557460035
prov@@ 1
ST@@ 1
driving 1
Willi@@ 1
heat 1
Singles 1
AP@@ 1
streets 1
1909 0.9079965206684911
uting 1
unter 0.034592952249687295
DNA 1
PS 0.8356266740627017
assador 1
Sun@@ 1
estim@@ 1
prize 1
wick 1
reign 1
showing 1
eland 1
aux 0.9988799113611134
vier 0.10235902628858783
commer@@ 1
iled 1
poem 1
alo 1
Trust 1
odes@@ 1
visible 1
decis@@ 1
AN@@ 1
Saf@@ 1
brief 1
Dol@@ 0.9391059740711626
Emer@@ 1
shops 1
And@@ 1
ev 1
Matthe@@ 1
ailing 1
Ori@@ 1
ava 1
Kaz@@ 1
Liter@@ 1
diff@@ 1
inal 1
escap@@ 1
ourney 1
thor@@ 1
tel 0.19225007209031653
Ful@@ 1
ellow@@ 1
sha@@ 1
wick@@ 1
Tam@@ 1
Palace 1
ape 1
help@@ 1
releg@@ 1
Environ@@ 1
ever@@ 1
mult@@ 1
sidi@@ 1
Stre@@ 0.2616474240644133
sie 0.018527511591290458
Dublin 1
Thor@@ 1
amat@@ 1
trip 1
Ry@@ 1
alu@@ 1
Fern@@ 0.37243572276233633
princip@@ 1
Season 1
Connecticut 1
hosts 1
insula 1
m2 1
Fel@@ 0.27944026621183277
ellite 1
chant 1
Good 1
Lith@@ 1
chang@@ 1
citi@@ 1
ade@@ 1
600 0.9298383582944938
ague 1
occ@@ 1
prises 1
Kim 1
establ@@ 1
CEO 1
Rights 1
kshire 1
Banglad@@ 1
Gon@@ 1
See 0.49704947216168954
Age 1
Bag@@ 1
Nav@@ 1
Tamil 1
Spi@@ 1
cue 1
ware 1
Iv@@ 1
oper 1
Max 0.5949668711410963
5,@@ 0.6420240599598727
veter@@ 1
ă@@ 1
NBA 1
Rap@@ 1
Philli@@ 1
fail@@ 1
emor@@ 1
je 0.22670203855410195
Margaret 1
ABC 1
Gold@@ 0.4712218488491366
rein@@ 1
Kath@@ 0.4502962292132567
ando 0.6851138738080575
Associ@@ 1
Saturday 1
Edinburgh 1
09 0.7802160039416299
appear@@ 1
eh 1
falls 0.6966948411886317
educ@@ 1
Mr@@ 1
Kenn@@ 0.6204284777692521
ament 1
orary 1
Step@@ 0.8722463701464558
zy@@ 0.39642642053050225
Mountains 1
Internet 1
cav@@ 1
Week 1
Whe@@ 1
6,@@ 0.6161685078265097
bird 1
ussion 1
Hei@@ 0.22653282362246724
aff 1
eau 0.8821826010050184
ów 1
Beg@@ 0.3290531304409714
Ear@@ 1
cla@@ 1
ownship 1
az 1
ude 1
innov@@ 1
stron@@ 1
tiful 1
Cleveland 1
note 1
owed 1
Nat@@ 1
indi@@ 1
simil@@ 1
Cin@@ 1
Montreal 1
Roll@@ 0.5788889352415704
Portugal 1
Under@@ 1
ameter 1
mobile 1
ry@@ 1
ll 1
Austrian 1
vices 1
Aut@@ 0.4617748085400997
Metropolitan 1
1904 0.8876760819048459
lights 1
acked 1
Na@@ 1
daugh@@ 1
08 0.8573851620086861
anese 1
retur@@ 1
missi@@ 1
organiz@@ 1
tennis 1
Deputy 1
los@@ 0.39020239233013276
Broadway 1
Guard 1
lay 1
Ray 1
som@@ 1
Mill@@ 1
Ryan 1
Atlanta 1
Bap@@ 1
Now 1
ö@@ 0.048896460995219465
Command 1
harmon@@ 1
relative 1
Les@@ 0.6181531063401344
busin@@ 1
sole 1
Hisp@@ 1
rel 1
Defense 1
Walker 1
Wo@@ 0.46461509612530005
Kl@@ 0.12389181605559164
Colonel 1
ector 1
industri@@ 0.7319744804051479
Spr@@ 0.425815961824164
eta 1
mos@@ 1
premi@@ 1
Camer@@ 1
jected 1
sugge@@ 1
ools 1
eur@@ 0.8182837013451142
Fol@@ 0.509278858701116
Sain@@ 1
Global 1
Cow@@ 1
Gri@@ 1
Lawrence 1
prob@@ 1
fit 1
ct 1
ferred 1
800 0.8821906756441478
Malaysia 1
1901 0.9507666239498601
Kol@@ 0.5412615955734433
Meg@@ 1
Seattle 1
umental 1
Cher@@ 1
eri@@ 0.41578243256082703
WW@@ 1
dru@@ 0.9274780094674867
Tig@@ 1
bring@@ 1
Finn@@ 1
Sax@@ 1
offensive 1
Pear@@ 1
Li 1
stud@@ 1
lock@@ 0.5439270296038147
Initi@@ 1
Welsh 1
Num@@ 1
pper 1
Egyp@@ 1
champion@@ 1
Rand@@ 1
agon@@ 1
José 1
05 0.8081651927144932
practi@@ 1
Prin@@ 0.3846822102349332
Ach@@ 0.40702738890852547
Dri@@ 1
epp@@ 1
uli@@ 0.44864280895195263
TC 1
Chairman 1
veget@@ 1
isch@@ 0.13220500967009094
tives 1
ilt 1
eig@@ 0.20562763572051054
list@@ 1
qui@@ 1
Wild@@ 0.86676923938612
pu@@ 1
reform 0.8077096863428824
brig@@ 1
Champions 1
ador 1
fan 1
rats 1
CE@@ 1
Hud@@ 1
etta 1
Agric@@ 1
agen@@ 1
Victor@@ 1
Musi@@ 0.8802513931819027
Net@@ 1
yc@@ 1
bo 1
ve@@ 1
1903 0.8985532868947855
Mari@@ 0.5282266895776022
Part@@ 0.43754060509469334
Harris 1
cep@@ 1
human@@ 1
Rog@@ 1
Studios 1
AF 1
1902 0.9204414650555705
fri@@ 1
Round 1
heim 0.18443817605873566
orph@@ 1
Natur@@ 0.26904628485157456
thes@@ 1
NAS@@ 1
alter@@ 1
itage 1
ton@@ 1
hun@@ 1
liament 1
Orthod@@ 1
ovo 1
loyd 1
chen 0.06943636882649087
ires 1
You@@ 1
chi 1
eld 1
essel 1
eva 1
Vari@@ 0.44618596605006655
Buff@@ 1
000 0.5048006262385903
MP@@ 1
Eric 1
utt@@ 1
wed@@ 1
Rav@@ 1
anne 0.5992855863114269
embly 1
Nazi 1
Upper 1
sburg 0.5458945649098178
Singh 1
Alan 1
Sarah 1
Sci@@ 1
jing 1
D.C. 1
Mach@@ 0.9807371020891938
Mik@@ 0.6710861455675612
Liverpool 1
Commander 1
ups 1
imag@@ 1
si 1
ishment 1
old@@ 0.5210852435080017
reti@@ 1
Vienna 1
Quar@@ 1
Disney 1
Front 1
asion 1
DP 1
ensis 1
sei@@ 1
Pil@@ 0.42654142501349934
Guar@@ 1
hou 1
Transport 1
pati@@ 1
Vinc@@ 1
obile 1
Epis@@ 0.9862908375072188
Stu@@ 0.6666221062526488
spon@@ 1
07 0.826757195838778
eda 1
Len@@ 1
ii 1
Web@@ 0.6229018521180368
ć 1
Pin@@ 1
Fr@@ 0.7305535136165934
Imp@@ 0.8240374514529009
Wel@@ 0.49117519790651765
Track 1
Officer 1
Orchestra 1
adron 1
ld@@ 1
Nu@@ 1
kel@@ 0.6462485471390549
sup@@ 1
Pon@@ 1
spr@@ 0.3850612546541955
Invest@@ 0.9702360252146337
anthrop@@ 1
Dean 1
tol@@ 1
Jenn@@ 1
ression 1
uss 0.42031887662175466
ees 1
Wood 1
omin@@ 1
ović 1
red@@ 1
mina 1
Veg@@ 1
lex 0.9448017556094408
ugos@@ 1
emen 0.65024181649733
Grant 1
enberg 0.2825266870127239
Tot@@ 1
ogen@@ 1
stant@@ 1
CS@@ 1
NE@@ 1
Ott@@ 1
lav@@ 1
Kil@@ 1
compos@@ 1
1920@@ 1
aire 1
Shak@@ 1
gol@@ 0.5730816973175311
possi@@ 1
sand@@ 1
Sac@@ 1
Kennedy 1
ffer@@ 1
patri@@ 1
Log@@ 0.7914855581718144
coll@@ 1
Bad@@ 0.7424433766452222
Origin@@ 1
dimensi@@ 1
Cho@@ 1
Jack@@ 1
Maj@@ 1
10.@@ 1
Boys 1
Player 1
parallel 1
Basketball 1
Alliance 1
Deb@@ 0.7043092745867778
Ross 1
lau@@ 0.3185030933253337
Aqu@@ 1
agers 1
scri@@ 1
rar@@ 1
eking 1
Gramm@@ 1
sid@@ 1
Rio 1
Stock@@ 0.7271508241450148
Camp 1
youn@@ 1
Rot@@ 0.4200587664077191
sul@@ 1
í 0.7727059811916872
Sho@@ 1
AP 1
Bob@@ 1
Brow@@ 1
crit@@ 1
Pho@@ 1
dar 0.4047681604732837
cker 0.5148666620621069
Review 1
eks 1
Mit@@ 0.17203507614891989
bol 1
Birmingham 1
Swe@@ 1
ez@@ 1
rator 1
massi@@ 1
apolis 1
mosph@@ 1
Your 1
Sig@@ 0.8637959828043015
Ama@@ 1
uk 1
lah 1
sex@@ 0.6337376404340235
Carl 0.41608057271030513
DA 1
Kelly 1
agan 1
Kevin 1
athl@@ 1
Bak@@ 1
Baltimore 1
lose 0.8686366807253565
Good@@ 1
Agency 1
ein@@ 0.022924292413116127
rone 1
CP@@ 1
IT 1
Jordan 1
Garden 1
ester@@ 0.9270496273012457
Hills 1
infra@@ 1
ı@@ 0.9413716643034868
ference 1
Athletic 1
Pittsburgh 1
Arkansas 1
Vik@@ 0.9013632858791039
Od@@ 1
ais 0.7121065890175682
Anti@@ 0.5370261961321054
bat 1
itals 1
curr@@ 1
ampton 1
blu@@ 1
ić 1
Energy 1
Rou@@ 1
iny 1
oman 1
Doc@@ 1
intend@@ 1
Thompson 1
Blo@@ 1
Pom@@ 1
Trump 1
Cle@@ 1
Jane 1
RO@@ 1
Morgan 1
stent 0.9710572775728986
Heart 1
Campbell 1
Metro 1
lik@@ 0.5682476855058876
Assi@@ 0.5924707278949662
Kos@@ 0.7653716993654518
04 0.7591943112822174
aceae 1
Dak@@ 1
public@@ 1
Belgi@@ 0.9099452275688162
ford@@ 1
element 1
oll 0.9939383117932704
iff 0.9324476852616547
Opera 1
losses 1
1898 0.9127756263568916
Att@@ 1
claim@@ 1
Tan@@ 1
Chem@@ 0.39995223647602096
ruption 1
Adv@@ 1
ida 1
Russell 1
Cos@@ 1
Convention 1
alia 1
lav 1
Stev@@ 1
rid 1
gregation 1
mac@@ 1
Test 1
Hab@@ 0.7680886309069967
Che@@ 1
Ped@@ 1
olic 1
Murray 1
ardo 1
7,@@ 0.5349458703422396
m. 0.9039488004390932
BI 1
itu@@ 1
near@@ 1
norm@@ 1
ika 0.5170135446153306
v. 0.41288346358028744
Training 1
theast 1
Daily 1
Information 1
Roger 1
Lane 1
graph@@ 1
ocks 1
06 0.8459495121508226
Langu@@ 1
Heb@@ 1
Adel@@ 1
Nelson 1
End 1
ū@@ 1
Well@@ 1
oe 1
Stewart 1
NBC 1
Distri@@ 1
Kent 1
Brit@@ 0.6651830956575778
Cla@@ 1
Phil@@ 0.5668938193664417
ditional 1
Dan 1
cester 1
dynam@@ 1
visions 1
deos 1
dium 0.9042599544299199
record@@ 1
Contin@@ 1
Girls 1
Poli@@ 0.9437378026602916
buted 1
Neg@@ 1
Anim@@ 1
Benn@@ 1
das 0.007183430919558662
Dallas 1
elli@@ 0.7161093374198956
awar@@ 1
aide 1
Davi@@ 1
adi 1
ira 1
dim@@ 1
hop 1
len 0.102556371998229
Brothers 1
age@@ 1
1899 0.8878507066406834
Austin 1
Pad@@ 1
moder@@ 0.4989449567365921
Laur@@ 1
Franklin 1
Bes@@ 0.2671163999985724
V. 0.41547641569586635
Goo@@ 1
determin@@ 1
epi@@ 1
regist@@ 1
inian 1
femin@@ 1
thwest 1
exten@@ 1
bal 1
kar@@ 0.3062581787053661
Alex 1
Inn@@ 0.2670787201995511
charts 1
VI 1
positi@@ 0.4421245391981916
ital@@ 0.6884472568436416
orer 1
profession@@ 1
Pierre 0.9493839121488458
02 0.9296113283146199
bet 1
Tol@@ 1
Ten 1
orn 1
Nap@@ 1
sa@@ 0.4232560921672227
iti 1
uries 1
Stanley 1
distri@@ 1
lea@@ 1
Pla@@ 1
magnet@@ 1
ophi@@ 1
Real 1
Ali@@ 1
Robinson 1
Dance 1
Senator 1
Bruce 1
Pass@@ 0.4707436712993479
Taiwan 1
agric@@ 1
Hear@@ 1
IR@@ 1
Mission 1
yal 1
agu@@ 1
Express 1
án@@ 1
Ral@@ 1
Hop@@ 1
partic@@ 1
sy 1
Dave 1
til 1
astro@@ 1
Wright 1
1890 0.8809688220877037
Sor@@ 0.586446982704425
rix 1
Baron 1
usin 1
Statist@@ 1
Oli@@ 1
Mitch@@ 1
Kit@@ 1
Marshall 1
RE@@ 1
AF@@ 1
Utah 1
hund@@ 1
Priv@@ 0.7776039641681841
foun@@ 1
outh 1
vit@@ 1
Kum@@ 1
sident 1
plant@@ 1
Racing 1
sees 1
Adams 1
zer 0.24452666895900713
Bru@@ 0.3284900089534461
How@@ 1
iness 1
ä@@ 0.030272004530022274
Christopher 1
suffer@@ 1
250 1
Cum@@ 1
found@@ 1
vill@@ 1
Vel@@ 1
dical 1
Cab@@ 1
Scot@@ 1
cm 0.35905506596191283
Angl@@ 1
fro@@ 1
eir 1
zi 1
Joh@@ 1
Buck@@ 1
Goth@@ 1
Gib@@ 1
stry 1
gar 0.6924036736594803
nia 1
Tha@@ 1
ample 1
Brooklyn 1
McC@@ 1
Sound 1
Py@@ 0.9286922177238772
onym@@ 1
Carter 1
Silver 1
Ot@@ 0.902742612116582
lief 0.3813003216888737
presi@@ 1
ready 1
ros 0.7389885471963091
Ann 1
Gur@@ 1
Sah@@ 1
abs@@ 1
Nick 1
Seg@@ 0.5818939231128663
Ton@@ 0.42458507736366496
tab@@ 1
overs 1
ont 0.6516409140083839
Naz@@ 1
key@@ 1
yon 1
inn 0.44291092931659537
och 0.6504765840878252
fix@@ 1
03 0.8592620351086536
Graham 1
avy 1
natur@@ 0.9802985195558206
esis 1
secre@@ 1
tons 1
Norman 1
slow@@ 1
ander 1
ummer 1
Ari@@ 1
UEFA 1
fr@@ 0.7819092309165336
1896 0.8777185406438743
Om@@ 1
eins 0.7676594811435946
bow 1
utenant 1
Portland 1
fall@@ 0.43560563530132845
ratic 1
Psych@@ 0.4998893467468038
ias 0.5761729415205762
Bot@@ 0.3472371691401688
Academ@@ 1
Kra@@ 0.6303742704403624
newsp@@ 1
eal@@ 1
Go 1
iet 0.8301264535940851
Tour@@ 0.36176074868801644
cann@@ 1
Bachelor 1
Place 1
ien 0.0486325912534448
ska 1
hei@@ 0.22259987064188372
lan 1
Theater 0.41856610589547144
FIFA 1
Simp@@ 1
reb@@ 1
enger 1
Venezu@@ 1
Jimmy 1
ateg@@ 1
Victor 1
Alfred 0.7690043673631285
ín 0.9973555026027529
Lag@@ 0.4789276389837695
mean@@ 1
erial 1
1897 0.9027209780238937
vis 1
Ron@@ 1
Trophy 1
Arti@@ 1
Tim 1
yo 1
tempor@@ 1
Ji@@ 1
Mes@@ 0.9626769778869638
Sult@@ 1
figur@@ 1
frag@@ 1
Tower 1
aer@@ 1
wen 1
ege 0.710134384037615
ann 0.2932194821438069
Carlos 1
Neb@@ 0.9757538661556413
Protest@@ 1
great@@ 1
Dod@@ 1
Brist@@ 1
vor 0.031287083249211686
Muhammad 1
Thailand 1
1895 0.8706558727024822
ubl@@ 1
tainment 1
Off@@ 0.5625437866478992
Just@@ 0.5723562756178208
gan@@ 0.21366890074855946
atom@@ 1
NHL 1
spl@@ 0.5352940689539671
Bang@@ 1
Stri@@ 1
illed 1
zy 1
emper@@ 1
ô@@ 0.7481679142108301
Draft 1
inea 1
zon 1
Bron@@ 1
Shel@@ 1
AL@@ 1
Jar@@ 1
Wrestling 1
Hil@@ 0.34441686699187674
iel 0.5187894998315701
Matt 1
theor@@ 1
1000 0.5832912045671175
Bed@@ 0.28895387970262215
Glasgow 1
AT 1
lier 1
ler@@ 0.23180458891980882
opportun@@ 1
enson 1
kh@@ 1
Lov@@ 1
Arc@@ 1
hatt@@ 1
af 1
Wind@@ 0.5739117956976416
cus 1
lem 0.5590635714655613
å@@ 1
Windows 1
jun@@ 1
aus 0.010357212182420757
esth@@ 1
1893 0.922284327103124
CH@@ 1
Will@@ 0.6711882576256752
Benjamin 1
Hann@@ 0.741180270379808
LP 1
Pak@@ 1
Fili@@ 0.8124192402781519
Afghanistan 1
Thur@@ 1
Cant@@ 1
edy 1
ivals 1
Jerusalem 1
eff 1
Boy 1
scienti@@ 1
8,@@ 0.5681679870440951
alp@@ 1
motor 1
ongs 1
Billy 1
declar@@ 1
vul@@ 1
Chel@@ 1
Knight 1
utr@@ 1
Cou@@ 1
Base 1
Gary 1
dez 1
nat@@ 1
quarters 1
Basi@@ 1
bes@@ 0.1429579000544813
sper@@ 0.5985333933883701
Polit@@ 0.730321410131639
IT@@ 1
Maine 1
Vill@@ 0.8712998640371511
iser 0.8323197778239776
ook@@ 1
tz@@ 0.16355469013148333
Roy 1
ashi 1
Hand@@ 0.15966080424593915
enab@@ 1
1889 0.9701359918003759
Cricket 1
fore 1
attle 1
Will 1
amoun@@ 1
zo 1
Down 1
streng@@ 1
1894 0.9620912286518394
iger 0.1223130039292061
194@@ 1
aph@@ 1
stan 1
GA 1
open@@ 1
incorpor@@ 1
1892 0.9250569844471952
Bell@@ 1
Argent@@ 1
bin 1
ition@@ 1
sched@@ 1
Eli@@ 1
Gall@@ 1
elta 1
EC 1
1885 0.9261242349425196
fel@@ 0.16670913220365163
Las 1
repor@@ 1
stit@@ 0.4732936194133198
dependence 1
din 1
arib@@ 1
Islam 1
Pos@@ 0.44667110471258714
relation@@ 1
Indu@@ 1
Jes@@ 0.6230484898124777
N. 1
Tube 1
1891 0.9468071306348619
Chile 1
Fro@@ 1
Isa@@ 1
ario 1
Fund 1
Up@@ 1
immedi@@ 1
Last 1
kg 0.6772232410955412
ux 1
Madrid 1
eck@@ 0.22420498775183195
igu@@ 1
rell 1
gin@@ 1
dat@@ 1
sal 1
Van@@ 1
EU 0.6316648036936844
Fort@@ 0.4372290466489129
internation@@ 1
Poly@@ 0.7260684769251088
isation 0.8984796966188466
ques 1
edom 1
relev@@ 1
Nik@@ 1
oba 1
Arena 1
1888 0.9203721159230026
Johnny 1
itim@@ 1
Salv@@ 1
programm@@ 1
Wa@@ 1
Um@@ 0.07016707406679695
Orleans 1
lam@@ 0.5563098256446685
Jan 0.8094866283441587
nei@@ 0.9482088462516122
Gaz@@ 1
RC 1
necess@@ 1
Cli@@ 1
dit@@ 0.8673332140097318
aro 1
Phi@@ 1
rely 1
lus 0.6856954179902072
anist 1
Zone 1
Chan@@ 1
Pul@@ 1
Hart@@ 0.7984041185278976
pole 1
endor@@ 1
bot 0.43005064781690816
aska 1
sum 1
tz 0.7529005252506286
Wei@@ 0.17118260530776683
anal@@ 1
Intel@@ 1
cky 1
iop@@ 1
Alice 1
Plan@@ 0.2901826267273392
Equ@@ 1
ink@@ 0.41483462049715164
codi@@ 1
aid@@ 1
Songs 0.8848360276422683
facil@@ 1
isp@@ 0.7019169509680887
ī@@ 1
Gol@@ 0.5099546963672773
Charlie 1
Labor 1
Revol@@ 1
chi@@ 1
Dub@@ 1
Fellow 1
gressi@@ 1
ji@@ 1
ult 1
asa 1
tin@@ 0.39414770363434787
UN 1
Rub@@ 1
Vancouver 1
onlyinclude 0.5810363328417403
omen@@ 1
wr@@ 1
bach@@ 1
Gabri@@ 1
1865 1
Schol@@ 1
aft 0.761118719025151
oli 1
band@@ 1
Instit@@ 0.41436816622181627
Cann@@ 1
Liga 0.24020208207253546
ument@@ 0.6053640898164006
Malay@@ 1
Mau@@ 0.38806297846466
HL 1
craft 1
Sti@@ 0.20493318661470494
tak@@ 0.46565540609334066
Has@@ 0.8657416772840919
Uni@@ 0.9981845639791306
S.@@ 1
municip@@ 1
divi@@ 1
Constit@@ 1
IS 1
four@@ 1
1880 0.8563659578076549
1870 0.7829268731049627
Challenge 1
ughout 1
esse 0.47062974454590467
vie@@ 1
orith@@ 1
Port@@ 0.6581421871461178
1861 1
Sid@@ 1
Det@@ 0.5635679847818763
anny 1
forman@@ 1
IB@@ 1
Que@@ 1
Stars 1
Fred 1
Jag@@ 0.4810968020201976
agement 0.8980954854816653
700 0.9309556012358813
× 0.5977871564734748
succe@@ 1
Tul@@ 1
Ny@@ 1
extre@@ 1
Karl 0.166059147454361
tow@@ 1
lio 1
Ther@@ 0.4729835488311449
verb@@ 0.09304309440985692
knowle@@ 1
Kap@@ 0.23318662991131286
Cob@@ 1
Lab@@ 0.9096707495640287
CS 1
Symph@@ 1
ander@@ 0.2841623209943075
vo 1
eld@@ 1
rab@@ 1
1862 1
xim@@ 1
1887 0.938127308619186
iro 1
1864 1
ife 1
ão 1
о@@ 1
oni 1
Et@@ 0.4097595301441305
Kel@@ 0.9517739265393845
SO@@ 1
Long@@ 1
sten 0.039436885105643485
Mis@@ 1
hat 0.03584959033592033
oda 1
Charlotte 1
enko 1
urg@@ 0.718409233928022
ois 1
oul 1
BM@@ 1
Bour@@ 0.9778378817222018
uns 0.7222721044869053
Fa@@ 1
Admiral 1
− 1
gether 1
1881 0.9968365837493034
ș@@ 1
Falls 1
Squ@@ 1
Ja@@ 1
Rud@@ 0.8919591245141311
Mann@@ 0.4082646036828228
stim@@ 1
Rei@@ 0.24259384623655805
Musli@@ 1
Ten@@ 1
9,@@ 0.5695072937286807
120 0.8947969734871104
1886 0.9478620447787002
bol@@ 1
may@@ 1
emetery 1
Beat@@ 1
tend 1
Code 1
lica 1
ión 1
Dav@@ 1
Aer@@ 1
Aber@@ 1
olley@@ 1
1863 1
tron@@ 0.5195793837178568
gor@@ 1
orig@@ 1
Engine@@ 1
fra@@ 0.22234609766938576
ker@@ 0.4906474154372298
lip@@ 1
Stru@@ 1
Studio 0.9526946689579261
station@@ 0.943058108272323
ME@@ 1
vert@@ 1
ronom@@ 1
lor@@ 0.8877183358777634
rie@@ 0.23545609549443883
mund 0.4754400722581047
otes 1
ache 0.2066711167014226
Standard 1
DE@@ 0.9035822398545201
restling 1
és 1
mob@@ 0.8962527319685453
enne 0.6847545921492322
owski 0.704886969287159
tradition@@ 0.451649325911124
Sport 0.6636903950147411
IM@@ 1
optim@@ 1
Tai@@ 1
alt@@ 0.1675826747245784
famili@@ 1
à 0.7827010683766222
Bar 1
ère 0.7967732129088203
diverse 1
Reb@@ 0.6661859260598836
bot@@ 1
com 1
cup 0.6425980891551821
Pir@@ 0.9349205859995866
Hus@@ 1
wan 1
Video 1
modern@@ 1
Publi@@ 1
sang 1
erve 1
dan@@ 0.4890120232493315
Stand@@ 0.2657077094903637
emig@@ 1
1884 0.9365763627284873
tage 1
alis 1
riage 1
Offic@@ 1
IC 1
Vil@@ 0.9610936222704923
Gau@@ 0.6605381594265539
Lang@@ 0.4105766821198238
weap@@ 1
ources 1
Tas@@ 1
Nan@@ 1
Yam@@ 1
Ple@@ 1
fam@@ 1
rad 0.4318824767981812
IP 1
og 1
John@@ 1
ž@@ 0.7713020897928118
Arg@@ 1
1882 0.9348465192649037
ange 0.8665459030587005
wir@@ 0.3258784937465784
gal@@ 1
Jacob 1
Enter@@ 1
rez 1
dis 1
ammer 0.2701494066317774
Aar@@ 1
Sz@@ 0.4158335145345203
soft 1
spor@@ 0.9235103540345063
olo 1
Kas@@ 0.3204717999928779
ause 0.3948185175402103
absol@@ 0.559434960639882
onder@@ 1
Diam@@ 1
gements 1
Oblast 1
Colon@@ 1
lit 1
Barbara 1
ser 0.538606439640647
Pel@@ 0.8693845639377787
Mut@@ 0.5240785911491039
Tab@@ 0.30733545324054695
nee 0.8309531779270302
Buch@@ 0.1897326995550008
asi 1
geb@@ 0.051349232699318174
ima 1
ş@@ 1
upp@@ 0.3160150451487281
Ern@@ 0.4323086202585407
Thi@@ 1
soldi@@ 1
Griff@@ 1
Nad@@ 1
ried 1
Sak@@ 0.66387840673327
iat@@ 1
tos 1
gir@@ 1
idi@@ 1
а@@ 1
depart@@ 1
Bog@@ 1
iv 0.4418677899820961
olds 1
bun@@ 1
los 0.19740624595815287
Fas@@ 1
Post@@ 0.42894936614219026
dinal 1
Radi@@ 0.4186811969813913
Carol@@ 1
Mé@@ 1
Bom@@ 0.5855579640949002
Nation 1
ennis 1
phi@@ 0.7957423453124618
err@@ 0.6782694132453891
Peru 1
ü@@ 0.04543342865454264
Microsoft 1
civi@@ 1
rand@@ 1
Kab@@ 0.7227780822714812
Les 1
stell@@ 0.13558091402583708
1876 0.9187566816565648
Esp@@ 1
NR@@ 1
Andr@@ 0.8764707888248446
Model 1
Rail@@ 1
provi@@ 1
Pier@@ 1
Pit@@ 1
ë@@ 0.9579785609953031
Sier@@ 1
Dru@@ 1
Peter@@ 0.940387868756491
Luis 1
PC@@ 1
Bau@@ 0.04794769577190432
etti 1
esp@@ 0.9756925451330626
Tou@@ 1
osaur@@ 1
Boh@@ 1
ho 1
1878 0.8998011083880695
Á@@ 1
Frank@@ 0.3326188134720869
ste 0.052526017359469344
1883 0.9177662611598711
AD@@ 1
Barcelona 1
Oliver 1
ags 0.783688852510238
eira 1
bach 0.11087486118843433
Max@@ 1
ci 1
Wit@@ 0.5147450462245327
uma 1
Brand@@ 0.4562074271946298
Represent@@ 1
inclu@@ 1
acher 0.2870215501329788
Brig@@ 1
elor 1
rin@@ 1
1871 0.7141954977636416
Din@@ 1
и@@ 1
Wes@@ 0.3283310599694303
Hans 0.18156111800596475
ael 1
ligence 1
Jazz 0.5305588078660318
Tob@@ 1
bott@@ 1
iner 0.3043141482662918
san@@ 0.3784559815991118
iter 0.4586213074083724
nex@@ 1
studi@@ 0.3209267925013546
nucle@@ 1
sson 1
Š@@ 0.711681106698512
itis 1
deck 1
altar 0.9361814469776147
shall 1
Top@@ 0.7424264470690228
feld 0.10050745647918098
ingen 0.08255794866125428
Franc@@ 1
tric 1
alle 0.06227879640601859
emy 1
Medi@@ 0.2997671410989017
cians 1
Gun@@ 1
Labor@@ 1
gend 0.39521980726826794
dependent 1
iment 1
wealth 1
Herbert 0.9176286535571981
cerem@@ 1
seud@@ 1
LE@@ 1
1860 0.7819001603049337
Bernard 1
Jur@@ 0.3429665990845785
Pop@@ 0.8432383033375249
Gy@@ 1
Spring@@ 1
ird 1
Rain@@ 1
Blu@@ 0.7568969053538165
zant@@ 1
Hem@@ 0.9245957076090658
duced 1
Hall@@ 0.5238198982560198
househ@@ 1
1872 0.8514457847435875
feder@@ 1
Abra@@ 1
Abd@@ 1
1867 0.8229635685681447
indu@@ 1
blo@@ 1
vard 1
elem@@ 0.9794400904185477
ista 1
Clu@@ 0.8379651726689751
Sund@@ 1
Stat@@ 0.4067001748675887
inter 1
SS@@ 1
Ira@@ 1
unic@@ 1
ör@@ 0.06097003486341396
1875 0.7985902715737847
Rah@@ 0.9799119517098857
Formation 1
ater@@ 0.6498810569410539
uture 1
Mod@@ 0.2619791887366398
Blues 1
Systems 1
ante 0.2833196412099728
esa 1
sport@@ 0.25517846180968645
iki 1
ref 1
gang 0.13639106980062918
nal 1
Tax@@ 0.996245680353154
ech 1
sevent@@ 1
poration 1
Ey@@ 1
Fil@@ 0.3090868486425844
Run@@ 1
tag@@ 0.36190154303753885
ysi@@ 0.7528552283447804
Raf@@ 1
ymn@@ 1
1868 0.8358012624074762
gio 1
Fant@@ 1
appoin@@ 1
DJ 1
kal@@ 0.24973081831679647
Opp@@ 0.5936608645976296
emin@@ 1
follow@@ 1
constitu@@ 1
enna 1
Hz 1
Bec@@ 0.5599161821208137
ials 1
meter 1
gian 1
NO@@ 1
1879 0.7760668237067319
Album 0.1513103523451404
Tenn@@ 0.5447198952551318
fe 0.08355487994224853
Mang@@ 0.801960742984186
Petersburg 1
conflic@@ 1
iga 0.9467156389133394
Napole@@ 1
confir@@ 1
ician 1
tus 1
1873 0.819960454554336
emat@@ 0.710432695090992
allery 1
Sie@@ 0.16053648230020792
engine@@ 1
Plan 0.8310098116184707
São 1
isher@@ 1
syst@@ 0.38883856523667
ento 1
1866 0.7704071059335834
Bis@@ 0.5839368036747097
1877 0.8887639483796779
ente 0.20464788261749822
Ober@@ 0.04147684731136462
laun@@ 1
ń@@ 1
eto 1
kan 0.6492998731235197
bly 1
Qualif@@ 0.6019840533556724
Sof@@ 0.8008308082375445
Provin@@ 0.44632788247074867
tet 0.050371447933740904
Eng@@ 0.4254953978229524
istan 1
perial 1
Bil@@ 0.34131240733437557
mad 1
politan 1
Mass@@ 0.38573766115863917
Chron@@ 0.8835333765230498
AN 1
mol@@ 0.7477254559697031
enburg 0.19606116845911284
Rac@@ 1
eit 0.12965998516484878
Atl@@ 1
Orig@@ 1
Person@@ 0.2960686221057491
heav@@ 1
agog@@ 1
whi@@ 1
environ@@ 1
cio 1
ged@@ 0.5696817719167839
enda 1
Gener@@ 0.3842602635802166
ony@@ 0.9876900212866649
aja 0.7584891519839683
€ 1
holm 1
bed@@ 0.2940704401052333
Alt@@ 0.1384529391944771
attemp@@ 1
Ric@@ 1
Hob@@ 1
rum@@ 0.9254722243077956
symb@@ 1
е@@ 1
Administ@@ 1
Marath@@ 1
Altern@@ 0.7452897883890708
Play 0.9909605421895756
Serge@@ 1
uh@@ 0.24921547864709645
Rat@@ 0.5391863967304413
enb@@ 0.07174136288385044
1874 0.7203231062296105
Film@@ 0.11967930481307303
compan@@ 1
Bad 0.2755105690899933
1869 0.8356123664682291
ound 1
.S. 1
bis@@ 1
west@@ 0.17963627579691718
mb@@ 0.5234557434308905
gel@@ 0.03600989410207045
Kom@@ 0.0803752140293721
enty 1
Divis@@ 0.8972869143145618
cient 1
1848 0.5744434349527646
ó 1
ead 1
menti@@ 1
Hitler 0.9603472996870615
dential 1
Mess@@ 0.34368777451387905
accep@@ 1
ges@@ 0.06416641796498937
Alp@@ 0.39561896259473434
dus 0.4573525668972431
Amsterdam 0.8792613537888745
1850 0.6567673983877177
Bun@@ 0.25421038139631397
Rest@@ 0.4374094513653541
OR@@ 0.9853690922663603
web@@ 1
Ferr@@ 1
aller@@ 0.6046515031371408
Band@@ 0.48957662875851515
Philosoph@@ 1
itte@@ 1
Sign@@ 0.5604294309030644
gon@@ 1
Albums 1
Fra@@ 0.2613451668673706
habit@@ 1
Alph@@ 1
æ@@ 1
VP 0.7738229298244456
Ox@@ 1
pec@@ 1
promin@@ 1
simp@@ 1
Chr@@ 1
Lav@@ 1
Hin@@ 0.1374306809187793
Tat@@ 0.6643275108253547
Mathemati@@ 0.43325370366295557
… 0.3030525107145571
rict 1
set@@ 1
NG@@ 0.7774600047818557
oven 1
ysis 1
rin 1
consec@@ 1
Computer 1
aler 0.19344434639130417
Motor@@ 0.3370294329881166
Progr@@ 0.9972981892671952
Test@@ 0.45422291334846193
trum 1
Amat@@ 0.47376907448183875
Villa 0.5263775206010257
Viet@@ 1
ethn@@ 1
Dim@@ 0.7596117276871561
Theod@@ 1
Americ@@ 1
app 1
acker 1
org@@ 1
ground@@ 1
lement 1
ér@@ 0.9336560559071304
RT@@ 1
Jacques 1
Ras@@ 0.9898491259630127
Fall 0.26644185885348287
igher 1
geograph@@ 1
dien@@ 0.29243491938530525
1859 0.899167721919334
parks 1
wo@@ 0.3051029339268684
Lux@@ 0.5868079847836807
1857 0.8266958799111107
Kun@@ 0.30543168087935646
perman@@ 1
hier@@ 0.2368201119795957
dh@@ 1
irc@@ 1
zens 1
Sv@@ 1
det 0.06356211126295822
Motor 0.4262094940057819
kan@@ 0.1017093095807001
protest@@ 0.8616770931341223
deter@@ 1
AG 0.2145622650941651
Vit@@ 0.8569546960153133
oci@@ 1
aband@@ 1
Fab@@ 1
dies@@ 0.4072026106020799
Govern@@ 1
Lem@@ 0.8772779227624451
Elem@@ 0.9644424334692356
• 1
DF 0.8225797553100963
Fres@@ 0.8203073715562663
Republi@@ 0.8522603888903947
Pav@@ 1
Leo 1
milit@@ 1
him@@ 1
rik 0.6033372066085091
ê@@ 0.9773678280927098
kir@@ 0.6309862773543377
Arnold 0.9520797807856667
bul 1
ould 1
erst@@ 0.09235574976991036
dah@@ 1
Films 0.5045994477133923
Put@@ 1
linder 0.949131258523059
Die 0.004287891963154488
ons@@ 0.14348566357670667
onym 0.6231950421421834
mir 0.7536069299200131
situ@@ 1
prim@@ 0.8523604303574243
divers@@ 0.8925132530671259
duce 1
Penn@@ 1
Renaissance 1
24@@ 1
bell 1
ution@@ 0.5332707469155538
ę@@ 1
Pop 1
Louis@@ 1
illu@@ 1
mus 0.4624341716383658
Ig@@ 1
iller 0.7741916961627154
Thom@@ 1
н@@ 1
ā 1
loy@@ 1
rad@@ 0.4408587535847766
Ball 1
eiro 1
iz 0.7604013334769306
ucle@@ 1
Eff@@ 0.47687121758876094
Nation@@ 0.3049831133652988
Alf@@ 0.9581832370527985
Prof@@ 0.17895139841453697
flex@@ 1
Parti@@ 0.30990902021366107
Oscar 0.8158868838339395
Ess@@ 0.6011313392043641
Cze@@ 1
theoret@@ 0.6666577038589835
best@@ 0.22468883051005237
smit@@ 0.41859366621150523
Phot@@ 1
Pod@@ 0.8923901042168747
Otto 0.22989707015398772
Main@@ 0.6521888603231794
Magn@@ 0.8111797384771892
Alex@@ 0.8636988990369127
passi@@ 0.6943322395316777
1855 0.8842556062356426
р@@ 1
rics 1
110 0.9120470275722605
autob@@ 0.9393199347748036
Legisl@@ 1
bec@@ 1
ffe 1
zu 0.00447028261952461
1856 0.8135546499734985
Feder@@ 0.8188139931652463
Micro@@ 1
fic 1
wald 0.19560433188022405
maj@@ 1
Dro@@ 0.40361817633354274
transpor@@ 0.7136646460368596
Holl@@ 0.9409145258317214
bau@@ 0.07749286449642298
Expl@@ 1
Fam@@ 1
mitt@@ 0.22993874661022193
plem@@ 1
Viol@@ 0.736303775181914
sten@@ 0.24791220301890124
fung@@ 0.4381940012953654
olen 1
1854 0.8660955840154766
Serie 0.15280162930714777
Lie@@ 0.12676605861146223
anus 1
incor@@ 1
Rein@@ 0.28319121122891944
urs 0.6256396349859905
min 0.43207956024774147
1840 0.8192693935995214
Nikol@@ 0.39244303647861145
atur@@ 0.2868224779131492
kov@@ 0.9195850262688811
Sing@@ 0.6500047574727581
unte@@ 1
amer@@ 0.39017904717111157
1858 0.8622596385386486
Hir@@ 0.3332668788338789
uter 1
advant@@ 1
oppos@@ 1
Original 0.9462530439426627
temp@@ 1
Termin@@ 0.9522181869632877
Krist@@ 0.5383185782262436
Name 0.08509848272176594
elles 0.48841030440836836
ival@@ 1
Clau@@ 1
130 0.9317365807175028
tal 0.3157788040246683
Dau@@ 0.6245779208423449
fallen 0.26211146396746515
Friedrich 0.09404030401067216
ople 1
Wilhelm 0.12262601824583896
Eg@@ 0.7298305603737743
liner 1
specific@@ 1
basi@@ 0.26001133911064933
rank@@ 0.5746152686677329
Wolf 0.6932348296584024
Hamburg 0.16135503052829028
ellow 1
ealed 1
tin 0.6836717470607679
Educ@@ 1
Commun@@ 1
vent 1
iew 1
odes 1
wish 1
Strateg@@ 0.8579971962594242
900 0.9211355099162326
Tok@@ 0.5497817915226193
Pok@@ 0.25072334548045305
François 0.8886765502024372
spre@@ 0.6699054227269774
Johann 0.10082566507601307
venti@@ 0.5597573810783195
Gab@@ 1
ulp@@ 0.48731326542352416
1852 0.8683771658335635
eit@@ 0.15034751538912164
tag 0.2259093794214609
publi@@ 1
ief 0.7888625761994954
Turk@@ 1
Individu@@ 0.6924249801429909
Prem@@ 0.5488115080507943
philosoph@@ 0.8243658356114797
Mechan@@ 0.7446815808841978
Hau@@ 0.3774568514017262
Nac@@ 0.9548325359348385
Fig@@ 1
VI@@ 0.8906672935892535
1851 0.88418051850425
Dynam@@ 0.9263424744538213
ft@@ 0.1702945350428152
lv@@ 1
Park@@ 0.7218284849570834
Teams 0.3948340599809646
Herz@@ 0.28361761678053665
elim@@ 1
purch@@ 1
horn 0.7628193291206755
sion@@ 0.7920724593027969
aut 0.27309775245467843
aug@@ 1
esch@@ 0.14378078310517536
got@@ 0.4021081491701004
Lud@@ 0.965720811832073
Eis@@ 0.1287638253417954
eign 1
Maxim@@ 0.3742668621789863
Anton@@ 0.6183379116687265
acht 0.07328661971481916
applic@@ 1
dé@@ 0.9915664207049637
musi@@ 0.42039473463792393
Fron@@ 0.4776123374793836
Lig@@ 0.24589538378437462
Apost@@ 0.5422615794512412
tig@@ 0.11418495736779895
sidents 1
ū 0.9485307921513987
Beck@@ 0.8239162606434578
Sta@@ 0.3468621351432295
trol@@ 0.26005003829484497
secur@@ 1
sta@@ 0.20692329067914172
Fir@@ 0.37322966882823594
enhagen 0.7062418452912971
Ring 0.8495330587731839
HC 0.7847000803904565
1853 0.8964348326145025
Lad@@ 0.5855169362691801
dership 1
omot@@ 1
Hot@@ 0.547883589949924
nie@@ 1
Tag@@ 0.5502886895258641
etz@@ 0.10675452579547015
Box@@ 0.6286253900864132
ahn 0.11454827634584366
ا@@ 1
Bod@@ 0.5389919263415853
easi@@ 1
lad@@ 0.5199844870861295
Journ@@ 0.285480543383327
trau@@ 0.40819095832118385
Evangel@@ 0.26211380866851725
ec 0.8433250901784028
Ferdinand 0.44071567045243154
sz@@ 0.3945198407333215
etry 1
Exper@@ 0.36272409143429196
appen 0.3948899719094495
201@@ 1
cht 0.05103180248677543
1849 0.6712947900290313
Ein@@ 0.0214880940286816
Moun@@ 1
GB 0.3816696757255369
stly 1
anta 1
Kno@@ 0.521281342929431
ival 1
0,@@ 0.143604191820643
proper@@ 1
Chin@@ 0.49353749540580905
Giovanni 0.8561754905195768
pen 0.6505438224908575
1847 0.8358539447178689
180 0.8494567076579921
Gang@@ 0.833269212355494
alog 0.6325622386027031
ğ@@ 0.8218052351929855
Id@@ 0.5590173627301067
Fut@@ 0.8179357678541138
ially 1
lag@@ 0.14840560924563723
{ 1
Jak@@ 0.5597283571109735
rach@@ 0.22178982117262827
las 0.8684929358746398
lei@@ 0.1268451925551459
alif@@ 1
Beh@@ 0.3691883075101346
Rum@@ 0.3358884077353554
shap@@ 1
sible 1
issu@@ 1
ator@@ 0.27213721462453355
ial@@ 0.3647179251721793
ergy 1
Hit@@ 0.6388077396852085
sur 0.2264587849460883
1846 0.8267018368180548
Franz 0.15382815113490564
Minist@@ 0.3433792105452649
bud@@ 1
\ 1
ś@@ 1
Aff@@ 0.5690591341559535
ring@@ 0.47727093034193485
Freder@@ 1
ording 1
Mei@@ 0.3937614197290897
1830 0.7312581812903404
Broo@@ 1
gens 0.3802661083406235
oz@@ 0.6560254021395117
stadt 0.047697750403979826
lag 0.08860041568018043
ige 0.03620410247274354
ember 1
Ze@@ 0.3249402369896762
erb@@ 0.18844044058393028
etes 0.2576874022744794
kon@@ 0.033268320365394365
kt@@ 0.09197612694339531
Leop@@ 0.40947236887307115
tary 1
Charl@@ 1
wan@@ 0.51713287781462
ativ@@ 0.5012723153965599
erie 0.20819320430874158
emal@@ 0.9111821944941106
.. 1
chin@@ 0.2511725208877768
ī 1
1845 0.7817250311984842
aper 1
asse 0.10054572482421463
olle@@ 0.3114871210581058
XX@@ 1
Now@@ 0.7345986611273003
Arn@@ 0.4170197981456373
Ö@@ 0.10912214827181507
š 0.8431418812616391
nie 0.2077196171195448
Olymp@@ 0.5737815024328963
approxim@@ 1
с@@ 1
aller 0.1416365368829493
ral@@ 0.7871216255030303
sch 0.09068928712555227
én@@ 0.7010441740757789
gend@@ 0.3715732240123106
ainst 1
igan 1
It@@ 0.5002882292315792
Pac@@ 1
entran@@ 1
Past@@ 0.5073882635001686
Peri@@ 0.6293354122152284
spann@@ 0.42085890469014525
iff@@ 0.2546097378473004
Fon@@ 0.7947463170232039
Gel@@ 0.09676615992633472
traff@@ 1
Staf@@ 0.5785849692301286
lein 0.20975937284064664
inus 0.7058414633611173
liga 0.1252458434004149
hen 0.09857922174159328
success@@ 1
Fund@@ 0.31343310086703274
Spar@@ 0.38825933073404495
chen@@ 0.09279278784687768
osop@@ 0.7118228864013919
ı 0.9575669367050885
NS 0.4156983011546325
exu@@ 0.5336743529676857
DR 0.5572113760961569
diti@@ 0.5487446497048778
Int@@ 0.7496060271372368
Ax@@ 0.7393360677641599
Vor@@ 0.017081250892877164
1800 0.6041276707810734
Am 0.021508270352417758
nt 0.12882442721070436
Sport@@ 0.10299210538732974
Chor@@ 0.24682261726896523
gang@@ 0.30566463474206357
Asi@@ 0.35160228984798236
Lun@@ 0.6672009832179784
inners 1
Berg@@ 0.09178255706079304
dedic@@ 1
Relig@@ 0.3932706177667428
uer@@ 0.3084057563752355
nam 1
beck 0.24973241411937147
SV 0.18408026544643089
Wis@@ 0.8231126643899376
ied@@ 0.2148994152545428
Hard@@ 0.6970336579754576
End@@ 0.1764947559440364
Sei@@ 0.3636671305750786
ploy@@ 1
Hou@@ 1
Gem@@ 0.16164830097447513
eler 0.6939481971152041
abe 0.3996266074102781
Frankfurt 0.17291442545446303
press@@ 1
sab@@ 0.6273737654966405
immer 0.05828172983581397
bedro@@ 0.5896528214045155
α 1
eine 0.003602234303350544
Las@@ 0.7211020623398988
1500 0.4780657680725991
hen@@ 0.6210582301813049
Satur@@ 1
Thr@@ 0.4433583417629745
avail@@ 1
Afgh@@ 1
Autom@@ 0.25970314005353856
Tex@@ 0.23345932668743055
ling@@ 0.35059377459825963
ww@@ 1
Zu@@ 0.0464582755286131
elt@@ 0.180248965435404
orium 0.6711472928927409
Europ@@ 0.12654692571150591
leb@@ 0.13369235113283967
rom 0.24362522027048678
Stein@@ 0.0991449429077853
Metro@@ 0.6355062332295778
Fen@@ 0.538603007999075
iana 1
Itali@@ 0.6632394101156586
Ł@@ 1
Religion 0.5229236523868414
Horn@@ 0.6992596597036952
religi@@ 1
Tanz@@ 0.5246306620436483
len@@ 0.3083467206786989
Đ@@ 1
did@@ 0.4158669788875677
Integ@@ 0.47713041558133384
accompan@@ 1
Wagner 0.6896807355098378
berger 0.1292871166171489
Turn@@ 0.191032160397234
ollar 1
polic@@ 1
Connec@@ 1
Ital@@ 1
Inf@@ 0.5680484726300294
mas 1
ï@@ 1
188@@ 1
finale 1
Ut@@ 1
ufac@@ 1
ð@@ 0.9570047862661266
typ@@ 0.18302486537192125
Spor@@ 0.43900483121668504
Zo@@ 0.6378634359688057
Dat@@ 0.13678190250630204
в@@ 1
ught 1
Bit@@ 0.5355485699368893
Ris@@ 0.38356338626922176
1815 0.5267196306107587
iven 0.26718355128077503
ken@@ 0.23325467598492314
immer@@ 0.3734556795644357
Leh@@ 0.3330345260078556
är@@ 0.031796215356618356
л@@ 1
nis 0.06296773690643064
Miss@@ 0.5203471603411621
amme 0.5302553730690545
Chall@@ 0.7933827022435492
bourne 1
ole@@ 0.9685076655766218
yond 1
Č@@ 0.492759449879748
eli 1
ammad 1
Single 0.25496131197916644
Stro@@ 0.5409328757340677
inge 0.23618671255118592
Bronze 0.5160836383998404
ywood 1
Hugo 0.5695104473475088
Aug@@ 0.2540188577502841
Euro 0.15783467913743615
Sever@@ 1
ο@@ 1
iko 0.5510365717288829
individu@@ 0.5614314662169617
Differ@@ 0.5043409403209176
ben 0.026162634813919124
amen 0.10534134879590075
alen 0.030467324024352725
tained 1
Are@@ 1
hil@@ 0.32020211817497857
thal 0.619864673291845
Lit@@ 0.3508994994197162
deliver@@ 1
erk@@ 0.046493309136459854
igh 1
ross 1
obil@@ 0.24553596606625663
national@@ 0.2509502727487329
Burg@@ 0.18946837186678506
ener 0.08818944827525292
т@@ 1
Online 0.5274025369127006
Wik@@ 0.5549154241671249
enes 0.3229488893023514
fried 0.28202409527321304
Wer@@ 0.06686797638956367
bli@@ 0.40855499147956326
Nass@@ 0.5771849436680371
bis 0.005128682643359753
Canadi@@ 1
dem 0.0026106976819353055
ț@@ 1
premier@@ 1
Da 0.07117817951711503
lished 1
² 0.13290386867048415
els@@ 0.16303030956798595
Islam@@ 1
National@@ 0.06056010014875474
Pion@@ 0.5498192877719021
Software 0.48588035851277017
Neu@@ 0.04780141875313407
Mom@@ 0.5659675822984483
Johann@@ 0.2746419081616882
к@@ 0.9715227765444592
Gru@@ 0.26050899163406666
Hub@@ 0.32806800156401333
gew@@ 0.030913216159256213
Julius 0.43735421418128273
issance 1
Ludwig 0.12613233585545094
~ 1
Hell@@ 0.5960560261081257
fan@@ 0.31152817611566963
rot 0.402873418127704
Kul@@ 0.42638662601124827
inson 1
189@@ 1
cken 0.0504775034378956
halt 0.13740978658270736
Ord@@ 0.2585562146477844
sche 0.12701632870152077
Heinrich 0.09028541609763235
Schu@@ 0.43074935937949066
Schwar@@ 0.16235132058419596
Back@@ 0.4133781032395395
fig@@ 0.2591663973932811
engers 1
abri@@ 1
α@@ 1
Ander@@ 0.23179596999393184
Wander@@ 0.2494307727224275
Temp@@ 0.23566028064031116
Ost@@ 0.0647822836933544
last@@ 0.27499440282750964
Budap@@ 0.5775508044108425
Kre@@ 0.07256403566921911
ku@@ 0.44955123621823917
tern@@ 0.3717776339193261
Hoff@@ 0.2889753918586762
ř@@ 0.2535048554690626
entr@@ 0.36338984052275075
Chic@@ 1
Roth@@ 0.5629362561384866
Zi@@ 0.4596908805849535
Fall@@ 0.5692940992387504
Bibli@@ 0.2109473180877221
Rak@@ 0.4332491286535771
entum 0.21282894380391384
Gas@@ 0.26469619908219055
Metal 0.394682514886382
ń 1
contr@@ 1
Ernst 0.1536048744973902
etimes 1
dner 0.4141398796384907
Nord@@ 0.04654742283133192
owa 0.3807701064037353
Emp@@ 0.16304811271594571
echn@@ 0.21906721007090257
à@@ 1
maxim@@ 0.28154013697516517
unter@@ 0.018854295337454394
Fried@@ 0.1557689244100293
bek@@ 0.12009513212809204
gia 1
tronic 1
Tag 0.11976718618306166
iden 0.35565609140969673
Bach 0.32328773235767594
chur@@ 1
dition 1
e.@@ 0.39262732560481545
Stur@@ 0.23272812576008978
3000 0.5386927493980518
tem@@ 1
finan@@ 0.4598299179316591
dient 0.14142007068140616
sberg 0.16135420164428496
ynam@@ 1
Strat@@ 1
Sebastian 0.5453288105215401
} 1
kur@@ 0.08250955606419681
ą@@ 0.8285044853989598
190@@ 1
Vie@@ 0.4025258225332397
alien 0.361686567579747
inform@@ 0.3980619495621575
ourn@@ 1
PD 0.45032244006170735
Eliz@@ 1
lung 0.05221138472591205
artic@@ 1
ohn 0.3184636940953629
rug@@ 1
adj@@ 1
agne 0.39783981761511894
fabri@@ 0.8497265867465152
agen 0.05115526230029357
Kurt 0.3714716693562401
alley 1
zin@@ 0.2202303663225973
tens 0.38106819270496795
wand@@ 0.1175405018301458
Anton 0.2849419076427351
Expedition 0.5168972949804064
187@@ 1
Bin@@ 0.5187789530193373
Wag@@ 0.323431430741629
omen 0.2049290786707054
Hung@@ 0.7468234096302891
deg@@ 0.3427161987734805
ffer 0.2649402479213734
Moder@@ 0.22464877936705213
ko@@ 0.24474881731297102
trainer 0.3014513557403702
Exp@@ 1
abil@@ 0.18675551502774365
power@@ 1
Generation 0.3988472405354403
Nah@@ 0.3117092076170506
wo 0.026439100390955306
lich@@ 0.06446507536980994
atz 0.10897033842644004
illion 0.73526541501932
angel@@ 0.20939598294137426
ilit@@ 0.4161230322356983
Ž@@ 0.6403562572223838
itar 1
auer 0.0640995174886822
itzer 0.16584085973900176
Leipzig 0.14315024054957873
hin 0.09720967352637121
bru@@ 0.1814504585351839
Roh@@ 0.27773587254310955
Rit@@ 0.6234248604161619
ought 1
hus@@ 1
mei@@ 0.10222710809513144
uter@@ 0.3450511453897779
Bach@@ 0.36261379315026393
Basel 0.33141998657026617
Sov@@ 1
Phase 0.38985670175556636
isch 0.010472247982807723
Kri@@ 0.18239989820522165
ark 0.9502900475495931
ć@@ 1
burgh 1
ellen@@ 0.1673988739101413
oly@@ 0.40661763316385224
İ@@ 1
forts 1
intensi@@ 0.3700246504951927
Pati@@ 0.28500370859739405
chair@@ 1
Ide@@ 0.2455026154753083
Gott@@ 0.15543869756187728
hardt 0.4252583939760751
Milli@@ 0.23678902533749321
dt 0.18048991620470345
Bill@@ 0.901135861149194
Flu@@ 0.1277035090922732
Mann 0.10046325797721375
lor 1
Initiative 0.3511130212222472
Organisation 0.16711952916129535
Pseud@@ 0.3754126626208209
ë 1
Ç@@ 0.9941190368644045
atten@@ 0.2608755441292718
Jul@@ 0.9467828501195963
Dut@@ 1
commod@@ 1
etter 0.4227103720769358
asons 1
Wein@@ 0.13331548959709041
Die@@ 0.2790529064397433
Kob@@ 0.4134374732760448
Francis@@ 1
DF@@ 0.4086536021565455
stur@@ 0.24687840387032467
Gast@@ 0.1065811099706307
Muse@@ 0.1730255544766972
Wolf@@ 0.28854905789090735
isl@@ 0.5369994687704386
SG 0.23256766388461772
Baden 0.1611255911139034
Ś@@ 1
185@@ 1
Co. 0.44929600522068885
bei 0.004470380767504975
abin@@ 0.988797575244827
rak@@ 0.34960100945837863
μ@@ 1
kor@@ 0.085560682681771
Bank@@ 0.2748891477253191
ambigu@@ 1
capac@@ 1
Liz@@ 0.3177821893919578
etz 0.17435824763278965
öl@@ 0.05181099548546226
Hermann 0.1566089914231894
gem@@ 0.05846060786494079
Adolf 0.235924684524999
186@@ 1
Georg 0.09724177829800815
amin 0.8238451547611367
d. 0.16745191813972252
dition@@ 0.9577628855809376
xis 0.25345430155278814
Sym@@ 0.33080935672065603
Prop@@ 0.2655579475166458
Kö@@ 0.360604268679166
cc@@ 1
enstein 0.26283059326059655
garten 0.2591937983330234
Kub@@ 0.3299521570113473
Deutsche 0.10045388164567641
Admir@@ 1
Ō@@ 0.9817745322583192
ö 0.7510185297565272
Stef@@ 1
Bundesliga 0.16818118881969416
Develop@@ 1
ago@@ 0.7221793389969892
ý 0.2657813384393133
ʼ@@ 1
ahl 0.11229649746968005
Get@@ 0.2175259054909836
einer 0.004772330218367406
candid@@ 1
rd 1
Afric@@ 1
Europa 0.09424065771412805
bein@@ 0.22378616091727999
Anth@@ 0.7931600526388893
Koh@@ 0.14635231848880131
contem@@ 1
ockey 0.5432356762155717
Gle@@ 0.29593837710444215
Fest@@ 0.06544680958783256
ú 1
deo 1
Johannes 0.11993722706673625
epis@@ 1
republi@@ 0.9220110750800372
twel@@ 1
Stefan 0.40640670636202886
Winter@@ 0.11648724983104984
β 1
deck@@ 0.08615377811128344
Lew@@ 1
Hist@@ 0.7494497921307418
ld 1
evangel@@ 0.12930565257594331
Tay@@ 1
yland 1
alter 0.11424280936169855
dens@@ 0.26152936105762614
kel 0.08738359656206746
Isl@@ 1
Instr@@ 0.1697976850931439
eim 0.203933150537146
entin 0.17237441339283083
dorf 0.08147802107931507
offic@@ 1
erc@@ 1
ien@@ 0.07634004901228002
Vog@@ 0.16231533875200285
otte 0.19281656304951608
urity 1
ener@@ 0.3496365322343193
ʻ@@ 1
ل@@ 1
Sach@@ 0.1778156915388377
gram 1
ür@@ 0.03251929673080077
call@@ 1
ς 1
hous@@ 1
aup@@ 0.16848291593263032
sein 0.013812152920359267
usses 0.1609314037852744
Schw@@ 0.03957437159827231
kas 0.3504773440679146
Ring@@ 0.2739398743044354
DV@@ 0.6394735867886957
Secret@@ 1
thod@@ 0.5390963173800312
estic 1
import@@ 1
enst@@ 0.06296865770901047
mately 1
arre@@ 1
Hein@@ 0.3159365128617156
Span@@ 0.21913396629795143
heimer 0.2929672674666848
overn@@ 1
Hand 0.202870723486274
½ 1
bay@@ 0.16701178185751103
ă 1
Dresden 0.14753858504696793
uren 0.08607759584401152
ehic@@ 1
Auto 0.39125438198356355
schedul@@ 1
elf 0.181525523542877
Centr@@ 0.967289781023787
Gö@@ 0.18832269599103513
Fru@@ 0.27343020804339246
Der 0.004166877157803162
Jord@@ 1
Rudolf 0.18064666425266598
ische 0.00537694766032733
Sup@@ 1
leh@@ 0.09667697984426452
olis 1
commissi@@ 1
uz 0.7699822418802716
rt 0.3005034949735926
τ@@ 1
а 0.9119128379631857
Ere@@ 1
atz@@ 0.08540021134319684
Kro@@ 0.24247157446355203
hn@@ 0.6376645541950765
hung 0.16912752468341766
unbe@@ 0.2058879422179856
Sek@@ 0.07569446932082018
124@@ 0.6148734783183805
warf 0.29893682629227203
Ent@@ 0.048759320225684355
ften 0.07351968591732613
iker 0.07843388164867533
ollen 0.33202444987280766
Dipl@@ 0.3331450678303845
ě@@ 0.29463282310602185
ρ@@ 1
Zul@@ 0.2067046661133574
ż@@ 0.9439899648649827
Infra@@ 1
Got@@ 0.29978542845815165
Defin@@ 0.33748413947133743
asch@@ 0.07301376140309994
aber 0.011140801068053388
Jah@@ 0.3849883788381348
Sonn@@ 0.12832213153242095
materi@@ 0.5998858977556167
eist@@ 0.14781554158777646
Von 0.018749928226360353
throp@@ 1
î@@ 0.8367898525571698
Schmidt 0.2837159704923301
Nel@@ 1
Pf@@ 0.05427064173452048
ahl@@ 0.09527110642149068
bec 0.7664284776869781
emann 0.19355037030438696
erh@@ 0.057313712275773004
expan@@ 1
Bres@@ 0.2634774131121303
Premier@@ 0.2863393088996533
aden 0.06485626726255521
sour@@ 1
a. 0.05476753117722426
appoint@@ 1
Luf@@ 0.18565051876893554
Gustav 0.23550812733712304
ystem 0.3154317863235255
affe 0.23702976146592986
Andreas 0.2030402523201254
Stuttgart 0.15122124172544416
Phili@@ 1
spra@@ 0.3198370879274485
zen@@ 0.10800486070392888
ynast@@ 0.330376609808972
Elisabeth 0.2171979959344934
Jung@@ 0.16082092511902193
besie@@ 0.19473657504969383
Josep@@ 0.839802528863
Stand 0.059684124563446926
liam@@ 1
Hoh@@ 0.10196419086858773
wen@@ 0.11969210999796638
Volks@@ 0.04935725205862631
bei@@ 0.05556689658793031
Å@@ 0.9899184151452604
Reich 0.13624509011952005
lich 0.00799717920373814
butions 1
defe@@ 1
Das 0.005389251352027424
gab@@ 0.3366374081136052
ön@@ 0.05287657160738245
д@@ 1
hr 0.15011886223573723
blast 1
auses 0.13131175393032155
Schul@@ 0.036534846708114875
pa@@ 0.16287354922852523
Isra@@ 0.6490400804323168
ricts 1
tent@@ 0.30139241473062905
Hug@@ 1
isse 0.19897117722657134
uch 0.3218651396312184
ü 0.5185553361986922
ppen 0.21186490802593497
Nord 0.13992122013949995
Fischer 0.28938232912180506
Prob@@ 0.29832581907962896
rei@@ 0.07741701794817961
Josef 0.14140261269528637
ets@@ 0.20766914607407355
Brenn@@ 0.27171239293190724
earch 1
Afri@@ 0.1768583087330882
hausen 0.08459394747121567
kr@@ 0.18643872085163254
č 0.6849293080374659
aden@@ 0.3301714738115845
rift 0.24765179807249924
Rath@@ 0.2039254593521538
für 0.0020187243530466813
Fritz 0.19931482790839825
rang 0.1562493189840161
ι@@ 1
Olympi@@ 0.2199453013678248
ength 1
enbach 0.13132757229755637
Kamp@@ 0.238202961985593
kenn@@ 0.12038143628591279
Reich@@ 0.05428649966828841
· 0.7308504219554237
c. 0.35918901344113496
preme 1
trag@@ 0.13948944644115907
aison 0.27133774238944386
Muh@@ 1
anni 1
Edu@@ 1
Lok@@ 0.19326699277266735
Panz@@ 0.168132594715237
Rau@@ 0.13534153673440685
ince 1
owle@@ 1
Programm@@ 0.19968458613925735
Dé@@ 0.8663747177122122
Herr@@ 0.08932309197894116
allen 0.046574101839205385
cker@@ 0.15024010428314896
atorium 0.22133249050504467
đ@@ 1
Des 0.19573486139677862
adem@@ 0.1651904093693095
ende 0.010361487407248758
ymnasi@@ 0.37366717012978634
uf 0.7270140486270168
arf 0.30826862670776783
′ 0.8071868077513824
ultur@@ 0.33197752494748456
Columb@@ 1
Brand 0.28335653437906777
Ensem@@ 0.2198259744057613
erne 0.10926730066656905
Jaz@@ 0.2439877776729211
Kop@@ 0.09011602240711061
Haf@@ 0.0751537229565199
enz 0.0376368008708285
» 0.1299819357368589
Form 0.04861413032314867
Schnei@@ 0.21309056838564402
Build@@ 1
õ@@ 1
Version 0.10643454101455235
Diplom@@ 0.25858974964694653
ific 1
Wen@@ 0.1955974928008178
« 0.1268967750286709
Ş@@ 1
arina 0.28197857602641174
etter@@ 0.175653756127854
ahr@@ 0.08501017138949725
ş 0.9812217341955515
ε@@ 1
funk 0.2756810844999767
angs@@ 0.09284536028415746
reau 1
caus@@ 1
aissance 1
iddle 1
vern@@ 0.24570320110948163
Witt@@ 0.22799261882203473
ident@@ 0.32723026567911107
Fren@@ 1
ritten 0.11926311245904642
strö@@ 0.24170868162706494
ween 1
.-@@ 0.145180837807116
ls@@ 0.48081405461461385
NCA@@ 1
Mex@@ 0.788932884105548
Den 0.07633083850182902
ausen 0.09268584250260342
Amer@@ 0.24561933125372104
Lincol@@ 1
ething 1
ül@@ 0.05684910704034055
ä 0.36772626086139576
ē@@ 1
Austral@@ 0.9511910888623855
Dah@@ 0.5286913029653764
bare 0.09917045797547161
inger@@ 0.23126312025728965
alien@@ 0.3261397777391396
nier 0.18521638865613013
oti@@ 1
haus 0.03930302174075992
fest 0.08999745324820271
Samm@@ 0.13660672928814926
Restaur@@ 0.14954033884102752
tum 0.10877299604155566
Gest@@ 0.06603530654102296
loss@@ 0.098723192987185
ν@@ 1
Schl@@ 0.03338681859720222
Wolfgang 0.13991309701835486
lang 0.04283449824189936
Franç@@ 1
у@@ 1
Minn@@ 1
sth@@ 0.10462794999927243
chn@@ 0.0766428477686978
sei 0.03183016972790865
urg 0.21848715488973044
Württemberg 0.1395617304636215
erly 1
Renn@@ 0.10450974538180328
Werner 0.16333585041496976
ün@@ 0.02299156398773248
bron@@ 0.2231523097636533
ə@@ 0.7926936472102555
stag 0.09537928913473827
Stein 0.19196870430999965
Bremen 0.14791795132438693
pp 0.6029485996402018
Lich@@ 0.20302509713041272
oft 0.05159653147981431
olo@@ 1
Helm@@ 0.18160995372080624
Sebast@@ 0.9922817310536278
@ 1
Es 0.010592945236162183
Matth@@ 0.2004211337527244
Status 0.19885302020117196
Temper@@ 0.16639546661601626
Juni@@ 0.10477945384569934
Kle@@ 0.2265082878389852
Tau@@ 0.15341387423127031
beginn@@ 0.3996841636993412
lang@@ 0.05178939140782625
Gymnasium 0.10613004061631871
Engl@@ 0.1125354071917576
Famili@@ 0.3028319360335328
Hof@@ 0.07498473462281306
Zürich 0.11783228456521952
ø 0.999383322603773
Bahn 0.09364646468726759
Brandenburg 0.15865288901690364
м@@ 1
iw@@ 0.7335647757340908
Kaiser 0.07873208749016433
م@@ 1
Brau@@ 0.11939830505115517
Berg 0.10358891403101579
ș 1
adel@@ 0.30637373060343415
Ø@@ 1
Bern 0.217285418675445
pub@@ 1
cke 0.049634957023231015
wagen 0.07627915099778933
kun@@ 0.08818939349642668
ź 1
Nomin@@ 0.2327530095718836
zw@@ 0.033071934468881556
cow 1
eger 0.14337679512285548
mm@@ 0.13156069560975692
λ@@ 1
Ins@@ 0.12068778143499133
entur@@ 0.24222726464351846
ickl@@ 0.3478810652151821
Them@@ 0.24067560929453644
dig 0.08406170032357024
rang@@ 0.18512269239604212
nen 0.023566382916897728
Gut@@ 0.10573792704567822
isen 0.05528433993985061
kop@@ 0.09603295196626478
Margar@@ 0.44329951876574974
endorf 0.07897447512966899
relati@@ 0.8462945485957309
Diet@@ 0.1997372702825409
Analy@@ 0.18522108665967754
orie 0.6050451003168777
umen 0.08004849239323171
Alli@@ 0.21889098108697674
Charts 0.1898663785222494
Barbar@@ 0.8921389687361649
Stol@@ 0.20592832045530612
wth 1
zum@@ 0.08309714924642593
ahn@@ 0.049909988897225796
ircul@@ 1
sylvania 1
probl@@ 0.30234720995956665
eres 0.14049573864047005
Müller 0.1408477553001232
inen 0.043643878839343016
aner 0.12271367574257029
Ort@@ 0.14005539073824563
κ@@ 1
ر@@ 1
् 0.00015235525580170327
chest@@ 1
duk@@ 0.22267854419283822
opul@@ 1
neu@@ 0.06231862967044231
Klu@@ 0.11620757993546303
tings 1
wander@@ 0.09431069048826532
Haus@@ 0.037251932907331954
stadi@@ 0.3902789756831547
Kauf@@ 0.0948412004708009
fem@@ 1
emeter@@ 1
Wash@@ 1
fern@@ 0.11481179612598148
üt@@ 0.04059908064052099
Miner@@ 0.17763962965466315
Ż@@ 1
e. 0.2611464710506095
191@@ 1
aren 0.07580693086405528
tiger 0.09789822902560939
gely 1
Lü@@ 0.08326568510993976
fen@@ 0.08236103303088202
wei 1
ular@@ 0.21671215418468914
Ó@@ 1
Sich@@ 0.09954400095902974
Heidelberg 0.17339138174408028
→ 0.383563993244624
Salzburg 0.1988157008680243
aum 0.17420435200538503
ò 0.9661358212195573
edt 0.15359820460067267
stad@@ 0.18788946919205435
lau 0.08039917586298899
ht 0.06447762967922041
trop@@ 0.21774798751470936
σ@@ 1
Internation@@ 0.5296192255894157
Zer@@ 0.13277142247470547
arab@@ 0.1889398474480174
Descri@@ 1
Holstein 0.19144970958857815
schw@@ 0.028795966698694442
brie@@ 0.7572263449674966
Institut 0.06677045709223552
rand 0.16091680159228758
Verb@@ 0.0322308573315693
Eck@@ 0.16204200250506037
Eber@@ 0.16017053901765718
Wehr@@ 0.09045145790137142
å 1
äl@@ 0.021204538831407292
Start 0.14443351268117713
rence 1
ldwide 1
Refer@@ 0.14505388742597172
straße 0.02027689250013275
Zy@@ 0.11899673142321913
ő@@ 0.8539692595206888
ahr 0.11074885704207355
Kron@@ 0.11845074645434439
kom@@ 0.03580073678786965
wart 0.15986111498390335
Aus@@ 0.006171141621401221
iland 0.22382466313544502
aill@@ 0.0731369192582242
onen 0.026566416927615445
Seine 0.02583971707241351
Saar@@ 0.12966516271212883
Río 0.20638999470680128
oren 0.029775776133915233
ensburg 0.1511607520579862
Engel@@ 0.18343383999813498
Materi@@ 0.1589902379817182
ange@@ 0.026471558714147917
rech@@ 0.0695025629388937
Chair@@ 1
bibli@@ 0.2001107455980775
Tier@@ 0.09785318728232639
elop@@ 1
eis 0.19816988845499434
anger@@ 0.19980159667082575
Zw@@ 0.06949618451883308
ي@@ 1
و@@ 1
Wilhel@@ 0.14158695703086305
oder 0.004052713774325274
É 1
ư@@ 1
ungs 0.1620292265786775
Rug@@ 0.8832952313768365
jet@@ 1
Theat@@ 0.17511855835905105
Oly@@ 1
Regim@@ 0.16757993068452606
Düsseldorf 0.12373216531212587
drei 0.009802759461296134
train@@ 0.18803344510591932
zin 0.24126814617638345
än@@ 0.012985764495266823
Seb@@ 0.7925226609622651
sdorf 0.05564864003364616
zur@@ 0.19991076245001346
п@@ 1
Joachim 0.18540624177055537
† 0.013959510412178607
essen 0.04495240537865313
gut 0.0378351532900506
Bayern 0.06931403360013687
Gusta@@ 0.9311845313938386
demon@@ 0.46673529089912125
sod@@ 0.9626169206392002
Kent@@ 1
gau 0.18434504200925858
§ 0.13837644855503495
Bundes@@ 0.017833621680871783
berg@@ 0.06702422993406554
Lond@@ 0.2693693058600636
Text 0.13294821225700043
Viz@@ 0.06890468099753044
nis@@ 0.07184861512090132
Kant@@ 0.08914067218012085
Wir@@ 0.0935519699262076
lightly 1
ł 1
ipment 1
rondiss@@ 1
ʿ@@ 0.26964552784986917
rü@@ 0.02602563784245456
ongside 1
Feld@@ 0.0603217118651767
Heinz 0.15738964393207497
cil 1
ob 0.06306631220329076
GmbH 0.06379248882066338
Klaus 0.1603828664983273
verg@@ 0.15457173235055222
Ú@@ 0.7761862476575299
denburg 0.18600979937199236
aust@@ 0.1880845732896868
selves 1
Hier@@ 0.07309194497476791
Î@@ 0.7935522019092814
± 0.9698216237866858
uer 0.07781869455549227
burger 0.046015389121022966
fen 0.012315654182735334
wig 0.2505866633585814
Found@@ 1
zur 0.003525486681524779
Ó 1
hl 0.14919975614290756
Mai 0.012320187897659065
eich@@ 0.028687027210593834
othe@@ 0.38758135267646326
quick@@ 1
Reichs@@ 0.045333460841543174
Kast@@ 0.1356877876434915
ê 1
Fabri@@ 0.11441653293156581
rug 0.3312888269585037
undes@@ 0.19890744589336262
gs@@ 0.043817918616233166
alth 1
utz@@ 0.031896592920365625
Æ@@ 1
Bonn 0.11956762522417755
ppe 0.10057075781895723
rek@@ 0.13834986107315406
enden 0.005982914144081962
Sper@@ 0.17526901716171217
utz 0.13239494876057664
neur 0.11615100142636554
Elis@@ 0.559234472425561
Meckl@@ 0.1649842134018249
anl@@ 0.1050076171990187
Depart@@ 0.21026319968467574
eren 0.011576703576969789
gem 0.07250309772540113
Dies@@ 0.12805116314296325
Gord@@ 1
и 1
kul@@ 0.09473259380662458
macht 0.05182690581017752
Wald@@ 0.05421932966294179
esen 0.035874064398971235
haf@@ 0.03458811682729027
plann@@ 1
ė 0.6527231437928439
Wies@@ 0.11379690853230937
Singap@@ 0.4706750684568675
iens 0.10976855982149591
leav@@ 1
eist 0.14602247620196065
gig 0.1330570688778046
christ@@ 0.08878951787157498
lech@@ 0.05949707390563232
König@@ 0.031069964373238324
kat@@ 0.13772991439816443
Trau@@ 0.11542078670493938
progr@@ 0.14663251857517856
Unter@@ 0.009449337722368107
ạ@@ 1
ece 1
General@@ 0.04015461313211401
brecht 0.15495201367439665
primar@@ 1
Mainz 0.14325428702529674
Rand 0.13938903148895165
iere 0.05205215016190631
riff@@ 0.1287131794588818
й 1
г@@ 0.9984270847338599
Professi@@ 1
doch 0.04164111698252542
ו@@ 1
è 0.9172433271588378
bst@@ 0.09298215463696438
Inform@@ 0.11001970777488795
Ā@@ 1
Dall@@ 1
Flag@@ 0.1578059688128533
Schleswig 0.1367371712978641
SPD 0.08422290963593165
chs 0.13471631549420926
grad 0.12301055321212792
ritt 0.06478318396238754
sheim 0.10024752202755781
ệ@@ 1
lug 0.4590494446397288
ب@@ 1
auf@@ 0.004286382315382795
cipl@@ 1
dener 0.24820991055220534
eigen@@ 0.025434646454232417
riff 0.06657978833220211
second@@ 1
Person 0.10354230338731706
ḥ@@ 1
Sieg@@ 0.16148855622930394
י@@ 1
Interpre@@ 0.1570263762276351
Kiel 0.14721963014855213
Kind@@ 0.15135219110650622
Osc@@ 0.5400768833728568
Urs@@ 0.1146078142779303
Bli@@ 0.1264849264462704
scher 0.0636546154092382
Dort@@ 0.1601226798019553
bahn 0.033621151265169215
liest 1
ṭ@@ 1
jap@@ 0.11637910686702263
UE@@ 1
ß 0.014104730313866033
witz 0.1330382672676737
π@@ 1
Rhein@@ 0.04550109459349996
hof 0.0480876608738743
Text@@ 0.13089643872584378
б@@ 0.9635248472438248
Dollar 0.06455794675585087
ơ@@ 1
Hoch@@ 0.02214440227256921
Ulrich 0.14438944277299495
ė@@ 0.7283913519076807
Nach@@ 0.013957156646977028
Gün@@ 0.11414826580694033
Halle 0.08280874193142995
erner 0.4288846593227191
Dres@@ 0.1696898091589301
apos@@ 1
kol@@ 0.12935058007066177
ortun@@ 1
sie@@ 0.10779954574671047
ò@@ 1
achen 0.033053155612270665
ả@@ 1
Eduard 0.1532940608340305
Bernhard 0.1377087986418429
Fak@@ 0.13160348244589912
brü@@ 0.06189057074252801
rö@@ 0.06125402835100644
ehr 0.15606975797793218
sto@@ 0.0964235194116035
Ged@@ 0.086381471161262
ularly 1
region@@ 0.0848397440889264
ن@@ 1
etts 0.3515460416987276
Eich@@ 0.07978815173646063
atist@@ 0.6308590444176421
iste 0.10749867408068467
ischer 0.005350905177822511
kap@@ 0.05418148083712892
assen 0.02832529721247688
Merk@@ 0.1531499393584629
Ges@@ 0.021874725174465447
Volk@@ 0.06919545860409607
Situ@@ 0.4975280565700047
eckl@@ 0.46106264680131964
ṣ@@ 1
Kirch@@ 0.03223801586891724
ikan@@ 0.08658771987520372
ì@@ 1
Dek@@ 0.07540869420993798
Autob@@ 0.0904283791803834
Theodor 0.13457133405967653
ielle 0.13101816667263733
fern 0.07612956627370794
ì 1
Schn@@ 0.043121694181296646
lingen 0.07039973899954653
Wur@@ 0.08463774875162863
brit@@ 0.11406342979275168
oten 0.023219708241525843
ŏ@@ 1
bald 0.0615710875373362
ṇ@@ 1
Freiburg 0.10841583119031913
Gü@@ 0.09363702958508553
spru@@ 0.14583117365214007
С@@ 1
Lö@@ 0.05591256161486016
193@@ 0.12855311376516887
Brie@@ 0.06742515741705078
я 1
`@@ 1
utive 0.9700198540261974
Graf@@ 0.14512330195991235
Probl@@ 0.15842944873425674
auff@@ 0.06901765620439344
üb@@ 0.023498290554000052
│ 1
wehr 0.05308817596245649
acht@@ 0.040168466570032514
jah@@ 0.05887104358500237
sili@@ 0.15556085875799716
Verk@@ 0.05978367525382066
veg@@ 1
е 1
Philipp 0.09441449686975746
iques 0.19233048629497787
schule 0.019733507559840623
Rund@@ 0.04587241666614365
nun 0.023837117864057452
atur 0.039547756389605206
ţ@@ 1
verl@@ 0.01661890914213226
kilom@@ 0.25098755906684345
uten@@ 0.5120206178096001
Jakob 0.11592044176400429
ß@@ 0.0136145252784178
^ 1
″ 0.7447626549961801
cht@@ 0.03939192191501653
brun@@ 0.1203650302860983
emales 1
meister 0.02496123709138047
wom@@ 0.13063894438256243
Leit@@ 0.06685817444701904
wie@@ 0.06364452690558736
ý@@ 0.31934519903624087
Jür@@ 0.1319122617846401
Ehr@@ 0.041289846212851276
Internationale 0.12989635755541712
Nieder@@ 0.01867221799298865
Milit@@ 0.945290919838177
nitz 0.08154029081322724
о 1
س@@ 1
ilton 1
tigen 0.014128963672173934
Spiel@@ 0.012477822406686377
Kla@@ 0.07809314910929907
onders 0.13317682252183205
Rat 0.08587995105826134
amm 0.03845761543980657
Bek@@ 0.04310242576753185
Glas@@ 0.10474096352324287
Zeal@@ 1
Karlsru@@ 0.12393080108584044
onie 0.10093744710682273
unde 0.021030512706943262
Kinder@@ 0.042144222978066956
ersch@@ 0.018641680583564343
sam 0.059056192613909854
Ü@@ 0.09096521313805672
ν 1
Foll@@ 1
Kind 0.07369278208337915
Queens@@ 1
Best@@ 0.020172398049134652
з@@ 1
Californ@@ 1
Rez@@ 0.06203395184276759
ễ@@ 1
Sow@@ 0.13214284098051346
γ@@ 1
Christoph 0.09489289403425323
zt 0.03796807582385912
Stell@@ 0.06453103018148473
pie@@ 1
ã@@ 1
furt 0.08855971864680137
Kli@@ 0.05737997148704642
kam 0.0082940674813302
ç 0.9173237530210615
Handel 0.11469670836924896
Heil@@ 0.07876817503640103
Ukra@@ 0.3227676949863407
Mens@@ 0.11917539570080511
anz 0.028596331163469487
Russ@@ 0.07414618761522768
Sü@@ 0.09114543053555126
ohl 0.11885330775601399
champ@@ 1
Gerhard 0.12266574011390488
öp@@ 0.06918337317578406
Exec@@ 1
υ@@ 1
ío 1
û@@ 1
Erd@@ 0.03763459256994736
Eh@@ 0.05613104190332277
η@@ 1
Deutsch@@ 0.05810707941553948
System@@ 0.085101508644749
ensch@@ 0.02276998448249282
Kraft 0.08313314068072607
Stern@@ 0.06820237153506852
ô 1
Rek@@ 0.042080104395618566
Schön@@ 0.05791081349518038
erw@@ 0.03794710692133876
sylv@@ 1
ittle 1
Elek@@ 0.06410423452435973
sich@@ 0.015045861670857402
teur 0.07563438924542547
ί@@ 0.9692188920166065
Richter 0.08886127277530181
Ș@@ 1
urop@@ 0.11237558535574373
œ@@ 0.753758101368941
Darm@@ 0.10779115896134099
Himm@@ 0.07398105516532677
kra@@ 0.07165764628369449
CDU 0.0806208888591165
Dok@@ 0.052452834624310093
wort 0.11630845938433979
Aust@@ 0.11007298676458242
thur 0.43102264290973324
lichen 0.004014571499223064
Graf 0.057856590940362114
aille 0.057633750745732515
lei 0.08820120016687226
ffen 0.05332501793611132
Fei@@ 0.11270427508790978
Tor 0.06527846112703646
் 1
Haupt@@ 0.00978501005619423
Jap@@ 0.10668194158238616
professi@@ 1
Mein@@ 0.06317631703276609
wes@@ 0.027229134398004083
level@@ 1
Atlan@@ 0.21302181215805616
ά@@ 1
kei 1
Virgin@@ 1
i.@@ 1
ù 0.9900139229381404
spro@@ 0.061792844071169
δ@@ 1
Ab 0.014921062870443055
Austri@@ 1
burg@@ 0.0580957135498439
Landes@@ 0.013727369906758389
beha@@ 0.21151190001217607
ellen 0.008075926276205514
Christop@@ 0.9358530341350388
Geh@@ 0.02838511150600392
Material 0.1119911958979038
inne 0.06567842761635712
Schwarz@@ 0.0922810052108868
aub@@ 0.04572903600749917
Göttingen 0.11144260515559386
Ritter 0.10691309990314612
entw@@ 0.09037074979725153
verk@@ 0.041878868014423004
öh@@ 0.0421898373919805
ч@@ 1
ungs@@ 0.0029155624448387184
د@@ 1
Konrad 0.11360473952431313
Orchest@@ 0.17736015606565125
Stad@@ 0.036534621364083614
noch 0.0036485011632195084
osen 0.05622075948015742
ouri 1
Lokomot@@ 0.07466457892524722
isse@@ 0.1530943276278608
ن 0.9532169452714131
Athlet@@ 0.47217002879966996
iger@@ 0.2183350335889531
Klein@@ 0.03000689688917565
geh@@ 0.014997565764619136
Kup@@ 0.0809078017807853
Position 0.04654774236832771
eiler 0.057944829615242076
Í@@ 1
Sept@@ 0.7382265640058555
iken 0.05342429081621323
issen 0.031841921445387035
zie@@ 0.14279445560932583
в 1
Mal 0.021881269393345157
wich@@ 0.036787018001901185
Giov@@ 1
Nether@@ 1
auf 0.0007442100650135489
Frit@@ 0.34037603787854653
Geb@@ 0.030408312232524975
kre@@ 0.017322095259617868
nd 0.18791340179111757
resul@@ 0.17816011104071355
erer 0.03375626074396523
β@@ 1
Fot@@ 0.04274860723090594
mau@@ 0.10550518601070742
stes 0.09199679574885083
Nur 0.06591871976936667
gyp@@ 0.16196529442480556
kt 0.011666293776803387
pf@@ 0.015076445004207658
Grund@@ 0.011866978720496116
lieb 0.11079759752228585
Pitts@@ 1
199@@ 0.6998416063985704
icro@@ 1
secon@@ 1
Mün@@ 0.031030470684744613
Boot 0.09170114027740922
Hö@@ 0.03471660391607682
Vier@@ 0.02376457519314364
Label 0.0972023957598724
ы@@ 1
Tradition 0.08326824643162344
sbach 0.08955416014927428
ums@@ 0.06974521113947135
ь@@ 0.7715926806678257
werk 0.011705745285137124
ό@@ 0.8543958623291511
Jimm@@ 1
nach 0.0012173184024011922
К@@ 1
Magde@@ 0.08865823282754351
rei 0.07599149212193834
hio 1
Energ@@ 0.04677207583258728
ع@@ 1
jek@@ 0.04452976351338504
klin 1
tig 0.012508870092882384
g. 0.3844469344248111
entit@@ 0.3766344798580176
isches 0.012954336261967821
üh@@ 0.024306890698872485
Wand@@ 0.07872304458313707
weg 0.02284085879752039
Bem@@ 0.10130456145378262
Süd@@ 0.010013426533619156
Þ@@ 1
allel 0.19331631857992063
occur@@ 1
stark 0.022322715434869904
Frie@@ 0.0682484309075806
erland 0.35007565994518697
Rö@@ 0.0322983750547033
н 1
Wien 0.019802137893316734
andes 0.05605588908164199
Fein@@ 0.08101851727613187
Grab@@ 0.04763114833082915
Reit@@ 0.0850765202065661
Funk@@ 0.0331554950857228
Hä@@ 0.09821303935904807
erin 0.011722659909026168
ầ@@ 1
大@@ 1
1. 0.006157445922848319
jaz@@ 1
Rü@@ 0.0967249925344903
erte 0.006725814219334881
ã 1
М@@ 0.9991394346084368
iegel 0.060335641759193905
γ 1
Stadion 0.07958338645464925
vier@@ 0.018044699027781108
µ@@ 0.3195147928753467
nah@@ 0.028019273542172624
.000 0.01107419116033842
2. 0.011695525405903247
WM 0.06332892107737716
weil@@ 0.06984047486500208
Würz@@ 0.08055709642849251
rem 0.5561062442752027
äm@@ 0.01728236282836122
engl@@ 0.030649788408760103
zun@@ 0.056372786977858434
‑ 1
Kunst@@ 0.01801917397048804
מ@@ 1
Bist@@ 0.12862707886366204
Frau@@ 0.1114638727129887
Wiener 0.03781073345841704
neh@@ 0.06404231446760424
porary 1
isten 0.011892811209185663
Alten@@ 0.0711977664154469
DAP 0.0891422222511646
Wach@@ 0.055936552694750286
blatt 0.08946939969940255
Kaiser@@ 0.054496174742181505
tung 0.009212995341733319
Regional@@ 0.04008848197123904
sych@@ 0.40672376644223823
Bü@@ 0.05274016746542501
dene 0.047652496421513015
198@@ 0.5695408471000674
alles 0.07354518310290652
cken@@ 0.037582277973865125
nationale 0.08562704207214307
Tür@@ 0.043258681386606976
Stadi@@ 0.18689307533407695
enen 0.0050987338994533315
Mitt@@ 0.04813599864076873
zir@@ 0.24931335714232838
utn@@ 0.3743611046127813
ologie 0.010648245162904217
Groß@@ 0.011894878689926976
Pers@@ 0.39310881444517015
´ 0.4076157243848979
Berliner 0.027642135951595138
ived 1
195@@ 0.7235744122679212
197@@ 0.6322098867053427
platz 0.017634282059988647
Hannover 0.04207029015049959
П@@ 1
riss 0.07132001883969831
sprung 0.04892717448117404
ober@@ 0.016515400395989272
Frei@@ 0.024377067343545607
führer 0.02907401224705864
¥ 1
ocial 1
dern 0.008305341231455874
ح@@ 1
öder@@ 0.0846849577416457
ר@@ 1
Stadt@@ 0.009062141235704365
ppi 1
Münster 0.06580446525595267
iges 0.02585175420769569
Gesellschaft 0.018686497983903688
gemeinde 0.017219544178250407
ה@@ 1
Schm@@ 0.06145174372699209
gart 1
ù@@ 1
ی@@ 0.947372049161994
deh@@ 0.05795638702198832
iele 0.030640836144779762
ivers@@ 1
utnant 0.052987647840087373
ت@@ 1
Grün@@ 0.018767844386242346
Musik 0.01959345957450341
hoch@@ 0.02708985363334434
richt 0.037609813739493736
ös@@ 0.025244200056831582
Essen 0.07981220187202157
Köln 0.028295112338363553
Train@@ 0.060638881472168955
ő 0.7885773823734977
́ 1
funk@@ 0.03778853220447512
λ 1
Dach@@ 0.04563660528647253
Klin@@ 0.05014360145325502
kirchen 0.06685387841787596
mee 0.12116397581711978
А@@ 1
fs@@ 0.04858632433956012
ž 0.6865292320936793
ա@@ 1
192@@ 1
Eben@@ 0.057741121740211065
auch 0.000918373348136095
В@@ 0.8893709297391555
Mehr@@ 0.03595145453502525
liche 0.0026958044937387547
Gatt@@ 0.07382858964843565
Hochschule 0.035341860131664515
Musik@@ 0.01352327878311798
中@@ 1
stein@@ 0.02361288293410487
Tal 0.049835702644630754
ي 1
ω@@ 1
د 1
Schau@@ 0.052969114072275
langu@@ 1
ungen 0.001701418827025031
Organis@@ 0.048514318958150816
ğ 1
issen@@ 0.08135527482703331
tei@@ 0.08531751715224879
Montre@@ 0.6306666493529782
osoph@@ 0.3891555448720702
jen@@ 0.049776349540829254
Tie@@ 0.0631448272269392
Ä@@ 0.016667668097646613
ehr@@ 0.02171536101964044
ilom@@ 0.3021256049705612
Brookl@@ 1
Kriegs@@ 0.01457246670960682
orf 0.10329586358240095
æ 1
Δ@@ 1
azine 1
Dich@@ 0.05009080013550947
essel@@ 0.049947610507761205
gesch@@ 0.003920732516897637
Ḥ@@ 1
Zeitung 0.03781523569007234
acent 1
aturing 1
bew@@ 0.01663927256765124
Rech@@ 0.044071609091618495
Salz@@ 0.04625985919518594
Dez@@ 0.30314797854661313
komm@@ 0.013531046751975771
א@@ 1
ל@@ 1
196@@ 0.513670149939145
Illin@@ 1
tsch@@ 0.027908787985827188
Bei 0.004686791954790233
Kern@@ 0.04162611808683994
ة 1
tau@@ 0.039977957328991696
ï 1
ð 0.7734221889702194
Bö@@ 0.048123146328547445
Deutsch 0.04888435539895513
rag 0.06586247745832
π 1
baller 0.5789344313026383
nament 1
buch 0.02073815313188261
feld@@ 0.06534863146301455
Holz@@ 0.023879895643372902
midt 0.3439817282195316
recht 0.015678858190383248
asen 0.04936737376405656
hier 0.009431514876935587
ц@@ 0.998038498898825
ב@@ 1
lok@@ 0.035166060474473154
Gip@@ 0.05442623648301008
Ludwig@@ 0.0705905739678479
Schei@@ 0.06369500972602951
lass 0.05072931547190284
ש@@ 1
ligen@@ 0.09042746132523499
Herzog 0.045442397360903705
lieg@@ 0.04141872526249481
Brü@@ 0.022360477841569262
Champion@@ 1
Color@@ 1
Kü@@ 0.030066737712399285
amt 0.01520093197615466
tei 0.030109690194845568
äh@@ 0.009682178885398546
eten 0.004058202187059342
kön@@ 0.06587063364736137
ň 0.4728137507203239
dung 0.010495905019336426
ر 1
Hamburger 0.0518286285958456
reiber 0.05826934000203836
Rhein 0.05270281491528143
ε 1
Für@@ 0.03044225261840801
ivalent 0.4658068888904514
quired 1
stelle 0.02169377975470967
leben 0.015340150286913908
wie 0.0021152744794074004
zul@@ 0.050305128694550796
₹ 0.7412996751398641
Mön@@ 0.056289188813598796
Staats@@ 0.010646352233817
Zun@@ 0.10327010570579402
azin 0.05082146578369725
bau 0.00776557096318618
、 1
Ein 0.005772852182312291
arten 0.02276689617607569
Kenne@@ 1
Kev@@ 1
Sonder@@ 0.030593292236724218
Weg@@ 0.05230817503501631
tier@@ 0.04563964112158372
ņ@@ 1
Baum@@ 0.051196434099250544
έ@@ 1
Б@@ 1
ч 1
Sankt 0.06081072275634431
Schwer@@ 0.028112241459560972
etten 0.02961992218330582
diente 0.020959813852633652
ḍ@@ 1
Wass@@ 0.03313063320537704
vehic@@ 1
δ 1
х@@ 1
് 1
3. 0.010399425789940986
Infan@@ 1
Schloss 0.0187817526844701
affen 0.035231640215860595
Tsch@@ 0.039995804455488435
η 1
θ@@ 1
Erz@@ 0.04965709174078356
ät@@ 0.018916259977187357
村 1
Beit@@ 0.03222793844770016
erste 0.00460215917650068
ög@@ 0.08592822624669935
sas 1
ütz@@ 0.015719003238980834
sow@@ 0.10239956791436515
zig 0.07514004683205668
ι 1
‐ 1
wig@@ 0.4436092304603848
ش@@ 1
Karls@@ 0.3237465876906454
Ḩ@@ 1
נ@@ 1
hinter@@ 0.0326110252139127
Gruppe 0.009481565573684583
Rä@@ 0.032653799480597615
sek@@ 0.044612145716052876
4. 0.011624222296316941
Fahr@@ 0.00783065006004735
itsch 0.05403219664503154
Schle@@ 0.06042922252505286
Seh@@ 0.1382446749074636
Zwei@@ 0.021800596478869567
ź@@ 0.8420867317385662
ubli@@ 0.44122748182405985
Α@@ 1
gow 0.8560041434747369
orte 0.03881776245694075
Deutschland 0.005686273814317803
Region@@ 0.04113988961379058
ück@@ 0.015030205962094504
χ@@ 1
р 1
σ 1
Neue 0.06139409053265069
atik 0.027367558567647852
া@@ 0.5599477462553264
Fach@@ 0.013111669797613853
я@@ 1
phia 0.8366316371445318
Ruh@@ 0.13273670883979233
Seit@@ 0.03477962533015754
Alter@@ 0.04710547304912942
Verlag 0.02928919426304145
reich 0.025833009167030272
wend@@ 0.035243492229628054
Emper@@ 1
erium 0.06858713577112151
ω 1
Н@@ 1
Heim@@ 0.03247138708628065
Stim@@ 0.029513559400116157
verein 0.023763458495891447
ف@@ 1
Apri@@ 0.6407440649473128
austral@@ 0.05109523184579854
fang 0.042062565530050514
Kreuz@@ 0.01744304841278084
amt@@ 0.03718321111953235
Im 0.0011304125336044314
Mittel@@ 0.00783762566288981
otz@@ 0.052981297450844796
Straße 0.010461147204462996
eln 0.005846744515799271
ē 1
Stei@@ 0.048678736893806335
eim@@ 0.03260900585535538
Freih@@ 0.03352849766129207
kreis 0.03043045714474841
і@@ 0.7609397320785427
Braun@@ 0.1135449596573301
zei@@ 0.03981582713299179
äs@@ 0.025549296797688588
μ 1
Start@@ 0.04634176020497174
Woh@@ 0.028785243286622336
lig 0.026679973890668226
otz 0.35314450842328826
Haus 0.011787484353462859
inhabit@@ 1
ج@@ 1
Voll@@ 0.03407405349518203
ш@@ 1
Braunschweig 0.05635503512404251
Gie@@ 0.04320340911426032
dau@@ 0.017005291273285515
ions@@ 0.05258153661409016
Grie@@ 0.04770036943266443
för@@ 0.02085605078618162
mande@@ 0.052870550671005545
ociation 1
Fass@@ 0.04247957563343367
Franz@@ 0.0308351135885945
feat@@ 1
Aller@@ 0.23855187107817613
Spitz@@ 0.0276412541603121
zip 0.04671996980834168
Nürnberg 0.044796402147261556
iten 0.018522775012916055
lige 0.028279724942796562
stif@@ 0.05041842853395293
Г@@ 1
า@@ 1
„ 0.0007381635690651277
Schles@@ 0.07520043666274348
fel 0.03401068591905985
Ć@@ 1
ж@@ 1
Kais@@ 0.039590777684331065
verm@@ 0.04867327637530239
州 1
izi@@ 0.05578922151837943
schn@@ 0.01510768478311743
َ@@ 1
anst@@ 0.047584822130174585
ύ@@ 1
Vers@@ 0.055479666609824986
bination 0.05988697204781857
Р@@ 0.8389205686352506
к 1
Amt 0.011440186249685588
Zeit@@ 0.011150375646974103
bahnhof 0.04965759245581888
spiel 0.010780857192948905
such@@ 0.02616983579494696
lage 0.01394680791101845
schaft 0.0032143168541525218
erl@@ 0.045586346582705405
Alter 0.01447848307069147
ś 1
igen 0.00349811008888362
Д@@ 0.9923454118812113
schen 0.012632201432931013
φ@@ 0.9571840099112926
leit@@ 0.015064087222364055
® 0.9719201709798636
ň@@ 0.2827404133759603
ə 0.9437114061229281
Böh@@ 0.04449303896684704
Kreis 0.013884573871140907
regi@@ 0.17266920645564185
ț 1
ー@@ 1
Beam@@ 0.05304135344709482
ů@@ 0.18229561669830588
т 1
är 0.02434361751167216
ồ@@ 1
Landtag 0.047145907961488355
seh@@ 0.03923404181348875
й@@ 1
Syd@@ 0.571186534861569
afen 0.050406043756617155
buch@@ 0.027490978160890984
verw@@ 0.024387650578996455
¼ 1
Damp@@ 0.03889779263655479
ق@@ 1
Kreis@@ 0.017653384496688015
Kunst 0.020445881645612982
Reis@@ 0.03321506403920136
Universität 0.004334841042519609
aliforn@@ 0.2682499671904423
ǎ@@ 1
ь 1
Stau@@ 0.042222332792736676
þ@@ 1
ộ@@ 1
≤ 1
³ 0.0508017108497776
Fisch@@ 0.030081014984066814
Kapit@@ 0.030141704751139926
Klo@@ 0.37635863544687315
enten@@ 0.04030679579624577
lecht 0.03352999943042498
ograf@@ 0.020683527006741417
Krieg@@ 0.028074303211977222
Neub@@ 0.04430413528754371
kau 0.08125754886466893
München 0.010647498519315225
asket@@ 0.0938268700332064
№ 1
ischen 0.000776546351160101
Å 0.39880668048657314
Ziel@@ 0.040525070151851465
¡ 1
ه@@ 1
ị@@ 1
europ@@ 0.02236411765914652
≥ 1
Alab@@ 0.8095208418942781
alem 0.16600881378471252
Tod 0.008181305680690915
gef@@ 0.006100351090423689
zil 0.19394786957174837
äger 0.034987552502239005
Κ@@ 1
Puer@@ 1
Tats@@ 0.049562603640902925
ร@@ 1
И@@ 1
Wahl@@ 0.0118526971913469
bern 0.046607869524169225
wur@@ 0.04448761412059943
ắ@@ 1
ế@@ 1
Ω 1
Hof 0.02433830632726337
Schwei@@ 0.04005015110999518
ם 1
ا 1
zei 0.08941314933213441
Finale 0.015906202677753736
denk@@ 0.01754662929105082
haus@@ 0.04242902082134441
ŭ@@ 1
ế 1
Balti@@ 0.3999719572087571
Politi@@ 0.040341697843549594
Sold@@ 0.06200639705001454
Trainer 0.022983951456132266
ommern 0.04466860282303742
Ferdin@@ 0.3119185665005143
Nür@@ 0.2947801837257608
Schä@@ 0.03441676046493433
hö@@ 0.009934877337999777
rä@@ 0.005629983920325501
î 0.8701504060932993
φ 1
Bisch@@ 0.0693713889291376
Mississi@@ 1
Weit@@ 0.019503790669615887
Ö 0.06002412120024456
ḩ@@ 1
schei@@ 0.01637497699023282
willi@@ 0.024709300387485783
Kultur@@ 0.0104745225283887
Ont@@ 0.6259674817762172
Platt@@ 0.04757542405021362
Wasser@@ 0.009668195060355086
dok@@ 0.038751646242634476
â 1
Norwe@@ 0.1952887933955959
Süd 0.031211787929037765
ậ@@ 1
Führ@@ 0.021574968779109516
o. 0.16008604488196848
zum 0.0006887039662674582
Σ@@ 1
ח@@ 1
gert 0.041466698797270496
nach@@ 0.005104016776439297
ṛ@@ 1
Syst@@ 0.044709259307975965
herr@@ 0.01868426322981419
ע@@ 1
5. 0.00912195839781869
DDR 0.013150076970565394
ieder@@ 0.055336117488624194
schl@@ 0.007661516329792629
wand 0.02459084603110097
uten 0.0188083529253452
О@@ 1
ی 0.8182141856388009
deutsche 0.007314080383365002
ehm@@ 0.029132811247483154
ы 1
Autor@@ 0.03316208640688317
Mühl@@ 0.03415535064284789
Strom@@ 0.04222896218810677
atre 0.836038554780271
་ 0.4628767115113165
ʾ@@ 0.7022567410086056
Π@@ 1
Misch@@ 0.04315223221840985
ebru@@ 0.46105463110857275
Privat@@ 0.018369237408612082
rieg 0.05324349095928626
θ 1
ك@@ 1
Schiff 0.019028179426084476
üch@@ 0.008833732026248615
abeth 1
Studi@@ 0.0118828555333541
ṃ@@ 1
の@@ 1
Mär@@ 0.03136643884455056
eis@@ 0.04160910276662677
etten@@ 0.037679354172000905
sich 0.0003589753536943724
º 0.952695376389053
Benj@@ 1
enten 0.00429918492357881
Platz 0.003830070668391533
terer 0.03775678827783044
Т@@ 0.655067074946135
্ 0.5854661982331082
天@@ 1
Kün@@ 0.033438488447973584
Luft@@ 0.013205551093077183
eball 1
ị 1
Leich@@ 0.04614233861799537
ün 0.03561440255270521
Ε@@ 1
Ehren@@ 0.027178314811594967
ür 0.047965328389592846
ה 1
Arrondissement 0.03905368039169315
Dem 0.03007895475496698
Portugu@@ 0.9197141732243737
liches 0.01006398643008871
rese@@ 1
weit@@ 0.012591924606029214
م 0.9016805619846802
kri@@ 0.03771966366861244
ʼ 1
Situation 0.03251570005650317
gung 0.0049524338347196805
8. 0.009045282898233949
Kammer@@ 0.03722562725118036
Sommer@@ 0.01733780090351604
akti@@ 0.022515897846646576
fak@@ 0.03874157903728851
üd@@ 0.04003562530589718
Meter 0.0054656130297037605
Stadt 0.002192910647599681
dige 0.03291258249668598
eister 0.033901443262735635
ßen 0.004189040757088331
Burg 0.010386810589486581
м 1
ọ@@ 1
Sied@@ 0.017750836861322963
Silber@@ 0.02181861608322143
riere 0.025904578536221363
sog@@ 0.06277276896174402
soll 0.007116991533223965
Akademie 0.016969739132538315
Lehr@@ 0.007641029469787818
eils 0.03464594140487519
enheit 0.017970492374745645
∞ 1
≈ 0.7846226255252446
Erb@@ 0.030008033299790453
icht 0.0067915974707926825
uhl 0.028945159389050984
eich 0.037001987171077784
statt 0.00424785165638837
ĩ@@ 1
ן 1
aben 0.027502446692725335
ucky 1
weis@@ 0.016651906346320695
werke 0.01266947114029427
Gesch@@ 0.004632159728785773
gilt 0.008419647432217273
gruppe 0.01053970254104896
igt 0.016832736229628536
provin@@ 0.07406692419806557
Δ 1
น@@ 1
山@@ 1
王@@ 1
unden 0.005429486592485535
李@@ 1
chter 0.01434377318576188
ờ@@ 1
Mül@@ 0.04684198005665432
voll 0.028747176688307945
walt 0.03192254894776868
ř 0.42508512350913924
Μ@@ 1
ấ@@ 1
Allgem@@ 0.021462240664711897
် 1
Linc@@ 0.8515871974299756
furter 0.03217829486472045
z. 0.007057549394109517
¢ 1
ḥ 1
ố@@ 1
Stif@@ 0.024133884802969
gesellschaft 0.012771214821384378
kung 0.02223592973761225
zona 0.7029162481579827
ز@@ 1
Kör@@ 0.061199373269228266
lö@@ 0.017794359349283074
zip@@ 0.02417366380654754
Dies 0.008052280831714873
Feh@@ 0.019743916871295803
bef@@ 0.029773996563264148
ivil@@ 0.08621988759026233
ل 1
Auf@@ 0.0021524526574491698
， 1
König 0.0077032400217465925
Oreg@@ 1
aue 0.027229345444662906
klasse 0.01493605317193614
Ț@@ 1
金@@ 1
Bew@@ 0.03178140635737113
Eig@@ 0.026093958172128204
ン@@ 1
Sommer 0.010072234325380342
eher 0.014990153112784961
eres@@ 0.022322024891462764
eines 0.0015004782149461704
leans 1
Ire@@ 1
zeit@@ 0.004210411065074958
üm@@ 0.030572576661394416
Zeh@@ 0.03142202168891189
kirche 0.00932649573946229
weg@@ 0.009977036541605052
‡ 1
gebor@@ 0.04349127367434802
ρ 1
ד@@ 1
ه 0.8767263028891632
文@@ 1
Schiff@@ 0.012722231347877158
entri@@ 0.029894427234259106
ě 0.16677166357573625
υ 1
خ@@ 1
7. 0.007910277201584265
ausch 0.031024032007744628
mün@@ 0.020107628239427945
أ@@ 1
Meer 0.0314659692683441
ammen 0.053787548480103156
ר 1
ittel@@ 0.06803725633549411
เ@@ 1
Denk@@ 0.018869331927057732
Geg@@ 0.013634836592689648
Hinter@@ 0.014927104661517102
Welt@@ 0.006331633368995465
ή@@ 1
Dör@@ 0.02029736434552378
felder 0.030871179283847132
licher 0.0026661163867081022
utsch@@ 0.02825369173090359
Staat@@ 0.013138606131698469
angen 0.014089916348899953
lager 0.033600464733276776
Barcel@@ 1
ק@@ 1
affel 0.11843708796105737
atten 0.0341432197097038
zus@@ 0.018752293349727008
ک@@ 0.9873205280247098
Oper 0.03297917267441889
Rang 0.012055932009948176
Schwe@@ 0.024787102549229723
Welt 0.008778906639131303
hre 0.01577788056154913
rupp@@ 0.02670059621395648
ħ@@ 1
ż 0.9903921591256105
∈ 1
Köl@@ 0.027869547353867177
Ost 0.023478798374684237
langen 0.01105328517233824
כ@@ 1
ל 1
க@@ 1
่ 1
För@@ 0.09406020250919325
Gott 0.03161653748637605
Komp@@ 0.02963523447056315
Völ@@ 0.02380467586261365
adrat@@ 0.05535847036842432
ations@@ 0.006757601122775946
heim@@ 0.016942948534315622
Φ@@ 1
三@@ 1
kü@@ 0.040484521270855674
Л@@ 0.6443093751816238
ո@@ 1
Preis 0.011132000618733501
iegel@@ 0.016683121984326643
reich@@ 0.00582749822961846
у 1
อ@@ 1
Rolle 0.007029545898681173
dienst 0.010112298789043414
ṅ@@ 1
6. 0.006772920112114687
Repres@@ 0.21059860034578398
graben 0.02557197018021376
ব@@ 0.6727271904462503
Grupp@@ 0.04293933030519503
Stiftung 0.015946968151021073
Zeit 0.0016662443015966202
Brasili@@ 0.025618607244178315
Wald 0.02169260482455897
bst 0.03612970048731708
gemeinschaft 0.01645419509273407
nur 0.0011242701074724902
tenden 0.02739248316239038
welt 0.021358300983084604
Τ@@ 1
ص@@ 1
公@@ 1
Nr. 0.011943550255789593
leiter 0.01498314006994519
schutz 0.014326252811576875
äu@@ 0.004620480343824951
ũ@@ 1
פ@@ 1
ก@@ 1
ề@@ 1
Wett@@ 0.02585025303156145
aufen 0.02598814670236621
kamp@@ 0.029043456338246777
ি@@ 0.6959815633480865
国@@ 0.9479205908044073
9. 0.007050660992571503
Bahn@@ 0.007799702932070764
Kinder 0.006593820495032114
ennen 0.01004162381343762
irche 0.02206114322649174
κ 1
ứ@@ 1
Edin@@ 1
Hör@@ 0.016896847307543407
д 1
─ 1
Fü@@ 0.023511867860905353
klin@@ 0.029603902141836638
schrift 0.00980305582627099
ф@@ 1
dorfer 0.03071088315299687
fabrik 0.023352482562065145
fei@@ 0.01215684792905033
inspi@@ 0.055267963056569544
ossen 0.01578596797583951
Bezirks@@ 0.017630516196792463
Er 0.000814450312128518
Wun@@ 0.03035473719728728
stei@@ 0.006894916202839705
üs@@ 0.01216407418021496
י 1
Flug@@ 0.006145741954656036
Hessen 0.019391445598664896
Ich 0.024846259484292036
` 0.8588347480464009
elek@@ 0.01843329672033101
äch@@ 0.0043795279444254894
Blü@@ 0.01185276507061225
Boden 0.019222542412993315
Geschichte 0.001786339696037689
dopp@@ 0.026052063522312194
otel 0.29535903533837893
themati@@ 1
urch 1
ļ@@ 1
Σ 1
ת@@ 1
ா@@ 1
ồ 1
Schweizer 0.010460441165281591
Zu 0.004457474649337084
Zug@@ 0.012023132870677826
eile 0.009185553802830934
Bür@@ 0.021528109535986665
campa@@ 1
Bä@@ 0.023435387491818487
enhaus 0.00959406177362097
schau 0.023740845113000772
ÿ@@ 1
Kamer@@ 0.01584428551359379
eben@@ 0.02193728384893696
ง@@ 1
ớ@@ 1
新@@ 1
Frau 0.0052813045646293785
Schutz@@ 0.013531387623808937
ŋ@@ 1
南@@ 1
х 1
ј@@ 1
ت 1
و 1
த@@ 1
人@@ 1
Boden@@ 0.01866424307634371
Fürst@@ 0.01988657181336217
Münch@@ 0.026118745831753616
egen 0.02143975824345357
einen 0.0005529547621942615
gek@@ 0.007383134996213954
hof@@ 0.027988185717461953
preis 0.0157896266519773
τ 1
Norden 0.005545415145550945
ockey@@ 0.025069775899051575
ographie 0.019838413448571977
öst@@ 0.017517693384776767
・ 1
一@@ 1
Eish@@ 0.01898687936421157
Â@@ 1
ť@@ 0.3811539472368036
sied@@ 0.01002750064259904
ி@@ 0.9729273421415007
Masch@@ 0.01563003656027193
akademie 0.027134816853945098
auen 0.009264659524946085
dert 0.010282714684741946
mingham 1
verband 0.010062457981933995
ο 1
้ 1
子 1
Komm@@ 0.010412649844896543
Spann@@ 0.024167564645227
deutscher 0.0037244418057352496
forn@@ 1
samm@@ 0.016549340193086105
tere 0.011751060489850253
ת 1
國@@ 1
Gedi@@ 0.019279198684087073
Kanz@@ 0.02210851377943206
Kraft@@ 0.017403996087129787
ľ@@ 0.1958922626675982
Sieg 0.010303782369626003
gebir@@ 0.019741214076378445
ulen 0.02451227238979197
ћ 1
ว@@ 1
Punk@@ 0.021400197387043983
Staffel 0.010018119576526279
eili@@ 0.025084783992889617
itä@@ 0.008244912411481127
¾ 1
Ñ@@ 1
ą 0.9648301758116213
Λ@@ 1
ط@@ 1
ม@@ 1
Gut 0.019697144822445303
Schule 0.00623112583485348
astern 0.22944037230119724
fft 0.022888637978960458
gän@@ 0.007968794454315541
ütte 0.019421036473629485
ั@@ 1
eben 0.008408167354379372
heb@@ 0.02732782876838247
Common@@ 1
Sä@@ 0.011457438901990703
bü@@ 0.018227690243727536
Österreich@@ 0.013570462447581009
ˈ@@ 0.3488328696741649
ס@@ 1
東@@ 1
Scott@@ 1
ouver@@ 0.05280963147633462
sein@@ 0.024807001107234022
über 0.0005734537956265329
್ 0.7469430079152752
人 1
海@@ 1
的@@ 1
Leben 0.0016159522888367066
fang@@ 0.09039316584290288
л 1
ỹ 1
イ@@ 1
städ@@ 0.009991016118916209
э@@ 1
上@@ 1
Lieder 0.023395252676647684
Verein 0.004730261341879803
raße 0.02299592045333645
spek@@ 0.007300245850460167
日@@ 1
Kilom@@ 0.03365494036245087
Mitte 0.004599957719046119
ekt@@ 0.02193349906245837
spitz@@ 0.015846049498558147
Ο@@ 1
™ 1
太@@ 1
Lauf@@ 0.019935654293273895
Verkehrs@@ 0.014669859760580273
Werke 0.007268402750375638
angen@@ 0.025240179154253473
nung 0.003088939016132366
Lied 0.013049629679679218
Wahl 0.00943877435575096
assen@@ 0.020886196592485466
ு@@ 1
₱ 1
高@@ 1
Landes 0.00957195311148554
ritte 0.017732000031258896
serie 0.01162546090697445
useum 0.12214371116422644
ų 0.25704590521503873
র@@ 0.49072400086507395
ส@@ 1
Janu@@ 0.3024763269560023
Orts@@ 0.005450650019656182
erne@@ 0.046949251766707736
ichte 0.011629631171569805
krit@@ 0.009554631961958875
shof 0.01822226528024199
thern 0.371497770690929
wach@@ 0.014676049801046863
с 1
★ 1
ッ@@ 1
Bahnhof 0.007763586464202605
Entw@@ 0.03300923932345759
Frem@@ 0.02398226207287153
Meister 0.008999078297345874
Um 0.005895181836816696
krieg 0.024876528185794125
À 1
Ν@@ 1
Abitur 0.01795965969975344
Anschluss 0.012231054900250997
Wider@@ 0.010409673515410665
ŵ@@ 1
У@@ 0.8216318688771624
Drei@@ 0.02015998025480432
Einsatz@@ 0.022874698408123288
Klasse 0.007835178029964278
Liebe 0.018623276444772168
Werk@@ 0.00943456592674675
Γ@@ 1
ή 0.9012631172800576
⟩ 1
田@@ 1
Straf@@ 0.019261606069203612
kti@@ 0.012823677819637112
kund@@ 0.03411402719674977
ス@@ 1
Arbeit@@ 0.004972984910867087
Kloster@@ 0.017975075933594556
fiz@@ 0.01527821256512491
ა@@ 1
aily 1
chter@@ 0.02170392144724246
entsp@@ 0.015986598579125502
schaf@@ 0.009873167033720343
ล@@ 1
ệ 1
Arkan@@ 1
Tö@@ 0.01764575897639606
haber 0.0196643101283893
zeug@@ 0.004892502893623669
ъ@@ 1
⟨ 1
Büh@@ 0.01079003372773562
Kampf@@ 0.018250434140963293
Kolle@@ 0.015236650090896121
Zeitschrift 0.012163632307967963
geg@@ 0.011711163833297178
sah 0.01359864372859385
schul@@ 0.006699933668516145
ũ 1
子@@ 1
家@@ 1
小@@ 1
häuser 0.02230991286569581
Ф@@ 0.9660192270846286
ր@@ 1
ب 1
Auf 0.0024479884941373048
Bau 0.004795573005174435
ähr@@ 0.00408152347261145
Ι@@ 1
ּ@@ 0.7983629975906021
ി@@ 1
ิ@@ 1
Eisenb@@ 0.019672358579170525
Prü@@ 0.016126492121923474
drit@@ 0.016085535951455097
fein@@ 0.016447556236880614
rieg@@ 0.02318613708682896
ն@@ 1
ാ@@ 1
이@@ 1
icht@@ 0.00455986610434129
sä@@ 0.016837682522911717
ǔ 1
平@@ 1
西@@ 1
Anf@@ 0.01312838660830646
Chef@@ 0.02262048632495243
Dorf@@ 0.009118581644231892
Rom 0.010402558164471408
ahoma 1
athol@@ 0.029281652262727418
röm@@ 0.014304513126814772
wegen 0.0025540630451322843
ώ@@ 0.9168929641040535
Chor 0.016645267619952345
Handels@@ 0.012716801609407464
Wür@@ 0.023674096876947718
erei 0.005840836152501705
satz 0.00652988596654397
vom 0.000741990137018922
神@@ 1
Okl@@ 1
deren 0.0022344740281200876
itur 0.16036985977802487
seinen 0.0014214269691780117
äne 0.015238463854426431
ե@@ 1
ர@@ 0.8641105385686518
。 1
ル@@ 1
本@@ 1
Bild@@ 0.00648561042001184
Buch 0.006951234462767953
bezirk 0.007593544911118832
fried@@ 0.014285011846235611
hren 0.007870576735516477
othek 0.011264903748783618
tene 0.015633001691951243
wasser 0.015280315924504285
ünd@@ 0.012683687027308235
ন@@ 0.9158579293114831
Halb@@ 0.008938817808049348
Kommun@@ 0.00891067534813142
Landkreis 0.0052089072918473115
Pfalz 0.01838309092771025
hie@@ 0.017147069370917187
mals 0.005898575046560454
üss@@ 0.10935153785180368
Ţ@@ 1
̱ 1
З@@ 0.6873525236399088
ப@@ 1
ു@@ 1
Bürger@@ 0.0058631469680847466
wert 0.009501039259412664
äf@@ 0.005045730731756928
ক@@ 0.6193361435854369
ọ 1
之@@ 1
北@@ 1
Meister@@ 0.010599481824930174
Tore 0.013517901456010197
anstalt 0.017873347834626362
ttem@@ 0.04450385071314845
Е@@ 1
ِ@@ 1
和@@ 1
有@@ 1
武@@ 1
Freund 0.0171022258490684
geschichte 0.004360337861162016
markt 0.01804441859200539
teil 0.002616170242900556
Über@@ 0.0014554633531447363
äd@@ 0.009980955219203436
ǫ@@ 1
র 0.6854238418338828
Ṭ@@ 1
山 1
Fußball 0.011419216499614615
ː@@ 0.49026234781620076
ַ@@ 0.9160164919723751
ত@@ 0.8812310555683609
市 1
Basis 0.010590904804518353
Kurz 0.01608079333065113
Verwaltungs@@ 0.005191432452158352
koh@@ 0.014272411130111325
º@@ 1
Ī@@ 1
ά 1
ю@@ 0.9197141732243737
ְ@@ 0.6357471243486454
ג@@ 1
් 1
安@@ 1
Weiß@@ 0.017257543584281703
innen 0.004409308509823572
ё@@ 1
र@@ 0.00034974883234520257
ห@@ 1
Haup@@ 0.005163299435302247
Zug 0.020303248521722318
conom@@ 0.9671597456526152
mt 0.01926613039148636
nicht 0.00039884403347216865
Α 1
Kateg@@ 0.03443516908734818
Sohn 0.0023184156743971023
eichen 0.005318199190928674
щ@@ 0.8228526600933813
ւ@@ 1
ম@@ 0.5042292616361698
া 0.5987722481929516
》 1
Infanter@@ 0.013330082560613707
Leip@@ 0.027334897695283168
raum 0.004248811935877321
¿ 1
û 1
ġ@@ 0.903725189109362
ː 1
म@@ 0.0004936260443029518
ക@@ 1
Ṣ@@ 1
ợ@@ 1
― 1
ラ@@ 1
Feuer@@ 0.01058744845923644
einz@@ 0.005889973229605661
ligen 0.0070877671714125534
masch@@ 0.0128136172577845
ʽ@@ 1
Β@@ 1
Γ 1
ท@@ 1
ụ@@ 1
《 1
biet@@ 0.05137730331497881
einem 0.00036198589540668353
erfol@@ 0.017094311362737636
ihr 0.001721128123520994
länder 0.01737933055979542
oden 0.009186550180271189
werk@@ 0.005095535440234114
ŋ 1
元@@ 1
学@@ 0.5895603674515216
Aus 0.004530037233519709
Gouver@@ 0.011849325901050818
Lebens@@ 0.0030650098688770415
zeit 0.0018592535114156203
Х@@ 0.9215390029331522
ָ@@ 0.5537144223632674
ב 1
צ@@ 1
พ@@ 1
リ@@ 1
不@@ 1
民@@ 1
Herren@@ 0.01760690277250122
Nacht 0.014781078409453407
lieb@@ 0.010166991373328268
merk@@ 0.012105579948303292
rhein 0.03713316267863266
ʔ@@ 1
א 1
0.000 0.010184480858367673
Frauen@@ 0.01272624522676375
Literatur@@ 0.013864784433543623
Män@@ 0.008022119945340737
laut 0.011268998290710337
ringen 0.018846601910335527
tür@@ 0.042181687397715606
weis 0.011792306864822024
öff@@ 0.009203165622469353
ǐ 1
ে@@ 0.6655826253597441
ம@@ 0.9653488459416136
Frauen 0.0042975494531980645
Lehrer 0.011004159460461183
Proz@@ 0.01107915019224767
ampion@@ 1
kreuz 0.018043141830816723
stral@@ 0.6386903980724817
tem 0.011395841422139865
tions@@ 0.00820820392251042
äss@@ 0.007326231522338996
ʿ 0.5822479908009601
ى 1
王 1
Bezir@@ 0.01705753541107674
Deutschen 0.0027226688616770627
Sachsen 0.007572786775825783
Thomp@@ 1
Wels@@ 0.280965844050026
abli@@ 0.10709242629737378
brech@@ 0.01673726019533452
gericht 0.006360674395588371
knapp 0.008542880393412952
ℓ 1
♭ 1
道@@ 1
Doppel@@ 0.008585029153592586
Herbst 0.010593344543012828
alz 0.038071579146201955
ihr@@ 0.06778803561631647
kunde 0.012509288628982608
ruppe 0.01149930199080237
spiele 0.005743995336077404
À@@ 1
ück 0.013046979086064102
ն 1
پ@@ 0.9016805619846802
Akti@@ 0.01824555339554526
chs@@ 0.015680472365133938
zub@@ 0.015016851334460034
з 1
ի@@ 1
ט@@ 1
ল@@ 0.5276138071033545
வ@@ 1
ỳ 1
Kolon@@ 0.00893472690212267
Teil@@ 0.0037566497149086934
brücke 0.013624622130673615
erische 0.016709406462235815
fand 0.00247482985361364
gruppen 0.011991790156559129
張@@ 1
Ende 0.0011918495700130587
Kurz@@ 0.00902091381589199
fangs 0.017271941558808027
ْ@@ 1
न@@ 0.0003974519949864722
ச@@ 1
● 0.9580355971087227
い@@ 1
ト@@ 1
Bild 0.009680315753322623
Geld@@ 0.01576167291380588
Licht@@ 0.012616106628592232
Markt 0.010093535450084741
Sozial@@ 0.005729002741936169
annen 0.013186606064333107
erster 0.006048329039904098
feh@@ 0.0041596712885932545
heit@@ 0.004623093361342904
klar 0.01328499132323498
musik 0.012825388327549562
stanz 0.017701315445900985
unver@@ 0.01615603976427504
ย@@ 1
← 1
江@@ 1
郎 1
Exempl@@ 0.012993701369236717
Jugend@@ 0.00409229545675732
Netz@@ 0.010486391741018645
en- 0.008674750182775498
etim@@ 1
glas 0.0705349832822765
oftw@@ 1
Ø 0.8610492774014198
Ľ@@ 0.550908305446406
ζ@@ 1
ъ 1
ئ@@ 1
त@@ 0.0005495305723999625
劉@@ 1
司 1
明@@ 1
enzen 0.009247447848539795
ं 0.0016633284380549896
ต@@ 1
城 1
Demokrat@@ 0.01407887193274325
bruch 0.006464257170461236
fahrt 0.005915338511728068
ügel 0.006389775790068669
林@@ 1
Kampf 0.01007705155183835
ahlen 0.00607947593622265
eien 0.007866856327297696
espec@@ 1
h. 0.010916724294528191
internationale 0.010870274640823593
istische 0.005483390734671063
u. 0.003364647551879936
ữ 1
ー 1
通@@ 1
Abteilung 0.008845282494795593
Stahl@@ 0.014408418159550348
anderen 0.0014015553809288682
deutsch@@ 0.009788789682428594
konom@@ 0.016237891476419027
rän@@ 0.00650999527061167
ÿ 0.6243378048573698
Φ 1
์ 1
‰ 0.18552943115961906
Erste 0.01249485310150897
Große 0.014690391611188399
Philadel@@ 0.8198115557348272
Projekt 0.00752945500126572
Wech@@ 0.00927592235653693
abteilung 0.011899344504816601
ismus 0.002781837135185284
mö@@ 0.010388155883542966
ohne 0.00209183388811918
tie@@ 0.011572184606390696
werks 0.0153772044328761
Öl@@ 0.015615458204472901
öss@@ 0.03520985527835476
Ш@@ 1
र 0.0002791649262753534
। 7.10541420597546e-05
Wirt@@ 0.01593913207168554
گ@@ 0.9608616608170079
त 0.00024262882046265931
ะ@@ 1
ḷ@@ 1
대@@ 1
Bischof@@ 0.011963428127570178
Sein 0.00245122645579972
Zentrum 0.0064232257932461505
fahr@@ 0.0023635920187716577
heit 0.0024390795343739074
oben 0.006565903003070427
ª 1
യ@@ 1
ẩ@@ 1
⋅ 1
ン 1
Eigen@@ 0.010687762709680642
Gef@@ 0.005279747327325928
Gottes@@ 0.011863332894710974
Stamm@@ 0.0062509643346519645
VID 1
Wissen@@ 0.010575821055364785
deutschen 0.001592313560014898
erten 0.0021793378297607757
Ü 0.15753730472515895
ŭ 1
ơ 1
ộ 1
石@@ 1
道 1
Län@@ 0.016743162609316978
turm 0.009064142028719887
ἀ@@ 0.8515871974299756
​ 0.02673436071564242
方@@ 1
部@@ 1
사@@ 1
Dien@@ 0.013677177063812563
Verband 0.011721745155516262
Zentral@@ 0.008239197681775922
bisher 0.006270398429655296
änen 0.01250366700758212
õ 1
ו 1
س 1
غ@@ 1
ク@@ 1
ロ@@ 1
十@@ 1
Vanc@@ 1
betrieb@@ 0.006964049590540894
duz@@ 0.14853265071453065
onnen 0.050340129897338465
ţ 1
Θ@@ 1
ರ@@ 0.9826006124192027
ಾ@@ 0.9043403866513016
≠ 1
シ@@ 1
書@@ 1
河@@ 1
Osten 0.0033599614735117574
Unter 0.003671435745304959
punk@@ 0.010208708436565718
wir 0.014595470479527351
ķ@@ 1
ִ@@ 0.5637602396393973
प 0.00010592080679930988
ര@@ 1
น 1
水@@ 1
生@@ 1
Grenz@@ 0.005421465997350481
gern 0.00664238013995381
mühle 0.011577469451464926
spiel@@ 0.003548659119539379
zwei@@ 0.002565219796073921
ßen@@ 0.017473816573010725
ư 1
ɛ@@ 0.611261976069369
ξ@@ 0.9768206088167367
г 0.7380422377726454
ু@@ 0.474455724282415
ன 1
京@@ 1
区 1
我@@ 1
陳@@ 1
Zü@@ 0.02783988715062615
alte 0.005393634640445393
dass 0.00038624146905877436
dunk@@ 0.012467780618983673
oung 1
schaften 0.0017704674881318006
ühle 0.010120210032221647
Χ@@ 1
Ч@@ 0.6225210209060897
ন 0.45118496010624853
ர 1
പ@@ 1
Ἀ@@ 1
‍ 0.002561347915501216
♯ 1
ア@@ 1
光@@ 1
Maschin@@ 0.011442826556696985
Thür@@ 0.011015651935438242
Vorder@@ 0.009366226773470064
Wieder@@ 0.0048303781723065585
anten 0.004562288665210641
ieren 0.001247169749964893
stens 0.013721687704172045
đ 1
ɔ@@ 0.9611974307625468
ʾ 0.41845232977162594
ი@@ 1
レ@@ 1
白@@ 1
Kirche 0.0012000345681147414
Mit 0.001037059533566489
anges@@ 0.010464616025218162
ifen 0.006385201260388714
verwal@@ 0.009087797354474698
ů 0.2938759500333505
Ə@@ 0.44559795214359194
ψ 1
় 0.580627634611347
1,5 0.013030904179036022
Blatt@@ 0.012178069945210937
Juli 0.0011734510876521005
Kloster 0.005185483510599995
Regierungs@@ 0.005634943601474056
Westfalen 0.00935162039124726
dende 0.010842644977601203
grund 0.01000806552829299
itik 0.012723943857144608
ommer 0.055998921158013804
oren@@ 0.012325750282269825
roit 1
È@@ 0.7001939178868689
ße 0.004722766870583427
Λ 1
ത@@ 1
ṣ 1
下@@ 1
Nachrich@@ 0.011927449234917157
fäl@@ 0.003831250179488982
heits@@ 0.003918510657586348
mander 1
zentrum 0.006320666855458709
ű@@ 0.734242504870727
̃ 1
յ@@ 1
Eine 0.0013451620154805676
Jahr@@ 0.013168874187061478
Lage 0.0029979600144219754
Leiter 0.005502657492068767
Vene@@ 0.08937941430751932
etzen 0.00781073607833863
für@@ 0.005820607387028502
ď@@ 0.21742651849275973
ĩ 1
ɔ 1
ʔ 1
إ@@ 1
皇@@ 1
Bronz@@ 0.0412433090160493
Deutschlands 0.011518165675170484
Kirchen@@ 0.0033742851598442
Minnes@@ 0.33841058405332985
Tage 0.004976899331959195
klei@@ 0.006350678280673091
mung 0.010404271713467065
tä@@ 0.003796159077740254
öz@@ 0.013104180974756886
Ē@@ 1
स 0.00011269195737341191
ุ@@ 1
င 1
ლ@@ 1
რ@@ 1
ḫ@@ 0.11933425858722685
世@@ 1
古@@ 1
正@@ 1
馬@@ 1
） 1
Wie 0.005502563429547535
build@@ 1
demokrat@@ 0.009471100066745836
forschung 0.007711656380349068
niss@@ 0.019808740746598903
zug@@ 0.0027291962192151956
Ħ@@ 1
Ж@@ 1
і 0.9412279550541836
ق 1
「 1
平 1
成@@ 1
社 1
Schauspiel@@ 0.008822750243643892
Städ@@ 0.012112034483166481
Zur 0.0031966950142899493
ahnen 0.008613239024137836
chte 0.0031442378329766866
oday 1
ziel@@ 0.007252470577964493
örd@@ 0.01580690009576802
Œ@@ 0.18833178404701384
ǔ@@ 1
স@@ 0.5094755776531935
ḳ@@ 1
」 1
五@@ 1
美@@ 1
長@@ 1
青@@ 1
Armee 0.0038174340396351196
linge 0.00951181495158317
liste 0.005977284209871836
müh@@ 0.012775686738911239
ז@@ 1
व@@ 0.0003666017867030933
ட@@ 1
ം 1
บ@@ 1
ი 1
ủ 1
と@@ 1
东@@ 1
地@@ 1
學@@ 1
Drit@@ 0.0044624074947449055
Gebir@@ 0.008819508794488104
Kreuz 0.011791748875959294
ehen 0.005156625495072155
ekt 0.0076469365030122005
fte 0.0020380176535150867
otball 1
ƒ 1
ד 1
، 1
য 0.5943368982063372
ด@@ 1
ე@@ 1
し@@ 1
会 0.545124288800717
Elektro@@ 0.011799458718763832
Höh@@ 0.00549339496615414
Jugend 0.0063265145239057175
Krieg 0.0032893926080986187
Modell 0.007834507252631502
Sais@@ 0.04749697608200991
geren 0.007639283485462812
ommen 0.013958134527411853
Über 0.004131082543393159
ǒ@@ 1
ξ 1
श 0.000426739754028212
华@@ 1
女@@ 1
行@@ 1
Forschungs@@ 0.005183851641969322
Rück@@ 0.0017791200100585533
afri@@ 0.008834832065271614
gesetz 0.008088626570815648
lauf 0.0039468437395742085
schwar@@ 0.004484458641610728
zug 0.002434176245951997
ürz@@ 0.005557175004981102
్ 0.35482799892915656
വ@@ 1
ง 1
ủ@@ 1
ỳ@@ 1
♦ 1
科@@ 1
Bis 0.002337251156534898
Stutt@@ 0.03270094838131107
Weg 0.004361056809627529
erung 0.0011001234114716017
kern 0.00863368581194188
turel@@ 0.02619428739291178
üst@@ 0.006004581046880475
ę 0.9969801335765569
آ@@ 0.8983777027832711
ਾ@@ 0.6987382132758775
か@@ 1
フ@@ 1
二@@ 1
花@@ 1
Abs 0.011614228627093765
Disk@@ 0.006783124591801475
Partei 0.002818442550945004
Tages@@ 0.009218211930943037
Tief@@ 0.011096937418247752
Tä@@ 0.008560258499854558
lange 0.0029176633368549307
Österreich 0.0030570958120776743
э 1
म 0.00025292363781749484
ல@@ 1
ာ@@ 1
ေ@@ 1
ử 1
縣 1
의 1
학@@ 1
II. 0.00227402903956665
Klassi@@ 0.011388784780124783
Sicher@@ 0.0076965606764808295
bung 0.0066833425621086705
ersten 0.0006021212441248659
russ@@ 0.005541782195856675
schafts@@ 0.002511817613732564
tö@@ 0.008434250198188257
Än@@ 0.00891764546345994
̀ 1
χ 1
կ@@ 1
ἐ@@ 0.9103173489768706
☆ 1
ジ@@ 1
タ@@ 1
永@@ 1
리@@ 1
정@@ 1
Preuß@@ 0.01164726884377321
Zus@@ 0.006149493217965651
regar@@ 1
ungsp@@ 0.003405455555475843
verein@@ 0.0027040612355928224
wass@@ 0.014427000289732044
weil 0.0029848775546769883
Ž 0.4016506627053751
Ț 1
̄ 1
ζ 1
Ц@@ 0.8289386017536465
ս@@ 1
ض@@ 1
ம 1
း@@ 1
愛@@ 1
福@@ 1
自@@ 1
阿@@ 1
（ 1
Gew@@ 0.002512138967802872
Schweiz 0.0032756153418539106
Technik 0.00807702052573483
achus@@ 1
bür@@ 0.009400570068526654
racht 0.008693607959244306
renz 0.011259416449052123
staur@@ 0.4976808296668689
stellung 0.0017414079743864812
¹ 0.3029361571885289
ücke 0.005060269890974371
ɛ 1
ṃ 1
⅓ 1
∗ 1
な@@ 1
マ@@ 1
九@@ 1
木@@ 1
門@@ 1
～ 1
Deut@@ 0.026744310494163533
Früh@@ 0.007662206890255474
Gemeinde 0.000818504805462307
Jerus@@ 0.09851695029091875
Laut 0.00814145694853115
Weih@@ 0.00864877977651513
ingt 0.00396389138865791
ologische 0.004868255731060839
wärts 0.007077234197816964
zeh@@ 0.007696636741478028
ätter 0.015118448740732768
ǐ@@ 0.9539932528171245
̲ 1
А 1
ُ@@ 0.9916508812178005
প@@ 0.61774972928322
ന@@ 1
≡ 1
同@@ 1
川 1
年@@ 1
김@@ 1
Besch@@ 0.0027842196984745543
Gemein@@ 0.0026995112470908317
Kultur 0.004712083328652794
Zwe@@ 0.0066914817717131396
agt 0.004616080135601737
aktion 0.005611458469772618
teren 0.011825712079235096
ucht@@ 0.010898512235423341
ächs@@ 0.0175855889333985
ك 1
ہ@@ 0.712385444003922
দ@@ 0.4307446870721388
ร 1
ổ 1
ὶ 1
ῖ@@ 0.9261010772050985
お@@ 1
立@@ 1
Bezirk 0.005961737933371237
Dienst 0.005402189151228886
Gleich@@ 0.005424324322451234
Kön@@ 0.015828414213100633
chst@@ 0.010797969061287693
osten 0.008145285309348127
rache 0.1011259796948096
sachsen 0.010701161872466624
schie@@ 0.0029536613273401856
schlag 0.005003140615698682
schm@@ 0.007270165290091155
shaus 0.010527863704491457
steller 0.006598758870786924
͡ 1
ю 1
न 0.0001779012338379551
ไ@@ 1
ṭ 0.8369046595432519
四@@ 1
陽@@ 1
지@@ 1
Dorf 0.0023695946927294936
Freund@@ 0.00696188073811367
Heidel@@ 0.03567746862050771
Portug@@ 0.020121891584843305
Zentr@@ 0.007271124678198613
lagen 0.0022675159154315135
struk@@ 0.004073883739627425
ے 1
മ@@ 1
ช@@ 1
‌ 0.011028881372821146
├ 1
法@@ 1
社@@ 1
都@@ 1
ꞌ@@ 1
Gegen@@ 0.0027731879603683975
Künst@@ 0.004203921959548408
Wissenschaften 0.010269835373187106
alten 0.0016548332066416908
fach 0.004996866556754836
gte 0.0015990518888376955
ufe 0.006333929299312386
wenn 0.0017650916711798856
ǎ 1
ɪ@@ 0.3067945143579607
Ρ@@ 1
य 0.00015164571604820522
़ 0.0001069649105422289
হ@@ 0.6272852123926159
ি 0.867357330715716
ে 0.8464571540719638
ு 1
ẓ@@ 0.9367459171729732
ằ@@ 1
川@@ 1
忠@@ 1
氏 1
軍 1
限@@ 1
Als 0.0006346007488024218
Jahre 0.0003882179366942145
Leist@@ 0.008220541412445243
besch@@ 0.0011043461198480336
dati@@ 0.00982460660758126
hoh@@ 0.011100509010593503
ihn 0.0008679278136750931
nord@@ 0.0034915247515604386
prä@@ 0.0018319539742338734
schau@@ 0.004832123502054503
scht 0.006240145014639771
seine 0.00037742289421120376
teil@@ 0.0020751049304120824
voll@@ 0.0017688171652134271
wehr@@ 0.005386845997018979
öß@@ 0.008055420178889177
ť 0.17777980152532996
ʰ@@ 1
С 0.9996893187221454
տ@@ 1
द 0.00018225154035042283
க 1
ค@@ 1
แ@@ 1
ự 1
德@@ 1
玉@@ 1
사 1
Heimat@@ 0.004108829410431697
Massachus@@ 1
Mutter 0.0028412448462180233
Republik 0.0040912002777183385
igung 0.0033426079883323327
itäts@@ 0.0035798002430035463
politik 0.009256382580760605
sind 0.00020095453874966032
stätten 0.009464725597047821
viel 0.004519136385800885
­ 0.02643544794833388
Í 0.2076723380235677
üt 0.014550006919338719
Ř@@ 0.13019458114554436
ſ@@ 0.5052327029528586
Π 1
М 1
ز 1
स@@ 0.00025292023324921385
ய@@ 1
ಿ@@ 0.8908050288905666
ന 1
ạ 1
周@@ 1
学 0.7964844964198008
教@@ 1
院 0.9274134547353845
시@@ 1
Drei 0.008531184356478051
Gloc@@ 0.008153160844425937
Kommand@@ 0.009339679611858564
Spiel 0.002549760139708192
Ungar@@ 0.0203317420874007
Viel@@ 0.005456201856377369
Wert 0.006504485056750695
elte 0.0037523331487706534
Ò@@ 1
änd@@ 0.005490477880603249
ģ@@ 1
ֵ@@ 0.6991979094688222
क 0.0001159799437062186
ẕ@@ 1
ẹ 1
‎ 0.08797854490005046
₩ 1
い 1
さ@@ 1
キ@@ 1
寶 1
州@@ 1
重@@ 1
龍@@ 1
고@@ 1
Güter@@ 0.006746030920927114
Ingenie@@ 0.007657078115114379
Prä@@ 0.004296690450032524
schlä@@ 0.004780336117067298
trat 0.0010770851895276956
ühl@@ 0.009887148369007913
ŷ@@ 1
ֹ@@ 0.5976735835173682
ี@@ 1
ṟ@@ 1
ỗ 1
♥ 1
司@@ 1
合@@ 1
工@@ 0.8803570351809883
星@@ 1
會 1
港@@ 1
生 1
野@@ 1
陽 1
성@@ 1
Fäl@@ 0.005564474630357917
Geist@@ 0.007311016461452401
Ritter@@ 0.006933243574386471
Schlag@@ 0.004939982969080994
Schutz 0.005445395157920383
Zum 0.0025266650766377153
beit@@ 0.007959750723734817
ministerium 0.005617823890161682
okrat@@ 0.06399703387499817
woh@@ 0.002269366110263224
zü@@ 0.004521061782915564
© 1
̓ 1
ί 1
К 1
մ@@ 1
य@@ 0.000279387236475513
ক 1
ல 1
ி 0.9677127243522451
ക 1
ട@@ 1
က@@ 1
မ@@ 0.9392505854007085
ở@@ 1
ữ@@ 1
ド@@ 1
パ@@ 1
事@@ 1
台@@ 1
國 1
武 1
이 1
Amster@@ 0.08828160650367167
Brücke 0.005098286145728045
Gymnasi@@ 0.01173446925592486
Insel 0.0025196915990138564
Kurfür@@ 0.00887321505686181
Werk 0.001988362368915887
Zwei 0.004727109660229833
daran 0.007748410375229414
darin 0.005952606658212383
fung 0.0028961530173562474
licht 0.005918273355815356
lte 0.003951743103169594
öch@@ 0.005315639831091568
Э@@ 0.17148399729069372
ц 1
ֶ@@ 0.6259165901110321
Ḫ@@ 0.14867377437316676
⁠ 1
ス 1
会@@ 0.8941665573014743
楊@@ 1
한@@ 1
Konz@@ 0.00258611827639117
Krank@@ 0.002532601330646768
Zerstör@@ 0.0070017446859607455
chten 0.004896133371792562
fü@@ 0.0037860005072527475
gende 0.0033711391145237655
ichten 0.002727260840448281
män@@ 0.01705068915877593
offiz@@ 0.009992548600873249
rieb@@ 0.0042320733168800554
ñ 1
Β 1
ہ 0.5474489126335558
ल@@ 0.0002783798624086657
আ@@ 0.5067295720244483
ා@@ 1
ม 1
ừ@@ 1
₦ 1
る@@ 1
テ@@ 1
南 1
心@@ 1
書 1
清@@ 1
無@@ 1
義@@ 1
리 1
Alle 0.004483376702174093
Düssel@@ 0.02318922264148833
Orgel@@ 0.00749150204876632
Philosophie 0.005469335648976339
Sie 0.0003497981007079832
ambiguation 1
denden 0.005921966602763196
ernen 0.0070276129484739885
frau 0.013754157484264212
insel 0.01359531191549214
kampf 0.006653024979921684
völ@@ 0.03658555601390206
wär@@ 0.002745547968116947
änder 0.008053239090384075
̧ 1
б 1
ї@@ 1
प@@ 0.0002956623317302522
रा@@ 0.00023797252083482284
த 1
ந@@ 1
ை 1
ර@@ 1
ි@@ 1
ย 1
ี 1
ể@@ 1
オ@@ 1
一 1
原@@ 1
士 1
朱@@ 1
華@@ 1
藤@@ 1
郡 1
龙@@ 1
동@@ 1
19. 0.001181309515744925
Finanz@@ 0.0031937991424431087
Grund 0.0031481123291009013
Gruppen 0.0040221450217447
Quadrat@@ 0.007846109844127163
Stelle 0.002857953143125891
Theater@@ 0.006197607491052454
obach@@ 0.979325277044472
äus@@ 0.0092827040478149
Š 0.5649953521410415
Ū@@ 1
ʃ@@ 0.7940475219279503
Ա@@ 1
ի 1
ש 1
॥ 0.01926541528612076
ன@@ 1
ရ@@ 1
ử@@ 1
ῆ@@ 1
‒ 0.7344939577833539
₂ 0.6318227593835303
ャ@@ 1
八@@ 1
政@@ 1
空@@ 1
部 1
국@@ 1
Dort 0.001738248384484664
Gesamt@@ 0.002485606496001183
Markt@@ 0.005196829927359494
Sammlung 0.005135084494061404
Studium 0.002569148825713925
ativ 0.0053761818019569165
charac@@ 1
gebiet 0.0011223034055707632
riffen 0.004614074155283622
tische 0.005478141220482546
verp@@ 0.0054172213576970454
ό 0.7276219724876375
Р 0.9580355971087227
ف 0.9124148543892596
چ@@ 0.8981583722894274
वा@@ 0.00028713072667410953
ত 0.7874265181715528
শ@@ 0.6458666946800378
ా@@ 0.39918149879530107
า 1
្ 0.7465212445003033
ブ@@ 1
ル 1
侍@@ 1
理@@ 1
田 1
真@@ 1
문@@ 1
Département 0.004698608512822136
Erde 0.006874358491973874
Kilometer 0.0014225450526544772
Liverp@@ 1
Nach 0.0002900321744916011
Schü@@ 0.00967379604653673
Wort 0.005905101390037654
Zahl@@ 0.005677247982866504
allem 0.0009986275368746383
rück@@ 0.0028852543650091577
subsequ@@ 1
uß@@ 0.0128292068090341
Õ@@ 0.9213894267275147
ψ@@ 1
В 1
ׁ@@ 0.9367459171729732
ش 1
ّ@@ 0.7299318835114077
ತ@@ 1
ವ@@ 0.952622966616583
ി 1
ธ@@ 1
ศ@@ 1
ိ@@ 1
ἰ@@ 0.952622966616583
‚ 0.004707660191840053
く@@ 1
カ@@ 1
バ@@ 1
代@@ 1
校 0.7395362503997157
香@@ 1
黃@@ 1
黄@@ 1
Mensch@@ 0.0051047745570848915
Reise 0.0077537230708968705
Schon 0.005666120717375019
Straß@@ 0.005881504897123185
Streit@@ 0.005596838621788611
Studien 0.0063105898706610096
aktiv@@ 0.007499641484739682
dienst@@ 0.004158014703575581
durch 0.00015083929268350089
gebro@@ 0.0068181944183507235
lichkeit 0.0022315501029590247
zog 0.0014077444829113082
ث@@ 1
ह@@ 0.0003009851074799631
ী 0.5662615900436436
ற@@ 1
จ@@ 1
ག@@ 0.6386903980724817
တ@@ 1
ვ@@ 1
ნ@@ 1
ს@@ 1
た@@ 1
井@@ 1
后 1
城@@ 0.8322329429429307
宣@@ 1
尚@@ 1
省 1
Firma 0.0032867728627144805
Letz@@ 0.00540554090056307
Rechts@@ 0.001703282539783112
Spä@@ 0.015632282470305497
Vort@@ 0.0075520824096408316
aktu@@ 0.003845050773173401
altung 0.002196160032669715
behin@@ 0.01520260511138806
führung 0.0016641332993606644
ihm 0.000591236620727871
kommen 0.0009667536433568513
linken 0.005607231755653058
sitz 0.003618886572552342
sucht 0.005306626452827741
Ô@@ 1
ähn@@ 0.0024543663222511766
ätz@@ 0.004171201480181035
ġ 1
˚ 1
Η@@ 1
क@@ 0.00022892617370266674
গ@@ 0.6096590163419144
ල@@ 1
ก 1
ང 0.4877272130735315
ွ@@ 1
უ@@ 1
Ọ@@ 1
⁄ 0.5474489126335558
う@@ 1
に@@ 1
ん@@ 1
保@@ 1
公 1
少@@ 1
市@@ 1
文 1
明 1
기@@ 1
부@@ 1
아@@ 1
주 1
Arbeits@@ 0.002359445539574875
Ausgabe 0.006087715057763978
Macht 0.006945048752412612
eiche 0.004130657988953664
haupt@@ 0.0058484212888825805
meister@@ 0.006588578769901057
ultur 0.009228654210034097
¬ 1
ände 0.0018315944828265897
ären 0.002596173729338398
Č 0.4028662510918731
Ş 1
Ε 1
ಕ@@ 0.7481801805991929
ത 1
ක@@ 1
ව@@ 1
โ@@ 1
ま@@ 1
ガ@@ 1
コ@@ 1
千@@ 1
多@@ 1
技@@ 1
神 1
義 1
수@@ 1
주@@ 1
Fün@@ 0.005103908884806567
Literatur 0.00322184449497437
Minister@@ 0.006351968155867546
Vor 0.003264453861857816
Wahlkreis 0.006892652346661073
Wahr@@ 0.003784831988577669
brau@@ 0.0028082018052101422
evision 1
kör@@ 0.003680152106438961
sogen@@ 0.02319347791457038
tungs@@ 0.0024627768759723596
zeichen 0.003843191564181913
ämp@@ 0.004028321652932714
ätte 0.011059573992597086
Հ@@ 1
ग@@ 0.0003438394627649597
ण@@ 0.0007291610561092351
मा@@ 0.00037487880853569785
ਿ@@ 0.574103728604478
ป@@ 1
ố 1
り 1
ウ@@ 1
エ@@ 1
中 1
心 1
松@@ 1
治@@ 1
鄭@@ 1
서@@ 1
Amts@@ 0.0028698571950949697
Dopp@@ 0.008483966459409669
Eisenbahn@@ 0.0035576555773515375
Erst@@ 0.001955481670970858
Gemäl@@ 0.006099896051139167
Herren 0.0049653992873172105
Herrschaft 0.0029384128258613646
Kapelle 0.0039844718107377095
Menschen 0.001174755371746494
Mädchen 0.006260096889878559
Nahr@@ 0.005625321934242725
Recht 0.004049573325447372
Swed@@ 1
blei@@ 0.007572252781525091
estab@@ 0.18588750391661782
frei 0.0036784945026695397
gemeinden 0.008644430166519794
hän@@ 0.002344590128466377
istin 0.006085737973326848
sech@@ 0.0035566396123119567
seit@@ 0.0022763468608477757
wech@@ 0.01717856932746675
ĕ@@ 1
ľ 0.8443703567737895
Я@@ 0.9580355971087227
ק 1
ަ@@ 1
ज 0.00016318366340411998
জ@@ 0.448809468915798
য@@ 0.7219978412993271
ப 1
อ 1
ု@@ 1
ḍ 0.9768206088167367
ὐ@@ 0.8739973868360277
チ@@ 1
年 1
春@@ 1
物@@ 1
第@@ 1
路 1
雄 1
는 1
무@@ 1
선@@ 1
조@@ 1
20. 0.0011829041124286246
Clevel@@ 1
Juni 0.0005958152211701213
Nordrhein 0.006598758870786924
Raum@@ 0.004973408837449653
Recht@@ 0.006299866353472889
Selbst@@ 0.00332925036032295
Typ 0.004479969566544403
Weise 0.004424434441118276
ca. 0.0019015344636466726
direk@@ 0.003147278107599599
direktor 0.006308053314296116
gegen 0.000327537957688421
haupt 0.0058510692205290035
iefer@@ 0.014399427544796386
neue 0.0009798040058438186
wissenschaft 0.004726433325560722
Är@@ 0.006969198887797359
Υ@@ 1
ך 1
आ@@ 0.0002153315570508141
भ@@ 0.0005880557066959271
ള@@ 1
ོ@@ 0.41487581413255226
ặ@@ 1
ụ 1
ῶ@@ 0.6934352893358373
↑ 0.22896448232787078
り@@ 1
ミ@@ 1
主@@ 1
全@@ 1
可@@ 1
张@@ 1
手@@ 1
是@@ 1
樂@@ 1
津@@ 1
漢@@ 1
門 1
나@@ 1
원@@ 1
화@@ 1
Bruder 0.0021590192068596066
Dän@@ 0.016359670978665163
Für 0.0007431537069933591
Höhe 0.001711376668623082
Preußen 0.005497625852897947
Trä@@ 0.004866964211447189
Wasser 0.002340104444093858
Wirtschafts@@ 0.002492647511068174
Württem@@ 0.02290988340153352
ammen@@ 0.058134181374371034
bess@@ 0.006446138769416755
blick 0.005701217063614434
deutsch 0.0028183118340705817
endes 0.0036015460990142228
erst 0.0009930263569148787
ezu 0.12948791632154424
herz@@ 0.005609862250132184
komp@@ 0.0034955320950642447
legen 0.0034729289042077782
ruppen 0.009381319860532682
schloss 0.0015003679076017794
stätte 0.0038285208146912634
ufen 0.0031904340122427197
verur@@ 0.005763791397239469
üter 0.005771533698542392
ȟ@@ 1
ʷ@@ 1
О 0.8291770080239237
ш 1
द@@ 0.0002933354608427329
ા@@ 0.5310459489591421
మ@@ 0.6849723109762849
ర@@ 0.39716881896944245
ස@@ 1
ු@@ 1
ო@@ 1
ṉ@@ 1
⅔ 0.945261789147273
建@@ 1
志@@ 1
時@@ 1
朝@@ 1
里@@ 1
陈@@ 1
구@@ 1
기 1
상@@ 1
우@@ 1
인@@ 1
Druck@@ 0.005297282416912646
Friedens@@ 0.006519096776469902
Ortst@@ 0.005722462501396053
Politik 0.002617285638088713
Steuer@@ 0.003837899237290827
Thema 0.003710020868190293
Verein@@ 0.0027655586156614554
arbeit@@ 0.0019859089938339385
egt 0.011677427288272901
ehe 0.0055158580617990505
erhal@@ 0.003849787246648697
gesetz@@ 0.0018508294558970734
gewand@@ 0.003921018814906095
hör@@ 0.003254703705939464
kirch@@ 0.006808662816289412
län@@ 0.0016298319568037812
neu 0.0013690297309085645
schaft@@ 0.002188649215231007
steh@@ 0.0027221753780393466
tionen 0.0012761401043768195
ĭ 1
ŷ 1
ɑ@@ 0.58209757799011
ʃ 1
ں 0.8067668186178716
ं@@ 0.00022152179132529836
ण 0.0003074116495836532
या@@ 0.00030474495298987193
ल 0.00015747667477541874
ਸ@@ 0.47407947073421325
ಸ@@ 1
ು 1
န 1
ừ 1
∆ 1
ダ@@ 1
ナ@@ 1
ュ@@ 1
六@@ 1
出@@ 1
吉@@ 1
寺 0.5474489126335558
常@@ 1
站 1
老@@ 1
21. 0.0018058133882007318
Gemeinde@@ 0.002106300191513885
Herzog@@ 0.004907071437281717
Italien 0.0025066342153551085
Kopf 0.004341878980778258
Landschaft 0.006686857293609591
Zeiten 0.006081110971854424
heren 0.006509657522579167
ichts@@ 0.0036565247292936714
lieben 0.005872629431902498
nern 0.003083545614530224
verkehr@@ 0.002703042797162861
völk@@ 0.006316519901818836
Ì@@ 1
öhn@@ 0.018151980456789982
über@@ 0.00023718574956934518
Ķ@@ 1
ǁ@@ 1
Ю@@ 0.8766338797073279
ِ 0.9314234971890358
ः 0.0028226736451211387
का@@ 0.00031213488323354597
ष 0.000257243051502743
ো@@ 0.3239733903266212
ਰ@@ 0.48073470822659914
ூ@@ 1
ಮ@@ 0.7451387977512287
ല@@ 1
ས 0.5198642775008572
ḵ@@ 1
る 1
ん 1
ノ@@ 1
乡 1
使 1
口@@ 1
国 1
妃 1
孝@@ 1
安 1
宗@@ 1
島@@ 1
式@@ 1
御@@ 1
杜@@ 1
百@@ 1
電@@ 1
경@@ 1
11. 0.0015993131193448504
Archä@@ 0.006198222787059906
Auch 0.0006666402718219583
Heimat 0.004982898929431936
Kontak@@ 0.00733878794676052
Kämp@@ 0.005426155305963113
Polizei 0.004710514866478173
Westen 0.0014606984518524453
Zweit@@ 0.0021793931688543133
ammlung 0.0051330749401877745
bahn@@ 0.005060112672600345
lungs@@ 0.0024544191618496047
mbH 0.042084251035783685
ragen 0.006469677799631872
wohl 0.002628514620161518
äre 0.00202976805481744
äuser 0.0074932620891871565
öpf@@ 0.006451418162348301
üssel@@ 0.006258061537309619
Ġ@@ 0.8863458585495665
Ō 0.8352105205563223
ʰ 1
ظ@@ 0.9048113972693492
ज@@ 0.00024366144571696366
ী@@ 0.5428868383616094
ை@@ 1
ನ@@ 0.736117746930996
ด 1
ต 1
ล 1
└ 1
サ@@ 1
之 1
信@@ 0.98706697883929
兵@@ 1
士@@ 1
天 1
定@@ 1
巴@@ 1
徐@@ 1
昭@@ 1
景@@ 1
特@@ 1
知@@ 1
路@@ 1
다 1
도@@ 1
전@@ 1
하@@ 1
： 1
10. 0.0015034441212919537
Alben 0.005478758288638392
Arrondiss@@ 0.05750827595195607
Beobach@@ 0.005782382204771439
Daher 0.0056272281768500595
Friedhof 0.0032743177157669562
III. 0.0028874283356931153
Kriti@@ 0.004247210707585269
Länder 0.005341303379724252
Vom 0.0035207188067137556
anische 0.0021254256175456962
brach 0.005485888374906793
gangs@@ 0.004223381051275803
grün@@ 0.0013446113643631194
ität 0.0009736583885245944
kräfte 0.004458807517747386
liegende 0.005693350388004294
reib@@ 0.0023869516575755266
satz@@ 0.0034771563369449636
schauer 0.005601802826948013
schied 0.0020252506136631014
tige 0.0009797914202353112
Ά@@ 0.8602768627098734
Ι 1
ء 0.9803154947159023
ع 0.70255943787973
َ 1
अ@@ 0.00019771563379869793
या 0.00019757847993580435
્ 1
റ@@ 1
ත@@ 1
သ@@ 1
ṯ@@ 0.36655275019811995
ῦ@@ 0.8602768627098734
♠ 1
ⴰ@@ 0.7267856253928241
ィ@@ 1
デ@@ 1
ト 1
ビ@@ 1
七@@ 1
主 1
事 1
仁@@ 1
原 1
吳@@ 1
夏@@ 1
帝 1
广@@ 1
月@@ 1
海 1
研@@ 0.562047550303784
花 1
衛@@ 1
記 1
那@@ 1
陵 1
集@@ 1
音@@ 1
ﬁ@@ 1
Arbeit 0.0013176939968614434
Betriebs@@ 0.0030842967989616566
Flughafen 0.004794298085460806
Gewer@@ 0.005588759294044138
Juden 0.0038756220230054834
Sprache 0.0021407869213700024
anzu@@ 0.004832842927008611
ationen 0.0006663110743253759
essee 0.2637173256557344
etwa 0.0003441017036361242
istik 0.004517703965145759
lern 0.003272713008537937
lied@@ 0.01421780364404829
nte 0.001498393895771218
nten 0.001535948050826244
räge 0.005107607831642988
schre@@ 0.004728303698859322
sieb@@ 0.0053481859841212655
tats@@ 0.004759132084833954
Á 1
ɣ@@ 1
ɨ 1
ʊ@@ 0.6488283408990291
̥ 1
Ј@@ 1
լ@@ 1
շ@@ 1
୍ 0.7299318835114077
ெ@@ 1
ం@@ 0.659293314139336
ి@@ 0.4395288760928907
ಿ 0.7569663977155339
ು@@ 0.7712487825780912
თ@@ 1
∂ 1
∨ 1
き@@ 1
作@@ 1
光 1
利@@ 1
加@@ 1
化@@ 1
博@@ 1
名@@ 1
在@@ 1
好@@ 1
家 1
廣@@ 1
東 1
水 1
法 1
羅@@ 1
胡@@ 1
行 1
가@@ 1
교 1
연@@ 1
자@@ 1
제@@ 1
️ 1
Bildungs@@ 0.005173609182191517
Durch@@ 0.0014169757632753834
Forschung 0.0035642488461290612
Gruppen@@ 0.005585950723726036
Holz 0.0056593975533076836
Jahr 0.00016380538290868346
Medien 0.004286976797715045
Ortsteil 0.0023275615517835695
Pflanz@@ 0.002018596354207772
Titel@@ 0.0030104002341868534
Vereinigung 0.005535197746784158
Wenn 0.004351038861717818
anlage 0.0028692706818704344
beit 0.021108104840348543
elten 0.0021864504820547663
leitung 0.0025550912814875384
unten 0.004078566760788327
þ 1
ǀ@@ 1
ɑ 1
Ω@@ 1
І@@ 1
ә@@ 1
գ@@ 1
ذ@@ 0.6599800780082312
ना@@ 0.00025934457639430647
ब@@ 0.00020093062447923331
री 0.0002609115356721236
ला@@ 0.00026553745921592916
চ@@ 0.48291225220114475
দ 0.46045121721504495
ோ@@ 1
അ@@ 1
സ@@ 1
න 1
ำ@@ 1
ใ@@ 1
ა 1
მ@@ 1
ẹ@@ 1
› 0.09187657698490456
↔ 0.2769147180454116
あ@@ 1
っ@@ 1
れ@@ 1
ニ@@ 1
以@@ 1
你@@ 1
先@@ 1
县 0.8081388710304871
史 1
唐@@ 1
富@@ 1
寶@@ 1
將@@ 1
所 0.8608435800107362
林 1
為@@ 1
院@@ 1
민@@ 1
박@@ 1
신@@ 1
Dienst@@ 0.002374902323026085
Febru@@ 0.07355359670700366
Prag 0.005251668341009854
Sprach@@ 0.002936732614326684
Söhne 0.003986002068270117
Wirtschaft 0.002434188139766811
bürger@@ 0.0025885857798128146
kann 0.0003968582246054235
kleine 0.001778173814873969
klär@@ 0.0034172840988361784
lauf@@ 0.0015171994569779439
wissenschaften 0.0028474828268947026
wür@@ 0.0023315541423916345
zeich@@ 0.004543144503183035
äß@@ 0.00607408842674733
ǃ@@ 1
ɪ 0.7230457336669605
Θ 1
ύ 1
հ@@ 1
ט 1
ح 0.934668875228022
व 0.00011106467968463933
অ@@ 1
ਨ@@ 0.5987722481929516
ਮ@@ 0.6967531615336164
ਹ@@ 0.6282200636778509
న@@ 0.6723056821815597
వ@@ 0.8330744322684545
ར@@ 0.34215557039597233
ổ@@ 1
█ 0.5895603674515216
ら@@ 1
侯 1
信 1
史@@ 1
島 1
府 1
德 1
最@@ 1
村@@ 1
歌@@ 1
流@@ 1
街@@ 1
趙@@ 1
館 1
魏@@ 1
강@@ 1
유@@ 1
Adels@@ 0.0049931315660067315
Bauern@@ 0.004799072818785327
Familie 0.000602097408991531
Formel 0.004992458637224251
Linie 0.0018144613581604595
Mäd@@ 0.01416598206049864
Nürn@@ 0.012849130450296198
Pfer@@ 0.00320034929487723
Theorie 0.005018837974285861
Turm 0.0030371438130855077
ademie 0.030767477648009918
andere 0.0008922620393622839
dete 0.0023379011100160265
gerä@@ 0.003044632455675511
iert 0.00023243029476150223
ktur 0.019756822980375434
länd@@ 0.00414038706697261
pite 1
prü@@ 0.0032355701885058903
schuss 0.003215070568321814
sozial@@ 0.0018424372370538116
tober 1
verkehr 0.0018268995950191814
weit 0.001572861883840181
Ð@@ 1
änger@@ 0.0178783991738436
Đ 1
ʻ 1
Д 0.9748432391632617
Т 0.8614893741442776
њ@@ 1
ћ@@ 1
թ@@ 1
ր 1
ـ@@ 0.10992297652286036
ग 0.00017880901809714652
च@@ 0.0002504956153729904
ব 1
ਕ@@ 1
ಂ@@ 0.7408808617640787
ದ@@ 0.8232009575156432
ರ 0.8820010259096176
േ@@ 1
ම@@ 1
็ 1
ས@@ 0.49392057450938587
ự@@ 1
ἄ@@ 0.7717508976709154
ὸ@@ 1
こ@@ 1
ク 1
グ@@ 1
克@@ 1
内@@ 1
孫@@ 1
昌 1
曹@@ 1
正 1
章@@ 1
色@@ 1
谷@@ 1
镇 0.23445596891268317
風@@ 1
鳳@@ 1
공@@ 1
도 1
13. 0.0011130126744066898
Afghan@@ 0.09880293450845021
Bürgermeister 0.0023433572883482263
Joach@@ 0.08019431007188112
Sozi@@ 0.0044058465498964
Sprech@@ 0.00464803928421819
breit@@ 0.002237794049431207
fach@@ 0.0038442242360338537
igkeit 0.0012793455053138384
messer 0.012842607645263546
nisse 0.0011628031565414669
ografie 0.002254011992189247
rieb 0.002135578116315917
ränk@@ 0.002562081826078723
schiff@@ 0.0034063487897199023
stamm@@ 0.0023447398906554988
strah@@ 0.0019469088395873374
vidu@@ 1
ď 0.5419191256372572
ħ 1
ŏ 1
Ő@@ 1
ج 0.9412279550541836
ھ@@ 0.5037558069304081
का 5.6214970093515386e-05
ड 0.0001351475436977241
ता@@ 0.00030712069838103847
শ 0.7948147176013106
ਦ@@ 0.8317828440013716
క@@ 0.6166665912423962
ಗ@@ 0.9170939049245892
န@@ 1
း 1
ẓ 1
ả 1
ẵ@@ 1
‹ 0.08279319975013652
∧ 1
〈 1
〉 1
が@@ 1
ァ@@ 1
プ@@ 1
共@@ 1
君 1
堂 0.7775361367838909
學 1
宋@@ 1
宗 1
志 1
拉@@ 1
智@@ 1
會@@ 1
木 1
氏@@ 1
聖@@ 1
良@@ 1
鎮@@ 1
順@@ 1
마@@ 1
어@@ 1
오@@ 1
왕@@ 1
자 1
지 1
회 1
12. 0.001117134113818353
Auff@@ 0.004830431582060786
Fernsehen 0.004002934249757894
Gött@@ 0.010267722981814234
Jahres 0.0012238921751566365
Pfle@@ 0.004618275508290575
Polen 0.002132258515976137
Verkehr@@ 0.005048935953142148
alismus 0.0019149009769537514
bezir@@ 0.0036605053593625567
bild 0.0017094211685127882
fehl@@ 0.003301673511000767
führ@@ 0.0009737508539460181
ionen 0.004290245241437245
kost@@ 0.003505720826988617
länge 0.004732338295268114
orien 0.004216293581407581
previ@@ 1
riech@@ 0.009180005721563486
schwei@@ 0.005390634807113788
sterreich 0.005998135912332872
stoff 0.00370653213282257
viel@@ 0.0017049424833612149
wirk@@ 0.0012322001248986786
zeug 0.001700738768968589
ßer@@ 0.0025348582607609884
ädagog@@ 0.0039647409467656065
ätten 0.010111193637031373
üp@@ 0.004586340624456651
ċ@@ 1
ǫ 1
Η 1
Υ 1
Я 1
ע 0.718526697831542
ٹ@@ 1
री@@ 0.0004083601493750031
सु@@ 0.00036821559045880053
ર@@ 0.9076126709451056
ட 1
ே@@ 0.8211733689503338
ಹ@@ 1
จ 1
ბ@@ 1
Ḳ@@ 1
ḻ@@ 1
ỏ 1
∪ 1
つ@@ 1
メ@@ 1
久@@ 1
乐@@ 1
交@@ 1
何@@ 1
傳 1
元 1
夫 1
委@@ 0.9076126709451056
宮 1
洪@@ 1
湖@@ 1
盧@@ 1
秀@@ 1
红@@ 1
航@@ 0.8843405511772824
萬@@ 1
郎@@ 1
集 1
龍 1
동 1
비 1
세@@ 1
일@@ 1
Fernseh@@ 0.001272486616849389
Kanada 0.003924828728405702
Weiter@@ 0.003578097468193175
gabe 0.0018460286087359818
geber 0.0030680739676461014
genöss@@ 0.004302059676135887
mehr 0.00030302552622484333
punkt 0.0016884545348128648
seiner 0.00017029647991923582
tungen 0.0018502451643325375
wesen 0.0025052350229892925
Ο 1
ї 1
կ 1
ک 1
पा@@ 0.00025657548650579056
वर 0.00017547737417058032
श@@ 0.00022620982774551693
े 0.0003199235223266005
ম 0.6038527399958009
স 1
ਾ 0.7723697837155593
ದ 1
ച@@ 1
െ@@ 1
ප@@ 1
က 1
ပ@@ 1
လ@@ 1
ှ@@ 1
ា@@ 0.6919145979118552
ḫ 0.3817459850548167
ム@@ 1
右@@ 1
外@@ 1
如@@ 1
宮@@ 1
成 1
放@@ 1
敬@@ 1
族@@ 1
沙@@ 1
河 0.9768206088167367
溪@@ 1
玄@@ 1
球@@ 1
究@@ 0.5271730269804611
經 1
者 1
而@@ 1
葉@@ 1
軍@@ 1
駅 1
라@@ 1
성 1
영@@ 1
은 1
인 1
！ 1
－ 1
Bürger 0.004030609605405034
Gitar@@ 0.0033520016693213066
Hilfe 0.001990681953847655
Hochschul@@ 0.0028879110059345345
Kommunal@@ 0.004403546594542759
Natur 0.0044902305826243095
Trieb@@ 0.003629747658970685
allein 0.0034973737710682386
anischer 0.0028556308596641407
bildungs@@ 0.004244354054176514
deut@@ 0.002367800096657825
forsch@@ 0.002574949193970657
frei@@ 0.0015968058354729779
geb 0.004581052919756719
gewer@@ 0.0045771133586963
habe 0.0011076452396248514
hte 0.0035486742864345023
ihren 0.0005188470958687239
lerin 0.004046441954336555
mensch@@ 0.002865881710816126
nete 0.0033520016693213066
proz@@ 0.004227498001538799
sekre@@ 0.0035119894318293285
toren 0.0029508889210519396
trä@@ 0.0013552824302348635
verz@@ 0.002105110079342392
wird 0.00010142869363095118
zial@@ 0.009992027504262856
zwei 0.000186148500784733
¨ 1
µ 0.6794578702898741
Ý@@ 1
äische 0.00347719075605663
änger 0.004906963722130314
Ď@@ 0.4257935987149878
œ 1
̌ 1
̠ 1
ө@@ 0.9677127243522451
ץ 1
خ 1
ना 0.0002275883884605863
वि@@ 0.00014728450020580976
ੀ@@ 0.9979537469882527
ங 1
ந 1
ు@@ 0.43154756626519036
ಲ@@ 0.9392505854007085
ื@@ 1
့ 1
კ@@ 1
Ἰ@@ 1
∴ 1
⊆ 1
ェ@@ 1
ド 1
ワ@@ 1
佛@@ 1
口 1
思@@ 1
承@@ 1
校@@ 1
梁@@ 1
等@@ 1
能@@ 1
舞@@ 1
蘭@@ 1
虎 1
親@@ 1
都 1
남@@ 1
스 1
Farb@@ 0.004314868276914725
Forsch@@ 0.002499359131540773
Liste 0.0007035165134699297
Polizei@@ 0.00391734463422938
Schüler 0.00224676724862434
annt 0.0015924959278727923
atische 0.003749191525923826
eilen 0.002251717892580178
erungs@@ 0.002226533452500481
fass@@ 0.0027571849183810706
geist@@ 0.0036461868586440444
geord@@ 0.009129582819380323
häl@@ 0.007181339683176182
kamen 0.0012863315196357623
konz@@ 0.0018320269575402847
letzte 0.0014235298619743276
musikal@@ 0.003075247176996602
zif@@ 0.003392026898371224
zwischen 0.0001985424555729781
Ċ@@ 1
ű 0.5784365869335684
̪ 1
Ψ 1
ϊ@@ 1
І 0.5109523184579854
П 0.8759182602136892
љ@@ 1
ض 1
ख@@ 0.0002739617267408302
ति@@ 0.0004819092540788343
ध@@ 0.00032413291226109753
धु@@ 0.00345510414825641
ह 0.0002970192519326376
ள@@ 1
ஸ 1
ொ@@ 1
ి 0.47901779855436133
ు 0.4716482939612173
ಯ@@ 0.9580355971087227
ങ 1
ข@@ 1
མ@@ 0.5474489126335558
ི@@ 0.6131427821495824
အ@@ 1
ြ@@ 0.6256559001526352
Ἐ@@ 1
∅ 1
だ@@ 1
は@@ 1
台 1
君@@ 1
園 1
察@@ 1
師@@ 1
惠@@ 1
昌@@ 1
曲 1
本 0.9290042153781553
次@@ 1
洋@@ 1
电@@ 1
男@@ 1
町 1
美 1
育@@ 1
解@@ 1
語@@ 1
飛@@ 1
马@@ 1
씨 1
원 1
15. 0.0008037797743306566
17. 0.0008534920928255573
25. 0.001273173787109298
Aufbau 0.0030565707772923596
Frü@@ 0.0030518082799765407
Gemeinder@@ 0.0034063487897199023
Gerä@@ 0.0037137856543210924
Indien 0.003836479278053559
Kommission 0.003565937408828032
Millimeter 0.00388210337094796
Quelle 0.00343582719112784
Verkehr 0.002104868771409526
arbeiter 0.004865809591145107
bild@@ 0.0017906843610248162
erischen 0.0017734974231156683
flug@@ 0.0031642173733262423
genie@@ 0.004452827873800267
junge 0.0031027308386666133
lungen 0.001136767587979654
mannschaft 0.0019823060732294825
muss 0.0011547739293818946
schluss 0.0018488300491683444
ußen 0.006275044491955181
versammlung 0.0028402705250709748
zipl@@ 0.0030857849292442135
÷ 0.5875951662266832
Ρ 1
Մ@@ 1
ח 1
ە@@ 1
ި@@ 1
ला 0.0002806304045326688
ੀ 0.5875951662266832
ள 1
ಪ@@ 0.9477341390752955
ോ@@ 1
ය 1
ว 1
ิ 1
ู@@ 1
བ@@ 0.3338608899015245
ျ@@ 1
រ@@ 0.6995180550317658
ḷ 1
ṯ 0.7940475219279503
ẫ@@ 1
ẻ 1
ở 1
ῦ 1
∠ 1
⊂ 1
み@@ 1
も@@ 1
ソ@@ 1
ハ@@ 1
ョ@@ 1
京 1
他@@ 1
力@@ 1
卿 1
園@@ 1
地 1
提@@ 1
方 1
杨@@ 1
柳@@ 1
株@@ 1
歌 1
流 1
英@@ 1
連@@ 1
里 1
长@@ 1
阮@@ 1
陸@@ 1
雲@@ 1
音 1
내@@ 1
비@@ 1
스@@ 1
을 1
장@@ 1
평@@ 1
14. 0.0008799041115658212
Berufs@@ 0.0029621985364381995
Entwicklung 0.0009180183429762576
Jahrhundert 0.0003990851288068108
Kabin@@ 0.0036144536997027906
Maler 0.0025501250013783296
Platz@@ 0.0029426573314334237
Teil 0.0003222823633017867
eiten 0.00952622966616583
enname 0.0129803129400412
fiel 0.001622445442826003
handlungen 0.0032153750017378945
haup@@ 0.004056933378834878
hoch 0.0025379190386696647
kauf@@ 0.0017609109289547713
kommun@@ 0.002701632139510594
lehr@@ 0.00215641325316062
projek@@ 0.003364748265707519
schlag@@ 0.0032186894416663834
schnitt 0.002319252085102682
verli@@ 0.003396057705763045
zieh@@ 0.0014426271825045789
Ğ@@ 1
ɡ@@ 0.3958081340167492
ɨ@@ 1
ʒ 1
ʹ@@ 1
̣ 1
Κ 1
И 0.562047550303784
ж 1
ס 1
कु@@ 0.0004925143713557756
जा@@ 0.00027039456480924075
ट 6.325973355541217e-05
ই@@ 0.906528306941587
ভ@@ 0.5204143984294295
મ@@ 0.5109523184579854
ண 1
ா 1
ల@@ 0.28675895423662445
ನ 0.6244972781153154
ട 1
ള 1
ක 1
න@@ 1
ර 1
ค 1
ན 0.4257935987149878
გ@@ 1
Ẓ@@ 1
ᾶ@@ 1
℃ 1
√ 0.40728083355346656
∩ 1
『 1
』 1
ズ 1
ボ@@ 1
万@@ 1
仁 1
任@@ 1
伊@@ 1
前@@ 1
區 1
回@@ 1
奇@@ 1
左@@ 1
康 1
康@@ 1
政 1
机@@ 1
比@@ 1
江 1
理 1
界@@ 1
祖@@ 1
統@@ 1
良 1
許@@ 1
隆@@ 1
산 1
안@@ 1
천@@ 1
해@@ 1
Einheit 0.003331883830461338
Fenster 0.003268949149286404
Gesund@@ 0.0023281545494744167
Grafschaft 0.003926375397986568
Lauf 0.003139629765805739
Meisterschaft 0.0016991826641568528
Runde 0.0015495030452312981
Schrift@@ 0.0023473045781452775
Sieger 0.0036392615274785287
Spezial@@ 0.0037241422628133047
Vater 0.0007793206681689734
Wirk@@ 0.002991190535129821
Zeich@@ 0.0021539261858876052
agoge 0.003941953963121856
damal@@ 0.030797929642989934
epunkt 0.003496480281418696
erstre@@ 0.005496925557181196
genau 0.0030259443563501673
ierte 0.00022367024971895702
ihre 0.0002707544458142239
mehr@@ 0.0009868298833478361
ologischen 0.0014762531901955991
sehen 0.0008360082500403351
stehen 0.0007767931172804052
tigung 0.0016560684478975326
wider@@ 0.0027336183347645196
wäl@@ 0.0028329281570434292
į 1
İ 0.5707446110434943
ǒ 1
ʷ 1
Ζ@@ 0.6878204286934418
Ν 0.8653224748078784
У 0.6386903980724817
ф 1
ӏ@@ 1
Ս@@ 1
զ@@ 1
ս 1
վ@@ 1
ھ 1
ދ@@ 1
ট@@ 0.7059209662906377
ল 0.38876806839194544
ਗ@@ 0.7059209662906377
ீ@@ 1
പ 1
സ 1
ද@@ 1
พ 1
ุ 1
စ@@ 1
ờ 1
ứ 1
ὰ 1
₁ 0.6878204286934418
ℳ 0.6542682126596154
う 1
け@@ 1
す@@ 1
よ@@ 1
ア 1
ツ@@ 1
ネ@@ 1
仲@@ 1
兴@@ 1
分@@ 1
化 1
和 1
商@@ 1
土@@ 1
場 1
容@@ 1
度@@ 1
延@@ 1
影@@ 1
業@@ 1
管@@ 1
者@@ 1
虎@@ 1
越@@ 1
足@@ 1
雙@@ 1
그@@ 1
미@@ 1
소@@ 1
수 1
양@@ 1
장 1
한 1
18. 0.0006366689740797785
Ausland 0.003473030984624697
Bücher 0.0029021488041462307
Einz@@ 0.0025673415659631465
Gesetz@@ 0.0019490094539898742
Künstler 0.0017404193693643483
Raum 0.0014200220067199863
Regel@@ 0.002545090249342426
Saison 0.0003331457622369047
Switz@@ 1
eister@@ 0.0038585736177162468
esische 0.0028487528905998295
formen 0.00182417821655832
große 0.000648334371853807
heiten 0.00143131917322535
heute 0.00029767102735682227
ildren 1
kein 0.0011676774954476562
liegen 0.0008730944233928871
ordnung 0.0010854236276033168
recht@@ 0.0012358560334219848
reiche 0.0014920058355953553
relig@@ 0.6082765695928397
rund 0.0005937991800599496
samen 0.011269349767489754
ucht 0.0029887243709521842
werden 7.461336426080395e-05
zahl 0.001477424006644649
züge 0.002857355544446848
Ê@@ 0.7514004683205667
üssen 0.003704163538190412
Ā 0.9124148543892596
ŝ@@ 1
ʒ@@ 0.33615284109077986
п 1
ү@@ 0.8809522732034232
պ@@ 1
ռ@@ 1
ց@@ 1
ْ 1
कर 0.00010918951137044244
की 3.091857420351436e-05
च 0.00026336119335813526
ड@@ 0.00022859764780059835
बा@@ 0.00020183298774589003
ष@@ 0.0003582814338610954
सा@@ 0.00019086322998288624
ড 0.7741701794817961
ধ@@ 0.47310399857220864
ਵ@@ 0.8515871974299756
ੁ@@ 0.7983629975906021
ક@@ 1
அ@@ 1
இ@@ 1
ழ@@ 1
െ 1
ග@@ 1
ය@@ 1
ා 1
დ@@ 1
შ@@ 1
Ṛ@@ 1
ἔ@@ 1
‟ 1
〜 1
で@@ 1
丁@@ 1
刘@@ 1
区@@ 1
協@@ 0.82411664267417
友@@ 1
命@@ 1
嘉@@ 1
圖 1
坪@@ 1
基@@ 0.8515871974299756
堂@@ 1
姓 1
官@@ 1
将@@ 1
居@@ 1
屋@@ 1
布@@ 1
後@@ 1
想@@ 1
沈@@ 1
洲@@ 1
源@@ 1
灣@@ 1
真 1
祖 1
禮@@ 1
程@@ 1
章 1
竹@@ 1
興@@ 1
苏@@ 1
茂@@ 1
言@@ 1
語 1
豆@@ 1
超@@ 1
進@@ 1
達@@ 1
銀@@ 1
鐵@@ 1
際@@ 1
韓@@ 1
麻@@ 1
黎@@ 1
꞉ 1
가 1
군 1
랑@@ 1
보@@ 1
상 1
서 1
현@@ 1
화 1
16. 0.0006938119300978905
Bischof 0.0013698067009117454
Départ@@ 0.009338297470855832
Förder@@ 0.0029041803430362935
Hier 0.0011272228473714321
Titel 0.0005298368181010393
Umgebung 0.001923308909323584
Unternehmen 0.0006196919475744747
Vereinig@@ 0.005210441203682762
Verfass@@ 0.0015900311272768807
Zahl 0.0015003854554126055
anderer 0.0021121081826433125
britann@@ 0.14798923857777016
devel@@ 1
engag@@ 0.0022015815608449115
ennt 0.002661793718661363
gehen 0.0009724041478726835
gesp@@ 0.0021478084182968414
glich 0.0009548068423916875
gten 0.0016175843192984742
ilfe 0.003572830137899942
räsident 0.003553995479097131
strecke 0.002152379844515281
stück 0.0022053825649027085
tete 0.0006392455323505757
tnis 0.003317418688730769
wirt@@ 0.006169353107970082
ĉ@@ 1
ċ 1
ǂ@@ 1
̆ 1
̍ 1
ώ 1
ղ@@ 1
ނ@@ 1
ि 0.0006340849390415483
ੰ@@ 0.39787270699597227
ુ@@ 1
ஆ@@ 1
ಕ 0.9334705817982425
ೆ@@ 0.7829108105404615
ೋ@@ 1
ൂ@@ 1
ි 1
ෙ@@ 1
ภ@@ 1
Ḍ@@ 0.6559523007230893
ṁ@@ 1
ὄ@@ 1
♣ 1
モ@@ 1
丸 1
今@@ 1
佐@@ 1
典 1
典@@ 1
勇@@ 1
号 1
報 1
夜@@ 1
姚@@ 1
字@@ 1
宇@@ 1
守@@ 1
將 1
店 1
弘@@ 1
得@@ 1
手 1
曾@@ 1
术@@ 1
桂@@ 1
桥@@ 1
梅@@ 1
毛@@ 1
泉 1
波@@ 1
牛@@ 1
直@@ 1
秋@@ 1
罗@@ 1
英 1
范@@ 1
術 1
谷 1
门@@ 0.7354616705077063
魔@@ 1
니@@ 1
로 1
를 1
산@@ 1
전 1
￼ 0.23563335074518743
🏴 1
󠁿 1
Amerikan@@ 0.002625954126382977
Brüder 0.0028605193245346285
Dokument@@ 0.002504395417776859
Innen@@ 0.0011337140343478794
Kirchen 0.0028016150031204266
Kontakt 0.003116829921459854
Lehre 0.0030397745016670203
Ort 0.00038019171471153235
Sitz@@ 0.0015340842227521579
Untersuchungen 0.0030706269138100085
Vereins 0.0030502592638112684
ahren 0.002684513056696946
akter@@ 0.0014732398494655822
alität 0.0010745830878445268
derzeit 0.002971804876645902
digen 0.0018749779279629243
durch@@ 0.0004154459179801128
einf@@ 0.0016294277039621105
erlang@@ 0.002608970195235373
gab 0.0002840693138287066
gericht@@ 0.0025409276528466506
greif@@ 0.002850942880422733
ichts 0.0020365681426580463
indung 0.0017012840792163773
leich@@ 0.0016147801341814272
mittel@@ 0.0010170679139474208
schrif@@ 0.002363574663919546
schütz@@ 0.001832245942354717
sicher@@ 0.0032983581022248375
soll@@ 0.07847390556521959
sprach@@ 0.0016463450043397781
turen 0.0018780408666674298
unkt 0.0035510199738392804
verwaltung 0.0017926753727280011
wiesen 0.0028295415125042266
wirtschaft 0.002174676471257859
Ä 0.05384743402953007
Ô 1
Ú 0.4598570866121868
ödie 0.0033497748150654637
österreich@@ 0.002719117115729582
ügel@@ 0.0021670927738557345
ĝ@@ 1
Ɂ@@ 1
ɣ 1
̯ 0.3769320382067105
Գ@@ 1
ُ 0.9580355971087227
ّ 1
ڠ@@ 1
ރ@@ 1
ँ@@ 0.0004462465663388518
ङ 0.007956004958688354
रा 0.00023286497058517243
ा 0.000240689783527613
প 0.5225648711502123
ਰ 0.6050751139634037
ਲ@@ 0.6569386951602668
ੇ 1
ద@@ 0.6967531615336164
ప@@ 0.4421702755886412
ಬ@@ 0.9580355971087227
ೂ@@ 1
ങ@@ 1
മ 0.718526697831542
හ@@ 1
ท 1
ད@@ 0.3708524892033765
ི 0.5474489126335558
ྱ@@ 0.4421702755886412
ာ 1
ḇ@@ 1
ḏ@@ 0.3065713910747912
Ẹ@@ 1
ὸ 1
↓ 0.4892096666087094
∼ 1
⊗ 1
じ@@ 1
ど@@ 1
ば@@ 1
ら 1
を@@ 1
ケ@@ 1
仙@@ 1
令 1
利 1
半@@ 1
发@@ 1
向@@ 1
呼@@ 1
員@@ 1
场 1
夫@@ 1
孟@@ 1
局 1
帝@@ 0.8515871974299756
師 1
愛 1
春 1
来@@ 1
泉@@ 1
湖 1
演@@ 1
相@@ 1
空 1
紅@@ 1
蒙@@ 1
薛@@ 1
蘇@@ 1
術@@ 0.2838623991433252
要@@ 1
角@@ 1
論 1
起@@ 1
郭@@ 1
開@@ 1
阳@@ 0.9197141732243737
非@@ 1
鮮@@ 1
계@@ 1
로@@ 1
방 1
순@@ 1
에@@ 1
여@@ 1
울@@ 1
의@@ 1
진 1
청@@ 1
태@@ 1
파@@ 1
23. 0.0009948904354452916
Architek@@ 0.002036907751098807
Architekten 0.0023753526071389605
Bereit@@ 0.010405114295383027
Französ@@ 0.002152391072897649
Jahrhunderts 0.00044470671365453055
Konf@@ 0.0020794286636468813
Königs 0.0027144341918080477
Leicht@@ 0.0021048244193529494
Produktion 0.0011247461301323032
Reihe 0.000980603907629911
Staat 0.0019614735375724306
Straßenb@@ 0.0026716871966614643
Todes@@ 0.0029989605765038505
Weib@@ 0.02448193183141418
beste 0.0025416050485094076
denen 0.0003225613251903446
gibt 0.0002751894353697758
grund@@ 0.0011212037140884126
höh@@ 0.0018673551925758344
keit 0.0010707299213285528
klass@@ 0.0014512780548328796
kunft 0.0018431058847788475
künst@@ 0.0040566922350951575
leist@@ 0.0011714664473466245
losen 0.0028253283287099115
reten 0.001539122087636571
schriften 0.0013857107736879829
sieben 0.000906284108946387
sozi@@ 0.0011028121240396313
trieb@@ 0.0024559458871821283
werken 0.002664475280302378
wieder 0.0001917904485269541
¤ 0.4021383987863774
È 0.6786085479520119
ʊ 0.6580446525595266
ʲ@@ 0.31934519903624087
ʹ 1
ˌ@@ 0.4021383987863774
̈ 1
Έ@@ 1
Μ 1
Ψ@@ 1
ף 1
ڤ@@ 1
އ@@ 1
ް@@ 1
ई 0.00021900753912564678
गा@@ 0.00036790298237127285
चि@@ 0.0006745821358287837
ति 0.00016935708519114648
बि@@ 0.00044893579902140495
ষ@@ 0.98706697883929
ਜ@@ 0.46203135179711446
ਤ@@ 0.4021383987863774
પ@@ 1
ર 1
எ@@ 1
ண@@ 0.7488094322229095
ய 0.8686189413785752
త@@ 0.3502495731365222
ಲ 0.8686189413785752
ണ 1
ฟ@@ 1
ษ@@ 1
ት 1
ể 1
ὁ 0.7755526262308706
▪ 0.4257935987149878
て@@ 1
ひ@@ 1
ゲ@@ 1
セ@@ 1
ホ@@ 1
ポ@@ 1
ラ 1
业@@ 0.8352105205563223
令@@ 1
余@@ 1
佳@@ 1
俊@@ 1
入@@ 1
力 1
功@@ 1
双@@ 1
叶@@ 1
吴@@ 1
呂@@ 1
团@@ 1
大 1
奉@@ 1
寺@@ 0.9441510232375816
尉 1
尔@@ 1
峰 1
干@@ 1
府@@ 1
形@@ 1
慕@@ 1
慶@@ 1
普@@ 1
格@@ 1
機@@ 1
民 1
治 1
濟@@ 1
甘@@ 1
男 1
目@@ 1
省@@ 1
禮 1
羅 1
落@@ 1
表@@ 1
袁@@ 1
言 1
記@@ 1
郡@@ 1
野 1
陵@@ 1
雄@@ 1
頭@@ 1
首@@ 1
鬼@@ 1
黑@@ 1
거@@ 1
바@@ 1
부 1
삼@@ 1
위@@ 1
중@@ 1
호 1
회@@ 1
Bedeutung 0.000710124482760134
Bilder 0.0026494805209125506
Denkmal@@ 0.0014644663756319444
Militär@@ 0.0009405905811735199
Orte 0.0016132364620979882
Projek@@ 0.0012225202020767685
Regie 0.0018748823721052577
Rennen 0.0011594107521170534
Stil 0.0012166255573736184
Trotz 0.002415850205475108
Wohn@@ 0.0005672206021958097
Zivil@@ 0.0029862788922149935
Zusammenarbeit 0.0015783529800231226
bewegung 0.0020925660631022237
derung 0.000708303335238933
diese 0.00020537081471009682
eht 0.013818859187504676
errich@@ 0.0016117098602885748
ferenz 0.0026169132827553667
gemein@@ 0.0006335625015753563
grenz@@ 0.00100497087762794
ierung 0.0003298754416501673
kehr 0.009492843817147894
klein@@ 0.001264185856270144
mittel 0.0018382886075120899
männ@@ 0.0018109243964486456
ollege 0.012275130773765415
theorie 0.0023879066173991604
tigkeit 0.001069161578694257
waren 0.00012199952686937798
äng@@ 0.0017735241876361866
änge 0.0016024849253817952
ǝ@@ 1
Б 0.6193361435854369
Г 1
ֲ@@ 0.7299318835114077
ג 1
ؤ@@ 1
ط 1
ڈ@@ 1
ܐ 0.7569663977155339
ܝ@@ 0.5677247982866503
को 4.0446642137142374e-05
जय 0.002188935711504703
लि@@ 0.0002603213911212367
ली 0.00014422273864118362
वे@@ 0.00021559169555189256
ु 0.00042017377448130047
વ@@ 0.49849006678827845
ା@@ 0.5378445457452478
ற 1
ತ 0.5839455068091262
ಸ 1
ം@@ 1
ൽ 1
ල 1
ේ@@ 1
ญ@@ 1
บ 1
ฤ@@ 1
ည 1
ស@@ 0.659293314139336
ṛ 1
ỉ@@ 1
ợ 1
ἴ@@ 0.7569663977155339
ῥ@@ 1
⁺ 1
₨ 1
⅛ 1
し 1
み 1
ろ@@ 1
ゴ@@ 1
ピ@@ 1
ム 1
ヤ@@ 1
也 1
于@@ 1
你 1
修@@ 1
刑@@ 1
動@@ 1
喜@@ 1
壽@@ 1
女 1
宝@@ 0.9290042153781553
客@@ 1
寧@@ 1
岩@@ 1
崔@@ 1
庄@@ 1
战@@ 1
报 1
星 1
楽@@ 1
池@@ 1
泰@@ 1
深@@ 1
火@@ 1
獨@@ 1
画@@ 0.4087618547663883
股@@ 1
臣 1
船@@ 1
蔡@@ 1
裕@@ 1
西 1
話 1
近@@ 1
这@@ 1
酒@@ 1
铁@@ 1
防@@ 1
风@@ 1
에 1
은@@ 1
음@@ 1
정 1
창@@ 1
황@@ 1
후 1
27. 0.000893648241321508
Entschei@@ 0.0028419922785782336
Fußball@@ 0.0008626676845785626
Kritik 0.0015322440577508558
Regel 0.0012422660750891113
Schriften 0.0026582563737755902
dort 0.0002304465872341959
gute 0.002676824803321382
ierungs@@ 0.001471410838747846
lassen 0.0006293963125242076
lern@@ 0.0022179316983649095
letz@@ 0.0006842133960210846
plom@@ 0.4257935987149878
prakt@@ 0.002514529126269613
schiff 0.002267003305983726
schwer@@ 0.001478678186616334
tär 0.001723240573988169
versch@@ 0.0008600732535314862
westen 0.03452380530121523
zeu@@ 0.006198871543893384
ĭ@@ 1
ɾ 1
ʉ 1
̤ 1
Χ 1
Կ@@ 1
ة@@ 1
ٽ@@ 1
ܘ@@ 0.9124148543892596
उ@@ 0.00022058288752733527
ता 0.0001052294914033251
दे@@ 0.0003171463178988091
ने 4.7950689558786095e-05
मु@@ 0.0002328692157627454
मे@@ 0.00019415639285999626
है 1.7645623423763288e-05
ी 0.00014065798433567596
ও 1
খ@@ 0.5042292616361698
ণ@@ 0.7983629975906021
ৰ@@ 0.2947801837257608
ੱ@@ 0.7983629975906021
ે 0.6843111407919447
ે@@ 0.736950459314402
ೆ 0.6843111407919447
ೇ@@ 0.5987722481929516
റ 1
ป 1
ག 0.4257935987149878
མ 0.467334437614011
ུ@@ 0.2698691822841472
ခ@@ 0.8330744322684545
ဆ@@ 1
ხ@@ 1
ḱ@@ 1
ẽ@@ 1
Ὀ@@ 1
∀ 1
⊕ 1
わ@@ 1
イ 1
ズ@@ 1
三 1
丹@@ 1
伯@@ 1
勝@@ 1
吉 1
品 1
夢@@ 1
就@@ 1
岳@@ 1
崇@@ 1
性@@ 1
情@@ 1
或@@ 1
戦@@ 1
振@@ 1
斗 1
朴@@ 1
杉@@ 1
桃@@ 1
極@@ 1
樂 1
泰 1
港 1
珠@@ 1
發@@ 1
白 1
盛@@ 1
經@@ 1
線 1
臺@@ 1
興 1
茶 1
藏@@ 1
觀@@ 1
貞@@ 1
身@@ 1
通 1
鄧@@ 1
錢 1
錢@@ 1
關@@ 1
雨@@ 1
面@@ 1
馬 1
고 1
관@@ 1
명@@ 1
신 1
영 1
용@@ 1
윤@@ 1
진@@ 1
카@@ 1
호@@ 1
홍@@ 1
𐌠 1
𝔓 1
22. 0.0007847696658780714
Anlage 0.0012976802224823664
Auss@@ 0.0018781066105891082
Bahnstrecke 0.0014805307679468076
Bewegung 0.0016970327525175069
Entwickl@@ 0.0013579870260482564
Gedenk@@ 0.0021419728286057598
Gemeinden 0.000739224997769076
Jahren 0.00011825644665914688
Lebens 0.0026198844339334146
Nicht 0.0026225738592212185
Offiz@@ 0.0013120565771114812
Oktober 0.00020730211026266695
Soldaten 0.0013037348652059114
Stadtt@@ 0.007032375598124062
Städte 0.0016627922962370516
agte 0.0017708021730893642
ckt 0.0018170423842744858
drei@@ 0.002256002415293237
druck@@ 0.0017646863179425192
eilig@@ 0.0024314522292358245
empf@@ 0.001707402248045588
erbau@@ 0.002258281493374099
gewi@@ 0.006481816290695719
haben 0.00020294062874944097
klärung 0.0013251820041518703
kriegs@@ 0.0024085294472766987
könig@@ 0.001954889718630246
mäch@@ 0.0017236945682919988
rachten 0.002503616288118366
rechts@@ 0.001826693681923339
schon 0.0003960870685720817
seines 0.0004037051592855093
stän@@ 0.0018309953052144455
suche 0.002393059165800815
tliche 0.0011019367272185278
türk@@ 0.0018321208017651356
weder 0.002609943249566475
welt@@ 0.0011319280426627944
wurf 0.00150166522344693
zurück 0.0002764679778314832
äuf@@ 0.001011214653436782
ümer 0.002171888650234332
Ĥ@@ 1
ǵ@@ 1
ʉ@@ 1
̊ 1
̨ 1
̩ 0.8128786884558858
Н 0.4833332742170132
є 1
ј 1
ў 1
ў@@ 1
բ@@ 1
դ@@ 1
ւ 1
ք@@ 1
״ 1
ث 0.9935183970016382
ۃ 1
ट@@ 0.00012665966305477284
ठ@@ 0.0003449650112079144
नि@@ 0.00012160402514605737
मन 0.00044561275655410866
राम 0.0006489813886641562
रि@@ 0.00013404589651627656
रे 0.00048474821495255035
ळ@@ 0.014215684535794505
ही 0.00012414496949733075
ारी 0.0004972149788981424
ो 0.0003476136365515198
ং@@ 0.37256939887561435
এ@@ 0.6386903980724817
ষ 0.6623455980010922
ਂ 1
ਬ@@ 0.6623455980010922
ી 0.6623455980010922
ି@@ 0.4967591985008191
ర 0.4706139775270918
ಣ@@ 1
ಳ@@ 1
യ 1
ശ@@ 0.8941665573014743
ං@@ 1
ම 1
ව 1
ු 1
ณ@@ 1
ส 1
າ@@ 1
ེ@@ 0.4585469524622946
ོ 0.2751281714773768
ྲ@@ 0.4967591985008191
ე 1
ო 1
ር@@ 1
ስ 1
ᐊ@@ 1
ង 1
ḩ 1
ỏ@@ 1
ἶ@@ 1
⇒ 0.5419191256372572
∇ 1
♂ 0.01763642124854979
ち@@ 1
ゃ@@ 1
ヴ@@ 1
与@@ 1
代 1
使@@ 1
兵 1
再@@ 1
初@@ 1
別@@ 1
名 1
哉 1
唱@@ 1
团 1
园 1
央@@ 0.5768816498719189
宁@@ 0.9935183970016382
尾@@ 1
崎@@ 1
広@@ 1
度 1
当@@ 1
所@@ 1
族 1
望@@ 1
桥 1
森@@ 1
橋@@ 1
洛@@ 1
浦@@ 1
淮@@ 1
照@@ 1
用@@ 1
界 1
番@@ 1
盟 1
破@@ 1
素@@ 1
總@@ 1
翔 1
翰@@ 1
若@@ 1
莫@@ 1
蒲@@ 1
蕭@@ 1
號 1
襄@@ 1
賞 0.7775361367838909
賢 1
運@@ 1
遠@@ 1
金 1
間 1
附@@ 1
陰@@ 1
雷@@ 1
韋@@ 1
麗@@ 1
광@@ 1
금@@ 1
님 1
석@@ 1
왕 1
재@@ 1
행@@ 1
24. 0.000751502482232182
29. 0.000799747175394169
30. 0.0006632299045404795
Betrieb@@ 0.0020258570635457514
Bundesrepublik 0.0023945133885918566
Flügel@@ 0.0023934779979654834
Förderung 0.00227665894569297
Gesetz 0.0017958203038698523
IV. 0.0018122831332406991
Ihr 0.0009650694688141179
Klosters 0.0024381075245756166
Nutz@@ 0.0014309306634971584
Pfarr@@ 0.0018610277204846493
Ufer 0.0023699087126993756
Wagen 0.0016391225298474509
Ziel 0.0008045908401513893
afrika 0.002000475888433264
bende 0.0022987195943915454
bringen 0.0011860545925208574
chmal 0.0022020886288137546
dieser 0.00011613852144215103
dür@@ 0.0013547030796120514
ktion 0.0014300680632005275
lehrer 0.0017049230338690477
ländische 0.0021936526221776123
neuen 0.00032129148398731786
politische 0.001081116559237274
schutz@@ 0.0013132424159655613
seln 0.0030203620134384365
sicht 0.0007672665688621969
sitz@@ 0.0015589514034814612
steht 0.00024031766063508717
stieg 0.0005436374762615244
tischen 0.0010514087849743273
umente 0.0018549989220156976
vater 0.0023804401304306946
wuch@@ 0.0022791587084661715
zeuge 0.0013185604533813345
Æ 0.5356758177382105
ähr 0.0661591647405758
ücken 0.002169011278720549
üsse 0.0008383456355959474
ų@@ 0.7548159249947511
ƒ@@ 1
ǧ@@ 0.06669056365415471
ʋ@@ 1
ΐ@@ 1
З 0.43699869341801384
Л 0.448809468915798
ё 0.8739973868360277
ұ@@ 1
ը 1
ּ 0.41514875874711316
ז 0.6642380139953811
ު@@ 0.8739973868360277
गु@@ 0.00028475316545577663
[...]
