the 10384406
, 9760065
. 8617638
of 5741166
and 4985380
in 4517568
a 3884533
&quot; 3863842
to 3482707
was 2145651
@-@ 1911629
The 1739791
is 1657971
on 1556139
) 1477708
( 1476020
as 1435848
for 1378733
by 1208151
with 1196188
&apos;s 1065893
at 988576
an 986770
that 954293
from 862988
his 762458
ing 691601
In 690066
he 636566
were 564321
it 554084
ed 548275
or 540169
are 513637
which 506871
es 466323
S@@ 462030
He 457976
be 447126
c@@ 429101
y 427578
C@@ 426710
s 419819
had 416470
o 415060
re@@ 414320
also 414281
; 412912
t@@ 405602
: 399870
i 390930
has 384899
ation 384509
its 384307
– 383950
one 382306
M@@ 381118
first 373388
b@@ 364691
p@@ 362174
L@@ 358120
al 354879
P@@ 351599
s@@ 346271
T@@ 343702
in@@ 342629
B@@ 333212
H@@ 331845
It 331575
D@@ 329252
their 328586
ers 325823
N@@ 325347
y@@ 321060
d@@ 319169
er 311546
who 307202
F@@ 306590
R@@ 302032
her 298033
not 295094
but 294980
f@@ 289583
G@@ 288728
K@@ 283779
g@@ 283740
ate 279097
A@@ 274781
two 273334
have 272604
W@@ 270544
n@@ 265490
this 264432
e 263258
un@@ 262626
an@@ 262309
w@@ 257737
t 256264
E@@ 256263
been 256004
&apos; 255026
en@@ 249332
m@@ 248893
A 248737
v@@ 245324
e@@ 243954
al@@ 240320
ated 238270
st@@ 237102
ar@@ 236092
h@@ 234168
after 233844
k@@ 227697
all 223493
de 223441
time 223118
l@@ 222091
ar 218516
1 216796
i@@ 214457
V@@ 212327
they 211722
th@@ 211455
ch@@ 210656
other 210517
into 203528
O@@ 200424
age 198749
er@@ 198485
I@@ 196541
de@@ 195924
J@@ 195492
ations 192708
she 192401
ly 190979
over 190827
o@@ 190534
or@@ 189869
2 188321
u 187848
el@@ 184645
ad@@ 183953
more 182774
am@@ 182766
j@@ 180550
us 179411
d 178829
ts 177655
ac@@ 177571
u@@ 177431
On 176659
% 176647
up 175420
ic 174534
con@@ 173733
New 172713
as@@ 172551
when 171384
would 171371
years 171069
ted 170922
at@@ 170559
out 170467
ent 169732
it@@ 169706
where 169437
on@@ 168429
k 166807
/ 166141
li@@ 163530
This 163527
during 163361
di@@ 161008
ine 159980
year 159869
new 159448
I 159162
season 158918
only 158150
ro@@ 157235
a@@ 156975
is@@ 156912
ri@@ 156590
r@@ 155128
le 155013
3 154803
dis@@ 154166
n 153882
Y@@ 153854
used 153477
between 153126
ia 152929
can 150507
three 150121
made 148501
et@@ 147815
him 146497
Ch@@ 146157
then 145789
later 144679
son 144242
able 143801
ra@@ 143758
most 143296
man 142691
United 142657
sh@@ 141698
&amp; 141467
known 141218
em@@ 140756
es@@ 140496
well 140087
such 139830
part 139299
about 138401
m 138367
American 137962
2@@ 137381
ally 136385
5 136063
ab@@ 135611
under 135114
4 135056
team 134865
became 134736
University 134113
ings 133258
ag@@ 133195
el 133183
She 132908
z@@ 132226
born 131655
il@@ 131603
than 130470
.@@ 129041
ch 128587
ist 128387
end 128374
including 126528
ity 126242
p 125093
film 124821
ant 124780
being 124555
there 124241
U@@ 123793
pro@@ 123732
op@@ 123366
ap@@ 122541
ic@@ 122326
im@@ 122114
some 120975
ul@@ 120029
l 119827
et 119393
second 119351
while 119163
work 118111
through 118013
th 117962
ve 117623
against 116771
ting 116474
Sh@@ 116081
ance 115363
After 114659
h 114515
se@@ 114313
ent@@ 113960
ter 113867
en 113854
ur@@ 113709
3@@ 113678
land 113586
oc@@ 113398
c 113332
sp@@ 112200
als 111895
before 111742
ary 111531
um 111312
ol@@ 111161
am 111048
many 111040
os@@ 111003
6 110985
ass@@ 110144
family 109625
played 109466
them 109466
si@@ 109367
St@@ 108727
ian 108316
until 108201
World 107925
pre@@ 107322
ons 107281
ex@@ 107194
both 107108
le@@ 106902
no 106832
inter@@ 106727
Z@@ 106336
om@@ 106293
people 106061
der 105840
Mar@@ 105302
States 104970
album 104617
ot@@ 104203
ed@@ 103023
day 102952
life 102760
National 102013
released 101952
name 101729
ti@@ 101637
qu@@ 101522
Con@@ 100817
use 100492
In@@ 100326
ak@@ 100316
ton 100286
ating 99623
ous 99078
re 98864
Al@@ 98758
number 98613
series 98499
b 98397
7 98350
won 98288
est 97532
ans 97521
ry 97310
As 97252
area 97071
school 96898
co@@ 96516
may 96410
ment 96238
four 96007
8 95929
called 95906
state 95880
ors 95767
g 95582
um@@ 95565
per@@ 95220
ies 95095
ec@@ 94355
be@@ 94166
May 94122
led 93072
ut@@ 92617
10 91890
March 91841
city 91684
fl@@ 91532
ates 91408
ks 91189
early 91141
September 90745
January 90695
la@@ 90311
pl@@ 90268
career 89868
June 89284
several 89195
ep@@ 88923
October 88688
ical 88686
following 88679
ce 88644
us@@ 88427
July 88326
same 88245
os 88192
ding 88078
&apos;@@ 88070
ure 88067
amp 87558
car@@ 87249
August 87202
ie 87004
School 86944
John 86852
end@@ 86818
9 86809
so 86612
way 86582
id@@ 86476
4@@ 86409
South 86228
ob@@ 86120
game 85792
Car@@ 85671
sub@@ 85572
April 85556
found 85534
based 85464
They 85237
began 84778
sc@@ 84738
ter@@ 84709
ir@@ 84637
November 83888
these 83818
will 83751
line 83695
since 83623
ence 83399
ph@@ 83264
December 83231
located 83126
back 83064
ge 82905
tion 82851
His 82695
tra@@ 82375
vi@@ 82332
man@@ 82089
An@@ 81868
ig@@ 81587
x@@ 81319
ty 81251
ou@@ 81188
par@@ 81018
own 80937
place 80897
ow@@ 80572
County 80502
now 80443
ang@@ 80314
au@@ 80265
x 80238
ast@@ 80208
ay 79807
group 79777
held 79372
av@@ 79355
former 78938
tions 78843
ics 78481
set 78111
res@@ 77947
At 77825
les 77793
tri@@ 77632
- 77402
took 77347
any 77312
ev@@ 77269
War 77262
York 76623
su@@ 76585
w 76581
named 76549
government 76518
$ 76114
20 75725
There 75468
town 75463
State 75342
like 75215
February 75071
member 74979
British 74971
each 74800
mar@@ 74543
ard 74391
high 74342
served 74249
12 74222
century 74172
population 74135
old 74115
music 73977
City 73913
side 73859
League 73840
off 73316
built 73024
od@@ 73001
2010 72788
C 72741
te@@ 72679
station 72592
5@@ 72412
company 72291
’ 72248
ov@@ 72224
mon@@ 72051
ay@@ 71929
Bar@@ 71745
ents 71645
ism 71549
king 70936
song 70909
ad 70808
ver@@ 70600
However 70549
18 70341
did 70324
men 70182
Par@@ 70174
around 69985
received 69920
ds 69876
home 69793
6@@ 69641
est@@ 69295
ative 68884
due 68494
2011 68461
Ar@@ 68450
Re@@ 68425
North 68393
gu@@ 68131
ley 68118
could 67889
lo@@ 67803
16@@ 67560
under@@ 67523
Gu@@ 67484
com@@ 67386
field 67353
O 67307
very 67269
long 67242
15 67138
sion 67015
ran@@ 66910
species 66618
per 66354
D 66277
ey 66195
ship 66163
att@@ 66087
z 66086
ets 66009
ci@@ 66005
died 65922
B 65844
single 65720
min@@ 65520
local 65507
2012 65343
po@@ 65301
left 65279
along 65228
form 65182
public 65164
he@@ 64898
id 64785
band 64777
During 64702
system 64677
History 64660
ion 64640
play 64603
final 64414
2014 64393
Th@@ 64317
sk@@ 64262
17@@ 64128
ise 63975
ha@@ 63953
for@@ 63762
five 63681
eg@@ 63640
published 63602
ing@@ 63521
7@@ 63386
building 63376
over@@ 63359
2016 63332
ne@@ 63236
include 63180
ell 63167
club 63117
2015 63083
2013 63080
11 63025
members 62934
ice 62834
rec@@ 62738
Mon@@ 62733
up@@ 62705
and@@ 62697
said 62639
Har@@ 62600
T 62472
comp@@ 62375
within 62183
ge@@ 62096
ology 61968
ra 61949
9@@ 61781
2008 61764
co 61744
é@@ 61336
2009 61322
R 61313
ill@@ 61264
10@@ 61196
large 61059
30 61045
our 60936
down 60926
because 60923
ite 60697
all@@ 60660
world 60646
se 60618
r 60528
gh@@ 60403
des 60391
2017 59923
Le@@ 59917
2018 59903
ins 59795
included 59793
village 59666
ves 59560
hi@@ 59507
8@@ 59443
den 59229
third 59219
16 59041
og@@ 59000
15@@ 58976
2019 58926
cl@@ 58852
S 58799
tr@@ 58777
comm@@ 58695
red 58650
For 58580
ess@@ 58502
ana 58492
,000 58475
ck 58366
small 58311
do 58131
election 58014
14 58002
2007 57958
bo@@ 57825
acc@@ 57704
II 57693
even 57676
we@@ 57466
children 57430
ities 57419
French 57285
L 57174
2006 57143
show 57107
ang 56926
national 56926
College 56904
death 56815
19 56765
ying 56652
0 56632
ant@@ 56586
house 56570
water 56557
der@@ 56546
art 56526
E 56493
last 56467
main 56362
Co@@ 56255
M 56117
fe@@ 56097
Mc@@ 56031
25 55917
sur@@ 55887
football 55756
ens@@ 55738
13 55698
Man@@ 55679
ess 55672
father 55648
moved 55606
2020 55531
du@@ 55519
if 55439
war@@ 55427
&#91; 55395
&#93; 55395
gra@@ 55394
ants 55376
Ad@@ 55310
ters 55270
ders 55236
X@@ 55120
ns 55033
West 54896
English 54880
those 54711
ber@@ 54693
ath@@ 54605
District 54402
war 54372
million 54357
history 54257
spec@@ 54045
still 53945
women 53928
German 53801
book 53653
bar@@ 53617
another 53574
F 53544
P 53495
service 53423
17 53332
ah@@ 53300
f 53194
ited 53067
late 53067
ement 52887
ish 52865
ann@@ 52745
ens 52733
major 52717
using 52629
def@@ 52626
— 52569
Be@@ 52541
ati@@ 52497
out@@ 52489
els 52465
ck@@ 52404
gen@@ 52371
order 52316
original 52309
Per@@ 52307
den@@ 52247
often 52146
what 52145
International 52120
air 52115
no@@ 52047
win 51974
district 51948
pe@@ 51806
ell@@ 51757
vis@@ 51671
app@@ 51419
London 51351
ke 51303
River 51240
less 51228
went 51154
ition 51149
ments 51121
bl@@ 51044
near 51021
ak 51004
ble 50981
north 50915
U.S. 50914
ok@@ 50914
different 50848
inc@@ 50761
me 50740
When 50668
ash@@ 50594
head 50473
24 50434
established 50348
ru@@ 50240
games 50151
ded 50096
ely 50072
works 50028
announced 50014
ial 49972
country 49877
az@@ 49804
bi@@ 49764
All 49721
ended 49680
ho@@ 49518
best 49515
1@@ 49497
top 49471
18@@ 49455
House 49453
again 49429
il 49381
fin@@ 49300
started 49203
lin@@ 49187
record 49187
ator 49134
Ex@@ 48977
exp@@ 48937
ore 48840
Cup 48792
cre@@ 48759
Am@@ 48729
US 48683
21 48674
Di@@ 48454
ory 48451
role 48415
south 48351
six 48322
Sp@@ 48267
ina 48188
tive 48181
af@@ 48169
Mor@@ 48165
Ab@@ 48074
title 47980
law 47942
El@@ 47849
cor@@ 47742
ten@@ 47737
if@@ 47736
joined 47673
One 47661
sts 47609
round 47521
col@@ 47434
eb@@ 47404
ai 47248
Ro@@ 47193
ong 47174
came 47166
ale 47108
Pro@@ 47061
oo@@ 47054
period 47019
ner 47006
ms 46961
formed 46781
just 46627
_ 46626
worked 46548
right 46542
position 46513
ir 46502
much 46401
non 46380
support 46333
res 46180
married 46170
De@@ 45970
ler 45953
among 45784
ue 45732
produced 45437
bre@@ 45394
England 45182
bu@@ 45169
mo@@ 45143
Un@@ 45096
ford 45067
ain@@ 45040
2005 45029
lic@@ 45024
development 44970
make 44953
2021 44935
wrote 44708
given 44698
low 44665
ire 44661
to@@ 44658
player 44604
power 44576
having 44552
me@@ 44491
general 44438
st 44360
tur@@ 44333
described 44298
ish@@ 44261
become 44224
22 44172
production 44115
ne 44098
next 44080
continued 44064
ality 44045
14@@ 44031
ah 43995
12@@ 43965
These 43884
ric@@ 43807
community 43796
ach@@ 43768
total 43644
European 43609
version 43560
days 43552
returned 43502
various 43452
ma@@ 43433
pri@@ 43334
Park 43327
ub@@ 43278
ps 43268
ile 43263
ber 43235
General 43161
ending 43139
23 43105
written 43098
rem@@ 43047
ick 43044
tor 43010
ster 42941
enti@@ 42870
East 42860
elected 42829
William 42795
aw@@ 42770
created 42765
2000 42719
political 42514
From 42494
half 42414
2004 42340
ling 42174
13@@ 42143
Church 42035
west 41996
ick@@ 41927
point 41875
anc@@ 41811
ma 41775
go 41749
Bo@@ 41738
ist@@ 41721
Cor@@ 41638
site 41583
ren@@ 41544
take 41538
ain 41374
Australia 41371
ving 41334
her@@ 41290
TV 41198
ka 41187
1.@@ 41173
ur 41097
ill 41084
road 41084
ists 41066
mer@@ 41031
air@@ 41007
50 41003
Tra@@ 40988
ai@@ 40971
level 40950
church 40927
founded 40853
! 40852
= 40785
ars 40784
Party 40764
India 40763
ked 40762
Me@@ 40747
however 40686
ences 40676
ised 40675
Council 40662
opened 40617
By 40589
Col@@ 40580
ats 40522
rep@@ 40455
formula 40421
100 40417
few 40277
Army 40276
ya 40258
According 40227
ages 40187
France 40114
har@@ 40056
High 39970
ability 39968
iz@@ 39960
Street 39951
ot 39907
ol 39894
students 39840
ual 39787
ture 39750
arch@@ 39715
N 39675
ots 39625
ail 39606
cul@@ 39585
fi@@ 39535
te 39528
signed 39482
ake 39479
cont@@ 39462
Division 39438
Ma@@ 39436
Ac@@ 39419
military 39221
region 39217
James 39188
east 39182
George 39178
King 39138
met@@ 39104
without 39079
ered 39073
party 38996
via 38952
Se@@ 38938
appeared 38766
28 38740
run 38732
dic@@ 38698
appointed 38688
wor@@ 38679
pat@@ 38661
our@@ 38648
War@@ 38641
times 38567
mat@@ 38558
match 38538
br@@ 38509
ently 38480
ized 38462
ear@@ 38435
26 38434
ological 38372
event 38361
San 38323
str@@ 38297
bri@@ 38293
ness 38218
together 38201
27 38155
making 38147
lost 38116
ville 38113
ines 38093
gl@@ 38092
St. 38082
Mo@@ 38061
ong@@ 38036
President 38001
prot@@ 37977
considered 37947
recorded 37937
present 37913
professional 37873
Bur@@ 37854
Com@@ 37813
Q@@ 37796
range 37765
television 37749
California 37651
Ed@@ 37639
light 37575
Qu@@ 37485
short 37465
full 37306
cap@@ 37203
international 37121
He@@ 37095
America 37034
language 37016
ker 37001
Canada 36999
eh@@ 36994
dra@@ 36965
tor@@ 36955
case 36920
story 36889
Sch@@ 36878
debut 36878
working 36870
education 36813
ik@@ 36782
2003 36771
Su@@ 36769
research 36711
style 36709
des@@ 36703
la 36691
&apos;t 36615
0@@ 36551
v 36537
U 36524
ces 36423
iv@@ 36409
ug@@ 36391
atic 36349
wife 36333
class 36324
ships 36283
cer@@ 36249
sol@@ 36210
ever 36203
fac@@ 36193
lu@@ 36108
trans@@ 36078
program 36073
With 35930
Association 35872
amp@@ 35855
important 35835
further 35786
sec@@ 35769
video 35637
á@@ 35631
Mal@@ 35618
cr@@ 35612
Union 35456
ution 35448
areas 35411
playing 35347
developed 35305
29 35254
exc@@ 35253
2002 35207
wing 35168
gr@@ 35166
ash 35154
Early 35111
ei@@ 35103
land@@ 35086
lies 35030
ys 35023
release 35007
lead 34987
ning 34857
Royal 34815
cur@@ 34748
body 34742
While 34739
points 34734
ase 34705
ie@@ 34703
term 34662
Cl@@ 34661
ten 34652
Australian 34597
teams 34595
2001 34579
away 34526
race 34524
we 34365
gro@@ 34359
0s 34345
addition 34343
ically 34318
und@@ 34310
result 34306
Ne@@ 34273
ade 34263
ned 34225
office 34185
business 34157
live 34156
ged 34135
ane 34130
elec@@ 34038
Li@@ 34016
2.@@ 34009
“ 34005
Indian 33994
ari@@ 33975
Br@@ 33908
Pre@@ 33851
oun@@ 33828
control 33771
” 33754
ste@@ 33680
Award 33656
kn@@ 33620
amm@@ 33614
ace 33590
Club 33577
average 33558
reg@@ 33553
common 33542
every 33516
bor@@ 33501
sw@@ 33460
mother 33459
expl@@ 33456
Gra@@ 33454
Championship 33392
coun@@ 33384
ful 33383
director 33339
ro 33337
although 33335
similar 33334
Sc@@ 33281
ches 33235
ser@@ 33192
K 33164
popular 33163
ow 33060
Fl@@ 33010
ud@@ 33000
example 32954
design 32950
list 32919
ved 32905
Ber@@ 32899
G 32876
others 32872
que 32859
om 32833
Germany 32825
En@@ 32805
league 32793
ished 32757
For@@ 32673
First 32631
social 32630
put 32629
uses 32625
taken 32564
himself 32543
alist 32540
construction 32496
val 32447
across 32443
forms 32409
X 32389
tro@@ 32385
ino 32350
daughter 32343
assi@@ 32336
finished 32321
yl@@ 32290
ose 32230
ground 32183
da 32177
Lu@@ 32172
tic 32087
lt 32084
project 32067
rel@@ 32043
Music 32031
David 32012
president 31985
Bl@@ 31950
do@@ 31931
det@@ 31915
amb@@ 31900
0.@@ 31891
gt 31845
services 31839
act 31828
Road 31815
ering 31809
ney 31784
iti@@ 31710
living 31705
Company 31700
events 31698
ort 31696
sted 31694
gar@@ 31692
ere 31687
China 31676
é 31664
na 31653
... 31639
ges 31579
off@@ 31546
ties 31514
Pl@@ 31489
change 31488
ute 31464
ali@@ 31422
40 31415
pres@@ 31372
dy 31362
Central 31316
Nor@@ 31234
sold 31193
though 31114
inn@@ 31082
pr@@ 31047
ions 31046
Court 31038
shi@@ 31035
ster@@ 30950
ort@@ 30948
dec@@ 30891
oll@@ 30887
int@@ 30869
Group 30831
ented 30828
stage 30823
designed 30815
Some 30795
loc@@ 30791
free 30788
ring 30779
ger 30767
acy 30765
how 30743
1,@@ 30732
rated 30577
un 30574
ular 30560
gave 30517
stri@@ 30470
Japanese 30450
followed 30430
Her@@ 30427
Europe 30426
wh@@ 30406
get 30388
never 30374
months 30371
Em@@ 30328
inf@@ 30328
1999 30323
Min@@ 30268
eng@@ 30264
fer@@ 30239
eight 30188
available 30180
coach 30169
Fin@@ 30167
Thomas 30161
ration 30151
dr@@ 30046
Res@@ 30042
white 30031
open 29965
character 29961
once 29942
ends 29931
official 29906
performed 29899
ases 29897
completed 29880
Gar@@ 29836
Air 29828
ver 29819
Robert 29816
ental 29793
Or@@ 29777
iting 29773
por@@ 29772
dro@@ 29761
ven@@ 29712
ect 29694
Japan 29683
em 29662
largest 29630
Tri@@ 29598
active 29565
31 29523
current 29515
Si@@ 29510
bro@@ 29503
ational 29491
UK 29466
Washington 29452
yn@@ 29438
reported 29426
Her 29406
modern 29405
Charles 29383
young 29377
seven 29372
Center 29353
hon@@ 29341
action 29329
see 29269
leading 29239
ock 29212
remained 29200
section 29160
tu@@ 29141
structure 29124
An 29105
asi@@ 29105
V 29094
sent 29047
ones 29033
ington 28998
Western 28995
hy@@ 28953
should 28947
ili@@ 28942
Sal@@ 28936
ama 28928
Ver@@ 28919
players 28915
1998 28895
Hall 28884
track 28881
songs 28810
Other 28780
Mer@@ 28778
owned 28760
Institute 28720
ery 28689
process 28684
saw 28663
Sk@@ 28655
Ho@@ 28637
originally 28609
inv@@ 28593
dem@@ 28586
seen 28573
Department 28568
adi@@ 28564
brother 28560
tran@@ 28558
Ph@@ 28555
Mac@@ 28520
Russian 28519
Since 28467
study 28464
ators 28453
Kar@@ 28451
listed 28447
directed 28445
refer 28424
ext@@ 28422
board 28388
currently 28386
return 28362
great 28359
ther@@ 28329
cent@@ 28303
ern@@ 28296
features 28270
western 28257
Chinese 28252
20@@ 28248
rate 28236
Bel@@ 28217
oy@@ 28190
performance 28179
ff@@ 28155
ee 28138
post 28132
W 28118
im 28096
enn@@ 28091
1996 28088
Bi@@ 28078
ata 28064
aff@@ 28059
groups 28048
Although 28012
Island 27996
includes 27973
ses 27960
Paul 27958
Wor@@ 27951
throughout 27944
tal@@ 27920
training 27907
help 27906
Society 27889
Canadian 27868
cs 27829
tors 27829
ek@@ 27785
car 27778
forces 27766
bur@@ 27712
wn 27681
vari@@ 27678
placed 27647
Ri@@ 27635
Bro@@ 27618
awarded 27566
featured 27548
Hol@@ 27544
Gl@@ 27530
ements 27527
does 27492
usually 27490
Gre@@ 27465
fire 27463
ony 27460
ip@@ 27446
African 27434
come 27433
sl@@ 27421
ction 27416
successful 27413
onal 27406
rest 27359
wood 27354
schools 27338
tic@@ 27328
involved 27319
gener@@ 27310
ach 27282
either 27278
ization 27272
1997 27245
writer 27243
added 27233
ography 27206
stated 27200
Rec@@ 27180
information 27169
eventually 27049
Can@@ 27020
gi@@ 27005
ack 26921
atory 26914
Minister 26909
alle@@ 26879
episode 26818
Its 26790
aged 26784
front 26759
good 26615
Pe@@ 26583
you 26582
Cal@@ 26565
black 26520
Academy 26512
Au@@ 26507
1st 26477
countries 26475
Comm@@ 26424
degree 26404
close 26386
hand@@ 26383
replaced 26374
Act 26362
force 26347
Women 26345
human 26330
Mil@@ 26307
compet@@ 26292
3.@@ 26275
ishing 26267
ously 26248
central 26240
ght 26230
ind@@ 26221
court 26217
supp@@ 26150
doc@@ 26143
families 26136
winning 26094
ards 26067
ope 26049
special 26037
und 26035
media 26028
fil@@ 26008
ith 26001
related 25989
H 25964
ani 25963
ath 25960
New@@ 25959
cy 25936
Africa 25932
private 25923
1995 25908
possible 25884
fourth 25881
ov 25864
not@@ 25850
states 25848
Te@@ 25843
ways 25842
ta 25828
competition 25824
wide 25813
police 25803
parts 25799
provided 25788
lines 25785
ests 25780
ae 25754
ows 25743
ano 25738
ara 25731
ws 25731
rights 25705
vers 25688
stor@@ 25683
hor@@ 25664
yp@@ 25650
Inter@@ 25645
upon 25644
itions 25632
au 25619
ass 25614
1994 25581
1992 25570
killed 25566
mem@@ 25502
reached 25501
college 25426
center 25390
Great 25381
ran 25375
must 25372
ham 25369
Cro@@ 25366
previous 25359
ack@@ 25341
let 25333
To 25324
part@@ 25308
km 25306
Spanish 25297
size 25271
rac@@ 25262
List 25245
ched 25226
Michael 25214
oli@@ 25198
fied 25189
above 25165
ened 25145
Italian 25140
Henry 25114
Lake 25107
char@@ 25061
type 25045
radio 25037
Bra@@ 25033
-@@ 25029
least 25024
conc@@ 25001
the@@ 24964
Pal@@ 24927
Best 24925
ey@@ 24916
plays 24884
aj@@ 24872
division 24847
writing 24804
Bu@@ 24801
Football 24800
aircraft 24798
ature 24789
bed 24774
attended 24756
closed 24751
era 24750
Hon@@ 24748
St 24740
super@@ 24721
night 24700
oph@@ 24690
leg@@ 24633
tre@@ 24621
We@@ 24609
changed 24594
river 24591
ast 24585
space 24574
person 24562
pen@@ 24559
sch@@ 24552
introduced 24537
syn@@ 24507
scored 24506
duc@@ 24502
Sy@@ 24496
contract 24494
Republic 24481
ories 24479
attack 24469
rock 24457
can@@ 24442
ump@@ 24439
60 24438
shire 24429
Mad@@ 24426
vo@@ 24426
older 24421
ts@@ 24360
campaign 24347
row 24338
decided 24320
Awards 24296
railway 24291
ica 24281
art@@ 24256
cri@@ 24248
hal@@ 24237
indic@@ 24235
White 24211
Bre@@ 24194
gest 24188
books 24177
pol@@ 24175
shows 24146
ood 24137
sel@@ 24135
mag@@ 24054
start 24049
ena 24030
ym@@ 24006
met 24002
Fre@@ 23999
female 23982
ret@@ 23975
sign@@ 23970
census 23962
pan@@ 23962
ori@@ 23931
Bal@@ 23913
films 23880
Bor@@ 23867
cons@@ 23865
sea 23857
Career 23850
Ireland 23823
Saint 23742
defeated 23735
hr@@ 23732
1993 23730
tures 23719
uc@@ 23714
Texas 23703
success 23695
1990 23689
emp@@ 23689
goal 23640
studio 23632
ward 23631
mid 23597
ased 23571
previously 23556
Dar@@ 23536
Museum 23533
market 23518
test@@ 23514
ft 23510
Following 23508
1991 23496
but@@ 23452
Education 23428
stra@@ 23412
ays 23397
bra@@ 23390
disc@@ 23374
Pri@@ 23351
La 23349
Two 23344
Cur@@ 23329
di 23329
Kingdom 23324
regular 23319
ke@@ 23318
ored 23314
mer 23311
standing 23311
rather 23309
tical 23306
ising 23235
FC 23209
room 23208
Christian 23177
instead 23145
cat@@ 23139
mp@@ 23131
ion@@ 23124
Black 23121
almost 23109
organization 23107
represented 23099
Far@@ 23098
edition 23076
so@@ 23068
provide 23066
buildings 23065
Jo@@ 23064
ier 23064
tim@@ 23039
ther 23033
legal 22961
aries 22942
Government 22941
taking 22941
Peter 22938
fre@@ 22916
Art 22914
bs 22904
form@@ 22900
dri@@ 22887
model 22886
imp@@ 22885
tournament 22885
week 22879
proc@@ 22865
date 22862
whose 22852
novel 22851
stone 22834
Los 22824
strong 22805
Roman 22796
Paris 22784
behind 22757
health 22750
equ@@ 22729
Gi@@ 22720
lived 22705
Pr@@ 22673
cal 22648
cal@@ 22645
self 22637
Wil@@ 22633
ids 22632
brought 22627
ha 22555
ands 22545
Ros@@ 22497
gre@@ 22496
units 22493
Committee 22485
data 22475
ston 22463
elled 22431
Later 22427
Gr@@ 22425
tw@@ 22410
movement 22403
pos@@ 22372
ight 22360
wal@@ 22358
ave 22346
view 22345
ress 22305
bility 22263
ici@@ 22257
Grand 22254
&#124; 22234
hom@@ 22230
prin@@ 22219
especially 22213
Catholic 22206
Smith 22206
ained 22206
approximately 22184
vol@@ 22161
base 22157
allowed 22140
ord@@ 22138
Mary 22136
ese 22133
Zealand 22122
ly@@ 22122
Po@@ 22105
ap 22095
183@@ 22094
mit 22091
Gro@@ 22080
lower 22075
med 22052
ball 22043
mission 22043
nor@@ 22041
significant 22038
wards 22030
uk@@ 22011
lec@@ 22010
outside 22007
ame 22005
cip@@ 21993
industry 21952
cast 21915
cies 21890
classi@@ 21887
oper@@ 21879
issue 21874
1989 21871
cop@@ 21868
Championships 21863
ging 21851
primary 21828
far@@ 21823
northern 21820
nar@@ 21815
eds 21768
sis 21755
soon 21753
ax@@ 21735
disambiguation 21724
runs 21713
Del@@ 21688
beginning 21665
val@@ 21662
Soviet 21638
ust 21625
southern 21618
domin@@ 21603
spe@@ 21595
Sur@@ 21592
ram@@ 21576
ank@@ 21564
No. 21554
ven 21554
olog@@ 21537
Life 21527
1988 21500
hol@@ 21488
Richard 21474
issues 21464
vent@@ 21459
tour@@ 21438
ron@@ 21437
ency 21427
Reg@@ 21422
Red 21419
San@@ 21394
island 21373
ā@@ 21373
Arch@@ 21356
interest 21356
forced 21354
summer 21329
woman 21287
Olympics 21268
word 21254
course 21240
Festival 21226
hand 21197
vers@@ 21187
US@@ 21185
face 21180
sky 21166
Summer 21153
artist 21150
Wal@@ 21143
sm@@ 21143
q@@ 21141
To@@ 21134
towards 21126
La@@ 21119
launched 21114
Arts 21093
systems 21092
Bay 21091
highest 21090
go@@ 21085
spent 21085
operation 21079
thus 21071
differ@@ 21064
leader 21059
capital 21044
ek 21043
my 21011
collec@@ 21010
main@@ 21005
itself 20988
peri@@ 20979
too 20979
tion@@ 20967
hit 20966
pp@@ 20955
Most 20953
oth 20953
III 20950
Shi@@ 20939
Wh@@ 20936
little 20927
ument 20905
studies 20885
va 20884
Bri@@ 20882
cle@@ 20872
Sar@@ 20870
sometimes 20833
whom 20831
lab@@ 20793
zed 20790
Char@@ 20744
Chicago 20732
independent 20706
dep@@ 20699
popul@@ 20694
Virginia 20686
ung 20660
mark@@ 20640
Force 20633
ene 20621
ut 20611
2nd 20608
opening 20608
sed 20599
Ge@@ 20595
length 20594
traditional 20582
higher 20576
lan@@ 20574
studied 20563
operations 20534
igh@@ 20533
ense 20521
ita 20519
Film 20513
magazine 20491
army 20478
4.@@ 20468
Second 20460
Records 20449
aker 20431
bridge 20417
far 20412
ock@@ 20401
Hor@@ 20384
Ter@@ 20377
appearance 20374
county 20372
seat 20364
running 20356
location 20342
nam@@ 20335
generally 20312
ania 20291
clos@@ 20273
child 20271
loss 20199
entered 20195
Is@@ 20188
ams 20181
route 20147
ples 20141
ening 20139
natural 20134
noted 20119
65 20110
Ag@@ 20098
going 20093
future 20084
collection 20060
genus 20045
App@@ 20043
according 20022
culture 20019
del@@ 20019
arm@@ 19992
ately 19991
friend 19980
pped 19977
80 19969
celeb@@ 19966
j 19965
serving 19951
J. 19939
Games 19934
sequ@@ 19928
Navy 19925
Mag@@ 19924
1987 19920
required 19916
ching 19910
teen 19908
sing 19906
below 19900
Ev@@ 19899
plant 19896
1986 19894
tiv@@ 19894
key 19886
Mexico 19879
# 19875
Italy 19869
enz@@ 19867
network 19861
aging 19854
You 19839
month 19838
io 19835
ians 19801
means 19785
real 19775
tour 19762
ada 19754
ize 19745
Hill 19744
Sw@@ 19741
stre@@ 19733
don 19726
companies 19721
Gen@@ 19689
operated 19686
tional 19685
Dis@@ 19676
ó@@ 19665
conv@@ 19659
Pan@@ 19658
ella 19642
ison 19635
Mah@@ 19632
ez 19619
practice 19610
Cap@@ 19608
atives 19607
stat@@ 19571
Rom@@ 19563
Northern 19557
Battle 19552
matches 19548
money 19541
tly 19536
Many 19534
ide 19533
alism 19525
Leg@@ 19519
uted 19518
1984 19517
park 19517
lied 19510
anti 19507
Tr@@ 19502
1980 19485
í@@ 19479
Russia 19467
selected 19466
200 19460
changes 19457
ours 19457
earlier 19439
senior 19439
prepar@@ 19433
cases 19432
complete 19422
ca 19412
invol@@ 19412
Val@@ 19400
van 19382
If 19378
shar@@ 19378
Angeles 19373
oned 19349
ph 19345
centre 19342
gs 19329
ond@@ 19314
enc@@ 19309
gold 19297
economic 19292
Christ@@ 19271
1985 19266
schol@@ 19266
cli@@ 19258
results 19255
passed 19249
property 19245
Greek 19243
gen 19225
ession 19209
victory 19187
500 19176
Comp@@ 19165
increased 19155
individual 19155
ox@@ 19154
already 19146
vir@@ 19145
sports 19125
author 19099
associated 19080
ced 19070
Cre@@ 19068
produc@@ 19068
ills 19065
sting 19048
qualif@@ 19022
majority 19001
numerous 18995
lif@@ 18994
limited 18992
ains 18954
cks 18953
contains 18946
activities 18933
itation 18924
cy@@ 18911
decision 18908
food 18900
back@@ 18899
unit 18895
Joseph 18891
becoming 18886
singer 18881
shot 18868
pur@@ 18861
ury 18859
spir@@ 18815
manager 18805
commercial 18803
press 18801
ola 18800
Day 18793
hu@@ 18780
ail@@ 18763
care 18762
find 18740
log@@ 18736
competed 18723
ium 18718
terms 18713
ination 18705
cover 18704
Station 18659
Route 18641
personal 18638
certain 18612
move 18607
Ke@@ 18605
cross@@ 18602
sive 18594
1983 18574
artists 18567
caused 18565
love 18564
fav@@ 18562
nine 18546
stic 18541
ott@@ 18540
coming 18539
ala 18534
award 18528
initially 18523
medi@@ 18506
annual 18503
25@@ 18480
moun@@ 18480
income 18478
access 18471
connec@@ 18471
ger@@ 18460
hi 18454
cial 18453
rat@@ 18434
30@@ 18424
fall 18419
standard 18416
ls 18405
So@@ 18402
Board 18392
Mat@@ 18389
70 18382
Sir 18374
hip 18368
sal@@ 18366
45 18362
ull 18361
Tur@@ 18345
supported 18344
student 18335
oh@@ 18322
allow 18312
post@@ 18311
etic 18305
Wales 18292
Mi@@ 18269
Service 18264
better 18259
elling 18259
goals 18258
transl@@ 18247
mostly 18244
90 18235
At@@ 18235
retired 18234
1982 18218
elections 18218
trade 18217
+ 18211
additional 18203
itive 18199
university 18187
gradu@@ 18185
Irish 18177
Pacific 18177
eil@@ 18167
ank 18162
phot@@ 18157
ric 18156
sex 18151
particularly 18144
staff 18143
Elec@@ 18133
ures 18124
Florida 18122
Research 18120
ette 18117
7.@@ 18097
yer 18074
aches 18073
Hel@@ 18068
fact 18053
past 18035
eastern 18034
port 18019
survi@@ 18014
adv@@ 18013
claimed 18013
ini 18013
characters 18012
religious 18003
ital 17979
ond 17975
Pra@@ 17974
berg 17971
batt@@ 17950
chief 17934
husband 17934
za 17924
Sol@@ 17890
6.@@ 17887
termin@@ 17880
ris@@ 17866
bus 17862
Southern 17855
1972 17849
ff 17849
ites 17849
portra@@ 17835
subsequently 17816
anded 17814
thro@@ 17811
lands 17795
sum@@ 17793
thought 17776
management 17774
Ser@@ 17769
Valley 17769
Assembly 17760
officer 17759
iss@@ 17755
Sec@@ 17743
die 17737
earned 17727
famous 17726
medical 17719
airs 17715
anim@@ 17715
1979 17707
feature 17694
municipality 17684
yard 17684
descri@@ 17678
plan 17676
prec@@ 17670
Year 17666
ote 17650
essi@@ 17642
Du@@ 17640
regul@@ 17631
character@@ 17630
asked 17629
ze 17629
adap@@ 17623
championship 17615
parents 17614
battle 17611
viol@@ 17595
particip@@ 17594
don@@ 17578
raised 17576
That 17567
create 17564
science 17561
today 17561
arri@@ 17557
tar@@ 17554
politician 17550
integ@@ 17549
mor@@ 17544
Public 17531
Chi@@ 17530
Parliament 17529
status 17525
appro@@ 17520
here 17517
musical 17517
uti@@ 17513
aring 17502
actions 17500
remains 17498
Louis 17485
entire 17473
programs 17471
test 17468
orial 17467
give 17446
Congress 17444
Province 17437
hel@@ 17434
sen 17406
rit@@ 17405
star 17405
? 17397
continu@@ 17395
antly 17388
Jewish 17382
engine 17375
wi@@ 17361
publ@@ 17360
resi@@ 17358
Al 17346
Sub@@ 17328
ac 17326
cour@@ 17320
19th 17310
eding 17298
relationship 17294
evidence 17291
1976 17289
ested 17286
fo@@ 17275
down@@ 17273
thing 17270
physi@@ 17264
ep 17263
hours 17252
00@@ 17243
score 17241
1974 17231
Fac@@ 17227
CA@@ 17224
ads 17210
meas@@ 17204
Im@@ 17203
mi@@ 17202
ib@@ 17194
ew@@ 17193
sister 17189
ensive 17186
report 17183
Old 17179
ingly 17176
lim@@ 17152
sn@@ 17150
particular 17144
Tran@@ 17138
35 17132
1981 17126
minutes 17114
colon@@ 17109
Ben@@ 17105
ich@@ 17090
Queen 17081
Their 17081
une 17065
ard@@ 17058
Cath@@ 17054
3rd 17042
bers 17034
material 17033
turn 17029
try 17028
1945 17024
mot@@ 17024
presented 17022
Spain 17005
1975 17003
helped 16997
Dra@@ 16993
Indi@@ 16990
1968 16980
energy 16977
akes 16967
names 16956
Law 16950
serve 16941
grand@@ 16937
Mur@@ 16927
1970 16923
Commission 16913
techn@@ 16906
weight 16906
ounds 16904
instr@@ 16883
lear@@ 16873
believed 16871
response 16868
oms 16866
1978 16858
bury 16857
referred 16838
shown 16835
specific 16834
nomin@@ 16806
meeting 16796
ulture 16794
Railway 16793
leaving 16793
refer@@ 16790
ious 16783
Times 16775
weeks 16761
got 16758
Democratic 16750
larger 16748
composed 16747
sen@@ 16747
tel@@ 16741
Martin 16738
Pi@@ 16719
complex 16718
basketball 16715
seasons 16709
Gal@@ 16703
Science 16697
turned 16693
Despite 16685
sett@@ 16684
pe 16682
quest@@ 16681
Sam@@ 16677
ean 16676
likely 16662
Line 16660
acquired 16659
houses 16656
ush@@ 16656
vote 16641
ive 16637
Personal 16630
ths 16626
longer 16625
prof@@ 16620
offered 16601
cou@@ 16593
uch@@ 16583
ari 16579
ix 16575
mak@@ 16568
Green 16563
Empire 16551
ower 16536
formation 16522
carried 16513
constit@@ 16513
ye 16511
covered 16506
cro@@ 16504
fight 16503
5.@@ 16493
ined 16490
ries 16489
circ@@ 16487
People 16479
ils 16478
takes 16473
Fri@@ 16469
1973 16457
ential 16457
issued 16450
remaining 16446
failed 16444
mainly 16429
istic 16419
del 16408
multiple 16405
surface 16399
footballer 16398
starting 16398
My@@ 16393
constructed 16389
Pet@@ 16380
wid@@ 16378
deal 16375
increase 16371
of@@ 16370
promoted 16365
ett 16363
1977 16359
aired 16354
Hy@@ 16346
theory 16340
Eastern 16332
consi@@ 16325
Sha@@ 16321
Series 16316
Ram@@ 16313
graduated 16313
regional 16313
Lord 16312
ols 16312
policy 16306
But 16302
stations 16299
organ@@ 16296
ref@@ 16292
Coun@@ 16289
sou@@ 16281
activ@@ 16279
ligh@@ 16275
umb@@ 16262
need 16261
federal 16253
Tor@@ 16243
ome 16243
pic@@ 16243
alis@@ 16241
overall 16241
illi@@ 16203
native 16199
Pen@@ 16196
source 16196
Play@@ 16194
180@@ 16192
Chief 16186
positions 16183
cost 16177
A. 16165
actor 16156
break 16156
kl@@ 16147
Town 16144
Big 16142
ja 16134
themselves 16128
ss@@ 16117
1971 16092
proposed 16091
ab 16085
suff@@ 16084
Conference 16076
Wi@@ 16074
male 16073
financial 16062
subject 16062
,@@ 16055
sem@@ 16039
Star 16035
Edward 16034
run@@ 16024
effect 16022
struction 16021
ook 16019
aster 16013
Ger@@ 16012
anda 15992
chap@@ 15986
legisl@@ 15975
ski 15970
pun@@ 15958
Rel@@ 15952
lat@@ 15934
Tro@@ 15932
psych@@ 15932
ald 15925
with@@ 15924
ord 15920
host 15918
8.@@ 15917
1980s 15911
Hu@@ 15902
medal 15900
appearances 15896
eral 15892
troops 15883
dar@@ 15873
Radio 15869
variety 15868
consists 15866
Lin@@ 15865
1969 15854
2,@@ 15851
separate 15850
invest@@ 15843
thre@@ 15839
voc@@ 15838
mov@@ 15830
latter 15829
pet@@ 15828
fu@@ 15821
aking 15819
individuals 15813
Carolina 15806
command 15803
Britain 15789
net 15776
sho@@ 15776
32 15775
ority 15765
mental 15763
ef@@ 15752
Poland 15751
experience 15737
always 15730
Kn@@ 15716
done 15715
speed 15715
Man 15712
hib@@ 15703
ago 15702
Ap@@ 15695
Pol@@ 15687
opp@@ 15686
1967 15669
direct 15661
Brown 15660
ao 15660
cities 15658
cultural 15648
dist@@ 15638
ater 15628
jec@@ 15627
middle 15626
plan@@ 15625
fully 15618
eing 15615
eff@@ 15599
master 15599
table 15595
worth 15594
play@@ 15593
BC 15590
Team 15585
influence 15584
appears 15576
square 15573
broadcast 15566
Cra@@ 15559
rap@@ 15559
Dutch 15557
recording 15556
marriage 15549
department 15542
itors 15530
civil 15527
compl@@ 15518
Som@@ 15516
oul@@ 15516
train 15516
historical 15514
meaning 15513
ugh 15511
titled 15490
Mu@@ 15489
ula 15486
are@@ 15484
gran@@ 15479
pit@@ 15478
prior 15476
fifth 15472
separ@@ 15469
concern@@ 15467
rical 15467
professor 15462
conditions 15451
No@@ 15449
20th 15446
£ 15445
aut@@ 15441
ably 15438
Both 15436
finals 15436
oil 15425
commun@@ 15417
vor@@ 15412
von 15408
ki 15407
4th 15405
ner@@ 15395
producer 15391
top@@ 15389
Dun@@ 15378
despite 15374
direc@@ 15374
society 15364
Je@@ 15363
directly 15363
ading 15358
defin@@ 15339
flu@@ 15339
Lee 15325
stand 15317
Cy@@ 15315
Open 15311
Biography 15310
quality 15305
attempt 15296
Bank 15281
anti@@ 15281
Por@@ 15274
iel@@ 15257
tracks 15257
West@@ 15253
responsible 15253
words 15250
ura 15242
discovered 15239
bles 15229
ron 15222
happ@@ 15220
divided 15216
1964 15214
Dr. 15213
lar@@ 15208
sound 15207
govern@@ 15194
Creek 15193
1970s 15190
wind@@ 15186
yst@@ 15182
Prince 15181
Mont@@ 15179
initi@@ 15178
inst@@ 15161
arrived 15160
records 15159
Dem@@ 15153
provides 15150
Love 15148
conduc@@ 15144
Asian 15137
eth 15133
Another 15132
wat@@ 15131
managed 15130
ually 15123
osp@@ 15116
wanted 15102
tered 15100
let@@ 15098
nearly 15094
We 15092
dge 15092
respec@@ 15081
ops 15078
ung@@ 15078
nearby 15070
foreign 15067
Mark 15063
cent 15062
bel@@ 15046
Ly@@ 15022
Ak@@ 15014
Lar@@ 15013
ga 15008
belie@@ 15000
recent 14998
ault 14977
Jones 14971
ected 14968
ication 14967
Er@@ 14956
Y 14953
Des@@ 14945
Under 14938
organized 14937
border 14920
Scotland 14918
fish 14915
movie 14908
Ob@@ 14903
finally 14902
plans 14902
dou@@ 14901
transferred 14899
00 14894
ae@@ 14893
news 14887
yn 14878
Cr@@ 14871
administrative 14869
enth 14869
esses 14868
real@@ 14868
Vo@@ 14863
sor@@ 14854
mechan@@ 14845
ban 14841
officially 14828
Latin 14822
9.@@ 14815
ett@@ 14802
tation 14796
0,000 14795
75 14782
technology 14781
vement 14774
union 14773
Pennsylvania 14772
bank 14771
soci@@ 14769
2022 14766
province 14764
told 14758
extended 14751
participated 14750
cut 14740
Bul@@ 14738
net@@ 14737
Theatre 14730
Sou@@ 14727
squ@@ 14723
consider@@ 14722
64 14715
Ste@@ 14703
instit@@ 14700
exhib@@ 14696
yle 14690
enough 14682
Senate 14673
Alb@@ 14665
wall 14661
Conserv@@ 14659
God 14656
primarily 14649
cle 14632
rol@@ 14631
requi@@ 14630
Ra@@ 14626
onia 14624
ball@@ 14621
Tre@@ 14620
Development 14615
Sim@@ 14611
vot@@ 14609
ert 14608
heavy 14598
1960 14592
problems 14584
mark 14582
eman 14578
might 14577
comes 14575
value 14574
Ru@@ 14568
inger 14567
sug@@ 14567
Foundation 14565
rural 14550
saying 14537
idea 14536
review 14534
1965 14533
occup@@ 14528
mm 14518
cause 14511
Order 14509
1966 14486
bat@@ 14484
text 14482
idae 14471
ree 14469
ured 14468
bert 14463
ners 14461
C. 14458
editor 14458
tru@@ 14450
Fe@@ 14449
abor@@ 14449
br 14449
bul@@ 14440
Michigan 14439
council 14435
vel@@ 14434
candidate 14432
residents 14431
cher 14423
pre 14420
Sa@@ 14418
wel@@ 14413
ulty 14392
alongside 14391
elements 14391
1944 14388
exec@@ 14388
Ant@@ 14382
ri 14370
eth@@ 14369
Ohio 14366
sym@@ 14366
Men 14361
sons 14357
workers 14353
Civil 14351
double 14348
Health 14312
mil@@ 14300
appear 14298
pal@@ 14296
sters 14296
lin 14293
yed 14289
whether 14282
friends 14274
Centre 14271
draw 14269
levels 14267
places 14261
function 14257
newspaper 14257
Francisco 14253
Mel@@ 14253
ust@@ 14245
leave 14244
amount 14243
grew 14240
nature 14233
channel 14232
Ir@@ 14229
acting 14221
ailed 14218
door 14214
positive 14209
Jud@@ 14207
ises 14204
products 14192
Governor 14186
Vol@@ 14180
scre@@ 14164
cross 14160
edly 14159
historic 14147
sions 14140
1990s 14138
broad@@ 14136
security 14126
growth 14125
Cha@@ 14122
Ha@@ 14119
ris 14111
Boston 14105
Republican 14104
achie@@ 14102
awa 14102
aya 14101
Young 14093
fort@@ 14083
produce 14079
exclu@@ 14072
Ti@@ 14062
univers@@ 14059
week@@ 14054
renamed 14048
ional 14046
households 14044
cast@@ 14037
Go@@ 14022
med@@ 14020
lives 14015
Vi@@ 14007
makes 14007
avi@@ 14002
projects 13993
assigned 13991
och@@ 13986
aka 13977
whole 13973
Scottish 13968
clear 13966
Williams 13963
lock 13955
imm@@ 13954
onom@@ 13954
M. 13951
cru@@ 13950
ells 13949
call 13947
hold 13947
Asia 13927
ives 13920
attrac@@ 13910
Nov@@ 13908
Camp@@ 13905
AR@@ 13904
Fur@@ 13903
lig@@ 13896
stars 13889
activity 13888
vin@@ 13884
No 13882
continue 13880
Israel 13872
oods 13872
she@@ 13871
lack 13865
my@@ 13857
Dor@@ 13851
hospital 13848
Director 13847
build 13846
chart 13838
Sea 13834
44 13830
numbers 13818
label 13815
CD 13813
Da@@ 13812
Polish 13809
Secretary 13808
eigh@@ 13804
parish 13804
ror 13803
AT@@ 13801
J 13784
demonstr@@ 13776
planned 13775
ime 13764
ordin@@ 13764
executive 13759
Sil@@ 13756
Econom@@ 13743
Three 13742
giving 13741
ji 13735
benef@@ 13733
sil@@ 13733
owner 13731
ordered 13729
rig@@ 13725
succ@@ 13723
s. 13722
1960s 13718
officers 13715
entary 13714
mid@@ 13708
Johnson 13706
after@@ 13703
nov@@ 13702
pra@@ 13701
Major 13700
Pat@@ 13698
rule 13698
Sm@@ 13695
sat@@ 13695
emb@@ 13690
conducted 13689
ums 13684
ild 13676
onn@@ 13676
prom@@ 13675
cho@@ 13672
IS@@ 13669
rest@@ 13667
Ko@@ 13662
prominent 13656
whe@@ 13653
wit@@ 13653
intended 13645
179@@ 13644
ounded 13642
Der@@ 13632
je@@ 13620
Columbia 13614
Alexander 13612
Georgia 13600
eter 13596
ool 13588
wa@@ 13588
revol@@ 13587
Fort 13577
Tel@@ 13575
acts 13574
ather 13574
forward 13570
prac@@ 13567
jo@@ 13561
mond 13560
hab@@ 13554
ghts 13550
notable 13543
tain 13531
sent@@ 13527
minor 13525
Lim@@ 13524
ok 13524
Ol@@ 13518
yards 13518
ild@@ 13510
arly 13501
unn@@ 13498
ule 13494
highly 13491
races 13491
nation 13488
impro@@ 13486
youth 13476
bon 13474
19@@ 13459
El 13458
females 13457
ask 13454
eal 13452
Office 13451
eless 13451
stories 13445
Hospital 13430
moving 13427
rev@@ 13423
coast 13420
Rich@@ 13419
letter 13416
dered 13414
fol@@ 13414
agreed 13411
itor 13411
cia 13405
Cam@@ 13404
ora 13400
soldiers 13397
Kh@@ 13393
vey 13388
Highway 13385
removed 13384
stream 13375
Family 13373
commonly 13372
mit@@ 13369
revealed 13369
olution 13365
1962 13362
Ash@@ 13362
pain@@ 13360
Win@@ 13356
vely 13356
Han@@ 13355
box 13352
stop 13348
50@@ 13346
ishes 13342
bar 13336
Super@@ 13330
formerly 13324
join 13323
1948 13322
administration 13321
omb@@ 13321
demic 13318
Middle 13317
aded 13313
1963 13310
Lat@@ 13305
auth@@ 13305
essed 13302
acqu@@ 13301
Avenue 13300
lo 13298
scene 13297
ban@@ 13295
ins@@ 13292
yet 13290
int 13289
eption 13286
itt@@ 13284
33 13283
basis 13269
marine 13267
uss@@ 13266
ancient 13265
strateg@@ 13263
cu@@ 13259
Star@@ 13258
restor@@ 13254
capacity 13244
ral 13240
color 13238
occasi@@ 13238
Do@@ 13233
mod@@ 13228
Ul@@ 13227
designated 13224
My 13220
aks 13219
effects 13206
depend@@ 13204
vic@@ 13203
sites 13201
marked 13197
1942 13192
Super 13187
just@@ 13179
ł@@ 13177
Historic 13174
liz@@ 13174
follows 13173
Bill 13170
As@@ 13169
settlement 13162
loo@@ 13161
enter@@ 13160
travel@@ 13156
distance 13146
nav@@ 13141
investig@@ 13140
hood 13137
treatment 13136
paper 13130
agreement 13128
Sydney 13127
ete 13121
susp@@ 13120
singles 13117
smaller 13113
grade 13111
awards 13110
quickly 13110
itar@@ 13107
News 13104
dedicated 13102
keep@@ 13102
36 13090
Ni@@ 13083
Tal@@ 13080
purchased 13077
ih@@ 13072
Also 13068
fir@@ 13064
floor 13059
bom@@ 13058
Corps 13048
B. 13036
charge 13024
quar@@ 13020
fellow 13019
ink 13019
ified 13017
5th 13015
potential 13015
leaders 13014
sign 13007
ico 13006
ough 13006
add@@ 13003
nation@@ 13001
ole 12991
initial 12989
ody 12981
poss@@ 12980
fur@@ 12973
Tour 12967
bel 12964
drama 12955
hard 12954
yth@@ 12952
RA@@ 12950
ril@@ 12946
1940 12944
manufactur@@ 12940
ask@@ 12936
facilities 12934
Ur@@ 12932
immediately 12925
ader 12915
frequ@@ 12915
dated 12911
oon 12911
Dan@@ 12909
assistant 12900
repe@@ 12898
pt 12897
Coast 12894
defeat 12893
rot@@ 12884
fas@@ 12881
Pres@@ 12880
graduate 12873
itting 12864
Cas@@ 12857
Kal@@ 12857
enh@@ 12857
firm 12855
edi@@ 12854
Ty@@ 12850
Don@@ 12849
ich 12848
ñ@@ 12847
BBC 12845
focus 12842
ection 12841
pass 12839
behavi@@ 12838
respectively 12827
estimated 12818
Ministry 12814
ax 12810
1939 12801
eur 12800
median 12798
1961 12797
radi@@ 12794
May@@ 12792
sla@@ 12789
1941 12788
Kr@@ 12787
acks 12783
winner 12781
expected 12775
alities 12774
lot 12770
tou@@ 12767
Lan@@ 12766
castle 12753
Jack 12752
thir@@ 12745
views 12741
efforts 12736
person@@ 12728
ati 12713
conference 12708
declared 12702
Jersey 12697
Mos@@ 12692
tively 12686
serves 12680
Roman@@ 12677
bas@@ 12671
pursu@@ 12671
All@@ 12663
identified 12663
ela 12662
essor 12662
Air@@ 12660
article 12659
E. 12656
Of 12656
types 12655
Jan@@ 12653
1946 12652
clubs 12650
typically 12649
Little 12648
housing 12647
replac@@ 12647
che@@ 12646
1956 12645
relations 12643
cars 12641
vision 12639
mis@@ 12637
IV 12634
1943 12632
deb@@ 12628
Cast@@ 12626
men@@ 12624
ius 12622
AS@@ 12621
verse 12620
Blue 12612
ancy 12609
poor 12595
compared 12593
da@@ 12590
physical 12585
green 12581
reach 12581
gun 12580
inside 12578
bin@@ 12577
largely 12576
founder 12574
gained 12574
Rob@@ 12571
Dec@@ 12564
requ@@ 12560
Ann@@ 12558
toral 12553
needed 12552
probably 12552
format 12551
Airport 12543
soli@@ 12535
Federal 12532
recogn@@ 12529
percent 12518
cally 12516
stance 12516
Olympic 12509
ming 12505
entry 12503
featuring 12492
flight 12489
esh 12485
S. 12483
aver@@ 12483
influ@@ 12482
asy 12479
Ker@@ 12477
expres@@ 12474
Wat@@ 12473
Victoria 12472
roles 12470
attention 12456
ost 12450
ues 12450
ept@@ 12448
destroyed 12447
34 12445
operating 12445
captured 12442
trial 12441
ple@@ 12440
bal@@ 12439
sin@@ 12438
contro@@ 12434
head@@ 12432
hosted 12430
museum 12430
ier@@ 12427
scale 12427
Illinois 12424
Ven@@ 12424
incorporated 12419
upper 12419
hum@@ 12414
ores 12413
aters 12411
autom@@ 12405
votes 12404
1958 12403
Post 12400
elle 12397
website 12394
affili@@ 12391
bit 12390
oth@@ 12385
ce@@ 12372
elev@@ 12362
bon@@ 12360
Ban@@ 12354
street 12353
branch 12352
Earth 12348
rul@@ 12342
covers 12336
critic@@ 12333
Justice 12329
esc@@ 12329
Ham@@ 12322
gas 12322
lay@@ 12317
Med@@ 12313
aid 12310
committee 12310
Berlin 12309
languages 12289
Op@@ 12283
Rock 12283
ex 12281
cin@@ 12280
Jean 12278
widely 12276
Cat@@ 12275
rup@@ 12274
distribution 12273
1950 12271
paid 12267
voted 12267
Bat@@ 12266
H. 12265
crew 12265
sources 12261
W. 12245
mixed 12241
posed 12241
38 12240
confirmed 12240
piece 12240
communities 12239
ona 12238
portion 12237
suffered 12233
6th 12230
online 12227
accepted 12214
Scott 12208
dicine 12201
direction 12200
occurred 12200
Mount 12199
nel 12197
computer 12187
leadership 12187
depic@@ 12184
cell 12183
Fi@@ 12174
ything 12173
spring 12168
Jer@@ 12163
ranked 12162
represent@@ 12162
ances 12159
Each 12153
leaves 12152
semi 12145
fication 12143
meet 12139
ulation 12139
Frank 12134
combined 12133
yan 12133
colle@@ 12132
pay 12131
scoring 12128
ologist 12124
miles 12118
Mas@@ 12114
son@@ 12109
trac@@ 12102
estate 12100
territory 12096
taught 12095
exper@@ 12092
metal 12090
Tar@@ 12089
adopted 12088
mel@@ 12087
BS 12083
Supreme 12083
episodes 12082
Iran 12079
academic 12078
aching 12078
fund@@ 12078
Ran@@ 12077
uit 12075
reflec@@ 12070
Mid@@ 12064
stant 12063
job 12061
Corporation 12057
oke 12057
Mun@@ 12055
conf@@ 12053
1947 12047
Rep@@ 12046
keep 12040
Hen@@ 12033
product 12033
Kong 12030
ason 12029
Lo@@ 12025
uments 12023
FM 12011
recognized 12007
Elizabeth 12001
sever@@ 12000
therefore 11993
thous@@ 11992
fron@@ 11991
fell 11980
plants 11979
1957 11978
Massachusetts 11978
concept 11969
ota 11967
ide@@ 11958
Hong 11956
own@@ 11953
SR 11944
ush 11944
tery 11940
Islands 11939
mentioned 11938
approach 11936
bran@@ 11936
pressure 11933
AC@@ 11931
resulted 11923
code 11922
Korea 11921
teacher 11915
1959 11914
felt 11912
Before 11911
mann 11900
camp 11896
reviews 11887
mass 11883
zer@@ 11880
equipment 11876
Bab@@ 11867
ple 11863
plat@@ 11860
7th 11859
compar@@ 11859
ograph@@ 11856
bishop 11855
alone 11854
alty 11850
acted 11848
itic 11843
titles 11843
purpose 11837
arg@@ 11832
ea 11830
Sports 11828
analysis 11823
prison 11813
dance 11810
ben@@ 11808
viewed 11807
nominated 11803
commissioned 11798
campus 11795
37 11792
tac@@ 11790
1952 11777
concent@@ 11777
ult@@ 11773
recently 11765
heart 11761
critical 11747
Time 11745
tain@@ 11744
urban 11743
ects 11741
ik 11739
Jam@@ 11738
encour@@ 11738
respon@@ 11737
conserv@@ 11730
presence 11729
Tu@@ 11727
è@@ 11726
rating 11724
expanded 11718
ou 11718
arms 11717
mig@@ 11716
develop@@ 11715
Nic@@ 11712
mut@@ 11698
advis@@ 11693
method 11693
Whit@@ 11692
yr@@ 11689
rail@@ 11686
48 11682
champion 11680
gel 11679
q 11677
Stadium 11675
low@@ 11673
albums 11671
Ang@@ 11659
enced 11655
Fran@@ 11652
aked 11647
pot@@ 11645
silver 11639
platform 11638
store 11636
connected 11629
jud@@ 11628
cra@@ 11623
42 11622
Duke 11622
kin@@ 11622
account 11621
Born 11618
Liber@@ 11614
forc@@ 11612
gin 11608
spi@@ 11606
interpre@@ 11603
casting 11602
fran@@ 11599
parties 11589
Bishop 11580
ayed 11580
Background 11579
ices 11578
ume 11569
Dre@@ 11565
zz@@ 11565
Professor 11563
pping 11558
Tom 11557
Chap@@ 11555
Swedish 11555
crow@@ 11555
Hal@@ 11550
1955 11545
Pa@@ 11544
amed 11541
offers 11541
deci@@ 11540
secondary 11540
Thro@@ 11537
granted 11533
buried 11530
ys@@ 11523
ods 11521
ached 11519
Met@@ 11518
Cer@@ 11517
aling 11515
Prot@@ 11514
remain 11512
content 11511
hur@@ 11510
sey 11509
R. 11507
lined 11505
Top 11499
fru@@ 11496
eded 11487
Home 11486
xed 11483
struc@@ 11479
Police 11478
fast 11477
say 11477
rit 11476
Santa 11471
Spe@@ 11469
voice 11466
ria 11456
difficult 11455
Prime 11453
Juli@@ 11452
birth 11449
cau@@ 11445
compil@@ 11445
losing 11444
Cross 11435
except 11435
immig@@ 11433
tax@@ 11432
Mich@@ 11422
signific@@ 11422
oes 11418
Hav@@ 11417
burg 11417
1949 11411
knowledge 11410
mouth 11410
versions 11410
growing 11409
Dou@@ 11396
gets 11393
solo 11387
Library 11386
minister 11381
literature 11375
Pakistan 11373
ems 11370
incre@@ 11363
diss@@ 11362
organizations 11362
hydro@@ 11359
reduced 11357
usi@@ 11357
Mov@@ 11355
newly 11354
tural 11350
Atlantic 11344
1954 11338
ults 11337
Sab@@ 11334
rif@@ 11334
appar@@ 11331
deli@@ 11331
sav@@ 11330
Sem@@ 11314
vention 11312
Geography 11311
Rev@@ 11310
Spec@@ 11310
Joe 11309
dence 11305
Don 11301
rules 11301
Final 11300
minute 11295
defined 11294
Out@@ 11292
tree 11283
painting 11282
bing 11278
udi@@ 11275
De 11273
disease 11268
onents 11267
models 11265
Sel@@ 11263
identif@@ 11263
damage 11260
sy@@ 11259
digital 11249
performances 11249
pop 11249
ott 11242
rh@@ 11242
ables 11235
sides 11235
wa 11235
fields 11230
bet@@ 11229
spread 11228
strug@@ 11228
density 11227
lie 11219
Clar@@ 11216
icient 11216
Mark@@ 11210
gh 11208
asp@@ 11207
promot@@ 11206
background 11203
surname 11203
ern 11194
rates 11193
Jackson 11190
She@@ 11186
offer 11185
Toronto 11183
inspired 11182
resulting 11182
recomm@@ 11181
mountain 11177
ón 11177
enter 11171
ouse 11170
ides 11168
problem 11166
Pic@@ 11158
Brazil 11151
bution 11151
pul@@ 11150
sens@@ 11150
tax 11150
comedy 11148
laws 11146
Ontario 11144
Colle@@ 11142
ific@@ 11142
quarter 11138
mes 11133
suggested 11125
Bus@@ 11116
true 11112
oting 11108
inner 11096
The@@ 11095
couple 11095
184@@ 11086
55 11086
faced 11082
existing 11080
work@@ 11079
Rome 11073
lov@@ 11064
figure 11063
twice 11060
creation 11059
seats 11059
boo@@ 11055
liber@@ 11051
accoun@@ 11050
3,@@ 11047
MS 11047
1953 11043
Shar@@ 11043
dig@@ 11043
gan 11043
Den@@ 11041
continues 11039
Lev@@ 11036
gest@@ 11033
tains 11033
males 11030
uf@@ 11030
sculp@@ 11029
colum@@ 11026
AC 11025
emer@@ 11022
generation 11016
travel 11015
izing 11013
sport 11013
elt 11007
high@@ 11006
ign 11002
obtained 11002
allows 11000
any@@ 10998
Bridge 10997
Premier 10995
disp@@ 10993
share 10993
Media 10992
Crit@@ 10983
Vis@@ 10983
prop@@ 10983
CO@@ 10972
chairman 10971
rich 10963
Nations 10962
complet@@ 10962
arts 10961
contemporary 10955
collabor@@ 10954
aim@@ 10948
ear 10948
lers 10948
rie 10943
1951 10940
Social 10937
Dr@@ 10933
priv@@ 10930
itted 10926
twenty 10924
Military 10920
uth 10919
association 10916
Stud@@ 10915
Raj@@ 10912
develop 10911
8th 10910
get@@ 10910
providing 10910
Arthur 10904
kept 10903
sus 10899
festival 10895
successfully 10894
ood@@ 10892
š@@ 10890
view@@ 10887
Ah@@ 10886
actually 10883
Gil@@ 10876
Cop@@ 10875
alli@@ 10874
sian 10872
showed 10867
Univers@@ 10866
surrounding 10862
Korean 10861
Show 10857
1938 10856
lake 10855
yl 10852
necessary 10849
modi@@ 10847
Township 10846
Tom@@ 10844
anding 10843
cells 10842
mont 10841
1918 10840
finish 10820
Dep@@ 10818
ila 10818
split 10818
law@@ 10817
teaching 10816
Arab@@ 10815
Pur@@ 10813
guitar 10807
Kan@@ 10805
P. 10802
sa 10799
feet 10798
officials 10798
41 10796
orders 10795
ior 10792
eting 10787
plac@@ 10786
Game 10783
ua 10777
Philadelphia 10776
forest 10774
Fer@@ 10769
1936 10766
han@@ 10753
becomes 10751
ique 10751
rank 10745
occupied 10744
canc@@ 10742
effort 10742
tured 10742
recover@@ 10741
win@@ 10740
Ren@@ 10739
boat 10737
9th 10733
tried 10729
zen 10726
Ju@@ 10724
exam@@ 10722
sets 10721
depar@@ 10720
USA 10718
arrested 10713
Me 10712
ily 10710
authorities 10708
Sher@@ 10705
claims 10705
ous@@ 10705
politics 10705
uts 10704
ound@@ 10697
aining 10696
Regiment 10692
alion 10688
dia 10687
injury 10684
mile 10682
boy 10678
Serb@@ 10674
billion 10672
Over 10671
300 10670
‘ 10668
les@@ 10666
Oc@@ 10664
Because 10660
Book 10660
receive 10660
alists 10655
aps 10654
Not@@ 10650
Loc@@ 10646
allowing 10646
situated 10638
Os@@ 10626
asing 10622
span 10622
minim@@ 10617
tual 10617
Mart@@ 10612
figh@@ 10611
Wilson 10606
178@@ 10603
aw 10603
wer@@ 10603
ancing 10600
tific@@ 10597
Billboard 10596
versi@@ 10596
wise 10596
experim@@ 10594
regions 10594
tower 10594
lis 10589
sively 10589
Pap@@ 10582
unique 10581
1920 10579
Among 10576
gives 10574
itable 10573
mess@@ 10569
rison 10567
ig 10562
mur@@ 10561
dead 10560
du 10559
lob@@ 10557
athlet@@ 10556
alized 10552
attacks 10550
opposed 10550
Long 10549
owing 10547
Mr. 10541
ée 10540
greater 10537
tradition 10536
block 10534
tial 10527
ema 10526
sixth 10526
special@@ 10526
implem@@ 10519
hour 10518
Sand@@ 10516
39 10511
younger 10511
villages 10508
fle@@ 10507
impact 10500
anced 10498
ign@@ 10497
opposition 10496
Af@@ 10491
eling 10491
stood 10491
captain 10490
goes 10488
ine@@ 10488
Captain 10486
ural 10486
blue 10485
visit 10483
forming 10482
dark 10478
interview 10476
sales 10476
sit 10476
cid@@ 10471
Cri@@ 10470
micro@@ 10464
Sweden 10463
applied 10462
ox 10460
ike 10458
Democ@@ 10456
Sun 10454
ren 10449
Community 10447
pap@@ 10447
gene 10446
Kir@@ 10441
gle 10439
traffic 10438
reli@@ 10437
facility 10436
Netherlands 10431
broke 10431
din@@ 10431
folk 10428
Lady 10426
47 10422
restric@@ 10422
Bir@@ 10418
succeeded 10413
onic 10412
Fu@@ 10411
400 10408
Technology 10408
arity 10407
cas@@ 10405
contrac@@ 10398
dom@@ 10398
Cour@@ 10395
che 10394
metres 10391
borough 10390
employed 10384
occer 10382
dae 10379
Over@@ 10375
bes 10374
hall 10374
Cub@@ 10372
figures 10367
ova 10360
Port 10358
ographic 10356
scientific 10356
deep 10349
headquarters 10349
Between 10345
Sus@@ 10345
drawn 10344
opped 10343
Bet@@ 10341
effective 10334
oring 10330
ille 10328
rist@@ 10327
Like 10324
theatre 10323
Oxford 10319
associ@@ 10316
ko 10307
serv@@ 10301
Dur@@ 10299
bus@@ 10295
inten@@ 10295
itude 10293
gres@@ 10292
Register 10290
claim 10290
Daniel 10289
administ@@ 10284
propos@@ 10284
brothers 10280
1937 10279
climate 10279
software 10279
Sum@@ 10273
1950s 10269
library 10268
approved 10261
bought 10260
explo@@ 10259
nin@@ 10259
risk 10258
baseball 10253
Death 10252
cannot 10251
ears 10248
qualified 10248
Emperor 10247
fare 10246
ø@@ 10246
says 10244
Batt@@ 10241
governor 10240
Red@@ 10234
Hi@@ 10228
electric 10227
Maria 10224
know 10223
promotion 10223
commander 10222
owns 10220
critics 10218
tells 10217
gn@@ 10216
mal@@ 10216
aly@@ 10211
Bol@@ 10210
illustr@@ 10210
kind 10210
classes 10203
Medical 10200
Andrew 10197
Indon@@ 10191
oral 10188
look 10186
squad 10186
ray 10183
Sav@@ 10181
Due 10177
ero 10176
returning 10168
ender 10167
blood 10157
Z 10156
belong@@ 10155
oy 10152
brand 10150
drive 10145
settled 10143
Moh@@ 10139
But@@ 10137
core 10136
Field 10134
trains 10132
Luc@@ 10128
completely 10128
Q 10124
Special 10123
fres@@ 10119
rob@@ 10119
simply 10118
image 10115
fighting 10111
round@@ 10111
Taylor 10109
Haw@@ 10106
1919 10104
environment 10104
anian 10096
read 10096
advanced 10094
ext 10093
Black@@ 10091
ado 10088
oma 10085
Municip@@ 10081
big 10073
achieved 10071
rooms 10066
visited 10062
Americans 10057
Tim@@ 10051
Golden 10047
Castle 10046
Business 10043
clu@@ 10043
ingu@@ 10037
perc@@ 10037
49 10034
tit@@ 10033
ali 10032
drew 10029
mom@@ 10028
Rock@@ 10027
kins 10026
situation 10026
sli@@ 10026
advert@@ 10025
And 10023
industrial 10022
cycl@@ 10016
Arm@@ 10015
gency 10015
rise 10015
enjo@@ 10008
desc@@ 10006
Mike 10000
sk 10000
Le 9996
edral 9995
Mountain 9994
° 9994
ech@@ 9993
gers 9993
materials 9993
frequently 9991
Van 9990
95 9986
authority 9985
analy@@ 9984
Press 9980
illa 9980
omm@@ 9979
Land@@ 9976
kes 9976
bour@@ 9969
rati@@ 9969
olved 9966
43 9952
oldest 9949
destro@@ 9948
Ret@@ 9947
joining 9943
pris@@ 9942
D. 9938
actress 9937
ni@@ 9937
publication 9937
tory 9937
ision 9935
something 9935
reports 9934
52 9932
una 9931
atures 9928
chosen 9927
arti@@ 9918
sexual 9917
Classi@@ 9916
proce@@ 9916
restaur@@ 9916
BA 9910
Mem@@ 9908
op 9906
Est@@ 9903
holds 9902
bute 9900
mand@@ 9898
Francis 9896
advoc@@ 9892
pi@@ 9890
tier 9890
supply 9889
iss 9884
oration 9884
sty@@ 9883
.C. 9880
murder 9880
dates 9879
merged 9877
relatively 9876
refused 9873
credited 9871
ju@@ 9869
Several 9868
dit 9867
Chris 9864
venue 9863
things 9862
Four 9859
essing 9857
sportation 9856
olf 9854
illery 9853
een 9851
conclu@@ 9849
nor 9848
Cel@@ 9846
stein 9846
Fo@@ 9845
Ken@@ 9841
od 9840
shop 9837
household 9835
swe@@ 9835
orts 9834
ressed 9834
eller 9827
ham@@ 9825
pay@@ 9821
Dev@@ 9814
histor@@ 9814
Circ@@ 9806
1930 9803
rian 9801
Hay@@ 9797
hop@@ 9793
Geor@@ 9789
racing 9789
ump 9789
stock 9786
Vir@@ 9782
boys 9777
fly 9777
idd@@ 9777
saf@@ 9776
eme 9770
Ass@@ 9769
AA 9768
creating 9766
distingu@@ 9766
ied 9761
Cent@@ 9759
foot 9756
esia 9755
aus@@ 9751
touch@@ 9748
bring 9747
victi@@ 9747
hat@@ 9742
friend@@ 9736
Il@@ 9735
1933 9729
fans 9728
Master 9727
transport 9724
num@@ 9722
starring 9722
40@@ 9720
Art@@ 9712
swit@@ 9710
fted 9707
Hur@@ 9706
Today 9702
concert 9699
theme 9696
audi@@ 9695
18th 9693
begins 9693
joint 9692
46 9691
Junior 9688
Boo@@ 9685
Str@@ 9682
consisted 9679
66 9675
perform 9671
focused 9670
conflict 9667
dom 9666
ō@@ 9664
notes 9662
Bon@@ 9660
challeng@@ 9660
ales 9658
coh@@ 9657
winter 9657
Federation 9656
elect@@ 9656
owers 9655
sta 9655
1914 9654
ames 9651
founding 9651
CD@@ 9648
by@@ 9648
otyp@@ 9647
scheduled 9647
1917 9645
onent 9640
Bos@@ 9639
methods 9636
Corn@@ 9635
Plot 9635
racy 9635
Davis 9627
ission@@ 9625
principal 9624
temporary 9623
bloc@@ 9620
Gul@@ 9606
Prize 9602
missed 9601
lie@@ 9600
selling 9599
performing 9597
ze@@ 9597
agent 9594
origin 9593
poli@@ 9593
11@@ 9592
beat 9587
presents 9587
FL 9585
custom@@ 9585
path@@ 9583
begin 9582
negoti@@ 9580
receiving 9576
inj@@ 9570
safety 9570
ility 9569
utes 9569
ost@@ 9568
unable 9568
By@@ 9567
articles 9565
Donald 9564
transfer 9562
1935 9559
subur@@ 9556
inary 9551
roads 9548
audience 9546
Bob 9544
exchange 9544
fought 9543
dur@@ 9542
85 9540
attempted 9540
Beach 9535
research@@ 9532
ais@@ 9531
retirement 9528
vice 9528
Gran@@ 9527
ight@@ 9527
districts 9525
pair 9522
sequence 9520
Cham@@ 9518
prevent 9512
á 9510
follow 9506
ining 9506
FA 9505
Princ@@ 9505
attacked 9501
rey 9499
Ele@@ 9498
normal 9498
girls 9497
clo@@ 9495
Rod@@ 9494
fic@@ 9494
zi@@ 9491
ocese 9487
ont@@ 9487
camp@@ 9483
Av@@ 9481
Network 9481
structures 9481
EP 9475
hard@@ 9475
subsequent 9475
economy 9468
Minnesota 9455
reason 9452
51 9446
partner 9445
jur@@ 9444
origin@@ 9444
Nar@@ 9441
ades 9440
mann@@ 9439
Coll@@ 9438
dies 9434
setting 9433
Journal 9431
prise 9431
cycle 9430
reference 9421
Mexican 9420
photograph@@ 9417
architecture 9413
tropical 9412
kin 9411
Region 9409
Eur@@ 9404
expansion 9404
towns 9404
write 9404
morning 9402
Tw@@ 9399
shared 9398
uz@@ 9398
daily 9396
Kansas 9394
loan 9390
ras@@ 9390
temple 9390
minist@@ 9386
defense 9385
clin@@ 9376
dropped 9376
cian 9375
thesis 9371
employ@@ 9368
machine 9367
fif@@ 9366
converted 9365
thin 9365
Ku@@ 9354
Rober@@ 9353
non@@ 9353
box@@ 9352
foc@@ 9352
Slov@@ 9351
System 9350
oo 9348
Flor@@ 9343
dre@@ 9342
journ@@ 9341
1928 9340
Kur@@ 9339
NCAA 9337
Reception 9336
determined 9336
Bou@@ 9333
PA 9333
unknown 9331
Bas@@ 9329
protection 9328
use@@ 9327
econom@@ 9324
mers 9316
formal 9314
bil@@ 9313
Hum@@ 9311
launch 9308
entitled 9307
SP@@ 9300
Forest 9292
Inc. 9292
beau@@ 9290
tha 9290
Missouri 9289
Tru@@ 9289
animals 9289
NFL 9288
representing 9284
cel@@ 9281
fiction 9277
permanent 9272
impres@@ 9271
Steve 9269
L. 9261
ety 9261
girl 9261
shortly 9259
arran@@ 9256
increasing 9256
erv@@ 9254
han 9254
án 9254
mathemati@@ 9253
bered 9245
entation 9244
astic 9239
grounds 9238
crime 9236
54 9231
presidential 9231
na@@ 9226
ynasty 9226
dian 9224
sense 9224
kers 9222
Jr 9221
volume 9219
pow@@ 9218
Mot@@ 9217
spar@@ 9215
eness 9214
Melbourne 9213
istics 9211
ield 9207
Description 9205
fli@@ 9205
attempts 9203
influenced 9200
Mus@@ 9198
big@@ 9198
AI@@ 9197
educational 9195
diag@@ 9193
trees 9192
engineering 9190
copies 9185
derived 9185
emerg@@ 9185
1929 9184
č@@ 9181
ilian 9178
isher 9178
elimin@@ 9174
seg@@ 9173
1934 9172
spok@@ 9172
water@@ 9172
Lewis 9168
Area 9161
ultimately 9159
Co 9156
present@@ 9155
ram 9154
Gold 9152
correspon@@ 9147
Moscow 9140
guest 9138
them@@ 9137
hin@@ 9136
vehicles 9136
ace@@ 9135
ç@@ 9133
stay 9130
greg@@ 9129
FI@@ 9127
Patri@@ 9125
trav@@ 9125
ultural 9125
chem@@ 9124
bronze 9118
represent 9117
e.g. 9115
Soci@@ 9114
Fox 9108
ato 9108
Fal@@ 9107
citizens 9106
utional 9106
parti@@ 9101
properties 9099
ester 9098
Memorial 9096
Jim 9093
birds 9091
IC@@ 9090
writ@@ 9089
Pau@@ 9088
extensive 9087
highway 9087
ditionally 9086
ulated 9083
cancer 9081
global 9080
rier 9080
ment@@ 9077
prison@@ 9070
Night 9069
airport 9068
constituency 9068
Dal@@ 9061
Gor@@ 9061
vil 9060
resources 9058
contributed 9053
maximum 9053
Power 9050
fort 9050
tra 9049
ager 9048
mayor 9048
containing 9047
eter@@ 9041
Is 9039
learning 9037
onto 9037
Muslim 9036
attri@@ 9035
Lor@@ 9033
powerful 9030
coordin@@ 9029
centuries 9028
simple 9024
Gir@@ 9023
Eth@@ 9022
meant 9020
recru@@ 9016
edge 9014
pieces 9013
ello 9011
62 9009
Stephen 9009
tif@@ 9008
Tit@@ 9006
Turkish 9002
Hom@@ 9001
flow 9000
Sunday 8997
tt@@ 8993
Direc@@ 8992
Queensland 8991
hockey 8990
Country 8988
fa@@ 8988
itz 8983
usual 8978
peace 8977
responsi@@ 8973
Live 8972
Wisconsin 8972
laid 8972
CA 8971
North@@ 8971
wings 8971
alg@@ 8968
institutions 8964
drug 8963
ecture 8963
guns 8961
passing 8952
dest@@ 8948
Sen@@ 8947
application 8944
card 8944
controlled 8941
ject 8934
ken 8931
locations 8931
Sciences 8928
UN@@ 8926
pil@@ 8926
More 8923
63 8921
sector 8918
phase 8917
decre@@ 8916
alt 8914
oot 8907
vac@@ 8905
hands 8904
Ta@@ 8903
farm 8900
chron@@ 8897
miss@@ 8897
iers 8893
MA 8889
reser@@ 8889
1924 8886
Cape 8883
substan@@ 8883
walls 8880
i.e. 8879
domestic 8876
offices 8874
headed 8873
Lam@@ 8872
burn 8865
holding 8865
memory 8865
star@@ 8865
transm@@ 8865
Project 8864
sle@@ 8864
sought 8863
distinc@@ 8862
func@@ 8859
vehicle 8859
rat 8858
jects 8855
armed 8854
1932 8852
slightly 8852
Television 8851
sust@@ 8846
thy 8846
Hun@@ 8845
Stra@@ 8844
threat@@ 8843
mary 8842
identity 8839
200@@ 8838
documentary 8838
beyond 8837
arc@@ 8835
condition 8833
gate 8833
ights 8829
1912 8826
inaug@@ 8826
temperature 8824
99 8823
Vietnam 8820
cover@@ 8814
Sau@@ 8813
Song 8811
establishment 8811
Turkey 8810
LA 8802
developing 8801
Ath@@ 8800
dor@@ 8797
Production 8794
letters 8792
Bow@@ 8791
recognition 8791
Cambridge 8789
67 8788
supporting 8787
yellow 8783
Prior 8782
zone 8781
liamentary 8780
expressed 8777
Tennessee 8776
coast@@ 8775
Bran@@ 8772
cket 8772
search 8770
ingham 8769
liter@@ 8768
rain 8768
bab@@ 8765
reasons 8765
invited 8763
Norway 8762
odi@@ 8760
53 8758
Histor@@ 8757
iter@@ 8756
proved 8756
ō 8751
56 8749
funding 8748
rail 8748
Indiana 8743
gress 8743
lyrics 8743
uni@@ 8737
ba 8736
consecutive 8731
essions 8731
height 8729
hill 8727
Organ@@ 8726
1922 8723
educated 8722
matter 8722
mu@@ 8722
aste 8721
Philippines 8719
ternal 8719
Point 8718
61 8717
candidates 8716
Pun@@ 8715
glass 8715
producing 8713
Khan 8712
umes 8712
want 8711
abol@@ 8707
occurs 8705
aki 8702
Upon 8696
ky 8696
Jews 8692
foot@@ 8691
outs 8689
SA 8688
eo 8688
horse 8688
Christmas 8685
suit 8684
rements 8681
doing 8680
Bah@@ 8677
alog@@ 8677
ud 8674
functions 8671
technical 8671
hotel 8669
screen 8668
Manchester 8667
rugby 8666
1927 8664
suppor@@ 8664
omet@@ 8660
anic 8658
Def@@ 8657
abandoned 8655
contained 8655
Mol@@ 8653
brown 8652
aware 8650
finishing 8650
oured 8650
bodies 8645
Ever@@ 8644
Auth@@ 8641
1921 8640
G. 8640
writers 8640
bands 8639
Techn@@ 8636
Native 8633
68 8630
57 8629
agre@@ 8628
pers@@ 8627
F. 8625
yers 8625
Hind@@ 8620
erg@@ 8619
factory 8619
sus@@ 8619
journalist 8617
looking 8617
Labour 8616
Swiss 8616
Services 8613
needs 8612
speech 8612
Gh@@ 8607
illing 8607
anz@@ 8601
contact 8599
independence 8598
Notable 8597
new@@ 8597
72 8596
eu@@ 8595
anch@@ 8593
tern 8586
MP 8583
tan@@ 8582
bound 8581
Lei@@ 8579
Hot 8576
patients 8568
category 8567
1925 8565
bir@@ 8565
Land 8561
Maryland 8561
judge 8560
Green@@ 8553
ian@@ 8553
bill 8552
Affairs 8549
refers 8549
investigation 8548
there@@ 8546
1926 8545
1931 8544
fleet 8543
Hamp@@ 8542
hion 8541
architect 8537
negative 8535
Class 8534
NA 8534
rying 8532
tom@@ 8532
4,@@ 8525
violence 8525
planning 8523
Arizona 8520
ease 8519
mine 8519
royal 8519
Norwegian 8514
nic@@ 8508
Portuguese 8505
Building 8504
combat 8504
ove 8503
existence 8502
ul 8499
alternative 8497
COVID 8496
Then 8495
Harry 8493
ceremony 8492
Studies 8491
Lt@@ 8489
Ca@@ 8485
decades 8485
instruc@@ 8480
reaching 8479
eer 8475
abinet 8474
organis@@ 8471
Nag@@ 8470
gressive 8467
roman@@ 8467
operate 8465
sh 8464
archit@@ 8460
neigh@@ 8459
Channel 8458
maintained 8457
motion 8457
58 8453
utions 8452
Pot@@ 8449
Rang@@ 8449
akers 8449
fiel@@ 8449
decor@@ 8447
empl@@ 8447
NS@@ 8443
ption 8441
DC 8435
otic 8433
Tournament 8431
resigned 8431
multi 8430
ped@@ 8430
stro@@ 8430
fest@@ 8428
lion 8425
Sn@@ 8423
1923 8420
basic 8416
achers 8410
every@@ 8410
Fle@@ 8406
nership 8406
Ky@@ 8404
ation@@ 8402
mus@@ 8402
composer 8400
var@@ 8399
literary 8397
Tun@@ 8396
herself 8396
mal 8394
Oregon 8393
wer 8392
Beng@@ 8391
ni 8391
Rus@@ 8388
Infantry 8383
shape 8383
recei@@ 8381
eval 8379
regarding 8379
contin@@ 8377
Armen@@ 8376
Austria 8376
mul@@ 8375
specifically 8365
Rem@@ 8359
embl@@ 8358
junior 8355
Colorado 8354
honor 8354
hired 8353
gam@@ 8352
rear 8351
Kon@@ 8350
convic@@ 8350
1910 8349
installed 8348
abilities 8343
chan@@ 8340
enemy 8340
Clin@@ 8337
â@@ 8335
Men@@ 8332
neg@@ 8328
counter@@ 8327
establish 8325
author@@ 8324
Lou@@ 8322
trained 8322
rau@@ 8321
gender 8320
Foreign 8319
clim@@ 8317
Walter 8316
risis 8312
ept 8311
exhibition 8307
Kam@@ 8306
shaped 8305
Brun@@ 8304
circul@@ 8304
event@@ 8302
sponsor@@ 8302
ane@@ 8300
owners 8300
straight 8295
contri@@ 8292
Entertainment 8290
observed 8290
secretary 8287
cut@@ 8286
Ali 8285
lets 8285
rele@@ 8285
1916 8278
References 8275
phy 8274
collected 8273
ister 8271
fuel 8269
extrem@@ 8264
stating 8264
zes 8264
Representatives 8263
connection 8262
nuclear 8259
utionary 8259
classical 8258
registered 8257
ami 8254
argued 8254
junction 8253
pilot 8253
ty@@ 8253
correc@@ 8252
display 8252
eled 8252
symp@@ 8250
69 8249
fer 8248
roll 8246
1915 8245
Revolution 8244
inking 8244
ulti@@ 8239
wins 8232
sac@@ 8223
Sri 8222
passes 8222
ruled 8221
bow@@ 8220
iversary 8217
OS 8216
athan 8204
funds 8203
contribut@@ 8202
film@@ 8196
ER@@ 8190
Medal 8189
affected 8188
camer@@ 8188
unk@@ 8186
worldwide 8186
Places 8184
1900 8183
pick@@ 8182
dens 8180
Nich@@ 8179
Human 8178
Jon@@ 8178
bit@@ 8178
86 8175
About 8175
someone 8175
guid@@ 8174
Bay@@ 8172
Switzerland 8171
plane 8170
representative 8168
Pow@@ 8167
scenes 8167
Political 8166
finds 8164
jan 8164
religion 8163
Census 8161
Holy 8154
exist 8154
perf@@ 8154
scrip@@ 8154
Albert 8153
opin@@ 8149
lex@@ 8147
Produc@@ 8143
59 8140
Yor@@ 8139
Dam@@ 8134
Dom@@ 8134
Winter 8133
Ba@@ 8132
therap@@ 8132
entrance 8131
poly@@ 8131
abad 8130
communic@@ 8128
etc 8126
question 8125
emed 8124
mitted 8123
Egypt 8121
serious 8121
where@@ 8121
heard 8117
occur 8117
promote 8116
heavily 8115
Ford 8113
dale 8113
Broad@@ 8110
duction 8107
engaged 8107
tun@@ 8097
wei@@ 8097
Zh@@ 8095
profit 8094
Gam@@ 8092
importance 8092
T. 8090
marks 8090
offs 8089
protein 8089
ible 8086
orting 8086
deploy@@ 8084
iron 8084
statist@@ 8082
cust@@ 8081
altern@@ 8080
inher@@ 8079
short@@ 8079
eals 8077
Es@@ 8074
Domin@@ 8073
avoid 8073
bad@@ 8073
eup 8068
enth@@ 8067
regarded 8067
ía 8066
announ@@ 8064
* 8062
Islamic 8062
choice 8062
Head 8061
eph@@ 8061
erous 8061
77 8059
wich 8058
lon@@ 8056
mach@@ 8054
sia 8052
carry 8051
fal@@ 8051
SE@@ 8050
aten 8050
vin 8050
Mir@@ 8048
meters 8047
statement 8046
Singapore 8044
Arab 8043
Only 8037
inhabitants 8036
Miller 8035
composition 8034
thers 8034
177@@ 8033
ti 8031
failure 8026
Though 8025
Design 8024
oner 8024
vest@@ 8023
pass@@ 8022
northeast 8017
Pope 8014
What 8014
poses 8014
bey 8010
ugh@@ 8010
ag 8008
Management 8007
Earl 8006
Writ@@ 8005
tie 8003
roof 7998
objec@@ 7997
aying 7996
onian 7996
ks@@ 7993
pack@@ 7992
poet 7992
South@@ 7987
Stor@@ 7986
corpor@@ 7984
selection 7984
poetry 7978
volunte@@ 7977
dings 7976
programme 7974
song@@ 7974
price 7970
less@@ 7966
incident 7965
internal 7965
observ@@ 7965
stab@@ 7965
Angel@@ 7963
AD 7961
Cu@@ 7961
bor 7960
consisting 7959
powers 7957
unt 7956
improve 7953
storm 7951
praised 7949
concluded 7945
Wood@@ 7944
woo@@ 7944
Security 7943
hau@@ 7943
opping 7942
think 7942
arily 7941
ditions 7941
enge 7939
Member 7938
Wol@@ 7938
toward 7938
eng 7937
programming 7935
1930s 7934
eton 7931
itz@@ 7926
long@@ 7924
Miss 7921
insi@@ 7918
stadium 7917
nes 7916
compete 7914
esh@@ 7914
Mul@@ 7911
Brad@@ 7910
ogs 7910
É@@ 7909
crimin@@ 7908
page 7903
spot 7897
session 7895
sections 7894
Howard 7892
bi 7892
Cru@@ 7891
invasion 7890
17th 7887
stead 7886
High@@ 7885
adult 7882
chair 7881
taining 7881
German@@ 7880
Youth 7879
driver 7879
88 7878
Professional 7878
flo@@ 7878
twelve 7874
agues 7873
arm 7873
gain 7873
load 7873
entirely 7872
ective 7871
inning 7871
aria 7870
homes 7869
71 7868
Regional 7868
Bureau 7860
DS 7859
protect 7858
municipal 7856
rare 7853
arch 7852
weapons 7852
control@@ 7849
Liberal 7845
Main 7842
passenger 7841
Alber@@ 7840
foundation 7839
cident 7838
causing 7837
Temple 7835
Bulgar@@ 7834
target 7831
ahead 7830
diplom@@ 7829
trying 7824
divisions 7823
possibly 7821
agency 7817
eline 7817
users 7817
advance 7815
nec@@ 7815
Forces 7811
insur@@ 7810
reserve 7810
Thus 7809
stru@@ 7807
anna 7805
Square 7804
kill 7803
Dig@@ 7800
scape 7800
1913 7799
Lis@@ 7798
ission 7797
peak 7794
quite 7794
Israeli 7788
Ukraine 7788
closely 7785
Greece 7784
counter 7783
Tony 7782
Vice 7780
Lyn@@ 7779
draft 7779
Croati@@ 7777
Hamilton 7776
Niger@@ 7775
starred 7775
SS 7770
Operation 7766
CC 7764
environmental 7763
aves 7762
cricket 7762
Ay@@ 7761
Cav@@ 7761
demol@@ 7761
Hockey 7758
historian 7758
ere@@ 7756
covery 7754
Free 7751
Kentucky 7750
torate 7750
Az@@ 7746
genous 7746
aths 7745
Ga@@ 7744
starts 7743
TA 7742
Ben 7741
sale 7740
gath@@ 7739
locomot@@ 7737
personnel 7732
effec@@ 7731
rol 7730
Houston 7729
assist 7729
briefly 7728
preser@@ 7725
Typ@@ 7719
ans@@ 7719
premiered 7717
iden@@ 7716
Confeder@@ 7715
pects 7715
charged 7714
standards 7713
calls 7711
believe 7709
steel 7709
pon@@ 7707
Sul@@ 7706
leg 7704
Palest@@ 7703
Bud@@ 7699
employees 7698
animal 7697
Naval 7696
mir@@ 7695
ports 7694
child@@ 7693
opera 7692
On@@ 7689
Brigade 7688
ideas 7684
wind 7684
Jos@@ 7682
favor@@ 7682
78 7680
broken 7676
bann@@ 7675
CE 7674
76 7673
seconds 7669
escape 7664
ogra@@ 7664
Anne 7661
enk@@ 7661
ensi@@ 7661
sing@@ 7658
killing 7657
ushed 7657
empha@@ 7656
oid 7655
aul@@ 7654
row@@ 7652
alled 7650
ori 7650
prising 7650
Senior 7648
improved 7646
accused 7644
substit@@ 7641
northwest 7639
dram@@ 7623
conver@@ 7622
96 7617
AM 7617
uan 7617
ú@@ 7615
design@@ 7614
1911 7613
civili@@ 7613
Rid@@ 7609
sell 7607
equal 7601
CI@@ 7600
corner 7600
81 7599
intel@@ 7597
stands 7597
Oper@@ 7596
aqu@@ 7596
surround@@ 7595
opportunity 7594
chain 7592
oning 7592
Third 7588
Trin@@ 7588
Patrick 7587
diction 7587
predic@@ 7587
user 7587
Administration 7586
agricultural 7586
dam 7586
etime 7586
Rural 7583
Stone 7583
paintings 7583
ror@@ 7577
Vic@@ 7575
seventh 7570
lit@@ 7566
Nam@@ 7565
pose 7563
revi@@ 7563
li 7562
Ale@@ 7561
Ep@@ 7561
entially 7561
describes 7560
Marc@@ 7559
Works 7559
distributed 7558
Lind@@ 7557
ito 7556
regularly 7556
territ@@ 7555
Pu@@ 7553
tries 7548
mist@@ 7547
unk 7545
Engineering 7543
sci@@ 7536
your 7536
ats@@ 7535
Squadron 7532
introduction 7531
rant 7531
phic 7529
Marine 7528
courses 7528
mar 7528
speaking 7528
actu@@ 7527
democ@@ 7524
licens@@ 7522
92 7521
AM@@ 7520
Iowa 7518
injured 7512
Once 7509
refu@@ 7509
mix@@ 7507
umin@@ 7507
Rho@@ 7504
chose 7504
ady 7500
fun@@ 7500
really 7498
16th 7497
other@@ 7492
acter@@ 7487
Ocean 7486
intro@@ 7485
ayne 7483
appropri@@ 7482
rants 7478
issi@@ 7477
mas@@ 7477
covering 7475
stand@@ 7475
residence 7470
extension 7468
utation 7468
emot@@ 7466
Tak@@ 7464
Light 7463
resistance 7463
5,000 7459
gon 7459
Jesus 7456
wave 7456
manufac@@ 7455
Jun@@ 7454
Hotel 7450
Wall@@ 7449
construc@@ 7449
reading 7449
reduce 7446
Brian 7444
fine 7444
gri@@ 7444
istry 7443
Prix 7440
orchest@@ 7439
asks 7435
ele 7435
applications 7432
Simon 7431
weather 7429
dating 7428
pion@@ 7428
valu@@ 7427
ros@@ 7423
haps 7421
values 7420
break@@ 7415
rough@@ 7415
74 7414
I. 7408
Space 7404
bership 7404
filled 7404
iring 7403
Bern@@ 7402
nur@@ 7402
sor 7402
calling 7400
combination 7400
humans 7400
past@@ 7400
step 7399
osed 7397
prem@@ 7397
dry 7396
obs 7394
tex@@ 7394
Champ@@ 7392
gement 7385
Stan@@ 7383
objects 7383
Sat@@ 7382
SC 7379
ules 7378
aur@@ 7377
uty 7377
1908 7376
islands 7375
Bei@@ 7374
print 7374
vel 7369
versy 7364
Samuel 7363
treat@@ 7363
journal 7360
Ara@@ 7359
Colomb@@ 7357
multi@@ 7357
beg@@ 7356
neighborhood 7356
osa 7356
quarter@@ 7355
deleg@@ 7353
rose 7352
cham@@ 7350
quot@@ 7349
ethnic 7345
isol@@ 7344
earliest 7343
exerc@@ 7343
Ci@@ 7340
Leon@@ 7340
mon 7340
phen@@ 7339
diffic@@ 7337
racial 7337
Executive 7336
mind 7335
stages 7332
icide 7331
98 7329
address 7328
stores 7328
aine 7326
Fame 7325
decade 7322
Anderson 7319
Jac@@ 7318
dam@@ 7318
Conc@@ 7317
getting 7317
strength 7316
Braz@@ 7313
atus 7313
ein 7311
lic 7311
advantage 7309
survived 7307
Beau@@ 7303
interior 7303
oundtrack 7301
zo@@ 7301
demand 7297
Danish 7294
debuted 7292
Communist 7291
UC@@ 7289
plus 7288
frame 7286
ologies 7286
Bh@@ 7285
experi@@ 7285
87 7284
rop@@ 7284
causes 7282
Acc@@ 7281
84 7279
Diego 7279
shore 7279
.A. 7277
Water 7277
replace 7276
SC@@ 7275
accur@@ 7271
engineer 7270
PC 7268
strike 7268
factors 7263
organisation 7261
vised 7259
valley 7257
eye 7254
ographics 7254
Pro 7253
southeast 7253
DVD 7252
inces 7252
Pas@@ 7250
mean 7247
olas 7247
Sam 7246
Out 7245
Rol@@ 7244
osph@@ 7244
quant@@ 7244
ancest@@ 7243
renov@@ 7243
sam@@ 7243
83 7239
partnership 7238
oto 7237
Kin@@ 7235
Rad@@ 7235
ords 7235
izes 7234
cred@@ 7233
crete 7233
Rugby 7231
82 7230
experienced 7230
Modern 7226
pool 7224
comb@@ 7223
neur@@ 7223
Wy@@ 7221
cell@@ 7221
discipl@@ 7221
eties 7215
mi 7215
adjacent 7214
aces 7213
Bowl 7209
Commonwealth 7208
interests 7206
Oklahoma 7205
ei 7205
mill 7205
Mayor 7200
Maur@@ 7199
heads 7199
leads 7197
count 7196
Alabama 7192
operates 7191
theastern 7191
mort@@ 7190
singing 7186
signing 7185
theater 7185
Heritage 7183
.com 7181
greatest 7180
K. 7179
document@@ 7179
typical 7179
tot@@ 7176
notably 7175
criminal 7172
Archit@@ 7171
eted 7170
musician 7170
Philip 7166
engines 7165
Tokyo 7164
Program 7162
bass 7161
Children 7160
oud 7159
Nev@@ 7158
Frederick 7157
churches 7157
ogn@@ 7157
iles 7155
97 7154
umed 7150
ny 7149
Syn@@ 7147
rent 7147
Ki@@ 7145
categ@@ 7145
goods 7145
Supp@@ 7137
rement 7137
Kor@@ 7135
gery 7135
lia 7135
appointment 7132
Legislative 7130
committed 7130
pur 7130
Ok@@ 7128
painted 7128
Imperial 7127
Eag@@ 7125
73 7124
stable 7123
treated 7122
Plat@@ 7121
script 7121
distinct 7120
A.@@ 7118
link 7118
Mississippi 7117
contain 7117
So 7116
rom@@ 7115
participate 7113
techniques 7110
collap@@ 7108
Quebec 7107
bad 7106
Juan 7104
Allen 7102
reception 7102
anger 7101
earning 7101
r. 7101
act@@ 7100
adop@@ 7099
rus 7099
79 7098
alition 7098
designs 7097
remov@@ 7097
Greg@@ 7096
phone 7096
opposite 7090
Commer@@ 7086
molec@@ 7086
bottom 7084
enrol@@ 7084
seems 7084
faces 7082
ican 7081
Detroit 7078
argu@@ 7078
king@@ 7076
Anthony 7075
iced 7075
chester 7074
Lieutenant 7073
Railroad 7069
oom 7067
Village 7066
port@@ 7065
rejected 7064
hundred 7063
Mak@@ 7060
Antonio 7058
ift 7058
aga 7057
charges 7055
polit@@ 7053
Rh@@ 7051
vocals 7051
install@@ 7050
IN@@ 7049
bt 7049
philosophy 7045
Fire 7042
budget 7042
89 7041
itt 7040
decl@@ 7039
measures 7039
signal 7038
chall@@ 7037
circum@@ 7037
mining 7036
proced@@ 7035
Andre@@ 7034
Treat@@ 7034
aming 7034
Hungarian 7031
Leb@@ 7027
comic 7027
Law@@ 7026
nit@@ 7024
onally 7022
collaboration 7021
musicians 7019
Cemetery 7018
Lau@@ 7018
fired 7018
Rab@@ 7017
motor@@ 7017
Christ 7016
Czech 7014
piano 7014
Baseball 7013
Hollywood 7012
chemical 7012
consum@@ 7011
damaged 7011
elli 7011
Clark 7009
rich@@ 7009
Independent 7007
meth@@ 7007
Argentina 7004
Trans@@ 7004
examples 7004
Philipp@@ 7003
equivalent 7003
evi@@ 7002
plot 7000
southwest 7000
Adam 6999
Ka@@ 6999
rid@@ 6999
Form@@ 6997
Gallery 6997
didn 6997
94 6996
oa 6995
Douglas 6994
employment 6994
protected 6993
sel 6992
althy 6989
anth@@ 6989
Magazine 6987
Physi@@ 6987
chor@@ 6986
residential 6986
August@@ 6982
coal 6982
details 6981
ML@@ 6977
esian 6977
Territ@@ 6974
jazz 6968
Local 6967
fs 6967
easily 6966
ossi@@ 6966
exist@@ 6961
93 6959
conqu@@ 6958
desig@@ 6956
rebel@@ 6954
Var@@ 6951
acking 6949
AS 6948
eps 6943
Fair@@ 6942
Ray@@ 6941
duty 6941
scription 6941
rative 6940
Band 6939
tes 6939
ails 6933
flying 6930
jo 6930
links 6930
why 6930
accommod@@ 6929
ful@@ 6929
Lincoln 6928
sub 6926
skills 6921
tics 6920
chise 6918
God@@ 6915
ode 6915
capture 6912
ecting 6912
Hawai@@ 6911
Miami 6911
raft 6911
academ@@ 6910
businesses 6910
eil 6910
sig@@ 6910
temper@@ 6910
criticized 6909
guar@@ 6909
Ball@@ 6907
Lanc@@ 6906
Kat@@ 6903
Constitution 6901
shr@@ 6901
Nep@@ 6899
purchase 6899
missions 6898
.D. 6894
Moore 6893
ras 6893
lawyer 6892
accompanied 6891
asses 6891
issioner 6891
winners 6891
Doctor 6889
King@@ 6888
campaig@@ 6887
Five 6886
Gordon 6886
Water@@ 6886
secret 6885
Meth@@ 6883
uel 6881
kill@@ 6879
1906 6876
apart@@ 6875
Mand@@ 6874
ret 6874
aders 6872
dges 6869
vements 6867
imming 6866
poin@@ 6866
stan@@ 6866
91 6865
Eu@@ 6864
some@@ 6863
oss 6862
defeating 6861
liqu@@ 6861
Denmark 6860
ef 6859
igation 6857
actors 6856
ble@@ 6856
Bell 6855
Iraq 6855
assumed 6853
passengers 6852
Sin@@ 6851
mo 6849
alls 6848
determine 6848
flag 6848
Bla@@ 6846
costs 6845
Up 6844
admitted 6844
Reserve 6843
champions 6841
zing 6840
Dist@@ 6838
phil@@ 6838
pro 6838
items 6835
medium 6834
erine 6833
communication 6827
reality 6827
intelligence 6825
ource 6825
Sud@@ 6824
provincial 6824
1905 6822
kilomet@@ 6822
electronic 6817
att 6816
path 6816
contrast 6811
maintain 6811
flat 6810
Sl@@ 6809
arian 6809
Puerto 6808
freedom 6808
acid 6807
documents 6807
Communic@@ 6806
1907 6804
consci@@ 6803
anders 6802
Athletics 6801
Mast@@ 6800
Liv@@ 6799
01 6798
alb@@ 6796
equi@@ 6791
images 6790
retained 6787
Rose 6786
delivered 6785
pover@@ 6785
Avi@@ 6783
stances 6782
factor 6781
angle 6780
tian 6780
Hungary 6779
contest 6779
six@@ 6777
reaction 6776
Louisiana 6774
Ukrainian 6773
regiment 6773
Not 6771
extra 6771
habitat 6769
neighbor@@ 6769
150 6768
Contro@@ 6767
Belgium 6766
Popul@@ 6766
banks 6764
hai 6763
routes 6763
arranged 6762
commission 6761
device 6761
request 6761
Harvard 6760
tified 6759
lying 6758
1,000 6757
attached 6757
dex 6757
Ottoman 6754
contributions 6753
zu@@ 6751
Marie 6750
pip@@ 6749
formally 6748
Buddh@@ 6743
Industri@@ 6741
Alexand@@ 6740
publications 6739
Anna 6735
eck 6735
Son@@ 6733
prov@@ 6733
ST@@ 6731
driving 6731
Willi@@ 6730
heat 6729
Singles 6728
AP@@ 6726
streets 6726
1909 6723
uting 6721
unter 6720
DNA 6719
PS 6719
assador 6719
Sun@@ 6717
estim@@ 6714
prize 6714
wick 6712
reign 6711
showing 6711
eland 6708
aux 6707
vier 6704
commer@@ 6703
iled 6702
poem 6694
alo 6693
Trust 6691
odes@@ 6691
visible 6690
decis@@ 6689
AN@@ 6688
Saf@@ 6686
brief 6686
Dol@@ 6685
Emer@@ 6681
shops 6673
And@@ 6672
ev 6671
Matthe@@ 6670
ailing 6670
Ori@@ 6668
ava 6668
Kaz@@ 6667
Liter@@ 6665
diff@@ 6659
inal 6658
escap@@ 6656
ourney 6655
thor@@ 6655
tel 6653
Ful@@ 6652
ellow@@ 6652
sha@@ 6651
wick@@ 6651
Tam@@ 6650
Palace 6646
ape 6646
help@@ 6646
releg@@ 6643
Environ@@ 6640
ever@@ 6639
mult@@ 6637
sidi@@ 6633
Stre@@ 6631
sie 6628
Dublin 6625
Thor@@ 6625
amat@@ 6623
trip 6623
Ry@@ 6621
alu@@ 6620
Fern@@ 6617
princip@@ 6615
Season 6613
Connecticut 6611
hosts 6611
insula 6609
m2 6608
Fel@@ 6607
ellite 6604
chant 6601
Good 6598
Lith@@ 6597
chang@@ 6594
citi@@ 6594
ade@@ 6593
600 6587
ague 6586
occ@@ 6585
prises 6585
Kim 6584
establ@@ 6584
CEO 6577
Rights 6577
kshire 6575
Banglad@@ 6566
Gon@@ 6566
See 6564
Age 6562
Bag@@ 6560
Nav@@ 6560
Tamil 6558
Spi@@ 6557
cue 6556
ware 6556
Iv@@ 6555
oper 6553
Max 6552
5,@@ 6548
veter@@ 6547
ă@@ 6545
NBA 6542
Rap@@ 6542
Philli@@ 6537
fail@@ 6536
emor@@ 6535
je 6533
Margaret 6531
ABC 6530
Gold@@ 6528
rein@@ 6527
Kath@@ 6524
ando 6523
Associ@@ 6522
Saturday 6522
Edinburgh 6520
09 6519
appear@@ 6518
eh 6517
falls 6516
educ@@ 6514
Mr@@ 6508
Kenn@@ 6506
ament 6505
orary 6505
Step@@ 6502
zy@@ 6502
Mountains 6495
Internet 6494
cav@@ 6494
Week 6489
Whe@@ 6487
6,@@ 6484
bird 6483
ussion 6483
Hei@@ 6479
aff 6479
eau 6478
ów 6476
Beg@@ 6474
Ear@@ 6471
cla@@ 6470
ownship 6470
az 6469
ude 6468
innov@@ 6465
stron@@ 6465
tiful 6464
Cleveland 6463
note 6462
owed 6462
Nat@@ 6459
indi@@ 6458
simil@@ 6457
Cin@@ 6456
Montreal 6448
Roll@@ 6447
Portugal 6444
Under@@ 6442
ameter 6442
mobile 6440
ry@@ 6440
ll 6437
Austrian 6436
vices 6435
Aut@@ 6434
Metropolitan 6433
1904 6428
lights 6424
acked 6417
Na@@ 6413
daugh@@ 6410
08 6408
anese 6408
retur@@ 6406
missi@@ 6402
organiz@@ 6402
tennis 6402
Deputy 6400
los@@ 6399
Broadway 6394
Guard 6394
lay 6394
Ray 6391
som@@ 6390
Mill@@ 6388
Ryan 6388
Atlanta 6386
Bap@@ 6385
Now 6385
ö@@ 6385
Command 6384
harmon@@ 6383
relative 6382
Les@@ 6381
busin@@ 6373
sole 6367
Hisp@@ 6366
rel 6363
Defense 6362
Walker 6359
Wo@@ 6355
Kl@@ 6352
Colonel 6351
ector 6348
industri@@ 6348
Spr@@ 6347
eta 6342
mos@@ 6342
premi@@ 6338
Camer@@ 6336
jected 6335
sugge@@ 6334
ools 6333
eur@@ 6331
Fol@@ 6330
Sain@@ 6328
Global 6327
Cow@@ 6324
Gri@@ 6322
Lawrence 6320
prob@@ 6320
fit 6317
ct 6315
ferred 6315
800 6313
Malaysia 6313
1901 6311
Kol@@ 6311
Meg@@ 6310
Seattle 6309
umental 6307
Cher@@ 6301
eri@@ 6299
WW@@ 6298
dru@@ 6298
Tig@@ 6296
bring@@ 6295
Finn@@ 6293
Sax@@ 6292
offensive 6292
Pear@@ 6291
Li 6290
stud@@ 6290
lock@@ 6288
Initi@@ 6286
Welsh 6286
Num@@ 6282
pper 6282
Egyp@@ 6279
champion@@ 6278
Rand@@ 6270
agon@@ 6269
José 6268
05 6266
practi@@ 6266
Prin@@ 6263
Ach@@ 6261
Dri@@ 6257
epp@@ 6257
uli@@ 6257
TC 6252
Chairman 6248
veget@@ 6244
isch@@ 6233
tives 6233
ilt 6230
eig@@ 6228
list@@ 6227
qui@@ 6226
Wild@@ 6223
pu@@ 6222
reform 6222
brig@@ 6215
Champions 6213
ador 6212
fan 6209
rats 6209
CE@@ 6203
Hud@@ 6201
etta 6199
Agric@@ 6198
agen@@ 6198
Victor@@ 6195
Musi@@ 6193
Net@@ 6193
yc@@ 6193
bo 6189
ve@@ 6189
1903 6186
Mari@@ 6183
Part@@ 6183
Harris 6182
cep@@ 6182
human@@ 6182
Rog@@ 6181
Studios 6181
AF 6179
1902 6176
fri@@ 6175
Round 6172
heim 6172
orph@@ 6168
Natur@@ 6166
thes@@ 6164
NAS@@ 6161
alter@@ 6159
itage 6159
ton@@ 6159
hun@@ 6158
liament 6158
Orthod@@ 6157
ovo 6152
loyd 6151
chen 6150
ires 6146
You@@ 6144
chi 6144
eld 6142
essel 6142
eva 6142
Vari@@ 6141
Buff@@ 6139
000 6138
MP@@ 6138
Eric 6136
utt@@ 6136
wed@@ 6135
Rav@@ 6130
anne 6129
embly 6128
Nazi 6125
Upper 6123
sburg 6121
Singh 6120
Alan 6118
Sarah 6115
Sci@@ 6114
jing 6114
D.C. 6113
Mach@@ 6113
Mik@@ 6111
Liverpool 6109
Commander 6104
ups 6102
imag@@ 6101
si 6100
ishment 6099
old@@ 6099
reti@@ 6099
Vienna 6098
Quar@@ 6096
Disney 6095
Front 6095
asion 6093
DP 6092
ensis 6092
sei@@ 6088
Pil@@ 6084
Guar@@ 6083
hou 6083
Transport 6080
pati@@ 6080
Vinc@@ 6078
obile 6073
Epis@@ 6065
Stu@@ 6062
spon@@ 6061
07 6060
eda 6060
Len@@ 6059
ii 6059
Web@@ 6056
ć 6052
Pin@@ 6051
Fr@@ 6044
Imp@@ 6042
Wel@@ 6040
Track 6037
Officer 6036
Orchestra 6036
adron 6033
ld@@ 6033
Nu@@ 6028
kel@@ 6028
sup@@ 6028
Pon@@ 6027
spr@@ 6025
Invest@@ 6024
anthrop@@ 6018
Dean 6017
tol@@ 6016
Jenn@@ 6015
ression 6014
uss 6014
ees 6011
Wood 6009
omin@@ 6009
ović 6008
red@@ 5999
mina 5998
Veg@@ 5997
lex 5997
ugos@@ 5996
emen 5995
Grant 5993
enberg 5993
Tot@@ 5992
ogen@@ 5992
stant@@ 5992
CS@@ 5991
NE@@ 5989
Ott@@ 5989
lav@@ 5988
Kil@@ 5987
compos@@ 5985
1920@@ 5984
aire 5984
Shak@@ 5983
gol@@ 5979
possi@@ 5978
sand@@ 5976
Sac@@ 5975
Kennedy 5974
ffer@@ 5973
patri@@ 5971
Log@@ 5970
coll@@ 5969
Bad@@ 5968
Origin@@ 5965
dimensi@@ 5965
Cho@@ 5962
Jack@@ 5960
Maj@@ 5960
10.@@ 5959
Boys 5959
Player 5959
parallel 5959
Basketball 5958
Alliance 5957
Deb@@ 5957
Ross 5957
lau@@ 5957
Aqu@@ 5955
agers 5955
scri@@ 5955
rar@@ 5950
eking 5945
Gramm@@ 5944
sid@@ 5943
Rio 5940
Stock@@ 5939
Camp 5934
youn@@ 5934
Rot@@ 5933
sul@@ 5933
í 5933
Sho@@ 5932
AP 5931
Bob@@ 5930
Brow@@ 5926
crit@@ 5926
Pho@@ 5924
dar 5923
cker 5919
Review 5918
eks 5918
Mit@@ 5916
bol 5916
Birmingham 5914
Swe@@ 5913
ez@@ 5913
rator 5912
massi@@ 5911
apolis 5908
mosph@@ 5906
Your 5900
Sig@@ 5896
Ama@@ 5889
uk 5889
lah 5888
sex@@ 5886
Carl 5883
DA 5882
Kelly 5881
agan 5881
Kevin 5880
athl@@ 5880
Bak@@ 5879
Baltimore 5877
lose 5876
Good@@ 5874
Agency 5872
ein@@ 5868
rone 5868
CP@@ 5867
IT 5867
Jordan 5866
Garden 5865
ester@@ 5864
Hills 5863
infra@@ 5861
ı@@ 5861
ference 5860
Athletic 5858
Pittsburgh 5855
Arkansas 5851
Vik@@ 5849
Od@@ 5848
ais 5844
Anti@@ 5837
bat 5837
itals 5836
curr@@ 5830
ampton 5827
blu@@ 5827
ić 5827
Energy 5826
Rou@@ 5824
iny 5822
oman 5820
Doc@@ 5819
intend@@ 5819
Thompson 5818
Blo@@ 5814
Pom@@ 5813
Trump 5813
Cle@@ 5810
Jane 5808
RO@@ 5808
Morgan 5798
stent 5798
Heart 5797
Campbell 5796
Metro 5796
lik@@ 5796
Assi@@ 5794
Kos@@ 5794
04 5793
aceae 5793
Dak@@ 5792
public@@ 5792
Belgi@@ 5790
ford@@ 5790
element 5787
oll 5786
iff 5785
Opera 5784
losses 5784
1898 5783
Att@@ 5779
claim@@ 5777
Tan@@ 5776
Chem@@ 5773
ruption 5772
Adv@@ 5762
ida 5762
Russell 5757
Cos@@ 5755
Convention 5749
alia 5747
lav 5745
Stev@@ 5744
rid 5744
gregation 5743
mac@@ 5743
Test 5742
Hab@@ 5737
Che@@ 5732
Ped@@ 5731
olic 5728
Murray 5727
ardo 5723
7,@@ 5721
m. 5720
BI 5717
itu@@ 5717
near@@ 5717
norm@@ 5716
ika 5715
v. 5714
Training 5713
theast 5709
Daily 5708
Information 5706
Roger 5706
Lane 5705
graph@@ 5704
ocks 5704
06 5702
Langu@@ 5700
Heb@@ 5699
Adel@@ 5696
Nelson 5695
End 5694
ū@@ 5694
Well@@ 5692
oe 5692
Stewart 5691
NBC 5690
Distri@@ 5689
Kent 5689
Brit@@ 5687
Cla@@ 5686
Phil@@ 5685
ditional 5684
Dan 5682
cester 5682
dynam@@ 5676
visions 5672
deos 5671
dium 5671
record@@ 5665
Contin@@ 5662
Girls 5660
Poli@@ 5660
buted 5660
Neg@@ 5657
Anim@@ 5656
Benn@@ 5652
das 5651
Dallas 5648
elli@@ 5647
awar@@ 5642
aide 5639
Davi@@ 5637
adi 5634
ira 5632
dim@@ 5631
hop 5628
len 5628
Brothers 5624
age@@ 5624
1899 5623
Austin 5620
Pad@@ 5618
moder@@ 5618
Laur@@ 5615
Franklin 5614
Bes@@ 5613
V. 5611
Goo@@ 5609
determin@@ 5609
epi@@ 5609
regist@@ 5608
inian 5604
femin@@ 5601
thwest 5600
exten@@ 5599
bal 5594
kar@@ 5593
Alex 5592
Inn@@ 5589
charts 5581
VI 5579
positi@@ 5577
ital@@ 5576
orer 5574
profession@@ 5572
Pierre 5569
02 5568
bet 5567
Tol@@ 5565
Ten 5564
orn 5563
Nap@@ 5561
sa@@ 5560
iti 5558
uries 5557
Stanley 5555
distri@@ 5555
lea@@ 5553
Pla@@ 5547
magnet@@ 5546
ophi@@ 5545
Real 5543
Ali@@ 5542
Robinson 5542
Dance 5541
Senator 5541
Bruce 5540
Pass@@ 5540
Taiwan 5539
agric@@ 5539
Hear@@ 5537
IR@@ 5537
Mission 5537
yal 5537
agu@@ 5536
Express 5535
án@@ 5534
Ral@@ 5526
Hop@@ 5522
partic@@ 5522
sy 5517
Dave 5514
til 5513
astro@@ 5510
Wright 5509
1890 5507
Sor@@ 5506
rix 5504
Baron 5502
usin 5501
Statist@@ 5497
Oli@@ 5494
Mitch@@ 5492
Kit@@ 5489
Marshall 5489
RE@@ 5488
AF@@ 5487
Utah 5487
hund@@ 5487
Priv@@ 5483
foun@@ 5482
outh 5480
vit@@ 5480
Kum@@ 5477
sident 5476
plant@@ 5469
Racing 5467
sees 5465
Adams 5459
zer 5458
Bru@@ 5451
How@@ 5449
iness 5449
ä@@ 5448
Christopher 5447
suffer@@ 5447
250 5446
Cum@@ 5444
found@@ 5444
vill@@ 5444
Vel@@ 5443
dical 5443
Cab@@ 5442
Scot@@ 5441
cm 5441
Angl@@ 5439
fro@@ 5439
eir 5438
zi 5437
Joh@@ 5434
Buck@@ 5433
Goth@@ 5431
Gib@@ 5430
stry 5429
gar 5427
nia 5424
Tha@@ 5423
ample 5421
Brooklyn 5418
McC@@ 5418
Sound 5413
Py@@ 5412
onym@@ 5409
Carter 5406
Silver 5401
Ot@@ 5400
lief 5399
presi@@ 5399
ready 5399
ros 5397
Ann 5394
Gur@@ 5394
Sah@@ 5394
abs@@ 5391
Nick 5390
Seg@@ 5389
Ton@@ 5387
tab@@ 5387
overs 5386
ont 5384
Naz@@ 5383
key@@ 5383
yon 5383
inn 5382
och 5381
fix@@ 5375
03 5374
Graham 5372
avy 5372
natur@@ 5372
esis 5371
secre@@ 5371
tons 5371
Norman 5369
slow@@ 5369
ander 5368
ummer 5368
Ari@@ 5365
UEFA 5365
fr@@ 5364
1896 5363
Om@@ 5363
eins 5363
bow 5360
utenant 5360
Portland 5358
fall@@ 5357
ratic 5355
Psych@@ 5350
ias 5350
Bot@@ 5347
Academ@@ 5346
Kra@@ 5344
newsp@@ 5344
eal@@ 5343
Go 5341
iet 5338
Tour@@ 5337
cann@@ 5337
Bachelor 5335
Place 5335
ien 5332
ska 5332
hei@@ 5330
lan 5329
Theater 5328
FIFA 5327
Simp@@ 5323
reb@@ 5323
enger 5322
Venezu@@ 5321
Jimmy 5320
ateg@@ 5319
Victor 5318
Alfred 5314
ín 5314
Lag@@ 5312
mean@@ 5312
erial 5309
1897 5308
vis 5305
Ron@@ 5299
Trophy 5296
Arti@@ 5295
Tim 5295
yo 5295
tempor@@ 5292
Ji@@ 5289
Mes@@ 5289
Sult@@ 5288
figur@@ 5288
frag@@ 5288
Tower 5281
aer@@ 5281
wen 5280
ege 5278
ann 5275
Carlos 5273
Neb@@ 5273
Protest@@ 5273
great@@ 5273
Dod@@ 5272
Brist@@ 5271
vor 5271
Muhammad 5267
Thailand 5267
1895 5266
ubl@@ 5263
tainment 5261
Off@@ 5260
Just@@ 5259
gan@@ 5258
atom@@ 5256
NHL 5250
spl@@ 5247
Bang@@ 5242
Stri@@ 5241
illed 5241
zy 5238
emper@@ 5232
ô@@ 5228
Draft 5225
inea 5225
zon 5219
Bron@@ 5218
Shel@@ 5218
AL@@ 5214
Jar@@ 5209
Wrestling 5206
Hil@@ 5203
iel 5203
Matt 5200
theor@@ 5197
1000 5196
Bed@@ 5196
Glasgow 5195
AT 5193
lier 5193
ler@@ 5192
opportun@@ 5191
enson 5189
kh@@ 5187
Lov@@ 5184
Arc@@ 5182
hatt@@ 5177
af 5175
Wind@@ 5174
cus 5173
lem 5171
å@@ 5163
Windows 5157
jun@@ 5157
aus 5155
esth@@ 5155
1893 5153
CH@@ 5153
Will@@ 5153
Benjamin 5152
Hann@@ 5149
LP 5147
Pak@@ 5146
Fili@@ 5144
Afghanistan 5143
Thur@@ 5143
Cant@@ 5142
edy 5139
ivals 5139
Jerusalem 5138
eff 5134
Boy 5132
scienti@@ 5131
8,@@ 5128
alp@@ 5125
motor 5124
ongs 5122
Billy 5121
declar@@ 5121
vul@@ 5121
Chel@@ 5120
Knight 5119
utr@@ 5119
Cou@@ 5117
Base 5107
Gary 5104
dez 5103
nat@@ 5098
quarters 5096
Basi@@ 5090
bes@@ 5090
sper@@ 5090
Polit@@ 5089
IT@@ 5085
Maine 5085
Vill@@ 5083
iser 5083
ook@@ 5083
tz@@ 5082
Roy 5079
ashi 5078
Hand@@ 5076
enab@@ 5073
1889 5071
Cricket 5070
fore 5068
attle 5052
Will 5050
amoun@@ 5045
zo 5044
Down 5043
streng@@ 5043
1894 5041
iger 5039
194@@ 5038
aph@@ 5036
stan 5033
GA 5032
open@@ 5031
incorpor@@ 5030
1892 5028
Bell@@ 5021
Argent@@ 5013
bin 5012
ition@@ 5012
sched@@ 5010
Eli@@ 5007
Gall@@ 5006
elta 5005
EC 5004
1885 4999
fel@@ 4999
Las 4996
repor@@ 4995
stit@@ 4992
dependence 4991
din 4990
arib@@ 4986
Islam 4985
Pos@@ 4985
relation@@ 4982
Indu@@ 4981
Jes@@ 4979
N. 4978
Tube 4978
1891 4975
Chile 4974
Fro@@ 4971
Isa@@ 4970
ario 4968
Fund 4966
Up@@ 4966
immedi@@ 4966
Last 4965
kg 4965
ux 4963
Madrid 4961
eck@@ 4960
igu@@ 4959
rell 4955
gin@@ 4954
dat@@ 4951
sal 4950
Van@@ 4946
EU 4945
Fort@@ 4945
internation@@ 4944
Poly@@ 4940
isation 4937
ques 4935
edom 4934
relev@@ 4927
Nik@@ 4926
oba 4926
Arena 4925
1888 4924
Johnny 4921
itim@@ 4920
Salv@@ 4915
programm@@ 4914
Wa@@ 4913
Um@@ 4911
Orleans 4906
lam@@ 4906
Jan 4903
nei@@ 4897
Gaz@@ 4896
RC 4896
necess@@ 4894
Cli@@ 4887
dit@@ 4884
aro 4879
Phi@@ 4876
rely 4875
lus 4865
anist 4863
Zone 4858
Chan@@ 4857
Pul@@ 4855
Hart@@ 4854
pole 4852
endor@@ 4851
bot 4849
aska 4844
sum 4842
tz 4842
Wei@@ 4841
anal@@ 4838
Intel@@ 4831
cky 4831
iop@@ 4830
Alice 4827
Plan@@ 4826
Equ@@ 4821
ink@@ 4820
codi@@ 4815
aid@@ 4811
Songs 4808
facil@@ 4808
isp@@ 4807
ī@@ 4807
Gol@@ 4805
Charlie 4803
Labor 4803
Revol@@ 4801
chi@@ 4800
Dub@@ 4798
Fellow 4798
gressi@@ 4795
ji@@ 4795
ult 4795
asa 4793
tin@@ 4791
UN 4789
Rub@@ 4784
Vancouver 4783
onlyinclude 4782
omen@@ 4781
wr@@ 4780
bach@@ 4777
Gabri@@ 4775
1865 4774
Schol@@ 4769
aft 4759
oli 4754
band@@ 4752
Instit@@ 4751
Cann@@ 4743
Liga 4743
ument@@ 4741
Malay@@ 4738
Mau@@ 4738
HL 4737
craft 4736
Sti@@ 4735
tak@@ 4735
Has@@ 4730
Uni@@ 4730
S.@@ 4728
municip@@ 4726
divi@@ 4725
Constit@@ 4724
IS 4723
four@@ 4722
1880 4719
1870 4717
Challenge 4717
ughout 4716
esse 4713
vie@@ 4712
orith@@ 4709
Port@@ 4703
1861 4702
Sid@@ 4702
Det@@ 4700
anny 4696
forman@@ 4696
IB@@ 4690
Que@@ 4690
Stars 4689
Fred 4686
Jag@@ 4686
agement 4686
700 4684
× 4684
succe@@ 4677
Tul@@ 4673
Ny@@ 4671
extre@@ 4665
Karl 4664
tow@@ 4656
lio 4655
Ther@@ 4654
verb@@ 4648
knowle@@ 4647
Kap@@ 4645
Cob@@ 4641
Lab@@ 4641
CS 4638
Symph@@ 4637
ander@@ 4632
vo 4631
eld@@ 4630
rab@@ 4630
1862 4623
xim@@ 4620
1887 4618
iro 4617
1864 4610
ife 4610
ão 4608
о@@ 4603
oni 4602
Et@@ 4600
Kel@@ 4598
SO@@ 4596
Long@@ 4595
sten 4594
Mis@@ 4592
hat 4591
oda 4589
Charlotte 4588
enko 4588
urg@@ 4587
ois 4586
oul 4585
BM@@ 4581
Bour@@ 4580
uns 4580
Fa@@ 4579
Admiral 4578
− 4575
gether 4574
1881 4573
ș@@ 4572
Falls 4571
Squ@@ 4568
Ja@@ 4567
Rud@@ 4566
Mann@@ 4565
stim@@ 4565
Rei@@ 4561
Musli@@ 4553
Ten@@ 4548
9,@@ 4544
120 4542
1886 4542
bol@@ 4537
may@@ 4535
emetery 4534
Beat@@ 4530
tend 4528
Code 4527
lica 4526
ión 4524
Dav@@ 4522
Aer@@ 4520
Aber@@ 4519
olley@@ 4519
1863 4518
tron@@ 4517
gor@@ 4513
orig@@ 4512
Engine@@ 4510
fra@@ 4510
ker@@ 4509
lip@@ 4507
Stru@@ 4506
Studio 4504
station@@ 4502
ME@@ 4499
vert@@ 4495
ronom@@ 4489
lor@@ 4488
rie@@ 4488
mund 4485
otes 4484
ache 4476
Standard 4473
DE@@ 4472
restling 4470
és 4470
mob@@ 4468
enne 4467
owski 4467
tradition@@ 4466
Sport 4460
IM@@ 4458
optim@@ 4458
Tai@@ 4457
alt@@ 4457
famili@@ 4456
à 4454
Bar 4451
ère 4448
diverse 4447
Reb@@ 4446
bot@@ 4444
com 4440
cup 4440
Pir@@ 4439
Hus@@ 4436
wan 4435
Video 4430
modern@@ 4429
Publi@@ 4428
sang 4428
erve 4423
dan@@ 4422
Stand@@ 4420
emig@@ 4420
1884 4419
tage 4418
alis 4415
riage 4411
Offic@@ 4406
IC 4404
Vil@@ 4400
Gau@@ 4399
Lang@@ 4398
weap@@ 4396
ources 4388
Tas@@ 4387
Nan@@ 4385
Yam@@ 4384
Ple@@ 4383
fam@@ 4379
rad 4374
IP 4370
og 4370
John@@ 4368
ž@@ 4368
Arg@@ 4367
1882 4364
ange 4364
wir@@ 4352
gal@@ 4350
Jacob 4349
Enter@@ 4348
rez 4348
dis 4346
ammer 4345
Aar@@ 4344
Sz@@ 4342
soft 4341
spor@@ 4340
olo 4339
Kas@@ 4338
ause 4338
absol@@ 4334
onder@@ 4332
Diam@@ 4331
gements 4330
Oblast 4325
Colon@@ 4323
lit 4322
Barbara 4321
ser 4316
Pel@@ 4315
Mut@@ 4312
Tab@@ 4312
nee 4309
Buch@@ 4307
asi 4304
geb@@ 4302
ima 4299
ş@@ 4297
upp@@ 4294
Ern@@ 4291
Thi@@ 4291
soldi@@ 4286
Griff@@ 4285
Nad@@ 4284
ried 4284
Sak@@ 4283
iat@@ 4283
tos 4283
gir@@ 4281
idi@@ 4279
а@@ 4274
depart@@ 4272
Bog@@ 4270
iv 4270
olds 4268
bun@@ 4267
los 4267
Fas@@ 4265
Post@@ 4259
dinal 4259
Radi@@ 4258
Carol@@ 4256
Mé@@ 4255
Bom@@ 4254
Nation 4254
ennis 4251
phi@@ 4251
err@@ 4250
Peru 4249
ü@@ 4236
Microsoft 4233
civi@@ 4233
rand@@ 4230
Kab@@ 4229
Les 4228
stell@@ 4225
1876 4222
Esp@@ 4220
NR@@ 4220
Andr@@ 4215
Model 4215
Rail@@ 4208
provi@@ 4208
Pier@@ 4207
Pit@@ 4202
ë@@ 4199
Sier@@ 4192
Dru@@ 4183
Peter@@ 4183
Luis 4179
PC@@ 4179
Bau@@ 4177
etti 4177
esp@@ 4172
Tou@@ 4171
osaur@@ 4171
Boh@@ 4170
ho 4169
1878 4168
Á@@ 4168
Frank@@ 4166
ste 4166
1883 4165
AD@@ 4164
Barcelona 4161
Oliver 4161
ags 4159
eira 4159
bach 4158
Max@@ 4157
ci 4156
Wit@@ 4153
uma 4151
Brand@@ 4150
Represent@@ 4150
inclu@@ 4150
acher 4149
Brig@@ 4146
elor 4145
rin@@ 4145
1871 4143
Din@@ 4141
и@@ 4140
Wes@@ 4138
Hans 4136
ael 4132
ligence 4127
Jazz 4124
Tob@@ 4122
bott@@ 4120
iner 4120
san@@ 4120
iter 4112
nex@@ 4112
studi@@ 4109
nucle@@ 4105
sson 4100
Š@@ 4100
itis 4098
deck 4097
altar 4091
shall 4085
Top@@ 4083
feld 4080
ingen 4078
Franc@@ 4077
tric 4076
alle 4071
emy 4070
Medi@@ 4069
cians 4068
Gun@@ 4063
Labor@@ 4061
gend 4059
dependent 4057
iment 4057
wealth 4052
Herbert 4048
cerem@@ 4047
seud@@ 4046
LE@@ 4044
1860 4043
Bernard 4040
Jur@@ 4040
Pop@@ 4040
Gy@@ 4039
Spring@@ 4039
ird 4039
Rain@@ 4037
Blu@@ 4034
zant@@ 4032
Hem@@ 4023
duced 4023
Hall@@ 4022
househ@@ 4016
1872 4014
feder@@ 4014
Abra@@ 4012
Abd@@ 4011
1867 4006
indu@@ 3991
blo@@ 3984
vard 3983
elem@@ 3981
ista 3981
Clu@@ 3978
Sund@@ 3977
Stat@@ 3969
inter 3967
SS@@ 3965
Ira@@ 3964
unic@@ 3957
ör@@ 3956
1875 3953
Rah@@ 3953
Formation 3949
ater@@ 3949
uture 3949
Mod@@ 3948
Blues 3947
Systems 3944
ante 3944
esa 3943
sport@@ 3943
iki 3942
ref 3941
gang 3939
nal 3939
Tax@@ 3937
ech 3936
sevent@@ 3935
poration 3934
Ey@@ 3933
Fil@@ 3932
Run@@ 3932
tag@@ 3931
ysi@@ 3927
Raf@@ 3922
ymn@@ 3921
1868 3918
gio 3918
Fant@@ 3916
appoin@@ 3915
DJ 3913
kal@@ 3912
Opp@@ 3909
emin@@ 3902
follow@@ 3900
constitu@@ 3898
enna 3895
Hz 3891
Bec@@ 3888
ials 3888
meter 3888
gian 3886
NO@@ 3884
1879 3881
Album 3879
Tenn@@ 3878
fe 3876
Mang@@ 3873
Petersburg 3872
conflic@@ 3871
iga 3868
Napole@@ 3867
confir@@ 3866
ician 3865
tus 3864
1873 3863
emat@@ 3862
allery 3858
Sie@@ 3856
engine@@ 3855
Plan 3850
São 3848
isher@@ 3841
syst@@ 3837
ento 3835
1866 3834
Bis@@ 3834
1877 3833
ente 3833
Ober@@ 3831
laun@@ 3831
ń@@ 3830
eto 3828
kan 3825
bly 3822
Qualif@@ 3813
Sof@@ 3813
Provin@@ 3811
tet 3811
Eng@@ 3805
istan 3798
perial 3798
Bil@@ 3795
mad 3795
politan 3792
Mass@@ 3791
Chron@@ 3789
AN 3786
mol@@ 3782
enburg 3779
Rac@@ 3778
eit 3778
Atl@@ 3777
Orig@@ 3773
Person@@ 3765
heav@@ 3765
agog@@ 3764
whi@@ 3764
environ@@ 3761
cio 3758
ged@@ 3752
enda 3748
Gener@@ 3747
ony@@ 3747
aja 3745
€ 3744
holm 3737
bed@@ 3729
Alt@@ 3724
attemp@@ 3719
Ric@@ 3718
Hob@@ 3717
rum@@ 3716
symb@@ 3715
е@@ 3715
Administ@@ 3713
Marath@@ 3711
Altern@@ 3702
Play 3702
Serge@@ 3702
uh@@ 3702
Rat@@ 3701
enb@@ 3694
1874 3684
Film@@ 3683
compan@@ 3683
Bad 3680
1869 3679
ound 3679
.S. 3670
bis@@ 3666
west@@ 3660
mb@@ 3659
gel@@ 3655
Kom@@ 3654
enty 3653
Divis@@ 3652
cient 3651
1848 3648
ó 3647
ead 3641
menti@@ 3637
Hitler 3635
dential 3630
Mess@@ 3625
accep@@ 3625
ges@@ 3625
Alp@@ 3623
dus 3623
Amsterdam 3622
1850 3615
Bun@@ 3615
Rest@@ 3615
OR@@ 3614
web@@ 3610
Ferr@@ 3607
aller@@ 3606
Band@@ 3605
Philosoph@@ 3605
itte@@ 3605
Sign@@ 3602
gon@@ 3601
Albums 3599
Fra@@ 3598
habit@@ 3598
Alph@@ 3590
æ@@ 3584
VP 3579
Ox@@ 3578
pec@@ 3576
promin@@ 3574
simp@@ 3573
Chr@@ 3571
Lav@@ 3568
Hin@@ 3566
Tat@@ 3563
Mathemati@@ 3562
… 3562
rict 3560
set@@ 3554
NG@@ 3552
oven 3548
ysis 3538
rin 3530
consec@@ 3528
Computer 3524
aler 3522
Motor@@ 3521
Progr@@ 3518
Test@@ 3515
trum 3510
Amat@@ 3509
Villa 3508
Viet@@ 3506
ethn@@ 3504
Dim@@ 3499
Theod@@ 3497
Americ@@ 3495
app 3493
acker 3489
org@@ 3489
ground@@ 3487
lement 3485
ér@@ 3485
RT@@ 3483
Jacques 3480
Ras@@ 3477
Fall 3460
igher 3458
geograph@@ 3455
dien@@ 3453
1859 3452
parks 3451
wo@@ 3449
Lux@@ 3444
1857 3443
Kun@@ 3441
perman@@ 3440
hier@@ 3435
dh@@ 3434
irc@@ 3434
zens 3432
Sv@@ 3420
det 3417
Motor 3416
kan@@ 3416
protest@@ 3416
deter@@ 3415
AG 3414
Vit@@ 3406
oci@@ 3406
aband@@ 3405
Fab@@ 3398
dies@@ 3395
Govern@@ 3394
Lem@@ 3392
Elem@@ 3387
• 3386
DF 3384
Fres@@ 3383
Republi@@ 3376
Pav@@ 3371
Leo 3370
milit@@ 3364
him@@ 3363
rik 3362
ê@@ 3362
kir@@ 3358
Arnold 3357
bul 3354
ould 3348
erst@@ 3345
dah@@ 3340
Films 3336
Put@@ 3333
linder 3331
Die 3328
ons@@ 3323
onym 3318
mir 3315
situ@@ 3310
prim@@ 3307
divers@@ 3293
duce 3292
Penn@@ 3290
Renaissance 3287
24@@ 3286
bell 3283
ution@@ 3283
ę@@ 3280
Pop 3279
Louis@@ 3278
illu@@ 3275
mus 3273
Ig@@ 3272
iller 3271
Thom@@ 3268
н@@ 3266
ā 3265
loy@@ 3262
rad@@ 3258
Ball 3255
eiro 3255
iz 3255
ucle@@ 3255
Eff@@ 3249
Nation@@ 3249
Alf@@ 3245
Prof@@ 3243
flex@@ 3241
Parti@@ 3235
Oscar 3230
Ess@@ 3225
Cze@@ 3220
theoret@@ 3218
best@@ 3217
smit@@ 3217
Phot@@ 3216
Pod@@ 3215
Otto 3214
Main@@ 3213
Magn@@ 3212
Alex@@ 3209
passi@@ 3207
1855 3203
р@@ 3202
rics 3198
110 3188
autob@@ 3187
Legisl@@ 3183
bec@@ 3180
ffe 3177
zu 3177
1856 3173
Feder@@ 3173
Micro@@ 3172
fic 3171
wald 3171
maj@@ 3168
Dro@@ 3167
transpor@@ 3165
Holl@@ 3160
bau@@ 3158
Expl@@ 3155
Fam@@ 3155
mitt@@ 3155
plem@@ 3155
Viol@@ 3153
sten@@ 3153
fung@@ 3145
olen 3145
1854 3144
Serie 3144
Lie@@ 3143
anus 3143
incor@@ 3142
Rein@@ 3141
urs 3140
min 3139
1840 3135
Nikol@@ 3134
atur@@ 3133
kov@@ 3133
Sing@@ 3131
unte@@ 3128
amer@@ 3126
1858 3124
Hir@@ 3124
uter 3124
advant@@ 3121
oppos@@ 3117
Original 3112
temp@@ 3111
Termin@@ 3110
Krist@@ 3108
Name 3108
elles 3107
ival@@ 3107
Clau@@ 3103
130 3100
tal 3099
Dau@@ 3098
fallen 3097
Friedrich 3096
ople 3093
Wilhelm 3092
Eg@@ 3087
liner 3074
specific@@ 3074
basi@@ 3073
rank@@ 3067
Wolf 3063
Hamburg 3057
ellow 3057
ealed 3056
tin 3055
Educ@@ 3052
Commun@@ 3046
vent 3046
iew 3043
odes 3041
wish 3037
Strateg@@ 3034
900 3033
Tok@@ 3030
Pok@@ 3028
François 3027
spre@@ 3026
Johann 3023
venti@@ 3021
Gab@@ 3020
ulp@@ 3018
1852 3017
eit@@ 3017
tag 3015
publi@@ 3013
ief 3010
Turk@@ 3004
Individu@@ 2996
Prem@@ 2992
philosoph@@ 2988
Mechan@@ 2986
Hau@@ 2983
Nac@@ 2981
Fig@@ 2980
VI@@ 2978
1851 2975
Dynam@@ 2974
ft@@ 2974
lv@@ 2967
Park@@ 2965
Teams 2963
Herz@@ 2961
elim@@ 2960
purch@@ 2960
horn 2959
sion@@ 2959
aut 2957
aug@@ 2956
esch@@ 2954
got@@ 2954
Lud@@ 2953
Eis@@ 2950
eign 2950
Maxim@@ 2949
Anton@@ 2947
acht 2940
applic@@ 2939
dé@@ 2935
musi@@ 2933
Fron@@ 2931
Lig@@ 2931
Apost@@ 2927
tig@@ 2926
sidents 2924
ū 2919
Beck@@ 2918
Sta@@ 2915
trol@@ 2911
secur@@ 2907
sta@@ 2904
Fir@@ 2897
enhagen 2896
Ring 2895
HC 2886
1853 2885
Lad@@ 2885
dership 2884
omot@@ 2882
Hot@@ 2881
nie@@ 2881
Tag@@ 2879
etz@@ 2877
Box@@ 2873
ahn 2872
ا@@ 2870
Bod@@ 2868
easi@@ 2867
lad@@ 2867
Journ@@ 2862
trau@@ 2860
Evangel@@ 2859
ec 2858
Ferdinand 2855
sz@@ 2851
etry 2848
Exper@@ 2843
appen 2841
201@@ 2838
cht 2832
1849 2831
Ein@@ 2823
Moun@@ 2823
GB 2817
stly 2814
anta 2811
Kno@@ 2806
ival 2806
0,@@ 2804
proper@@ 2801
Chin@@ 2800
Giovanni 2799
pen 2799
1847 2798
180 2791
Gang@@ 2790
alog 2787
ğ@@ 2787
Id@@ 2782
Fut@@ 2779
ially 2774
lag@@ 2771
{ 2768
Jak@@ 2761
rach@@ 2760
las 2757
lei@@ 2756
alif@@ 2749
Beh@@ 2748
Rum@@ 2741
shap@@ 2738
sible 2735
issu@@ 2734
ator@@ 2731
ial@@ 2731
ergy 2724
Hit@@ 2722
sur 2719
1846 2713
Franz 2711
Minist@@ 2711
bud@@ 2704
\ 2703
ś@@ 2703
Aff@@ 2701
ring@@ 2698
Freder@@ 2694
ording 2690
Mei@@ 2688
1830 2678
Broo@@ 2674
gens 2670
oz@@ 2668
stadt 2668
lag 2667
ige 2663
ember 2660
Ze@@ 2657
erb@@ 2657
etes 2657
kon@@ 2657
kt@@ 2656
Leop@@ 2651
tary 2645
Charl@@ 2644
wan@@ 2644
ativ@@ 2641
erie 2641
emal@@ 2640
.. 2639
chin@@ 2638
ī 2638
1845 2637
aper 2636
asse 2636
olle@@ 2636
XX@@ 2632
Now@@ 2631
Arn@@ 2630
Ö@@ 2629
š 2629
nie 2628
Olymp@@ 2621
approxim@@ 2619
с@@ 2619
aller 2617
ral@@ 2617
sch 2616
én@@ 2614
gend@@ 2611
ainst 2607
igan 2601
It@@ 2599
Pac@@ 2594
entran@@ 2592
Past@@ 2591
Peri@@ 2590
spann@@ 2587
iff@@ 2586
Fon@@ 2582
Gel@@ 2581
traff@@ 2578
Staf@@ 2575
lein 2574
inus 2570
liga 2568
hen 2566
success@@ 2563
Fund@@ 2558
Spar@@ 2555
chen@@ 2555
osop@@ 2555
ı 2554
NS 2553
exu@@ 2546
DR 2544
diti@@ 2541
Int@@ 2531
Ax@@ 2527
Vor@@ 2521
1800 2517
Am 2514
nt 2514
Sport@@ 2513
Chor@@ 2510
gang@@ 2508
Asi@@ 2507
Lun@@ 2504
inners 2499
Berg@@ 2496
dedic@@ 2496
Relig@@ 2495
uer@@ 2495
nam 2494
beck 2487
SV 2486
Wis@@ 2486
ied@@ 2486
Hard@@ 2485
End@@ 2480
Sei@@ 2480
ploy@@ 2479
Hou@@ 2478
Gem@@ 2475
eler 2474
abe 2469
Frankfurt 2468
press@@ 2467
sab@@ 2467
immer 2456
bedro@@ 2453
α 2452
eine 2451
Las@@ 2450
1500 2448
hen@@ 2448
Satur@@ 2446
Thr@@ 2440
avail@@ 2438
Afgh@@ 2436
Autom@@ 2433
Tex@@ 2424
ling@@ 2415
ww@@ 2410
Zu@@ 2409
elt@@ 2409
orium 2409
Europ@@ 2401
leb@@ 2398
rom 2397
Stein@@ 2396
Metro@@ 2395
Fen@@ 2392
iana 2392
Itali@@ 2391
Ł@@ 2387
Religion 2385
Horn@@ 2384
religi@@ 2380
Tanz@@ 2378
len@@ 2376
Đ@@ 2376
did@@ 2374
Integ@@ 2370
accompan@@ 2370
Wagner 2367
berger 2362
Turn@@ 2359
ollar 2358
polic@@ 2351
Connec@@ 2343
Ital@@ 2342
Inf@@ 2340
mas 2340
ï@@ 2338
188@@ 2336
finale 2331
Ut@@ 2329
ufac@@ 2325
ð@@ 2321
typ@@ 2316
Spor@@ 2315
Zo@@ 2314
Dat@@ 2311
в@@ 2310
ught 2309
Bit@@ 2308
Ris@@ 2307
1815 2305
iven 2305
ken@@ 2303
immer@@ 2300
Leh@@ 2299
är@@ 2299
л@@ 2299
nis 2295
Miss@@ 2293
amme 2291
Chall@@ 2290
bourne 2290
ole@@ 2289
yond 2288
Č@@ 2286
eli 2284
ammad 2283
Single 2278
Stro@@ 2277
inge 2275
Bronze 2273
ywood 2273
Hugo 2268
Aug@@ 2266
Euro 2265
Sever@@ 2264
ο@@ 2261
iko 2260
individu@@ 2260
Differ@@ 2258
ben 2258
amen 2252
alen 2251
tained 2248
Are@@ 2242
hil@@ 2242
thal 2239
Lit@@ 2238
deliver@@ 2236
erk@@ 2236
igh 2235
ross 2234
obil@@ 2233
national@@ 2229
Burg@@ 2228
ener 2227
т@@ 2226
Online 2225
Wik@@ 2219
enes 2218
fried 2216
Wer@@ 2213
bli@@ 2212
Nass@@ 2210
bis 2210
Canadi@@ 2208
dem 2208
ț@@ 2205
premier@@ 2204
Da 2195
lished 2193
² 2192
els@@ 2191
Islam@@ 2188
National@@ 2188
Pion@@ 2187
Software 2186
Neu@@ 2185
Mom@@ 2183
Johann@@ 2181
к@@ 2179
Gru@@ 2174
Hub@@ 2172
gew@@ 2171
Julius 2169
issance 2169
Ludwig 2168
~ 2168
Hell@@ 2167
fan@@ 2162
rot 2162
Kul@@ 2157
inson 2157
189@@ 2155
cken 2154
halt 2151
Ord@@ 2149
sche 2147
Heinrich 2145
Schu@@ 2144
Schwar@@ 2144
Back@@ 2142
fig@@ 2135
engers 2134
abri@@ 2133
α@@ 2131
Ander@@ 2130
Wander@@ 2129
Temp@@ 2124
Ost@@ 2121
last@@ 2119
Budap@@ 2116
Kre@@ 2116
ku@@ 2113
tern@@ 2113
Hoff@@ 2110
ř@@ 2109
entr@@ 2108
Chic@@ 2103
Roth@@ 2103
Zi@@ 2102
Fall@@ 2096
Bibli@@ 2092
Rak@@ 2092
entum 2091
Gas@@ 2090
Metal 2089
ń 2089
contr@@ 2088
Ernst 2079
etimes 2075
dner 2073
Nord@@ 2072
owa 2072
Emp@@ 2071
echn@@ 2071
à@@ 2064
maxim@@ 2061
unter@@ 2061
Fried@@ 2060
bek@@ 2060
gia 2060
tronic 2058
Tag 2057
iden 2052
Bach 2050
chur@@ 2050
dition 2049
e.@@ 2048
Stur@@ 2040
3000 2039
tem@@ 2035
finan@@ 2031
dient 2029
sberg 2027
ynam@@ 2027
Strat@@ 2025
Sebastian 2021
} 2018
kur@@ 2012
ą@@ 2010
190@@ 2007
Vie@@ 2001
alien 2001
inform@@ 2000
ourn@@ 1999
PD 1995
Eliz@@ 1994
lung 1989
artic@@ 1988
ohn 1987
rug@@ 1987
adj@@ 1985
agne 1983
fabri@@ 1979
agen 1977
Kurt 1974
alley 1973
zin@@ 1972
tens 1971
wand@@ 1971
Anton 1965
Expedition 1965
187@@ 1964
Bin@@ 1962
Wag@@ 1959
omen 1959
Hung@@ 1958
deg@@ 1954
ffer 1954
Moder@@ 1953
ko@@ 1953
trainer 1950
Exp@@ 1943
abil@@ 1942
power@@ 1941
Generation 1939
Nah@@ 1939
wo 1939
lich@@ 1936
atz 1930
illion 1930
angel@@ 1924
ilit@@ 1922
Ž@@ 1922
itar 1920
auer 1919
itzer 1919
Leipzig 1918
hin 1915
bru@@ 1908
Roh@@ 1904
Rit@@ 1899
ought 1898
hus@@ 1897
mei@@ 1897
uter@@ 1896
Bach@@ 1894
Basel 1887
Sov@@ 1885
Phase 1884
isch 1884
Kri@@ 1882
ark 1871
ć@@ 1871
burgh 1870
ellen@@ 1866
oly@@ 1866
İ@@ 1862
forts 1860
intensi@@ 1860
Pati@@ 1859
chair@@ 1858
Ide@@ 1856
Gott@@ 1854
hardt 1854
Milli@@ 1850
dt 1850
Bill@@ 1849
Flu@@ 1847
Mann 1845
lor 1845
Initiative 1843
Organisation 1843
Pseud@@ 1843
ë 1841
Ç@@ 1839
atten@@ 1836
Jul@@ 1830
Dut@@ 1829
commod@@ 1828
etter 1828
asons 1822
Wein@@ 1819
Die@@ 1818
Kob@@ 1818
Francis@@ 1816
DF@@ 1812
stur@@ 1809
Gast@@ 1807
Muse@@ 1806
Wolf@@ 1806
isl@@ 1806
SG 1803
Baden 1802
Ś@@ 1800
185@@ 1797
Co. 1797
bei 1795
abin@@ 1792
rak@@ 1791
μ@@ 1790
kor@@ 1788
Bank@@ 1787
ambigu@@ 1787
capac@@ 1780
Liz@@ 1779
etz 1772
öl@@ 1772
Hermann 1770
gem@@ 1770
Adolf 1769
186@@ 1765
Georg 1763
amin 1762
d. 1757
dition@@ 1756
xis 1755
Sym@@ 1753
Prop@@ 1749
Kö@@ 1748
cc@@ 1745
enstein 1744
garten 1743
Kub@@ 1742
Deutsche 1740
Admir@@ 1739
Ō@@ 1737
ö 1735
Stef@@ 1734
Bundesliga 1732
Develop@@ 1732
ago@@ 1730
ý 1728
ʼ@@ 1728
ahl 1725
Get@@ 1723
einer 1723
candid@@ 1721
rd 1721
Afric@@ 1717
Europa 1717
bein@@ 1716
Anth@@ 1715
Koh@@ 1714
contem@@ 1713
ockey 1713
Gle@@ 1710
Fest@@ 1709
ú 1708
deo 1705
Johannes 1702
epis@@ 1702
republi@@ 1702
twel@@ 1699
Stefan 1698
Winter@@ 1698
β 1698
deck@@ 1697
Lew@@ 1696
Hist@@ 1695
ld 1693
evangel@@ 1691
Tay@@ 1690
yland 1689
alter 1688
dens@@ 1685
kel 1681
Isl@@ 1679
Instr@@ 1677
eim 1676
entin 1676
dorf 1675
offic@@ 1673
erc@@ 1669
ien@@ 1669
Vog@@ 1666
otte 1666
urity 1666
ener@@ 1665
ʻ@@ 1664
ل@@ 1662
Sach@@ 1660
gram 1653
ür@@ 1653
call@@ 1650
ς 1649
hous@@ 1648
aup@@ 1647
sein 1646
usses 1646
Schw@@ 1644
kas 1638
Ring@@ 1635
DV@@ 1633
Secret@@ 1632
thod@@ 1632
estic 1630
import@@ 1627
enst@@ 1626
mately 1625
arre@@ 1624
Hein@@ 1622
Span@@ 1622
heimer 1616
overn@@ 1614
Hand 1612
½ 1611
bay@@ 1610
ă 1607
Dresden 1605
uren 1605
ehic@@ 1602
Auto 1601
schedul@@ 1599
elf 1598
Centr@@ 1594
Gö@@ 1594
Fru@@ 1593
Der 1592
Jord@@ 1585
Rudolf 1574
ische 1572
Sup@@ 1570
leh@@ 1569
olis 1566
commissi@@ 1564
uz 1560
rt 1559
τ@@ 1558
а 1557
Ere@@ 1556
atz@@ 1556
Kro@@ 1555
hn@@ 1554
hung 1554
unbe@@ 1552
Sek@@ 1550
124@@ 1549
warf 1549
Ent@@ 1548
ften 1548
iker 1545
ollen 1545
Dipl@@ 1539
ě@@ 1538
ρ@@ 1533
Zul@@ 1530
ż@@ 1529
Infra@@ 1528
Got@@ 1525
Defin@@ 1521
asch@@ 1521
aber 1520
Jah@@ 1519
Sonn@@ 1516
materi@@ 1515
eist@@ 1510
Von 1509
throp@@ 1509
î@@ 1508
Schmidt 1507
Nel@@ 1505
Pf@@ 1504
ahl@@ 1503
bec 1503
emann 1499
erh@@ 1499
expan@@ 1497
Bres@@ 1495
Premier@@ 1490
aden 1488
sour@@ 1487
a. 1486
appoint@@ 1485
Luf@@ 1482
Gustav 1479
ystem 1471
affe 1470
Andreas 1466
Stuttgart 1465
Phili@@ 1463
spra@@ 1463
zen@@ 1463
ynast@@ 1460
Elisabeth 1456
Jung@@ 1453
besie@@ 1453
Josep@@ 1449
Stand 1444
liam@@ 1444
Hoh@@ 1442
wen@@ 1440
Volks@@ 1437
bei@@ 1436
Å@@ 1436
Reich 1435
lich 1435
butions 1432
defe@@ 1431
Das 1429
gab@@ 1426
ön@@ 1426
д@@ 1425
hr 1424
blast 1423
auses 1422
Schul@@ 1419
pa@@ 1412
Isra@@ 1411
ricts 1410
tent@@ 1406
Hug@@ 1405
isse 1405
uch 1405
ü 1405
ppen 1403
Nord 1400
Fischer 1398
Prob@@ 1398
rei@@ 1398
Josef 1397
ets@@ 1397
Brenn@@ 1389
earch 1389
Afri@@ 1388
hausen 1388
kr@@ 1387
č 1385
aden@@ 1380
rift 1380
Rath@@ 1379
für 1378
Fritz 1377
rang 1375
ι@@ 1374
Olympi@@ 1373
ength 1373
enbach 1372
Kamp@@ 1368
kenn@@ 1368
Reich@@ 1367
· 1364
c. 1359
preme 1357
trag@@ 1352
aison 1348
Muh@@ 1346
anni 1345
Edu@@ 1342
Lok@@ 1339
Panz@@ 1339
Rau@@ 1335
ince 1335
owle@@ 1335
Programm@@ 1330
Dé@@ 1328
Herr@@ 1327
allen 1326
cker@@ 1326
atorium 1325
đ@@ 1325
Des 1323
adem@@ 1321
ende 1321
ymnasi@@ 1319
uf 1317
arf 1315
′ 1315
ultur@@ 1314
Columb@@ 1313
Brand 1307
Ensem@@ 1306
erne 1305
Jaz@@ 1304
Kop@@ 1304
Haf@@ 1293
enz 1293
» 1286
Form 1283
Schnei@@ 1283
Build@@ 1282
õ@@ 1281
Version 1280
Diplom@@ 1279
ific 1275
Wen@@ 1272
« 1267
Ş@@ 1265
arina 1264
etter@@ 1264
ahr@@ 1259
ş 1259
ε@@ 1259
funk 1258
angs@@ 1257
reau 1255
caus@@ 1250
aissance 1248
iddle 1247
vern@@ 1247
Witt@@ 1246
ident@@ 1245
Fren@@ 1244
ritten 1244
strö@@ 1243
ween 1242
.-@@ 1241
ls@@ 1238
NCA@@ 1235
Mex@@ 1234
Den 1233
ausen 1233
Amer@@ 1226
Lincol@@ 1226
ething 1220
ül@@ 1220
ä 1218
ē@@ 1218
Austral@@ 1216
Dah@@ 1216
bare 1215
inger@@ 1213
alien@@ 1212
nier 1210
oti@@ 1208
haus 1206
fest 1204
Samm@@ 1203
Restaur@@ 1201
tum 1201
Gest@@ 1198
loss@@ 1197
ν@@ 1197
Schl@@ 1196
Wolfgang 1194
lang 1192
Franç@@ 1190
у@@ 1184
Minn@@ 1183
sth@@ 1183
chn@@ 1182
sei 1182
urg 1179
Württemberg 1178
erly 1178
Renn@@ 1177
Werner 1176
ün@@ 1176
bron@@ 1175
ə@@ 1171
stag 1169
Stein 1168
Bremen 1164
pp 1164
Lich@@ 1162
oft 1161
olo@@ 1160
Helm@@ 1159
Sebast@@ 1159
@ 1158
Es 1155
Matth@@ 1154
Status 1154
Temper@@ 1154
Juni@@ 1151
Kle@@ 1151
Tau@@ 1149
beginn@@ 1143
lang@@ 1140
Gymnasium 1139
Engl@@ 1137
Famili@@ 1137
Hof@@ 1136
Zürich 1136
ø 1136
Bahn 1132
Brandenburg 1128
м@@ 1128
iw@@ 1125
Kaiser 1123
م@@ 1122
Brau@@ 1121
Berg 1120
ș 1117
adel@@ 1116
Ø@@ 1115
Bern 1114
pub@@ 1112
cke 1104
wagen 1099
kun@@ 1098
ź 1098
Nomin@@ 1096
zw@@ 1094
cow 1092
eger 1091
mm@@ 1091
λ@@ 1088
Ins@@ 1087
entur@@ 1086
ickl@@ 1085
Them@@ 1083
dig 1083
rang@@ 1082
nen 1081
Gut@@ 1079
isen 1079
kop@@ 1078
Margar@@ 1072
endorf 1071
relati@@ 1066
Diet@@ 1065
Analy@@ 1063
orie 1061
umen 1061
Alli@@ 1059
Charts 1058
Barbar@@ 1056
Stol@@ 1054
wth 1053
zum@@ 1048
ahn@@ 1046
ircul@@ 1046
sylvania 1046
probl@@ 1045
eres 1044
Müller 1040
inen 1040
aner 1038
Ort@@ 1037
κ@@ 1034
ر@@ 1034
् 1034
chest@@ 1032
duk@@ 1032
opul@@ 1032
neu@@ 1031
Klu@@ 1030
tings 1028
wander@@ 1025
Haus@@ 1023
stadi@@ 1022
Kauf@@ 1020
fem@@ 1014
emeter@@ 1013
Wash@@ 1012
fern@@ 1009
üt@@ 1008
Miner@@ 1006
Ż@@ 1005
e. 1004
191@@ 1003
aren 1003
tiger 999
gely 998
Lü@@ 997
fen@@ 997
wei 995
ular@@ 994
Ó@@ 992
Sich@@ 990
Heidelberg 989
→ 987
Salzburg 986
aum 986
ò 984
edt 983
stad@@ 983
lau 982
ht 980
trop@@ 980
σ@@ 977
Internation@@ 976
Zer@@ 976
arab@@ 974
Descri@@ 973
Holstein 973
schw@@ 973
brie@@ 971
Institut 970
rand 970
Verb@@ 968
Eck@@ 966
Eber@@ 965
Wehr@@ 965
å 965
äl@@ 963
Start 962
rence 962
ldwide 961
Refer@@ 960
straße 959
Zy@@ 957
ő@@ 956
ahr 955
Kron@@ 954
kom@@ 954
wart 954
Aus@@ 949
iland 949
aill@@ 945
onen 945
Seine 943
Saar@@ 942
Río 941
oren 940
ensburg 939
Engel@@ 937
Materi@@ 932
ange@@ 930
rech@@ 929
Chair@@ 928
bibli@@ 926
Tier@@ 925
elop@@ 925
eis 924
anger@@ 918
Zw@@ 917
ي@@ 917
و@@ 916
Wilhel@@ 914
oder 914
É 914
ư@@ 912
ungs 911
Rug@@ 910
jet@@ 909
Theat@@ 907
Oly@@ 906
Regim@@ 906
Düsseldorf 905
drei 905
train@@ 905
zin 900
än@@ 900
Seb@@ 899
sdorf 899
zur@@ 898
п@@ 898
Joachim 897
† 897
essen 896
gut 894
Bayern 893
Gusta@@ 893
demon@@ 893
sod@@ 893
Kent@@ 892
gau 891
§ 891
Bundes@@ 889
berg@@ 889
Lond@@ 888
Text 888
Viz@@ 886
nis@@ 886
Kant@@ 885
Wir@@ 885
lightly 885
ł 885
ipment 884
rondiss@@ 884
ʿ@@ 883
rü@@ 882
ongside 881
Feld@@ 880
Heinz 879
cil 876
ob 876
GmbH 875
Klaus 875
verg@@ 875
Ú@@ 875
denburg 874
aust@@ 873
selves 870
Hier@@ 867
Î@@ 866
± 864
uer 863
burger 862
fen 861
wig 861
Found@@ 859
zur 858
Ó 858
hl 853
Mai 852
eich@@ 852
othe@@ 852
quick@@ 852
Reichs@@ 851
Kast@@ 850
ê 847
Fabri@@ 846
rug 846
undes@@ 846
gs@@ 842
alth 841
utz@@ 841
Æ@@ 841
Bonn 840
ppe 837
rek@@ 837
enden 836
Sper@@ 833
utz 833
neur 829
Elis@@ 827
Meckl@@ 827
anl@@ 826
Depart@@ 825
eren 822
gem 820
Dies@@ 818
Gord@@ 818
и 817
kul@@ 816
macht 816
Wald@@ 815
esen 815
haf@@ 814
plann@@ 814
ė 814
Wies@@ 813
Singap@@ 811
iens 810
leav@@ 810
eist 809
gig 808
christ@@ 807
lech@@ 807
König@@ 805
kat@@ 805
Trau@@ 804
progr@@ 804
Unter@@ 802
ạ@@ 800
ece 797
General@@ 796
brecht 796
primar@@ 796
Mainz 794
Rand 792
iere 792
riff@@ 792
й 792
г@@ 791
Professi@@ 790
doch 790
ו@@ 789
è 787
bst@@ 786
Inform@@ 783
Ā@@ 783
Dall@@ 782
Flag@@ 782
Schleswig 781
SPD 780
chs 778
grad 778
ritt 776
sheim 776
ệ@@ 774
lug 773
ب@@ 773
auf@@ 772
cipl@@ 772
dener 772
eigen@@ 770
riff 770
second@@ 770
Person 769
ḥ@@ 769
Sieg@@ 767
י@@ 765
Interpre@@ 764
Kiel 764
Kind@@ 764
Osc@@ 764
Urs@@ 762
Bli@@ 757
scher 757
Dort@@ 756
bahn 754
liest 752
ṭ@@ 752
jap@@ 751
UE@@ 750
ß 750
witz 748
π@@ 748
Rhein@@ 747
hof 747
Text@@ 746
б@@ 746
Dollar 745
ơ@@ 745
Hoch@@ 744
Ulrich 744
ė@@ 743
Nach@@ 742
Gün@@ 740
Halle 740
erner 740
Dres@@ 739
apos@@ 738
kol@@ 738
ortun@@ 738
sie@@ 738
ò@@ 737
achen 735
ả@@ 735
Eduard 733
Bernhard 732
Fak@@ 732
brü@@ 732
rö@@ 732
ehr 731
sto@@ 731
Ged@@ 730
ularly 728
region@@ 727
ن@@ 727
etts 726
Eich@@ 725
atist@@ 725
iste 725
ischer 724
kap@@ 724
assen 723
Merk@@ 722
Ges@@ 721
Volk@@ 721
Situ@@ 719
eckl@@ 719
ṣ@@ 718
Kirch@@ 717
ikan@@ 715
ì@@ 713
Dek@@ 710
Autob@@ 707
Theodor 707
ielle 707
fern 706
ì 706
Schn@@ 705
lingen 705
Wur@@ 704
brit@@ 704
oten 704
ŏ@@ 703
bald 702
ṇ@@ 702
Freiburg 698
Gü@@ 698
spru@@ 698
С@@ 697
Lö@@ 695
193@@ 694
Brie@@ 693
я 692
`@@ 688
utive 688
Graf@@ 687
Probl@@ 685
auff@@ 685
üb@@ 685
│ 685
wehr 683
acht@@ 682
jah@@ 682
sili@@ 681
Verk@@ 679
veg@@ 679
е 679
Philipp 678
iques 678
schule 678
Rund@@ 677
nun 677
atur 674
ţ@@ 674
verl@@ 672
kilom@@ 671
uten@@ 671
Jakob 668
ß@@ 668
^ 666
″ 660
cht@@ 655
brun@@ 653
emales 653
meister 653
wom@@ 653
Leit@@ 652
wie@@ 652
ý@@ 652
Jür@@ 651
Ehr@@ 650
Internationale 650
Nieder@@ 650
Milit@@ 649
nitz 649
о 648
س@@ 647
ilton 646
tigen 646
Spiel@@ 645
Kla@@ 644
onders 644
Rat 643
amm 641
Bek@@ 640
Glas@@ 639
Zeal@@ 639
Karlsru@@ 638
onie 638
unde 637
Kinder@@ 636
ersch@@ 635
sam 635
Ü@@ 635
ν 634
Foll@@ 633
Kind 626
Queens@@ 626
Best@@ 625
з@@ 625
Californ@@ 624
Rez@@ 622
ễ@@ 622
Sow@@ 621
γ@@ 621
Christoph 620
zt 620
Stell@@ 619
pie@@ 619
ã@@ 619
furt 618
Kli@@ 615
kam 615
ç 614
Handel 613
Heil@@ 613
Ukra@@ 613
Mens@@ 611
anz 611
Russ@@ 610
Sü@@ 610
ohl 610
champ@@ 608
Gerhard 607
öp@@ 606
Exec@@ 605
υ@@ 603
ío 602
û@@ 601
Erd@@ 600
Eh@@ 597
η@@ 597
Deutsch@@ 596
System@@ 595
ensch@@ 594
Kraft 591
Stern@@ 591
ô 591
Rek@@ 590
Schön@@ 589
erw@@ 589
sylv@@ 588
ittle 587
Elek@@ 586
sich@@ 585
teur 585
ί@@ 585
Richter 584
Ș@@ 584
urop@@ 583
œ@@ 583
Darm@@ 582
Himm@@ 582
kra@@ 581
CDU 578
Dok@@ 578
wort 578
Aust@@ 577
thur 577
lichen 575
Graf 574
aille 574
lei 574
ffen 573
Fei@@ 572
Tor 572
் 572
Haupt@@ 571
Jap@@ 571
professi@@ 571
Mein@@ 570
wes@@ 570
level@@ 569
Atlan@@ 568
ά@@ 568
kei 567
Virgin@@ 565
i.@@ 565
ù 565
spro@@ 564
δ@@ 564
Ab 563
Austri@@ 563
burg@@ 561
Landes@@ 560
beha@@ 560
ellen 560
Christop@@ 559
Geh@@ 559
Material 559
inne 559
Schwarz@@ 558
aub@@ 558
Göttingen 556
Ritter 556
entw@@ 556
verk@@ 556
öh@@ 556
ч@@ 554
ungs@@ 552
د@@ 550
Konrad 549
Orchest@@ 549
Stad@@ 549
noch 549
osen 548
ouri 546
Lokomot@@ 545
isse@@ 544
ن 544
Athlet@@ 543
iger@@ 542
Klein@@ 539
geh@@ 539
Kup@@ 538
Position 538
eiler 536
Í@@ 536
Sept@@ 534
iken 534
issen 533
zie@@ 533
в 533
Mal 532
wich@@ 532
Giov@@ 527
Nether@@ 527
auf 527
Frit@@ 526
Geb@@ 525
kre@@ 525
nd 524
resul@@ 524
erer 523
β@@ 523
Fot@@ 522
mau@@ 522
stes 522
Nur 521
gyp@@ 521
kt 521
pf@@ 520
Grund@@ 519
lieb 518
Pitts@@ 516
199@@ 515
icro@@ 515
secon@@ 515
Mün@@ 514
Boot 513
Hö@@ 511
Vier@@ 511
Label 509
ы@@ 509
Tradition 508
sbach 508
ums@@ 508
ь@@ 508
werk 507
ό@@ 507
Jimm@@ 506
nach 506
К@@ 506
Magde@@ 505
rei 504
hio 503
Energ@@ 502
ع@@ 502
jek@@ 500
klin 500
tig 500
g. 499
entit@@ 498
isches 498
üh@@ 498
Wand@@ 495
weg 495
Bem@@ 494
Süd@@ 494
Þ@@ 493
allel 492
occur@@ 489
stark 488
Frie@@ 487
erland 487
Rö@@ 486
н 486
Wien 485
andes 485
Fein@@ 484
Grab@@ 484
Reit@@ 483
Funk@@ 482
Hä@@ 482
erin 482
ầ@@ 480
大@@ 480
1. 479
jaz@@ 477
Rü@@ 475
erte 475
ã 475
М@@ 474
iegel 473
γ 473
Stadion 472
vier@@ 471
µ@@ 471
nah@@ 470
.000 469
2. 469
WM 469
weil@@ 469
Würz@@ 468
rem 468
äm@@ 468
engl@@ 467
zun@@ 467
‑ 465
Kunst@@ 464
מ@@ 464
Bist@@ 463
Frau@@ 463
Wiener 462
neh@@ 462
porary 462
isten 461
Alten@@ 460
DAP 458
Wach@@ 458
blatt 458
Kaiser@@ 457
tung 457
Regional@@ 456
sych@@ 455
Bü@@ 454
dene 454
198@@ 453
alles 453
cken@@ 451
nationale 451
Tür@@ 450
Stadi@@ 448
enen 448
Mitt@@ 447
zir@@ 445
utn@@ 444
ologie 443
Groß@@ 442
Pers@@ 441
´ 441
Berliner 440
ived 440
195@@ 439
197@@ 439
platz 439
Hannover 438
П@@ 437
riss 436
sprung 436
ober@@ 435
Frei@@ 434
führer 434
¥ 432
ocial 431
dern 430
ح@@ 430
öder@@ 429
ר@@ 429
Stadt@@ 428
ppi 428
Münster 425
iges 425
Gesellschaft 424
gemeinde 423
ה@@ 423
Schm@@ 422
gart 422
ù@@ 422
ی@@ 422
deh@@ 421
iele 421
ivers@@ 421
utnant 420
ت@@ 419
Grün@@ 418
Musik 417
hoch@@ 417
richt 417
ös@@ 416
Essen 414
Köln 414
Train@@ 413
ő 413
́ 413
funk@@ 412
λ 412
Dach@@ 411
Klin@@ 411
kirchen 411
mee 411
А@@ 410
fs@@ 409
ž 409
ա@@ 409
192@@ 408
Eben@@ 408
auch 408
В@@ 408
Mehr@@ 407
liche 407
Gatt@@ 404
Hochschule 404
Musik@@ 404
中@@ 404
stein@@ 403
Tal 402
ي 402
ω@@ 400
د 399
Schau@@ 398
langu@@ 398
ungen 398
Organis@@ 397
ğ 396
issen@@ 395
tei@@ 394
Montre@@ 393
osoph@@ 393
jen@@ 391
Tie@@ 388
Ä@@ 387
ehr@@ 386
ilom@@ 386
Brookl@@ 385
Kriegs@@ 385
orf 385
æ 385
Δ@@ 385
azine 384
Dich@@ 383
essel@@ 383
gesch@@ 383
Ḥ@@ 382
Zeitung 381
acent 381
aturing 381
bew@@ 381
Rech@@ 380
Salz@@ 380
Dez@@ 379
komm@@ 379
א@@ 379
ל@@ 379
196@@ 378
Illin@@ 378
tsch@@ 378
Bei 377
Kern@@ 377
ة 377
tau@@ 376
ï 376
ð 376
Bö@@ 375
Deutsch 375
rag 375
π 374
baller 373
nament 372
buch 371
feld@@ 371
Holz@@ 370
midt 370
recht 369
asen 368
hier 368
ц@@ 368
ב@@ 368
lok@@ 367
Gip@@ 366
Ludwig@@ 366
Schei@@ 366
lass 366
ש@@ 366
ligen@@ 365
Herzog 364
lieg@@ 364
Brü@@ 363
Champion@@ 363
Color@@ 363
Kü@@ 363
amt 363
tei 363
äh@@ 363
eten 362
kön@@ 362
ň 362
dung 360
ر 360
Hamburger 359
reiber 359
Rhein 358
ε 358
Für@@ 357
ivalent 357
quired 357
stelle 357
leben 355
wie 354
zul@@ 354
₹ 354
Mön@@ 352
Staats@@ 352
Zun@@ 352
azin 349
bau 349
、 349
Ein 347
arten 346
Kenne@@ 345
Kev@@ 345
Sonder@@ 345
Weg@@ 345
tier@@ 345
ņ@@ 345
Baum@@ 344
έ@@ 344
Б@@ 343
ч 343
Sankt 342
Schwer@@ 342
etten 342
diente 341
ḍ@@ 341
Wass@@ 340
vehic@@ 340
δ 340
х@@ 340
് 340
3. 339
Infan@@ 339
Schloss 339
affen 339
Tsch@@ 338
η 338
θ@@ 338
Erz@@ 337
ät@@ 337
村 337
Beit@@ 335
erste 335
ög@@ 335
sas 334
ütz@@ 334
sow@@ 333
zig 333
ι 333
‐ 333
wig@@ 332
ش@@ 332
Karls@@ 331
Ḩ@@ 331
נ@@ 330
hinter@@ 329
Gruppe 328
Rä@@ 328
sek@@ 327
4. 326
Fahr@@ 326
itsch 326
Schle@@ 325
Seh@@ 325
Zwei@@ 325
ź@@ 325
ubli@@ 324
Α@@ 324
gow 323
orte 323
Deutschland 322
Region@@ 322
ück@@ 322
χ@@ 322
р 322
σ 321
Neue 320
atik 320
া@@ 320
Fach@@ 319
я@@ 319
phia 317
Ruh@@ 316
Seit@@ 316
Alter@@ 315
Verlag 315
reich 315
wend@@ 315
Emper@@ 314
erium 314
ω 314
Н@@ 314
Heim@@ 313
Stim@@ 313
verein 313
ف@@ 313
Apri@@ 312
austral@@ 312
fang 312
Kreuz@@ 311
amt@@ 311
Im 309
Mittel@@ 309
otz@@ 309
Straße 308
eln 308
ē 308
Stei@@ 307
eim@@ 307
Freih@@ 305
kreis 305
і@@ 305
Braun@@ 304
zei@@ 304
äs@@ 304
μ 304
Start@@ 303
Woh@@ 303
lig 303
otz 303
Haus 302
inhabit@@ 302
ج@@ 302
Voll@@ 301
ш@@ 301
Braunschweig 300
Gie@@ 300
dau@@ 300
ions@@ 300
Grie@@ 299
för@@ 299
mande@@ 299
ociation 299
Fass@@ 298
Franz@@ 298
feat@@ 298
Aller@@ 296
Spitz@@ 296
zip 296
Nürnberg 295
iten 295
lige 295
stif@@ 295
Г@@ 295
า@@ 295
„ 295
Schles@@ 293
fel 292
Ć@@ 292
ж@@ 292
Kais@@ 291
verm@@ 291
州 291
izi@@ 290
schn@@ 290
َ@@ 290
anst@@ 289
ύ@@ 289
Vers@@ 288
bination 288
Р@@ 287
к 287
Amt 286
Zeit@@ 286
bahnhof 286
spiel 286
such@@ 286
lage 285
schaft 285
erl@@ 284
Alter 283
ś 283
igen 282
Д@@ 282
schen 281
φ@@ 281
leit@@ 280
® 280
ň@@ 280
ə 280
Böh@@ 279
Kreis 279
regi@@ 279
ț 279
ー@@ 279
Beam@@ 278
ů@@ 278
т 278
är 277
ồ@@ 277
Landtag 276
seh@@ 276
й@@ 276
Syd@@ 275
afen 275
buch@@ 275
verw@@ 275
¼ 275
Damp@@ 274
ق@@ 274
Kreis@@ 273
Kunst 273
Reis@@ 273
Universität 273
aliforn@@ 273
ǎ@@ 273
ь 273
Stau@@ 272
þ@@ 272
ộ@@ 272
≤ 272
³ 270
Fisch@@ 269
Kapit@@ 269
Klo@@ 269
enten@@ 269
lecht 269
ograf@@ 269
Krieg@@ 268
Neub@@ 268
kau 268
München 267
asket@@ 267
№ 267
ischen 266
Å 266
Ziel@@ 265
¡ 265
ه@@ 265
ị@@ 265
europ@@ 264
≥ 264
Alab@@ 263
alem 262
Tod 261
gef@@ 261
zil 261
äger 261
Κ@@ 261
Puer@@ 260
Tats@@ 260
ร@@ 260
И@@ 259
Wahl@@ 258
bern 258
wur@@ 258
ắ@@ 258
ế@@ 258
Ω 257
Hof 256
Schwei@@ 256
ם 256
ا 256
zei 255
Finale 254
denk@@ 254
haus@@ 254
ŭ@@ 254
ế 254
Balti@@ 253
Politi@@ 253
Sold@@ 253
Trainer 253
ommern 253
Ferdin@@ 252
Nür@@ 252
Schä@@ 252
hö@@ 252
rä@@ 252
î 250
φ 250
Bisch@@ 249
Mississi@@ 249
Weit@@ 249
Ö 249
ḩ@@ 248
schei@@ 247
willi@@ 247
Kultur@@ 246
Ont@@ 246
Platt@@ 246
Wasser@@ 246
dok@@ 245
â 245
Norwe@@ 244
Süd 244
ậ@@ 243
Führ@@ 242
o. 242
zum 242
Σ@@ 242
ח@@ 242
gert 241
nach@@ 241
ṛ@@ 241
Syst@@ 240
herr@@ 240
ע@@ 239
5. 238
DDR 238
ieder@@ 238
schl@@ 238
wand 238
uten 237
О@@ 237
ی 237
deutsche 235
ehm@@ 235
ы 234
Autor@@ 233
Mühl@@ 233
Strom@@ 233
atre 233
་ 233
ʾ@@ 232
Π@@ 232
Misch@@ 231
ebru@@ 231
Privat@@ 230
rieg 230
θ 230
ك@@ 230
Schiff 229
üch@@ 229
abeth 228
Studi@@ 227
ṃ@@ 226
の@@ 226
Mär@@ 225
eis@@ 223
etten@@ 223
sich 223
º 223
Benj@@ 222
enten 222
Platz 220
terer 220
Т@@ 220
্ 220
天@@ 220
Kün@@ 219
Luft@@ 219
eball 219
ị 219
Leich@@ 218
ün 218
Ε@@ 218
Ehren@@ 217
ür 217
ה 217
Arrondissement 216
Dem 216
Portugu@@ 216
liches 216
rese@@ 216
weit@@ 216
م 216
kri@@ 215
ʼ 215
Situation 214
gung 214
8. 213
Kammer@@ 213
Sommer@@ 213
akti@@ 213
fak@@ 213
üd@@ 213
Meter 212
Stadt 212
dige 212
eister 212
ßen 212
Burg 211
м 211
ọ@@ 211
Sied@@ 209
Silber@@ 209
riere 209
sog@@ 209
soll 209
Akademie 208
Lehr@@ 207
eils 207
enheit 207
∞ 207
≈ 207
Erb@@ 206
icht 206
uhl 206
eich 205
statt 205
ĩ@@ 205
ן 205
aben 204
ucky 204
weis@@ 204
werke 204
Gesch@@ 203
gilt 203
gruppe 203
igt 203
provin@@ 203
Δ 203
น@@ 203
山@@ 203
王@@ 203
unden 202
李@@ 202
chter 201
ờ@@ 201
Mül@@ 200
voll 200
walt 200
ř 200
Μ@@ 200
ấ@@ 200
Allgem@@ 199
် 199
Linc@@ 198
furter 198
z. 198
¢ 198
ḥ 198
ố@@ 198
Stif@@ 197
gesellschaft 197
kung 197
zona 197
ز@@ 197
Kör@@ 196
lö@@ 196
zip@@ 196
Dies 195
Feh@@ 195
bef@@ 195
ivil@@ 195
ل 195
Auf@@ 194
， 194
König 193
Oreg@@ 193
aue 193
klasse 193
Ț@@ 193
金@@ 193
Bew@@ 192
Eig@@ 192
ン@@ 192
Sommer 191
eher 191
eres@@ 191
eines 190
leans 190
Ire@@ 189
zeit@@ 189
üm@@ 188
Zeh@@ 187
kirche 187
weg@@ 187
‡ 187
gebor@@ 186
ρ 186
ד@@ 186
ه 186
文@@ 186
Schiff@@ 185
entri@@ 185
ě 185
υ 185
خ@@ 185
7. 184
ausch 184
mün@@ 184
أ@@ 184
Meer 183
ammen 183
ר 183
ittel@@ 182
เ@@ 182
Denk@@ 181
Geg@@ 181
Hinter@@ 181
Welt@@ 181
ή@@ 181
Dör@@ 180
felder 180
licher 180
utsch@@ 180
Staat@@ 179
angen 179
lager 179
Barcel@@ 178
ק@@ 178
affel 177
atten 177
zus@@ 177
ک@@ 177
Oper 176
Rang 176
Schwe@@ 176
Welt 176
hre 176
rupp@@ 176
ħ@@ 176
ż 176
∈ 176
Köl@@ 175
Ost 175
langen 175
כ@@ 175
ל 175
க@@ 175
่ 175
För@@ 174
Gott 174
Komp@@ 174
Völ@@ 174
adrat@@ 174
ations@@ 174
heim@@ 173
Φ@@ 173
三@@ 173
kü@@ 172
Л@@ 172
ո@@ 172
Preis 171
iegel@@ 171
reich@@ 171
у 171
อ@@ 171
Rolle 169
dienst 169
ṅ@@ 169
6. 168
Repres@@ 168
graben 168
ব@@ 168
Grupp@@ 167
Stiftung 167
Zeit 167
Brasili@@ 166
Wald 166
bst 166
gemeinschaft 166
nur 166
tenden 166
welt 166
Τ@@ 166
ص@@ 166
公@@ 166
Nr. 165
leiter 165
schutz 165
äu@@ 165
ũ@@ 165
פ@@ 165
ก@@ 165
ề@@ 165
Wett@@ 164
aufen 164
kamp@@ 164
ি@@ 164
国@@ 164
9. 163
Bahn@@ 163
Kinder 163
ennen 163
irche 163
κ 163
ứ@@ 163
Edin@@ 162
Hör@@ 162
д 162
─ 162
Fü@@ 161
klin@@ 161
schrift 161
ф@@ 161
dorfer 160
fabrik 160
fei@@ 160
inspi@@ 160
ossen 160
Bezirks@@ 159
Er 159
Wun@@ 159
stei@@ 159
üs@@ 159
י 159
Flug@@ 158
Hessen 158
Ich 158
` 158
elek@@ 158
äch@@ 158
Blü@@ 157
Boden 157
Geschichte 157
dopp@@ 157
otel 157
themati@@ 157
urch 157
ļ@@ 157
Σ 157
ת@@ 157
ா@@ 157
ồ 157
Schweizer 156
Zu 156
Zug@@ 156
eile 156
Bür@@ 155
campa@@ 155
Bä@@ 154
enhaus 154
schau 154
ÿ@@ 154
Kamer@@ 153
eben@@ 153
ง@@ 153
ớ@@ 153
新@@ 153
Frau 152
Schutz@@ 152
ŋ@@ 152
南@@ 152
х 151
ј@@ 151
ت 151
و 151
த@@ 151
人@@ 151
Boden@@ 150
Fürst@@ 150
Münch@@ 150
egen 150
einen 150
gek@@ 150
hof@@ 150
preis 150
τ 150
Norden 149
ockey@@ 149
ographie 149
öst@@ 149
・ 149
一@@ 149
Eish@@ 148
Â@@ 148
ť@@ 148
sied@@ 147
ி@@ 147
Masch@@ 146
akademie 146
auen 146
dert 146
mingham 146
verband 146
ο 146
้ 146
子 146
Komm@@ 145
Spann@@ 145
deutscher 145
forn@@ 145
samm@@ 145
tere 145
ת 145
國@@ 145
Gedi@@ 144
Kanz@@ 144
Kraft@@ 144
ľ@@ 144
Sieg 143
gebir@@ 143
ulen 143
ћ 143
ว@@ 143
Punk@@ 142
Staffel 142
eili@@ 142
itä@@ 142
¾ 142
Ñ@@ 142
ą 142
Λ@@ 142
ط@@ 142
ม@@ 142
Gut 141
Schule 141
astern 141
fft 141
gän@@ 141
ütte 141
ั@@ 141
eben 140
heb@@ 140
Common@@ 139
Sä@@ 139
bü@@ 139
Österreich@@ 139
ˈ@@ 139
ס@@ 139
東@@ 139
Scott@@ 138
ouver@@ 138
sein@@ 138
über 138
್ 138
人 138
海@@ 138
的@@ 138
Leben 137
fang@@ 137
л 137
ỹ 137
イ@@ 137
städ@@ 136
э@@ 136
上@@ 136
Lieder 135
Verein 135
raße 135
spek@@ 135
日@@ 135
Kilom@@ 134
Mitte 134
ekt@@ 134
spitz@@ 134
Ο@@ 134
™ 134
太@@ 134
Lauf@@ 133
Verkehrs@@ 133
Werke 133
angen@@ 133
nung 133
Lied 132
Wahl 132
assen@@ 132
ு@@ 132
₱ 132
高@@ 132
Landes 131
ritte 131
serie 131
useum 131
ų 131
র@@ 131
ส@@ 131
Janu@@ 130
Orts@@ 130
erne@@ 130
ichte 130
krit@@ 130
shof 130
thern 130
wach@@ 130
с 130
★ 130
ッ@@ 130
Bahnhof 129
Entw@@ 129
Frem@@ 129
Meister 129
Um 129
krieg 129
À 129
Ν@@ 129
Abitur 128
Anschluss 128
Wider@@ 128
ŵ@@ 128
У@@ 128
Drei@@ 127
Einsatz@@ 127
Klasse 127
Liebe 127
Werk@@ 127
Γ@@ 127
ή 127
⟩ 127
田@@ 127
Straf@@ 126
kti@@ 126
kund@@ 126
ス@@ 126
Arbeit@@ 125
Kloster@@ 125
fiz@@ 125
ა@@ 125
aily 124
chter@@ 124
entsp@@ 124
schaf@@ 124
ล@@ 124
ệ 124
Arkan@@ 123
Tö@@ 123
haber 123
zeug@@ 123
ъ@@ 123
⟨ 123
Büh@@ 122
Kampf@@ 122
Kolle@@ 122
Zeitschrift 122
geg@@ 122
sah 122
schul@@ 122
ũ 122
子@@ 122
家@@ 122
小@@ 122
häuser 121
Ф@@ 121
ր@@ 121
ب 121
Auf 120
Bau 120
ähr@@ 120
Ι@@ 120
ּ@@ 120
ി@@ 120
ิ@@ 120
Eisenb@@ 119
Prü@@ 119
drit@@ 119
fein@@ 119
rieg@@ 119
ն@@ 119
ാ@@ 119
이@@ 119
icht@@ 118
sä@@ 118
ǔ 118
平@@ 118
西@@ 118
Anf@@ 117
Chef@@ 117
Dorf@@ 117
Rom 117
ahoma 117
athol@@ 117
röm@@ 117
wegen 117
ώ@@ 117
Chor 116
Handels@@ 116
Wür@@ 116
erei 116
satz 116
vom 116
神@@ 116
Okl@@ 115
deren 115
itur 115
seinen 115
äne 115
ե@@ 115
ர@@ 115
。 115
ル@@ 115
本@@ 115
Bild@@ 114
Buch 114
bezirk 114
fried@@ 114
hren 114
othek 114
tene 114
wasser 114
ünd@@ 114
ন@@ 114
Halb@@ 113
Kommun@@ 113
Landkreis 113
Pfalz 113
hie@@ 113
mals 113
üss@@ 113
Ţ@@ 113
̱ 113
З@@ 113
ப@@ 113
ു@@ 113
Bürger@@ 112
wert 112
äf@@ 112
ক@@ 112
ọ 112
之@@ 112
北@@ 112
Meister@@ 111
Tore 111
anstalt 111
ttem@@ 111
Е@@ 111
ِ@@ 111
和@@ 111
有@@ 111
武@@ 111
Freund 110
geschichte 110
markt 110
teil 110
Über@@ 110
äd@@ 110
ǫ@@ 110
র 110
Ṭ@@ 110
山 110
Fußball 109
ː@@ 109
ַ@@ 109
ত@@ 109
市 109
Basis 108
Kurz 108
Verwaltungs@@ 108
koh@@ 108
º@@ 108
Ī@@ 108
ά 108
ю@@ 108
ְ@@ 108
ג@@ 108
් 108
安@@ 108
Weiß@@ 107
innen 107
ё@@ 107
र@@ 107
ห@@ 107
Haup@@ 106
Zug 106
conom@@ 106
mt 106
nicht 106
Α 106
Kateg@@ 105
Sohn 105
eichen 105
щ@@ 105
ւ@@ 105
ম@@ 105
া 105
》 105
Infanter@@ 104
Leip@@ 104
raum 104
¿ 104
û 104
ġ@@ 104
ː 104
म@@ 104
ക@@ 104
Ṣ@@ 104
ợ@@ 104
― 104
ラ@@ 104
Feuer@@ 103
einz@@ 103
ligen 103
masch@@ 103
ʽ@@ 103
Β@@ 103
Γ 103
ท@@ 103
ụ@@ 103
《 103
biet@@ 102
einem 102
erfol@@ 102
ihr 102
länder 102
oden 102
werk@@ 102
ŋ 102
元@@ 102
学@@ 102
Aus 101
Gouver@@ 101
Lebens@@ 101
zeit 101
Х@@ 101
ָ@@ 101
ב 101
צ@@ 101
พ@@ 101
リ@@ 101
不@@ 101
民@@ 101
Herren@@ 100
Nacht 100
lieb@@ 100
merk@@ 100
rhein 100
ʔ@@ 100
א 100
0.000 99
Frauen@@ 99
Literatur@@ 99
Män@@ 99
laut 99
ringen 99
tür@@ 99
weis 99
öff@@ 99
ǐ 99
ে@@ 99
ம@@ 99
Frauen 98
Lehrer 98
Proz@@ 98
ampion@@ 98
kreuz 98
stral@@ 98
tem 98
tions@@ 98
äss@@ 98
ʿ 98
ى 98
王 98
Bezir@@ 97
Deutschen 97
Sachsen 97
Thomp@@ 97
Wels@@ 97
abli@@ 97
brech@@ 97
gericht 97
knapp 97
ℓ 97
♭ 97
道@@ 97
Doppel@@ 96
Herbst 96
alz 96
ihr@@ 96
kunde 96
ruppe 96
spiele 96
À@@ 96
ück 96
ն 96
پ@@ 96
Akti@@ 95
chs@@ 95
zub@@ 95
з 95
ի@@ 95
ט@@ 95
ল@@ 95
வ@@ 95
ỳ 95
Kolon@@ 94
Teil@@ 94
brücke 94
erische 94
fand 94
gruppen 94
張@@ 94
Ende 93
Kurz@@ 93
fangs 93
ْ@@ 93
न@@ 93
ச@@ 93
● 93
い@@ 93
ト@@ 93
Bild 92
Geld@@ 92
Licht@@ 92
Markt 92
Sozial@@ 92
annen 92
erster 92
feh@@ 92
heit@@ 92
klar 92
musik 92
stanz 92
unver@@ 92
ย@@ 92
← 92
江@@ 92
郎 92
Exempl@@ 91
Jugend@@ 91
Netz@@ 91
en- 91
etim@@ 91
glas 91
oftw@@ 91
Ø 91
Ľ@@ 91
ζ@@ 91
ъ 91
ئ@@ 91
त@@ 91
劉@@ 91
司 91
明@@ 91
enzen 90
ं 90
ต@@ 90
城 90
Demokrat@@ 89
bruch 89
fahrt 89
ügel 89
林@@ 89
Kampf 88
ahlen 88
eien 88
espec@@ 88
h. 88
internationale 88
istische 88
u. 88
ữ 88
ー 88
通@@ 88
Abteilung 87
Stahl@@ 87
anderen 87
deutsch@@ 87
konom@@ 87
rän@@ 87
ÿ 87
Φ 87
์ 87
‰ 87
Erste 86
Große 86
Philadel@@ 86
Projekt 86
Wech@@ 86
abteilung 86
ismus 86
mö@@ 86
ohne 86
tie@@ 86
werks 86
Öl@@ 86
öss@@ 86
Ш@@ 86
र 86
। 86
Wirt@@ 85
گ@@ 85
त 85
ะ@@ 85
ḷ@@ 85
대@@ 85
Bischof@@ 84
Sein 84
Zentrum 84
fahr@@ 84
heit 84
oben 84
ª 84
യ@@ 84
ẩ@@ 84
⋅ 84
ン 84
Eigen@@ 83
Gef@@ 83
Gottes@@ 83
Stamm@@ 83
VID 83
Wissen@@ 83
deutschen 83
erten 83
Ü 83
ŭ 83
ơ 83
ộ 83
石@@ 83
道 83
Län@@ 82
turm 82
ἀ@@ 82
​ 82
方@@ 82
部@@ 82
사@@ 82
Dien@@ 81
Verband 81
Zentral@@ 81
bisher 81
änen 81
õ 81
ו 81
س 81
غ@@ 81
ク@@ 81
ロ@@ 81
十@@ 81
Vanc@@ 80
betrieb@@ 80
duz@@ 80
onnen 80
ţ 80
Θ@@ 80
ರ@@ 80
ಾ@@ 80
≠ 80
シ@@ 80
書@@ 80
河@@ 80
Osten 79
Unter 79
punk@@ 79
wir 79
ķ@@ 79
ִ@@ 79
प 79
ര@@ 79
น 79
水@@ 79
生@@ 79
Grenz@@ 78
gern 78
mühle 78
spiel@@ 78
zwei@@ 78
ßen@@ 78
ư 78
ɛ@@ 78
ξ@@ 78
г 78
ু@@ 78
ன 78
京@@ 78
区 78
我@@ 78
陳@@ 78
Zü@@ 77
alte 77
dass 77
dunk@@ 77
oung 77
schaften 77
ühle 77
Χ@@ 77
Ч@@ 77
ন 77
ர 77
പ@@ 77
Ἀ@@ 77
‍ 77
♯ 77
ア@@ 77
光@@ 77
Maschin@@ 76
Thür@@ 76
Vorder@@ 76
Wieder@@ 76
anten 76
ieren 76
stens 76
đ 76
ɔ@@ 76
ʾ 76
ი@@ 76
レ@@ 76
白@@ 76
Kirche 75
Mit 75
anges@@ 75
ifen 75
verwal@@ 75
ů 75
Ə@@ 75
ψ 75
় 75
1,5 74
Blatt@@ 74
Juli 74
Kloster 74
Regierungs@@ 74
Westfalen 74
dende 74
grund 74
itik 74
ommer 74
oren@@ 74
roit 74
È@@ 74
ße 74
Λ 74
ത@@ 74
ṣ 74
下@@ 74
Nachrich@@ 73
fäl@@ 73
heits@@ 73
mander 73
zentrum 73
ű@@ 73
̃ 73
յ@@ 73
Eine 72
Jahr@@ 72
Lage 72
Leiter 72
Vene@@ 72
etzen 72
für@@ 72
ď@@ 72
ĩ 72
ɔ 72
ʔ 72
إ@@ 72
皇@@ 72
Bronz@@ 71
Deutschlands 71
Kirchen@@ 71
Minnes@@ 71
Tage 71
klei@@ 71
mung 71
tä@@ 71
öz@@ 71
Ē@@ 71
स 71
ุ@@ 71
င 71
ლ@@ 71
რ@@ 71
ḫ@@ 71
世@@ 71
古@@ 71
正@@ 71
馬@@ 71
） 71
Wie 70
build@@ 70
demokrat@@ 70
forschung 70
niss@@ 70
zug@@ 70
Ħ@@ 70
Ж@@ 70
і 70
ق 70
「 70
平 70
成@@ 70
社 70
Schauspiel@@ 69
Städ@@ 69
Zur 69
ahnen 69
chte 69
oday 69
ziel@@ 69
örd@@ 69
Œ@@ 69
ǔ@@ 69
স@@ 69
ḳ@@ 69
」 69
五@@ 69
美@@ 69
長@@ 69
青@@ 69
Armee 68
linge 68
liste 68
müh@@ 68
ז@@ 68
व@@ 68
ட@@ 68
ം 68
บ@@ 68
ი 68
ủ 68
と@@ 68
东@@ 68
地@@ 68
學@@ 68
Drit@@ 67
Gebir@@ 67
Kreuz 67
ehen 67
ekt 67
fte 67
otball 67
ƒ 67
ד 67
، 67
য 67
ด@@ 67
ე@@ 67
し@@ 67
会 67
Elektro@@ 66
Höh@@ 66
Jugend 66
Krieg 66
Modell 66
Sais@@ 66
geren 66
ommen 66
Über 66
ǒ@@ 66
ξ 66
श 66
华@@ 66
女@@ 66
行@@ 66
Forschungs@@ 65
Rück@@ 65
afri@@ 65
gesetz 65
lauf 65
schwar@@ 65
zug 65
ürz@@ 65
్ 65
വ@@ 65
ง 65
ủ@@ 65
ỳ@@ 65
♦ 65
科@@ 65
Bis 64
Stutt@@ 64
Weg 64
erung 64
kern 64
turel@@ 64
üst@@ 64
ę 64
آ@@ 64
ਾ@@ 64
か@@ 64
フ@@ 64
二@@ 64
花@@ 64
Abs 63
Disk@@ 63
Partei 63
Tages@@ 63
Tief@@ 63
Tä@@ 63
lange 63
Österreich 63
э 63
म 63
ல@@ 63
ာ@@ 63
ေ@@ 63
ử 63
縣 63
의 63
학@@ 63
II. 62
Klassi@@ 62
Sicher@@ 62
bung 62
ersten 62
russ@@ 62
schafts@@ 62
tö@@ 62
Än@@ 62
̀ 62
χ 62
կ@@ 62
ἐ@@ 62
☆ 62
ジ@@ 62
タ@@ 62
永@@ 62
리@@ 62
정@@ 62
Preuß@@ 61
Zus@@ 61
regar@@ 61
ungsp@@ 61
verein@@ 61
wass@@ 61
weil 61
Ž 61
Ț 61
̄ 61
ζ 61
Ц@@ 61
ս@@ 61
ض@@ 61
ம 61
း@@ 61
愛@@ 61
福@@ 61
自@@ 61
阿@@ 61
（ 61
Gew@@ 60
Schweiz 60
Technik 60
achus@@ 60
bür@@ 60
racht 60
renz 60
staur@@ 60
stellung 60
¹ 60
ücke 60
ɛ 60
ṃ 60
⅓ 60
∗ 60
な@@ 60
マ@@ 60
九@@ 60
木@@ 60
門@@ 60
～ 60
Deut@@ 59
Früh@@ 59
Gemeinde 59
Jerus@@ 59
Laut 59
Weih@@ 59
ingt 59
ologische 59
wärts 59
zeh@@ 59
ätter 59
ǐ@@ 59
̲ 59
А 59
ُ@@ 59
প@@ 59
ന@@ 59
≡ 59
同@@ 59
川 59
年@@ 59
김@@ 59
Besch@@ 58
Gemein@@ 58
Kultur 58
Zwe@@ 58
agt 58
aktion 58
teren 58
ucht@@ 58
ächs@@ 58
ك 58
ہ@@ 58
দ@@ 58
ร 58
ổ 58
ὶ 58
ῖ@@ 58
お@@ 58
立@@ 58
Bezirk 57
Dienst 57
Gleich@@ 57
Kön@@ 57
chst@@ 57
osten 57
rache 57
sachsen 57
schie@@ 57
schlag 57
schm@@ 57
shaus 57
steller 57
͡ 57
ю 57
न 57
ไ@@ 57
ṭ 57
四@@ 57
陽@@ 57
지@@ 57
Dorf 56
Freund@@ 56
Heidel@@ 56
Portug@@ 56
Zentr@@ 56
lagen 56
struk@@ 56
ے 56
മ@@ 56
ช@@ 56
‌ 56
├ 56
法@@ 56
社@@ 56
都@@ 56
ꞌ@@ 56
Gegen@@ 55
Künst@@ 55
Wissenschaften 55
alten 55
fach 55
gte 55
ufe 55
wenn 55
ǎ 55
ɪ@@ 55
Ρ@@ 55
य 55
़ 55
হ@@ 55
ি 55
ে 55
ு 55
ẓ@@ 55
ằ@@ 55
川@@ 55
忠@@ 55
氏 55
軍 55
限@@ 55
Als 54
Jahre 54
Leist@@ 54
besch@@ 54
dati@@ 54
hoh@@ 54
ihn 54
nord@@ 54
prä@@ 54
schau@@ 54
scht 54
seine 54
teil@@ 54
voll@@ 54
wehr@@ 54
öß@@ 54
ť 54
ʰ@@ 54
С 54
տ@@ 54
द 54
க 54
ค@@ 54
แ@@ 54
ự 54
德@@ 54
玉@@ 54
사 54
Heimat@@ 53
Massachus@@ 53
Mutter 53
Republik 53
igung 53
itäts@@ 53
politik 53
sind 53
stätten 53
viel 53
­ 53
Í 53
üt 53
Ř@@ 53
ſ@@ 53
Π 53
М 53
ز 53
स@@ 53
ய@@ 53
ಿ@@ 53
ന 53
ạ 53
周@@ 53
学 53
教@@ 53
院 53
시@@ 53
Drei 52
Gloc@@ 52
Kommand@@ 52
Spiel 52
Ungar@@ 52
Viel@@ 52
Wert 52
elte 52
Ò@@ 52
änd@@ 52
ģ@@ 52
ֵ@@ 52
क 52
ẕ@@ 52
ẹ 52
‎ 52
₩ 52
い 52
さ@@ 52
キ@@ 52
寶 52
州@@ 52
重@@ 52
龍@@ 52
고@@ 52
Güter@@ 51
Ingenie@@ 51
Prä@@ 51
schlä@@ 51
trat 51
ühl@@ 51
ŷ@@ 51
ֹ@@ 51
ี@@ 51
ṟ@@ 51
ỗ 51
♥ 51
司@@ 51
合@@ 51
工@@ 51
星@@ 51
會 51
港@@ 51
生 51
野@@ 51
陽 51
성@@ 51
Fäl@@ 50
Geist@@ 50
Ritter@@ 50
Schlag@@ 50
Schutz 50
Zum 50
beit@@ 50
ministerium 50
okrat@@ 50
woh@@ 50
zü@@ 50
© 50
̓ 50
ί 50
К 50
մ@@ 50
य@@ 50
ক 50
ல 50
ி 50
ക 50
ട@@ 50
က@@ 50
မ@@ 50
ở@@ 50
ữ@@ 50
ド@@ 50
パ@@ 50
事@@ 50
台@@ 50
國 50
武 50
이 50
Amster@@ 49
Brücke 49
Gymnasi@@ 49
Insel 49
Kurfür@@ 49
Werk 49
Zwei 49
daran 49
darin 49
fung 49
licht 49
lte 49
öch@@ 49
Э@@ 49
ц 49
ֶ@@ 49
Ḫ@@ 49
⁠ 49
ス 49
会@@ 49
楊@@ 49
한@@ 49
Konz@@ 48
Krank@@ 48
Zerstör@@ 48
chten 48
fü@@ 48
gende 48
ichten 48
män@@ 48
offiz@@ 48
rieb@@ 48
ñ 48
Β 48
ہ 48
ल@@ 48
আ@@ 48
ා@@ 48
ม 48
ừ@@ 48
₦ 48
る@@ 48
テ@@ 48
南 48
心@@ 48
書 48
清@@ 48
無@@ 48
義@@ 48
리 48
Alle 47
Düssel@@ 47
Orgel@@ 47
Philosophie 47
Sie 47
ambiguation 47
denden 47
ernen 47
frau 47
insel 47
kampf 47
völ@@ 47
wär@@ 47
änder 47
̧ 47
б 47
ї@@ 47
प@@ 47
रा@@ 47
த 47
ந@@ 47
ை 47
ර@@ 47
ි@@ 47
ย 47
ี 47
ể@@ 47
オ@@ 47
一 47
原@@ 47
士 47
朱@@ 47
華@@ 47
藤@@ 47
郡 47
龙@@ 47
동@@ 47
19. 46
Finanz@@ 46
Grund 46
Gruppen 46
Quadrat@@ 46
Stelle 46
Theater@@ 46
obach@@ 46
äus@@ 46
Š 46
Ū@@ 46
ʃ@@ 46
Ա@@ 46
ի 46
ש 46
॥ 46
ன@@ 46
ရ@@ 46
ử@@ 46
ῆ@@ 46
‒ 46
₂ 46
ャ@@ 46
八@@ 46
政@@ 46
空@@ 46
部 46
국@@ 46
Dort 45
Gesamt@@ 45
Markt@@ 45
Sammlung 45
Studium 45
ativ 45
charac@@ 45
gebiet 45
riffen 45
tische 45
verp@@ 45
ό 45
Р 45
ف 45
چ@@ 45
वा@@ 45
ত 45
শ@@ 45
ా@@ 45
า 45
្ 45
ブ@@ 45
ル 45
侍@@ 45
理@@ 45
田 45
真@@ 45
문@@ 45
Département 44
Erde 44
Kilometer 44
Liverp@@ 44
Nach 44
Schü@@ 44
Wort 44
Zahl@@ 44
allem 44
rück@@ 44
subsequ@@ 44
uß@@ 44
Õ@@ 44
ψ@@ 44
В 44
ׁ@@ 44
ش 44
ّ@@ 44
ತ@@ 44
ವ@@ 44
ി 44
ธ@@ 44
ศ@@ 44
ိ@@ 44
ἰ@@ 44
‚ 44
く@@ 44
カ@@ 44
バ@@ 44
代@@ 44
校 44
香@@ 44
黃@@ 44
黄@@ 44
Mensch@@ 43
Reise 43
Schon 43
Straß@@ 43
Streit@@ 43
Studien 43
aktiv@@ 43
dienst@@ 43
durch 43
gebro@@ 43
lichkeit 43
zog 43
ث@@ 43
ह@@ 43
ী 43
ற@@ 43
จ@@ 43
ག@@ 43
တ@@ 43
ვ@@ 43
ნ@@ 43
ს@@ 43
た@@ 43
井@@ 43
后 43
城@@ 43
宣@@ 43
尚@@ 43
省 43
Firma 42
Letz@@ 42
Rechts@@ 42
Spä@@ 42
Vort@@ 42
aktu@@ 42
altung 42
behin@@ 42
führung 42
ihm 42
kommen 42
linken 42
sitz 42
sucht 42
Ô@@ 42
ähn@@ 42
ätz@@ 42
ġ 42
˚ 42
Η@@ 42
क@@ 42
গ@@ 42
ල@@ 42
ก 42
ང 42
ွ@@ 42
უ@@ 42
Ọ@@ 42
⁄ 42
う@@ 42
に@@ 42
ん@@ 42
保@@ 42
公 42
少@@ 42
市@@ 42
文 42
明 42
기@@ 42
부@@ 42
아@@ 42
주 42
Arbeits@@ 41
Ausgabe 41
Macht 41
eiche 41
haupt@@ 41
meister@@ 41
ultur 41
¬ 41
ände 41
ären 41
Č 41
Ş 41
Ε 41
ಕ@@ 41
ത 41
ක@@ 41
ව@@ 41
โ@@ 41
ま@@ 41
ガ@@ 41
コ@@ 41
千@@ 41
多@@ 41
技@@ 41
神 41
義 41
수@@ 41
주@@ 41
Fün@@ 40
Literatur 40
Minister@@ 40
Vor 40
Wahlkreis 40
Wahr@@ 40
brau@@ 40
evision 40
kör@@ 40
sogen@@ 40
tungs@@ 40
zeichen 40
ämp@@ 40
ätte 40
Հ@@ 40
ग@@ 40
ण@@ 40
मा@@ 40
ਿ@@ 40
ป@@ 40
ố 40
り 40
ウ@@ 40
エ@@ 40
中 40
心 40
松@@ 40
治@@ 40
鄭@@ 40
서@@ 40
Amts@@ 39
Dopp@@ 39
Eisenbahn@@ 39
Erst@@ 39
Gemäl@@ 39
Herren 39
Herrschaft 39
Kapelle 39
Menschen 39
Mädchen 39
Nahr@@ 39
Recht 39
Swed@@ 39
blei@@ 39
estab@@ 39
frei 39
gemeinden 39
hän@@ 39
istin 39
sech@@ 39
seit@@ 39
wech@@ 39
ĕ@@ 39
ľ 39
Я@@ 39
ק 39
ަ@@ 39
ज 39
জ@@ 39
য@@ 39
ப 39
อ 39
ု@@ 39
ḍ 39
ὐ@@ 39
チ@@ 39
年 39
春@@ 39
物@@ 39
第@@ 39
路 39
雄 39
는 39
무@@ 39
선@@ 39
조@@ 39
20. 38
Clevel@@ 38
Juni 38
Nordrhein 38
Raum@@ 38
Recht@@ 38
Selbst@@ 38
Typ 38
Weise 38
ca. 38
direk@@ 38
direktor 38
gegen 38
haupt 38
iefer@@ 38
neue 38
wissenschaft 38
Är@@ 38
Υ@@ 38
ך 38
आ@@ 38
भ@@ 38
ള@@ 38
ོ@@ 38
ặ@@ 38
ụ 38
ῶ@@ 38
↑ 38
り@@ 38
ミ@@ 38
主@@ 38
全@@ 38
可@@ 38
张@@ 38
手@@ 38
是@@ 38
樂@@ 38
津@@ 38
漢@@ 38
門 38
나@@ 38
원@@ 38
화@@ 38
Bruder 37
Dän@@ 37
Für 37
Höhe 37
Preußen 37
Trä@@ 37
Wasser 37
Wirtschafts@@ 37
Württem@@ 37
ammen@@ 37
bess@@ 37
blick 37
deutsch 37
endes 37
erst 37
ezu 37
herz@@ 37
komp@@ 37
legen 37
ruppen 37
schloss 37
stätte 37
ufen 37
verur@@ 37
üter 37
ȟ@@ 37
ʷ@@ 37
О 37
ш 37
द@@ 37
ા@@ 37
మ@@ 37
ర@@ 37
ස@@ 37
ු@@ 37
ო@@ 37
ṉ@@ 37
⅔ 37
建@@ 37
志@@ 37
時@@ 37
朝@@ 37
里@@ 37
陈@@ 37
구@@ 37
기 37
상@@ 37
우@@ 37
인@@ 37
Druck@@ 36
Friedens@@ 36
Ortst@@ 36
Politik 36
Steuer@@ 36
Thema 36
Verein@@ 36
arbeit@@ 36
egt 36
ehe 36
erhal@@ 36
gesetz@@ 36
gewand@@ 36
hör@@ 36
kirch@@ 36
län@@ 36
neu 36
schaft@@ 36
steh@@ 36
tionen 36
ĭ 36
ŷ 36
ɑ@@ 36
ʃ 36
ں 36
ं@@ 36
ण 36
या@@ 36
ल 36
ਸ@@ 36
ಸ@@ 36
ು 36
န 36
ừ 36
∆ 36
ダ@@ 36
ナ@@ 36
ュ@@ 36
六@@ 36
出@@ 36
吉@@ 36
寺 36
常@@ 36
站 36
老@@ 36
21. 35
Gemeinde@@ 35
Herzog@@ 35
Italien 35
Kopf 35
Landschaft 35
Zeiten 35
heren 35
ichts@@ 35
lieben 35
nern 35
verkehr@@ 35
völk@@ 35
Ì@@ 35
öhn@@ 35
über@@ 35
Ķ@@ 35
ǁ@@ 35
Ю@@ 35
ِ 35
ः 35
का@@ 35
ष 35
ো@@ 35
ਰ@@ 35
ூ@@ 35
ಮ@@ 35
ല@@ 35
ས 35
ḵ@@ 35
る 35
ん 35
ノ@@ 35
乡 35
使 35
口@@ 35
国 35
妃 35
孝@@ 35
安 35
宗@@ 35
島@@ 35
式@@ 35
御@@ 35
杜@@ 35
百@@ 35
電@@ 35
경@@ 35
11. 34
Archä@@ 34
Auch 34
Heimat 34
Kontak@@ 34
Kämp@@ 34
Polizei 34
Westen 34
Zweit@@ 34
ammlung 34
bahn@@ 34
lungs@@ 34
mbH 34
ragen 34
wohl 34
äre 34
äuser 34
öpf@@ 34
üssel@@ 34
Ġ@@ 34
Ō 34
ʰ 34
ظ@@ 34
ज@@ 34
ী@@ 34
ை@@ 34
ನ@@ 34
ด 34
ต 34
ล 34
└ 34
サ@@ 34
之 34
信@@ 34
兵@@ 34
士@@ 34
天 34
定@@ 34
巴@@ 34
徐@@ 34
昭@@ 34
景@@ 34
特@@ 34
知@@ 34
路@@ 34
다 34
도@@ 34
전@@ 34
하@@ 34
： 34
10. 33
Alben 33
Arrondiss@@ 33
Beobach@@ 33
Daher 33
Friedhof 33
III. 33
Kriti@@ 33
Länder 33
Vom 33
anische 33
brach 33
gangs@@ 33
grün@@ 33
ität 33
kräfte 33
liegende 33
reib@@ 33
satz@@ 33
schauer 33
schied 33
tige 33
Ά@@ 33
Ι 33
ء 33
ع 33
َ 33
अ@@ 33
या 33
્ 33
റ@@ 33
ත@@ 33
သ@@ 33
ṯ@@ 33
ῦ@@ 33
♠ 33
ⴰ@@ 33
ィ@@ 33
デ@@ 33
ト 33
ビ@@ 33
七@@ 33
主 33
事 33
仁@@ 33
原 33
吳@@ 33
夏@@ 33
帝 33
广@@ 33
月@@ 33
海 33
研@@ 33
花 33
衛@@ 33
記 33
那@@ 33
陵 33
集@@ 33
音@@ 33
ﬁ@@ 33
Arbeit 32
Betriebs@@ 32
Flughafen 32
Gewer@@ 32
Juden 32
Sprache 32
anzu@@ 32
ationen 32
essee 32
etwa 32
istik 32
lern 32
lied@@ 32
nte 32
nten 32
räge 32
schre@@ 32
sieb@@ 32
tats@@ 32
Á 32
ɣ@@ 32
ɨ 32
ʊ@@ 32
̥ 32
Ј@@ 32
լ@@ 32
շ@@ 32
୍ 32
ெ@@ 32
ం@@ 32
ి@@ 32
ಿ 32
ು@@ 32
თ@@ 32
∂ 32
∨ 32
き@@ 32
作@@ 32
光 32
利@@ 32
加@@ 32
化@@ 32
博@@ 32
名@@ 32
在@@ 32
好@@ 32
家 32
廣@@ 32
東 32
水 32
法 32
羅@@ 32
胡@@ 32
行 32
가@@ 32
교 32
연@@ 32
자@@ 32
제@@ 32
️ 32
Bildungs@@ 31
Durch@@ 31
Forschung 31
Gruppen@@ 31
Holz 31
Jahr 31
Medien 31
Ortsteil 31
Pflanz@@ 31
Titel@@ 31
Vereinigung 31
Wenn 31
anlage 31
beit 31
elten 31
leitung 31
unten 31
þ 31
ǀ@@ 31
ɑ 31
Ω@@ 31
І@@ 31
ә@@ 31
գ@@ 31
ذ@@ 31
ना@@ 31
ब@@ 31
री 31
ला@@ 31
চ@@ 31
দ 31
ோ@@ 31
അ@@ 31
സ@@ 31
න 31
ำ@@ 31
ใ@@ 31
ა 31
მ@@ 31
ẹ@@ 31
› 31
↔ 31
あ@@ 31
っ@@ 31
れ@@ 31
ニ@@ 31
以@@ 31
你@@ 31
先@@ 31
县 31
史 31
唐@@ 31
富@@ 31
寶@@ 31
將@@ 31
所 31
林 31
為@@ 31
院@@ 31
민@@ 31
박@@ 31
신@@ 31
Dienst@@ 30
Febru@@ 30
Prag 30
Sprach@@ 30
Söhne 30
Wirtschaft 30
bürger@@ 30
kann 30
kleine 30
klär@@ 30
lauf@@ 30
wissenschaften 30
wür@@ 30
zeich@@ 30
äß@@ 30
ǃ@@ 30
ɪ 30
Θ 30
ύ 30
հ@@ 30
ט 30
ح 30
व 30
অ@@ 30
ਨ@@ 30
ਮ@@ 30
ਹ@@ 30
న@@ 30
వ@@ 30
ར@@ 30
ổ@@ 30
█ 30
ら@@ 30
侯 30
信 30
史@@ 30
島 30
府 30
德 30
最@@ 30
村@@ 30
歌@@ 30
流@@ 30
街@@ 30
趙@@ 30
館 30
魏@@ 30
강@@ 30
유@@ 30
Adels@@ 29
Bauern@@ 29
Familie 29
Formel 29
Linie 29
Mäd@@ 29
Nürn@@ 29
Pfer@@ 29
Theorie 29
Turm 29
ademie 29
andere 29
dete 29
gerä@@ 29
iert 29
ktur 29
länd@@ 29
pite 29
prü@@ 29
schuss 29
sozial@@ 29
tober 29
verkehr 29
weit 29
Ð@@ 29
änger@@ 29
Đ 29
ʻ 29
Д 29
Т 29
њ@@ 29
ћ@@ 29
թ@@ 29
ր 29
ـ@@ 29
ग 29
च@@ 29
ব 29
ਕ@@ 29
ಂ@@ 29
ದ@@ 29
ರ 29
േ@@ 29
ම@@ 29
็ 29
ས@@ 29
ự@@ 29
ἄ@@ 29
ὸ@@ 29
こ@@ 29
ク 29
グ@@ 29
克@@ 29
内@@ 29
孫@@ 29
昌 29
曹@@ 29
正 29
章@@ 29
色@@ 29
谷@@ 29
镇 29
風@@ 29
鳳@@ 29
공@@ 29
도 29
13. 28
Afghan@@ 28
Bürgermeister 28
Joach@@ 28
Sozi@@ 28
Sprech@@ 28
breit@@ 28
fach@@ 28
igkeit 28
messer 28
nisse 28
ografie 28
rieb 28
ränk@@ 28
schiff@@ 28
stamm@@ 28
strah@@ 28
vidu@@ 28
ď 28
ħ 28
ŏ 28
Ő@@ 28
ج 28
ھ@@ 28
का 28
ड 28
ता@@ 28
শ 28
ਦ@@ 28
క@@ 28
ಗ@@ 28
န@@ 28
း 28
ẓ 28
ả 28
ẵ@@ 28
‹ 28
∧ 28
〈 28
〉 28
が@@ 28
ァ@@ 28
プ@@ 28
共@@ 28
君 28
堂 28
學 28
宋@@ 28
宗 28
志 28
拉@@ 28
智@@ 28
會@@ 28
木 28
氏@@ 28
聖@@ 28
良@@ 28
鎮@@ 28
順@@ 28
마@@ 28
어@@ 28
오@@ 28
왕@@ 28
자 28
지 28
회 28
12. 27
Auff@@ 27
Fernsehen 27
Gött@@ 27
Jahres 27
Pfle@@ 27
Polen 27
Verkehr@@ 27
alismus 27
bezir@@ 27
bild 27
fehl@@ 27
führ@@ 27
ionen 27
kost@@ 27
länge 27
orien 27
previ@@ 27
riech@@ 27
schwei@@ 27
sterreich 27
stoff 27
viel@@ 27
wirk@@ 27
zeug 27
ßer@@ 27
ädagog@@ 27
ätten 27
üp@@ 27
ċ@@ 27
ǫ 27
Η 27
Υ 27
Я 27
ע 27
ٹ@@ 27
री@@ 27
सु@@ 27
ર@@ 27
ட 27
ே@@ 27
ಹ@@ 27
จ 27
ბ@@ 27
Ḳ@@ 27
ḻ@@ 27
ỏ 27
∪ 27
つ@@ 27
メ@@ 27
久@@ 27
乐@@ 27
交@@ 27
何@@ 27
傳 27
元 27
夫 27
委@@ 27
宮 27
洪@@ 27
湖@@ 27
盧@@ 27
秀@@ 27
红@@ 27
航@@ 27
萬@@ 27
郎@@ 27
集 27
龍 27
동 27
비 27
세@@ 27
일@@ 27
Fernseh@@ 26
Kanada 26
Weiter@@ 26
gabe 26
geber 26
genöss@@ 26
mehr 26
punkt 26
seiner 26
tungen 26
wesen 26
Ο 26
ї 26
կ 26
ک 26
पा@@ 26
वर 26
श@@ 26
े 26
ম 26
স 26
ਾ 26
ದ 26
ച@@ 26
െ@@ 26
ප@@ 26
က 26
ပ@@ 26
လ@@ 26
ှ@@ 26
ា@@ 26
ḫ 26
ム@@ 26
右@@ 26
外@@ 26
如@@ 26
宮@@ 26
成 26
放@@ 26
敬@@ 26
族@@ 26
沙@@ 26
河 26
溪@@ 26
玄@@ 26
球@@ 26
究@@ 26
經 26
者 26
而@@ 26
葉@@ 26
軍@@ 26
駅 26
라@@ 26
성 26
영@@ 26
은 26
인 26
！ 26
－ 26
Bürger 25
Gitar@@ 25
Hilfe 25
Hochschul@@ 25
Kommunal@@ 25
Natur 25
Trieb@@ 25
allein 25
anischer 25
bildungs@@ 25
deut@@ 25
forsch@@ 25
frei@@ 25
geb 25
gewer@@ 25
habe 25
hte 25
ihren 25
lerin 25
mensch@@ 25
nete 25
proz@@ 25
sekre@@ 25
toren 25
trä@@ 25
verz@@ 25
wird 25
zial@@ 25
zwei 25
¨ 25
µ 25
Ý@@ 25
äische 25
änger 25
Ď@@ 25
œ 25
̌ 25
̠ 25
ө@@ 25
ץ 25
خ 25
ना 25
वि@@ 25
ੀ@@ 25
ங 25
ந 25
ు@@ 25
ಲ@@ 25
ื@@ 25
့ 25
კ@@ 25
Ἰ@@ 25
∴ 25
⊆ 25
ェ@@ 25
ド 25
ワ@@ 25
佛@@ 25
口 25
思@@ 25
承@@ 25
校@@ 25
梁@@ 25
等@@ 25
能@@ 25
舞@@ 25
蘭@@ 25
虎 25
親@@ 25
都 25
남@@ 25
스 25
Farb@@ 24
Forsch@@ 24
Liste 24
Polizei@@ 24
Schüler 24
annt 24
atische 24
eilen 24
erungs@@ 24
fass@@ 24
geist@@ 24
geord@@ 24
häl@@ 24
kamen 24
konz@@ 24
letzte 24
musikal@@ 24
zif@@ 24
zwischen 24
Ċ@@ 24
ű 24
̪ 24
Ψ 24
ϊ@@ 24
І 24
П 24
љ@@ 24
ض 24
ख@@ 24
ति@@ 24
ध@@ 24
धु@@ 24
ह 24
ள@@ 24
ஸ 24
ொ@@ 24
ి 24
ు 24
ಯ@@ 24
ങ 24
ข@@ 24
མ@@ 24
ི@@ 24
အ@@ 24
ြ@@ 24
Ἐ@@ 24
∅ 24
だ@@ 24
は@@ 24
台 24
君@@ 24
園 24
察@@ 24
師@@ 24
惠@@ 24
昌@@ 24
曲 24
本 24
次@@ 24
洋@@ 24
电@@ 24
男@@ 24
町 24
美 24
育@@ 24
解@@ 24
語@@ 24
飛@@ 24
马@@ 24
씨 24
원 24
15. 23
17. 23
25. 23
Aufbau 23
Frü@@ 23
Gemeinder@@ 23
Gerä@@ 23
Indien 23
Kommission 23
Millimeter 23
Quelle 23
Verkehr 23
arbeiter 23
bild@@ 23
erischen 23
flug@@ 23
genie@@ 23
junge 23
lungen 23
mannschaft 23
muss 23
schluss 23
ußen 23
versammlung 23
zipl@@ 23
÷ 23
Ρ 23
Մ@@ 23
ח 23
ە@@ 23
ި@@ 23
ला 23
ੀ 23
ள 23
ಪ@@ 23
ോ@@ 23
ය 23
ว 23
ิ 23
ู@@ 23
བ@@ 23
ျ@@ 23
រ@@ 23
ḷ 23
ṯ 23
ẫ@@ 23
ẻ 23
ở 23
ῦ 23
∠ 23
⊂ 23
み@@ 23
も@@ 23
ソ@@ 23
ハ@@ 23
ョ@@ 23
京 23
他@@ 23
力@@ 23
卿 23
園@@ 23
地 23
提@@ 23
方 23
杨@@ 23
柳@@ 23
株@@ 23
歌 23
流 23
英@@ 23
連@@ 23
里 23
长@@ 23
阮@@ 23
陸@@ 23
雲@@ 23
音 23
내@@ 23
비@@ 23
스@@ 23
을 23
장@@ 23
평@@ 23
14. 22
Berufs@@ 22
Entwicklung 22
Jahrhundert 22
Kabin@@ 22
Maler 22
Platz@@ 22
Teil 22
eiten 22
enname 22
fiel 22
handlungen 22
haup@@ 22
hoch 22
kauf@@ 22
kommun@@ 22
lehr@@ 22
projek@@ 22
schlag@@ 22
schnitt 22
verli@@ 22
zieh@@ 22
Ğ@@ 22
ɡ@@ 22
ɨ@@ 22
ʒ 22
ʹ@@ 22
̣ 22
Κ 22
И 22
ж 22
ס 22
कु@@ 22
जा@@ 22
ट 22
ই@@ 22
ভ@@ 22
મ@@ 22
ண 22
ா 22
ల@@ 22
ನ 22
ട 22
ള 22
ක 22
න@@ 22
ර 22
ค 22
ན 22
გ@@ 22
Ẓ@@ 22
ᾶ@@ 22
℃ 22
√ 22
∩ 22
『 22
』 22
ズ 22
ボ@@ 22
万@@ 22
仁 22
任@@ 22
伊@@ 22
前@@ 22
區 22
回@@ 22
奇@@ 22
左@@ 22
康 22
康@@ 22
政 22
机@@ 22
比@@ 22
江 22
理 22
界@@ 22
祖@@ 22
統@@ 22
良 22
許@@ 22
隆@@ 22
산 22
안@@ 22
천@@ 22
해@@ 22
Einheit 21
Fenster 21
Gesund@@ 21
Grafschaft 21
Lauf 21
Meisterschaft 21
Runde 21
Schrift@@ 21
Sieger 21
Spezial@@ 21
Vater 21
Wirk@@ 21
Zeich@@ 21
agoge 21
damal@@ 21
epunkt 21
erstre@@ 21
genau 21
ierte 21
ihre 21
mehr@@ 21
ologischen 21
sehen 21
stehen 21
tigung 21
wider@@ 21
wäl@@ 21
į 21
İ 21
ǒ 21
ʷ 21
Ζ@@ 21
Ν 21
У 21
ф 21
ӏ@@ 21
Ս@@ 21
զ@@ 21
ս 21
վ@@ 21
ھ 21
ދ@@ 21
ট@@ 21
ল 21
ਗ@@ 21
ீ@@ 21
പ 21
സ 21
ද@@ 21
พ 21
ุ 21
စ@@ 21
ờ 21
ứ 21
ὰ 21
₁ 21
ℳ 21
う 21
け@@ 21
す@@ 21
よ@@ 21
ア 21
ツ@@ 21
ネ@@ 21
仲@@ 21
兴@@ 21
分@@ 21
化 21
和 21
商@@ 21
土@@ 21
場 21
容@@ 21
度@@ 21
延@@ 21
影@@ 21
業@@ 21
管@@ 21
者@@ 21
虎@@ 21
越@@ 21
足@@ 21
雙@@ 21
그@@ 21
미@@ 21
소@@ 21
수 21
양@@ 21
장 21
한 21
18. 20
Ausland 20
Bücher 20
Einz@@ 20
Gesetz@@ 20
Künstler 20
Raum 20
Regel@@ 20
Saison 20
Switz@@ 20
eister@@ 20
esische 20
formen 20
große 20
heiten 20
heute 20
ildren 20
kein 20
liegen 20
ordnung 20
recht@@ 20
reiche 20
relig@@ 20
rund 20
samen 20
ucht 20
werden 20
zahl 20
züge 20
Ê@@ 20
üssen 20
Ā 20
ŝ@@ 20
ʒ@@ 20
п 20
ү@@ 20
պ@@ 20
ռ@@ 20
ց@@ 20
ْ 20
कर 20
की 20
च 20
ड@@ 20
बा@@ 20
ष@@ 20
सा@@ 20
ড 20
ধ@@ 20
ਵ@@ 20
ੁ@@ 20
ક@@ 20
அ@@ 20
இ@@ 20
ழ@@ 20
െ 20
ග@@ 20
ය@@ 20
ා 20
დ@@ 20
შ@@ 20
Ṛ@@ 20
ἔ@@ 20
‟ 20
〜 20
で@@ 20
丁@@ 20
刘@@ 20
区@@ 20
協@@ 20
友@@ 20
命@@ 20
嘉@@ 20
圖 20
坪@@ 20
基@@ 20
堂@@ 20
姓 20
官@@ 20
将@@ 20
居@@ 20
屋@@ 20
布@@ 20
後@@ 20
想@@ 20
沈@@ 20
洲@@ 20
源@@ 20
灣@@ 20
真 20
祖 20
禮@@ 20
程@@ 20
章 20
竹@@ 20
興@@ 20
苏@@ 20
茂@@ 20
言@@ 20
語 20
豆@@ 20
超@@ 20
進@@ 20
達@@ 20
銀@@ 20
鐵@@ 20
際@@ 20
韓@@ 20
麻@@ 20
黎@@ 20
꞉ 20
가 20
군 20
랑@@ 20
보@@ 20
상 20
서 20
현@@ 20
화 20
16. 19
Bischof 19
Départ@@ 19
Förder@@ 19
Hier 19
Titel 19
Umgebung 19
Unternehmen 19
Vereinig@@ 19
Verfass@@ 19
Zahl 19
anderer 19
britann@@ 19
devel@@ 19
engag@@ 19
ennt 19
gehen 19
gesp@@ 19
glich 19
gten 19
ilfe 19
räsident 19
strecke 19
stück 19
tete 19
tnis 19
wirt@@ 19
ĉ@@ 19
ċ 19
ǂ@@ 19
̆ 19
̍ 19
ώ 19
ղ@@ 19
ނ@@ 19
ि 19
ੰ@@ 19
ુ@@ 19
ஆ@@ 19
ಕ 19
ೆ@@ 19
ೋ@@ 19
ൂ@@ 19
ි 19
ෙ@@ 19
ภ@@ 19
Ḍ@@ 19
ṁ@@ 19
ὄ@@ 19
♣ 19
モ@@ 19
丸 19
今@@ 19
佐@@ 19
典 19
典@@ 19
勇@@ 19
号 19
報 19
夜@@ 19
姚@@ 19
字@@ 19
宇@@ 19
守@@ 19
將 19
店 19
弘@@ 19
得@@ 19
手 19
曾@@ 19
术@@ 19
桂@@ 19
桥@@ 19
梅@@ 19
毛@@ 19
泉 19
波@@ 19
牛@@ 19
直@@ 19
秋@@ 19
罗@@ 19
英 19
范@@ 19
術 19
谷 19
门@@ 19
魔@@ 19
니@@ 19
로 19
를 19
산@@ 19
전 19
￼ 19
🏴 19
󠁿 19
Amerikan@@ 18
Brüder 18
Dokument@@ 18
Innen@@ 18
Kirchen 18
Kontakt 18
Lehre 18
Ort 18
Sitz@@ 18
Untersuchungen 18
Vereins 18
ahren 18
akter@@ 18
alität 18
derzeit 18
digen 18
durch@@ 18
einf@@ 18
erlang@@ 18
gab 18
gericht@@ 18
greif@@ 18
ichts 18
indung 18
leich@@ 18
mittel@@ 18
schrif@@ 18
schütz@@ 18
sicher@@ 18
soll@@ 18
sprach@@ 18
turen 18
unkt 18
verwaltung 18
wiesen 18
wirtschaft 18
Ä 18
Ô 18
Ú 18
ödie 18
österreich@@ 18
ügel@@ 18
ĝ@@ 18
Ɂ@@ 18
ɣ 18
̯ 18
Գ@@ 18
ُ 18
ّ 18
ڠ@@ 18
ރ@@ 18
ँ@@ 18
ङ 18
रा 18
ा 18
প 18
ਰ 18
ਲ@@ 18
ੇ 18
ద@@ 18
ప@@ 18
ಬ@@ 18
ೂ@@ 18
ങ@@ 18
മ 18
හ@@ 18
ท 18
ད@@ 18
ི 18
ྱ@@ 18
ာ 18
ḇ@@ 18
ḏ@@ 18
Ẹ@@ 18
ὸ 18
↓ 18
∼ 18
⊗ 18
じ@@ 18
ど@@ 18
ば@@ 18
ら 18
を@@ 18
ケ@@ 18
仙@@ 18
令 18
利 18
半@@ 18
发@@ 18
向@@ 18
呼@@ 18
員@@ 18
场 18
夫@@ 18
孟@@ 18
局 18
帝@@ 18
師 18
愛 18
春 18
来@@ 18
泉@@ 18
湖 18
演@@ 18
相@@ 18
空 18
紅@@ 18
蒙@@ 18
薛@@ 18
蘇@@ 18
術@@ 18
要@@ 18
角@@ 18
論 18
起@@ 18
郭@@ 18
開@@ 18
阳@@ 18
非@@ 18
鮮@@ 18
계@@ 18
로@@ 18
방 18
순@@ 18
에@@ 18
여@@ 18
울@@ 18
의@@ 18
진 18
청@@ 18
태@@ 18
파@@ 18
23. 17
Architek@@ 17
Architekten 17
Bereit@@ 17
Französ@@ 17
Jahrhunderts 17
Konf@@ 17
Königs 17
Leicht@@ 17
Produktion 17
Reihe 17
Staat 17
Straßenb@@ 17
Todes@@ 17
Weib@@ 17
beste 17
denen 17
gibt 17
grund@@ 17
höh@@ 17
keit 17
klass@@ 17
kunft 17
künst@@ 17
leist@@ 17
losen 17
reten 17
schriften 17
sieben 17
sozi@@ 17
trieb@@ 17
werken 17
wieder 17
¤ 17
È 17
ʊ 17
ʲ@@ 17
ʹ 17
ˌ@@ 17
̈ 17
Έ@@ 17
Μ 17
Ψ@@ 17
ף 17
ڤ@@ 17
އ@@ 17
ް@@ 17
ई 17
गा@@ 17
चि@@ 17
ति 17
बि@@ 17
ষ@@ 17
ਜ@@ 17
ਤ@@ 17
પ@@ 17
ર 17
எ@@ 17
ண@@ 17
ய 17
త@@ 17
ಲ 17
ണ 17
ฟ@@ 17
ษ@@ 17
ት 17
ể 17
ὁ 17
▪ 17
て@@ 17
ひ@@ 17
ゲ@@ 17
セ@@ 17
ホ@@ 17
ポ@@ 17
ラ 17
业@@ 17
令@@ 17
余@@ 17
佳@@ 17
俊@@ 17
入@@ 17
力 17
功@@ 17
双@@ 17
叶@@ 17
吴@@ 17
呂@@ 17
团@@ 17
大 17
奉@@ 17
寺@@ 17
尉 17
尔@@ 17
峰 17
干@@ 17
府@@ 17
形@@ 17
慕@@ 17
慶@@ 17
普@@ 17
格@@ 17
機@@ 17
民 17
治 17
濟@@ 17
甘@@ 17
男 17
目@@ 17
省@@ 17
禮 17
羅 17
落@@ 17
表@@ 17
袁@@ 17
言 17
記@@ 17
郡@@ 17
野 17
陵@@ 17
雄@@ 17
頭@@ 17
首@@ 17
鬼@@ 17
黑@@ 17
거@@ 17
바@@ 17
부 17
삼@@ 17
위@@ 17
중@@ 17
호 17
회@@ 17
Bedeutung 16
Bilder 16
Denkmal@@ 16
Militär@@ 16
Orte 16
Projek@@ 16
Regie 16
Rennen 16
Stil 16
Trotz 16
Wohn@@ 16
Zivil@@ 16
Zusammenarbeit 16
bewegung 16
derung 16
diese 16
eht 16
errich@@ 16
ferenz 16
gemein@@ 16
grenz@@ 16
ierung 16
kehr 16
klein@@ 16
mittel 16
männ@@ 16
ollege 16
theorie 16
tigkeit 16
waren 16
äng@@ 16
änge 16
ǝ@@ 16
Б 16
Г 16
ֲ@@ 16
ג 16
ؤ@@ 16
ط 16
ڈ@@ 16
ܐ 16
ܝ@@ 16
को 16
जय 16
लि@@ 16
ली 16
वे@@ 16
ु 16
વ@@ 16
ା@@ 16
ற 16
ತ 16
ಸ 16
ം@@ 16
ൽ 16
ල 16
ේ@@ 16
ญ@@ 16
บ 16
ฤ@@ 16
ည 16
ស@@ 16
ṛ 16
ỉ@@ 16
ợ 16
ἴ@@ 16
ῥ@@ 16
⁺ 16
₨ 16
⅛ 16
し 16
み 16
ろ@@ 16
ゴ@@ 16
ピ@@ 16
ム 16
ヤ@@ 16
也 16
于@@ 16
你 16
修@@ 16
刑@@ 16
動@@ 16
喜@@ 16
壽@@ 16
女 16
宝@@ 16
客@@ 16
寧@@ 16
岩@@ 16
崔@@ 16
庄@@ 16
战@@ 16
报 16
星 16
楽@@ 16
池@@ 16
泰@@ 16
深@@ 16
火@@ 16
獨@@ 16
画@@ 16
股@@ 16
臣 16
船@@ 16
蔡@@ 16
裕@@ 16
西 16
話 16
近@@ 16
这@@ 16
酒@@ 16
铁@@ 16
防@@ 16
风@@ 16
에 16
은@@ 16
음@@ 16
정 16
창@@ 16
황@@ 16
후 16
27. 15
Entschei@@ 15
Fußball@@ 15
Kritik 15
Regel 15
Schriften 15
dort 15
gute 15
ierungs@@ 15
lassen 15
lern@@ 15
letz@@ 15
plom@@ 15
prakt@@ 15
schiff 15
schwer@@ 15
tär 15
versch@@ 15
westen 15
zeu@@ 15
ĭ@@ 15
ɾ 15
ʉ 15
̤ 15
Χ 15
Կ@@ 15
ة@@ 15
ٽ@@ 15
ܘ@@ 15
उ@@ 15
ता 15
दे@@ 15
ने 15
मु@@ 15
मे@@ 15
है 15
ी 15
ও 15
খ@@ 15
ণ@@ 15
ৰ@@ 15
ੱ@@ 15
ે 15
ે@@ 15
ೆ 15
ೇ@@ 15
റ 15
ป 15
ག 15
མ 15
ུ@@ 15
ခ@@ 15
ဆ@@ 15
ხ@@ 15
ḱ@@ 15
ẽ@@ 15
Ὀ@@ 15
∀ 15
⊕ 15
わ@@ 15
イ 15
ズ@@ 15
三 15
丹@@ 15
伯@@ 15
勝@@ 15
吉 15
品 15
夢@@ 15
就@@ 15
岳@@ 15
崇@@ 15
性@@ 15
情@@ 15
或@@ 15
戦@@ 15
振@@ 15
斗 15
朴@@ 15
杉@@ 15
桃@@ 15
極@@ 15
樂 15
泰 15
港 15
珠@@ 15
發@@ 15
白 15
盛@@ 15
經@@ 15
線 15
臺@@ 15
興 15
茶 15
藏@@ 15
觀@@ 15
貞@@ 15
身@@ 15
通 15
鄧@@ 15
錢 15
錢@@ 15
關@@ 15
雨@@ 15
面@@ 15
馬 15
고 15
관@@ 15
명@@ 15
신 15
영 15
용@@ 15
윤@@ 15
진@@ 15
카@@ 15
호@@ 15
홍@@ 15
𐌠 15
𝔓 15
22. 14
Anlage 14
Auss@@ 14
Bahnstrecke 14
Bewegung 14
Entwickl@@ 14
Gedenk@@ 14
Gemeinden 14
Jahren 14
Lebens 14
Nicht 14
Offiz@@ 14
Oktober 14
Soldaten 14
Stadtt@@ 14
Städte 14
agte 14
ckt 14
drei@@ 14
druck@@ 14
eilig@@ 14
empf@@ 14
erbau@@ 14
gewi@@ 14
haben 14
klärung 14
kriegs@@ 14
könig@@ 14
mäch@@ 14
rachten 14
rechts@@ 14
schon 14
seines 14
stän@@ 14
suche 14
tliche 14
türk@@ 14
weder 14
welt@@ 14
wurf 14
zurück 14
äuf@@ 14
ümer 14
Ĥ@@ 14
ǵ@@ 14
ʉ@@ 14
̊ 14
̨ 14
̩ 14
Н 14
є 14
ј 14
ў 14
ў@@ 14
բ@@ 14
դ@@ 14
ւ 14
ք@@ 14
״ 14
ث 14
ۃ 14
ट@@ 14
ठ@@ 14
नि@@ 14
मन 14
राम 14
रि@@ 14
रे 14
ळ@@ 14
ही 14
ारी 14
ो 14
ং@@ 14
এ@@ 14
ষ 14
ਂ 14
ਬ@@ 14
ી 14
ି@@ 14
ర 14
ಣ@@ 14
ಳ@@ 14
യ 14
ശ@@ 14
ං@@ 14
ම 14
ව 14
ු 14
ณ@@ 14
ส 14
າ@@ 14
ེ@@ 14
ོ 14
ྲ@@ 14
ე 14
ო 14
ር@@ 14
ስ 14
ᐊ@@ 14
ង 14
ḩ 14
ỏ@@ 14
ἶ@@ 14
⇒ 14
∇ 14
♂ 14
ち@@ 14
ゃ@@ 14
ヴ@@ 14
与@@ 14
代 14
使@@ 14
兵 14
再@@ 14
初@@ 14
別@@ 14
名 14
哉 14
唱@@ 14
团 14
园 14
央@@ 14
宁@@ 14
尾@@ 14
崎@@ 14
広@@ 14
度 14
当@@ 14
所@@ 14
族 14
望@@ 14
桥 14
森@@ 14
橋@@ 14
洛@@ 14
浦@@ 14
淮@@ 14
照@@ 14
用@@ 14
界 14
番@@ 14
盟 14
破@@ 14
素@@ 14
總@@ 14
翔 14
翰@@ 14
若@@ 14
莫@@ 14
蒲@@ 14
蕭@@ 14
號 14
襄@@ 14
賞 14
賢 14
運@@ 14
遠@@ 14
金 14
間 14
附@@ 14
陰@@ 14
雷@@ 14
韋@@ 14
麗@@ 14
광@@ 14
금@@ 14
님 14
석@@ 14
왕 14
재@@ 14
행@@ 14
24. 13
29. 13
30. 13
Betrieb@@ 13
Bundesrepublik 13
Flügel@@ 13
Förderung 13
Gesetz 13
IV. 13
Ihr 13
Klosters 13
Nutz@@ 13
Pfarr@@ 13
Ufer 13
Wagen 13
Ziel 13
afrika 13
bende 13
bringen 13
chmal 13
dieser 13
dür@@ 13
ktion 13
lehrer 13
ländische 13
neuen 13
politische 13
schutz@@ 13
seln 13
sicht 13
sitz@@ 13
steht 13
stieg 13
tischen 13
umente 13
vater 13
wuch@@ 13
zeuge 13
Æ 13
ähr 13
ücken 13
üsse 13
ų@@ 13
ƒ@@ 13
ǧ@@ 13
ʋ@@ 13
ΐ@@ 13
З 13
Л 13
ё 13
ұ@@ 13
ը 13
ּ 13
ז 13
ު@@ 13
गु@@ 13
ती 13
नी 13
ने@@ 13
ब 13
भा@@ 13
मार 13
रु@@ 13
सं@@ 13
हा@@ 13
ृ@@ 13
ै@@ 13
ো 13
ન@@ 13
క 13
స@@ 13
ే@@ 13
ಣ 13
ബ@@ 13
ല 13
ഴ@@ 13
ു 13
ൻ 13
ෝ@@ 13
ห 13
ื 13
ံ@@ 13
္ 13
ტ@@ 13
ን@@ 13
ḏ 13
ḗ@@ 13
ṅ 13
ề 13
ỷ 13
ἡ 13
ⁿ 13
₴ 13
₽ 13
◦ 13
☉ 13
♀ 13
ⵎ@@ 13
か 13
ご@@ 13
そ@@ 13
ま 13
グ 13
上 13
丘 13
久 13
亚@@ 13
体@@ 13
健@@ 13
傳@@ 13
其@@ 13
剛@@ 13
功 13
助 13
善@@ 13
基 13
塘@@ 13
头@@ 13
奖 13
奴@@ 13
孤@@ 13
宏@@ 13
定 13
對@@ 13
尹@@ 13
岡@@ 13
從@@ 13
忠 13
情 13
故@@ 13
斯@@ 13
日 13
月 13
樹 13
橋 13
浩@@ 13
清 13
滿@@ 13
烈@@ 13
烏@@ 13
爱@@ 13
物 13
現@@ 13
瑞@@ 13
甲@@ 13
益@@ 13
相 13
秦@@ 13
米@@ 13
精@@ 13
紀@@ 13
約 13
羊@@ 13
臨@@ 13
至@@ 13
舞 13
芳@@ 13
荊@@ 13
華 13
護@@ 13
话 13
貴@@ 13
賀@@ 13
賢@@ 13
達 13
鈴@@ 13
雪@@ 13
青 13
静@@ 13
革@@ 13
魚@@ 13
鹿@@ 13
경 13
국 13
들 13
들@@ 13
등@@ 13
라 13
람@@ 13
릉 13
배@@ 13
선 13
아 13
예@@ 13
임@@ 13
처@@ 13
최@@ 13
Beschreibung 12
Direk@@ 12
Frage 12
Kanton 12
Länder@@ 12
Männer 12
Namen 12
Naturschutz@@ 12
Orgel 12
Pfarrkirche 12
Produk@@ 12
Spieler 12
Theologie 12
Uhr 12
Zwischen 12
achten 12
auß@@ 12
baren 12
bildung 12
blätter 12
breit 12
denn 12
dungs@@ 12
elektr@@ 12
erheit 12
erwor@@ 12
gingen 12
griechischen 12
ihrer 12
kanad@@ 12
krieg@@ 12
ländischen 12
performan@@ 12
platz@@ 12
produktion 12
rechte 12
sprache 12
stoff@@ 12
trag 12
vertre@@ 12
wissenschaft@@ 12
zwe@@ 12
Ç 12
änder@@ 12
Ŭ@@ 12
Ż 12
ɡ 12
ɾ@@ 12
˧ 12
˩ 12
̚ 12
Ζ 12
Ξ@@ 12
ϕ 12
Ђ@@ 12
Е 12
ђ@@ 12
ґ 12
ց 12
ڑ@@ 12
گ 12
ंड@@ 12
इ@@ 12
कर@@ 12
ख 12
छ 12
णा@@ 12
ते 12
ते@@ 12
ध 12
पर 12
मा 12
राज 12
रो@@ 12
ळ 12
सन 12
हु@@ 12
ू@@ 12
े@@ 12
ঙ 12
ો@@ 12
ର@@ 12
ச 12
గ@@ 12
ಚ@@ 12
ಡ@@ 12
ഗ@@ 12
ජ@@ 12
ද 12
බ@@ 12
ස 12
ේ 12
ู 12
འ@@ 12
ဘ@@ 12
ါ@@ 12
ს 12
ძ@@ 12
ḇ 12
ḗ 12
ṇ 12
Ấ@@ 12
ὀ@@ 12
ὅ@@ 12
ὑ@@ 12
₧ 12
₵ 12
₸ 12
ℓ@@ 12
ℛ@@ 12
ℤ 12
⇌ 12
ⵉ@@ 12
え 12
え@@ 12
ぎ@@ 12
ぶ@@ 12
も 12
㎡ 12
下 12
专@@ 12
乙@@ 12
乾@@ 12
了@@ 12
亞@@ 12
介 12
件 12
份@@ 12
倫@@ 12
內@@ 12
制@@ 12
剣@@ 12
卫@@ 12
吏@@ 12
命 12
單@@ 12
好 12
孙@@ 12
孝 12
季@@ 12
希@@ 12
开@@ 12
彭@@ 12
律@@ 12
憲@@ 12
懷@@ 12
我 12
戶@@ 12
戸@@ 12
拳 12
揚@@ 12
摩@@ 12
播@@ 12
无@@ 12
晉@@ 12
楼 12
母@@ 12
汗 12
汝@@ 12
涼@@ 12
湘@@ 12
熊@@ 12
父@@ 12
片 12
留@@ 12
的 12
目 12
祥 12
禁@@ 12
私@@ 12
程 12
節@@ 12
紫@@ 12
聯@@ 12
菩@@ 12
街 12
解 12
詩@@ 12
譚@@ 12
计@@ 12
车@@ 12
送@@ 12
遊@@ 12
郑@@ 12
錄 12
関@@ 12
雲 12
靈@@ 12
頭 12
飞@@ 12
食@@ 12
馆 12
黒@@ 12
계 12
나 12
노@@ 12
다@@ 12
두@@ 12
러@@ 12
레@@ 12
문 12
미 12
승@@ 12
시 12
일 12
철 12
치 12
／ 12
Ausstellung 11
Auß@@ 11
Gebur@@ 11
Landschafts@@ 11
Parlament@@ 11
Quellen 11
Struk@@ 11
Sänger 11
Tochter 11
Unabhäng@@ 11
Untersuch@@ 11
Zwischen@@ 11
anlagen 11
bte 11
dann 11
eigenen 11
endet 11
ensus 11
erreich@@ 11
etzt 11
freie 11
füh@@ 11
gebäude 11
genden 11
gleich 11
gleich@@ 11
ielt 11
ierten 11
ischof 11
isierung 11
ittee 11
kommt 11
krank@@ 11
krä@@ 11
ließ 11
mauer 11
nahme 11
nchen 11
neues 11
nissen 11
seits 11
sprach 11
stie@@ 11
tenen 11
weiß 11
zentr@@ 11
zogen 11
¦ 11
Â 11
ɸ 11
ʲ 11
ʽ 11
ˁ@@ 11
͟ 11
΄ 11
Τ 11
Ո@@ 11
ذ 11
ص 11
ڪ@@ 11
ܪ@@ 11
ކ@@ 11
މ@@ 11
ޫ 11
कृष 11
णी 11
तम 11
दु@@ 11
पु@@ 11
भक 11
रे@@ 11
शा@@ 11
शि@@ 11
से 11
हो 11
ू 11
ै 11
ছ@@ 11
ফ@@ 11
ਆ@@ 11
િ@@ 11
ી@@ 11
ମ@@ 11
డ@@ 11
ಟ@@ 11
ച 11
ഷ@@ 11
ൾ 11
ණ 11
ො@@ 11
ผ 11
ผ@@ 11
ั 11
། 11
ད 11
ུ 11
တ 11
ဲ 11
᜔ 11
ក 11
ḵ 11
ẽ 11
‛ 11
ℝ 11
⅜ 11
∙ 11
こ 11
せ@@ 11
た 11
て 11
は 11
ㅇ 11
世 11
东 11
个@@ 11
书@@ 11
二 11
云@@ 11
亭 11
候 11
僕@@ 11
凌@@ 11
刀@@ 11
列@@ 11
刺@@ 11
則@@ 11
勝 11
印@@ 11
又@@ 11
后@@ 11
哲@@ 11
場@@ 11
夏 11
太 11
奖@@ 11
奥@@ 11
完@@ 11
官 11
寿@@ 11
射 11
座 11
斗@@ 11
昆@@ 11
晓@@ 11
曲@@ 11
根@@ 11
森 11
氣 11
汉@@ 11
汪@@ 11
澤@@ 11
然@@ 11
版 11
版@@ 11
由@@ 11
申@@ 11
皇 11
盛 11
督@@ 11
系 11
耀@@ 11
联@@ 11
胜@@ 11
草@@ 11
荒@@ 11
藝@@ 11
補@@ 11
見@@ 11
誠 11
諸@@ 11
車 11
車@@ 11
輝 11
農@@ 11
进@@ 11
造@@ 11
間@@ 11
隊 11
雅@@ 11
雨 11
霍@@ 11
顏@@ 11
개@@ 11
과 11
과@@ 11
독@@ 11
드 11
모@@ 11
물@@ 11
소 11
운@@ 11
종@@ 11
치@@ 11
타@@ 11
트@@ 11
； 11
￥ 11
� 11
🏾 11
Aktiv@@ 10
Außen@@ 10
Bildung 10
Braunschwei@@ 10
Druck 10
Erzäh@@ 10
Fluss 10
Folge 10
Gerichts@@ 10
Heiligen 10
Heute 10
Spiele 10
Spitze 10
Söh@@ 10
Tode 10
achsen 10
allgem@@ 10
anischen 10
areer 10
arische 10
asst 10
atischen 10
besser 10
bewer@@ 10
egte 10
ensatz 10
etzung 10
fahrer 10
folge 10
fün@@ 10
ganz 10
geben 10
geht 10
gül@@ 10
hinter 10
keine 10
keits@@ 10
linien 10
pflich@@ 10
regel@@ 10
sehr 10
seite 10
selb@@ 10
setz@@ 10
stände 10
sätze 10
träge 10
tweit 10
wechsel 10
weich@@ 10
zentrale 10
 10
¶ 10
ässi@@ 10
ĕ 10
ǚ 10
ǣ@@ 10
ȝ@@ 10
ɓ@@ 10
ɬ 10
ɲ 10
ʁ@@ 10
ʌ@@ 10
ʕ 10
ʱ 10
ˤ@@ 10
Ξ 10
Й@@ 10
Щ@@ 10
ѣ@@ 10
Қ@@ 10
ә 10
ա 10
լ 10
խ@@ 10
յ 10
տ 10
փ@@ 10
ً 10
ژ@@ 10
ڠ 10
ާ@@ 10
कृ@@ 10
के 10
चन 10
चा@@ 10
छ@@ 10
झ@@ 10
डा@@ 10
थ@@ 10
दि@@ 10
देव 10
धि@@ 10
फ 10
मो@@ 10
वा 10
ु@@ 10
ই 10
জ 10
থ@@ 10
ু 10
ৃ@@ 10
ৰ 10
ਚ@@ 10
ਨ 10
ਪ@@ 10
ਸ 10
ੋ@@ 10
ગ@@ 10
જ@@ 10
ધ@@ 10
લ@@ 10
ા 10
ନ@@ 10
உ@@ 10
అ@@ 10
ట 10
త 10
స 10
ಶ 10
ೈ@@ 10
ര 10
ീ@@ 10
ැ@@ 10
ช 10
ถ@@ 10
ཁ@@ 10
ཆ@@ 10
ལ@@ 10
ထ@@ 10
ပ 10
ယ 10
ီ@@ 10
ქ@@ 10
ለ@@ 10
ር 10
አ@@ 10
ድ@@ 10
ᓂ@@ 10
វ@@ 10
ិ@@ 10
ḳ 10
Ḵ@@ 10
ỉ 10
ἦ@@ 10
₯ 10
₺ 10
【 10
】 10
き 10
に 10
や@@ 10
ザ@@ 10
ヒ@@ 10
リ 10
乌@@ 10
井 10
亭@@ 10
他 10
位@@ 10
住@@ 10
保 10
修 10
冰@@ 10
刀 10
剛 10
務@@ 10
合 10
品@@ 10
善 10
器 10
回 10
园@@ 10
坊 10
塔 10
塔@@ 10
姬 10
威@@ 10
寒@@ 10
尼@@ 10
屋 10
己 10
师@@ 10
幸@@ 10
弘 10
彦 10
彦@@ 10
徳@@ 10
快@@ 10
恋@@ 10
恩@@ 10
恵@@ 10
意@@ 10
戰 10
拓@@ 10
拔@@ 10
持@@ 10
旗 10
末@@ 10
条@@ 10
来 10
果@@ 10
楚@@ 10
機 10
死 10
死@@ 10
段@@ 10
母 10
求@@ 10
沙 10
沢 10
沢@@ 10
测@@ 10
浙@@ 10
浦 10
溪 10
漢 10
漫@@ 10
潘@@ 10
片@@ 10
玉 10
琴 10
登@@ 10
監@@ 10
着@@ 10
石 10
福 10
秀 10
算@@ 10
紀 10
納@@ 10
純@@ 10
組@@ 10
线 10
習@@ 10
聖 10
聲@@ 10
胡 10
色 10
苻@@ 10
菜 10
董@@ 10
蘭 10
視@@ 10
诗@@ 10
语 10
说 10
豊@@ 10
赤@@ 10
輔@@ 10
鉄@@ 10
錦@@ 10
雜@@ 10
面 10
風 10
高 10
鴻@@ 10
黨 10
齊@@ 10
ꯊ@@ 10
간@@ 10
교@@ 10
궁@@ 10
단 10
달@@ 10
당@@ 10
대 10
만@@ 10
버@@ 10
별@@ 10
본@@ 10
십@@ 10
어 10
역 10
연 10
옥@@ 10
외@@ 10
육@@ 10
저@@ 10
제 10
조 10
철@@ 10
포@@ 10
학 10
현 10
혜@@ 10
？ 10
26. 9
Behand@@ 9
Distrikt 9
Durch 9
Einsatz 9
Erfahr@@ 9
Gebiet 9
Geld 9
Gelände 9
Idee 9
Jahres@@ 9
Jahrhunder@@ 9
Konkur@@ 9
Kosten 9
Moskau 9
Opfer 9
Parlam@@ 9
Programm 9
Siedlung 9
Stadtteil 9
Stimmen 9
Viele 9
Wissenschaft@@ 9
berech@@ 9
besonder@@ 9
dieses 9
digt 9
enzeit@@ 9
förm@@ 9
gebi@@ 9
gefähr@@ 9
großen 9
historische 9
jede 9
künstler@@ 9
lten 9
rechts 9
regierung 9
reihe 9
schafter 9
seit 9
spielen 9
staat@@ 9
trolle 9
unicip@@ 9
verschw@@ 9
wahr@@ 9
wirtschafts@@ 9
wissenschaftlichen 9
woll@@ 9
wollen 9
zehn 9
zählung 9
Ã@@ 9
äusern 9
ünst@@ 9
Ą@@ 9
ǝ 9
ɕ@@ 9
ɗ@@ 9
ɲ@@ 9
ɹ@@ 9
ʌ 9
̂ 9
Ό@@ 9
Ы@@ 9
Ն@@ 9
Տ@@ 9
բ 9
է@@ 9
օ@@ 9
כ 9
ظ 9
ى@@ 9
ܬ@@ 9
ފ@@ 9
ई@@ 9
उप@@ 9
एक 9
कम@@ 9
को@@ 9
ठ 9
धर 9
पुर 9
भ 9
मि@@ 9
ले 9
सम 9
हर 9
हि@@ 9
ा@@ 9
ार@@ 9
ारा 9
গ 9
ণ 9
ূ@@ 9
ਆ 9
ਘ 9
ੇ@@ 9
ણ@@ 9
ય@@ 9
સ@@ 9
ழ 9
న 9
య@@ 9
ల 9
ీ@@ 9
ె@@ 9
ೀ@@ 9
ആ@@ 9
ണ@@ 9
ൈ@@ 9
ർ@@ 9
අ@@ 9
ඩ@@ 9
ฉ@@ 9
ษ 9
པ 9
ཚ@@ 9
ར 9
ལ 9
ླ@@ 9
မ 9
ဝ@@ 9
ု 9
መ@@ 9
ሰ@@ 9
ስ@@ 9
ዮ@@ 9
ត 9
ន@@ 9
Ἑ@@ 9
․ 9
※ 9
ⁿ@@ 9
≅ 9
① 9
々@@ 9
く 9
ず@@ 9
め@@ 9
や 9
ギ@@ 9
ジ 9
ゾ@@ 9
ベ@@ 9
マ 9
ロ 9
丁 9
也@@ 9
产@@ 9
仙 9
伏@@ 9
侯@@ 9
個@@ 9
倍@@ 9
兰@@ 9
关@@ 9
创@@ 9
到@@ 9
加 9
务@@ 9
动@@ 9
北 9
厂 9
去@@ 9
叔 9
告@@ 9
器@@ 9
奈@@ 9
字 9
孫 9
宜@@ 9
宝 9
实@@ 9
実@@ 9
實@@ 9
寧 9
将 9
岸@@ 9
延 9
式 9
忍@@ 9
念@@ 9
戲 9
才@@ 9
打@@ 9
技 9
探@@ 9
支@@ 9
改@@ 9
敏 9
敦@@ 9
新 9
旅@@ 9
曹 9
朗 9
李 9
杯 9
樓 9
次 9
欲@@ 9
步@@ 9
波 9
泥@@ 9
洞 9
游@@ 9
源 9
火 9
狂@@ 9
甲 9
町@@ 9
略@@ 9
畫 9
當@@ 9
県@@ 9
督 9
矢@@ 9
祐 9
秋 9
童@@ 9
節 9
系@@ 9
終@@ 9
纪@@ 9
聞@@ 9
聲 9
能 9
臺 9
與@@ 9
舍@@ 9
茶@@ 9
草 9
蔣@@ 9
藍@@ 9
藤 9
衛 9
衣@@ 9
見 9
观@@ 9
角 9
詩 9
諏@@ 9
謝@@ 9
许@@ 9
设@@ 9
赵@@ 9
运@@ 9
逆@@ 9
造 9
選@@ 9
録 9
鍾@@ 9
钱@@ 9
银@@ 9
门 9
际@@ 9
震 9
韩@@ 9
首 9
香 9
麗 9
龙 9
게 9
궁 9
권@@ 9
그 9
덕@@ 9
람 9
랑 9
래 9
려@@ 9
말 9
머@@ 9
반@@ 9
백@@ 9
보 9
생@@ 9
심@@ 9
와 9
작@@ 9
체@@ 9
춘@@ 9
출@@ 9
통@@ 9
판@@ 9
피@@ 9
효@@ 9
𐌢 9
󠁵 9
31. 8
Begriff@@ 8
Beim 8
Beispiel 8
Beruf@@ 8
Charak@@ 8
Diese 8
Dreh@@ 8
Ebene 8
Einwohner@@ 8
Filme 8
Fragen 8
Gebi@@ 8
Gesell@@ 8
Grafen 8
Kandid@@ 8
Kompon@@ 8
Körper@@ 8
Musiker 8
Neben 8
Schlacht 8
Schwester 8
Tschech@@ 8
Turnier 8
Umwelt@@ 8
Werken 8
Zwisch@@ 8
arbeitung 8
aturen 8
beim 8
bereich 8
bereit@@ 8
betre@@ 8
consin 8
davon 8
diesen 8
einzel@@ 8
endung 8
erungen 8
fuhr 8
gebiete 8
gegen@@ 8
genannt 8
genen 8
heißt 8
ihrem 8
istisch 8
istischen 8
jedes 8
jüdischen 8
kehr@@ 8
keit@@ 8
klassi@@ 8
kurz 8
kämp@@ 8
letzten 8
mäler 8
ociety 8
only@@ 8
rechten 8
räume 8
römischen 8
schein@@ 8
sigkeit 8
steu@@ 8
sächs@@ 8
taus@@ 8
theit 8
unteren 8
weib@@ 8
zeiten 8
Ñ 8
Ý 8
ässer@@ 8
ösung 8
į@@ 8
Ś 8
Ť@@ 8
Ǝ@@ 8
ɬ@@ 8
ʋ 8
ʑ 8
ʕ@@ 8
ˀ@@ 8
͈ 8
Ф 8
Э 8
є@@ 8
Բ@@ 8
Ե@@ 8
Վ@@ 8
ղ 8
մ 8
չ@@ 8
ָ 8
ً@@ 8
ٹ 8
ې@@ 8
ܕ@@ 8
ܲ@@ 8
ވ@@ 8
ލ@@ 8
ގ@@ 8
ު 8
ެ@@ 8
ए@@ 8
के@@ 8
गो@@ 8
जि@@ 8
जी 8
ढ@@ 8
णा 8
तर@@ 8
ती@@ 8
थ 8
था@@ 8
दी@@ 8
नन 8
नु@@ 8
बे@@ 8
भो@@ 8
महा@@ 8
ये 8
रम 8
रू@@ 8
वार 8
विद 8
सर 8
सी 8
सी@@ 8
सू@@ 8
हे@@ 8
ऽ@@ 8
ि@@ 8
ो@@ 8
ড@@ 8
ਅ@@ 8
ਤ 8
਼ 8
ત@@ 8
ષ 8
ો 8
ଦ@@ 8
ஒ@@ 8
మ 8
ಆ@@ 8
ಮ 8
ಯ 8
ഞ 8
ദ 8
ච@@ 8
ට@@ 8
ข 8
ກ@@ 8
ཀ@@ 8
ྒ@@ 8
ဖ@@ 8
ူ@@ 8
ል@@ 8
ክ@@ 8
ᐦ@@ 8
ᖅ 8
ᜒ@@ 8
ក@@ 8
ុ@@ 8
ḡ@@ 8
ṁ 8
ṓ@@ 8
ṫ@@ 8
ἡ@@ 8
Ἠ@@ 8
Ἡ@@ 8
ἱ@@ 8
ὁ@@ 8
Ὑ@@ 8
Ῥ@@ 8
‧ 8
₫ 8
⊥ 8
☗ 8
ⵏ 8
ⵓ@@ 8
ⵜ@@ 8
け 8
げ@@ 8
ち 8
で 8
と 8
の 8
よ 8
カ 8
チ 8
ナ 8
ペ@@ 8
乞@@ 8
书 8
争 8
亮@@ 8
什@@ 8
伯 8
作 8
佳 8
便@@ 8
俗@@ 8
傅@@ 8
儿 8
兆@@ 8
全 8
军@@ 8
切@@ 8
制 8
副@@ 8
劍 8
勿@@ 8
博 8
及@@ 8
受@@ 8
古 8
只@@ 8
号@@ 8
吳 8
吾 8
员@@ 8
哀@@ 8
團 8
培@@ 8
声@@ 8
夷 8
奇 8
妖@@ 8
始@@ 8
姐@@ 8
姜@@ 8
姫 8
存@@ 8
宏 8
宿@@ 8
密 8
封@@ 8
射@@ 8
尊 8
尊@@ 8
岳 8
峰@@ 8
巡@@ 8
干 8
庆@@ 8
座@@ 8
庫 8
庫@@ 8
庭 8
廬@@ 8
形 8
役 8
忘@@ 8
感@@ 8
慶 8
戀@@ 8
戏@@ 8
房 8
才 8
拉 8
授@@ 8
斎 8
施@@ 8
旋@@ 8
易@@ 8
昭 8
是 8
查@@ 8
根 8
案 8
棒@@ 8
榮 8
横@@ 8
止@@ 8
毅 8
注@@ 8
洋 8
淳 8
渡@@ 8
温@@ 8
湯@@ 8
灰@@ 8
為 8
獎 8
玄 8
现@@ 8
用 8
異@@ 8
眼@@ 8
祐@@ 8
祭 8
祿@@ 8
科 8
穂@@ 8
端@@ 8
笑@@ 8
篇 8
級@@ 8
素 8
紹@@ 8
維@@ 8
編 8
織@@ 8
群@@ 8
羽@@ 8
考@@ 8
芳 8
茂 8
菜@@ 8
蜜@@ 8
衣 8
裴@@ 8
規@@ 8
誌 8
譜 8
警@@ 8
记 8
说@@ 8
豐@@ 8
象@@ 8
豫@@ 8
貞 8
貴 8
贵@@ 8
资@@ 8
走@@ 8
轻@@ 8
辺@@ 8
速@@ 8
邑 8
邓@@ 8
邦@@ 8
鄉@@ 8
重 8
鈔 8
銅@@ 8
關 8
阳 8
陰 8
隆 8
隱@@ 8
雍@@ 8
靜@@ 8
順 8
須@@ 8
飯@@ 8
馮@@ 8
魂@@ 8
鳥 8
鹰 8
건 8
건@@ 8
겨@@ 8
귀@@ 8
는@@ 8
단@@ 8
데@@ 8
디@@ 8
란@@ 8
마 8
매@@ 8
법 8
병@@ 8
봉@@ 8
새@@ 8
식@@ 8
야@@ 8
양 8
오 8
요 8
우 8
워@@ 8
월@@ 8
좋@@ 8
집 8
천 8
팔@@ 8
희 8
🏻 8
🏽 8
🏿 8
👨 8
󠁲 8
Autor 7
Beziehungen 7
Damit 7
Eing@@ 7
Europäischen 7
Familien@@ 7
Funktion 7
Gericht 7
Großen 7
Häuser 7
Januar 7
Medizin 7
Neubau 7
Noch 7
Objek@@ 7
Partei@@ 7
Pfarrer 7
Publik@@ 7
Sowjet@@ 7
Straßen@@ 7
Strecke 7
Stunden 7
Tagen 7
Ungarn 7
Versor@@ 7
Vertre@@ 7
Verwaltung 7
Wahlen 7
Wappen 7
Zenti@@ 7
assung 7
barkeit 7
beeinfl@@ 7
beruf@@ 7
dienste 7
dungen 7
ellschaft 7
ennung 7
entliche 7
entwicklung 7
esischen 7
fül@@ 7
halten 7
haltung 7
hatte 7
heuti@@ 7
historischen 7
jahr 7
kathol@@ 7
kurz@@ 7
legung 7
linie 7
lobal 7
medizin@@ 7
nahm 7
neuer 7
ologen 7
sicht@@ 7
spielt 7
spruch 7
spä@@ 7
sterreich@@ 7
versor@@ 7
weise 7
welche 7
wirtschaftliche 7
würde 7
zeichn@@ 7
 7
¯ 7
Ë@@ 7
Ù@@ 7
Þ 7
ßt 7
ächen 7
Ć 7
Ģ@@ 7
ĥ 7
ĥ@@ 7
ĵ@@ 7
ŕ@@ 7
ŝ 7
Ū 7
Ź@@ 7
Ɂ 7
ɒ@@ 7
ɜ@@ 7
ɹ 7
ʀ 7
˥ 7
έ 7
Ж 7
џ@@ 7
Ґ@@ 7
ғ@@ 7
ӧ@@ 7
ө 7
Լ@@ 7
Խ@@ 7
צ 7
غ 7
ـ 7
ܢ@@ 7
ܸ@@ 7
ސ@@ 7
ंग@@ 7
और 7
कल 7
कि@@ 7
गर 7
घ 7
घ@@ 7
चा 7
चार 7
तु@@ 7
तृ@@ 7
था 7
दर 7
पद 7
बड 7
बर 7
बो@@ 7
भु@@ 7
मी 7
मे 7
में 7
रह@@ 7
रु 7
ले@@ 7
लो@@ 7
वी@@ 7
सि@@ 7
सो@@ 7
हे 7
ान 7
ार 7
ঁ@@ 7
উ@@ 7
হ 7
ੁ 7
ੋ 7
ં@@ 7
દ 7
દ@@ 7
ତ@@ 7
ନ 7
ପ@@ 7
ସ@@ 7
ୁ@@ 7
େ@@ 7
చ@@ 7
జ@@ 7
శ 7
ూ@@ 7
ొ@@ 7
ో@@ 7
ಗ 7
ಟ 7
ಪ 7
ಭ@@ 7
ಾ 7
ജ@@ 7
ഭ@@ 7
വ 7
ൊ@@ 7
ත 7
ෂ@@ 7
ณ 7
ນ 7
ບ@@ 7
ວ@@ 7
ເ@@ 7
ན@@ 7
ེ 7
ဇ@@ 7
წ@@ 7
የ@@ 7
ᑎ@@ 7
ង@@ 7
ទ@@ 7
ល@@ 7
ំ@@ 7
Ἁ@@ 7
Ἄ@@ 7
ἕ@@ 7
Ἱ@@ 7
ὔ@@ 7
ὴ 7
ὴ@@ 7
ὼ@@ 7
₡ 7
₤ 7
⅝ 7
⅞ 7
↦ 7
□ 7
◆ 7
♡ 7
ⲁ@@ 7
ⵔ@@ 7
お 7
す 7
ず 7
だ 7
べ 7
ウ 7
オ 7
キ 7
ザ 7
ゼ@@ 7
ツ 7
ュ 7
ユ@@ 7
丘@@ 7
丰@@ 7
为@@ 7
乘@@ 7
仲 7
任 7
伴 7
何 7
佛 7
俊 7
俱@@ 7
們@@ 7
倭@@ 7
健 7
優@@ 7
儿@@ 7
先 7
兒 7
军 7
冬@@ 7
凤@@ 7
創@@ 7
劇@@ 7
医@@ 7
升@@ 7
华 7
卓@@ 7
印 7
参@@ 7
反@@ 7
吕@@ 7
周 7
味@@ 7
咸@@ 7
哥 7
哲 7
啓@@ 7
嗣 7
图@@ 7
圓@@ 7
圳@@ 7
坂 7
坐@@ 7
坡@@ 7
報@@ 7
声 7
失@@ 7
头 7
妻@@ 7
婆@@ 7
孩@@ 7
守 7
室 7
対@@ 7
尾 7
展@@ 7
帶 7
幻@@ 7
幼@@ 7
庄 7
庭@@ 7
廖@@ 7
強@@ 7
復@@ 7
徽@@ 7
必@@ 7
恩 7
恭@@ 7
悲@@ 7
想 7
應@@ 7
战 7
抄 7
折@@ 7
护@@ 7
拜@@ 7
拳@@ 7
敏@@ 7
救@@ 7
散@@ 7
旧@@ 7
时@@ 7
智 7
曼@@ 7
望 7
朝 7
条 7
杰 7
松 7
柔@@ 7
柱 7
棋 7
極 7
樓@@ 7
橫@@ 7
權 7
殺@@ 7
殿 7
気@@ 7
注 7
洲 7
活@@ 7
派 7
派@@ 7
济@@ 7
浜@@ 7
浮@@ 7
消@@ 7
涪@@ 7
湾@@ 7
溫@@ 7
潭@@ 7
潮@@ 7
澳@@ 7
瀬@@ 7
灣 7
灵@@ 7
点 7
牌@@ 7
牙@@ 7
牛 7
犬@@ 7
狼@@ 7
猛@@ 7
玲 7
珍 7
珠 7
琅@@ 7
琳 7
瑪@@ 7
甫@@ 7
画 7
直 7
県 7
移@@ 7
種 7
穆@@ 7
筆@@ 7
約@@ 7
索@@ 7
絵 7
緣 7
级@@ 7
绍@@ 7
翻@@ 7
耶@@ 7
肥@@ 7
育 7
臣@@ 7
舒@@ 7
船 7
芦@@ 7
著@@ 7
葛@@ 7
蓮@@ 7
表 7
被@@ 7
裕 7
覺@@ 7
計@@ 7
說@@ 7
論@@ 7
謙@@ 7
賈@@ 7
賓@@ 7
起 7
輪@@ 7
迎@@ 7
连@@ 7
迦@@ 7
連 7
遠 7
還@@ 7
酒 7
阪@@ 7
降@@ 7
雪 7
霊@@ 7
霞@@ 7
露@@ 7
靖 7
類@@ 7
顯 7
養@@ 7
餘@@ 7
館@@ 7
魯@@ 7
鱼@@ 7
鳥@@ 7
鳴@@ 7
ꜣ@@ 7
꧀ 7
게@@ 7
관 7
내 7
너 7
년 7
눈@@ 7
떡 7
립@@ 7
말@@ 7
목@@ 7
방@@ 7
법@@ 7
복@@ 7
북@@ 7
분@@ 7
속@@ 7
요@@ 7
용 7
을@@ 7
입@@ 7
죽@@ 7
준 7
채@@ 7
풍@@ 7
향@@ 7
형@@ 7
𐰆@@ 7
👩 7
󠁥 7
󠁳 7
Abschnitt 6
Architektur 6
Aufl@@ 6
Auftrag 6
Australien 6
Breite 6
Doch 6
Ehe@@ 6
Entstehung 6
Familien 6
Geographie 6
Höhen@@ 6
Inseln 6
Internationalen 6
Kaliforn@@ 6
Körper 6
Maß@@ 6
Mittelalter 6
Namens@@ 6
Neben@@ 6
Prozess 6
Präsident 6
Rechte 6
Schulen 6
Sinne 6
Sprachen 6
Vaters 6
Verfü@@ 6
Wiederauf@@ 6
antwor@@ 6
arischen 6
atoren 6
außer@@ 6
bestimm@@ 6
betrieb 6
bevor 6
brechen 6
druck 6
einander 6
erinnen 6
familie 6
finanz@@ 6
fluss 6
freien 6
früher 6
gangen 6
gebil@@ 6
geleg@@ 6
gerech@@ 6
gewäh@@ 6
halb 6
itig 6
jeder 6
jetzt 6
jüd@@ 6
liegt 6
läufer 6
mäß@@ 6
nehm@@ 6
neun 6
produk@@ 6
reiben 6
riffe 6
räum@@ 6
schnell 6
schnit@@ 6
sechs 6
selbst 6
setzung 6
sprü@@ 6
stellte 6
süd@@ 6
verloren 6
verteidi@@ 6
weiter 6
wertung 6
zweite 6
zählt 6
Ë 6
änden 6
ängerin 6
öffentlichen 6
österreichischer 6
Ė@@ 6
Ī 6
Ư@@ 6
ǀ 6
ǂ 6
ɐ@@ 6
ɻ@@ 6
ʁ 6
ˀ 6
ˠ@@ 6
Ш 6
щ 6
ґ@@ 6
қ@@ 6
Շ@@ 6
ը@@ 6
ո 6
ջ@@ 6
ֿ@@ 6
ׁ 6
מ 6
ٌ 6
ٰ@@ 6
ܐ@@ 6
ܠ@@ 6
ܡ@@ 6
ހ@@ 6
ँ 6
ंग 6
अनु@@ 6
उ 6
खो@@ 6
जन 6
जी@@ 6
टा@@ 6
ढ 6
तत 6
तन 6
तु 6
तो 6
दा 6
दा@@ 6
दिर 6
दुर 6
धा@@ 6
फ@@ 6
भि@@ 6
मह@@ 6
मै@@ 6
यात 6
यु@@ 6
युत 6
वत 6
शं@@ 6
शु@@ 6
षेत 6
हिन 6
ও@@ 6
ট 6
ৈ@@ 6
ৌ@@ 6
ੂ@@ 6
ડ@@ 6
શ@@ 6
କ@@ 6
ଦ 6
ବ@@ 6
ର 6
ஞ 6
ట@@ 6
బ@@ 6
భ@@ 6
హ@@ 6
ಅ@@ 6
ಜ@@ 6
ಧ@@ 6
ವ 6
ಶ@@ 6
ദ@@ 6
ർ 6
ට 6
ී 6
๊ 6
ນ@@ 6
ົ 6
່ 6
້ 6
པ@@ 6
င@@ 6
ဒ@@ 6
ေ 6
။ 6
ზ@@ 6
პ@@ 6
ჩ@@ 6
ჯ@@ 6
ም@@ 6
ተ@@ 6
ን 6
ጊ@@ 6
ግ@@ 6
ᐃ@@ 6
ᖅ@@ 6
ᛁ@@ 6
ន 6
អ@@ 6
ួ@@ 6
ោ@@ 6
ᠠ@@ 6
ṳ 6
Ọ 6
ỵ 6
ỹ@@ 6
ἁ@@ 6
ἵ@@ 6
Ἴ@@ 6
ὕ@@ 6
ὤ@@ 6
᾽ 6
ῃ 6
ῆ 6
⁣ 6
₃ 6
₆ 6
₪ 6
₳ 6
℅ 6
∘ 6
≃ 6
〈 6
〉 6
▲ 6
ⴳ@@ 6
ⴻ@@ 6
ⴽ@@ 6
ⵣ@@ 6
ざ@@ 6
へ 6
む 6
む@@ 6
ゆ@@ 6
ょ@@ 6
れ 6
コ 6
タ 6
ミ 6
ョ 6
ヶ@@ 6
丽 6
丽@@ 6
乃@@ 6
义@@ 6
九 6
乡@@ 6
互@@ 6
五 6
亦@@ 6
亮 6
们@@ 6
优@@ 6
伝@@ 6
传 6
传@@ 6
但@@ 6
位 6
低@@ 6
來@@ 6
倭 6
傷 6
像 6
像@@ 6
儀@@ 6
儉 6
充@@ 6
兩@@ 6
六 6
兰 6
关 6
冠@@ 6
判@@ 6
前 6
剧@@ 6
劍@@ 6
勢@@ 6
包@@ 6
區@@ 6
卡@@ 6
卢 6
卷 6
去 6
县@@ 6
友 6
叔@@ 6
同 6
咒 6
哈@@ 6
員 6
唯@@ 6
商 6
喜 6
嘯 6
固@@ 6
圖@@ 6
域@@ 6
堅 6
堅@@ 6
塞@@ 6
壓@@ 6
复@@ 6
威 6
娘 6
宋 6
客 6
室@@ 6
宫 6
寨 6
寳 6
專@@ 6
少 6
尙@@ 6
属@@ 6
屬@@ 6
岁@@ 6
己@@ 6
并@@ 6
広 6
廣 6
弥@@ 6
征@@ 6
律 6
後 6
徒@@ 6
惠 6
惡@@ 6
慈@@ 6
慧@@ 6
懿 6
戦 6
戰@@ 6
房@@ 6
扶@@ 6
折 6
抱@@ 6
掛@@ 6
撇@@ 6
收@@ 6
教 6
敦 6
数@@ 6
斑@@ 6
映@@ 6
曾 6
有 6
服 6
期 6
未@@ 6
杂@@ 6
枝@@ 6
查 6
格 6
桐@@ 6
械@@ 6
楊 6
權@@ 6
欽 6
此@@ 6
步 6
殿@@ 6
气@@ 6
氣@@ 6
池 6
決@@ 6
沖@@ 6
津 6
洪 6
洺@@ 6
浩 6
淑@@ 6
淦 6
淳@@ 6
渔@@ 6
潞@@ 6
潤@@ 6
然 6
煥 6
熙@@ 6
熟@@ 6
燈@@ 6
燕@@ 6
營@@ 6
燧 6
爾@@ 6
牟@@ 6
牧@@ 6
狄@@ 6
狐@@ 6
猿 6
玫@@ 6
珍@@ 6
琉@@ 6
略 6
痛@@ 6
盘@@ 6
監 6
盤@@ 6
盧 6
眞@@ 6
知 6
碧@@ 6
礼 6
礼@@ 6
祥@@ 6
禿@@ 6
秉@@ 6
秘@@ 6
種@@ 6
竜@@ 6
童 6
端 6
管 6
範 6
糖@@ 6
紙 6
紙@@ 6
絵@@ 6
続@@ 6
総@@ 6
習 6
翔@@ 6
翼 6
考 6
耿@@ 6
背@@ 6
致@@ 6
舟@@ 6
般@@ 6
芸@@ 6
葉 6
蓝@@ 6
蔵@@ 6
薊@@ 6
虹@@ 6
蜀@@ 6
血@@ 6
製@@ 6
要 6
视@@ 6
訓 6
許 6
調@@ 6
講@@ 6
議@@ 6
變@@ 6
象 6
貘 6
資@@ 6
赛@@ 6
超 6
越 6
跳@@ 6
輝@@ 6
輪 6
輿 6
达@@ 6
迅 6
过@@ 6
远@@ 6
遊 6
遵@@ 6
遺@@ 6
邵@@ 6
鄴@@ 6
量@@ 6
鋼@@ 6
镇@@ 6
長 6
閣 6
闘@@ 6
问@@ 6
间@@ 6
队 6
陝@@ 6
陶@@ 6
雅 6
雞@@ 6
零@@ 6
霫 6
願@@ 6
顯@@ 6
駆@@ 6
騎@@ 6
马 6
验@@ 6
髮@@ 6
鬼 6
魂 6
鲁@@ 6
鶴@@ 6
鹿 6
麵 6
黎 6
鼓 6
ꯦ@@ 6
ꯨ@@ 6
감 6
개 6
검@@ 6
곡@@ 6
구 6
금 6
길@@ 6
능@@ 6
니 6
당 6
더@@ 6
돈@@ 6
려 6
루 6
르@@ 6
면 6
브@@ 6
살@@ 6
송@@ 6
식 6
실 6
업@@ 6
올@@ 6
위 6
있@@ 6
종 6
차 6
차@@ 6
초@@ 6
추@@ 6
크@@ 6
터@@ 6
트 6
판 6
포 6
프@@ 6
합@@ 6
해 6
헌@@ 6
협@@ 6
훈 6
희@@ 6
１@@ 6
･ 6
𐨒@@ 6
󠁩 6
28. 5
Anfang 5
Arbeiten 5
Autoren 5
Dabei 5
Dänemark 5
Ehe 5
Einführung 5
Februar 5
Folgen 5
Gründung 5
Halbinsel 5
Mitglied 5
Monate 5
Pfar@@ 5
Rahmen 5
Schrif@@ 5
Seite 5
Siehe 5
Staaten 5
Verhält@@ 5
Verteidi@@ 5
Vertrag 5
Verwendung 5
Züge 5
amerikanischen 5
arbeit 5
belegt 5
betrachtet 5
bezieh@@ 5
bleibt 5
brary 5
damit 5
darf 5
digkeit 5
dividu@@ 5
einige 5
emals 5
fläche 5
französischen 5
frühen 5
führt 5
gehört 5
genheit 5
getr@@ 5
gungs@@ 5
hatten 5
indungen 5
ischem 5
itäten 5
jährigen 5
katholische 5
kleinen 5
leistung 5
lichem 5
machen 5
medaille 5
militär@@ 5
mischen 5
mittl@@ 5
modernen 5
nehmen 5
nieder 5
nieder@@ 5
nischen 5
nutz@@ 5
näch@@ 5
ologe 5
ospital 5
pflanz@@ 5
punkte 5
religiö@@ 5
rün@@ 5
seinem 5
setzen 5
sidenten 5
sionen 5
sowie 5
sprech@@ 5
statt@@ 5
stellen 5
stellten 5
titel 5
ungs- 5
verfahren 5
vergleich@@ 5
verkaufte 5
wasser@@ 5
wechsel@@ 5
wieder@@ 5
wissenschaftliche 5
 5
 5
Ï@@ 5
äler 5
ücksich@@ 5
ĉ 5
ĺ@@ 5
Œ 5
ǚ@@ 5
Ǫ@@ 5
Ǵ@@ 5
ȳ@@ 5
ɘ 5
ɟ 5
ɦ@@ 5
ʂ@@ 5
̇ 5
̦ 5
͜ 5
ϵ 5
Ё@@ 5
Є@@ 5
Х 5
Ц 5
Ю 5
ѓ@@ 5
ѕ@@ 5
ќ 5
ң@@ 5
ҳ@@ 5
Ӏ@@ 5
Ө@@ 5
Թ@@ 5
Ի@@ 5
Յ@@ 5
է 5
թ 5
ժ@@ 5
չ 5
ք 5
ֹ 5
ײ@@ 5
٣ 5
ٱ@@ 5
ڊ@@ 5
ګ@@ 5
ۆ@@ 5
ۈ@@ 5
ێ@@ 5
ې 5
۔ 5
ܒ@@ 5
ܩ@@ 5
ܵ@@ 5
ބ@@ 5
ތ@@ 5
ޑ@@ 5
ާ 5
ޮ@@ 5
ް 5
ंद 5
अन 5
ओ 5
खि@@ 5
जन@@ 5
जय@@ 5
जल@@ 5
ञा@@ 5
टा 5
तः 5
तव 5
तान 5
तुम 5
देवी 5
देश 5
पि@@ 5
भार@@ 5
भू@@ 5
मी@@ 5
यी 5
योजना 5
रण@@ 5
राज@@ 5
राव@@ 5
लक 5
लय 5
शास 5
शी 5
शे@@ 5
संस 5
सत 5
सिंह 5
से@@ 5
ी@@ 5
ौ@@ 5
ਕ 5
ਖ@@ 5
ਡ@@ 5
ਹ 5
છ@@ 5
સ 5
ଗ@@ 5
ଙ 5
ତ 5
ା 5
ୀ 5
ே 5
గ 5
ప 5
ా 5
ీ 5
ഥ@@ 5
ഭ 5
ശ 5
ඇ@@ 5
ශ 5
ී@@ 5
ญ 5
ฤ 5
ะ 5
ึ 5
฿ 5
ๅ 5
ງ 5
ງ@@ 5
ປ@@ 5
ລ@@ 5
ະ@@ 5
ཐ@@ 5
ཕ@@ 5
བ 5
འ 5
ྐ@@ 5
ྟ@@ 5
ဂ@@ 5
ဲ@@ 5
ყ@@ 5
ብ 5
ኢ@@ 5
ከ@@ 5
ው 5
ᑭ@@ 5
ᒃ 5
ᓴ@@ 5
ប 5
ម@@ 5
យ@@ 5
រ 5
ស 5
ហ@@ 5
ះ@@ 5
ᥰ 5
ṉ 5
ṟ 5
Ẕ@@ 5
ẕ 5
ẻ@@ 5
ỡ 5
Ἔ@@ 5
ἢ 5
ἱ 5
ὡ@@ 5
ῇ 5
ῖ 5
₣ 5
℘ 5
ℵ@@ 5
∥ 5
≙ 5
≫ 5
⎕ 5
② 5
③ 5
△ 5
◌ 5
ⴷ@@ 5
ⵍ@@ 5
ⵜ 5
ぐ@@ 5
じ 5
ぬ@@ 5
ね@@ 5
へ@@ 5
ほ@@ 5
ろ 5
ゐ 5
を 5
ィ 5
ォ@@ 5
ニ 5
ブ 5
ヘ@@ 5
ヨ@@ 5
ヴ 5
ㄴ 5
ㅇ@@ 5
丞 5
两@@ 5
临@@ 5
丸@@ 5
义 5
乙 5
亀@@ 5
了 5
于 5
云 5
从@@ 5
仑@@ 5
伍@@ 5
伝 5
來 5
依 5
倉 5
倪@@ 5
傅 5
傑 5
僑@@ 5
儀 5
允@@ 5
兒@@ 5
党 5
具@@ 5
冑 5
写@@ 5
凡@@ 5
凰@@ 5
分 5
切 5
刊 5
则@@ 5
刚 5
别@@ 5
剑@@ 5
勃@@ 5
動 5
勳 5
十 5
单@@ 5
历 5
參@@ 5
发 5
吾@@ 5
嘗@@ 5
嚴@@ 5
图 5
團@@ 5
在 5
坂@@ 5
坤 5
坪 5
塚@@ 5
增@@ 5
壽 5
处@@ 5
多 5
夜 5
夢 5
夷@@ 5
契@@ 5
如 5
妙@@ 5
姑@@ 5
姓@@ 5
媒@@ 5
孔@@ 5
季 5
宙@@ 5
密@@ 5
寿 5
専@@ 5
尋@@ 5
導@@ 5
尼 5
局@@ 5
居 5
屆@@ 5
展 5
屠@@ 5
岛@@ 5
崎 5
嶺 5
巖@@ 5
巨@@ 5
已@@ 5
师 5
希 5
帥 5
帳 5
常 5
应@@ 5
店@@ 5
庙 5
庶@@ 5
庸@@ 5
建 5
弓 5
引@@ 5
強 5
归@@ 5
彝 5
彥@@ 5
彩@@ 5
彬 5
影 5
彼@@ 5
待@@ 5
很@@ 5
得 5
微@@ 5
思 5
性 5
恐@@ 5
恒@@ 5
恭 5
愿 5
憲 5
懿@@ 5
戀 5
戒 5
投@@ 5
抗@@ 5
招@@ 5
指@@ 5
撃@@ 5
支 5
料@@ 5
断@@ 5
斯 5
早@@ 5
時 5
晋@@ 5
景 5
暴@@ 5
曇@@ 5
更@@ 5
机 5
束@@ 5
杭@@ 5
杲 5
果 5
架 5
树@@ 5
桑 5
桓@@ 5
梁 5
條@@ 5
梨@@ 5
梵@@ 5
椒 5
楚 5
業 5
楼@@ 5
榜@@ 5
榮@@ 5
欣 5
歙 5
毘@@ 5
毫 5
永 5
汇@@ 5
汶@@ 5
洞@@ 5
活 5
混@@ 5
添@@ 5
湯 5
滑@@ 5
澄@@ 5
瀬 5
炮 5
炮@@ 5
焦@@ 5
熱@@ 5
爆@@ 5
父 5
狗 5
狮@@ 5
猪@@ 5
猫@@ 5
獎@@ 5
獻 5
獻@@ 5
玲@@ 5
琅 5
琛 5
琪 5
甜@@ 5
甫 5
畫@@ 5
發 5
砂@@ 5
砲 5
碩@@ 5
磨 5
票@@ 5
禧@@ 5
禪@@ 5
突@@ 5
竇@@ 5
立 5
等 5
筑@@ 5
答@@ 5
筠 5
範@@ 5
精 5
綱 5
綿@@ 5
編@@ 5
練@@ 5
繁@@ 5
经@@ 5
绿@@ 5
网 5
羊 5
羽 5
耳@@ 5
聞 5
脩 5
腳 5
舊@@ 5
艦 5
艺@@ 5
芝@@ 5
苗@@ 5
荣@@ 5
莊 5
莊@@ 5
落 5
葵 5
蒋@@ 5
蔭@@ 5
薩 5
藩 5
虜@@ 5
虞 5
虢@@ 5
蛇@@ 5
融 5
衡 5
衡@@ 5
裙 5
視 5
覚@@ 5
観 5
觀 5
视 5
証@@ 5
話@@ 5
誠@@ 5
議 5
记@@ 5
语@@ 5
豹 5
賊@@ 5
赛 5
赫@@ 5
身 5
转@@ 5
达 5
返@@ 5
迷@@ 5
逃@@ 5
速 5
進 5
邢@@ 5
邨 5
邪@@ 5
錫@@ 5
鎮 5
鏡@@ 5
鐵 5
閣@@ 5
閻@@ 5
阜@@ 5
阪 5
陳 5
陶 5
隨@@ 5
雖@@ 5
難 5
難@@ 5
靖@@ 5
頑@@ 5
頒@@ 5
領 5
頼@@ 5
顺@@ 5
餅 5
驴 5
體@@ 5
魁@@ 5
魯 5
鸞@@ 5
鸡@@ 5
鹃 5
鹤@@ 5
黄 5
鼓@@ 5
齐@@ 5
ꜣ 5
ꝏ@@ 5
ꦤ 5
각@@ 5
검 5
것@@ 5
광 5
근 5
끝@@ 5
난 5
네@@ 5
놀@@ 5
느@@ 5
더 5
돌 5
돌@@ 5
드@@ 5
래@@ 5
럼 5
레 5
령@@ 5
림 5
림@@ 5
메@@ 5
면@@ 5
민 5
발@@ 5
밥 5
베@@ 5
벽@@ 5
봉 5
불@@ 5
빵 5
설 5
섬 5
세 5
숙@@ 5
술@@ 5
습@@ 5
암@@ 5
열@@ 5
으@@ 5
재 5
찰@@ 5
친@@ 5
케@@ 5
코@@ 5
크 5
토@@ 5
특@@ 5
티 5
함@@ 5
허@@ 5
형 5
훈@@ 5
흥@@ 5
 5
︎ 5
． 5
９@@ 5
｢ 5
｣ 5
𐨂@@ 5
𐨡@@ 5
𐨪 5
𐰃 5
𐰉@@ 5
🏼 5
󠁬 5
󠁮 5
Anhän@@ 4
Anwendung 4
Aufnahme 4
Beide 4
Bistum 4
Dazu 4
Direktor 4
Eltern 4
Erzb@@ 4
Figuren 4
Flugh@@ 4
Gefan@@ 4
Herkunft 4
Informationen 4
Karriere 4
Landtag@@ 4
Millionen 4
Minuten 4
Mitarbeiter 4
März 4
Mög@@ 4
Original@@ 4
Parlament 4
Persön@@ 4
Probleme 4
Provinz 4
Punkt 4
Stellung 4
Szene 4
Themen 4
Unternehmens@@ 4
Weltk@@ 4
Weltkrieg 4
Zusamm@@ 4
abger@@ 4
aktiv 4
angeb@@ 4
beauftra@@ 4
beginnt 4
beide 4
beiden 4
bekannten 4
besa@@ 4
blieb 4
dabei 4
derte 4
dessen 4
dlichen 4
dritten 4
ehemaligen 4
einigen 4
einmal 4
ektur 4
erheb@@ 4
etwas 4
frist@@ 4
früh@@ 4
fäh@@ 4
fällt 4
geboren 4
gebung 4
geleit@@ 4
gemacht 4
geordn@@ 4
gesell@@ 4
groß 4
halte 4
hunder@@ 4
igte 4
ihnen 4
ikations@@ 4
katholischen 4
kompon@@ 4
kreises 4
ließ@@ 4
meist 4
mög@@ 4
müssen 4
namens 4
nichts 4
nungen 4
nungs@@ 4
oberen 4
preußischen 4
promov@@ 4
reibung 4
rischen 4
runde 4
spezi@@ 4
spieler 4
spricht 4
standen 4
stimm@@ 4
stimmung 4
struktion 4
ständ@@ 4
sächsischen 4
tragen 4
treffen 4
verhält@@ 4
vierte 4
wahl 4
werde 4
werte 4
wever 4
wurde 4
wäh@@ 4
zerstör@@ 4
zugs@@ 4
 4
 4
 4
Ê 4
Î 4
Öffentlichkeit 4
Ù 4
öffentliche 4
ĝ 4
Ł 4
ŧ@@ 4
Ɔ 4
Ə 4
ǃ 4
ǘ 4
Ș 4
ȧ@@ 4
ɢ 4
ɤ 4
ɤ@@ 4
ɫ@@ 4
ɯ@@ 4
ɰ 4
ɸ@@ 4
ʈ@@ 4
ʎ 4
̟ 4
̡ 4
ς@@ 4
ϋ@@ 4
Ϲ 4
Ϲ@@ 4
Й 4
Ч 4
Ъ 4
ѕ 4
њ 4
ѧ 4
қ 4
ң 4
Ү@@ 4
ү 4
Ә@@ 4
Ӝ 4
ӝ 4
Ӵ 4
ӵ 4
Բ 4
Դ@@ 4
Զ@@ 4
Պ@@ 4
Ր@@ 4
դ 4
ե 4
վ 4
և 4
և@@ 4
ַ 4
־ 4
ء@@ 4
أ 4
٢ 4
ڈ 4
ډ@@ 4
ڻ@@ 4
ۍ 4
ە 4
ܗ@@ 4
ܥ@@ 4
ܪ 4
ޖ@@ 4
ި 4
ީ@@ 4
ंच@@ 4
अव@@ 4
ए 4
कम 4
कार@@ 4
खा@@ 4
गं@@ 4
चे 4
चै@@ 4
चौ@@ 4
छे 4
जा 4
जु@@ 4
ञ 4
ञ@@ 4
टक 4
टे 4
डे@@ 4
तरा@@ 4
तो@@ 4
दो@@ 4
नक 4
नग@@ 4
नाथ 4
पर@@ 4
पाल 4
पी@@ 4
पूर 4
बंध@@ 4
बन 4
मद 4
मर 4
मान 4
मार@@ 4
मारी 4
मि 4
मूर 4
यन 4
यम 4
ये@@ 4
रण 4
रति@@ 4
रभा@@ 4
रम@@ 4
रस 4
राम@@ 4
राय@@ 4
रिया 4
रू 4
रो 4
वरी 4
वस 4
विश 4
वी 4
वे 4
शक 4
शीर 4
शो@@ 4
षा 4
सर@@ 4
सिद 4
सेवा 4
हम 4
हा 4
हू@@ 4
हो@@ 4
ित 4
िय@@ 4
ूर 4
ोर 4
অ 4
খ 4
ঘ@@ 4
ঙ@@ 4
চ 4
ঝ@@ 4
থ 4
ধ 4
ৱ@@ 4
ਈ 4
ਣ@@ 4
ਥ@@ 4
ਧ@@ 4
ਬ 4
ਭ@@ 4
ਮ 4
ਯ@@ 4
ਲ 4
ੈ 4
ੈ@@ 4
ੌ@@ 4
੍ 4
ੜ@@ 4
ં 4
ક 4
ચ@@ 4
ધ 4
ન 4
વ 4
શ 4
ૃ@@ 4
କ 4
ଚ@@ 4
ଳ@@ 4
ଶ 4
ହ@@ 4
ୀ@@ 4
ஜ@@ 4
ஹ@@ 4
ோ 4
ం 4
ఘ 4
య 4
ಜ 4
ಡ 4
ಳ 4
ೀ 4
ೃ@@ 4
ೊ 4
ೊ@@ 4
ഇ@@ 4
എ@@ 4
ഞ@@ 4
ധ@@ 4
ബ 4
ഹ@@ 4
ാ 4
ප 4
ශ@@ 4
ฅ 4
ซ 4
ซ@@ 4
ฎ@@ 4
ธ 4
ฮ@@ 4
ำ 4
ึ@@ 4
๏ 4
ຂ@@ 4
ທ@@ 4
ຫ@@ 4
ັ@@ 4
ຸ@@ 4
ང@@ 4
ཞ@@ 4
ྗ@@ 4
ྷ@@ 4
စ 4
ဓ@@ 4
ဗ@@ 4
လ 4
ီ 4
რ 4
ላ 4
ል 4
ማ 4
ረ@@ 4
ባ 4
ብ@@ 4
ና 4
እ@@ 4
ካ@@ 4
ያ 4
ዲ@@ 4
ገ@@ 4
ጎ@@ 4
ጠ@@ 4
ጥ@@ 4
ፋ@@ 4
ፖ@@ 4
Ꭻ@@ 4
ᐅ@@ 4
ᐠ 4
ᐧ@@ 4
ᐸ@@ 4
ᑕ@@ 4
ᑯ@@ 4
ᑲ@@ 4
ᓕ@@ 4
ᜅ 4
ᜆ 4
ᜇ@@ 4
ᜈ 4
ជ 4
ជ@@ 4
ប@@ 4
ព 4
យ 4
ល 4
ូ@@ 4
់ 4
᥄ 4
ᥛ@@ 4
ᥝ@@ 4
ḑ 4
Ḷ@@ 4
Ḹ 4
Ṝ 4
ṡ@@ 4
Ṣ 4
ẖ@@ 4
ễ 4
ớ 4
ỡ@@ 4
ἅ@@ 4
ἠ@@ 4
Ὕ@@ 4
ὰ@@ 4
ὺ@@ 4
ὼ 4
ᾱ@@ 4
ῶ 4
῾ 4
‏ 4
⁊ 4
⁴ 4
⁵ 4
ℂ 4
℥ 4
Ⅰ 4
↵ 4
∃ 4
∐ 4
≪ 4
⊃ 4
⊊ 4
⊢ 4
⋀ 4
⋄ 4
④ 4
⑤ 4
Ⓡ 4
■ 4
◊ 4
♪ 4
✝ 4
✸ 4
❤ 4
ⲉ@@ 4
ⵏ@@ 4
々 4
ぁ 4
な 4
び 4
び@@ 4
ゃ 4
ゅ 4
ゲ 4
サ 4
シ 4
ダ 4
ノ 4
フ 4
ㄴ@@ 4
ㄷ@@ 4
ㅃ 4
ㅣ 4
丈 4
両@@ 4
丹 4
为 4
乱 4
乾 4
些@@ 4
享@@ 4
亲@@ 4
仍@@ 4
仏@@ 4
仮@@ 4
伎 4
伴@@ 4
伸 4
佐 4
佑@@ 4
佩@@ 4
例@@ 4
依@@ 4
俞@@ 4
俣@@ 4
倉@@ 4
倒@@ 4
候@@ 4
偉 4
偵@@ 4
僧@@ 4
儒 4
儼 4
充 4
克 4
党@@ 4
入 4
円 4
冠 4
冬 4
冲@@ 4
冷@@ 4
凱@@ 4
刊@@ 4
列 4
到 4
动 4
努@@ 4
勁@@ 4
勒 4
務 4
勢 4
勤 4
匡@@ 4
升 4
午@@ 4
协@@ 4
卜@@ 4
卢@@ 4
卷@@ 4
厦 4
反 4
句 4
句@@ 4
吒@@ 4
含@@ 4
启@@ 4
哥@@ 4
問@@ 4
嘉 4
因@@ 4
団 4
図 4
圍@@ 4
土 4
圣@@ 4
场@@ 4
址 4
均 4
坊@@ 4
坝 4
坝@@ 4
坡 4
型 4
型@@ 4
域 4
埠 4
執@@ 4
堤@@ 4
堯@@ 4
塘 4
塞 4
塵 4
売@@ 4
处 4
奕@@ 4
奴 4
妮 4
妹@@ 4
姉@@ 4
姬@@ 4
娥@@ 4
媛 4
宣 4
容 4
寂@@ 4
寅 4
寅@@ 4
富 4
寨@@ 4
寬 4
对@@ 4
导@@ 4
尉@@ 4
小 4
尖@@ 4
尸 4
尺 4
屈@@ 4
届@@ 4
屎@@ 4
屯 4
岐 4
岐@@ 4
岔@@ 4
岛 4
岭 4
岭@@ 4
峪@@ 4
峽@@ 4
崇 4
工 4
布 4
幡@@ 4
幣@@ 4
序 4
庾@@ 4
廉 4
廟 4
廠 4
廷 4
廷@@ 4
弟 4
弥 4
張 4
强@@ 4
录@@ 4
徐 4
徒 4
徳 4
徵@@ 4
徽 4
忌@@ 4
忍 4
念 4
怀@@ 4
怡 4
怪@@ 4
总@@ 4
息@@ 4
悟@@ 4
惑@@ 4
慎 4
慢@@ 4
慧 4
懂@@ 4
戴@@ 4
抓@@ 4
报@@ 4
拿@@ 4
捺 4
排@@ 4
推@@ 4
提 4
揭@@ 4
損@@ 4
撤@@ 4
操@@ 4
攻@@ 4
放 4
斎@@ 4
斛 4
斛@@ 4
於@@ 4
旗@@ 4
旨 4
昇 4
昇@@ 4
晃 4
晋 4
晏@@ 4
晩@@ 4
普 4
暉 4
更 4
曼 4
朋@@ 4
朵@@ 4
杏@@ 4
材 4
杵@@ 4
板@@ 4
枝 4
枫@@ 4
柏@@ 4
柔 4
柯@@ 4
核@@ 4
桑@@ 4
桜@@ 4
梅 4
梦@@ 4
楽 4
構 4
槍@@ 4
樊@@ 4
樟@@ 4
権@@ 4
樹@@ 4
欽@@ 4
歡@@ 4
止 4
歩 4
歷@@ 4
歸 4
段 4
殺 4
每@@ 4
气 4
汀@@ 4
汾@@ 4
沈 4
没@@ 4
泡@@ 4
浪@@ 4
浴@@ 4
涇@@ 4
涯 4
淡@@ 4
淫@@ 4
淵@@ 4
淸@@ 4
済@@ 4
渋@@ 4
渙 4
渠@@ 4
渤@@ 4
滄@@ 4
滝@@ 4
滸@@ 4
潮 4
澄 4
濃 4
濮@@ 4
濱@@ 4
炎@@ 4
炒@@ 4
烈 4
热@@ 4
煌 4
熙 4
燕 4
爷@@ 4
犯@@ 4
狐 4
独@@ 4
猿@@ 4
玫 4
环@@ 4
琦 4
瑞 4
瑤 4
瑰 4
瑰@@ 4
瑾 4
璧@@ 4
產@@ 4
申 4
番 4
疏@@ 4
発@@ 4
登 4
盤 4
眠@@ 4
短@@ 4
磨@@ 4
祭@@ 4
祿 4
禄@@ 4
禅@@ 4
禦@@ 4
禺 4
禾@@ 4
种@@ 4
积@@ 4
稚@@ 4
稲@@ 4
究 4
競@@ 4
竹 4
符@@ 4
第 4
策 4
箕@@ 4
簡@@ 4
糸@@ 4
純 4
紳@@ 4
経@@ 4
結 4
給@@ 4
絲@@ 4
綏 4
綱@@ 4
網@@ 4
緑@@ 4
線@@ 4
约 4
纲 4
线@@ 4
绘@@ 4
给@@ 4
继@@ 4
维@@ 4
网@@ 4
罪@@ 4
群 4
翁@@ 4
翼@@ 4
耀 4
耳 4
聽@@ 4
股 4
脈 4
腳@@ 4
臧 4
至 4
舶@@ 4
艦@@ 4
节 4
苑 4
苦@@ 4
茅@@ 4
荀@@ 4
荃@@ 4
莉@@ 4
莎@@ 4
菊@@ 4
萧@@ 4
葫@@ 4
蓮 4
蔵 4
薄@@ 4
薔@@ 4
藝 4
藥@@ 4
號@@ 4
虢 4
衍@@ 4
襄 4
親 4
覺 4
計 4
訓@@ 4
訪@@ 4
詞 4
誕@@ 4
說 4
談@@ 4
讓@@ 4
论 4
调 4
豆 4
豐 4
賀 4
賴@@ 4
贊@@ 4
足 4
跡 4
軒 4
軒@@ 4
転@@ 4
轮@@ 4
辛 4
辛@@ 4
辞@@ 4
辣@@ 4
辯 4
辰 4
農 4
退@@ 4
送 4
选@@ 4
這@@ 4
逢@@ 4
逸 4
逸@@ 4
過 4
過@@ 4
遮@@ 4
遲@@ 4
選 4
遼@@ 4
邇@@ 4
邊 4
邊@@ 4
郁@@ 4
郝@@ 4
郦@@ 4
郷 4
鄂@@ 4
鄉 4
酢 4
醇 4
醬 4
采 4
釋@@ 4
鉄 4
銀 4
鐘 4
鐘@@ 4
鑑@@ 4
钦@@ 4
钱 4
铭 4
长 4
阿 4
陀@@ 4
隴@@ 4
隻@@ 4
隼@@ 4
雒@@ 4
離@@ 4
雯 4
震@@ 4
靈 4
非 4
韓 4
韻 4
響@@ 4
项@@ 4
领@@ 4
风 4
飛 4
駄@@ 4
駒@@ 4
駿@@ 4
骆@@ 4
髪@@ 4
鬥@@ 4
鱼 4
鶴 4
鹰@@ 4
麟 4
黔@@ 4
齋 4
ꙑ 4
ꦺ@@ 4
ꯅ@@ 4
ꯗ@@ 4
ꯧ@@ 4
ꯨ 4
갔@@ 4
같@@ 4
걸@@ 4
공 4
굴 4
균 4
글@@ 4
꽃@@ 4
꾼 4
너@@ 4
네 4
녀@@ 4
누@@ 4
님@@ 4
담 4
두 4
따@@ 4
령 4
룡@@ 4
루@@ 4
류@@ 4
름 4
릉@@ 4
만 4
망@@ 4
반 4
변@@ 4
복 4
블@@ 4
빛 4
빼@@ 4
석 4
설@@ 4
솔@@ 4
쇠@@ 4
안 4
알@@ 4
애@@ 4
야 4
약 4
역@@ 4
온@@ 4
외 4
운 4
울 4
유 4
윤 4
익@@ 4
잎@@ 4
저 4
절 4
절@@ 4
준@@ 4
중 4
즈 4
질@@ 4
짓@@ 4
찬@@ 4
참@@ 4
책 4
책@@ 4
축@@ 4
춘 4
침@@ 4
커@@ 4
탕 4
터 4
테@@ 4
파 4
플@@ 4
필@@ 4
하 4
향 4
후@@ 4
 4
ﷺ 4
ﺍ@@ 4
ﺴ@@ 4
ﻧ@@ 4
％ 4
Ａ@@ 4
Ｋ@@ 4
Ｌ@@ 4
𐌲@@ 4
𐤔@@ 4
𐩣@@ 4
🇳 4
🇸 4
󠁰 4
Angriff 3
Aufgaben 3
Aufstieg 3
Ausbildung 3
Bedeut@@ 3
Begriff 3
Bereich 3
Beruf 3
Dieser 3
Eigent@@ 3
Einige 3
Einzel@@ 3
Elemente 3
Ereig@@ 3
Ersten 3
Eröff@@ 3
Fakultät 3
Fuß@@ 3
Gegner 3
Hekt@@ 3
Ihre 3
Infrastruktur 3
Königreich 3
Landwirtschaft 3
Mio. 3
Mitg@@ 3
Mitglieder 3
Nachbar@@ 3
Niederlan@@ 3
Nummer 3
Punkte 3
Regierung 3
Schweden 3
Schwerpunkt 3
Seit 3
Struktur 3
Stück 3
Tiere 3
Universitäten 3
Veranst@@ 3
Verbreitung 3
Vereine 3
Zusammen 3
alisierung 3
amerika 3
amerikanische 3
arbeitet 3
ativen 3
aufge@@ 3
bauten 3
bekannte 3
berühm@@ 3
bevor@@ 3
bleiben 3
dargestellt 3
degang 3
digung 3
dritte 3
ehemaliger 3
eigene 3
endete 3
enheiten 3
entschei@@ 3
entwick@@ 3
erinn@@ 3
erwar@@ 3
europäischen 3
fertig@@ 3
finden 3
folgten 3
fährt 3
fünf 3
geplant 3
gerade 3
gerung 3
gesamten 3
geschrieben 3
heraus 3
hervor@@ 3
heutigen 3
hinzu 3
hohe 3
hätte 3
ienen 3
ierter 3
igkeiten 3
ikation 3
inischen 3
insbesondere 3
internationalen 3
itionen 3
jungen 3
keinen 3
künf@@ 3
legt 3
liefer@@ 3
lossen 3
lowakei 3
läng@@ 3
lässt 3
mehrere 3
meisterschaft 3
mögen 3
namen 3
natür@@ 3
neben 3
nehmer 3
oftware 3
poln@@ 3
reibt 3
richtungen 3
schnitt@@ 3
sieht 3
sollen 3
sollte 3
sowjet@@ 3
stammen 3
stands@@ 3
starken 3
ständi@@ 3
suchen 3
swahl 3
teidig@@ 3
teile 3
testen 3
tlich 3
tlichen 3
unmittelbar 3
unternehmen 3
verwand@@ 3
vielen 3
volle 3
wachs@@ 3
weisen 3
weiter@@ 3
wettbewer@@ 3
wirtschaftlichen 3
worden 3
ziehen 3
zäh@@ 3
 3
¸ 3
Ã 3
Ägyp@@ 3
Ï 3
Õ 3
Öffent@@ 3
älteste 3
ätze 3
östlichen 3
öße 3
Ă 3
Ă@@ 3
Ę@@ 3
Ĝ@@ 3
ĳ 3
ĺ 3
Ļ@@ 3
Ľ 3
Ń@@ 3
ŗ@@ 3
Ř 3
Ŝ@@ 3
ŧ 3
Ų@@ 3
Ǝ 3
ƛ@@ 3
Ơ@@ 3
ǁ 3
ǌ@@ 3
ǜ 3
ǜ@@ 3
ǯ@@ 3
Ƿ@@ 3
ǽ@@ 3
ȁ@@ 3
ȉ@@ 3
ȝ 3
ȧ 3
ɒ 3
ɖ 3
ɖ@@ 3
ɗ 3
ɢ@@ 3
ɥ@@ 3
ɦ 3
ɩ 3
ɫ 3
ɯ 3
ɴ 3
ʈ 3
ʸ@@ 3
˗ 3
̋ 3
̕ 3
̝ 3
̰ 3
͂ 3
͍ 3
ͤ 3
Ͷ 3
Ί@@ 3
ϝ@@ 3
Ђ 3
Ї 3
Њ@@ 3
Ў 3
Ы 3
ђ 3
ќ@@ 3
ѧ@@ 3
ѹ 3
ѹ@@ 3
ҍ@@ 3
Ғ@@ 3
ҡ@@ 3
һ@@ 3
Ӟ 3
ӟ 3
Ӡ 3
ӡ 3
ӣ 3
ӧ 3
Ө 3
՛ 3
ծ@@ 3
ձ@@ 3
ջ 3
օ 3
֑ 3
֣ 3
ֱ@@ 3
ֻ@@ 3
ׂ@@ 3
ך@@ 3
׳ 3
ئ 3
ٍ 3
٤ 3
٥ 3
ٸ@@ 3
چ 3
ڵ@@ 3
ܢ 3
ܣ@@ 3
ܫ@@ 3
ܬ 3
ܿ@@ 3
ށ@@ 3
ޅ@@ 3
ީ 3
ޭ@@ 3
ޯ@@ 3
ंड 3
ंस 3
अक 3
अन@@ 3
आर 3
इन 3
उत 3
उपा@@ 3
ऊ@@ 3
ओ@@ 3
कट 3
कला 3
केन 3
कौ@@ 3
खर 3
खा 3
गढ 3
गा 3
गी 3
गे@@ 3
घर 3
घा@@ 3
घु@@ 3
घो@@ 3
चक 3
चय 3
चित 3
ची@@ 3
छा@@ 3
जे@@ 3
झ 3
ञान 3
टी@@ 3
डा 3
डि@@ 3
डी 3
णि@@ 3
तब 3
तिक 3
तुर 3
थि@@ 3
दास 3
दि 3
दिन 3
दू@@ 3
दे 3
देख@@ 3
धा 3
धार@@ 3
धी 3
पट@@ 3
पड 3
पत 3
पन 3
परि@@ 3
पल 3
पात 3
पार 3
पि 3
पै@@ 3
बु@@ 3
बुद 3
बे 3
भग@@ 3
भाषा 3
मंदिर 3
मक 3
महि@@ 3
यक 3
यान 3
यार 3
यालय 3
यास 3
युक 3
यू 3
यो@@ 3
रक 3
रचना 3
रणा@@ 3
रसा@@ 3
रह 3
रात 3
रास 3
रिय 3
रीय 3
रेष 3
ऱ 3
लग@@ 3
लाई 3
लोक 3
वन 3
वन@@ 3
वह 3
वि 3
वित 3
वै@@ 3
वो 3
शर 3
शा 3
शी@@ 3
षण 3
सक@@ 3
समान 3
सागर 3
सामने 3
साहित 3
सूत 3
सौ@@ 3
हत 3
हम@@ 3
हित 3
हैं 3
ारे 3
िक 3
िया@@ 3
िल 3
ीन 3
ॆ@@ 3
ॊ 3
ॊ@@ 3
ॐ 3
२@@ 3
५ 3
ং 3
এ 3
ঠ 3
ঠ@@ 3
ঢ 3
ফ 3
১@@ 3
ਏ 3
ਗ 3
ਛ@@ 3
ਟ@@ 3
ਠ@@ 3
ਣ 3
ਪ 3
ਿ 3
ੂ 3
અ@@ 3
ઘ@@ 3
ટ 3
ણ 3
ત 3
પ 3
બ@@ 3
ભ@@ 3
ળ 3
ળ@@ 3
ଜ@@ 3
ଡ 3
ଣ 3
ଧ@@ 3
ଳ 3
଼ 3
ି 3
ୋ@@ 3
ୱ@@ 3
இ 3
ஊ@@ 3
ஏ@@ 3
ஐ@@ 3
ஞ@@ 3
வ 3
ஷ 3
ఉ@@ 3
ధ@@ 3
శ@@ 3
ష 3
ే 3
ಇ@@ 3
ಎ@@ 3
ಥ@@ 3
ಷ 3
ೋ 3
ഈ 3
ഏ@@ 3
ഓ@@ 3
ഹ 3
ൗ@@ 3
ං 3
ආ@@ 3
ඉ@@ 3
ඛ 3
ණ@@ 3
ළ@@ 3
ฃ 3
ฐ@@ 3
ฟ 3
ศ 3
ฮ 3
๋ 3
ຄ@@ 3
ດ 3
ວ 3
ສ@@ 3
ອ@@ 3
າ 3
ິ@@ 3
ົ@@ 3
ཁ 3
ཏ@@ 3
ཤ@@ 3
ཨ 3
ྡ@@ 3
ྫ@@ 3
ྷ 3
ည@@ 3
ဟ@@ 3
ါ 3
ံ 3
ლ 3
ფ@@ 3
ღ@@ 3
ც@@ 3
ሀ@@ 3
ሕ@@ 3
ሙ 3
ም 3
ራ@@ 3
በ@@ 3
ቴ@@ 3
ት@@ 3
ነ@@ 3
ኛ 3
ኡ 3
ወ@@ 3
ዎ@@ 3
ዓ@@ 3
ያ@@ 3
ይ@@ 3
ደ@@ 3
ዳ@@ 3
ጋ@@ 3
Ꭰ@@ 3
Ꭹ@@ 3
Ꮃ@@ 3
ᐟ 3
ᐢ@@ 3
ᐣ 3
ᑐ@@ 3
ᑦ@@ 3
ᒪ@@ 3
ᕈ@@ 3
ᚱ@@ 3
ᜀ@@ 3
ᜃ@@ 3
ᜊ@@ 3
ខ 3
គ@@ 3
ច@@ 3
ដ@@ 3
ទ 3
ព@@ 3
ី@@ 3
េ@@ 3
ᠣ@@ 3
ᠵ@@ 3
ᤚ@@ 3
Ḍ 3
ḕ 3
ḣ@@ 3
Ḥ 3
ḱ 3
ṗ@@ 3
ṙ@@ 3
ṫ 3
ẏ@@ 3
ẑ 3
ẞ 3
Ẩ@@ 3
Ẹ 3
Ị@@ 3
ỗ@@ 3
ἥ@@ 3
Ἡ 3
Ὁ 3
ὖ 3
ὖ@@ 3
ὠ@@ 3
Ὦ@@ 3
ᾧ 3
ᾳ 3
ῡ@@ 3
ῳ 3
ῳ@@ 3
ₘ 3
℞ 3
℣ 3
ℬ 3
ℰ 3
∝ 3
≒ 3
⊤ 3
⋯ 3
⍵ 3
◄ 3
♮ 3
⚬ 3
➢ 3
ⴰ 3
ⴱ@@ 3
ⴳ 3
ⴼ@@ 3
ⵃ@@ 3
ⵢ@@ 3
〇 3
あ 3
ぉ 3
ご 3
さ 3
っ 3
ど 3
ぬ 3
ね 3
ば 3
ぼ@@ 3
ゑ 3
ァ 3
ゥ@@ 3
エ 3
テ 3
ヌ 3
ビ 3
プ 3
レ 3
ㄌ@@ 3
ㄞ@@ 3
ㄢ@@ 3
ㄧ@@ 3
ㄲ 3
ㅏ 3
ㅗ 3
㋿ 3
七 3
业 3
丛@@ 3
丝@@ 3
丞@@ 3
么@@ 3
乍@@ 3
习 3
予@@ 3
争@@ 3
亚 3
些 3
交 3
亨@@ 3
亲 3
亶 3
仇@@ 3
介@@ 3
仔@@ 3
仪 3
企@@ 3
伊 3
休@@ 3
众@@ 3
伟 3
似@@ 3
体 3
余 3
例 3
侍 3
供@@ 3
侦@@ 3
侨@@ 3
俳@@ 3
們 3
倫 3
倶@@ 3
偉@@ 3
停@@ 3
備@@ 3
傲@@ 3
僧 3
儂@@ 3
億@@ 3
儒@@ 3
兄@@ 3
免@@ 3
兴 3
养@@ 3
兼 3
兼@@ 3
内 3
円@@ 3
再 3
冥 3
冰 3
冶@@ 3
冷 3
凉@@ 3
凌 3
减@@ 3
凡 3
凯@@ 3
出 3
刃@@ 3
初 3
別 3
券 3
則 3
剣 3
剧 3
劃 3
努 3
労@@ 3
勁 3
勒@@ 3
勘@@ 3
勳@@ 3
勾@@ 3
匈@@ 3
匹@@ 3
单 3
占 3
卫 3
危@@ 3
厂@@ 3
叉@@ 3
取@@ 3
变@@ 3
召 3
叱@@ 3
含 3
听@@ 3
吸@@ 3
呉@@ 3
告 3
味 3
咲 3
哈 3
哪@@ 3
唐 3
唵 3
喬 3
嘎@@ 3
図@@ 3
圭 3
坑@@ 3
垃@@ 3
埔 3
埔@@ 3
埠@@ 3
堆 3
堡 3
堡@@ 3
堯 3
境@@ 3
墓@@ 3
増@@ 3
墩@@ 3
墳 3
壁@@ 3
売 3
壹 3
备@@ 3
外 3
夭@@ 3
奎@@ 3
奚 3
奚@@ 3
奧@@ 3
她 3
妙 3
始 3
姫@@ 3
娥 3
婆 3
婉@@ 3
婦 3
婷 3
婺@@ 3
媽@@ 3
孚 3
孚@@ 3
孩 3
宁 3
宅 3
宇 3
宛@@ 3
宰@@ 3
宾@@ 3
宿 3
寇 3
寇@@ 3
寛@@ 3
察 3
寻@@ 3
尚 3
层@@ 3
屏@@ 3
属 3
層 3
岗@@ 3
峡 3
峯@@ 3
嵐 3
嶋@@ 3
嶺@@ 3
左 3
巻@@ 3
帖 3
幣 3
幫@@ 3
幹 3
床 3
库 3
庚@@ 3
庵 3
庸 3
廚 3
开 3
弁 3
弋@@ 3
弦 3
强 3
彈@@ 3
彩 3
彪 3
彰@@ 3
役@@ 3
復 3
循@@ 3
怒@@ 3
怡@@ 3
急@@ 3
怨 3
怨@@ 3
恢@@ 3
恨 3
恪 3
悠@@ 3
悪@@ 3
悬@@ 3
悼@@ 3
惟@@ 3
惣@@ 3
愁 3
意 3
愚 3
感 3
愿@@ 3
慎@@ 3
戊 3
戌 3
戍 3
戒@@ 3
戲@@ 3
戴 3
扎@@ 3
打 3
承 3
抜@@ 3
押@@ 3
拏@@ 3
拖 3
拾@@ 3
持 3
按@@ 3
挑 3
挺 3
捺@@ 3
掃@@ 3
接@@ 3
控@@ 3
揮@@ 3
摩 3
改 3
攻 3
效@@ 3
敎 3
敗@@ 3
敬 3
敷 3
數 3
斷@@ 3
於 3
无 3
昂 3
昂@@ 3
昊 3
晚@@ 3
晢 3
晦 3
晨@@ 3
暁@@ 3
暗@@ 3
暮@@ 3
曆 3
曜@@ 3
服@@ 3
朗@@ 3
札 3
杉 3
束 3
杯@@ 3
极@@ 3
柿@@ 3
树 3
栖@@ 3
栗@@ 3
桌@@ 3
桓 3
棊@@ 3
棋@@ 3
椒@@ 3
楨 3
概@@ 3
榕 3
構@@ 3
槍 3
横 3
橘@@ 3
橛 3
欢 3
欢@@ 3
歐@@ 3
歲@@ 3
殊@@ 3
殷@@ 3
毒 3
毒@@ 3
毕@@ 3
気 3
求 3
汭 3
汽@@ 3
沒@@ 3
沖 3
油@@ 3
沼@@ 3
沿@@ 3
泗@@ 3
泥 3
泽@@ 3
洛 3
洩 3
浅@@ 3
涉@@ 3
涯@@ 3
涿@@ 3
淵 3
測 3
渭@@ 3
渾@@ 3
湛@@ 3
満@@ 3
溝@@ 3
滋@@ 3
满@@ 3
漁@@ 3
漳@@ 3
潁@@ 3
激@@ 3
濟 3
瀋@@ 3
灵 3
炎 3
炭@@ 3
点@@ 3
焼 3
燒@@ 3
營 3
爆 3
爐 3
牌 3
特 3
狀@@ 3
狄 3
狗@@ 3
猫 3
猶@@ 3
獄 3
獅@@ 3
獣 3
玛 3
玛@@ 3
玻@@ 3
班 3
現 3
球 3
琳@@ 3
瑜 3
瑟 3
環@@ 3
璽 3
瓊@@ 3
瓜 3
産@@ 3
異 3
病 3
病@@ 3
痛 3
皋 3
皮 3
盈 3
益 3
监@@ 3
盒@@ 3
盟@@ 3
盡@@ 3
眉 3
瞳 3
矿 3
碑 3
碟@@ 3
磁@@ 3
磯@@ 3
祁@@ 3
祇 3
祝@@ 3
祺 3
禍@@ 3
禹@@ 3
禺@@ 3
稜 3
穀@@ 3
穿@@ 3
窟 3
窩@@ 3
竖@@ 3
站@@ 3
笔@@ 3
笠@@ 3
符 3
築@@ 3
篤@@ 3
簡 3
簿 3
米 3
粉@@ 3
糖 3
紇@@ 3
紗@@ 3
細@@ 3
経 3
結@@ 3
絶@@ 3
綠@@ 3
綢@@ 3
維 3
緒@@ 3
緬@@ 3
縄@@ 3
繆@@ 3
繹@@ 3
约@@ 3
纯@@ 3
纳@@ 3
织@@ 3
经 3
络@@ 3
绵@@ 3
缪@@ 3
缶@@ 3
罚 3
罪 3
署 3
羌 3
羞@@ 3
翁 3
翊@@ 3
翟@@ 3
翠@@ 3
耕@@ 3
聚@@ 3
肅 3
肅@@ 3
肇 3
肉 3
肖@@ 3
胤 3
胤@@ 3
腐 3
腐@@ 3
與 3
舉 3
舒 3
舟 3
航 3
般 3
节@@ 3
芒@@ 3
芝 3
芦 3
茄@@ 3
荼@@ 3
莞@@ 3
莫 3
莱@@ 3
莲@@ 3
菲@@ 3
营 3
营@@ 3
萨@@ 3
蒙 3
蒼@@ 3
蓋@@ 3
蔚@@ 3
薇@@ 3
薛 3
藏 3
虔@@ 3
處@@ 3
虞@@ 3
虫 3
蛾 3
蛾@@ 3
蜂 3
蜂@@ 3
蝶@@ 3
融@@ 3
螺@@ 3
血 3
衆@@ 3
袋@@ 3
袖@@ 3
裁@@ 3
裂 3
補 3
裡@@ 3
覆 3
规@@ 3
觉@@ 3
討@@ 3
設@@ 3
詔 3
評@@ 3
詞@@ 3
詳 3
詹@@ 3
誌@@ 3
誘@@ 3
誥 3
説@@ 3
読@@ 3
誰@@ 3
調 3
譯@@ 3
護 3
证@@ 3
词@@ 3
试@@ 3
诚 3
调@@ 3
谢@@ 3
豉@@ 3
豚@@ 3
豹@@ 3
貢@@ 3
費@@ 3
賞@@ 3
賦 3
質 3
賭@@ 3
责@@ 3
贺@@ 3
赓 3
赤 3
距@@ 3
跡@@ 3
踐@@ 3
載 3
輔 3
輕@@ 3
辉 3
输@@ 3
辰@@ 3
边@@ 3
迪 3
迪@@ 3
追@@ 3
逍@@ 3
遗@@ 3
邁 3
邑@@ 3
那 3
邱@@ 3
邹@@ 3
邽 3
郗@@ 3
郵@@ 3
酥 3
酱 3
醒 3
醫@@ 3
采@@ 3
鈞 3
鉢@@ 3
銃 3
銘 3
鋒 3
錄@@ 3
錫 3
録@@ 3
鍾 3
鎌 3
鎭@@ 3
鏡 3
鐸 3
鑫@@ 3
钟 3
钢@@ 3
锋 3
锋@@ 3
閔@@ 3
问 3
阁@@ 3
陀 3
陂 3
陆@@ 3
除@@ 3
陸 3
隅@@ 3
階 3
隠@@ 3
隷@@ 3
雀 3
雀@@ 3
雋 3
雑@@ 3
電 3
霞 3
霧@@ 3
露 3
韦@@ 3
韶@@ 3
韻@@ 3
項@@ 3
頓@@ 3
頼 3
顏 3
顛@@ 3
類 3
顧@@ 3
顾@@ 3
颁@@ 3
额@@ 3
飾@@ 3
饒@@ 3
饭 3
饼 3
馆@@ 3
騨@@ 3
騰 3
驛 3
骨 3
體 3
魚 3
鮑@@ 3
鯰 3
鳳 3
鴛@@ 3
鴦@@ 3
鸡 3
鸣 3
麒@@ 3
麦@@ 3
黃 3
默 3
默@@ 3
黨@@ 3
鼎@@ 3
鼠@@ 3
齡 3
龐@@ 3
ꦔ@@ 3
ꯂ@@ 3
ꯃ 3
ꯜ 3
ꯟ 3
ꯩ@@ 3
간 3
갈@@ 3
강 3
곡 3
골 3
군@@ 3
규 3
급 3
까@@ 3
깨@@ 3
께 3
께@@ 3
꽃 3
꾸@@ 3
끼@@ 3
낙@@ 3
난@@ 3
날 3
냥 3
녁@@ 3
녕@@ 3
늘@@ 3
닭@@ 3
덕 3
던 3
된 3
똥@@ 3
련@@ 3
록@@ 3
론 3
름@@ 3
린@@ 3
막@@ 3
많@@ 3
명 3
모 3
목 3
물 3
밀@@ 3
배 3
벌 3
범@@ 3
빈@@ 3
빛@@ 3
뽀@@ 3
살 3
새 3
센@@ 3
속 3
손@@ 3
숙 3
슬@@ 3
실@@ 3
쓰@@ 3
않@@ 3
애 3
얼@@ 3
엄@@ 3
여 3
열 3
옥 3
온 3
왜 3
왜@@ 3
욕@@ 3
욱 3
임 3
입 3
잎 3
잔@@ 3
적 3
점 3
졌@@ 3
존@@ 3
줄@@ 3
직 3
집@@ 3
짜@@ 3
찬 3
참 3
체 3
쳐@@ 3
초 3
촌 3
침 3
클@@ 3
탑@@ 3
택 3
투@@ 3
틀 3
티@@ 3
패 3
편@@ 3
평 3
표@@ 3
품 3
필 3
행 3
혁 3
혼 3
홀@@ 3
환 3
환@@ 3
활@@ 3
훔@@ 3
 3
ﺎ@@ 3
ﻔ@@ 3
ﻠ@@ 3
ﻭ 3
０@@ 3
５@@ 3
Ｉ@@ 3
Ｏ@@ 3
Ｕ@@ 3
𐌡 3
𐌰@@ 3
𐎼@@ 3
𐤌@@ 3
𐤍 3
𐨥@@ 3
𐨿 3
𐩢@@ 3
𐰃@@ 3
𐰍@@ 3
𐰑@@ 3
𐱅@@ 3
𑀼@@ 3
𑂩@@ 3
𑄳 3
𑄴 3
𝖌 3
𝛃 3
𝛿 3
🇦 3
🇮 3
🇲 3
🇵 3
🇹 3
🎼 3
👱 3
🔥 3
󠁡 3
󠁫 3
󠁭 3
0er 2
Arten 2
Aufgabe 2
Besuch 2
Betrieb 2
Bevölkerung 2
Bevölkerungs@@ 2
Darstellung 2
Einfluss 2
Erfolg 2
Ergebnisse 2
Erschein@@ 2
Frankreich 2
Führung 2
Gattung 2
Gebiete 2
Geschäfts@@ 2
Grundlage 2
Hersteller 2
Hintergrund 2
Komponist 2
Konzept 2
Krieges 2
Küste 2
Leistungen 2
Mannschaft 2
Mannschaften 2
Nachfolger 2
Ortschaft 2
Personen 2
Produktions@@ 2
Produz@@ 2
Präsidenten 2
Richtung 2
Rückkehr 2
Saison@@ 2
Schauspieler 2
Schiffe 2
Schriftsteller 2
Seiten 2
Sowjetunion 2
Spanien 2
Straßen 2
Teile 2
Teilnehmer 2
Vereinigten 2
Vergleich 2
Verhältnis 2
Verwal@@ 2
Veröffentlich@@ 2
Vorsitz@@ 2
Wirkung 2
Wochen 2
Zugang 2
Zusammenh@@ 2
anwalt 2
baute 2
begonnen 2
behör@@ 2
bekannt 2
besondere 2
besonders 2
besteh@@ 2
besten 2
bestimmt 2
besuch@@ 2
bilden 2
breite 2
bzw@@ 2
damals 2
darauf 2
dazu 2
deckt 2
ehmen 2
eigentlich 2
entdeckt 2
entierte 2
entlang 2
erbaut 2
erfül@@ 2
erstes 2
erweise 2
fahren 2
falen 2
fließ@@ 2
forder@@ 2
funktion@@ 2
fünf@@ 2
gaben 2
galt 2
ganze 2
gebild@@ 2
geborene 2
gegeben 2
gegenüber 2
gehö@@ 2
gehör@@ 2
gehörige 2
gekommen 2
gelegt 2
genommen 2
gesamte 2
gestellt 2
geteilt 2
gewinnen 2
geworden 2
gezogen 2
gliche 2
griech@@ 2
großer 2
großes 2
größ@@ 2
hebung 2
heirat@@ 2
herausge@@ 2
hielt 2
hinaus 2
hoben 2
hält 2
höch@@ 2
ierungen 2
ihres 2
indem 2
japanischen 2
jähri@@ 2
kanischen 2
kaum 2
keiten 2
kennen 2
kulturel@@ 2
können 2
küste 2
lebt 2
leich 2
leitet 2
lichkeiten 2
liegenden 2
lowak@@ 2
läuf@@ 2
nahmen 2
nennt 2
politisch 2
politischen 2
produz@@ 2
reduz@@ 2
reichen 2
richtung 2
russischen 2
schaffen 2
scheit@@ 2
schwer 2
selben 2
setzungen 2
sichts@@ 2
sogenannten 2
sondern 2
sowohl 2
sprechen 2
stattung 2
stellungen 2
stellvertreten@@ 2
stets 2
ständen 2
ständig 2
ständige 2
stär@@ 2
stärk@@ 2
sätzen 2
tieren 2
tigte 2
tigten 2
tritt 2
tschech@@ 2
unterrich@@ 2
usst 2
verbin@@ 2
vierten 2
viron@@ 2
weite 2
welches 2
wichtigsten 2
windigkeit 2
wirken 2
wollte 2
während 2
würden 2
zeichnung 2
zeichnungen 2
zeigen 2
zuletzt 2
zusammen 2
zusammen@@ 2
zwar 2
zwölf 2
 2
ª@@ 2
Ð 2
Ò 2
ächst 2
äft 2
ältesten 2
ändert 2
änderungen 2
ätzen 2
äuß@@ 2
äß 2
ühm@@ 2
Ą 2
Ĕ@@ 2
Ė 2
Ġ 2
Į 2
Į@@ 2
ĳ@@ 2
ĵ 2
Ķ 2
Ŏ 2
Ţ 2
ſ 2
Ɓ@@ 2
Ɔ@@ 2
Ɛ 2
Ɣ 2
ƙ 2
ƛ 2
ƞ@@ 2
Ʀ 2
Ƨ 2
ƨ 2
ƭ@@ 2
ƴ 2
ƶ@@ 2
Ǎ@@ 2
ǖ@@ 2
Ǧ@@ 2
ǭ 2
ǯ 2
ǵ 2
Ǻ 2
Ǻ@@ 2
ǿ@@ 2
ȅ@@ 2
Ȝ@@ 2
ȷ 2
Ȼ@@ 2
Ʉ@@ 2
Ɉ 2
ɐ 2
ɕ 2
ɘ@@ 2
ɚ@@ 2
ɳ@@ 2
ɴ@@ 2
ɵ 2
ɻ 2
ʀ@@ 2
ʂ 2
ʎ@@ 2
ʐ 2
ʑ@@ 2
ʝ@@ 2
ʤ 2
ʤ@@ 2
ʧ@@ 2
ʱ@@ 2
ˉ 2
ˉ@@ 2
ˊ 2
ˊ@@ 2
˔ 2
˝ 2
˨ 2
˹ 2
˺ 2
̛ 2
̞ 2
̮ 2
̺ 2
͘ 2
ͦ 2
͵ 2
Ό 2
Ϊ@@ 2
Ϝ 2
ϝ 2
ϫ@@ 2
ϸ@@ 2
Ѓ@@ 2
Є 2
Ј 2
Ћ@@ 2
Ў@@ 2
Џ@@ 2
Щ 2
Ь 2
љ 2
ѣ 2
ѳ@@ 2
Ґ 2
Җ 2
җ 2
ҥ 2
ҧ@@ 2
ҭ@@ 2
Ҳ@@ 2
Ҷ@@ 2
ҷ@@ 2
ҹ@@ 2
һ 2
ӑ@@ 2
Ә 2
ӣ@@ 2
Ӥ 2
ӥ 2
Ӧ 2
Ӭ 2
ӭ 2
Ӯ 2
ӯ 2
Ԑ 2
Ԯ 2
ԯ 2
Ձ@@ 2
Ղ@@ 2
Ս 2
Ւ 2
Փ@@ 2
Ք@@ 2
Օ@@ 2
գ 2
խ 2
ծ 2
շ 2
պ 2
֖ 2
֥ 2
ֵ 2
נ 2
װ 2
؛ 2
؞ 2
ٌ@@ 2
ٖ@@ 2
ٚ@@ 2
٠ 2
٠@@ 2
١ 2
١@@ 2
٢@@ 2
٦ 2
٧ 2
٩ 2
٩@@ 2
ٺ@@ 2
ٻ@@ 2
ټ 2
ٿ@@ 2
ڀ@@ 2
ڑ 2
ړ@@ 2
ڙ@@ 2
ڤ 2
ڪ 2
ڻ 2
۽ 2
ܓ@@ 2
ܛ@@ 2
ܝ 2
ܟ@@ 2
ܼ@@ 2
݂ 2
ޔ 2
ޔ@@ 2
ަ 2
ޫ@@ 2
ެ 2
ߌ@@ 2
ߘ@@ 2
ࠓ@@ 2
ࠟ@@ 2
ࡀ 2
ࡀ@@ 2
ࡉ@@ 2
ंक 2
ंद@@ 2
ंने 2
ः@@ 2
अ 2
अग 2
अर 2
अर@@ 2
आ 2
आग@@ 2
आत 2
आप@@ 2
इ 2
उड 2
उद 2
उन 2
उस 2
ऊ 2
ऋ@@ 2
एक@@ 2
ऐ 2
ऐ@@ 2
औ@@ 2
कड 2
कार 2
काल 2
की@@ 2
कुमार 2
कुल 2
कू@@ 2
खु@@ 2
खे@@ 2
गत 2
गया 2
गाँव 2
गोल 2
ची 2
चू@@ 2
चे@@ 2
चो@@ 2
छोड 2
जाति 2
जाना 2
जे 2
जो 2
जो@@ 2
टार 2
टि@@ 2
टी 2
टेशन 2
टो 2
टो@@ 2
ठा@@ 2
ठी 2
डिय@@ 2
तै@@ 2
थी 2
थे 2
दक 2
दन 2
दर@@ 2
दान 2
दू 2
धान 2
धी@@ 2
नगर 2
नहीं 2
नाग@@ 2
नाम 2
नि 2
निक@@ 2
निर 2
नी@@ 2
नो 2
पं@@ 2
पस 2
पा 2
पू@@ 2
फा@@ 2
फिर 2
फे@@ 2
बन@@ 2
बस 2
बा 2
बू@@ 2
भर 2
भारतीय 2
भूमि 2
भे@@ 2
मंड@@ 2
मण 2
मध 2
मनो@@ 2
मस 2
मात 2
मान@@ 2
मुक 2
मुख 2
मू@@ 2
मैं 2
मौ@@ 2
यत 2
यद 2
यर 2
यु 2
योग@@ 2
रं@@ 2
रंग@@ 2
रख@@ 2
रच@@ 2
रदेश 2
रन 2
रव 2
रवा@@ 2
रस@@ 2
राजा 2
रान 2
राष 2
रिय@@ 2
रिया@@ 2
रेन 2
रेलवे 2
रोध 2
लं@@ 2
लन 2
लो 2
लों 2
वविद 2
वाल 2
विकास 2
विन 2
षद 2
षा@@ 2
षि@@ 2
षी 2
संख 2
सक 2
सम@@ 2
समर 2
समुद 2
सह@@ 2
सहित 2
सा 2
सिं@@ 2
सिक 2
सूर 2
हन 2
हार 2
हिंदी 2
िया 2
ीय 2
ौ 2
॔ 2
१ 2
२ 2
३ 2
४ 2
८ 2
ঘ 2
ছ 2
ঝ 2
ঞ@@ 2
ৢ 2
৳ 2
ਇ@@ 2
ਈ@@ 2
ਓ@@ 2
ਚ 2
ਜ 2
ਡ 2
ਦ 2
ਫ 2
ਵ 2
ੜ 2
ੲ@@ 2
આ 2
ઈ 2
ઓ@@ 2
ગ 2
ઝ 2
ઝ@@ 2
ટ@@ 2
ડ 2
થ@@ 2
ય 2
હ 2
હ@@ 2
િ 2
ૂ@@ 2
ଂ@@ 2
ଇ@@ 2
ଏ@@ 2
ଞ 2
ଡ@@ 2
ଥ 2
ମ 2
ଷ 2
ସ 2
ହ 2
ୌ@@ 2
ୟ 2
ୟ@@ 2
୨@@ 2
எ 2
ஏ 2
ஓ@@ 2
ஶ 2
ஷ@@ 2
ீ 2
ఆ@@ 2
ఇ@@ 2
ఏ@@ 2
ఒ@@ 2
ఛ@@ 2
ణ@@ 2
ద 2
ళ@@ 2
వ 2
ష@@ 2
ె 2
ౌ 2
ಂ 2
ಅ 2
ಉ 2
ಐ@@ 2
ಙ 2
ಫ@@ 2
ಬ 2
ഉ@@ 2
ഖ@@ 2
ഛ@@ 2
ധ 2
ഴ 2
ൻ@@ 2
ൽ@@ 2
ൾ@@ 2
උ@@ 2
ථ@@ 2
ධ 2
ධ@@ 2
භ@@ 2
ළ 2
ฉ 2
ถ 2
ฝ 2
ฝ@@ 2
ฬ@@ 2
ๆ 2
๐ 2
๐@@ 2
๒@@ 2
๕@@ 2
ຈ@@ 2
ດ@@ 2
ຕ@@ 2
ພ@@ 2
ຳ 2
ີ 2
ຼ@@ 2
ຽ@@ 2
ໃ@@ 2
ໍ 2
ໝ@@ 2
༽ 2
ཅ 2
ཇ@@ 2
ཉ@@ 2
ཛ 2
ཛ@@ 2
ཟ@@ 2
ཡ 2
ཧ@@ 2
ཨ@@ 2
ཱ@@ 2
ཾ 2
ྃ 2
ྣ@@ 2
ྤ@@ 2
ྦ@@ 2
ྭ 2
ྱ 2
ဋ@@ 2
ဏ 2
ယ@@ 2
ရ 2
၊ 2
Ⴀ@@ 2
Ⴐ@@ 2
მ 2
ნ 2
შ 2
ჭ@@ 2
ሃ@@ 2
ለ 2
ሎ 2
ሎ@@ 2
ሐ@@ 2
ሓ@@ 2
ማ@@ 2
ሜ@@ 2
ሞ@@ 2
ሪ 2
ሮ@@ 2
ሲ@@ 2
ሳ@@ 2
ቀ@@ 2
ቅ@@ 2
ባ@@ 2
ቤ@@ 2
ቸ@@ 2
ዋ@@ 2
ዕ@@ 2
ዞ@@ 2
ይ 2
ዱ@@ 2
ጉ@@ 2
ግ 2
ጵ@@ 2
ፈ@@ 2
ፍ@@ 2
፡ 2
Ꭶ@@ 2
Ꮇ@@ 2
Ꮒ@@ 2
Ꮜ 2
Ꮳ@@ 2
Ᏹ 2
ᐢ 2
ᐣ@@ 2
ᐨ 2
ᐱ@@ 2
ᐹ@@ 2
ᑊ 2
ᑎ 2
ᑦ 2
ᑫ@@ 2
ᑾ@@ 2
ᒃ@@ 2
ᒥ@@ 2
ᒻ 2
ᓇ@@ 2
ᓐ 2
ᓐ@@ 2
ᓗ@@ 2
ᔪ@@ 2
ᕐ@@ 2
ᖃ@@ 2
ᖓ@@ 2
ᙵ@@ 2
ᚪ@@ 2
ᛋ 2
ᛏ@@ 2
ᜄ@@ 2
ᜆ@@ 2
ᜎ@@ 2
ᜐ@@ 2
ᜓ 2
ᜓ@@ 2
᜵ 2
ណ 2
ណ@@ 2
ត@@ 2
ភ 2
ម 2
ី 2
ែ@@ 2
ំ 2
ះ 2
ᠢ@@ 2
ᠨ 2
ᠭ@@ 2
ᠷ@@ 2
ᣞ 2
ᤂ@@ 2
ᤐ@@ 2
ᤥ@@ 2
ᤦ@@ 2
ᥒ@@ 2
ᥣ@@ 2
ᥫ@@ 2
ḃ 2
ḋ 2
Ḏ@@ 2
ḑ@@ 2
ḟ 2
Ḳ 2
Ḷ 2
ḻ 2
Ṅ@@ 2
Ṇ 2
ṙ 2
ṡ 2
ṿ@@ 2
ẖ 2
ẟ@@ 2
ẳ@@ 2
Ẽ@@ 2
Ế@@ 2
Ἅ@@ 2
ἷ@@ 2
ὃ@@ 2
Ὁ@@ 2
ὐ 2
ὲ 2
ᾰ 2
ῐ@@ 2
ῤ@@ 2
ῷ 2
‴ 2
⁰ 2
₄ 2
ℂ@@ 2
ℯ 2
⅗ 2
Ⅹ 2
Ⅹ@@ 2
ↀ 2
↊ 2
↋ 2
≼ 2
⊖ 2
⊙ 2
⊦ 2
⌈ 2
⌊ 2
⌋ 2
⌜ 2
⌝ 2
⌽ 2
⍝ 2
⍳ 2
⍴ 2
⏑ 2
⓪ 2
▶ 2
▽ 2
◁ 2
◇ 2
☊ 2
☮ 2
☿ 2
♁ 2
⚗ 2
✡ 2
✱ 2
✶ 2
❧ 2
⠢ 2
ⲉ 2
ⲓ 2
ⲕ@@ 2
ⲛ@@ 2
ⲡ@@ 2
ⲣ@@ 2
ⲱ@@ 2
ⵊ@@ 2
ⵍ 2
ⵕ@@ 2
ⵖ@@ 2
ⵙ@@ 2
ⵡ@@ 2
⸸ 2
〔 2
〕 2
ぁ@@ 2
ぐ 2
げ 2
せ 2
そ 2
ぢ@@ 2
つ 2
づ@@ 2
ぱ@@ 2
ふ@@ 2
ぶ 2
べ@@ 2
ぼ 2
ゎ 2
ゐ@@ 2
ゥ 2
ェ 2
ガ 2
ケ 2
デ 2
ネ 2
パ 2
モ 2
ㄆ@@ 2
ㄊ@@ 2
ㄒ@@ 2
ㄨ@@ 2
ㄱ 2
ㄱ@@ 2
ㄸ 2
ㄹ@@ 2
ㅂ@@ 2
ㅅ 2
ㅅ@@ 2
ㅆ 2
ㅉ 2
ㅌ 2
ㅎ 2
ㅔ 2
ㅡ 2
ㆁ 2
㍻ 2
㍼ 2
㍽ 2
㍾ 2
㚟 2
丈@@ 2
丑 2
且@@ 2
严@@ 2
並@@ 2
丰 2
串@@ 2
乎 2
乎@@ 2
乐 2
乔 2
乱@@ 2
亂@@ 2
亜 2
亜@@ 2
亞 2
亡@@ 2
仄@@ 2
们 2
件@@ 2
价@@ 2
伉 2
伐 2
休 2
伙@@ 2
伦 2
伸@@ 2
佟 2
佰@@ 2
侠 2
侠@@ 2
侨 2
侵@@ 2
俠 2
借@@ 2
倾 2
偰 2
側 2
偶@@ 2
偽@@ 2
傷@@ 2
傾 2
僉@@ 2
僕 2
僜@@ 2
兆 2
児 2
児@@ 2
兔@@ 2
兖@@ 2
兜 2
兩 2
八 2
兮 2
具 2
冀@@ 2
农@@ 2
冯@@ 2
冲 2
决 2
冶 2
凰 2
函@@ 2
刃 2
划 2
划@@ 2
刚@@ 2
别 2
刹@@ 2
剁@@ 2
剄 2
剌 2
割@@ 2
助@@ 2
勅@@ 2
勇 2
勾 2
匐@@ 2
卖@@ 2
卞@@ 2
占@@ 2
卡 2
卵 2
卻@@ 2
卿@@ 2
厄@@ 2
历@@ 2
厚@@ 2
厳 2
参 2
变 2
叟 2
叡 2
另@@ 2
吃@@ 2
各@@ 2
吐@@ 2
吟 2
吟@@ 2
否 2
否@@ 2
吧 2
吴 2
吸 2
呂 2
呈@@ 2
咏@@ 2
咲@@ 2
咸 2
哨@@ 2
唯 2
啓 2
啟@@ 2
喀@@ 2
喃 2
喆 2
喇@@ 2
單 2
嗇@@ 2
嗎 2
嗣@@ 2
嘯@@ 2
噶@@ 2
四 2
固 2
圓 2
圻 2
圾 2
坎 2
块@@ 2
坚 2
坟@@ 2
坤@@ 2
坳@@ 2
垣 2
堀@@ 2
堰@@ 2
塩@@ 2
境 2
墅 2
墓 2
墨 2
墨@@ 2
壇 2
壇@@ 2
壢 2
壬@@ 2
壮@@ 2
変@@ 2
复 2
夔 2
夕 2
夕@@ 2
央 2
奈 2
奉 2
套@@ 2
奪@@ 2
奮 2
妈@@ 2
妍 2
妖 2
妹 2
妾 2
姆@@ 2
姐 2
姑 2
委 2
娇 2
娘@@ 2
娛@@ 2
婁@@ 2
婉 2
婚@@ 2
婦@@ 2
媧@@ 2
嫂 2
嬉@@ 2
嬌 2
嬪 2
孔 2
存 2
孙 2
宅@@ 2
完 2
宛 2
実 2
宥@@ 2
宦@@ 2
宰 2
宵 2
宽 2
寀 2
寄@@ 2
寓@@ 2
實 2
審@@ 2
寰 2
寸@@ 2
对 2
封 2
對 2
導 2
尘@@ 2
尺@@ 2
屍 2
屍@@ 2
履 2
屯@@ 2
岑@@ 2
岩 2
岱 2
峙 2
峡@@ 2
崑@@ 2
崖@@ 2
崛@@ 2
崩@@ 2
嵩 2
嵬 2
嶋 2
嶽 2
巍 2
巫@@ 2
差@@ 2
巳@@ 2
巴 2
巻 2
帆@@ 2
席 2
帯@@ 2
帶@@ 2
幌@@ 2
幕 2
幕@@ 2
幽@@ 2
广 2
庆 2
序@@ 2
庐 2
庐@@ 2
库@@ 2
底@@ 2
庙@@ 2
庵@@ 2
廁@@ 2
廉@@ 2
廊@@ 2
廳 2
廻 2
弁@@ 2
弄@@ 2
弗@@ 2
张 2
弩 2
弯@@ 2
弹@@ 2
弼@@ 2
弾 2
归 2
录 2
彙 2
彝@@ 2
彧 2
彰 2
往@@ 2
従 2
従@@ 2
御 2
微 2
忘 2
応@@ 2
忧@@ 2
忱 2
怎@@ 2
怪 2
恂 2
恆@@ 2
恕 2
恪@@ 2
息 2
恰@@ 2
恵 2
悅 2
悉@@ 2
悟 2
悦@@ 2
惚@@ 2
惡 2
惨@@ 2
愉 2
愼 2
慥 2
慮 2
憂@@ 2
憶 2
憶@@ 2
懐@@ 2
懸 2
戈@@ 2
戊@@ 2
戚@@ 2
戶 2
托 2
托@@ 2
扬 2
扶 2
找@@ 2
抑@@ 2
拂@@ 2
拍@@ 2
拔 2
拟@@ 2
拼@@ 2
指 2
挑@@ 2
挥@@ 2
捕@@ 2
捧@@ 2
捶 2
捷 2
捻@@ 2
掌 2
掌@@ 2
措 2
揃@@ 2
換@@ 2
援@@ 2
搵@@ 2
撒@@ 2
撫@@ 2
播 2
擅@@ 2
操 2
敕 2
敕@@ 2
整 2
整@@ 2
敵 2
敵@@ 2
數@@ 2
斉 2
斉@@ 2
斌 2
料 2
斤 2
斤@@ 2
斬 2
旅 2
既@@ 2
旭@@ 2
旺 2
旻 2
昆 2
昏@@ 2
易 2
昔@@ 2
昕 2
昙@@ 2
昧@@ 2
晟 2
晨 2
晴 2
晴@@ 2
晶@@ 2
暢@@ 2
暦@@ 2
曆@@ 2
曰@@ 2
曷@@ 2
期@@ 2
札@@ 2
朮 2
术 2
权 2
杜 2
杞@@ 2
杨 2
杰@@ 2
板 2
柏 2
柱@@ 2
柴@@ 2
栄@@ 2
标 2
样@@ 2
桂 2
案@@ 2
桢 2
桶 2
條 2
棍@@ 2
棕@@ 2
棚@@ 2
棟 2
棠 2
棣 2
植@@ 2
楠 2
楮@@ 2
楷 2
榆@@ 2
榎@@ 2
榕@@ 2
槐@@ 2
槑 2
様 2
樊 2
樋 2
標 2
標@@ 2
樞 2
模@@ 2
樣 2
樣@@ 2
権 2
樽@@ 2
橫 2
檄@@ 2
櫓 2
櫻@@ 2
欹@@ 2
歙@@ 2
歡 2
歯@@ 2
歳@@ 2
殤@@ 2
殷 2
毓@@ 2
毛 2
氷@@ 2
汐@@ 2
汕@@ 2
汗@@ 2
汤@@ 2
汴@@ 2
汽 2
沅 2
沌@@ 2
沛 2
沟 2
沟@@ 2
沪@@ 2
油 2
沼 2
泚 2
泛@@ 2
泳@@ 2
洙 2
洱 2
洼 2
浑 2
浸@@ 2
涌@@ 2
涞@@ 2
涡@@ 2
润@@ 2
涵 2
涼 2
淇 2
淇@@ 2
淑 2
淖@@ 2
淝@@ 2
淨 2
深 2
渇@@ 2
渚 2
渠 2
渡 2
渥@@ 2
湄@@ 2
湧@@ 2
湾 2
溝 2
溥@@ 2
滅 2
滅@@ 2
滔@@ 2
滩@@ 2
滬@@ 2
滿 2
漂@@ 2
漏 2
演 2
漬@@ 2
潔@@ 2
澎@@ 2
澤 2
澶@@ 2
濃@@ 2
濕@@ 2
濤 2
濳 2
瀆 2
瀧@@ 2
灯 2
災 2
災@@ 2
炊@@ 2
炳 2
烤@@ 2
烯 2
無 2
焰@@ 2
煎 2
煤@@ 2
照 2
煮@@ 2
熊 2
爛@@ 2
爪@@ 2
爭@@ 2
爵 2
爵@@ 2
爺 2
爽@@ 2
爾 2
牙 2
牧 2
牵@@ 2
犢 2
犬 2
犹@@ 2
狸 2
猩@@ 2
猴@@ 2
獅 2
獣@@ 2
獵@@ 2
玃@@ 2
玕 2
玕@@ 2
玟@@ 2
玠 2
环 2
珦 2
班@@ 2
珽 2
琬 2
琮 2
琴@@ 2
琵@@ 2
琶 2
瑗 2
瑤@@ 2
瑩 2
瑪 2
瑶 2
瑶@@ 2
璃 2
璆 2
璆@@ 2
璋 2
璘 2
璜 2
璠 2
瓜@@ 2
瓦 2
瓦@@ 2
瓶@@ 2
甘 2
甜 2
甸 2
留 2
畢 2
畢@@ 2
畵@@ 2
畿@@ 2
疆 2
疆@@ 2
疏 2
疾@@ 2
皎 2
皓@@ 2
皖 2
皮@@ 2
皺 2
盆@@ 2
盗@@ 2
眉@@ 2
看@@ 2
眠 2
眼 2
睿 2
睿@@ 2
矩 2
矿@@ 2
础@@ 2
硕@@ 2
碑@@ 2
碧 2
碩 2
碾@@ 2
磊 2
磐 2
磷@@ 2
示@@ 2
祇@@ 2
祎 2
祓@@ 2
祝 2
祟 2
禎 2
禎@@ 2
禧 2
禪 2
禳@@ 2
种 2
秘 2
秦 2
秧@@ 2
称@@ 2
稽@@ 2
稿@@ 2
穀 2
穂 2
穆 2
穎@@ 2
穢@@ 2
窮@@ 2
竜 2
竞@@ 2
笔 2
笛@@ 2
笳 2
筅 2
筆 2
策@@ 2
简@@ 2
箏 2
箐 2
算 2
箭@@ 2
箱 2
簿@@ 2
籃@@ 2
籌 2
籍 2
籺 2
粍@@ 2
粿@@ 2
糧@@ 2
紅 2
紗 2
索 2
紹 2
絃@@ 2
組 2
絆 2
継 2
綰 2
網 2
綴@@ 2
綺@@ 2
綽@@ 2
綾@@ 2
緊@@ 2
緘 2
緝 2
緬 2
緯 2
緯@@ 2
縁@@ 2
縛@@ 2
縱 2
總 2
織 2
繼@@ 2
續 2
續@@ 2
红 2
纥 2
级 2
纳 2
绝 2
绝@@ 2
统 2
绣@@ 2
绪@@ 2
综@@ 2
编@@ 2
缺@@ 2
罗 2
置@@ 2
罰 2
羞 2
羨 2
羯 2
翅 2
翅@@ 2
翰 2
翳@@ 2
老 2
耆@@ 2
耶 2
耽@@ 2
聰 2
職 2
肆@@ 2
肇@@ 2
肉@@ 2
胄 2
胆@@ 2
脚@@ 2
脱@@ 2
腊@@ 2
腰@@ 2
膳 2
膺@@ 2
臨 2
臭@@ 2
舍 2
舎 2
舜@@ 2
艇 2
艾@@ 2
芙@@ 2
芬@@ 2
芸 2
苑@@ 2
苗 2
苟@@ 2
若 2
苾 2
范 2
茉@@ 2
茹 2
荒 2
荔@@ 2
药 2
荷 2
荷@@ 2
莉 2
莒@@ 2
菊 2
菓@@ 2
菖@@ 2
萇 2
萊@@ 2
萝@@ 2
萨 2
萬 2
萱 2
萱@@ 2
董 2
蒨 2
蒲 2
蓉 2
蓉@@ 2
蔑 2
薇 2
薩@@ 2
薬@@ 2
薰 2
藍 2
藐@@ 2
藩@@ 2
藻 2
蘄@@ 2
蘊 2
蘊@@ 2
虛 2
虛@@ 2
蚌@@ 2
蚡 2
蛋@@ 2
蛸@@ 2
蜀 2
蜑@@ 2
蜓 2
蜻@@ 2
蝴@@ 2
螞@@ 2
蟬 2
蟬@@ 2
蟻 2
蠡@@ 2
蠶@@ 2
蠻@@ 2
衆 2
衍 2
衙@@ 2
衝@@ 2
衷 2
袍 2
袖 2
裔 2
裸@@ 2
褒 2
襦 2
襲@@ 2
覆@@ 2
規 2
観@@ 2
覽 2
触@@ 2
觸@@ 2
訳 2
訴@@ 2
訶 2
証 2
詠@@ 2
詰@@ 2
誉@@ 2
誤@@ 2
説 2
誰 2
誼 2
談 2
諌@@ 2
諡 2
諧@@ 2
諾@@ 2
謂@@ 2
謙 2
謨 2
證@@ 2
識@@ 2
譲 2
譽 2
讀@@ 2
讃@@ 2
變 2
讓 2
讲@@ 2
论@@ 2
译@@ 2
话@@ 2
诸@@ 2
谋@@ 2
谣 2
豪 2
豪@@ 2
豫 2
豬@@ 2
貂 2
貂@@ 2
貌 2
貓@@ 2
貜@@ 2
貝 2
貢 2
貨@@ 2
貫 2
貫@@ 2
買 2
貼 2
貽@@ 2
貿@@ 2
賊 2
賓 2
賜@@ 2
購@@ 2
賽@@ 2
贊 2
贝@@ 2
贡@@ 2
贤 2
贸@@ 2
走 2
跑 2
跟@@ 2
跷@@ 2
踏@@ 2
蹟 2
軌 2
輿@@ 2
轅 2
轅@@ 2
轉@@ 2
轟@@ 2
车 2
轨 2
辑 2
辖@@ 2
辟@@ 2
辭@@ 2
辯@@ 2
辱@@ 2
边 2
辺 2
辻@@ 2
辽@@ 2
迈@@ 2
迎 2
运 2
近 2
返 2
还@@ 2
迴@@ 2
退 2
逐@@ 2
途 2
逝@@ 2
逢 2
週@@ 2
遂 2
遂@@ 2
遇@@ 2
遙@@ 2
遣@@ 2
遷 2
遼 2
邃 2
邘@@ 2
邦 2
邱 2
邾@@ 2
郞@@ 2
郢@@ 2
郷@@ 2
鄆@@ 2
鄜@@ 2
鄧 2
配@@ 2
酸@@ 2
醉@@ 2
釈@@ 2
量 2
針@@ 2
釣@@ 2
鉱@@ 2
銭 2
銷@@ 2
錯 2
鍋@@ 2
钧 2
铁 2
铜@@ 2
铺 2
锁@@ 2
锡@@ 2
锦@@ 2
関 2
閭 2
閭@@ 2
閼@@ 2
闇@@ 2
闘 2
闞@@ 2
闯@@ 2
闻@@ 2
闽@@ 2
阁 2
防 2
阴@@ 2
阵@@ 2
际 2
陇@@ 2
陕@@ 2
陟@@ 2
陣 2
隊@@ 2
隋@@ 2
階@@ 2
随@@ 2
隐@@ 2
隱 2
隸@@ 2
难@@ 2
雁 2
雾@@ 2
需@@ 2
霄 2
霉@@ 2
霖 2
霖@@ 2
霸@@ 2
靚 2
靜 2
靠@@ 2
革 2
靴@@ 2
韵@@ 2
響 2
預@@ 2
領@@ 2
頬@@ 2
題@@ 2
顕@@ 2
顧 2
须@@ 2
题 2
颜@@ 2
颯@@ 2
飞 2
飯 2
餐 2
餘 2
駱@@ 2
騫 2
騰@@ 2
騷@@ 2
驅@@ 2
驗 2
驻@@ 2
骗@@ 2
骨@@ 2
髓 2
髙@@ 2
髪 2
鬥 2
魏 2
魔 2
鮮 2
鱀@@ 2
鲁 2
鲶 2
鴻 2
鸟 2
鸢@@ 2
鸦@@ 2
鸿@@ 2
鹽@@ 2
麟@@ 2
麥 2
麥@@ 2
麵@@ 2
麻 2
麼 2
黍 2
黑 2
點 2
鼠 2
鼻@@ 2
齐 2
龜 2
ꉺ@@ 2
Ꙥ 2
ꙥ 2
ꜥ 2
ꜥ@@ 2
Ꜧ@@ 2
ꜧ@@ 2
ꝏ 2
ꞏ 2
ꦁ@@ 2
ꦒ@@ 2
ꦠ@@ 2
ꦭ@@ 2
ꦮ@@ 2
ꦱ@@ 2
ꦴ@@ 2
ꦶ@@ 2
ꦾ@@ 2
ꯡ 2
ꯡ@@ 2
각 2
갈 2
감@@ 2
갑@@ 2
갓@@ 2
겠@@ 2
격@@ 2
견@@ 2
골@@ 2
곽@@ 2
권 2
규@@ 2
극 2
글 2
길 2
까 2
꼴@@ 2
꿈 2
꿈@@ 2
끄@@ 2
날@@ 2
남 2
납@@ 2
낭@@ 2
냅@@ 2
냐 2
널 2
넘@@ 2
년@@ 2
녕 2
농@@ 2
눈 2
뉴@@ 2
늬@@ 2
닝 2
달 2
담@@ 2
된@@ 2
든 2
디 2
딸@@ 2
땅 2
땅@@ 2
때 2
떠@@ 2
떼 2
뜻@@ 2
랜@@ 2
런 2
력 2
력@@ 2
련 2
록 2
륙@@ 2
른 2
린 2
막 2
맥@@ 2
며 2
몽@@ 2
묘@@ 2
묵 2
뮤@@ 2
믿@@ 2
받@@ 2
발 2
번 2
번@@ 2
별 2
봄 2
봐 2
북 2
붕@@ 2
뷰 2
블 2
빈 2
뽐 2
뽕 2
삐@@ 2
삼 2
생 2
섭 2
션 2
쇼 2
쇼@@ 2
순 2
술 2
숨@@ 2
숭@@ 2
쉬@@ 2
슈@@ 2
싸@@ 2
쌍@@ 2
쎄@@ 2
쏘@@ 2
씨@@ 2
악 2
악@@ 2
압@@ 2
앙@@ 2
약@@ 2
얗@@ 2
억@@ 2
없@@ 2
엇@@ 2
엑@@ 2
엔 2
엔@@ 2
염@@ 2
엽 2
예 2
옷@@ 2
와@@ 2
완@@ 2
웅@@ 2
월 2
음 2
익 2
읽@@ 2
잊@@ 2
작 2
쟁@@ 2
적@@ 2
점@@ 2
져 2
족@@ 2
즈@@ 2
증 2
찹@@ 2
창 2
채 2
첩 2
청 2
총@@ 2
충 2
충@@ 2
측@@ 2
칙 2
칠@@ 2
커 2
켜@@ 2
퀴@@ 2
키@@ 2
킨@@ 2
탄@@ 2
탉 2
탑 2
탱@@ 2
털@@ 2
텔 2
톡 2
톤 2
통 2
페@@ 2
편 2
품@@ 2
핀 2
할 2
할@@ 2
함 2
했@@ 2
혼@@ 2
효 2
휘@@ 2
흑@@ 2
흥 2
 2
﨑 2
ﬃ@@ 2
ﮔ@@ 2
ﯽ 2
ﷲ 2
﷼ 2
ﺓ 2
ﺪ@@ 2
ﺮ 2
ﻦ 2
ﻴ@@ 2
ﻻ@@ 2
＆ 2
＋ 2
２ 2
４@@ 2
５ 2
７ 2
Ｃ@@ 2
Ｇ 2
Ｎ@@ 2
Ｓ@@ 2
＼ 2
ﾟ@@ 2
￮ 2
𐌉 2
𐌿@@ 2
𐎱@@ 2
𐎹 2
𐏐 2
𐐯@@ 2
𐑮 2
𐒈@@ 2
𐒋@@ 2
𐒍@@ 2
𐒑@@ 2
𐒖 2
𐒖@@ 2
𐒘@@ 2
𐒛@@ 2
𐓘@@ 2
𐓻@@ 2
𐡍@@ 2
𐡔@@ 2
𐡩@@ 2
𐣠 2
𐣣@@ 2
𐤪@@ 2
𐨀@@ 2
𐨣 2
𐨬@@ 2
𐩧@@ 2
𐩩 2
𐩬@@ 2
𐩳@@ 2
𐰇@@ 2
𐰕 2
𐰣 2
𐰤 2
𐰲@@ 2
𐰼@@ 2
𑀁 2
𑀢@@ 2
𑀪@@ 2
𑀫@@ 2
𑂠@@ 2
𑂳@@ 2
𑄚 2
𑄝 2
𑄝@@ 2
𑜫 2
𓊖 2
𓏏@@ 2
𖬰@@ 2
𛀁 2
𛄟 2
𝅥 2
𝑜@@ 2
𝒜 2
𝒢 2
𝒫 2
𝖍 2
𝛂 2
𝛿@@ 2
𝝅 2
🇨 2
🇬 2
🇭 2
🇱 2
🇼 2
🌾 2
👁 2
👳 2
👵 2
🔫 2
🔰 2
😂 2
🙆 2
🙏 2
🤘 2
🤾 2
🦽 2
🧒 2
𠊛@@ 2
󠁢 2
󠁣 2
󠁴 2
󠁷 2
󠁹 2
1950er 1
1990er 1
Abgeordneter 1
Amtszeit 1
Anteil 1
Artikel 1
Auft@@ 1
Behör@@ 1
Beisp@@ 1
Besatz@@ 1
Besetzung 1
Besitz 1
Besitz@@ 1
Besonder@@ 1
Bevölk@@ 1
Bewohner 1
Beziehung 1
Chr. 1
Connectic@@ 1
Daten 1
Dezember 1
Dieses 1
Eigenschaften 1
Entfern@@ 1
Entscheidung 1
Erfol@@ 1
Erst 1
Fahrzeuge 1
Figur 1
Fläche 1
Gebäu@@ 1
Gebäude 1
Gegensatz 1
Geografie 1
Grenze 1
Gründen 1
Halbfinale 1
Herstellung 1
Hälfte 1
Interesse 1
Jahrzeh@@ 1
Leistung 1
Maßnahmen 1
Meisterschaften 1
Mexiko 1
Möglichkeit 1
Nationalmannschaft 1
Objekte 1
Olympischen 1
Ortes 1
Papst 1
Parteien 1
Prozent 1
Präsid@@ 1
Regisse@@ 1
Regisseur 1
Repräsent@@ 1
Repräsentant@@ 1
Ruhest@@ 1
Russland 1
Schauspielerin 1
Sehens@@ 1
Seiten@@ 1
Standort 1
Städten 1
Süden 1
Teilen 1
Teilnahme 1
Tätigkeit 1
Türkei 1
Unternehm@@ 1
Unterstütz@@ 1
Vancou@@ 1
Verbindung 1
Verfahren 1
Verfügung 1
Vorgän@@ 1
Vorsitzender 1
Weibchen 1
Weltmeister@@ 1
Wettbewerb 1
Zusammen@@ 1
Zustand 1
Zweiten 1
abgesch@@ 1
abzu@@ 1
afür 1
altet 1
altete 1
altungen 1
amerikan@@ 1
annte 1
annten 1
arbeiten 1
asketball 1
ausgezeichnet 1
bauen 1
beauf@@ 1
bedeutet 1
befin@@ 1
befindet 1
beför@@ 1
belegte 1
benachbar@@ 1
beobach@@ 1
beschrieben 1
beschäf@@ 1
bestand 1
beteili@@ 1
betrieben 1
bewoh@@ 1
bezeichnete 1
bisher@@ 1
dafür 1
daher 1
dahin 1
danach 1
denkmal@@ 1
derungen 1
destens 1
deutschsprach@@ 1
deutschsprachigen 1
dienen 1
diesem 1
digkeiten 1
diglich 1
digte 1
direkt 1
drän@@ 1
drück@@ 1
durchgeführt 1
ebenfalls 1
ehemalige 1
eilt 1
einander@@ 1
einfl@@ 1
einge@@ 1
eingesch@@ 1
eingestellt 1
einschließlich 1
endgül@@ 1
englischen 1
entiert 1
entlich 1
entwickelt 1
erfolg@@ 1
erfolgreich@@ 1
erhöh@@ 1
erklär@@ 1
erklärt 1
erlau@@ 1
erneu@@ 1
errichtet 1
erweitert 1
eröffnet 1
ettbewer@@ 1
fassung 1
findet 1
flanz@@ 1
fließt 1
fläch@@ 1
folgen 1
folgen@@ 1
folgt 1
französ@@ 1
frü@@ 1
früheren 1
fälle 1
führen 1
gebaut 1
gebildet 1
gebracht 1
gefunden 1
gegründeten 1
gehalten 1
gelassen 1
gerichtet 1
geschaffen 1
geschlagen 1
geschoss 1
gesehen 1
gesetzt 1
getrennt 1
gewicht 1
gewiesen 1
gewählt 1
gewöhn@@ 1
gleichen 1
gleichnamigen 1
glied 1
glieder 1
grenze 1
groß@@ 1
größten 1
handelt 1
heraus@@ 1
herrsch@@ 1
hohen 1
hätten 1
ichtet 1
ichtete 1
icklung 1
ierende 1
immt 1
innerhalb 1
inzwischen 1
isiert 1
italien@@ 1
italienischen 1
jahren 1
jedem 1
jährige 1
jün@@ 1
jüng@@ 1
kleiner 1
kompl@@ 1
konnte 1
konnten 1
kurze 1
kün@@ 1
latein@@ 1
lebten 1
leicht 1
licherweise 1
liederung 1
ließen 1
löste 1
maß@@ 1
meisten 1
mittelalter@@ 1
mittelt 1
mussten 1
mäßig 1
möglichen 1
nahe 1
nationalen 1
neten 1
nommen 1
offizi@@ 1
offiziel@@ 1
persön@@ 1
plätze 1
preuß@@ 1
präs@@ 1
regelmäßig 1
rekt 1
rieben 1
roffen 1
rägt 1
römisch 1
schließt 1
schlug 1
schrieb 1
schweren 1
schätz@@ 1
seien 1
selbst@@ 1
setzt 1
setzte 1
sollten 1
spielte 1
starb 1
starke 1
storben 1
struktur 1
ständigen 1
teidi@@ 1
teils 1
teilung 1
traf 1
trug 1
trägt 1
tätig 1
umfasst 1
ungspro@@ 1
unmittel@@ 1
unterschie@@ 1
ursprünglichen 1
veranst@@ 1
verbess@@ 1
verbreit@@ 1
verbunden 1
verheiratet 1
vermut@@ 1
verschiedenen 1
verschiedener 1
vertrag 1
vertreten@@ 1
veröffentlichte 1
weiten 1
weitgehend 1
wendung 1
wenig 1
wenige 1
weniger 1
westlichen 1
wichtige 1
wiegend 1
wirtschaft@@ 1
wissen@@ 1
wohner 1
worfen 1
wuchs 1
zahlen 1
zeichnet 1
zeichnete 1
zeigt 1
zeugen 1
zirk 1
zunächst 1
zurück@@ 1
zusamm@@ 1
zusätzlich 1
zweiten 1
zweiter 1
zählen 1
 1
 1
 1
 1
 1
 1
Ì 1
Û 1
Û@@ 1
ähe 1
ähri@@ 1
ährt 1
ält 1
älteren 1
ässlich 1
äude 1
öffent@@ 1
öffentlich@@ 1
österreichischen 1
übrigen 1
Ĉ 1
Ĉ@@ 1
Ċ 1
Ď 1
[...]
