. 8671763
, 6402979
der 5351576
und 4128921
die 3383266
in 3255217
&quot; 2860843
@-@ 2224260
von 1977740
den 1828346
er 1675974
) 1578326
( 1576997
des 1489259
im 1387382
mit 1289921
wurde 1104933
dem 1080324
ist 1056875
das 1004759
Die 991390
als 979801
zu 907781
auf 904555
an 900356
ein 889127
für 871939
eine 869132
sich 793523
war 766598
en 719714
es 650959
aus 635754
ten 602519
er@@ 590878
k@@ 568303
auch 567492
en@@ 553739
te 550427
bis 550406
am 547921
nach 530965
t 529205
: 515870
“ 513836
bei 512906
„ 510490
Der 488027
s@@ 479900
ver@@ 475782
ung 461273
einer 461176
S@@ 458119
sie 456948
t@@ 451291
zum 448852
K@@ 447561
ischen 437552
st@@ 432399
um 417154
a 402377
z@@ 399708
be@@ 396897
B@@ 389999
H@@ 383021
an@@ 378380
sch@@ 377998
L@@ 376951
ische 373416
Ver@@ 367410
durch 364145
– 362666
einem 359938
T@@ 359883
W@@ 359180
s 358655
Sch@@ 358630
n@@ 356841
M@@ 354167
e 353435
b@@ 350437
Im 349174
einen 346514
werden 342400
f@@ 340005
nicht 339487
Das 338693
D@@ 337573
sind 336897
de 327521
ein@@ 326935
l@@ 322003
m@@ 319056
; 317106
F@@ 315262
wird 314847
In 314522
G@@ 314225
zur 310870
P@@ 309400
über 307397
R@@ 302975
g@@ 302161
ungen 298806
An@@ 292954
d@@ 292602
ge@@ 291919
aus@@ 289383
al@@ 288750
oder 288081
o 285497
wurden 283005
ent@@ 281707
ab@@ 274366
el@@ 274262
ar@@ 272828
A@@ 269261
N@@ 269069
E@@ 268710
St@@ 264426
un@@ 262537
i 259642
gen 258124
- 257709
Z@@ 256043
dass 254652
/ 253827
Er 249373
unter 248125
ern 245618
ungs@@ 241839
Jahr 241743
in@@ 239706
ter 237116
h@@ 236039
auf@@ 230052
ä@@ 229873
isch 229789
lich 229203
re@@ 227677
Er@@ 227066
V@@ 224300
Ab@@ 218387
w@@ 217356
C@@ 217127
ch@@ 215529
vor 215195
wie 213773
on@@ 209008
um@@ 208220
n 206475
is@@ 206235
sowie 200696
r@@ 199978
vom 199699
u@@ 198438
i@@ 198190
Aus@@ 196429
seiner 195024
it@@ 194773
Nach 193788
liche 192847
noch 192211
m 192066
hatte 189146
nur 188597
Vor@@ 188521
über@@ 188494
el 183648
J@@ 183124
lichen 182952
or@@ 182911
seine 182762
et@@ 181437
vor@@ 181188
O@@ 181017
es@@ 179696
ab 178662
enden 178489
Jahre 177679
e@@ 175977
us 175284
p@@ 174979
on 174543
aber 174269
j@@ 172832
ischer 172830
y@@ 172249
Sie 171632
zwei 171554
ge 169276
z 168854
Ein@@ 167799
waren 167526
ö@@ 166750
I@@ 166459
ber@@ 166395
ie 166163
ger@@ 165756
hat 163516
o@@ 163448
ende 162844
eines 161748
al 159896
au@@ 159615
iert 159376
* 158521
k 156346
d 155876
l 155095
zwischen 154411
th@@ 154391
g 152446
sein 152224
gen@@ 151321
Jahren 151225
am@@ 151013
le@@ 150195
a@@ 149775
Am 149276
sten 148793
zu@@ 148621
gegen 148195
at@@ 148178
v@@ 146731
at 144105
dieser 142984
ie@@ 142747
1 142220
le 141699
di@@ 140271
ien 140032
unter@@ 139628
Es 139247
Kon@@ 137400
Be@@ 137212
ag@@ 137169
ak@@ 136307
der@@ 134575
2 134413
of 133811
ter@@ 133430
ersten 131531
man 131497
so 131454
ger 130659
gel@@ 129638
ar 129563
sp@@ 128779
ei@@ 128740
Zeit 128025
ens 127670
de@@ 127498
In@@ 127020
jedoch 125232
gesch@@ 124782
seit 124689
ers 124416
Stadt 123490
ert 123489
em@@ 123102
ro@@ 121908
as 121325
ol@@ 121046
ierte 119930
u 119547
os@@ 119439
ken 119131
ü@@ 119057
ler 118898
etwa 118790
Al@@ 118205
Ober@@ 117977
drei 117926
il@@ 117608
ot@@ 117136
ch 116296
Auf@@ 115128
ur@@ 114821
Mar@@ 114670
eten 113944
schaft 113258
wieder 113225
chen 113105
us@@ 112838
sk@@ 112631
Geschichte 112265
enen 112235
17@@ 111780
ig@@ 111666
ri@@ 111591
Bau@@ 111256
ben 110244
3 110136
mehr 109601
U@@ 109119
ke 109067
Als 108696
Unter@@ 108413
Leben 108296
16@@ 108062
seinem 107935
ra@@ 107792
geb@@ 106970
ti@@ 106626
Sp@@ 106228
end@@ 105732
ts@@ 105678
liegt 105588
li@@ 104699
as@@ 104180
ner 103848
seinen 103346
später 103273
ens@@ 103263
ale 103237
ut@@ 103168
beim 103030
igen 102975
Von 102796
Bei 102751
eg@@ 102523
y 102427
da 102397
enk@@ 102328
kon@@ 101972
ste 101291
ten@@ 101286
os 100754
ik@@ 100593
Ch@@ 100586
Ge@@ 100561
b 100495
den@@ 100038
5 99903
ell@@ 99700
Ende 99674
ach@@ 99519
diese 99518
ad@@ 99421
1. 99354
2@@ 99285
ihre 99075
et 98605
Ber@@ 98559
Re@@ 98086
elle 97663
land 97486
is 97265
end 97109
tet 96642
kann 96562
Über@@ 96540
4 96235
stand 95623
gt 94975
kam 94683
alen 94368
f 94115
ige 93945
wo 93671
Fl@@ 93489
konnte 93484
ier@@ 93411
erste 92983
au 92973
st 92826
Mit 92380
är@@ 92341
Gemeinde 92077
ir@@ 91968
3@@ 91689
ne 90951
ihm 90742
eren 90694
ene 90323
erte 90212
gew@@ 89702
all@@ 89612
Um@@ 89352
fen 89300
ck@@ 89159
August 89129
ek@@ 89050
ellen 88573
än@@ 88523
Mai 88335
15@@ 88255
März 88170
haben 88121
be 87974
mann 87943
Teil 87198
Januar 87152
si@@ 86343
Oktober 86267
licher 86239
c@@ 86206
heute 85825
ne@@ 85531
om@@ 85332
ist@@ 85295
and 85014
se 84940
ul@@ 84720
é@@ 84661
Land@@ 84520
ihrer 84367
dessen 84177
dann 83848
ik 83776
op@@ 83717
vier 83653
alle 83461
ere 83438
bereits 83407
berg 83229
dort 83146
’ 82995
ör@@ 82861
fl@@ 82633
&amp; 82619
sh@@ 82586
September 82406
† 82050
qu@@ 81975
Juni 81469
tes 81467
April 81253
and@@ 80979
ing@@ 80952
gab 80940
her@@ 80624
Juli 80554
Universität 80440
ap@@ 80152
Kirche 79834
Di@@ 79594
ihn 79475
hal@@ 79337
anderen 79292
gibt 78911
US 78894
während 78819
erhielt 78647
enz@@ 78593
Dezember 78519
men 78246
Ar@@ 78206
ieren 77840
ia 77331
ess@@ 77048
18@@ 76939
November 76856
Ein 76780
Saison 76686
km 76431
iz@@ 76342
ation 76260
beiden 75985
im@@ 75723
ihr 75702
Diese 75568
ang@@ 75416
enn@@ 75258
Haupt@@ 74540
mer@@ 74534
ete 74436
ung@@ 74420
erung 74312
Se@@ 74307
% 74109
6 73541
eh@@ 73432
Platz 73373
Seit 72932
wer@@ 72892
ant@@ 72883
or 72474
können 72451
me 72333
Deutschland 72321
ges@@ 72144
diesem 72070
h 71970
ern@@ 71885
Mon@@ 71781
Kar@@ 71700
ker 71546
stadt 71446
sen 71236
ing 71075
em 71063
Berlin 71054
burg 71033
cht 70876
r 70568
kl@@ 70549
ber 70473
Jahrhundert 70416
len 70089
Un@@ 70058
4@@ 69972
anz@@ 69971
ok@@ 69412
zeit 69391
steht 69100
ts 68999
ins 68681
det 68657
Mitglied 68478
Februar 68411
Eine 68371
ierten 68333
che 68209
ß 67914
Nach@@ 67904
ru@@ 67831
Ne@@ 67795
B 67594
ig 67327
denen 67322
nahm 67285
eln 67283
ine 67099
ur 66897
ast@@ 66826
8 66754
deutschen 66581
ep@@ 66412
se@@ 66230
Zu@@ 66214
dern 66135
Spiel@@ 66029
enten 65960
Qu@@ 65858
man@@ 65817
ent 65792
enb@@ 65761
deren 65742
af@@ 65589
Kl@@ 65462
ün@@ 65334
Her@@ 65287
ell 65228
Par@@ 65211
Auch 65149
ster 65069
ür@@ 64924
zurück 64685
ßen 64646
14@@ 64313
damit 64179
5@@ 63881
bet@@ 63841
verb@@ 63795
eb@@ 63787
Bundes@@ 63673
Für 63598
ck 63559
ob@@ 63416
tung 63356
Le@@ 63161
ingen 63089
Süd@@ 63017
El@@ 62972
it 62941
.@@ 62888
zunächst 62814
ft 62802
ß@@ 62672
Pro@@ 62668
Auf 62615
besch@@ 62456
re 62448
Gr@@ 62285
ang 62185
Fre@@ 62180
7 62052
ierung 61957
bekannt 61899
fer@@ 61838
Bl@@ 61730
statt 61646
ihren 61549
Familie 61525
keine 61508
erk@@ 61418
tr@@ 61348
ationen 61347
gest@@ 61317
ill@@ 61149
zusammen 61099
befindet 60941
he 60874
_ 60736
ums 60517
trat 60483
Ort 60477
straße 60414
sehr 60365
ass@@ 60337
Stadt@@ 60327
nach@@ 60311
isch@@ 60186
A 59928
og@@ 59856
weitere 59698
gr@@ 59615
Or@@ 59573
20 59546
est@@ 59453
aten 59292
fe 59239
lu@@ 59146
Namen 59121
ph@@ 58957
Bar@@ 58911
begann 58823
nen 58589
wegen 58516
tigen 58391
ach 58381
Neu@@ 58380
gl@@ 58378
Film 58361
6@@ 58347
ben@@ 58295
Y@@ 58269
Kom@@ 58055
äl@@ 58011
Sohn 57852
worden 57806
if@@ 57676
ed@@ 57629
itz 57610
bau 57404
zeit@@ 57337
spielte 57207
rä@@ 57174
kt 57042
gewann 56983
Nord@@ 56856
ran@@ 56831
13@@ 56768
inn@@ 56740
bel@@ 56689
Personen 56397
mit@@ 56383
ser@@ 56364
allem 56282
lo@@ 56143
bzw. 56103
tra@@ 56043
Gesch@@ 55979
Grund@@ 55863
ebenfalls 55837
2011 55732
schaften 55554
lt 55545
ac@@ 55518
kommen 55494
anderem 55379
Pl@@ 55370
ster@@ 55362
durch@@ 55345
2010 55331
werk 55324
10 55277
gung 55197
ender 55189
we@@ 55157
nung 54999
p 54985
ging 54771
gef@@ 54652
was 54522
cken 54509
bar 54414
ow@@ 54370
1@@ 54189
gehörte 54183
führte 54148
-@@ 54103
.000 54043
En@@ 53981
hr@@ 53966
ord@@ 53870
immer 53823
teil 53709
Gl@@ 53656
und@@ 53636
ausge@@ 53540
zen 53492
fest@@ 53469
Fahr@@ 53178
ologie 53132
Schw@@ 53061
Bo@@ 53034
7@@ 52928
Sk@@ 52826
9 52742
ann@@ 52737
mar@@ 52672
iger 52590
erin 52518
ohne 52516
Gra@@ 52486
ah@@ 52475
Au@@ 52448
ier 52441
x@@ 52412
ich@@ 52205
Landes@@ 52109
bau@@ 52039
fer 51998
ka 51986
selbst 51978
2009 51869
feld 51845
O 51747
2015 51686
neuen 51685
enh@@ 51678
ug@@ 51666
verl@@ 51647
2012 51606
per@@ 51576
ff@@ 51267
acht 51238
bl@@ 51224
gebiet 51218
2. 51203
rich@@ 51203
2008 51184
dabei 51104
id@@ 51059
tig 51058
Bi@@ 50960
2014 50705
la@@ 50630
12@@ 50621
2013 50553
Man@@ 50519
the 50503
D 50501
Mittel@@ 50359
Ro@@ 50152
formula 49959
age 49880
Während 49857
hier 49841
19. 49740
deutscher 49731
&apos; 49716
sich@@ 49665
Schul@@ 49609
get@@ 49586
2016 49555
Meter 49542
neue 49540
isten 49511
geben 49371
10@@ 49357
agen 49353
Reg@@ 49194
erstmals 49138
arbeitete 49131
50 49121
isches 49100
Ur@@ 49047
2007 48975
Jahrhunderts 48831
beg@@ 48788
lung 48656
erten 48649
fand 48518
az@@ 48443
8@@ 48433
gel 48341
eng@@ 48291
Ab 48181
ick@@ 48102
Am@@ 48049
gehört 48023
Ger@@ 47939
äh@@ 47890
bach 47888
Ma@@ 47688
bezeichnet 47647
West@@ 47625
erst 47594
unden 47524
Groß@@ 47465
sei 47424
uch@@ 47409
Ad@@ 47372
New 47347
é 47303
führt 47241
fünf 47070
2017 47026
The 47010
ic@@ 46811
Ex@@ 46796
ise 46780
St. 46769
2006 46671
Rück@@ 46669
Seine 46615
Name 46590
stein 46541
nis 46536
ina 46345
erst@@ 46255
land@@ 46230
ov@@ 46211
Lu@@ 46162
dar@@ 46161
National@@ 46144
äch@@ 46084
0 46065
ow 46026
br@@ 45944
geh@@ 45904
G 45857
oh@@ 45849
Titel 45807
15 45776
Schl@@ 45753
äu@@ 45615
zurück@@ 45554
Car@@ 45544
Deutschen 45504
bes@@ 45452
onen 45436
te@@ 45432
fahr@@ 45395
zweiten 45376
pl@@ 45327
schon 45150
off@@ 45069
einige 45037
fre@@ 44996
Bet@@ 44960
ange@@ 44863
Band 44802
9@@ 44793
S 44792
bar@@ 44732
Zu 44705
He@@ 44580
2018 44503
Nieder@@ 44463
str@@ 44443
wei@@ 44412
ub@@ 44397
seines 44298
sondern 44276
oc@@ 44193
Gruppe 44187
tel 44113
Me@@ 44101
pf@@ 44055
2019 44050
stellung 44012
C 44003
heit 43990
gte 43935
Mit@@ 43898
elt 43880
schule 43880
enz 43877
dung 43812
x 43785
Sein 43773
So 43755
Har@@ 43754
lin@@ 43721
öl@@ 43681
Liste 43577
ersch@@ 43510
hin@@ 43337
ität 43294
rü@@ 43281
30 43240
I 43234
v 43205
schw@@ 43157
á@@ 43075
c 43055
av@@ 43047
rund 43024
tige 43022
ihrem 42983
halten 42958
Hoch@@ 42915
U 42903
weise 42837
kan@@ 42831
mal 42821
neben 42785
heim 42725
hatten 42723
att@@ 42639
studierte 42492
stellt 42483
alten 42455
Menschen 42407
min@@ 42337
Karriere 42303
Wer@@ 42271
2005 42256
zw@@ 42249
mer 42246
ho@@ 42238
Staats@@ 42234
Ges@@ 42099
Lebens@@ 42092
eil@@ 42068
Friedrich 42029
mehrere 42022
fte 41994
Ak@@ 41980
her 41909
gebaut 41864
Ost@@ 41814
mal@@ 41793
stre@@ 41768
od@@ 41753
ven 41746
stellte 41697
to 41674
amp 41652
3. 41627
besteht 41620
For@@ 41561
andere 41517
est 41483
inger 41440
Lin@@ 41350
vi@@ 41275
ati@@ 41190
rat 41188
dieses 41177
18 41157
Min@@ 41068
deutsche 41040
20. 41033
Anfang 40988
letzten 40916
ut 40913
Tod 40750
16 40744
großen 40733
Hand@@ 40580
genannt 40571
B. 40567
ma@@ 40562
Sh@@ 40545
Ent@@ 40534
Ko@@ 40454
Art 40453
rau@@ 40453
Bel@@ 40432
Mor@@ 40425
2000 40394
Tri@@ 40360
Inter@@ 40338
Durch 40336
oren 40323
del 40255
Ru@@ 40244
K 40149
18. 40126
zi@@ 40089
ind@@ 39957
ma 39892
gestellt 39855
1945 39825
wenn 39803
sollte 39790
stell@@ 39757
tor 39731
ec@@ 39689
schl@@ 39680
tz@@ 39658
E 39657
Best@@ 39575
M 39548
Kilometer 39510
bo@@ 39496
ismus 39485
große 39405
Da 39361
sin@@ 39303
diesen 39296
Film@@ 39288
ate 39276
ans 39241
gewählt 39241
2004 39224
wechselte 39221
erfolgte 39193
haus 39192
Unternehmen 39165
mon@@ 39125
ra 39040
tätig 39040
zog 39018
voll@@ 38996
folgenden 38980
L 38967
aff@@ 38928
Nor@@ 38885
tern 38878
dre@@ 38844
zwei@@ 38841
12 38777
Con@@ 38770
weiter 38749
icht 38744
oten 38724
kre@@ 38711
unde 38690
Th@@ 38683
Gebiet 38678
eig@@ 38664
gem@@ 38660
eigen@@ 38649
allerdings 38634
2020 38593
Mo@@ 38526
iss@@ 38475
lag 38434
ons 38378
Verb@@ 38357
lich@@ 38343
fel@@ 38278
Johann 38277
wobei 38261
auer 38231
Musik@@ 38158
Gen@@ 38137
sel@@ 38130
X@@ 38025
tete 37966
eich@@ 37935
tion 37855
oll@@ 37853
14 37826
ex@@ 37775
iel@@ 37737
pp@@ 37701
Einwohner 37675
prä@@ 37652
Straße 37609
bi@@ 37578
ähr@@ 37556
rit@@ 37537
soll 37512
reich@@ 37483
Gar@@ 37399
Kre@@ 37241
üb@@ 37234
Br@@ 37229
Mitte 37211
eit 37196
Volks@@ 37186
Tra@@ 37170
gegründet 37137
ant 37035
Per@@ 36952
ort 36934
gang 36887
erreichte 36847
kt@@ 36844
sch 36835
je 36787
Frau 36762
ließ 36757
ou@@ 36734
ett@@ 36691
Mannschaft 36656
nahmen 36580
15. 36551
Nachdem 36544
blieb 36529
form@@ 36524
Welt@@ 36516
Hei@@ 36514
els 36513
Verein 36456
Gu@@ 36421
allen 36355
art 36340
nun 36265
Bre@@ 36259
gra@@ 36185
are 36183
Region 36139
musste 36130
Zweiten 36119
Dar@@ 36111
Wei@@ 36085
bel 36081
übernahm 36041
tionen 36035
Wohn@@ 36032
tw@@ 35994
war@@ 35958
jeweils 35941
Karl 35854
z. 35836
4. 35817
sechs 35809
F 35807
weiteren 35792
komm@@ 35779
ili@@ 35756
schließlich 35741
gleich@@ 35698
uf@@ 35670
R 35660
il 35645
viele 35642
Gebäude 35589
lang 35522
genommen 35489
führ@@ 35419
Pf@@ 35390
Mal@@ 35291
13 35236
amm@@ 35208
chen@@ 35161
Kr@@ 35107
stellen 35087
Haus@@ 35071
16. 34981
Bis 34978
stra@@ 34940
II. 34827
enti@@ 34810
finden 34789
Berg@@ 34731
100 34724
a. 34645
Li@@ 34629
25 34626
Lehr@@ 34604
äm@@ 34590
itz@@ 34567
V 34535
stehen 34533
ön@@ 34441
17. 34421
Vater 34419
etz@@ 34409
net 34390
ks 34380
2003 34327
Norden 34322
Alt@@ 34312
2001 34300
USA 34222
Tr@@ 34134
par@@ 34114
zug 34109
Gel@@ 34061
kom@@ 34029
FC 33942
alt@@ 33937
spiel 33887
uss@@ 33847
erhalten 33817
Bereich 33782
seite 33770
War@@ 33764
ton 33748
Kriegs@@ 33742
Form 33700
T 33679
utz@@ 33675
2002 33642
ober@@ 33640
40 33626
An 33622
neu 33587
aufgrund 33483
asse 33476
sel 33456
tor@@ 33454
tri@@ 33430
meister 33416
u. 33404
erh@@ 33393
17 33390
ard 33382
Fest@@ 33354
vier@@ 33339
insgesamt 33337
5. 33320
ensch@@ 33319
Kor@@ 33318
one 33311
welche 33300
teil@@ 33241
hen 33237
app@@ 33217
art@@ 33205
son 33197
rat@@ 33164
Hin@@ 33117
üch@@ 33114
König@@ 33092
wal@@ 33088
Dort 33069
icht@@ 33055
bei@@ 33005
enst@@ 32980
la 32978
sen@@ 32972
University 32965
Kunst@@ 32891
ations@@ 32880
Flug@@ 32840
gesetzt 32827
ss@@ 32826
darauf 32822
zug@@ 32763
Zeit@@ 32760
Album 32742
Haus 32727
w 32720
Dabei 32716
tig@@ 32704
Kur@@ 32688
entstand 32688
hol@@ 32639
setzte 32628
dazu 32627
assen 32603
verwendet 32585
spielen 32582
Tochter 32563
verschiedenen 32562
Pal@@ 32548
ana 32530
Land 32520
Wasser@@ 32500
zer@@ 32464
me@@ 32408
hö@@ 32399
ott@@ 32394
eil 32367
Stre@@ 32331
sol@@ 32314
fin@@ 32302
183@@ 32259
gemein@@ 32258
ener 32248
führung 32239
geschichte 32225
2021 32194
Em@@ 32192
Wilhelm 32185
Reich@@ 32161
1,@@ 32160
ute 32153
ot 32148
cher 32140
13. 32134
zeug@@ 32114
ze 32106
Arbeit@@ 32104
sehen 32087
bt 32038
München 32031
ahn 32017
König 32002
Bau 31964
Teil@@ 31963
14. 31936
Amt 31934
I. 31901
folgender 31851
19 31839
Süden 31839
P 31813
platz 31800
fe@@ 31766
üt@@ 31713
6. 31679
Lie@@ 31657
Mag@@ 31628
erneut 31624
Kinder 31574
erschien 31552
lagen 31547
nieder@@ 31544
schafts@@ 31529
iv@@ 31509
schloss 31501
Rahmen 31500
Rechts@@ 31496
Werk 31479
Prozent 31438
Wal@@ 31429
ort@@ 31391
gemeinde 31379
grün@@ 31350
gan@@ 31306
Wien 31279
raum 31266
W 31252
of@@ 31217
alt 31212
Tor@@ 31201
Sport@@ 31163
eter 31155
reg@@ 31129
Pre@@ 31122
kur@@ 31109
Fach@@ 31073
Mal 31053
rem@@ 31029
Arbeit 31021
innen 30994
1999 30976
Weltkrieg 30951
Dies 30934
ett 30917
Stand 30898
11 30891
Su@@ 30883
12. 30872
Stein@@ 30859
N 30858
all 30843
John 30811
konnten 30810
kommt 30802
einander 30801
gilt 30798
180@@ 30788
ori@@ 30787
meist 30780
nisse 30759
Ö@@ 30759
Hel@@ 30733
errichtet 30715
Rolle 30709
Millionen 30707
Lage 30678
schrieb 30672
Sie@@ 30667
he@@ 30646
Entwicklung 30612
Dieser 30565
hei@@ 30563
Bur@@ 30552
Ben@@ 30551
stieg 30546
Einsatz 30545
Gew@@ 30508
insbesondere 30502
istischen 30501
amt 30500
ner@@ 30489
eigenen 30474
Orts@@ 30466
eller 30456
lassen 30443
Neben 30438
inen 30438
Bevölkerung 30426
met@@ 30412
no@@ 30383
sor@@ 30379
Heinrich 30332
Dorf 30188
gut 30172
Fel@@ 30166
8. 30079
recht 30062
haf@@ 30054
Provinz 30052
Kan@@ 30051
,@@ 30043
Osten 30034
Richtung 30034
po@@ 30029
men@@ 30023
Kultur@@ 29999
Co@@ 29984
ai@@ 29950
1990 29921
ette 29886
ank@@ 29855
starb 29763
davon 29745
Westen 29733
om 29717
7. 29712
Ros@@ 29695
to@@ 29691
Frankreich 29678
ay@@ 29662
Ä@@ 29657
fast 29646
hi@@ 29635
Pri@@ 29618
leben 29561
ons@@ 29545
bestand 29539
9. 29529
inter@@ 29527
Sti@@ 29500
Staaten 29499
stei@@ 29456
arbeiten 29411
nahme 29377
Ant@@ 29364
ation@@ 29337
Sal@@ 29306
aden 29302
liegen 29261
Eis@@ 29258
bew@@ 29247
Natur@@ 29214
eingesetzt 29181
ad 29176
tur@@ 29135
Frauen 29129
folgte 29123
dies 29091
gh@@ 29084
Hans 29066
du@@ 29051
60 29041
oli@@ 29024
ste@@ 29021
innerhalb 29019
esen 29018
Buch@@ 28983
Gesellschaft 28973
ha@@ 28964
Ph@@ 28948
Seite 28908
Schule 28905
Ri@@ 28891
Beginn 28884
derung 28855
habe 28831
verein@@ 28816
1998 28803
gi@@ 28801
sm@@ 28799
Bedeutung 28781
uti@@ 28769
York 28758
oft 28737
damals 28717
bahn 28647
Bu@@ 28637
geht 28605
ände 28593
ler@@ 28570
Partei 28548
Tre@@ 28507
zer 28479
Aus 28478
bedeut@@ 28463
Peter 28448
Grün@@ 28445
einge@@ 28433
schen 28413
cke 28406
Jugend@@ 28403
Kirch@@ 28402
achen 28400
Paris 28389
äf@@ 28354
na 28327
mp@@ 28278
feh@@ 28251
techn@@ 28236
eck@@ 28233
also 28226
län@@ 28215
zweite 28214
Folge 28196
Jahres 28180
Außerdem 28152
woh@@ 28142
asi@@ 28108
lang@@ 28094
see 28076
spiel@@ 28076
unk@@ 28065
Beispiel 28062
10. 28037
chte 28031
letz@@ 28004
wirk@@ 27989
igkeit 27957
Um 27951
pro@@ 27951
Durch@@ 27946
fall 27932
stark 27925
tel@@ 27921
ien@@ 27918
Paul 27887
ef@@ 27887
Wahl@@ 27805
selben 27771
darunter 27765
lei@@ 27735
zehn 27725
Landkreis 27710
weg 27683
21 27661
handelt 27660
Ed@@ 27658
Regierung 27643
ache 27630
mel@@ 27628
ehemaligen 27622
ei 27618
Höhe 27617
up@@ 27611
lange 27582
los 27581
Zur 27571
nehmen 27571
Pr@@ 27543
Sen@@ 27501
findet 27496
tlich 27495
tigt 27494
Unter 27486
Vier@@ 27466
Ser@@ 27448
Gemein@@ 27444
ari@@ 27432
tritt 27423
liches 27412
ül@@ 27407
heutigen 27384
Bor@@ 27380
ück@@ 27365
Christ@@ 27354
amen 27293
anz 27292
tt@@ 27288
nte 27280
kurz 27264
tre@@ 27244
ade 27199
Musik 27186
mehr@@ 27183
Lan@@ 27167
11. 27156
enth@@ 27154
ütz@@ 27139
enberg 27082
ai 26973
amerikanischen 26961
1994 26952
24 26918
ften 26893
Kirchen@@ 26878
Bes@@ 26817
io 26806
hand@@ 26793
ay 26789
ahn@@ 26758
wes@@ 26739
Inn@@ 26711
Bahn@@ 26695
kor@@ 26673
süd@@ 26637
nten 26611
Besch@@ 26609
1997 26604
asch@@ 26599
gegenüber 26594
gu@@ 26592
Mil@@ 26576
Verwaltungs@@ 26574
olog@@ 26538
zogen 26532
form 26470
2,@@ 26459
Te@@ 26389
1996 26376
0@@ 26373
1992 26351
Team 26348
Österreich 26320
rig@@ 26299
sowohl 26287
Serie 26282
dorf 26251
esch@@ 26229
lan@@ 26225
Haup@@ 26224
veröffentlicht 26217
= 26198
liga 26188
üh@@ 26167
gründete 26165
Far@@ 26163
Sek@@ 26149
zahlreiche 26127
weil 26105
Fernseh@@ 26100
lage 26099
Spiel 26051
west@@ 26020
gek@@ 25952
Burg 25948
Sol@@ 25900
französischen 25899
lig@@ 25877
lungen 25845
fra@@ 25842
ve 25789
vers@@ 25779
zudem 25760
1995 25750
Einzel@@ 25750
geboren 25750
Sa@@ 25742
Pi@@ 25741
Im@@ 25701
Kreis 25666
amp@@ 25646
mat@@ 25634
Krieg 25630
zeigt 25627
eit@@ 25615
kirche 25611
Syn@@ 25610
Welt 25607
1991 25606
fanden 25586
werk@@ 25567
erg@@ 25551
ca. 25527
wor@@ 25520
ce 25494
for@@ 25485
Erst@@ 25476
gegeben 25475
essen 25459
muss 25442
statt@@ 25440
glich 25419
heit@@ 25415
ode 25407
Met@@ 25402
Kap@@ 25399
Cl@@ 25369
erei 25369
&#91; 25366
dem@@ 25364
Gegen@@ 25334
&#93; 25329
General@@ 25316
tiert 25303
80 25279
Zum 25278
danach 25275
res@@ 25274
verschiedene 25267
lauf@@ 25257
Liga 25222
eichen 25220
Sitz 25181
Kal@@ 25168
iker 25162
deck@@ 25158
Geh@@ 25150
hin 25148
1993 25120
Beg@@ 25099
Pa@@ 25065
30. 25037
omm@@ 25037
ote 25021
Mark@@ 25020
bereich 24980
besuchte 24972
Alter 24968
gehen 24959
standen 24949
gemeinsam 24916
isen 24914
nt 24908
í@@ 24907
gleichen 24904
sw@@ 24895
gesetz@@ 24846
Po@@ 24843
Insel 24841
besonders 24823
ich 24817
gehören 24805
Tur@@ 24781
gs 24778
21. 24758
uk@@ 24746
schie@@ 24649
enburg 24614
lichkeit 24612
gruppe 24602
Professor 24574
kel 24564
dis@@ 24530
schn@@ 24518
ms 24516
0,@@ 24501
mals 24471
gs@@ 24459
altung 24428
kn@@ 24411
Bürger@@ 24399
Studi@@ 24399
22 24395
setzung 24349
fäl@@ 24339
rie@@ 24336
23 24322
We@@ 24320
machte 24316
Vertrag 24311
genen 24242
spieler 24242
ennung 24236
doch 24232
Sommer 24223
Europ@@ 24218
yl@@ 24214
Krank@@ 24210
res 24202
Hamburg 24200
Gemeinden 24192
beispielsweise 24165
Res@@ 24163
Maria 24154
iti@@ 24122
dig@@ 24117
zuvor 24092
Hol@@ 24091
Tro@@ 24081
0er 24074
1989 24066
meisten 24061
20@@ 24050
geführt 24047
far@@ 24035
kehrte 24028
ock@@ 24025
Fe@@ 24015
London 24013
Rei@@ 24009
Du@@ 23989
Com@@ 23979
Reichs@@ 23975
je@@ 23964
sieben 23960
weg@@ 23941
Dem@@ 23928
burger 23928
Spieler 23918
ente 23906
tä@@ 23891
lau@@ 23871
kamen 23833
Mutter 23828
di 23826
uren 23814
lag@@ 23810
itt@@ 23805
heits@@ 23795
möglich 23787
leit@@ 23742
Konz@@ 23709
mei@@ 23694
ev@@ 23659
teilweise 23635
hinaus 23628
spek@@ 23622
Ha@@ 23619
ja 23616
aller 23586
arch@@ 23585
son@@ 23581
befinden 23571
trä@@ 23563
bereit@@ 23559
weit 23552
arbeitet 23548
ordnung 23536
ure 23481
Mann 23451
Pol@@ 23448
halb 23422
tigte 23401
Schweiz 23398
per 23398
tion@@ 23394
zusammen@@ 23389
ath@@ 23374
Werke 23372
Kn@@ 23362
Cor@@ 23359
gelang 23356
Hor@@ 23337
berger 23329
tro@@ 23315
Europa 23267
atz@@ 23266
schul@@ 23260
ester 23249
aler 23247
genutzt 23239
ies 23236
folge 23230
Mot@@ 23229
Dis@@ 23213
größ@@ 23202
ks@@ 23195
gelegt 23191
kar@@ 23185
ost@@ 23174
Gal@@ 23172
mann@@ 23165
Gest@@ 23157
arbeit@@ 23156
Kin@@ 23154
Georg 23152
Gesamt@@ 23125
Prof@@ 23116
DDR 23112
Ho@@ 23112
lie@@ 23112
25. 23075
rei@@ 23058
Schloss 23056
League 23034
At@@ 23017
Arten 23013
ann 22954
Bed@@ 22949
Gro@@ 22938
Klein@@ 22938
Rad@@ 22934
ihnen 22930
ack@@ 22902
zentr@@ 22899
179@@ 22895
leb@@ 22895
Vereinigten 22892
26. 22887
ungsp@@ 22881
ice 22880
eigene 22865
Strecke 22856
ren 22853
buch 22843
Por@@ 22799
22. 22787
daher 22785
emp@@ 22785
pre@@ 22780
Kreuz@@ 22775
Bal@@ 22772
tu@@ 22772
ät@@ 22755
Armee 22754
Frei@@ 22735
absolvierte 22704
ator 22703
ehr@@ 22702
satz 22692
Fern@@ 22687
ates 22676
gebracht 22667
Hal@@ 22657
veröffentlichte 22657
ó@@ 22618
atz 22613
mittel@@ 22607
nachdem 22605
gän@@ 22602
anischen 22594
dau@@ 22534
folgende 22523
Mi@@ 22509
Franz 22505
wechsel@@ 22491
Spielen 22485
ichten 22482
ey 22465
Bild@@ 22453
Betrieb 22420
70 22388
Studium 22374
fläche 22355
einz@@ 22337
Mitglieder 22320
ren@@ 22306
ano 22302
versch@@ 22278
ord 22270
ver 22269
ft@@ 22258
H 22246
aw@@ 22246
Danach 22240
Fußball@@ 22211
Arbeits@@ 22197
90 22183
200 22175
Ter@@ 22170
De@@ 22169
etwas 22166
Ausbildung 22164
Reihe 22145
28. 22144
kleinen 22139
win@@ 22129
Deutsche 22113
Wil@@ 22113
ci@@ 22108
24. 22097
ze@@ 22093
gegen@@ 22062
Geb@@ 22048
stan@@ 22032
häufig 22020
ir 22016
itä@@ 21999
Saint 21997
Haf@@ 21965
Ludwig 21948
aufgenommen 21929
Tag 21926
weisen 21923
star@@ 21915
weit@@ 21911
reichen 21910
bek@@ 21900
Bruder 21891
seit@@ 21885
kein 21879
ro 21872
wär@@ 21867
einigen 21862
ähn@@ 21859
Weitere 21844
ys 21836
23. 21827
direkt 21817
bert 21807
stein@@ 21801
entstanden 21800
Mer@@ 21785
ges 21770
atur 21765
Ersten 21764
net@@ 21737
Dreh@@ 21736
Militär@@ 21729
1972 21724
beide 21724
hielt 21719
Techn@@ 21711
eile 21693
1988 21687
acht@@ 21685
1933 21668
Vol@@ 21648
sicht 21643
Gast@@ 21641
annte 21638
La 21633
Sy@@ 21615
fung 21612
deutlich 21581
sche 21581
kleine 21551
San@@ 21549
Dat@@ 21543
letzte 21536
Hier 21531
oph@@ 21497
Zwischen 21494
geschlossen 21494
Politiker 21477
fol@@ 21459
27. 21441
angeb@@ 21434
ram@@ 21422
nah@@ 21410
wand@@ 21407
alität 21397
äre 21397
issen 21379
spiele 21345
dienst 21339
legte 21322
amm 21285
stoff@@ 21284
alb@@ 21282
anten 21279
erreicht 21270
Kat@@ 21269
eben 21268
hän@@ 21248
cht@@ 21239
id 21227
Gemeinde@@ 21226
Bahnhof 21224
Stand@@ 21223
ak 21203
hinter 21203
Bereits 21188
Luft@@ 21184
stellungen 21182
Plan@@ 21179
Bru@@ 21176
Mün@@ 21159
neu@@ 21129
Michael 21121
1980 21114
Olympischen 21109
zwar 21104
ski 21094
The@@ 21093
ager 21089
ud@@ 21084
gebäude 21077
somit 21056
ös@@ 21050
lauf 21037
assung 21027
stelle 21021
organis@@ 21019
schaft@@ 21011
Ag@@ 21003
ip@@ 21003
lässt 20998
iges 20995
Fu@@ 20984
Prot@@ 20981
schrift 20978
außerdem 20977
Rhein@@ 20969
hausen 20958
Museum 20955
Buch 20949
Hy@@ 20934
assi@@ 20926
los@@ 20916
lebte 20894
zy@@ 20889
Schn@@ 20881
All@@ 20873
führen 20872
zt 20858
mm 20852
ursprünglich 20852
richtung 20849
Pet@@ 20842
vielen 20841
La@@ 20824
nor@@ 20820
schied 20814
sl@@ 20808
ander@@ 20798
diente 20782
ther@@ 20775
1987 20765
29. 20764
zählt 20756
² 20747
tungs@@ 20746
Brü@@ 20735
ennen 20735
1970 20727
Prin@@ 20725
leh@@ 20723
ali@@ 20722
Klasse 20704
wald 20704
stammt 20703
Nähe 20685
ore 20679
recht@@ 20672
ling 20660
Tal@@ 20659
ron@@ 20649
ol 20648
Ziel 20639
sdorf 20635
County 20629
Den 20629
exist@@ 20624
ernannt 20600
Thomas 20597
werke 20567
Stelle 20560
ag 20544
ammer 20533
mehreren 20516
Lei@@ 20512
Sozial@@ 20508
enhaus 20504
istische 20492
Linie 20416
1939 20412
Über 20407
Finale 20398
amb@@ 20375
Erd@@ 20362
ff 20348
iten 20343
grenz@@ 20337
Berliner 20330
th 20326
Innen@@ 20281
keit 20281
zeug 20279
verkehr 20277
igung 20254
è@@ 20252
viel@@ 20229
langen 20224
Wasser 20197
AG 20188
bild 20174
ären 20171
Dre@@ 20166
Siehe 20161
ahl@@ 20145
gewesen 20137
Gi@@ 20133
auen 20130
gar@@ 20130
dafür 20123
Präsident 20122
1974 20116
macht 20110
Ehr@@ 20105
1938 20103
südlich 20103
sozial@@ 20102
Wieder@@ 20098
Gef@@ 20081
Pra@@ 20080
sion 20076
ech@@ 20074
film 20074
erwähnt 20065
Mat@@ 20045
anschließend 20040
ors 20039
ße 20015
1986 20003
frei@@ 19998
ast 19992
halt 19991
spr@@ 19978
gleich 19971
un 19958
pro 19935
26 19931
Robert 19928
Zudem 19927
Zweit@@ 19927
kal@@ 19924
1984 19908
Bay@@ 19897
ane 19891
Bezeichnung 19889
dritten 19867
28 19861
Gründung 19857
ena 19842
hof 19839
anische 19833
erw@@ 19826
San 19825
üsse 19808
Holz@@ 19791
imm@@ 19789
erer 19786
š@@ 19782
31. 19774
folgt 19768
dr@@ 19760
Einwohnern 19757
nord@@ 19756
Kreis@@ 19754
Mos@@ 19739
sport@@ 19734
Erfolg 19724
Vi@@ 19711
Spiele 19707
ino 19701
gesellschaft 19697
sozi@@ 19691
chn@@ 19680
punkt 19670
hoch@@ 19660
ass 19659
weniger 19659
Bot@@ 19641
Preis 19622
Pflanz@@ 19617
ry 19614
Ihre 19606
ahl 19606
Ach@@ 19603
entwickelte 19597
Martin 19579
mi@@ 19577
Rom@@ 19576
verheiratet 19570
ley 19569
1985 19564
National 19564
1975 19557
Geschäfts@@ 19541
Gem@@ 19532
su@@ 19530
Dor@@ 19510
gericht 19479
rück@@ 19479
zieh@@ 19479
engl@@ 19446
iere 19433
erster 19430
Chr. 19425
arten 19412
bil@@ 19412
ht 19411
1978 19396
grund@@ 19367
ih@@ 19349
heiratete 19347
Hof@@ 19345
Ol@@ 19336
35 19323
ah 19323
1944 19310
eri@@ 19308
Produktion 19307
cm 19303
anc@@ 19290
größte 19279
Kinder@@ 19270
Hil@@ 19268
schei@@ 19268
annt 19251
Dieses 19227
fahrt 19219
Rö@@ 19217
Mod@@ 19202
Wald@@ 19199
Stad@@ 19194
Drit@@ 19178
bezirk 19177
fort 19177
größten 19167
Nachfolger 19153
ihres 19153
isiert 19136
genden 19131
Mel@@ 19118
Win@@ 19118
tigkeit 19116
amerikanischer 19106
Sprache 19092
führer 19063
Schweizer 19049
aufge@@ 19049
fahren 19049
Zwei@@ 19042
27 19036
ta 19031
1976 19027
Spr@@ 19027
1968 19017
ingt 19012
gaben 19010
3,@@ 19003
alis@@ 18977
Herr@@ 18974
Bek@@ 18964
Wirtschafts@@ 18958
500 18952
ters 18952
Si@@ 18951
uh@@ 18944
leg@@ 18922
International 18916
anti@@ 18915
itäts@@ 18912
lossen 18907
ahr@@ 18902
co 18889
stri@@ 18885
alter 18873
ion@@ 18867
aut@@ 18861
1969 18853
Rund@@ 18852
führten 18851
To@@ 18850
1983 18834
Tour@@ 18831
1979 18809
Hö@@ 18799
endet 18780
jahr 18779
1973 18773
Neben@@ 18760
ius 18754
Weg 18746
1982 18734
sied@@ 18725
nördlich 18693
Köln 18688
bildet 18666
1971 18665
Grund 18664
mach@@ 18663
Beim 18654
Rang 18648
West 18647
Feld@@ 18631
onn@@ 18628
bildung 18620
Fer@@ 18614
Winter@@ 18611
befand 18607
reiben 18601
dar 18594
gebildet 18592
1960 18588
ium 18585
yn@@ 18575
Schiff@@ 18574
Funk@@ 18569
adi@@ 18569
ligen 18563
ats@@ 18554
Institut 18548
politischen 18546
frü@@ 18545
Familienname 18539
leist@@ 18536
jährigen 18535
verband 18534
welches 18534
bu@@ 18533
mor@@ 18526
schwar@@ 18514
umfasst 18514
ders 18507
Pan@@ 18506
hier@@ 18501
hren 18501
ahlen 18490
denk@@ 18490
Kath@@ 18481
ue 18473
Kop@@ 18472
wich@@ 18471
setzt 18468
Flu@@ 18455
acher 18452
ose 18441
ds 18436
ganz 18436
betrieb 18415
wagen 18400
Damit 18399
Finanz@@ 18398
Chem@@ 18379
Grenz@@ 18374
strah@@ 18369
City 18368
Teile 18343
Euro 18326
Sil@@ 18325
178@@ 18314
Besitz 18311
Meister 18310
för@@ 18309
dient 18298
esischen 18294
ump@@ 18287
best@@ 18277
ly 18268
uss 18266
Truppen 18265
Verbindung 18238
alte 18235
Frankfurt 18229
Kloster 18229
Außen@@ 18227
II 18224
Tage 18222
Kaiser 18209
brau@@ 18194
Pil@@ 18193
1950 18192
gende 18188
ef 18186
ologischen 18171
ative 18160
Bun@@ 18150
nimmt 18149
dert 18137
ehemalige 18131
! 18121
Johannes 18116
elten 18111
Bro@@ 18110
Staffel 18106
Not@@ 18088
spielt 18084
1981 18082
Je@@ 18082
Joseph 18080
lief 18070
och@@ 18063
Hoh@@ 18058
por@@ 18052
stand@@ 18049
ese 18048
Carl 18039
England 18025
Rot@@ 18023
oth@@ 18020
minister 18019
Part@@ 18017
alismus 18011
ings 18006
erb@@ 18005
Raum 17991
gabe 17990
einmal 17984
ion 17984
Anschließend 17953
tungen 17950
entwickelt 17946
End@@ 17930
Sel@@ 17929
benannt 17922
brachte 17918
sta@@ 17915
Rek@@ 17906
Z 17899
chter 17899
Del@@ 17895
1946 17877
Tab@@ 17877
Wahl 17864
Lau@@ 17859
Han@@ 17853
heiten 17849
bin@@ 17845
Otto 17843
Italien 17836
Dom@@ 17828
32 17820
do 17806
rol@@ 17803
ügel 17792
Komm@@ 17783
ante 17768
hohen 17767
Fin@@ 17764
etzt 17755
uli@@ 17744
ob 17739
Aut@@ 17732
Sieg 17728
Industri@@ 17727
Den@@ 17725
teten 17718
Bischof 17717
Hälfte 17710
elte 17702
lungs@@ 17694
ic 17688
äuf@@ 17685
damaligen 17683
1964 17681
Tel@@ 17679
lichkeiten 17679
Mont@@ 17674
Gold@@ 17668
ition 17667
Zuge 17666
tive 17662
reib@@ 17660
v. 17655
Nr. 17647
Leitung 17634
Rennen 17628
edi@@ 17591
bruch 17587
ps 17573
Politik 17570
Fra@@ 17565
System 17565
Os@@ 17558
struk@@ 17558
iele 17551
nahe 17549
45 17547
belegte 17537
Vari@@ 17536
erfolg@@ 17528
mitt@@ 17514
Tran@@ 17497
GmbH 17494
1977 17486
Gebi@@ 17486
ensi@@ 17484
Landes 17481
Bra@@ 17479
pr@@ 17467
wenig 17465
Wo@@ 17454
Cal@@ 17442
Grenze 17431
Wein@@ 17421
ats 17412
oo@@ 17409
essi@@ 17403
Staat@@ 17400
baren 17396
gewiesen 17387
städ@@ 17387
Stra@@ 17384
gesehen 17384
krit@@ 17380
Amts@@ 17359
Str@@ 17359
weiter@@ 17337
Red@@ 17328
lech@@ 17325
endorf 17322
fiel 17321
upp@@ 17321
nutz@@ 17314
Runde 17312
französische 17307
tsch@@ 17300
1967 17294
Medi@@ 17294
zahl 17292
zen@@ 17291
00 17285
angs@@ 17283
iner 17280
Ernst 17275
Kas@@ 17251
Des@@ 17237
ebenso 17228
fort@@ 17221
Länge 17217
gebi@@ 17216
Wor@@ 17212
Gebur@@ 17210
besteh@@ 17210
Art@@ 17208
Ihr 17207
V. 17198
Werk@@ 17194
rich 17189
britischen 17167
zeichnet 17166
els@@ 17158
wieder@@ 17156
ed 17143
Begriff 17142
Arbeiten 17123
reiche 17123
Leipzig 17109
Hu@@ 17091
SV 17087
äss@@ 17087
fest 17083
weist 17081
Don@@ 17072
rech@@ 17071
rän@@ 17071
Division 17063
elt@@ 17061
Pat@@ 17058
besitzt 17058
entfernt 17057
kap@@ 17057
Kunst 17055
Bad 17047
Tour 17046
wir@@ 17039
ica 17035
tag 17034
Kanton 17029
Nationalmannschaft 17029
ald 17016
Ortsteil 17013
1965 17012
sogar 16988
ausen 16987
Eing@@ 16974
Histor@@ 16967
á 16966
j 16962
Stamm@@ 16961
verk@@ 16957
Geg@@ 16956
Herrschaft 16954
schein@@ 16952
stellten 16950
ama 16947
bevor 16947
berg@@ 16942
bra@@ 16939
leitete 16936
Blü@@ 16920
umen 16920
Char@@ 16917
einzige 16911
gene 16909
aren 16898
machen 16897
steh@@ 16892
Fried@@ 16884
Jo@@ 16865
stie@@ 16864
Aufgrund 16863
Ehe 16856
Schwar@@ 16856
lebt 16856
ets 16855
Zw@@ 16849
by 16849
29 16838
öh@@ 16832
östlich 16832
verein 16825
Fran@@ 16822
maß@@ 16822
beträgt 16819
fei@@ 16806
See 16801
Stil 16799
ae 16798
ł@@ 16798
Regierungs@@ 16775
bro@@ 16770
deutsch 16768
ki 16763
1961 16761
Gre@@ 16755
rieb 16748
wuchs 16744
konz@@ 16734
Sam@@ 16728
mut@@ 16723
Projek@@ 16717
Leiter 16714
Künst@@ 16712
verfü@@ 16710
Christian 16709
Zentrum 16703
sa@@ 16701
evangel@@ 16700
setzen 16698
üs@@ 16697
digt 16696
westlich 16694
präs@@ 16692
Col@@ 16687
1962 16679
mu@@ 16663
Rich@@ 16658
weiterhin 16655
ausgezeichnet 16646
so@@ 16637
staat@@ 16636
Verein@@ 16628
old 16628
späteren 16621
forder@@ 16611
ograf@@ 16609
1940 16602
ehen 16597
1966 16596
Op@@ 16588
Ap@@ 16581
Fall 16578
Zug@@ 16573
ym@@ 16572
1963 16568
erischen 16566
linie 16556
Ang@@ 16554
Republik 16548
ite 16545
verkehr@@ 16540
75 16535
wohl 16523
Son@@ 16512
klasse 16505
bisher 16501
aill@@ 16499
erseits 16490
Heimat@@ 16477
Ul@@ 16474
Bayern 16457
wissenschaft@@ 16455
dig 16453
gefunden 16439
wür@@ 16435
wehr 16434
Viz@@ 16422
Männer 16418
Val@@ 16417
Mc@@ 16415
gn@@ 16413
bild@@ 16407
herr@@ 16404
frühen 16393
1956 16390
Dorf@@ 16390
verbunden 16387
Ir@@ 16380
1952 16369
kämp@@ 16362
Sachsen 16361
äuß@@ 16357
studi@@ 16351
° 16343
entlichen 16341
oben 16341
serv@@ 16340
Leg@@ 16339
1949 16337
Firma 16321
internationalen 16321
ase 16320
1941 16311
Weit@@ 16308
Sand@@ 16305
nehm@@ 16305
stor@@ 16299
tierte 16294
Sub@@ 16292
1942 16287
mo@@ 16282
eher 16273
wi@@ 16262
Theater 16254
ong@@ 16251
Wie 16250
sten@@ 16233
1948 16232
ard@@ 16232
tliche 16229
angen 16228
Pap@@ 16227
Person@@ 16222
Fil@@ 16213
Später 16200
tigung 16198
erie 16197
Emp@@ 16195
Kommun@@ 16195
fü@@ 16195
Is@@ 16187
erzielte 16178
Zahl 16176
Polen 16175
Ton@@ 16174
Mich@@ 16173
klein@@ 16167
1943 16156
nie 16155
typ@@ 16153
bed@@ 16147
Halb@@ 16146
asp@@ 16142
Fläche 16138
Dienst@@ 16135
ther 16128
runde 16123
Sar@@ 16120
bs 16120
1.@@ 16114
histor@@ 16105
uten 16096
zum@@ 16096
Wes@@ 16094
1958 16083
enthält 16082
positi@@ 16082
wäh@@ 16077
Park 16075
aktiv 16055
agt 16050
sberg 16047
Hilfe 16042
schaf@@ 16042
spar@@ 16042
Geographie 16040
würde 16040
verlor 16028
Forschungs@@ 16017
Privat@@ 15992
ständige 15989
Frank@@ 15987
breit@@ 15983
Ren@@ 15969
kauf@@ 15959
ziehen 15948
Erst 15944
dro@@ 15939
dest@@ 15927
müssen 15919
Produk@@ 15900
Il@@ 15897
entlich 15896
schluss 15891
kun@@ 15889
our@@ 15879
Lö@@ 15875
ografie 15868
Literatur 15857
Fol@@ 15847
ild@@ 15847
dete 15845
rach@@ 15842
lte 15838
Wol@@ 15836
platz@@ 15813
lediglich 15802
für@@ 15801
welt@@ 15799
les 15797
aj@@ 15795
tischen 15794
Meisterschaft 15787
teilt 15780
ara 15779
Turn@@ 15767
möglich@@ 15766
Män@@ 15764
tere 15759
nis@@ 15746
Wirtschaft 15743
Kultur 15722
ess 15721
Wider@@ 15705
zeugen 15705
Sommer@@ 15692
fall@@ 15692
spä@@ 15691
druck 15679
Arch@@ 15677
schriften 15671
Wel@@ 15668
Akademie 15656
Ac@@ 15653
stag 15653
Vor 15652
ierungen 15651
lein 15651
weis@@ 15647
bare 15646
endete 15643
William 15632
David 15631
Stud@@ 15630
akter@@ 15607
Ste@@ 15606
Wiener 15605
Med@@ 15600
lau 15598
Fot@@ 15593
aub@@ 15581
Meth@@ 15578
rist@@ 15578
reich 15573
lebten 15570
Mau@@ 15565
ox@@ 15553
bekann@@ 15543
Schwer@@ 15539
4,@@ 15518
General 15512
Pe@@ 15512
inn 15510
bilden 15509
X 15507
leitung 15498
1957 15497
Sä@@ 15497
Hinter@@ 15489
ata 15484
sollten 15484
Lo@@ 15481
ologische 15481
tin@@ 15474
beteiligt 15473
1959 15464
loss@@ 15463
fen@@ 15451
Beschreibung 15441
Bahn 15436
ater 15433
direk@@ 15423
westlichen 15423
Kü@@ 15421
Regel 15421
65 15419
itäten 15419
Gattung 15418
College 15417
van 15416
Pok@@ 15413
Weltmeisterschaft 15412
igt 15405
abge@@ 15397
Funktion 15393
1947 15387
tei 15385
Ob@@ 15382
184@@ 15378
Vorsitzender 15376
ven@@ 15376
Schiff 15372
folgten 15365
wen@@ 15365
politische 15360
qualifiz@@ 15360
du 15358
gehörten 15358
Version 15357
teilung 15349
Höh@@ 15347
Typ@@ 15347
allgem@@ 15334
cken@@ 15329
ella 15320
sur 15316
ack 15299
ritt 15299
Da@@ 15298
Lü@@ 15293
Schlacht 15276
Verfass@@ 15264
Bürgermeister 15263
Abschluss 15258
rö@@ 15256
stamm@@ 15254
erne 15251
Alexander 15245
tions@@ 15245
Verwendung 15241
öffentlichen 15240
Rel@@ 15238
amerikanische 15233
pol@@ 15230
Gott@@ 15223
test@@ 15218
Lig@@ 15212
ville 15208
äs@@ 15199
hohe 15192
scher 15190
ersetzt 15184
wirkte 15184
Richard 15176
verz@@ 15169
Prä@@ 15162
ini 15162
geschrieben 15157
ian 15151
pen@@ 15147
ücke 15146
Hier@@ 15143
Rep@@ 15140
Publik@@ 15116
produz@@ 15116
brü@@ 15108
fallen 15092
basi@@ 15090
Sonn@@ 15083
Zeitpunkt 15081
dien@@ 15078
europ@@ 15076
entschei@@ 15063
wert 15058
erreichen 15051
1934 15041
Sied@@ 15040
1954 15039
Dec@@ 15037
wollte 15033
1936 15025
Burg@@ 15016
1920 15013
yp@@ 15009
eu@@ 15007
gten 15004
ifen 15004
1953 15002
gern 15000
Jur@@ 14999
Pass@@ 14993
Sitz@@ 14988
viel 14981
Für@@ 14979
ativen 14975
ank 14967
klass@@ 14963
mäß@@ 14954
Koh@@ 14949
Uhr 14948
ürz@@ 14941
1919 14939
Oper@@ 14936
old@@ 14935
Mari@@ 14933
atik 14930
zahlreichen 14927
1955 14925
liefer@@ 14909
dor@@ 14904
neun 14897
1918 14893
Univers@@ 14868
gliedert 14859
Mitarbeiter 14857
entiert 14856
Kol@@ 14841
system 14841
erheb@@ 14830
sitz 14825
Ti@@ 14821
mannschaft 14821
Union 14818
ufen 14814
ni@@ 14807
ink@@ 14804
bürger@@ 14803
heraus 14798
jah@@ 14786
stände 14778
itzer 14775
riff 14769
ied@@ 14768
verläuft 14763
nam@@ 14761
Position 14757
Sc@@ 14755
zentrum 14752
etten 14748
vis@@ 14748
Dollar 14739
ales 14739
č@@ 14735
Cup 14733
ins@@ 14731
hel@@ 14728
setz@@ 14715
lock@@ 14713
enheit 14712
illi@@ 14712
schutz 14709
Europameister@@ 14693
Pau@@ 14689
Künstler 14679
betrieb@@ 14674
Man 14672
cker 14662
sollen 14650
trägt 14645
wenige 14636
ust 14628
Instit@@ 14619
ock 14611
Gruppen 14609
Spielzeit 14602
III. 14599
School 14599
siehe 14595
Hochschule 14593
Projekt 14590
fil@@ 14581
Selbst@@ 14580
finanz@@ 14579
eröffnet 14574
bald 14562
fu@@ 14562
schlag 14553
Mu@@ 14552
stab@@ 14537
beendete 14534
liste 14532
är 14532
Ju@@ 14530
Regional@@ 14529
hauptsächlich 14529
… 14524
kenn@@ 14514
Verk@@ 14506
knapp 14504
lig 14501
nern 14499
ichtet 14497
Pres@@ 14496
36 14489
rieb@@ 14488
nächsten 14485
Roman 14477
Heute 14475
besten 14471
ire 14470
Mehr@@ 14458
regel@@ 14452
Bus@@ 14447
gem 14446
Büh@@ 14442
ek 14440
ha 14436
Fort@@ 14431
Hermann 14426
wo@@ 14423
Anzahl 14420
sth@@ 14416
Sonder@@ 14404
verw@@ 14404
off 14393
serie 14392
Renn@@ 14381
bot 14381
geleg@@ 14378
moder@@ 14375
fs 14372
tlichen 14372
Rom 14366
ix 14353
geschütz@@ 14351
Schutz@@ 14348
Kun@@ 14346
‘ 14346
Verfügung 14342
gesamte 14342
jek@@ 14342
kop@@ 14335
uz@@ 14328
Führ@@ 14327
früher 14327
grenzt 14323
militär@@ 14318
sburg 14313
Et@@ 14312
ust@@ 14312
erfolgreich 14308
Vertreter 14305
une 14304
keinen 14303
eien 14289
russ@@ 14289
trol@@ 14286
zeichnung 14286
Doppel@@ 14284
1937 14282
klei@@ 14281
Baden 14280
ichte 14278
Ban@@ 14275
schau@@ 14275
1951 14270
Mann@@ 14261
ehemaliger 14250
hre 14248
treten 14241
ong 14240
leich@@ 14239
ellen@@ 14231
betrug 14230
Tätigkeit 14217
Pos@@ 14209
ca 14208
Ham@@ 14207
China 14204
Roll@@ 14202
bus 14195
deten 14180
oden 14180
Handlung 14178
Stadtteil 14177
Sau@@ 14160
richt 14159
uer 14156
Rein@@ 14153
ya 14148
Bil@@ 14147
unterstütz@@ 14147
Fle@@ 14139
Gegensatz 14137
mussten 14136
Unterstützung 14131
Lag@@ 14129
hör@@ 14128
zü@@ 14127
+ 14122
trolle 14120
1935 14115
Ly@@ 14114
einf@@ 14111
reten 14109
del@@ 14105
flu@@ 14101
tum 14088
opp@@ 14084
äd@@ 14078
eme 14074
Spe@@ 14071
Dok@@ 14070
Q@@ 14067
leiter 14066
lö@@ 14066
Trainer 14060
fach 14060
ns 14059
Organisation 14058
ika 14056
ader 14047
Eltern 14042
Max 14039
darüber 14037
hervor@@ 14035
Juni@@ 14031
vermutlich 14029
ause 14017
etzung 14014
sech@@ 14007
formen 14005
Eisenbahn@@ 14003
bringen 14001
liegenden 14001
sprech@@ 13997
Jean 13991
uc@@ 13982
igkeiten 13967
ume 13967
sprach@@ 13966
such@@ 13959
Verkehr 13958
1930 13956
Denkmal@@ 13955
ränk@@ 13954
belie@@ 13953
aktu@@ 13952
wahl 13946
Metern 13932
Evangel@@ 13928
James 13927
funk@@ 13926
Hen@@ 13922
atur@@ 13901
bor@@ 13900
Dresden 13894
for 13888
schnit@@ 13884
kör@@ 13883
wander@@ 13882
we 13878
33 13875
plan@@ 13864
san@@ 13863
Anti@@ 13842
34 13838
George 13836
gespielt 13836
hab@@ 13831
auses 13830
Nachbar@@ 13823
arbeit 13819
park 13812
Berg 13808
aut 13807
World 13804
getragen 13802
anlage 13801
tag@@ 13792
Anlage 13781
vollständig 13778
dadurch 13769
erungs@@ 13769
no 13767
gleichzeitig 13741
öff@@ 13740
Verlag 13738
daraufhin 13738
Kauf@@ 13735
ask@@ 13731
sam 13729
Ni@@ 13723
Soldaten 13717
ffen 13716
Gymnasium 13708
Energ@@ 13705
ko 13696
ands 13692
Bat@@ 13691
Kli@@ 13691
ola 13686
177@@ 13684
Spitz@@ 13676
Vorgän@@ 13676
Lang@@ 13663
Schüler 13645
Plat@@ 13639
Dam@@ 13638
bietet 13631
Offiz@@ 13630
mar 13629
schlä@@ 13628
Wehr@@ 13626
eilen 13615
üst@@ 13614
name 13611
legen 13606
ßer@@ 13606
Nation@@ 13590
rom@@ 13580
Eh@@ 13579
hy@@ 13577
Psych@@ 13575
Go@@ 13555
einzelnen 13547
Stim@@ 13546
frei 13543
Weltmeisterschaften 13542
31 13536
TV 13536
rh@@ 13536
ändert 13531
regelmäßig 13527
komp@@ 13521
indung 13514
gefähr@@ 13512
erwarb 13510
Wahr@@ 13499
za 13499
klärung 13495
denn 13490
64 13488
itt 13488
deut@@ 13487
wertung 13482
Dienst 13478
ais@@ 13474
the@@ 13472
Mad@@ 13467
verließ 13466
wissenschaften 13456
stit@@ 13453
Reich 13445
Mess@@ 13444
Indi@@ 13441
Woh@@ 13438
Kolon@@ 13437
Dr. 13436
Hof 13436
Bern@@ 13424
Gleich@@ 13422
Pot@@ 13422
bru@@ 13422
Ku@@ 13405
überwiegend 13402
en- 13400
d. 13393
Alle 13391
Flor@@ 13391
Hauptstadt 13390
Kenn@@ 13388
ländischen 13386
1914 13385
chin@@ 13380
ō 13380
Meister@@ 13377
Stiftung 13376
1928 13367
Anschluss 13367
har@@ 13359
eff@@ 13357
Mannschaften 13349
enbach 13343
Motor@@ 13334
Herz@@ 13330
Sz@@ 13329
lok@@ 13327
persön@@ 13327
Jugend 13323
lige 13323
indem 13320
000 13319
ritten 13317
ents 13315
Muse@@ 13313
heraus@@ 13311
Parti@@ 13308
geg@@ 13305
Volk@@ 13304
gol@@ 13303
ee 13299
Hannover 13297
zeichen 13295
Verlauf 13292
Do@@ 13282
zuletzt 13281
Artikel 13280
Tür@@ 13279
Beit@@ 13277
abil@@ 13264
fi@@ 13258
wesen 13257
Betriebs@@ 13253
ischem 13253
Tex@@ 13252
förm@@ 13245
Fluss 13243
Zwei 13241
ständ@@ 13235
übernommen 13224
25@@ 13221
leicht 13213
wiederum 13212
dienst@@ 13210
gemacht 13205
aktion 13202
Einfluss 13198
1929 13193
Dazu 13193
entsprech@@ 13188
Main 13186
zeigen 13185
ausschließlich 13172
historischen 13172
will 13171
Entwickl@@ 13169
Kurz@@ 13169
Kri@@ 13168
plat@@ 13162
Les@@ 13159
Bundesliga 13154
Titel@@ 13154
keits@@ 13150
Ba@@ 13142
Brie@@ 13123
endes 13123
ford 13123
trug 13117
gend 13116
da@@ 13115
etes 13113
deb@@ 13110
Wass@@ 13109
zweit@@ 13108
Gesetz@@ 13106
Vog@@ 13104
iegel@@ 13093
Deutsch@@ 13089
400 13087
achten 13085
wie@@ 13082
Direktor 13078
dt 13077
ement 13077
Österreich@@ 13073
usses 13064
verloren 13059
lten 13052
ax@@ 13051
Sprach@@ 13048
Sem@@ 13045
anne 13044
gingen 13044
sogenannten 13043
heim@@ 13042
Minuten 13032
Gut@@ 13031
lehr@@ 13031
tiger 13030
eist@@ 13024
Basis 13022
ierungs@@ 13022
ble 13019
wel@@ 13016
Japan 13015
ick 13014
mark@@ 13013
lik@@ 13008
Auftrag 13006
klassi@@ 13006
isierung 13001
fäh@@ 13000
Zusammenhang 12997
Schön@@ 12992
mindestens 12987
etz 12979
Grab@@ 12975
tak@@ 12975
Chor@@ 12973
55 12972
iff@@ 12964
schwer@@ 12958
SC 12957
Walter 12957
zeiten 12950
Zusammenarbeit 12949
Radi@@ 12948
ossen 12946
versor@@ 12941
östlichen 12941
Verwaltung 12939
gesamten 12939
Schlag@@ 12929
othek 12927
zerstört 12926
rad 12925
Lied 12920
hält 12915
Engl@@ 12901
italien@@ 12893
38 12892
ständigen 12891
gemeinschaft 12887
hinter@@ 12887
37 12884
Friedhof 12874
Zeitung 12869
galt 12862
verkauft 12862
ätz@@ 12862
oy@@ 12857
7,@@ 12853
unn@@ 12849
Tar@@ 12845
ologe 12844
Papst 12831
Rä@@ 12831
verwaltung 12826
jeder 12824
seien 12820
bri@@ 12818
Zeitschrift 12808
Rez@@ 12806
Bildung 12805
wehr@@ 12804
kreis 12802
42 12801
iel 12799
Journ@@ 12798
ball@@ 12796
lingen 12792
Phil@@ 12787
ator@@ 12787
1932 12785
Nord 12778
esse 12777
startete 12777
buch@@ 12774
Seiten 12773
under@@ 12773
entlang 12770
ō@@ 12770
willi@@ 12767
iken 12766
American 12765
kaum 12761
Monate 12759
reibt 12759
leitet 12758
bestehen 12756
änge 12754
30@@ 12749
ingungen 12745
dens 12742
yer 12739
ura 12738
Anna 12735
Darüber 12730
heutige 12725
ras@@ 12722
beck 12716
ele 12716
aille 12714
Mol@@ 12702
Sich@@ 12702
bekannten 12689
Aktiv@@ 12688
Schauspieler 12686
ämp@@ 12684
errich@@ 12681
ri 12681
Wappen 12679
eiche 12679
auff@@ 12678
Kant@@ 12674
Bon@@ 12673
Graf 12671
Zus@@ 12670
Orte 12669
Ern@@ 12667
« 12662
Bibli@@ 12656
Post@@ 12656
kün@@ 12648
schutz@@ 12644
zo@@ 12641
1900 12636
River 12631
tradition@@ 12630
entwicklung 12627
Umgebung 12618
Josef 12617
Feh@@ 12615
Ländern 12615
Club 12612
riert 12612
ken@@ 12607
atischen 12604
Rau@@ 12595
zeuge 12594
Instr@@ 12593
Alb@@ 12592
besondere 12590
heißt 12589
syst@@ 12583
Charles 12580
Chi@@ 12578
6,@@ 12568
Abteilung 12564
lieb@@ 12563
» 12563
19@@ 12562
reihe 12559
Zentral@@ 12558
rom 12553
NS@@ 12551
kti@@ 12550
schütz@@ 12549
Mass@@ 12548
usi@@ 12547
groß@@ 12544
Fal@@ 12535
fuhr 12535
verteidi@@ 12533
Physi@@ 12523
chten 12523
änden 12523
ausgetragen 12520
entum 12515
pe@@ 12515
tal 12514
ult@@ 12508
que 12506
lex@@ 12505
Comp@@ 12504
Kritik 12504
Kapelle 12503
Ther@@ 12499
spl@@ 12498
Star@@ 12491
lern 12490
großer 12488
aup@@ 12479
erfolgt 12479
bestä@@ 12477
Assi@@ 12472
riffen 12458
Leit@@ 12457
berufen 12455
Zeich@@ 12454
osen 12449
Mark 12445
Stat@@ 12443
Brun@@ 12437
keiten 12436
enzen 12432
va 12432
É@@ 12431
Gener@@ 12426
Feuer@@ 12425
Besatz@@ 12423
erreich@@ 12423
entin 12417
48 12414
mot@@ 12409
1970er 12406
zäh@@ 12402
forsch@@ 12401
0.000 12395
Thema 12395
durchgeführt 12389
nissen 12385
erhöh@@ 12382
Autor 12381
Einige 12379
welcher 12378
fli@@ 12377
trag@@ 12373
Stuttgart 12372
Jahres@@ 12368
katholischen 12368
Jag@@ 12365
use 12365
ø@@ 12365
wand 12363
entdeckt 12359
port@@ 12359
Pfar@@ 12354
Web@@ 12351
Franz@@ 12345
stätte 12344
Darstellung 12339
tenen 12335
Kamer@@ 12333
bildete 12333
berech@@ 12332
burg@@ 12332
Russland 12330
erungen 12322
betrieben 12315
Heim@@ 12313
Zürich 12312
Lim@@ 12303
inge 12303
Recht 12301
bay@@ 12298
Wi@@ 12292
affen 12290
Ker@@ 12277
Brücke 12275
44 12266
Forsch@@ 12266
iv 12266
digen 12263
1925 12261
1980er 12261
dür@@ 12258
Denk@@ 12252
ätze 12249
erstes 12248
Hör@@ 12247
Nov@@ 12247
europäischen 12246
turen 12243
Stell@@ 12242
jährlich 12238
Silber@@ 12235
ain@@ 12233
ichts@@ 12227
ile 12227
hard 12219
österreichischen 12218
ib@@ 12214
Bezirk 12213
Turm 12197
omen 12195
Fußball 12192
Krieg@@ 12192
zwölf 12187
Insgesamt 12184
weiterer 12179
Le 12174
Viel@@ 12174
Punkte 12173
Zusammen@@ 12173
gerä@@ 12165
dene 12163
Obwohl 12161
sprache 12154
ziel@@ 12153
unternehmen 12146
ando 12144
Bild 12139
preis 12134
zusätzlich 12133
ograph@@ 12125
rechte 12123
satz@@ 12123
stär@@ 12121
südlichen 12121
schnitt 12117
erbaut 12116
ars 12106
wahrscheinlich 12098
änd@@ 12098
5,@@ 12097
Hintergrund 12093
ille 12090
1927 12089
Verfahren 12081
hr 12081
Bahnstrecke 12079
akti@@ 12078
Wir@@ 12077
stammen 12075
Tier@@ 12072
ond@@ 12068
erweise 12060
echn@@ 12057
zus@@ 12057
achsen 12051
1924 12045
Ev@@ 12039
mund 12035
Dek@@ 12026
eim@@ 12025
Gol@@ 12014
titel 12014
tau@@ 12010
des@@ 12008
bur@@ 12000
schwed@@ 11998
Gebäu@@ 11992
Brau@@ 11989
nungen 11988
Steuer@@ 11981
lo 11973
Vom 11972
ild 11968
Sor@@ 11967
sodass 11965
Département 11962
Lat@@ 11960
Straßen@@ 11960
mittl@@ 11954
300 11945
Autom@@ 11945
erhal@@ 11945
vertre@@ 11945
beginnt 11944
Hir@@ 11943
Dan@@ 11934
enge 11934
falls 11934
legung 11932
Masch@@ 11931
ā@@ 11929
Daneben 11926
endung 11926
Off@@ 11924
rot@@ 11914
Sach@@ 11908
wurf 11908
russischen 11903
kel@@ 11898
Nordosten 11892
Award 11890
Dra@@ 11886
bauten 11882
‚ 11870
gehend 11868
Laufbahn 11862
Bei@@ 11861
Disk@@ 11861
Mitt@@ 11861
ys@@ 11854
Ok@@ 11851
Hon@@ 11850
bung 11848
sex@@ 11847
Allgem@@ 11843
Wech@@ 11842
fern 11842
deshalb 11830
ias 11827
Bri@@ 11824
Stück 11821
entwick@@ 11820
SPD 11818
eiler 11816
Seg@@ 11814
sätze 11814
Wall@@ 11809
ew@@ 11803
ret@@ 11794
lem 11792
verpflich@@ 11787
Wochen 11785
kunft 11782
etzen 11775
öch@@ 11775
Super@@ 11768
emen 11767
fluss 11767
Gran@@ 11764
dur@@ 11755
weite 11746
1910 11745
not@@ 11740
hung 11731
angel@@ 11729
Schutz 11728
gewand@@ 11728
Ander@@ 11724
Just@@ 11720
rechts 11716
US@@ 11705
teils 11702
sowjet@@ 11700
weitgehend 11699
mün@@ 11688
peri@@ 11685
ker@@ 11683
ligisten 11683
Alp@@ 11681
wirtschaft@@ 11681
Dr@@ 11674
Elek@@ 11674
gewinnen 11662
ap 11660
Siedlung 11659
haltung 11659
them@@ 11657
abhängig 11656
spro@@ 11654
1960er 11653
Handels@@ 11652
Tit@@ 11648
ov 11644
Markt 11643
law@@ 11643
verliehen 11643
Song 11640
höh@@ 11629
verfahren 11628
1921 11622
do@@ 11620
Freih@@ 11618
Brand@@ 11615
ktion 11612
christ@@ 11609
Seit@@ 11606
Stu@@ 11606
ont@@ 11606
Nutz@@ 11605
Can@@ 11604
Mik@@ 11602
obil@@ 11600
Eich@@ 11597
anlagen 11597
stärk@@ 11597
Bas@@ 11595
Kandid@@ 11594
forschung 11593
Königreich 11590
United 11590
Tschech@@ 11587
1990er 11586
Ven@@ 11586
Verkehrs@@ 11581
Körper@@ 11579
selten 11579
Herbst 11576
füh@@ 11576
Pfer@@ 11574
Kern@@ 11568
turm 11556
Gerichts@@ 11546
relativ 11537
Men@@ 11533
Jung@@ 11528
chron@@ 11524
äng@@ 11524
Mein@@ 11523
1931 11522
schuss 11522
Doch 11521
Gesund@@ 11521
Bezirks@@ 11520
größere 11519
dan@@ 11516
dritte 11514
Temp@@ 11504
Wind@@ 11502
Dach@@ 11500
freien 11497
ünst@@ 11496
Ins@@ 11495
anderer 11491
lers 11490
priv@@ 11480
ünd@@ 11479
Fäl@@ 11478
Weltkriegs 11469
bekam 11465
ermöglich@@ 11465
Südwesten 11462
sah 11459
prü@@ 11449
fertig@@ 11442
zin@@ 11433
sieht 11432
regierung 11429
Schrift@@ 11428
Fisch@@ 11423
iter 11423
jährige 11418
1923 11417
1926 11415
wend@@ 11415
Halle 11412
glied 11412
Single 11407
odi@@ 11407
use@@ 11405
Ortschaft 11404
Angel@@ 11401
Kapit@@ 11399
Eng@@ 11390
ätzlich 11389
vertreten 11388
Aug@@ 11384
Anf@@ 11382
sprung 11380
Daten 11378
Lehrer 11376
Fahrzeuge 11371
ministerium 11368
On@@ 11363
erschienen 11362
zahlen 11356
Anteil 11352
weltweit 11351
deutsch@@ 11349
national@@ 11345
natür@@ 11344
kehr@@ 11343
italienischen 11341
? 11338
Allerdings 11338
Herkunft 11332
Dör@@ 11328
Ra@@ 11321
Angaben 11320
Klu@@ 11320
schwer 11319
Grand 11317
kung 11317
ätzen 11316
Fußballspieler 11313
gelegenen 11312
wach@@ 11312
rie 11309
ani 11307
betre@@ 11303
gesp@@ 11299
Proz@@ 11298
Open 11296
Lor@@ 11295
ichts 11290
41 11289
ages 11287
männ@@ 11286
Voll@@ 11284
strecke 11276
39 11273
cker@@ 11266
Jan@@ 11262
näch@@ 11259
geschlagen 11247
Samm@@ 11246
rechten 11243
verhin@@ 11242
elf 11237
lim@@ 11233
digung 11232
indungen 11229
lieg@@ 11226
fern@@ 11225
Saison@@ 11224
1922 11223
inzwischen 11223
laut 11222
rang 11217
klär@@ 11214
Teilnehmer 11211
gegründeten 11209
Führung 11206
Sim@@ 11206
lam@@ 11205
ona 11200
nehmer 11195
Sammlung 11193
Stur@@ 11192
ekt 11192
ly@@ 11189
oper@@ 11189
samm@@ 11189
öp@@ 11187
Tor 11186
anischer 11183
tiv@@ 11179
barkeit 11176
trag 11173
Mas@@ 11172
52 11166
fün@@ 11162
47 11161
yst@@ 11160
Kampf 11155
Festival 11153
char@@ 11151
stru@@ 11151
gewöhn@@ 11149
Großen 11148
arischen 11148
1912 11143
mensch@@ 11143
Hom@@ 11138
Stunden 11130
läuf@@ 11128
ikation 11125
namen 11125
Rudolf 11119
tär 11119
fass@@ 11118
mittel 11117
träge 11117
Forschung 11110
Laufe 11109
Nordwesten 11103
Moder@@ 11097
Auswahl 11093
ufe 11091
Netz@@ 11085
Spanien 11084
nördlichen 11075
hoch 11073
Zwe@@ 11072
Staat 11071
geprägt 11066
industri@@ 11066
Stern@@ 11062
Markt@@ 11061
Hochschul@@ 11058
größeren 11055
scht 11053
andes 11050
vorhanden 11045
pa@@ 11044
ument 11042
genannten 11039
geren 11036
otte 11033
steller 11033
tron@@ 11032
fal@@ 11029
engag@@ 11024
grenze 11024
Maler 11020
sicht@@ 11015
iven 11014
gangen 11008
Rech@@ 11007
ahr 11006
stück 11005
entsprechend 11003
geworden 11003
Kategorie 11001
arti@@ 10995
Bü@@ 10993
Schriftsteller 10992
mod@@ 10990
ogra@@ 10990
tem 10985
kul@@ 10984
Beide 10982
tragen 10982
englischen 10980
schnell 10980
reibung 10977
Philosophie 10974
Louis 10972
Weise 10971
nes 10970
fel 10967
43 10966
gehalten 10960
AT@@ 10954
Fri@@ 10950
Niederlan@@ 10950
elek@@ 10949
film@@ 10949
hergestellt 10947
region@@ 10945
Möglichkeit 10944
eng 10940
ls 10939
51 10936
ift 10931
raft 10928
Programm 10927
dagegen 10927
eres@@ 10927
Punkten 10925
eck 10922
Bevölkerungs@@ 10912
medaille 10906
Regie 10901
Wander@@ 10899
Brit@@ 10898
Provin@@ 10898
Wolfgang 10892
Gouver@@ 10887
sogenannte 10881
Südosten 10877
geteilt 10875
verfügt 10875
geweiht 10871
inne 10870
öst@@ 10864
ame 10860
Großbritannien 10854
krank@@ 10852
Kind 10849
verwend@@ 10839
Typ 10835
ish@@ 10835
85 10833
Größe 10831
sper@@ 10826
geber 10825
toren 10822
My@@ 10815
fasst 10815
Ke@@ 10807
Kra@@ 10807
Stimmen 10807
Gö@@ 10805
geleitet 10801
spitz@@ 10801
sk 10800
Veröffentlichung 10798
Ged@@ 10795
Tsch@@ 10795
aner 10795
bst@@ 10795
olle@@ 10795
Ergebnis 10793
ash@@ 10793
mag@@ 10792
ball 10789
Abschnitt 10784
ises 10784
8,@@ 10783
vol@@ 10780
Württemberg 10779
gebau@@ 10777
zählung 10774
Tu@@ 10773
ierter 10771
Modell 10761
Mensch@@ 10759
Deb@@ 10758
yr@@ 10758
Städte 10755
00@@ 10754
sal@@ 10752
fs@@ 10747
produziert 10735
Mus@@ 10733
gelang@@ 10731
vierten 10730
Nam@@ 10729
Sta@@ 10726
weis 10724
Der@@ 10720
Kaiser@@ 10709
spe@@ 10708
Familien 10697
ativ 10692
beschrieben 10687
ga 10686
pan@@ 10682
bre@@ 10681
amt@@ 10680
annten 10679
66 10675
Gelände 10675
lernte 10675
jeweiligen 10674
wichtige 10670
ruppe 10664
.-@@ 10663
Architek@@ 10661
arbeitung 10659
eingestellt 10653
sitz@@ 10652
wärts 10648
Albert 10642
dies@@ 10642
fließt 10640
Gru@@ 10636
höchsten 10629
orte 10629
ppe 10625
stimm@@ 10625
ř@@ 10625
ita 10623
ea 10621
Wur@@ 10620
Erfolge 10616
alisierung 10614
verp@@ 10611
ügel@@ 10610
Verbreitung 10609
ule 10605
ichtete 10604
Ord@@ 10603
schließen 10599
suchen 10599
ç@@ 10599
nischen 10597
46 10595
bekannte 10593
Krieges 10584
zun@@ 10581
63 10580
Bir@@ 10579
früheren 10577
licht 10576
mö@@ 10575
Nutzung 10574
wirtschaft 10573
künstler@@ 10572
Det@@ 10569
Kraft@@ 10568
dy 10566
Aufgaben 10565
yth@@ 10565
jungen 10563
lands 10561
kanischen 10558
Folgen 10555
außerhalb 10554
merk@@ 10549
Juden 10547
Rest@@ 10547
56 10545
Wirken 10544
verwal@@ 10542
Ta@@ 10541
ain 10540
sport 10540
Bewegung 10538
ikan@@ 10535
eth@@ 10533
Fr@@ 10532
Kla@@ 10532
ont 10529
och 10523
mm@@ 10522
kompl@@ 10519
Cast@@ 10516
fig@@ 10516
verbess@@ 10516
darin 10515
are@@ 10514
Mur@@ 10511
Ball@@ 10509
Russ@@ 10509
53 10504
Reis@@ 10499
Mand@@ 10498
windigkeit 10497
enthalten 10496
schiff@@ 10496
Salz@@ 10493
eim 10493
tische 10493
Ehefrau 10492
Tore 10489
zahl@@ 10489
neten 10485
empf@@ 10474
Mut@@ 10472
mes 10471
Klin@@ 10467
Mart@@ 10466
Wissenschaft@@ 10466
teilen 10465
Juli@@ 10461
Cro@@ 10458
Wach@@ 10457
onlyinclude 10457
Familien@@ 10456
ey@@ 10453
familie 10453
hervor 10452
Mathemati@@ 10448
Organis@@ 10448
fiz@@ 10448
röm@@ 10448
fehl@@ 10446
Konf@@ 10443
ais 10439
ari 10436
gang@@ 10436
Boden 10431
elektr@@ 10430
gebiete 10429
Stock@@ 10428
Stif@@ 10427
veranst@@ 10420
Ze@@ 10419
band 10418
1913 10413
Fund@@ 10409
eingeführt 10408
Hessen 10407
bestritt 10407
Rum@@ 10406
ließen 10406
ossi@@ 10406
Nic@@ 10403
kommun@@ 10402
68 10397
Frage 10397
Los 10395
könnte 10394
ösung 10391
Royal 10389
Geor@@ 10387
ric@@ 10387
Qualifikation 10381
fül@@ 10379
zählen 10378
defin@@ 10376
mäch@@ 10374
2.@@ 10372
Station 10367
Vorder@@ 10365
notwen@@ 10363
zip@@ 10357
benen 10355
kra@@ 10351
54 10347
pflanz@@ 10347
versammlung 10342
vergleich@@ 10341
internationale 10338
lin 10337
49 10332
Turnier 10323
ula 10320
Leicht@@ 10317
dungen 10317
uer@@ 10317
ital@@ 10314
vertrag 10311
mehrfach 10305
riere 10304
ehm@@ 10302
vari@@ 10301
mark 10300
möglichen 10300
Tal 10299
lob@@ 10299
Kopf 10297
Vergleich 10296
h. 10296
Wit@@ 10295
62 10293
zeigte 10291
95 10288
Sicher@@ 10288
Kron@@ 10286
itionen 10284
tal@@ 10282
Grafen 10278
ance 10277
Freund@@ 10275
nichts 10272
wissenschaft 10270
masch@@ 10268
Boden@@ 10266
Merkmale 10266
gesetz 10264
Zy@@ 10263
chester 10257
Restaur@@ 10254
ez 10253
bedeutet 10252
alle@@ 10251
theit 10249
iers 10248
lecht 10248
Orgel 10243
Schwester 10237
gewicht 10236
1911 10235
ahnen 10233
gerade 10233
Herzog 10231
Ki@@ 10231
Kolle@@ 10227
Motor 10219
â@@ 10215
Wert 10212
Island 10211
det@@ 10211
spruch 10210
ser 10206
Jes@@ 10205
sa 10203
ähnlich 10203
Bad@@ 10202
adem@@ 10202
flächen 10202
amer@@ 10198
Ehren@@ 10197
Luf@@ 10197
1000 10195
dienen 10195
Trans@@ 10194
fried@@ 10194
Nikol@@ 10187
wissenschaftlichen 10186
Inseln 10184
kes 10180
S. 10179
Mac@@ 10177
67 10175
kurz@@ 10173
Panz@@ 10172
SS 10168
hätte 10164
So@@ 10163
trotz 10163
nitz 10162
Vaters 10158
anerk@@ 10158
ko@@ 10156
hingegen 10151
ph 10147
Hand 10140
Johann@@ 10140
denden 10138
aufgeführt 10136
druck@@ 10134
Ep@@ 10131
Wagen 10131
wäre 10129
utnant 10123
fir@@ 10120
neuer 10120
sil@@ 10117
Ungarn 10115
umfang@@ 10114
ständig 10113
antwor@@ 10110
sucht 10110
Bundesstaat 10108
Washington 10108
Westfalen 10108
derte 10108
glie@@ 10107
offiziell 10106
agte 10099
Get@@ 10095
ban@@ 10095
Nur 10094
Französ@@ 10088
Hau@@ 10087
stellvertreten@@ 10083
unterstützt 10082
Minist@@ 10078
beruf@@ 10078
dus 10078
entierte 10078
PS 10071
Gas@@ 10067
Architektur 10066
Kompon@@ 10066
Erfahr@@ 10063
Bestand@@ 10058
ungspro@@ 10057
Bremen 10052
gleichnamigen 10052
Himm@@ 10048
Rem@@ 10048
Maxim@@ 10045
anl@@ 10043
aufgelöst 10040
pe 10039
Regel@@ 10037
mäßig 10037
Herren 10033
fas@@ 10032
jen@@ 10032
elli@@ 10029
gesprochen 10025
erlau@@ 10024
Wissen@@ 10023
fried 10020
Afri@@ 10018
schm@@ 10015
Lar@@ 10014
iegel 10013
gruppen 10012
Som@@ 10011
Fün@@ 10010
Dro@@ 10000
Region@@ 9996
Jahrzeh@@ 9990
Schauspiel@@ 9990
umb@@ 9989
setzungen 9988
deckt 9987
Süd 9986
Autob@@ 9982
ument@@ 9982
Exper@@ 9981
Frühjahr 9980
gangs@@ 9980
gar 9980
Milli@@ 9974
musikal@@ 9969
katholische 9967
Infanter@@ 9966
alisiert 9965
endgül@@ 9965
57 9964
Kindern 9963
Schweden 9962
erheit 9961
durchschnitt@@ 9960
Eish@@ 9957
Bö@@ 9951
Einz@@ 9951
61 9948
Themen 9948
entliche 9944
erhielten 9941
Heil@@ 9940
Frauen@@ 9937
welt 9928
Jazz 9927
Letz@@ 9925
Angeb@@ 9923
Kriti@@ 9921
Eigen@@ 9920
EU 9909
fünf@@ 9909
entsp@@ 9908
theater 9907
mess@@ 9906
Zahl@@ 9899
steu@@ 9899
Sat@@ 9898
Fir@@ 9896
liter@@ 9896
Quellen 9895
Untersuch@@ 9894
verhält@@ 9894
Grundlage 9892
Bank 9891
emann 9886
dän@@ 9885
1907 9884
sheim 9884
punk@@ 9883
teur 9880
zugleich 9873
rieben 9870
ty 9868
din@@ 9867
SG 9864
benö@@ 9864
absol@@ 9860
Test@@ 9857
minist@@ 9850
spezi@@ 9846
Heiligen 9845
Landwirtschaft 9845
eur@@ 9844
ckt 9842
Zentr@@ 9838
kost@@ 9838
Früh@@ 9836
len@@ 9834
erv@@ 9830
reform 9827
Opfer 9826
Sowjetunion 9821
verbin@@ 9815
Streit@@ 9814
ächlich 9814
wider@@ 9812
smit@@ 9806
kunde 9802
last@@ 9801
riffe 9801
Deutsch 9798
erwar@@ 9798
same 9797
umbenannt 9797
Will@@ 9793
essel@@ 9793
zeh@@ 9792
bein@@ 9790
rechts@@ 9790
begrün@@ 9787
Schulen 9781
obwohl 9781
Teilen 9780
rati@@ 9780
entspricht 9779
í 9775
Wald 9774
besonder@@ 9773
Hall@@ 9768
verantwortlich 9768
bewegung 9767
stän@@ 9767
na@@ 9766
wenigen 9763
Dich@@ 9762
Raum@@ 9760
türk@@ 9760
fle@@ 9759
zei@@ 9753
Winter 9749
eter@@ 9746
Aufgabe 9740
bü@@ 9740
lehrer 9740
namens 9735
wit@@ 9735
links 9728
schrif@@ 9726
1905 9725
psych@@ 9722
ühle 9719
Vo@@ 9713
eger 9713
Trä@@ 9711
weib@@ 9711
unten 9709
Form@@ 9707
Ka@@ 9707
tigten 9706
Gebir@@ 9704
Namens@@ 9699
gerung 9696
Schon 9694
werde 9690
punkte 9687
Rückkehr 9686
ada 9678
Schiffe 9677
verwand@@ 9675
2022 9670
bisher@@ 9670
sto@@ 9668
Ann@@ 9665
koh@@ 9662
Noch 9658
Güter@@ 9657
tier@@ 9655
erweitert 9649
Eth@@ 9647
position 9646
ith 9644
äne 9640
Fürst@@ 9634
Kos@@ 9634
58 9631
weiteres 9630
Frü@@ 9627
Ide@@ 9627
Ebene 9626
unbe@@ 9626
Länder@@ 9624
1917 9623
neues 9621
Wettbewerb 9618
eingesch@@ 9618
traf 9616
Söhne 9614
1908 9613
Sinne 9612
Aufbau 9611
derungen 9611
Ram@@ 9609
verlassen 9609
äusern 9605
zeichn@@ 9603
cks 9599
Schau@@ 9598
atoren 9597
Aufl@@ 9596
inischen 9595
ographie 9592
Tiere 9587
wichtigsten 9587
Distrikt 9586
solche 9586
Log@@ 9584
Naturschutz@@ 9583
Teams 9583
Ereig@@ 9579
Adolf 9570
ost 9570
dahin 9568
linken 9568
Tau@@ 9565
Marie 9553
Viele 9553
li 9551
9,@@ 9550
Platz@@ 9550
ial@@ 9548
bestimmt 9547
Rat 9546
beobach@@ 9544
Präsidenten 9541
Gedi@@ 9540
alli@@ 9538
zeichnete 9532
wasser 9530
besie@@ 9529
versuchte 9529
äger 9529
Gitar@@ 9527
nete 9525
Hab@@ 9523
worfen 9523
Auss@@ 9522
Ost 9521
int@@ 9521
zipl@@ 9521
asen 9520
usst 9519
Gü@@ 9518
Wort 9518
poln@@ 9512
72 9509
Cap@@ 9509
glichen 9509
wasser@@ 9509
höchste 9508
Step@@ 9505
Hum@@ 9504
go 9504
weiß 9499
wirtschaftlichen 9496
× 9493
Beh@@ 9492
Beisp@@ 9492
emals 9492
aur@@ 9490
traten 9490
Technik 9489
tie@@ 9488
wahr@@ 9485
Berufs@@ 9484
ege 9484
eres 9483
Theater@@ 9481
Person 9480
fang 9475
aben 9472
junge 9469
kern 9469
wäl@@ 9469
Moskau 9468
Dep@@ 9467
gelassen 9466
A. 9463
Amat@@ 9458
kräfte 9454
bezieh@@ 9453
Ort@@ 9449
WM 9449
Zul@@ 9449
drit@@ 9449
Span@@ 9445
grund 9445
kr@@ 9442
Fabri@@ 9440
irche 9438
ritte 9437
demokrat@@ 9434
gemäß 9432
Werdegang 9431
urkund@@ 9428
Müller 9427
darf 9427
Prü@@ 9426
bezir@@ 9422
car@@ 9421
unterschied@@ 9421
rad@@ 9420
iens 9412
britische 9407
ffer 9407
Tä@@ 9401
such 9400
ück 9399
Eig@@ 9398
testen 9398
afri@@ 9397
groß 9396
produk@@ 9395
chem@@ 9393
ordin@@ 9388
wirtschaftliche 9386
Kais@@ 9385
Zer@@ 9385
tö@@ 9385
part@@ 9384
älteste 9376
Band@@ 9375
Air 9371
got@@ 9366
hor@@ 9366
59 9364
zusätz@@ 9362
sek@@ 9360
stur@@ 9355
Schä@@ 9350
Frank 9349
blätter 9347
Düsseldorf 9343
q@@ 9343
Ran@@ 9342
eau 9342
legt 9342
Straß@@ 9339
uth 9339
Völ@@ 9337
ierenden 9336
maxim@@ 9336
stammte 9335
AR@@ 9333
erziel@@ 9331
jüng@@ 9329
issi@@ 9326
Hoff@@ 9324
Leistung 9324
Lokomot@@ 9324
eingerichtet 9323
Imp@@ 9321
1906 9318
Aufstieg 9318
Objekte 9317
Licht@@ 9314
tene 9314
ham 9313
unterrich@@ 9308
bleiben 9306
stoff 9305
fach@@ 9304
Gründen 9303
ums@@ 9302
ive 9300
1950er 9297
As@@ 9294
69 9288
ros 9286
flug@@ 9285
swahl 9284
kg 9283
Weiter@@ 9282
Schließ@@ 9281
Saar@@ 9279
deh@@ 9276
ütte 9274
blieben 9270
Camp@@ 9269
les@@ 9268
fällt 9266
medi@@ 9265
Hektar 9263
Bom@@ 9261
ole 9259
Laut 9257
gebir@@ 9253
jün@@ 9252
itig 9250
Niederlage 9247
station 9247
Gesetz 9245
fein@@ 9242
App@@ 9241
gliche 9240
Musiker 9239
min 9237
Medien 9236
De 9234
Eu@@ 9233
jähri@@ 9232
Besuch@@ 9230
abteilung 9230
kulturel@@ 9227
Polizei 9220
oberen 9220
sc@@ 9220
Andreas 9216
kanad@@ 9216
ua 9216
römisch 9215
neh@@ 9214
Ritter@@ 9212
iss 9212
lass 9211
geordn@@ 9210
99 9209
Ergebnisse 9207
GB 9207
sz@@ 9204
Halbfinale 9202
Bür@@ 9197
baute 9196
meisterschaft 9195
gelegene 9194
Wegen 9192
Werner 9190
etter@@ 9186
gre@@ 9185
sters 9185
versucht 9185
appen 9184
telfinale 9184
äische 9184
Dokument@@ 9181
num@@ 9180
scheit@@ 9180
Beruf@@ 9179
besaß 9176
Dem 9172
Philipp 9170
preußischen 9167
III 9163
IV. 9163
Mär@@ 9163
musik 9162
fung@@ 9155
CDU 9154
anges@@ 9154
Interesse 9153
könig@@ 9148
Gut 9143
Architekten 9142
Einführung 9142
mittelalter@@ 9142
Konkur@@ 9137
linge 9132
allein 9131
mittels 9125
71 9123
Literatur@@ 9121
Wies@@ 9120
ennt 9118
neur 9113
rel@@ 9113
shof 9112
Herzog@@ 9111
Port@@ 9111
Frie@@ 9110
Ortes 9109
ans@@ 9107
dargestellt 9107
sem@@ 9107
struktion 9107
vo@@ 9106
Weiteren 9105
ón 9105
yn 9104
&#124; 9103
then 9103
Abitur 9101
Wenn 9101
50@@ 9100
Wild@@ 9100
ome 9097
wissenschaftliche 9096
Asi@@ 9093
sekre@@ 9092
uhl 9091
Tenn@@ 9088
Brandenburg 9080
Kraft 9080
Inform@@ 9079
Rol@@ 9079
ail@@ 9077
erscheint 9077
ac 9071
Schwe@@ 9070
Dol@@ 9067
Wirkung 9059
jüdischen 9059
tation 9059
erklärt 9057
aue 9054
ister 9054
selbst@@ 9053
ital 9052
Zentimeter 9051
gericht@@ 9049
istik 9048
verbreitet 9047
ution 9041
verlegt 9041
zif@@ 9038
halte 9037
1909 9035
erneu@@ 9035
beeinfl@@ 9033
Sum@@ 9032
its 9030
album 9028
cia 9028
Eben@@ 9025
eption 9025
kampf 9024
offizi@@ 9021
spricht 9019
bte 9017
angeboten 9015
isse 9011
Unabhäng@@ 9010
Objek@@ 9009
Sprachen 9009
hte 8997
Damp@@ 8996
mus 8996
beschäftigt 8994
ke@@ 8993
zul@@ 8988
No@@ 8985
atten@@ 8985
our 8985
seh@@ 8984
J. 8982
ehmen 8982
IS@@ 8981
lus 8981
Fi@@ 8980
wodurch 8980
Priv@@ 8975
Autor@@ 8972
Europäischen 8971
Bischof@@ 8968
Wirk@@ 8968
esische 8968
gend@@ 8968
Musi@@ 8967
kleiner 8966
Bonn 8965
Company 8965
ebenda 8963
Gold 8961
Weltkrieges 8961
Fass@@ 8960
Australien 8959
südwestlich 8957
haupt@@ 8955
uts 8953
Auszeichnungen 8952
häuf@@ 8952
umente 8952
sä@@ 8948
Exempl@@ 8946
länd@@ 8946
gens 8945
88 8944
früh@@ 8942
züge 8941
benachbar@@ 8940
osten 8939
Charak@@ 8937
trau@@ 8937
Gottes@@ 8936
teilte 8936
außer@@ 8934
Landtag@@ 8930
egen 8929
Records 8927
nationalen 8926
sprü@@ 8924
Pfarr@@ 8923
ide 8921
ott 8920
Vis@@ 8918
hil@@ 8916
furt 8912
ros@@ 8912
System@@ 8911
annen 8911
eben@@ 8909
96 8908
gelöst 8905
nominiert 8905
Tö@@ 8903
Chor 8901
eins 8901
musi@@ 8898
sionen 8898
Trau@@ 8897
Ü@@ 8888
voll 8887
mb@@ 8886
Kloster@@ 8883
unmittelbar 8883
bes 8882
Än@@ 8881
Polit@@ 8878
ô@@ 8876
integ@@ 8873
äft 8873
ment 8871
römischen 8871
Gie@@ 8868
gezeigt 8868
Hann@@ 8866
genau 8865
zwe@@ 8864
Produz@@ 8861
Bec@@ 8857
zuerst 8857
Nahr@@ 8856
beschäf@@ 8854
fan@@ 8853
Hamburger 8848
klar 8846
Gesell@@ 8843
istisch 8842
trieb@@ 8842
Temper@@ 8841
iter@@ 8840
amerika 8839
xis 8834
Rock 8831
Lok@@ 8829
pres@@ 8829
Verband 8827
AS@@ 8826
Sur@@ 8825
oss 8824
Landschafts@@ 8822
behör@@ 8822
sichtlich 8821
Punkt 8820
drück@@ 8820
1904 8818
Fritz 8818
Tak@@ 8816
folgen 8816
racht 8816
Arm@@ 8815
Thür@@ 8813
brücke 8813
erlang@@ 8813
Folge@@ 8812
cup 8812
Leh@@ 8810
breit 8810
Bos@@ 8806
Alfred 8804
Anton 8804
Bücher 8803
una 8800
Trieb@@ 8798
att 8795
Erste 8792
lar@@ 8792
Produktions@@ 8791
mechan@@ 8790
stehenden 8790
liz@@ 8783
ling@@ 8781
Nummer 8780
Schm@@ 8772
azin 8771
Erb@@ 8769
98 8764
erfolgreich@@ 8762
ril@@ 8760
ou 8758
78 8757
Zerstör@@ 8757
Amerikan@@ 8756
fabrik 8750
enes 8749
Fü@@ 8743
südöstlich 8743
handlungen 8740
sie@@ 8740
Hi@@ 8739
1915 8735
Roh@@ 8734
fr@@ 8734
Geist@@ 8733
Patri@@ 8732
schlag@@ 8731
Persön@@ 8730
Tages@@ 8725
unterschiedlichen 8725
Rat@@ 8722
ständen 8722
bewer@@ 8719
ala 8718
dende 8718
mus@@ 8718
Heimat 8715
Veranst@@ 8715
via 8715
zugs@@ 8715
by@@ 8714
Mühl@@ 8713
Weih@@ 8713
gezogen 8713
mung 8713
Liebe 8711
historische 8709
Mei@@ 8708
geeig@@ 8707
roman@@ 8707
ungs- 8705
Sei@@ 8704
Studien 8704
Train@@ 8700
isierte 8700
ädagog@@ 8699
Sig@@ 8697
teile 8695
Partei@@ 8693
Vorsitz@@ 8691
kin@@ 8689
vorsitz@@ 8688
Angeles 8684
Druck@@ 8681
Eff@@ 8680
isp@@ 8676
ron 8675
Rhein 8674
Erz@@ 8667
wachs@@ 8666
150 8663
französischer 8662
Standort 8660
CD 8654
dru@@ 8653
ory 8653
05 8647
schre@@ 8645
Nacht 8642
Behör@@ 8637
lern@@ 8637
lose 8635
Poly@@ 8629
Rath@@ 8629
August@@ 8625
Gemeinder@@ 8625
ris@@ 8625
Des 8624
bleibt 8622
04 8616
Fernsehen 8616
Kir@@ 8614
ding 8614
iste 8609
Cy@@ 8607
Daniel 8607
latein@@ 8607
mühle 8606
Ausgabe 8601
Debüt 8601
Häuser 8600
sub@@ 8600
Schauspielerin 8598
Preußen 8595
Internationalen 8594
abhäng@@ 8593
ico 8592
sigkeit 8591
Gip@@ 8590
Henry 8589
sam@@ 8589
tats@@ 8589
Eröff@@ 8588
ñ@@ 8588
garten 8585
han@@ 8585
bestimmten 8584
Baum@@ 8583
bahn@@ 8583
ets@@ 8582
Kurz 8579
Sport 8576
weil@@ 8576
Leistungen 8575
wiederhol@@ 8572
ahren 8565
Elisabeth 8562
öß@@ 8562
86 8557
theorie 8556
aux 8555
wa 8555
Quelle 8551
gress 8550
nel 8549
Seiten@@ 8548
ucht 8548
Sü@@ 8546
Lauf 8544
beste 8544
ernen 8542
würden 8542
zweimal 8542
Alter@@ 8540
Parlament@@ 8538
Kampf@@ 8537
digkeit 8531
ologen 8530
int 8527
May@@ 8526
ora 8526
gers 8524
Parlament 8523
enten@@ 8523
Flughafen 8522
Lauf@@ 8522
gelten 8520
Text 8516
Reb@@ 8514
Regisseur 8512
geschaffen 8512
Villa 8510
Ingenie@@ 8508
museum 8506
Start 8502
State 8501
Tun@@ 8497
veröffentlich@@ 8496
domin@@ 8493
zeichnungen 8492
Kup@@ 8491
Programm@@ 8486
Maschin@@ 8484
belegt 8484
spielten 8484
jüd@@ 8482
Urs@@ 8481
Gau@@ 8479
Punk@@ 8476
enstein 8476
Bul@@ 8469
rei 8468
tim@@ 8466
win 8464
arg@@ 8463
Kanada 8462
ammlung 8461
Trotz 8460
anzu@@ 8458
rest@@ 8458
1903 8457
österreich@@ 8456
förmig 8455
gegründete 8453
ppen 8452
schiff 8452
speziel@@ 8450
vertrat 8449
Hub@@ 8448
Auflösung 8446
sätzen 8446
Refer@@ 8443
ental 8443
ela 8439
nordwestlich 8437
Films 8435
zeich@@ 8435
umfass@@ 8432
76 8431
40@@ 8425
92 8424
Sänger 8424
Weg@@ 8424
herz@@ 8423
abger@@ 8420
hie@@ 8418
Informationen 8417
rupp@@ 8417
Nürnberg 8412
öffent@@ 8410
geist@@ 8408
Situation 8406
entschied 8406
kurze 8405
errichtete 8401
formation 8401
Prop@@ 8400
Rh@@ 8400
Pfarrkirche 8399
dienste 8399
krä@@ 8399
schließt 8398
ged@@ 8396
Opp@@ 8395
Rec@@ 8395
Bä@@ 8394
anda 8393
Spar@@ 8392
graben 8392
onom@@ 8392
Leist@@ 8391
polnischen 8391
Richter 8390
roffen 8386
Bab@@ 8383
gro@@ 8383
verkaufte 8381
Aufnahme 8380
Territ@@ 8377
nordöstlich 8374
pflich@@ 8370
reduz@@ 8368
Kün@@ 8366
bef@@ 8365
zugeordnet 8363
Probleme 8362
Erzbischof 8359
reicht 8359
gewonnen 8358
Förder@@ 8357
Bis@@ 8356
Straf@@ 8356
erkennen 8352
Ziel@@ 8351
projek@@ 8351
Gedenk@@ 8348
verbreit@@ 8348
Start@@ 8347
ards 8347
over@@ 8345
Durchmesser 8343
Christoph 8342
Erschein@@ 8341
ary 8337
nier 8337
Unternehm@@ 8336
ehe 8336
Autoren 8330
Wiederauf@@ 8326
08 8322
erklärte 8322
1916 8320
Kanz@@ 8320
Mitglied@@ 8319
Lam@@ 8318
bezeichnete 8317
Pati@@ 8316
awa 8315
sis 8312
Die@@ 8311
Top 8310
zählte 8310
enne 8307
flo@@ 8305
lei 8305
Wen@@ 8303
afrika 8301
läng@@ 8301
iedelt 8300
800 8296
haupt 8296
pra@@ 8296
Bank@@ 8290
blick 8290
ý 8290
con@@ 8289
South 8286
schau 8284
handelte 8283
Gün@@ 8280
Brasili@@ 8275
digte 8275
linien 8275
verli@@ 8275
änen 8275
geschoss 8269
Pfarrer 8266
Radio 8266
verfasste 8264
trainer 8263
Ferdinand 8262
Leop@@ 8258
Alten@@ 8253
Vik@@ 8252
Straßen 8251
Münster 8250
Besonder@@ 8248
ide@@ 8248
Beziehungen 8247
Fakultät 8247
Wettbewer@@ 8245
jetzt 8243
ney 8243
Wilhel@@ 8242
zunehmend 8242
Kommission 8239
ümer 8234
berühm@@ 8231
Stau@@ 8229
dige 8227
dungs@@ 8224
Freiburg 8222
Mittelalter 8222
Ausstellung 8218
Ty@@ 8218
hebung 8218
angelegt 8217
jap@@ 8217
Freund 8215
stimmung 8212
erstreckt 8211
ics 8210
Fenster 8206
Kirchen 8206
iet 8205
Sak@@ 8204
dens@@ 8202
verur@@ 8200
1902 8197
Betrieb@@ 8197
niedri@@ 8193
Rob@@ 8192
83 8190
94 8189
üter 8189
77 8187
Sign@@ 8186
istin 8186
Kro@@ 8184
schafter 8182
74 8181
tz 8181
fran@@ 8180
orien 8180
atische 8177
radi@@ 8177
Erde 8176
Bewohner 8174
quar@@ 8174
§ 8173
edt 8171
73 8170
Gemäl@@ 8167
Schwei@@ 8165
Sw@@ 8158
Dies@@ 8157
organisation 8156
gungs@@ 8154
übertragen 8154
bür@@ 8153
Besitz@@ 8150
werken 8149
82 8148
gehörigen 8148
Gloc@@ 8147
09 8146
Helm@@ 8140
utsch@@ 8138
Lit@@ 8135
Straßenb@@ 8128
Belgi@@ 8126
wiesen 8126
rop@@ 8125
urg@@ 8125
ganze 8124
getrennt 8121
Ich 8119
Sozi@@ 8117
Eur@@ 8113
sy@@ 8111
07 8108
elles 8106
geborene 8106
Besetzung 8104
Wett@@ 8104
promoviert 8104
Kam@@ 8103
gestaltet 8103
löste 8102
änder@@ 8101
Bol@@ 8100
fälle 8098
Bach 8097
House 8093
Kosten 8093
Öffentlichkeit 8092
bestimmte 8091
Relig@@ 8090
owski 8088
600 8087
Auß@@ 8087
zip 8087
zz@@ 8087
Qualif@@ 8084
prof@@ 8081
Fili@@ 8080
zub@@ 8079
grad 8078
uns 8078
Regiment 8077
daran 8077
dok@@ 8076
Demokrat@@ 8075
Formen 8075
Filme 8074
modernen 8074
Geld 8073
assen@@ 8073
German@@ 8072
onie 8072
zustellen 8072
jede 8068
greif@@ 8065
aufen 8061
81 8060
m. 8057
ester@@ 8056
gebro@@ 8056
Stei@@ 8055
wirtschafts@@ 8054
Vir@@ 8052
Einheit 8051
Gri@@ 8051
erfül@@ 8051
Arn@@ 8048
Teilnahme 8047
Drei@@ 8046
lex 8046
Minister@@ 8042
inf@@ 8041
ok 8040
ionen 8039
merks@@ 8039
Brüder 8037
Ortst@@ 8036
stets 8035
utz 8034
Bou@@ 8032
1901 8029
Wand@@ 8029
asste 8029
01 8025
Eigenschaften 8025
außer 8023
beit@@ 8023
mäler 8023
Köl@@ 8021
japanischen 8020
Gustav 8018
Orgel@@ 8013
lis 8011
tru@@ 8009
Böh@@ 8008
Politi@@ 8008
Grie@@ 8007
let 8006
Revolution 8005
Cre@@ 8004
Kämp@@ 8004
walt 8003
räge 8002
93 8001
Königs 8000
ence 7997
stock 7996
Kast@@ 7994
Wolf@@ 7990
haber 7990
Mön@@ 7988
eister 7986
hunder@@ 7984
err@@ 7976
Anwendung 7975
besitzen 7975
fahrer 7971
Olympi@@ 7970
öffentliche 7965
aft 7961
ohn 7960
starken 7960
Abgeordn@@ 7959
ration 7959
Mädchen 7958
erl@@ 7955
ept@@ 7952
stat@@ 7951
dium 7950
meister@@ 7949
sächsischen 7949
Spitze 7948
eigentlich 7946
ergän@@ 7943
84 7940
zeugt 7940
etabli@@ 7939
umfasste 7938
Dadurch 7935
ensburg 7935
Music 7933
anstalt 7932
Szene 7930
geplan@@ 7930
sidenten 7929
drei@@ 7927
zuständig 7925
Bürger 7923
Nah@@ 7921
gener@@ 7921
Weiß@@ 7920
affe 7920
ı@@ 7920
erbau@@ 7919
Organ@@ 7918
religiö@@ 7918
87 7916
Infrastruktur 7915
Herstellung 7913
Zusamm@@ 7913
iff 7913
seitdem 7913
Gerä@@ 7911
polit@@ 7910
griech@@ 7903
entri@@ 7902
Society 7893
Länder 7892
ail 7892
lerin 7892
dunk@@ 7889
Invest@@ 7888
medizin@@ 7888
ulp@@ 7888
Sab@@ 7887
altet 7883
wechsel 7880
Mach@@ 7879
brit@@ 7876
Deutschlands 7873
abe 7872
1848 7869
fft 7869
ängerin 7869
Leon@@ 7868
alles 7868
reiber 7868
Cas@@ 7867
beauftra@@ 7865
immer@@ 7862
UN@@ 7860
sweise 7860
entw@@ 7859
furter 7859
riff@@ 7858
Anhän@@ 7855
89 7854
ution@@ 7854
Epis@@ 7853
Marc@@ 7853
kirchen 7853
üm@@ 7853
Pfalz 7851
ime 7851
verlänger@@ 7851
Maur@@ 7850
fri@@ 7850
Tie@@ 7847
herrsch@@ 7847
spann@@ 7847
besitz@@ 7844
aufgestellt 7840
nahezu 7834
Polizei@@ 7826
anders 7826
Mög@@ 7820
Verteidi@@ 7820
Nachrich@@ 7818
kürz@@ 7818
unterhalb 7818
Fron@@ 7816
drän@@ 7815
ün 7815
ée 7813
ferenz 7810
riss 7808
Geografie 7807
zeitig 7807
mündet 7805
97 7802
Behand@@ 7801
ekt@@ 7801
mittlerweile 7800
North 7796
austral@@ 7796
erforder@@ 7796
Theologie 7794
Ori@@ 7793
freie 7789
weiten 7789
Tradition 7788
markt 7787
Drei 7786
Auseinander@@ 7785
Glas@@ 7784
Sul@@ 7782
Kabin@@ 7775
iser 7773
Stein 7770
ässlich 7769
Nar@@ 7768
log@@ 7764
Hart@@ 7762
1898 7761
Blatt@@ 7759
anst@@ 7758
gig 7755
Pu@@ 7753
abgesch@@ 7750
weich@@ 7749
ässi@@ 7748
ath 7743
1899 7741
tenden 7741
chs@@ 7737
derzeit 7737
entweder 7736
kompon@@ 7734
Wag@@ 7730
ater@@ 7730
Eisenb@@ 7727
Rock@@ 7726
Neub@@ 7725
Schwarz@@ 7723
entschieden 7721
Bauern@@ 7719
genöss@@ 7719
rek@@ 7718
wirkt 7716
Jan 7715
Bew@@ 7714
Bilder 7714
co@@ 7714
Stahl@@ 7713
ill 7707
verschw@@ 7707
itsch 7706
Recht@@ 7705
91 7704
dopp@@ 7696
Sprech@@ 7695
direktor 7695
rand 7695
Alben 7694
aufgebaut 7694
Eber@@ 7693
sprach 7693
ikations@@ 7691
Schnei@@ 7688
Küste 7687
hand 7686
losen 7686
Gründungs@@ 7684
brach 7684
wesentlich 7681
Mun@@ 7673
teidig@@ 7673
epunkt 7672
verstarb 7672
Gebiete 7669
New@@ 7668
oren@@ 7667
unteren 7667
Spann@@ 7663
Ris@@ 7661
Ah@@ 7659
Indien 7658
ücken 7656
Bildungs@@ 7654
Cur@@ 7654
begonnen 7653
loss 7651
tif@@ 7648
Sl@@ 7647
Domin@@ 7645
abgeschlossen 7645
atorium 7645
haus@@ 7644
sieb@@ 7643
tha 7642
hätten 7640
liederung 7639
Mitgliedern 7637
hoben 7637
nungs@@ 7637
Bli@@ 7636
besetzt 7634
ursprünglichen 7634
verm@@ 7632
eils 7630
Fein@@ 7629
Gefan@@ 7627
NS 7627
änglich 7627
eröffnete 7625
Kalifornien 7623
Poli@@ 7623
erfol@@ 7622
gebild@@ 7622
ches 7621
egte 7621
prakt@@ 7620
ächen 7620
Ot@@ 7618
Ring@@ 7618
wart 7618
born 7616
mittelt 7616
lieben 7613
C. 7612
ington 7612
lichem 7612
Eck@@ 7610
stent 7610
aller@@ 7609
abzu@@ 7605
Ursprün@@ 7602
Zeh@@ 7602
gemeinsamen 7600
Philipp@@ 7598
kleinere 7593
ockey@@ 7592
1890 7590
Ensem@@ 7588
fordert 7587
Vereine 7584
begannen 7584
gekommen 7582
sum@@ 7582
Bezug 7577
ju@@ 7577
wettbewer@@ 7577
Höhen@@ 7576
Stadion 7576
Einheiten 7574
Hockey 7572
Tagen 7572
arische 7572
ausch 7572
fassung 7571
Parteien 7570
ländische 7569
Millimeter 7568
tieren 7568
inc@@ 7567
jur@@ 7566
Dien@@ 7565
läufer 7565
Lehre 7564
met 7563
ear@@ 7562
etten@@ 7559
ücksich@@ 7558
Aufnahmen 7555
proz@@ 7554
either 7553
osp@@ 7553
Neubau 7551
Entstehung 7547
Liber@@ 7543
Eigent@@ 7541
Macht 7541
chmal 7541
Vereins 7538
poli@@ 7532
Körper 7531
Zusammen 7527
Nat@@ 7526
Tom@@ 7526
plätze 7526
schauer 7525
Original@@ 7523
bildungs@@ 7522
krieg@@ 7522
üp@@ 7520
verbrachte 7519
Besuch 7517
Stellung 7516
Umwelt@@ 7515
jedes 7509
kan 7508
Konzept 7507
Komp@@ 7500
schuf 7500
Rod@@ 7499
raße 7499
ausgestattet 7497
länder 7497
79 7496
angegeben 7496
op 7496
änderungen 7492
Daher 7491
Quadrat@@ 7489
Untersuchungen 7488
Lux@@ 7484
Hall 7483
therap@@ 7479
Materi@@ 7478
bevor@@ 7478
späten 7478
Landtag 7477
ere@@ 7477
Druck 7476
Große 7475
suche 7473
Chicago 7472
stif@@ 7472
spätere 7471
Pfle@@ 7468
Pierre 7467
seits 7463
jedem 7458
älteren 7456
änder 7455
hinzu 7454
rang@@ 7454
ú@@ 7454
kat@@ 7453
Geld@@ 7452
Santa 7452
ulen 7451
beteili@@ 7450
pal@@ 7450
meisterschaften 7449
otz@@ 7449
felder 7447
terer 7443
einzigen 7439
Vill@@ 7438
dortigen 7438
Kab@@ 7436
Fru@@ 7433
M. 7431
künf@@ 7431
SE@@ 7429
oll 7429
Meer 7427
bank 7426
itik 7426
kriegs@@ 7425
zusamm@@ 7425
gert 7424
06 7420
Formel 7420
Adels@@ 7419
Würz@@ 7419
brechen 7417
tschech@@ 7416
zweiter 7414
Wahlkreis 7413
licherweise 7413
selb@@ 7412
Bud@@ 7411
Ath@@ 7405
wur@@ 7405
denkmale 7404
liegende 7404
Status 7403
brech@@ 7403
erhoben 7403
fertigt 7402
Rechte 7399
mischen 7398
rün@@ 7397
zuführen 7394
ission 7391
Py@@ 7390
1895 7388
DP 7388
Gericht 7384
Zunächst 7384
entr@@ 7383
schätz@@ 7383
1896 7381
Gle@@ 7378
Theorie 7378
bauen 7378
Kontakt 7377
kennen 7377
sichts@@ 7374
Hotel 7373
chs 7372
Krist@@ 7371
Lieder 7371
Sieger 7371
befördert 7371
1870 7370
Mio. 7370
Städten 7369
iden 7369
ye 7367
lowakei 7366
Daraufhin 7365
struktur 7365
Figuren 7363
bahnhof 7357
Ausland 7356
Nordrhein 7356
eilig@@ 7355
Jakob 7353
Matth@@ 7351
Zeiten 7351
Züge 7351
zerstör@@ 7351
Vertre@@ 7350
oth 7343
Š@@ 7342
Schei@@ 7338
Münch@@ 7336
schlug 7336
verschiedener 7333
Tode 7332
bess@@ 7331
Medizin 7330
án 7329
Werken 7328
publiz@@ 7328
Kamp@@ 7327
Rang@@ 7326
3.@@ 7325
Fuß@@ 7323
Prozess 7323
aktiv@@ 7322
Analy@@ 7315
tnis 7315
Gewer@@ 7314
glieder 7313
politik 7312
wichtig@@ 7310
Kammer@@ 7309
dierte 7308
richtungen 7307
Lich@@ 7306
mitteln 7304
nchen 7301
Angriff 7300
Prag 7297
chter@@ 7297
Meisterschaften 7296
Förderung 7294
Schleswig 7294
Entscheidung 7292
Beobach@@ 7289
geplant 7288
länge 7288
wuch@@ 7286
hl 7285
ions@@ 7285
bestimm@@ 7284
unterschiedliche 7284
Heidelberg 7281
did@@ 7280
kol@@ 7279
Magde@@ 7276
Städ@@ 7276
unver@@ 7274
Text@@ 7272
ign@@ 7272
rag 7270
kri@@ 7269
illa 7268
gefasst 7267
Basel 7266
Bezir@@ 7264
gewäh@@ 7264
deg@@ 7260
Kreuz 7258
Rand 7255
Amtszeit 7254
Herren@@ 7254
entstand@@ 7254
Mannschafts@@ 7253
ässer@@ 7253
Kommunal@@ 7252
mont 7252
vel@@ 7252
Reit@@ 7251
Tief@@ 7251
liefert 7251
kurzen 7250
ake 7249
feld@@ 7249
Af@@ 7247
athlet@@ 7246
sbach 7246
griechischen 7245
gres@@ 7244
stes 7244
tern@@ 7244
zone 7244
1,5 7242
Bres@@ 7241
Todes@@ 7241
Na@@ 7237
ständi@@ 7236
Bronzemed@@ 7235
ommern 7235
Association 7234
stant@@ 7234
Einwohnerzahl 7233
alist 7232
beziehungsweise 7232
Miner@@ 7229
schluss@@ 7228
spanischen 7228
Chin@@ 7226
ris 7226
verg@@ 7226
bende 7224
ž@@ 7224
zeichnen 7223
mande@@ 7222
eili@@ 7220
Zustand 7219
aum 7219
benutzt 7219
herausge@@ 7219
verstär@@ 7215
à 7215
stands@@ 7211
pass@@ 7209
Schriften 7208
kamp@@ 7208
Institute 7204
beschä@@ 7204
Cam@@ 7203
Spezial@@ 7203
1897 7202
High 7201
werte 7201
ring@@ 7197
Elemente 7196
wirken 7191
vorhand@@ 7190
Pen@@ 7189
Beziehung 7188
erische 7185
Gleichzeitig 7184
Sankt 7183
Versor@@ 7181
dit@@ 7178
rischen 7178
witz 7178
vorwiegend 7175
ungs 7174
CA@@ 7173
1871 7172
ello 7170
völlig 7170
zufolge 7168
altete 7165
zentrale 7163
Tot@@ 7159
gute 7158
Marine 7156
beschreibt 7156
Vereinigung 7154
stätten 7153
Verhältnis 7152
gehö@@ 7152
treffen 7149
Boot 7145
Elektro@@ 7145
Liz@@ 7145
werks 7144
rachten 7143
Auff@@ 7140
bislang 7138
erwor@@ 7138
änderte 7135
mauer 7134
Nachbargemeinden 7130
Heinz 7128
Abgeordneter 7127
Mak@@ 7127
Präsid@@ 7127
Charts 7117
rift 7117
ère 7116
fläch@@ 7114
Lev@@ 7112
Natur 7112
Kommand@@ 7109
Sehenswürdigkeiten 7108
Farb@@ 7105
Figur 7105
Mexiko 7104
Vort@@ 7104
sein@@ 7103
Einrichtungen 7102
Sou@@ 7101
Fak@@ 7099
Air@@ 7098
rik 7098
hau@@ 7096
Schwerpunkt 7094
Einsatz@@ 7091
ältesten 7090
Gruppen@@ 7088
dam 7088
genheit 7088
rol 7087
versehen 7087
Ebenfalls 7084
Reise 7084
übrigen 7084
ror@@ 7083
uel 7081
Mainz 7080
enheiten 7079
völk@@ 7078
eist 7077
eich 7075
stens 7074
Beruf 7072
ansässi@@ 7071
bern 7071
male 7070
British 7068
storben 7068
Raj@@ 7066
Arrondissement 7065
großes 7065
alien 7063
nieder 7057
sig@@ 7057
autom@@ 7056
erinnert 7056
Auft@@ 7055
besser 7055
Kurfür@@ 7054
Friedens@@ 7053
mög@@ 7052
Universitäten 7050
Fragen 7049
Strom@@ 7046
volle 7044
gerech@@ 7040
gesell@@ 7040
heimer 7040
produktion 7039
sprechen 7039
Öl@@ 7035
Tok@@ 7031
Gott 7030
mt 7027
schaffen 7026
ves 7024
ton@@ 7023
fak@@ 7022
lad@@ 7022
dati@@ 7021
kön@@ 7019
Thr@@ 7018
syn@@ 7018
Mah@@ 7017
Idee 7016
geliefer@@ 7016
ungefähr 7014
politisch 7013
Komponist 7010
03 7008
Archä@@ 7007
Ufer 7007
Arts 7004
starke 7004
progr@@ 7003
field 7002
Bistum 7001
kreises 7001
Erzäh@@ 6999
uter@@ 6999
Holz 6997
Top@@ 6996
Lind@@ 6993
Begriff@@ 6991
igte 6991
ao 6990
natur@@ 6990
Gatt@@ 6989
mögen 6987
Herausge@@ 6986
Jahr@@ 6984
Zeitraum 6983
gewer@@ 6977
Witt@@ 6976
vater 6976
Rev@@ 6974
benannte 6974
low@@ 6974
isation 6973
geb 6971
rates 6971
folgen@@ 6970
sicher@@ 6970
räum@@ 6968
SR 6967
könne 6967
afen 6965
verurteilt 6965
Är@@ 6965
Klaus 6964
Has@@ 6961
nörd@@ 6961
schweren 6960
küste 6958
kehrt 6957
Klassi@@ 6954
Tonnen 6950
Unternehmens@@ 6950
alog@@ 6948
J 6946
Prem@@ 6946
Ret@@ 6945
erweit@@ 6945
klin@@ 6945
Mes@@ 6940
owa 6940
üssel@@ 6940
Wahlen 6939
Flügel@@ 6938
kreuz 6938
Rab@@ 6935
Bundesrepublik 6934
reichs 6934
räume 6934
Songs 6930
Abs 6928
brun@@ 6928
häuser 6927
Einrichtung 6926
fährt 6926
haup@@ 6926
parallel 6926
All 6923
verkauf@@ 6920
öz@@ 6919
Ass@@ 6918
Jahrhunder@@ 6917
shaus 6916
österreichischer 6916
wir 6914
emat@@ 6910
Ähn@@ 6910
taus@@ 6909
Ausstattung 6908
Academy 6907
Regim@@ 6904
bli@@ 6902
vorgesehen 6902
ierende 6901
schaffte 6901
hoher 6898
ring 6898
Ägyp@@ 6898
Tim@@ 6897
üssen 6897
Pow@@ 6894
ielle 6893
Darm@@ 6892
einschließlich 6891
Neb@@ 6890
Roman@@ 6888
urg 6888
Apost@@ 6887
SA 6887
Play@@ 6886
Bran@@ 6885
Av@@ 6880
erhält 6880
venti@@ 6879
fangs 6878
Zwischen@@ 6875
akademie 6871
Inhalt 6870
Schle@@ 6870
Frem@@ 6868
heren 6868
Kno@@ 6867
leistung 6867
Hersteller 6866
ödie 6864
anwalt 6862
Ausnahme 6859
jahren 6858
gesellschaft@@ 6857
Veranstaltungen 6856
1893 6854
besetz@@ 6854
weder 6851
Lake 6850
gehörige 6847
ils 6847
Syst@@ 6846
eis@@ 6845
hof@@ 6845
konom@@ 6844
Zivil@@ 6841
Breite 6838
Tat@@ 6838
Wissenschaften 6838
Misch@@ 6837
rot 6837
Jap@@ 6833
meth@@ 6833
Grafschaft 6832
Verkehr@@ 6831
let@@ 6830
räsident 6829
wollen 6829
Dänemark 6826
Lebens 6826
Handel 6825
Jaz@@ 6822
Repräsentant@@ 6822
agen@@ 6822
omet@@ 6822
Ess@@ 6820
Nicht 6818
Oper 6817
erinnen 6814
ursprün@@ 6813
Wirt@@ 6812
international 6812
Klosters 6811
rank@@ 6811
agoge 6805
lager 6805
renz 6805
Diet@@ 6803
sachsen 6803
denkmal@@ 6801
193@@ 6800
Braunschweig 6800
Struk@@ 6800
entlassen 6800
Shi@@ 6799
col@@ 6799
müh@@ 6799
onym 6797
ucht@@ 6797
Jun@@ 6796
üd@@ 6794
Blu@@ 6792
ín 6791
dlichen 6788
ison 6788
Gor@@ 6787
promovierte 6787
Bernhard 6785
Kurt 6783
Maß@@ 6783
kir@@ 6783
fo@@ 6782
ilfe 6782
Monaten 6779
Gegner 6778
Woiwod@@ 6778
fielen 6778
ky 6777
Schmidt 6776
phi@@ 6775
widm@@ 6775
Minister 6774
nannte 6773
1850 6770
El 6769
asst 6768
Bod@@ 6767
Ruhest@@ 6766
ags 6765
verschie@@ 6763
lowak@@ 6761
funktion@@ 6760
Struktur 6759
Metal 6755
kirch@@ 6754
aturen 6753
sky 6753
³ 6753
Weibchen 6752
einzelne 6752
Gemeindegebiet 6750
Großteil 6745
schwier@@ 6744
chst@@ 6743
Entschei@@ 6742
Mehrheit 6742
anschließ@@ 6741
bedingt 6741
Halbinsel 6740
bewoh@@ 6740
Kub@@ 6736
Sym@@ 6736
damalige 6735
unterscheiden 6732
öpf@@ 6732
inst@@ 6731
nennt 6731
Türkei 6730
angen@@ 6730
wen 6730
Spor@@ 6729
frist@@ 6729
Zugang 6728
nationale 6725
Maßnahmen 6724
Luc@@ 6723
betrachtet 6723
Entfern@@ 6722
breite 6719
enzeit@@ 6718
deutschsprachigen 6716
ragen 6713
bron@@ 6710
ringen 6709
Theodor 6708
Jer@@ 6704
02 6703
Sav@@ 6703
ace 6702
Tats@@ 6701
ston 6701
Hot@@ 6697
Cha@@ 6696
Aust@@ 6695
Initiative 6695
Beam@@ 6694
jähr@@ 6694
Cr@@ 6693
Preuß@@ 6690
Wun@@ 6690
inger@@ 6690
ativ@@ 6689
bul@@ 6689
massi@@ 6688
Label 6686
Landschaft 6686
han 6684
Len@@ 6680
Adel@@ 6679
gehör@@ 6679
1880 6678
itu@@ 6675
befin@@ 6673
stad@@ 6673
Zug 6669
agement 6664
kathol@@ 6663
regul@@ 6662
Bach@@ 6661
1892 6657
dorfer 6655
Neue 6654
ě@@ 6651
Tag@@ 6649
eland 6649
Akti@@ 6646
Premier@@ 6646
öße 6646
Est@@ 6642
Ritter 6642
physi@@ 6641
pet@@ 6639
izi@@ 6634
elli 6633
vent@@ 6633
ession 6632
Vers@@ 6631
ato 6631
Jud@@ 6630
Kiel 6629
stanz 6628
Essen 6625
Ludwig@@ 6623
krieg 6622
Ky@@ 6621
atten 6621
eister@@ 6621
urop@@ 6619
ysi@@ 6618
Dist@@ 6615
rt 6615
ny 6611
It@@ 6609
Chef@@ 6607
Theat@@ 6607
nee 6607
Platt@@ 6605
cl@@ 6605
warf 6605
Popul@@ 6604
lit@@ 6602
tens 6602
genie@@ 6596
Back@@ 6593
ühl@@ 6589
nei@@ 6584
Ulrich 6582
blei@@ 6579
Karlsru@@ 6574
1885 6573
tier 6573
arab@@ 6571
strö@@ 6565
enger 6561
ses 6561
Dun@@ 6559
brecht 6557
Hein@@ 6556
ays 6556
rieg@@ 6556
ohl 6554
MS 6553
DAP 6550
Mens@@ 6546
Group 6543
Bern 6542
heb@@ 6538
blatt 6537
erinn@@ 6534
1888 6533
Stol@@ 6532
Protest@@ 6530
Brenn@@ 6528
dist@@ 6522
iden@@ 6520
Engel@@ 6517
Sin@@ 6517
Past@@ 6508
cal 6508
änger 6508
Rud@@ 6505
rak@@ 6502
ba 6499
Veröffentlich@@ 6494
RA@@ 6493
Center 6490
Got@@ 6490
Holstein 6490
Kle@@ 6489
pat@@ 6487
Fei@@ 6483
vern@@ 6478
H. 6477
wan@@ 6477
unkt 6475
Finn@@ 6473
öder@@ 6471
Lab@@ 6470
Football 6469
sta 6469
bus@@ 6468
Veg@@ 6467
analy@@ 6465
neg@@ 6462
Star 6456
Andre@@ 6444
Kind@@ 6444
Kul@@ 6440
Hav@@ 6438
ial 6437
orn 6428
over 6424
ange 6423
arm@@ 6420
intensi@@ 6420
mol@@ 6420
tran@@ 6418
Vel@@ 6414
dra@@ 6413
prin@@ 6404
Meckl@@ 6403
Science 6403
Simon 6403
inform@@ 6398
schwei@@ 6398
ian@@ 6397
1891 6391
1894 6388
dner 6388
vermut@@ 6388
urs 6387
Arthur 6384
Lou@@ 6383
Internationale 6382
Black 6380
wom@@ 6379
But@@ 6375
Material 6375
Göttingen 6373
Amer@@ 6371
hu@@ 6369
mo 6368
ots 6368
rats 6368
lor@@ 6365
ury 6365
air@@ 6364
Statist@@ 6362
agne 6362
woll@@ 6358
mob@@ 6354
Schu@@ 6353
ago 6352
ota 6352
1889 6350
were 6350
age@@ 6347
dia 6346
wort 6346
aison 6345
Vie@@ 6341
sign@@ 6337
Salzburg 6334
Id@@ 6333
1874 6332
Julius 6331
äus@@ 6330
å@@ 6328
Flag@@ 6326
Ca@@ 6324
Pel@@ 6321
Altern@@ 6320
Dau@@ 6320
ti 6318
Bundessta@@ 6317
Gerhard 6317
mau@@ 6316
äß@@ 6309
lat@@ 6304
Jür@@ 6301
Diplom@@ 6296
Integ@@ 6293
udi@@ 6291
Verhält@@ 6286
Jak@@ 6284
ision 6282
Sus@@ 6281
Pic@@ 6277
Rü@@ 6273
1860 6272
Main@@ 6270
Hä@@ 6269
rein@@ 6268
aja 6266
teren 6265
Alexand@@ 6258
Wür@@ 6258
Län@@ 6256
Pseud@@ 6249
Ukraine 6244
entfern@@ 6242
dam@@ 6241
offiziel@@ 6240
sive 6239
ity 6238
Smith 6233
Lad@@ 6231
AC 6230
Argent@@ 6230
Bem@@ 6227
preuß@@ 6224
Alber@@ 6221
ero 6218
hoh@@ 6212
erhin 6208
Interpre@@ 6205
issen@@ 6200
don 6199
Show 6195
Generation 6190
ū@@ 6190
Pin@@ 6184
Kö@@ 6183
Joachim 6176
ting 6176
Alli@@ 6173
Konrad 6173
gau 6170
1879 6168
Che@@ 6167
Fischer 6167
ska 6167
onders 6165
organ@@ 6164
Comm@@ 6160
post@@ 6159
Phase 6158
theoret@@ 6156
CO@@ 6155
DE@@ 6155
Jac@@ 6154
era 6153
Es@@ 6151
run@@ 6151
train@@ 6146
1866 6145
Kel@@ 6142
Rak@@ 6140
äuft 6140
bination 6139
Portugal 6137
offiz@@ 6136
Stan@@ 6135
Andr@@ 6127
Mast@@ 6127
Mang@@ 6121
ash 6118
pri@@ 6118
Dur@@ 6114
Pop@@ 6112
spru@@ 6112
wid@@ 6110
Sing@@ 6108
ells 6108
Att@@ 6107
material 6107
keit@@ 6106
Eduard 6104
miss@@ 6100
popul@@ 6099
1875 6094
ements 6093
station@@ 6093
Sn@@ 6090
exu@@ 6090
1500 6089
s. 6088
Anton@@ 6078
Ful@@ 6078
FI@@ 6077
Wa@@ 6077
Bay 6074
Erzb@@ 6069
ux 6068
Sof@@ 6065
ener@@ 6064
Hun@@ 6063
Clu@@ 6059
Sieg@@ 6059
up 6057
Israel 6056
utes 6054
Aff@@ 6053
Sper@@ 6052
unterschei@@ 6048
Ped@@ 6044
ition@@ 6044
nit@@ 6040
ommen 6040
Graf@@ 6039
arbeiter 6038
Leich@@ 6035
Pir@@ 6035
Dort@@ 6031
Uni@@ 6030
Merk@@ 6020
OS 6016
aters 6016
Studio 6015
Ara@@ 6012
Live 6011
Nomin@@ 6010
motor 6010
gül@@ 6009
ine@@ 6006
ped@@ 6003
Sow@@ 6001
omb@@ 6001
denburg 6000
ji 6000
mond 6000
bran@@ 5998
Nik@@ 5984
ku@@ 5984
wa@@ 5984
ehr 5982
Laur@@ 5980
mak@@ 5971
spor@@ 5970
1887 5968
Verbreit@@ 5967
lieb 5967
red 5967
kas 5965
Prob@@ 5963
1867 5961
aka 5961
Super 5958
Bour@@ 5957
ía 5957
Gil@@ 5951
eis 5950
ystem 5948
tent@@ 5946
liber@@ 5939
ollen 5939
ugos@@ 5939
q 5938
sident 5935
unmittel@@ 5935
ull 5933
Zwisch@@ 5930
aust@@ 5927
Č@@ 5920
bers 5919
Kontak@@ 5917
4.@@ 5913
bibli@@ 5907
King 5901
duk@@ 5901
Plan 5895
tei@@ 5895
ilit@@ 5893
passi@@ 5893
Bah@@ 5892
Brand 5889
Dipl@@ 5888
W. 5888
diti@@ 5886
oner 5882
Francisco 5875
Dopp@@ 5872
bst 5867
anger@@ 5864
VP 5862
Gir@@ 5860
sand@@ 5860
Dim@@ 5859
low 5852
SP@@ 5849
Nag@@ 5848
erium 5844
Dig@@ 5840
ular@@ 5838
Rand@@ 5836
spra@@ 5835
250 5833
dim@@ 5832
Zi@@ 5831
1886 5830
Nachfol@@ 5830
rise 5829
here 5828
funk 5826
Box@@ 5824
Vil@@ 5821
Río 5819
oly@@ 5819
Olymp@@ 5817
versi@@ 5814
erklär@@ 5811
Religion 5810
Schü@@ 5810
Operation 5808
gerichtet 5807
dri@@ 5802
unterschie@@ 5800
way 5798
äuser 5796
Party 5794
Ele@@ 5793
ations 5793
Rio 5791
1873 5790
Tanz@@ 5787
od 5786
Internet 5785
1920@@ 5779
120 5778
ür 5776
Mul@@ 5771
Tan@@ 5771
1872 5770
ul 5769
gemeinden 5763
osph@@ 5763
... 5759
1868 5757
suchte 5755
1884 5754
spre@@ 5754
Defin@@ 5753
sterreich 5750
strateg@@ 5750
700 5744
Sm@@ 5743
Them@@ 5742
erhalb 5741
trop@@ 5738
SC@@ 5737
Post 5736
Cu@@ 5733
mis@@ 5730
list@@ 5727
zur@@ 5727
Edward 5724
e.@@ 5724
arina 5721
ams 5720
entur@@ 5720
José 5719
Corn@@ 5716
NG@@ 5716
restaur@@ 5714
aker 5711
Software 5709
dex 5707
bit@@ 5702
ßen@@ 5700
ischof 5699
tin 5695
Differ@@ 5692
Clar@@ 5691
ames 5690
Staf@@ 5678
tic@@ 5678
Lis@@ 5677
imp@@ 5676
1878 5674
ultur 5674
Distri@@ 5673
Fen@@ 5671
Peter@@ 5671
Indu@@ 5669
1882 5666
epp@@ 5664
pos@@ 5663
transpor@@ 5663
DR 5661
Mis@@ 5661
zig 5661
Cra@@ 5655
Basi@@ 5652
Pas@@ 5646
inner 5643
finan@@ 5641
tour@@ 5640
Pul@@ 5638
Wolf 5635
ynast@@ 5635
Miss@@ 5628
ektur 5626
gebung 5626
Bronze 5623
Herbert 5622
1876 5618
DF@@ 5617
Num@@ 5617
Kob@@ 5614
States 5614
ax 5612
Adam 5610
alog 5610
region 5608
western 5608
1881 5599
ielt 5596
Rou@@ 5592
sili@@ 5591
Jos@@ 5590
PD 5585
Cat@@ 5582
mil@@ 5579
mir 5579
initi@@ 5577
ë@@ 5577
örd@@ 5576
altar 5573
archit@@ 5573
person@@ 5569
ila 5566
hardt 5562
Dres@@ 5561
uch 5559
Greg@@ 5556
wer 5551
1883 5548
oun@@ 5543
ão 5542
Route 5536
phase 5536
Dou@@ 5527
fasste 5521
Individu@@ 5518
Probl@@ 5517
rieg 5517
lie 5515
etter 5511
Liv@@ 5507
agon@@ 5507
amme 5503
schließ@@ 5502
Hem@@ 5500
seln 5498
ines 5494
1864 5493
ieder@@ 5493
under 5492
Bit@@ 5491
Rus@@ 5490
famili@@ 5489
pen 5485
Video 5484
Cou@@ 5482
Don 5481
ants 5480
dic@@ 5475
utt@@ 5475
Chron@@ 5470
Viol@@ 5467
gebor@@ 5463
shire 5462
Rap@@ 5460
hi 5460
Tol@@ 5459
Thi@@ 5458
Mül@@ 5454
sequ@@ 5453
these 5451
iz 5450
arf 5449
1861 5443
Erfol@@ 5442
esp@@ 5435
Bron@@ 5432
undes@@ 5432
1869 5428
aches 5428
Hit@@ 5427
France 5426
kü@@ 5426
Dal@@ 5421
vierte 5420
iland 5416
By@@ 5414
einander@@ 5414
1862 5409
gab@@ 5407
wass@@ 5401
1815 5397
pot@@ 5392
Eg@@ 5390
revol@@ 5387
iller 5382
oper 5378
Moh@@ 5377
Online 5374
sul@@ 5373
E. 5372
Street 5372
Fro@@ 5371
UC@@ 5371
1865 5370
Fort 5367
Stro@@ 5365
Prix 5361
AS 5357
künst@@ 5353
Aqu@@ 5350
höch@@ 5349
ander 5342
ulation 5342
Design 5337
Gymnasi@@ 5334
Stefan 5334
bach@@ 5322
aden@@ 5321
ema 5319
bedro@@ 5313
és 5313
aria 5311
rup@@ 5310
sid@@ 5308
olf 5307
Frau@@ 5303
ßt 5300
internation@@ 5299
Meg@@ 5296
Tru@@ 5293
Ö 5288
Mary 5284
1877 5282
Direk@@ 5276
oul@@ 5268
Arg@@ 5265
motion 5265
Pon@@ 5263
Gul@@ 5262
Mem@@ 5259
Amsterdam 5255
ament 5254
Fres@@ 5251
anal@@ 5250
plan 5247
G. 5245
1849 5242
Arab@@ 5239
Park@@ 5239
Texas 5239
stim@@ 5239
instit@@ 5238
enhagen 5235
Fo@@ 5233
uments 5233
Yor@@ 5227
iko 5227
Auto 5219
Jon@@ 5219
IV 5218
Fur@@ 5215
án@@ 5214
Sold@@ 5212
val@@ 5211
Inf@@ 5209
ners 5209
Antonio 5202
iga 5202
Divis@@ 5197
Oli@@ 5197
ez@@ 5197
Red 5194
vers 5191
Standard 5189
ensis 5189
med@@ 5186
oz@@ 5183
Lee 5181
Peri@@ 5179
aya 5177
DF 5175
thin 5174
elem@@ 5173
IC@@ 5168
fließ@@ 5159
ligen@@ 5154
well 5147
Management 5144
Pro 5143
− 5141
umin@@ 5140
individu@@ 5139
Gun@@ 5135
ends 5124
ati 5123
athl@@ 5121
rum@@ 5120
loc@@ 5118
indi@@ 5108
Co. 5107
Rah@@ 5107
Baron 5104
athol@@ 5103
Mé@@ 5102
instr@@ 5102
zes 5090
eton 5087
Kilom@@ 5086
neur@@ 5086
Mechan@@ 5085
Hugo 5082
ope 5074
aki 5069
Mission 5068
Pion@@ 5067
protest@@ 5063
ission@@ 5060
tain@@ 5055
Oscar 5052
gan 5051
Republi@@ 5050
bin 5049
ultur@@ 5049
harmon@@ 5048
ffer@@ 5046
Magn@@ 5044
lock 5044
Wik@@ 5038
ruppen 5038
ova 5037
Vit@@ 5034
vir@@ 5033
tit@@ 5031
Gabri@@ 5030
ems 5024
Best 5021
Tax@@ 5020
Wh@@ 5020
Revol@@ 5019
Jah@@ 5018
hen@@ 5016
Hill 5014
Fas@@ 5012
Force 5011
ique 5009
ond 5009
alp@@ 5008
kin 5008
Fa@@ 5007
Depart@@ 5006
out 5003
ical 5000
operation 4999
exp@@ 4998
sab@@ 4990
text 4990
Entw@@ 4989
ätter 4985
ade@@ 4982
Schles@@ 4976
einfl@@ 4974
offs 4974
ög@@ 4974
1800 4973
Front 4970
bet 4970
vert@@ 4970
lia 4969
Grupp@@ 4968
Tom 4966
bol 4964
ois 4963
Cop@@ 4956
Cer@@ 4950
itation 4947
horn 4944
Feder@@ 4937
trans@@ 4937
Hay@@ 4932
eur 4929
Lem@@ 4923
prim@@ 4923
IT@@ 4921
Major 4921
Al 4920
zunehm@@ 4919
1863 4918
Var@@ 4917
Kil@@ 4915
D. 4914
row 4913
Mom@@ 4910
e. 4908
ike 4896
F. 4894
о@@ 4892
ania 4889
tos 4889
Awards 4888
ees 4888
profession@@ 4887
ida 4885
Nass@@ 4883
erstre@@ 4880
lan 4874
Boston 4870
able 4868
any 4866
ief 4864
Master 4862
osa 4862
Fac@@ 4860
Leip@@ 4860
aire 4859
ließ@@ 4858
Co 4856
ER@@ 4854
tus 4854
Expedition 4850
bal@@ 4844
pon@@ 4844
Coll@@ 4841
ń@@ 4840
Jar@@ 4839
zo 4838
Hitler 4832
ident@@ 4828
Ari@@ 4825
ito 4824
ony@@ 4824
R. 4822
ado 4818
az 4815
c. 4815
air 4814
Wat@@ 4813
Cru@@ 4809
aceae 4809
Metro@@ 4806
bun@@ 4806
Ten@@ 4795
Famili@@ 4794
Bin@@ 4791
ria 4786
Öff@@ 4786
BM@@ 4782
ilian 4782
sal 4782
jo@@ 4781
Register 4776
bon@@ 4775
Roth@@ 4768
zie@@ 4768
olo 4767
1856 4764
sion@@ 4763
Lun@@ 4762
Stor@@ 4760
Play 4756
ivals 4756
univers@@ 4755
orf 4754
zin 4754
version 4748
alien@@ 4746
port 4739
én@@ 4736
ér@@ 4735
Alex@@ 4731
Jack 4731
ment@@ 4730
Barbara 4729
Brig@@ 4728
own@@ 4728
Sebastian 4727
eo 4726
And@@ 4725
altungen 4725
tan@@ 4723
Service 4721
ous 4721
enter 4714
hielten 4713
kund@@ 4709
holm 4706
ava 4703
geprä@@ 4702
Van 4701
divers@@ 4701
uk 4701
Williams 4698
aster 4698
ret 4695
Fall@@ 4692
1859 4687
Systems 4687
Barcelona 4686
Singles 4685
ußen 4682
Les 4680
Budap@@ 4678
1840 4673
eth 4673
private 4673
hom@@ 4672
Gon@@ 4667
You 4665
front 4662
East 4661
fru@@ 4659
IN@@ 4658
Madrid 4658
Vereinig@@ 4658
rus 4657
Jones 4653
üt 4653
FA 4652
NR@@ 4651
si 4650
Franc@@ 4649
adel@@ 4644
Brown 4633
Hell@@ 4630
identif@@ 4628
NHL 4625
inus 4622
Tou@@ 4620
ätte 4620
bat@@ 4615
Gall@@ 4614
republik 4614
philosoph@@ 4613
immt 4612
Napole@@ 4609
Sec@@ 4609
Zo@@ 4606
HC 4601
Kön@@ 4600
Cob@@ 4599
Itali@@ 4598
ish 4598
sson 4598
Bist@@ 4597
thal 4594
Pod@@ 4592
mi 4592
Pom@@ 4590
parti@@ 4588
TA 4585
Ry@@ 4584
Vinc@@ 4578
ardo 4576
ingu@@ 4576
Mount 4573
osop@@ 4572
orium 4571
Bisch@@ 4569
ony 4567
Now@@ 4566
Columbia 4563
IC 4563
stattung 4561
symb@@ 4561
ce@@ 4553
dep@@ 4553
200@@ 4552
Nav@@ 4551
eler 4551
Corps 4550
Bachelor 4546
ş@@ 4545
Quar@@ 4544
emb@@ 4543
Sir 4542
heirat@@ 4542
pi@@ 4540
leich 4539
Big 4536
Ga@@ 4534
isse@@ 4534
bo 4531
sur@@ 4531
Hard@@ 4529
eilt 4527
utr@@ 4527
6.@@ 4521
OR@@ 4519
Bag@@ 4516
Ale@@ 4513
Beck@@ 4513
niss@@ 4512
ymnasi@@ 4509
fun@@ 4508
sia 4507
französ@@ 4505
Mir@@ 4504
Ott@@ 4498
Rub@@ 4498
Arnold 4497
Def@@ 4497
Initi@@ 4496
Coun@@ 4494
Pun@@ 4493
Strateg@@ 4493
onia 4493
Progr@@ 4490
audi@@ 4490
Harry 4484
Virginia 4484
iques 4484
Dev@@ 4480
ows 4478
team 4478
Elem@@ 4475
aly@@ 4473
ów 4472
Ras@@ 4467
linder 4466
1830 4462
1857 4462
vention 4461
diverse 4460
wood 4460
statist@@ 4459
go@@ 4458
Colle@@ 4454
spir@@ 4453
5.@@ 4452
European 4452
dis 4450
Joe 4446
1855 4444
cor@@ 4443
Rain@@ 4442
3000 4440
anna 4440
Lord 4438
Rav@@ 4438
1854 4436
aine 4435
Navy 4433
Jam@@ 4429
Bulgar@@ 4425
top@@ 4420
Joh@@ 4419
insel 4416
pil@@ 4416
Juan 4414
ento 4413
probl@@ 4413
Series 4410
idae 4407
interpre@@ 4407
Carolina 4406
lied 4405
CS@@ 4402
bury 4400
stattet 4393
Marath@@ 4389
wig 4386
Heb@@ 4385
uß@@ 4381
Love 4379
Wagner 4378
Leb@@ 4377
differ@@ 4377
tic 4377
ächst 4371
avi@@ 4368
frau 4365
Bell@@ 4363
Albums 4362
One 4360
Florida 4356
ê@@ 4352
Zun@@ 4351
Massachusetts 4349
Horn@@ 4347
Research 4346
ammen 4346
dinal 4346
endor@@ 4344
oli 4343
eröff@@ 4342
Elec@@ 4341
Ax@@ 4340
Ferr@@ 4340
Ring 4339
regist@@ 4338
kov@@ 4334
Fut@@ 4333
utzt 4333
mee 4331
Las@@ 4329
def@@ 4328
autob@@ 4327
Beau@@ 4325
François 4325
com@@ 4324
ional 4323
Einwohner@@ 4321
tol@@ 4321
non 4318
1852 4317
ores 4317
Alf@@ 4315
zi 4314
ğ@@ 4312
Rober@@ 4309
Cent@@ 4308
ec 4306
amerikan@@ 4301
1858 4298
ori 4298
Earl 4296
ī@@ 4295
Gur@@ 4293
Int@@ 4293
oni 4293
Ox@@ 4291
а@@ 4291
isl@@ 4289
Holl@@ 4285
Wales 4285
yl 4280
ras 4278
Samuel 4277
igh@@ 4276
ión 4275
Petersburg 4273
real 4272
DS 4271
eta 4270
geordnet 4270
häl@@ 4269
Fab@@ 4265
Atl@@ 4262
bul 4261
Gh@@ 4256
Hur@@ 4256
deck 4254
sog@@ 4251
Intel@@ 4250
ă@@ 4248
P. 4247
cu@@ 4244
alter@@ 4243
stands 4241
ophi@@ 4240
Regisse@@ 4238
Western 4237
ral@@ 4237
ameister@@ 4236
edoch 4234
Championship 4232
Transport 4232
sang 4227
west 4224
ä 4223
ni 4222
atus 4219
extre@@ 4213
ächs@@ 4212
kau 4211
meter 4209
Dru@@ 4207
Gang@@ 4206
Cel@@ 4205
Boh@@ 4202
Lond@@ 4197
RE@@ 4196
vin@@ 4194
dah@@ 4192
ave 4190
rac@@ 4190
rec@@ 4187
Scott 4186
ban 4183
ć 4183
Jacques 4179
Original 4179
Om@@ 4171
Pennsylvania 4166
White 4166
ʿ@@ 4165
Central 4164
dat@@ 4164
Giovanni 4163
sym@@ 4162
VI@@ 4161
oto 4160
Anne 4159
Cath@@ 4158
king 4158
Thor@@ 4156
sow@@ 4153
Gam@@ 4152
cy 4152
stron@@ 4152
Anim@@ 4150
ó 4150
verantwor@@ 4149
Jacob 4148
ook 4146
Nu@@ 4145
origin@@ 4145
Termin@@ 4144
major 4142
Tam@@ 4141
DVD 4139
Fon@@ 4139
1845 4138
etta 4133
Ay@@ 4128
1851 4125
tar@@ 4125
1847 4122
T. 4113
oo 4111
olas 4110
gyp@@ 4109
enko 4106
Sud@@ 4096
aid@@ 4095
Pak@@ 4094
Kör@@ 4091
Cour@@ 4089
ulti@@ 4087
betrach@@ 4085
Castle 4083
big 4082
gio 4082
vin 4080
7.@@ 4077
Bob@@ 4077
mosph@@ 4077
Arti@@ 4076
Dynam@@ 4076
Tas@@ 4075
Az@@ 4071
Bla@@ 4070
ogs 4068
Gramm@@ 4066
etti 4064
pers@@ 4064
High@@ 4062
Ron@@ 4061
geograph@@ 4061
110 4060
1846 4060
Ford 4049
ę@@ 4048
rate 4046
alis 4043
Y 4042
EP 4040
las 4033
soli@@ 4033
ual 4033
CD@@ 4032
ink 4028
Wy@@ 4027
ador 4027
ockey 4027
Leo 4023
oid 4022
Bill 4018
8.@@ 4017
Pur@@ 4015
HL 4012
Geschäf@@ 4010
adrat@@ 4009
Rog@@ 4007
bir@@ 4007
São 4006
AM@@ 4002
ussion 4002
Ral@@ 4000
pur@@ 4000
Army 3999
и@@ 3999
Johnson 3996
ning 3994
Phot@@ 3991
Bak@@ 3990
L. 3990
ae@@ 3986
ickl@@ 3983
stütz@@ 3982
š 3975
dener 3973
Trin@@ 3972
Nac@@ 3968
kers 3968
St 3967
Victoria 3966
parks 3965
Davis 3961
optim@@ 3960
MA 3959
eld@@ 3959
ult 3958
AC@@ 3957
losses 3957
gon@@ 3955
Orchest@@ 3954
Oc@@ 3950
lav@@ 3949
æ@@ 3949
Din@@ 3945
ize 3944
renov@@ 3944
1853 3941
Bap@@ 3941
egt 3938
wirt@@ 3934
eiro 3932
Charlotte 3930
Champ@@ 3923
Ohio 3923
tend 3923
Od@@ 3919
view 3917
Mike 3915
ault 3909
jo 3909
iat@@ 3907
ires 3906
ū 3904
Ama@@ 3901
ones 3897
Kateg@@ 3895
ffe 3892
Line 3891
aro 3891
prop@@ 3891
Lud@@ 3889
Highway 3888
red@@ 3888
aw 3887
Basketball 3886
IT 3886
Rit@@ 3885
oe 3882
ș@@ 3882
Well@@ 3880
og 3880
set 3879
Put@@ 3878
Pop 3876
Tob@@ 3873
nec@@ 3872
video 3872
Maj@@ 3871
Ken@@ 3870
First 3868
Ja@@ 3868
Sher@@ 3867
diag@@ 3867
yle 3867
thod@@ 3863
Naz@@ 3862
pap@@ 3860
Emer@@ 3859
otyp@@ 3859
rey 3859
essor 3854
experim@@ 3854
Municip@@ 3851
real@@ 3850
cre@@ 3847
AN@@ 3846
ran 3842
Ny@@ 3838
Wis@@ 3836
Esp@@ 3835
Lav@@ 3835
iki 3835
Armen@@ 3834
nation@@ 3834
130 3833
Ž@@ 3833
Games 3831
# 3828
Young 3828
rix 3825
line 3824
bat 3822
Run@@ 3821
Kh@@ 3819
Hus@@ 3817
Jerusalem 3817
einzel@@ 3814
atom@@ 3810
Ball 3802
aufhin 3800
Sha@@ 3799
Blo@@ 3798
IS 3798
ower 3796
Champions 3792
ST@@ 3792
gender 3791
oda 3786
Green 3783
$ 3781
ähri@@ 3781
BA 3780
Whit@@ 3779
eking 3777
Mid@@ 3776
Dub@@ 3772
900 3770
Max@@ 3770
ummer 3769
trum 3765
alg@@ 3764
Rose 3760
diplom@@ 3760
ous@@ 3758
riech@@ 3757
dé@@ 3755
Clau@@ 3753
cio 3753
jan 3750
180 3747
ws 3746
Studios 3745
resul@@ 3745
Francis 3744
zant@@ 3740
Van@@ 3737
California 3734
Sowjet@@ 3732
Renaissance 3731
Vic@@ 3727
” 3723
Jesus 3722
sha@@ 3722
oms 3719
ty@@ 3716
Flugh@@ 3712
Labor@@ 3712
Council 3710
rit 3708
alia 3707
gements 3704
own 3703
Gab@@ 3702
inspi@@ 3696
Blue 3695
emal@@ 3695
Code 3693
Chap@@ 3688
bad 3688
Carlos 3687
Cham@@ 3685
Ig@@ 3685
Mr@@ 3685
Sult@@ 3682
Net@@ 3681
Chall@@ 3680
gal@@ 3679
Centre 3674
Reserve 3672
gelö@@ 3668
asi 3665
Weltmeister@@ 3662
Neg@@ 3660
afür 3660
Formation 3658
ić 3655
phil@@ 3653
beginn@@ 3652
Blues 3651
aga 3649
eira 3648
gon 3648
tot@@ 3647
Pav@@ 3645
Oblast 3644
norm@@ 3643
ogen@@ 3643
Oxford 3642
sächs@@ 3641
zei 3641
Town 3637
Öffent@@ 3637
е@@ 3636
asket@@ 3635
Committee 3634
Fant@@ 3631
anger 3630
anus 3630
tors 3630
get 3629
Life 3627
Sv@@ 3626
kins 3621
systems 3618
wan 3617
acker 3615
ry@@ 3615
ators 3614
Bob 3613
ović 3612
ood 3611
sts 3611
brand 3610
hai 3607
Cla@@ 3604
ario 3604
sing@@ 3602
dimensi@@ 3601
rin@@ 3601
äß 3601
Iran 3598
Beat@@ 3596
män@@ 3596
Benn@@ 3595
Toronto 3591
ährt 3590
ami 3588
olen 3586
Cann@@ 3585
rob@@ 3584
essel 3580
iment 3580
Ben 3579
Chile 3577
quot@@ 3575
Haw@@ 3572
Point 3572
UEFA 3572
Illinois 3571
orph@@ 3571
pt 3571
Sydney 3569
Victor 3569
Road 3566
ci 3565
eman 3562
Cli@@ 3559
esia 3556
nd 3556
Portug@@ 3554
Bog@@ 3551
Legisl@@ 3548
deutschsprach@@ 3547
Ci@@ 3544
Goth@@ 3544
Expl@@ 3541
Computer 3538
Boo@@ 3535
erne@@ 3535
qui@@ 3534
Zü@@ 3533
stro@@ 3531
behin@@ 3529
Ray@@ 3525
professor 3525
Roger 3524
Chr@@ 3521
ref 3520
ex 3519
D.C. 3517
Brigade 3516
SO@@ 3515
oven 3515
gin 3514
9.@@ 3512
Publi@@ 3511
gleichnam@@ 3510
Patrick 3509
Times 3506
lit 3504
AI@@ 3503
PC 3503
Unterstütz@@ 3503
ep 3501
Port 3499
Black@@ 3497
Ric@@ 3497
inter 3497
provin@@ 3494
BS 3491
ight 3489
Eli@@ 3485
Tha@@ 3485
ogn@@ 3485
Nich@@ 3484
Philadelphia 3484
him@@ 3482
thro@@ 3481
н@@ 3480
ife 3479
Wilson 3477
Corporation 3476
zahlreich@@ 3476
ests 3475
Donald 3473
Windows 3473
flex@@ 3469
ho 3467
lier 3465
Cos@@ 3463
lic@@ 3462
sey 3462
gehöri@@ 3461
Orchestra 3460
Mill@@ 3459
enc@@ 3456
Q 3455
arm 3449
idi@@ 3447
ü 3446
Church 3442
Taylor 3442
rif@@ 3442
rhein 3440
tra 3440
intend@@ 3438
Soci@@ 3432
Spä@@ 3432
lav 3430
11@@ 3429
bi 3429
fur@@ 3422
igu@@ 3422
wohner 3421
Braun@@ 3420
ails 3420
RT@@ 3417
Steve 3417
ittel@@ 3417
Stri@@ 3416
kilom@@ 3415
Test 3413
iew 3412
ätten 3411
äche 3408
Hop@@ 3406
Jackson 3406
Atlan@@ 3405
fron@@ 3403
ept 3399
Griff@@ 3398
Sciences 3396
ral 3394
gor@@ 3391
ı 3390
р@@ 3389
Arena 3387
Zone 3386
Hollywood 3383
frequ@@ 3383
beha@@ 3381
emper@@ 3379
My 3378
respon@@ 3378
DC 3377
Douglas 3376
Ali@@ 3374
ässt 3373
iefer@@ 3371
Oliver 3365
UN 3365
vey 3365
Benjamin 3364
AL@@ 3363
Jersey 3363
Me 3363
Gött@@ 3359
K. 3359
Thom@@ 3358
geord@@ 3358
bis@@ 3357
Nep@@ 3356
Parlam@@ 3355
anch@@ 3348
Chris 3345
Lewis 3344
Sax@@ 3344
illion 3344
NA 3343
stadi@@ 3341
ira 3338
cal@@ 3337
EC 3336
ouver@@ 3336
now 3333
Aer@@ 3330
circ@@ 3328
empl@@ 3328
worth 3327
CE@@ 3325
Hung@@ 3324
ops 3324
ason 3320
Alph@@ 3318
eral 3317
ram 3310
ud 3310
Ever@@ 3304
Tony 3303
ali 3303
tex@@ 3302
codi@@ 3301
Ira@@ 3297
Training 3296
Carol@@ 3295
deos 3295
emer@@ 3295
ense 3295
Avi@@ 3293
olley@@ 3293
itor 3288
ree 3287
oma 3286
lio 3284
event@@ 3282
acc@@ 3281
ii 3281
Rho@@ 3280
even 3280
ls@@ 3277
CI@@ 3276
ronom@@ 3276
Ungar@@ 3266
rug 3261
COVID 3260
eds 3258
Women 3257
cer@@ 3256
ival@@ 3256
iop@@ 3254
AN 3253
Dav@@ 3252
getr@@ 3251
allel 3243
DJ 3241
Media 3241
athan 3241
übri@@ 3241
Cin@@ 3236
Sain@@ 3236
Serb@@ 3236
Cab@@ 3235
Salv@@ 3232
Raf@@ 3231
wall 3230
mine 3226
Serge@@ 3222
alz 3221
alition 3216
cul@@ 3214
materi@@ 3214
erschein@@ 3212
Stars 3211
rin 3206
arc@@ 3204
basis 3204
dynam@@ 3204
stant 3204
half 3203
bad@@ 3202
org@@ 3196
zial@@ 3196
esses 3195
Á@@ 3195
Hamilton 3194
gh 3188
ttem@@ 3186
aver@@ 3185
modern@@ 3183
my 3182
esa 3178
Andrew 3177
don@@ 3177
Information 3175
oul 3174
Cambridge 3173
seg@@ 3168
Ash@@ 3167
iger@@ 3165
geleit@@ 3163
ble@@ 3159
Real 3158
Jenn@@ 3157
chi 3157
DV@@ 3152
Circ@@ 3151
management 3148
tab@@ 3148
hib@@ 3145
Out@@ 3144
Hz 3143
Spring@@ 3142
Nation 3141
Kit@@ 3140
resi@@ 3140
forman@@ 3137
Valley 3135
dram@@ 3135
Bedeut@@ 3132
IB@@ 3131
aul@@ 3131
ref@@ 3127
fres@@ 3119
turel@@ 3119
öss@@ 3118
Journal 3116
Hob@@ 3115
Diam@@ 3109
club 3109
ensive 3106
wendet 3099
ą@@ 3097
bles 3094
zeu@@ 3091
cs 3089
hn@@ 3089
hum@@ 3088
val 3088
AD@@ 3087
AP@@ 3087
Schrif@@ 3087
Margar@@ 3085
ī 3083
Verwal@@ 3082
osaur@@ 3082
Charl@@ 3081
idd@@ 3080
Cri@@ 3068
vent 3068
Lyn@@ 3062
Pier@@ 3062
bot@@ 3062
Ey@@ 3061
gas 3061
America 3060
Express 3058
Stadi@@ 3058
Ji@@ 3052
ago@@ 3051
ð@@ 3046
programm@@ 3045
Great 3044
relev@@ 3043
Willi@@ 3042
→ 3042
Abd@@ 3041
mem@@ 3041
Ruh@@ 3039
124@@ 3038
XX@@ 3038
mir@@ 3037
Act 3034
Contin@@ 3034
din 3032
Draft 3029
€ 3028
prob@@ 3027
dae 3026
ME@@ 3022
illu@@ 3019
Golden 3015
pper 3011
omot@@ 3009
Gy@@ 3006
Aar@@ 3005
ole@@ 3005
eto 3000
tür@@ 2998
DNA 2997
Fellow 2996
Seh@@ 2996
invest@@ 2996
live 2995
orts 2994
poly@@ 2993
sons 2991
motor@@ 2988
Pad@@ 2986
ups 2986
itim@@ 2985
wich 2984
zy 2984
division 2981
Bow@@ 2980
out@@ 2978
Isa@@ 2974
fabri@@ 2972
NE@@ 2971
NO@@ 2971
eda 2971
ied 2971
sus 2971
prot@@ 2970
Abra@@ 2969
Historic 2969
esc@@ 2968
uter 2967
Iv@@ 2966
emin@@ 2963
Ple@@ 2960
spon@@ 2960
ords 2959
Nan@@ 2957
Shar@@ 2956
obile 2956
с@@ 2956
Prince 2954
Time 2954
ovo 2952
ś@@ 2951
eiten 2950
Saf@@ 2947
Eric 2946
start 2944
thes@@ 2944
vic@@ 2943
LE@@ 2941
ology 2939
Beach 2936
Creek 2935
ö 2935
Classi@@ 2934
ush@@ 2933
dit 2932
festival 2932
union 2932
Ali 2931
astro@@ 2927
Nev@@ 2926
ham@@ 2926
Dah@@ 2921
Little 2917
bas@@ 2917
0.@@ 2911
Symph@@ 2909
bon 2908
Cav@@ 2906
Sound 2906
besuch@@ 2903
shi@@ 2902
Nad@@ 2901
ular 2901
wech@@ 2900
magnet@@ 2899
rone 2893
Premier 2892
Dän@@ 2889
Elizabeth 2885
Railway 2885
Zenti@@ 2885
194@@ 2884
CA 2884
ivil@@ 2884
Manchester 2883
Nürn@@ 2883
rekt 2883
blo@@ 2881
God@@ 2879
Acc@@ 2878
NBA 2877
abor@@ 2875
lied@@ 2875
Indon@@ 2874
Commun@@ 2871
my@@ 2870
Mov@@ 2868
more 2867
temper@@ 2866
Bernard 2863
Michigan 2863
Hist@@ 2859
ungsweise 2859
She@@ 2857
eting 2857
row@@ 2857
LP 2852
sn@@ 2848
BBC 2844
ways 2844
dez 2842
hydro@@ 2841
ista 2840
It 2833
.A. 2832
Harvard 2832
range 2825
alls 2824
aph@@ 2822
arib@@ 2822
Day 2820
Lady 2817
ths 2817
Deut@@ 2816
Shak@@ 2814
ingham 2812
site 2811
Alex 2809
diglich 2807
minim@@ 2807
Yam@@ 2806
othe@@ 2805
verheirat@@ 2805
Bridge 2804
mina 2804
mom@@ 2803
not 2803
itis 2802
Personal 2800
mand@@ 2800
Country 2799
human@@ 2797
nommen 2796
DA 2795
enab@@ 2794
Nap@@ 2789
besa@@ 2789
mas 2788
Allen 2785
messer 2785
Business 2784
Sier@@ 2782
boo@@ 2780
Tw@@ 2777
Chan@@ 2775
Isra@@ 2774
Fig@@ 2770
inea 2770
Luis 2768
TC 2768
24@@ 2767
Law@@ 2767
Europe 2766
Foundation 2766
sat@@ 2765
Racing 2764
vo 2764
Anthony 2763
Miller 2763
Power 2761
ces 2760
gewi@@ 2759
Hamp@@ 2757
iro 2755
itar@@ 2754
loyd 2754
show 2752
uma 2751
agu@@ 2750
altern@@ 2748
ness 2748
bol@@ 2746
lines 2746
epi@@ 2745
PA 2743
Anth@@ 2741
Hospital 2741
SS@@ 2740
Falls 2738
frag@@ 2737
Sid@@ 2735
intel@@ 2735
sidi@@ 2734
Stephen 2732
nar@@ 2730
positive 2730
War 2729
Minnesota 2728
ael 2724
hou 2722
A.@@ 2721
can@@ 2718
vit@@ 2718
Thailand 2714
gewei@@ 2710
District 2706
alo 2706
vul@@ 2705
Buck@@ 2704
sum 2704
ude 2703
NFL 2702
Kim 2701
amin 2701
Long 2698
Model 2697
anist 2696
ashi 2696
br 2696
brig@@ 2690
act@@ 2689
ima 2688
law 2682
ols 2682
elta 2681
rez 2680
ains 2676
rand@@ 2672
Sam 2671
Spi@@ 2671
tions 2671
Repräsent@@ 2669
BC 2665
oom 2665
abri@@ 2664
refer@@ 2662
10.@@ 2660
mid 2660
adi 2659
heuti@@ 2648
Howard 2646
Jim 2646
oa 2646
aqu@@ 2645
Islam 2644
Queen 2644
Township 2643
North@@ 2642
ool 2640
unk 2640
Free 2638
etts 2638
with 2638
ever 2634
ques 2634
sees 2629
ensus 2625
Ross 2623
Ray 2618
asa 2616
Mäd@@ 2615
journ@@ 2615
Bill@@ 2613
Airport 2609
separ@@ 2609
Brian 2608
Montreal 2606
gressi@@ 2605
test 2603
AF 2602
Senator 2602
Dak@@ 2601
Départ@@ 2598
ware 2597
ook@@ 2596
Bang@@ 2595
Theatre 2595
Zh@@ 2594
tom@@ 2593
ý@@ 2593
RO@@ 2592
bor 2592
Cher@@ 2590
Düssel@@ 2589
ried 2589
regional 2588
schnitt@@ 2588
may@@ 2586
AP 2585
Islam@@ 2583
figur@@ 2582
č 2580
uz 2579
Liter@@ 2578
к@@ 2576
Stadium 2572
lab@@ 2571
Sac@@ 2568
cur@@ 2568
iti 2568
bom@@ 2561
lip@@ 2558
Lt@@ 2553
You@@ 2552
digkeiten 2551
ery 2550
IP 2548
Schol@@ 2548
tage 2545
Pho@@ 2543
Stadtt@@ 2542
Entsteh@@ 2540
modi@@ 2540
Gordon 2537
Over@@ 2537
nomin@@ 2537
Davi@@ 2535
biet@@ 2535
che@@ 2535
Glasgow 2534
yo 2534
yan 2532
PC@@ 2529
\ 2526
Conc@@ 2525
Game 2525
verse 2522
pul@@ 2520
Philosoph@@ 2517
Georgia 2516
perf@@ 2515
greg@@ 2512
uan 2510
Conserv@@ 2509
MP@@ 2509
Diego 2507
phen@@ 2507
ark 2505
Lith@@ 2502
bec 2500
Stutt@@ 2499
zwöl@@ 2499
Philip 2497
promin@@ 2497
Peru 2496
Alice 2490
Pla@@ 2488
Sports 2488
var@@ 2485
Spec@@ 2484
can 2483
Fame 2482
Green@@ 2482
ids 2482
finale 2481
wed@@ 2481
Aber@@ 2480
Stanley 2480
omen@@ 2480
cel@@ 2479
ological 2476
Mr. 2474
mers 2474
Guar@@ 2473
Jack@@ 2469
back 2467
his 2467
emig@@ 2464
Missouri 2463
arri@@ 2463
ror 2463
öhn@@ 2463
Sun@@ 2461
Adv@@ 2459
Administ@@ 2458
esh@@ 2458
ateg@@ 2456
ugh 2455
Junior 2454
Jul@@ 2452
Musli@@ 2452
pp 2451
ides 2448
anth@@ 2447
ve@@ 2447
Are@@ 2446
Loc@@ 2446
л@@ 2446
CS 2445
vill@@ 2444
aks 2441
demon@@ 2441
onder@@ 2441
Colorado 2433
poem 2433
vis 2431
Edinburgh 2428
Gaz@@ 2427
Ukra@@ 2426
Australian 2424
Austria 2424
Admiral 2423
rid 2423
pole 2422
Alan 2421
Brow@@ 2421
Rid@@ 2419
beauf@@ 2419
ext@@ 2418
Moore 2417
charts 2417
mas@@ 2417
Mountains 2413
Tim 2411
wendung 2411
Christopher 2408
Ontario 2408
gran@@ 2407
No 2406
ody 2406
Johnny 2401
Las 2400
tem@@ 2400
Public 2393
U.S. 2391
hold 2391
Old 2390
gin@@ 2389
oy 2389
Goo@@ 2383
Ital@@ 2383
ubl@@ 2379
­ 2379
AT 2376
eal@@ 2376
Duke 2375
bring@@ 2373
nam 2370
orith@@ 2366
LA 2364
För@@ 2363
Lov@@ 2363
Entertainment 2362
Technology 2362
ising 2362
day 2361
reb@@ 2359
app 2353
nat@@ 2353
Internation@@ 2351
Space 2351
bing 2351
Ç@@ 2350
marine 2349
republi@@ 2349
Sarah 2348
tun@@ 2348
Night 2347
Adams 2345
CH@@ 2344
Freder@@ 2343
Sun 2342
Ł@@ 2342
CC 2341
Pit@@ 2341
edy 2341
pati@@ 2339
graph@@ 2337
Pacific 2335
mul@@ 2335
onal 2334
asy 2333
Bar 2332
Fred 2332
cin@@ 2332
vel 2332
ο@@ 2332
jewei@@ 2327
Chief 2326
auth@@ 2326
ward 2326
Kansas 2325
ills 2324
Death 2321
ads 2321
dition@@ 2321
Jimmy 2319
side 2319
uit 2319
Charlie 2318
ction 2317
Dan 2315
band@@ 2315
Board 2314
last 2314
Squ@@ 2312
в@@ 2310
abin@@ 2309
Theod@@ 2306
schieden 2304
İ@@ 2304
May 2303
Detroit 2302
cip@@ 2299
Tul@@ 2297
erine 2297
onym@@ 2297
uf 2297
UK 2296
Clark 2295
omin@@ 2292
î@@ 2290
Wisconsin 2288
Anderson 2287
abs@@ 2287
Order 2286
Law 2285
Court 2284
bab@@ 2282
inv@@ 2280
Sah@@ 2276
ric 2276
Rugby 2275
zir@@ 2274
lv@@ 2273
anny 2267
samen 2267
Billy 2265
IM@@ 2264
Sho@@ 2260
Is 2258
Conference 2255
thers 2255
pack@@ 2254
rachte 2254
but@@ 2253
Ō@@ 2253
asion 2252
ature 2249
press@@ 2249
Thur@@ 2245
ayne 2245
т@@ 2245
commun@@ 2244
inten@@ 2244
mon 2244
Memorial 2237
ienen 2234
orie 2234
ours 2230
ough 2229
star 2228
Kum@@ 2226
Home 2223
sle@@ 2221
otes 2214
chan@@ 2213
Long@@ 2211
Melbourne 2209
lica 2209
plant 2207
istan 2206
erner 2204
sogen@@ 2203
Tig@@ 2202
Josep@@ 2200
box@@ 2200
status 2200
Bronz@@ 2199
Singap@@ 2197
Brad@@ 2195
ji@@ 2194
ress 2193
stone 2190
bud@@ 2189
Mississippi 2186
stud@@ 2184
ț@@ 2183
mid@@ 2181
AM 2178
Bell 2176
eing 2173
ption 2173
Indiana 2172
gle 2172
lah 2170
Roy 2169
ameter 2169
wick 2169
Hud@@ 2167
AF@@ 2166
unt 2166
cus 2165
enname 2165
AA 2164
mos@@ 2163
ally 2162
Söh@@ 2161
anti 2161
oba 2159
Area 2156
dom@@ 2156
chi@@ 2155
kehr 2153
Cho@@ 2151
ennis 2151
Mountain 2150
Tower 2150
WW@@ 2150
ethn@@ 2150
som@@ 2150
aug@@ 2149
atory 2148
lug 2146
Dance 2145
Last 2145
nov@@ 2144
aff 2143
Dri@@ 2139
ï@@ 2139
Fox 2138
med 2138
zon 2138
evi@@ 2137
plem@@ 2137
ray 2137
These 2135
Vancouver 2135
Commonwealth 2133
bour@@ 2133
ocks 2133
Cross 2132
Arizona 2127
Pakistan 2127
acks 2127
studio 2122
Water@@ 2120
Atlanta 2117
Hawai@@ 2117
Under@@ 2116
lov@@ 2115
occ@@ 2115
add@@ 2113
Railroad 2112
ielsweise 2111
Lanc@@ 2109
Magazine 2108
Stev@@ 2107
ries 2106
wn 2106
ior 2105
Produc@@ 2104
drama 2104
Cricket 2103
Microsoft 2103
stan 2102
Phi@@ 2101
Labor 2099
rel 2099
Dublin 2097
eff 2094
fund@@ 2094
Department 2093
Opera 2093
dge 2093
ugh@@ 2092
Centr@@ 2090
ancy 2090
Stru@@ 2089
rison 2089
Maine 2088
Bereit@@ 2087
oundtrack 2086
rab@@ 2086
lerweile 2084
rell 2084
beisp@@ 2082
atives 2081
Jane 2080
IR@@ 2079
ering 2077
sens@@ 2077
sor 2077
Simp@@ 2075
Wood@@ 2075
blu@@ 2075
änger@@ 2072
Khan 2070
Princ@@ 2069
rain 2068
Cant@@ 2067
Southern 2067
Up 2067
ż@@ 2067
Matthe@@ 2066
beför@@ 2066
ying 2066
oot 2065
Connecticut 2063
Württem@@ 2063
Clin@@ 2062
Enter@@ 2061
regi@@ 2061
illing 2060
anim@@ 2059
History 2058
Arc@@ 2057
Buff@@ 2056
GA 2056
Stewart 2056
Bruce 2054
VI 2053
Weltk@@ 2052
Associ@@ 2048
Cow@@ 2045
Australia 2044
Liverpool 2044
ound@@ 2044
Ergeb@@ 2041
Special 2041
Stone 2040
Nelson 2039
Kevin 2038
obs 2038
ades 2037
fac@@ 2036
Not 2034
Lincoln 2032
Up@@ 2032
Tai@@ 2031
hard@@ 2031
xed 2031
Margaret 2030
entation 2030
onnen 2030
rid@@ 2030
streng@@ 2030
Challenge 2027
apolis 2026
Tennessee 2023
Afghanistan 2022
Econom@@ 2022
NAS@@ 2020
äler 2019
core 2017
Puerto 2016
burn 2015
rian 2015
emot@@ 2013
publi@@ 2013
alem 2012
Nick 2009
On 2009
assist 2009
appar@@ 2007
post 2007
Heidel@@ 2005
Mitglie@@ 2004
cial 2004
Fair@@ 2002
dh@@ 2002
rank 2002
slow@@ 2001
esis 1999
Office 1998
viol@@ 1998
а 1997
agre@@ 1995
after 1994
Mex@@ 1993
Jordan 1992
Miami 1991
eckl@@ 1990
α@@ 1990
vest@@ 1989
Global 1988
Stef@@ 1988
national 1986
gespro@@ 1983
AD 1982
kind 1977
ynam@@ 1975
eli 1974
dou@@ 1973
Captain 1972
Cle@@ 1972
Frederick 1970
usin 1969
Frit@@ 1968
religi@@ 1968
tional 1968
Lawrence 1965
Will 1965
een 1963
Russell 1962
′ 1962
af 1961
fix@@ 1961
indu@@ 1961
Auth@@ 1959
Disney 1958
lear@@ 1956
than 1956
dale 1952
house 1950
iw@@ 1950
Cum@@ 1948
Hot 1948
Social 1948
ů@@ 1947
Studies 1946
Sever@@ 1944
adap@@ 1944
pass 1940
Forest 1939
Fund 1939
Dé@@ 1937
court 1937
Taiwan 1935
fang@@ 1935
Orleans 1932
Admir@@ 1931
Gib@@ 1928
aer@@ 1928
Harris 1925
main 1924
from 1922
Camer@@ 1919
Dave 1919
Place 1919
CP@@ 1914
S.@@ 1913
eld 1913
o. 1913
sex 1913
affel 1909
Trophy 1906
aska 1906
ymn@@ 1902
King@@ 1901
symp@@ 1901
distri@@ 1899
felt 1898
Iowa 1897
äischen 1891
arts 1889
Elis@@ 1888
Tube 1887
Good@@ 1885
ely 1883
rock 1883
Jord@@ 1878
Morgan 1876
Vietnam 1876
beit 1876
Equ@@ 1875
gregation 1875
ktur 1875
time 1875
squ@@ 1873
Broadway 1868
How@@ 1867
mig@@ 1865
Sci@@ 1864
Canada 1863
lon@@ 1863
views 1862
yc@@ 1861
aste 1859
oud 1859
· 1859
Ann 1857
Maryland 1854
Archit@@ 1853
Supp@@ 1849
µ@@ 1848
play 1847
multi@@ 1845
Situ@@ 1844
• 1841
ship 1840
bit 1838
Viet@@ 1837
ear 1835
negative 1834
Å@@ 1834
Chel@@ 1831
Bowl 1830
ites 1830
ici@@ 1829
News 1827
Avenue 1824
Down 1823
Kennedy 1822
ς 1820
sit 1816
End 1814
eva 1814
block 1813
pu@@ 1813
Turk@@ 1812
Hills 1811
aid 1811
ihr@@ 1809
inj@@ 1808
teams 1808
enna 1806
bey 1804
Canadian 1801
N. 1801
Franklin 1799
Osc@@ 1799
outh 1799
partner 1799
Graham 1798
sea 1798
Venezu@@ 1797
fro@@ 1797
Engineering 1793
head 1792
Houston 1790
agan 1789
Miss 1788
ential 1787
online 1787
hatt@@ 1786
ture 1784
Kaz@@ 1783
Ś@@ 1782
ld@@ 1780
chise 1778
ple 1778
yon 1778
state 1777
erland 1776
Sais@@ 1775
Sund@@ 1772
Nations 1770
brief 1770
entran@@ 1770
RC 1768
edition 1767
ox 1767
scheinlich 1767
Li 1765
box 1765
cri@@ 1765
FIFA 1762
Northern 1762
Philli@@ 1761
Zusammenh@@ 1760
esth@@ 1759
label 1758
ions 1757
ML@@ 1755
cester 1754
alif@@ 1753
Murray 1751
itive 1749
Swe@@ 1748
Empire 1746
ever@@ 1744
German 1739
Go 1737
ities 1737
Origin@@ 1736
Lieutenant 1735
r. 1735
Development 1734
Places 1733
arch 1733
rest 1732
Kelly 1730
ext 1729
plant@@ 1727
Direc@@ 1726
Community 1724
Senior 1724
Austin 1723
Campbell 1723
MP 1720
ettbewer@@ 1720
ating 1719
yers 1719
Mitch@@ 1716
patri@@ 1716
Pear@@ 1715
ily 1715
oods 1715
zil 1715
α 1714
.com 1712
Kentucky 1712
Islands 1711
Ryan 1711
Dallas 1710
Walker 1709
iana 1709
reli@@ 1709
öffentlich@@ 1708
ures 1706
BI 1705
Independent 1704
Brist@@ 1703
Network 1701
mac@@ 1701
Light 1699
Korea 1698
comp@@ 1696
thur 1696
ated 1693
ight@@ 1693
nia 1693
ə@@ 1693
ield 1691
lot 1691
Eag@@ 1689
entit@@ 1689
eline 1688
ommer 1688
territ@@ 1688
thor@@ 1687
Boys 1686
Doc@@ 1686
Thompson 1686
ounds 1686
act 1685
sei@@ 1685
ā 1683
Brooklyn 1682
arran@@ 1679
Administration 1677
Matt 1677
lies 1676
uten@@ 1674
ll 1673
substan@@ 1673
Ut@@ 1672
Year 1672
Pac@@ 1671
enson 1671
We 1670
bec@@ 1670
tures 1669
dian 1666
ollege 1665
Out 1663
Carter 1662
Moun@@ 1661
Que@@ 1661
Services 1661
rap@@ 1658
Braunschwei@@ 1657
ality 1656
Ear@@ 1655
wing 1655
Base 1650
Sri 1650
ähe 1650
programme 1649
g. 1646
à@@ 1646
Grant 1645
board 1645
rier 1643
ited 1641
John@@ 1640
but 1640
völ@@ 1640
oon 1639
ühm@@ 1638
Camp 1637
format 1637
ments 1637
Oregon 1636
brie@@ 1636
ş 1633
Billboard 1631
transport 1631
tempor@@ 1630
ilom@@ 1629
light 1629
Field 1626
Gary 1622
down 1621
Wrestling 1620
Austral@@ 1619
atic 1619
Knight 1615
ampton 1615
gressive 1615
Cleveland 1608
Your 1608
ech 1607
Book 1604
aps 1604
Brothers 1602
Boy 1601
relati@@ 1600
style 1599
Robinson 1598
ρ@@ 1598
Dez@@ 1597
Norwe@@ 1596
nex@@ 1594
FL 1593
Coast 1592
Commission 1592
Alabama 1591
Batt@@ 1591
Birmingham 1591
Championships 1590
ė 1588
Aller@@ 1585
FM 1585
Head 1584
manager 1584
try 1584
£ 1584
borough 1583
enda 1583
uni@@ 1583
Kent 1580
itals 1579
ι@@ 1579
sports 1577
Malaysia 1576
ehemal@@ 1576
Medical 1575
Niger@@ 1575
elec@@ 1573
ource 1573
South@@ 1572
gradu@@ 1572
jun@@ 1572
tons 1572
cap@@ 1570
into 1562
ruption 1558
dom 1556
Seattle 1555
Trump 1555
formal 1554
sou@@ 1554
{ 1554
throp@@ 1551
Dod@@ 1550
vard 1550
sty@@ 1549
Project 1548
flanz@@ 1548
wind 1548
Hou@@ 1547
anthrop@@ 1545
vil 1545
õ@@ 1544
administ@@ 1542
mouth 1541
Louisiana 1540
Wright 1538
com 1536
oman 1536
plus 1535
cy@@ 1532
oke 1532
½ 1532
ourn@@ 1531
Shel@@ 1528
τ@@ 1527
Sea 1526
Regional 1523
Second 1523
ape 1523
main@@ 1523
vertreten@@ 1519
hat@@ 1518
.. 1514
kh@@ 1514
Indian 1513
lif@@ 1513
Barbar@@ 1508
Norman 1508
.D. 1504
Buddh@@ 1504
utn@@ 1504
cli@@ 1501
ght 1501
gia 1501
innov@@ 1498
set@@ 1498
Verfü@@ 1492
Strat@@ 1491
Modern 1489
Penn@@ 1489
roll 1489
Sebast@@ 1488
ABC 1487
Garden 1486
Ten 1486
rose 1485
Hisp@@ 1484
Muhammad 1483
lec@@ 1483
Four 1481
eht 1479
Scot@@ 1477
key 1476
adj@@ 1475
Ş@@ 1474
Christ 1473
Commer@@ 1472
avy 1472
cast@@ 1470
Athlet@@ 1469
eh 1464
Baltimore 1463
signal 1462
tric 1462
Portland 1460
sh 1460
Labour 1459
regiment 1459
town 1459
glas 1457
atist@@ 1456
д@@ 1455
akes 1452
enter@@ 1451
design 1449
had 1449
ø 1447
tie 1446
Seb@@ 1444
anta 1440
olds 1440
— 1440
card 1437
ted 1437
Pers@@ 1429
Prize 1428
Bh@@ 1427
Pittsburgh 1427
ming 1427
ő@@ 1427
writer 1425
Hear@@ 1424
Metropolitan 1424
Scottish 1424
Track 1424
Metro 1418
overs 1417
owns 1417
rep@@ 1417
hon@@ 1416
ě 1416
ń 1416
fa@@ 1415
As 1413
open 1413
Press 1412
ev 1411
Village 1410
sych@@ 1408
Beng@@ 1404
201@@ 1403
Satur@@ 1402
cat@@ 1401
sent@@ 1401
acy 1400
Whe@@ 1398
isher 1398
Ú@@ 1398
Eastern 1397
him 1396
Wood 1395
Medal 1393
situation 1391
People 1390
Oklahoma 1389
English 1383
Democ@@ 1382
Atlantic 1381
dec@@ 1381
Crit@@ 1380
load 1380
Î@@ 1380
Jr 1378
films 1378
legal 1375
Federation 1372
List 1372
midt 1372
African 1371
shops 1370
useum 1370
Marshall 1369
bow 1366
cont@@ 1366
cop@@ 1366
count 1366
spec@@ 1366
Angl@@ 1364
wind@@ 1364
Library 1363
eer 1363
Ere@@ 1360
kilomet@@ 1358
quant@@ 1358
gam@@ 1357
olution 1356
Hind@@ 1355
French 1354
Nel@@ 1354
orer 1354
dition 1353
ouse 1353
cla@@ 1352
nic@@ 1352
veget@@ 1352
song 1351
ú 1351
tory 1346
path@@ 1345
ians 1344
termin@@ 1340
clubs 1339
kshire 1339
Channel 1335
olo@@ 1335
seen 1334
Ehe@@ 1327
alternative 1325
ety 1325
has 1325
utation 1325
Contro@@ 1324
Fakultä@@ 1324
Final 1324
new@@ 1322
Of 1321
essions 1320
Franç@@ 1319
üss@@ 1318
Silver 1317
vie@@ 1316
Academ@@ 1315
Isl@@ 1315
No. 1315
Rug@@ 1314
Player 1313
McC@@ 1312
Two 1312
ational 1312
code 1309
phy 1308
Karls@@ 1306
Utah 1306
ld 1305
ady 1304
ears 1301
ening 1301
rator 1301
ė@@ 1300
Kong 1299
aliforn@@ 1299
Executive 1296
Men 1296
Edu@@ 1295
Health 1295
Fire 1294
just@@ 1294
ross 1293
say 1291
Heart 1289
ò 1288
iles 1287
Commander 1286
osoph@@ 1284
Tokyo 1281
ights 1280
general 1279
left 1278
ʻ@@ 1274
aide 1273
theor@@ 1272
Education 1270
anced 1270
bridge 1270
thy 1269
boy 1268
Rac@@ 1267
Mexico 1266
ression 1265
ň@@ 1265
uture 1264
route 1263
Good 1262
Broad@@ 1261
bal 1261
Census 1260
Colonel 1255
ă 1254
rent 1252
Dean 1247
ood@@ 1247
´ 1245
ć@@ 1242
Cape 1241
pur 1241
μ@@ 1241
rative 1240
Review 1239
wards 1239
ird 1238
Orthod@@ 1237
ural 1236
icklung 1234
ν@@ 1234
ues 1232
CEO 1227
Africa 1226
expan@@ 1226
expres@@ 1226
web@@ 1226
olis 1225
Energy 1223
ump 1222
ching 1219
Gusta@@ 1218
ign 1217
ather 1215
Command 1214
strong 1214
liner 1213
media 1212
λ@@ 1212
ε@@ 1210
cle 1206
Director 1205
ademie 1204
top 1204
run 1202
thus 1198
This 1197
abol@@ 1196
castle 1195
perman@@ 1195
ving 1195
Trust 1193
Micro@@ 1192
Naval 1191
sy 1191
Alliance 1190
work 1189
ane@@ 1188
Phili@@ 1187
ș 1185
To 1183
part 1183
Family 1182
equ@@ 1182
cycl@@ 1181
favor@@ 1180
irc@@ 1177
element 1176
Infra@@ 1174
orchest@@ 1174
sod@@ 1173
qualif@@ 1172
nav@@ 1171
188@@ 1166
agers 1165
у@@ 1165
feder@@ 1163
ove 1161
junior 1159
occer 1159
Queensland 1158
eir 1158
eling 1158
Square 1157
abli@@ 1157
infra@@ 1157
cast 1156
ives 1156
explo@@ 1154
agog@@ 1153
sted 1153
chor@@ 1152
emy 1152
hus@@ 1152
Water 1151
lor 1151
Swiss 1150
asses 1150
Five 1148
dings 1148
Irish 1147
Louis@@ 1147
Officer 1147
personal 1146
Human 1145
gold 1144
grade 1143
rar@@ 1143
oes 1141
til 1141
if 1139
Bureau 1135
past@@ 1135
school 1135
м@@ 1135
abhän@@ 1134
ining 1134
wick@@ 1134
ases 1132
uses 1131
Sup@@ 1129
super@@ 1128
Athletic 1125
.S. 1124
Langu@@ 1124
å 1123
ł 1123
pun@@ 1122
hur@@ 1120
jing 1120
vision 1120
milit@@ 1119
What 1118
auß@@ 1117
eph@@ 1115
gesam@@ 1115
ading 1114
cky 1112
ences 1111
gate 1106
ground 1106
mad 1105
sus@@ 1104
Girls 1103
Professional 1103
femin@@ 1103
sec@@ 1103
Ø@@ 1103
ism 1101
that 1100
Baseball 1098
stages 1097
Doctor 1096
rachen 1096
gegrün@@ 1095
β 1095
Banglad@@ 1093
igation 1093
Nür@@ 1092
gri@@ 1092
nie@@ 1091
He 1090
Lane 1090
otz 1089
wat@@ 1086
desig@@ 1082
diff@@ 1082
ford@@ 1082
mission 1081
temp@@ 1081
ination 1080
menti@@ 1080
″ 1080
gest 1079
odes@@ 1078
any@@ 1075
akers 1072
relative 1072
Lew@@ 1071
aissance 1071
oti@@ 1071
Germany 1070
abad 1067
rem 1067
cr@@ 1064
tax@@ 1064
κ@@ 1064
expl@@ 1060
schließend 1060
è 1060
stars 1057
Television 1056
That 1056
ories 1055
Ż@@ 1054
aming 1053
Cub@@ 1052
ority 1052
Đ@@ 1051
ace@@ 1048
folk 1048
face 1047
nor 1046
Arkansas 1044
Cemetery 1040
less 1040
Colomb@@ 1039
adop@@ 1039
elling 1039
Fam@@ 1037
Summer 1037
life 1036
Asia 1035
Palace 1034
sole 1034
India 1033
Gallery 1032
aim@@ 1032
± 1032
Ferdin@@ 1031
mbH 1031
Three 1030
Congress 1029
Vene@@ 1028
bute 1028
cho@@ 1028
iting 1027
Colon@@ 1025
Temple 1024
you 1023
ē@@ 1022
187@@ 1020
cou@@ 1020
Writ@@ 1018
lement 1017
Repres@@ 1016
cent@@ 1016
Forces 1015
m2 1014
Minn@@ 1013
situ@@ 1013
♂ 1013
cro@@ 1011
ë 1011
esh 1010
hop 1009
oration 1009
mobile 1008
standard 1008
cour@@ 1007
fell 1007
ful 1006
radio 1004
stance 1003
For 1002
Youth 1002
prom@@ 1001
sing 1000
Daily 999
Tay@@ 997
okrat@@ 997
she@@ 997
tennis 997
Security 996
Slov@@ 996
outs 996
stream 996
.C. 994
Chic@@ 991
Police 988
essing 987
rd 987
this 987
Scotland 985
} 985
Convention 983
swe@@ 983
Exp@@ 980
œ@@ 979
cc@@ 977
mile 977
ň 977
CE 976
Communic@@ 976
deleg@@ 976
prise 975
Federal 974
ivalent 974
user 974
σ@@ 974
Building 973
Military 973
change 973
ships 973
iny 971
mult@@ 970
Hong 969
Class 967
Zealand 967
bass 965
March 963
impro@@ 963
ency 961
Age 960
Secretary 959
ush 959
anni 958
mental 957
Earth 956
God 956
NCAA 955
ease 954
ellow@@ 954
ultural 954
sup@@ 953
189@@ 952
Works 950
car 950
wig@@ 947
edom 942
ask 941
ensatz 941
aching 940
eks 940
198@@ 938
exper@@ 938
other@@ 937
water 937
ľ@@ 937
ucle@@ 934
Agency 933
ubli@@ 932
duc@@ 931
maj@@ 930
erc@@ 928
oring 927
Children 926
cover 923
Sept@@ 922
ization 920
other 920
premi@@ 920
itur 914
new 913
view@@ 913
Canadi@@ 912
Klo@@ 911
Vienna 911
Battle 909
Born 909
former 909
shop 909
Ireland 908
minute 908
person 908
works 908
asing 907
ples 907
Justice 906
idea 905
nation 904
utive 903
Government 902
invol@@ 902
sell 900
phot@@ 899
oral 898
г@@ 898
forc@@ 897
benach@@ 896
problem 896
offer 894
ishing 893
ysis 893
cover@@ 892
Nazi 890
Hug@@ 889
Agric@@ 888
ect 888
spi@@ 888
standards 888
Weib@@ 887
sug@@ 886
gun 883
Großbritann@@ 881
ulture 879
Victor@@ 878
anic 877
revi@@ 877
reser@@ 876
itude 875
Milit@@ 874
Most 874
odes 874
tow@@ 874
very 873
186@@ 872
offensive 872
pool 872
damal@@ 871
sci@@ 871
implem@@ 868
dence 867
xim@@ 865
ò@@ 864
Third 863
orial 861
Dut@@ 857
amat@@ 856
vice 855
196@@ 854
phone 854
Broo@@ 853
Liberal 853
journalist 853
President 851
computer 850
ector 849
ful@@ 849
ists 848
mur@@ 847
opul@@ 847
aware 846
б@@ 846
ious 845
Assembly 844
Å 842
conc@@ 839
digital 839
Asian 838
inson 838
amed 837
saf@@ 836
197@@ 835
tives 835
ì 835
jud@@ 834
Legislative 833
big@@ 832
how 831
liest 830
Imperial 829
dicine 829
ç 827
Guard 826
ilt 826
leg 826
ould 825
Civil 823
Muh@@ 823
baller 823
gement 823
Now 822
Rail@@ 821
Round 821
Like 820
Program 820
Over 818
older 818
stage 818
ź 818
Dall@@ 817
Olympic 814
clu@@ 814
press 814
ammen@@ 813
pion@@ 813
boys 812
tronic 812
hall 810
Middle 809
seud@@ 809
~ 807
Balti@@ 806
С@@ 805
й 805
unic@@ 804
zing 803
199@@ 801
ean 800
cell@@ 798
Montre@@ 796
coun@@ 795
order 793
älfte 793
ь@@ 792
Wash@@ 791
doc@@ 790
185@@ 789
And 789
Mitg@@ 787
rev@@ 787
Heritage 786
pping 786
astern 785
itar 785
yard 784
eps 783
right 783
Ocean 780
rant 780
deo 778
Prior 777
service 777
suff@@ 777
away 776
wh@@ 775
finals 774
rail@@ 774
Supreme 773
Rights 772
demonstr@@ 772
Democratic 769
cid@@ 769
ered 769
п@@ 767
Jerus@@ 765
bands 765
modern 764
separate 764
loy@@ 763
yland 763
Christop@@ 762
hill 762
umental 762
ague 761
covery 761
More 760
fan 760
ž 760
lay 759
ḫ@@ 757
ghts 754
tweit 754
Thro@@ 753
Also 752
ufac@@ 752
Fren@@ 751
NBC 749
entry 747
vot@@ 747
Æ@@ 747
Singh 746
camp 745
Environ@@ 744
Francis@@ 743
Season 743
Upper 743
owers 743
vement 740
owle@@ 739
istry 737
Professi@@ 736
Inc. 734
extra 734
Arrondiss@@ 733
ead 733
е 733
administrative 732
group 732
bloc@@ 731
got 731
ties 731
shows 730
π@@ 730
non@@ 729
normal 728
albums 727
bourne 727
music 725
и 724
pic@@ 723
Ó@@ 723
Defense 721
voc@@ 721
ods 720
rache 720
put 719
tical 719
û@@ 718
ific@@ 716
temporary 716
open@@ 713
shore 713
Amster@@ 709
stadium 709
tics 708
ù 708
tain 707
onic 706
oci@@ 705
Kent@@ 704
master 703
senior 702
đ@@ 701
original 698
rägt 697
lion 696
pie@@ 696
ν 696
cau@@ 693
ongs 692
zens 692
Latin 690
door 690
inian 690
center 689
date 689
ält 689
duz@@ 688
elop@@ 688
Tamil 687
tradition 687
♀ 686
я 683
aking 682
tific@@ 682
195@@ 681
depart@@ 681
ability 680
When 679
link 679
missi@@ 679
otel 679
Dänem@@ 678
bution 678
orig@@ 676
From 675
tial 675
valu@@ 675
Sehens@@ 674
pip@@ 674
ί@@ 674
ices 673
ligence 673
oting 673
sla@@ 673
acter@@ 671
leader 668
ő 668
Engine@@ 667
ammad 667
class 666
eal 666
generation 666
software 666
stic 666
Affairs 662
Christmas 662
jet@@ 662
sour@@ 662
ecture 660
ό@@ 659
Squadron 658
Ü 658
With 657
cep@@ 657
still 656
ival 655
supp@@ 655
they 654
permanent 653
struction 652
won 652
Foreign 651
information 651
embl@@ 650
ų 650
burgh 649
chant 649
Kingdom 647
NCA@@ 647
males 646
inal 645
rug@@ 643
з@@ 643
sale 642
cle@@ 641
ved 641
pit@@ 640
Giov@@ 639
ables 639
fit 639
gets 639
materials 639
Under 638
amount 638
held 638
Vice 637
ebru@@ 637
world 637
η@@ 637
Weltkrieg@@ 634
city 633
edral 631
ww@@ 630
Govern@@ 629
tax 629
yal 629
data 623
medium 623
span 623
ḥ@@ 623
camp@@ 622
γ@@ 622
Apri@@ 621
Austrian 619
long 619
Syd@@ 615
ished 614
ologies 614
о 614
His 613
UE@@ 612
imag@@ 611
ã@@ 609
adv@@ 607
did 606
Connec@@ 605
minor 605
struc@@ 605
host 604
awar@@ 603
book 602
document@@ 601
plans 601
sav@@ 600
utions 597
ř 595
Britain 594
come 594
tour 594
ά@@ 594
igan 593
Chinese 592
list 592
weils 592
‰ 592
lets 591
ources 590
pec@@ 590
point 589
orting 588
sac@@ 588
erwähn@@ 587
mov@@ 587
aves 586
ê 586
If 585
scape 585
Welsh 584
teen 584
Bezieh@@ 582
destens 582
illustr@@ 582
ools 582
attri@@ 581
prov@@ 581
back@@ 579
note 579
install@@ 577
pop 577
sportation 577
reti@@ 576
training 576
singer 574
δ@@ 574
Production 573
inary 573
have 572
stry 572
aders 571
adron 571
long@@ 570
casting 569
Þ@@ 569
ð 568
thwest 567
trac@@ 567
atures 566
fem@@ 565
Orig@@ 564
enrol@@ 564
night 564
After 561
hun@@ 559
pow@@ 558
simp@@ 558
She 557
cons@@ 557
ehic@@ 556
ellite 556
solo 556
tual 556
westen 555
Kaliforn@@ 554
jaz@@ 554
area 553
ultä@@ 553
room 552
gir@@ 551
Janu@@ 549
upon 549
ection 548
sprün@@ 547
1st 546
mort@@ 545
gefähr 544
klin 544
self 544
schol@@ 543
Dutch 542
Sunday 542
itions 542
М@@ 542
Bishop 541
Republic 541
Political 539
υ@@ 539
total 538
ellow 537
nal 537
exten@@ 536
quest@@ 535
Offic@@ 534
writ@@ 534
ility 533
achers 532
В@@ 532
Jewish 531
eval 531
pilot 531
ple@@ 531
standing 531
cas@@ 530
fic 530
wei 530
aging 529
reserve 529
ا@@ 529
Prime 528
cross 528
fic@@ 526
veg@@ 526
design@@ 525
ŏ@@ 525
itte@@ 524
haupts@@ 522
stead 521
Febru@@ 520
about 520
ording 520
soci@@ 520
thing 520
Ř@@ 520
municip@@ 519
wissen@@ 519
Hekt@@ 518
hion 518
Deputy 517
diss@@ 517
alu@@ 515
songs 515
sions 514
best 513
ältest@@ 513
Eliz@@ 512
jec@@ 512
building 511
Í@@ 511
Columb@@ 510
Rome 508
gart 508
fam@@ 507
ince 507
repor@@ 507
Member 506
There 506
depend@@ 506
tracks 506
Gord@@ 504
ography 504
ographic 502
Ont@@ 501
cies 501
once 501
final 500
elimin@@ 499
Her 498
Local 498
Holy 497
At 496
ť@@ 496
place 493
ź@@ 493
fire 492
upper 492
acid 490
isher@@ 490
marks 490
ppi 490
veter@@ 490
About 489
rebel@@ 489
round 489
far 488
lay@@ 488
sli@@ 488
Chairman 487
two 487
ible 486
ṣ@@ 485
Virgin@@ 484
earning 484
fly 484
gebil@@ 484
ancing 483
epis@@ 483
ğ 482
hop@@ 481
sever@@ 481
cut@@ 480
cket 479
gow 479
church 478
tiful 477
Americans 476
Malay@@ 476
phia 475
К@@ 475
П@@ 475
ы@@ 475
Americ@@ 474
shall 474
trav@@ 474
first 472
Only 471
Tournament 471
coll@@ 471
Republican 470
champ@@ 470
etry 469
gency 469
opping 469
starts 469
substit@@ 469
ded 468
Œ@@ 467
road 466
simil@@ 466
value 466
י@@ 466
@ 463
i.@@ 462
sites 461
ances 460
bann@@ 460
ials 460
pris@@ 460
sting 460
Province 458
prem@@ 458
active 455
uting 455
eigh@@ 454
ective 453
ended 453
like 453
Week 452
falen 452
ч@@ 452
fare 451
і@@ 450
gram 449
promov@@ 449
tou@@ 448
ct 447
thern 447
Joach@@ 445
bow@@ 444
itic 444
loan 444
mary 444
wiegend 443
By 440
Wels@@ 438
hip 438
ו@@ 438
Mayor 437
dates 437
ules 437
hio 436
divi@@ 435
191@@ 433
sylv@@ 433
them 432
Early 431
Lincol@@ 431
track 431
ío 431
ц@@ 431
› 431
issioner 430
Ș@@ 430
cent 429
clo@@ 429
four 429
kei 429
‹ 428
alley 427
Ä 427
190@@ 426
impres@@ 426
β@@ 426
Singapore 425
body 425
aring 424
student 424
foot 423
ď@@ 423
А@@ 422
keep@@ 421
lake 421
Ḫ@@ 421
sas 420
ô 420
Confeder@@ 419
Muslim 418
ʾ@@ 418
extrem@@ 416
population 416
rul@@ 416
Alab@@ 415
most 415
broke 414
ditions 414
global 414
Today 413
ged 413
least 412
writing 412
aper 410
Ministry 409
space 409
Bevölk@@ 408
ports 408
rather 408
ything 408
public 407
ω@@ 406
ects 405
comm@@ 404
hotel 404
Т@@ 403
fish 401
force 400
love 400
potential 400
Р@@ 400
craft 399
dges 399
bird 398
sible 398
ween 398
Kenne@@ 396
2nd 395
Sehenswür@@ 395
в 395
enty 394
ound 394
exam@@ 392
racy 391
tery 391
etic 390
ican 390
igh 389
Athletics 387
Palest@@ 387
yond 387
ť 387
н 387
match 386
Catholic 385
Other 385
spok@@ 385
arre@@ 384
control@@ 384
walls 383
yet 383
Native 382
inning 382
itors 382
reau 380
aries 378
ourney 377
scrip@@ 377
Foll@@ 376
shar@@ 376
beat 375
action 373
year 372
tian 371
ã 371
20th 369
arms 369
religion 369
ņ@@ 369
illery 367
oning 366
ù@@ 366
June 365
ezu 365
itting 365
î 365
led 364
Б@@ 364
Constit@@ 363
dependence 363
Afghan@@ 362
ned 361
Э@@ 361
engers 360
good 360
alty 359
your 359
έ@@ 359
ellschaft 358
zona 358
plane 357
Quebec 356
contin@@ 356
atre 355
ì@@ 354
designated 353
sian 352
entary 351
ject 351
mist@@ 350
ṭ@@ 350
aces 349
magazine 349
ainst 348
hood 348
nin@@ 347
cru@@ 346
hockey 346
elim@@ 344
lack 344
ortun@@ 344
peace 344
score 342
Saturday 341
cra@@ 341
agent 340
aling 340
fans 340
ipment 340
king@@ 340
green 339
indic@@ 339
where 339
θ@@ 339
Н@@ 339
eding 337
Г@@ 337
cav@@ 336
deal 336
3rd 334
Another 334
Treat@@ 334
Kev@@ 333
alism 333
cham@@ 333
lights 333
Д@@ 333
Argentina 332
® 332
γ 332
Oly@@ 331
φ@@ 331
astic 330
etime 330
coach 329
offic@@ 329
alion 328
due 328
istics 328
jects 328
ï 328
exc@@ 327
protein 327
break 326
ked 326
phic 326
Í 326
iron 325
onian 325
player 325
ů 325
Educ@@ 324
wins 324
Infantry 323
earch 323
fine 323
budget 322
ж@@ 322
each 321
itage 321
rail 321
weight 321
uty 319
ember 318
river 318
я@@ 318
girl 317
iddle 317
ligh@@ 316
Pope 315
χ@@ 315
Л@@ 315
‑ 315
cian 314
single 314
print 313
fields 312
ś 311
Δ@@ 311
apos@@ 310
issu@@ 310
allow 309
poration 309
≈ 309
stop 307
Afric@@ 306
loo@@ 306
ш@@ 306
child 305
ə 305
model 304
ought 304
т 304
otic 303
poin@@ 303
princip@@ 303
stable 303
They 302
cient 302
unte@@ 302
type 301
using 301
х@@ 301
ample 300
event 300
oftware 300
farm 299
ύ@@ 298
Color@@ 297
Once 297
campus 297
Champion@@ 296
Linc@@ 296
banks 296
Α@@ 296
deter@@ 295
inners 295
isol@@ 295
ouri 295
Portugu@@ 294
case 294
liqu@@ 294
staff 294
Develop@@ 293
soll@@ 293
dential 292
rics 291
sed 291
bed 290
only 290
asons 289
ь 289
edge 288
eless 288
insula 288
ollar 288
appro@@ 287
requ@@ 287
semi 287
bell 286
made 286
play@@ 286
emor@@ 285
forming 285
cell 284
later 284
she 284
shot 284
ē 284
Some 283
Rural 282
ditional 282
ground@@ 282
habit@@ 281
word 281
א@@ 280
prior 279
Arab 278
call@@ 278
Secret@@ 277
base 277
acqu@@ 276
ר@@ 276
But 275
Plot 275
laun@@ 275
color 274
ι 274
days 273
party 273
icide 272
sho@@ 272
tac@@ 272
5th 271
ivers@@ 271
prises 271
rence 271
through 271
þ@@ 271
lic 270
some 270
Before 269
visions 269
Minnes@@ 268
analysis 268
batt@@ 268
cue 268
dance 268
public@@ 268
к 268
estab@@ 267
power 267
race 267
store 267
ل@@ 267
sets 266
street 266
birds 265
just 265
plays 265
tly 265
aked 264
determin@@ 264
tural 264
work@@ 264
О@@ 264
nament 263
thir@@ 263
arian 262
micro@@ 262
`@@ 260
mix@@ 260
orary 260
ething 259
flow 259
letter 259
market 258
् 258
Ḥ@@ 258
ened 257
heads 257
ishment 256
people 256
й@@ 256
ored 255
read 255
who 255
Islamic 254
mathemati@@ 254
р 254
hit 253
maximum 253
ț 253
4th 252
done 252
wr@@ 252
anese 251
ähr 251
eign 250
whe@@ 250
laws 249
matter 249
riage 249
yed 249
ạ@@ 249
gery 248
metal 248
nur@@ 248
their 248
winter 248
Ā@@ 248
ǧ@@ 248
ece 247
η 247
ա@@ 247
erve 246
opposition 246
table 246
train 246
ywood 246
promot@@ 245
season 245
sound 245
ơ@@ 245
Benj@@ 244
Spain 244
down@@ 244
may 244
piano 244
¹ 244
Governor 243
Jimm@@ 243
ending 243
journal 243
theast 243
tree 243
ilton 242
Greek 241
Queens@@ 241
^ 241
funding 241
igher 241
plac@@ 241
sett@@ 241
forts 240
job 240
rated 240
there 240
counter 239
gether 239
rical 238
7th 237
Russian 237
business 236
eties 236
heart 236
intro@@ 236
ל@@ 236
anding 235
cians 235
ication 235
Κ@@ 235
ized 234
་ 234
care 233
airs 232
many 232
passes 232
Braz@@ 231
apart@@ 231
dry 231
estic 231
lea@@ 231
urban 231
Afgh@@ 230
details 230
double 230
proc@@ 230
which 230
eye 229
session 229
with@@ 229
ʾ 229
σ 229
toral 228
vac@@ 228
מ@@ 228
abinet 227
dership 227
observ@@ 227
Π@@ 227
relation@@ 226
tered 226
ệ@@ 226
Sov@@ 225
ased 225
ayed 225
suit 225
ż 225
中@@ 225
大@@ 225
6th 224
Spanish 224
ified 224
Barcel@@ 223
classi@@ 223
fication 223
fiel@@ 223
speed 223
Ε@@ 223
ر@@ 223
ically 222
iness 222
istic 222
return 222
ults 222
ч 222
Senate 221
Swedish 221
level 221
nership 221
spring 219
angle 218
educ@@ 218
prominent 218
what 217
æ 217
Norwegian 216
Between 215
crew 215
ined 215
lost 215
ש@@ 215
risis 214
И@@ 214
学@@ 214
cut 213
elev@@ 213
requi@@ 213
Ə@@ 213
corpor@@ 212
disp@@ 212
agues 211
cars 211
kill@@ 211
ploy@@ 211
rough@@ 211
sub 211
torate 211
ʿ 211
Italian 210
anian 210
free 210
told 210
Ľ@@ 210
ễ@@ 210
Egyp@@ 209
oil 209
Σ@@ 209
ancest@@ 208
ected 208
incorporated 208
ricts 208
story 208
ư@@ 208
Background 207
duction 207
spot 207
λ 207
Japanese 206
utenant 206
⚭ 206
beau@@ 205
enth 205
ή@@ 205
crit@@ 204
game 204
onto 204
erstör@@ 203
inclu@@ 203
step 203
take 203
ternal 203
Ć@@ 203
9th 202
administration 202
investig@@ 202
¼ 202
Czech 201
comes 201
limited 201
mind 201
parts 201
pick@@ 201
ährend 201
́ 201
home 200
jazz 200
when 200
chain 199
dated 199
legisl@@ 199
ospital 199
simple 199
192@@ 198
8th 198
Brookl@@ 198
been 198
boat 198
glass 198
pub@@ 198
ulty 198
caus@@ 196
gesamt 196
stral@@ 196
election 195
hund@@ 195
opin@@ 195
structure 195
â 195
cann@@ 194
erous 194
musical 194
problems 194
thesis 194
Ž 194
conf@@ 193
З@@ 193
υ 192
و@@ 192
aded 191
kill 191
pay@@ 191
screen 191
cil 190
full 190
rights 190
saw 189
ļ@@ 189
ы 189
国@@ 189
tains 188
unit 188
woo@@ 188
ה 188
aths 187
high 187
ф@@ 187
ב@@ 187
Russia 186
ference 186
hospital 186
ishes 186
wth 186
young 186
ą 186
Infan@@ 185
coh@@ 185
hält@@ 185
special 185
went 185
ǎ@@ 185
Parliament 184
drive 184
rele@@ 184
key@@ 183
writers 183
м 183
Pitts@@ 182
scienti@@ 182
م@@ 182
abeth 181
continu@@ 181
food 181
ldwide 181
נ@@ 181
Moscow 180
groups 180
moun@@ 180
near 180
scre@@ 180
У@@ 180
ָ@@ 180
Puer@@ 179
bility 179
bott@@ 179
sign 179
Represent@@ 178
ÿ 178
Μ@@ 178
ḍ@@ 178
Korean 177
actions 177
ced 177
editor 177
iversary 177
opportun@@ 177
poss@@ 177
umes 177
chang@@ 176
conqu@@ 176
fuel 176
imming 176
º 176
rement 175
rural 175
urch 175
Ț@@ 175
ε 175
econom@@ 174
inking 174
δ 174
ְ@@ 174
Austri@@ 173
argu@@ 173
coming 173
fied 173
の@@ 173
scri@@ 172
white 172
ω 172
fleet 171
owing 171
theory 171
week 171
ˈ@@ 171
alth 170
chest@@ 170
natural 170
attle 169
section 169
↑ 169
interview 168
oured 168
Ó 168
acking 167
chap@@ 167
storm 167
ả@@ 167
books 166
known 166
direc@@ 165
states 165
ÿ@@ 165
census 164
look 164
miles 164
‐ 164
Build@@ 163
Constitution 163
Switzerland 163
britann@@ 163
ergy 163
erial 163
swit@@ 163
colon@@ 162
frame 162
human 162
late 162
municipal 162
too 162
ή 162
ailing 161
black 161
second 161
serve 161
alists 160
estim@@ 160
history 160
assador 159
extensive 159
transl@@ 159
woman 159
Ω 159
ي@@ 159
bill 158
ched 158
ented 158
visible 158
want 158
镇 158
itable 157
onent 157
trip 157
quarters 156
ה@@ 156
Egypt 155
essee 155
news 155
oned 155
chart 154
faces 154
щ@@ 154
Illin@@ 153
soft 153
wave 153
Due 152
tower 152
Emperor 151
insi@@ 151
photograph@@ 151
releg@@ 151
staur@@ 151
ώ@@ 151
Ф@@ 151
ע@@ 151
function 150
make 150
Σ 150
Norway 149
bring 149
civi@@ 149
ised 149
ittle 149
little 149
mill 149
would 149
Ч@@ 149
д 149
会 149
graduate 148
roads 148
Found@@ 147
Then 147
cident 147
civil 147
portra@@ 147
report 147
scheduled 147
theastern 147
Polish 146
Turkish 146
chur@@ 146
eals 146
fellow 146
image 146
blue 145
bound 145
figh@@ 145
know 145
ד@@ 145
Denmark 144
aining 144
mass 144
ּ@@ 144
services 143
lower 142
wide 142
colle@@ 141
course 141
placed 141
social 141
song@@ 141
three 141
¾ 141
х 141
│ 141
Croati@@ 140
cycle 140
director 140
science 140
size 140
trade 140
ю@@ 140
с 139
ִ@@ 139
د@@ 139
common 138
eness 138
gian 138
performance 138
у 138
ъ@@ 138
,000 137
aged 137
commer@@ 137
susp@@ 137
tells 137
vely 136
yards 136
ţ@@ 136
ن@@ 136
along 135
used 135
ġ@@ 135
Philadel@@ 134
conom@@ 134
fiction 134
term 134
times 134
Â@@ 134
ſ@@ 134
ο 134
ب@@ 134
ircul@@ 133
points 133
∞ 133
Communist 132
Israeli 132
approxim@@ 132
hous@@ 132
movie 132
page 132
sold 132
ured 132
0s 131
alone 131
based 131
control 131
pose 131
provi@@ 131
working 131
È@@ 131
chall@@ 130
dical 130
Č 130
bronze 129
diction 129
essed 129
without 129
É 129
π 129
dead 128
eup 128
happ@@ 128
liamentary 128
mean@@ 128
never 128
pair 128
runs 128
↔ 128
between 127
eball 127
native 127
while 127
À 127
clos@@ 126
designs 126
izes 126
next 126
weather 126
words 126
ű@@ 126
ј@@ 126
Italy 125
Many 125
Upon 125
л 125
ḥ 125
both 124
comb@@ 124
ocese 124
olic 124
turn 124
ŭ@@ 124
Λ@@ 124
Danish 123
Sweden 123
elements 123
utional 123
water@@ 123
г 123
associ@@ 122
country 122
icient 122
possible 122
tified 122
years 122
் 122
orders 121
royal 121
tings 121
Ø 121
ַ@@ 121
behavi@@ 120
father 120
girls 120
league 120
quick@@ 120
scale 120
û 120
ʼ@@ 120
日@@ 120
guar@@ 119
Β@@ 119
Californ@@ 118
crete 118
friend 118
ק@@ 118
pped 117
themati@@ 117
wings 117
Ṣ@@ 117
Their 116
around 116
during 116
icro@@ 116
soon 116
subur@@ 116
ynasty 116
Τ@@ 116
Brazil 115
Turkey 115
handen 115
rese@@ 115
ρ 115
ת 115
Einwoh@@ 114
against 114
contem@@ 114
deli@@ 114
formed 114
Ι@@ 114
山@@ 114
award 113
foc@@ 113
govern@@ 113
perc@@ 113
rule 113
ṯ@@ 113
Scott@@ 112
community 112
immig@@ 112
million 112
short 112
utionary 112
ː@@ 112
again 111
azine 111
desc@@ 111
erly 111
≤ 111
izing 110
laid 110
sent 110
¡ 110
Ν@@ 110
Х@@ 110
ё@@ 110
天@@ 110
本@@ 110
Ire@@ 109
While 109
actor 109
portion 109
Ñ@@ 109
─ 109
Exec@@ 108
blood 108
direct 108
language 108
true 108
À@@ 108
Edin@@ 107
Hungarian 107
Mississi@@ 107
Philippines 107
bottom 107
five 107
giving 107
places 107
transfer 107
新@@ 107
Career 106
call 106
conv@@ 106
esian 106
hosts 106
quality 106
think 106
Е@@ 106
ո@@ 106
ầ@@ 106
ἀ@@ 106
Cze@@ 105
Mexican 105
Oreg@@ 105
better 105
cred@@ 105
cross@@ 105
culture 105
local 105
sponsor@@ 105
thre@@ 105
website 105
ם 105
anded 104
path 104
Š 104
chose 103
contr@@ 103
deep 103
engineering 103
produc@@ 103
small 103
stations 103
takes 103
transm@@ 103
י 103
alled 102
compar@@ 102
succ@@ 102
those 102
threat@@ 102
ל 102
multiple 101
must 101
wise 101
μ 101
ր@@ 101
ن 101
Bronzem@@ 100
flight 100
great 100
publ@@ 100
script 100
ά 100
ן 100
pain@@ 99
six 99
zed 99
being 98
death 98
display 98
grew 98
much 98
partic@@ 98
things 98
Ο@@ 98
Description 97
before 97
comic 97
gath@@ 97
ician 97
ĸ 97
ị 97
文@@ 97
inces 96
issue 96
nucle@@ 96
prec@@ 96
rare 96
Φ@@ 96
ח@@ 96
村 96
Netherlands 95
ampion@@ 95
connec@@ 95
friends 95
liam@@ 95
≥ 95
人@@ 95
Chair@@ 94
alities 94
coast 94
studies 94
title 94
س@@ 94
ー@@ 94
Poland 93
compl@@ 93
head@@ 93
number 93
ǐ 93
Both 92
activ@@ 92
camer@@ 92
ength 92
events 92
nature 92
office 92
ξ@@ 92
could 91
elor 91
holding 91
series 91
species 91
ǔ 91
ained 90
different 90
roit 90
source 90
uries 90
ª 90
פ@@ 90
ồ@@ 90
July 89
addition 89
iled 89
illed 89
opera 89
prac@@ 89
production 89
towns 89
φ 89
‎ 89
民@@ 89
basketball 88
cipl@@ 88
colum@@ 88
expansion 88
need 88
touch@@ 88
winner 88
і 88
benef@@ 87
feet 87
ously 87
ready 87
Γ@@ 87
Ц@@ 87
ḫ 87
西@@ 87
constit@@ 86
education 86
ologist 86
pay 86
research 86
whi@@ 86
ե@@ 86
ر 86
Iraq 85
engine 85
family 85
football 85
found@@ 85
give 85
profit 85
wish 85
women 85
ζ@@ 85
ت@@ 85
Olympics 84
early 84
forest 84
games 84
guns 84
location 84
meters 84
paid 84
Ш@@ 84
ר 84
Ṭ@@ 84
ṭ 84
Belgium 83
cells 83
development 83
genus 83
rements 83
schools 83
tainment 83
ἐ@@ 83
₂ 83
October 82
conserv@@ 82
does 82
east 82
leading 82
onents 82
promotion 82
round@@ 82
ɛ@@ 82
ת@@ 82
ی@@ 82
美@@ 82
高@@ 82
artist 81
machine 81
study 81
sylvania 81
ֵ@@ 81
ֹ@@ 81
ṇ@@ 81
三@@ 81
京@@ 81
学 81
東@@ 81
Greece 80
Jews 80
chair 80
clin@@ 80
descri@@ 80
disc@@ 80
factor 80
gely 80
going 80
member 80
ę 80
科@@ 80
術@@ 80
Biography 79
deci@@ 79
eight 79
electric 79
secre@@ 79
Δ 79
Among 78
Thomp@@ 78
begin 78
record 78
ֶ@@ 78
architecture 77
artic@@ 77
channel 77
chief 77
consi@@ 77
eled 77
energy 77
foot@@ 77
large 77
ا 77
ع@@ 77
allery 76
chosen 76
correc@@ 76
leav@@ 76
otball 76
ķ@@ 76
ն 76
‒ 76
collec@@ 75
discipl@@ 75
find 75
forms 75
goes 75
ingly 75
money 75
ounded 75
pre 75
six@@ 75
there@@ 75
Ď@@ 75
ג@@ 75
公@@ 75
acts 74
actu@@ 74
fight 74
island 74
learning 74
risk 74
role 74
tary 74
ǐ@@ 74
ό 74
э@@ 74
寺 74
研@@ 74
Common@@ 73
agric@@ 73
leaders 73
less@@ 73
multi 73
rants 73
sched@@ 73
week@@ 73
כ@@ 73
ش@@ 73
№ 73
校 73
Representatives 72
cultural 72
drug 72
horse 72
really 72
should 72
ucky 72
ъ 72
ס@@ 72
ḏ@@ 72
ẓ@@ 72
一@@ 72
central 71
conduc@@ 71
curr@@ 71
featuring 71
joint 71
names 71
release 71
scene 71
summer 71
ught 71
安@@ 71
工@@ 71
advoc@@ 70
amoun@@ 70
aying 70
break@@ 70
estate 70
found 70
near@@ 70
poet 70
positions 70
review 70
stores 70
villages 70
ː 70
北@@ 70
山 70
allows 69
because 69
cow 69
government 69
project 69
reading 69
sculp@@ 69
square 69
zös@@ 69
õ 69
ħ@@ 69
ĩ@@ 69
Later 68
academ@@ 68
citi@@ 68
college 68
company 68
construc@@ 68
future 68
iring 68
offers 68
political 68
something 68
ṣ 68
ῖ@@ 68
Descri@@ 67
Nether@@ 67
` 67
crimin@@ 67
enough 67
every 67
fif@@ 67
owner 67
plot 67
rooms 67
räsent@@ 67
said 67
scription 67
together 67
з 67
ế 67
ố@@ 67
Its 66
Soviet 66
buted 66
compos@@ 66
demand 66
earned 66
episode 66
related 66
sense 66
ď 66
Θ@@ 66
ט@@ 66
ṅ@@ 66
ộ@@ 66
ῶ@@ 66
ン@@ 66
城@@ 66
ached 65
arity 65
bzw@@ 65
children 65
demic 65
elect@@ 65
electronic 65
rating 65
С 65
ه@@ 65
⁄ 65
circum@@ 64
claim 64
dered 64
district 64
help 64
images 64
meeting 64
mother 64
äude 64
ŋ 64
ʔ@@ 64
butions 63
chemical 63
consci@@ 63
elected 63
growth 63
making 63
village 63
violence 63
ŵ@@ 63
家@@ 63
究@@ 63
院 63
exerc@@ 62
four@@ 62
gain 62
influ@@ 62
quite 62
share 62
ŋ@@ 62
θ 62
™ 62
南@@ 62
王@@ 62
acting 61
after@@ 61
ailed 61
crime 61
living 61
records 61
sidents 61
steel 61
written 61
Α 61
子@@ 61
海@@ 61
16th 60
background 60
celeb@@ 60
current 60
ested 60
fav@@ 60
memory 60
physical 60
piece 60
secon@@ 60
ی 60
ị@@ 60
会@@ 60
among 59
canc@@ 59
ently 59
method 59
novel 59
parish 59
seat 59
support 59
tries 59
uted 59
Ħ@@ 59
Ī@@ 59
ľ 59
ǫ@@ 59
Χ@@ 59
κ 59
К 59
Р 59
յ@@ 59
د 59
ồ 59
alized 58
distribution 58
driver 58
langu@@ 58
obach@@ 58
ople 58
signed 58
tured 58
Ē@@ 58
ũ@@ 58
ɪ@@ 58
ւ@@ 58
צ@@ 58
ف@@ 58
ữ 58
another 57
basic 57
collection 57
cust@@ 57
flag 57
grounds 57
past 57
reach 57
voice 57
Ρ@@ 57
ί 57
ն@@ 57
ح@@ 57
ế@@ 57
ス@@ 57
ably 56
communic@@ 56
effect 56
every@@ 56
heavy 56
matches 56
process 56
technology 56
wife 56
ξ 56
ի@@ 56
ة 56
ი@@ 56
ḗ@@ 56
☉ 56
Arkan@@ 55
Okl@@ 55
blast 55
century 55
changes 55
dark 55
fact 55
features 55
hands 55
heard 55
seven 55
ǒ@@ 55
ǔ@@ 55
̯ 55
О 55
ي 55
金@@ 55
certain 54
close 54
degang 54
enjo@@ 54
few 54
houses 54
interest 54
paper 54
polic@@ 54
primar@@ 54
residence 54
titled 54
vote 54
Õ@@ 54
Ǧ@@ 54
ɔ@@ 54
τ 54
ấ@@ 54
水@@ 54
石@@ 54
Because 53
always 53
application 53
champion 53
classes 53
disease 53
grand@@ 53
proved 53
regar@@ 53
secret 53
ἰ@@ 53
ately 52
centre 52
duced 52
flat 52
incor@@ 52
response 52
restric@@ 52
theatre 52
write 52
Ō 52
ű 52
Ж@@ 52
ه 52
December 51
access 51
arly 51
behind 51
bodies 51
committee 51
complex 51
content 51
further 51
given 51
initial 51
might 51
north 51
program 51
silver 51
ц 51
א 51
া@@ 51
க@@ 51
ậ@@ 51
小@@ 51
Emper@@ 50
assistant 50
concent@@ 50
concept 50
degree 50
etimes 50
feature 50
floor 50
guid@@ 50
knowledge 50
lead 50
notes 50
playing 50
sales 50
security 50
singles 50
society 50
specific 50
teidi@@ 50
within 50
Ú 50
ψ@@ 50
И 50
ὐ@@ 50
⅓ 50
⅔ 50
communication 49
diffic@@ 49
edly 49
hour 49
network 49
properties 49
restor@@ 49
says 49
sides 49
Ġ@@ 49
Ю@@ 49
ắ@@ 49
。 49
上@@ 49
市 49
画@@ 49
account 48
covers 48
finish 48
fully 48
greatest 48
holds 48
leave 48
lyrics 48
middle 48
police 48
rugby 48
today 48
ج@@ 48
ọ@@ 48
Ἀ@@ 48
二@@ 48
社 48
aily 47
areas 47
critic@@ 47
distingu@@ 47
guitar 47
meas@@ 47
particip@@ 47
passing 47
porary 47
thous@@ 47
¿ 47
ũ 47
ׁ@@ 47
ک@@ 47
ა@@ 47
ḍ 47
ὶ 47
← 47
リ@@ 47
・ 47
古@@ 47
址 47
beyond 46
contest 46
died 46
direction 46
etim@@ 46
genous 46
issance 46
keep 46
mean 46
means 46
posed 46
proced@@ 46
twel@@ 46
unique 46
А 46
ד 46
ז@@ 46
م 46
ḗ 46
Vanc@@ 45
airport 45
border 45
cause 45
charge 45
comedy 45
destro@@ 45
invasion 45
nine 45
plom@@ 45
repe@@ 45
rict 45
sequence 45
thought 45
İ 45
̱ 45
Ά@@ 45
ṟ@@ 45
军@@ 45
十@@ 45
堂 45
郎 45
， 45
achie@@ 44
approach 44
council 44
democ@@ 44
heav@@ 44
import@@ 44
length 44
painting 44
policy 44
relations 44
ressed 44
stories 44
users 44
¥ 44
ġ 44
Я@@ 44
ћ 44
ா@@ 44
ủ 44
ῦ@@ 44
イ@@ 44
ッ@@ 44
县 44
子 44
立@@ 44
aband@@ 43
across 43
bered 43
built 43
came 43
circul@@ 43
famous 43
foreign 43
ific 43
inaug@@ 43
inside 43
lives 43
oung 43
present 43
whole 43
µ 43
М 43
ق@@ 43
ོ@@ 43
和@@ 43
所 43
林@@ 43
都@@ 43
Ukrainian 42
althy 42
animal 42
bly 42
broken 42
build@@ 42
constitu@@ 42
extended 42
makes 42
mander 42
move 42
movement 42
others 42
popular 42
primary 42
rules 42
shaped 42
winning 42
workers 42
Ķ@@ 42
Γ 42
Т 42
У 42
ב 42
ἄ@@ 42
ῆ@@ 42
、 42
田@@ 42
空@@ 42
17th 41
aturing 41
coal 41
construction 41
decre@@ 41
doing 41
economy 41
etc 41
exclu@@ 41
health 41
letters 41
missions 41
models 41
mountain 41
races 41
relig@@ 41
represent@@ 41
retur@@ 41
survi@@ 41
theme 41
usual 41
ĕ@@ 41
ǎ 41
ζ 41
خ@@ 41
ḳ@@ 41
ờ@@ 41
ℳ 41
█ 41
明@@ 41
李@@ 41
道 41
Swed@@ 40
adult 40
ahead 40
ambigu@@ 40
called 40
capital 40
clear 40
complete 40
contri@@ 40
escape 40
focus 40
level@@ 40
listed 40
occup@@ 40
organization 40
osed 40
predic@@ 40
presi@@ 40
recognized 40
regular 40
statement 40
strike 40
ـ@@ 40
ứ@@ 40
五@@ 40
四@@ 40
太@@ 40
部 40
almost 39
character 39
concert 39
conver@@ 39
ealed 39
emerg@@ 39
immedi@@ 39
mayor 39
mixed 39
often 39
possi@@ 39
prising 39
protection 39
running 39
̃ 39
ш 39
ز@@ 39
ト@@ 39
事@@ 39
信@@ 39
八@@ 39
川@@ 39
遗@@ 39
Geography 38
associated 38
brother 38
coast@@ 38
contrac@@ 38
emed 38
factory 38
forces 38
important 38
played 38
respec@@ 38
secur@@ 38
ulated 38
urity 38
values 38
ʰ@@ 38
З 38
б 38
ї@@ 38
្ 38
ṃ@@ 38
₁ 38
◊ 38
合@@ 38
委@@ 38
平@@ 38
生@@ 38
Since 37
abilities 37
address 37
battle 37
believe 37
build 37
cally 37
concern@@ 37
forn@@ 37
freedom 37
func@@ 37
honor 37
inher@@ 37
median 37
nuclear 37
objec@@ 37
organized 37
poor 37
professional 37
rying 37
search 37
special@@ 37
split 37
third 37
trees 37
units 37
ʒ@@ 37
Л 37
ѣ@@ 37
ּ 37
أ@@ 37
্ 37
ி@@ 37
ས 37
Ḍ@@ 37
ṯ 37
司 37
技@@ 37
Reception 36
author@@ 36
device 36
forward 36
height 36
independent 36
instead 36
molec@@ 36
necess@@ 36
peak 36
product 36
sust@@ 36
taining 36
weile 36
ǧ 36
ɔ 36
Ζ@@ 36
ம@@ 36
რ@@ 36
□ 36
ⴰ@@ 36
ー 36
白@@ 36
航@@ 36
道@@ 36
院@@ 36
activity 35
experience 35
issues 35
members 35
oday 35
opped 35
players 35
secondary 35
stly 35
yellow 35
Β 35
ύ 35
Д 35
կ@@ 35
ע 35
ர@@ 35
ང 35
ア@@ 35
人 35
光@@ 35
地@@ 35
政@@ 35
character@@ 34
closed 34
compet@@ 34
contemporary 34
defe@@ 34
equal 34
exec@@ 34
fighting 34
figure 34
goal 34
historic 34
literature 34
lying 34
officer 34
parties 34
period 34
practice 34
property 34
purpose 34
surface 34
¬ 34
̀ 34
Υ@@ 34
В 34
П 34
ག@@ 34
ი 34
ḷ@@ 34
≡ 34
区 34
自@@ 34
馬@@ 34
January 33
above 33
affili@@ 33
categ@@ 33
condition 33
contro@@ 33
counter@@ 33
daily 33
evidence 33
female 33
finished 33
flying 33
hours 33
ially 33
insur@@ 33
intelligence 33
levels 33
owed 33
performan@@ 33
principal 33
sexual 33
shared 33
shr@@ 33
university 33
vements 33
Ê@@ 33
þ 33
ŭ 33
ʷ@@ 33
̥ 33
Η@@ 33
Н 33
ю 33
տ@@ 33
ت 33
ك@@ 33
ل 33
བ@@ 33
ე@@ 33
ẵ@@ 33
⇒ 33
ラ@@ 33
市@@ 33
有@@ 33
0,000 32
Clevel@@ 32
advanced 32
agency 32
attack 32
brothers 32
buildings 32
commod@@ 32
contribut@@ 32
courses 32
decor@@ 32
department 32
duce 32
economic 32
enemy 32
ferred 32
junction 32
leaves 32
numbers 32
pieces 32
prepar@@ 32
professi@@ 32
straight 32
target 32
travel 32
vices 32
wegung 32
ơ 32
ɗ@@ 32
Б 32
њ@@ 32
մ@@ 32
​ 32
东@@ 32
化@@ 32
华@@ 32
员@@ 32
女@@ 32
州@@ 32
教@@ 32
武@@ 32
通@@ 32
门@@ 32
Each 31
VID 31
Zeal@@ 31
cost 31
elled 31
goods 31
identity 31
reference 31
stances 31
wever 31
youn@@ 31
Á 31
į@@ 31
Ş 31
ŷ@@ 31
ư 31
ʃ@@ 31
ʼ 31
Ω@@ 31
ص@@ 31
ு@@ 31
า@@ 31
ṛ@@ 31
ề@@ 31
⟩ 31
と@@ 31
龙@@ 31
18th 30
Portuguese 30
champions 30
child@@ 30
climate 30
commercial 30
county 30
distance 30
enced 30
friend@@ 30
funds 30
high@@ 30
organiz@@ 30
religious 30
secretary 30
sources 30
trial 30
until 30
venue 30
versions 30
vised 30
Ő@@ 30
َ@@ 30
ร@@ 30
ད@@ 30
₀ 30
≠ 30
協@@ 30
建@@ 30
春@@ 30
Connectic@@ 29
ahoma 29
association 29
bishop 29
cities 29
combat 29
compil@@ 29
conditions 29
critical 29
effec@@ 29
extension 29
foun@@ 29
gave 29
habitat 29
killing 29
plants 29
politan 29
safety 29
scientific 29
since 29
stood 29
terms 29
versy 29
wanted 29
đ 29
ĸ@@ 29
̲ 29
Ν 29
Я 29
э 29
Ա@@ 29
ս@@ 29
ὸ@@ 29
⟨ 29
タ@@ 29
之@@ 29
田 29
Hungary 28
accoun@@ 28
cannot 28
cases 28
clim@@ 28
composer 28
conference 28
consider@@ 28
crow@@ 28
depar@@ 28
develop@@ 28
ecting 28
executive 28
exhib@@ 28
follow 28
hundred 28
incre@@ 28
military 28
owners 28
performances 28
pressure 28
racing 28
reflec@@ 28
relationship 28
responsi@@ 28
selves 28
signific@@ 28
spread 28
though 28
whose 28
Æ 28
È 28
ñ 28
ţ 28
Φ 28
ψ 28
र 28
世@@ 28
河@@ 28
神@@ 28
青@@ 28
allowed 27
applications 27
changed 27
commission 27
consum@@ 27
contract 27
decl@@ 27
designed 27
distinc@@ 27
encour@@ 27
espec@@ 27
financial 27
forced 27
influence 27
institutions 27
ittee 27
losing 27
mingham 27
needs 27
operations 27
poetry 27
present@@ 27
presented 27
presents 27
soldi@@ 27
ushed 27
Ā 27
ʳ@@ 27
ի 27
ֲ@@ 27
ན 27
ლ@@ 27
ὀ@@ 27
ὁ 27
全@@ 27
关@@ 27
基@@ 27
塔 27
央@@ 27
方@@ 27
松@@ 27
第@@ 27
1,000 26
Massachus@@ 26
choice 26
controlled 26
create 26
draw 26
effective 26
effects 26
ideas 26
impact 26
manufac@@ 26
official 26
poses 26
pover@@ 26
released 26
result 26
speech 26
vehicle 26
why 26
¢ 26
І@@ 26
Հ@@ 26
ו 26
ש 26
و 26
پ@@ 26
ম@@ 26
ப@@ 26
ར@@ 26
ṓ@@ 26
ớ@@ 26
ụ@@ 26
ỹ 26
ン 26
业@@ 26
党 26
共@@ 26
内@@ 26
木@@ 26
江@@ 26
的@@ 26
社@@ 26
野@@ 26
19th 25
5,000 25
Following 25
Vancou@@ 25
accur@@ 25
aired 25
below 25
compan@@ 25
continue 25
debut 25
didn 25
domestic 25
draft 25
functions 25
getting 25
iced 25
latter 25
launch 25
marriage 25
morning 25
municipality 25
politics 25
power@@ 25
question 25
racial 25
reports 25
seconds 25
south 25
structures 25
techniques 25
twenty 25
Ô@@ 25
÷ 25
ɪ 25
ʹ@@ 25
͡ 25
Π 25
χ 25
թ@@ 25
ى 25
வ@@ 25
ུ@@ 25
₤ 25
い@@ 25
ル@@ 25
放@@ 25
村@@ 25
河 25
物@@ 25
玉@@ 25
花@@ 25
芸@@ 25
路 25
阳@@ 25
During 24
acked 24
actors 24
appear 24
asked 24
birth 24
captain 24
conflict 24
coordin@@ 24
decision 24
directed 24
dividu@@ 24
divisions 24
duty 24
employment 24
environment 24
equivalent 24
example 24
existence 24
feat@@ 24
firm 24
himself 24
including 24
industrial 24
medical 24
month 24
murder 24
necessary 24
protected 24
reason 24
rondiss@@ 24
several 24
sometimes 24
streets 24
valley 24
viewed 24
volume 24
º@@ 24
Ū@@ 24
ȟ@@ 24
ɡ@@ 24
ʃ 24
Η 24
Մ@@ 24
র@@ 24
ச@@ 24
ི@@ 24
ា@@ 24
Ẓ@@ 24
ự 24
ῦ 24
↓ 24
ロ@@ 24
不@@ 24
主@@ 24
九@@ 24
乡 24
展 24
广@@ 24
門 24
限@@ 24
館 24
author 23
branch 23
brown 23
capacity 23
champion@@ 23
complet@@ 23
dependent 23
driving 23
embly 23
environmental 23
exchange 23
gives 23
heat 23
historical 23
income 23
origin 23
pects 23
probably 23
published 23
recogn@@ 23
selling 23
sterreich@@ 23
treat@@ 23
vidu@@ 23
Ò@@ 23
ģ@@ 23
Ť@@ 23
ә@@ 23
֣ 23
ط@@ 23
त 23
འ@@ 23
ọ 23
ἴ@@ 23
∆ 23
▬ 23
ク@@ 23
シ@@ 23
作@@ 23
保@@ 23
卫@@ 23
国 23
國@@ 23
年@@ 23
庙 23
星@@ 23
行@@ 23
部@@ 23
集 23
appointment 22
attention 22
available 22
average 22
become 22
covered 22
easi@@ 22
equipment 22
following 22
haps 22
individual 22
itself 22
methods 22
platform 22
products 22
quarter 22
railway 22
recognition 22
selection 22
skills 22
someone 22
stay 22
types 22
ų@@ 22
ǁ@@ 22
ɛ 22
ɣ@@ 22
ˁ 22
ˁ@@ 22
Θ 22
द 22
த@@ 22
ล@@ 22
მ@@ 22
ệ 22
ộ 22
ἔ@@ 22
∴ 22
七@@ 22
下@@ 22
城 22
寺@@ 22
心 22
派 22
理@@ 22
賞 22
食@@ 22
ancient 21
appropri@@ 21
broad@@ 21
chair@@ 21
claim@@ 21
communities 21
connection 21
consec@@ 21
factors 21
fail@@ 21
governor 21
jected 21
lived 21
longer 21
ocial 21
quarter@@ 21
resistance 21
restling 21
results 21
seems 21
shap@@ 21
shape 21
specific@@ 21
strug@@ 21
subject 21
umed 21
© 21
Ý@@ 21
ċ@@ 21
ϑ 21
س 21
म@@ 21
เ@@ 21
ལ@@ 21
ས@@ 21
ო@@ 21
ს@@ 21
カ@@ 21
マ@@ 21
代@@ 21
史@@ 21
号 21
宝@@ 21
島@@ 21
张@@ 21
族@@ 21
業@@ 21
清@@ 21
福@@ 21
解@@ 21
里 21
集@@ 21
验@@ 21
advis@@ 20
animals 20
arily 20
artists 20
became 20
campaign 20
candid@@ 20
competition 20
correspon@@ 20
countries 20
districts 20
documents 20
eded 20
emeter@@ 20
equi@@ 20
follows 20
fted 20
higher 20
industry 20
kept 20
looking 20
medal 20
proce@@ 20
remain 20
remov@@ 20
replac@@ 20
roles 20
serving 20
setting 20
significant 20
success 20
technical 20
took 20
trying 20
unknown 20
Ğ@@ 20
ǃ@@ 20
Ό@@ 20
Υ 20
Э 20
љ@@ 20
ѡ@@ 20
य@@ 20
ি@@ 20
ன 20
് 20
མ@@ 20
ི 20
រ@@ 20
ằ@@ 20
― 20
∙ 20
◎ 20
◦ 20
☆ 20
ス 20
レ@@ 20
井@@ 20
佐@@ 20
刘@@ 20
博@@ 20
司@@ 20
名@@ 20
川 20
帝@@ 20
德@@ 20
术@@ 20
法 20
法@@ 20
测@@ 20
电@@ 20
百@@ 20
街@@ 20
重@@ 20
audience 19
authority 19
bership 19
brought 19
career 19
custom@@ 19
dedic@@ 19
filled 19
internal 19
invited 19
meet 19
named 19
operating 19
oppos@@ 19
president 19
reality 19
recorded 19
recording 19
remains 19
serious 19
short@@ 19
strength 19
taken 19
traditional 19
traff@@ 19
trains 19
Ì@@ 19
į 19
Ι 19
Ј@@ 19
ё 19
ү@@ 19
գ@@ 19
ղ@@ 19
ט 19
گ@@ 19
ܝ@@ 19
़ 19
ব@@ 19
় 19
ু@@ 19
ல@@ 19
ག 19
ྱ@@ 19
ស@@ 19
ẓ 19
ὄ@@ 19
∈ 19
⊙ 19
♭ 19
キ@@ 19
ト 19
モ@@ 19
ル 19
以@@ 19
发@@ 19
室 19
巴@@ 19
師@@ 19
愛@@ 19
治@@ 19
竹@@ 19
长@@ 19
1950s 18
Ottoman 18
achus@@ 18
appearance 18
connected 18
derived 18
entially 18
eted 18
fore 18
having 18
highly 18
i.e. 18
investigation 18
items 18
join 18
judge 18
killed 18
leadership 18
leaving 18
measures 18
moving 18
negoti@@ 18
outside 18
philosophy 18
powerful 18
price 18
produce 18
proper@@ 18
provincial 18
rear 18
regions 18
request 18
suppor@@ 18
treatment 18
turned 18
vocals 18
Û@@ 18
Į 18
ɑ@@ 18
ʊ@@ 18
ʒ 18
ˌ@@ 18
Ф 18
լ@@ 18
ր 18
ַ 18
ி 18
ེ 18
ོ 18
უ@@ 18
ḏ 18
ặ@@ 18
₱ 18
√ 18
⋅ 18
る@@ 18
吉@@ 18
周@@ 18
多@@ 18
尔@@ 18
明 18
洋@@ 18
源@@ 18
由@@ 18
蒙@@ 18
黄@@ 18
February 17
aircraft 17
antly 17
articles 17
asketball 17
asks 17
characters 17
charged 17
containing 17
density 17
elections 17
engine@@ 17
evision 17
instruc@@ 17
married 17
mentioned 17
minutes 17
nearly 17
occasi@@ 17
oftw@@ 17
parents 17
ratic 17
resources 17
sections 17
simply 17
singing 17
teaching 17
temperature 17
temple 17
worked 17
ĭ@@ 17
ŏ 17
ſ 17
ɐ 17
ɑ 17
ʽ@@ 17
̌ 17
Λ 17
п 17
ק 17
إ@@ 17
ܐ 17
अ@@ 17
া 17
ে@@ 17
್ 17
් 17
ད 17
ნ@@ 17
ḵ@@ 17
Ἑ@@ 17
ἡ 17
ὸ 17
〉 17
〜 17
ま@@ 17
ィ@@ 17
コ@@ 17
フ@@ 17
ャ@@ 17
仁@@ 17
军 17
原@@ 17
史 17
同@@ 17
商@@ 17
土@@ 17
地 17
场 17
宁@@ 17
火@@ 17
町 17
真@@ 17
苏@@ 17
門@@ 17
飞@@ 17
马@@ 17
이@@ 17
Several 16
actually 16
appeared 16
article 16
cancer 16
chairman 16
challeng@@ 16
citizens 16
claims 16
command 16
contact 16
decis@@ 16
defense 16
entire 16
exist 16
finally 16
housing 16
humans 16
languages 16
meaning 16
mining 16
ociation 16
opportunity 16
overall 16
passed 16
producer 16
province 16
rely 16
served 16
supply 16
taking 16
television 16
territory 16
tried 16
youth 16
Ô 16
ŕ@@ 16
ǝ@@ 16
ʁ@@ 16
ʔ 16
ʕ@@ 16
̓ 16
Κ 16
ф 16
ө@@ 16
Ս@@ 16
־ 16
ח 16
ץ 16
غ@@ 16
র 16
დ@@ 16
Ḳ@@ 16
ỳ 16
∧ 16
ⴻ@@ 16
ウ@@ 16
エ@@ 16
一 16
丁@@ 16
元@@ 16
医@@ 16
台@@ 16
宗 16
宗@@ 16
思@@ 16
氏 16
水 16
永@@ 16
津@@ 16
秋@@ 16
红@@ 16
经 16
義@@ 16
象@@ 16
革@@ 16
According 15
carry 15
causes 15
cerem@@ 15
composition 15
conclu@@ 15
confir@@ 15
corner 15
creation 15
declar@@ 15
defined 15
discovered 15
drawn 15
empha@@ 15
exhibition 15
failure 15
featured 15
generally 15
importance 15
islands 15
library 15
likely 15
manufactur@@ 15
ographics 15
planning 15
practi@@ 15
prison@@ 15
recent 15
research@@ 15
settlement 15
students 15
teacher 15
travel@@ 15
Ð@@ 15
ǫ 15
̇ 15
ж 15
҃ 15
ә 15
آ@@ 15
ب 15
ى@@ 15
ܢ@@ 15
र@@ 15
ल 15
ত@@ 15
ਾ@@ 15
க 15
ை 15
อ@@ 15
ა 15
გ@@ 15
ვ@@ 15
ᐧ@@ 15
ẕ@@ 15
ổ 15
ợ@@ 15
ỳ@@ 15
᾽ 15
ℓ 15
● 15
⚔ 15
ⵉ@@ 15
《 15
》 15
た@@ 15
に@@ 15
も@@ 15
オ@@ 15
ジ@@ 15
ド@@ 15
ュ@@ 15
云@@ 15
兵@@ 15
分@@ 15
制@@ 15
化 15
千@@ 15
县@@ 15
口@@ 15
堂@@ 15
學@@ 15
展@@ 15
师@@ 15
手@@ 15
木 15
本 15
林 15
氏@@ 15
江 15
無@@ 15
皇@@ 15
等@@ 15
老@@ 15
華@@ 15
谷 15
谷@@ 15
1980s 14
acted 14
already 14
applic@@ 14
baseball 14
covering 14
determined 14
highway 14
husband 14
itted 14
liament 14
lined 14
literary 14
marked 14
overn@@ 14
owned 14
paintings 14
programming 14
programs 14
pursu@@ 14
responsible 14
roof 14
themselves 14
traffic 14
ually 14
various 14
visit 14
wrote 14
ĉ 14
ɨ@@ 14
ɵ 14
̄ 14
̣ 14
ͤ 14
ϊ@@ 14
զ@@ 14
հ@@ 14
ֹ 14
ך 14
ز 14
ُ@@ 14
ला 14
ন 14
ய@@ 14
ு 14
ส@@ 14
མ 14
ཚ@@ 14
ྒ@@ 14
ẽ 14
ὴ@@ 14
‌ 14
├ 14
く@@ 14
は@@ 14
テ@@ 14
ハ@@ 14
バ@@ 14
ポ@@ 14
书@@ 14
仙@@ 14
体@@ 14
克@@ 14
出@@ 14
労@@ 14
士@@ 14
宦 14
平 14
忠@@ 14
念@@ 14
改@@ 14
書@@ 14
朱@@ 14
机@@ 14
杨@@ 14
楽@@ 14
正@@ 14
汉@@ 14
沙@@ 14
泉@@ 14
湖@@ 14
特@@ 14
王 14
用@@ 14
画 14
秀@@ 14
程@@ 14
絵@@ 14
育@@ 14
行 14
间@@ 14
阿@@ 14
龍@@ 14
attempt 13
awards 13
calling 13
capture 13
collected 13
commissioned 13
companies 13
completely 13
depic@@ 13
emetery 13
employ@@ 13
expected 13
greater 13
headed 13
help@@ 13
highest 13
include 13
individuals 13
inspired 13
introduction 13
majority 13
needed 13
objects 13
particular 13
perial 13
produced 13
propos@@ 13
reasons 13
recei@@ 13
recover@@ 13
scoring 13
sister 13
starring 13
successful 13
tropical 13
Ģ@@ 13
ĩ 13
œ 13
̅ 13
ώ 13
Щ@@ 13
қ@@ 13
ع 13
ف 13
ܘ@@ 13
ܡ@@ 13
ܪ@@ 13
क 13
य 13
स 13
ਰ@@ 13
ல 13
ව@@ 13
ි@@ 13
ั@@ 13
ბ@@ 13
ტ@@ 13
ር@@ 13
ម@@ 13
ṉ@@ 13
ỗ 13
ἕ@@ 13
ὴ 13
∅ 13
≙ 13
▭ 13
♯ 13
ⴰ 13
ⴷ@@ 13
ⵏ 13
い 13
お@@ 13
か@@ 13
な@@ 13
万@@ 13
友@@ 13
号@@ 13
命@@ 13
园 13
國 13
士 13
外@@ 13
字@@ 13
徐@@ 13
成@@ 13
旧@@ 13
来@@ 13
次@@ 13
海 13
物 13
生 13
盟 13
系@@ 13
経@@ 13
義 13
聖@@ 13
聞 13
草@@ 13
试@@ 13
農@@ 13
進@@ 13
野 13
铁@@ 13
長@@ 13
鳥@@ 13
의 13
academic 12
according 12
activities 12
annual 12
applied 12
appointed 12
armed 12
avail@@ 12
avoid 12
capac@@ 12
collabor@@ 12
costs 12
couple 12
daughter 12
decided 12
distributed 12
effort 12
established 12
figures 12
hosted 12
improved 12
interior 12
joining 12
leans 12
lished 12
olved 12
personnel 12
protect 12
sively 12
some@@ 12
toward 12
towards 12
vehicles 12
volunte@@ 12
Ç 12
ĝ@@ 12
Ś 12
Ţ@@ 12
ǀ@@ 12
ɯ 12
ʉ@@ 12
ʊ 12
ʲ@@ 12
˚ 12
̩ 12
Ο 12
Г 12
Е 12
ҝ@@ 12
ս 12
ָ 12
ז 12
ף 12
ײ@@ 12
ِ@@ 12
त@@ 12
रा@@ 12
श 12
ল@@ 12
ਸ@@ 12
ண@@ 12
ා@@ 12
ง@@ 12
น@@ 12
พ@@ 12
ม@@ 12
ุ@@ 12
Ṯ@@ 12
ẁ@@ 12
Ἐ@@ 12
ἡ@@ 12
Ἰ@@ 12
Ἱ@@ 12
ὕ@@ 12
ᾶ@@ 12
⁣ 12
ℓ@@ 12
⅜ 12
★ 12
ⵔ@@ 12
ニ@@ 12
ピ@@ 12
中 12
京 12
力@@ 12
动@@ 12
口 12
唐@@ 12
团 12
夏@@ 12
女 12
导@@ 12
局 12
庄@@ 12
感@@ 12
拉@@ 12
昌 12
橋 12
流@@ 12
紀@@ 12
经@@ 12
统@@ 12
者 12
者@@ 12
興@@ 12
英@@ 12
郡 12
阪@@ 12
雪@@ 12
電@@ 12
香@@ 12
민@@ 12
시@@ 12
1990s 11
Jahrh@@ 11
Though 11
Thus 11
acent 11
becomes 11
commander 11
considered 11
constructed 11
contains 11
contributions 11
dedicated 11
documentary 11
engineer 11
experi@@ 11
faced 11
failed 11
fourth 11
managed 11
northern 11
officers 11
planned 11
powers 11
presidential 11
projects 11
quired 11
recomm@@ 11
reduce 11
refu@@ 11
scenes 11
showing 11
shown 11
similar 11
started 11
weeks 11
where@@ 11
whether 11
Ë@@ 11
ħ 11
Ł 11
Ź@@ 11
ɒ@@ 11
ʰ 11
̂ 11
̧ 11
Ξ@@ 11
Ψ 11
І 11
є 11
ћ@@ 11
վ@@ 11
ց@@ 11
ׂ@@ 11
ئ@@ 11
ق 11
ग 11
ज 11
न 11
ना@@ 11
प 11
पा@@ 11
म 11
व@@ 11
দ@@ 11
য 11
ਿ@@ 11
த 11
ன@@ 11
ம 11
ை@@ 11
ක@@ 11
ම@@ 11
ก@@ 11
ช@@ 11
่ 11
າ@@ 11
། 11
ཡ@@ 11
ར 11
ལ 11
ს 11
ᐃ@@ 11
ổ@@ 11
ἱ@@ 11
ὑ@@ 11
ὰ 11
₃ 11
₹ 11
└ 11
■ 11
◻ 11
♥ 11
ⵙ@@ 11
り@@ 11
を@@ 11
ケ@@ 11
ダ@@ 11
パ@@ 11
三 11
与@@ 11
丛@@ 11
丸 11
何@@ 11
元 11
六@@ 11
协@@ 11
原 11
双@@ 11
台 11
器@@ 11
園 11
守@@ 11
实@@ 11
家 11
専@@ 11
左@@ 11
府@@ 11
式@@ 11
徳@@ 11
总@@ 11
文 11
昌@@ 11
景@@ 11
書 11
會 11
月@@ 11
洞@@ 11
溪@@ 11
漢@@ 11
甘@@ 11
甲@@ 11
章 11
群 11
联@@ 11
藤@@ 11
虎@@ 11
語@@ 11
論 11
路@@ 11
里@@ 11
風@@ 11
주@@ 11
한@@ 11
Notable 10
accep@@ 10
army 10
beginning 10
billion 10
classical 10
collaboration 10
combined 10
constituency 10
created 10
credited 10
criminal 10
difficult 10
e.g. 10
easily 10
eastern 10
educational 10
engines 10
facility 10
families 10
fifth 10
guest 10
incorpor@@ 10
lightly 10
locomot@@ 10
missed 10
months 10
musicians 10
neighborhood 10
opening 10
performing 10
presence 10
previous 10
ranked 10
reaction 10
record@@ 10
recru@@ 10
registered 10
southern 10
spent 10
suffer@@ 10
tively 10
wealth 10
whom 10
Ć 10
Ī 10
ɬ@@ 10
ʉ 10
ˀ@@ 10
̍ 10
̪ 10
Έ@@ 10
Ί@@ 10
Ε 10
Ё 10
Й 10
Й@@ 10
ї 10
դ@@ 10
ց 10
ֵ 10
ׁ 10
ג 10
ْ@@ 10
ہ@@ 10
ܐ@@ 10
ܬ@@ 10
क@@ 10
ী 10
ರ@@ 10
ು 10
ാ@@ 10
ต@@ 10
บ@@ 10
ย@@ 10
้ 10
ཁ@@ 10
ེ@@ 10
კ@@ 10
ხ@@ 10
ន@@ 10
ម 10
ិ@@ 10
Ḏ@@ 10
ḕ 10
ạ 10
ố 10
ἅ@@ 10
ὺ@@ 10
⁠ 10
⅛ 10
⅝ 10
∨ 10
∼ 10
⊤ 10
⌀ 10
ⴳ@@ 10
ⵜ@@ 10
あ@@ 10
が@@ 10
し@@ 10
ら@@ 10
ク 10
チ@@ 10
ノ@@ 10
ビ@@ 10
ブ@@ 10
件 10
侯@@ 10
修@@ 10
働@@ 10
動@@ 10
哈@@ 10
問@@ 10
如@@ 10
孝@@ 10
寶 10
居 10
屋@@ 10
布@@ 10
应@@ 10
开@@ 10
形@@ 10
心@@ 10
性@@ 10
控@@ 10
教 10
星 10
春 10
時@@ 10
株@@ 10
波@@ 10
泰@@ 10
港@@ 10
程 10
筑@@ 10
総@@ 10
罗@@ 10
范@@ 10
藏@@ 10
見@@ 10
記 10
記@@ 10
詩 10
話 10
語 10
講@@ 10
记 10
造@@ 10
連@@ 10
雄 10
黎@@ 10
龙 10
조@@ 10
： 10
𐌢 10
Despite 9
However 9
agreed 9
architect 9
calls 9
churches 9
continued 9
cricket 9
dating 9
destroyed 9
divided 9
efforts 9
environ@@ 9
especially 9
except 9
federal 9
followed 9
herself 9
however 9
knowle@@ 9
merged 9
neigh@@ 9
ordered 9
passenger 9
percent 9
possibly 9
prison 9
prize 9
publication 9
qualified 9
required 9
signing 9
soldiers 9
starting 9
therefore 9
tober 9
usually 9
victi@@ 9
visited 9
votes 9
¯ 9
Ï@@ 9
Ą@@ 9
Đ 9
ĭ 9
ƒ 9
ǒ 9
ǘ 9
ɬ 9
ɵ@@ 9
̈ 9
̕ 9
΄ 9
Ρ 9
Χ 9
Х 9
є@@ 9
Қ@@ 9
Պ@@ 9
շ@@ 9
ք 9
ס 9
ض@@ 9
چ@@ 9
ު@@ 9
ं 9
ञ 9
मा@@ 9
ल@@ 9
श@@ 9
ক@@ 9
গ@@ 9
প@@ 9
স@@ 9
ি 9
ர 9
ழ@@ 9
ವ@@ 9
ಾ@@ 9
න@@ 9
ර@@ 9
ල@@ 9
ු@@ 9
ด@@ 9
น 9
ห@@ 9
โ@@ 9
བ 9
ུ 9
ት 9
አ@@ 9
ស 9
ុ@@ 9
ḷ 9
ỉ@@ 9
ử@@ 9
‛ 9
⁶ 9
⅞ 9
ⵍ@@ 9
う@@ 9
き@@ 9
ち@@ 9
よ@@ 9
れ@@ 9
デ@@ 9
专@@ 9
乃@@ 9
义@@ 9
乐@@ 9
事 9
交@@ 9
仁 9
今@@ 9
像 9
先@@ 9
兰@@ 9
初@@ 9
利@@ 9
劉@@ 9
可@@ 9
吴@@ 9
吾@@ 9
善@@ 9
喜 9
喜@@ 9
嘉@@ 9
回@@ 9
团@@ 9
園@@ 9
塔@@ 9
墓 9
夫@@ 9
定@@ 9
宝 9
射@@ 9
尾@@ 9
岡@@ 9
島 9
崎@@ 9
年 9
府 9
後@@ 9
御@@ 9
德 9
志@@ 9
所@@ 9
昭@@ 9
曲@@ 9
朝 9
末@@ 9
气@@ 9
池@@ 9
洞 9
活@@ 9
深@@ 9
湖 9
源 9
版@@ 9
県@@ 9
站 9
經 9
级@@ 9
藤 9
要@@ 9
詩@@ 9
设@@ 9
语 9
资@@ 9
起@@ 9
超@@ 9
载@@ 9
近@@ 9
速@@ 9
陳@@ 9
雅@@ 9
音 9
黃@@ 9
龍 9
사 9
1960s 8
1970s 8
acquired 8
added 8
agreement 8
attrac@@ 8
broadcast 8
busin@@ 8
charac@@ 8
combination 8
damage 8
decades 8
emales 8
employed 8
foundation 8
goals 8
growing 8
incident 8
leads 8
mostly 8
organizations 8
painted 8
particularly 8
performed 8
premier@@ 8
promote 8
promoted 8
provide 8
reported 8
revealed 8
seats 8
success@@ 8
titles 8
¸ 8
Â 8
ċ 8
Ē 8
Ņ@@ 8
Ň@@ 8
ŕ 8
Ŝ@@ 8
ŷ 8
ǚ@@ 8
ɐ@@ 8
ɒ 8
ɲ@@ 8
ɾ@@ 8
ʌ@@ 8
̑ 8
Μ 8
έ 8
Ч 8
Ш 8
ѣ 8
ѧ@@ 8
ң@@ 8
Գ@@ 8
Կ@@ 8
բ 8
բ@@ 8
պ@@ 8
ք@@ 8
֨ 8
ִ 8
ך@@ 8
ِ 8
ہ 8
ۇ@@ 8
ے 8
ܕ@@ 8
ܵ@@ 8
कर 8
ग@@ 8
ज@@ 8
ट 8
ण 8
न@@ 8
ली 8
व 8
वा@@ 8
ष 8
स@@ 8
सत 8
ि 8
ক 8
হ@@ 8
ਤ@@ 8
ੁ 8
ட@@ 8
ய 8
ெ@@ 8
్ 8
ค@@ 8
ย 8
ี@@ 8
ཏ@@ 8
པ@@ 8
ራ 8
ር 8
ት@@ 8
ក@@ 8
ត@@ 8
ព@@ 8
យ@@ 8
ḻ@@ 8
ẹ@@ 8
ể@@ 8
ử 8
ὰ@@ 8
ῆ 8
‍ 8
⁴ 8
┌ 8
☮ 8
ⴱ@@ 8
ⵓ 8
ⵣ@@ 8
こ@@ 8
さ@@ 8
つ@@ 8
て 8
ゆ@@ 8
ん@@ 8
ア 8
ガ@@ 8
セ@@ 8
ド 8
プ@@ 8
ワ@@ 8
东 8
临@@ 8
二 8
产@@ 8
伊@@ 8
伝 8
佛@@ 8
信 8
写@@ 8
前@@ 8
劇@@ 8
加@@ 8
半@@ 8
南 8
厂 8
及@@ 8
団 8
図 8
型@@ 8
天 8
头@@ 8
宮@@ 8
居@@ 8
州 8
帝 8
常@@ 8
座 8
庵 8
康@@ 8
延@@ 8
形 8
息@@ 8
悲@@ 8
我@@ 8
探@@ 8
普@@ 8
柏@@ 8
柳@@ 8
梁@@ 8
洲@@ 8
济@@ 8
済@@ 8
港 8
点@@ 8
焼 8
球@@ 8
理 8
界@@ 8
白 8
目@@ 8
省@@ 8
督@@ 8
組@@ 8
聞@@ 8
臣@@ 8
色@@ 8
花 8
若@@ 8
衣 8
装@@ 8
観@@ 8
观@@ 8
角@@ 8
言@@ 8
話@@ 8
説 8
論@@ 8
議@@ 8
计@@ 8
论@@ 8
车 8
遥@@ 8
金 8
鉄@@ 8
镇@@ 8
長 8
陵 8
陵@@ 8
陽@@ 8
隆@@ 8
際@@ 8
音@@ 8
風 8
首@@ 8
기@@ 8
대@@ 8
도@@ 8
하@@ 8
1930s 7
References 7
advantage 7
advert@@ 7
agricultural 7
attacks 7
attempts 7
began 7
begins 7
belong@@ 7
caused 7
championship 7
collap@@ 7
conflic@@ 7
creating 7
defeat 7
demol@@ 7
deploy@@ 7
earliest 7
establishment 7
ethnic 7
examples 7
finds 7
gained 7
great@@ 7
homes 7
identified 7
immediately 7
included 7
includes 7
independence 7
injury 7
interests 7
larger 7
launched 7
licens@@ 7
locations 7
mitted 7
neighbor@@ 7
newly 7
occurs 7
offices 7
partnership 7
preme 7
previ@@ 7
previously 7
producing 7
provided 7
raised 7
received 7
removed 7
residential 7
sector 7
serves 7
slightly 7
speaking 7
twelve 7
victory 7
weap@@ 7
weapons 7
widely 7
Ã@@ 7
Õ 7
Ĉ@@ 7
ĳ@@ 7
ļ 7
Ż 7
ǣ@@ 7
ȧ 7
ɣ 7
ɨ 7
̆ 7
ա 7
լ 7
չ@@ 7
փ@@ 7
֛ 7
֧ 7
֩ 7
ֱ@@ 7
ֶ 7
ث@@ 7
ذ@@ 7
ھ@@ 7
ܒ@@ 7
ނ@@ 7
आ@@ 7
का@@ 7
जि@@ 7
ण@@ 7
ता@@ 7
ती 7
द@@ 7
या@@ 7
रु@@ 7
सन 7
আ@@ 7
ন@@ 7
শ@@ 7
ী@@ 7
ਦ@@ 7
ਨ@@ 7
ங 7
ட 7
ப 7
ற@@ 7
ය 7
ง 7
ท@@ 7
ป@@ 7
ว@@ 7
ิ@@ 7
แ@@ 7
์ 7
ະ@@ 7
ཅ@@ 7
ན@@ 7
ྲ@@ 7
ླ@@ 7
ე 7
თ@@ 7
គ@@ 7
ជ@@ 7
ḳ 7
ṇ 7
ẩ@@ 7
ẽ@@ 7
ἁ@@ 7
Ἄ@@ 7
ὁ@@ 7
ῥ@@ 7
‡ 7
⁽ 7
⁾ 7
Ⅹ@@ 7
∶ 7
⊗ 7
♦ 7
ⵓ@@ 7
け@@ 7
し 7
ひ@@ 7
ェ@@ 7
ゴ@@ 7
シ 7
ズ 7
ゼ@@ 7
ミ@@ 7
ム 7
ム@@ 7
メ@@ 7
上 7
严@@ 7
于@@ 7
井 7
代 7
仲@@ 7
伽@@ 7
党@@ 7
兴@@ 7
典 7
农@@ 7
創@@ 7
劇 7
动 7
助 7
区@@ 7
區 7
华 7
合 7
吉 7
君@@ 7
场@@ 7
報 7
報@@ 7
場 7
墓@@ 7
墨@@ 7
夜@@ 7
夫 7
头 7
奇@@ 7
好@@ 7
學 7
安 7
岳@@ 7
峰 7
崇@@ 7
師 7
干@@ 7
広@@ 7
弘@@ 7
張@@ 7
得@@ 7
志 7
戦@@ 7
报 7
指@@ 7
振@@ 7
支 7
新 7
施@@ 7
映@@ 7
朝@@ 7
期@@ 7
桥 7
横@@ 7
正 7
比@@ 7
毛@@ 7
沈@@ 7
浦@@ 7
浩@@ 7
然@@ 7
瑞@@ 7
知@@ 7
祖 7
禹@@ 7
究 7
窟 7
米@@ 7
精@@ 7
紫@@ 7
統@@ 7
纪@@ 7
组 7
维@@ 7
羅@@ 7
美 7
翁 7
胡@@ 7
船@@ 7
良@@ 7
萬@@ 7
車@@ 7
辛 7
运@@ 7
连@@ 7
郎@@ 7
間@@ 7
防@@ 7
陆@@ 7
陶@@ 7
雲@@ 7
頭@@ 7
风@@ 7
馆 7
香 7
국 7
김@@ 7
리 7
신@@ 7
인@@ 7
︎ 7
Although 6
accepted 6
argued 6
assigned 6
bought 6
campaig@@ 6
carried 6
category 6
centuries 6
charges 6
commissi@@ 6
committed 6
confirmed 6
contain 6
contained 6
continues 6
contrast 6
decade 6
described 6
developed 6
directly 6
establ@@ 6
eventually 6
expanded 6
experienced 6
facil@@ 6
finishing 6
fought 6
historian 6
household 6
improve 6
intended 6
iwod@@ 6
moved 6
musician 6
newspaper 6
occupied 6
onally 6
opened 6
operated 6
patients 6
proposed 6
providing 6
purch@@ 6
purchase 6
reviews 6
seasons 6
selected 6
smaller 6
succe@@ 6
taught 6
throughout 6
typical 6
ultimately 6
vehic@@ 6
Ì 6
Ð 6
ĉ@@ 6
Ċ@@ 6
Ė 6
Ė@@ 6
ŗ 6
Ū 6
ǚ 6
Ș 6
Ț 6
Ƚ@@ 6
ɫ@@ 6
ʲ 6
̠ 6
ΐ@@ 6
Ξ 6
Τ 6
ϑ@@ 6
Ъ 6
Ь 6
Ю 6
қ 6
Ա 6
Ե@@ 6
Ղ@@ 6
Ն@@ 6
ج 6
ە@@ 6
ܝ 6
އ@@ 6
ަ@@ 6
ާ@@ 6
ް 6
ख 6
चि@@ 6
ति@@ 6
पत 6
ब@@ 6
मि@@ 6
री@@ 6
लि@@ 6
सा@@ 6
ह@@ 6
हा@@ 6
। 6
খ@@ 6
চ@@ 6
জ@@ 6
ড 6
ল 6
ষ 6
ে 6
ো@@ 6
ੁ@@ 6
அ@@ 6
இ@@ 6
ந@@ 6
ள@@ 6
ோ@@ 6
ಕ@@ 6
ತ@@ 6
ನ@@ 6
പ@@ 6
ර 6
හ@@ 6
ธ@@ 6
ม 6
ี 6
ང@@ 6
ཕ@@ 6
ስ@@ 6
ኤ@@ 6
ᑊ@@ 6
ᛉ 6
ក 6
ង 6
ត 6
ន 6
ប 6
ប@@ 6
រ 6
ា 6
ី@@ 6
ំ@@ 6
ṉ 6
Ẁ@@ 6
Ọ@@ 6
ờ 6
ủ@@ 6
ữ@@ 6
ự@@ 6
ἑ@@ 6
ἶ@@ 6
ὅ@@ 6
ὲ 6
‿ 6
⁊ 6
⁰ 6
₄ 6
≪ 6
⊆ 6
♁ 6
♠ 6
♣ 6
ⵏ@@ 6
ⵙ 6
々@@ 6
〈 6
え@@ 6
け 6
じ@@ 6
せ@@ 6
ん 6
グ@@ 6
ゲ@@ 6
サ@@ 6
ベ@@ 6
ヨ@@ 6
ラ 6
ㅇ 6
久 6
久@@ 6
之 6
亭 6
仓@@ 6
伝@@ 6
佐 6
使@@ 6
倉@@ 6
刊 6
划 6
力 6
勐@@ 6
勒@@ 6
后 6
后@@ 6
員 6
員@@ 6
哲@@ 6
図@@ 6
圣@@ 6
址@@ 6
堡@@ 6
夏 6
奉@@ 6
姬@@ 6
婦 6
字 6
孙@@ 6
孫@@ 6
宫 6
密@@ 6
少@@ 6
岐@@ 6
岩@@ 6
峰@@ 6
己@@ 6
庆@@ 6
店 6
庭@@ 6
廣@@ 6
忍@@ 6
成 6
房@@ 6
打@@ 6
护@@ 6
摩@@ 6
政 6
数@@ 6
斯@@ 6
方 6
日 6
易@@ 6
是@@ 6
曲 6
月 6
服@@ 6
望@@ 6
期 6
未@@ 6
树@@ 6
根@@ 6
桥@@ 6
梅@@ 6
械@@ 6
楼 6
樂@@ 6
欧@@ 6
歴@@ 6
殿 6
気@@ 6
沢@@ 6
治 6
泉 6
泽@@ 6
溪 6
火 6
爵 6
犯@@ 6
独@@ 6
玄@@ 6
玛@@ 6
珠@@ 6
現@@ 6
界 6
石 6
祖@@ 6
秦@@ 6
章@@ 6
管@@ 6
紅@@ 6
羅 6
群@@ 6
腾@@ 6
良 6
莫@@ 6
菊@@ 6
菩@@ 6
著@@ 6
董@@ 6
蔡@@ 6
蔵@@ 6
西 6
護@@ 6
许@@ 6
豊@@ 6
质@@ 6
辛@@ 6
通 6
郑@@ 6
酒 6
鎮 6
队 6
陈@@ 6
隊 6
静@@ 6
黑@@ 6
교@@ 6
구@@ 6
기 6
라@@ 6
사@@ 6
선@@ 6
스 6
스@@ 6
아@@ 6
의@@ 6
평@@ 6
화@@ 6
（ 6
） 6
accommod@@ 5
additional 5
adjacent 5
advance 5
appearances 5
appears 5
appoin@@ 5
authorities 5
candidates 5
completed 5
composed 5
conducted 5
consists 5
convic@@ 5
critics 5
damaged 5
defeated 5
delivered 5
despite 5
devel@@ 5
ditionally 5
educated 5
engaged 5
entirely 5
escap@@ 5
estimated 5
existing 5
founded 5
heavily 5
helped 5
inhabitants 5
introduced 5
issued 5
joined 5
largely 5
meant 5
notable 5
numerous 5
opposed 5
perform 5
preser@@ 5
primarily 5
publications 5
quickly 5
receive 5
recently 5
refer 5
regarded 5
replace 5
represent 5
representative 5
retired 5
returning 5
routes 5
ruled 5
saying 5
schedul@@ 5
second@@ 5
subsequ@@ 5
supporting 5
treated 5
unable 5
variety 5
younger 5
¦ 5
Ñ 5
Ù 5
Þ 5
ĕ 5
Ě@@ 5
Ľ 5
Ń 5
ņ 5
Ɖ@@ 5
Ƴ 5
ǵ@@ 5
ɹ@@ 5
ʀ 5
ʀ@@ 5
ʂ@@ 5
ʌ 5
ʏ@@ 5
ʕ 5
ʷ 5
ˈ 5
˝ 5
̤ 5
Ψ@@ 5
Љ@@ 5
Щ 5
Ы 5
Ы@@ 5
щ 5
ђ@@ 5
ў@@ 5
ұ@@ 5
һ@@ 5
Բ@@ 5
Զ@@ 5
Ի@@ 5
Շ@@ 5
ը 5
յ 5
֗ 5
֠ 5
ְ 5
׀ 5
פ 5
ء 5
ش 5
ط 5
ظ@@ 5
ّ 5
ڤ@@ 5
گ 5
ں 5
ܠ@@ 5
ܫ@@ 5
ރ@@ 5
މ@@ 5
ެ@@ 5
गा@@ 5
ङ 5
ते@@ 5
प@@ 5
पुर 5
बा@@ 5
महा@@ 5
री 5
शा@@ 5
शि@@ 5
षेत 5
हि@@ 5
॥ 5
ই@@ 5
ণ@@ 5
দ 5
ਗ@@ 5
ਚ@@ 5
ਹ@@ 5
ੀ@@ 5
எ@@ 5
ச 5
ஷ 5
ீ@@ 5
ே@@ 5
ொ@@ 5
ತ 5
ಿ 5
ೇ@@ 5
ത@@ 5
വ@@ 5
ി 5
ി@@ 5
අ@@ 5
ක 5
ග@@ 5
ข@@ 5
จ@@ 5
ฟ@@ 5
ร 5
ห 5
ะ@@ 5
ไ@@ 5
็ 5
ລ@@ 5
ཆ@@ 5
ཨ@@ 5
် 5
შ@@ 5
წ@@ 5
ስ 5
ን 5
ደ@@ 5
ᐊ@@ 5
ᒣ@@ 5
ᖹ@@ 5
ᜒ@@ 5
ᜓ@@ 5
ᠡ@@ 5
ḱ@@ 5
Ḵ@@ 5
ṃ 5
ṛ 5
ẖ@@ 5
ẞ 5
ả 5
ẹ 5
Ẽ@@ 5
ể 5
ợ 5
ụ 5
ừ 5
ἱ 5
Ὀ@@ 5
Ῥ@@ 5
ῳ 5
῾ 5
‣ 5
⁵ 5
ⁿ 5
ℝ 5
⦿ 5
ⴼ@@ 5
か 5
の 5
も 5
り 5
ァ@@ 5
ズ@@ 5
タ 5
ツ@@ 5
ボ@@ 5
ヤ@@ 5
丁 5
丰@@ 5
丹@@ 5
乙@@ 5
也@@ 5
书 5
乾@@ 5
亀@@ 5
亭@@ 5
仏@@ 5
仪@@ 5
传 5
住@@ 5
余@@ 5
佛 5
佳@@ 5
俊@@ 5
俗@@ 5
倶@@ 5
光 5
公 5
其@@ 5
別@@ 5
剣@@ 5
副@@ 5
劳@@ 5
古 5
右@@ 5
吕@@ 5
吳@@ 5
呼@@ 5
品@@ 5
园@@ 5
图@@ 5
坊 5
型 5
培@@ 5
壁@@ 5
备@@ 5
大 5
婦@@ 5
宇@@ 5
宋@@ 5
官@@ 5
室@@ 5
富@@ 5
寿@@ 5
尚 5
尚@@ 5
屋 5
屠@@ 5
岭@@ 5
崔@@ 5
己 5
幸@@ 5
座@@ 5
影@@ 5
征@@ 5
律@@ 5
徽@@ 5
快@@ 5
恩@@ 5
惠@@ 5
意@@ 5
慈@@ 5
戸@@ 5
手 5
拳@@ 5
提@@ 5
支@@ 5
故@@ 5
旗@@ 5
无@@ 5
晋@@ 5
曹@@ 5
最@@ 5
条@@ 5
桂@@ 5
業 5
構@@ 5
櫓 5
歌 5
歌@@ 5
沟@@ 5
流 5
浮@@ 5
渡@@ 5
湘@@ 5
瀬@@ 5
灯 5
然 5
父 5
産@@ 5
申@@ 5
男 5
町@@ 5
番@@ 5
発@@ 5
發@@ 5
直@@ 5
相@@ 5
秋 5
税@@ 5
稲@@ 5
窑@@ 5
端@@ 5
筆 5
範@@ 5
系 5
線 5
羽@@ 5
股@@ 5
能@@ 5
臨@@ 5
艾@@ 5
芝@@ 5
荒@@ 5
華 5
葉@@ 5
虎 5
街 5
衛@@ 5
裸@@ 5
覧@@ 5
親@@ 5
試@@ 5
諸@@ 5
训@@ 5
谈@@ 5
貴@@ 5
賜@@ 5
赤@@ 5
越@@ 5
趙@@ 5
足@@ 5
軍@@ 5
远@@ 5
造 5
遊@@ 5
達@@ 5
選@@ 5
遺@@ 5
那@@ 5
郭@@ 5
酒@@ 5
銀@@ 5
録 5
银@@ 5
门 5
阮@@ 5
陽 5
随@@ 5
雄@@ 5
雅 5
雨@@ 5
雲 5
韓@@ 5
馬 5
马 5
高 5
鳴@@ 5
麟 5
黨 5
齐@@ 5
가@@ 5
과 5
광@@ 5
구 5
그@@ 5
리@@ 5
문@@ 5
미@@ 5
선 5
성@@ 5
수 5
수@@ 5
양 5
영@@ 5
오@@ 5
일@@ 5
장 5
주 5
천@@ 5
회 5
－ 5
𐌠 5
Switz@@ 4
abandoned 4
although 4
announ@@ 4
appear@@ 4
attemp@@ 4
becoming 4
buried 4
candidate 4
currently 4
declared 4
deliver@@ 4
earlier 4
entered 4
episodes 4
expressed 4
focused 4
formally 4
founder 4
headquarters 4
hired 4
influenced 4
metres 4
obtained 4
offered 4
oldest 4
operate 4
opposite 4
politician 4
praised 4
refers 4
regularly 4
reign 4
relatively 4
resulting 4
seventh 4
showed 4
specifically 4
studied 4
subsequent 4
suffered 4
voted 4
worldwide 4
 4
¨ 4
Ù@@ 4
Ý 4
Ă@@ 4
Ļ 4
Œ 4
Ŗ 4
Ř 4
Ũ@@ 4
Ŭ@@ 4
Ǝ@@ 4
Ƣ 4
ǁ 4
ǅ@@ 4
ǜ@@ 4
ǝ 4
ȥ@@ 4
ɓ@@ 4
ɕ@@ 4
ɗ 4
ɜ@@ 4
ɦ@@ 4
ɫ 4
ɯ@@ 4
ɲ 4
ɹ 4
ɾ 4
ʎ 4
ʽ 4
˘ 4
̊ 4
Ή@@ 4
Ђ@@ 4
Ѓ@@ 4
ј 4
џ@@ 4
ѳ 4
Ѹ@@ 4
ґ@@ 4
Ұ@@ 4
ҳ@@ 4
Մ 4
Վ@@ 4
Տ@@ 4
դ 4
է@@ 4
խ@@ 4
կ 4
ռ@@ 4
և@@ 4
֔ 4
֥ 4
ֽ@@ 4
ֿ@@ 4
، 4
ئ 4
ح 4
غ 4
ّ@@ 4
ڠ 4
ە 4
ܓ@@ 4
ܚ@@ 4
ܩ@@ 4
ހ@@ 4
ކ@@ 4
ދ@@ 4
ं@@ 4
ई 4
उप@@ 4
का 4
गो@@ 4
चल 4
चा@@ 4
जय 4
ते 4
थ 4
नग@@ 4
ना 4
नि@@ 4
ने@@ 4
पाल 4
पु@@ 4
पू@@ 4
पूर 4
भ@@ 4
भारत 4
मन 4
योग 4
रम 4
राष 4
रि@@ 4
रे@@ 4
लक 4
ळ@@ 4
वि@@ 4
विकास 4
सु@@ 4
ु 4
ू 4
ो 4
ौ@@ 4
ধ@@ 4
প 4
ভ@@ 4
ম 4
ਪ@@ 4
ਭ@@ 4
ਮ@@ 4
ત@@ 4
ா 4
జ@@ 4
ల 4
ల@@ 4
ా@@ 4
ి@@ 4
ಂ@@ 4
ಗ@@ 4
ಮ@@ 4
ರ 4
ಲ 4
ಸ@@ 4
ಿ@@ 4
ು@@ 4
ೆ@@ 4
ത 4
ന@@ 4
പ 4
ං@@ 4
ත@@ 4
ප@@ 4
ය@@ 4
ේ 4
ො@@ 4
ด 4
ล 4
า 4
ຊ@@ 4
ນ@@ 4
ປ@@ 4
ཞ@@ 4
ཤ@@ 4
ྡ@@ 4
သ@@ 4
ာ@@ 4
პ@@ 4
ფ@@ 4
ქ@@ 4
ც@@ 4
ም@@ 4
በ@@ 4
ቤ@@ 4
ብ@@ 4
ክ@@ 4
ዳ@@ 4
ገ@@ 4
ᐣ 4
ᐦ@@ 4
ᒧ 4
ᓂ@@ 4
ᜄ@@ 4
ᜆ@@ 4
ᜉ@@ 4
ᜐ@@ 4
ᜒ 4
᜔ 4
ល@@ 4
េ@@ 4
់ 4
ᠠ@@ 4
ᠢ@@ 4
ᠣ@@ 4
ᠤ@@ 4
ᠭ@@ 4
ᠷ@@ 4
ᴉ@@ 4
ḩ@@ 4
Ḷ@@ 4
ṁ@@ 4
ṅ 4
ẖ 4
ẞ@@ 4
ἦ@@ 4
ἵ@@ 4
ὖ 4
ὖ@@ 4
ῇ 4
ῷ 4
⁺ 4
ℕ 4
ℛ@@ 4
↦ 4
≃ 4
┬ 4
▶ 4
❘ 4
ⲟ@@ 4
ⵜ 4
ⵢ@@ 4
々 4
そ@@ 4
ち 4
て@@ 4
で@@ 4
べ 4
む@@ 4
ゃ@@ 4
ろ@@ 4
わ@@ 4
イ 4
オ 4
キ 4
ジ 4
ナ@@ 4
ネ@@ 4
ヒ@@ 4
ユ@@ 4
ョ@@ 4
リ 4
ㅅ 4
下 4
丑 4
丙@@ 4
乌@@ 4
乎 4
乐 4
也 4
亚@@ 4
亡@@ 4
亻 4
份@@ 4
传@@ 4
位 4
体 4
作 4
來@@ 4
依@@ 4
侯 4
俊 4
俳@@ 4
優@@ 4
入@@ 4
兵 4
冯@@ 4
凤@@ 4
别@@ 4
务@@ 4
勝@@ 4
午 4
卓@@ 4
单 4
单@@ 4
去@@ 4
参@@ 4
友 4
反@@ 4
吊@@ 4
员 4
営@@ 4
圓 4
團@@ 4
坊@@ 4
坑@@ 4
坪@@ 4
域@@ 4
堡 4
塘@@ 4
墙 4
太 4
奈@@ 4
奥@@ 4
好 4
如 4
始@@ 4
姚@@ 4
姫 4
威@@ 4
孫 4
官 4
宣@@ 4
宫@@ 4
富 4
察@@ 4
寧@@ 4
尼@@ 4
尾 4
属@@ 4
岳 4
幼@@ 4
广 4
库 4
度@@ 4
录 4
情@@ 4
愛 4
憲 4
戊@@ 4
战 4
战@@ 4
抱@@ 4
推@@ 4
揚@@ 4
敏 4
斌 4
昆@@ 4
易 4
昭 4
晓@@ 4
智@@ 4
曰 4
會@@ 4
朗@@ 4
机 4
杜@@ 4
松 4
柔@@ 4
查@@ 4
柱@@ 4
柴@@ 4
査@@ 4
森@@ 4
椅@@ 4
楊@@ 4
楽 4
権@@ 4
樹@@ 4
橋@@ 4
機@@ 4
母@@ 4
毗@@ 4
汗 4
汤@@ 4
汽@@ 4
洋 4
洪@@ 4
浜@@ 4
浦 4
湾@@ 4
滨@@ 4
滩@@ 4
演@@ 4
潮 4
激@@ 4
灣 4
為@@ 4
烧@@ 4
热@@ 4
照@@ 4
熊@@ 4
燕 4
燕@@ 4
爱@@ 4
爾 4
牛@@ 4
牟@@ 4
牡@@ 4
獅 4
獅@@ 4
珩 4
球 4
甫 4
甲 4
登@@ 4
的 4
皇 4
皮@@ 4
监@@ 4
目 4
省 4
真 4
矿@@ 4
秘@@ 4
租@@ 4
種@@ 4
穆@@ 4
站@@ 4
童@@ 4
箭@@ 4
節 4
籍@@ 4
粉@@ 4
純@@ 4
緑@@ 4
織@@ 4
练@@ 4
组@@ 4
综@@ 4
翠@@ 4
考 4
臣 4
興 4
舞@@ 4
舟@@ 4
艮 4
芦@@ 4
落@@ 4
葬 4
薬@@ 4
蘇@@ 4
蘭@@ 4
號 4
虹@@ 4
蜀@@ 4
術 4
衡@@ 4
表@@ 4
製@@ 4
规@@ 4
览@@ 4
角 4
言 4
評@@ 4
詠@@ 4
説@@ 4
調@@ 4
议 4
谱 4
賀@@ 4
賢 4
赵@@ 4
車 4
过@@ 4
进@@ 4
远 4
送@@ 4
運@@ 4
邦@@ 4
重 4
鈴@@ 4
錦@@ 4
鐘@@ 4
钱@@ 4
铜@@ 4
開@@ 4
関@@ 4
閣 4
阁@@ 4
阙 4
隆 4
露@@ 4
韦@@ 4
韩@@ 4
題 4
顯@@ 4
风 4
飛@@ 4
駒@@ 4
鬼 4
鲁@@ 4
鲜@@ 4
鹿@@ 4
麻@@ 4
黒@@ 4
경@@ 4
공@@ 4
금@@ 4
다 4
단 4
무@@ 4
미 4
상 4
상@@ 4
소@@ 4
아 4
역 4
우@@ 4
인 4
장@@ 4
지@@ 4
진@@ 4
타@@ 4
통@@ 4
화 4
accompanied 3
advant@@ 3
affected 3
allowing 3
appoint@@ 3
approved 3
areer 3
arranged 3
arrested 3
believed 3
civili@@ 3
concluded 3
daugh@@ 3
develop 3
drew 3
entitled 3
fired 3
formerly 3
frequently 3
increase 3
increasing 3
initially 3
involved 3
largest 3
located 3
maintain 3
nearby 3
noted 3
observed 3
officials 3
only@@ 3
plann@@ 3
provides 3
purchased 3
reaching 3
reduced 3
regarding 3
resulted 3
retained 3
retirement 3
returned 3
sixth 3
sought 3
squad 3
sugge@@ 3
suggested 3
supported 3
surround@@ 3
surrounding 3
survived 3
tained 3
tournament 3
trained 3
troops 3
ughout 3
ularly 3
viron@@ 3
winners 3
zirk 3
 3
 3
 3
 3
Ã 3
Ë 3
Û 3
Ę 3
Ě 3
Ņ 3
Ŏ@@ 3
Ő 3
ŝ 3
ŝ@@ 3
Ű 3
Ɔ 3
ƈ 3
ƒ@@ 3
ƛ 3
Ʈ 3
Ʒ 3
ǃ 3
ǣ 3
ǰ@@ 3
Ǵ@@ 3
ȩ 3
ȭ@@ 3
Ƚ 3
ɓ 3
ɘ@@ 3
ɡ 3
ɤ 3
ɦ 3
ɮ@@ 3
ʁ 3
ʋ@@ 3
ʘ 3
ʤ@@ 3
ʧ 3
ʧ@@ 3
ˡ@@ 3
͏ 3
ϊ 3
ϕ@@ 3
Џ@@ 3
Ь@@ 3
ђ 3
ќ 3
ў 3
Ѡ 3
Ѵ 3
Ү@@ 3
һ 3
Ә@@ 3
ӥ 3
ө 3
Դ@@ 3
Թ@@ 3
Կ 3
ժ 3
ծ 3
ծ@@ 3
ճ@@ 3
մ 3
չ 3
տ 3
և 3
׃ 3
ׇ@@ 3
צ 3
װ@@ 3
׳ 3
״ 3
خ 3
ك 3
ً@@ 3
َ 3
ک 3
ۈ@@ 3
ێ@@ 3
ܛ@@ 3
ܣ@@ 3
ܪ 3
ތ@@ 3
ި 3
ި@@ 3
अव@@ 3
उ@@ 3
के 3
कै@@ 3
गढ 3
गी 3
च@@ 3
जा 3
जा@@ 3
जिला 3
जी 3
ड 3
ड@@ 3
तत 3
ता 3
तार 3
ति 3
दी 3
दू@@ 3
दे@@ 3
ध 3
ध@@ 3
धर 3
धा 3
नि 3
नी 3
फ@@ 3
ब 3
भ 3
भू@@ 3
मी 3
मे@@ 3
मो@@ 3
लिक 3
ले@@ 3
वर 3
वी@@ 3
वै@@ 3
ह 3
हे@@ 3
ा 3
ि@@ 3
ी@@ 3
ीन 3
े 3
ो@@ 3
ং@@ 3
ও@@ 3
খ 3
জ 3
ঞ 3
ট 3
ঢ 3
স 3
ਕ@@ 3
ਜ@@ 3
ਰ 3
ਾ 3
ੈ@@ 3
ં@@ 3
ર 3
ર@@ 3
હ@@ 3
ા@@ 3
્ 3
ஆ@@ 3
ஜ 3
ஜ@@ 3
ந 3
ள 3
ீ 3
ூ@@ 3
ே 3
ర@@ 3
ా 3
ి 3
ಬ@@ 3
ಯ@@ 3
ಹ@@ 3
ೂ@@ 3
അ@@ 3
ട 3
ള@@ 3
ഴ@@ 3
ඔ@@ 3
ත 3
ප 3
බ 3
ඹ 3
ල 3
ව 3
ශ 3
ස 3
ළ@@ 3
ා 3
ැ@@ 3
ි 3
ณ@@ 3
อ 3
ำ@@ 3
ื@@ 3
ດ@@ 3
ທ@@ 3
ວ 3
ཀ@@ 3
ཐ@@ 3
པ 3
ྗ@@ 3
ྟ@@ 3
ྣ@@ 3
ྦ@@ 3
ྫ@@ 3
ྱ 3
င 3
ნ 3
უ 3
ჩ@@ 3
ძ@@ 3
ჯ@@ 3
ም 3
ራ@@ 3
ባ@@ 3
ቶ@@ 3
ካ@@ 3
ዊ@@ 3
የ@@ 3
ᐢ@@ 3
ᐸ@@ 3
ᑯ 3
ᑯ@@ 3
ᑲ@@ 3
ᑳ@@ 3
ᒧ@@ 3
ᓀ@@ 3
ᓐ 3
ᓗ@@ 3
ᜃ@@ 3
ᜈ 3
ᜈ@@ 3
ដ@@ 3
ទ@@ 3
វ@@ 3
ី 3
ោ@@ 3
័ 3
ᠩ@@ 3
ᠪ@@ 3
ᠬ@@ 3
ᠲ@@ 3
ᠴ@@ 3
Ḑ 3
ḑ 3
ḡ@@ 3
ḧ 3
ḱ 3
Ṇ@@ 3
ṓ 3
ṙ@@ 3
Ṻ@@ 3
ẫ@@ 3
ở 3
ỷ 3
ἀ 3
Ἁ@@ 3
Ἔ@@ 3
ἷ@@ 3
ὂ@@ 3
Ὁ 3
ὠ@@ 3
ὡ@@ 3
ὶ@@ 3
ὼ 3
ῖ 3
ῷ@@ 3
ₙ 3
₨ 3
₩ 3
℗ 3
℘ 3
Ⅰ 3
⇔ 3
∃ 3
∑ 3
∗ 3
≫ 3
⊕ 3
⌊ 3
⌋ 3
③ 3
⑦ 3
┐ 3
═ 3
▄ 3
▼ 3
○ 3
◌ 3
☧ 3
♈ 3
♪ 3
⚫ 3
✝ 3
✡ 3
❐ 3
Ᵽ 3
ⴽ@@ 3
ⵀ@@ 3
ⵎ@@ 3
ⵔ 3
ⵖ@@ 3
「 3
」 3
げ 3
げ@@ 3
っ@@ 3
と 3
ど@@ 3
び@@ 3
ま 3
み@@ 3
め 3
め@@ 3
や@@ 3
ょ@@ 3
ら 3
る 3
れ 3
ウ 3
カ 3
ギ@@ 3
グ 3
ゼ 3
ツ 3
デ 3
ノ 3
ロ 3
丈@@ 3
丘@@ 3
両@@ 3
丹 3
乙 3
争 3
云 3
享@@ 3
亮 3
什@@ 3
令 3
令@@ 3
任@@ 3
伐@@ 3
伯 3
伯@@ 3
佑 3
保 3
修 3
俱@@ 3
健 3
傳@@ 3
像@@ 3
児@@ 3
全 3
具@@ 3
典@@ 3
内 3
冲@@ 3
凉@@ 3
凤 3
切@@ 3
列@@ 3
创@@ 3
刻 3
剛@@ 3
勋@@ 3
勒 3
動 3
十 3
午@@ 3
博 3
卢@@ 3
卯 3
印 3
印@@ 3
卷 3
厢@@ 3
发 3
受@@ 3
句 3
吾 3
告@@ 3
味 3
和 3
咸@@ 3
唄 3
啓@@ 3
喀@@ 3
団@@ 3
固@@ 3
圓@@ 3
團 3
在@@ 3
坛 3
坝@@ 3
垂@@ 3
垣@@ 3
場@@ 3
塾 3
壬@@ 3
売@@ 3
处 3
変@@ 3
奨@@ 3
妇@@ 3
妻@@ 3
姜@@ 3
姬 3
威 3
孔@@ 3
孜@@ 3
孟@@ 3
季@@ 3
孤@@ 3
宅 3
宋 3
完@@ 3
定 3
宜@@ 3
実@@ 3
宪@@ 3
宮 3
容@@ 3
寅@@ 3
寛@@ 3
實@@ 3
寸 3
封@@ 3
尊@@ 3
尔 3
尹@@ 3
属 3
岗@@ 3
岛 3
岛@@ 3
岡 3
岸 3
嶺 3
巨@@ 3
帖@@ 3
干 3
序@@ 3
底@@ 3
店@@ 3
庙@@ 3
庫 3
康 3
庸 3
廉@@ 3
廣 3
式 3
引@@ 3
弥@@ 3
弹@@ 3
强 3
强@@ 3
彭@@ 3
彰@@ 3
役@@ 3
忠 3
忾 3
怒@@ 3
思 3
恭 3
恵@@ 3
惟@@ 3
惠 3
想@@ 3
惹@@ 3
意 3
愚@@ 3
慧 3
憲@@ 3
或@@ 3
戸 3
拳 3
持@@ 3
据@@ 3
掛@@ 3
放 3
敬@@ 3
整@@ 3
料@@ 3
断@@ 3
族 3
旗 3
旺@@ 3
晉 3
智 3
暴@@ 3
曾@@ 3
朋@@ 3
术 3
朴@@ 3
来 3
板@@ 3
极 3
构@@ 3
析@@ 3
枝@@ 3
枣@@ 3
染@@ 3
柳 3
栄@@ 3
栗@@ 3
校@@ 3
核@@ 3
格@@ 3
桃@@ 3
案 3
案@@ 3
桐@@ 3
桜@@ 3
梅 3
梦 3
梵@@ 3
楠@@ 3
極@@ 3
楼@@ 3
様 3
樂 3
機 3
欲@@ 3
欽@@ 3
歸@@ 3
死@@ 3
殷@@ 3
毒@@ 3
气 3
汇@@ 3
油 3
泗@@ 3
波 3
泰 3
浅@@ 3
浜 3
浪@@ 3
涛 3
涟@@ 3
清 3
渠@@ 3
温@@ 3
游@@ 3
湯@@ 3
満@@ 3
满@@ 3
滿@@ 3
漢 3
潘@@ 3
潭@@ 3
潮@@ 3
澤@@ 3
濂 3
灣@@ 3
焦@@ 3
熊 3
熙 3
爆@@ 3
片@@ 3
猫 3
玉 3
琴@@ 3
甚@@ 3
男@@ 3
症@@ 3
癸@@ 3
皓 3
盛 3
盛@@ 3
相 3
盾 3
矢@@ 3
础@@ 3
硕@@ 3
示 3
礼 3
祝@@ 3
禁@@ 3
禅@@ 3
秀 3
私@@ 3
科 3
秦 3
穂@@ 3
窯 3
童 3
笑@@ 3
笔@@ 3
筆@@ 3
筹@@ 3
節@@ 3
終@@ 3
絵 3
線@@ 3
縣 3
繁@@ 3
约 3
织@@ 3
绍@@ 3
结@@ 3
继@@ 3
网@@ 3
羊@@ 3
習@@ 3
翔 3
考@@ 3
耕@@ 3
耳 3
聯@@ 3
職@@ 3
胡 3
能 3
自 3
致@@ 3
與@@ 3
船 3
芳@@ 3
苗@@ 3
茂@@ 3
草 3
药@@ 3
莊@@ 3
莲@@ 3
萨@@ 3
葡@@ 3
蒲@@ 3
蓮@@ 3
蔵 3
薩 3
藍 3
藝@@ 3
號@@ 3
蛇 3
血 3
衛 3
衡 3
衰 3
裕 3
裕@@ 3
覺@@ 3
觀@@ 3
計@@ 3
訓@@ 3
讃@@ 3
议@@ 3
诗@@ 3
说@@ 3
诸@@ 3
賓@@ 3
賦 3
贡@@ 3
财@@ 3
走@@ 3
軍 3
軸 3
輪 3
车@@ 3
辭 3
辰 3
辺@@ 3
辽@@ 3
达@@ 3
迎@@ 3
迪@@ 3
邊@@ 3
邑@@ 3
邕 3
郛 3
郷 3
郷@@ 3
鄭@@ 3
酉@@ 3
酋 3
量@@ 3
鐵@@ 3
钢@@ 3
镜@@ 3
間 3
閖@@ 3
閭 3
閻@@ 3
闵 3
阁 3
阜@@ 3
际@@ 3
陰@@ 3
難@@ 3
雪 3
雷@@ 3
震 3
霊@@ 3
領@@ 3
願@@ 3
類@@ 3
顶@@ 3
颜@@ 3
食 3
養@@ 3
館@@ 3
饮@@ 3
首 3
験@@ 3
骏 3
體@@ 3
鬼@@ 3
魏@@ 3
鸣@@ 3
麦@@ 3
黄 3
黎 3
개@@ 3
거@@ 3
고 3
국@@ 3
나@@ 3
노@@ 3
들 3
래 3
레@@ 3
로@@ 3
류@@ 3
마 3
마@@ 3
박@@ 3
방@@ 3
배@@ 3
병@@ 3
보@@ 3
봉@@ 3
부@@ 3
산@@ 3
서@@ 3
성 3
식@@ 3
악@@ 3
안 3
안@@ 3
야@@ 3
어 3
에 3
에@@ 3
연@@ 3
오 3
왕@@ 3
운 3
육@@ 3
으@@ 3
은 3
재@@ 3
전@@ 3
정@@ 3
종@@ 3
중@@ 3
지 3
진 3
최@@ 3
춘@@ 3
카@@ 3
태@@ 3
혜@@ 3
호 3
회@@ 3
； 3
～ 3
𝜵 3
🇪 3
actress 2
admitted 2
adopted 2
announced 2
approximately 2
arrived 2
assumed 2
attached 2
attended 2
ceremony 2
claimed 2
closely 2
compete 2
consecutive 2
consisting 2
converted 2
copies 2
distinct 2
dropped 2
entrance 2
establish 2
follow@@ 2
footballer 2
founding 2
graduated 2
granted 2
househ@@ 2
ildren 2
inhabit@@ 2
lawyer 2
lobal 2
mainly 2
maintained 2
notably 2
occur@@ 2
occurred 2
ociety 2
officially 2
participate 2
pite 2
referred 2
remaining 2
represented 2
residents 2
resigned 2
stated 2
twice 2
 2
¤ 2
Ĉ 2
Ċ 2
Ĕ 2
Ę@@ 2
Ğ 2
Ġ 2
Ģ 2
ģ 2
Ĳ@@ 2
ĳ 2
ķ 2
Ļ@@ 2
Ń@@ 2
ŉ@@ 2
ŗ@@ 2
Ů@@ 2
ŵ 2
Ÿ@@ 2
Ź 2
Ǝ 2
Ɛ 2
Ƒ 2
ƕ@@ 2
Ƙ 2
ƚ 2
ƛ@@ 2
Ư@@ 2
ƿ 2
ǀ 2
ǂ 2
ǂ@@ 2
ǘ@@ 2
ǟ@@ 2
ǥ@@ 2
ȁ@@ 2
ȗ 2
ȗ@@ 2
ȝ 2
ȥ 2
ȧ@@ 2
ȯ@@ 2
ȳ@@ 2
Ʉ 2
ɕ 2
ɖ@@ 2
ɘ 2
ɚ 2
ɜ 2
ɟ@@ 2
ɤ@@ 2
ɥ 2
ɥ@@ 2
ɩ@@ 2
ɴ@@ 2
ɶ@@ 2
ɻ@@ 2
ʂ 2
ʈ@@ 2
ʋ 2
ʍ 2
ʐ@@ 2
ʱ@@ 2
ʴ@@ 2
ʹ 2
ʻ 2
ˀ 2
ˉ 2
ˑ 2
ˑ@@ 2
˛ 2
ˠ 2
ˠ@@ 2
ˤ@@ 2
̐ 2
̜ 2
̦ 2
̨ 2
̰ 2
͂ 2
͜ 2
ΰ@@ 2
ς@@ 2
ϋ@@ 2
ϖ 2
Ϛ 2
Ϻ 2
Ѓ 2
Є@@ 2
Ж 2
Ц 2
ѕ 2
њ 2
ѝ 2
џ 2
ѡ 2
ѧ 2
ѫ 2
Ѱ 2
Ѳ 2
Ѳ@@ 2
ѵ 2
Ҁ 2
ҁ 2
ҁ@@ 2
Ҍ 2
ґ 2
Ғ 2
ғ 2
ғ@@ 2
ҕ@@ 2
ң 2
Ҥ 2
ү 2
Ұ 2
ҷ@@ 2
Һ 2
Ӏ@@ 2
Ӟ 2
ӧ@@ 2
Ԓ@@ 2
ԓ 2
Ժ@@ 2
Լ@@ 2
Խ@@ 2
Ճ@@ 2
Ո@@ 2
ե 2
ժ@@ 2
խ 2
ճ 2
ո 2
ջ@@ 2
ւ 2
֑ 2
ֻ@@ 2
ם@@ 2
מ 2
נ 2
ث 2
ص 2
ض 2
چ 2
ڈ@@ 2
ښ@@ 2
ڠ@@ 2
ګ@@ 2
ں@@ 2
ۋ@@ 2
ܔ@@ 2
ܕ 2
ܗ@@ 2
ܟ@@ 2
ܠ 2
ܢ 2
ܥ@@ 2
ܦ@@ 2
ܲ@@ 2
ܹ@@ 2
ܼ@@ 2
ށ@@ 2
ފ@@ 2
ސ@@ 2
ީ@@ 2
ް@@ 2
ँ 2
ंद@@ 2
ः 2
अं@@ 2
अग 2
अन 2
अस 2
इ@@ 2
इन 2
उत 2
ऊ 2
कर@@ 2
काम 2
किया 2
की 2
के@@ 2
को@@ 2
खण 2
खा 2
गी@@ 2
गु@@ 2
घ 2
च 2
चन 2
चार@@ 2
चो@@ 2
चौ@@ 2
जी@@ 2
जु@@ 2
टा@@ 2
णा 2
तन 2
तर 2
तर@@ 2
ताल 2
तिक 2
थ@@ 2
था@@ 2
दा 2
दा@@ 2
दार 2
दु@@ 2
दुर 2
दे 2
देव@@ 2
धि@@ 2
नाथ 2
नाम 2
पर 2
पर@@ 2
पश 2
पार 2
बि@@ 2
भक 2
भारतीय 2
भो@@ 2
मंदिर 2
मा 2
माण 2
मार 2
मिल 2
मु@@ 2
मे 2
या 2
यार 2
यु@@ 2
यो@@ 2
रक 2
रण 2
रण@@ 2
रह 2
रा 2
राज 2
राज@@ 2
रिया 2
रिया@@ 2
रीय 2
रे 2
रै@@ 2
रो 2
वत 2
वन 2
वल 2
वान 2
विक 2
विन 2
वे@@ 2
शं@@ 2
शन 2
ष@@ 2
षद 2
सम 2
सा 2
सि@@ 2
सी 2
हन 2
हा 2
हिन 2
हो@@ 2
ा@@ 2
िया 2
ु@@ 2
ुक 2
ृ@@ 2
े@@ 2
ौ 2
ॐ 2
ঁ@@ 2
উ@@ 2
গ 2
ঘ@@ 2
ছ@@ 2
ট@@ 2
ড@@ 2
ত 2
ফ 2
ষ@@ 2
ৃ@@ 2
ৡ 2
ਅ@@ 2
ਆ@@ 2
ਖ@@ 2
ਨ 2
ਬ@@ 2
ਲ 2
ਲ@@ 2
ਵ@@ 2
ਸ 2
਼ 2
ਿ 2
ੀ 2
ੂ@@ 2
੍ 2
જ@@ 2
ત 2
દ@@ 2
મ@@ 2
ય 2
વ@@ 2
િ@@ 2
ી 2
ૂ 2
ଖ@@ 2
ା 2
உ@@ 2
ண 2
ற 2
ஸ 2
ஹ 2
ஹ@@ 2
ం@@ 2
అ@@ 2
క@@ 2
త@@ 2
న@@ 2
బ@@ 2
మ@@ 2
శ@@ 2
ు 2
ూ@@ 2
ಇ@@ 2
ಚ@@ 2
ಜ@@ 2
ಡ@@ 2
ಣ@@ 2
ನ 2
ಲ@@ 2
ಳ@@ 2
ಶ@@ 2
ಸ 2
ಾ 2
ೋ@@ 2
എ@@ 2
ക@@ 2
മ 2
മ@@ 2
ര@@ 2
ള 2
ൂ@@ 2
ජ@@ 2
ඩ@@ 2
ණ@@ 2
ද 2
ද@@ 2
න 2
ම 2
ශ@@ 2
ී@@ 2
ෙ@@ 2
ෝ 2
ෝ@@ 2
ก 2
ว 2
ู@@ 2
฿ 2
ງ@@ 2
ຣ@@ 2
ວ@@ 2
ອ@@ 2
ັ@@ 2
ົ@@ 2
ເ@@ 2
ཁ 2
ཉ@@ 2
ཙ@@ 2
ཛ@@ 2
ཟ@@ 2
འ 2
ྨ@@ 2
ྩ@@ 2
ྷ 2
ྷ@@ 2
တ@@ 2
ဝ@@ 2
ိ@@ 2
ီ 2
္ 2
კ 2
ო 2
ქ 2
ჭ@@ 2
ჲ 2
ሃ@@ 2
ሊ@@ 2
ላ@@ 2
ል 2
ማ 2
ሰ@@ 2
ቀ@@ 2
ቋ@@ 2
ቡ@@ 2
ብ 2
ቲ@@ 2
ታ@@ 2
ቶ 2
ነ@@ 2
ን@@ 2
ኢ@@ 2
ኣ@@ 2
እ@@ 2
ው@@ 2
ዎ@@ 2
ዓ@@ 2
ያ@@ 2
ዮ@@ 2
ደ 2
ዴ@@ 2
ድ 2
ድ@@ 2
ግ@@ 2
ጳ@@ 2
ፓ@@ 2
፡ 2
ᐍ@@ 2
ᐏ@@ 2
ᐟ@@ 2
ᐡ 2
ᐤ 2
ᐯ@@ 2
ᑎ@@ 2
ᑐ@@ 2
ᑦ 2
ᑦ@@ 2
ᒃ@@ 2
ᓇ@@ 2
ᓈ@@ 2
ᔑ@@ 2
ᔪ@@ 2
ᔭ@@ 2
ᖃ@@ 2
ᖅ 2
ᘔ 2
᚛ 2
ᚼ 2
ᛒ 2
ᜋ@@ 2
ᜎ@@ 2
ᜏ@@ 2
ខ 2
ង@@ 2
ច 2
ជ 2
ដ 2
ឋ@@ 2
ណ 2
ណ@@ 2
ធ@@ 2
យ 2
ឱ 2
ឺ 2
ុ 2
ួ@@ 2
ែ@@ 2
ៃ 2
៉ 2
ᠡ 2
ᠨ 2
ᠯ@@ 2
ᠵ@@ 2
ᠶ@@ 2
ᵉ 2
ᵽ 2
ḅ@@ 2
ḙ@@ 2
Ḱ@@ 2
Ḵ 2
Ḹ 2
ḿ@@ 2
ṁ 2
Ṃ@@ 2
Ṙ@@ 2
Ṝ 2
ṝ 2
Ṭ 2
ṷ@@ 2
ṽ@@ 2
ẏ@@ 2
Ẓ 2
Ằ@@ 2
Ẹ@@ 2
ẻ 2
ề 2
ễ 2
ỏ@@ 2
ứ 2
ỵ 2
ỵ@@ 2
ἂ@@ 2
Ἅ@@ 2
Ἠ@@ 2
Ἡ@@ 2
ἰ 2
Ἴ@@ 2
ὃ 2
Ὅ@@ 2
ὐ 2
ὔ@@ 2
ὣ@@ 2
ὤ@@ 2
ὲ@@ 2
ᾗ@@ 2
᾿ 2
ῃ 2
ῴ@@ 2
‟ 2
※ 2
‽ 2
⁻ 2
₈ 2
₥ 2
℃ 2
℅ 2
ℒ 2
℔ 2
ℝ@@ 2
℥ 2
ℵ@@ 2
⅙ 2
↳ 2
↵ 2
↶ 2
≲ 2
≳ 2
⋆ 2
⌗ 2
⌘ 2
␣ 2
⑧ 2
☐ 2
♊ 2
♋ 2
♐ 2
♡ 2
⚡ 2
✠ 2
✶ 2
Ⱉ 2
ⱨ@@ 2
ⲉ@@ 2
ⵄ@@ 2
ⵇ@@ 2
ⵍ 2
ⵚ@@ 2
ⵛ@@ 2
ⵟ@@ 2
〇@@ 2
【 2
】 2
〚 2
〛 2
〰 2
き 2
ぎ 2
ぐ@@ 2
こ 2
ご@@ 2
さ 2
す 2
す@@ 2
せ 2
だ 2
に 2
ね 2
ね@@ 2
ば@@ 2
ふ@@ 2
へ 2
へ@@ 2
ぼ 2
み 2
む 2
や 2
ゅ@@ 2
ろ 2
ィ 2
エ 2
コ 2
ザ 2
ソ@@ 2
テ 2
ナ 2
バ 2
ペ@@ 2
ホ@@ 2
マ 2
ミ 2
ュ 2
レ 2
ヴ@@ 2
ヶ@@ 2
丑@@ 2
业 2
丝 2
丝@@ 2
两@@ 2
临 2
主 2
丽@@ 2
乌 2
乡@@ 2
买@@ 2
乱@@ 2
乳@@ 2
了@@ 2
争@@ 2
于 2
亜@@ 2
亞@@ 2
亦@@ 2
亨@@ 2
亳 2
仇@@ 2
介 2
介@@ 2
仓 2
他@@ 2
仪 2
伍@@ 2
伦@@ 2
伸@@ 2
位@@ 2
住 2
佘@@ 2
你@@ 2
使 2
俄@@ 2
俠@@ 2
倉 2
候 2
倪@@ 2
備@@ 2
僊 2
僕@@ 2
儀@@ 2
儿@@ 2
兄@@ 2
先 2
克 2
兒 2
兜@@ 2
六 2
円@@ 2
冈@@ 2
冉@@ 2
再@@ 2
冒@@ 2
冠@@ 2
冬 2
冬@@ 2
冶@@ 2
凄@@ 2
凉 2
凌@@ 2
凰@@ 2
凵 2
刀@@ 2
分 2
切 2
刊@@ 2
划@@ 2
利 2
制 2
刹 2
則@@ 2
办@@ 2
功@@ 2
助@@ 2
勇 2
勇@@ 2
勘@@ 2
勝 2
勞@@ 2
勤 2
勤@@ 2
勧@@ 2
勲@@ 2
包@@ 2
匍@@ 2
匕 2
北 2
區@@ 2
协 2
卓 2
卜 2
卡@@ 2
卧 2
卧@@ 2
即@@ 2
厂@@ 2
历 2
历@@ 2
厚 2
叉 2
变@@ 2
只@@ 2
叶@@ 2
向@@ 2
君 2
呂@@ 2
告 2
周 2
咸 2
唐 2
問 2
喆 2
單@@ 2
営 2
嘎@@ 2
嘴@@ 2
回 2
因 2
固 2
图 2
圆@@ 2
土 2
圭@@ 2
圻 2
坐@@ 2
坚 2
坝 2
坡 2
坤@@ 2
垣 2
埃@@ 2
域 2
埠 2
基 2
堅@@ 2
塗@@ 2
塚@@ 2
塞@@ 2
塩@@ 2
境@@ 2
墅 2
增@@ 2
壮@@ 2
声 2
声@@ 2
壽@@ 2
夕 2
夕@@ 2
外 2
夜 2
央 2
失@@ 2
夷 2
夷@@ 2
奖 2
奘 2
奪@@ 2
妓@@ 2
妙@@ 2
妲@@ 2
妹 2
妹@@ 2
妾 2
姉@@ 2
始 2
姒 2
娘 2
娘@@ 2
婉@@ 2
婚@@ 2
嫁@@ 2
存@@ 2
孛@@ 2
孝 2
季 2
宁 2
宅@@ 2
守 2
宛@@ 2
宜 2
客 2
宴@@ 2
宾 2
宾@@ 2
宿 2
寒 2
寒@@ 2
寧 2
寨@@ 2
寫@@ 2
寬@@ 2
寸@@ 2
对@@ 2
対@@ 2
専 2
將 2
小 2
就@@ 2
层 2
届@@ 2
層@@ 2
屯 2
屿 2
岁 2
岐 2
岭 2
峡@@ 2
峨@@ 2
崎 2
崗@@ 2
嵐 2
巡@@ 2
巢@@ 2
工 2
左 2
巫@@ 2
巳 2
巳@@ 2
巴 2
布 2
师 2
希@@ 2
带@@ 2
帰 2
帰@@ 2
幹@@ 2
幺 2
庄 2
庆 2
库@@ 2
应 2
庚@@ 2
度 2
庭 2
廉 2
廟 2
建 2
弁@@ 2
异@@ 2
引 2
弱@@ 2
張 2
弹 2
归 2
当@@ 2
彩@@ 2
彬@@ 2
彭 2
往@@ 2
後 2
復@@ 2
微@@ 2
徳 2
徽 2
忍 2
忘@@ 2
急@@ 2
怪 2
悉 2
悉@@ 2
悟@@ 2
惨@@ 2
想 2
愈 2
態@@ 2
慎 2
慕@@ 2
慶@@ 2
應@@ 2
戊 2
戎 2
戏 2
戏@@ 2
我 2
戒@@ 2
戦 2
截@@ 2
戶@@ 2
房 2
扇 2
才 2
托@@ 2
扬@@ 2
抄 2
报@@ 2
押@@ 2
拉 2
拜@@ 2
拱@@ 2
指 2
授 2
排@@ 2
措 2
提 2
援@@ 2
操 2
收@@ 2
攻@@ 2
效@@ 2
敏@@ 2
救@@ 2
敢@@ 2
敦@@ 2
敬 2
斎 2
斎@@ 2
斗 2
斗@@ 2
斤 2
斤@@ 2
於 2
旅 2
旅@@ 2
旭@@ 2
昇@@ 2
显@@ 2
晃@@ 2
晉@@ 2
景 2
晴 2
暉@@ 2
曙@@ 2
曜@@ 2
曰@@ 2
曽@@ 2
杀 2
杂@@ 2
权 2
权@@ 2
杏@@ 2
杖 2
杖@@ 2
杜 2
杭 2
杭@@ 2
東 2
极@@ 2
果 2
枡@@ 2
查 2
柯@@ 2
柱 2
桃 2
桢 2
梁 2
條@@ 2
梦@@ 2
棣@@ 2
植@@ 2
楚@@ 2
楞@@ 2
樊@@ 2
権 2
樹 2
橫 2
檀 2
欣@@ 2
歐@@ 2
步@@ 2
武 2
歩 2
歯@@ 2
殊@@ 2
殷 2
殺@@ 2
殿@@ 2
毅 2
毎@@ 2
氣 2
永 2
求@@ 2
池 2
汤 2
汪@@ 2
汴@@ 2
沅@@ 2
沼 2
沼@@ 2
沿@@ 2
泥@@ 2
津 2
洫 2
活 2
派@@ 2
济 2
浴@@ 2
润@@ 2
淄 2
淳@@ 2
温 2
渭 2
湄@@ 2
湯 2
滇@@ 2
滑@@ 2
滿 2
漁@@ 2
漫@@ 2
潇@@ 2
潭 2
潼@@ 2
澳@@ 2
濃@@ 2
濟 2
濟@@ 2
瀧@@ 2
灵@@ 2
灶@@ 2
炮@@ 2
炳@@ 2
点 2
烽@@ 2
焉@@ 2
焼@@ 2
熟@@ 2
燎@@ 2
爨@@ 2
爪 2
爵@@ 2
牆 2
牛 2
犁@@ 2
犬 2
状 2
狐@@ 2
狗@@ 2
狩@@ 2
狮 2
猪@@ 2
猫@@ 2
獎 2
玄 2
环@@ 2
现@@ 2
珍 2
班 2
珲@@ 2
瑶@@ 2
璋 2
瓦@@ 2
瓷@@ 2
產@@ 2
用 2
甫@@ 2
畔 2
略 2
番 2
畫 2
疆@@ 2
疲 2
發 2
皋 2
皿 2
益@@ 2
盐@@ 2
盟@@ 2
盡 2
盧@@ 2
眞@@ 2
眼@@ 2
督 2
睦@@ 2
矛@@ 2
知 2
短@@ 2
碉@@ 2
碑 2
碧@@ 2
示@@ 2
礼@@ 2
祁@@ 2
祇@@ 2
祐 2
祐@@ 2
祠 2
祥@@ 2
祭 2
祿@@ 2
禮@@ 2
秉@@ 2
种@@ 2
称@@ 2
種 2
稿 2
空 2
窑 2
窪@@ 2
立 2
竜@@ 2
竹 2
笔 2
笺 2
策 2
箭 2
篠@@ 2
糸@@ 2
紀 2
約 2
約@@ 2
納@@ 2
純 2
素@@ 2
索@@ 2
細@@ 2
紹@@ 2
組 2
絕@@ 2
統 2
絲@@ 2
經@@ 2
綠@@ 2
維@@ 2
編 2
總@@ 2
繁 2
繪@@ 2
纓 2
纟 2
红 2
纳@@ 2
线 2
线@@ 2
统 2
绿@@ 2
编 2
羽 2
翁@@ 2
翻@@ 2
翼@@ 2
耐@@ 2
耳@@ 2
聖 2
聲 2
肃@@ 2
肇@@ 2
肉 2
肖@@ 2
肯 2
育 2
胜@@ 2
脇@@ 2
脉 2
臥@@ 2
臧 2
臨 2
至@@ 2
臼 2
舎@@ 2
舒@@ 2
舜@@ 2
舞 2
艇 2
艤@@ 2
艳@@ 2
艺@@ 2
芬 2
英 2
茅@@ 2
茶@@ 2
荘@@ 2
荣@@ 2
莖@@ 2
莪@@ 2
莱@@ 2
菅@@ 2
菜@@ 2
萍@@ 2
营@@ 2
蓝@@ 2
蔓@@ 2
蕭@@ 2
薇@@ 2
薩@@ 2
藏 2
藥 2
藩 2
虚@@ 2
虛@@ 2
虞@@ 2
虫 2
蝶@@ 2
融@@ 2
螺@@ 2
蟜@@ 2
衣@@ 2
补@@ 2
袖@@ 2
裁 2
裁@@ 2
裏 2
裔 2
裳 2
裴@@ 2
裹 2
褒@@ 2
襄 2
襖@@ 2
要 2
見 2
視@@ 2
观 2
视@@ 2
觉@@ 2
訣@@ 2
訳@@ 2
詞 2
読@@ 2
課@@ 2
談@@ 2
諧@@ 2
譚 2
議 2
记@@ 2
证@@ 2
话 2
语@@ 2
说 2
调@@ 2
谐@@ 2
谢@@ 2
豐 2
豪 2
豹 2
貝 2
財@@ 2
貴 2
賀 2
資@@ 2
賞@@ 2
贝 2
贤 2
贵 2
贵@@ 2
贾@@ 2
赂 2
资 2
赋 2
赛@@ 2
走 2
赵 2
越 2
跋@@ 2
載@@ 2
輝 2
輝@@ 2
辞 2
辞@@ 2
迦@@ 2
迷@@ 2
选@@ 2
透@@ 2
這@@ 2
逸 2
逸@@ 2
運 2
過@@ 2
遠 2
遠@@ 2
遣@@ 2
適@@ 2
邓@@ 2
邢@@ 2
邵@@ 2
郁 2
郁@@ 2
郊@@ 2
郝@@ 2
都 2
醇 2
采@@ 2
釈 2
釈@@ 2
釜 2
釵 2
鈞 2
鉱@@ 2
鉴 2
錄 2
錢@@ 2
錫@@ 2
鍾 2
鏡@@ 2
钟@@ 2
钱 2
铭 2
铺@@ 2
锁@@ 2
锡@@ 2
锦@@ 2
閣@@ 2
關@@ 2
闪@@ 2
问@@ 2
阙@@ 2
阳 2
阴@@ 2
阿 2
陀 2
降@@ 2
陣@@ 2
陪@@ 2
陰 2
険@@ 2
階@@ 2
隣@@ 2
雀@@ 2
雁@@ 2
雍@@ 2
零 2
零@@ 2
電 2
霍@@ 2
霜 2
靈@@ 2
靖@@ 2
非@@ 2
面@@ 2
韜 2
韮@@ 2
韶@@ 2
順 2
順@@ 2
須 2
須@@ 2
頭 2
顶 2
项 2
颐@@ 2
飲@@ 2
餘@@ 2
馆@@ 2
騎@@ 2
驛 2
驿@@ 2
骨@@ 2
鬥 2
魚 2
魚@@ 2
魴 2
鱼 2
鱼@@ 2
鲍@@ 2
鳥 2
鶴@@ 2
鹰 2
鹰@@ 2
麗@@ 2
麵 2
黔@@ 2
黙@@ 2
黨@@ 2
齊 2
齋 2
龚@@ 2
Ꙍ 2
꜀ 2
ꟾ 2
강@@ 2
게 2
게@@ 2
겨@@ 2
계@@ 2
고@@ 2
광 2
군 2
귀@@ 2
급 2
길 2
남@@ 2
내@@ 2
너@@ 2
네@@ 2
느@@ 2
는 2
니@@ 2
님 2
대 2
도 2
동@@ 2
랑 2
로 2
메@@ 2
명 2
명@@ 2
바@@ 2
발@@ 2
방 2
부 2
불@@ 2
비@@ 2
생 2
생@@ 2
서 2
세@@ 2
솔@@ 2
송@@ 2
순@@ 2
술@@ 2
슈@@ 2
시 2
신 2
악 2
야 2
양@@ 2
여 2
연 2
염 2
영 2
온 2
요 2
요@@ 2
워@@ 2
원 2
위@@ 2
을 2
음@@ 2
이 2
일 2
임 2
임@@ 2
저@@ 2
제@@ 2
참@@ 2
철 2
철@@ 2
체@@ 2
축@@ 2
충@@ 2
치 2
치@@ 2
터 2
퍼 2
플@@ 2
피@@ 2
학@@ 2
한 2
함 2
합@@ 2
해@@ 2
향@@ 2
현@@ 2
협@@ 2
호@@ 2
후@@ 2
흥@@ 2
ﬁ 2
ﺍ@@ 2
！ 2
２ 2
ｰ@@ 2
￼ 2
𐌣 2
𐌰@@ 2
𒁺@@ 2
𒌑@@ 2
𝄆 2
𝄇 2
🇧 2
🇸 2
🔗 2
attacked 1
attempted 1
awarded 1
captured 1
causing 1
commonly 1
compared 1
consisted 1
describes 1
determine 1
developing 1
employees 1
females 1
injured 1
installed 1
nominated 1
northeast 1
occur 1
originally 1
participated 1
passengers 1
premiered 1
prevent 1
reached 1
receiving 1
reception 1
refused 1
renamed 1
replaced 1
representing 1
settled 1
sevent@@ 1
shortly 1
situated 1
stating 1
succeeded 1
transferred 1
 1
Ê 1
Î 1
Ă 1
Ą 1
Ĕ@@ 1
Ĝ 1
ĝ 1
Ħ 1
Į@@ 1
ĵ@@ 1
Ķ 1
Ĺ 1
Ĺ@@ 1
ĺ 1
ĺ@@ 1
Ň 1
Ŋ 1
Ŕ 1
Ţ 1
Ť 1
Ŧ 1
Ŧ@@ 1
ŧ 1
Ŭ 1
Ů 1
Ű@@ 1
Ŵ 1
Ÿ 1
ƀ 1
ƀ@@ 1
Ƃ 1
ƃ 1
ƍ 1
Ɛ@@ 1
ƕ 1
Ɩ 1
ƙ 1
Ơ@@ 1
Ʀ 1
Ƨ 1
ƫ@@ 1
Ƭ 1
Ʋ 1
ƶ 1
Ǎ 1
Ǐ 1
ǖ 1
ǜ 1
Ǟ 1
ǟ 1
Ǫ 1
Ǫ@@ 1
Ǯ 1
ǯ 1
ǰ 1
Ǵ 1
ǵ 1
Ƕ 1
Ƿ 1
Ǽ 1
ǽ@@ 1
ȁ 1
ȃ@@ 1
ȉ@@ 1
ȋ@@ 1
Ȣ 1
Ȥ 1
Ȧ 1
ȩ@@ 1
Ȫ 1
ȫ 1
Ȭ 1
ȭ 1
Ȯ 1
ȯ 1
Ȱ 1
ȱ 1
Ȳ 1
ȳ 1
Ⱦ@@ 1
Ʌ 1
ɉ 1
ɖ 1
ɝ@@ 1
ɟ 1
ɧ@@ 1
ɩ 1
ɰ 1
ɱ 1
ɳ 1
ɳ@@ 1
ɴ 1
ɸ@@ 1
ʎ@@ 1
ʑ@@ 1
ʙ 1
ʤ 1
ʦ@@ 1
ʴ 1
ˇ@@ 1
ˊ 1
ˋ 1
ˌ 1
ˍ 1
˙ 1
˥ 1
˦ 1
˧ 1
˨ 1
˩ 1
˾ 1
̉ 1
̚ 1
̡ 1
̢ 1
̶ 1
̽ 1
͈ 1
͉ 1
͘ 1
ͧ 1
͵ 1
Ύ@@ 1
Ώ@@ 1
Ζ 1
ϋ 1
ϐ 1
ϕ 1
ϙ 1
ϛ 1
Ϝ@@ 1
ϟ 1
ϰ 1
ϰ@@ 1
ϱ 1
ϵ 1
ϸ@@ 1
Ϻ@@ 1
ϻ 1
Ё@@ 1
Ђ 1
Є 1
Ѕ 1
Ћ@@ 1
Ќ 1
Ѝ 1
Џ 1
Ъ@@ 1
ѓ 1
ѓ@@ 1
љ 1
Ѣ 1
Ѯ 1
ѯ 1
ѯ@@ 1
ѱ 1
Ѵ@@ 1
Ѹ 1
Ѽ 1
Ґ 1
Ғ@@ 1
Ҕ 1
ҕ 1
Җ@@ 1
җ@@ 1
Қ 1
Ҝ 1
ҝ 1
ҡ@@ 1
Ң 1
Ң@@ 1
ҥ 1
ҧ@@ 1
Ҫ@@ 1
ҫ@@ 1
Ү 1
ұ 1
Ҳ@@ 1
Ҹ 1
ҹ 1
ҹ@@ 1
Һ@@ 1
Ҽ 1
Ҿ 1
ҿ 1
Ӏ 1
Ӄ@@ 1
ӄ 1
Ӈ@@ 1
ӈ 1
Ӓ 1
ӓ 1
Ә 1
Ӟ@@ 1
ӟ 1
ӟ@@ 1
Ӣ 1
ӣ 1
ӣ@@ 1
Ӥ 1
Ӧ 1
ӧ 1
Ө 1
Ө@@ 1
Ӯ 1
ӯ@@ 1
Ӳ 1
ӳ 1
ԁ@@ 1
Ԝ 1
Ԫ 1
ԫ 1
Դ 1
Զ 1
Ը 1
Ի 1
Ձ 1
Ղ 1
Յ 1
Ն 1
Չ@@ 1
Ս 1
Փ@@ 1
Ք@@ 1
Ֆ 1
Ֆ@@ 1
գ 1
ը@@ 1
հ 1
ձ 1
ձ@@ 1
ղ 1
շ 1
օ@@ 1
ֆ 1
ֆ@@ 1
֓ 1
֖ 1
֘ 1
֦ 1
֬ 1
֭ 1
֮ 1
ֱ 1
ֳ@@ 1
ֺ@@ 1
ׂ 1
ׅ 1
ׅ@@ 1
כ 1
ױ@@ 1
ـ 1
ْ 1
٘ 1
٤ 1
٭ 1
ٹ 1
ٹ@@ 1
ټ 1
ټ@@ 1
پ 1
ڊ@@ 1
ڑ@@ 1
ڕ@@ 1
ژ 1
ژ@@ 1
ښ 1
ۍ 1
ے@@ 1
۱@@ 1
۴ 1
۵ 1
ܒ 1
ܟ 1
ܡ 1
ܤ 1
ܥ 1
ܨ 1
ܨ@@ 1
ܬ 1
ވ@@ 1
ލ@@ 1
ޔ@@ 1
ާ 1
ީ 1
ޫ 1
ެ 1
ޮ@@ 1
ँ@@ 1
ंग 1
ंगे 1
ंड@@ 1
ंत 1
ंद 1
ंब@@ 1
ंस 1
अनु@@ 1
अप@@ 1
अभ@@ 1
अभि@@ 1
आग@@ 1
आज 1
इंड@@ 1
उच 1
ऊर 1
ऋ@@ 1
ए 1
ऑफ 1
कास 1
कि@@ 1
की@@ 1
कु@@ 1
कुमार 1
कू@@ 1
कूल 1
कृष 1
कॉर 1
कोर 1
ख@@ 1
खर 1
खु@@ 1
खे@@ 1
खेल 1
गया 1
गां@@ 1
घ@@ 1
चक 1
चरण 1
चु@@ 1
चे 1
चे@@ 1
छ@@ 1
जग@@ 1
जय@@ 1
जित 1
जिन 1
जीत 1
जे 1
जो@@ 1
जोड 1
ट@@ 1
टक 1
टी 1
टी@@ 1
टे@@ 1
टेड 1
ठ 1
ठ@@ 1
ठी 1
डियो 1
डी@@ 1
डॉ@@ 1
णा@@ 1
णि@@ 1
तः 1
तक@@ 1
तना 1
तरा@@ 1
तान 1
तु@@ 1
तृ@@ 1
तो 1
तो@@ 1
थर 1
थान 1
थी 1
दक 1
दर@@ 1
दान 1
दाय 1
दास 1
दि@@ 1
दिर 1
दी@@ 1
देव 1
देवी 1
दो@@ 1
धन 1
धी 1
नदी 1
नन 1
नाग@@ 1
निक 1
निया 1
नी@@ 1
ने 1
नौ@@ 1
पट@@ 1
पड 1
पद 1
परा@@ 1
परि@@ 1
पहाड 1
पी 1
पुरुष 1
पो@@ 1
फ 1
फिर 1
बन 1
बर 1
बह@@ 1
बा 1
बाद 1
बी@@ 1
भग@@ 1
भा 1
भाव 1
भाषा 1
भु@@ 1
भूमि 1
भौ@@ 1
मण 1
मद@@ 1
मध 1
मह@@ 1
मार@@ 1
माल 1
मी@@ 1
मुख 1
मूल 1
में 1
मै@@ 1
मैं 1
मॉ@@ 1
यक 1
यन 1
यम 1
यास 1
युत 1
यू@@ 1
योगि@@ 1
योजना 1
रं@@ 1
रंग 1
रत 1
रति@@ 1
रदर 1
रम@@ 1
रमण 1
रवा@@ 1
रस 1
रस@@ 1
रसा@@ 1
रहे 1
राजस 1
रान 1
राम 1
रु 1
ऱ@@ 1
लड 1
लन 1
लम 1
लाम 1
लिए 1
लिय@@ 1
लीग 1
लू 1
लू@@ 1
ले 1
लो 1
वं@@ 1
वा 1
वार 1
वार@@ 1
वास 1
वि 1
विवाह 1
वृ@@ 1
शत 1
शताब 1
शब 1
शिष 1
शी 1
शु@@ 1
शे@@ 1
षण 1
षा 1
षिण 1
षे@@ 1
सं@@ 1
सम@@ 1
समा@@ 1
समि@@ 1
सह@@ 1
सिंह 1
सी@@ 1
सू@@ 1
सूत 1
से@@ 1
सेना 1
सै@@ 1
सो@@ 1
हम 1
हस 1
हू@@ 1
हे 1
हैं 1
ार@@ 1
ारा 1
ियर 1
िया@@ 1
ी 1
ीं 1
ूल 1
ै 1
ै@@ 1
ॉ 1
ॡ 1
ॣ 1
३ 1
४ 1
ং 1
অ@@ 1
ঊ 1
ঌ 1
ও 1
ঘ 1
ঙ 1
ছ 1
ঝ@@ 1
ঠ@@ 1
থ@@ 1
ফ@@ 1
য@@ 1
শ 1
ু 1
ূ 1
ূ@@ 1
ৈ@@ 1
ো 1
ৠ 1
ৣ 1
ৰ@@ 1
ਉ 1
ਊ 1
ਕ 1
ਘ 1
ਙ 1
ਜ 1
ਟ 1
ਦ 1
ਪ 1
ਫ@@ 1
ਬ 1
ੂ 1
ੋ@@ 1
੧ 1
ੰ 1
ੰ@@ 1
ੴ 1
અ@@ 1
ઇ@@ 1
ઊ 1
ગ@@ 1
ઙ 1
જ 1
ટ 1
ણ@@ 1
ન@@ 1
બ 1
બ@@ 1
ય@@ 1
લ 1
ળ@@ 1
શ@@ 1
સ@@ 1
હ 1
ા 1
ુ@@ 1
ૃ 1
ે@@ 1
ો 1
ૡ 1
ૣ 1
ଁ 1
ଆ@@ 1
ଇ@@ 1
ଊ 1
ଙ 1
ଜ@@ 1
ଟ 1
ଢ@@ 1
ର@@ 1
ଲ 1
ଲ@@ 1
ଳ@@ 1
ଷ@@ 1
ସ@@ 1
ି@@ 1
ୁ@@ 1
ୂ 1
େ@@ 1
୍ 1
ୡ 1
ୣ 1
ஃ 1
ஊ 1
ஏ 1
ஞ 1
ழ 1
ஶ 1
ூ 1
ం 1
ఊ 1
ఙ 1
చ@@ 1
ట 1
త 1
ద@@ 1
న 1
ప 1
భ@@ 1
ర 1
వ@@ 1
హ@@ 1
ూ 1
ో@@ 1
ౡ 1
ౣ 1
ಂ 1
ಃ 1
ಆ@@ 1
ಊ 1
ಕ 1
ಙ 1
ಟ 1
ಟ@@ 1
ಡ 1
ದ 1
ದ@@ 1
ಪ 1
ಱ 1
ಳ 1
ವ 1
ಷ@@ 1
ಹ 1
ೀ@@ 1
ೂ 1
ೃ@@ 1
ೆ 1
ೞ 1
ೡ 1
ೣ 1
ം 1
ം@@ 1
ഇ@@ 1
ഊ 1
ഏ@@ 1
ക 1
ങ 1
ച 1
ച@@ 1
ജ@@ 1
ഞ 1
ട@@ 1
ന 1
ര 1
റ@@ 1
ല@@ 1
വ 1
ഷ 1
സ 1
ൂ 1
ൊ@@ 1
ോ@@ 1
ൡ 1
ൣ 1
ൻ 1
ൽ@@ 1
ඌ 1
ඞ 1
ට 1
ට@@ 1
ඩ 1
ධ 1
ධ@@ 1
බ@@ 1
ඹ@@ 1
ී 1
ු 1
ූ 1
ූ@@ 1
ข 1
ค 1
ฆ 1
ฆ@@ 1
จ 1
ฉ@@ 1
ซ@@ 1
ฎ@@ 1
ฑ@@ 1
ต 1
บ 1
ป 1
ผ 1
ฝ@@ 1
พ 1
ภ@@ 1
ฤ@@ 1
ส 1
ฬ@@ 1
ะ 1
ิ 1
ุ 1
ู 1
ใ@@ 1
ກ@@ 1
ຈ@@ 1
ຍ@@ 1
ດ 1
ຕ 1
ນ 1
ບ@@ 1
ພ@@ 1
ສ 1
ສ@@ 1
ິ@@ 1
ື@@ 1
ຸ@@ 1
ໄ@@ 1
ཅ 1
ཆ 1
ཇ 1
ཇ@@ 1
ཉ 1
ཝ 1
ཞ 1
ཨ 1
ཱ 1
ྐ@@ 1
ྔ@@ 1
ྕ@@ 1
ྙ@@ 1
ྟ 1
ྤ@@ 1
ྭ@@ 1
ླ 1
ခ@@ 1
စ@@ 1
ဇ@@ 1
ဏ 1
တ 1
ဒ@@ 1
န@@ 1
မ@@ 1
ရ@@ 1
ဥ@@ 1
ဧ@@ 1
ါ@@ 1
ာ 1
ု@@ 1
ေ 1
ေ@@ 1
့ 1
း 1
း@@ 1
ြ@@ 1
ွ@@ 1
ၚ 1
ၢ@@ 1
ႇ 1
ႈ 1
Ⴁ 1
Ⴃ 1
Ⴉ 1
Ⴜ 1
Ⴠ 1
ბ 1
დ 1
ზ 1
ზ@@ 1
რ 1
ღ@@ 1
ყ@@ 1
წ 1
ხ 1
ჯ 1
ჰ 1
ჵ 1
ჷ 1
ჸ 1
ሁ@@ 1
ህ@@ 1
ለ@@ 1
ሉ@@ 1
ል@@ 1
ሓ@@ 1
መ@@ 1
ማ@@ 1
ሞ@@ 1
ሣ@@ 1
ሥ 1
ረ 1
ሪ 1
ሬ 1
ሮ@@ 1
ሰ 1
ሲ@@ 1
ሳ 1
ሳ@@ 1
ሽ@@ 1
ቀ 1
ቅ@@ 1
ቢ@@ 1
ቦ@@ 1
ተ 1
ቲ 1
ቴ@@ 1
ኃ@@ 1
ነ 1
ና@@ 1
ኖ@@ 1
ኛ 1
እ 1
ከ@@ 1
ወ@@ 1
ዉ@@ 1
ዊ 1
ዋ 1
ዐ@@ 1
ዖ@@ 1
ዙ@@ 1
ዛ 1
ዜ@@ 1
ዝ@@ 1
የ 1
ያ 1
ይ@@ 1
ዳ 1
ጅ@@ 1
ጉ@@ 1
ጊ@@ 1
ጋ 1
ጛ 1
ጢ@@ 1
ጣ@@ 1
ጨ@@ 1
ጭ 1
ጵ@@ 1
ጹ@@ 1
ጽ@@ 1
ፈ 1
ፋ@@ 1
ፌ@@ 1
ፍ@@ 1
። 1
፪ 1
፲ 1
Ꭶ@@ 1
Ꭹ 1
Ꭿ@@ 1
Ꮃ@@ 1
Ꮒ@@ 1
Ꮝ@@ 1
Ꮧ 1
Ꮳ@@ 1
Ꮼ@@ 1
᐀ 1
ᐁ@@ 1
ᐎ@@ 1
ᐐ@@ 1
ᐠ 1
ᐧ 1
ᐯ 1
ᐱ 1
ᑉ@@ 1
ᑐ 1
ᑑ@@ 1
ᑕ@@ 1
ᑫ@@ 1
ᒃ 1
ᒡ@@ 1
ᓃ@@ 1
ᓄ@@ 1
ᓱ@@ 1
ᔅ@@ 1
ᔨ@@ 1
ᔮ@@ 1
ᖳ@@ 1
ᖽ@@ 1
ᖿ 1
ᚋ 1
ᚕ 1
ᚨ@@ 1
ᚱ@@ 1
ᚲ@@ 1
ᚹ 1
ᚾ@@ 1
ᛁ@@ 1
ᛃ 1
ᛊ 1
ᛒ@@ 1
ᛚ 1
ᛞ 1
ᛟ 1
ᜇ 1
ᜌ@@ 1
ᜏ 1
ᜓ 1
ខ@@ 1
ឃ@@ 1
ញ 1
ថ@@ 1
ព 1
ភ 1
ភ@@ 1
ល 1
វ 1
ហ@@ 1
ឡ@@ 1
ិ 1
ឹ@@ 1
ួ 1
ឿ@@ 1
េ 1
ំ 1
ៈ 1
៊ 1
᠊ 1
ᠢ 1
ᠥ@@ 1
ᠦ@@ 1
ᠩ 1
ᠭ 1
ᠯ 1
ᠰ 1
ᠰ@@ 1
ᠳ 1
ᠷ 1
ᥒ@@ 1
ᥘ@@ 1
ᥛ@@ 1
ᥣ@@ 1
ᥫ@@ 1
ᥰ@@ 1
ᥲ 1
ᴙ 1
ᴧ 1
ᴰ@@ 1
ᴶ 1
ᵁ 1
ᵘ 1
ᵹ 1
Ḅ 1
ḅ 1
ḇ 1
ḇ@@ 1
ḋ@@ 1
Ḑ@@ 1
ḛ 1
Ḟ 1
Ḡ@@ 1
ḡ 1
ḣ@@ 1
Ḥ 1
Ḧ 1
Ḩ@@ 1
Ḫ 1
ḭ 1
ḵ 1
Ḷ 1
ḹ 1
ḻ 1
ḽ@@ 1
ḿ 1
Ṅ 1
Ṇ 1
Ṉ@@ 1
ṋ 1
Ṗ@@ 1
Ṙ 1
Ṛ 1
Ṛ@@ 1
ṡ 1
ṡ@@ 1
Ṣ 1
ṷ 1
ẁ 1
ẅ@@ 1
ẍ 1
Ẏ 1
ẏ 1
Ẑ@@ 1
ẑ@@ 1
Ẕ 1
Ẕ@@ 1
ẕ 1
ẗ 1
ẗ@@ 1
ẛ@@ 1
Ạ@@ 1
ấ 1
Ẹ 1
ẻ@@ 1
Ế@@ 1
ỉ 1
ỏ 1
ở@@ 1
ừ@@ 1
Ỳ 1
Ỳ@@ 1
Ỵ 1
ỹ@@ 1
Ỻ 1
ἁ 1
ἆ@@ 1
ἐ 1
ἒ@@ 1
ἓ@@ 1
Ἒ@@ 1
Ἕ@@ 1
ἠ@@ 1
ἣ 1
ἥ 1
ἧ@@ 1
Ἡ 1
ἲ@@ 1
ἳ 1
Ὁ@@ 1
ὒ@@ 1
Ὑ@@ 1
ὢ@@ 1
ὦ 1
ὦ@@ 1
ὺ 1
ὼ@@ 1
ᾗ 1
ᾰ 1
ᾱ 1
ᾱ@@ 1
ῇ@@ 1
Ὲ@@ 1
ῑ@@ 1
ῒ 1
ῡ@@ 1
ῥ 1
ῶ 1
‪ 1
‭ 1
‴ 1
‼ 1
‾ 1
⁂ 1
⁒ 1
ⁱ@@ 1
⁷ 1
⁸ 1
ⁿ@@ 1
₠ 1
₢ 1
₣ 1
₧ 1
₰ 1
₼ 1
⃰ 1
ℂ 1
℈ 1
ℏ 1
ℨ 1
ℰ 1
⅘ 1
⅟ 1
Ⅱ 1
Ⅴ 1
Ⅶ 1
Ⅼ@@ 1
↊ 1
↋ 1
↘ 1
↙ 1
↲ 1
⇌ 1
⇎ 1
⇏ 1
∀ 1
∇ 1
∎ 1
∓ 1
∕ 1
∟ 1
∪ 1
∫ 1
∮ 1
≟ 1
≢ 1
≨ 1
≺ 1
⊢ 1
⍝ 1
⎄ 1
⏨ 1
␈ 1
␛ 1
① 1
② 1
④ 1
⑤ 1
⑥ 1
⑪ 1
Ⓐ 1
Ⓚ 1
Ⓡ 1
ⓐ 1
┴ 1
╰ 1
▢ 1
△ 1
▽ 1
◆ 1
◯ 1
☊ 1
☍ 1
☞ 1
☢ 1
☣ 1
☤ 1
☩ 1
☭ 1
☺ 1
☾ 1
☿ 1
♃ 1
♄ 1
♉ 1
♍ 1
♒ 1
♓ 1
♔ 1
♖ 1
♚ 1
♜ 1
♩ 1
♲ 1
⚒ 1
⚢ 1
⚣ 1
⚥ 1
⚰ 1
✊ 1
✔ 1
✘ 1
✩ 1
❗ 1
➆ 1
➉ 1
➐ 1
➓ 1
➨ 1
⨋ 1
ⱪ@@ 1
Ⱬ 1
ⱬ 1
Ɑ 1
Ɒ 1
Ⱳ 1
ⲃ@@ 1
Ⲅ@@ 1
ⲅ@@ 1
ⲓ@@ 1
ⲛ@@ 1
ⲣ 1
ⲣ@@ 1
ⲥ 1
ⲩ@@ 1
ⴀ 1
ⴁ 1
ⴂ 1
ⴃ 1
ⴄ 1
ⴅ 1
ⴆ 1
ⴇ 1
ⴈ 1
ⴉ 1
ⴊ 1
ⴋ 1
ⴌ 1
ⴍ 1
ⴎ 1
ⴏ 1
ⴐ 1
ⴑ 1
ⴒ 1
ⴓ 1
ⴔ 1
ⴕ 1
ⴖ 1
ⴗ 1
ⴘ 1
ⴙ 1
ⴚ 1
ⴛ 1
ⴜ 1
ⴝ 1
ⴞ 1
ⴟ 1
ⴠ 1
ⴡ 1
ⴢ 1
ⴣ 1
ⴤ 1
ⴶ@@ 1
ⴸ@@ 1
ⴼ 1
ⵃ@@ 1
ⵅ@@ 1
ⵉ 1
ⵎ 1
ⵕ@@ 1
ⵡ@@ 1
⸗ 1
⸘ 1
⸮ 1
⻊ 1
〇 1
あ 1
う 1
お 1
く 1
ぐ 1
ご 1
ざ 1
ず 1
た 1
だ@@ 1
つ 1
づ@@ 1
で 1
ど 1
ぬ@@ 1
は 1
ぱ@@ 1
ひ 1
ぶ 1
ぺ 1
ぺ@@ 1
ほ 1
ゆ 1
よ 1
ギ 1
ケ 1
サ 1
ザ@@ 1
ゾ 1
ゾ@@ 1
ニ 1
ヌ 1
ヌ@@ 1
ネ 1
ビ 1
フ 1
ヘ 1
ベ 1
ペ 1
モ 1
ャ 1
ワ 1
ㄹ 1
ㅂ 1
ㅡ 1
ㅢ 1
ㅸ 1
㈱ 1
㊑ 1
㍿ 1
七 1
且@@ 1
世 1
丛 1
並@@ 1
丨 1
丬 1
丶@@ 1
丸@@ 1
为@@ 1
乂@@ 1
义 1
乔@@ 1
乘@@ 1
乱 1
乳 1
亀 1
亂 1
亂@@ 1
了 1
予 1
互@@ 1
五 1
亙 1
亜 1
亞 1
亠 1
亡 1
亥 1
产 1
亲@@ 1
亶@@ 1
仍 1
仍@@ 1
从 1
从@@ 1
仏 1
仗@@ 1
付 1
付@@ 1
以 1
仰@@ 1
仲 1
任 1
企@@ 1
伉 1
伊 1
伏 1
伏@@ 1
休 1
休@@ 1
众@@ 1
优 1
伞@@ 1
伤@@ 1
伸 1
但@@ 1
低@@ 1
何 1
余 1
佳 1
來 1
例 1
侗 1
供@@ 1
依 1
侠 1
侠@@ 1
侬@@ 1
侵@@ 1
係 1
俭 1
俭@@ 1
俵@@ 1
俸@@ 1
個@@ 1
倍@@ 1
們 1
們@@ 1
倒@@ 1
候@@ 1
倫@@ 1
倭@@ 1
偁 1
偉 1
偏@@ 1
偕@@ 1
做@@ 1
健@@ 1
傅 1
傍@@ 1
傑 1
傣 1
傲 1
傳 1
傾 1
僧 1
僧@@ 1
儀 1
億 1
儋@@ 1
儲 1
儿 1
兀@@ 1
允@@ 1
充 1
充@@ 1
兆 1
兆@@ 1
兎@@ 1
兒@@ 1
入 1
內 1
八 1
兰 1
关 1
兴 1
其 1
具 1
冀 1
冂 1
册 1
册@@ 1
冖 1
农 1
冥 1
冰@@ 1
决@@ 1
冷@@ 1
净@@ 1
准 1
凛@@ 1
几@@ 1
凡@@ 1
処@@ 1
凱@@ 1
击 1
函@@ 1
刂 1
刃 1
刃@@ 1
刑@@ 1
刘 1
刚 1
判@@ 1
刺@@ 1
刻@@ 1
剌 1
前 1
剑 1
剧 1
劃 1
劉 1
劒@@ 1
劝@@ 1
功 1
务 1
努 1
努@@ 1
励@@ 1
势@@ 1
勅@@ 1
勋 1
務@@ 1
勞 1
勢@@ 1
勿 1
勿@@ 1
匂@@ 1
匠@@ 1
匡@@ 1
匯@@ 1
千 1
卍@@ 1
卒 1
卒@@ 1
単@@ 1
卜@@ 1
卞@@ 1
卦 1
即 1
卿 1
压@@ 1
厚@@ 1
厥 1
厦@@ 1
厳@@ 1
参 1
叉@@ 1
及 1
収@@ 1
叔 1
叔@@ 1
变 1
叙@@ 1
叟 1
叡@@ 1
叢@@ 1
句@@ 1
召@@ 1
各@@ 1
吆 1
名 1
吠@@ 1
含 1
含@@ 1
听@@ 1
启@@ 1
吻 1
呀@@ 1
呗@@ 1
命 1
咄@@ 1
咏@@ 1
咲 1
品 1
哈 1
哉 1
响@@ 1
哏 1
哨@@ 1
哲 1
唯@@ 1
唱@@ 1
啟@@ 1
啤@@ 1
善 1
喊@@ 1
嗄@@ 1
嗜@@ 1
嗣 1
嗣@@ 1
嘆@@ 1
嘉 1
器 1
噺@@ 1
嚞 1
囉@@ 1
四 1
因@@ 1
困@@ 1
围 1
圃 1
圃@@ 1
圆 1
圉 1
圖 1
圖@@ 1
圜@@ 1
圭 1
坂 1
坂@@ 1
均@@ 1
坎 1
坟@@ 1
坪 1
垌@@ 1
垕 1
垚 1
垦 1
埋@@ 1
埠@@ 1
執@@ 1
堀@@ 1
堅 1
堎@@ 1
堯 1
堵 1
堺@@ 1
塀 1
塘 1
塞 1
填 1
塵 1
塾@@ 1
墀 1
境 1
増@@ 1
墟 1
壁 1
壑 1
壤@@ 1
壩 1
壹@@ 1
复@@ 1
夢 1
夹@@ 1
奇 1
奋 1
奏@@ 1
契@@ 1
套@@ 1
奠@@ 1
奥 1
奴 1
奴@@ 1
奸 1
妃 1
妃@@ 1
妒 1
妓 1
妖 1
妖@@ 1
妝@@ 1
妥@@ 1
妬 1
妺@@ 1
姐 1
姐@@ 1
委 1
姥@@ 1
姦 1
姦@@ 1
娃@@ 1
娄@@ 1
娅 1
娜 1
娟 1
娥 1
娱@@ 1
婆 1
婉 1
婚 1
婷 1
婷@@ 1
婿@@ 1
媒@@ 1
媧 1
媳 1
嫌 1
嫗@@ 1
嬙 1
嬴 1
孃@@ 1
宀 1
完 1
宏 1
宏@@ 1
宙@@ 1
宛 1
実 1
客@@ 1
宪 1
宰@@ 1
害@@ 1
宴 1
宿@@ 1
寅 1
密 1
寇 1
寉@@ 1
寔@@ 1
寛 1
寝@@ 1
寨 1
審@@ 1
寵 1
寶@@ 1
寻 1
导 1
寿 1
射 1
将@@ 1
將@@ 1
尉 1
尉@@ 1
尊 1
尋 1
尋@@ 1
對@@ 1
少 1
尝 1
尭@@ 1
尹 1
尼 1
屍 1
屏@@ 1
履@@ 1
屯@@ 1
屿@@ 1
岑@@ 1
岔@@ 1
岜@@ 1
岩 1
岬 1
岱@@ 1
岸@@ 1
峠 1
峡 1
峥 1
峪@@ 1
峴 1
崁@@ 1
崑 1
崑@@ 1
崖 1
崖@@ 1
崙@@ 1
崮@@ 1
嵇@@ 1
嶋 1
巌@@ 1
巛 1
差@@ 1
已@@ 1
巷 1
巻@@ 1
巽@@ 1
巾 1
巿@@ 1
币 1
帅 1
帅@@ 1
帆 1
帆@@ 1
帕@@ 1
帖 1
帥@@ 1
席@@ 1
帮@@ 1
帳 1
常 1
幌@@ 1
幕@@ 1
幻@@ 1
幽 1
幾@@ 1
庇 1
床 1
序 1
庐@@ 1
庚 1
庞@@ 1
庫@@ 1
庸@@ 1
廃@@ 1
廊 1
廖 1
廷@@ 1
廾 1
弁 1
弄@@ 1
弔@@ 1
弟 1
弥 1
強@@ 1
彈 1
归@@ 1
当 1
彝@@ 1
彦 1
彦@@ 1
彬 1
彼 1
彼@@ 1
征 1
徂@@ 1
很 1
徐 1
徒 1
徒@@ 1
得 1
徙@@ 1
從@@ 1
御 1
微 1
徵@@ 1
徹 1
徹@@ 1
忄@@ 1
忌 1
忌@@ 1
念 1
怀@@ 1
态@@ 1
怜@@ 1
性 1
怪@@ 1
恆@@ 1
恋 1
恋@@ 1
恐@@ 1
恤 1
恨 1
恨@@ 1
恩 1
息 1
恳 1
恵 1
悅@@ 1
悔 1
悦 1
悪@@ 1
悬@@ 1
惇 1
惡@@ 1
愿@@ 1
態 1
慎@@ 1
慧@@ 1
慶 1
憂@@ 1
憑 1
憑@@ 1
應 1
懐@@ 1
懲@@ 1
懷@@ 1
懺@@ 1
懿@@ 1
戀@@ 1
戌 1
戌@@ 1
戎@@ 1
戕 1
戚 1
戚@@ 1
戟 1
戰 1
戲 1
扎@@ 1
扑@@ 1
打 1
托 1
扶@@ 1
批@@ 1
承@@ 1
技 1
抄@@ 1
把@@ 1
投@@ 1
抜@@ 1
护 1
披 1
抹@@ 1
押 1
拂@@ 1
担 1
拐@@ 1
拓 1
拓@@ 1
拔@@ 1
拝 1
拝@@ 1
拾 1
拾@@ 1
拿@@ 1
挙 1
挥 1
挥@@ 1
挪@@ 1
挿@@ 1
捨@@ 1
捷@@ 1
授@@ 1
掌@@ 1
掘@@ 1
揆 1
描@@ 1
插 1
揮@@ 1
搏 1
搞@@ 1
携 1
摂@@ 1
摄@@ 1
摇@@ 1
摩 1
撃 1
撃@@ 1
撇 1
撒 1
撒@@ 1
撓 1
播@@ 1
擁 1
擎@@ 1
擔 1
據@@ 1
攀@@ 1
攝@@ 1
攸 1
敌@@ 1
敎 1
敕@@ 1
敗@@ 1
散@@ 1
数 1
斥@@ 1
斧 1
斬@@ 1
於@@ 1
施 1
旁@@ 1
旋 1
既 1
旦@@ 1
旨 1
旨@@ 1
早 1
早@@ 1
时@@ 1
昂@@ 1
昆 1
昇 1
昧 1
時 1
晃 1
晋 1
晏@@ 1
晚@@ 1
晟 1
晩@@ 1
暉 1
暖@@ 1
暢 1
暦@@ 1
曇@@ 1
曉@@ 1
更@@ 1
曼 1
曾 1
有 1
望 1
朦@@ 1
朧@@ 1
未 1
札 1
札@@ 1
朮 1
朱 1
朴 1
朽@@ 1
杉 1
杉@@ 1
李 1
杏 1
材@@ 1
杰 1
板 1
枕 1
枕@@ 1
枚@@ 1
枝 1
枞@@ 1
枢@@ 1
架 1
染 1
柔 1
柶 1
柿@@ 1
栃@@ 1
标 1
标@@ 1
栋 1
栖 1
栗 1
栞 1
根 1
桀 1
桀@@ 1
桂 1
桑 1
桑@@ 1
桓@@ 1
桜 1
梓@@ 1
條 1
梧@@ 1
梯 1
梯@@ 1
棉 1
棒 1
棟@@ 1
棠@@ 1
森 1
棲@@ 1
棺 1
棺@@ 1
検 1
検@@ 1
椰@@ 1
楓@@ 1
楠 1
楮 1
極 1
楷@@ 1
楹 1
榆@@ 1
榮 1
榮@@ 1
槃 1
構 1
槐@@ 1
様@@ 1
槻 1
樋@@ 1
樘 1
樣 1
樣@@ 1
横 1
樺@@ 1
樽@@ 1
橘@@ 1
橫@@ 1
檀@@ 1
檣 1
櫂 1
櫛 1
欄@@ 1
權 1
權@@ 1
次 1
欽 1
歓@@ 1
止 1
步 1
歪@@ 1
歲 1
歷@@ 1
歹 1
死 1
歼 1
殉@@ 1
殊 1
残@@ 1
殘 1
段 1
殺 1
毀 1
毅@@ 1
比 1
毕 1
毕@@ 1
毘@@ 1
毫 1
民 1
氣@@ 1
氪 1
汁 1
汉 1
汕@@ 1
汝@@ 1
汨@@ 1
汶@@ 1
汾@@ 1
沈 1
沉@@ 1
沐@@ 1
沒@@ 1
沙 1
沛 1
沛@@ 1
沟 1
沢 1
沣@@ 1
沧@@ 1
沱@@ 1
油@@ 1
況 1
泌@@ 1
泓@@ 1
泛 1
注 1
注@@ 1
泷@@ 1
泽 1
泾@@ 1
洁 1
洛 1
洛@@ 1
洪 1
洮@@ 1
洲 1
浄 1
浄@@ 1
浆@@ 1
测 1
浩 1
浪 1
浴 1
涇@@ 1
涌@@ 1
涓@@ 1
涛@@ 1
涯 1
涯@@ 1
液@@ 1
涵 1
涿@@ 1
淄@@ 1
淑@@ 1
淡 1
淡@@ 1
淨@@ 1
深 1
淵 1
淵@@ 1
混 1
淹@@ 1
渋@@ 1
渐@@ 1
渓 1
渓@@ 1
渚@@ 1
渝@@ 1
渤 1
測 1
渭@@ 1
湛@@ 1
湟@@ 1
湾 1
溟@@ 1
溥 1
溥@@ 1
滄@@ 1
滅 1
滅@@ 1
滋 1
滋@@ 1
滕@@ 1
滚@@ 1
滝 1
滝@@ 1
满 1
滦@@ 1
滨 1
漆@@ 1
漕@@ 1
漱@@ 1
漾@@ 1
潔 1
潘 1
潛@@ 1
潜 1
潜@@ 1
潞 1
潤@@ 1
澜@@ 1
澤 1
澧@@ 1
濁@@ 1
濊@@ 1
濞@@ 1
濠 1
濤@@ 1
瀘@@ 1
瀧 1
瀬 1
瀾@@ 1
灌@@ 1
灯@@ 1
灾@@ 1
灿 1
炎 1
炒@@ 1
炭@@ 1
為 1
烏 1
烏@@ 1
烙@@ 1
烟@@ 1
烦@@ 1
焉 1
焌 1
焓@@ 1
焕@@ 1
無 1
焱 1
煌 1
煌@@ 1
煙@@ 1
煥@@ 1
熙@@ 1
熱 1
熱@@ 1
燈@@ 1
燥 1
燮 1
爨 1
爭@@ 1
爷 1
爹 1
爾@@ 1
片 1
版 1
牜 1
牝 1
牡 1
牧 1
犊@@ 1
犬@@ 1
狀 1
狂@@ 1
狄@@ 1
狐 1
狠 1
狩 1
狮@@ 1
狼 1
猕@@ 1
猥@@ 1
猴@@ 1
猿@@ 1
獄@@ 1
獒 1
獣@@ 1
獻@@ 1
率@@ 1
玗 1
玲 1
玲@@ 1
玺 1
珅@@ 1
珈@@ 1
珞 1
珠 1
珪 1
珪@@ 1
班@@ 1
琛 1
琦 1
琪 1
琰 1
琲@@ 1
琳 1
琵 1
琶 1
瑁 1
瑛 1
瑜 1
瑞 1
瑟 1
瑤@@ 1
瑩 1
瑷@@ 1
瑾@@ 1
璧@@ 1
[...]
