् 8669031
के 1683595
। 1546065
में 1271207
, 1226863
है 1085862
प 952711
की 826285
स 804783
और 690486
़ 656794
का 636244
से 629482
क 572705
को 505310
य 463277
एक 453923
त 447481
ट 444230
न 409265
ने 399591
र 393484
र@@ 390779
) 387192
( 385418
द 378458
हैं 373996
व 345029
पर 333703
&quot; 332340
म 318168
ज 305276
न@@ 298887
ल 292001
. 278481
@-@ 274189
म@@ 269105
स@@ 267670
ड 264646
रा@@ 252273
किया 242885
व@@ 236927
था 235111
क@@ 234345
कर 233967
य@@ 228584
लिए 227242
आ@@ 225415
ल@@ 220245
वि@@ 216818
या 213349
अ@@ 213186
त@@ 211517
ं@@ 207586
ग 207160
भी 205380
प@@ 203054
वा@@ 200187
श 197549
सं@@ 197249
ब@@ 197071
यह 190775
वर 189263
ह@@ 182486
इस 182315
ता 182082
गया 178847
ज@@ 178235
ष 173790
कि 172485
ब 169042
द@@ 161116
ध 160260
फ 159530
ना@@ 152677
री 151766
या@@ 150892
ण 149582
ला@@ 149127
ग@@ 148594
च@@ 147880
नि@@ 147058
श@@ 146810
कार 146014
रूप 145584
ही 144052
का@@ 143227
ली 141704
ट@@ 141191
ना 140313
ए@@ 138181
मा@@ 136289
ी 136221
रे@@ 134872
उन 134751
सा@@ 133847
रि@@ 133408
जो 131657
रो@@ 130243
पा@@ 129432
ति 128220
बा@@ 126573
जाता 125218
इ@@ 123342
साथ 117304
नी 116802
ता@@ 116451
करने 115682
तर 113120
बाद 112692
उत 112411
ख@@ 111902
ड@@ 111755
हो 109770
राज 109653
ती 109086
वारा 107481
थे 106352
तक 105152
ला 104678
भारत 104191
जा@@ 103928
े 103809
ह 103213
&apos; 102958
: 101376
नहीं 100235
ई 99150
रा 98737
मे@@ 98684
यक 97222
च 97004
मि@@ 96486
शा@@ 95562
ा 95526
वे@@ 94798
ध@@ 94579
ने@@ 94092
सु@@ 93662
निर 93304
फ@@ 91477
िक 91127
ले@@ 91047
थी 90561
अन 88733
दी 87979
उ@@ 86861
तथा 86774
पूर 86202
सि@@ 86080
अपने 84981
को@@ 84718
री@@ 84452
ले 83325
ते 83262
थ@@ 83149
भ@@ 82540
मु@@ 82279
दिया 80613
यू@@ 79837
थ 79097
लि@@ 78505
जा 77820
दा@@ 76419
षेत 76360
सर 76137
ियों 75631
वह 75556
टी 75313
होंने 74573
दर 74520
जन 74091
सी@@ 73819
छ@@ 73088
ख 73087
हा@@ 72228
होता 72228
से@@ 72112
ष@@ 71304
इन 70355
ण@@ 70067
नों 69980
बर 69543
ओं 69284
जी@@ 69195
ं 69108
ित 68649
सी 68464
ई@@ 68399
उप@@ 68228
अनु@@ 68026
बे@@ 67585
ंग@@ 67076
ों 67076
कि@@ 66615
ि@@ 66378
सम 66299
हुआ 65799
दि@@ 65603
थित 65446
मो@@ 64902
वे 64763
शन 64240
राष 64163
ंग 63900
ति@@ 63610
रों 62967
के@@ 62504
- 62329
पु@@ 62040
नाम 61909
टर 60714
दे@@ 60413
कों 60373
जी 60151
कुछ 59681
भा@@ 59318
पे@@ 59253
पुर 59108
रु@@ 59056
गा@@ 59020
हें 58524
रीय 58342
गु@@ 58315
विश 58003
कर@@ 57389
कु@@ 57058
सा 55936
ू@@ 55071
ंड@@ 54903
महा@@ 54869
टे@@ 54634
करते 54291
पर@@ 53938
सन 53663
हुए 53613
भ 53369
तो 53360
गाँव 53341
ार@@ 52729
ली@@ 52422
ये 52404
समय 52188
मा 51942
ठ@@ 51840
यों 51639
ँ@@ 51524
ो 51442
इसके 51274
ू 51119
वी 51018
मार 50983
एवं 50970
घ@@ 50744
वाले 50378
डि@@ 50375
े@@ 50320
होने 50029
ो@@ 50014
रू@@ 50009
पी@@ 49844
मान 49380
कई 49377
उनके 49272
गत 49132
संस 49054
षा 48985
शि@@ 48643
ु 48638
ु@@ 48624
बि@@ 48369
खा@@ 48293
पत 48210
कै@@ 48207
चा@@ 48188
; 48076
ार 47997
ा@@ 47856
हि@@ 47776
परि@@ 47283
भारतीय 47133
गो@@ 47110
चार 47063
मी 46953
अधिक 46933
षण 46820
१@@ 46776
रम 46453
ी@@ 46109
रक 46091
चित 46086
ओ@@ 45497
बड 45450
ए 45349
लो@@ 45165
सबसे 45118
देश 44955
कारण 44805
रति@@ 44568
अपनी 44513
कम 44436
करता 44377
होती 44225
मुख 43928
लों 43925
टि@@ 43916
पहले 43722
मान@@ 43695
टी@@ 43404
तर@@ 43349
दक 43292
थान 43114
अर 43099
गए 43078
नी@@ 42987
िल 42800
दो 42663
रकार 42181
सकता 41932
सो@@ 41881
था@@ 41761
कल 41585
सम@@ 41410
सू@@ 41399
फिल 41181
किसी 40978
मै@@ 40810
बी@@ 40788
&#93; 40456
ंस 40450
जब 40447
गई 40309
&#91; 40299
वी@@ 40264
मन 40128
बै@@ 40124
जि@@ 40100
मी@@ 39906
वास 39861
.@@ 39844
जे@@ 39836
जन@@ 39261
कहा 39249
ीय 39095
ंड 39074
चु@@ 38825
लेकिन 38596
िय@@ 38583
‍ 38393
रदेश 38348
वा 38282
ि 38268
राप 38065
दा 37985
राज@@ 37891
बन 37803
करण 37758
भाषा 37717
ीन 37693
पि@@ 37399
जाती 37345
हुई 37289
बहुत 37039
लिया 36972
ठ 36971
रे 36890
शामिल 36859
शिक 36740
रत 36588
तु@@ 36553
बो@@ 36131
ारी 35967
रिया 35924
झ@@ 35763
िया 35709
यालय 35692
टा@@ 35621
ते@@ 35617
उस 35567
जैसे 35415
होते 34920
पै@@ 34565
जिले 34545
/ 34375
विद 34282
यु@@ 34075
१९@@ 34060
यो@@ 33986
डे@@ 33949
रस 33920
निक 33579
ान 33569
रहे 33491
हो@@ 33324
धा@@ 33193
तान 32876
धर 32797
बार 32791
डा@@ 32682
कार@@ 32602
मित 32358
उनकी 32293
टा 32270
चि@@ 32185
खे@@ 32164
जाने 32037
अव@@ 31872
० 31765
माण 31437
पड 31306
बीच 31257
भाग 31190
उसके 31143
अं@@ 31092
उद 31088
रहा 31024
ॉ@@ 31016
ती@@ 31012
तों 30952
सभी 30951
निय@@ 30908
वै@@ 30908
पन 30856
पो@@ 30808
काल 30690
तरह 30673
जिसमें 30586
पश 30579
रह@@ 30490
लं@@ 30470
लन 30435
यात 30361
अप@@ 30221
इसे 30132
दु@@ 30124
वार 30102
रह 30070
यर 29768
आर 29746
इसका 29716
मक 29696
ृ@@ 29621
गि@@ 29536
शक 29464
अभि@@ 29410
अनुसार 29398
ौ@@ 29396
कारी 29395
जै@@ 29281
अधि@@ 29221
बु@@ 29039
तहसील 28994
लक 28922
बी 28868
टो@@ 28764
गर 28591
रमुख 28499
तियों 28489
सर@@ 28483
करना 28396
काम 28394
वाली 28211
मों 28140
शु@@ 28077
रॉ@@ 28049
डल 27850
२@@ 27746
वाद 27705
उसे 27696
अध 27669
पास 27631
बल 27627
डी 27617
गढ 27612
भू@@ 27581
ोर 27579
राम 27555
कोई 27527
लोगों 27496
कृत 27466
शे@@ 27424
ऑ@@ 27420
तन 27316
अक 27204
महत 27194
ंक 27038
ंट 26830
बढ 26749
ञान 26719
गी 26705
धि 26648
उपयोग 26562
पार 26559
मण 26535
हार 26496
अल 26428
रं@@ 26408
1 26406
सत 26398
जीवन 26370
हिन 26366
फा@@ 26221
ंत 26051
योग 25944
लिये 25861
रित 25811
विज 25754
जाते 25746
दी@@ 25703
मध 25701
मौ@@ 25620
ै@@ 25577
लैंड 25522
रण 25469
हे@@ 25464
की@@ 25351
&#124; 25310
है@@ 25229
नगर 25197
दोनों 25174
तु 25144
आदि 25112
षित 24913
ंद 24895
सिंह 24784
हम@@ 24729
कॉ@@ 24554
शब 24547
टन 24536
मूल 24527
नो@@ 24499
शहर 24496
वस 24420
लगभग 24406
कन 24343
गा 24281
गे@@ 24271
रयोग 24219
दौरान 24186
औ@@ 24105
ढ@@ 24057
यहाँ 24054
हर 23848
साहित 23741
रेस 23702
अंग 23626
मिक 23620
ओर 23494
सरकार 23298
अब 23120
पू@@ 23111
मिल@@ 23098
तीन 23085
लै@@ 23020
2 22984
ताओं 22950
इं@@ 22921
कड 22921
शुरू 22915
फिर 22847
लोग 22684
रख@@ 22626
एं 22614
% 22547
षिण 22486
जिसे 22445
सै@@ 22405
जो@@ 22391
अलग 22320
रै@@ 22316
खु@@ 22292
वन 22288
मंत 22241
विकास 22223
ारे 22203
मे 22128
ॉर 22073
घा@@ 22062
नर 22031
जर 22020
तः 21910
रिय@@ 21883
ऊ@@ 21859
शो@@ 21793
युद 21729
दार 21711
णों 21702
विक 21700
यान 21679
लगा@@ 21627
करती 21602
वीं 21567
ऑफ 21553
फे@@ 21535
लता 21488
एँ 21484
चे@@ 21480
रिक 21452
पद 21446
धान 21439
लग@@ 21416
णी 21414
धन 21190
बना@@ 21186
इन@@ 21164
तम 21123
रता 21006
सक 20947
केवल 20931
दो@@ 20912
अंतर 20907
वित 20887
यम 20866
१ 20863
जिन 20825
राजा 20822
दिन 20807
संख 20804
घर 20784
जाना 20713
तौर 20619
रिकेट 20614
चर 20588
सकते 20563
ंद@@ 20495
विशेष 20477
मंदिर 20444
इसकी 20427
शा 20319
नु@@ 20300
ढ 20209
यन 20190
आई@@ 20138
सार 20120
लेख@@ 20020
िया@@ 19983
२ 19978
डी@@ 19950
&amp; 19926
विस 19822
लु@@ 19791
चौ@@ 19761
सिद 19731
णा 19622
कभी 19576
दान 19484
दू@@ 19461
वत 19460
समा@@ 19430
भी@@ 19387
वाला 19355
उनका 19334
यी 19323
विभिन 19323
सदस 19317
टीम 19312
तार 19295
पह@@ 19272
५ 19272
रदर 19219
ंप@@ 19173
इतिहास 19127
देख@@ 19114
मात 19073
तिक 18985
गी@@ 18983
ची@@ 18970
योंकि 18953
साल 18952
उच 18904
इसमें 18898
ारा 18841
पी 18765
साइ@@ 18700
5 18692
आं@@ 18659
सह@@ 18605
नदी 18604
हम 18575
वपूर 18531
माना 18498
ंच 18496
डा 18487
०@@ 18475
अपना 18422
गै@@ 18422
2@@ 18401
इसी 18378
रात 18372
जु@@ 18346
दों 18317
सभा 18292
कहते 18274
ञा@@ 18215
हालांकि 18211
३@@ 18184
थिति 18176
3 18152
रही 18131
बद@@ 18124
भे@@ 18106
हिस 18101
पार@@ 18064
कुल 18057
तत 18049
रच@@ 17930
किए 17888
कृति 17884
अन@@ 17857
दिल 17839
पक 17832
षा@@ 17785
खो@@ 17762
लय 17755
फि@@ 17681
रिया@@ 17672
हन 17649
रसिद 17645
राय@@ 17612
पुरा@@ 17579
फै@@ 17529
थि@@ 17519
रथम 17501
वों 17492
आ 17422
५@@ 17374
बॉ@@ 17347
धार@@ 17334
यु 17334
॰ 17310
तब 17301
मर 17272
वविद 17241
पहली 17220
योग@@ 17159
ियाँ 17132
आवश 17031
रदान 17012
धी 16980
ंच@@ 16972
४ 16945
सामान 16929
धार 16899
पुरस 16893
अस 16862
धा 16853
रन 16767
बं@@ 16748
टे 16745
घट@@ 16743
मस 16721
३ 16632
रिय 16604
षों 16595
यता 16561
बना 16542
ारों 16541
एस 16533
ँ 16505
मू@@ 16502
लर 16463
संयुक 16450
कृष 16434
शी@@ 16394
लित 16393
दूसरे 16332
जिसके 16319
रां@@ 16283
अमेरिका 16276
जल 16258
केंद 16185
जान@@ 16138
इस@@ 16131
ियां 16087
कह@@ 16043
थापित 16023
वं@@ 16022
दौ@@ 15992
दे 15990
ोड 15969
७@@ 15958
मार@@ 15945
शास 15902
4 15890
समर 15879
लॉ@@ 15873
उल 15859
ः 15837
धि@@ 15827
टेशन 15807
बन@@ 15806
भर 15806
हु@@ 15760
देशों 15734
चै@@ 15725
तमान 15711
युक 15705
उसकी 15697
कृ@@ 15679
गों 15678
चा 15678
खा 15668
६@@ 15645
रान 15601
जबकि 15591
निक@@ 15559
यहां 15544
संग 15508
अप 15448
राइ@@ 15421
६ 15415
टि 15376
ऐ@@ 15314
भो@@ 15307
रवा@@ 15303
जिसका 15289
दन 15251
पाकिस 15194
सेना 15174
बच 15158
वो@@ 15141
लड 15140
गं@@ 15078
आज 15060
20 14984
इंड@@ 14925
४@@ 14906
माध 14879
मं@@ 14866
लम 14844
थापना 14832
लने 14784
देश@@ 14746
करा@@ 14743
जिला 14720
िले 14708
शी 14701
यू 14680
पाल 14642
नौ@@ 14638
रो 14633
-@@ 14615
८ 14606
उन@@ 14600
समूह 14572
’ 14563
रति 14540
एल 14500
कता 14499
नि 14497
ूर 14475
अत 14466
कारों 14466
चार@@ 14458
‘ 14432
पिता 14423
मह@@ 14339
दुर 14308
गयी 14276
लिक 14257
रखा 14241
यवस 14237
राम@@ 14232
मृत 14223
७ 14222
बनाया 14220
जे 14213
नामक 14196
अनेक 14180
यव@@ 14170
आधार 14151
समझ@@ 14121
पानी 14108
पुस 14086
कोड 14045
3@@ 14023
षि@@ 14012
यास 14010
एस@@ 14001
फो@@ 13993
बारे 13992
उसने 13954
टिक 13953
तं@@ 13951
कला 13946
मत 13900
शासन 13899
ें 13885
परिवार 13874
मिल 13849
९ 13818
साम@@ 13816
चन 13807
बा 13800
जिन@@ 13762
चाहिए 13749
देने 13748
चक 13711
बात 13707
खि@@ 13688
आम 13670
अर@@ 13656
गण@@ 13651
6 13645
लिस 13622
ययन 13548
पौ@@ 13516
जारी 13515
भव 13485
संगीत 13457
बिहार 13448
कूल 13433
हीं 13433
वक 13417
सेवा 13401
उपलब 13391
षक 13354
यूरो@@ 13296
ऐसा 13243
कला@@ 13236
९@@ 13232
रल 13226
अच 13166
तीय 13140
धी@@ 13127
रचना 13094
लिख@@ 13079
सकती 13057
कं@@ 13048
लेख 13043
विष 12982
भिक 12981
यत 12952
पं@@ 12951
आप@@ 12935
भु@@ 12913
रभाव 12901
पुत 12893
राचीन 12885
२०१@@ 12877
केन 12869
दूर 12859
दृष 12851
८@@ 12842
ऐसे 12836
जहां 12813
लिय@@ 12807
डो@@ 12797
नै@@ 12796
महिला 12778
देव@@ 12761
आई 12748
बनाने 12709
चिम 12676
टल 12661
परिवर 12633
थीं 12631
अलावा 12607
छोड 12604
वरण 12602
वृत 12560
वादी 12486
अफ 12400
उस@@ 12389
इला@@ 12382
यिक 12372
देता 12365
रु 12341
राय 12340
चों 12339
भूमिका 12305
मैच 12271
करके 12270
ठा@@ 12267
पादन 12232
माता 12203
तराखण 12170
कृतिक 12161
चे 12161
जुड 12154
निम 12128
चिकित 12111
जिससे 12095
पोर 12086
येक 12083
10 12075
खिलाफ 12075
धित 12070
लाइ@@ 12054
ऑस 12020
यदि 12019
लेक 11993
वतंत 11961
सिं@@ 11937
कंपनी 11922
रोग 11919
पता 11912
पात 11905
भाषा@@ 11875
नियम 11866
काफी 11842
डे 11825
सामाजिक 11814
समस 11807
छो@@ 11795
धिक 11779
कालीन 11777
हों 11777
ीं 11758
नाओं 11748
दुनिया 11747
नाग@@ 11746
डॉ@@ 11732
लेकर 11704
दू 11700
२००@@ 11684
ंगे 11669
विधान 11661
चुनाव 11645
आत 11632
वान 11631
मॉ@@ 11630
उसका 11629
माम@@ 11571
निश 11565
जिस 11558
शं@@ 11552
कू@@ 11543
तरी 11508
लू@@ 11507
हस 11493
फु@@ 11489
भार@@ 11487
जों 11479
कप 11477
नल 11462
रण@@ 11456
नई 11449
रम@@ 11442
सिक 11442
सौ@@ 11415
चाह@@ 11414
शताब 11402
एक@@ 11397
नाइ@@ 11369
रिटिश 11354
पहला 11348
लाल 11339
परिणा@@ 11335
जोड 11331
गये 11319
लियन 11316
परीक 11310
विशेष@@ 11298
अथवा 11273
टों 11269
आन 11267
सुरक 11252
ओ 11249
आध@@ 11211
टै@@ 11207
7@@ 11196
णु 11172
नाथ 11169
खेल 11167
ियो@@ 11164
डियो 11159
समान 11132
चना 11103
बंध@@ 11102
जल@@ 11087
हरी 11072
इंग 11067
सां@@ 11060
इसलिए 11057
किये 11054
ऋ@@ 11050
वाल 11028
पति 11018
शुरुआत 11015
भाई 11008
रीका 11005
तृत 10999
भूमि 10994
आगे 10963
वि 10963
अमेरिकी 10958
णन 10953
छोटे 10949
जहाँ 10942
8 10931
ौर 10922
– 10895
नए 10894
तेमाल 10880
नव@@ 10879
रणाली 10870
उम 10867
वरूप 10864
बे 10863
= 10857
एम@@ 10843
आधारित 10828
ियन 10815
नेता 10786
देव 10765
कोशि@@ 10755
रेन 10693
रकाशित 10691
पा 10687
छा 10680
वीप 10678
रारं@@ 10641
मनो@@ 10630
कट 10618
जूद 10618
तित 10593
उदाहरण 10591
लौ@@ 10575
विधा@@ 10575
रेज 10573
तो@@ 10563
लगा 10535
टिंग 10533
वंश 10526
ीक 10525
मल 10521
9 10519
दर@@ 10514
5@@ 10511
सों 10483
साम 10473
रेलवे 10472
जनवरी 10456
समाज 10424
णा@@ 10422
वैज 10410
पूरी 10407
इससे 10394
फर 10391
राजस 10390
हरा@@ 10390
7 10386
मुक 10384
बाहर 10345
जित 10340
इनके 10325
ंतु 10313
अंत 10306
पट@@ 10299
पस 10265
ंब@@ 10263
नियंत 10258
गल 10248
सिस 10245
धारण 10242
6@@ 10237
4@@ 10230
टाइ@@ 10220
विकसित 10210
सिल 10198
षि 10184
होगा 10181
जार 10176
वो 10168
मद 10167
लोक 10161
गांव 10157
चल 10141
सल 10141
ही@@ 10140
थों 10094
कॉर 10079
पदार 10054
जाति 10035
ियर 10025
छा@@ 10001
रहता 9979
अम@@ 9977
भगवान 9971
वन@@ 9970
बहु@@ 9965
संघ 9963
दस 9958
थन 9951
दशक 9939
बनी 9935
यर@@ 9935
वाई 9934
मुद 9921
थल 9900
रेणी 9900
निया 9899
बने 9887
निस 9870
रोध 9863
ेक 9854
ंगा 9844
रंग 9804
ॉ 9804
सब 9803
देते 9797
जिनमें 9783
विध@@ 9778
रहते 9773
अतिरिक 9710
आधुनिक 9705
! 9701
होकर 9689
नक 9679
तरा@@ 9676
छे 9665
समु@@ 9663
एम 9641
हा 9641
अधिकांश 9639
गति 9636
ताल 9625
मानित 9621
0 9602
मई 9592
रृंखला 9587
टेड 9584
शरीर 9580
शीर 9580
रमण 9575
रिस 9564
फी@@ 9549
ाई 9544
रेजी 9520
नीय 9505
gt 9499
हाइ@@ 9480
लोकप 9479
विभा@@ 9479
तना 9465
थिक 9461
उपा@@ 9446
षे@@ 9445
अगस 9438
भौ@@ 9434
माइ@@ 9425
कानू@@ 9419
शर 9401
देखा 9396
बद 9368
जय 9333
ियाई 9313
नो 9312
पॉ@@ 9312
रसा@@ 9307
यादा 9306
तंत 9294
सफ@@ 9292
हू@@ 9281
बांग 9268
ुक 9258
लिंग 9255
संक 9249
बस 9240
टॉ@@ 9239
टूबर 9234
गम 9220
यद 9218
लते 9195
रास 9185
वल 9170
अधिकार 9139
यंत 9139
lt 9134
डर 9130
नन 9119
P@@ 9115
मानव 9115
उसी 9113
लिखित 9105
,@@ 9093
एन@@ 9086
संचा@@ 9083
जू@@ 9064
दूसरी 9059
विभाग 9056
अभ@@ 9051
डिय@@ 9043
भिन 9043
रभा@@ 9038
रैल 9037
एं@@ 9035
फल 9027
सूर 9021
सागर 9020
विधि 9015
डिया 9014
आप 8981
वाचन 8979
संबंध 8976
जून 8970
जय@@ 8965
दाय 8953
the 8941
चीन 8939
सान 8936
जगह 8931
8@@ 8919
हॉ@@ 8917
मिश 8911
राजधानी 8907
जुलाई 8900
देवी 8889
पूरा 8888
ऊपर 8877
मंड@@ 8876
धु@@ 8873
घो@@ 8845
चिमी 8825
तव 8823
रानी 8818
रोत 8803
नियों 8799
काव 8796
लो 8787
ये@@ 8775
ठा 8771
राजनीतिक 8753
णि@@ 8750
पल 8743
विचार 8743
of 8740
पष 8740
a 8736
पहुँ@@ 8734
सूची 8734
बंगा@@ 8731
रका@@ 8724
तैयार 8723
दल 8719
विषय 8705
महिला@@ 8704
बिना 8702
सप 8686
ची 8684
मीटर 8681
तीस@@ 8671
शत 8661
अग 8643
चो@@ 8643
लोक@@ 8638
रवरी 8637
लब 8636
भाव 8633
सीमा 8618
जीत 8617
टेस 8605
यार 8598
दित 8591
गति@@ 8586
S@@ 8574
शल 8565
०० 8559
किन 8556
विधानसभा 8554
लेने 8551
युग 8548
पों 8526
ञानिक 8487
युत 8479
पृथ 8474
दास 8470
वयं 8467
यि@@ 8465
शै@@ 8465
कीय 8462
निष 8461
अंतिम 8458
15 8456
कौ@@ 8456
खिलाड 8453
लिखा 8442
गोल 8435
हित 8391
जनसंख 8388
9@@ 8386
आकर 8381
यौ@@ 8375
ञ 8365
थानीय 8360
हत 8360
षी 8348
कोर 8346
पि 8339
भक 8337
रपति 8333
12 8326
वृद 8316
ृत 8305
उर 8301
ॅ@@ 8301
समुद 8294
सहायता 8291
रेल@@ 8289
ंडर 8282
योजना 8280
टूर 8269
नात 8263
हल 8252
कुमार 8243
आने 8241
नीचे 8238
रशा@@ 8234
सद 8227
दियों 8226
पृ@@ 8223
जाए@@ 8219
रेट 8211
षद 8206
दोलन 8183
काल@@ 8162
मूर 8142
यापक 8142
फी 8128
कश 8108
गुज@@ 8107
ऐसी 8105
संगठन 8100
कहानी 8099
टू@@ 8095
तृ@@ 8095
कांग 8094
होना 8082
१८@@ 8080
समाप 8074
सफल 8070
ठी 8068
हिंदी 8065
पहुंच@@ 8052
पढ 8046
छात 8029
अभी 8019
पाया 8010
तुलना 8007
कॉलेज 8004
रहने 8004
कवि@@ 8002
चंद 7995
लू 7986
रकाश 7978
रस@@ 7973
योजन 7950
बम 7944
इल 7943
आक 7936
ॉन 7931
रवेश 7928
M@@ 7927
पान 7927
पण 7925
वें 7917
मिला 7906
शैली 7897
गौ@@ 7890
रव 7882
नाटक 7873
रतिनि@@ 7866
लीग 7836
मां@@ 7833
वितीय 7820
किलोमीटर 7814
मीर 7812
पूरे 7810
वृ@@ 7803
सैन 7803
चात 7801
बह@@ 7798
विशिष 7787
पंजा@@ 7780
रभावित 7780
सहित 7766
तकनी@@ 7765
दमी 7765
षमता 7757
सदी 7752
केट 7751
गिर@@ 7748
दूरी 7742
दृश 7738
10@@ 7736
अवधि 7735
वार@@ 7735
सीसी 7717
सिर 7706
C@@ 7700
हे 7692
अवस 7689
30 7684
बंध 7684
संबंधित 7672
रंग@@ 7670
गल@@ 7652
पहाड 7648
तुर 7640
एंड 7637
एन 7627
सक@@ 7627
सूत 7623
16@@ 7621
रयास 7611
किंग 7607
नेट 7606
वश 7604
19 7602
लाइन 7597
घु@@ 7593
लगे 7586
2008 7585
सेवा@@ 7585
आबादी 7571
किमी 7561
सब@@ 7561
कुमाऊँ 7553
खर 7545
ऐतिहासिक 7527
15@@ 7525
गठ@@ 7520
बंधन 7518
चय 7512
मिलता 7510
कथा 7509
मुस 7509
बुद 7506
मैं 7501
बोर 7500
बाज 7496
वहाँ 7496
उड 7487
चू@@ 7484
यकता 7481
इंटर@@ 7467
ञ@@ 7466
शनल 7466
खान 7459
इनमें 7456
थाप@@ 7412
पित 7401
रियों 7401
जिस@@ 7395
परिक 7388
बार@@ 7388
आर@@ 7384
17@@ 7375
रेष 7348
लाया 7346
माने 7343
N@@ 7339
करे@@ 7331
तहत 7328
घोषणा 7323
यापार 7317
रहती 7310
राव@@ 7306
लाम 7288
2007 7286
मैन 7286
गां@@ 7279
कठ@@ 7268
तुत 7268
वीकार 7266
आकार 7262
दिए 7259
सहा@@ 7259
काओं 7257
11 7254
आता 7235
मेंट 7231
लिम 7223
पुरुष 7220
विन 7217
बू@@ 7216
दूसरा 7215
चाई 7208
जनगणना 7198
H@@ 7196
वु@@ 7195
आते 7188
संबंध@@ 7187
दि 7186
चरण 7184
ील 7176
हाल 7172
आयोजित 7169
सके 7166
तरी@@ 7154
अग@@ 7152
कम@@ 7148
रतियो@@ 7138
वेश 7124
हाथ 7124
गीत 7123
चारों 7121
रती@@ 7118
नग@@ 7109
परा@@ 7105
आग@@ 7104
नुष 7099
ऊर 7083
जब@@ 7081
समि@@ 7079
वायु 7075
मदद 7067
ौ 7067
रेलिया 7065
एशिया 7040
थो@@ 7040
मही@@ 7040
थे@@ 7038
बौद 7038
जिसने 7025
लादेश 7009
टार 7004
बनाए 6997
टर@@ 6990
गुप 6985
दिखा@@ 6985
इनका 6980
दिखाई 6977
झा@@ 6972
बता@@ 6970
विवाह 6957
धारा 6956
तियाँ 6953
घं@@ 6951
2018 6947
टो 6945
जग@@ 6941
18 6939
ऊ 6926
आम@@ 6914
2019 6909
योगि@@ 6908
अध@@ 6892
पीय 6891
थात 6884
बाल 6884
थर 6881
अका@@ 6877
जाए 6872
टम 6869
मारी 6864
टेन 6863
आती 6844
शह@@ 6841
आया 6839
तल 6809
2009 6808
भावना 6808
1@@ 6806
नामेंट 6802
हेतु 6800
धांत 6783
20@@ 6781
एल@@ 6781
ारी@@ 6778
मत@@ 6775
लास 6772
विष@@ 6768
रखने 6758
याय 6752
गन 6747
तुम 6745
आलो@@ 6734
बताया 6731
ारण 6727
सामने 6726
अंतरराष 6723
गू@@ 6722
लस 6722
घ 6721
शील 6721
25 6636
T@@ 6634
नू@@ 6610
50 6608
रू 6606
B@@ 6605
13@@ 6602
‌ 6472
14 6426
किस 6390
16 6370
राजनी@@ 6360
E@@ 6306
D@@ 6213
I@@ 6203
A@@ 6181
2006 6176
भि@@ 6056
ूल 5960
हां 5937
17 5913
हिं@@ 5905
,000 5898
शित 5893
0@@ 5862
21 5842
2010 5781
तै@@ 5758
ौद 5709
14@@ 5649
? 5648
13 5570
G@@ 5558
R@@ 5515
शिया 5474
M 5414
12@@ 5309
दिर 5251
i 5250
2014 5200
2011 5186
L@@ 5184
2016 5180
I 5180
_ 5139
2017 5138
लाई 5137
िये 5116
लग 5067
2005 5064
and 5060
ंश 5052
पहु@@ 5041
टक 5022
24 4989
in 4986
सरे 4940
छ 4935
अंतर@@ 4929
+ 4910
22 4856
कंप@@ 4841
1.@@ 4839
h@@ 4839
2012 4798
शिष 4778
पुरु@@ 4768
2000 4720
झ 4700
18@@ 4699
परी@@ 4692
100 4686
गठन 4671
00@@ 4638
2020 4629
माल 4592
ारित 4570
40 4566
F@@ 4556
O@@ 4551
भाव@@ 4505
23 4477
2015 4443
ताब 4420
2004 4379
रत@@ 4379
वय@@ 4368
भा 4367
s 4359
26 4352
खण 4320
2013 4234
कित 4226
कहा@@ 4196
2021 4176
सित 4168
समू@@ 4109
योज@@ 4097
“ 4067
28 4064
$ 4061
27 4006
W@@ 3979
ै 3966
” 3966
A 3939
हाला@@ 3935
K@@ 3920
V@@ 3905
2.@@ 3895
ः@@ 3891
​ 3886
2003 3756
p@@ 3724
2002 3709
2001 3708
इ 3703
लना 3616
1990 3609
60 3595
अति@@ 3581
राजन@@ 3546
E 3443
T 3442
रणा@@ 3404
to 3357
29 3346
... 3332
y@@ 3323
1,@@ 3294
भूमि@@ 3265
विवा@@ 3240
31 3220
C 3212
D 3184
ंकि 3154
t@@ 3146
भग@@ 3143
२०@@ 3126
1980 3102
80 3085
1999 3068
॥ 3045
k@@ 3019
S 3006
b@@ 2993
0.@@ 2970
w@@ 2955
दृ@@ 2946
कास 2933
19@@ 2919
1998 2908
ङ 2885
formula 2874
is 2874
U@@ 2862
3.@@ 2855
g 2851
x 2827
70 2826
वरी 2815
c@@ 2796
इतिहा@@ 2792
s@@ 2767
गाँ@@ 2758
200 2754
m@@ 2742
L 2736
i@@ 2729
° 2706
P 2666
ا@@ 2664
जिक 2655
1996 2643
o 2641
लेज 2636
अमेरि@@ 2621
n@@ 2606
नाव 2581
O 2579
1970 2564
ar 2559
J@@ 2557
35 2528
09 2527
d@@ 2522
1997 2519
500 2518
b 2509
B 2497
a@@ 2469
शुरु@@ 2467
j@@ 2456
on 2443
The 2442
30@@ 2441
or 2425
90 2411
25@@ 2409
al@@ 2398
al 2384
अ 2381
g@@ 2379
1992 2370
45 2370
— 2351
v@@ 2348
1994 2329
1960 2311
गणना 2306
p 2304
or@@ 2302
1991 2291
an 2280
1995 2273
1993 2260
R 2255
N 2253
4.@@ 2222
F 2220
000 2213
an@@ 2211
ar@@ 2184
मद@@ 2174
ृंखला 2109
Z@@ 2107
अला@@ 2100
एव@@ 2097
उ 2094
l 2086
32 2079
तह@@ 2070
ऍ@@ 2065
tt@@ 2063
n 2055
y 2043
amp 2026
e@@ 2006
o@@ 2003
75 2000
d 1958
u 1958
in@@ 1954
1989 1950
ation 1924
1950 1922
00 1919
H 1903
th@@ 1893
महि@@ 1874
1947 1831
X@@ 1826
m 1823
7.@@ 1821
1986 1819
2,@@ 1814
36 1810
5.@@ 1804
as 1798
1988 1794
33 1789
तक@@ 1789
1984 1774
c 1766
6.@@ 1749
65 1749
us 1740
* 1725
G 1722
1985 1707
h 1705
योजित 1700
AM 1697
br 1690
• 1687
e 1683
1987 1665
मि 1664
ch@@ 1658
55 1657
1962 1656
1971 1655
50@@ 1642
1972 1627
1967 1625
47 1623
ंने 1623
शरी@@ 1623
ing 1616
X 1612
t 1612
37 1605
1952 1604
34 1582
V 1582
उदाह@@ 1572
re@@ 1571
तिम 1571
# 1564
300 1564
Y@@ 1558
38 1545
ap@@ 1544
64 1543
l@@ 1536
8.@@ 1531
ل@@ 1527
48 1517
1977 1513
1982 1513
मता 1509
es 1507
f@@ 1503
am@@ 1501
II 1498
ॆ@@ 1495
40@@ 1494
9.@@ 1493
ऐ 1482
as@@ 1470
ag@@ 1463
de 1460
0,000 1457
ic 1457
ad@@ 1455
1975 1444
x@@ 1444
52 1442
.. 1439
42 1433
1973 1420
1979 1419
1948 1411
it@@ 1405
r@@ 1405
44 1400
तिहा@@ 1398
1930 1391
1983 1389
1956 1388
us@@ 1385
1957 1371
for 1368
43 1359
99 1347
रथ@@ 1338
er@@ 1334
ृ 1333
ps 1331
1978 1325
at 1323
at@@ 1323
1965 1322
1981 1318
विशे@@ 1317
di@@ 1313
39 1312
1976 1310
51 1309
W 1308
400 1299
56 1298
3,@@ 1293
95 1292
u@@ 1290
1969 1288
1974 1288
am 1277
183@@ 1261
05 1257
07 1255
खिला@@ 1254
ळ@@ 1254
IS@@ 1240
अथ@@ 1238
en@@ 1236
85 1232
41 1230
ro@@ 1226
08 1225
53 1224
um 1224
k 1222
er 1218
68 1212
हाँ 1212
.com 1210
op@@ 1205
.A. 1199
46 1198
م@@ 1196
by 1193
06 1190
U 1188
1920 1185
1000 1184
en 1182
1968 1177
on@@ 1176
उदा@@ 1174
1964 1173
1966 1166
66 1161
Ch@@ 1157
72 1155
अधिका@@ 1139
61 1136
62 1136
49 1135
04 1131
r 1130
180@@ 1129
54 1127
le 1119
58 1115
st@@ 1106
88 1105
86 1098
iv@@ 1095
01 1093
1940 1090
63 1085
57 1081
150 1080
1961 1072
ia 1070
ॆ 1069
that 1064
1963 1062
ac@@ 1057
अमे@@ 1047
ra@@ 1042
ed 1041
4,@@ 1033
ul@@ 1032
1955 1031
um@@ 1028
आधु@@ 1024
ङ@@ 1022
1949 1012
67 1012
is@@ 1011
et@@ 1009
ab@@ 1007
78 1006
98 1006
71 1003
K 1002
ر@@ 1002
ak@@ 1001
om@@ 999
1945 998
est@@ 992
em@@ 991
un@@ 990
77 988
03 981
1954 980
os@@ 977
1946 973
96 964
600 962
III 961
el@@ 961
ur@@ 961
76 955
de@@ 955
ph@@ 954
1958 950
02 948
73 948
59 947
are 944
ॊ@@ 944
1951 940
e.@@ 939
ur 937
1959 932
5,@@ 931
84 926
74 921
ik@@ 918
Q@@ 913
par@@ 912
87 911
178@@ 908
92 907
we@@ 904
69 901
es@@ 899
with 897
97 896
ine 896
179@@ 895
81 890
was 889
ate 887
82 886
83 886
6,@@ 874
li@@ 874
IV 873
ic@@ 872
arch@@ 871
ot@@ 870
11@@ 864
it 864
1857 858
1942 855
In@@ 850
WW@@ 850
800 845
1953 836
2022 834
89 831
94 831
91 827
ب@@ 827
कुमा@@ 820
oc@@ 816
و@@ 814
f 809
7,@@ 808
ref 808
ww@@ 806
93 805
ment 802
ha@@ 799
24@@ 798
1936 795
le@@ 792
ay@@ 789
be 782
79 780
AS@@ 779
ah@@ 779
com@@ 775
v 773
1939 768
ृंख@@ 766
ang@@ 764
CO@@ 759
1941 748
il@@ 748
1937 746
8,@@ 746
web@@ 746
An@@ 744
Y 744
one 744
ity 742
z@@ 741
1900 739
from 739
1919 737
250 736
ns 734
US 731
1932 725
CA@@ 725
Z 721
con@@ 721
ol@@ 720
टिश 719
ri@@ 713
sh@@ 712
200@@ 709
tim@@ 709
et 708
177@@ 707
120 706
se@@ 703
सामा@@ 703
Sh@@ 701
im@@ 701
ec@@ 698
ern@@ 697
{ 697
ن@@ 694
धानी 692
ra 687
700 683
ame 682
enti@@ 680
া@@ 679
1928 676
si@@ 675
ir@@ 673
1931 667
‎ 666
1,000 661
ut@@ 661
ers 660
1935 658
model 658
ed@@ 657
201@@ 655
1934 653
£ 653
ology 652
1921 650
} 650
1924 649
av@@ 648
ॅ 648
1918 647
1944 647
hi@@ 644
and@@ 643
1938 642
9,@@ 642
ce 642
ي@@ 639
ya 638
س@@ 632
contribut@@ 629
184@@ 628
ن 628
TV 627
पहा@@ 626
National 624
а@@ 618
j 617
5,000 616
1943 608
1912 607
`@@ 607
format 607
विक@@ 602
₹ 599
ti@@ 597
1922 595
1929 595
qu@@ 595
ath@@ 593
OS 591
− 588
1933 587
ch 587
1925 585
AT@@ 583
ॐ 582
1914 580
pur 579
au@@ 578
id@@ 576
og@@ 575
1917 574
India 574
ai 574
तिहासिक 574
St@@ 572
1926 571
ob@@ 569
о@@ 568
ary 567
ous 567
ad 561
Ro@@ 560
US@@ 560
Al@@ 559
mer@@ 558
ep@@ 557
Q 556
th 552
age 549
which 549
pl@@ 545
ism 543
Di@@ 542
ical 541
har@@ 540
1927 539
end@@ 539
Th@@ 535
ana 533
NA 531
id 530
od@@ 530
1908 528
per@@ 527
1910 526
· 525
ent 524
ov@@ 524
10.@@ 523
1905 518
1923 518
د@@ 517
sp@@ 516
× 516
1911 515
z 511
и@@ 511
सील 511
ations 506
mar@@ 506
his 505
ics 504
la 504
vi@@ 501
ent@@ 500
ex@@ 498
AT 496
Re@@ 496
1916 494
el 494
au 492
NE@@ 490
… 490
In 489
ऽ@@ 489
Ar@@ 487
DVD 487
ی@@ 487
Con@@ 486
ter@@ 486
बादी 486
IC@@ 482
co@@ 482
ig@@ 481
di 479
MS 478
ite 478
भग 477
ح@@ 473
IN@@ 472
ant 470
ع@@ 470
Windows 468
J 467
DA 466
att@@ 465
ile 462
ळ 462
ated 460
me 460
1915 459
1906 453
all@@ 453
dis@@ 453
1500 452
AR@@ 452
180 450
1901 450
Mar@@ 450
BS 444
CD@@ 444
NS@@ 443
iki 443
্ 443
able 442
0,@@ 441
tr@@ 441
е@@ 439
se 437
900 436
் 436
Par@@ 435
ign 435
he 434
NBC 433
1904 432
eb@@ 432
AL@@ 431
SO@@ 431
hy@@ 431
FI@@ 430
w 430
os 429
ci@@ 427
ing@@ 427
sc@@ 427
Man@@ 425
1896 424
1909 423
CH@@ 422
1913 421
ance 421
ma 421
ter 420
ud@@ 420
р@@ 420
Microsoft 419
130 417
AI@@ 417
ER@@ 416
have 416
RA@@ 413
pro@@ 413
UK 411
घोष@@ 409
་ 409
AC 408
Ph@@ 408
its 408
н@@ 408
1907 407
ge@@ 407
विधान@@ 407
110 405
ach@@ 404
dian 403
PA 402
CI@@ 400
not 398
ons 398
ve 398
has 397
د 397
q 396
up 396
1890 395
3000 395
eg@@ 395
po@@ 394
ā@@ 393
no@@ 391
amp@@ 390
ran@@ 390
ae 387
man@@ 386
Cl@@ 383
किलो@@ 383
с@@ 382
Sam@@ 381
car@@ 381
center 381
hi 381
MA 380
AC@@ 379
ati@@ 379
log@@ 378
ts 378
also 377
ant@@ 376
lo@@ 376
text 376
1902 374
ast@@ 374
ऊँ 373
ST@@ 370
AN@@ 369
name 369
ne@@ 369
oph@@ 367
CD 366
ma@@ 366
man 366
war@@ 366
Indian 365
les 365
ric@@ 365
ot 364
ha 363
ish@@ 363
ka 363
1880 361
all 361
AM@@ 359
be@@ 356
codi@@ 356
col@@ 356
oo@@ 356
ऱ 356
AS 354
Am@@ 354
ho@@ 354
SP@@ 352
ial 351
yl@@ 351
elec@@ 350
ting 350
1800 349
1899 349
Pro@@ 349
BM@@ 348
ai@@ 348
ou@@ 348
ंख@@ 348
aw@@ 347
sub@@ 346
inter@@ 345
é@@ 345
л@@ 345
vision 344
SE@@ 343
der 343
bi@@ 342
pe@@ 342
this 342
SC 341
ory 341
up@@ 341
ة 341
Ex@@ 340
als 339
ت@@ 339
1895 338
ore 338
ˈ@@ 338
α 338
1903 337
AP 337
Bar@@ 337
ative 337
ر 337
ure 334
1860 333
az@@ 333
ind@@ 333
sk@@ 333
1898 332
Highway 332
tu@@ 332
1858 330
ext 330
ani 329
ata 329
la@@ 329
IT 328
ke 328
1889 327
ari@@ 327
1870 326
can 326
tri@@ 326
AD@@ 325
ug@@ 325
aj@@ 324
ence 324
ge 324
1885 322
Co@@ 322
DC 322
ill@@ 322
1891 321
ip@@ 321
ry 321
ver@@ 321
² 321
1887 320
q@@ 320
sion 320
Bo@@ 319
ator 319
than 318
AN 317
te@@ 317
র@@ 317
BC 316
FC 316
su@@ 316
Car@@ 315
ay 315
ang 313
mo@@ 313
AP@@ 312
right 312
ub@@ 312
LA 311
DP 310
ی 310
1897 309
Per@@ 308
River 308
to@@ 307
Sp@@ 306
UN@@ 306
system 306
हिए 306
1894 305
he@@ 305
met@@ 304
na 304
Qu@@ 303
il 303
1888 301
ash@@ 301
tro@@ 301
ian 300
ব@@ 300
CA 299
ak 299
mon@@ 299
ج@@ 299
da 298
re 298
1882 297
ari 297
atic 297
des 297
ist 297
ـ@@ 297
gle 296
tion 296
DNA 295
Hz 295
MP@@ 295
comp@@ 295
En@@ 294
gl@@ 293
1886 291
SC@@ 291
Un@@ 291
ok@@ 290
ol 290
As 289
RE@@ 289
к@@ 289
ans 288
Ac@@ 287
Si@@ 287
ium 287
rac@@ 287
1892 286
ens 286
sis 286
\ 285
ru@@ 285
CP@@ 284
Sc@@ 284
time 284
1893 283
tra@@ 283
PC 282
ass@@ 282
ev@@ 282
ow@@ 282
в@@ 282
der@@ 281
gh@@ 281
ি@@ 281
ah 279
fl@@ 279
their 279
CE 278
U.S. 278
ating 278
iz@@ 278
TA 277
ates 277
ο@@ 277
Ab@@ 276
Su@@ 276
hal@@ 276
CE@@ 275
DS 275
Ne@@ 275
^ 275
war 274
1884 273
te 273
two 273
IC 272
Mah@@ 272
gen@@ 272
ش@@ 271
Ad@@ 270
α@@ 270
ii 269
ॠ@@ 269
FA 267
ara 266
equ@@ 266
du@@ 265
had 265
ion 265
ly 265
more 265
~ 265
km 264
AA 263
Institute 263
т@@ 263
ऎ@@ 263
CS@@ 262
ell@@ 262
1850 261
1881 261
Raj@@ 261
bu@@ 261
lin@@ 261
Goo@@ 260
م 260
IB@@ 259
Pal@@ 259
gar@@ 259
pre@@ 259
were 258
ه@@ 258
1867 257
fi@@ 257
her@@ 257
.-@@ 256
De@@ 256
SA 256
yn@@ 255
190@@ 254
uk@@ 254
ς 254
് 254
IM@@ 253
aya 253
ene 253
1872 252
1876 252
gu@@ 252
Inter@@ 251
first 251
ili@@ 251
ist@@ 251
number 251
yp@@ 251
Ma@@ 250
VI 250
br@@ 250
but 250
est 250
other 250
ta 250
1883 249
RO@@ 249
ell 249
if@@ 248
IT@@ 247
Me@@ 247
asi@@ 247
ies 247
ann@@ 246
Gu@@ 245
→ 245
Com@@ 244
This 244
World 244
cor@@ 244
ie 244
1848 243
1878 243
cul@@ 243
ding 243
ton 243
Hy@@ 242
bar@@ 242
ings 242
Mon@@ 241
been 241
lu@@ 241
res@@ 241
sol@@ 241
It 240
und@@ 240
zo@@ 240
ম@@ 240
1871 238
eh@@ 238
mat@@ 238
mp@@ 238
ي 238
Cor@@ 237
ف@@ 237
1865 236
TC 236
hr@@ 236
ung 236
ens@@ 235
औ 235
IP 234
Pl@@ 234
ors 234
€ 234
University 232
gra@@ 232
1868 231
International 231
Kh@@ 231
XX@@ 231
ق@@ 231
1861 230
1875 229
dro@@ 229
ted 229
used 229
1873 228
ala 228
1877 227
app@@ 227
ei@@ 227
Le@@ 226
ank@@ 226
్ 226
Bh@@ 225
anc@@ 225
App@@ 224
ale 224
law 224
pr@@ 224
Bi@@ 223
Har@@ 223
over 223
Kar@@ 222
min@@ 222
ক@@ 222
BA 221
GB 221
Te@@ 221
ir 221
1879 220
Be@@ 220
CC 220
ty 220
ain 219
em 219
gr@@ 219
ina 219
use 219
ه 219
್ 219
1856 218
NS 218
San@@ 218
poem 218
ual 218
ung@@ 218
vol@@ 218
who 218
ল@@ 218
1859 217
bit 217
ction 217
ρ@@ 217
1830 216
Se@@ 216
Tra@@ 216
bl@@ 216
que 216
tive 216
1840 215
Kal@@ 215
ard 215
Elec@@ 214
ue 214
EC 213
NO@@ 213
Tri@@ 213
ess 213
ong 213
pol@@ 213
َ@@ 213
1866 212
My@@ 212
cs 212
Nag@@ 211
ain@@ 211
amb@@ 211
des@@ 211
ne 211
om 211
ular 211
af@@ 210
1863 209
function 209
ise 208
AD 207
SS 207
ase 207
ber@@ 207
ino 207
west 207
ym@@ 207
া 207
Pan@@ 206
Ser@@ 206
east 206
ki 206
pur@@ 206
ri 206
ization 205
per 205
ax@@ 204
dic@@ 204
psych@@ 204
radi@@ 204
ন 204
IS 203
no 203
amm@@ 202
ath 202
den@@ 202
ऱ@@ 202
॒ 202
1854 201
1874 201
We@@ 201
ih@@ 201
ition 201
Hind@@ 200
PS 200
ck@@ 200
ox@@ 200
span 200
me@@ 199
value 199
cl@@ 198
ological 198
son 198
type 198
BBC 197
Ge@@ 197
Mo@@ 197
ents 197
ide 197
sur@@ 197
uc@@ 197
é 197
μ@@ 197
1869 196
Res@@ 196
dia 196
do 196
@ 195
Cal@@ 195
ins 195
oh@@ 195
such 195
ا 195
Fe@@ 194
New 194
Or@@ 194
Sch@@ 194
form 194
parallel 194
tic 194
ə@@ 194
1815 193
AF@@ 193
land 193
ong@@ 193
He@@ 192
acc@@ 192
hai 192
our 192
bo@@ 191
cy@@ 191
ea 191
end 191
glas 191
line 191
str@@ 191
they 191
ু@@ 191
Lin@@ 190
Sar@@ 190
cre@@ 190
ks 190
ms 190
work 190
S.@@ 189
ally 189
lic@@ 189
ope 189
over@@ 189
tor 189
র 189
1864 188
cr@@ 188
duc@@ 188
han@@ 188
nam@@ 188
out 188
Bal@@ 187
English 187
ada 187
energy 187
ner 187
our@@ 187
st 187
He 186
bri@@ 186
ere 186
æ@@ 186
ali@@ 185
ement 185
into 185
li 185
set 185
β 185
ॄ@@ 185
Em@@ 184
ental 184
point 184
а 184
ل 184
1855 183
Mal@@ 183
Ram@@ 183
ation@@ 183
between 182
ear@@ 182
int@@ 182
ities 182
ora 182
pp@@ 182
spec@@ 182
ver 182
­ 182
خ@@ 182
ک@@ 182
ey 181
ram@@ 181
124@@ 180
ab 180
ational 180
á@@ 180
theory 179
Pr@@ 178
only 178
rec@@ 178
ula 178
Ap@@ 177
circ@@ 177
ck 177
д@@ 177
Mad@@ 176
alism 176
ency 176
for@@ 176
ish 176
Pra@@ 175
ail 175
ber 175
ek@@ 175
language 175
por@@ 175
so 175
where 175
IR@@ 174
Sal@@ 174
ane 174
fin@@ 174
ric 174
wa 174
ز@@ 174
1851 173
Po@@ 173
ose 173
ι@@ 173
ে@@ 173
ality 172
most 172
vis@@ 172
ː@@ 172
1845 171
DR 171
John 171
aceae 171
ali 171
cal 171
left 171
ɪ@@ 171
1853 170
ess@@ 170
iti@@ 170
power 170
trans@@ 170
τ@@ 170
COVID 169
adi@@ 169
edi@@ 169
ists 169
languages 169
net@@ 169
state 169
Dis@@ 168
El@@ 168
` 168
gi@@ 168
rom@@ 168
ster 168
DE@@ 167
tions 167
Gra@@ 166
Na@@ 166
OR@@ 166
You@@ 166
ac 166
ly@@ 166
tic@@ 166
und 166
fer@@ 165
out@@ 165
will 165
For@@ 164
Li@@ 164
SV 164
cal@@ 164
if 164
у@@ 164
স@@ 164
ds 163
ura 163
cur@@ 162
king 162
ك@@ 162
Col@@ 161
SS@@ 161
United 161
ets 161
vo@@ 161
॑ 161
দ@@ 161
A.@@ 160
Open 160
Ter@@ 160
ability 160
her 160
m2 160
Ed@@ 159
oid 159
vari@@ 159
On 158
ca 158
life 158
ro 158
rot@@ 158
ו@@ 158
Comp@@ 157
GA 157
Sur@@ 157
esh@@ 157
ice 157
ther@@ 157
λ@@ 157
Mag@@ 156
Op@@ 156
body 156
current 156
eng@@ 156
imp@@ 156
itude 156
wal@@ 156
water 156
well 156
π 156
ி@@ 156
Gar@@ 155
may 155
ram 155
ys 155
́ 155
1847 154
Arch@@ 154
Kan@@ 154
air 154
ome 154
ori@@ 154
USA 153
Ver@@ 153
ble 153
den 153
itis 153
when 153
ா@@ 153
1862 152
Im@@ 152
inc@@ 152
ji 152
omet@@ 152
ser@@ 152
some 152
ন@@ 152
oli@@ 151
series 151
ten@@ 151
world 151
ऽ 151
The@@ 150
To@@ 150
any 150
light 150
Hu@@ 149
ME@@ 149
Mor@@ 149
UC@@ 149
aur@@ 149
fe@@ 149
ft 149
rit@@ 149
ν@@ 149
м@@ 149
י@@ 149
CEO 148
pal@@ 148
ste@@ 148
ε@@ 148
ص@@ 148
Tube 147
art@@ 147
him 147
ica 147
kh@@ 147
ration 147
Mac@@ 146
ature 146
esia 146
etic 146
force 146
hat@@ 146
ley 146
mi 146
od 146
ony 146
style 146
ت 146
় 146
】 146
1849 145
PC@@ 145
Pe@@ 145
Sa@@ 145
ace 145
ati 145
lat@@ 145
va 145
أ@@ 145
Al 144
Mer@@ 144
Rh@@ 144
abad 144
after 144
differ@@ 144
field 144
itive 144
och@@ 144
ren@@ 144
tical 144
we 144
【 144
Cap@@ 143
South 143
fac@@ 143
int 143
kar@@ 143
mm 143
syn@@ 143
б@@ 143
ত@@ 143
க@@ 143
Bl@@ 142
Research 142
anti@@ 142
ash 142
tur@@ 142
un 142
American 141
System 141
Wor@@ 141
data 141
dr@@ 141
many 141
ography 141
order 141
ऩ@@ 141
Ak@@ 140
LE@@ 140
mag@@ 140
magnet@@ 140
sa 140
σ@@ 140
ా@@ 140
199@@ 139
Pre@@ 139
Vis@@ 139
adi 139
do@@ 139
ler 139
peri@@ 139
Az@@ 138
UEFA 138
eter 138
flu@@ 138
form@@ 138
inf@@ 138
ling 138
shi@@ 138
AG 137
ax 137
ib@@ 137
net 137
non 137
same 137
´ 137
κ@@ 137
AF 136
For 136
els 136
ena 136
ff@@ 136
ick@@ 136
im 136
ute 136
ī@@ 136
change 135
mod@@ 135
title 135
ர@@ 135
Act 134
First 134
MP 134
Vi@@ 134
atory 134
mass 134
tor@@ 134
ts@@ 134
Bra@@ 133
about 133
wid@@ 133
য 133
1846 132
ABC 132
Mc@@ 132
Mi@@ 132
assi@@ 132
gen 132
ort 132
pat@@ 132
ো@@ 132
At@@ 131
Del@@ 131
SR 131
angle 131
ow 131
so@@ 131
stant 131
tel@@ 131
॓ 131
Group 130
ness 130
ster@@ 130
й 130
Mot@@ 129
era 129
onom@@ 129
ote 129
oy@@ 129
sm@@ 129
sy@@ 129
yst@@ 129
Gen@@ 128
La 128
Lee 128
NAS@@ 128
color 128
day 128
gan@@ 128
ging 128
idae 128
ker 128
mal@@ 128
oun@@ 128
people 128
tiv@@ 128
based 127
du 127
integ@@ 127
ion@@ 127
through 127
RT@@ 126
electric 126
put 126
tion@@ 126
ution 126
way 126
wor@@ 126
Cy@@ 125
Fl@@ 125
Gi@@ 125
Mas@@ 125
called 125
def@@ 125
proc@@ 125
sin@@ 125
three 125
ye 125
Ag@@ 124
Is@@ 124
Technology 124
War@@ 124
ants 124
ever 124
inn@@ 124
known 124
oll@@ 124
pri@@ 124
ynasty 124
è@@ 124
í@@ 124
и 124
Her@@ 123
Ho@@ 123
Prot@@ 123
Sah@@ 123
hol@@ 123
io 123
like 123
ond@@ 123
process 123
second 123
º 123
و 123
CS 122
Can@@ 122
Met@@ 122
back 122
eth@@ 122
micro@@ 122
pra@@ 122
there 122
would 122
1852 121
Sol@@ 121
ages 121
ass 121
cri@@ 121
hu@@ 121
onal 121
ov 121
quant@@ 121
red 121
sw@@ 121
Bu@@ 120
Hol@@ 120
Min@@ 120
NG@@ 120
ake 120
bre@@ 120
das 120
each 120
ear 120
exp@@ 120
ids 120
itt@@ 120
ock 120
ola 120
phot@@ 120
ying 120
Pakistan 119
Singh 119
Tar@@ 119
cat@@ 119
ential 119
ich@@ 119
iss@@ 119
ital 119
prot@@ 119
uit 119
ut 119
′ 119
Des@@ 118
La@@ 118
Rec@@ 118
Val@@ 118
film 118
ie@@ 118
ited 118
ode 118
rit 118
umb@@ 118
½ 118
Indi@@ 117
Pri@@ 117
San 117
ama 117
ap 117
bin@@ 117
ks@@ 117
ron 117
ب 117
த@@ 117
An 116
Chi@@ 116
Corporation 116
Dev@@ 116
Nar@@ 116
No@@ 116
Shi@@ 116
ae@@ 116
del 116
lan@@ 116
mor@@ 116
new 116
ogn@@ 116
ott@@ 116
partic@@ 116
ñ@@ 116
ర@@ 116
Fac@@ 115
cer@@ 115
ission 115
less 115
rem@@ 115
ture 115
ument 115
် 115
RC 114
Sk@@ 114
Ur@@ 114
atom@@ 114
comm@@ 114
da@@ 114
ely 114
enn@@ 114
tal@@ 114
ulation 114
г@@ 114
আ@@ 114
Br@@ 113
Char@@ 113
Gl@@ 113
Pat@@ 113
Ra@@ 113
Vol@@ 113
both 113
cap@@ 113
com 113
distance 113
during 113
ee 113
ey@@ 113
fo@@ 113
ier 113
ire 113
old 113
ood 113
res 113
ush@@ 113
প@@ 113
BI 112
Fin@@ 112
State 112
Sub@@ 112
common 112
ja 112
lab@@ 112
low 112
super@@ 112
Inc. 111
Ti@@ 111
ases 111
co 111
oo 111
rop@@ 111
these 111
DV@@ 110
VI@@ 110
cip@@ 110
ill 110
then 110
ó@@ 110
پ@@ 110
Last 109
M. 109
ML@@ 109
asp@@ 109
ateg@@ 109
ella 109
fil@@ 109
hin@@ 109
hor@@ 109
ix 109
pos@@ 109
rel@@ 109
sch@@ 109
stra@@ 109
ux 109
ר@@ 109
● 109
As@@ 108
Au@@ 108
Av@@ 108
Ban@@ 108
Long@@ 108
complex 108
eral 108
indi@@ 108
led 108
method 108
news 108
ones 108
ph 108
rh@@ 108
tran@@ 108
under 108
vir@@ 108
Cat@@ 107
Techn@@ 107
air@@ 107
boo@@ 107
ces 107
dec@@ 107
include 107
let 107
ota 107
ven@@ 107
year 107
π@@ 107
σ 107
Ca@@ 106
Da@@ 106
Er@@ 106
Temple 106
code 106
det@@ 106
enz@@ 106
± 106
ு@@ 106
Ber@@ 105
Bor@@ 105
Bur@@ 105
Fre@@ 105
States 105
gener@@ 105
imm@@ 105
ita 105
public@@ 105
rate 105
ves 105
জ@@ 105
College 104
Khan 104
One 104
acy 104
alp@@ 104
coun@@ 104
ga 104
loc@@ 104
my@@ 104
ner@@ 104
ole 104
sor@@ 104
using 104
ہ 104
হ@@ 104
ಾ@@ 104
Ben@@ 103
Ke@@ 103
Ob@@ 103
Sud@@ 103
ales 103
dae 103
ines 103
lob@@ 103
wave 103
years 103
� 103
E. 102
Hor@@ 102
Ig@@ 102
LP 102
North 102
Sy@@ 102
bra@@ 102
kn@@ 102
mer 102
my 102
period 102
physi@@ 102
south 102
sym@@ 102
ō@@ 102
ਾ@@ 102
Do@@ 101
Lim@@ 101
Tal@@ 101
Wh@@ 101
area 101
can@@ 101
chem@@ 101
high 101
north 101
numbers 101
oth@@ 101
ust@@ 101
ys@@ 101
ط@@ 101
￼ 101
Association 100
Gal@@ 100
J. 100
Tr@@ 100
act 100
box 100
cent@@ 100
ery 100
ni 100
ray 100
ua 100
ν 100
ാ@@ 100
By 99
Central 99
Kr@@ 99
action 99
dex 99
jec@@ 99
off 99
ogen@@ 99
ral 99
reg@@ 99
É@@ 99
ό@@ 99
о 99
All 98
Cro@@ 98
Go@@ 98
Ni@@ 98
aka 98
aus@@ 98
char@@ 98
dar 98
duction 98
ett@@ 98
han 98
ici@@ 98
ments 98
rical 98
192@@ 97
Cent@@ 97
HC 97
Ha@@ 97
NR@@ 97
Society 97
Tel@@ 97
ats 97
ba 97
bon 97
emp@@ 97
meas@@ 97
mot@@ 97
olog@@ 97
rat@@ 97
ron@@ 97
side 97
unit 97
ί@@ 97
θ 97
0s 96
193@@ 96
Co 96
Comm@@ 96
EP 96
Psych@@ 96
ail@@ 96
aria 96
asa 96
ges 96
gre@@ 96
list 96
oda 96
odi@@ 96
oper@@ 96
them 96
vel@@ 96
Far@@ 95
So@@ 95
esh 95
heat 95
ke@@ 95
minor 95
therap@@ 95
tw@@ 95
ம@@ 95
195@@ 94
Red@@ 94
School 94
Sha@@ 94
T. 94
ach 94
ini 94
ites 94
ive 94
lig@@ 94
neur@@ 94
osph@@ 94
pan@@ 94
pressure 94
rati@@ 94
resi@@ 94
si 94
sts 94
tha 94
ti 94
under@@ 94
گ@@ 94
ہ@@ 94
ల@@ 94
ರ@@ 94
Cr@@ 93
art 93
cell 93
dh@@ 93
dig@@ 93
gro@@ 93
ized 93
ko 93
lor@@ 93
made 93
mi@@ 93
of@@ 93
organ@@ 93
sec@@ 93
systems 93
trac@@ 93
une 93
γ 93
Council 92
Development 92
Great 92
Kum@@ 92
New@@ 92
Pol@@ 92
Pur@@ 92
R. 92
Reg@@ 92
Social 92
Tran@@ 92
Wi@@ 92
go@@ 92
ination 92
ject 92
mal 92
ories 92
tel 92
top 92
wh@@ 92
« 92
н 92
1st 91
Bas@@ 91
EU 91
S. 91
Tit@@ 91
William 91
act@@ 91
acter@@ 91
book 91
district 91
eter@@ 91
ger 91
hab@@ 91
key 91
men 91
osa 91
poly@@ 91
ters 91
β@@ 91
Bel@@ 90
Company 90
FIFA 90
acid 90
go 90
igh@@ 90
istic 90
oma 90
pet@@ 90
pi@@ 90
section 90
val@@ 90
â@@ 90
ऋ 90
Cur@@ 89
Han@@ 89
Leg@@ 89
Mos@@ 89
Pun@@ 89
ade 89
alg@@ 89
anda 89
being 89
cli@@ 89
cop@@ 89
ded 89
dicine 89
eff@@ 89
lic 89
mechan@@ 89
place 89
sive 89
tre@@ 89
version 89
п@@ 89
ి@@ 89
B. 88
Dar@@ 88
Fi@@ 88
General 88
Ta@@ 88
bul@@ 88
bur@@ 88
dy 88
ect 88
esis 88
given 88
indic@@ 88
part 88
space 88
tors 88
uch@@ 88
verse 88
א@@ 88
ச@@ 88
ക@@ 88
C. 87
K. 87
Moh@@ 87
Ran@@ 87
Science 87
Wal@@ 87
West 87
ao 87
cu@@ 87
development 87
ean 87
ger@@ 87
group 87
gs@@ 87
ingu@@ 87
ius 87
mit 87
not@@ 87
plac@@ 87
product 87
self 87
sl@@ 87
ume 87
ী 87
ப@@ 87
196@@ 86
Ga@@ 86
London 86
Ri@@ 86
Shar@@ 86
company 86
ek 86
example 86
exc@@ 86
following 86
kal@@ 86
ook 86
ord@@ 86
spir@@ 86
ust 86
very 86
я 86
ऴ 86
ॊ 86
ા@@ 86
ར@@ 86
Chinese 85
Hel@@ 85
Is 85
Lo@@ 85
Lu@@ 85
Ret@@ 85
ack@@ 85
ag 85
ard@@ 85
are@@ 85
ato 85
city 85
class 85
dit 85
ema 85
ista 85
long@@ 85
ols 85
vers@@ 85
while 85
ç@@ 85
ِ@@ 85
ਸ@@ 85
194@@ 84
2nd 84
A. 84
Cha@@ 84
Det@@ 84
Dig@@ 84
Econom@@ 84
History 84
Jo@@ 84
Mand@@ 84
Year 84
effect 84
esc@@ 84
gas 84
ham 84
human 84
ight 84
lar@@ 84
sam@@ 84
the@@ 84
ubl@@ 84
ul 84
ump 84
Industri@@ 83
Mach@@ 83
Mur@@ 83
NBA 83
Union 83
edral 83
let@@ 83
nav@@ 83
now 83
onic 83
real 83
ref@@ 83
rol@@ 83
stor@@ 83
tag@@ 83
thro@@ 83
you 83
ы@@ 83
■ 83
.C. 82
Bre@@ 82
Dec@@ 82
East 82
Hon@@ 82
Langu@@ 82
Life 82
Net@@ 82
P. 82
aff@@ 82
anti 82
bor@@ 82
bro@@ 82
dar@@ 82
even 82
free 82
itation 82
kg 82
later 82
lus 82
ning 82
ona 82
phase 82
pres@@ 82
sal@@ 82
small 82
son@@ 82
udi@@ 82
ulture 82
à@@ 82
γ@@ 82
শ@@ 82
Ant@@ 81
Book 81
China 81
Kam@@ 81
Mu@@ 81
Ros@@ 81
Sim@@ 81
Ul@@ 81
cells 81
near 81
row 81
ship 81
stic 81
surface 81
tom@@ 81
ɛ@@ 81
δ@@ 81
দ 81
৷ 81
Air 80
Cer@@ 80
DF 80
Day 80
FM 80
Health 80
High 80
Law 80
Lt@@ 80
Pap@@ 80
Physi@@ 80
Tor@@ 80
Tur@@ 80
Yam@@ 80
ava 80
bal@@ 80
base 80
conduc@@ 80
dist@@ 80
ector 80
ences 80
ese 80
ete 80
ght 80
inal 80
lia 80
mu@@ 80
ort@@ 80
public 80
tional 80
umin@@ 80
yth@@ 80
ā 80
ਰ@@ 80
வ@@ 80
Dra@@ 79
Gr@@ 79
James 79
King 79
Nu@@ 79
Sw@@ 79
You 79
bs 79
ders 79
dra@@ 79
frequ@@ 79
here 79
lec@@ 79
lex@@ 79
long 79
nucle@@ 79
ots 79
pen@@ 79
rep@@ 79
sa@@ 79
sem@@ 79
table 79
ule 79
uti@@ 79
গ@@ 79
ര@@ 79
198@@ 78
Black 78
Cre@@ 78
Mes@@ 78
Music 78
Organ@@ 78
Pak@@ 78
Peri@@ 78
Por@@ 78
Pu@@ 78
Santa 78
ams 78
ask@@ 78
century 78
control 78
ep 78
functions 78
hydro@@ 78
ick 78
illa 78
ith 78
iv 78
je@@ 78
liz@@ 78
ni@@ 78
ond 78
science 78
sen 78
sing@@ 78
source 78
stan@@ 78
tit@@ 78
unn@@ 78
ਿ@@ 78
ി@@ 78
Bab@@ 77
Bah@@ 77
Boo@@ 77
Island 77
Jag@@ 77
Kingdom 77
Pres@@ 77
Sec@@ 77
ast 77
case 77
different 77
medi@@ 77
mit@@ 77
range 77
tes 77
test@@ 77
top@@ 77
vent@@ 77
ে 77
Cav@@ 76
Cu@@ 76
Equ@@ 76
H. 76
Je@@ 76
Ko@@ 76
Mel@@ 76
Rel@@ 76
Sat@@ 76
Station 76
Syn@@ 76
analysis 76
ave 76
cont@@ 76
don 76
ection 76
ef@@ 76
face 76
found 76
hel@@ 76
indu@@ 76
kl@@ 76
mac@@ 76
mem@@ 76
mom@@ 76
ont@@ 76
ost@@ 76
page 76
position 76
prop@@ 76
ree 76
sources 76
tage 76
temperature 76
آ@@ 76
ى 76
চ@@ 76
Ash@@ 75
Mak@@ 75
Pet@@ 75
Sm@@ 75
ables 75
ards 75
ars 75
atus 75
bar 75
down 75
ful 75
head 75
last 75
lie 75
ll 75
mel@@ 75
motion 75
pt 75
ress 75
run 75
» 75
ō 75
ū@@ 75
מ@@ 75
ང 75
At 74
Ba@@ 74
Bag@@ 74
Nap@@ 74
PD 74
Trans@@ 74
cycle 74
ions 74
oth 74
oul@@ 74
social 74
tra 74
ules 74
ə 74
ά@@ 74
С@@ 74
в 74
е 74
ऍ 74
ன 74
ు@@ 74
ོ@@ 74
Def@@ 73
Foundation 73
George 73
Gh@@ 73
Hi@@ 73
Nor@@ 73
Power 73
Soci@@ 73
To 73
aries 73
arm@@ 73
ators 73
family 73
hum@@ 73
ik 73
ild 73
ine@@ 73
ins@@ 73
ision 73
mathemati@@ 73
nel 73
ogra@@ 73
ok 73
orph@@ 73
ples 73
points 73
ret@@ 73
return 73
standard 73
stri@@ 73
tron@@ 73
utt@@ 73
word 73
zz@@ 73
ّ@@ 73
ী@@ 73
191@@ 72
Ep@@ 72
Mat@@ 72
Medical 72
Mil@@ 72
Prin@@ 72
Sir 72
ack 72
background 72
bran@@ 72
chi 72
hand@@ 72
idea 72
information 72
ised 72
isp@@ 72
itor 72
lim@@ 72
na@@ 72
region 72
wn 72
ysis 72
ি 72
ಿ@@ 72
Ann@@ 71
Auth@@ 71
Colle@@ 71
Cop@@ 71
D. 71
David 71
Fer@@ 71
Gang@@ 71
Pa@@ 71
Sab@@ 71
Space 71
Vo@@ 71
Wild@@ 71
ban@@ 71
del@@ 71
diag@@ 71
gn@@ 71
kan@@ 71
mm@@ 71
own 71
ring 71
tar@@ 71
thesis 71
uli@@ 71
una 71
var@@ 71
ئ@@ 71
ত 71
3rd 70
Centre 70
Ir@@ 70
Kat@@ 70
Robert 70
Ther@@ 70
Wik@@ 70
aph@@ 70
cial 70
ensis 70
ext@@ 70
fol@@ 70
identity 70
leg@@ 70
lock 70
num@@ 70
ordin@@ 70
river 70
single 70
ss@@ 70
those 70
Ama@@ 69
Bro@@ 69
District 69
Earth 69
Hal@@ 69
House 69
However 69
Information 69
Ly@@ 69
Man 69
N. 69
Sil@@ 69
Spec@@ 69
Var@@ 69
ano 69
ble@@ 69
bon@@ 69
dem@@ 69
diff@@ 69
hat 69
him@@ 69
level 69
mus@@ 69
reaction 69
star 69
ull 69
uses 69
х@@ 69
ה@@ 69
‚ 69
Gre@@ 68
Kon@@ 68
List 68
Mov@@ 68
No 68
Out@@ 68
Pen@@ 68
Ren@@ 68
See 68
Sel@@ 68
Tun@@ 68
Web@@ 68
emb@@ 68
fra@@ 68
fu@@ 68
ior 68
itar@@ 68
ori 68
rule 68
sel@@ 68
uk 68
য@@ 68
Cast@@ 67
City 67
Dr. 67
Ki@@ 67
Micro@@ 67
Oc@@ 67
Office 67
Park 67
Some 67
ater 67
avi@@ 67
before 67
che 67
doc@@ 67
due 67
elect@@ 67
empl@@ 67
ham@@ 67
ication 67
ls 67
mann 67
mil@@ 67
much 67
ority 67
properties 67
rich@@ 67
run@@ 67
sus 67
ush 67
wan 67
what 67
zi@@ 67
మ@@ 67
မ@@ 67
.S. 66
Aut@@ 66
Bad@@ 66
Basi@@ 66
Charles 66
England 66
Intel@@ 66
Lam@@ 66
Le 66
Loc@@ 66
On@@ 66
Tro@@ 66
Vir@@ 66
anth@@ 66
device 66
e.g. 66
ense 66
history 66
hom@@ 66
multi@@ 66
nor@@ 66
oil 66
ool 66
ē@@ 66
ч 66
س 66
Cam@@ 65
Live 65
Plan@@ 65
Pro 65
Service 65
She@@ 65
ace@@ 65
alis 65
aly@@ 65
ania 65
ession 65
gon 65
how 65
isher@@ 65
land@@ 65
lis 65
ney 65
oms 65
plan@@ 65
scale 65
she 65
ten 65
ump@@ 65
ville 65
zer@@ 65
า@@ 65
Ah@@ 64
Army 64
French 64
Gro@@ 64
Human 64
Ru@@ 64
Sav@@ 64
She 64
These 64
Wil@@ 64
ais@@ 64
ami 64
chemical 64
cin@@ 64
cycl@@ 64
defin@@ 64
eth 64
house 64
i.@@ 64
ida 64
ika 64
non@@ 64
oli 64
ologies 64
phen@@ 64
political 64
structure 64
true 64
ving 64
М@@ 64
ھ@@ 64
ऑ 64
ऩ 64
ৰ@@ 64
ಕ@@ 64
‏ 64
All@@ 63
Bet@@ 63
Code 63
Direc@@ 63
Global 63
Joseph 63
Lad@@ 63
Name 63
Network 63
Pi@@ 63
Republic 63
Sea 63
Ten@@ 63
above 63
bi 63
bus 63
charge 63
chron@@ 63
conver@@ 63
could 63
ein 63
ements 63
ering 63
factor 63
fal@@ 63
ged 63
get 63
ila 63
inv@@ 63
major 63
med@@ 63
music 63
negative 63
ough 63
ource 63
prin@@ 63
quar@@ 63
sson 63
tan@@ 63
test 63
wi@@ 63
ía 63
ב@@ 63
ל@@ 63
ল 63
ు 63
Center 62
Conc@@ 62
Coun@@ 62
Du@@ 62
His 62
Poly@@ 62
Road 62
Systems 62
Time 62
active 62
bert 62
cle 62
crete 62
cy 62
ford 62
four 62
issi@@ 62
large 62
lex 62
lo 62
ock@@ 62
often 62
prec@@ 62
result 62
see 62
stat@@ 62
ult@@ 62
yan 62
yl 62
za 62
zy@@ 62
і@@ 62
غ@@ 62
ُ@@ 62
ു@@ 62
Ass@@ 61
Dan@@ 61
Kn@@ 61
Natur@@ 61
Ori@@ 61
Red 61
There 61
ago 61
another 61
books 61
ce@@ 61
come 61
dead 61
dium 61
eva 61
ex 61
gam@@ 61
great 61
gs 61
hand 61
ide@@ 61
ington 61
kr@@ 61
main 61
mo 61
nam 61
osp@@ 61
otic 61
ou 61
positive 61
rest@@ 61
ror 61
scrip@@ 61
serv@@ 61
several 61
since 61
ulti@@ 61
village 61
ze 61
ī 61
ɑ@@ 61
η@@ 61
υ@@ 61
إ@@ 61
ి 61
― 61
De 60
European 60
Gor@@ 60
Government 60
Kur@@ 60
Me 60
Mus@@ 60
Sem@@ 60
Sum@@ 60
War 60
arg@@ 60
bol 60
dge 60
ended 60
enth@@ 60
fre@@ 60
government 60
home 60
ides 60
ig 60
international 60
istry 60
lam@@ 60
lines 60
media 60
ook@@ 60
ord 60
thus 60
total 60
works 60
К@@ 60
، 60
ض@@ 60
ऒ@@ 60
ੰ@@ 60
ం@@ 60
త@@ 60
7th 59
Bir@@ 59
Bud@@ 59
Chem@@ 59
Commission 59
Energy 59
Engineering 59
Ford 59
From 59
Fu@@ 59
G. 59
Gam@@ 59
Ker@@ 59
March 59
Nav@@ 59
Rep@@ 59
White 59
around 59
aut@@ 59
because 59
bes 59
bit@@ 59
country 59
early 59
ello 59
final 59
formation 59
frame 59
general 59
ically 59
inary 59
lied 59
liqu@@ 59
material 59
oning 59
ox 59
oy 59
plane 59
shar@@ 59
she@@ 59
ْ@@ 59
.D. 58
188@@ 58
4th 58
Aer@@ 58
Arm@@ 58
British 58
Hem@@ 58
Thomas 58
Tu@@ 58
ank 58
bel@@ 58
ented 58
eption 58
etes 58
expres@@ 58
fied 58
gal@@ 58
hur@@ 58
including 58
ishing 58
mark@@ 58
omb@@ 58
open 58
ption 58
sian 58
software 58
states 58
ton@@ 58
val 58
vin 58
xed 58
മ@@ 58
★ 58
6th 57
9th 57
America 57
Bang@@ 57
Education 57
June 57
Kor@@ 57
Media 57
Paul 57
Pot@@ 57
W. 57
berg 57
bility 57
dom@@ 57
dri@@ 57
elle 57
ems 57
entary 57
ert 57
hib@@ 57
instr@@ 57
jun@@ 57
kin@@ 57
must 57
natural 57
nuclear 57
obile 57
physical 57
rap@@ 57
research 57
ry@@ 57
should 57
stance 57
sted 57
sum 57
tures 57
won 57
ਨ@@ 57
ட@@ 57
ల 57
Airport 56
Alph@@ 56
Bil@@ 56
Force 56
Games 56
Gy@@ 56
Meth@@ 56
Play@@ 56
Public 56
ade@@ 56
against 56
asi 56
black 56
but@@ 56
conc@@ 56
continu@@ 56
cro@@ 56
cross 56
cut@@ 56
eme 56
ew@@ 56
far@@ 56
forces 56
illi@@ 56
industry 56
ker@@ 56
modern 56
onia 56
onlyinclude 56
post@@ 56
production 56
rated 56
search 56
sil@@ 56
sul@@ 56
ternal 56
uss@@ 56
van 56
without 56
ée 56
ʲ@@ 56
А@@ 56
з@@ 56
ਹ@@ 56
క@@ 56
ಮ@@ 56
.000 55
Bul@@ 55
Business 55
Dr@@ 55
Green 55
L. 55
Liber@@ 55
Maj@@ 55
Management 55
Mem@@ 55
My 55
Num@@ 55
Series 55
Sn@@ 55
Son@@ 55
Univers@@ 55
alist 55
alle@@ 55
ats@@ 55
bers 55
course 55
did 55
direct 55
disease 55
eda 55
education 55
eil@@ 55
ending 55
eng 55
ked 55
mean 55
potential 55
published 55
soli@@ 55
species 55
struc@@ 55
term 55
θ@@ 55
چ@@ 55
୍ 55
న@@ 55
བ@@ 55
August 54
Bay 54
Dur@@ 54
F. 54
If 54
Jam@@ 54
Long 54
Mathemati@@ 54
May@@ 54
Nam@@ 54
Pul@@ 54
Py@@ 54
Royal 54
Sci@@ 54
Super@@ 54
Tam@@ 54
Western 54
Wy@@ 54
actions 54
anz@@ 54
arc@@ 54
ays 54
bank 54
bet@@ 54
ches 54
ching 54
cia 54
cm 54
dur@@ 54
ela 54
erg@@ 54
forms 54
icient 54
ize 54
lock@@ 54
molec@@ 54
mut@@ 54
nature 54
nic@@ 54
olution 54
princip@@ 54
rach@@ 54
sat@@ 54
sid@@ 54
tif@@ 54
trum 54
ud 54
ures 54
wan@@ 54
win 54
wing 54
à 54
án 54
ε 54
В@@ 54
ক 54
ம 54
ல@@ 54
ས@@ 54
ṭ@@ 54
中@@ 54
8th 53
April 53
Ari@@ 53
Hum@@ 53
I. 53
Inf@@ 53
Jean 53
Kol@@ 53
Ku@@ 53
Middle 53
Mul@@ 53
Project 53
Records 53
Region 53
Ste@@ 53
V. 53
aps 53
back@@ 53
by@@ 53
expl@@ 53
gest@@ 53
inst@@ 53
jan 53
jo@@ 53
ju@@ 53
ood@@ 53
ower 53
property 53
ses 53
sing 53
stage 53
stone 53
stro@@ 53
tab@@ 53
team 53
terms 53
theor@@ 53
ther 53
ths 53
tin@@ 53
uments 53
view 53
von 53
wat@@ 53
women 53
ynam@@ 53
yr@@ 53
æ 53
ð 53
ö@@ 53
р 53
ָ@@ 53
ذ@@ 53
મ@@ 53
ய@@ 53
గ@@ 53
ನ@@ 53
197@@ 52
Academy 52
Bri@@ 52
Cel@@ 52
Court 52
Edward 52
Eur@@ 52
France 52
Integ@@ 52
Jan@@ 52
Lake 52
Other 52
Standard 52
Um@@ 52
Win@@ 52
ads 52
among 52
astic 52
atur@@ 52
ault 52
autom@@ 52
coordin@@ 52
ently 52
itic 52
off@@ 52
operation 52
oral 52
play 52
quality 52
ras@@ 52
rig@@ 52
rist@@ 52
said 52
support 52
technology 52
ultural 52
uz@@ 52
worth 52
¤ 52
§ 52
ð@@ 52
ں 52
ప@@ 52
ག@@ 52
″ 52
Agric@@ 51
Aqu@@ 51
Ele@@ 51
Environ@@ 51
Eth@@ 51
Gon@@ 51
Gur@@ 51
July 51
Kin@@ 51
Log@@ 51
Ped@@ 51
Phot@@ 51
Pic@@ 51
Tru@@ 51
UN 51
ans@@ 51
anus 51
average 51
awa 51
bed@@ 51
best 51
enk@@ 51
epi@@ 51
ique 51
issue 51
iting 51
make 51
metal 51
pap@@ 51
phone 51
present 51
sha@@ 51
sia 51
specific 51
Δ@@ 51
й@@ 51
ম 51
ਮ@@ 51
√ 51
▪ 51
大@@ 51
189@@ 50
5th 50
Acc@@ 50
Bank 50
Coll@@ 50
Ger@@ 50
Internet 50
Nic@@ 50
Od@@ 50
Sciences 50
Studies 50
Sul@@ 50
Super 50
cent 50
cle@@ 50
die 50
dimensi@@ 50
din 50
ech@@ 50
essing 50
features 50
ft@@ 50
fund@@ 50
fur@@ 50
hon@@ 50
ility 50
illu@@ 50
important 50
men@@ 50
mental 50
onent 50
sens@@ 50
sh 50
short 50
thes@@ 50
times 50
transl@@ 50
tual 50
ved 50
ô@@ 50
έ@@ 50
ز 50
ف 50
ধ@@ 50
ভ@@ 50
ವ@@ 50
Ali 49
Ay@@ 49
Canada 49
German 49
Land 49
October 49
Of 49
Old 49
Popul@@ 49
Rom@@ 49
Sin@@ 49
Star@@ 49
Statist@@ 49
Ven@@ 49
age@@ 49
computer 49
don@@ 49
double 49
dynam@@ 49
equal 49
ered 49
essi@@ 49
ez 49
fact 49
hau@@ 49
learning 49
lip@@ 49
meth@@ 49
mir@@ 49
mul@@ 49
phi@@ 49
ria 49
rif@@ 49
ril@@ 49
ros@@ 49
rus 49
sen@@ 49
square 49
stell@@ 49
study 49
sy 49
vit@@ 49
wa@@ 49
white 49
І 49
ь@@ 49
נ@@ 49
दूस@@ 49
ಿ 49
ು@@ 49
വ@@ 49
ร@@ 49
ས 49
း@@ 49
20th 48
Bak@@ 48
Board 48
By@@ 48
Cin@@ 48
Contro@@ 48
Dom@@ 48
Egypt 48
Henry 48
Jur@@ 48
Lar@@ 48
Mang@@ 48
Mich@@ 48
Mod@@ 48
Mun@@ 48
Pad@@ 48
Sun@@ 48
aga 48
aire 48
alb@@ 48
alli@@ 48
ancy 48
aves 48
bil@@ 48
cho@@ 48
cru@@ 48
dence 48
ern 48
ference 48
ff 48
geb@@ 48
half 48
ils 48
late 48
lica 48
matter 48
ming 48
ned 48
onents 48
oom 48
opp@@ 48
orial 48
otyp@@ 48
ris@@ 48
s. 48
third 48
values 48
vin@@ 48
wood 48
ω 48
ּ@@ 48
ੀ 48
ி 48
జ@@ 48
ိ@@ 48
ြ@@ 48
Ang@@ 47
DF@@ 47
January 47
Lab@@ 47
Louis 47
Os@@ 47
Pos@@ 47
Ray@@ 47
Som@@ 47
Test 47
Tre@@ 47
When 47
af 47
anced 47
aring 47
below 47
born 47
business 47
chi@@ 47
concent@@ 47
connec@@ 47
dor@@ 47
enc@@ 47
enth 47
eta 47
food 47
having 47
ising 47
kon@@ 47
mann@@ 47
mig@@ 47
ners 47
ographic 47
omen@@ 47
original 47
others 47
path@@ 47
pe 47
pul@@ 47
rau@@ 47
sea 47
size 47
sum@@ 47
take 47
tics 47
took 47
ural 47
utr@@ 47
vey 47
ze@@ 47
ón 47
ɔ@@ 47
ɡ@@ 47
ʁ@@ 47
Δ 47
י 47
ع 47
ོ 47
Ach@@ 46
After 46
Alt@@ 46
Asia 46
Brun@@ 46
Chap@@ 46
Dal@@ 46
Deb@@ 46
Dor@@ 46
Ka@@ 46
Kap@@ 46
Library 46
Med@@ 46
People 46
Rah@@ 46
Rat@@ 46
Services 46
Tw@@ 46
VP 46
aging 46
aker 46
alis@@ 46
article 46
blood 46
board 46
bridge 46
chan@@ 46
cou@@ 46
dat@@ 46
eding 46
eli 46
engineering 46
get@@ 46
ico 46
igation 46
ign@@ 46
ious 46
ira 46
isation 46
lay@@ 46
management 46
million 46
motor 46
nar@@ 46
ple 46
regul@@ 46
sn@@ 46
star@@ 46
stein 46
story 46
stre@@ 46
via 46
vic@@ 46
vis 46
whe@@ 46
ॿ@@ 46
ਤ@@ 46
ர 46
ಂ@@ 46
ུ@@ 46
185@@ 45
Church 45
God 45
Imp@@ 45
Kun@@ 45
Lord 45
Medi@@ 45
Nov@@ 45
Rev@@ 45
Richard 45
Sing@@ 45
Tab@@ 45
Tak@@ 45
Tamil 45
Vari@@ 45
York 45
ands 45
cc@@ 45
cus 45
design 45
eing 45
engine 45
ept@@ 45
erv@@ 45
full 45
gang@@ 45
gene 45
gin@@ 45
ground 45
lea@@ 45
lif@@ 45
mus 45
national 45
new@@ 45
omm@@ 45
op 45
ossi@@ 45
ounds 45
ous@@ 45
ows 45
parti@@ 45
pole 45
population 45
port@@ 45
uni@@ 45
ve@@ 45
ware 45
within 45
yle 45
ysi@@ 45
zu 45
ʊ@@ 45
ч@@ 45
ש@@ 45
ং@@ 45
వ@@ 45
Also 44
Award 44
Cath@@ 44
Chan@@ 44
Ci@@ 44
El 44
Gran@@ 44
Journal 44
Ky@@ 44
Les 44
Ny@@ 44
Pho@@ 44
Security 44
Sl@@ 44
Sri 44
Stud@@ 44
Water 44
ais 44
audi@@ 44
cel@@ 44
condition 44
defined 44
elements 44
elli@@ 44
eri@@ 44
event 44
former 44
fran@@ 44
gh 44
gran@@ 44
iel@@ 44
ier@@ 44
ified 44
ison 44
length 44
medium 44
mis@@ 44
och 44
play@@ 44
possible 44
products 44
pu@@ 44
som@@ 44
tial 44
trade 44
ury 44
viol@@ 44
vul@@ 44
ward 44
zone 44
φ@@ 44
ύ@@ 44
П@@ 44
ה 44
শ 44
ਜ@@ 44
ದ@@ 44
≤ 44
Af@@ 43
Air@@ 43
Beng@@ 43
Class 43
Department 43
End 43
Expl@@ 43
Invest@@ 43
Ju@@ 43
Lev@@ 43
Mark@@ 43
Mast@@ 43
May 43
Philosoph@@ 43
Radi@@ 43
Sen@@ 43
They 43
Tim@@ 43
Tot@@ 43
Vit@@ 43
aer@@ 43
ains 43
bel 43
block 43
cast@@ 43
cell@@ 43
certain 43
cks 43
cla@@ 43
countries 43
critical 43
date 43
depend@@ 43
does 43
element 43
enter@@ 43
eph@@ 43
esses 43
eting 43
fication 43
i.e. 43
idd@@ 43
ific@@ 43
independent 43
istics 43
izing 43
kt@@ 43
lit@@ 43
main@@ 43
mb@@ 43
memory 43
min 43
oly@@ 43
operating 43
post 43
rier 43
ros 43
san@@ 43
sci@@ 43
sky 43
sta 43
supp@@ 43
until 43
ven 43
wall 43
written 43
yc@@ 43
á 43
ó 43
ƒ 43
ɾ@@ 43
ʃ@@ 43
χ@@ 43
ω@@ 43
ְ@@ 43
ث@@ 43
ظ@@ 43
ನ 43
പ@@ 43
င 43
↑ 43
And 42
Anti@@ 42
Cri@@ 42
DJ 42
Division 42
Eu@@ 42
Grand 42
Ham@@ 42
Jer@@ 42
Lat@@ 42
Malaysia 42
News 42
Paris 42
Post 42
Stre@@ 42
band 42
became 42
circul@@ 42
dep@@ 42
domin@@ 42
eling 42
eur 42
good 42
green 42
health 42
ho 42
ich 42
ional 42
iti 42
jo 42
ky 42
last@@ 42
lead 42
ligence 42
local 42
making 42
med 42
oot 42
ound@@ 42
rak@@ 42
ran 42
school 42
script 42
sions 42
transm@@ 42
tric 42
ucle@@ 42
uf@@ 42
units 42
utions 42
yal 42
Ú@@ 42
ê@@ 42
ː 42
μ 42
ת 42
། 42
Art 41
Arthur 41
Big 41
Blue 41
Fo@@ 41
Fur@@ 41
Il@@ 41
Ja@@ 41
Liter@@ 41
Many 41
Meg@@ 41
Men@@ 41
Mont@@ 41
Nations 41
Nep@@ 41
Rob@@ 41
September 41
Two 41
Whe@@ 41
aja 41
aki 41
aking 41
ances 41
ander 41
ativ@@ 41
dus 41
ends 41
ensi@@ 41
films 41
gery 41
groups 41
ike 41
image 41
lag@@ 41
ler@@ 41
les@@ 41
lin 41
load 41
machine 41
mol@@ 41
ods 41
ody 41
onn@@ 41
price 41
rat 41
rent 41
ression 41
ruled 41
service 41
six 41
tem@@ 41
tol@@ 41
tree 41
vert@@ 41
vil 41
η 41
ق 41
య@@ 41
ా 41
Anim@@ 40
Bat@@ 40
Bin@@ 40
Free 40
Gir@@ 40
Hall@@ 40
Hom@@ 40
Indu@@ 40
Kas@@ 40
Korea 40
Max@@ 40
Military 40
Mir@@ 40
NCAA 40
Not@@ 40
Pass@@ 40
Point 40
Rem@@ 40
Saf@@ 40
Wel@@ 40
aqu@@ 40
bed 40
cav@@ 40
chain 40
che@@ 40
children 40
conserv@@ 40
considered 40
culture 40
days 40
eds 40
ein@@ 40
eps 40
ere@@ 40
esian 40
exchange 40
fas@@ 40
generation 40
hard 40
ild@@ 40
ills 40
kur@@ 40
lands 40
ment@@ 40
mir 40
ova 40
parts 40
problem 40
ras 40
record 40
resistance 40
rix 40
round 40
show 40
station 40
still 40
tation 40
techn@@ 40
thor@@ 40
tour@@ 40
tus 40
univers@@ 40
ü@@ 40
φ 40
ж@@ 40
ц@@ 40
ִ@@ 40
ד@@ 40
ِ 40
প 40
ਾ 40
ന@@ 40
ി 40
ု@@ 40
≥ 40
Ali@@ 39
Bou@@ 39
Cham@@ 39
Christ@@ 39
Circ@@ 39
Dat@@ 39
Der@@ 39
Lag@@ 39
Plat@@ 39
Produc@@ 39
Rap@@ 39
Revolution 39
SG 39
Second 39
Tha@@ 39
Tol@@ 39
Vel@@ 39
Wei@@ 39
atives 39
az 39
coll@@ 39
division 39
ele 39
enh@@ 39
equivalent 39
ette 39
eur@@ 39
every 39
ez@@ 39
few 39
fire 39
flow 39
gement 39
held 39
inger 39
ji@@ 39
market 39
means 39
multiple 39
phic 39
rates 39
rest 39
results 39
ris 39
row@@ 39
site 39
soci@@ 39
yn 39
ʒ@@ 39
Г@@ 39
ফ@@ 39
વ@@ 39
ு 39
ം 39
ത@@ 39
ല@@ 39
ན 39
្ 39
Adv@@ 38
Agency 38
And@@ 38
Best 38
Committee 38
Computer 38
Ev@@ 38
FL 38
Kab@@ 38
Leon@@ 38
Mut@@ 38
Peter 38
Poli@@ 38
Software 38
Treat@@ 38
ald 38
alle 38
alog@@ 38
always 38
analy@@ 38
ane@@ 38
anna 38
approxim@@ 38
bing 38
collec@@ 38
conv@@ 38
cra@@ 38
eau 38
ero 38
father 38
ink@@ 38
isch@@ 38
ische 38
ld@@ 38
ligh@@ 38
live 38
meter 38
military 38
nec@@ 38
needed 38
network 38
ologist 38
ons@@ 38
ophi@@ 38
pic@@ 38
plant 38
quot@@ 38
released 38
religious 38
reser@@ 38
rid@@ 38
sed 38
sequ@@ 38
shire 38
speed 38
statement 38
tered 38
vac@@ 38
vices 38
weight 38
wit@@ 38
your 38
án@@ 38
ø@@ 38
ś@@ 38
δ 38
ء 38
ৰ 38
ା@@ 38
ರ 38
≡ 38
Age 37
Arab@@ 37
Dam@@ 37
December 37
Ferr@@ 37
Fil@@ 37
Fort 37
Gul@@ 37
Hill 37
Ji@@ 37
Lor@@ 37
Love 37
Mechan@@ 37
November 37
Ox@@ 37
Pin@@ 37
Sak@@ 37
Simp@@ 37
Special 37
Star 37
Typ@@ 37
Vik@@ 37
We 37
addition 37
amount 37
arch 37
ather 37
bab@@ 37
basic 37
bat@@ 37
built 37
cies 37
count 37
divi@@ 37
earch 37
ech 37
econom@@ 37
economic 37
exper@@ 37
formed 37
game 37
gon@@ 37
gram 37
height 37
higher 37
included 37
itu@@ 37
just@@ 37
ko@@ 37
lah 37
literature 37
manufactur@@ 37
nit@@ 37
ops 37
pon@@ 37
pot@@ 37
prof@@ 37
reflec@@ 37
related 37
separ@@ 37
sex 37
sli@@ 37
sper@@ 37
ston 37
supply 37
ulated 37
wrote 37
Ω 37
λ 37
ρ 37
Б@@ 37
Р@@ 37
ן 37
ح 37
ॾ@@ 37
த 37
ே@@ 37
ర 37
ന 37
อ@@ 37
ေ@@ 37
Ath@@ 36
Bos@@ 36
But@@ 36
Civil 36
Contin@@ 36
Dem@@ 36
Fel@@ 36
Fr@@ 36
Gramm@@ 36
Kos@@ 36
Martin 36
Mol@@ 36
Most 36
NFL 36
Player 36
Saint 36
Stru@@ 36
Sun 36
Ty@@ 36
Van@@ 36
Wat@@ 36
Women 36
Young 36
absol@@ 36
access 36
actor 36
alia 36
alt@@ 36
amer@@ 36
animals 36
away 36
bin 36
broad@@ 36
cause 36
child 36
chin@@ 36
clo@@ 36
direc@@ 36
ease 36
either 36
ening 36
environment 36
ev 36
experim@@ 36
far 36
fields 36
five 36
fly 36
gel 36
hr 36
ian@@ 36
just 36
mach@@ 36
mak@@ 36
mos@@ 36
ost 36
ours 36
person@@ 36
plants 36
repe@@ 36
revol@@ 36
rics 36
ski 36
spe@@ 36
started 36
tax 36
tournament 36
towards 36
unic@@ 36
upp@@ 36
user 36
uting 36
whose 36
win@@ 36
® 36
³ 36
è 36
ˌ@@ 36
פ@@ 36
ট@@ 36
ਦ@@ 36
མ@@ 36
ာ@@ 36
ー@@ 36
日@@ 36
￸ 36
187@@ 35
According 35
Arc@@ 35
California 35
Cas@@ 35
Classi@@ 35
Die 35
Hills 35
Kir@@ 35
League 35
Mountains 35
Ol@@ 35
President 35
Railway 35
Rights 35
Sand@@ 35
Spe@@ 35
Str@@ 35
Tan@@ 35
ache 35
aim@@ 35
aling 35
along 35
anim@@ 35
areas 35
arti@@ 35
basis 35
behavi@@ 35
cid@@ 35
clu@@ 35
compar@@ 35
consi@@ 35
dan@@ 35
determin@@ 35
dom 35
eal 35
entum 35
ests 35
figure 35
hop@@ 35
idi@@ 35
iger 35
lies 35
loo@@ 35
mar 35
normal 35
org@@ 35
ously 35
person 35
ple@@ 35
popular 35
primary 35
produced 35
programming 35
qui@@ 35
rather 35
rement 35
rin@@ 35
rup@@ 35
sequence 35
spar@@ 35
start 35
temple 35
tern 35
tific@@ 35
use@@ 35
uth 35
valu@@ 35
wel@@ 35
zed 35
µ@@ 35
ь 35
ك 35
ਰ 35
ર@@ 35
ି@@ 35
க 35
ಗ@@ 35
ಸ@@ 35
Ara@@ 34
Battle 34
Bon@@ 34
Cant@@ 34
Chief 34
Country 34
Cra@@ 34
Doc@@ 34
Fox 34
God@@ 34
Histor@@ 34
Labor@@ 34
Line 34
Mis@@ 34
Mount 34
Nik@@ 34
Order 34
Part@@ 34
Political 34
Pow@@ 34
Rud@@ 34
So 34
Spi@@ 34
St. 34
Sus@@ 34
Tag@@ 34
Territ@@ 34
Valley 34
Writ@@ 34
acts 34
ado 34
again 34
anch@@ 34
anic 34
architecture 34
become 34
ced 34
character@@ 34
emat@@ 34
emor@@ 34
ender 34
etry 34
fare 34
fer 34
fish 34
foreign 34
graph@@ 34
hip 34
ias 34
ight@@ 34
kam 34
living 34
methods 34
mission 34
named 34
ograph@@ 34
orith@@ 34
played 34
rel 34
rul@@ 34
secondary 34
similar 34
society 34
stry 34
tax@@ 34
thir@@ 34
tz 34
uma 34
usi@@ 34
wind@@ 34
words 34
ے 34
യ@@ 34
က@@ 34
Africa 33
Beg@@ 33
Bern@@ 33
Bol@@ 33
Christian 33
Communic@@ 33
Dep@@ 33
Dru@@ 33
Eng@@ 33
Ess@@ 33
Europe 33
Fal@@ 33
February 33
Film 33
Hans 33
Home 33
Hospital 33
Korean 33
Mary 33
Museum 33
Navy 33
Oper@@ 33
Prof@@ 33
Sym@@ 33
Ton@@ 33
Video 33
Wol@@ 33
across 33
adap@@ 33
animal 33
anta 33
aul@@ 33
bas@@ 33
bo 33
changes 33
chen 33
cient 33
cut 33
density 33
distribution 33
ective 33
electronic 33
ellite 33
eness 33
ensive 33
fa@@ 33
fli@@ 33
func@@ 33
help 33
however 33
iles 33
interest 33
invol@@ 33
itz 33
jaz@@ 33
kind 33
lan 33
liter@@ 33
mid 33
mosph@@ 33
nal 33
olic 33
omin@@ 33
other@@ 33
press 33
prim@@ 33
print 33
race 33
racy 33
relative 33
runs 33
sab@@ 33
sal 33
signal 33
simple 33
sometimes 33
spor@@ 33
standing 33
taken 33
territory 33
transfer 33
tz@@ 33
whole 33
yo 33
zer 33
ér@@ 33
í 33
ú@@ 33
ı@@ 33
ע@@ 33
۝ 33
ਕ@@ 33
ਗ@@ 33
ਲ@@ 33
ತ@@ 33
ර@@ 33
ྱ@@ 33
ရ@@ 33
⁄ 33
Bay@@ 32
Cru@@ 32
Dre@@ 32
Entertainment 32
Es 32
Forest 32
Juan 32
Lan@@ 32
Land@@ 32
Lun@@ 32
Major 32
Marath@@ 32
Party 32
Ple@@ 32
Priv@@ 32
Rad@@ 32
Sher@@ 32
Sho@@ 32
Sou@@ 32
Tul@@ 32
activity 32
add@@ 32
appar@@ 32
ater@@ 32
ator@@ 32
bat 32
bet 32
bles 32
capital 32
cep@@ 32
cham@@ 32
ched 32
cher 32
composed 32
concept 32
degree 32
direction 32
dis 32
display 32
economy 32
eh 32
elling 32
ells 32
elt 32
eman 32
fall 32
flex@@ 32
further 32
gar 32
ident@@ 32
increase 32
instit@@ 32
ital@@ 32
kin 32
legal 32
los@@ 32
match 32
member 32
mobile 32
names 32
neg@@ 32
oni 32
orders 32
pers@@ 32
personal 32
pit@@ 32
plus 32
real@@ 32
received 32
rights 32
risk 32
ror@@ 32
running 32
scre@@ 32
services 32
shows 32
sou@@ 32
sound 32
thought 32
town 32
vention 32
vers 32
volume 32
writing 32
és 32
š@@ 32
т 32
ج 32
ަ@@ 32
খ@@ 32
ன@@ 32
ద@@ 32
ಲ@@ 32
් 32
ད@@ 32
国@@ 32
Administration 31
Am 31
Band@@ 31
Bap@@ 31
Bis@@ 31
Congress 31
Da 31
Diam@@ 31
Don@@ 31
Exper@@ 31
Federation 31
Fri@@ 31
Hand@@ 31
Hir@@ 31
Little 31
Mau@@ 31
No. 31
Press 31
Since 31
Times 31
Up@@ 31
Van 31
Vic@@ 31
Village 31
ament 31
ameter 31
amin 31
ample 31
announced 31
ased 31
aste 31
attack 31
big 31
bus@@ 31
ci 31
controlled 31
descri@@ 31
developed 31
ears 31
ei 31
entation 31
evidence 31
female 31
fic 31
fri@@ 31
hatt@@ 31
identif@@ 31
iers 31
internal 31
itors 31
itting 31
largest 31
lear@@ 31
little 31
night 31
occ@@ 31
optim@@ 31
orer 31
oud 31
part@@ 31
pay@@ 31
perc@@ 31
performance 31
phil@@ 31
positi@@ 31
pun@@ 31
radio 31
significant 31
sle@@ 31
squ@@ 31
step 31
struction 31
thing 31
today 31
tory 31
try 31
tun@@ 31
tural 31
uh@@ 31
upon 31
urg@@ 31
usually 31
working 31
ws 31
zon 31
ão 31
И@@ 31
ַ@@ 31
ם 31
ॲ@@ 31
অ@@ 31
ব 31
ਪ@@ 31
ର@@ 31
ல 31
డ@@ 31
ಪ@@ 31
ು 31
† 31
Bod@@ 30
Conserv@@ 30
Dri@@ 30
Emp@@ 30
Fol@@ 30
Gener@@ 30
Go 30
Gun@@ 30
Hist@@ 30
Ide@@ 30
Kl@@ 30
Lau@@ 30
Law@@ 30
Mik@@ 30
Offic@@ 30
Pir@@ 30
Rang@@ 30
Rock 30
Shak@@ 30
Sid@@ 30
Tom@@ 30
Wa@@ 30
What 30
ably 30
acqu@@ 30
ader 30
adv@@ 30
aff 30
aid 30
airs 30
altern@@ 30
aw 30
better 30
birds 30
bis 30
bury 30
bution 30
central 30
clin@@ 30
ct 30
curr@@ 30
dale 30
down@@ 30
election 30
established 30
follow 30
fru@@ 30
ghts 30
give 30
greater 30
iment 30
inking 30
instead 30
interpre@@ 30
iter 30
itions 30
jur@@ 30
larger 30
laws 30
los 30
loss 30
lot 30
love 30
lower 30
materials 30
members 30
oe 30
og 30
ois 30
olf 30
operations 30
ores 30
pa@@ 30
seen 30
sent@@ 30
ser 30
seven 30
stan 30
status 30
tery 30
ured 30
vor@@ 30
wise 30
writ@@ 30
yet 30
¾ 30
ã@@ 30
Д@@ 30
Х@@ 30
к 30
м 30
ш@@ 30
ু 30
ବ@@ 30
ந@@ 30
ோ@@ 30
ತ 30
മ 30
Alb@@ 29
Alexander 29
Bot@@ 29
Bureau 29
Camp@@ 29
Cos@@ 29
Dun@@ 29
Ey@@ 29
Festival 29
Form@@ 29
Frederick 29
Gaz@@ 29
Greek 29
Hay@@ 29
Hil@@ 29
Kel@@ 29
Light 29
Maur@@ 29
Mess@@ 29
Mit@@ 29
Modern 29
More 29
Naval 29
Organisation 29
Rab@@ 29
Roman 29
Russian 29
Top@@ 29
Zh@@ 29
ading 29
alt 29
although 29
applied 29
arity 29
arly 29
award 29
bad@@ 29
ball@@ 29
began 29
ben@@ 29
bes@@ 29
bird 29
building 29
came 29
compl@@ 29
complete 29
death 29
dient 29
diti@@ 29
ditional 29
elta 29
emot@@ 29
eo 29
eu@@ 29
famous 29
finals 29
fr@@ 29
gave 29
iat@@ 29
ined 29
inus 29
located 29
lost 29
medical 29
mov@@ 29
movement 29
nat@@ 29
never 29
official 29
once 29
oon 29
oured 29
ove 29
own@@ 29
perf@@ 29
philosophy 29
pil@@ 29
pose 29
prob@@ 29
produc@@ 29
read 29
relationship 29
ronom@@ 29
security 29
shr@@ 29
spi@@ 29
steel 29
swit@@ 29
tig@@ 29
tly 29
together 29
ty@@ 29
ugh@@ 29
ums 29
various 29
yer 29
Ü@@ 29
Н@@ 29
ش 29
স 29
ಯ@@ 29
ത 29
ེ@@ 29
ྲ@@ 29
186@@ 28
Area 28
Arts 28
Ball@@ 28
Billboard 28
Dub@@ 28
Ear@@ 28
Et@@ 28
Fa@@ 28
Falls 28
Gau@@ 28
Gold@@ 28
Hin@@ 28
Jos@@ 28
Jud@@ 28
Main 28
Max 28
Neg@@ 28
Now 28
Rak@@ 28
Rav@@ 28
Rub@@ 28
Street 28
Tax@@ 28
Termin@@ 28
Test@@ 28
Washington 28
Zo@@ 28
abor@@ 28
anal@@ 28
anese 28
asing 28
ask 28
asy 28
ayed 28
birth 28
blue 28
care 28
compil@@ 28
content 28
deep 28
dens@@ 28
died 28
digital 28
din@@ 28
door 28
een 28
eil 28
err@@ 28
esa 28
ety 28
exec@@ 28
expansion 28
financial 28
forest 28
growth 28
harmon@@ 28
head@@ 28
hil@@ 28
hun@@ 28
iron 28
iser 28
issues 28
iter@@ 28
ken 28
levels 28
mark 28
middle 28
minim@@ 28
modi@@ 28
office 28
ogs 28
represent@@ 28
sides 28
sit 28
strong 28
studies 28
sub 28
substit@@ 28
teen 28
termin@@ 28
ude 28
ways 28
wei@@ 28
write 28
xim@@ 28
zu@@ 28
¿ 28
ç 28
Đ@@ 28
ɪ 28
ֹ@@ 28
כ@@ 28
এ@@ 28
ਵ@@ 28
ੋ@@ 28
ે 28
ந 28
ూ@@ 28
ె@@ 28
ย@@ 28
ད 28
≈ 28
ン@@ 28
本@@ 28
Asian 27
Associ@@ 27
Australian 27
Awards 27
Beach 27
Cle@@ 27
Club 27
Conference 27
Dak@@ 27
Differ@@ 27
Early 27
Family 27
Fran@@ 27
Germany 27
GmbH 27
HL 27
Hen@@ 27
High@@ 27
Instit@@ 27
It@@ 27
Jacques 27
Japanese 27
Later 27
Les@@ 27
Ok@@ 27
Om@@ 27
Orig@@ 27
Pas@@ 27
Pav@@ 27
Pil@@ 27
Post@@ 27
Real 27
Rod@@ 27
Sac@@ 27
Shel@@ 27
Smith 27
Southern 27
Sult@@ 27
Training 27
Vil@@ 27
Whit@@ 27
ador 27
ady 27
ames 27
arran@@ 27
aster 27
bad 27
billion 27
bun@@ 27
celeb@@ 27
charged 27
clear 27
coh@@ 27
college 27
consci@@ 27
court 27
entr@@ 27
enty 27
esp@@ 27
especially 27
etc 27
ett 27
gate 27
gin 27
glass 27
gold 27
greg@@ 27
hier@@ 27
ices 27
incident 27
iness 27
intelligence 27
invest@@ 27
ished 27
isher 27
ishes 27
isol@@ 27
ister 27
itself 27
least 27
letter 27
limited 27
lit 27
mand@@ 27
mary 27
mess@@ 27
met 27
mother 27
oa 27
patri@@ 27
phy 27
raft 27
rand@@ 27
reading 27
regular 27
relations 27
rock 27
schol@@ 27
sector 27
seg@@ 27
selection 27
semi 27
sets 27
sey 27
sign@@ 27
statist@@ 27
sters 27
sth@@ 27
sting 27
sz@@ 27
tain 27
though 27
ties 27
training 27
turn 27
wind 27
¥ 27
º@@ 27
Ð 27
én@@ 27
ū 27
ι 27
ы 27
ऴ@@ 27
ॐ@@ 27
ড 27
ੀ@@ 27
ட 27
ற@@ 27
ದ 27
ೆ 27
ೆ@@ 27
ೇ@@ 27
േ@@ 27
ม@@ 27
མ 27
Att@@ 26
Ax@@ 26
Back@@ 26
Bour@@ 26
Bran@@ 26
Chr@@ 26
Convention 26
Den@@ 26
Dol@@ 26
Dou@@ 26
Foreign 26
François 26
Fund 26
Gem@@ 26
Hall 26
Juli@@ 26
Jun@@ 26
Kath@@ 26
Lav@@ 26
Lei@@ 26
Li 26
Liv@@ 26
Michael 26
Muhammad 26
Nan@@ 26
Parti@@ 26
Patri@@ 26
Pierre 26
Pon@@ 26
Put@@ 26
Rock@@ 26
Rol@@ 26
Salv@@ 26
Sor@@ 26
Stand@@ 26
Stra@@ 26
Upper 26
Ze@@ 26
account 26
aft 26
ager 26
amed 26
ann 26
astro@@ 26
ately 26
available 26
beau@@ 26
benef@@ 26
bis@@ 26
break 26
bute 26
cancer 26
capac@@ 26
classi@@ 26
composition 26
core 26
correspon@@ 26
divided 26
dre@@ 26
dé@@ 26
earning 26
eck@@ 26
ects 26
edge 26
eller 26
enne 26
eye 26
factors 26
fel@@ 26
figur@@ 26
ians 26
ible 26
icide 26
includes 26
inj@@ 26
injury 26
iss 26
jap@@ 26
jud@@ 26
kins 26
knowledge 26
lion 26
m. 26
move 26
oto 26
outside 26
path 26
placed 26
problems 26
ques 26
reference 26
ren 26
rey 26
rid 26
rob@@ 26
roman@@ 26
sav@@ 26
saw 26
say 26
scientific 26
set@@ 26
sign 26
stab@@ 26
succ@@ 26
tex@@ 26
themselves 26
too 26
treatment 26
union 26
utes 26
whi@@ 26
with@@ 26
Κ@@ 26
Л@@ 26
Т@@ 26
ա@@ 26
ٹ@@ 26
ই@@ 26
ঙ 26
ੁ@@ 26
્ 26
ை@@ 26
స@@ 26
ക 26
ട@@ 26
ก@@ 26
น@@ 26
ิ@@ 26
เ@@ 26
ག 26
ི@@ 26
19th 25
Abd@@ 25
Ale@@ 25
Altern@@ 25
Bes@@ 25
Bill 25
Cann@@ 25
Championships 25
Design 25
Dim@@ 25
Dist@@ 25
Dynam@@ 25
Enter@@ 25
Friedrich 25
Game 25
Hard@@ 25
Harry 25
Hung@@ 25
Japan 25
Mart@@ 25
Mission 25
Mr@@ 25
Muslim 25
Nad@@ 25
Nah@@ 25
Northern 25
Radio 25
Rich@@ 25
Stan@@ 25
Sund@@ 25
Supp@@ 25
Three 25
While 25
achie@@ 25
acquired 25
agog@@ 25
aine 25
army 25
associated 25
aus 25
ball 25
ban 25
beat 25
bir@@ 25
blo@@ 25
bom@@ 25
circum@@ 25
civil 25
commonly 25
conflict 25
cons@@ 25
deci@@ 25
eer 25
eig@@ 25
eist@@ 25
emer@@ 25
erous 25
essor 25
fic@@ 25
fir@@ 25
freedom 25
generally 25
global 25
greatest 25
hard@@ 25
himself 25
host 25
iew 25
imag@@ 25
incre@@ 25
lang 25
lets 25
loss@@ 25
money 25
ont 25
opposite 25
ound 25
program 25
publ@@ 25
rating 25
rie 25
rules 25
sac@@ 25
season 25
sel 25
special 25
standards 25
symp@@ 25
tradition 25
vement 25
video 25
wick@@ 25
writer 25
yon 25
zen 25
÷ 25
Α@@ 25
ή@@ 25
ζ 25
я@@ 25
ک 25
۔ 25
উ@@ 25
ਬ@@ 25
ી 25
ે@@ 25
క 25
ಕ 25
ท@@ 25
ว@@ 25
ั@@ 25
འ@@ 25
ལ 25
ྫ@@ 25
တ@@ 25
ḍ@@ 25
國@@ 25
Alexand@@ 24
Another 24
Art@@ 24
Assembly 24
Australia 24
Bau@@ 24
Black@@ 24
Broad@@ 24
Canadian 24
Cli@@ 24
Coast 24
Down 24
Egyp@@ 24
Empire 24
Esp@@ 24
Express 24
Gold 24
Good 24
Green@@ 24
Gru@@ 24
Head 24
Heritage 24
Id@@ 24
Islands 24
Lyn@@ 24
Men 24
Model 24
Night 24
Olympic 24
Pacific 24
Queen 24
Roll@@ 24
Run@@ 24
Sau@@ 24
Show 24
Sign@@ 24
Sound 24
Strateg@@ 24
Studio 24
Third 24
Wilhelm 24
With 24
agent 24
alu@@ 24
ander@@ 24
aters 24
aut 24
author 24
begin 24
bot@@ 24
burg 24
cases 24
cau@@ 24
characters 24
claim 24
climate 24
closed 24
contin@@ 24
control@@ 24
currently 24
dam 24
dam@@ 24
dependence 24
derived 24
dies 24
directly 24
diss@@ 24
effects 24
eit 24
eline 24
enes 24
enough 24
ept 24
ester@@ 24
eties 24
eval 24
fit 24
forced 24
fore 24
fort@@ 24
forward 24
friend 24
fuel 24
gan 24
gens 24
gest 24
gives 24
gol@@ 24
historical 24
hn@@ 24
hours 24
human@@ 24
ink 24
iop@@ 24
ises 24
ives 24
je 24
journ@@ 24
keep@@ 24
lang@@ 24
leading 24
lein 24
meaning 24
mid@@ 24
mix@@ 24
months 24
next 24
oned 24
ords 24
origin 24
osaur@@ 24
otes 24
particular 24
pass 24
pec@@ 24
player 24
positions 24
pping 24
produce 24
project 24
rang 24
rar@@ 24
rative 24
religion 24
ring@@ 24
road 24
room 24
seud@@ 24
sible 24
stock 24
suff@@ 24
sup@@ 24
tronic 24
tropical 24
ues 24
ugh 24
unique 24
unk 24
urs 24
uts 24
versi@@ 24
wards 24
week 24
wer@@ 24
young 24
zing 24
¸ 24
Á@@ 24
ì@@ 24
ł@@ 24
̃ 24
О@@ 24
д 24
л 24
у 24
ק@@ 24
ُ 24
ণ 24
ূ@@ 24
ੱ@@ 24
ମ@@ 24
ெ@@ 24
ை 24
న 24
ා@@ 24
ි@@ 24
ེ 24
ា@@ 24
█ 24
Alfred 23
August@@ 23
Bla@@ 23
Bridge 23
Brit@@ 23
Bus@@ 23
Cher@@ 23
Crit@@ 23
Cup 23
Don 23
Dro@@ 23
Educ@@ 23
Eff@@ 23
Emer@@ 23
Fab@@ 23
Field 23
Francis 23
Fron@@ 23
Get@@ 23
Golden 23
Heb@@ 23
Indon@@ 23
Instr@@ 23
Jac@@ 23
Karl 23
Kit@@ 23
Main@@ 23
Mid@@ 23
Mr. 23
Nat@@ 23
Ot@@ 23
Oxford 23
Pear@@ 23
Phil@@ 23
Plan 23
Polit@@ 23
Prince 23
Prob@@ 23
Roh@@ 23
Square 23
Stat@@ 23
That 23
Thom@@ 23
Uni@@ 23
academic 23
accoun@@ 23
anthrop@@ 23
asses 23
att 23
auth@@ 23
aver@@ 23
bal 23
band@@ 23
capacity 23
cker 23
communication 23
consum@@ 23
cost 23
created 23
deg@@ 23
dical 23
ec 23
edition 23
eins 23
elled 23
elli 23
enna 23
essions 23
evi@@ 23
formal 23
gres@@ 23
gun 23
heart 23
hei@@ 23
hold 23
ime 23
inclu@@ 23
inea 23
intel@@ 23
junction 23
kes 23
king@@ 23
lav@@ 23
lem 23
lier 23
low@@ 23
moun@@ 23
nation 23
occur 23
oss 23
predic@@ 23
respec@@ 23
resulting 23
rich 23
role 23
sexual 23
ships 23
sites 23
spl@@ 23
strateg@@ 23
tain@@ 23
titles 23
tured 23
ulp@@ 23
v. 23
voc@@ 23
yellow 23
¨ 23
č@@ 23
ē 23
ŋ@@ 23
˚ 23
ζ@@ 23
ל 23
ঁ@@ 23
ન@@ 23
ா 23
ಡ@@ 23
ಶ@@ 23
ള@@ 23
ར 23
ྒ@@ 23
သ@@ 23
္ 23
ṇ@@ 23
↓ 23
李@@ 23
0.000 22
Arg@@ 22
Autom@@ 22
Avi@@ 22
Bell 22
Building 22
Carl 22
Che@@ 22
Commonwealth 22
Cou@@ 22
D.C. 22
Din@@ 22
Diplom@@ 22
Eli@@ 22
Es@@ 22
Film@@ 22
Gol@@ 22
Its 22
Jah@@ 22
Jan 22
Johann 22
Kra@@ 22
Kul@@ 22
Mann@@ 22
Mé@@ 22
Naz@@ 22
Only 22
Operation 22
Original 22
Over@@ 22
Person@@ 22
Port 22
Programm@@ 22
Pseud@@ 22
Review 22
Ris@@ 22
Sig@@ 22
Sv@@ 22
Taylor 22
Thor@@ 22
Thus 22
Up 22
West@@ 22
Wis@@ 22
Zu@@ 22
activ@@ 22
added 22
additional 22
aid@@ 22
allow 22
application 22
ardo 22
arib@@ 22
ason 22
aux 22
belie@@ 22
bot 22
bow@@ 22
card 22
cast 22
cket 22
completed 22
conf@@ 22
contact 22
corpor@@ 22
dated 22
defeat 22
dem 22
despite 22
discipl@@ 22
duced 22
ected 22
ehic@@ 22
eigen@@ 22
ened 22
enko 22
enter 22
essel 22
failure 22
fast 22
fle@@ 22
flo@@ 22
follows 22
foot@@ 22
forc@@ 22
fourth 22
front 22
gain 22
got 22
iana 22
ife 22
irc@@ 22
joint 22
las 22
lished 22
listed 22
look 22
maximum 22
meet 22
mort@@ 22
mouth 22
movie 22
mult@@ 22
nov@@ 22
oci@@ 22
offic@@ 22
onian 22
ony@@ 22
oods 22
pass@@ 22
plat@@ 22
poli@@ 22
proced@@ 22
rab@@ 22
rare 22
red@@ 22
required 22
respon@@ 22
rian 22
scri@@ 22
shown 22
sig@@ 22
special@@ 22
spot 22
stand 22
ste 22
strength 22
students 22
syst@@ 22
tal 22
therefore 22
uan 22
ument@@ 22
uns 22
unt 22
uted 22
vel 22
vely 22
vill@@ 22
villages 22
vo 22
water@@ 22
wife 22
¢ 22
É 22
ë@@ 22
ì 22
ş@@ 22
Σ@@ 22
ֶ@@ 22
צ@@ 22
ٱ@@ 22
জ 22
ਤ 22
ਲ 22
દ@@ 22
ལ@@ 22
ི 22
ခ@@ 22
ပ@@ 22
រ@@ 22
ṣ@@ 22
ⴰ@@ 22
18th 21
2. 21
Abra@@ 21
Although 21
Anth@@ 21
Arab 21
Ball 21
Bed@@ 21
Bru@@ 21
Cab@@ 21
Cambridge 21
Channel 21
Chin@@ 21
Commer@@ 21
Corn@@ 21
Dan 21
Dav@@ 21
Democ@@ 21
Dé@@ 21
Eastern 21
Est@@ 21
Ever@@ 21
Fire 21
Fra@@ 21
Front 21
Gil@@ 21
Gri@@ 21
Her 21
Ireland 21
Isa@@ 21
Islam 21
Lewis 21
Like 21
Lok@@ 21
Maria 21
Mark 21
Miami 21
Not 21
Ocean 21
References 21
Then 21
UE@@ 21
Under@@ 21
Water@@ 21
Works 21
according 21
aces 21
acks 21
acted 21
agen@@ 21
agreement 21
ague 21
aining 21
alities 21
ape 21
arms 21
aro 21
artic@@ 21
articles 21
cas@@ 21
collection 21
colon@@ 21
colum@@ 21
companies 21
compared 21
compos@@ 21
conditions 21
construction 21
continued 21
correc@@ 21
cover@@ 21
cricket 21
democ@@ 21
details 21
develop@@ 21
dition@@ 21
done 21
dru@@ 21
event@@ 21
exclu@@ 21
expressed 21
fiel@@ 21
figures 21
find 21
ford@@ 21
heim 21
ille 21
ining 21
insi@@ 21
intro@@ 21
itz@@ 21
kor@@ 21
lad@@ 21
lik@@ 21
link 21
meeting 21
mont 21
month 21
moving 21
need 21
nis 21
oba 21
oes 21
park 21
ped@@ 21
pip@@ 21
plem@@ 21
practice 21
pre 21
press@@ 21
prise 21
provides 21
quarter 21
quest@@ 21
rd 21
recognition 21
rements 21
report 21
response 21
sk 21
spread 21
sty@@ 21
subject 21
sur 21
swe@@ 21
sych@@ 21
thin 21
thre@@ 21
tru@@ 21
types 21
ular@@ 21
utionary 21
ör@@ 21
ù 21
ŋ 21
ʊ 21
Π@@ 21
ג@@ 21
ח@@ 21
॔ 21
ও@@ 21
ষ 21
જ@@ 21
କ@@ 21
ସ@@ 21
బ@@ 21
ಬ@@ 21
ಲ 21
ಹ@@ 21
ೀ@@ 21
അ@@ 21
സ@@ 21
ာ 21
ḥ@@ 21
∞ 21
国 21
Administ@@ 20
Assi@@ 20
Batt@@ 20
Beau@@ 20
Champ@@ 20
Cla@@ 20
Distri@@ 20
Ent@@ 20
Flor@@ 20
Flu@@ 20
Four 20
Generation 20
Haw@@ 20
Hei@@ 20
Hot 20
Hot@@ 20
Hun@@ 20
Inn@@ 20
Int@@ 20
Islamic 20
Jar@@ 20
Johnson 20
Jon@@ 20
Kaz@@ 20
King@@ 20
Lang@@ 20
Lou@@ 20
Master 20
Matthe@@ 20
Maxim@@ 20
Muse@@ 20
Musi@@ 20
NHL 20
Nac@@ 20
North@@ 20
Off@@ 20
Out 20
Prize 20
Ras@@ 20
Revol@@ 20
Rural 20
Rus@@ 20
Simon 20
Soviet 20
Squ@@ 20
System@@ 20
Theatre 20
Thi@@ 20
Top 20
Youth 20
abe 20
aching 20
acting 20
almost 20
ammad 20
ancient 20
anded 20
anne 20
attri@@ 20
avy 20
awar@@ 20
beginning 20
bud@@ 20
career 20
casting 20
chn@@ 20
commun@@ 20
competition 20
consecutive 20
create 20
eck 20
educ@@ 20
eign 20
eless 20
elles 20
embly 20
ento 20
exam@@ 20
existence 20
fan 20
fort 20
fron@@ 20
genus 20
ges@@ 20
gia 20
gir@@ 20
hou 20
iced 20
ift 20
ily 20
individual 20
inform@@ 20
inian 20
initi@@ 20
introduced 20
itable 20
itted 20
ival@@ 20
jects 20
ku@@ 20
lau@@ 20
liber@@ 20
lined 20
mad 20
male 20
marks 20
matches 20
mes 20
might 20
mine 20
needs 20
note 20
nt 20
older 20
oration 20
ources 20
paper 20
past 20
piece 20
players 20
policy 20
popul@@ 20
port 20
principal 20
provide 20
provided 20
purpose 20
rad@@ 20
railway 20
reason 20
records 20
ret 20
rev@@ 20
rik 20
separate 20
sie 20
soon 20
southern 20
stit@@ 20
student 20
thal 20
them@@ 20
thous@@ 20
tian 20
uel 20
uter@@ 20
uture 20
vot@@ 20
want 20
website 20
ween 20
wir@@ 20
Ø@@ 20
ă@@ 20
ğ@@ 20
ই 20
ষ@@ 20
ਘ 20
ਸ 20
਼ 20
ા 20
ங 20
ப 20
ள@@ 20
ಟ@@ 20
ട 20
ശ@@ 20
န 20
း 20
◆ 20
北@@ 20
民@@ 20
About 19
African 19
Anne 19
Archit@@ 19
Bell@@ 19
Boh@@ 19
Bom@@ 19
Cape 19
Clar@@ 19
Disney 19
End@@ 19
Fir@@ 19
Franc@@ 19
Gas@@ 19
Good@@ 19
Imperial 19
Lis@@ 19
Mari@@ 19
Motor 19
Pau@@ 19
Pel@@ 19
Rand@@ 19
Ray 19
Roman@@ 19
Rot@@ 19
Sper@@ 19
Stone 19
Ut@@ 19
Veg@@ 19
abil@@ 19
any@@ 19
arm 19
athan 19
becomes 19
becoming 19
bodies 19
bow 19
cannot 19
civi@@ 19
close 19
combination 19
comes 19
commercial 19
connection 19
contract 19
cour@@ 19
cover 19
dark 19
deb@@ 19
demand 19
disc@@ 19
domestic 19
duk@@ 19
echn@@ 19
edy 19
ef 19
elem@@ 19
elev@@ 19
emin@@ 19
emy 19
ener@@ 19
ente 19
epp@@ 19
esth@@ 19
faces 19
ffe 19
folk 19
future 19
govern@@ 19
guid@@ 19
hen@@ 19
highest 19
histor@@ 19
impro@@ 19
independence 19
influence 19
ingly 19
inner 19
inten@@ 19
iques 19
ito 19
kul@@ 19
lei@@ 19
library 19
lich@@ 19
links 19
list@@ 19
longer 19
mas@@ 19
mind 19
native 19
objec@@ 19
odes 19
organization 19
owing 19
ports 19
pped 19
private 19
recognized 19
recomm@@ 19
recorded 19
release 19
remain 19
requi@@ 19
ressed 19
revi@@ 19
scape 19
serve 19
sively 19
soft 19
sour@@ 19
stream 19
structures 19
sug@@ 19
sust@@ 19
tac@@ 19
television 19
territ@@ 19
tos 19
tot@@ 19
upper 19
why 19
ything 19
zes 19
¼ 19
Å@@ 19
Ï@@ 19
Ù@@ 19
är@@ 19
ï@@ 19
ǎ@@ 19
ɒ@@ 19
ʰ@@ 19
ʻ@@ 19
Μ@@ 19
τ 19
У@@ 19
މ@@ 19
ট 19
ণ@@ 19
ধ 19
ফ 19
ત@@ 19
அ@@ 19
พ@@ 19
ุ@@ 19
ཐ@@ 19
པ@@ 19
့ 19
ျ@@ 19
ṛ@@ 19
人 19
子 19
字 19
Andrew 18
Base 18
Blo@@ 18
Buddh@@ 18
During 18
Elizabeth 18
Europ@@ 18
Fas@@ 18
Five 18
Frank 18
Geor@@ 18
Hab@@ 18
Has@@ 18
Hav@@ 18
Hong 18
Hop@@ 18
Hou@@ 18
How@@ 18
Israel 18
Kong 18
Latin 18
Marie 18
Minister 18
Morgan 18
Nation@@ 18
Olymp@@ 18
Prem@@ 18
Production 18
Program 18
Publi@@ 18
Rat 18
Rum@@ 18
Russia 18
South@@ 18
Sports 18
Swe@@ 18
Temper@@ 18
Tower 18
Vice 18
Vinc@@ 18
Will 18
Wo@@ 18
abol@@ 18
accur@@ 18
aden@@ 18
agon@@ 18
akes 18
alists 18
alog 18
ando 18
appointed 18
arily 18
ashi 18
ause 18
believed 18
bloc@@ 18
c. 18
cally 18
camer@@ 18
car 18
changed 18
claimed 18
collap@@ 18
community 18
constit@@ 18
cross@@ 18
dered 18
dest@@ 18
dim@@ 18
directed 18
discovered 18
dou@@ 18
dry 18
edom 18
eigh@@ 18
eit@@ 18
enge 18
eton 18
events 18
extrem@@ 18
fs 18
gency 18
got@@ 18
happ@@ 18
heavy 18
hl 18
humans 18
ideas 18
ield 18
ien 18
illed 18
industrial 18
influ@@ 18
insula 18
intend@@ 18
iz 18
ión 18
know 18
kov@@ 18
lers 18
ling@@ 18
location 18
mile 18
nation@@ 18
nor 18
o. 18
observ@@ 18
olo@@ 18
omot@@ 18
ored 18
orting 18
orts 18
owers 18
party 18
pati@@ 18
politics 18
publi@@ 18
ratic 18
recogn@@ 18
refer@@ 18
regions 18
rot 18
saf@@ 18
sand@@ 18
shape 18
shore 18
spon@@ 18
stop 18
stories 18
straight 18
throp@@ 18
traditional 18
train 18
travel 18
unk@@ 18
unter 18
utation 18
vest@@ 18
views 18
whom 18
wr@@ 18
zi 18
ñ 18
Ā@@ 18
ư@@ 18
ɐ 18
ɐ@@ 18
ʿ@@ 18
Ε@@ 18
ή 18
э@@ 18
ס@@ 18
ת@@ 18
غ 18
َ 18
গ 18
ਅ@@ 18
ਿ 18
ં@@ 18
ી@@ 18
ା 18
ள 18
చ@@ 18
ే@@ 18
ో@@ 18
ര 18
ง@@ 18
န@@ 18
ု 18
ွ@@ 18
℃ 18
← 18
山 18
本 18
， 18
Ab 17
Alp@@ 17
Because 17
Bow@@ 17
Catholic 17
Census 17
Cho@@ 17
Chor@@ 17
Cricket 17
Dah@@ 17
Ein@@ 17
Forces 17
Fres@@ 17
Ful@@ 17
Garden 17
Gest@@ 17
Jak@@ 17
Jr 17
Jul@@ 17
Just@@ 17
Justice 17
Ken@@ 17
Kom@@ 17
Lawrence 17
Lud@@ 17
Mill@@ 17
Mom@@ 17
Personal 17
Pla@@ 17
Port@@ 17
Que@@ 17
Ry@@ 17
Sach@@ 17
Sain@@ 17
Scott 17
Sof@@ 17
Song 17
Step@@ 17
Stor@@ 17
Supreme 17
Team 17
Tou@@ 17
Tour 17
Willi@@ 17
Wright 17
ained 17
aircraft 17
allowed 17
atures 17
authority 17
awards 17
bau@@ 17
blast 17
boy 17
brought 17
cann@@ 17
chap@@ 17
character 17
cians 17
committee 17
connected 17
consisting 17
constitu@@ 17
containing 17
contrac@@ 17
counter@@ 17
criticized 17
cultural 17
defeated 17
deli@@ 17
described 17
drawn 17
effective 17
emerg@@ 17
engl@@ 17
estimated 17
existing 17
fall@@ 17
fe 17
feature 17
fem@@ 17
foc@@ 17
focus 17
followed 17
fried 17
ged@@ 17
gers 17
grade 17
holds 17
hood 17
ial@@ 17
ific 17
iga 17
igu@@ 17
increased 17
iro 17
isch 17
isen 17
kan 17
kel@@ 17
kers 17
lag 17
leb@@ 17
lief 17
linder 17
may@@ 17
mean@@ 17
median 17
nah@@ 17
nee 17
nes 17
nia 17
nomin@@ 17
notes 17
ny 17
obil@@ 17
odes@@ 17
offer 17
opin@@ 17
origin@@ 17
ouse 17
overs 17
owle@@ 17
pack@@ 17
philosoph@@ 17
portion 17
pro 17
rain 17
replac@@ 17
ries 17
rin 17
rise 17
served 17
sex@@ 17
signed 17
silver 17
stent 17
sus@@ 17
taking 17
techniques 17
thy 17
uch 17
uer@@ 17
uf 17
users 17
vent 17
verb@@ 17
went 17
winning 17
wo@@ 17
work@@ 17
Ì@@ 17
å@@ 17
ò@@ 17
ú 17
ě@@ 17
ı 17
Š@@ 17
З@@ 17
қ@@ 17
ө@@ 17
ר 17
ض 17
ܝ@@ 17
ॼ@@ 17
ৃ@@ 17
ো 17
ਆ@@ 17
ੂ@@ 17
ક@@ 17
ો@@ 17
େ@@ 17
ண 17
ண@@ 17
ய 17
ழ 17
ద 17
య 17
ส@@ 17
ἀ@@ 17
─ 17
小@@ 17
新@@ 17
ﷺ 17
1. 16
16th 16
Afghanistan 16
Alliance 16
Analy@@ 16
Andr@@ 16
Andre@@ 16
Atlantic 16
Beh@@ 16
Bisch@@ 16
Blu@@ 16
Boston 16
Boys 16
But 16
Children 16
Clin@@ 16
Columbia 16
Connec@@ 16
Cross 16
Dance 16
Dau@@ 16
Despite 16
Domin@@ 16
Exec@@ 16
Federal 16
Fort@@ 16
Franç@@ 16
Fund@@ 16
Gall@@ 16
Gast@@ 16
Gib@@ 16
Greg@@ 16
Heinrich 16
Hit@@ 16
Hollywood 16
Howard 16
Italian 16
Jack 16
Jews 16
Lem@@ 16
Malay@@ 16
Marc@@ 16
Memorial 16
Opp@@ 16
Over 16
Palest@@ 16
Pati@@ 16
Penn@@ 16
Play 16
Police 16
Progr@@ 16
Quar@@ 16
Religion 16
Seg@@ 16
St 16
Text 16
Venezu@@ 16
Williams 16
Your 16
Zone 16
activities 16
ades 16
agu@@ 16
ahl 16
ahr@@ 16
ailed 16
akers 16
alized 16
aller 16
alone 16
aming 16
amme 16
ancing 16
anding 16
approach 16
arian 16
arts 16
attempt 16
aug@@ 16
bach 16
bay@@ 16
break@@ 16
bron@@ 16
build 16
buildings 16
camp@@ 16
capture 16
channel 16
chor@@ 16
cities 16
commer@@ 16
compet@@ 16
constructed 16
contri@@ 16
covery 16
daughter 16
decided 16
declared 16
diplom@@ 16
disp@@ 16
distinc@@ 16
dt 16
ecture 16
educational 16
efforts 16
eight 16
enger 16
engines 16
ength 16
entire 16
erh@@ 16
estim@@ 16
etta 16
etz@@ 16
exist 16
fifth 16
fro@@ 16
fun@@ 16
gel@@ 16
geograph@@ 16
gio 16
going 16
gress 16
hin 16
hion 16
hop 16
hour 16
ician 16
ima 16
impact 16
implem@@ 16
inces 16
investig@@ 16
ird 16
island 16
ission@@ 16
izes 16
keep 16
ldwide 16
lio 16
marriage 16
mers 16
musical 16
northern 16
objects 16
ocks 16
old@@ 16
omen 16
oner 16
organis@@ 16
oring 16
orn 16
ott 16
overall 16
owed 16
pain@@ 16
pair 16
particip@@ 16
places 16
plant@@ 16
playing 16
poin@@ 16
prac@@ 16
prem@@ 16
prepar@@ 16
programs 16
rant 16
reach 16
reported 16
requ@@ 16
retired 16
review 16
risis 16
sons 16
spre@@ 16
stable 16
sto@@ 16
store 16
teaching 16
teams 16
tern@@ 16
tou@@ 16
tum 16
ult 16
vehicle 16
wich 16
wide 16
woman 16
yed 16
zo 16
 16
ª@@ 16
Â@@ 16
Ö@@ 16
Ù 16
ê 16
ö 16
đ@@ 16
ʌ@@ 16
Е@@ 16
ث 16
گ 16
ऎ 16
ગ@@ 16
હ@@ 16
ତ@@ 16
ନ 16
ஸ 16
అ@@ 16
ీ@@ 16
ಚ@@ 16
ಜ@@ 16
ദ@@ 16
ง 16
ཁ@@ 16
བ 16
ུ 16
ắ@@ 16
ồ@@ 16
☃ 16
♭ 16
の@@ 16
南@@ 16
漢@@ 16
한@@ 16
﻿ 16
Affairs 15
Alex@@ 15
Asi@@ 15
Bad 15
Band 15
Boy 15
Britain 15
Bun@@ 15
Centr@@ 15
Championship 15
Chel@@ 15
County 15
Daniel 15
Denmark 15
Doctor 15
Emperor 15
Gab@@ 15
Gabri@@ 15
German@@ 15
Hus@@ 15
Joe 15
Jones 15
Len@@ 15
Lov@@ 15
Luc@@ 15
Marine 15
Miller 15
Olympics 15
Online 15
Otto 15
Past@@ 15
Phase 15
Philip 15
Philli@@ 15
Province 15
Raf@@ 15
Rein@@ 15
Rho@@ 15
Rog@@ 15
Roy 15
Sie@@ 15
Tas@@ 15
Ten 15
Theod@@ 15
Tob@@ 15
Tom 15
Victor 15
Wales 15
Wood@@ 15
aged 15
amen 15
anger 15
app 15
applications 15
attle 15
bey 15
bill 15
box@@ 15
boys 15
call 15
citizens 15
classical 15
coming 15
competed 15
contain 15
converted 15
craft 15
critics 15
cust@@ 15
damage 15
decis@@ 15
dedicated 15
demic 15
dership 15
distri@@ 15
dit@@ 15
eled 15
elim@@ 15
entry 15
erk@@ 15
erve 15
esch@@ 15
esse 15
etti 15
examples 15
fav@@ 15
feet 15
femin@@ 15
fest@@ 15
finish 15
gem@@ 15
gets 15
giving 15
goal 15
graduate 15
gressive 15
gri@@ 15
hands 15
hospital 15
ican 15
iden@@ 15
iller 15
illing 15
iny 15
kir@@ 15
kun@@ 15
lack 15
lake 15
launched 15
law@@ 15
leaders 15
letters 15
likely 15
marine 15
mas 15
master 15
maxim@@ 15
mon 15
mond 15
moved 15
mund 15
mur@@ 15
nership 15
norm@@ 15
noted 15
numerous 15
olle@@ 15
particularly 15
pp 15
r. 15
referred 15
rein@@ 15
represent 15
rol 15
rom 15
rone 15
sei@@ 15
selected 15
share 15
simp@@ 15
song 15
songs 15
sor 15
stim@@ 15
street 15
suffered 15
supported 15
technical 15
tei 15
think 15
transport 15
venti@@ 15
victory 15
visible 15
weeks 15
yard 15
zy 15
¡ 15
Ü 15
ä@@ 15
ère 15
ín 15
ü 15
ý 15
ý@@ 15
Τ@@ 15
ދ@@ 15
ऺ 15
হ 15
ৌ@@ 15
ਕ 15
ਨ 15
ୁ@@ 15
இ@@ 15
ஜ@@ 15
ಅ@@ 15
ೋ@@ 15
ച@@ 15
ണ@@ 15
പ 15
ൂ@@ 15
ോ@@ 15
ཆ@@ 15
ạ@@ 15
⅓ 15
↔ 15
≠ 15
☑ 15
イ@@ 15
一@@ 15
文@@ 15
明@@ 15
1920@@ 14
1960s 14
1990s 14
Academ@@ 14
Albert 14
Ander@@ 14
Angl@@ 14
Austral@@ 14
Bank@@ 14
Bit@@ 14
Box@@ 14
Bron@@ 14
Brown 14
Buch@@ 14
Castle 14
Clau@@ 14
Cour@@ 14
Cum@@ 14
Das 14
Death 14
Deutschland 14
Engine@@ 14
Ernst 14
Fair@@ 14
Geography 14
Hell@@ 14
Holy 14
Hur@@ 14
Leo 14
Lie@@ 14
Lig@@ 14
Lind@@ 14
Lond@@ 14
Magn@@ 14
Member 14
Ministry 14
Mountain 14
Nation 14
Nikol@@ 14
Opera 14
Ord@@ 14
Palace 14
Pion@@ 14
Pit@@ 14
Pok@@ 14
Relig@@ 14
Renaissance 14
Ring 14
Rober@@ 14
Singapore 14
Spar@@ 14
Sti@@ 14
Stri@@ 14
Studios 14
Tai@@ 14
Tig@@ 14
Today 14
Tour@@ 14
Vill@@ 14
Wall@@ 14
Will@@ 14
Wilson 14
Wind@@ 14
Wood 14
Zealand 14
a. 14
aded 14
agen 14
ags 14
ails 14
alternative 14
amat@@ 14
ange@@ 14
ante 14
appear 14
arab@@ 14
ario 14
bli@@ 14
border 14
branch 14
call@@ 14
chart 14
coal 14
colle@@ 14
command 14
communic@@ 14
cup 14
daily 14
demonstr@@ 14
diction 14
divisions 14
drug 14
eal@@ 14
ees 14
embl@@ 14
employ@@ 14
employment 14
enberg 14
except 14
explo@@ 14
failed 14
females 14
ffer 14
finished 14
fix@@ 14
forming 14
found@@ 14
founder 14
ful@@ 14
goes 14
growing 14
hit 14
ied 14
iens 14
iner 14
legisl@@ 14
less@@ 14
locomot@@ 14
lov@@ 14
medal 14
minister 14
minutes 14
mob@@ 14
models 14
multi 14
musi@@ 14
necessary 14
nun 14
occup@@ 14
oke 14
ole@@ 14
olis 14
ollar 14
onder@@ 14
online 14
open@@ 14
orium 14
oting 14
ought 14
owned 14
passed 14
pay 14
plan 14
poration 14
pow@@ 14
priv@@ 14
programm@@ 14
qualif@@ 14
recent 14
regist@@ 14
replaced 14
round@@ 14
secre@@ 14
sense 14
setting 14
sho@@ 14
situated 14
sla@@ 14
specific@@ 14
speech 14
sports 14
stant@@ 14
stated 14
tag 14
tak@@ 14
tary 14
temper@@ 14
thur 14
tier 14
tified 14
tiful 14
travel@@ 14
twice 14
ulty 14
umental 14
variety 14
veget@@ 14
warf 14
whether 14
writers 14
ywood 14
zum@@ 14
© 14
¶ 14
Î@@ 14
Ø 14
ơ@@ 14
ɑ 14
ɡ 14
с 14
х 14
ֵ@@ 14
ז@@ 14
ॻ@@ 14
ਭ@@ 14
੍ 14
અ@@ 14
ି 14
ం 14
ಣ@@ 14
ಪ 14
ಳ@@ 14
ಶ 14
റ@@ 14
ะ@@ 14
လ@@ 14
ီ@@ 14
ᱟ@@ 14
ṅ@@ 14
♦ 14
三@@ 14
和@@ 14
市 14
西@@ 14
金@@ 14
ꯤ@@ 14
￱ 14
17th 13
1980s 13
3. 13
Alber@@ 13
Bec@@ 13
Benjamin 13
Brothers 13
Charlie 13
Cob@@ 13
Colon@@ 13
Command 13
DAP 13
Deutsch@@ 13
Deutsche 13
Dipl@@ 13
Eg@@ 13
Fame 13
Feder@@ 13
Ferdinand 13
Final 13
Finn@@ 13
Fle@@ 13
Gallery 13
Giovanni 13
Gordon 13
Gott@@ 13
Hamp@@ 13
Herbert 13
José 13
Jung@@ 13
Junior 13
Kil@@ 13
Lux@@ 13
Neb@@ 13
Phili@@ 13
Philipp@@ 13
Professional 13
Prop@@ 13
Protest@@ 13
Samuel 13
Schwar@@ 13
Scotland 13
Spanish 13
Spr@@ 13
Swiss 13
Tag 13
Tat@@ 13
Television 13
Thompson 13
Transport 13
Under 13
Walter 13
Yor@@ 13
abilities 13
acher 13
aches 13
address 13
adem@@ 13
advantage 13
advis@@ 13
agan 13
agric@@ 13
ahn@@ 13
allen 13
alo 13
already 13
appropri@@ 13
armed 13
arranged 13
asse 13
athlet@@ 13
attention 13
avoid 13
aying 13
battle 13
behind 13
big@@ 13
chant 13
claims 13
conqu@@ 13
consists 13
contains 13
counter 13
creation 13
crit@@ 13
custom@@ 13
deo 13
desc@@ 13
det 13
difficult 13
draw 13
earlier 13
educated 13
empha@@ 13
entered 13
entially 13
establish 13
etter 13
expanded 13
experience 13
falls 13
flight 13
foot 13
fully 13
fung@@ 13
für 13
gained 13
games 13
hen 13
ige 13
ights 13
ikan@@ 13
individuals 13
initial 13
itt 13
kat@@ 13
killed 13
kilomet@@ 13
label 13
ld 13
leg 13
lement 13
lon@@ 13
mainly 13
makes 13
married 13
minist@@ 13
missi@@ 13
mitt@@ 13
negoti@@ 13
nei@@ 13
nur@@ 13
observed 13
occasi@@ 13
olas 13
olo 13
oman 13
osed 13
osop@@ 13
oti@@ 13
ourney 13
paid 13
parties 13
plays 13
powers 13
praised 13
professional 13
protect 13
protection 13
province 13
question 13
rank 13
rator 13
reached 13
refer 13
refers 13
reform 13
reli@@ 13
represented 13
representing 13
riage 13
says 13
sever@@ 13
shaped 13
smaller 13
stand@@ 13
stars 13
sten@@ 13
substan@@ 13
successful 13
susp@@ 13
temp@@ 13
tempor@@ 13
tent@@ 13
tigen 13
tin 13
trau@@ 13
trol@@ 13
typically 13
ually 13
ufac@@ 13
umed 13
university 13
ups 13
uter 13
valley 13
voice 13
wand@@ 13
wick 13
widely 13
worldwide 13
Ç@@ 13
ë 13
ò 13
ù@@ 13
þ@@ 13
ɹ@@ 13
Σ 13
з 13
ё@@ 13
ׁ@@ 13
ד 13
ז 13
ע 13
ؤ@@ 13
ٹ 13
ު 13
ऺ@@ 13
ঘ@@ 13
ছ@@ 13
ਬ 13
ન 13
ભ@@ 13
સ@@ 13
ુ@@ 13
ହ@@ 13
எ@@ 13
ழ@@ 13
ట@@ 13
డ 13
హ@@ 13
ೂ@@ 13
ം@@ 13
ീ@@ 13
ൃ@@ 13
ම@@ 13
ස@@ 13
ු@@ 13
ด@@ 13
ล@@ 13
ཀ@@ 13
ན@@ 13
པ 13
စ@@ 13
ည 13
ა@@ 13
ម@@ 13
‑ 13
☉ 13
人@@ 13
天@@ 13
東@@ 13
海@@ 13
김@@ 13
 13
1,5 12
Afgh@@ 12
Alan 12
Americ@@ 12
Arti@@ 12
Bibli@@ 12
Camp 12
Career 12
Constitution 12
Director 12
Donald 12
Due 12
Ern@@ 12
Executive 12
Fam@@ 12
Form 12
Frank@@ 12
Girls 12
Govern@@ 12
Graham 12
Guar@@ 12
Haf@@ 12
Hear@@ 12
Helm@@ 12
Inform@@ 12
Kop@@ 12
Kri@@ 12
Leop@@ 12
Lit@@ 12
Lith@@ 12
Local 12
Mei@@ 12
Municip@@ 12
Nel@@ 12
Nich@@ 12
Norway 12
Ott@@ 12
Pac@@ 12
Pier@@ 12
Prime 12
Ric@@ 12
Ross 12
Russell 12
SPD 12
Stewart 12
Stro@@ 12
Symph@@ 12
Though 12
Thr@@ 12
Tokyo 12
Town 12
Urs@@ 12
achieved 12
actu@@ 12
actually 12
agers 12
ailing 12
alth 12
ammer 12
anian 12
appro@@ 12
approximately 12
archit@@ 12
artists 12
asion 12
associ@@ 12
atist@@ 12
bands 12
beg@@ 12
best@@ 12
beyond 12
boat 12
bott@@ 12
bour@@ 12
bul 12
burn 12
categ@@ 12
category 12
causes 12
choice 12
cht 12
church 12
clos@@ 12
club 12
commod@@ 12
concern@@ 12
conclu@@ 12
critic@@ 12
crow@@ 12
dah@@ 12
dance 12
deal 12
decre@@ 12
department 12
determined 12
did@@ 12
divers@@ 12
document@@ 12
eine 12
elimin@@ 12
ellow 12
emper@@ 12
enb@@ 12
equi@@ 12
equipment 12
estate 12
factory 12
fan@@ 12
fen@@ 12
ffer@@ 12
fighting 12
forman@@ 12
foundation 12
g. 12
gath@@ 12
goods 12
gor@@ 12
gradu@@ 12
high@@ 12
highly 12
iel 12
iff 12
igher 12
iko 12
industri@@ 12
ingham 12
inn 12
inside 12
issu@@ 12
itim@@ 12
jah@@ 12
joining 12
kap@@ 12
kri@@ 12
latter 12
lay 12
leaves 12
licens@@ 12
ls@@ 12
lying 12
marked 12
materi@@ 12
minute 12
mixed 12
motor@@ 12
offensive 12
offered 12
oldest 12
onders 12
ools 12
organisation 12
organiz@@ 12
outh 12
oz@@ 12
participated 12
planning 12
plot 12
portra@@ 12
posed 12
powerful 12
pper 12
presence 12
producing 12
proved 12
quite 12
rad 12
rang@@ 12
removed 12
responsi@@ 12
resul@@ 12
retur@@ 12
rez 12
rie@@ 12
ross 12
rt 12
sch 12
schools 12
screen 12
seconds 12
sent 12
shall 12
simply 12
ska 12
sod@@ 12
sold 12
something 12
spok@@ 12
sta@@ 12
staff 12
stations 12
stron@@ 12
stru@@ 12
tively 12
told 12
torate 12
track 12
trial 12
umes 12
unknown 12
utional 12
winners 12
zen@@ 12
î@@ 12
ġ@@ 12
Ÿ@@ 12
ά 12
κ 12
ώ@@ 12
г 12
ф@@ 12
ט@@ 12
خ 12
ھ 12
ނ@@ 12
ও 12
ਖ@@ 12
બ@@ 12
લ@@ 12
ଦ@@ 12
ର 12
ୋ@@ 12
త 12
భ@@ 12
ಟ 12
ೊ@@ 12
ല 12
ල@@ 12
ข@@ 12
ค@@ 12
ช@@ 12
ม 12
า 12
แ@@ 12
้ 12
ང@@ 12
တ 12
ე@@ 12
ស@@ 12
ῖ@@ 12
ℓ 12
∆ 12
∈ 12
ン 12
公@@ 12
山@@ 12
式@@ 12
日 12
道 12
🙏 12
Alf@@ 11
Atl@@ 11
Aug@@ 11
Bach@@ 11
Beck@@ 11
Chairman 11
Colomb@@ 11
Develop@@ 11
Die@@ 11
Duke 11
Dutch 11
Elem@@ 11
Fall@@ 11
Fon@@ 11
Gesellschaft 11
Hermann 11
Isl@@ 11
Johannes 11
Kaiser 11
Kim 11
Koh@@ 11
Las@@ 11
Luis 11
Medal 11
Motor@@ 11
Nev@@ 11
Peter@@ 11
Phi@@ 11
Racing 11
Rail@@ 11
Reb@@ 11
Refer@@ 11
Regional 11
Reserve 11
Roger 11
Rou@@ 11
Rudolf 11
Satur@@ 11
Sier@@ 11
Songs 11
Stein@@ 11
Stell@@ 11
Stephen 11
Sup@@ 11
Switzerland 11
Syst@@ 11
Tex@@ 11
Thro@@ 11
Trust 11
Turk@@ 11
WM 11
Walker 11
Wit@@ 11
aber 11
acker 11
administ@@ 11
adop@@ 11
advanced 11
advant@@ 11
advert@@ 11
agreed 11
angs@@ 11
annual 11
asch@@ 11
ations@@ 11
attrac@@ 11
atz 11
auer 11
auf@@ 11
aum 11
bann@@ 11
bek@@ 11
belong@@ 11
borough 11
bound 11
brand 11
busin@@ 11
centuries 11
chang@@ 11
chen@@ 11
cian 11
classes 11
coast@@ 11
comb@@ 11
contro@@ 11
dates 11
declar@@ 11
dens 11
drive 11
duty 11
eded 11
eili@@ 11
eld 11
elt@@ 11
ende 11
erc@@ 11
erial 11
erine 11
etime 11
ets@@ 11
exten@@ 11
extra 11
ferred 11
festival 11
fif@@ 11
fight 11
filled 11
fine 11
founded 11
frequently 11
getting 11
girls 11
gut 11
haps 11
hill 11
horn 11
hund@@ 11
husband 11
ials 11
ilfe 11
inning 11
innov@@ 11
inspired 11
instruc@@ 11
insur@@ 11
ircul@@ 11
ishment 11
istan 11
ition@@ 11
job 11
leadership 11
lived 11
lv@@ 11
maj@@ 11
managed 11
miles 11
miss@@ 11
necess@@ 11
nin@@ 11
obtained 11
ologie 11
olved 11
owa 11
owns 11
passengers 11
pen 11
percent 11
performed 11
pick@@ 11
planned 11
plans 11
polit@@ 11
present@@ 11
previous 11
prises 11
projects 11
propos@@ 11
providing 11
regarded 11
regional 11
rence 11
representative 11
royal 11
ruption 11
rying 11
safety 11
sche 11
scription 11
sei 11
session 11
sett@@ 11
showing 11
sidi@@ 11
smit@@ 11
speaking 11
stanz 11
stead 11
storm 11
success 11
survi@@ 11
symb@@ 11
trees 11
trop@@ 11
typ@@ 11
umen 11
uss 11
ussion 11
utn@@ 11
vie@@ 11
viewed 11
weather 11
week@@ 11
western 11
worked 11
xis 11
yers 11
zin 11
zur@@ 11
Ö 11
Österreich@@ 11
â 11
ɔ 11
ɕ@@ 11
ɛ 11
ʰ 11
ο 11
Ш@@ 11
ң 11
ә@@ 11
א 11
ۃ 11
ܪ@@ 11
ॠ 11
ॱ 11
খ 11
ঞ 11
থ@@ 11
ਚ@@ 11
ਧ@@ 11
ੁ 11
ੂ 11
છ@@ 11
ણ@@ 11
પ@@ 11
ર 11
િ@@ 11
ନ@@ 11
ீ@@ 11
ట 11
మ 11
ಡ 11
ജ@@ 11
ശ 11
ഷ 11
ഷ@@ 11
ഹ@@ 11
െ@@ 11
ൻ 11
ർ 11
ක@@ 11
ත@@ 11
ය 11
น 11
ဒ@@ 11
မ 11
រ 11
ᱚ@@ 11
↵ 11
る 11
ラ@@ 11
ル@@ 11
主@@ 11
京@@ 11
地@@ 11
家@@ 11
株@@ 11
武@@ 11
自@@ 11
의 11
이 11
인@@ 11
 11
1970s 10
Adam 10
Aff@@ 10
Alice 10
Anderson 10
Anthony 10
Anton@@ 10
Banglad@@ 10
Buck@@ 10
Bulgar@@ 10
Christmas 10
Colorado 10
Commun@@ 10
Davis 10
Der 10
Des 10
Descri@@ 10
Eich@@ 10
Exp@@ 10
Fall 10
Films 10
Fro@@ 10
Gel@@ 10
Hand 10
Hotel 10
Initiative 10
Ins@@ 10
Internationale 10
Interpre@@ 10
Italy 10
Iv@@ 10
Jacob 10
Jenn@@ 10
Jesus 10
Materi@@ 10
NCA@@ 10
Patrick 10
Pf@@ 10
Pod@@ 10
Pom@@ 10
Princ@@ 10
Rain@@ 10
Ral@@ 10
Republi@@ 10
Rest@@ 10
Saturday 10
Sax@@ 10
Schol@@ 10
Secretary 10
Span@@ 10
Stanley 10
Stars 10
Status 10
Stu@@ 10
Summer 10
Victoria 10
Zi@@ 10
Zy@@ 10
achers 10
acked 10
actors 10
aders 10
administration 10
adult 10
affili@@ 10
ahn 10
aks 10
aler 10
allows 10
alls 10
alter@@ 10
alty 10
aner 10
ange 10
appearance 10
appeared 10
ark 10
association 10
aten 10
athl@@ 10
awarded 10
batt@@ 10
believe 10
bru@@ 10
carried 10
centre 10
chair 10
chall@@ 10
charges 10
cio 10
completely 10
consider@@ 10
contained 10
credited 10
d. 10
decision 10
dependent 10
determine 10
distinct 10
ditions 10
easily 10
editor 10
edly 10
ege 10
eld@@ 10
elected 10
elop@@ 10
ember 10
emen 10
employed 10
encour@@ 10
environmental 10
erst@@ 10
ested 10
eto 10
eventually 10
every@@ 10
exist@@ 10
famili@@ 10
families 10
fellow 10
ffen 10
film@@ 10
flat 10
flying 10
frag@@ 10
fted 10
genous 10
grand@@ 10
ground@@ 10
grounds 10
guar@@ 10
headed 10
helped 10
horse 10
ief 10
iff@@ 10
iled 10
illery 10
ilt 10
importance 10
impres@@ 10
influenced 10
inger@@ 10
inher@@ 10
initially 10
inter 10
ires 10
itage 10
kept 10
kom@@ 10
lav 10
len 10
lives 10
losses 10
magazine 10
males 10
mei@@ 10
morning 10
natur@@ 10
nine 10
notable 10
nur 10
ocese 10
ohn 10
onally 10
ongs 10
opposed 10
ordered 10
oul 10
ould 10
outs 10
oven 10
peak 10
police 10
poor 10
profit 10
protected 10
pub@@ 10
quick@@ 10
ral@@ 10
rants 10
reduced 10
rek@@ 10
relatively 10
remaining 10
remains 10
request 10
research@@ 10
restric@@ 10
returned 10
roll 10
rose 10
sburg 10
score 10
sections 10
shap@@ 10
shop 10
shot 10
sole 10
sport 10
stad@@ 10
stages 10
subsequently 10
taining 10
takes 10
teacher 10
theoret@@ 10
throughout 10
tives 10
tons 10
toral 10
touch@@ 10
trav@@ 10
tries 10
uer 10
ution@@ 10
veg@@ 10
vements 10
vice 10
weapons 10
wei 10
wen 10
wer 10
wo 10
ymn@@ 10
ynast@@ 10
Å 10
İ@@ 10
Ś@@ 10
ž@@ 10
ʀ@@ 10
ʔ@@ 10
̩ 10
ξ@@ 10
υ 10
ю@@ 10
ү@@ 10
ե@@ 10
ܐ 10
އ@@ 10
ު@@ 10
ং 10
ড@@ 10
থ 10
ਮ 10
ં 10
શ@@ 10
ஆ@@ 10
ఆ@@ 10
శ 10
ొ@@ 10
ಣ 10
ಯ 10
ഗ@@ 10
യ 10
ප@@ 10
ය@@ 10
ල 10
จ@@ 10
ต@@ 10
ห@@ 10
่ 10
က 10
ယ 10
အ@@ 10
ទ@@ 10
Ḥ@@ 10
ṅ 10
ả@@ 10
‡ 10
₂ 10
✔ 10
ル 10
上@@ 10
会@@ 10
寺 10
川 10
拳 10
法 10
田@@ 10
社 10
菠@@ 10
蘿@@ 10
阿@@ 10
院 10
ꯥ@@ 10
국@@ 10
대@@ 10
자 10
 10
️ 10
🌹 10
👉 10
Americans 9
Among 9
Angel@@ 9
Anna 9
Austria 9
Bei@@ 9
Biography 9
Bli@@ 9
Bob@@ 9
Bonn 9
Brazil 9
Brow@@ 9
Carol@@ 9
Christopher 9
Color@@ 9
Constit@@ 9
Cub@@ 9
Daily 9
Defense 9
Each 9
Following 9
Football 9
Fried@@ 9
Fru@@ 9
Gary 9
Glas@@ 9
Goth@@ 9
Hamilton 9
Hawai@@ 9
Hier@@ 9
Hochschule 9
Hub@@ 9
Individu@@ 9
Institut 9
Iran 9
Jack@@ 9
Jewish 9
Kamp@@ 9
Kno@@ 9
Kö@@ 9
Laur@@ 9
Mexico 9
Miss 9
Moscow 9
Murray 9
Nelson 9
Neu@@ 9
Now@@ 9
Oliver 9
Ontario 9
Ort@@ 9
Orthod@@ 9
Parliament 9
Place 9
Provin@@ 9
Rath@@ 9
Reich 9
Rio 9
Rose 9
Schmidt 9
Scot@@ 9
Sta@@ 9
Sz@@ 9
Tay@@ 9
Temp@@ 9
Theat@@ 9
Their 9
Thur@@ 9
Tok@@ 9
Toronto 9
Trin@@ 9
Trophy 9
Tür@@ 9
Vie@@ 9
Virginia 9
Winter@@ 9
Wolf 9
Wolfgang 9
ached 9
adel@@ 9
adj@@ 9
ago@@ 9
ahr 9
aked 9
alled 9
aller@@ 9
altar 9
ancest@@ 9
anders 9
anni 9
antly 9
arrived 9
assist 9
authorities 9
bec@@ 9
bor 9
bring 9
broke 9
bronze 9
brown 9
bt 9
buch 9
carry 9
census 9
chief 9
chur@@ 9
cident 9
combined 9
complet@@ 9
conducted 9
contributed 9
council 9
covered 9
cred@@ 9
crew 9
crimin@@ 9
criminal 9
designed 9
develop 9
developing 9
dienst 9
dings 9
doing 9
dorf 9
earned 9
einer 9
eira 9
els@@ 9
enced 9
enemy 9
ener 9
enjo@@ 9
eres 9
escap@@ 9
essed 9
ester 9
exerc@@ 9
expected 9
extension 9
fail@@ 9
fam@@ 9
favor@@ 9
feld 9
finally 9
flag 9
follow@@ 9
friends 9
help@@ 9
highway 9
hus@@ 9
icro@@ 9
ied@@ 9
ien@@ 9
iet 9
illion 9
images 9
income 9
install@@ 9
institutions 9
intended 9
isse 9
issued 9
items 9
iw@@ 9
join 9
kel 9
key@@ 9
kill 9
kol@@ 9
kshire 9
kund@@ 9
leader 9
leads 9
leaving 9
len@@ 9
lights 9
literary 9
loan 9
measures 9
mentioned 9
missed 9
mountain 9
musicians 9
nex@@ 9
novel 9
ociation 9
onto 9
onym@@ 9
opened 9
opening 9
organizations 9
organized 9
orig@@ 9
ounded 9
peace 9
pects 9
phia 9
platform 9
possibly 9
practi@@ 9
presented 9
previously 9
prior 9
prov@@ 9
quarters 9
recei@@ 9
recording 9
rei@@ 9
relati@@ 9
remained 9
reports 9
republi@@ 9
responsible 9
rough@@ 9
rum@@ 9
rö@@ 9
rü@@ 9
sales 9
sang 9
saying 9
sell 9
selling 9
signific@@ 9
singles 9
sion@@ 9
situation 9
six@@ 9
spr@@ 9
spring 9
sten 9
streng@@ 9
surname 9
tains 9
tennis 9
theast 9
there@@ 9
thers 9
things 9
tie 9
traffic 9
twenty 9
uz 9
venue 9
vier 9
visit 9
wig@@ 9
yland 9
youth 9
ystem 9
¹ 9
Æ@@ 9
ß 9
ô 9
ă 9
œ@@ 9
ǐ 9
ʁ 9
ˈ 9
͡ 9
Λ@@ 9
Φ@@ 9
ϕ 9
Ф@@ 9
Ч@@ 9
щ@@ 9
Қ@@ 9
ն@@ 9
ր@@ 9
ב 9
ة@@ 9
ّ 9
ٰ@@ 9
ީ@@ 9
ް 9
ऒ 9
ৈ@@ 9
ਦ 9
ੇ 9
આ@@ 9
ો 9
କ 9
ଗ@@ 9
ଦ 9
ପ@@ 9
ଳ 9
ச 9
ற 9
ஷ 9
ூ@@ 9
ణ 9
ವ 9
ണ 9
റ 9
ව@@ 9
ේ@@ 9
ວ@@ 9
ྩ@@ 9
ត 9
ន 9
ᱨ@@ 9
ḷ@@ 9
ệ@@ 9
⋅ 9
ⵉ@@ 9
ジ@@ 9
ス@@ 9
七@@ 9
世@@ 9
京 9
包 9
周@@ 9
島 9
文 9
方 9
東 9
河 9
治@@ 9
고@@ 9
민@@ 9
이@@ 9
치 9
ﺍ@@ 9
ﻟ@@ 9
𐩖 9
𝐞@@ 9
5. 8
Aar@@ 8
Admiral 8
Adolf 8
Ann 8
Antonio 8
Apost@@ 8
Are@@ 8
Arn@@ 8
Auto 8
Baron 8
Berlin 8
Bernard 8
Between 8
Bill@@ 8
Bob 8
Both 8
Brian 8
Camer@@ 8
Captain 8
Chron@@ 8
Clark 8
Commander 8
Community 8
Democratic 8
Deputy 8
Diet@@ 8
Dublin 8
Engel@@ 8
Eric 8
Fern@@ 8
Fili@@ 8
Francisco 8
Georgia 8
Got@@ 8
Governor 8
Graf@@ 8
Greece 8
Hann@@ 8
Hau@@ 8
Haus@@ 8
Hob@@ 8
Horn@@ 8
Independent 8
Irish 8
Jakob 8
Jane 8
Jersey 8
Joh@@ 8
Jordan 8
Journ@@ 8
Kant@@ 8
Kast@@ 8
Kirch@@ 8
Knight 8
Kre@@ 8
Kro@@ 8
Kub@@ 8
Lady 8
Legislative 8
Leh@@ 8
Ludwig 8
Manchester 8
Mann 8
Marshall 8
Massachusetts 8
Metro@@ 8
Metropolitan 8
Moder@@ 8
Nass@@ 8
Ober@@ 8
Osc@@ 8
Ost@@ 8
Park@@ 8
Pennsylvania 8
Places 8
Poland 8
Pop@@ 8
Premier 8
Prix 8
Professor 8
Puer@@ 8
Rac@@ 8
Rome 8
Ron@@ 8
Sek@@ 8
Senior 8
Several 8
Sieg@@ 8
Sonn@@ 8
Sport 8
Texas 8
Text@@ 8
Tony 8
Von 8
Wein@@ 8
Woh@@ 8
abinet 8
academ@@ 8
accepted 8
adopted 8
advoc@@ 8
ael 8
agre@@ 8
aille 8
ainst 8
aired 8
airport 8
album 8
alen 8
alif@@ 8
allel 8
allery 8
angel@@ 8
apart@@ 8
appears 8
asked 8
assador 8
assigned 8
assumed 8
attacks 8
atz@@ 8
aup@@ 8
ayne 8
begins 8
berger 8
brit@@ 8
butions 8
castle 8
caus@@ 8
ceremony 8
citi@@ 8
cker@@ 8
cky 8
clim@@ 8
composer 8
constituency 8
contemporary 8
continue 8
contrast 8
contributions 8
couple 8
courses 8
cow 8
creating 8
deos 8
depic@@ 8
describes 8
destro@@ 8
dies@@ 8
director 8
driver 8
duce 8
ead 8
earliest 8
ece 8
eff 8
egen 8
eir 8
elf 8
ellen@@ 8
ellow@@ 8
eln 8
endor@@ 8
executive 8
extensive 8
extre@@ 8
facil@@ 8
facilities 8
floor 8
formerly 8
fought 8
fres@@ 8
gend@@ 8
gregation 8
guns 8
haf@@ 8
heard 8
identified 8
improve 8
ingen 8
inners 8
inson 8
istische 8
itals 8
itar 8
joined 8
journal 8
killing 8
leh@@ 8
lei 8
lich 8
lie@@ 8
maintained 8
majority 8
massi@@ 8
meters 8
mitted 8
moder@@ 8
mostly 8
neigh@@ 8
newspaper 8
nier 8
occurs 8
offers 8
offs 8
opping 8
opul@@ 8
oundtrack 8
owner 8
passing 8
performing 8
pie@@ 8
ploy@@ 8
poss@@ 8
presents 8
prevent 8
pris@@ 8
programme 8
prom@@ 8
protein 8
quickly 8
raised 8
rats 8
reaching 8
reasons 8
recover@@ 8
reduce 8
reign 8
relation@@ 8
rem 8
remov@@ 8
resources 8
respectively 8
rict 8
rural 8
schule 8
seems 8
serious 8
serving 8
settlement 8
sister 8
situ@@ 8
sixth 8
solo 8
spent 8
split 8
sponsor@@ 8
spra@@ 8
starting 8
strike 8
successfully 8
surround@@ 8
target 8
tend 8
threat@@ 8
tour 8
tower 8
trag@@ 8
treat@@ 8
typical 8
ught 8
ungs 8
urban 8
uries 8
urop@@ 8
victi@@ 8
view@@ 8
vor 8
where@@ 8
winner 8
ä 8
än@@ 8
ön@@ 8
š 8
ʱ 8
Α 8
Β@@ 8
Γ 8
Ι@@ 8
Ν@@ 8
χ 8
Я@@ 8
ъ 8
є@@ 8
ј@@ 8
ի@@ 8
յ@@ 8
ո@@ 8
ש 8
ْ 8
ڠ@@ 8
ܘ@@ 8
ލ@@ 8
ऌ 8
ৈ 8
ৱ 8
ਜ 8
ੇ@@ 8
ੋ 8
ଙ 8
ତ 8
ଭ@@ 8
ଶ 8
ଷ 8
ୀ 8
ୁ 8
ୟ 8
ொ@@ 8
ణ@@ 8
ష 8
ీ 8
ಗ 8
ಮ 8
ಷ 8
ങ 8
ള 8
ർ@@ 8
ൽ 8
න 8
න@@ 8
ා 8
ป@@ 8
ร 8
ນ 8
ັ@@ 8
ཙ@@ 8
ླ@@ 8
ူ@@ 8
ლ@@ 8
ᱵ@@ 8
ḥ 8
ῆ@@ 8
₩ 8
∂ 8
⏩ 8
✍ 8
ア@@ 8
ク@@ 8
コ@@ 8
ト@@ 8
バ@@ 8
レ@@ 8
会 8
光@@ 8
区 8
华@@ 8
司 8
名@@ 8
國 8
方@@ 8
清@@ 8
白@@ 8
皇 8
藩 8
部 8
국 8
성@@ 8
ﺎ@@ 8
： 8
1950s 7
4. 7
Afri@@ 7
Afric@@ 7
Allen 7
Alli@@ 7
Amsterdam 7
Andreas 7
Arena 7
Arnold 7
Aus@@ 7
Austin 7
Basel 7
Before 7
Berg@@ 7
Bern 7
Brad@@ 7
Bres@@ 7
Chall@@ 7
Charl@@ 7
Chicago 7
Columb@@ 7
Corps 7
Cow@@ 7
DDR 7
Davi@@ 7
Dod@@ 7
Eag@@ 7
Earl 7
Eh@@ 7
Eis@@ 7
Found@@ 7
Franklin 7
Franz 7
Frei@@ 7
Fritz 7
Fut@@ 7
Georg 7
Griff@@ 7
Gusta@@ 7
Gö@@ 7
Heart 7
Hof@@ 7
Hoh@@ 7
Hud@@ 7
Initi@@ 7
Islam@@ 7
Ital@@ 7
Itali@@ 7
Johnny 7
Kenn@@ 7
Kevin 7
Kinder@@ 7
Klein@@ 7
Leb@@ 7
Los 7
Magazine 7
Mayor 7
Metro 7
Michigan 7
Minist@@ 7
Moore 7
National@@ 7
Netherlands 7
Person 7
Philippines 7
Pop 7
Position 7
Qualif@@ 7
Rech@@ 7
Rei@@ 7
Rid@@ 7
Sebastian 7
Seh@@ 7
Sei@@ 7
Senate 7
Silver 7
Slov@@ 7
Spor@@ 7
Stadium 7
Staf@@ 7
Stand 7
Stern@@ 7
Taiwan 7
Tor 7
Turkish 7
Turn@@ 7
Universität 7
Vancouver 7
Verb@@ 7
Vog@@ 7
Wag@@ 7
Week 7
Werner 7
Wien 7
Wir@@ 7
abri@@ 7
accused 7
advance 7
agency 7
agricultural 7
ahl@@ 7
althy 7
ambigu@@ 7
argued 7
artist 7
aths 7
attempted 7
author@@ 7
autob@@ 7
avail@@ 7
banks 7
basi@@ 7
bass 7
bered 7
bishop 7
blu@@ 7
bottom 7
brothers 7
budget 7
campaign 7
championship 7
coach 7
comedy 7
concluded 7
conference 7
confirmed 7
construc@@ 7
defense 7
demokrat@@ 7
dene 7
dges 7
dinal 7
distingu@@ 7
ditionally 7
documents 7
dram@@ 7
drew 7
eger 7
eks 7
emann 7
enab@@ 7
enburg 7
ennis 7
entur@@ 7
enz 7
erie 7
ever@@ 7
faced 7
facility 7
fig@@ 7
fired 7
foun@@ 7
funds 7
gender 7
gesellschaft 7
gew@@ 7
girl 7
governor 7
great@@ 7
hardt 7
heads 7
homes 7
honor 7
igan 7
igh 7
ilit@@ 7
immig@@ 7
improved 7
increasing 7
installed 7
internation@@ 7
interview 7
involved 7
isl@@ 7
ival 7
jected 7
jing 7
largely 7
leave 7
looking 7
losing 7
manufac@@ 7
merged 7
municipality 7
near@@ 7
neighbor@@ 7
notably 7
occupied 7
officers 7
officially 7
oll 7
oper 7
oppos@@ 7
opposition 7
orf 7
otz 7
ourn@@ 7
owski 7
passi@@ 7
performances 7
pop 7
ppen 7
president 7
primarily 7
provin@@ 7
publication 7
purchase 7
rail 7
rank@@ 7
recently 7
relev@@ 7
religi@@ 7
rell 7
retained 7
revealed 7
ritten 7
rug@@ 7
scene 7
scheduled 7
scienti@@ 7
sculp@@ 7
secretary 7
skills 7
slightly 7
slow@@ 7
soldiers 7
stating 7
stay 7
suggested 7
summer 7
temporary 7
theater 7
theatre 7
theme 7
thwest 7
titled 7
toward 7
treated 7
tung 7
ultimately 7
ultur@@ 7
ushed 7
versy 7
visions 7
wealth 7
weap@@ 7
wed@@ 7
woo@@ 7
wth 7
zur 7
 7
À@@ 7
Ó 7
Õ@@ 7
öl@@ 7
ür@@ 7
Ō@@ 7
ǔ 7
ɨ@@ 7
ʒ 7
ʔ 7
˜ 7
̀ 7
Γ@@ 7
Θ@@ 7
Φ 7
Ц@@ 7
і 7
ғ@@ 7
ו 7
ئ 7
ٔ 7
ڌ@@ 7
ܐ@@ 7
ް@@ 7
ॄ 7
ঠ@@ 7
ৱ@@ 7
ਟ@@ 7
ਡ@@ 7
ੈ 7
ત 7
ૂ@@ 7
ଉ@@ 7
ଚ@@ 7
ଣ 7
ଳ@@ 7
ୀ@@ 7
େ 7
ప 7
ై@@ 7
ಉ@@ 7
ಧ@@ 7
ಷ@@ 7
ಸ 7
ಾ 7
ദ 7
ധ@@ 7
സ 7
ද@@ 7
බ@@ 7
හ@@ 7
ී 7
ภ@@ 7
ย 7
์ 7
ງ 7
ཁ 7
ཕ@@ 7
ཞ@@ 7
ཡ@@ 7
ྗ@@ 7
ྷ@@ 7
ဘ@@ 7
ဝ@@ 7
ံ@@ 7
ი 7
ប@@ 7
ម 7
វ@@ 7
័ 7
ầ@@ 7
Ἰ@@ 7
ὐ@@ 7
‰ 7
∇ 7
⊕ 7
☆ 7
い@@ 7
う 7
か@@ 7
ん 7
エ@@ 7
グ@@ 7
デ@@ 7
メ@@ 7
中 7
事@@ 7
五@@ 7
共@@ 7
内@@ 7
大 7
女 7
学@@ 7
安@@ 7
帝@@ 7
平@@ 7
明 7
松@@ 7
特@@ 7
百@@ 7
石@@ 7
空@@ 7
豆@@ 7
軍 7
銀@@ 7
陀@@ 7
ꠣ@@ 7
ꯁ@@ 7
ꯂ@@ 7
강@@ 7
동@@ 7
리@@ 7
부@@ 7
성 7
에 7
전 7
정@@ 7
조@@ 7
주@@ 7
6. 6
Adams 6
Bachelor 6
Baden 6
Bar 6
Beat@@ 6
Bog@@ 6
Born 6
Brie@@ 6
Broadway 6
Challenge 6
Chic@@ 6
Communist 6
Confeder@@ 6
Dall@@ 6
Dave 6
Dean 6
Depart@@ 6
Diego 6
Dok@@ 6
Draft 6
Dut@@ 6
Europa 6
Expedition 6
Fak@@ 6
Freder@@ 6
Frit@@ 6
Geb@@ 6
Geh@@ 6
General@@ 6
Guard 6
Harvard 6
Heinz 6
Herz@@ 6
Jerusalem 6
Jimmy 6
John@@ 6
Kev@@ 6
Kriegs@@ 6
Labor 6
Labour 6
Lane 6
Leipzig 6
Lieutenant 6
Liz@@ 6
Louisiana 6
Mass@@ 6
Metal 6
Milli@@ 6
Muh@@ 6
Native 6
Once 6
Pope 6
Portugal 6
Portugu@@ 6
Portuguese 6
Probl@@ 6
Puerto 6
Ring@@ 6
Rit@@ 6
Schl@@ 6
Single 6
Spain 6
Start 6
Steve 6
Stol@@ 6
Sweden 6
Tenn@@ 6
Thailand 6
Theater 6
Them@@ 6
Track 6
Turkey 6
Viet@@ 6
Virgin@@ 6
Volk@@ 6
Vor@@ 6
Wagner 6
Wies@@ 6
Zul@@ 6
Zw@@ 6
aband@@ 6
abin@@ 6
accep@@ 6
accommod@@ 6
accompan@@ 6
acht 6
adrat@@ 6
affected 6
ahead 6
aill@@ 6
akti@@ 6
amm 6
amoun@@ 6
aper 6
appen 6
arri@@ 6
atik 6
attended 6
aub@@ 6
ausen 6
bach@@ 6
bei@@ 6
bring@@ 6
buted 6
calling 6
calls 6
canc@@ 6
captured 6
causing 6
chester 6
child@@ 6
cke 6
closely 6
coast 6
comic 6
concert 6
conflic@@ 6
conom@@ 6
consisted 6
contr@@ 6
costs 6
crime 6
desig@@ 6
design@@ 6
designs 6
destroyed 6
deter@@ 6
dez 6
distributed 6
districts 6
dner 6
dropped 6
easi@@ 6
eis 6
emal@@ 6
emed 6
enda 6
enson 6
erb@@ 6
eren 6
ergy 6
establishment 6
estic 6
ething 6
ethnic 6
etter@@ 6
expan@@ 6
featuring 6
feder@@ 6
fei@@ 6
fell 6
felt 6
fest 6
football 6
forts 6
fs@@ 6
hall 6
heb@@ 6
heimer 6
historian 6
hosts 6
houses 6
hung 6
iger@@ 6
illustr@@ 6
immedi@@ 6
immer 6
incorporated 6
introduction 6
invited 6
isches 6
iste 6
itzer 6
iven 6
izi@@ 6
jet@@ 6
kra@@ 6
laun@@ 6
launch 6
league 6
liche 6
lig 6
lose 6
loyd 6
lung 6
meant 6
mining 6
mist@@ 6
nd 6
nearby 6
nie 6
nis@@ 6
obs 6
ocial 6
oft 6
opped 6
ording 6
orie 6
osoph@@ 6
ovo 6
pion@@ 6
poses 6
pover@@ 6
ppe 6
premi@@ 6
prising 6
probably 6
proce@@ 6
professor 6
proposed 6
qualified 6
races 6
ranked 6
reb@@ 6
receiving 6
refu@@ 6
rely 6
restor@@ 6
resulted 6
rison 6
route 6
ränk@@ 6
sam 6
seats 6
selves 6
senior 6
seventh 6
shared 6
showed 6
signing 6
simil@@ 6
sought 6
sportation 6
stood 6
suffer@@ 6
supporting 6
tainment 6
til 6
tions@@ 6
towns 6
tried 6
trying 6
ubli@@ 6
ummer 6
ungs@@ 6
visited 6
vocals 6
voted 6
wanted 6
west@@ 6
winter 6
wom@@ 6
workers 6
zens 6
zip 6
zir@@ 6
zw@@ 6
Â 6
ï 6
ög@@ 6
ül@@ 6
ć 6
Č@@ 6
ę@@ 6
ĩ@@ 6
ř 6
ş 6
ǒ@@ 6
ɲ@@ 6
ʋ@@ 6
ʲ 6
̯ 6
Ο@@ 6
ς@@ 6
ψ 6
ф 6
э 6
ї@@ 6
ص 6
ܟ@@ 6
ރ@@ 6
ި@@ 6
ঝ@@ 6
৳ 6
ਂ 6
ਇ 6
ਪ 6
દ 6
મ 6
ળ@@ 6
સ 6
ଓ 6
ଧ@@ 6
ଶ@@ 6
ୃ@@ 6
ୟ@@ 6
గ 6
శ@@ 6
స 6
ಆ@@ 6
ೀ 6
ೃ@@ 6
ജ 6
ബ@@ 6
ു 6
ග@@ 6
ජ@@ 6
ර 6
ශ 6
ก 6
ต 6
ษ@@ 6
ะ 6
ี 6
ี@@ 6
ไ@@ 6
ຈ@@ 6
ທ@@ 6
ເ@@ 6
ཚ@@ 6
འ 6
ཤ@@ 6
ྡ@@ 6
ྤ@@ 6
ვ@@ 6
ი@@ 6
ს@@ 6
ል 6
ል@@ 6
ክ@@ 6
ក@@ 6
ង 6
អ@@ 6
ᱢ@@ 6
ᱦ@@ 6
Ṣ@@ 6
ằ@@ 6
ộ@@ 6
ủ 6
ἄ@@ 6
ἰ@@ 6
ῥ@@ 6
‬ 6
℅ 6
○ 6
ⴰ 6
ⵎ@@ 6
ⵣ@@ 6
、 6
た@@ 6
と@@ 6
ん@@ 6
カ@@ 6
ス 6
ッ@@ 6
ナ@@ 6
ブ@@ 6
マ@@ 6
ロ@@ 6
・ 6
ー 6
仁 6
區 6
印@@ 6
孫@@ 6
富@@ 6
島@@ 6
手 6
摩@@ 6
星 6
有@@ 6
木 6
林 6
根@@ 6
江@@ 6
沖 6
派 6
湖 6
神@@ 6
經 6
美 6
華@@ 6
道@@ 6
陈@@ 6
高@@ 6
鳥@@ 6
黄@@ 6
龙 6
꫰ 6
개 6
기@@ 6
노@@ 6
반@@ 6
비@@ 6
사@@ 6
선 6
오@@ 6
전@@ 6
화@@ 6
ﺮ@@ 6
ﻣ@@ 6
） 6
🇮 6
🇳 6
🔺 6
1930s 5
Aber@@ 5
Akti@@ 5
Album 5
Amer@@ 5
Anton 5
Armen@@ 5
Autob@@ 5
Background 5
Bahn 5
Barcelona 5
Belgium 5
Ben 5
Benn@@ 5
Bernhard 5
Brand@@ 5
Brooklyn 5
Bruce 5
Burg@@ 5
Canadi@@ 5
Carlos 5
Charlotte 5
Chile 5
Christ 5
Clu@@ 5
Creek 5
Danish 5
Darm@@ 5
Den 5
Deutschen 5
Dich@@ 5
Douglas 5
Eck@@ 5
Edu@@ 5
Energ@@ 5
Engl@@ 5
Euro 5
Evangel@@ 5
Fabri@@ 5
Fach@@ 5
Fant@@ 5
Florida 5
Fot@@ 5
Frie@@ 5
Grab@@ 5
Grant 5
Grün@@ 5
Heidelberg 5
Hisp@@ 5
Holl@@ 5
Hugo 5
Iraq 5
Jaz@@ 5
Kelly 5
Klaus 5
Komm@@ 5
Kurt 5
Lanc@@ 5
Liberal 5
Lich@@ 5
Margaret 5
Meter 5
Mex@@ 5
Mike 5
Miner@@ 5
Minn@@ 5
Minnesota 5
Musli@@ 5
Müller 5
Nach@@ 5
Nick 5
Nomin@@ 5
Nord@@ 5
Norman 5
Oli@@ 5
Organis@@ 5
Oscar 5
Partei 5
Peru 5
Pittsburgh 5
Portland 5
Rau@@ 5
Reich@@ 5
Renn@@ 5
Restaur@@ 5
Richter 5
Río 5
Schu@@ 5
Season 5
Seb@@ 5
Secret@@ 5
Sozial@@ 5
Sport@@ 5
Start@@ 5
Stock@@ 5
Stur@@ 5
Sydney 5
Tages@@ 5
Tal 5
Tradition 5
Utah 5
Version 5
Vienna 5
Vietnam 5
Wes@@ 5
Witt@@ 5
Wolf@@ 5
Wur@@ 5
Zer@@ 5
abandoned 5
abs@@ 5
achen 5
aden 5
adron 5
agne 5
alition 5
alley 5
allowing 5
ampton 5
anger@@ 5
anl@@ 5
announ@@ 5
arina 5
atten@@ 5
atur 5
audience 5
bec 5
beck 5
bein@@ 5
besch@@ 5
bought 5
brecht 5
brig@@ 5
broadcast 5
brother 5
camp 5
caused 5
cerem@@ 5
cester 5
chairman 5
champion 5
chosen 5
chs 5
civili@@ 5
claim@@ 5
clubs 5
collected 5
communities 5
confir@@ 5
contem@@ 5
covering 5
cue 5
dating 5
debut 5
debuted 5
decor@@ 5
dential 5
depart@@ 5
didn 5
dien@@ 5
diffic@@ 5
dition 5
diverse 5
draft 5
driving 5
eals 5
eastern 5
ecting 5
effec@@ 5
effort 5
eim 5
engine@@ 5
enst@@ 5
entitled 5
environ@@ 5
episode 5
erer 5
erne 5
escape 5
establ@@ 5
eted 5
ethn@@ 5
eup 5
evangel@@ 5
experienced 5
extended 5
farm 5
fiction 5
figh@@ 5
finishing 5
firm 5
four@@ 5
führer 5
garten 5
gian 5
goals 5
guitar 5
habit@@ 5
halt 5
heit@@ 5
hired 5
historic 5
holding 5
hundred 5
ially 5
iges 5
immediately 5
immer@@ 5
incor@@ 5
infra@@ 5
interests 5
investigation 5
ischen 5
ischer 5
islands 5
ismus 5
isse@@ 5
ivalent 5
ivil@@ 5
ić 5
journalist 5
kamp@@ 5
kas 5
ken@@ 5
knowle@@ 5
lass 5
liament 5
lichen 5
lieb 5
loy@@ 5
lug 5
manager 5
menti@@ 5
mill 5
mina 5
municipal 5
museum 5
nen 5
newly 5
nitz 5
ober@@ 5
ographics 5
olds 5
ollen 5
opera 5
operates 5
ople 5
orary 5
oten 5
painting 5
partner 5
partnership 5
passes 5
patients 5
perform 5
pieces 5
possi@@ 5
ppi 5
preme 5
preser@@ 5
prison@@ 5
producer 5
provi@@ 5
purch@@ 5
pursu@@ 5
rand 5
reality 5
rebel@@ 5
receive 5
regarding 5
regularly 5
replace 5
reserve 5
roles 5
rugby 5
sale 5
schw@@ 5
scored 5
seat 5
settled 5
sevent@@ 5
sident 5
sie@@ 5
singer 5
some@@ 5
spann@@ 5
spro@@ 5
stadt 5
stands 5
starts 5
station@@ 5
stud@@ 5
stur@@ 5
subur@@ 5
sugge@@ 5
suit 5
suppor@@ 5
sylv@@ 5
tells 5
tens 5
tie@@ 5
tiger 5
tracks 5
trains 5
transferred 5
troops 5
tö@@ 5
u. 5
unter@@ 5
urg 5
urity 5
usin 5
usual 5
utz@@ 5
verg@@ 5
verl@@ 5
verm@@ 5
vern@@ 5
versions 5
vote 5
walls 5
wart 5
zant@@ 5
zin@@ 5
¯ 5
Î 5
å 5
ø 5
û@@ 5
ć@@ 5
ė 5
ǐ@@ 5
ɣ@@ 5
ɦ@@ 5
ɴ 5
ɾ 5
̥ 5
̪ 5
Θ 5
ό 5
В 5
п 5
ю 5
Ӏ 5
մ@@ 5
ն 5
տ@@ 5
ء@@ 5
ظ 5
ٍ 5
ڌ 5
ڑ@@ 5
ژ@@ 5
ڪ@@ 5
ހ@@ 5
ޙ@@ 5
ॼ 5
উ 5
ঙ@@ 5
ਂ@@ 5
ਇ@@ 5
ਉ@@ 5
ਖ 5
ਗ 5
ਣ@@ 5
ੈ@@ 5
ੌ@@ 5
ક 5
થ@@ 5
શ 5
૦@@ 5
૧@@ 5
ଁ 5
ଗ 5
ଜ@@ 5
ଡ 5
ଣ@@ 5
ଵ@@ 5
ସ 5
଼ 5
ே 5
ధ 5
బ 5
౹ 5
ಎ@@ 5
ಬ 5
ಳ 5
ೈ@@ 5
ೌ@@ 5
വ 5
ൾ 5
අ@@ 5
ක 5
ත 5
ด 5
ธ@@ 5
ห 5
ำ@@ 5
โ@@ 5
็ 5
ນ@@ 5
ຫ@@ 5
ອ@@ 5
ཇ@@ 5
ཏ@@ 5
ྐ@@ 5
ྣ@@ 5
စ 5
ထ@@ 5
ှ@@ 5
თ@@ 5
ნ@@ 5
რ@@ 5
ግ@@ 5
ក 5
ខ 5
ជ 5
ទ 5
ន@@ 5
ស 5
ី@@ 5
ុ@@ 5
ែ@@ 5
ậ@@ 5
ế@@ 5
ễ@@ 5
ệ 5
ị@@ 5
ộ 5
ớ@@ 5
ờ@@ 5
Ἀ@@ 5
ᾶ@@ 5
ῦ@@ 5
⁻ 5
™ 5
⊂ 5
ⵀ@@ 5
ⵍ@@ 5
。 5
す@@ 5
ま@@ 5
り 5
イ 5
キ@@ 5
ゴ@@ 5
シ@@ 5
セ@@ 5
タ@@ 5
チ@@ 5
テ@@ 5
ト 5
ド@@ 5
ビ@@ 5
モ@@ 5
不@@ 5
东@@ 5
信@@ 5
元 5
八@@ 5
切@@ 5
化@@ 5
原 5
县 5
合@@ 5
四@@ 5
園 5
外@@ 5
太@@ 5
安 5
定@@ 5
少@@ 5
巴@@ 5
帝 5
府 5
德 5
性@@ 5
朝 5
朱@@ 5
村 5
森 5
步@@ 5
武 5
水@@ 5
江 5
法@@ 5
海 5
王 5
班 5
理 5
理@@ 5
田 5
笛 5
羅@@ 5
義@@ 5
育@@ 5
記 5
語 5
谷@@ 5
貴@@ 5
農@@ 5
迦@@ 5
通@@ 5
重@@ 5
雪@@ 5
馬@@ 5
马@@ 5
ꯅ@@ 5
기 5
무@@ 5
박@@ 5
백@@ 5
복 5
삼@@ 5
애@@ 5
어 5
원@@ 5
의@@ 5
젓 5
지@@ 5
한 5
화 5
회@@ 5
 5
𝐚@@ 5
𝐭@@ 5
Adel@@ 4
Arbeit@@ 4
Barbar@@ 4
Basis 4
Billy 4
Bishop 4
Bowl 4
Brau@@ 4
Brigade 4
Brist@@ 4
Broo@@ 4
Bundes@@ 4
CDU 4
Californ@@ 4
Campbell 4
Chris 4
Christoph 4
Colonel 4
Dach@@ 4
Dallas 4
Defin@@ 4
Description 4
Edinburgh 4
Eduard 4
Ehr@@ 4
Feld@@ 4
Fig@@ 4
Fischer 4
Flag@@ 4
Flughafen 4
Formation 4
Francis@@ 4
Fü@@ 4
Geld@@ 4
Gerhard 4
Ges@@ 4
Grenz@@ 4
Gustav 4
Gut@@ 4
Gü@@ 4
Hart@@ 4
Ich 4
Illinois 4
Jackson 4
Jap@@ 4
Joachim 4
Johann@@ 4
Josep@@ 4
Julius 4
Kais@@ 4
Kent@@ 4
Kind@@ 4
Kommun@@ 4
Krist@@ 4
Kriti@@ 4
König@@ 4
Madrid 4
Mal 4
Margar@@ 4
Matth@@ 4
Montreal 4
Moun@@ 4
Neue 4
Nieder@@ 4
Olympi@@ 4
Pers@@ 4
Polish 4
Reichs@@ 4
Rek@@ 4
Represent@@ 4
Representatives 4
Robinson 4
Roth@@ 4
Round 4
Rö@@ 4
Sam 4
Schul@@ 4
Schw@@ 4
Sebast@@ 4
Sever@@ 4
Singap@@ 4
Stadi@@ 4
Stef@@ 4
Stev@@ 4
Strat@@ 4
Volks@@ 4
Wander@@ 4
Wash@@ 4
Well@@ 4
Wen@@ 4
Wer@@ 4
Wilhel@@ 4
Winter 4
Zeit@@ 4
Zeitschrift 4
acking 4
adjacent 4
administrative 4
afen 4
after@@ 4
alem 4
alien 4
amt 4
amt@@ 4
anist 4
apos@@ 4
appear@@ 4
argu@@ 4
asks 4
asons 4
assistant 4
ausch 4
austral@@ 4
bare 4
bau 4
bership 4
bibli@@ 4
bination 4
bly 4
bourne 4
brief 4
buch@@ 4
burgh 4
candidate 4
cars 4
charts 4
chise 4
collabor@@ 4
committed 4
compete 4
continues 4
covers 4
decade 4
deck 4
decl@@ 4
defeating 4
deutsch@@ 4
dig 4
edt 4
ehr@@ 4
eiro 4
eland 4
ensch@@ 4
entirely 4
epis@@ 4
erin 4
erium 4
exu@@ 4
featured 4
fern 4
focused 4
för@@ 4
gab@@ 4
gang 4
gau 4
geh@@ 4
gether 4
granted 4
gressi@@ 4
haus 4
headquarters 4
heavily 4
herr@@ 4
hockey 4
hof 4
hous@@ 4
households 4
housing 4
ht 4
imming 4
import@@ 4
inhabitants 4
innen 4
invasion 4
issance 4
isten 4
ivals 4
iversary 4
judge 4
kill@@ 4
koh@@ 4
kop@@ 4
kre@@ 4
kt 4
lage 4
laid 4
langu@@ 4
lau 4
liamentary 4
liches 4
lok@@ 4
lö@@ 4
mau@@ 4
mayor 4
milit@@ 4
modern@@ 4
mung 4
municip@@ 4
musician 4
nach@@ 4
nearly 4
neu@@ 4
neur 4
ob 4
occurred 4
oder 4
officer 4
officials 4
ograf@@ 4
onym 4
operate 4
opportunity 4
orchest@@ 4
originally 4
otte 4
owners 4
past@@ 4
permanent 4
personnel 4
pilot 4
poetry 4
politan 4
pool 4
previ@@ 4
prize 4
promin@@ 4
prominent 4
promot@@ 4
promote 4
promotion 4
publications 4
quarter@@ 4
record@@ 4
rei 4
rejected 4
rele@@ 4
residential 4
restaur@@ 4
reviews 4
richt 4
ricts 4
riff 4
roof 4
routes 4
schiff@@ 4
serves 4
sheim 4
short@@ 4
song@@ 4
sozial@@ 4
specifically 4
spiele 4
sport@@ 4
stadi@@ 4
stes 4
stores 4
strug@@ 4
strö@@ 4
studi@@ 4
succe@@ 4
sä@@ 4
tained 4
tau@@ 4
taught 4
tei@@ 4
thod@@ 4
turned 4
twelve 4
ults 4
unable 4
unte@@ 4
uren 4
vard 4
veter@@ 4
wagen 4
wald 4
wie@@ 4
wings 4
wish 4
witz 4
yond 4
youn@@ 4
zil 4
 4
¬ 4
µ 4
À 4
È 4
È@@ 4
Ì 4
Í@@ 4
Österreich 4
üh@@ 4
ün 4
ğ 4
ł 4
ń@@ 4
Ş@@ 4
Ż@@ 4
ǎ 4
ǔ@@ 4
Ǻ 4
ɜ@@ 4
ɫ@@ 4
ɯ@@ 4
ɵ@@ 4
ʃ 4
ʏ@@ 4
ʾ@@ 4
ʿ 4
̰ 4
Ά@@ 4
Λ 4
Ω@@ 4
ϊ@@ 4
Г 4
Н 4
С 4
Э@@ 4
ъ@@ 4
հ@@ 4
ր 4
ק 4
ً 4
ٌ 4
چ 4
ڈ@@ 4
ڑ 4
ژ 4
ڬ@@ 4
ܡ@@ 4
ބ@@ 4
ާ@@ 4
ऌ@@ 4
ॢ@@ 4
ॱ@@ 4
ॽ 4
ॿ 4
চ 4
ਣ 4
ਹ 4
ੜ 4
ટ@@ 4
ડ@@ 4
ય@@ 4
લ 4
િ 4
ૃ@@ 4
૨@@ 4
ଂ@@ 4
ଏ@@ 4
ପ 4
ମ 4
ଯ@@ 4
உ@@ 4
வ 4
ீ 4
ఉ@@ 4
ఎ@@ 4
ధ@@ 4
ళ@@ 4
వ 4
ై 4
ో 4
ಂ 4
ಥ 4
ഉ@@ 4
ച 4
ഛ@@ 4
ഞ@@ 4
ബ 4
ഭ@@ 4
ാ 4
ൊ@@ 4
ං@@ 4
ධ@@ 4
ු 4
ො@@ 4
ณ@@ 4
บ@@ 4
ศ@@ 4
อ 4
ื@@ 4
ຂ@@ 4
ດ 4
ດ@@ 4
ພ@@ 4
າ@@ 4
ྦ@@ 4
ྷ 4
ပ 4
ဖ@@ 4
ဟ@@ 4
ါ@@ 4
ខ@@ 4
គ@@ 4
ភ@@ 4
យ 4
យ@@ 4
ᱟ 4
ᱤ@@ 4
ḍ 4
ṇ 4
ẕ 4
ồ 4
ỹ 4
ἐ@@ 4
ἴ@@ 4
ὶ 4
ῶ@@ 4
‒ 4
‹ 4
※ 4
⁠ 4
⁰ 4
₣ 4
₨ 4
♯ 4
ⵖ@@ 4
ⵜ@@ 4
ⵢ@@ 4
が@@ 4
け@@ 4
た 4
ち@@ 4
ど@@ 4
み 4
み@@ 4
ク 4
コ 4
サ@@ 4
ョ@@ 4
リ@@ 4
之@@ 4
九@@ 4
二@@ 4
体@@ 4
佛@@ 4
倭 4
克@@ 4
党 4
兵 4
分 4
前@@ 4
功@@ 4
勾@@ 4
化 4
千@@ 4
卐 4
原@@ 4
取@@ 4
同@@ 4
唐@@ 4
夕 4
天 4
央@@ 4
子@@ 4
学 4
學 4
宗@@ 4
家 4
将@@ 4
岳 4
川@@ 4
州 4
州@@ 4
平 4
年 4
年@@ 4
度@@ 4
徳@@ 4
成@@ 4
族 4
族@@ 4
月 4
月@@ 4
木@@ 4
术@@ 4
林@@ 4
正@@ 4
民 4
無@@ 4
猜@@ 4
的@@ 4
盆 4
秋@@ 4
立@@ 4
第@@ 4
精@@ 4
総@@ 4
维@@ 4
罗@@ 4
羽@@ 4
者 4
股@@ 4
色@@ 4
花@@ 4
藏@@ 4
行 4
角 4
角@@ 4
読@@ 4
議@@ 4
路@@ 4
近@@ 4
郎 4
郭@@ 4
鎮@@ 4
青@@ 4
館 4
馆 4
騰 4
鴻@@ 4
龍 4
龙@@ 4
ꠘ@@ 4
ꯃ@@ 4
ꯇ@@ 4
ꯍ@@ 4
ꯦ@@ 4
관 4
나@@ 4
남@@ 4
도 4
도@@ 4
리 4
배@@ 4
사 4
삼 4
상@@ 4
선@@ 4
스@@ 4
시@@ 4
신@@ 4
아@@ 4
우@@ 4
일@@ 4
정 4
찌@@ 4
 4
ﺳ@@ 4
（ 4
𑐵@@ 4
𝐟@@ 4
Abitur 3
Amat@@ 3
Angeles 3
Athletic 3
Autor@@ 3
Avenue 3
Bach 3
Barbara 3
Basketball 3
Bek@@ 3
Berg 3
Berliner 3
Berufs@@ 3
Bew@@ 3
Blatt@@ 3
Blues 3
Brand 3
Bronze 3
Bö@@ 3
Bü@@ 3
Carolina 3
Connecticut 3
Czech 3
Detroit 3
Dies@@ 3
Disk@@ 3
Eber@@ 3
Elek@@ 3
Entw@@ 3
Erd@@ 3
Ere@@ 3
Fellow 3
Foll@@ 3
Frankfurt 3
Frau@@ 3
Frem@@ 3
Fren@@ 3
Geist@@ 3
Geschichte 3
Gle@@ 3
Große 3
Grund@@ 3
Halle 3
Harris 3
Herr@@ 3
Historic 3
Hitler 3
Hoff@@ 3
Hug@@ 3
Hungary 3
Hö@@ 3
Infra@@ 3
Internation@@ 3
Isra@@ 3
Israeli 3
Jes@@ 3
Jim 3
Josef 3
Jugend 3
Jür@@ 3
Kaiser@@ 3
Kansas 3
Kauf@@ 3
Kinder 3
Klin@@ 3
Kob@@ 3
Kommand@@ 3
Kup@@ 3
Label 3
Legisl@@ 3
Lew@@ 3
Lö@@ 3
Maine 3
Mehr@@ 3
Mens@@ 3
Milit@@ 3
Musik@@ 3
Nazi 3
Nord 3
Notable 3
Ohio 3
Oklahoma 3
Orchestra 3
Oregon 3
Origin@@ 3
Petersburg 3
Philipp 3
Philosophie 3
Plot 3
Politi@@ 3
Quebec 3
Rand 3
Regel 3
Repres@@ 3
Rhein 3
Route 3
Samm@@ 3
Schn@@ 3
Schnei@@ 3
Schwerpunkt 3
Schä@@ 3
Scottish 3
Serb@@ 3
Serge@@ 3
Singles 3
Spitz@@ 3
Spring@@ 3
Staat@@ 3
Stadt@@ 3
Stefan 3
Studi@@ 3
Stuttgart 3
Swedish 3
Sü@@ 3
Tanz@@ 3
Teams 3
Theodor 3
Theorie 3
Tier@@ 3
Tim 3
Tournament 3
Township 3
Unter@@ 3
Victor@@ 3
Villa 3
Viol@@ 3
Viz@@ 3
Wand@@ 3
Wels@@ 3
Wiener 3
Wirtschafts@@ 3
Wissenschaften 3
Württemberg 3
Zeal@@ 3
Zivil@@ 3
Zun@@ 3
Zürich 3
aben 3
acht@@ 3
actress 3
aily 3
aissance 3
ambiguation 3
anny 3
apolis 3
applic@@ 3
appointment 3
approved 3
aren 3
arre@@ 3
attached 3
auses 3
aware 3
bei 3
bell 3
bol@@ 3
broken 3
bst@@ 3
burg@@ 3
campus 3
captain 3
challeng@@ 3
champ@@ 3
chest@@ 3
chose 3
compan@@ 3
contest 3
corner 3
dass 3
deck@@ 3
deh@@ 3
demon@@ 3
deutschen 3
disambiguation 3
drama 3
drei 3
e. 3
ebru@@ 3
eher 3
eich@@ 3
eking 3
ekt@@ 3
elections 3
eler 3
ellen 3
emales 3
engaged 3
engers 3
enhagen 3
entin 3
entran@@ 3
entri@@ 3
eres@@ 3
erl@@ 3
etim@@ 3
etz 3
europ@@ 3
experi@@ 3
fabri@@ 3
federal 3
feld@@ 3
fen 3
fiz@@ 3
forn@@ 3
friend@@ 3
ften 3
funding 3
funk 3
gegen 3
gend 3
gow 3
graduated 3
habitat 3
haus@@ 3
heav@@ 3
hoch@@ 3
holm 3
hotel 3
household 3
iere 3
ilom@@ 3
inaug@@ 3
individu@@ 3
injured 3
interior 3
internationale 3
ions@@ 3
ipment 3
issen 3
issioner 3
itik 3
kei 3
lawyer 3
legen 3
liest 3
liga 3
locations 3
lyrics 3
maintain 3
mately 3
merk@@ 3
missions 3
murder 3
nationale 3
neighborhood 3
neu 3
nie@@ 3
nominated 3
occer 3
occur@@ 3
oden 3
opportun@@ 3
oren 3
othe@@ 3
parents 3
perman@@ 3
pf@@ 3
photograph@@ 3
piano 3
poet 3
profession@@ 3
provincial 3
purchased 3
racial 3
rag 3
reau 3
reception 3
rech@@ 3
refused 3
regi@@ 3
registered 3
reich 3
residence 3
resigned 3
returning 3
roads 3
rooms 3
rupp@@ 3
samm@@ 3
sched@@ 3
schedul@@ 3
schutz 3
second@@ 3
sees 3
sein@@ 3
sek@@ 3
sidents 3
soldi@@ 3
sprung 3
stadium 3
stag 3
stances 3
starred 3
staur@@ 3
streets 3
studied 3
studio 3
subsequent 3
surrounding 3
tere 3
theorie 3
tow@@ 3
trained 3
ughout 3
unbe@@ 3
utive 3
utz 3
vier@@ 3
wach@@ 3
wen@@ 3
werk@@ 3
wig 3
wins 3
wur@@ 3
zeit@@ 3
Æ 3
Ç 3
Ñ@@ 3
ß@@ 3
är 3
ío 3
ów 3
õ 3
õ@@ 3
üb@@ 3
ün@@ 3
ür 3
ütz@@ 3
þ 3
ÿ@@ 3
č 3
ė@@ 3
ń 3
ő@@ 3
ś 3
ɒ 3
ɕ 3
ɖ@@ 3
ɳ@@ 3
ɸ 3
ʑ@@ 3
ʕ@@ 3
ʼ@@ 3
ʾ 3
ˀ@@ 3
ˠ@@ 3
˧ 3
̄ 3
̞ 3
͟ 3
Β 3
Ζ@@ 3
Η@@ 3
Υ 3
Χ@@ 3
Ψ 3
ί 3
ξ 3
Д 3
Ж@@ 3
М 3
б 3
ж 3
ш 3
є 3
ѣ 3
қ 3
ҷ@@ 3
Ө@@ 3
Մ@@ 3
կ@@ 3
ց@@ 3
ּ 3
ח 3
ף 3
ץ 3
أ 3
ذ 3
ط 3
ً@@ 3
ٰ 3
ٽ@@ 3
ډ@@ 3
ڊ 3
ښ@@ 3
ڤ@@ 3
ۍ 3
ێ@@ 3
ې 3
ۓ 3
ܒ@@ 3
ܠ@@ 3
ܢ@@ 3
ܣ@@ 3
ކ@@ 3
ވ@@ 3
ފ@@ 3
ާ 3
ި 3
ެ 3
ެ@@ 3
ऻ@@ 3
ॹ@@ 3
ঢ@@ 3
ৎ 3
ਈ 3
ਘ@@ 3
ਟ 3
ਥ@@ 3
ਧ 3
ਵ 3
ઈ 3
ખ@@ 3
ચ@@ 3
ણ 3
ଇ 3
ଇ@@ 3
ଖ@@ 3
ଚ 3
ଟ@@ 3
ବ 3
ଲ 3
ୌ@@ 3
ஜ 3
ஷ@@ 3
జ 3
ళ 3
హ 3
ృ@@ 3
ే 3
ಘ@@ 3
ಜ 3
ಧ 3
ಭ@@ 3
ಹ 3
ആ@@ 3
ഇ@@ 3
എ@@ 3
ഝ@@ 3
ഞ 3
ഠ@@ 3
ഥ 3
ഥ@@ 3
ഴ@@ 3
ീ 3
ඩ@@ 3
ණ@@ 3
ව 3
ස 3
ළ@@ 3
ි 3
ෙ@@ 3
ุ 3
ງ@@ 3
ບ@@ 3
ລ@@ 3
ສ@@ 3
ະ 3
ະ@@ 3
ູ@@ 3
ຼ@@ 3
ຽ@@ 3
ཀ 3
ཉ@@ 3
ཊ 3
ཟ@@ 3
ཧ@@ 3
ཨ 3
ཨ@@ 3
ྙ@@ 3
ဂ@@ 3
ဇ@@ 3
ဗ@@ 3
ဲ 3
ံ 3
၊ 3
დ@@ 3
ო@@ 3
ት@@ 3
አ@@ 3
ᐃ@@ 3
ᓄ@@ 3
ᓇ@@ 3
ច@@ 3
ប 3
ព 3
ព@@ 3
ហ@@ 3
ឯ@@ 3
ិ@@ 3
េ@@ 3
ᱜ@@ 3
ᱠ@@ 3
ᱡ@@ 3
ᱮ@@ 3
ᱯ@@ 3
ᱷ@@ 3
ḏ@@ 3
ḫ@@ 3
ṁ@@ 3
ṃ@@ 3
ṣ 3
ṭ 3
ẓ@@ 3
ẩ@@ 3
ố@@ 3
ἡ@@ 3
ἱ@@ 3
Ὀ@@ 3
ὕ@@ 3
ὖ 3
ὰ 3
ὴ@@ 3
ὼ 3
‖ 3
„ 3
‪ 3
₆ 3
₫ 3
№ 3
∧ 3
│ 3
☬ 3
♙ 3
♟ 3
♠ 3
✓ 3
➡ 3
ⴽ@@ 3
ⵉ 3
ⵏ 3
ⵏ@@ 3
ⵓ@@ 3
ⵙ@@ 3
」 3
あ@@ 3
う@@ 3
お@@ 3
き 3
し 3
し@@ 3
て 3
な@@ 3
ゃ@@ 3
ら@@ 3
り@@ 3
わ@@ 3
ア 3
ィ@@ 3
オ@@ 3
ズ 3
タ 3
ド 3
ニ@@ 3
パ@@ 3
プ 3
ボ@@ 3
ミ@@ 3
ラ 3
リ 3
万@@ 3
乐@@ 3
互@@ 3
作@@ 3
傳@@ 3
全@@ 3
兩@@ 3
兵@@ 3
典 3
出@@ 3
加@@ 3
十@@ 3
半@@ 3
南 3
口 3
古@@ 3
台 3
台@@ 3
名 3
品@@ 3
唐 3
善 3
园 3
土@@ 3
在@@ 3
基@@ 3
夕@@ 3
太 3
夫@@ 3
奥@@ 3
婆@@ 3
字@@ 3
孙@@ 3
宋@@ 3
宮@@ 3
密@@ 3
尔 3
尼 3
尼@@ 3
居 3
岡 3
工@@ 3
常@@ 3
引@@ 3
忠@@ 3
愛 3
愛@@ 3
慶 3
憲@@ 3
战@@ 3
所 3
承@@ 3
拉@@ 3
振@@ 3
探@@ 3
支@@ 3
政@@ 3
教 3
教@@ 3
新 3
星@@ 3
時@@ 3
朝@@ 3
柔@@ 3
柿@@ 3
校 3
楽 3
橋 3
機 3
歌 3
正 3
氏 3
汉 3
汉@@ 3
池 3
沢 3
沢@@ 3
泉 3
波@@ 3
洋 3
洛@@ 3
浦 3
淡@@ 3
港@@ 3
澤 3
然@@ 3
照 3
爭 3
爱@@ 3
物@@ 3
特 3
玉 3
玉@@ 3
王@@ 3
珍 3
球@@ 3
生 3
生@@ 3
用@@ 3
电@@ 3
画 3
界@@ 3
皇@@ 3
盧@@ 3
県 3
短@@ 3
社@@ 3
祭 3
秀@@ 3
科 3
空 3
章 3
竺@@ 3
米 3
米@@ 3
約 3
維@@ 3
经 3
羅 3
美@@ 3
能@@ 3
臣 3
航@@ 3
般@@ 3
英@@ 3
草@@ 3
萨@@ 3
蔵@@ 3
衆@@ 3
術 3
衛@@ 3
西 3
訓 3
諸@@ 3
象@@ 3
貨 3
赤@@ 3
银@@ 3
長@@ 3
門 3
関@@ 3
隠@@ 3
雄 3
集@@ 3
青 3
静@@ 3
革@@ 3
音 3
音@@ 3
风 3
香@@ 3
鬼@@ 3
黃@@ 3
ꜜ@@ 3
ꠟ@@ 3
ꠤ 3
ꯀ@@ 3
ꯄ@@ 3
ꯌ@@ 3
ꯏ@@ 3
ꯕ 3
ꯗ@@ 3
ꯡ 3
ꯨ 3
ꯩ@@ 3
가@@ 3
게@@ 3
고 3
공@@ 3
과 3
광@@ 3
금@@ 3
길@@ 3
녀 3
다 3
대 3
두@@ 3
로 3
만@@ 3
모 3
버@@ 3
부 3
산 3
석 3
설@@ 3
세@@ 3
스 3
안@@ 3
애 3
어@@ 3
여@@ 3
영@@ 3
온@@ 3
옷 3
원 3
은 3
은@@ 3
인 3
일 3
자@@ 3
장@@ 3
재@@ 3
주 3
지 3
진@@ 3
청@@ 3
치@@ 3
트@@ 3
하@@ 3
혜 3
ﺍ 3
ﺔ 3
ﻨ@@ 3
ﻼ@@ 3
￣ 3
𝐜@@ 3
𝐥@@ 3
𝐫 3
🏻 3
14. 2
17. 2
20. 2
9. 2
Alex 2
Alter@@ 2
Anf@@ 2
Argent@@ 2
Argentina 2
Arizona 2
Arkansas 2
Atlanta 2
Auf 2
Auf@@ 2
Aus 2
Ausgabe 2
Balti@@ 2
Baseball 2
Belgi@@ 2
Bem@@ 2
Best@@ 2
Boden 2
Brandenburg 2
Brasili@@ 2
Brenn@@ 2
Brü@@ 2
Brücke 2
Budap@@ 2
Buff@@ 2
Böh@@ 2
Bürger@@ 2
Carter 2
Chair@@ 2
Champions 2
Cleveland 2
Co. 2
Croati@@ 2
Damp@@ 2
Deut@@ 2
Divis@@ 2
Dollar 2
Dres@@ 2
Dresden 2
Ehren@@ 2
Ein 2
Emper@@ 2
Epis@@ 2
Er 2
Erz@@ 2
Famili@@ 2
Fein@@ 2
Fen@@ 2
Fest@@ 2
Feuer@@ 2
Firma 2
Frau 2
Fred 2
Freiburg 2
Freih@@ 2
Gesetz 2
Gesetz@@ 2
Gie@@ 2
Glasgow 2
Graf 2
Gruppe 2
Halb@@ 2
Handel 2
Hannover 2
Hein@@ 2
Hoch@@ 2
Holstein 2
Houston 2
Hungarian 2
Indiana 2
Ira@@ 2
Jazz 2
Jord@@ 2
Jugend@@ 2
Kamer@@ 2
Kampf@@ 2
Karlsru@@ 2
Kennedy 2
Kent 2
Kind 2
Kla@@ 2
Kle@@ 2
Klo@@ 2
Klu@@ 2
Kolon@@ 2
Kreis 2
Krieg@@ 2
Kron@@ 2
Kunst@@ 2
Köln 2
König 2
Las 2
Lincol@@ 2
Lincoln 2
Literatur 2
Liverpool 2
Louis@@ 2
Lü@@ 2
Mai 2
Matt 2
McC@@ 2
Meer 2
Mein@@ 2
Merk@@ 2
Minister@@ 2
Mississippi 2
Mitch@@ 2
Mittel@@ 2
Napole@@ 2
Neub@@ 2
Nur 2
Oblast 2
Officer 2
Orleans 2
Philadelphia 2
Preußen 2
Privat@@ 2
Queens@@ 2
Rechts@@ 2
Regim@@ 2
Regiment 2
Region@@ 2
Republican 2
Rez@@ 2
Rhein@@ 2
Rug@@ 2
Ruh@@ 2
Sarah 2
Schei@@ 2
Schleswig 2
Seattle 2
Seine 2
Sept@@ 2
Sich@@ 2
Sicher@@ 2
Situ@@ 2
Sov@@ 2
Sow@@ 2
Sprache 2
Stein 2
Strom@@ 2
Sunday 2
São 2
Tau@@ 2
Tie@@ 2
Trump 2
Ukraine 2
VID 2
Vater 2
Verk@@ 2
Wach@@ 2
Wald@@ 2
Wasser@@ 2
Wehr@@ 2
Welsh 2
Welt 2
Werke 2
Wider@@ 2
Wissen@@ 2
Würz@@ 2
Zentrum 2
Ziel@@ 2
abteilung 2
accompanied 2
affe 2
aide 2
akademie 2
aktiv@@ 2
andes 2
architect 2
arrested 2
asen 2
aska 2
assen 2
atorium 2
attacked 2
attemp@@ 2
attempts 2
auch 2
aust@@ 2
azine 2
bald 2
ben 2
besie@@ 2
bew@@ 2
bild 2
bildungs@@ 2
blatt 2
brie@@ 2
brun@@ 2
bst 2
build@@ 2
bung 2
buried 2
champion@@ 2
chs@@ 2
cil 2
collaboration 2
combat 2
commission 2
commissioned 2
copies 2
county 2
decades 2
deleg@@ 2
delivered 2
denburg 2
depar@@ 2
deploy@@ 2
deutsch 2
deutsche 2
doch 2
dopp@@ 2
eckl@@ 2
ehm@@ 2
eich 2
eils 2
eines 2
einige 2
eister 2
elor 2
enbach 2
enen 2
engineer 2
enheit 2
enrol@@ 2
enten@@ 2
episodes 2
erne@@ 2
ersch@@ 2
esen 2
essel@@ 2
essen 2
etimes 2
exhibition 2
fabrik 2
fahr@@ 2
fans 2
fleet 2
formally 2
forschung 2
furt 2
geg@@ 2
gements 2
genie@@ 2
gerä@@ 2
gig 2
heit 2
heits@@ 2
herz@@ 2
hio 2
hoh@@ 2
hosted 2
hte 2
hö@@ 2
iken 2
ilian 2
inne 2
inspi@@ 2
iring 2
issen@@ 2
itte@@ 2
ittle 2
itur 2
ived 2
jen@@ 2
junior 2
kau 2
kenn@@ 2
klin@@ 2
krieg 2
leav@@ 2
lern@@ 2
level@@ 2
licher 2
lichkeit 2
lige 2
ligen@@ 2
lightly 2
liner 2
lor 2
macht 2
mande@@ 2
mee 2
midt 2
nete 2
niss@@ 2
nten 2
obach@@ 2
oday 2
offices 2
ographie 2
ohl 2
olen 2
onen 2
onie 2
only@@ 2
operated 2
oren@@ 2
osen 2
oung 2
ouri 2
ouver@@ 2
participate 2
passenger 2
politician 2
politik 2
porary 2
power@@ 2
premier@@ 2
prison 2
probl@@ 2
proper@@ 2
punk@@ 2
quired 2
racing 2
rail@@ 2
ready 2
really 2
regel@@ 2
reiber 2
renz 2
residents 2
restling 2
reti@@ 2
ried 2
riere 2
riff@@ 2
ritt 2
russ@@ 2
rä@@ 2
scenes 2
schaft 2
schau 2
schen 2
schie@@ 2
schn@@ 2
schrif@@ 2
secon@@ 2
secret 2
seh@@ 2
sein 2
serie 2
sich 2
singing 2
sog@@ 2
spru@@ 2
squad 2
stif@@ 2
strah@@ 2
succeeded 2
tet 2
theastern 2
themati@@ 2
traff@@ 2
train@@ 2
transpor@@ 2
trip 2
turel@@ 2
ularly 2
ums@@ 2
ungen 2
utenant 2
utnant 2
uty 2
vehicles 2
verk@@ 2
versammlung 2
violence 2
vised 2
vom 2
votes 2
weil@@ 2
weis@@ 2
wend@@ 2
werk 2
wich@@ 2
wie 2
willi@@ 2
wissenschaften 2
woh@@ 2
wort 2
zei 2
zub@@ 2
 2
Ä@@ 2
Ê 2
Ó@@ 2
Õ 2
Þ@@ 2
ßen@@ 2
ären 2
ät@@ 2
î 2
öh@@ 2
öp@@ 2
öss@@ 2
öz@@ 2
û 2
üd@@ 2
üm@@ 2
ünd@@ 2
üss@@ 2
üt@@ 2
ą 2
ą@@ 2
Ē@@ 2
ę 2
ħ 2
ħ@@ 2
İ 2
ľ@@ 2
ņ@@ 2
ř@@ 2
Ţ@@ 2
ţ 2
ţ@@ 2
ũ@@ 2
Ū@@ 2
ŭ 2
Ź@@ 2
ż 2
ż@@ 2
Ə@@ 2
ơ 2
ǁ 2
ǁ@@ 2
ǒ 2
ɨ 2
ɲ 2
ɴ@@ 2
ɽ@@ 2
ʂ@@ 2
ʈ@@ 2
ʎ 2
ʙ 2
ʤ@@ 2
ʧ@@ 2
ʹ 2
ʼ 2
ˀ 2
ˤ@@ 2
˥ 2
˩ 2
̂ 2
̆ 2
̟ 2
̮ 2
Κ 2
Ν 2
Π 2
Υ@@ 2
ύ 2
ώ 2
Ϸ 2
К 2
О 2
Ф 2
Ю@@ 2
Я 2
ћ 2
ң@@ 2
Ա@@ 2
Ի@@ 2
Հ@@ 2
գ@@ 2
զ@@ 2
թ@@ 2
ի 2
լ 2
կ 2
ղ 2
շ@@ 2
ք 2
ֹ 2
־ 2
ׂ@@ 2
ן@@ 2
צ 2
ؒ 2
ى@@ 2
ٌ@@ 2
ټ@@ 2
ٽ 2
ځ@@ 2
ڈ 2
ڏ@@ 2
ڙ 2
ڙ@@ 2
ڻ@@ 2
ڼ 2
ۈ@@ 2
ە@@ 2
ܚ@@ 2
ܝ 2
ܟ 2
ܠ 2
ܢ 2
ܦ 2
ܫ@@ 2
ܵ@@ 2
ܹ 2
݁ 2
݂ 2
ރ 2
ސ@@ 2
ޑ@@ 2
ޤ@@ 2
ީ 2
ޭ@@ 2
ߊ 2
߬ 2
ॎ 2
ॾ 2
ঁ 2
এ 2
ঞ@@ 2
ঠ 2
ঢ 2
১@@ 2
৪ 2
৯@@ 2
ਆ 2
ਉ 2
ਏ 2
ਏ@@ 2
ਐ@@ 2
ਚ 2
ਫ@@ 2
ਯ@@ 2
ੜ@@ 2
੧ 2
ੰ 2
ઓ@@ 2
ઘ@@ 2
જ 2
ધ 2
ધ@@ 2
પ 2
ફ@@ 2
બ 2
ળ 2
વ 2
૦ 2
૧ 2
ଂ 2
ଆ 2
ଏ 2
ଓ@@ 2
ଖ 2
ଜ 2
ଞ 2
ଠ 2
ଡ@@ 2
ଢ 2
ଧ 2
ଫ@@ 2
ଵ 2
ଷ@@ 2
ୈ 2
ୋ 2
୩ 2
ୱ 2
ୱ@@ 2
ஃ@@ 2
ஈ@@ 2
ஐ 2
ஹ@@ 2
ோ 2
௫@@ 2
ఊ@@ 2
ఖ@@ 2
ఘ@@ 2
ಐ@@ 2
ಠ@@ 2
ഘ@@ 2
ങ@@ 2
ഡ@@ 2
ധ 2
ഫ@@ 2
െ 2
ൈ 2
ൈ@@ 2
ൗ@@ 2
ට@@ 2
ම 2
ෂ 2
හ 2
ී@@ 2
ේ 2
ญ@@ 2
ฐ@@ 2
ถ 2
ท 2
ศ 2
ิ 2
ู@@ 2
฿ 2
ປ@@ 2
ມ@@ 2
ແ@@ 2
້ 2
໌ 2
ཌ@@ 2
ཛ@@ 2
ཡ 2
ཱ 2
ཱ@@ 2
ྟ@@ 2
ྣ 2
ྨ 2
ྨ@@ 2
ྭ@@ 2
ྱ 2
င@@ 2
ဇ 2
ဓ@@ 2
ယ@@ 2
ဝ 2
အ 2
ဥ@@ 2
ီ 2
ေ 2
ဲ@@ 2
ြ 2
ွ 2
၆@@ 2
ბ@@ 2
ტ@@ 2
ქ@@ 2
შ@@ 2
ხ@@ 2
ሪ 2
ቀ@@ 2
ን@@ 2
ዕ@@ 2
ዝ 2
ያ 2
ᐊ@@ 2
ᑦ 2
ᑦ@@ 2
ᓗ@@ 2
ᓯ@@ 2
ᖅ 2
ជ@@ 2
ឌ@@ 2
ណ 2
ថ 2
ធ@@ 2
ល 2
ឥ@@ 2
ូ@@ 2
ៀ@@ 2
ោ@@ 2
ំ 2
ះ@@ 2
៊ 2
២ 2
᠎ 2
ᠢ@@ 2
ᠣ@@ 2
ᮔ 2
ᮝ@@ 2
ᮤ@@ 2
᮪ 2
ᱛ 2
ᱛ@@ 2
ᱤ 2
ᱩ@@ 2
ᱪ@@ 2
ᱱ@@ 2
ᱲ 2
ᱹ 2
ᵝ@@ 2
ḱ@@ 2
Ḳ@@ 2
ṉ@@ 2
Ṭ@@ 2
ṯ@@ 2
Ẓ@@ 2
ẳ@@ 2
ế 2
ề@@ 2
ọ@@ 2
ủ@@ 2
ứ@@ 2
ử@@ 2
ữ 2
ἁ@@ 2
Ἁ@@ 2
Ἔ@@ 2
ἤ@@ 2
Ἵ@@ 2
ὀ@@ 2
ὅ@@ 2
ῴ@@ 2
‛ 2
⁺ 2
ⁿ 2
ⁿ@@ 2
₃ 2
₤ 2
₭ 2
₮ 2
₱ 2
ℓ@@ 2
⅛ 2
∀ 2
∑ 2
⊖ 2
⋯ 2
⌈ 2
⌉ 2
⏑ 2
◌ 2
☂ 2
♔ 2
♕ 2
♖ 2
♗ 2
♘ 2
♚ 2
♛ 2
♜ 2
♝ 2
♞ 2
✒ 2
⬇ 2
ⴷ@@ 2
ⴻ@@ 2
ⴼ@@ 2
ⵔ@@ 2
ⵕ@@ 2
ⵜ 2
「 2
〜 2
が 2
さ@@ 2
な 2
に 2
ぼ@@ 2
や@@ 2
ょ@@ 2
ら 2
れ 2
ィ 2
ウ 2
ギ@@ 2
ケ@@ 2
ジ 2
ダ@@ 2
ヌ 2
ネ@@ 2
ハ@@ 2
ビ 2
ピ@@ 2
プ@@ 2
ベ@@ 2
ペ@@ 2
ュ@@ 2
ロ 2
ワ@@ 2
东 2
並@@ 2
个@@ 2
久@@ 2
义@@ 2
书@@ 2
乳 2
事 2
云 2
今@@ 2
代@@ 2
伟 2
传@@ 2
伯@@ 2
伽@@ 2
住@@ 2
佐@@ 2
何@@ 2
佛 2
使@@ 2
侯 2
侵@@ 2
保 2
保@@ 2
信 2
俣 2
偵 2
備@@ 2
元@@ 2
克 2
六@@ 2
关@@ 2
函@@ 2
列@@ 2
別@@ 2
刺@@ 2
力 2
动@@ 2
助 2
動 2
動@@ 2
務@@ 2
勝@@ 2
博@@ 2
友@@ 2
可@@ 2
史 2
史@@ 2
右@@ 2
合 2
君@@ 2
吴@@ 2
命 2
命@@ 2
商@@ 2
啟@@ 2
喇@@ 2
喜 2
嘉@@ 2
器@@ 2
團@@ 2
圣 2
圣@@ 2
地 2
坚 2
坡 2
域@@ 2
場 2
士 2
士@@ 2
夏@@ 2
多@@ 2
夜@@ 2
夫 2
奇 2
奇@@ 2
女@@ 2
妹 2
始@@ 2
姐@@ 2
姫 2
威@@ 2
娘 2
學@@ 2
宇 2
宗 2
宮 2
寒@@ 2
寶 2
寶@@ 2
寿@@ 2
尔@@ 2
尚@@ 2
局 2
屋 2
岐@@ 2
岛 2
崛@@ 2
巧@@ 2
巴 2
布@@ 2
席 2
幣 2
幸 2
幼@@ 2
广@@ 2
広@@ 2
庆 2
库@@ 2
府@@ 2
康 2
康@@ 2
廣@@ 2
式 2
強@@ 2
形@@ 2
彪 2
心 2
忍@@ 2
志@@ 2
思@@ 2
总@@ 2
悉@@ 2
情@@ 2
慕 2
我 2
戰@@ 2
戸@@ 2
手@@ 2
才 2
技@@ 2
拉 2
振 2
搏 2
擂@@ 2
攝@@ 2
改@@ 2
放@@ 2
散@@ 2
斌 2
昌 2
春@@ 2
昭 2
昭@@ 2
智 2
曲@@ 2
書@@ 2
曾@@ 2
杉@@ 2
杏 2
条@@ 2
杨@@ 2
果 2
枝 2
條@@ 2
棚@@ 2
業@@ 2
楮@@ 2
楽@@ 2
横@@ 2
樺@@ 2
歌@@ 2
步 2
歲 2
死 2
残@@ 2
比@@ 2
気@@ 2
水 2
沙@@ 2
沪 2
油@@ 2
泰 2
洞@@ 2
洲 2
流 2
浄@@ 2
浜@@ 2
淑@@ 2
済@@ 2
渓 2
港 2
湯@@ 2
满@@ 2
滴@@ 2
漫@@ 2
灣 2
灯@@ 2
熱@@ 2
燈@@ 2
爆@@ 2
牛 2
犯@@ 2
率 2
班@@ 2
現@@ 2
瑟 2
璠 2
瓶 2
由@@ 2
申 2
男@@ 2
町 2
界 2
異@@ 2
畿 2
發@@ 2
県@@ 2
真@@ 2
石 2
神 2
福 2
福@@ 2
科@@ 2
秦 2
竹@@ 2
算@@ 2
箱@@ 2
精 2
糯@@ 2
系 2
紀 2
紀@@ 2
紅@@ 2
索@@ 2
細@@ 2
経@@ 2
红@@ 2
约@@ 2
线 2
组@@ 2
绿 2
羊 2
義 2
老 2
肉@@ 2
臺@@ 2
良 2
良@@ 2
花 2
莫@@ 2
菩@@ 2
華 2
萬@@ 2
葉@@ 2
蒙 2
蔡@@ 2
薩 2
薩@@ 2
藤@@ 2
蘇@@ 2
處 2
行@@ 2
衣 2
表@@ 2
衫 2
袁@@ 2
解@@ 2
訓@@ 2
說@@ 2
説 2
謎 2
讖 2
诚 2
话 2
语 2
谜 2
谷 2
貝 2
赫@@ 2
走@@ 2
赵@@ 2
起 2
跋@@ 2
身 2
軍@@ 2
迅 2
运@@ 2
送@@ 2
遍@@ 2
遠@@ 2
都@@ 2
里@@ 2
野 2
野@@ 2
鈴@@ 2
錢 2
鍾@@ 2
長 2
門@@ 2
間@@ 2
関 2
閣@@ 2
间@@ 2
阪@@ 2
际@@ 2
限@@ 2
陳@@ 2
陽 2
際@@ 2
雄@@ 2
震 2
震@@ 2
霜 2
韩@@ 2
順 2
食@@ 2
駐@@ 2
髀@@ 2
體@@ 2
高 2
魯@@ 2
鲁@@ 2
鲜@@ 2
鲲 2
麻@@ 2
黑@@ 2
鼠 2
齊 2
齐@@ 2
龍@@ 2
ꠍ@@ 2
ꠐ@@ 2
ꠞ@@ 2
ꠣ 2
ꯃ 2
ꯄ 2
ꯊ@@ 2
ꯔ@@ 2
ꯝ@@ 2
ꯟ 2
ꯟ@@ 2
ꯡ@@ 2
ꯣ@@ 2
ꯤ 2
ꯨ@@ 2
개@@ 2
경@@ 2
공 2
관@@ 2
괴@@ 2
교 2
구@@ 2
글 2
나 2
날 2
내 2
내@@ 2
년 2
는 2
다@@ 2
당@@ 2
동 2
드@@ 2
들@@ 2
등@@ 2
띠 2
라 2
라@@ 2
레@@ 2
름@@ 2
면@@ 2
멸@@ 2
명@@ 2
문@@ 2
물@@ 2
미@@ 2
반 2
방@@ 2
보@@ 2
빛@@ 2
새@@ 2
생@@ 2
세 2
수@@ 2
시 2
식@@ 2
신 2
아 2
액@@ 2
양 2
없@@ 2
역 2
열@@ 2
왕@@ 2
위@@ 2
유 2
장 2
저@@ 2
제@@ 2
조 2
종@@ 2
천@@ 2
철@@ 2
추 2
퀴@@ 2
태@@ 2
톱 2
통@@ 2
투 2
학@@ 2
항@@ 2
해@@ 2
회 2
후@@ 2
 2
ﮔ@@ 2
ﮕ@@ 2
ﮨ@@ 2
ﺏ 2
ﺑ@@ 2
ﺓ 2
ﺘ@@ 2
ﺴ@@ 2
ﻌ@@ 2
ﻗ@@ 2
ﻜ@@ 2
ﻤ@@ 2
ﻦ 2
ﻭ@@ 2
ﻱ 2
ﻲ 2
ﻴ@@ 2
ﻹ@@ 2
～ 2
￷ 2
𐤁@@ 2
𐭓@@ 2
𐭕@@ 2
𑂢 2
𑂫@@ 2
𑂮@@ 2
𑂰@@ 2
𑐒@@ 2
𑐟@@ 2
𑐥@@ 2
𑑀@@ 2
𑑃 2
𑜫 2
𝐝 2
𝐦@@ 2
𝐨@@ 2
𝐭 2
𝐰@@ 2
𝝳@@ 2
🌸 2
🐜 2
💐 2
🚩 2
🜨 2
10. 1
12. 1
13. 1
15. 1
18. 1
19. 1
22. 1
25. 1
30. 1
7. 1
8. 1
Abs 1
Akademie 1
Alabama 1
Allgem@@ 1
Anschluss 1
Anzahl 1
Apri@@ 1
Atlan@@ 1
Aufbau 1
Aust@@ 1
Austri@@ 1
Austrian 1
Bahnhof 1
Baltimore 1
Beam@@ 1
Begriff 1
Beit@@ 1
Benj@@ 1
Beobach@@ 1
Besch@@ 1
Bild 1
Birmingham 1
Bischof 1
Bischof@@ 1
Bist@@ 1
Boot 1
Braz@@ 1
Brookl@@ 1
Brüder 1
Build@@ 1
Bundesliga 1
Bundesrepublik 1
Bundessta@@ 1
Burg 1
Büh@@ 1
Champion@@ 1
Charak@@ 1
Charts 1
Chor 1
Christop@@ 1
Dek@@ 1
Dem 1
Denk@@ 1
Denkmal@@ 1
Deutsch 1
Deutschlands 1
Dienst@@ 1
Drei@@ 1
Drit@@ 1
Départ@@ 1
Eben@@ 1
Eig@@ 1
Eine 1
Einsatz@@ 1
Elis@@ 1
Elisabeth 1
Ensem@@ 1
Essen 1
Fahr@@ 1
Fass@@ 1
Febru@@ 1
Feh@@ 1
Ferdin@@ 1
Fragen 1
Französ@@ 1
Freund 1
Friedens@@ 1
Funk@@ 1
Fußball 1
Führ@@ 1
Fün@@ 1
Für@@ 1
Fürst@@ 1
Gatt@@ 1
Gedenk@@ 1
Gedi@@ 1
Geg@@ 1
Gemein@@ 1
Geographie 1
Gesamt@@ 1
Gesch@@ 1
Gesund@@ 1
Gew@@ 1
Giov@@ 1
Gleich@@ 1
Gord@@ 1
Gottes@@ 1
Gouver@@ 1
Groß@@ 1
Grund 1
Gruppen@@ 1
Gut 1
Gymnasium 1
Gün@@ 1
Hamburg 1
Haupt@@ 1
Heil@@ 1
Heimat 1
Herren@@ 1
Herzog 1
Hessen 1
Himm@@ 1
Hockey 1
Holz@@ 1
Illin@@ 1
Infan@@ 1
Infantry 1
Iowa 1
Ire@@ 1
Jahre 1
Jahrhundert 1
Jahrzeh@@ 1
Joach@@ 1
Juni@@ 1
Kapit@@ 1
Kern@@ 1
Kirchen 1
Klasse 1
Kolle@@ 1
Kontak@@ 1
Kraft 1
Kraft@@ 1
Kritik 1
Kultur 1
Kultur@@ 1
Kunst 1
Königreich 1
Kü@@ 1
Landes 1
Landes@@ 1
Landkreis 1
Landtag 1
Lebens@@ 1
Lehr@@ 1
Licht@@ 1
Lied 1
Liga 1
Linc@@ 1
Länder@@ 1
Masch@@ 1
Material 1
Medien 1
Meister 1
Mensch@@ 1
Mexican 1
Misch@@ 1
Miss@@ 1
Missouri 1
Mitt@@ 1
Mühl@@ 1
München 1
Neben@@ 1
Nether@@ 1
Nicht 1
Niger@@ 1
Ont@@ 1
Orgel@@ 1
Ottoman 1
Panz@@ 1
Pfalz 1
Pfer@@ 1
Portug@@ 1
Premier@@ 1
Prior 1
Produk@@ 1
Produz@@ 1
Professi@@ 1
Projek@@ 1
Proz@@ 1
Queensland 1
Reception 1
Recht 1
Regel@@ 1
Regional@@ 1
Reit@@ 1
Ritter 1
Rolle 1
Rom 1
Rugby 1
Ryan 1
Saar@@ 1
Sachsen 1
Salzburg 1
Sammlung 1
Sankt 1
Schiff 1
Schiff@@ 1
Schles@@ 1
Schutz 1
Schutz@@ 1
Schwarz@@ 1
Schweizer 1
Schwer@@ 1
Sein 1
Serie 1
Sie 1
Silber@@ 1
Situation 1
Sommer@@ 1
Sonder@@ 1
Sozi@@ 1
Spann@@ 1
Spiel@@ 1
Spieler 1
Spitze 1
Sprach@@ 1
Sprachen 1
Squadron 1
Stad@@ 1
Stadt 1
Stadtt@@ 1
Stei@@ 1
Steuer@@ 1
Stiftung 1
Stim@@ 1
Stutt@@ 1
Städ@@ 1
Switz@@ 1
Süd@@ 1
Tage 1
Tennessee 1
Tief@@ 1
Tod 1
Tode 1
Trainer 1
Trau@@ 1
Tö@@ 1
Ukrainian 1
Um 1
Umgebung 1
Ungar@@ 1
Unternehmens@@ 1
Upon 1
Vanc@@ 1
Vene@@ 1
Verfügung 1
Verwaltung 1
Vier@@ 1
Vom 1
Wahr@@ 1
Wald 1
Wech@@ 1
Weg@@ 1
Weih@@ 1
Weltkrieg 1
Werk@@ 1
Wisconsin 1
Wrestling 1
Wun@@ 1
Wür@@ 1
Zahl@@ 1
Zeit 1
Zeiten 1
Zeitung 1
Zug@@ 1
Zur 1
Zus@@ 1
Zusammenh@@ 1
Zustand 1
Zwei@@ 1
Zweit@@ 1
Zwisch@@ 1
achten 1
affen 1
afri@@ 1
agement 1
agues 1
aison 1
aktion 1
aktu@@ 1
albums 1
alien@@ 1
aliforn@@ 1
alion 1
alte 1
alter 1
altung 1
angen@@ 1
anges@@ 1
anischen 1
annen 1
anstalt 1
anz 1
appoin@@ 1
arten 1
athol@@ 1
atre 1
atten 1
aturen 1
aturing 1
auf 1
azin 1
basketball 1
bedro@@ 1
bef@@ 1
beginn@@ 1
beha@@ 1
beiden 1
beit@@ 1
berech@@ 1
bereit@@ 1
berg@@ 1
bess@@ 1
betrieb 1
biet@@ 1
brau@@ 1
briefly 1
britann@@ 1
burger 1
bü@@ 1
bürger@@ 1
campaig@@ 1
candid@@ 1
chair@@ 1
champions 1
charac@@ 1
christ@@ 1
cht@@ 1
chte 1
chter 1
chter@@ 1
cipl@@ 1
commander 1
convic@@ 1
damaged 1
damit 1
daran 1
dau@@ 1
daugh@@ 1
dedic@@ 1
defe@@ 1
deliver@@ 1
demol@@ 1
denk@@ 1
designated 1
devel@@ 1
dieses 1
dige 1
dividu@@ 1
drit@@ 1
drück@@ 1
dung 1
ealed 1
eben 1
ehe 1
ehr 1
eile 1
eim@@ 1
einem 1
einen 1
einz@@ 1
eis@@ 1
employees 1
enden 1
endorf 1
enten 1
entrance 1
erische 1
erland 1
ernen 1
erst 1
erte 1
erw@@ 1
estab@@ 1
eten 1
etten 1
etten@@ 1
etwa 1
fak@@ 1
fallen 1
fang@@ 1
fass@@ 1
feh@@ 1
felder 1
fern@@ 1
finan@@ 1
finanz@@ 1
folge 1
folgt 1
forsch@@ 1
frei@@ 1
freie 1
funk@@ 1
furter 1
gab 1
gabe 1
gangs@@ 1
gegründeten 1
gem 1
gemein@@ 1
genöss@@ 1
gericht 1
gesetz 1
gesp@@ 1
grad 1
grew 1
großen 1
grund@@ 1
gruppe 1
gruppen 1
gte 1
guest 1
h. 1
halb 1
halten 1
hatte 1
haup@@ 1
hausen 1
hebung 1
heim@@ 1
herself 1
hinter 1
hof@@ 1
hre 1
hren 1
häuser 1
hör@@ 1
icht 1
icht@@ 1
ichte 1
ickl@@ 1
iddle 1
iden 1
ieder@@ 1
iegel 1
ieren 1
iert 1
ierte 1
igen 1
ilton 1
incorpor@@ 1
indung 1
inen 1
inge 1
ingt 1
intensi@@ 1
ischem 1
isierung 1
istischen 1
iten 1
itig 1
itsch 1
itä@@ 1
jazz 1
jek@@ 1
kirche 1
klasse 1
klin 1
kommen 1
krank@@ 1
kreis 1
kti@@ 1
kunde 1
kön@@ 1
kör@@ 1
kü@@ 1
lauf@@ 1
lech@@ 1
lehr@@ 1
leist@@ 1
leit@@ 1
leiter 1
lieb@@ 1
lte 1
lungs@@ 1
länd@@ 1
ländische 1
mbH 1
mehreren 1
meister 1
mingham 1
ministerium 1
mischen 1
mittel 1
mittelalter@@ 1
mittl@@ 1
mt 1
musik 1
mäch@@ 1
mün@@ 1
nach 1
nahme 1
nament 1
national@@ 1
nchen 1
neh@@ 1
nehmer 1
neue 1
newsp@@ 1
nung 1
oben 1
ockey 1
okrat@@ 1
olley@@ 1
ordnung 1
ortun@@ 1
ossen 1
otz@@ 1
ović 1
parks 1
perial 1
plann@@ 1
polic@@ 1
preis 1
premiered 1
presi@@ 1
presidential 1
primar@@ 1
progr@@ 1
projek@@ 1
promoted 1
protest@@ 1
prä@@ 1
raum 1
recht 1
rechte 1
regiment 1
region@@ 1
releg@@ 1
relig@@ 1
repor@@ 1
rese@@ 1
rieg 1
rift 1
ringen 1
rischen 1
riss 1
rug 1
räge 1
rück@@ 1
sachsen 1
sah 1
sas 1
schaf@@ 1
schaften 1
schafts@@ 1
schein@@ 1
scher 1
schl@@ 1
schrift 1
scht 1
schutz@@ 1
schwar@@ 1
sdorf 1
sechs 1
secur@@ 1
seits 1
sekre@@ 1
shof 1
shortly 1
sich@@ 1
sicher@@ 1
sieben 1
sied@@ 1
sili@@ 1
sind 1
someone 1
southeast 1
sow@@ 1
spiel@@ 1
spitz@@ 1
sprach 1
sprache 1
starring 1
statt@@ 1
steh@@ 1
stehenden 1
stei@@ 1
steller 1
stens 1
sterreich@@ 1
stly 1
struk@@ 1
städ@@ 1
ständige 1
stär@@ 1
stätte 1
success@@ 1
such@@ 1
survived 1
tene 1
tete 1
tier@@ 1
tig 1
tige 1
tigt 1
tings 1
tnis 1
tober 1
tradition@@ 1
trat 1
tsch@@ 1
tungs@@ 1
twel@@ 1
türk@@ 1
ucht@@ 1
ufe 1
ugos@@ 1
ulen 1
ultur 1
unde 1
undes@@ 1
usses 1
vergleich@@ 1
verkauft 1
verz@@ 1
viron@@ 1
voll@@ 1
volunte@@ 1
völ@@ 1
wander@@ 1
wasser@@ 1
wechsel 1
weder 1
weg@@ 1
wehr@@ 1
weise 1
weit@@ 1
werke 1
werken 1
werte 1
wes@@ 1
wider@@ 1
wirk@@ 1
wurf 1
wärts 1
wür@@ 1
younger 1
z. 1
zahlen 1
zentrum 1
zieh@@ 1
zogen 1
zt 1
zug 1
zul@@ 1
zun@@ 1
 1
 1
 1
 1
¦ 1
Ê@@ 1
Ð@@ 1
Ò@@ 1
Über 1
Über@@ 1
Þ 1
ã 1
ächs@@ 1
äh@@ 1
äl@@ 1
ältesten 1
äm@@ 1
ände 1
äu@@ 1
öff@@ 1
öst@@ 1
österreichischer 1
ösung 1
öß@@ 1
über 1
über@@ 1
ück@@ 1
üst@@ 1
Ā 1
Ć@@ 1
Ė@@ 1
ě 1
ĝ@@ 1
Ğ 1
ĩ 1
Ī@@ 1
ķ@@ 1
Ľ@@ 1
Ł 1
ň 1
ŏ@@ 1
ő 1
Œ@@ 1
Ŕ 1
ŕ 1
Ş 1
ť 1
ů 1
ů@@ 1
ű 1
ű@@ 1
ų 1
ź 1
Ž@@ 1
ž 1
Ɔ@@ 1
ư 1
ǃ 1
ǜ 1
ǧ@@ 1
ǫ 1
ș@@ 1
ɖ 1
ɚ 1
ɣ 1
ɤ@@ 1
ɦ 1
ɯ 1
ɰ@@ 1
ɱ 1
ɳ 1
ɹ 1
ɻ@@ 1
ɽ 1
ʀ 1
ʈ 1
ʉ@@ 1
ʎ@@ 1
ʐ@@ 1
ʙ@@ 1
ʝ@@ 1
ʱ@@ 1
ʷ@@ 1
ʹ@@ 1
ʺ@@ 1
ˆ@@ 1
ˑ@@ 1
ˠ 1
̊ 1
̌ 1
̓ 1
̙ 1
̝ 1
̧ 1
͜ 1
ΐ@@ 1
Ε 1
Η 1
Ι 1
Ο 1
Ρ@@ 1
Τ 1
Χ 1
Ψ@@ 1
ΰ@@ 1
ψ@@ 1
ϑ 1
ϫ 1
І@@ 1
Ј@@ 1
Ћ@@ 1
Ќ@@ 1
А 1
Б 1
П 1
Р 1
Т 1
Ш 1
Э 1
Ю 1
ц 1
ї 1
ў@@ 1
ѣ@@ 1
ѥ@@ 1
ґ@@ 1
ҙ@@ 1
Ү@@ 1
Ұ@@ 1
ұ@@ 1
Һ@@ 1
һ@@ 1
Ә@@ 1
ӣ 1
ө 1
Գ@@ 1
Է@@ 1
Լ@@ 1
Խ@@ 1
Կ@@ 1
Ն@@ 1
Փ@@ 1
ա 1
բ@@ 1
ը 1
լ@@ 1
խ 1
ծ@@ 1
հ 1
ղ@@ 1
չ@@ 1
ջ@@ 1
ս 1
ց 1
ւ 1
ւ@@ 1
ք@@ 1
և@@ 1
ְ 1
ֲ@@ 1
ֳ@@ 1
ַ 1
ֻ@@ 1
ׁ 1
ט 1
ך@@ 1
ס 1
װ@@ 1
؁ 1
؂ 1
؍ 1
ؑ 1
؛ 1
؟ 1
آ 1
ـ 1
١@@ 1
٣ 1
٣@@ 1
٥ 1
ٲ@@ 1
ٺ 1
ٻ 1
پ 1
ٿ 1
ڀ 1
ڀ@@ 1
ڃ 1
ڄ 1
ڇ 1
ډ 1
ڊ@@ 1
ڍ 1
ڏ 1
ڦ 1
ڪ 1
ګ@@ 1
ڱ 1
ڳ 1
ڵ@@ 1
ڻ 1
ۂ 1
ۃ@@ 1
ۆ 1
ۏ@@ 1
ے@@ 1
ۓ@@ 1
ۤ 1
ۤ@@ 1
۰ 1
۱@@ 1
۲ 1
۳ 1
۹ 1
ܒ 1
ܓ@@ 1
ܕ@@ 1
ܥ@@ 1
ܩ@@ 1
ܬ 1
ܲ@@ 1
ހ 1
ށ@@ 1
އ 1
ވ 1
ދ 1
ގ@@ 1
ޔ@@ 1
ޖ 1
ޖ@@ 1
ޞ@@ 1
ޫ@@ 1
ޮ@@ 1
ߎ 1
ߖ@@ 1
ߞ@@ 1
ߟ@@ 1
߲ 1
ऻ 1
ॎ@@ 1
ॡ 1
ॢ 1
ॶ@@ 1
ॻ 1
ঃ 1
ঃ@@ 1
অ 1
আ 1
ঐ@@ 1
ছ 1
ভ 1
ৄ@@ 1
ৎ@@ 1
৪@@ 1
৬ 1
৭ 1
৭@@ 1
৮ 1
৮@@ 1
৹ 1
ਈ@@ 1
ਊ 1
ਊ@@ 1
ਛ@@ 1
ਝ@@ 1
ਠ@@ 1
ਡ 1
ਢ@@ 1
ਫ 1
ਭ 1
੨ 1
੩ 1
੪ 1
੯ 1
ઇ 1
એ 1
એ@@ 1
ખ 1
ઝ@@ 1
ટ 1
ડ 1
ઢ@@ 1
ફ 1
ય 1
ષ 1
ષ@@ 1
હ 1
઼ 1
ુ 1
ૃ 1
ૈ 1
ૌ@@ 1
૨ 1
૩@@ 1
૪ 1
૫ 1
૭ 1
૯ 1
ଅ 1
ଅ@@ 1
ଆ@@ 1
ଈ 1
ଉ 1
ଊ 1
ଋ 1
ଐ 1
ଔ@@ 1
ଘ 1
ଛ 1
ଛ@@ 1
ଝ 1
ଝ@@ 1
ଟ 1
ଠ@@ 1
ଥ 1
ଫ 1
ଭ 1
ଯ 1
ଲ@@ 1
ହ 1
ୂ 1
ୃ 1
୦ 1
୧ 1
୧@@ 1
୨ 1
୪ 1
୫ 1
୬ 1
୭ 1
୮ 1
୮@@ 1
୯ 1
୯@@ 1
ஃ 1
அ 1
ஆ 1
ஊ@@ 1
ஏ@@ 1
ஐ@@ 1
ஒ 1
ஒ@@ 1
ஓ 1
ஞ 1
ஶ 1
ஹ 1
ெ 1
௭@@ 1
௳ 1
ఈ@@ 1
ఝ@@ 1
థ 1
థ@@ 1
ఫ 1
ఫ@@ 1
భ 1
ఱ 1
ఱ@@ 1
ష@@ 1
ొ 1
ಃ 1
ಓ@@ 1
ಚ 1
ಝ@@ 1
ಠ 1
ಫ 1
ಭ 1
ೂ 1
ೇ 1
ೈ 1
ೊ 1
೦@@ 1
೧ 1
೧@@ 1
೫ 1
ഇ 1
ഉ 1
ഊ@@ 1
ഏ@@ 1
ഒ@@ 1
ഓ@@ 1
ഖ@@ 1
ഗ 1
ഢ@@ 1
ഹ 1
ൂ 1
ൊ 1
ൺ 1
ൻ@@ 1
ൽ@@ 1
ආ@@ 1
ඟ@@ 1
ච@@ 1
ට 1
ඨ@@ 1
ණ 1
ද 1
භ@@ 1
ශ@@ 1
ැ 1
ූ@@ 1
ෛ@@ 1
ෝ@@ 1
จ 1
ฉ@@ 1
ช 1
ซ@@ 1
ฌ@@ 1
ญ 1
ฏ@@ 1
ธ 1
ผ@@ 1
ฟ 1
ฤ@@ 1
ล 1
ว 1
ส 1
ฬ@@ 1
ำ 1
ื 1
๐@@ 1
๑ 1
๑@@ 1
ກ@@ 1
ຄ@@ 1
ຊ@@ 1
ຍ 1
ບ 1
ມ 1
ຣ 1
ຣ@@ 1
ວ 1
ຮ@@ 1
ັ 1
ຳ@@ 1
ິ@@ 1
ີ 1
ີ@@ 1
ື@@ 1
ຸ@@ 1
ູ 1
ົ@@ 1
ໄ@@ 1
່ 1
༌ 1
ཅ@@ 1
ཎ 1
ཏ 1
ཕ 1
ཙ 1
ཚ 1
ཝ 1
ཻ 1
ྔ 1
ྕ@@ 1
ྤ 1
ྩ 1
ྫ 1
ྰ@@ 1
ྲ 1
ླ 1
ဉ 1
ည@@ 1
ရ 1
လ 1
သ 1
ဦ@@ 1
ဴ@@ 1
ဵ@@ 1
၁@@ 1
၅ 1
၇@@ 1
၉ 1
ၵ 1
ၵ@@ 1
ၽ@@ 1
ႆ@@ 1
ႇ 1
ႈ 1
ა 1
ე 1
ზ@@ 1
თ 1
მ@@ 1
ო 1
პ@@ 1
ს 1
უ@@ 1
ფ@@ 1
ღ@@ 1
ყ@@ 1
ላ 1
ላ@@ 1
ሌ 1
ሐ@@ 1
ሚ@@ 1
ማ@@ 1
ም@@ 1
ሥ@@ 1
ረ 1
ረ@@ 1
ሪ@@ 1
ራ 1
ራ@@ 1
ር 1
ሮ@@ 1
ሳ@@ 1
በ@@ 1
ባ 1
ቤ@@ 1
ተ 1
ታ@@ 1
ኢ@@ 1
ኦ@@ 1
ካ 1
የ@@ 1
ይ 1
ዮ@@ 1
ደ 1
ዲ 1
ድ 1
ጋ@@ 1
ጵ@@ 1
ፋ@@ 1
ፍ@@ 1
ᐟ@@ 1
ᐧ@@ 1
ᐨ 1
ᑖ@@ 1
ᑭ@@ 1
ᑯ 1
ᒃ 1
ᒡ@@ 1
ᒣ@@ 1
ᒧ@@ 1
ᓗ 1
ᕗ@@ 1
ᕿ@@ 1
ᖃ@@ 1
ᖅ@@ 1
ᖹ@@ 1
គ 1
ឃ@@ 1
ង@@ 1
ឌ 1
ត@@ 1
ថ@@ 1
ល@@ 1
វ 1
ឝ@@ 1
ឧ@@ 1
ា 1
ិ 1
ី 1
ួ 1
ួ@@ 1
ោ 1
ះ 1
៉ 1
់ 1
៌ 1
៍ 1
១ 1
៧ 1
᠌ 1
ᠩ@@ 1
ᠪ@@ 1
ᠭ 1
ᠭ@@ 1
ᠮ@@ 1
ᠯ 1
ᠴ@@ 1
ᮒ@@ 1
ᮓ 1
ᮞ@@ 1
ᮥ@@ 1
ᱞ 1
ᱞ@@ 1
ᱢ 1
ᱥ@@ 1
ᱧ@@ 1
ᱨ 1
ᱰ 1
ᱰ@@ 1
ᱱ 1
ᱲ@@ 1
ᱵ 1
ᱷ 1
ᱸ@@ 1
ᱹ@@ 1
ᱺ@@ 1
ᱽ 1
ᵐ@@ 1
ᵻ@@ 1
ḇ 1
ḇ@@ 1
Ḏ@@ 1
ḗ@@ 1
ḛ@@ 1
ḩ@@ 1
ḱ 1
ḳ 1
ḳ@@ 1
Ḵ@@ 1
ṉ 1
Ṛ@@ 1
ṵ@@ 1
ạ 1
ả 1
ấ@@ 1
ẵ@@ 1
ẻ 1
ẽ 1
ẽ@@ 1
ỉ@@ 1
ị 1
ọ 1
ổ 1
Ờ 1
ở 1
ở@@ 1
ợ 1
ụ@@ 1
ừ 1
ừ@@ 1
ỳ 1
ἀ 1
ἅ@@ 1
ἔ@@ 1
Ἐ@@ 1
Ἑ@@ 1
ἡ 1
ἢ 1
ἧ@@ 1
Ἠ@@ 1
Ἡ@@ 1
Ἢ 1
ἶ@@ 1
ἷ@@ 1
Ἴ@@ 1
ὁ 1
Ὄ@@ 1
ὑ@@ 1
Ὑ@@ 1
ὠ@@ 1
Ὠ@@ 1
ὰ@@ 1
ὴ 1
ὸ 1
ᾱ@@ 1
᾽ 1
ῆ 1
‐ 1
⁴ 1
⁵ 1
⁶ 1
₀ 1
₁ 1
₄ 1
₈ 1
₪ 1
₴ 1
ℂ 1
ℝ 1
℞ 1
⅜ 1
⅝ 1
Ⅱ 1
↺ 1
⇌ 1
⇔ 1
∃ 1
∏ 1
∗ 1
∩ 1
∪ 1
≃ 1
≫ 1
⊃ 1
⊙ 1
⌠ 1
┼ 1
╘ 1
□ 1
► 1
◦ 1
☀ 1
☊ 1
☒ 1
☫ 1
☸ 1
♂ 1
♆ 1
♎ 1
♐ 1
♣ 1
♥ 1
⚥ 1
⚧ 1
✈ 1
❣ 1
ⲏ@@ 1
ⲙ 1
ⴱ@@ 1
ⴹ@@ 1
ⴽ 1
ⵇ@@ 1
ⵊ@@ 1
ⵍ 1
ⵔ 1
ⵖ 1
ⵛ@@ 1
ⵟ@@ 1
ⵡ@@ 1
々@@ 1
〇 1
《 1
》 1
あ 1
い 1
え@@ 1
お 1
か 1
ぎ@@ 1
く@@ 1
ぐ@@ 1
こ@@ 1
ご@@ 1
さ 1
じ@@ 1
ず 1
ず@@ 1
せ@@ 1
ち 1
っ 1
つ 1
つ@@ 1
て@@ 1
で@@ 1
と 1
に@@ 1
は@@ 1
ば 1
ば@@ 1
ひ@@ 1
び 1
び@@ 1
へ 1
べ@@ 1
ほ 1
ぼ 1
ぽ 1
も@@ 1
ゅ@@ 1
ろ@@ 1
ウ@@ 1
エ 1
ォ@@ 1
カ 1
グ 1
ケ 1
サ 1
ザ 1
ゼ@@ 1
ソ@@ 1
ッ 1
デ 1
ナ 1
ノ@@ 1
ヒ@@ 1
フ@@ 1
ブ 1
ホ 1
ホ@@ 1
ポ@@ 1
ミ 1
モ 1
ャ@@ 1
ュ 1
ユ@@ 1
ヨ@@ 1
ヱ 1
䘯@@ 1
一 1
丁 1
三 1
上 1
下@@ 1
与@@ 1
世 1
业 1
両@@ 1
严@@ 1
个 1
串@@ 1
为 1
主 1
之 1
乌@@ 1
乗@@ 1
乙@@ 1
乞@@ 1
也 1
习@@ 1
了@@ 1
争 1
争@@ 1
井 1
亜@@ 1
亞@@ 1
交@@ 1
亦@@ 1
产@@ 1
亭 1
亭@@ 1
亻 1
仏 1
仏@@ 1
仑@@ 1
仔@@ 1
仙@@ 1
代 1
令@@ 1
仮@@ 1
件 1
件@@ 1
任@@ 1
伊@@ 1
休 1
伝@@ 1
伟@@ 1
伦 1
伴 1
伽 1
佐 1
体 1
作 1
你@@ 1
侍 1
依@@ 1
侠@@ 1
俪 1
修@@ 1
俱@@ 1
俵 1
倍@@ 1
倩@@ 1
倪@@ 1
倭@@ 1
偵@@ 1
傲@@ 1
働 1
働@@ 1
僮 1
儒 1
儒@@ 1
儲@@ 1
儿@@ 1
光 1
党@@ 1
內@@ 1
兩 1
八 1
公 1
兰@@ 1
关 1
典@@ 1
冀 1
内 1
冊 1
冊@@ 1
写@@ 1
军 1
冬@@ 1
冲 1
冲@@ 1
冷@@ 1
凤 1
凰 1
函 1
刀 1
刃 1
分@@ 1
刊@@ 1
刘@@ 1
刚 1
初@@ 1
利 1
利@@ 1
刷@@ 1
券 1
券@@ 1
剣 1
劉@@ 1
劍 1
力@@ 1
功 1
労@@ 1
勇@@ 1
北 1
匡 1
匹@@ 1
十 1
千 1
午@@ 1
卍 1
华 1
卐@@ 1
協@@ 1
単@@ 1
博 1
卡 1
卡@@ 1
卫@@ 1
厳@@ 1
参 1
叉 1
叉@@ 1
友 1
口@@ 1
古 1
右 1
吉 1
向@@ 1
君 1
含@@ 1
呂 1
呂@@ 1
周 1
咒 1
哈@@ 1
員@@ 1
哥 1
商 1
喀 1
噶@@ 1
四 1
回@@ 1
团 1
团@@ 1
団 1
図 1
固@@ 1
图 1
園@@ 1
圓 1
圖 1
團 1
圜 1
土 1
圭 1
圳 1
坂 1
坂@@ 1
坊 1
坑@@ 1
坙 1
坦 1
型 1
垣 1
城 1
埔@@ 1
域 1
基 1
堂 1
場@@ 1
塩@@ 1
增@@ 1
墨 1
墾@@ 1
壊 1
壮 1
壹@@ 1
壽@@ 1
备@@ 1
多 1
夜 1
夢 1
奈@@ 1
奉@@ 1
套@@ 1
奠 1
奴@@ 1
奶 1
奶@@ 1
好 1
好@@ 1
妞 1
始 1
姑@@ 1
委 1
姦 1
娼@@ 1
婁@@ 1
婉@@ 1
婦 1
媛 1
嫻 1
季@@ 1
宀 1
宁@@ 1
守 1
守@@ 1
宋 1
完@@ 1
定 1
宝@@ 1
实@@ 1
宠@@ 1
宣@@ 1
宿@@ 1
寅 1
寒 1
實@@ 1
寧 1
寨@@ 1
寸 1
寺@@ 1
封@@ 1
専@@ 1
專@@ 1
尊@@ 1
尋@@ 1
少 1
尺 1
尺@@ 1
届@@ 1
屋@@ 1
屏 1
屠@@ 1
岗@@ 1
岡@@ 1
岩 1
岳@@ 1
岸@@ 1
峡 1
峰 1
峰@@ 1
峽 1
崎@@ 1
崩@@ 1
左@@ 1
巻@@ 1
市@@ 1
师 1
希@@ 1
帖 1
帛@@ 1
幌@@ 1
幞@@ 1
幹@@ 1
幻@@ 1
幽@@ 1
広 1
庄@@ 1
库 1
店 1
庙 1
庭 1
庶@@ 1
廈 1
廉@@ 1
廊 1
廓 1
廟 1
弁 1
弥 1
弧@@ 1
强@@ 1
弾@@ 1
彊 1
当@@ 1
彦 1
彦@@ 1
彬@@ 1
彭@@ 1
役 1
征 1
很@@ 1
後@@ 1
徒@@ 1
得@@ 1
御@@ 1
徳 1
德@@ 1
必@@ 1
志 1
念@@ 1
怀 1
怡 1
怡@@ 1
怪 1
怪@@ 1
恒 1
恥 1
恩 1
悟@@ 1
悲@@ 1
想 1
愚 1
慈 1
慧 1
慶@@ 1
應@@ 1
戀@@ 1
成 1
戦@@ 1
截 1
戰 1
所@@ 1
扇@@ 1
扎@@ 1
打 1
批@@ 1
把 1
抗@@ 1
拙 1
拳@@ 1
持 1
持@@ 1
指@@ 1
挙 1
损 1
揚@@ 1
搜@@ 1
携 1
携@@ 1
摩 1
播@@ 1
擒 1
改 1
政 1
故@@ 1
效@@ 1
敏 1
救 1
散 1
斤 1
断@@ 1
斯@@ 1
於@@ 1
旅@@ 1
旗 1
无 1
无@@ 1
旭@@ 1
昆@@ 1
昌@@ 1
映 1
映@@ 1
春 1
显@@ 1
晋@@ 1
晨 1
晶 1
曇 1
曇@@ 1
書 1
曼 1
替 1
最@@ 1
會 1
會@@ 1
朗 1
末@@ 1
札@@ 1
术 1
李 1
村@@ 1
来 1
杭@@ 1
杷 1
松 1
板 1
板@@ 1
极 1
枇@@ 1
枚 1
枳@@ 1
柬@@ 1
柯@@ 1
树@@ 1
根 1
格@@ 1
栽 1
桂@@ 1
桃 1
桜@@ 1
桥 1
桶 1
桶@@ 1
梆@@ 1
條 1
梦 1
梦@@ 1
械 1
梶@@ 1
棋 1
棚 1
椅@@ 1
検@@ 1
椰@@ 1
楊@@ 1
楚 1
楞@@ 1
業 1
極@@ 1
楼@@ 1
樂 1
樱@@ 1
樹@@ 1
橋@@ 1
機@@ 1
次@@ 1
止 1
死@@ 1
殉 1
殉@@ 1
殿 1
毅@@ 1
母 1
母@@ 1
毒 1
毘@@ 1
毛@@ 1
毫 1
氏@@ 1
气 1
气@@ 1
気 1
氣 1
氣@@ 1
氷@@ 1
永 1
永@@ 1
池@@ 1
汶@@ 1
沃@@ 1
沙 1
沧@@ 1
河@@ 1
沸@@ 1
油 1
泊 1
泰@@ 1
洋@@ 1
洗@@ 1
津 1
洪@@ 1
洲@@ 1
活@@ 1
流@@ 1
浅@@ 1
济 1
济@@ 1
浙 1
浪@@ 1
浮@@ 1
液 1
淘@@ 1
深@@ 1
清 1
渋@@ 1
渕@@ 1
湄@@ 1
湾 1
湾@@ 1
源@@ 1
準@@ 1
溪@@ 1
滌@@ 1
滑 1
滿@@ 1
漆@@ 1
漢 1
漿 1
澜@@ 1
濃@@ 1
瀬 1
灣@@ 1
灸 1
灼@@ 1
為 1
為@@ 1
烏@@ 1
焚@@ 1
然 1
熙@@ 1
熟@@ 1
燊 1
燒@@ 1
燕 1
燕@@ 1
爱 1
爸 1
爾 1
片 1
版@@ 1
牌 1
牌@@ 1
牛@@ 1
牟@@ 1
犬 1
独@@ 1
狮@@ 1
猫 1
獞 1
獣 1
玄@@ 1
环@@ 1
现@@ 1
玲 1
珞@@ 1
琉@@ 1
琛 1
琵@@ 1
琶 1
瑜 1
瑜@@ 1
瑠@@ 1
瑩 1
璃@@ 1
甘@@ 1
產@@ 1
産@@ 1
甲@@ 1
申@@ 1
电 1
男 1
画@@ 1
畜@@ 1
畿@@ 1
疾@@ 1
癘 1
登@@ 1
發 1
白 1
皃 1
盆@@ 1
监@@ 1
盘@@ 1
盛@@ 1
盟 1
相 1
相@@ 1
省@@ 1
眉@@ 1
督@@ 1
瞳 1
瞿@@ 1
矢 1
知@@ 1
砂 1
研@@ 1
磁@@ 1
磨@@ 1
示@@ 1
礼 1
祝@@ 1
祠 1
祥 1
禎@@ 1
禮 1
私 1
秘@@ 1
秦@@ 1
移@@ 1
程@@ 1
稚@@ 1
穴 1
立 1
競@@ 1
竹 1
笏@@ 1
等 1
等@@ 1
筑@@ 1
策 1
简@@ 1
管@@ 1
箭@@ 1
箱 1
節 1
篠@@ 1
篪 1
簡@@ 1
簫 1
簾 1
簿 1
粁 1
糎 1
糾@@ 1
約@@ 1
納 1
紗@@ 1
級@@ 1
紛 1
素@@ 1
紫@@ 1
紹@@ 1
組@@ 1
経 1
統@@ 1
絲@@ 1
網@@ 1
線 1
緬@@ 1
繁@@ 1
織 1
織@@ 1
约 1
级@@ 1
纪 1
纳@@ 1
组 1
细@@ 1
织 1
经@@ 1
统@@ 1
绿@@ 1
罔@@ 1
罗 1
群@@ 1
翁 1
翁@@ 1
習@@ 1
耀 1
考 1
而@@ 1
耕 1
耻 1
联@@ 1
聖@@ 1
聞 1
聯@@ 1
肃 1
肇@@ 1
育 1
胎 1
胖@@ 1
胡 1
胡@@ 1
胶@@ 1
脉 1
脏@@ 1
腑 1
腹@@ 1
腺 1
腻@@ 1
腾@@ 1
膏 1
臂 1
臨@@ 1
自 1
臺 1
舜@@ 1
航 1
般 1
船@@ 1
色 1
艺@@ 1
节 1
芳 1
芳@@ 1
芸@@ 1
芽@@ 1
苏@@ 1
英 1
范@@ 1
荣@@ 1
药@@ 1
荼@@ 1
莊@@ 1
莱 1
菊 1
菜 1
营@@ 1
萧@@ 1
葬 1
蒋@@ 1
蒙@@ 1
蒲@@ 1
蓝 1
蓮@@ 1
蕭@@ 1
薄@@ 1
薬 1
藤 1
藩@@ 1
蘭 1
虛@@ 1
融@@ 1
蠡@@ 1
血 1
術@@ 1
衛 1
表 1
衽 1
袍 1
袴 1
袴@@ 1
袵 1
裁 1
裈 1
裕@@ 1
裴@@ 1
製@@ 1
褶 1
褶@@ 1
褾 1
襠 1
襲@@ 1
襴@@ 1
親@@ 1
観 1
觀@@ 1
觉 1
解 1
記@@ 1
許@@ 1
訳 1
訶 1
診@@ 1
証 1
証@@ 1
詔 1
試@@ 1
話 1
語@@ 1
誠 1
読 1
論@@ 1
謝 1
譜 1
警@@ 1
護 1
训 1
议@@ 1
记 1
论 1
论@@ 1
诃@@ 1
说 1
诸@@ 1
谱 1
豆 1
豊 1
豫 1
豬 1
貞@@ 1
財 1
貨@@ 1
販 1
貫@@ 1
貴 1
買 1
賓 1
賞 1
賢 1
賣 1
質 1
贝 1
赋 1
赛@@ 1
赣 1
超 1
越@@ 1
趙 1
足@@ 1
跃@@ 1
距@@ 1
跡 1
路 1
踊 1
車 1
軌@@ 1
軒 1
転@@ 1
輪 1
輪@@ 1
辦@@ 1
辰 1
运 1
近 1
进 1
迷@@ 1
退@@ 1
逆@@ 1
逢@@ 1
連@@ 1
週@@ 1
逵 1
遊@@ 1
運@@ 1
達 1
達@@ 1
遠 1
選@@ 1
邊 1
邊@@ 1
郎@@ 1
郑@@ 1
郞 1
郡 1
都 1
鄂 1
鄰 1
酒 1
酒@@ 1
酢@@ 1
里 1
量@@ 1
針 1
釦 1
鈕 1
鉉 1
鉑 1
鉴 1
銅@@ 1
銖 1
銖@@ 1
鎖@@ 1
鎬 1
鑫 1
鑾@@ 1
针@@ 1
钦 1
钱 1
铜@@ 1
锡 1
镜@@ 1
长@@ 1
開 1
闘@@ 1
關@@ 1
门@@ 1
闪@@ 1
阎 1
阪 1
阶@@ 1
陡 1
院@@ 1
陰@@ 1
陸@@ 1
隆@@ 1
隊 1
階@@ 1
隧@@ 1
隶 1
雀 1
雙@@ 1
雞 1
離 1
難@@ 1
雨 1
雨@@ 1
雪 1
零 1
霑 1
霞@@ 1
静 1
面 1
韓 1
韓@@ 1
頁 1
頂@@ 1
領 1
領@@ 1
頤@@ 1
頭 1
顺 1
领 1
颐@@ 1
飞@@ 1
飯 1
飯@@ 1
餐@@ 1
首@@ 1
馬 1
験 1
马 1
驻@@ 1
骄@@ 1
骑@@ 1
骨 1
骨@@ 1
鬆 1
魂 1
魄 1
魅@@ 1
魏 1
魔 1
鮮@@ 1
鰯 1
鱲@@ 1
鳳 1
鳳@@ 1
鵝@@ 1
鶯@@ 1
鸭@@ 1
鹏 1
麗 1
麿 1
黑 1
黒@@ 1
黨 1
鼓@@ 1
鼻 1
鼻@@ 1
齐 1
齡 1
龄 1
龜@@ 1
ꠁ 1
ꠁ@@ 1
ꠂ 1
ꠇ@@ 1
ꠈ@@ 1
ꠉ 1
ꠉ@@ 1
ꠋ 1
ꠌ@@ 1
ꠘ 1
ꠛ@@ 1
ꠝ 1
ꠠ 1
ꠤ@@ 1
ꠥ@@ 1
ꦗ@@ 1
ꦧ@@ 1
ꦮ 1
ꦱ@@ 1
ꯉ@@ 1
ꯋ@@ 1
ꯍ 1
ꯑ@@ 1
ꯒ@@ 1
ꯔ 1
ꯕ@@ 1
ꯚ@@ 1
ꯛ 1
ꯜ 1
ꯞ@@ 1
ꯠ 1
ꯢ@@ 1
ꯥ 1
ꯩ 1
가 1
각 1
각@@ 1
간 1
갓@@ 1
강 1
거@@ 1
걸@@ 1
격@@ 1
경 1
계 1
계@@ 1
곡 1
과@@ 1
광 1
괜@@ 1
괴 1
군 1
궁@@ 1
권@@ 1
규@@ 1
근@@ 1
길 1
깃 1
깃@@ 1
깍@@ 1
끝@@ 1
난 1
난@@ 1
남 1
낮@@ 1
낸@@ 1
녀@@ 1
념@@ 1
농@@ 1
는@@ 1
단 1
달@@ 1
댕@@ 1
더 1
덕@@ 1
던@@ 1
돌@@ 1
두 1
뒤@@ 1
득@@ 1
떡 1
뜻 1
뜻@@ 1
란@@ 1
랑 1
랜 1
랜@@ 1
량@@ 1
럭@@ 1
럼@@ 1
려 1
력@@ 1
로@@ 1
록@@ 1
론 1
뢰 1
루 1
류@@ 1
를 1
름 1
릭 1
림 1
립@@ 1
막@@ 1
만 1
말 1
말@@ 1
맘 1
맞@@ 1
맨 1
모@@ 1
몸@@ 1
무 1
물 1
뭉@@ 1
미 1
민 1
밀@@ 1
바@@ 1
박 1
받@@ 1
발@@ 1
밤@@ 1
번@@ 1
법 1
병 1
병@@ 1
보 1
불@@ 1
블@@ 1
빈@@ 1
빔 1
서 1
서@@ 1
섶 1
센 1
센@@ 1
소@@ 1
속@@ 1
솟@@ 1
송 1
쇄@@ 1
수 1
순@@ 1
술@@ 1
숫@@ 1
슬 1
슬@@ 1
쌈 1
쌍@@ 1
악 1
않@@ 1
암@@ 1
압@@ 1
앞@@ 1
앵@@ 1
양@@ 1
억@@ 1
언@@ 1
업 1
연@@ 1
영 1
예 1
예@@ 1
온 1
왕 1
외@@ 1
용@@ 1
우 1
운 1
운@@ 1
울@@ 1
워 1
윤@@ 1
으@@ 1
을 1
음 1
응@@ 1
임 1
입@@ 1
잇@@ 1
잔@@ 1
잠 1
쟁 1
적 1
적@@ 1
절@@ 1
점 1
점@@ 1
제 1
젠@@ 1
졸@@ 1
종 1
좌@@ 1
준 1
즈@@ 1
증@@ 1
진 1
징@@ 1
차 1
찬 1
찬@@ 1
찮@@ 1
천 1
첨@@ 1
청 1
쳐 1
쳐@@ 1
촌 1
촌@@ 1
총@@ 1
추@@ 1
충 1
충@@ 1
취@@ 1
칠@@ 1
침@@ 1
칫@@ 1
코@@ 1
키 1
타@@ 1
택 1
틀@@ 1
파@@ 1
팔 1
팔@@ 1
퍼 1
평@@ 1
폐 1
풀 1
풍 1
프 1
프@@ 1
학 1
해 1
행 1
향 1
허@@ 1
험 1
현 1
현@@ 1
형 1
호 1
호@@ 1
홍 1
활@@ 1
후 1
훈@@ 1
휴@@ 1
힘 1
 1
 1
 1
 1
 1
 1
 1
 1
ﭼ@@ 1
ﮈ@@ 1
ﮓ 1
ﮩ 1
ﮫ 1
ﮭ@@ 1
ﯩ@@ 1
ﯼ 1
﴿ 1
ﷲ 1
ﺃ@@ 1
ﺋ@@ 1
ﺟ@@ 1
ﺠ@@ 1
ﺣ@@ 1
ﺤ@@ 1
ﺩ@@ 1
ﺪ 1
ﺪ@@ 1
ﺭ 1
ﺭ@@ 1
ﺯ@@ 1
ﺰ@@ 1
ﺸ@@ 1
ﺼ@@ 1
ﻀ@@ 1
ﻄ@@ 1
ﻙ 1
ﻠ@@ 1
ﻡ 1
ﻬ@@ 1
ﻮ 1
ﻮ@@ 1
ﻯ 1
！ 1
／ 1
？ 1
ﾠ 1
￡ 1
￥ 1
￳ 1
𐎠@@ 1
𐎱@@ 1
𐎼@@ 1
𐎿 1
𐤀 1
𐤁 1
𐤇@@ 1
𐤉 1
𐤋 1
𐤍@@ 1
𐤏@@ 1
𐤒 1
𐤓 1
𐤓@@ 1
𐤟 1
𐭃@@ 1
𐭊@@ 1
𐭌@@ 1
𐭕 1
𐭤 1
𐭦@@ 1
𐭩@@ 1
𐭫@@ 1
𑀢@@ 1
𑀥@@ 1
𑀦@@ 1
𑀪@@ 1
𑀺 1
𑀽@@ 1
𑂍@@ 1
𑂟@@ 1
𑂱@@ 1
𑂲 1
𑂲@@ 1
𑂶@@ 1
𑄳 1
𑐮 1
𑐮@@ 1
𑐴@@ 1
𑑂 1
𑜀@@ 1
𑜂 1
𑜃 1
𑜇@@ 1
𑜍@@ 1
𑜏@@ 1
𑜢 1
𑜢@@ 1
𑜤 1
𑜨@@ 1
𒂍@@ 1
𒅍 1
𒅎@@ 1
𒆠 1
𒉌@@ 1
𒋼@@ 1
𒌇@@ 1
𝐇@@ 1
𝐚 1
𝐛@@ 1
𝐞 1
𝐡@@ 1
𝐢@@ 1
𝐧 1
𝐨 1
𝐩@@ 1
𝐫@@ 1
𝐬 1
𝐬@@ 1
𝐳@@ 1
𝑩@@ 1
𝑪@@ 1
𝑳@@ 1
𝒅@@ 1
𝒊@@ 1
𝒏@@ 1
𝛍 1
🌉 1
🌱 1
🌲 1
🌺 1
🏞 1
🏠 1
🏹 1
🐖 1
🐛 1
🐝 1
🐷 1
🐸 1
👆 1
👑 1
💪 1
📝 1
📲 1
🔘 1
🔫 1
🗼 1
🚘 1
🚢 1
🤗 1
🥜 1
🦂 1
🧬 1
𡱩 1
