् 1
के 1
। 1
में 1
, 0.5196535322912171
है 1
प 1
की 1
स 1
और 1
़ 1
का 1
से 1
क 1
को 1
य 1
एक 1
त 1
ट 1
न 1
ने 1
र 1
र@@ 1
) 0.8673795199247335
( 0.86425866146124
द 1
हैं 1
व 1
पर 1
&quot; 0.33833867137306917
म 1
ज 1
न@@ 1
ल 1
. 0.11026980140016591
@-@ 0.4538602237379909
म@@ 1
स@@ 1
ड 1
रा@@ 1
किया 1
व@@ 1
था 1
क@@ 1
कर 1
य@@ 1
लिए 1
आ@@ 1
ल@@ 1
वि@@ 1
या 1
अ@@ 1
त@@ 1
ं@@ 1
ग 1
भी 1
प@@ 1
वा@@ 1
श 1
सं@@ 1
ब@@ 1
यह 1
वर 1
ह@@ 1
इस 1
ता 1
गया 1
ज@@ 1
ष 1
कि 1
ब 1
द@@ 1
ध 1
फ 1
ना@@ 1
री 1
या@@ 1
ण 1
ला@@ 1
ग@@ 1
च@@ 1
नि@@ 1
श@@ 1
कार 1
रूप 1
ही 1
का@@ 1
ली 1
ट@@ 1
ना 1
ए@@ 1
मा@@ 1
ी 1
रे@@ 1
उन 1
सा@@ 1
रि@@ 1
जो 1
रो@@ 1
पा@@ 1
ति 1
बा@@ 1
जाता 1
इ@@ 1
साथ 1
नी 1
ता@@ 1
करने 1
तर 1
बाद 1
उत 1
ख@@ 1
ड@@ 1
हो 1
राज 1
ती 1
वारा 1
थे 1
तक 1
ला 1
भारत 1
जा@@ 1
े 1
ह 1
&apos; 1
: 0.757886089962589
नहीं 1
ई 1
रा 1
मे@@ 1
यक 1
च 1
मि@@ 1
शा@@ 1
ा 1
वे@@ 1
ध@@ 1
ने@@ 1
सु@@ 1
निर 1
फ@@ 1
िक 1
ले@@ 1
थी 1
अन 1
दी 1
उ@@ 1
तथा 1
पूर 1
सि@@ 1
अपने 1
को@@ 1
री@@ 1
ले 1
ते 1
थ@@ 1
भ@@ 1
मु@@ 1
दिया 1
यू@@ 1
थ 1
लि@@ 1
जा 1
दा@@ 1
षेत 1
सर 1
ियों 1
वह 1
टी 1
होंने 1
दर 1
जन 1
सी@@ 1
छ@@ 1
ख 1
हा@@ 1
होता 1
से@@ 1
ष@@ 1
इन 1
ण@@ 1
नों 1
बर 1
ओं 1
जी@@ 1
ं 1
ित 1
सी 1
ई@@ 1
उप@@ 1
अनु@@ 1
बे@@ 1
ंग@@ 1
ों 1
कि@@ 1
ि@@ 1
सम 1
हुआ 1
दि@@ 1
थित 1
मो@@ 1
वे 1
शन 1
राष 1
ंग 1
ति@@ 1
रों 1
के@@ 1
- 1
पु@@ 1
नाम 1
टर 1
दे@@ 1
कों 1
जी 1
कुछ 1
भा@@ 1
पे@@ 1
पुर 1
रु@@ 1
गा@@ 1
हें 1
रीय 1
गु@@ 1
विश 1
कर@@ 1
कु@@ 1
सा 1
ू@@ 1
ंड@@ 1
महा@@ 1
टे@@ 1
करते 1
पर@@ 1
सन 1
हुए 1
भ 1
तो 1
गाँव 1
ार@@ 1
ली@@ 1
ये 1
समय 1
मा 1
ठ@@ 1
यों 1
ँ@@ 1
ो 1
इसके 1
ू 1
वी 1
मार 1
एवं 1
घ@@ 1
वाले 1
डि@@ 1
े@@ 1
होने 1
ो@@ 1
रू@@ 1
पी@@ 1
मान 1
कई 1
उनके 1
गत 1
संस 1
षा 1
शि@@ 1
ु 1
ु@@ 1
बि@@ 1
खा@@ 1
पत 1
कै@@ 1
चा@@ 1
; 0.45085379295561584
ार 1
ा@@ 1
हि@@ 1
परि@@ 1
भारतीय 1
गो@@ 1
चार 1
मी 1
अधिक 1
षण 1
१@@ 1
रम 1
ी@@ 1
रक 1
चित 1
ओ@@ 1
बड 1
ए 1
लो@@ 1
सबसे 1
देश 1
कारण 1
रति@@ 1
अपनी 1
कम 1
करता 1
होती 1
मुख 1
लों 1
टि@@ 1
पहले 1
मान@@ 1
टी@@ 1
तर@@ 1
दक 1
थान 1
अर 1
गए 1
नी@@ 1
िल 1
दो 1
रकार 1
सकता 1
सो@@ 1
था@@ 1
कल 1
सम@@ 1
सू@@ 1
फिल 1
किसी 1
मै@@ 1
बी@@ 1
&#93; 1
ंस 1
जब 1
गई 1
&#91; 1
वी@@ 1
मन 1
बै@@ 1
जि@@ 1
मी@@ 1
वास 1
.@@ 1
जे@@ 1
जन@@ 1
कहा 1
ीय 1
ंड 1
चु@@ 1
लेकिन 1
िय@@ 1
‍ 1
रदेश 1
वा 1
ि 1
राप 1
दा 1
राज@@ 1
बन 1
करण 1
भाषा 1
ीन 1
पि@@ 1
जाती 1
हुई 1
बहुत 1
लिया 1
ठ 1
रे 1
शामिल 1
शिक 1
रत 1
तु@@ 1
बो@@ 1
ारी 1
रिया 1
झ@@ 1
िया 1
यालय 1
टा@@ 1
ते@@ 1
उस 1
जैसे 1
होते 1
पै@@ 1
जिले 1
/ 0.5603604515674886
विद 1
यु@@ 1
१९@@ 1
यो@@ 1
डे@@ 1
रस 1
निक 1
ान 1
रहे 1
हो@@ 1
धा@@ 1
तान 1
धर 1
बार 1
डा@@ 1
कार@@ 1
मित 1
उनकी 1
टा 1
चि@@ 1
खे@@ 1
जाने 1
अव@@ 1
० 1
माण 1
पड 1
बीच 1
भाग 1
उसके 1
अं@@ 1
उद 1
रहा 1
ॉ@@ 1
ती@@ 1
तों 1
सभी 1
निय@@ 1
वै@@ 1
पन 1
पो@@ 1
काल 1
तरह 1
जिसमें 1
पश 1
रह@@ 1
लं@@ 1
लन 1
यात 1
अप@@ 1
इसे 1
दु@@ 1
वार 1
रह 1
यर 1
आर 1
इसका 1
मक 1
ृ@@ 1
गि@@ 1
शक 1
अभि@@ 1
अनुसार 1
ौ@@ 1
कारी 1
जै@@ 1
अधि@@ 1
बु@@ 1
तहसील 1
लक 1
बी 1
टो@@ 1
गर 1
रमुख 1
तियों 1
सर@@ 1
करना 1
काम 1
वाली 1
मों 1
शु@@ 1
रॉ@@ 1
डल 1
२@@ 1
वाद 1
उसे 1
अध 1
पास 1
बल 1
डी 1
गढ 1
भू@@ 1
ोर 1
राम 1
कोई 1
लोगों 1
कृत 1
शे@@ 1
ऑ@@ 1
तन 1
अक 1
महत 1
ंक 1
ंट 1
बढ 1
ञान 1
गी 1
धि 1
उपयोग 1
पार 1
मण 1
हार 1
अल 1
रं@@ 1
1 0.5035351411206446
सत 1
जीवन 1
हिन 1
फा@@ 1
ंत 1
योग 1
लिये 1
रित 1
विज 1
जाते 1
दी@@ 1
मध 1
मौ@@ 1
ै@@ 1
लैंड 1
रण 1
हे@@ 1
की@@ 1
&#124; 1
है@@ 1
नगर 1
दोनों 1
तु 1
आदि 1
षित 1
ंद 1
सिंह 1
हम@@ 1
कॉ@@ 1
शब 1
टन 1
मूल 1
नो@@ 1
शहर 1
वस 1
लगभग 1
कन 1
गा 1
गे@@ 1
रयोग 1
दौरान 1
औ@@ 1
ढ@@ 1
यहाँ 1
हर 1
साहित 1
रेस 1
अंग 1
मिक 1
ओर 1
सरकार 1
अब 1
पू@@ 1
मिल@@ 1
तीन 1
लै@@ 1
2 0.4875530325526378
ताओं 1
इं@@ 1
कड 1
शुरू 1
फिर 1
लोग 1
रख@@ 1
एं 1
% 0.6155713535730596
षिण 1
जिसे 1
सै@@ 1
जो@@ 1
अलग 1
रै@@ 1
खु@@ 1
वन 1
मंत 1
विकास 1
ारे 1
मे 1
ॉर 1
घा@@ 1
नर 1
जर 1
तः 1
रिय@@ 1
ऊ@@ 1
शो@@ 1
युद 1
दार 1
णों 1
विक 1
यान 1
लगा@@ 1
करती 1
वीं 1
ऑफ 1
फे@@ 1
लता 1
एँ 1
चे@@ 1
रिक 1
पद 1
धान 1
लग@@ 1
णी 1
धन 1
बना@@ 1
इन@@ 1
तम 1
रता 1
सक 1
केवल 1
दो@@ 1
अंतर 1
वित 1
यम 1
१ 1
जिन 1
राजा 1
दिन 1
संख 1
घर 1
जाना 1
तौर 1
रिकेट 1
चर 1
सकते 1
ंद@@ 1
विशेष 1
मंदिर 1
इसकी 1
शा 1
नु@@ 1
ढ 1
यन 1
आई@@ 1
सार 1
लेख@@ 1
िया@@ 1
२ 1
डी@@ 1
&amp; 0.6087603686671247
विस 1
लु@@ 1
चौ@@ 1
सिद 1
णा 1
कभी 1
दान 1
दू@@ 1
वत 1
समा@@ 1
भी@@ 1
वाला 1
उनका 1
यी 1
विभिन 1
सदस 1
टीम 1
तार 1
पह@@ 1
५ 1
रदर 1
ंप@@ 1
इतिहास 1
देख@@ 1
मात 1
तिक 1
गी@@ 1
ची@@ 1
योंकि 1
साल 1
उच 1
इसमें 1
ारा 1
पी 1
साइ@@ 1
5 0.5423096238674565
आं@@ 1
सह@@ 1
नदी 1
हम 1
वपूर 1
माना 1
ंच 1
डा 1
०@@ 1
अपना 1
गै@@ 1
2@@ 0.5322878149490665
इसी 1
रात 1
जु@@ 1
दों 1
सभा 1
कहते 1
ञा@@ 1
हालांकि 1
३@@ 1
थिति 1
3 0.4690504531906939
रही 1
बद@@ 1
भे@@ 1
हिस 1
पार@@ 1
कुल 1
तत 1
रच@@ 1
किए 1
कृति 1
अन@@ 1
दिल 1
पक 1
षा@@ 1
खो@@ 1
लय 1
फि@@ 1
रिया@@ 1
हन 1
रसिद 1
राय@@ 1
पुरा@@ 1
फै@@ 1
थि@@ 1
रथम 1
वों 1
आ 1
५@@ 1
बॉ@@ 1
धार@@ 1
यु 1
॰ 1
तब 1
मर 1
वविद 1
पहली 1
योग@@ 1
ियाँ 1
आवश 1
रदान 1
धी 1
ंच@@ 1
४ 1
सामान 1
धार 1
पुरस 1
अस 1
धा 1
रन 1
बं@@ 1
टे 1
घट@@ 1
मस 1
३ 1
रिय 1
षों 1
यता 1
बना 1
ारों 1
एस 1
ँ 1
मू@@ 1
लर 1
संयुक 1
कृष 1
शी@@ 1
लित 1
दूसरे 1
जिसके 1
रां@@ 1
अमेरिका 1
जल 1
केंद 1
जान@@ 1
इस@@ 1
ियां 1
कह@@ 1
थापित 1
वं@@ 1
दौ@@ 1
दे 1
ोड 1
७@@ 1
मार@@ 1
शास 1
4 0.47033373851687876
समर 1
लॉ@@ 1
उल 1
ः 1
धि@@ 1
टेशन 1
बन@@ 1
भर 1
हु@@ 1
देशों 1
चै@@ 1
तमान 1
युक 1
उसकी 1
कृ@@ 1
गों 1
चा 1
खा 1
६@@ 1
रान 1
जबकि 1
निक@@ 1
यहां 1
संग 1
अप 1
राइ@@ 1
६ 1
टि 1
ऐ@@ 1
भो@@ 1
रवा@@ 1
जिसका 1
दन 1
पाकिस 1
सेना 1
बच 1
वो@@ 1
लड 1
गं@@ 1
आज 1
20 0.7583401210694906
इंड@@ 1
४@@ 1
माध 1
मं@@ 1
लम 1
थापना 1
लने 1
देश@@ 1
करा@@ 1
जिला 1
िले 1
शी 1
यू 1
पाल 1
नौ@@ 1
रो 1
-@@ 1
८ 1
उन@@ 1
समूह 1
’ 0.6422140352460047
रति 1
एल 1
कता 1
नि 1
ूर 1
अत 1
कारों 1
चार@@ 1
‘ 1
पिता 1
मह@@ 1
दुर 1
गयी 1
लिक 1
रखा 1
यवस 1
राम@@ 1
मृत 1
७ 1
बनाया 1
जे 1
नामक 1
अनेक 1
यव@@ 1
आधार 1
समझ@@ 1
पानी 1
पुस 1
कोड 1
3@@ 0.467467308701381
षि@@ 1
यास 1
एस@@ 1
फो@@ 1
बारे 1
उसने 1
टिक 1
तं@@ 1
कला 1
मत 1
शासन 1
ें 1
परिवार 1
मिल 1
९ 1
साम@@ 1
चन 1
बा 1
जिन@@ 1
चाहिए 1
देने 1
चक 1
बात 1
खि@@ 1
आम 1
अर@@ 1
गण@@ 1
6 0.506240565040933
लिस 1
ययन 1
पौ@@ 1
जारी 1
भव 1
संगीत 1
बिहार 1
कूल 1
हीं 1
वक 1
सेवा 1
उपलब 1
षक 1
यूरो@@ 1
ऐसा 1
कला@@ 1
९@@ 1
रल 1
अच 1
तीय 1
धी@@ 1
रचना 1
लिख@@ 1
सकती 1
कं@@ 1
लेख 1
विष 1
भिक 1
यत 1
पं@@ 1
आप@@ 1
भु@@ 1
रभाव 1
पुत 1
राचीन 1
२०१@@ 1
केन 1
दूर 1
दृष 1
८@@ 1
ऐसे 1
जहां 1
लिय@@ 1
डो@@ 1
नै@@ 1
महिला 1
देव@@ 1
आई 1
बनाने 1
चिम 1
टल 1
परिवर 1
थीं 1
अलावा 1
छोड 1
वरण 1
वृत 1
वादी 1
अफ 1
उस@@ 1
इला@@ 1
यिक 1
देता 1
रु 1
राय 1
चों 1
भूमिका 1
मैच 1
करके 1
ठा@@ 1
पादन 1
माता 1
तराखण 1
कृतिक 1
चे 1
जुड 1
निम 1
चिकित 1
जिससे 1
पोर 1
येक 1
10 0.561717135320437
खिलाफ 1
धित 1
लाइ@@ 1
ऑस 1
यदि 1
लेक 1
वतंत 1
सिं@@ 1
कंपनी 1
रोग 1
पता 1
पात 1
भाषा@@ 1
नियम 1
काफी 1
डे 1
सामाजिक 1
समस 1
छो@@ 1
धिक 1
कालीन 1
हों 1
ीं 1
नाओं 1
दुनिया 1
नाग@@ 1
डॉ@@ 1
लेकर 1
दू 1
२००@@ 1
ंगे 1
विधान 1
चुनाव 1
आत 1
वान 1
मॉ@@ 1
उसका 1
माम@@ 1
निश 1
जिस 1
शं@@ 1
कू@@ 1
तरी 1
लू@@ 1
हस 1
फु@@ 1
भार@@ 1
जों 1
कप 1
नल 1
रण@@ 1
नई 1
रम@@ 1
सिक 1
सौ@@ 1
चाह@@ 1
शताब 1
एक@@ 1
नाइ@@ 1
रिटिश 1
पहला 1
लाल 1
परिणा@@ 1
जोड 1
गये 1
लियन 1
परीक 1
विशेष@@ 1
अथवा 1
टों 1
आन 1
सुरक 1
ओ 1
आध@@ 1
टै@@ 1
7@@ 0.6589794452083788
णु 1
नाथ 1
खेल 1
ियो@@ 1
डियो 1
समान 1
चना 1
बंध@@ 1
जल@@ 1
हरी 1
इंग 1
सां@@ 1
इसलिए 1
किये 1
ऋ@@ 1
वाल 1
पति 1
शुरुआत 1
भाई 1
रीका 1
तृत 1
भूमि 1
आगे 1
वि 1
अमेरिकी 1
णन 1
छोटे 1
जहाँ 1
8 0.46000091077334165
ौर 1
– 0.09990124756880592
नए 1
तेमाल 1
नव@@ 1
रणाली 1
उम 1
वरूप 1
बे 1
= 1
एम@@ 1
आधारित 1
ियन 1
नेता 1
देव 1
कोशि@@ 1
रेन 1
रकाशित 1
पा 1
छा 1
वीप 1
रारं@@ 1
मनो@@ 1
कट 1
जूद 1
तित 1
उदाहरण 1
लौ@@ 1
विधा@@ 1
रेज 1
तो@@ 1
लगा 1
टिंग 1
वंश 1
ीक 1
मल 1
9 0.5160389370335645
दर@@ 1
5@@ 0.5279726852302048
सों 1
साम 1
रेलवे 1
जनवरी 1
समाज 1
णा@@ 1
वैज 1
पूरी 1
इससे 1
फर 1
राजस 1
हरा@@ 1
7 0.4432814002228081
मुक 1
बाहर 1
जित 1
इनके 1
ंतु 1
अंत 1
पट@@ 1
पस 1
ंब@@ 1
नियंत 1
गल 1
सिस 1
धारण 1
6@@ 0.547576019527811
4@@ 0.44785004020738556
टाइ@@ 1
विकसित 1
सिल 1
षि 1
होगा 1
जार 1
वो 1
मद 1
लोक 1
गांव 1
चल 1
सल 1
ही@@ 1
थों 1
कॉर 1
पदार 1
जाति 1
ियर 1
छा@@ 1
रहता 1
अम@@ 1
भगवान 1
वन@@ 1
बहु@@ 1
संघ 1
दस 1
थन 1
दशक 1
बनी 1
यर@@ 1
वाई 1
मुद 1
थल 1
रेणी 1
निया 1
बने 1
निस 1
रोध 1
ेक 1
ंगा 1
रंग 1
ॉ 1
सब 1
देते 1
जिनमें 1
विध@@ 1
रहते 1
अतिरिक 1
आधुनिक 1
! 1
होकर 1
नक 1
तरा@@ 1
छे 1
समु@@ 1
एम 1
हा 1
अधिकांश 1
गति 1
ताल 1
मानित 1
0 0.6400957067612002
मई 1
रृंखला 1
टेड 1
शरीर 1
शीर 1
रमण 1
रिस 1
फी@@ 1
ाई 1
रेजी 1
नीय 1
gt 0.5127800361213755
हाइ@@ 1
लोकप 1
विभा@@ 1
तना 1
थिक 1
उपा@@ 1
षे@@ 1
अगस 1
भौ@@ 1
माइ@@ 1
कानू@@ 1
शर 1
देखा 1
बद 1
जय 1
ियाई 1
नो 1
पॉ@@ 1
रसा@@ 1
यादा 1
तंत 1
सफ@@ 1
हू@@ 1
बांग 1
ुक 1
लिंग 1
संक 1
बस 1
टॉ@@ 1
टूबर 1
गम 1
यद 1
लते 1
रास 1
वल 1
अधिकार 1
यंत 1
lt 0.713598816997248
डर 1
नन 1
P@@ 0.0944054007860247
मानव 1
उसी 1
लिखित 1
,@@ 1
एन@@ 1
संचा@@ 1
जू@@ 1
दूसरी 1
विभाग 1
अभ@@ 1
डिय@@ 1
भिन 1
रभा@@ 1
रैल 1
एं@@ 1
फल 1
सूर 1
सागर 1
विधि 1
डिया 1
आप 1
वाचन 1
संबंध 1
जून 1
जय@@ 1
दाय 1
the 0.005865950564306777
चीन 1
सान 1
जगह 1
8@@ 0.5660206804464438
हॉ@@ 1
मिश 1
राजधानी 1
जुलाई 1
देवी 1
पूरा 1
ऊपर 1
मंड@@ 1
धु@@ 1
घो@@ 1
चिमी 1
तव 1
रानी 1
रोत 1
नियों 1
काव 1
लो 1
ये@@ 1
ठा 1
राजनीतिक 1
णि@@ 1
पल 1
विचार 1
of 0.010184652880434636
पष 1
a 0.013951124975469955
पहुँ@@ 1
सूची 1
बंगा@@ 1
रका@@ 1
तैयार 1
दल 1
विषय 1
महिला@@ 1
बिना 1
सप 1
ची 1
मीटर 1
तीस@@ 1
शत 1
अग 1
चो@@ 1
लोक@@ 1
रवरी 1
लब 1
भाव 1
सीमा 1
जीत 1
टेस 1
यार 1
दित 1
गति@@ 1
S@@ 0.06379201060078989
शल 1
०० 1
किन 1
विधानसभा 1
लेने 1
युग 1
पों 1
ञानिक 1
युत 1
पृथ 1
दास 1
वयं 1
यि@@ 1
शै@@ 1
कीय 1
निष 1
अंतिम 1
15 0.5126939013976928
कौ@@ 1
खिलाड 1
लिखा 1
गोल 1
हित 1
जनसंख 1
9@@ 0.5386970057037916
आकर 1
यौ@@ 1
ञ 1
थानीय 1
हत 1
षी 1
कोर 1
पि 1
भक 1
रपति 1
12 0.5044321704766944
वृद 1
ृत 1
उर 1
ॅ@@ 1
समुद 1
सहायता 1
रेल@@ 1
ंडर 1
योजना 1
टूर 1
नात 1
हल 1
कुमार 1
आने 1
नीचे 1
रशा@@ 1
सद 1
दियों 1
पृ@@ 1
जाए@@ 1
रेट 1
षद 1
दोलन 1
काल@@ 1
मूर 1
यापक 1
फी 1
कश 1
गुज@@ 1
ऐसी 1
संगठन 1
कहानी 1
टू@@ 1
तृ@@ 1
कांग 1
होना 1
१८@@ 1
समाप 1
सफल 1
ठी 1
हिंदी 1
पहुंच@@ 1
पढ 1
छात 1
अभी 1
पाया 1
तुलना 1
कॉलेज 1
रहने 1
कवि@@ 1
चंद 1
लू 1
रकाश 1
रस@@ 1
योजन 1
बम 1
इल 1
आक 1
ॉन 1
रवेश 1
M@@ 0.07380641683347236
पान 1
पण 1
वें 1
मिला 1
शैली 1
गौ@@ 1
रव 1
नाटक 1
रतिनि@@ 1
लीग 1
मां@@ 1
वितीय 1
किलोमीटर 1
मीर 1
पूरे 1
वृ@@ 1
सैन 1
चात 1
बह@@ 1
विशिष 1
पंजा@@ 1
रभावित 1
सहित 1
तकनी@@ 1
दमी 1
षमता 1
सदी 1
केट 1
गिर@@ 1
दूरी 1
दृश 1
10@@ 0.4790566780843615
अवधि 1
वार@@ 1
सीसी 1
सिर 1
C@@ 0.08187583910174856
हे 1
अवस 1
30 0.504436473049539
बंध 1
संबंधित 1
रंग@@ 1
गल@@ 1
पहाड 1
तुर 1
एंड 1
एन 1
सक@@ 1
सूत 1
16@@ 0.2970804087476643
रयास 1
किंग 1
नेट 1
वश 1
19 0.5873750657373482
लाइन 1
घु@@ 1
लगे 1
2008 0.45974605333936286
सेवा@@ 1
आबादी 1
किमी 1
सब@@ 1
कुमाऊँ 1
खर 1
ऐतिहासिक 1
15@@ 0.34990344002550056
गठ@@ 1
बंधन 1
चय 1
मिलता 1
कथा 1
मुस 1
बुद 1
मैं 1
बोर 1
बाज 1
वहाँ 1
उड 1
चू@@ 1
यकता 1
इंटर@@ 1
ञ@@ 1
शनल 1
खान 1
इनमें 1
थाप@@ 1
पित 1
रियों 1
जिस@@ 1
परिक 1
बार@@ 1
आर@@ 1
17@@ 0.2870234653508922
रेष 1
लाया 1
माने 1
N@@ 0.0845254256790477
करे@@ 1
तहत 1
घोषणा 1
यापार 1
रहती 1
राव@@ 1
लाम 1
2007 0.46646427226311094
मैन 1
गां@@ 1
कठ@@ 1
तुत 1
वीकार 1
आकार 1
दिए 1
सहा@@ 1
काओं 1
11 0.5287847647935244
आता 1
मेंट 1
लिम 1
पुरुष 1
विन 1
बू@@ 1
दूसरा 1
चाई 1
जनगणना 1
H@@ 0.06891400380580615
वु@@ 1
आते 1
संबंध@@ 1
दि 1
चरण 1
ील 1
हाल 1
आयोजित 1
सके 1
तरी@@ 1
अग@@ 1
कम@@ 1
रतियो@@ 1
वेश 1
हाथ 1
गीत 1
चारों 1
रती@@ 1
नग@@ 1
परा@@ 1
आग@@ 1
नुष 1
ऊर 1
जब@@ 1
समि@@ 1
वायु 1
मदद 1
ौ 1
रेलिया 1
एशिया 1
थो@@ 1
मही@@ 1
थे@@ 1
बौद 1
जिसने 1
लादेश 1
टार 1
बनाए 1
टर@@ 1
गुप 1
दिखा@@ 1
इनका 1
दिखाई 1
झा@@ 1
बता@@ 1
विवाह 1
धारा 1
तियाँ 1
घं@@ 1
2018 0.45552562352541875
टो 1
जग@@ 1
18 0.42606001664517945
ऊ 1
आम@@ 1
2019 0.4593250641781995
योगि@@ 1
अध@@ 1
पीय 1
थात 1
बाल 1
थर 1
अका@@ 1
जाए 1
टम 1
मारी 1
टेन 1
आती 1
शह@@ 1
आया 1
तल 1
2009 0.41176423320709943
भावना 1
1@@ 0.4493790212031724
नामेंट 1
हेतु 1
धांत 1
20@@ 0.8876660978730323
एल@@ 1
ारी@@ 1
मत@@ 1
लास 1
विष@@ 1
रखने 1
याय 1
गन 1
तुम 1
आलो@@ 1
बताया 1
ारण 1
सामने 1
अंतरराष 1
गू@@ 1
लस 1
घ 1
शील 1
25 0.5017558759075332
T@@ 0.06455053780825787
नू@@ 1
50 0.5019616580897264
रू 1
B@@ 0.062524289980337
13@@ 0.4569533832259355
‌ 1
14 0.4590809448456209
किस 1
16 0.43703391477107384
राजनी@@ 1
E@@ 0.0822352408110634
D@@ 0.0637867462982455
I@@ 0.11698660181257367
A@@ 0.0777798828854481
2006 0.4072792949273055
भि@@ 1
ूल 1
हां 1
17 0.4667878719290158
हिं@@ 1
,000 0.6889047783027902
शित 1
0@@ 0.6377793616644715
21 0.523936690491237
2010 0.3089088843202987
तै@@ 1
ौद 1
14@@ 0.3569502406320294
? 1
13 0.4193434556531815
G@@ 0.06310678448491082
R@@ 0.06240596268037919
शिया 1
M 0.38744150708721786
12@@ 0.38426146608043354
दिर 1
i 0.05524651728131603
2014 0.3092975901312252
2011 0.28587512282991084
L@@ 0.048281046322249756
2016 0.31414257393851486
I 0.17521400000097395
_ 0.3276943807912253
2017 0.32889581058514994
लाई 1
िये 1
लग 1
2005 0.39718702288804114
and 0.00683203022010466
ंश 1
पहु@@ 1
टक 1
24 0.4415530881561926
in 0.0043915374325095595
सरे 1
छ 1
अंतर@@ 1
+ 1
22 0.48484676202292243
कंप@@ 1
1.@@ 0.5782831155342064
h@@ 0.07045429957360926
2012 0.2808695773877373
शिष 1
पुरु@@ 1
2000 0.3887890365584763
झ 1
18@@ 0.25451885252877254
परी@@ 1
100 0.42693944732502054
गठन 1
00@@ 1
2020 0.33668810664632265
माल 1
ारित 1
40 0.4806065297749049
F@@ 0.05015770418158384
O@@ 0.08168088469657069
भाव@@ 1
23 0.4545631510530809
2015 0.2650285652224975
ताब 1
2004 0.3675508225552401
रत@@ 1
वय@@ 1
भा 1
s 0.03833396363419841
26 0.5104783955540932
खण 1
2013 0.255086427152566
कित 1
कहा@@ 1
2021 0.37066686007753646
सित 1
समू@@ 1
योज@@ 1
“ 0.05082303670072188
28 0.47477696722668866
$ 0.3479800596250352
27 0.4795393214097315
W@@ 0.04325782342163075
ै 1
” 0.7244841038848012
A 0.08736541890693711
हाला@@ 1
K@@ 0.03669506906010808
V@@ 0.0612281898345143
2.@@ 0.600829638820918
ः@@ 1
​ 1
2003 0.36166723777969956
p@@ 0.0474627214519857
2002 0.3688078585390275
2001 0.36854783298708127
इ 1
लना 1
1990 0.4608738263182308
60 0.4602105673182317
अति@@ 1
राजन@@ 1
E 0.24514819725105905
T 0.2450744464587263
रणा@@ 1
to 0.006520928821646926
29 0.439739901227927
... 0.6099547044081643
y@@ 0.04611606813848834
1,@@ 0.35856604328811187
भूमि@@ 1
विवा@@ 1
31 0.5119563120599039
C 0.1883570746856091
D 0.1866607454184818
ंकि 1
t@@ 0.02513466452345727
भग@@ 1
२०@@ 1
1980 0.5230791709426411
80 0.46676335239309247
1999 0.34264384536558534
॥ 1
k@@ 0.02596516071543313
S 0.19865885158375207
b@@ 0.028652591227500745
0.@@ 0.5842425947331915
w@@ 0.042581388945658126
दृ@@ 1
कास 1
19@@ 0.7679820723973568
1998 0.3450441055019581
ङ 1
formula 0.21769847992052122
is 0.01120965420901617
U@@ 0.08412377140027447
3.@@ 0.5817117081763812
g 0.07869324889843518
x 0.15605027773968638
70 0.47453955192231534
वरी 1
c@@ 0.03714600345965192
इतिहा@@ 1
s@@ 0.02292873962161494
गाँ@@ 1
200 0.4528416213968278
m@@ 0.03305210174860938
L 0.19482667905059195
i@@ 0.04527576669877314
° 0.7034001527703617
P 0.21394953877783743
ا@@ 1
जिक 1
1996 0.3322221609985336
o 0.02580868601434497
लेज 1
अमेरि@@ 1
n@@ 0.02866777229461471
नाव 1
O 0.1483024481789685
1970 0.4662233386973159
ar 0.05033075359551219
J@@ 0.04623519939014628
35 0.4747455874213691
09 1
d@@ 0.02822260944704476
1997 0.32025173747551533
500 0.4521189085995252
b 0.08636232311483474
B 0.12810910234056067
a@@ 0.0551032847579542
शुरु@@ 1
j@@ 0.04758005151487666
on 0.009663782791615002
The 0.009356435811890357
30@@ 0.5360806724051317
or 0.027098499082016555
90 0.40837896169516613
25@@ 0.520241277730121
al@@ 0.031029659664548955
al 0.031705147179669324
अ 1
g@@ 0.02779784779038202
1992 0.31249729859027436
45 0.4518413835001151
— 0.29800768426772084
v@@ 0.041000774959907005
1994 0.30351366962511267
1960 0.4768310563641373
गणना 1
p 0.08759166583651393
or@@ 0.04227598012778339
1991 0.3194235095400482
an 0.008271321818911827
1995 0.30123318768015567
1993 0.3167268203502389
R 0.1591976617504616
N 0.21868037265471268
4.@@ 0.5766254021124512
F 0.17009616685494186
000 0.7786575605181473
an@@ 0.023625578129995876
ar@@ 0.029379478684563344
मद@@ 1
ृंखला 1
Z@@ 0.03980544497873898
अला@@ 1
एव@@ 1
उ 1
l 0.051945242639685044
32 0.4236632697524385
तह@@ 1
ऍ@@ 1
tt@@ 0.3892789757600912
n 0.03904090112211284
y 0.026389391109188094
amp 0.10734560903031966
e@@ 0.03270347951944718
o@@ 0.03873831625724465
75 0.43721073131727123
d 0.04004897977244756
u 0.04360706509454305
in@@ 0.02297167355180735
1989 0.29061160417194
ation 0.028586618437225136
1950 0.4319382681360709
00 0.408266175751892
H 0.2702356407745038
th@@ 0.035423647106639165
महि@@ 1
1947 0.45692001227392876
X@@ 0.13420917167364113
m 0.0377697599901714
7.@@ 0.5622207528799336
1986 0.3121285020399274
2,@@ 0.29351832958414853
36 0.44930477057761337
5.@@ 0.5896538497179284
as 0.007904852894908929
1988 0.28438741380458693
33 0.4509760998157832
तक@@ 1
1984 0.30805118466080067
c 0.07730917174292884
6.@@ 0.5343523004883871
65 0.3370138858212665
us 0.03358421114257826
* 0.07089235280714012
G 0.14973292793317705
1985 0.30095883727576245
h 0.06259237752604871
योजित 1
AM 1
br 0.6748234796967175
• 1
e 0.01868340667033013
1987 0.2801695207937061
मि 1
ch@@ 0.026633444405217484
55 0.47152416824346505
1962 0.3773869836345311
1971 0.3259842998857387
50@@ 0.5008125045021967
1972 0.28146833731360615
1967 0.33749520322903476
47 0.514810835174258
ंने 1
शरी@@ 1
ing 0.0145058187302494
X 0.23041288518803998
t 0.01405002049599203
37 0.4452882598197457
1952 0.39014734012206753
34 0.4120714386438542
V 0.17021285297390215
उदाह@@ 1
re@@ 0.01675267472476783
तिम 1
# 0.4517252864878898
300 0.4734576372152312
Y@@ 0.05028293999332681
38 0.4208646046925097
ap@@ 0.05214942391151062
64 0.3745515412069457
l@@ 0.019326724181860436
8.@@ 0.5258013617850664
ل@@ 1
48 0.4310042930990568
1977 0.30604506395537145
1982 0.2803121668534733
मता 1
es 0.009234032951530195
f@@ 0.016343441341331522
am@@ 0.030786665484448
II 0.13508705857745398
ॆ@@ 1
40@@ 0.5636825554741939
9.@@ 0.5577112405108811
ऐ 1
as@@ 0.0363664151374703
ag@@ 0.03704558290953297
de 0.018141457641441656
0,000 0.6727399738541163
ic 0.05189164399670684
ad@@ 0.035151508126582964
1975 0.27039706666473395
x@@ 0.07392240211516157
52 0.46791281774528437
.. 1
42 0.4016873459715443
1973 0.2759412777630065
1979 0.26603585144469233
1948 0.32685242733517406
it@@ 0.026390327706248495
r@@ 0.027086898706430603
44 0.3672781242667109
तिहा@@ 1
1930 0.40081128636462415
1983 0.25420186121322824
1956 0.3272718153961808
us@@ 0.047111017649959584
1957 0.34161798245716013
for 0.006725028471710164
43 0.444774897082632
99 0.5114046432086579
रथ@@ 1
er@@ 0.011569645006500444
ृ 1
ps 0.14976925919293263
1978 0.25020784225572973
at 0.007996375841624045
at@@ 0.028416352618825438
1965 0.28690749470376387
1981 0.2562801824439021
विशे@@ 1
di@@ 0.029835741430047392
39 0.41232263487270093
1976 0.24695297250782722
51 0.4396770721890846
W 0.1508278932309515
400 0.378507658778234
56 0.4605676054088461
3,@@ 0.2945744112338309
95 0.43627873105160736
u@@ 0.02349601287913508
1969 0.2540620260003735
1974 0.23610278566939677
am 0.01326682139796457
183@@ 0.15883000022103674
05 0.577047055928967
07 0.606423674237438
खिला@@ 1
ळ@@ 1
IS@@ 0.37479556967112804
अथ@@ 1
en@@ 0.010536721405835503
85 0.4139965218259656
41 0.3812840847039952
ro@@ 0.030068010853728764
08 0.5693434276650425
53 0.4350318048629293
um 0.015856427140572425
k 0.025888326881684784
er 0.004195432619471379
68 0.436087131677814
हाँ 1
.com 0.9314896801935347
op@@ 0.03983671959928844
.A. 0.8119923849402966
46 0.4042977893682898
م@@ 1
by 0.0066672282726069135
06 0.6208517330616121
U 0.10239747583015614
1920 0.31699695686358303
1000 0.5266545419931444
en 0.009707723817785499
1968 0.22384692074790027
on@@ 0.02133063674712822
उदा@@ 1
1964 0.24412322083042526
1966 0.2568210185818969
66 0.3905788982005337
Ch@@ 0.032101807635618984
72 0.43674146329538094
अधिका@@ 1
61 0.4166691118388735
62 0.4029182971957607
49 0.38153210783837
04 0.5373654418273938
r 0.059010592139001845
180@@ 0.16452121163938388
54 0.3940910406755333
le 0.02581879357914388
58 0.422105818597081
st@@ 0.011309538066982169
88 0.44970282850709176
86 0.44925762201123465
iv@@ 0.1103748687944725
01 0.5048065985502476
1940 0.2525624455967415
63 0.38090250225217515
57 0.39803127195580823
150 0.4791490749295581
1961 0.2482908471935638
ia 0.03181311879125639
ॆ 1
that 0.0076243099409946564
1963 0.24334025768070297
ac@@ 0.031045179728783366
अमे@@ 1
ra@@ 0.028358572586990316
ed 0.012604396871024768
4,@@ 0.29413901576884877
ul@@ 0.03450633845290624
1955 0.26665252087864627
um@@ 0.023166891172864933
आधु@@ 1
ङ@@ 1
1949 0.24968347294102167
67 0.365354480154378
is@@ 0.019059419306592475
et@@ 0.020979914516718122
ab@@ 0.016815544984196216
78 0.4190022888452564
98 0.4279587784595464
71 0.40413174204228625
K 0.09356807612298167
ر@@ 1
ak@@ 0.028961302580762745
om@@ 0.035690636253595094
1945 0.12018456099243308
est@@ 0.05274874733930499
em@@ 0.025712503157776182
un@@ 0.0129057142143833
77 0.4163431900465046
03 0.5423993713326759
1954 0.2543558005688616
os@@ 0.029025111563412344
1946 0.2181932097988975
96 0.3993710090059642
600 0.44881516937105725
III 0.21847931893582717
el@@ 0.014336385653551945
ur@@ 0.028788639264492905
76 0.4059855530114614
de@@ 0.020215048282728368
ph@@ 0.04592250990683684
1958 0.2283142956018717
02 0.5288948656215674
73 0.42435392284832313
59 0.37038521662510987
are 0.011754182530822683
ॊ@@ 1
1951 0.2552677660512337
e.@@ 0.8271299945850837
ur 0.05939924615666248
1959 0.23305324962601176
5,@@ 0.3418442372767293
84 0.4165487537185729
74 0.4043106868651044
ik@@ 0.04574840377763282
Q@@ 0.12051860956309221
par@@ 0.05423001931291318
87 0.41031345521697293
178@@ 0.21496788486319443
92 0.3894249145407753
we@@ 0.054951848819900624
69 0.35173084774674535
es@@ 0.019221628736701763
with 0.00512244447483567
97 0.4101413182504023
ine 0.027012949483452967
179@@ 0.16769007065099442
81 0.389105126146946
was 0.0027662147958813672
ate 0.01907341067749474
82 0.3944344461821889
83 0.3931306574236633
6,@@ 0.3140594238165927
li@@ 0.02230728274181287
IV 0.33478680698618596
ic@@ 0.03529545879423816
arch@@ 0.09420097867053284
ot@@ 0.02690929246815246
11@@ 0.4542661470079417
it 0.009586320651821901
1857 0.7430642776435699
1942 0.19856117650067592
In@@ 0.02559602808442536
WW@@ 0.6888203836271032
800 0.3959835909165658
1953 0.21974696492889714
2022 0.23365598187512132
89 0.3819455777369231
94 0.37465125982163117
91 0.38861247329577486
ب@@ 1
कुमा@@ 1
oc@@ 0.03544865136236522
و@@ 1
f 0.0375976075269819
7,@@ 0.2978152203594188
ref 0.7414046244412069
ww@@ 1
93 0.3683878148560729
ment 0.05223666401105382
ha@@ 0.058869801272413674
24@@ 0.9025539832467422
1936 0.21102791934719614
le@@ 0.021089638833492966
ay@@ 0.05316951976519127
be 0.010004900453767942
79 0.36589900673828724
AS@@ 0.24866340467674883
ah@@ 0.05041913533540281
com@@ 0.07398828312866973
v 0.06636411997045777
1939 0.15830480033428432
ृंख@@ 1
ang@@ 0.0335862908659684
CO@@ 0.3033901299337655
1941 0.175980482105088
il@@ 0.020548274549582305
1937 0.20793794716433747
8,@@ 0.32098321414765213
web@@ 1
An@@ 0.013589041710013365
Y 0.2681480279984538
one 0.01225520561437725
ity 0.03834374745892185
z@@ 0.009536772605476685
1900 0.24301078200917298
from 0.005849442682647874
1919 0.2014754359372403
250 0.44673315701214455
ns 0.07272927617477153
US 0.03922707820969548
1932 0.22939393498822994
CA@@ 0.2034429057400636
Z 0.17594055656371432
con@@ 0.027117668822422593
ol@@ 0.021227466226938354
टिश 1
ri@@ 0.018201303599078063
sh@@ 0.021733149650746474
200@@ 0.3624988456728176
tim@@ 0.15406632418851063
et 0.02223421076946897
177@@ 0.22287458742397037
120 0.46834509213663106
se@@ 0.02665726811973346
सामा@@ 1
Sh@@ 0.030640449412411577
im@@ 0.02425780329093332
ec@@ 0.03564913638028842
ern@@ 0.04763085587809115
{ 1
ن@@ 1
धानी 1
ra 0.04657186555327545
700 0.4483948862115851
ame 0.14206650872289905
enti@@ 0.05992950155388021
া@@ 1
1928 0.20381113417712987
si@@ 0.023611942974420094
ir@@ 0.02608873605532739
1931 0.22756527686799086
‎ 1
1,000 0.6671455786842276
ut@@ 0.02311335628477726
ers 0.010035564213626062
1935 0.19028091017597878
model 0.19425227544226484
ed@@ 0.027997561208511504
201@@ 1
1934 0.18463139414052218
£ 0.2625215776806896
ology 0.06876968404160003
1921 0.21962006483148105
} 1
1924 0.2122734551325373
av@@ 0.03624327727604783
ॅ 1
1918 0.172129311036664
1944 0.1314441082825828
hi@@ 0.04945890117113684
and@@ 0.030638515158837584
1938 0.14196754545446616
9,@@ 0.3118471150649083
ce 0.0385075368389565
ي@@ 1
ya 0.08028138408961312
س@@ 1
contribut@@ 0.5229747880316381
184@@ 0.16245950500363426
ن 1
TV 0.07842442131362307
पहा@@ 1
National 0.035137765230848356
а@@ 0.4939717102221672
j 0.11438843214494897
5,000 0.5634921926216192
1943 0.14458826787861426
1912 0.20810060551120313
`@@ 1
format 0.29289265516304025
विक@@ 1
₹ 1
ti@@ 0.01962470697670686
1922 0.2042218099176395
1929 0.1820354927209741
qu@@ 0.022198772844336623
ath@@ 0.05206165880742988
OS 0.2842906101512023
− 0.414315126694413
1933 0.12799438502807864
ch 0.016410447873991194
1925 0.19230517517785087
AT@@ 0.1612302746831452
ॐ 1
1914 0.17234763909337492
pur 0.4735242136944133
au@@ 0.016495852628812747
id@@ 0.028671487258711884
og@@ 0.03311979989138628
1917 0.20394648493119555
India 0.09401954425433716
ai 0.05294513509187799
तिहासिक 1
St@@ 0.010494217501082969
1926 0.19584682760246902
ob@@ 0.026049984956616593
о@@ 0.40953812387954575
ary 0.03238327511929752
ous 0.037396491507624884
ad 0.038412566376439895
Ro@@ 0.03938359414808809
US@@ 0.11656418280163074
Al@@ 0.017638721386177846
mer@@ 0.03305588927333511
ep@@ 0.02454860642892227
Q 0.28031605533546716
th 0.02732722621236104
age 0.015116857911772112
which 0.007411717322083744
pl@@ 0.027516538285339898
ism 0.051168793948079834
Di@@ 0.028977936524519462
ical 0.03953334278179597
har@@ 0.0692104219342695
1927 0.17780699770552083
end@@ 0.01916400219881939
Th@@ 0.03555965404308105
ana 0.04008868447149794
NA 0.3060756175374271
id 0.0421849747158035
od@@ 0.031619063782139974
1908 0.21276837464141665
per@@ 0.024577480670772336
1910 0.17920920614662908
· 1
ent 0.015231304070233612
ov@@ 0.03028950614123951
10.@@ 0.41541844710539155
1905 0.21431445424667386
1923 0.17877003954326323
د@@ 1
sp@@ 0.014659240622407137
× 0.24917607010982928
1911 0.1975416338923531
z 0.01489034998197579
и@@ 0.4298241583444394
सील 1
ations 0.01745134031356887
mar@@ 0.027230346292369097
his 0.004519740418142175
ics 0.039801321649433875
la 0.04952584901622058
vi@@ 0.027748251979273643
ent@@ 0.008651295453413466
ex@@ 0.023517717509902687
AT 0.44862569179817935
Re@@ 0.02039293416783528
1916 0.2037568220718012
el 0.010674320797989328
au 0.02840211484986419
NE@@ 0.3743941379243784
… 0.18547890499847566
In 0.0033324361943066205
ऽ@@ 1
Ar@@ 0.02273369847188957
DVD 0.29269013107659
ی@@ 1
Con@@ 0.023835939011921634
ter@@ 0.015252601409455002
बादी 1
IC@@ 0.23143519160553927
co@@ 0.03165885984756576
ig@@ 0.017039615931837785
di 0.06954224937340228
MS 0.185932880964003
ite 0.042365794580234234
भग 1
ح@@ 1
IN@@ 0.27601796528132433
ant 0.019884746105588488
ع@@ 1
Windows 0.37125817643141806
J 0.15422633856086862
DA 0.3676692329296387
att@@ 0.029279288025809317
ile 0.05699912916174354
ळ 1
ated 0.01312364634844741
me 0.02558798070017377
1915 0.18506145373828942
1906 0.19150716926381162
all@@ 0.020637690980742692
dis@@ 0.017354988914459
1500 0.36247171545295
AR@@ 0.13316783727769652
180 0.47120356475209096
1901 0.21483465176772462
Mar@@ 0.014005095677400627
BS 0.19517481192572123
CD@@ 0.22219682170549576
NS@@ 0.14446062954629185
iki 0.38997125584349374
্ 1
able 0.020353674218959696
0,@@ 0.11057001751408854
tr@@ 0.02513310575002862
е@@ 0.408845354339481
se 0.020553525544984554
900 0.43875995987660305
் 1
Par@@ 0.021996808677506363
ign 0.2437219038222603
he 0.004260139766242068
NBC 0.46037363167130546
1904 0.19398529123017214
eb@@ 0.026598373520295746
AL@@ 0.34401931746051917
SO@@ 0.363784204889517
hy@@ 0.0693781727218169
FI@@ 0.19362060126430816
w 0.026933034662286175
os 0.01554392025968377
ci@@ 0.03317636930888231
ing@@ 0.020234019013334995
sc@@ 0.031112512281163355
Man@@ 0.027397665685237802
1896 0.22777238199972946
1909 0.18377238050312356
CH@@ 0.3853593581074949
1913 0.1582579092628793
ance 0.022940091081626538
ma 0.035292015667228595
ter 0.008192268512318905
ud@@ 0.053164466002130505
р@@ 0.43625352439071863
Microsoft 0.4527305737094216
130 0.41177106397666696
AI@@ 0.22478809342915212
ER@@ 0.21833507530772003
have 0.010425376761918691
RA@@ 0.14542120709792244
pro@@ 0.01864035211332124
UK 0.08858801086619995
घोष@@ 1
་ 1
AC 0.16187738095759194
Ph@@ 0.04857475624616539
its 0.007101275009529356
н@@ 0.41405191349292153
1907 0.1669671706727539
ge@@ 0.007870706450819645
विधान@@ 1
110 0.38254084102017855
ach@@ 0.019302588172534302
dian 0.25334838266681275
PA 0.22789978660195923
CI@@ 0.2517861065219379
not 0.009146562624195389
ons 0.018706249294996764
ve 0.018999341519956026
has 0.00703707563958636
د 1
q 0.1539052760480994
up 0.014938760490790959
1890 0.20647441195319075
3000 0.4173785110898193
eg@@ 0.01627435333588668
po@@ 0.02829486320271276
ā@@ 0.08079104092481762
no@@ 0.03247374883423041
amp@@ 0.04341335998063904
ran@@ 0.021577044408638054
ae 0.062263274569004684
man@@ 0.017866623363649588
Cl@@ 0.04367887060661271
किलो@@ 1
с@@ 0.4690935494670188
Sam@@ 0.07808263655268069
car@@ 0.026982005524385004
center 0.10001727344002063
hi 0.10907211148458218
MA 0.20248321994131124
AC@@ 0.16330931178056618
ati@@ 0.027694966703700998
log@@ 0.09765329363521902
ts 0.01049166963168367
also 0.005832599748923683
ant@@ 0.019882135127796158
lo@@ 0.020768077653660795
text 0.13219598155611342
1902 0.17814151703805592
ast@@ 0.017413850023722255
ऊँ 1
ST@@ 0.24071498312673684
AN@@ 0.23981371779061328
name 0.021902182271599794
ne@@ 0.016980901027824184
oph@@ 0.054398544498098104
CD 0.11152621669547896
ma@@ 0.02983105554494108
man 0.009138472546199417
war@@ 0.027418717628684423
Indian 0.0703752343555072
les 0.02669957737216577
ric@@ 0.04610867340039477
ot 0.03458423956733971
ha 0.06718178253597716
ish@@ 0.04510529471809807
ka 0.026672118723110035
1880 0.21684909970305066
all 0.009717181953461832
AM@@ 0.2133081983026389
be@@ 0.004963108334641402
codi@@ 0.30029557271242124
col@@ 0.044939407153098875
oo@@ 0.037807717111118175
ऱ 1
AS 0.19695300606756178
Am@@ 0.025041917994392815
ho@@ 0.026412515145182308
SP@@ 0.15907417065078122
ial 0.04259902758340608
yl@@ 0.04252740597041543
elec@@ 0.06728602068787795
ting 0.0195362615794213
1800 0.31899551648594
1899 0.17878452697393674
Pro@@ 0.021774338766230354
BM@@ 0.25445160250382987
ai@@ 0.03359273493384694
ou@@ 0.020203442565792294
ंख@@ 1
aw@@ 0.036538456533884385
sub@@ 0.025153317607895086
inter@@ 0.017334479439387943
é@@ 0.01617767599015298
л@@ 0.4977644176047133
vision 0.171164045155755
SE@@ 0.15170230848644625
der 0.0004302768990052621
bi@@ 0.026806736379123106
pe@@ 0.036401081588056314
this 0.008821350275697557
SC 0.1147968088409244
ory 0.04088168787806526
up@@ 0.025848220742604174
ة 1
Ex@@ 0.02430394620981599
als 0.002125880992617336
ت@@ 1
1895 0.18286468404299386
ore 0.03328542861491166
ˈ@@ 1
α 0.5554416015074517
1903 0.15755812658906732
AP 0.27091635129681924
Bar@@ 0.017657999997273088
ative 0.026505257658698045
ر 1
ure 0.020498668330536794
1860 0.22101205920488481
az@@ 0.023204162882310773
ind@@ 0.034448599091818834
sk@@ 0.012887674417293995
1898 0.1678155143578009
Highway 0.1315864833243823
tu@@ 0.04378273893749264
1858 0.30439250848684885
ext 0.1911014378268814
ani 0.060433462134506594
ata 0.05172120725987556
la@@ 0.01598083690163303
IT 0.23023778012065307
ke 0.014002051939369766
1889 0.19601287148939653
ari@@ 0.03645615329327923
1870 0.1846460611437136
can 0.014587992293901996
tri@@ 0.020095234563073473
AD@@ 0.30685021056512685
ug@@ 0.025267393583789304
aj@@ 0.0545436056894141
ence 0.024269386106300094
ge 0.008795764996456526
1885 0.1904971209902126
Co@@ 0.025561899884028575
DC 0.18662653945976465
ill@@ 0.018008158317325284
1891 0.1933474062873842
ip@@ 0.04535876116870129
ry 0.018795000340925804
ver@@ 0.0040220699434871734
² 0.0958013261198138
1887 0.20694696350142427
q@@ 0.07186525900885964
sion 0.025154614777945793
Bo@@ 0.02304366787014884
ator 0.030400691724177593
than 0.016439735604438812
AN 0.3083111752972131
te@@ 0.01837426118580897
র@@ 1
BC 0.11850760332406197
FC 0.03785334112580272
su@@ 0.02250799873776987
Car@@ 0.01643493681701345
ay 0.02023068627757533
ang 0.01799009416402983
mo@@ 0.03488511365033385
AP@@ 0.2176675880704601
right 0.045134116043009515
ub@@ 0.024362384279845172
LA 0.19067938182868474
DP 0.1574391627049527
ی 1
1897 0.16909942837941094
Per@@ 0.023623251266428027
River 0.033013226421851845
to@@ 0.0282685943395845
Sp@@ 0.013559634009627732
UN@@ 0.1248001701606956
system 0.026344923870286432
हिए 1
1894 0.182697488151291
he@@ 0.0218543246261524
met@@ 0.029938482188917277
na 0.03469829156126664
Qu@@ 0.020072549312565358
il 0.02439674292108816
1888 0.179860813051914
ash@@ 0.03356843199921448
tro@@ 0.0369957869862797
ian 0.01663456041613911
ব@@ 1
CA 0.17266749950764368
ak 0.028348680968093343
mon@@ 0.018412006248319027
ج@@ 1
da 0.015159890784451562
re 0.012647088514349735
1882 0.20271994797511994
ari 0.07526489277032955
atic 0.05355249363122769
des 0.001312090522498921
ist 0.0017154697258415885
ـ@@ 1
gle 0.16068789262977728
tion 0.016788187943881178
DNA 0.20786218090961198
Hz 0.287118133312168
MP@@ 0.23355949458977565
comp@@ 0.03152110860947683
En@@ 0.023192022739629187
gl@@ 0.020792959689490277
1886 0.1920752692607466
SC@@ 0.15310518696376146
Un@@ 0.017300351640172847
ok@@ 0.016499830697738915
ol 0.03279307965604262
As 0.020052830935993523
RE@@ 0.20430736929985555
к@@ 0.4160909704100528
ans 0.014416771472071696
Ac@@ 0.035677303090992485
Si@@ 0.040544364248099256
ium 0.05267191474753071
rac@@ 0.06671263193763201
1892 0.16756306132570017
ens 0.010853335984383889
sis 0.06512037687799935
\ 0.3731360312400985
ru@@ 0.016525042621426726
CP@@ 0.24987562564170976
Sc@@ 0.04047552342239453
time 0.008641523261248766
1893 0.1613588888882995
tra@@ 0.013996995902858096
PC 0.17923963556266648
ass@@ 0.011324371130187414
ev@@ 0.019128389690130396
ow@@ 0.01430681414715567
в@@ 0.4178766481916625
der@@ 0.010065581754015252
gh@@ 0.02149746946941063
ি@@ 1
ah 0.030166017908596073
fl@@ 0.010966910239924705
their 0.005808559704703547
CE 0.22002379857805254
U.S. 0.03570407762311518
ating 0.018780030566795156
iz@@ 0.016364343327717103
TA 0.15383790001328979
ates 0.016622486882155455
ο@@ 0.41288042531326435
Ab@@ 0.007091145530593563
Su@@ 0.027929901987043867
hal@@ 0.01824312790108996
CE@@ 0.19759316383198575
DS 0.1552075568830305
Ne@@ 0.018445229307825765
^ 1
war 0.002284884466856071
1884 0.18371921129642163
te 0.0031679967735140768
two 0.006825537619534284
IC 0.207664711975261
Mah@@ 0.06987614815873638
gen@@ 0.009141888106956413
ش@@ 1
Ad@@ 0.01800157129593797
α@@ 0.4485409715626068
ii 0.19717251387293053
ॠ@@ 1
FA 0.12911627824401414
ara 0.04387022613500787
equ@@ 0.07615963727423264
du@@ 0.021452134594156853
had 0.004341049396241485
ion 0.02195738553722702
ly 0.008670169811886647
more 0.009772663488280311
~ 0.609817486597595
km 0.017765030995522905
AA 0.15089799649305918
Institute 0.05012011174020661
т@@ 0.40270966096067595
ऎ@@ 1
CS@@ 0.17258431924553555
ell@@ 0.011842759528571481
1850 0.17205804195305915
1881 0.1756609089345772
Raj@@ 0.0993894073691467
bu@@ 0.028049712186156154
lin@@ 0.019232173393922154
Goo@@ 0.22271980748826176
م 1
IB@@ 0.2267140566692055
Pal@@ 0.030850467807044042
gar@@ 0.0342157893792184
pre@@ 0.013628773095032024
were 0.003095101333296286
ه@@ 1
1867 0.1765263879539674
fi@@ 0.033327117396950226
her@@ 0.014431800357113975
.-@@ 0.1472271878780966
De@@ 0.02572084187470996
SA 0.1125259996469253
yn@@ 0.03635986879104681
190@@ 0.7147144743231397
uk@@ 0.03719016010497249
ς 0.5012684681545686
് 1
IM@@ 0.2576694810758505
aya 0.08984615892685276
ene 0.015611968667001977
1872 0.17632953674933932
1876 0.17532603532068453
gu@@ 0.018213192018364452
Inter@@ 0.02604249766332547
first 0.004596271661368438
ili@@ 0.02655974100156426
ist@@ 0.013528706015928737
number 0.017408892299548194
yp@@ 0.04226277388325351
Ma@@ 0.019644599181429603
VI 0.22425524883161332
br@@ 0.020265900075578998
but 0.00577006290568024
est 0.012311736568592403
other 0.008094685694002813
ta 0.038153237011143204
1883 0.1755039632293361
RO@@ 0.2029369041483978
ell 0.013276763073690887
if@@ 0.0161065526753141
IT@@ 0.1689963888041054
Me@@ 0.019929495879382877
asi@@ 0.029555832876686738
ies 0.014290235579635754
ann@@ 0.015966058684302033
Gu@@ 0.016142493026333818
→ 0.4163032360142009
Com@@ 0.027033267634400632
This 0.010140839669173186
World 0.013722610665206187
cor@@ 0.032009958295772425
ie 0.006598173038606468
1848 0.14444678383507445
1878 0.16903003550381554
cul@@ 0.03886991774173584
ding 0.017205080145498618
ton 0.012411728437773642
Hy@@ 0.044440653036272024
bar@@ 0.016845596245942725
ings 0.01095268897551447
Mon@@ 0.012265648787158879
been 0.0064398462188269
lu@@ 0.017321072930857388
res@@ 0.015984164859436448
sol@@ 0.024077717018210983
It 0.0049133256881401105
und@@ 0.018682548572073295
zo@@ 0.0823917067856563
ম@@ 1
1871 0.14400029060953556
eh@@ 0.014755250468611513
mat@@ 0.02538265341860193
mp@@ 0.03169412531360063
ي 1
Cor@@ 0.02496295558272787
ف@@ 1
1865 0.1592735764761664
TC 0.1791209711501366
hr@@ 0.020794243864375297
ung 0.0033524808630540598
ens@@ 0.010118333189966732
औ 1
IP 0.23156678683168097
Pl@@ 0.01844344318149609
ors 0.013833299063101816
€ 0.23655921903449043
University 0.009506259967373958
gra@@ 0.01734335276459566
1868 0.1634564174255891
International 0.02226252658641498
Kh@@ 0.09188013238395158
XX@@ 0.27891372814683857
ق@@ 1
1861 0.1552089476940604
1875 0.1560414760744413
dro@@ 0.034305223416190626
ted 0.009095833174478336
used 0.010205899995572688
1873 0.16170129968751476
ala 0.057276627252443126
1877 0.17049441378466798
app@@ 0.018361649672092827
ei@@ 0.00948503495204097
Le@@ 0.012570975457928443
ank@@ 0.030090249079346487
్ 1
Bh@@ 0.17680951023583397
anc@@ 0.025210134910632977
App@@ 0.05236710794079545
ale 0.01019999593560314
law 0.03029231962978536
pr@@ 0.03160981137276361
Bi@@ 0.0193156750512655
Har@@ 0.014354630053424626
over 0.007739744410430987
Kar@@ 0.015175347829433467
min@@ 0.01409112306540689
ক@@ 1
BA 0.11051718014822934
GB 0.12583002297315865
Te@@ 0.028966537682441024
ir 0.02208149969685717
1879 0.149879006069552
Be@@ 0.00793734028970782
CC 0.14904840494734567
ty 0.016529309276802073
ain 0.028880226292649316
em 0.014884964683609794
gr@@ 0.015818445339852886
ina 0.0158599438054076
use 0.013284847796384777
ه 1
್ 1
1856 0.1880360342094324
NS 0.14660530486446613
San@@ 0.03475402285635063
poem 0.16351944817796266
ual 0.03405846653400879
ung@@ 0.016675702289663065
vol@@ 0.04530651782035351
who 0.004854148721675763
ল@@ 1
1859 0.1825280672421592
bit 0.10441354647764504
ction 0.049964549130055276
ρ@@ 0.4744796995477272
1830 0.20710782563691907
Se@@ 0.013057970550996532
Tra@@ 0.018920006589825764
bl@@ 0.014459556019943698
que 0.03259671277521442
tive 0.022458725681509077
1840 0.18851227085185332
Kal@@ 0.038708844465779636
ard 0.01365744491487915
Elec@@ 0.06518900714492032
ue 0.02281843698426819
EC 0.17484552546026472
NO@@ 0.21272234607419513
Tri@@ 0.02084410192313399
ess 0.02042513527010502
ong 0.0237439620011497
pol@@ 0.037005752628818875
َ@@ 1
1866 0.14544198998920496
My@@ 0.05334334085938975
cs 0.046942416006930464
Nag@@ 0.10088836107458755
ain@@ 0.025221649885040852
amb@@ 0.027633085678927683
des@@ 0.029654894251112576
ne 0.010696262496323146
om 0.02309383779162182
ular 0.04317024457923985
af@@ 0.012637998994616758
1863 0.15163495394163648
function 0.09931473765484013
ise 0.01285703906060178
AD 0.14252592747869042
SS 0.07900185622257881
ase 0.02777335221794451
ber@@ 0.006409824580803204
ino 0.027225899539309883
west 0.030660651166607936
ym@@ 0.03492373446006749
া 1
Pan@@ 0.036953391486329715
Ser@@ 0.031189358707660552
east 0.035918124304306416
ki 0.04383864571601763
pur@@ 0.06168974378567373
ri 0.05213445834476682
ization 0.04978161068558299
per 0.015636901333095147
ax@@ 0.040148252291485775
dic@@ 0.031616532818953304
psych@@ 0.054439740555532246
radi@@ 0.06659659073061008
ন 1
IS 0.16309717638484836
no 0.01152373601750672
amm@@ 0.020093937632428022
ath 0.04103210324715786
den@@ 0.009081032115697286
ऱ@@ 1
॒ 1
1854 0.18153811497396172
1874 0.13738607343277054
We@@ 0.028123585429962388
ih@@ 0.04244344441882206
ition 0.019996205991377438
Hind@@ 0.1372644458412329
PS 0.08154930597178668
ck@@ 0.009672109571472054
ox@@ 0.03945062515533749
span 0.12176192505702962
me@@ 0.017716313385479222
value 0.09058289780784354
cl@@ 0.020708567743612377
ological 0.03318450643345171
son 0.007639361802048227
type 0.053480656466252476
BBC 0.08596307314406934
Ge@@ 0.011131719886405163
Mo@@ 0.01760970732052834
ents 0.015874230868141524
ide 0.04739842041742123
sur@@ 0.022322398201815745
uc@@ 0.035777659554257844
é 0.017078965321682522
μ@@ 0.444960295136029
1869 0.14734035251136185
Res@@ 0.024754701417230372
dia 0.07877817121593216
do 0.017670287084306364
@ 0.8235549204717093
Cal@@ 0.030335685824633373
ins 0.010390909789257457
oh@@ 0.020803517571560997
such 0.008945805307811035
ا 1
Fe@@ 0.03452933813041569
New 0.006035337916242431
Or@@ 0.01486442598599115
Sch@@ 0.0033580520794732577
form 0.014491079974777521
parallel 0.1030761708846185
tic 0.03642322460092994
ə@@ 0.46373479813139296
1815 0.17155159667774317
AF@@ 0.17264999315457702
land 0.00625990371821927
ong@@ 0.024338983506400756
He@@ 0.016093594531688356
acc@@ 0.02155356781791664
hai 0.12675451623680292
our 0.018798992196559637
bo@@ 0.013435931290670203
cy@@ 0.06396313012470356
ea 0.058242317453089616
end 0.005799099130042242
glas 0.8447017242502034
line 0.01494073594464419
str@@ 0.01580370158495667
they 0.00615699640797131
ু@@ 1
Lin@@ 0.022734461328375134
Sar@@ 0.03516496904306524
cre@@ 0.02472630887927201
ks 0.010358864089886701
ms 0.018198192494130745
work 0.010903203729278988
S.@@ 0.19483603985343348
ally 0.009339113374282027
lic@@ 0.026686180354466276
ope 0.041573953046513894
over@@ 0.01804510404812356
tor 0.01563802879668667
র 1
1864 0.12739385097795908
cr@@ 0.0350927057593609
duc@@ 0.050605908718213355
han@@ 0.06655600767557764
nam@@ 0.03667255745470482
out 0.0073349294832753195
Bal@@ 0.027422384324600813
English 0.02275410149110408
ada 0.04349735023763213
energy 0.07506825449712613
ner 0.00848644392720106
our@@ 0.02347853379415682
st 0.009331958160409874
He 0.002773823258437038
bri@@ 0.024913774881290866
ere 0.011060742218959023
æ@@ 0.16903862311929607
ali@@ 0.02428892842362162
ement 0.019200198346390848
into 0.006175444359653449
li 0.07400934282249318
set 0.015447272639606366
β 0.4534629014397873
ॄ@@ 1
Em@@ 0.020148365634756787
ental 0.0329447593755883
point 0.029664558672875714
а 0.3544388912450744
ل 1
1855 0.16383284363131462
Mal@@ 0.01766813458444856
Ram@@ 0.048330752073476695
ation@@ 0.03319721654650793
between 0.008130240132410664
ear@@ 0.02708836861126446
int@@ 0.03084881631622509
ities 0.021062676499633705
ora 0.05682676689830937
pp@@ 0.021242220591454097
spec@@ 0.022486215571138068
ver 0.023920743568812998
­ 0.5123288203175705
خ@@ 1
ک@@ 1
ey 0.013976287240875254
ram@@ 0.028818494506163073
124@@ 0.26864869468926716
ab 0.00632765363543299
ational 0.040005569669826595
á@@ 0.015656894805220294
theory 0.07421994417681164
Pr@@ 0.024267154573582236
only 0.007691236014055828
rec@@ 0.018208433829914165
ula 0.047221554447299294
Ap@@ 0.037543480289709816
circ@@ 0.06115333685746526
ck 0.009938514413210366
д@@ 0.4207476978578729
Mad@@ 0.03179762239976625
alism 0.06067616605873413
ency 0.05381933650144464
for@@ 0.013500815776377273
ish 0.020968402373602885
Pra@@ 0.03148318813680588
ail 0.025223403961388082
ber 0.010536296842421035
ek@@ 0.010254300863251688
language 0.03227187914443516
por@@ 0.02505146456503034
so 0.005494030437381394
where 0.007056717329646188
IR@@ 0.15640955581954824
Sal@@ 0.020452854934955522
ane 0.02205096494181299
fin@@ 0.014597867418956393
ric 0.0583014475881793
wa 0.06019278307840725
ز@@ 1
1851 0.16681255111061238
Po@@ 0.025227253831587033
ose 0.023373707108313393
ι@@ 0.4010731841806123
ে@@ 1
ality 0.025765804876239393
most 0.00819368766934345
vis@@ 0.01772870787950762
ː@@ 1
1845 0.17279365083582066
DR 0.14267848682665266
John 0.009949406222964611
aceae 0.11042039090857243
ali 0.08778980010593813
cal 0.0401521808345687
left 0.017589088817294724
ɪ@@ 1
1853 0.17049969530857803
ess@@ 0.00858598982055591
iti@@ 0.020845230695234876
power 0.02595345806873656
trans@@ 0.02837573863650746
τ@@ 0.37725475532458785
COVID 0.09841654099523836
adi@@ 0.024547235608597416
edi@@ 0.03800245872688527
ists 0.027603780501503604
languages 0.09402558764242357
net@@ 0.031720810877337885
state 0.011847433936533194
Dis@@ 0.026816638105427743
El@@ 0.010378346989322336
` 1
gi@@ 0.02060959021796385
rom@@ 0.055575684547170365
ster 0.010648447289174063
DE@@ 0.10758377034603923
tions 0.014025722298836507
Gra@@ 0.01322372193659562
Na@@ 0.08325616580447089
OR@@ 0.13973277551100793
You@@ 0.13068613882601512
ac 0.04305211437780913
ly@@ 0.03411625778964989
tic@@ 0.034431517397776994
und 0.00027351593211360787
fer@@ 0.012267999598104803
out@@ 0.02036527302710974
will 0.011654738851805535
For@@ 0.015124532353885884
Li@@ 0.016355955055114932
SV 0.05736241428285723
cal@@ 0.04321278326373507
if 0.019844365915344563
у@@ 0.47797127916490617
স@@ 1
ds 0.012635977789224942
ura 0.03988236134817845
cur@@ 0.029720827695511355
king 0.014768988285158624
ك@@ 1
Col@@ 0.019246971939325792
SS@@ 0.16438722476500672
United 0.007145787873017758
ets 0.0133015102100957
vo@@ 0.032870581595173864
॑ 1
দ@@ 1
A.@@ 0.11132943163055581
Open 0.04116849993659709
Ter@@ 0.02574494741845579
ability 0.026947704138285736
her 0.003222226961696521
m2 0.14371166069444224
Ed@@ 0.016670355660699684
oid 0.09321950959807375
vari@@ 0.028661213132960505
On 0.006054123566281459
ca 0.0321736510809154
life 0.01042119300686323
ro 0.019592424230476475
rot@@ 0.04361957211631485
ו@@ 0.8815632838959867
Comp@@ 0.033939565035335635
GA 0.15164109552822294
Sur@@ 0.03533655801374377
esh@@ 0.10362823805476708
ice 0.012539749458712043
ther@@ 0.021888890622027618
λ@@ 0.4673182978713235
Mag@@ 0.020716674830612052
Op@@ 0.03699165324608474
body 0.030368982877917155
current 0.036111108059770504
eng@@ 0.013595392029377032
imp@@ 0.03739315923349017
itude 0.09562912077970206
wal@@ 0.019261732512132753
water 0.01857560825247352
well 0.007353553719292401
π 1
ி@@ 1
Gar@@ 0.01578255308442599
may 0.010978748490816533
ram 0.08513638933178604
ys 0.018662655984652936
́ 1
1847 0.15235460872760834
Arch@@ 0.028469038219832304
Kan@@ 0.025805117789187624
air 0.018519452166647046
ome 0.04160591524842343
ori@@ 0.019267770978380967
USA 0.023307695330634585
Ver@@ 0.00264287455159405
ble 0.01636637231497997
den 0.0005549171970166579
itis 0.15180403306648088
when 0.006104577513979848
ா@@ 1
1862 0.1037282460050226
Im@@ 0.024254189910553486
inc@@ 0.017840518514647966
ji 0.052728744054846045
omet@@ 0.06721365223629937
ser@@ 0.011619565008736286
some 0.008582636512205755
ন@@ 1
oli@@ 0.01906524472881958
series 0.010485401153119538
ten@@ 0.006936886921388345
world 0.016868555711796993
ऽ 1
The@@ 0.03190349308592406
To@@ 0.025683014091879845
any 0.01249616242120426
light 0.02619400151641985
Hu@@ 0.030917575583105275
ME@@ 0.13562871575766416
Mor@@ 0.011514432455281547
UC@@ 0.08057374180200572
aur@@ 0.06047688214936813
fe@@ 0.01160970569196809
ft 0.011818328519943834
rit@@ 0.018566189276207498
ν@@ 0.41960656981217287
м@@ 0.4507572122021177
י@@ 0.8286462804332999
CEO 0.12983309930510772
pal@@ 0.046593281843882124
ste@@ 0.016159511123858643
ε@@ 0.4103756609870639
ص@@ 1
Tube 0.14659452916835095
art@@ 0.017513991102499595
him 0.006804726679022869
ica 0.02435791080309636
kh@@ 0.15018227768105197
ration 0.026407017652603757
Mac@@ 0.02582953144958001
ature 0.03696743022799015
esia 0.07509017943838912
etic 0.05346485041478458
force 0.0373696256965042
hat@@ 0.0887677956042982
ley 0.011398786348083499
mi 0.0846553212928261
od 0.06396553043033391
ony 0.03120883562320535
style 0.02609181838008765
ت 1
় 1
】 1
1849 0.12296287802156154
PC@@ 0.14798439389804208
Pe@@ 0.02358188179755473
Sa@@ 0.02471811041504149
ace 0.02463713179460107
ati 0.05565593822987588
lat@@ 0.04463887554042927
va 0.029795873282148704
أ@@ 1
Al 0.04427527396172347
Mer@@ 0.019497127346710733
Rh@@ 0.06380384764945536
abad 0.10719074154960691
after 0.004180128944579477
differ@@ 0.03874978381477673
field 0.013258466142582675
itive 0.049420154904338015
och@@ 0.030760187526342
ren@@ 0.015439831637145414
tical 0.04103364204086305
we 0.020434741828487753
【 1
Cap@@ 0.0336225293057459
South 0.010358118223706575
fac@@ 0.025608495796264702
int 0.044874733488971544
kar@@ 0.03401859704619513
mm 0.02767846157182367
syn@@ 0.031054311999854187
б@@ 0.6149416996202282
ত@@ 1
க@@ 1
Bl@@ 0.010377253646019127
Research 0.04327166035605234
anti@@ 0.028428503964179196
ash 0.02355449509495716
tur@@ 0.013232170762223987
un 0.019238128741373227
American 0.006404261063530358
System 0.03586457578758091
Wor@@ 0.02137358141227864
data 0.04179128311207638
dr@@ 0.019381099813732084
many 0.008675093979821882
ography 0.034835620978806936
order 0.018175734005963964
ऩ@@ 1
Ak@@ 0.01681666479079217
LE@@ 0.13721531754995114
mag@@ 0.02750528017810965
magnet@@ 0.11349307200549541
sa 0.04563608194869102
σ@@ 0.49126037574905623
ా@@ 1
199@@ 0.7231025295213352
Pre@@ 0.014646128835825303
Vis@@ 0.04781683979951144
adi 0.11474773047752047
do@@ 0.02185031179192389
ler 0.005772503223214159
peri@@ 0.02913308011419536
Az@@ 0.07994896036335329
UEFA 0.10571297578759604
eter 0.021111413479335563
flu@@ 0.03209092610780386
form@@ 0.01589857405448549
inf@@ 0.024622921228433
ling 0.015035758739118086
shi@@ 0.02783854980150708
AG 0.03973861538756946
ax 0.05091253937560603
ib@@ 0.031893049523171055
net 0.018696144806789744
non 0.01849995661322763
same 0.009566418477564863
´ 0.5562934759059397
κ@@ 0.4470499525154501
AF 0.1060317430977204
For 0.015626610992264152
els 0.010463988133483365
ena 0.021222299784397405
ff@@ 0.011723007934087317
ick@@ 0.010341831367015993
im 0.0006577740778317167
ute 0.014635470646856701
ī@@ 0.10229232433982452
change 0.02847166359338133
mod@@ 0.03816246890349126
title 0.019224917250587663
ர@@ 1
Act 0.031207395824888417
First 0.02513418470830488
MP 0.08903936791889934
Vi@@ 0.027207207060573578
atory 0.0315660521529289
mass 0.07627609608950027
tor@@ 0.01302919524021673
ts@@ 0.007054650238149001
Bra@@ 0.02141810649774389
about 0.006554275764154364
wid@@ 0.04048944074315583
য 1
1846 0.1334239597218008
ABC 0.11272052877582098
Mc@@ 0.012473849200725463
Mi@@ 0.022160980901362422
assi@@ 0.01696670194877693
gen 0.0032582792048853858
ort 0.013167426478154698
pat@@ 0.020015958164165785
ো@@ 1
At@@ 0.021740386283317786
Del@@ 0.022657060226850552
SR 0.047423955103348604
angle 0.12815581808508508
ow 0.011339989567804989
so@@ 0.022587442764372884
stant 0.05874332972813424
tel@@ 0.020080480385101997
॓ 1
Group 0.023813034481808045
ness 0.021725048838624562
ster@@ 0.01031129333954831
й 0.5572876335147738
Mot@@ 0.02721883395447089
era 0.028577881968959724
onom@@ 0.03952126942122807
ote 0.020696545346646722
oy@@ 0.02151539178226819
sm@@ 0.01768335842550884
sy@@ 0.0455933033808344
yst@@ 0.033526014975581296
Gen@@ 0.015154017608868517
La 0.019481041800062934
Lee 0.042733649773258116
NAS@@ 0.10711358296668268
color 0.06485318400314023
day 0.008320874177456068
gan@@ 0.023966092939788613
ging 0.011436613795651782
idae 0.046418912080221995
ker 0.00807296583277687
mal@@ 0.016848934266192984
oun@@ 0.02225740322192555
people 0.008242296361357364
tiv@@ 0.028201210769814015
based 0.010157721339027974
du 0.03354748458595128
integ@@ 0.032906296193100426
ion@@ 0.020705631159393667
through 0.007350530570610559
RT@@ 0.12501508605474898
electric 0.08369921344631942
put 0.025866741447096313
tion@@ 0.019445100285786342
ution 0.01938915448263094
way 0.009337563258040353
wor@@ 0.013436410127537313
Cy@@ 0.03577284631474945
Fl@@ 0.006764939086802555
Gi@@ 0.019969617752349577
Mas@@ 0.036749893907989196
called 0.008919163170339946
def@@ 0.01502542454509668
proc@@ 0.03705382245254109
sin@@ 0.01653926343792034
three 0.0056951060783261
ye 0.03583876495273626
Ag@@ 0.02065428980572504
Is@@ 0.023337785987769206
Technology 0.06647705288215387
War@@ 0.011724493685589461
ants 0.013949519608668083
ever 0.021858330079694746
inn@@ 0.009666279124878788
known 0.006004300099764506
oll@@ 0.012349606710868561
pri@@ 0.017166382862272605
ynasty 0.09087047369996842
è@@ 0.026546749806276342
í@@ 0.019125669474724126
и 0.5508838191467261
Her@@ 0.00879772970588183
Ho@@ 0.016272119288658203
Prot@@ 0.025913706757001796
Sah@@ 0.10978694929188702
hol@@ 0.015557224695046345
io 0.018054199118131546
like 0.011128428147549472
ond@@ 0.02683276722544049
process 0.029299439842337276
second 0.007045869043014705
º 1
و 1
CS 0.11791893785577326
Can@@ 0.021624374400177143
Met@@ 0.022622422449416087
back 0.009765112495264197
eth@@ 0.033540271336938474
micro@@ 0.0778687149759875
pra@@ 0.03796971572634641
there 0.006709617024545448
would 0.004869518638248845
1852 0.11294979173658447
Sol@@ 0.018916962151087246
ages 0.0160930522709739
ass 0.01829730242299186
cri@@ 0.03184460741152925
hu@@ 0.032938636629532406
onal 0.027853859199600213
ov 0.022085255748003373
quant@@ 0.09630013631668338
red 0.012819749796432989
sw@@ 0.014195420659688296
Bu@@ 0.015373474088846494
Hol@@ 0.015910287757524528
Min@@ 0.01151631305876106
NG@@ 0.0886413151014004
ake 0.017581058644919084
bre@@ 0.014650516421930966
das 0.0008130637150857364
each 0.010936059269176115
ear 0.06426720710003747
exp@@ 0.015231810667651413
ids 0.032711941879421
itt@@ 0.02215017143519046
ock 0.018746496322930403
ola 0.025288669222427475
phot@@ 0.04311123574516053
ying 0.01399107102353246
Pakistan 0.06034678845358871
Singh 0.11865447773426266
Tar@@ 0.032673523867949285
cat@@ 0.033198111007475446
ential 0.044654771109594794
ich@@ 0.011756716128486146
iss@@ 0.014488380653093498
ital 0.03013879043037429
prot@@ 0.019896003226694204
uit 0.056598696965641765
ut 0.013241688513806766
′ 0.24860593351341087
Des@@ 0.025102093713476974
La@@ 0.01926031947850931
Rec@@ 0.022707957270193
Val@@ 0.02255452941025535
film 0.005575317159923503
ie@@ 0.004552468751124914
ited 0.014766315344869415
ode 0.02499336612484116
rit 0.05320308086717044
umb@@ 0.03077351643316887
½ 0.25702691055905696
Indi@@ 0.026321498329032387
Pri@@ 0.015121854587603779
San 0.01377501402715114
ama 0.017460261921542986
ap 0.02372950720340052
bin@@ 0.02632928524261339
ks@@ 0.025682618816557153
ron 0.033518413007941776
ب 1
த@@ 1
An 0.012660312965938957
Chi@@ 0.026376493005661385
Corporation 0.05112621202693961
Dev@@ 0.05555781806453428
Nar@@ 0.04614698421840043
No@@ 0.03250157368480203
Shi@@ 0.028630162643826264
ae@@ 0.04206491082231331
del 0.014015203067512362
lan@@ 0.016969239757568602
mor@@ 0.022016730008717855
new 0.004952223117930501
ogn@@ 0.07462351544958212
ott@@ 0.015591617611309795
partic@@ 0.14130666395274966
ñ@@ 0.03704891305875685
ర@@ 1
Fac@@ 0.03564528397600948
cer@@ 0.019929056756818667
ission 0.051836804528451505
less 0.01506270351224691
rem@@ 0.01062823839270643
ture 0.01895549157745754
ument 0.02464385974201401
် 1
RC 0.11711454425897208
Sk@@ 0.009578322835284177
Ur@@ 0.012592189660075026
atom@@ 0.08608551984798037
comm@@ 0.013205829590040272
da@@ 0.030361848782018676
ely 0.015021678817087672
enn@@ 0.007551609816658022
tal@@ 0.020429593292021098
ulation 0.044645690918242095
г@@ 0.46207893602237415
আ@@ 1
Br@@ 0.010874864820071954
Char@@ 0.02054128299050632
Gl@@ 0.009528801255209747
Pat@@ 0.02515298669220505
Ra@@ 0.02981482478534931
Vol@@ 0.0215921976863196
both 0.007214313439136252
cap@@ 0.019952164101448393
com 0.12945201785566574
distance 0.058713210284263705
during 0.004732196325510369
ee 0.018669432118769664
ey@@ 0.021872409700739587
fo@@ 0.03215717914559
ier 0.010245748741215263
ire 0.013082905053279305
old 0.008525233447268202
ood 0.027879676326418426
res 0.010991521393331512
ush@@ 0.03949181983283774
প@@ 1
BI 0.10330897257735476
Fin@@ 0.01599714578183487
State 0.009145178422398138
Sub@@ 0.022806638740902052
common 0.022766009336969328
ja 0.01928953948350005
lab@@ 0.03281797613718229
low 0.015178240878696816
super@@ 0.029663011894817095
Inc. 0.07579424797853536
Ti@@ 0.026310048479479122
ases 0.02449041639217492
co 0.009424344005962764
oo 0.056461336669351034
rop@@ 0.04931618730824813
these 0.008512620621187596
DV@@ 0.15738078704210326
VI@@ 0.10548635186951451
cip@@ 0.031000620204036888
ill 0.015434548707681007
then 0.004861884835862821
ó@@ 0.01781016167245617
پ@@ 1
Last 0.1049537273924237
M. 0.03489949498457266
ML@@ 0.08545819992672155
asp@@ 0.02728512931954121
ateg@@ 0.09597697771834503
ella 0.02134377328986135
fil@@ 0.018384808735374916
hin@@ 0.014221047048198742
hor@@ 0.02130234090094583
ix 0.024127683709264505
pos@@ 0.02661747821509301
rel@@ 0.018131524000391988
sch@@ 0.0018537349441314931
stra@@ 0.012788267784482667
ux 0.06764762956759428
ר@@ 1
● 1
As@@ 0.0329152356107288
Au@@ 0.009364510639273016
Av@@ 0.04519130478111369
Ban@@ 0.027765779320432653
Long@@ 0.10863575338286821
complex 0.04409177276664089
eral 0.038491068640939194
indi@@ 0.06392658979109467
led 0.007913169843783992
method 0.06291481769263113
news 0.049154031214187016
ones 0.022452928561305832
ph 0.025070355944791844
rh@@ 0.029839976492202804
tran@@ 0.021139493867903737
under 0.00525848781363385
vir@@ 0.030580483808578092
Cat@@ 0.041021945079658936
Techn@@ 0.024138427959517237
air@@ 0.01546365652588017
boo@@ 0.052947515235812766
ces 0.01869506860851567
dec@@ 0.022698589281342017
include 0.011591930645601089
let 0.021972130936364905
ota 0.03998738322438286
ven@@ 0.016246648183274252
year 0.004571419757037647
π@@ 0.49562170046513504
σ 1
Ca@@ 0.0490028232190653
Da@@ 0.024928986913470907
Er@@ 0.0029984167102624477
Temple 0.08191475437985529
code 0.054847162652190924
det@@ 0.017226482672248446
enz@@ 0.007370331190850479
± 0.3827440976008112
ு@@ 1
Ber@@ 0.005468185616811503
Bor@@ 0.014026903912713069
Bur@@ 0.01050838734635568
Fre@@ 0.008341205453936651
States 0.006500368451266066
gener@@ 0.020403529414856424
imm@@ 0.02130328497213664
ita 0.023082549123845823
public@@ 0.1186199248869318
rate 0.022267416666092762
ves 0.010795938135510132
জ@@ 1
College 0.009844867750424842
Khan 0.06603512155244622
One 0.013686601191412604
acy 0.022135572223798385
alp@@ 0.07026454954884784
coun@@ 0.02083123205999225
ga 0.027710386883259715
loc@@ 0.019827638769625306
my@@ 0.04256535425231513
ner@@ 0.0155171885750692
ole 0.03199958114959439
sor@@ 0.015740514239127965
using 0.013451552627592577
ہ 1
হ@@ 1
ಾ@@ 1
Ben@@ 0.014796554816647297
Ke@@ 0.02397472515783162
Ob@@ 0.023283626096818347
Sud@@ 0.06457368281521461
ales 0.02890292316031248
dae 0.052603104538764905
ines 0.0161778653346673
lob@@ 0.033810156134548505
wave 0.09267244267868886
years 0.004119051914774395
� 1
E. 0.03873411094440937
Hor@@ 0.015971696715670093
Ig@@ 0.1003735161859727
LP 0.08729823129213804
North 0.009165346074968985
Sy@@ 0.01514386051280198
bra@@ 0.017315047536656306
kn@@ 0.012033198671499925
mer 0.010651777111609929
my 0.02886366106335767
period 0.014840680766493362
physi@@ 0.029211401468555203
south 0.014434813794150243
sym@@ 0.03768882513524461
ō@@ 0.03112679647436089
ਾ@@ 1
Do@@ 0.026077785701281563
Lim@@ 0.026772466328628206
Tal@@ 0.020494160700361023
Wh@@ 0.026639408532496557
area 0.007082812503784731
can@@ 0.02545848629858176
chem@@ 0.037341496347652464
high 0.009277630021461186
north 0.01356693654337167
numbers 0.049924367355197154
oth@@ 0.022741407264248663
ust@@ 0.024213064673091735
ys@@ 0.029578324330302462
ط@@ 1
￼ 1
Association 0.01588192881810303
Gal@@ 0.01716881313186581
J. 0.023671602767302277
Tr@@ 0.012763935111364552
act 0.020428085329070783
box 0.04528718817444924
cent@@ 0.02335026513977793
ery 0.021915119678387565
ni 0.054277842197189334
ray 0.055568703216976385
ua 0.034242305988753524
ν 0.5147416719046234
ാ@@ 1
By 0.016519056262565935
Central 0.019102603139707377
Kr@@ 0.014151258182586914
action 0.022818677509824848
dex 0.05437743576675366
jec@@ 0.041995189255642704
off 0.0077273752909828835
ogen@@ 0.07034357648124728
ral 0.040745482709920504
reg@@ 0.010478345743743508
É@@ 0.0333215515927639
ό@@ 0.5812696049715417
о 0.5370525827233104
All 0.011844401792961059
Cro@@ 0.01872806764070138
Go@@ 0.024328762924193573
Ni@@ 0.025028512092833178
aka 0.03365002985056104
aus@@ 0.0022428553596732102
char@@ 0.018527402384858227
dar 0.027365268799628268
duction 0.08069693230219945
ett@@ 0.013029233005660695
han 0.0420952625900669
ici@@ 0.027854948732063695
ments 0.012716825792495662
rical 0.042719789567684574
192@@ 1
Cent@@ 0.04720752334713547
HC 0.08869617081930743
Ha@@ 0.01759680510159931
NR@@ 0.07485832836480157
Society 0.018558723126827867
Tel@@ 0.02124746371421753
ats 0.011462495787001668
ba 0.04358833153424054
bon 0.0405364565330335
emp@@ 0.014289026787540446
meas@@ 0.038494477475169826
mot@@ 0.022562030065713813
olog@@ 0.01381317173009162
rat@@ 0.012870038197685079
ron@@ 0.015778839303429992
side 0.008717322992519554
unit 0.03479894308673451
ί@@ 0.5274568950946423
θ 1
0s 0.01906317921707342
193@@ 0.08769978205068363
Co 0.04690423684611927
Comm@@ 0.02017008859218706
EP 0.04862909113487408
Psych@@ 0.03472772347095499
ail@@ 0.023607118056315487
aria 0.049861328175997505
asa 0.0887059207298992
ges 0.012319296831952297
gre@@ 0.020744994371636728
list 0.01961213233528761
oda 0.07847428855974009
odi@@ 0.03258899026567279
oper@@ 0.01987486895753669
them 0.0059802923318697625
vel@@ 0.030306288236088868
Far@@ 0.013202657324282732
So@@ 0.022768286450253514
esh 0.04819385716572743
heat 0.09632347488914272
ke@@ 0.020128628097288593
minor 0.04602803272834336
therap@@ 0.04166139917055228
tw@@ 0.01113581436976049
ம@@ 1
195@@ 0.5745803912635359
Red@@ 0.023348452152062993
School 0.006337512563299884
Sha@@ 0.031984594344689865
T. 0.052735396067783345
ach 0.0075123453324674625
ini 0.019398041845219597
ites 0.03270135871818487
ive 0.024811274943715933
lig@@ 0.01618007286891007
neur@@ 0.052281260721030155
osph@@ 0.04947566988661184
pan@@ 0.018575512014061893
pressure 0.053802360857383186
rati@@ 0.03258544929946631
resi@@ 0.03139477208582107
si 0.059863259368852104
sts 0.012564038231455684
tha 0.038006735070585884
ti 0.044848424156049914
under@@ 0.008014471931542793
گ@@ 1
ہ@@ 1
ల@@ 1
ರ@@ 1
Cr@@ 0.029525318771045667
art 0.006855942691392207
cell 0.05106954150788712
dh@@ 0.11712361552222751
dig@@ 0.018108190386201043
gro@@ 0.014895979925572707
ized 0.016453482891741488
ko 0.026525183267876045
lor@@ 0.05866433004504089
made 0.004279163999400678
mi@@ 0.017311073546829134
of@@ 0.01337936776806331
organ@@ 0.02834746099638596
sec@@ 0.017267410880311043
systems 0.025766247429333415
trac@@ 0.05025526671235525
une 0.0202965977231926
γ 0.7909117689177996
Council 0.014194489987886442
Development 0.03852455255627238
Great 0.02215788600677211
Kum@@ 0.0817652745349211
New@@ 0.0187301248919766
Pol@@ 0.01609398006241209
Pur@@ 0.0424762550406324
R. 0.038571737996356006
Reg@@ 0.008919195504453624
Social 0.04888148309992217
Tran@@ 0.018185012552114833
Wi@@ 0.022203973409803894
go@@ 0.024657945806776698
ination 0.03183411219320178
ject 0.06783391596580476
mal 0.01229791876876886
ories 0.024666637022890937
tel 0.012406687738693165
top 0.012428967138480459
wh@@ 0.02019941341658373
« 0.04521774066641519
н 0.7214638141380266
1st 0.02305413334959722
Bas@@ 0.029774031997044818
EU 0.04194101558544269
S. 0.02749059418878147
Tit@@ 0.030163253873640248
William 0.010662738896506166
act@@ 0.06364203141344016
acter@@ 0.0763657569877624
book 0.011482662344598023
district 0.011977848294742861
eter@@ 0.03316079445926256
ger 0.0038593029964576076
hab@@ 0.022749382709737656
key 0.02916355423210213
men 0.004197266321086087
osa 0.05098967470176508
poly@@ 0.05600430110627164
ters 0.008393627839537681
β@@ 0.6564719130728827
Bel@@ 0.008975305995277924
Company 0.015151746742157487
FIFA 0.08691575416417467
acid 0.08443823232422012
go 0.01202165300118694
igh@@ 0.024835575044130528
istic 0.03702576655668735
oma 0.04608075546106007
pet@@ 0.027424479515281715
pi@@ 0.04269894534094486
section 0.02100807328138819
val@@ 0.022928060926202292
â@@ 0.03321540599837381
ऋ 1
Cur@@ 0.019665613950666582
Han@@ 0.01952383097390101
Leg@@ 0.01699201620373425
Mos@@ 0.018787571059588132
Pun@@ 0.04613111122300899
ade 0.009913437848320958
alg@@ 0.047855774193646144
anda 0.024986660530387648
being 0.00488796673191582
cli@@ 0.0293511111823066
cop@@ 0.02622448640068446
ded 0.012050069556077502
dicine 0.046761298314159844
eff@@ 0.021042261259618136
lic 0.08037194526230085
mechan@@ 0.025779552233277037
place 0.00748617418642957
sive 0.024535888415958714
tre@@ 0.011747801350303726
version 0.01261281189520375
п@@ 0.36594577599609773
ి@@ 1
B. 0.011239177896706736
Dar@@ 0.010100317749378364
Fi@@ 0.02847942010008373
General 0.010267987878533077
Ta@@ 0.03098403892188702
bul@@ 0.02851311717531219
bur@@ 0.015170569419751492
dy 0.01436876676200084
ect 0.019699615878528916
esis 0.08174405058306258
given 0.013462952307250914
indic@@ 0.024515896996710803
part 0.004288475767693877
space 0.02411454400180808
tors 0.019150438755115268
uch@@ 0.009414515139348219
verse 0.039786927274941965
א@@ 0.9141937068242355
ச@@ 1
ക@@ 1
C. 0.02698720383148345
K. 0.056519983731337986
Moh@@ 0.0383866710853854
Ran@@ 0.02780744145668984
Science 0.025783878292677045
Wal@@ 0.0113293690283961
West 0.008098766552368544
ao 0.026296140775313014
cu@@ 0.03402888582304975
development 0.013220153786891878
ean 0.03408145963383152
ger@@ 0.003233202265605809
group 0.007398024923435141
gs@@ 0.023540871450173504
ingu@@ 0.0407587482762499
ius 0.01898290376596251
mit 0.00045396504647887345
not@@ 0.01584484140890768
plac@@ 0.054013565662541015
product 0.049350202051606576
self 0.02569378320869849
sl@@ 0.012349573670630528
ume 0.023324232008178247
ী 1
ப@@ 1
196@@ 0.47789084766599693
Ga@@ 0.04795255940092102
London 0.007812238261298608
Ri@@ 0.010415764857313594
Shar@@ 0.04205739869451448
company 0.008136673037555912
ek 0.016592777508229524
example 0.01785316041981043
exc@@ 0.016547541436888934
following 0.006637597370091749
kal@@ 0.024700517046673445
ook 0.029197199321820397
ord@@ 0.007746046788818391
spir@@ 0.02530348651901789
ust 0.016240353193515248
very 0.008640214908932938
я 0.42819019950873327
ऴ 1
ॊ 1
ા@@ 1
ར@@ 1
Chinese 0.0201745756513721
Hel@@ 0.011924252783512158
Is 0.05151061875614559
Lo@@ 0.021155946342186316
Lu@@ 0.007428644778616907
Ret@@ 0.03444917476250158
ack@@ 0.012062173995982356
ag 0.020380900115164496
ard@@ 0.01748018804710654
are@@ 0.022383085625362596
ato 0.03697283563683695
city 0.006303448553226131
class 0.015731696677160765
dit 0.04546569732699248
ema 0.036725494483318195
ista 0.08531233837973563
long@@ 0.06850900165860334
ols 0.03063680425861729
vers@@ 0.012390143084107158
while 0.004878157935184649
ç@@ 0.02949095175796558
ِ@@ 1
ਸ@@ 1
194@@ 0.07259144103153815
2nd 0.02738034546740205
A. 0.022439105503817905
Cha@@ 0.02762366201613245
Det@@ 0.03766254475419774
Dig@@ 0.04216051289236403
Econom@@ 0.03647760202041518
History 0.00861940399670022
Jo@@ 0.014402298976980272
Mand@@ 0.03310323485216701
Year 0.029737790663555964
effect 0.035767470820490435
esc@@ 0.037593606318352964
gas 0.03738343599114902
ham 0.016581206269876168
human 0.021707285061597664
ight 0.02224725892111282
lar@@ 0.023961224827160222
sam@@ 0.03632323116800437
the@@ 0.01496173888676879
ubl@@ 0.07525116407378242
ul 0.04030483570590449
ump 0.05222680917735403
Industri@@ 0.023223121285577644
Mach@@ 0.04061058687932489
Mur@@ 0.0207093567904189
NBA 0.06032735233204308
Union 0.011302528774625328
edral 0.05347481005227873
let@@ 0.025913139894906685
nav@@ 0.039702580465030314
now 0.006782650539719178
onic 0.05110841262956591
real 0.023629697326714924
ref@@ 0.02926120457363993
rol@@ 0.017519372621801622
stor@@ 0.013534927626495016
tag@@ 0.03206135144250487
thro@@ 0.026687175071177613
you 0.02058407287141872
ы@@ 0.5774627353816197
■ 1
.C. 0.05162564533558785
Bre@@ 0.009286177152154273
Dec@@ 0.020339019143479665
East 0.011813246088659378
Hon@@ 0.015339014901884863
Langu@@ 0.08226513296881335
Life 0.022317614191746136
Net@@ 0.056854088249866555
P. 0.037303293732419585
aff@@ 0.008380391230823627
anti 0.02590812568668923
bor@@ 0.01184315240984752
bro@@ 0.012131853724184348
dar@@ 0.009049509420304708
even 0.00920954897596926
free 0.018110112503360934
itation 0.023517124015717074
kg 0.03940042584076237
later 0.0038725555305780253
lus 0.040544364248099256
ning 0.014449493381873884
ona 0.02395158577434859
phase 0.03884157388633379
pres@@ 0.013964261271589817
sal@@ 0.019279389634562202
small 0.009610320597445515
son@@ 0.015729259382997542
udi@@ 0.03195817302625426
ulture 0.03176468439875416
à@@ 0.15131462732592516
γ@@ 0.451630947207709
শ@@ 1
Ant@@ 0.012676157891986714
Book 0.04521617768614243
China 0.012086556302154551
Kam@@ 0.03379433257010487
Mu@@ 0.018459145938645546
Ros@@ 0.01062483145200128
Sim@@ 0.021479304456089043
Ul@@ 0.01867045564603383
cells 0.05075800486433417
near 0.01083047602864887
row 0.018957683605444284
ship 0.008154510876620896
stic 0.028871307499497623
surface 0.033744976762785296
tom@@ 0.049845501406098947
ɛ@@ 1
δ@@ 0.4872857672608531
দ 1
৷ 1
Air 0.013971916092413566
Cer@@ 0.033259557837281795
DF 0.06398938414610578
Day 0.025340542215635004
FM 0.04028281398253305
Health 0.03509227519103731
High 0.011610632356882816
Law 0.028473363083260685
Lt@@ 0.04960017559378005
Pap@@ 0.020429152109609435
Physi@@ 0.028072021471374643
Tor@@ 0.011543823010423221
Tur@@ 0.012699650765350817
Yam@@ 0.07617317648213064
ava 0.04816508125112297
bal@@ 0.0316892402306613
base 0.024413173705381087
conduc@@ 0.035996394275814615
dist@@ 0.02471503334415701
ector 0.07609908835716539
ences 0.01310659149751165
ese 0.013630450683320956
ete 0.006255183924832044
ght 0.019749923872435876
inal 0.07499454181932347
lia 0.0452482765124355
mu@@ 0.02157514827285875
ort@@ 0.00878559391242271
public 0.008352551263615308
tional 0.025293730148548438
umin@@ 0.04330553798580843
yth@@ 0.02328890330001783
ā 0.11068818490430868
ਰ@@ 1
வ@@ 1
Dra@@ 0.018727763242154777
Gr@@ 0.006384595380358728
James 0.010182416919329527
King 0.01200823896334705
Nu@@ 0.053164167371491974
Sw@@ 0.019385607895271797
You 0.022071460768453635
bs 0.01385913987982236
ders 0.007334107300627691
dra@@ 0.012468050040808424
frequ@@ 0.033184383032898994
here 0.02316723386893073
lec@@ 0.023021286113744002
lex@@ 0.026188217832180314
long 0.007969807027161224
nucle@@ 0.12874055574153484
ots 0.011759160625968905
pen@@ 0.013621091892162087
rep@@ 0.012916485352268529
sa@@ 0.024295362951807547
sem@@ 0.021507956520726467
table 0.0341417255646858
ule 0.02244238659986671
uti@@ 0.011685732567092775
গ@@ 1
ര@@ 1
198@@ 0.38389145250456963
Black 0.01810084439286317
Cre@@ 0.019724919120635946
Mes@@ 0.043666122367638914
Music 0.01336185092668042
Organ@@ 0.03208321379679502
Pak@@ 0.05779145134565544
Peri@@ 0.06873381521867117
Por@@ 0.014025503911797238
Pu@@ 0.03488782245092489
Santa 0.02821925754023444
ams 0.02061669473896206
ask@@ 0.020024487585174798
century 0.007194053517370449
control 0.015751076940412258
ep 0.02571725151386324
functions 0.061406739930296265
hydro@@ 0.03760514157984904
ick 0.009525723544076783
illa 0.030959706078029704
ith 0.014980867174466441
iv 0.03229275583175232
je@@ 0.014207987719078765
liz@@ 0.02431994400117759
ni@@ 0.02158070685555514
ond 0.02323324967080823
science 0.030167392262236956
sen 0.006024153453598253
sing@@ 0.047423890802296295
source 0.03278846926402163
stan@@ 0.01847854558910154
tit@@ 0.03544828800012323
unn@@ 0.020267696907953707
ਿ@@ 1
ി@@ 1
Bab@@ 0.026031947960371598
Bah@@ 0.03618278167324626
Boo@@ 0.03987495810873864
Island 0.01379713000752545
Jag@@ 0.030915896205355984
Kingdom 0.021991028584436394
Pres@@ 0.019255806041698013
Sec@@ 0.023583882703897854
ast 0.011825536626455904
case 0.01416528581172475
different 0.010348795519995383
medi@@ 0.018981921651993982
mit@@ 0.007557445610126231
range 0.012987113727458114
tes 0.005962796034177826
test@@ 0.013610114277536013
top@@ 0.026611487010829663
vent@@ 0.01876502015511622
ে 1
Cav@@ 0.04877668341250524
Cu@@ 0.03799480662780731
Equ@@ 0.0777032380467732
H. 0.02776122516066553
Je@@ 0.015556910807630237
Ko@@ 0.009614548044223396
Mel@@ 0.015591408167606405
Rel@@ 0.016681657004206263
Sat@@ 0.030110004743124617
Station 0.01792533872945612
Syn@@ 0.015883654851213277
analysis 0.043032080221751166
ave 0.019607359133297912
cont@@ 0.01274372690215522
don 0.02006946507082713
ection 0.038860324293165535
ef@@ 0.011922841539934309
face 0.023408506859278956
found 0.0060779973127563355
hel@@ 0.016177503947552806
indu@@ 0.08741614280261986
kl@@ 0.0060014404581663905
mac@@ 0.06989533610440533
mem@@ 0.01822866839369349
mom@@ 0.040550298648678464
ont@@ 0.024666992934205347
ost@@ 0.015890931585156476
page 0.06475431013829414
position 0.009264781815224511
prop@@ 0.0349805621864457
ree 0.029302820565509875
sources 0.04233185924344588
tage 0.07472366536854708
temperature 0.0588509084901248
آ@@ 1
ى 1
চ@@ 1
Ash@@ 0.03106387668490906
Mak@@ 0.036191923431653054
Pet@@ 0.013794390890464291
Sm@@ 0.0264150024552352
ables 0.04324194186667187
ards 0.014919940074529606
ars 0.009707975377668024
atus 0.04452435117281147
bar 0.007578668896307924
down 0.00820910383751198
ful 0.014930786522575878
head 0.009824066157559779
last 0.008735047340549869
lie 0.03068332841668829
ll 0.0633113215443726
mel@@ 0.012928485905196069
motion 0.03741836596158445
pt 0.03117894205276062
ress 0.020959050441867164
run 0.01285758545912911
» 0.03707522692792706
ō 0.023200705694494683
ū@@ 0.04320555517711729
מ@@ 0.7419867308162744
ང 1
At 0.006468364212516826
Ba@@ 0.023813516662993812
Bag@@ 0.04573932407805438
Nap@@ 0.06067170700461442
PD 0.06683492790086153
Trans@@ 0.029457422577539853
cycle 0.05293717382325291
ions 0.015443976267064912
oth 0.017903899967788038
oul@@ 0.024374940025429673
social 0.015459056894465544
tra 0.040564396948397016
ules 0.06482517639008706
ə 0.865997869211163
ά@@ 0.4359799943963256
С@@ 0.3372894497260522
в 0.5459146050522957
е 0.35878806904286853
ऍ 1
ன 1
ు@@ 1
ོ@@ 1
Def@@ 0.037993210373437655
Foundation 0.028836344657099933
George 0.009426994553367013
Gh@@ 0.03885273180845828
Hi@@ 0.026349063597416508
Nor@@ 0.007127350493478214
Power 0.04231332565000414
Soci@@ 0.03983442445816985
To 0.018853989106734026
aries 0.021430647051981083
arm@@ 0.018921804075882134
ators 0.015584953043695976
family 0.004555306619744771
hum@@ 0.03223859432668035
ik 0.005232295338451541
ild 0.019488484216666623
ine@@ 0.03029966589379161
ins@@ 0.01783401810128105
ision 0.030817209672084782
mathemati@@ 0.05256786465259271
nel 0.024089592656521684
ogra@@ 0.026791180939862703
ok 0.023175787852541218
orph@@ 0.05131560624830053
ples 0.02374395140878938
points 0.01433340090206209
ret@@ 0.013971950271246019
return 0.0174840011633151
standard 0.02572913350762968
stri@@ 0.010125877606163486
tron@@ 0.03214114664944362
utt@@ 0.043042174597553946
word 0.02320699741129319
zz@@ 0.025430627379004624
ّ@@ 1
ী@@ 1
191@@ 0.34325670265728925
Ep@@ 0.02786098943114783
Mat@@ 0.012825014961124717
Medical 0.04186128450240912
Mil@@ 0.009320889983848635
Prin@@ 0.018264288758554445
Sir 0.02150971482876014
ack 0.011674955590143709
background 0.04376423910289154
bran@@ 0.02748503540849043
chi 0.05299608913190704
hand@@ 0.009269531837969525
idea 0.031922584354372605
information 0.017718067038672444
ised 0.012074187365664006
isp@@ 0.03655837907111677
itor 0.029517733098740485
lim@@ 0.017365391052170772
na@@ 0.025953908225351062
region 0.010996466815747181
wn 0.016548045288745674
ysis 0.11124274994716032
ি 1
ಿ@@ 1
Ann@@ 0.021872409700739587
Auth@@ 0.04585571328108829
Colle@@ 0.031166360655266474
Cop@@ 0.030703718070844287
D. 0.032727616535115536
David 0.01020234999432311
Fer@@ 0.016542577707502157
Gang@@ 0.06947835345619438
Pa@@ 0.013277351492243324
Sab@@ 0.025288515726524942
Space 0.04982783811168999
Vo@@ 0.019778261750469397
Wild@@ 0.031721631585168435
ban@@ 0.020781127010668487
del@@ 0.014244243370634624
diag@@ 0.03721826652216967
gn@@ 0.018253428997691837
kan@@ 0.010510315496778945
mm@@ 0.041855727269399456
own 0.005742799631138184
ring 0.012900988952929796
tar@@ 0.022421263009342492
thesis 0.050817622663830206
uli@@ 0.020252096195139197
una 0.025950059301667605
var@@ 0.0446591841951062
ئ@@ 1
ত 1
3rd 0.0275796786684625
Centre 0.02670518230945692
Ir@@ 0.015656326457682525
Kat@@ 0.017010666496635112
Robert 0.009633815063991726
Ther@@ 0.02793823217764848
Wik@@ 0.06603617149554973
aph@@ 0.0609855556812426
cial 0.023425942051288284
ensis 0.04248067516560628
ext@@ 0.01553905630814541
fol@@ 0.013741992273197154
identity 0.054027564435536
leg@@ 0.011002743578078393
lock 0.02522366948487838
num@@ 0.025353110599047952
ordin@@ 0.020699053928092796
river 0.019239009857609877
single 0.007257238642868892
ss@@ 0.009791481857328001
those 0.008742898519387816
Ama@@ 0.04825111668098804
Bro@@ 0.010330179152966955
District 0.00827166828302292
Earth 0.03550649671579021
Hal@@ 0.013809408375679625
House 0.008208710115505384
However 0.0066948954378932635
Information 0.05318977956388615
Ly@@ 0.016212878648643358
Man 0.01554694682421251
N. 0.0696826128200137
Sil@@ 0.014724554481059596
Spec@@ 0.034245210403572056
Var@@ 0.0398026990484389
ano 0.009833023153765047
ble@@ 0.04716709259179959
bon@@ 0.027568043904690573
dem@@ 0.008755856020516643
diff@@ 0.06102292110927178
hat 0.0028099866888759715
him@@ 0.06901072787536493
level 0.011473571987730998
mus@@ 0.02759219814876594
reaction 0.06961073273016105
star 0.024060430515299387
ull 0.01944424270630085
uses 0.013993910188022067
х@@ 0.7369398319920014
ה@@ 0.8158522146923538
‚ 0.039649020673734506
Gre@@ 0.010527642878121697
Kon@@ 0.0031940471222678657
List 0.01749003900028333
Mov@@ 0.0327309546558772
No 0.028581309434586286
Out@@ 0.0322480166299904
Pen@@ 0.019907306738103116
Ren@@ 0.017430446610399185
See 0.019924347017784783
Sel@@ 0.015947258429382757
Tun@@ 0.027557708404104743
Web@@ 0.025291050582416548
emb@@ 0.025532406519527307
fra@@ 0.01533778229014699
fu@@ 0.015322133037242584
ior 0.03609617492987062
itar@@ 0.02935075771203212
ori 0.03896320455896731
rule 0.03370736138371888
sel@@ 0.007476630017996329
uk 0.043959619270117226
য@@ 1
Cast@@ 0.01982051265379872
City 0.004970538939047149
Dr. 0.01601055198555656
Ki@@ 0.02639769243981411
Micro@@ 0.10510685239097385
Oc@@ 0.031386773219803606
Office 0.029690355610991644
Park 0.00772173165607572
Some 0.014759196339346482
ater 0.014767274197038407
avi@@ 0.024969314307795858
before 0.004101309058863276
che 0.005835480882844292
doc@@ 0.017030642848335126
due 0.006664820897884542
elect@@ 0.04718509452054418
empl@@ 0.03895425085640849
ham@@ 0.03597257500072229
ication 0.030172760415353893
ls 0.015631348958363208
mann 0.004594075737249581
mil@@ 0.023073912361497556
much 0.009864433726192175
ority 0.027275156320045783
properties 0.05014061038852317
rich@@ 0.007879583313306706
run@@ 0.0206848389553195
sus 0.033070389605927175
ush 0.035548810651337664
wan 0.0569655121502993
what 0.008759908021737326
zi@@ 0.009251438157204719
మ@@ 1
မ@@ 1
.S. 0.09425119724611565
Aut@@ 0.01869735328965813
Bad@@ 0.027943119331965274
Basi@@ 0.04206295285774329
Charles 0.010767586673924134
England 0.007148579106710941
Intel@@ 0.04975666111638349
Lam@@ 0.026285063385565934
Le 0.020380705439687796
Loc@@ 0.034512697800021266
On@@ 0.023716157862580224
Tro@@ 0.011292335980753217
Vir@@ 0.025335888729274333
anth@@ 0.047884722297358885
device 0.06647642189169906
e.g. 0.04951673858606887
ense 0.018972129643847768
history 0.008303291978570639
hom@@ 0.016795786171952955
multi@@ 0.049102395087793786
nor@@ 0.01054199014483746
oil 0.028901128284372423
ool 0.027843248681160858
ē@@ 0.2017143926776243
ч 0.7997172382263334
س 1
Cam@@ 0.021594321122023922
Live 0.029699938287495623
Plan@@ 0.017111869846627454
Pro 0.0358982071120964
Service 0.019360199058583726
She@@ 0.03168797090091483
ace@@ 0.043699712792059996
alis 0.05261222219928434
aly@@ 0.030304697314188705
ania 0.017672524835645232
ession 0.01722047039052463
gon 0.040064299573381375
how 0.014093690231251883
isher@@ 0.10274628846953289
land@@ 0.0054724061114854025
lis 0.023924418030190697
ney 0.01111735017267212
oms 0.02161739982324736
plan@@ 0.015090175162316352
scale 0.03546618118765816
she 0.0023094385933598717
ten 0.0006983905032739202
ump@@ 0.010415067531749917
ville 0.00834557070125367
zer@@ 0.010035048154463894
า@@ 1
Ah@@ 0.023626212516862522
Army 0.0098960612337711
French 0.007471957419553803
Gro@@ 0.009732731599031841
Human 0.04699647228630435
Ru@@ 0.007993653052711366
Sav@@ 0.0259504922485913
She 0.0032828690003013183
These 0.009521026339668734
Wil@@ 0.009791894496160896
ais@@ 0.019045777488598804
ami 0.036999502712820084
chemical 0.06192906164313999
cin@@ 0.02998549898201584
cycl@@ 0.03913084854203943
defin@@ 0.017038619915427395
eth 0.022121988848087217
house 0.007487151591339976
i.@@ 0.42662912475678233
ida 0.041152259897174366
ika 0.02216115073214382
non@@ 0.04345845180769842
oli 0.048164022328813394
ologies 0.05546178621838171
phen@@ 0.04450011285041798
political 0.01028951461005156
structure 0.014944169689457875
true 0.03905063379012615
ving 0.010302337490305803
М@@ 0.43124814087127505
ھ@@ 1
ऑ 1
ऩ 1
ৰ@@ 1
ಕ@@ 1
‏ 1
All@@ 0.012860867333280176
Bet@@ 0.0077991726530964
Code 0.05246983538794209
Direc@@ 0.040240907528352673
Global 0.05187036041958917
Joseph 0.011665955664950474
Lad@@ 0.047312642265125486
Name 0.008678458829105475
Network 0.038571100598183146
Pi@@ 0.010157843779766463
Republic 0.017236913391770598
Sea 0.028079560344328385
Ten@@ 0.04616312179052595
above 0.017116519044721168
bi 0.03809752202887413
bus 0.013454223629437689
charge 0.03300191651150692
chron@@ 0.021120515493310024
conver@@ 0.05629840058593969
could 0.006344543202248956
ein 0.0004811286970084757
ements 0.012828734291757406
ering 0.012728030658351059
factor 0.06286285481546189
fal@@ 0.022604929082226624
ged 0.012484139368093202
get 0.012679014812854866
ila 0.02632458782280786
inv@@ 0.013970202017584426
major 0.007585466626020225
med@@ 0.022456630578406953
music 0.0057736345330631576
negative 0.0415953367623574
ough 0.0283099472851253
ource 0.05135770979862872
prin@@ 0.015068373227435417
quar@@ 0.020350195663342643
sson 0.04958634707851046
tan@@ 0.03241653866132161
test 0.021488817043938218
wi@@ 0.01282758965258555
ía 0.03075676010046951
ב@@ 0.7771208052051963
ל@@ 0.7013041412827381
ল 1
ు 1
Center 0.011842088626860266
Conc@@ 0.043127004943360345
Coun@@ 0.02042322969025417
Du@@ 0.010196160913126725
His 0.005095020678116778
Poly@@ 0.03128130169154341
Road 0.011996720913839418
Systems 0.049178077007595
Time 0.028876521032216645
active 0.014139106683962439
bert 0.01170267390825896
cle 0.02679984737040993
crete 0.05774125733268296
cy 0.014107151776540565
ford 0.007294311439294595
four 0.004401426673156834
issi@@ 0.02526072621868431
large 0.006942815732997783
lex 0.030225449167026453
lo 0.01679616883592072
ock@@ 0.009554224612896782
often 0.008133677927614304
prec@@ 0.023891477127803245
result 0.012363275738452535
see 0.007401795843622852
stat@@ 0.015422425065494965
ult@@ 0.01748099265485575
yan 0.028943469666045173
yl 0.028050223542991838
za 0.013507812196561515
zy@@ 0.015496184244918129
і@@ 0.562193354506692
غ@@ 1
ُ@@ 1
ു@@ 1
Ass@@ 0.02502606330773782
Dan@@ 0.01680996330621185
Kn@@ 0.01068657347909875
Natur@@ 0.011803559028157743
Ori@@ 0.028878356850578865
Red 0.015691951993996204
There 0.005496747813939255
ago 0.01893579026100576
another 0.007786726304119278
books 0.017155236347870886
ce@@ 0.02467414584438529
come 0.014900271824177434
dead 0.039072784282954805
dium 0.030659270128200647
eva 0.052489934441455624
ex 0.02643100749469753
gam@@ 0.04301266025504387
great 0.014674089687487998
gs 0.009468109787929828
hand 0.014458675290524563
ide@@ 0.020667619440573146
ington 0.011406990396509723
kr@@ 0.03856403346719189
main 0.007164840929489431
mo 0.03159642266900363
nam 0.08585730230596648
osp@@ 0.018422070599330407
otic 0.04780333315203995
ou 0.020395092714212786
positive 0.02465375278447494
rest@@ 0.01887502456118513
ror 0.025673793090877965
scrip@@ 0.04895204763992744
serv@@ 0.01567545957044484
several 0.0046807285266167635
since 0.004992228738299394
ulti@@ 0.03388040876328258
village 0.006991744687107116
ze 0.008396700883004342
ī 0.07299596546341916
ɑ@@ 1
η@@ 0.33841970698235085
υ@@ 0.3656829408198082
إ@@ 1
ి 1
― 1
De 0.02003042152337687
European 0.008546718840221583
Gor@@ 0.02591897111180524
Government 0.0172278595050912
Kur@@ 0.009773808603514157
Me 0.02918393280141311
Mus@@ 0.02060929477597158
Sem@@ 0.016862919421153966
Sum@@ 0.0212775889241072
War 0.005135125878909996
arg@@ 0.02023965775707758
bol 0.03775403071506338
dge 0.023902464601681085
ended 0.008193482420359633
enth@@ 0.011662469952014124
fre@@ 0.006048472349215006
government 0.00536336263569391
home 0.005868641923905097
ides 0.030167733121319734
ig 0.005273708151085384
international 0.009349779304392814
istry 0.05021563009534101
lam@@ 0.025495863334360963
lines 0.014397106802421558
media 0.015079436643901965
ook@@ 0.0534918419299244
ord 0.010755796129350341
thus 0.018445545564681372
total 0.009297086011948065
works 0.008064313141587277
К@@ 0.41871952515788935
، 1
ض@@ 1
ऒ@@ 1
ੰ@@ 1
ం@@ 1
త@@ 1
7th 0.033392674433164515
Bir@@ 0.019236928606160785
Bud@@ 0.026731819321214958
Chem@@ 0.016723989315317902
Commission 0.02182749472810365
Energy 0.05730143140070336
Engineering 0.04326454476687639
Ford 0.03321146110372949
From 0.009356663113427645
Fu@@ 0.01286567255752693
G. 0.029090226139255167
Gam@@ 0.032989038708229175
Ker@@ 0.01631727356966785
March 0.004352374789271562
Nav@@ 0.03635296462456647
Rep@@ 0.014857566024555213
White 0.014233984915373648
around 0.005761940485065234
aut@@ 0.011775342252450527
because 0.006622471634698944
bes 0.020976204297027314
bit@@ 0.029100705327345676
country 0.008078517369218545
early 0.004427709399216859
ello 0.02496247388564106
final 0.0062223524962805865
formation 0.016206628012019338
frame 0.05423171186137997
general 0.008835177066377015
ically 0.011694203530502548
inary 0.0398970555060804
lied 0.016889725692810286
liqu@@ 0.056452521305878134
material 0.017455392823835694
oning 0.050756193760185725
ox 0.033034905532310296
oy 0.032207781671601786
plane 0.047369272891234666
shar@@ 0.020447392423993016
she@@ 0.027166921572744012
ْ@@ 1
.D. 0.04728170108445183
188@@ 0.11338427347436508
4th 0.025360651830314013
Aer@@ 0.050582385440411014
Arm@@ 0.021087186707765614
British 0.004840036149968021
Hem@@ 0.041696075365664866
Thomas 0.007822840255865608
Tu@@ 0.01764763225365451
ank 0.011985623644155468
bel@@ 0.005535257903495176
ented 0.012814552562680775
eption 0.01779712812994606
etes 0.02517892997509363
expres@@ 0.028983337642863247
fied 0.01565616771970769
gal@@ 0.04945469245326024
hur@@ 0.03143877479867193
including 0.003137617151109635
ishing 0.014619724805126159
mark@@ 0.011798999367284537
omb@@ 0.02055023940105716
open 0.012654462544050817
ption 0.03741018708377864
sian 0.035377024742268934
software 0.03627882372838981
states 0.015264357271642121
ton@@ 0.030122267160311522
val 0.011174102313415687
vin 0.03273468472442098
xed 0.029382249941336872
മ@@ 1
★ 1
6th 0.03133335968129878
9th 0.03568593154740695
America 0.00973276952838068
Bang@@ 0.04979273465240462
Education 0.01579988911939813
June 0.004352816668015204
Kor@@ 0.009646396100929351
Media 0.027416964903456405
Paul 0.006987656217582505
Pot@@ 0.0178421499460882
W. 0.021520193099371036
berg 0.0038559847971432314
bility 0.017388185610502406
dom@@ 0.031083771026835672
dri@@ 0.01360192622506518
elle 0.0035455720649726972
ems 0.023802956049218924
entary 0.027744448024948097
ert 0.0028257359788474404
hib@@ 0.020703823295357332
instr@@ 0.01774963208873755
jun@@ 0.05799162750347674
kin@@ 0.019212528259115503
must 0.015319187432610805
natural 0.019219151963696564
nuclear 0.04703780875975108
obile 0.04321914514020323
physical 0.030860076035657966
rap@@ 0.022665136868844457
research 0.010604822715734843
ry@@ 0.03880911600903978
should 0.013447247026806402
stance 0.028864979767060803
sted 0.011880100510576157
sum 0.05171291564681885
tures 0.015370476661056207
won 0.003944063689821053
ਨ@@ 1
ட@@ 1
ల 1
Airport 0.02530224374568133
Alph@@ 0.05549791506001209
Bil@@ 0.021367718048966866
Force 0.014950070084018233
Games 0.01613211012979438
Gy@@ 0.05441867952229433
Meth@@ 0.017068678920554005
Play@@ 0.01661090109335197
Public 0.01924209984112445
ade@@ 0.033121347493266826
against 0.003279972599003837
asi 0.04810887153150502
black 0.014369011552586618
but@@ 0.014914592384149526
conc@@ 0.014836671719603851
continu@@ 0.02181267621953593
cro@@ 0.021888643861522325
cross 0.026101552099303073
cut@@ 0.04373483883579324
eme 0.01607866118245947
ew@@ 0.013221809809441423
far@@ 0.00836014647901268
forces 0.013788649015773397
illi@@ 0.01240108676159028
industry 0.017448552577578897
ker@@ 0.023677099631581246
modern 0.012707733011852016
onia 0.02005438077284948
onlyinclude 0.025157792324598957
post@@ 0.015667331313222867
production 0.008672961660360228
rated 0.012440522998168658
search 0.04353123620240304
sil@@ 0.01607461623625004
sul@@ 0.03390939299792708
ternal 0.0429701409139838
uss@@ 0.008137448203989631
van 0.011017288270434035
without 0.009778096236343693
ée 0.020889205973658995
ʲ@@ 1
А@@ 0.4607927851376965
з@@ 0.3023498400903498
ਹ@@ 1
క@@ 1
ಮ@@ 1
.000 0.006907351280419578
Bul@@ 0.01622499819012505
Business 0.02935476206425758
Dr@@ 0.016655616976964303
Green 0.01850651395843075
L. 0.02841548056737092
Liber@@ 0.019655140836155556
Maj@@ 0.038300634014671146
Management 0.028631551440820625
Mem@@ 0.024825841168209406
My 0.022685476141597303
Num@@ 0.03164413253199698
Series 0.018167207034557178
Sn@@ 0.02594456921368649
Son@@ 0.016198474209431362
Univers@@ 0.014631753050370407
alist 0.009467301946048277
alle@@ 0.010140951602430165
ats@@ 0.014432654873633793
bers 0.016404545505957047
course 0.01761066053964885
did 0.005308522952181475
direct 0.023878085674312387
disease 0.033259741453778996
eda 0.04169344845512479
education 0.010204437328876988
eil@@ 0.0062510755042455715
ending 0.008679487644604491
eng 0.019946682894434076
ked 0.009164075472114291
mean 0.051629443712907175
potential 0.0280680978753807
published 0.005918012306455513
soli@@ 0.022726553174688077
species 0.005644418789042438
struc@@ 0.03115967667976101
term 0.010821172922124154
θ@@ 0.5561795169840946
چ@@ 1
୍ 1
న@@ 1
བ@@ 1
August 0.002096554030555606
Bay 0.013608962590167514
Dur@@ 0.022524064385663834
F. 0.02734577030563655
If 0.018518632908976634
Jam@@ 0.022866794628681915
Long 0.027907259663463465
Mathemati@@ 0.026387399626117098
May@@ 0.017341564347588916
Nam@@ 0.020208126640532446
Pul@@ 0.035231818237100976
Py@@ 0.0288773214155523
Royal 0.008178202565301756
Sci@@ 0.046338364096502944
Super@@ 0.014729758098729003
Tam@@ 0.03425887024019095
Western 0.011124442367654686
Wy@@ 0.03286695134796413
actions 0.020913473370023226
anz@@ 0.004705079020031315
arc@@ 0.03070748972189555
ays 0.012342251819914551
bank 0.016654839336932944
bet@@ 0.0049245699848394905
ches 0.009048547796208648
ching 0.017496685539396116
cia 0.016479626833767243
cm 0.014940489361538172
dur@@ 0.017358664072963353
ela 0.017519902789531326
erg@@ 0.010819065518346518
forms 0.011380601796635283
icient 0.032606056514544055
ize 0.015605870605002346
lock@@ 0.017603326925475005
molec@@ 0.051907816450702124
mut@@ 0.013007546137078236
nature 0.025807153142192008
nic@@ 0.037493658089442244
olution 0.025112931781937405
princip@@ 0.053438489268849455
rach@@ 0.01987353342446514
sat@@ 0.022459749013481196
sid@@ 0.0328581876066039
tif@@ 0.022195453215772126
trum 0.050816146908852305
ud 0.030848420290545773
ures 0.018642837557332353
wan@@ 0.04053146242318831
win 0.0061168051352113
wing 0.010039580391654687
à 0.03168116109023057
án 0.022293159787849036
ε 0.6935975023675433
В@@ 0.3932845412360644
ক 1
ம 1
ல@@ 1
ས@@ 1
ṭ@@ 0.3354695723792201
中@@ 0.5877384241047703
8th 0.03266487257162127
April 0.002175190814198089
Ari@@ 0.035607596126159866
Hum@@ 0.019284687989666174
I. 0.009230491860021091
Inf@@ 0.04806483037827117
Jean 0.01381253205396357
Kol@@ 0.017153999835739838
Ku@@ 0.015942765698210334
Middle 0.02568606856332784
Mul@@ 0.02651961734582437
Project 0.03484838691179111
Records 0.012351627332705917
Region 0.007966132531078621
Ste@@ 0.01197140798197133
V. 0.015907817288156826
aps 0.02960037563432608
back@@ 0.018628268021643343
by@@ 0.019760451177734943
expl@@ 0.010512266905944171
gest@@ 0.005015085066006483
inst@@ 0.01657415514916723
jan 0.0304550448653323
jo@@ 0.019781997847866592
ju@@ 0.020797971140981832
ood@@ 0.029890551489049268
ower 0.01784582945728748
property 0.018820551093187875
ses 0.010510744315795285
sing 0.017355850211688943
stage 0.011467444281962298
stone 0.014499736434046078
stro@@ 0.030335373674907535
tab@@ 0.04251217393386866
team 0.0026039442564432303
terms 0.01935980175677991
theor@@ 0.05608925715343469
ther 0.00926537638276778
ths 0.018661801395132904
tin@@ 0.017904831212710044
uments 0.021026970591421477
view 0.013816213712800588
von 0.0001820443863303523
wat@@ 0.022374138529047852
women 0.006717668052608984
ynam@@ 0.09066501862208122
yr@@ 0.016164360695218472
æ 0.6027265855906462
ð 0.3843658946245435
ö@@ 0.0020957137755252785
р 0.6299329939680018
ָ@@ 1
ذ@@ 1
મ@@ 1
ய@@ 1
గ@@ 1
ನ@@ 1
197@@ 0.2794311933196527
Academy 0.01065248332652795
Bri@@ 0.010884710459525394
Cel@@ 0.025335943369812652
Court 0.01068349259615982
Edward 0.01636158379856777
Eur@@ 0.02032284867781227
France 0.0078172011482046
Integ@@ 0.04109377124428461
Jan@@ 0.014885859932646354
Lake 0.011139823521896223
Other 0.012206252024318106
Standard 0.03684489135678302
Um@@ 0.003776617976186177
Win@@ 0.010962472756335453
ads 0.01822719473090152
among 0.007765533239300166
astic 0.037202982578037155
atur@@ 0.020899104161631887
ault 0.018849695027493254
autom@@ 0.01829275681050499
coordin@@ 0.03932346628622971
ently 0.009237274975719079
itic 0.028973332814294584
off@@ 0.004646548851911996
operation 0.013651174947819523
oral 0.03211215409428446
play 0.005357341464096878
quality 0.02310008048077591
ras@@ 0.01609964454998361
rig@@ 0.008894546779163442
rist@@ 0.013742340872002993
said 0.005677213349428086
support 0.007673636409062716
technology 0.023993754821678072
ultural 0.03532050206262899
uz@@ 0.015004439867202122
worth 0.018814826927183424
¤ 1
§ 0.03927574363296973
ð@@ 0.06633041555603458
ں 1
ప@@ 1
ག@@ 1
″ 0.2045950231547342
Agric@@ 0.049273112623893035
Aqu@@ 0.03088450031427741
Ele@@ 0.022833645677385786
Environ@@ 0.04728457151312379
Eth@@ 0.01870208774186652
Gon@@ 0.031082460255755905
Gur@@ 0.036043075880345415
July 0.00394898236784376
Kin@@ 0.011489330878044886
Log@@ 0.022447555358937
Ped@@ 0.02965174318920646
Phot@@ 0.04844585487066825
Pic@@ 0.02002576862936083
Tru@@ 0.023943853795974905
UN 0.04281938631995414
ans@@ 0.0207505810087309
anus 0.05155016625615031
average 0.010397536511402801
awa 0.015575200787478524
bed@@ 0.01756637532968938
best 0.00697907723780495
enk@@ 0.0031744017679304847
epi@@ 0.04179426335323271
ique 0.022154141881529574
issue 0.015892092674233322
iting 0.011336015456263183
make 0.007741154159432988
metal 0.028298693147423087
pap@@ 0.024404087233725176
phone 0.04391814793118315
present 0.009198790074109654
sha@@ 0.03365943083513989
sia 0.027800722673214914
specific 0.02067929851059619
Δ@@ 0.501651258696704
й@@ 0.6562956316783948
ম 1
ਮ@@ 1
√ 1
▪ 1
大@@ 0.495247200075044
189@@ 0.11017161629114083
5th 0.025764203809767766
Acc@@ 0.03369457740098185
Bank 0.013598570308937493
Coll@@ 0.023972491898352443
Ger@@ 0.005352585758105027
Internet 0.027877124506602704
Nic@@ 0.015478327461748796
Od@@ 0.03504691428448598
Sciences 0.027775333643019682
Studies 0.03279708841779961
Sul@@ 0.022101188779479246
Super 0.01787950962740008
cent 0.022096908644798564
cle@@ 0.015911458737348325
die 0.00010064772416154133
dimensi@@ 0.035783317145784505
din 0.042670557444100546
ech@@ 0.011384681272377508
essing 0.03156613904616143
features 0.012084844194759914
ft@@ 0.013566233822787514
fund@@ 0.024153486580339723
fur@@ 0.020878512462127147
hon@@ 0.011129278272151854
ility 0.03388469726950847
illu@@ 0.05438563899214721
important 0.009542084905543851
men@@ 0.008026431210086865
mental 0.02047268013257025
onent 0.034939594959331896
sens@@ 0.025879126923457667
sh 0.03449246390735334
short 0.009109381052680485
thes@@ 0.03758269782790674
times 0.008844815684777515
transl@@ 0.018597371064684048
tual 0.030636642962192304
ved 0.010203994867244218
ô@@ 0.024269938444170063
έ@@ 0.4869177977476168
ز 1
ف 1
ধ@@ 1
ভ@@ 1
ವ@@ 1
Ali 0.029908804170849065
Ay@@ 0.028215758060412405
Canada 0.00863200935567503
German 0.0060399198339978945
Land 0.008165749314287459
October 0.003778947252227589
Of 0.02400065447379574
Old 0.01714227337013864
Popul@@ 0.02509028777713112
Rom@@ 0.008570917692844557
Sin@@ 0.025094041560461033
Star@@ 0.01302796798245536
Statist@@ 0.02828713614809369
Ven@@ 0.013971559665982637
age@@ 0.028022483299661102
computer 0.025731161124510474
don@@ 0.016162714891845006
double 0.023011191355483816
dynam@@ 0.037776705808585935
equal 0.04393675803277578
ered 0.008419686450987477
essi@@ 0.009572182838642975
ez 0.011229818812943328
fact 0.01852535606252723
hau@@ 0.02230581472040981
learning 0.036818916428519706
lip@@ 0.04748154955134368
meth@@ 0.02423823320666496
mir@@ 0.031257654452128504
mul@@ 0.03132186251916369
phi@@ 0.03042419259751887
ria 0.020653684742041812
rif@@ 0.022702838899583317
ril@@ 0.015454581571005394
ros@@ 0.02053609718887316
rus 0.028534973424654907
sen@@ 0.006747061436880128
square 0.02144592427951944
stell@@ 0.007627146277573623
study 0.01175187064565574
sy 0.05000851931726939
vit@@ 0.04091938858017115
wa@@ 0.017139645799113177
white 0.011106749249420358
І 1
ь@@ 0.2580439596771101
נ@@ 0.6564719130728827
दूस@@ 1
ಿ 1
ು@@ 1
വ@@ 1
ร@@ 1
ས 1
း@@ 1
20th 0.02077844346151828
Bak@@ 0.033297303003740154
Board 0.01587033146643058
By@@ 0.02193519013042598
Cin@@ 0.03390539448451419
Contro@@ 0.04061439665602664
Dom@@ 0.012657387078958153
Egypt 0.03970651079554272
Henry 0.009750202751799887
Jur@@ 0.017259891976674803
Lar@@ 0.01313026265009436
Mang@@ 0.03288083683649306
Mich@@ 0.011908355982747296
Mod@@ 0.014194863211400068
Mun@@ 0.016657090599346693
Pad@@ 0.03819282698092882
Sun@@ 0.035804214790140725
aga 0.030694104552952694
aire 0.030306288236088868
alb@@ 0.011703507491413618
alli@@ 0.016098916487552007
ancy 0.022356016283006437
aves 0.03936404927454619
bil@@ 0.011439898462799358
cho@@ 0.022354495465572218
cru@@ 0.022986225751532707
dence 0.02699729570686096
ern 0.0012795783816329127
ference 0.05435181662982328
ff 0.008603060013716041
geb@@ 0.002953223482492555
half 0.007203697817566073
ils 0.014088363701775415
late 0.006173534790131537
lica 0.04879154912307522
matter 0.036630373798228914
ming 0.023586784621297128
ned 0.009501274600818586
onents 0.028955069463733506
oom 0.033766038156998725
opp@@ 0.011038329974602338
orial 0.017929456751632017
otyp@@ 0.024330748063372692
ris@@ 0.012404631132985225
s. 0.016588141511555358
third 0.005545617040365728
values 0.04406155582514234
vin@@ 0.018177402552489855
wood 0.010329134448479022
ω 0.6761544924771843
ּ@@ 1
ੀ 1
ி 1
జ@@ 1
ိ@@ 1
ြ@@ 1
Ang@@ 0.011404849505815762
DF@@ 0.04331202303238391
January 0.0035464797979408796
Lab@@ 0.028959141311095317
Louis 0.011307060445850937
Os@@ 0.011416584555335655
Pos@@ 0.016763833443137442
Ray@@ 0.03074383901276324
Som@@ 0.012604889689645477
Test 0.03514637019198035
Tre@@ 0.007460871822931809
When 0.006266481373937719
af 0.045090389448932185
anced 0.027342370760331414
aring 0.017949627307128197
below 0.016148808989088086
born 0.0023103518974343555
business 0.009355538019584803
chi@@ 0.04626384171208916
concent@@ 0.027205971007658755
connec@@ 0.017330874669157604
dor@@ 0.013576010257271006
enc@@ 0.014134198071934114
enth 0.02134569584102296
eta 0.03032086497432907
food 0.01686311090129344
having 0.007219318355566079
ising 0.012570419154884561
kon@@ 0.0030752947950145764
mann@@ 0.0098688817049313
mig@@ 0.023692292107177684
ners 0.01635816060536757
ographic 0.029633912240521285
omen@@ 0.044314146688828
original 0.0060702363670379405
others 0.009775931795211159
path@@ 0.02944409032829247
pe 0.012041653347838034
pul@@ 0.02353804090033505
rau@@ 0.006597060300725388
sea 0.012542000355002149
size 0.012662430408389285
sum@@ 0.012680394841678032
take 0.007708608301372274
tics 0.04218209479648402
took 0.004158943982674527
ural 0.027449668922332377
utr@@ 0.03335735217785404
vey 0.019206411932643712
ze@@ 0.01015351906303503
ón 0.01586456065021103
ɔ@@ 1
ɡ@@ 1
ʁ@@ 1
Δ 1
י 1
ع 1
ོ 1
Ach@@ 0.012175957116890217
After 0.0027331969698945373
Alt@@ 0.008279497183490605
Asia 0.021047918384657707
Brun@@ 0.015183402674473196
Chap@@ 0.020659906506019066
Dal@@ 0.02174554307908083
Deb@@ 0.018840499842730996
Dor@@ 0.009439733667193688
Ka@@ 0.018850649758844044
Kap@@ 0.010481925005699928
Library 0.024701463241920827
Med@@ 0.011282160816510178
People 0.017623759296616966
Rah@@ 0.034759266542080426
Rat@@ 0.02534967035911202
Services 0.03065202986872188
Tw@@ 0.025863908908611087
VP 0.033356525248516955
aging 0.015450078735772388
aker 0.012046475207376965
alis@@ 0.008941988610121205
article 0.024845676912919022
blood 0.030678904517413404
board 0.010485764155137635
bridge 0.014521093506305555
chan@@ 0.029841652124632675
cou@@ 0.017879915679966423
dat@@ 0.03454952878455827
eding 0.01785761014296845
eli 0.07395935999794473
engineering 0.033887760128187734
get@@ 0.005205616154311832
ico 0.014580931330273572
igation 0.03961244715361618
ign@@ 0.01772294191407781
ious 0.01786470132012983
ira 0.03510802172477688
isation 0.026441557923698455
lay@@ 0.024593436538168575
management 0.015052048316186246
million 0.005781618073973243
motor 0.028284439992028794
nar@@ 0.012830269092330357
ple 0.023086207380049014
regul@@ 0.012963362074311473
sn@@ 0.01574752249581201
star@@ 0.010231285083536342
stein 0.005584956725331169
story 0.008489067980463342
stre@@ 0.005120550151562554
via 0.006606645160619477
vic@@ 0.019504456513764933
vis 0.040708241322550236
whe@@ 0.02265115118112987
ॿ@@ 1
ਤ@@ 1
ர 1
ಂ@@ 1
ུ@@ 1
185@@ 0.11913104819602363
Church 0.006774257110955364
God 0.01973308292562882
Imp@@ 0.020052912232956917
Kun@@ 0.017320115288408225
Lord 0.014846886295658656
Medi@@ 0.014420862736269116
Nov@@ 0.01177873793289685
Rev@@ 0.01684931582995609
Richard 0.00840580874856527
Sing@@ 0.033344830678094725
Tab@@ 0.01388403671345789
Tak@@ 0.018923396230646015
Tamil 0.04252213811386019
Vari@@ 0.013011483322841454
York 0.002923419692685751
ands 0.008501611354000526
cc@@ 0.1131788723860827
cus 0.04198322303555698
design 0.008955867630888023
eing 0.017319141591798804
engine 0.017644495454462606
ept@@ 0.015101612286025348
erv@@ 0.01614299364047983
full 0.008216153473301608
gang@@ 0.023800439634959605
gene 0.011262032192831917
gin@@ 0.04195463579394213
ground 0.009254495197660402
lea@@ 0.053262947896769906
lif@@ 0.015022816142532652
mus 0.025109861491149816
national 0.005229374162053862
new@@ 0.03105886587709619
omm@@ 0.008798060619000373
op 0.01770330367974469
ossi@@ 0.0177338758136609
ounds 0.016571968296660414
ous@@ 0.021300759913912542
ows 0.010194000550442313
parti@@ 0.022505142131267232
pole 0.04235261075541891
population 0.004132377709687557
port@@ 0.015860424764977198
uni@@ 0.029852024286329177
ve@@ 0.035673099888248856
ware 0.03365813292198373
within 0.004950313991530492
yle 0.016601438305486722
ysi@@ 0.029215067864857006
zu 0.0003381856140842027
ʊ@@ 1
ч@@ 0.3062354777683073
ש@@ 0.5302459391306663
ং@@ 1
వ@@ 1
Also 0.021796441852285502
Award 0.006613683449668151
Cath@@ 0.01420077439178699
Chan@@ 0.039468923794363946
Ci@@ 0.0276761141490799
El 0.014892313561011797
Gran@@ 0.014148082588820892
Journal 0.02400787649626091
Ky@@ 0.020048374469123834
Les 0.03381531504249951
Ny@@ 0.03540096678794049
Pho@@ 0.03557657096947982
Security 0.0336980452398015
Sl@@ 0.020837494908590593
Sri 0.03051325226890049
Stud@@ 0.011347780237279548
Water 0.03574119914553698
ais 0.018499467321659743
audi@@ 0.02123558874857847
cel@@ 0.0256145260543015
condition 0.033975504894945364
defined 0.026636026739639725
elements 0.020754225327172773
elli@@ 0.019215796529636748
eri@@ 0.011763456336102847
event 0.007791490814996654
former 0.0037725503324932135
fran@@ 0.015229628717254948
gh 0.020924341928215174
gran@@ 0.01684148643623983
iel@@ 0.005684168517163936
ier@@ 0.002846112231888222
ified 0.02274955263186962
ison 0.011400175089830286
length 0.014595737300057449
medium 0.040395175861416874
mis@@ 0.01640043700106635
och 0.018940318561279278
play@@ 0.018970138320963892
possible 0.011582974175135954
products 0.021192263008202167
pu@@ 0.03748933744848608
som@@ 0.03527246210756272
tial 0.026890450490857493
trade 0.016409371160788014
ury 0.011942072090016874
viol@@ 0.015374206420588251
vul@@ 0.038490522156732127
ward 0.011604839788827124
zone 0.018797305859506123
φ@@ 0.492200696729715
ύ@@ 0.5131632476977609
П@@ 0.3302925728054667
ה 0.7437699417249027
শ 1
ਜ@@ 1
ದ@@ 1
≤ 0.786493019317456
Af@@ 0.0165960515369407
Air@@ 0.014899319878644304
Beng@@ 0.030054187050766117
Class 0.030984187155273565
Department 0.009601146804156881
End 0.03920894541319314
Expl@@ 0.04396367415804273
Invest@@ 0.021160204295734196
Ju@@ 0.011656797424655665
Lev@@ 0.016221113189456366
Mark@@ 0.008125331552918965
Mast@@ 0.022772550643014942
May 0.0030529506057791456
Philosoph@@ 0.04808571743911371
Radi@@ 0.01710919226794456
Sen@@ 0.008076732939043409
They 0.0034414800519325
Tim@@ 0.01736964610350803
Tot@@ 0.022384667490096124
Vit@@ 0.03487923722301589
aer@@ 0.04083517300072883
ains 0.01360983643838438
bel 0.00600225837827004
block 0.02384229061004731
cast@@ 0.01898373393707707
cell@@ 0.036710408051160257
certain 0.01577096122159296
cks 0.010310337705318511
cla@@ 0.03763497342907877
countries 0.011110804384308517
critical 0.02499836635209359
date 0.012499713904388523
depend@@ 0.02147197389950796
does 0.010676026770227538
element 0.04227786330062533
enter@@ 0.020147885987424143
eph@@ 0.032081600061274425
esses 0.016297445726748277
eting 0.021575840088115958
fication 0.02380565762269563
i.e. 0.03308764326877084
idd@@ 0.02289653590746318
ific@@ 0.02482549858005179
independent 0.014192496488393314
istics 0.030860757119431193
izing 0.026465950028072834
kt@@ 0.007452677523095042
lit@@ 0.020777862941999868
main@@ 0.013067327865867106
mb@@ 0.023465983432622888
memory 0.03298383889773156
min 0.02378642228201795
oly@@ 0.0383058896762855
operating 0.02361848220172129
post 0.00976743628395946
rier 0.027453209191667827
ros 0.02004908820828537
san@@ 0.016369947292568212
sci@@ 0.035016148704919016
sky 0.010544101227202054
sta 0.01825730353276198
supp@@ 0.010982307859065628
until 0.002719930169380807
ven 0.004650564963068786
wall 0.016454125658837075
written 0.006820842979732017
yc@@ 0.03655087685153391
á 0.011118777842659544
ó 0.03775564475596436
ƒ 1
ɾ@@ 1
ʃ@@ 1
χ@@ 0.4621362043363487
ω@@ 0.3652366776206627
ְ@@ 1
ث@@ 1
ظ@@ 1
ನ 1
പ@@ 1
င 1
↑ 1
And 0.026594034214384263
Anti@@ 0.014611245384720901
Cri@@ 0.021239082429156644
DJ 0.040192157943237716
Division 0.005089019626660106
Eu@@ 0.017862626447532004
Grand 0.008564972682551089
Ham@@ 0.01083850495404737
Jer@@ 0.01524008575427586
Lat@@ 0.011380751946405013
Malaysia 0.03644754695473731
News 0.019257564659160314
Paris 0.005618875147556771
Post 0.015854361376594767
Stre@@ 0.007379875209843505
band 0.0038238539520702524
became 0.002133743194558481
circul@@ 0.03444766957301098
dep@@ 0.011386610879372828
domin@@ 0.00955391739519945
eling 0.024683208681081866
eur 0.01621832578971869
good 0.010659302981498522
green 0.022255007579405777
health 0.012616151021276936
ho 0.037655146402032824
ich 0.007634002334419823
ional 0.015653258093849563
iti 0.03538453087938994
jo 0.026527788350025155
ky 0.018582996052861282
last@@ 0.02412203841660425
lead 0.008206601533405333
ligence 0.05990306206790055
local 0.004382349233767034
making 0.007525116407378242
med 0.011886510869198952
oot 0.026206224747167575
ound@@ 0.022567671134598746
rak@@ 0.03467197611550979
ran 0.009841349143509691
school 0.0029330398735723955
script 0.03981923527571287
sions 0.019621584408756835
transm@@ 0.03206229905507612
tric 0.05192031381833201
ucle@@ 0.06864041487847282
uf@@ 0.0061570599127606564
units 0.01276230350314792
utions 0.031775300909042174
yal 0.04663228964092161
Ú@@ 0.12650008707695673
ê@@ 0.03727439693102445
ː 1
μ 0.7099622171010436
ת 1
། 1
Art 0.0044295711283411105
Arthur 0.016236038505876394
Big 0.013574264130457064
Blue 0.017212769589108428
Fo@@ 0.018615773556810662
Fur@@ 0.014681903634773048
Il@@ 0.010950711364294286
Ja@@ 0.033276660781220053
Liter@@ 0.030367698116368188
Many 0.014277869357016693
Meg@@ 0.024184786635325792
Men@@ 0.014129807887721679
Mont@@ 0.008543774805636962
Nations 0.022045918448758337
Nep@@ 0.027370905284211714
Rob@@ 0.013518693526445654
September 0.0016210627353557944
Two 0.011384191827124884
Whe@@ 0.03559779755099444
aja 0.028038021545259327
aki 0.020382589041434255
aking 0.017010401411404835
ances 0.02224333415402101
ander 0.026208089046647166
ativ@@ 0.03008452665483292
dus 0.020486726055732513
ends 0.00800709267407192
ensi@@ 0.011162801101196706
films 0.01111286062592411
gery 0.03801823563451052
groups 0.009943624546180783
ike 0.018281140659736298
image 0.027354900466776255
lag@@ 0.01055974695043795
ler@@ 0.00831374425951043
les@@ 0.014080898650024638
lin 0.011396209244400777
load 0.030334878816555836
machine 0.029708788493817858
mol@@ 0.02751309877372977
ods 0.02293020453309298
ody 0.018241933690101457
onn@@ 0.008688974544625779
price 0.035138787392287325
rat 0.005608612750061766
rent 0.03341929202162057
ression 0.03856142790075438
ruled 0.03412212906510955
service 0.005178757079143748
six 0.005796836779281534
tem@@ 0.06328943262448504
tol@@ 0.027153780950913337
tree 0.024352649114141173
vert@@ 0.02965542881031074
vil 0.026467575076811987
η 0.47980963023861734
ق 1
య@@ 1
ా 1
Anim@@ 0.027926021767617753
Bat@@ 0.010549854353479202
Bin@@ 0.040551246772287816
Free 0.026358895895010073
Gir@@ 0.018399688870070527
Hall@@ 0.019858054347589534
Hom@@ 0.013597624979058526
Indu@@ 0.025712917319554898
Kas@@ 0.012684356359871215
Korea 0.020107391838847175
Max@@ 0.03454554931919511
Military 0.023025525052826002
Mir@@ 0.021816648299335537
NCAA 0.026607323110499386
Not@@ 0.009528936232627867
Pass@@ 0.01333670527703013
Point 0.02228173876755571
Rem@@ 0.014877088577892087
Saf@@ 0.02842754795528492
Wel@@ 0.012614822620842991
aqu@@ 0.026739827111928488
bed 0.010925732901901518
cav@@ 0.04009408044703655
chain 0.03514857777605695
che@@ 0.01803850664997429
children 0.004762893633416117
conserv@@ 0.02318342105090244
considered 0.007214357169852459
culture 0.013607760358440649
days 0.006248546935613455
eds 0.01094232276245743
ein@@ 0.0008228368417750431
eps 0.03544428804727668
ere@@ 0.017976929656223967
esian 0.03866194683795844
exchange 0.028623661487745335
fas@@ 0.011951406164764967
generation 0.023441411526558778
hard 0.010878424083472754
ild@@ 0.009328016127440122
ills 0.012802962712294154
kur@@ 0.008267943886152582
lands 0.00965730601824163
ment@@ 0.019833603929402453
mir 0.030789585052086763
ova 0.017785449727431298
parts 0.010532406517433065
problem 0.022702915723201763
ras 0.02451370239488494
record 0.005558562254201962
resistance 0.03659040211828697
rix 0.029353903896801332
round 0.00570386522502103
show 0.00457479358915551
station 0.0033461133378127742
still 0.0050153398189274855
tation 0.011479462144341214
techn@@ 0.006066248049560491
thor@@ 0.03282696828737229
tour@@ 0.010113101759851528
tus 0.031411168783351644
univers@@ 0.014555255100098845
ü@@ 0.002221071508141254
φ 0.8077951901276096
ж@@ 0.4459976701193154
ц@@ 0.34273162634951143
ִ@@ 1
ד@@ 0.8273189409464038
ِ 1
প 1
ਾ 1
ന@@ 1
ി 1
ု@@ 1
≥ 0.7627926725717539
Ali@@ 0.029945772231598042
Bou@@ 0.015375554576269978
Cham@@ 0.020222411968259347
Christ@@ 0.005726466599826877
Circ@@ 0.020606352181595136
Dat@@ 0.011192944798227893
Der@@ 0.01096404834169383
Lag@@ 0.01373368166333667
Plat@@ 0.012861103334148754
Produc@@ 0.026056065698929265
Rap@@ 0.022246001101227143
Revolution 0.0164315653404473
SG 0.022884760882568626
Second 0.012145590011232688
Tha@@ 0.029972665605851836
Tol@@ 0.024219566873814238
Vel@@ 0.022518048850209006
Wei@@ 0.006523884699626843
atives 0.012310794228002958
az 0.02366151233755124
coll@@ 0.04145908466101369
division 0.009594527282482685
ele 0.013249789351244512
enh@@ 0.004137235689423231
equivalent 0.03799580264934227
ette 0.005562079562046709
eur@@ 0.016506739116966193
every 0.007950347057050536
ez@@ 0.024032088678391374
few 0.00662013104601741
fire 0.009550939195740588
flow 0.02883642998346778
gement 0.03252881398841717
held 0.0033370391853134377
inger 0.004767198836162054
ji@@ 0.03820239021561427
market 0.011229664586849266
means 0.0134635926184725
multiple 0.016175724295221627
phic 0.033990643566763616
rates 0.014699213015686422
rest 0.009177976185656326
results 0.013851240154437028
ris 0.012513310456808743
row@@ 0.02540646162498127
site 0.006014247538336896
soci@@ 0.01746330729393212
yn 0.011133204287254114
ʒ@@ 1
Г@@ 0.4224628247103294
ফ@@ 1
વ@@ 1
ு 1
ം 1
ത@@ 1
ല@@ 1
ན 1
្ 1
Adv@@ 0.031644622428001055
Agency 0.03822930800596571
And@@ 0.022826221021373754
Best 0.008687318539390792
Committee 0.009960199126329363
Computer 0.036838068674680924
Ev@@ 0.008145483154255015
FL 0.0232734336178741
Kab@@ 0.022301795197650808
Leon@@ 0.01710615735011814
Mut@@ 0.017596756018709192
Peter 0.005062671563861688
Poli@@ 0.01958521726873422
Software 0.032951290814515095
Treat@@ 0.0353081488844458
ald 0.007897466409052449
alle 0.0029720609717657164
alog@@ 0.016649628222758187
always 0.01648295260600625
analy@@ 0.015815577906291973
ane@@ 0.02741889133437992
anna 0.021245442301396217
approxim@@ 0.09456577280283412
bing 0.019088006528769293
collec@@ 0.012338176000976841
conv@@ 0.01316217763625584
cra@@ 0.0217444367252254
eau 0.016444402084740625
ero 0.01586863736614595
father 0.004664869476771566
ink@@ 0.013256748928893024
isch@@ 0.003916807554774939
ische 0.0006937567094962951
ld@@ 0.033297125429488886
ligh@@ 0.01568021463327085
live 0.007002515167306309
meter 0.03212923811048496
military 0.0066282055843613
nec@@ 0.02225981355186076
needed 0.02070437254123332
network 0.013066320491240416
ologist 0.02130634242265329
ons@@ 0.007915006723274817
ophi@@ 0.02658665722847181
pic@@ 0.015333634385276238
plant 0.011769915440464945
quot@@ 0.023814577167758758
released 0.0025510447447547185
religious 0.014426353961104456
reser@@ 0.026641110187465098
rid@@ 0.028812763426802154
sed 0.012453348060344503
sequ@@ 0.010249810526795503
shire 0.008703303368257892
speed 0.016322652841046347
statement 0.03217294595357367
tered 0.016974451323280484
vac@@ 0.028484664511178873
vices 0.04022737606008917
weight 0.01510132007781951
wit@@ 0.011123244440764353
your 0.032951290814515095
án@@ 0.024204544192463404
ø@@ 0.011505481446225142
ś@@ 0.046011751146196794
δ 0.5061292626081647
ء 1
ৰ 1
ା@@ 1
ರ 1
≡ 1
Age 0.03367513649883876
Arab@@ 0.015778271878925203
Dam@@ 0.01163441010216173
December 0.003041526101009404
Ferr@@ 0.03187421375918777
Fil@@ 0.012574056924510559
Fort 0.013371219211584944
Gul@@ 0.017036883020195397
Hill 0.01023121321367902
Ji@@ 0.03036858611009054
Lor@@ 0.012460860721382585
Love 0.012972006797985618
Mechan@@ 0.031384509570594125
November 0.0015758247694736053
Ox@@ 0.032190160979065345
Pin@@ 0.020703259235330215
Sak@@ 0.02028544700442582
Simp@@ 0.03423957512087932
Special 0.020824102001337157
Star 0.011262477290661384
Typ@@ 0.010981721006861405
Vik@@ 0.01796357540204703
We 0.015111822977226177
addition 0.007356655923102497
amount 0.01702199964681575
arch 0.026427165022875867
ather 0.017127890779921915
bab@@ 0.022929698265978564
basic 0.029895477014547995
bat@@ 0.01326270363601577
built 0.0034667411655640054
cies 0.011312776416607797
count 0.029584720479358236
divi@@ 0.04908999549307465
earch 0.1479581639861362
ech 0.04569806544186635
econom@@ 0.02666923318006582
economic 0.013108278655778575
exper@@ 0.019440090310381058
formed 0.005401522054467751
game 0.002945536731292911
gon@@ 0.03352360729807639
gram 0.120506363817443
height 0.02889952957721223
higher 0.012298717068569876
included 0.004235859142880689
itu@@ 0.02044096003423702
just@@ 0.017501857026481393
ko@@ 0.020918686658210024
lah 0.0314351423112764
literature 0.02220215415411212
manufactur@@ 0.019552634252741428
nit@@ 0.019389496076566533
ops 0.013765046013708575
pon@@ 0.020182007548742345
pot@@ 0.01486789791302842
prof@@ 0.01025482274985892
reflec@@ 0.020937706789904545
related 0.009721910448829982
separ@@ 0.014011747800877597
sex 0.012624819415084986
sli@@ 0.02409210355186087
sper@@ 0.015915077704465017
ston 0.008685515592657565
supply 0.025573384830314506
ulated 0.02777155758625865
wrote 0.0056639769407509765
Ω 0.608904751789099
λ 0.40921547131545266
ρ 0.8415427798812797
Б@@ 0.3582805894544062
Р@@ 0.3687108831794253
ן 0.8305061532598859
ح 1
ॾ@@ 1
த 1
ே@@ 1
ర 1
ന 1
อ@@ 1
ေ@@ 1
Ath@@ 0.01520878201221436
Bos@@ 0.013361795202381876
But@@ 0.014926012143164588
Civil 0.016242145281925247
Contin@@ 0.02834157227552135
Dem@@ 0.006306346114683189
Fel@@ 0.006702154094252132
Fr@@ 0.01486838275265044
Gramm@@ 0.024621210040752618
Kos@@ 0.015974741541867624
Martin 0.006786307032737662
Mol@@ 0.011541012058437541
Most 0.01129144236532431
NFL 0.02055532214411457
Player 0.03389140711055194
Saint 0.0053883625026330635
Stru@@ 0.037370479531149914
Sun 0.019260574594243022
Ty@@ 0.011698230136127476
Van@@ 0.028384004665200243
Wat@@ 0.014257683241231845
Women 0.008325731792038838
Young 0.013752486608332889
absol@@ 0.017363555904462005
access 0.013306247300935842
actor 0.015152678297444433
alia 0.026069210123538578
alt@@ 0.006419188219720105
amer@@ 0.01849732156318926
animals 0.026475272586522044
away 0.006981426335843116
bin 0.024496403191326278
broad@@ 0.017408936392451346
cause 0.016931733478148782
child 0.011977950646769717
chin@@ 0.015386334904977756
clo@@ 0.024834574013294405
direc@@ 0.015860628901984277
ease 0.026016923098061195
either 0.00707583223300892
ening 0.011495257113243175
environment 0.024334351550941317
ev 0.03049471820192201
experim@@ 0.0170582995921881
far 0.011792263756360463
fields 0.021353172111240142
five 0.003863709671222388
fly 0.024018936995218176
gel 0.0041062697852038265
hr 0.018249412255307938
ian@@ 0.01648550585337349
just 0.005255871204212524
mach@@ 0.009224774956317464
mak@@ 0.010934749212828151
mos@@ 0.028978049677593615
ost 0.011192475590732684
ours 0.011364334048413043
person@@ 0.013469875526476126
plants 0.020524509702526124
repe@@ 0.01904182280058207
revol@@ 0.012989264915565178
rics 0.07063866795870843
ski 0.006649533577269957
spe@@ 0.007629579683247181
started 0.005007890285445883
tax 0.020923534468794778
tournament 0.010768014352845757
towards 0.011659490609704498
unic@@ 0.051766081182090674
upp@@ 0.011402188873834545
user 0.0287884957958105
uting 0.034344803861194775
whose 0.010771779392829271
win@@ 0.007498199291366751
® 0.40270966096067595
³ 0.035093024705671896
è 0.13343709394040806
ˌ@@ 1
פ@@ 0.9665031863056223
ট@@ 1
ਦ@@ 1
མ@@ 1
ာ@@ 1
ー@@ 0.6607461461338705
日@@ 0.9665031863056223
￸ 1
187@@ 0.08029901081488008
According 0.005954282795875011
Arc@@ 0.033100186251084705
California 0.005789833231161102
Cas@@ 0.01156206563750252
Classi@@ 0.01864686756977449
Die 0.00024088460073267218
Hills 0.03122390516961196
Kir@@ 0.012574770310763695
League 0.0024734422886595183
Mountains 0.0268985460565337
Ol@@ 0.007293244301199312
President 0.006167307944805986
Railway 0.012176656584592042
Rights 0.032604741906599836
Sand@@ 0.008933755201953775
Spe@@ 0.009381842140626553
Str@@ 0.00886107201181917
Tan@@ 0.020751039081285373
ache 0.007463161037550682
aim@@ 0.020001022393289
aling 0.020211914658085382
along 0.003665869808172853
anim@@ 0.012117540622615667
areas 0.0067576357457161205
arti@@ 0.01145757415347402
basis 0.014545756587846913
behavi@@ 0.01849145302296668
cid@@ 0.021317815682526886
clu@@ 0.02206983957553672
compar@@ 0.020032793936259695
consi@@ 0.014608721392001109
dan@@ 0.01503402235359532
determin@@ 0.040798952540712106
dom 0.021352009291712902
eal 0.016972109949823077
entum 0.01640505602297701
ests 0.008190471655156458
figure 0.021592524851004973
hop@@ 0.02332219663924491
idi@@ 0.0310137520413671
iger 0.004157841508122685
lies 0.006527876866768436
loo@@ 0.017792548323427804
mar 0.011325435944207695
normal 0.023431669105378663
org@@ 0.03584326825304446
ously 0.00909862343921026
person 0.009407626551692274
ple@@ 0.018472920227553945
popular 0.007216149624201241
primary 0.01095620705402845
produced 0.005271996661641413
programming 0.030143697102981787
qui@@ 0.024550435273729736
rather 0.010102974586651018
rement 0.03276972760826069
rin@@ 0.030933675222256932
rup@@ 0.013626720215627969
sequence 0.025050940749775454
spar@@ 0.009486963941545004
start 0.008876829113903686
temple 0.02547169642517298
tern 0.005048294460466926
tific@@ 0.021244103934001436
use@@ 0.011557604103395822
uth 0.011828030816053027
valu@@ 0.02957445671088647
wel@@ 0.008735726722505457
zed 0.011470738104820825
µ@@ 0.10332567842673661
ь 0.4263563136505377
ك 1
ਰ 1
ર@@ 1
ି@@ 1
க 1
ಗ@@ 1
ಸ@@ 1
Ara@@ 0.01740828539640047
Battle 0.01137609031989007
Bon@@ 0.01042252200937047
Cant@@ 0.03228827632615768
Chief 0.012573799915474866
Country 0.019747703744402368
Cra@@ 0.010972291130162662
Doc@@ 0.03101481466159503
Fox 0.020697686647276427
God@@ 0.023766202168191822
Histor@@ 0.009048599908073033
Labor@@ 0.02994547588257696
Line 0.011326270450842816
Mis@@ 0.022702251442043374
Mount 0.013878260436159714
Nik@@ 0.021335122276376784
Order 0.01385925478030787
Part@@ 0.009618437356829367
Political 0.026739366345235
Pow@@ 0.01545489569319904
Rud@@ 0.021024856294397137
So 0.004575616442280881
Spi@@ 0.02522390377495348
St. 0.0027432344231095767
Sus@@ 0.014000131362641088
Tag@@ 0.024429700255590964
Territ@@ 0.015162932970833867
Valley 0.011135006890321025
Writ@@ 0.025796983712209988
acts 0.01705496659109545
ado 0.015615603383554994
again 0.004698550343869009
anch@@ 0.019493022697870423
anic 0.024411765499241816
architecture 0.024527522026898917
become 0.00526072829262014
ced 0.012093634542280391
character@@ 0.013177433425909801
emat@@ 0.0216084463456434
emor@@ 0.03412993900810421
ender 0.003561512088182733
etry 0.07017370637180305
fare 0.021759949895790474
fer 0.0038635956583884523
fish 0.01519758318329007
foreign 0.01540477723595438
graph@@ 0.02894741748977375
hip 0.01237722982214563
ias 0.013551038250874467
ight@@ 0.02074564920100452
kam 0.0024425085944644242
living 0.0073275257833932735
methods 0.024100868092283154
mission 0.010066000001525285
named 0.0030399930001471986
ograph@@ 0.009706275135952241
orith@@ 0.03289981399791812
played 0.0021256409266809497
rel 0.02750723044614402
rul@@ 0.018244723627157136
secondary 0.020109389549483433
similar 0.006980542331242187
society 0.015100959130353619
stry 0.03878789935598579
tax@@ 0.018627255444563916
thir@@ 0.01789407933850482
tz 0.01787346878870235
uma 0.03372445436616498
usi@@ 0.009737541166134149
wind@@ 0.014064421996088865
words 0.015138279398755897
ے 1
യ@@ 1
က@@ 1
Africa 0.008318731857976994
Beg@@ 0.007155484743259723
Bern@@ 0.010847984240801845
Bol@@ 0.012338619322716507
Christian 0.0056641458105335
Communic@@ 0.029031112798630073
Dep@@ 0.011137299472464343
Dru@@ 0.026927308676869995
Eng@@ 0.014868056584332953
Ess@@ 0.022490803364752534
Europe 0.006806462997075778
Fal@@ 0.010438966814478293
February 0.00300873801138583
Film 0.002864316755824977
Hans 0.006804412981113765
Home 0.016479693617254303
Hospital 0.013970695677381685
Korean 0.02046748684534691
Mary 0.008239245798648404
Museum 0.005078226033962849
Navy 0.00927498644383526
Oper@@ 0.010026634111438809
Prof@@ 0.00857089114909288
Sym@@ 0.026613278336546028
Ton@@ 0.010478183748385475
Video 0.02278798868256397
Wol@@ 0.00950282324383525
across 0.006954384036167556
adap@@ 0.011545976378542403
animal 0.029192417599035948
anta 0.05314517050080904
aul@@ 0.02094762353258593
bas@@ 0.014493207582687913
bo 0.021074638040945823
changes 0.011578521924914884
chen 0.00189442891114787
cient 0.05715156078900562
cut 0.015108681856412709
density 0.020092504428934472
distribution 0.01832131374575778
ective 0.02714081208540836
electronic 0.03282768378362965
ellite 0.031553089357393746
eness 0.024157412296721473
ensive 0.01113345751029663
fa@@ 0.021716823973751725
fli@@ 0.010467988128947234
func@@ 0.025395696919844786
help 0.008077229881978521
however 0.005551544902296085
iles 0.026761445131359776
interest 0.010552084063472172
invol@@ 0.011121400009793208
itz 0.0033925505653588095
jaz@@ 0.21912717730255987
kind 0.018537795995646117
lan 0.022142518847293857
liter@@ 0.012104592788198629
mid 0.008604186304564086
mosph@@ 0.02263048380235793
nal 0.050473663940781774
olic 0.03860562539284675
omin@@ 0.02721601250438974
other@@ 0.02680271915991686
press 0.011517722141164375
prim@@ 0.027450804349810353
print 0.029389894601136883
race 0.006493636854328396
racy 0.0225334250746997
relative 0.030308575234630965
runs 0.010343854209923503
sab@@ 0.030296381896062652
sal 0.023214151232936624
signal 0.026578837623404614
simple 0.02449529651945562
sometimes 0.010831860756529664
spor@@ 0.021912717730255986
standing 0.00947572014927184
taken 0.006933680747596576
territory 0.018652585848657463
transfer 0.023365406949936832
tz@@ 0.005049622704491265
whole 0.01611873000848596
yo 0.028856829709916876
zer 0.006657044517751694
ér@@ 0.027484199488922046
í 0.014382487891452713
ú@@ 0.014992376388541988
ı@@ 0.01639359406421444
ע@@ 0.5792823584588186
۝ 1
ਕ@@ 1
ਗ@@ 1
ਲ@@ 1
ತ@@ 1
ර@@ 1
ྱ@@ 1
ရ@@ 1
⁄ 1
Bay@@ 0.007804840057095291
Cru@@ 0.017249925634851
Dre@@ 0.006904101842444541
Entertainment 0.020566471607454725
Es 0.0015603342941169478
Forest 0.01950619317626282
Juan 0.019020147209811402
Lan@@ 0.005486040506914275
Land@@ 0.0023183421050902444
Lun@@ 0.03015057191888353
Major 0.011764892087568216
Marath@@ 0.027046179699087375
Party 0.004705400909888907
Ple@@ 0.029834407675692183
Priv@@ 0.015152445397884058
Rad@@ 0.007261561721058296
Sher@@ 0.015033904444318399
Sho@@ 0.02674243842316989
Sou@@ 0.010036377843256722
Tul@@ 0.03143099792863812
activity 0.01573468760774314
add@@ 0.01449285892846042
appar@@ 0.01642480548527573
ater@@ 0.018757946362069334
ator@@ 0.014117415618160056
bat 0.02268082157186124
bet 0.020790932481978525
bles 0.01195623290741733
capital 0.010390535740969821
cep@@ 0.032033053891301025
cham@@ 0.02851412931961574
ched 0.008630399289418835
cher 0.0047048956373645975
composed 0.013077486602352419
concept 0.018227311387187597
degree 0.008281320615506453
direction 0.01788943782154236
dis 0.024906099995748946
display 0.02623641383983326
economy 0.023038600858408635
eh 0.027449449387621568
elling 0.011352163724873444
ells 0.010922573443815512
elt 0.003991365087591009
eman 0.012076849810507592
fall 0.0047264148683438915
flex@@ 0.032648890545843176
further 0.006113069050495514
gar 0.014219124785007317
ident@@ 0.03607344896469747
increase 0.013379385340332705
instit@@ 0.010987764849162791
ital@@ 0.01378691350299608
kin 0.015193429194993252
legal 0.009002056852506893
los@@ 0.008020283930536618
match 0.005628251350390703
member 0.0029186913702901416
mobile 0.029413809823121338
names 0.012866274479509469
neg@@ 0.014812309368668541
oni 0.024628898882811435
orders 0.020069078010499057
pers@@ 0.017262158660673526
personal 0.011073294357188016
pit@@ 0.01359188829647647
plus 0.024829882756727612
real@@ 0.011703924327524722
received 0.0031328965287029005
rights 0.00846009096592422
risk 0.021203450983605085
ror@@ 0.01494365999744937
running 0.010741557026850097
scre@@ 0.01527287057742664
services 0.006849917314821079
shows 0.008806643172640606
sou@@ 0.012283378500847084
sound 0.014177715218910675
thought 0.012293028200584014
town 0.0028480025943502215
vention 0.013889181231383234
vers 0.0070945968315880605
volume 0.023701618042043463
writing 0.00868789877707042
és 0.022393341057202056
š@@ 0.007142477033209693
т 0.3764159030285356
ج 1
ަ@@ 1
খ@@ 1
ன@@ 1
ద@@ 1
ಲ@@ 1
් 1
ད@@ 1
国@@ 0.6206063896957726
Administration 0.02291136687102194
Am 0.0013981684651576272
Band@@ 0.016350384539774748
Bap@@ 0.020552778551837715
Bis@@ 0.017410007491901247
Congress 0.011488550388473786
Da 0.0051070360796582025
Diam@@ 0.028525267651381213
Don@@ 0.007092944464632741
Exper@@ 0.016549281918767644
Federation 0.019244467838799077
Fri@@ 0.007740179850697554
Hand@@ 0.0046484140381609475
Hir@@ 0.014085616999155523
Little 0.013634949651543608
Mau@@ 0.0104530360698555
No. 0.009280160537245888
Press 0.018629563845354306
Since 0.007445551197245167
Times 0.010464375096212033
Up@@ 0.030326949317844562
Van 0.014446122886547971
Vic@@ 0.01877791464575086
Village 0.025038696475492714
ament 0.018048132607047896
ameter 0.024646149265622603
amin 0.04755276525347888
ample 0.03709631031747531
announced 0.004243202001884922
ased 0.008918641424032453
aste 0.020059356458060135
attack 0.0086620134413402
big 0.014993146685007152
bus@@ 0.012660501779292264
ci 0.027487111944861572
controlled 0.023667669379533424
descri@@ 0.01195112013325128
developed 0.006010251517268733
ears 0.018376308886161246
ei 0.006094477538588755
entation 0.01882455129734577
evidence 0.01225051900982892
female 0.008837309653394805
fic 0.05734341835349263
fri@@ 0.015132120593673883
hatt@@ 0.03047938982138105
identif@@ 0.013355231975726904
iers 0.011087612524229467
internal 0.02658166224026506
itors 0.01333760629250102
itting 0.016042632952322642
largest 0.0071618800434068855
lear@@ 0.011271336307094175
little 0.01006965227397401
night 0.008400411309621447
occ@@ 0.024394021991526006
optim@@ 0.02521121303472039
orer 0.030633370572499458
oud 0.023533820284572658
part@@ 0.006117490814201436
pay@@ 0.021197362297870177
perc@@ 0.02090916170702229
performance 0.007494720179619177
phil@@ 0.02022952924661865
positi@@ 0.009798605259997057
pun@@ 0.012425526424255049
radio 0.008149763500874629
significant 0.009621361470952772
sle@@ 0.019145511170615807
squ@@ 0.01278790017632419
step 0.0279173890195049
struction 0.012728842519419196
thing 0.01192962289636179
today 0.012052245517989451
tory 0.018809535702054084
try 0.01140275044736064
tun@@ 0.020318620519509452
tural 0.01827346231498848
uh@@ 0.009371544260632175
upon 0.008102469794459445
urg@@ 0.016695090570034318
usually 0.007717662145033501
working 0.005735736637557802
ws 0.007199782587314728
zon 0.028847083230430372
ão 0.02090916170702229
И@@ 0.44868497109149313
ַ@@ 0.9227303970707662
ם 0.5878891726489647
ॲ@@ 1
অ@@ 1
ব 1
ਪ@@ 1
ର@@ 1
ல 1
డ@@ 1
ಪ@@ 1
ು 1
† 0.002558597554176477
Bod@@ 0.021316235297347663
Conserv@@ 0.011963066582592307
Dri@@ 0.024461877928769027
Emp@@ 0.011243946517570609
Fol@@ 0.009261032921041834
Gener@@ 0.012699061837008887
Go 0.029016943640851195
Gun@@ 0.022328976635132065
Hist@@ 0.04509923739348808
Ide@@ 0.01788573779412564
Kl@@ 0.0028599148785744388
Lau@@ 0.008255896092372261
Law@@ 0.02097231972735063
Mik@@ 0.011594982616719061
Offic@@ 0.0415752888846042
Pir@@ 0.01960873850390918
Rang@@ 0.01301945655086813
Rock 0.009727286496634685
Shak@@ 0.023346814492434323
Sid@@ 0.02761623330508871
Tom@@ 0.011180289988565309
Wa@@ 0.018688073438575502
What 0.022490355572705293
ably 0.013255578100551488
acqu@@ 0.015127195042346964
ader 0.007617458908461714
adv@@ 0.011030178683670502
aff 0.023820682798648195
aid 0.014544432199557023
airs 0.01144380270184124
altern@@ 0.018967669661058804
aw 0.0141740460379534
better 0.01118394288226665
birds 0.021951894729579386
bis 0.00037165396421736746
bury 0.009661849136281918
bution 0.017362577317604592
central 0.0078059339093894085
clin@@ 0.02171974694267605
ct 0.030372955795614425
curr@@ 0.034804597032696956
dale 0.020405556591151987
down@@ 0.011724720391045542
election 0.0035283534692220233
established 0.0040782749620719766
follow 0.021542052348431377
fru@@ 0.012713211209529233
ghts 0.014358356200359672
give 0.01171535720095515
greater 0.019467481240753055
iment 0.026893011272743846
inking 0.024397948098116507
instead 0.008859925244378791
interpre@@ 0.012828352722669878
iter 0.0132205939549369
itions 0.007846791743330968
jur@@ 0.012074187365664006
larger 0.012257948498355401
laws 0.018023863720047807
los 0.006448817102799069
loss 0.007374575478992629
lot 0.014202470582251901
love 0.010830095290547603
lower 0.009244359143446224
materials 0.019317337009964707
members 0.003261635520493334
oe 0.021452050040729552
og 0.024894779041205423
ois 0.02150821312073984
olf 0.013546726936873869
operations 0.009988907499146186
ores 0.01227626581529855
pa@@ 0.01648859401813943
seen 0.006867353030726744
sent@@ 0.013758167677515054
ser 0.014142812773030212
seven 0.006979370207290744
stan 0.02878513343937558
status 0.0104122649982228
tery 0.016655739768870713
ured 0.0140672552801332
vor@@ 0.0010446690085958532
wise 0.019199955790403362
writ@@ 0.02134281690636441
yet 0.015020984940389434
¾ 0.7257311911305468
ã@@ 0.16724912629474328
Д@@ 0.33395435299178006
Х@@ 0.9733740620376528
к 0.3700575262881887
м 0.5212739266242252
ш@@ 0.3383557283195136
ু 1
ବ@@ 1
ந@@ 1
ோ@@ 1
ತ 1
മ 1
Alb@@ 0.007283848657358229
Alexander 0.006879989702797008
Bot@@ 0.007945248233296513
Bureau 0.022071802429528987
Camp@@ 0.008567181447036044
Cos@@ 0.02153784582920517
Dun@@ 0.009050274096440408
Ey@@ 0.02838659749122294
Festival 0.00613162428900254
Form@@ 0.011885528188075506
Frederick 0.021752587142939987
Gaz@@ 0.027111274457683087
Greek 0.010189687069062476
Hay@@ 0.01347924929415529
Hil@@ 0.008113107876818
Kel@@ 0.018485648310392296
Light 0.021669489505960843
Maur@@ 0.01319262827122156
Mess@@ 0.011631370487645044
Mit@@ 0.003985543478813451
Modern 0.02278093664413233
More 0.020503548781742566
Naval 0.022340031827794895
Organisation 0.012485746987838076
Rab@@ 0.014229921362787648
Roman 0.0053265329555875094
Russian 0.006904154362693464
Top@@ 0.017920016504523264
Zh@@ 0.018573848147966438
ading 0.012052929993541359
alt 0.004947810966794927
although 0.00595506352480918
applied 0.018955113887112206
arity 0.018958734038733122
arly 0.01464993084811196
award 0.010650494225289055
bad@@ 0.017608502248657495
ball@@ 0.00724134160752866
began 0.0023416390028143334
ben@@ 0.0028320594390199173
bes@@ 0.003928136260013716
bird 0.028852763094552137
building 0.0031076097305181532
came 0.004205466391018942
compl@@ 0.012717690273115959
complete 0.010201205572583149
death 0.003488409728069391
dient 0.009767101040665778
diti@@ 0.02355949482064949
ditional 0.03327788515816514
elta 0.02583084346260906
emot@@ 0.02094481093507894
eo 0.014800645806889313
eu@@ 0.008411823695178936
famous 0.011173159032788184
finals 0.012247739842912601
fr@@ 0.01408255517474913
gave 0.006499569922530388
iat@@ 0.024241253095679274
ined 0.011884816692823302
inus 0.027605097727143108
located 0.002388286432576035
lost 0.0051795116968932
medical 0.011189531807113412
mov@@ 0.012093309548249574
movement 0.00884543830936125
nat@@ 0.026645532526320393
never 0.006508945736463617
official 0.006632896660885115
once 0.006521560386742872
oon 0.013645076484784415
oured 0.02251484042340817
ove 0.020543859980713293
own@@ 0.011901916123350714
perf@@ 0.018608666496730084
philosophy 0.028109282578736128
pil@@ 0.014880517377725474
pose 0.025803985294205
prob@@ 0.02124059728828643
produc@@ 0.010356051476376468
read 0.01918035579689047
relationship 0.011461486136336062
ronom@@ 0.025568044153717096
security 0.014005069332224411
shr@@ 0.028632227120509553
spi@@ 0.015890496466593025
steel 0.025551591100851125
swit@@ 0.0201089702069901
tig@@ 0.005572154444389931
tly 0.01002655738869821
together 0.005188038644653842
ty@@ 0.016587506295731747
ugh@@ 0.019653124416314914
ums 0.002675649423237062
various 0.004567612912474423
yer 0.0064432500195895645
Ü@@ 0.020848037682832433
Н@@ 0.304036543420541
ش 1
স 1
ಯ@@ 1
ത 1
ེ@@ 1
ྲ@@ 1
186@@ 0.07269237717758126
Area 0.0169382167197386
Arts 0.006822429391653265
Ball@@ 0.011006534142012045
Billboard 0.01567758228652014
Dub@@ 0.022367537761643148
Ear@@ 0.023589687252926626
Et@@ 0.010135881906582158
Fa@@ 0.019996849428049423
Falls 0.026226542429509066
Gau@@ 0.014885059684522578
Gold@@ 0.007922375542126044
Hin@@ 0.00522557584214164
Jos@@ 0.014443173494370234
Jud@@ 0.009199491223174245
Main 0.009115931073677086
Max 0.009309397242352569
Neg@@ 0.020574197554715228
Now 0.026597724242719823
Rak@@ 0.023285932776637725
Rav@@ 0.018138701610265116
Rub@@ 0.02065177748516287
Street 0.004229415498031503
Tax@@ 0.021401116290865444
Termin@@ 0.02642539269606862
Test@@ 0.014335162923817063
Washington 0.0048455459711143015
Zo@@ 0.02770083795047424
abor@@ 0.011064984912103542
anal@@ 0.019001764335575117
anese 0.028786574353098324
asing 0.01662674981501273
ask 0.013316415325966084
asy 0.012941520295522669
ayed 0.016238017671942547
birth 0.01670790539678216
blue 0.01803290673727956
care 0.010091592451554712
compil@@ 0.016706449243270156
content 0.016579294120159294
deep 0.018340011348764042
dens@@ 0.01938806499618507
died 0.0029057997607519065
digital 0.015857858919364805
din@@ 0.00944377764396895
door 0.01286163436777253
een 0.01622564741978007
eil 0.004880459266677235
err@@ 0.01567886460144624
esa 0.026918943774369018
ety 0.018107859306374624
exec@@ 0.013291485135021618
expansion 0.020194879753190238
financial 0.01191433890342978
forest 0.017654245590097786
growth 0.013510699084950787
harmon@@ 0.01676929390405754
head@@ 0.015304574739902734
hil@@ 0.01717958403094477
hun@@ 0.028538007833449723
iron 0.022795790060326053
iser 0.014910531939738781
issues 0.008916219294724487
iter@@ 0.010893941726374276
ken 0.001496851514245301
levels 0.013404881022187535
mark 0.007703954610452607
middle 0.012229794476029204
minim@@ 0.014279633389249239
modi@@ 0.014319100516716348
office 0.0055923738546921195
ogs 0.016003489615735663
represent@@ 0.01570841584997802
sides 0.016987752447472682
sit 0.015594679353830276
strong 0.007980756843219191
studies 0.009137222871313301
sub 0.026858595855020564
substit@@ 0.023636226709899105
teen 0.009354372370548591
termin@@ 0.009973454662709769
ude 0.020901733575104324
ways 0.006682346741172759
wei@@ 0.003650608440786946
write 0.020271763813164315
xim@@ 0.03494800339421728
zu@@ 0.0012337473844533234
¿ 1
ç 0.13302553686140303
Đ@@ 0.055935161545748985
ɪ 1
ֹ@@ 1
כ@@ 0.7729427363600071
এ@@ 1
ਵ@@ 1
ੋ@@ 1
ે 1
ந 1
ూ@@ 1
ె@@ 1
ย@@ 1
ད 1
≈ 0.37149185778542976
ン@@ 0.7429837155708595
本@@ 0.8519546605212522
Asian 0.011570812793799705
Associ@@ 0.02156869712729875
Australian 0.004992942772506152
Awards 0.00633373541601392
Beach 0.014821885524893774
Cle@@ 0.023752728653424603
Club 0.004001899464828211
Conference 0.010083668887728454
Dak@@ 0.022023559440122756
Differ@@ 0.02325078419886167
Early 0.005200712801219691
Family 0.012699672578560651
Fran@@ 0.006491667288788026
Germany 0.005453421872870638
GmbH 0.010062808774617576
HL 0.021127412776425908
Hen@@ 0.007121700419223666
High@@ 0.015471979106131269
Instit@@ 0.009542784428546737
It@@ 0.020074254385420317
Jacques 0.024134186497055787
Japanese 0.006029610333407824
Later 0.008217103106510347
Les@@ 0.009459761227274835
Ok@@ 0.00973938217930082
Om@@ 0.01938784711358824
Orig@@ 0.04262018316369616
Pas@@ 0.014333416127555076
Pav@@ 0.026346028275506025
Pil@@ 0.007613944654650504
Post@@ 0.010927799845164073
Real 0.02124396441569363
Rod@@ 0.010877639874121712
Sac@@ 0.021636864612074244
Shel@@ 0.027400494275266866
Smith 0.006499656611728621
Southern 0.009278372371295565
Sult@@ 0.020606882316716865
Training 0.020517675033960514
Vil@@ 0.01808470153418944
Whit@@ 0.011947756084348152
ador 0.01805290891502591
ady 0.020995426440362366
ames 0.01204900165445214
arran@@ 0.01690386231192961
aster 0.008924906300079681
bad 0.01712467429877249
billion 0.017304225274382162
bun@@ 0.020372945484509013
celeb@@ 0.009230187475329586
charged 0.02390942108148367
clear 0.01319746782671357
coh@@ 0.018781115055979503
college 0.007250479892561005
consci@@ 0.0269216041918075
court 0.006565451956416504
entr@@ 0.019475685847745262
enty 0.04567426102815672
esp@@ 0.019240526114390574
especially 0.008318051227655039
etc 0.022633002862856653
ett 0.0039095544496816894
gate 0.018597820140954853
gin 0.012223497842940767
glass 0.020738666485016297
gold 0.009042793130519557
greg@@ 0.015878681761098724
hier@@ 0.008426501384981322
ices 0.0150880527614848
incident 0.023183711825028253
iness 0.032594557288123834
intelligence 0.02695300880445469
invest@@ 0.0098117593492728
ished 0.005539052901649644
isher 0.01747766020999908
ishes 0.013663788762636773
isol@@ 0.024197373266258707
ister 0.010669191017659467
itself 0.008797893116656366
least 0.007267012674199963
letter 0.013516909278314462
limited 0.009630789057518381
lit 0.023619184050721987
mand@@ 0.014556917182308258
mary 0.01990563583684582
mess@@ 0.009027777014942626
met 0.00585597130939174
mother 0.005513937725768883
oa 0.019172672376408077
patri@@ 0.024046277400930176
phy 0.019290725775511403
raft 0.010361776690450712
rand@@ 0.026781184349601604
reading 0.02458682287589123
regular 0.007913169843783992
relations 0.014569538455186432
rock 0.007017605709223625
schol@@ 0.009331300640161052
sector 0.020710782563691906
seg@@ 0.014978019154116383
selection 0.02308815068460533
semi 0.01486838275265044
sets 0.016823858594789323
sey 0.012346786078481749
sign@@ 0.006099044259773328
statist@@ 0.01473915432429234
sters 0.007872055465310262
sth@@ 0.011849716929351257
sting 0.009475278571916664
sz@@ 0.01533336660148903
tain 0.01298242269847944
though 0.005935512631846068
ties 0.0057324774191642195
training 0.006489616065054603
turn 0.010776175268521558
wind 0.020022068282165323
¥ 0.38832717306922326
º@@ 1
Ð 1
én@@ 0.025148807398768742
ū 0.027091269878491905
ι 0.3045201554875622
ы 0.43698282359562707
ऴ@@ 1
ॐ@@ 1
ড 1
ੀ@@ 1
ட 1
ற@@ 1
ದ 1
ೆ 1
ೆ@@ 1
ೇ@@ 1
േ@@ 1
ม@@ 1
མ 1
Att@@ 0.014975405531265253
Ax@@ 0.025920732509774107
Back@@ 0.020377523771564827
Bour@@ 0.01689263264160755
Bran@@ 0.011368568061864901
Chr@@ 0.025098374244870103
Convention 0.026440533295397917
Den@@ 0.006187779675471695
Dol@@ 0.01130000445306112
Dou@@ 0.010518091954418175
Foreign 0.01984366445313476
François 0.024210782119779485
Fund 0.025778084018047615
Gem@@ 0.008088229660772425
Hall 0.004894483189282007
Juli@@ 0.008122925667166466
Jun@@ 0.012491064571552194
Kath@@ 0.007118483109162918
Lav@@ 0.024043991644552044
Lei@@ 0.00611865079043755
Li 0.022097786485986193
Liv@@ 0.014464299540437084
Michael 0.0038415381492310084
Muhammad 0.02637002520661019
Nan@@ 0.024243757851350963
Parti@@ 0.01075969716161632
Patri@@ 0.009967949271692825
Pierre 0.013654316519225128
Pon@@ 0.015765958383048607
Put@@ 0.02468418667932586
Rock@@ 0.01002634316141603
Rol@@ 0.010904715441072032
Salv@@ 0.021848247225312235
Sor@@ 0.010187012541900005
Stand@@ 0.006941374649792099
Stra@@ 0.006786551400969146
Upper 0.02592450774025907
Ze@@ 0.013612547426171519
account 0.015253892376777682
aft 0.01399352752709267
ager 0.0059062836428516036
amed 0.014380164012329841
ann 0.006305489749711955
astro@@ 0.021097270373902903
ately 0.008880789809141285
available 0.005893572284769842
beau@@ 0.01874646341702146
benef@@ 0.012879715639986886
bis@@ 0.0253449622874297
break 0.010799518877843634
bute 0.0162882201816086
cancer 0.01956663407108044
capac@@ 0.0993290570003453
classi@@ 0.00805055043621071
composition 0.022114258932118123
core 0.014646397609200919
correspon@@ 0.019417221571355815
divided 0.011691144180270526
dre@@ 0.003693970658378342
dé@@ 0.026606527674830908
earning 0.023467062642665626
eck@@ 0.005362506255674955
ects 0.014654838641908346
edge 0.019135419280221326
eller 0.004418679595477467
enne 0.013934372173525816
eye 0.023786939749381102
factors 0.024436802600853756
fel@@ 0.004112985422848598
figur@@ 0.02261723890020569
ians 0.008417955551885493
ible 0.020765010516171113
icide 0.023411504688230802
includes 0.006361603650629692
inj@@ 0.01564402093027059
injury 0.016649300359612644
iss 0.009321201829944427
jap@@ 0.019848089891237597
jud@@ 0.014283234644889967
kins 0.013042988945894247
knowledge 0.015532082909652599
lion 0.019515148574127703
m. 0.012919915086348172
move 0.00954462277573161
oto 0.015617940698834674
outside 0.008081619529835132
path 0.02572220666829751
placed 0.0064055588795386064
problems 0.012044773998147162
ques 0.02351666932813037
reference 0.018831746735571177
ren 0.005344954361438315
rey 0.013325173689520796
rid 0.021794743497565664
rob@@ 0.012989686210655972
roman@@ 0.010364368821743263
sav@@ 0.014920173524276511
saw 0.0061693355796693045
say 0.013940920280750217
scientific 0.017139881573867963
set@@ 0.03523310968816682
sign 0.013498989090294157
stab@@ 0.007910304423812051
succ@@ 0.012875057514981466
tex@@ 0.01664151740319921
themselves 0.011026989849127665
too 0.008419548277972602
treatment 0.013531828352183271
union 0.010053525565920292
utes 0.011393309232837405
whi@@ 0.04623316107652436
with@@ 0.011019480600793585
Κ@@ 0.35886627045286046
Л@@ 0.3654982959848435
Т@@ 0.2857105459785213
ա@@ 0.2713379118058213
ٹ@@ 1
ই@@ 1
ঙ 1
ੁ@@ 1
્ 1
ை@@ 1
స@@ 1
ക 1
ട@@ 1
ก@@ 1
น@@ 0.8278961402075292
ิ@@ 1
เ@@ 0.8768358135202896
ག 1
ི@@ 1
19th 0.00987318176569295
Abd@@ 0.024269938444170063
Ale@@ 0.014175219969213788
Altern@@ 0.017077589893063988
Bes@@ 0.005277570333280521
Bill 0.009957621940207545
Cann@@ 0.020551345570159377
Championships 0.00729764234461635
Design 0.01280979012860469
Dim@@ 0.018289335959423732
Dist@@ 0.01272218879865363
Dynam@@ 0.024276823533090394
Enter@@ 0.026704884679089918
Friedrich 0.0037928333719288044
Game 0.012860805974473045
Hard@@ 0.02440142656234492
Harry 0.013188842252314655
Hung@@ 0.032402803087521255
Japan 0.004008422078511577
Mart@@ 0.008119916780922635
Mission 0.01613876529073902
Mr@@ 0.016791092505473098
Muslim 0.01810361814134623
Nad@@ 0.023820682798648195
Nah@@ 0.017358175041408446
Northern 0.008028125423720028
Radio 0.0070914276324129805
Rich@@ 0.005690448046955723
Stan@@ 0.012661015380107063
Sund@@ 0.02977067418825662
Supp@@ 0.019046472947728387
Three 0.011586217567579696
While 0.004911375284328721
achie@@ 0.012098940047242138
acquired 0.010268890976677703
agog@@ 0.03480813624329618
aine 0.014552470530421503
army 0.008353748824106173
associated 0.008952380265105517
aus 0.0002670450967427315
ball 0.005212950959682239
ban 0.00899661511292511
beat 0.01718044628671826
bir@@ 0.013613713483000897
blo@@ 0.024931042375569888
bom@@ 0.010957910615806856
circum@@ 0.02410246527366389
civil 0.010919459353597505
commonly 0.012798295513967493
conflict 0.017660881839674677
cons@@ 0.007008091307357599
deci@@ 0.014730321534408062
eer 0.017396991858943615
eig@@ 0.0038125190659424233
eist@@ 0.011775946464035179
emer@@ 0.011954432207046678
erous 0.02073308369573438
essor 0.010362775848164646
fic@@ 0.017080998593641445
fir@@ 0.007382315644767395
freedom 0.025003886911364105
generally 0.00841991469022912
global 0.01802734420774039
greatest 0.023678971487034767
hard@@ 0.014874987476819685
himself 0.005255369113160171
host 0.01035901258372396
iew 0.026514578761934516
imag@@ 0.025499345337945067
incre@@ 0.015025160732884495
lang 0.0046617531706784135
lets 0.019282515311884553
loss@@ 0.010273205636751938
money 0.008725102258782997
ont 0.0107554581730841
opposite 0.02412624836598355
ound 0.04202101790038971
program 0.004737891869900545
publ@@ 0.009802497474701447
rating 0.014517907024199448
rie 0.007691515634922132
rules 0.015088742476266181
sac@@ 0.01942476516947989
season 0.0010753228194259174
sel 0.00423139848467878
special 0.006527023335683292
standards 0.01989903568286098
symp@@ 0.016860566043570807
tradition 0.015250076263769693
vement 0.011032074636346995
video 0.0043319650183068995
wick@@ 0.021984792024185906
writer 0.005970127176932024
yon 0.023900517512678018
zen 0.002665165621917333
÷ 1
Α@@ 0.2760509772714311
ή@@ 0.4433979427675836
ζ 1
я@@ 0.2686838397304353
ک 1
۔ 1
উ@@ 1
ਬ@@ 1
ી 1
ે@@ 1
క 1
ಕ 1
ท@@ 1
ว@@ 1
ั@@ 1
འ@@ 1
ལ 1
ྫ@@ 1
တ@@ 1
ḍ@@ 0.3297718803627886
國@@ 1
Alexand@@ 0.012640832564391122
Another 0.010623661041766184
Art@@ 0.006103474802078596
Assembly 0.008831731975486765
Australia 0.0037845339553600325
Bau@@ 0.0014233844885947328
Black@@ 0.012091959204589033
Broad@@ 0.017533405364630862
Canadian 0.005537953475747609
Cli@@ 0.019453651630589132
Coast 0.011342367918815119
Down 0.02393031483716222
Egyp@@ 0.025324528617749045
Empire 0.008979917017650751
Esp@@ 0.020397956756294945
Express 0.019120859033161387
Gold 0.00907113905327421
Good 0.02090401293536333
Green@@ 0.014889491769094316
Gru@@ 0.012826349857295534
Head 0.01703530758651693
Heritage 0.02061808779921644
Id@@ 0.01802584110498692
Islands 0.012037036019923501
Lyn@@ 0.01515593964320227
Men 0.010494062826336834
Model 0.023771056376151012
Night 0.01439256671968779
Olympic 0.012332473292198137
Pacific 0.00801021556513045
Queen 0.00832981199857824
Roll@@ 0.007957070157003041
Run@@ 0.021192511501606576
Sau@@ 0.007152115164408471
Show 0.009635558390332852
Sign@@ 0.01393837306345061
Sound 0.01975063609471761
Strateg@@ 0.021828821797788733
Studio 0.015619882277018328
Third 0.01944214195621297
Wilhelm 0.004657582608270425
With 0.004490817549182928
agent 0.01653971629474087
alu@@ 0.023028106751500462
ander@@ 0.00646109090334077
aters 0.008916564914091051
aut 0.009801094110710796
author 0.008592487274968925
begin 0.017008855245544078
bot@@ 0.021889893641347694
burg 0.0019927900748569535
cases 0.00844324469023411
cau@@ 0.013536459191955494
characters 0.009113402943699361
claim 0.015868798693447535
climate 0.0159380678700122
closed 0.006629233071291337
contin@@ 0.018814329746015778
control@@ 0.01995694663815812
currently 0.0057874442293749835
dam 0.01119705204252118
dam@@ 0.012117821496567283
dependence 0.030688371623450842
derived 0.017853476222096685
dies 0.004264906986942396
directly 0.010690711280626963
diss@@ 0.01383159707651787
effects 0.012417287006647203
eit 0.004009995159661146
eline 0.017286222164329908
enes 0.014981812863313192
enough 0.011140114019388149
ept 0.014031216197434313
ester@@ 0.011803559028157743
eties 0.022051475194196188
eval 0.018440577067559572
fit 0.023620693167331196
forced 0.00768465187184677
fore 0.03230545451670385
fort@@ 0.005248707566827109
forward 0.012075962198438615
friend 0.008175218512884656
fuel 0.01945595520094207
gan 0.010209117787495699
gens 0.014145978620056461
gest 0.006502772061263933
gives 0.015504910981594395
gol@@ 0.008521187722848033
historical 0.010575113707405277
hn@@ 0.03538779704328145
hours 0.009505672066644825
human@@ 0.018298868657083838
ink 0.00963838456455422
iop@@ 0.020324782492819864
ises 0.006575377848245389
ives 0.010898483793576268
je 0.0037928333719288044
journ@@ 0.013742517704245215
keep@@ 0.012150080727054336
lang@@ 0.005620357859750831
leading 0.005603681377577702
lein 0.009015393233029126
meaning 0.010580561637707243
mid@@ 0.01034083590357831
mix@@ 0.02115431204737425
months 0.005408167659785912
next 0.003716815402252088
oned 0.008424197173500604
ords 0.016117867536978202
origin 0.017086682786185088
osaur@@ 0.022653459488757174
otes 0.02453053772349295
particular 0.009576589244737178
pass 0.011117500620607335
pec@@ 0.03943964034372439
player 0.0036570041993357473
positions 0.01010924393477855
pping 0.01331055911146758
produce 0.01165535515868311
project 0.005112818697783041
rang 0.013048407057810974
rar@@ 0.023164463791337346
rative 0.020086252038136406
religion 0.019257564659160314
ring@@ 0.016604905676802
road 0.003954405335065122
room 0.00691521640033484
seud@@ 0.03384254205395588
sible 0.052443517929127284
stock 0.009239992220895051
suff@@ 0.009744709191148556
sup@@ 0.02353610394957109
tronic 0.057249317655733725
tropical 0.017432948718509898
ues 0.012008883326411035
ugh 0.009145360217742168
unique 0.015461140648532587
unk 0.01613211012979438
urs 0.017246304363593555
uts 0.008358627546011892
versi@@ 0.010012525391344047
wards 0.007061134628559706
week 0.0071282230660284504
wer@@ 0.001967848873249366
young 0.005557810157019105
zing 0.021497519517461178
¸ 1
Á@@ 0.02231502671084555
ì@@ 0.15398832396621912
ł@@ 0.005481419238430552
̃ 1
О@@ 0.32795517299791577
д 0.5283136388165781
л 0.6271203880609
у 0.5317331445694362
ק@@ 0.5550862894322831
ُ 1
ণ 1
ূ@@ 1
ੱ@@ 1
ମ@@ 1
ெ@@ 1
ை 1
న 1
ා@@ 1
ි@@ 1
ེ 1
ា@@ 1
█ 1
Alfred 0.01115310082416945
August@@ 0.010089029117423227
Bla@@ 0.014424649820046197
Bridge 0.011409280301110377
Brit@@ 0.009494089685596882
Bus@@ 0.006159663475946653
Cher@@ 0.017709985090048848
Crit@@ 0.012736348575234514
Cup 0.0024787009434966436
Don 0.00938264077199525
Dro@@ 0.011958644902834686
Educ@@ 0.04664084047263753
Eff@@ 0.013199721471676109
Emer@@ 0.014939229358218623
Fab@@ 0.02054802002291848
Field 0.013389411346566694
Francis 0.011543949958623484
Fron@@ 0.014651482035509844
Get@@ 0.013323699224540894
Golden 0.012054775488870335
Heb@@ 0.015614783561644615
Indon@@ 0.012052007457759226
Instr@@ 0.011034301151760639
Jac@@ 0.011687906579247648
Karl 0.003886161149010916
Kit@@ 0.01824770859145026
Main@@ 0.016604394963157684
Mid@@ 0.009940623575481332
Mr. 0.012098307908999179
Nat@@ 0.0112591689263943
Ot@@ 0.01209551985217578
Oxford 0.011278524277317119
Pear@@ 0.01966768391651565
Phil@@ 0.008524224633803828
Plan 0.01615797613500506
Polit@@ 0.01127367920352433
Prince 0.00868262902870826
Prob@@ 0.021391044346640988
Roh@@ 0.014801605323897755
Square 0.017571641271691137
Stat@@ 0.009594167525933726
That 0.008455108061838816
Thom@@ 0.023763881291220087
Uni@@ 0.014633780430820103
academic 0.01302394354306239
accoun@@ 0.014213709824483146
anthrop@@ 0.020819711415526153
asses 0.01958207653719989
att 0.010086444009712658
auth@@ 0.010073538317166163
aver@@ 0.010049749644857308
bal 0.022970018590171306
band@@ 0.022280950535676285
capacity 0.011868506628146853
cker 0.007650720442914548
communication 0.02289986582833396
consum@@ 0.022372758942259777
cost 0.009714923336353917
created 0.003681109934205127
deg@@ 0.01708915535441983
dical 0.028253988414789936
ec 0.0219792682070944
edition 0.0063381828859487305
eins 0.011038942613265865
elled 0.00701003817271945
elli 0.011540565628527141
enna 0.027619624177446817
essions 0.015666050884053755
evi@@ 0.017229398997223363
formal 0.0144883582476651
gres@@ 0.008979212901210327
gun 0.011695719931339546
heart 0.01312490434572179
hei@@ 0.0043869132542730975
hold 0.009637622563081424
ime 0.007284731780505403
inclu@@ 0.036172634375287
inea 0.01969474389438703
intel@@ 0.015239980394466156
junction 0.019005368429164067
kes 0.007812039960092493
king@@ 0.021232399869960127
lav@@ 0.0158457761332016
lem 0.009282525345494565
lier 0.018186587830402435
low@@ 0.008444225743316582
moun@@ 0.008438342842209234
nation 0.010940764135326868
occur 0.019396338683866015
oss 0.010038217355324768
predic@@ 0.020645008186131415
respec@@ 0.01041467540416855
resulting 0.014076477510783508
rich 0.005593189735564944
role 0.003247323670020506
sexual 0.015825073109107968
ships 0.004226419299861077
sites 0.011525360667224732
spl@@ 0.008873456040328222
strateg@@ 0.008281674508790002
tain@@ 0.009373145867945968
titles 0.013286598382889571
tured 0.014579581244039288
ulp@@ 0.014437876163178463
v. 0.00673796385962704
voc@@ 0.009508996765240915
yellow 0.01785659757718579
¨ 1
č@@ 0.006583855052501434
ē 0.26597884701963564
ŋ@@ 0.7357919506337585
˚ 1
ζ@@ 0.8946561217933199
ל 0.5684457669156112
ঁ@@ 1
ન@@ 1
ா 1
ಡ@@ 1
ಶ@@ 1
ള@@ 1
ར 1
ྒ@@ 1
သ@@ 1
္ 1
ṇ@@ 0.20109767233157638
↓ 1
李@@ 0.6479813886239684
0.000 0.012054859388449881
Arg@@ 0.01563677462617243
Autom@@ 0.010475268688224565
Avi@@ 0.014947738507273997
Bell 0.01667737938204992
Building 0.015892520122326982
Carl 0.006296020951395904
Che@@ 0.012657653012798791
Commonwealth 0.016123906776500677
Cou@@ 0.014210153146456534
D.C. 0.015640022139075057
Din@@ 0.018626442394174228
Diplom@@ 0.01988295883819047
Eli@@ 0.017735917710703347
Es@@ 0.010587937659001252
Film@@ 0.0035050013543853485
Gol@@ 0.00895495648964224
Its 0.005608184882309086
Jah@@ 0.023040142756508
Jan 0.011936393501291236
Johann 0.0036468138789175018
Kra@@ 0.00932533051819038
Kul@@ 0.01751929896467289
Mann@@ 0.008000287538473006
Mé@@ 0.01609633570581306
Naz@@ 0.016291337284942434
Only 0.017702563845709073
Operation 0.011095728097781995
Original 0.020657442490645016
Over@@ 0.01166460758978414
Person@@ 0.007535568779671427
Port 0.010869121252745386
Programm@@ 0.015343664751354198
Pseud@@ 0.018612631388938806
Review 0.021044210311484252
Ris@@ 0.01510969233540257
Sig@@ 0.010320935599211458
Sv@@ 0.021375732784458246
Taylor 0.011114560785129719
Thor@@ 0.013970263723151174
Thus 0.019260027263336678
Up 0.016901965346121962
West@@ 0.0023953276694438884
Wis@@ 0.023823697121052326
Zu@@ 0.002194794940461548
activ@@ 0.009200013022985327
added 0.005528923798659845
additional 0.008271826296094728
aid@@ 0.01691145443513281
allow 0.008088363310203147
application 0.01674040382341812
ardo 0.01462408128937691
arib@@ 0.019289627715073362
ason 0.009812587999172116
aux 0.009868523994187708
belie@@ 0.005201996794780948
bot 0.007832210774794218
bow@@ 0.017383819621340352
card 0.014508564993670437
cast 0.006528256824554324
cket 0.016280771073321026
completed 0.005039766210449818
conf@@ 0.01229898850231037
contact 0.01748269450949423
corpor@@ 0.018376453538225087
dated 0.011488437314972755
defeat 0.011675458387542078
dem 0.0001391306799238201
despite 0.009793446465914091
discipl@@ 0.02064328580034167
duced 0.036960346797372465
ected 0.009924447364212758
ehic@@ 0.06979305523600222
eigen@@ 0.0038208329282653744
ened 0.005929195071226392
enko 0.017323834046387487
enter 0.009481486509240971
essel 0.01549201946094351
failure 0.01873068190514772
fast 0.0036625103518540185
fle@@ 0.007431827356128137
flo@@ 0.009306890761866948
follows 0.011416161085370486
foot@@ 0.01717762468057628
forc@@ 0.012040403965088561
fourth 0.005816986451386251
front 0.0047933997390055315
gain 0.018980896433433245
got 0.008611893944724846
iana 0.036726021262934117
ife 0.018619534330484955
irc@@ 0.03266393693326671
joint 0.015426960278530454
las 0.02218165142846728
lished 0.06830540281147066
listed 0.005287092821262078
look 0.014552020598965489
maximum 0.016184549022060263
meet 0.012388008981682252
mort@@ 0.019471675914582133
mouth 0.011629481368179508
movie 0.010014189707399788
mult@@ 0.01979931815423857
nov@@ 0.009504822239006236
oci@@ 0.03663668528321401
offic@@ 0.07523147512452188
onian 0.01810039817321149
ony@@ 0.017572443495425596
oods 0.009662758272874371
pass@@ 0.009888609625060258
plat@@ 0.006019239597126242
poli@@ 0.008794943836455054
proced@@ 0.021270076712228896
rab@@ 0.02242605914224134
rare 0.01894746675044569
red@@ 0.015233479639859696
required 0.007559016973615699
respon@@ 0.009964499715467602
rian 0.01274656509811212
scri@@ 0.02458191826330877
shown 0.00894060389405751
sig@@ 0.010783519238153705
special@@ 0.014258583091857693
spot 0.01858507073041619
stand 0.0013576114404118696
ste 0.0014281973998814
strength 0.02053352599854026
students 0.0037790343294264914
syst@@ 0.009172558660127455
tal 0.009646667085076078
therefore 0.012549026262230695
uan 0.014872461064411258
ument@@ 0.0102298046049917
uns 0.01189867381887287
unt 0.014879807666399212
uted 0.007693385768978537
vel 0.01552555542720264
vely 0.011163164334367981
vill@@ 0.01909399254554929
villages 0.014238363887246438
vo 0.020366925381919244
water@@ 0.016203702334512404
wife 0.004138981923089198
¢ 0.6723813089254144
É 0.1444040395007601
ë@@ 0.015406445703691983
ì 0.09773745178409657
ş@@ 0.017033862610189188
Σ@@ 0.33395435299178006
ֶ@@ 1
צ@@ 0.9472541710647346
ٱ@@ 1
জ 1
ਤ 1
ਲ 1
દ@@ 1
ལ@@ 1
ི 1
ခ@@ 1
ပ@@ 1
រ@@ 1
ṣ@@ 0.12519818221055096
ⴰ@@ 1
18th 0.014786315845208406
2. 0.0027823066450487948
Abra@@ 0.020594090955874705
Although 0.005131249516844932
Anth@@ 0.03226376772059276
Arab 0.017277652801701876
Ball 0.020372303948272823
Bed@@ 0.005108095539632664
Bru@@ 0.005399307055355891
Cab@@ 0.016568785174940797
Cambridge 0.012018671540123836
Channel 0.014680623809145442
Chin@@ 0.014339452320263445
Commer@@ 0.016799176088217026
Corn@@ 0.00936534095257386
Dan 0.017977660242961276
Dav@@ 0.018493355925258723
Democ@@ 0.012144564027957537
Dé@@ 0.04403287870228524
Eastern 0.008109162894859344
Est@@ 0.008689474098698175
Ever@@ 0.012032754349092845
Fire 0.01724656297540323
Fra@@ 0.006793335016914488
Front 0.012992982283141555
Gil@@ 0.008543849109345773
Gri@@ 0.010002598550265172
Her 0.004807629379446272
Ireland 0.005813244469004946
Isa@@ 0.018097601833202585
Islam 0.018844848468077248
Lewis 0.011490357174149722
Like 0.012900874817207584
Lok@@ 0.014139196396829397
Maria 0.004181957908050536
Mark 0.00522638319626877
Miami 0.016150005500220322
Not 0.016327921517656028
Ocean 0.01739261419827744
References 0.01735901339808758
Then 0.016635888563175345
UE@@ 0.10555605650731374
Under@@ 0.016799176088217026
Water@@ 0.015963507546409204
Works 0.016895915966971597
according 0.0071761679626116265
aces 0.019011815520095388
acks 0.009642343994833087
acted 0.012119992325321306
agen@@ 0.011042039090857244
agreement 0.010944530219470259
ague 0.019568170540759676
aining 0.013262670568538868
alities 0.011172470388790903
ape 0.0175991368543226
arms 0.011895362316975123
aro 0.01639308426031486
artic@@ 0.06962099223387958
articles 0.015003897825397758
cas@@ 0.01314744846483414
collection 0.0071465600717284545
colon@@ 0.008324205255223283
colum@@ 0.012935698125153978
companies 0.007285261425101921
compared 0.011415543033425546
compos@@ 0.0237592710234608
conditions 0.009287296444635744
construction 0.004418580353534786
continued 0.003262027748575348
correc@@ 0.017263130278933878
cover@@ 0.014812213987529499
cricket 0.018500495298283532
democ@@ 0.018996742727664023
details 0.019937227702532426
develop@@ 0.012242812651193164
dition@@ 0.035263024028197525
done 0.009004030122312353
dru@@ 0.009615901876995608
event@@ 0.012410855400808125
exclu@@ 0.010186873730812819
expressed 0.01637254856655977
fiel@@ 0.016578338210673584
figures 0.013851753440886532
find 0.007641102788358296
ford@@ 0.020920743446298216
heim 0.0029402079670114998
ille 0.006413031892361554
ining 0.013511968887496366
insi@@ 0.017817244883252113
intro@@ 0.01862030164006752
itz@@ 0.003383318404512774
kor@@ 0.005051380800497569
lad@@ 0.01453810789391863
lik@@ 0.007645572695328723
link 0.018438803252912826
meeting 0.008527126273010754
mont 0.007946020503120616
month 0.007238311799565065
moving 0.010692997319669863
need 0.008793647866105654
nis 0.0029441819533280356
oba 0.020291792373036178
oes 0.011447356394853198
park 0.004313581234449318
ped@@ 0.009961016348850642
pip@@ 0.019367822842915442
plem@@ 0.027166921572744012
practice 0.007318639226377587
pre 0.009918409724936966
press@@ 0.030485018864071525
prise 0.013815812892846563
provides 0.009487715235462373
quarter 0.012882378939333453
quest@@ 0.008350798615413645
rd 0.053089862984845394
recognition 0.016313099848287906
rements 0.01640430727555469
report 0.00829586549122685
response 0.008496888236581639
sk 0.006911891777065448
spread 0.012772507903603528
sty@@ 0.012575870273177163
subject 0.008939087792262719
sur 0.007971574658328878
swe@@ 0.013289642167032845
sych@@ 0.07716980620663516
thin 0.009888393215693054
thre@@ 0.009017018876251965
tru@@ 0.0064013245898286355
types 0.011340802158472928
ular@@ 0.021043230234625485
utionary 0.017174453346429495
ör@@ 0.0016559815354476811
ù 0.11293585935817857
ŋ 0.8660683672467548
ʊ 1
Π@@ 0.31321862519163685
ג@@ 0.7856139287593515
ח@@ 0.42534718628095064
॔ 1
ও@@ 1
ষ 1
જ@@ 1
କ@@ 1
ସ@@ 1
బ@@ 1
ಬ@@ 1
ಲ 1
ಹ@@ 1
ೀ@@ 1
അ@@ 1
സ@@ 1
ာ 1
ḥ@@ 0.10328114149638026
∞ 0.42284514400870976
国 1
Administ@@ 0.022187860108026224
Assi@@ 0.0074959643450470724
Batt@@ 0.011572116694272298
Beau@@ 0.011775136285399883
Champ@@ 0.01210086475710383
Cla@@ 0.014738566709002133
Distri@@ 0.012050808372349044
Ent@@ 0.0032536781694460773
Flor@@ 0.006022753792849029
Flu@@ 0.0067442264174283235
Four 0.012074187365664006
Generation 0.016843558214618012
Haw@@ 0.010010329341031571
Hei@@ 0.00318473436900495
Hot 0.013010384333583222
Hot@@ 0.014295394103845253
Hun@@ 0.00918441673776696
Inn@@ 0.0042390490627439575
Int@@ 0.020064666577759353
Islamic 0.01646480095317819
Jar@@ 0.013626720215627969
Johnson 0.007734791815988578
Jon@@ 0.010220294448505623
Kaz@@ 0.016203702334512404
King@@ 0.015578710288614156
Lang@@ 0.007581046715388396
Lou@@ 0.009311206033772855
Master 0.009385241258936857
Matthe@@ 0.015673223984275394
Maxim@@ 0.010537269872758952
Muse@@ 0.009056239481885695
Musi@@ 0.009031747013629935
NHL 0.013865446554595427
Nac@@ 0.019703739347622654
North@@ 0.011790345709689988
Off@@ 0.007967951857927714
Out 0.015370597746590687
Prize 0.01241353442671168
Ras@@ 0.017235811269716746
Revol@@ 0.013943104350980633
Rural 0.017408936392451346
Rus@@ 0.00986606749723518
Simon 0.009897447211697979
Soviet 0.006308573752609189
Squ@@ 0.01990134952421945
System@@ 0.014403669758744986
Theatre 0.00790310445752553
Thi@@ 0.014044649166748366
Top 0.006912074548267445
Youth 0.015417327409822072
abe 0.013240623220832592
aching 0.01051784334971807
acting 0.009586982546326133
almost 0.00591503735642949
ammad 0.04641399482258638
ancient 0.010305681523907107
anded 0.0076415495438458434
anne 0.007141359449571264
attri@@ 0.014238902321820904
avy 0.02000603225111482
awar@@ 0.021924945512670907
beginning 0.0063170142895792305
bud@@ 0.027983095182225595
career 0.0015232601458122956
casting 0.01124979744693368
chn@@ 0.006563190716452393
commun@@ 0.00775274813015287
competition 0.005297991205952245
consecutive 0.015678608121679816
create 0.007784041201059114
eck 0.007754504430346595
educ@@ 0.020338871765690707
eign 0.04278790147707182
eless 0.009965884323941323
elles 0.012210941293733152
embly 0.02226000401993657
ento 0.016600543735042415
exam@@ 0.012319712500146646
existence 0.016059263983888086
fan 0.019647192527856197
fort 0.0048507203998522635
fron@@ 0.008894457887919307
genus 0.006802528056768175
ges@@ 0.0018070884494533362
gia 0.0384502344079275
gir@@ 0.028336358594087303
hou 0.015550401445386693
iced 0.019284687989666174
ift 0.007611389445029175
ily 0.01101982170838067
individual 0.007139869881974752
inform@@ 0.01630403485670753
inian 0.021754255596858885
initi@@ 0.006597026486467349
introduced 0.005579059763940584
itable 0.012760604354765129
itted 0.012515656739180057
ival@@ 0.02151835372098536
jects 0.01491029998112053
ku@@ 0.01691012532130787
lau@@ 0.004590360893342827
liber@@ 0.008058933768489101
lined 0.011886560007520603
mad 0.027943119331965274
male 0.005916315288710618
marks 0.0159581916930804
matches 0.00698435445453121
mes 0.006337774704991197
might 0.009360219081667339
mine 0.011657836077192833
needs 0.015849205316197455
note 0.019446283869710243
nt 0.004993118106871484
older 0.005424988499014613
oration 0.012569658012175692
ources 0.02750528017810965
paper 0.010385412979871802
past 0.007568056860857276
piece 0.011131811766392668
players 0.004729578056187559
policy 0.008374390503157787
popul@@ 0.0051103379512047855
port 0.006016402351991819
principal 0.014178449283072363
provide 0.0059340073124135315
provided 0.005308055232666402
purpose 0.011534098620725283
rad@@ 0.01079991203081163
railway 0.0056316079762526155
reason 0.014449270232865116
records 0.008996142229082118
ret 0.011835187546601247
rev@@ 0.009635558390332852
rik 0.013089988979601322
separate 0.008241319653703493
sie 0.0002953588726047721
soon 0.006260976026641814
southern 0.00633074184976095
stit@@ 0.007423219556878819
student 0.007298965015546129
thal 0.020038238654563122
them@@ 0.006584653492672397
thous@@ 0.011373144341442796
tian 0.019147152108324683
uel 0.009806709978987955
uter@@ 0.015393061801757148
uture 0.0262653529113044
vot@@ 0.008916468137967558
want 0.015438187476223907
website 0.010954579144461943
ween 0.08348858824794501
wir@@ 0.006400882835147017
Ø@@ 0.06173186867747062
ă@@ 0.012686119218625945
ğ@@ 0.019287404525514838
ই 1
ষ@@ 1
ਘ 1
ਸ 1
਼ 1
ા 1
ங 1
ப 1
ள@@ 1
ಟ@@ 1
ട 1
ശ@@ 1
န 1
း 1
◆ 1
北@@ 0.7523147512452188
民@@ 0.7206383406664727
About 0.015013298763884849
African 0.004515716732869236
Anne 0.0110046717842892
Archit@@ 0.014414363972772423
Bell@@ 0.013861383257704425
Boh@@ 0.0155369350800643
Bom@@ 0.00962450762044383
Cape 0.012848204315517418
Clar@@ 0.007693571922298358
Disney 0.016152392957940933
End@@ 0.006373112223924465
Fir@@ 0.010167687054662576
Franc@@ 0.014906626230838682
Gas@@ 0.010699615076934963
Good@@ 0.016764431046565064
Imperial 0.016349323842420608
Lis@@ 0.009653077587406186
Mari@@ 0.006160031279138963
Motor 0.009539803482970174
Pau@@ 0.005470632144101373
Pel@@ 0.012229712343954337
Rand@@ 0.01074469027674693
Ray 0.014438363912787027
Roman@@ 0.006648362917981004
Rot@@ 0.005429755405338885
Sper@@ 0.018892551995686034
Stone 0.013517117374030793
Ut@@ 0.03251067745321128
Veg@@ 0.010436073530993127
abil@@ 0.00855420363608433
any@@ 0.010774059512159226
arm 0.011488714051430695
athan 0.011365244254285568
becomes 0.01208652857185452
becoming 0.006885930147712988
bodies 0.014958052034302937
bow 0.01933916450941099
cannot 0.012654462544050817
civi@@ 0.02968398459386087
close 0.0049196376887404815
combination 0.01755875006618498
comes 0.008803141614124143
commercial 0.006906771119327688
connection 0.015703877881238483
contract 0.005304645833787298
cour@@ 0.007097463877901365
cover 0.006627361313002412
dark 0.012349304138450425
deb@@ 0.005053820051686158
demand 0.01766606281275273
disc@@ 0.0055459717101687695
domestic 0.01461355134145583
duk@@ 0.01876175111644286
echn@@ 0.009206909717603223
edy 0.017389735359665554
ef 0.005193660231195781
elem@@ 0.01420965921895328
elev@@ 0.01034395391572949
emin@@ 0.018947592205433118
emy 0.024909080905840358
ener@@ 0.01682950193948743
ente 0.00468925413642519
epp@@ 0.010911435323403938
esth@@ 0.018813309298567883
faces 0.017976122234701263
ffe 0.018400795089871035
folk 0.01133454343763492
future 0.006454705264504681
govern@@ 0.008497760533762222
guid@@ 0.015816539456505147
hen@@ 0.01742701239151907
highest 0.006163826019537427
histor@@ 0.0050185277398934495
impro@@ 0.009002368363921263
independence 0.015116237128448383
influence 0.008332279834110456
ingly 0.007540155381734296
inner 0.007770788009456857
inten@@ 0.010373651845466013
iques 0.025198609161235633
ito 0.010506883722964324
kul@@ 0.011023323770364265
lei@@ 0.0042660201531697335
library 0.012649540065185096
lich@@ 0.003229355755860333
links 0.007808573687735522
list@@ 0.010881313408925744
longer 0.007814202840940665
mas@@ 0.013146878966070178
mind 0.017260512273128758
native 0.007967366194432092
objec@@ 0.01619059254297963
odes 0.03322483281999958
organization 0.005619528253782276
owing 0.012136146714900013
ports 0.016054705071624084
pped 0.0064733363436995294
private 0.004251379934968568
recognized 0.010797312234605987
recomm@@ 0.011622160515573476
recorded 0.0034270002236879106
release 0.0037081709473259124
remain 0.011279502297112238
requi@@ 0.008763405005072986
ressed 0.013168173769011776
revi@@ 0.015411755982262835
scape 0.015512846808622343
serve 0.007605848467448154
sively 0.012270089660437538
soft 0.028944196815820725
sour@@ 0.06052825523047852
stream 0.009051229593646813
structures 0.013683486270807736
sug@@ 0.00841747366144427
sust@@ 0.014644812034485288
tac@@ 0.010783884968520837
television 0.0034443325960624477
territ@@ 0.014072835712463306
tos 0.01418177284019825
tot@@ 0.01201840714130078
upper 0.010074759545372035
why 0.018699715424137196
ything 0.010339020784540047
zes 0.009740543694046604
¼ 0.2726943825792418
Å@@ 0.03977835488999949
Ï@@ 1
Ù@@ 1
är@@ 0.0013744211801595344
ï@@ 0.029054103303618125
ǎ@@ 0.28400703163820595
ɒ@@ 1
ʰ@@ 1
ʻ@@ 0.04427339022814784
Μ@@ 0.34411433992142415
τ 0.6376236298544036
У@@ 0.42232214444902055
މ@@ 1
ট 1
ণ@@ 1
ধ 1
ফ 1
ત@@ 1
அ@@ 1
พ@@ 1
ุ@@ 1
ཐ@@ 1
པ@@ 1
့ 1
ျ@@ 1
ṛ@@ 0.47821772239080274
人 0.751879887227158
子 0.6846064236331492
字 1
Andrew 0.00921408376356863
Base 0.01823725858427806
Blo@@ 0.012820345011856726
Buddh@@ 0.01494230098871915
During 0.001903858669684004
Elizabeth 0.008278191337764801
Europ@@ 0.00462936835545914
Fas@@ 0.0132832980763142
Five 0.015338456093349122
Frank 0.0057361242030427246
Geor@@ 0.006107709965006287
Hab@@ 0.00807530512804501
Has@@ 0.01054051460559121
Hav@@ 0.006901660949536088
Hong 0.009534170696631863
Hop@@ 0.013802548863571554
Hou@@ 0.03061593944197934
How@@ 0.016843788443680542
Israel 0.006183719201824912
Kong 0.009245191406254547
Latin 0.007944117860621895
Marie 0.007558679767770769
Minister 0.0036584970535275016
Morgan 0.016058008372943296
Nation@@ 0.007318080423657392
Olymp@@ 0.014604071611041344
Prem@@ 0.012399794350368972
Production 0.013155669505067455
Program 0.015438380888745532
Publi@@ 0.015521999780068881
Rat 0.012094332736673555
Rum@@ 0.009373176865746319
Russia 0.006270246591053114
South@@ 0.012891427581751946
Sports 0.008607792417851833
Swe@@ 0.016085257310268483
Temper@@ 0.012329080165479425
Tower 0.01658311886071415
Vice 0.01464050804965746
Vinc@@ 0.011564297696505898
Will 0.017566522630643882
Wo@@ 0.005175738428912043
abol@@ 0.012443618727049062
accur@@ 0.016889961109370456
aden@@ 0.01838966665482269
agon@@ 0.010464432426457783
akes 0.006690328261793086
alists 0.011394281669345063
alog 0.01467537885601606
ando 0.006601444059247166
appointed 0.0031842159238751125
arily 0.015479105169446908
ashi 0.01585144793593605
ause 0.006713656020374113
believed 0.007302901283274082
bloc@@ 0.011905048425656154
c. 0.019959370951403765
cally 0.00981670965139543
camer@@ 0.014882748339851069
car 0.004289513932538528
changed 0.005005042697452047
claimed 0.006840363933053946
collap@@ 0.01731962842641839
community 0.002806530842989133
constit@@ 0.0074238903701407824
cross@@ 0.00658732860715063
dered 0.009142985328236151
dest@@ 0.004953935929807712
dim@@ 0.010750166296254632
directed 0.004328538278617684
discovered 0.00807848146413838
dou@@ 0.007302901283274082
dry 0.01615696292827676
edom 0.02097160589754371
eigh@@ 0.008642807985269101
eit@@ 0.004303896208925916
enge 0.006200833102901769
eton 0.009466059014746262
events 0.003876349677696346
extrem@@ 0.014196907402530745
fs 0.005774832759452966
gency 0.011754021008581347
got@@ 0.010002366579055752
happ@@ 0.008029004186471648
heavy 0.008409250460895785
hl 0.015142437485127407
humans 0.01661666076779488
ideas 0.01598302934552099
ield 0.011307501950263062
ien 0.0008477281600256381
illed 0.023119916745584775
industrial 0.012266489772443444
influ@@ 0.009823752890144042
insula 0.017867066297515853
intend@@ 0.013311997002697078
iz 0.014156135123947942
ión 0.014004904677118632
know 0.011885528188075506
kov@@ 0.01650316810686579
lers 0.00549198485845293
ling@@ 0.011006534142012045
location 0.006032955853028828
mile 0.010569444742599438
nation@@ 0.007319819201304832
nor 0.01131165377767274
o. 0.05718290313409135
observ@@ 0.015042621613033063
olo@@ 0.049390443388363466
omot@@ 0.02091820679917957
ored 0.005228442286646309
orting 0.014206727721232056
orts 0.009606264129557751
owers 0.011851236416038358
party 0.0031380772684297246
pati@@ 0.014637030081240865
politics 0.011484543919288616
publi@@ 0.024518335904092088
ratic 0.022939157902823314
recogn@@ 0.009817491734700992
refer@@ 0.006335037849782379
regions 0.011612246160381345
rot 0.013693649989328463
saf@@ 0.011612246160381345
sand@@ 0.01041138528674948
shape 0.014663155194427279
shore 0.015419063595341197
spon@@ 0.013660254545390405
stop 0.009024471347782266
stories 0.009135529413149
straight 0.014798745797281956
throp@@ 0.0402709660960676
traditional 0.005981707502255563
train 0.007818116752567368
travel 0.011154988345611194
unk@@ 0.0033993312254549353
unter 0.000483545512974423
utation 0.0140144610774442
vest@@ 0.012308145850376232
views 0.008438619205229533
whom 0.005912823581112559
wr@@ 0.02448910100436543
zi 0.012637591657672736
ñ 1
Ā@@ 0.11952391489230538
ư@@ 0.11002603236961324
ɐ 1
ɐ@@ 1
ʿ@@ 0.024411481032877744
Ε@@ 0.2794311933196527
ή 0.4263984645465981
э@@ 0.5868055059712707
ס@@ 0.5840244372225917
ת@@ 0.5156031642425392
غ 1
َ 1
গ 1
ਅ@@ 1
ਿ 1
ં@@ 1
ી@@ 1
ା 1
ள 1
చ@@ 1
ే@@ 1
ో@@ 1
ര 1
ง@@ 0.7468433712361626
န@@ 1
ု 1
ွ@@ 1
℃ 1
← 0.8865406924745817
山 0.6846064236331492
本 1
， 0.5156031642425392
Ab 0.002387639340588285
Alp@@ 0.007604749870467548
Because 0.010863725568714212
Bow@@ 0.009887273130374255
Catholic 0.005151745917296063
Census 0.012353581574953332
Cho@@ 0.014345259708817375
Chor@@ 0.007516830847874144
Cricket 0.016225162695892283
Dah@@ 0.028132243659085173
Ein@@ 0.0006821107009508466
Forces 0.013186391572358413
Fres@@ 0.013479626131298975
Ful@@ 0.00914242670994779
Garden 0.015832280236380815
Gest@@ 0.004778611866870678
Jak@@ 0.012867119073259851
Jr 0.01098057288589823
Jul@@ 0.02717961046651923
Just@@ 0.006854531598894832
Justice 0.00879358458765662
Ken@@ 0.008488300781681522
Kom@@ 0.001885998671468268
Lawrence 0.014047446230251703
Lud@@ 0.01701009821947316
Mill@@ 0.011819142075518976
Mom@@ 0.016408161852197286
Personal 0.005989865775483034
Pla@@ 0.01448451674146053
Port@@ 0.008425010280703298
Que@@ 0.01832516013503942
Ry@@ 0.01038671057720976
Sach@@ 0.00857776326780921
Sain@@ 0.012168872021919214
Scott 0.007099127242749504
Sof@@ 0.011782050214378958
Song 0.005690826464115953
Step@@ 0.0072707622925991975
Stor@@ 0.009130950260288354
Supreme 0.00905282296341283
Team 0.0027754535095899494
Tou@@ 0.013238891140670613
Tour 0.003877756039637336
Willi@@ 0.011909853869999525
Wright 0.01651526777602318
ained 0.005219909042771589
aircraft 0.004690029901980067
allowed 0.005250286101756456
atures 0.011090441396763422
authority 0.011633655739467749
awards 0.008868634612332192
bau@@ 0.0021085039407510438
blast 0.07874363465333921
boy 0.009742431945223116
brought 0.005139233949378934
cann@@ 0.021041962035370704
chap@@ 0.007205045008211191
character 0.0038794364005878454
cians 0.02704696537709397
committee 0.009415346009031256
connected 0.009992538165848316
consisting 0.014619154882255413
constitu@@ 0.02953885584203943
containing 0.012840146956932409
contrac@@ 0.011152078575856204
counter@@ 0.013921422490147769
criticized 0.016845142859695374
cultural 0.007403504581274513
defeated 0.0049024048870107565
deli@@ 0.010168902753834455
described 0.0026269206396179884
drawn 0.011234973647807256
effective 0.011233889190891444
emerg@@ 0.012617421077367233
engl@@ 0.005844578517432599
estimated 0.009076120410016014
existing 0.010499151287111895
fall@@ 0.005529150649324688
fe 0.0018439846631963137
feature 0.006559011046981253
fem@@ 0.07370683471667851
foc@@ 0.012296153409153235
focus 0.009034551468532475
followed 0.003823486054654731
fried 0.00951153089388978
ged@@ 0.009580432335992373
gers 0.006285202355545464
grade 0.008164942613837193
holds 0.011696793167601542
hood 0.008630559289405662
ial@@ 0.009478222332244919
ific 0.08830280122734094
iga 0.012831652923664316
igu@@ 0.013886540033126758
increased 0.006075859672024816
iro 0.015787180143466542
isch 0.0005023593255046353
isen 0.00447747824482112
kan 0.01026939839562652
kel@@ 0.006492418387684667
kers 0.00882358544485484
lag 0.0028316365056235944
leb@@ 0.004601395327467495
lief 0.0049590136783687145
linder 0.014926650252358002
may@@ 0.01634364443443833
mean@@ 0.02139395073853591
median 0.009067634750107936
nah@@ 0.005319154114151525
nee 0.010661697693077626
nes 0.006162400297449717
nia 0.016352830127530613
nomin@@ 0.006016806701009945
notes 0.011983432044649439
ny 0.008458073547793267
obil@@ 0.008413438300992941
odes@@ 0.01498044690663346
offer 0.009635159534533932
opin@@ 0.013948117451777967
origin@@ 0.008564507470574387
ouse 0.00929354723449935
overs 0.017107613114454703
owle@@ 0.056115280625667965
pack@@ 0.011358880735666148
philosoph@@ 0.015311550061522874
portion 0.009426785357009181
pro 0.004347032159923631
rain 0.010740410854340656
replac@@ 0.009187897056732876
ries 0.006258837968143875
rin 0.017277774943235652
rise 0.007345562485334218
served 0.00156713245832674
sex@@ 0.006563079682943402
signed 0.002943426707578031
silver 0.009955782037436727
stent 0.008680123211339152
sus@@ 0.011969874731835375
taking 0.005069612406570343
techniques 0.01631157561564616
thy 0.01150599031316217
uch 0.016712103965771878
uer@@ 0.009083912895538195
uf 0.032203401222367284
users 0.014805125558788367
vent 0.019035507363041437
verb@@ 0.0017004382043106724
went 0.002266952843211503
winning 0.004452980257791374
wo@@ 0.006512035139751307
work@@ 0.010260344883861003
Ì@@ 1
å@@ 0.010128195284799874
ò@@ 0.07269399876179597
ú 0.03804612357555912
ě@@ 0.014212125047946679
ı 0.019579927997583336
Š@@ 0.010171568958017423
З@@ 0.3803369020184162
қ@@ 1
ө@@ 1
ר 0.4358917304031287
ض 1
ܝ@@ 1
ॼ@@ 1
ৃ@@ 1
ো 1
ਆ@@ 1
ੂ@@ 1
ક@@ 1
ો@@ 1
େ@@ 1
ண 1
ண@@ 1
ய 1
ழ 1
ద 1
య 1
ส@@ 0.8026420139147266
ἀ@@ 0.6190590000938051
─ 0.42945790412411566
小@@ 0.6727346359400888
新@@ 0.4476272769909052
ﷺ 1
1. 0.0010972026061653348
16th 0.014494776734326302
Afghanistan 0.015287791735004028
Alliance 0.015326294638492215
Analy@@ 0.013074364738756727
Andr@@ 0.010591474355183123
Andre@@ 0.008127098069543245
Atlantic 0.008608017900298928
Beh@@ 0.00894910357690391
Bisch@@ 0.022734958028498103
Blu@@ 0.01011795933690226
Boston 0.0057727023863664755
Boys 0.014327930383427582
But 0.006607771477426788
Children 0.01354650355939944
Clin@@ 0.010533419346216353
Columbia 0.006026133453336847
Connec@@ 0.03715638662866481
Cross 0.008073784018670588
Dance 0.014251499841439483
Dau@@ 0.011630603926662122
Despite 0.0065614608710497105
Domin@@ 0.006968890939133723
Exec@@ 0.15362836995975296
Federal 0.008110249354457566
Fort@@ 0.005653232234790661
Franç@@ 0.043657643595577465
Fund@@ 0.008447368534071402
Gall@@ 0.01138638542425196
Gast@@ 0.004671487025814733
Gib@@ 0.014886793664216344
Greg@@ 0.008657684775632618
Heinrich 0.0033727569597347008
Hit@@ 0.013441775405731238
Hollywood 0.010537472610034041
Howard 0.010394479766682849
Italian 0.004320987289203308
Jack 0.006265345065566771
Jews 0.012487121270098479
Lem@@ 0.013173424868467091
Malay@@ 0.021008252355447614
Marc@@ 0.007107255890300017
Memorial 0.009665316137060254
Opp@@ 0.008902554273512994
Over 0.009534078490843752
Palest@@ 0.013539805658999243
Pati@@ 0.010765309855656399
Penn@@ 0.02292049127041303
Play 0.012950700849054607
Police 0.008786862488472954
Progr@@ 0.013678450022640343
Quar@@ 0.010294833438092468
Religion 0.01336632431742573
Seg@@ 0.0063673212684592145
St 0.003815690520824324
Text 0.01164791873471968
Venezu@@ 0.01538873669307444
Williams 0.00586983697450854
Your 0.014589375037467215
Zone 0.013286878673132442
activities 0.005781843641135068
ades 0.00954404703156782
agu@@ 0.013219530265665443
ahl 0.005135109829886262
ahr@@ 0.005433114814806005
ailed 0.007671197407472782
akers 0.011504781827676069
alized 0.010323942297955125
aller 0.00418032392402793
alone 0.009139510035986972
aming 0.013544828463126482
amme 0.014054019474121614
ancing 0.009883337343797155
anding 0.009887798138770885
approach 0.0091433245226464
arian 0.015491023586664383
arts 0.008524282317611195
attempt 0.007155073994467558
aug@@ 0.021456812493889102
bach 0.002104619524676322
bay@@ 0.007875828859742872
break@@ 0.01463420544840399
bron@@ 0.013891823434534415
build 0.007890011365072669
buildings 0.0047424785808245174
camp@@ 0.010839883996170594
capture 0.015817621340260487
channel 0.007655114108694098
chor@@ 0.013459944431224362
cities 0.006982662572914124
commer@@ 0.01601418534814384
compet@@ 0.004160792668134311
constructed 0.006679087059835601
contri@@ 0.01314654678124146
covery 0.01286400796022359
daughter 0.0033854745103169175
decided 0.004501768361881632
declared 0.008620889956028952
diplom@@ 0.009451810145940449
disp@@ 0.009775727602079773
distinc@@ 0.012322761590876799
dt 0.0073381809996184
ecture 0.011382835683394352
educational 0.011899731426540343
efforts 0.008594509829839456
eight 0.003619024937433636
enger 0.009217960765909607
engines 0.01526648470819566
ength 0.07476930223979786
entire 0.006263195596163524
erh@@ 0.003139316398638767
estim@@ 0.015934976401120727
etta 0.010601725491802542
etz@@ 0.0029377521799416367
exist 0.013407224942632053
fifth 0.007075121288031512
fro@@ 0.01513778714501159
fun@@ 0.009122004312233832
gel@@ 0.0008217762956892249
geograph@@ 0.014573846165687049
gio 0.013692128472662983
going 0.005429882901963211
gress 0.00633418306721239
hin 0.004047482828263824
hion 0.012091514271034757
hop 0.016503996953639275
hour 0.010365953229989955
ician 0.027646902519258925
ima 0.015677261740561596
impact 0.010406329829118741
implem@@ 0.009619480792245883
inces 0.014907053318087081
investig@@ 0.008209940622193365
ird 0.020757443202824306
island 0.0051073356544646745
ission@@ 0.007459109825080277
izes 0.014882748339851069
keep 0.009063133193885806
ldwide 0.09591683693634313
lio 0.013797333137839006
marriage 0.007033326555881846
mers 0.009290672415717037
musical 0.006184689050945958
northern 0.005017499325789192
objects 0.014810306622674942
ocks 0.013976907972604804
old@@ 0.0052076175611535545
omen 0.007738945017754971
oner 0.007876961583582904
organis@@ 0.0037143786972297006
oring 0.00973057011471119
orn 0.0091349368510803
ott 0.00543284534179664
overall 0.006737837717986336
owed 0.016864823368945937
pain@@ 0.008138571051437987
pair 0.01135098733485014
particip@@ 0.006209230076600185
places 0.007623679550480503
plant@@ 0.015221932710019991
playing 0.003094528569689631
poin@@ 0.01527926179122665
prac@@ 0.008021164893182766
prem@@ 0.013944879412005584
prepar@@ 0.0056273839086208
programs 0.006264628411856097
rant 0.013179765104235816
reach 0.008667275500973562
reported 0.003721445531742334
requ@@ 0.008526272887156836
retired 0.006005648762613293
review 0.007500481223041896
risis 0.012847411187110469
sons 0.006314101209436469
spre@@ 0.012475743483064222
stable 0.01475047505808024
sto@@ 0.010533419346216353
store 0.009202472299529856
teaching 0.010111421377393508
teams 0.0030090110095679985
tern@@ 0.011706425967864044
tou@@ 0.008288840543420647
tum 0.007164433761613177
ult 0.012514226868651189
vehicle 0.01232830926069824
wich 0.00992003511875601
wide 0.004220266915095506
woman 0.005107573803100991
yed 0.007534532107669821
zo 0.011084499876675154
 1
ª@@ 1
Â@@ 0.3884291765294463
Ö@@ 0.0032807304355248553
Ù 1
ê 0.07643895867502014
ö 0.023455466334326307
đ@@ 0.05406566030666528
ʌ@@ 1
Е@@ 0.5047789298677597
ث 1
گ 1
ऎ 1
ગ@@ 1
હ@@ 1
ତ@@ 1
ନ 1
ஸ 1
అ@@ 1
ీ@@ 1
ಚ@@ 1
ಜ@@ 1
ദ@@ 1
ง 1
ཁ@@ 1
བ 1
ུ 1
ắ@@ 0.35679813609545236
ồ@@ 0.29846601575287157
☃ 1
♭ 0.9442847222526195
の@@ 0.2745288916824658
南@@ 0.5118552700060928
漢@@ 1
한@@ 1
﻿ 1
Affairs 0.011148731250132708
Alex@@ 0.012933370723548157
Asi@@ 0.008852669271118307
Bad 0.004954453782263346
Band 0.001984711612550441
Boy 0.015251888243720835
Britain 0.006268141582431323
Bun@@ 0.004718169701124391
Centr@@ 0.027874854382457213
Championship 0.002729400476955464
Chel@@ 0.014773552516900068
County 0.0010154251767012328
Daniel 0.0054345344805764376
Denmark 0.014661759500995483
Doctor 0.012860483850340935
Emperor 0.009876030346698633
Gab@@ 0.01527684670410181
Gabri@@ 0.010473326215703455
German@@ 0.006437497714704888
Hus@@ 0.012442864842478174
Joe 0.006517991973657403
Jones 0.005232927208773562
Len@@ 0.008061147935079078
Lov@@ 0.013606858824032382
Luc@@ 0.006094057536346352
Marine 0.006993391687889702
Miller 0.009510183695589217
Olympics 0.004809430664339282
Online 0.01351374701210322
Otto 0.004876808830553848
Past@@ 0.011285961484226
Phase 0.012769331452993332
Philip 0.010627234145190146
Philli@@ 0.012375387267410505
Province 0.005738528278567889
Raf@@ 0.014356348880885276
Rein@@ 0.005937953252282432
Rho@@ 0.009522530002315687
Rog@@ 0.01007959987681315
Roy 0.014168179297043651
Sie@@ 0.0029745666235545106
Tas@@ 0.012135542843887069
Ten 0.014566094119854238
Theod@@ 0.017696185342921313
Tob@@ 0.01284439819199154
Tom 0.006215031383221713
Victor 0.011555188876445636
Wales 0.004548476925409592
Wood@@ 0.010249622072559375
aged 0.003814530052560171
amen 0.0034757476237932774
anger 0.009569561415056601
app 0.017566021817477313
applications 0.013767390205787957
attle 0.01966883040508952
bey 0.010463721575807251
bill 0.011790007295634026
box@@ 0.008889453215458134
boys 0.00969789059825974
call 0.007307405076849952
citizens 0.011257505321746587
classical 0.012420290704520123
coming 0.0054879736823948465
competed 0.005484749428241862
contain 0.014416813638210355
converted 0.010963057920889545
craft 0.01999824022297417
critics 0.010045090829010306
cust@@ 0.01261869790427284
damage 0.00911350404197483
decis@@ 0.015315579947050316
dedicated 0.007831233397771096
demic 0.00767323944892568
dership 0.033008988603334094
distri@@ 0.013776625106650441
dit@@ 0.00851359339620066
eled 0.012329326875371877
elim@@ 0.03108080010441052
entry 0.007750261399620557
erk@@ 0.001613268035708241
erve 0.021994209369238033
esch@@ 0.0035188624728428324
esse 0.005871410151227694
etti 0.012460983320588809
examples 0.014647120745253513
fav@@ 0.005514497022069186
feet 0.009434172121724609
femin@@ 0.015317864490598505
fest@@ 0.001659062047352414
finish 0.0094489292919555
gem@@ 0.0025399694173873946
gets 0.008534820773352093
giving 0.007415580845246416
goal 0.0043377107182973875
graduate 0.00788656505222121
gressive 0.010185574642429316
gri@@ 0.012030337809860868
hands 0.011462324315768766
hospital 0.0073172982431931296
ican 0.013745276876585782
iden@@ 0.007213470324878644
iller 0.011867671737544478
illing 0.009626976989310244
iny 0.015117174082875369
kir@@ 0.010126315308645337
kun@@ 0.006045267766231375
lack 0.00722717739073632
lake 0.009107038271104326
launched 0.004862031321669067
law@@ 0.004572171128449349
leaders 0.007846791743330968
letters 0.01162583081002744
likely 0.006157640075851315
marine 0.006576009448320464
mas 0.020025538912826126
master 0.006299286194637
maxim@@ 0.00901035040317385
mon 0.010714833424976249
mond 0.005250049260990408
moved 0.001846561237592109
mund 0.006216160020882105
mur@@ 0.009001662302329275
nership 0.01190343845426827
norm@@ 0.010972429057054426
noted 0.005103417331526308
numerous 0.005404787554998546
olle@@ 0.007645816658846874
particularly 0.005657280935708042
pp 0.028406905544943947
r. 0.011621883606266677
referred 0.006098038215259643
rein@@ 0.00802586663110374
represent 0.011257505321746587
rol 0.006930617773164093
rom 0.006868960772238954
rone 0.011721374676974362
sei@@ 0.013211239359960424
selected 0.005273775859951334
share 0.009289096657166202
simp@@ 0.02485862104695531
song 0.0014211315187513476
songs 0.003501823138788486
sor 0.010833522897454623
stim@@ 0.01047439448643129
street 0.00813780517830037
suffered 0.008391841427226638
supported 0.005597152861229213
technical 0.011815782251176202
tei 0.006520889226884199
think 0.01275981157367947
transport 0.009043677987227862
venti@@ 0.01037282460050226
victory 0.005350159609511951
visible 0.014995759863459749
weeks 0.006122761957129285
yard 0.005560481023661055
zy 0.01248977907382296
¡ 0.2738425694532597
Ü 0.138584296282014
ä@@ 0.0004363867378813296
ère 0.00888022860126015
ín 0.008483350974388465
ü 0.02116902979694339
ý 0.010250645193149568
ý@@ 0.03164590556085435
Τ@@ 0.36415235299635595
ދ@@ 1
ऺ 1
হ 1
ৌ@@ 1
ਕ 1
ਨ 1
ୁ@@ 1
இ@@ 1
ஜ@@ 1
ಅ@@ 1
ೋ@@ 1
ച@@ 1
ണ@@ 1
പ 1
ൂ@@ 1
ോ@@ 1
ཆ@@ 1
ạ@@ 0.09789415018586499
⅓ 0.9335542140452033
↔ 0.6458551166350464
≠ 0.9335542140452033
☑ 1
イ@@ 0.5673533897512285
一@@ 0.4646649934161645
文@@ 0.3628655955652734
明@@ 0.7779618450376694
1920@@ 0.00814799790093011
1960s 0.006982726162657793
1990s 0.006773969843002395
Academ@@ 0.01438896551698557
Albert 0.005099489189073736
Ander@@ 0.006918211297000207
Angl@@ 0.014088622564845051
Austral@@ 0.03380772462385922
Bank@@ 0.009511253280603442
Bit@@ 0.012289383165616218
Box@@ 0.011020455249929962
Bron@@ 0.008999521061844214
Brown 0.004723052249969983
Buch@@ 0.0028790897959940186
Castle 0.006783558589329809
Clau@@ 0.013979711101026965
Cour@@ 0.0066172948984148635
Cum@@ 0.012966030750627825
Das 0.0002817956477635698
Death 0.007623073197219509
Deutschland 0.0013193962158589386
Engine@@ 0.018513598475688793
Ernst 0.00495220105965903
Fair@@ 0.010716111282272013
Geography 0.00844522859358894
Hell@@ 0.014101059189148283
Holy 0.011079054364656211
Hur@@ 0.006864696985291569
Leo 0.0129642769252862
Lie@@ 0.002754163773236807
Lig@@ 0.005282748129231157
Lind@@ 0.006587278302999373
Lond@@ 0.01884855443631089
Magn@@ 0.01160912055579468
Member 0.011350651268195273
Ministry 0.0072483475239084084
Mountain 0.007892366543860415
Nation 0.012960770697584974
Nikol@@ 0.007195022844279024
Opera 0.012167690657438222
Ord@@ 0.007516068013538337
Palace 0.012479804597479282
Pion@@ 0.01321269634803431
Pit@@ 0.014648463901672149
Pok@@ 0.005197380798689924
Relig@@ 0.009054785007901831
Renaissance 0.013657010445802349
Ring 0.013249225782228488
Rober@@ 0.0070154369278759236
Singapore 0.011317144799697825
Spar@@ 0.008755357569072886
Sti@@ 0.002799617330470013
Stri@@ 0.011071375685415372
Studios 0.009655943915841313
Tai@@ 0.01477264169368694
Tig@@ 0.011278524277317119
Today 0.009475521434368845
Tour@@ 0.0039657770319695826
Vill@@ 0.007654731994939772
Wall@@ 0.004976887491361558
Will@@ 0.006412745838929538
Wilson 0.006805716062532194
Wind@@ 0.005747475372309959
Wood 0.012945016114078996
Zealand 0.004151106557609289
a. 0.002652705413872876
aded 0.007097519202357886
agen 0.0018672296767707165
ags 0.008773791588121646
ails 0.009257693355417838
alternative 0.009758185635170115
amat@@ 0.012815202474748079
ange@@ 0.0020930032823497234
ante 0.004414374507582944
appear 0.006692144903549845
arab@@ 0.012703101300018673
ario 0.011181159508707522
bli@@ 0.010516227705578328
border 0.006404604029979344
branch 0.00774504236837502
call@@ 0.04971208470365191
chart 0.006849978509765644
coal 0.01364728738553907
colle@@ 0.0078094108456482425
command 0.00605884691248757
communic@@ 0.011711253581212229
cup 0.007232485610371331
daily 0.010164906067307336
demonstr@@ 0.006588183895287385
diction 0.012421578448501929
divisions 0.012214209163838523
drug 0.010608179226191575
eal@@ 0.012416750784899712
ees 0.008793916809674363
embl@@ 0.010639975500515195
employ@@ 0.010216917099311468
employment 0.013657010445802349
enberg 0.0028978049677593617
except 0.00837512227443559
explo@@ 0.008397870788455348
failed 0.005824667232369546
females 0.007121778816216441
ffer 0.008436308362700545
finished 0.0029623817552278196
fix@@ 0.013065008084602082
forming 0.008901727436485641
found@@ 0.017334942902629928
founder 0.00762004287713793
ful@@ 0.012322563552152338
goes 0.009073643785727623
growing 0.008394928554667678
hit 0.004516937617637065
ied 0.0075278745922589445
iens 0.009376335287481987
iner 0.004478733612553312
legisl@@ 0.005925862452617836
less@@ 0.011922490273496813
locomot@@ 0.012371872893848054
lov@@ 0.007272547181777137
medal 0.006020408248030206
minister 0.0032600305887292816
minutes 0.005594822211700478
mob@@ 0.008856486722291711
models 0.00847734824948177
multi 0.01127189219200763
musi@@ 0.008101166368746587
necessary 0.00881494521370743
nun 0.002594469690559279
occup@@ 0.00657913916176832
oke 0.007053123799296555
ole@@ 0.0181044388569401
olis 0.03434070200954528
ollar 0.03622256209699202
onder@@ 0.014151026031100087
online 0.006839225011320171
open@@ 0.016686089712507117
orium 0.013731360932470038
oting 0.008135548706276283
ought 0.04352629396396044
owned 0.0033309550048182695
passed 0.004975079123210012
pay 0.007845207441159113
plan 0.004181167356307677
poration 0.022588946337176733
pow@@ 0.009804101811440352
priv@@ 0.004276880825909901
programm@@ 0.012042329351506582
qualif@@ 0.004746206759861388
recent 0.006384127043804761
regist@@ 0.009636527177623254
replaced 0.0036339298316072372
round@@ 0.009403011803064933
secre@@ 0.017586220056631352
sense 0.010316996696301494
setting 0.010139098625689291
sho@@ 0.0059723890396710414
situated 0.009008825952499378
sla@@ 0.007119662703063503
specific@@ 0.030967657288736957
speech 0.011095728097781995
sports 0.004629741054421837
stant@@ 0.007246703410603424
stated 0.003523450456166491
tag 0.0047805326604140295
tak@@ 0.00541190848721857
tary 0.0352500549130713
temper@@ 0.009804101811440352
thur 0.04216669569231891
tier 0.00582183680426659
tified 0.013928920114611375
tiful 0.013808514523648015
travel@@ 0.007276964490823846
twice 0.008664337308682053
ulty 0.00656921859552028
umental 0.013558480592536552
variety 0.00603823469467907
veget@@ 0.012617811915302906
warf 0.011754341342732509
whether 0.0067057230328581045
writers 0.010863073706068331
ywood 0.03804878892760654
zum@@ 0.005590579754353761
© 1
¶ 1
Î@@ 0.04267359719886059
Ø 0.4520985816445324
ơ@@ 0.09681302960468777
ɑ 1
ɡ 1
с 0.3563007409243155
х 0.32823595653644133
ֵ@@ 0.7206383406664727
ז@@ 0.8407447307775515
ॻ@@ 1
ਭ@@ 1
੍ 1
અ@@ 1
ି 1
ం 1
ಣ@@ 1
ಪ 1
ಳ@@ 1
ಶ 1
റ@@ 1
ะ@@ 1
လ@@ 1
ီ@@ 1
ᱟ@@ 1
ṅ@@ 0.40785063535591864
♦ 1
三@@ 0.37734212326236566
和@@ 0.6223694760301356
市 0.6066132867635499
西@@ 0.4675360941884921
金@@ 0.38647136818000355
ꯤ@@ 1
￱ 1
17th 0.011225887370372022
1980s 0.0055886238663930545
3. 0.002120736669501725
Alber@@ 0.006329481194247165
Bec@@ 0.006983039236744558
Benjamin 0.010450779130144363
Brothers 0.012316473162511679
Charlie 0.0124980810380999
Cob@@ 0.009631908557609242
Colon@@ 0.01664151740319921
Command 0.011713455524126004
DAP 0.012699605461231361
Deutsch@@ 0.0065033858291786185
Deutsche 0.003731138015021565
Dipl@@ 0.011983147310126483
Eg@@ 0.010498859864611229
Fame 0.009075031617447679
Feder@@ 0.010973962401024585
Ferdinand 0.008005652160862587
Final 0.0070499710925466886
Finn@@ 0.0069715521754903165
Fle@@ 0.003947608563863801
Gallery 0.0110846724464204
Giovanni 0.012783515523169978
Gordon 0.009444851435032302
Gott@@ 0.0052116200194594715
Hamp@@ 0.00787670015685542
Herbert 0.00920360238596788
José 0.007424612920022474
Jung@@ 0.006856084667769
Junior 0.007329833229476972
Kil@@ 0.008163532844644047
Lux@@ 0.0081441100908043
Neb@@ 0.007317177922577438
Phili@@ 0.03358446606502241
Philipp@@ 0.006095393128711005
Professional 0.009909679887797505
Prop@@ 0.008769222097971168
Protest@@ 0.007540357118724849
Samuel 0.007645948030267129
Schwar@@ 0.004684149214332073
Scotland 0.00559635509478145
Spanish 0.0034872785185654713
Spr@@ 0.003507481479952289
Swiss 0.009113130767183023
Tag 0.0037109133583083593
Tat@@ 0.008556757530267224
Television 0.00898342940065705
Thompson 0.011860185910488992
Transport 0.008630608521364371
Under 0.005713844059598702
Walter 0.004183652285634814
Yor@@ 0.006658599062719541
abilities 0.010620386046814962
acher 0.003937827311725561
aches 0.003787023321233539
address 0.012084023770849883
adem@@ 0.0077235819727770015
advantage 0.012164958320435947
advis@@ 0.007598295489824075
agan 0.011603498705646595
agric@@ 0.01585866626377573
ahn@@ 0.003200936378661681
allen 0.0023619021541973245
alo 0.009468968514981316
already 0.0046450331457363984
appropri@@ 0.011861766636320057
armed 0.010038217355324768
arranged 0.013155777542100427
asse 0.002464522459911093
athlet@@ 0.004999372827340152
attention 0.007132459935270828
avoid 0.011007895494410561
aying 0.011033825325106545
battle 0.00504299836085162
behind 0.0039020885247417303
big@@ 0.00887326371608269
chant 0.012275701389284053
claims 0.008301355757141068
conqu@@ 0.012475306289922819
consists 0.005607638779680511
contains 0.004694774229694013
counter 0.011094344935466141
creation 0.008036737860963462
crit@@ 0.01451857015861491
custom@@ 0.009266850798866034
deo 0.03584326825304446
desc@@ 0.008796959085925609
det 0.001234825805038008
difficult 0.00776265460726641
draw 0.006225871638496634
earlier 0.004577422983711845
educated 0.01019810187605241
empha@@ 0.011601986060788605
entered 0.0044061010481860185
entially 0.011742820302455388
establish 0.010687983075814745
etter 0.012126834047187545
expanded 0.007591166416948941
experience 0.0056428376282214926
falls 0.004823785098770157
flight 0.007069571457010834
foot 0.008743377057894625
fully 0.0056810184522092045
fung@@ 0.007235677648155235
für 0.00010190896899099569
gained 0.007074066852580033
games 0.0017716499466967131
hen 0.002485792673024869
ige 0.0009212366995725964
ights 0.008803920770828904
ikan@@ 0.007911007561983057
individuals 0.0056235836643693535
initial 0.00682506403928753
itt 0.004335484950911408
kat@@ 0.01077728688209123
killed 0.0034786911769977094
kilomet@@ 0.010880053187323886
label 0.005714944780858498
ld 0.029686069070149895
leg 0.010433626620434865
lement 0.019768732801490312
lon@@ 0.008972561253383344
mainly 0.00541651969279468
makes 0.006334887541626407
married 0.001926923919551159
minist@@ 0.00462668096653719
missi@@ 0.012568681693589802
mitt@@ 0.0043059090944075375
negoti@@ 0.009272643787487954
nei@@ 0.007751836518797089
nur@@ 0.011633834649975083
observed 0.010731802130991123
occasi@@ 0.006714359492441297
olas 0.007836473987171735
olo 0.009773647602933165
oman 0.012098808465512425
osed 0.011967034432205108
osop@@ 0.012487559291751
oti@@ 0.03905170472677024
ourney 0.01265626209788245
paid 0.007205799941082455
parties 0.007657131125553591
plays 0.0035388617866439773
powers 0.011169532514095052
praised 0.011190599154068828
professional 0.0023476347948380213
protect 0.011308619450102845
protection 0.00950131686477094
province 0.00602157206172594
question 0.010920102462860048
rank 0.006981943600243932
rator 0.012338671159338609
reached 0.00348987667917455
refer 0.0031305650945270456
refers 0.010405569399311282
reform 0.0055454442689456904
reli@@ 0.007327419320954173
represented 0.0038525966439682
representing 0.009585227256037629
riage 0.019098462461868967
says 0.008646539888497949
sever@@ 0.007130745539004037
shaped 0.010662373915455778
smaller 0.0067839648656383405
stand@@ 0.00348686863627603
stars 0.0059546925647202854
sten@@ 0.0045908818256633335
substan@@ 0.008431113591541245
successful 0.003245053419102654
susp@@ 0.0067133465393610465
[...]
