{
  "[Pad]": 0,
  "[SOS]": 1,
  "[EOS]": 2,
  "[UNK]": 3,
  "[MASK]": 4,
  "the": 5,
  ",": 6,
  ".": 7,
  "of": 8,
  "and": 9,
  "in": 10,
  "&quot;": 11,
  "a": 12,
  "to": 13,
  "was": 14,
  "@-@": 15,
  "The": 16,
  "is": 17,
  ")": 18,
  "(": 19,
  "on": 20,
  "as": 21,
  "for": 22,
  "by": 23,
  "with": 24,
  "&apos;s": 25,
  "that": 26,
  "at": 27,
  "from": 28,
  "an": 29,
  "his": 30,
  "In": 31,
  "he": 32,
  "were": 33,
  "it": 34,
  "which": 35,
  "are": 36,
  "or": 37,
  "He": 38,
  "be": 39,
  "had": 40,
  "also": 41,
  ";": 42,
  ":": 43,
  "has": 44,
  "–": 45,
  "first": 46,
  "its": 47,
  "one": 48,
  "It": 49,
  "their": 50,
  "who": 51,
  "ing": 52,
  "her": 53,
  "not": 54,
  "but": 55,
  "two": 56,
  "i": 57,
  "have": 58,
  "this": 59,
  "been": 60,
  "&apos;": 61,
  "s": 62,
  "y": 63,
  "es": 64,
  "re@@": 65,
  "o": 66,
  "S@@": 67,
  "after": 68,
  "ed": 69,
  "time": 70,
  "A": 71,
  "P@@": 72,
  "they": 73,
  "T@@": 74,
  "other": 75,
  "C@@": 76,
  "into": 77,
  "all": 78,
  "M@@": 79,
  "1": 80,
  "she": 81,
  "in@@": 82,
  "ation": 83,
  "y@@": 84,
  "t@@": 85,
  "G@@": 86,
  "al": 87,
  "L@@": 88,
  "N@@": 89,
  "over": 90,
  "B@@": 91,
  "D@@": 92,
  "c@@": 93,
  "more": 94,
  "K@@": 95,
  "On": 96,
  "%": 97,
  "p@@": 98,
  "up": 99,
  "un@@": 100,
  "F@@": 101,
  "W@@": 102,
  "New": 103,
  "de": 104,
  "2": 105,
  "when": 106,
  "would": 107,
  "years": 108,
  "d@@": 109,
  "ers": 110,
  "R@@": 111,
  "/": 112,
  "where": 113,
  "A@@": 114,
  "This": 115,
  "during": 116,
  "b@@": 117,
  "er": 118,
  "out": 119,
  "year": 120,
  "H@@": 121,
  "season": 122,
  "only": 123,
  "s@@": 124,
  "new": 125,
  "between": 126,
  "three": 127,
  "made": 128,
  "E@@": 129,
  "him": 130,
  "used": 131,
  "then": 132,
  "later": 133,
  "I": 134,
  "can": 135,
  "3": 136,
  "United": 137,
  "&amp;": 138,
  "known": 139,
  "most": 140,
  "ate": 141,
  "such": 142,
  "part": 143,
  "an@@": 144,
  "about": 145,
  "well": 146,
  "American": 147,
  "m@@": 148,
  "ch@@": 149,
  "under": 150,
  "team": 151,
  "became": 152,
  "University": 153,
  "f@@": 154,
  "n@@": 155,
  "ar@@": 156,
  "She": 157,
  "born": 158,
  "age": 159,
  "g@@": 160,
  "than": 161,
  "k@@": 162,
  "al@@": 163,
  "e": 164,
  "including": 165,
  "film": 166,
  "being": 167,
  "there": 168,
  "V@@": 169,
  "u": 170,
  "en@@": 171,
  "4": 172,
  "O@@": 173,
  "some": 174,
  "man": 175,
  "l@@": 176,
  "us": 177,
  "i@@": 178,
  "v@@": 179,
  "second": 180,
  "t": 181,
  "st@@": 182,
  "ated": 183,
  "h@@": 184,
  "through": 185,
  "e@@": 186,
  "ar": 187,
  "against": 188,
  "After": 189,
  "J@@": 190,
  "while": 191,
  "o@@": 192,
  "before": 193,
  "ad@@": 194,
  "many": 195,
  "w@@": 196,
  "son": 197,
  "work": 198,
  "family": 199,
  "them": 200,
  "am@@": 201,
  "ic": 202,
  "until": 203,
  "World": 204,
  "5": 205,
  "both": 206,
  "no": 207,
  "people": 208,
  "k": 209,
  "ations": 210,
  "I@@": 211,
  "States": 212,
  "played": 213,
  "album": 214,
  "de@@": 215,
  "able": 216,
  "dis@@": 217,
  "National": 218,
  "released": 219,
  "name": 220,
  "j@@": 221,
  "el@@": 222,
  "d": 223,
  "Y@@": 224,
  "number": 225,
  "series": 226,
  "won": 227,
  "on@@": 228,
  "or@@": 229,
  "6": 230,
  "end": 231,
  "life": 232,
  "As": 233,
  "area": 234,
  "school": 235,
  "may": 236,
  "u@@": 237,
  "four": 238,
  "called": 239,
  "use": 240,
  "May": 241,
  "es@@": 242,
  "is@@": 243,
  "di@@": 244,
  "ine": 245,
  "at@@": 246,
  "March": 247,
  "r@@": 248,
  "city": 249,
  "m": 250,
  "early": 251,
  "land": 252,
  "September": 253,
  "January": 254,
  "career": 255,
  "state": 256,
  "er@@": 257,
  "ts": 258,
  "June": 259,
  "several": 260,
  "ly": 261,
  "le": 262,
  "th@@": 263,
  "10": 264,
  "October": 265,
  "following": 266,
  "July": 267,
  "same": 268,
  "ia": 269,
  "7": 270,
  "amp": 271,
  "August": 272,
  "School": 273,
  "John": 274,
  "South": 275,
  "game": 276,
  "ted": 277,
  "April": 278,
  "found": 279,
  "based": 280,
  "ac@@": 281,
  "They": 282,
  "as@@": 283,
  "am": 284,
  "began": 285,
  "ro@@": 286,
  "November": 287,
  "these": 288,
  "will": 289,
  "8": 290,
  "since": 291,
  "so": 292,
  "December": 293,
  "Ch@@": 294,
  "His": 295,
  "it@@": 296,
  "U@@": 297,
  "con@@": 298,
  "way": 299,
  "3@@": 300,
  "Z@@": 301,
  "place": 302,
  "County": 303,
  "p": 304,
  "group": 305,
  "back": 306,
  "a@@": 307,
  "2@@": 308,
  "held": 309,
  "z@@": 310,
  "em@@": 311,
  "li@@": 312,
  "former": 313,
  "Sh@@": 314,
  "day": 315,
  "located": 316,
  "At": 317,
  "line": 318,
  "ri@@": 319,
  "c": 320,
  "n": 321,
  "ton": 322,
  "took": 323,
  "War": 324,
  "9": 325,
  "led": 326,
  "York": 327,
  "named": 328,
  "government": 329,
  "op@@": 330,
  "$": 331,
  "als": 332,
  "ent": 333,
  "There": 334,
  "State": 335,
  "ra@@": 336,
  "February": 337,
  "now": 338,
  "member": 339,
  "British": 340,
  "any": 341,
  "each": 342,
  "high": 343,
  "served": 344,
  "ings": 345,
  "century": 346,
  "population": 347,
  "music": 348,
  "City": 349,
  "Al@@": 350,
  "League": 351,
  "-": 352,
  "ist": 353,
  "ating": 354,
  "2010": 355,
  "ab@@": 356,
  "set": 357,
  "station": 358,
  "et": 359,
  "ates": 360,
  "company": 361,
  "’": 362,
  "ag@@": 363,
  "sh@@": 364,
  "own": 365,
  "side": 366,
  "song": 367,
  "4@@": 368,
  "However": 369,
  "ant": 370,
  "20": 371,
  "le@@": 372,
  "did": 373,
  "around": 374,
  "received": 375,
  "12": 376,
  "ting": 377,
  "home": 378,
  "town": 379,
  "off": 380,
  "ot@@": 381,
  "re": 382,
  "et@@": 383,
  "men": 384,
  "due": 385,
  "sp@@": 386,
  "2011": 387,
  "North": 388,
  "built": 389,
  "could": 390,
  "om@@": 391,
  "im@@": 392,
  "18": 393,
  "long": 394,
  "ian": 395,
  "os": 396,
  "ap@@": 397,
  "Con@@": 398,
  "ul@@": 399,
  "el": 400,
  "ti@@": 401,
  "en": 402,
  "died": 403,
  "like": 404,
  "single": 405,
  "ity": 406,
  "&apos;@@": 407,
  "local": 408,
  "15": 409,
  "2012": 410,
  "left": 411,
  "along": 412,
  "public": 413,
  "ons": 414,
  "band": 415,
  "During": 416,
  "system": 417,
  "History": 418,
  "In@@": 419,
  "um": 420,
  "final": 421,
  "2014": 422,
  "ous": 423,
  "species": 424,
  "five": 425,
  "published": 426,
  "b": 427,
  "building": 428,
  "2016": 429,
  "ic@@": 430,
  "include": 431,
  "club": 432,
  "ally": 433,
  "5@@": 434,
  "2015": 435,
  "2013": 436,
  "members": 437,
  "ley": 438,
  "said": 439,
  "within": 440,
  "se@@": 441,
  "field": 442,
  "ies": 443,
  "ans": 444,
  "2008": 445,
  "ec@@": 446,
  "ch": 447,
  "l": 448,
  "2009": 449,
  "play": 450,
  "h": 451,
  "large": 452,
  "St@@": 453,
  "because": 454,
  "Mar@@": 455,
  "world": 456,
  "der": 457,
  "os@@": 458,
  "ur@@": 459,
  "2017": 460,
  "2018": 461,
  "oc@@": 462,
  "30": 463,
  "ol@@": 464,
  "ors": 465,
  "included": 466,
  "11": 467,
  "village": 468,
  "sub@@": 469,
  "third": 470,
  "2019": 471,
  "form": 472,
  "For": 473,
  "16@@": 474,
  "small": 475,
  "election": 476,
  "2007": 477,
  "old": 478,
  "ance": 479,
  "children": 480,
  "French": 481,
  "2006": 482,
  "show": 483,
  "6@@": 484,
  "national": 485,
  "College": 486,
  "death": 487,
  "house": 488,
  "water": 489,
  "very": 490,
  "last": 491,
  "si@@": 492,
  "main": 493,
  "16": 494,
  "ie": 495,
  "football": 496,
  "An@@": 497,
  "moved": 498,
  "ary": 499,
  "2020": 500,
  "if": 501,
  "&#91;": 502,
  "&#93;": 503,
  "down": 504,
  "qu@@": 505,
  "19": 506,
  "West": 507,
  "English": 508,
  "those": 509,
  "Bar@@": 510,
  "14": 511,
  "ical": 512,
  "II": 513,
  "District": 514,
  "do": 515,
  "inter@@": 516,
  "war": 517,
  "million": 518,
  "pro@@": 519,
  "g": 520,
  "history": 521,
  "25": 522,
  "still": 523,
  "women": 524,
  "German": 525,
  "ut@@": 526,
  "book": 527,
  "C": 528,
  "9@@": 529,
  "another": 530,
  "ph@@": 531,
  "7@@": 532,
  "service": 533,
  "Car@@": 534,
  "late": 535,
  "ology": 536,
  "major": 537,
  "ve": 538,
  "—": 539,
  "13": 540,
  "il@@": 541,
  "often": 542,
  "International": 543,
  "per": 544,
  "district": 545,
  "mon@@": 546,
  "O": 547,
  "London": 548,
  "River": 549,
  "co": 550,
  "ed@@": 551,
  "ak@@": 552,
  "near": 553,
  "north": 554,
  "U.S.": 555,
  "different": 556,
  "ob@@": 557,
  "8@@": 558,
  "When": 559,
  "father": 560,
  "head": 561,
  "established": 562,
  "Ar@@": 563,
  "17": 564,
  "games": 565,
  "B": 566,
  "announced": 567,
  "country": 568,
  "All": 569,
  "ey": 570,
  "ce": 571,
  "best": 572,
  "top": 573,
  "House": 574,
  "using": 575,
  "again": 576,
  "order": 577,
  "original": 578,
  "started": 579,
  "record": 580,
  "for@@": 581,
  "Cup": 582,
  "pl@@": 583,
  "US": 584,
  "les": 585,
  "24": 586,
  "ism": 587,
  "hi@@": 588,
  "role": 589,
  "south": 590,
  "six": 591,
  "vi@@": 592,
  "um@@": 593,
  "title": 594,
  "ad": 595,
  "ex@@": 596,
  "law": 597,
  "went": 598,
  "fl@@": 599,
  "ou@@": 600,
  "ry": 601,
  "joined": 602,
  "One": 603,
  "over@@": 604,
  "ra": 605,
  "par@@": 606,
  "17@@": 607,
  "came": 608,
  "z": 609,
  "15@@": 610,
  "tra@@": 611,
  "period": 612,
  "ing@@": 613,
  "ship": 614,
  "ence": 615,
  "21": 616,
  "just": 617,
  "_": 618,
  "des": 619,
  "worked": 620,
  "what": 621,
  "position": 622,
  "much": 623,
  "ty": 624,
  "support": 625,
  "ds": 626,
  "married": 627,
  "per@@": 628,
  "0": 629,
  "Re@@": 630,
  "ter": 631,
  "x": 632,
  "lo@@": 633,
  "among": 634,
  "ment": 635,
  "produced": 636,
  "ana": 637,
  "works": 638,
  "England": 639,
  "R": 640,
  "2005": 641,
  "development": 642,
  "make": 643,
  "2021": 644,
  "D": 645,
  "red": 646,
  "wrote": 647,
  "given": 648,
  "player": 649,
  "power": 650,
  "us@@": 651,
  "having": 652,
  "non": 653,
  "less": 654,
  "general": 655,
  "described": 656,
  "become": 657,
  "ard": 658,
  "production": 659,
  "Mc@@": 660,
  "T": 661,
  "next": 662,
  "X@@": 663,
  "x@@": 664,
  "These": 665,
  "Le@@": 666,
  "r": 667,
  "community": 668,
  "total": 669,
  "European": 670,
  "right": 671,
  "even": 672,
  "days": 673,
  "returned": 674,
  "various": 675,
  "Park": 676,
  "co@@": 677,
  "General": 678,
  "written": 679,
  "win": 680,
  "pre@@": 681,
  "East": 682,
  "id@@": 683,
  "elected": 684,
  "William": 685,
  "created": 686,
  "av@@": 687,
  "2000": 688,
  "22": 689,
  "be@@": 690,
  "political": 691,
  "From": 692,
  "ge": 693,
  "ep@@": 694,
  "Th@@": 695,
  "ite": 696,
  "mar@@": 697,
  "2004": 698,
  "ator": 699,
  "au@@": 700,
  "ah": 701,
  "L": 702,
  "Church": 703,
  "est": 704,
  "west": 705,
  "round": 706,
  "point": 707,
  "tions": 708,
  "take": 709,
  "Australia": 710,
  "ass@@": 711,
  "site": 712,
  "sc@@": 713,
  "Par@@": 714,
  "level": 715,
  "23": 716,
  "church": 717,
  "ets": 718,
  "founded": 719,
  "!": 720,
  "=": 721,
  "continued": 722,
  "Party": 723,
  "India": 724,
  "ha@@": 725,
  "however": 726,
  "Council": 727,
  "opened": 728,
  "By": 729,
  "ding": 730,
  "end@@": 731,
  "formula": 732,
  "100": 733,
  "king": 734,
  "few": 735,
  "Army": 736,
  "ks": 737,
  "ast@@": 738,
  "M": 739,
  "According": 740,
  "car@@": 741,
  "ge@@": 742,
  "France": 743,
  "formed": 744,
  "High": 745,
  "Street": 746,
  "students": 747,
  "rec@@": 748,
  "bar@@": 749,
  "est@@": 750,
  "th": 751,
  "su@@": 752,
  "ina": 753,
  "signed": 754,
  "Di@@": 755,
  "Division": 756,
  "ion": 757,
  "man@@": 758,
  "od@@": 759,
  "ise": 760,
  "com@@": 761,
  "version": 762,
  "ov@@": 763,
  "military": 764,
  "region": 765,
  "James": 766,
  "east": 767,
  "George": 768,
  "King": 769,
  "without": 770,
  "art": 771,
  "ay@@": 772,
  "party": 773,
  "ent@@": 774,
  "tri@@": 775,
  "se": 776,
  "low": 777,
  ".@@": 778,
  "run": 779,
  "appointed": 780,
  "times": 781,
  "ins": 782,
  "match": 783,
  "ver@@": 784,
  "under@@": 785,
  "ir@@": 786,
  "event": 787,
  "San": 788,
  "he@@": 789,
  "together": 790,
  "making": 791,
  "E": 792,
  "lost": 793,
  "ay": 794,
  "St.": 795,
  "ves": 796,
  "den": 797,
  "President": 798,
  "Gu@@": 799,
  "ai": 800,
  "considered": 801,
  "recorded": 802,
  "present": 803,
  "Co@@": 804,
  "TV": 805,
  "professional": 806,
  "Q@@": 807,
  "television": 808,
  "California": 809,
  "S": 810,
  "half": 811,
  "short": 812,
  "full": 813,
  "gh@@": 814,
  "international": 815,
  "bi@@": 816,
  "America": 817,
  "language": 818,
  "Canada": 819,
  "N": 820,
  "case": 821,
  "story": 822,
  "debut": 823,
  "working": 824,
  "28": 825,
  "og@@": 826,
  "education": 827,
  "2003": 828,
  "ded": 829,
  "ig@@": 830,
  "research": 831,
  "style": 832,
  "26": 833,
  "&apos;t": 834,
  "ter@@": 835,
  "27": 836,
  "wife": 837,
  "ow@@": 838,
  "class": 839,
  "bu@@": 840,
  "ber@@": 841,
  "ong": 842,
  "program": 843,
  "ang@@": 844,
  "ne@@": 845,
  "ders": 846,
  "appeared": 847,
  "With": 848,
  "F": 849,
  "ling": 850,
  "ens": 851,
  "af@@": 852,
  "Association": 853,
  "Am@@": 854,
  "important": 855,
  "further": 856,
  "é@@": 857,
  "video": 858,
  "ah@@": 859,
  "Mon@@": 860,
  "sk@@": 861,
  "Union": 862,
  "ents": 863,
  "ler": 864,
  "areas": 865,
  "ang": 866,
  "id": 867,
  "playing": 868,
  "ell": 869,
  "developed": 870,
  "2002": 871,
  "Har@@": 872,
  "Per@@": 873,
  "out@@": 874,
  "Early": 875,
  "release": 876,
  "war@@": 877,
  "lead": 878,
  "El@@": 879,
  "Royal": 880,
  "Be@@": 881,
  "body": 882,
  "ford": 883,
  "While": 884,
  "points": 885,
  "ics": 886,
  "De@@": 887,
  "ore": 888,
  "v": 889,
  "term": 890,
  "ability": 891,
  "Australian": 892,
  "teams": 893,
  "2001": 894,
  "der@@": 895,
  "away": 896,
  "race": 897,
  "Cor@@": 898,
  "air": 899,
  "addition": 900,
  "result": 901,
  "Sp@@": 902,
  "la": 903,
  "our": 904,
  "office": 905,
  "business": 906,
  "live": 907,
  "eb@@": 908,
  "go": 909,
  "“": 910,
  "Indian": 911,
  "ke": 912,
  "and@@": 913,
  "har@@": 914,
  "ever": 915,
  "ten": 916,
  "light": 917,
  "ci@@": 918,
  "control": 919,
  "”": 920,
  "ish": 921,
  "Award": 922,
  "Club": 923,
  "average": 924,
  "ak": 925,
  "common": 926,
  "bl@@": 927,
  "every": 928,
  "ess": 929,
  "mother": 930,
  "29": 931,
  "aw@@": 932,
  "Championship": 933,
  "ya": 934,
  "director": 935,
  "although": 936,
  "similar": 937,
  "via": 938,
  "popular": 939,
  "range": 940,
  "cl@@": 941,
  "cor@@": 942,
  "example": 943,
  "design": 944,
  "list": 945,
  "others": 946,
  "Germany": 947,
  "Man@@": 948,
  "league": 949,
  "tr@@": 950,
  "First": 951,
  "social": 952,
  "himself": 953,
  "up@@": 954,
  "across": 955,
  "ended": 956,
  "ma": 957,
  "daughter": 958,
  "finished": 959,
  "ities": 960,
  "P": 961,
  "we": 962,
  "lt": 963,
  "project": 964,
  "Music": 965,
  "David": 966,
  "min@@": 967,
  "ying": 968,
  "president": 969,
  "bo@@": 970,
  "0.@@": 971,
  "services": 972,
  "gt": 973,
  "Road": 974,
  "living": 975,
  "Company": 976,
  "events": 977,
  "China": 978,
  "Qu@@": 979,
  "...": 980,
  "la@@": 981,
  "50": 982,
  "ru@@": 983,
  "Central": 984,
  "sur@@": 985,
  "sold": 986,
  "though": 987,
  "Court": 988,
  "ck": 989,
  "mo@@": 990,
  "Group": 991,
  "stage": 992,
  "designed": 993,
  "Some": 994,
  "free": 995,
  "ice": 996,
  "how": 997,
  "Ex@@": 998,
  "En@@": 999,
  "w": 1000,
  "te": 1001,
  "Ma@@": 1002,
  "az@@": 1003,
  "gave": 1004,
  "ale": 1005,
  "Japanese": 1006,
  "followed": 1007,
  "Europe": 1008,
  "Un@@": 1009,
  "road": 1010,
  "never": 1011,
  "months": 1012,
  "1999": 1013,
  "Ad@@": 1014,
  "ments": 1015,
  "eight": 1016,
  "available": 1017,
  "da": 1018,
  "coach": 1019,
  "Thomas": 1020,
  "pe@@": 1021,
  "taken": 1022,
  "ble": 1023,
  "ne": 1024,
  "40": 1025,
  "white": 1026,
  "Mor@@": 1027,
  "ants": 1028,
  "open": 1029,
  "character": 1030,
  "construction": 1031,
  "att@@": 1032,
  "Pro@@": 1033,
  "once": 1034,
  "U": 1035,
  "official": 1036,
  "performed": 1037,
  "Ab@@": 1038,
  "completed": 1039,
  "eg@@": 1040,
  "Air": 1041,
  "Robert": 1042,
  "ka": 1043,
  "Japan": 1044,
  "largest": 1045,
  "active": 1046,
  "den@@": 1047,
  "31": 1048,
  "current": 1049,
  "UK": 1050,
  "Washington": 1051,
  "reported": 1052,
  "Sc@@": 1053,
  "Her": 1054,
  "modern": 1055,
  "Charles": 1056,
  "res@@": 1057,
  "young": 1058,
  "seven": 1059,
  "get": 1060,
  "Center": 1061,
  "ur": 1062,
  "see": 1063,
  "leading": 1064,
  "remained": 1065,
  "ant@@": 1066,
  "An": 1067,
  "gra@@": 1068,
  "sent": 1069,
  "Western": 1070,
  "should": 1071,
  "players": 1072,
  "ach@@": 1073,
  "1998": 1074,
  "Hall": 1075,
  "track": 1076,
  "ful": 1077,
  "songs": 1078,
  "Other": 1079,
  "14@@": 1080,
  "Ro@@": 1081,
  "Institute": 1082,
  "process": 1083,
  "Tra@@": 1084,
  "originally": 1085,
  "seen": 1086,
  "Department": 1087,
  "brother": 1088,
  "tor": 1089,
  "me": 1090,
  "Russian": 1091,
  "cre@@": 1092,
  "fin@@": 1093,
  "G": 1094,
  "Since": 1095,
  "study": 1096,
  "directed": 1097,
  "refer": 1098,
  "ev@@": 1099,
  "board": 1100,
  "currently": 1101,
  "return": 1102,
  "great": 1103,
  "uses": 1104,
  "comp@@": 1105,
  "features": 1106,
  "Chinese": 1107,
  "ality": 1108,
  "performance": 1109,
  "ot": 1110,
  "X": 1111,
  "ck@@": 1112,
  "ters": 1113,
  "post": 1114,
  "po@@": 1115,
  "1996": 1116,
  "te@@": 1117,
  "groups": 1118,
  "ically": 1119,
  "Although": 1120,
  "ological": 1121,
  "Island": 1122,
  "includes": 1123,
  "ative": 1124,
  "Paul": 1125,
  "ell@@": 1126,
  "throughout": 1127,
  "training": 1128,
  "help": 1129,
  "Society": 1130,
  "Canadian": 1131,
  "no@@": 1132,
  "du@@": 1133,
  "na": 1134,
  "ville": 1135,
  "Se@@": 1136,
  "all@@": 1137,
  "bre@@": 1138,
  "car": 1139,
  "forces": 1140,
  "gu@@": 1141,
  "placed": 1142,
  "awarded": 1143,
  "featured": 1144,
  "que": 1145,
  "does": 1146,
  "usually": 1147,
  "fire": 1148,
  "ages": 1149,
  "African": 1150,
  "come": 1151,
  "Bo@@": 1152,
  "Su@@": 1153,
  "wood": 1154,
  "schools": 1155,
  "involved": 1156,
  "ile": 1157,
  "either": 1158,
  "1997": 1159,
  "added": 1160,
  "stated": 1161,
  "ik@@": 1162,
  "information": 1163,
  "eventually": 1164,
  "Mal@@": 1165,
  "Mo@@": 1166,
  "Col@@": 1167,
  "Minister": 1168,
  "met@@": 1169,
  "tion": 1170,
  "episode": 1171,
  "gen@@": 1172,
  "Its": 1173,
  "ath@@": 1174,
  "front": 1175,
  "inc@@": 1176,
  "ys": 1177,
  "good": 1178,
  "ake": 1179,
  "you": 1180,
  "V": 1181,
  "black": 1182,
  "Academy": 1183,
  "ue": 1184,
  "countries": 1185,
  "Ac@@": 1186,
  "ash": 1187,
  "ner": 1188,
  "degree": 1189,
  "1,@@": 1190,
  "close": 1191,
  "replaced": 1192,
  "iz@@": 1193,
  "Act": 1194,
  "ber": 1195,
  "force": 1196,
  "Women": 1197,
  "human": 1198,
  "els": 1199,
  "air@@": 1200,
  "central": 1201,
  "ory": 1202,
  "court": 1203,
  "ker": 1204,
  "ster": 1205,
  "families": 1206,
  "winning": 1207,
  "action": 1208,
  "f": 1209,
  "special": 1210,
  "media": 1211,
  "related": 1212,
  "Africa": 1213,
  "private": 1214,
  "1995": 1215,
  "fourth": 1216,
  "á@@": 1217,
  "states": 1218,
  "13@@": 1219,
  "competition": 1220,
  "st": 1221,
  "police": 1222,
  "parts": 1223,
  "provided": 1224,
  "ships": 1225,
  "ma@@": 1226,
  "ade": 1227,
  "to@@": 1228,
  "ara": 1229,
  "rights": 1230,
  "upon": 1231,
  "western": 1232,
  "ino": 1233,
  "act": 1234,
  "1994": 1235,
  "1992": 1236,
  "killed": 1237,
  "ists": 1238,
  "mer@@": 1239,
  "reached": 1240,
  "college": 1241,
  "ste@@": 1242,
  "owned": 1243,
  "Ne@@": 1244,
  "center": 1245,
  "Great": 1246,
  "ran": 1247,
  "must": 1248,
  "previous": 1249,
  "listed": 1250,
  "let": 1251,
  "To": 1252,
  "0s": 1253,
  "km": 1254,
  "om": 1255,
  "Spanish": 1256,
  "rate": 1257,
  "size": 1258,
  "List": 1259,
  "K": 1260,
  "Michael": 1261,
  "ground": 1262,
  "ats": 1263,
  "above": 1264,
  "Italian": 1265,
  "Henry": 1266,
  "Lake": 1267,
  "Kar@@": 1268,
  "change": 1269,
  "2.@@": 1270,
  "type": 1271,
  "radio": 1272,
  "least": 1273,
  "Bur@@": 1274,
  "ata": 1275,
  "ud@@": 1276,
  "Best": 1277,
  "division": 1278,
  "ely": 1279,
  "writing": 1280,
  "Football": 1281,
  "aircraft": 1282,
  "ches": 1283,
  "ational": 1284,
  "Cl@@": 1285,
  "attended": 1286,
  "closed": 1287,
  "era": 1288,
  "St": 1289,
  "saw": 1290,
  "ars": 1291,
  "night": 1292,
  "Or@@": 1293,
  "sion": 1294,
  "changed": 1295,
  "our@@": 1296,
  "river": 1297,
  "cap@@": 1298,
  "space": 1299,
  "person": 1300,
  "introduced": 1301,
  "ines": 1302,
  "scored": 1303,
  "contract": 1304,
  "Republic": 1305,
  "attack": 1306,
  "rock": 1307,
  "Ber@@": 1308,
  "ati@@": 1309,
  "section": 1310,
  "ure": 1311,
  "campaign": 1312,
  "decided": 1313,
  "Awards": 1314,
  "railway": 1315,
  "her@@": 1316,
  "White": 1317,
  "amb@@": 1318,
  "ane": 1319,
  "books": 1320,
  "shows": 1321,
  "Cal@@": 1322,
  "ok@@": 1323,
  "start": 1324,
  "put": 1325,
  "met": 1326,
  "female": 1327,
  "census": 1328,
  "det@@": 1329,
  "He@@": 1330,
  "il": 1331,
  "ran@@": 1332,
  "films": 1333,
  "Mac@@": 1334,
  "Career": 1335,
  "Ireland": 1336,
  "ens@@": 1337,
  "structure": 1338,
  "ho@@": 1339,
  "ators": 1340,
  "Saint": 1341,
  "defeated": 1342,
  "1993": 1343,
  "forms": 1344,
  "Texas": 1345,
  "success": 1346,
  "1990": 1347,
  "goal": 1348,
  "studio": 1349,
  "ward": 1350,
  "inv@@": 1351,
  "Fl@@": 1352,
  "mid": 1353,
  "ial": 1354,
  "yl@@": 1355,
  "For@@": 1356,
  "ov": 1357,
  "previously": 1358,
  "tive": 1359,
  "ten@@": 1360,
  "é": 1361,
  "Museum": 1362,
  "market": 1363,
  "Following": 1364,
  "1991": 1365,
  "ari@@": 1366,
  "Education": 1367,
  "lies": 1368,
  "Her@@": 1369,
  "La": 1370,
  "Two": 1371,
  "Kingdom": 1372,
  "ends": 1373,
  "regular": 1374,
  "rather": 1375,
  "wing": 1376,
  "Pre@@": 1377,
  "room": 1378,
  "Nor@@": 1379,
  "Christian": 1380,
  "eh@@": 1381,
  "instead": 1382,
  "trans@@": 1383,
  "Bl@@": 1384,
  "Black": 1385,
  "ol": 1386,
  "almost": 1387,
  "organization": 1388,
  "ist@@": 1389,
  "represented": 1390,
  "provide": 1391,
  "buildings": 1392,
  ",000": 1393,
  "Com@@": 1394,
  "wide": 1395,
  "successful": 1396,
  "ani": 1397,
  "Government": 1398,
  "taking": 1399,
  "Peter": 1400,
  "Ho@@": 1401,
  "Art": 1402,
  "ai@@": 1403,
  "model": 1404,
  "imp@@": 1405,
  "tournament": 1406,
  "week": 1407,
  "date": 1408,
  "1.@@": 1409,
  "whose": 1410,
  "novel": 1411,
  "ub@@": 1412,
  "ving": 1413,
  "stone": 1414,
  "Tri@@": 1415,
  "Los": 1416,
  "Roman": 1417,
  "Paris": 1418,
  "behind": 1419,
  "health": 1420,
  "res": 1421,
  "Sal@@": 1422,
  "lived": 1423,
  "Mer@@": 1424,
  "Me@@": 1425,
  "self": 1426,
  "ged": 1427,
  "brought": 1428,
  "ger": 1429,
  "app@@": 1430,
  "lines": 1431,
  "Gar@@": 1432,
  "10@@": 1433,
  "units": 1434,
  "Committee": 1435,
  "yn@@": 1436,
  "data": 1437,
  "we@@": 1438,
  "Later": 1439,
  "possible": 1440,
  "movement": 1441,
  "wh@@": 1442,
  "ro": 1443,
  "H": 1444,
  "ness": 1445,
  "Grand": 1446,
  "&#124;": 1447,
  "especially": 1448,
  "Catholic": 1449,
  "Smith": 1450,
  "Pl@@": 1451,
  "approximately": 1452,
  "ano": 1453,
  "base": 1454,
  "Bi@@": 1455,
  "super@@": 1456,
  "allowed": 1457,
  "Mary": 1458,
  "def@@": 1459,
  "lu@@": 1460,
  "Zealand": 1461,
  "ots": 1462,
  "ier": 1463,
  "amp@@": 1464,
  "lower": 1465,
  "ending": 1466,
  "ain": 1467,
  "Po@@": 1468,
  "significant": 1469,
  "outside": 1470,
  "Min@@": 1471,
  "ash@@": 1472,
  "ric@@": 1473,
  "industry": 1474,
  "rest": 1475,
  "ann@@": 1476,
  "ir": 1477,
  "cast": 1478,
  "Bu@@": 1479,
  "plays": 1480,
  "1989": 1481,
  "Championships": 1482,
  "ei@@": 1483,
  "primary": 1484,
  "northern": 1485,
  "writer": 1486,
  "cur@@": 1487,
  "cr@@": 1488,
  "mat@@": 1489,
  "soon": 1490,
  "un": 1491,
  "1@@": 1492,
  "disambiguation": 1493,
  "runs": 1494,
  "beginning": 1495,
  "Soviet": 1496,
  "ps": 1497,
  "southern": 1498,
  "comm@@": 1499,
  "No.": 1500,
  "0@@": 1501,
  "Life": 1502,
  "1988": 1503,
  "Richard": 1504,
  "issues": 1505,
  "ek@@": 1506,
  "Red": 1507,
  "arch@@": 1508,
  "1st": 1509,
  "Ver@@": 1510,
  "island": 1511,
  "interest": 1512,
  "forced": 1513,
  "rep@@": 1514,
  "summer": 1515,
  "int@@": 1516,
  "woman": 1517,
  "acc@@": 1518,
  "Olympics": 1519,
  "sl@@": 1520,
  "course": 1521,
  "Festival": 1522,
  "pri@@": 1523,
  "hand": 1524,
  "au": 1525,
  "cer@@": 1526,
  "Summer": 1527,
  "artist": 1528,
  "towards": 1529,
  "alist": 1530,
  "launched": 1531,
  "dy": 1532,
  "Arts": 1533,
  "systems": 1534,
  "Bay": 1535,
  "highest": 1536,
  "spent": 1537,
  "thus": 1538,
  "leader": 1539,
  "aj@@": 1540,
  "ways": 1541,
  "capital": 1542,
  "kn@@": 1543,
  "ath": 1544,
  "dic@@": 1545,
  "itself": 1546,
  "too": 1547,
  "sea": 1548,
  "hit": 1549,
  "Most": 1550,
  "pol@@": 1551,
  "lic@@": 1552,
  "little": 1553,
  "und@@": 1554,
  "W": 1555,
  "ug@@": 1556,
  "cont@@": 1557,
  "ces": 1558,
  "ms": 1559,
  "studies": 1560,
  "dra@@": 1561,
  "prot@@": 1562,
  "sometimes": 1563,
  "whom": 1564,
  "3.@@": 1565,
  "Chicago": 1566,
  "independent": 1567,
  "Virginia": 1568,
  "sw@@": 1569,
  "ee": 1570,
  "Force": 1571,
  "2nd": 1572,
  "opening": 1573,
  "length": 1574,
  "traditional": 1575,
  "higher": 1576,
  "ning": 1577,
  "atory": 1578,
  "studied": 1579,
  "ear@@": 1580,
  "operations": 1581,
  "Film": 1582,
  "ain@@": 1583,
  "older": 1584,
  "magazine": 1585,
  "army": 1586,
  "Second": 1587,
  "ill@@": 1588,
  "Records": 1589,
  "bridge": 1590,
  "far": 1591,
  "spec@@": 1592,
  "appearance": 1593,
  "county": 1594,
  "seat": 1595,
  "running": 1596,
  "location": 1597,
  "generally": 1598,
  "child": 1599,
  "fer@@": 1600,
  "Li@@": 1601,
  "loss": 1602,
  "entered": 1603,
  "ess@@": 1604,
  "60": 1605,
  "route": 1606,
  "ill": 1607,
  "natural": 1608,
  "ography": 1609,
  "strong": 1610,
  "noted": 1611,
  "65": 1612,
  "going": 1613,
  "future": 1614,
  "collection": 1615,
  "genus": 1616,
  "gl@@": 1617,
  "according": 1618,
  "culture": 1619,
  "Bre@@": 1620,
  "ays": 1621,
  "tur@@": 1622,
  "serving": 1623,
  "J.": 1624,
  "Games": 1625,
  "Navy": 1626,
  "1987": 1627,
  "bri@@": 1628,
  "ular": 1629,
  "required": 1630,
  "Te@@": 1631,
  "below": 1632,
  "plant": 1633,
  "1986": 1634,
  "ish@@": 1635,
  "ren@@": 1636,
  "key": 1637,
  "Mexico": 1638,
  "#": 1639,
  "Italy": 1640,
  "network": 1641,
  "ae": 1642,
  "You": 1643,
  "month": 1644,
  "ized": 1645,
  "ement": 1646,
  "dec@@": 1647,
  "iti@@": 1648,
  "Bra@@": 1649,
  "means": 1650,
  "real": 1651,
  "tour": 1652,
  "Hill": 1653,
  "companies": 1654,
  "operated": 1655,
  "rem@@": 1656,
  "practice": 1657,
  "atic": 1658,
  "Northern": 1659,
  "Battle": 1660,
  "matches": 1661,
  "money": 1662,
  "Many": 1663,
  "1984": 1664,
  "park": 1665,
  "anti": 1666,
  "1980": 1667,
  "Pal@@": 1668,
  "Russia": 1669,
  "selected": 1670,
  "Tr@@": 1671,
  "changes": 1672,
  "lin@@": 1673,
  "earlier": 1674,
  "senior": 1675,
  "cases": 1676,
  "complete": 1677,
  "Bro@@": 1678,
  "If": 1679,
  "Angeles": 1680,
  "Sch@@": 1681,
  "centre": 1682,
  "sts": 1683,
  "ire": 1684,
  "not@@": 1685,
  "gold": 1686,
  "ised": 1687,
  "economic": 1688,
  "1985": 1689,
  "results": 1690,
  "acy": 1691,
  "passed": 1692,
  "property": 1693,
  "Greek": 1694,
  "12@@": 1695,
  "ast": 1696,
  "ama": 1697,
  "victory": 1698,
  "500": 1699,
  "increased": 1700,
  "individual": 1701,
  "already": 1702,
  "sports": 1703,
  "20@@": 1704,
  "author": 1705,
  "sol@@": 1706,
  "bs": 1707,
  "associated": 1708,
  "exp@@": 1709,
  "off@@": 1710,
  "ock": 1711,
  "if@@": 1712,
  "me@@": 1713,
  "Lu@@": 1714,
  "majority": 1715,
  "numerous": 1716,
  "limited": 1717,
  "di": 1718,
  "Bal@@": 1719,
  "Sar@@": 1720,
  "contains": 1721,
  "activities": 1722,
  "decision": 1723,
  "Ros@@": 1724,
  "food": 1725,
  "unit": 1726,
  "Joseph": 1727,
  "becoming": 1728,
  "singer": 1729,
  "shot": 1730,
  "ese": 1731,
  "issue": 1732,
  "manager": 1733,
  "commercial": 1734,
  "tro@@": 1735,
  "Day": 1736,
  "Br@@": 1737,
  "word": 1738,
  "gr@@": 1739,
  "view": 1740,
  "find": 1741,
  "competed": 1742,
  "terms": 1743,
  "cover": 1744,
  "tor@@": 1745,
  "Route": 1746,
  "personal": 1747,
  "certain": 1748,
  "move": 1749,
  "my": 1750,
  "1983": 1751,
  "artists": 1752,
  "caused": 1753,
  "love": 1754,
  "-@@": 1755,
  "nine": 1756,
  "award": 1757,
  "initially": 1758,
  "oo@@": 1759,
  "annual": 1760,
  "inf@@": 1761,
  "uc@@": 1762,
  "income": 1763,
  "access": 1764,
  "stri@@": 1765,
  "sm@@": 1766,
  "ring": 1767,
  "enti@@": 1768,
  "Shi@@": 1769,
  "standard": 1770,
  "fall": 1771,
  "Board": 1772,
  "fe@@": 1773,
  "ta": 1774,
  "Sir": 1775,
  "ls": 1776,
  "sal@@": 1777,
  "45": 1778,
  "supported": 1779,
  "face": 1780,
  "student": 1781,
  "post@@": 1782,
  "Wales": 1783,
  "ly@@": 1784,
  "ion@@": 1785,
  "itation": 1786,
  "Service": 1787,
  "better": 1788,
  "goals": 1789,
  "mostly": 1790,
  "retired": 1791,
  "1982": 1792,
  "elections": 1793,
  "trade": 1794,
  "+": 1795,
  "additional": 1796,
  "gar@@": 1797,
  "university": 1798,
  "Irish": 1799,
  "Pacific": 1800,
  "FC": 1801,
  "ric": 1802,
  "200": 1803,
  "particularly": 1804,
  "staff": 1805,
  "adi@@": 1806,
  "Pe@@": 1807,
  "Char@@": 1808,
  "Florida": 1809,
  "ions": 1810,
  "Research": 1811,
  "ette": 1812,
  "row": 1813,
  "ther@@": 1814,
  "tic": 1815,
  "sky": 1816,
  "fact": 1817,
  "past": 1818,
  "eastern": 1819,
  "claimed": 1820,
  "ini": 1821,
  "characters": 1822,
  "Hol@@": 1823,
  "religious": 1824,
  "ena": 1825,
  "III": 1826,
  "mission": 1827,
  "Bel@@": 1828,
  "ition": 1829,
  "ha": 1830,
  "La@@": 1831,
  "Inter@@": 1832,
  "chief": 1833,
  "husband": 1834,
  "fi@@": 1835,
  "col@@": 1836,
  "Southern": 1837,
  "1972": 1838,
  "ites": 1839,
  "ids": 1840,
  "subsequently": 1841,
  "ong@@": 1842,
  "Sk@@": 1843,
  "hom@@": 1844,
  "lands": 1845,
  "thought": 1846,
  "management": 1847,
  "Valley": 1848,
  "Assembly": 1849,
  "officer": 1850,
  "Wil@@": 1851,
  "earned": 1852,
  "Sw@@": 1853,
  "famous": 1854,
  "ili@@": 1855,
  "medical": 1856,
  "1979": 1857,
  "feature": 1858,
  "municipality": 1859,
  "yard": 1860,
  "ca": 1861,
  "plan": 1862,
  "Year": 1863,
  "Pr@@": 1864,
  "ose": 1865,
  "dem@@": 1866,
  "asked": 1867,
  "tu@@": 1868,
  "80": 1869,
  "championship": 1870,
  "parents": 1871,
  "battle": 1872,
  "bur@@": 1873,
  "don": 1874,
  "raised": 1875,
  "iv@@": 1876,
  "That": 1877,
  "create": 1878,
  "science": 1879,
  "today": 1880,
  "legal": 1881,
  "politician": 1882,
  "Gra@@": 1883,
  "bor@@": 1884,
  "edition": 1885,
  "Public": 1886,
  "Parliament": 1887,
  "status": 1888,
  "here": 1889,
  "musical": 1890,
  "im": 1891,
  "remains": 1892,
  "aries": 1893,
  "Louis": 1894,
  "entire": 1895,
  "programs": 1896,
  "give": 1897,
  "Congress": 1898,
  "Province": 1899,
  "star": 1900,
  "70": 1901,
  "?": 1902,
  "stra@@": 1903,
  "Jewish": 1904,
  "ses": 1905,
  "engine": 1906,
  "ron@@": 1907,
  "ging": 1908,
  "Al": 1909,
  "can@@": 1910,
  "iting": 1911,
  "Ge@@": 1912,
  "friend": 1913,
  "ching": 1914,
  "ica": 1915,
  "19th": 1916,
  "relationship": 1917,
  "evidence": 1918,
  "1976": 1919,
  "tors": 1920,
  "ind@@": 1921,
  "hours": 1922,
  "Far@@": 1923,
  "ā@@": 1924,
  "score": 1925,
  "ones": 1926,
  "1974": 1927,
  "ns": 1928,
  "cat@@": 1929,
  "pat@@": 1930,
  "ola": 1931,
  "sister": 1932,
  "report": 1933,
  "Old": 1934,
  "ase": 1935,
  "ail": 1936,
  "operation": 1937,
  "Dar@@": 1938,
  "particular": 1939,
  "ington": 1940,
  "ita": 1941,
  "ff@@": 1942,
  "35": 1943,
  "1981": 1944,
  "minutes": 1945,
  "ney": 1946,
  "des@@": 1947,
  "gi@@": 1948,
  "War@@": 1949,
  "Queen": 1950,
  "Their": 1951,
  "une": 1952,
  "3rd": 1953,
  "ery": 1954,
  "ham": 1955,
  "material": 1956,
  "turn": 1957,
  "1945": 1958,
  "presented": 1959,
  "Spain": 1960,
  "1975": 1961,
  "str@@": 1962,
  "helped": 1963,
  "1968": 1964,
  "energy": 1965,
  "Ser@@": 1966,
  "names": 1967,
  "Law": 1968,
  "oun@@": 1969,
  "serve": 1970,
  "1970": 1971,
  "Commission": 1972,
  "equ@@": 1973,
  "believed": 1974,
  "Fre@@": 1975,
  "response": 1976,
  "ize": 1977,
  "1978": 1978,
  "em": 1979,
  "Du@@": 1980,
  "referred": 1981,
  "shown": 1982,
  "specific": 1983,
  "Rec@@": 1984,
  "Reg@@": 1985,
  "alism": 1986,
  "meeting": 1987,
  "Railway": 1988,
  "leaving": 1989,
  "rated": 1990,
  "char@@": 1991,
  "Times": 1992,
  "weeks": 1993,
  "90": 1994,
  "got": 1995,
  "Democratic": 1996,
  "Ri@@": 1997,
  "larger": 1998,
  "composed": 1999,
  "Martin": 2000,
  "eng@@": 2001,
  "complex": 2002,
  "basketball": 2003,
  "seasons": 2004,
  "Science": 2005,
  "fre@@": 2006,
  "turned": 2007,
  "Despite": 2008,
  "ball": 2009,
  "Sam@@": 2010,
  "ym@@": 2011,
  "likely": 2012,
  "Line": 2013,
  "acquired": 2014,
  "houses": 2015,
  "vote": 2016,
  "Personal": 2017,
  "ths": 2018,
  "longer": 2019,
  "Im@@": 2020,
  "offered": 2021,
  "Green": 2022,
  "Empire": 2023,
  "Can@@": 2024,
  "ack": 2025,
  "Au@@": 2026,
  "ella": 2027,
  "q@@": 2028,
  "carried": 2029,
  "Mat@@": 2030,
  "berg": 2031,
  "covered": 2032,
  "fight": 2033,
  "5.@@": 2034,
  "ined": 2035,
  "People": 2036,
  "takes": 2037,
  "1973": 2038,
  "issued": 2039,
  "remaining": 2040,
  "failed": 2041,
  "bed": 2042,
  "mainly": 2043,
  "ture": 2044,
  "Mad@@": 2045,
  "multiple": 2046,
  "surface": 2047,
  "footballer": 2048,
  "starting": 2049,
  "constructed": 2050,
  "ously": 2051,
  "deal": 2052,
  "increase": 2053,
  "promoted": 2054,
  "1977": 2055,
  "aired": 2056,
  "theory": 2057,
  "Eastern": 2058,
  "Series": 2059,
  "Ram@@": 2060,
  "graduated": 2061,
  "regional": 2062,
  "Lord": 2063,
  "policy": 2064,
  "But": 2065,
  "stations": 2066,
  "ref@@": 2067,
  "ium": 2068,
  "va": 2069,
  "need": 2070,
  "federal": 2071,
  "overall": 2072,
  "ene": 2073,
  "del": 2074,
  "native": 2075,
  "source": 2076,
  "Chief": 2077,
  "Bor@@": 2078,
  "cost": 2079,
  "A.": 2080,
  "actor": 2081,
  "Town": 2082,
  "Big": 2083,
  "ja": 2084,
  "themselves": 2085,
  "tly": 2086,
  "Station": 2087,
  "1971": 2088,
  "proposed": 2089,
  "Conference": 2090,
  "male": 2091,
  "financial": 2092,
  "subject": 2093,
  "Star": 2094,
  "Edward": 2095,
  "sted": 2096,
  "effect": 2097,
  "aged": 2098,
  "anc@@": 2099,
  "oned": 2100,
  "Em@@": 2101,
  "asi@@": 2102,
  "ited": 2103,
  "ute": 2104,
  "j": 2105,
  "1980s": 2106,
  "medal": 2107,
  "appearances": 2108,
  "App@@": 2109,
  "troops": 2110,
  "Radio": 2111,
  "variety": 2112,
  "consists": 2113,
  "1969": 2114,
  "separate": 2115,
  "Gr@@": 2116,
  "aging": 2117,
  "latter": 2118,
  "tran@@": 2119,
  "ret@@": 2120,
  "Sur@@": 2121,
  "individuals": 2122,
  "Carolina": 2123,
  "command": 2124,
  "Britain": 2125,
  "Mah@@": 2126,
  "32": 2127,
  "allow": 2128,
  "Poland": 2129,
  "ip@@": 2130,
  "experience": 2131,
  "always": 2132,
  "wor@@": 2133,
  "Cre@@": 2134,
  "ved": 2135,
  "done": 2136,
  "speed": 2137,
  "Man": 2138,
  "Tor@@": 2139,
  "1967": 2140,
  "direct": 2141,
  "Brown": 2142,
  "ao": 2143,
  "cities": 2144,
  "cultural": 2145,
  "7.@@": 2146,
  "middle": 2147,
  "fully": 2148,
  "bro@@": 2149,
  "ada": 2150,
  "4.@@": 2151,
  "master": 2152,
  "table": 2153,
  "worth": 2154,
  "ization": 2155,
  "BC": 2156,
  "Team": 2157,
  "influence": 2158,
  "appears": 2159,
  "square": 2160,
  "broadcast": 2161,
  "Dutch": 2162,
  "recording": 2163,
  "marriage": 2164,
  "uk@@": 2165,
  "department": 2166,
  "ze": 2167,
  "civil": 2168,
  "ster@@": 2169,
  "oy@@": 2170,
  "train": 2171,
  "historical": 2172,
  "meaning": 2173,
  "coming": 2174,
  "titled": 2175,
  "Ph@@": 2176,
  "prior": 2177,
  "fifth": 2178,
  "professor": 2179,
  "conditions": 2180,
  "20th": 2181,
  "£": 2182,
  "ably": 2183,
  "Both": 2184,
  "finals": 2185,
  "oil": 2186,
  "pp@@": 2187,
  "Si@@": 2188,
  "6.@@": 2189,
  "Chi@@": 2190,
  "ains": 2191,
  "4th": 2192,
  "producer": 2193,
  "za": 2194,
  "despite": 2195,
  "Ter@@": 2196,
  "society": 2197,
  "directly": 2198,
  "bra@@": 2199,
  "care": 2200,
  "ered": 2201,
  "Lee": 2202,
  "Open": 2203,
  "Biography": 2204,
  "quality": 2205,
  "attempt": 2206,
  "Bank": 2207,
  "rac@@": 2208,
  "tracks": 2209,
  "responsible": 2210,
  "words": 2211,
  "ched": 2212,
  "discovered": 2213,
  "br@@": 2214,
  "ental": 2215,
  "divided": 2216,
  "1964": 2217,
  "Dr.": 2218,
  "sound": 2219,
  "ures": 2220,
  "Creek": 2221,
  "1970s": 2222,
  "Prince": 2223,
  "arrived": 2224,
  "records": 2225,
  "Mi@@": 2226,
  "provides": 2227,
  "Love": 2228,
  "Asian": 2229,
  "Another": 2230,
  "ently": 2231,
  "managed": 2232,
  "port": 2233,
  "io": 2234,
  "form@@": 2235,
  "ow": 2236,
  "wanted": 2237,
  "nearly": 2238,
  "We": 2239,
  "test": 2240,
  "nearby": 2241,
  "foreign": 2242,
  "Mark": 2243,
  "reg@@": 2244,
  "sec@@": 2245,
  "Is@@": 2246,
  "Dis@@": 2247,
  "tre@@": 2248,
  "ari": 2249,
  "ala": 2250,
  "recent": 2251,
  "por@@": 2252,
  "Jones": 2253,
  "ach": 2254,
  "press": 2255,
  "Under": 2256,
  "organized": 2257,
  "border": 2258,
  "Scotland": 2259,
  "fish": 2260,
  "movie": 2261,
  "finally": 2262,
  "plans": 2263,
  "transferred": 2264,
  "ori@@": 2265,
  "news": 2266,
  "aff@@": 2267,
  "ams": 2268,
  "yn": 2269,
  "administrative": 2270,
  "coun@@": 2271,
  "land@@": 2272,
  "officially": 2273,
  "Latin": 2274,
  "í@@": 2275,
  "Ke@@": 2276,
  "technology": 2277,
  "Hu@@": 2278,
  "union": 2279,
  "Pennsylvania": 2280,
  "bank": 2281,
  "2022": 2282,
  "2,@@": 2283,
  "province": 2284,
  "ax@@": 2285,
  "loc@@": 2286,
  "told": 2287,
  "extended": 2288,
  "participated": 2289,
  "cut": 2290,
  "Wal@@": 2291,
  "vis@@": 2292,
  "oph@@": 2293,
  "Theatre": 2294,
  "64": 2295,
  "elec@@": 2296,
  "We@@": 2297,
  "enough": 2298,
  "Senate": 2299,
  "Sub@@": 2300,
  "prec@@": 2301,
  "God": 2302,
  "primarily": 2303,
  "Ra@@": 2304,
  "sel@@": 2305,
  "ali@@": 2306,
  "Development": 2307,
  "Gen@@": 2308,
  "heavy": 2309,
  "ank@@": 2310,
  "sn@@": 2311,
  "1960": 2312,
  "problems": 2313,
  "might": 2314,
  "comes": 2315,
  "bus": 2316,
  "value": 2317,
  "inn@@": 2318,
  "Foundation": 2319,
  "tw@@": 2320,
  "rural": 2321,
  "mark": 2322,
  "saying": 2323,
  "idea": 2324,
  "review": 2325,
  "1965": 2326,
  "mm": 2327,
  "cause": 2328,
  "Order": 2329,
  "Jo@@": 2330,
  "1966": 2331,
  "text": 2332,
  "idae": 2333,
  "Pan@@": 2334,
  "C.": 2335,
  "editor": 2336,
  "br": 2337,
  "ads": 2338,
  "Michigan": 2339,
  "council": 2340,
  "candidate": 2341,
  "residents": 2342,
  "Res@@": 2343,
  "pre": 2344,
  "bul@@": 2345,
  "alongside": 2346,
  "elements": 2347,
  "so@@": 2348,
  "Gal@@": 2349,
  "1944": 2350,
  "ick": 2351,
  "Ohio": 2352,
  "Men": 2353,
  "sons": 2354,
  "workers": 2355,
  "Civil": 2356,
  "double": 2357,
  "ac": 2358,
  "shi@@": 2359,
  "Val@@": 2360,
  "Ak@@": 2361,
  "ek": 2362,
  "Health": 2363,
  "appear": 2364,
  "lin": 2365,
  "whether": 2366,
  "conc@@": 2367,
  "friends": 2368,
  "Centre": 2369,
  "draw": 2370,
  "levels": 2371,
  "sen": 2372,
  "places": 2373,
  "function": 2374,
  "newspaper": 2375,
  "Francisco": 2376,
  "Mel@@": 2377,
  "ung": 2378,
  "leave": 2379,
  "amount": 2380,
  "grew": 2381,
  "nature": 2382,
  "channel": 2383,
  "acting": 2384,
  "positive": 2385,
  "Fe@@": 2386,
  "ises": 2387,
  "do@@": 2388,
  "die": 2389,
  "products": 2390,
  "Governor": 2391,
  "ked": 2392,
  "ored": 2393,
  "cross": 2394,
  "ening": 2395,
  "historic": 2396,
  "iss@@": 2397,
  "hal@@": 2398,
  "1990s": 2399,
  "security": 2400,
  "growth": 2401,
  "Ru@@": 2402,
  "eds": 2403,
  "Boston": 2404,
  "Republican": 2405,
  "aya": 2406,
  "Young": 2407,
  "syn@@": 2408,
  "produce": 2409,
  "ser@@": 2410,
  "Sa@@": 2411,
  "Arch@@": 2412,
  "renamed": 2413,
  "households": 2414,
  "lives": 2415,
  "ie@@": 2416,
  "pped": 2417,
  "ts@@": 2418,
  "mer": 2419,
  "makes": 2420,
  "ened": 2421,
  "hy@@": 2422,
  "pres@@": 2423,
  "Pol@@": 2424,
  "projects": 2425,
  "assigned": 2426,
  "whole": 2427,
  "Scottish": 2428,
  "Williams": 2429,
  "M.": 2430,
  "cru@@": 2431,
  "call": 2432,
  "hold": 2433,
  "ws": 2434,
  "Asia": 2435,
  "ering": 2436,
  "30@@": 2437,
  "host": 2438,
  "stars": 2439,
  "activity": 2440,
  "uted": 2441,
  "vin@@": 2442,
  "No": 2443,
  "continue": 2444,
  "resi@@": 2445,
  "Israel": 2446,
  "lack": 2447,
  "hospital": 2448,
  "Director": 2449,
  "build": 2450,
  "chart": 2451,
  "Sea": 2452,
  "44": 2453,
  "numbers": 2454,
  "label": 2455,
  "CD": 2456,
  "Polish": 2457,
  "Secretary": 2458,
  "parish": 2459,
  "vel@@": 2460,
  "J": 2461,
  "planned": 2462,
  "executive": 2463,
  "ious": 2464,
  "Three": 2465,
  "giving": 2466,
  "To@@": 2467,
  "ji": 2468,
  "owner": 2469,
  "ordered": 2470,
  "Gi@@": 2471,
  "1960s": 2472,
  "officers": 2473,
  "Johnson": 2474,
  "Major": 2475,
  "rule": 2476,
  "conducted": 2477,
  "pen@@": 2478,
  "8.@@": 2479,
  "New@@": 2480,
  "prominent": 2481,
  "intended": 2482,
  "Mag@@": 2483,
  "cli@@": 2484,
  "Columbia": 2485,
  "Alexander": 2486,
  "Georgia": 2487,
  "Fort": 2488,
  "Pri@@": 2489,
  "acts": 2490,
  "forward": 2491,
  "ger@@": 2492,
  "ick@@": 2493,
  "notable": 2494,
  "AR@@": 2495,
  "ned": 2496,
  "ven@@": 2497,
  "minor": 2498,
  "yards": 2499,
  "assi@@": 2500,
  "Ha@@": 2501,
  "75": 2502,
  "US@@": 2503,
  "ski": 2504,
  "etic": 2505,
  "highly": 2506,
  "races": 2507,
  "nation": 2508,
  "youth": 2509,
  "El": 2510,
  "females": 2511,
  "Office": 2512,
  "stories": 2513,
  "Er@@": 2514,
  "Hospital": 2515,
  "moving": 2516,
  "sing": 2517,
  "coast": 2518,
  "Mil@@": 2519,
  "letter": 2520,
  "agreed": 2521,
  "ora": 2522,
  "del@@": 2523,
  "soldiers": 2524,
  "Kh@@": 2525,
  "Highway": 2526,
  "removed": 2527,
  "Family": 2528,
  "commonly": 2529,
  "ke@@": 2530,
  "revealed": 2531,
  "1962": 2532,
  "Ash@@": 2533,
  "stop": 2534,
  "gener@@": 2535,
  "ight": 2536,
  "ishes": 2537,
  "bar": 2538,
  "Super@@": 2539,
  "ern@@": 2540,
  "formerly": 2541,
  "join": 2542,
  "1948": 2543,
  "administration": 2544,
  "Middle": 2545,
  "1963": 2546,
  "essed": 2547,
  "cy@@": 2548,
  "Avenue": 2549,
  "Comm@@": 2550,
  "scene": 2551,
  "ins@@": 2552,
  "yet": 2553,
  "33": 2554,
  "basis": 2555,
  "ancient": 2556,
  "No@@": 2557,
  "lif@@": 2558,
  "capacity": 2559,
  "color": 2560,
  "designated": 2561,
  "mod@@": 2562,
  "ó@@": 2563,
  "My": 2564,
  "eth@@": 2565,
  "Go@@": 2566,
  "ett": 2567,
  "effects": 2568,
  "ace": 2569,
  "Hor@@": 2570,
  "sites": 2571,
  "marked": 2572,
  "1942": 2573,
  "Cro@@": 2574,
  "Super": 2575,
  "rat@@": 2576,
  "Historic": 2577,
  "follows": 2578,
  "Bill": 2579,
  "As@@": 2580,
  "settlement": 2581,
  "distance": 2582,
  "treatment": 2583,
  "je@@": 2584,
  "paper": 2585,
  "agreement": 2586,
  "Sydney": 2587,
  "hor@@": 2588,
  "Mur@@": 2589,
  "singles": 2590,
  "smaller": 2591,
  "awards": 2592,
  "quickly": 2593,
  "News": 2594,
  "dedicated": 2595,
  "36": 2596,
  "Gro@@": 2597,
  "purchased": 2598,
  "Also": 2599,
  "cs": 2600,
  "ung@@": 2601,
  "floor": 2602,
  "ih@@": 2603,
  "Corps": 2604,
  "von": 2605,
  "B.": 2606,
  "ties": 2607,
  "charge": 2608,
  "fellow": 2609,
  "5th": 2610,
  "potential": 2611,
  "leaders": 2612,
  "Tro@@": 2613,
  "sign": 2614,
  "viol@@": 2615,
  "ole": 2616,
  "initial": 2617,
  "weight": 2618,
  "Tour": 2619,
  "yer": 2620,
  "drama": 2621,
  "1940": 2622,
  "cul@@": 2623,
  "dri@@": 2624,
  "facilities": 2625,
  "immediately": 2626,
  "oon": 2627,
  "val@@": 2628,
  "assistant": 2629,
  "Coast": 2630,
  "defeat": 2631,
  "oms": 2632,
  "wi@@": 2633,
  "ago": 2634,
  "oli@@": 2635,
  "ony": 2636,
  "Cas@@": 2637,
  "firm": 2638,
  "fo@@": 2639,
  "BBC": 2640,
  "focus": 2641,
  "positions": 2642,
  "ey@@": 2643,
  "pass": 2644,
  "log@@": 2645,
  "igh@@": 2646,
  "respectively": 2647,
  "estimated": 2648,
  "Ministry": 2649,
  "Ap@@": 2650,
  "9.@@": 2651,
  "tel@@": 2652,
  "1939": 2653,
  "median": 2654,
  "1961": 2655,
  "1941": 2656,
  "Kn@@": 2657,
  "winner": 2658,
  "Cur@@": 2659,
  "vo@@": 2660,
  "expected": 2661,
  "lot": 2662,
  "Ger@@": 2663,
  "eman": 2664,
  "Jack": 2665,
  "istic": 2666,
  "fied": 2667,
  "ver": 2668,
  "efforts": 2669,
  "ut": 2670,
  "Ben@@": 2671,
  "ope": 2672,
  "cal@@": 2673,
  "conference": 2674,
  "Kal@@": 2675,
  "declared": 2676,
  "Jersey": 2677,
  "oh@@": 2678,
  "serves": 2679,
  "25@@": 2680,
  "ab": 2681,
  "identified": 2682,
  "article": 2683,
  "E.": 2684,
  "Of": 2685,
  "types": 2686,
  "1946": 2687,
  "clubs": 2688,
  "ished": 2689,
  "typically": 2690,
  "Little": 2691,
  "housing": 2692,
  "che@@": 2693,
  "1956": 2694,
  "relations": 2695,
  "cars": 2696,
  "Don@@": 2697,
  "mis@@": 2698,
  "1943": 2699,
  "Dun@@": 2700,
  "onal": 2701,
  "ius": 2702,
  "AS@@": 2703,
  "formation": 2704,
  "ron": 2705,
  "Blue": 2706,
  "ort": 2707,
  "shire": 2708,
  "Pat@@": 2709,
  "poor": 2710,
  "compared": 2711,
  "da@@": 2712,
  "ges": 2713,
  "physical": 2714,
  "green": 2715,
  "reach": 2716,
  "gun": 2717,
  "inside": 2718,
  "ave": 2719,
  "largely": 2720,
  "founder": 2721,
  "gained": 2722,
  "needed": 2723,
  "probably": 2724,
  "format": 2725,
  "Airport": 2726,
  "Federal": 2727,
  "tim@@": 2728,
  "Ko@@": 2729,
  "percent": 2730,
  "Olympic": 2731,
  "entry": 2732,
  "featuring": 2733,
  "Wh@@": 2734,
  "flight": 2735,
  "S.": 2736,
  "Ly@@": 2737,
  "Dec@@": 2738,
  "Victoria": 2739,
  "roles": 2740,
  "aka": 2741,
  "Tur@@": 2742,
  "attention": 2743,
  "destroyed": 2744,
  "34": 2745,
  "Bri@@": 2746,
  "operating": 2747,
  "captured": 2748,
  "trial": 2749,
  "ple@@": 2750,
  "Wor@@": 2751,
  "dr@@": 2752,
  "hosted": 2753,
  "museum": 2754,
  "scale": 2755,
  "Illinois": 2756,
  "CA@@": 2757,
  "upper": 2758,
  "van": 2759,
  "hum@@": 2760,
  "votes": 2761,
  "1958": 2762,
  "Post": 2763,
  "website": 2764,
  "art@@": 2765,
  "enn@@": 2766,
  "hard": 2767,
  "ense": 2768,
  "ust": 2769,
  "back@@": 2770,
  "street": 2771,
  "branch": 2772,
  "Earth": 2773,
  "Justice": 2774,
  "gas": 2775,
  "aid": 2776,
  "committee": 2777,
  "Berlin": 2778,
  "cks": 2779,
  "languages": 2780,
  "anti@@": 2781,
  "ented": 2782,
  "Rock": 2783,
  "ex": 2784,
  "Jean": 2785,
  "widely": 2786,
  "distribution": 2787,
  "1950": 2788,
  "ases": 2789,
  "ians": 2790,
  "paid": 2791,
  "H.": 2792,
  "crew": 2793,
  "bers": 2794,
  "sources": 2795,
  "Ed@@": 2796,
  "San@@": 2797,
  "W.": 2798,
  "ame": 2799,
  "mixed": 2800,
  "38": 2801,
  "confirmed": 2802,
  "piece": 2803,
  "ye": 2804,
  "communities": 2805,
  "ona": 2806,
  "portion": 2807,
  "ap": 2808,
  "lat@@": 2809,
  "suffered": 2810,
  "rig@@": 2811,
  "6th": 2812,
  "ail@@": 2813,
  "online": 2814,
  "ib@@": 2815,
  "wall": 2816,
  "accepted": 2817,
  "Scott": 2818,
  "ft": 2819,
  "pur@@": 2820,
  "direction": 2821,
  "occurred": 2822,
  "Mount": 2823,
  "computer": 2824,
  "leadership": 2825,
  "ez": 2826,
  "cell": 2827,
  "ki": 2828,
  "spring": 2829,
  "actions": 2830,
  "ranked": 2831,
  "ances": 2832,
  "ately": 2833,
  "go@@": 2834,
  "Each": 2835,
  "cal": 2836,
  "leaves": 2837,
  "semi": 2838,
  "Bul@@": 2839,
  "meet": 2840,
  "ulation": 2841,
  "Frank": 2842,
  "combined": 2843,
  "pay": 2844,
  "don@@": 2845,
  "scoring": 2846,
  "ologist": 2847,
  "miles": 2848,
  "Mas@@": 2849,
  "ef@@": 2850,
  "onia": 2851,
  "estate": 2852,
  "territory": 2853,
  "taught": 2854,
  "metal": 2855,
  "Tar@@": 2856,
  "adopted": 2857,
  "Supreme": 2858,
  "episodes": 2859,
  "Iran": 2860,
  "academic": 2861,
  "Mid@@": 2862,
  "Cy@@": 2863,
  "job": 2864,
  "Corporation": 2865,
  "1947": 2866,
  "keep": 2867,
  "My@@": 2868,
  "product": 2869,
  "Kong": 2870,
  "mel@@": 2871,
  "Hon@@": 2872,
  "FM": 2873,
  "recognized": 2874,
  "00@@": 2875,
  "Elizabeth": 2876,
  "net": 2877,
  "Gre@@": 2878,
  "therefore": 2879,
  "fell": 2880,
  "plants": 2881,
  "1957": 2882,
  "Massachusetts": 2883,
  "zed": 2884,
  "concept": 2885,
  "At@@": 2886,
  "Hong": 2887,
  "IS@@": 2888,
  "Islands": 2889,
  "mentioned": 2890,
  "approach": 2891,
  "ass": 2892,
  "pressure": 2893,
  "AC@@": 2894,
  "resulted": 2895,
  "code": 2896,
  "Korea": 2897,
  "teacher": 2898,
  "1959": 2899,
  "rel@@": 2900,
  "felt": 2901,
  "Before": 2902,
  "but@@": 2903,
  "Ag@@": 2904,
  "ri": 2905,
  "camp": 2906,
  "sex": 2907,
  "reviews": 2908,
  "mass": 2909,
  "equipment": 2910,
  "proc@@": 2911,
  "7th": 2912,
  "alone": 2913,
  "acted": 2914,
  "titles": 2915,
  "hr@@": 2916,
  "purpose": 2917,
  "Hy@@": 2918,
  "Sports": 2919,
  "analysis": 2920,
  "ea": 2921,
  "prison": 2922,
  "gro@@": 2923,
  "dance": 2924,
  "nominated": 2925,
  "soci@@": 2926,
  "Ste@@": 2927,
  "commissioned": 2928,
  "campus": 2929,
  "37": 2930,
  "ier@@": 2931,
  "sed": 2932,
  "real@@": 2933,
  "expl@@": 2934,
  "1952": 2935,
  "Ti@@": 2936,
  "ect": 2937,
  "ome": 2938,
  "recently": 2939,
  "Pi@@": 2940,
  "Sol@@": 2941,
  "heart": 2942,
  "West@@": 2943,
  "critical": 2944,
  "Time": 2945,
  "urban": 2946,
  "ects": 2947,
  "ga": 2948,
  "dro@@": 2949,
  "presence": 2950,
  "Tu@@": 2951,
  "rating": 2952,
  "Som@@": 2953,
  "expanded": 2954,
  "arms": 2955,
  "hand@@": 2956,
  "Del@@": 2957,
  "pe": 2958,
  "method": 2959,
  "48": 2960,
  "wel@@": 2961,
  "champion": 2962,
  "Stadium": 2963,
  "albums": 2964,
  "ura": 2965,
  "kl@@": 2966,
  "Han@@": 2967,
  "ced": 2968,
  "silver": 2969,
  "platform": 2970,
  "store": 2971,
  "connected": 2972,
  "cra@@": 2973,
  "42": 2974,
  "Duke": 2975,
  "account": 2976,
  "ards": 2977,
  "Born": 2978,
  "itt@@": 2979,
  "oul@@": 2980,
  "box": 2981,
  "mot@@": 2982,
  "cent@@": 2983,
  "parties": 2984,
  "ood": 2985,
  "atives": 2986,
  "Bishop": 2987,
  "Background": 2988,
  "ices": 2989,
  "tional": 2990,
  "tic@@": 2991,
  "Professor": 2992,
  "Tom": 2993,
  "Swedish": 2994,
  "itor": 2995,
  "break": 2996,
  "1955": 2997,
  "offers": 2998,
  "tal@@": 2999,
  "lied": 3000,
  "secondary": 3001,
  "ual": 3002,
  "granted": 3003,
  "buried": 3004,
  "Cer@@": 3005,
  "remain": 3006,
  "content": 3007,
  "hur@@": 3008,
  "sey": 3009,
  "R.": 3010,
  "Top": 3011,
  "Sil@@": 3012,
  "Home": 3013,
  "Gl@@": 3014,
  "Police": 3015,
  "say": 3016,
  "Santa": 3017,
  "voice": 3018,
  "vers@@": 3019,
  "stat@@": 3020,
  "difficult": 3021,
  "Prime": 3022,
  "birth": 3023,
  "Lar@@": 3024,
  "losing": 3025,
  "Cross": 3026,
  "except": 3027,
  "Mu@@": 3028,
  "1949": 3029,
  "hi": 3030,
  "knowledge": 3031,
  "versions": 3032,
  "exc@@": 3033,
  "growing": 3034,
  "arm@@": 3035,
  "down@@": 3036,
  "solo": 3037,
  "Library": 3038,
  "amm@@": 3039,
  "ere": 3040,
  "minister": 3041,
  "literature": 3042,
  "Pakistan": 3043,
  "clear": 3044,
  "organizations": 3045,
  "reduced": 3046,
  "newly": 3047,
  "Atlantic": 3048,
  "1954": 3049,
  "bury": 3050,
  "Geography": 3051,
  "Joe": 3052,
  "Don": 3053,
  "rules": 3054,
  "Final": 3055,
  "the@@": 3056,
  "minute": 3057,
  "defined": 3058,
  "stor@@": 3059,
  "tree": 3060,
  "painting": 3061,
  "emb@@": 3062,
  "De": 3063,
  "vers": 3064,
  "disease": 3065,
  "models": 3066,
  "damage": 3067,
  "digital": 3068,
  "performances": 3069,
  "pop": 3070,
  "sides": 3071,
  "wa": 3072,
  "cher": 3073,
  "fields": 3074,
  "spread": 3075,
  "density": 3076,
  "ingly": 3077,
  "of@@": 3078,
  "ction": 3079,
  "ard@@": 3080,
  "gh": 3081,
  "lab@@": 3082,
  "rit@@": 3083,
  "lec@@": 3084,
  "background": 3085,
  "surname": 3086,
  "und": 3087,
  "sions": 3088,
  "rates": 3089,
  "Jackson": 3090,
  "dar@@": 3091,
  "offer": 3092,
  "Toronto": 3093,
  "inspired": 3094,
  "resulting": 3095,
  "mountain": 3096,
  "enter": 3097,
  "problem": 3098,
  "Pet@@": 3099,
  "Brazil": 3100,
  "tax": 3101,
  "comedy": 3102,
  "laws": 3103,
  "Ontario": 3104,
  "quarter": 3105,
  "suggested": 3106,
  "true": 3107,
  "enh@@": 3108,
  "ston": 3109,
  "couple": 3110,
  "part@@": 3111,
  "inner": 3112,
  "55": 3113,
  "faced": 3114,
  "existing": 3115,
  "Rome": 3116,
  "Pa@@": 3117,
  "figure": 3118,
  "twice": 3119,
  "Ham@@": 3120,
  "creation": 3121,
  "seats": 3122,
  "fac@@": 3123,
  "1953": 3124,
  "Shar@@": 3125,
  "continues": 3126,
  "ody": 3127,
  "Tre@@": 3128,
  "males": 3129,
  "AC": 3130,
  "Ni@@": 3131,
  "generation": 3132,
  "travel": 3133,
  "izing": 3134,
  "sport": 3135,
  "hol@@": 3136,
  "elling": 3137,
  "sum@@": 3138,
  "high@@": 3139,
  "obtained": 3140,
  "allows": 3141,
  "Bridge": 3142,
  "Premier": 3143,
  "share": 3144,
  "Media": 3145,
  "Dor@@": 3146,
  "Vi@@": 3147,
  "Dan@@": 3148,
  "mi@@": 3149,
  "chairman": 3150,
  "Tel@@": 3151,
  "Nations": 3152,
  "arts": 3153,
  "contemporary": 3154,
  "ive": 3155,
  "ula": 3156,
  "ush@@": 3157,
  "1951": 3158,
  "Social": 3159,
  "ff": 3160,
  "3,@@": 3161,
  "twenty": 3162,
  "Military": 3163,
  "So@@": 3164,
  "association": 3165,
  "develop": 3166,
  "8th": 3167,
  "och@@": 3168,
  "providing": 3169,
  "Arthur": 3170,
  "kept": 3171,
  "ils": 3172,
  "festival": 3173,
  "successfully": 3174,
  "š@@": 3175,
  "actually": 3176,
  "ort@@": 3177,
  "ram@@": 3178,
  "Cap@@": 3179,
  "00": 3180,
  "Cha@@": 3181,
  "showed": 3182,
  "surrounding": 3183,
  "Korean": 3184,
  "Show": 3185,
  "1938": 3186,
  "lake": 3187,
  "yl": 3188,
  "necessary": 3189,
  "Je@@": 3190,
  "Township": 3191,
  "Tom@@": 3192,
  "Ol@@": 3193,
  "cells": 3194,
  "1918": 3195,
  "Cast@@": 3196,
  "finish": 3197,
  "split": 3198,
  "teaching": 3199,
  "Pur@@": 3200,
  "jo@@": 3201,
  "guitar": 3202,
  "P.": 3203,
  "feet": 3204,
  "officials": 3205,
  "41": 3206,
  "orders": 3207,
  "sen@@": 3208,
  "Game": 3209,
  "Hel@@": 3210,
  "Do@@": 3211,
  "Philadelphia": 3212,
  "forest": 3213,
  "ater": 3214,
  "ull": 3215,
  "1936": 3216,
  "Cam@@": 3217,
  "becomes": 3218,
  "rank": 3219,
  "occupied": 3220,
  "effort": 3221,
  "boat": 3222,
  "9th": 3223,
  "tried": 3224,
  "ements": 3225,
  "sets": 3226,
  "USA": 3227,
  "anda": 3228,
  "arrested": 3229,
  "Me": 3230,
  "authorities": 3231,
  "Da@@": 3232,
  "claims": 3233,
  "politics": 3234,
  "ich@@": 3235,
  "Sy@@": 3236,
  "ith": 3237,
  "Regiment": 3238,
  "injury": 3239,
  "mile": 3240,
  "boy": 3241,
  "0,000": 3242,
  "Kan@@": 3243,
  "billion": 3244,
  "Over": 3245,
  "300": 3246,
  "‘": 3247,
  "door": 3248,
  "Because": 3249,
  "Book": 3250,
  "receive": 3251,
  "ox@@": 3252,
  "allowing": 3253,
  "Ju@@": 3254,
  "situated": 3255,
  "mann": 3256,
  "Wilson": 3257,
  "elled": 3258,
  "Billboard": 3259,
  "stand": 3260,
  "regions": 3261,
  "tower": 3262,
  "Ul@@": 3263,
  "unique": 3264,
  "Y": 3265,
  "1920": 3266,
  "Among": 3267,
  "gives": 3268,
  "Jan@@": 3269,
  "dead": 3270,
  "du": 3271,
  "alized": 3272,
  "attacks": 3273,
  "opposed": 3274,
  "Long": 3275,
  "owing": 3276,
  "Des@@": 3277,
  "Mr.": 3278,
  "greater": 3279,
  "tradition": 3280,
  "block": 3281,
  "ban": 3282,
  "sixth": 3283,
  "hour": 3284,
  "ells": 3285,
  "Sand@@": 3286,
  "oth": 3287,
  "39": 3288,
  "younger": 3289,
  "ank": 3290,
  "villages": 3291,
  "thro@@": 3292,
  "ix": 3293,
  "impact": 3294,
  "ign@@": 3295,
  "opposition": 3296,
  "captain": 3297,
  "goes": 3298,
  "ine@@": 3299,
  "Captain": 3300,
  "blue": 3301,
  "wards": 3302,
  "visit": 3303,
  "forming": 3304,
  "dark": 3305,
  "eding": 3306,
  "interview": 3307,
  "sales": 3308,
  "micro@@": 3309,
  "Sweden": 3310,
  "applied": 3311,
  "unn@@": 3312,
  "Sun": 3313,
  "Community": 3314,
  "ax": 3315,
  "itive": 3316,
  "traffic": 3317,
  "facility": 3318,
  "Netherlands": 3319,
  "broke": 3320,
  "Pra@@": 3321,
  "Lady": 3322,
  "ban@@": 3323,
  "sin@@": 3324,
  "47": 3325,
  "Bir@@": 3326,
  "bel": 3327,
  "succeeded": 3328,
  "onic": 3329,
  "400": 3330,
  "Technology": 3331,
  "grade": 3332,
  "metres": 3333,
  "borough": 3334,
  "employed": 3335,
  "hall": 3336,
  "figures": 3337,
  "ova": 3338,
  "Port": 3339,
  "ographic": 3340,
  "scientific": 3341,
  "deep": 3342,
  "headquarters": 3343,
  "Between": 3344,
  "effective": 3345,
  "Like": 3346,
  "theatre": 3347,
  "Oxford": 3348,
  "Ty@@": 3349,
  "awa": 3350,
  "ko": 3351,
  "rot@@": 3352,
  "Register": 3353,
  "claim": 3354,
  "Daniel": 3355,
  "ries": 3356,
  "brothers": 3357,
  "1937": 3358,
  "climate": 3359,
  "software": 3360,
  "ising": 3361,
  "Sum@@": 3362,
  "q": 3363,
  "inger": 3364,
  "1950s": 3365,
  "dge": 3366,
  "library": 3367,
  "compl@@": 3368,
  "approved": 3369,
  "bought": 3370,
  "risk": 3371,
  "suff@@": 3372,
  "cle@@": 3373,
  "sil@@": 3374,
  "baseball": 3375,
  "Death": 3376,
  "cannot": 3377,
  "cy": 3378,
  "qualified": 3379,
  "Emperor": 3380,
  "che": 3381,
  "says": 3382,
  "Sm@@": 3383,
  "governor": 3384,
  "Red@@": 3385,
  "electric": 3386,
  "Maria": 3387,
  "know": 3388,
  "promotion": 3389,
  "commander": 3390,
  "critics": 3391,
  "tures": 3392,
  "tells": 3393,
  "Bol@@": 3394,
  "kind": 3395,
  "classes": 3396,
  "Medical": 3397,
  "Andrew": 3398,
  "oral": 3399,
  "look": 3400,
  "squad": 3401,
  "Sav@@": 3402,
  "Due": 3403,
  "Tal@@": 3404,
  "returning": 3405,
  "ency": 3406,
  "All@@": 3407,
  "Met@@": 3408,
  "blood": 3409,
  "oy": 3410,
  "brand": 3411,
  "emp@@": 3412,
  "drive": 3413,
  "settled": 3414,
  "CO@@": 3415,
  "Fi@@": 3416,
  "core": 3417,
  "Field": 3418,
  "mit": 3419,
  "trains": 3420,
  "completely": 3421,
  "Q": 3422,
  "Special": 3423,
  "rob@@": 3424,
  "simply": 3425,
  "image": 3426,
  "fighting": 3427,
  "Taylor": 3428,
  "Haw@@": 3429,
  "1919": 3430,
  "environment": 3431,
  "read": 3432,
  "advanced": 3433,
  "Black@@": 3434,
  "ado": 3435,
  "gs": 3436,
  "oma": 3437,
  "pet@@": 3438,
  "cent": 3439,
  "Ban@@": 3440,
  "big": 3441,
  "achieved": 3442,
  "rooms": 3443,
  "visited": 3444,
  "Americans": 3445,
  "Mos@@": 3446,
  "ys@@": 3447,
  "Golden": 3448,
  "Castle": 3449,
  "sive": 3450,
  "sters": 3451,
  "Business": 3452,
  "49": 3453,
  "ali": 3454,
  "olog@@": 3455,
  "situation": 3456,
  "sli@@": 3457,
  "And": 3458,
  "industrial": 3459,
  "rise": 3460,
  "Mike": 3461,
  "sk": 3462,
  "Le": 3463,
  "Mountain": 3464,
  "°": 3465,
  "ech@@": 3466,
  "gers": 3467,
  "materials": 3468,
  "tru@@": 3469,
  "aded": 3470,
  "frequently": 3471,
  "Van": 3472,
  "yp@@": 3473,
  "95": 3474,
  "authority": 3475,
  "Press": 3476,
  "illa": 3477,
  "Cr@@": 3478,
  "ified": 3479,
  "Op@@": 3480,
  "ou": 3481,
  "med": 3482,
  "vic@@": 3483,
  "43": 3484,
  "oldest": 3485,
  "Land@@": 3486,
  "joining": 3487,
  "D.": 3488,
  "actress": 3489,
  "publication": 3490,
  "something": 3491,
  "reports": 3492,
  "52": 3493,
  "chosen": 3494,
  "sexual": 3495,
  "ond@@": 3496,
  "BA": 3497,
  "op": 3498,
  "holds": 3499,
  "mand@@": 3500,
  "Francis": 3501,
  "supply": 3502,
  "defin@@": 3503,
  "vision": 3504,
  "murder": 3505,
  "dates": 3506,
  "merged": 3507,
  "relatively": 3508,
  "refused": 3509,
  "credited": 3510,
  "Several": 3511,
  "Chris": 3512,
  "things": 3513,
  "Four": 3514,
  "pos@@": 3515,
  "ison": 3516,
  "tier": 3517,
  "Star@@": 3518,
  "dated": 3519,
  "od": 3520,
  "ool": 3521,
  "shop": 3522,
  "household": 3523,
  "swe@@": 3524,
  "lan@@": 3525,
  "Dev@@": 3526,
  "esc@@": 3527,
  "May@@": 3528,
  "1930": 3529,
  "hon@@": 3530,
  "racing": 3531,
  "add@@": 3532,
  "mor@@": 3533,
  "ives": 3534,
  "fly": 3535,
  "Ass@@": 3536,
  "AA": 3537,
  "analy@@": 3538,
  "creating": 3539,
  "foot": 3540,
  "standing": 3541,
  "quar@@": 3542,
  "aut@@": 3543,
  "bring": 3544,
  "dered": 3545,
  "hat@@": 3546,
  "Whit@@": 3547,
  "aks": 3548,
  "1933": 3549,
  "fans": 3550,
  "Master": 3551,
  "aking": 3552,
  "son@@": 3553,
  "dig@@": 3554,
  "transport": 3555,
  "pal@@": 3556,
  "ancy": 3557,
  "starring": 3558,
  "40@@": 3559,
  "ands": 3560,
  "sa": 3561,
  "IV": 3562,
  "mid@@": 3563,
  "rol@@": 3564,
  "vol@@": 3565,
  "Today": 3566,
  "regul@@": 3567,
  "concert": 3568,
  "theme": 3569,
  "18th": 3570,
  "begins": 3571,
  "joint": 3572,
  "46": 3573,
  "Junior": 3574,
  "consisted": 3575,
  "pr@@": 3576,
  "66": 3577,
  "perform": 3578,
  "focused": 3579,
  "conflict": 3580,
  "demonstr@@": 3581,
  "ligh@@": 3582,
  "stic": 3583,
  "notes": 3584,
  "Bon@@": 3585,
  "ales": 3586,
  "winter": 3587,
  "Federation": 3588,
  "1914": 3589,
  "founding": 3590,
  "scheduled": 3591,
  "1917": 3592,
  "methods": 3593,
  "Plot": 3594,
  "Bat@@": 3595,
  "ained": 3596,
  "Davis": 3597,
  "aver@@": 3598,
  "itions": 3599,
  "Sim@@": 3600,
  "Fin@@": 3601,
  "principal": 3602,
  "head@@": 3603,
  "ón": 3604,
  "Prize": 3605,
  "selling": 3606,
  "performing": 3607,
  "agent": 3608,
  "stream": 3609,
  "origin": 3610,
  "ze@@": 3611,
  "beat": 3612,
  "path@@": 3613,
  "begin": 3614,
  "receiving": 3615,
  "safety": 3616,
  "ility": 3617,
  "utes": 3618,
  "ord@@": 3619,
  "unable": 3620,
  "articles": 3621,
  "mental": 3622,
  "transfer": 3623,
  "1935": 3624,
  "ume": 3625,
  "roads": 3626,
  "audience": 3627,
  "yan": 3628,
  "Bob": 3629,
  "Coun@@": 3630,
  "exchange": 3631,
  "fought": 3632,
  "85": 3633,
  "attempted": 3634,
  "rich": 3635,
  "Beach": 3636,
  "Hal@@": 3637,
  "aker": 3638,
  "retirement": 3639,
  "vice": 3640,
  "districts": 3641,
  "ner@@": 3642,
  "pair": 3643,
  "prevent": 3644,
  "ond": 3645,
  "follow": 3646,
  "ining": 3647,
  "FA": 3648,
  "attacked": 3649,
  "bit": 3650,
  "normal": 3651,
  "girls": 3652,
  "18@@": 3653,
  "Pres@@": 3654,
  "Av@@": 3655,
  "Network": 3656,
  "structures": 3657,
  "EP": 3658,
  "subsequent": 3659,
  "tar@@": 3660,
  "verse": 3661,
  "ais@@": 3662,
  "economy": 3663,
  "ather": 3664,
  "stock": 3665,
  "graduate": 3666,
  "Minnesota": 3667,
  "Nov@@": 3668,
  "reason": 3669,
  "covers": 3670,
  "51": 3671,
  "partner": 3672,
  "una": 3673,
  "Nar@@": 3674,
  "ades": 3675,
  "Lo@@": 3676,
  "dia": 3677,
  "pun@@": 3678,
  "try": 3679,
  "dies": 3680,
  "setting": 3681,
  "spir@@": 3682,
  "Journal": 3683,
  "cycle": 3684,
  "reference": 3685,
  "Mexican": 3686,
  "architecture": 3687,
  "tropical": 3688,
  "han@@": 3689,
  "kin": 3690,
  "Region": 3691,
  "expansion": 3692,
  "ost": 3693,
  "towns": 3694,
  "write": 3695,
  "ł@@": 3696,
  "morning": 3697,
  "Mart@@": 3698,
  "Tw@@": 3699,
  "shared": 3700,
  "daily": 3701,
  "ills": 3702,
  "Kansas": 3703,
  "loan": 3704,
  "temple": 3705,
  "defense": 3706,
  "ania": 3707,
  "ball@@": 3708,
  "ide": 3709,
  "dropped": 3710,
  "thesis": 3711,
  "machine": 3712,
  "Leg@@": 3713,
  "converted": 3714,
  "non@@": 3715,
  "Vis@@": 3716,
  "System": 3717,
  "1928": 3718,
  "NCAA": 3719,
  "Reception": 3720,
  "determined": 3721,
  "PA": 3722,
  "burg": 3723,
  "unknown": 3724,
  "wal@@": 3725,
  "protection": 3726,
  "Kur@@": 3727,
  "inst@@": 3728,
  "Ku@@": 3729,
  "formal": 3730,
  "ush": 3731,
  "launch": 3732,
  "entitled": 3733,
  "ump@@": 3734,
  "Forest": 3735,
  "Inc.": 3736,
  "dist@@": 3737,
  "Missouri": 3738,
  "animals": 3739,
  "NFL": 3740,
  "stein": 3741,
  "representing": 3742,
  "enc@@": 3743,
  "fiction": 3744,
  "permanent": 3745,
  "Steve": 3746,
  "Dra@@": 3747,
  "L.": 3748,
  "girl": 3749,
  "shortly": 3750,
  "increasing": 3751,
  "án": 3752,
  "grounds": 3753,
  "crime": 3754,
  "54": 3755,
  "presidential": 3756,
  "alle@@": 3757,
  "na@@": 3758,
  "ep": 3759,
  "sense": 3760,
  "Jr": 3761,
  "volume": 3762,
  "Melbourne": 3763,
  "duc@@": 3764,
  "Description": 3765,
  "attempts": 3766,
  "influenced": 3767,
  "Mus@@": 3768,
  "educational": 3769,
  "trees": 3770,
  "engineering": 3771,
  "copies": 3772,
  "derived": 3773,
  "1929": 3774,
  "č@@": 3775,
  "1934": 3776,
  "water@@": 3777,
  "Lewis": 3778,
  "nar@@": 3779,
  "fol@@": 3780,
  "sign@@": 3781,
  "Area": 3782,
  "ultimately": 3783,
  "Co": 3784,
  "ram": 3785,
  "imm@@": 3786,
  "Gold": 3787,
  "Moscow": 3788,
  "bon@@": 3789,
  "guest": 3790,
  "vehicles": 3791,
  "sho@@": 3792,
  "Lat@@": 3793,
  "ris@@": 3794,
  "hip": 3795,
  "stay": 3796,
  "FI@@": 3797,
  "bronze": 3798,
  "represent": 3799,
  "e.g.": 3800,
  "ris": 3801,
  "Fox": 3802,
  "ato": 3803,
  "citizens": 3804,
  "properties": 3805,
  "mouth": 3806,
  "Memorial": 3807,
  "Jim": 3808,
  "birds": 3809,
  "IC@@": 3810,
  "mut@@": 3811,
  "tered": 3812,
  "extensive": 3813,
  "highway": 3814,
  "ela": 3815,
  "ulated": 3816,
  "cancer": 3817,
  "acks": 3818,
  "global": 3819,
  "ment@@": 3820,
  "Night": 3821,
  "esses": 3822,
  "airport": 3823,
  "constituency": 3824,
  "fast": 3825,
  "ici@@": 3826,
  "ops": 3827,
  "Dal@@": 3828,
  "Gor@@": 3829,
  "sy@@": 3830,
  "resources": 3831,
  "contributed": 3832,
  "maximum": 3833,
  "Power": 3834,
  "fort": 3835,
  "tra": 3836,
  "mayor": 3837,
  "containing": 3838,
  "Is": 3839,
  "Sha@@": 3840,
  "bin@@": 3841,
  "learning": 3842,
  "onto": 3843,
  "Muslim": 3844,
  "views": 3845,
  "powerful": 3846,
  "coordin@@": 3847,
  "Z": 3848,
  "centuries": 3849,
  "illi@@": 3850,
  "eller": 3851,
  "simple": 3852,
  "meant": 3853,
  "Ir@@": 3854,
  "Jud@@": 3855,
  "edge": 3856,
  "pieces": 3857,
  "tical": 3858,
  "ello": 3859,
  "62": 3860,
  "Stephen": 3861,
  "conf@@": 3862,
  "Rom@@": 3863,
  "Lin@@": 3864,
  "Turkish": 3865,
  "Tit@@": 3866,
  "flow": 3867,
  "Sunday": 3868,
  "Queensland": 3869,
  "hockey": 3870,
  "Country": 3871,
  "ury": 3872,
  "zz@@": 3873,
  "peace": 3874,
  "amed": 3875,
  "Live": 3876,
  "Wisconsin": 3877,
  "laid": 3878,
  "CA": 3879,
  "North@@": 3880,
  "institutions": 3881,
  "iss": 3882,
  "drug": 3883,
  "guns": 3884,
  "Sel@@": 3885,
  "ough": 3886,
  "passing": 3887,
  "application": 3888,
  "card": 3889,
  "uch@@": 3890,
  "controlled": 3891,
  "bas@@": 3892,
  "Vol@@": 3893,
  "locations": 3894,
  "Sciences": 3895,
  "ght": 3896,
  "50@@": 3897,
  "More": 3898,
  "my@@": 3899,
  "sector": 3900,
  "ert": 3901,
  "phase": 3902,
  "vac@@": 3903,
  "hands": 3904,
  "Ta@@": 3905,
  "farm": 3906,
  "iers": 3907,
  "MA": 3908,
  "Bab@@": 3909,
  "wer@@": 3910,
  "1924": 3911,
  "Cape": 3912,
  "Rob@@": 3913,
  "walls": 3914,
  "i.e.": 3915,
  "domestic": 3916,
  "Ker@@": 3917,
  "offices": 3918,
  "headed": 3919,
  "Pen@@": 3920,
  "Fer@@": 3921,
  "ide@@": 3922,
  "squ@@": 3923,
  "burn": 3924,
  "holding": 3925,
  "memory": 3926,
  "Project": 3927,
  "sought": 3928,
  "castle": 3929,
  "vehicle": 3930,
  "ours": 3931,
  "armed": 3932,
  "1932": 3933,
  "slightly": 3934,
  "Television": 3935,
  "Lev@@": 3936,
  "identity": 3937,
  "Comp@@": 3938,
  "Win@@": 3939,
  "documentary": 3940,
  "beyond": 3941,
  "condition": 3942,
  "gate": 3943,
  "ord": 3944,
  "1912": 3945,
  "mag@@": 3946,
  "temperature": 3947,
  "99": 3948,
  "Vietnam": 3949,
  "rie": 3950,
  "Cra@@": 3951,
  "Song": 3952,
  "establishment": 3953,
  "Turkey": 3954,
  "tac@@": 3955,
  "LA": 3956,
  "developing": 3957,
  "dor@@": 3958,
  "Production": 3959,
  "physi@@": 3960,
  "letters": 3961,
  "Bow@@": 3962,
  "recognition": 3963,
  "Cambridge": 3964,
  "67": 3965,
  "supporting": 3966,
  "yellow": 3967,
  "Prior": 3968,
  "zone": 3969,
  "gre@@": 3970,
  "Stra@@": 3971,
  "expressed": 3972,
  "Tennessee": 3973,
  "search": 3974,
  "reasons": 3975,
  "invited": 3976,
  "Norway": 3977,
  "53": 3978,
  "proved": 3979,
  "ō": 3980,
  "56": 3981,
  "ores": 3982,
  "ew@@": 3983,
  "funding": 3984,
  "rail": 3985,
  "trac@@": 3986,
  "Indiana": 3987,
  "lyrics": 3988,
  "ba": 3989,
  "pan@@": 3990,
  "ables": 3991,
  "consecutive": 3992,
  "height": 3993,
  "hill": 3994,
  "Raj@@": 3995,
  "1922": 3996,
  "educated": 3997,
  "matter": 3998,
  "Philippines": 3999,
  "Point": 4000,
  "61": 4001,
  "candidates": 4002,
  "glass": 4003,
  "producing": 4004,
  "Khan": 4005,
  "ols": 4006,
  "ther": 4007,
  "want": 4008,
  "eded": 4009,
  "ession": 4010,
  "occurs": 4011,
  "Upon": 4012,
  "ky": 4013,
  "Pap@@": 4014,
  "Jews": 4015,
  "outs": 4016,
  "SA": 4017,
  "horse": 4018,
  "Christmas": 4019,
  "prof@@": 4020,
  "doing": 4021,
  "Bah@@": 4022,
  "ud": 4023,
  "adv@@": 4024,
  "oes": 4025,
  "functions": 4026,
  "technical": 4027,
  "ille": 4028,
  "hotel": 4029,
  "screen": 4030,
  "Manchester": 4031,
  "attrac@@": 4032,
  "rugby": 4033,
  "1927": 4034,
  "lie": 4035,
  "spe@@": 4036,
  "abandoned": 4037,
  "contained": 4038,
  "brown": 4039,
  "finishing": 4040,
  "oured": 4041,
  "Mol@@": 4042,
  "bodies": 4043,
  "Ever@@": 4044,
  "1921": 4045,
  "G.": 4046,
  "writers": 4047,
  "bands": 4048,
  "Native": 4049,
  "68": 4050,
  "57": 4051,
  "F.": 4052,
  "yers": 4053,
  "sem@@": 4054,
  "factory": 4055,
  "journalist": 4056,
  "looking": 4057,
  "Labour": 4058,
  "Swiss": 4059,
  "Services": 4060,
  "needs": 4061,
  "speech": 4062,
  "pot@@": 4063,
  "Ur@@": 4064,
  "AT@@": 4065,
  "Sab@@": 4066,
  "contact": 4067,
  "elle": 4068,
  "independence": 4069,
  "Notable": 4070,
  "new@@": 4071,
  "72": 4072,
  "uti@@": 4073,
  "ming": 4074,
  "MP": 4075,
  "bound": 4076,
  "conv@@": 4077,
  "supp@@": 4078,
  "Hot": 4079,
  "ote": 4080,
  "patients": 4081,
  "category": 4082,
  "1925": 4083,
  "Land": 4084,
  "Maryland": 4085,
  "judge": 4086,
  "Green@@": 4087,
  "bill": 4088,
  "Affairs": 4089,
  "refers": 4090,
  "investigation": 4091,
  "1926": 4092,
  "1931": 4093,
  "fleet": 4094,
  "marine": 4095,
  "architect": 4096,
  "incorporated": 4097,
  "aling": 4098,
  "negative": 4099,
  "Class": 4100,
  "violence": 4101,
  "planning": 4102,
  "Arizona": 4103,
  "mine": 4104,
  "royal": 4105,
  "Norwegian": 4106,
  "ni@@": 4107,
  "Portuguese": 4108,
  "Building": 4109,
  "combat": 4110,
  "ule": 4111,
  "existence": 4112,
  "top@@": 4113,
  "ul": 4114,
  "alternative": 4115,
  "COVID": 4116,
  "Then": 4117,
  "han": 4118,
  "Harry": 4119,
  "ceremony": 4120,
  "Studies": 4121,
  "decades": 4122,
  "work@@": 4123,
  "reaching": 4124,
  "scre@@": 4125,
  "RA@@": 4126,
  "ration": 4127,
  "Nag@@": 4128,
  "operate": 4129,
  "eption": 4130,
  "Channel": 4131,
  "maintained": 4132,
  "ati": 4133,
  "ress": 4134,
  "58": 4135,
  "ault": 4136,
  "eu@@": 4137,
  "sens@@": 4138,
  "she@@": 4139,
  "let@@": 4140,
  "DC": 4141,
  "otic": 4142,
  "Tournament": 4143,
  "resigned": 4144,
  "multi": 4145,
  "mal@@": 4146,
  "mil@@": 4147,
  "1923": 4148,
  "ree": 4149,
  "basic": 4150,
  "SR": 4151,
  "Fri@@": 4152,
  "voted": 4153,
  "Ky@@": 4154,
  "4,@@": 4155,
  "ust@@": 4156,
  "composer": 4157,
  "literary": 4158,
  "herself": 4159,
  "Oregon": 4160,
  "Rus@@": 4161,
  "Infantry": 4162,
  "eless": 4163,
  "shape": 4164,
  "regarding": 4165,
  "airs": 4166,
  "Austria": 4167,
  "specifically": 4168,
  "Rem@@": 4169,
  "men@@": 4170,
  "wn": 4171,
  "junior": 4172,
  "Colorado": 4173,
  "honor": 4174,
  "hired": 4175,
  "gam@@": 4176,
  "rear": 4177,
  "1910": 4178,
  "installed": 4179,
  "abilities": 4180,
  "enemy": 4181,
  "termin@@": 4182,
  "counter@@": 4183,
  "establish": 4184,
  "compar@@": 4185,
  "trained": 4186,
  "gender": 4187,
  "phot@@": 4188,
  "Foreign": 4189,
  "clim@@": 4190,
  "Walter": 4191,
  "Men@@": 4192,
  "ories": 4193,
  "Bet@@": 4194,
  "Oc@@": 4195,
  "exhibition": 4196,
  "Kam@@": 4197,
  "shaped": 4198,
  "owners": 4199,
  "straight": 4200,
  "Entertainment": 4201,
  "observed": 4202,
  "secretary": 4203,
  "Ali": 4204,
  "lets": 4205,
  "ik": 4206,
  "1916": 4207,
  "References": 4208,
  "collected": 4209,
  "fuel": 4210,
  "stating": 4211,
  "Representatives": 4212,
  "connection": 4213,
  "grand@@": 4214,
  "nuclear": 4215,
  "classical": 4216,
  "fil@@": 4217,
  "registered": 4218,
  "ami": 4219,
  "argued": 4220,
  "pilot": 4221,
  "ty@@": 4222,
  "NS@@": 4223,
  "display": 4224,
  "eled": 4225,
  "69": 4226,
  "pping": 4227,
  "sch@@": 4228,
  "1915": 4229,
  "Dre@@": 4230,
  "Revolution": 4231,
  "alities": 4232,
  "Tim@@": 4233,
  "yst@@": 4234,
  "wins": 4235,
  "bert": 4236,
  "Sri": 4237,
  "passes": 4238,
  "radi@@": 4239,
  "ruled": 4240,
  "bel@@": 4241,
  "lim@@": 4242,
  "Mont@@": 4243,
  "OS": 4244,
  "ides": 4245,
  "ike": 4246,
  "funds": 4247,
  "akes": 4248,
  "Medal": 4249,
  "Ran@@": 4250,
  "affected": 4251,
  "les@@": 4252,
  "worldwide": 4253,
  "Places": 4254,
  "1900": 4255,
  "Human": 4256,
  "flu@@": 4257,
  "86": 4258,
  "About": 4259,
  "someone": 4260,
  "Switzerland": 4261,
  "plane": 4262,
  "Out@@": 4263,
  "bat@@": 4264,
  "cia": 4265,
  "representative": 4266,
  "scenes": 4267,
  "Political": 4268,
  "finds": 4269,
  "religion": 4270,
  "Census": 4271,
  "ional": 4272,
  "Cat@@": 4273,
  "Ob@@": 4274,
  "Holy": 4275,
  "exist": 4276,
  "Albert": 4277,
  "59": 4278,
  "ico": 4279,
  "ero": 4280,
  "med@@": 4281,
  "á": 4282,
  "Dam@@": 4283,
  "Dom@@": 4284,
  "Winter": 4285,
  "Ba@@": 4286,
  "entrance": 4287,
  "poly@@": 4288,
  "abad": 4289,
  "etc": 4290,
  "The@@": 4291,
  "question": 4292,
  "Egypt": 4293,
  "serious": 4294,
  "heard": 4295,
  "occur": 4296,
  "promote": 4297,
  "heavily": 4298,
  "Ford": 4299,
  "dale": 4300,
  "nor@@": 4301,
  "ost@@": 4302,
  "engaged": 4303,
  "ean": 4304,
  "ital": 4305,
  "occup@@": 4306,
  "ook": 4307,
  "profit": 4308,
  "Gam@@": 4309,
  "importance": 4310,
  "T.": 4311,
  "marks": 4312,
  "protein": 4313,
  "dep@@": 4314,
  "iron": 4315,
  "short@@": 4316,
  "avoid": 4317,
  "bad@@": 4318,
  "pra@@": 4319,
  "regarded": 4320,
  "*": 4321,
  "Islamic": 4322,
  "choice": 4323,
  "Head": 4324,
  "77": 4325,
  "wich": 4326,
  "enz@@": 4327,
  "63": 4328,
  "carry": 4329,
  "vin": 4330,
  "Mir@@": 4331,
  "meters": 4332,
  "poss@@": 4333,
  "Dr@@": 4334,
  "cast@@": 4335,
  "statement": 4336,
  "Singapore": 4337,
  "Arab": 4338,
  "leg@@": 4339,
  "Only": 4340,
  "inhabitants": 4341,
  "Miller": 4342,
  "are@@": 4343,
  "composition": 4344,
  "ask@@": 4345,
  "ti": 4346,
  "ily": 4347,
  "failure": 4348,
  "Though": 4349,
  "Design": 4350,
  "vest@@": 4351,
  "ature": 4352,
  "northeast": 4353,
  "Pope": 4354,
  "What": 4355,
  "Management": 4356,
  "Earl": 4357,
  "yr@@": 4358,
  "tie": 4359,
  "ept@@": 4360,
  "struc@@": 4361,
  "roof": 4362,
  "celeb@@": 4363,
  "onian": 4364,
  "poet": 4365,
  "peri@@": 4366,
  "enter@@": 4367,
  "medi@@": 4368,
  "selection": 4369,
  "Kr@@": 4370,
  "poetry": 4371,
  "programme": 4372,
  "Kir@@": 4373,
  "price": 4374,
  "incident": 4375,
  "internal": 4376,
  "ag": 4377,
  "Air@@": 4378,
  "Dem@@": 4379,
  "AD": 4380,
  "Cu@@": 4381,
  "consisting": 4382,
  "cin@@": 4383,
  "powers": 4384,
  "unt": 4385,
  "improve": 4386,
  "storm": 4387,
  "Str@@": 4388,
  "praised": 4389,
  "ral": 4390,
  "aw": 4391,
  "concluded": 4392,
  "Wood@@": 4393,
  "Security": 4394,
  "think": 4395,
  "Member": 4396,
  "toward": 4397,
  "eng": 4398,
  "programming": 4399,
  "1930s": 4400,
  "mem@@": 4401,
  "fer": 4402,
  "Rep@@": 4403,
  "cour@@": 4404,
  "long@@": 4405,
  "tax@@": 4406,
  "ased": 4407,
  "Fu@@": 4408,
  "Miss": 4409,
  "insi@@": 4410,
  "stadium": 4411,
  "compete": 4412,
  "esh@@": 4413,
  "Mul@@": 4414,
  "page": 4415,
  "lis": 4416,
  "spot": 4417,
  "session": 4418,
  "sections": 4419,
  "Howard": 4420,
  "Por@@": 4421,
  "Prot@@": 4422,
  "tery": 4423,
  "invasion": 4424,
  "17th": 4425,
  "High@@": 4426,
  "adult": 4427,
  "chair": 4428,
  "Youth": 4429,
  "driver": 4430,
  "88": 4431,
  "Professional": 4432,
  "twelve": 4433,
  "ç@@": 4434,
  "arm": 4435,
  "gain": 4436,
  "load": 4437,
  "oring": 4438,
  "entirely": 4439,
  "bishop": 4440,
  "ective": 4441,
  "Cour@@": 4442,
  "homes": 4443,
  "71": 4444,
  "Regional": 4445,
  "Der@@": 4446,
  "Bureau": 4447,
  "protect": 4448,
  "municipal": 4449,
  "cou@@": 4450,
  "rare": 4451,
  "arch": 4452,
  "weapons": 4453,
  "dae": 4454,
  "Liberal": 4455,
  "Main": 4456,
  "hu@@": 4457,
  "passenger": 4458,
  "foundation": 4459,
  "Os@@": 4460,
  "causing": 4461,
  "Il@@": 4462,
  "Temple": 4463,
  "hel@@": 4464,
  "target": 4465,
  "ahead": 4466,
  "SE@@": 4467,
  "trying": 4468,
  "divisions": 4469,
  "possibly": 4470,
  "agency": 4471,
  "eline": 4472,
  "users": 4473,
  "advance": 4474,
  "ows": 4475,
  "gets": 4476,
  "Forces": 4477,
  "reserve": 4478,
  "Thus": 4479,
  "ila": 4480,
  "diss@@": 4481,
  "boys": 4482,
  "anna": 4483,
  "Cri@@": 4484,
  "Square": 4485,
  "kill": 4486,
  "1913": 4487,
  "rical": 4488,
  "peak": 4489,
  "quite": 4490,
  "avi@@": 4491,
  "Israeli": 4492,
  "Ukraine": 4493,
  "closely": 4494,
  "Greece": 4495,
  "explo@@": 4496,
  "Tony": 4497,
  "bon": 4498,
  "Vice": 4499,
  "draft": 4500,
  "Hamilton": 4501,
  "starred": 4502,
  "SS": 4503,
  "mit@@": 4504,
  "Operation": 4505,
  "bal@@": 4506,
  "CC": 4507,
  "environmental": 4508,
  "cricket": 4509,
  "mp@@": 4510,
  "Ay@@": 4511,
  "Hockey": 4512,
  "historian": 4513,
  "oo": 4514,
  "fur@@": 4515,
  "Free": 4516,
  "Kentucky": 4517,
  "Az@@": 4518,
  "Ga@@": 4519,
  "Rock@@": 4520,
  "starts": 4521,
  "Ben": 4522,
  "sale": 4523,
  "vely": 4524,
  "personnel": 4525,
  "Houston": 4526,
  "briefly": 4527,
  "clu@@": 4528,
  "ans@@": 4529,
  "gene": 4530,
  "premiered": 4531,
  "charged": 4532,
  "standards": 4533,
  "calls": 4534,
  "believe": 4535,
  "steel": 4536,
  "leg": 4537,
  "employees": 4538,
  "animal": 4539,
  "Naval": 4540,
  "ports": 4541,
  "reli@@": 4542,
  "opera": 4543,
  "Brigade": 4544,
  "ideas": 4545,
  "wind": 4546,
  "ences": 4547,
  "78": 4548,
  "Fac@@": 4549,
  "broken": 4550,
  "76": 4551,
  "On@@": 4552,
  "vir@@": 4553,
  "seconds": 4554,
  "Mun@@": 4555,
  "ham@@": 4556,
  "escape": 4557,
  "She@@": 4558,
  "Anne": 4559,
  "killing": 4560,
  "Hay@@": 4561,
  "aul@@": 4562,
  "ori": 4563,
  "Senior": 4564,
  "bility": 4565,
  "improved": 4566,
  "accused": 4567,
  "northwest": 4568,
  "conver@@": 4569,
  "investig@@": 4570,
  "96": 4571,
  "AM": 4572,
  "ú@@": 4573,
  "1911": 4574,
  "mig@@": 4575,
  "sell": 4576,
  "equal": 4577,
  "corner": 4578,
  "81": 4579,
  "stands": 4580,
  "aqu@@": 4581,
  "opportunity": 4582,
  "chain": 4583,
  "oning": 4584,
  "viewed": 4585,
  "Third": 4586,
  "Patrick": 4587,
  "user": 4588,
  "Administration": 4589,
  "agricultural": 4590,
  "aching": 4591,
  "batt@@": 4592,
  "Rural": 4593,
  "Stone": 4594,
  "paintings": 4595,
  "alists": 4596,
  "Sem@@": 4597,
  "drawn": 4598,
  "Ren@@": 4599,
  "Bay@@": 4600,
  "seventh": 4601,
  "pose": 4602,
  "li": 4603,
  "MS": 4604,
  "describes": 4605,
  "Rel@@": 4606,
  "Works": 4607,
  "distributed": 4608,
  "Nic@@": 4609,
  "ito": 4610,
  "regularly": 4611,
  "cu@@": 4612,
  "sav@@": 4613,
  "Pu@@": 4614,
  "law@@": 4615,
  "asing": 4616,
  "tries": 4617,
  "mist@@": 4618,
  "kins": 4619,
  "unk": 4620,
  "Engineering": 4621,
  "ack@@": 4622,
  "your": 4623,
  "Squadron": 4624,
  "introduction": 4625,
  "rant": 4626,
  "Marine": 4627,
  "courses": 4628,
  "speaking": 4629,
  "92": 4630,
  "AM@@": 4631,
  "gel": 4632,
  "Iowa": 4633,
  "jec@@": 4634,
  "ancing": 4635,
  "injured": 4636,
  "Once": 4637,
  "chose": 4638,
  "ady": 4639,
  "really": 4640,
  "16th": 4641,
  "ju@@": 4642,
  "pul@@": 4643,
  "Ocean": 4644,
  "continu@@": 4645,
  "mas@@": 4646,
  "covering": 4647,
  "residence": 4648,
  "Spec@@": 4649,
  "extension": 4650,
  "ray": 4651,
  "Tak@@": 4652,
  "Light": 4653,
  "resistance": 4654,
  "5,000": 4655,
  "hab@@": 4656,
  "Jesus": 4657,
  "wave": 4658,
  "lock": 4659,
  "anced": 4660,
  "eter": 4661,
  "direc@@": 4662,
  "Hotel": 4663,
  "reading": 4664,
  "reduce": 4665,
  "Brian": 4666,
  "fine": 4667,
  "gri@@": 4668,
  "Prix": 4669,
  "fron@@": 4670,
  "Ann@@": 4671,
  "ele": 4672,
  "ination": 4673,
  "applications": 4674,
  "Simon": 4675,
  "weather": 4676,
  "dating": 4677,
  "Wi@@": 4678,
  "Elec@@": 4679,
  "values": 4680,
  "break@@": 4681,
  "74": 4682,
  "Space": 4683,
  "filled": 4684,
  "I.": 4685,
  "nur@@": 4686,
  "cycl@@": 4687,
  "calling": 4688,
  "combination": 4689,
  "humans": 4690,
  "past@@": 4691,
  "ues": 4692,
  "step": 4693,
  "prem@@": 4694,
  "dry": 4695,
  "ril@@": 4696,
  "eo": 4697,
  "cop@@": 4698,
  "ñ@@": 4699,
  "oid": 4700,
  "Dur@@": 4701,
  "objects": 4702,
  "Est@@": 4703,
  "SC": 4704,
  "ules": 4705,
  "sting": 4706,
  "1908": 4707,
  "islands": 4708,
  "ensi@@": 4709,
  "print": 4710,
  "bles": 4711,
  "Samuel": 4712,
  "journal": 4713,
  "Ara@@": 4714,
  "neighborhood": 4715,
  "osa": 4716,
  "exam@@": 4717,
  "oration": 4718,
  "rose": 4719,
  "run@@": 4720,
  "ethnic": 4721,
  "earliest": 4722,
  "Ci@@": 4723,
  "mon": 4724,
  "racial": 4725,
  "Executive": 4726,
  "mind": 4727,
  "Arm@@": 4728,
  "stages": 4729,
  "bing": 4730,
  "98": 4731,
  "address": 4732,
  "ests": 4733,
  "stores": 4734,
  "Wol@@": 4735,
  "aine": 4736,
  "vent@@": 4737,
  "Fame": 4738,
  "Lam@@": 4739,
  "decade": 4740,
  "Anderson": 4741,
  "Gil@@": 4742,
  "Tru@@": 4743,
  "dam@@": 4744,
  "Conc@@": 4745,
  "getting": 4746,
  "strength": 4747,
  "atus": 4748,
  "lic": 4749,
  "nor": 4750,
  "advantage": 4751,
  "survived": 4752,
  "Beau@@": 4753,
  "interior": 4754,
  "usi@@": 4755,
  "demand": 4756,
  "Danish": 4757,
  "shar@@": 4758,
  "Ret@@": 4759,
  "debuted": 4760,
  "Communist": 4761,
  "plus": 4762,
  "ald": 4763,
  "frame": 4764,
  "Bh@@": 4765,
  "mont": 4766,
  "87": 4767,
  "causes": 4768,
  "liber@@": 4769,
  "84": 4770,
  "Diego": 4771,
  "shore": 4772,
  ".A.": 4773,
  "Water": 4774,
  "kes": 4775,
  "replace": 4776,
  "19@@": 4777,
  "itors": 4778,
  "oll@@": 4779,
  "engineer": 4780,
  "PC": 4781,
  "strike": 4782,
  "ven": 4783,
  "factors": 4784,
  "organisation": 4785,
  "Sat@@": 4786,
  "valley": 4787,
  "eye": 4788,
  "Pro": 4789,
  "southeast": 4790,
  "DVD": 4791,
  "Pas@@": 4792,
  "mean": 4793,
  "Sam": 4794,
  "Out": 4795,
  "ancest@@": 4796,
  "Hom@@": 4797,
  "sor@@": 4798,
  "83": 4799,
  "partnership": 4800,
  "Rad@@": 4801,
  "voc@@": 4802,
  "izes": 4803,
  "fu@@": 4804,
  "Rugby": 4805,
  "82": 4806,
  "experienced": 4807,
  "Modern": 4808,
  "ein": 4809,
  "pool": 4810,
  "comb@@": 4811,
  "neur@@": 4812,
  "ader": 4813,
  "techn@@": 4814,
  "mi": 4815,
  "adjacent": 4816,
  "nation@@": 4817,
  "Bowl": 4818,
  "Commonwealth": 4819,
  "inary": 4820,
  "interests": 4821,
  "Oklahoma": 4822,
  "ei": 4823,
  "mill": 4824,
  "Mayor": 4825,
  "heads": 4826,
  "leads": 4827,
  "Alabama": 4828,
  "operates": 4829,
  "mort@@": 4830,
  "Donald": 4831,
  "singing": 4832,
  "signing": 4833,
  "theater": 4834,
  "Med@@": 4835,
  "ounded": 4836,
  "Heritage": 4837,
  "Lor@@": 4838,
  "hin@@": 4839,
  "Bern@@": 4840,
  ".com": 4841,
  "greatest": 4842,
  "K.": 4843,
  "typical": 4844,
  "tot@@": 4845,
  "notably": 4846,
  "criminal": 4847,
  "eted": 4848,
  "musician": 4849,
  "kin@@": 4850,
  "Philip": 4851,
  "engines": 4852,
  "Tokyo": 4853,
  "lig@@": 4854,
  "Program": 4855,
  "bass": 4856,
  "Children": 4857,
  "disc@@": 4858,
  "Frederick": 4859,
  "churches": 4860,
  "iles": 4861,
  "97": 4862,
  "ny": 4863,
  "psych@@": 4864,
  "goods": 4865,
  "tain@@": 4866,
  "proce@@": 4867,
  "hood": 4868,
  "lia": 4869,
  "appointment": 4870,
  "Legislative": 4871,
  "committed": 4872,
  "ous@@": 4873,
  "pur": 4874,
  "painted": 4875,
  "Imperial": 4876,
  "73": 4877,
  "nomin@@": 4878,
  "stable": 4879,
  "play@@": 4880,
  "treated": 4881,
  "script": 4882,
  "distinct": 4883,
  "A.@@": 4884,
  "jud@@": 4885,
  "link": 4886,
  "Mississippi": 4887,
  "contain": 4888,
  "So": 4889,
  "participate": 4890,
  "Ok@@": 4891,
  "techniques": 4892,
  "Quebec": 4893,
  "bad": 4894,
  "gran@@": 4895,
  "Juan": 4896,
  "Allen": 4897,
  "reception": 4898,
  "respon@@": 4899,
  "act@@": 4900,
  "alis@@": 4901,
  "79": 4902,
  "designs": 4903,
  "phone": 4904,
  "ott": 4905,
  "opp@@": 4906,
  "opposite": 4907,
  "bottom": 4908,
  "seems": 4909,
  "Over@@": 4910,
  "Detroit": 4911,
  "moun@@": 4912,
  "Anthony": 4913,
  "promot@@": 4914,
  "Lieutenant": 4915,
  "Railroad": 4916,
  "umb@@": 4917,
  "Village": 4918,
  "rejected": 4919,
  "hundred": 4920,
  "asp@@": 4921,
  "Mak@@": 4922,
  "Antonio": 4923,
  "pic@@": 4924,
  "aga": 4925,
  "charges": 4926,
  "Camp@@": 4927,
  "Rh@@": 4928,
  "vocals": 4929,
  "IN@@": 4930,
  "philosophy": 4931,
  "uz@@": 4932,
  "Fire": 4933,
  "Kin@@": 4934,
  "budget": 4935,
  "89": 4936,
  "measures": 4937,
  "signal": 4938,
  "mining": 4939,
  "int": 4940,
  "Hungarian": 4941,
  "stood": 4942,
  "Dep@@": 4943,
  "comic": 4944,
  "Law@@": 4945,
  "just@@": 4946,
  "collaboration": 4947,
  "musicians": 4948,
  "Cemetery": 4949,
  "fired": 4950,
  "aches": 4951,
  "motor@@": 4952,
  "Christ": 4953,
  "Czech": 4954,
  "ading": 4955,
  "piano": 4956,
  "Baseball": 4957,
  "Hollywood": 4958,
  "chemical": 4959,
  "spar@@": 4960,
  "damaged": 4961,
  "elli": 4962,
  "Clark": 4963,
  "Independent": 4964,
  "collabor@@": 4965,
  "pi@@": 4966,
  "Argentina": 4967,
  "Trans@@": 4968,
  "examples": 4969,
  "equivalent": 4970,
  "contrac@@": 4971,
  "evi@@": 4972,
  "plot": 4973,
  "southwest": 4974,
  "Adam": 4975,
  "Ka@@": 4976,
  "bom@@": 4977,
  "Gallery": 4978,
  "didn": 4979,
  "94": 4980,
  "Ki@@": 4981,
  "Lau@@": 4982,
  "oa": 4983,
  "Douglas": 4984,
  "employment": 4985,
  "protected": 4986,
  "anth@@": 4987,
  "Magazine": 4988,
  "residential": 4989,
  "coal": 4990,
  "details": 4991,
  "ua": 4992,
  "dou@@": 4993,
  "jazz": 4994,
  "Local": 4995,
  "easily": 4996,
  "eling": 4997,
  "93": 4998,
  "tha": 4999,
  "aki": 5000,
  "Var@@": 5001,
  "AS": 5002,
  "Fair@@": 5003,
  "duty": 5004,
  "Band": 5005,
  "motion": 5006,
  "aster": 5007,
  "flying": 5008,
  "jo": 5009,
  "links": 5010,
  "why": 5011,
  "Christ@@": 5012,
  "ful@@": 5013,
  "Lincoln": 5014,
  "sub": 5015,
  "Slov@@": 5016,
  "domin@@": 5017,
  "skills": 5018,
  "tics": 5019,
  "God@@": 5020,
  "rey": 5021,
  "capture": 5022,
  "ecting": 5023,
  "Miami": 5024,
  "aining": 5025,
  "businesses": 5026,
  "criticized": 5027,
  "Ball@@": 5028,
  "lob@@": 5029,
  "low@@": 5030,
  "Constitution": 5031,
  "shr@@": 5032,
  "purchase": 5033,
  "missions": 5034,
  "Moore": 5035,
  "ras": 5036,
  "lawyer": 5037,
  "accompanied": 5038,
  "asses": 5039,
  "winners": 5040,
  "Doctor": 5041,
  "mur@@": 5042,
  "Five": 5043,
  "Gordon": 5044,
  "Water@@": 5045,
  "Kat@@": 5046,
  "secret": 5047,
  "Syn@@": 5048,
  "1906": 5049,
  "Hur@@": 5050,
  "sequence": 5051,
  "Mand@@": 5052,
  "91": 5053,
  "UN@@": 5054,
  "defeating": 5055,
  "Denmark": 5056,
  "tes": 5057,
  "igation": 5058,
  "actors": 5059,
  "Bell": 5060,
  "Iraq": 5061,
  "assumed": 5062,
  "passengers": 5063,
  "Sin@@": 5064,
  "mo": 5065,
  "alls": 5066,
  "determine": 5067,
  "flag": 5068,
  "Alb@@": 5069,
  "costs": 5070,
  "Up": 5071,
  "admitted": 5072,
  "Reserve": 5073,
  "champions": 5074,
  "zing": 5075,
  "pro": 5076,
  "items": 5077,
  "medium": 5078,
  "ett@@": 5079,
  "esh": 5080,
  "communication": 5081,
  "reality": 5082,
  "ace@@": 5083,
  "intelligence": 5084,
  "provincial": 5085,
  "1905": 5086,
  "een": 5087,
  "electronic": 5088,
  "path": 5089,
  "Kon@@": 5090,
  "contrast": 5091,
  "maintain": 5092,
  "flat": 5093,
  "arian": 5094,
  "Puerto": 5095,
  "edi@@": 5096,
  "freedom": 5097,
  "acid": 5098,
  "documents": 5099,
  "1907": 5100,
  "anders": 5101,
  "Athletics": 5102,
  "01": 5103,
  "illustr@@": 5104,
  "images": 5105,
  "retained": 5106,
  "Rose": 5107,
  "delivered": 5108,
  "ected": 5109,
  "factor": 5110,
  "angle": 5111,
  "Hungary": 5112,
  "contest": 5113,
  "advoc@@": 5114,
  "reaction": 5115,
  "deb@@": 5116,
  "Louisiana": 5117,
  "Ukrainian": 5118,
  "Wat@@": 5119,
  "regiment": 5120,
  "Not": 5121,
  "extra": 5122,
  "habitat": 5123,
  "win@@": 5124,
  "150": 5125,
  "Belgium": 5126,
  "banks": 5127,
  "itt": 5128,
  "routes": 5129,
  "arranged": 5130,
  "commission": 5131,
  "device": 5132,
  "request": 5133,
  "Harvard": 5134,
  "oke": 5135,
  "ø@@": 5136,
  "mark@@": 5137,
  "constit@@": 5138,
  "lying": 5139,
  "1,000": 5140,
  "attached": 5141,
  "Ottoman": 5142,
  "contributions": 5143,
  "ror": 5144,
  "Marie": 5145,
  "formally": 5146,
  "tiv@@": 5147,
  "att": 5148,
  "hydro@@": 5149,
  "publications": 5150,
  "Anna": 5151,
  "cally": 5152,
  "fication": 5153,
  "ST@@": 5154,
  "driving": 5155,
  "heat": 5156,
  "Singles": 5157,
  "AP@@": 5158,
  "streets": 5159,
  "1909": 5160,
  "ken": 5161,
  "uting": 5162,
  "DNA": 5163,
  "PS": 5164,
  "Sun@@": 5165,
  "prize": 5166,
  "Direc@@": 5167,
  "wick": 5168,
  "reign": 5169,
  "showing": 5170,
  "eland": 5171,
  "tion@@": 5172,
  "prop@@": 5173,
  "commer@@": 5174,
  "iled": 5175,
  "orial": 5176,
  "rop@@": 5177,
  "integ@@": 5178,
  "poem": 5179,
  "Trust": 5180,
  "visible": 5181,
  "AN@@": 5182,
  "brief": 5183,
  "Dol@@": 5184,
  "Sen@@": 5185,
  "caught": 5186,
  "Bas@@": 5187,
  "TA": 5188,
  "Son@@": 5189,
  "fle@@": 5190,
  "classified": 5191,
  "perc@@": 5192,
  "linked": 5193,
  "And@@": 5194,
  "accident": 5195,
  "ev": 5196,
  "Ori@@": 5197,
  "boo@@": 5198,
  "deputy": 5199,
  "purposes": 5200,
  "diff@@": 5201,
  "rh@@": 5202,
  "inal": 5203,
  "thor@@": 5204,
  "sha@@": 5205,
  "Tam@@": 5206,
  "anniversary": 5207,
  "persons": 5208,
  "Palace": 5209,
  "Demographics": 5210,
  "Dou@@": 5211,
  "shooting": 5212,
  "special@@": 5213,
  "sculp@@": 5214,
  "zi@@": 5215,
  "bet@@": 5216,
  "organ@@": 5217,
  "courts": 5218,
  "ownership": 5219,
  "sie": 5220,
  "Dublin": 5221,
  "trip": 5222,
  "Ry@@": 5223,
  "naval": 5224,
  "ressed": 5225,
  "crisis": 5226,
  "Season": 5227,
  "plat@@": 5228,
  "Connecticut": 5229,
  "hosts": 5230,
  "any@@": 5231,
  "colonial": 5232,
  "ete": 5233,
  "Brazilian": 5234,
  "calcul@@": 5235,
  "represents": 5236,
  "É@@": 5237,
  "alb@@": 5238,
  "biggest": 5239,
  "Good": 5240,
  "behavior": 5241,
  "Hum@@": 5242,
  "Lim@@": 5243,
  "painter": 5244,
  "attend": 5245,
  "pandemic": 5246,
  "600": 5247,
  "investment": 5248,
  "ague": 5249,
  "significantly": 5250,
  "Kim": 5251,
  "BS": 5252,
  "12th": 5253,
  "restored": 5254,
  "CEO": 5255,
  "Rights": 5256,
  "nothing": 5257,
  "disp@@": 5258,
  "interested": 5259,
  "Additionally": 5260,
  "invest@@": 5261,
  "ingham": 5262,
  "See": 5263,
  "fixed": 5264,
  "Age": 5265,
  "filed": 5266,
  "Bag@@": 5267,
  "difference": 5268,
  "Tamil": 5269,
  "alli@@": 5270,
  "save": 5271,
  "Iv@@": 5272,
  "Max": 5273,
  "visual": 5274,
  "Stre@@": 5275,
  "object": 5276,
  "5,@@": 5277,
  "desc@@": 5278,
  "itting": 5279,
  "alised": 5280,
  "boats": 5281,
  "ă@@": 5282,
  "ghts": 5283,
  "sis": 5284,
  "NBA": 5285,
  "Rap@@": 5286,
  "folk": 5287,
  "guard": 5288,
  "understanding": 5289,
  "carrying": 5290,
  "fashion": 5291,
  "AI@@": 5292,
  "publishing": 5293,
  "translated": 5294,
  "je": 5295,
  "Margaret": 5296,
  "ABC": 5297,
  "Gold@@": 5298,
  "concerns": 5299,
  "rein@@": 5300,
  "flows": 5301,
  "ods": 5302,
  "separated": 5303,
  "Saturday": 5304,
  "ashed": 5305,
  "Kor@@": 5306,
  "Edinburgh": 5307,
  "Sn@@": 5308,
  "09": 5309,
  "policies": 5310,
  "collec@@": 5311,
  "eh": 5312,
  "falls": 5313,
  "educ@@": 5314,
  "ō@@": 5315,
  "franchise": 5316,
  "tied": 5317,
  "13th": 5318,
  "stopped": 5319,
  "ph": 5320,
  "tured": 5321,
  "SP@@": 5322,
  "dynasty": 5323,
  "adapted": 5324,
  "rev@@": 5325,
  "Mountains": 5326,
  "actual": 5327,
  "Internet": 5328,
  "chance": 5329,
  "appearing": 5330,
  "â@@": 5331,
  "Week": 5332,
  "Whe@@": 5333,
  "degrees": 5334,
  "6,@@": 5335,
  "duties": 5336,
  "bird": 5337,
  "cho@@": 5338,
  "ów": 5339,
  "Lan@@": 5340,
  "Ear@@": 5341,
  "cla@@": 5342,
  "township": 5343,
  "az": 5344,
  "learned": 5345,
  "require": 5346,
  "teenth": 5347,
  "Cleveland": 5348,
  "Ful@@": 5349,
  "note": 5350,
  "owed": 5351,
  "thing": 5352,
  "Nat@@": 5353,
  "wounded": 5354,
  "lers": 5355,
  "competitions": 5356,
  "liz@@": 5357,
  "Montreal": 5358,
  "ety": 5359,
  "Portugal": 5360,
  "cas@@": 5361,
  "mobile": 5362,
  "ry@@": 5363,
  "Fran@@": 5364,
  "Austrian": 5365,
  "by@@": 5366,
  "Aut@@": 5367,
  "Metropolitan": 5368,
  "occupation": 5369,
  "defensive": 5370,
  "1904": 5371,
  "arrival": 5372,
  "acqu@@": 5373,
  "compet@@": 5374,
  "Even": 5375,
  "institution": 5376,
  "ishing": 5377,
  "apped": 5378,
  "lights": 5379,
  "Gran@@": 5380,
  "ear": 5381,
  "missing": 5382,
  "acked": 5383,
  "popularity": 5384,
  "ums": 5385,
  "Na@@": 5386,
  "membership": 5387,
  "teen": 5388,
  "08": 5389,
  "anese": 5390,
  "crossing": 5391,
  "destro@@": 5392,
  "sh": 5393,
  "flowers": 5394,
  "organiz@@": 5395,
  "tennis": 5396,
  "qualifying": 5397,
  "stance": 5398,
  "Deputy": 5399,
  "medicine": 5400,
  "Broadway": 5401,
  "Guard": 5402,
  "lay": 5403,
  "printed": 5404,
  "Ray": 5405,
  "faculty": 5406,
  "som@@": 5407,
  "ood@@": 5408,
  "Mill@@": 5409,
  "Ryan": 5410,
  "daughters": 5411,
  "Atlanta": 5412,
  "Sher@@": 5413,
  "Now": 5414,
  "Command": 5415,
  "legislation": 5416,
  "relative": 5417,
  "waters": 5418,
  "Ep@@": 5419,
  "scholars": 5420,
  "ender": 5421,
  "severe": 5422,
  "responsibility": 5423,
  "ensure": 5424,
  "hits": 5425,
  "sole": 5426,
  "enting": 5427,
  "rel": 5428,
  "Defense": 5429,
  "gone": 5430,
  "Walker": 5431,
  "roughly": 5432,
  "tel": 5433,
  "weekly": 5434,
  "15th": 5435,
  "hard@@": 5436,
  "Colonel": 5437,
  "measure": 5438,
  "adding": 5439,
  "map": 5440,
  "lists": 5441,
  "fas@@": 5442,
  "eta": 5443,
  "mos@@": 5444,
  "Battalion": 5445,
  "locality": 5446,
  "testing": 5447,
  "dre@@": 5448,
  "jected": 5449,
  "Kath@@": 5450,
  "pay@@": 5451,
  "suggests": 5452,
  "thousands": 5453,
  "advis@@": 5454,
  "perhaps": 5455,
  "Global": 5456,
  "storage": 5457,
  "Lawrence": 5458,
  "ation@@": 5459,
  "peaked": 5460,
  "Indonesia": 5461,
  "Wo@@": 5462,
  "fit": 5463,
  "ct": 5464,
  "ential": 5465,
  "800": 5466,
  "Malaysia": 5467,
  "1901": 5468,
  "Kol@@": 5469,
  "Meg@@": 5470,
  "Seattle": 5471,
  "Cher@@": 5472,
  "ok": 5473,
  "involving": 5474,
  "aus@@": 5475,
  "priest": 5476,
  "Construction": 5477,
  "alty": 5478,
  "ig": 5479,
  "offensive": 5480,
  "wings": 5481,
  "Li": 5482,
  "employ@@": 5483,
  "Welsh": 5484,
  "prepared": 5485,
  "indic@@": 5486,
  "expres@@": 5487,
  "extremely": 5488,
  "successor": 5489,
  "Rand@@": 5490,
  "turns": 5491,
  "José": 5492,
  "eral": 5493,
  "eth": 5494,
  "05": 5495,
  "initi@@": 5496,
  "practices": 5497,
  "encing": 5498,
  "stayed": 5499,
  "sel": 5500,
  "14th": 5501,
  "bringing": 5502,
  "windows": 5503,
  "brick": 5504,
  "narrow": 5505,
  "Chairman": 5506,
  "Tran@@": 5507,
  "ranking": 5508,
  "ails": 5509,
  "aspects": 5510,
  "fru@@": 5511,
  "tives": 5512,
  "neg@@": 5513,
  "wa@@": 5514,
  "Ele@@": 5515,
  "ilt": 5516,
  "otherwise": 5517,
  "alization": 5518,
  "ower": 5519,
  "criticism": 5520,
  "list@@": 5521,
  "lo": 5522,
  "Rev@@": 5523,
  "qui@@": 5524,
  "pu@@": 5525,
  "reform": 5526,
  "star@@": 5527,
  "moth": 5528,
  "bus@@": 5529,
  "dence": 5530,
  "Champions": 5531,
  "10th": 5532,
  "subjects": 5533,
  "fan": 5534,
  "graduating": 5535,
  "eri@@": 5536,
  "CE@@": 5537,
  "etta": 5538,
  "expression": 5539,
  "commune": 5540,
  "yc@@": 5541,
  "coastal": 5542,
  "challenge": 5543,
  "bo": 5544,
  "ve@@": 5545,
  "Sec@@": 5546,
  "1903": 5547,
  "ump": 5548,
  "authors": 5549,
  "technique": 5550,
  "Mari@@": 5551,
  "FL": 5552,
  "Harris": 5553,
  "human@@": 5554,
  "Studios": 5555,
  "walk": 5556,
  "AF": 5557,
  "explained": 5558,
  "1902": 5559,
  "Fal@@": 5560,
  "fri@@": 5561,
  "yle": 5562,
  "net@@": 5563,
  "conduct": 5564,
  "respect": 5565,
  "Round": 5566,
  "cards": 5567,
  "cro@@": 5568,
  "present@@": 5569,
  "restaurant": 5570,
  "Schools": 5571,
  "cited": 5572,
  "sian": 5573,
  "ification": 5574,
  "ton@@": 5575,
  "astic": 5576,
  "parliament": 5577,
  "justice": 5578,
  "prime": 5579,
  "returns": 5580,
  "talk": 5581,
  "chi": 5582,
  "eld": 5583,
  "context": 5584,
  "MP@@": 5585,
  "Eric": 5586,
  "Vari@@": 5587,
  "pattern": 5588,
  "wear": 5589,
  "Rav@@": 5590,
  "nations": 5591,
  "electoral": 5592,
  "heritage": 5593,
  "Nazi": 5594,
  "ution": 5595,
  "Upper": 5596,
  "roll": 5597,
  "assembly": 5598,
  "poverty": 5599,
  "Singh": 5600,
  "Alan": 5601,
  "prisoners": 5602,
  "Sarah": 5603,
  "assistance": 5604,
  "rain": 5605,
  "D.C.": 5606,
  "Moh@@": 5607,
  "vity": 5608,
  "dest@@": 5609,
  "edited": 5610,
  "ock@@": 5611,
  "teachers": 5612,
  "north@@": 5613,
  "Liverpool": 5614,
  "devices": 5615,
  "Commander": 5616,
  "ups": 5617,
  "Through": 5618,
  "imag@@": 5619,
  "si": 5620,
  "Vienna": 5621,
  "Disney": 5622,
  "Front": 5623,
  "breaking": 5624,
  "changing": 5625,
  "drop": 5626,
  "ensis": 5627,
  "oper@@": 5628,
  "Jer@@": 5629,
  "itted": 5630,
  "Transport": 5631,
  "Ca@@": 5632,
  "differences": 5633,
  "Bou@@": 5634,
  "description": 5635,
  "Culture": 5636,
  "Mik@@": 5637,
  "universities": 5638,
  "07": 5639,
  "eda": 5640,
  "Len@@": 5641,
  "ii": 5642,
  "ć": 5643,
  "Pin@@": 5644,
  "forests": 5645,
  "innings": 5646,
  "window": 5647,
  "Fr@@": 5648,
  "replacement": 5649,
  "Track": 5650,
  "Gulf": 5651,
  "Officer": 5652,
  "Orchestra": 5653,
  "credit": 5654,
  "ld@@": 5655,
  "Nu@@": 5656,
  "sup@@": 5657,
  "Pon@@": 5658,
  "ured": 5659,
  "lit@@": 5660,
  "novels": 5661,
  "Invest@@": 5662,
  "Rod@@": 5663,
  "victims": 5664,
  "ough@@": 5665,
  "ship@@": 5666,
  "garden": 5667,
  "anthrop@@": 5668,
  "Dean": 5669,
  "Pot@@": 5670,
  "ames": 5671,
  "prosec@@": 5672,
  "Crown": 5673,
  "ees": 5674,
  "refer@@": 5675,
  "Wood": 5676,
  "instruc@@": 5677,
  "ović": 5678,
  "parliamentary": 5679,
  "entering": 5680,
  "Kl@@": 5681,
  "labor": 5682,
  "classic": 5683,
  "anch@@": 5684,
  "Ang@@": 5685,
  "childhood": 5686,
  "grown": 5687,
  "red@@": 5688,
  "sle@@": 5689,
  "ection": 5690,
  "rest@@": 5691,
  "emen": 5692,
  "Grant": 5693,
  "ogen@@": 5694,
  "NE@@": 5695,
  "markets": 5696,
  "lav@@": 5697,
  "Cathedral": 5698,
  "Kil@@": 5699,
  "mounted": 5700,
  "Pau@@": 5701,
  "compos@@": 5702,
  "aire": 5703,
  "tle": 5704,
  "evening": 5705,
  "lar@@": 5706,
  "South@@": 5707,
  "diag@@": 5708,
  "Meanwhile": 5709,
  "sand@@": 5710,
  "itic": 5711,
  "Kennedy": 5712,
  "tail": 5713,
  "brain": 5714,
  "capable": 5715,
  "listing": 5716,
  "patri@@": 5717,
  "coll@@": 5718,
  "scheme": 5719,
  "equipped": 5720,
  "Chart": 5721,
  "medieval": 5722,
  "ink": 5723,
  "Maj@@": 5724,
  "send": 5725,
  "10.@@": 5726,
  "Boys": 5727,
  "Player": 5728,
  "parallel": 5729,
  "soil": 5730,
  "Basketball": 5731,
  "Alliance": 5732,
  "Deb@@": 5733,
  "Ross": 5734,
  "Aqu@@": 5735,
  "agers": 5736,
  "exclu@@": 5737,
  "lap": 5738,
  "lau@@": 5739,
  "guitarist": 5740,
  "Liber@@": 5741,
  "depth": 5742,
  "pil@@": 5743,
  "safe": 5744,
  "1920s": 5745,
  "branches": 5746,
  "sid@@": 5747,
  "Rio": 5748,
  "10,000": 5749,
  "grow": 5750,
  "ks@@": 5751,
  "Camp": 5752,
  "sul@@": 5753,
  "í": 5754,
  "Sho@@": 5755,
  "replacing": 5756,
  "AP": 5757,
  "temporary": 5758,
  "uring": 5759,
  "Brow@@": 5760,
  "Ken@@": 5761,
  "CD@@": 5762,
  "eyes": 5763,
  "Review": 5764,
  "depic@@": 5765,
  "eks": 5766,
  "controversy": 5767,
  "requirements": 5768,
  "Birmingham": 5769,
  "edly": 5770,
  "satis@@": 5771,
  "spoken": 5772,
  "ez@@": 5773,
  "iry": 5774,
  "evalu@@": 5775,
  "translation": 5776,
  "Mit@@": 5777,
  "Sou@@": 5778,
  "components": 5779,
  "odi@@": 5780,
  "ported": 5781,
  "ée": 5782,
  "coverage": 5783,
  "Your": 5784,
  "ights": 5785,
  "mu@@": 5786,
  "solution": 5787,
  "Conservative": 5788,
  "ager": 5789,
  "drawing": 5790,
  "sized": 5791,
  "Sig@@": 5792,
  "ota": 5793,
  "hot": 5794,
  "threat": 5795,
  "encies": 5796,
  "offering": 5797,
  "rail@@": 5798,
  "uk": 5799,
  "Clar@@": 5800,
  "appeal": 5801,
  "lah": 5802,
  "fishing": 5803,
  "medals": 5804,
  "Carl": 5805,
  "DA": 5806,
  "ple": 5807,
  "Kelly": 5808,
  "agan": 5809,
  "ulate": 5810,
  "Kevin": 5811,
  "Bak@@": 5812,
  "Baltimore": 5813,
  "downtown": 5814,
  "lose": 5815,
  "Good@@": 5816,
  "finding": 5817,
  "rich@@": 5818,
  "Agency": 5819,
  "Lower": 5820,
  "critic": 5821,
  "revol@@": 5822,
  "CP@@": 5823,
  "Jordan": 5824,
  "Garden": 5825,
  "uf@@": 5826,
  "Hills": 5827,
  "onn@@": 5828,
  "ı@@": 5829,
  "facing": 5830,
  "ference": 5831,
  "wooden": 5832,
  "Athletic": 5833,
  "venture": 5834,
  "squadron": 5835,
  "cker": 5836,
  "mal": 5837,
  "Pittsburgh": 5838,
  "itable": 5839,
  "debate": 5840,
  "opinion": 5841,
  "Arkansas": 5842,
  "studying": 5843,
  "sanc@@": 5844,
  "slow": 5845,
  "Od@@": 5846,
  "autom@@": 5847,
  "zo@@": 5848,
  "Nam@@": 5849,
  "instance": 5850,
  "soccer": 5851,
  "struck": 5852,
  "vessels": 5853,
  "artistic": 5854,
  "ears": 5855,
  "Ltd": 5856,
  "Anti@@": 5857,
  "&apos;m": 5858,
  "filmed": 5859,
  "ić": 5860,
  "Energy": 5861,
  "sufficient": 5862,
  "Rou@@": 5863,
  "iny": 5864,
  "task": 5865,
  "viewers": 5866,
  "declined": 5867,
  "Doc@@": 5868,
  "Thompson": 5869,
  "pm": 5870,
  "Trump": 5871,
  "din@@": 5872,
  "Cle@@": 5873,
  "oods": 5874,
  "Jane": 5875,
  "RO@@": 5876,
  "threatened": 5877,
  "approval": 5878,
  "broad": 5879,
  "transl@@": 5880,
  "portra@@": 5881,
  "powered": 5882,
  "processes": 5883,
  "Morgan": 5884,
  "Heart": 5885,
  "picture": 5886,
  "railroad": 5887,
  "Campbell": 5888,
  "Metro": 5889,
  "boundary": 5890,
  "lik@@": 5891,
  "friendly": 5892,
  "dam": 5893,
  "04": 5894,
  "aceae": 5895,
  "nomination": 5896,
  "omb@@": 5897,
  "element": 5898,
  "celebrated": 5899,
  "oll": 5900,
  "with@@": 5901,
  "Opera": 5902,
  "1898": 5903,
  "losses": 5904,
  "develop@@": 5905,
  "Att@@": 5906,
  "denied": 5907,
  "ify": 5908,
  "proposal": 5909,
  "Tan@@": 5910,
  "dog": 5911,
  "dic": 5912,
  "modified": 5913,
  "raise": 5914,
  "tom@@": 5915,
  "atures": 5916,
  "ss@@": 5917,
  "Voivodeship": 5918,
  "11th": 5919,
  "aled": 5920,
  "ida": 5921,
  "increasingly": 5922,
  "driven": 5923,
  "turing": 5924,
  "borne": 5925,
  "Russell": 5926,
  "Cos@@": 5927,
  "Cop@@": 5928,
  "manufacturing": 5929,
  "voting": 5930,
  "Convention": 5931,
  "ority": 5932,
  "alia": 5933,
  "eighth": 5934,
  "influential": 5935,
  "lav": 5936,
  "cons@@": 5937,
  "km2": 5938,
  "mac@@": 5939,
  "Here": 5940,
  "Test": 5941,
  "hair": 5942,
  "rations": 5943,
  "Web@@": 5944,
  "requires": 5945,
  "frequency": 5946,
  "skin": 5947,
  "tank": 5948,
  "tain": 5949,
  "Che@@": 5950,
  "existed": 5951,
  "olic": 5952,
  "rap@@": 5953,
  "wine": 5954,
  "Murray": 5955,
  "ce@@": 5956,
  "ordinary": 5957,
  "recre@@": 5958,
  "ardo": 5959,
  "lasted": 5960,
  "rup@@": 5961,
  "feel": 5962,
  "itu@@": 5963,
  "v.": 5964,
  "Training": 5965,
  "ats@@": 5966,
  "bow@@": 5967,
  "editions": 5968,
  "experiences": 5969,
  "Daily": 5970,
  "ushing": 5971,
  "competing": 5972,
  "considerable": 5973,
  "instruments": 5974,
  "Information": 5975,
  "Roger": 5976,
  "7,@@": 5977,
  "Lane": 5978,
  "ocks": 5979,
  "06": 5980,
  "aur@@": 5981,
  "vine": 5982,
  "Mot@@": 5983,
  "aria": 5984,
  "handed": 5985,
  "oto": 5986,
  "var@@": 5987,
  "Nelson": 5988,
  "End": 5989,
  "annually": 5990,
  "ū@@": 5991,
  "DP": 5992,
  "carbon": 5993,
  "oe": 5994,
  "sta": 5995,
  "Stewart": 5996,
  "itz": 5997,
  "NBC": 5998,
  "emergency": 5999,
  "gan": 6000,
  "Kent": 6001,
  "reputation": 6002,
  "screen@@": 6003,
  "Brit@@": 6004,
  "Wel@@": 6005,
  "lined": 6006,
  "enberg": 6007,
  "gun@@": 6008,
  "ren": 6009,
  "Orthodox": 6010,
  "eigh@@": 6011,
  "Dan": 6012,
  "lov@@": 6013,
  "Hun@@": 6014,
  "onomy": 6015,
  "web": 6016,
  "canc@@": 6017,
  "relation": 6018,
  "surrounded": 6019,
  "uan": 6020,
  "dium": 6021,
  "landing": 6022,
  "class@@": 6023,
  "Girls": 6024,
  "dian": 6025,
  "message": 6026,
  "Neg@@": 6027,
  "mus@@": 6028,
  "Anim@@": 6029,
  "Bangladesh": 6030,
  "strategy": 6031,
  "achieve": 6032,
  "closure": 6033,
  "lane": 6034,
  "das": 6035,
  "plan@@": 6036,
  "questions": 6037,
  "resses": 6038,
  "Dallas": 6039,
  "thy": 6040,
  "Our": 6041,
  "suspended": 6042,
  "Peace": 6043,
  "papers": 6044,
  "Finland": 6045,
  "genre": 6046,
  "terror@@": 6047,
  "adi": 6048,
  "executed": 6049,
  "Authority": 6050,
  "ira": 6051,
  "proper": 6052,
  "progress": 6053,
  "hop": 6054,
  "Brothers": 6055,
  "age@@": 6056,
  "1899": 6057,
  "atively": 6058,
  "owns": 6059,
  "ika": 6060,
  "involvement": 6061,
  "Austin": 6062,
  "portrayed": 6063,
  "Pad@@": 6064,
  "fair": 6065,
  "repe@@": 6066,
  "Laur@@": 6067,
  "care@@": 6068,
  "limit": 6069,
  "prohib@@": 6070,
  "Franklin": 6071,
  "cip@@": 6072,
  "strongly": 6073,
  "determin@@": 6074,
  "Around": 6075,
  "affairs": 6076,
  "collections": 6077,
  "colour": 6078,
  "ually": 6079,
  "visitors": 6080,
  "concrete": 6081,
  "femin@@": 6082,
  "ont@@": 6083,
  "artillery": 6084,
  "helping": 6085,
  "recru@@": 6086,
  "somewhat": 6087,
  "whe@@": 6088,
  "rounds": 6089,
  "secure": 6090,
  "vessel": 6091,
  "tations": 6092,
  "Alex": 6093,
  "F.C.": 6094,
  "completion": 6095,
  "meets": 6096,
  "indicated": 6097,
  "popul@@": 6098,
  "far@@": 6099,
  "Medicine": 6100,
  "charts": 6101,
  "circ@@": 6102,
  "span": 6103,
  "Cham@@": 6104,
  "amateur": 6105,
  "kar@@": 6106,
  "VI": 6107,
  "By@@": 6108,
  "Romania": 6109,
  "adaptation": 6110,
  "camp@@": 6111,
  "pt": 6112,
  "foot@@": 6113,
  "raising": 6114,
  "ital@@": 6115,
  "constant": 6116,
  "Pierre": 6117,
  "Vo@@": 6118,
  "02": 6119,
  "Lyn@@": 6120,
  "Ten": 6121,
  "count": 6122,
  "ext@@": 6123,
  "movements": 6124,
  "orn": 6125,
  "tory": 6126,
  "ural": 6127,
  "Princess": 6128,
  "iti": 6129,
  "penalty": 6130,
  "Stanley": 6131,
  "dering": 6132,
  "preserved": 6133,
  "port@@": 6134,
  "Originally": 6135,
  "conclu@@": 6136,
  "uments": 6137,
  "Ah@@": 6138,
  "adap@@": 6139,
  "drew": 6140,
  "survey": 6141,
  "accoun@@": 6142,
  "fund": 6143,
  "championships": 6144,
  "CS@@": 6145,
  "iel@@": 6146,
  "ild@@": 6147,
  "Real": 6148,
  "eness": 6149,
  "recordings": 6150,
  "Ali@@": 6151,
  "Robinson": 6152,
  "touchdown": 6153,
  "Dance": 6154,
  "Senator": 6155,
  "Bruce": 6156,
  "Ev@@": 6157,
  "favor": 6158,
  "Taiwan": 6159,
  "expedition": 6160,
  "Hear@@": 6161,
  "IR@@": 6162,
  "Mission": 6163,
  "Express": 6164,
  "huge": 6165,
  "audio": 6166,
  "funded": 6167,
  "Six": 6168,
  "sponsored": 6169,
  "worn": 6170,
  "grant": 6171,
  "sy": 6172,
  "ask": 6173,
  "soundtrack": 6174,
  "Ale@@": 6175,
  "Dave": 6176,
  "happ@@": 6177,
  "Trade": 6178,
  "Wright": 6179,
  "sett@@": 6180,
  "ired": 6181,
  "laimed": 6182,
  "1890": 6183,
  "Sor@@": 6184,
  "Pass@@": 6185,
  "accounts": 6186,
  "tivity": 6187,
  "&apos;re": 6188,
  "Baron": 6189,
  "ordin@@": 6190,
  "CBS": 6191,
  "Unlike": 6192,
  "alleged": 6193,
  "seeing": 6194,
  "distinguished": 6195,
  "ister": 6196,
  "Oli@@": 6197,
  "positi@@": 6198,
  "Gri@@": 6199,
  "V.": 6200,
  "poll@@": 6201,
  "Kit@@": 6202,
  "Marshall": 6203,
  "RE@@": 6204,
  "deaths": 6205,
  "option": 6206,
  "rival": 6207,
  "AF@@": 6208,
  "Utah": 6209,
  "boards": 6210,
  "uncle": 6211,
  "aint": 6212,
  "chan@@": 6213,
  "elevation": 6214,
  "cian": 6215,
  "vit@@": 6216,
  "bit@@": 6217,
  "eff@@": 6218,
  "Vic@@": 6219,
  "populations": 6220,
  "Plat@@": 6221,
  "decline": 6222,
  "eleven": 6223,
  "kers": 6224,
  "sburg": 6225,
  "Way": 6226,
  "anding": 6227,
  "representation": 6228,
  "plant@@": 6229,
  "stab@@": 6230,
  "eliminated": 6231,
  "Racing": 6232,
  "sees": 6233,
  "surviving": 6234,
  "Zh@@": 6235,
  "Adams": 6236,
  "signs": 6237,
  "thirty": 6238,
  "Belgian": 6239,
  "camera": 6240,
  "gen": 6241,
  "zer": 6242,
  "Critical": 6243,
  "definition": 6244,
  "Spring": 6245,
  "Organization": 6246,
  "junction": 6247,
  "scrip@@": 6248,
  "How@@": 6249,
  "donated": 6250,
  "iness": 6251,
  "Christopher": 6252,
  "250": 6253,
  "Cum@@": 6254,
  "Economic": 6255,
  "found@@": 6256,
  "uss@@": 6257,
  "vill@@": 6258,
  "Vel@@": 6259,
  "Cab@@": 6260,
  "Cent@@": 6261,
  "cm": 6262,
  "counties": 6263,
  "fro@@": 6264,
  "songwriter": 6265,
  "zi": 6266,
  "ems": 6267,
  "Buck@@": 6268,
  "arg@@": 6269,
  "participation": 6270,
  "affiliated": 6271,
  "pon@@": 6272,
  "suit": 6273,
  "Within": 6274,
  "enses": 6275,
  "Brooklyn": 6276,
  "McC@@": 6277,
  "commemor@@": 6278,
  "consider": 6279,
  "mountains": 6280,
  "arrest": 6281,
  "effectively": 6282,
  "Sound": 6283,
  "Ven@@": 6284,
  "organised": 6285,
  "Vir@@": 6286,
  "classification": 6287,
  "illegal": 6288,
  "Carter": 6289,
  "apping": 6290,
  "doubles": 6291,
  "ield": 6292,
  "bi": 6293,
  "Silver": 6294,
  "bla@@": 6295,
  "Ot@@": 6296,
  "ae@@": 6297,
  "Just": 6298,
  "ready": 6299,
  "ros": 6300,
  "chem@@": 6301,
  "Ann": 6302,
  "Gur@@": 6303,
  "Sah@@": 6304,
  "Victorian": 6305,
  "Nick": 6306,
  "pursu@@": 6307,
  "Movement": 6308,
  "Fo@@": 6309,
  "Ton@@": 6310,
  "tab@@": 6311,
  "host@@": 6312,
  "vor@@": 6313,
  "Who": 6314,
  "key@@": 6315,
  "themes": 6316,
  "alt": 6317,
  "fill": 6318,
  "zes": 6319,
  "maker": 6320,
  "recogn@@": 6321,
  "differ@@": 6322,
  "grand": 6323,
  "fix@@": 6324,
  "03": 6325,
  "reflec@@": 6326,
  "ros@@": 6327,
  "Domin@@": 6328,
  "Graham": 6329,
  "natur@@": 6330,
  "directors": 6331,
  "esis": 6332,
  "secre@@": 6333,
  "tons": 6334,
  "Norman": 6335,
  "Instead": 6336,
  "ander": 6337,
  "anne": 6338,
  "contested": 6339,
  "Treaty": 6340,
  "Ari@@": 6341,
  "UEFA": 6342,
  "fr@@": 6343,
  "1896": 6344,
  "Om@@": 6345,
  "Seg@@": 6346,
  "benefit": 6347,
  "bow": 6348,
  "jobs": 6349,
  "Portland": 6350,
  "rier": 6351,
  "econom@@": 6352,
  "relief": 6353,
  "widespread": 6354,
  "lieutenant": 6355,
  "emerged": 6356,
  "attributed": 6357,
  "organ": 6358,
  "ested": 6359,
  "Kra@@": 6360,
  "infrastructure": 6361,
  "discovery": 6362,
  "Go": 6363,
  "Ant@@": 6364,
  "shares": 6365,
  "manner": 6366,
  "ernal": 6367,
  "cann@@": 6368,
  "controversial": 6369,
  "Bachelor": 6370,
  "Place": 6371,
  "iet": 6372,
  "happened": 6373,
  "Tour@@": 6374,
  "emer@@": 6375,
  "ska": 6376,
  "appropriate": 6377,
  "hang@@": 6378,
  "lan": 6379,
  "Theater": 6380,
  "cular": 6381,
  "lion": 6382,
  "FIFA": 6383,
  "aked": 6384,
  "cant@@": 6385,
  "pick": 6386,
  "output": 6387,
  "Jimmy": 6388,
  "Victor": 6389,
  "enjo@@": 6390,
  "Alfred": 6391,
  "ín": 6392,
  "Hi@@": 6393,
  "mean@@": 6394,
  "1897": 6395,
  "cultiv@@": 6396,
  "origin@@": 6397,
  "departure": 6398,
  "hei@@": 6399,
  "vis": 6400,
  "wheel": 6401,
  "recommended": 6402,
  "depending": 6403,
  "speak": 6404,
  "Bru@@": 6405,
  "occasionally": 6406,
  "spoke": 6407,
  "Trophy": 6408,
  "entation": 6409,
  "ision": 6410,
  "Den@@": 6411,
  "Tim": 6412,
  "yo": 6413,
  "Lind@@": 6414,
  "tall": 6415,
  "therapy": 6416,
  "Staff": 6417,
  "Ji@@": 6418,
  "Mes@@": 6419,
  "frag@@": 6420,
  "wild": 6421,
  "negoti@@": 6422,
  "Tower": 6423,
  "aer@@": 6424,
  "continuing": 6425,
  "tests": 6426,
  "Cultural": 6427,
  "Patri@@": 6428,
  "circuit": 6429,
  "cos@@": 6430,
  "rivers": 6431,
  "CI@@": 6432,
  "Carlos": 6433,
  "Lou@@": 6434,
  "Dod@@": 6435,
  "suicide": 6436,
  "vor": 6437,
  "agriculture": 6438,
  "aux": 6439,
  "couples": 6440,
  "ior": 6441,
  "Hen@@": 6442,
  "runner": 6443,
  "Muhammad": 6444,
  "Thailand": 6445,
  "1895": 6446,
  "demolished": 6447,
  "characteristics": 6448,
  "visiting": 6449,
  "dominated": 6450,
  "illing": 6451,
  "Egyptian": 6452,
  "less@@": 6453,
  "fruit": 6454,
  "icks": 6455,
  "minimum": 6456,
  "oud": 6457,
  "vari@@": 6458,
  "protest": 6459,
  "Coll@@": 6460,
  "eping": 6461,
  "domain": 6462,
  "NHL": 6463,
  "Bad@@": 6464,
  "ais": 6465,
  "bil@@": 6466,
  "landscape": 6467,
  "newspapers": 6468,
  "aying": 6469,
  "videos": 6470,
  "attracted": 6471,
  "Stri@@": 6472,
  "essive": 6473,
  "illed": 6474,
  "wer": 6475,
  "zy": 6476,
  "meetings": 6477,
  "seed": 6478,
  "oth@@": 6479,
  "vian": 6480,
  "dominant": 6481,
  "posted": 6482,
  "solid": 6483,
  "whereas": 6484,
  "Serbian": 6485,
  "Draft": 6486,
  "describe": 6487,
  "thouse": 6488,
  "Shortly": 6489,
  "designer": 6490,
  "roots": 6491,
  "steam": 6492,
  "Bron@@": 6493,
  "Shel@@": 6494,
  "anything": 6495,
  "gan@@": 6496,
  "youngest": 6497,
  "tribe": 6498,
  "AL@@": 6499,
  "eing": 6500,
  "resolution": 6501,
  "Jar@@": 6502,
  "Iron": 6503,
  "feed": 6504,
  "Wrestling": 6505,
  "channels": 6506,
  "Arabic": 6507,
  "eer": 6508,
  "iel": 6509,
  "utions": 6510,
  "00,000": 6511,
  "infl@@": 6512,
  "journey": 6513,
  "Matt": 6514,
  "whilst": 6515,
  "DS": 6516,
  "Fleet": 6517,
  "blocks": 6518,
  "tit@@": 6519,
  "venue": 6520,
  "1000": 6521,
  "Glasgow": 6522,
  "Girl": 6523,
  "traveled": 6524,
  "AT": 6525,
  "Romanian": 6526,
  "cold": 6527,
  "lier": 6528,
  "processing": 6529,
  "Judge": 6530,
  "chapel": 6531,
  "massive": 6532,
  "Chap@@": 6533,
  "Richmond": 6534,
  "Lei@@": 6535,
  "enson": 6536,
  "learn": 6537,
  "progres@@": 6538,
  "correspon@@": 6539,
  "kh@@": 6540,
  "Further": 6541,
  "Lov@@": 6542,
  "person@@": 6543,
  "satellite": 6544,
  "Defence": 6545,
  "patient": 6546,
  "underground": 6547,
  "cousin": 6548,
  "Capital": 6549,
  "ailed": 6550,
  "injuries": 6551,
  "zu@@": 6552,
  "chapter": 6553,
  "spl@@": 6554,
  "af": 6555,
  "anz@@": 6556,
  "assault": 6557,
  "faith": 6558,
  "cus": 6559,
  "entertainment": 6560,
  "architectural": 6561,
  "trading": 6562,
  "Moon": 6563,
  "surgery": 6564,
  "versus": 6565,
  "Lag@@": 6566,
  "longest": 6567,
  "platforms": 6568,
  "column": 6569,
  "ott@@": 6570,
  "align": 6571,
  "ler@@": 6572,
  "arc@@": 6573,
  "å@@": 6574,
  "Champion": 6575,
  "kick@@": 6576,
  "eton": 6577,
  "geon": 6578,
  "maintenance": 6579,
  "zy@@": 6580,
  "Windows": 6581,
  "cust@@": 6582,
  "jun@@": 6583,
  "show@@": 6584,
  "remainder": 6585,
  "tools": 6586,
  "Limited": 6587,
  "accept": 6588,
  "1893": 6589,
  "CH@@": 6590,
  "Benjamin": 6591,
  "mode": 6592,
  "è@@": 6593,
  "Canal": 6594,
  "LP": 6595,
  "associate": 6596,
  "dom@@": 6597,
  "sia": 6598,
  "Afghanistan": 6599,
  "Thur@@": 6600,
  "contra@@": 6601,
  "Cant@@": 6602,
  "erected": 6603,
  "Jerusalem": 6604,
  "Serbia": 6605,
  "itude": 6606,
  "amps": 6607,
  "weigh@@": 6608,
  "bling": 6609,
  "Mem@@": 6610,
  "sus@@": 6611,
  "sentenced": 6612,
  "Bos@@": 6613,
  "Boy": 6614,
  "assist": 6615,
  "belonging": 6616,
  "generated": 6617,
  "8,@@": 6618,
  "moment": 6619,
  "representatives": 6620,
  "Yan@@": 6621,
  "alp@@": 6622,
  "doctor": 6623,
  "motor": 6624,
  "missed": 6625,
  "Billy": 6626,
  "declar@@": 6627,
  "ruling": 6628,
  "Knight": 6629,
  "protests": 6630,
  "eau": 6631,
  "grave": 6632,
  "Cou@@": 6633,
  "occasions": 6634,
  "prised": 6635,
  "Hil@@": 6636,
  "turning": 6637,
  "hundreds": 6638,
  "hypo@@": 6639,
  "endemic": 6640,
  "enk@@": 6641,
  "Base": 6642,
  "Gary": 6643,
  "document": 6644,
  "ski@@": 6645,
  "infantry": 6646,
  "rist@@": 6647,
  "nat@@": 6648,
  "inch": 6649,
  "pack@@": 6650,
  "quarters": 6651,
  "row@@": 6652,
  "keeping": 6653,
  "writes": 6654,
  "Basi@@": 6655,
  "Jac@@": 6656,
  "hearing": 6657,
  "IT@@": 6658,
  "Maine": 6659,
  "gres@@": 6660,
  "predic@@": 6661,
  "val": 6662,
  "Vill@@": 6663,
  "everything": 6664,
  "Eur@@": 6665,
  "21st": 6666,
  "Roy": 6667,
  "modi@@": 6668,
  "agents": 6669,
  "ashi": 6670,
  "centers": 6671,
  "scope": 6672,
  "sper@@": 6673,
  "Sl@@": 6674,
  "iser": 6675,
  "1889": 6676,
  "vocal": 6677,
  "Cricket": 6678,
  "cancelled": 6679,
  "easy": 6680,
  "Distribution": 6681,
  "Play@@": 6682,
  "lain": 6683,
  "terminal": 6684,
  "rapidly": 6685,
  "diameter": 6686,
  "rity": 6687,
  "ensu@@": 6688,
  "transition": 6689,
  "Historical": 6690,
  "integrated": 6691,
  "abol@@": 6692,
  "competitive": 6693,
  "suffering": 6694,
  "tenure": 6695,
  "bes@@": 6696,
  "erg@@": 6697,
  "Will": 6698,
  "counter": 6699,
  "venues": 6700,
  "encouraged": 6701,
  "Indians": 6702,
  "mail": 6703,
  "fran@@": 6704,
  "defence": 6705,
  "Down": 6706,
  "1894": 6707,
  "colspan": 6708,
  "exec@@": 6709,
  "watch": 6710,
  "concerned": 6711,
  "irs": 6712,
  "begun": 6713,
  "aph@@": 6714,
  "colony": 6715,
  "test@@": 6716,
  "unk@@": 6717,
  "Bush": 6718,
  "stan": 6719,
  "stroke": 6720,
  "GA": 6721,
  "producers": 6722,
  "ention": 6723,
  "open@@": 6724,
  "transportation": 6725,
  "incorpor@@": 6726,
  "1892": 6727,
  "Nigeria": 6728,
  "bid": 6729,
  "governments": 6730,
  "Germans": 6731,
  "rice": 6732,
  "essi@@": 6733,
  "supplies": 6734,
  "regime": 6735,
  "claiming": 6736,
  "Mediterranean": 6737,
  "Bell@@": 6738,
  "Hampshire": 6739,
  "Seven": 6740,
  "sty@@": 6741,
  "gest@@": 6742,
  "defending": 6743,
  "doors": 6744,
  "After@@": 6745,
  "Cav@@": 6746,
  "bin": 6747,
  "ition@@": 6748,
  "Not@@": 6749,
  "knew": 6750,
  "Loc@@": 6751,
  "agencies": 6752,
  "Eli@@": 6753,
  "Gall@@": 6754,
  "ester": 6755,
  "EC": 6756,
  "grandfather": 6757,
  "Morris": 6758,
  "tou@@": 6759,
  "reportedly": 6760,
  "1885": 6761,
  "periods": 6762,
  "Las": 6763,
  "osis": 6764,
  "exists": 6765,
  "marketing": 6766,
  "din": 6767,
  "schedule": 6768,
  "Lis@@": 6769,
  "Islam": 6770,
  "Matthew": 6771,
  "Pos@@": 6772,
  "ratio": 6773,
  "ific@@": 6774,
  "descent": 6775,
  "Note": 6776,
  "Jam@@": 6777,
  "N.": 6778,
  "1891": 6779,
  "concern": 6780,
  "Chile": 6781,
  "dings": 6782,
  "ich": 6783,
  "memorial": 6784,
  "ni": 6785,
  "greatly": 6786,
  "steps": 6787,
  "Fro@@": 6788,
  "Acc@@": 6789,
  "electro@@": 6790,
  "ario": 6791,
  "Hispanic": 6792,
  "Fund": 6793,
  "Up@@": 6794,
  "eil@@": 6795,
  "Last": 6796,
  "cell@@": 6797,
  "crowd": 6798,
  "flo@@": 6799,
  "kg": 6800,
  "thousand": 6801,
  "Madrid": 6802,
  "absence": 6803,
  "tell": 6804,
  "esday": 6805,
  "lications": 6806,
  "mond": 6807,
  "Municipality": 6808,
  "dom": 6809,
  "normally": 6810,
  "sentence": 6811,
  "categories": 6812,
  "rell": 6813,
  "Af@@": 6814,
  "relationships": 6815,
  "Bristol": 6816,
  "Finnish": 6817,
  "Natural": 6818,
  "intro@@": 6819,
  "ints": 6820,
  "supports": 6821,
  "Van@@": 6822,
  "cking": 6823,
  "clin@@": 6824,
  "ologists": 6825,
  "EU": 6826,
  "releases": 6827,
  "sal": 6828,
  "Delhi": 6829,
  "Poly@@": 6830,
  "afterwards": 6831,
  "myster@@": 6832,
  "Gh@@": 6833,
  "deleg@@": 6834,
  "isation": 6835,
  "license": 6836,
  "Books": 6837,
  "athletes": 6838,
  "Ec@@": 6839,
  "Ward": 6840,
  "ques": 6841,
  "supporters": 6842,
  "constitutional": 6843,
  "indigenous": 6844,
  "cabinet": 6845,
  "possession": 6846,
  "uli@@": 6847,
  "asure": 6848,
  "ben@@": 6849,
  "horses": 6850,
  "ranks": 6851,
  "Lanka": 6852,
  "characterized": 6853,
  "Fort@@": 6854,
  "Low@@": 6855,
  "Nik@@": 6856,
  "inaugural": 6857,
  "Arena": 6858,
  "1888": 6859,
  "mers": 6860,
  "oner": 6861,
  "scen@@": 6862,
  "Johnny": 6863,
  "instit@@": 6864,
  "conservative": 6865,
  "facts": 6866,
  "Wa@@": 6867,
  "mic": 6868,
  "ninth": 6869,
  "Back": 6870,
  "Orleans": 6871,
  "Wy@@": 6872,
  "Yorkshire": 6873,
  "rati@@": 6874,
  "concerts": 6875,
  "Jan": 6876,
  "unusual": 6877,
  "uni@@": 6878,
  "participants": 6879,
  "Um@@": 6880,
  "creative": 6881,
  "ride": 6882,
  "Wayne": 6883,
  "spending": 6884,
  "Gaz@@": 6885,
  "RC": 6886,
  "frequent": 6887,
  "Will@@": 6888,
  "Nav@@": 6889,
  "behalf": 6890,
  "seeking": 6891,
  "abroad": 6892,
  "resident": 6893,
  "Mitchell": 6894,
  "gradually": 6895,
  "stand@@": 6896,
  "torate": 6897,
  "Cli@@": 6898,
  "orts": 6899,
  "Until": 6900,
  "Honours": 6901,
  "author@@": 6902,
  "eries": 6903,
  "oot": 6904,
  "aro": 6905,
  "rows": 6906,
  "But@@": 6907,
  "honour": 6908,
  "profile": 6909,
  "rely": 6910,
  "obtain": 6911,
  "percentage": 6912,
  "aimed": 6913,
  "etary": 6914,
  "priv@@": 6915,
  "sing@@": 6916,
  "teen@@": 6917,
  "wrest@@": 6918,
  "ien": 6919,
  "Rico": 6920,
  "stre@@": 6921,
  "inspec@@": 6922,
  "aware": 6923,
  "researchers": 6924,
  "styles": 6925,
  "assy": 6926,
  "cel@@": 6927,
  "picked": 6928,
  "Nicholas": 6929,
  "Zone": 6930,
  "diocese": 6931,
  "Pul@@": 6932,
  "dit@@": 6933,
  "relocated": 6934,
  "Greater": 6935,
  "Hart@@": 6936,
  "hero": 6937,
  "shell": 6938,
  "pole": 6939,
  "endor@@": 6940,
  "immediate": 6941,
  "advertising": 6942,
  "spac@@": 6943,
  "rom@@": 6944,
  "wat@@": 6945,
  "Farm": 6946,
  "deployed": 6947,
  "earning": 6948,
  "fitted": 6949,
  "makeup": 6950,
  "antly": 6951,
  "recovered": 6952,
  "sum": 6953,
  "tz": 6954,
  "Evans": 6955,
  "amongst": 6956,
  "commanded": 6957,
  "bot": 6958,
  "cab@@": 6959,
  "scholar": 6960,
  "segment": 6961,
  "angular": 6962,
  "Late": 6963,
  "panel": 6964,
  "eal": 6965,
  "produces": 6966,
  "cky": 6967,
  "statue": 6968,
  "Vik@@": 6969,
  "Alice": 6970,
  "seek": 6971,
  "Part": 6972,
  "archy": 6973,
  "ode": 6974,
  "leng@@": 6975,
  "publicly": 6976,
  "ridge": 6977,
  "toured": 6978,
  "poems": 6979,
  "Equ@@": 6980,
  "Transportation": 6981,
  "cially": 6982,
  "constitution": 6983,
  "exception": 6984,
  "SC@@": 6985,
  "Work": 6986,
  "networks": 6987,
  "string": 6988,
  "lam@@": 6989,
  "legs": 6990,
  "Bus@@": 6991,
  "rebuilt": 6992,
  "territories": 6993,
  "compilation": 6994,
  "genetic": 6995,
  "aste": 6996,
  "bone": 6997,
  "Songs": 6998,
  "aid@@": 6999,
  "facil@@": 7000,
  "Es@@": 7001,
  "isp@@": 7002,
  "pap@@": 7003,
  "ī@@": 7004,
  "borders": 7005,
  "ords": 7006,
  "Gol@@": 7007,
  "lington": 7008,
  "Charlie": 7009,
  "Jason": 7010,
  "Labor": 7011,
  "restoration": 7012,
  "tz@@": 7013,
  "Category": 7014,
  "NA": 7015,
  "chi@@": 7016,
  "Fellow": 7017,
  "attending": 7018,
  "transmission": 7019,
  "Beijing": 7020,
  "Pan": 7021,
  "ji@@": 7022,
  "ult": 7023,
  "instrumental": 7024,
  "asa": 7025,
  "apparently": 7026,
  "cable": 7027,
  "symbol": 7028,
  "UN": 7029,
  "opportunities": 7030,
  "add": 7031,
  "ceased": 7032,
  "component": 7033,
  "Rub@@": 7034,
  "multi@@": 7035,
  "Vancouver": 7036,
  "cler@@": 7037,
  "Warner": 7038,
  "licensed": 7039,
  "onlyinclude": 7040,
  "CE": 7041,
  "ER@@": 7042,
  "Pic@@": 7043,
  "rescue": 7044,
  "ink@@": 7045,
  "ners": 7046,
  "inn": 7047,
  "ox": 7048,
  "1865": 7049,
  "abuse": 7050,
  "dual": 7051,
  "Members": 7052,
  "spiritual": 7053,
  "dur@@": 7054,
  "intersection": 7055,
  "Schol@@": 7056,
  "identify": 7057,
  "zation": 7058,
  "rapid": 7059,
  "Fol@@": 7060,
  "Pil@@": 7061,
  "cau@@": 7062,
  "fire@@": 7063,
  "2,000": 7064,
  "Andy": 7065,
  "Warren": 7066,
  "Bla@@": 7067,
  "significance": 7068,
  "substantial": 7069,
  "idd@@": 7070,
  "oli": 7071,
  "band@@": 7072,
  "convention": 7073,
  "Boo@@": 7074,
  "ease": 7075,
  "taining": 7076,
  "function@@": 7077,
  "voters": 7078,
  "Liga": 7079,
  "serv@@": 7080,
  "ashes": 7081,
  "businessman": 7082,
  "Ow@@": 7083,
  "opes": 7084,
  "apart": 7085,
  "legislative": 7086,
  "monument": 7087,
  "ogs": 7088,
  "Malay@@": 7089,
  "HL": 7090,
  "craft": 7091,
  "extent": 7092,
  "secured": 7093,
  "Lak@@": 7094,
  "exposed": 7095,
  "perfect": 7096,
  "plate": 7097,
  "Has@@": 7098,
  "Uni@@": 7099,
  "corporate": 7100,
  "S.@@": 7101,
  "contribution": 7102,
  "submarine": 7103,
  "Milan": 7104,
  "Harrison": 7105,
  "divi@@": 7106,
  "Constit@@": 7107,
  "Mau@@": 7108,
  "IS": 7109,
  "raid": 7110,
  "Jeff": 7111,
  "ble@@": 7112,
  "Soci@@": 7113,
  "assisted": 7114,
  "possibility": 7115,
  "tak@@": 7116,
  "1880": 7117,
  "Orange": 7118,
  "suitable": 7119,
  "wedding": 7120,
  "1870": 7121,
  "Challenge": 7122,
  "ocked": 7123,
  "premiere": 7124,
  "mate": 7125,
  "sit": 7126,
  "beach": 7127,
  "operational": 7128,
  "Mark@@": 7129,
  "Throughout": 7130,
  "Persian": 7131,
  "Bible": 7132,
  "duo": 7133,
  "gay": 7134,
  "kingdom": 7135,
  "aten": 7136,
  "Digital": 7137,
  "1861": 7138,
  "understand": 7139,
  "Constant@@": 7140,
  "Luc@@": 7141,
  "estone": 7142,
  "fare": 7143,
  "py@@": 7144,
  "jection": 7145,
  "enjoyed": 7146,
  "fresh@@": 7147,
  "Stars": 7148,
  "rif@@": 7149,
  "Supp@@": 7150,
  "adults": 7151,
  "detailed": 7152,
  "ounds": 7153,
  "Fred": 7154,
  "customers": 7155,
  "rick": 7156,
  "700": 7157,
  "hau@@": 7158,
  "movies": 7159,
  "×": 7160,
  "establishing": 7161,
  "commented": 7162,
  "indicate": 7163,
  "Day@@": 7164,
  "everyone": 7165,
  "succe@@": 7166,
  "volumes": 7167,
  "LC": 7168,
  "balance": 7169,
  "Along": 7170,
  "Hawaii": 7171,
  "Tul@@": 7172,
  "external": 7173,
  "none": 7174,
  "Ny@@": 7175,
  "Results": 7176,
  "Sla@@": 7177,
  "HS": 7178,
  "1940s": 7179,
  "chester": 7180,
  "rat": 7181,
  "implemented": 7182,
  "research@@": 7183,
  "Caribbean": 7184,
  "aps": 7185,
  "excav@@": 7186,
  "file": 7187,
  "publisher": 7188,
  "revenue": 7189,
  "sung": 7190,
  "tif@@": 7191,
  "Karl": 7192,
  "essing": 7193,
  "fled": 7194,
  "Rot@@": 7195,
  "Having": 7196,
  "animated": 7197,
  "prising": 7198,
  "enters": 7199,
  "Cov@@": 7200,
  "extreme": 7201,
  "Commissioner": 7202,
  "YouTube": 7203,
  "lem": 7204,
  "bay": 7205,
  "Under@@": 7206,
  "Maced@@": 7207,
  "statistics": 7208,
  "Carl@@": 7209,
  "coalition": 7210,
  "cam@@": 7211,
  "Hindu": 7212,
  "nearest": 7213,
  "Cob@@": 7214,
  "Lab@@": 7215,
  "attorney": 7216,
  "CS": 7217,
  "eligible": 7218,
  "ias": 7219,
  "akers": 7220,
  "closing": 7221,
  "née": 7222,
  "responded": 7223,
  "Market": 7224,
  "ef": 7225,
  "width": 7226,
  "zen": 7227,
  "vo": 7228,
  "continuous": 7229,
  "rab@@": 7230,
  "shed": 7231,
  "witn@@": 7232,
  "Count": 7233,
  "Diocese": 7234,
  "acres": 7235,
  "1.5": 7236,
  "principles": 7237,
  "drafted": 7238,
  "1862": 7239,
  "insurance": 7240,
  "united": 7241,
  "looked": 7242,
  "1887": 7243,
  "broadcasting": 7244,
  "weak@@": 7245,
  "iro": 7246,
  "Friday": 7247,
  "Kap@@": 7248,
  "partially": 7249,
  "qualify": 7250,
  "Section": 7251,
  "Chand@@": 7252,
  "Thir@@": 7253,
  "benefits": 7254,
  "1864": 7255,
  "Produc@@": 7256,
  "ife": 7257,
  "tin@@": 7258,
  "assets": 7259,
  "jury": 7260,
  "numbered": 7261,
  "ão": 7262,
  "control@@": 7263,
  "outbreak": 7264,
  "verb@@": 7265,
  "aim": 7266,
  "aming": 7267,
  "Iranian": 7268,
  "beautiful": 7269,
  "struggle": 7270,
  "activist": 7271,
  "tan@@": 7272,
  "о@@": 7273,
  "buy": 7274,
  "oni": 7275,
  "mir@@": 7276,
  "violent": 7277,
  "aus": 7278,
  "Kel@@": 7279,
  "interpre@@": 7280,
  "Initially": 7281,
  "Baker": 7282,
  "SO@@": 7283,
  "Soon": 7284,
  "Long@@": 7285,
  "Rho@@": 7286,
  "experimental": 7287,
  "Mis@@": 7288,
  "adop@@": 7289,
  "hat": 7290,
  "leaf": 7291,
  "oda": 7292,
  "Charlotte": 7293,
  "enko": 7294,
  "scientists": 7295,
  "ois": 7296,
  "belonged": 7297,
  "Communications": 7298,
  "substitute": 7299,
  "concentration": 7300,
  "chamber": 7301,
  "phosph@@": 7302,
  "Bour@@": 7303,
  "Manhattan": 7304,
  "cut@@": 7305,
  "texts": 7306,
  "uns": 7307,
  "Admiral": 7308,
  "fighter": 7309,
  "Alberta": 7310,
  "−": 7311,
  "belief": 7312,
  "1881": 7313,
  "apartment": 7314,
  "palace": 7315,
  "alg@@": 7316,
  "partly": 7317,
  "restricted": 7318,
  "swimming": 7319,
  "ș@@": 7320,
  "Falls": 7321,
  "Head@@": 7322,
  "spaces": 7323,
  "Tigers": 7324,
  "discipl@@": 7325,
  "Squ@@": 7326,
  "Story": 7327,
  "Ja@@": 7328,
  "ique": 7329,
  "ria": 7330,
  "Rud@@": 7331,
  "stim@@": 7332,
  "East@@": 7333,
  "crossed": 7334,
  "physics": 7335,
  "cost@@": 7336,
  "honorary": 7337,
  "Together": 7338,
  "Thor@@": 7339,
  "mul@@": 7340,
  "disc": 7341,
  "colon@@": 7342,
  "rhyth@@": 7343,
  "confron@@": 7344,
  "merchant": 7345,
  "phil@@": 7346,
  "connecting": 7347,
  "productions": 7348,
  "eur": 7349,
  "Ten@@": 7350,
  "Municipal": 7351,
  "Branch": 7352,
  "Soccer": 7353,
  "personality": 7354,
  "subsidiary": 7355,
  "9,@@": 7356,
  "rising": 7357,
  "Freedom": 7358,
  "120": 7359,
  "1886": 7360,
  "civilian": 7361,
  "cked": 7362,
  "Rangers": 7363,
  "asser@@": 7364,
  "fee": 7365,
  "objec@@": 7366,
  "sac@@": 7367,
  "Emer@@": 7368,
  "drugs": 7369,
  "electricity": 7370,
  "bol@@": 7371,
  "useful": 7372,
  "12.@@": 7373,
  "Common": 7374,
  "advice": 7375,
  "mathematics": 7376,
  "spirit": 7377,
  "destruction": 7378,
  "may@@": 7379,
  "municipalities": 7380,
  "discussed": 7381,
  "otted": 7382,
  "altern@@": 7383,
  "cemetery": 7384,
  "opponents": 7385,
  "gy@@": 7386,
  "outer": 7387,
  "Hav@@": 7388,
  "Conserv@@": 7389,
  "ann": 7390,
  "conventional": 7391,
  "linear": 7392,
  "tend": 7393,
  "Code": 7394,
  "Rab@@": 7395,
  "lica": 7396,
  "UC@@": 7397,
  "scholarship": 7398,
  "instrument": 7399,
  "Dav@@": 7400,
  "Syria": 7401,
  "conservation": 7402,
  "mar": 7403,
  "Aer@@": 7404,
  "immigrants": 7405,
  "1863": 7406,
  "displayed": 7407,
  "Philippine": 7408,
  "accessible": 7409,
  "Wars": 7410,
  "gor@@": 7411,
  "orph@@": 7412,
  "Cooper": 7413,
  "judges": 7414,
  "asts": 7415,
  "vs.": 7416,
  "lip@@": 7417,
  "locally": 7418,
  "false": 7419,
  "stan@@": 7420,
  "Fine": 7421,
  "Studio": 7422,
  "wood@@": 7423,
  "server": 7424,
  "ME@@": 7425,
  "throne": 7426,
  "vic": 7427,
  "&apos;ve": 7428,
  "Type": 7429,
  "ranging": 7430,
  "helps": 7431,
  "Muslims": 7432,
  "grades": 7433,
  "text@@": 7434,
  "coaching": 7435,
  "settlers": 7436,
  "River@@": 7437,
  "excep@@": 7438,
  "Py@@": 7439,
  "aring": 7440,
  "neither": 7441,
  "respec@@": 7442,
  "harmon@@": 7443,
  "ker@@": 7444,
  "otes": 7445,
  "exce@@": 7446,
  "faces": 7447,
  "sa@@": 7448,
  "Trinity": 7449,
  "Legacy": 7450,
  "pip@@": 7451,
  "withdrew": 7452,
  "dismissed": 7453,
  "fra@@": 7454,
  "11.@@": 7455,
  "expensive": 7456,
  "Armenian": 7457,
  "terminus": 7458,
  "RAF": 7459,
  "provinces": 7460,
  "Barry": 7461,
  "Standard": 7462,
  "DE@@": 7463,
  "200@@": 7464,
  "cies": 7465,
  "haw@@": 7466,
  "solar": 7467,
  "wrestling": 7468,
  "és": 7469,
  "ache": 7470,
  "semi@@": 7471,
  "oting": 7472,
  "playoffs": 7473,
  "initiated": 7474,
  "ongoing": 7475,
  "umin@@": 7476,
  "Be": 7477,
  "Sau@@": 7478,
  "Universal": 7479,
  "phy": 7480,
  "matters": 7481,
  "repair": 7482,
  "retail": 7483,
  "asks": 7484,
  "crash": 7485,
  "Sport": 7486,
  "IM@@": 7487,
  "optim@@": 7488,
  "Broadcasting": 7489,
  "Ian": 7490,
  "Tai@@": 7491,
  "dish": 7492,
  "apply": 7493,
  "decor@@": 7494,
  "oted": 7495,
  "Cel@@": 7496,
  "requested": 7497,
  "à": 7498,
  "Nova": 7499,
  "Bar": 7500,
  "hear@@": 7501,
  "telling": 7502,
  "Cuba": 7503,
  "Fel@@": 7504,
  "anian": 7505,
  "initiative": 7506,
  "ère": 7507,
  "accept@@": 7508,
  "chers": 7509,
  "diverse": 7510,
  "fictional": 7511,
  "itarian": 7512,
  "Jonathan": 7513,
  "Parker": 7514,
  "lowest": 7515,
  "quant@@": 7516,
  "bot@@": 7517,
  "suburb": 7518,
  "unsuccessful": 7519,
  "com": 7520,
  "Pir@@": 7521,
  "cup": 7522,
  "tribes": 7523,
  "wants": 7524,
  "flower": 7525,
  "Hus@@": 7526,
  "susp@@": 7527,
  "wan": 7528,
  "ennial": 7529,
  "passage": 7530,
  "treaty": 7531,
  "guilty": 7532,
  "touring": 7533,
  "Video": 7534,
  "clinical": 7535,
  "Kings": 7536,
  "heim": 7537,
  "illness": 7538,
  "modern@@": 7539,
  "ime": 7540,
  "sang": 7541,
  "contest@@": 7542,
  "metre": 7543,
  "Gmina": 7544,
  "completing": 7545,
  "dispute": 7546,
  "dan@@": 7547,
  "mix@@": 7548,
  "respective": 7549,
  "Fitz@@": 7550,
  "emig@@": 7551,
  "1884": 7552,
  "appro@@": 7553,
  "banned": 7554,
  "earth": 7555,
  "milli@@": 7556,
  "tage": 7557,
  "Adelaide": 7558,
  "ML@@": 7559,
  "Years": 7560,
  "alis": 7561,
  "cial": 7562,
  "AR": 7563,
  "Hudson": 7564,
  "haz@@": 7565,
  "riage": 7566,
  "rage": 7567,
  "Cau@@": 7568,
  "electrical": 7569,
  "get@@": 7570,
  "onymous": 7571,
  "IC": 7572,
  "Lib@@": 7573,
  "cargo": 7574,
  "essions": 7575,
  "otyp@@": 7576,
  "Vil@@": 7577,
  "inning": 7578,
  "Gau@@": 7579,
  "Lang@@": 7580,
  "ckets": 7581,
  "essential": 7582,
  "50,000": 7583,
  "Socialist": 7584,
  "charity": 7585,
  "farmers": 7586,
  "inj@@": 7587,
  "sculpture": 7588,
  "hole": 7589,
  "Guinea": 7590,
  "Munich": 7591,
  "anyone": 7592,
  "qualification": 7593,
  "Nan@@": 7594,
  "Bot@@": 7595,
  "Yam@@": 7596,
  "iler": 7597,
  "Ple@@": 7598,
  "Turner": 7599,
  "minority": 7600,
  "oblig@@": 7601,
  "fts": 7602,
  "Abbey": 7603,
  "Clinton": 7604,
  "ican": 7605,
  "fam@@": 7606,
  "oded": 7607,
  "talent": 7608,
  "endant": 7609,
  "etime": 7610,
  "evacu@@": 7611,
  "margin": 7612,
  "merger": 7613,
  "regulations": 7614,
  "happy": 7615,
  "partners": 7616,
  "NY": 7617,
  "TC": 7618,
  "CC@@": 7619,
  "Cru@@": 7620,
  "Virgin": 7621,
  "Food": 7622,
  "IP": 7623,
  "pitch": 7624,
  "ž@@": 7625,
  "2000s": 7626,
  "Arg@@": 7627,
  "ui": 7628,
  "Furthermore": 7629,
  "wise": 7630,
  "correc@@": 7631,
  "emperor": 7632,
  "1882": 7633,
  "credits": 7634,
  "eting": 7635,
  "Brisbane": 7636,
  "Allied": 7637,
  "Parish": 7638,
  "Saints": 7639,
  "eck@@": 7640,
  "hop@@": 7641,
  "Jay": 7642,
  "makers": 7643,
  "roman@@": 7644,
  "Technical": 7645,
  "alt@@": 7646,
  "Buffalo": 7647,
  "Cow@@": 7648,
  "Grade": 7649,
  "sailed": 7650,
  "Action": 7651,
  "consistent": 7652,
  "eased": 7653,
  "Fur@@": 7654,
  "spi@@": 7655,
  "Wall": 7656,
  "gal@@": 7657,
  "Chil@@": 7658,
  "Jacob": 7659,
  "Saudi": 7660,
  "efficient": 7661,
  "honors": 7662,
  "weekend": 7663,
  "Associ@@": 7664,
  "conqu@@": 7665,
  "rez": 7666,
  "Net@@": 7667,
  "arrangement": 7668,
  "bor": 7669,
  "dis": 7670,
  "succ@@": 7671,
  "Roy@@": 7672,
  "iring": 7673,
  "Classic": 7674,
  "crown": 7675,
  "tification": 7676,
  "ont": 7677,
  "soft": 7678,
  "trials": 7679,
  "Hunter": 7680,
  "spor@@": 7681,
  "olo": 7682,
  "fel@@": 7683,
  "copy": 7684,
  "decisions": 7685,
  "throw": 7686,
  "bank@@": 7687,
  "rid@@": 7688,
  "occasion": 7689,
  "Sz@@": 7690,
  "onder@@": 7691,
  "sessions": 7692,
  "master@@": 7693,
  "doesn": 7694,
  "colors": 7695,
  "Oblast": 7696,
  "govern@@": 7697,
  "exclusively": 7698,
  "fy": 7699,
  "Colle@@": 7700,
  "King@@": 7701,
  "cinema": 7702,
  "remove": 7703,
  "lit": 7704,
  "Barbara": 7705,
  "PhD": 7706,
  "Industry": 7707,
  "Therefore": 7708,
  "ayan": 7709,
  "closer": 7710,
  "activated": 7711,
  "chron@@": 7712,
  "Tech": 7713,
  "Century": 7714,
  "alliance": 7715,
  "crimes": 7716,
  "ser": 7717,
  "Attorney": 7718,
  "Catherine": 7719,
  "Pel@@": 7720,
  "Urban": 7721,
  "Tab@@": 7722,
  "choose": 7723,
  "isolated": 7724,
  "moves": 7725,
  "Masters": 7726,
  "riers": 7727,
  "Mich@@": 7728,
  "conversion": 7729,
  "Hill@@": 7730,
  "iy@@": 7731,
  "traded": 7732,
  "asi": 7733,
  "focuses": 7734,
  "Territory": 7735,
  "pursue": 7736,
  "Buch@@": 7737,
  "Mut@@": 7738,
  "inten@@": 7739,
  "ima": 7740,
  "vel": 7741,
  "conclusion": 7742,
  "Control": 7743,
  "Sky": 7744,
  "anger": 7745,
  "grey": 7746,
  "ş@@": 7747,
  "tox@@": 7748,
  "ament": 7749,
  "falling": 7750,
  "Buddhist": 7751,
  "pit@@": 7752,
  "Anglo": 7753,
  "negotiations": 7754,
  "eldest": 7755,
  "ographer": 7756,
  "pas@@": 7757,
  "MC": 7758,
  "Thi@@": 7759,
  "buil@@": 7760,
  ".C.": 7761,
  "Dark": 7762,
  "Faculty": 7763,
  "wearing": 7764,
  "principle": 7765,
  "Such": 7766,
  "evol@@": 7767,
  "hunting": 7768,
  "parent": 7769,
  "strategic": 7770,
  "Griff@@": 7771,
  "dict": 7772,
  "Bengal": 7773,
  "ried": 7774,
  "Sak@@": 7775,
  "gon": 7776,
  "Mrs.": 7777,
  "limits": 7778,
  "shift": 7779,
  "connections": 7780,
  "idi@@": 7781,
  "prise": 7782,
  "oss": 7783,
  "Peninsula": 7784,
  "Woman": 7785,
  "communications": 7786,
  "recognised": 7787,
  "а@@": 7788,
  "persu@@": 7789,
  "fifteen": 7790,
  "rub@@": 7791,
  "distingu@@": 7792,
  "kill@@": 7793,
  "Bog@@": 7794,
  "Language": 7795,
  "los": 7796,
  "Fas@@": 7797,
  "akia": 7798,
  "school@@": 7799,
  "Unit": 7800,
  "timber": 7801,
  "mechanical": 7802,
  "orting": 7803,
  "Race": 7804,
  "Post@@": 7805,
  "film@@": 7806,
  "vary": 7807,
  "Radi@@": 7808,
  "gence": 7809,
  "Cincinnati": 7810,
  "search@@": 7811,
  "Mé@@": 7812,
  "Nation": 7813,
  "submitted": 7814,
  "chor@@": 7815,
  "hope": 7816,
  "Alaska": 7817,
  "concent@@": 7818,
  "grows": 7819,
  "err@@": 7820,
  "internationally": 7821,
  "nered": 7822,
  "organic": 7823,
  "Peru": 7824,
  "assists": 7825,
  "patterns": 7826,
  "Quar@@": 7827,
  "fold": 7828,
  "sisters": 7829,
  "con": 7830,
  "evolution": 7831,
  "jurisdiction": 7832,
  "aves": 7833,
  "van@@": 7834,
  "cash": 7835,
  "ng": 7836,
  "fir@@": 7837,
  "manufactured": 7838,
  "clothing": 7839,
  "phic": 7840,
  "activ@@": 7841,
  "commun@@": 7842,
  "Microsoft": 7843,
  "circumstances": 7844,
  "civi@@": 7845,
  "Conservation": 7846,
  "Dakota": 7847,
  "Springs": 7848,
  "pain": 7849,
  "traditions": 7850,
  "Do": 7851,
  "Kab@@": 7852,
  "Les": 7853,
  "Bran@@": 7854,
  "repeated": 7855,
  "apparent": 7856,
  "opping": 7857,
  "1876": 7858,
  "lingu@@": 7859,
  "Esp@@": 7860,
  "decides": 7861,
  "housed": 7862,
  "Pradesh": 7863,
  "operator": 7864,
  "travelled": 7865,
  "Model": 7866,
  "reviewed": 7867,
  "Cook": 7868,
  "drummer": 7869,
  "influences": 7870,
  "rol": 7871,
  "beating": 7872,
  "convic@@": 7873,
  "pointed": 7874,
  "Hugh": 7875,
  "provi@@": 7876,
  "references": 7877,
  "Pier@@": 7878,
  "Assistant": 7879,
  "Port@@": 7880,
  "rian": 7881,
  "Ice": 7882,
  "marry": 7883,
  "achment": 7884,
  "Pit@@": 7885,
  "reduction": 7886,
  "drums": 7887,
  "monastery": 7888,
  "else": 7889,
  "posed": 7890,
  "tunnel": 7891,
  "soldier": 7892,
  "ë@@": 7893,
  "mention": 7894,
  "dram@@": 7895,
  "leton": 7896,
  "resignation": 7897,
  "desire": 7898,
  "reveals": 7899,
  "mechanism": 7900,
  "intention": 7901,
  "stell@@": 7902,
  "Shah": 7903,
  "drivers": 7904,
  "Duch@@": 7905,
  "zero": 7906,
  "battalion": 7907,
  "Roman@@": 7908,
  "Vincent": 7909,
  "empha@@": 7910,
  "rons": 7911,
  "Collins": 7912,
  "Dru@@": 7913,
  "Peter@@": 7914,
  "2.5": 7915,
  "rement": 7916,
  "administ@@": 7917,
  "ove": 7918,
  "Democrat": 7919,
  "Luis": 7920,
  "PC@@": 7921,
  "hot@@": 7922,
  "Trail": 7923,
  "suggest": 7924,
  "etti": 7925,
  "Hab@@": 7926,
  "Jack@@": 7927,
  "Wild": 7928,
  "boundaries": 7929,
  "mix": 7930,
  "IT": 7931,
  "astronom@@": 7932,
  "esp@@": 7933,
  "utional": 7934,
  "Baptist": 7935,
  "Boh@@": 7936,
  "clearly": 7937,
  "ho": 7938,
  "tested": 7939,
  "1878": 7940,
  "Á@@": 7941,
  "myth@@": 7942,
  "pled": 7943,
  "1883": 7944,
  "Latino": 7945,
  "pit": 7946,
  "AD@@": 7947,
  "Students": 7948,
  "Spe@@": 7949,
  "delivery": 7950,
  "relevant": 7951,
  "vacc@@": 7952,
  "temperatures": 7953,
  "Barcelona": 7954,
  "Oliver": 7955,
  "eph@@": 7956,
  "avoid@@": 7957,
  "entally": 7958,
  "exhibited": 7959,
  "ags": 7960,
  "eira": 7961,
  "Hand@@": 7962,
  "bach": 7963,
  "warm": 7964,
  "ci": 7965,
  "Juli@@": 7966,
  "erous": 7967,
  "Pictures": 7968,
  "involves": 7969,
  "uma": 7970,
  "Apple": 7971,
  "Brand@@": 7972,
  "Kaz@@": 7973,
  "sex@@": 7974,
  "Jun@@": 7975,
  "thir@@": 7976,
  "Current": 7977,
  "jan": 7978,
  "Brig@@": 7979,
  "ST": 7980,
  "magnetic": 7981,
  "rin@@": 7982,
  "tone": 7983,
  "Maur@@": 7984,
  "acquisition": 7985,
  "onom@@": 7986,
  "riding": 7987,
  "1871": 7988,
  "inher@@": 7989,
  "How": 7990,
  "bic@@": 7991,
  "las@@": 7992,
  "Din@@": 7993,
  "Lloyd": 7994,
  "locomotives": 7995,
  "NR@@": 7996,
  "Nevada": 7997,
  "indicates": 7998,
  "и@@": 7999,
  "Wit@@": 8000,
  "convicted": 8001,
  "originated": 8002,
  "Hans": 8003,
  "Nak@@": 8004,
  "gy": 8005,
  "festivals": 8006,
  "manufacturer": 8007,
  "ö@@": 8008,
  "promoting": 8009,
  "CB@@": 8010,
  "photography": 8011,
  "tape": 8012,
  "cross@@": 8013,
  "versi@@": 8014,
  "ffs": 8015,
  "Conn@@": 8016,
  "eur@@": 8017,
  "overseas": 8018,
  "utiliz@@": 8019,
  "Jazz": 8020,
  "flights": 8021,
  "lex@@": 8022,
  "campaigns": 8023,
  "crow@@": 8024,
  "Boy@@": 8025,
  "Tob@@": 8026,
  "valu@@": 8027,
  "100,000": 8028,
  "bott@@": 8029,
  "defended": 8030,
  "san@@": 8031,
  "trig@@": 8032,
  "Colombia": 8033,
  "carto@@": 8034,
  "sun": 8035,
  "nec@@": 8036,
  "settlements": 8037,
  "Catal@@": 8038,
  "Players": 8039,
  "construc@@": 8040,
  "fat@@": 8041,
  "stones": 8042,
  "tap@@": 8043,
  "thereafter": 8044,
  "Father": 8045,
  "Leeds": 8046,
  "Sud@@": 8047,
  "survive": 8048,
  "topics": 8049,
  "romantic": 8050,
  "vious": 8051,
  "demonstrated": 8052,
  "layer": 8053,
  "Democrats": 8054,
  "Beng@@": 8055,
  "discussion": 8056,
  "phen@@": 8057,
  "Catholi@@": 8058,
  "Jr.": 8059,
  "Wing": 8060,
  "Xi@@": 8061,
  "Nepal": 8062,
  "Stor@@": 8063,
  "nucle@@": 8064,
  "Row@@": 8065,
  "migration": 8066,
  "cattle": 8067,
  "sson": 8068,
  "Š@@": 8069,
  "Techn@@": 8070,
  "itis": 8071,
  "Roberts": 8072,
  "Scar@@": 8073,
  "deck": 8074,
  "entary": 8075,
  "recur@@": 8076,
  "osp@@": 8077,
  "deemed": 8078,
  "promise": 8079,
  "truth": 8080,
  "Off@@": 8081,
  "hyper@@": 8082,
  "proxim@@": 8083,
  "uff": 8084,
  "yi": 8085,
  "sun@@": 8086,
  "Phoenix": 8087,
  "Christianity": 8088,
  "bomb": 8089,
  "shall": 8090,
  "stress": 8091,
  "Top@@": 8092,
  "Cul@@": 8093,
  "Phil": 8094,
  "buses": 8095,
  "Dist@@": 8096,
  "increases": 8097,
  "landed": 8098,
  "vertical": 8099,
  "Industrial": 8100,
  "permission": 8101,
  "shops": 8102,
  "usual": 8103,
  "traditionally": 8104,
  "Dead": 8105,
  "mes": 8106,
  "magazines": 8107,
  "uri": 8108,
  "rever@@": 8109,
  "Ath@@": 8110,
  "convers@@": 8111,
  "Let": 8112,
  "cians": 8113,
  "motiv@@": 8114,
  "transm@@": 8115,
  "iv": 8116,
  "expec@@": 8117,
  "iner": 8118,
  "Cin@@": 8119,
  "Gun@@": 8120,
  "opponent": 8121,
  "expand": 8122,
  "box@@": 8123,
  "fear": 8124,
  "origins": 8125,
  "twin": 8126,
  "greg@@": 8127,
  "Wall@@": 8128,
  "dependent": 8129,
  "fav@@": 8130,
  "iced": 8131,
  "debt": 8132,
  "ilities": 8133,
  "Borough": 8134,
  "roster": 8135,
  "compiled": 8136,
  "giant": 8137,
  "sam@@": 8138,
  "wealth": 8139,
  "Psych@@": 8140,
  "Medi@@": 8141,
  "Those": 8142,
  "aj": 8143,
  "battery": 8144,
  "Herbert": 8145,
  "conven@@": 8146,
  "enrolled": 8147,
  "innov@@": 8148,
  "industries": 8149,
  "pione@@": 8150,
  "certified": 8151,
  "sight": 8152,
  "aters": 8153,
  "bilities": 8154,
  "forcing": 8155,
  "LE@@": 8156,
  "ishers": 8157,
  "1860": 8158,
  "Sul@@": 8159,
  "nit@@": 8160,
  "geomet@@": 8161,
  "lift": 8162,
  "nov@@": 8163,
  "Bernard": 8164,
  "Ethiop@@": 8165,
  "Pop@@": 8166,
  "Gy@@": 8167,
  "umes": 8168,
  "Sad@@": 8169,
  "circle": 8170,
  "Leon@@": 8171,
  "participating": 8172,
  "Fair": 8173,
  "Operations": 8174,
  "funeral": 8175,
  "departed": 8176,
  "machines": 8177,
  "photographs": 8178,
  "orchestra": 8179,
  "pseud@@": 8180,
  "biological": 8181,
  "eggs": 8182,
  "shoot": 8183,
  "wealthy": 8184,
  "Hem@@": 8185,
  "breeding": 8186,
  "duced": 8187,
  "extensively": 8188,
  "complex@@": 8189,
  "iter": 8190,
  "Blu@@": 8191,
  "dict@@": 8192,
  "Azerbaijan": 8193,
  "black@@": 8194,
  "nes": 8195,
  "plement": 8196,
  "1872": 8197,
  "feder@@": 8198,
  "uts": 8199,
  "vast": 8200,
  "managing": 8201,
  "operative": 8202,
  "earn": 8203,
  "Madison": 8204,
  "essors": 8205,
  "oom": 8206,
  "Det@@": 8207,
  "anga": 8208,
  "1867": 8209,
  "Hall@@": 8210,
  "Circuit": 8211,
  "canal": 8212,
  "fined": 8213,
  "playoff": 8214,
  "quarter@@": 8215,
  "Finally": 8216,
  "Nebraska": 8217,
  "Non": 8218,
  "rarely": 8219,
  "ophi@@": 8220,
  "Jur@@": 8221,
  "measu@@": 8222,
  "ugh@@": 8223,
  "ached": 8224,
  "alle": 8225,
  "aboard": 8226,
  "resumed": 8227,
  "arti@@": 8228,
  "dy@@": 8229,
  "Hebrew": 8230,
  "Liv@@": 8231,
  "plying": 8232,
  "asha": 8233,
  "midfielder": 8234,
  "finance": 8235,
  "rus": 8236,
  "nav@@": 8237,
  "unlike": 8238,
  "Gray": 8239,
  "decorated": 8240,
  "cool@@": 8241,
  "arity": 8242,
  "exposure": 8243,
  "Hope": 8244,
  "Electric": 8245,
  "Much": 8246,
  "pages": 8247,
  "supposed": 8248,
  "interpretation": 8249,
  "walking": 8250,
  "Archbishop": 8251,
  "Side": 8252,
  "blo@@": 8253,
  "Symphony": 8254,
  "ograph@@": 8255,
  "Alger@@": 8256,
  "diplom@@": 8257,
  "dischar@@": 8258,
  "ied": 8259,
  "Frank@@": 8260,
  "ista": 8261,
  "strip": 8262,
  "tanks": 8263,
  "Giants": 8264,
  "Wang": 8265,
  "yed": 8266,
  "Sund@@": 8267,
  "medic@@": 8268,
  "Formula": 8269,
  "delayed": 8270,
  "eter@@": 8271,
  "symptoms": 8272,
  "mann@@": 8273,
  "dal": 8274,
  "Bud@@": 8275,
  "athlete": 8276,
  "dress": 8277,
  "identical": 8278,
  "legislature": 8279,
  "vised": 8280,
  "Lions": 8281,
  "economics": 8282,
  "inter": 8283,
  "SS@@": 8284,
  "Mack@@": 8285,
  "bear": 8286,
  "limit@@": 8287,
  "Costa": 8288,
  "fresh": 8289,
  "orb@@": 8290,
  "consci@@": 8291,
  "exercise": 8292,
  "preferred": 8293,
  "corresponding": 8294,
  "los@@": 8295,
  "placing": 8296,
  "soul": 8297,
  "Clin@@": 8298,
  "IP@@": 8299,
  "voy": 8300,
  "elsewhere": 8301,
  "rocks": 8302,
  "usage": 8303,
  "1875": 8304,
  "Rah@@": 8305,
  "peoples": 8306,
  "3,000": 8307,
  "tum@@": 8308,
  "comment@@": 8309,
  "Rail": 8310,
  "virus": 8311,
  "Formation": 8312,
  "Jerry": 8313,
  "ater@@": 8314,
  "describing": 8315,
  "elt": 8316,
  "implementation": 8317,
  "Blues": 8318,
  "Nin@@": 8319,
  "acher": 8320,
  "collaborated": 8321,
  "fs": 8322,
  "Primary": 8323,
  "istics": 8324,
  "regard": 8325,
  "Jes@@": 8326,
  "Systems": 8327,
  "mines": 8328,
  "thin": 8329,
  "esa": 8330,
  "utt@@": 8331,
  "Athens": 8332,
  "iki": 8333,
  "ushed": 8334,
  "ref": 8335,
  "ante": 8336,
  "asc@@": 8337,
  "nal": 8338,
  "Chamber": 8339,
  "Tax@@": 8340,
  "filming": 8341,
  "USS": 8342,
  "baby": 8343,
  "ceremon@@": 8344,
  "ech": 8345,
  "gang": 8346,
  "inherited": 8347,
  "mechan@@": 8348,
  "yweight": 8349,
  "Croatian": 8350,
  "Mod@@": 8351,
  "incumbent": 8352,
  "sevent@@": 8353,
  "Commons": 8354,
  "Ey@@": 8355,
  "ava": 8356,
  "trail": 8357,
  "Confederate": 8358,
  "Run@@": 8359,
  "cooperation": 8360,
  "Fil@@": 8361,
  "golf": 8362,
  "contributing": 8363,
  "sounds": 8364,
  "tribute": 8365,
  "fort@@": 8366,
  "nam@@": 8367,
  "Log@@": 8368,
  "Neil": 8369,
  "sharing": 8370,
  "eig@@": 8371,
  "Fern@@": 8372,
  "Warsaw": 8373,
  "Sus@@": 8374,
  "householder": 8375,
  "wick@@": 8376,
  "thick": 8377,
  "favour": 8378,
  "informed": 8379,
  "1868": 8380,
  "farming": 8381,
  "gio": 8382,
  "Mann@@": 8383,
  "bright": 8384,
  "finite": 8385,
  "Down@@": 8386,
  "Kenya": 8387,
  "appoin@@": 8388,
  "inations": 8389,
  "reaches": 8390,
  "rupt": 8391,
  "variant": 8392,
  "DJ": 8393,
  "Cit@@": 8394,
  "U.@@": 8395,
  "waste": 8396,
  "oop": 8397,
  "Wes@@": 8398,
  "acceler@@": 8399,
  "wider": 8400,
  "Rang@@": 8401,
  "dangerous": 8402,
  "Haz@@": 8403,
  "camps": 8404,
  "Cot@@": 8405,
  "Drive": 8406,
  "lighting": 8407,
  "duction": 8408,
  "alcohol": 8409,
  "tual": 8410,
  "Batt@@": 8411,
  "Bulgarian": 8412,
  "clean": 8413,
  "emin@@": 8414,
  "pract@@": 8415,
  "kal@@": 8416,
  "proteins": 8417,
  "manage": 8418,
  "constitu@@": 8419,
  "coat": 8420,
  "tun@@": 8421,
  "sou@@": 8422,
  "ailing": 8423,
  "enna": 8424,
  "outstanding": 8425,
  "physician": 8426,
  "placement": 8427,
  "berry": 8428,
  "enger": 8429,
  "partial": 8430,
  "preparation": 8431,
  "Independence": 8432,
  "Newcastle": 8433,
  "eck": 8434,
  "charter": 8435,
  "connect": 8436,
  "prices": 8437,
  "concerning": 8438,
  "enforcement": 8439,
  "nominations": 8440,
  "oria": 8441,
  "planet": 8442,
  "Ed": 8443,
  "bid@@": 8444,
  "specialized": 8445,
  "ials": 8446,
  "meter": 8447,
  "ret": 8448,
  "Dow@@": 8449,
  "ause": 8450,
  "correct": 8451,
  "Norfolk": 8452,
  "Policy": 8453,
  "bases": 8454,
  "NO@@": 8455,
  "eals": 8456,
  "unincorporated": 8457,
  "1879": 8458,
  "Shanghai": 8459,
  "Storm": 8460,
  "slaves": 8461,
  "Album": 8462,
  "ministry": 8463,
  "RA": 8464,
  "bachelor": 8465,
  "flag@@": 8466,
  "Mill": 8467,
  "Pedro": 8468,
  "oked": 8469,
  "Can": 8470,
  "Petersburg": 8471,
  "Saf@@": 8472,
  "Derby": 8473,
  "Range": 8474,
  "recalled": 8475,
  "expert": 8476,
  "Khal@@": 8477,
  "confir@@": 8478,
  "molec@@": 8479,
  "trust": 8480,
  "uda": 8481,
  "Denver": 8482,
  "ician": 8483,
  "tus": 8484,
  "1873": 8485,
  "gins": 8486,
  "eans": 8487,
  "winds": 8488,
  "Jefferson": 8489,
  "inducted": 8490,
  "automatic": 8491,
  "Terry": 8492,
  "Yale": 8493,
  "devoted": 8494,
  "sure": 8495,
  "communic@@": 8496,
  "Six@@": 8497,
  "communist": 8498,
  "jur@@": 8499,
  "Plan": 8500,
  "struggl@@": 8501,
  "express": 8502,
  "EC@@": 8503,
  "Mahar@@": 8504,
  "São": 8505,
  "cho": 8506,
  "moral": 8507,
  "diplomatic": 8508,
  "emot@@": 8509,
  "exhibitions": 8510,
  "narrative": 8511,
  "illo": 8512,
  "difficulties": 8513,
  "plain": 8514,
  "lun@@": 8515,
  "Species": 8516,
  "wait": 8517,
  "Wei@@": 8518,
  "Luke": 8519,
  "brigade": 8520,
  "mach@@": 8521,
  "prob@@": 8522,
  "ologies": 8523,
  "ento": 8524,
  "sort": 8525,
  "uniform": 8526,
  "1866": 8527,
  "dit": 8528,
  "emat@@": 8529,
  "1877": 8530,
  "ente": 8531,
  "Sultan": 8532,
  "laun@@": 8533,
  "seem": 8534,
  "11@@": 8535,
  "Based": 8536,
  "Gir@@": 8537,
  "flew": 8538,
  "eto": 8539,
  "saf@@": 8540,
  "Abu": 8541,
  "scription": 8542,
  "Argentine": 8543,
  "kan": 8544,
  "reporting": 8545,
  "speaker": 8546,
  "cri@@": 8547,
  "evolved": 8548,
  "Eventually": 8549,
  "bly": 8550,
  "consoli@@": 8551,
  "excellent": 8552,
  "inspiration": 8553,
  "cricketer": 8554,
  "icity": 8555,
  "ampton": 8556,
  "simul@@": 8557,
  "Grace": 8558,
  "Rogers": 8559,
  "weapon": 8560,
  "Hut@@": 8561,
  "approached": 8562,
  "utor": 8563,
  "fa@@": 8564,
  "designation": 8565,
  "faction": 8566,
  "Les@@": 8567,
  "Qualif@@": 8568,
  "asant": 8569,
  "recommend@@": 8570,
  "speakers": 8571,
  "fe": 8572,
  "Economy": 8573,
  "Murphy": 8574,
  "ema": 8575,
  "chie@@": 8576,
  "legacy": 8577,
  "oka": 8578,
  "scra@@": 8579,
  "Florence": 8580,
  "Keith": 8581,
  "Ridge": 8582,
  "gallery": 8583,
  "Tol@@": 8584,
  "legend": 8585,
  "tet": 8586,
  "Sug@@": 8587,
  "aha": 8588,
  "CN@@": 8589,
  "Rid@@": 8590,
  "believes": 8591,
  "bet": 8592,
  "EM@@": 8593,
  "defend": 8594,
  "design@@": 8595,
  "morph@@": 8596,
  "Architecture": 8597,
  "istan": 8598,
  "tournaments": 8599,
  "corruption": 8600,
  "explic@@": 8601,
  "classi@@": 8602,
  "ift": 8603,
  "imperial": 8604,
  "IA": 8605,
  "airing": 8606,
  "lining": 8607,
  "sand": 8608,
  "exclusive": 8609,
  "ate@@": 8610,
  "commenced": 8611,
  "shir@@": 8612,
  "Ottawa": 8613,
  "Bil@@": 8614,
  "Cho@@": 8615,
  "posts": 8616,
  "Comics": 8617,
  "Croatia": 8618,
  "punk": 8619,
  "Ach@@": 8620,
  "ission@@": 8621,
  "AN": 8622,
  "Delaware": 8623,
  "gaining": 8624,
  "iling": 8625,
  "visits": 8626,
  "eme": 8627,
  "Confeder@@": 8628,
  "Sierra": 8629,
  "birthday": 8630,
  "Kas@@": 8631,
  "mol@@": 8632,
  "diseases": 8633,
  "mainstream": 8634,
  "vey@@": 8635,
  "Harold": 8636,
  "alled": 8637,
  "amin@@": 8638,
  "continental": 8639,
  "ian@@": 8640,
  "Scre@@": 8641,
  "Helen": 8642,
  "Rac@@": 8643,
  "mamm@@": 8644,
  "WW@@": 8645,
  "consum@@": 8646,
  "fordshire": 8647,
  "historians": 8648,
  "practical": 8649,
  "guarante@@": 8650,
  "internet": 8651,
  "oun": 8652,
  "permitted": 8653,
  "saved": 8654,
  "Orig@@": 8655,
  "Bulgaria": 8656,
  "Vegas": 8657,
  "liberal": 8658,
  "Release": 8659,
  "character@@": 8660,
  "Stuart": 8661,
  "arly": 8662,
  "files": 8663,
  "heav@@": 8664,
  "six@@": 8665,
  "agog@@": 8666,
  "arriving": 8667,
  "whi@@": 8668,
  "Pow@@": 8669,
  "rupted": 8670,
  "sugar": 8671,
  "fighters": 8672,
  "benef@@": 8673,
  "kness": 8674,
  "Christians": 8675,
  "cio": 8676,
  "worker": 8677,
  "GM": 8678,
  "Lebanon": 8679,
  "extend": 8680,
  "pharm@@": 8681,
  "clan": 8682,
  "spend": 8683,
  "encour@@": 8684,
  "writings": 8685,
  "Dick": 8686,
  "Marqu@@": 8687,
  "param@@": 8688,
  "Edwards": 8689,
  "historically": 8690,
  "Ken": 8691,
  "ections": 8692,
  "inum": 8693,
  "phrase": 8694,
  "tool": 8695,
  "Anti": 8696,
  "Workers": 8697,
  "coh@@": 8698,
  "ein@@": 8699,
  "enda": 8700,
  "reducing": 8701,
  "Univers@@": 8702,
  "deriv@@": 8703,
  "town@@": 8704,
  "Pun@@": 8705,
  "Ye@@": 8706,
  "aja": 8707,
  "viewer": 8708,
  "promised": 8709,
  "€": 8710,
  "Geor@@": 8711,
  "ovo": 8712,
  "belongs": 8713,
  "challenges": 8714,
  "pa": 8715,
  "AB@@": 8716,
  "grass": 8717,
  "licated": 8718,
  "spots": 8719,
  "exact": 8720,
  "removal": 8721,
  "Financial": 8722,
  "depression": 8723,
  "columns": 8724,
  "mates": 8725,
  "prove": 8726,
  ".D.": 8727,
  "Num@@": 8728,
  "itate": 8729,
  "Flight": 8730,
  "RNA": 8731,
  "basin": 8732,
  "thinking": 8733,
  "Dennis": 8734,
  "Gregory": 8735,
  "Nature": 8736,
  "ehouse": 8737,
  "every@@": 8738,
  "Climate": 8739,
  "alive": 8740,
  "copper": 8741,
  "departments": 8742,
  "pairs": 8743,
  "Obama": 8744,
  "bed@@": 8745,
  "burned": 8746,
  "portrait": 8747,
  "attendance": 8748,
  "ograph": 8749,
  "Eu@@": 8750,
  "CDP": 8751,
  "decide": 8752,
  "carries": 8753,
  "cha": 8754,
  "chemistry": 8755,
  "coins": 8756,
  "Rain@@": 8757,
  "Venice": 8758,
  "tificate": 8759,
  "victim": 8760,
  "carrier": 8761,
  "inqu@@": 8762,
  "proof": 8763,
  "13.@@": 8764,
  "Hat@@": 8765,
  "Sax@@": 8766,
  "ogn@@": 8767,
  "Dick@@": 8768,
  "quot@@": 8769,
  "Public@@": 8770,
  "istry": 8771,
  "pitched": 8772,
  "shopping": 8773,
  "Ric@@": 8774,
  "Hob@@": 8775,
  "oriented": 8776,
  "root": 8777,
  "attempting": 8778,
  "rum@@": 8779,
  "Auckland": 8780,
  "Currently": 8781,
  "pushed": 8782,
  "е@@": 8783,
  "Campaign": 8784,
  "relegated": 8785,
  "execution": 8786,
  "looks": 8787,
  "Jose": 8788,
  "eit": 8789,
  "umping": 8790,
  "ignor@@": 8791,
  "Hughes": 8792,
  "dean": 8793,
  "ditions": 8794,
  "guests": 8795,
  "veget@@": 8796,
  "Naz@@": 8797,
  "depicted": 8798,
  "ía": 8799,
  "Southeast": 8800,
  "ason": 8801,
  "ingen": 8802,
  "Bang@@": 8803,
  "cutting": 8804,
  "elimin@@": 8805,
  "interviews": 8806,
  "measured": 8807,
  "beauty": 8808,
  "sitting": 8809,
  "actively": 8810,
  "cist": 8811,
  "coached": 8812,
  "lord": 8813,
  "spon@@": 8814,
  "accur@@": 8815,
  "backs": 8816,
  "Play": 8817,
  "affect": 8818,
  "racy": 8819,
  "till": 8820,
  "Indonesian": 8821,
  "Rat@@": 8822,
  "entrepren@@": 8823,
  "impro@@": 8824,
  "temporarily": 8825,
  "Mother": 8826,
  "elic": 8827,
  "latest": 8828,
  "predecessor": 8829,
  "variable": 8830,
  "Mass@@": 8831,
  "Mong@@": 8832,
  "Thai": 8833,
  "beetle": 8834,
  "distinction": 8835,
  "neck": 8836,
  "recon@@": 8837,
  "Contemporary": 8838,
  "Protestant": 8839,
  "impres@@": 8840,
  "Gener@@": 8841,
  "anic": 8842,
  "dollars": 8843,
  "stret@@": 8844,
  "turn@@": 8845,
  "Robin": 8846,
  "aders": 8847,
  "argu@@": 8848,
  "ony@@": 8849,
  "Histor@@": 8850,
  "thes@@": 8851,
  "1874": 8852,
  "Eagles": 8853,
  "colleges": 8854,
  "printing": 8855,
  "compan@@": 8856,
  "pain@@": 8857,
  "sacrif@@": 8858,
  "Stage": 8859,
  "attri@@": 8860,
  "namely": 8861,
  "polit@@": 8862,
  "escaped": 8863,
  "remote": 8864,
  "Bad": 8865,
  "kh": 8866,
  "1869": 8867,
  "Anglican": 8868,
  "ound": 8869,
  "recipient": 8870,
  "earthquake": 8871,
  "Sac@@": 8872,
  "summit": 8873,
  "Film@@": 8874,
  "grandson": 8875,
  "worst": 8876,
  "rett": 8877,
  "cing": 8878,
  "murdered": 8879,
  "Sant@@": 8880,
  "awareness": 8881,
  ".S.": 8882,
  "Ghana": 8883,
  "uth": 8884,
  "Cross@@": 8885,
  "characteristic": 8886,
  "functional": 8887,
  "bis@@": 8888,
  "distur@@": 8889,
  "enton": 8890,
  "administered": 8891,
  "scores": 8892,
  "zo": 8893,
  "acking": 8894,
  "cat": 8895,
  "Craig": 8896,
  "Syrian": 8897,
  "siege": 8898,
  "spin": 8899,
  "Dest@@": 8900,
  "ando": 8901,
  "coaches": 8902,
  "system@@": 8903,
  "citing": 8904,
  "remin@@": 8905,
  "Fun@@": 8906,
  "ane@@": 8907,
  "ili": 8908,
  "pulled": 8909,
  "Broad@@": 8910,
  "bes": 8911,
  "enty": 8912,
  "abolished": 8913,
  "hence": 8914,
  "Child": 8915,
  "Perry": 8916,
  "athers": 8917,
  "Chapel": 8918,
  "Writing": 8919,
  "perspective": 8920,
  "000": 8921,
  "1848": 8922,
  "Car": 8923,
  "ervation": 8924,
  "authored": 8925,
  "oga": 8926,
  "oody": 8927,
  "ó": 8928,
  "sat": 8929,
  "them@@": 8930,
  "accommod@@": 8931,
  "simultaneously": 8932,
  "AL": 8933,
  "Bobby": 8934,
  "ead": 8935,
  "horror": 8936,
  "weak": 8937,
  "bat": 8938,
  "liqu@@": 8939,
  "ressing": 8940,
  "immig@@": 8941,
  "inity": 8942,
  "sample": 8943,
  "argument": 8944,
  "bearing": 8945,
  "gauge": 8946,
  "reporter": 8947,
  "Sic@@": 8948,
  "novel@@": 8949,
  "Butler": 8950,
  "Hitler": 8951,
  "demands": 8952,
  "evil": 8953,
  "bey": 8954,
  "Aviation": 8955,
  "WA": 8956,
  "spr@@": 8957,
  "Next": 8958,
  "studios": 8959,
  "Mess@@": 8960,
  "accep@@": 8961,
  "cavalry": 8962,
  "thre@@": 8963,
  "Amsterdam": 8964,
  "Swe@@": 8965,
  "collapse": 8966,
  "disbanded": 8967,
  "slave": 8968,
  "Vid@@": 8969,
  "coo@@": 8970,
  "document@@": 8971,
  "emotional": 8972,
  "sim@@": 8973,
  "Collection": 8974,
  "qualif@@": 8975,
  "Manuel": 8976,
  "meat": 8977,
  "rul@@": 8978,
  "Protection": 8979,
  "1850": 8980,
  "Wellington": 8981,
  "Harbor": 8982,
  "OR@@": 8983,
  "pper": 8984,
  "recovery": 8985,
  "ges@@": 8986,
  "Finance": 8987,
  "lication": 8988,
  "isc@@": 8989,
  "seemed": 8990,
  "supplied": 8991,
  "switched": 8992,
  "Rest@@": 8993,
  "web@@": 8994,
  "Cla@@": 8995,
  "unless": 8996,
  "Proc@@": 8997,
  "accum@@": 8998,
  "Guy": 8999,
  "Provincial": 9000,
  "Band@@": 9001,
  "Dam": 9002,
  "atmosphere": 9003,
  "belie@@": 9004,
  "ruler": 9005,
  "jump": 9006,
  "Future": 9007,
  "TV@@": 9008,
  "gon@@": 9009,
  "Mov@@": 9010,
  "Steven": 9011,
  "Albums": 9012,
  "inks": 9013,
  "mart": 9014,
  "deci@@": 9015,
  "enthusi@@": 9016,
  "backed": 9017,
  "god@@": 9018,
  "theories": 9019,
  "Former": 9020,
  "consider@@": 9021,
  "omet@@": 9022,
  "Han": 9023,
  "Short": 9024,
  "academy": 9025,
  "Sullivan": 9026,
  "amounts": 9027,
  "dus": 9028,
  "gie": 9029,
  "guide": 9030,
  "pass@@": 9031,
  "west@@": 9032,
  "Alp@@": 9033,
  "sover@@": 9034,
  "aints": 9035,
  "tenth": 9036,
  "æ@@": 9037,
  "belt": 9038,
  "tube": 9039,
  "aller@@": 9040,
  "cap": 9041,
  "clar@@": 9042,
  "targets": 9043,
  "labour": 9044,
  "propor@@": 9045,
  "VP": 9046,
  "Venezuela": 9047,
  "Ox@@": 9048,
  "iff": 9049,
  "asking": 9050,
  "prepar@@": 9051,
  "magn@@": 9052,
  "pec@@": 9053,
  "install@@": 9054,
  "ousness": 9055,
  "restrictions": 9056,
  "scat@@": 9057,
  "Nur@@": 9058,
  "promin@@": 9059,
  "well@@": 9060,
  "wing@@": 9061,
  "simp@@": 9062,
  "M.@@": 9063,
  "Run": 9064,
  "tionary": 9065,
  "acon": 9066,
  "bridges": 9067,
  "compound": 9068,
  "receives": 9069,
  "Larry": 9070,
  "Lav@@": 9071,
  "accurate": 9072,
  "pes": 9073,
  "tively": 9074,
  "Stanford": 9075,
  "Guardian": 9076,
  "bled": 9077,
  "ographical": 9078,
  "organisations": 9079,
  "volunteers": 9080,
  "pill@@": 9081,
  "Hin@@": 9082,
  "Tat@@": 9083,
  "clock": 9084,
  "nephew": 9085,
  "…": 9086,
  "affair": 9087,
  "inhabited": 9088,
  "gradu@@": 9089,
  "documented": 9090,
  "Exchange": 9091,
  "Gilbert": 9092,
  "Males": 9093,
  "Ralph": 9094,
  "altitude": 9095,
  "anim@@": 9096,
  "Vermont": 9097,
  "oking": 9098,
  "slowly": 9099,
  "dissolved": 9100,
  "set@@": 9101,
  "ocean": 9102,
  "regulation": 9103,
  "forty": 9104,
  "options": 9105,
  "omm@@": 9106,
  "aman": 9107,
  "allest": 9108,
  "empl@@": 9109,
  "indicating": 9110,
  "Agriculture": 9111,
  "Phil@@": 9112,
  "Ther@@": 9113,
  "outdoor": 9114,
  "oven": 9115,
  "Environmental": 9116,
  "alternate": 9117,
  "drove": 9118,
  "explains": 9119,
  "monthly": 9120,
  "ression": 9121,
  "fal@@": 9122,
  "aly@@": 9123,
  "destroy": 9124,
  "Every": 9125,
  "Shep@@": 9126,
  "gathered": 9127,
  "oxide": 9128,
  "Kom@@": 9129,
  "seeds": 9130,
  "ettes": 9131,
  "comparison": 9132,
  "elite": 9133,
  "glac@@": 9134,
  "Mathemati@@": 9135,
  "Productions": 9136,
  "binding": 9137,
  "mature": 9138,
  "achi": 9139,
  "neighbor@@": 9140,
  "vocalist": 9141,
  "Flor@@": 9142,
  "rin": 9143,
  "crops": 9144,
  "ounding": 9145,
  "Kerala": 9146,
  "Petro@@": 9147,
  "Ray@@": 9148,
  "consec@@": 9149,
  "wel": 9150,
  "broad@@": 9151,
  "feeling": 9152,
  "graduation": 9153,
  "oi": 9154,
  "tica": 9155,
  "3D": 9156,
  "improvements": 9157,
  "Key": 9158,
  "clay": 9159,
  "schol@@": 9160,
  "Computer": 9161,
  "ibility": 9162,
  "Gul@@": 9163,
  "Sheffield": 9164,
  "Hamp@@": 9165,
  "tourism": 9166,
  "MO@@": 9167,
  "Motor@@": 9168,
  "simil@@": 9169,
  "waves": 9170,
  "Cruz": 9171,
  "Mason": 9172,
  "aler": 9173,
  "bars": 9174,
  "isa": 9175,
  "Bry@@": 9176,
  "extra@@": 9177,
  "Cabinet": 9178,
  "Secondary": 9179,
  "forth": 9180,
  "incar@@": 9181,
  "elementary": 9182,
  "iter@@": 9183,
  "reforms": 9184,
  "waiting": 9185,
  "agonist": 9186,
  "ticket": 9187,
  "collective": 9188,
  "comprises": 9189,
  "connects": 9190,
  "Corn@@": 9191,
  "affili@@": 9192,
  "restaurants": 9193,
  "Ancient": 9194,
  "aned": 9195,
  "hills": 9196,
  "Mills": 9197,
  "Villa": 9198,
  "distinctive": 9199,
  "stepp@@": 9200,
  "taxes": 9201,
  "Eng@@": 9202,
  "Berkeley": 9203,
  "eric": 9204,
  "aggregate": 9205,
  "crosses": 9206,
  "cryp@@": 9207,
  "ethn@@": 9208,
  "reflect": 9209,
  "vention": 9210,
  "worship": 9211,
  "Artillery": 9212,
  "atta": 9213,
  "maps": 9214,
  "allies": 9215,
  "challenged": 9216,
  "essentially": 9217,
  "Dim@@": 9218,
  "identif@@": 9219,
  "aic": 9220,
  "avy": 9221,
  "Byzantine": 9222,
  "encomp@@": 9223,
  "ogan": 9224,
  "Report": 9225,
  "app": 9226,
  "Nashville": 9227,
  "Treas@@": 9228,
  "branded": 9229,
  "Playing": 9230,
  "acker": 9231,
  "org@@": 9232,
  "ta@@": 9233,
  "&apos;d": 9234,
  "abund@@": 9235,
  "HMS": 9236,
  "breaks": 9237,
  "defender": 9238,
  "gap": 9239,
  "ground@@": 9240,
  "payment": 9241,
  "Monday": 9242,
  "consist@@": 9243,
  "ovich": 9244,
  "lement": 9245,
  "residing": 9246,
  "ér@@": 9247,
  "revolution": 9248,
  "suspension": 9249,
  "viewing": 9250,
  "RT@@": 9251,
  "Sev@@": 9252,
  "soli@@": 9253,
  "approaches": 9254,
  "leagues": 9255,
  "yth@@": 9256,
  "Jacques": 9257,
  "Joint": 9258,
  "favorite": 9259,
  "Oper@@": 9260,
  "structural": 9261,
  "Ras@@": 9262,
  "disaster": 9263,
  "scientist": 9264,
  "Student": 9265,
  "emia": 9266,
  "mits": 9267,
  "installation": 9268,
  "14.@@": 9269,
  "Def@@": 9270,
  "Roosevelt": 9271,
  "tension": 9272,
  "rator": 9273,
  "literally": 9274,
  "Beginning": 9275,
  "coup": 9276,
  "gel@@": 9277,
  "emphasis": 9278,
  "predominantly": 9279,
  "stron@@": 9280,
  "Eddie": 9281,
  "Esc@@": 9282,
  "Horse": 9283,
  "retiring": 9284,
  "Holland": 9285,
  "elev@@": 9286,
  "fun@@": 9287,
  "Performance": 9288,
  "vier": 9289,
  "impossible": 9290,
  "resol@@": 9291,
  "shut": 9292,
  "Stat@@": 9293,
  "nel": 9294,
  "touchdowns": 9295,
  "citizen": 9296,
  "C.@@": 9297,
  "sequel": 9298,
  "stem": 9299,
  "understood": 9300,
  "Fall": 9301,
  "Montana": 9302,
  "Watson": 9303,
  "battles": 9304,
  "descendants": 9305,
  "Lub@@": 9306,
  "objective": 9307,
  "issions": 9308,
  "shots": 9309,
  "silent": 9310,
  "Methodist": 9311,
  "geograph@@": 9312,
  "sail@@": 9313,
  "Small": 9314,
  "affiliate": 9315,
  "1859": 9316,
  "Chal@@": 9317,
  "Coach": 9318,
  "parks": 9319,
  "Golf": 9320,
  "technologies": 9321,
  "wo@@": 9322,
  "ible": 9323,
  "pris@@": 9324,
  "elder": 9325,
  "Box": 9326,
  "Grey": 9327,
  "Sik@@": 9328,
  "orities": 9329,
  "failing": 9330,
  "tributary": 9331,
  "1857": 9332,
  "Armed": 9333,
  "aver": 9334,
  "stops": 9335,
  "Friends": 9336,
  "authorized": 9337,
  "doc@@": 9338,
  "elect": 9339,
  "Marc@@": 9340,
  "Prefecture": 9341,
  "procedure": 9342,
  "Ma": 9343,
  "Mr": 9344,
  "August@@": 9345,
  "difficulty": 9346,
  "sent@@": 9347,
  "threw": 9348,
  "Sut@@": 9349,
  "nosis": 9350,
  "arians": 9351,
  "cogn@@": 9352,
  "esia": 9353,
  "loop": 9354,
  "rington": 9355,
  "Days": 9356,
  "Sony": 9357,
  "Wells": 9358,
  "hier@@": 9359,
  "ware": 9360,
  "dh@@": 9361,
  "gardens": 9362,
  "Susan": 9363,
  "angered": 9364,
  "zens": 9365,
  "Higher": 9366,
  "bombing": 9367,
  "statist@@": 9368,
  "atom@@": 9369,
  "consumption": 9370,
  "External": 9371,
  "Yugoslavia": 9372,
  "dramatic": 9373,
  "intellectual": 9374,
  "patrol": 9375,
  "teach": 9376,
  "SU": 9377,
  "exemp@@": 9378,
  "Delta": 9379,
  "Google": 9380,
  "pod": 9381,
  "perf@@": 9382,
  "Dy@@": 9383,
  "Part@@": 9384,
  "Sv@@": 9385,
  "eva": 9386,
  "answer": 9387,
  "eventh": 9388,
  "lex": 9389,
  "pow@@": 9390,
  "althcare": 9391,
  "phon@@": 9392,
  "recruited": 9393,
  "separ@@": 9394,
  "sporting": 9395,
  "umni": 9396,
  "Motor": 9397,
  "colleagues": 9398,
  "projec@@": 9399,
  "undergraduate": 9400,
  "deter@@": 9401,
  "exactly": 9402,
  "AG": 9403,
  "Lon@@": 9404,
  "dent": 9405,
  "Economics": 9406,
  "Raymond": 9407,
  "casualties": 9408,
  "phy@@": 9409,
  "Starting": 9410,
  "illustrated": 9411,
  "orchest@@": 9412,
  "elevated": 9413,
  "olia": 9414,
  "Tommy": 9415,
  "ERA": 9416,
  "error": 9417,
  "chen": 9418,
  "protest@@": 9419,
  "Cold": 9420,
  "Vit@@": 9421,
  "manuscript": 9422,
  "meth@@": 9423,
  "oci@@": 9424,
  "radical": 9425,
  "aband@@": 9426,
  "runners": 9427,
  "tering": 9428,
  "AFL": 9429,
  "Indies": 9430,
  "aspect": 9431,
  "referring": 9432,
  "fers": 9433,
  "truck": 9434,
  "dan": 9435,
  "Representative": 9436,
  "archaeological": 9437,
  "parking": 9438,
  "salt": 9439,
  "Nevertheless": 9440,
  "aton": 9441,
  "bie": 9442,
  "comments": 9443,
  "Call@@": 9444,
  "Fab@@": 9445,
  "Rick": 9446,
  "elabor@@": 9447,
  "stro@@": 9448,
  "Interstate": 9449,
  "contracts": 9450,
  "Let@@": 9451,
  "epi@@": 9452,
  "Chem@@": 9453,
  "Govern@@": 9454,
  "superior": 9455,
  "tourist": 9456,
  "traction": 9457,
  "Lem@@": 9458,
  "argues": 9459,
  "consist": 9460,
  "enb@@": 9461,
  "Wallace": 9462,
  "agu@@": 9463,
  "sket@@": 9464,
  "Cann@@": 9465,
  "Intelligence": 9466,
  "oding": 9467,
  "pictures": 9468,
  "Ama@@": 9469,
  "•": 9470,
  "Kos@@": 9471,
  "sustained": 9472,
  "orange": 9473,
  "Fres@@": 9474,
  "orship": 9475,
  "thers": 9476,
  "ector": 9477,
  "xed": 9478,
  "exerc@@": 9479,
  "ss": 9480,
  "Literature": 9481,
  "agree": 9482,
  "capita": 9483,
  "comedi@@": 9484,
  "publ@@": 9485,
  "Price": 9486,
  "ambassador": 9487,
  "extinct": 9488,
  "Aj@@": 9489,
  "Ivan": 9490,
  "logo": 9491,
  "puts": 9492,
  "Finals": 9493,
  "inhib@@": 9494,
  "Angel": 9495,
  "developments": 9496,
  "judicial": 9497,
  "nickname": 9498,
  "amo": 9499,
  "Archit@@": 9500,
  "Pav@@": 9501,
  "enne": 9502,
  "Leo": 9503,
  "cats": 9504,
  "Politics": 9505,
  "beam": 9506,
  "imprisoned": 9507,
  "metropolitan": 9508,
  "Bac@@": 9509,
  "Private": 9510,
  "aviation": 9511,
  "politicians": 9512,
  "Ron": 9513,
  "examination": 9514,
  "pressed": 9515,
  "acre": 9516,
  "appreci@@": 9517,
  "ishment": 9518,
  "veteran": 9519,
  "Brid@@": 9520,
  "Sep@@": 9521,
  "det": 9522,
  "firing": 9523,
  "milit@@": 9524,
  "comprehensive": 9525,
  "him@@": 9526,
  "dead@@": 9527,
  "ê@@": 9528,
  "ü@@": 9529,
  "RT": 9530,
  "engagement": 9531,
  "cit@@": 9532,
  "perceived": 9533,
  "explan@@": 9534,
  "Ast@@": 9535,
  "kir@@": 9536,
  "laboratory": 9537,
  "remov@@": 9538,
  "Arnold": 9539,
  "consul@@": 9540,
  "pred@@": 9541,
  "Dum@@": 9542,
  "Yos@@": 9543,
  "institute": 9544,
  "Hann@@": 9545,
  "tract": 9546,
  "Dame": 9547,
  "ashing": 9548,
  "orous": 9549,
  "pling": 9550,
  "quarterback": 9551,
  "Jon": 9552,
  "eplay": 9553,
  "explain": 9554,
  "widow": 9555,
  "framework": 9556,
  "neo": 9557,
  "ould": 9558,
  "sequ@@": 9559,
  "week@@": 9560,
  "exhib@@": 9561,
  "talks": 9562,
  "convinced": 9563,
  "willing": 9564,
  "Maz@@": 9565,
  "renowned": 9566,
  "Palestinian": 9567,
  "diction": 9568,
  "hidden": 9569,
  "martial": 9570,
  "oxygen": 9571,
  "exhibit": 9572,
  "Commerce": 9573,
  "itz@@": 9574,
  "kick": 9575,
  "lem@@": 9576,
  "compositions": 9577,
  "Abraham": 9578,
  "abstra@@": 9579,
  "locomotive": 9580,
  "Ambassador": 9581,
  "Imp@@": 9582,
  "McCar@@": 9583,
  "ghter": 9584,
  "dimensional": 9585,
  "Abb@@": 9586,
  "Films": 9587,
  "cep@@": 9588,
  "esman": 9589,
  "beaten": 9590,
  "tham": 9591,
  "group@@": 9592,
  "Mach@@": 9593,
  "Put@@": 9594,
  "kilometers": 9595,
  "construct": 9596,
  "evo": 9597,
  "Eth@@": 9598,
  "pron@@": 9599,
  "tag@@": 9600,
  "sman": 9601,
  "sympath@@": 9602,
  "Die": 9603,
  "enth@@": 9604,
  "putting": 9605,
  "try@@": 9606,
  "NY@@": 9607,
  "bour": 9608,
  "extending": 9609,
  "Citi@@": 9610,
  "nik": 9611,
  "Newton": 9612,
  "kar": 9613,
  "20,000": 9614,
  "loaded": 9615,
  "strateg@@": 9616,
  "Kim@@": 9617,
  "Nich@@": 9618,
  "academ@@": 9619,
  "efficiency": 9620,
  "Commercial": 9621,
  "pick@@": 9622,
  "Grammy": 9623,
  "hero@@": 9624,
  "radar": 9625,
  "syndrome": 9626,
  "ô@@": 9627,
  "productive": 9628,
  "Hei@@": 9629,
  "Railways": 9630,
  "hem@@": 9631,
  "mir": 9632,
  "udi@@": 9633,
  "sequently": 9634,
  "Vau@@": 9635,
  "frac@@": 9636,
  "Had@@": 9637,
  "calendar": 9638,
  "cali@@": 9639,
  "opsis": 9640,
  "onym": 9641,
  "shipping": 9642,
  "MTV": 9643,
  "bond": 9644,
  "imposed": 9645,
  "Competition": 9646,
  "Magic": 9647,
  "prim@@": 9648,
  "Clarke": 9649,
  "Leonard": 9650,
  "decre@@": 9651,
  "thanks": 9652,
  "sely": 9653,
  "valuable": 9654,
  "Alt@@": 9655,
  "Fourth": 9656,
  "O.": 9657,
  "prom@@": 9658,
  "iri": 9659,
  "Honor": 9660,
  "cuts": 9661,
  "Romanized": 9662,
  "announc@@": 9663,
  "dges": 9664,
  "experiments": 9665,
  "Harvey": 9666,
  "cle": 9667,
  "inser@@": 9668,
  "enzyme": 9669,
  "unanim@@": 9670,
  "Dream": 9671,
  "hospitals": 9672,
  "anism": 9673,
  "brook": 9674,
  "yal": 9675,
  "Overview": 9676,
  "equation": 9677,
  "graphic": 9678,
  "mainland": 9679,
  "Mars": 9680,
  "Penn@@": 9681,
  "revised": 9682,
  "fear@@": 9683,
  "improvement": 9684,
  "integration": 9685,
  "ons@@": 9686,
  "tours": 9687,
  "Columbus": 9688,
  "archit@@": 9689,
  "Renaissance": 9690,
  "VA": 9691,
  "attacking": 9692,
  "oses": 9693,
  "uly": 9694,
  "virtual": 9695,
  "24@@": 9696,
  "Phillips": 9697,
  "discontinued": 9698,
  "Brah@@": 9699,
  "fifty": 9700,
  "Rich@@": 9701,
  "accommodate": 9702,
  "elines": 9703,
  "founders": 9704,
  "bell": 9705,
  "scri@@": 9706,
  "gar": 9707,
  "input": 9708,
  "statements": 9709,
  "variation": 9710,
  "vi": 9711,
  "wasn": 9712,
  "ę@@": 9713,
  "Ground": 9714,
  "Pop": 9715,
  "fundamental": 9716,
  "progressive": 9717,
  "Palestine": 9718,
  "capit@@": 9719,
  "esian": 9720,
  "immigration": 9721,
  "refugees": 9722,
  "illu@@": 9723,
  "manif@@": 9724,
  "wore": 9725,
  "Prague": 9726,
  "Dr": 9727,
  "Organ@@": 9728,
  "critic@@": 9729,
  "mus": 9730,
  "symmet@@": 9731,
  "toler@@": 9732,
  "Ig@@": 9733,
  "Vietnamese": 9734,
  "altered": 9735,
  "iller": 9736,
  "ix@@": 9737,
  "pioneer": 9738,
  "Leb@@": 9739,
  "aims": 9740,
  "len": 9741,
  "Right": 9742,
  "contribute": 9743,
  "manga": 9744,
  "Weekly": 9745,
  "DO@@": 9746,
  "Election": 9747,
  "Essex": 9748,
  "Hod@@": 9749,
  "interesting": 9750,
  "н@@": 9751,
  "detail": 9752,
  "ā": 9753,
  "Gabriel": 9754,
  "universe": 9755,
  "loy@@": 9756,
  "theatrical": 9757,
  "lawsuit": 9758,
  "ires": 9759,
  "umps": 9760,
  "Hart": 9761,
  "preserve": 9762,
  "exhau@@": 9763,
  "familiar": 9764,
  "rad@@": 9765,
  "ratings": 9766,
  "spok@@": 9767,
  "traveling": 9768,
  "wrong": 9769,
  "Chang@@": 9770,
  "Montgomery": 9771,
  "Record": 9772,
  "bann@@": 9773,
  "ibn": 9774,
  "Art@@": 9775,
  "Ball": 9776,
  "Chair": 9777,
  "behavi@@": 9778,
  "corpor@@": 9779,
  "iz": 9780,
  "SP": 9781,
  "drinking": 9782,
  "owers": 9783,
  "ña": 9784,
  "Cycl@@": 9785,
  "god": 9786,
  "hou": 9787,
  "Philli@@": 9788,
  "Vladimir": 9789,
  "Shah@@": 9790,
  "discrimination": 9791,
  "elin": 9792,
  "solutions": 9793,
  "Bene@@": 9794,
  "Grove": 9795,
  "Rif@@": 9796,
  "airline": 9797,
  "relay": 9798,
  "tile": 9799,
  "VII": 9800,
  "23@@": 9801,
  "Eff@@": 9802,
  "atics": 9803,
  "discuss": 9804,
  "isha": 9805,
  "victories": 9806,
  "Alf@@": 9807,
  "Brun@@": 9808,
  "Roll@@": 9809,
  "fastest": 9810,
  "permanently": 9811,
  "tation": 9812,
  "ication": 9813,
  "tronics": 9814,
  "Bed@@": 9815,
  "controls": 9816,
  "thereby": 9817,
  "DF": 9818,
  "signals": 9819,
  "symbo@@": 9820,
  "exit": 9821,
  "flex@@": 9822,
  "Tot@@": 9823,
  "psychology": 9824,
  "wag@@": 9825,
  "celebration": 9826,
  "deploy@@": 9827,
  "Colomb@@": 9828,
  "cultures": 9829,
  "neighboring": 9830,
  "AV@@": 9831,
  "interaction": 9832,
  "E.@@": 9833,
  "ields": 9834,
  "relating": 9835,
  "vil": 9836,
  "comics": 9837,
  "compati@@": 9838,
  "consumer": 9839,
  "matic": 9840,
  "universal": 9841,
  "experiment": 9842,
  "golden": 9843,
  "ub": 9844,
  "missile": 9845,
  "shorter": 9846,
  "tub@@": 9847,
  "Oscar": 9848,
  "particip@@": 9849,
  "Wild@@": 9850,
  "prev@@": 9851,
  "serial": 9852,
  "Statistics": 9853,
  "infection": 9854,
  "pin": 9855,
  "underwent": 9856,
  "asia": 9857,
  "ll": 9858,
  "Article": 9859,
  "Ess@@": 9860,
  "Revival": 9861,
  "ulus": 9862,
  "Airlines": 9863,
  "biology": 9864,
  "artwork": 9865,
  "liquid": 9866,
  "literacy": 9867,
  "poll": 9868,
  "Typ@@": 9869,
  "bonus": 9870,
  "Congo": 9871,
  "Kun@@": 9872,
  "Parti@@": 9873,
  "SD": 9874,
  "handle": 9875,
  "molecular": 9876,
  "Gothic": 9877,
  "Junction": 9878,
  "afternoon": 9879,
  "ero@@": 9880,
  "best@@": 9881,
  "intense": 9882,
  "Phot@@": 9883,
  "addressed": 9884,
  "amer": 9885,
  "diversity": 9886,
  "faster": 9887,
  "gift": 9888,
  "Cec@@": 9889,
  "Pod@@": 9890,
  "jet": 9891,
  "kinson": 9892,
  "Otto": 9893,
  "cave": 9894,
  "democracy": 9895,
  "eters": 9896,
  "populated": 9897,
  "Main@@": 9898,
  "lance": 9899,
  "milk": 9900,
  "wit@@": 9901,
  "&apos;ll": 9902,
  "Camer@@": 9903,
  "concepts": 9904,
  "programmes": 9905,
  "su": 9906,
  "travels": 9907,
  "Alex@@": 9908,
  "centres": 9909,
  "lifetime": 9910,
  "SE": 9911,
  "IL": 9912,
  "magic": 9913,
  "passi@@": 9914,
  "Danny": 9915,
  "viously": 9916,
  "Northwest": 9917,
  "erst@@": 9918,
  "1855": 9919,
  "feld": 9920,
  "segments": 9921,
  "smooth": 9922,
  "duces": 9923,
  "empire": 9924,
  "р@@": 9925,
  "Celtic": 9926,
  "Rolling": 9927,
  "annex@@": 9928,
  "coinci@@": 9929,
  "Collec@@": 9930,
  "Minor": 9931,
  "renewed": 9932,
  "feelings": 9933,
  "worthy": 9934,
  "SL": 9935,
  "bir@@": 9936,
  "ind": 9937,
  "rics": 9938,
  "Mang@@": 9939,
  "allegations": 9940,
  "focusing": 9941,
  "fli@@": 9942,
  "genes": 9943,
  "Pear@@": 9944,
  "McG@@": 9945,
  "Revolutionary": 9946,
  "ministers": 9947,
  "reflected": 9948,
  "reser@@": 9949,
  "Boli@@": 9950,
  "Sett@@": 9951,
  "TE@@": 9952,
  "prevented": 9953,
  "stown": 9954,
  "deser@@": 9955,
  "governing": 9956,
  "insur@@": 9957,
  "night@@": 9958,
  "rebounds": 9959,
  "110": 9960,
  "Elementary": 9961,
  "Survey": 9962,
  "elia": 9963,
  "kan@@": 9964,
  "TS": 9965,
  "catch": 9966,
  "Spart@@": 9967,
  "moderate": 9968,
  "acco": 9969,
  "readers": 9970,
  "artificial": 9971,
  "burial": 9972,
  "tant": 9973,
  "Laura": 9974,
  "tend@@": 9975,
  "veter@@": 9976,
  "Kash@@": 9977,
  "revolutionary": 9978,
  "assembled": 9979,
  "Blo@@": 9980,
  "ffe": 9981,
  "fus@@": 9982,
  "hra": 9983,
  "och": 9984,
  "retro@@": 9985,
  "sar": 9986,
  "Dragon": 9987,
  "brow@@": 9988,
  "currency": 9989,
  "stit@@": 9990,
  "zu": 9991,
  "flood": 9992,
  "hoods": 9993,
  "stored": 9994,
  "exile": 9995,
  "prepare": 9996,
  "1856": 9997,
  "Feder@@": 9998,
  "Flem@@": 9999,
  "Arabia": 10000,
  "Micro@@": 10001,
  "ste": 10002,
  "Leader": 10003,
  "RI@@": 10004,
  "dogs": 10005,
  "missi@@": 10006,
  "Hunt": 10007,
  "diesel": 10008,
  "sciences": 10009,
  "warning": 10010,
  "3.5": 10011,
  "Musical": 10012,
  "Ober@@": 10013,
  "Population": 10014,
  "cylinder": 10015,
  "referendum": 10016,
  "retreat": 10017,
  "Brunswick": 10018,
  "fires": 10019,
  "maj@@": 10020,
  "rolling": 10021,
  "arena": 10022,
  "extends": 10023,
  "sei@@": 10024,
  "broadcasts": 10025,
  "enemies": 10026,
  "wars": 10027,
  "denomin@@": 10028,
  "ocy@@": 10029,
  "Stakes": 10030,
  "editorial": 10031,
  "ound@@": 10032,
  "snow": 10033,
  "Dro@@": 10034,
  "photographer": 10035,
  "Holl@@": 10036,
  "cathedral": 10037,
  "democratic": 10038,
  "J.@@": 10039,
  "absor@@": 10040,
  "arrive": 10041,
  "Liberty": 10042,
  "Ph.D.": 10043,
  "allegedly": 10044,
  "confidence": 10045,
  "photo": 10046,
  "pist@@": 10047,
  "Marsh@@": 10048,
  "Non@@": 10049,
  "ept": 10050,
  "ght@@": 10051,
  "stationed": 10052,
  "Fam@@": 10053,
  "plem@@": 10054,
  "rout@@": 10055,
  "south@@": 10056,
  "BM@@": 10057,
  "Viol@@": 10058,
  "fewer": 10059,
  "tron": 10060,
  "mitt@@": 10061,
  "pret@@": 10062,
  "Bosnia": 10063,
  "ocol": 10064,
  "umed": 10065,
  "Liu": 10066,
  "eventual": 10067,
  "fate": 10068,
  "bench": 10069,
  "demanded": 10070,
  "reverse": 10071,
  "Bennett": 10072,
  "Notes": 10073,
  "empty": 10074,
  "meas@@": 10075,
  "revival": 10076,
  "boxing": 10077,
  "fung@@": 10078,
  "samples": 10079,
  "1854": 10080,
  "Serie": 10081,
  "deliber@@": 10082,
  "Perth": 10083,
  "SM": 10084,
  "anus": 10085,
  "Aur@@": 10086,
  "Mario": 10087,
  "crimin@@": 10088,
  "incor@@": 10089,
  "alties": 10090,
  "codes": 10091,
  "dged": 10092,
  "instruction": 10093,
  "math": 10094,
  "urs": 10095,
  "Campus": 10096,
  "Zim@@": 10097,
  "dialogue": 10098,
  "memor@@": 10099,
  "min": 10100,
  "thirteen": 10101,
  "prince": 10102,
  "ranges": 10103,
  "tific@@": 10104,
  "Jamaica": 10105,
  "kidn@@": 10106,
  "portions": 10107,
  "1840": 10108,
  "Cont@@": 10109,
  "Forum": 10110,
  "Milwaukee": 10111,
  "guar@@": 10112,
  "holiday": 10113,
  "kov@@": 10114,
  "maintaining": 10115,
  "archae@@": 10116,
  "fed": 10117,
  "Mac": 10118,
  "Sing@@": 10119,
  "atur@@": 10120,
  "manip@@": 10121,
  "pure": 10122,
  "Iraqi": 10123,
  "idity": 10124,
  "revers@@": 10125,
  "telephone": 10126,
  "enabled": 10127,
  "isan": 10128,
  "shel@@": 10129,
  "Krish@@": 10130,
  "olly": 10131,
  "surprise": 10132,
  "Cameron": 10133,
  "Morning": 10134,
  "anime": 10135,
  "blu@@": 10136,
  "fantasy": 10137,
  "1858": 10138,
  "Location": 10139,
  "aside": 10140,
  "independently": 10141,
  "scor@@": 10142,
  "uter": 10143,
  "Outstanding": 10144,
  "propri@@": 10145,
  "activists": 10146,
  "fun": 10147,
  "advant@@": 10148,
  "boarding": 10149,
  "followers": 10150,
  "hardware": 10151,
  "xi@@": 10152,
  "Panama": 10153,
  "generate": 10154,
  "B.@@": 10155,
  "Classi@@": 10156,
  "Cork": 10157,
  "drum": 10158,
  "ira@@": 10159,
  "plates": 10160,
  "footage": 10161,
  "oppos@@": 10162,
  "advocate": 10163,
  "wire": 10164,
  "15.@@": 10165,
  "RS": 10166,
  "inscription": 10167,
  "AB": 10168,
  "minim@@": 10169,
  "Pom@@": 10170,
  "agreements": 10171,
  "tip": 10172,
  "Original": 10173,
  "colonies": 10174,
  "keys": 10175,
  "owski": 10176,
  "doctoral": 10177,
  "ook@@": 10178,
  "ovsky": 10179,
  "spell": 10180,
  "temp@@": 10181,
  "tioned": 10182,
  "Gand@@": 10183,
  "enlisted": 10184,
  "gress": 10185,
  "Vas@@": 10186,
  "Name": 10187,
  "dubbed": 10188,
  "arrives": 10189,
  "culmin@@": 10190,
  "elles": 10191,
  "ival@@": 10192,
  "Grande": 10193,
  "PR": 10194,
  "Rol@@": 10195,
  "hear": 10196,
  "sati@@": 10197,
  "succession": 10198,
  "summary": 10199,
  "ycle": 10200,
  "Punjab": 10201,
  "criteria": 10202,
  "engage": 10203,
  "Spirit": 10204,
  "diam@@": 10205,
  "MD": 10206,
  "Paulo": 10207,
  "freight": 10208,
  "130": 10209,
  "Data": 10210,
  "pav@@": 10211,
  "Daw@@": 10212,
  "Georgian": 10213,
  "Shakespeare": 10214,
  "itary": 10215,
  "pitcher": 10216,
  "radiation": 10217,
  "rebellion": 10218,
  "resort": 10219,
  "Dau@@": 10220,
  "Dig@@": 10221,
  "Friedrich": 10222,
  "Pearl": 10223,
  "Town@@": 10224,
  "volcan@@": 10225,
  "Joan": 10226,
  "berland": 10227,
  "fallen": 10228,
  "PO@@": 10229,
  "Shaw": 10230,
  "Boulevard": 10231,
  "ople": 10232,
  "timate": 10233,
  "vism": 10234,
  "Tou@@": 10235,
  "Wilhelm": 10236,
  "fail@@": 10237,
  "Pass": 10238,
  "handling": 10239,
  "flies": 10240,
  "ideal": 10241,
  "slavery": 10242,
  "Legal": 10243,
  "Nob@@": 10244,
  "Tac@@": 10245,
  "rivals": 10246,
  "select": 10247,
  "Eg@@": 10248,
  "Pack@@": 10249,
  "dancing": 10250,
  "orth@@": 10251,
  "Bis@@": 10252,
  "promp@@": 10253,
  "Site": 10254,
  "amer@@": 10255,
  "mixture": 10256,
  "Chronic@@": 10257,
  "announcement": 10258,
  "speci@@": 10259,
  "Indianapolis": 10260,
  "Mass": 10261,
  "atically": 10262,
  "paint": 10263,
  "shifted": 10264,
  "Cardinal": 10265,
  "Jos@@": 10266,
  "agar": 10267,
  "assessment": 10268,
  "employee": 10269,
  "plastic": 10270,
  "experts": 10271,
  "aran": 10272,
  "realized": 10273,
  "Yu@@": 10274,
  "Donn@@": 10275,
  "animation": 10276,
  "HD": 10277,
  "fourteen": 10278,
  "journalists": 10279,
  "liner": 10280,
  "onso": 10281,
  "planes": 10282,
  "specific@@": 10283,
  "basi@@": 10284,
  "noting": 10285,
  "teeth": 10286,
  "eri": 10287,
  "prises": 10288,
  "prisoner": 10289,
  "Flying": 10290,
  "releasing": 10291,
  "rome": 10292,
  "Marvel": 10293,
  "Volunte@@": 10294,
  "updated": 10295,
  "carp@@": 10296,
  "generations": 10297,
  "hec@@": 10298,
  "rank@@": 10299,
  "Nap@@": 10300,
  "sin": 10301,
  "Sky@@": 10302,
  "Where": 10303,
  "tender": 10304,
  "ux": 10305,
  "Wolf": 10306,
  "conducting": 10307,
  "fairly": 10308,
  "layout": 10309,
  "Chev@@": 10310,
  "issa": 10311,
  "athletic": 10312,
  "abor@@": 10313,
  "belong": 10314,
  "sym@@": 10315,
  "intervention": 10316,
  "Room": 10317,
  "cult": 10318,
  "requiring": 10319,
  "Hamburg": 10320,
  "lakes": 10321,
  "substit@@": 10322,
  "ealed": 10323,
  "invented": 10324,
  "Bom@@": 10325,
  "Maurice": 10326,
  "accid@@": 10327,
  "index": 10328,
  "notice": 10329,
  "repeatedly": 10330,
  "tin": 10331,
  "Tir@@": 10332,
  "severely": 10333,
  "Fle@@": 10334,
  "obile": 10335,
  "orton": 10336,
  "switch": 10337,
  "Aboriginal": 10338,
  "Educ@@": 10339,
  "specified": 10340,
  "differenti@@": 10341,
  "Must@@": 10342,
  "Rice": 10343,
  "specimens": 10344,
  "suggest@@": 10345,
  "Louise": 10346,
  "computers": 10347,
  "Nine": 10348,
  "Penn": 10349,
  "101": 10350,
  "Commun@@": 10351,
  "Lost": 10352,
  "cens@@": 10353,
  "civilians": 10354,
  "swit@@": 10355,
  "vent": 10356,
  "confused": 10357,
  "dez": 10358,
  "itated": 10359,
  "thr@@": 10360,
  "Advanced": 10361,
  "acoustic": 10362,
  "atar": 10363,
  "membran@@": 10364,
  "remembered": 10365,
  "rises": 10366,
  "fla@@": 10367,
  "mere": 10368,
  "neighbouring": 10369,
  "Hop@@": 10370,
  "Scri@@": 10371,
  "suspected": 10372,
  "centered": 10373,
  "odes": 10374,
  "wid@@": 10375,
  "potentially": 10376,
  "upcoming": 10377,
  "gement": 10378,
  "requ@@": 10379,
  "variations": 10380,
  "fame": 10381,
  "stric@@": 10382,
  "threat@@": 10383,
  "wish": 10384,
  "Miguel": 10385,
  "disorder": 10386,
  "ealing": 10387,
  "enrol@@": 10388,
  "prestigious": 10389,
  "Greg": 10390,
  "autobi@@": 10391,
  "Strateg@@": 10392,
  "targeted": 10393,
  "900": 10394,
  "Bau@@": 10395,
  "Ted": 10396,
  "anes": 10397,
  "icking": 10398,
  "jer@@": 10399,
  "topped": 10400,
  "Meth@@": 10401,
  "isol@@": 10402,
  "manufacturers": 10403,
  "triple": 10404,
  "Kum@@": 10405,
  "boy@@": 10406,
  "heir": 10407,
  "Ernest": 10408,
  "queen": 10409,
  "sending": 10410,
  "Aaron": 10411,
  "adier": 10412,
  "associations": 10413,
  "cestershire": 10414,
  "François": 10415,
  "alog@@": 10416,
  "eous": 10417,
  "vement": 10418,
  "Source": 10419,
  "distribut@@": 10420,
  "gest": 10421,
  "spre@@": 10422,
  "tissue": 10423,
  "gross@@": 10424,
  "p.m.": 10425,
  "Guide": 10426,
  "Musi@@": 10427,
  "deep@@": 10428,
  "signature": 10429,
  "Johann": 10430,
  "fur": 10431,
  "dynam@@": 10432,
  "marking": 10433,
  "quad@@": 10434,
  "umped": 10435,
  "Gab@@": 10436,
  "Mobile": 10437,
  "interpreted": 10438,
  "enburg": 10439,
  "gif@@": 10440,
  "urg@@": 10441,
  "Nev@@": 10442,
  "Struc@@": 10443,
  "aesth@@": 10444,
  "beliefs": 10445,
  "separation": 10446,
  "voiced": 10447,
  "1852": 10448,
  "Observ@@": 10449,
  "seriously": 10450,
  "ordained": 10451,
  "Circle": 10452,
  "adequate": 10453,
  "algeb@@": 10454,
  "publi@@": 10455,
  "Tasman@@": 10456,
  "rie@@": 10457,
  "sixteen": 10458,
  "rally": 10459,
  "embar@@": 10460,
  "preced@@": 10461,
  "stees": 10462,
  "Hindi": 10463,
  "Manila": 10464,
  "book@@": 10465,
  "eit@@": 10466,
  "okes": 10467,
  "planted": 10468,
  "Auth@@": 10469,
  "McK@@": 10470,
  "resembl@@": 10471,
  "assed": 10472,
  "tt@@": 10473,
  "Low": 10474,
  "matrix": 10475,
  "Blood": 10476,
  "Oakland": 10477,
  "Pep@@": 10478,
  "Pakistani": 10479,
  "Turk@@": 10480,
  "nings": 10481,
  "streams": 10482,
  "surrender": 10483,
  "Krist@@": 10484,
  "ulp@@": 10485,
  "volleyball": 10486,
  "Eagle": 10487,
  "findings": 10488,
  "dream": 10489,
  "half@@": 10490,
  "Pla@@": 10491,
  "bears": 10492,
  "freestyle": 10493,
  "rent": 10494,
  "Bun@@": 10495,
  "naming": 10496,
  "personally": 10497,
  "Mam@@": 10498,
  "Stock@@": 10499,
  "situations": 10500,
  "BI": 10501,
  "Beg@@": 10502,
  "oro": 10503,
  "Individu@@": 10504,
  "Suff@@": 10505,
  "dialect": 10506,
  "displays": 10507,
  "friendship": 10508,
  "identification": 10509,
  "Wildlife": 10510,
  "essa": 10511,
  "iya": 10512,
  "mad@@": 10513,
  "reserves": 10514,
  "sit@@": 10515,
  "councill@@": 10516,
  "divorce": 10517,
  "professionals": 10518,
  "Sussex": 10519,
  "indeed": 10520,
  "22@@": 10521,
  "CR": 10522,
  "Somerset": 10523,
  "hu": 10524,
  "Laboratory": 10525,
  "Than@@": 10526,
  "anticip@@": 10527,
  "Bears": 10528,
  "Mumbai": 10529,
  "comprising": 10530,
  "patent": 10531,
  "presentation": 10532,
  "Cuban": 10533,
  "Uganda": 10534,
  "philosoph@@": 10535,
  "Sched@@": 10536,
  "fusion": 10537,
  "tea": 10538,
  "Gate": 10539,
  "Mechan@@": 10540,
  "Secret": 10541,
  "behaviour": 10542,
  "presents": 10543,
  "rainfall": 10544,
  "tag": 10545,
  "80@@": 10546,
  "commitment": 10547,
  "guer@@": 10548,
  "ission": 10549,
  "sust@@": 10550,
  "Facebook": 10551,
  "Lac@@": 10552,
  "tackles": 10553,
  "Isaac": 10554,
  "etics": 10555,
  "Academic": 10556,
  "Artists": 10557,
  "Fig@@": 10558,
  "VIII": 10559,
  "immun@@": 10560,
  "noise": 10561,
  "Baby": 10562,
  "Lock@@": 10563,
  "dealing": 10564,
  "lac@@": 10565,
  "Foster": 10566,
  "VI@@": 10567,
  "clients": 10568,
  "pilots": 10569,
  "pursued": 10570,
  "specialist": 10571,
  "circulation": 10572,
  "ellow@@": 10573,
  "1851": 10574,
  "escap@@": 10575,
  "ew": 10576,
  "quick": 10577,
  "copy@@": 10578,
  "ped@@": 10579,
  "tasks": 10580,
  "Scientific": 10581,
  "adventure": 10582,
  "poor@@": 10583,
  "improving": 10584,
  "tal": 10585,
  "Are": 10586,
  "alph@@": 10587,
  "atra": 10588,
  "east@@": 10589,
  "mb@@": 10590,
  "thrown": 10591,
  "ellers": 10592,
  "goalkeeper": 10593,
  "nationally": 10594,
  "Sid@@": 10595,
  "lv@@": 10596,
  "societies": 10597,
  "Fra@@": 10598,
  "Spencer": 10599,
  "anca": 10600,
  "firms": 10601,
  "vector": 10602,
  "Park@@": 10603,
  "Teams": 10604,
  "coron@@": 10605,
  "eat": 10606,
  "rifle": 10607,
  "Vin@@": 10608,
  "oney": 10609,
  "Archae@@": 10610,
  "Cole": 10611,
  "riders": 10612,
  "suggesting": 10613,
  "uh@@": 10614,
  "conduc@@": 10615,
  "diver@@": 10616,
  "purch@@": 10617,
  "horn": 10618,
  "ishments": 10619,
  "pale": 10620,
  "rants": 10621,
  "sion@@": 10622,
  "considering": 10623,
  "Besides": 10624,
  "tale": 10625,
  "Annual": 10626,
  "Coc@@": 10627,
  "aug@@": 10628,
  "requirement": 10629,
  "Map@@": 10630,
  "esch@@": 10631,
  "rid": 10632,
  "Lud@@": 10633,
  "bal": 10634,
  "got@@": 10635,
  "lie@@": 10636,
  "Dh@@": 10637,
  "NASA": 10638,
  "SI@@": 10639,
  "backing": 10640,
  "xi": 10641,
  "advertis@@": 10642,
  "counts": 10643,
  "observation": 10644,
  "sten": 10645,
  "eign": 10646,
  "hib@@": 10647,
  "lock@@": 10648,
  "Stand@@": 10649,
  "Triple": 10650,
  "tuary": 10651,
  "wright": 10652,
  "Tok@@": 10653,
  "bran@@": 10654,
  "conductor": 10655,
  "desert": 10656,
  "illes": 10657,
  "Anton@@": 10658,
  "Gardens": 10659,
  "Rick@@": 10660,
  "celebrate": 10661,
  "rog@@": 10662,
  "ussions": 10663,
  "Manager": 10664,
  "concentrated": 10665,
  "eper": 10666,
  "praise": 10667,
  "Sean": 10668,
  "investigate": 10669,
  "psychological": 10670,
  "touch": 10671,
  "PE@@": 10672,
  "biography": 10673,
  "favorable": 10674,
  "provisions": 10675,
  "torn@@": 10676,
  "Stockholm": 10677,
  "neys": 10678,
  "regist@@": 10679,
  "gastro@@": 10680,
  "gear": 10681,
  "transit": 10682,
  "unions": 10683,
  "wei@@": 10684,
  "applic@@": 10685,
  "Block": 10686,
  "arium": 10687,
  "Idaho": 10688,
  "similarly": 10689,
  "Cub@@": 10690,
  "dé@@": 10691,
  "Roc@@": 10692,
  "Voice": 10693,
  "encourage": 10694,
  "plac@@": 10695,
  "prey": 10696,
  "Albanian": 10697,
  "Reading": 10698,
  "old@@": 10699,
  "outs@@": 10700,
  "Bus": 10701,
  "ichi": 10702,
  "Lig@@": 10703,
  "merely": 10704,
  "Stev@@": 10705,
  "decrease": 10706,
  "inage": 10707,
  "itus": 10708,
  "opy": 10709,
  "Crit@@": 10710,
  "Knights": 10711,
  "procedures": 10712,
  "treat@@": 10713,
  "Justin": 10714,
  "day@@": 10715,
  "vil@@": 10716,
  "Ages": 10717,
  "ern": 10718,
  "variants": 10719,
  "boro": 10720,
  "utr@@": 10721,
  "graph@@": 10722,
  "Isle": 10723,
  "custom": 10724,
  "sidents": 10725,
  "skill": 10726,
  "Arc@@": 10727,
  "Dob@@": 10728,
  "Fem@@": 10729,
  "PM": 10730,
  "chy": 10731,
  "hometown": 10732,
  "retain": 10733,
  "hyp@@": 10734,
  "icism": 10735,
  "seized": 10736,
  "adow": 10737,
  "ardi@@": 10738,
  "Jay@@": 10739,
  "riages": 10740,
  "Lif@@": 10741,
  "ceil@@": 10742,
  "ū": 10743,
  "Beck@@": 10744,
  "honours": 10745,
  "HIV": 10746,
  "agh": 10747,
  "chapters": 10748,
  "ft@@": 10749,
  "ylon": 10750,
  "bap@@": 10751,
  "sfield": 10752,
  "Durham": 10753,
  "commentary": 10754,
  "Continental": 10755,
  "duration": 10756,
  "codice": 10757,
  "floors": 10758,
  "cover@@": 10759,
  "Rhode": 10760,
  "creates": 10761,
  "messages": 10762,
  "heading": 10763,
  "reason@@": 10764,
  "secur@@": 10765,
  "Scotia": 10766,
  "prospec@@": 10767,
  "H.@@": 10768,
  "Wu": 10769,
  "manages": 10770,
  "Lancashire": 10771,
  "lux@@": 10772,
  "maintains": 10773,
  "Bird": 10774,
  "Owen": 10775,
  "axis": 10776,
  "orious": 10777,
  "assass@@": 10778,
  "ju": 10779,
  "mob@@": 10780,
  "Examples": 10781,
  "lus": 10782,
  "remark@@": 10783,
  "varied": 10784,
  "Marc": 10785,
  "coffee": 10786,
  "syndic@@": 10787,
  "tig@@": 10788,
  "alling": 10789,
  "doctors": 10790,
  "guid@@": 10791,
  "verteb@@": 10792,
  "Ring": 10793,
  "butter@@": 10794,
  "package": 10795,
  "petition": 10796,
  "relatives": 10797,
  "trol@@": 10798,
  "17.@@": 10799,
  "BCE": 10800,
  "after@@": 10801,
  "arrangements": 10802,
  "brings": 10803,
  "siblings": 10804,
  "tex": 10805,
  "where@@": 10806,
  "Lucas": 10807,
  "Newport": 10808,
  "divorced": 10809,
  "jail": 10810,
  "orbit": 10811,
  "rill": 10812,
  "seas@@": 10813,
  "volun@@": 10814,
  "Fisher": 10815,
  "Hindu@@": 10816,
  "discovers": 10817,
  "lon@@": 10818,
  "AE@@": 10819,
  "alter@@": 10820,
  "citizenship": 10821,
  "Buenos": 10822,
  "Drama": 10823,
  "Nancy": 10824,
  "Aires": 10825,
  "HC": 10826,
  "Sox": 10827,
  "adily": 10828,
  "ditional": 10829,
  "journals": 10830,
  "sheet": 10831,
  "1853": 10832,
  "Lad@@": 10833,
  "Shak@@": 10834,
  "iga": 10835,
  "pianist": 10836,
  "Heights": 10837,
  "Kate": 10838,
  "Reed": 10839,
  "choir": 10840,
  "ga@@": 10841,
  "sizes": 10842,
  "survivors": 10843,
  "wind@@": 10844,
  "Fir@@": 10845,
  "Son": 10846,
  "acht": 10847,
  "hai": 10848,
  "threats": 10849,
  "lasting": 10850,
  "nie@@": 10851,
  "Morocco": 10852,
  "enable": 10853,
  "gent@@": 10854,
  "ocket": 10855,
  "Chelsea": 10856,
  "Tag@@": 10857,
  "erup@@": 10858,
  "musi@@": 10859,
  "recognize": 10860,
  "volunteer": 10861,
  "mini": 10862,
  "Chester": 10863,
  "Environment": 10864,
  "Malta": 10865,
  "gregation": 10866,
  "pel@@": 10867,
  "Armenia": 10868,
  "Box@@": 10869,
  "SN@@": 10870,
  "burning": 10871,
  "clos@@": 10872,
  "fluid": 10873,
  "Lithuania": 10874,
  "achie@@": 10875,
  "edings": 10876,
  "staged": 10877,
  "Figh@@": 10878,
  "Westminster": 10879,
  "ا@@": 10880,
  "banking": 10881,
  "cav@@": 10882,
  "congregation": 10883,
  "cred@@": 10884,
  "rebels": 10885,
  "Bod@@": 10886,
  "venti@@": 10887,
  "16.@@": 10888,
  "DI": 10889,
  "lad@@": 10890,
  "pregnant": 10891,
  "sleep": 10892,
  "Shir@@": 10893,
  "mill@@": 10894,
  "wre@@": 10895,
  "Pain@@": 10896,
  "interchange": 10897,
  "streak": 10898,
  "vig@@": 10899,
  "doctorate": 10900,
  "exterior": 10901,
  "Cyprus": 10902,
  "acknowledged": 10903,
  "gin": 10904,
  "practic@@": 10905,
  "Salt": 10906,
  "trau@@": 10907,
  "Todd": 10908,
  "ancer": 10909,
  "ec": 10910,
  "impressed": 10911,
  "lineup": 10912,
  "theorem": 10913,
  "circular": 10914,
  "num@@": 10915,
  "towers": 10916,
  "Rovers": 10917,
  "averaged": 10918,
  "chants": 10919,
  "stability": 10920,
  "AFC": 10921,
  "Ferdinand": 10922,
  "veil@@": 10923,
  "German@@": 10924,
  "Rob": 10925,
  "deeply": 10926,
  "derly": 10927,
  "grants": 10928,
  "ingo": 10929,
  "odic": 10930,
  "Compan@@": 10931,
  "fram@@": 10932,
  "onwards": 10933,
  "ooth@@": 10934,
  "rescu@@": 10935,
  "Cran@@": 10936,
  "beer": 10937,
  "nest": 10938,
  "sta@@": 10939,
  "sz@@": 10940,
  "etry": 10941,
  "yon": 10942,
  "Oak": 10943,
  "Rein@@": 10944,
  "lli@@": 10945,
  "operators": 10946,
  "panels": 10947,
  "wra@@": 10948,
  "intercep@@": 10949,
  "legitimate": 10950,
  "omin@@": 10951,
  "avian": 10952,
  "perpet@@": 10953,
  "cism": 10954,
  "Ce@@": 10955,
  "Palmer": 10956,
  "check": 10957,
  "itch": 10958,
  "sequences": 10959,
  "Using": 10960,
  "cid@@": 10961,
  "penn@@": 10962,
  "prototype": 10963,
  "conscious": 10964,
  "ducing": 10965,
  "honored": 10966,
  "interface": 10967,
  "Wak@@": 10968,
  "ulating": 10969,
  "201@@": 10970,
  "transformed": 10971,
  "Ruth": 10972,
  "achievement": 10973,
  "Oil": 10974,
  "entity": 10975,
  "knee": 10976,
  "osh": 10977,
  "60@@": 10978,
  "amma": 10979,
  "destination": 10980,
  "intermediate": 10981,
  "advisor": 10982,
  "criticised": 10983,
  "keep@@": 10984,
  "Inn@@": 10985,
  "Sle@@": 10986,
  "colonel": 10987,
  "1849": 10988,
  "disappeared": 10989,
  "precip@@": 10990,
  "zhou": 10991,
  "Hag@@": 10992,
  "Hurricane": 10993,
  "ilers": 10994,
  "nan@@": 10995,
  "quot": 10996,
  "tories": 10997,
  "Meh@@": 10998,
  "aca": 10999,
  "mentions": 11000,
  "26@@": 11001,
  "broadcast@@": 11002,
  "conflicts": 11003,
  "egg": 11004,
  "tionally": 11005,
  "Ahmed": 11006,
  "ester@@": 11007,
  "mollus@@": 11008,
  "Big@@": 11009,
  "4,000": 11010,
  "carved": 11011,
  "Fighter": 11012,
  "Moun@@": 11013,
  "sus": 11014,
  "Czechoslov@@": 11015,
  "Plan@@": 11016,
  "Rev.": 11017,
  "crit@@": 11018,
  "fortress": 11019,
  "Sag@@": 11020,
  "unda": 11021,
  "Transit": 11022,
  "Marcus": 11023,
  "deliver": 11024,
  "headquartered": 11025,
  "hosting": 11026,
  "voyage": 11027,
  "warfare": 11028,
  "Hend@@": 11029,
  "Rag@@": 11030,
  "nationwide": 11031,
  "sharp": 11032,
  "GB": 11033,
  "lution": 11034,
  "valid": 11035,
  "Og@@": 11036,
  "Santiago": 11037,
  "nut": 11038,
  "scandal": 11039,
  "scorer": 11040,
  "Gib@@": 11041,
  "Gradu@@": 11042,
  "Pat": 11043,
  "Safety": 11044,
  "Stevens": 11045,
  "Yang": 11046,
  "stly": 11047,
  "tex@@": 11048,
  "Evangel@@": 11049,
  "corps": 11050,
  "devast@@": 11051,
  "collegiate": 11052,
  "lecturer": 11053,
  "Chen": 11054,
  "Lisa": 11055,
  "Say@@": 11056,
  "anta": 11057,
  "olph": 11058,
  "phi@@": 11059,
  "chec@@": 11060,
  "Amendment": 11061,
  "sof@@": 11062,
  "Glou@@": 11063,
  "Peak": 11064,
  "Tampa": 11065,
  "aim@@": 11066,
  "atories": 11067,
  "dess": 11068,
  "ishi": 11069,
  "Kno@@": 11070,
  "audiences": 11071,
  "ival": 11072,
  "larvae": 11073,
  "unveil@@": 11074,
  "Cad@@": 11075,
  "Diamond": 11076,
  "Raz@@": 11077,
  "ehol@@": 11078,
  "Sti@@": 11079,
  "circum@@": 11080,
  "danger": 11081,
  "R.@@": 11082,
  "Still": 11083,
  "cer": 11084,
  "Living": 11085,
  "Pent@@": 11086,
  "Relations": 11087,
  "cad@@": 11088,
  "conjunction": 11089,
  "restore": 11090,
  "varies": 11091,
  "Chin@@": 11092,
  "Copenhagen": 11093,
  "Giovanni": 11094,
  "arities": 11095,
  "etal": 11096,
  "ferry": 11097,
  "pen": 11098,
  "quantum": 11099,
  "receiver": 11100,
  "1847": 11101,
  "Additional": 11102,
  "ESP@@": 11103,
  "collect": 11104,
  "colours": 11105,
  "feeding": 11106,
  "travelling": 11107,
  "Hass@@": 11108,
  "Tennis": 11109,
  "Vent@@": 11110,
  "Artist": 11111,
  "Coo@@": 11112,
  "Reb@@": 11113,
  "SM@@": 11114,
  "assignment": 11115,
  "atri@@": 11116,
  "cils": 11117,
  "emerging": 11118,
  "0,@@": 11119,
  "Cust@@": 11120,
  "Nep@@": 11121,
  "particles": 11122,
  "sbury": 11123,
  "aith@@": 11124,
  "drink": 11125,
  "holder": 11126,
  "Sr.": 11127,
  "expanding": 11128,
  "survi@@": 11129,
  "uit": 11130,
  "180": 11131,
  "Hos@@": 11132,
  "abbrevi@@": 11133,
  "neutral": 11134,
  "Gang@@": 11135,
  "closest": 11136,
  "grid": 11137,
  "ernity": 11138,
  "Chancellor": 11139,
  "Tiger": 11140,
  "inae": 11141,
  "singers": 11142,
  "alog": 11143,
  "guidance": 11144,
  "ğ@@": 11145,
  "Circ@@": 11146,
  "Napoleon": 11147,
  "hoped": 11148,
  "presidency": 11149,
  "strength@@": 11150,
  "cill@@": 11151,
  "continent": 11152,
  "CM@@": 11153,
  "warri@@": 11154,
  "privately": 11155,
  "Multi@@": 11156,
  "Solomon": 11157,
  "encountered": 11158,
  "ior@@": 11159,
  "suddenly": 11160,
  "Apost@@": 11161,
  "Machine": 11162,
  "database": 11163,
  "gment": 11164,
  "ilia": 11165,
  "publish": 11166,
  "pupils": 11167,
  "Franco": 11168,
  "Fut@@": 11169,
  "graphics": 11170,
  "flooding": 11171,
  "inces": 11172,
  "indoor": 11173,
  "proceeded": 11174,
  "recip@@": 11175,
  "isms": 11176,
  "register": 11177,
  "topic": 11178,
  "sailing": 11179,
  "sponsor@@": 11180,
  "treas@@": 11181,
  "ially": 11182,
  "rounded": 11183,
  "Parliamentary": 11184,
  "Hir@@": 11185,
  "Princeton": 11186,
  "struggled": 11187,
  "surren@@": 11188,
  "AI": 11189,
  "prints": 11190,
  "cham@@": 11191,
  "mud": 11192,
  "quoted": 11193,
  "stretch": 11194,
  "fting": 11195,
  "kings": 11196,
  "withdrawn": 11197,
  "{": 11198,
  "SI": 11199,
  "trio": 11200,
  "urer": 11201,
  "uss": 11202,
  "Crist@@": 11203,
  "Steel": 11204,
  "favourite": 11205,
  "rements": 11206,
  "curve": 11207,
  "paras@@": 11208,
  "refu@@": 11209,
  "roy@@": 11210,
  "survival": 11211,
  "tomb": 11212,
  "campaig@@": 11213,
  "deposits": 11214,
  "march": 11215,
  "wet": 11216,
  "court@@": 11217,
  "reads": 11218,
  "bee": 11219,
  "spective": 11220,
  "tro": 11221,
  "Prus@@": 11222,
  "eon": 11223,
  "Distinguished": 11224,
  "Estate": 11225,
  "Herald": 11226,
  "orer": 11227,
  "provision": 11228,
  "las": 11229,
  "properly": 11230,
  "reless": 11231,
  "aba": 11232,
  "agon@@": 11233,
  "autumn": 11234,
  "holes": 11235,
  "Rut@@": 11236,
  "bery": 11237,
  "joins": 11238,
  "sar@@": 11239,
  "Total": 11240,
  "apprenti@@": 11241,
  "paying": 11242,
  "Duncan": 11243,
  "ather@@": 11244,
  "wheels": 11245,
  "og": 11246,
  "shelter": 11247,
  "Cardinals": 11248,
  "Davies": 11249,
  "Dub@@": 11250,
  "epp@@": 11251,
  "upgraded": 11252,
  "Cavalry": 11253,
  "Contin@@": 11254,
  "lei@@": 11255,
  "temper@@": 11256,
  "Lec@@": 11257,
  "nineteenth": 11258,
  "Beh@@": 11259,
  "ateral": 11260,
  "atoes": 11261,
  "graph": 11262,
  "Actor": 11263,
  "Cardiff": 11264,
  "lag@@": 11265,
  "muscle": 11266,
  "Holmes": 11267,
  "rach@@": 11268,
  "reliable": 11269,
  "Simpson": 11270,
  "clo@@": 11271,
  "comfort@@": 11272,
  "liked": 11273,
  "tol@@": 11274,
  "Advisory": 11275,
  "prompted": 11276,
  "cataly@@": 11277,
  "licens@@": 11278,
  "achievements": 11279,
  "irus": 11280,
  "shap@@": 11281,
  "corporation": 11282,
  "gol@@": 11283,
  "main@@": 11284,
  "occurring": 11285,
  "Left": 11286,
  "Plant": 11287,
[...]
