् 8669031
के 1670469
। 1546065
में 1259006
, 1226863
है 1085862
प 879878
की 796618
और 690486
स 676037
़ 656794
से 617783
का 612116
को 502515
एक 453923
य 424984
क 416967
) 387192
( 385418
हैं 373996
ट 365063
त 352106
&quot; 332340
र 330207
पर 329960
ने 329378
द 298872
व 295677
. 278403
@-@ 274189
न 261584
किया 242885
था 235111
लिए 227242
म 222240
कर 212784
भी 205380
र@@ 201411
ज 195876
यह 190775
या 190113
इस 182315
ग 182227
गया 178847
ड 177114
वर 173671
कि 162745
ल 159432
म@@ 159171
ध 149952
श 148477
रूप 145584
ष 142174
स@@ 141581
री 138659
न@@ 137419
फ 136737
उन 134751
कार 133062
जो 131657
ब 125922
य@@ 125802
रा@@ 125266
जाता 125218
अ@@ 124444
ही 123966
त@@ 119747
व@@ 119148
क@@ 119007
ता 118687
साथ 117304
प@@ 116325
करने 115682
वि@@ 114174
उत 112411
ब@@ 112354
ल@@ 110489
हो 109770
ण 109010
आ@@ 108544
वारा 107481
थे 106352
ली 104160
राज 103837
&apos; 102958
भारत 101648
: 101376
तक 101366
नहीं 100235
ज@@ 100005
का@@ 98580
तर 96319
बाद 96017
ं@@ 95079
ति 93764
निर 93304
वा@@ 92503
ना 91983
थी 90561
द@@ 89677
अन 88733
सं@@ 88271
ला@@ 87227
रो@@ 87005
ी 86892
तथा 86774
ए@@ 86440
श@@ 86287
अपने 84981
ना@@ 84603
यक 83949
ह@@ 82160
ट@@ 81567
रे@@ 81467
दी 81273
दिया 80613
बा@@ 80369
मा@@ 79456
ती 79156
या@@ 78386
नि@@ 77958
पूर 77821
रि@@ 76559
षेत 76360
ग@@ 76247
वह 75556
होंने 74573
च@@ 74559
च 74254
नी 73913
ला 73777
रा 73560
े 72489
ा 72310
होता 72228
ता@@ 71847
सा@@ 71284
पा@@ 70734
जा 69571
मे@@ 69192
को@@ 68814
थ 67961
ड@@ 67345
सर 66398
इन 66290
हुआ 65799
थित 65446
वे 64763
इ@@ 64436
सु@@ 63740
नाम 61909
जा@@ 61332
ते 60199
कुछ 59681
ई 59305
राष 59304
हें 58524
रीय 58342
विश 58003
लि@@ 57229
ले@@ 56887
सम 56383
ख@@ 55463
सि@@ 55391
दर 54857
ले 54815
मु@@ 54718
सी@@ 54396
करते 54291
दा@@ 53802
ध@@ 53680
सन 53663
हुए 53613
जन 53589
रों 53463
तो 53360
गाँव 53341
उ@@ 52910
भ@@ 52894
- 52267
समय 52188
टर 52007
इसके 51274
एवं 50970
शन 50560
गा@@ 50434
यू@@ 50389
टी 50279
री@@ 50254
सी 50043
होने 50029
कु@@ 49782
ये 49408
कई 49377
उनके 49272
संस 49054
षा 48985
बर 48628
मा 48367
; 48076
जी 48006
ख 47986
मो@@ 47566
नों 47483
थ@@ 47443
भारतीय 47133
गो@@ 47110
अधिक 46933
ने@@ 46661
बे@@ 46624
वाले 46536
मि@@ 45831
बड 45450
लो@@ 45165
मार 45130
सबसे 45118
ति@@ 45042
कारण 44805
पुर 44801
सा 44731
पत 44679
अपनी 44513
कों 44461
कम 44436
करता 44377
होती 44225
मुख 43928
से@@ 43874
पहले 43722
फ@@ 43558
थान 43114
अर 43099
गए 43078
वे@@ 42954
दो 42663
शा@@ 42518
वी 42477
रकार 42181
सकता 41932
यों 41422
ई@@ 41276
फिल 41181
किसी 40978
भा@@ 40880
ओ@@ 40791
अनु@@ 40753
के@@ 40620
&#93; 40456
जब 40447
कि@@ 40409
गई 40309
&#91; 40299
रक 39765
षण 39712
ंग@@ 39646
गु@@ 39589
कहा 39249
दक 39049
ों 39028
चित 38908
लेकिन 38596
रम 38485
ष@@ 38453
‍ 38393
रदेश 38348
देश 38272
बी@@ 38214
राप 38065
कै@@ 37872
बन 37803
गत 37743
भाषा 37717
ियों 37539
जाती 37345
हुई 37289
ंग 37287
ो@@ 37063
बहुत 37039
मन 37020
लिया 36972
रु@@ 36953
शामिल 36859
ण@@ 36657
रत 36588
उप@@ 36348
चा@@ 36338
सो@@ 36176
रिया 35924
ए 35867
हा@@ 35818
ठ@@ 35788
जी@@ 35715
वास 35708
जैसे 35415
मान 35293
ह 35213
ा@@ 34930
होते 34920
टी@@ 34897
ओं 34775
जिले 34545
पी@@ 34393
/ 34375
विद 34282
बि@@ 34117
रस 33920
करण 33766
ली@@ 33701
नी@@ 33657
टे@@ 33570
रहे 33491
टा@@ 33146
.@@ 33127
ं 33079
धर 32797
बार 32791
हि@@ 32491
रू@@ 32404
उनकी 32293
उस 32123
बो@@ 32045
जाने 32037
यालय 31653
दा 31639
मी 31576
डे@@ 31466
बीच 31257
लों 31211
भाग 31190
उसके 31143
ि@@ 31136
उद 31088
रहा 31024
पि@@ 31014
तों 30952
सभी 30951
तरह 30673
जिसमें 30586
पश 30579
े@@ 30463
िल 30454
यात 30361
शि@@ 30291
रति@@ 30224
दि@@ 30208
शिक 30170
वी@@ 30167
इसे 30132
रह 30070
भ 29970
तान 29836
आर 29746
इसका 29716
मक 29696
महा@@ 29553
कल 29448
अनुसार 29398
दे@@ 29382
ंड@@ 29323
सू@@ 29298
खा@@ 29134
ित 29119
ी@@ 29086
घ@@ 29056
तहसील 28994
पे@@ 28994
लक 28922
टो@@ 28764
ँ@@ 28652
१@@ 28596
माण 28556
रमुख 28499
छ@@ 28476
करना 28396
काम 28394
वाली 28211
पन 28183
पड 28128
पो@@ 28058
जि@@ 27957
डि@@ 27912
काल 27801
उसे 27696
अध 27669
बल 27627
डी 27617
वार 27570
राम 27555
कोई 27527
लोगों 27496
कृत 27466
तन 27316
अक 27204
महत 27194
मै@@ 27038
चार 27011
मी@@ 26846
बढ 26749
डा@@ 26748
ञान 26719
उपयोग 26562
पार 26559
मण 26535
अल 26428
जीवन 26370
हिन 26366
राज@@ 26344
हो@@ 26341
बु@@ 26256
जे@@ 26034
यो@@ 25908
लिये 25861
विज 25754
जाते 25746
ंस 25732
मध 25701
अव@@ 25636
पु@@ 25479
रण 25469
हे@@ 25464
पै@@ 25365
&#124; 25310
ो 25308
टा 25260
नगर 25197
दोनों 25174
आदि 25112
1 24940
ीय 24805
सिंह 24784
ठ 24772
मान@@ 24724
ार 24723
वै@@ 24592
वा 24549
शब 24547
िया 24537
मूल 24527
नो@@ 24499
शहर 24496
लगभग 24406
कन 24343
दु@@ 24338
रयोग 24219
दौरान 24186
यहाँ 24054
हर 23848
ंड 23845
साहित 23741
यु@@ 23712
रेस 23702
कर@@ 23694
२@@ 23663
अंग 23626
ु 23625
ओर 23494
पर@@ 23353
सरकार 23298
शक 23171
डल 23137
अब 23120
टि@@ 23085
तीन 23085
ार@@ 23036
शुरू 22915
फिर 22847
ु@@ 22829
तु@@ 22821
गर 22690
लोग 22684
परि@@ 22658
बी 22623
पास 22555
% 22547
षिण 22486
जिसे 22445
यर 22328
अलग 22320
विकास 22223
तु 22177
रह@@ 22153
मे 22128
सम@@ 22120
जर 22020
की@@ 21975
भू@@ 21742
युद 21729
दार 21711
यान 21679
कॉ@@ 21620
टन 21608
करती 21602
वीं 21567
ऑफ 21553
फे@@ 21535
ौ@@ 21532
एँ 21484
पद 21446
वस 21379
2 21313
ंट 21284
० 21208
िक 21184
सत 21045
धि 21019
रता 21006
केवल 20931
अंतर 20907
यम 20866
१ 20863
जिन 20825
दिन 20807
संख 20804
ंद 20794
रे 20765
जाना 20713
गि@@ 20655
रिकेट 20614
चर 20588
सकते 20563
विशेष 20477
बै@@ 20463
मंदिर 20444
ताओं 20428
इसकी 20427
दी@@ 20362
तर@@ 20338
हार 20249
निक 20090
लैंड 20072
अं@@ 20067
ंत 20015
एं 19950
डी@@ 19950
&amp; 19926
ू 19884
जन@@ 19830
विस 19822
मिक 19813
लु@@ 19791
सिद 19731
ऑ@@ 19673
कभी 19576
तियों 19553
ू@@ 19513
शे@@ 19491
दू@@ 19461
रॉ@@ 19404
वाला 19355
उनका 19334
विभिन 19323
सदस 19317
टीम 19312
रदर 19219
ते@@ 19178
इतिहास 19127
जो@@ 19111
वाद 18987
योंकि 18953
साल 18952
था@@ 18931
उच 18904
इसमें 18898
ीन 18860
झ@@ 18840
पी 18765
ती@@ 18724
रै@@ 18711
मों 18698
नदी 18604
फा@@ 18564
वपूर 18531
माना 18498
अपना 18422
इसी 18378
योग 18334
राजा 18320
दों 18317
कहते 18274
हालांकि 18211
थिति 18176
गढ 18156
वन 18154
रही 18131
हिस 18101
कुल 18057
तत 18049
किए 17888
दिल 17839
पक 17832
षित 17830
फि@@ 17681
रसिद 17645
ंक 17587
चे@@ 17582
चि@@ 17557
रथम 17501
वों 17492
आ 17422
यन 17380
गे@@ 17379
२ 17360
रित 17357
गी 17323
॰ 17310
तब 17301
मर 17272
चौ@@ 17264
वविद 17241
पहली 17220
दो@@ 17194
ियाँ 17132
लै@@ 17115
ोर 17090
आवश 17031
3 17015
रदान 17012
वत 16974
४ 16945
सामान 16929
विक 16897
पुरस 16893
चु@@ 16886
अस 16862
रन 16767
खु@@ 16758
मित 16750
धा@@ 16749
३ 16632
रिय 16604
यता 16561
बना 16542
ारों 16541
एस 16533
५ 16517
संयुक 16450
कृष 16434
शी@@ 16394
सर@@ 16364
बना@@ 16352
सै@@ 16335
दूसरे 16332
जिसके 16319
अमेरिका 16276
जल 16258
िया@@ 16212
केंद 16185
अप@@ 16080
थापित 16023
सक 16002
दे 15990
गा 15984
घर 15882
समर 15879
लॉ@@ 15873
उल 15859
ऊ@@ 15822
आई@@ 15810
टेशन 15807
भर 15806
हु@@ 15760
देशों 15734
लन 15714
तमान 15711
उसकी 15697
मंत 15686
चा 15678
जु@@ 15664
जबकि 15591
ारा 15566
यहां 15544
नर 15511
संग 15508
है@@ 15506
मात 15485
अप 15448
राइ@@ 15421
६ 15415
टि 15376
३@@ 15368
लं@@ 15356
यी 15345
पू@@ 15325
गी@@ 15320
ऐ@@ 15314
जिसका 15289
णी 15273
पाकिस 15194
सेना 15174
बच 15158
सभा 15156
लड 15140
आज 15060
इं@@ 15032
तार 15022
ढ@@ 15003
अन@@ 14986
डा 14949
माध 14879
नु@@ 14874
लम 14844
०@@ 14838
थापना 14832
4 14726
जिला 14720
तौर 14708
िले 14708
षा@@ 14694
यू 14680
घा@@ 14677
नौ@@ 14638
रो 14633
ि 14606
८ 14606
समूह 14572
तम 14571
’ 14563
रति 14540
एल 14500
कता 14499
ूर 14475
अत 14466
कारों 14466
‘ 14432
रं@@ 14428
पिता 14423
रिक 14419
20 14346
धन 14317
दुर 14308
गयी 14276
ान 14260
ढ 14259
लिक 14257
सह@@ 14254
रखा 14241
यवस 14237
राम@@ 14232
मृत 14223
७ 14222
बनाया 14220
नामक 14196
अनेक 14180
आधार 14151
खे@@ 14115
पुस 14086
ै@@ 14084
कोड 14045
यास 14010
एस@@ 14001
बारे 13992
उसने 13954
टिक 13953
कला 13946
मत 13900
परिवार 13874
5 13858
९ 13818
चन 13807
चाहिए 13749
देने 13748
चक 13711
बात 13707
कड 13693
फै@@ 13684
आम 13670
ंच@@ 13662
मू@@ 13657
कृति 13554
ययन 13548
जारी 13515
संगीत 13457
बिहार 13448
कूल 13433
वक 13417
पह@@ 13415
सेवा 13401
उपलब 13391
ची@@ 13377
षक 13354
वित 13316
शास 13267
ऐसा 13243
णा 13240
अच 13166
षों 13160
तीय 13140
यु 13117
सकती 13057
लेख 13043
रां@@ 13020
मौ@@ 12972
यत 12952
रान 12948
जै@@ 12940
आप@@ 12935
रभाव 12901
पुत 12893
राचीन 12885
२०१@@ 12877
कारी 12873
केन 12869
दूर 12859
दृष 12851
ऐसे 12836
रख@@ 12830
जहां 12813
डो@@ 12797
महिला 12778
बद@@ 12766
आई 12748
मस 12742
बनाने 12709
अभि@@ 12704
कार@@ 12701
चिम 12676
रवा@@ 12640
परिवर 12633
थीं 12631
अलावा 12607
छोड 12604
ारी 12565
धि@@ 12530
वादी 12486
6 12457
अफ 12400
देता 12365
समा@@ 12364
भूमिका 12305
मैच 12271
करके 12270
पादन 12232
शी 12230
माता 12203
लर 12177
तराखण 12170
चे 12161
जुड 12154
निम 12128
चिकित 12111
जिससे 12095
येक 12083
खिलाफ 12075
सार 12068
लाइ@@ 12054
मार@@ 12045
इस@@ 12044
रिय@@ 12027
ऑस 12020
यदि 12019
धा 11990
वतंत 11961
धार 11941
सिं@@ 11937
कंपनी 11922
रोग 11919
पता 11912
पात 11905
करा@@ 11890
खो@@ 11845
काफी 11842
ॉ@@ 11830
डे 11825
सामाजिक 11814
10 11812
समस 11807
शो@@ 11786
कालीन 11777
ीं 11758
४@@ 11752
दुनिया 11747
नि 11720
लेकर 11704
दू 11700
२००@@ 11684
णों 11683
ंगे 11669
लने 11654
चुनाव 11645
आत 11632
वान 11631
उसका 11629
लग@@ 11615
बन@@ 11605
मं@@ 11601
निश 11565
जिस 11558
लता 11545
कू@@ 11543
तरी 11508
लू@@ 11507
हस 11493
कप 11477
निक@@ 11474
रण@@ 11456
नई 11449
रम@@ 11442
हम 11418
सौ@@ 11415
शताब 11402
लय 11369
रिटिश 11354
साइ@@ 11349
पहला 11348
लाल 11339
जोड 11331
गये 11319
परीक 11310
अथवा 11273
टों 11269
आन 11267
सुरक 11252
बा 11250
ओ 11249
५@@ 11227
टै@@ 11207
पानी 11194
ियां 11180
नाथ 11169
खेल 11167
समान 11132
इंग 11067
इसलिए 11057
किये 11054
ऋ@@ 11050
दन 11040
वाल 11028
पति 11018
शुरुआत 11015
रीका 11005
भूमि 10994
पौ@@ 10989
भे@@ 10988
अधि@@ 10987
देख@@ 10979
आगे 10963
अमेरिकी 10958
णन 10953
छोटे 10949
जहाँ 10942
थि@@ 10924
ौर 10922
– 10895
नए 10894
तेमाल 10880
रणाली 10870
उम 10867
वरूप 10864
= 10857
एम@@ 10843
रात 10838
आधारित 10828
देव 10765
धान 10752
रेन 10693
रकाशित 10691
पा 10687
छा 10680
वीप 10678
इन@@ 10633
मनो@@ 10630
तित 10593
उदाहरण 10591
लौ@@ 10575
रेज 10573
तो@@ 10563
दान 10540
लगा 10535
टिंग 10533
मल 10521
दर@@ 10514
हम@@ 10514
सों 10483
साम 10473
रेलवे 10472
जनवरी 10456
समाज 10424
णा@@ 10422
वैज 10410
पूरी 10407
इससे 10394
फर 10391
राजस 10390
मुक 10384
बाहर 10345
शा 10333
इनके 10325
रच@@ 10324
शु@@ 10323
अंत 10306
शासन 10274
नियंत 10258
सिस 10245
ारे 10233
विकसित 10210
फो@@ 10197
टल 10184
बं@@ 10181
होगा 10181
वो 10168
मद 10167
लोक 10161
गांव 10157
चल 10141
सल 10141
ही@@ 10140
2@@ 10117
थों 10094
पदार 10054
जाति 10035
निय@@ 10021
ञा@@ 10016
छा@@ 10001
रहता 9979
अम@@ 9977
भगवान 9971
वन@@ 9970
बहु@@ 9965
मह@@ 9964
संघ 9963
दस 9958
थन 9951
दशक 9939
जान@@ 9937
बनी 9935
मुद 9921
थल 9900
रेणी 9900
निया 9899
बने 9887
निस 9870
रंग 9804
सब 9803
देते 9797
िय@@ 9788
जिनमें 9783
रहते 9773
देव@@ 9760
नै@@ 9748
अतिरिक 9710
9 9706
आधुनिक 9705
! 9701
राय@@ 9701
होकर 9689
नक 9679
तरा@@ 9676
भु@@ 9665
एम 9641
हा 9641
अधिकांश 9639
गति 9636
8 9630
मानित 9621
मई 9592
रृंखला 9587
शरीर 9580
शीर 9580
रमण 9575
बॉ@@ 9571
वृत 9571
रिस 9564
7 9560
फी@@ 9549
ाई 9544
रेजी 9520
कला@@ 9504
gt 9499
भी@@ 9480
लोकप 9479
थिक 9461
अगस 9438
शर 9401
देखा 9396
बद 9368
यिक 9337
7@@ 9314
नो 9312
पॉ@@ 9312
पाल 9309
तः 9306
यादा 9306
ंद@@ 9301
तंत 9294
बांग 9268
लिंग 9255
संक 9249
बस 9240
टॉ@@ 9239
टूबर 9234
ँ 9203
रास 9185
मिल 9172
वल 9170
3@@ 9151
अधिकार 9139
यंत 9139
lt 9134
पं@@ 9134
डर 9130
१९@@ 9123
नन 9119
मानव 9115
उसी 9113
एन@@ 9086
६@@ 9079
जू@@ 9064
दूसरी 9059
विभाग 9056
लगा@@ 9053
भिन 9043
ृ@@ 9040
रैल 9037
एं@@ 9035
सूर 9021
रिया@@ 9016
विधि 9015
आप 8981
वाचन 8979
संबंध 8976
ः 8973
जून 8970
जय@@ 8965
चीन 8939
the 8932
जगह 8931
हॉ@@ 8917
मिश 8911
राजधानी 8907
जुलाई 8900
देवी 8889
पूरा 8888
ऊपर 8877
-@@ 8843
चिमी 8825
तव 8823
रानी 8818
तिक 8808
रोत 8803
काव 8796
लो 8787
ये@@ 8775
ठा 8771
राजनीतिक 8753
पल 8743
विचार 8743
विष 8742
पष 8740
पहुँ@@ 8734
सूची 8734
तैयार 8723
दल 8719
of 8715
विषय 8705
सिक 8703
बिना 8702
सप 8686
ची 8684
मीटर 8681
जों 8672
अग 8643
चो@@ 8643
भाव 8633
सीमा 8618
जीत 8617
टेस 8605
औ@@ 8603
यार 8598
दित 8591
हों 8567
शल 8565
किन 8556
विधानसभा 8554
लेने 8551
युग 8548
रचना 8526
नाओं 8518
राय 8509
टे 8495
ञानिक 8487
युत 8479
पृथ 8474
दास 8470
वयं 8467
यि@@ 8465
कीय 8462
निष 8461
अंतिम 8458
कौ@@ 8456
खिलाड 8453
धी 8445
लिखा 8442
गोल 8435
चों 8404
हित 8391
जनसंख 8388
गै@@ 8384
आकर 8381
ञ 8365
इला@@ 8360
थानीय 8360
हत 8360
षी 8348
कोर 8346
भक 8337
रपति 8333
जे 8322
वृद 8316
उर 8301
ॅ@@ 8301
समुद 8294
सहायता 8291
ंडर 8282
योजना 8280
कह@@ 8270
टूर 8269
आं@@ 8266
नात 8263
हल 8252
कुमार 8243
आने 8241
युक 8240
नीचे 8238
दियों 8226
रेट 8211
15 8206
धार@@ 8205
८@@ 8165
मूर 8142
यापक 8142
लिय@@ 8132
जल@@ 8124
७@@ 8124
कश 8108
ऐसी 8105
संगठन 8100
कहानी 8099
टू@@ 8095
तृ@@ 8095
पार@@ 8095
कांग 8094
ॉर 8089
गों 8082
होना 8082
१८@@ 8080
6@@ 8079
समाप 8074
सफल 8070
ठी 8068
हिंदी 8065
पहुंच@@ 8052
पढ 8046
छात 8029
अभी 8019
12 8013
पाया 8010
तुलना 8007
कॉलेज 8004
रहने 8004
5@@ 7995
चंद 7995
लू 7986
रकाश 7978
नाग@@ 7956
बम 7944
ियन 7941
आक 7936
रवेश 7928
पण 7925
0 7921
वें 7917
मिला 7906
शैली 7897
चाह@@ 7896
गौ@@ 7890
रव 7882
नाटक 7873
भाई 7871
लीग 7836
मां@@ 7833
वितीय 7820
समझ@@ 7820
किलोमीटर 7814
मीर 7812
पूरे 7810
सैन 7803
चात 7801
बह@@ 7798
विशिष 7787
रभावित 7780
सहित 7766
षमता 7757
सदी 7752
दूरी 7742
दृश 7738
अवधि 7735
वार@@ 7735
सिर 7706
हे 7692
अवस 7689
बंध 7684
संबंधित 7672
रंग@@ 7670
नल 7667
गल@@ 7652
खि@@ 7649
पहाड 7648
गण@@ 7642
णु 7639
एंड 7637
वं@@ 7636
एन 7627
सूत 7623
रयास 7611
किंग 7607
वश 7604
गल 7600
लाइन 7597
घु@@ 7593
भो@@ 7590
लगे 7586
2008 7585
आबादी 7571
किमी 7561
सब@@ 7561
कुमाऊँ 7553
खर 7545
ऐतिहासिक 7527
९@@ 7524
मिलता 7510
कथा 7509
मुस 7509
धित 7508
पोर 7507
बुद 7506
मैं 7501
बोर 7500
बाज 7496
बे 7496
वहाँ 7496
उड 7487
चू@@ 7484
यकता 7481
कं@@ 7479
खान 7459
इनमें 7456
4@@ 7446
ठा@@ 7444
19 7438
वंश 7426
पित 7401
रियों 7401
बार@@ 7388
30 7386
आर@@ 7384
रेष 7348
लाया 7346
तहत 7328
घोषणा 7323
यापार 7317
रहती 7310
राव@@ 7306
लाम 7288
लित 7287
,@@ 7286
2007 7286
मैन 7286
तुत 7268
वीकार 7266
आकार 7262
दिए 7259
काओं 7257
विधान 7252
कृ@@ 7249
धी@@ 7247
आता 7235
मेंट 7231
लिम 7223
पुरुष 7220
विन 7217
बू@@ 7216
दूसरा 7215
जनगणना 7198
कट 7193
आते 7188
चरण 7184
हाल 7172
आयोजित 7169
सके 7166
सां@@ 7158
इंड@@ 7153
8@@ 7148
कम@@ 7148
हाथ 7124
गीत 7123
नियम 7120
घट@@ 7117
नग@@ 7109
परा@@ 7105
नव@@ 7088
ऊर 7083
मदद 7067
9@@ 7065
रेलिया 7065
लिस 7042
एशिया 7040
थो@@ 7040
थे@@ 7038
बौद 7038
जिसने 7025
लादेश 7009
टार 7004
बनाए 6997
11 6992
टर@@ 6990
गुप 6985
इनका 6980
दिखाई 6977
बता@@ 6970
विवाह 6957
धारा 6956
तियाँ 6953
2018 6947
टो 6945
जग@@ 6941
गं@@ 6919
मॉ@@ 6917
रु 6912
2019 6909
15@@ 6901
टाइ@@ 6888
a 6884
थात 6884
बाल 6884
थर 6881
जाए 6872
टम 6869
हरा@@ 6862
आती 6844
आया 6839
खा 6827
तल 6809
2009 6808
नामेंट 6802
हेतु 6800
धांत 6783
एल@@ 6781
लास 6772
रखने 6758
याय 6752
गन 6747
तुम 6745
गम 6741
बताया 6731
सामने 6726
अंतरराष 6723
लस 6722
घ 6721
शील 6721
शादी 6706
बैंक 6695
थानों 6694
भार@@ 6688
महिलाओं 6682
खंड 6672
मिली 6672
रारंभिक 6670
नत 6647
वो@@ 6644
लियों 6633
उपन 6631
पांच 6629
ियर 6626
डन 6612
लिन 6612
नू@@ 6610
रू 6606
राह 6601
साक 6598
रप 6592
नियुक 6585
पुलिस 6580
लाने 6571
रशिक 6570
बंद 6567
18 6556
मास 6534
फोर 6532
नेतृत 6531
पुनर 6520
25 6516
कवि 6514
भाषा@@ 6487
हवाई 6477
‌ 6472
रेल 6471
कक 6465
सान 6464
नस 6463
गो 6449
ंज 6446
चला 6443
अम 6437
रद 6417
उपा@@ 6408
सात 6399
घटना 6396
यद 6393
किस 6390
शाह 6385
कस 6381
फल 6377
सांस 6377
रिका 6373
परिषद 6371
16@@ 6369
फरवरी 6359
रिकॉर 6355
लेखक 6347
पैदा 6346
राकृतिक 6346
ढा@@ 6335
जीव 6332
दिशा 6327
संरक 6326
बर@@ 6324
भिक 6311
डॉ 6309
वेस 6294
छत 6289
टु@@ 6287
नीति 6282
तने 6279
बंगाल 6277
मनुष 6276
मिलियन 6274
लते 6268
अरब 6261
रिंग 6257
वती 6257
यवहार 6247
बंध@@ 6240
नृत 6235
रल 6234
तना 6226
सितंबर 6223
दारी 6221
ें 6218
लती 6216
गैर 6205
जानकारी 6201
वापस 6201
वामी 6198
ईस 6191
भौ@@ 6191
जित 6182
खड 6177
2006 6176
कोशि@@ 6173
लेक 6171
जनता 6170
आश 6161
लाभ 6160
मना@@ 6151
गार 6148
छि@@ 6142
षिणी 6141
लाह 6136
वजनिक 6132
ंडा 6123
हन 6114
जिन@@ 6108
दिनों 6104
मनी 6104
छोटी 6099
14 6089
नेता 6087
समुदाय 6065
राण@@ 6063
16 6062
यूरोप 6057
भि@@ 6056
सड 6040
ऊँ@@ 6037
रांत 6036
दै@@ 6017
भीतर 6009
हासिल 6006
पुष 6004
लिख@@ 5988
राव 5979
मुख@@ 5972
वेल 5970
ूल 5960
कानून 5952
एच@@ 5941
धों 5924
कब 5923
इनकी 5921
चै@@ 5918
खोज 5917
आमतौर 5911
नियों 5910
हिं@@ 5905
अगर 5901
शाली 5901
अड 5893
शित 5893
बजे 5891
देती 5886
लब 5884
धीरे 5880
सरकारी 5880
छी 5878
सामग 5874
यल 5873
वीर 5861
पहचान 5857
लकर 5857
20@@ 5855
राजमार 5853
निका@@ 5851
मन@@ 5845
शिव 5841
पीछे 5829
इलेक 5822
कृतिक 5815
सिटी 5811
पों 5810
बाई 5804
रतिशत 5804
षिक 5803
जिम 5801
2010 5781
उपस 5767
चले 5763
कृषि 5758
तै@@ 5758
जिसकी 5756
तू@@ 5756
मेल 5749
तरफ 5747
वॉ@@ 5745
हरी 5744
मिस 5734
21 5729
नीय 5727
वाड 5719
१९९@@ 5708
समिति 5707
नेशनल 5698
पाठ 5691
कथा@@ 5690
गति@@ 5684
दिसंबर 5682
परिणाम 5670
लगता 5668
काल@@ 5666
सागर 5665
यही 5663
दम 5655
टिन 5654
ंगल 5653
? 5648
रहण 5644
जैसा 5624
सहायक 5623
विध@@ 5621
अभिनय 5619
नवंबर 5617
फा 5614
बिल 5607
डिग 5596
शै@@ 5595
चीनी 5593
रज 5586
लाख 5586
महान 5585
अनुसंधान 5583
ईसा 5581
बिक 5573
मौजूद 5571
कंप 5569
17 5566
टीवी 5565
फु@@ 5559
वर@@ 5551
विशेष@@ 5550
रौद 5548
सेंट 5546
कमी 5541
नलिखित 5538
पंजाब 5535
सें@@ 5535
खुद 5534
णि@@ 5533
ञात 5526
यौ@@ 5521
साधारण 5521
तिगत 5509
लोक@@ 5502
अकादमी 5499
ताकि 5499
जीता 5493
जैन 5487
वजह 5475
शिया 5474
तानी 5473
17@@ 5468
अपेक 5464
बिन 5461
तुओं 5457
आधिकारिक 5455
यतः 5454
शेष 5454
टेक 5449
फी 5446
माइ@@ 5445
तीर 5438
निजी 5436
लेख@@ 5434
मानक 5432
गुरु 5429
पाद 5426
सिन 5414
साध@@ 5410
हर@@ 5405
रांस 5401
हीं 5391
भाषाओं 5388
बैठ@@ 5385
नता 5382
पट@@ 5378
शू@@ 5377
लिका 5372
रिलीज 5371
षि@@ 5363
बदल 5358
ियम 5356
औसत 5353
याप 5350
धारित 5349
रेम 5346
जाएगा 5340
षे@@ 5338
एकल 5337
आंदोलन 5335
योगदान 5335
नेपाल 5333
बाहरी 5328
एक@@ 5327
रेड 5327
यूरोपीय 5324
विशाल 5324
धु@@ 5322
पिक 5322
उससे 5318
ंच 5314
िला 5310
बाजार 5305
13 5302
हरा 5290
यूटर 5287
वेद 5286
अनुमति 5270
ताप 5264
रेक 5264
उनमें 5256
वहां 5254
रमा@@ 5253
दिर 5251
ियाई 5249
पट 5241
पृष 5240
दु 5235
जैसी 5230
मुंबई 5228
बां@@ 5219
नं@@ 5214
रोक 5214
किंतु 5213
अली 5202
2014 5200
पालन 5199
नें 5198
बच@@ 5197
सूचना 5197
रस@@ 5193
पूजा 5192
यस 5190
2011 5186
कान 5182
मंडल 5181
2016 5180
थक 5179
समी@@ 5178
नपुर 5177
हाइड 5174
रिश 5173
ठीक 5164
50 5162
इल 5161
णय 5156
तनी 5153
गिर@@ 5149
काउ@@ 5146
रबंधन 5143
_ 5139
विजय 5139
2017 5138
लाई 5137
चुके 5131
सेन 5126
चार@@ 5121
विल 5121
शान 5121
राह@@ 5119
डब 5113
संचालित 5106
कत 5104
रधान 5104
संदर 5103
देखने 5093
विरोध 5092
सीमित 5089
कविता 5088
आध@@ 5084
आसपास 5076
अनुवाद 5075
कल@@ 5072
तरित 5070
लग 5067
आस 5065
रतियोगिता 5065
2005 5064
ंश 5052
लियन 5042
हिमा@@ 5042
पेक 5038
लागू 5034
ियो@@ 5031
ंगा 5025
खरी@@ 5024
टक 5022
लगाया 5022
ंब@@ 5019
रीन 5013
मामले 5012
बचा@@ 5006
एफ@@ 5003
अंग@@ 5000
सफलता 4999
बेल 4995
and 4990
जीव@@ 4975
देश@@ 4966
रजा@@ 4964
सुधार 4958
नेटवर 4954
करें 4951
शासक 4945
चलता 4944
छ 4935
०० 4922
पटना 4921
नेट 4917
महीने 4911
+ 4910
तियां 4907
राब 4902
संघर 4902
कें 4901
इंडिया 4898
भोजन 4898
फू@@ 4893
एड@@ 4888
योगिकी 4882
योगी 4876
सॉफ 4863
बंधित 4862
इत 4861
शो 4861
जहा@@ 4860
महाराष 4859
गंज 4857
24 4856
बावजूद 4853
जॉन 4844
मिलती 4841
शुक 4838
बनाई 4834
नया 4828
ंप@@ 4824
उठा@@ 4823
रसा@@ 4823
ऑक 4820
दौ@@ 4820
गंगा 4819
मोड 4818
तविक 4803
तं@@ 4799
भारी 4799
शुद 4799
2012 4798
घंटे 4796
कने 4793
सेल 4784
पना 4782
इंटर@@ 4778
शिष 4778
बैंड 4771
रोध 4771
जापान 4770
षम 4770
करी 4768
22 4762
परन 4761
पाए 4760
रिटेन 4756
लत 4751
अधिनियम 4746
भार 4745
कहीं 4742
मरा@@ 4741
थि 4738
रुप 4738
डिंग 4735
षर 4733
चरित 4732
सुन 4732
लेट 4726
संबंधी 4724
आए 4722
धारण 4721
2000 4720
मॉडल 4713
संभव 4711
ारि@@ 4710
रयुक 4709
छह 4705
अभिनेता 4699
पुरा@@ 4691
100 4686
H@@ 4680
याख 4679
तमिल 4677
१९८@@ 4677
आय@@ 4675
लु 4675
in 4673
गठन 4671
संकेत 4660
अभ@@ 4656
राट 4650
मिट 4649
योग@@ 4648
झील 4646
परम 4646
तुर 4642
शिव@@ 4641
जरू@@ 4640
संभा@@ 4640
नम 4637
शों 4635
पेन 4630
याग 4630
2020 4629
तें 4628
डिय@@ 4623
रेखा 4609
मिनट 4607
परंतु 4606
हिंदू 4602
करोड 4601
माल 4592
पीड 4589
कोशिश 4582
उपचार 4581
ंसी 4579
छे@@ 4579
रिपोर 4579
परिचय 4572
ारित 4570
संरचना 4568
चाई 4567
आरम 4562
रतिनिधित 4562
विवरण 4560
परियोजना 4559
घो@@ 4556
माँ 4554
वज 4547
गड 4545
रूस 4537
णित 4533
छोटा 4527
मीडिया 4524
सेवा@@ 4524
मामलों 4523
दत 4522
हरे 4511
होगी 4506
भाव@@ 4505
यं@@ 4505
मानते 4499
मील 4498
झा@@ 4496
डिया 4490
माने 4489
खू@@ 4485
रसाद 4484
णु@@ 4481
रिज 4475
तट 4470
मुरादाबाद 4470
तृत 4468
ंगी 4465
डॉ@@ 4465
रोड 4465
रतिक 4463
राक 4461
लेखन 4461
I 4458
आइ@@ 4457
विपरीत 4455
तेज 4449
वि 4449
2015 4443
अधिकारी 4441
B@@ 4429
भव 4428
षि 4426
ताब 4420
संविधान 4409
14@@ 4408
एफ 4407
जान 4401
अभियान 4395
दीन 4395
सही 4395
भागों 4394
ेक 4390
शकों 4382
2004 4379
रत@@ 4379
रि 4378
देना 4377
महल 4375
करे@@ 4374
40 4372
23 4370
रका@@ 4369
वय@@ 4368
भा 4367
आयोजन 4363
पुराने 4363
रीम@@ 4358
रकाशन 4355
लेषण 4354
सहयोग 4351
इंजीनिय@@ 4350
चिन 4350
अनुभव 4346
एयर@@ 4344
ऊ 4341
खों 4340
रतिष 4332
रकृति 4330
आईसीसी 4328
अगले 4326
तिष 4326
याओं 4321
खण 4320
मिला@@ 4316
पाई 4311
हाइ@@ 4306
गुरु@@ 4295
सफ@@ 4293
आचार 4291
पुरी 4290
मारी 4290
घोषित 4289
शं@@ 4289
डॉलर 4286
फाइनल 4284
सुविधा@@ 4284
१९७@@ 4283
लि 4276
M@@ 4274
कोट 4274
लगातार 4273
इच 4266
वेक 4266
लेते 4265
चुका 4260
N@@ 4257
साधन 4257
ञ@@ 4255
साम@@ 4253
काम@@ 4250
मुहम 4250
विधायक 4245
पेट 4244
चि 4243
पदक 4243
भविष 4240
मेन 4236
वीडियो 4236
तेल 4235
2013 4234
बहा@@ 4234
शाखा 4232
शाही 4232
रश 4227
कित 4226
26 4225
ओलंपिक 4221
संसद 4221
आयु 4217
उद@@ 4213
डु@@ 4211
लंदन 4211
रतिस 4208
अहम@@ 4206
धारा@@ 4202
बनने 4201
सक@@ 4200
रचित 4199
कहा@@ 4196
गुण 4195
जय 4194
पेश@@ 4192
सिल 4192
ोड 4189
गांधी 4182
समीक 4181
अतः 4177
2021 4176
घरेलू 4171
धिक 4170
सित 4168
थाप@@ 4167
मिल@@ 4161
कुर 4159
उसमें 4158
विभाजित 4158
P@@ 4157
निवास 4153
पिछले 4153
विदेशी 4152
रशं@@ 4151
दौर 4146
करीब 4143
लेस 4143
अर@@ 4142
खेलों 4134
भवन 4134
लगी 4133
कमा@@ 4126
शस 4125
रंथ 4123
रशासनिक 4123
नामित 4121
राजनीति 4116
गुजरात 4115
यादि 4112
वायु 4112
रशा@@ 4111
अज 4110
टिल 4110
योगिक 4110
षेप 4107
नंद 4101
जम 4100
मल@@ 4097
योज@@ 4097
किनारे 4090
D@@ 4089
अफ@@ 4089
लीय 4088
वाय@@ 4088
इसने 4087
रीकी 4087
बोली 4086
निकट 4085
सेट 4085
२० 4083
आदेश 4081
नेस 4081
करणों 4080
धो@@ 4080
मानों 4080
रखते 4080
लाह@@ 4076
जिनके 4075
गू@@ 4074
“ 4067
छु@@ 4065
डिजाइन 4065
पस 4064
$ 4061
पकड 4061
भेद 4061
हार@@ 4061
वालों 4057
युवा 4052
सूक 4052
बू 4049
चारों 4042
यायालय 4039
फॉर 4030
दौरा 4028
रौ@@ 4028
मत@@ 4023
आउ@@ 4022
इलाहाबाद 4022
टने 4019
रती 4010
आठ 4009
अपना@@ 4006
सद 4006
रचलित 4000
सुविधा 4000
मेट 3999
पवित 3996
यूज 3993
उपकरण 3992
गुज@@ 3992
मिलकर 3992
चुना 3982
माइक 3980
परिणामस 3979
थायी 3978
वृ@@ 3972
थोड 3971
शोध 3971
ै 3966
” 3966
पारंपरिक 3965
हमारे 3965
C@@ 3958
हू@@ 3958
जोर 3957
28 3956
यम@@ 3955
ताव 3953
ताक 3952
i 3949
केट 3948
रार 3947
ारण 3947
रुप@@ 3946
लें 3944
संगठ@@ 3943
सन@@ 3942
तस 3941
अनुमान 3940
ाने 3939
मैचों 3935
निवे@@ 3934
विड 3934
रेल@@ 3924
नारायण 3923
अभिनेत 3920
तरीके 3920
वाधिक 3920
नाइट 3916
नार 3916
रारंभ 3915
सारे 3915
मंग@@ 3914
ंस@@ 3913
यपि 3905
खेला 3904
सांख 3902
इमार@@ 3900
27 3898
औद 3898
चेन 3898
दिसम 3895
T@@ 3894
आदर 3894
याया@@ 3893
रवर 3893
ंक@@ 3892
वप 3892
ः@@ 3891
दावा 3890
नाइ@@ 3888
​ 3886
लिखी 3880
00@@ 3878
S@@ 3877
पाँच 3874
रोह 3874
नान 3873
१९६@@ 3868
रख 3867
है- 3867
यवसाय 3858
यादातर 3856
एजे@@ 3854
वली 3849
वाया 3848
0@@ 3846
नेवाले 3842
13@@ 3840
रीलंका 3840
भावना 3838
तकों 3837
छे 3836
लपुर 3836
समझौ@@ 3836
गैस 3833
वृक 3831
सराय 3831
छू@@ 3828
दिखा@@ 3828
आगरा 3824
रेशन 3823
अभ 3818
पंचा@@ 3817
समाचार 3815
वाह@@ 3812
आग 3810
टेल 3810
राथमिक 3807
मुसल@@ 3805
विकेट 3803
विख 3799
टिस 3798
फोन 3796
चैनल 3795
जवा@@ 3794
मौत 3794
रेखा@@ 3794
नवम 3791
नागरिक 3790
नियमित 3790
रीक 3789
उंड 3786
नातक 3786
अना@@ 3784
A@@ 3780
धारणा 3780
E@@ 3779
टस 3778
लेखनीय 3778
बजाय 3774
अधीन 3771
निया@@ 3771
लेन 3771
रतीक 3768
पथ 3763
ंडी 3759
थियों 3757
2003 3756
टीन 3756
मानी 3751
G@@ 3747
ियनशिप 3745
संपर 3743
भव@@ 3741
लिपि 3740
कलाकार 3732
खाने 3731
थाओं 3731
घाट 3727
डिस 3726
कॉर 3724
निभा@@ 3724
रेरित 3722
अवसर 3721
दोस 3718
कारक 3714
रचार 3713
सार@@ 3712
वां 3711
2002 3709
साइड 3709
2001 3708
लेता 3708
इ 3703
संत 3703
थिय@@ 3697
मंड@@ 3695
चिं@@ 3694
आरंभ 3693
यधिक 3689
सामना 3689
धियों 3684
अद 3680
नॉ@@ 3680
विकल 3677
रज@@ 3676
अस@@ 3675
रामीण 3675
I@@ 3669
वैश 3665
बई 3663
वाक 3660
मिलते 3659
हमेशा 3659
घाटी 3658
१० 3658
संचार 3652
वरों 3648
सुन@@ 3648
तरण 3647
भट 3646
विवाद 3643
साइट 3642
पुरा 3641
थितियों 3640
लामी 3638
००० 3637
खाद 3636
उप 3633
ईश 3631
पुनः 3631
थु@@ 3630
रशासन 3625
आँ@@ 3621
धू@@ 3616
लना 3616
निवेश 3615
1990 3609
s 3609
मैदान 3609
टेट 3606
रचना@@ 3606
रैक 3605
हरि@@ 3604
जॉर 3603
नष 3599
तीसगढ 3598
समु@@ 3598
डम 3596
रोज 3596
जनरल 3595
पेश 3590
एकमात 3588
खी 3587
देशक 3587
योजन 3587
बाजी 3582
अति@@ 3581
आदि@@ 3581
जिनका 3579
गठ@@ 3577
जीवित 3575
रमा 3575
परिस 3569
रधानमंत 3567
लिखित 3567
याय@@ 3562
मैक 3561
किल 3555
धां@@ 3553
वायु@@ 3553
दिवसीय 3552
मधु@@ 3551
१७@@ 3551
राजन@@ 3546
रमों 3545
कनाडा 3538
खंड@@ 3536
तीसरे 3536
धति 3535
वेन 3534
परमाणु 3533
बिया 3531
संपत 3531
बों 3528
मोर 3528
हराया 3528
10@@ 3525
पेड 3524
लाव 3523
चाहते 3518
वाइ@@ 3514
अंतरिक 3513
यज 3513
वेश 3509
अधिकतर 3504
औप@@ 3504
शह@@ 3501
भर@@ 3497
ॉ 3495
रेडियो 3494
एका@@ 3488
टेड 3480
विष@@ 3480
टता 3478
पे 3477
यो 3476
नरी 3470
आलोचना 3469
जांच 3469
आका@@ 3468
मू 3468
हज@@ 3468
किर@@ 3466
चारिक 3463
रुद 3460
लार 3460
गेंद@@ 3458
वाई 3457
मिले 3455
बेटे 3454
निंग 3448
बत 3447
वेद@@ 3446
राशि 3444
हाउस 3444
संशो@@ 3440
वीय 3439
पुरुषों 3435
गेम 3434
सव 3434
बेहतर 3432
डियो 3429
यमान 3429
सकों 3427
गणित 3426
मानता 3426
रकट 3425
संपा@@ 3425
रिकेटर 3420
कारात 3419
चढ 3416
चुकी 3416
राजा@@ 3416
शय 3416
रामा@@ 3415
नाम@@ 3413
जनक 3410
ंडे@@ 3409
नवा@@ 3406
रारम 3406
नायक 3405
इंजन 3404
तापमान 3404
रणा@@ 3404
तात 3403
षणों 3403
करियर 3399
पताल 3398
याद 3398
केरल 3397
परिक 3396
परंपरा 3392
याव@@ 3390
जेल 3389
सीसी 3389
मांग 3388
ारी@@ 3388
ईसाई 3384
जिद 3384
सिंग 3381
कीर 3376
विचार@@ 3375
फाइ@@ 3373
बराबर 3369
लंबे 3367
टवेयर 3365
नज 3365
सैनिक 3361
रभा@@ 3360
साह@@ 3359
सिने@@ 3357
महासागर 3355
रती@@ 3350
हद 3350
समारोह 3349
केश 3348
शाला 3348
दय 3347
पारी 3346
परे@@ 3340
शहरों 3340
अंदर 3334
संचालन 3334
... 3332
टाइम 3332
मेलन 3330
हालाँकि 3330
नतम 3329
ेश 3324
मियों 3323
रासायनिक 3316
तीव 3314
विमान 3314
to 3312
पंच@@ 3310
यां@@ 3305
रतिनि@@ 3304
गंभीर 3302
टिकोण 3302
वां@@ 3301
णिक 3300
वहीं 3300
अंड@@ 3299
धिकार 3297
मिलित 3292
इज 3291
अख@@ 3288
धे 3288
विषयों 3288
मौसम 3283
आग@@ 3280
उनसे 3280
यावरण 3279
लगाने 3279
तारा 3275
टियों 3271
दाय@@ 3271
मिन 3271
उन@@ 3269
सृ@@ 3269
देख 3268
आलो@@ 3265
भूमि@@ 3265
मंच 3265
मां 3265
रांति 3263
डो 3261
नानी 3261
मृ@@ 3260
आयोग 3259
विलियम 3259
रालय 3255
सरों 3255
रोम 3254
अरबी 3253
नाडु 3253
समाज@@ 3251
तथ 3250
बाँ@@ 3249
१९५@@ 3247
थापक 3245
जड 3243
पारि@@ 3243
भौतिक 3243
शारीरिक 3243
विवा@@ 3240
इतना 3239
महाद 3239
ंटी 3237
देखें 3237
यूट 3235
29 3234
तरी@@ 3234
महाराज 3233
रायः 3233
घटनाओं 3230
थव 3227
डिज 3225
लागत 3223
सितम 3223
31 3220
R@@ 3213
ताल 3213
दिख@@ 3213
ञा 3211
पाने 3211
लिखे 3211
समूहों 3210
हमला 3210
किले 3209
तोड 3208
नियन 3207
F@@ 3205
हैं- 3205
पुल 3204
एच 3202
योगों 3202
तिज 3199
फॉ@@ 3197
हान 3196
बेटी 3193
मोहन 3193
वाणिज 3193
मक@@ 3185
सुल 3185
यकार 3181
डाय@@ 3180
कपड 3178
वही 3178
A 3175
तकनीक 3175
परिसर 3174
संप 3174
दिक 3172
सीधे 3171
अंक 3170
टू 3170
गे 3169
धक 3165
कपूर 3164
विरोधी 3164
चली 3162
सेक 3162
मय 3161
ताह 3159
फुटबॉल 3159
विभाजन 3158
दिखाया 3157
पान 3157
दुल 3156
अधिकारियों 3155
ंकि 3154
इक 3154
नाट@@ 3154
१९४@@ 3154
मिलने 3153
सच 3150
षीय 3148
गाने 3145
रॉन 3144
चैंप@@ 3143
भग@@ 3143
वोच 3143
ियो 3142
हवा 3139
निभाई 3137
रियाओं 3137
लोकसभा 3136
माल@@ 3132
संघ@@ 3132
रहालय 3131
चलने 3130
L@@ 3128
तेजी 3127
२०@@ 3126
नाक 3124
निकल 3123
नित 3122
वानों 3122
अध@@ 3121
झु@@ 3121
1@@ 3119
यप 3119
कुं@@ 3117
बल@@ 3117
रिम 3117
देशित 3115
विजेता 3113
कठ@@ 3112
शंकर 3112
कैरियर 3109
सभ 3109
रोमन 3108
रूसी 3104
1980 3102
कैसे 3101
मुझे 3101
राजवंश 3100
लह@@ 3099
सह 3099
गां@@ 3097
तला@@ 3094
सतह 3092
षात 3091
भित 3089
ॉन 3087
विरुद 3086
भूत 3085
अश 3084
पहुंच 3084
गज 3083
कव@@ 3080
ोस 3080
विचारों 3079
माला 3076
अलीगढ 3075
दि 3074
यूक 3073
1999 3068
तकनीकी 3066
सेवाओं 3061
षत 3058
भेजा 3057
सोवियत 3055
60 3053
O@@ 3047
मग@@ 3046
बेस 3045
मर@@ 3045
रखता 3045
॥ 3045
देखते 3042
चट 3041
चिह 3041
दिवस 3041
भुगतान 3040
उपाधि 3038
वेंटी 3036
यावसायिक 3035
वासियों 3034
W@@ 3032
संतु@@ 3029
ंचा@@ 3027
कोश 3027
इयों 3024
घू@@ 3024
शांति 3019
नैनीताल 3014
विवे@@ 3013
ईं 3010
विकि@@ 3008
डै@@ 3005
जोखिम 3004
देवता 3001
पसंद 3001
एशियाई 2999
चतुर 2998
देशन 2998
दौरे 2998
आये 2996
तिब 2995
रियल 2993
लंबी 2992
इब 2989
रवृत 2989
यमंत 2988
पुराण 2986
K@@ 2984
वातावरण 2984
सरल 2984
पृ@@ 2983
डॉक 2981
उचित 2979
सचिव 2979
रभावी 2976
गाह 2975
लीवुड 2975
विशेषज 2975
अंततः 2973
तार@@ 2973
लैक 2972
हिक 2971
0.@@ 2970
संभावना 2970
ंगे@@ 2967
धातु 2967
जलवायु 2963
फार@@ 2962
जिसमे 2958
करेगा 2957
घि@@ 2957
थिर 2955
नियमों 2955
कोलकाता 2952
वाह 2950
दृ@@ 2946
कण 2944
टीमों 2942
झा 2941
इंस 2940
चय 2940
डों 2939
जंग@@ 2938
पाली 2938
रोजन 2938
कॉन 2934
कास 2933
लैण 2933
पत@@ 2928
यटन 2928
ऑपरे@@ 2927
चलते 2927
जेम 2926
यूजीलैंड 2925
गवर 2922
आतं@@ 2919
12@@ 2916
कवि@@ 2914
जापानी 2914
टिव 2914
उस@@ 2913
मेर 2911
नार@@ 2909
1998 2908
मोहम 2907
चारी 2906
इकाई 2903
गतिविधियों 2902
हज 2900
हड 2900
१५@@ 2900
पद@@ 2899
कट@@ 2893
कंपनियों 2889
यकाल 2889
भाग@@ 2886
कू 2885
घे@@ 2885
ङ 2885
रमाण 2881
गद 2880
जाए@@ 2879
1.@@ 2875
मानना 2875
formula 2874
इंडियन 2874
खी@@ 2872
जस 2871
शैक 2870
हिल 2870
चैम 2869
दबाव 2868
वोल 2867
मजबूत 2866
अल@@ 2865
अक@@ 2863
करा 2862
सारी 2860
कलन 2858
नर@@ 2858
शत 2857
फैसला 2856
रिप 2856
पैमाने 2854
यौगिक 2854
कराया 2853
1,@@ 2852
टेलीविजन 2852
लाना 2852
सूस 2852
वाहन 2851
हारी 2849
दोलन 2848
गान 2847
लिप 2847
मूल@@ 2845
कैंसर 2844
बेह@@ 2842
नाई 2840
वास@@ 2840
सीमा@@ 2839
जाग@@ 2836
दीक 2836
पुराना 2835
खाड 2834
सहम@@ 2834
यक@@ 2833
उपयोगकर 2828
अग@@ 2826
ंडल 2825
पशु@@ 2825
शायद 2825
नुसार 2823
80 2822
शाह@@ 2822
गरी@@ 2820
चने 2820
उपभो@@ 2819
रॉक 2819
सीरीज 2819
३० 2816
वरी 2815
चयन 2810
बैं@@ 2810
कां@@ 2808
रेजों 2807
आरोप 2806
करे 2804
वेज 2802
यूयॉर 2798
रया@@ 2797
उनको 2795
यर@@ 2794
सीजन 2794
परिवहन 2791
यालयों 2789
हाई 2788
निज 2787
हमें 2787
बुल 2783
रागढ 2783
मोबाइल 2782
यूनाइटेड 2782
रसारण 2780
मेश 2779
वनि 2777
विशेषता 2773
ठे 2772
आवाज 2771
फुट 2771
यूनिवर 2770
वासी 2769
हास 2767
तन@@ 2766
यापार@@ 2761
आखि@@ 2759
आयु@@ 2758
गाँ@@ 2758
उपयुक 2756
जंक 2756
टेडियम 2755
१५ 2755
जानी 2754
डाला 2754
भूषण 2754
मतलब 2752
पोस 2750
फिक 2750
is 2748
हूँ 2748
औष@@ 2747
रदाय 2747
वाहिक 2746
सत@@ 2743
सिया 2743
ीज 2743
शिकार 2742
मछ@@ 2741
निवासी 2739
मानसिक 2739
असम 2738
वेब 2738
थानां@@ 2737
मेरे 2736
वाओं 2732
पाठ@@ 2731
रोग@@ 2730
तुर@@ 2728
वंश@@ 2723
गृह 2722
खेती 2720
ढंग 2719
रदा@@ 2719
रोल 2717
p@@ 2716
यें 2716
रूपों 2716
सीज 2711
सैनिकों 2709
रव@@ 2708
° 2706
जीवा@@ 2706
निदेशक 2706
बाह 2706
पुरानी 2704
लभ 2704
बॉक 2703
रभाव@@ 2702
बहन 2700
रपुर 2699
१६@@ 2698
याद@@ 2697
रहे@@ 2693
पुन@@ 2691
वारी 2690
70 2689
इंटरनेट 2689
उज 2688
सस 2687
तीसरी 2686
नज@@ 2686
मिंग 2685
लीन 2685
शुल 2684
जुन 2682
रॉफी 2682
2.@@ 2677
तू 2676
अनुप 2675
गईं 2673
ञापन 2673
राफ 2673
ुक 2673
कृतियों 2672
रखी 2671
मैक@@ 2667
ا@@ 2664
ताएं 2664
रवाह 2663
विविध 2662
उष 2661
टरी 2661
जगत 2657
परंपरा@@ 2657
बृ@@ 2657
जिक 2655
निरं@@ 2655
M 2653
ईरान 2653
ावा 2652
वैदिक 2651
पां@@ 2650
रफल 2650
सोसिए@@ 2650
V@@ 2648
गूगल 2648
यकर 2647
इतिहास@@ 2646
कटि@@ 2645
1996 2643
बिंदु 2643
मज 2643
ंचाई 2641
लकड 2640
सुंदर 2639
संसार 2638
लेज 2636
थशास 2635
समझ 2635
मले@@ 2634
कहला@@ 2632
पाद@@ 2632
यव@@ 2631
दुस 2630
T 2629
पंड@@ 2629
शिल 2629
संगीत@@ 2628
आपूर 2626
कियों 2624
जातियों 2624
बनिक 2622
अमेरि@@ 2621
चुने 2618
नही 2618
१२ 2618
निधन 2616
गिर 2615
लेना 2615
पाइ@@ 2614
बिजली 2614
x 2612
जीन 2609
षकों 2609
वामित 2608
शुरू@@ 2608
पाल@@ 2607
सद@@ 2607
बह 2605
कहना 2604
परिभाषित 2603
विदेश 2602
हरियाणा 2602
मिर 2601
वेब@@ 2600
गिरफ 2599
नॉर 2599
आय 2598
कारि@@ 2597
शोक 2596
अनंतपुर 2595
गृ@@ 2594
राजपू@@ 2594
खेले 2592
टेली@@ 2592
लघु 2592
इटली 2591
तापूर 2591
रसार 2591
संधि 2591
चम 2590
पशु 2587
लखनऊ 2585
गणराज 2583
णि 2583
नाव 2581
सौ 2581
षियों 2580
हजार 2579
रुखाबाद 2578
अपराध 2577
झार@@ 2575
यहू@@ 2575
बीमारी 2574
संहि@@ 2567
िये 2566
1970 2564
पें@@ 2562
रभ@@ 2554
मृति 2553
वट 2553
कानूनी 2551
दिये 2550
बाबा 2550
बिल@@ 2550
आसानी 2548
सल@@ 2548
रियाई 2544
महाभारत 2543
तिकी 2539
लिमिटेड 2539
कहलाता 2537
वु@@ 2537
कारणों 2536
पीढ 2534
अनिवार 2532
चुना@@ 2532
आंतरिक 2531
धारी 2530
ील 2530
35 2528
09 2527
अदा@@ 2527
आंकड 2527
पौड 2527
साबित 2526
आयरलैंड 2525
परा 2524
घन 2522
नेताओं 2522
लां@@ 2522
पब 2521
नव 2520
1997 2519
500 2518
टिप 2518
तुल@@ 2518
खास 2517
राग 2517
टरों 2516
हृदय 2516
अवार 2515
एयर 2515
नौ 2515
देशी 2513
तय 2511
देकर 2509
षिप 2508
वितरण 2507
उपग 2506
दीर 2505
मिशन 2504
सफ 2504
महाराजा 2502
याम 2502
चारण 2499
पीठ 2499
चौड 2497
जनों 2497
धता 2496
निकाल@@ 2496
मश@@ 2495
वानी 2495
एड 2493
किंग@@ 2493
फार 2490
खतर@@ 2489
सदर 2488
णे 2487
वोत 2487
गुणवत 2486
हैदराबाद 2484
डेटा 2483
200 2482
एकत 2482
रेश 2481
कठिन 2480
जमीन 2480
निगम 2479
पेशे@@ 2479
तरा 2478
होटल 2477
सुझा@@ 2476
हटा@@ 2475
मो 2474
सिय@@ 2473
नुकसान 2472
काशी 2471
रोस 2471
सो 2471
ैतिक 2471
अभिव 2468
शुरु@@ 2467
गाड 2466
समझा 2465
रियन 2464
देह 2463
संबंध@@ 2463
C 2457
बंगा@@ 2454
रीज 2448
The 2442
चना 2437
अधिक@@ 2388
तीस@@ 2387
अ 2381
D 2377
निकों 2375
बंधन 2375
1992 2370
45 2370
— 2351
साय@@ 2338
1994 2329
गुण@@ 2321
कोण 2317
1960 2311
-- 2308
90 2307
शु 2307
गणना 2306
जार 2292
1991 2291
रवरी 2278
1995 2273
दमी 2266
3.@@ 2261
1993 2260
पंजा@@ 2245
राजनी@@ 2244
पिछ@@ 2232
ंदर 2205
यूनि@@ 2205
J@@ 2204
विय@@ 2182
मजब@@ 2178
b@@ 2177
मद@@ 2174
p 2163
विभा@@ 2163
घं@@ 2155
,000 2149
19@@ 2137
मही@@ 2129
N 2116
m@@ 2114
ृंखला 2109
टेन 2107
25@@ 2102
अला@@ 2100
PM 2097
एव@@ 2097
y@@ 2094
अपरा@@ 2094
उ 2094
करी@@ 2087
32 2079
तह@@ 2070
ृत 2070
ऍ@@ 2065
झ 2065
30@@ 2048
विधा@@ 2046
जब@@ 2037
माम@@ 2036
शां@@ 2035
लख@@ 2029
amp 2026
योगि@@ 2026
L 2023
k@@ 2022
महिला@@ 2022
Z@@ 2004
नेत 1995
U@@ 1974
B 1973
ौ 1971
इका@@ 1968
पहु@@ 1957
कंप@@ 1952
1989 1950
1950 1922
j@@ 1917
यूरो@@ 1915
i@@ 1911
वाज 1906
F 1902
ंत@@ 1898
E 1887
P 1886
75 1875
कारियों 1874
महि@@ 1874
on 1868
o 1866
O 1853
18@@ 1852
ँच 1850
d@@ 1845
जना 1843
4.@@ 1842
S 1837
षद 1835
1947 1831
1986 1819
36 1810
5.@@ 1804
ताप@@ 1802
R 1796
ारो@@ 1796
1988 1794
33 1789
l 1789
तक@@ 1789
n 1787
H 1779
वरण 1779
1984 1774
n@@ 1772
वस@@ 1771
शनल 1768
65 1749
दाबाद 1749
मीन 1746
s@@ 1740
--@@ 1732
c@@ 1732
an 1729
t@@ 1727
* 1725
2,@@ 1714
ूत 1713
आरो@@ 1712
1985 1707
सॉ@@ 1701
योजित 1700
135 1697
AM 1697
w@@ 1695
br 1690
• 1687
परिणा@@ 1686
वुड 1683
as 1678
कठि@@ 1676
1987 1665
डियम 1665
al 1664
मि 1664
55 1657
1962 1656
1971 1655
संके@@ 1645
जिस@@ 1639
सहा@@ 1636
1972 1627
1967 1625
47 1623
m 1623
ंने 1623
शरी@@ 1623
v@@ 1620
अनि@@ 1610
c 1606
37 1605
1952 1604
or 1603
X@@ 1599
d 1596
ar@@ 1595
34 1582
परियो@@ 1574
उदाह@@ 1572
6.@@ 1571
तिम 1571
नां@@ 1569
h@@ 1568
पीय 1567
# 1564
300 1564
वेयर 1560
7.@@ 1555
b 1554
बरा@@ 1551
ar 1548
अंत@@ 1548
g@@ 1547
साई 1546
38 1545
परिव@@ 1545
64 1543
ل@@ 1527
तकनी@@ 1524
48 1517
1977 1513
1982 1513
आरं@@ 1509
मता 1509
ॆ@@ 1495
40@@ 1494
जाय 1493
ऐ 1482
V 1474
खें 1462
000 1461
an@@ 1449
G 1446
1975 1444
52 1442
.. 1439
यवसा@@ 1434
42 1433
a@@ 1431
e@@ 1424
y 1422
1973 1420
1979 1419
अंतर@@ 1416
लियम 1416
1948 1411
सरे 1404
44 1400
8.@@ 1400
u 1398
तिहा@@ 1398
1930 1391
1983 1389
1956 1388
X 1380
अका@@ 1378
II 1373
समि@@ 1372
1957 1371
for 1368
g 1368
43 1359
99 1347
al@@ 1345
9.@@ 1343
रथ@@ 1338
पुरु@@ 1333
ृ 1333
1978 1325
1965 1322
1981 1318
विशे@@ 1317
रहा@@ 1315
39 1312
1976 1310
51 1309
h 1306
us 1306
400 1299
56 1298
ch@@ 1296
95 1292
रियर 1290
de 1289
1969 1288
1974 1288
3,@@ 1285
Y@@ 1282
in@@ 1282
कैं@@ 1281
विशा@@ 1270
05 1257
शिप 1257
07 1255
o@@ 1255
विधियों 1255
खिला@@ 1254
ळ@@ 1254
कना@@ 1243
अथ@@ 1238
85 1232
41 1230
08 1225
53 1224
डु 1223
68 1212
हाँ 1212
.com 1210
x@@ 1205
रतियोगि@@ 1201
.A. 1199
46 1198
م@@ 1196
06 1190
रोधी 1189
1920 1185
t 1185
1000 1184
by 1183
मिन@@ 1182
गू 1180
ीक 1180
1968 1177
https 1175
उदा@@ 1174
1964 1173
re@@ 1173
किन@@ 1172
at 1170
छो@@ 1169
1966 1166
रधा@@ 1165
66 1161
72 1155
50@@ 1153
ation 1152
बित 1146
00 1145
दबा@@ 1145
अधिका@@ 1139
61 1136
62 1136
49 1135
04 1131
54 1127
N.@@ 1126
r@@ 1121
e 1118
डिजा@@ 1116
लयों 1116
58 1115
org 1107
88 1105
86 1098
विध 1098
01 1093
1940 1090
am 1089
57 1081
150 1080
am@@ 1077
en 1076
0,000 1072
1961 1072
ॆ 1069
U 1066
राथ@@ 1065
शियाई 1065
that 1064
1963 1062
k 1061
टवर 1053
ad@@ 1047
अमे@@ 1047
आस@@ 1045
गीत@@ 1035
ap@@ 1034
बॉल 1034
1955 1031
आधु@@ 1024
4,@@ 1023
ङ@@ 1022
di@@ 1021
तरिक 1020
as@@ 1014
1949 1012
67 1012
l@@ 1011
हृ@@ 1010
78 1006
98 1006
ic 1004
71 1003
आम@@ 1003
ر@@ 1002
1945 998
63 998
रधान@@ 990
फैस@@ 989
77 988
बिज@@ 984
f@@ 983
03 981
1954 980
1946 973
लीज 967
96 964
600 962
it@@ 958
76 955
यॉर 954
पसं@@ 953
IS@@ 951
1958 950
02 948
73 948
59 947
est@@ 944
ॊ@@ 944
1951 940
ro@@ 939
e.@@ 936
r 934
1959 932
5,@@ 931
at@@ 931
84 926
ंपिक 924
are 922
74 921
कानू@@ 916
Q@@ 913
87 911
ँकि 911
92 907
K 904
us@@ 902
69 901
ing 900
समू@@ 899
with 897
97 896
es 893
ur 892
81 890
was 889
अली@@ 889
82 886
83 886
th@@ 881
टबॉल 880
um 879
III 876
6,@@ 874
ag@@ 872
रतियो@@ 872
op@@ 871
u@@ 863
विधा 863
गिक 862
1857 858
1942 855
11@@ 852
800 845
er 845
ia 845
परमा@@ 845
नय 844
1953 836
2022 834
89 831
94 831
91 827
ب@@ 827
en@@ 823
नुष 823
कुमा@@ 820
26@@ 814
و@@ 814
or@@ 808
ref 808
ik@@ 807
7,@@ 806
93 805
on@@ 801
24@@ 798
1936 795
W 792
par@@ 788
it 785
नाइटेड 783
79 780
AS@@ 779
www.@@ 779
htt@@ 778
is@@ 777
राश@@ 775
v 770
1939 768
ृंख@@ 766
Ch@@ 755
नाराय@@ 755
00,000 754
ra@@ 753
ak@@ 749
1941 748
1937 746
8,@@ 746
web@@ 746
1900 739
from 739
1919 737
250 736
23@@ 734
web 732
US 731
archiv@@ 729
1932 725
टिश 719
मुरा@@ 719
28@@ 718
Y 716
es@@ 715
मति 711
लका@@ 709
120 706
बाव@@ 705
लंका 704
सामा@@ 703
200@@ 702
Z 701
be 699
ac@@ 697
{ 697
CA@@ 695
ن@@ 694
पि 694
ab@@ 692
धानी 692
f 689
tim@@ 689
ियान 688
om@@ 684
700 683
हां 683
un@@ 680
া@@ 679
1928 676
27@@ 676
el@@ 676
ns 676
आधि@@ 672
ame 670
de@@ 669
1931 667
‎ 666
ine 665
1,000 661
ern@@ 659
1935 658
model 658
ph@@ 656
राबाद 656
201@@ 655
st@@ 655
1934 653
£ 653
1921 650
one 650
} 650
1924 649
ha@@ 648
ॅ 648
1918 647
1944 647
हाबाद 647
ं- 646
समारो@@ 646
संचा@@ 643
1938 642
9,@@ 642
29@@ 641
ي@@ 639
er@@ 637
ot@@ 637
س@@ 632
ra 631
ن 628
li@@ 626
पहा@@ 626
National 624
ed 622
ul@@ 622
contributor 621
सिए@@ 620
а@@ 618
5,000 616
In@@ 616
le 615
ur@@ 615
45@@ 612
1943 608
1912 607
`@@ 607
format 607
ec@@ 605
हाला@@ 605
10,000 603
विक@@ 602
₹ 599
भीर 596
1922 595
1929 595
22@@ 592
OS 591
− 588
1933 587
1925 585
2.5 585
le@@ 585
ya 585
ॐ 582
1914 580
pur 579
ate 578
em@@ 575
1917 574
India 574
तिहासिक 574
1926 571
कारिक 570
hi@@ 569
о@@ 568
enti@@ 567
1.5 566
सचि@@ 564
CO@@ 562
ah@@ 562
et@@ 558
Q 556
ay@@ 552
j 552
which 549
ol@@ 547
An@@ 544
1927 539
झे 539
os@@ 532
ri@@ 529
टली 529
1908 528
1910 526
· 525
mer@@ 524
10.@@ 523
ic@@ 520
विजे@@ 520
1905 518
1923 518
comment 517
د@@ 517
× 516
1911 515
AT@@ 513
रिके@@ 513
и@@ 511
सील 511
Sh@@ 507
ed@@ 507
et 507
Di@@ 505
ai 504
Ro@@ 502
सानी 502
80@@ 501
his 501
la 501
AT 496
1916 494
ंतु 494
5000 493
z@@ 493
ana 492
ang@@ 492
ology 492
NE@@ 490
… 490
In 489
ऽ@@ 489
DVD 487
ی@@ 487
बादी 486
ओल@@ 485
50,000 484
IC@@ 482
Al@@ 478
35@@ 477
भग 477
ut@@ 476
au 475
IV 473
ح@@ 473
IN@@ 472
ad 471
di 471
12.@@ 470
ع@@ 470
WWE 469
Windows 468
J 467
DA 466
sh@@ 463
MS 462
ळ 462
1915 459
ism 458
विजन 458
si@@ 457
वाता@@ 456
11.@@ 454
1906 453
im@@ 453
oc@@ 453
1500 452
180 450
1901 450
il@@ 450
z 449
av@@ 448
US@@ 444
con@@ 443
iki 443
্ 443
CD@@ 441
160 440
0,@@ 439
е@@ 439
NS@@ 438
AR@@ 437
900 436
் 436
वज@@ 434
NBC 433
ers 433
og@@ 433
1904 432
AL@@ 431
SO@@ 431
ti@@ 431
FI@@ 430
ous 429
vi@@ 428
sp@@ 427
he 426
ov@@ 426
ity 425
1896 424
2,000 424
1909 423
CH@@ 422
1913 421
Ar@@ 420
ite 420
р@@ 420
Microsoft 419
350 418
od@@ 418
130 417
have 416
ER@@ 411
UK 411
Th@@ 409
घोष@@ 409
་ 409
AC 408
н@@ 408
1907 407
विधान@@ 407
110 405
align 405
ob@@ 405
thum@@ 403
2.0 402
PA 402
3.5 401
चान 401
HIV 400
har@@ 400
dian 399
RA@@ 398
not 398
has 397
د 397
up 396
1890 395
3000 395
140 392
60@@ 390
ile 390
Con@@ 387
100,000 385
108 385
अनुसं@@ 384
किलो@@ 383
TV 382
id@@ 382
с@@ 382
Sam@@ 381
St@@ 381
WW@@ 381
center 381
MA 380
यूजी@@ 380
AC@@ 379
Re@@ 379
13.@@ 377
34@@ 377
55@@ 377
also 377
Man@@ 376
text 376
1902 374
ma 374
ऊँ 373
हरिया@@ 373
ST@@ 370
AN@@ 369
name 369
co@@ 367
CD 366
ical 366
id 366
Indian 365
NA 365
q 365
70@@ 364
रामी@@ 363
14.@@ 362
ath@@ 362
ing@@ 362
ud@@ 362
1880 361
and@@ 361
end@@ 361
ML 360
125 359
AM@@ 359
um@@ 357
Par@@ 356
ऱ 356
its 355
3,000 354
AS 354
1800 349
1899 349
amp@@ 349
ations 349
ā@@ 349
usse@@ 348
ंख@@ 348
20,000 347
me 346
л@@ 345
HT@@ 344
ha 344
vision 344
समे 343
ep@@ 342
this 342
SC 341
codice 341
ة 341
Cl@@ 339
dis@@ 339
se 339
ت@@ 339
1895 338
SE@@ 338
ˈ@@ 338
α 338
1903 337
AP 337
age 337
ر 337
BS 335
man 334
1860 333
os 333
1898 332
CI@@ 332
Highway 332
per@@ 332
ated 331
1858 330
ht@@ 329
a.@@ 328
ae 328
1889 327
ch 327
ka 327
log@@ 327
1870 326
इनल 326
AD@@ 325
105 323
ach@@ 323
el 323
1885 322
36@@ 322
DC 322
101 321
1891 321
IP@@ 321
² 321
1887 320
eb@@ 320
LC 319
able 319
can 319
than 318
AN 317
ext 317
র@@ 317
BC 316
sub@@ 316
w 316
qu@@ 314
NT@@ 313
Ph@@ 313
AP@@ 312
SP@@ 312
right 312
360 311
AI@@ 311
LA 311
pl@@ 311
10,@@ 310
ی 310
104 309
1897 309
River 308
TS 307
ary 307
ant 306
system 306
हिए 306
1894 305
all 304
ance 304
ator 304
ons 304
hi 303
q@@ 302
1888 301
ig@@ 301
ore 300
ব@@ 300
47@@ 299
CA 299
ir@@ 299
ج@@ 299
230 298
Bar@@ 298
1882 297
DP 297
na 297
ـ@@ 297
15.@@ 296
man@@ 296
DNA 295
MP@@ 295
ent 295
38@@ 294
ata 292
ent@@ 292
1886 291
als 290
As 289
ISO 289
RE@@ 289
all@@ 289
к@@ 289
ho@@ 288
En@@ 287
bi@@ 287
ंदु 287
1892 286
aj@@ 286
Co@@ 285
UN@@ 285
\ 285
16.@@ 284
CP@@ 284
time 284
102 283
1893 283
4,000 283
ge@@ 283
ics 283
PC 282
ani 282
в@@ 282
ি@@ 281
100@@ 280
ial 280
ke 280
ter@@ 280
750 279
Mar@@ 279
their 279
U.S. 278
au@@ 278
ium 278
ο@@ 277
1.2 276
da 276
अनंत@@ 276
जोखि@@ 276
CE@@ 275
^ 275
ah 275
ric@@ 275
ci@@ 274
war 274
1884 273
der 273
two 273
1200 272
Am@@ 272
IC 272
Un@@ 272
se@@ 272
आयर@@ 272
tr@@ 271
ش@@ 271
90@@ 270
hy@@ 270
ian 270
α@@ 270
30,000 269
ari 269
ari@@ 269
ii 269
ॠ@@ 269
33@@ 268
no@@ 268
FA 267
18.@@ 266
27.@@ 266
450 266
ara 266
ai@@ 265
had 265
ne@@ 265
ou@@ 265
~ 265
37@@ 264
km 264
ry 264
up@@ 264
AA 263
Institute 263
т@@ 263
ऎ@@ 263
106 262
ex@@ 262
1850 261
1881 261
SM 261
ran@@ 261
agar 260
more 260
م 260
4000 259
Sc@@ 259
48@@ 258
IT 258
mo@@ 258
ol 258
ve 258
were 258
ه@@ 258
119@@ 257
1867 257
Sp@@ 257
car@@ 257
103 256
Per@@ 256
SA 256
re 256
120@@ 255
CS@@ 255
ma@@ 255
yl@@ 255
.-@@ 254
190@@ 254
TA 254
oo@@ 254
ς 254
് 254
IM@@ 253
aya 253
ter 253
1872 252
1876 252
ak 252
ati@@ 252
mon@@ 252
Su@@ 251
bu@@ 251
first 251
ip@@ 251
number 251
ting 251
war@@ 251
115 250
Car@@ 250
VI 250
but 250
lo@@ 250
mar@@ 250
1883 249
RO@@ 249
ates 249
ot 249
170 248
Bo@@ 248
IT@@ 247
Raj@@ 246
ating 246
les 246
th 246
CW 245
Google 245
MTV 245
→ 245
This 244
World 244
des 244
1700 243
1848 243
1878 243
other 243
109 242
Ex@@ 242
been 241
he@@ 241
met@@ 241
It 240
Pal@@ 240
SC@@ 240
ম@@ 240
ta 239
1871 238
ant@@ 238
ast@@ 238
ind@@ 238
ي 238
योगकर 238
32@@ 237
FC 237
GE 237
Pro@@ 237
gar@@ 237
pro@@ 237
ف@@ 237
1865 236
Mah@@ 236
Qu@@ 236
SE 236
ver@@ 236
aw@@ 235
az@@ 235
औ 235
21.@@ 234
IP 234
RS 234
ang 234
ans 234
€ 234
WH@@ 233
eg@@ 233
hap@@ 233
220 232
University 232
te 232
yn@@ 232
1868 231
22.@@ 231
6,000 231
Ad@@ 231
International 231
Kh@@ 231
XX@@ 231
ق@@ 231
1861 230
HD 230
107 229
17.@@ 229
1875 229
EM@@ 229
SP 229
1873 228
ative 228
1877 227
gh@@ 227
Ac@@ 226
్ 226
Bh@@ 225
AB@@ 224
PE@@ 224
law 224
atic 223
sc@@ 223
used 223
SI 222
gl@@ 222
her@@ 222
iv@@ 222
su@@ 222
ক@@ 222
BA 221
GB 221
1.6 220
126 220
1879 220
CC 220
CE 220
ه 219
್ 219
1856 218
320 218
NS 218
ST 218
poem 218
who 218
ল@@ 218
1600 217
1859 217
46@@ 217
CP 217
LS 217
ok@@ 217
tri@@ 217
ts 217
ub@@ 217
ρ@@ 217
1830 216
19.@@ 216
bar@@ 216
ru@@ 216
128 215
1840 215
4.5 215
De@@ 215
over 215
1.1 214
Kar@@ 214
MS@@ 214
49@@ 213
Ab@@ 213
EC 213
NO@@ 213
ala 213
ay 213
ence 213
ist 213
َ@@ 213
114 212
1866 212
Kal@@ 212
1,0@@ 211
Nag@@ 211
घु 211
1863 209
20.@@ 209
cor@@ 209
function 209
ina 209
ion 209
pol@@ 208
to@@ 208
é@@ 208
भुग@@ 208
AD 207
Cor@@ 207
SS 207
la@@ 207
use 207
west 207
া 207
112 206
My@@ 206
east 206
ino 206
GP@@ 205
ug@@ 204
हिंद@@ 204
ন 204
EC@@ 203
IS 203
inter@@ 203
no 203
pur@@ 203
ung@@ 203
116 202
122 202
138 202
1818 202
25.@@ 202
Pan@@ 202
ank@@ 202
ell@@ 202
ऱ@@ 202
॒ 202
12,@@ 201
1854 201
1874 201
Tri@@ 201
ash@@ 201
ih@@ 201
PS 200
elec@@ 200
que 200
11,@@ 199
190 199
att@@ 199
ies 199
ong 199
value 199
111 198
BE 198
be@@ 198
type 198
39@@ 197
BBC 197
CO2 197
ri 197
ym@@ 197
μ@@ 197
परी@@ 197
1869 196
Ne@@ 196
SI@@ 196
il 196
ki 196
lu@@ 196
po@@ 196
124 195
@ 195
iz@@ 195
such 195
uk@@ 195
ا 195
240 194
Cal@@ 194
New 194
ath 194
parallel 194
ə@@ 194
घरेल@@ 194
जूद 194
1815 193
23.@@ 193
AF@@ 193
ish@@ 193
oph@@ 193
Fe@@ 192
SW@@ 192
177@@ 191
bit 191
ea 191
glas 191
om 191
they 191
ton 191
भाषित 191
ু@@ 191
SD@@ 190
ale 190
ell 190
hal@@ 190
ng 190
S.@@ 189
Sar@@ 189
র 189
1864 188
hai 188
ow@@ 188
BM@@ 187
English 187
energy 187
1820 186
He 186
SD 186
line 186
æ@@ 186
AO@@ 185
Bi@@ 185
Com@@ 185
ada 185
der@@ 185
into 185
li 185
β 185
ॄ@@ 185
117 184
14,@@ 184
650 184
CC@@ 184
bl@@ 184
com@@ 184
han@@ 184
ili@@ 184
point 184
а 184
ل 184
1855 183
Bal@@ 183
Hz 183
Ram@@ 183
gen@@ 183
121 182
Te@@ 182
between 182
ge 182
ora 182
­ 182
خ@@ 182
ک@@ 182
118 181
123 181
Le@@ 181
tra@@ 181
124@@ 180
1803 180
Har@@ 180
du@@ 180
ie 180
set 180
113 179
Inter@@ 179
ation@@ 179
ment 179
theory 179
210 178
26.@@ 178
550 178
Me@@ 178
ill@@ 178
only 178
Be@@ 177
land 177
д@@ 177
ber@@ 176
ne 176
1400 175
fl@@ 175
language 175
15,@@ 174
Ge@@ 174
IR@@ 174
alism 174
ational 174
out 174
ric 174
wa 174
ز@@ 174
16,@@ 173
1851 173
CR@@ 173
Mal@@ 173
Po@@ 173
amb@@ 173
oh@@ 173
ological 173
ι@@ 173
ে@@ 173
Pr@@ 172
most 172
uc@@ 172
where 172
ː@@ 172
13,@@ 171
1845 171
DR 171
John 171
Si@@ 171
aceae 171
ali 171
dia 171
do 171
left 171
ɪ@@ 171
175 170
1835 170
1853 170
H.@@ 170
Ma@@ 170
Pl@@ 170
ann@@ 170
form 170
ly 170
power 170
ue 170
τ@@ 170
लखन@@ 170
Ap@@ 169
COVID 169
DS 169
Mo@@ 169
UR@@ 169
af@@ 169
languages 169
NT 168
` 168
equ@@ 168
ty 168
CB@@ 167
DE@@ 167
ei@@ 167
ene 167
so 167
हैद@@ 167
Na@@ 166
OR@@ 166
RNA 166
ins 166
nam@@ 166
लिमि@@ 166
24.@@ 165
CT 165
Mad@@ 165
ula 165
vol@@ 165
will 165
1819 164
CM@@ 164
Or@@ 164
RI@@ 164
WA 164
end 164
fi@@ 164
if 164
у@@ 164
স@@ 164
1817 163
DI@@ 163
SV 163
ors 163
Dis@@ 162
MC 162
Se@@ 162
bo@@ 162
comp@@ 162
cy@@ 162
ك@@ 162
BMW 161
SS@@ 161
Tra@@ 161
United 161
colspan 161
mat@@ 161
state 161
ura 161
ौद 161
॑ 161
দ@@ 161
1843 160
A.@@ 160
Open 160
Sal@@ 160
ane 160
app@@ 160
est 160
her 160
ings 160
tive 160
280 159
CL@@ 159
cl@@ 159
gra@@ 159
ish 159
tu@@ 159
131 158
On 158
gr@@ 158
tic 158
tor 158
und@@ 158
ו@@ 158
CO 157
GA 157
RA 157
ca 157
dic@@ 157
esh@@ 157
ities 157
oid 157
λ@@ 157
body 156
cr@@ 156
current 156
fer@@ 156
imp@@ 156
pr@@ 156
tro@@ 156
water 156
π 156
ி@@ 156
Mon@@ 155
ek@@ 155
mart@@ 155
may 155
ner 155
per 155
ram 155
́ 155
1847 154
IF@@ 154
Kan@@ 154
TC 154
127 153
USA 153
ab 153
adi@@ 153
if@@ 153
itis 153
when 153
ா@@ 153
1862 152
IO@@ 152
ji 152
ly@@ 152
sion 152
some 152
ular 152
ন@@ 152
PO@@ 151
TE@@ 151
Ter@@ 151
ms 151
pp@@ 151
series 151
world 151
ऽ 151
1844 150
29.@@ 150
ac 150
ard 150
ce 150
á@@ 150
1839 149
Gu@@ 149
ME@@ 149
ality 149
ding 149
pe@@ 149
st 149
ν@@ 149
м@@ 149
י@@ 149
CEO 148
VO@@ 148
any 148
ε@@ 148
ص@@ 148
17,@@ 147
him 147
kh@@ 147
light 147
शारी@@ 147
El@@ 146
ain@@ 146
br@@ 146
ens 146
for@@ 146
force 146
hat@@ 146
mi 146
od 146
pal@@ 146
ram@@ 146
style 146
ted 146
ت 146
इतिहा@@ 146
় 146
】 146
115@@ 145
1849 145
Cs 145
DI 145
Hindi 145
Hu@@ 145
PC@@ 145
eh@@ 145
أ@@ 145
Al 144
Rh@@ 144
abad 144
ir 144
ist@@ 144
ster 144
【 144
1789 143
1838 143
AI 143
CN@@ 143
M.@@ 143
South 143
after 143
ck@@ 143
mm 143
son 143
we 143
б@@ 143
ত@@ 143
க@@ 143
AV@@ 142
NY@@ 142
Res@@ 142
Research 142
Sa@@ 142
ati 142
int@@ 142
ise 142
res@@ 142
sk@@ 142
well 142
é 142
1837 141
American 141
IA 141
System 141
ain 141
data 141
field 141
many 141
ong@@ 141
दाय 141
ऩ@@ 141
1832 140
1842 140
LE@@ 140
ali@@ 140
ica 140
ley 140
lin@@ 140
ome 140
pre@@ 140
sol@@ 140
σ@@ 140
ా@@ 140
118@@ 139
1300 139
199@@ 139
FS 139
Vis@@ 139
adi 139
ction 139
ess 139
ev@@ 139
racle 139
tion 139
116@@ 138
Az@@ 138
Gar@@ 138
UEFA 138
ass@@ 138
em 138
over@@ 138
sur@@ 138
yp@@ 138
1770 137
1801 137
1805 137
AG 137
ck 137
kar@@ 137
same 137
va 137
´ 137
κ@@ 137
260 136
AF 136
B.@@ 136
For 136
Mac@@ 136
anti@@ 136
ī@@ 136
AB 135
DR@@ 135
Em@@ 135
YouTube 135
gu@@ 135
lat@@ 135
mod@@ 135
non 135
our@@ 135
ox@@ 135
psychology 135
title 135
इंजी@@ 135
यादा@@ 135
ர@@ 135
Act 134
First 134
Gra@@ 134
MP 134
ax 134
ents 134
mass 134
1824 133
3D 133
Col@@ 133
MI@@ 133
about 133
ash 133
ler 133
te@@ 133
য 133
1846 132
ABC 132
GP 132
P.@@ 132
ase 132
gi@@ 132
ose 132
osis 132
rot@@ 132
ো@@ 132
28.@@ 131
Ak@@ 131
For@@ 131
He@@ 131
Im@@ 131
SL@@ 131
ability 131
angle 131
ax@@ 131
ization 131
our 131
ual 131
wal@@ 131
नुक@@ 131
॓ 131
18,@@ 130
Group 130
IBM 130
me@@ 130
min@@ 130
radi@@ 130
rec@@ 130
й 130
1799 129
1833 129
1841 129
IB@@ 129
IX 129
PL@@ 129
PN@@ 129
Sch@@ 129
ail 129
aur@@ 129
era 129
ography 129
rit@@ 129
zo@@ 129
AL 128
La 128
Lee 128
air 128
color 128
duc@@ 128
gan@@ 128
idae 128
iti@@ 128
people 128
sa 128
trans@@ 128
1826 127
EE@@ 127
UP@@ 127
Ver@@ 127
based 127
ds 127
du 127
edi@@ 127
esia 127
ide 127
inc@@ 127
through 127
Elec@@ 126
RT@@ 126
TE 126
electric 126
eng@@ 126
ere 126
ipe@@ 126
och@@ 126
ps 126
ro 126
un 126
नशिप 126
1775 125
1806 125
1814 125
DM@@ 125
HS 125
Mas@@ 125
Mi@@ 125
To@@ 125
VII 125
called 125
ear@@ 125
three 125
30.@@ 124
Sur@@ 124
Technology 124
etic 124
ff@@ 124
ists 124
itive 124
known 124
и 124
वजन@@ 124
AR 123
MR@@ 123
Sah@@ 123
ally 123
ling 123
process 123
second 123
ste@@ 123
way 123
º 123
و 123
CS 122
Hy@@ 122
asi@@ 122
ble 122
bri@@ 122
ion@@ 122
micro@@ 122
sis 122
ther@@ 122
there 122
ure 122
would 122
1750 121
1852 121
Ser@@ 121
back 121
den@@ 121
ena 121
ory 121
1825 120
das 120
each 120
eth@@ 120
im 120
tic@@ 120
Bu@@ 119
NA@@ 119
Pakistan 119
SR@@ 119
Singh 119
Tar@@ 119
amm@@ 119
col@@ 119
electro@@ 119
ens@@ 119
ging 119
net 119
′ 119
1793 118
Mor@@ 118
TV@@ 118
ets 118
film 118
int 118
pra@@ 118
sin@@ 118
sm@@ 118
tor@@ 118
½ 118
1834 117
La@@ 117
Pre@@ 117
San 117
width 117
ب 117
த@@ 117
1836 116
An 116
App@@ 116
Chi@@ 116
Corporation 116
Dev@@ 116
MO@@ 116
Nar@@ 116
art@@ 116
cre@@ 116
del 116
ker 116
mal@@ 116
ode 116
ron 116
tel@@ 116
ర@@ 116
Cy@@ 115
itt@@ 115
ov 115
vo@@ 115
် 115
1776 114
20,@@ 114
RC 114
ber 114
da@@ 114
ks@@ 114
like 114
ola 114
ulation 114
г@@ 114
আ@@ 114
1783 113
1821 113
1831 113
Can@@ 113
Char@@ 113
Comp@@ 113
ID 113
Is@@ 113
Mc@@ 113
Mer@@ 113
Ra@@ 113
SM@@ 113
both 113
com 113
distance 113
during 113
form@@ 113
ier 113
mp@@ 113
new 113
প@@ 113
1792 112
1829 112
MHz 112
Met@@ 112
State 112
common 112
ey 112
ja 112
super@@ 112
ung 112
DE 111
II@@ 111
Inc. 111
LO@@ 111
els 111
hr@@ 111
king 111
ozo@@ 111
ser@@ 111
these 111
tions 111
114@@ 110
19,@@ 110
DV@@ 110
No@@ 110
Shi@@ 110
VI@@ 110
Val@@ 110
day 110
do@@ 110
ever 110
sung 110
then 110
پ@@ 110
1772 109
CBS 109
Her@@ 109
Last 109
M. 109
Pat@@ 109
Ur@@ 109
XI 109
ental 109
inf@@ 109
lic@@ 109
ori@@ 109
ר@@ 109
● 109
1804 108
1827 108
1828 108
Apple 108
As@@ 108
Av@@ 108
Cap@@ 108
Li@@ 108
Long@@ 108
PT@@ 108
Patt@@ 108
Sub@@ 108
bin@@ 108
complex 108
den 108
io 108
method 108
news 108
order 108
ts@@ 108
under 108
wor@@ 108
í@@ 108
मोबा@@ 108
1812 107
BR@@ 107
Ban@@ 107
ages 107
include 107
let 107
rac@@ 107
rop@@ 107
year 107
π@@ 107
σ 107
1816 106
1823 106
AIDS 106
BO@@ 106
Fl@@ 106
PR 106
PR@@ 106
Temple 106
code 106
dr@@ 106
indi@@ 106
magnetic 106
oo 106
ys 106
± 106
ு@@ 106
1788 105
Ag@@ 105
DM 105
GM 105
Pe@@ 105
Sony 105
States 105
ama 105
aur 105
circuit 105
ee 105
inn@@ 105
so@@ 105
জ@@ 105
1780 104
1790 104
1798 104
At@@ 104
College 104
EG 104
FO@@ 104
Khan 104
One 104
Prot@@ 104
San@@ 104
alp@@ 104
ants 104
constant 104
less 104
ole 104
ope 104
out@@ 104
ہ 104
হ@@ 104
ಾ@@ 104
1774 103
AX 103
Category 103
Gi@@ 103
Mag@@ 103
ales 103
atory 103
dec@@ 103
ential 103
fin@@ 103
my@@ 103
phot@@ 103
prot@@ 103
using 103
wave 103
we@@ 103
work 103
years 103
� 103
E. 102
Ig@@ 102
LP 102
North 102
Pra@@ 102
U.@@ 102
ita 102
lan@@ 102
period 102
por@@ 102
public@@ 102
rate 102
red 102
south 102
sw@@ 102
ye 102
ਾ@@ 102
1784 101
180@@ 101
Des@@ 101
Er@@ 101
SB 101
area 101
cer@@ 101
fac@@ 101
ga@@ 101
high 101
north 101
numbers 101
ط@@ 101
￼ 101
Association 100
Da@@ 100
J. 100
cul@@ 100
hin@@ 100
oy@@ 100
ν 100
ാ@@ 100
1795 99
By 99
CI 99
Central 99
SN@@ 99
Tr@@ 99
Web 99
off 99
ogen@@ 99
ten@@ 99
ush@@ 99
ό@@ 99
о 99
All 98
CF@@ 98
Ke@@ 98
ML@@ 98
NG@@ 98
Ni@@ 98
PG 98
assi@@ 98
ga 98
ner@@ 98
117@@ 97
192@@ 97
22,@@ 97
HC 97
Ho@@ 97
I.@@ 97
Society 97
ba 97
change 97
dae 97
ella 97
ft 97
han 97
low 97
ni 97
unit 97
ί@@ 97
θ 97
1802 96
193@@ 96
Co 96
EP 96
IG@@ 96
NR@@ 96
asa 96
list 96
oda 96
pat@@ 96
rh@@ 96
side 96
ster@@ 96
them 96
1760 95
HP 95
Hol@@ 95
Rec@@ 95
Sol@@ 95
Ti@@ 95
aka 95
asp@@ 95
ature 95
co 95
heat 95
ib@@ 95
minor 95
my 95
ves 95
ó@@ 95
ம@@ 95
1822 94
195@@ 94
Ds 94
Red@@ 94
School 94
Siemens 94
T. 94
ace 94
aria 94
det@@ 94
equation 94
ini 94
ites 94
ness 94
neur@@ 94
pressure 94
resi@@ 94
si 94
ti 94
ut 94
è@@ 94
گ@@ 94
ہ@@ 94
ల@@ 94
ರ@@ 94
25,@@ 93
AG@@ 93
DO@@ 93
Ha@@ 93
MT@@ 93
Tel@@ 93
Vi@@ 93
cat@@ 93
cell 93
dh@@ 93
gle@@ 93
ission 93
ko 93
made 93
ond@@ 93
str@@ 93
sy@@ 93
systems 93
tur@@ 93
une 93
γ 93
हमे@@ 93
1787 92
Council 92
Development 92
Great 92
Pur@@ 92
R. 92
Social 92
cap@@ 92
char@@ 92
dar 92
itude 92
ix 92
peri@@ 92
tel 92
top 92
« 92
н 92
EU 91
GE@@ 91
S. 91
Tit@@ 91
William 91
act@@ 91
air@@ 91
arch@@ 91
book 91
cos@@ 91
district 91
hor@@ 91
ice 91
key 91
osa 91
poly@@ 91
β@@ 91
Bl@@ 90
CT@@ 90
Company 90
FIFA 90
MB 90
ME 90
R.@@ 90
SL 90
SR 90
So@@ 90
Tal@@ 90
acid 90
ap 90
atom@@ 90
iss@@ 90
oma 90
pi@@ 90
tron 90
ऋ 90
1813 89
AE 89
Go@@ 89
Vol@@ 89
being 89
ces 89
ess@@ 89
kar 89
lab@@ 89
led 89
lic 89
place 89
tw@@ 89
ua 89
umb@@ 89
vel@@ 89
п@@ 89
ి@@ 89
Aj@@ 88
B. 88
Ber@@ 88
Cat@@ 88
Gal@@ 88
Gen@@ 88
General 88
Ma 88
Min@@ 88
Ta@@ 88
esh 88
esis 88
given 88
hu@@ 88
ition 88
life 88
men 88
ota 88
part 88
romos@@ 88
space 88
א@@ 88
ச@@ 88
ക@@ 88
0s 87
1763 87
1785 87
AE@@ 87
C. 87
ET@@ 87
K. 87
Sanc@@ 87
Science 87
VC 87
West 87
Wor@@ 87
ade 87
ake 87
ao 87
development 87
group 87
gs@@ 87
hab@@ 87
ius 87
km2 87
ometer 87
product 87
rat@@ 87
self 87
stra@@ 87
tuary 87
ven@@ 87
ys@@ 87
ী 87
ப@@ 87
1807 86
1809 86
196@@ 86
Ga@@ 86
London 86
Shar@@ 86
ail@@ 86
atti 86
bul@@ 86
company 86
des@@ 86
example 86
following 86
ks 86
oun@@ 86
ren@@ 86
tal@@ 86
ō@@ 86
я 86
ऴ 86
ॊ 86
ા@@ 86
ར@@ 86
1810 85
BE@@ 85
Ca@@ 85
Chinese 85
E.@@ 85
Far@@ 85
Is 85
RT 85
Server 85
VIII 85
acy 85
ae@@ 85
ag 85
ato 85
city 85
class 85
comm@@ 85
cur@@ 85
ery 85
fe@@ 85
fo@@ 85
ista 85
kal@@ 85
loc@@ 85
long@@ 85
ocene 85
yst@@ 85
ِ@@ 85
ਸ@@ 85
1782 84
2nd 84
A. 84
Bur@@ 84
Do@@ 84
History 84
Linux 84
Mand@@ 84
Mos@@ 84
SF 84
UC@@ 84
War@@ 84
Year 84
anda 84
effect 84
exp@@ 84
gas 84
human 84
ich@@ 84
opter@@ 84
pm 84
ron@@ 84
syn@@ 84
ul 84
uri 84
É@@ 84
Cr@@ 83
EP@@ 83
NBA 83
Op@@ 83
Union 83
bre@@ 83
cal 83
cal@@ 83
cent@@ 83
dy@@ 83
ger 83
ized 83
mer 83
not@@ 83
onic 83
oth@@ 83
ref@@ 83
section 83
shi@@ 83
spec@@ 83
tha 83
tran@@ 83
you 83
ы@@ 83
यावसा@@ 83
■ 83
194@@ 82
Bas@@ 82
Dynasty 82
East 82
Gan@@ 82
Life 82
Mot@@ 82
Mur@@ 82
P. 82
Psych@@ 82
UTC 82
anti 82
free 82
ger@@ 82
har 82
ines 82
kg 82
later 82
ona 82
ophy@@ 82
phase 82
real 82
sal@@ 82
small 82
son@@ 82
tag@@ 82
therapy 82
und 82
vi 82
while 82
à@@ 82
γ@@ 82
শ@@ 82
1791 81
1794 81
Book 81
Br@@ 81
China 81
Dec@@ 81
Det@@ 81
HA 81
Kam@@ 81
ats 81
cells 81
ded 81
ke@@ 81
kn@@ 81
near 81
sam@@ 81
surface 81
ɛ@@ 81
δ@@ 81
দ 81
৷ 81
Air 80
C.@@ 80
Cer@@ 80
Day 80
FM 80
Health 80
High 80
Law 80
We@@ 80
Yam@@ 80
acc@@ 80
ach 80
base 80
ek 80
inal 80
itation 80
lia 80
pan@@ 80
public 80
ā 80
ਰ@@ 80
வ@@ 80
Cha@@ 79
James 79
King 79
Nu@@ 79
Tor@@ 79
You 79
cu@@ 79
gener@@ 79
go@@ 79
here 79
long 79
mi@@ 79
nucle@@ 79
table 79
tre@@ 79
ture 79
ump 79
val@@ 79
ç@@ 79
গ@@ 79
ര@@ 79
198@@ 78
Bhar@@ 78
Black 78
CR 78
DF 78
Mes@@ 78
Music 78
Net@@ 78
Peri@@ 78
Pu@@ 78
Real@@ 78
Reg@@ 78
Santa 78
bs 78
century 78
control 78
dig@@ 78
functions 78
go 78
hol@@ 78
illa 78
iv 78
onom@@ 78
ote 78
pet@@ 78
science 78
source 78
stan@@ 78
ute 78
ਿ@@ 78
ി@@ 78
1st 77
Bah@@ 77
Bel@@ 77
Bra@@ 77
Dh@@ 77
ED@@ 77
Han@@ 77
Island 77
Kingdom 77
MT 77
Pol@@ 77
Sw@@ 77
case 77
different 77
dit 77
esc@@ 77
flu@@ 77
onal 77
res 77
sin 77
tes 77
tical 77
â@@ 77
ে 77
Ben@@ 76
Cent@@ 76
Cu@@ 76
Equ@@ 76
H. 76
IN 76
KO 76
Lin@@ 76
Mel@@ 76
Ros@@ 76
SH 76
analysis 76
def@@ 76
ero@@ 76
ese 76
found 76
je@@ 76
mac@@ 76
now 76
ott@@ 76
page 76
position 76
rom@@ 76
sing@@ 76
sources 76
tage 76
temperature 76
ule 76
آ@@ 76
ى 76
চ@@ 76
Ash@@ 75
GT 75
Lo@@ 75
Mak@@ 75
Mu@@ 75
Ob@@ 75
Ul@@ 75
atus 75
bar 75
dar@@ 75
down 75
head 75
istic 75
last 75
ll 75
mel@@ 75
reg@@ 75
run 75
tom@@ 75
tors 75
» 75
ō 75
ū@@ 75
מ@@ 75
ང 75
1778 74
At 74
Ba@@ 74
Bag@@ 74
Pap@@ 74
SH@@ 74
Trans@@ 74
Wi@@ 74
anc@@ 74
ard@@ 74
bur@@ 74
cycle 74
duction 74
ework 74
mot@@ 74
oli@@ 74
pri@@ 74
quant@@ 74
row 74
sa@@ 74
social 74
thro@@ 74
tra 74
ules 74
ə 74
ά@@ 74
С@@ 74
в 74
е 74
ऍ 74
ன 74
ు@@ 74
ོ@@ 74
1786 73
1797 73
1808 73
Bab@@ 73
DB 73
Foundation 73
George 73
Hel@@ 73
Krish@@ 73
NC 73
Nap@@ 73
Power 73
Pres@@ 73
Ret@@ 73
Sat@@ 73
TH@@ 73
To 73
Wal@@ 73
action 73
aus@@ 73
ely 73
ement 73
eral 73
family 73
hum@@ 73
ine@@ 73
ins@@ 73
integ@@ 73
m2 73
ments 73
old 73
ost@@ 73
ow 73
points 73
return 73
standard 73
tion@@ 73
very 73
wh@@ 73
word 73
ّ@@ 73
ী@@ 73
191@@ 72
BI 72
Dar@@ 72
Fi@@ 72
Fre@@ 72
Medical 72
Sir 72
Techn@@ 72
act 72
are@@ 72
background 72
bs@@ 72
chi 72
coun@@ 72
enn@@ 72
ey@@ 72
idea 72
information 72
isp@@ 72
lar@@ 72
na@@ 72
omet@@ 72
region 72
stic 72
wara 72
ying 72
ñ@@ 72
रासाय@@ 72
ি 72
ಿ@@ 72
Bor@@ 71
Bre@@ 71
Chand@@ 71
D. 71
David 71
Ed@@ 71
Gang@@ 71
Je@@ 71
Sanskrit 71
Sk@@ 71
Space 71
Tur@@ 71
UV 71
ean 71
ef@@ 71
ete 71
ka@@ 71
lex@@ 71
lie 71
mm@@ 71
pus 71
thesis 71
uch@@ 71
vis@@ 71
ئ@@ 71
ত 71
3rd 70
Arch@@ 70
Centre 70
ER 70
Fer@@ 70
GO@@ 70
Kat@@ 70
MIT 70
Mat@@ 70
Pa@@ 70
Pri@@ 70
Robert 70
Shah@@ 70
Syn@@ 70
aph@@ 70
bra@@ 70
can@@ 70
ensis 70
hel@@ 70
identity 70
ids 70
ive 70
lig@@ 70
ni@@ 70
ock 70
of@@ 70
range 70
ratio 70
river 70
single 70
sive 70
those 70
ume 70
unn@@ 70
version 70
Au@@ 69
District 69
Earth 69
Fe 69
Gh@@ 69
Gr@@ 69
House 69
However 69
Information 69
Man 69
N. 69
PP@@ 69
Pradesh 69
Sil@@ 69
Var@@ 69
art 69
bon@@ 69
cli@@ 69
diff@@ 69
dy 69
hat 69
him@@ 69
ick@@ 69
level 69
motion 69
mu@@ 69
pa 69
ral 69
reaction 69
rem@@ 69
star 69
х@@ 69
ה@@ 69
खाबाद 69
‚ 69
BL 68
CIA 68
Cav@@ 68
EL@@ 68
ES 68
Ko@@ 68
List 68
No 68
Open@@ 68
PD 68
Por@@ 68
See 68
Wildlife 68
ask@@ 68
ators 68
diag@@ 68
emp@@ 68
ency 68
fra@@ 68
ham 68
ocy@@ 68
ori 68
rep@@ 68
rule 68
uk 68
uses 68
utt@@ 68
য@@ 68
BO 67
City 67
Delhi 67
Dr. 67
GT@@ 67
HF 67
Hydro@@ 67
IL 67
Indi@@ 67
Ki@@ 67
Micro@@ 67
Office 67
Park 67
Some 67
TR@@ 67
The@@ 67
UFC 67
ables 67
ast 67
before 67
che 67
ders 67
due 67
frequency 67
igh@@ 67
kl@@ 67
ls 67
much 67
properties 67
ters 67
tional 67
top@@ 67
uli@@ 67
una 67
verse 67
wan 67
सनिक 67
మ@@ 67
မ@@ 67
.S. 66
A1 66
Aut@@ 66
Basi@@ 66
Charles 66
Cop@@ 66
England 66
Le 66
On@@ 66
Out@@ 66
Ri@@ 66
anth@@ 66
device 66
e.g. 66
edral 66
history 66
ie@@ 66
ire 66
net@@ 66
oil 66
own 66
ration 66
root 66
scope 66
under@@ 66
ust 66
ē@@ 66
ч 66
س 66
.C. 65
1781 65
Live 65
Ltd 65
Moh@@ 65
Pro 65
Service 65
She@@ 65
Sim@@ 65
Sy@@ 65
aj 65
alis 65
calcul@@ 65
ema 65
how 65
ination 65
ions 65
ior 65
nu 65
ok 65
pen@@ 65
phy@@ 65
pt 65
ray 65
scale 65
she 65
van@@ 65
า@@ 65
1779 64
1811 64
Army 64
French 64
Human 64
Proc@@ 64
Sav@@ 64
She 64
These 64
aff@@ 64
ami 64
chemical 64
dist@@ 64
emb@@ 64
fil@@ 64
hom@@ 64
house 64
i.@@ 64
ida 64
ika 64
kan@@ 64
lis 64
log 64
mal 64
non@@ 64
odi@@ 64
oli 64
political 64
the@@ 64
tronics 64
true 64
umin@@ 64
М@@ 64
ھ@@ 64
ऑ 64
ऩ 64
ৰ@@ 64
ಕ@@ 64
‏ 64
Code 63
EM 63
Global 63
Joseph 63
Lad@@ 63
Lu@@ 63
Name 63
Network 63
Plus 63
Republic 63
Sea 63
Ten@@ 63
Xbox 63
above 63
ano 63
book@@ 63
charge 63
cogn@@ 63
conver@@ 63
could 63
ein 63
factor 63
ham@@ 63
hyper@@ 63
las@@ 63
major 63
mes@@ 63
music 63
negative 63
ord@@ 63
quad@@ 63
quar@@ 63
sson 63
what 63
ב@@ 63
ל@@ 63
वसीय 63
ল 63
ు 63
Cam@@ 62
Cast@@ 62
Center 62
Conc@@ 62
D.@@ 62
His 62
Language 62
Poly@@ 62
Road 62
Systems 62
Time 62
VE@@ 62
Wh@@ 62
active 62
alg@@ 62
ass 62
bi 62
dra@@ 62
four 62
hypo@@ 62
ik 62
isher@@ 62
ital 62
large 62
nav@@ 62
often 62
oul@@ 62
particles 62
result 62
see 62
sem@@ 62
ship 62
structure 62
ten 62
test 62
vari@@ 62
yl 62
і@@ 62
غ@@ 62
ُ@@ 62
वियत 62
ു@@ 62
Ass@@ 61
Cre@@ 61
FF 61
FF@@ 61
IUCN 61
Jag@@ 61
Mil@@ 61
New@@ 61
Ori@@ 61
Publ@@ 61
Ran@@ 61
Red 61
SF@@ 61
SV@@ 61
Theory 61
There 61
Vir@@ 61
ais@@ 61
another 61
ave 61
axis 61
bal@@ 61
books 61
bus 61
come 61
cont@@ 61
cs 61
dead 61
dem@@ 61
dium 61
ex 61
gam@@ 61
geomet@@ 61
get 61
great 61
hand 61
ki@@ 61
kr@@ 61
lec@@ 61
let@@ 61
main 61
mann 61
mic 61
mo 61
mus@@ 61
nam 61
otic 61
positive 61
prec@@ 61
several 61
since 61
tex 61
than@@ 61
village 61
ville 61
za 61
zy@@ 61
ī 61
ɑ@@ 61
η@@ 61
υ@@ 61
إ@@ 61
ి 61
― 61
Dan@@ 60
De 60
Del@@ 60
Direc@@ 60
European 60
Gor@@ 60
Government 60
Hal@@ 60
Hor@@ 60
Kumar 60
Kur@@ 60
Limited 60
Ly@@ 60
Me 60
Mus@@ 60
SB@@ 60
Soci@@ 60
Sum@@ 60
USD 60
War 60
Web@@ 60
acceler@@ 60
bon 60
bro@@ 60
del@@ 60
ear 60
government 60
home 60
indic@@ 60
international 60
linear 60
media 60
mil@@ 60
ont@@ 60
thi 60
thus 60
total 60
tube 60
var@@ 60
yan 60
zz@@ 60
К@@ 60
، 60
ض@@ 60
ऒ@@ 60
ੰ@@ 60
ం@@ 60
త@@ 60
7th 59
All@@ 59
Bir@@ 59
Commission 59
Energy 59
Engineering 59
Ford 59
From 59
G. 59
Gam@@ 59
March 59
Pi@@ 59
Rel@@ 59
Sha@@ 59
T.@@ 59
Thir@@ 59
White 59
ania 59
around 59
avi@@ 59
because 59
country 59
early 59
ello 59
final 59
frame 59
general 59
gro@@ 59
hem@@ 59
inary 59
lam@@ 59
material 59
oning 59
orph@@ 59
oy 59
plane 59
pos@@ 59
ring 59
sch@@ 59
sec@@ 59
sel@@ 59
spir@@ 59
sts 59
tit@@ 59
ver 59
wi@@ 59
zi@@ 59
ْ@@ 59
1796 58
188@@ 58
4th 58
AK@@ 58
Aer@@ 58
Archiv@@ 58
BB@@ 58
BCE 58
Bet@@ 58
British 58
Cur@@ 58
Du@@ 58
Hem@@ 58
IL@@ 58
Internet@@ 58
Ru@@ 58
Sab@@ 58
Scre@@ 58
TO@@ 58
Thomas 58
Tu@@ 58
Utt@@ 58
bor@@ 58
emia 58
etes 58
gal@@ 58
gen 58
hand@@ 58
hur@@ 58
including 58
ision 58
lob@@ 58
open 58
oth 58
proc@@ 58
psych@@ 58
py@@ 58
software 58
states 58
tar@@ 58
ton@@ 58
ulus 58
vin 58
yth@@ 58
മ@@ 58
★ 58
6th 57
9th 57
America 57
Bad@@ 57
Education 57
GC 57
June 57
K.@@ 57
Kn@@ 57
Media 57
Nav@@ 57
Nor@@ 57
Paul 57
SO 57
Tir@@ 57
W. 57
ban@@ 57
ila 57
iy@@ 57
jun@@ 57
med@@ 57
must 57
natural 57
nuclear 57
object 57
ort 57
ots 57
physical 57
research 57
ret@@ 57
ry@@ 57
sen 57
should 57
sum 57
wal 57
won 57
works 57
yu 57
ਨ@@ 57
ட@@ 57
ల 57
Airport 56
Arm@@ 56
Bil@@ 56
Force 56
Games 56
Gy@@ 56
Public 56
Sem@@ 56
Sm@@ 56
Sud@@ 56
VA 56
against 56
aries 56
asi 56
black 56
chem@@ 56
cross 56
ett@@ 56
forces 56
hra 56
industry 56
itor 56
ker@@ 56
mag@@ 56
mit@@ 56
modern 56
ocar@@ 56
onlyinclude 56
post@@ 56
production 56
search 56
sl@@ 56
sul@@ 56
ust@@ 56
variable 56
vers@@ 56
without 56
ʲ@@ 56
А@@ 56
з@@ 56
रारं@@ 56
ਹ@@ 56
క@@ 56
ಮ@@ 56
Bang@@ 55
Business 55
Facebook 55
Green 55
Jo@@ 55
Kor@@ 55
L. 55
Mac 55
Maj@@ 55
Management 55
My 55
NAS@@ 55
Series 55
Son@@ 55
ars 55
course 55
did 55
direct 55
disease 55
eda 55
education 55
eng 55
even 55
gy@@ 55
ides 55
iri 55
land@@ 55
leg@@ 55
mean 55
ou 55
physics 55
potential 55
published 55
rical 55
sil@@ 55
term 55
uti@@ 55
vector 55
vent@@ 55
θ@@ 55
چ@@ 55
୍ 55
న@@ 55
བ@@ 55
August 54
Bay 54
F. 54
GS 54
If 54
Kon@@ 54
Long 54
NASA 54
Oc@@ 54
Pul@@ 54
Raw@@ 54
Royal 54
Spec@@ 54
Super@@ 54
Tam@@ 54
Vo@@ 54
Western 54
ams 54
ases 54
bank 54
cm 54
enz@@ 54
ep 54
exc@@ 54
ill 54
nature 54
onia 54
ool 54
partic@@ 54
rach@@ 54
rest@@ 54
sid@@ 54
sus 54
ud 54
wan@@ 54
à 54
án 54
ε 54
В@@ 54
ক 54
ம 54
ல@@ 54
ས@@ 54
ṭ@@ 54
中@@ 54
8th 53
AU 53
April 53
Ari@@ 53
BR 53
Brah@@ 53
I. 53
Inf@@ 53
Jean 53
Kol@@ 53
Ku@@ 53
MG 53
MW 53
Mathemati@@ 53
Middle 53
Mul@@ 53
Project 53
Records 53
Region 53
Ther@@ 53
ful 53
hydro@@ 53
inv@@ 53
nor@@ 53
ogn@@ 53
oms 53
property 53
species 53
stage 53
stance 53
stone 53
tab@@ 53
team 53
terms 53
thal@@ 53
ths 53
trig@@ 53
ush 53
women 53
ynam@@ 53
ze 53
æ 53
ð 53
р 53
ָ@@ 53
ذ@@ 53
મ@@ 53
ய@@ 53
గ@@ 53
ನ@@ 53
1777 52
197@@ 52
Academy 52
Amb@@ 52
Baz@@ 52
Court 52
Edward 52
Ep@@ 52
France 52
Hi@@ 52
Jam@@ 52
Lake 52
Other 52
Scri@@ 52
Standard 52
Um@@ 52
Wy@@ 52
ade@@ 52
among 52
ater 52
atur@@ 52
berg 52
ching 52
coordin@@ 52
ense 52
ically 52
ig 52
index 52
ised 52
lines 52
nic@@ 52
ning 52
ologies 52
ones 52
ook@@ 52
oral 52
ox 52
quality 52
said 52
sar@@ 52
support 52
technology 52
tia 52
tin@@ 52
worth 52
¤ 52
§ 52
ð@@ 52
ں 52
ప@@ 52
ག@@ 52
″ 52
Aqu@@ 51
Coun@@ 51
Cro@@ 51
Dur@@ 51
Eul@@ 51
Fac@@ 51
Gur@@ 51
Jan@@ 51
July 51
Na 51
Nam@@ 51
Phot@@ 51
Plan@@ 51
UN 51
Wil@@ 51
alam 51
ans@@ 51
anus 51
average 51
bed@@ 51
best 51
by@@ 51
don 51
elle 51
eption 51
eter 51
face 51
ford 51
ged 51
gn@@ 51
hu 51
hyp@@ 51
inae 51
make 51
metal 51
nel 51
ories 51
phone 51
play 51
present 51
ree 51
sha@@ 51
specific 51
ss 51
tt@@ 51
vity 51
zero 51
Δ@@ 51
й@@ 51
ম 51
ਮ@@ 51
√ 51
▪ 51
大@@ 51
189@@ 50
5th 50
Bank 50
Dig@@ 50
Fin@@ 50
Gand@@ 50
Hindu@@ 50
Internet 50
Kin@@ 50
Meth@@ 50
Multi@@ 50
Od@@ 50
Sciences 50
Studies 50
Super 50
Tro@@ 50
V. 50
aly@@ 50
asis 50
cin@@ 50
din 50
ech@@ 50
ering 50
features 50
forms 50
ft@@ 50
ges 50
ility 50
illu@@ 50
imm@@ 50
important 50
ington 50
isa 50
iya 50
jan 50
jec@@ 50
jo@@ 50
kh 50
olog@@ 50
plac@@ 50
short 50
times 50
trac@@ 50
von 50
yan@@ 50
έ@@ 50
ز 50
ف 50
ধ@@ 50
ভ@@ 50
ವ@@ 50
184@@ 49
Ali 49
Ama@@ 49
Android 49
Ay@@ 49
Bro@@ 49
Canada 49
German 49
Land 49
Leg@@ 49
October 49
Of 49
Old 49
Sad@@ 49
Shr@@ 49
Sin@@ 49
Sn@@ 49
absor@@ 49
ace@@ 49
acter@@ 49
age@@ 49
aha 49
andi 49
anga 49
ays 49
back@@ 49
beam 49
computer 49
cyclop@@ 49
double 49
ect 49
equal 49
eter@@ 49
fact 49
ide@@ 49
immun@@ 49
itic 49
ju@@ 49
kin@@ 49
learning 49
lip@@ 49
ney 49
principle 49
radiation 49
sh 49
square 49
stat@@ 49
stell@@ 49
study 49
sv@@ 49
sy 49
ures 49
uru 49
vit@@ 49
white 49
І 49
ь@@ 49
נ@@ 49
दूस@@ 49
ಿ 49
ು@@ 49
വ@@ 49
ร@@ 49
ས 49
း@@ 49
20th 48
Ann@@ 48
Bak@@ 48
Board 48
CF 48
CH 48
Dom@@ 48
Dr@@ 48
Egypt 48
Gro@@ 48
Henry 48
Jur@@ 48
Log@@ 48
Mod@@ 48
Pad@@ 48
Sang@@ 48
Station 48
Sun@@ 48
Tran@@ 48
ack 48
aga 48
ago 48
aire 48
alb@@ 48
atics 48
ats@@ 48
ayan 48
cru@@ 48
cular 48
dex@@ 48
dri@@ 48
ela 48
eric 48
ew@@ 48
ference 48
fre@@ 48
gle 48
gre@@ 48
late 48
lica 48
lied 48
matter 48
membran@@ 48
ophyl@@ 48
ras@@ 48
rig@@ 48
stri@@ 48
third 48
uli 48
values 48
vin@@ 48
wood 48
yi 48
ysis 48
ω 48
ּ@@ 48
ੀ 48
ி 48
జ@@ 48
ိ@@ 48
ြ@@ 48
Ele@@ 47
Gl@@ 47
January 47
Jav@@ 47
Lab@@ 47
Lak@@ 47
Location 47
Louis 47
Mach@@ 47
Non 47
Pakistani 47
Pen@@ 47
Pos@@ 47
Py@@ 47
Ren@@ 47
Sudan 47
Test 47
WT@@ 47
When 47
Xi@@ 47
af 47
atch 47
below 47
born 47
business 47
ce@@ 47
ches 47
chi@@ 47
die 47
dor@@ 47
dur@@ 47
eta 47
etics 47
food 47
gest@@ 47
half 47
having 47
icity 47
kon@@ 47
men@@ 47
mor@@ 47
ographic 47
organic 47
ort@@ 47
osph@@ 47
others 47
output 47
path@@ 47
ption 47
quantum 47
ses 47
size 47
take 47
tics 47
took 47
vir@@ 47
ze@@ 47
ɔ@@ 47
ɡ@@ 47
ʁ@@ 47
Δ 47
י 47
ع 47
ོ 47
After 46
Asia 46
Boo@@ 46
Bud@@ 46
Dal@@ 46
Deb@@ 46
Ec@@ 46
Ger@@ 46
Gon@@ 46
Integ@@ 46
Ka@@ 46
Library 46
MD 46
Mang@@ 46
Mobile 46
PP 46
People 46
Rah@@ 46
Rat@@ 46
Sec@@ 46
Services 46
Star@@ 46
Sul@@ 46
Tw@@ 46
VP 46
ack@@ 46
ads 46
article 46
asia 46
aut@@ 46
bel@@ 46
blood 46
board 46
bridge 46
eli 46
engineering 46
ici@@ 46
igation 46
ign@@ 46
ili 46
ira 46
isation 46
kW 46
management 46
medi@@ 46
million 46
morph@@ 46
motor 46
oll@@ 46
oor 46
ordin@@ 46
prop@@ 46
propor@@ 46
quot 46
sia 46
ss@@ 46
story 46
symbol 46
ural 46
uz@@ 46
ving 46
vis 46
नवं@@ 46
ॿ@@ 46
ਤ@@ 46
ர 46
ಂ@@ 46
ུ@@ 46
178@@ 45
185@@ 45
Church 45
Economic 45
God 45
Him@@ 45
Index 45
Kap@@ 45
Kash@@ 45
Lord 45
Medi@@ 45
Richard 45
Sing@@ 45
Tab@@ 45
Tak@@ 45
Tamil 45
Vari@@ 45
York 45
ancy 45
ava 45
bit@@ 45
cc@@ 45
cip@@ 45
cus 45
dence 45
design 45
engine 45
enk@@ 45
full 45
gang@@ 45
input 45
lo 45
magnitude 45
mus 45
national 45
new@@ 45
op 45
opp@@ 45
physi@@ 45
pole 45
population 45
tiv@@ 45
ull 45
van 45
ve@@ 45
view 45
within 45
zu 45
ʊ@@ 45
ч@@ 45
ש@@ 45
ং@@ 45
వ@@ 45
Also 44
Award 44
Ci@@ 44
Dra@@ 44
El 44
Journal 44
Kad@@ 44
Ky@@ 44
Lam@@ 44
Lar@@ 44
Les 44
Mem@@ 44
Ny@@ 44
Organ@@ 44
Os@@ 44
Sag@@ 44
Security 44
Sri 44
Us 44
Water 44
aging 44
ais 44
awa 44
bers 44
cent 44
condition 44
defined 44
dge 44
don@@ 44
ds@@ 44
elements 44
enc@@ 44
eri@@ 44
ession 44
event 44
ext@@ 44
former 44
gh 44
gi 44
ils 44
ith 44
length 44
lex 44
lization 44
map 44
mathematical 44
medium 44
mis@@ 44
mut@@ 44
ols 44
oper@@ 44
products 44
pu@@ 44
rol@@ 44
ros@@ 44
scrip@@ 44
som@@ 44
templ@@ 44
trade 44
vic@@ 44
ward 44
zone 44
ón 44
φ@@ 44
ύ@@ 44
П@@ 44
ה 44
শ 44
ਜ@@ 44
ದ@@ 44
≤ 44
183@@ 43
Alt@@ 43
By@@ 43
CB 43
Class 43
Control 43
Department 43
Dy@@ 43
End 43
Invest@@ 43
Ir@@ 43
Jal@@ 43
Ju@@ 43
Ker@@ 43
María 43
May 43
May@@ 43
Pet@@ 43
Radi@@ 43
Rep@@ 43
Som@@ 43
They 43
Vit@@ 43
aa 43
aer@@ 43
alli@@ 43
block 43
boo@@ 43
certain 43
chemistry 43
cla@@ 43
compound 43
countries 43
critical 43
date 43
differ@@ 43
differenti@@ 43
does 43
element 43
eme 43
ept@@ 43
erg@@ 43
hot@@ 43
i.e. 43
ico 43
independent 43
izing 43
medicine 43
memory 43
min 43
mph 43
mul@@ 43
ood 43
operating 43
operation 43
ord 43
phi@@ 43
phon@@ 43
plan@@ 43
post 43
rane 43
ros 43
san@@ 43
sea 43
spectrum 43
star@@ 43
sted 43
stein 43
tet@@ 43
thes@@ 43
tivity 43
tract 43
until 43
written 43
yc@@ 43
ó 43
ƒ 43
ɾ@@ 43
ʃ@@ 43
χ@@ 43
ω@@ 43
ְ@@ 43
ث@@ 43
ظ@@ 43
ನ 43
പ@@ 43
င 43
↑ 43
AW@@ 42
Ah@@ 42
And 42
Anti@@ 42
Cin@@ 42
DJ 42
DT@@ 42
Division 42
Grand 42
IF 42
Ind@@ 42
Industrial 42
Kot@@ 42
Kun@@ 42
Lat@@ 42
Malaysia 42
News 42
Paris 42
Post 42
Pun@@ 42
Ray@@ 42
SA@@ 42
SU 42
Ste@@ 42
Stre@@ 42
Tru@@ 42
ains 42
ards 42
arg@@ 42
astic 42
band 42
became 42
bil@@ 42
cast@@ 42
cou@@ 42
deriv@@ 42
dynasty 42
efficient 42
electrical 42
enth@@ 42
good 42
gran@@ 42
green 42
hara 42
health 42
ho 42
ight 42
iti 42
ize 42
jo 42
kt@@ 42
kum@@ 42
ky 42
lead 42
local 42
making 42
mechan@@ 42
original 42
pres@@ 42
pul@@ 42
rak@@ 42
ran 42
rays 42
rus 42
school 42
script 42
units 42
viol@@ 42
yr@@ 42
Ú@@ 42
á 42
ê@@ 42
ː 42
μ 42
ת 42
། 42
Amp@@ 41
Art 41
Arthur 41
Big 41
Blue 41
Bri@@ 41
Coll@@ 41
Comm@@ 41
Dic@@ 41
Dor@@ 41
Expl@@ 41
Ja@@ 41
Magnet@@ 41
Many 41
Med@@ 41
Meg@@ 41
Men@@ 41
Nations 41
September 41
Source 41
Tim@@ 41
Tre@@ 41
Tunes 41
Two 41
Whe@@ 41
Wik@@ 41
aja 41
alph@@ 41
ances 41
ander 41
ativ@@ 41
cel@@ 41
cho@@ 41
cia 41
circle 41
cro@@ 41
difference 41
dro@@ 41
dus 41
edia 41
ephal@@ 41
fied 41
films 41
fran@@ 41
groups 41
ick 41
image 41
inst@@ 41
ler@@ 41
les@@ 41
lin 41
lit@@ 41
load 41
machine 41
mir@@ 41
mol@@ 41
node 41
oids 41
phen@@ 41
play@@ 41
possible 41
price 41
rat 41
rel@@ 41
ruled 41
service 41
six 41
ta@@ 41
tan@@ 41
tem@@ 41
tox@@ 41
tree 41
ulum 41
var 41
wn 41
η 41
ق 41
య@@ 41
ా 41
179@@ 40
Ach@@ 40
Anim@@ 40
Ask@@ 40
Bin@@ 40
Cit@@ 40
ESP@@ 40
FBI 40
Free 40
Hall@@ 40
Hon@@ 40
Korea 40
Lim@@ 40
Military 40
Mir@@ 40
Mun@@ 40
NCAA 40
Natural 40
Neur@@ 40
Note 40
O. 40
Pass@@ 40
Point 40
Rem@@ 40
Ud@@ 40
Wel@@ 40
alization 40
aqu@@ 40
but@@ 40
chain 40
che@@ 40
children 40
considered 40
cop@@ 40
cos 40
culture 40
cut@@ 40
days 40
ending 40
exchange 40
generation 40
hon@@ 40
imal 40
kur@@ 40
lands 40
mann@@ 40
ment@@ 40
mir 40
multip@@ 40
ogra@@ 40
omi 40
ova 40
parts 40
problem 40
processing 40
rap@@ 40
ras 40
record 40
resistance 40
show 40
sions 40
sky 40
station 40
still 40
struc@@ 40
thor@@ 40
tus 40
vul@@ 40
wall 40
φ 40
ж@@ 40
ц@@ 40
ִ@@ 40
ד@@ 40
ِ 40
विपरी@@ 40
প 40
ਾ 40
ന@@ 40
ി 40
ု@@ 40
≥ 40
Ali@@ 39
Bul@@ 39
Electric 39
Fu@@ 39
G.@@ 39
Hom@@ 39
Kas@@ 39
Lag@@ 39
Path@@ 39
Rap@@ 39
Revolution 39
SG 39
Second 39
Sen@@ 39
Sir@@ 39
Vel@@ 39
aki 39
ank 39
aris 39
az 39
cat 39
chan@@ 39
chlor@@ 39
cle 39
coll@@ 39
conc@@ 39
division 39
ele 39
ensi@@ 39
equivalent 39
ette 39
every 39
ez@@ 39
few 39
fire 39
flow 39
formation 39
hard 39
held 39
ibn 39
ier@@ 39
ious 39
ising 39
iting 39
jag@@ 39
ji@@ 39
lication 39
lif@@ 39
lingu@@ 39
mad@@ 39
market 39
means 39
mit 39
multiple 39
pap@@ 39
ph 39
rates 39
results 39
sar 39
sor@@ 39
span 39
stad 39
udi@@ 39
ved 39
via 39
waves 39
yn 39
ān 39
ʒ@@ 39
Г@@ 39
ফ@@ 39
વ@@ 39
ு 39
ം 39
ത@@ 39
ല@@ 39
ན 39
្ 39
.D. 38
Agency 38
Alpha 38
And@@ 38
Ang@@ 38
Authority 38
BB 38
Best 38
Committee 38
Common 38
Computer 38
DF@@ 38
Dat@@ 38
Defence 38
Industries 38
Intelligence 38
KA 38
Kab@@ 38
L.@@ 38
Mai@@ 38
Mut@@ 38
Peter 38
Pot@@ 38
Right 38
Sel@@ 38
Sik@@ 38
Software 38
Vid@@ 38
alle 38
always 38
amine 38
anna 38
approxim@@ 38
athon 38
cher@@ 38
cra@@ 38
crete 38
enia 38
enter@@ 38
fundamental 38
hang@@ 38
jan@@ 38
ku 38
ld@@ 38
live 38
lock@@ 38
meter 38
military 38
needed 38
network 38
off@@ 38
ologist 38
ons@@ 38
oom 38
optical 38
plant 38
released 38
religious 38
row@@ 38
she@@ 38
speed 38
statement 38
sum@@ 38
symmet@@ 38
theorem 38
tt 38
ump@@ 38
ure@@ 38
vac@@ 38
wheel 38
yal 38
your 38
ô@@ 38
ś@@ 38
δ 38
ء 38
ৰ 38
ା@@ 38
ರ 38
≡ 38
AV 37
Age 37
Ant@@ 37
Bat@@ 37
Cel@@ 37
Chau@@ 37
Dam@@ 37
Data 37
December 37
Fil@@ 37
Fo@@ 37
Fort 37
Glac@@ 37
Gran@@ 37
Ham@@ 37
Hill 37
Ji@@ 37
Khal@@ 37
Love 37
Mechan@@ 37
November 37
Ox@@ 37
Pay@@ 37
Pin@@ 37
Sak@@ 37
Special 37
Star 37
We 37
addition 37
amount 37
analy@@ 37
arch 37
basic 37
box 37
built 37
carbon 37
cha 37
count 37
cri@@ 37
divi@@ 37
earch 37
ech 37
economic 37
fication 37
fixed 37
game 37
gene 37
gon@@ 37
gram 37
height 37
higher 37
idd@@ 37
included 37
ink@@ 37
ique 37
istics 37
itu@@ 37
ko@@ 37
lag@@ 37
lah 37
leaf 37
limit 37
literature 37
nar@@ 37
related 37
rif@@ 37
sli@@ 37
sn@@ 37
solar 37
solid 37
sper@@ 37
supply 37
tered 37
ulated 37
win 37
wing 37
wrote 37
zh@@ 37
ö@@ 37
ü@@ 37
Ω 37
λ 37
ρ 37
Б@@ 37
Р@@ 37
ן 37
ح 37
ॾ@@ 37
த 37
ே@@ 37
ర 37
ന 37
อ@@ 37
ေ@@ 37
Acc@@ 36
Bou@@ 36
Civil 36
Der@@ 36
Eur@@ 36
Exchange 36
F.@@ 36
Fr@@ 36
Hindu 36
Kos@@ 36
Machine 36
Mahar@@ 36
Martin 36
Mol@@ 36
Most 36
NFL 36
Nil@@ 36
Nim@@ 36
Player 36
Saint 36
Sun 36
Van@@ 36
Win@@ 36
Women 36
Young 36
access 36
actor 36
alia 36
alist 36
alt@@ 36
amer@@ 36
ands 36
animals 36
away 36
ba@@ 36
bel 36
bin 36
cause 36
cav@@ 36
child 36
chin@@ 36
cle@@ 36
curve 36
earth 36
either 36
ements 36
environment 36
ert 36
esian 36
eth 36
ev 36
far 36
father 36
fields 36
five 36
fly 36
fol@@ 36
ground 36
gs 36
illi@@ 36
infl@@ 36
jection 36
just 36
mos@@ 36
ocity 36
organ@@ 36
osp@@ 36
plants 36
pot@@ 36
reson@@ 36
ria 36
rics 36
scat@@ 36
sen@@ 36
shi 36
sta 36
started 36
syl@@ 36
tax 36
tial 36
tournament 36
towards 36
user 36
uting 36
whose 36
® 36
³ 36
è 36
ˌ@@ 36
פ@@ 36
ট@@ 36
ਦ@@ 36
མ@@ 36
ာ@@ 36
ー@@ 36
日@@ 36
￸ 36
187@@ 35
According 35
Af@@ 35
California 35
Cas@@ 35
Cham@@ 35
Chap@@ 35
Def@@ 35
Die 35
GB@@ 35
Gre@@ 35
Hills 35
Java 35
League 35
Mont@@ 35
Mountains 35
Muk@@ 35
Population 35
President 35
Railway 35
Rev@@ 35
Rights 35
Sand@@ 35
Simp@@ 35
Tan@@ 35
Ty@@ 35
UC 35
UP 35
ache 35
along 35
areas 35
array 35
basis 35
bility 35
chron@@ 35
dan@@ 35
determin@@ 35
devices 35
ein@@ 35
eling 35
ends 35
enh@@ 35
entary 35
eur 35
external 35
fa 35
figure 35
fluid 35
gence 35
gin@@ 35
haw@@ 35
ib 35
idi@@ 35
ike 35
ject 35
lim@@ 35
mail 35
mb@@ 35
mom@@ 35
normal 35
ny@@ 35
och 35
opath@@ 35
ophi@@ 35
ops 35
org@@ 35
person 35
phones 35
ple@@ 35
pler 35
popular 35
primary 35
produced 35
programming 35
put@@ 35
qui@@ 35
rather 35
rin@@ 35
ru 35
rum 35
shar@@ 35
sim@@ 35
start 35
storage 35
stress 35
temple 35
traction 35
wa@@ 35
win@@ 35
ylon 35
µ@@ 35
ь 35
ك 35
ਰ 35
ર@@ 35
ି@@ 35
க 35
ಗ@@ 35
ಸ@@ 35
Ara@@ 34
Battle 34
Bon@@ 34
Cant@@ 34
Chief 34
Country 34
Digital 34
Doc@@ 34
Four@@ 34
Fox 34
Fun@@ 34
God@@ 34
Line 34
Medicine 34
Mis@@ 34
Mount 34
Nik@@ 34
Nov@@ 34
Order 34
Organization 34
Plant 34
Political 34
Rag@@ 34
Rom@@ 34
Rud@@ 34
So 34
St. 34
Tag@@ 34
Total 34
Valley 34
acet@@ 34
acts 34
ado 34
again 34
akh@@ 34
aking 34
algeb@@ 34
architecture 34
atha 34
atives 34
become 34
emat@@ 34
ended 34
entum 34
eri 34
etry 34
ez 34
fish 34
fold 34
foreign 34
ified 34
kam 34
liquid 34
living 34
lock 34
magnet@@ 34
mechanical 34
methods 34
named 34
nec@@ 34
numer@@ 34
ood@@ 34
osh 34
put 34
rel 34
ris@@ 34
round 34
secondary 34
similar 34
sing 34
society 34
tools 34
tz 34
uma 34
uv@@ 34
val 34
words 34
zon@@ 34
ée 34
ے 34
नैनी@@ 34
യ@@ 34
က@@ 34
Africa 33
Ancient 33
Auth@@ 33
Bio@@ 33
Bol@@ 33
Borough 33
Bos@@ 33
Christian 33
Compar@@ 33
Dru@@ 33
Eng@@ 33
Ess@@ 33
Eth@@ 33
Eu@@ 33
Europe 33
Fat@@ 33
February 33
Film 33
Geneva 33
Hans 33
Home 33
Hospital 33
Imp@@ 33
Jay@@ 33
Kak@@ 33
Kir@@ 33
Korean 33
Lor@@ 33
Mary 33
Mov@@ 33
Museum 33
Navy 33
Near 33
Produc@@ 33
Prof@@ 33
SCO 33
Sev@@ 33
Ton@@ 33
Trich@@ 33
Ven@@ 33
Video 33
Vik@@ 33
across 33
aker 33
alle@@ 33
anic 33
animal 33
anta 33
aran 33
arc@@ 33
arm@@ 33
aul@@ 33
bet@@ 33
bo 33
changes 33
chem 33
cill@@ 33
cks 33
codes 33
conduc@@ 33
cut 33
density 33
disorder 33
distribution 33
eal 33
ease 33
ective 33
electronic 33
ening 33
eous 33
etary 33
fal@@ 33
formed 33
get@@ 33
gon 33
graph 33
help 33
however 33
icus 33
iles 33
ind 33
iner@@ 33
interest 33
jav@@ 33
jaz@@ 33
kind 33
ky@@ 33
lan 33
lap@@ 33
mart 33
measu@@ 33
meth@@ 33
mid 33
moment 33
nal 33
nas@@ 33
nit@@ 33
olic 33
onomy 33
oot 33
placement 33
prim@@ 33
print 33
race 33
rag@@ 33
relative 33
rement 33
ris 33
ror 33
runs 33
sab@@ 33
sal 33
sens@@ 33
sex 33
signal 33
sil 33
simple 33
sometimes 33
spor@@ 33
syndrome 33
territory 33
transfer 33
valu@@ 33
wav@@ 33
weight 33
wel@@ 33
whole 33
yo 33
zer 33
ér@@ 33
í 33
ø@@ 33
ú@@ 33
ı@@ 33
ע@@ 33
۝ 33
ਕ@@ 33
ਗ@@ 33
ਲ@@ 33
ತ@@ 33
ර@@ 33
ྱ@@ 33
ရ@@ 33
⁄ 33
1,2 32
Air@@ 32
Astr@@ 32
Bern@@ 32
Chal@@ 32
Dragon 32
Entertainment 32
Es 32
FL 32
Forest 32
Jer@@ 32
Juan 32
Kum@@ 32
Land@@ 32
Lap@@ 32
Low 32
Lun@@ 32
Major 32
Must@@ 32
Party 32
Persian 32
Ple@@ 32
Rad@@ 32
Sap@@ 32
Sens@@ 32
Sho@@ 32
Sl@@ 32
Tech 32
Tol@@ 32
Tul@@ 32
Wei@@ 32
achi 32
activity 32
add@@ 32
angular 32
ater@@ 32
ator@@ 32
ble@@ 32
capital 32
cell@@ 32
chen 32
composed 32
concept 32
defin@@ 32
definition 32
degree 32
desh 32
direction 32
dis 32
display 32
dule 32
economy 32
eh 32
epi@@ 32
eur@@ 32
expression 32
fall 32
flex@@ 32
further 32
gly@@ 32
ias 32
ident@@ 32
increase 32
induc@@ 32
ital@@ 32
ited 32
kin 32
last@@ 32
lens 32
ligh@@ 32
match 32
mature 32
meg@@ 32
member 32
mobile 32
names 32
odic 32
oni 32
oni@@ 32
onn@@ 32
orders 32
orial 32
personal 32
plus 32
received 32
ression 32
rest 32
rights 32
ril@@ 32
risk 32
running 32
services 32
shows 32
soci@@ 32
sound 32
sun@@ 32
thought 32
town 32
tures 32
tz@@ 32
vism 32
volume 32
writing 32
és 32
š@@ 32
т 32
ج 32
ަ@@ 32
कोलका@@ 32
খ@@ 32
ன@@ 32
ద@@ 32
ಲ@@ 32
් 32
ད@@ 32
国@@ 32
.000 31
Administration 31
Am 31
Bac@@ 31
Band@@ 31
Beg@@ 31
Blood 31
Books 31
Child 31
Congress 31
Da 31
Don@@ 31
Dum@@ 31
Federation 31
Financial 31
Gn@@ 31
J.@@ 31
Kod@@ 31
Lah@@ 31
Leon@@ 31
Lib@@ 31
Little 31
Mau@@ 31
No. 31
Philosophy 31
Physi@@ 31
Plat@@ 31
Press 31
Rob@@ 31
Scientific 31
Since 31
Sind@@ 31
Times 31
USSR 31
Up@@ 31
Van 31
Village 31
Vin@@ 31
You@@ 31
amin 31
announced 31
aq 31
atta 31
attack 31
ault 31
bab@@ 31
bert 31
bes 31
big 31
broad@@ 31
ci 31
components 31
controlled 31
developed 31
dimensional 31
domin@@ 31
eau 31
ection 31
eding 31
ei 31
ender 31
eness 31
evidence 31
female 31
files 31
fri@@ 31
fu@@ 31
ght 31
hr 31
iers 31
inga 31
internal 31
ira@@ 31
itative 31
largest 31
little 31
lor@@ 31
measure 31
molec@@ 31
night 31
num@@ 31
oga 31
optim@@ 31
orer 31
orth@@ 31
orum 31
oxide 31
paras@@ 31
pe 31
performance 31
pin@@ 31
positi@@ 31
radio 31
relation 31
rich@@ 31
serv@@ 31
shift 31
significant 31
site 31
ski 31
solution 31
step 31
sure 31
tan 31
test@@ 31
thir@@ 31
tissue 31
today 31
upon 31
usually 31
ution 31
verteb@@ 31
wel 31
working 31
xi@@ 31
zation 31
zed 31
án@@ 31
ão 31
И@@ 31
ַ@@ 31
ם 31
ॲ@@ 31
অ@@ 31
ব 31
ਪ@@ 31
ର@@ 31
ல 31
డ@@ 31
ಪ@@ 31
ು 31
† 31
Ath@@ 30
Bod@@ 30
Chang@@ 30
Chem@@ 30
Collec@@ 30
Emp@@ 30
Fur@@ 30
Gener@@ 30
Go 30
Gun@@ 30
Hand@@ 30
Hir@@ 30
Hist@@ 30
Huss@@ 30
Ide@@ 30
Lau@@ 30
Law@@ 30
Nic@@ 30
Ol@@ 30
Ped@@ 30
Pir@@ 30
Prin@@ 30
Rang@@ 30
Rock 30
SK 30
Self 30
Str@@ 30
Sug@@ 30
Survey 30
Sus@@ 30
Teh@@ 30
Tha@@ 30
Tom@@ 30
Wa@@ 30
What 30
ably 30
aid 30
amba 30
anch@@ 30
andra 30
archy 30
better 30
bing 30
birds 30
bis 30
central 30
conservation 30
continu@@ 30
ct 30
dale 30
dat@@ 30
down@@ 30
election 30
eps 30
established 30
eti 30
false 30
follow 30
fusion 30
give 30
graph@@ 30
greater 30
hau@@ 30
hib@@ 30
ills 30
instead 30
instrument 30
issi@@ 30
iter 30
larger 30
laws 30
leum 30
logic 30
los 30
loss 30
lot 30
love 30
lower 30
maps 30
materials 30
matic 30
members 30
ming 30
mission 30
ods 30
oe 30
ois 30
ologists 30
operations 30
ough 30
pa@@ 30
pay@@ 30
phic 30
real@@ 30
regul@@ 30
rub@@ 30
seen 30
ser 30
seven 30
shell 30
stan 30
status 30
taken 30
tar 30
tax@@ 30
teenth 30
tering 30
then@@ 30
virus 30
ware 30
yet 30
¾ 30
ã@@ 30
Д@@ 30
Х@@ 30
к 30
м 30
ш@@ 30
ু 30
ବ@@ 30
ந@@ 30
ோ@@ 30
ತ 30
മ 30
Alexander 29
Bis@@ 29
Bruno 29
Bureau 29
Chemical 29
Conf@@ 29
Cos@@ 29
Ey@@ 29
Fel@@ 29
Festival 29
Food 29
Frederick 29
Gaz@@ 29
Greek 29
Hat@@ 29
Hum@@ 29
Hyper@@ 29
Il@@ 29
Kel@@ 29
Lev@@ 29
Light 29
Lingu@@ 29
Mess@@ 29
Mik@@ 29
Mit@@ 29
Modern 29
More 29
NATO 29
Naval 29
Num@@ 29
O.@@ 29
Organisation 29
Page 29
Roman 29
Russian 29
Saf@@ 29
Sid@@ 29
Top@@ 29
Transl@@ 29
aise 29
aling 29
although 29
amin@@ 29
applied 29
arti@@ 29
asc@@ 29
asma 29
award 29
bad@@ 29
bat 29
began 29
bes@@ 29
bird 29
building 29
bus@@ 29
came 29
cher 29
complete 29
death 29
dient 29
diti@@ 29
domain 29
e- 29
eb 29
eds 29
ently 29
eph@@ 29
ered 29
ern 29
eu@@ 29
eus 29
exposure 29
famous 29
fas@@ 29
finals 29
fix 29
fr@@ 29
gave 29
heter@@ 29
hist@@ 29
ication 29
ined 29
inger 29
inus 29
jur@@ 29
k.@@ 29
legal 29
ll@@ 29
located 29
lost 29
medical 29
movement 29
nat@@ 29
neg@@ 29
never 29
official 29
once 29
ond 29
oon 29
orb@@ 29
ores 29
oured 29
philosophy 29
phosph@@ 29
ple 29
pose 29
read 29
relationship 29
rist@@ 29
runners 29
rup@@ 29
security 29
shr@@ 29
steel 29
tif@@ 29
tig@@ 29
together 29
tol@@ 29
ty@@ 29
uf@@ 29
uments 29
upp@@ 29
urg@@ 29
utr@@ 29
various 29
yle 29
Ü@@ 29
Н@@ 29
ش 29
স 29
ಯ@@ 29
ത 29
ེ@@ 29
ྲ@@ 29
186@@ 28
Area 28
Arts 28
Ball@@ 28
Bam@@ 28
Bay@@ 28
Billboard 28
Cass@@ 28
Cont@@ 28
Dem@@ 28
Ear@@ 28
Falls 28
Ferrari 28
Gau@@ 28
Gold@@ 28
Hin@@ 28
Intel@@ 28
Kl@@ 28
Liber@@ 28
Lon@@ 28
Main 28
Mast@@ 28
Max 28
NY 28
Neg@@ 28
Nep@@ 28
Nin@@ 28
Now 28
Pand@@ 28
Pic@@ 28
PlayStation 28
Rab@@ 28
Rak@@ 28
Rav@@ 28
Rub@@ 28
Street 28
Study 28
Tax@@ 28
Technical 28
Vic@@ 28
Vij@@ 28
Washington 28
Zo@@ 28
absolute 28
amy 28
ane@@ 28
anese 28
asing 28
astronom@@ 28
aw 28
birth 28
blue 28
cep@@ 28
cid@@ 28
circ@@ 28
colors 28
content 28
deep 28
dens@@ 28
died 28
digital 28
dom@@ 28
drau@@ 28
ells 28
eman 28
ems 28
err@@ 28
esa 28
eva 28
eved 28
expansion 28
far@@ 28
ff 28
financial 28
finite 28
forest 28
growth 28
harmon@@ 28
head@@ 28
hil@@ 28
iron 28
irus 28
iser 28
issa 28
issues 28
itions 28
kk@@ 28
levels 28
mark 28
middle 28
occ@@ 28
office 28
partial 28
pel@@ 28
pent@@ 28
perc@@ 28
pil@@ 28
plate 28
played 28
pling 28
port@@ 28
rated 28
roqu@@ 28
sand 28
sequence 28
sides 28
sist@@ 28
squ@@ 28
stroke 28
studies 28
sub 28
ther 28
thermal 28
translation 28
ums 28
uni@@ 28
vet 28
write 28
ystal 28
¿ 28
ç 28
Đ@@ 28
ɪ 28
ֹ@@ 28
כ@@ 28
এ@@ 28
ਵ@@ 28
ੋ@@ 28
ે 28
ந 28
ూ@@ 28
ె@@ 28
ย@@ 28
ད 28
≈ 28
ン@@ 28
本@@ 28
Agricultural 27
Alt 27
Asian 27
Audi@@ 27
Australian 27
Awards 27
Beach 27
Bot@@ 27
Cle@@ 27
Club 27
Conference 27
Differ@@ 27
Dud@@ 27
Early 27
Environment 27
Family 27
Fol@@ 27
Fri@@ 27
Germany 27
Gir@@ 27
GmbH 27
HL 27
High@@ 27
Iron 27
It@@ 27
Jacques 27
Japanese 27
Later 27
Legal 27
Lep@@ 27
Mend@@ 27
Mind@@ 27
Mult@@ 27
Observ@@ 27
Ok@@ 27
Om@@ 27
Orig@@ 27
Pas@@ 27
Pav@@ 27
Petro@@ 27
Post@@ 27
Punjab 27
Real 27
Shah 27
Shel@@ 27
Smith 27
Southern 27
Trade 27
Training 27
Vas@@ 27
Vil@@ 27
Zh@@ 27
aba 27
ady 27
aic 27
anz@@ 27
autom@@ 27
bad 27
billion 27
charged 27
clear 27
college 27
compounds 27
concentration 27
copy 27
court 27
dev@@ 27
diver@@ 27
dynam@@ 27
elling 27
entr@@ 27
enty 27
error 27
esp@@ 27
especially 27
etc 27
fer 27
frac@@ 27
fur@@ 27
gar 27
gate 27
gel 27
glass 27
glob@@ 27
gold 27
hatt@@ 27
hier@@ 27
hole 27
ices 27
icon@@ 27
incident 27
iness 27
intelligence 27
ishes 27
itself 27
itting 27
least 27
letter 27
limited 27
lit 27
lith@@ 27
liz@@ 27
mand@@ 27
met 27
mig@@ 27
mother 27
nu@@ 27
oa 27
ograph 27
olf 27
olia 27
omb@@ 27
operative 27
other@@ 27
ower 27
patri@@ 27
press 27
processes 27
propag@@ 27
pun@@ 27
rah@@ 27
reading 27
regular 27
relations 27
rier 27
rock 27
sat@@ 27
sector 27
selection 27
semi 27
sets 27
sey 27
sha 27
sight 27
sort 27
supp@@ 27
sz@@ 27
though 27
tile 27
training 27
tun@@ 27
turn 27
uda 27
ugh@@ 27
ulate 27
urai 27
usi@@ 27
wind 27
ww@@ 27
¥ 27
º@@ 27
Ð 27
ū 27
ι 27
ы 27
ंपरिक 27
ऴ@@ 27
ॐ@@ 27
ড 27
ੀ@@ 27
ட 27
ற@@ 27
ದ 27
ೆ 27
ೆ@@ 27
ೇ@@ 27
േ@@ 27
ม@@ 27
མ 27
Advanced 26
Agu@@ 26
Amar@@ 26
Arc@@ 26
Att@@ 26
Back@@ 26
Bour@@ 26
Box 26
Boy@@ 26
Ce@@ 26
Chan@@ 26
Climate 26
Convention 26
Cra@@ 26
Cri@@ 26
Cru@@ 26
Culture 26
Dol@@ 26
Ed 26
Edge 26
Esc@@ 26
Fal@@ 26
Foreign 26
François 26
Fund 26
Gem@@ 26
Gul@@ 26
Hall 26
Here 26
Hil@@ 26
Industry 26
Lav@@ 26
Li 26
Max@@ 26
Mic@@ 26
Michael 26
Muhammad 26
Nan@@ 26
Nature 26
Number 26
Oper@@ 26
Pak@@ 26
Part@@ 26
Parti@@ 26
Pierre 26
Pon@@ 26
Put@@ 26
Range 26
Sher@@ 26
Sit@@ 26
Sor@@ 26
Statist@@ 26
Stra@@ 26
Struc@@ 26
Tap@@ 26
Treaty 26
Type 26
Upper 26
Wol@@ 26
Ze@@ 26
account 26
adap@@ 26
ahi 26
available 26
bis@@ 26
bry@@ 26
cancer 26
capac@@ 26
care 26
cath@@ 26
composition 26
core 26
cryp@@ 26
direc@@ 26
divided 26
dé@@ 26
economics 26
ects 26
edge 26
ega 26
eil@@ 26
eller 26
entation 26
expres@@ 26
eye 26
fa@@ 26
factors 26
file 26
hop@@ 26
icism 26
ification 26
ign 26
ild@@ 26
includes 26
indu@@ 26
infection 26
injury 26
interaction 26
jap@@ 26
ked 26
knowledge 26
los@@ 26
mental 26
mic@@ 26
monument 26
move 26
multi@@ 26
orbit 26
otype 26
outside 26
ows 26
path 26
phy 26
placed 26
problems 26
ques 26
reference 26
rob@@ 26
rolog@@ 26
rotation 26
say 26
scientific 26
sed 26
set@@ 26
sian 26
sign 26
spar@@ 26
strong 26
themselves 26
tionary 26
too 26
treatment 26
ugu 26
uh@@ 26
ui 26
uman 26
unda 26
union 26
utes 26
utions 26
visual 26
whi@@ 26
ña 26
Κ@@ 26
Л@@ 26
Т@@ 26
ա@@ 26
ٹ@@ 26
ই@@ 26
ঙ 26
ੁ@@ 26
્ 26
ை@@ 26
స@@ 26
ക 26
ട@@ 26
ก@@ 26
น@@ 26
ิ@@ 26
เ@@ 26
ག 26
ི@@ 26
19th 25
AK 25
Activ@@ 25
Alb@@ 25
Ax@@ 25
Bill 25
Championships 25
Current 25
Dak@@ 25
Design 25
Dim@@ 25
Dun@@ 25
Friedrich 25
Game 25
Hard@@ 25
Harry 25
How 25
Hung@@ 25
Japan 25
Kath@@ 25
Key 25
Kus@@ 25
LGBT 25
Laboratory 25
Let 25
Mars 25
Mission 25
Motion 25
Mund@@ 25
Muslim 25
Nah@@ 25
Nit@@ 25
Northern 25
Not@@ 25
Orth@@ 25
Pep@@ 25
Physical 25
Pil@@ 25
Pip@@ 25
Policy 25
Princip@@ 25
Radio 25
Rock@@ 25
Sant@@ 25
Sex@@ 25
Story 25
Sund@@ 25
Three 25
Twitter 25
USS 25
Univers@@ 25
Way 25
While 25
Who 25
Wikipedia 25
Wimbledon 25
acquired 25
actions 25
agog@@ 25
aik@@ 25
aine 25
ald 25
amma 25
apping 25
ardi@@ 25
army 25
arrangement 25
associated 25
beat 25
blo@@ 25
bond 25
ciples 25
civil 25
clo@@ 25
commonly 25
component 25
conflict 25
dal 25
doc@@ 25
ector 25
eist@@ 25
emor@@ 25
emot@@ 25
ero 25
freedom 25
generally 25
global 25
greatest 25
gy 25
himself 25
hun@@ 25
ian@@ 25
ient 25
ify 25
imag@@ 25
interface 25
itors 25
itter 25
ju 25
jud@@ 25
lang 25
lets 25
liqu@@ 25
loss@@ 25
main@@ 25
mathematics 25
mode 25
money 25
nan@@ 25
nik@@ 25
oly@@ 25
opposite 25
ound 25
ove 25
phil@@ 25
program 25
proof 25
radio@@ 25
rating 25
rea 25
reservoir 25
rules 25
season 25
special 25
standards 25
stro@@ 25
tification 25
tradition 25
ub 25
ux 25
video 25
writer 25
yon 25
yr 25
÷ 25
Α@@ 25
ή@@ 25
ζ 25
я@@ 25
ک 25
۔ 25
উ@@ 25
ਬ@@ 25
ી 25
ે@@ 25
క 25
ಕ 25
ท@@ 25
ว@@ 25
ั@@ 25
འ@@ 25
ལ 25
ྫ@@ 25
တ@@ 25
ḍ@@ 25
國@@ 25
Analysis 24
Another 24
Assembly 24
Associ@@ 24
Australia 24
Black@@ 24
But@@ 24
Canadian 24
Chang 24
Cli@@ 24
Coast 24
Dist@@ 24
Down 24
Dynam@@ 24
Electronic 24
Empire 24
Esp@@ 24
Et@@ 24
Express 24
Gold 24
Good 24
Green@@ 24
Gru@@ 24
Head 24
Heritage 24
Human@@ 24
Independence 24
Islands 24
Jud@@ 24
Massi@@ 24
Meh@@ 24
Men 24
Model 24
Newton 24
Night 24
Olympic 24
Pacific 24
Queen 24
Run@@ 24
Ré@@ 24
Show 24
Sky@@ 24
Sound 24
Strateg@@ 24
Studio 24
Sym@@ 24
Third 24
Universal 24
VB 24
Vish@@ 24
Wilhelm 24
With 24
agent 24
aim@@ 24
amed 24
anatom@@ 24
ander@@ 24
ani@@ 24
arity 24
arium 24
asha 24
ateral 24
aus 24
aut 24
author 24
ball 24
begin 24
bot@@ 24
ca@@ 24
cases 24
characters 24
ched 24
cing 24
circum@@ 24
claim 24
climate 24
closed 24
clu@@ 24
collec@@ 24
compar@@ 24
concrete 24
currently 24
dam@@ 24
derived 24
dies 24
din@@ 24
directly 24
ditional 24
eck@@ 24
edit@@ 24
effects 24
eline 24
enes 24
enough 24
essi@@ 24
ett 24
experiment 24
fel@@ 24
fill 24
fit 24
forced 24
forward 24
fuel 24
gens 24
gives 24
hain 24
hair 24
hip 24
historical 24
hn@@ 24
hours 24
human@@ 24
indoor 24
intensity 24
ises 24
ison 24
iss 24
itar@@ 24
itz 24
ives 24
je 24
just@@ 24
lang@@ 24
leading 24
lev@@ 24
lies 24
lion 24
loop 24
mach@@ 24
mar 24
max 24
meaning 24
mid@@ 24
months 24
next 24
ody 24
og 24
oh 24
omen@@ 24
oned 24
ont 24
opy 24
oria 24
origin 24
ority 24
ost 24
otes 24
oto 24
ours 24
particular 24
pass 24
pec@@ 24
pic@@ 24
player 24
produce 24
project 24
rah 24
rang 24
rati@@ 24
reduction 24
religion 24
representation 24
rid@@ 24
ring@@ 24
rit 24
room 24
run@@ 24
sav@@ 24
sel 24
shan 24
sible 24
sth@@ 24
stock 24
substit@@ 24
sup@@ 24
t. 24
tant 24
tica 24
til@@ 24
tory 24
tropical 24
tual 24
unique 24
unk 24
urs 24
vil 24
wat@@ 24
ways 24
week 24
wer@@ 24
wise 24
young 24
zing 24
¸ 24
Á@@ 24
ì@@ 24
̃ 24
О@@ 24
д 24
л 24
у 24
ק@@ 24
ُ 24
णिज 24
संबर 24
ণ 24
ূ@@ 24
ੱ@@ 24
ମ@@ 24
ெ@@ 24
ை 24
న 24
ා@@ 24
ි@@ 24
ེ 24
ា@@ 24
█ 24
ATP 23
Alfred 23
Anti 23
Archae@@ 23
Bau@@ 23
Beng@@ 23
Bran@@ 23
Bridge 23
Brit@@ 23
Capital 23
Card 23
Cau@@ 23
Cher@@ 23
Chlor@@ 23
Christ@@ 23
Contin@@ 23
Cup 23
Dam 23
Dead 23
Deg@@ 23
Dep@@ 23
Don 23
Dro@@ 23
Educ@@ 23
Eff@@ 23
Elect@@ 23
Fab@@ 23
Field 23
Fran@@ 23
Francis 23
Get@@ 23
Golden 23
Grammar 23
Haj@@ 23
Indian@@ 23
Jos@@ 23
KP@@ 23
Karl 23
Kit@@ 23
Learning 23
Les@@ 23
Main@@ 23
Mid@@ 23
Mr. 23
Nat@@ 23
Ot@@ 23
Oxford 23
Physics 23
Plan 23
Power@@ 23
Prince 23
Quant@@ 23
Re 23
Roh@@ 23
Sac@@ 23
Scor@@ 23
Square 23
Statistics 23
Stock 23
That 23
Uni@@ 23
WTA 23
Wall 23
academic 23
altern@@ 23
ament 23
anism 23
anthrop@@ 23
appa 23
asses 23
atio 23
att 23
aver@@ 23
ayed 23
bacteria 23
band@@ 23
bas@@ 23
bine 23
bles 23
capacity 23
cker 23
communication 23
conv@@ 23
cost 23
created 23
curr@@ 23
deg@@ 23
dep@@ 23
ec 23
eca 23
elli 23
enna 23
essive 23
evi@@ 23
exec@@ 23
flag@@ 23
formal 23
friend 23
ghts 23
gun 23
haz@@ 23
heart 23
hei@@ 23
hold 23
ible 23
ich 23
ional 23
ister 23
ité 23
kal 23
lav@@ 23
lier 23
mark@@ 23
matrix 23
molecular 23
moral 23
mos 23
nation 23
ns@@ 23
occur 23
ogs 23
oline 23
onent 23
oriented 23
ous@@ 23
ously 23
part@@ 23
poems 23
pseud@@ 23
rams 23
recur@@ 23
resulting 23
rey 23
role 23
saw 23
scap@@ 23
sent@@ 23
sexual 23
sites 23
soil 23
spl@@ 23
ston 23
stor@@ 23
sun 23
surgery 23
thy@@ 23
tice 23
titles 23
tro 23
tum@@ 23
ulp@@ 23
ulu 23
usa 23
v. 23
watch 23
wind@@ 23
yar@@ 23
yellow 23
ysi@@ 23
¨ 23
č@@ 23
ē 23
ŋ@@ 23
˚ 23
ζ@@ 23
ל 23
ঁ@@ 23
ન@@ 23
ா 23
ಡ@@ 23
ಶ@@ 23
ള@@ 23
ར 23
ྒ@@ 23
သ@@ 23
္ 23
ṇ@@ 23
↓ 23
李@@ 23
Agr@@ 22
Agriculture 22
Ale@@ 22
Arg@@ 22
Aur@@ 22
Bell 22
Building 22
Carl 22
Che@@ 22
Commonwealth 22
Cot@@ 22
Cou@@ 22
D.C. 22
Den@@ 22
Din@@ 22
Diplom@@ 22
Dre@@ 22
Dul@@ 22
Eli@@ 22
Fem@@ 22
Film@@ 22
Gol@@ 22
Honda 22
Indo 22
Its 22
Jah@@ 22
Jan 22
Jas@@ 22
Johann 22
Kra@@ 22
Kul@@ 22
Lac@@ 22
Lambert 22
Let@@ 22
Mant@@ 22
Mass 22
Money 22
Mumbai 22
Mé@@ 22
NGC 22
Nas@@ 22
Ner@@ 22
Nuclear 22
Only 22
Operation 22
Original 22
Param@@ 22
Part 22
Peace 22
Port 22
Programm@@ 22
Pseud@@ 22
Publishing 22
Review 22
Ris@@ 22
Seven 22
Shak@@ 22
Short 22
Sig@@ 22
Spe@@ 22
Staff 22
Supp@@ 22
Sv@@ 22
Tang@@ 22
Taylor 22
Termin@@ 22
Theor@@ 22
Thus 22
Tiger 22
Up 22
Vy@@ 22
Wis@@ 22
Work 22
Yos@@ 22
aar 22
added 22
additional 22
aid@@ 22
ann 22
application 22
aps 22
ardo 22
aring 22
audio 22
automatic 22
ball@@ 22
bat@@ 22
bed 22
bot 22
bra 22
brain 22
break 22
bun@@ 22
card 22
cast 22
cha@@ 22
cial 22
completed 22
conducting 22
contact 22
continuous 22
dam 22
day@@ 22
deci@@ 22
defeat 22
dem 22
despite 22
dog 22
duced 22
dynamic 22
een 22
eff@@ 22
ehic@@ 22
eigen@@ 22
eil 22
eing 22
eit 22
ellite 22
else 22
enko 22
enter 22
eping 22
essor 22
failure 22
fli@@ 22
flo@@ 22
fluor@@ 22
follows 22
foot@@ 22
fourth 22
front 22
gain 22
genetic 22
ght@@ 22
giant 22
got 22
hir 22
iana 22
ichi 22
icide 22
ife 22
igar@@ 22
ishi 22
joint 22
judi@@ 22
junction 22
kes 22
las 22
lished 22
listed 22
look 22
manufacturing 22
maximum 22
meet 22
mort@@ 22
movie 22
née 22
oci@@ 22
ock@@ 22
offic@@ 22
oka 22
onian 22
ophysi@@ 22
orus 22
ousness 22
personality 22
pon@@ 22
prime 22
rab@@ 22
rare 22
red@@ 22
repe@@ 22
required 22
resolution 22
ress 22
rica 22
shown 22
sle@@ 22
spac@@ 22
spot 22
sters 22
strength 22
students 22
superior 22
tal 22
tanks 22
testing 22
therefore 22
thr@@ 22
tone 22
transmission 22
ues 22
ulture 22
unci@@ 22
uns 22
unt 22
useful 22
vers 22
vill@@ 22
villages 22
vo 22
water@@ 22
wife 22
zen 22
¢ 22
É 22
ë@@ 22
ì 22
ş@@ 22
Σ@@ 22
ֶ@@ 22
צ@@ 22
ٱ@@ 22
জ 22
ਤ 22
ਲ 22
દ@@ 22
ལ@@ 22
ི 22
ခ@@ 22
ပ@@ 22
រ@@ 22
ṣ@@ 22
ⴰ@@ 22
18th 21
2. 21
Although 21
Anth@@ 21
Arab 21
Ball 21
Be 21
Block 21
Bru@@ 21
Cab@@ 21
Cambridge 21
Century 21
Channel 21
Chin@@ 21
Collection 21
Corpor@@ 21
Dan 21
Dav@@ 21
Drive 21
Dé@@ 21
Eastern 21
Environmental 21
Ever@@ 21
Ex 21
FP@@ 21
Fire 21
Front 21
Gas 21
Had@@ 21
Her 21
Il 21
Immun@@ 21
Instit@@ 21
Ireland 21
Islam 21
Joint 21
KG 21
Kann@@ 21
Kr@@ 21
Lay@@ 21
Lewis 21
Like 21
Lok@@ 21
Lyn@@ 21
Mali@@ 21
Maria 21
Mark 21
Marx@@ 21
Miami 21
Micha@@ 21
Movement 21
Natur@@ 21
Non@@ 21
Not 21
Ocean 21
Patri@@ 21
Paw@@ 21
Pedro 21
References 21
Shir@@ 21
Solar 21
Then 21
Til@@ 21
UE@@ 21
Ve@@ 21
Water@@ 21
Works 21
Writ@@ 21
aan 21
abi 21
according 21
acted 21
agreement 21
ague 21
akh 21
alis@@ 21
alog@@ 21
ameter 21
anced 21
arms 21
aro 21
artic@@ 21
articles 21
asian 21
aux 21
bal 21
bos@@ 21
cas@@ 21
clinical 21
collection 21
companies 21
compared 21
compos@@ 21
con 21
conditions 21
cricket 21
derm@@ 21
details 21
dition@@ 21
document 21
done 21
door 21
dre@@ 21
edition 21
eo 21
erous 21
essions 21
eval 21
expl@@ 21
expressed 21
fiel@@ 21
figures 21
find 21
gall@@ 21
hot 21
iciency 21
ining 21
inj@@ 21
insi@@ 21
integral 21
ische 21
ishing 21
lad@@ 21
layer 21
lik@@ 21
link 21
logo 21
math 21
meeting 21
modi@@ 21
month 21
moving 21
need 21
nos 21
omer@@ 21
omm@@ 21
ony 21
ook 21
ooth@@ 21
param@@ 21
park 21
plast@@ 21
plem@@ 21
practice 21
pre 21
press@@ 21
provides 21
quarter 21
rd 21
read@@ 21
recognition 21
reflec@@ 21
report 21
response 21
reverse 21
rome 21
sep@@ 21
shaft 21
shire 21
sk 21
spread 21
sting 21
string 21
subject 21
sur 21
swe@@ 21
sych@@ 21
tension 21
tham 21
tly 21
transition 21
try 21
tub@@ 21
tured 21
turing 21
types 21
uka 21
ular@@ 21
vor@@ 21
yer 21
zu@@ 21
ù 21
ł@@ 21
ŋ 21
ʊ 21
Π@@ 21
ג@@ 21
ח@@ 21
॔ 21
ও@@ 21
ষ 21
જ@@ 21
କ@@ 21
ସ@@ 21
బ@@ 21
ಬ@@ 21
ಲ 21
ಹ@@ 21
ೀ@@ 21
അ@@ 21
സ@@ 21
ာ 21
ḥ@@ 21
∞ 21
国 21
Agreement 20
Amazon 20
Ast@@ 20
Back 20
Beau@@ 20
Bed@@ 20
Bengal 20
Bes@@ 20
Camp@@ 20
Case 20
Circ@@ 20
Colle@@ 20
Day@@ 20
Delta 20
Democ@@ 20
Diag@@ 20
Dr 20
Epi@@ 20
Es@@ 20
Evolution 20
Four 20
Generation 20
Haw@@ 20
Head@@ 20
Hot 20
Hyp@@ 20
Iden@@ 20
Int@@ 20
Islamic 20
Jar@@ 20
Johnson 20
Lan@@ 20
Lang@@ 20
Langu@@ 20
Lower 20
Mann@@ 20
Mart@@ 20
Master 20
Math@@ 20
Muse@@ 20
NHL 20
Nak@@ 20
North@@ 20
Out 20
Ph.D. 20
Pho@@ 20
Prize 20
Ras@@ 20
Rod@@ 20
Rural 20
Rus@@ 20
Simon 20
Soli@@ 20
Soviet 20
Squ@@ 20
System@@ 20
TU 20
Test@@ 20
Theatre 20
Therefore 20
Thi@@ 20
Top 20
Tum@@ 20
Whit@@ 20
Youth 20
abe 20
abet@@ 20
acr@@ 20
acting 20
almost 20
aly 20
ancient 20
arius 20
ark@@ 20
assembly 20
aurus 20
ban 20
bear 20
beginning 20
ben@@ 20
bic@@ 20
bir@@ 20
bud@@ 20
career 20
ced 20
competition 20
compl@@ 20
consecutive 20
cover@@ 20
create 20
cub@@ 20
educ@@ 20
eer 20
efficiency 20
eign 20
electricity 20
elles 20
elli@@ 20
emer@@ 20
ento 20
ere@@ 20
eters 20
ettes 20
evolution 20
exact 20
existence 20
fan 20
fast 20
fic@@ 20
fle@@ 20
fron@@ 20
genus 20
ges@@ 20
gia 20
guide 20
harm@@ 20
host 20
hou 20
ians 20
individual 20
inform@@ 20
integration 20
introduced 20
ints 20
iop@@ 20
issue 20
itable 20
itary 20
iter@@ 20
ival@@ 20
kor@@ 20
ku@@ 20
lac@@ 20
lau@@ 20
male 20
marks 20
matches 20
med 20
mem@@ 20
might 20
migration 20
mine 20
mont 20
mouth 20
needs 20
nis 20
note 20
nt 20
ogen 20
older 20
olith@@ 20
ony@@ 20
paper 20
past 20
ped@@ 20
pharm@@ 20
piece 20
players 20
po 20
policy 20
principal 20
provide 20
provided 20
purpose 20
quot@@ 20
rad@@ 20
rage 20
railway 20
reason 20
records 20
revolution 20
rie 20
road 20
roman@@ 20
ror@@ 20
rul@@ 20
separate 20
sie 20
sit@@ 20
soon 20
southern 20
stant 20
stre@@ 20
student 20
tation 20
tech 20
tex@@ 20
thal 20
transm@@ 20
unic@@ 20
uss@@ 20
uted 20
vous 20
want 20
website 20
ween 20
wick@@ 20
wild 20
xi 20
Ø@@ 20
ă@@ 20
ğ@@ 20
ই 20
ষ@@ 20
ਘ 20
ਸ 20
਼ 20
ા 20
ங 20
ப 20
ள@@ 20
ಟ@@ 20
ട 20
ശ@@ 20
န 20
း 20
◆ 20
北@@ 20
民@@ 20
About 19
African 19
Anne 19
Arabic 19
Autom@@ 19
Batt@@ 19
Bell@@ 19
Boh@@ 19
Cape 19
Catal@@ 19
Chen 19
Chur@@ 19
Communic@@ 19
Cultural 19
Disney 19
End@@ 19
Eri@@ 19
Est@@ 19
Fir@@ 19
Flu@@ 19
Fra@@ 19
Fron@@ 19
Gas@@ 19
Geomet@@ 19
Good@@ 19
Guide 19
Hind@@ 19
Horse 19
Imperial 19
Indonesia 19
Inter 19
Lex@@ 19
Link 19
Liter@@ 19
Loc@@ 19
Mari@@ 19
Matthew 19
Maur@@ 19
Motor 19
NASCAR 19
Pel@@ 19
PhD 19
Primary 19
Protection 19
Rand@@ 19
Ray 19
Small 19
Sper@@ 19
Stone 19
Suc@@ 19
Sut@@ 19
Territory 19
Tos@@ 19
Ut@@ 19
Yu@@ 19
aching 19
agi 19
aining 19
alities 19
angu@@ 19
arm 19
asan 19
atch@@ 19
ately 19
ather 19
attitude 19
atum 19
bacter@@ 19
balance 19
becomes 19
becoming 19
biology 19
bits 19
bodies 19
bow 19
bow@@ 19
bran@@ 19
cannot 19
cardi@@ 19
chamber 19
civi@@ 19
cking 19
close 19
colour 19
combination 19
comes 19
commercial 19
connec@@ 19
connection 19
construction 19
continued 19
contract 19
conversion 19
counts 19
cover 19
dark 19
dean 19
demand 19
depth 19
dil@@ 19
diss@@ 19
dom 19
domestic 19
duk@@ 19
eless 19
elin 19
elled 19
ellip@@ 19
emin@@ 19
ener@@ 19
ente 19
epith@@ 19
erv@@ 19
etus 19
exhau@@ 19
extra@@ 19
fare 19
ffe 19
fla@@ 19
fo 19
fort 19
furn@@ 19
future 19
geon 19
gir@@ 19
guitarist 19
hen@@ 19
highest 19
iat@@ 19
idity 19
inci@@ 19
inclu@@ 19
independence 19
influence 19
inner 19
institute 19
iques 19
isha 19
isi 19
ito 19
itted 19
ix@@ 19
jet 19
jug@@ 19
ken 19
kins 19
kul@@ 19
lei@@ 19
library 19
links 19
list@@ 19
longer 19
lus 19
magn@@ 19
mans 19
mas@@ 19
mind 19
motiv@@ 19
native 19
oba 19
odes 19
oi 19
omes 19
oop 19
organization 19
oss 19
owing 19
oxy@@ 19
phenomenon 19
pin 19
plat@@ 19
port 19
ports 19
pping 19
principles 19
private 19
que@@ 19
recognized 19
recorded 19
release 19
remain 19
respon@@ 19
ressed 19
sau@@ 19
scre@@ 19
serve 19
server 19
ski@@ 19
soft 19
sour@@ 19
sover@@ 19
special@@ 19
standing 19
structures 19
su 19
synchron@@ 19
tac@@ 19
tank 19
television 19
tle 19
tot@@ 19
upper 19
uring 19
ury 19
uta 19
vel 19
vention 19
wards 19
why 19
wood@@ 19
xim@@ 19
yana 19
¼ 19
Å@@ 19
Ï@@ 19
Ù@@ 19
én@@ 19
ía 19
ï@@ 19
ǎ@@ 19
ɒ@@ 19
ʰ@@ 19
ʻ@@ 19
Μ@@ 19
τ 19
У@@ 19
މ@@ 19
ট 19
ণ@@ 19
ধ 19
ফ 19
ત@@ 19
அ@@ 19
พ@@ 19
ุ@@ 19
ཐ@@ 19
པ@@ 19
့ 19
ျ@@ 19
ṛ@@ 19
人 19
子 19
字 19
13th 18
14th 18
Action 18
Alph@@ 18
Andrew 18
Art@@ 18
Base 18
Cann@@ 18
Change 18
Citi@@ 18
Cla@@ 18
Complex 18
Crow@@ 18
Do 18
Down@@ 18
Dub@@ 18
During 18
Elizabeth 18
Ent@@ 18
Fas@@ 18
Father 18
Five 18
Frank 18
Freedom 18
Glob@@ 18
Gri@@ 18
Has@@ 18
Hei@@ 18
Hipp@@ 18
Historical 18
Hong 18
Hou@@ 18
How@@ 18
Hul@@ 18
Israel 18
Kav@@ 18
Kong 18
Latin 18
Lif@@ 18
Lili@@ 18
Lot@@ 18
Marath@@ 18
Marie 18
Mark@@ 18
Minister 18
Morgan 18
NAT@@ 18
Nau@@ 18
Naz@@ 18
Over@@ 18
Pach@@ 18
Peak 18
Pent@@ 18
Phar@@ 18
Phosph@@ 18
Planning 18
Price 18
Production 18
Program 18
Punj@@ 18
Rai@@ 18
Rat 18
Rot@@ 18
Rum@@ 18
Russia 18
Sili@@ 18
Sog@@ 18
South@@ 18
Sports 18
Stat@@ 18
Temper@@ 18
Tet@@ 18
Thomson 18
Tower 18
Tree 18
UNESCO 18
Under@@ 18
Vice 18
Viv@@ 18
Will 18
Wo@@ 18
Zar@@ 18
Zu@@ 18
aca 18
aden@@ 18
ader 18
aku 18
algorithm 18
allow 18
alog 18
ancer 18
anim@@ 18
appointed 18
ased 18
ashi 18
asy 18
ate@@ 18
awar@@ 18
believed 18
boundary 18
bu 18
car 18
carp@@ 18
changed 18
cit@@ 18
claimed 18
client 18
coh@@ 18
community 18
compil@@ 18
control@@ 18
cool@@ 18
cov@@ 18
directed 18
discovered 18
dry 18
eit@@ 18
eler@@ 18
eon 18
ester@@ 18
eton 18
events 18
farming 18
fru@@ 18
function@@ 18
fur 18
gery 18
gin 18
got@@ 18
habet 18
heavy 18
hl 18
humans 18
ideas 18
ield 18
ien 18
ille 18
illed 18
increases 18
industrial 18
ingu@@ 18
internet 18
isol@@ 18
issions 18
itz@@ 18
iz 18
kam@@ 18
know 18
kov@@ 18
lem@@ 18
lers 18
lett 18
lined 18
location 18
lution 18
marketing 18
meas@@ 18
metall@@ 18
mile 18
neutr@@ 18
o. 18
ochem@@ 18
olo@@ 18
olymp@@ 18
ords 18
oud 18
pain 18
party 18
pas@@ 18
politics 18
predic@@ 18
probability 18
publi@@ 18
regions 18
rev@@ 18
rot 18
sand@@ 18
sci@@ 18
shape 18
shore 18
spon@@ 18
stand 18
ste 18
stig@@ 18
stip@@ 18
stop 18
stories 18
straight 18
super 18
tend@@ 18
thing 18
ties 18
traditional 18
train 18
travel 18
uan 18
ulating 18
ulsion 18
unk@@ 18
vessel 18
vest@@ 18
voc@@ 18
whom 18
with@@ 18
zi 18
én 18
ñ 18
ño 18
Ā@@ 18
ư@@ 18
ɐ 18
ɐ@@ 18
ʿ@@ 18
Ε@@ 18
ή 18
э@@ 18
ס@@ 18
ת@@ 18
غ 18
َ 18
গ 18
ਅ@@ 18
ਿ 18
ં@@ 18
ી@@ 18
ା 18
ள 18
చ@@ 18
ే@@ 18
ో@@ 18
ര 18
ง@@ 18
န@@ 18
ု 18
ွ@@ 18
℃ 18
← 18
山 18
本 18
， 18
AZ 17
Ab 17
Abu 17
Alp@@ 17
Alternative 17
Andro@@ 17
BW@@ 17
Because 17
Body 17
Bow@@ 17
Can 17
Catholic 17
Census 17
Chor@@ 17
Cricket 17
Dah@@ 17
Dog 17
Dw@@ 17
Economy 17
Ein@@ 17
Europ@@ 17
External 17
Eye 17
F.C. 17
Forces 17
Fres@@ 17
Ful@@ 17
Garden 17
Gob@@ 17
HK 17
Horiz@@ 17
Hos@@ 17
Ice 17
Jr 17
Justice 17
Lawrence 17
Lec@@ 17
Liberation 17
Lud@@ 17
Maxim@@ 17
Mill@@ 17
Mong@@ 17
Nad@@ 17
Ng@@ 17
Pall@@ 17
Peninsula 17
Personal 17
Phil@@ 17
Politics 17
Potter 17
Prem@@ 17
Rick@@ 17
Roman@@ 17
Ry@@ 17
Sach@@ 17
Sci@@ 17
Scott 17
Sex 17
Song 17
Standards 17
Store 17
Supreme 17
Team 17
Telec@@ 17
Tem@@ 17
Than@@ 17
Therap@@ 17
Tour 17
Toyota 17
View 17
Volume 17
Vul@@ 17
Work@@ 17
Wright 17
acks 17
ading 17
agen@@ 17
aircraft 17
allowed 17
aman 17
anas 17
anne 17
anter@@ 17
anza 17
astro@@ 17
ather@@ 17
ause 17
authority 17
awards 17
belt 17
blast 17
boy 17
brought 17
bury 17
cam@@ 17
canal 17
cann@@ 17
cau@@ 17
character 17
cians 17
circular 17
committee 17
conf@@ 17
connected 17
consisting 17
constitu@@ 17
containing 17
corpor@@ 17
corresponding 17
counter@@ 17
criticized 17
cultural 17
dan 17
defeated 17
degrees 17
denomin@@ 17
described 17
dich@@ 17
differences 17
dischar@@ 17
dual 17
effective 17
eggs 17
engl@@ 17
enor@@ 17
estimated 17
ety 17
existing 17
feature 17
fem@@ 17
fi 17
focus 17
followed 17
gear 17
gers 17
hl@@ 17
holds 17
ido 17
ific 17
ific@@ 17
iga 17
ij@@ 17
increased 17
instruments 17
interactions 17
iro 17
istry 17
kan 17
kit 17
kness 17
lag 17
lar 17
leb@@ 17
liber@@ 17
lich@@ 17
ling@@ 17
lists 17
may@@ 17
mean@@ 17
median 17
message 17
nah@@ 17
navig@@ 17
notes 17
ny 17
oes 17
offer 17
ographical 17
ordinary 17
osaurus 17
osyn@@ 17
otyp@@ 17
ovi@@ 17
owle@@ 17
pattern 17
persons 17
philosoph@@ 17
pitch 17
poll@@ 17
portal 17
portion 17
pro 17
profile 17
pure 17
qi 17
quet 17
rain 17
rations 17
relief 17
retro@@ 17
rich 17
ricity 17
rin 17
rise 17
rix 17
sac@@ 17
scape 17
sciences 17
scriptions 17
sensitive 17
served 17
signed 17
silver 17
sit 17
skin 17
steam 17
stit@@ 17
stream 17
suff@@ 17
switch 17
system@@ 17
taking 17
techniques 17
tern 17
tery 17
tos@@ 17
tru@@ 17
uch 17
uer@@ 17
uf 17
uniform 17
users 17
uter@@ 17
uth 17
variation 17
ven 17
vent 17
versi@@ 17
vertical 17
vic 17
virtual 17
wah@@ 17
winning 17
wo@@ 17
work@@ 17
ws 17
zan 17
Ì@@ 17
å@@ 17
ò@@ 17
ú 17
ě@@ 17
ı 17
Š@@ 17
З@@ 17
қ@@ 17
ө@@ 17
ר 17
ض 17
ܝ@@ 17
ॼ@@ 17
ৃ@@ 17
ো 17
ਆ@@ 17
ੂ@@ 17
ક@@ 17
ો@@ 17
େ@@ 17
ண 17
ண@@ 17
ய 17
ழ 17
ద 17
య 17
ส@@ 17
ἀ@@ 17
─ 17
小@@ 17
新@@ 17
ﷺ 17
0.000 16
1. 16
10th 16
16th 16
Afghanistan 16
Alliance 16
Annual 16
Antarctic 16
Asc@@ 16
Atlantic 16
Atom@@ 16
Beh@@ 16
Bisch@@ 16
Bla@@ 16
Bom@@ 16
Boston 16
Boys 16
Bull 16
But 16
Car 16
Champ@@ 16
Children 16
Coc@@ 16
Columbia 16
Commerce 16
Connec@@ 16
Conservation 16
Cross 16
Dance 16
Dau@@ 16
Despite 16
Diam@@ 16
Editor 16
Egyptian 16
Ek@@ 16
Exec@@ 16
Experim@@ 16
Federal 16
Fire@@ 16
Fort@@ 16
Franc@@ 16
Franç@@ 16
Gall@@ 16
Gast@@ 16
Gil@@ 16
Gom@@ 16
HMS 16
Hab@@ 16
Haz@@ 16
Heinrich 16
Histor@@ 16
Hit@@ 16
Hollywood 16
Howard 16
Isaac 16
Italian 16
Jack 16
Jews 16
Jose 16
Jun@@ 16
Kom@@ 16
Kut@@ 16
Lem@@ 16
Literature 16
Low@@ 16
Malay@@ 16
Map@@ 16
Medic@@ 16
Memorial 16
Mercury 16
Mohammad 16
Motors 16
Official 16
Oh@@ 16
Oil 16
Or 16
Over 16
Pati@@ 16
Pau@@ 16
Penn@@ 16
Pla@@ 16
Play 16
Play@@ 16
Police 16
Priv@@ 16
Private 16
Proper@@ 16
Religion 16
Renault 16
Row@@ 16
Sau@@ 16
Sched@@ 16
Seg@@ 16
Sham@@ 16
Song@@ 16
Spi@@ 16
St 16
Table 16
Text 16
Thé@@ 16
Tibet@@ 16
Tou@@ 16
Va@@ 16
Wat@@ 16
West@@ 16
Williams 16
Years 16
Your 16
Zam@@ 16
Zone 16
abol@@ 16
aces 16
aceuti@@ 16
activities 16
ades 16
adv@@ 16
agon@@ 16
ahr@@ 16
alists 16
alized 16
alla 16
aller 16
alone 16
ample 16
ancing 16
antis@@ 16
approach 16
ares 16
arian 16
arta 16
arts 16
asant 16
aste 16
attempt 16
aug@@ 16
bach 16
bay@@ 16
benef@@ 16
brand@@ 16
break@@ 16
bron@@ 16
build 16
buildings 16
calendar 16
camera 16
cant@@ 16
capture 16
carrier 16
channel 16
chor@@ 16
cili@@ 16
cities 16
cold 16
column 16
commer@@ 16
concent@@ 16
constructed 16
contrac@@ 16
cutting 16
cycles 16
database 16
daughter 16
decided 16
declared 16
define 16
depend@@ 16
dered 16
dial@@ 16
dir@@ 16
disc 16
drawn 16
dt 16
edges 16
educational 16
efforts 16
egra@@ 16
eig@@ 16
eight 16
ences 16
endant 16
ened 16
engines 16
ength 16
engu@@ 16
enne 16
ention 16
entire 16
enzyme 16
epp@@ 16
erh@@ 16
ers@@ 16
esses 16
eting 16
etta 16
etz@@ 16
exist 16
experimental 16
fe 16
fifth 16
finance 16
fro@@ 16
gauge 16
geograph@@ 16
gio 16
going 16
gru@@ 16
hero 16
hin 16
histor@@ 16
hop 16
hour 16
ial@@ 16
ician 16
idation 16
identif@@ 16
iler 16
ima 16
impact 16
intro@@ 16
investment 16
ios@@ 16
irs 16
isch 16
isch@@ 16
isen 16
island 16
izes 16
jar@@ 16
keep 16
kingdom 16
ldwide 16
marriage 16
mill@@ 16
minimum 16
moun@@ 16
musical 16
nation@@ 16
neut@@ 16
noise 16
nor 16
northern 16
objects 16
ocket 16
ocks 16
ocol 16
oid@@ 16
omen 16
omin@@ 16
ommunic@@ 16
onents 16
oos 16
opes 16
oration 16
orn 16
orting 16
osi@@ 16
otted 16
oun 16
overall 16
overs 16
owed 16
pair 16
parent 16
peer 16
pend@@ 16
pist@@ 16
places 16
plant@@ 16
plates 16
playing 16
plying 16
prem@@ 16
printing 16
produces 16
programs 16
pron@@ 16
ps@@ 16
rant 16
rar@@ 16
reach 16
reless 16
rent 16
reported 16
restri@@ 16
retired 16
revi@@ 16
review 16
rian 16
rice 16
ridge 16
rogen 16
satis@@ 16
scri@@ 16
secure 16
separation 16
sheet 16
solutions 16
sons 16
spre@@ 16
stab@@ 16
stable 16
sto@@ 16
store 16
sty@@ 16
tap@@ 16
teaching 16
teams 16
tern@@ 16
tests 16
tos 16
transformation 16
tre 16
trem@@ 16
tum 16
uba 16
ucle@@ 16
ult 16
ult@@ 16
ument 16
universal 16
utation 16
vehicle 16
went 16
wich 16
wire 16
woman 16
xed 16
yang 16
 16
ª@@ 16
Â@@ 16
Ö@@ 16
Ù 16
ê 16
ö 16
đ@@ 16
ʌ@@ 16
Е@@ 16
ث 16
گ 16
ऎ 16
मुंब@@ 16
ગ@@ 16
હ@@ 16
ତ@@ 16
ନ 16
ஸ 16
అ@@ 16
ీ@@ 16
ಚ@@ 16
ಜ@@ 16
ദ@@ 16
ง 16
ཁ@@ 16
བ 16
ུ 16
ắ@@ 16
ồ@@ 16
☃ 16
♭ 16
の@@ 16
南@@ 16
漢@@ 16
한@@ 16
﻿ 16
12th 15
ARD 15
Affairs 15
Alex@@ 15
Alg@@ 15
Analy@@ 15
Ank@@ 15
Asi@@ 15
Bad 15
Baj@@ 15
Band 15
Bird 15
Blu@@ 15
Boy 15
Britain 15
Cath@@ 15
Centr@@ 15
Championship 15
Chat@@ 15
Clin@@ 15
Commons 15
County 15
Cran@@ 15
Criminal 15
Crown 15
Daniel 15
Denmark 15
Diamond 15
Doctor 15
Emer@@ 15
Emperor 15
Enter@@ 15
Euro@@ 15
Even 15
Exper@@ 15
Finance 15
Fuj@@ 15
Full 15
Future 15
Gab@@ 15
German@@ 15
Goo@@ 15
Greater 15
Gug@@ 15
Guinea 15
Hay@@ 15
Hun@@ 15
Hus@@ 15
Inst@@ 15
Insur@@ 15
Joe 15
Jones 15
Kerala 15
Kim@@ 15
Len@@ 15
Lip@@ 15
Lis@@ 15
Lov@@ 15
Marine 15
Market 15
Masters 15
Mig@@ 15
Miller 15
Musi@@ 15
Nacional 15
Notes 15
Off@@ 15
Olympics 15
Online 15
Otto 15
Our 15
Pack@@ 15
Person@@ 15
Pharm@@ 15
Phase 15
Philip 15
Province 15
Que@@ 15
RAF 15
Raja 15
Rein@@ 15
Respon@@ 15
Rho@@ 15
Roy 15
Secondary 15
Sle@@ 15
Sou@@ 15
Species 15
Spl@@ 15
Sty@@ 15
Sult@@ 15
Ten 15
Thor@@ 15
Tob@@ 15
Tom 15
Victor 15
Wales 15
Wan@@ 15
Wind 15
Wood@@ 15
abase 15
abstra@@ 15
ación 15
add 15
ahl 15
akes 15
alisation 15
amen 15
any@@ 15
apa 15
ape 15
app 15
appar@@ 15
applications 15
ason 15
atively 15
atri@@ 15
attri@@ 15
aun@@ 15
bill 15
burg 15
call 15
characteristic 15
citizens 15
classical 15
clock 15
codi@@ 15
competed 15
conscious 15
contain 15
converted 15
cour@@ 15
craft 15
critics 15
cultiv@@ 15
currency 15
cy 15
cycl@@ 15
damage 15
dedicated 15
dest@@ 15
dim@@ 15
dimensi@@ 15
discipl@@ 15
diseases 15
dit@@ 15
ears 15
edited 15
ef 15
eg 15
eins 15
eled 15
eni 15
entry 15
ept 15
erk@@ 15
esch@@ 15
esi 15
etti 15
evalu@@ 15
examples 15
fab@@ 15
faction 15
feed 15
feet 15
femin@@ 15
finish 15
fir@@ 15
foc@@ 15
foli@@ 15
fun@@ 15
fy 15
gem@@ 15
giving 15
glac@@ 15
goal 15
grade 15
graduate 15
gri@@ 15
hands 15
hardware 15
hospital 15
iling 15
iller 15
illo 15
intermediate 15
iny 15
isc@@ 15
ished 15
jects 15
kid@@ 15
kir@@ 15
kun@@ 15
lack 15
lake 15
launched 15
leaders 15
letters 15
likely 15
limit@@ 15
liter@@ 15
lun@@ 15
mas 15
master 15
maxim@@ 15
measured 15
mon 15
moved 15
nosis 15
noted 15
nov@@ 15
numerous 15
nut 15
odes@@ 15
oles 15
oods 15
oted 15
ource 15
oxygen 15
particularly 15
perfect 15
pers@@ 15
pill@@ 15
plain 15
planet 15
pneum@@ 15
pp 15
pren@@ 15
pup@@ 15
racy 15
radical 15
rau@@ 15
referred 15
rein@@ 15
represent 15
rik 15
rings 15
sample 15
sanc@@ 15
sei@@ 15
selected 15
semi@@ 15
share 15
simp@@ 15
slow 15
song 15
songs 15
stim@@ 15
street 15
structural 15
succ@@ 15
suffered 15
supported 15
tain 15
tat 15
technical 15
termin@@ 15
them@@ 15
theor@@ 15
think 15
tificial 15
transport 15
tribes 15
truth 15
té 15
ug 15
venti@@ 15
venture 15
verb@@ 15
victory 15
views 15
visible 15
vs. 15
was@@ 15
waste 15
weeks 15
wide 15
yard 15
zes 15
zy 15
¡ 15
École 15
Ü 15
ár@@ 15
ère 15
ín 15
ü 15
ý@@ 15
Τ@@ 15
ދ@@ 15
ऺ 15
হ 15
ৌ@@ 15
ਕ 15
ਨ 15
ୁ@@ 15
இ@@ 15
ஜ@@ 15
ಅ@@ 15
ೋ@@ 15
ച@@ 15
ണ@@ 15
പ 15
ൂ@@ 15
ോ@@ 15
ཆ@@ 15
ạ@@ 15
⅓ 15
↔ 15
≠ 15
☑ 15
イ@@ 15
一@@ 15
文@@ 15
明@@ 15
1960s 14
1990s 14
21st 14
Abb@@ 14
Abdul@@ 14
Access 14
Administrative 14
Ahmed 14
Albert 14
Ander@@ 14
Are 14
Aristot@@ 14
August@@ 14
Austral@@ 14
Bank@@ 14
Bast@@ 14
Benz 14
Bish@@ 14
Bit@@ 14
Boll@@ 14
Bomb@@ 14
Box@@ 14
Broad@@ 14
Bron@@ 14
Brown 14
Buch@@ 14
Bun@@ 14
Bus 14
Caes@@ 14
Caribbean 14
Castle 14
Chrys@@ 14
Classical 14
Cler@@ 14
Communications 14
Cov@@ 14
Cross@@ 14
Cum@@ 14
Das 14
Death 14
Deutschland 14
Dou@@ 14
Edition 14
Ernst 14
Ethn@@ 14
Event 14
FK 14
Fa@@ 14
Fair@@ 14
Form@@ 14
Geography 14
Gog@@ 14
Gos@@ 14
Gujar@@ 14
Hayes 14
Heavy 14
Heb@@ 14
Hell@@ 14
Hen@@ 14
Holy 14
Hot@@ 14
Indians 14
Indu@@ 14
Jak@@ 14
Judi@@ 14
Kau@@ 14
Ken@@ 14
Kid@@ 14
Late 14
Leo 14
Level 14
Lig@@ 14
Light@@ 14
Living 14
Lond@@ 14
Marathon 14
Marx 14
Maxwell 14
Member 14
Mim@@ 14
Mind 14
Ministry 14
Minor 14
Missi@@ 14
Mou@@ 14
Mountain 14
Movie 14
Nab@@ 14
Nation 14
Nerv@@ 14
Never 14
Nob@@ 14
Nur@@ 14
Offic@@ 14
Opera 14
Pag@@ 14
Palace 14
Pear@@ 14
Pictures 14
Pion@@ 14
Pit@@ 14
Planet 14
Presi@@ 14
Prob@@ 14
Qual@@ 14
Reh@@ 14
Relig@@ 14
Renaissance 14
Resources 14
Ring 14
Roll@@ 14
Sep@@ 14
Singapore 14
Site 14
Son 14
Spar@@ 14
Stri@@ 14
Studios 14
Tah@@ 14
Tai@@ 14
Take 14
Territ@@ 14
Today 14
Tour@@ 14
Using 14
Vill@@ 14
Vision 14
Voice 14
Where 14
Will@@ 14
Wilson 14
Wood 14
Zealand 14
a. 14
acle 14
adding 14
ags 14
agu@@ 14
alt 14
alternative 14
ames 14
analog@@ 14
ando 14
anes 14
ange@@ 14
ante 14
apparent 14
appear 14
arab@@ 14
arbit@@ 14
ario 14
aru 14
aster 14
atories 14
audi@@ 14
auss 14
banking 14
bau@@ 14
bet 14
biological 14
bli@@ 14
border 14
boys 14
branch 14
call@@ 14
camp@@ 14
chart 14
cies 14
cinema 14
cium 14
coal 14
command 14
compositions 14
configuration 14
cons@@ 14
correct 14
cup 14
daily 14
dal@@ 14
dated 14
dering 14
digit@@ 14
distur@@ 14
divisions 14
dol@@ 14
dress 14
drug 14
drum 14
eases 14
ees 14
eia 14
elt 14
employment 14
encies 14
enger 14
ented 14
entrepren@@ 14
eties 14
except 14
experiments 14
explan@@ 14
faces 14
failed 14
fat 14
fee 14
females 14
ffer 14
finished 14
fix@@ 14
folk 14
forming 14
found@@ 14
founder 14
fs 14
ful@@ 14
gan 14
garden 14
gast@@ 14
gau@@ 14
ged@@ 14
gel@@ 14
gement 14
genet@@ 14
goes 14
gramm@@ 14
growing 14
guitar@@ 14
hail 14
heim 14
hel 14
hit 14
hood 14
hua 14
iel@@ 14
iens 14
ily 14
iner 14
ingly 14
ingo 14
involving 14
itus 14
izer 14
jana 14
lain 14
lem 14
loo 14
low@@ 14
maker 14
mamm@@ 14
manip@@ 14
medal 14
minister 14
minutes 14
models 14
multi 14
mun@@ 14
musi@@ 14
necessary 14
ned 14
nia 14
nomin@@ 14
nun 14
ole@@ 14
olis 14
ollar 14
omorph@@ 14
onder@@ 14
oner 14
online 14
open@@ 14
operator 14
orium 14
oso 14
otechn@@ 14
otta 14
ought 14
ound@@ 14
ounding 14
ounds 14
pac@@ 14
passed 14
pay 14
perf@@ 14
person@@ 14
pes 14
plan 14
plo@@ 14
precip@@ 14
push 14
quoted 14
rand@@ 14
recent 14
rect@@ 14
ren 14
rene 14
repeated 14
replaced 14
rever@@ 14
rid 14
ridor 14
rik@@ 14
rill 14
rite 14
riv@@ 14
rod 14
rol 14
runner 14
secre@@ 14
sense 14
setting 14
ship@@ 14
ships 14
shock 14
situated 14
sively 14
soul 14
specific@@ 14
speech 14
sports 14
stated 14
statist@@ 14
stra 14
tail 14
tak@@ 14
talk 14
tary 14
techn@@ 14
technique 14
teen 14
teeth 14
thre@@ 14
thur 14
thy 14
tier 14
trading 14
triple 14
twice 14
ugh 14
ushing 14
variety 14
vine 14
volcan@@ 14
warf 14
wei@@ 14
weigh@@ 14
whether 14
writers 14
ywood 14
zum@@ 14
© 14
¶ 14
Î@@ 14
Ø 14
ör@@ 14
ơ@@ 14
ɑ 14
ɡ 14
с 14
х 14
ֵ@@ 14
ז@@ 14
ॻ@@ 14
ਭ@@ 14
੍ 14
અ@@ 14
ି 14
ం 14
ಣ@@ 14
ಪ 14
ಳ@@ 14
ಶ 14
റ@@ 14
ะ@@ 14
လ@@ 14
ီ@@ 14
ᱟ@@ 14
ṅ@@ 14
♦ 14
三@@ 14
和@@ 14
市 14
西@@ 14
金@@ 14
ꯤ@@ 14
￱ 14
.m. 13
17th 13
1980s 13
3. 13
Abraham 13
Absol@@ 13
Adi@@ 13
Arab@@ 13
Bene@@ 13
Benjamin 13
Blan@@ 13
Bombay 13
Brothers 13
Bry@@ 13
Bug@@ 13
Bus@@ 13
Cay@@ 13
Charlie 13
Chev@@ 13
Chil@@ 13
Chir@@ 13
Cho@@ 13
Circle 13
Clar@@ 13
Classic 13
Cloud 13
Cob@@ 13
Command 13
Conserv@@ 13
Continental 13
Cul@@ 13
Cust@@ 13
Das@@ 13
Deh@@ 13
Deutsche 13
Dipl@@ 13
Economics 13
Eg@@ 13
Examples 13
FDP 13
Fame 13
Feder@@ 13
Ferdinand 13
Final 13
Flo@@ 13
Forbes 13
Formula 13
Gallery 13
Gib@@ 13
Giovanni 13
Girl 13
Glass 13
Gordon 13
Herbert 13
Hong@@ 13
Hypo@@ 13
Ident@@ 13
Ing@@ 13
Jac@@ 13
José 13
Julian 13
Jung@@ 13
Junior 13
Just 13
Kaw@@ 13
Kil@@ 13
Koll@@ 13
Less@@ 13
Ley@@ 13
Lic@@ 13
Lik@@ 13
Lod@@ 13
Loh@@ 13
Lut@@ 13
Mam@@ 13
Manager 13
Mercedes 13
Mom@@ 13
Mr@@ 13
Nepal 13
Oce@@ 13
Ord@@ 13
Ou@@ 13
Past@@ 13
Pend@@ 13
Phili@@ 13
Pok@@ 13
Port@@ 13
Principal 13
Professional 13
Programme 13
Report 13
Rox@@ 13
Roy@@ 13
Sabha 13
Salv@@ 13
Salvador 13
Samuel 13
Santiago 13
Say@@ 13
Scar@@ 13
Scotland 13
Set@@ 13
Signal 13
Similarly 13
Socialist 13
Spanish 13
Spin@@ 13
Spir@@ 13
Swiss 13
Tag 13
Task 13
Tat@@ 13
Television 13
Theod@@ 13
Thompson 13
Transport 13
Tunnel 13
Under 13
Unit 13
Veg@@ 13
Vent@@ 13
Veter@@ 13
Vide@@ 13
Walter 13
Zero 13
aal 13
abbrevi@@ 13
abilities 13
accoun@@ 13
acher 13
acquisition 13
activ@@ 13
acu@@ 13
address 13
adership 13
advantage 13
agan 13
aggregate 13
ahn@@ 13
allen 13
alogue 13
already 13
aming 13
armed 13
arranged 13
aters 13
athan 13
atmosphere 13
attention 13
avoid 13
battery 13
battle 13
beautiful 13
behind 13
bone 13
bro 13
cable 13
cap 13
cataly@@ 13
catch 13
cham@@ 13
chess 13
circul@@ 13
cked 13
claims 13
coc@@ 13
coming 13
conductor 13
consist@@ 13
consists 13
contains 13
contra@@ 13
copper 13
cost@@ 13
creation 13
cylinder 13
decis@@ 13
dell 13
democracy 13
deo 13
det 13
diction 13
difficult 13
doctrine 13
draw 13
dru@@ 13
eal@@ 13
earlier 13
educated 13
edy 13
employ@@ 13
enberg 13
entered 13
entes 13
enting 13
enza 13
eor@@ 13
establish 13
etter 13
expanded 13
experience 13
extrem@@ 13
facts 13
fall@@ 13
falls 13
fate 13
fined 13
flight 13
folio 13
foot 13
forests 13
fully 13
functional 13
fung@@ 13
für 13
gained 13
games 13
geb@@ 13
gets 13
glomer@@ 13
gres@@ 13
gue 13
gun@@ 13
hen 13
hybri@@ 13
hybrid 13
hydrogen 13
ift 13
iger 13
ikan@@ 13
illes 13
illing 13
individuals 13
initial 13
integrated 13
investig@@ 13
irc@@ 13
isher 13
justice 13
kab@@ 13
kat@@ 13
killed 13
label 13
lap 13
law@@ 13
ld 13
lear@@ 13
leg 13
lein 13
lement 13
lications 13
lu 13
mainly 13
mak@@ 13
makes 13
markets 13
married 13
mediate 13
miner@@ 13
mitt@@ 13
mixture 13
mob@@ 13
mov@@ 13
mur@@ 13
neum@@ 13
nur@@ 13
observed 13
occup@@ 13
olo 13
opsis 13
origin@@ 13
oti@@ 13
paid 13
parties 13
persi@@ 13
ples 13
poin@@ 13
powers 13
praised 13
pression 13
professional 13
projec@@ 13
proper 13
protect 13
protection 13
province 13
question 13
random 13
rank 13
rapid 13
ratic 13
reached 13
refer 13
refers 13
reform 13
rements 13
represented 13
representing 13
reser@@ 13
riage 13
rico 13
ries 13
ril 13
rolling 13
s. 13
saf@@ 13
says 13
screen@@ 13
seed 13
sex@@ 13
shaped 13
smaller 13
soli@@ 13
sor 13
spirit 13
stand@@ 13
stars 13
statistics 13
sult@@ 13
tain@@ 13
tations 13
temp@@ 13
tent@@ 13
terminal 13
thet@@ 13
thin 13
thousand 13
tified 13
tigen 13
tin 13
tis 13
trau@@ 13
trol@@ 13
typically 13
uly 13
ument@@ 13
university 13
ups 13
uter 13
uts 13
valley 13
vary 13
virtu@@ 13
voice 13
voiced 13
vs 13
wand@@ 13
warfare 13
whilst 13
wick 13
widely 13
worldwide 13
ym 13
Ç@@ 13
ë 13
ò 13
ù@@ 13
ý 13
þ@@ 13
ɹ@@ 13
Σ 13
з 13
ё@@ 13
ׁ@@ 13
ד 13
ז 13
ע 13
ؤ@@ 13
ٹ 13
ު 13
ऺ@@ 13
ঘ@@ 13
ছ@@ 13
ਬ 13
ન 13
ભ@@ 13
સ@@ 13
ુ@@ 13
ହ@@ 13
எ@@ 13
ழ@@ 13
ట@@ 13
డ 13
హ@@ 13
ೂ@@ 13
ം@@ 13
ീ@@ 13
ൃ@@ 13
ම@@ 13
ස@@ 13
ු@@ 13
ด@@ 13
ล@@ 13
ཀ@@ 13
ན@@ 13
པ 13
စ@@ 13
ည 13
ა@@ 13
ម@@ 13
‑ 13
☉ 13
人@@ 13
天@@ 13
東@@ 13
海@@ 13
김@@ 13
 13
1,5 12
11th 12
25th 12
AFC 12
Adv@@ 12
Afgh@@ 12
Alan 12
Amé@@ 12
Anthrop@@ 12
Assi@@ 12
Avi@@ 12
Aw@@ 12
Bapti@@ 12
Barb@@ 12
Barn@@ 12
Big@@ 12
Blin@@ 12
Boeing 12
Camp 12
Cardi@@ 12
Career 12
Cathedral 12
Chr@@ 12
Clo@@ 12
Coch@@ 12
Compan@@ 12
Compl@@ 12
Constitution 12
Crit@@ 12
Dark 12
Desert 12
Di 12
Director 12
Distribution 12
Domin@@ 12
Double 12
Due 12
Emir@@ 12
Ev@@ 12
Executive 12
Fam@@ 12
Fic@@ 12
Figh@@ 12
Form 12
Forum 12
Fundam@@ 12
Gay@@ 12
Girls 12
Gly@@ 12
Govern@@ 12
Graham 12
Ground 12
Haf@@ 12
Hak@@ 12
Hansen 12
Hast@@ 12
Hav@@ 12
Hear@@ 12
Helm@@ 12
Hey@@ 12
Higher 12
Hoo@@ 12
Imag@@ 12
Instr@@ 12
Just@@ 12
KK 12
Kay@@ 12
Kend@@ 12
Key@@ 12
King@@ 12
Kings 12
Kop@@ 12
Kri@@ 12
Left 12
Lil@@ 12
Lind@@ 12
Lit@@ 12
Liv@@ 12
Local 12
Lost 12
Lou@@ 12
Luc@@ 12
Mall@@ 12
Manufac@@ 12
Marqu@@ 12
Mei@@ 12
Monte 12
Mrs. 12
Nath@@ 12
Nation@@ 12
Neb@@ 12
Nel@@ 12
Nick@@ 12
Nintendo 12
Norway 12
Pac@@ 12
Palestinian 12
Philosoph@@ 12
Phoen@@ 12
Phoenix 12
Pier@@ 12
Poli@@ 12
Prac@@ 12
Prime 12
Public@@ 12
Quad@@ 12
Quar@@ 12
Record 12
Return 12
Ric@@ 12
Roch@@ 12
Rogers 12
Rol@@ 12
Ross 12
Russell 12
SPD 12
Sansk@@ 12
Santo 12
Saw@@ 12
Shu@@ 12
Sie@@ 12
Sky 12
Slam 12
Soft@@ 12
Ster@@ 12
Stewart 12
Stor@@ 12
Stro@@ 12
Such 12
Sultan 12
Swe@@ 12
Though 12
Thr@@ 12
Tokyo 12
Town 12
Treat@@ 12
Tube 12
Ug@@ 12
Urs@@ 12
Warren 12
Wars 12
Wild 12
Wimble@@ 12
Wind@@ 12
Zen@@ 12
aber@@ 12
abil@@ 12
abor@@ 12
accum@@ 12
achieved 12
achment 12
acqu@@ 12
actually 12
aded 12
agen 12
ager 12
agers 12
agriculture 12
ailed 12
allest 12
alth 12
amps 12
anger 12
anu 12
approximately 12
arly 12
artists 12
ashed 12
atist@@ 12
awi 12
bands 12
beauty 12
behavior 12
behaviour 12
berry 12
best@@ 12
beyond 12
bla@@ 12
boat 12
bomb 12
bott@@ 12
bul 12
burn 12
bute 12
c. 12
category 12
causes 12
celeb@@ 12
cen@@ 12
choice 12
church 12
chy 12
circulation 12
cket 12
cles 12
club 12
commod@@ 12
concepts 12
conduct 12
consci@@ 12
consumer 12
convention 12
corporation 12
counter 12
cup@@ 12
dah@@ 12
dance 12
deal 12
department 12
determined 12
develop@@ 12
dicine 12
did@@ 12
diversity 12
dn 12
dot@@ 12
dou@@ 12
drinking 12
drop 12
duces 12
elementary 12
elia 12
elimination 12
eman@@ 12
emy 12
enb@@ 12
eno 12
enthal 12
equipment 12
ernity 12
estate 12
etal 12
etto 12
evil 12
examination 12
exclu@@ 12
eyes 12
factory 12
fair 12
fan@@ 12
fat@@ 12
fen@@ 12
fighting 12
finding 12
fires 12
fj@@ 12
ford@@ 12
formations 12
fossi@@ 12
fossil 12
foundation 12
fruit 12
fts 12
g. 12
gap 12
gee 12
gol@@ 12
golden 12
goods 12
gor@@ 12
grid 12
guer@@ 12
happ@@ 12
hearing 12
high@@ 12
highly 12
hob@@ 12
hydrox@@ 12
icated 12
ideal 12
iel 12
ields 12
iff 12
igu@@ 12
iko 12
ime 12
inda 12
ingham 12
inside 12
instance 12
ired 12
iry 12
issu@@ 12
itas 12
itch 12
iza 12
jah@@ 12
joining 12
jung@@ 12
kap@@ 12
kri@@ 12
labour 12
latter 12
lay 12
leaves 12
leng@@ 12
less@@ 12
ligent 12
line@@ 12
ls@@ 12
lying 12
mad 12
marked 12
materi@@ 12
minute 12
mixed 12
motor@@ 12
mult@@ 12
nations 12
nee 12
neo 12
nership 12
nes 12
nig@@ 12
nom@@ 12
oblig@@ 12
oden@@ 12
oding 12
offensive 12
offered 12
old@@ 12
oldest 12
olit@@ 12
omotive 12
onders 12
ool@@ 12
ophone 12
organisation 12
organiz@@ 12
oring 12
orio 12
orts 12
ossa 12
ossi@@ 12
oz@@ 12
pairs 12
papers 12
participated 12
pass@@ 12
perpet@@ 12
phe@@ 12
pir@@ 12
planning 12
plot 12
pod 12
pow@@ 12
powerful 12
presence 12
prey 12
priv@@ 12
procedure 12
producing 12
propri@@ 12
proved 12
quite 12
rang@@ 12
rator 12
raw 12
reactions 12
recognize 12
reli@@ 12
removed 12
resul@@ 12
rett 12
rez 12
roots 12
ross 12
rs 12
rt 12
save 12
schools 12
screen 12
seconds 12
seg@@ 12
sent 12
shall 12
show@@ 12
signs 12
simply 12
ska 12
sod@@ 12
sold 12
something 12
sou@@ 12
speak 12
staff 12
stal@@ 12
stations 12
sten@@ 12
stern@@ 12
stones 12
stored 12
stret@@ 12
sympath@@ 12
symptoms 12
technologies 12
till 12
told 12
toler@@ 12
tool 12
track 12
translated 12
trial 12
uff 12
umi 12
unknown 12
use@@ 12
uto 12
varies 12
vas 12
wait 12
warm 12
will@@ 12
wine 12
winners 12
writings 12
zen@@ 12
zo 12
î@@ 12
ġ@@ 12
Ÿ@@ 12
ά 12
κ 12
ώ@@ 12
г 12
ф@@ 12
ט@@ 12
خ 12
ھ 12
ނ@@ 12
परंप@@ 12
ও 12
ਖ@@ 12
બ@@ 12
લ@@ 12
ଦ@@ 12
ର 12
ୋ@@ 12
త 12
భ@@ 12
ಟ 12
ೊ@@ 12
ല 12
ල@@ 12
ข@@ 12
ค@@ 12
ช@@ 12
ม 12
า 12
แ@@ 12
้ 12
ང@@ 12
တ 12
ე@@ 12
ស@@ 12
ῖ@@ 12
ℓ 12
∆ 12
∈ 12
ン 12
公@@ 12
山@@ 12
式@@ 12
日 12
道 12
🙏 12
1920@@ 11
Abd@@ 11
Academic 11
Adap@@ 11
Alf@@ 11
Architecture 11
Aster@@ 11
Bach@@ 11
Baptist 11
Bear 11
Beck@@ 11
Benz@@ 11
Cand@@ 11
Carlo 11
Cat 11
Celeb@@ 11
Chairman 11
Chel@@ 11
Chenn@@ 11
Cock@@ 11
Constant@@ 11
Cour@@ 11
Dest@@ 11
Develop@@ 11
Dial@@ 11
Die@@ 11
Dog@@ 11
Duke 11
Dutch 11
Excell@@ 11
Fall@@ 11
Fon@@ 11
Frank@@ 11
Frequ@@ 11
Galax@@ 11
Gesellschaft 11
Gradu@@ 11
Gulf 11
Hamm@@ 11
Hed@@ 11
Hermann 11
Hop@@ 11
Hybri@@ 11
Id@@ 11
Isl@@ 11
Johannes 11
Jon@@ 11
Kaiser 11
Kaz@@ 11
Kem@@ 11
Kim 11
Klein 11
Konstanz 11
Kov@@ 11
Las@@ 11
Lob@@ 11
Lom@@ 11
Lt@@ 11
Luis 11
MLB 11
Magn@@ 11
Male 11
Martha 11
Medal 11
Members 11
Mich@@ 11
Monte@@ 11
Motor@@ 11
Nem@@ 11
Nicol@@ 11
Nova 11
Opp@@ 11
Palm 11
Pan 11
Parad@@ 11
Pass 11
Peg@@ 11
Peter@@ 11
Pre 11
Racing 11
Raf@@ 11
Rail 11
Raz@@ 11
Refer@@ 11
Regional 11
Reserve 11
Revol@@ 11
Rich@@ 11
Roger 11
Rou@@ 11
Rudolf 11
Safety 11
Salt 11
Satur@@ 11
Sche@@ 11
Schools 11
Secret 11
Sierra 11
Sign@@ 11
Sli@@ 11
Songs 11
Spring 11
Stan@@ 11
Steel 11
Stein@@ 11
Stell@@ 11
Stephen 11
Sup@@ 11
Switzerland 11
Tas@@ 11
Te 11
Tex@@ 11
Tig@@ 11
Tow@@ 11
Trail 11
Trans 11
Trust 11
Turk@@ 11
Typ@@ 11
Vall@@ 11
Vert@@ 11
WM 11
Walker 11
Watson 11
Wit@@ 11
Yellow 11
aber 11
acco 11
acio 11
acker 11
aco 11
adas 11
ador 11
advanced 11
advant@@ 11
aesth@@ 11
agi@@ 11
agreed 11
ails 11
ained 11
aint 11
aith@@ 11
alloc@@ 11
alo 11
ambi@@ 11
anding 11
angs@@ 11
anning 11
annual 11
ante@@ 11
aque 11
argument 11
asch@@ 11
ask 11
aspect 11
asure 11
atures 11
atz 11
aum 11
authors 11
aver 11
bak@@ 11
bee 11
behavi@@ 11
bek@@ 11
belief 11
bid 11
biography 11
borough 11
bound 11
brand 11
breeding 11
bund@@ 11
cab@@ 11
celebrated 11
centuries 11
chapter 11
chen@@ 11
chn@@ 11
cho 11
ckets 11
classes 11
cluster 11
comb@@ 11
comparison 11
compens@@ 11
consequences 11
consider 11
consum@@ 11
conven@@ 11
convers@@ 11
coron@@ 11
cot@@ 11
cust@@ 11
damp@@ 11
dates 11
deb@@ 11
declar@@ 11
deep@@ 11
deli@@ 11
description 11
diam@@ 11
dict@@ 11
distinction 11
document@@ 11
drive 11
duty 11
eck 11
econom@@ 11
ecraft 11
ected 11
eigh@@ 11
eili@@ 11
eld 11
elimin@@ 11
elt@@ 11
ematic 11
empty 11
enses 11
eper 11
erc@@ 11
erup@@ 11
ests 11
ets@@ 11
eventh 11
exists 11
extra 11
fashion 11
festival 11
fight 11
filled 11
filter 11
fine 11
founded 11
framework 11
frequently 11
gas@@ 11
getting 11
gg 11
girls 11
grass 11
grow 11
guard 11
gut 11
hill 11
horn 11
host@@ 11
husband 11
ials 11
ican 11
ilfe 11
indicate 11
inhib@@ 11
ink 11
inn 11
inspired 11
interpreted 11
ircul@@ 11
istan 11
itarian 11
itely 11
ition@@ 11
itt 11
itter@@ 11
job 11
labor 11
layers 11
leadership 11
linked 11
literacy 11
lived 11
lv@@ 11
maj@@ 11
managed 11
manif@@ 11
manufacturer 11
mechanism 11
mers 11
mes 11
miles 11
milli@@ 11
mix@@ 11
ms@@ 11
mud 11
nab@@ 11
nik 11
nost@@ 11
obile 11
objective 11
observ@@ 11
obtained 11
ocean 11
ogo 11
oke 11
omp@@ 11
onc@@ 11
onds 11
onomous 11
oons 11
oro 11
oshi 11
ott 11
ovich 11
owa 11
owns 11
pace 11
pages 11
parall@@ 11
parti@@ 11
passengers 11
patterns 11
pen 11
percent 11
performed 11
perhaps 11
periods 11
photo 11
pipe 11
pit@@ 11
planned 11
plans 11
pound 11
pper 11
prehensive 11
previous 11
prin@@ 11
prob@@ 11
prof@@ 11
projects 11
providing 11
regarded 11
regional 11
rence 11
representative 11
require 11
respect 11
rhyth@@ 11
royal 11
safety 11
satellite 11
sbury 11
sch 11
scholars 11
sei 11
separ@@ 11
session 11
showing 11
smo@@ 11
spe@@ 11
speaking 11
sph@@ 11
spi@@ 11
spiration 11
spiritual 11
sta@@ 11
stability 11
stere@@ 11
storm 11
stric@@ 11
success 11
successful 11
sym@@ 11
tei 11
telec@@ 11
tempor@@ 11
theories 11
therap@@ 11
thinking 11
tium 11
torate 11
trees 11
trop@@ 11
trum 11
tun 11
typ@@ 11
umed 11
umen 11
universe 11
unter 11
utn@@ 11
varying 11
veget@@ 11
vian 11
walking 11
waters 11
weather 11
western 11
wid@@ 11
worked 11
yers 11
zin 11
zon 11
zur@@ 11
Ö 11
â 11
ɔ 11
ɕ@@ 11
ɛ 11
ʰ 11
ο 11
Ш@@ 11
ң 11
ә@@ 11
א 11
ۃ 11
ܪ@@ 11
ॠ 11
ॱ 11
খ 11
ঞ 11
থ@@ 11
ਚ@@ 11
ਧ@@ 11
ੁ 11
ੂ 11
છ@@ 11
ણ@@ 11
પ@@ 11
ર 11
િ@@ 11
ନ@@ 11
ீ@@ 11
ట 11
మ 11
ಡ 11
ജ@@ 11
ശ 11
ഷ 11
ഷ@@ 11
ഹ@@ 11
െ@@ 11
ൻ 11
ർ 11
ක@@ 11
ත@@ 11
ය 11
น 11
ဒ@@ 11
မ 11
រ 11
ᱚ@@ 11
↵ 11
る 11
ラ@@ 11
ル@@ 11
主@@ 11
京@@ 11
地@@ 11
家@@ 11
株@@ 11
武@@ 11
自@@ 11
의 11
이 11
인@@ 11
 11
.de 10
1970s 10
4,5 10
Actor 10
Adam 10
Aff@@ 10
Alexand@@ 10
Alice 10
Anderson 10
Anthony 10
Anton@@ 10
Arms 10
Atmosph@@ 10
Bibli@@ 10
Ble@@ 10
Blo@@ 10
Brid@@ 10
Broadcasting 10
Bub@@ 10
Buck@@ 10
Buddh@@ 10
Butter@@ 10
CAR 10
Carn@@ 10
Christmas 10
Cic@@ 10
Colon@@ 10
Colorado 10
Commun@@ 10
Coo@@ 10
Corn@@ 10
Cycl@@ 10
Dag@@ 10
Davis 10
Deep 10
Der 10
Des 10
Descri@@ 10
Dream 10
Dubai 10
East@@ 10
Edmund 10
Ei@@ 10
Eich@@ 10
Enterprise 10
Estab@@ 10
Exp@@ 10
Faith 10
Fall 10
Fiction 10
Films 10
Fro@@ 10
Gabriel 10
Gel@@ 10
Georges 10
Gest@@ 10
Gig@@ 10
Gospel 10
Guadal@@ 10
Guild 10
Hamp@@ 10
Hand 10
Hep@@ 10
Hotel 10
Hut@@ 10
Ibn 10
Ibra@@ 10
Ign@@ 10
Inform@@ 10
Initiative 10
Inqu@@ 10
Ins@@ 10
Internationale 10
Italy 10
Iv@@ 10
Jab@@ 10
Jacob 10
Jacob@@ 10
Jesus 10
Jo 10
KW 10
Lanka 10
Lei@@ 10
Liberty 10
Lie@@ 10
Lub@@ 10
Maced@@ 10
Mar 10
Materi@@ 10
Maurice 10
Moon 10
NCA@@ 10
Names 10
Nich@@ 10
Nis@@ 10
Nou@@ 10
Nun@@ 10
Olymp@@ 10
Pam@@ 10
Patrick 10
Pis@@ 10
Plast@@ 10
Pod@@ 10
Prim@@ 10
Rail@@ 10
Rain@@ 10
Rank@@ 10
Republi@@ 10
Reser@@ 10
Rest@@ 10
Rhy@@ 10
Robin 10
Rolling 10
Room 10
Rut@@ 10
SSR 10
Sant 10
Saturday 10
Schol@@ 10
Secretary 10
Sett@@ 10
Sop@@ 10
Soul 10
Span@@ 10
Spirit 10
Stanley 10
Stars 10
Status 10
Stern 10
Stru@@ 10
Summer 10
Syst@@ 10
Trag@@ 10
Tropical 10
Tun@@ 10
Us@@ 10
Venezu@@ 10
Victoria 10
Was@@ 10
Workers 10
Zi@@ 10
Zin@@ 10
Zy@@ 10
accounts 10
accur@@ 10
acked 10
actors 10
administration 10
adult 10
afa 10
affairs 10
agents 10
ailing 10
aim 10
aks 10
aler 10
alised 10
allows 10
alls 10
als@@ 10
alth@@ 10
altitude 10
aner 10
appearance 10
ark 10
artificial 10
ashes 10
asse 10
asser@@ 10
association 10
athletes 10
atmosph@@ 10
attraction 10
auer 10
aun 10
awarded 10
aying 10
bank@@ 10
basin 10
believe 10
bey 10
bling 10
block@@ 10
blocks 10
boards 10
bright 10
bru@@ 10
cad@@ 10
cally 10
carried 10
centre 10
cer 10
chair 10
character@@ 10
charges 10
chir@@ 10
cian 10
cio 10
classified 10
clay 10
coinci@@ 10
collapse 10
colonial 10
commun@@ 10
completely 10
connecting 10
connections 10
contained 10
coo@@ 10
cott@@ 10
credited 10
crit@@ 10
decision 10
deon 10
dependent 10
depending 10
detail 10
determine 10
devot@@ 10
diameter 10
dict 10
diplom@@ 10
discovery 10
distinct 10
drawing 10
easily 10
eded 10
editor 10
eid 10
elected 10
elop@@ 10
ember 10
emen 10
employed 10
endar 10
ende 10
enge 10
ennial 10
environmental 10
equipped 10
erst@@ 10
esk@@ 10
esse 10
essentially 10
essing 10
eto 10
eventually 10
explo@@ 10
exual 10
families 10
fellow 10
ffen 10
figur@@ 10
flat 10
flows 10
flying 10
fort@@ 10
frag@@ 10
fund 10
genera 10
gium 10
god@@ 10
greg@@ 10
gress 10
ground@@ 10
grounds 10
hao 10
hard@@ 10
headed 10
helped 10
hence 10
heritage 10
hima 10
hope 10
horse 10
iat 10
icon 10
icop@@ 10
identification 10
ied 10
ifer 10
iff@@ 10
ige 10
iled 10
ilt 10
importance 10
indicated 10
influenced 10
inger@@ 10
inher@@ 10
initially 10
intensive 10
inter 10
interpretation 10
invest@@ 10
itious 10
journals 10
kas@@ 10
kept 10
kom@@ 10
kus@@ 10
latest 10
lav 10
lee 10
lik 10
liver 10
lives 10
losses 10
lov@@ 10
m. 10
machines 10
magazine 10
males 10
margin@@ 10
mati@@ 10
medic@@ 10
mei@@ 10
mess@@ 10
morning 10
natur@@ 10
neither 10
nich@@ 10
nine 10
noble 10
nose 10
notable 10
nur 10
ohn 10
olk 10
olle@@ 10
olly 10
omo 10
oney 10
opposed 10
ordered 10
ored 10
organ 10
organised 10
organisms 10
ould 10
outs 10
oven 10
pain@@ 10
passage 10
pati@@ 10
peak 10
percentage 10
perspective 10
pip@@ 10
plastic 10
police 10
polit@@ 10
poor 10
popul@@ 10
positions 10
prises 10
profit 10
progres@@ 10
protected 10
pub@@ 10
publishing 10
quick@@ 10
ral@@ 10
reduced 10
regulation 10
rek@@ 10
relatively 10
relay 10
remaining 10
remains 10
remote 10
request 10
returned 10
revers@@ 10
revol@@ 10
rising 10
rocks 10
rose 10
sat 10
scar@@ 10
schol@@ 10
score 10
sections 10
seeds 10
shap@@ 10
shares 10
shel@@ 10
shop 10
shot 10
sig@@ 10
smith 10
sof@@ 10
sole 10
speakers 10
specified 10
sport 10
stages 10
statements 10
steps 10
story@@ 10
strategic 10
struction 10
subsequently 10
succession 10
sust@@ 10
takes 10
teacher 10
telephone 10
throughout 10
tienne 10
tives 10
tons 10
touch@@ 10
tour@@ 10
transl@@ 10
tries 10
turn@@ 10
turns 10
ually 10
uchi 10
uer 10
umental 10
umps 10
univers@@ 10
uss 10
utionary 10
ux@@ 10
veg@@ 10
vert@@ 10
vey@@ 10
vice 10
vig@@ 10
weapons 10
wei 10
wo 10
xis 10
yed 10
Å 10
ís 10
İ@@ 10
Ś@@ 10
ž@@ 10
ʀ@@ 10
ʔ@@ 10
̩ 10
ξ@@ 10
υ 10
ю@@ 10
ү@@ 10
ե@@ 10
ܐ 10
އ@@ 10
ު@@ 10
सितं@@ 10
ং 10
ড@@ 10
থ 10
ਮ 10
ં 10
શ@@ 10
ஆ@@ 10
ఆ@@ 10
శ 10
ొ@@ 10
ಣ 10
ಯ 10
ഗ@@ 10
യ 10
ප@@ 10
ය@@ 10
ල 10
จ@@ 10
ต@@ 10
ห@@ 10
่ 10
က 10
ယ 10
အ@@ 10
ទ@@ 10
Ḥ@@ 10
ṅ 10
ả@@ 10
‡ 10
₂ 10
✔ 10
ル 10
上@@ 10
会@@ 10
寺 10
川 10
拳 10
法 10
田@@ 10
社 10
菠@@ 10
蘿@@ 10
阿@@ 10
院 10
ꯥ@@ 10
국@@ 10
대@@ 10
자 10
 10
️ 10
🌹 10
👉 10
1.000 9
15th 9
Again 9
Aircraft 9
Americans 9
Among 9
Anat@@ 9
Andr@@ 9
Angl@@ 9
Anna 9
Arctic 9
Asp@@ 9
Augustus 9
Austria 9
Basin 9
Being 9
Beth@@ 9
Biography 9
Bond 9
Bonn 9
Bord@@ 9
Brazil 9
Brow@@ 9
Brunswick 9
Burns 9
Call@@ 9
Care 9
Catholi@@ 9
Christianity 9
Christopher 9
Chuck 9
Claude 9
Collins 9
Color@@ 9
Come 9
Congo 9
Constit@@ 9
Construction 9
Count 9
Creative 9
Critical 9
Cô@@ 9
DFB 9
Daily 9
Defense 9
Depression 9
Deutsch@@ 9
Dj@@ 9
Donald 9
Dri@@ 9
Du 9
Each 9
Ech@@ 9
Econom@@ 9
Every 9
Exam@@ 9
Ferr@@ 9
Finn@@ 9
Fisher 9
Flem@@ 9
Flor@@ 9
Flora 9
Following 9
Football 9
Fossi@@ 9
Fourth 9
Fru@@ 9
Fé@@ 9
Gary 9
Gate 9
Glas@@ 9
Goethe 9
Grace 9
Gramm@@ 9
Great@@ 9
Greg@@ 9
Half 9
Hamilton 9
Harmon@@ 9
Heav@@ 9
Hebrew 9
Henri 9
Hier@@ 9
Hig@@ 9
Ho 9
Hochschule 9
Hope 9
Hub@@ 9
Hur@@ 9
Ib@@ 9
Illustr@@ 9
Individu@@ 9
Innovation 9
Institut 9
Iran 9
Jewish 9
Jules 9
Kamp@@ 9
Kazakh@@ 9
Kids 9
Kis@@ 9
Kno@@ 9
Koh@@ 9
Kok@@ 9
Kran@@ 9
Kw@@ 9
Kö@@ 9
Labor@@ 9
Laur@@ 9
Leib@@ 9
Lenn@@ 9
Leon 9
Lines 9
Lyon 9
Lé@@ 9
Marcus 9
Marketing 9
Mexico 9
Michel 9
Mill 9
Miss 9
Miz@@ 9
Mob@@ 9
Moscow 9
Municipal 9
Murray 9
Nelson 9
Nest@@ 9
Neu@@ 9
Nev@@ 9
Nicolas 9
Nielsen 9
Night@@ 9
Niz@@ 9
Now@@ 9
Oliver 9
Ontario 9
Ort@@ 9
Pain@@ 9
Parliament 9
Pearl 9
Performance 9
Pf@@ 9
Picture 9
Place 9
Plant@@ 9
Pow@@ 9
Problem 9
Prop@@ 9
Prov@@ 9
Provi@@ 9
Rath@@ 9
Regist@@ 9
Reich 9
Resolution 9
Revolutionary 9
Rhin@@ 9
Rig@@ 9
Rio 9
Rose 9
Sain@@ 9
Schmidt 9
Sequ@@ 9
Shan@@ 9
Sla@@ 9
Stanford 9
Step@@ 9
Style 9
Symbol 9
Symphony 9
Sz@@ 9
Tay@@ 9
Templ@@ 9
Thai 9
Theat@@ 9
Their 9
Thur@@ 9
Tok@@ 9
Toronto 9
Tot@@ 9
Tren@@ 9
Trophy 9
True 9
Vick@@ 9
Vie@@ 9
Vinc@@ 9
Vincent 9
Virginia 9
Voc@@ 9
Wak@@ 9
Walt 9
Wang 9
Warner 9
Watch 9
Wid@@ 9
Winter@@ 9
Wolf 9
Wolfgang 9
Woman 9
Yan@@ 9
Ye@@ 9
Yuk@@ 9
abled 9
accept 9
achieve 9
adel@@ 9
adj@@ 9
agn@@ 9
ago@@ 9
ahn 9
ahr 9
ainable 9
algorith@@ 9
alled 9
aller@@ 9
alty 9
alu@@ 9
alumin@@ 9
alyp@@ 9
amat@@ 9
ancest@@ 9
anded 9
anders 9
anian 9
anime 9
aning 9
anni 9
anton 9
appeared 9
arily 9
arrived 9
arte 9
asking 9
aspects 9
assy 9
ations@@ 9
attle 9
authorities 9
aves 9
avoid@@ 9
bell@@ 9
belonging 9
binding 9
black@@ 9
borne 9
box@@ 9
brick 9
bring 9
broke 9
bronze 9
brown 9
buch 9
bution 9
cali@@ 9
capable 9
capit@@ 9
carry 9
cats 9
census 9
certain@@ 9
changing 9
check 9
chief 9
chur@@ 9
cism 9
clean 9
clin@@ 9
colon@@ 9
combined 9
commemor@@ 9
compiled 9
conducted 9
conqu@@ 9
consistent 9
contain@@ 9
contin@@ 9
contributed 9
contribution 9
conventional 9
cooperation 9
correspon@@ 9
cotton 9
council 9
covered 9
cred@@ 9
crew 9
criminal 9
cross@@ 9
cury 9
dee 9
defence 9
demonstr@@ 9
dense 9
dent 9
depends 9
depos@@ 9
desert 9
designed 9
develop 9
developing 9
dic 9
dienst 9
disp@@ 9
doing 9
dorf 9
earned 9
eder 9
edly 9
eign@@ 9
eine 9
einer 9
eira 9
elevation 9
elic 9
elite 9
els@@ 9
elta 9
empha@@ 9
enemy 9
ener 9
ennium 9
eres 9
essed 9
expected 9
export 9
exten@@ 9
extension 9
fam@@ 9
fin 9
finally 9
fing 9
fire@@ 9
flag 9
flan@@ 9
flies 9
flowers 9
forc@@ 9
fordshire 9
friends 9
fting 9
fts@@ 9
gastro@@ 9
gath@@ 9
generate 9
genes 9
gover@@ 9
govern@@ 9
graphic 9
het 9
hidden 9
highway 9
holes 9
hopes 9
horizontal 9
huge 9
hus@@ 9
ibility 9
icro@@ 9
iden@@ 9
ied@@ 9
ien@@ 9
iet 9
ights 9
ilo 9
images 9
inage 9
inces 9
inch 9
income 9
industries 9
influ@@ 9
initi@@ 9
inning 9
innov@@ 9
institutions 9
intellectual 9
intended 9
interpre@@ 9
inth@@ 9
invol@@ 9
ipe 9
ires 9
ishers 9
isolated 9
isse 9
issued 9
items 9
iw@@ 9
jin 9
join 9
journey 9
keeping 9
kel 9
kel@@ 9
key@@ 9
kill 9
kilometers 9
kit@@ 9
kol@@ 9
kos@@ 9
kund@@ 9
leader 9
leads 9
learn 9
learned 9
leaving 9
len 9
len@@ 9
lights 9
lining 9
literary 9
loan 9
locked 9
lon@@ 9
maintenance 9
manuel 9
march 9
measures 9
mented 9
mentioned 9
merely 9
methyl@@ 9
minim@@ 9
mith@@ 9
moon 9
mountain 9
musicians 9
mutual 9
negoti@@ 9
ners 9
neutral 9
novel 9
nun@@ 9
obtain 9
oc 9
ociation 9
ograph@@ 9
oku 9
omon 9
onto 9
opened 9
opening 9
opin@@ 9
organizations 9
organized 9
orn@@ 9
oting 9
oulder 9
owers 9
oye 9
oz 9
pack@@ 9
pan 9
participation 9
peace 9
peoples 9
phia 9
phr@@ 9
picture 9
platform 9
pled 9
pod@@ 9
polis 9
possibly 9
pped 9
practices 9
presented 9
prev@@ 9
previously 9
priest 9
prior 9
prise 9
productive 9
progressive 9
pronounced 9
proxim@@ 9
psychological 9
quarters 9
quer@@ 9
rad 9
rain@@ 9
ranging 9
rative 9
recommended 9
recording 9
reflected 9
rei@@ 9
relati@@ 9
remainder 9
remained 9
reports 9
republi@@ 9
requires 9
responsibility 9
responsible 9
ret 9
returns 9
rie@@ 9
rival 9
roll 9
rows 9
rum@@ 9
sales 9
salt 9
sang 9
saying 9
schel 9
scheme 9
segment 9
sell 9
selling 9
shed 9
sho@@ 9
shoot 9
singles 9
sion@@ 9
situation 9
sla@@ 9
sleep 9
snow@@ 9
speci@@ 9
spective 9
spring 9
stad@@ 9
stru@@ 9
substan@@ 9
surname 9
survey 9
suspension 9
swit@@ 9
tag 9
tennis 9
territorial 9
territories 9
terror@@ 9
text@@ 9
theoretical 9
things 9
tie 9
tik@@ 9
titude 9
tou@@ 9
traffic 9
transit 9
tron@@ 9
tural 9
twenty 9
ude 9
ull@@ 9
understanding 9
upe 9
uz 9
vacc@@ 9
vement 9
vil@@ 9
visit 9
walk 9
wear 9
wer 9
wig@@ 9
wild@@ 9
wr@@ 9
wra@@ 9
writ@@ 9
writes 9
wrong 9
yland 9
youth 9
ystem 9
zzi 9
¹ 9
Æ@@ 9
ß 9
ä@@ 9
ô 9
ă 9
œ@@ 9
ǐ 9
ʁ 9
ˈ 9
͡ 9
Λ@@ 9
Φ@@ 9
ϕ 9
Ф@@ 9
Ч@@ 9
щ@@ 9
Қ@@ 9
ն@@ 9
ր@@ 9
ב 9
ة@@ 9
ّ 9
ٰ@@ 9
ީ@@ 9
ް 9
ऒ 9
ৈ@@ 9
ਦ 9
ੇ 9
આ@@ 9
ો 9
କ 9
ଗ@@ 9
ଦ 9
ପ@@ 9
ଳ 9
ச 9
ற 9
ஷ 9
ூ@@ 9
ణ 9
ವ 9
ണ 9
റ 9
ව@@ 9
ේ@@ 9
ວ@@ 9
ྩ@@ 9
ត 9
ន 9
ᱨ@@ 9
ḷ@@ 9
ệ@@ 9
⋅ 9
ⵉ@@ 9
ジ@@ 9
ス@@ 9
七@@ 9
世@@ 9
京 9
包 9
周@@ 9
島 9
文 9
方 9
東 9
河 9
治@@ 9
고@@ 9
민@@ 9
이@@ 9
치 9
ﺍ@@ 9
ﻟ@@ 9
𐩖 9
𝐞@@ 9
3,5 8
5. 8
Abra@@ 8
Admiral 8
Adolf 8
After@@ 8
Against 8
Ahmad 8
Airlines 8
Akadem@@ 8
Alexandria 8
Altern@@ 8
Ambro@@ 8
Ann 8
Antonio 8
Apost@@ 8
Archit@@ 8
Are@@ 8
Arn@@ 8
Arran@@ 8
Atlas 8
Auto 8
Aviation 8
Badminton 8
Bap@@ 8
Baron 8
Berkeley 8
Berlin 8
Bernard 8
Between 8
Bill@@ 8
Bli@@ 8
Bloom@@ 8
Bob 8
Both 8
Bott@@ 8
Brian 8
Brom@@ 8
Bros. 8
Brun@@ 8
Buddhist 8
Call 8
Captain 8
Carol@@ 8
Catherine 8
Cavalry 8
Ces@@ 8
Chapter 8
Clark 8
Classi@@ 8
Commander 8
Community 8
Cord@@ 8
Coron@@ 8
Cort@@ 8
Crew 8
DAP 8
Del 8
Democratic 8
Deputy 8
Distri@@ 8
Dublin 8
Edwin 8
Egyp@@ 8
Emergency 8
Engel@@ 8
Engine@@ 8
Epo@@ 8
Eric 8
Eugene 8
Evol@@ 8
Fif@@ 8
Finals 8
Fla@@ 8
Fli@@ 8
Former 8
Francisco 8
Further 8
Georgia 8
Gibraltar 8
Got@@ 8
Governor 8
Graf@@ 8
Gray 8
Greece 8
Guar@@ 8
Guy 8
Hang@@ 8
Hass@@ 8
Haus@@ 8
Hero 8
Hid@@ 8
Hob@@ 8
Holding 8
Horn@@ 8
Impact 8
Independent 8
Inn@@ 8
Irish 8
Iron@@ 8
Jagd@@ 8
Jagu@@ 8
Jakob 8
Jane 8
Jay 8
Jersey 8
Jordan 8
Jul@@ 8
Junction 8
Kaf@@ 8
Kant@@ 8
Kast@@ 8
Kingston 8
Kirch@@ 8
Knight 8
Koch 8
Kre@@ 8
Kro@@ 8
Kru@@ 8
Kub@@ 8
Lady 8
Legislative 8
Leh@@ 8
Lions 8
Lith@@ 8
Los@@ 8
Louise 8
Ludwig 8
Manchester 8
Mann 8
Maritime 8
Marshall 8
Massachusetts 8
Metro@@ 8
Metropolitan 8
Moder@@ 8
Morning 8
Moz@@ 8
Munich 8
Nadu 8
Neill 8
Next 8
Nine 8
Oak 8
Oh 8
Osc@@ 8
Ost@@ 8
Palmer 8
Park@@ 8
Pennsylvania 8
Per 8
Philippe 8
Phillips 8
Places 8
Poland 8
Polar@@ 8
Pom@@ 8
Pop@@ 8
Premier 8
Prix 8
Professor 8
Psychiat@@ 8
Puer@@ 8
Pyr@@ 8
Rac@@ 8
Race 8
Reading 8
Rever@@ 8
Rice 8
Rome 8
Romeo 8
Rost@@ 8
Saudi 8
Sek@@ 8
Senior 8
Set 8
Several 8
Sey@@ 8
Shadow 8
Shakespeare 8
Shaw 8
Shin@@ 8
Side 8
Siegfried 8
Sound@@ 8
Spider 8
Sport 8
Stand@@ 8
Stap@@ 8
Student 8
Symb@@ 8
Symp@@ 8
Temp@@ 8
Tend@@ 8
Testament 8
Texas 8
Text@@ 8
Those 8
Tony 8
Trib@@ 8
Ts@@ 8
Tus@@ 8
Venus 8
Ves@@ 8
Vig@@ 8
Von 8
Wallace 8
Weber 8
Website 8
Wein@@ 8
Willi@@ 8
William@@ 8
Within 8
absol@@ 8
absorbed 8
abund@@ 8
accepted 8
accurate 8
achievement 8
adia 8
adop@@ 8
adopted 8
aff 8
aged 8
aille 8
aims 8
aired 8
airport 8
airs 8
aked 8
album 8
alen 8
alter@@ 8
ammunition 8
anal@@ 8
anca 8
anco 8
andal 8
andin@@ 8
angel@@ 8
anos 8
antes 8
appears 8
appropriate 8
ared 8
arib@@ 8
arin 8
artillery 8
asked 8
assets 8
assigned 8
assing 8
assumed 8
aton 8
atra 8
attacks 8
aud 8
bars 8
bearing 8
bec@@ 8
beetle 8
begins 8
benefit 8
berger 8
bold 8
bom@@ 8
bore 8
brit@@ 8
business@@ 8
butions 8
cals 8
care@@ 8
caus@@ 8
ceremony 8
challenge 8
cky 8
clim@@ 8
coast@@ 8
coat 8
collective 8
colleges 8
commune 8
communications 8
compati@@ 8
complex@@ 8
composer 8
comprehensive 8
computers 8
conclusion 8
constituency 8
contemporary 8
continental 8
continue 8
contrast 8
contributions 8
copy@@ 8
cot 8
couple 8
courses 8
cow 8
creating 8
credit 8
crisis 8
criticism 8
cum 8
dad 8
debate 8
delay 8
della 8
dend 8
depression 8
describes 8
describing 8
dical 8
dipl@@ 8
director 8
distri@@ 8
dle 8
dominant 8
dor 8
driven 8
driver 8
drugs 8
ducing 8
ead 8
eans 8
earliest 8
easy 8
ece 8
edo 8
eers 8
egen 8
egg 8
eir 8
elev@@ 8
elf 8
ellen@@ 8
ellers 8
eln 8
emerg@@ 8
emerged 8
endor@@ 8
eria 8
erve 8
essential 8
esth@@ 8
estim@@ 8
estimate 8
etime 8
eve 8
evo 8
evol@@ 8
exactly 8
exam@@ 8
excav@@ 8
executive 8
expert 8
explic@@ 8
exposed 8
extensive 8
eze 8
facil@@ 8
facilities 8
feld 8
ferred 8
floor 8
followers 8
formerly 8
formers 8
forth 8
forum 8
fought 8
fram@@ 8
frequ@@ 8
fut@@ 8
gallery 8
gest 8
gli@@ 8
god 8
gom@@ 8
grave 8
gregation 8
gren 8
grey 8
grown 8
guarante@@ 8
guns 8
handle 8
hart 8
hear@@ 8
heard 8
hub 8
icks 8
idan 8
identified 8
iew 8
ild 8
improve 8
inea 8
influential 8
ings@@ 8
inian 8
inners 8
inson 8
ione 8
ishment 8
istische 8
itar 8
joined 8
jon 8
journal 8
keep@@ 8
killing 8
laimed 8
lava 8
lea@@ 8
leh@@ 8
lei 8
license 8
lich 8
limits 8
lli@@ 8
locomotive 8
lon 8
lowest 8
luc@@ 8
lé@@ 8
maintained 8
majority 8
makers 8
marine 8
mass@@ 8
mate 8
meters 8
mits 8
moments 8
mostly 8
mund@@ 8
muscle 8
newspaper 8
nier 8
night@@ 8
nith@@ 8
norm@@ 8
normal@@ 8
objec@@ 8
occurs 8
offers 8
ographer 8
okes 8
onso 8
oody 8
ookie 8
opinion 8
oples 8
opol@@ 8
option 8
opul@@ 8
orton 8
osed 8
oss@@ 8
ounded 8
ouse 8
outh 8
owner 8
package 8
passing 8
patient 8
pav@@ 8
ped 8
performing 8
perio@@ 8
phrase 8
picked 8
pie@@ 8
plays 8
ploy@@ 8
poli@@ 8
portra@@ 8
practical 8
pred@@ 8
preh@@ 8
prevent 8
profession 8
programm@@ 8
programme 8
proposal 8
protein 8
proteins 8
qualifying 8
quest 8
quickly 8
r. 8
raised 8
ranking 8
rarely 8
reaching 8
reasons 8
reduce 8
references 8
regist@@ 8
reign 8
relationships 8
rels 8
rem 8
renowned 8
replacement 8
requirements 8
resources 8
respectively 8
rets 8
rick 8
risis 8
rocket 8
rone 8
rov@@ 8
rural 8
rying 8
rü@@ 8
sacrif@@ 8
san 8
scientist 8
scription 8
seems 8
serious 8
serving 8
settlement 8
severe 8
sign@@ 8
sister 8
sixth 8
sky@@ 8
solo 8
sortium 8
spent 8
spin 8
split 8
spra@@ 8
stake 8
starting 8
stent 8
stick 8
strategy 8
strike 8
stry 8
successfully 8
survival 8
sus@@ 8
tables 8
talks 8
target 8
temper@@ 8
temples 8
tend 8
tico 8
tour 8
tourism 8
tower 8
trag@@ 8
tram@@ 8
travel@@ 8
tribute 8
try@@ 8
turning 8
typical 8
ught 8
ugi@@ 8
uit 8
uki 8
umes 8
umping 8
ungs 8
updated 8
urban 8
ured 8
uro 8
urop@@ 8
uscri@@ 8
uters 8
utter 8
valid 8
verses 8
versus 8
viewed 8
visiting 8
vor 8
vre 8
w.@@ 8
weak 8
winner 8
xiliary 8
ycle 8
ymn@@ 8
zel 8
zer@@ 8
Österreich@@ 8
ä 8
ège 8
ères 8
éné@@ 8
š 8
ʱ 8
Α 8
Β@@ 8
Γ 8
Ι@@ 8
Ν@@ 8
χ 8
Я@@ 8
ъ 8
є@@ 8
ј@@ 8
ի@@ 8
յ@@ 8
ո@@ 8
ש 8
ْ 8
ڠ@@ 8
ܘ@@ 8
ލ@@ 8
ऌ 8
ৈ 8
ৱ 8
ਜ 8
ੇ@@ 8
ੋ 8
ଙ 8
ତ 8
ଭ@@ 8
ଶ 8
ଷ 8
ୀ 8
ୁ 8
ୟ 8
ொ@@ 8
ణ@@ 8
ష 8
ీ 8
ಗ 8
ಮ 8
ಷ 8
ങ 8
ള 8
ർ@@ 8
ൽ 8
න 8
න@@ 8
ා 8
ป@@ 8
ร 8
ນ 8
ັ@@ 8
ཙ@@ 8
ླ@@ 8
ူ@@ 8
ლ@@ 8
ᱵ@@ 8
ḥ 8
ῆ@@ 8
₩ 8
∂ 8
⏩ 8
✍ 8
ア@@ 8
ク@@ 8
コ@@ 8
ト@@ 8
バ@@ 8
レ@@ 8
会 8
光@@ 8
区 8
华@@ 8
司 8
名@@ 8
國 8
方@@ 8
清@@ 8
白@@ 8
皇 8
藩 8
部 8
국 8
성@@ 8
ﺎ@@ 8
： 8
1950s 7
2000s 7
4. 7
Abdul 7
Afric@@ 7
Ages 7
Alber@@ 7
Allen 7
Alli@@ 7
Allied 7
Alumin@@ 7
Americ@@ 7
Amsterdam 7
Andre@@ 7
Andreas 7
André 7
Andy 7
Annie 7
Antoine 7
Arena 7
Armed 7
Arnold 7
Arti@@ 7
Assistant 7
Aus@@ 7
Austin 7
Bangladesh 7
Based 7
Basel 7
Bath 7
Before 7
Berg@@ 7
Bern 7
Bj@@ 7
Blair 7
CSU 7
Cad@@ 7
Caesar 7
Canal 7
Cannes 7
Capit@@ 7
Carp@@ 7
Charl@@ 7
Chase 7
Chicago 7
Châ@@ 7
Cold 7
Colombia 7
Colony 7
Columb@@ 7
Corps 7
Costa 7
Cover@@ 7
Crystal 7
Cub@@ 7
Cun@@ 7
DDR 7
Dod@@ 7
Drama 7
Eagle 7
Earl 7
Eh@@ 7
Element 7
Elementary 7
Emb@@ 7
Emma 7
Emmy 7
Ernest 7
Ero@@ 7
Fair 7
Falcon@@ 7
Far 7
Fle@@ 7
Flying 7
Font@@ 7
Found@@ 7
Franklin 7
Franz 7
Fritz 7
Fut@@ 7
Garcia 7
Gei@@ 7
Geor@@ 7
Georg 7
Goth@@ 7
Grande 7
Grey 7
Griff@@ 7
Guer@@ 7
Gusta@@ 7
Han 7
Hard 7
Heart 7
Hex@@ 7
Hod@@ 7
Hof@@ 7
Hopkins 7
Hunter 7
Indigenous 7
Instrument 7
Islam@@ 7
Itali@@ 7
Ivan 7
Jack@@ 7
Je 7
Jeff 7
Jenn@@ 7
Jeremy 7
Johnny 7
Jor@@ 7
Joy@@ 7
Juli@@ 7
Kenneth 7
Kevin 7
Kinder@@ 7
Klein@@ 7
Koch@@ 7
Legacy 7
Leonard 7
Leop@@ 7
Lett@@ 7
Ligh@@ 7
Lock@@ 7
Los 7
Loth@@ 7
Loy@@ 7
Lux@@ 7
Magazine 7
Matt@@ 7
Maya 7
Mayor 7
Mean@@ 7
Metall@@ 7
Metro 7
Michigan 7
Mili@@ 7
Minist@@ 7
Mobil@@ 7
Monuments 7
Moore 7
Mother 7
Mr 7
Myth@@ 7
Netherlands 7
Nie@@ 7
Nikol@@ 7
Ober@@ 7
Operations 7
Orange 7
Orthodox 7
Ottawa 7
Parallel 7
Partners 7
Person 7
Phi@@ 7
Philippines 7
Philli@@ 7
Pie@@ 7
Plateau 7
Pole 7
Pop 7
Popul@@ 7
Popular 7
Position 7
Princess 7
Protest@@ 7
Pyram@@ 7
Qualif@@ 7
Ralph 7
Rech@@ 7
Reform 7
Rei@@ 7
Relations 7
Relief 7
Rich 7
Rim@@ 7
River@@ 7
Rober@@ 7
Roll 7
Run 7
Sax@@ 7
Schwar@@ 7
Sebastian 7
Sed@@ 7
Seh@@ 7
Sei@@ 7
Senate 7
Sent@@ 7
Shō@@ 7
Silver 7
Six 7
Six@@ 7
Soc@@ 7
Sons 7
Sophie 7
Spor@@ 7
Spr@@ 7
Sr. 7
Sta@@ 7
Stadium 7
Staf@@ 7
Stand 7
Stern@@ 7
Sti@@ 7
Still 7
Stir@@ 7
Suff@@ 7
Sunn@@ 7
Syl@@ 7
Taiwan 7
Tang 7
Tann@@ 7
Technische 7
Tel 7
Thorn@@ 7
Toledo 7
Tor 7
Train 7
Turkish 7
Turn@@ 7
Tür@@ 7
Universität 7
Uran@@ 7
Vancouver 7
Verb@@ 7
Vet@@ 7
Wag@@ 7
Week 7
Weekly 7
Weimar 7
Werner 7
Whitney 7
Wien 7
Wir@@ 7
Wolff 7
Writing 7
Yar@@ 7
Yorkshire 7
abri@@ 7
accused 7
ached 7
aches 7
actual 7
administered 7
admir@@ 7
adow 7
advance 7
advised 7
adé@@ 7
affiliated 7
agency 7
agh 7
agree 7
agreements 7
agricultural 7
ahan 7
ahl@@ 7
aints 7
airo 7
alling 7
alternate 7
ambigu@@ 7
amongst 7
anan 7
ande 7
ange 7
answer 7
anything 7
apped 7
archit@@ 7
argued 7
arians 7
ariat 7
arrest 7
artist 7
asph@@ 7
assembl@@ 7
associ@@ 7
athers 7
athlete 7
atsu 7
attempted 7
attrac@@ 7
atz@@ 7
aume 7
aup@@ 7
autobi@@ 7
autonomous 7
avail@@ 7
aza 7
balls 7
banks 7
basi@@ 7
bass 7
batt@@ 7
bean 7
begun 7
belongs 7
big@@ 7
billi@@ 7
bled 7
bloc@@ 7
blu@@ 7
borg 7
bottom 7
breaking 7
brothers 7
brow@@ 7
budget 7
buil@@ 7
burning 7
campaign 7
categories 7
caught 7
championship 7
chant 7
chants 7
chin 7
choose 7
cht 7
cited 7
coach 7
cock 7
coin 7
comedy 7
compensation 7
concluded 7
conference 7
confirmed 7
consequence 7
constit@@ 7
constra@@ 7
continent 7
contribut@@ 7
correc@@ 7
corruption 7
crick@@ 7
custom@@ 7
cz@@ 7
defend 7
defense 7
demic 7
demokrat@@ 7
dene 7
desc@@ 7
describe 7
dier 7
diesel 7
diet 7
dik@@ 7
dings 7
directors 7
disc@@ 7
discipline 7
dispute 7
distribut@@ 7
divis@@ 7
documents 7
dub@@ 7
earthquake 7
eat 7
ections 7
ege 7
eger 7
eks 7
eld@@ 7
elem@@ 7
eles 7
elines 7
emann 7
emer 7
emper@@ 7
enburg 7
enced 7
endi@@ 7
entally 7
entur@@ 7
eries 7
escu 7
essors 7
eurs 7
event@@ 7
ew 7
exception 7
exist@@ 7
expec@@ 7
explain 7
extent 7
extreme 7
eyer 7
faced 7
facility 7
fail@@ 7
faith 7
fame 7
famili@@ 7
fast@@ 7
favor 7
feel 7
feeling 7
ffer@@ 7
fig@@ 7
fired 7
flights 7
fortun@@ 7
fred@@ 7
funds 7
gender 7
gesellschaft 7
gew@@ 7
gift 7
girl 7
glau@@ 7
gment 7
governed 7
governor 7
gross@@ 7
group@@ 7
guid@@ 7
guidance 7
hardt 7
heads 7
hibition 7
hofer 7
hoff 7
homes 7
honor 7
horiz@@ 7
hosp@@ 7
hund@@ 7
iced 7
igan 7
igh 7
igs 7
ilia 7
ilit@@ 7
illion 7
illy 7
impro@@ 7
improved 7
inations 7
increasing 7
ingen 7
inking 7
installed 7
institution 7
instruction 7
intel@@ 7
intellec@@ 7
intern@@ 7
intersection 7
interview 7
inum 7
invasi@@ 7
involved 7
ior@@ 7
ios 7
ise@@ 7
isk 7
isl@@ 7
ission@@ 7
itate 7
itia 7
ival 7
jected 7
judicial 7
kee 7
keeper 7
kers 7
king@@ 7
kings 7
kinson 7
kler 7
largely 7
lasted 7
lay@@ 7
layout 7
leave 7
licensed 7
lie@@ 7
lifest@@ 7
literally 7
looking 7
losing 7
manner 7
massive 7
mere 7
merged 7
method@@ 7
mineral 7
mini 7
miss@@ 7
missile 7
modified 7
moves 7
municipality 7
nan 7
narrow 7
necessarily 7
none 7
normally 7
notably 7
nothing 7
obil@@ 7
occasionally 7
occupied 7
odore 7
officers 7
officially 7
oir 7
oire 7
oll 7
ologically 7
ologie 7
ondo 7
onne 7
oppos@@ 7
opposition 7
opro@@ 7
orf 7
orith@@ 7
orous 7
osaur@@ 7
oses 7
otz 7
ough@@ 7
ourn@@ 7
outdoor 7
outer 7
passi@@ 7
performances 7
persu@@ 7
plement 7
pol 7
pop 7
ppen 7
preci@@ 7
pregn@@ 7
prepar@@ 7
preserve 7
president 7
prestigious 7
primarily 7
prints 7
promp@@ 7
prove 7
provin@@ 7
provinces 7
publ@@ 7
publication 7
purchase 7
puts 7
questions 7
raft 7
rail 7
rank@@ 7
rants 7
rath 7
rats 7
receiver 7
recently 7
recovery 7
refer@@ 7
reflect 7
relevant 7
religi@@ 7
rell 7
remov@@ 7
replacing 7
represents 7
resol@@ 7
resource 7
respec@@ 7
retained 7
revealed 7
revenue 7
riers 7
rio 7
ritten 7
rity 7
rom 7
rounded 7
rout@@ 7
rug@@ 7
ruler 7
ruling 7
scene 7
scheduled 7
schem@@ 7
scher@@ 7
scor@@ 7
search@@ 7
seas@@ 7
secretary 7
secured 7
send 7
senti@@ 7
separated 7
sequ@@ 7
sett@@ 7
sharing 7
sharp 7
shine 7
shir@@ 7
sig 7
situations 7
skills 7
slightly 7
smooth 7
societies 7
soldiers 7
soundtrack 7
spending 7
spok@@ 7
spots 7
stating 7
stay 7
stem 7
strom 7
stron@@ 7
submarine 7
subordin@@ 7
sufficient 7
suggested 7
summer 7
sustainable 7
symbo@@ 7
symbols 7
synthes@@ 7
tenance 7
teres 7
theater 7
theatre 7
theme 7
thes 7
thousands 7
throne 7
titled 7
toral 7
tournaments 7
toward 7
transpar@@ 7
treated 7
tribe 7
trust 7
tung 7
uel 7
ukra@@ 7
ultimately 7
ultur@@ 7
umn 7
umph 7
unc@@ 7
uncle 7
ussion 7
utiliz@@ 7
variations 7
velle 7
vely 7
vet@@ 7
volun@@ 7
voting 7
warning 7
weak@@ 7
wealth 7
wet@@ 7
window 7
wit@@ 7
wol@@ 7
wth 7
ycl@@ 7
yd@@ 7
yes 7
yman 7
ything 7
zuki 7
zur 7
 7
À@@ 7
Ó 7
Õ@@ 7
är@@ 7
ène 7
ès 7
Ō@@ 7
ǔ 7
ɨ@@ 7
ʒ 7
ʔ 7
˜ 7
̀ 7
Γ@@ 7
Θ@@ 7
Φ 7
Ц@@ 7
і 7
ғ@@ 7
ו 7
ئ 7
ٔ 7
ڌ@@ 7
ܐ@@ 7
ް@@ 7
ॄ 7
ঠ@@ 7
ৱ@@ 7
ਟ@@ 7
ਡ@@ 7
ੈ 7
ત 7
ૂ@@ 7
ଉ@@ 7
ଚ@@ 7
ଣ 7
ଳ@@ 7
ୀ@@ 7
େ 7
ప 7
ై@@ 7
ಉ@@ 7
ಧ@@ 7
ಷ@@ 7
ಸ 7
ಾ 7
ദ 7
ധ@@ 7
സ 7
ද@@ 7
බ@@ 7
හ@@ 7
ී 7
ภ@@ 7
ย 7
์ 7
ງ 7
ཁ 7
ཕ@@ 7
ཞ@@ 7
ཡ@@ 7
ྗ@@ 7
ྷ@@ 7
ဘ@@ 7
ဝ@@ 7
ံ@@ 7
ი 7
ប@@ 7
ម 7
វ@@ 7
័ 7
ầ@@ 7
Ἰ@@ 7
ὐ@@ 7
‰ 7
∇ 7
⊕ 7
☆ 7
い@@ 7
う 7
か@@ 7
ん 7
エ@@ 7
グ@@ 7
デ@@ 7
メ@@ 7
中 7
事@@ 7
五@@ 7
共@@ 7
内@@ 7
大 7
女 7
学@@ 7
安@@ 7
帝@@ 7
平@@ 7
明 7
松@@ 7
特@@ 7
百@@ 7
石@@ 7
空@@ 7
豆@@ 7
軍 7
銀@@ 7
陀@@ 7
ꠣ@@ 7
ꯁ@@ 7
ꯂ@@ 7
강@@ 7
동@@ 7
리@@ 7
부@@ 7
성 7
에 7
전 7
정@@ 7
조@@ 7
주@@ 7
00.000 6
100.000 6
6. 6
AFL 6
Acadé@@ 6
Achie@@ 6
Adams 6
Administ@@ 6
Advisory 6
Afri@@ 6
Ald@@ 6
Alexandra 6
Amin@@ 6
Ana 6
Angel 6
Angola 6
Apollo 6
Around 6
Artic@@ 6
Article 6
Artist 6
Bachelor 6
Baden 6
Baker 6
Bann@@ 6
Bar 6
Bask@@ 6
Bass@@ 6
Beb@@ 6
Bec@@ 6
Block@@ 6
Bob@@ 6
Bog@@ 6
Bologna 6
Born 6
Brisbane 6
Broadway 6
Buc@@ 6
Buddha 6
Bush 6
Camer@@ 6
Ced@@ 6
Challenge 6
Chic@@ 6
Château 6
Cinema 6
Circuit 6
Claudia 6
Clay 6
Colum@@ 6
Comedy 6
Communist 6
Compet@@ 6
Confeder@@ 6
Cook 6
Cow@@ 6
Cox 6
Cres@@ 6
Cruz 6
Dall@@ 6
Danzig 6
Dave 6
Daw@@ 6
Dean 6
Diego 6
Dmit@@ 6
Dob@@ 6
Dok@@ 6
Dop@@ 6
Dow@@ 6
Draft 6
Dut@@ 6
Dynast@@ 6
Emili@@ 6
Emily 6
Engineers 6
Estate 6
Europa 6
Expedition 6
Fak@@ 6
Fast 6
Fifth 6
Fili@@ 6
Fine 6
Fleet 6
Freder@@ 6
Frei@@ 6
Fried@@ 6
Frit@@ 6
Geb@@ 6
Gene 6
General@@ 6
Gent@@ 6
Gestalt 6
Gill@@ 6
Git@@ 6
Giuseppe 6
Globe 6
Gottfried 6
Gou@@ 6
Gregory 6
Guard 6
Gum@@ 6
Gw@@ 6
Gö@@ 6
Hag@@ 6
Hai@@ 6
Hang 6
Happy 6
Hart 6
Harvard 6
Heaven 6
Heinz 6
Hern@@ 6
Hill@@ 6
Hoh@@ 6
Holoc@@ 6
Honor@@ 6
Honours 6
Hugh 6
Inn 6
Instead 6
Institution 6
Integration 6
Intern@@ 6
Interpre@@ 6
Iz@@ 6
Jerusalem 6
Jimmy 6
Joan 6
KPD 6
Kei@@ 6
Kev@@ 6
Kid 6
Kriegs@@ 6
Labor 6
Labour 6
Lamp@@ 6
Lane 6
Leader 6
Legion 6
Leipzig 6
Lieutenant 6
Literary 6
Liz@@ 6
Loire 6
Lords 6
Lou 6
Louisiana 6
Lug@@ 6
Lum@@ 6
Madison 6
Mail 6
Malta 6
Manila 6
Marc@@ 6
Mass@@ 6
McCar@@ 6
Mek@@ 6
Mell@@ 6
Metal 6
Midd@@ 6
Milli@@ 6
Mohammed 6
Morris 6
Muh@@ 6
Nationale 6
Native 6
Nei@@ 6
Nikolai 6
Nobel 6
Northwest 6
Noth@@ 6
Off 6
Once 6
Ow@@ 6
Owen 6
Parall@@ 6
Perf@@ 6
Philosop@@ 6
Playing 6
Polit@@ 6
Poll@@ 6
Pope 6
Porsche 6
Portugal 6
Portugu@@ 6
Portuguese 6
Probl@@ 6
Productions 6
Promotion 6
Protestant 6
Provincial 6
Psycho@@ 6
Publi@@ 6
Puerto 6
Quint@@ 6
Reb@@ 6
Recording 6
Ring@@ 6
Rit@@ 6
Riv@@ 6
Roland 6
Ron 6
Schl@@ 6
Scienti@@ 6
Scotia 6
See@@ 6
Shep@@ 6
Sherman 6
Ship@@ 6
Sic@@ 6
Single 6
Snow@@ 6
Sob@@ 6
Southeast 6
Spain 6
Start 6
Steve 6
Stol@@ 6
Students 6
Superior 6
Sweden 6
Sweet 6
Synchron@@ 6
Talent 6
Terminal 6
Tests 6
Thailand 6
Theater 6
Them@@ 6
Tin@@ 6
Tong@@ 6
Track 6
Treas@@ 6
Trin@@ 6
Trop@@ 6
Turkey 6
Universe 6
Venezuela 6
Virgin@@ 6
Vog@@ 6
Vor@@ 6
Wagner 6
Wall@@ 6
Wed@@ 6
Westminster 6
Woo@@ 6
Writers 6
X. 6
Yak@@ 6
Yor@@ 6
Zul@@ 6
Zw@@ 6
aband@@ 6
abin@@ 6
abl@@ 6
accep@@ 6
accompan@@ 6
accompl@@ 6
acon 6
aders 6
adily 6
advent@@ 6
affected 6
agua 6
ahead 6
aill@@ 6
akers 6
akti@@ 6
alcohol 6
ald@@ 6
aled 6
amation 6
amm 6
amph@@ 6
analog 6
anarch@@ 6
anticip@@ 6
apart 6
aper 6
appreci@@ 6
appro@@ 6
archae@@ 6
artistic 6
asion 6
ason@@ 6
assignment 6
atar 6
atik 6
atori@@ 6
attended 6
aub@@ 6
auf@@ 6
avia 6
avian 6
avy 6
ayne 6
bann@@ 6
bases 6
bath@@ 6
beaten 6
bei@@ 6
bering 6
bid@@ 6
biggest 6
bike 6
bilities 6
bish@@ 6
blin@@ 6
bor 6
borders 6
bour 6
branded 6
bringing 6
bt@@ 6
bye 6
calling 6
calls 6
cano 6
captured 6
cash 6
casting 6
cattle 6
causing 6
cens@@ 6
chance 6
chap@@ 6
characteristics 6
cidae 6
cke 6
classi@@ 6
classification 6
cler@@ 6
closely 6
clothing 6
coast 6
collapsed 6
colours 6
comic 6
communic@@ 6
compet@@ 6
concert 6
confusion 6
connect 6
conom@@ 6
conservative 6
consisted 6
constitutional 6
construc@@ 6
contr@@ 6
contribute 6
controls 6
costs 6
counties 6
crime 6
crop 6
culmin@@ 6
d. 6
dation 6
dealing 6
decrease 6
defended 6
defensive 6
deposits 6
derly 6
descendants 6
descent 6
designs 6
destro@@ 6
destroyed 6
deter@@ 6
diocese 6
diplomatic 6
disaster 6
dish 6
dison 6
displayed 6
distributed 6
districts 6
ditions 6
dock 6
drink 6
drome 6
dropped 6
ede 6
editorial 6
edr@@ 6
eille 6
eis 6
elo 6
ement@@ 6
empire 6
empl@@ 6
encouraged 6
enda 6
ende@@ 6
energ@@ 6
engra@@ 6
enjoyed 6
ensen 6
ension 6
ensity 6
enson 6
enters 6
enth 6
enthusi@@ 6
entist 6
entity 6
enz 6
eppe 6
erb@@ 6
erected 6
ergy 6
erial 6
erie 6
ernal 6
esday 6
esi@@ 6
establishment 6
estic 6
etc. 6
ething 6
ethnic 6
every@@ 6
eves 6
excell@@ 6
exclusive 6
exit 6
expan@@ 6
express 6
facto 6
fear 6
featuring 6
feder@@ 6
feelings 6
fell 6
felt 6
fest 6
finger 6
flood 6
flower 6
football 6
forts 6
gay 6
gend@@ 6
gestre@@ 6
ghter 6
gins 6
grand@@ 6
hall 6
happy 6
heb@@ 6
heimer 6
herd 6
historian 6
hosts 6
houses 6
hung 6
iciently 6
iger@@ 6
illon 6
iment 6
immediate 6
immer 6
implem@@ 6
impres@@ 6
improvement 6
inct 6
initiative 6
innings 6
inqu@@ 6
instit@@ 6
instructions 6
insurance 6
intense 6
intention 6
interv@@ 6
introduction 6
invited 6
isches 6
iste 6
itzer 6
iven 6
izi@@ 6
jack@@ 6
jet@@ 6
journal@@ 6
kov 6
kra@@ 6
laboratory 6
ladi@@ 6
laun@@ 6
launch 6
league 6
legislation 6
legs 6
lical 6
licated 6
liche 6
lig 6
lington 6
lins 6
locks 6
locomot@@ 6
loo@@ 6
lose 6
louse 6
manga 6
manuscript 6
marsh@@ 6
meant 6
medals 6
meetings 6
mera 6
merchant 6
mie 6
mining 6
missi@@ 6
mist@@ 6
moder@@ 6
mond 6
movements 6
nd 6
nearby 6
neigh@@ 6
nest@@ 6
nice 6
nie 6
nis@@ 6
novels 6
ocial 6
ofil@@ 6
ofs 6
oft 6
ographi@@ 6
oking 6
ollus@@ 6
omor@@ 6
omot@@ 6
operational 6
orie 6
orig@@ 6
orship 6
osoph@@ 6
oter 6
otherwise 6
oul 6
ources 6
outs@@ 6
ovo 6
owned 6
pandemic 6
partially 6
permit 6
philosop@@ 6
planes 6
pot 6
poverty 6
ppe 6
ppers 6
ppo 6
premi@@ 6
present@@ 6
prices 6
princ@@ 6
printed 6
pris@@ 6
probably 6
professor 6
programmes 6
progress 6
prohib@@ 6
proposed 6
pts 6
quadrat@@ 6
qualified 6
queen 6
races 6
radar 6
ranked 6
reads 6
receiving 6
recommend@@ 6
reducing 6
regiments 6
registration 6
regulations 6
rely 6
research@@ 6
resulted 6
ride 6
rien 6
rist 6
rog@@ 6
romantic 6
route 6
sam 6
sati@@ 6
sburg 6
scribed 6
sculp@@ 6
seas 6
seats 6
segments 6
selves 6
senior 6
sequences 6
servers 6
seventh 6
shared 6
showed 6
signing 6
simul@@ 6
simultaneously 6
sman 6
smit@@ 6
sought 6
spr@@ 6
still@@ 6
stir@@ 6
strict 6
strip 6
sud@@ 6
suffering 6
sul 6
supporting 6
supports 6
suspended 6
taining 6
tape 6
targeted 6
teachers 6
tell 6
temperatures 6
tested 6
texts 6
theology 6
thick 6
threat 6
threatened 6
throp@@ 6
throw 6
tificate 6
timate 6
tioned 6
tions@@ 6
tius 6
tively 6
tomb 6
topic 6
toria 6
tories 6
touch 6
towns 6
trav@@ 6
treat 6
tried 6
trying 6
ubli@@ 6
ulti@@ 6
ultural 6
underground 6
ungs@@ 6
unless 6
ution@@ 6
utional 6
utor 6
uzz@@ 6
variant 6
veil@@ 6
viewing 6
visions 6
visited 6
visu@@ 6
vocals 6
von@@ 6
wag@@ 6
wage 6
wanted 6
wants 6
wars 6
wed@@ 6
well@@ 6
west@@ 6
wil@@ 6
winter 6
wom@@ 6
workers 6
xon 6
yne 6
ystems 6
zens 6
zip 6
zir@@ 6
Â 6
ás 6
ça 6
ï 6
ón@@ 6
ög@@ 6
ök@@ 6
ć 6
Č@@ 6
ę@@ 6
ĩ@@ 6
ř 6
ş 6
ǒ@@ 6
ɲ@@ 6
ʋ@@ 6
ʲ 6
̯ 6
Ο@@ 6
ς@@ 6
ψ 6
ф 6
э 6
ї@@ 6
ص 6
ܟ@@ 6
ރ@@ 6
ި@@ 6
ঝ@@ 6
৳ 6
ਂ 6
ਇ 6
ਪ 6
દ 6
મ 6
ળ@@ 6
સ 6
ଓ 6
ଧ@@ 6
ଶ@@ 6
ୃ@@ 6
ୟ@@ 6
గ 6
శ@@ 6
స 6
ಆ@@ 6
ೀ 6
ೃ@@ 6
ജ 6
ബ@@ 6
ു 6
ග@@ 6
ජ@@ 6
ර 6
ශ 6
ก 6
ต 6
ษ@@ 6
ะ 6
ี 6
ี@@ 6
ไ@@ 6
ຈ@@ 6
ທ@@ 6
ເ@@ 6
ཚ@@ 6
འ 6
ཤ@@ 6
ྡ@@ 6
ྤ@@ 6
ვ@@ 6
ი@@ 6
ს@@ 6
ል 6
ል@@ 6
ክ@@ 6
ក@@ 6
ង 6
អ@@ 6
ᱢ@@ 6
ᱦ@@ 6
Ṣ@@ 6
ằ@@ 6
ộ@@ 6
ủ 6
ἄ@@ 6
ἰ@@ 6
ῥ@@ 6
‬ 6
℅ 6
○ 6
ⴰ 6
ⵎ@@ 6
ⵣ@@ 6
、 6
た@@ 6
と@@ 6
ん@@ 6
カ@@ 6
ス 6
ッ@@ 6
ナ@@ 6
ブ@@ 6
マ@@ 6
ロ@@ 6
・ 6
ー 6
仁 6
區 6
印@@ 6
孫@@ 6
富@@ 6
島@@ 6
手 6
摩@@ 6
星 6
有@@ 6
木 6
林 6
根@@ 6
江@@ 6
沖 6
派 6
湖 6
神@@ 6
經 6
美 6
華@@ 6
道@@ 6
陈@@ 6
高@@ 6
鳥@@ 6
黄@@ 6
龙 6
꫰ 6
개 6
기@@ 6
노@@ 6
반@@ 6
비@@ 6
사@@ 6
선 6
오@@ 6
전@@ 6
화@@ 6
ﺮ@@ 6
ﻣ@@ 6
） 6
🇮 6
🇳 6
🔺 6
1930s 5
50.000 5
Aar@@ 5
Abbey 5
Aboriginal 5
Additional 5
Additionally 5
Advis@@ 5
Aktien@@ 5
Alberta 5
Albrecht 5
Album 5
Alle@@ 5
Amendment 5
Amer@@ 5
Americas 5
Andrea 5
Anglo 5
Antarc@@ 5
Anto@@ 5
Anton 5
Arabia 5
Arsen@@ 5
Artists 5
Austr@@ 5
Autob@@ 5
Background 5
Bahn 5
Ballet 5
Barcelona 5
Barnes 5
Beatles 5
Bei@@ 5
Belgium 5
Ben 5
Bernhard 5
Besides 5
Betty 5
Bey@@ 5
Bible 5
Boc@@ 5
Boli@@ 5
Brand@@ 5
Bremer@@ 5
Bres@@ 5
Brooklyn 5
Bruce 5
Brus@@ 5
Budd@@ 5
Bulgarian 5
Burg@@ 5
Burke 5
Byzantine 5
Cabinet 5
Campus 5
Canadi@@ 5
Capitol 5
Carl@@ 5
Carlos 5
Castro 5
Cec@@ 5
Chair 5
Chall@@ 5
Chancellor 5
Charlotte 5
Chile 5
Christ 5
Chron@@ 5
Clau@@ 5
Coalition 5
Cole 5
Comics 5
Competition 5
Contro@@ 5
Cornel@@ 5
Cott@@ 5
Craw@@ 5
Creek 5
Cros@@ 5
Cz@@ 5
Dame 5
Danish 5
Days 5
Den 5
Depart@@ 5
Desig@@ 5
Deutschen 5
Devil 5
Dich@@ 5
Dick@@ 5
Diet@@ 5
Dil@@ 5
Dir@@ 5
Douglas 5
Dram@@ 5
ERA 5
Eb@@ 5
Eck@@ 5
Edgar 5
Edu@@ 5
Eid@@ 5
Engl@@ 5
Erik 5
Ern@@ 5
Esch@@ 5
Euro 5
Expan@@ 5
Faculty 5
Farm 5
Farm@@ 5
Felix 5
Fell@@ 5
Florida 5
Fok@@ 5
Fot@@ 5
Frie@@ 5
Fusion 5
Gabri@@ 5
Gardens 5
Gav@@ 5
Ghost 5
Gilbert 5
Gis@@ 5
Glad@@ 5
Gottlieb 5
Grab@@ 5
Grant 5
Guang@@ 5
Hammer@@ 5
Hap@@ 5
Harper 5
Hau@@ 5
Hawaii 5
Heidelberg 5
Helena 5
Hend@@ 5
Holl@@ 5
Hud@@ 5
Hugo 5
Hunt 5
Hurricane 5
Hé@@ 5
Ian 5
Inspec@@ 5
Inv@@ 5
Iranian 5
Iraq 5
Isa@@ 5
Isle 5
Jeff@@ 5
Jesse 5
Joh@@ 5
Jonas 5
Jup@@ 5
Justin 5
Kai 5
Kali@@ 5
Keith 5
Kelly 5
Klaus 5
Komm@@ 5
Kras@@ 5
Kuh@@ 5
Kurt 5
Lach@@ 5
Leiden 5
Leopold 5
Ler@@ 5
Liberal 5
Lich@@ 5
Lion 5
List@@ 5
Litt@@ 5
Lloyd 5
Luci@@ 5
Luke 5
Maf@@ 5
Magdalena 5
Marc 5
Marco 5
Margaret 5
Martin@@ 5
Maz@@ 5
McG@@ 5
McK@@ 5
Mediterranean 5
Meer@@ 5
Meter 5
Method@@ 5
Mex@@ 5
Miguel 5
Mike 5
Mills 5
Miner@@ 5
Minn@@ 5
Minnesota 5
Mixed 5
Mog@@ 5
Monaco 5
Moreover 5
Mort@@ 5
Musical 5
Müller 5
Mā@@ 5
NSDAP 5
Nac@@ 5
Nick 5
Nomin@@ 5
Nord@@ 5
Norfolk 5
Norman 5
Offensive 5
Og@@ 5
Oli@@ 5
Optim@@ 5
Organis@@ 5
Oscar 5
Others 5
Ott@@ 5
Pakist@@ 5
Papua 5
Partei 5
Personnel 5
Peru 5
Phant@@ 5
Pittsburgh 5
Portland 5
Pupp@@ 5
Rau@@ 5
Raymond 5
Renn@@ 5
René 5
Rev. 5
Revie@@ 5
Rib@@ 5
Richards 5
Richter 5
Rin@@ 5
Roth 5
Ruhr 5
Río 5
SED 5
Saints 5
Schu@@ 5
Schwarz 5
Sean 5
Season 5
Seb@@ 5
Secret@@ 5
Section 5
Send@@ 5
Short@@ 5
Show@@ 5
Simm@@ 5
Sisters 5
Sonntag 5
Soon 5
Sozial@@ 5
Spon@@ 5
Sport@@ 5
Stage 5
Stal@@ 5
Stanis@@ 5
Start@@ 5
Statue 5
Sto@@ 5
Storm 5
Stran@@ 5
Stu@@ 5
Stuart 5
Sydney 5
Syria 5
Syrian 5
Sán@@ 5
Tages@@ 5
Tal 5
Tales 5
Team@@ 5
Terry 5
Thom@@ 5
Thro@@ 5
Town@@ 5
Tradition 5
Turner 5
Tō@@ 5
Urban 5
Utah 5
Veget@@ 5
Version 5
Vienna 5
Vietnam 5
Virgin 5
Volk@@ 5
Ward 5
Ware 5
Weil 5
With@@ 5
Without 5
Woh@@ 5
Wolf@@ 5
Yale 5
Yas@@ 5
Youn@@ 5
Zap@@ 5
Zer@@ 5
Zoo 5
aat 5
abandoned 5
abe@@ 5
abuse 5
academy 5
accident 5
acclaim 5
accommod@@ 5
achie@@ 5
acht 5
acquire 5
activated 5
actu@@ 5
adaptation 5
advice 5
advis@@ 5
aer 5
aerial 5
affect 5
aft 5
agne 5
akia 5
akon@@ 5
alif@@ 5
allet 5
alley 5
alliance 5
allowing 5
amateur 5
amer 5
ampton 5
anger@@ 5
ango 5
anl@@ 5
antry 5
appropri@@ 5
architectural 5
arl@@ 5
armies 5
ashing 5
assault 5
assist 5
asts 5
atically 5
atin 5
atten@@ 5
attorney 5
attributed 5
atur 5
audience 5
author@@ 5
baby 5
bach@@ 5
banned 5
beer 5
beet@@ 5
beg@@ 5
bein@@ 5
belie@@ 5
beschränk@@ 5
bler 5
blind 5
boats 5
bol 5
bombar@@ 5
bones 5
bought 5
boun@@ 5
boundaries 5
bour@@ 5
bourg 5
branches 5
brevi@@ 5
bridges 5
broadcast 5
brother 5
bunal 5
bund 5
burned 5
caf@@ 5
camp 5
canc@@ 5
carto@@ 5
categ@@ 5
cathedral 5
caused 5
cestershire 5
chairman 5
champion 5
chec@@ 5
chers 5
chez 5
chosen 5
chs 5
clothes 5
clubs 5
collected 5
comment@@ 5
communities 5
competing 5
compli@@ 5
concern 5
concerned 5
concerning 5
confir@@ 5
confused 5
consoli@@ 5
constitution 5
contem@@ 5
context 5
controversial 5
corporate 5
corps 5
covering 5
crimes 5
crowd 5
crown 5
crowned 5
cult 5
dating 5
dav@@ 5
deaths 5
debut 5
debuted 5
democratic 5
demonstrated 5
departments 5
descri@@ 5
desire 5
dess 5
destruction 5
developments 5
dged 5
dialect 5
didn 5
discussed 5
dismissed 5
displays 5
dissolved 5
distinguished 5
dition 5
diverse 5
dner 5
dogs 5
dome 5
donated 5
draft 5
dramatic 5
dream 5
driving 5
eastern 5
ebo@@ 5
echn@@ 5
ecting 5
effort 5
efs 5
egal 5
ehouse 5
eighth 5
eim 5
elabor@@ 5
elect@@ 5
embar@@ 5
embl@@ 5
embles 5
emergency 5
emm@@ 5
emperor 5
enst@@ 5
ensu@@ 5
ensure 5
entertainment 5
entitled 5
episode 5
epti@@ 5
eren 5
erer 5
ervation 5
escap@@ 5
escape 5
esman 5
essa 5
essment 5
ested 5
ester 5
estone 5
estry 5
eted 5
ethn@@ 5
etter@@ 5
evangel@@ 5
everything 5
excep@@ 5
exercise 5
expand 5
experienced 5
experim@@ 5
extended 5
extremely 5
faculty 5
farm 5
farmers 5
fastest 5
fei@@ 5
fers 5
ffs 5
fications 5
fiction 5
fifteen 5
fifty 5
film@@ 5
filming 5
finishing 5
firm 5
forcement 5
foun@@ 5
fresh 5
fund@@ 5
funded 5
führer 5
garten 5
gency 5
gent@@ 5
gif@@ 5
goal@@ 5
goals 5
gone 5
greatly 5
guided 5
guitar 5
haf@@ 5
hammer 5
heit@@ 5
help@@ 5
hion 5
hired 5
historic 5
holding 5
holiday 5
honour 5
hull 5
hundred 5
ially 5
icient 5
icking 5
idad 5
identify 5
iet@@ 5
iges 5
ilities 5
immediately 5
implementation 5
implemented 5
inas 5
incor@@ 5
incorporated 5
independ@@ 5
indicates 5
inery 5
ingers 5
initiated 5
inity 5
injuries 5
inner@@ 5
inos 5
inser@@ 5
inspec@@ 5
inspiration 5
installation 5
instruc@@ 5
instrument@@ 5
insur@@ 5
interests 5
introduce 5
investigation 5
iqu@@ 5
irie 5
ischer 5
isition 5
islands 5
ismus 5
isse@@ 5
itated 5
itim@@ 5
itius 5
itness 5
itual 5
ivalent 5
ivil@@ 5
ić 5
jk 5
journalist 5
jump 5
kamp@@ 5
karte 5
kas 5
ken@@ 5
keys 5
kick 5
kick@@ 5
knee 5
kolle@@ 5
lance 5
lanes 5
larvae 5
lass 5
lass@@ 5
libraries 5
licens@@ 5
lichen 5
loy@@ 5
lug 5
manage 5
manager 5
manu@@ 5
martial 5
meets 5
milk 5
mill 5
minist@@ 5
minority 5
mountains 5
mund 5
municipal 5
museum 5
nearest 5
nen 5
nest 5
newly 5
nex@@ 5
nez 5
nineteenth 5
nings 5
nitz 5
numbered 5
ober@@ 5
obsc@@ 5
occurring 5
oded 5
ollen 5
onymous 5
opera 5
operates 5
operators 5
ople 5
opping 5
oque 5
oten 5
oux 5
overseas 5
ovina 5
owski 5
painting 5
parliament 5
partner 5
partnership 5
passes 5
patients 5
perform 5
permitted 5
photos 5
pictures 5
pieces 5
pink 5
pioneer 5
pit 5
policies 5
poll 5
popularity 5
poss@@ 5
posthum@@ 5
ppi 5
predicted 5
preme 5
presentation 5
preservation 5
princip@@ 5
prised 5
proce@@ 5
proced@@ 5
procedures 5
producer 5
prom@@ 5
prototype 5
provi@@ 5
publisher 5
pulled 5
purch@@ 5
putting 5
qual@@ 5
raising 5
rand 5
reader 5
reality 5
reb@@ 5
receive 5
recip@@ 5
recon@@ 5
regard 5
regarding 5
regardless 5
regularly 5
remin@@ 5
replace 5
request@@ 5
rer 5
reserve 5
respective 5
respondent 5
resses 5
ressing 5
rib@@ 5
road@@ 5
roles 5
rons 5
roughly 5
round@@ 5
rugby 5
rupted 5
rö@@ 5
s- 5
safe 5
sail@@ 5
sale 5
sche 5
schule 5
scientists 5
scored 5
seat 5
seek 5
sentence 5
serial 5
settled 5
sevent@@ 5
sheep 5
shifted 5
shipping 5
shooting 5
shorter 5
sidi@@ 5
sie@@ 5
signals 5
significance 5
simil@@ 5
singer 5
sisters 5
sius 5
six@@ 5
skel@@ 5
sket@@ 5
smann 5
sors 5
south@@ 5
spaces 5
spann@@ 5
spiracy 5
spoken 5
sponsored 5
spro@@ 5
stands 5
starts 5
station@@ 5
stead 5
sten 5
stet@@ 5
strateg@@ 5
streng@@ 5
strongly 5
stu@@ 5
stur@@ 5
styles 5
subjects 5
sugar 5
suggest 5
suggests 5
summit 5
surfaces 5
surrounded 5
suspected 5
sylv@@ 5
target@@ 5
teach 5
tells 5
tended 5
tens 5
thereby 5
tie@@ 5
tight 5
tob@@ 5
touring 5
tracks 5
trains 5
transferred 5
transmit@@ 5
treat@@ 5
trials 5
troops 5
trouble 5
tö@@ 5
u. 5
ultimate 5
ummer 5
umped 5
understood 5
unlike 5
uph@@ 5
urg 5
urity 5
usen 5
ussia 5
uttle 5
uture 5
utz@@ 5
varied 5
verg@@ 5
verm@@ 5
vern@@ 5
versions 5
vessels 5
vest 5
vey 5
videos 5
vie@@ 5
view@@ 5
vious 5
viously 5
visitors 5
voir 5
vote 5
walls 5
wart 5
wearing 5
week@@ 5
wet 5
wheels 5
whereas 5
wickets 5
widespread 5
won@@ 5
wrest@@ 5
yweight 5
zel@@ 5
zin@@ 5
zw@@ 5
¯ 5
Î 5
áz@@ 5
än@@ 5
å 5
öl@@ 5
ø 5
û@@ 5
ül@@ 5
ć@@ 5
ė 5
ǐ@@ 5
ɣ@@ 5
ɦ@@ 5
ɴ 5
ɾ 5
̥ 5
̪ 5
Θ 5
ό 5
В 5
п 5
ю 5
Ӏ 5
մ@@ 5
ն 5
տ@@ 5
ء@@ 5
ظ 5
ٍ 5
ڌ 5
ڑ@@ 5
ژ@@ 5
ڪ@@ 5
ހ@@ 5
ޙ@@ 5
ॼ 5
উ 5
ঙ@@ 5
ਂ@@ 5
ਇ@@ 5
ਉ@@ 5
ਖ 5
ਗ 5
ਣ@@ 5
ੈ@@ 5
ੌ@@ 5
ક 5
થ@@ 5
શ 5
૦@@ 5
૧@@ 5
ଁ 5
ଗ 5
ଜ@@ 5
ଡ 5
ଣ@@ 5
ଵ@@ 5
ସ 5
଼ 5
ே 5
ధ 5
బ 5
౹ 5
ಎ@@ 5
ಬ 5
ಳ 5
ೈ@@ 5
ೌ@@ 5
വ 5
ൾ 5
අ@@ 5
ක 5
ත 5
ด 5
ธ@@ 5
ห 5
ำ@@ 5
โ@@ 5
็ 5
ນ@@ 5
ຫ@@ 5
ອ@@ 5
ཇ@@ 5
ཏ@@ 5
ྐ@@ 5
ྣ@@ 5
စ 5
ထ@@ 5
ှ@@ 5
თ@@ 5
ნ@@ 5
რ@@ 5
ግ@@ 5
ក 5
ខ 5
ជ 5
ទ 5
ន@@ 5
ស 5
ី@@ 5
ុ@@ 5
ែ@@ 5
ậ@@ 5
ế@@ 5
ễ@@ 5
ệ 5
ị@@ 5
ộ 5
ớ@@ 5
ờ@@ 5
Ἀ@@ 5
ᾶ@@ 5
ῦ@@ 5
⁻ 5
™ 5
⊂ 5
ⵀ@@ 5
ⵍ@@ 5
。 5
す@@ 5
ま@@ 5
り 5
イ 5
キ@@ 5
ゴ@@ 5
シ@@ 5
セ@@ 5
タ@@ 5
チ@@ 5
テ@@ 5
ト 5
ド@@ 5
ビ@@ 5
モ@@ 5
不@@ 5
东@@ 5
信@@ 5
元 5
八@@ 5
切@@ 5
化@@ 5
原 5
县 5
合@@ 5
四@@ 5
園 5
外@@ 5
太@@ 5
安 5
定@@ 5
少@@ 5
巴@@ 5
帝 5
府 5
德 5
性@@ 5
朝 5
朱@@ 5
村 5
森 5
步@@ 5
武 5
水@@ 5
江 5
法@@ 5
海 5
王 5
班 5
理 5
理@@ 5
田 5
笛 5
羅@@ 5
義@@ 5
育@@ 5
記 5
語 5
谷@@ 5
貴@@ 5
農@@ 5
迦@@ 5
通@@ 5
重@@ 5
雪@@ 5
馬@@ 5
马@@ 5
ꯅ@@ 5
기 5
무@@ 5
박@@ 5
백@@ 5
복 5
삼@@ 5
애@@ 5
어 5
원@@ 5
의@@ 5
젓 5
지@@ 5
한 5
화 5
회@@ 5
 5
𝐚@@ 5
𝐭@@ 5
Aber@@ 4
Advent@@ 4
Allan 4
Ambassador 4
Anal@@ 4
Andrews 4
Angel@@ 4
Apo@@ 4
Arist@@ 4
Arm 4
Astron@@ 4
Atel@@ 4
Athl@@ 4
Augsburg 4
Auguste 4
Baby 4
Bail@@ 4
Barbar@@ 4
Basis 4
Bav@@ 4
Bayer 4
Beach@@ 4
Beck 4
Beijing 4
Belag@@ 4
Berry 4
Bess@@ 4
Bett@@ 4
Beyond 4
Bier@@ 4
Billy 4
Bishop 4
Blake 4
Blum@@ 4
Bowl 4
Brad@@ 4
Brief 4
Brigade 4
Bris@@ 4
Brooks 4
Bundes@@ 4
Busch 4
CDU 4
Californ@@ 4
Campaign 4
Campbell 4
Cardinal 4
Categ@@ 4
Celtic 4
Chamber 4
Champion 4
Chelsea 4
Chester 4
Choice 4
Chris 4
Christoph 4
Chromos@@ 4
Clarke 4
Clu@@ 4
Coleman 4
Colin 4
Colomb@@ 4
Colonel 4
Commercial 4
Conn@@ 4
Contemporary 4
Cooper 4
Crist@@ 4
Curr@@ 4
Dach@@ 4
Dallas 4
Darwin 4
Deleg@@ 4
Demographics 4
Demonstr@@ 4
Dennis 4
Description 4
Deutscher 4
Diocese 4
Discovery 4
Dominican 4
Donn@@ 4
Duncan 4
Edinburgh 4
Eduard 4
Ehr@@ 4
Eil@@ 4
Election 4
Elem@@ 4
Emil 4
Energ@@ 4
Entry 4
Ethiop@@ 4
Etym@@ 4
Evangel@@ 4
Exist@@ 4
Fabri@@ 4
Fach@@ 4
Factory 4
Fant@@ 4
Fauna 4
Fay@@ 4
Feld@@ 4
Fern@@ 4
Fernando 4
Fig@@ 4
Fighter 4
Finnish 4
Fischer 4
Fish 4
Flag@@ 4
Flughafen 4
Foot@@ 4
Formation 4
Francis@@ 4
Fred@@ 4
Front@@ 4
Fund@@ 4
Fü@@ 4
Gay 4
Gehei@@ 4
Geld@@ 4
Gerhard 4
Ges@@ 4
Get 4
Ghana 4
Giuli@@ 4
Glen 4
Gonz@@ 4
Grammy 4
Gren@@ 4
Grenz@@ 4
Grig@@ 4
Grove 4
Guardian 4
Guill@@ 4
Gustav 4
Gut@@ 4
Gü@@ 4
Haar@@ 4
Hammer 4
Hann@@ 4
Hannah 4
Harald 4
Hardy 4
Harold 4
Hart@@ 4
Having 4
Hawai@@ 4
Hisp@@ 4
Holmes 4
Holocaust 4
Hondur@@ 4
Honor 4
Hood 4
Horn 4
Hosp@@ 4
Hotels 4
Hubert 4
Hull 4
Hund@@ 4
Ich 4
Illinois 4
Impul@@ 4
Indies 4
Indonesian 4
Initially 4
Instrument@@ 4
Interpretation 4
Interview 4
Isabella 4
Italia 4
Jackson 4
Jap@@ 4
Jason 4
Jefferson 4
Jena 4
Joachim 4
Jonathan 4
Joseph@@ 4
Journ@@ 4
Jubil@@ 4
Judge 4
Julius 4
Kais@@ 4
Karen 4
Kass@@ 4
Kell@@ 4
Ken 4
Kent@@ 4
Kie@@ 4
Kind@@ 4
Knights 4
Kommun@@ 4
Krist@@ 4
Kriti@@ 4
Kō@@ 4
Lai@@ 4
Lang 4
Larry 4
Last@@ 4
Lebanon 4
Leslie 4
Lisa 4
Lok 4
Lorenzo 4
Ltd. 4
Luft 4
Lus@@ 4
Luxembourg 4
Madag@@ 4
Madrid 4
Magic 4
Mal 4
Males 4
Manhattan 4
Manuel 4
Marg@@ 4
Margar@@ 4
Mario 4
Marion 4
Marsh@@ 4
Mayer 4
Memphis 4
Michel@@ 4
Mick@@ 4
Mid 4
Milwau@@ 4
Mine 4
Mode 4
Moment 4
Montgomery 4
Montreal 4
Monument 4
Morocco 4
Moses 4
Motive 4
Moun@@ 4
Much 4
Muslims 4
Myanmar 4
Nach@@ 4
Nass@@ 4
Nassau 4
Nationalsozial@@ 4
Nazis 4
Netflix 4
Neue 4
Neumann 4
Newcastle 4
Niel@@ 4
Nucle@@ 4
Oak@@ 4
Old@@ 4
Olympi@@ 4
Olympia 4
Olympische 4
Ordin@@ 4
Overview 4
Palestine 4
Panama 4
Patricia 4
Pem@@ 4
Penn 4
Pers@@ 4
Petrus 4
Phil 4
Philippine 4
Pick@@ 4
Polish 4
Portal 4
Progressive 4
Promot@@ 4
Propag@@ 4
Pé@@ 4
Quart@@ 4
Quarter@@ 4
Québec 4
Rafael 4
Rebellion 4
Reformation 4
Regular 4
Reichs@@ 4
Rek@@ 4
Representatives 4
Restaurant 4
Reynolds 4
Richardson 4
Richmond 4
Rid@@ 4
Rif@@ 4
Robertson 4
Robinson 4
Rodri@@ 4
Ron@@ 4
Ronald 4
Roth@@ 4
Round 4
Rö@@ 4
Sacram@@ 4
Sage 4
Sam 4
Sand 4
Saskatchewan 4
Satt@@ 4
Schenk@@ 4
Scho@@ 4
Schrö@@ 4
Schul@@ 4
Schw@@ 4
Sebast@@ 4
Seni@@ 4
Seoul 4
Sever@@ 4
Shanghai 4
Singap@@ 4
Singer 4
Slov@@ 4
Smith@@ 4
Snow 4
Sof@@ 4
Soh@@ 4
Speaker 4
Speed 4
Speed@@ 4
Sprint 4
Stadi@@ 4
Stef@@ 4
Stephan@@ 4
Strat@@ 4
Subsequently 4
Sullivan 4
Taf@@ 4
Tank@@ 4
Tasman@@ 4
Tauf@@ 4
Telegra@@ 4
Tip@@ 4
Tod@@ 4
Together 4
Tomm@@ 4
Tommy 4
Toy@@ 4
Tud@@ 4
Tunis@@ 4
Turin 4
UCI 4
Ulm 4
Unlike 4
Valent@@ 4
Vamp@@ 4
Venet@@ 4
Venice 4
Verlag@@ 4
Versa@@ 4
Vietnamese 4
Viktor 4
Volks@@ 4
Volunte@@ 4
Wander@@ 4
Warri@@ 4
Wash@@ 4
Weis@@ 4
Wells 4
Wen@@ 4
Wer@@ 4
Wes@@ 4
Wick@@ 4
Wies@@ 4
Wikipe@@ 4
Wing 4
Winter 4
Witt@@ 4
Woll@@ 4
Won@@ 4
Working 4
Wur@@ 4
Yang 4
Yuan 4
Zeit@@ 4
Zeitschrift 4
Zel@@ 4
Zir@@ 4
Zor@@ 4
Zucker@@ 4
accid@@ 4
achen 4
achers 4
acking 4
ackle 4
acou@@ 4
adjacent 4
administrative 4
adul@@ 4
adults 4
advert@@ 4
advertis@@ 4
advoc@@ 4
advocate 4
ael 4
agencies 4
aggreg@@ 4
airing 4
alem 4
alien 4
alier 4
alleg@@ 4
alleged 4
ambassador 4
ambia 4
ammad 4
ammed 4
amo 4
amounts 4
amt 4
amt@@ 4
ancement 4
anchor 4
aned 4
animation 4
anist 4
annex@@ 4
anting 4
anyone 4
apart@@ 4
apartment 4
apo 4
apolog@@ 4
apos@@ 4
appearing 4
arez 4
argent@@ 4
arina 4
arist@@ 4
arities 4
asons 4
assessment 4
assistance 4
assistant 4
assisted 4
aten 4
atoes 4
attend 4
attracted 4
ausch 4
aust 4
austral@@ 4
auth@@ 4
authenti@@ 4
authored 4
azzo 4
backed 4
backs 4
bare 4
bassist 4
bau 4
beach 4
beating 4
beck 4
bek 4
beliefs 4
belong 4
bibli@@ 4
bie 4
bination 4
birth@@ 4
bishop 4
bly 4
boss 4
bourne 4
boxer 4
brief 4
brig@@ 4
broad 4
broadcasting 4
bt 4
buch@@ 4
burgh 4
butter@@ 4
byp@@ 4
candidate 4
cans 4
cards 4
cars 4
castle 4
cavalry 4
ceil@@ 4
centered 4
charter 4
charts 4
cially 4
cident 4
citizenship 4
civilians 4
clar@@ 4
classic 4
clos@@ 4
coins 4
colle@@ 4
collect 4
colony 4
columns 4
commented 4
committed 4
compete 4
completion 4
concentrated 4
conclu@@ 4
condemned 4
conflicts 4
conquest 4
conserv@@ 4
considerable 4
consult@@ 4
continues 4
continuing 4
controversy 4
cott 4
coup 4
covers 4
creative 4
critic@@ 4
crops 4
crossed 4
crossing 4
cultures 4
custom 4
customer 4
cuts 4
dangerous 4
dead@@ 4
deals 4
decade 4
deck 4
decre@@ 4
deed 4
defeating 4
defending 4
dei 4
delivery 4
denied 4
dens 4
dere 4
deser@@ 4
desig@@ 4
developer 4
dez 4
dialogue 4
difficulty 4
dig 4
dimension@@ 4
discrimination 4
discussion 4
distinctive 4
divorce 4
doesn 4
dollars 4
dos 4
doubles 4
drove 4
dubbed 4
dul 4
dying 4
eals 4
earth@@ 4
eating 4
ebook 4
ecker 4
edt 4
ehr@@ 4
eland 4
eleg@@ 4
ellow@@ 4
emens 4
emotional 4
emphasis 4
enabled 4
encourage 4
enforcement 4
ensch@@ 4
entirely 4
enzie 4
ephone 4
epis@@ 4
equally 4
erin 4
erium 4
ert@@ 4
escaped 4
essel 4
este 4
eteenth 4
etor@@ 4
eup 4
everyone 4
exce@@ 4
exerc@@ 4
experts 4
explained 4
exploration 4
explosion 4
extends 4
falling 4
faster 4
favor@@ 4
favour 4
fear@@ 4
featured 4
feeding 4
fern 4
fest@@ 4
festivals 4
firms 4
fluence 4
focused 4
forcing 4
fore 4
freestyle 4
frequent 4
fs@@ 4
furniture 4
för@@ 4
gab@@ 4
gang 4
garde 4
gau 4
generated 4
geons 4
gian 4
gie 4
gie@@ 4
gla@@ 4
governments 4
grades 4
gradu@@ 4
gradually 4
graf@@ 4
grand 4
granted 4
graphics 4
guez 4
habit@@ 4
halt 4
hang 4
haus 4
headquarters 4
hear 4
heavily 4
hec@@ 4
helping 4
herr@@ 4
hid@@ 4
hockey 4
hof 4
holder 4
hospitals 4
hous@@ 4
households 4
housing 4
ht 4
hundreds 4
icians 4
icz 4
identical 4
ifa 4
igned 4
illness 4
illustr@@ 4
import@@ 4
inclusion 4
increasingly 4
indeed 4
ingham@@ 4
inhabitants 4
innen 4
insec@@ 4
install@@ 4
instrumental 4
intendent 4
intent 4
intercep@@ 4
interested 4
interesting 4
internation@@ 4
invasion 4
involve 4
involves 4
irm@@ 4
isan 4
issance 4
isten 4
itals 4
ium@@ 4
izen 4
jer@@ 4
jobs 4
journ@@ 4
judge 4
jury 4
juven@@ 4
kanal 4
kill@@ 4
koh@@ 4
kow 4
kre@@ 4
kt 4
lage 4
laid 4
lander 4
landing 4
lane 4
langu@@ 4
lds 4
legitim@@ 4
lek@@ 4
leton 4
liches 4
lift 4
ligence 4
lighting 4
linder 4
listen 4
lle 4
locally 4
lok@@ 4
longest 4
lord 4
loses 4
loved 4
loyal 4
lung 4
lö@@ 4
mag 4
magazines 4
maintaining 4
manual 4
manufacturers 4
margin 4
mary 4
master@@ 4
mates 4
mathemati@@ 4
mau@@ 4
mayor 4
mel 4
memor@@ 4
metropolitan 4
mex@@ 4
mik@@ 4
milit@@ 4
mina 4
mines 4
ministers 4
ministry 4
missed 4
missing 4
mission@@ 4
modern@@ 4
monastery 4
monitoring 4
moth 4
mung 4
musician 4
mut 4
mär@@ 4
nad 4
namely 4
naval 4
nearly 4
necess@@ 4
neck 4
negotiations 4
neighbor@@ 4
neu@@ 4
ninth 4
ob 4
observation 4
occasions 4
occurred 4
oder 4
offering 4
officer 4
officials 4
oge 4
oko 4
oman 4
onde 4
ongoing 4
onym 4
onym@@ 4
operate 4
opportunity 4
orary 4
originally 4
originated 4
orities 4
ornam@@ 4
otte 4
ounced 4
ourney 4
outbreak 4
overwhel@@ 4
own@@ 4
owners 4
pack 4
paint 4
past@@ 4
patron@@ 4
pension 4
permanent 4
permission 4
personnel 4
phenomen@@ 4
pilot 4
placing 4
poetry 4
pool 4
populations 4
ported 4
portrait 4
possibility 4
pressed 4
pret@@ 4
previ@@ 4
prince 4
prising 4
prize 4
promin@@ 4
prominent 4
promote 4
promotion 4
prompted 4
prosec@@ 4
publications 4
question@@ 4
quick 4
quote 4
rack 4
raid 4
raise 4
rally 4
ranges 4
rape 4
rapidly 4
ration@@ 4
readers 4
rechnung 4
reck 4
recognised 4
recomm@@ 4
record@@ 4
register 4
rei 4
rejected 4
releases 4
remark@@ 4
remove 4
repair 4
requ@@ 4
researchers 4
residential 4
restric@@ 4
restrictions 4
retail 4
reviews 4
revolution@@ 4
rew 4
ricts 4
riff 4
rifle 4
rina 4
rock@@ 4
roof 4
rophe 4
rough@@ 4
routes 4
roy 4
roy@@ 4
ruins 4
rupt 4
ruption 4
sach@@ 4
scandal 4
schiffe 4
schild 4
scholar 4
school@@ 4
scra@@ 4
sequel 4
sequently 4
serves 4
sever@@ 4
sexu@@ 4
shallow 4
shausen 4
sheim 4
short@@ 4
sians 4
signature 4
significantly 4
simultane@@ 4
sixteen 4
sized 4
sizes 4
slowly 4
somewhat 4
song@@ 4
specifically 4
spiele 4
stabil@@ 4
stadi@@ 4
stechn@@ 4
stees 4
stern 4
stes 4
stock@@ 4
stores 4
strand 4
strength@@ 4
ström 4
subsidiary 4
substitute 4
succe@@ 4
suggest@@ 4
suicide 4
summary 4
supplied 4
supposed 4
symb@@ 4
tained 4
talent 4
task 4
tau@@ 4
taught 4
taxes 4
tea 4
teau 4
tei@@ 4
ternal 4
thers 4
thouse 4
tian 4
tific@@ 4
tiger 4
til 4
timber 4
toire 4
topics 4
tourist 4
traditions 4
transportation 4
traveling 4
tribut@@ 4
troub@@ 4
tunnel 4
tur 4
turned 4
twelve 4
twentieth 4
ugu@@ 4
ulties 4
umen@@ 4
umm@@ 4
umph@@ 4
unable 4
understand 4
unter@@ 4
unveil@@ 4
uren 4
urn 4
usage 4
ushed 4
usual 4
vast 4
vements 4
verl@@ 4
victim 4
victims 4
vier 4
visits 4
volumes 4
vors 4
voy@@ 4
wagen 4
wald 4
watched 4
weapon 4
weekly 4
wen 4
wie@@ 4
windows 4
wir@@ 4
wish 4
withdrew 4
witz 4
woo@@ 4
worship 4
worst 4
ynast@@ 4
zenship 4
zia 4
zil 4
zio 4
zones 4
zzo 4
 4
¬ 4
µ 4
À 4
È 4
È@@ 4
Ì 4
Í@@ 4
Österreich 4
ön@@ 4
ør@@ 4
ün 4
ğ 4
ł 4
Ş@@ 4
Ż@@ 4
ǎ 4
ǔ@@ 4
Ǻ 4
ɜ@@ 4
ɫ@@ 4
ɯ@@ 4
ɵ@@ 4
ʃ 4
ʏ@@ 4
ʾ@@ 4
ʿ 4
̰ 4
Ά@@ 4
Λ 4
Ω@@ 4
ϊ@@ 4
Г 4
Н 4
С 4
Э@@ 4
ъ@@ 4
հ@@ 4
ր 4
ק 4
ً 4
ٌ 4
چ 4
ڈ@@ 4
ڑ 4
ژ 4
ڬ@@ 4
ܡ@@ 4
ބ@@ 4
ާ@@ 4
ऌ@@ 4
ॢ@@ 4
ॱ@@ 4
ॽ 4
ॿ 4
চ 4
ਣ 4
ਹ 4
ੜ 4
ટ@@ 4
ડ@@ 4
ય@@ 4
લ 4
િ 4
ૃ@@ 4
૨@@ 4
ଂ@@ 4
ଏ@@ 4
ପ 4
ମ 4
ଯ@@ 4
உ@@ 4
வ 4
ீ 4
ఉ@@ 4
ఎ@@ 4
ధ@@ 4
ళ@@ 4
వ 4
ై 4
ో 4
ಂ 4
ಥ 4
ഉ@@ 4
ച 4
ഛ@@ 4
ഞ@@ 4
ബ 4
ഭ@@ 4
ാ 4
ൊ@@ 4
ං@@ 4
ධ@@ 4
ු 4
ො@@ 4
ณ@@ 4
บ@@ 4
ศ@@ 4
อ 4
ื@@ 4
ຂ@@ 4
ດ 4
ດ@@ 4
ພ@@ 4
າ@@ 4
ྦ@@ 4
ྷ 4
ပ 4
ဖ@@ 4
ဟ@@ 4
ါ@@ 4
ខ@@ 4
គ@@ 4
ភ@@ 4
យ 4
យ@@ 4
ᱟ 4
ᱤ@@ 4
ḍ 4
ṇ 4
ẕ 4
ồ 4
ỹ 4
ἐ@@ 4
ἴ@@ 4
ὶ 4
ῶ@@ 4
‒ 4
‹ 4
※ 4
⁠ 4
⁰ 4
₣ 4
₨ 4
♯ 4
ⵖ@@ 4
ⵜ@@ 4
ⵢ@@ 4
が@@ 4
け@@ 4
た 4
ち@@ 4
ど@@ 4
み 4
み@@ 4
ク 4
コ 4
サ@@ 4
ョ@@ 4
リ@@ 4
之@@ 4
九@@ 4
二@@ 4
体@@ 4
佛@@ 4
倭 4
克@@ 4
党 4
兵 4
分 4
前@@ 4
功@@ 4
勾@@ 4
化 4
千@@ 4
卐 4
原@@ 4
取@@ 4
同@@ 4
唐@@ 4
夕 4
天 4
央@@ 4
子@@ 4
学 4
學 4
宗@@ 4
家 4
将@@ 4
岳 4
川@@ 4
州 4
州@@ 4
平 4
年 4
年@@ 4
度@@ 4
徳@@ 4
成@@ 4
族 4
族@@ 4
月 4
月@@ 4
木@@ 4
术@@ 4
林@@ 4
正@@ 4
民 4
無@@ 4
猜@@ 4
的@@ 4
盆 4
秋@@ 4
立@@ 4
第@@ 4
精@@ 4
総@@ 4
维@@ 4
罗@@ 4
羽@@ 4
者 4
股@@ 4
色@@ 4
花@@ 4
藏@@ 4
行 4
角 4
角@@ 4
読@@ 4
議@@ 4
路@@ 4
近@@ 4
郎 4
郭@@ 4
鎮@@ 4
青@@ 4
館 4
馆 4
騰 4
鴻@@ 4
龍 4
龙@@ 4
ꠘ@@ 4
ꯃ@@ 4
ꯇ@@ 4
ꯍ@@ 4
ꯦ@@ 4
관 4
나@@ 4
남@@ 4
도 4
도@@ 4
리 4
배@@ 4
사 4
삼 4
상@@ 4
선@@ 4
스@@ 4
시@@ 4
신@@ 4
아@@ 4
우@@ 4
일@@ 4
정 4
찌@@ 4
 4
ﺳ@@ 4
（ 4
𑐵@@ 4
𝐟@@ 4
1920s 3
2,5 3
Aaron 3
Abitur 3
Academ@@ 3
Adel@@ 3
Airways 3
Aleks@@ 3
Alger@@ 3
Anders 3
Angeles 3
Anglican 3
Arbeiter@@ 3
Archbishop 3
Ark@@ 3
Armenian 3
Associate 3
Athletic 3
Atl@@ 3
Auckland 3
Aug@@ 3
Automobil@@ 3
Autor@@ 3
Avenue 3
Azer@@ 3
Azerbaijan 3
Bach 3
Banglad@@ 3
Barbara 3
Baronet 3
Bart@@ 3
Basketball 3
Bears 3
Becker 3
Bek@@ 3
Belie@@ 3
Bennett 3
Berg 3
Berger 3
Berliner 3
Berufs@@ 3
Bew@@ 3
Bie@@ 3
Blatt@@ 3
Blues 3
Bobby 3
Bombar@@ 3
Bosnia 3
Boulevard 3
Brad 3
Bradley 3
Branch 3
Brand 3
Break@@ 3
Bronze 3
Brother 3
Bulgar@@ 3
Bund 3
Byr@@ 3
Bö@@ 3
Bü@@ 3
CDP 3
Caf@@ 3
Café 3
Cambo@@ 3
Carmen 3
Carnegie 3
Carol 3
Carolina 3
Chapel 3
Christians 3
Chronic@@ 3
Cincinnati 3
Clif@@ 3
Coach 3
Colonial 3
Combat 3
Computer@@ 3
Connecticut 3
Copenhagen 3
Cornell 3
Cornwall 3
Course 3
Crus@@ 3
Cyprus 3
Czech 3
Dale 3
Darm@@ 3
Davi@@ 3
Davies 3
Denis 3
Details 3
Detroit 3
Devon 3
Dies@@ 3
Dietrich 3
Directors 3
Disk@@ 3
Doh@@ 3
Dorn@@ 3
Duisburg 3
Durham 3
Dylan 3
Ecuador 3
Eddie 3
Eight 3
Eis@@ 3
Eisenh@@ 3
Elbe 3
Elite 3
Elli@@ 3
Entw@@ 3
Environ@@ 3
Erd@@ 3
Ere@@ 3
Erich 3
Erwin 3
Esk@@ 3
Eva 3
Evans 3
Eve 3
Event@@ 3
Exhibition 3
Fah@@ 3
Fellow 3
Fellowship 3
Ferg@@ 3
Fest 3
Finally 3
Finland 3
Fitz@@ 3
Flam@@ 3
Flight 3
Folk 3
Foll@@ 3
Francesco 3
Frankfurt 3
Frau@@ 3
Fren@@ 3
Friedrich@@ 3
Furthermore 3
Gang 3
Gat@@ 3
Geist@@ 3
Geschichte 3
Gibr@@ 3
Gibson 3
Glau@@ 3
Gle@@ 3
Glou@@ 3
Golf 3
Grim@@ 3
Große 3
Grund@@ 3
Grün@@ 3
Hain@@ 3
Halifax 3
Halle 3
Hampshire 3
Harbor 3
Harbour 3
Harris 3
Harvey 3
Haute 3
Helsinki 3
Herman 3
Herr@@ 3
Herz@@ 3
Herzeg@@ 3
Historic 3
Hitler 3
Hits 3
Holland 3
Hug@@ 3
Humb@@ 3
Humboldt 3
Hungary 3
Hän@@ 3
Hö@@ 3
Iceland 3
Illu@@ 3
Infra@@ 3
Initi@@ 3
Innov@@ 3
Internation@@ 3
Invasion 3
Isra@@ 3
Israeli 3
Ital@@ 3
Jakob@@ 3
Jaz@@ 3
Jerry 3
Jim 3
Jin 3
Johan 3
John@@ 3
Johnston 3
Josef 3
Josh 3
Journal@@ 3
Jugend 3
Julia 3
Julie 3
Jung 3
Jürgen 3
KZ 3
Kaiser@@ 3
Kalk@@ 3
Kansas 3
Kate 3
Kauf@@ 3
Keh@@ 3
Kemp@@ 3
Kenya 3
Kinder 3
Klin@@ 3
Kunsth@@ 3
Kup@@ 3
König@@ 3
Label 3
Laf@@ 3
Lancaster 3
Lausanne 3
Leb@@ 3
Lew@@ 3
León 3
Liechtenstein 3
Lj@@ 3
Logan 3
Lombar@@ 3
Lop@@ 3
Luigi 3
Lynn 3
López 3
Mack@@ 3
Magist@@ 3
Magnus 3
Maine 3
Manu@@ 3
March@@ 3
Marvel 3
Mason 3
Maus@@ 3
McDonald 3
Meanwhile 3
Mehr@@ 3
Mens@@ 3
Meteor@@ 3
Meyer 3
Michelle 3
Milit@@ 3
Milton 3
Mineral 3
Monroe 3
Moor@@ 3
Morrison 3
Mozart 3
Musik@@ 3
Mö@@ 3
Namibia 3
Nancy 3
Nashville 3
Nazi 3
Nieder@@ 3
Nol@@ 3
Nord 3
Normal@@ 3
Notable 3
Ohio 3
Oklahoma 3
Opposition 3
Orchestra 3
Oregon 3
Osaka 3
Oster@@ 3
Pablo 3
Parliamentary 3
Patent 3
Paulo 3
Pes@@ 3
Petersburg 3
Philipp 3
Philosophie 3
Pist@@ 3
Players 3
Playoffs 3
Plot 3
Plymouth 3
Politi@@ 3
Prague 3
Presidential 3
Princ@@ 3
Prison 3
Progr@@ 3
Provin@@ 3
Prus@@ 3
Quebec 3
Quer@@ 3
Ral@@ 3
Rand 3
Rast@@ 3
Recre@@ 3
Regel 3
Release 3
Reper@@ 3
Repres@@ 3
Representative 3
Rest 3
Rey 3
Rhein 3
Rica 3
Rico 3
Ridge 3
Rie@@ 3
Rochester 3
Rodríguez 3
Rog@@ 3
Romania 3
Roos@@ 3
Rosa 3
Route 3
Ruth 3
Saale 3
Sainte 3
Santi@@ 3
Santos 3
Satell@@ 3
Saxon 3
Schi@@ 3
Schwerpunkt 3
Schä@@ 3
Scot@@ 3
Scottish 3
Sech@@ 3
Seminar 3
Simil@@ 3
Singles 3
Skel@@ 3
Slovenia 3
Solo 3
Somerset 3
Soph@@ 3
Spitz@@ 3
Spur 3
Staat@@ 3
Stab@@ 3
Stadt@@ 3
Starting 3
Stefan 3
Steph@@ 3
Steven 3
Stil@@ 3
Stockholm 3
Strand 3
Stur@@ 3
Stuttgart 3
Support 3
Surrey 3
Swedish 3
Symph@@ 3
Sé@@ 3
Sü@@ 3
Tall@@ 3
Tanz@@ 3
Tat 3
Teams 3
Tenn@@ 3
Tennis 3
Terror@@ 3
Thames 3
Theodor 3
Theorie 3
Thess@@ 3
Through 3
Throughout 3
Tier@@ 3
Tigers 3
Tim 3
Tournament 3
Township 3
Triple 3
UNE@@ 3
Underground 3
Uru@@ 3
Uruguay 3
Uz@@ 3
Vale 3
Vand@@ 3
Vau@@ 3
Vest@@ 3
Victor@@ 3
Victory 3
Villa 3
Viol@@ 3
Viz@@ 3
Volk 3
Vu@@ 3
Wand@@ 3
Warsaw 3
Was 3
Wels@@ 3
Wiener 3
Wig@@ 3
Wild@@ 3
Wilhel@@ 3
Wirtschafts@@ 3
Wissenschaften 3
Wohl@@ 3
Wör@@ 3
Württemberg 3
Zeal@@ 3
Zim@@ 3
Zivil@@ 3
Zun@@ 3
Zürich 3
aben 3
abroad 3
abs@@ 3
academ@@ 3
accomplished 3
achievements 3
acknowledged 3
acoustic 3
acres 3
actively 3
activist 3
actress 3
adem@@ 3
aden 3
adequate 3
administ@@ 3
adoption 3
adows 3
adventure 3
advertising 3
affair 3
aily 3
aimed 3
aissance 3
ako 3
alcoh@@ 3
aldo 3
allegedly 3
amas 3
ambiguation 3
amme 3
ammer 3
ancell@@ 3
andro 3
angered 3
animated 3
anniversary 3
annon 3
announcement 3
anny 3
antly 3
anze 3
apost@@ 3
apparently 3
appen 3
applic@@ 3
appointment 3
apprenti@@ 3
approved 3
aren 3
argue 3
arre@@ 3
arri@@ 3
arrival 3
asen@@ 3
aspar 3
asser 3
asso 3
associate 3
athlet@@ 3
athlon 3
atie 3
atius 3
attached 3
auses 3
automatically 3
avier 3
aware 3
bap@@ 3
bay 3
bei 3
bein 3
bell 3
bench 3
bergen 3
berland 3
bett 3
bills 3
bog@@ 3
bol@@ 3
bowl 3
bricht 3
brings 3
broken 3
brook 3
bst@@ 3
burg@@ 3
buy 3
cabinet 3
campus 3
capita 3
captain 3
cargo 3
carries 3
carrying 3
carved 3
cave 3
celebrate 3
ceremon@@ 3
challenged 3
champ@@ 3
chann@@ 3
characterized 3
chard 3
chef 3
chest@@ 3
chester 3
chie@@ 3
child@@ 3
childhood 3
chose 3
chronic@@ 3
circa 3
cist 3
cker@@ 3
claiming 3
clearly 3
clesi@@ 3
closing 3
coastal 3
coffee 3
cole 3
collabor@@ 3
comfort@@ 3
commentary 3
comments 3
compan@@ 3
competitive 3
completing 3
concer@@ 3
condem@@ 3
confidence 3
consider@@ 3
consideration 3
consumption 3
contest 3
conventi@@ 3
corner 3
councill@@ 3
courts 3
cousin 3
crash 3
creates 3
criteria 3
critic 3
cue 3
dang@@ 3
danger 3
dass 3
debt 3
decor@@ 3
deemed 3
deh@@ 3
delayed 3
democ@@ 3
demon@@ 3
dency 3
deos 3
depic@@ 3
depicted 3
design@@ 3
designation 3
destination 3
deutsch@@ 3
deutschen 3
devast@@ 3
devoted 3
dien@@ 3
dinal 3
directing 3
disambiguation 3
discrimin@@ 3
doctors 3
dominated 3
drafted 3
drama 3
drei 3
drew 3
duce 3
dun@@ 3
duration 3
duties 3
e. 3
e.V. 3
eag@@ 3
earn 3
earning 3
earthqu@@ 3
eased 3
easi@@ 3
easier 3
ebru@@ 3
eder@@ 3
edings 3
effectively 3
egel@@ 3
eher 3
eiro 3
ekt@@ 3
eldest 3
elect 3
elections 3
eler 3
eligible 3
elim@@ 3
elis 3
ellen 3
elsewhere 3
emal@@ 3
emales 3
emble 3
enab@@ 3
enable 3
encomp@@ 3
endar@@ 3
engaged 3
engers 3
engine@@ 3
enheim 3
enjo@@ 3
ennis 3
entering 3
entieth 3
entin 3
entran@@ 3
entri@@ 3
environments 3
epts 3
erd@@ 3
eres@@ 3
erine 3
erl@@ 3
erne 3
essels 3
establ@@ 3
estyle 3
etim@@ 3
etz 3
europ@@ 3
evening 3
eventual 3
eville 3
evolved 3
exac@@ 3
exclusively 3
execution 3
exemp@@ 3
existed 3
expanding 3
extend 3
fabri@@ 3
facing 3
familiar 3
farmer 3
favorite 3
federal 3
feld@@ 3
fen 3
fert 3
fik@@ 3
firing 3
firm@@ 3
fis@@ 3
fisher@@ 3
fishing 3
fiz@@ 3
fled 3
forn@@ 3
fortunately 3
fot@@ 3
fourteen 3
franchise 3
fraud 3
fred 3
fresh@@ 3
fried 3
ften 3
funding 3
funk 3
gegen 3
geh@@ 3
generations 3
genre 3
ghton 3
giate 3
governing 3
governmental 3
gow 3
graded 3
graduated 3
graduation 3
grain 3
gut@@ 3
gär@@ 3
habitat 3
handed 3
happen 3
haus@@ 3
haven 3
healthy 3
heav@@ 3
helps 3
hero@@ 3
historians 3
hits 3
hitting 3
hochschule 3
holz 3
honored 3
hoods 3
hotel 3
household 3
hunting 3
hut 3
ief 3
ies@@ 3
ight@@ 3
igi 3
ignor@@ 3
illegal 3
ilom@@ 3
immer@@ 3
immig@@ 3
immigrants 3
impossible 3
imprisonment 3
improvements 3
improving 3
ims 3
incar@@ 3
incre@@ 3
independently 3
individu@@ 3
industri@@ 3
infra@@ 3
inhab@@ 3
inhal@@ 3
injured 3
inks 3
inscription 3
insects 3
inski 3
inten@@ 3
interior 3
internationale 3
internationally 3
interviews 3
invented 3
ions@@ 3
ipment 3
ischar@@ 3
ischen 3
isms 3
issen 3
iterran@@ 3
itik 3
itment 3
itte 3
ión 3
jing 3
joins 3
kei 3
kilomet@@ 3
knew 3
kop@@ 3
kub@@ 3
kus 3
labor@@ 3
landscap@@ 3
lat 3
lawyer 3
lease 3
legen 3
legend 3
legislative 3
legislature 3
legitimate 3
liberal 3
liest 3
lifetime 3
liga 3
lika 3
limin@@ 3
liminary 3
lio 3
litz 3
lla 3
loading 3
locations 3
looks 3
lyrics 3
magic 3
maintain 3
manufac@@ 3
manuscripts 3
mately 3
meat 3
medieval 3
membership 3
mention 3
mentions 3
merger 3
merk@@ 3
minimal 3
missionary 3
missions 3
mollus@@ 3
moor 3
movies 3
murder 3
myst@@ 3
myth@@ 3
nach@@ 3
nationale 3
nei@@ 3
neighborhood 3
neighboring 3
nered 3
networks 3
neu 3
neur 3
nie@@ 3
nominated 3
observations 3
occasion 3
occur@@ 3
oden 3
ogne 3
ograf@@ 3
olate 3
olls 3
olution 3
oming 3
onally 3
ongs 3
onwards 3
oper 3
opportunities 3
options 3
orange 3
orchest@@ 3
organis@@ 3
organisations 3
origins 3
orious 3
orthod@@ 3
outstanding 3
ovic 3
ovsky 3
ownership 3
p.m. 3
panel 3
parents 3
particip@@ 3
paying 3
perceived 3
pert 3
phen 3
piano 3
pick@@ 3
pitcher 3
platforms 3
playoffs 3
poet 3
pointed 3
poses 3
possession 3
posted 3
posts 3
prac@@ 3
pract@@ 3
prayer 3
preferred 3
pregnant 3
preparation 3
prepared 3
prescri@@ 3
preser@@ 3
produc@@ 3
propaganda 3
protests 3
provincial 3
publicly 3
publish 3
punishment 3
purchased 3
purposes 3
pursu@@ 3
pushed 3
qualification 3
qualify 3
quarter@@ 3
quez 3
rach 3
racial 3
rag 3
reaches 3
reason@@ 3
reau 3
recep@@ 3
reception 3
rech@@ 3
reform@@ 3
refuge@@ 3
refused 3
regi@@ 3
regim@@ 3
registered 3
reich 3
reluc@@ 3
rency 3
repar@@ 3
representatives 3
requested 3
rescu@@ 3
residence 3
resident 3
resigned 3
resolved 3
respond@@ 3
responded 3
responsi@@ 3
restor@@ 3
restored 3
retain 3
retur@@ 3
returning 3
reviewed 3
riages 3
richt 3
riding 3
rington 3
ritual 3
rival@@ 3
roads 3
rode 3
roe 3
rook@@ 3
rooms 3
samm@@ 3
samples 3
scen@@ 3
schedul@@ 3
schedule 3
schw@@ 3
second@@ 3
sees 3
sein@@ 3
sek@@ 3
select 3
sels 3
sely 3
sending 3
sensus 3
separately 3
seri@@ 3
servant 3
shafen 3
shelter 3
sher@@ 3
shopping 3
shoulder 3
shut 3
sidents 3
siege 3
skill 3
slave 3
sley 3
slow@@ 3
snow 3
soldier 3
solely 3
speaker 3
specialized 3
spoke 3
sponsor@@ 3
sporting 3
sprin@@ 3
sprung 3
spur 3
squadron 3
ssen 3
stadium 3
stag@@ 3
starred 3
starter 3
statue 3
staur@@ 3
stepp@@ 3
stige 3
stitution 3
storyline 3
streaming 3
streets 3
stretch 3
struck 3
struggle 3
stud@@ 3
studied 3
studio 3
submitted 3
subsequent 3
substantial 3
suburb 3
suddenly 3
sug@@ 3
suit 3
supporters 3
surrender 3
surround@@ 3
surrounding 3
swimming 3
switched 3
systeme 3
tains 3
tall 3
tasks 3
teen@@ 3
telling 3
temporary 3
tenberg 3
tender 3
tere 3
thanks 3
theast 3
thei@@ 3
themat@@ 3
theorie 3
there@@ 3
thrown 3
tik 3
tionally 3
tonn@@ 3
tourists 3
tours 3
trail 3
trained 3
transformed 3
treaty 3
trend 3
tric 3
tsch 3
uchs 3
uck 3
umni 3
umption 3
umst@@ 3
unbe@@ 3
undertaken 3
unen 3
ungl@@ 3
united 3
universities 3
upper@@ 3
uries 3
utive 3
utz 3
vae 3
variants 3
varieties 3
vegetation 3
vening 3
versy 3
veter@@ 3
vices 3
vier@@ 3
vocalist 3
vot@@ 3
voted 3
voy 3
vulner@@ 3
wach@@ 3
wark 3
wealthy 3
weap@@ 3
whe@@ 3
where@@ 3
wider 3
wig 3
wings 3
wins 3
withdrawal 3
witness 3
wooden 3
worker 3
worn 3
worthy 3
wre@@ 3
wur@@ 3
youn@@ 3
zep@@ 3
zier 3
Æ 3
Ç 3
Ñ@@ 3
Österreichs 3
ß@@ 3
är 3
ík 3
ío 3
ór@@ 3
ów 3
ône 3
õ 3
õ@@ 3
üh@@ 3
ür@@ 3
ütz@@ 3
þ 3
ÿ@@ 3
č 3
ė@@ 3
ń 3
ő@@ 3
ś 3
ɒ 3
ɕ 3
ɖ@@ 3
ɳ@@ 3
ɸ 3
ʑ@@ 3
ʕ@@ 3
ʼ@@ 3
ʾ 3
ˀ@@ 3
ˠ@@ 3
˧ 3
̄ 3
̞ 3
͟ 3
Β 3
Ζ@@ 3
Η@@ 3
Υ 3
Χ@@ 3
Ψ 3
ί 3
ξ 3
Д 3
Ж@@ 3
М 3
б 3
ж 3
ш 3
є 3
ѣ 3
қ 3
ҷ@@ 3
Ө@@ 3
Մ@@ 3
կ@@ 3
ց@@ 3
ּ 3
ח 3
ף 3
ץ 3
أ 3
ذ 3
ط 3
ً@@ 3
ٰ 3
ٽ@@ 3
ډ@@ 3
ڊ 3
ښ@@ 3
ڤ@@ 3
ۍ 3
ێ@@ 3
ې 3
ۓ 3
ܒ@@ 3
ܠ@@ 3
ܢ@@ 3
ܣ@@ 3
ކ@@ 3
ވ@@ 3
ފ@@ 3
ާ 3
ި 3
ެ 3
ެ@@ 3
ऻ@@ 3
ॹ@@ 3
ঢ@@ 3
ৎ 3
ਈ 3
ਘ@@ 3
ਟ 3
ਥ@@ 3
ਧ 3
ਵ 3
ઈ 3
ખ@@ 3
ચ@@ 3
ણ 3
ଇ 3
ଇ@@ 3
ଖ@@ 3
ଚ 3
ଟ@@ 3
ବ 3
ଲ 3
ୌ@@ 3
ஜ 3
ஷ@@ 3
జ 3
ళ 3
హ 3
ృ@@ 3
ే 3
ಘ@@ 3
ಜ 3
ಧ 3
ಭ@@ 3
ಹ 3
ആ@@ 3
ഇ@@ 3
എ@@ 3
ഝ@@ 3
ഞ 3
ഠ@@ 3
ഥ 3
ഥ@@ 3
ഴ@@ 3
ീ 3
ඩ@@ 3
ණ@@ 3
ව 3
ස 3
ළ@@ 3
ි 3
ෙ@@ 3
ุ 3
ງ@@ 3
ບ@@ 3
ລ@@ 3
ສ@@ 3
ະ 3
ະ@@ 3
ູ@@ 3
ຼ@@ 3
ຽ@@ 3
ཀ 3
ཉ@@ 3
ཊ 3
ཟ@@ 3
ཧ@@ 3
ཨ 3
ཨ@@ 3
ྙ@@ 3
ဂ@@ 3
ဇ@@ 3
ဗ@@ 3
ဲ 3
ံ 3
၊ 3
დ@@ 3
ო@@ 3
ት@@ 3
አ@@ 3
ᐃ@@ 3
ᓄ@@ 3
ᓇ@@ 3
ច@@ 3
ប 3
ព 3
ព@@ 3
ហ@@ 3
ឯ@@ 3
ិ@@ 3
េ@@ 3
ᱜ@@ 3
ᱠ@@ 3
ᱡ@@ 3
ᱮ@@ 3
ᱯ@@ 3
ᱷ@@ 3
ḏ@@ 3
ḫ@@ 3
ṁ@@ 3
ṃ@@ 3
ṣ 3
ṭ 3
ẓ@@ 3
ẩ@@ 3
ố@@ 3
ἡ@@ 3
ἱ@@ 3
Ὀ@@ 3
ὕ@@ 3
ὖ 3
ὰ 3
ὴ@@ 3
ὼ 3
‖ 3
„ 3
‪ 3
₆ 3
₫ 3
№ 3
∧ 3
│ 3
☬ 3
♙ 3
♟ 3
♠ 3
✓ 3
➡ 3
ⴽ@@ 3
ⵉ 3
ⵏ 3
ⵏ@@ 3
ⵓ@@ 3
ⵙ@@ 3
」 3
あ@@ 3
う@@ 3
お@@ 3
き 3
し 3
し@@ 3
て 3
な@@ 3
ゃ@@ 3
ら@@ 3
り@@ 3
わ@@ 3
ア 3
ィ@@ 3
オ@@ 3
ズ 3
タ 3
ド 3
ニ@@ 3
パ@@ 3
プ 3
ボ@@ 3
ミ@@ 3
ラ 3
リ 3
万@@ 3
乐@@ 3
互@@ 3
作@@ 3
傳@@ 3
全@@ 3
兩@@ 3
兵@@ 3
典 3
出@@ 3
加@@ 3
十@@ 3
半@@ 3
南 3
口 3
古@@ 3
台 3
台@@ 3
名 3
品@@ 3
唐 3
善 3
园 3
土@@ 3
在@@ 3
基@@ 3
夕@@ 3
太 3
夫@@ 3
奥@@ 3
婆@@ 3
字@@ 3
孙@@ 3
宋@@ 3
宮@@ 3
密@@ 3
尔 3
尼 3
尼@@ 3
居 3
岡 3
工@@ 3
常@@ 3
引@@ 3
忠@@ 3
愛 3
愛@@ 3
慶 3
憲@@ 3
战@@ 3
所 3
承@@ 3
拉@@ 3
振@@ 3
探@@ 3
支@@ 3
政@@ 3
教 3
教@@ 3
新 3
星@@ 3
時@@ 3
朝@@ 3
柔@@ 3
柿@@ 3
校 3
楽 3
橋 3
機 3
歌 3
正 3
氏 3
汉 3
汉@@ 3
池 3
沢 3
沢@@ 3
泉 3
波@@ 3
洋 3
洛@@ 3
浦 3
淡@@ 3
港@@ 3
澤 3
然@@ 3
照 3
爭 3
爱@@ 3
物@@ 3
特 3
玉 3
玉@@ 3
王@@ 3
珍 3
球@@ 3
生 3
生@@ 3
用@@ 3
电@@ 3
画 3
界@@ 3
皇@@ 3
盧@@ 3
県 3
短@@ 3
社@@ 3
祭 3
秀@@ 3
科 3
空 3
章 3
竺@@ 3
米 3
米@@ 3
約 3
維@@ 3
经 3
羅 3
美@@ 3
能@@ 3
臣 3
航@@ 3
般@@ 3
英@@ 3
草@@ 3
萨@@ 3
蔵@@ 3
衆@@ 3
術 3
衛@@ 3
西 3
訓 3
諸@@ 3
象@@ 3
貨 3
赤@@ 3
银@@ 3
長@@ 3
門 3
関@@ 3
隠@@ 3
雄 3
集@@ 3
青 3
静@@ 3
革@@ 3
音 3
音@@ 3
风 3
香@@ 3
鬼@@ 3
黃@@ 3
ꜜ@@ 3
ꠟ@@ 3
ꠤ 3
ꯀ@@ 3
ꯄ@@ 3
ꯌ@@ 3
ꯏ@@ 3
ꯕ 3
ꯗ@@ 3
ꯡ 3
ꯨ 3
ꯩ@@ 3
가@@ 3
게@@ 3
고 3
공@@ 3
과 3
광@@ 3
금@@ 3
길@@ 3
녀 3
다 3
대 3
두@@ 3
로 3
만@@ 3
모 3
버@@ 3
부 3
산 3
석 3
설@@ 3
세@@ 3
스 3
안@@ 3
애 3
어@@ 3
여@@ 3
영@@ 3
온@@ 3
옷 3
원 3
은 3
은@@ 3
인 3
일 3
자@@ 3
장@@ 3
재@@ 3
주 3
지 3
진@@ 3
청@@ 3
치@@ 3
트@@ 3
하@@ 3
혜 3
ﺍ 3
ﺔ 3
ﻨ@@ 3
ﻼ@@ 3
￣ 3
𝐜@@ 3
𝐥@@ 3
𝐫 3
🏻 3
0,5 2
14. 2
17. 2
1940s 2
20. 2
5.000 2
7,5 2
9. 2
Actress 2
Agent 2
Agre@@ 2
Agric@@ 2
Alaska 2
Albany 2
Aless@@ 2
Alex 2
Altar 2
Alter@@ 2
Amateur 2
Anf@@ 2
Angelo 2
Angels 2
Apoll@@ 2
Argent@@ 2
Argentina 2
Arizona 2
Arkansas 2
Armstrong 2
Arsenal 2
Arz@@ 2
Asteroid 2
Athens 2
Atlanta 2
Auf 2
Aus 2
Auschwitz 2
Ausgabe 2
Australi@@ 2
Aviv 2
Bald@@ 2
Balti@@ 2
Bangkok 2
Barry 2
Baseball 2
Batman 2
Bavaria 2
Beeth@@ 2
Beginning 2
Belarus 2
Belfast 2
Belgian 2
Belgrade 2
Belle 2
Bem@@ 2
Benn@@ 2
Bent@@ 2
Bever@@ 2
Bibliothek@@ 2
Biel@@ 2
Billi@@ 2
Bismar@@ 2
Boden 2
Boot@@ 2
Botan@@ 2
Brandenburg 2
Brasili@@ 2
Brat@@ 2
Brau@@ 2
Braun 2
Brenn@@ 2
Breslau 2
Brett 2
Brief@@ 2
Brist@@ 2
Bristol 2
Bryan 2
Brü@@ 2
Brücke 2
Budapest 2
Budget 2
Buffalo 2
Bulgaria 2
Burk@@ 2
Burton 2
Butler 2
Bé@@ 2
Böh@@ 2
Bürger@@ 2
Cameron 2
Canterbury 2
Carter 2
Chair@@ 2
Challenger 2
Champions 2
Chan 2
Chart 2
Chess 2
Christian@@ 2
Cinc@@ 2
Claire 2
Clara 2
Claudi@@ 2
Clay@@ 2
Cleveland 2
Clim@@ 2
Cly@@ 2
Co. 2
Cohen 2
Columbus 2
Commissioner 2
Connor 2
Conrad 2
Copa 2
Count@@ 2
Cover 2
Craig 2
Critics 2
Cuba 2
Currently 2
Dakota 2
Damp@@ 2
Darmstadt 2
Dass 2
Defin@@ 2
Definition 2
Derby 2
Deut@@ 2
Diana 2
Disc@@ 2
Divis@@ 2
Dollar 2
Drake 2
Dresden 2
Dür@@ 2
Eber@@ 2
Ecu@@ 2
Edith 2
Edmonton 2
Ehren@@ 2
Ein 2
Electoral 2
Elek@@ 2
Ell@@ 2
Emper@@ 2
Er 2
Erz@@ 2
Essex 2
Estonia 2
Events 2
Explo@@ 2
Famili@@ 2
Fan@@ 2
Fein@@ 2
Feld 2
Fen@@ 2
Ferguson 2
Fest@@ 2
Feu@@ 2
Feuer@@ 2
Fid@@ 2
Firma 2
Florence 2
Format 2
Frag@@ 2
Franco 2
Fraser 2
Frau 2
Fred 2
Freiburg 2
Freiheit 2
Frem@@ 2
Friday 2
Friends 2
Fris@@ 2
Garc@@ 2
Geh@@ 2
Geoff@@ 2
Geologie 2
Gerald 2
Gertru@@ 2
Gesetz 2
Gesetz@@ 2
Gie@@ 2
Gif@@ 2
Glasgow 2
Gothic 2
Gott@@ 2
Graf 2
Graz 2
Gruppe 2
Grön@@ 2
Grünen 2
Guatemala 2
Habit@@ 2
Hack@@ 2
Hagen 2
Halb@@ 2
Handel 2
Hannover 2
Harrison 2
Haven 2
Hein@@ 2
Helen 2
Helsin@@ 2
Henderson 2
Henri@@ 2
Herald 2
Hilfs@@ 2
Hip 2
Hoch@@ 2
Hoff@@ 2
Holstein 2
Horst 2
Hotel@@ 2
Houston 2
Hudson 2
Hungarian 2
Iber@@ 2
Indiana 2
Indianapolis 2
Industri@@ 2
Informations@@ 2
Install@@ 2
Interior 2
Interstate 2
Iran@@ 2
Isab@@ 2
Jackie 2
Jamaica 2
Jazz 2
Jazz@@ 2
Jen@@ 2
Jennifer 2
Joel 2
Johann@@ 2
Jon 2
Jord@@ 2
Joshua 2
Jugend@@ 2
Junge 2
Kamer@@ 2
Kampf@@ 2
Karl@@ 2
Karlsruhe 2
Karos@@ 2
Kay 2
Kennedy 2
Kent 2
Kick@@ 2
Kind 2
Kirk@@ 2
Kla@@ 2
Kle@@ 2
Klo@@ 2
Klu@@ 2
Knot@@ 2
Kob@@ 2
Kohl@@ 2
Kommand@@ 2
Korn@@ 2
Kreis 2
Krieg@@ 2
Kron@@ 2
Kunst@@ 2
Kär@@ 2
Köln 2
König 2
LGB@@ 2
Ladies 2
Lakes 2
Lange 2
Las 2
Laut@@ 2
Laz@@ 2
Legislature 2
Leicester 2
Lincol@@ 2
Lincoln 2
Linda 2
Literatur 2
Lithuania 2
Lithuanian 2
Liu 2
Liverpool 2
Louis@@ 2
Lucy 2
Luther 2
Luther@@ 2
Luxemburg 2
Lö@@ 2
Mai 2
Manfred 2
Manga 2
Manitoba 2
Mannheim 2
Manor 2
Mans 2
Marin@@ 2
Match 2
Matt 2
Matth@@ 2
Matthias 2
Maximilian 2
McC@@ 2
Meer 2
Mein@@ 2
Merit 2
Merk@@ 2
Milan 2
Miles 2
Million 2
Minister@@ 2
Mission@@ 2
Mississippi 2
Mitchell 2
Miy@@ 2
Montana 2
Moritz 2
Moroc@@ 2
Morton 2
Motoren 2
Municip@@ 2
Muster 2
Myster@@ 2
Má@@ 2
Nathan 2
National@@ 2
Navar@@ 2
Neckar 2
Neigh@@ 2
Neub@@ 2
Nevada 2
Newman 2
Nicholas 2
Nun 2
Nur 2
Ob 2
Oblast 2
Officer 2
Oppos@@ 2
Originally 2
Orleans 2
Orthod@@ 2
Outstanding 2
Paraguay 2
Parker 2
Parks 2
Pastor 2
Perry 2
Personal@@ 2
Perth 2
Pete 2
Philadelphia 2
Piet@@ 2
Pietro 2
Pilot 2
Pink 2
Pog@@ 2
Pomer@@ 2
Portsmouth 2
Powell 2
Prefecture 2
Presse 2
Preston 2
Preußen 2
Prinz 2
Prinzessin 2
Privat@@ 2
Punk 2
Queens 2
Queens@@ 2
Rach@@ 2
Rachel 2
Rechts@@ 2
Record@@ 2
Reed 2
Regim@@ 2
Regiment 2
Region@@ 2
Reich@@ 2
Reichsk@@ 2
Republican 2
Reserv@@ 2
Residen@@ 2
Result@@ 2
Reyn@@ 2
Rez@@ 2
Rhein@@ 2
Rick 2
Ril@@ 2
Rob 2
Roberts 2
Roc@@ 2
Rohr@@ 2
Roma 2
Romanian 2
Romans 2
Rosen@@ 2
Rug@@ 2
Ruh@@ 2
Salem 2
Samm@@ 2
Sarah 2
Schei@@ 2
Schie@@ 2
Schleswig 2
Schn@@ 2
Schne@@ 2
Schneider 2
Scout 2
Seattle 2
Seen 2
Seine 2
Sept@@ 2
Serbian 2
Sergei 2
Sich@@ 2
Sicherheits@@ 2
Simpson 2
Situ@@ 2
Siz@@ 2
Ski 2
Ski@@ 2
Soccer 2
Sock@@ 2
Solomon 2
Sonnen@@ 2
Sophi@@ 2
Sov@@ 2
Sow@@ 2
Spencer 2
Sprache 2
Spring@@ 2
Springs 2
St.-@@ 2
Stade 2
Stein 2
Sterne 2
Stev@@ 2
Stevens 2
Stock@@ 2
Stoff@@ 2
Strauss 2
Strom@@ 2
Studio@@ 2
Sturm@@ 2
Such@@ 2
Sunday 2
Susan 2
Sussex 2
Swan@@ 2
Sympt@@ 2
Syrac@@ 2
São 2
Tali@@ 2
Tamp@@ 2
Tau@@ 2
Taus@@ 2
Teat@@ 2
Ted 2
Theodore 2
Tie@@ 2
Timothy 2
Transit 2
Transportation 2
Trinidad 2
Trump 2
Türk@@ 2
U20 2
Uganda 2
Ukraine 2
Ulster 2
Unter@@ 2
Until 2
VID 2
Valen@@ 2
Valencia 2
Vater 2
Vati@@ 2
Verk@@ 2
Vernon 2
Verschie@@ 2
Via 2
Viet@@ 2
Vladimir 2
Vogel 2
Wach@@ 2
Wald@@ 2
Walk 2
Walther 2
Wasser@@ 2
Wayne 2
Wedn@@ 2
Wehrmacht 2
Weiss 2
Well@@ 2
Wellington 2
Welsh 2
Welt 2
Wend@@ 2
Werke 2
Wider@@ 2
Wie@@ 2
Wiesbaden 2
Windsor 2
Wings 2
Winn@@ 2
Woods 2
Wort@@ 2
Wul@@ 2
Wyoming 2
Würzburg 2
Xavier 2
Yok@@ 2
ZDF 2
Zentrum 2
Zhang 2
Ziel@@ 2
Zimmer@@ 2
Zur@@ 2
abilitation 2
abolished 2
abortion 2
absence 2
abteilung 2
accept@@ 2
accompanied 2
accordance 2
acht@@ 2
acken 2
adapted 2
adron 2
affe 2
affiliate 2
after@@ 2
agonist 2
ahe 2
airline 2
akadem@@ 2
akademie 2
aktiv@@ 2
aku@@ 2
alie 2
alive 2
alom 2
altered 2
althcare 2
amoto 2
amoun@@ 2
andes 2
anen 2
annually 2
anwal@@ 2
apel 2
apok@@ 2
appe 2
apply 2
approached 2
approaches 2
approval 2
archaeological 2
architect 2
arer 2
argu@@ 2
argues 2
arran@@ 2
arrested 2
arship 2
artwork 2
asaki 2
asen 2
assembled 2
assen 2
assign@@ 2
assis 2
associations 2
astery 2
ateg@@ 2
aths 2
atorium 2
attacked 2
atte 2
attempting 2
attempts 2
auch 2
audiences 2
aust@@ 2
authorized 2
autumn 2
auté 2
aviation 2
awareness 2
azine 2
bald 2
banded 2
bane 2
batter@@ 2
batting 2
bauer 2
beam@@ 2
bears 2
believes 2
belonged 2
bene 2
bene@@ 2
benefits 2
besie@@ 2
bew@@ 2
bild 2
bildungs@@ 2
blatt 2
boarding 2
bomb@@ 2
bombing 2
boro 2
boxing 2
boy@@ 2
brie@@ 2
brun@@ 2
bst 2
build@@ 2
bulgar@@ 2
bung 2
burial 2
buried 2
buses 2
busin@@ 2
camer@@ 2
camps 2
cerem@@ 2
cester 2
chall@@ 2
chang@@ 2
charity 2
chee 2
chor 2
chs@@ 2
cil 2
cils 2
citi@@ 2
citing 2
citizen 2
claim@@ 2
class@@ 2
cleared 2
clients 2
closer 2
closure 2
collaboration 2
collap@@ 2
collecting 2
combat 2
comics 2
commanded 2
commanding 2
commission 2
commissioned 2
complet@@ 2
comprising 2
concerns 2
confi@@ 2
conflic@@ 2
connects 2
consensus 2
consi@@ 2
constantly 2
consul@@ 2
controversi@@ 2
convinced 2
copies 2
county 2
covery 2
crimin@@ 2
crow@@ 2
customers 2
dancer 2
daries 2
decades 2
decides 2
decisions 2
deck@@ 2
decl@@ 2
decline 2
declined 2
decorated 2
decreased 2
deeply 2
deleg@@ 2
delivered 2
denly 2
dential 2
departure 2
depicting 2
deployed 2
derness 2
dership 2
designer 2
destroy 2
detailed 2
deutsch 2
deutsche 2
dex 2
dez@@ 2
dges 2
diagn@@ 2
discontinued 2
distant 2
distingu@@ 2
ditionally 2
doch 2
doctr@@ 2
doors 2
dopp@@ 2
doubt 2
dram@@ 2
ecken 2
eckl@@ 2
ectural 2
effec@@ 2
ehel@@ 2
ehm@@ 2
ehol@@ 2
eich 2
eich@@ 2
eils 2
eines 2
einige 2
eister 2
elevated 2
eleven 2
embarked 2
emed 2
empel 2
enbach 2
encoun@@ 2
endants 2
endemic 2
endment 2
enemies 2
enf@@ 2
engineer 2
engineers 2
enheit 2
enlar@@ 2
enly 2
ension@@ 2
ensive 2
ental@@ 2
entially 2
enton 2
environ@@ 2
enzel 2
episodes 2
equi@@ 2
erne@@ 2
ersch@@ 2
erz@@ 2
esco 2
esen 2
esheim 2
esn 2
eson 2
essel@@ 2
essen 2
establishing 2
etimes 2
evacu@@ 2
ever@@ 2
eway 2
excellent 2
executed 2
exhibition 2
exile 2
expedition 2
experiences 2
explore 2
extensively 2
extinct 2
fabrik 2
fahr@@ 2
failing 2
fair@@ 2
fans 2
fav@@ 2
favorable 2
fecture 2
fels 2
ferences 2
ferry 2
feu@@ 2
fighter 2
fighters 2
figuration 2
filed 2
findings 2
fleet 2
flew 2
flowering 2
formally 2
forman@@ 2
forschung 2
founders 2
four@@ 2
frie@@ 2
fted 2
func@@ 2
fundam@@ 2
furt 2
fus@@ 2
gaining 2
gardens 2
gary 2
gathering 2
geg@@ 2
genres 2
genu@@ 2
gering 2
gerä@@ 2
getown 2
gig 2
gler 2
grandfather 2
grandson 2
grant 2
grat@@ 2
great@@ 2
gressional 2
grupp@@ 2
guar@@ 2
haft 2
halle 2
handling 2
heit 2
helicopter 2
hills 2
hio 2
hoh@@ 2
holt 2
homosexu@@ 2
hosted 2
hosting 2
hte 2
hym@@ 2
hö@@ 2
iche 2
icken 2
iere 2
iken 2
ikum 2
ilda 2
ileg@@ 2
ilen 2
ilers 2
iller@@ 2
illery 2
illustrated 2
ilst 2
imposed 2
impressed 2
impressive 2
inches 2
incidents 2
indicating 2
indigenous 2
inducted 2
infall 2
infrastructure 2
ingenie@@ 2
inist 2
inne 2
innovative 2
inspi@@ 2
interchange 2
intern 2
investigated 2
involvement 2
ishments 2
isra@@ 2
israel@@ 2
issen@@ 2
isters 2
istor@@ 2
ittees 2
ittle 2
itur 2
ived 2
jen@@ 2
jew@@ 2
journalism 2
journalists 2
junior 2
k. 2
kais@@ 2
kau 2
kees 2
kla@@ 2
klin@@ 2
kne@@ 2
knows 2
kok 2
kowski 2
krieg 2
kro@@ 2
kshire 2
kum 2
lach 2
landscape 2
lasting 2
lau 2
lawsuit 2
leav@@ 2
lectures 2
legend@@ 2
legisl@@ 2
lements 2
lern@@ 2
lessons 2
level@@ 2
licher 2
lichkeit 2
lien 2
ligen@@ 2
lighted 2
lightly 2
liked 2
liner 2
listing 2
litt 2
liturg@@ 2
loaded 2
looked 2
lor 2
lux@@ 2
macher 2
mainland 2
mainstream 2
mall 2
managing 2
mandeur 2
manufacture 2
manufactured 2
marke 2
marking 2
mechanisms 2
mee 2
menti@@ 2
metre 2
meyer 2
midt 2
militia 2
moderate 2
mounted 2
municip@@ 2
municipalities 2
murdered 2
naments 2
nau 2
near@@ 2
neburg 2
neighbouring 2
nete 2
neys 2
nica 2
nicknamed 2
nin@@ 2
niss@@ 2
nominations 2
north@@ 2
notice 2
nö@@ 2
o- 2
oard 2
obach@@ 2
obs 2
occurr@@ 2
ocked 2
oday 2
offee 2
offices 2
offs 2
ogan 2
ographie 2
ohl 2
oing 2
oked 2
olas 2
olen 2
olph 2
onen 2
onie 2
onist 2
only@@ 2
onnie 2
[...]
