the 10383801
, 9760065
. 8608092
of 5737266
and 4959536
in 4442255
&quot; 3863842
a 3642027
to 3469678
was 2145651
@-@ 1911629
The 1739791
is 1638788
) 1477708
( 1476020
on 1411204
as 1398464
for 1378733
by 1197395
with 1196188
&apos;s 1065893
that 954293
at 944307
from 862988
an 828390
his 759932
In 690066
he 635203
were 564315
it 515546
which 506871
are 506685
or 470342
He 457976
be 430092
had 416470
also 414281
; 412912
: 399870
has 384899
– 383950
first 373388
its 345383
one 340894
It 331575
their 328586
who 307202
ing 303027
her 298033
not 295094
but 294980
two 273334
i 272715
have 272604
this 264432
been 256004
&apos; 255026
s 251242
y 246264
es 241054
re@@ 240993
o 236368
S@@ 230953
after 229728
ed 223816
time 223118
A 221587
P@@ 220744
they 211722
T@@ 208379
other 206818
C@@ 205425
into 203528
all 201477
M@@ 199176
1 198953
she 192401
in@@ 190879
ation 189778
y@@ 187594
t@@ 186062
G@@ 184810
al 184015
L@@ 183318
N@@ 183213
over 182574
B@@ 182465
D@@ 181121
c@@ 180730
more 177957
K@@ 176744
On 176659
% 176647
p@@ 176138
up 175420
un@@ 174166
F@@ 173478
W@@ 172755
New 172713
de 171861
2 171580
when 171384
would 171371
years 171069
d@@ 170253
ers 168348
R@@ 168184
/ 166141
where 164942
A@@ 163557
This 163527
during 163361
b@@ 161859
er 161251
out 160038
year 159869
H@@ 159854
season 158918
only 158150
s@@ 154843
new 154437
between 153126
three 150121
made 148501
E@@ 148324
him 146497
used 146213
then 145774
later 144679
I 144657
can 144077
3 142857
United 142657
&amp; 141467
known 141218
most 140808
ate 140803
such 139818
part 139299
an@@ 138468
about 138401
well 138193
American 137962
m@@ 136851
ch@@ 135948
under 135114
team 134865
became 134736
University 134113
f@@ 133592
n@@ 133387
ar@@ 132989
She 132908
born 131443
age 131173
g@@ 130894
than 130470
k@@ 129487
al@@ 129176
e 128130
including 126528
film 124819
being 124555
there 124241
V@@ 123745
u 122936
en@@ 122552
4 121978
O@@ 121027
some 120975
man 120871
l@@ 120194
us 119726
i@@ 119513
v@@ 119499
second 119351
t 119288
st@@ 119066
ated 118971
h@@ 118948
through 118013
e@@ 117931
ar 117566
against 116771
After 114659
J@@ 114347
while 113187
o@@ 112650
before 111742
ad@@ 111677
many 111040
w@@ 110739
son 110321
work 110171
family 109625
them 109466
am@@ 109271
ic 108589
until 108201
World 107925
5 107274
both 107108
no 106832
people 106061
k 105738
ations 105715
I@@ 105552
States 104970
played 104948
album 104617
de@@ 103694
able 103590
dis@@ 102584
National 102013
released 101952
name 101729
j@@ 101335
el@@ 100968
d 100640
Y@@ 99467
number 98613
series 98499
won 98288
on@@ 98270
or@@ 98014
6 97887
end 97479
life 97271
As 97252
area 97071
school 96898
may 96410
u@@ 96388
four 96007
called 95906
use 94533
May 94122
es@@ 94082
is@@ 93910
di@@ 93585
ine 92538
at@@ 92282
March 91841
r@@ 91717
city 91684
m 91295
early 91141
land 90772
September 90745
January 90695
career 89868
state 89726
er@@ 89705
ts 89330
June 89284
several 89195
ly 89189
le 89103
th@@ 89044
10 88720
October 88688
following 88679
July 88326
same 88245
ia 88071
7 88049
amp 87558
August 87202
School 86944
John 86852
South 86228
game 85792
ted 85617
April 85556
found 85534
based 85464
ac@@ 85308
They 85237
as@@ 84863
am 84808
began 84778
ro@@ 84021
November 83888
these 83818
will 83751
8 83739
since 83623
so 83538
December 83231
Ch@@ 82934
His 82695
it@@ 82466
U@@ 82342
con@@ 82146
way 81674
3@@ 81551
Z@@ 81003
place 80897
County 80502
p 80296
group 79777
back 79713
a@@ 79522
2@@ 79395
held 79372
z@@ 79371
em@@ 79221
li@@ 79067
former 78938
Sh@@ 78631
day 78336
located 78271
At 77825
line 77816
ri@@ 77674
c 77511
n 77402
ton 77351
took 77347
War 77262
9 77260
led 77045
York 76623
named 76549
government 76518
op@@ 76449
$ 76114
als 75838
ent 75678
There 75468
State 75342
ra@@ 75164
February 75071
now 75032
member 74979
British 74971
any 74885
each 74800
high 74342
served 74249
ings 74207
century 74172
population 74135
music 73977
City 73913
Al@@ 73845
League 73840
- 73834
ist 73441
ating 72872
2010 72788
ab@@ 72742
set 72612
station 72592
et 72588
ates 72325
company 72291
’ 72248
ag@@ 72235
sh@@ 72000
own 71605
side 71598
song 70909
4@@ 70845
However 70549
ant 70527
20 70378
le@@ 70333
did 70324
around 69985
received 69920
12 69862
ting 69817
home 69793
town 69586
off 69312
ot@@ 69296
re 68683
et@@ 68660
men 68630
due 68494
sp@@ 68467
2011 68461
North 68393
built 68212
could 67889
om@@ 67764
im@@ 67580
18 67294
long 67242
ian 67084
os 66922
ap@@ 66860
Con@@ 66634
ul@@ 66548
el 66418
ti@@ 66396
en 66206
died 65922
like 65721
single 65720
ity 65655
&apos;@@ 65543
local 65507
15 65456
2012 65343
left 65279
along 65228
public 65164
ons 64914
band 64777
During 64702
system 64677
History 64660
In@@ 64499
um 64446
final 64414
2014 64393
ous 64379
species 64002
five 63681
published 63602
b 63499
building 63376
2016 63332
ic@@ 63187
include 63180
club 63117
ally 63103
5@@ 63092
2015 63083
2013 63080
members 62934
ley 62744
said 62639
within 62183
se@@ 62152
field 62087
ies 62025
ans 61931
2008 61764
ec@@ 61628
ch 61583
l 61496
2009 61322
play 61253
h 61235
large 61059
St@@ 61048
because 60923
Mar@@ 60906
world 60646
der 60498
os@@ 60358
ur@@ 60026
2017 59923
2018 59903
oc@@ 59878
30 59816
ol@@ 59809
ors 59796
included 59793
11 59691
village 59666
sub@@ 59233
third 59219
2019 58926
form 58812
For 58580
16@@ 58492
small 58311
election 58014
2007 57958
old 57869
ance 57587
children 57430
French 57285
2006 57143
show 57107
6@@ 57029
national 56926
College 56904
death 56815
house 56570
water 56557
very 56475
last 56467
si@@ 56435
main 56362
16 56107
ie 56099
football 55756
An@@ 55692
moved 55606
ary 55563
2020 55531
if 55439
&#91; 55395
&#93; 55395
down 55384
qu@@ 55196
19 55085
West 54896
English 54880
those 54711
Bar@@ 54612
14 54491
ical 54487
II 54446
District 54402
do 54382
inter@@ 54382
war 54364
million 54357
pro@@ 54300
g 54263
history 54257
25 53994
still 53945
women 53928
German 53801
ut@@ 53764
book 53653
C 53641
9@@ 53578
another 53574
ph@@ 53567
7@@ 53460
service 53423
Car@@ 53336
late 53067
ology 52880
major 52666
ve 52619
— 52569
13 52420
il@@ 52364
often 52146
International 52120
per 52085
district 51948
mon@@ 51539
O 51388
London 51351
River 51240
co 51217
ed@@ 51135
ak@@ 51060
near 51021
north 50915
U.S. 50914
different 50848
ob@@ 50778
8@@ 50740
When 50668
father 50646
head 50473
established 50348
Ar@@ 50330
17 50310
games 50151
B 50025
announced 50014
country 49877
All 49721
ey 49698
ce 49605
best 49515
top 49471
House 49453
using 49432
again 49429
order 49280
original 49257
started 49203
record 49187
for@@ 49002
Cup 48792
pl@@ 48685
US 48683
les 48656
24 48574
ism 48548
hi@@ 48419
role 48415
south 48351
six 48322
vi@@ 48252
um@@ 48043
title 47980
ad 47952
ex@@ 47948
law 47942
went 47927
fl@@ 47806
ou@@ 47705
ry 47696
joined 47673
One 47661
over@@ 47486
ra 47470
par@@ 47240
17@@ 47187
came 47166
z 47161
15@@ 47058
tra@@ 47031
period 47019
ing@@ 46942
ship 46906
ence 46834
21 46730
just 46627
_ 46626
des 46608
worked 46548
what 46546
position 46511
much 46401
ty 46383
support 46333
ds 46205
married 46170
per@@ 46124
0 46080
Re@@ 46075
ter 45978
x 45932
lo@@ 45930
among 45784
ment 45652
produced 45437
ana 45312
works 45212
England 45182
R 45037
2005 45029
development 44970
make 44953
2021 44935
D 44894
red 44741
wrote 44708
given 44698
player 44604
power 44576
us@@ 44559
having 44552
non 44463
less 44452
general 44438
described 44298
become 44224
ard 44140
production 44115
Mc@@ 44113
T 44095
next 44080
X@@ 43949
x@@ 43925
These 43884
Le@@ 43864
r 43842
community 43796
total 43644
European 43609
right 43593
even 43582
days 43552
returned 43502
various 43452
Park 43327
co@@ 43242
General 43161
written 43098
win 43061
pre@@ 42893
East 42860
id@@ 42853
elected 42829
William 42795
created 42765
av@@ 42761
2000 42719
22 42555
be@@ 42539
political 42514
From 42494
ge 42489
ep@@ 42441
Th@@ 42439
ite 42378
mar@@ 42351
2004 42340
ator 42287
au@@ 42222
ah 42195
L 42183
Church 42035
est 42010
west 41996
round 41914
point 41875
tions 41684
take 41538
Australia 41371
ass@@ 41346
site 41266
sc@@ 41211
Par@@ 41013
level 40950
23 40940
church 40927
ets 40878
founded 40853
! 40852
= 40785
continued 40778
Party 40764
India 40763
ha@@ 40688
however 40686
Council 40662
opened 40617
By 40589
ding 40477
end@@ 40424
formula 40421
100 40417
king 40347
few 40277
Army 40276
ks 40267
ast@@ 40263
M 40248
According 40227
car@@ 40174
ge@@ 40145
France 40114
formed 40024
High 39970
Street 39951
students 39840
rec@@ 39792
bar@@ 39782
est@@ 39656
th 39573
su@@ 39566
ina 39499
signed 39482
Di@@ 39471
Division 39438
ion 39401
man@@ 39384
od@@ 39311
ise 39294
com@@ 39271
version 39251
ov@@ 39247
military 39221
region 39217
James 39188
east 39182
George 39178
King 39138
without 39079
art 39063
ay@@ 39024
party 38996
ent@@ 38959
tri@@ 38890
se 38889
low 38815
.@@ 38758
run 38732
appointed 38688
times 38567
ins 38562
match 38538
ver@@ 38473
under@@ 38455
ir@@ 38416
event 38361
San 38323
he@@ 38243
together 38201
making 38147
E 38119
lost 38116
ay 38090
St. 38082
ves 38053
den 38006
President 38001
Gu@@ 37998
ai 37996
considered 37947
recorded 37937
present 37913
Co@@ 37895
TV 37889
professional 37873
Q@@ 37796
television 37749
California 37651
S 37590
half 37521
short 37465
full 37306
gh@@ 37210
international 37121
bi@@ 37056
America 37034
language 37016
Canada 36999
N 36971
case 36920
story 36889
debut 36878
working 36870
28 36835
og@@ 36814
education 36813
2003 36771
ded 36762
ig@@ 36742
research 36711
style 36709
26 36661
&apos;t 36615
ter@@ 36587
27 36538
wife 36333
ow@@ 36330
class 36324
bu@@ 36276
ber@@ 36258
ong 36183
program 36073
ang@@ 36049
ne@@ 36023
ders 35977
appeared 35935
With 35930
F 35925
ling 35916
ens 35907
af@@ 35897
Association 35872
Am@@ 35835
important 35835
further 35786
é@@ 35720
video 35637
ah@@ 35600
Mon@@ 35546
sk@@ 35478
Union 35456
ents 35455
ler 35451
areas 35411
ang 35395
id 35351
playing 35347
ell 35309
developed 35305
2002 35207
Har@@ 35196
Per@@ 35178
out@@ 35116
Early 35111
release 35007
war@@ 34994
lead 34987
El@@ 34967
Royal 34815
Be@@ 34810
body 34742
ford 34742
While 34739
points 34734
ics 34733
De@@ 34712
ore 34707
v 34695
term 34662
ability 34629
Australian 34597
teams 34595
2001 34579
der@@ 34534
away 34526
race 34524
Cor@@ 34460
air 34440
addition 34343
result 34306
Sp@@ 34266
la 34230
our 34227
office 34185
business 34157
live 34156
eb@@ 34133
go 34128
“ 34005
Indian 33994
ke 33964
and@@ 33959
har@@ 33871
ever 33861
ten 33853
light 33840
ci@@ 33796
control 33771
” 33754
ish 33749
Award 33656
Club 33577
average 33558
ak 33544
common 33542
bl@@ 33529
every 33516
ess 33497
mother 33459
29 33419
aw@@ 33406
Championship 33392
ya 33349
director 33339
although 33335
similar 33334
via 33214
popular 33163
range 33046
cl@@ 32991
cor@@ 32968
example 32954
design 32950
list 32919
others 32872
Germany 32825
Man@@ 32811
league 32793
tr@@ 32741
First 32631
social 32630
himself 32543
up@@ 32530
across 32443
ended 32401
ma 32350
daughter 32343
finished 32321
ities 32222
P 32125
we 32109
lt 32084
project 32067
Music 32031
David 32012
min@@ 31994
ying 31990
president 31985
bo@@ 31967
0.@@ 31891
services 31839
gt 31837
Road 31815
living 31705
Company 31700
events 31698
China 31676
Qu@@ 31648
... 31639
la@@ 31597
50 31404
ru@@ 31339
Central 31316
sur@@ 31252
sold 31193
though 31114
Court 31038
ck 31001
mo@@ 30852
Group 30831
stage 30823
designed 30815
Some 30795
free 30788
ice 30771
how 30743
Ex@@ 30718
En@@ 30678
w 30675
te 30647
Ma@@ 30571
az@@ 30549
gave 30517
ale 30509
Japanese 30450
followed 30430
Europe 30426
Un@@ 30413
road 30395
never 30374
months 30371
1999 30323
Ad@@ 30295
ments 30248
eight 30188
available 30180
da 30175
coach 30169
Thomas 30161
pe@@ 30143
taken 30070
ble 30049
ne 30049
40 30047
white 30031
Mor@@ 30019
ants 29984
open 29965
character 29961
construction 29956
att@@ 29951
Pro@@ 29949
once 29942
U 29936
official 29906
performed 29899
Ab@@ 29891
completed 29880
eg@@ 29868
Air 29828
Robert 29816
ka 29701
Japan 29683
largest 29630
active 29565
den@@ 29525
31 29523
current 29515
UK 29466
Washington 29452
reported 29426
Sc@@ 29424
Her 29406
modern 29405
Charles 29383
res@@ 29378
young 29377
seven 29372
get 29367
Center 29353
ur 29308
see 29269
leading 29239
remained 29200
ant@@ 29132
An 29105
gra@@ 29051
sent 29047
Western 28995
should 28947
players 28915
ach@@ 28908
1998 28895
Hall 28884
track 28881
ful 28846
songs 28810
Other 28780
14@@ 28779
Ro@@ 28776
Institute 28720
process 28684
Tra@@ 28668
originally 28609
seen 28573
Department 28568
brother 28560
tor 28523
me 28520
Russian 28519
cre@@ 28507
fin@@ 28501
G 28493
Since 28467
study 28464
directed 28445
refer 28424
ev@@ 28411
board 28388
currently 28386
return 28362
great 28359
uses 28321
comp@@ 28295
features 28270
Chinese 28252
ality 28207
performance 28179
ot 28164
X 28158
ck@@ 28154
ters 28141
post 28132
po@@ 28090
1996 28088
te@@ 28072
groups 28048
ically 28028
Although 28012
ological 28003
Island 27996
includes 27973
ative 27967
Paul 27958
ell@@ 27957
throughout 27944
training 27907
help 27906
Society 27889
Canadian 27868
no@@ 27857
du@@ 27837
na 27810
ville 27795
Se@@ 27782
all@@ 27782
bre@@ 27780
car 27778
forces 27766
gu@@ 27685
placed 27647
awarded 27566
featured 27548
que 27503
does 27492
usually 27490
fire 27463
ages 27454
African 27434
come 27433
Bo@@ 27395
Su@@ 27363
wood 27354
schools 27338
involved 27319
ile 27299
either 27278
1997 27245
added 27233
stated 27200
ik@@ 27199
information 27169
eventually 27049
Mal@@ 27037
Mo@@ 27034
Col@@ 26938
Minister 26909
met@@ 26877
tion 26827
episode 26818
gen@@ 26817
Its 26790
ath@@ 26772
front 26759
inc@@ 26651
ys 26623
good 26615
ake 26584
you 26582
V 26521
black 26520
Academy 26512
ue 26481
countries 26475
Ac@@ 26461
ash 26451
ner 26423
degree 26404
1,@@ 26388
close 26386
replaced 26374
iz@@ 26370
Act 26362
ber 26353
force 26347
Women 26345
human 26330
els 26287
air@@ 26261
central 26240
ory 26227
court 26217
ker 26203
ster 26186
families 26136
winning 26094
action 26093
f 26040
special 26037
media 26028
related 25989
Africa 25932
private 25923
1995 25908
fourth 25881
á@@ 25857
states 25848
13@@ 25846
competition 25824
st 25823
police 25803
parts 25799
provided 25788
ships 25786
ma@@ 25774
ade 25762
to@@ 25736
ara 25731
rights 25705
upon 25644
western 25636
ino 25620
act 25602
1994 25581
1992 25570
killed 25566
ists 25526
mer@@ 25515
reached 25501
college 25426
ste@@ 25425
owned 25415
Ne@@ 25414
center 25390
Great 25381
ran 25375
must 25372
previous 25359
listed 25337
let 25333
To 25324
0s 25310
km 25306
om 25303
Spanish 25297
rate 25291
size 25271
List 25245
K 25229
Michael 25214
ground 25212
ats 25166
above 25165
Italian 25140
Henry 25114
Lake 25107
Kar@@ 25094
change 25067
2.@@ 25054
type 25045
radio 25037
least 25024
Bur@@ 25012
ata 24964
ud@@ 24933
Best 24925
division 24847
ely 24806
writing 24804
Football 24800
aircraft 24798
ches 24789
ational 24776
Cl@@ 24758
attended 24756
closed 24751
era 24750
St 24740
saw 24740
ars 24725
night 24700
Or@@ 24673
sion 24653
changed 24594
our@@ 24592
river 24591
cap@@ 24575
space 24574
person 24562
introduced 24537
ines 24525
scored 24506
contract 24494
Republic 24481
attack 24469
rock 24457
Ber@@ 24435
ati@@ 24390
section 24389
ure 24350
campaign 24347
decided 24320
Awards 24296
railway 24291
her@@ 24289
White 24211
amb@@ 24184
ane 24182
books 24177
shows 24146
Cal@@ 24121
ok@@ 24094
start 24049
put 24023
met 24000
female 23982
census 23962
det@@ 23960
He@@ 23954
il 23939
ran@@ 23914
films 23880
Mac@@ 23868
Career 23850
Ireland 23823
ens@@ 23786
structure 23780
ho@@ 23762
ators 23748
Saint 23742
defeated 23735
1993 23730
forms 23728
Texas 23703
success 23695
1990 23689
goal 23640
studio 23632
ward 23631
inv@@ 23629
Fl@@ 23614
mid 23597
ial 23590
yl@@ 23576
For@@ 23569
ov 23556
previously 23556
tive 23547
ten@@ 23537
é 23535
Museum 23533
market 23518
Following 23508
1991 23496
ari@@ 23449
Education 23428
lies 23415
Her@@ 23374
La 23349
Two 23344
Kingdom 23324
ends 23324
regular 23319
rather 23309
wing 23309
Pre@@ 23267
room 23208
Nor@@ 23180
Christian 23177
eh@@ 23158
instead 23145
trans@@ 23125
Bl@@ 23122
Black 23121
ol 23112
almost 23109
organization 23107
ist@@ 23102
represented 23099
provide 23066
buildings 23065
,000 23050
Com@@ 23006
wide 22995
successful 22971
ani 22959
Government 22941
taking 22941
Peter 22938
Ho@@ 22916
Art 22914
ai@@ 22910
model 22886
imp@@ 22885
tournament 22885
week 22879
date 22862
1.@@ 22861
whose 22852
novel 22851
ub@@ 22845
ving 22838
stone 22834
Tri@@ 22829
Los 22824
Roman 22796
Paris 22784
behind 22757
health 22750
res 22745
Sal@@ 22739
lived 22705
Mer@@ 22684
Me@@ 22668
self 22637
ged 22634
brought 22627
ger 22625
app@@ 22590
lines 22561
Gar@@ 22521
10@@ 22512
units 22493
Committee 22485
yn@@ 22485
data 22475
we@@ 22462
Later 22427
possible 22419
movement 22403
wh@@ 22337
ro 22328
H 22325
ness 22282
Grand 22254
&#124; 22234
especially 22213
Catholic 22206
Smith 22206
Pl@@ 22197
approximately 22184
ano 22158
base 22157
Bi@@ 22156
super@@ 22154
allowed 22140
Mary 22136
def@@ 22127
lu@@ 22126
Zealand 22122
ots 22119
ier 22116
amp@@ 22081
lower 22075
ending 22074
ain 22053
Po@@ 22048
significant 22038
outside 22007
Min@@ 21988
ash@@ 21984
ric@@ 21971
industry 21952
rest 21944
ann@@ 21928
ir 21926
cast 21915
Bu@@ 21908
plays 21888
1989 21871
Championships 21863
ei@@ 21854
primary 21828
northern 21820
writer 21805
cur@@ 21803
cr@@ 21778
mat@@ 21762
soon 21753
un 21745
1@@ 21734
disambiguation 21724
runs 21713
beginning 21665
Soviet 21638
ps 21625
southern 21618
comm@@ 21571
No. 21554
0@@ 21549
Life 21527
1988 21500
Richard 21474
issues 21464
ek@@ 21420
Red 21419
arch@@ 21404
1st 21398
Ver@@ 21388
island 21373
interest 21356
forced 21354
rep@@ 21335
summer 21329
int@@ 21328
woman 21287
acc@@ 21270
Olympics 21268
sl@@ 21241
course 21240
Festival 21226
pri@@ 21215
hand 21197
au 21191
cer@@ 21177
Summer 21153
artist 21150
towards 21126
alist 21122
launched 21114
dy 21106
Arts 21093
systems 21092
Bay 21091
highest 21090
spent 21085
thus 21071
leader 21059
aj@@ 21056
ways 21053
capital 21044
kn@@ 21033
ath 21026
dic@@ 20988
itself 20988
too 20979
sea 20978
hit 20966
Most 20953
pol@@ 20953
lic@@ 20932
little 20927
und@@ 20925
W 20914
ug@@ 20914
cont@@ 20902
ces 20894
ms 20888
studies 20885
dra@@ 20872
prot@@ 20862
sometimes 20833
whom 20831
3.@@ 20736
Chicago 20732
independent 20706
Virginia 20686
sw@@ 20656
ee 20642
Force 20633
2nd 20608
opening 20608
length 20594
traditional 20582
higher 20576
ning 20574
atory 20566
studied 20563
ear@@ 20555
operations 20534
Film 20513
ain@@ 20513
older 20500
magazine 20491
army 20478
Second 20460
ill@@ 20453
Records 20449
bridge 20417
far 20412
spec@@ 20395
appearance 20374
county 20372
seat 20364
running 20356
location 20342
generally 20312
child 20271
fer@@ 20246
Li@@ 20238
loss 20199
entered 20195
ess@@ 20192
60 20149
route 20147
ill 20134
natural 20134
ography 20134
strong 20124
noted 20119
65 20110
going 20093
future 20084
collection 20060
genus 20045
gl@@ 20025
according 20022
culture 20019
Bre@@ 19963
ays 19962
tur@@ 19960
serving 19951
J. 19939
Games 19934
Navy 19925
1987 19920
bri@@ 19920
ular 19920
required 19916
Te@@ 19908
below 19900
plant 19896
1986 19894
ish@@ 19894
ren@@ 19887
key 19886
Mexico 19879
# 19875
Italy 19869
network 19861
ae 19846
You 19839
month 19838
ized 19826
ement 19825
dec@@ 19816
iti@@ 19807
Bra@@ 19789
means 19785
real 19763
tour 19762
Hill 19744
companies 19721
operated 19686
rem@@ 19619
practice 19610
atic 19592
Northern 19557
Battle 19552
matches 19548
money 19541
Many 19534
1984 19517
park 19515
anti 19507
1980 19485
Pal@@ 19484
Russia 19467
selected 19466
Tr@@ 19461
changes 19457
lin@@ 19442
earlier 19439
senior 19439
cases 19432
complete 19422
Bro@@ 19396
If 19378
Angeles 19373
Sch@@ 19360
centre 19342
sts 19324
ire 19323
not@@ 19316
gold 19297
ised 19296
economic 19292
1985 19266
results 19255
acy 19254
passed 19249
property 19245
Greek 19243
12@@ 19239
ast 19201
ama 19192
victory 19187
500 19176
increased 19155
individual 19155
already 19146
sports 19125
20@@ 19108
author 19099
sol@@ 19098
bs 19089
associated 19080
exp@@ 19046
off@@ 19025
ock 19022
if@@ 19011
me@@ 19003
Lu@@ 19001
majority 19001
numerous 18995
limited 18992
di 18980
Bal@@ 18952
Sar@@ 18946
contains 18946
activities 18933
decision 18908
Ros@@ 18905
food 18900
unit 18895
Joseph 18891
becoming 18886
singer 18881
shot 18868
ese 18859
issue 18848
manager 18805
commercial 18803
tro@@ 18800
Day 18793
Br@@ 18780
word 18773
gr@@ 18764
view 18750
find 18740
competed 18723
terms 18713
cover 18704
tor@@ 18684
Route 18641
personal 18638
certain 18612
move 18607
my 18598
1983 18574
artists 18567
caused 18565
love 18564
-@@ 18551
nine 18546
award 18528
initially 18523
oo@@ 18518
annual 18503
inf@@ 18493
uc@@ 18490
income 18478
access 18471
stri@@ 18458
sm@@ 18456
ring 18453
enti@@ 18448
Shi@@ 18444
standard 18416
fall 18415
Board 18392
fe@@ 18386
ta 18377
Sir 18374
ls 18366
sal@@ 18366
45 18362
supported 18344
face 18340
student 18335
post@@ 18311
Wales 18292
ly@@ 18292
ion@@ 18289
itation 18273
Service 18264
better 18259
goals 18258
mostly 18244
retired 18234
1982 18218
elections 18218
trade 18217
+ 18211
additional 18203
gar@@ 18201
university 18187
Irish 18177
Pacific 18177
FC 18160
ric 18156
200 18145
particularly 18144
staff 18143
adi@@ 18139
Pe@@ 18135
Char@@ 18129
Florida 18122
ions 18121
Research 18120
ette 18091
row 18089
ther@@ 18080
tic 18072
sky 18055
fact 18053
past 18035
eastern 18034
claimed 18013
ini 18013
characters 18012
Hol@@ 18008
religious 18003
ena 17988
III 17970
mission 17968
Bel@@ 17966
ition 17962
ha 17947
La@@ 17937
Inter@@ 17934
chief 17934
husband 17934
fi@@ 17896
col@@ 17874
Southern 17855
1972 17849
ites 17849
ids 17825
subsequently 17816
ong@@ 17812
Sk@@ 17804
hom@@ 17803
lands 17795
thought 17776
management 17774
Valley 17769
Assembly 17760
officer 17759
Wil@@ 17738
earned 17727
Sw@@ 17726
famous 17726
ili@@ 17721
medical 17719
1979 17707
feature 17694
municipality 17684
yard 17684
ca 17676
plan 17676
Year 17666
Pr@@ 17665
ose 17648
dem@@ 17635
asked 17629
tu@@ 17624
80 17621
championship 17615
parents 17614
battle 17611
bur@@ 17610
don 17598
raised 17576
iv@@ 17571
That 17567
create 17564
science 17561
today 17561
legal 17551
politician 17550
Gra@@ 17548
bor@@ 17546
edition 17538
Public 17531
Parliament 17529
status 17525
here 17517
musical 17517
im 17503
remains 17498
aries 17489
Louis 17485
entire 17473
programs 17471
give 17446
Congress 17444
Province 17437
star 17405
70 17400
? 17397
stra@@ 17383
Jewish 17382
ses 17379
engine 17375
ron@@ 17367
ging 17353
Al 17346
can@@ 17341
iting 17336
Ge@@ 17328
friend 17323
ching 17322
ica 17312
19th 17310
relationship 17294
evidence 17291
1976 17289
tors 17281
ind@@ 17263
hours 17252
Far@@ 17251
ā@@ 17249
score 17241
ones 17232
1974 17231
ns 17216
cat@@ 17213
pat@@ 17210
ola 17196
sister 17189
report 17183
Old 17179
ase 17179
ail 17178
operation 17148
Dar@@ 17147
particular 17144
ington 17142
ita 17140
ff@@ 17136
35 17132
1981 17126
minutes 17114
ney 17113
des@@ 17101
gi@@ 17098
War@@ 17084
Queen 17081
Their 17081
une 17047
3rd 17042
ery 17036
ham 17035
material 17033
turn 17029
1945 17024
presented 17022
Spain 17005
1975 17003
str@@ 17001
helped 16997
1968 16980
energy 16977
Ser@@ 16956
names 16956
Law 16950
oun@@ 16949
serve 16941
1970 16923
Commission 16913
equ@@ 16878
believed 16871
Fre@@ 16869
response 16868
ize 16867
1978 16858
em 16848
Du@@ 16843
referred 16838
shown 16835
specific 16834
Rec@@ 16813
Reg@@ 16802
alism 16797
meeting 16796
Railway 16793
leaving 16793
rated 16789
char@@ 16777
Times 16775
weeks 16761
90 16759
got 16758
Democratic 16750
Ri@@ 16750
larger 16748
composed 16747
Martin 16738
eng@@ 16719
complex 16718
basketball 16715
seasons 16709
Science 16697
fre@@ 16693
turned 16693
Despite 16685
ball 16679
Sam@@ 16677
ym@@ 16672
likely 16662
Line 16660
acquired 16659
houses 16656
vote 16641
Personal 16630
ths 16626
longer 16625
Im@@ 16601
offered 16601
Green 16563
Empire 16551
Can@@ 16550
ack 16543
Au@@ 16531
ella 16526
q@@ 16514
carried 16513
Mat@@ 16512
berg 16512
covered 16506
fight 16503
5.@@ 16493
ined 16490
People 16479
takes 16473
1973 16457
issued 16450
remaining 16446
failed 16444
bed 16436
mainly 16429
ture 16420
Mad@@ 16419
multiple 16405
surface 16399
footballer 16398
starting 16398
constructed 16389
ously 16382
deal 16375
increase 16371
promoted 16365
1977 16359
aired 16354
theory 16340
Eastern 16332
Series 16316
Ram@@ 16313
graduated 16313
regional 16313
Lord 16312
policy 16306
But 16302
stations 16299
ref@@ 16292
ium 16274
va 16267
need 16261
federal 16253
overall 16241
ene 16237
del 16209
native 16199
source 16196
Chief 16186
Bor@@ 16185
cost 16177
A. 16165
actor 16156
Town 16144
Big 16142
ja 16134
themselves 16128
tly 16121
Station 16099
1971 16092
proposed 16091
Conference 16076
male 16073
financial 16062
subject 16062
Star 16035
Edward 16034
sted 16024
effect 16022
aged 16007
anc@@ 15992
oned 15980
Em@@ 15967
asi@@ 15946
ited 15945
ute 15927
j 15916
1980s 15911
medal 15900
appearances 15896
App@@ 15893
troops 15883
Radio 15869
variety 15868
consists 15866
1969 15854
separate 15850
Gr@@ 15846
aging 15841
latter 15829
tran@@ 15823
ret@@ 15822
Sur@@ 15820
individuals 15813
Carolina 15806
command 15803
Britain 15789
Mah@@ 15784
32 15775
allow 15757
Poland 15751
ip@@ 15738
experience 15737
always 15730
wor@@ 15727
Cre@@ 15723
ved 15723
done 15715
speed 15715
Man 15712
Tor@@ 15711
1967 15669
direct 15661
Brown 15660
ao 15660
cities 15658
cultural 15648
7.@@ 15642
middle 15626
fully 15618
bro@@ 15617
ada 15614
4.@@ 15610
master 15599
table 15595
worth 15594
ization 15591
BC 15590
Team 15585
influence 15584
appears 15576
square 15573
broadcast 15566
Dutch 15557
recording 15556
marriage 15549
uk@@ 15548
department 15542
ze 15528
civil 15527
ster@@ 15527
oy@@ 15523
train 15516
historical 15514
meaning 15513
coming 15499
titled 15490
Ph@@ 15479
prior 15476
fifth 15472
professor 15462
conditions 15451
20th 15446
£ 15445
ably 15438
Both 15436
finals 15436
oil 15425
pp@@ 15424
Si@@ 15418
6.@@ 15409
Chi@@ 15408
ains 15407
4th 15405
producer 15391
za 15377
despite 15374
Ter@@ 15372
society 15364
directly 15363
bra@@ 15350
care 15345
ered 15345
Lee 15325
Open 15311
Biography 15310
quality 15305
attempt 15296
Bank 15281
rac@@ 15277
tracks 15257
responsible 15253
words 15250
ched 15241
discovered 15239
br@@ 15231
ental 15227
divided 15216
1964 15214
Dr. 15213
sound 15207
ures 15195
Creek 15193
1970s 15190
Prince 15181
arrived 15160
records 15159
Mi@@ 15156
provides 15150
Love 15148
Asian 15137
Another 15132
ently 15132
managed 15130
port 15128
io 15110
form@@ 15106
ow 15103
wanted 15102
nearly 15094
We 15092
test 15089
nearby 15070
foreign 15067
Mark 15063
reg@@ 15049
sec@@ 15045
Is@@ 15041
Dis@@ 15029
tre@@ 15022
ari 15015
ala 15006
recent 14998
por@@ 14990
Jones 14971
ach 14963
press 14952
Under 14938
organized 14937
border 14920
Scotland 14918
fish 14915
movie 14908
finally 14902
plans 14902
transferred 14899
ori@@ 14897
news 14887
aff@@ 14884
ams 14883
yn 14878
administrative 14869
coun@@ 14848
land@@ 14839
officially 14828
Latin 14822
í@@ 14810
Ke@@ 14799
technology 14781
Hu@@ 14775
union 14773
Pennsylvania 14772
bank 14771
2022 14766
2,@@ 14764
province 14764
ax@@ 14762
loc@@ 14760
told 14758
extended 14751
participated 14750
cut 14740
Wal@@ 14739
vis@@ 14735
oph@@ 14731
Theatre 14730
64 14715
elec@@ 14714
We@@ 14706
enough 14682
Senate 14673
Sub@@ 14663
prec@@ 14660
God 14656
primarily 14649
Ra@@ 14626
sel@@ 14623
ali@@ 14622
Development 14615
Gen@@ 14610
heavy 14598
ank@@ 14594
sn@@ 14593
1960 14592
problems 14584
might 14577
comes 14575
bus 14574
value 14574
inn@@ 14573
Foundation 14565
tw@@ 14559
rural 14550
mark 14539
saying 14537
idea 14536
review 14534
1965 14533
mm 14518
cause 14511
Order 14509
Jo@@ 14490
1966 14486
text 14481
idae 14471
Pan@@ 14466
C. 14458
editor 14458
br 14449
ads 14448
Michigan 14439
council 14435
candidate 14432
residents 14431
Res@@ 14428
pre 14420
bul@@ 14406
alongside 14391
elements 14391
so@@ 14390
Gal@@ 14389
1944 14388
ick 14380
Ohio 14366
Men 14361
sons 14357
workers 14353
Civil 14351
double 14348
ac 14345
shi@@ 14341
Val@@ 14337
Ak@@ 14328
ek 14318
Health 14312
appear 14298
lin 14293
whether 14282
conc@@ 14276
friends 14274
Centre 14271
draw 14269
levels 14267
sen 14265
places 14261
function 14257
newspaper 14257
Francisco 14253
Mel@@ 14253
ung 14250
leave 14244
amount 14243
grew 14240
nature 14233
channel 14232
acting 14221
positive 14209
Fe@@ 14206
ises 14203
do@@ 14201
die 14199
products 14192
Governor 14186
ked 14184
ored 14167
cross 14160
ening 14158
historic 14147
iss@@ 14146
hal@@ 14141
1990s 14138
security 14126
growth 14125
Ru@@ 14121
eds 14117
Boston 14105
Republican 14104
aya 14101
Young 14093
syn@@ 14087
produce 14079
ser@@ 14077
Sa@@ 14068
Arch@@ 14064
renamed 14048
households 14044
lives 14015
ie@@ 14013
pped 14011
ts@@ 14010
mer 14009
makes 14007
ened 14006
hy@@ 14003
pres@@ 14001
Pol@@ 13995
projects 13993
assigned 13991
whole 13973
Scottish 13968
Williams 13963
M. 13951
cru@@ 13950
call 13947
hold 13947
ws 13943
Asia 13927
ering 13911
30@@ 13903
host 13897
stars 13889
activity 13888
uted 13884
vin@@ 13884
No 13882
continue 13880
resi@@ 13873
Israel 13872
lack 13865
hospital 13848
Director 13847
build 13846
chart 13838
Sea 13834
44 13830
numbers 13818
label 13815
CD 13813
Polish 13809
Secretary 13808
parish 13804
vel@@ 13787
J 13784
planned 13775
executive 13759
ious 13747
Three 13742
giving 13741
To@@ 13735
ji 13735
owner 13731
ordered 13729
Gi@@ 13726
1960s 13718
officers 13715
Johnson 13706
Major 13700
rule 13698
conducted 13689
pen@@ 13686
8.@@ 13664
New@@ 13662
prominent 13656
intended 13645
Mag@@ 13618
cli@@ 13615
Columbia 13614
Alexander 13612
Georgia 13600
Fort 13577
Pri@@ 13576
acts 13574
forward 13570
ger@@ 13565
ick@@ 13563
notable 13543
AR@@ 13541
ned 13541
ven@@ 13535
minor 13525
yards 13518
assi@@ 13514
Ha@@ 13513
75 13509
US@@ 13507
ski 13504
etic 13495
highly 13491
races 13491
nation 13488
youth 13476
El 13458
females 13457
Office 13451
stories 13445
Er@@ 13444
Hospital 13430
moving 13427
sing 13425
coast 13420
Mil@@ 13418
letter 13416
agreed 13411
ora 13400
del@@ 13397
soldiers 13397
Kh@@ 13393
Highway 13385
removed 13384
Family 13373
commonly 13372
ke@@ 13371
revealed 13369
1962 13362
Ash@@ 13362
stop 13348
gener@@ 13344
ight 13343
ishes 13342
bar 13335
Super@@ 13330
ern@@ 13324
formerly 13324
join 13323
1948 13322
administration 13321
Middle 13317
1963 13310
essed 13302
cy@@ 13301
Avenue 13300
Comm@@ 13299
scene 13297
ins@@ 13292
yet 13290
33 13283
basis 13269
ancient 13265
No@@ 13255
lif@@ 13246
capacity 13244
color 13238
designated 13224
mod@@ 13224
ó@@ 13224
My 13220
eth@@ 13218
Go@@ 13216
ett 13207
effects 13206
ace 13204
Hor@@ 13201
sites 13201
marked 13197
1942 13192
Cro@@ 13192
Super 13187
rat@@ 13185
Historic 13174
follows 13173
Bill 13170
As@@ 13169
settlement 13162
distance 13146
treatment 13136
je@@ 13135
paper 13130
agreement 13128
Sydney 13127
hor@@ 13119
Mur@@ 13117
singles 13117
smaller 13113
awards 13110
quickly 13110
News 13104
dedicated 13102
36 13090
Gro@@ 13080
purchased 13077
Also 13068
cs 13067
ung@@ 13065
floor 13059
ih@@ 13053
Corps 13048
von 13044
B. 13036
ties 13036
charge 13024
fellow 13019
5th 13015
potential 13015
leaders 13014
Tro@@ 13010
sign 13007
viol@@ 12994
ole 12991
initial 12989
weight 12970
Tour 12967
yer 12962
drama 12955
1940 12944
cul@@ 12941
dri@@ 12936
facilities 12934
immediately 12925
oon 12911
val@@ 12911
assistant 12900
Coast 12894
defeat 12893
oms 12890
wi@@ 12887
ago 12886
oli@@ 12871
ony 12871
Cas@@ 12857
firm 12855
fo@@ 12852
BBC 12845
focus 12842
positions 12842
ey@@ 12840
pass 12839
log@@ 12837
igh@@ 12827
respectively 12827
estimated 12818
Ministry 12814
Ap@@ 12812
9.@@ 12807
tel@@ 12804
1939 12801
median 12798
1961 12797
1941 12788
Kn@@ 12787
winner 12781
Cur@@ 12780
vo@@ 12777
expected 12775
lot 12770
Ger@@ 12765
eman 12756
Jack 12752
istic 12752
fied 12744
ver 12744
efforts 12736
ut 12736
Ben@@ 12735
ope 12731
cal@@ 12728
conference 12708
Kal@@ 12702
declared 12702
Jersey 12697
oh@@ 12680
serves 12680
25@@ 12677
ab 12672
identified 12663
article 12659
E. 12656
Of 12656
types 12655
1946 12652
clubs 12650
ished 12650
typically 12649
Little 12648
housing 12647
che@@ 12646
1956 12645
relations 12643
cars 12641
Don@@ 12639
mis@@ 12637
1943 12632
Dun@@ 12627
onal 12624
ius 12622
AS@@ 12621
formation 12616
ron 12614
Blue 12612
ort 12612
shire 12603
Pat@@ 12597
poor 12595
compared 12593
da@@ 12590
ges 12590
physical 12585
green 12581
reach 12581
gun 12580
inside 12578
ave 12576
largely 12576
founder 12574
gained 12574
needed 12552
probably 12552
format 12551
Airport 12543
Federal 12532
tim@@ 12525
Ko@@ 12523
percent 12518
Olympic 12509
entry 12503
featuring 12492
Wh@@ 12489
flight 12489
S. 12483
Ly@@ 12476
Dec@@ 12472
Victoria 12472
roles 12470
aka 12461
Tur@@ 12458
attention 12456
destroyed 12447
34 12445
Bri@@ 12445
operating 12445
captured 12442
trial 12441
ple@@ 12440
Wor@@ 12438
dr@@ 12436
hosted 12430
museum 12430
scale 12427
Illinois 12424
CA@@ 12421
upper 12419
van 12416
hum@@ 12414
votes 12404
1958 12403
Post 12400
website 12394
art@@ 12381
enn@@ 12374
hard 12372
ense 12367
ust 12359
back@@ 12353
street 12353
branch 12352
Earth 12348
Justice 12329
gas 12322
aid 12310
committee 12310
Berlin 12309
cks 12303
languages 12289
anti@@ 12285
ented 12285
Rock 12283
ex 12281
Jean 12278
widely 12276
distribution 12273
1950 12271
ases 12268
ians 12267
paid 12267
H. 12265
crew 12265
bers 12261
sources 12261
Ed@@ 12256
San@@ 12251
W. 12245
ame 12243
mixed 12241
38 12240
confirmed 12240
piece 12240
ye 12240
communities 12239
ona 12238
portion 12237
ap 12236
lat@@ 12235
suffered 12233
rig@@ 12231
6th 12230
ail@@ 12230
online 12227
ib@@ 12219
wall 12215
accepted 12214
Scott 12208
ft 12203
pur@@ 12201
direction 12200
occurred 12200
Mount 12199
computer 12187
leadership 12187
ez 12186
cell 12183
ki 12175
spring 12168
actions 12166
ranked 12162
ances 12159
ately 12156
go@@ 12154
Each 12153
cal 12152
leaves 12152
semi 12145
Bul@@ 12140
meet 12139
ulation 12139
Frank 12134
combined 12133
pay 12131
don@@ 12129
scoring 12128
ologist 12124
miles 12118
Mas@@ 12114
ef@@ 12109
onia 12101
estate 12100
territory 12096
taught 12095
metal 12090
Tar@@ 12089
adopted 12088
Supreme 12083
episodes 12082
Iran 12079
academic 12078
Mid@@ 12064
Cy@@ 12063
job 12061
Corporation 12057
1947 12047
keep 12040
My@@ 12036
product 12033
Kong 12030
mel@@ 12026
Hon@@ 12025
FM 12011
recognized 12007
00@@ 12003
Elizabeth 12001
net 11999
Gre@@ 11994
therefore 11993
fell 11980
plants 11979
1957 11978
Massachusetts 11978
zed 11970
concept 11969
At@@ 11959
Hong 11956
IS@@ 11948
Islands 11939
mentioned 11938
approach 11936
ass 11936
pressure 11933
AC@@ 11931
resulted 11923
code 11922
Korea 11921
teacher 11915
1959 11914
rel@@ 11913
felt 11912
Before 11911
but@@ 11911
Ag@@ 11908
ri 11897
camp 11896
sex 11892
reviews 11887
mass 11883
equipment 11876
proc@@ 11873
7th 11859
alone 11854
acted 11848
titles 11843
hr@@ 11842
purpose 11837
Hy@@ 11832
Sports 11828
analysis 11823
ea 11816
prison 11813
gro@@ 11812
dance 11810
nominated 11803
soci@@ 11802
Ste@@ 11800
commissioned 11798
campus 11795
37 11792
ier@@ 11792
sed 11792
real@@ 11789
expl@@ 11787
1952 11777
Ti@@ 11776
ect 11774
ome 11769
recently 11765
Pi@@ 11763
Sol@@ 11761
heart 11761
West@@ 11747
critical 11747
Time 11745
urban 11743
ects 11741
ga 11739
dro@@ 11738
presence 11729
Tu@@ 11727
rating 11724
Som@@ 11721
expanded 11718
arms 11717
hand@@ 11712
Del@@ 11702
pe 11701
method 11693
48 11682
wel@@ 11682
champion 11680
Stadium 11675
albums 11671
ura 11658
kl@@ 11654
Han@@ 11649
ced 11649
silver 11639
platform 11638
store 11636
connected 11629
cra@@ 11623
42 11622
Duke 11622
account 11621
ards 11621
Born 11618
itt@@ 11615
oul@@ 11610
box 11603
mot@@ 11602
cent@@ 11599
parties 11589
ood 11586
atives 11585
Bishop 11580
Background 11579
ices 11578
tional 11571
tic@@ 11569
Professor 11563
Tom 11557
Swedish 11555
itor 11551
break 11550
1955 11545
offers 11541
tal@@ 11541
lied 11540
secondary 11540
ual 11534
granted 11533
buried 11530
Cer@@ 11517
remain 11512
content 11511
hur@@ 11510
sey 11509
R. 11507
Top 11499
Sil@@ 11488
Home 11486
Gl@@ 11481
Police 11478
say 11477
Santa 11471
voice 11466
vers@@ 11464
stat@@ 11460
difficult 11455
Prime 11453
birth 11449
Lar@@ 11444
losing 11444
Cross 11435
except 11435
Mu@@ 11426
1949 11411
hi 11410
knowledge 11410
versions 11410
exc@@ 11409
growing 11409
arm@@ 11407
down@@ 11396
solo 11387
Library 11386
amm@@ 11386
ere 11384
minister 11381
literature 11375
Pakistan 11373
clear 11368
organizations 11362
reduced 11357
newly 11354
Atlantic 11344
1954 11338
bury 11333
Geography 11311
Joe 11309
Don 11301
rules 11301
Final 11300
the@@ 11299
minute 11295
defined 11294
stor@@ 11289
tree 11283
painting 11282
emb@@ 11274
De 11273
vers 11269
disease 11268
models 11265
damage 11260
digital 11249
performances 11249
pop 11249
sides 11235
wa 11235
cher 11234
fields 11230
spread 11228
density 11227
ingly 11227
of@@ 11224
ction 11219
ard@@ 11215
gh 11208
lab@@ 11208
rit@@ 11207
lec@@ 11204
background 11203
surname 11203
und 11199
sions 11195
rates 11193
Jackson 11190
dar@@ 11188
offer 11185
Toronto 11183
inspired 11182
resulting 11182
mountain 11177
enter 11171
problem 11166
Pet@@ 11152
Brazil 11151
tax 11150
comedy 11148
laws 11146
Ontario 11144
quarter 11138
suggested 11125
true 11112
enh@@ 11105
ston 11102
couple 11095
part@@ 11094
inner 11091
55 11086
faced 11082
existing 11080
Rome 11073
Pa@@ 11070
figure 11063
twice 11060
Ham@@ 11059
creation 11059
seats 11059
fac@@ 11047
1953 11043
Shar@@ 11043
continues 11039
ody 11039
Tre@@ 11030
males 11030
AC 11025
Ni@@ 11021
generation 11016
travel 11015
izing 11013
sport 11013
hol@@ 11012
elling 11011
sum@@ 11011
high@@ 11006
obtained 11002
allows 11000
Bridge 10997
Premier 10995
share 10993
Media 10992
Dor@@ 10990
Vi@@ 10990
Dan@@ 10981
mi@@ 10979
chairman 10971
Tel@@ 10967
Nations 10962
arts 10961
contemporary 10955
ive 10952
ula 10950
ush@@ 10948
1951 10940
Social 10937
ff 10936
3,@@ 10926
twenty 10924
Military 10920
So@@ 10920
association 10916
develop 10911
8th 10910
och@@ 10910
providing 10910
Arthur 10904
kept 10903
ils 10902
festival 10895
successfully 10894
š@@ 10890
actually 10883
ort@@ 10878
ram@@ 10878
Cap@@ 10877
00 10873
Cha@@ 10867
showed 10867
surrounding 10862
Korean 10861
Show 10857
1938 10856
lake 10855
yl 10852
necessary 10849
Je@@ 10848
Township 10846
Tom@@ 10844
Ol@@ 10843
cells 10842
1918 10840
Cast@@ 10821
finish 10820
split 10818
teaching 10816
Pur@@ 10813
jo@@ 10808
guitar 10807
P. 10802
feet 10798
officials 10798
41 10796
orders 10795
sen@@ 10788
Game 10783
Hel@@ 10781
Do@@ 10778
Philadelphia 10776
forest 10774
ater 10773
ull 10771
1936 10766
Cam@@ 10764
becomes 10751
rank 10745
occupied 10744
effort 10742
boat 10737
9th 10733
tried 10729
ements 10723
sets 10721
USA 10718
anda 10713
arrested 10713
Me 10712
authorities 10708
Da@@ 10705
claims 10705
politics 10705
ich@@ 10702
Sy@@ 10694
ith 10694
Regiment 10692
injury 10684
mile 10682
boy 10678
0,000 10674
Kan@@ 10674
billion 10672
Over 10671
300 10670
‘ 10668
door 10666
Because 10660
Book 10660
receive 10660
ox@@ 10659
allowing 10646
Ju@@ 10639
situated 10638
mann 10611
Wilson 10606
elled 10604
Billboard 10596
stand 10596
regions 10594
tower 10594
Ul@@ 10591
unique 10581
Y 10580
1920 10579
Among 10576
gives 10574
Jan@@ 10564
dead 10560
du 10559
alized 10552
attacks 10550
opposed 10550
Long 10549
owing 10547
Des@@ 10544
Mr. 10541
greater 10537
tradition 10536
block 10534
ban 10527
sixth 10526
hour 10518
ells 10514
Sand@@ 10513
oth 10512
39 10511
younger 10511
ank 10508
villages 10508
thro@@ 10506
ix 10502
impact 10500
ign@@ 10497
opposition 10496
captain 10490
goes 10488
ine@@ 10488
Captain 10486
blue 10485
wards 10485
visit 10483
forming 10482
dark 10478
eding 10477
interview 10476
sales 10476
micro@@ 10464
Sweden 10463
applied 10462
unn@@ 10458
Sun 10454
Community 10447
ax 10443
itive 10442
traffic 10438
facility 10436
Netherlands 10431
broke 10431
Pra@@ 10429
Lady 10426
ban@@ 10426
sin@@ 10424
47 10422
Bir@@ 10418
bel 10416
succeeded 10413
onic 10412
400 10408
Technology 10408
grade 10392
metres 10391
borough 10390
employed 10384
hall 10374
figures 10367
ova 10360
Port 10358
ographic 10356
scientific 10356
deep 10349
headquarters 10349
Between 10345
effective 10334
Like 10324
theatre 10323
Oxford 10319
Ty@@ 10314
awa 10311
ko 10307
rot@@ 10293
Register 10290
claim 10290
Daniel 10289
ries 10283
brothers 10280
1937 10279
climate 10279
software 10279
ising 10278
Sum@@ 10272
q 10272
inger 10271
1950s 10269
dge 10269
library 10268
compl@@ 10267
approved 10261
bought 10260
risk 10258
suff@@ 10258
cle@@ 10255
sil@@ 10254
baseball 10253
Death 10252
cannot 10251
cy 10251
qualified 10248
Emperor 10247
che 10244
says 10244
Sm@@ 10242
governor 10240
Red@@ 10229
electric 10227
Maria 10224
know 10223
promotion 10223
commander 10222
critics 10218
tures 10218
tells 10217
Bol@@ 10210
kind 10210
classes 10203
Medical 10200
Andrew 10197
oral 10188
look 10186
squad 10186
Sav@@ 10181
Due 10177
Tal@@ 10169
returning 10168
ency 10162
All@@ 10161
Met@@ 10158
blood 10157
oy 10152
brand 10150
emp@@ 10147
drive 10145
settled 10143
CO@@ 10140
Fi@@ 10140
core 10136
Field 10134
mit 10132
trains 10132
completely 10128
Q 10124
Special 10123
rob@@ 10119
simply 10118
image 10115
fighting 10111
Taylor 10109
Haw@@ 10106
1919 10104
environment 10104
read 10096
advanced 10094
Black@@ 10091
ado 10088
gs 10085
oma 10085
pet@@ 10085
cent 10080
Ban@@ 10075
big 10073
achieved 10071
rooms 10066
visited 10062
Americans 10057
Mos@@ 10053
ys@@ 10049
Golden 10047
Castle 10046
sive 10044
sters 10044
Business 10043
49 10034
ali 10032
olog@@ 10032
situation 10026
sli@@ 10026
And 10023
industrial 10022
rise 10013
Mike 10000
sk 10000
Le 9996
Mountain 9994
° 9994
ech@@ 9993
gers 9993
materials 9993
tru@@ 9993
aded 9991
frequently 9991
Van 9990
yp@@ 9988
95 9986
authority 9985
Press 9980
illa 9980
Cr@@ 9978
ified 9965
Op@@ 9963
ou 9963
med 9957
vic@@ 9957
43 9952
oldest 9949
Land@@ 9946
joining 9943
D. 9938
actress 9937
publication 9937
something 9935
reports 9934
52 9932
chosen 9927
sexual 9917
ond@@ 9914
BA 9910
op 9906
holds 9902
mand@@ 9898
Francis 9896
supply 9889
defin@@ 9883
vision 9881
murder 9880
dates 9879
merged 9877
relatively 9876
refused 9873
credited 9871
Several 9868
Chris 9864
things 9862
Four 9859
pos@@ 9857
ison 9849
tier 9848
Star@@ 9846
dated 9842
od 9840
ool 9839
shop 9837
household 9835
swe@@ 9835
lan@@ 9834
Dev@@ 9814
esc@@ 9812
May@@ 9809
1930 9803
hon@@ 9798
racing 9789
add@@ 9787
mor@@ 9787
ives 9779
fly 9777
Ass@@ 9769
AA 9768
analy@@ 9768
creating 9766
foot 9756
standing 9753
quar@@ 9749
aut@@ 9747
bring 9747
dered 9742
hat@@ 9742
Whit@@ 9738
aks 9732
1933 9729
fans 9728
Master 9727
aking 9726
son@@ 9726
dig@@ 9725
transport 9724
pal@@ 9723
ancy 9722
starring 9722
40@@ 9720
ands 9718
sa 9718
IV 9717
mid@@ 9712
rol@@ 9706
vol@@ 9704
Today 9702
regul@@ 9702
concert 9699
theme 9696
18th 9693
begins 9693
joint 9692
46 9691
Junior 9688
consisted 9679
pr@@ 9677
66 9675
perform 9671
focused 9670
conflict 9667
demonstr@@ 9667
ligh@@ 9664
stic 9664
notes 9662
Bon@@ 9660
ales 9658
winter 9657
Federation 9656
1914 9654
founding 9651
scheduled 9647
1917 9645
methods 9636
Plot 9635
Bat@@ 9631
ained 9628
Davis 9627
aver@@ 9627
itions 9627
Sim@@ 9625
Fin@@ 9624
principal 9624
head@@ 9613
ón 9608
Prize 9602
selling 9599
performing 9597
agent 9594
stream 9594
origin 9593
ze@@ 9588
beat 9587
path@@ 9583
begin 9582
receiving 9576
safety 9570
ility 9569
utes 9569
ord@@ 9568
unable 9568
articles 9565
mental 9564
transfer 9562
1935 9559
ume 9556
roads 9548
audience 9546
yan 9545
Bob 9544
Coun@@ 9544
exchange 9544
fought 9543
85 9540
attempted 9540
rich 9540
Beach 9535
Hal@@ 9535
aker 9531
retirement 9528
vice 9528
districts 9525
ner@@ 9525
pair 9522
prevent 9512
ond 9507
follow 9506
ining 9506
FA 9505
attacked 9501
bit 9499
normal 9498
girls 9497
18@@ 9488
Pres@@ 9483
Av@@ 9481
Network 9481
structures 9481
EP 9475
subsequent 9475
tar@@ 9473
verse 9471
ais@@ 9468
economy 9468
ather 9460
stock 9458
graduate 9457
Minnesota 9455
Nov@@ 9455
reason 9452
covers 9447
51 9446
partner 9445
una 9443
Nar@@ 9441
ades 9440
Lo@@ 9439
dia 9438
pun@@ 9437
try 9435
dies 9434
setting 9433
spir@@ 9432
Journal 9431
cycle 9430
reference 9421
Mexican 9420
architecture 9413
tropical 9412
han@@ 9411
kin 9411
Region 9409
expansion 9404
ost 9404
towns 9404
write 9404
ł@@ 9404
morning 9402
Mart@@ 9400
Tw@@ 9399
shared 9398
daily 9396
ills 9396
Kansas 9394
loan 9390
temple 9390
defense 9385
ania 9384
ball@@ 9384
ide 9381
dropped 9376
thesis 9371
machine 9367
Leg@@ 9366
converted 9365
non@@ 9353
Vis@@ 9351
System 9350
1928 9340
NCAA 9337
Reception 9336
determined 9336
PA 9333
burg 9333
unknown 9331
wal@@ 9331
protection 9328
Kur@@ 9326
inst@@ 9321
Ku@@ 9317
formal 9314
ush 9311
launch 9308
entitled 9307
ump@@ 9305
Forest 9292
Inc. 9292
dist@@ 9291
Missouri 9289
animals 9289
NFL 9288
stein 9288
representing 9284
enc@@ 9282
fiction 9277
permanent 9272
Steve 9269
Dra@@ 9266
L. 9261
girl 9261
shortly 9259
increasing 9256
án 9254
grounds 9238
crime 9236
54 9231
presidential 9231
alle@@ 9226
na@@ 9226
ep 9224
sense 9224
Jr 9221
volume 9219
Melbourne 9213
duc@@ 9213
Description 9205
attempts 9203
influenced 9200
Mus@@ 9198
educational 9195
trees 9192
engineering 9190
copies 9185
derived 9185
1929 9184
č@@ 9181
1934 9172
water@@ 9172
Lewis 9168
nar@@ 9165
fol@@ 9164
sign@@ 9163
Area 9161
ultimately 9159
Co 9156
ram 9154
imm@@ 9153
Gold 9152
Moscow 9140
bon@@ 9139
guest 9138
vehicles 9136
sho@@ 9135
Lat@@ 9134
ris@@ 9133
hip 9130
stay 9130
FI@@ 9127
bronze 9118
represent 9117
e.g. 9115
ris 9110
Fox 9108
ato 9108
citizens 9106
properties 9099
mouth 9098
Memorial 9096
Jim 9093
birds 9091
IC@@ 9090
mut@@ 9090
tered 9090
extensive 9087
highway 9087
ela 9083
ulated 9083
cancer 9081
acks 9080
global 9080
ment@@ 9077
Night 9069
esses 9069
airport 9068
constituency 9068
fast 9064
ici@@ 9063
ops 9063
Dal@@ 9061
Gor@@ 9061
sy@@ 9060
resources 9058
contributed 9053
maximum 9053
Power 9050
fort 9050
tra 9049
mayor 9048
containing 9047
Is 9039
Sha@@ 9037
bin@@ 9037
learning 9037
onto 9037
Muslim 9036
views 9035
powerful 9030
coordin@@ 9029
Z 9028
centuries 9028
illi@@ 9025
eller 9024
simple 9024
meant 9020
Ir@@ 9015
Jud@@ 9015
edge 9014
pieces 9013
tical 9013
ello 9011
62 9009
Stephen 9009
conf@@ 9008
Rom@@ 9006
Lin@@ 9003
Turkish 9002
Tit@@ 9000
flow 9000
Sunday 8997
Queensland 8991
hockey 8990
Country 8988
ury 8986
zz@@ 8982
peace 8977
amed 8976
Live 8972
Wisconsin 8972
laid 8972
CA 8971
North@@ 8971
institutions 8964
iss 8964
drug 8963
guns 8961
Sel@@ 8958
ough 8952
passing 8952
application 8944
card 8944
uch@@ 8944
controlled 8941
bas@@ 8937
Vol@@ 8933
locations 8931
Sciences 8928
ght 8927
50@@ 8924
More 8923
my@@ 8918
sector 8918
ert 8917
phase 8917
vac@@ 8905
hands 8904
Ta@@ 8903
farm 8900
iers 8893
MA 8889
Bab@@ 8888
wer@@ 8888
1924 8886
Cape 8883
Rob@@ 8883
walls 8880
i.e. 8879
domestic 8876
Ker@@ 8874
offices 8874
headed 8873
Pen@@ 8871
Fer@@ 8870
ide@@ 8868
squ@@ 8866
burn 8865
holding 8865
memory 8865
Project 8864
sought 8863
castle 8861
vehicle 8859
ours 8856
armed 8854
1932 8852
slightly 8852
Television 8851
Lev@@ 8839
identity 8839
Comp@@ 8838
Win@@ 8838
documentary 8838
beyond 8837
condition 8833
gate 8833
ord 8831
1912 8826
mag@@ 8825
temperature 8824
99 8823
Vietnam 8820
rie 8820
Cra@@ 8816
Song 8811
establishment 8811
Turkey 8810
tac@@ 8807
LA 8802
developing 8801
dor@@ 8797
Production 8794
physi@@ 8793
letters 8792
Bow@@ 8791
recognition 8791
Cambridge 8789
67 8788
supporting 8787
yellow 8783
Prior 8782
zone 8781
gre@@ 8778
Stra@@ 8777
expressed 8777
Tennessee 8776
search 8770
reasons 8765
invited 8763
Norway 8762
53 8758
proved 8756
ō 8751
56 8749
ores 8749
ew@@ 8748
funding 8748
rail 8748
trac@@ 8748
Indiana 8743
lyrics 8743
ba 8736
pan@@ 8732
ables 8731
consecutive 8731
height 8729
hill 8727
Raj@@ 8726
1922 8723
educated 8722
matter 8722
Philippines 8719
Point 8718
61 8717
candidates 8716
glass 8715
producing 8713
Khan 8712
ols 8711
ther 8711
want 8711
eded 8709
ession 8706
occurs 8705
Upon 8696
ky 8696
Pap@@ 8693
Jews 8692
outs 8689
SA 8688
horse 8688
Christmas 8685
prof@@ 8683
doing 8680
Bah@@ 8677
ud 8674
adv@@ 8672
oes 8672
functions 8671
technical 8671
ille 8670
hotel 8669
screen 8668
Manchester 8667
attrac@@ 8667
rugby 8666
1927 8664
lie 8663
spe@@ 8656
abandoned 8655
contained 8655
brown 8652
finishing 8650
oured 8650
Mol@@ 8648
bodies 8645
Ever@@ 8644
1921 8640
G. 8640
writers 8640
bands 8639
Native 8633
68 8630
57 8629
F. 8625
yers 8625
sem@@ 8620
factory 8619
journalist 8617
looking 8617
Labour 8616
Swiss 8616
Services 8613
needs 8612
speech 8612
pot@@ 8605
Ur@@ 8604
AT@@ 8603
Sab@@ 8599
contact 8599
elle 8598
independence 8598
Notable 8597
new@@ 8597
72 8596
uti@@ 8591
ming 8587
MP 8583
bound 8581
conv@@ 8581
supp@@ 8581
Hot 8576
ote 8570
patients 8568
category 8567
1925 8565
Land 8561
Maryland 8561
judge 8560
Green@@ 8553
bill 8552
Affairs 8549
refers 8549
investigation 8548
1926 8545
1931 8544
fleet 8543
marine 8539
architect 8537
incorporated 8537
aling 8536
negative 8535
Class 8534
violence 8525
planning 8523
Arizona 8520
mine 8519
royal 8519
Norwegian 8514
ni@@ 8512
Portuguese 8505
Building 8504
combat 8504
ule 8504
existence 8502
top@@ 8501
ul 8499
alternative 8497
COVID 8496
Then 8495
han 8495
Harry 8493
ceremony 8492
Studies 8491
decades 8485
work@@ 8481
reaching 8479
scre@@ 8475
RA@@ 8474
ration 8473
Nag@@ 8470
operate 8465
eption 8464
Channel 8458
maintained 8457
ati 8456
ress 8456
58 8453
ault 8450
eu@@ 8447
sens@@ 8447
she@@ 8447
let@@ 8436
DC 8435
otic 8433
Tournament 8431
resigned 8431
multi 8430
mal@@ 8422
mil@@ 8421
1923 8420
ree 8419
basic 8416
SR 8414
Fri@@ 8412
voted 8412
Ky@@ 8404
4,@@ 8402
ust@@ 8401
composer 8400
literary 8397
herself 8396
Oregon 8393
Rus@@ 8388
Infantry 8383
eless 8383
shape 8383
regarding 8379
airs 8378
Austria 8376
specifically 8365
Rem@@ 8359
men@@ 8359
wn 8356
junior 8355
Colorado 8354
honor 8354
hired 8353
gam@@ 8352
rear 8351
1910 8349
installed 8348
abilities 8343
enemy 8340
termin@@ 8338
counter@@ 8327
establish 8325
compar@@ 8324
trained 8322
gender 8320
phot@@ 8320
Foreign 8319
clim@@ 8317
Walter 8316
Men@@ 8313
ories 8313
Bet@@ 8311
Oc@@ 8309
exhibition 8307
Kam@@ 8306
shaped 8305
owners 8300
straight 8295
Entertainment 8290
observed 8290
secretary 8287
Ali 8285
lets 8285
ik 8279
1916 8278
References 8275
collected 8273
fuel 8269
stating 8264
Representatives 8263
connection 8262
grand@@ 8261
nuclear 8259
classical 8258
fil@@ 8258
registered 8257
ami 8254
argued 8254
pilot 8253
ty@@ 8253
NS@@ 8252
display 8252
eled 8252
69 8249
pping 8248
sch@@ 8248
1915 8245
Dre@@ 8245
Revolution 8244
alities 8239
Tim@@ 8235
yst@@ 8234
wins 8232
bert 8230
Sri 8222
passes 8222
radi@@ 8222
ruled 8221
bel@@ 8219
lim@@ 8218
Mont@@ 8216
OS 8216
ides 8211
ike 8204
funds 8203
akes 8192
Medal 8189
Ran@@ 8188
affected 8188
les@@ 8187
worldwide 8186
Places 8184
1900 8183
Human 8178
flu@@ 8177
86 8175
About 8175
someone 8175
Switzerland 8171
plane 8170
Out@@ 8169
bat@@ 8169
cia 8168
representative 8168
scenes 8167
Political 8166
finds 8164
religion 8163
Census 8161
ional 8159
Cat@@ 8158
Ob@@ 8157
Holy 8154
exist 8154
Albert 8153
59 8140
ico 8139
ero 8138
med@@ 8136
á 8136
Dam@@ 8134
Dom@@ 8134
Winter 8133
Ba@@ 8132
entrance 8131
poly@@ 8131
abad 8130
etc 8126
The@@ 8125
question 8125
Egypt 8121
serious 8121
heard 8117
occur 8117
promote 8116
heavily 8115
Ford 8113
dale 8113
nor@@ 8113
ost@@ 8111
engaged 8107
ean 8101
ital 8098
occup@@ 8095
ook 8095
profit 8094
Gam@@ 8092
importance 8092
T. 8090
marks 8090
protein 8089
dep@@ 8085
iron 8084
short@@ 8079
avoid 8073
bad@@ 8073
pra@@ 8071
regarded 8067
* 8062
Islamic 8062
choice 8062
Head 8061
77 8059
wich 8058
enz@@ 8057
63 8052
carry 8051
vin 8050
Mir@@ 8048
meters 8047
poss@@ 8047
Dr@@ 8046
cast@@ 8046
statement 8046
Singapore 8044
Arab 8043
leg@@ 8039
Only 8037
inhabitants 8036
Miller 8035
are@@ 8035
composition 8034
ask@@ 8033
ti 8031
ily 8030
failure 8026
Though 8025
Design 8024
vest@@ 8023
ature 8017
northeast 8017
Pope 8014
What 8014
Management 8007
Earl 8006
yr@@ 8006
tie 8003
ept@@ 8001
struc@@ 8001
roof 7998
celeb@@ 7996
onian 7996
poet 7992
peri@@ 7988
enter@@ 7987
medi@@ 7987
selection 7984
Kr@@ 7983
poetry 7978
programme 7974
Kir@@ 7973
price 7970
incident 7965
internal 7965
ag 7963
Air@@ 7962
Dem@@ 7962
AD 7961
Cu@@ 7961
consisting 7959
cin@@ 7957
powers 7957
unt 7956
improve 7953
storm 7951
Str@@ 7949
praised 7949
ral 7946
aw 7945
concluded 7945
Wood@@ 7944
Security 7943
think 7942
Member 7938
toward 7938
eng 7937
programming 7935
1930s 7934
mem@@ 7934
fer 7931
Rep@@ 7927
cour@@ 7926
long@@ 7924
tax@@ 7924
ased 7922
Fu@@ 7921
Miss 7921
insi@@ 7918
stadium 7917
compete 7914
esh@@ 7914
Mul@@ 7911
page 7903
lis 7898
spot 7897
session 7895
sections 7894
Howard 7892
Por@@ 7892
Prot@@ 7892
tery 7891
invasion 7890
17th 7887
High@@ 7885
adult 7882
chair 7881
Youth 7879
driver 7879
88 7878
Professional 7878
twelve 7874
ç@@ 7874
arm 7873
gain 7873
load 7873
oring 7873
entirely 7872
bishop 7871
ective 7871
Cour@@ 7870
homes 7869
71 7868
Regional 7868
Der@@ 7864
Bureau 7860
protect 7858
municipal 7856
cou@@ 7853
rare 7853
arch 7852
weapons 7852
dae 7849
Liberal 7845
Main 7842
hu@@ 7842
passenger 7841
foundation 7839
Os@@ 7838
causing 7837
Il@@ 7835
Temple 7835
hel@@ 7832
target 7831
ahead 7830
SE@@ 7825
trying 7824
divisions 7823
possibly 7821
agency 7817
eline 7817
users 7817
advance 7815
ows 7813
gets 7812
Forces 7811
reserve 7810
Thus 7809
ila 7809
diss@@ 7808
boys 7807
anna 7805
Cri@@ 7804
Square 7804
kill 7803
1913 7799
rical 7798
peak 7794
quite 7794
avi@@ 7789
Israeli 7788
Ukraine 7788
closely 7785
Greece 7784
explo@@ 7783
Tony 7782
bon 7781
Vice 7780
draft 7779
Hamilton 7776
starred 7775
SS 7770
mit@@ 7768
Operation 7766
bal@@ 7765
CC 7764
environmental 7763
cricket 7762
mp@@ 7762
Ay@@ 7761
Hockey 7758
historian 7758
oo 7756
fur@@ 7753
Free 7751
Kentucky 7750
Az@@ 7746
Ga@@ 7744
Rock@@ 7743
starts 7743
Ben 7741
sale 7740
vely 7734
personnel 7732
Houston 7729
briefly 7728
clu@@ 7725
ans@@ 7719
gene 7717
premiered 7717
charged 7714
standards 7713
calls 7711
believe 7709
steel 7709
leg 7704
employees 7698
animal 7697
Naval 7696
ports 7694
reli@@ 7693
opera 7692
Brigade 7688
ideas 7684
wind 7684
ences 7681
78 7680
Fac@@ 7678
broken 7676
76 7673
On@@ 7672
vir@@ 7672
seconds 7669
Mun@@ 7667
ham@@ 7666
escape 7664
She@@ 7663
Anne 7661
killing 7657
Hay@@ 7654
aul@@ 7654
ori 7650
Senior 7648
bility 7647
improved 7646
accused 7644
northwest 7639
conver@@ 7622
investig@@ 7619
96 7617
AM 7617
ú@@ 7615
1911 7613
mig@@ 7612
sell 7607
equal 7601
corner 7600
81 7599
stands 7597
aqu@@ 7596
opportunity 7594
chain 7592
oning 7592
viewed 7592
Third 7588
Patrick 7587
user 7587
Administration 7586
agricultural 7586
aching 7584
batt@@ 7584
Rural 7583
Stone 7583
paintings 7583
alists 7580
Sem@@ 7577
drawn 7576
Ren@@ 7571
Bay@@ 7570
seventh 7570
pose 7563
li 7562
MS 7560
describes 7560
Rel@@ 7559
Works 7559
distributed 7558
Nic@@ 7557
ito 7556
regularly 7556
cu@@ 7555
sav@@ 7555
Pu@@ 7553
law@@ 7552
asing 7551
tries 7548
mist@@ 7547
kins 7546
unk 7545
Engineering 7543
ack@@ 7536
your 7536
Squadron 7532
introduction 7531
rant 7531
Marine 7528
courses 7528
speaking 7528
92 7521
AM@@ 7520
gel 7519
Iowa 7518
jec@@ 7517
ancing 7513
injured 7512
Once 7509
chose 7504
ady 7500
really 7498
16th 7497
ju@@ 7497
pul@@ 7494
Ocean 7486
continu@@ 7484
mas@@ 7477
covering 7475
residence 7470
Spec@@ 7469
extension 7468
ray 7465
Tak@@ 7464
Light 7463
resistance 7463
5,000 7459
hab@@ 7457
Jesus 7456
wave 7456
lock 7455
anced 7454
eter 7454
direc@@ 7452
Hotel 7450
reading 7449
reduce 7446
Brian 7444
fine 7444
gri@@ 7444
Prix 7440
fron@@ 7438
Ann@@ 7435
ele 7435
ination 7433
applications 7432
Simon 7431
weather 7429
dating 7428
Wi@@ 7426
Elec@@ 7422
values 7420
break@@ 7415
74 7414
Space 7404
filled 7404
I. 7402
nur@@ 7402
cycl@@ 7401
calling 7400
combination 7400
humans 7400
past@@ 7400
ues 7400
step 7399
prem@@ 7397
dry 7396
ril@@ 7395
eo 7394
cop@@ 7390
ñ@@ 7387
oid 7385
Dur@@ 7384
objects 7383
Est@@ 7380
SC 7379
ules 7378
sting 7377
1908 7376
islands 7375
ensi@@ 7374
print 7374
bles 7372
Samuel 7363
journal 7360
Ara@@ 7359
neighborhood 7356
osa 7356
exam@@ 7355
oration 7355
rose 7352
run@@ 7352
ethnic 7345
earliest 7343
Ci@@ 7340
mon 7340
racial 7337
Executive 7336
mind 7335
Arm@@ 7334
stages 7332
bing 7330
98 7329
address 7328
ests 7328
stores 7328
Wol@@ 7327
aine 7326
vent@@ 7326
Fame 7325
Lam@@ 7324
decade 7322
Anderson 7319
Gil@@ 7318
Tru@@ 7318
dam@@ 7318
Conc@@ 7317
getting 7317
strength 7316
atus 7313
lic 7311
nor 7310
advantage 7309
survived 7307
Beau@@ 7303
interior 7303
usi@@ 7302
demand 7297
Danish 7294
shar@@ 7294
Ret@@ 7292
debuted 7292
Communist 7291
plus 7288
ald 7287
frame 7286
Bh@@ 7285
mont 7285
87 7284
causes 7282
liber@@ 7280
84 7279
Diego 7279
shore 7279
.A. 7277
Water 7277
kes 7277
replace 7276
19@@ 7272
itors 7272
oll@@ 7271
engineer 7270
PC 7268
strike 7268
ven 7267
factors 7263
organisation 7261
Sat@@ 7259
valley 7257
eye 7254
Pro 7253
southeast 7253
DVD 7252
Pas@@ 7250
mean 7247
Sam 7246
Out 7245
ancest@@ 7243
Hom@@ 7241
sor@@ 7240
83 7239
partnership 7238
Rad@@ 7235
voc@@ 7235
izes 7234
fu@@ 7232
Rugby 7231
82 7230
experienced 7230
Modern 7226
ein 7224
pool 7224
comb@@ 7223
neur@@ 7223
ader 7219
techn@@ 7216
mi 7215
adjacent 7214
nation@@ 7213
Bowl 7209
Commonwealth 7208
inary 7207
interests 7206
Oklahoma 7205
ei 7205
mill 7205
Mayor 7200
heads 7199
leads 7197
Alabama 7192
operates 7191
mort@@ 7190
Donald 7187
singing 7186
signing 7185
theater 7185
Med@@ 7184
ounded 7184
Heritage 7183
Lor@@ 7183
hin@@ 7183
Bern@@ 7182
.com 7181
greatest 7180
K. 7179
typical 7179
tot@@ 7176
notably 7175
criminal 7172
eted 7170
musician 7170
kin@@ 7168
Philip 7166
engines 7165
Tokyo 7164
lig@@ 7163
Program 7162
bass 7161
Children 7160
disc@@ 7159
Frederick 7157
churches 7157
iles 7155
97 7154
ny 7149
psych@@ 7147
goods 7145
tain@@ 7144
proce@@ 7138
hood 7135
lia 7135
appointment 7132
Legislative 7130
committed 7130
ous@@ 7130
pur 7130
painted 7128
Imperial 7127
73 7124
nomin@@ 7123
stable 7123
play@@ 7122
treated 7122
script 7121
distinct 7120
A.@@ 7118
jud@@ 7118
link 7118
Mississippi 7117
contain 7117
So 7116
participate 7113
Ok@@ 7111
techniques 7110
Quebec 7107
bad 7106
gran@@ 7106
Juan 7104
Allen 7102
reception 7102
respon@@ 7101
act@@ 7100
alis@@ 7099
79 7098
designs 7097
phone 7096
ott 7091
opp@@ 7090
opposite 7090
bottom 7084
seems 7084
Over@@ 7083
Detroit 7078
moun@@ 7077
Anthony 7075
promot@@ 7074
Lieutenant 7073
Railroad 7069
umb@@ 7067
Village 7066
rejected 7064
hundred 7063
asp@@ 7061
Mak@@ 7060
Antonio 7058
pic@@ 7058
aga 7057
charges 7055
Camp@@ 7052
Rh@@ 7051
vocals 7051
IN@@ 7049
philosophy 7045
uz@@ 7045
Fire 7042
Kin@@ 7042
budget 7042
89 7041
measures 7039
signal 7038
mining 7036
int 7034
Hungarian 7031
stood 7030
Dep@@ 7027
comic 7027
Law@@ 7026
just@@ 7025
collaboration 7021
musicians 7019
Cemetery 7018
fired 7018
aches 7017
motor@@ 7017
Christ 7016
Czech 7014
ading 7014
piano 7014
Baseball 7013
Hollywood 7012
chemical 7012
spar@@ 7012
damaged 7011
elli 7011
Clark 7009
Independent 7007
collabor@@ 7007
pi@@ 7006
Argentina 7004
Trans@@ 7004
examples 7004
equivalent 7003
contrac@@ 7002
evi@@ 7002
plot 7000
southwest 7000
Adam 6999
Ka@@ 6999
bom@@ 6999
Gallery 6997
didn 6997
94 6996
Ki@@ 6996
Lau@@ 6996
oa 6995
Douglas 6994
employment 6994
protected 6993
anth@@ 6989
Magazine 6987
residential 6986
coal 6982
details 6981
ua 6981
dou@@ 6974
jazz 6968
Local 6967
easily 6966
eling 6964
93 6959
tha 6958
aki 6956
Var@@ 6951
AS 6948
Fair@@ 6942
duty 6941
Band 6939
motion 6939
aster 6937
flying 6930
jo 6930
links 6930
why 6930
Christ@@ 6929
ful@@ 6929
Lincoln 6928
sub 6926
Slov@@ 6925
domin@@ 6921
skills 6921
tics 6920
God@@ 6915
rey 6915
capture 6912
ecting 6912
Miami 6911
aining 6911
businesses 6910
criticized 6909
Ball@@ 6907
lob@@ 6905
low@@ 6905
Constitution 6901
shr@@ 6901
purchase 6899
missions 6898
Moore 6893
ras 6893
lawyer 6892
accompanied 6891
asses 6891
winners 6891
Doctor 6889
mur@@ 6889
Five 6886
Gordon 6886
Water@@ 6886
Kat@@ 6885
secret 6885
Syn@@ 6877
1906 6876
Hur@@ 6876
sequence 6871
Mand@@ 6869
91 6865
UN@@ 6861
defeating 6861
Denmark 6860
tes 6860
igation 6857
actors 6856
Bell 6855
Iraq 6855
assumed 6853
passengers 6852
Sin@@ 6851
mo 6849
alls 6848
determine 6848
flag 6848
Alb@@ 6847
costs 6845
Up 6844
admitted 6844
Reserve 6843
champions 6841
zing 6840
pro 6838
items 6835
medium 6834
ett@@ 6833
esh 6829
communication 6827
reality 6827
ace@@ 6825
intelligence 6825
provincial 6824
1905 6822
een 6821
electronic 6817
path 6816
Kon@@ 6811
contrast 6811
maintain 6811
flat 6810
arian 6809
Puerto 6808
edi@@ 6808
freedom 6808
acid 6807
documents 6807
1907 6804
anders 6802
Athletics 6801
01 6798
illustr@@ 6798
images 6790
retained 6787
Rose 6786
delivered 6785
ected 6784
factor 6781
angle 6780
Hungary 6779
contest 6779
advoc@@ 6776
reaction 6776
deb@@ 6775
Louisiana 6774
Ukrainian 6773
Wat@@ 6773
regiment 6773
Not 6771
extra 6771
habitat 6769
win@@ 6769
150 6768
Belgium 6766
banks 6764
itt 6763
routes 6763
arranged 6762
commission 6761
device 6761
request 6761
Harvard 6760
oke 6760
ø@@ 6760
mark@@ 6759
constit@@ 6758
lying 6758
1,000 6757
attached 6757
Ottoman 6754
contributions 6753
ror 6753
Marie 6750
formally 6748
tiv@@ 6748
att 6747
hydro@@ 6740
publications 6739
Anna 6735
cally 6733
fication 6733
ST@@ 6731
driving 6731
heat 6729
Singles 6728
AP@@ 6726
streets 6726
1909 6723
ken 6721
uting 6721
DNA 6719
PS 6719
Sun@@ 6717
prize 6714
Direc@@ 6712
wick 6712
reign 6711
showing 6711
eland 6707
tion@@ 6706
prop@@ 6704
commer@@ 6703
iled 6702
orial 6701
rop@@ 6700
integ@@ 6699
poem 6694
Trust 6691
visible 6690
AN@@ 6688
brief 6686
Dol@@ 6685
Sen@@ 6684
caught 6684
Bas@@ 6681
TA 6681
Son@@ 6678
fle@@ 6678
classified 6677
perc@@ 6677
linked 6675
And@@ 6672
accident 6672
ev 6671
Ori@@ 6668
boo@@ 6667
deputy 6665
purposes 6660
diff@@ 6659
rh@@ 6659
inal 6658
thor@@ 6655
sha@@ 6651
Tam@@ 6650
anniversary 6650
persons 6648
Palace 6646
Demographics 6643
Dou@@ 6641
shooting 6641
special@@ 6637
sculp@@ 6636
zi@@ 6636
bet@@ 6634
organ@@ 6634
courts 6632
ownership 6631
sie 6628
Dublin 6625
trip 6623
Ry@@ 6621
naval 6620
ressed 6618
crisis 6615
Season 6613
plat@@ 6613
Connecticut 6611
hosts 6611
any@@ 6610
colonial 6610
ete 6607
Brazilian 6605
calcul@@ 6605
represents 6602
É@@ 6601
alb@@ 6600
biggest 6600
Good 6598
behavior 6597
Hum@@ 6596
Lim@@ 6595
painter 6594
attend 6593
pandemic 6589
600 6587
investment 6587
ague 6586
significantly 6585
Kim 6584
BS 6583
12th 6581
restored 6580
CEO 6577
Rights 6577
nothing 6573
disp@@ 6570
interested 6569
Additionally 6567
invest@@ 6567
ingham 6566
See 6564
fixed 6563
Age 6562
filed 6561
Bag@@ 6560
difference 6560
Tamil 6558
alli@@ 6558
save 6556
Iv@@ 6555
Max 6552
visual 6551
Stre@@ 6549
object 6549
5,@@ 6548
desc@@ 6548
itting 6546
alised 6545
boats 6545
ă@@ 6545
ghts 6543
sis 6543
NBA 6542
Rap@@ 6542
folk 6542
guard 6541
understanding 6540
carrying 6539
fashion 6538
AI@@ 6537
publishing 6535
translated 6535
je 6533
Margaret 6531
ABC 6530
Gold@@ 6528
concerns 6527
rein@@ 6527
flows 6525
ods 6524
separated 6524
Saturday 6522
ashed 6522
Kor@@ 6521
Edinburgh 6520
Sn@@ 6520
09 6519
policies 6518
collec@@ 6517
eh 6517
falls 6516
educ@@ 6514
ō@@ 6511
franchise 6510
tied 6509
13th 6505
stopped 6505
ph 6504
tured 6504
SP@@ 6502
dynasty 6500
adapted 6498
rev@@ 6497
Mountains 6495
actual 6495
Internet 6494
chance 6494
appearing 6491
â@@ 6491
Week 6489
Whe@@ 6487
degrees 6485
6,@@ 6484
duties 6484
bird 6483
cho@@ 6477
ów 6476
Lan@@ 6475
Ear@@ 6471
cla@@ 6470
township 6470
az 6469
learned 6467
require 6464
teenth 6464
Cleveland 6463
Ful@@ 6462
note 6462
owed 6462
thing 6460
Nat@@ 6459
wounded 6458
lers 6455
competitions 6449
liz@@ 6449
Montreal 6448
ety 6447
Portugal 6444
cas@@ 6444
mobile 6440
ry@@ 6440
Fran@@ 6439
Austrian 6436
by@@ 6436
Aut@@ 6434
Metropolitan 6433
occupation 6433
defensive 6431
1904 6428
arrival 6428
acqu@@ 6427
compet@@ 6427
Even 6426
institution 6426
ishing 6426
apped 6425
lights 6424
Gran@@ 6422
ear 6420
missing 6420
acked 6417
popularity 6417
ums 6416
Na@@ 6413
membership 6411
teen 6409
08 6408
anese 6408
crossing 6405
destro@@ 6404
sh 6403
flowers 6402
organiz@@ 6402
tennis 6402
qualifying 6401
stance 6401
Deputy 6400
medicine 6395
Broadway 6394
Guard 6394
lay 6394
printed 6392
Ray 6391
faculty 6390
som@@ 6390
ood@@ 6389
Mill@@ 6388
Ryan 6388
daughters 6387
Atlanta 6386
Sher@@ 6386
Now 6385
Command 6384
legislation 6383
relative 6382
waters 6382
Ep@@ 6380
scholars 6379
ender 6377
severe 6375
responsibility 6372
ensure 6370
hits 6369
sole 6367
enting 6365
rel 6363
Defense 6362
gone 6361
Walker 6359
roughly 6359
tel 6357
weekly 6357
15th 6354
hard@@ 6354
Colonel 6351
measure 6350
adding 6348
map 6348
lists 6346
fas@@ 6343
eta 6342
mos@@ 6342
Battalion 6338
locality 6337
testing 6336
dre@@ 6335
jected 6335
Kath@@ 6334
pay@@ 6334
suggests 6334
thousands 6334
advis@@ 6333
perhaps 6333
Global 6327
storage 6323
Lawrence 6320
ation@@ 6320
peaked 6320
Indonesia 6319
Wo@@ 6317
fit 6317
ct 6315
ential 6315
800 6313
Malaysia 6313
1901 6311
Kol@@ 6311
Meg@@ 6310
Seattle 6309
Cher@@ 6301
ok 6301
involving 6299
aus@@ 6298
priest 6298
Construction 6296
alty 6293
ig 6292
offensive 6292
wings 6291
Li 6290
employ@@ 6287
Welsh 6286
prepared 6285
indic@@ 6278
expres@@ 6275
extremely 6274
successor 6272
Rand@@ 6270
turns 6270
José 6268
eral 6267
eth 6267
05 6266
initi@@ 6265
practices 6262
encing 6261
stayed 6259
sel 6258
14th 6257
bringing 6255
windows 6255
brick 6250
narrow 6249
Chairman 6248
Tran@@ 6247
ranking 6247
ails 6241
aspects 6241
fru@@ 6237
tives 6233
neg@@ 6232
wa@@ 6232
Ele@@ 6231
ilt 6230
otherwise 6230
alization 6228
ower 6228
criticism 6227
list@@ 6227
lo 6227
Rev@@ 6226
qui@@ 6226
pu@@ 6222
reform 6221
star@@ 6219
moth 6217
bus@@ 6214
dence 6214
Champions 6213
10th 6212
subjects 6210
fan 6209
graduating 6208
eri@@ 6207
CE@@ 6203
etta 6199
expression 6199
commune 6198
yc@@ 6193
coastal 6192
challenge 6190
bo 6189
ve@@ 6189
Sec@@ 6188
1903 6186
ump 6186
authors 6185
technique 6184
Mari@@ 6183
FL 6182
Harris 6182
human@@ 6182
Studios 6181
walk 6180
AF 6179
explained 6177
1902 6176
Fal@@ 6176
fri@@ 6175
yle 6175
net@@ 6174
conduct 6173
respect 6173
Round 6172
cards 6169
cro@@ 6167
present@@ 6166
restaurant 6165
Schools 6162
cited 6162
sian 6160
ification 6159
ton@@ 6159
astic 6158
parliament 6156
justice 6154
prime 6149
returns 6145
talk 6145
chi 6144
eld 6142
context 6141
MP@@ 6138
Eric 6136
Vari@@ 6136
pattern 6133
wear 6132
Rav@@ 6130
nations 6130
electoral 6129
heritage 6127
Nazi 6125
ution 6124
Upper 6123
roll 6122
assembly 6121
poverty 6121
Singh 6120
Alan 6118
prisoners 6118
Sarah 6115
assistance 6115
rain 6115
D.C. 6113
Moh@@ 6112
vity 6112
dest@@ 6111
edited 6111
ock@@ 6111
teachers 6111
north@@ 6110
Liverpool 6109
devices 6107
Commander 6104
ups 6102
Through 6101
imag@@ 6101
si 6100
Vienna 6098
Disney 6095
Front 6095
breaking 6093
changing 6092
drop 6092
ensis 6092
oper@@ 6088
Jer@@ 6083
itted 6082
Transport 6080
Ca@@ 6078
differences 6077
Bou@@ 6071
description 6069
Culture 6067
Mik@@ 6066
universities 6063
07 6060
eda 6060
Len@@ 6059
ii 6059
ć 6052
Pin@@ 6051
forests 6051
innings 6050
window 6048
Fr@@ 6044
replacement 6040
Track 6037
Gulf 6036
Officer 6036
Orchestra 6036
credit 6033
ld@@ 6033
Nu@@ 6028
sup@@ 6028
Pon@@ 6027
ured 6026
lit@@ 6025
novels 6025
Invest@@ 6024
Rod@@ 6023
victims 6023
ough@@ 6021
ship@@ 6021
garden 6020
anthrop@@ 6018
Dean 6017
Pot@@ 6017
ames 6014
prosec@@ 6013
Crown 6011
ees 6011
refer@@ 6010
Wood 6009
instruc@@ 6009
ović 6008
parliamentary 6007
entering 6006
Kl@@ 6005
labor 6005
classic 6004
anch@@ 6003
Ang@@ 6002
childhood 6002
grown 6000
red@@ 5999
sle@@ 5999
ection 5997
rest@@ 5997
emen 5994
Grant 5993
ogen@@ 5992
NE@@ 5989
markets 5989
lav@@ 5988
Cathedral 5987
Kil@@ 5987
mounted 5987
Pau@@ 5986
compos@@ 5985
aire 5984
tle 5983
evening 5981
lar@@ 5980
South@@ 5978
diag@@ 5977
Meanwhile 5976
sand@@ 5976
itic 5975
Kennedy 5974
tail 5974
brain 5972
capable 5972
listing 5971
patri@@ 5971
coll@@ 5969
scheme 5968
equipped 5966
Chart 5964
medieval 5964
ink 5962
Maj@@ 5960
send 5960
10.@@ 5959
Boys 5959
Player 5959
parallel 5959
soil 5959
Basketball 5958
Alliance 5957
Deb@@ 5957
Ross 5957
Aqu@@ 5955
agers 5955
exclu@@ 5955
lap 5955
lau@@ 5953
guitarist 5952
Liber@@ 5951
depth 5949
pil@@ 5948
safe 5948
1920s 5945
branches 5944
sid@@ 5943
Rio 5940
10,000 5939
grow 5937
ks@@ 5936
Camp 5934
sul@@ 5933
í 5933
Sho@@ 5932
replacing 5932
AP 5931
temporary 5929
uring 5928
Brow@@ 5926
Ken@@ 5926
CD@@ 5922
eyes 5920
Review 5918
depic@@ 5918
eks 5918
controversy 5915
requirements 5915
Birmingham 5914
edly 5914
satis@@ 5914
spoken 5914
ez@@ 5913
iry 5913
evalu@@ 5911
translation 5911
Mit@@ 5909
Sou@@ 5909
components 5907
odi@@ 5906
ported 5905
ée 5904
coverage 5903
Your 5900
ights 5900
mu@@ 5900
solution 5900
Conservative 5899
ager 5899
drawing 5898
sized 5898
Sig@@ 5896
ota 5896
hot 5895
threat 5895
encies 5892
offering 5892
rail@@ 5889
uk 5889
Clar@@ 5888
appeal 5888
lah 5888
fishing 5887
medals 5884
Carl 5883
DA 5882
ple 5882
Kelly 5881
agan 5881
ulate 5881
Kevin 5880
Bak@@ 5879
Baltimore 5877
downtown 5877
lose 5876
Good@@ 5874
finding 5874
rich@@ 5873
Agency 5872
Lower 5871
critic 5868
revol@@ 5868
CP@@ 5867
Jordan 5866
Garden 5865
uf@@ 5865
Hills 5863
onn@@ 5861
ı@@ 5861
facing 5860
ference 5860
wooden 5859
Athletic 5858
venture 5858
squadron 5857
cker 5856
mal 5856
Pittsburgh 5855
itable 5855
debate 5853
opinion 5852
Arkansas 5851
studying 5851
sanc@@ 5850
slow 5850
Od@@ 5848
autom@@ 5848
zo@@ 5847
Nam@@ 5846
instance 5840
soccer 5836
struck 5835
vessels 5835
artistic 5833
ears 5831
Ltd 5830
Anti@@ 5829
&apos;m 5828
filmed 5827
ić 5827
Energy 5826
sufficient 5826
Rou@@ 5824
iny 5822
task 5822
viewers 5821
declined 5820
Doc@@ 5819
Thompson 5818
pm 5815
Trump 5813
din@@ 5813
Cle@@ 5810
oods 5809
Jane 5808
RO@@ 5808
threatened 5806
approval 5804
broad 5802
transl@@ 5801
portra@@ 5800
powered 5800
processes 5799
Morgan 5798
Heart 5797
picture 5797
railroad 5797
Campbell 5796
Metro 5796
boundary 5796
lik@@ 5796
friendly 5795
dam 5794
04 5793
aceae 5793
nomination 5793
omb@@ 5790
element 5787
celebrated 5786
oll 5786
with@@ 5785
Opera 5784
1898 5783
losses 5783
develop@@ 5780
Att@@ 5779
denied 5779
ify 5779
proposal 5777
Tan@@ 5776
dog 5770
dic 5769
modified 5768
raise 5768
tom@@ 5767
atures 5766
ss@@ 5766
Voivodeship 5765
11th 5763
aled 5763
ida 5762
increasingly 5762
driven 5761
turing 5760
borne 5759
Russell 5757
Cos@@ 5755
Cop@@ 5754
manufacturing 5752
voting 5750
Convention 5749
ority 5749
alia 5747
eighth 5745
influential 5745
lav 5745
cons@@ 5744
km2 5744
mac@@ 5743
Here 5742
Test 5742
hair 5742
rations 5741
Web@@ 5739
requires 5739
frequency 5735
skin 5735
tank 5735
tain 5734
Che@@ 5732
existed 5731
olic 5728
rap@@ 5728
wine 5728
Murray 5727
ce@@ 5725
ordinary 5724
recre@@ 5724
ardo 5723
lasted 5719
rup@@ 5719
feel 5718
itu@@ 5717
v. 5714
Training 5713
ats@@ 5713
bow@@ 5710
editions 5710
experiences 5709
Daily 5708
ushing 5708
competing 5707
considerable 5707
instruments 5707
Information 5706
Roger 5706
7,@@ 5705
Lane 5705
ocks 5704
06 5702
aur@@ 5701
vine 5701
Mot@@ 5700
aria 5699
handed 5697
oto 5697
var@@ 5697
Nelson 5695
End 5694
annually 5694
ū@@ 5694
DP 5693
carbon 5693
oe 5692
sta 5692
Stewart 5691
itz 5691
NBC 5690
emergency 5690
gan 5690
Kent 5689
reputation 5689
screen@@ 5689
Brit@@ 5687
Wel@@ 5685
lined 5685
enberg 5684
gun@@ 5684
ren 5684
Orthodox 5683
eigh@@ 5683
Dan 5682
lov@@ 5679
Hun@@ 5675
onomy 5674
web 5674
canc@@ 5673
relation 5672
surrounded 5670
uan 5670
dium 5667
landing 5663
class@@ 5662
Girls 5660
dian 5658
message 5658
Neg@@ 5657
mus@@ 5657
Anim@@ 5656
Bangladesh 5656
strategy 5655
achieve 5654
closure 5654
lane 5652
das 5651
plan@@ 5650
questions 5650
resses 5650
Dallas 5648
thy 5647
Our 5646
suspended 5643
Peace 5641
papers 5640
Finland 5637
genre 5637
terror@@ 5635
adi 5634
executed 5634
Authority 5633
ira 5632
proper 5632
progress 5630
hop 5628
Brothers 5624
age@@ 5624
1899 5623
atively 5622
owns 5622
ika 5621
involvement 5621
Austin 5620
portrayed 5619
Pad@@ 5618
fair 5618
repe@@ 5616
Laur@@ 5615
care@@ 5615
limit 5615
prohib@@ 5615
Franklin 5614
cip@@ 5614
strongly 5614
determin@@ 5609
Around 5607
affairs 5607
collections 5607
colour 5607
ually 5607
visitors 5603
concrete 5601
femin@@ 5601
ont@@ 5601
artillery 5599
helping 5599
recru@@ 5599
somewhat 5599
whe@@ 5598
rounds 5597
secure 5597
vessel 5597
tations 5596
Alex 5592
F.C. 5590
completion 5590
meets 5590
indicated 5588
popul@@ 5586
far@@ 5585
Medicine 5581
charts 5581
circ@@ 5581
span 5581
Cham@@ 5580
amateur 5580
kar@@ 5580
VI 5579
By@@ 5577
Romania 5577
adaptation 5576
camp@@ 5576
pt 5576
foot@@ 5573
raising 5573
ital@@ 5572
constant 5570
Pierre 5569
Vo@@ 5569
02 5568
Lyn@@ 5566
Ten 5564
count 5564
ext@@ 5563
movements 5563
orn 5563
tory 5562
ural 5560
Princess 5558
iti 5558
penalty 5557
Stanley 5555
dering 5555
preserved 5555
port@@ 5553
Originally 5551
conclu@@ 5551
uments 5550
Ah@@ 5549
adap@@ 5549
drew 5549
survey 5549
accoun@@ 5547
fund 5547
championships 5546
CS@@ 5545
iel@@ 5545
ild@@ 5544
Real 5543
eness 5543
recordings 5543
Ali@@ 5542
Robinson 5542
touchdown 5542
Dance 5541
Senator 5541
Bruce 5540
Ev@@ 5540
favor 5540
Taiwan 5539
expedition 5538
Hear@@ 5537
IR@@ 5537
Mission 5537
Express 5535
huge 5535
audio 5531
funded 5529
Six 5528
sponsored 5527
worn 5521
grant 5519
sy 5517
ask 5516
soundtrack 5516
Ale@@ 5514
Dave 5514
happ@@ 5513
Trade 5512
Wright 5509
sett@@ 5509
ired 5508
laimed 5508
1890 5507
Sor@@ 5506
Pass@@ 5504
accounts 5503
tivity 5503
&apos;re 5502
Baron 5502
ordin@@ 5502
CBS 5500
Unlike 5500
alleged 5500
seeing 5498
distinguished 5495
ister 5495
Oli@@ 5494
positi@@ 5494
Gri@@ 5493
V. 5491
poll@@ 5491
Kit@@ 5489
Marshall 5489
RE@@ 5488
deaths 5488
option 5488
rival 5488
AF@@ 5487
Utah 5487
boards 5487
uncle 5485
aint 5484
chan@@ 5484
elevation 5483
cian 5480
vit@@ 5480
bit@@ 5479
eff@@ 5478
Vic@@ 5477
populations 5477
Plat@@ 5476
decline 5476
eleven 5475
kers 5474
sburg 5474
Way 5473
anding 5473
representation 5470
plant@@ 5469
stab@@ 5469
eliminated 5468
Racing 5467
sees 5465
surviving 5462
Zh@@ 5460
Adams 5459
signs 5458
thirty 5458
Belgian 5457
camera 5457
gen 5457
zer 5457
Critical 5456
definition 5456
Spring 5454
Organization 5453
junction 5452
scrip@@ 5450
How@@ 5449
donated 5449
iness 5449
Christopher 5447
250 5446
Cum@@ 5444
Economic 5444
found@@ 5444
uss@@ 5444
vill@@ 5444
Vel@@ 5443
Cab@@ 5442
Cent@@ 5442
cm 5441
counties 5440
fro@@ 5439
songwriter 5438
zi 5437
ems 5435
Buck@@ 5433
arg@@ 5432
participation 5429
affiliated 5427
pon@@ 5424
suit 5423
Within 5421
enses 5420
Brooklyn 5418
McC@@ 5418
commemor@@ 5418
consider 5417
mountains 5416
arrest 5415
effectively 5414
Sound 5413
Ven@@ 5412
organised 5412
Vir@@ 5411
classification 5410
illegal 5410
Carter 5406
apping 5406
doubles 5405
ield 5403
bi 5402
Silver 5401
bla@@ 5401
Ot@@ 5400
ae@@ 5400
Just 5399
ready 5399
ros 5397
chem@@ 5395
Ann 5394
Gur@@ 5394
Sah@@ 5394
Victorian 5393
Nick 5390
pursu@@ 5390
Movement 5389
Fo@@ 5387
Ton@@ 5387
tab@@ 5387
host@@ 5385
vor@@ 5385
Who 5383
key@@ 5383
themes 5383
alt 5382
fill 5381
zes 5381
maker 5379
recogn@@ 5377
differ@@ 5376
grand 5376
fix@@ 5375
03 5374
reflec@@ 5373
ros@@ 5373
Domin@@ 5372
Graham 5372
natur@@ 5372
directors 5371
esis 5371
secre@@ 5371
tons 5371
Norman 5369
Instead 5368
ander 5368
anne 5368
contested 5368
Treaty 5366
Ari@@ 5365
UEFA 5365
fr@@ 5364
1896 5363
Om@@ 5363
Seg@@ 5362
benefit 5362
bow 5360
jobs 5360
Portland 5358
rier 5358
econom@@ 5357
relief 5357
widespread 5356
lieutenant 5355
emerged 5354
attributed 5353
organ 5353
ested 5349
Kra@@ 5344
infrastructure 5344
discovery 5342
Go 5341
Ant@@ 5340
shares 5340
manner 5339
ernal 5338
cann@@ 5337
controversial 5336
Bachelor 5335
Place 5335
iet 5334
happened 5333
Tour@@ 5332
emer@@ 5332
ska 5332
appropriate 5330
hang@@ 5330
lan 5329
Theater 5328
cular 5328
lion 5328
FIFA 5327
aked 5327
cant@@ 5327
pick 5326
output 5324
Jimmy 5320
Victor 5318
enjo@@ 5316
Alfred 5314
ín 5314
Hi@@ 5312
mean@@ 5312
1897 5308
cultiv@@ 5308
origin@@ 5306
departure 5305
hei@@ 5305
vis 5305
wheel 5304
recommended 5303
depending 5302
speak 5302
Bru@@ 5300
occasionally 5300
spoke 5297
Trophy 5296
entation 5296
ision 5296
Den@@ 5295
Tim 5295
yo 5295
Lind@@ 5294
tall 5294
therapy 5292
Staff 5290
Ji@@ 5289
Mes@@ 5289
frag@@ 5288
wild 5288
negoti@@ 5287
Tower 5281
aer@@ 5281
continuing 5281
tests 5280
Cultural 5279
Patri@@ 5279
circuit 5278
cos@@ 5277
rivers 5277
CI@@ 5276
Carlos 5273
Lou@@ 5273
Dod@@ 5272
suicide 5271
vor 5271
agriculture 5270
aux 5270
couples 5269
ior 5269
Hen@@ 5268
runner 5268
Muhammad 5267
Thailand 5267
1895 5266
demolished 5266
characteristics 5265
visiting 5264
dominated 5263
illing 5261
Egyptian 5260
less@@ 5260
fruit 5258
icks 5257
minimum 5257
oud 5257
vari@@ 5256
protest 5254
Coll@@ 5253
eping 5253
domain 5252
NHL 5250
Bad@@ 5249
ais 5248
bil@@ 5246
landscape 5245
newspapers 5245
aying 5244
videos 5244
attracted 5243
Stri@@ 5241
essive 5241
illed 5241
wer 5239
zy 5238
meetings 5234
seed 5234
oth@@ 5233
vian 5233
dominant 5231
posted 5231
solid 5230
whereas 5229
Serbian 5228
Draft 5225
describe 5225
thouse 5223
Shortly 5222
designer 5220
roots 5220
steam 5219
Bron@@ 5218
Shel@@ 5218
anything 5218
gan@@ 5217
youngest 5217
tribe 5216
AL@@ 5214
eing 5214
resolution 5213
Jar@@ 5209
Iron 5207
feed 5207
Wrestling 5206
channels 5205
Arabic 5204
eer 5204
iel 5203
utions 5203
00,000 5202
infl@@ 5201
journey 5201
Matt 5200
whilst 5200
DS 5199
Fleet 5199
blocks 5198
tit@@ 5197
venue 5197
1000 5196
Glasgow 5195
Girl 5194
traveled 5194
AT 5193
Romanian 5193
cold 5193
lier 5193
processing 5193
Judge 5192
chapel 5191
massive 5191
Chap@@ 5190
Richmond 5190
Lei@@ 5189
enson 5189
learn 5188
progres@@ 5188
correspon@@ 5187
kh@@ 5187
Further 5186
Lov@@ 5184
person@@ 5184
satellite 5184
Defence 5183
patient 5183
underground 5182
cousin 5178
Capital 5177
ailed 5177
injuries 5177
zu@@ 5177
chapter 5176
spl@@ 5176
af 5175
anz@@ 5174
assault 5174
faith 5174
cus 5173
entertainment 5173
architectural 5172
trading 5171
Moon 5170
surgery 5170
versus 5170
Lag@@ 5168
longest 5167
platforms 5166
column 5165
ott@@ 5165
align 5164
ler@@ 5164
arc@@ 5163
å@@ 5163
Champion 5160
kick@@ 5160
eton 5159
geon 5159
maintenance 5159
zy@@ 5158
Windows 5157
cust@@ 5157
jun@@ 5157
show@@ 5157
remainder 5156
tools 5155
Limited 5154
accept 5154
1893 5153
CH@@ 5153
Benjamin 5152
mode 5151
è@@ 5150
Canal 5148
LP 5147
associate 5147
dom@@ 5146
sia 5145
Afghanistan 5143
Thur@@ 5143
contra@@ 5143
Cant@@ 5142
erected 5142
Jerusalem 5138
Serbia 5138
itude 5138
amps 5137
weigh@@ 5137
bling 5136
Mem@@ 5135
sus@@ 5135
sentenced 5133
Bos@@ 5132
Boy 5132
assist 5132
belonging 5132
generated 5131
8,@@ 5128
moment 5127
representatives 5127
Yan@@ 5126
alp@@ 5125
doctor 5125
motor 5124
missed 5122
Billy 5121
declar@@ 5121
ruling 5121
Knight 5119
protests 5119
eau 5118
grave 5118
Cou@@ 5117
occasions 5117
prised 5116
Hil@@ 5115
turning 5115
hundreds 5111
hypo@@ 5111
endemic 5110
enk@@ 5109
Base 5107
Gary 5104
document 5104
ski@@ 5104
infantry 5103
rist@@ 5102
nat@@ 5098
inch 5097
pack@@ 5097
quarters 5096
row@@ 5096
keeping 5091
writes 5091
Basi@@ 5090
Jac@@ 5087
hearing 5087
IT@@ 5085
Maine 5085
gres@@ 5085
predic@@ 5084
val 5084
Vill@@ 5083
everything 5083
Eur@@ 5080
21st 5079
Roy 5079
modi@@ 5079
agents 5078
ashi 5078
centers 5078
scope 5078
sper@@ 5078
Sl@@ 5076
iser 5073
1889 5071
vocal 5071
Cricket 5070
cancelled 5069
easy 5069
Distribution 5067
Play@@ 5067
lain 5065
terminal 5065
rapidly 5064
diameter 5063
rity 5061
ensu@@ 5060
transition 5059
Historical 5058
integrated 5058
abol@@ 5055
competitive 5054
suffering 5052
tenure 5052
bes@@ 5051
erg@@ 5051
Will 5050
counter 5050
venues 5050
encouraged 5049
Indians 5048
mail 5046
fran@@ 5045
defence 5044
Down 5043
1894 5041
colspan 5041
exec@@ 5041
watch 5041
concerned 5039
irs 5038
begun 5037
aph@@ 5036
colony 5035
test@@ 5035
unk@@ 5035
Bush 5033
stan 5033
stroke 5033
GA 5032
producers 5032
ention 5031
open@@ 5031
transportation 5031
incorpor@@ 5030
1892 5028
Nigeria 5028
bid 5028
governments 5028
Germans 5026
rice 5026
essi@@ 5025
supplies 5025
regime 5024
claiming 5023
Mediterranean 5022
Bell@@ 5021
Hampshire 5020
Seven 5019
sty@@ 5019
gest@@ 5017
defending 5015
doors 5015
After@@ 5013
Cav@@ 5013
bin 5012
ition@@ 5012
Not@@ 5011
knew 5011
Loc@@ 5009
agencies 5009
Eli@@ 5007
Gall@@ 5006
ester 5005
EC 5004
grandfather 5002
Morris 5001
tou@@ 5001
reportedly 5000
1885 4999
periods 4997
Las 4996
osis 4994
exists 4992
marketing 4992
din 4990
schedule 4990
Lis@@ 4987
Islam 4985
Matthew 4985
Pos@@ 4985
ratio 4984
ific@@ 4983
descent 4982
Note 4981
Jam@@ 4978
N. 4978
1891 4975
concern 4975
Chile 4974
dings 4974
ich 4974
memorial 4974
ni 4974
greatly 4973
steps 4973
Fro@@ 4971
Acc@@ 4970
electro@@ 4969
ario 4968
Hispanic 4967
Fund 4966
Up@@ 4966
eil@@ 4966
Last 4965
cell@@ 4965
crowd 4965
flo@@ 4965
kg 4965
thousand 4964
Madrid 4961
absence 4961
tell 4961
esday 4960
lications 4958
mond 4957
Municipality 4956
dom 4956
normally 4956
sentence 4956
categories 4955
rell 4955
Af@@ 4951
relationships 4951
Bristol 4950
Finnish 4950
Natural 4947
intro@@ 4947
ints 4947
supports 4947
Van@@ 4946
cking 4946
clin@@ 4946
ologists 4946
EU 4945
releases 4943
sal 4943
Delhi 4940
Poly@@ 4940
afterwards 4940
myster@@ 4939
Gh@@ 4938
deleg@@ 4938
isation 4937
license 4937
Books 4936
athletes 4936
Ec@@ 4935
Ward 4935
ques 4935
supporters 4935
constitutional 4934
indigenous 4934
cabinet 4933
possession 4933
uli@@ 4933
asure 4932
ben@@ 4931
horses 4931
ranks 4931
Lanka 4930
characterized 4929
Fort@@ 4927
Low@@ 4927
Nik@@ 4926
inaugural 4926
Arena 4925
1888 4924
mers 4923
oner 4923
scen@@ 4922
Johnny 4921
instit@@ 4918
conservative 4917
facts 4915
Wa@@ 4913
mic 4911
ninth 4910
Back 4908
Orleans 4906
Wy@@ 4906
Yorkshire 4906
rati@@ 4905
concerts 4904
Jan 4903
unusual 4903
uni@@ 4902
participants 4901
Um@@ 4900
creative 4899
ride 4899
Wayne 4898
spending 4897
Gaz@@ 4896
RC 4896
frequent 4896
Will@@ 4895
Nav@@ 4893
behalf 4893
seeking 4893
abroad 4892
resident 4892
Mitchell 4891
gradually 4890
stand@@ 4888
torate 4888
Cli@@ 4887
orts 4887
Until 4886
Honours 4885
author@@ 4883
eries 4882
oot 4882
aro 4879
rows 4879
But@@ 4878
honour 4876
profile 4876
rely 4875
obtain 4874
percentage 4874
aimed 4871
etary 4870
priv@@ 4870
sing@@ 4870
teen@@ 4870
wrest@@ 4869
ien 4868
Rico 4867
stre@@ 4867
inspec@@ 4866
aware 4865
researchers 4865
styles 4864
assy 4863
cel@@ 4863
picked 4863
Nicholas 4859
Zone 4858
diocese 4856
Pul@@ 4855
dit@@ 4855
relocated 4855
Greater 4854
Hart@@ 4854
hero 4854
shell 4854
pole 4852
endor@@ 4851
immediate 4850
advertising 4849
spac@@ 4849
rom@@ 4848
wat@@ 4847
Farm 4845
deployed 4845
earning 4844
fitted 4844
makeup 4844
antly 4843
recovered 4842
sum 4842
tz 4842
Evans 4840
amongst 4839
commanded 4839
bot 4838
cab@@ 4838
scholar 4838
segment 4837
angular 4835
Late 4834
panel 4834
eal 4832
produces 4832
cky 4831
statue 4829
Vik@@ 4828
Alice 4827
seek 4827
Part 4826
archy 4825
ode 4825
leng@@ 4824
publicly 4824
ridge 4823
toured 4823
poems 4822
Equ@@ 4821
Transportation 4821
cially 4821
constitution 4821
exception 4821
SC@@ 4817
Work 4816
networks 4816
string 4815
lam@@ 4814
legs 4814
Bus@@ 4812
rebuilt 4812
territories 4811
compilation 4810
genetic 4810
aste 4809
bone 4809
Songs 4808
aid@@ 4808
facil@@ 4808
Es@@ 4807
isp@@ 4807
pap@@ 4807
ī@@ 4807
borders 4806
ords 4806
Gol@@ 4805
lington 4805
Charlie 4803
Jason 4803
Labor 4803
restoration 4803
tz@@ 4802
Category 4800
NA 4800
chi@@ 4800
Fellow 4798
attending 4797
transmission 4797
Beijing 4795
Pan 4795
ji@@ 4795
ult 4795
instrumental 4794
asa 4793
apparently 4792
cable 4791
symbol 4791
UN 4789
opportunities 4789
add 4788
ceased 4788
component 4786
Rub@@ 4784
multi@@ 4784
Vancouver 4783
cler@@ 4783
Warner 4782
licensed 4782
onlyinclude 4782
CE 4781
ER@@ 4781
Pic@@ 4780
rescue 4780
ink@@ 4779
ners 4778
inn 4777
ox 4777
1865 4774
abuse 4774
dual 4774
Members 4773
spiritual 4773
dur@@ 4772
intersection 4771
Schol@@ 4769
identify 4769
zation 4769
rapid 4767
Fol@@ 4764
Pil@@ 4764
cau@@ 4761
fire@@ 4760
2,000 4759
Andy 4759
Warren 4759
Bla@@ 4758
significance 4757
substantial 4757
idd@@ 4754
oli 4754
band@@ 4752
convention 4750
Boo@@ 4749
ease 4749
taining 4748
function@@ 4747
voters 4745
Liga 4743
serv@@ 4743
ashes 4742
businessman 4742
Ow@@ 4741
opes 4741
apart 4740
legislative 4739
monument 4739
ogs 4739
Malay@@ 4738
HL 4737
craft 4736
extent 4736
secured 4736
Lak@@ 4735
exposed 4733
perfect 4731
plate 4731
Has@@ 4730
Uni@@ 4730
corporate 4729
S.@@ 4728
contribution 4728
submarine 4728
Milan 4727
Harrison 4726
divi@@ 4725
Constit@@ 4724
Mau@@ 4724
IS 4723
raid 4723
Jeff 4722
ble@@ 4721
Soci@@ 4720
assisted 4720
possibility 4720
tak@@ 4720
1880 4719
Orange 4719
suitable 4718
wedding 4718
1870 4717
Challenge 4717
ocked 4717
premiere 4717
mate 4716
sit 4716
beach 4715
operational 4715
Mark@@ 4714
Throughout 4714
Persian 4712
Bible 4711
duo 4711
gay 4711
kingdom 4710
aten 4707
Digital 4704
1861 4702
understand 4697
Constant@@ 4696
Luc@@ 4696
estone 4696
fare 4696
py@@ 4695
jection 4694
enjoyed 4692
fresh@@ 4690
Stars 4689
rif@@ 4688
Supp@@ 4687
adults 4687
detailed 4687
ounds 4687
Fred 4686
customers 4685
rick 4685
700 4684
hau@@ 4684
movies 4684
× 4684
establishing 4683
commented 4682
indicate 4680
Day@@ 4677
everyone 4677
succe@@ 4677
volumes 4675
LC 4674
balance 4674
Along 4673
Hawaii 4673
Tul@@ 4673
external 4673
none 4672
Ny@@ 4671
Results 4670
Sla@@ 4670
HS 4669
1940s 4668
chester 4668
rat 4668
implemented 4667
research@@ 4667
Caribbean 4666
aps 4666
excav@@ 4666
file 4666
publisher 4666
revenue 4666
sung 4666
tif@@ 4666
Karl 4664
essing 4664
fled 4664
Rot@@ 4662
Having 4661
animated 4661
prising 4661
enters 4660
Cov@@ 4658
extreme 4657
Commissioner 4655
YouTube 4655
lem 4655
bay 4654
Under@@ 4653
Maced@@ 4652
statistics 4652
Carl@@ 4650
coalition 4648
cam@@ 4647
Hindu 4646
nearest 4645
Cob@@ 4641
Lab@@ 4641
attorney 4640
CS 4638
eligible 4638
ias 4638
akers 4637
closing 4636
née 4636
responded 4636
Market 4634
ef 4632
width 4632
zen 4632
vo 4631
continuous 4630
rab@@ 4630
shed 4630
witn@@ 4629
Count 4628
Diocese 4628
acres 4628
1.5 4626
principles 4626
drafted 4624
1862 4623
insurance 4621
united 4621
looked 4620
1887 4618
broadcasting 4618
weak@@ 4618
iro 4617
Friday 4616
Kap@@ 4616
partially 4616
qualify 4616
Section 4613
Chand@@ 4611
Thir@@ 4611
benefits 4611
1864 4610
Produc@@ 4610
ife 4610
tin@@ 4609
assets 4608
jury 4608
numbered 4608
ão 4608
control@@ 4606
outbreak 4606
verb@@ 4606
aim 4605
aming 4605
Iranian 4604
beautiful 4604
struggle 4604
activist 4603
tan@@ 4603
о@@ 4603
buy 4602
oni 4602
mir@@ 4601
violent 4601
aus 4600
Kel@@ 4598
interpre@@ 4598
Initially 4597
Baker 4596
SO@@ 4596
Soon 4596
Long@@ 4595
Rho@@ 4594
experimental 4593
Mis@@ 4592
adop@@ 4591
hat 4591
leaf 4591
oda 4589
Charlotte 4588
enko 4588
scientists 4587
ois 4586
belonged 4585
Communications 4584
substitute 4584
concentration 4582
chamber 4581
phosph@@ 4581
Bour@@ 4580
Manhattan 4580
cut@@ 4580
texts 4580
uns 4580
Admiral 4578
fighter 4578
Alberta 4577
− 4575
belief 4574
1881 4573
apartment 4573
palace 4573
alg@@ 4572
partly 4572
restricted 4572
swimming 4572
ș@@ 4572
Falls 4571
Head@@ 4571
spaces 4570
Tigers 4569
discipl@@ 4569
Squ@@ 4568
Story 4568
Ja@@ 4567
ique 4567
ria 4567
Rud@@ 4566
stim@@ 4565
East@@ 4564
crossed 4564
physics 4564
cost@@ 4560
honorary 4560
Together 4559
Thor@@ 4558
mul@@ 4557
disc 4556
colon@@ 4555
rhyth@@ 4555
confron@@ 4553
merchant 4553
phil@@ 4552
connecting 4551
productions 4551
eur 4549
Ten@@ 4548
Municipal 4547
Branch 4545
Soccer 4545
personality 4545
subsidiary 4545
9,@@ 4544
rising 4544
Freedom 4543
120 4542
1886 4542
civilian 4542
cked 4542
Rangers 4541
asser@@ 4541
fee 4541
objec@@ 4540
sac@@ 4540
Emer@@ 4539
drugs 4539
electricity 4538
bol@@ 4537
useful 4537
12.@@ 4536
Common 4536
advice 4536
mathematics 4536
spirit 4536
destruction 4535
may@@ 4535
municipalities 4535
discussed 4534
otted 4534
altern@@ 4533
cemetery 4533
opponents 4533
gy@@ 4532
outer 4532
Hav@@ 4529
Conserv@@ 4528
ann 4528
conventional 4528
linear 4528
tend 4528
Code 4527
Rab@@ 4527
lica 4526
UC@@ 4525
scholarship 4524
instrument 4523
Dav@@ 4522
Syria 4522
conservation 4522
mar 4521
Aer@@ 4520
immigrants 4519
1863 4518
displayed 4518
Philippine 4516
accessible 4515
Wars 4513
gor@@ 4513
orph@@ 4512
Cooper 4511
judges 4510
asts 4509
vs. 4509
lip@@ 4507
locally 4507
false 4505
stan@@ 4505
Fine 4504
Studio 4504
wood@@ 4503
server 4502
ME@@ 4499
throne 4499
vic 4499
&apos;ve 4498
Type 4498
ranging 4498
helps 4497
Muslims 4496
grades 4496
text@@ 4496
coaching 4494
settlers 4493
River@@ 4491
excep@@ 4491
Py@@ 4489
aring 4489
neither 4488
respec@@ 4486
harmon@@ 4485
ker@@ 4485
otes 4484
exce@@ 4483
faces 4483
sa@@ 4483
Trinity 4482
Legacy 4481
pip@@ 4481
withdrew 4480
dismissed 4479
fra@@ 4479
11.@@ 4478
expensive 4478
Armenian 4477
terminus 4477
RAF 4476
provinces 4474
Barry 4473
Standard 4473
DE@@ 4472
200@@ 4471
cies 4471
haw@@ 4471
solar 4470
wrestling 4470
és 4470
ache 4469
semi@@ 4469
oting 4467
playoffs 4467
initiated 4465
ongoing 4465
umin@@ 4465
Be 4464
Sau@@ 4464
Universal 4464
phy 4464
matters 4463
repair 4463
retail 4463
asks 4462
crash 4462
Sport 4460
IM@@ 4458
optim@@ 4458
Broadcasting 4457
Ian 4457
Tai@@ 4457
dish 4457
apply 4456
decor@@ 4455
oted 4455
Cel@@ 4454
requested 4454
à 4454
Nova 4453
Bar 4451
hear@@ 4451
telling 4450
Cuba 4449
Fel@@ 4449
anian 4448
initiative 4448
ère 4448
accept@@ 4447
chers 4447
diverse 4447
fictional 4447
itarian 4446
Jonathan 4445
Parker 4445
lowest 4445
quant@@ 4445
bot@@ 4444
suburb 4444
unsuccessful 4442
com 4440
Pir@@ 4439
cup 4439
tribes 4439
wants 4438
flower 4437
Hus@@ 4436
susp@@ 4435
wan 4435
ennial 4434
passage 4434
treaty 4434
guilty 4433
touring 4433
Video 4430
clinical 4430
Kings 4429
heim 4429
illness 4429
modern@@ 4429
ime 4428
sang 4428
contest@@ 4427
metre 4427
Gmina 4426
completing 4425
dispute 4423
dan@@ 4422
mix@@ 4422
respective 4422
Fitz@@ 4421
emig@@ 4420
1884 4419
appro@@ 4419
banned 4419
earth 4419
milli@@ 4419
tage 4418
Adelaide 4417
ML@@ 4417
Years 4417
alis 4415
cial 4415
AR 4412
Hudson 4411
haz@@ 4411
riage 4411
rage 4409
Cau@@ 4407
electrical 4407
get@@ 4407
onymous 4406
IC 4404
Lib@@ 4401
cargo 4401
essions 4401
otyp@@ 4401
Vil@@ 4400
inning 4400
Gau@@ 4399
Lang@@ 4398
ckets 4398
essential 4397
50,000 4394
Socialist 4394
charity 4393
farmers 4393
inj@@ 4393
sculpture 4393
hole 4392
Guinea 4389
Munich 4388
anyone 4388
qualification 4386
Nan@@ 4385
Bot@@ 4384
Yam@@ 4384
iler 4384
Ple@@ 4383
Turner 4383
minority 4383
oblig@@ 4383
fts 4381
Abbey 4380
Clinton 4380
ican 4380
fam@@ 4379
oded 4378
talent 4378
endant 4377
etime 4377
evacu@@ 4376
margin 4376
merger 4376
regulations 4375
happy 4374
partners 4374
NY 4373
TC 4373
CC@@ 4372
Cru@@ 4372
Virgin 4371
Food 4370
IP 4370
pitch 4368
ž@@ 4368
2000s 4367
Arg@@ 4367
ui 4367
Furthermore 4366
wise 4366
correc@@ 4365
emperor 4365
1882 4364
credits 4364
eting 4362
Brisbane 4361
Allied 4359
Parish 4359
Saints 4359
eck@@ 4359
hop@@ 4357
Jay 4356
makers 4356
roman@@ 4356
Technical 4355
alt@@ 4355
Buffalo 4354
Cow@@ 4354
Grade 4354
sailed 4354
Action 4353
consistent 4353
eased 4352
Fur@@ 4351
spi@@ 4351
Wall 4350
gal@@ 4350
Chil@@ 4349
Jacob 4349
Saudi 4349
efficient 4349
honors 4349
weekend 4349
Associ@@ 4348
conqu@@ 4348
rez 4348
Net@@ 4346
arrangement 4346
bor 4346
dis 4346
succ@@ 4346
Roy@@ 4345
iring 4345
Classic 4344
crown 4344
tification 4342
ont 4341
soft 4341
trials 4341
Hunter 4340
spor@@ 4340
olo 4339
fel@@ 4337
copy 4335
decisions 4335
throw 4335
bank@@ 4334
rid@@ 4334
occasion 4333
Sz@@ 4332
onder@@ 4332
sessions 4330
master@@ 4329
doesn 4328
colors 4327
Oblast 4325
govern@@ 4325
exclusively 4324
fy 4324
Colle@@ 4323
King@@ 4323
cinema 4323
remove 4323
lit 4322
Barbara 4321
PhD 4321
Industry 4320
Therefore 4320
ayan 4320
closer 4320
activated 4319
chron@@ 4319
Tech 4318
Century 4317
alliance 4316
crimes 4316
ser 4316
Attorney 4315
Catherine 4315
Pel@@ 4315
Urban 4314
Tab@@ 4312
choose 4312
isolated 4312
moves 4312
Masters 4310
riers 4310
Mich@@ 4309
conversion 4309
Hill@@ 4308
iy@@ 4306
traded 4305
asi 4304
focuses 4304
Territory 4303
pursue 4303
Buch@@ 4302
Mut@@ 4302
inten@@ 4302
ima 4299
vel 4299
conclusion 4298
Control 4297
Sky 4297
anger 4297
grey 4297
ş@@ 4297
tox@@ 4296
ament 4295
falling 4295
Buddhist 4294
pit@@ 4294
Anglo 4293
negotiations 4293
eldest 4292
ographer 4292
pas@@ 4292
MC 4291
Thi@@ 4291
buil@@ 4291
.C. 4290
Dark 4289
Faculty 4289
wearing 4289
principle 4288
Such 4287
evol@@ 4286
hunting 4286
parent 4286
strategic 4286
Griff@@ 4285
dict 4285
Bengal 4284
ried 4284
Sak@@ 4283
gon 4283
Mrs. 4282
limits 4281
shift 4280
connections 4279
idi@@ 4279
prise 4279
oss 4278
Peninsula 4277
Woman 4275
communications 4275
recognised 4274
а@@ 4274
persu@@ 4273
fifteen 4272
rub@@ 4272
distingu@@ 4271
kill@@ 4271
Bog@@ 4270
Language 4270
los 4267
Fas@@ 4265
akia 4264
school@@ 4264
Unit 4262
timber 4262
mechanical 4261
orting 4261
Race 4260
Post@@ 4259
film@@ 4259
vary 4259
Radi@@ 4258
gence 4258
Cincinnati 4257
search@@ 4257
Mé@@ 4255
Nation 4254
submitted 4254
chor@@ 4253
hope 4253
Alaska 4252
concent@@ 4251
grows 4251
err@@ 4250
internationally 4250
nered 4250
organic 4250
Peru 4249
assists 4249
patterns 4247
Quar@@ 4246
fold 4246
sisters 4245
con 4244
evolution 4243
jurisdiction 4243
aves 4242
van@@ 4242
cash 4241
ng 4239
fir@@ 4238
manufactured 4238
clothing 4237
phic 4237
activ@@ 4235
commun@@ 4235
Microsoft 4233
circumstances 4233
civi@@ 4233
Conservation 4232
Dakota 4231
Springs 4231
pain 4231
traditions 4231
Do 4229
Kab@@ 4229
Les 4228
Bran@@ 4227
repeated 4227
apparent 4223
opping 4223
1876 4222
lingu@@ 4222
Esp@@ 4220
decides 4219
housed 4219
Pradesh 4217
operator 4216
travelled 4216
Model 4215
reviewed 4215
Cook 4214
drummer 4214
influences 4214
rol 4214
beating 4213
convic@@ 4212
pointed 4211
Hugh 4208
provi@@ 4208
references 4208
Pier@@ 4207
Assistant 4206
Port@@ 4206
rian 4206
Ice 4205
marry 4205
achment 4204
Pit@@ 4202
reduction 4202
drums 4201
monastery 4201
else 4200
posed 4200
tunnel 4200
soldier 4199
ë@@ 4199
mention 4198
dram@@ 4197
leton 4195
resignation 4195
desire 4194
reveals 4194
mechanism 4193
intention 4191
stell@@ 4191
Shah 4190
drivers 4190
Duch@@ 4189
zero 4189
battalion 4187
Roman@@ 4186
Vincent 4186
empha@@ 4186
rons 4186
Collins 4185
Dru@@ 4183
Peter@@ 4183
2.5 4181
rement 4181
administ@@ 4180
ove 4180
Democrat 4179
Luis 4179
PC@@ 4179
hot@@ 4179
Trail 4178
suggest 4178
etti 4177
Hab@@ 4176
Jack@@ 4175
Wild 4175
boundaries 4174
mix 4173
IT 4172
astronom@@ 4172
esp@@ 4172
utional 4172
Baptist 4170
Boh@@ 4170
clearly 4169
ho 4169
tested 4169
1878 4168
Á@@ 4168
myth@@ 4166
pled 4166
1883 4165
Latino 4165
pit 4165
AD@@ 4164
Students 4164
Spe@@ 4163
delivery 4163
relevant 4163
vacc@@ 4163
temperatures 4162
Barcelona 4161
Oliver 4161
eph@@ 4161
avoid@@ 4160
entally 4160
exhibited 4160
ags 4159
eira 4159
Hand@@ 4158
bach 4158
warm 4157
ci 4156
Juli@@ 4155
erous 4153
Pictures 4151
involves 4151
uma 4151
Apple 4150
Brand@@ 4150
Kaz@@ 4149
sex@@ 4149
Jun@@ 4148
thir@@ 4148
Current 4147
jan 4147
Brig@@ 4146
ST 4145
magnetic 4145
rin@@ 4145
tone 4145
Maur@@ 4144
acquisition 4144
onom@@ 4144
riding 4144
1871 4143
inher@@ 4143
How 4142
bic@@ 4142
las@@ 4142
Din@@ 4141
Lloyd 4141
locomotives 4141
NR@@ 4140
Nevada 4140
indicates 4140
и@@ 4140
Wit@@ 4139
convicted 4138
originated 4138
Hans 4136
Nak@@ 4136
gy 4136
festivals 4134
manufacturer 4133
ö@@ 4133
promoting 4132
CB@@ 4130
photography 4130
tape 4129
cross@@ 4128
versi@@ 4128
ffs 4127
Conn@@ 4126
eur@@ 4126
overseas 4125
utiliz@@ 4125
Jazz 4124
flights 4124
lex@@ 4124
campaigns 4123
crow@@ 4123
Boy@@ 4122
Tob@@ 4122
valu@@ 4122
100,000 4121
bott@@ 4120
defended 4120
san@@ 4120
trig@@ 4120
Colombia 4119
carto@@ 4119
sun 4119
nec@@ 4118
settlements 4118
Catal@@ 4117
Players 4117
construc@@ 4117
fat@@ 4117
stones 4116
tap@@ 4116
thereafter 4116
Father 4114
Leeds 4113
Sud@@ 4113
survive 4112
topics 4112
romantic 4111
vious 4110
demonstrated 4109
layer 4109
Democrats 4108
Beng@@ 4107
discussion 4107
phen@@ 4107
Catholi@@ 4106
Jr. 4106
Wing 4106
Xi@@ 4106
Nepal 4105
Stor@@ 4105
nucle@@ 4105
Row@@ 4104
migration 4104
cattle 4100
sson 4100
Š@@ 4100
Techn@@ 4098
itis 4098
Roberts 4097
Scar@@ 4097
deck 4097
entary 4096
recur@@ 4096
osp@@ 4095
deemed 4094
promise 4093
truth 4093
Off@@ 4090
hyper@@ 4090
proxim@@ 4090
uff 4090
yi 4090
sun@@ 4088
Phoenix 4086
Christianity 4085
bomb 4085
shall 4085
stress 4085
Top@@ 4083
Cul@@ 4082
Phil 4082
buses 4081
Dist@@ 4079
increases 4078
landed 4078
vertical 4076
Industrial 4075
permission 4075
shops 4075
usual 4075
traditionally 4074
Dead 4073
mes 4073
magazines 4072
uri 4072
rever@@ 4071
Ath@@ 4069
convers@@ 4069
Let 4068
cians 4068
motiv@@ 4068
transm@@ 4068
iv 4065
expec@@ 4064
iner 4064
Cin@@ 4063
Gun@@ 4063
opponent 4063
expand 4062
box@@ 4061
fear 4061
origins 4061
twin 4061
greg@@ 4059
Wall@@ 4058
dependent 4057
fav@@ 4057
iced 4057
debt 4055
ilities 4055
Borough 4054
roster 4054
compiled 4053
giant 4053
sam@@ 4052
wealth 4052
Psych@@ 4051
Medi@@ 4050
Those 4049
aj 4049
battery 4049
Herbert 4048
conven@@ 4048
enrolled 4048
innov@@ 4048
industries 4047
pione@@ 4047
certified 4046
sight 4046
aters 4045
bilities 4045
forcing 4045
LE@@ 4044
ishers 4044
1860 4043
Sul@@ 4043
nit@@ 4043
geomet@@ 4042
lift 4042
nov@@ 4041
Bernard 4040
Ethiop@@ 4040
Pop@@ 4040
Gy@@ 4039
umes 4037
Sad@@ 4036
circle 4035
Leon@@ 4034
participating 4034
Fair 4033
Operations 4033
funeral 4032
departed 4031
machines 4030
photographs 4028
orchestra 4027
pseud@@ 4027
biological 4026
eggs 4025
shoot 4025
wealthy 4025
Hem@@ 4023
breeding 4023
duced 4023
extensively 4023
complex@@ 4022
iter 4022
Blu@@ 4020
dict@@ 4020
Azerbaijan 4017
black@@ 4017
nes 4017
plement 4015
1872 4014
feder@@ 4014
uts 4014
vast 4014
managing 4013
operative 4013
earn 4012
Madison 4011
essors 4010
oom 4009
Det@@ 4008
anga 4008
1867 4006
Hall@@ 4006
Circuit 4005
canal 4005
fined 4005
playoff 4004
quarter@@ 4004
Finally 4003
Nebraska 4003
Non 4003
rarely 4003
ophi@@ 4002
Jur@@ 4001
measu@@ 4001
ugh@@ 4001
ached 4000
alle 4000
aboard 3999
resumed 3999
arti@@ 3998
dy@@ 3998
Hebrew 3997
Liv@@ 3997
plying 3997
asha 3996
midfielder 3996
finance 3995
rus 3995
nav@@ 3994
unlike 3994
Gray 3993
decorated 3992
cool@@ 3991
arity 3990
exposure 3990
Hope 3987
Electric 3986
Much 3986
pages 3986
supposed 3986
interpretation 3985
walking 3985
Archbishop 3984
Side 3984
blo@@ 3984
Symphony 3983
ograph@@ 3983
Alger@@ 3982
diplom@@ 3982
dischar@@ 3982
ied 3982
Frank@@ 3981
ista 3981
strip 3979
tanks 3979
Giants 3978
Wang 3978
yed 3978
Sund@@ 3977
medic@@ 3977
Formula 3976
delayed 3976
eter@@ 3976
symptoms 3976
mann@@ 3975
dal 3973
Bud@@ 3972
athlete 3972
dress 3970
identical 3970
legislature 3970
vised 3969
Lions 3968
economics 3967
inter 3967
SS@@ 3965
Mack@@ 3964
bear 3964
limit@@ 3964
Costa 3963
fresh 3963
orb@@ 3963
consci@@ 3962
exercise 3962
preferred 3961
corresponding 3960
los@@ 3960
placing 3958
soul 3958
Clin@@ 3957
IP@@ 3957
voy 3955
elsewhere 3954
rocks 3954
usage 3954
1875 3953
Rah@@ 3953
peoples 3953
3,000 3952
tum@@ 3952
comment@@ 3951
Rail 3950
virus 3950
Formation 3949
Jerry 3949
ater@@ 3949
describing 3948
elt 3948
implementation 3948
Blues 3947
Nin@@ 3947
acher 3947
collaborated 3947
fs 3947
Primary 3946
istics 3946
regard 3946
Jes@@ 3945
Systems 3944
mines 3944
thin 3944
esa 3943
utt@@ 3943
Athens 3942
iki 3942
ushed 3942
ref 3941
ante 3940
asc@@ 3940
nal 3939
Chamber 3938
Tax@@ 3937
filming 3937
USS 3936
baby 3936
ceremon@@ 3936
ech 3936
gang 3936
inherited 3936
mechan@@ 3936
yweight 3936
Croatian 3935
Mod@@ 3935
incumbent 3935
sevent@@ 3935
Commons 3934
Ey@@ 3933
ava 3933
trail 3933
Confederate 3932
Run@@ 3932
cooperation 3931
Fil@@ 3930
golf 3929
contributing 3928
sounds 3928
tribute 3928
fort@@ 3927
nam@@ 3927
Log@@ 3926
Neil 3926
sharing 3926
eig@@ 3924
Fern@@ 3923
Warsaw 3923
Sus@@ 3921
householder 3921
wick@@ 3921
thick 3920
favour 3919
informed 3919
1868 3918
farming 3918
gio 3918
Mann@@ 3917
bright 3917
finite 3917
Down@@ 3915
Kenya 3915
appoin@@ 3915
inations 3915
reaches 3915
rupt 3915
variant 3915
DJ 3913
Cit@@ 3912
U.@@ 3912
waste 3912
oop 3910
Wes@@ 3909
acceler@@ 3909
wider 3909
Rang@@ 3908
dangerous 3908
Haz@@ 3907
camps 3907
Cot@@ 3906
Drive 3906
lighting 3906
duction 3905
alcohol 3904
tual 3904
Batt@@ 3903
Bulgarian 3903
clean 3903
emin@@ 3902
pract@@ 3901
kal@@ 3900
proteins 3900
manage 3899
constitu@@ 3898
coat 3897
tun@@ 3897
sou@@ 3896
ailing 3895
enna 3895
outstanding 3895
physician 3895
placement 3894
berry 3893
enger 3893
partial 3893
preparation 3893
Independence 3892
Newcastle 3892
eck 3892
charter 3891
connect 3891
prices 3891
concerning 3890
enforcement 3890
nominations 3890
oria 3890
planet 3890
Ed 3889
bid@@ 3889
specialized 3889
ials 3888
meter 3888
ret 3888
Dow@@ 3887
ause 3887
correct 3887
Norfolk 3886
Policy 3886
bases 3885
NO@@ 3884
eals 3883
unincorporated 3882
1879 3881
Shanghai 3881
Storm 3881
slaves 3881
Album 3879
ministry 3879
RA 3878
bachelor 3878
flag@@ 3877
Mill 3876
Pedro 3876
oked 3873
Can 3872
Petersburg 3872
Saf@@ 3872
Derby 3870
Range 3870
recalled 3870
expert 3867
Khal@@ 3866
confir@@ 3866
molec@@ 3866
trust 3866
uda 3866
Denver 3865
ician 3865
tus 3864
1873 3863
gins 3863
eans 3862
winds 3862
Jefferson 3859
inducted 3858
automatic 3857
Terry 3855
Yale 3855
devoted 3855
sure 3855
communic@@ 3853
Six@@ 3851
communist 3851
jur@@ 3851
Plan 3850
struggl@@ 3850
express 3849
EC@@ 3848
Mahar@@ 3848
São 3848
cho 3848
moral 3848
diplomatic 3847
emot@@ 3846
exhibitions 3846
narrative 3845
illo 3844
difficulties 3843
plain 3843
lun@@ 3842
Species 3841
wait 3841
Wei@@ 3840
Luke 3838
brigade 3838
mach@@ 3838
prob@@ 3837
ologies 3836
ento 3835
sort 3835
uniform 3835
1866 3834
dit 3834
emat@@ 3834
1877 3833
ente 3833
Sultan 3832
laun@@ 3831
seem 3830
11@@ 3829
Based 3829
Gir@@ 3829
flew 3829
eto 3828
saf@@ 3828
Abu 3826
scription 3826
Argentine 3825
kan 3825
reporting 3825
speaker 3825
cri@@ 3824
evolved 3824
Eventually 3822
bly 3822
consoli@@ 3822
excellent 3822
inspiration 3821
cricketer 3819
icity 3819
ampton 3818
simul@@ 3818
Grace 3817
Rogers 3817
weapon 3816
Hut@@ 3815
approached 3815
utor 3815
fa@@ 3814
designation 3813
faction 3813
Les@@ 3812
Qualif@@ 3812
asant 3812
recommend@@ 3812
speakers 3812
fe 3811
Economy 3810
Murphy 3810
ema 3810
chie@@ 3808
legacy 3808
oka 3808
scra@@ 3808
Florence 3806
Keith 3806
Ridge 3806
gallery 3806
Tol@@ 3805
legend 3805
tet 3805
Sug@@ 3804
aha 3804
CN@@ 3803
Rid@@ 3803
believes 3803
bet 3803
EM@@ 3802
defend 3801
design@@ 3801
morph@@ 3801
Architecture 3800
istan 3798
tournaments 3798
corruption 3797
explic@@ 3797
classi@@ 3796
ift 3796
imperial 3796
IA 3795
airing 3795
lining 3795
sand 3795
exclusive 3793
ate@@ 3792
commenced 3792
shir@@ 3792
Ottawa 3791
Bil@@ 3790
Cho@@ 3790
posts 3789
Comics 3788
Croatia 3788
punk 3788
Ach@@ 3787
ission@@ 3787
AN 3786
Delaware 3785
gaining 3785
iling 3785
visits 3785
eme 3784
Confeder@@ 3783
Sierra 3783
birthday 3783
Kas@@ 3782
mol@@ 3782
diseases 3781
mainstream 3781
vey@@ 3781
Harold 3780
alled 3780
amin@@ 3780
continental 3780
ian@@ 3780
Scre@@ 3779
Helen 3778
Rac@@ 3778
mamm@@ 3778
WW@@ 3777
consum@@ 3777
fordshire 3777
historians 3776
practical 3776
guarante@@ 3775
internet 3775
oun 3775
permitted 3775
saved 3775
Orig@@ 3773
Bulgaria 3772
Vegas 3771
liberal 3771
Release 3770
character@@ 3769
Stuart 3766
arly 3766
files 3765
heav@@ 3765
six@@ 3765
agog@@ 3764
arriving 3764
whi@@ 3764
Pow@@ 3763
rupted 3763
sugar 3763
fighters 3761
benef@@ 3760
kness 3760
Christians 3758
cio 3758
worker 3758
GM 3757
Lebanon 3757
extend 3757
pharm@@ 3757
clan 3756
spend 3756
encour@@ 3755
writings 3755
Dick 3754
Marqu@@ 3754
param@@ 3754
Edwards 3753
historically 3752
Ken 3751
ections 3751
inum 3749
phrase 3749
tool 3749
Anti 3748
Workers 3748
coh@@ 3748
ein@@ 3748
enda 3748
reducing 3748
Univers@@ 3747
deriv@@ 3747
town@@ 3747
Pun@@ 3746
Ye@@ 3745
aja 3745
viewer 3745
promised 3744
€ 3744
Geor@@ 3743
ovo 3743
belongs 3742
challenges 3742
pa 3742
AB@@ 3741
grass 3741
licated 3741
spots 3740
exact 3739
removal 3739
Financial 3738
depression 3738
columns 3737
mates 3737
prove 3737
.D. 3736
Num@@ 3736
itate 3736
Flight 3735
RNA 3734
basin 3734
thinking 3734
Dennis 3733
Gregory 3733
Nature 3733
ehouse 3733
every@@ 3733
Climate 3732
alive 3730
copper 3730
departments 3730
pairs 3730
Obama 3729
bed@@ 3729
burned 3729
portrait 3729
attendance 3728
ograph 3728
Eu@@ 3727
CDP 3726
decide 3726
carries 3725
cha 3725
chemistry 3724
coins 3724
Rain@@ 3723
Venice 3723
tificate 3723
victim 3723
carrier 3722
inqu@@ 3722
proof 3722
13.@@ 3721
Hat@@ 3721
Sax@@ 3721
ogn@@ 3721
Dick@@ 3720
quot@@ 3720
Public@@ 3719
istry 3719
pitched 3719
shopping 3719
Ric@@ 3718
Hob@@ 3717
oriented 3717
root 3717
attempting 3716
rum@@ 3716
Auckland 3715
Currently 3715
pushed 3715
е@@ 3715
Campaign 3714
relegated 3714
execution 3713
looks 3713
Jose 3712
eit 3712
umping 3712
ignor@@ 3711
Hughes 3710
dean 3710
ditions 3710
guests 3710
veget@@ 3710
Naz@@ 3709
depicted 3709
ía 3708
Southeast 3707
ason 3707
ingen 3707
Bang@@ 3706
cutting 3706
elimin@@ 3706
interviews 3706
measured 3706
beauty 3705
sitting 3705
actively 3704
cist 3704
coached 3704
lord 3704
spon@@ 3704
accur@@ 3703
backs 3703
Play 3702
affect 3702
racy 3702
till 3702
Indonesian 3701
Rat@@ 3701
entrepren@@ 3700
impro@@ 3700
temporarily 3700
Mother 3699
elic 3699
latest 3699
predecessor 3699
variable 3699
Mass@@ 3698
Mong@@ 3697
Thai 3697
beetle 3697
distinction 3697
neck 3697
recon@@ 3697
Contemporary 3694
Protestant 3693
impres@@ 3693
Gener@@ 3691
anic 3691
dollars 3691
stret@@ 3691
turn@@ 3689
Robin 3688
aders 3688
argu@@ 3686
ony@@ 3686
Histor@@ 3685
thes@@ 3685
1874 3684
Eagles 3684
colleges 3684
printing 3684
compan@@ 3683
pain@@ 3683
sacrif@@ 3683
Stage 3682
attri@@ 3682
namely 3682
polit@@ 3682
escaped 3681
remote 3681
Bad 3680
kh 3680
1869 3679
Anglican 3679
ound 3679
recipient 3679
earthquake 3678
Sac@@ 3677
summit 3677
Film@@ 3675
grandson 3674
worst 3674
rett 3673
cing 3672
murdered 3672
Sant@@ 3671
awareness 3671
.S. 3670
Ghana 3669
uth 3668
Cross@@ 3667
characteristic 3667
functional 3667
bis@@ 3666
distur@@ 3666
enton 3666
administered 3665
scores 3664
zo 3664
acking 3662
cat 3662
Craig 3661
Syrian 3660
siege 3660
spin 3660
Dest@@ 3659
ando 3659
coaches 3659
system@@ 3659
citing 3658
remin@@ 3658
Fun@@ 3657
ane@@ 3657
ili 3656
pulled 3656
Broad@@ 3653
bes 3653
enty 3653
abolished 3652
hence 3652
Child 3651
Perry 3651
athers 3651
Chapel 3649
Writing 3649
perspective 3649
000 3648
1848 3648
Car 3648
ervation 3648
authored 3647
oga 3647
oody 3647
ó 3647
sat 3646
them@@ 3646
accommod@@ 3645
simultaneously 3644
AL 3643
Bobby 3643
ead 3641
horror 3641
weak 3641
bat 3639
liqu@@ 3639
ressing 3639
immig@@ 3638
inity 3638
sample 3638
argument 3637
bearing 3637
gauge 3637
reporter 3637
Sic@@ 3636
novel@@ 3636
Butler 3635
Hitler 3635
demands 3635
evil 3632
bey 3630
Aviation 3629
WA 3627
spr@@ 3627
Next 3626
studios 3626
Mess@@ 3625
accep@@ 3625
cavalry 3625
thre@@ 3624
Amsterdam 3622
Swe@@ 3622
collapse 3622
disbanded 3622
slave 3622
Vid@@ 3621
coo@@ 3620
document@@ 3620
emotional 3620
sim@@ 3620
Collection 3619
qualif@@ 3619
Manuel 3618
meat 3618
rul@@ 3617
Protection 3616
1850 3615
Wellington 3615
Harbor 3614
OR@@ 3614
pper 3614
recovery 3614
ges@@ 3613
Finance 3612
lication 3612
isc@@ 3611
seemed 3611
supplied 3611
switched 3611
Rest@@ 3610
web@@ 3610
Cla@@ 3609
unless 3609
Proc@@ 3608
accum@@ 3608
Guy 3607
Provincial 3607
Band@@ 3605
Dam 3605
atmosphere 3604
belie@@ 3604
ruler 3604
jump 3603
Future 3602
TV@@ 3602
gon@@ 3601
Mov@@ 3600
Steven 3600
Albums 3599
inks 3598
mart 3596
deci@@ 3595
enthusi@@ 3595
backed 3594
god@@ 3594
theories 3593
Former 3592
consider@@ 3592
omet@@ 3592
Han 3591
Short 3590
academy 3590
Sullivan 3589
amounts 3588
dus 3588
gie 3588
guide 3588
pass@@ 3588
west@@ 3587
Alp@@ 3586
sover@@ 3586
aints 3584
tenth 3584
æ@@ 3584
belt 3583
tube 3583
aller@@ 3582
cap 3582
clar@@ 3581
targets 3581
labour 3580
propor@@ 3580
VP 3579
Venezuela 3579
Ox@@ 3578
iff 3578
asking 3577
prepar@@ 3577
magn@@ 3576
pec@@ 3576
install@@ 3575
ousness 3575
restrictions 3575
scat@@ 3575
Nur@@ 3574
promin@@ 3574
well@@ 3574
wing@@ 3574
simp@@ 3573
M.@@ 3572
Run 3572
tionary 3572
acon 3571
bridges 3571
compound 3571
receives 3571
Larry 3569
Lav@@ 3568
accurate 3568
pes 3568
tively 3568
Stanford 3567
Guardian 3566
bled 3566
ographical 3566
organisations 3566
volunteers 3566
pill@@ 3565
Hin@@ 3564
Tat@@ 3563
clock 3562
nephew 3562
… 3562
affair 3561
inhabited 3561
gradu@@ 3560
documented 3559
Exchange 3558
Gilbert 3558
Males 3558
Ralph 3557
altitude 3557
anim@@ 3557
Vermont 3556
oking 3555
slowly 3555
dissolved 3554
set@@ 3554
ocean 3553
regulation 3553
forty 3552
options 3552
omm@@ 3551
aman 3550
allest 3549
empl@@ 3549
indicating 3549
Agriculture 3548
Phil@@ 3548
Ther@@ 3548
outdoor 3548
oven 3548
Environmental 3547
alternate 3547
drove 3547
explains 3547
monthly 3547
ression 3547
fal@@ 3546
aly@@ 3545
destroy 3544
Every 3541
Shep@@ 3540
gathered 3540
oxide 3540
Kom@@ 3538
seeds 3538
ettes 3537
comparison 3535
elite 3535
glac@@ 3535
Mathemati@@ 3533
Productions 3533
binding 3533
mature 3533
achi 3532
neighbor@@ 3532
vocalist 3532
Flor@@ 3531
rin 3530
crops 3529
ounding 3529
Kerala 3528
Petro@@ 3528
Ray@@ 3528
consec@@ 3528
wel 3528
broad@@ 3527
feeling 3527
graduation 3527
oi 3527
tica 3527
3D 3526
improvements 3526
Key 3525
clay 3525
schol@@ 3525
Computer 3524
ibility 3524
Gul@@ 3523
Sheffield 3523
Hamp@@ 3522
tourism 3522
MO@@ 3521
Motor@@ 3521
simil@@ 3521
waves 3520
Cruz 3519
Mason 3519
aler 3519
bars 3518
isa 3518
Bry@@ 3517
extra@@ 3517
Cabinet 3516
Secondary 3516
forth 3516
incar@@ 3516
elementary 3515
iter@@ 3515
reforms 3515
waiting 3515
agonist 3514
ticket 3514
collective 3513
comprises 3513
connects 3512
Corn@@ 3511
affili@@ 3511
restaurants 3511
Ancient 3510
aned 3510
hills 3510
Mills 3509
Villa 3508
distinctive 3508
stepp@@ 3508
taxes 3508
Eng@@ 3507
Berkeley 3506
eric 3506
aggregate 3505
crosses 3505
cryp@@ 3504
ethn@@ 3504
reflect 3503
vention 3503
worship 3502
Artillery 3501
atta 3501
maps 3501
allies 3500
challenged 3500
essentially 3500
Dim@@ 3499
identif@@ 3499
aic 3498
avy 3498
Byzantine 3497
encomp@@ 3496
ogan 3495
Report 3494
app 3493
Nashville 3491
Treas@@ 3491
branded 3491
Playing 3490
acker 3489
org@@ 3489
ta@@ 3489
&apos;d 3488
abund@@ 3488
HMS 3487
breaks 3487
defender 3487
gap 3487
ground@@ 3487
payment 3487
Monday 3486
consist@@ 3486
ovich 3486
lement 3485
residing 3485
ér@@ 3485
revolution 3484
suspension 3484
viewing 3484
RT@@ 3483
Sev@@ 3483
soli@@ 3483
approaches 3482
leagues 3482
yth@@ 3481
Jacques 3480
Joint 3480
favorite 3480
Oper@@ 3478
structural 3478
Ras@@ 3477
disaster 3477
scientist 3477
Student 3476
emia 3476
mits 3476
installation 3475
14.@@ 3474
Def@@ 3474
Roosevelt 3474
tension 3474
rator 3473
literally 3472
Beginning 3471
coup 3471
gel@@ 3471
emphasis 3470
predominantly 3470
stron@@ 3470
Eddie 3469
Esc@@ 3469
Horse 3469
retiring 3469
Holland 3468
elev@@ 3468
fun@@ 3468
Performance 3466
vier 3466
impossible 3465
resol@@ 3465
shut 3464
Stat@@ 3463
nel 3463
touchdowns 3463
citizen 3462
C.@@ 3461
sequel 3461
stem 3461
understood 3461
Fall 3460
Montana 3460
Watson 3458
battles 3458
descendants 3458
Lub@@ 3457
objective 3457
issions 3456
shots 3456
silent 3456
Methodist 3455
geograph@@ 3455
sail@@ 3454
Small 3453
affiliate 3453
1859 3452
Chal@@ 3452
Coach 3451
parks 3451
Golf 3450
technologies 3450
wo@@ 3449
ible 3448
pris@@ 3448
elder 3447
Box 3446
Grey 3446
Sik@@ 3446
orities 3446
failing 3444
tributary 3444
1857 3443
Armed 3442
aver 3442
stops 3442
Friends 3441
authorized 3441
doc@@ 3441
elect 3441
Marc@@ 3440
Prefecture 3440
procedure 3440
Ma 3439
Mr 3439
August@@ 3438
difficulty 3438
sent@@ 3438
threw 3438
Sut@@ 3437
nosis 3437
arians 3436
cogn@@ 3436
esia 3436
loop 3436
rington 3436
Days 3435
Sony 3435
Wells 3435
hier@@ 3435
ware 3435
dh@@ 3434
gardens 3433
Susan 3432
angered 3432
zens 3432
Higher 3431
bombing 3430
statist@@ 3430
atom@@ 3429
consumption 3428
External 3426
Yugoslavia 3426
dramatic 3426
intellectual 3426
patrol 3426
teach 3426
SU 3425
exemp@@ 3425
Delta 3424
Google 3424
pod 3424
perf@@ 3423
Dy@@ 3421
Part@@ 3421
Sv@@ 3420
eva 3420
answer 3419
eventh 3418
lex 3418
pow@@ 3418
althcare 3417
phon@@ 3417
recruited 3417
separ@@ 3417
sporting 3417
umni 3417
Motor 3416
colleagues 3416
projec@@ 3416
undergraduate 3416
deter@@ 3415
exactly 3415
AG 3414
Lon@@ 3414
dent 3414
Economics 3413
Raymond 3413
casualties 3413
phy@@ 3413
Starting 3412
illustrated 3412
orchest@@ 3412
elevated 3411
olia 3411
Tommy 3410
ERA 3409
error 3409
chen 3408
protest@@ 3407
Cold 3406
Vit@@ 3406
manuscript 3406
meth@@ 3406
oci@@ 3406
radical 3406
aband@@ 3405
runners 3404
tering 3404
AFL 3403
Indies 3403
aspect 3403
referring 3403
fers 3402
truck 3402
dan 3401
Representative 3400
archaeological 3400
parking 3400
salt 3400
Nevertheless 3399
aton 3399
bie 3399
comments 3399
Call@@ 3398
Fab@@ 3398
Rick 3397
elabor@@ 3397
stro@@ 3397
Interstate 3396
contracts 3396
Let@@ 3395
epi@@ 3395
Chem@@ 3394
Govern@@ 3394
superior 3394
tourist 3394
traction 3393
Lem@@ 3392
argues 3392
consist 3392
enb@@ 3392
Wallace 3391
agu@@ 3391
sket@@ 3390
Cann@@ 3389
Intelligence 3389
oding 3389
pictures 3388
Ama@@ 3387
• 3386
Kos@@ 3385
sustained 3385
orange 3384
Fres@@ 3383
orship 3383
thers 3383
ector 3382
xed 3382
exerc@@ 3381
ss 3380
Literature 3379
agree 3379
capita 3379
comedi@@ 3379
publ@@ 3379
Price 3378
ambassador 3378
extinct 3378
Aj@@ 3377
Ivan 3377
logo 3377
puts 3376
Finals 3375
inhib@@ 3375
Angel 3374
developments 3374
judicial 3374
nickname 3373
amo 3372
Archit@@ 3371
Pav@@ 3371
enne 3371
Leo 3370
cats 3370
Politics 3369
beam 3369
imprisoned 3369
metropolitan 3369
Bac@@ 3368
Private 3368
aviation 3368
politicians 3368
Ron 3367
examination 3367
pressed 3367
acre 3366
appreci@@ 3366
ishment 3366
veteran 3366
Brid@@ 3365
Sep@@ 3365
det 3365
firing 3365
milit@@ 3364
comprehensive 3363
him@@ 3363
dead@@ 3362
ê@@ 3362
ü@@ 3362
RT 3361
engagement 3361
cit@@ 3360
perceived 3360
explan@@ 3359
Ast@@ 3358
kir@@ 3358
laboratory 3358
remov@@ 3358
Arnold 3357
consul@@ 3357
pred@@ 3357
Dum@@ 3356
Yos@@ 3356
institute 3356
Hann@@ 3354
tract 3354
Dame 3352
ashing 3351
orous 3351
pling 3351
quarterback 3351
Jon 3350
eplay 3350
explain 3349
widow 3349
framework 3348
neo 3348
ould 3348
sequ@@ 3348
week@@ 3348
exhib@@ 3347
talks 3347
convinced 3346
willing 3346
Maz@@ 3345
renowned 3345
Palestinian 3344
diction 3344
hidden 3344
martial 3344
oxygen 3344
exhibit 3343
Commerce 3342
itz@@ 3342
kick 3342
lem@@ 3342
compositions 3341
Abraham 3340
abstra@@ 3340
locomotive 3340
Ambassador 3339
Imp@@ 3339
McCar@@ 3339
ghter 3339
dimensional 3337
Abb@@ 3336
Films 3336
cep@@ 3336
esman 3336
beaten 3335
tham 3335
group@@ 3334
Mach@@ 3333
Put@@ 3333
kilometers 3333
construct 3332
evo 3332
Eth@@ 3331
pron@@ 3330
tag@@ 3330
sman 3329
sympath@@ 3329
Die 3328
enth@@ 3328
putting 3327
try@@ 3327
NY@@ 3326
bour 3326
extending 3326
Citi@@ 3325
nik 3324
Newton 3323
kar 3323
20,000 3322
loaded 3322
strateg@@ 3322
Kim@@ 3320
Nich@@ 3320
academ@@ 3320
efficiency 3320
Commercial 3319
pick@@ 3319
Grammy 3318
hero@@ 3318
radar 3318
syndrome 3318
ô@@ 3318
productive 3317
Hei@@ 3315
Railways 3315
hem@@ 3315
mir 3315
udi@@ 3315
sequently 3314
Vau@@ 3313
frac@@ 3313
Had@@ 3312
calendar 3312
cali@@ 3312
opsis 3311
onym 3310
shipping 3310
MTV 3309
bond 3308
imposed 3308
Competition 3307
Magic 3307
prim@@ 3307
Clarke 3306
Leonard 3306
decre@@ 3306
thanks 3306
sely 3305
valuable 3305
Alt@@ 3304
Fourth 3303
O. 3303
prom@@ 3303
iri 3302
Honor 3301
cuts 3299
Romanized 3298
announc@@ 3298
dges 3298
experiments 3298
Harvey 3297
cle 3297
inser@@ 3297
enzyme 3295
unanim@@ 3295
Dream 3294
hospitals 3294
anism 3293
brook 3293
yal 3293
Overview 3292
equation 3292
graphic 3292
mainland 3291
Mars 3290
Penn@@ 3290
revised 3290
fear@@ 3289
improvement 3289
integration 3289
ons@@ 3289
tours 3289
Columbus 3288
archit@@ 3288
Renaissance 3287
VA 3287
attacking 3287
oses 3287
uly 3287
virtual 3287
24@@ 3286
Phillips 3286
discontinued 3286
Brah@@ 3285
fifty 3285
Rich@@ 3284
accommodate 3284
elines 3284
founders 3284
bell 3283
scri@@ 3283
gar 3282
input 3282
statements 3282
variation 3281
vi 3280
wasn 3280
ę@@ 3280
Ground 3279
Pop 3279
fundamental 3279
progressive 3278
Palestine 3277
capit@@ 3277
esian 3276
immigration 3276
refugees 3276
illu@@ 3275
manif@@ 3275
wore 3275
Prague 3274
Dr 3273
Organ@@ 3273
critic@@ 3273
mus 3273
symmet@@ 3273
toler@@ 3273
Ig@@ 3272
Vietnamese 3272
altered 3271
iller 3271
ix@@ 3271
pioneer 3271
Leb@@ 3270
aims 3270
len 3270
Right 3269
contribute 3269
manga 3269
Weekly 3268
DO@@ 3267
Election 3267
Essex 3267
Hod@@ 3266
interesting 3266
н@@ 3266
detail 3265
ā 3265
Gabriel 3264
universe 3263
loy@@ 3262
theatrical 3262
lawsuit 3261
ires 3260
umps 3260
Hart 3259
preserve 3259
exhau@@ 3258
familiar 3258
rad@@ 3258
ratings 3258
spok@@ 3258
traveling 3258
wrong 3258
Chang@@ 3256
Montgomery 3256
Record 3256
bann@@ 3256
ibn 3256
Art@@ 3255
Ball 3255
Chair 3255
behavi@@ 3255
corpor@@ 3255
iz 3255
SP 3253
drinking 3253
owers 3253
ña 3253
Cycl@@ 3252
god 3252
hou 3252
Philli@@ 3251
Vladimir 3251
Shah@@ 3250
discrimination 3250
elin 3249
solutions 3249
Bene@@ 3248
Grove 3248
Rif@@ 3248
airline 3248
relay 3248
tile 3248
VII 3247
23@@ 3246
Eff@@ 3246
atics 3246
discuss 3246
isha 3246
victories 3246
Alf@@ 3245
Brun@@ 3245
Roll@@ 3245
fastest 3245
permanently 3245
tation 3245
ication 3244
tronics 3244
Bed@@ 3243
controls 3243
thereby 3243
DF 3242
signals 3242
symbo@@ 3242
exit 3241
flex@@ 3241
Tot@@ 3240
psychology 3240
wag@@ 3240
celebration 3239
deploy@@ 3239
Colomb@@ 3238
cultures 3238
neighboring 3237
AV@@ 3236
interaction 3236
E.@@ 3235
ields 3235
relating 3235
vil 3235
comics 3234
compati@@ 3234
consumer 3234
matic 3234
universal 3234
experiment 3233
golden 3233
ub 3232
missile 3231
shorter 3231
tub@@ 3231
Oscar 3230
particip@@ 3230
Wild@@ 3229
prev@@ 3229
serial 3229
Statistics 3228
infection 3228
pin 3228
underwent 3227
asia 3226
ll 3226
Article 3225
Ess@@ 3225
Revival 3225
ulus 3225
Airlines 3224
biology 3224
artwork 3223
liquid 3222
literacy 3222
poll 3222
Typ@@ 3221
bonus 3221
Congo 3220
Kun@@ 3220
Parti@@ 3220
SD 3220
handle 3220
molecular 3220
Gothic 3218
Junction 3218
afternoon 3218
ero@@ 3218
best@@ 3217
intense 3217
Phot@@ 3216
addressed 3216
amer 3216
diversity 3216
faster 3216
gift 3216
Cec@@ 3215
Pod@@ 3215
jet 3215
kinson 3215
Otto 3214
cave 3214
democracy 3214
eters 3214
populated 3214
Main@@ 3213
lance 3213
milk 3213
wit@@ 3213
&apos;ll 3211
Camer@@ 3211
concepts 3211
programmes 3210
su 3210
travels 3210
Alex@@ 3209
centres 3209
lifetime 3209
SE 3208
IL 3207
magic 3207
passi@@ 3207
Danny 3206
viously 3205
Northwest 3204
erst@@ 3204
1855 3203
feld 3203
segments 3203
smooth 3203
duces 3202
empire 3202
р@@ 3202
Celtic 3201
Rolling 3201
annex@@ 3201
coinci@@ 3201
Collec@@ 3200
Minor 3200
renewed 3200
feelings 3199
worthy 3199
SL 3198
bir@@ 3198
ind 3198
rics 3198
Mang@@ 3197
allegations 3197
focusing 3197
fli@@ 3196
genes 3196
Pear@@ 3195
McG@@ 3194
Revolutionary 3194
ministers 3194
reflected 3194
reser@@ 3194
Boli@@ 3193
Sett@@ 3192
TE@@ 3192
prevented 3192
stown 3190
deser@@ 3189
governing 3189
insur@@ 3189
night@@ 3189
rebounds 3189
110 3188
Elementary 3188
Survey 3188
elia 3188
kan@@ 3188
TS 3187
catch 3186
Spart@@ 3185
moderate 3185
acco 3184
readers 3184
artificial 3183
burial 3183
tant 3183
Laura 3182
tend@@ 3182
veter@@ 3181
Kash@@ 3179
revolutionary 3179
assembled 3178
Blo@@ 3177
ffe 3177
fus@@ 3177
hra 3177
och 3177
retro@@ 3177
sar 3177
Dragon 3176
brow@@ 3176
currency 3176
stit@@ 3176
zu 3176
flood 3175
hoods 3175
stored 3175
exile 3174
prepare 3174
1856 3173
Feder@@ 3173
Flem@@ 3173
Arabia 3172
Micro@@ 3172
ste 3172
Leader 3171
RI@@ 3171
dogs 3171
missi@@ 3171
Hunt 3170
diesel 3170
sciences 3170
warning 3170
3.5 3169
Musical 3169
Ober@@ 3169
Population 3169
cylinder 3169
referendum 3169
retreat 3169
Brunswick 3168
fires 3168
maj@@ 3168
rolling 3167
arena 3166
extends 3166
sei@@ 3166
broadcasts 3164
enemies 3164
wars 3164
denomin@@ 3163
ocy@@ 3163
Stakes 3162
editorial 3162
ound@@ 3162
snow 3162
Dro@@ 3161
photographer 3161
Holl@@ 3160
cathedral 3160
democratic 3160
J.@@ 3159
absor@@ 3159
arrive 3159
Liberty 3158
Ph.D. 3158
allegedly 3158
confidence 3158
photo 3158
pist@@ 3158
Marsh@@ 3157
Non@@ 3157
ept 3157
ght@@ 3156
stationed 3156
Fam@@ 3155
plem@@ 3155
rout@@ 3154
south@@ 3154
BM@@ 3153
Viol@@ 3153
fewer 3153
tron 3153
mitt@@ 3152
pret@@ 3152
Bosnia 3151
ocol 3151
umed 3151
Liu 3150
eventual 3150
fate 3150
bench 3149
demanded 3149
reverse 3149
Bennett 3147
Notes 3147
empty 3147
meas@@ 3147
revival 3147
boxing 3146
fung@@ 3145
samples 3145
1854 3144
Serie 3144
deliber@@ 3144
Perth 3143
SM 3143
anus 3143
Aur@@ 3142
Mario 3142
crimin@@ 3142
incor@@ 3142
alties 3141
codes 3141
dged 3140
instruction 3140
math 3140
urs 3140
Campus 3139
Zim@@ 3139
dialogue 3139
memor@@ 3139
min 3139
thirteen 3139
prince 3138
ranges 3138
tific@@ 3137
Jamaica 3136
kidn@@ 3136
portions 3136
1840 3135
Cont@@ 3135
Forum 3135
Milwaukee 3135
guar@@ 3134
holiday 3133
kov@@ 3133
maintaining 3133
archae@@ 3132
fed 3132
Mac 3131
Sing@@ 3131
atur@@ 3131
manip@@ 3131
pure 3129
Iraqi 3128
idity 3128
revers@@ 3128
telephone 3128
enabled 3127
isan 3127
shel@@ 3127
Krish@@ 3126
olly 3126
surprise 3126
Cameron 3125
Morning 3125
anime 3125
blu@@ 3125
fantasy 3125
1858 3124
Location 3124
aside 3124
independently 3124
scor@@ 3124
uter 3124
Outstanding 3123
propri@@ 3123
activists 3122
fun 3122
advant@@ 3121
boarding 3121
followers 3121
hardware 3121
xi@@ 3121
Panama 3120
generate 3120
B.@@ 3119
Classi@@ 3119
Cork 3119
drum 3119
ira@@ 3119
plates 3119
footage 3118
oppos@@ 3117
advocate 3116
wire 3116
15.@@ 3115
RS 3115
inscription 3115
AB 3114
minim@@ 3114
Pom@@ 3113
agreements 3113
tip 3113
Original 3112
colonies 3112
keys 3112
owski 3112
doctoral 3111
ook@@ 3111
ovsky 3111
spell 3111
temp@@ 3111
tioned 3111
Gand@@ 3110
enlisted 3110
gress 3110
Vas@@ 3109
Name 3108
dubbed 3108
arrives 3107
culmin@@ 3107
elles 3107
ival@@ 3107
Grande 3105
PR 3105
Rol@@ 3105
hear 3105
sati@@ 3105
succession 3105
summary 3105
ycle 3105
Punjab 3104
criteria 3104
engage 3104
Spirit 3103
diam@@ 3103
MD 3102
Paulo 3102
freight 3102
130 3100
Data 3100
pav@@ 3100
Daw@@ 3099
Georgian 3099
Shakespeare 3098
itary 3097
pitcher 3097
radiation 3097
rebellion 3097
resort 3097
Dau@@ 3096
Dig@@ 3096
Friedrich 3096
Pearl 3096
Town@@ 3096
volcan@@ 3096
Joan 3095
berland 3095
fallen 3095
PO@@ 3094
Shaw 3094
Boulevard 3093
ople 3093
timate 3093
vism 3093
Tou@@ 3092
Wilhelm 3092
fail@@ 3092
Pass 3091
handling 3091
flies 3090
ideal 3090
slavery 3090
Legal 3089
Nob@@ 3089
Tac@@ 3088
rivals 3088
select 3088
Eg@@ 3087
Pack@@ 3087
dancing 3087
orth@@ 3087
Bis@@ 3086
promp@@ 3086
Site 3085
amer@@ 3085
mixture 3085
Chronic@@ 3084
announcement 3084
speci@@ 3084
Indianapolis 3083
Mass 3083
atically 3083
paint 3083
shifted 3083
Cardinal 3082
Jos@@ 3081
agar 3081
assessment 3081
employee 3081
plastic 3081
experts 3080
aran 3079
realized 3079
Yu@@ 3078
Donn@@ 3077
animation 3077
HD 3076
fourteen 3076
journalists 3075
liner 3074
onso 3074
planes 3074
specific@@ 3074
basi@@ 3073
noting 3073
teeth 3073
eri 3072
prises 3072
prisoner 3072
Flying 3071
releasing 3071
rome 3071
Marvel 3070
Volunte@@ 3070
updated 3069
carp@@ 3067
generations 3067
hec@@ 3067
rank@@ 3067
Nap@@ 3065
sin 3065
Sky@@ 3064
Where 3064
tender 3064
ux 3064
Wolf 3063
conducting 3063
fairly 3063
layout 3063
Chev@@ 3062
issa 3062
athletic 3061
abor@@ 3060
belong 3060
sym@@ 3060
intervention 3059
Room 3058
cult 3058
requiring 3058
Hamburg 3057
lakes 3057
substit@@ 3057
ealed 3056
invented 3056
Bom@@ 3055
Maurice 3055
accid@@ 3055
index 3055
notice 3055
repeatedly 3055
tin 3055
Tir@@ 3054
severely 3054
Fle@@ 3053
obile 3053
orton 3053
switch 3053
Aboriginal 3052
Educ@@ 3052
specified 3052
differenti@@ 3051
Must@@ 3050
Rice 3050
specimens 3050
suggest@@ 3050
Louise 3049
computers 3049
Nine 3048
Penn 3048
101 3047
Commun@@ 3046
Lost 3046
cens@@ 3046
civilians 3046
swit@@ 3046
vent 3046
confused 3045
dez 3045
itated 3045
thr@@ 3045
Advanced 3044
acoustic 3044
atar 3044
membran@@ 3044
remembered 3044
rises 3044
fla@@ 3043
mere 3043
neighbouring 3043
Hop@@ 3042
Scri@@ 3042
suspected 3042
centered 3041
odes 3041
wid@@ 3041
potentially 3040
upcoming 3040
gement 3039
requ@@ 3038
variations 3038
fame 3037
stric@@ 3037
threat@@ 3037
wish 3037
Miguel 3036
disorder 3036
ealing 3036
enrol@@ 3036
prestigious 3036
Greg 3035
autobi@@ 3035
Strateg@@ 3034
targeted 3034
900 3033
Bau@@ 3033
Ted 3033
anes 3033
icking 3033
jer@@ 3033
topped 3033
Meth@@ 3032
isol@@ 3032
manufacturers 3032
triple 3032
Kum@@ 3031
boy@@ 3031
heir 3031
Ernest 3030
queen 3030
sending 3030
Aaron 3029
adier 3029
associations 3029
cestershire 3029
François 3027
alog@@ 3027
eous 3027
vement 3027
Source 3026
distribut@@ 3026
gest 3026
spre@@ 3026
tissue 3026
gross@@ 3025
p.m. 3025
Guide 3024
Musi@@ 3024
deep@@ 3024
signature 3024
Johann 3023
fur 3022
dynam@@ 3021
marking 3021
quad@@ 3021
umped 3021
Gab@@ 3020
Mobile 3020
interpreted 3020
enburg 3019
gif@@ 3019
urg@@ 3019
Nev@@ 3018
Struc@@ 3018
aesth@@ 3018
beliefs 3018
separation 3018
voiced 3018
1852 3017
Observ@@ 3017
seriously 3017
ordained 3016
Circle 3015
adequate 3013
algeb@@ 3013
publi@@ 3013
Tasman@@ 3012
rie@@ 3012
sixteen 3012
rally 3011
embar@@ 3010
preced@@ 3010
stees 3010
Hindi 3009
Manila 3009
book@@ 3009
eit@@ 3009
okes 3009
planted 3009
Auth@@ 3008
McK@@ 3008
resembl@@ 3008
assed 3007
tt@@ 3007
Low 3006
matrix 3006
Blood 3005
Oakland 3005
Pep@@ 3005
Pakistani 3004
Turk@@ 3004
nings 3004
streams 3004
surrender 3004
Krist@@ 3003
ulp@@ 3003
volleyball 3003
Eagle 3002
findings 3002
dream 3001
half@@ 3001
Pla@@ 3000
bears 3000
freestyle 3000
rent 3000
Bun@@ 2999
naming 2999
personally 2999
Mam@@ 2998
Stock@@ 2998
situations 2998
BI 2997
Beg@@ 2997
oro 2997
Individu@@ 2996
Suff@@ 2996
dialect 2996
displays 2996
friendship 2995
identification 2995
Wildlife 2994
essa 2994
iya 2994
mad@@ 2994
reserves 2994
sit@@ 2994
councill@@ 2993
divorce 2993
professionals 2993
Sussex 2992
indeed 2992
22@@ 2991
CR 2991
Somerset 2991
hu 2991
Laboratory 2990
Than@@ 2990
anticip@@ 2990
Bears 2989
Mumbai 2989
comprising 2989
patent 2989
presentation 2989
Cuban 2988
Uganda 2988
philosoph@@ 2988
Sched@@ 2987
fusion 2987
tea 2987
Gate 2986
Mechan@@ 2986
Secret 2986
behaviour 2986
presents 2985
rainfall 2985
tag 2985
80@@ 2984
commitment 2984
guer@@ 2984
ission 2984
sust@@ 2984
Facebook 2983
Lac@@ 2983
tackles 2983
Isaac 2981
etics 2981
Academic 2980
Artists 2980
Fig@@ 2980
VIII 2980
immun@@ 2980
noise 2980
Baby 2979
Lock@@ 2979
dealing 2979
lac@@ 2979
Foster 2978
VI@@ 2978
clients 2978
pilots 2978
pursued 2978
specialist 2978
circulation 2977
ellow@@ 2977
1851 2975
escap@@ 2975
ew 2974
quick 2974
copy@@ 2973
ped@@ 2973
tasks 2973
Scientific 2972
adventure 2972
poor@@ 2972
improving 2971
tal 2971
Are 2970
alph@@ 2970
atra 2970
east@@ 2970
mb@@ 2970
thrown 2970
ellers 2968
goalkeeper 2968
nationally 2968
Sid@@ 2967
lv@@ 2967
societies 2967
Fra@@ 2966
Spencer 2966
anca 2966
firms 2966
vector 2966
Park@@ 2965
Teams 2963
coron@@ 2963
eat 2963
rifle 2963
Vin@@ 2962
oney 2962
Archae@@ 2961
Cole 2961
riders 2961
suggesting 2961
uh@@ 2961
conduc@@ 2960
diver@@ 2960
purch@@ 2960
horn 2959
ishments 2959
pale 2959
rants 2959
sion@@ 2959
considering 2958
Besides 2957
tale 2957
Annual 2956
Coc@@ 2956
aug@@ 2956
requirement 2956
Map@@ 2955
esch@@ 2954
rid 2954
Lud@@ 2953
bal 2953
got@@ 2953
lie@@ 2953
Dh@@ 2952
NASA 2952
SI@@ 2952
backing 2952
xi 2952
advertis@@ 2951
counts 2951
observation 2951
sten 2951
eign 2950
hib@@ 2950
lock@@ 2950
Stand@@ 2949
Triple 2949
tuary 2949
wright 2949
Tok@@ 2948
bran@@ 2948
conductor 2948
desert 2948
illes 2948
Anton@@ 2947
Gardens 2947
Rick@@ 2945
celebrate 2945
rog@@ 2945
ussions 2945
Manager 2944
concentrated 2944
eper 2944
praise 2944
Sean 2943
investigate 2943
psychological 2943
touch 2943
PE@@ 2942
biography 2942
favorable 2942
provisions 2942
torn@@ 2942
Stockholm 2941
neys 2941
regist@@ 2941
gastro@@ 2940
gear 2940
transit 2940
unions 2940
wei@@ 2940
applic@@ 2939
Block 2938
arium 2938
Idaho 2936
similarly 2936
Cub@@ 2935
dé@@ 2935
Roc@@ 2934
Voice 2934
encourage 2934
plac@@ 2934
prey 2934
Albanian 2933
Reading 2933
old@@ 2933
outs@@ 2933
Bus 2932
ichi 2932
Lig@@ 2931
merely 2931
Stev@@ 2930
decrease 2930
inage 2930
itus 2930
opy 2930
Crit@@ 2929
Knights 2929
procedures 2929
treat@@ 2929
Justin 2928
day@@ 2928
vil@@ 2928
Ages 2927
ern 2927
variants 2927
boro 2926
utr@@ 2926
graph@@ 2925
Isle 2924
custom 2924
sidents 2924
skill 2924
Arc@@ 2923
Dob@@ 2923
Fem@@ 2923
PM 2923
chy 2923
hometown 2923
retain 2923
hyp@@ 2922
icism 2922
seized 2922
adow 2921
ardi@@ 2921
Jay@@ 2920
riages 2920
Lif@@ 2919
ceil@@ 2919
ū 2919
Beck@@ 2918
honours 2918
HIV 2917
agh 2917
chapters 2917
ft@@ 2917
ylon 2917
bap@@ 2916
sfield 2916
Durham 2915
commentary 2915
Continental 2914
duration 2914
codice 2913
floors 2913
cover@@ 2911
Rhode 2910
creates 2910
messages 2910
heading 2907
reason@@ 2907
secur@@ 2907
Scotia 2906
prospec@@ 2906
H.@@ 2905
Wu 2905
manages 2905
Lancashire 2904
lux@@ 2904
maintains 2904
Bird 2903
Owen 2903
axis 2903
orious 2903
assass@@ 2901
ju 2901
mob@@ 2901
Examples 2900
lus 2899
remark@@ 2899
varied 2899
Marc 2898
coffee 2898
syndic@@ 2898
tig@@ 2898
alling 2897
doctors 2897
guid@@ 2897
verteb@@ 2897
Ring 2895
butter@@ 2895
package 2895
petition 2895
relatives 2895
trol@@ 2894
17.@@ 2893
BCE 2893
after@@ 2893
arrangements 2892
brings 2892
siblings 2892
tex 2892
where@@ 2892
Lucas 2891
Newport 2891
divorced 2891
jail 2891
orbit 2891
rill 2891
seas@@ 2891
volun@@ 2890
Fisher 2889
Hindu@@ 2889
discovers 2889
lon@@ 2889
AE@@ 2888
alter@@ 2888
citizenship 2888
Buenos 2887
Drama 2887
Nancy 2887
Aires 2886
HC 2886
Sox 2886
adily 2886
ditional 2886
journals 2886
sheet 2886
1853 2885
Lad@@ 2885
Shak@@ 2885
iga 2884
pianist 2884
Heights 2883
Kate 2883
Reed 2883
choir 2883
ga@@ 2883
sizes 2883
survivors 2883
wind@@ 2883
Fir@@ 2882
Son 2882
acht 2882
hai 2882
threats 2882
lasting 2881
nie@@ 2881
Morocco 2880
enable 2880
gent@@ 2880
ocket 2880
Chelsea 2879
Tag@@ 2879
erup@@ 2879
musi@@ 2878
recognize 2878
volunteer 2878
mini 2877
Chester 2876
Environment 2875
Malta 2874
gregation 2874
pel@@ 2874
Armenia 2873
Box@@ 2873
SN@@ 2873
burning 2873
clos@@ 2873
fluid 2873
Lithuania 2872
achie@@ 2872
edings 2872
staged 2872
Figh@@ 2870
Westminster 2870
ا@@ 2870
banking 2869
cav@@ 2869
congregation 2869
cred@@ 2869
rebels 2869
Bod@@ 2868
venti@@ 2868
16.@@ 2867
DI 2865
lad@@ 2865
pregnant 2865
sleep 2865
Shir@@ 2864
mill@@ 2864
wre@@ 2864
Pain@@ 2863
interchange 2863
streak 2863
vig@@ 2863
doctorate 2862
exterior 2862
Cyprus 2861
acknowledged 2861
gin 2861
practic@@ 2861
Salt 2860
trau@@ 2860
Todd 2859
ancer 2858
ec 2858
impressed 2858
lineup 2858
theorem 2858
circular 2857
num@@ 2857
towers 2857
Rovers 2856
averaged 2856
chants 2856
stability 2856
AFC 2855
Ferdinand 2855
veil@@ 2855
German@@ 2854
Rob 2854
deeply 2854
derly 2854
grants 2854
ingo 2854
odic 2854
Compan@@ 2853
fram@@ 2852
onwards 2852
ooth@@ 2852
rescu@@ 2852
Cran@@ 2851
beer 2851
nest 2851
sta@@ 2851
sz@@ 2851
etry 2848
yon 2848
Oak 2847
Rein@@ 2847
lli@@ 2847
operators 2847
panels 2847
wra@@ 2847
intercep@@ 2846
legitimate 2846
omin@@ 2846
avian 2845
perpet@@ 2845
cism 2844
Ce@@ 2843
Palmer 2843
check 2843
itch 2843
sequences 2843
Using 2842
cid@@ 2842
penn@@ 2842
prototype 2842
conscious 2841
ducing 2840
honored 2840
interface 2840
Wak@@ 2839
ulating 2839
201@@ 2838
transformed 2838
Ruth 2837
achievement 2837
Oil 2836
entity 2836
knee 2836
osh 2836
60@@ 2834
amma 2834
destination 2834
intermediate 2834
advisor 2833
criticised 2833
keep@@ 2833
Inn@@ 2832
Sle@@ 2832
colonel 2832
1849 2831
disappeared 2831
precip@@ 2831
zhou 2831
Hag@@ 2830
Hurricane 2830
ilers 2830
nan@@ 2830
quot 2830
tories 2830
Meh@@ 2829
aca 2829
mentions 2829
26@@ 2828
broadcast@@ 2827
conflicts 2827
egg 2827
tionally 2827
Ahmed 2826
ester@@ 2826
mollus@@ 2826
Big@@ 2825
4,000 2824
carved 2824
Fighter 2823
Moun@@ 2823
sus 2823
Czechoslov@@ 2822
Plan@@ 2822
Rev. 2822
crit@@ 2822
fortress 2822
Sag@@ 2821
unda 2821
Transit 2820
Marcus 2819
deliver 2819
headquartered 2819
hosting 2819
voyage 2819
warfare 2819
Hend@@ 2818
Rag@@ 2818
nationwide 2818
sharp 2818
GB 2817
lution 2817
valid 2817
Og@@ 2816
Santiago 2816
nut 2816
scandal 2816
scorer 2816
Gib@@ 2814
Gradu@@ 2814
Pat 2814
Safety 2814
Stevens 2814
Yang 2814
stly 2814
tex@@ 2814
Evangel@@ 2813
corps 2813
devast@@ 2813
collegiate 2812
lecturer 2812
Chen 2811
Lisa 2811
Say@@ 2811
anta 2811
olph 2810
phi@@ 2810
chec@@ 2809
Amendment 2808
sof@@ 2808
Glou@@ 2807
Peak 2807
Tampa 2807
aim@@ 2807
atories 2807
dess 2807
ishi 2807
Kno@@ 2806
audiences 2806
ival 2806
larvae 2806
unveil@@ 2806
Cad@@ 2805
Diamond 2805
Raz@@ 2805
ehol@@ 2805
Sti@@ 2804
circum@@ 2804
danger 2804
R.@@ 2803
Still 2803
cer 2803
Living 2802
Pent@@ 2801
Relations 2801
cad@@ 2801
conjunction 2801
restore 2801
varies 2801
Chin@@ 2800
Copenhagen 2799
Giovanni 2799
arities 2799
etal 2799
ferry 2799
pen 2799
quantum 2799
receiver 2799
1847 2798
Additional 2798
ESP@@ 2798
collect 2798
colours 2798
feeding 2798
travelling 2798
Hass@@ 2797
Tennis 2797
Vent@@ 2797
Artist 2796
Coo@@ 2796
Reb@@ 2796
SM@@ 2796
assignment 2796
atri@@ 2796
cils 2796
emerging 2795
0,@@ 2794
Cust@@ 2794
Nep@@ 2794
particles 2794
sbury 2794
aith@@ 2793
drink 2793
holder 2793
Sr. 2792
expanding 2792
survi@@ 2792
uit 2792
180 2791
Hos@@ 2791
abbrevi@@ 2791
neutral 2791
Gang@@ 2790
closest 2790
grid 2790
ernity 2789
Chancellor 2788
Tiger 2788
inae 2788
singers 2788
alog 2787
guidance 2787
ğ@@ 2787
Circ@@ 2786
Napoleon 2786
hoped 2786
presidency 2786
strength@@ 2785
cill@@ 2784
continent 2784
CM@@ 2783
warri@@ 2783
privately 2782
Multi@@ 2781
Solomon 2781
encountered 2781
ior@@ 2781
suddenly 2781
Apost@@ 2780
Machine 2780
database 2780
gment 2780
ilia 2780
publish 2780
pupils 2780
Franco 2779
Fut@@ 2779
graphics 2779
flooding 2778
inces 2778
indoor 2778
proceeded 2778
recip@@ 2778
isms 2776
register 2776
topic 2776
sailing 2775
sponsor@@ 2775
treas@@ 2775
ially 2774
rounded 2774
Parliamentary 2773
Hir@@ 2772
Princeton 2772
struggled 2772
surren@@ 2772
AI 2770
prints 2770
cham@@ 2769
mud 2769
quoted 2769
stretch 2769
fting 2768
kings 2768
withdrawn 2768
{ 2768
SI 2767
trio 2767
urer 2767
uss 2767
Crist@@ 2766
Steel 2766
favourite 2766
rements 2766
curve 2765
paras@@ 2765
refu@@ 2765
roy@@ 2765
survival 2765
tomb 2765
campaig@@ 2764
deposits 2763
march 2763
wet 2763
court@@ 2762
reads 2762
bee 2761
spective 2761
tro 2761
Prus@@ 2760
eon 2759
Distinguished 2758
Estate 2758
Herald 2758
orer 2758
provision 2758
las 2757
properly 2757
reless 2757
aba 2756
agon@@ 2755
autumn 2755
holes 2755
Rut@@ 2754
bery 2754
joins 2753
sar@@ 2753
Total 2752
apprenti@@ 2752
paying 2752
Duncan 2751
ather@@ 2751
wheels 2751
og 2750
shelter 2750
Cardinals 2749
Davies 2749
Dub@@ 2749
epp@@ 2749
upgraded 2749
Cavalry 2748
Contin@@ 2748
lei@@ 2748
temper@@ 2748
Lec@@ 2747
nineteenth 2747
Beh@@ 2746
ateral 2746
atoes 2746
graph 2746
Actor 2745
Cardiff 2745
lag@@ 2745
muscle 2745
Holmes 2744
rach@@ 2744
reliable 2744
Simpson 2743
clo@@ 2743
comfort@@ 2743
liked 2743
tol@@ 2743
Advisory 2742
prompted 2741
cataly@@ 2740
licens@@ 2740
achievements 2739
irus 2739
shap@@ 2738
corporation 2737
gol@@ 2737
main@@ 2737
occurring 2737
Left 2736
Plant 2736
Publishing 2736
conferences 2736
consultant 2736
27@@ 2735
Java 2735
Sabha 2735
sible 2735
issu@@ 2734
chore@@ 2733
encounter 2733
lander 2733
punishment 2733
Desert 2732
deals 2732
farms 2732
reveal 2732
Rum@@ 2731
camer@@ 2731
sley 2731
welfare 2731
Canterbury 2730
acquire 2730
enced 2730
visions 2730
wickets 2730
ator@@ 2729
CO 2728
Eugene 2728
Gren@@ 2728
XI 2728
imprisonment 2728
itious 2728
journalism 2728
partic@@ 2728
relegation 2727
100@@ 2726
18.@@ 2726
Dynasty 2726
fab@@ 2726
Events 2725
Far 2725
Work@@ 2725
ared 2725
discover 2725
ial@@ 2725
Nintendo 2724
Shr@@ 2724
cotton 2724
ergy 2724
lectures 2724
Manitoba 2723
igned 2723
Geneva 2722
Hit@@ 2722
block@@ 2722
margin@@ 2722
batting 2721
governed 2721
FBI 2720
impressive 2720
random 2720
rocket 2720
Belgrade 2719
cardi@@ 2719
formations 2719
soap 2719
spiracy 2719
trouble 2719
Adv@@ 2718
Suc@@ 2718
array 2718
engra@@ 2718
Abdul@@ 2717
Popular 2717
zon 2717
Chapter 2716
Hoo@@ 2716
Soul 2716
caf@@ 2716
Human@@ 2715
Lithuanian 2715
amine 2715
audi@@ 2715
chess 2715
Hig@@ 2714
Pre 2714
William@@ 2714
1846 2713
resource 2713
tains 2713
tified 2713
alumin@@ 2712
authenti@@ 2712
engineers 2712
Care 2711
Franz 2711
Soli@@ 2711
Sudan 2711
goal@@ 2711
telec@@ 2711
layers 2710
neighbour@@ 2710
oque 2710
ecraft 2709
ku 2709
rape 2709
Jag@@ 2708
Personnel 2708
eved 2708
explore 2708
Indigenous 2707
abi 2706
gi 2706
lessons 2706
mall 2706
neigh@@ 2706
transported 2706
troub@@ 2706
Queens 2705
edges 2705
lighted 2705
bud@@ 2704
consensus 2704
fications 2704
scriptions 2704
NC 2703
\ 2703
algorithm 2703
bute 2703
nett 2703
sensitive 2703
sur 2703
ś@@ 2703
blues 2702
chap@@ 2702
fiel@@ 2702
varying 2702
Dominican 2701
Hamm@@ 2701
reservoir 2701
treat 2701
Pomer@@ 2700
attraction 2700
automatically 2700
Alexand@@ 2699
Instit@@ 2699
arbit@@ 2699
strikes 2699
Aff@@ 2698
bering 2698
byp@@ 2698
helicopter 2698
ring@@ 2698
Twitter 2697
HF 2696
performers 2696
racks 2696
Heav@@ 2695
dock 2695
Freder@@ 2694
sians 2694
Moreover 2693
gli@@ 2693
line@@ 2693
balls 2692
Bradford 2691
Brussels 2691
Ellis 2691
essor 2691
practiced 2691
sday 2691
exual 2690
ruptcy 2690
Fifth 2689
erial 2689
fix 2689
investors 2689
Mei@@ 2688
Minist@@ 2688
Philosophy 2688
ade@@ 2688
dation 2688
CP 2687
Parks 2687
Wedn@@ 2687
portraits 2687
testim@@ 2687
PR@@ 2686
enza 2686
dency 2685
ega 2685
zones 2685
alam 2684
dial@@ 2684
posthum@@ 2684
reactions 2684
Clu@@ 2683
preliminary 2683
Fernando 2682
Gill@@ 2682
adows 2682
pregn@@ 2682
rect@@ 2682
Armstrong 2681
distant 2681
Emily 2680
Guang@@ 2680
NG@@ 2680
cher@@ 2680
decreased 2680
drawings 2680
umption 2679
1830 2678
prayer 2678
smith 2678
DE 2677
Kenneth 2677
ander@@ 2677
s. 2676
Julia 2675
Wind@@ 2675
cot 2675
CF@@ 2673
eating 2673
itness 2673
mart@@ 2673
Angels 2672
Nick@@ 2672
idation 2672
scribed 2672
Amateur 2671
Tree 2671
Yellow 2671
gens 2670
gramm@@ 2670
peer 2670
teammate 2670
twentieth 2670
IX 2669
Pok@@ 2669
estates 2669
rs 2669
Engineers 2668
curriculum 2668
itely 2668
oz@@ 2668
rapper 2668
1812 2667
Emma 2667
lag 2667
permit 2667
registration 2667
Legislature 2666
militia 2666
Subsequently 2665
client 2665
ridor 2665
wers 2665
intendent 2664
Nigerian 2663
varieties 2663
allet 2662
occasional 2662
offs 2662
phenomenon 2662
senti@@ 2662
stolen 2662
Interior 2661
Tang 2661
AIDS 2660
beneath 2660
colored 2660
ember 2660
southeastern 2660
var 2660
20.@@ 2659
customer 2659
enders 2659
eno 2659
hydrogen 2659
noble 2659
Andrews 2658
Hull 2658
kid@@ 2658
priests 2658
renovation 2658
ław 2658
accompl@@ 2657
girlfriend 2657
pronounced 2657
shi 2657
Double 2656
erb@@ 2656
tight 2656
Return 2655
competitors 2655
compli@@ 2655
dynamic 2655
poin@@ 2655
watched 2655
solely 2654
Bes@@ 2653
Pé@@ 2653
etes 2653
terrain 2653
uli 2653
Him@@ 2652
aftermath 2652
discipline 2652
governmental 2652
libraries 2652
vas 2652
dense 2651
Ron@@ 2650
bills 2650
consult@@ 2650
hopes 2650
interactions 2650
ovina 2650
shock 2650
Ronald 2649
absolute 2649
ackle 2649
consequence 2649
intensity 2649
Basin 2648
Pip@@ 2648
Prof@@ 2648
genera 2648
resur@@ 2648
wage 2648
hob@@ 2647
ruins 2647
Again 2646
Brooks 2646
Cath@@ 2646
Comedy 2646
Eight 2646
Nation@@ 2646
aque 2646
delay 2646
handled 2646
starter 2646
Beth@@ 2645
Jon@@ 2645
Ng@@ 2645
grain 2645
jects 2645
mansion 2645
tary 2645
Charl@@ 2644
Prov@@ 2644
oids 2644
pus 2644
wan@@ 2644
Bradley 2643
aces 2643
armies 2642
dancer 2642
eil 2642
ativ@@ 2641
mic@@ 2641
ockout 2641
rivalry 2641
tribal 2641
Cambo@@ 2640
Saskatchewan 2640
Serge@@ 2640
dying 2640
glob@@ 2640
quest 2640
.. 2639
Guards 2639
cos 2639
ī 2638
1845 2637
Bloom@@ 2637
Deep 2636
aper 2636
hull 2636
Zhang 2635
chin@@ 2635
congressional 2635
embarked 2635
Stan@@ 2634
Universe 2634
aut 2634
supporter 2634
witness 2634
Powell 2633
configuration 2633
inclusion 2633
pler 2633
push 2633
Luci@@ 2632
XX@@ 2632
flowering 2632
Now@@ 2631
creator 2631
storyline 2631
Arn@@ 2630
Presbyterian 2630
Similarly 2630
kilometres 2630
reti@@ 2630
territorial 2630
akh 2629
preval@@ 2629
striking 2629
š 2629
Ze@@ 2628
nie 2628
ugh 2628
furn@@ 2627
Colonial 2626
Without 2626
alions 2626
derness 2625
contain@@ 2624
experim@@ 2624
theology 2624
Tunis@@ 2623
withdrawal 2623
Eurovision 2622
Us 2622
compounds 2622
49@@ 2621
locked 2621
Aw@@ 2620
Byr@@ 2620
Territ@@ 2620
aerial 2620
lear@@ 2620
approxim@@ 2619
с@@ 2619
export 2618
pac@@ 2618
aller 2617
dozen 2617
ral@@ 2617
Ö@@ 2617
Gibson 2616
Lodge 2616
subspecies 2616
Carp@@ 2615
cyclop@@ 2615
uck 2614
Henderson 2613
Wind 2613
Zam@@ 2613
hitting 2613
presi@@ 2613
southwestern 2613
tia 2613
eway 2612
farm@@ 2612
overwhel@@ 2612
acclaim 2611
ras@@ 2611
Actress 2610
conquest 2610
ammunition 2609
kon@@ 2609
northeastern 2609
Progressive 2608
kills 2608
patron 2608
observations 2607
easier 2606
landscap@@ 2606
dar 2605
Dir@@ 2604
Sunn@@ 2604
road@@ 2604
sha 2604
transmit@@ 2604
ument@@ 2604
Against 2603
Chase 2603
NATO 2603
ulu 2603
Nas@@ 2602
nin@@ 2602
psychiat@@ 2602
upe 2602
Aircraft 2601
define 2601
igan 2601
responsi@@ 2601
Gan@@ 2600
IBM 2600
Recording 2600
diet 2600
guards 2600
lization 2600
Page 2599
read@@ 2599
surfaces 2599
Bull 2598
Critics 2598
big@@ 2598
hosp@@ 2598
learns 2598
unclear 2598
workshops 2598
zh@@ 2598
Lah@@ 2597
bassist 2597
garrison 2597
sat@@ 2597
1,0@@ 2596
alisation 2596
ensen 2596
super 2596
reluc@@ 2595
rica 2595
Pac@@ 2594
Tus@@ 2594
accomplished 2594
allocated 2594
FK 2593
furniture 2593
trips 2593
Julian 2592
entran@@ 2592
subur@@ 2592
125 2591
It@@ 2591
argue 2591
kt@@ 2591
rotation 2591
anchor 2590
Abdul 2589
Bryan 2588
chronic@@ 2588
fees 2588
moments 2588
vous 2588
watching 2588
Hul@@ 2587
bab@@ 2587
doctrine 2587
fraud 2587
spann@@ 2587
trend 2587
Indi@@ 2586
counted 2586
hybrid 2586
standings 2586
Peri@@ 2585
Regular 2585
aning 2585
ayne 2585
missionary 2585
Surrey 2584
boss 2584
regardless 2584
Gom@@ 2583
coast@@ 2583
Fon@@ 2582
collapsed 2582
compil@@ 2582
iff@@ 2582
ru 2582
stronger 2582
tram@@ 2582
inos 2581
olle@@ 2581
wav@@ 2581
Leon 2580
Simp@@ 2580
attitude 2580
erson 2580
theoretical 2580
Bei@@ 2579
Others 2579
environments 2579
profession@@ 2579
Bear 2578
commanding 2578
investigated 2578
sud@@ 2578
traff@@ 2578
transformation 2578
Complex 2577
Expl@@ 2577
condemned 2577
servers 2577
Brad@@ 2576
oos 2576
pack 2576
Capitol 2575
collecting 2575
incidents 2575
intern@@ 2575
lith@@ 2575
magnitude 2575
Study 2574
emble 2574
eni 2574
rough 2574
bishops 2573
multip@@ 2573
vet 2573
accordance 2572
Proper@@ 2571
Saxon 2571
lifest@@ 2571
sever@@ 2571
Fish 2570
astro@@ 2570
estimate 2570
inus 2570
Dw@@ 2569
log 2569
shoulder 2569
Bever@@ 2567
Orlando 2567
blocked 2567
igs 2567
mph 2567
supervis@@ 2567
Off 2566
committees 2566
interim 2566
locks 2566
nest@@ 2566
oir 2566
Advent@@ 2565
BO 2565
Caroline 2565
Filipino 2565
GP@@ 2565
Kingston 2565
Legion 2565
Lic@@ 2565
etto 2565
herd 2565
manual 2565
moon 2565
nicknamed 2565
Michel 2564
aft 2564
enlar@@ 2564
settle 2564
wai@@ 2564
Brighton 2563
Official 2563
loved 2563
oter 2563
success@@ 2563
19.@@ 2562
Gel@@ 2562
Lot@@ 2562
ensemble 2562
rag@@ 2562
Kot@@ 2561
developer 2561
eag@@ 2561
farmer 2561
hen 2561
involve 2561
temples 2561
MLB 2560
PlayStation 2560
equally 2559
habitats 2559
stick 2559
unci@@ 2559
Midd@@ 2558
Republicans 2558
absorbed 2558
consent 2558
Agreement 2557
depicting 2557
snow@@ 2557
Lakes 2556
Leslie 2556
ML 2556
bath@@ 2556
lev@@ 2556
narrow@@ 2556
2.0 2555
Spar@@ 2555
outing 2555
scape 2555
shallow 2555
yu 2555
Bhar@@ 2554
Colin 2554
Kay@@ 2554
Mid 2554
athlet@@ 2554
xiliary 2554
ı 2554
NS 2553
insects 2553
ocity 2553
Chan@@ 2552
Iceland 2552
Valent@@ 2552
clesi@@ 2552
Inspec@@ 2551
directing 2551
abled 2550
gathering 2550
organisms 2550
stake 2550
photos 2549
stances 2549
Electoral 2548
Veter@@ 2548
strict 2548
Plaza 2547
bacteria 2547
elimination 2547
Lyon 2546
Number 2546
sor 2546
Sli@@ 2545
cleared 2545
consequences 2545
receptor 2545
uph@@ 2545
DR 2544
Planning 2544
Resources 2543
flan@@ 2543
fortunately 2543
30,000 2542
expelled 2542
itals 2542
Lucy 2541
Mā@@ 2541
Pete 2541
constra@@ 2541
renovated 2541
ully 2541
Arsenal 2540
LGBT 2540
Preston 2540
mutual 2540
reconstruction 2540
25.@@ 2539
Clif@@ 2539
ballot 2539
conceived 2539
Connor 2538
cket 2538
depends 2538
diagnosed 2538
introduce 2538
ologically 2538
sheep 2538
D.@@ 2537
Mend@@ 2537
Woods 2537
SW@@ 2536
Tyler 2536
WH@@ 2536
song@@ 2536
Canyon 2535
GT@@ 2535
Scot@@ 2535
promising 2535
rum 2535
Reform 2534
aur 2534
vegetation 2534
nan 2533
yes 2533
dee 2532
diti@@ 2532
virtually 2532
Int@@ 2531
Tow@@ 2531
intent 2531
Fron@@ 2530
Medic@@ 2530
Presidential 2530
cidae 2530
overs 2530
sch 2530
IO@@ 2529
compensation 2529
distri@@ 2529
exploration 2529
renew@@ 2529
CT 2528
CR@@ 2527
advised 2527
casting 2527
healthy 2527
navig@@ 2527
subordin@@ 2527
Globe 2526
Memphis 2526
Prem@@ 2526
mathematical 2526
Course 2525
Episcopal 2525
Mic@@ 2525
blical 2525
verses 2525
assassination 2524
considers 2524
inda 2524
ophone 2524
Estonia 2523
hima 2523
influ@@ 2523
manufacture 2523
outh 2523
Gon@@ 2522
Jak@@ 2522
doubt 2522
logic 2522
thermal 2522
AG@@ 2521
WWE 2521
pace 2521
questioned 2521
ocene 2520
raw 2520
suburbs 2520
Etym@@ 2519
ditionally 2519
Kazakh@@ 2518
Robertson 2518
erine 2518
genres 2518
prevent@@ 2518
stead 2518
1800 2517
Bailey 2517
Guar@@ 2517
ape 2517
escu 2517
heter@@ 2517
Staf@@ 2516
USSR 2516
dad 2516
proposals 2516
Josh 2515
clothes 2515
dev@@ 2515
remn@@ 2515
resolved 2515
Am 2514
Lap@@ 2514
fisher@@ 2514
1.2 2513
Located 2513
Sport@@ 2513
Crus@@ 2512
Ing@@ 2512
bones 2512
Ahmad 2511
acet@@ 2511
alogue 2511
ambi@@ 2511
restri@@ 2511
Chor@@ 2510
Herzeg@@ 2510
bowl 2510
nt 2510
separately 2510
Brien 2509
Tall@@ 2509
massacre 2509
nose 2509
talking 2509
ulsion 2509
adoption 2508
coc@@ 2508
dn 2508
gn@@ 2508
upset 2508
eca 2507
estimates 2507
1844 2506
Asi@@ 2506
Blake 2506
Buc@@ 2506
Get 2506
I.@@ 2506
Joy@@ 2506
cott@@ 2506
Amy 2505
Benn@@ 2505
Liberation 2505
eve 2505
sors 2505
Edition 2504
Lun@@ 2504
loading 2504
manor 2504
preparing 2504
tables 2504
ultimate 2504
Miles 2503
integral 2503
isi 2503
onist 2503
predicted 2503
tice 2503
350 2502
Allan 2502
Amazon 2502
Stock 2502
inches 2502
Astr@@ 2501
Oslo 2501
ca@@ 2501
dly 2501
quet 2501
chez 2500
Alpha 2499
Cly@@ 2499
Curtis 2499
Windsor 2499
inners 2499
aa 2498
rix 2498
Crow@@ 2496
Ein@@ 2496
Naples 2496
dedic@@ 2496
feels 2496
icated 2496
160 2495
Ship@@ 2495
bore 2495
demol@@ 2495
kitchen 2495
wildlife 2495
1841 2494
Berg@@ 2494
autonomous 2494
nam 2494
undertaken 2494
Sang@@ 2493
edy 2493
enly 2493
iciently 2493
Notre 2492
servant 2492
tob@@ 2492
6,000 2491
Estab@@ 2491
pink 2491
Mast@@ 2490
Rabbi 2490
Richardson 2490
constantly 2490
eves 2490
guided 2490
oh 2490
amy 2489
legally 2489
ernmost 2488
phones 2488
Impact 2487
Laf@@ 2487
laps 2487
necessarily 2487
prescri@@ 2487
María 2486
Wis@@ 2486
Hard@@ 2485
Salv@@ 2485
acter@@ 2485
inaugurated 2485
EE@@ 2484
Utt@@ 2484
que@@ 2484
Lé@@ 2483
Relig@@ 2483
Sign@@ 2483
probability 2483
ä@@ 2483
Youn@@ 2482
onnie 2482
entries 2481
sword 2481
uer@@ 2481
End@@ 2480
Hopkins 2480
Principal 2480
Sei@@ 2480
fis@@ 2480
perio@@ 2480
tourists 2480
Speaker 2479
ploy@@ 2479
synthes@@ 2479
ugu 2479
walks 2479
26.@@ 2478
Hou@@ 2478
gee 2478
ommunic@@ 2478
pounds 2478
transfer@@ 2478
Dj@@ 2477
confusion 2477
innoc@@ 2477
miss@@ 2477
org 2477
pir@@ 2477
rowing 2477
sustainable 2477
24.@@ 2476
edia 2476
explosion 2476
GP 2475
Vij@@ 2475
olf 2475
stere@@ 2475
Prac@@ 2474
Rachel 2474
SL@@ 2474
agrees 2474
bred 2474
eler 2474
Henri 2473
revived 2473
preservation 2472
abortion 2471
coin 2471
instructions 2471
issi@@ 2471
ogra@@ 2471
optical 2471
Contro@@ 2470
circul@@ 2470
scar@@ 2470
spectrum 2470
abe 2469
facade 2469
Dic@@ 2468
Frankfurt 2468
Kirk@@ 2468
knows 2468
uties 2468
Depression 2467
cock@@ 2467
crowned 2467
lett 2467
press@@ 2467
sab@@ 2467
Dud@@ 2466
Inn 2466
cub@@ 2466
Middles@@ 2465
aly 2465
ancement 2465
consideration 2465
profession 2465
1837 2464
Nathan 2464
borg 2464
corn 2464
crop 2464
Literary 2463
inery 2463
princ@@ 2463
oles 2462
Edmund 2461
firm@@ 2461
lla 2461
schem@@ 2461
manuscripts 2460
xon 2460
reven@@ 2459
torpedo 2459
Albania 2458
Achie@@ 2457
monitoring 2457
1839 2456
27.@@ 2455
Mall@@ 2455
bacter@@ 2455
certainly 2455
mechanisms 2455
tico 2455
VC 2454
Agu@@ 2453
Classical 2453
Dog 2453
Gem@@ 2453
bedro@@ 2453
ples 2453
unc@@ 2453
Boeing 2452
Conf@@ 2452
embles 2452
happen 2452
rook@@ 2452
α 2452
Being 2451
Las@@ 2450
Spider 2450
Support 2450
bold 2450
ritual 2450
Buddh@@ 2449
Coalition 2449
asis 2449
ib 2449
1500 2448
Drag@@ 2448
Jeff@@ 2448
AE 2447
Lutheran 2447
Pay@@ 2447
Cornwall 2446
Kumar 2446
Satur@@ 2446
symbols 2446
28@@ 2445
Pick@@ 2445
1838 2444
Calgary 2444
Reynolds 2444
ennium 2444
tern 2444
140 2443
Milton 2443
hen@@ 2443
osaur@@ 2443
apolog@@ 2442
Laz@@ 2441
cycles 2441
Nadu 2440
sits 2440
Arab@@ 2439
administrator 2439
ied@@ 2439
André 2438
analog@@ 2438
avail@@ 2438
Beat@@ 2437
Inter 2437
Afgh@@ 2436
Ced@@ 2436
Yar@@ 2436
asian 2436
descri@@ 2436
lay@@ 2435
ussia 2435
ás 2435
1832 2434
dimensi@@ 2434
Administrative 2433
Glen 2433
assing 2433
use@@ 2433
icus 2432
olate 2431
Salvador 2430
aggressive 2430
Lords 2429
Plymouth 2429
drau@@ 2429
streaming 2429
vest 2429
marsh@@ 2428
Albany 2427
Gos@@ 2427
Kann@@ 2427
tet@@ 2427
Slovenia 2426
tial 2426
obsc@@ 2425
thriller 2425
Yor@@ 2424
vulnerable 2424
ör@@ 2424
devot@@ 2423
Americas 2422
Fraser 2422
kees 2422
oons 2422
Thr@@ 2421
horizontal 2421
mented 2421
ysi@@ 2420
Claude 2418
challeng@@ 2418
SH 2417
innovative 2417
HP 2416
Physics 2416
Trib@@ 2416
olution 2416
Case 2415
Harbour 2415
Insur@@ 2415
arta 2415
delegation 2415
eval 2415
reader 2414
Belfast 2413
Emmy 2413
Hern@@ 2413
atch 2413
ure@@ 2413
ovan 2412
25th 2411
gle 2411
Burns 2410
Eve 2410
Sisters 2410
Tex@@ 2410
Tropical 2410
pod@@ 2410
Kosovo 2409
elt@@ 2409
manuel 2409
Voc@@ 2408
acle 2408
adership 2408
orium 2408
Tah@@ 2407
eir 2407
necess@@ 2407
observ@@ 2407
tram 2407
Porter 2406
esse 2406
hail 2406
rea 2406
Reid 2405
omo 2405
deed 2404
lava 2404
otype 2404
wild@@ 2404
Cox 2403
fair@@ 2403
fluence 2403
Cass@@ 2402
Mick@@ 2402
itative 2402
gue 2401
kel@@ 2400
Edmonton 2398
alla 2398
ares 2398
Stein@@ 2396
Metro@@ 2395
Southwest 2395
omes 2395
onne 2395
1836 2394
folio 2394
Cinema 2393
Reser@@ 2393
Rosa 2393
ematic 2393
iana 2392
Agricultural 2391
Itali@@ 2391
opath@@ 2391
anting 2390
legend@@ 2389
pan 2389
Gonz@@ 2388
Math@@ 2388
Audi@@ 2387
brands 2387
etz@@ 2387
het 2387
hub 2387
Ł@@ 2387
Religion 2385
ject 2385
Horn@@ 2384
ricane 2384
Lancaster 2383
Paralympics 2383
fin 2383
lease 2383
4.5 2382
dil@@ 2382
Crystal 2381
Muk@@ 2381
Burton 2380
religi@@ 2380
sonville 2380
unter 2380
Contest 2379
Lenn@@ 2379
aken 2379
cov@@ 2379
lds 2379
ped 2379
Tanz@@ 2378
estry 2378
Andrea 2377
McDonald 2377
Nun@@ 2377
brig@@ 2377
Neigh@@ 2376
len@@ 2376
ppers 2376
ussion 2376
Đ@@ 2376
Fen@@ 2375
Rivers 2375
arist@@ 2374
did@@ 2374
Jennifer 2373
rain@@ 2373
Us@@ 2372
Zar@@ 2372
juven@@ 2372
oval 2372
ption 2372
moder@@ 2371
sult@@ 2371
usa 2371
23.@@ 2370
360 2370
accompan@@ 2370
jack@@ 2370
leb@@ 2370
yana 2370
Cand@@ 2369
Europ@@ 2369
PP 2369
Compl@@ 2368
Path@@ 2368
Alexandria 2367
Hak@@ 2367
Halifax 2367
Jal@@ 2367
Wagner 2367
Academ@@ 2366
Movie 2366
Nicol@@ 2366
UC 2366
king@@ 2366
Til@@ 2365
Writers 2365
cha@@ 2365
har 2365
ms@@ 2365
21.@@ 2364
Discovery 2364
Indo 2364
Rog@@ 2364
Sci@@ 2364
Tem@@ 2363
aris 2363
ling@@ 2363
Light@@ 2359
kit 2359
Near 2358
Turn@@ 2358
enzie 2358
ollar 2358
sponsor 2357
stal@@ 2357
Devon 2356
Simil@@ 2356
Tang@@ 2356
Bond 2355
Oce@@ 2355
Criminal 2354
Gene 2354
decis@@ 2354
ferred 2354
thal@@ 2354
Working 2352
Dri@@ 2351
inas 2351
organis@@ 2351
polic@@ 2351
woods 2351
P.@@ 2350
Springfield 2350
cup@@ 2350
gall@@ 2350
Hell 2349
Physical 2348
Warriors 2348
blind 2348
til@@ 2348
uba 2348
rays 2347
sky@@ 2347
andro 2346
Bish@@ 2345
Istanbul 2345
Guild 2344
Seminary 2344
Connec@@ 2343
cock 2343
fic@@ 2343
rano 2343
Never 2342
1842 2341
FF 2340
Inf@@ 2340
mas 2340
polis 2340
alo 2339
icon@@ 2339
theor@@ 2339
yne 2339
ï@@ 2338
Atl@@ 2337
Brook 2337
188@@ 2336
MI@@ 2336
Activ@@ 2335
asy 2335
uzz@@ 2334
icz 2333
lanes 2333
wen 2333
Exhibition 2332
Lex@@ 2332
Martha 2332
insula 2332
finale 2331
ycl@@ 2331
trem@@ 2330
uki 2330
Monte 2329
Ut@@ 2329
amation 2328
bun@@ 2328
35@@ 2327
intel@@ 2327
persi@@ 2327
princip@@ 2327
umi 2327
Old@@ 2326
Sham@@ 2326
Just@@ 2325
anza 2325
CIA 2324
ID 2324
ligent 2324
1843 2323
amba 2323
rels 2323
Copa 2322
Enter@@ 2322
Compar@@ 2321
ð@@ 2321
Judi@@ 2320
Aber@@ 2319
Seoul 2319
cluster 2318
effec@@ 2317
ll@@ 2317
Emb@@ 2316
Ve@@ 2316
appar@@ 2316
sville 2316
typ@@ 2316
Arti@@ 2315
Spor@@ 2315
Wyoming 2315
cles 2315
ME 2314
Zo@@ 2314
enor@@ 2314
question@@ 2314
Ellen 2313
contribut@@ 2313
minist@@ 2313
mom@@ 2313
Portsmouth 2312
avia 2312
Access 2311
beg@@ 2311
Fellowship 2310
aceuti@@ 2310
assis 2310
в@@ 2310
Recre@@ 2309
ht@@ 2309
oor 2309
ught 2309
Bit@@ 2308
kov 2308
Ris@@ 2307
eal@@ 2307
uta 2307
SV 2306
Theodore 2306
1815 2305
Change 2305
Train 2304
awi 2304
iven 2304
Poll@@ 2303
Richards 2303
ken@@ 2303
apart@@ 2302
fossil 2302
Manufac@@ 2301
Harper 2300
Kad@@ 2300
mineral 2300
EP@@ 2299
achers 2299
rah 2299
л@@ 2299
Frances 2298
Sacram@@ 2298
Johnston 2297
ba@@ 2297
opin@@ 2297
Full 2296
Speedway 2296
bian 2295
imming 2294
rams 2294
Cohen 2293
Miss@@ 2293
NT@@ 2293
izer 2292
Sweet 2291
aan 2291
brut@@ 2291
conserv@@ 2291
mes@@ 2291
propaganda 2291
wil@@ 2291
bourne 2290
ole@@ 2289
Baltic 2288
wark 2288
Bob@@ 2287
liver 2287
skel@@ 2287
stant 2287
1835 2286
IF@@ 2286
bits 2286
philosop@@ 2286
Č@@ 2286
recover@@ 2285
Beyond 2284
Journ@@ 2284
Rocky 2284
eli 2284
frequ@@ 2284
Respon@@ 2283
Stu@@ 2283
specim@@ 2283
Forbes 2282
Moses 2282
Sap@@ 2281
Adri@@ 2280
Directors 2280
favour@@ 2280
Banks 2279
forc@@ 2279
wet@@ 2279
Single 2278
rings 2278
Factory 2277
Kyle 2277
Stro@@ 2277
29@@ 2276
Carlo 2276
Dat@@ 2276
Diana 2276
Hed@@ 2276
Mercury 2276
Rich 2275
Self 2275
restric@@ 2275
substanti@@ 2275
Barnes 2274
Bath 2274
ael 2274
Bronze 2273
Deg@@ 2273
nia 2273
orum 2273
ywood 2273
figh@@ 2272
Elect@@ 2271
Lum@@ 2271
ahan 2271
smo@@ 2270
Hugo 2268
Manor 2268
pipe 2268
Chess 2267
Nacional 2267
Vall@@ 2267
osph@@ 2267
batter@@ 2266
dier 2266
judi@@ 2266
oul 2266
Euro 2265
fossi@@ 2265
story@@ 2265
Churchill 2264
Sever@@ 2264
Uz@@ 2264
edit@@ 2264
inge 2264
Faith 2263
Linda 2263
Max@@ 2263
PL@@ 2263
Style 2263
anan 2263
CT@@ 2262
Morrison 2262
Revie@@ 2262
eign@@ 2262
Inside 2261
Salem 2261
jug@@ 2261
lio 2261
ο@@ 2261
ATP 2260
División 2260
Haj@@ 2260
Statist@@ 2260
iko 2260
individu@@ 2260
inian 2260
Arctic 2259
prov@@ 2259
Differ@@ 2258
Tong@@ 2258
ere@@ 2258
streng@@ 2258
Learning 2257
Monroe 2257
aths 2257
eleg@@ 2257
vik 2257
Excell@@ 2256
leum 2256
tonn@@ 2256
Bros. 2255
Ulster 2255
atha 2255
bike 2254
dome 2254
28.@@ 2253
NASCAR 2253
eers 2253
geons 2253
Lines 2252
industri@@ 2252
occ@@ 2252
altar 2251
cili@@ 2250
nis 2250
Snow 2249
Vick@@ 2249
--@@ 2248
Baronet 2248
oline 2248
tained 2248
vening 2248
Cornell 2247
Parad@@ 2247
figur@@ 2247
museums 2247
minimal 2246
numer@@ 2246
Neill 2245
histor@@ 2245
eb 2244
loyal 2244
regiments 2244
rio 2244
Gujar@@ 2243
Web 2243
itter 2243
Are@@ 2242
SF@@ 2242
Watch 2242
babwe 2242
hil@@ 2242
sively 2242
Chel@@ 2241
custom@@ 2241
Prison 2240
Jav@@ 2239
ochem@@ 2239
respondent 2239
rogen 2239
thal 2239
Hawai@@ 2238
Step@@ 2238
bos@@ 2238
connec@@ 2238
Lil@@ 2237
Store 2237
airo 2237
andin@@ 2237
Greg@@ 2236
deliver@@ 2236
issioner 2236
ør@@ 2236
Leh@@ 2235
Lit@@ 2235
Sex@@ 2235
igh 2235
Karen 2234
lu 2234
ross 2234
Champ@@ 2232
gin@@ 2232
Jacob@@ 2231
Rochester 2231
Leicester 2230
dle 2229
sul 2229
Burg@@ 2228
jin 2228
national@@ 2228
photograph@@ 2228
Angel@@ 2227
Apollo 2227
Haven 2227
Picture 2227
depot 2227
dim@@ 2227
ution@@ 2227
Mr@@ 2226
т@@ 2226
Online 2225
Syl@@ 2225
advert@@ 2225
ener 2225
roy 2225
ight@@ 2224
Jenn@@ 2223
Kend@@ 2223
ki@@ 2223
www.@@ 2223
Communic@@ 2222
annon 2221
Autom@@ 2220
Come 2220
Sons 2220
colle@@ 2220
22.@@ 2219
BE@@ 2219
uchi 2219
aru 2218
enes 2218
Gent@@ 2216
pup@@ 2216
Chuck 2215
alyp@@ 2215
Bj@@ 2214
Elliott 2214
epith@@ 2214
ouse 2214
oux 2214
Goth@@ 2213
Lynn 2213
Silva 2213
View 2213
erk@@ 2213
tended 2213
bli@@ 2212
Money 2211
Testament 2210
bis 2210
iciency 2210
icon 2210
keeper 2210
Gav@@ 2209
SB 2209
genet@@ 2209
stip@@ 2209
Canadi@@ 2208
chlor@@ 2208
dem 2207
ño 2207
Bast@@ 2206
lar 2206
Sheriff 2205
alen 2205
ț@@ 2205
Disc@@ 2204
Shu@@ 2204
premier@@ 2204
Nottingham 2203
appa 2203
oba 2203
Carol 2202
Record@@ 2202
privileg@@ 2202
theat@@ 2202
Jake 2201
Te 2201
Winnipeg 2201
Aberdeen 2200
Glenn 2200
slau@@ 2200
omotive 2199
syl@@ 2199
Combat 2198
Ott@@ 2198
foun@@ 2198
Level 2197
Tibet@@ 2196
kk@@ 2196
sla@@ 2196
Da 2195
ratic 2195
shaft 2195
Nobel 2194
UFC 2194
parade 2194
Devil 2193
lished 2193
neutr@@ 2193
omi 2193
uttle 2193
NA@@ 2192
² 2192
Celeb@@ 2191
Newman 2191
els@@ 2191
mathemati@@ 2191
1814 2190
Barn@@ 2190
categ@@ 2190
edo 2190
Fé@@ 2189
LO@@ 2189
Rever@@ 2189
elli@@ 2189
Gerald 2188
Islam@@ 2188
Lie@@ 2188
ń@@ 2188
Pion@@ 2187
asse 2187
Pharm@@ 2186
Software 2186
Goo@@ 2185
Burn@@ 2184
Lion 2184
SD@@ 2184
UP 2184
gency 2183
Marines 2182
bye 2182
nez 2181
Edwin 2179
Tip@@ 2179
endants 2179
к@@ 2179
Jesse 2178
Vale 2178
Myster@@ 2177
Steph@@ 2177
Del 2176
tribut@@ 2176
atti 2175
Associate 2174
Physi@@ 2174
adia 2174
egal 2174
Choice 2172
Hub@@ 2172
bour@@ 2172
1.6 2171
1834 2171
Bavaria 2171
Cat 2171
Santos 2171
Shin@@ 2171
dat@@ 2171
105 2170
Tos@@ 2170
ephal@@ 2170
preser@@ 2170
Democ@@ 2169
Julius 2169
Table 2169
issance 2169
Ludwig 2168
~ 2168
Annie 2167
Hell@@ 2167
Wyn@@ 2167
idan 2167
sax@@ 2167
yman 2167
amph@@ 2166
engu@@ 2166
erie 2166
meg@@ 2166
Lut@@ 2165
Nab@@ 2165
Patt@@ 2165
Raja 2165
Ballet 2164
Marx@@ 2164
Thames 2164
boun@@ 2164
yr 2164
IG@@ 2163
Industries 2163
Kids 2163
Nem@@ 2163
Woo@@ 2163
labor@@ 2163
interv@@ 2162
rot 2162
Corpor@@ 2161
Kid@@ 2161
National@@ 2161
1.1 2160
Heaven 2160
fan@@ 2160
ps@@ 2160
transpar@@ 2160
BL 2159
gew@@ 2159
ingham@@ 2159
itar@@ 2159
lap@@ 2158
BB@@ 2157
Kul@@ 2157
inson 2157
Antarctic 2156
Marion 2156
189@@ 2155
Walt 2154
esi 2154
Ecuador 2153
agn@@ 2153
rod 2153
appropri@@ 2152
nic@@ 2151
Mai@@ 2150
iger 2150
Ign@@ 2149
Mine 2149
racle 2149
oku 2148
parall@@ 2148
wald 2148
Ble@@ 2147
Grammar 2147
HA 2147
Rei@@ 2147
Chur@@ 2146
Emir@@ 2146
Myanmar 2146
CF 2145
Edgar 2145
Gru@@ 2145
Heinrich 2145
Zu@@ 2145
boxer 2145
certain@@ 2145
Schu@@ 2144
yang 2144
Glac@@ 2143
Hayes 2143
dol@@ 2143
Back@@ 2142
Emergency 2142
Vor@@ 2142
Gw@@ 2141
Index 2141
onds 2141
CW 2140
associ@@ 2140
Brother 2139
BO@@ 2137
Ek@@ 2137
esth@@ 2137
Colony 2136
Ds 2136
Hz 2136
Ladies 2135
Ord@@ 2135
anded 2135
rane 2135
Dorothy 2134
Dul@@ 2134
engers 2134
reb@@ 2134
shine 2134
abri@@ 2133
amen 2133
Bann@@ 2131
Dale 2131
Jeremy 2131
Louisville 2131
Yu 2131
fig@@ 2131
opter@@ 2131
quer@@ 2131
α@@ 2131
Great@@ 2130
oye 2130
Wander@@ 2129
Carn@@ 2128
Wimbledon 2128
Yugos@@ 2128
olit@@ 2128
Crawford 2127
Gospel 2127
divis@@ 2127
fa 2127
Happy 2125
akh@@ 2125
Carroll 2124
colum@@ 2124
ido 2124
immer 2124
Luxembourg 2123
irie 2123
Chiefs 2122
Peg@@ 2122
Ré@@ 2122
genu@@ 2122
t. 2122
DI@@ 2121
Hot@@ 2121
Hund@@ 2121
Twin 2121
Tel 2120
oming 2120
Ander@@ 2119
bu 2119
ór@@ 2119
Count@@ 2117
Grand@@ 2117
Malcolm 2117
Maritime 2117
Moz@@ 2117
Superior 2117
lens 2117
Clay@@ 2116
Ibn 2116
MW 2116
Speed 2116
Task 2116
Priv@@ 2115
Raiders 2115
gling 2115
Sherman 2114
Chenn@@ 2113
Hau@@ 2113
Jamie 2113
ku@@ 2113
tern@@ 2113
Lay@@ 2112
Patriots 2112
ariat 2112
tos 2112
trav@@ 2111
Marco 2109
ř@@ 2109
berger 2108
Burma 2107
GT 2107
cano 2107
entr@@ 2105
Ost@@ 2104
olk 2104
oshi 2104
uka 2104
Chic@@ 2103
Drake 2103
FO@@ 2103
Hast@@ 2103
Roth@@ 2103
bra 2103
cz@@ 2103
Zi@@ 2102
stran@@ 2102
Noth@@ 2101
rats 2101
Amar@@ 2100
Bug@@ 2100
Show@@ 2100
shan 2100
Charleston 2099
Doug 2099
Scout 2099
fat 2099
reck 2099
Victory 2098
alloc@@ 2098
chard 2098
Chr@@ 2097
Tet@@ 2097
Viv@@ 2097
beck 2097
1831 2096
Fall@@ 2096
Shadow 2096
én 2096
ult@@ 2095
Budapest 2094
Burke 2094
eze 2094
gly@@ 2094
Beatles 2093
Franc@@ 2093
eus 2093
Rak@@ 2092
illon 2092
Eri@@ 2091
Loy@@ 2091
Gas@@ 2090
Ho 2090
IB@@ 2090
bine 2090
Eye 2089
Janeiro 2089
Metal 2089
Wer@@ 2089
ń 2089
Blair 2088
Gay@@ 2088
L.@@ 2088
contr@@ 2088
Joshua 2086
haven 2086
lee 2086
hap@@ 2085
mission@@ 2085
woo@@ 2085
David@@ 2084
Chemical 2083
Programme 2083
seas 2083
Blan@@ 2082
entum 2082
Et@@ 2081
partner@@ 2081
Lop@@ 2080
nas@@ 2080
Ernst 2079
Vish@@ 2079
eti 2079
tenham 2079
Minneapolis 2078
Theory 2078
acr@@ 2078
ration@@ 2078
Claire 2077
Nuclear 2077
Well@@ 2077
Episode 2075
eback 2075
etimes 2075
Sed@@ 2074
Telec@@ 2074
inga 2074
Carnegie 2073
Glass 2072
Panthers 2072
owa 2072
Glen@@ 2071
John@@ 2071
opol@@ 2071
olith@@ 2070
Amp@@ 2069
Emp@@ 2069
Link 2069
Lip@@ 2069
Uruguay 2069
asma 2069
Rig@@ 2067
Thorn@@ 2067
ogo 2067
1820 2066
fund@@ 2066
recomm@@ 2066
Baldwin 2065
II@@ 2065
aco 2065
Madonna 2064
Raf@@ 2064
à@@ 2064
pent@@ 2063
ymn@@ 2063
Fat@@ 2062
Nixon 2062
120@@ 2061
Walsh 2061
liter@@ 2061
oko 2061
romos@@ 2061
Holocaust 2060
gia 2060
icide 2060
unter@@ 2060
Chang 2059
Set 2059
arin 2059
ández 2058
70@@ 2057
Romans 2057
Sty@@ 2057
Tag 2057
SF 2055
Mohammad 2054
Bibli@@ 2053
Pall@@ 2053
iden 2052
otta 2052
bek@@ 2051
endment 2051
Bach 2050
Cros@@ 2050
chur@@ 2050
struction 2050
Clay 2049
Dubai 2049
Syrac@@ 2049
dition 2049
AO@@ 2048
Riv@@ 2048
chant 2048
finger 2048
fortun@@ 2048
miner@@ 2048
patron@@ 2048
pression 2048
uru 2048
Aleks@@ 2047
án@@ 2047
102 2046
Batman 2046
zer@@ 2046
Kaw@@ 2045
Won@@ 2045
wara 2045
1833 2044
Kre@@ 2044
Logan 2044
bourg 2044
renov@@ 2044
Ferr@@ 2043
oper 2042
a.@@ 2041
ondo 2041
ès 2041
Kenny 2040
Presi@@ 2040
Telegra@@ 2040
arius 2040
3000 2039
Zero 2038
eder 2038
Solar 2037
aud 2037
dical 2037
Institution 2036
Saw@@ 2036
Nord@@ 2035
tem@@ 2035
Fire@@ 2034
obs 2034
Berry 2033
F.@@ 2033
Jas@@ 2033
Arms 2031
finan@@ 2031
Julie 2030
pot 2030
foli@@ 2029
tney 2027
ynam@@ 2027
Enterprise 2026
Residen@@ 2026
Yak@@ 2026
Jin 2025
Jo 2025
Magn@@ 2025
Strat@@ 2025
Wid@@ 2025
andra 2025
alie 2024
eover 2024
BE 2023
ky@@ 2023
Clara 2022
Edge 2022
CAF 2021
Falcon@@ 2021
Ghost 2021
Sebastian 2021
sist@@ 2021
Id@@ 2020
ny@@ 2020
dule 2019
fut@@ 2019
Willi@@ 2018
arran@@ 2018
} 2018
Pand@@ 2017
Vision 2017
sil 2017
Past@@ 2016
itime 2016
Swan@@ 2015
ambia 2015
yan@@ 2015
Half 2013
Ligh@@ 2013
Tun@@ 2013
ford@@ 2013
NT 2011
Wend@@ 2011
recei@@ 2011
T.@@ 2010
rets 2010
ą@@ 2010
Betty 2009
Johns 2009
Southampton 2009
Volume 2009
29.@@ 2008
Tap@@ 2008
190@@ 2007
ghton 2007
alcoh@@ 2005
.m. 2004
Fund@@ 2004
inist 2004
Sta@@ 2003
ald@@ 2003
dner 2003
hion 2003
chin 2002
rib@@ 2002
theast 2002
Hood 2001
mess@@ 2001
Planet 2000
alien 2000
fted 2000
inform@@ 2000
Andre@@ 1999
Joel 1999
cidents 1999
ourn@@ 1999
Alle@@ 1998
Temp@@ 1998
Willie 1998
ango 1998
getown 1996
ug 1996
Wick@@ 1995
Eliz@@ 1994
Hero 1994
cen@@ 1994
epti@@ 1994
fi 1994
rying 1993
750 1992
Augustus 1992
Guadal@@ 1992
SO 1992
Dag@@ 1991
Writ@@ 1991
eurs 1991
mult@@ 1991
propos@@ 1991
extrem@@ 1990
Isa@@ 1989
Merit 1989
mak@@ 1989
Nau@@ 1988
artic@@ 1988
aza 1988
ka@@ 1988
propag@@ 1988
Felix 1987
kur@@ 1987
ohn 1987
osi@@ 1987
rug@@ 1987
Que@@ 1985
Vie@@ 1985
adj@@ 1985
Francesco 1984
TO@@ 1984
theaters 1984
uman 1984
agne 1983
-- 1982
Ibra@@ 1982
asan 1982
comment 1982
Spir@@ 1980
ults 1980
Creative 1979
Fe 1979
anist 1979
arer 1979
ben 1979
fabri@@ 1979
pers@@ 1979
Fiction 1977
nice 1977
Boris 1976
TH@@ 1976
Oak@@ 1975
hist@@ 1975
provis@@ 1975
ruption 1975
voir 1975
Kurt 1974
Lob@@ 1974
N.@@ 1974
Vati@@ 1974
bombar@@ 1974
ende@@ 1974
Kok@@ 1973
Mohammed 1973
Ou@@ 1973
alley 1973
Georges 1972
Oh 1972
ookie 1972
reson@@ 1972
PT@@ 1971
True 1971
awar@@ 1971
tens 1971
Cay@@ 1970
Cowboys 1970
Sanskrit 1970
eps 1970
stru@@ 1970
Dylan 1969
Ral@@ 1969
Belarus 1968
Ferguson 1968
PG 1968
Monument 1967
30.@@ 1966
Asp@@ 1966
Fant@@ 1966
eson 1966
wand@@ 1966
Anton 1965
Expedition 1965
gery 1965
187@@ 1964
Bombay 1964
Jenk@@ 1964
Plus 1963
Bin@@ 1962
Fay@@ 1962
contributor 1961
Cler@@ 1960
Take 1960
hydrox@@ 1960
ár@@ 1960
Brad 1959
Wag@@ 1959
bund@@ 1959
Hung@@ 1958
omen 1958
aku 1957
Marathon 1955
Vander@@ 1955
nu 1955
36@@ 1954
Whitney 1954
deg@@ 1954
Sofia 1953
ffer 1953
ko@@ 1953
rode 1953
spur 1953
zin@@ 1953
Palm 1952
anarch@@ 1952
Fantasy 1950
Maxim@@ 1950
Trinidad 1950
sep@@ 1950
trainer 1950
Clo@@ 1949
Opp@@ 1949
Sir@@ 1949
nica 1949
vre 1949
Cs 1948
Yuan 1947
liday 1947
rar@@ 1947
tech 1947
Four@@ 1946
Marin@@ 1946
enab@@ 1946
ij@@ 1946
gla@@ 1945
orary 1945
1821 1944
Cres@@ 1944
Flin@@ 1944
GS 1944
Shan@@ 1944
Exp@@ 1943
Ril@@ 1943
revi@@ 1943
Body 1942
Rhin@@ 1942
Rodri@@ 1942
power@@ 1941
Bedford 1940
Generation 1939
Nah@@ 1939
bunal 1939
emy 1939
pupp@@ 1939
wo 1939
UNESCO 1938
than@@ 1938
Darwin 1937
Hydro@@ 1937
cott 1937
Garcia 1936
Adrian 1935
Kem@@ 1934
Tunes 1934
Providence 1933
Sanc@@ 1933
Cott@@ 1932
G.@@ 1932
Madag@@ 1932
Call 1931
Chan 1931
Floyd 1931
Mou@@ 1931
dipl@@ 1930
recep@@ 1930
TE 1929
enia 1929
rov@@ 1929
Daniel@@ 1928
e.@@ 1928
Roll 1927
jan@@ 1927
Thomson 1926
Terminal 1925
surround@@ 1925
Sara 1924
agua 1924
angel@@ 1924
1825 1923
itia 1923
Cort@@ 1922
MR@@ 1922
Vy@@ 1922
theastern 1922
Ž@@ 1922
itar 1920
38@@ 1919
Pak@@ 1919
Leipzig 1918
Sé@@ 1918
itzer 1918
Vernon 1917
plo@@ 1917
Jorge 1916
ux@@ 1916
hin 1915
Tali@@ 1913
Mog@@ 1912
exper@@ 1912
igar@@ 1911
loo 1911
Prin@@ 1910
ulture 1909
104 1908
invasi@@ 1908
Kw@@ 1907
Baz@@ 1906
Electronic 1906
1828 1905
Anat@@ 1905
Partners 1905
Sex 1905
lung 1905
Gay 1904
Roh@@ 1904
hara 1904
implem@@ 1904
Galax@@ 1903
Snow@@ 1903
Cloud 1902
Gat@@ 1902
Los@@ 1902
Neur@@ 1902
codi@@ 1902
establ@@ 1901
methyl@@ 1901
Monter@@ 1900
ient 1900
DM@@ 1899
Ferry 1899
Linux 1899
Rit@@ 1899
UP@@ 1899
Altern@@ 1898
Coron@@ 1898
Derek 1898
Philharmon@@ 1898
ought 1898
hus@@ 1897
mass@@ 1897
Fuj@@ 1896
chen@@ 1896
Herman 1895
hao 1895
mans 1895
1810 1894
Bach@@ 1894
Maxwell 1894
will@@ 1894
SR@@ 1893
dison 1893
lich@@ 1893
Vinc@@ 1892
bau@@ 1891
rist 1891
Kav@@ 1890
Basel 1887
IF 1886
utionary 1886
Mail 1885
Sov@@ 1885
ede 1885
Phase 1884
Rica 1884
Hid@@ 1883
Joh@@ 1883
Mind 1883
177@@ 1882
Smith@@ 1882
Denis 1881
10,@@ 1880
Santo 1880
UTC 1879
deon 1879
ios 1878
Match 1877
Stan 1876
Bruno 1874
Heavy 1874
Tales 1874
etus 1874
sortium 1874
Buddha 1873
Mali@@ 1873
entor 1873
ounced 1873
García 1872
Papua 1872
ebo@@ 1872
hun@@ 1872
ything 1872
ark 1871
restor@@ 1871
ć@@ 1871
Worcester 1870
burgh 1870
orus 1869
Flet@@ 1867
Lep@@ 1867
rit 1867
thi 1867
Icel@@ 1866
Boll@@ 1865
pin@@ 1865
AU 1864
Il 1863
Hits 1862
angu@@ 1862
İ@@ 1862
Wings 1861
anning 1861
eine 1861
1824 1860
Editor 1860
Winston 1860
forts 1860
intensi@@ 1860
tiful 1860
ilda 1859
Rafael 1858
Senators 1858
antes 1858
chair@@ 1858
hym@@ 1858
ymnast@@ 1858
Pati@@ 1857
gas@@ 1857
Hondur@@ 1856
Kie@@ 1856
ellen@@ 1856
Neu@@ 1855
Ped@@ 1855
bloc@@ 1855
Kid 1854
hardt 1854
GE@@ 1852
KO 1852
foc@@ 1851
substan@@ 1851
urai 1851
Hardy 1850
Ide@@ 1850
Milli@@ 1850
Quarter@@ 1850
dt 1850
Bill@@ 1849
Integ@@ 1849
conventi@@ 1848
instrument@@ 1848
omor@@ 1848
stra 1848
Michelle 1847
Netflix 1847
Mar 1846
Nath@@ 1846
fluor@@ 1846
isk 1846
pert 1846
Mann 1845
aik@@ 1845
lor 1845
ources 1845
Mold@@ 1844
Nad@@ 1844
Rank@@ 1844
Siege 1844
atz 1844
ingers 1844
intellec@@ 1844
winter@@ 1844
Initiative 1843
Offic@@ 1843
Organisation 1843
thly 1843
thy@@ 1843
Engine@@ 1842
Meyer 1841
ë 1841
Gibraltar 1840
Toyota 1840
ingrad 1840
Kri@@ 1839
sank 1839
Ç@@ 1839
Or 1838
Walk 1838
dient 1838
oway 1837
yar@@ 1836
1829 1835
Ax@@ 1835
Greene 1835
Pseud@@ 1835
cium 1834
Break@@ 1833
advent@@ 1833
athon 1833
uto 1832
Mult@@ 1831
atten@@ 1831
1813 1830
Bé@@ 1830
SA@@ 1830
apa 1830
Dut@@ 1829
Mercedes 1829
Fa@@ 1828
agi 1828
commod@@ 1828
etter 1828
Flu@@ 1827
anatom@@ 1827
depos@@ 1827
Tunnel 1826
PD 1825
insec@@ 1825
,@@ 1824
Dynam@@ 1824
Hard 1824
Rox@@ 1824
olds 1824
ril 1824
uro 1824
Potter 1823
Coleman 1822
asons 1822
én@@ 1822
anco 1821
Sind@@ 1820
450 1819
Fla@@ 1819
Helena 1819
Wein@@ 1819
Die@@ 1818
cals 1818
atsu 1817
Bart@@ 1816
Francis@@ 1816
Jets 1816
Ster@@ 1816
Timothy 1816
Rebec@@ 1815
tis 1815
Bott@@ 1814
slow@@ 1814
contin@@ 1813
HT@@ 1812
Honda 1812
igu@@ 1811
anas 1809
fif@@ 1809
ellip@@ 1808
phr@@ 1808
Gast@@ 1807
anton 1807
Luther 1806
Soc@@ 1806
Wolf@@ 1806
isl@@ 1806
90@@ 1805
Castro 1805
Mind@@ 1805
Nikol@@ 1805
Alternative 1804
Bav@@ 1804
Simm@@ 1804
List@@ 1803
SG 1803
icians 1803
regim@@ 1803
Baden 1802
intensive 1802
umph 1802
Guatemala 1801
Sent@@ 1801
ingu@@ 1801
Ś@@ 1800
1806 1799
tow@@ 1799
ET@@ 1798
dun@@ 1798
185@@ 1797
Co. 1797
Hiro@@ 1797
Philippe 1797
103 1796
dens 1796
170 1795
Hannah 1795
Montenegro 1795
Kay 1794
athlon 1794
abin@@ 1792
Gas 1791
mary 1791
rak@@ 1791
Hud@@ 1790
Morton 1790
bei 1790
nu@@ 1790
ovic 1790
uter@@ 1790
μ@@ 1790
1818 1789
Kenn@@ 1789
Kis@@ 1789
Nicolas 1789
Underground 1789
ysis 1789
Glad@@ 1788
Lik@@ 1788
Set@@ 1788
Bank@@ 1787
Fried@@ 1787
UR@@ 1787
ambigu@@ 1787
Roberto 1786
bler 1786
Ana 1785
Buff@@ 1785
Jackie 1785
Soundtrack 1785
encoun@@ 1785
stad 1785
ample 1783
stitution 1782
Iron@@ 1780
abe@@ 1780
capac@@ 1780
compens@@ 1780
ns@@ 1780
Asc@@ 1779
utation 1779
Monte@@ 1778
Andr@@ 1777
Liz@@ 1777
108 1776
cue 1776
Lima 1775
Pem@@ 1775
nership 1775
liga 1774
1826 1773
Pink 1773
sher@@ 1773
lor@@ 1772
Hermann 1770
enth 1770
Adolf 1769
pension 1769
rina 1769
López 1768
rau@@ 1767
Ley@@ 1766
oc 1766
toire 1766
ystal 1766
186@@ 1765
tan 1765
Mort@@ 1764
habet 1764
zan 1764
111 1763
Georg 1763
amas 1762
amin 1762
fing 1761
mel 1761
quez 1761
Homer 1760
MS@@ 1760
Toledo 1760
gem@@ 1760
Cé@@ 1759
ritu@@ 1759
106 1758
Scor@@ 1758
dru@@ 1758
stadt 1758
Alberto 1757
Card 1757
Roch@@ 1757
WT@@ 1757
Marath@@ 1756
Xavier 1756
dition@@ 1756
EM 1755
Lou 1755
MHz 1755
Night@@ 1755
last@@ 1755
té 1755
MT@@ 1754
arily 1754
Geoff@@ 1753
sequent 1752
fielder 1751
stur@@ 1751
Analysis 1749
Stran@@ 1749
Xbox 1749
Yas@@ 1749
Kö@@ 1748
auer 1748
ciples 1748
olls 1748
asaki 1746
etz 1746
Form@@ 1745
cc@@ 1745
Micha@@ 1744
Vig@@ 1744
enstein 1744
garten 1743
Imag@@ 1742
Kub@@ 1742
Poli@@ 1742
Venezu@@ 1742
eid 1742
was@@ 1741
Deutsche 1740
GC 1740
round@@ 1740
180@@ 1739
Admir@@ 1739
orn@@ 1739
sau@@ 1739
Trans 1738
Singer 1737
rite 1737
Ō@@ 1737
Jessica 1736
Reh@@ 1736
desig@@ 1736
kor@@ 1736
Belle 1735
Sidney 1735
Tud@@ 1735
enge 1735
ö 1735
FF@@ 1734
Patricia 1734
Stef@@ 1734
Kod@@ 1733
Slam 1733
astery 1733
depend@@ 1733
dex@@ 1733
gang@@ 1733
Bundesliga 1732
Develop@@ 1732
Motion 1732
hir 1732
KA 1731
O.@@ 1731
pts 1731
Fred@@ 1730
Yok@@ 1730
ago@@ 1730
Nie@@ 1728
Ud@@ 1728
osaurus 1728
ʼ@@ 1728
Tig@@ 1727
harm@@ 1727
Nil@@ 1726
Tha@@ 1726
inhab@@ 1726
Zur@@ 1725
anter@@ 1725
synchron@@ 1725
vul@@ 1725
Kak@@ 1723
Yuk@@ 1723
Get@@ 1722
einer 1722
onally 1722
1801 1721
220 1721
ISO 1721
andi 1721
candid@@ 1721
rd 1721
vet@@ 1721
Raw@@ 1720
Sie@@ 1720
Was@@ 1720
iden@@ 1720
sprint 1720
Aviv 1718
Hack@@ 1718
ophy@@ 1718
Afric@@ 1717
Europa 1717
Male 1717
Maya 1717
Venet@@ 1717
max 1717
otti 1717
ahn 1716
bein@@ 1716
sexu@@ 1716
Anth@@ 1715
Bergen 1715
Chat@@ 1715
Moder@@ 1715
Jab@@ 1714
Mig@@ 1714
Niz@@ 1714
mediate 1714
contem@@ 1713
Polit@@ 1712
jung@@ 1712
är@@ 1712
eor@@ 1708
ú 1708
tar 1707
PP@@ 1706
atmosph@@ 1706
ornam@@ 1706
Lok 1705
deo 1705
pound 1705
teamm@@ 1705
ahi 1704
antis@@ 1704
hart 1704
ilian 1704
programm@@ 1704
virtu@@ 1704
Mom@@ 1703
anu 1703
Heb@@ 1702
Johannes 1702
epis@@ 1702
republi@@ 1702
xis 1702
method@@ 1700
rolog@@ 1700
Sophie 1699
facto 1699
twel@@ 1699
Stefan 1698
Stir@@ 1698
rik 1698
ulum 1698
β 1698
Colon@@ 1697
Perf@@ 1697
Winter@@ 1697
oya 1697
rene 1697
risis 1697
Gle@@ 1696
Lew@@ 1696
Hist@@ 1695
MIT 1695
Ts@@ 1695
UCI 1695
grat@@ 1694
112 1693
Caesar 1693
Pablo 1693
algorith@@ 1693
cath@@ 1693
ld 1693
EL@@ 1692
Tin@@ 1692
Carol@@ 1691
DM 1691
child@@ 1691
fest@@ 1691
vot@@ 1691
Dog@@ 1690
Tay@@ 1690
Initi@@ 1689
Spring@@ 1689
yland 1689
CL@@ 1688
alter 1688
myst@@ 1688
Fif@@ 1687
evangel@@ 1687
Va@@ 1686
MT 1685
Matthe@@ 1685
absol@@ 1685
etor@@ 1685
gover@@ 1685
lon 1685
Roland 1684
ocar@@ 1684
onc@@ 1684
Pam@@ 1683
osyn@@ 1683
115 1682
Power@@ 1682
announ@@ 1682
owo 1682
Christine 1681
Eb@@ 1681
curr@@ 1681
1819 1680
CI 1680
SK 1680
Henri@@ 1679
Isl@@ 1679
aar 1679
adul@@ 1678
Horn 1677
betra@@ 1677
aurus 1676
entin 1676
dorf 1675
Alexandra 1674
Helsinki 1674
Nazis 1674
dens@@ 1674
halt 1674
lins 1673
offic@@ 1673
Blin@@ 1672
mos 1672
pneum@@ 1672
SH@@ 1671
Song@@ 1671
wal 1671
109 1670
admir@@ 1670
sse 1670
45@@ 1669
5000 1669
Desig@@ 1669
Mant@@ 1669
erc@@ 1669
kshire 1669
vertheless 1669
Chau@@ 1668
Nou@@ 1668
Treat@@ 1668
ani@@ 1668
1809 1667
Euro@@ 1667
Navar@@ 1667
Horiz@@ 1666
urity 1666
Iz@@ 1665
Open@@ 1665
arez 1665
ener@@ 1665
Erik 1664
Stalin 1664
ladi@@ 1664
ʻ@@ 1664
Kill@@ 1663
TR@@ 1663
isch 1663
Huss@@ 1662
Lt@@ 1662
Ner@@ 1662
ل@@ 1662
Sach@@ 1660
IL@@ 1659
Iber@@ 1659
Kell@@ 1659
Key@@ 1659
della 1659
oz 1659
eville 1658
distinc@@ 1657
dos 1657
fant@@ 1657
maxim@@ 1657
Less@@ 1656
Pes@@ 1656
ief 1656
omorph@@ 1656
bak@@ 1655
otte 1655
Hang@@ 1654
Rey 1654
gram 1653
IN 1652
arte 1652
erv@@ 1652
Ethn@@ 1651
Zagreb 1651
giate 1651
ammer 1650
call@@ 1650
ers@@ 1650
gath@@ 1649
rer@@ 1649
ς 1649
Pag@@ 1648
guez 1648
hous@@ 1648
rut 1648
Advis@@ 1647
Conrad 1647
four@@ 1646
sein 1645
usses 1645
DB 1644
graded 1644
128 1643
ński 1642
induc@@ 1641
1816 1640
Miz@@ 1640
Hey@@ 1639
Nielsen 1639
Cord@@ 1638
Kras@@ 1638
kas 1638
estim@@ 1637
Stur@@ 1636
Veg@@ 1636
Wan@@ 1636
González 1635
Ring@@ 1635
Olymp@@ 1634
forum 1634
Bapti@@ 1633
DV@@ 1633
fj@@ 1633
Cock@@ 1632
Litt@@ 1632
Primera 1632
Secret@@ 1632
Viscount 1632
crete 1632
fts@@ 1632
sberg 1632
ude 1632
nik@@ 1631
Moor@@ 1630
Motors 1630
estic 1630
vs 1630
Antoine 1629
Wed@@ 1629
ador 1629
este 1629
import@@ 1627
ofs 1626
Agnes 1625
Schwar@@ 1625
mately 1625
ossi@@ 1625
A1 1624
Butter@@ 1624
Pie@@ 1624
arre@@ 1624
ds@@ 1624
135 1623
37@@ 1623
isher 1623
uv@@ 1623
Antwer@@ 1622
Ces@@ 1622
Hein@@ 1622
Kov@@ 1622
Span@@ 1622
oso 1622
Princip@@ 1621
onomous 1621
premi@@ 1621
aise 1620
analog 1620
gressional 1620
Bass@@ 1619
Lanc@@ 1619
demic 1619
Giuseppe 1618
Inqu@@ 1618
ign 1618
1822 1617
1827 1617
Di 1617
1817 1616
heimer 1616
33@@ 1615
Ambro@@ 1615
Baron@@ 1615
Beck 1615
Phant@@ 1615
Lom@@ 1614
overn@@ 1614
Hand 1612
MB 1611
½ 1611
bay@@ 1609
dell 1609
oly@@ 1609
prin@@ 1609
1803 1608
Roma 1608
Revol@@ 1607
ege 1607
elo 1607
ă 1607
34@@ 1606
Barb@@ 1606
Opposition 1606
Dresden 1605
Angola 1604
zier 1604
discuss@@ 1603
hang 1603
Ug@@ 1602
ehic@@ 1602
ène 1602
Auto 1601
Sey@@ 1601
DR@@ 1599
schedul@@ 1599
elf 1598
inct 1598
vert@@ 1598
Wig@@ 1597
uren 1597
earth@@ 1596
1823 1595
Centr@@ 1594
Belie@@ 1593
bered 1593
circa 1593
mati@@ 1593
Adi@@ 1592
Android 1592
Australi@@ 1592
Der 1592
Zoo 1592
tempor@@ 1592
Lug@@ 1591
Kob@@ 1590
condem@@ 1590
event@@ 1590
Real@@ 1589
enst@@ 1589
Jup@@ 1588
filter 1588
BW@@ 1587
GO@@ 1587
Sym@@ 1587
ockey 1587
Fru@@ 1586
fast@@ 1586
ifa 1586
odore 1586
Hip 1585
Jord@@ 1585
eties 1585
CB 1584
birth@@ 1584
Coch@@ 1583
cken 1583
therap@@ 1583
ān 1583
cester 1582
san 1582
tos@@ 1582
visu@@ 1582
elta 1581
Protest@@ 1580
1793 1579
Hop 1579
aup@@ 1578
Flora 1577
Plant@@ 1577
Bent@@ 1576
experi@@ 1576
exten@@ 1576
Innovation 1575
Miy@@ 1575
ancellor 1575
sv@@ 1575
1804 1574
Bask@@ 1574
Rudolf 1574
Zor@@ 1574
12,@@ 1573
Gang 1573
orio 1573
1794 1572
ité 1572
mina 1572
ppo 1572
1811 1571
Fili@@ 1570
Sup@@ 1570
León 1569
asso 1569
boar@@ 1569
leh@@ 1569
itas 1568
Valencia 1567
itment 1567
iversary 1567
mobili@@ 1567
Alg@@ 1566
Folk 1566
olis 1566
107 1565
Vul@@ 1565
aggreg@@ 1565
gru@@ 1565
represent@@ 1565
Ferrari 1564
commissi@@ 1564
Má@@ 1563
decl@@ 1563
AX 1562
ien@@ 1562
Dak@@ 1561
Dmit@@ 1561
Habit@@ 1561
dex 1561
excell@@ 1561
icken 1561
Angela 1560
Jagu@@ 1560
Rebellion 1560
uz 1560
AW@@ 1559
gren 1559
ild 1559
rt 1559
tre 1559
afa 1558
jav@@ 1558
zuki 1558
τ@@ 1558
mei@@ 1557
ophyl@@ 1557
а 1557
Baj@@ 1556
Ere@@ 1556
Zen@@ 1556
ación 1556
ever@@ 1556
predec@@ 1556
Kro@@ 1554
Vog@@ 1554
blin@@ 1554
hn@@ 1554
Augusta 1552
Hosp@@ 1552
Vu@@ 1552
hung 1552
unbe@@ 1552
Elli@@ 1550
LS 1550
Marina 1550
Missi@@ 1550
124@@ 1549
omen@@ 1549
warf 1549
Lambert 1548
ften 1548
nom@@ 1548
1807 1545
Du 1545
ollen 1545
oman 1545
upp@@ 1545
Kut@@ 1544
preh@@ 1543
Johan 1542
iker 1542
Nis@@ 1541
ipe 1541
liturg@@ 1541
Hoff@@ 1540
amoto 1540
Mixed 1538
eria 1538
ě@@ 1538
Eva 1537
Bangkok 1536
Elite 1536
Doh@@ 1534
Hipp@@ 1534
nich@@ 1534
ís 1534
Italia 1533
immer@@ 1533
volunte@@ 1533
ρ@@ 1533
BR@@ 1532
luc@@ 1532
11,@@ 1531
Ent@@ 1531
Venus 1531
Assi@@ 1530
1795 1529
Flo@@ 1529
Zul@@ 1529
sertation 1529
ż@@ 1529
Infra@@ 1528
Gog@@ 1527
stock@@ 1527
Bass 1526
Diam@@ 1526
Sek@@ 1526
ères 1526
Zel@@ 1525
Rodríguez 1524
indi@@ 1524
1805 1523
incre@@ 1523
utter 1523
concer@@ 1522
wr@@ 1522
Cun@@ 1521
glomer@@ 1520
tian 1520
47@@ 1519
Jah@@ 1519
helicop@@ 1519
rack 1519
1808 1518
ER 1518
Promotion 1518
bek 1518
raft 1518
Carmen 1517
Lang 1517
inclu@@ 1517
Antarc@@ 1516
Osaka 1516
agi@@ 1516
discrimin@@ 1516
Bey@@ 1515
Inst@@ 1515
Klein 1515
lug@@ 1515
materi@@ 1515
cum 1514
Cz@@ 1513
umental 1513
portal 1512
AK@@ 1511
Gabri@@ 1511
Jama@@ 1511
Porto 1510
billi@@ 1510
eist@@ 1510
rand@@ 1510
Lorenzo 1509
Von 1509
ahl 1509
Bam@@ 1508
Ind@@ 1508
iqu@@ 1508
mun@@ 1508
î@@ 1508
Nol@@ 1507
Schmidt 1507
listen@@ 1507
ophysi@@ 1507
sten@@ 1507
Alber@@ 1506
Nel@@ 1505
Angelo 1504
homosexu@@ 1504
Cic@@ 1502
Maf@@ 1502
Zap@@ 1502
39@@ 1501
aber 1501
acio 1501
kel 1500
ono 1500
Rib@@ 1499
emann 1499
qi 1499
univers@@ 1499
1802 1498
Dipl@@ 1498
Publ@@ 1498
ako 1498
inth@@ 1498
iza 1498
expan@@ 1497
normal@@ 1497
accord@@ 1496
Gob@@ 1495
Mund@@ 1495
ES 1494
Hansen 1494
Pach@@ 1494
travel@@ 1494
Resolution 1493
ferences 1493
Belar@@ 1492
Jubil@@ 1492
Stal@@ 1492
Brom@@ 1491
acknowle@@ 1491
Premier@@ 1490
anny 1490
ilo 1490
You@@ 1489
1792 1488
Stru@@ 1488
Boc@@ 1487
Paraguay 1487
sour@@ 1487
1798 1486
Comic 1486
Turin 1486
a. 1486
Re 1485
Volleyball 1485
appoint@@ 1485
atum 1485
Compet@@ 1484
Lein@@ 1484
otechn@@ 1484
ahl@@ 1482
iner@@ 1482
Guer@@ 1481
Hap@@ 1481
Foot@@ 1480
Gustav 1479
legitim@@ 1479
unic@@ 1479
floo@@ 1478
htt@@ 1478
1790 1476
fo 1476
plast@@ 1476
Harmon@@ 1475
radio@@ 1475
Airways 1474
Chrys@@ 1474
Grig@@ 1474
Mell@@ 1474
owitz 1474
pects 1474
Names 1473
Piano 1473
Tren@@ 1472
avier 1472
listen 1471
nee 1471
ystem 1471
BR 1468
Templ@@ 1468
refuge@@ 1468
Andreas 1466
fres@@ 1466
target@@ 1466
Stuttgart 1465
Epis@@ 1464
ffer@@ 1464
Phili@@ 1463
eins 1463
ym 1462
atie 1461
zen@@ 1461
spra@@ 1460
René 1459
Ski 1459
subsidi@@ 1459
Kick@@ 1458
ige 1458
Isabella 1457
Peters 1457
amoun@@ 1457
Elisabeth 1456
Na 1456
Sult@@ 1456
Was 1455
loses 1455
ultural 1455
Adap@@ 1454
ourney 1454
Jung@@ 1453
Week@@ 1453
besie@@ 1453
ozo@@ 1453
sig@@ 1452
bro 1451
oni@@ 1450
ospel 1450
versy 1449
113 1448
Koh@@ 1448
Weber 1448
Lombar@@ 1446
Monster 1445
libr@@ 1445
po 1445
Stand 1444
liam@@ 1444
Pius 1443
stent 1443
Intel@@ 1442
nost@@ 1442
ographi@@ 1441
Atlas 1440
Regist@@ 1440
entist 1440
Paralymp@@ 1439
alth@@ 1439
apost@@ 1439
iller@@ 1438
Austr@@ 1436
Avi@@ 1436
Å@@ 1436
Pole 1435
Progr@@ 1435
Reich 1435
erh@@ 1434
Marketing 1433
bei@@ 1433
Beat 1432
butions 1432
Cornel@@ 1431
defe@@ 1431
hibition 1431
Langu@@ 1430
Challenger 1429
Das 1429
Sán@@ 1429
zzo 1429
1789 1428
BMW 1428
Nit@@ 1427
guil@@ 1427
gab@@ 1426
Exper@@ 1425
bry@@ 1425
nith@@ 1425
д@@ 1425
Oh@@ 1424
admiral 1424
business@@ 1424
voy@@ 1424
blast 1423
184@@ 1422
PN@@ 1421
auses 1421
Ib@@ 1420
Sonn@@ 1420
Volks@@ 1420
ellite 1420
Jenny 1419
Schul@@ 1419
Experim@@ 1418
Transl@@ 1418
HK 1417
Leopold 1417
Standards 1417
wed@@ 1417
inaugur@@ 1414
lich 1414
hammer 1413
dor 1412
occurr@@ 1412
Isra@@ 1411
lé@@ 1410
omer@@ 1410
ricts 1410
1796 1408
Ordin@@ 1407
answ@@ 1407
ilst 1407
ège 1407
117 1406
ogen 1406
tent@@ 1406
Hug@@ 1405
aq 1405
isse 1405
jana 1405
uch 1405
ü 1405
isch@@ 1404
13,@@ 1403
pa@@ 1403
ppen 1403
egra@@ 1402
Pis@@ 1401
magnet@@ 1401
Nord 1400
Hisp@@ 1399
Phar@@ 1399
thum@@ 1399
Fischer 1398
Sok@@ 1398
forcement 1398
Josef 1397
rei@@ 1397
rom 1397
Marx 1396
Sophia 1395
ets@@ 1395
obil@@ 1395
ovi@@ 1395
Hyper@@ 1393
Divis@@ 1392
loo@@ 1392
abl@@ 1391
uters 1391
Lus@@ 1390
Brenn@@ 1389
Hyp@@ 1389
Namibia 1389
Schum@@ 1389
earch 1389
Hé@@ 1387
Mim@@ 1387
kr@@ 1387
175 1386
Edith 1386
Inv@@ 1386
Matt@@ 1385
aldo 1385
beet@@ 1385
č 1385
Bologna 1384
Illustr@@ 1384
depar@@ 1384
gir@@ 1384
bru@@ 1383
lings 1383
1797 1381
1799 1381
Via 1381
aden@@ 1380
azzo 1380
ongs 1380
AV 1379
ameter 1379
boot 1379
Nim@@ 1378
für 1378
put@@ 1378
Fritz 1377
inci@@ 1377
ricity 1377
cht 1376
jar@@ 1376
Tas@@ 1375
eim 1375
rang 1375
Bec@@ 1374
Nina 1374
ová 1374
ι@@ 1374
Entry 1373
Olympi@@ 1373
ectural 1373
ength 1373
Event 1372
Monaco 1372
enbach 1372
ework 1369
rone 1369
240 1368
Gust@@ 1368
Kamp@@ 1368
anie 1368
rift 1368
Bub@@ 1367
DF@@ 1367
ios@@ 1367
semin@@ 1367
Crew 1366
Dil@@ 1366
bec@@ 1365
ellowship 1365
wol@@ 1364
· 1364
1600 1363
endi@@ 1363
Gou@@ 1360
122 1359
Moroc@@ 1359
Kru@@ 1358
repor@@ 1358
16,@@ 1357
preme 1357
Bosn@@ 1356
anos 1356
bution 1356
convinc@@ 1356
kenn@@ 1356
48@@ 1355
kowski 1355
Brett 1354
Cannes 1354
Relief 1354
agre@@ 1354
poses 1354
vey 1354
Massi@@ 1353
Renault 1353
trag@@ 1352
Kau@@ 1350
Promot@@ 1350
bomb@@ 1350
juris@@ 1350
Mob@@ 1349
Schw@@ 1347
oxy@@ 1347
Christina 1346
Muh@@ 1346
station@@ 1346
BB 1345
anni 1345
ayed 1345
gler 1344
14,@@ 1342
Edu@@ 1342
Jung 1342
Thom@@ 1342
ise@@ 1341
Stern 1340
Finn@@ 1339
kne@@ 1338
Pist@@ 1337
https 1337
oulder 1337
aison 1336
mund@@ 1336
produc@@ 1336
Rau@@ 1335
ince 1335
owle@@ 1335
pren@@ 1335
Plateau 1334
mund 1334
Gly@@ 1331
46@@ 1330
Programm@@ 1330
Joseph@@ 1329
Dé@@ 1328
Reformation 1328
Stephan@@ 1328
assign@@ 1328
chef 1328
Per 1327
isher@@ 1327
tural 1327
Rath@@ 1326
asch@@ 1325
đ@@ 1325
Depot 1324
Giuli@@ 1324
Gug@@ 1324
Des 1323
öl@@ 1323
ón@@ 1322
114 1321
aal 1321
view@@ 1321
Pilot 1320
ourt 1320
1776 1319
aun 1319
jing 1319
node 1319
uf 1317
119@@ 1316
Agent 1316
1200 1315
Aar@@ 1315
′ 1315
FS 1314
Nassau 1314
Sob@@ 1314
arf 1314
Columb@@ 1313
Lok@@ 1311
Solo 1311
15,@@ 1310
Ler@@ 1310
atorium 1309
Eisenh@@ 1308
École 1308
Brand 1307
MG 1307
deck@@ 1307
Amé@@ 1306
183@@ 1305
Test@@ 1305
ometer 1305
1783 1304
ting@@ 1304
124 1303
Val 1303
121 1302
Marcel 1300
irm@@ 1300
Herr@@ 1299
Eis@@ 1297
digit@@ 1297
Clubs 1295
athan 1295
116 1294
Abd@@ 1294
Kai 1294
Romeo 1294
Ell@@ 1293
Thess@@ 1293
123 1292
Ask@@ 1292
Lach@@ 1292
1791 1290
Amb@@ 1290
Rhyth@@ 1290
wen@@ 1290
Mozart 1289
Fast 1288
Got@@ 1287
Kop@@ 1287
Agr@@ 1286
Aless@@ 1286
Rin@@ 1286
» 1286
ultur@@ 1285
Ald@@ 1284
K.@@ 1284
mad 1284
Form 1283
onde 1283
127 1282
Aristot@@ 1282
Build@@ 1282
õ@@ 1281
Administ@@ 1280
Intern@@ 1280
Version 1280
hausen 1280
Adel@@ 1279
Jules 1279
titude 1279
elig@@ 1278
kee 1278
torped@@ 1278
VE@@ 1277
210 1276
Format 1276
esz@@ 1276
AK 1275
ific 1275
Nest@@ 1274
1775 1273
Caf@@ 1273
Thé@@ 1273
ý 1273
Wen@@ 1272
Busch 1271
ammed 1271
czy@@ 1271
mov@@ 1271
Neb@@ 1270
geb@@ 1270
orter 1270
Tum@@ 1268
« 1267
Eil@@ 1266
Mayer 1266
Ank@@ 1265
preci@@ 1265
then@@ 1265
Ş@@ 1265
126 1264
190 1264
some@@ 1264
Hammer@@ 1263
garde 1263
other@@ 1262
Deleg@@ 1261
Ern@@ 1261
alier 1261
asph@@ 1261
zia 1261
favor@@ 1260
Paw@@ 1259
ça 1259
ş 1259
ε@@ 1259
118 1258
Rim@@ 1258
possi@@ 1258
inking 1257
leis@@ 1257
Ensemble 1255
GE 1255
reau 1255
riet 1255
imal 1254
angs@@ 1253
Happ@@ 1251
expos@@ 1251
caus@@ 1250
therape@@ 1250
øn@@ 1250
32@@ 1249
Mans 1249
Wikipedia 1249
ende 1249
aissance 1248
iddle 1247
vern@@ 1247
17,@@ 1246
1780 1245
Rotterdam 1245
Sant 1245
ident@@ 1245
Fren@@ 1244
efs 1244
ritten 1244
curric@@ 1243
Sequ@@ 1242
itius 1242
ween 1242
Sit@@ 1241
Teh@@ 1241
Gö@@ 1240
eman@@ 1240
Vand@@ 1239
kinder@@ 1239
derer 1238
dir@@ 1238
ls@@ 1238
Lj@@ 1237
Adol@@ 1235
NCA@@ 1235
Mex@@ 1234
Scho@@ 1234
Den 1233
atz@@ 1233
wir@@ 1231
exist@@ 1230
ön@@ 1230
230 1229
Lod@@ 1229
vie@@ 1228
Fell@@ 1226
Koch 1226
Lincol@@ 1226
USD 1226
etown 1223
CH 1222
aide 1222
Diag@@ 1220
Gross@@ 1220
ething 1220
umph@@ 1220
550 1219
Burk@@ 1219
Natur@@ 1219
ED@@ 1218
Guill@@ 1218
ä 1218
ē@@ 1218
illy 1217
tron@@ 1217
Austral@@ 1216
Dah@@ 1216
ahr@@ 1216
bare 1215
Henn@@ 1214
Pho@@ 1214
inger@@ 1213
stern 1213
Hammer 1212
Martin@@ 1212
orthod@@ 1212
Azerbai@@ 1211
Mey@@ 1211
hybri@@ 1211
áz@@ 1210
SB@@ 1209
fried 1209
oti@@ 1208
ische 1207
nos 1207
deli@@ 1205
haus 1205
alien@@ 1204
fest 1204
fundam@@ 1204
ione 1204
55@@ 1203
ík 1202
eia 1200
Rosen@@ 1199
Billi@@ 1198
Bio@@ 1198
Hep@@ 1198
Wich@@ 1198
famili@@ 1198
ool@@ 1198
Exam@@ 1197
nier 1197
poration 1197
ν@@ 1197
ström 1196
tum 1196
ynast@@ 1196
Atom@@ 1195
Bombar@@ 1195
own@@ 1195
spur@@ 1195
.-@@ 1194
UV 1194
Wolfgang 1194
noon 1193
1788 1192
kos@@ 1192
lang 1192
Theod@@ 1191
Franç@@ 1190
stige 1190
Vamp@@ 1189
aff 1189
agen@@ 1189
lieu 1189
DT@@ 1188
Exped@@ 1188
Lamp@@ 1188
bish@@ 1188
Magnus 1187
Pietro 1187
hell 1187
there@@ 1187
Fan@@ 1185
Termin@@ 1185
Vest@@ 1185
cot@@ 1185
у@@ 1184
Minn@@ 1183
Flam@@ 1182
Stanis@@ 1182
environ@@ 1182
erne 1182
sei 1182
yd@@ 1182
Epi@@ 1181
Bordeaux 1180
Dram@@ 1180
Pf@@ 1180
VO@@ 1180
bell@@ 1180
Warri@@ 1179
urg 1179
There@@ 1178
Württemberg 1178
arship 1178
erly 1178
Ex 1177
Johannes@@ 1177
Renn@@ 1177
fug@@ 1177
Werner 1176
tat 1176
650 1175
Princ@@ 1175
Sto@@ 1175
Teat@@ 1175
zio 1175
dal@@ 1171
stu@@ 1171
ə@@ 1171
Offensive 1170
SV@@ 1169
ód@@ 1169
Afri@@ 1168
Mission@@ 1168
Stein 1168
assembl@@ 1166
cident 1166
eiro 1166
stig@@ 1166
etter@@ 1165
Bremen 1164
Emili@@ 1164
erve 1164
pp 1164
respond@@ 1164
rico 1164
Ech@@ 1163
Luigi 1163
Sili@@ 1163
Arist@@ 1162
Evolution 1162
Pend@@ 1161
oft 1161
olo@@ 1160
rock@@ 1160
Sebast@@ 1159
elis 1159
@ 1158
Stap@@ 1158
illeg@@ 1158
cans 1157
Samm@@ 1156
Trin@@ 1156
Es 1155
Status 1154
Temper@@ 1154
ummer 1154
zzi 1154
Prop@@ 1152
Beeth@@ 1151
Kle@@ 1151
kum@@ 1151
Dynamo 1150
Kei@@ 1150
democ@@ 1150
18,@@ 1149
Juni@@ 1149
Tau@@ 1149
Marseille 1148
Kō@@ 1147
Louis@@ 1147
atio 1147
bt@@ 1147
Angl@@ 1146
dinal 1146
Fris@@ 1145
Cover@@ 1144
Fli@@ 1144
Quint@@ 1144
umn 1144
Tann@@ 1143
beginn@@ 1143
engine@@ 1143
k.@@ 1143
Ves@@ 1142
enthal 1142
essment 1141
Schneider 1140
115@@ 1139
Gymnasium 1139
Ware 1139
nab@@ 1139
Hai@@ 1138
stag@@ 1138
Famili@@ 1137
Diplom@@ 1136
Hof@@ 1136
Zürich 1136
ird 1136
ø 1136
agen 1135
downs 1135
umbent 1135
communes 1133
seg@@ 1133
unker 1133
Amer@@ 1132
Bahn 1132
controversi@@ 1132
sius 1132
Engl@@ 1131
Hain@@ 1131
gymnasium 1131
Ark@@ 1130
chn@@ 1130
Brandenburg 1128
Esk@@ 1128
м@@ 1128
Bres@@ 1127
Gregor 1127
Hubert 1127
Gis@@ 1126
Sop@@ 1126
iw@@ 1125
Kaiser 1123
320 1122
Gros@@ 1122
reform@@ 1122
م@@ 1122
Berg 1120
Signal 1119
Param@@ 1118
abet@@ 1117
antry 1117
emor@@ 1117
ș 1117
adel@@ 1116
loss@@ 1116
ał@@ 1115
oire 1115
Ø@@ 1115
Bern 1114
rah@@ 1114
tow 1113
ystems 1113
131 1112
Gn@@ 1112
ilit@@ 1112
pub@@ 1112
symbol@@ 1111
dang@@ 1110
stall 1110
dei 1109
stry 1109
Sound@@ 1108
kam@@ 1108
riv@@ 1108
138 1106
fecture 1106
strand 1106
Rai@@ 1105
aden 1104
280 1103
Therap@@ 1102
indu@@ 1102
moor 1102
ulties 1102
1782 1101
ainable 1101
dential 1100
arri@@ 1099
dependence 1099
ź 1098
Jor@@ 1097
kW 1097
Kemp@@ 1096
Nomin@@ 1096
tienne 1096
wagen 1096
suppor@@ 1095
Tod@@ 1092
cow 1092
Alph@@ 1091
hel 1091
mm@@ 1091
umen@@ 1091
Mont 1090
Sof@@ 1090
mie 1090
Fest 1088
Jonas 1088
haps 1088
λ@@ 1088
1700 1087
1784 1087
eger 1087
funk 1087
Haf@@ 1086
Ski@@ 1086
ource 1086
Ins@@ 1085
Hoh@@ 1084
arina 1084
Semin@@ 1083
Them@@ 1083
dig 1083
ickl@@ 1083
Palest@@ 1082
rang@@ 1082
Napole@@ 1081
ossa 1081
sche 1081
118@@ 1080
Shō@@ 1080
Strauss 1080
Toulouse 1079
teau 1077
Econom@@ 1076
Salon 1076
offee 1076
260 1075
jk 1075
privat@@ 1075
urn 1075
Gut@@ 1074
March@@ 1074
Million 1074
1787 1073
20,@@ 1073
Americ@@ 1073
zon@@ 1073
Margar@@ 1072
aun@@ 1072
near@@ 1072
Labor@@ 1071
Mek@@ 1071
alom 1071
endorf 1071
esi@@ 1071
Nikolai 1069
gg 1069
Cô@@ 1068
Rost@@ 1068
Rach@@ 1067
Sens@@ 1067
VB 1067
Porsche 1066
enzo 1066
hr 1066
relati@@ 1066
Anthrop@@ 1065
Brat@@ 1065
Gif@@ 1065
sko 1065
Pyr@@ 1063
Sergei 1062
ark@@ 1062
Sand 1061
WTA 1061
entur@@ 1061
orie 1061
umen 1061
Dill@@ 1060
fall@@ 1059
unken 1059
Alli@@ 1058
Charts 1058
Château 1058
Ei@@ 1057
Eul@@ 1057
Barbar@@ 1056
Luftwaffe 1056
loch 1056
reserv@@ 1056
revolution@@ 1056
rough@@ 1056
Gertru@@ 1055
Sprint 1055
Stol@@ 1054
Loth@@ 1053
Tenn@@ 1053
isen 1053
wth 1053
IUCN 1052
Nott@@ 1052
Mord@@ 1050
uen 1050
lein 1049
bog@@ 1048
zum@@ 1048
help@@ 1047
ircul@@ 1046
sylvania 1046
19,@@ 1045
Quant@@ 1045
pol 1045
probl@@ 1045
bean 1044
conflic@@ 1044
eres 1044
Analy@@ 1043
Pog@@ 1043
Pont 1043
amat@@ 1043
ension 1042
icient 1041
Müller 1040
trum 1040
Person@@ 1039
habit@@ 1039
oples 1039
Gig@@ 1038
aner 1038
Talent 1037
aume 1037
emerg@@ 1036
κ@@ 1034
ر@@ 1034
् 1034
actu@@ 1032
chest@@ 1032
duk@@ 1032
gard 1032
opul@@ 1032
confi@@ 1031
Ort@@ 1029
ubl@@ 1029
tings 1028
Das@@ 1027
Québec 1027
agement 1027
Armen@@ 1026
Geomet@@ 1026
Punj@@ 1026
neu@@ 1026
1778 1025
wander@@ 1025
Oswald 1023
Sainte 1023
Haus@@ 1022
inen 1022
Budget 1021
Roth 1021
Viktor 1021
entially 1021
semester 1021
Egyp@@ 1019
frau@@ 1019
Versa@@ 1016
atin 1016
doctr@@ 1016
Leop@@ 1015
etc. 1015
fem@@ 1014
SSR 1013
emeter@@ 1013
Glo@@ 1012
Glob@@ 1012
Wash@@ 1012
rict 1012
esk@@ 1010
Filip@@ 1009
bul 1009
kow@@ 1007
KP@@ 1006
Spr@@ 1006
embl@@ 1006
nig@@ 1006
Jel@@ 1005
tius 1005
Ż@@ 1005
Kus@@ 1004
Spi@@ 1004
e. 1004
isition 1004
191@@ 1003
aren 1003
onym@@ 1003
Muse@@ 1002
verh@@ 1001
Artic@@ 1000
cke 1000
rig 1000
Mars@@ 999
simultane@@ 999
Toy@@ 998
gely 998
1781 997
Ltd. 997
tiger 997
wei 995
Schl@@ 994
fern@@ 994
ahn@@ 993
apers 993
bership 993
fen@@ 993
114@@ 992
22,@@ 992
Ó@@ 992
1777 991
hoff 991
ull@@ 991
kit@@ 990
AZ 989
Heidelberg 989
Spon@@ 989
bron@@ 988
rebel@@ 988
ular@@ 988
zw@@ 988
→ 987
116@@ 986
Panzer 986
Salzburg 986
aum 986
1786 985
nen 985
Olympia 984
Riga 984
horiz@@ 984
ò 984
Sich@@ 983
1770 982
rison 982
beau@@ 981
ange 980
trop@@ 980
Capit@@ 979
ht 979
Loch 978
σ@@ 977
Bess@@ 976
Internation@@ 976
Zer@@ 976
ror@@ 976
thet@@ 976
Emil 975
Georgi@@ 975
agues 975
estyle 975
jon 975
scap@@ 975
Miner@@ 974
Descri@@ 973
Holstein 973
Jen@@ 972
toria 972
vulner@@ 972
Benz 971
arab@@ 971
brie@@ 971
monit@@ 971
Institut 970
KK 970
rand 970
Fest@@ 969
kal 969
phe@@ 968
public@@ 968
Hong@@ 967
Eck@@ 966
Terror@@ 966
hig 966
icop@@ 966
ims 966
Hind@@ 965
å 965
Hild@@ 964
Start 962
lea@@ 962
rence 962
sth@@ 962
ldwide 961
Playoffs 960
Refer@@ 960
request@@ 960
Botan@@ 959
bol 959
1785 958
Michel@@ 958
Urugu@@ 958
omp@@ 958
1774 957
Soh@@ 957
Zy@@ 957
NAS@@ 956
ő@@ 956
Craw@@ 955
Dunk@@ 955
ason@@ 955
bret@@ 955
Kron@@ 954
117@@ 953
Spl@@ 953
Rober@@ 952
attle 952
trecht 952
attor@@ 951
kun@@ 951
rief 951
brand@@ 950
stad@@ 950
ár 950
Meteor@@ 949
Jury 948
iland 948
1779 947
Invasion 947
complet@@ 947
Humboldt 946
Instr@@ 946
Sain@@ 946
friend@@ 946
kus 946
allen 945
Valen@@ 944
Seine 943
owice 943
Fah@@ 942
eases 942
Magnet@@ 941
Río 941
Wik@@ 941
ahr 941
onen 941
ucle@@ 941
Holding 940
adas 940
Quad@@ 939
Farm@@ 938
Engel@@ 937
Kaf@@ 937
Witt@@ 937
entes 937
energ@@ 936
Hit 935
Trio 935
Expan@@ 934
Jaz@@ 934
won@@ 934
Argent@@ 933
Materi@@ 931
agements 931
ange@@ 930
hua 930
remem@@ 930
rech@@ 929
wart 929
Chair@@ 928
GB@@ 928
Andro@@ 927
Jesu@@ 926
Tō@@ 926
Tier@@ 925
elop@@ 925
Klu@@ 924
eis 924
Fav@@ 923
Pyram@@ 923
ancell@@ 921
Weiss 920
Chance 918
anger@@ 918
äl@@ 918
Philosoph@@ 917
Skel@@ 917
ي@@ 917
alleg@@ 916
erns 916
و@@ 916
Acadé@@ 915
copal 915
ensive 915
Lingu@@ 914
Tests 914
oder 914
É 914
1772 912
Fic@@ 912
Vet@@ 912
ư@@ 912
Stade 911
nex@@ 911
ungs 911
Banglad@@ 910
Falk@@ 910
Rug@@ 910
roqu@@ 910
jet@@ 909
Gott@@ 908
Theat@@ 907
upper@@ 907
Anders 906
Oly@@ 906
Düsseldorf 905
Orth@@ 905
drei 905
train@@ 905
collap@@ 904
Aus@@ 903
Adj@@ 901
Ruf@@ 901
angs 901
kom@@ 901
Barthol@@ 900
Seb@@ 899
bach@@ 899
sdorf 899
zur@@ 898
п@@ 898
Font@@ 897
Joachim 897
pati@@ 897
† 897
Nass@@ 896
Restaurant 895
Becker 894
gut 894
Bayern 893
Fid@@ 893
Gusta@@ 893
Rail@@ 893
demon@@ 893
sod@@ 893
zin 893
1750 892
Kent@@ 892
Theor@@ 892
adequ@@ 892
gau 891
§ 891
eles 890
emit@@ 890
loser 890
vard 890
enheim 889
sci@@ 889
Psychiat@@ 888
Rie@@ 888
Text 888
bibli@@ 888
dot@@ 888
naments 888
essen 887
helm 887
oren 887
rad 887
rath 887
Viz@@ 886
earthqu@@ 886
Wir@@ 885
aill@@ 885
lightly 885
ł 885
ecker 884
ipment 884
rondiss@@ 884
Kant@@ 883
berg@@ 883
dub@@ 883
legisl@@ 883
ʿ@@ 883
Prob@@ 882
neut@@ 882
Colum@@ 881
Loire 881
ongside 881
Feld@@ 880
Popul@@ 880
Heinz 879
Handball 876
Magist@@ 876
cil 876
nis@@ 876
ob 876
GmbH 875
Klaus 875
ifer 875
verg@@ 875
Ú@@ 875
Adler 874
Berger 874
eg 874
sage 874
aust@@ 873
osed 873
NGC 872
Haute 870
manu@@ 870
selves 870
1763 869
Honor@@ 869
Maximilian 869
templ@@ 869
atius 867
emper@@ 867
Hier@@ 866
Î@@ 866
Spin@@ 865
igi 865
m2 864
± 864
ül@@ 862
Chall@@ 861
Weimar 861
wig 861
quote 860
Found@@ 859
Lond@@ 859
Patent 859
kilomet@@ 859
zur 858
Ó 858
Deh@@ 857
lle 857
illion 856
strom 856
acu@@ 855
Zin@@ 854
odes@@ 854
uel 854
25,@@ 853
TU 853
hl 853
Mai 852
gast@@ 852
quick@@ 852
Reichs@@ 851
Kast@@ 850
kab@@ 850
stadi@@ 850
edral 848
baum 847
chall@@ 847
ê 847
rug 846
Winn@@ 845
lang@@ 845
1760 844
Chef 843
atch@@ 842
ône 842
alth 841
Æ@@ 841
Bonn 840
Reich@@ 840
utz@@ 840
Punk 839
hut 839
qual@@ 839
undes@@ 839
Definition 838
Loch@@ 837
Wiel@@ 837
rek@@ 837
Ira@@ 836
inea 836
schild 834
Budd@@ 833
Sper@@ 833
utz 833
CO2 832
X. 832
gau@@ 831
iew 830
Grim@@ 829
prehensive 829
Claudia 828
1300 827
Elis@@ 827
LGB@@ 827
onents 827
Bauer 826
Lich@@ 826
laim@@ 826
anl@@ 825
equi@@ 825
iment 824
inski 824
Liter@@ 823
enden 823
thes 823
vors 822
4000 821
Oran@@ 821
terns 820
eren 819
mack 819
Gord@@ 818
Republi@@ 818
formers 818
owering 818
cury 817
onte 817
zel 817
и 817
Krem@@ 816
ittees 816
kul@@ 816
ür@@ 816
Lux@@ 815
Wald@@ 815
gem 814
ings@@ 814
plann@@ 814
ė 814
asion 813
oard 813
Cardi@@ 812
straße 812
Cover 811
Provi@@ 811
Singap@@ 811
ande 811
laim 811
Monteneg@@ 810
habilit@@ 810
iens 810
leav@@ 810
oss@@ 810
Ital@@ 809
Yorker 809
eist 809
gig 808
menti@@ 808
FP@@ 807
Last@@ 807
oid@@ 806
kat@@ 805
opped 805
Davi@@ 804
Loh@@ 804
Trau@@ 804
Wie@@ 804
ilde 804
Auguste 803
Keller 803
Somer@@ 803
gs@@ 803
liminary 803
Victor@@ 802
kus@@ 802
Erich 801
Server 801
endar 801
encer 800
ạ@@ 800
Dop@@ 798
Prim@@ 797
ece 797
holm 796
primar@@ 796
aber@@ 795
progr@@ 795
Mainz 794
Phi@@ 794
Woll@@ 794
lech@@ 794
christ@@ 793
exac@@ 793
iat@@ 793
Rand 792
éné@@ 792
й 792
lik 791
onent 791
г@@ 791
Professi@@ 790
atori@@ 790
doch 790
Athl@@ 789
offen@@ 789
riff@@ 789
spiration 789
ו@@ 789
Bomb@@ 787
Wehrmacht 787
gian 787
è 787
Châ@@ 786
Mode 786
ete@@ 786
bst@@ 785
Rapp@@ 784
Unter@@ 783
kler 783
Ā@@ 783
Dall@@ 782
itte 782
quest@@ 782
Schleswig 781
uer 781
Dies@@ 780
SPD 780
anal@@ 780
invol@@ 780
Depart@@ 779
Iden@@ 779
follow@@ 779
Flag@@ 778
Scienti@@ 778
chs 778
grad 778
Gron@@ 776
ritt 776
sheim 776
accessi@@ 775
elen 775
esco 775
gangs 775
Dom 774
Fossi@@ 774
Inform@@ 774
reds 774
ệ@@ 774
Kost@@ 773
lug 773
ب@@ 773
ante@@ 772
cipl@@ 772
dener 772
ephone 772
Museums 771
Fabri@@ 770
Soft@@ 770
forman@@ 770
second@@ 770
Person 769
abil@@ 769
irc@@ 769
ssen 769
ḥ@@ 769
intern 768
Zimmer@@ 767
Isab@@ 766
Monuments 766
toral 765
י@@ 765
Kiel 764
Osc@@ 764
eigen@@ 764
relev@@ 764
Kind@@ 763
e- 763
esen 763
Lausanne 761
auth@@ 761
Aug@@ 760
Ident@@ 760
Mecklenburg 760
d. 760
norm@@ 760
Lith@@ 759
Stephan 759
ister@@ 757
Aster@@ 756
Kauf@@ 756
gut@@ 756
neur 756
claim@@ 754
duce 754
bahn 753
illery 753
tenance 753
bene@@ 752
liest 752
ṭ@@ 752
emer 751
jap@@ 751
Represent@@ 750
UE@@ 750
dich@@ 750
Bismar@@ 748
fore 748
scher 748
witz 748
π@@ 748
apolis 747
dere 747
burger 746
б@@ 746
Dollar 745
General@@ 745
ơ@@ 745
1400 744
Myth@@ 744
Ulrich 744
nad 744
aspar 743
dler 743
touch@@ 743
ė@@ 743
stir@@ 742
Kuh@@ 741
riff 741
Bie@@ 740
Halle 740
erner 740
Text@@ 739
apos@@ 738
kol@@ 738
ligence 738
ortun@@ 738
ò@@ 737
Koll@@ 736
Hybri@@ 735
Lange 735
poli@@ 735
ả@@ 735
sie@@ 734
Eduard 733
Bernhard 732
Fak@@ 732
champion@@ 732
dez@@ 732
Hoch@@ 731
ehr 731
iop@@ 731
Siemens 729
Trich@@ 728
ies@@ 728
lements 728
ularly 728
Uran@@ 727
ebook 727
ن@@ 727
Festivals 726
etts 726
Eich@@ 725
atist@@ 725
iste 725
litz 725
sto@@ 725
umm@@ 724
Edmon@@ 722
Merk@@ 722
Thro@@ 722
Gör@@ 721
Marg@@ 720
Pupp@@ 720
Willy 720
massi@@ 720
Bli@@ 719
Situ@@ 719
eckl@@ 719
predomin@@ 718
ṣ@@ 718
Badminton 717
Christi 717
Hotels 717
youn@@ 717
Ged@@ 716
Kirch@@ 716
eyer 716
metall@@ 716
tun 716
ikan@@ 715
Caes@@ 714
Nac@@ 714
bett 714
gering 714
opro@@ 713
ì@@ 713
Matthias 712
region@@ 712
uty 712
Absol@@ 711
Lazar@@ 711
elect@@ 711
Zw@@ 710
Publi@@ 709
alu@@ 709
Braz@@ 708
Brut@@ 708
bai@@ 708
ión 708
repar@@ 708
Theodor 707
ielle 707
fern 706
ì 706
Chron@@ 705
gle@@ 705
lingen 705
brit@@ 704
Clim@@ 703
ŏ@@ 703
bald 702
turer 702
usse@@ 702
ṇ@@ 702
Lili@@ 701
Café 700
Dek@@ 699
Ecu@@ 699
än@@ 699
Freiburg 698
Gü@@ 698
spru@@ 698
Vä@@ 697
С@@ 697
193@@ 694
Maus@@ 694
adem@@ 694
manufac@@ 694
thous@@ 694
internation@@ 693
Axel 692
Details 692
я 692
enz 691
m. 691
Dortmund 690
Philipp@@ 690
Symb@@ 689
Wul@@ 689
Christian@@ 688
Frequ@@ 688
Harald 688
`@@ 688
utive 688
Gei@@ 687
Graf@@ 687
Mili@@ 687
rett@@ 687
Clau@@ 685
Sask@@ 685
auff@@ 685
doll@@ 685
│ 685
Bett@@ 684
Probl@@ 684
Defin@@ 683
omot@@ 683
Gum@@ 682
Leiden 682
ement@@ 682
Rhein@@ 681
eich@@ 681
pers 681
stet@@ 681
Ges@@ 679
veg@@ 679
е 679
Philipp 678
Tier 678
Verk@@ 678
diagn@@ 678
Eber@@ 677
nun 677
Innov@@ 676
Manga 676
replac@@ 675
Braun 674
acht@@ 674
ţ@@ 674
Stab@@ 673
Still@@ 673
andal 673
sprin@@ 673
Abra@@ 672
Auschwitz 672
Bris@@ 672
kap@@ 672
assen 671
eler@@ 671
roe 671
uten@@ 671
hof 670
minster 670
Dres@@ 669
Favor@@ 669
jah@@ 669
kles 669
Fie@@ 668
Jakob 668
kilometer 668
zel@@ 668
Helm@@ 667
Saar@@ 667
archiv@@ 667
kop@@ 667
Tamp@@ 666
^ 666
abase 666
proced@@ 666
Ferg@@ 664
aust 664
pover@@ 664
rival@@ 664
atur 663
Rhy@@ 662
rative 662
Iran@@ 661
ischer 661
″ 660
Reyn@@ 659
Spur 659
Paragu@@ 658
ogne 657
Apoll@@ 656
Stud@@ 656
tenberg 656
Optim@@ 655
haf@@ 655
Sage 654
Symph@@ 654
cker@@ 654
eppe 654
Strand 653
emales 653
wom@@ 653
Leit@@ 652
chir@@ 652
ý@@ 652
abilitation 651
Indu@@ 650
Internationale 650
Jeffer@@ 650
Hex@@ 649
Milit@@ 649
verl@@ 649
о 648
Anto@@ 647
Augsburg 647
cht@@ 647
ppe 647
velle 647
س@@ 647
ilton 646
stedt 645
Rast@@ 644
tigen 644
Rat 643
Spiel@@ 643
acou@@ 643
iche 643
iques 643
Neumann 642
onders 642
Nei@@ 641
Fj@@ 640
cole 640
Glas@@ 639
Zeal@@ 639
Bek@@ 638
Nach@@ 638
chens 638
onie 638
theoret@@ 638
ausen 637
auss 637
wie@@ 637
Kinder@@ 636
Piet@@ 636
Wester@@ 636
auf@@ 635
Ü@@ 635
Arm 634
Evol@@ 634
Short@@ 634
chener 634
ersch@@ 634
ν 634
Foll@@ 633
laf 633
sam 632
edr@@ 631
oundary 631
Ehr@@ 630
oten 630
sidi@@ 629
aer 628
ß@@ 628
Chir@@ 627
fred 627
meister 627
til 627
Kind 626
Queens@@ 626
Mobil@@ 625
Volk@@ 625
з@@ 625
Amat@@ 624
Californ@@ 624
Niel@@ 624
Phoen@@ 624
Wur@@ 624
nun@@ 624
Dietrich 622
Distri@@ 622
ễ@@ 622
Claudi@@ 621
Rez@@ 621
Sow@@ 621
damp@@ 621
γ@@ 621
Christoph 620
chor 620
ternal 620
[...]
