. 8640288
, 6402979
der 5303733
und 4114602
die 3373044
in 3158143
&quot; 2860843
@-@ 2224260
von 1971354
den 1718558
) 1578326
( 1576997
des 1460395
im 1387145
er 1353507
mit 1289706
wurde 1104933
dem 1066575
ist 1039367
das 1004759
Die 991390
als 976738
zu 898567
auf 888396
ein 876705
für 867816
an 853145
eine 844806
sich 793523
war 762224
aus 596860
auch 557758
bis 550406
am 538416
es 529469
nach 528318
: 515870
“ 513836
„ 510490
bei 497811
Der 488027
einer 457308
sie 456948
zum 448852
durch 364145
– 362666
einem 357129
Im 349174
um 348725
werden 342400
nicht 339487
Das 338693
sind 336897
en 334814
; 317106
en@@ 316754
er@@ 316385
wird 314847
In 314522
einen 313331
zur 310870
ten 308691
ver@@ 307808
über 307397
te 292664
oder 288081
wurden 283005
ung 275723
k@@ 275510
dass 254652
/ 253827
Er 249373
t 245608
s 245105
unter 243859
Jahr 241743
- 240716
a 238889
ischen 238727
de 229606
s@@ 226451
K@@ 224224
ische 223790
t@@ 220521
an@@ 216461
wie 213773
z@@ 211392
vor 210907
T@@ 203192
S@@ 202487
sowie 200696
B@@ 200660
vom 199699
P@@ 198563
sch@@ 198231
seiner 195024
Ver@@ 194063
Nach 193788
ungen 189758
G@@ 189200
hatte 189146
nur 188597
ab@@ 188001
Sch@@ 187883
L@@ 187692
H@@ 185835
st@@ 183233
seine 182762
be@@ 181741
n@@ 181558
i 181451
ein@@ 180523
noch 180405
An@@ 178650
Jahre 177679
ge@@ 175415
e 173862
D@@ 173337
M@@ 173033
W@@ 172680
aus@@ 172204
Sie 171632
zwei 171554
F@@ 171461
R@@ 171142
aber 171134
ent@@ 170181
ab 169806
el@@ 169723
l@@ 168478
f@@ 167990
o 167819
waren 167526
al@@ 166168
m@@ 165322
hat 163516
un@@ 160009
* 158521
Ab@@ 158483
eines 157712
b@@ 157350
N@@ 156767
ern 155322
auf@@ 153397
E@@ 152655
zwischen 151581
ungs@@ 151276
Jahren 151225
ter 149875
sein 149526
Am 149276
A@@ 147758
d@@ 147366
isch 146372
g@@ 144555
gegen 144505
m 143827
dieser 142984
Es 139247
in@@ 136910
Z@@ 135531
ar@@ 133781
über@@ 132921
St@@ 132265
ersten 131531
ch@@ 130192
of 128765
Zeit 128025
man 127311
V@@ 125777
jedoch 125232
h@@ 125175
seit 124689
ischer 124152
so 123718
Stadt 123490
lich 122496
1 122448
um@@ 118958
etwa 118790
C@@ 118069
drei 117926
O@@ 117816
vor@@ 116893
i@@ 116449
us 115790
n 115631
gen 114051
Vor@@ 113812
wieder 113225
Geschichte 112265
j@@ 110306
2 110174
is@@ 110133
re@@ 110043
or@@ 109077
Aus@@ 108915
Als 108696
Leben 108296
seinem 107935
liche 106854
el 106458
es@@ 105791
liegt 105588
y@@ 105448
Ein@@ 105438
on@@ 104909
o@@ 104272
p@@ 104229
seinen 103346
später 103273
beim 103030
mehr 102950
Von 102796
Bei 102751
w@@ 101305
l 101143
Er@@ 100095
z 99764
Ende 99674
diese 99518
1. 99354
ihre 99075
da 98539
u@@ 98076
k 98006
r@@ 97933
I@@ 97902
e@@ 97633
ende 97462
ers 97150
iert 96955
16@@ 96826
et@@ 96691
kann 96562
enden 95697
on 95471
der@@ 95361
as 95121
kam 94683
Ober@@ 94408
sten 94114
lichen 94005
wo 93671
konnte 93484
ens 93427
J@@ 93113
erste 92983
Mit 92380
d 92249
Gemeinde 92077
ie 91867
3 90934
ihm 90742
it@@ 90710
v@@ 89845
August 89129
Mai 88335
März 88170
haben 88121
at@@ 87505
Teil 87198
Januar 87152
zu@@ 87079
17@@ 86626
Oktober 86267
heute 85825
at 85215
th@@ 84991
ä@@ 84788
ler 84645
ihrer 84367
ber@@ 84259
a@@ 84136
dann 83848
Be@@ 83671
bereits 83407
dort 83146
’ 82995
15@@ 82768
&amp; 82619
September 82406
al 82221
† 82050
ge 81884
Unter@@ 81519
Juni 81469
U@@ 81433
Auf@@ 81311
April 81253
Juli 80554
unter@@ 80451
Universität 80440
le 80370
ter@@ 80203
Kirche 79834
ihn 79475
In@@ 79312
anderen 79292
au@@ 79271
vier 79102
US 78894
während 78819
erhielt 78647
Dezember 78519
gab 78294
os 77968
gen@@ 77796
sk@@ 77472
u 77457
alle 77073
de@@ 77068
di@@ 76977
November 76856
Ein 76780
Saison 76686
ger@@ 76495
Al@@ 76474
km 76431
4 76408
dessen 76014
beiden 75985
sp@@ 75892
ihr 75702
y 75604
Diese 75568
is 74997
ner 74660
mann 74599
Bau@@ 74585
ens@@ 74366
% 74109
ierte 73658
Platz 73373
g 73015
Seit 72932
gibt 72828
ik@@ 72561
können 72451
Deutschland 72321
ale 72302
le@@ 72284
ien 72185
diesem 72070
igen 72002
am@@ 71548
au 71433
Berlin 71054
ert 70925
berg 70895
ak@@ 70845
ur@@ 70606
Jahrhundert 70416
ot@@ 70282
ke 70146
chen 70009
ie@@ 69971
ar 69885
us@@ 69406
ken 69137
et 68950
Mitglied 68478
Februar 68411
Eine 68371
enk@@ 68246
end 68057
ag@@ 67929
ro@@ 67822
ö@@ 67537
ene 67332
ü@@ 67194
Sp@@ 66812
deutschen 66581
ol@@ 66539
em@@ 66171
alen 66163
ins 66130
3@@ 65947
2@@ 65515
Auch 65149
ad@@ 64948
stand 64786
zurück 64685
Haupt@@ 64667
tes 64529
ige 64468
ei@@ 64427
damit 64179
Über@@ 64117
den@@ 63976
Für 63598
ch 63561
as@@ 63444
b 63176
deren 63013
Land@@ 62903
zunächst 62814
Auf 62615
land 62518
5 62329
ger 61904
em 61856
ihren 61549
Familie 61525
keine 61508
Kon@@ 61306
op@@ 61180
zusammen 61099
elle 61048
ck@@ 60991
befindet 60941
ben 60909
_ 60736
ation 60712
be 60649
Ort 60477
sehr 60365
li@@ 60332
nahm 60217
licher 60170
om@@ 60024
weitere 59698
steht 59679
Um@@ 59601
enen 59532
Mar@@ 59526
Namen 59121
begann 58823
ier@@ 58741
denen 58559
gel@@ 58489
os@@ 58435
Film 58361
statt 58217
4@@ 58201
ul@@ 58144
Un@@ 57926
Sohn 57852
worden 57806
ri@@ 57755
ts 57743
sen 57416
Ch@@ 57390
bekannt 57295
spielte 57207
gewann 56983
ste 56667
6 56438
Personen 56397
allem 56282
geb@@ 56181
bzw. 56103
ieren 56008
ebenfalls 55837
and 55767
2011 55732
kon@@ 55564
anderem 55379
2010 55331
ten@@ 55316
se 55140
schaft 55003
enz@@ 54809
ging 54767
was 54522
fen 54422
eren 54229
ia 53923
ach@@ 53875
ig@@ 53706
straße 53393
gesch@@ 53305
trat 53215
Stadt@@ 53209
14@@ 53037
ts@@ 52913
Ber@@ 52888
ing@@ 52757
tung 52744
ut@@ 52736
ra@@ 52662
ohne 52516
ne 52429
-@@ 52314
gt 52196
Ar@@ 52096
il@@ 52051
ik 51984
selbst 51978
Bundes@@ 51952
si@@ 51933
2009 51869
2015 51686
neuen 51685
ig 51623
2012 51606
führte 51508
2. 51203
2008 51184
ierten 51159
dabei 51104
gehörte 50757
2014 50705
end@@ 50636
20 50598
2013 50553
Re@@ 50542
se@@ 50468
ne@@ 50458
10 50352
kl@@ 50046
h 49960
formula 49959
c@@ 49893
or 49893
sh@@ 49878
Während 49857
hier 49841
me 49818
ing 49806
19. 49740
deutscher 49731
&apos; 49716
fl@@ 49660
Schul@@ 49609
6@@ 49571
Landes@@ 49558
2016 49555
Meter 49542
neue 49540
wegen 49498
erstmals 49138
arbeitete 49131
5@@ 49118
isches 49100
2007 48975
Jahrhunderts 48831
and@@ 48782
st 48581
nen 48504
8 48499
immer 48432
men 48204
Ab 48181
ingen 48093
gehört 48023
Her@@ 48019
é@@ 47989
ell 47944
durch@@ 47933
bach 47888
ellen 47832
Di@@ 47724
bezeichnet 47647
zeit 47494
ierung 47459
sei 47424
tigen 47413
her@@ 47372
New 47347
the 47270
Nord@@ 47101
fünf 47070
2017 47026
The 47010
ere 46992
A 46808
St. 46769
2006 46671
Seine 46615
Name 46590
ell@@ 46462
ek@@ 46412
ker 46306
im@@ 46301
7 46218
B 46152
13@@ 45808
Titel 45807
Bar@@ 45796
Le@@ 45725
eln 45532
Deutschen 45504
zweiten 45376
eb@@ 45357
eten 45348
ges@@ 45341
che 45252
bl@@ 45189
schon 45150
einige 45037
Nach@@ 44900
erst 44889
Band 44802
ti@@ 44779
erin 44717
Zu 44705
werk 44653
2018 44503
ber 44448
Ne@@ 44363
fand 44316
seines 44298
sondern 44276
Gruppe 44187
p 44181
Se@@ 44155
15 44073
ung@@ 44063
Neu@@ 44060
2019 44050
eg@@ 43910
ationen 43809
Sein 43773
re 43759
So 43755
qu@@ 43622
mer@@ 43579
Liste 43577
fer 43524
7@@ 43497
Kl@@ 43342
acht 43335
r 43289
teil 43185
rund 43024
ph@@ 42989
ihrem 42983
Fl@@ 42975
all@@ 42860
Mon@@ 42790
neben 42785
hatten 42723
Y@@ 42521
studierte 42492
burg 42468
Menschen 42407
Karriere 42303
2005 42256
Staats@@ 42234
Ge@@ 42205
ete 42167
stein 42052
Friedrich 42029
mehrere 42022
ang@@ 42008
ß@@ 41983
West@@ 41963
Par@@ 41944
Grund@@ 41916
it 41728
30 41700
amp 41652
3. 41627
besteht 41620
Kar@@ 41614
fer@@ 41585
andere 41517
dieses 41177
est@@ 41093
deutsche 41040
20. 41033
ka 41024
8@@ 41013
Ger@@ 41005
Anfang 40988
letzten 40916
Groß@@ 40866
ru@@ 40836
ender 40764
ap@@ 40754
Tod 40750
großen 40733
ina 40726
genannt 40571
B. 40567
Art 40453
bel@@ 40428
2000 40394
eh@@ 40385
Durch 40336
enn@@ 40183
18. 40126
ck 40108
tet 40042
alten 39990
Süd@@ 39929
Pro@@ 39907
ow 39837
nach@@ 39833
är@@ 39828
1945 39825
wenn 39803
sollte 39790
iz@@ 39716
ir@@ 39690
Hoch@@ 39662
ine 39651
ant@@ 39579
Spiel@@ 39559
Kilometer 39510
El@@ 39462
große 39405
Da 39361
diesen 39296
2004 39224
wechselte 39221
erfolgte 39193
Unternehmen 39165
bau@@ 39050
tätig 39040
ed@@ 39034
Bi@@ 39007
aten 38910
f 38876
gew@@ 38845
ster 38773
zurück@@ 38752
weiter 38749
Gebiet 38678
9@@ 38664
allerdings 38634
2020 38593
erung 38564
O 38547
enb@@ 38467
führt 38382
Johann 38277
wobei 38261
Ost@@ 38259
ern@@ 38047
bet@@ 38021
9 37962
bar 37745
ach 37718
Einwohner 37675
Straße 37609
Bl@@ 37556
soll 37512
ob@@ 37494
dern 37468
bau 37299
Mitte 37211
stadt 37208
gest@@ 37158
erte 37139
gegründet 37137
x@@ 37131
Schw@@ 36982
erten 36940
G 36869
En@@ 36852
erreichte 36847
isten 36830
je 36787
Frau 36762
ließ 36757
lt 36705
Film@@ 36670
Mannschaft 36656
ur 36653
15. 36551
Nachdem 36544
blieb 36529
feld 36523
stellte 36507
ologie 36494
Verein 36456
ok@@ 36345
nun 36265
wer@@ 36243
50 36215
Region 36139
musste 36130
Zweiten 36119
folgenden 36118
übernahm 36041
ent 36040
jeweils 35941
Nieder@@ 35884
18 35883
Mittel@@ 35879
cht 35865
Karl 35854
Gr@@ 35845
z. 35836
4. 35817
sechs 35809
weiteren 35792
schließlich 35741
ität 35740
eng@@ 35711
viele 35642
zog 35636
Musik@@ 35599
Gebäude 35589
lo@@ 35570
än@@ 35559
lang 35522
anz@@ 35495
16 35474
haus 35435
tr@@ 35401
gel 35312
U 35307
gewählt 35270
ft 35213
tig 35151
16. 34981
Bis 34978
Fre@@ 34962
Rück@@ 34940
I 34808
100 34724
0 34656
ismus 34649
a. 34645
rat 34623
ist@@ 34456
17. 34421
Vater 34419
Am@@ 34393
2003 34327
Norden 34322
ff@@ 34304
2001 34300
enh@@ 34255
Th@@ 34234
tige 34225
USA 34222
schw@@ 34201
c 34036
ac@@ 33893
del 33877
12 33826
erhalten 33817
Bereich 33782
hal@@ 33738
Form 33700
besch@@ 33695
ah@@ 33688
itz 33669
2002 33642
An 33622
neu 33587
Zu@@ 33496
aufgrund 33483
kommen 33432
u. 33404
allen 33365
onen 33349
insgesamt 33337
5. 33320
welche 33300
gl@@ 33208
12@@ 33128
isch@@ 33125
Dort 33069
ra 33054
inger 33015
te@@ 32985
University 32965
ep@@ 32951
schule 32948
ange@@ 32918
Kunst@@ 32891
gr@@ 32881
zen 32833
darauf 32822
erk@@ 32810
Album 32742
Haus 32727
Dabei 32716
ser@@ 32701
entstand 32688
FC 32675
á@@ 32643
dazu 32627
verwendet 32585
Tochter 32563
verschiedenen 32562
ang 32530
Land 32520
Wasser@@ 32500
14 32480
Car@@ 32422
iger 32420
la 32368
erst@@ 32358
ran@@ 32328
ass@@ 32309
age 32302
II. 32295
Ex@@ 32290
lag 32240
Berg@@ 32207
2021 32194
Wilhelm 32185
13. 32134
det 32112
ün@@ 32097
C 32091
pf@@ 32067
München 32031
König 32002
40 31992
Wer@@ 31974
Bau 31964
finden 31954
14. 31936
Amt 31934
mon@@ 31885
tern 31854
folgender 31851
Süden 31839
od@@ 31817
vi@@ 31696
6. 31679
ums 31651
S 31645
enten 31633
erneut 31624
V 31576
Kinder 31574
erschien 31552
Ma@@ 31529
Rahmen 31500
Man@@ 31481
Werk 31479
25 31451
Prozent 31438
stellen 31398
gebiet 31313
Wien 31279
D 31245
ast@@ 31204
Sk@@ 31148
Qu@@ 31142
Per@@ 31079
Mal 31053
Arbeit 31021
X@@ 30996
1999 30976
Weltkrieg 30951
Dies 30934
af@@ 30910
Stand 30898
12. 30872
Stein@@ 30859
Tri@@ 30836
war@@ 30820
John 30811
konnten 30810
é 30803
kommt 30802
gilt 30798
meist 30780
ster@@ 30733
errichtet 30715
Rolle 30709
Millionen 30707
agen 30683
Lage 30678
els 30653
pp@@ 30629
Entwicklung 30612
ör@@ 30594
Dieser 30565
Einsatz 30545
ier 30539
if@@ 30531
insbesondere 30502
He@@ 30501
ate 30487
Ak@@ 30480
eigenen 30474
Har@@ 30453
ons 30453
lassen 30443
Neben 30438
Bevölkerung 30426
zeit@@ 30420
fe 30398
rä@@ 30373
dung 30371
Heinrich 30332
Or@@ 30328
Dorf 30188
gut 30172
man@@ 30102
8. 30079
recht 30062
Provinz 30052
eil@@ 30051
Kur@@ 30045
Osten 30034
Richtung 30034
ausge@@ 30003
1990 29921
enst@@ 29916
he 29821
Fahr@@ 29786
hr@@ 29785
13 29777
starb 29763
davon 29745
Westen 29733
7. 29712
Frankreich 29678
Gen@@ 29662
leben 29561
bestand 29539
9. 29529
Staaten 29499
Bet@@ 29493
geschichte 29427
setzte 29407
Pl@@ 29392
ort 29327
mit@@ 29282
ann@@ 29206
bel 29190
eingesetzt 29181
to 29174
ß 29170
sehen 29162
ans 29135
Frauen 29129
ich@@ 29127
folgte 29123
dies 29091
Hans 29066
id@@ 29063
len 29061
verb@@ 29055
innerhalb 29019
Gesellschaft 28973
fast 28948
heim 28946
platz 28943
Seite 28908
Schule 28905
Beginn 28884
19 28865
habe 28831
ations@@ 28823
17 28818
1998 28803
Bedeutung 28781
York 28758
art 28749
oft 28737
Teil@@ 28729
damals 28717
geht 28605
ess@@ 28602
v 28594
E 28574
Partei 28548
Aus 28478
L 28451
Peter 28448
schen 28413
tz@@ 28412
Bel@@ 28400
Paris 28389
Ur@@ 28332
enz 28321
R 28315
bi@@ 28232
also 28226
spiel 28218
zweite 28214
Folge 28196
Jahres 28180
Sport@@ 28175
Außerdem 28152
are 28131
Ad@@ 28115
see 28076
Beispiel 28062
10. 28037
schaften 28026
Fach@@ 27992
Um 27951
ze 27929
stark 27925
Con@@ 27918
Natur@@ 27893
Paul 27887
Lehr@@ 27867
Mal@@ 27829
Mit@@ 27808
Wahl@@ 27805
darunter 27765
schloss 27729
zehn 27725
Landkreis 27710
og@@ 27661
Regierung 27643
ehemaligen 27622
ei 27618
Höhe 27617
lange 27582
.000 27581
Zur 27571
oh@@ 27507
findet 27496
Lebens@@ 27491
Unter 27486
Ö@@ 27446
itz@@ 27425
liches 27412
äl@@ 27398
zug 27391
heutigen 27384
Sh@@ 27326
az@@ 27279
kurz 27264
N 27245
Wal@@ 27245
ow@@ 27242
ette 27197
Musik 27186
National@@ 27174
Hand@@ 27157
11. 27156
Kultur@@ 27136
Schl@@ 27076
mer 27026
innen 26997
amerikanischen 26961
Pf@@ 26959
1994 26952
ener 26941
Orts@@ 26917
ven 26803
zi@@ 26789
Bahn@@ 26695
her 26690
I. 26660
stieg 26659
1997 26604
gegenüber 26594
liegen 26592
Kor@@ 26558
Mor@@ 26546
gang 26528
iss@@ 26516
Wohn@@ 26504
voll@@ 26448
11 26394
mar@@ 26383
1996 26376
1992 26351
1,@@ 26350
Team 26348
lin@@ 26333
Österreich 26320
ensch@@ 26296
sowohl 26287
Serie 26282
spielen 26263
dorf 26251
esch@@ 26229
veröffentlicht 26217
fest@@ 26200
= 26198
mal 26171
K 26157
ana 26145
zahlreiche 26127
weil 26105
gleich@@ 26081
Spiel 26051
Ro@@ 26048
Min@@ 25954
Burg 25948
ut 25948
französischen 25899
istischen 25890
ben@@ 25847
halten 25841
Gra@@ 25832
x 25815
tete 25791
Sal@@ 25771
Kirch@@ 25769
zudem 25760
1995 25750
Einzel@@ 25750
geboren 25750
genommen 25744
sm@@ 25730
ug@@ 25701
weise 25677
ür@@ 25668
Kreis 25666
Tra@@ 25648
Krieg 25630
zeigt 25627
kirche 25611
Welt 25607
1991 25606
pl@@ 25561
ca. 25527
att@@ 25520
schl@@ 25473
Li@@ 25463
muss 25442
Reg@@ 25401
bahn 25374
amt 25370
&#91; 25366
stre@@ 25346
ati@@ 25341
ou@@ 25337
ard 25336
&#93; 25329
tw@@ 25307
Hel@@ 25280
Zum 25278
danach 25275
verschiedene 25267
Liga 25222
M 25212
Kr@@ 25201
Zeit@@ 25190
Tor@@ 25188
Ru@@ 25182
Sitz 25181
hin 25148
Ent@@ 25126
1993 25120
oc@@ 25083
Mo@@ 25081
weg 25072
30. 25037
ord@@ 25014
all 24982
bereich 24980
stehen 24975
besuchte 24972
Alter 24968
gehen 24959
ant 24930
ton 24924
gem@@ 24919
gemeinsam 24916
Kom@@ 24904
gleichen 24904
schrieb 24900
seite 24887
Bo@@ 24872
one 24843
Insel 24841
enberg 24824
besonders 24823
und@@ 24819
gehören 24805
21. 24758
Au@@ 24694
For@@ 24689
Kan@@ 24675
ub@@ 24647
auer 24631
lichkeit 24612
gruppe 24602
geh@@ 24596
zw@@ 24588
Best@@ 24585
ov@@ 24583
Professor 24574
Fest@@ 24567
fall 24553
kan@@ 24551
hin@@ 24546
gef@@ 24487
äch@@ 24432
meister 24357
machte 24316
tt@@ 24312
Vertrag 24311
kt 24271
we@@ 24256
T 24235
los 24235
doch 24232
60 24226
zer 24225
Sommer 24223
21 24202
Hamburg 24200
Gemeinden 24192
F 24183
unden 24182
beispielsweise 24165
Maria 24154
ma 24129
eller 24103
zuvor 24092
1989 24066
meisten 24061
geführt 24047
kehrte 24028
London 24013
Ros@@ 24005
na 23984
Reichs@@ 23975
ich 23960
sieben 23960
Tr@@ 23933
Volks@@ 23928
elt 23923
Spieler 23918
per@@ 23915
av@@ 23874
kamen 23833
la@@ 23832
Mutter 23828
möglich 23787
24 23741
form@@ 23740
ersch@@ 23732
rit@@ 23683
teilweise 23635
hinaus 23628
ja 23616
aller 23586
ic@@ 23577
befinden 23571
etz@@ 23558
tra@@ 23556
Buch@@ 23554
Lu@@ 23523
son 23490
selben 23487
Br@@ 23478
lu@@ 23464
Mann 23451
vier@@ 23423
Schweiz 23398
Werke 23372
gelang 23356
arbeiten 23351
spiel@@ 23268
Europa 23267
genutzt 23239
lage 23211
äu@@ 23211
ation@@ 23186
Im@@ 23182
Georg 23152
DDR 23112
25. 23075
Verwaltungs@@ 23057
hen 23057
Schloss 23056
bei@@ 23035
League 23034
Arten 23013
süd@@ 23010
Rechts@@ 23008
Gu@@ 23005
Kre@@ 23005
Nor@@ 22993
Bur@@ 22955
ank@@ 22954
Kriegs@@ 22936
Rad@@ 22934
ihnen 22930
min@@ 22901
Vereinigten 22892
26. 22887
eigene 22865
Strecke 22856
he@@ 22845
str@@ 22843
Kn@@ 22812
nieder@@ 22800
22. 22787
daher 22785
Kreuz@@ 22775
tor 22767
Armee 22754
absolvierte 22704
War@@ 22670
stellt 22666
veröffentlichte 22657
Su@@ 22649
bar@@ 22623
bes@@ 22617
nachdem 22605
anischen 22594
alt@@ 22560
Co@@ 22554
get@@ 22531
folgende 22523
gründete 22520
Sol@@ 22509
Franz 22505
Spielen 22485
lagen 22474
zwei@@ 22434
Betrieb 22420
öl@@ 22419
oren 22378
Studium 22374
beg@@ 22373
geben 22356
di 22343
ator 22331
Mitglieder 22320
chen@@ 22320
fel@@ 22261
Danach 22240
ks 22227
uch@@ 22212
Fußball@@ 22211
Arbeits@@ 22197
Gl@@ 22184
Jugend@@ 22184
mel@@ 22182
sel@@ 22181
handelt 22175
etwas 22166
Ausbildung 22164
ett@@ 22146
Reihe 22145
28. 22144
kleinen 22139
Deutsche 22113
Gel@@ 22101
24. 22097
bo@@ 22095
fin@@ 22095
ad 22077
Welt@@ 22059
häufig 22020
Saint 21997
.@@ 21975
80 21959
Ludwig 21948
gestellt 21936
aufgenommen 21929
Tag 21926
sch 21892
Bruder 21891
kein 21879
einigen 21862
Weitere 21844
23. 21827
direkt 21817
raum 21812
Lin@@ 21811
stein@@ 21801
entstanden 21800
Hei@@ 21795
anz 21788
Ersten 21764
Militär@@ 21729
1972 21724
beide 21724
Bu@@ 21713
1988 21687
1933 21668
General@@ 21662
Gast@@ 21641
Eis@@ 21640
La 21633
deutlich 21581
0,@@ 21570
kleine 21551
Reich@@ 21544
letzte 21536
Hier 21531
Dar@@ 21513
nahmen 21507
Zwischen 21494
reg@@ 21484
Politiker 21477
27. 21441
tre@@ 21424
stellung 21422
Kirchen@@ 21419
ill@@ 21387
erh@@ 21348
dienst 21339
inn@@ 21329
alt 21305
22 21296
erreicht 21270
Gar@@ 21240
spieler 21235
Gemeinde@@ 21226
Bahnhof 21224
hinter 21203
Bereits 21188
sor@@ 21185
Luft@@ 21184
tor@@ 21159
ons@@ 21133
Michael 21121
ente 21116
1980 21114
Olympischen 21109
ms 21105
zwar 21104
land@@ 21094
gebäude 21077
cken 21067
somit 21056
fre@@ 21040
stelle 21021
Me@@ 21007
lässt 20998
außerdem 20977
Museum 20955
Buch 20949
pro@@ 20944
ai 20926
reich@@ 20923
fahr@@ 20906
esen 20894
führen 20872
weit 20864
dre@@ 20852
mm 20852
ursprünglich 20852
Ha@@ 20846
Bre@@ 20841
vielen 20841
ma@@ 20816
ss@@ 20810
diente 20782
Bal@@ 20773
1987 20765
29. 20764
Fernseh@@ 20760
rat@@ 20755
Cor@@ 20749
² 20747
1970 20727
Hin@@ 20705
Klasse 20704
inen 20704
stammt 20703
gemeinde 20700
ys 20688
Nähe 20685
br@@ 20649
Ziel 20639
sdorf 20635
County 20629
Den 20629
ernannt 20600
Thomas 20597
ling 20592
Stelle 20560
ind@@ 20560
ve 20545
gte 20525
mehreren 20516
70 20512
par@@ 20509
Sozial@@ 20508
Gesch@@ 20496
istische 20492
Wei@@ 20489
mat@@ 20461
Bor@@ 20420
Ho@@ 20418
Linie 20416
ungsp@@ 20415
1939 20412
men@@ 20411
Über 20407
Ko@@ 20400
Finale 20398
asse 20346
iten 20343
Berliner 20330
ano 20291
ex@@ 20265
Ä@@ 20264
Wasser 20197
AG 20188
yl@@ 20171
Siehe 20161
gewesen 20137
dafür 20123
Präsident 20122
1974 20116
gi@@ 20110
1938 20103
südlich 20103
Wieder@@ 20098
form 20091
ech@@ 20074
erwähnt 20065
H 20059
anschließend 20040
1986 20003
ön@@ 19988
Pre@@ 19976
Klein@@ 19974
gleich 19971
lan@@ 19958
pro 19935
Robert 19928
Zudem 19927
1984 19908
Haus@@ 19907
Em@@ 19899
Bezeichnung 19889
art@@ 19875
Inter@@ 19874
dritten 19867
Gründung 19857
ler@@ 19848
komm@@ 19838
eter 19836
San 19825
Alt@@ 19808
einge@@ 19806
gebaut 19799
Holz@@ 19791
š@@ 19782
31. 19774
versch@@ 19770
rei@@ 19767
Einwohnern 19757
nord@@ 19756
All@@ 19746
tionen 19744
Erfolg 19724
Spiele 19707
Gesamt@@ 19705
gesellschaft 19697
Kal@@ 19693
Mi@@ 19678
tion 19673
rich@@ 19672
weniger 19659
il 19633
Preis 19622
ise 19619
Ihre 19606
gesetzt 19603
entwickelte 19597
zusammen@@ 19596
90 19591
Martin 19579
eig@@ 19577
verheiratet 19570
1985 19564
National 19564
zer@@ 19560
1975 19557
enti@@ 19540
ino 19475
Ri@@ 19465
2,@@ 19450
mittel@@ 19445
to@@ 19441
sche 19438
enburg 19434
erster 19430
unde 19426
Chr. 19425
utz@@ 19419
ha@@ 19413
arten 19412
Ges@@ 19397
1978 19396
aden 19391
cher 19365
heiratete 19347
Hof@@ 19345
rü@@ 19339
23 19324
35 19323
Po@@ 19316
1944 19310
Mark@@ 19310
Produktion 19307
cm 19303
mal@@ 19284
größte 19279
Kinder@@ 19270
dar@@ 19263
est 19262
10@@ 19243
Dieses 19227
fahrt 19219
Wald@@ 19199
wald 19173
größten 19167
w 19161
P 19155
Nachfolger 19153
ihres 19153
äh@@ 19153
í@@ 19151
Mel@@ 19118
sen@@ 19117
amerikanischer 19106
Sprache 19092
fanden 19090
gung 19085
iker 19081
Schweizer 19049
Zwei@@ 19042
1976 19027
itt@@ 19024
kur@@ 19020
1968 19017
Pol@@ 19013
eil 18981
schafts@@ 18976
Wirtschafts@@ 18958
uss@@ 18957
500 18952
ett 18920
prä@@ 18920
International 18916
La@@ 18903
200 18902
weisen 18890
alter 18873
ion@@ 18856
1969 18853
1983 18834
uk@@ 18831
tiert 18828
ober@@ 18824
Pal@@ 18812
assen 18811
1979 18809
ak 18805
1973 18773
ius 18754
Weg 18746
1982 18734
nis 18723
met@@ 18718
spiele 18715
äre 18714
nördlich 18693
Köln 18688
bildet 18666
1971 18665
Grund 18664
Beim 18654
Rang 18648
West 18647
De@@ 18638
Feld@@ 18631
ßen 18618
befand 18607
1960 18588
heit 18555
Institut 18548
for@@ 18546
politischen 18546
Familienname 18539
verband 18534
welches 18534
umfasst 18514
neu@@ 18453
ganz 18436
ost@@ 18428
betrieb 18415
Damit 18399
ner@@ 18380
City 18368
Teile 18343
berger 18340
Euro 18326
up@@ 18325
Besitz 18311
Meister 18310
gek@@ 18310
ec@@ 18308
bu@@ 18268
Truppen 18265
gegeben 18263
lang@@ 18258
Verbindung 18238
Kap@@ 18237
alte 18235
dar 18234
Mat@@ 18232
Frankfurt 18229
Kloster 18229
Außen@@ 18227
Tage 18222
sin@@ 18214
Kaiser 18209
lag@@ 18203
ium 18194
1950 18192
legte 18180
ai@@ 18178
ologischen 18171
ehemalige 18131
1@@ 18127
! 18121
Johannes 18116
Mer@@ 18109
Staffel 18106
dem@@ 18105
hielt 18087
spielt 18084
1981 18082
Joseph 18080
tel@@ 18075
ley 18072
Bürger@@ 18063
Carl 18039
hausen 18038
ore 18036
Geb@@ 18035
Ser@@ 18034
England 18025
asch@@ 18011
io 18007
Raum 17991
Gegen@@ 17985
einmal 17984
Prot@@ 17981
buch 17970
Anschließend 17953
stell@@ 17950
th 17950
tungen 17950
entwickelt 17946
0@@ 17933
benannt 17922
brachte 17918
no@@ 17900
1946 17877
Wahl 17864
ze@@ 17861
Otto 17843
Italien 17836
lauf 17832
Dom@@ 17828
32 17820
amm@@ 17818
führung 17803
nung 17779
bt 17770
hohen 17767
ob 17739
Mag@@ 17733
Aut@@ 17732
Sieg 17728
Bischof 17717
Hälfte 17710
verkehr 17707
damaligen 17683
1964 17681
Wil@@ 17675
alb@@ 17672
Zuge 17666
v. 17655
Com@@ 17651
Nr. 17647
Leitung 17634
fläche 17630
Rennen 17628
Lie@@ 17618
Pr@@ 17587
Politik 17570
ho@@ 17569
stra@@ 17569
System 17565
langen 17552
nahe 17549
45 17547
einander 17542
belegte 17537
GmbH 17494
om 17490
1977 17486
Landes 17481
ari@@ 17469
wenig 17465
Tal@@ 17454
erg@@ 17452
Grenze 17431
Durch@@ 17424
Wein@@ 17421
Met@@ 17406
nahme 17405
rau@@ 17404
schul@@ 17397
baren 17396
aler 17390
ol 17368
lei@@ 17365
ot 17355
Kat@@ 17349
eit@@ 17346
endorf 17322
fiel 17321
Runde 17312
französische 17307
tsch@@ 17300
1967 17294
lung 17277
Ernst 17275
ud@@ 17256
bew@@ 17250
ebenso 17228
ade 17218
Länge 17217
zogen 17217
kal@@ 17212
ose 17212
Ihr 17207
britischen 17167
app@@ 17165
ül@@ 17160
bert 17159
els@@ 17158
wieder@@ 17156
aff@@ 17148
Begriff 17142
Arbeiten 17123
werke 17123
eigen@@ 17116
ay 17115
Leipzig 17109
ats 17108
burger 17104
Flug@@ 17099
Tro@@ 17083
fest 17083
Gew@@ 17078
Division 17063
elt@@ 17061
besitzt 17058
entfernt 17057
Kunst 17055
Bad 17047
Tour 17046
Vier@@ 17045
Kanton 17029
Nationalmannschaft 17029
Ortsteil 17013
1965 17012
ack@@ 17009
tri@@ 17005
tel 17002
oll@@ 16988
sogar 16988
ey 16967
ori@@ 16964
Stamm@@ 16961
Herrschaft 16954
bevor 16947
ay@@ 16943
Tre@@ 16920
einzige 16911
Du@@ 16910
ren@@ 16909
aren 16898
machen 16897
26 16893
hi@@ 16882
Aufgrund 16863
Ehe 16856
lebt 16856
per 16851
östlich 16832
ci@@ 16830
ären 16827
verein 16825
beträgt 16819
film 16810
See 16801
Stil 16799
Dem@@ 16777
deutsch 16768
anten 16763
1961 16761
alität 16751
wuchs 16744
amp@@ 16742
nehmen 16735
Sam@@ 16728
II 16716
Dre@@ 16714
Leiter 16714
Christian 16709
kor@@ 16706
Zentrum 16703
gebracht 16701
westlich 16694
1962 16679
ag 16676
Ant@@ 16660
ors 16660
weiterhin 16655
ausgezeichnet 16646
teil@@ 16640
Kreis@@ 16624
späteren 16621
hei@@ 16609
fte 16607
1940 16602
1966 16596
lebte 16589
Fall 16578
wei@@ 16570
1963 16568
ordnung 16559
linie 16556
Republik 16548
arbeitet 16547
At@@ 16546
emp@@ 16531
28 16529
wohl 16523
Ben@@ 16516
do 16511
ute 16504
bisher 16501
Ag@@ 16498
amb@@ 16461
Bayern 16457
ski 16456
ahl 16442
gefunden 16439
me@@ 16430
Männer 16418
tro@@ 16406
frühen 16393
1956 16390
Not@@ 16390
verbunden 16387
1952 16369
Sachsen 16361
ta 16352
fe@@ 16347
Cl@@ 16343
° 16343
ges 16341
1949 16337
Cal@@ 16337
lich@@ 16331
Firma 16321
internationalen 16321
1941 16311
Sub@@ 16292
1942 16287
uf@@ 16281
eher 16273
Theater 16254
Wie 16250
1948 16232
unk@@ 16201
Später 16200
tigung 16198
gh@@ 16194
erzielte 16178
Zahl 16176
Polen 16175
Ton@@ 16174
27 16172
1943 16156
nie 16155
uren 16155
hoch@@ 16149
Halb@@ 16146
Fläche 16138
acht@@ 16138
Dienst@@ 16135
Fel@@ 16129
Rei@@ 16124
Fern@@ 16104
fahren 16096
1958 16083
enthält 16082
Sa@@ 16080
tä@@ 16079
Park 16075
eck@@ 16070
weit@@ 16066
aktiv 16055
Fe@@ 16054
Hilfe 16042
Geographie 16040
vers@@ 16040
würde 16040
verlor 16028
Forschungs@@ 16017
Hol@@ 16015
Privat@@ 15992
kn@@ 15965
achen 15961
asi@@ 15959
Rot@@ 15947
Erst 15944
lig@@ 15937
müssen 15919
Tur@@ 15871
hand@@ 15868
Literatur 15857
tigkeit 15843
Besch@@ 15827
atur 15821
lediglich 15802
lungen 15792
Meisterschaft 15787
ah 15782
ara 15779
Wirtschaft 15743
Kultur 15722
hof 15720
yn@@ 15692
aw@@ 15691
Akademie 15656
Vor 15652
ierungen 15651
sport@@ 15648
bare 15646
rück@@ 15644
endete 15643
Pi@@ 15636
Syn@@ 15632
William 15632
David 15631
Vol@@ 15622
wagen 15621
ó@@ 15618
Wiener 15605
sich@@ 15590
König@@ 15580
verl@@ 15574
reich 15573
lebten 15570
kre@@ 15563
punkt 15561
un 15555
Neben@@ 15518
Erst@@ 15516
General 15512
net 15511
bilden 15509
ahn@@ 15508
Bra@@ 15499
leitung 15498
1957 15497
Hinter@@ 15489
sollten 15484
ologische 15481
beteiligt 15473
1959 15464
genden 15463
fol@@ 15448
Mos@@ 15447
Sie@@ 15443
Beschreibung 15441
aufge@@ 15440
Bahn 15436
dr@@ 15435
Mont@@ 15432
westlichen 15423
Regel 15421
65 15419
Gattung 15418
College 15417
Weltmeisterschaft 15412
ron@@ 15410
Grün@@ 15409
Konz@@ 15401
abge@@ 15397
Funktion 15393
j 15392
1947 15387
hren 15379
Vorsitzender 15376
Schiff 15372
folgten 15365
politische 15360
du 15358
gehörten 15358
Version 15357
Winter@@ 15352
id 15345
üt@@ 15329
ef@@ 15284
Schlacht 15276
gemein@@ 15275
inter@@ 15268
nimmt 15264
Bürgermeister 15263
Abschluss 15258
Te@@ 15257
Gal@@ 15256
Kin@@ 15248
Alexander 15245
tions@@ 15245
Verwendung 15241
öffentlichen 15240
ver 15239
3,@@ 15234
amerikanische 15233
kom@@ 15223
The@@ 15222
ks@@ 15217
iv@@ 15197
hohe 15192
ersetzt 15184
wirkte 15184
Richard 15176
Prä@@ 15162
ini 15162
tur@@ 15144
0er 15143
ort@@ 15137
pol@@ 15113
Hal@@ 15107
eit 15107
zug@@ 15098
tritt 15096
erb@@ 15091
führten 15086
Zeitpunkt 15081
standen 15059
erreichen 15051
ane 15045
1934 15041
Ter@@ 15041
1954 15039
wollte 15033
liga 15029
Sar@@ 15026
1936 15025
Burg@@ 15016
1920 15013
Hu@@ 15004
gten 15004
1953 15002
gern 15000
macht 14991
viel 14981
ativen 14975
Sel@@ 14953
isiert 14951
Uhr 14948
W 14945
Finanz@@ 14944
Sen@@ 14942
1919 14939
20@@ 14935
ili@@ 14934
Mari@@ 14933
wor@@ 14931
zahlreichen 14927
1955 14925
Arbeit@@ 14915
neun 14897
End@@ 14894
1918 14893
ce 14877
Mitarbeiter 14857
Kol@@ 14841
system 14841
ven@@ 14825
ters 14823
Union 14818
heraus 14798
jährigen 14794
wal@@ 14791
stände 14778
tion@@ 14778
Gi@@ 14774
verläuft 14763
Position 14757
zentrum 14752
ae 14750
Christ@@ 14746
Dollar 14739
ales 14739
č@@ 14735
Cup 14733
ann 14731
nten 14723
Bro@@ 14712
ften 14688
essen 14681
Künstler 14679
eich@@ 14678
75 14675
Man 14672
ath@@ 14672
du@@ 14651
sollen 14650
trägt 14645
wenige 14636
Ph@@ 14630
Gruppen 14609
acher 14609
of@@ 14609
gende 14603
Spielzeit 14602
Geschäfts@@ 14600
III. 14599
School 14599
ase 14596
siehe 14595
Hochschule 14593
Projekt 14590
Selbst@@ 14580
eröffnet 14574
eile 14572
bald 14562
weist 14543
tungs@@ 14538
beendete 14534
liste 14532
är 14532
weiter@@ 14531
hauptsächlich 14529
… 14524
iner 14513
knapp 14504
36 14489
cht@@ 14485
nächsten 14485
Roman 14477
Heute 14475
besten 14471
reichen 14470
ese 14462
auen 14442
ata 14440
Hermann 14426
á 14423
Anzahl 14420
res 14416
Sonder@@ 14404
Lei@@ 14402
Rhein@@ 14389
Renn@@ 14381
off 14374
Rom 14366
Schutz@@ 14348
‘ 14346
Verfügung 14342
gesamte 14342
früher 14327
ick@@ 14327
führ@@ 14312
ds 14309
erfolgreich 14308
oli@@ 14308
Vertreter 14305
keinen 14303
SV 14298
Doppel@@ 14284
bild 14284
ates 14283
1937 14282
Baden 14280
Beg@@ 14277
1951 14270
ehemaliger 14250
cke 14245
son@@ 14245
leich@@ 14239
by 14231
betrug 14230
erei 14227
Tätigkeit 14217
nah@@ 14205
China 14204
Amts@@ 14196
ip@@ 14180
po@@ 14179
Handlung 14178
Stadtteil 14177
Pri@@ 14176
Hö@@ 14174
ache 14166
Ol@@ 14152
iges 14151
bil@@ 14144
igkeit 14144
Ap@@ 14138
Gegensatz 14137
nte 14137
mussten 14136
Unterstützung 14131
ong 14124
+ 14122
führer 14122
1935 14115
nisse 14114
We@@ 14110
Bild@@ 14109
Erd@@ 14104
Rö@@ 14100
ats@@ 14100
dient 14098
äd@@ 14078
del@@ 14077
opp@@ 14077
och@@ 14070
Prof@@ 14068
Q@@ 14067
leiter 14066
Trainer 14060
Organisation 14058
Eltern 14042
Max 14039
darüber 14037
Pet@@ 14035
ite 14032
vermutlich 14029
formen 14005
Eisenbahn@@ 14003
bringen 14001
Jean 13991
kt@@ 13988
Verkehr 13958
1930 13956
wahl 13946
assi@@ 13934
Metern 13932
James 13927
atz@@ 13924
Vi@@ 13922
fra@@ 13896
Dresden 13894
sw@@ 13891
for 13888
33 13875
san@@ 13863
ies 13862
rech@@ 13861
34 13838
George 13836
gespielt 13836
oben 13833
Nachbar@@ 13823
arbeit 13819
gebildet 13818
Berg 13808
World 13804
anlage 13801
Wol@@ 13799
Hor@@ 13798
ica 13795
29 13792
sel 13789
Sand@@ 13782
su@@ 13782
Anlage 13781
vollständig 13778
dadurch 13769
no 13767
Werk@@ 13765
mo@@ 13743
gleichzeitig 13741
Verlag 13738
daraufhin 13738
Han@@ 13735
ek 13727
Soldaten 13717
heit@@ 13717
Gymnasium 13708
Op@@ 13706
werk@@ 13699
ko 13696
Verb@@ 13681
äm@@ 13671
leitete 13670
Lang@@ 13663
Je@@ 13648
Schüler 13645
Dam@@ 13638
Hoh@@ 13636
bietet 13631
tig@@ 13630
eilen 13615
Ban@@ 13613
legen 13606
Si@@ 13595
Sti@@ 13586
off@@ 13586
Zug@@ 13584
erer 13583
setzt 13583
pre@@ 13581
bin@@ 13574
Str@@ 13557
einzelnen 13547
frei 13543
Weltmeisterschaften 13542
minister 13541
31 13536
Regierungs@@ 13527
regelmäßig 13527
schied 13517
erwarb 13510
isen 13498
ro 13497
jahr 13491
denn 13490
64 13488
Dienst 13478
Pa@@ 13473
verließ 13466
X 13461
Ach@@ 13457
Innen@@ 13450
üb@@ 13448
Reich 13445
Mess@@ 13444
Dr. 13436
Hof 13436
Gleich@@ 13422
Dor@@ 13420
star@@ 13415
öh@@ 13411
überwiegend 13402
en- 13400
ha 13399
omm@@ 13392
Alle 13391
Hauptstadt 13390
ote 13389
1914 13385
ca 13383
ō 13380
Stiftung 13376
Lau@@ 13371
aj@@ 13369
1928 13367
Anschluss 13367
adi@@ 13363
Mannschaften 13349
uti@@ 13345
bs 13344
wür@@ 13344
enbach 13343
oten 13335
Motor@@ 13334
ue 13331
ni@@ 13330
ren 13326
Jugend 13323
indem 13320
Gold@@ 13307
Pan@@ 13302
Hannover 13297
zeichen 13295
Verlauf 13292
ät@@ 13286
ess 13281
zuletzt 13281
Artikel 13280
win@@ 13271
les 13268
Betriebs@@ 13253
ischem 13253
Fluss 13243
tlich 13243
Zwei 13241
bezirk 13231
übernommen 13224
leicht 13213
wiederum 13212
Ni@@ 13210
gemacht 13205
ki 13199
Einfluss 13198
1929 13193
Dazu 13193
lief 13193
Main 13186
zeigen 13185
ausschließlich 13172
historischen 13172
satz 13171
will 13171
Kurz@@ 13169
ly 13157
einz@@ 13156
Bundesliga 13154
bus 13154
Pil@@ 13150
Europ@@ 13145
Ba@@ 13142
gelegt 13142
endes 13123
trug 13117
da@@ 13115
van 13101
stri@@ 13097
ße 13096
fort 13093
leit@@ 13093
üh@@ 13088
400 13087
achten 13085
Direktor 13078
dt 13077
gene 13075
geschlossen 13071
ion 13063
gabe 13059
verloren 13059
Sprach@@ 13048
Fot@@ 13047
gingen 13044
sogenannten 13043
Minuten 13032
eist@@ 13024
Basis 13022
ierungs@@ 13022
Japan 13015
Auftrag 13006
isierung 13001
ev@@ 12999
Zusammenhang 12997
Schön@@ 12992
nis@@ 12988
mindestens 12987
wen@@ 12977
Grab@@ 12975
Chor@@ 12973
elten 12973
55 12972
1.@@ 12970
SC 12957
Walter 12957
mann@@ 12951
Zusammenarbeit 12949
Radi@@ 12948
östlichen 12941
Verwaltung 12939
gesamten 12939
zerstört 12926
Jo@@ 12920
Lied 12920
kar@@ 12916
Pe@@ 12915
ichten 12913
ya 12900
amen 12899
Val@@ 12894
38 12892
ure 12892
ständigen 12891
berg@@ 12889
gemeinschaft 12887
37 12884
zy@@ 12876
Friedhof 12874
ym@@ 12874
zeugen 12872
Zeitung 12869
galt 12862
umen 12862
verkauft 12862
Por@@ 12861
best@@ 12858
mi@@ 12856
anc@@ 12855
Tar@@ 12845
pr@@ 12840
ff 12839
Papst 12831
fall@@ 12830
heiten 12827
verwaltung 12826
jeder 12824
bereit@@ 12822
seien 12820
Ul@@ 12819
atz 12809
Zeitschrift 12808
ville 12806
Bildung 12805
wehr@@ 12804
kreis 12802
42 12801
iel 12799
lingen 12792
uten 12786
1932 12785
Nord 12778
startete 12777
Seiten 12773
entlang 12770
Geh@@ 12766
iken 12766
American 12765
Gemein@@ 12762
kaum 12761
Monate 12759
igt 12757
bestehen 12756
änge 12754
iti@@ 12751
res@@ 12746
Anna 12735
za 12732
Darüber 12730
heutige 12725
ele 12716
gu@@ 12715
üch@@ 12707
sol@@ 12695
bekannten 12689
Schauspieler 12686
mu@@ 12685
Pat@@ 12683
Grenz@@ 12681
ł@@ 12680
Wappen 12679
Schwer@@ 12675
Bon@@ 12673
Graf 12671
Orte 12669
Is@@ 12665
« 12662
V. 12660
4,@@ 12659
Post@@ 12656
Mc@@ 12654
Lan@@ 12637
1900 12636
River 12631
Umgebung 12618
Josef 12617
ähr@@ 12616
Ländern 12615
Club 12612
ken@@ 12607
teten 12605
atischen 12604
chter 12601
Rau@@ 12595
heißt 12589
ander@@ 12582
Charles 12580
ir 12571
6,@@ 12568
Abteilung 12564
» 12563
Zentral@@ 12558
ther@@ 12556
gericht 12541
ola 12535
chten 12523
änden 12523
ausgetragen 12520
Kritik 12504
Kapelle 12503
genen 12493
folgt 12491
großer 12488
Rund@@ 12483
erfolgt 12479
Plan@@ 12478
hol@@ 12462
Leit@@ 12457
berufen 12455
Mark 12445
enzen 12432
ziehen 12429
entin 12417
48 12414
por@@ 12414
Win@@ 12408
1970er 12406
itäts@@ 12402
dor@@ 12397
rö@@ 12397
Thema 12395
durchgeführt 12389
etten 12385
geschrieben 12385
nissen 12385
Autor 12381
Einige 12379
welcher 12378
trag@@ 12373
Stuttgart 12372
Jahres@@ 12368
katholischen 12368
wand 12363
entdeckt 12359
stätte 12344
heits@@ 12341
städ@@ 12340
Darstellung 12339
Frei@@ 12334
igung 12334
bildete 12333
sberg 12333
ns 12331
Russland 12330
erungen 12322
gra@@ 12316
betrieben 12315
kap@@ 12314
onn@@ 12314
Heim@@ 12313
Zürich 12312
tliche 12311
runde 12306
Recht 12301
stand@@ 12293
Star@@ 12283
Stre@@ 12280
Brücke 12275
anti@@ 12274
Bru@@ 12270
44 12266
digen 12263
1925 12261
1980er 12261
Pap@@ 12261
San@@ 12261
mehr@@ 12256
erstes 12248
Hör@@ 12247
europäischen 12246
jährlich 12238
bildung 12237
österreichischen 12218
Bezirk 12213
grund@@ 12209
verz@@ 12202
Turm 12197
Fußball 12192
Krieg@@ 12192
zwölf 12187
Insgesamt 12184
Kommun@@ 12184
weiterer 12179
Le 12174
Punkte 12173
Obwohl 12161
gän@@ 12161
sprache 12154
Staat@@ 12153
unternehmen 12146
Bild 12139
Sc@@ 12135
preis 12134
zusätzlich 12133
ian 12125
rechte 12123
gar@@ 12121
südlichen 12121
anische 12120
erbaut 12116
woh@@ 12116
Stra@@ 12111
Col@@ 12099
wahrscheinlich 12098
5,@@ 12097
Hintergrund 12093
welt@@ 12091
1927 12089
Chi@@ 12089
Verfahren 12081
Bahnstrecke 12079
Pau@@ 12079
Wir@@ 12077
stammen 12075
Tier@@ 12072
sion 12065
Eing@@ 12050
schn@@ 12049
1924 12045
Ju@@ 12045
für@@ 12039
grün@@ 12033
fallen 12015
Gol@@ 12014
ali@@ 12012
Heimat@@ 12011
gaben 12010
Steuer@@ 11981
iere 11976
Vom 11972
Sor@@ 11967
sodass 11965
Département 11962
Straßen@@ 11960
tu@@ 11951
TV 11948
300 11945
beginnt 11944
legung 11932
Daneben 11926
ligen 11926
Sach@@ 11908
feh@@ 11905
russischen 11903
Nordosten 11892
Award 11890
Herz@@ 11885
län@@ 11884
bauten 11882
‚ 11870
konz@@ 11865
Sy@@ 11863
Ac@@ 11862
Laufbahn 11862
Mitt@@ 11861
Schn@@ 11861
que 11860
cker 11853
bung 11848
ock@@ 11844
deshalb 11830
Stück 11821
SPD 11818
lauf@@ 11812
rot@@ 11809
Dec@@ 11803
gem 11801
alismus 11796
Wochen 11785
co 11776
fort@@ 11770
Super@@ 11768
To@@ 11760
chte 11759
Wi@@ 11754
weite 11746
1910 11745
Spe@@ 11736
angel@@ 11729
Schutz 11728
spek@@ 11726
Alb@@ 11724
ice 11724
Mu@@ 11721
Fer@@ 11717
rechts 11716
lie@@ 11714
Ehr@@ 11713
Lig@@ 11711
teils 11702
zahl 11702
weitgehend 11699
halt 11693
ott@@ 11689
mün@@ 11688
sicht 11680
ähn@@ 11676
ed 11670
d. 11665
gewinnen 11662
Siedlung 11659
har@@ 11659
spro@@ 11654
1960er 11653
Handels@@ 11652
wo@@ 11646
Markt 11643
verliehen 11643
Song 11640
Medi@@ 11630
schriften 11628
verfahren 11628
1921 11622
Brand@@ 11615
Nutz@@ 11605
Stand@@ 11603
Eich@@ 11597
anlagen 11597
Königreich 11590
United 11590
1990er 11586
schrift 11585
Verkehrs@@ 11581
Körper@@ 11579
ets 11579
selten 11579
Herbst 11576
Kern@@ 11568
ast 11568
eri@@ 11566
erw@@ 11563
Gest@@ 11558
turm 11556
ic 11554
entschei@@ 11551
Gerichts@@ 11546
relativ 11537
Jung@@ 11528
1931 11522
Doch 11521
Bezirks@@ 11520
größere 11519
dritte 11514
ars 11510
Dis@@ 11508
iel@@ 11505
Dach@@ 11500
freien 11497
Gem@@ 11492
Lo@@ 11492
Rein@@ 11491
anderer 11491
lers 11489
Ob@@ 11475
ante 11475
Bei@@ 11471
Weltkriegs 11469
bekam 11465
Südwesten 11462
sah 11459
gend 11451
ama 11442
aut@@ 11440
Kenn@@ 11437
sieht 11432
ile 11431
ask@@ 11427
mp@@ 11426
Fisch@@ 11423
jährige 11418
1923 11417
1926 11415
Halle 11412
Bus@@ 11411
west@@ 11409
Single 11407
Ortschaft 11404
wi@@ 11390
vertreten 11388
Daten 11378
Lehrer 11376
une 11376
Fahrzeuge 11371
stoff@@ 11370
ena 11369
ministerium 11368
erschienen 11362
zahlen 11356
Char@@ 11353
Anteil 11352
weltweit 11351
ste@@ 11344
italienischen 11341
? 11338
Allerdings 11338
Mil@@ 11335
Herkunft 11332
ichte 11331
sl@@ 11326
Ra@@ 11321
Angaben 11320
schwer 11319
ensi@@ 11318
hervor@@ 11318
Grand 11317
Far@@ 11314
Fußballspieler 11313
gelegenen 11312
Bil@@ 11306
gesp@@ 11299
Open 11296
fung 11292
41 11289
ani 11286
Voll@@ 11284
Bas@@ 11281
lig 11277
strecke 11276
39 11273
rig@@ 11271
ust@@ 11266
ahl@@ 11259
Mau@@ 11252
geschlagen 11247
ände 11246
Sitz@@ 11245
rechten 11243
elf 11237
Ly@@ 11236
digung 11232
gesetz@@ 11226
Bay@@ 11225
yp@@ 11225
1922 11223
inzwischen 11223
laut 11222
uss 11222
bra@@ 11220
ritt 11217
nt 11215
Mehr@@ 11211
Teilnehmer 11211
gegründeten 11209
Führung 11206
fü@@ 11204
ona 11200
Sammlung 11193
do@@ 11190
schlag 11187
Tor 11186
odi@@ 11180
barkeit 11176
Mas@@ 11172
Dat@@ 11170
52 11166
47 11161
Ham@@ 11161
Kampf 11155
wechsel@@ 11154
Festival 11153
Sim@@ 11150
Großen 11148
1912 11143
ings 11136
verein@@ 11134
Os@@ 11133
Il@@ 11132
Stunden 11130
namen 11125
Rudolf 11119
mittel 11117
träge 11117
ille 11116
lau@@ 11111
Forschung 11110
Laufe 11109
schaft@@ 11105
Nordwesten 11103
ella 11095
Auswahl 11093
Fol@@ 11087
Spanien 11084
ater 11080
nördlichen 11075
hoch 11073
Da@@ 11072
Staat 11071
geprägt 11066
Stern@@ 11062
Markt@@ 11061
größeren 11055
Fran@@ 11046
vorhanden 11045
25@@ 11044
genannten 11039
grenze 11024
Maler 11020
the@@ 11019
äs@@ 11010
entsprechend 11003
geworden 11003
Gro@@ 11001
Kategorie 11001
Schiff@@ 10992
Schriftsteller 10992
tem 10985
kul@@ 10984
ock 10984
Beide 10982
tragen 10982
englischen 10980
schnell 10980
atur@@ 10976
Philosophie 10974
Louis 10972
Weise 10971
Fried@@ 10970
43 10966
gehalten 10960
fal@@ 10957
Lag@@ 10951
hergestellt 10947
Möglichkeit 10944
mannschaft 10943
eng 10940
wert 10938
51 10936
Programm 10927
dagegen 10927
Bes@@ 10925
Punkten 10925
endet 10917
Regie 10901
Wander@@ 10899
Wolfgang 10892
wir@@ 10888
betrieb@@ 10887
sogenannte 10881
icht@@ 10880
Südosten 10877
des@@ 10877
verfügt 10875
dig 10874
inne 10870
wär@@ 10863
Fle@@ 10857
Hil@@ 10857
Z 10856
Großbritannien 10854
Leg@@ 10851
Kind 10849
stor@@ 10840
tiv@@ 10837
Typ 10835
85 10833
Größe 10831
Ku@@ 10822
toren 10822
gesehen 10819
dert 10815
gan@@ 10811
rie 10811
Kra@@ 10807
Stimmen 10807
plan@@ 10806
ry 10805
lige 10804
sk 10800
Veröffentlichung 10798
Tsch@@ 10795
aner 10795
Ergebnis 10793
zeug@@ 10792
statt@@ 10791
Abschnitt 10784
8,@@ 10783
Württemberg 10779
Tu@@ 10773
ierter 10771
tere 10767
Modell 10761
Städte 10755
Mot@@ 10752
sal@@ 10752
tischen 10747
eck 10737
produziert 10735
Mus@@ 10733
verk@@ 10730
vierten 10730
anne 10710
Kaiser@@ 10709
stei@@ 10709
Familien 10697
Fort@@ 10697
liegenden 10694
ativ 10692
beschrieben 10687
Wel@@ 10686
aut 10686
Wind@@ 10677
66 10675
Gelände 10675
jeweiligen 10674
wichtige 10670
ew@@ 10669
ga 10667
uh@@ 10665
verw@@ 10663
arbeitung 10659
stellten 10656
eingestellt 10653
Bern@@ 10650
wärts 10648
Ti@@ 10645
treten 10645
Albert 10642
fließt 10640
ard@@ 10631
höchsten 10629
stimm@@ 10625
ř@@ 10625
Tour@@ 10618
Erfolge 10616
alisierung 10614
wander@@ 10613
Del@@ 10612
sur 10612
Verbreitung 10609
ule 10604
ita 10599
schließen 10599
Ir@@ 10598
bek@@ 10596
46 10595
Anti@@ 10594
bekannte 10593
ys@@ 10592
Krieges 10584
Bir@@ 10579
früheren 10577
licht 10576
Nutzung 10574
wirtschaft 10573
Aufgaben 10565
jungen 10563
lands 10561
Folgen 10555
außerhalb 10554
Geg@@ 10551
ück@@ 10549
Juden 10547
56 10545
Wirken 10544
Ta@@ 10541
sport 10540
Bewegung 10538
Jur@@ 10538
Dan@@ 10535
ht 10535
Fr@@ 10532
klasse 10527
mm@@ 10522
ord 10522
ins@@ 10518
Wall@@ 10516
darin 10515
so@@ 10513
Ball@@ 10509
53 10504
Pra@@ 10503
ack 10497
enthalten 10496
tische 10493
Ehefrau 10492
Tore 10489
zahl@@ 10489
neten 10485
elte 10476
teilen 10465
schaf@@ 10461
onlyinclude 10457
Familien@@ 10456
ders 10454
familie 10453
hervor 10452
ufen 10449
Boden 10431
gebiete 10429
tierte 10423
band 10418
Oper@@ 10414
1913 10413
Nov@@ 10410
eingeführt 10408
Hessen 10407
bestritt 10407
Dorf@@ 10404
kommun@@ 10402
68 10397
Frage 10397
Tür@@ 10397
Los 10395
könnte 10394
Royal 10389
rän@@ 10385
Qualifikation 10381
Lö@@ 10380
Titel@@ 10380
ee 10378
zählen 10378
cken@@ 10375
mäch@@ 10374
Rom@@ 10369
7,@@ 10368
Hom@@ 10366
ös@@ 10365
tigte 10358
54 10347
Wor@@ 10342
internationale 10338
lin 10337
ā@@ 10336
49 10332
hält 10332
gol@@ 10330
Turnier 10323
Rel@@ 10315
vertrag 10311
mehrfach 10305
setzen 10305
Tal 10299
Kopf 10297
Vergleich 10296
h. 10296
62 10293
zeigte 10291
95 10288
Kron@@ 10286
Grafen 10278
nichts 10272
wissenschaft 10270
uc@@ 10269
Boden@@ 10266
Merkmale 10266
oph@@ 10266
gesetz 10264
gn@@ 10264
Zy@@ 10263
bedeutet 10252
ih@@ 10250
É@@ 10249
Orgel 10243
folge 10242
Schwester 10237
Gesetz@@ 10236
gewicht 10236
1911 10235
gerade 10233
Herzog 10231
schwer@@ 10224
spar@@ 10221
Motor 10219
Wert 10212
Island 10211
Sil@@ 10207
ser 10206
ähnlich 10203
flächen 10202
Ehren@@ 10197
1000 10195
dienen 10195
Trans@@ 10194
Spitz@@ 10190
kel@@ 10189
Tran@@ 10187
wissenschaftlichen 10186
Inseln 10184
Fal@@ 10182
S. 10179
67 10175
kes 10173
SS 10168
hätte 10164
trotz 10163
mark@@ 10159
Vaters 10158
hinter@@ 10158
breit@@ 10156
hingegen 10151
Hand 10140
denden 10138
aufgeführt 10136
Des@@ 10134
druck@@ 10134
Wagen 10131
wäre 10129
neuer 10120
Ungarn 10115
alis@@ 10115
ständig 10113
dienst@@ 10110
Bundesstaat 10108
Washington 10108
Westfalen 10108
derte 10108
offiziell 10106
ft@@ 10105
Off@@ 10096
Nur 10094
unterstützt 10082
beruf@@ 10078
PS 10071
Gas@@ 10067
Architektur 10066
name 10062
Mün@@ 10059
Bremen 10052
gleichnamigen 10052
ban@@ 10049
Rem@@ 10048
klein@@ 10048
zen@@ 10042
aufgelöst 10040
erne 10040
Fri@@ 10037
mäßig 10037
Herren 10033
Mac@@ 10029
gesprochen 10025
enth@@ 10018
schm@@ 10015
gruppen 10012
Industri@@ 10008
los@@ 10006
Sommer@@ 10002
tal 10002
trä@@ 9993
Schauspiel@@ 9990
Süd 9986
Frühjahr 9980
Sek@@ 9969
katholische 9967
57 9964
Kindern 9963
Schweden 9962
Bö@@ 9951
ford 9950
wirk@@ 9950
61 9948
Themen 9948
erhielten 9941
Frauen@@ 9937
platz@@ 9928
Jazz 9927
Letz@@ 9925
zählt 9923
wand@@ 9922
tak@@ 9920
ator@@ 9916
Fil@@ 9915
EU 9909
fünf@@ 9909
theater 9907
geg@@ 9902
Quellen 9895
Grundlage 9892
Bank 9891
1907 9884
sheim 9884
zugleich 9873
rieben 9870
SG 9864
tal@@ 9861
mess@@ 9860
Haup@@ 9856
lö@@ 9856
kop@@ 9854
bruch 9849
groß@@ 9848
Heiligen 9845
Landwirtschaft 9845
deten 9839
Zentr@@ 9838
Früh@@ 9836
len@@ 9834
Studi@@ 9833
So@@ 9831
Ste@@ 9829
ov 9827
Opfer 9826
ode 9826
Sowjetunion 9821
angeb@@ 9817
wider@@ 9812
ffen 9801
Deutsch 9798
umbenannt 9797
dest@@ 9793
rechts@@ 9790
sozial@@ 9787
Schulen 9781
obwohl 9781
Teilen 9780
schie@@ 9780
entspricht 9779
í 9775
Wald 9774
verantwortlich 9768
bewegung 9767
Techn@@ 9766
na@@ 9766
wenigen 9763
Raum@@ 9760
fle@@ 9759
zei@@ 9753
Winter 9749
Aufgabe 9740
namens 9735
ütz@@ 9732
Mol@@ 9729
links 9728
schrif@@ 9726
1905 9725
nam@@ 9723
Krank@@ 9710
ologe 9710
tlichen 9709
unten 9709
30@@ 9708
Ka@@ 9707
tigten 9706
Namens@@ 9699
uli@@ 9698
Go@@ 9696
Schon 9694
eien 9694
wie@@ 9693
werde 9690
our@@ 9687
punkte 9687
Rückkehr 9686
gefähr@@ 9683
Les@@ 9677
Schiffe 9677
Web@@ 9672
2022 9670
getragen 9665
Noch 9658
ain 9658
Pos@@ 9656
erweitert 9649
ative 9646
entwicklung 9641
Meister@@ 9635
58 9631
weiteres 9630
Ebene 9626
unbe@@ 9626
Länder@@ 9624
1917 9623
neues 9621
Wettbewerb 9618
eingesch@@ 9618
traf 9616
Söhne 9614
1908 9613
Sinne 9612
Aufbau 9611
Ram@@ 9609
verlassen 9609
Fu@@ 9605
Flu@@ 9602
vari@@ 9602
Schau@@ 9598
atoren 9597
inischen 9595
ographie 9592
Tiere 9587
wichtigsten 9587
Distrikt 9586
solche 9586
Teams 9583
Lim@@ 9577
Adolf 9570
dahin 9568
linken 9568
heraus@@ 9567
Tau@@ 9565
Ke@@ 9557
Sau@@ 9556
Do@@ 9554
Marie 9553
Viele 9553
li 9551
9,@@ 9550
Wider@@ 9550
Kauf@@ 9549
bestimmt 9547
letz@@ 9547
Rat 9546
Gut@@ 9542
Präsidenten 9541
reiben 9534
sech@@ 9532
wasser 9530
versuchte 9529
schutz@@ 9528
nete 9525
tum 9525
Ost 9521
asen 9520
öff@@ 9520
Wort 9518
72 9509
glichen 9509
wasser@@ 9509
höchste 9508
weiß 9499
× 9493
Indi@@ 9491
traten 9490
Technik 9489
wahr@@ 9485
Berufs@@ 9484
eres 9483
Theater@@ 9481
Person 9480
Dreh@@ 9479
Stat@@ 9478
arbeit@@ 9478
under@@ 9476
aben 9472
junge 9469
kern 9469
wäl@@ 9469
Moskau 9468
oper@@ 9467
Bri@@ 9465
park 9464
A. 9463
mach@@ 9463
WM 9449
ust 9448
Span@@ 9445
kr@@ 9442
rie@@ 9442
omen 9441
gemäß 9432
Werdegang 9431
Müller 9427
Station 9421
rad@@ 9420
mes 9414
Mur@@ 9412
iens 9412
rach@@ 9411
britische 9407
Gre@@ 9398
groß 9396
Et@@ 9395
Zer@@ 9385
sburg 9381
älteste 9376
Band@@ 9375
Air 9371
go 9367
59 9364
Cast@@ 9356
Koh@@ 9353
Stad@@ 9352
Frank 9349
blätter 9347
Düsseldorf 9343
legt 9342
Regional@@ 9339
ika 9337
Gener@@ 9336
ierenden 9336
fuhr 9331
basi@@ 9327
Leistung 9324
eingerichtet 9323
1906 9318
Aufstieg 9318
Objekte 9317
Licht@@ 9314
bleiben 9306
stoff 9305
Herr@@ 9304
fach@@ 9304
Gründen 9303
1950er 9297
Zeich@@ 9296
As@@ 9294
bur@@ 9289
69 9288
ehr@@ 9286
ros 9286
flug@@ 9285
kg 9283
brü@@ 9281
Pass@@ 9277
bor@@ 9276
grenzt 9272
blieben 9270
fällt 9266
Hektar 9263
ole 9259
Laut 9257
wissenschaften 9251
Niederlage 9247
station 9247
Gesetz 9245
fein@@ 9242
Musiker 9239
min 9237
Medien 9236
deut@@ 9235
De 9234
abteilung 9230
ink@@ 9225
ç@@ 9221
Polizei 9220
oberen 9220
Andreas 9216
Hy@@ 9216
römisch 9215
Ritter@@ 9212
99 9209
Ergebnisse 9207
GB 9207
sz@@ 9204
Halbfinale 9202
bedeut@@ 9201
glich 9198
produz@@ 9198
baute 9196
Tel@@ 9195
meisterschaft 9195
gelegene 9194
Wegen 9192
Werner 9190
versucht 9185
auses 9181
besaß 9176
iff@@ 9175
dro@@ 9174
Dem 9172
appen 9172
Philipp 9170
preußischen 9167
Mod@@ 9166
Tit@@ 9165
IV. 9163
Mär@@ 9163
musik 9162
CDU 9154
atik 9154
Interesse 9153
erungs@@ 9153
schluss 9150
Gut 9143
Architekten 9142
Einführung 9142
Stell@@ 9131
allein 9131
zweit@@ 9130
tau@@ 9128
ziel@@ 9126
mittels 9125
71 9123
Literatur@@ 9121
Rich@@ 9120
dig@@ 9120
wes@@ 9116
shof 9112
Ortes 9109
ans@@ 9107
dargestellt 9107
Weiteren 9105
yn 9104
&#124; 9103
dete 9102
Abitur 9101
Wenn 9101
amm 9100
nor@@ 9097
wissenschaftliche 9096
Art@@ 9095
Gran@@ 9089
fen@@ 9088
Brandenburg 9080
Kraft 9080
erscheint 9077
emen 9072
Dol@@ 9067
ri 9066
Res@@ 9065
Wirkung 9059
jüdischen 9059
erklärt 9057
schutz 9057
far@@ 9056
Mad@@ 9054
selbst@@ 9053
serie 9052
Zentimeter 9051
istik 9048
verbreitet 9047
ump@@ 9041
verlegt 9041
mar 9040
1909 9035
Feuer@@ 9034
mor@@ 9031
dien@@ 9030
ands 9028
Kant@@ 9024
kampf 9024
spricht 9019
bte 9017
angeboten 9015
Log@@ 9014
lte 9013
Sprachen 9009
ick 9007
Ed@@ 8998
hr 8997
mus 8996
beschäftigt 8994
zul@@ 8988
seh@@ 8984
J. 8982
wodurch 8980
0.000 8979
va 8977
My@@ 8973
Europäischen 8971
gs 8971
Don@@ 8970
Wirk@@ 8968
kleiner 8966
Bonn 8965
Company 8965
heim@@ 8964
ebenda 8963
Gold 8961
Weltkrieges 8961
Australien 8959
zeiten 8959
südwestlich 8957
stellungen 8956
Auszeichnungen 8952
spl@@ 8948
gens 8945
88 8944
früh@@ 8942
züge 8941
old 8938
trau@@ 8937
Gottes@@ 8936
teilte 8936
Den@@ 8935
Records 8927
nationalen 8926
Pfarr@@ 8923
Der@@ 8917
hil@@ 8916
cks 8913
96 8908
nominiert 8905
63 8904
Chor 8901
Trau@@ 8897
Dek@@ 8894
Brü@@ 8889
Dra@@ 8888
Ü@@ 8888
voll 8887
Kloster@@ 8883
unmittelbar 8883
zentr@@ 8883
Sä@@ 8878
stan@@ 8876
leb@@ 8874
lungs@@ 8872
römischen 8871
gezeigt 8868
genau 8865
zwe@@ 8864
è@@ 8863
Ok@@ 8862
Lar@@ 8860
esischen 8860
zuerst 8857
Chem@@ 8856
Tab@@ 8856
kel 8852
gegen@@ 8850
stab@@ 8850
Hamburger 8848
eins 8848
istisch 8842
wehr 8839
ass 8835
Rock 8831
nungen 8830
zeichnet 8828
Verband 8827
AS@@ 8826
Punkt 8820
1904 8818
Fritz 8818
Tak@@ 8816
folgen 8816
brücke 8813
recht@@ 8812
gehend 8811
breit 8810
Alfred 8804
Anton 8804
Bücher 8803
Kop@@ 8794
Erste 8792
Produktions@@ 8791
stehenden 8790
Red@@ 8789
dens 8783
Nummer 8780
Schm@@ 8772
Erb@@ 8769
98 8764
digt 8764
Seg@@ 8763
mechan@@ 8760
Hir@@ 8758
78 8757
größ@@ 8753
zäh@@ 8751
fabrik 8750
enes 8749
Zusammen@@ 8748
Fü@@ 8743
südöstlich 8743
q@@ 8740
ib@@ 8739
Kas@@ 8738
1915 8735
ker@@ 8735
Roh@@ 8734
fr@@ 8734
schlag@@ 8731
Plat@@ 8726
Tages@@ 8725
unterschiedlichen 8725
fs 8724
usi@@ 8723
Rat@@ 8722
ständen 8722
bewer@@ 8719
dende 8718
Heimat 8715
Mühl@@ 8713
gezogen 8713
mung 8713
Liebe 8711
historische 8709
itäten 8709
mus@@ 8709
Mei@@ 8708
ungs- 8705
Sei@@ 8704
Studien 8704
Train@@ 8700
No@@ 8697
Sig@@ 8697
roman@@ 8695
teile 8695
Partei@@ 8693
ix 8693
Angeles 8684
lern 8684
Druck@@ 8681
isp@@ 8676
ald 8675
brau@@ 8675
Rhein 8674
ost 8674
liz@@ 8670
Erz@@ 8667
150 8663
französischer 8662
Standort 8660
moder@@ 8658
CD 8654
05 8647
Nacht 8642
Wes@@ 8635
lose 8635
ram@@ 8635
tenen 8634
Poly@@ 8629
mitt@@ 8627
rem@@ 8625
Des 8624
bleibt 8622
ond@@ 8622
bro@@ 8619
04 8616
Fernsehen 8616
fäl@@ 8616
oss 8613
Daniel 8607
mühle 8606
Rep@@ 8603
we 8602
Ausgabe 8601
Debüt 8601
Häuser 8600
Schauspielerin 8598
Preußen 8595
Internationalen 8594
eth@@ 8590
Henry 8589
garten 8585
bestimmten 8584
Baum@@ 8583
bahn@@ 8583
Kurz 8579
Wild@@ 8579
Sport 8576
Leistungen 8575
sth@@ 8573
oy@@ 8571
gs@@ 8563
Elisabeth 8562
ahr@@ 8560
buch@@ 8559
86 8557
theorie 8556
wa 8555
bre@@ 8553
Quelle 8551
ester 8551
Seiten@@ 8548
Lauf 8544
beste 8544
ernen 8542
würden 8542
zweimal 8542
tiger 8539
Parlament@@ 8538
Kampf@@ 8537
enhaus 8533
ologen 8530
ora 8526
gers 8524
Parlament 8523
Flughafen 8522
Lauf@@ 8522
Mart@@ 8522
2.@@ 8521
gelten 8520
Text 8516
sprach@@ 8516
sied@@ 8515
Regisseur 8512
geschaffen 8512
Anf@@ 8510
Villa 8510
Wehr@@ 8507
museum 8506
Kun@@ 8503
Start 8502
State 8501
ada 8501
eben 8495
erie 8489
derung 8488
Can@@ 8487
Programm@@ 8486
dis@@ 8485
belegt 8484
spielten 8484
Gau@@ 8479
enstein 8476
psych@@ 8474
tigt 8469
Kanada 8462
Trotz 8460
hö@@ 8460
anzu@@ 8458
1903 8457
förmig 8455
gegründete 8453
ppen 8452
schiff 8452
vertrat 8449
ly@@ 8447
Auflösung 8446
Ann@@ 8444
Refer@@ 8443
dene 8443
Jan@@ 8441
nordwestlich 8437
Films 8435
76 8431
äuß@@ 8430
leg@@ 8426
40@@ 8425
92 8424
Sänger 8424
Weg@@ 8424
ong@@ 8421
forschung 8420
Informationen 8417
ement 8416
sub@@ 8415
haltung 8414
Nürnberg 8412
geist@@ 8408
Situation 8406
entschied 8406
kurze 8405
sa 8404
errichtete 8401
sitz 8401
Rh@@ 8400
Pfarrkirche 8399
ala 8398
berech@@ 8398
schließt 8398
Spar@@ 8392
graben 8392
lichkeiten 8391
polnischen 8391
weis@@ 8391
Richter 8390
herr@@ 8386
Emp@@ 8383
regierung 8382
verkaufte 8381
Aufnahme 8380
Fin@@ 8377
nordöstlich 8374
bef@@ 8365
vol@@ 8364
zugeordnet 8363
Probleme 8362
Erzbischof 8359
reicht 8359
gewonnen 8358
Förder@@ 8357
Straf@@ 8356
erkennen 8352
Ziel@@ 8351
Gedenk@@ 8348
Start@@ 8347
Durchmesser 8343
Christoph 8342
Men@@ 8338
ehe 8336
Autoren 8330
Bevölkerungs@@ 8329
Bek@@ 8327
08 8322
erklärte 8322
1916 8320
bezeichnete 8317
Die@@ 8311
Top 8310
zählte 8310
Spr@@ 8309
aur@@ 8305
mei@@ 8305
Denkmal@@ 8303
Wen@@ 8303
flo@@ 8302
old@@ 8298
800 8296
ome 8294
Bank@@ 8290
öp@@ 8290
South 8286
handelte 8283
wesen 8281
tive 8277
Hab@@ 8276
linien 8275
verli@@ 8275
Lü@@ 8274
Pfarrer 8266
Radio 8266
verfasste 8264
trainer 8263
Ferdinand 8262
Alten@@ 8253
Moder@@ 8251
Straßen 8251
geber 8251
Münster 8250
Beziehungen 8247
Fakultät 8247
Wettbewer@@ 8245
Projek@@ 8243
jetzt 8243
zunehmend 8242
Engl@@ 8239
Kommission 8239
Stau@@ 8229
dige 8227
haf@@ 8226
dungs@@ 8224
Freiburg 8222
Mittelalter 8222
Ausstellung 8218
angelegt 8217
Freund 8215
erstreckt 8211
Fenster 8206
Kirchen 8206
ppe 8200
1902 8197
niedri@@ 8193
ien@@ 8192
83 8190
bot 8190
94 8189
77 8187
istin 8186
stit@@ 8184
ros@@ 8182
74 8181
tz 8181
atische 8177
Erde 8176
Bewohner 8174
finanz@@ 8174
§ 8173
domin@@ 8171
73 8170
Dr@@ 8160
hel@@ 8157
organisation 8156
übertragen 8154
altung 8150
werken 8149
82 8148
09 8146
Hau@@ 8144
Fi@@ 8142
eu@@ 8142
ps 8142
tag 8142
Kos@@ 8139
utsch@@ 8138
sitz@@ 8130
ty 8126
wiesen 8126
ganze 8124
getrennt 8121
Ich 8119
Netz@@ 8114
hör@@ 8114
07 8108
elles 8106
geborene 8106
Arch@@ 8104
Besetzung 8104
Bü@@ 8104
Wett@@ 8104
promoviert 8104
Kam@@ 8103
gestaltet 8103
löste 8102
Bol@@ 8100
fälle 8098
Bach 8097
bürger@@ 8095
scher 8095
mut@@ 8094
House 8093
Kosten 8093
Öffentlichkeit 8092
bestimmte 8091
our 8091
600 8087
Auß@@ 8087
stärk@@ 8084
Ren@@ 8080
hän@@ 8079
grad 8078
uns 8078
Regiment 8077
daran 8077
Formen 8075
Filme 8074
ari 8074
modernen 8074
Geld 8073
itzer 8073
onie 8072
zustellen 8072
ahn 8070
jede 8068
greif@@ 8065
ø@@ 8064
81 8060
Einheit 8051
III 8051
Arn@@ 8048
Teilnahme 8047
olog@@ 8041
ionen 8039
German@@ 8038
Brüder 8037
ekt 8036
Zweit@@ 8035
stets 8035
utz 8034
1901 8029
Wand@@ 8029
ografie 8027
01 8025
Eigenschaften 8025
außer 8023
beit@@ 8023
hre 8022
japanischen 8020
leh@@ 8020
Gustav 8018
bes 8015
Orgel@@ 8013
let 8006
Revolution 8005
Fund@@ 8003
93 8001
etz 8001
gar 8001
Königs 8000
falls 8000
ula 7998
Lat@@ 7996
Kast@@ 7994
ager 7993
Wolf@@ 7990
richtung 7990
Vis@@ 7989
Mön@@ 7988
Rek@@ 7987
itt 7982
scht 7981
nischen 7977
err@@ 7976
Anwendung 7975
besitzen 7975
ou 7973
pres@@ 7972
fahrer 7971
Hann@@ 7970
ax@@ 7965
öffentliche 7965
flu@@ 7964
Ged@@ 7963
ohn 7960
starken 7960
Mädchen 7958
ls 7956
enheit 7954
sächsischen 7949
Spitze 7948
eigentlich 7946
via 7946
84 7940
umfasste 7938
Dadurch 7935
Music 7933
ept@@ 7933
anstalt 7932
Szene 7930
beck 7928
drei@@ 7927
zuständig 7925
Bürger 7923
orte 7922
Nah@@ 7921
Weiß@@ 7920
ı@@ 7920
87 7916
Infrastruktur 7915
ac 7915
Herstellung 7913
satz@@ 7913
seitdem 7913
vo@@ 7911
ließen 7905
ont@@ 7902
tag@@ 7902
imm@@ 7899
Society 7893
Länder 7892
iter@@ 7892
lerin 7892
spr@@ 7889
Invest@@ 7888
ide@@ 7888
gener@@ 7885
wechsel 7880
Künst@@ 7876
Deutschlands 7873
abe 7872
spä@@ 7871
1848 7869
alles 7868
reiber 7868
Cas@@ 7867
trag 7866
dan@@ 7865
Priv@@ 7864
Gru@@ 7863
uz@@ 7863
ail@@ 7862
rel@@ 7860
ehen 7859
ón 7858
Histor@@ 7857
Volk@@ 7857
89 7854
Rech@@ 7854
kirchen 7853
schein@@ 7853
üm@@ 7853
Pfalz 7851
fri@@ 7850
schei@@ 7846
Kamer@@ 7845
ichtet 7844
aufgestellt 7840
Vorder@@ 7836
schnitt 7835
nahezu 7834
Höh@@ 7832
regel@@ 7829
Polizei@@ 7826
anders 7826
ron 7826
setzung 7825
Stif@@ 7824
Bed@@ 7818
unterhalb 7818
Geografie 7807
mündet 7805
97 7802
ekt@@ 7801
mittlerweile 7800
icht 7798
North 7796
ständige 7795
Theologie 7794
Ori@@ 7793
freie 7789
weiten 7789
Tradition 7788
markt 7787
Drei 7786
Glas@@ 7784
Salz@@ 7782
ée 7782
lim@@ 7781
erseits 7778
Ki@@ 7774
Ker@@ 7773
Son@@ 7771
Stein 7770
Nar@@ 7768
Kraft@@ 7765
je@@ 7763
osen 7763
Hart@@ 7762
1898 7761
Blatt@@ 7759
Kü@@ 7755
gig 7755
Pu@@ 7753
abgesch@@ 7750
1899 7741
tenden 7741
chs@@ 7737
derzeit 7737
entweder 7736
ograf@@ 7735
Wag@@ 7730
ater@@ 7730
ide 7729
lik@@ 7729
hy@@ 7728
Neub@@ 7725
Schwarz@@ 7723
ais@@ 7721
Verein@@ 7720
Bauern@@ 7719
lernte 7718
rek@@ 7718
wirkt 7716
Jan 7715
Bew@@ 7714
Bilder 7714
Stahl@@ 7713
ain@@ 7713
leitet 7708
verschw@@ 7707
Recht@@ 7705
91 7704
direktor 7695
rand 7695
Alben 7694
aufgebaut 7694
sprach 7693
ame 7689
Küste 7687
bst@@ 7687
losen 7686
Gründungs@@ 7684
brach 7684
wesentlich 7681
18@@ 7680
Ther@@ 7678
sätze 7676
hung 7675
verstarb 7672
Gebiete 7669
unteren 7667
Arm@@ 7666
Spann@@ 7663
ret@@ 7662
Ris@@ 7661
krit@@ 7661
bru@@ 7659
Indien 7658
ücken 7656
Bildungs@@ 7654
begonnen 7653
ott 7652
Det@@ 7648
ital@@ 7648
abgeschlossen 7645
angs@@ 7645
haus@@ 7644
hätten 7640
yst@@ 7638
Mitgliedern 7637
nungs@@ 7637
besetzt 7634
ursprünglichen 7634
Russ@@ 7633
ais 7632
Fein@@ 7629
NS 7627
Domin@@ 7626
eröffnete 7625
ages 7624
Kalifornien 7623
Dok@@ 7618
Ot@@ 7618
Ring@@ 7618
illi@@ 7617
Kir@@ 7613
C. 7612
lichem 7612
Eck@@ 7610
ox@@ 7608
abzu@@ 7605
ko@@ 7603
gemeinsamen 7600
amt@@ 7599
ichts 7595
kleinere 7593
1890 7590
Wahr@@ 7587
ches 7587
fordert 7587
Vereine 7584
Vog@@ 7584
begannen 7584
ländischen 7583
gekommen 7582
Patri@@ 7579
Bezug 7577
Höhen@@ 7576
Stadion 7576
Einheiten 7574
versammlung 7573
Hockey 7572
Tagen 7572
arische 7572
fassung 7571
Parteien 7570
Millimeter 7568
füh@@ 7568
tieren 7568
Lehre 7564
gewiesen 7563
etten@@ 7559
Sw@@ 7558
sum@@ 7558
Sab@@ 7556
Aufnahmen 7555
samm@@ 7555
Reis@@ 7554
film@@ 7554
proz@@ 7554
Neubau 7551
int@@ 7548
Entstehung 7547
00 7543
yr@@ 7542
Macht 7541
Roll@@ 7540
sper@@ 7539
Vereins 7538
nehm@@ 7534
Körper 7531
Zw@@ 7531
rom@@ 7528
Zusammen 7527
Nat@@ 7526
Tom@@ 7526
plätze 7526
kauf@@ 7525
jur@@ 7522
krieg@@ 7522
weis 7521
verbrachte 7519
Besuch 7517
App@@ 7516
Stellung 7516
Umwelt@@ 7515
nitz 7514
tif@@ 7511
empf@@ 7510
jedes 7509
kan 7508
Konzept 7507
Inn@@ 7505
Vir@@ 7504
000 7503
Komp@@ 7500
schuf 7500
ō@@ 7500
ausgestattet 7497
länder 7497
79 7496
angegeben 7496
op 7496
rad 7492
Daher 7491
iss 7489
lehr@@ 7489
ruppe 7489
Ty@@ 7488
Untersuchungen 7488
Hall 7483
Mun@@ 7483
Dro@@ 7481
späten 7478
Landtag 7477
Druck 7476
Große 7475
essi@@ 7474
Chicago 7472
stif@@ 7472
spätere 7471
pflanz@@ 7470
Pierre 7467
not@@ 7466
seits 7463
ere@@ 7461
Hier@@ 7460
dungen 7458
jedem 7458
älteren 7456
änder 7455
hinzu 7454
ú@@ 7454
kat@@ 7453
Geld@@ 7452
Santa 7452
felder 7447
pal@@ 7445
einzigen 7439
Vill@@ 7438
dortigen 7438
Kab@@ 7436
gangs@@ 7435
log@@ 7433
M. 7431
fern@@ 7431
lieg@@ 7431
oll 7429
Meer 7427
bank 7426
sprech@@ 7425
gert 7424
weg@@ 7422
06 7420
Formel 7420
ellen@@ 7420
tschech@@ 7416
zweiter 7414
Wahlkreis 7413
selb@@ 7412
ura 7412
klär@@ 7409
wur@@ 7405
Heil@@ 7404
liegende 7404
Status 7403
erhoben 7403
Rechte 7399
ea 7396
oo@@ 7394
ader 7393
Sem@@ 7390
wertung 7390
Eigen@@ 7389
1895 7388
bekann@@ 7386
Gericht 7384
Zunächst 7384
arch@@ 7383
ju@@ 7383
schätz@@ 7383
1896 7381
bild@@ 7381
ennen 7380
Theorie 7378
bauen 7378
Kontakt 7377
kennen 7377
Hotel 7373
chs 7372
Lieder 7371
Sieger 7371
befördert 7371
1870 7370
Mio. 7370
Städten 7369
iden 7369
Daraufhin 7365
Regel@@ 7365
struktur 7365
Figuren 7363
steh@@ 7361
Dep@@ 7360
ua 7360
Ausland 7356
Nordrhein 7356
car@@ 7356
Jakob 7353
Zeiten 7351
Züge 7351
zerstör@@ 7351
Mand@@ 7344
Sonn@@ 7343
Š@@ 7342
pe 7339
stück 7339
zieh@@ 7339
Schei@@ 7338
schlug 7336
verschiedener 7333
Kapit@@ 7332
On@@ 7332
Tode 7332
are@@ 7332
ash@@ 7331
Medizin 7330
án 7329
Werken 7328
besondere 7328
ico 7326
Fuß@@ 7323
Prozess 7323
eiler 7323
aktiv@@ 7322
anda 7322
Organ@@ 7317
tnis 7315
politik 7312
Kammer@@ 7309
mitteln 7304
Angriff 7300
Prag 7297
Meisterschaften 7296
Förderung 7294
Schleswig 7294
Entscheidung 7292
ear@@ 7291
aup@@ 7290
Beobach@@ 7289
geplant 7288
länge 7288
hl 7285
Weit@@ 7284
bestimm@@ 7284
unterschiedliche 7284
Ep@@ 7281
Heidelberg 7281
did@@ 7280
kol@@ 7279
iers 7278
unver@@ 7274
ign@@ 7272
illa 7268
Basel 7266
Lor@@ 7264
Lam@@ 7261
deg@@ 7260
Kreuz 7258
Rand 7255
rich 7255
Amtszeit 7254
Herren@@ 7254
Mannschafts@@ 7253
Kommunal@@ 7252
Reit@@ 7251
Tief@@ 7251
kurzen 7250
Deutsch@@ 7249
feld@@ 7249
Brit@@ 7246
sbach 7246
griechischen 7245
geleitet 7244
stes 7244
zone 7244
1,5 7242
deck@@ 7242
Todes@@ 7241
Na@@ 7237
Association 7234
Einwohnerzahl 7233
Seit@@ 7233
beziehungsweise 7232
Alp@@ 7231
spanischen 7228
Chin@@ 7226
organis@@ 7226
verg@@ 7226
ž@@ 7224
IS@@ 7223
Zustand 7219
aum 7219
benutzt 7219
techn@@ 7219
à 7215
stands@@ 7211
Schriften 7208
Institute 7204
Spezial@@ 7203
1897 7202
Bot@@ 7201
High 7201
werte 7201
theit 7199
Elemente 7196
reihe 7192
wirken 7191
Beziehung 7188
con@@ 7188
erische 7185
Gleichzeitig 7184
Sankt 7183
Cy@@ 7179
rischen 7178
witz 7178
jek@@ 7177
vorwiegend 7175
ungs 7174
Reb@@ 7173
1871 7172
ello 7170
völlig 7170
zufolge 7168
Bul@@ 7165
zentrale 7163
Fürst@@ 7162
ild 7162
schiff@@ 7161
Cam@@ 7158
gute 7158
ias 7158
m. 7157
Marine 7156
beschreibt 7156
ther 7156
Vereinigung 7154
steu@@ 7154
stätten 7153
Verhältnis 7152
awa 7152
treffen 7149
uer 7149
eim 7148
Boot 7145
Elektro@@ 7145
werks 7144
mod@@ 7142
Klin@@ 7139
bislang 7138
lis 7136
änderte 7135
mauer 7134
Nachbargemeinden 7130
Heinz 7128
Abgeordneter 7127
Mak@@ 7127
Charts 7117
ère 7116
Natur 7112
Sehenswürdigkeiten 7108
teilung 7106
Farb@@ 7105
Figur 7105
Mexiko 7104
Einrichtungen 7102
radi@@ 7102
Fak@@ 7099
Test@@ 7097
Fra@@ 7094
Schwerpunkt 7094
ras@@ 7094
ris@@ 7093
Einsatz@@ 7091
ältesten 7090
äss@@ 7089
Gruppen@@ 7088
Pot@@ 7088
eichen 7088
Güter@@ 7087
versehen 7087
Ebenfalls 7084
Reise 7084
übrigen 7084
Kri@@ 7081
Mainz 7080
eich 7075
Beruf 7072
bern 7071
male 7070
British 7068
sa@@ 7068
Arrondissement 7065
großes 7065
suchen 7065
fül@@ 7062
nieder 7057
erinnert 7056
zus@@ 7056
besser 7055
ossen 7055
Kurfür@@ 7054
Friedens@@ 7053
Universitäten 7050
Fragen 7049
Strom@@ 7046
volle 7044
sig@@ 7041
entlichen 7040
heimer 7040
produktion 7039
sprechen 7039
ammer 7035
Öl@@ 7035
stat@@ 7034
Gott 7030
för@@ 7030
mt 7027
schaffen 7026
00@@ 7025
ennung 7024
ton@@ 7023
fak@@ 7022
Idee 7016
ungefähr 7014
politisch 7013
Komponist 7010
03 7008
Hen@@ 7007
Ufer 7007
keits@@ 7006
ves 7005
Arts 7004
dau@@ 7004
starke 7004
Deb@@ 7003
Bistum 7001
Holz 6997
Top@@ 6996
mark 6994
igte 6991
ao 6990
natur@@ 6990
mals 6987
Jahr@@ 6984
Zeitraum 6983
annten 6983
ath 6983
gewer@@ 6977
Mach@@ 6976
fäh@@ 6976
benannte 6974
Wo@@ 6973
isation 6973
last@@ 6973
bri@@ 6972
geb 6971
rates 6971
sicher@@ 6970
räum@@ 6968
könne 6967
verurteilt 6965
Klaus 6964
Has@@ 6961
schweren 6960
küste 6958
Cap@@ 6954
Klassi@@ 6954
Tonnen 6950
Unternehmens@@ 6950
ßer@@ 6948
J 6946
Mich@@ 6943
dy 6942
Mes@@ 6940
owa 6940
Wahlen 6939
sis 6939
Flügel@@ 6938
kreuz 6938
Bundesrepublik 6934
kung 6934
räume 6934
Songs 6930
Abs 6928
ätze 6928
häuser 6927
Einrichtung 6926
parallel 6926
All 6923
Ass@@ 6918
Silber@@ 6917
grund 6916
shaus 6916
österreichischer 6916
wir 6914
Bos@@ 6912
frei@@ 6910
Ähn@@ 6910
Ausstattung 6908
Academy 6907
ke@@ 6904
bli@@ 6902
vorgesehen 6902
ierende 6901
nutz@@ 6901
schaffte 6901
reibung 6899
hoher 6898
Zahl@@ 6897
üssen 6897
ritten 6894
einschließlich 6891
ire 6891
Schwar@@ 6888
urg 6888
SA 6887
pe@@ 6882
Av@@ 6880
erhält 6880
tö@@ 6880
Zwischen@@ 6875
akademie 6871
Inhalt 6870
Schle@@ 6870
kehr@@ 6869
Kno@@ 6867
leistung 6867
Hersteller 6866
ela 6863
Ausnahme 6859
jahren 6858
Veranstaltungen 6856
1893 6854
weder 6851
Lake 6850
Roman@@ 6847
eis@@ 6845
hof@@ 6845
wirtschaftlichen 6845
hor@@ 6843
Hall@@ 6842
Zivil@@ 6841
Breite 6838
Tat@@ 6838
Wissenschaften 6838
rot 6837
lex@@ 6836
pen@@ 6835
Jap@@ 6833
Grafschaft 6832
Verkehr@@ 6831
rieb 6830
wollen 6829
Dänemark 6826
Lebens 6826
Handel 6825
Ess@@ 6820
Nicht 6818
Oper 6817
agen@@ 6815
erinnen 6814
international 6812
Klosters 6811
lager 6805
Get@@ 6804
Rock@@ 6803
Braunschweig 6800
entlassen 6800
zeichnete 6800
Camp@@ 6799
det@@ 6799
fehl@@ 6799
aux 6796
ín 6791
Frü@@ 6787
Gor@@ 6787
promovierte 6787
Bernhard 6785
Hon@@ 6784
Kurt 6783
Maß@@ 6783
kir@@ 6783
ilfe 6782
Monaten 6779
ume 6779
Gegner 6778
fielen 6778
ikan@@ 6777
ky 6777
Schmidt 6776
fas@@ 6776
Minister 6774
etzen 6774
nannte 6773
zip@@ 6771
1850 6770
El 6769
verkehr@@ 6767
ags 6765
funktion@@ 6760
Struktur 6759
entlich 6759
sicht@@ 6756
Metal 6755
³ 6753
Weibchen 6752
einzelne 6752
Gemeindegebiet 6750
ister 6750
Großteil 6745
viel@@ 6743
Mehrheit 6742
bedingt 6741
Halbinsel 6740
Kub@@ 6736
Stock@@ 6736
damalige 6735
unterscheiden 6732
öpf@@ 6732
nennt 6731
Türkei 6730
Spor@@ 6729
Part@@ 6728
Zugang 6728
Vari@@ 6727
Ern@@ 6726
nationale 6725
Maßnahmen 6724
betrachtet 6723
Typ@@ 6719
breite 6719
deutschsprachigen 6716
bestätigt 6714
öffentlich 6714
ragen 6713
ish@@ 6712
Aktivitäten 6710
technischen 6710
ringen 6709
verpflichtet 6709
Theodor 6708
Ang@@ 6705
lech@@ 6704
02 6703
Sav@@ 6703
Besitzer 6702
wel@@ 6701
lein 6700
Initiative 6695
Beam@@ 6694
Roten 6691
stag 6691
Sat@@ 6690
inger@@ 6690
ativ@@ 6689
Beh@@ 6686
Label 6686
Landschaft 6686
ück 6685
Bayerischen 6683
ball@@ 6683
möglicherweise 6682
wechselt 6681
Len@@ 6680
Sul@@ 6679
1880 6678
itu@@ 6675
Rezeption 6671
enge 6671
Zug 6669
ence 6667
Regionen 6665
Fällen 6664
Europameisterschaften 6663
Mein@@ 6663
Energie@@ 6662
Bach@@ 6661
nehmer 6659
1892 6657
reise 6657
versetzt 6657
verwand@@ 6657
dorfer 6655
Neue 6654
berichtet 6653
führenden 6653
ě@@ 6651
Funk@@ 6650
urkundlich 6650
Tag@@ 6649
Versuch 6649
reform 6648
tier@@ 6647
Zeichen 6645
Ritter 6642
Verwand@@ 6642
enne 6639
heiligen 6637
Belgien 6634
elli 6633
ato 6631
Denk@@ 6630
Viz@@ 6630
Kiel 6629
Europameisterschaft 6627
befest@@ 6626
erreichten 6626
Essen 6625
ologisch 6625
ungspro@@ 6625
Studenten 6624
entum 6624
Ludwig@@ 6623
Ky@@ 6621
atten 6621
kraft 6618
kraft@@ 6618
siedlung 6618
tisch 6614
ganzen 6613
Sur@@ 6612
ünd@@ 6612
ny 6611
Bab@@ 6610
druck 6609
linge 6609
Chef@@ 6607
ession 6607
Physi@@ 6604
tens 6602
Rev@@ 6600
Gegen 6598
Tot@@ 6598
gering@@ 6596
seitig 6596
Brau@@ 6595
eigenes 6595
Back@@ 6593
Liber@@ 6593
unn@@ 6591
rennen 6588
Königin 6585
zeitweise 6585
Viel@@ 6584
alog@@ 6583
Final@@ 6582
Ulrich 6582
Rheinland 6580
blei@@ 6579
nei@@ 6578
bay@@ 6577
sy@@ 6576
Ordnung 6574
1885 6573
disch 6571
Mass@@ 6570
ils 6566
angesehen 6565
gelegentlich 6564
industrie 6564
Aber 6562
Kongress 6562
Bestandteil 6561
Forsch@@ 6561
Klub 6561
Mittel 6560
braun 6560
geteilt 6559
Hein@@ 6556
rieg@@ 6556
Est@@ 6551
aill@@ 6549
Infanterie 6548
ktion 6547
einfach 6546
zieht 6545
Errichtung 6543
Group 6543
Bern 6542
Cur@@ 6540
geschicht@@ 6538
heb@@ 6538
Meeres@@ 6537
Phil@@ 6537
blatt 6537
Fuß 6535
Hum@@ 6535
Rec@@ 6535
klassi@@ 6535
1888 6533
vorher 6533
Stol@@ 6532
steigen 6530
Brenn@@ 6528
gemeinsame 6528
Untersuchung 6525
miteinander 6520
ünst@@ 6520
Engel@@ 6517
Sin@@ 6517
Rab@@ 6516
ämp@@ 6513
ont 6511
Universitäts@@ 6510
Energie 6509
Silber 6509
nern 6509
änger 6508
Rud@@ 6505
Hafen 6502
auszu@@ 6502
rak@@ 6502
wirtschaftliche 6502
â@@ 6502
use 6501
Person@@ 6500
ba 6499
Menschen@@ 6498
anfangs 6498
Geheim@@ 6497
deckt 6497
umb@@ 6497
befanden 6496
rang 6496
anzen 6495
ängen 6494
Pflanzen 6493
dist@@ 6492
Center 6490
Gouverneur 6490
Holstein 6490
Kle@@ 6489
erlangte 6488
frage 6487
ital 6487
denk@@ 6485
Fei@@ 6483
Pen@@ 6483
Leon@@ 6480
Bronzemedaille 6479
vern@@ 6478
H. 6477
wan@@ 6477
Blüten@@ 6476
erwar@@ 6475
etzung 6475
offiziellen 6475
Univers@@ 6472
Lab@@ 6470
Football 6469
Mann@@ 6465
konserv@@ 6464
una 6464
Bibliothek 6463
bus@@ 6462
Star 6456
Ret@@ 6454
Wass@@ 6454
bieten 6454
kurz@@ 6453
verbindet 6443
.-@@ 6442
Wissenschaft 6442
fiz@@ 6442
3.@@ 6441
fünften 6441
klassischen 6441
schau@@ 6441
Kul@@ 6440
schwedischen 6439
lehrer 6437
funk@@ 6435
schle@@ 6434
einiger 6433
stoffe 6431
ye 6431
ernannte 6429
orn 6428
Grab 6427
bene 6427
asp@@ 6426
Platz@@ 6423
geln 6423
mol@@ 6420
zut@@ 6419
Stoff@@ 6417
Vel@@ 6414
AR@@ 6408
annt 6408
mittleren 6408
strah@@ 6408
Gegend 6405
Science 6403
Simon 6403
Woche 6401
ermöglicht 6400
ränk@@ 6400
inform@@ 6398
aktiven 6397
Cha@@ 6396
teilt 6396
Erkenn@@ 6395
Mah@@ 6395
Mutter@@ 6395
burg@@ 6395
halle 6392
1891 6391
dra@@ 6390
riffen 6390
stammte 6390
Völ@@ 6389
1894 6388
urs 6387
deutsch@@ 6386
elektron@@ 6386
Arthur 6384
seit@@ 6384
tert 6384
ausbildung 6383
Internationale 6382
Kriegsende 6382
ith 6382
manns 6382
Black 6380
verbandes 6379
Leistungs@@ 6375
Material 6375
ses 6375
vis@@ 6375
Göttingen 6373
Schlag@@ 6372
eter@@ 6372
fu@@ 6372
Bran@@ 6371
wahl@@ 6371
1930er 6370
Beruf@@ 6369
mo 6368
sekretär 6366
merk@@ 6365
spezif@@ 6365
ause 6364
maßnahmen 6364
studi@@ 6364
studium 6364
fenster 6363
denkmal 6362
Texte 6361
sky 6361
ball 6358
Hauses 6357
Protest@@ 6356
esse 6356
Frankfurter 6354
Schu@@ 6353
verp@@ 6352
Komm@@ 6351
gebenen 6351
1889 6350
age@@ 6347
eff@@ 6347
Wör@@ 6346
wort 6346
ändern 6346
benachbarten 6344
shausen 6344
stehende 6344
endgültig 6339
Funktionen 6337
lem 6337
Gef@@ 6336
reten 6336
sicherung 6336
worfen 6336
Linien 6334
Salzburg 6334
weiß@@ 6334
1874 6332
Julius 6331
Jazz@@ 6330
äus@@ 6330
issen 6328
å@@ 6328
tim@@ 6326
Leh@@ 6324
Jud@@ 6323
Saar@@ 6323
Sender 6322
elli@@ 6322
Pel@@ 6321
schlossen 6320
ti 6318
typ@@ 6318
Gerhard 6317
wert@@ 6314
charakter@@ 6312
Pfarrei 6311
Sendung 6310
Frank@@ 6306
gesetzten 6306
widmete 6306
Brasilien 6305
Beispiele 6302
lat@@ 6301
Verfassung 6299
Filmen 6298
NS@@ 6297
Weiter@@ 6296
liefer@@ 6296
Führ@@ 6295
Schach@@ 6295
gestellten 6294
sicher 6294
Sicherheit 6293
Variante 6293
bringt 6292
schen@@ 6292
Ortschaften 6290
Sign@@ 6290
Unternehmens 6290
artige 6290
standes 6289
landes@@ 6288
mitglied 6288
gestaltung 6287
net@@ 6285
hier@@ 6284
versorgung 6283
ric@@ 6279
fern 6277
geriet 6276
Rü@@ 6273
1860 6272
Dann 6272
Main@@ 6270
Hä@@ 6269
rein@@ 6268
sozialen 6268
aja 6266
Preis@@ 6265
forderte 6265
teren 6265
entsteht 6264
ment 6263
mern 6263
Kontrolle 6262
ez 6259
russische 6259
Wür@@ 6258
Chemie 6257
chinesischen 6257
zunehmen 6257
fertiggestellt 6256
NSDAP 6254
Satz 6254
ausen 6252
sagte 6250
hard 6246
upp@@ 6246
Ukraine 6244
entfern@@ 6242
kreis@@ 6242
Gewerk@@ 6241
dam@@ 6241
Tim@@ 6239
Pfer@@ 6238
Geist@@ 6237
Produkte 6237
produk@@ 6236
Form@@ 6235
reiche 6235
Amateur@@ 6233
Smith 6233
annte 6233
besie@@ 6233
ums@@ 6233
Bou@@ 6232
angen 6232
Lad@@ 6231
Vik@@ 6231
Wechsel 6231
ennt 6231
AC 6230
führungen 6229
scheiterte 6229
behaup@@ 6227
lehre 6226
sowjetischen 6225
Feld 6224
ding 6224
existiert 6224
Einen 6223
erober@@ 6218
belieb@@ 6217
italienische 6217
Gebieten 6216
richter 6216
Pflanzen@@ 6214
dün@@ 6214
bestehenden 6213
hoh@@ 6212
Weltcup 6211
trieb@@ 6211
vergeben 6211
igkeiten 6210
undet 6210
zentralen 6210
att 6205
owski 6205
Rä@@ 6203
mehrerer 6203
Sicherheits@@ 6201
hieß 6200
scheint 6200
Show 6195
Cro@@ 6194
unterlag 6194
medi@@ 6193
prin@@ 6193
früh 6191
Generation 6190
ū@@ 6190
ürzt 6189
Blut@@ 6188
unabhängig 6186
ungsh@@ 6186
Pin@@ 6184
swahl 6184
Kö@@ 6183
einzu@@ 6183
enkt 6183
stellvertretender 6183
angenommen 6182
Vo@@ 6181
cia 6180
guten 6178
Joachim 6176
entstehen 6175
Konrad 6173
rats 6172
gau 6170
programm 6169
1879 6168
Fischer 6167
ska 6167
Auflage 6166
bisherigen 6162
Port@@ 6161
freund@@ 6161
Arzt 6159
post@@ 6159
Phase 6158
laufen 6157
DE@@ 6155
Widerstand 6155
ance 6155
offizielle 6154
Mö@@ 6153
era 6153
ograph@@ 6153
Seel@@ 6151
gebieten 6151
its 6151
forsch@@ 6150
Gesam@@ 6149
Nationalsozialismus 6149
co@@ 6149
holte 6147
errichten 6146
maß@@ 6146
theoret@@ 6146
train@@ 6146
1866 6145
Fluss@@ 6142
Kel@@ 6142
Straß@@ 6142
frem@@ 6142
Rak@@ 6140
Schwe@@ 6140
hab@@ 6140
Portugal 6137
Rez@@ 6135
klei@@ 6133
wahlen 6133
Volkszählung 6131
staat@@ 6131
wege 6130
ents 6129
tief@@ 6128
Rob@@ 6125
Saison@@ 6124
darf 6122
organ@@ 6122
Kader 6120
Sz@@ 6120
19@@ 6119
Sum@@ 6119
gelangte 6119
kleineren 6119
geschwindigkeit 6118
Lager 6117
ausgeführt 6117
Groß 6113
Pop@@ 6112
Turn@@ 6112
schreibt 6110
Sing@@ 6108
Att@@ 6107
material 6107
keit@@ 6106
Besonders 6104
Eduard 6104
lös@@ 6102
alle@@ 6098
verhindern 6098
1875 6094
Schließlich 6092
anget@@ 6092
popul@@ 6092
welt 6091
1500 6089
wirkung 6088
Kopf@@ 6087
bedingungen 6087
sofort 6084
ergibt 6083
Historiker 6081
Imp@@ 6080
Anton@@ 6078
Comp@@ 6078
anien 6078
ises 6078
FI@@ 6077
Wa@@ 6077
Behandlung 6076
miss@@ 6076
fried@@ 6075
Bay 6074
Naturschutzgebiet 6073
ebene 6072
klar 6072
Praxis 6069
yer 6069
Weiterhin 6068
griffen 6068
Orden 6065
ener@@ 6064
wurf 6063
Gri@@ 6062
decken 6059
Spieltag 6058
Metall@@ 6057
up 6057
Israel 6056
Minist@@ 6056
Patienten 6055
tha 6054
manchmal 6053
Sper@@ 6052
geliefert 6049
zumeist 6049
esische 6047
Bauern 6046
daraus 6045
Exper@@ 6044
ition@@ 6044
sam@@ 6044
Cre@@ 6041
Medien@@ 6041
organisiert 6040
Graf@@ 6039
Trag@@ 6038
arbeiter 6038
Kölner 6037
Neb@@ 6037
Leich@@ 6035
Pir@@ 6035
genannte 6034
Paar 6032
zumindest 6032
Uni@@ 6030
Vereins@@ 6027
umente 6027
trifft 6026
fähigkeit 6024
kreuz@@ 6024
pa@@ 6023
steine 6023
körper@@ 6021
Merk@@ 6020
Trieb@@ 6019
feierte 6018
sek@@ 6018
Repräsentantenhaus 6017
OS 6016
Studio 6015
diger 6015
hören 6014
kti@@ 6013
Ara@@ 6012
Live 6011
Mühle 6010
Nomin@@ 6010
motor 6010
gül@@ 6009
britischer 6008
onischen 6008
ring 6007
ine@@ 6006
Engagement 6004
Automobil@@ 6003
unterstützte 6001
Gemälde 6000
Kontin@@ 6000
bezogen 6000
ji 6000
tiv 6000
Anlagen 5996
Gemeinschaft 5993
außen 5993
wid@@ 5993
Politik@@ 5992
rolle 5992
Studien@@ 5989
Shi@@ 5987
Zusätzlich 5987
Dorfes 5986
dennoch 5986
iell 5985
Nik@@ 5984
ku@@ 5984
direk@@ 5983
ehr 5982
lten 5981
Laur@@ 5980
Eig@@ 5979
Aktiv@@ 5978
Massen@@ 5978
Spielklasse 5978
Publikum 5976
tene 5975
Junioren 5972
haft 5972
otte 5972
spor@@ 5970
Oberliga 5969
1887 5968
ash 5968
existieren 5967
Bedingungen 5966
mont 5966
untergebracht 5966
gegangen 5965
kas 5965
österreichische 5965
Sl@@ 5963
1867 5961
kanischen 5959
Charakter 5958
Super 5958
Bour@@ 5957
erzählt 5957
rol@@ 5957
tik 5957
ursprüngliche 5955
Krankenhaus 5954
eis 5950
fi@@ 5950
stedt 5950
spitze 5948
Erfahrungen 5945
strahlung 5944
Autom@@ 5942
Angebot 5941
ollen 5939
entsprechenden 5938
Eisen@@ 5936
kosten 5936
verst@@ 5936
wach@@ 5936
inge 5935
Eisenbahn 5933
Klima 5933
oden 5933
Industrie 5932
isse 5932
Zwisch@@ 5930
jen@@ 5930
Musi@@ 5928
Verhalten 5928
langer 5928
Rest 5927
Schrift 5927
aust@@ 5927
eben@@ 5927
fel 5923
rien 5921
gewal@@ 5920
Č@@ 5920
produzierte 5918
Friedrich@@ 5914
baus 5914
ental@@ 5913
Grä@@ 5911
Dörfer 5910
Eh@@ 5910
gleiche 5910
ahnen 5909
unterricht 5908
Ander@@ 5907
überhaupt 5904
Ausdruck 5902
Kais@@ 5902
Wit@@ 5902
King 5901
duk@@ 5901
höheren 5900
Gie@@ 5899
einst@@ 5897
August@@ 5896
Rang@@ 5896
nächste 5896
Plan 5895
halb@@ 5895
tei@@ 5895
Vorgänger@@ 5894
iele 5893
passi@@ 5893
Bah@@ 5892
Vorbild 5890
Brand 5889
Ebenso 5889
W. 5888
riert 5888
gericht@@ 5886
Sü@@ 5883
Vorstand 5882
Ursprünglich 5880
häuf@@ 5880
Ausbau 5879
histor@@ 5879
umgebaut 5879
Augen@@ 5878
wies 5878
Architekt 5877
läuf@@ 5877
Mikro@@ 5876
Fahrer 5875
Francisco 5875
Speich@@ 5875
setzten 5875
englische 5874
jeden 5872
debütierte 5871
einheit 5871
Prin@@ 5870
iziert 5868
bestanden 5867
bst 5867
enzeit 5867
fil@@ 5867
Augen 5865
anger@@ 5864
schulen 5863
VP 5862
anges@@ 5862
schreiben 5861
sand@@ 5860
Arbeiter@@ 5859
Dim@@ 5859
ap 5857
Gö@@ 5853
kaufte 5853
kte 5852
ements 5849
Nag@@ 5848
Glock@@ 5847
Entwurf 5845
Fahrzeug 5843
Kunsth@@ 5843
Deutscher 5840
loss@@ 5839
desselben 5838
Ah@@ 5836
Garten@@ 5836
Rand@@ 5836
Gestaltung 5835
Kassel 5835
arzt 5834
zit@@ 5834
250 5833
Oster@@ 5832
Eröffnung 5831
Zi@@ 5831
lob@@ 5831
1886 5830
Landtag@@ 5830
Nachfol@@ 5830
lieb@@ 5830
Neuen 5829
nutzen 5829
Verbindungen 5827
breiten 5827
einheit@@ 5826
Box@@ 5824
bers 5822
Vil@@ 5821
Bund 5820
Dennoch 5820
Männchen 5820
Sängerin 5820
Río 5819
vorher@@ 5819
Andere 5817
erenden 5817
diert 5816
Hub@@ 5814
tatsächlich 5814
weshalb 5814
Künste 5812
peri@@ 5812
Religion 5810
Wort@@ 5810
geweiht 5810
Bür@@ 5809
Kath@@ 5808
Monat 5808
Operation 5808
getötet 5808
Erich 5805
Sicht 5805
niederländischen 5803
them@@ 5800
versi@@ 5800
Ruf 5797
äuser 5796
Party 5794
Freist@@ 5793
Rio 5791
1873 5790
stücke 5790
Tanz@@ 5787
arm@@ 5787
Minder@@ 5786
US@@ 5786
od 5786
schä@@ 5786
Internet 5785
Woiwodschaft 5785
Würzburg 5783
weißen 5783
gewöhn@@ 5782
Lind@@ 5781
120 5778
Systematik 5776
gründen 5776
üst@@ 5774
iven 5773
terin 5773
Schall@@ 5772
unterschrieb 5772
Mul@@ 5771
Tan@@ 5771
Wissenschaft@@ 5771
1872 5770
Verfassungs@@ 5770
esien 5770
sä@@ 5770
Bereichen 5769
dliche 5769
ul 5769
zehn@@ 5769
zin@@ 5769
sign@@ 5768
wachs@@ 5768
dri@@ 5767
Beschäf@@ 5763
Norwegen 5763
basiert 5763
gemeinden 5763
komplett 5763
arti@@ 5762
Kolle@@ 5760
gewannen 5760
... 5759
Wie@@ 5758
lebenden 5758
1868 5757
Zukunft 5757
gerte 5757
suchte 5755
1884 5754
spre@@ 5754
Dun@@ 5753
Niederlande 5753
oberhalb 5753
Chef 5752
usses 5752
bildeten 5751
Wach@@ 5750
demokrat@@ 5750
esten 5750
onien 5750
50@@ 5748
issi@@ 5747
wend@@ 5747
Freien 5745
700 5744
inc@@ 5743
körper 5743
Dial@@ 5742
Them@@ 5742
run@@ 5742
betre@@ 5741
latein@@ 5741
schläge 5739
Post 5736
ays 5736
blick 5735
Cu@@ 5733
Schie@@ 5733
Franzis@@ 5732
ots 5732
itionen 5731
mis@@ 5730
list@@ 5727
steller 5727
wissenschaftler 5727
zur@@ 5727
Mik@@ 5726
Edward 5724
Ele@@ 5722
Stellen 5722
strateg@@ 5722
bayerischen 5721
fungierte 5721
José 5719
gä@@ 5719
lokalen 5719
ial 5718
Passag@@ 5716
mag@@ 5715
Bischof@@ 5713
neg@@ 5713
förmigen 5712
Polit@@ 5711
Software 5709
womit 5709
Münchner 5708
emann 5708
höhe 5707
Landschafts@@ 5706
Veröffentlichungen 5706
Adel@@ 5704
CA@@ 5704
halt@@ 5704
fluss 5703
Flucht 5700
ßen@@ 5700
umgeben 5699
Wies@@ 5698
Instituts 5697
enheim 5696
Forst@@ 5695
tin 5695
Grenzen 5693
Differ@@ 5692
Farbe 5690
Orten 5690
Synchron@@ 5689
Pokal 5688
allgemein 5686
ausgebaut 5684
akti@@ 5681
Ide@@ 5679
gehenden 5678
straßen 5678
Reak@@ 5677
imp@@ 5676
Sak@@ 5675
1878 5674
Lit@@ 5674
ehemals 5674
dies@@ 5673
gro@@ 5672
Peter@@ 5671
Maschinen 5670
Hav@@ 5668
jüdische 5668
Entwicklungs@@ 5667
litz 5667
1882 5666
isierte 5666
ham 5665
Medizin@@ 5664
olle@@ 5662
DR 5661
Mis@@ 5661
zig 5661
Siedlungs@@ 5659
mak@@ 5659
ätz@@ 5659
sichtlich 5657
Gemeinderat 5656
tiven 5656
poli@@ 5655
ting 5655
Basi@@ 5652
Denkmalschutz 5652
ckt 5652
technik 5652
handlung 5650
lehnte 5650
bran@@ 5648
fels 5648
steiger 5648
Reste 5647
stil 5647
ähnliche 5647
Behörden 5646
Pas@@ 5646
mb@@ 5646
Viertelfinale 5643
hofs 5643
Offiz@@ 5642
bestehende 5641
Reaktion 5640
achte 5640
holz 5639
Pul@@ 5638
SP@@ 5637
bit@@ 5637
Wolf 5635
Autor@@ 5634
Proz@@ 5634
komplex@@ 5634
flügel 5632
Geburts@@ 5631
Miss@@ 5628
gebung 5626
wirtschaft@@ 5624
Bronze 5623
field 5623
Denkmal 5622
Herbert 5622
Jagd@@ 5622
militärischen 5622
beigesetzt 5621
quert 5621
tende 5620
lebens@@ 5619
1876 5618
ris 5617
endung 5616
over@@ 5616
staatlichen 5616
States 5614
Vergangenheit 5612
Adam 5610
Magdeburg 5610
alog 5610
anischer 5609
Beweg@@ 5608
Sozi@@ 5608
ammlung 5608
privaten 5608
region 5608
Verlag@@ 5607
Zahn@@ 5603
meisters 5602
10.000 5600
bö@@ 5600
pos@@ 5600
1881 5599
Rod@@ 5597
Kohl@@ 5596
Zuschauer 5595
Rou@@ 5592
Vielzahl 5590
Bä@@ 5589
ausschuss 5586
ärz@@ 5586
Lösung 5585
erwäh@@ 5585
sucht 5585
Auszeichnung 5584
udi@@ 5584
Funktion@@ 5582
wirtschafts@@ 5580
ental 5579
mir 5579
nier 5579
notwendig 5579
staaten 5579
ausstellung 5578
vereins 5577
ë@@ 5577
2,5 5576
nes 5576
platte 5576
veröffentlichten 5576
Justiz@@ 5574
lautet 5574
beschäftigte 5573
Mathematik 5571
archit@@ 5571
Rollen 5569
änd@@ 5569
Bis@@ 5568
Blüten 5568
Luft 5568
Konkur@@ 5567
Methode 5565
bs@@ 5565
ank 5564
Schaff@@ 5563
hardt 5562
interessi@@ 5561
low 5561
bezieht 5560
person@@ 5560
uch 5559
kunde 5558
reform@@ 5557
schwarz 5556
Kongres@@ 5555
Wunsch 5553
moderne 5552
turen 5551
1883 5548
Alten 5547
Macht@@ 5547
wer 5547
senk@@ 5545
Schä@@ 5543
1920er 5542
lehrte 5542
ão 5542
nden 5539
sil@@ 5539
dischen 5538
nummer 5537
Route 5536
phase 5536
Pres@@ 5534
mil@@ 5531
Mensch 5530
tour@@ 5529
eim@@ 5528
ument@@ 5528
Posten 5527
leiten 5527
aufnahmen 5526
stie@@ 5525
Eff@@ 5524
Anerkennung 5523
ged@@ 5522
erscheinen 5521
Vogel@@ 5520
ero 5520
Individu@@ 5518
verwendete 5518
rieg 5517
geschäft 5514
lei 5513
sieg 5512
etter 5511
christlichen 5509
Festung 5506
eigener 5505
position 5504
enbau 5502
schließ@@ 5502
vollen 5502
Übersetzung 5502
Hem@@ 5500
artigen 5499
akt 5498
Vide@@ 5497
epp@@ 5497
esk@@ 5497
Studie 5495
Bad@@ 5494
reib@@ 5494
1864 5493
Ruhestand 5493
ieder@@ 5493
under 5492
verfügte 5492
Bit@@ 5491
Rus@@ 5490
Etwa 5487
beschlossen 5487
koh@@ 5487
offen@@ 5487
behandelt 5485
pen 5485
Cr@@ 5484
Video 5484
erworben 5483
könig@@ 5483
Cou@@ 5482
Modelle 5482
siegte 5482
Don 5481
famili@@ 5480
wichtigen 5479
aufzu@@ 5477
bedeutende 5477
Anhalt 5476
krank@@ 5476
üblich 5476
Kalk@@ 5475
Maur@@ 5473
fran@@ 5473
rücken 5473
igten 5472
Organisationen 5471
gungs@@ 5471
abhängig 5470
Gründer 5468
Viol@@ 5467
setz@@ 5465
struk@@ 5465
durfte 5464
gebor@@ 5463
reis 5463
Rap@@ 5460
ffer 5460
nämlich 5460
rein 5460
Kirchengemeinde 5459
fragen 5459
Thi@@ 5458
Breit@@ 5456
Problem 5455
Mül@@ 5454
nachgewiesen 5454
pri@@ 5454
bischof 5453
gelassen 5452
einf@@ 5451
these 5451
iz 5450
äufer 5450
ürz@@ 5448
kün@@ 5447
aue 5446
schwere 5446
technische 5446
ehrt 5445
Verkauf 5444
Waffen 5444
aufen 5444
1861 5443
Niedersachsen 5443
orten 5443
Erfol@@ 5442
berühm@@ 5440
engl@@ 5438
lass 5436
esp@@ 5435
offen 5434
Johann@@ 5433
Bron@@ 5432
Senat 5431
Schne@@ 5430
Wär@@ 5430
Farben 5429
1869 5428
Hit@@ 5427
Pokal@@ 5427
France 5426
Streit@@ 5426
kü@@ 5426
lit@@ 5426
Kro@@ 5425
sinn@@ 5423
Dal@@ 5421
Lev@@ 5421
verhaftet 5420
vierte 5420
arriere 5419
Maschine 5415
grün 5415
einander@@ 5414
Reiches 5413
Aachen 5411
Kolon@@ 5411
eger 5411
aches 5410
achs@@ 5410
benutz@@ 5410
dium 5410
1862 5409
Spät@@ 5409
tnisse 5408
gab@@ 5407
Hause 5406
ary 5406
ling@@ 5405
Garten 5403
vereinigung 5402
Dur@@ 5401
wass@@ 5401
Besatzungs@@ 5399
1815 5397
Frieden 5397
stärker 5395
Eg@@ 5390
istischer 5389
Zweck 5388
pot@@ 5388
Eng@@ 5386
Med@@ 5385
exist@@ 5385
ill 5384
wa@@ 5383
iller 5382
by@@ 5381
Magazin 5379
erweise 5378
Inschrift 5377
Haf@@ 5376
Kanal 5376
tur 5376
gangenen 5375
Einzel 5374
Online 5374
sul@@ 5373
E. 5372
Street 5372
fortan 5372
Allgemeinen 5371
Fro@@ 5371
edi@@ 5371
1865 5370
Erwähnung 5370
etabli@@ 5369
Arz@@ 5368
Hauptrolle 5368
Baureihe 5367
Fort 5367
gewöhnlich 5367
äuf@@ 5366
Stro@@ 5365
ian@@ 5362
Kä@@ 5361
Partner@@ 5361
Prix 5361
behörde 5361
umfass@@ 5359
AS 5357
Kombination 5357
Ziele 5356
künst@@ 5353
engagierte 5351
Aqu@@ 5350
machten 5350
Datum 5349
höch@@ 5349
liber@@ 5349
Kanz@@ 5347
Zuf@@ 5345
itä@@ 5345
wegs 5344
May@@ 5342
ander 5342
kenn@@ 5342
ulation 5342
Ries@@ 5341
Fernsehserie 5340
Wohl@@ 5340
anhand 5340
bücher 5339
Design 5337
dus 5337
Deleg@@ 5335
Gymnasi@@ 5334
Num@@ 5334
Stefan 5334
Wäl@@ 5334
Klei@@ 5331
massi@@ 5331
meth@@ 5331
unterscheidet 5331
figur 5329
Es@@ 5328
beschloss 5327
dürfen 5327
lern@@ 5327
netz 5327
Aussch@@ 5325
Bühne 5325
ý 5325
Kabinett 5324
Nam@@ 5323
Und 5322
titel 5322
änderung 5322
Plätze 5321
aden@@ 5321
hte 5320
Bericht 5319
Silbermedaille 5318
jähriger 5318
Ermitt@@ 5317
Gemeinsam 5317
Sekunden 5315
Stei@@ 5315
Wich@@ 5315
verbreit@@ 5315
Lok@@ 5314
abgerissen 5314
verlei@@ 5314
bach@@ 5313
és 5313
eingegliedert 5312
such@@ 5312
ution@@ 5310
Biografie 5309
sid@@ 5308
Projekte 5307
jener 5307
derten 5305
mär@@ 5305
offenen 5305
poln@@ 5304
verstärkt 5304
Frau@@ 5303
besitz 5302
herrsch@@ 5301
Profess@@ 5300
ßt 5300
gebietes 5299
Erster 5298
Töchter 5298
Rin@@ 5297
luther@@ 5297
serb@@ 5297
Meg@@ 5296
fahrts@@ 5296
angebracht 5295
solchen 5295
ungsin@@ 5295
Afrika 5294
Herausgeber 5294
Flugzeug@@ 5292
kräf@@ 5292
Jürgen 5291
Partner 5291
maßen 5291
ermöglichen 5290
5.000 5288
Veränderungen 5288
Ö 5288
archä@@ 5287
zweier 5287
Neustadt 5286
Seinen 5285
Mary 5284
1877 5282
kammer 5282
stän@@ 5281
hierbei 5280
Konflik@@ 5279
Psych@@ 5278
Direk@@ 5276
Volk 5274
bean@@ 5274
gesellschaften 5274
Strah@@ 5273
Dach 5272
förmige 5272
gewähr@@ 5272
Schütz@@ 5270
n. 5270
Einer 5269
Sou@@ 5269
ilien 5269
gefangen 5268
änder@@ 5268
Arg@@ 5265
Siegen 5265
benö@@ 5264
Pon@@ 5263
Insbesondere 5262
Marke 5262
eme 5262
entsprechende 5262
reiste 5262
zo@@ 5262
riff@@ 5261
bogen 5260
Feh@@ 5259
Thüringen 5259
Priester 5257
fällen 5257
rah@@ 5257
stru@@ 5256
Amsterdam 5255
mein@@ 5255
Gesundheits@@ 5253
Stör@@ 5253
glau@@ 5252
Österreich@@ 5252
Fres@@ 5251
Luf@@ 5250
bilder 5249
wissenschaftlicher 5249
beendet 5248
fo@@ 5248
rup@@ 5248
aktive 5247
ams 5247
ausgestrahlt 5247
plan 5247
ift 5246
G. 5245
ekte 5244
rische 5244
viertel 5243
1849 5242
Lokomotiven 5241
VI. 5241
Menge 5240
Schnell@@ 5240
ange 5240
Park@@ 5239
Texas 5239
anerk@@ 5239
soziale 5237
egten 5235
Ausstellungen 5234
Licht 5234
vorgestellt 5233
Beiträge 5232
klu@@ 5232
struktur@@ 5232
erlau@@ 5231
tran@@ 5231
ritte 5230
seither 5230
Entfernung 5227
iko 5227
Staates 5226
Team@@ 5226
les@@ 5225
Journalist 5223
Gei@@ 5222
mittlere 5222
Landgemeinde 5220
Suche 5220
dienten 5220
Auto 5219
Albrecht 5218
Erweiterung 5218
verbindung 5217
Verteidigungs@@ 5216
zeichnungen 5209
Konzentr@@ 5207
Technischen 5207
entwickeln 5206
gerin 5204
ition 5204
sta@@ 5204
Antonio 5202
spur@@ 5202
erhöht 5199
Darmstadt 5198
Handel@@ 5197
Oli@@ 5197
ez@@ 5197
Botschafter 5195
Red 5194
gliedert 5194
Rie@@ 5192
Regionalliga 5190
anen 5190
gestellte 5190
Standard 5189
ensis 5189
ährung 5189
zz@@ 5188
fertig@@ 5186
Milli@@ 5184
med@@ 5183
oz@@ 5183
Lee 5181
zeuge 5181
Geschlech@@ 5180
Mecklenburg 5180
anlässlich 5180
Graz 5179
infolge 5179
arg@@ 5178
aya 5177
Kommandeur 5176
gebirge 5174
spruch 5174
Karlsruhe 5173
ney 5173
Eu@@ 5172
Folge@@ 5170
IC@@ 5168
Tübingen 5168
4.@@ 5166
Dür@@ 5166
Konf@@ 5164
Mem@@ 5162
kontrolli@@ 5160
bindung 5159
fließ@@ 5159
etes 5158
mangel@@ 5158
pflich@@ 5156
Flügel 5155
Assistent 5153
größe 5153
sicherte 5153
Philipp@@ 5150
atorium 5150
bergs 5150
Bildhauer 5148
entschieden 5148
zeitung 5148
kW 5147
Hun@@ 5146
Management 5144
Niederlanden 5144
Pro 5143
läuft 5143
val@@ 5143
Komit@@ 5142
Küsten@@ 5142
itions@@ 5142
zeug 5142
syn@@ 5141
verm@@ 5141
Übernahme 5141
− 5141
Fur@@ 5139
Jungen 5139
Schrift@@ 5139
individu@@ 5139
Tauf@@ 5138
entwickelten 5138
vel@@ 5138
Hochschul@@ 5137
mund 5137
Arbeiter 5136
Skulp@@ 5136
Gun@@ 5135
born 5135
ells 5133
kolle@@ 5133
Bom@@ 5132
samt 5130
Spek@@ 5129
bed@@ 5129
Drittel 5128
Distri@@ 5127
Nationen 5127
Bat@@ 5126
Gefängnis 5124
übte 5124
entieren 5121
geld 5121
Wehrmacht 5119
jahre 5119
Unabhängigkeit 5117
Wesentlichen 5116
ial@@ 5115
Medaille 5114
errichteten 5113
größer 5113
Prop@@ 5112
leistungen 5112
mot@@ 5111
ok 5108
Co. 5107
Rah@@ 5107
indi@@ 5106
üsse 5105
Baron 5104
höhere 5104
Mé@@ 5102
Amerikan@@ 5101
Partien 5100
Saisonende 5100
Tochter@@ 5095
sprü@@ 5095
lo 5094
Pläne 5092
Venedig 5092
kus 5092
Arab@@ 5091
Fahrzeug@@ 5090
Donau 5087
ingt 5087
neur@@ 5086
zes 5086
Mechan@@ 5085
Güter 5084
Kandidaten 5084
Stimme 5084
Just@@ 5083
sten@@ 5083
Hugo 5082
Oh@@ 5082
ison 5081
Besatzung 5080
Fili@@ 5079
kam@@ 5079
ax 5078
stör@@ 5078
verpflich@@ 5078
gut@@ 5076
ied@@ 5074
ysi@@ 5072
äng@@ 5072
Amt@@ 5069
Mission 5068
Offizier 5068
Pion@@ 5067
aft 5067
schnei@@ 5067
Vul@@ 5066
kräfte 5066
Fraktion 5065
prof@@ 5065
Bör@@ 5064
Sm@@ 5064
erfolgten 5064
uen 5064
Eur@@ 5063
Stücke 5062
don 5062
Flotte 5061
eingeweiht 5061
Gewinn 5059
Minute 5059
möglichst 5059
weich@@ 5059
entlicher 5058
rik 5058
Wohnung 5057
dopp@@ 5057
leistungs@@ 5057
mitglieder 5056
fang 5053
schlagen 5053
Oscar 5052
kost@@ 5052
begrenzt 5051
stufe 5051
Besucher 5050
begleitet 5050
bin 5049
Klein 5048
ofen 5048
militärische 5047
städtischen 5047
Altstadt 5045
Anhänger 5045
Gipfel 5044
tiges 5044
gangen 5043
klass@@ 5042
thin 5042
ake 5040
spann@@ 5040
gehei@@ 5039
Abstand 5038
grä@@ 5038
ruppen 5038
Funde 5037
ova 5037
Anspruch 5036
Kommando 5036
Vit@@ 5034
verboten 5033
leute 5032
Besonder@@ 5030
Dich@@ 5030
Künstler@@ 5030
Stern 5029
marsch@@ 5028
Daten@@ 5024
höher 5024
traditionellen 5023
Inform@@ 5022
Personen@@ 5022
beam@@ 5022
einheiten 5022
Best 5021
paar 5021
Alters@@ 5020
Tax@@ 5020
Jah@@ 5018
Republi@@ 5018
Mittelme@@ 5017
Will@@ 5016
Zahlen 5016
Auswär@@ 5014
Hill 5014
auff@@ 5014
äf@@ 5014
Promotion 5013
Fas@@ 5012
kin@@ 5012
Eth@@ 5011
Force 5011
möglichen 5010
Besitz@@ 5009
alp@@ 5008
asien 5008
kin 5008
evangelischen 5007
einst 5005
leisten 5005
tain@@ 5004
Berat@@ 5003
Loth@@ 5003
definiert 5003
geschütz@@ 5002
zusetzen 5001
anteil 5000
eigenständige 4998
Physik 4997
Stich@@ 4997
Dampf@@ 4995
könnten 4995
vorbei 4994
kommission 4992
osp@@ 4992
quar@@ 4992
ältere 4992
sab@@ 4990
Wechsel@@ 4988
beginn 4988
führende 4988
Chron@@ 4986
flug 4985
verletz@@ 4985
nicht@@ 4984
zugänglich 4983
oth 4982
rhein@@ 4982
Vorkommen 4980
Netz 4978
Organis@@ 4977
owo 4977
Anwesen 4976
günst@@ 4976
schnitte 4974
ög@@ 4974
1800 4973
gerung 4971
verlängert 4971
Front 4970
furt 4970
länd@@ 4970
ade@@ 4969
lia 4969
Grupp@@ 4968
RA@@ 4968
Leichtathletik 4967
Tom 4966
bezeichnung 4965
strö@@ 4964
deutschland 4963
ois 4963
Geor@@ 4962
Liv@@ 4962
Malerei 4962
ñ@@ 4961
projek@@ 4960
way 4960
enhof 4959
spiegel 4959
bereit 4958
Strecken@@ 4954
tit@@ 4954
öß@@ 4954
Krankheit 4953
Göt@@ 4952
Cer@@ 4950
See@@ 4950
Weltmeister 4950
Prinz 4949
dänischen 4949
Industrie@@ 4948
Ensemble 4947
defin@@ 4947
KZ 4946
Revol@@ 4946
herrschaft 4946
Altar 4945
Gewalt 4945
beschädigt 4944
horn 4944
Geschäftsführer 4941
entiert 4941
vergröß@@ 4940
Orchester 4939
ätzen 4939
Angel@@ 4937
Feder@@ 4937
Krone 4936
Griechenland 4934
bür@@ 4933
Augsburg 4932
Grad 4931
ausgabe 4931
beding@@ 4931
solcher 4931
verändert 4931
Adres@@ 4930
hell@@ 4930
baroc@@ 4928
frühere 4928
benen 4926
Eingang 4924
achse 4924
geblieben 4924
üge 4924
Lem@@ 4923
prim@@ 4923
spart@@ 4923
IT@@ 4921
Major 4921
Al 4920
hinzu@@ 4920
anerkannt 4919
betreibt 4919
engen 4919
swahlen 4919
zunehm@@ 4919
1863 4918
Ze@@ 4918
Var@@ 4917
schwar@@ 4917
Gör@@ 4916
Zur@@ 4916
Kil@@ 4915
verteilt 4915
D. 4914
getreten 4913
Ereignisse 4911
Nic@@ 4911
Ehren 4909
brechen 4909
Freiheit 4908
e. 4908
männ@@ 4908
row 4907
Mündung 4906
Sonnen@@ 4906
stä@@ 4906
erhal@@ 4905
terer 4904
aktion 4901
verlauf 4901
Rest@@ 4900
Tempel 4900
UN@@ 4900
Ski@@ 4899
haber 4899
Bauwerk 4897
vorsitzender 4897
F. 4894
Assist@@ 4893
Planung 4893
freiwilli@@ 4893
digit@@ 4892
о@@ 4892
staatliche 4889
Awards 4888
ees 4888
Brem@@ 4886
Ferner 4885
ida 4885
übersetzt 4885
kämpfen 4884
oul@@ 4884
schön@@ 4884
Verz@@ 4882
erstre@@ 4880
ogen 4880
profession@@ 4880
Verhandlungen 4879
mehrmals 4878
Dortmund 4877
Fassung 4877
Mathemati@@ 4877
owitsch 4877
Blü@@ 4876
gezählt 4876
Brut@@ 4875
lan 4874
q 4874
vert@@ 4874
Drehbuch 4873
spät@@ 4873
Mannheim 4872
Boston 4870
periode 4870
isierten 4869
übernehmen 4868
auten 4867
Komponisten 4866
besonderen 4866
evangelische 4866
inf@@ 4866
mischen 4865
Auftritt 4864
Pariser 4863
Master 4862
osa 4862
gänge 4861
Meinung 4860
lien 4860
zusätzliche 4860
aire 4859
Schlei@@ 4858
Co 4856
Methoden 4856
alli@@ 4856
schützen 4856
Rathaus 4855
bauer 4854
sigkeit 4854
tus 4854
vent@@ 4854
spitz@@ 4853
Bezir@@ 4852
zub@@ 4852
Juli@@ 4851
Mitglied@@ 4851
stimmung 4851
Expedition 4850
Gebäudes 4850
Brief 4848
innung 4844
Blick 4843
wandte 4843
Erwer@@ 4840
Jar@@ 4839
Panzer@@ 4838
Publik@@ 4837
bekanntesten 4837
erter 4837
Tourismus 4836
herr 4836
ammern 4835
Zie@@ 4834
ers@@ 4834
bogen@@ 4833
erho@@ 4833
let@@ 4833
Hitler 4832
brech@@ 4832
bewaff@@ 4826
Ari@@ 4825
ito 4824
Steu@@ 4823
R. 4822
ail 4822
direkte 4822
Hierbei 4821
geschäf@@ 4821
träger 4820
Gesang 4819
Intern@@ 4819
außer@@ 4819
ado 4818
then 4817
az 4815
haupt@@ 4813
Wur@@ 4811
ble 4811
ings@@ 4811
Irland 4809
aceae 4809
Medaill@@ 4808
spielerin 4808
Metro@@ 4806
rierte 4806
teste 4805
Unterschied 4804
aria 4804
Wege 4803
Pfle@@ 4802
behalten 4802
stattdessen 4802
Vorgänger 4801
Hü@@ 4800
altet 4799
befre@@ 4799
afri@@ 4798
sprachen 4798
italienischer 4797
Popul@@ 4795
Ten@@ 4795
Famili@@ 4794
Minister@@ 4794
gebauten 4794
erlaubt 4793
Freunde 4792
Bin@@ 4791
festgelegt 4791
jahr@@ 4791
Milliarden 4790
ila 4790
iller@@ 4790
orien 4790
gedreht 4789
läufer 4789
Lübeck 4788
kosten@@ 4786
Öff@@ 4786
ökonom@@ 4785
Zäh@@ 4784
notwen@@ 4784
strafe 4784
schnell@@ 4782
Geburt 4781
Verk@@ 4780
jo@@ 4780
char@@ 4779
kas@@ 4779
Viertel 4778
westliche 4778
Register 4776
Rede 4775
Schlos@@ 4774
ausgebildet 4774
Ägypten 4771
Milch@@ 4770
Vier 4770
prü@@ 4769
Roth@@ 4768
zie@@ 4768
Nachfolge 4767
Rostock 4767
hundert 4767
olo 4767
Helmut 4766
ines 4766
1856 4764
Konstruktion 4764
bten 4764
sion@@ 4763
überliefert 4763
Bord 4762
Lun@@ 4762
stür@@ 4762
Mailand 4761
Geschichts@@ 4760
bal@@ 4760
unterschieden 4760
Klu@@ 4759
zeichnen 4758
Standard@@ 4757
anze 4757
komp@@ 4757
Play 4756
kompl@@ 4756
Richt@@ 4755
dich@@ 4755
ril@@ 4755
sweise 4755
orf 4754
gend@@ 4752
Koordin@@ 4750
altar 4750
Restaur@@ 4749
arbeiteten 4749
bekommen 4749
thaus 4749
Gottes 4747
Je 4745
cker@@ 4743
kapelle 4743
länger 4743
Zerstör@@ 4742
bereiche 4742
sexu@@ 4742
Dissertation 4741
Modus 4741
vergleich@@ 4740
Junioren@@ 4738
version 4738
Normal@@ 4737
wiederholt 4736
erfolgreichen 4735
erheblich 4735
hu@@ 4735
ér@@ 4735
Exemplare 4734
Möglichkeiten 4734
NGC 4734
ania 4733
oun@@ 4733
Dichter 4732
Alex@@ 4731
Jack 4731
lass@@ 4731
tik@@ 4731
alisierte 4730
ment@@ 4730
Barbara 4729
Entwickl@@ 4729
Brig@@ 4728
gelangen 4728
Sebastian 4727
kommer@@ 4726
And@@ 4725
Oberfläche 4725
Verlängerung 4725
Afri@@ 4724
wettbewerb 4723
Kamp@@ 4722
Tru@@ 4722
beeinflusst 4722
Gefahr 4721
Kilometern 4721
Lich@@ 4721
Service 4721
errang 4721
Lebensweise 4720
manischen 4720
ständiger 4720
Amerika 4719
Witt@@ 4718
Charakter@@ 4717
islam@@ 4717
ausch 4714
boden 4714
enter 4714
platten 4714
spartei 4714
beteiligte 4713
hielten 4713
agt 4712
Kindheit 4711
Jer@@ 4710
genehm@@ 4710
Parti@@ 4709
brasili@@ 4709
kund@@ 4709
Geschw@@ 4708
inneren 4707
Kreises 4706
geleg@@ 4706
angeschlossen 4705
Py@@ 4703
Ursprung 4703
geprä@@ 4702
Computer@@ 4701
Schwarz 4701
Van 4701
uk 4701
bon@@ 4700
Leopold 4699
sonst 4699
Williams 4698
achtet 4698
aktuellen 4698
Tokio 4697
Verteidigung 4697
anst@@ 4697
Wissenschaftler 4695
kanad@@ 4695
Nationalsozialisten 4693
Fall@@ 4692
handeln 4692
Ran@@ 4691
firma 4691
läng@@ 4691
tenberg 4689
Cat@@ 4688
dun@@ 4688
1859 4687
Systems 4687
din@@ 4687
vorge@@ 4687
Barcelona 4686
Franzosen 4686
Staffel@@ 4686
aka 4686
Singles 4685
Stur@@ 4685
Tabelle 4684
itter@@ 4684
reifen 4683
schütz@@ 4681
ständ@@ 4681
Les 4680
irchen 4679
Ansicht 4677
Bestand 4676
1840 4673
Klavier@@ 4673
private 4673
zell@@ 4673
Kie@@ 4672
richtete 4672
iter 4671
Rumänien 4670
Som@@ 4670
erl@@ 4670
Matthias 4669
Morgen 4669
ique 4668
Neur@@ 4667
Wirtschaft@@ 4665
You 4665
Zeh@@ 4664
Flächen 4663
örtlichen 4663
Englisch 4662
front 4662
landes 4662
East 4661
enten@@ 4660
Höhepunkt 4659
systeme 4659
vorbereit@@ 4659
IN@@ 4658
Madrid 4658
verzeichnet 4658
Freiwilli@@ 4656
wechseln 4656
etter@@ 4655
Jones 4653
Kunden 4653
arischen 4653
FA 4652
ligisten 4652
reisen 4652
Kupfer@@ 4651
abil@@ 4651
letztlich 4651
univers@@ 4651
emit@@ 4650
engl 4650
ergänzt 4650
kun@@ 4650
si 4650
Diplom 4649
hauses 4649
ahren 4648
Qualität 4646
adel@@ 4644
utt@@ 4644
rati@@ 4643
Übergang 4643
Aussage 4641
sagt 4641
Umsetzung 4640
bahnhof 4639
agon@@ 4636
assen@@ 4636
lar@@ 4634
Brown 4633
Personal@@ 4633
Platten@@ 4631
Hell@@ 4630
ermittelt 4630
Breslau 4629
ländische 4628
erm@@ 4627
hef@@ 4627
zusamm@@ 4627
mittelalterlichen 4626
Höchst@@ 4625
NHL 4625
riebenen 4625
Südafrika 4624
rücke 4624
Prinzip 4623
Hilfs@@ 4622
inus 4622
verletzt 4621
CO@@ 4620
diesmal 4620
entierten 4620
lau 4620
rist@@ 4620
ätte 4620
1806 4619
direkten 4618
identif@@ 4618
Unterricht 4617
Jena 4616
Meth@@ 4615
Gall@@ 4614
zuführen 4614
entur 4613
philosoph@@ 4613
immt 4612
ässer@@ 4612
Nikolaus 4611
Punk@@ 4610
pan@@ 4608
maximal 4607
Zo@@ 4606
Abgeordneten 4605
unbekannt 4604
Weiß 4603
gie@@ 4603
kommenden 4602
näh@@ 4602
HC 4601
benötigt 4600
Cob@@ 4599
afrikanischen 4599
rön@@ 4599
Itali@@ 4598
Trupp@@ 4598
sson 4598
listen 4596
ereien 4595
speziell 4595
öck@@ 4595
national@@ 4594
streit@@ 4594
thal 4594
unterstützen 4594
Pod@@ 4592
mi 4592
Strecken 4590
anisch 4590
gehende 4589
lie 4589
Glocken 4588
allgemeinen 4588
unterschiedlich 4588
kanische 4587
Emil 4586
serien 4586
fot@@ 4585
Böh@@ 4584
Ry@@ 4584
derer 4584
nutzte 4584
Lös@@ 4583
Objekt 4583
beobachtet 4582
tierten 4581
Reform@@ 4580
Quadrat@@ 4579
verwal@@ 4579
Einz@@ 4577
darstellt 4577
Umbau 4576
ardo 4576
Turm@@ 4575
grenzen 4574
Mount 4573
Original@@ 4573
dierte 4573
fangen 4573
grenz@@ 4573
Loh@@ 4571
bein@@ 4570
Bisch@@ 4569
gelegen 4569
geringen 4569
verbess@@ 4567
Now@@ 4566
beschrieb 4566
zeugung 4566
öhe 4566
Krist@@ 4565
elen 4564
Columbia 4563
Herzogtum 4563
IC 4563
Für@@ 4562
sionen 4561
testen 4561
EM 4559
Konzerte 4559
Veranst@@ 4559
silber@@ 4558
Bands 4557
liter@@ 4557
reag@@ 4557
IV 4556
Modell@@ 4554
Persönlichkeiten 4554
gelände 4554
Mund@@ 4553
Positionen 4553
fahrten 4553
maler 4552
ux 4552
öll@@ 4552
afft 4551
eler 4551
Corps 4550
einfachen 4549
lex 4549
AT@@ 4548
Bewer@@ 4548
Herzog@@ 4548
phi@@ 4548
äne 4548
Bachelor 4546
kampf@@ 4546
200@@ 4545
Gerä@@ 4545
ş@@ 4545
übergeben 4544
bibliothek 4543
Sir 4542
heirat@@ 4542
denkmale 4541
Werte 4540
este 4540
roten 4540
ER@@ 4539
täglich 4539
Ethn@@ 4538
e.V. 4538
Premiere 4537
kro@@ 4537
Big 4536
Regensburg 4536
Unternehmer 4536
entren 4536
letzter 4536
ähnlichen 4536
Fassade 4534
Ga@@ 4534
Stationen 4533
ielen 4533
Interessen 4532
Rücktritt 4532
Wetter@@ 4531
bo 4531
Reformation 4530
Hard@@ 4529
Kli@@ 4528
Männern 4528
och 4528
unternahm 4527
lehnung 4525
untersucht 4525
Fünf@@ 4524
Militär 4524
Stim@@ 4524
dep@@ 4523
Szenen 4522
kanadischen 4521
verkehrs@@ 4521
OR@@ 4519
datiert 4518
instit@@ 4518
Bag@@ 4516
Schö@@ 4516
Varianten 4516
Sn@@ 4515
Altar@@ 4514
Marin@@ 4514
Beck@@ 4513
gerät 4513
regionalen 4512
gearbeitet 4511
Archä@@ 4510
becken 4510
hofen 4508
organisierte 4507
ungsver@@ 4507
Dies@@ 4505
parti@@ 4505
Mir@@ 4504
sam 4504
fun@@ 4503
Quell@@ 4502
bess@@ 4502
dreimal 4501
Betrieb@@ 4500
ès 4500
lossen 4499
Nachkommen 4498
Rub@@ 4498
abgelöst 4498
vertrieben 4498
Arnold 4497
Gefe@@ 4497
Kern 4497
saß 4497
Kapitän 4496
Erfin@@ 4495
Initi@@ 4495
pat@@ 4494
Strateg@@ 4493
Weiler 4493
kos@@ 4493
wichtiger 4491
Somit 4490
rechteck@@ 4490
unterstellt 4490
Kamera 4488
Laub@@ 4488
Bundestag@@ 4487
sequ@@ 4487
Plänen 4486
ständigkeit 4486
gerä@@ 4485
Harry 4484
Virginia 4484
eingeb@@ 4484
riffe 4484
Lein@@ 4483
Streit 4483
ozi@@ 4483
Bauten 4482
drän@@ 4482
industri@@ 4481
jüngeren 4481
kopf 4481
Dev@@ 4480
Residen@@ 4480
unterrichtete 4479
Premierminister 4478
Rot 4478
Schwei@@ 4478
team 4478
rest@@ 4476
well 4476
sechsten 4475
kehren 4474
agn@@ 4473
ów 4472
Bundesstraße 4470
unterteilt 4469
ehren@@ 4468
ration 4468
riebe 4468
Kollegen 4467
Ras@@ 4467
Sus@@ 4467
raut 4467
Heimatstadt 4466
umgewandelt 4465
Erhebung 4464
1830 4462
1857 4462
er- 4462
linder 4462
Jurist 4461
diverse 4460
wood 4460
zeich@@ 4460
Zell@@ 4458
Benutz@@ 4457
eingemeindet 4457
qualifizierte 4457
teilungen 4457
statist@@ 4455
Tol@@ 4453
5.@@ 4452
European 4452
flügel@@ 4452
uppen 4452
wör@@ 4452
Potsdam 4451
innen@@ 4451
kompon@@ 4451
Alpen 4450
dis 4450
Beteiligung 4449
ikation 4448
Gil@@ 4447
dia 4447
oth@@ 4447
Joe 4446
Relig@@ 4446
ington 4446
Tunnel 4445
reichte 4445
1855 4444
rop@@ 4441
3000 4440
anna 4440
besitzer 4439
ild@@ 4439
Europas 4438
Lord 4438
Rav@@ 4438
angs 4437
1854 4436
Königs@@ 4435
aine 4435
dru@@ 4435
steigen@@ 4435
Gü@@ 4434
dauer 4434
Kolonial@@ 4433
Navy 4433
Olympi@@ 4433
Zweiter 4433
Porträ@@ 4430
veranst@@ 4430
Definition 4429
geeignet 4428
schwarzen 4428
trafen 4427
Fass@@ 4426
Objek@@ 4426
Vertre@@ 4426
athlon 4425
keit 4424
ners 4424
Gewicht 4422
Hohen@@ 4422
Umfang 4422
riss 4422
ends 4421
igsten 4421
Stadtgebiet 4420
öch@@ 4420
ants 4419
Schar@@ 4418
Pic@@ 4417
Schiffs@@ 4417
archie 4417
MS 4416
insel 4416
Innsbruck 4414
Juan 4414
Kathol@@ 4413
ento 4413
probl@@ 4413
Gegenwart 4412
beein@@ 4412
gestorben 4412
tern@@ 4412
Bud@@ 4410
Series 4410
pil@@ 4410
Feuer 4409
Meyer 4409
stab 4409
Mobil@@ 4408
Einsätzen 4407
Samm@@ 4407
gelöst 4407
idae 4407
Carolina 4406
Presse 4406
Stütz@@ 4406
ebt 4406
türkischen 4406
gebildeten 4405
Flor@@ 4404
otten@@ 4404
pra@@ 4404
Stu@@ 4402
enthal 4402
onia 4402
Demokrat@@ 4401
Gir@@ 4401
bü@@ 4401
Grünen 4400
brenn@@ 4399
Alte 4398
aufgegeben 4398
schicht 4398
Abt 4397
Gouver@@ 4397
top@@ 4397
größtenteils 4396
tief 4396
Deshalb 4395
Ziegel@@ 4395
Witwe 4393
autom@@ 4393
farb@@ 4393
zü@@ 4392
enhausen 4391
erstraße 4391
Brun@@ 4390
genutz@@ 4389
Streitkräfte 4388
tums 4388
andererseits 4387
initi@@ 4387
Kell@@ 4386
achsen 4386
sorgte 4386
wig 4386
äp@@ 4385
By@@ 4383
Gemarkung 4383
euch@@ 4383
graf@@ 4383
schre@@ 4383
Eber@@ 4382
uß@@ 4381
gebaute 4380
Love 4379
Wagner 4378
pädagog@@ 4378
enken 4377
Zusamm@@ 4376
geändert 4376
Verbands@@ 4375
Koll@@ 4374
Quer@@ 4374
Zwar 4374
funktion 4374
Seitdem 4373
atte 4371
mögliche 4371
ausgewiesen 4370
ök@@ 4370
1803 4369
kunst 4369
Wiederauf@@ 4367
meister@@ 4367
Rechn@@ 4366
Tex@@ 4366
frau 4365
gerufen 4365
lösung 4365
ull 4365
positiv 4364
Bell@@ 4363
erns 4363
Albums 4362
Regeln 4362
Schwierigkeiten 4362
arte 4362
Goldmedaille 4361
Museums 4361
One 4360
Wäh@@ 4359
ünsch@@ 4359
ards 4358
Arme@@ 4357
phen 4357
Florida 4356
renten 4355
atten@@ 4354
Phar@@ 4353
gegliedert 4353
omb@@ 4353
entierte 4352
ê@@ 4352
Zun@@ 4351
pon@@ 4351
Schottland 4350
Massachusetts 4349
beider 4349
Nationalpark 4348
SE@@ 4348
go@@ 4348
Horn@@ 4347
Real@@ 4346
Research 4346
Tschechien 4346
ammen 4346
Inneren 4345
Innerhalb 4344
endor@@ 4344
oli 4343
struktion 4343
eröff@@ 4342
aub@@ 4341
gründeten 4341
spunkt 4340
Ring 4339
fuß@@ 4338
Tabellen@@ 4337
Versionen 4337
Langen@@ 4335
stur@@ 4335
etc. 4334
kov@@ 4334
thet@@ 4334
Fut@@ 4333
schau 4333
verlauf@@ 4330
Las@@ 4329
licherweise 4329
ikon 4328
ässi@@ 4328
Bereiche 4327
Evangelischen 4327
gefördert 4327
olymp@@ 4327
seiten 4327
spiegel@@ 4327
fertigte 4326
Beau@@ 4325
François 4325
afen 4325
einerseits 4325
ragt 4325
bahnen 4324
europäische 4324
liederung 4324
zun@@ 4324
Trennung 4323
Sinn 4322
Einwohner@@ 4321
tun 4321
Maschin@@ 4320
trägen 4320
griff 4319
Konflikt 4318
dienste 4318
1852 4317
nde 4317
sieb@@ 4317
aufgeteilt 4316
Alf@@ 4315
Aufsichts@@ 4315
Kammer 4315
Leipziger 4315
Dokumentar@@ 4314
loster 4314
zi 4314
Hex@@ 4313
Mauer@@ 4313
absolv@@ 4313
sau@@ 4313
fach 4312
maßgeblich 4312
ğ@@ 4312
Erzäh@@ 4311
Herz 4310
rumän@@ 4310
olt 4307
Dieter 4306
aters 4306
ec 4306
erlebte 4305
iegen 4305
Art. 4304
Typs 4304
leist@@ 4304
loc@@ 4304
Publikationen 4303
sieger 4302
tan@@ 4302
amerikan@@ 4301
ey@@ 4301
Gottfried 4300
ächer 4300
israel@@ 4299
ores 4299
rh@@ 4299
1858 4298
Pok@@ 4298
ori 4298
Earl 4296
Monuments 4296
Neuseeland 4296
öf@@ 4296
Kost@@ 4295
brachten 4295
brand@@ 4295
ī@@ 4295
ücke 4294
Gur@@ 4293
Int@@ 4293
oni 4293
Jahrzehnten 4291
Ox@@ 4291
а@@ 4291
flüch@@ 4290
Bun@@ 4289
Synagoge 4289
isl@@ 4289
Wend@@ 4288
Zuvor 4288
Ausgaben 4287
Verd@@ 4287
kämp@@ 4287
Athen 4286
Heb@@ 4286
Holl@@ 4285
Wales 4285
derselben 4284
vorhandenen 4284
Rechtsanwalt 4283
öfe 4283
Dig@@ 4282
Ordens@@ 4282
abschnitt 4282
politischer 4282
reduziert 4281
fan@@ 4280
gebenden 4280
tiere 4280
yl 4280
Eigentümer 4279
Schneider 4279
geeig@@ 4279
leutnant 4278
ras 4278
Samuel 4277
azität 4276
objek@@ 4276
Petersburg 4273
Regen@@ 4273
Herr 4272
indischen 4272
fik@@ 4271
sichten 4271
vention 4271
Erscheinung 4270
eta 4270
geordnet 4270
häl@@ 4269
spe@@ 4269
sterben 4269
Nahrungs@@ 4268
Zeu@@ 4268
uer@@ 4267
Dynastie 4266
hängt 4266
Fab@@ 4265
Träger 4265
Zwangs@@ 4264
schreit@@ 4262
Mensch@@ 4261
Qualifikations@@ 4260
sichtbar 4259
verpasste 4259
Botschaft 4258
hang 4257
integriert 4257
pi@@ 4256
Wissen 4254
deck 4254
integ@@ 4254
kurzer 4254
Pom@@ 4252
deutet 4252
Kinos 4251
gebiets 4251
vers 4251
Frucht@@ 4250
Dirig@@ 4248
ă@@ 4248
P. 4247
klin@@ 4247
Insel@@ 4244
Urkunde 4244
erforderlich 4243
kombin@@ 4243
vermutet 4243
Hay@@ 4241
stands 4241
affen 4239
Evangel@@ 4238
Regisse@@ 4238
alter@@ 4238
erfolgen 4238
Ven@@ 4237
Western 4237
ral@@ 4237
Jedoch 4234
Bibliothek@@ 4233
Bucht 4233
Materi@@ 4233
wichtigste 4233
Championship 4232
Oze@@ 4232
Transport 4232
Beitrag 4231
Brief@@ 4231
bezüglich 4230
ikum 4230
Häuf@@ 4229
Elf@@ 4228
sang 4227
Ausbildungs@@ 4226
ô@@ 4226
hölz@@ 4224
kämpfte 4224
west 4224
ändert 4224
äuse 4224
bun@@ 4223
ä 4223
St.-@@ 4221
atus 4219
aller@@ 4218
ike 4217
over 4216
schwier@@ 4215
zt 4215
Uhr@@ 4214
baum 4214
inszen@@ 4213
kündigte 4213
Exempl@@ 4212
dach 4212
offenbar 4212
Klass@@ 4211
entspringt 4211
kau 4211
verbindungen 4211
Abend 4210
Analyse 4210
Ersatz@@ 4210
Rum@@ 4210
lösen 4210
Gle@@ 4209
meter 4209
skon@@ 4209
ult@@ 4209
kirch@@ 4208
polnische 4208
Auftritte 4207
Dru@@ 4207
Jac@@ 4207
arisch 4207
uliert 4207
Gang@@ 4206
walde 4206
Rechtswissenschaften 4205
Skla@@ 4205
gekehrt 4205
wählte 4205
Bundeswehr 4204
konkre@@ 4203
Boh@@ 4202
beweg@@ 4202
chin@@ 4202
menschlichen 4202
stattfand 4202
Galax@@ 4201
Konstruk@@ 4201
bedient 4200
zugunsten 4200
Regier@@ 4199
wollten 4199
Fir@@ 4198
Leb@@ 4198
igungs@@ 4198
Katharina 4197
RE@@ 4196
positi@@ 4196
voneinander 4196
merkt 4194
vin@@ 4194
Änderungen 4194
Mauer 4193
keln 4193
Edel@@ 4191
druckt 4190
höfe 4190
onom@@ 4190
Präs@@ 4189
Sprecher 4189
ennamen 4189
sex@@ 4189
Studiums 4188
Ernennung 4187
ecke 4187
ema 4187
Geschwindigkeit 4186
Kaufmann 4186
Scott 4186
symbol@@ 4186
eigentlichen 4185
kritisiert 4185
ufer 4185
Af@@ 4184
Keram@@ 4184
bemerk@@ 4184
Mig@@ 4183
nische 4183
ć 4183
Profi@@ 4182
glück@@ 4182
schluss@@ 4181
Befrei@@ 4180
Besuch@@ 4180
Bod@@ 4179
Jacques 4179
Kriminal@@ 4179
Original 4179
bedeutendsten 4179
Ehemann 4178
Persön@@ 4176
verlief 4176
Alkoh@@ 4175
Math@@ 4173
erbau@@ 4173
Zwer@@ 4172
eingebaut 4172
rollen 4172
Om@@ 4171
Abend@@ 4170
Neu 4170
kanz@@ 4167
zeugt 4167
Pennsylvania 4166
White 4166
chem@@ 4166
regionale 4166
Nie@@ 4165
pass@@ 4165
ʿ@@ 4165
Central 4164
Horst 4164
Maschinen@@ 4164
Giovanni 4163
Siedlungen 4162
erischen 4162
Gott@@ 4161
VI@@ 4161
richten 4161
Marburg 4160
Anne 4159
bedeutenden 4159
rang@@ 4158
nennen 4157
singen 4157
Veranstaltung 4156
genü@@ 4156
erheb@@ 4155
prüfung 4154
verwendeten 4153
Gam@@ 4152
differ@@ 4152
ößen 4151
Anim@@ 4150
dat@@ 4150
ó 4150
eckt 4149
gas@@ 4149
verantwor@@ 4149
älter 4149
Jacob 4148
Kathedrale 4148
com@@ 4147
Budapest 4146
1818 4145
Lehrstuhl 4145
Nu@@ 4145
karriere 4144
origin@@ 4144
gesagt 4143
Komposition 4142
Systeme 4142
hauptstadt 4142
japanische 4142
Tam@@ 4141
abel 4140
DVD 4139
Fon@@ 4139
1845 4138
Einsätze 4138
ave 4138
nost@@ 4138
Pflanz@@ 4137
Toren 4137
eingetragen 4137
Fürsten 4135
Provinzen 4135
dlich 4135
Felix 4134
Jos@@ 4134
ariat 4134
erhöh@@ 4134
etta 4133
iveau 4132
berichtete 4131
isieren 4131
opf 4131
umfangreiche 4131
Nordamerika 4130
verbände 4130
Dietrich 4129
Ay@@ 4128
Heer 4128
Autobahn 4126
halb 4126
1851 4125
Bergen 4124
nisses 4124
Fähr@@ 4123
hierfür 4123
1813 4122
1847 4122
enswert 4120
neben@@ 4120
friedhof 4119
Kardinal 4117
Pädagog@@ 4117
üblichen 4117
immer@@ 4116
Regim@@ 4115
außerord@@ 4115
fähig 4115
Tisch@@ 4114
T. 4113
persönlichen 4113
sburger 4113
einfache 4111
Rohr@@ 4110
Ré@@ 4110
Mittelpunkt 4109
akon@@ 4108
daten 4107
chron@@ 4106
enko 4106
Hügel 4104
Existenz 4103
Miner@@ 4103
Haltung 4102
jenigen 4102
Turnier@@ 4101
bemüh@@ 4101
tar@@ 4101
therapie 4101
weiße 4101
Auswirkungen 4100
Führungs@@ 4100
entierung 4100
finanziellen 4100
lieferte 4100
owitz 4100
Argentinien 4098
emb@@ 4098
gesichert 4097
strecken 4097
australischen 4096
Dsch@@ 4095
Dram@@ 4093
Kör@@ 4091
prakt@@ 4091
any 4089
out 4089
Karte 4088
gefertigt 4088
kore@@ 4088
starben 4088
reduz@@ 4087
zeitig 4087
antiken 4086
belast@@ 4086
scher@@ 4086
betrach@@ 4085
bundes@@ 4085
überw@@ 4085
Sekretär 4084
erende 4084
getroffen 4084
Castle 4083
Transport@@ 4083
ity 4083
verd@@ 4083
Schritt 4082
big 4082
dauerte 4082
gio 4082
Einsch@@ 4081
Got@@ 4081
Verdienste 4081
Zoll@@ 4081
entgegen@@ 4081
Begriffsklärung 4080
Wochen@@ 4080
vin 4080
Frequ@@ 4079
Past@@ 4079
gebir@@ 4079
Vorsitzende 4078
beschreibung 4078
heimischen 4078
Mut@@ 4077
antwor@@ 4076
sur@@ 4076
Spielern 4075
verlang@@ 4075
äußeren 4074
Flusses 4073
Ster@@ 4073
hart 4073
rund@@ 4073
werten 4073
Az@@ 4071
Kommand@@ 4071
englischer 4071
Kran@@ 4070
besucht 4070
ämme 4068
Kapitel 4067
Erstmals 4066
taus@@ 4066
Hydro@@ 4065
Verlust 4065
interpre@@ 4065
jew 4065
Ausbruch 4064
def@@ 4064
etti 4064
maschinen 4064
Epo@@ 4063
ati 4063
englisch 4063
leistete 4063
High@@ 4062
digte 4062
geograph@@ 4061
Österreichischen 4061
110 4060
1846 4060
engagiert 4060
ättern 4060
Anders 4059
nochmals 4059
räumen 4058
Informations@@ 4057
Verleihung 4056
Block@@ 4055
mensch@@ 4055
vereinbar@@ 4055
östliche 4054
bergischen 4053
kow 4053
Rücken 4052
ret 4052
Karten 4051
Ortst@@ 4051
möchte 4051
Doppel 4050
aturen 4050
Ford 4049
ergeben 4049
geschickt 4049
ruf 4049
ę@@ 4048
Text@@ 4047
filme 4047
Lex@@ 4046
Sturm 4045
digkeit 4045
emann@@ 4045
Brie@@ 4044
rate 4044
Landkreises 4043
Zeitschriften 4043
alis 4043
1816 4042
gasse 4042
sc@@ 4042
historiques 4041
EP 4040
Flugzeug 4040
fläch@@ 4040
stanz 4040
Sieben@@ 4039
sätzen 4039
pers@@ 4038
startet 4038
kleines 4036
met 4036
Französischen 4035
Provinz@@ 4035
aber@@ 4035
lied 4034
las 4033
Korps 4032
Strukturen 4032
Hauptort 4031
Onkel 4031
grundsätzlich 4031
Sonne 4030
Ord@@ 4029
fehlen 4029
präsentiert 4029
Mast@@ 4028
hoben 4028
anschließenden 4027
bewoh@@ 4027
Amp@@ 4026
dicht 4024
erstellt 4024
Leo 4023
ermordet 4023
verstanden 4023
Buchstaben 4022
Ministerium 4022
zurückzu@@ 4022
ritt@@ 4021
Fehl@@ 4019
Bill 4018
Linz 4017
elbe 4017
zeitschrift 4016
Pur@@ 4015
Zerstörung 4015
ergab 4015
freier 4015
laufenden 4015
tie@@ 4015
zum@@ 4015
zugelassen 4014
Gebrauch 4013
Temp@@ 4013
debüt 4013
nunmehr 4013
Fär@@ 4012
HL 4012
Instrument 4012
Misch@@ 4012
Kommunikation 4011
geplanten 4010
Mang@@ 4009
Gefüh@@ 4008
Innenstadt 4007
orin 4007
smitglied 4007
São 4006
fiziert 4006
ländern 4005
speich@@ 4004
Acker@@ 4003
höh@@ 4003
AM@@ 4002
dunkel@@ 4002
Damp@@ 4001
Hur@@ 4001
Produzent 4001
Blätter 4000
anden 4000
Army 3999
bir@@ 3999
Ämter 3999
и@@ 3999
angen@@ 3998
spektive 3998
Berge 3997
ausgeprä@@ 3997
beginnen 3997
verfolgt 3997
Aufmerksamkeit 3996
Johnson 3996
Lebensraum 3996
spezi@@ 3995
roffenen 3994
versor@@ 3994
ka@@ 3993
Häusern 3992
quadrat@@ 3992
ungser@@ 3992
Phot@@ 3991
Spielzeiten 3991
pflege 3991
Bak@@ 3990
L. 3990
ecken 3990
farben 3990
geren 3990
suche 3989
Send@@ 3988
pur@@ 3988
ulen 3988
Luc@@ 3987
ogs 3986
Ortsteile 3985
einfluss@@ 3985
onomie 3984
Adels@@ 3983
iertes 3983
reuth 3983
trenn@@ 3983
weiler 3983
Angeb@@ 3982
stütz@@ 3982
Geist 3981
folgen@@ 3980
motoren 3979
ni 3979
Ca@@ 3978
Schmal@@ 3978
Thr@@ 3978
Trier 3978
einrichtungen 3978
zweites 3978
FDP 3977
ländischer 3976
offizier 3976
š 3975
Finnland 3974
bewusst 3974
natürlichen 3974
dener 3973
Mör@@ 3971
ausgewählt 3971
eg 3971
riff 3970
güter 3969
But@@ 3968
lad@@ 3968
10,@@ 3967
Sprint 3967
St 3967
amtes 3967
Bekannt 3966
Victoria 3966
helfen 3966
parks 3965
werks@@ 3965
Versorgung 3964
Comm@@ 3963
Urteil 3963
besiedelt 3963
6.@@ 3962
Davis 3961
Schil@@ 3961
Italien@@ 3960
optim@@ 3960
MA 3959
Wiederaufbau 3959
eld@@ 3959
erkannt 3958
gru@@ 3958
ult 3958
wächst 3958
AC@@ 3957
Weil 3957
evangelisch 3957
gliedern 3955
gon@@ 3955
maschine 3955
ümer 3955
Orchest@@ 3954
rief 3954
Gitarre 3953
Vorsitzenden 3953
usw. 3952
Astron@@ 3951
Warschau 3951
bund 3951
bestehend 3950
frü@@ 3949
lav@@ 3949
æ@@ 3949
Ideen 3948
äus 3948
Ev@@ 3947
Treffer 3947
ago 3947
vater 3947
Moritz 3946
Def@@ 3945
Din@@ 3945
entdeckte 3945
onne 3945
Jahrhunder@@ 3944
ows 3944
äufer@@ 3944
Erfurt 3942
1853 3941
Aug@@ 3941
Kär@@ 3941
lok@@ 3941
1814 3940
essel@@ 3940
soli@@ 3940
Damen 3939
Front@@ 3938
Stimm@@ 3938
assung 3938
egt 3938
mel 3938
Experim@@ 3937
Raj@@ 3937
ize 3936
Reisen 3935
ege 3935
berechtigt 3934
enfalls 3934
Stadtrat 3933
Vert@@ 3933
zügen 3933
Führer 3932
zeigten 3932
emat@@ 3931
Aktion 3930
Charlotte 3930
durchschnittlich 3930
André 3928
Lob@@ 3928
itel 3928
ografische 3928
Schwestern 3927
Schluss 3926
Tiefe 3926
mutter 3925
restlichen 3925
Schwein@@ 3924
geschlossenen 3924
zukünf@@ 3924
Ohio 3923
Satt@@ 3923
tend 3923
Tie@@ 3921
baut 3921
gestaltete 3921
Katast@@ 3920
air@@ 3920
dens@@ 3920
mob@@ 3920
sein@@ 3920
Klar@@ 3919
Od@@ 3919
Weimar 3919
ames 3919
Kritiken 3918
Still@@ 3918
sämtliche 3918
gefahren 3917
Umfeld 3916
bester 3916
gewachsen 3916
Mike 3915
Räume 3915
Treffen 3915
pert 3915
eleg@@ 3914
DM 3913
stammten 3913
kein@@ 3912
SK 3911
ungarischen 3911
dend 3910
lus 3910
Dienste 3909
jo 3909
langsam 3908
stiegs@@ 3908
gast@@ 3906
tei 3905
vielfäl@@ 3905
Mai@@ 3904
marsch 3904
ū 3904
bet 3903
klein 3903
Befehl 3902
Darstellungen 3902
Flagge 3902
erkrank@@ 3902
stlichen 3901
Gefähr@@ 3900
gler 3900
präsidenten 3900
stellvertreten@@ 3900
Einzugsgebiet 3899
Lieb@@ 3899
Liter 3899
port 3898
Äl@@ 3898
ausgestellt 3896
gefärbt 3896
hau@@ 3894
belie@@ 3893
bezieh@@ 3893
ffe 3892
figuren 3892
hinein 3892
Aussagen 3891
Flüs@@ 3891
Fürst 3891
Line 3891
Reh@@ 3891
Tschechoslowakei 3891
aro 3891
Heeres@@ 3890
eton 3890
Lud@@ 3889
kunst@@ 3889
Highway 3888
red@@ 3888
Abstieg 3887
dunk@@ 3887
test@@ 3887
Basketball 3886
trugen 3886
Namens 3885
Rit@@ 3885
atisch 3885
öhen 3885
Drei@@ 3884
Leicht@@ 3884
Vort@@ 3884
Entschei@@ 3883
Song@@ 3883
kürz@@ 3883
maß 3883
änz@@ 3883
ckte 3882
oe 3882
prakti@@ 3882
ș@@ 3882
Bruno 3881
geringe 3879
Fron@@ 3878
Put@@ 3878
endem 3878
nationalmannschaft 3878
Gn@@ 3877
Weber 3877
klassigen 3877
ota 3877
Kompan@@ 3876
Pop 3876
Sich@@ 3876
unge@@ 3876
Beste 3875
gesellschaft@@ 3875
gezwungen 3875
endlich 3874
Tob@@ 3873
archiv 3873
Sech@@ 3872
law@@ 3872
video 3872
Maj@@ 3871
lek@@ 3871
Europäische 3870
physi@@ 3869
First 3868
Ja@@ 3868
itag 3868
keiner 3868
krieg 3868
krise 3868
Fertigstellung 3867
Punkt@@ 3866
unterbrochen 3866
mö@@ 3865
umen@@ 3865
schar@@ 3864
ühl@@ 3864
Studenten@@ 3863
Zus@@ 3863
grafen 3862
natür@@ 3862
ermöglichte 3861
fahrzeuge 3861
feuch@@ 3861
handlungen 3861
Wapp@@ 3860
New@@ 3859
genau@@ 3859
wesenheit 3859
Motoren 3857
Pazif@@ 3857
vertre@@ 3856
Berater 3854
Ingenieur 3853
Opern@@ 3853
angeordnet 3853
durchsetzen 3853
europ@@ 3853
äußerte 3853
Bundes 3852
Seni@@ 3852
Verordnung 3850
kreise 3850
voller 3850
agte 3849
sagen 3849
modell 3848
weisung 3848
Christus 3847
Wert@@ 3847
AN@@ 3846
FK 3846
Opp@@ 3846
essor 3846
vermehr@@ 3846
Aktu@@ 3845
Michel 3845
meistens 3845
Liebes@@ 3844
unabhäng@@ 3844
bacher 3843
zucht 3843
äule 3843
ütz 3843
Oberst 3842
Zweite 3842
ran 3842
real@@ 3842
römische 3842
staat 3842
Ausführung 3841
Sonstiges 3841
ologischer 3841
Kup@@ 3840
ichts@@ 3840
dik@@ 3839
Ny@@ 3838
Waff@@ 3838
Aust@@ 3837
Umwelt 3837
gelistet 3837
herausgegeben 3837
isten@@ 3837
regelmäß@@ 3837
sta 3837
Wis@@ 3836
iff 3836
pap@@ 3836
wiederhol@@ 3836
Erklärung 3835
Esp@@ 3835
Lav@@ 3835
iki 3835
rückte 3835
macher 3834
130 3833
ahr 3833
ministeriums 3833
Ž@@ 3833
Games 3831
rt 3831
umstritten 3831
Falle 3830
umgesetzt 3830
Herrscher 3829
gefährdet 3829
sprüche 3829
verschie@@ 3829
# 3828
Young 3828
Einstellung 3826
betä@@ 3826
aison 3825
Qualif@@ 3824
Kräfte 3823
ändler 3823
Fusion 3822
Stor@@ 3822
Run@@ 3821
emand 3820
line 3820
oos 3820
Istanbul 3819
Kh@@ 3819
Grundschule 3818
alien 3818
emals 3818
Diplom@@ 3817
Gestalt 3817
Hus@@ 3817
Jerusalem 3817
Vorrunde 3817
nahme@@ 3817
sichern 3816
Kooperation 3815
Beit@@ 3814
einzel@@ 3814
Auff@@ 3813
alom 3813
Maximilian 3812
beauftragt 3812
enor@@ 3812
Jüd@@ 3808
Schäden 3807
verabschie@@ 3807
Künstlern 3806
klärt 3805
präs@@ 3805
mitten 3804
streifen 3803
Ball 3802
Latein@@ 3802
Poliz@@ 3802
esch 3801
geschm@@ 3799
usen 3799
IS 3798
trock@@ 3798
beeinflus@@ 3796
Flieg@@ 3795
religiösen 3795
Jak@@ 3794
ferner 3794
Christen 3793
angeblich 3793
zusammengefasst 3793
Champions 3792
ST@@ 3792
spezielle 3792
entr@@ 3791
gender 3791
vorsitz@@ 3791
Gewerbe@@ 3790
Hilf@@ 3789
enschiff@@ 3789
änen 3789
tner 3788
betriebe 3787
Abent@@ 3786
mente 3786
oda 3786
quelle 3785
Oberst@@ 3784
handel 3784
stär@@ 3784
Ausland@@ 3783
Green 3783
$ 3781
Lis@@ 3781
BA 3780
Schnitt@@ 3780
Weißen 3780
anzut@@ 3780
klus 3780
Preise 3779
wohnte 3779
än 3779
Stän@@ 3778
Vers@@ 3778
Presse@@ 3777
berücksichtigt 3777
Mid@@ 3776
Anlass 3775
Landgericht 3775
Rath@@ 3774
Sektion 3774
Luxemburg 3773
aufnahme 3773
ausgesetzt 3773
erzeugt 3773
gan 3773
abschloss 3772
woraufhin 3772
beschränkt 3771
900 3770
absol@@ 3770
asste 3770
rechtlichen 3770
3,5 3769
s. 3769
Auseinandersetzung 3768
Fenster@@ 3768
Reserv@@ 3768
erweit@@ 3768
kommiss@@ 3768
schießen 3768
Auseinandersetzungen 3767
Spuren 3767
dürfte 3767
itter 3767
Vieh@@ 3765
erkennbar 3765
geführten 3765
lichsten 3765
aki 3764
s- 3764
Verbreitungsgebiet 3762
befür@@ 3762
lecht 3762
Kontra@@ 3761
Zit@@ 3761
provis@@ 3761
üste 3761
Prüf@@ 3760
Rose 3760
westlicher 3760
Österreichs 3760
Hül@@ 3759
Abtei 3758
mexikan@@ 3758
vä@@ 3758
Wohnhaus 3757
agne 3757
bat@@ 3757
diplom@@ 3757
Anforderungen 3756
ummer 3756
DI@@ 3755
aku@@ 3755
dé@@ 3755
erfolgreiche 3755
mannschaften 3754
Jesu 3753
cio 3753
low@@ 3753
Fahrt 3751
Geschichten 3751
Legende 3751
gelb 3751
jahres@@ 3751
oper 3751
Gatt@@ 3750
unkte 3750
Jün@@ 3749
Konzert 3749
tschaft 3749
wachsen 3749
Professur 3748
trum 3748
welchem 3748
180 3747
anf@@ 3747
Zimmer@@ 3746
erbaute 3746
1843 3745
Studios 3745
resul@@ 3745
Cour@@ 3744
Francis 3744
beut@@ 3744
herausra@@ 3744
Sitze 3743
möglichkeiten 3743
Befest@@ 3742
Meistertitel 3742
liger 3742
äger@@ 3742
Dreißigjährigen 3741
durchschnittliche 3741
eigentliche 3741
meisterschaften 3741
verwenden 3741
vieler 3741
abgelehnt 3740
formation 3739
1844 3737
Van@@ 3737
alisiert 3737
losigkeit 3737
thöch@@ 3737
zeichnung 3737
gesetzte 3736
stieß 3735
Bast@@ 3734
California 3734
Fortsch@@ 3734
avi@@ 3734
Keller 3733
kra@@ 3733
Gedichte 3732
Sowjet@@ 3732
jan 3732
Renaissance 3731
aktuelle 3730
Brüssel 3729
ope 3729
Dom 3728
festen 3728
stadt@@ 3728
Akadem@@ 3725
digten 3725
herren 3725
brauch 3724
unden@@ 3723
” 3723
Jesus 3722
ory 3722
sha@@ 3722
Dau@@ 3721
Hafen@@ 3720
Serien@@ 3720
gehörige 3720
kurzzeitig 3720
räsidenten 3720
undene 3720
00.000 3719
Städ@@ 3719
alteten 3719
erhältlich 3719
ausgeschlossen 3718
künstler@@ 3718
steigt 3718
Flach@@ 3717
Y 3717
allgemeine 3717
ty@@ 3716
Galerie 3715
Armen@@ 3714
Jahrzehnte 3714
Königsberg 3714
klassen 3714
oms 3714
Frie@@ 3713
1842 3712
Flugh@@ 3712
schenk@@ 3712
steinen 3711
Bein@@ 3710
Council 3710
ensen 3710
freiheit 3710
teilten 3710
Theat@@ 3709
gang@@ 3709
ühle 3709
entstandenen 3708
kers 3708
weltmeisterschaften 3708
alia 3707
attung 3707
bekleidete 3707
cor@@ 3707
gleicher 3707
Betrach@@ 3706
olph 3705
apelle 3704
aufmerksam 3704
olit@@ 3704
Ken@@ 3703
Marx 3703
Gab@@ 3702
erhaltenen 3701
ogra@@ 3701
Philosop@@ 3700
austral@@ 3700
steurop@@ 3699
1835 3698
KG 3698
Allgem@@ 3697
Betriebe 3697
benannten 3696
forscher 3696
inspi@@ 3696
stiegen 3696
zün@@ 3696
Blue 3695
gerichts 3695
torin 3695
Liefer@@ 3694
ous 3694
Code 3693
Schüler@@ 3692
Stockholm 3692
bekämp@@ 3692
Produktionen 3691
aker 3690
entgegen 3690
non 3690
schottischen 3690
vorstand 3690
darstellen 3689
Manager 3688
bad 3688
Carlos 3687
Himm@@ 3687
Prüfung 3687
Schweizer@@ 3687
exp@@ 3687
unen 3687
diversen 3686
Fremd@@ 3685
Ig@@ 3685
diges 3685
raten 3685
demokratischen 3684
rophe 3684
Gesand@@ 3683
Verbindungs@@ 3683
eister@@ 3683
1832 3682
beinhaltet 3682
ffer@@ 3682
Maxim@@ 3680
gekennzeichnet 3680
leis@@ 3680
Fels@@ 3679
gal@@ 3679
geschw@@ 3678
afrika 3677
drehte 3677
historisch 3676
sto@@ 3676
gemessen 3675
Centre 3674
Demokratischen 3674
Durchbruch 3674
Pak@@ 3674
ares 3674
einger@@ 3674
elektrische 3674
Schreib@@ 3673
ous@@ 3673
Bem@@ 3672
Reserve 3672
Apostol@@ 3671
Lot@@ 3671
Seen 3671
arab@@ 3671
komot@@ 3670
Gesundheit 3669
Neum@@ 3669
Christi 3668
darauffolgenden 3668
gelö@@ 3668
12,@@ 3667
Nau@@ 3667
festgestellt 3667
lokale 3667
Grundstück 3666
Meh@@ 3666
schrau@@ 3666
asi 3665
auffäl@@ 3665
iern 3665
königlichen 3665
Geographische 3664
fassen 3664
gestre@@ 3664
Schaf@@ 3663
Stab@@ 3663
ucht@@ 3663
Bier@@ 3662
Weltmeister@@ 3662
lichkeits@@ 3662
näher 3662
zustand 3662
Dafür 3660
Neg@@ 3660
Formation 3658
graf 3658
Dob@@ 3657
enk 3657
Dien@@ 3656
Kredit@@ 3656
Amerikaner 3655
Kino 3655
Wende 3655
amerik@@ 3655
ić 3655
ky@@ 3655
Fortsetzung 3654
Generalmajor 3654
enver@@ 3654
öder@@ 3654
laden 3653
skirche 3653
ument 3653
Architektur@@ 3652
Briten 3652
Diesel@@ 3652
Gang 3652
aster 3652
beginn@@ 3652
Blues 3651
Sto@@ 3651
daneben 3651
geschützt 3651
qualifizierten 3651
zählten 3651
Alber@@ 3650
Kantons 3650
lebende 3650
aga 3649
militär@@ 3649
pet@@ 3649
eira 3648
Hi@@ 3647
endeten 3647
leuch@@ 3647
tot@@ 3647
verstorbenen 3647
Alt 3646
Ath@@ 3646
Elektron@@ 3646
Pav@@ 3645
begründete 3645
Oblast 3644
Religions@@ 3644
etzt 3644
ogen@@ 3643
Folgezeit 3642
Oxford 3642
Sta@@ 3642
filmen 3642
ohlen 3642
priv@@ 3642
rasch 3642
ions@@ 3641
sächs@@ 3641
zei 3641
5000 3640
Dresdner 3640
besetzten 3640
enkirche 3640
erschienenen 3640
gigen 3639
tags@@ 3639
norm@@ 3638
Town 3637
Öffent@@ 3637
Kok@@ 3636
Sammel@@ 3636
е@@ 3636
Koch 3635
Kupp@@ 3635
Was 3635
spru@@ 3635
Blu@@ 3634
Committee 3634
richt 3634
sammelte 3634
normal@@ 3633
behielt 3632
anus 3630
Präfektur 3629
Lou@@ 3628
Spir@@ 3628
polit@@ 3628
qualifiziert 3628
scheinen 3628
Life 3627
gerichts@@ 3627
südliche 3627
Eroberung 3626
Fabrik 3626
Sv@@ 3626
endgül@@ 3626
weibliche 3626
able 3625
altungs@@ 3624
CD@@ 3623
Jähri@@ 3623
Ursache 3623
genomm@@ 3623
netz@@ 3623
Phän@@ 3622
Bekann@@ 3621
Dritt@@ 3621
Saal@@ 3621
ausgel@@ 3621
Arbeitsk@@ 3620
Schum@@ 3619
pfar@@ 3619
ring@@ 3619
abgebrochen 3618
systems 3618
wöch@@ 3618
Zweitligisten 3617
anger 3617
wan 3617
Henri 3615
acker 3615
ry@@ 3615
erwer@@ 3614
Bob 3613
cher@@ 3613
schwarze 3613
Nacht@@ 3612
Sowohl 3612
ović 3612
Nei@@ 3611
Zir@@ 3611
istor@@ 3611
ères 3611
albahn 3610
brand 3610
eiche 3610
längere 3610
mögen 3610
aufgehoben 3609
Größ@@ 3608
Intel@@ 3608
genaue 3608
verkün@@ 3608
Genf 3606
ime 3606
Tö@@ 3605
Bass 3604
Bester 3604
ario 3604
ausger@@ 3604
Schal@@ 3603
Volksschule 3603
ations 3603
gär@@ 3603
kontinuier@@ 3603
olz 3603
Air@@ 3602
Tages 3602
shaupt@@ 3602
Freiherr 3601
rin@@ 3601
rechtliche 3600
gelb@@ 3599
nördliche 3599
Iran 3598
Nicht@@ 3598
Stunde 3598
kasse 3598
ziert 3597
auftreten 3596
got@@ 3596
män@@ 3596
Belagerung 3595
Län@@ 3595
kten 3595
schü@@ 3594
Klavier 3593
Kolonie 3593
Krankenh@@ 3593
Schenk@@ 3593
runden 3593
Erbe 3592
geplante 3592
siedelte 3592
Kopenhagen 3591
Toronto 3591
Berechn@@ 3590
Kaf@@ 3590
Rektor 3590
Tet@@ 3590
ährt 3590
KW 3589
sicherheit 3589
Baum 3588
ami 3588
Freund@@ 3587
konzip@@ 3586
Bruch@@ 3585
Folgende 3585
Kritiker 3585
Regist@@ 3584
rob@@ 3584
üssel@@ 3583
Bürgermeister@@ 3582
Schwimm@@ 3582
verteidi@@ 3581
endar@@ 3580
Ben 3579
Stan@@ 3578
blau 3578
gesetzes 3578
sing@@ 3578
verring@@ 3578
zugs@@ 3578
Chile 3577
dien 3576
urg@@ 3576
7.@@ 3575
Hed@@ 3575
mische 3575
olen 3575
umenten 3575
bende 3574
wald@@ 3574
1839 3573
Einzug 3573
Geburtstag 3573
ergeb@@ 3573
parlam@@ 3573
Haw@@ 3572
Point 3572
UEFA 3572
Wh@@ 3572
entsprach 3572
sters 3572
typischen 3572
Arti@@ 3571
Boote 3571
Diözese 3571
Illinois 3571
Sächs@@ 3571
spanische 3571
Cra@@ 3570
Großherzog@@ 3570
Konkurrenz 3570
Runden 3570
mittlung 3570
Glauben 3569
Sydney 3569
Victor 3569
essel 3568
aten@@ 3567
enthielt 3567
Road 3566
erzielt 3566
armee 3565
ci 3565
kultur 3565
Mission@@ 3564
musikalische 3564
Klassen 3563
Wir 3563
ZDF 3563
vorgenommen 3563
Ful@@ 3562
Stephan 3562
sinn 3562
andin@@ 3561
sfeld 3561
stimmen 3561
verlieh 3561
Powiat 3560
Renov@@ 3560
1810 3559
Cli@@ 3559
Günther 3559
Thor@@ 3559
durchaus 3559
gehörenden 3558
Städt@@ 3557
abgeleitet 3557
geordneten 3557
musikalischen 3557
norwegischen 3557
nd 3556
utes 3556
Ostpreußen 3555
ängt 3555
Gefan@@ 3554
Kali@@ 3554
Portug@@ 3554
Quar@@ 3554
Thür@@ 3554
erforder@@ 3553
Feu@@ 3552
Flugzeuge 3552
Tirol 3552
unterstütz@@ 3552
verurs@@ 3552
ähren 3552
Bog@@ 3551
Lé@@ 3551
riebene 3551
Kau@@ 3550
Sicht@@ 3550
splatz 3550
Ortsname 3549
gegenüber@@ 3549
gewor@@ 3548
Geis@@ 3547
Gip@@ 3546
verwei@@ 3545
Ci@@ 3544
Rettungs@@ 3544
Serien 3544
heben 3544
Alexand@@ 3543
DS 3543
Veget@@ 3543
kulturellen 3543
abgest@@ 3542
dah@@ 3541
ordnen 3541
Wind 3539
fass@@ 3539
Computer 3538
Hinzu 3538
innere 3538
portiert 3538
Olympiasi@@ 3537
Zusammensetzung 3537
esischer 3537
irm@@ 3537
öst@@ 3537
Manfred 3536
Oldenburg 3535
dlichen 3535
erne@@ 3535
fehlt 3534
qui@@ 3534
versuchen 3534
USD 3533
Zü@@ 3533
zylin@@ 3533
hinten 3532
legten 3532
stet@@ 3531
öl 3530
behin@@ 3529
praktisch 3529
Französisch 3528
gerechnet 3528
1836 3527
Spiegel 3527
Zeitungen 3527
ace 3527
gewidmet 3527
Nachrichten 3526
rol 3526
Ped@@ 3525
professor 3525
Erinnerung 3524
Gewer@@ 3524
Roger 3524
Volksrepublik 3524
geordnete 3524
geringer 3524
bungen 3523
spir@@ 3523
anken 3522
dit@@ 3522
album 3521
racht 3521
setzungen 3521
1837 3520
Alter@@ 3520
ref 3520
beziehen 3519
entliche 3519
ex 3519
gekauft 3518
gewand@@ 3518
D.C. 3517
Infek@@ 3517
Soli@@ 3517
Verwaltungssitz 3517
amer@@ 3517
vorkommen 3517
Brigade 3516
fristig 3516
Brunnen 3515
Lokal@@ 3515
SO@@ 3515
echt 3515
oven 3515
1834 3514
Drama 3514
Elektr@@ 3514
hom@@ 3514
Gebäuden 3513
verstärk@@ 3513
entscheiden 3512
eth 3512
gerech@@ 3512
hochschule 3511
Naturschutz@@ 3510
Peking 3510
Verbesserung 3510
ausgedeh@@ 3510
Ihm 3509
Münz@@ 3509
Patrick 3509
aly@@ 3509
befasste 3509
effizi@@ 3509
büch@@ 3508
natürliche 3508
orthodox@@ 3508
1838 3507
künf@@ 3507
stellungs@@ 3507
Quart@@ 3506
Schien@@ 3506
Sprech@@ 3506
Times 3506
ichtete 3506
Gericht@@ 3505
Interess@@ 3505
Coll@@ 3504
lit 3504
lowak@@ 3504
stechnik 3504
Änderung 3504
Gelehr@@ 3503
PC 3503
Unterstütz@@ 3503
haften 3503
Qual@@ 3502
Zellen 3502
fli@@ 3502
stro@@ 3502
Ligasp@@ 3501
Multi@@ 3500
vorzu@@ 3500
Partie 3499
Port 3499
ütte 3499
Verschw@@ 3498
üssel 3498
Bestand@@ 3497
Black@@ 3497
Ric@@ 3497
elektr@@ 3497
inter 3497
Bla@@ 3496
analy@@ 3496
arktischen 3496
issen@@ 3496
king 3496
beteiligten 3495
künstlerische 3495
plötz@@ 3495
äußerst 3495
Emer@@ 3494
Vin@@ 3494
katholischer 3493
8.@@ 3492
Lern@@ 3492
Nachrichten@@ 3492
intensi@@ 3492
1841 3491
Ausschuss 3491
hafte 3491
vielleicht 3491
bedeckt 3490
stern 3490
Guts@@ 3489
gre@@ 3489
Repar@@ 3488
Fach 3487
Wasserst@@ 3487
inne@@ 3487
Spitzen@@ 3486
Eli@@ 3485
Kontakte 3485
Verschie@@ 3485
ruh@@ 3485
schwei@@ 3485
Büch@@ 3484
Philadelphia 3484
Versuche 3484
zahlt 3484
Ehrungen 3483
Kaisers 3483
stoffen 3483
Psychologie 3482
barer 3482
him@@ 3482
Entdeckung 3480
klassische 3480
persönliche 3480
н@@ 3480
air 3479
ife 3479
röm@@ 3478
Dou@@ 3477
Museen 3477
Südost@@ 3477
Wilson 3477
betroffen 3477
frühe 3477
Corporation 3476
Institutionen 3476
Schlosses 3476
akzep@@ 3476
hoff 3475
saal 3475
Rhyth@@ 3474
gefasst 3474
ität@@ 3474
lach 3474
Windows 3473
asser 3473
decke 3473
genet@@ 3471
offene 3471
steuer@@ 3471
flex@@ 3469
verhältnis 3469
Komment@@ 3468
Mitglieds@@ 3468
bereich@@ 3468
manchen 3468
1820 3467
Abstammung 3467
ho 3467
karten 3467
Franken 3466
Satz@@ 3466
als@@ 3466
Preußischen 3465
erfährt 3465
lier 3465
zip 3464
Alli@@ 3463
Cos@@ 3463
Haft 3463
Säulen 3463
bul@@ 3463
keiten 3463
kulturelle 3463
Scher@@ 3462
Schluss@@ 3462
gelagert 3462
sey 3462
wohnern 3462
eingestuft 3461
fährt 3461
gehöri@@ 3461
Archiv@@ 3460
Orchestra 3460
1821 3459
Mill@@ 3459
Vent@@ 3458
scheid 3458
Jes@@ 3456
Q 3455
X. 3455
Finanzierung 3454
Prinzessin 3454
Saale 3454
Gebir@@ 3453
finanzielle 3453
nitten 3453
plätzen 3453
Aufstand 3452
Plattform 3452
Schülern 3452
verblieb 3452
äß@@ 3452
160 3451
Dritter 3451
1812 3450
sprung 3450
thro@@ 3450
arm 3449
herstellung 3449
verfassungs@@ 3449
erfolgreich@@ 3447
idi@@ 3447
ü 3446
diszipl@@ 3445
Bauwerke 3444
Missi@@ 3444
artig 3444
onym 3444
habilitierte 3443
zellen 3443
Church 3442
Taylor 3442
aken 3442
bat 3442
uth 3442
alg@@ 3441
tend@@ 3441
Heirat 3440
Rote 3440
Toten 3440
ielle 3440
rhein 3440
tra 3440
Doktor@@ 3439
Oc@@ 3439
Jugendliche 3438
Weihnachts@@ 3438
isoli@@ 3438
jährig 3438
stern@@ 3438
Klassen@@ 3437
dreh@@ 3437
Adelsgesch@@ 3436
Ner@@ 3436
aal 3436
ning 3436
Glocke 3435
Komödie 3435
kunft 3435
fung@@ 3434
otyp@@ 3434
punkten 3433
Direkt@@ 3432
Spä@@ 3432
ungsproz@@ 3432
Durchschnitts@@ 3431
ikations@@ 3431
Aufl@@ 3430
Gewässer 3430
lav 3430
Dün@@ 3429
Vizepräsident 3429
Werkstatt 3429
inn 3429
ödie 3429
Geschlecht 3426
Pandemie 3426
angehörte 3426
Zusammenschluss 3425
Böhmen 3424
Marien@@ 3424
Nav@@ 3424
denken 3424
Entsprech@@ 3423
1808 3422
Pfar@@ 3422
Wiesbaden 3422
gelingt 3422
zung 3422
böh@@ 3421
wohner 3421
Braun@@ 3420
Gesamtwertung 3420
befin@@ 3420
gewählten 3420
ässig 3420
äusch@@ 3420
Eigentum 3419
mauern 3419
Geschütz@@ 3418
Infanter@@ 3418
arischer 3418
Durchführung 3417
RT@@ 3417
Steve 3417
ittel@@ 3417
venti@@ 3417
100.000 3416
Stri@@ 3416
dritt@@ 3416
Ale@@ 3415
ieck@@ 3415
Erstligisten 3414
Verfolgung 3414
Vorbereitung 3414
lichten 3414
phil@@ 3414
Test 3413
gangs 3413
Bremer 3412
Ersatz 3412
Pé@@ 3412
repräs@@ 3412
DP 3411
rif@@ 3411
ätten 3411
Verantwortung 3410
alters 3410
erneuert 3410
ns@@ 3410
Marsch@@ 3409
Schnei@@ 3409
Wy@@ 3409
berge 3409
bevölkerung 3409
burgischen 3409
Freundin 3408
kür@@ 3408
leben@@ 3408
nachweis@@ 3408
äche 3408
männlichen 3407
Jackson 3406
Südwest@@ 3406
agten 3406
Atlan@@ 3405
Jura 3405
Zulassung 3405
besitz@@ 3405
Interview 3404
iment 3404
itiker 3403
müsse 3403
drit@@ 3402
erzielen 3402
kaner 3402
eindeutig 3401
ingenie@@ 3401
preis@@ 3401
schlei@@ 3401
ägyp@@ 3401
Tieren 3400
bisch@@ 3400
ensburg 3399
fron@@ 3399
lar 3399
Griff@@ 3398
Parks 3398
Stil@@ 3398
cy 3397
ettet 3397
Konzer@@ 3396
Sciences 3396
Such@@ 3396
Technische 3396
Fähigkeiten 3395
Nicol@@ 3395
filmung 3395
zogenen 3395
Terror@@ 3394
Jänner 3393
eten@@ 3393
tier 3393
Symbol 3392
Bestimm@@ 3391
Episoden 3391
Feuerwehr 3391
Kad@@ 3391
Kavaller@@ 3391
Tä@@ 3391
gor@@ 3391
projekt 3391
Kategorien 3390
Tätigkeiten 3390
ı 3390
Ordens 3389
Strom 3389
р@@ 3389
Archiv 3388
Büro 3388
nahen 3388
Arena 3387
einkommen 3387
ept 3387
Grundriss 3386
Zone 3386
eau 3386
Dauer 3385
aspar 3384
erfol@@ 3384
nachhal@@ 3384
ückt 3384
Hollywood 3383
verstehen 3383
bezog 3382
herausge@@ 3382
beha@@ 3381
Angelegenheiten 3380
apok@@ 3380
Unfall 3379
protestant@@ 3379
terung 3379
My 3378
DC 3377
Integ@@ 3377
Tournee 3377
Vermögen 3377
Douglas 3376
emper@@ 3376
gründung 3376
lings@@ 3376
respon@@ 3376
zahlreicher 3376
Übersetz@@ 3375
Ali@@ 3374
Helm@@ 3374
solle 3374
fur@@ 3373
urgie 3373
weiblichen 3373
Gemeindet@@ 3372
iefer@@ 3371
winkel 3371
Abkürzung 3370
Aff@@ 3370
Aktien@@ 3370
Werft 3370
ston 3370
Untersuch@@ 3369
angriff 3369
ga@@ 3369
restauriert 3369
beherbergt 3368
strom 3368
teilnehmen 3368
Geräte 3366
Schlesien 3366
Vorschlag 3366
russischer 3366
Gehei@@ 3365
Oliver 3365
UN 3365
Benjamin 3364
genug 3364
halte 3364
wohn@@ 3364
AL@@ 3363
Jersey 3363
Me 3363
Tun@@ 3363
ossenschaft 3363
Elbe 3362
nörd@@ 3362
Stattdessen 3361
Zustimmung 3361
thal@@ 3361
verhalten 3361
Luftwaffe 3360
persönlich 3360
Gött@@ 3359
K. 3359
künstlerischen 3359
äger 3359
ATP 3358
erhaus 3358
frequ@@ 3358
Markus 3357
Schlüssel@@ 3357
Unterschiede 3357
bis@@ 3357
ero@@ 3357
misch@@ 3357
Vorstellung 3356
illon 3355
ular@@ 3355
Abgeordnete 3354
kanal 3354
Gren@@ 3353
Kult@@ 3353
Pseudonym 3353
11@@ 3352
entsp@@ 3352
immen 3352
Anl@@ 3351
Samen 3350
Schre@@ 3349
ässern 3349
Küh@@ 3348
iste 3347
wolle 3347
erfolglos 3346
jüng@@ 3346
verfügen 3346
Chris 3345
Schild@@ 3345
theim 3345
Lewis 3344
Sym@@ 3344
mich 3344
regulären 3344
ösen 3344
Erzb@@ 3343
Herstell@@ 3343
Weih@@ 3343
enau 3343
gewe@@ 3343
ium@@ 3343
minist@@ 3343
neh@@ 3343
Südseite 3342
Versuch@@ 3342
Londoner 3341
üs@@ 3341
Eishockey@@ 3340
Hüt@@ 3340
adt 3340
anch@@ 3340
erinnern 3340
50.000 3339
erhaltene 3339
flüs@@ 3339
Autorin 3338
ira 3338
Fehler 3337
fälischen 3337
oftmals 3337
reicher 3337
tos 3337
EC 3336
Hütte 3336
ouver@@ 3336
schil@@ 3336
Erzählung 3335
Ott@@ 3335
antrat 3335
onische 3335
schiffe 3335
1833 3334
Asien 3334
Henn@@ 3334
einhalb 3334
Diszipl@@ 3333
drängt 3333
1828 3332
Auge 3332
kunden 3332
trans@@ 3332
Dir@@ 3331
Häft@@ 3331
Region@@ 3331
typische 3331
Aer@@ 3330
Produk@@ 3329
Riv@@ 3329
richtungen 3329
DB 3328
Klinik 3328
oxid 3328
Auffassung 3327
Frankreichs 3327
rats@@ 3327
verkauften 3327
worth 3327
Langhaus 3326
geschätzt 3326
siebten 3326
CE@@ 3325
Hung@@ 3324
Instit@@ 3324
Sche@@ 3324
erwartet 3323
stabil@@ 3322
Juni@@ 3321
bekannter 3320
ki@@ 3320
verbot 3320
stuf@@ 3319
ík 3319
tol@@ 3318
Sophie 3317
Vic@@ 3317
diag@@ 3317
entwarf 3317
feste 3317
füllt 3317
abschluss 3316
bezirke 3316
stitu@@ 3316
Gliederung 3315
Moh@@ 3315
eingezogen 3315
seitigen 3315
Ausgang@@ 3314
fertigt 3314
risch 3314
verhält@@ 3314
entums 3313
Ök@@ 3313
rote 3312
Eberhard 3311
schwe@@ 3311
deuten 3310
lernen 3310
ram 3310
ud 3310
cal@@ 3309
kal 3308
zweigt 3308
Antrag 3307
anal@@ 3307
punkt@@ 3307
umliegenden 3307
Weich@@ 3306
port@@ 3306
bedarf 3305
Ever@@ 3304
ürzte 3304
Hochschullehrer 3303
Kandid@@ 3303
Tony 3303
ali 3303
k. 3303
Freil@@ 3302
gemisch@@ 3302
ikation@@ 3302
wichtig 3301
Schmu@@ 3299
num@@ 3299
zeichn@@ 3299
Wurzeln 3298
Ton 3297
gener 3297
Schriftstell@@ 3296
Training 3296
Weltrang@@ 3296
ausgerichtet 3296
besiegte 3296
bildungs@@ 3296
Astr@@ 3295
Weimarer 3294
ops 3294
Bauer 3293
Nikol@@ 3293
ergän@@ 3293
ogn@@ 3293
verfasst 3293
1817 3292
angesiedelt 3292
renz@@ 3292
Getrei@@ 3291
slager 3291
Ama@@ 3290
Interpre@@ 3290
fusion@@ 3290
staats@@ 3290
Propag@@ 3288
warf 3288
äst@@ 3288
Bedarf 3287
Endrunde 3287
enger 3287
sperre 3287
veranl@@ 3287
oma 3286
spolitik 3286
Clu@@ 3285
appe 3285
christ@@ 3285
erlitt 3285
gliche 3285
wäh@@ 3285
Nahrung 3284
Rekord 3284
haltungs@@ 3284
177@@ 3283
Bezeichnungen 3283
fs@@ 3283
komponierte 3283
wirtschaftlich 3282
Festivals 3281
Teuf@@ 3281
beschäf@@ 3281
gewölbe 3281
ii 3281
Freundschaft 3280
emer@@ 3280
esia 3280
gefolgt 3280
undes 3280
Becken 3279
Instrument@@ 3279
erhebt 3279
Identität 3278
begründet 3278
umfang@@ 3278
ls@@ 3277
Akti@@ 3276
Ob 3276
Zauber@@ 3276
Hoff@@ 3275
bildungen 3275
Challenger 3274
elin 3274
ät 3274
1200 3273
ense 3273
laufbahn 3273
tätigkeit 3273
östlicher 3273
eo 3272
ugu@@ 3271
sions@@ 3270
Einwander@@ 3269
Lehen 3269
Strau@@ 3269
same 3269
teur 3269
urin 3269
atori@@ 3268
grau 3268
Beton@@ 3267
Reihen 3267
Frak@@ 3266
Gletscher 3266
Ungar@@ 3266
begleitete 3266
Präsidentschafts@@ 3265
Diskus@@ 3264
Einfl@@ 3264
Fo@@ 3264
Spielfilm 3264
set 3264
zeichneten 3264
Eigent@@ 3262
Statistik 3261
rug 3261
COVID 3260
Herrschafts@@ 3260
raft 3260
Soci@@ 3259
Winterspielen 3259
elektrischen 3259
geschie@@ 3259
Brauerei 3258
erfüllt 3258
Women 3257
anderes 3257
lowakischen 3257
Alumin@@ 3256
ival@@ 3256
äle 3256
Bischofs@@ 3255
Treff@@ 3255
bewegen 3255
AN 3253
Hochzeit 3253
befindlichen 3253
ekten 3253
übersch@@ 3253
Dav@@ 3252
Rundfunk 3252
350 3251
Fans 3251
Bochum 3250
Nas@@ 3249
Antike 3248
Ministerpräsident 3248
Regierungsbezirk 3248
glie@@ 3248
1831 3247
Bundessta@@ 3247
Ecke 3247
Mehrere 3247
Heraus@@ 3246
Duo 3245
Erhaltung 3245
Materialien 3245
Siege 3245
menge 3245
Ruhr@@ 3244
altete 3244
berat@@ 3244
jewitsch 3244
Ausrichtung 3243
Gross@@ 3243
Ira@@ 3243
feier@@ 3243
stück@@ 3243
Nebenfluss 3242
Sax@@ 3242
ppen@@ 3242
DJ 3241
Konferenz 3241
Media 3241
übri@@ 3241
Symb@@ 3240
Gattungen 3239
ausschusses 3239
belgischen 3239
ister@@ 3239
Illustr@@ 3238
Leib@@ 3238
Sieg@@ 3238
ungst@@ 3238
Schwieger@@ 3237
Til@@ 3237
ausführ@@ 3237
fassten 3237
hä@@ 3237
kö@@ 3237
Achtelfinale 3236
Angehörigen 3236
tex@@ 3236
Cab@@ 3235
Slowakei 3235
Deck@@ 3234
Teilnehmer@@ 3234
enschiff 3234
rey 3234
Goethe 3233
Nun 3233
Sep@@ 3233
bä@@ 3233
Karos@@ 3231
organisationen 3231
tin@@ 3231
zeitgenöss@@ 3231
Klima@@ 3230
onte 3230
themat@@ 3230
holen 3229
stens 3229
stock 3229
Cham@@ 3228
sie@@ 3228
Vorsprung 3227
gebrau@@ 3227
zubauen 3227
bulgar@@ 3226
mine 3226
sem@@ 3226
Gedi@@ 3225
Preuß@@ 3225
Textil@@ 3225
korea 3225
reihen 3225
chn@@ 3224
fällig 3224
orn@@ 3224
renn@@ 3224
stationiert 3224
wit@@ 3224
Ek@@ 3223
Himmel@@ 3223
nee 3223
Oder 3221
ersetzte 3221
Areal 3220
Flücht@@ 3220
Vorteil 3220
büro 3220
frie@@ 3220
realisiert 3219
umm@@ 3219
vgl. 3219
ässer 3219
ügel@@ 3219
Besonderheit 3218
ual 3218
willi@@ 3218
Nassau 3217
Territorium 3217
gebild@@ 3217
hunder@@ 3217
Apost@@ 3216
Slow@@ 3216
grünen 3216
konstru@@ 3216
Erfahrung 3215
Verhältnisse 3215
Verpflich@@ 3214
Wissenschafts@@ 3214
angepasst 3214
besetz@@ 3214
materi@@ 3214
qualifizieren 3214
frist@@ 3213
sträger 3213
erschein@@ 3212
tels 3212
älz@@ 3212
Altern@@ 3211
Kru@@ 3211
Papier@@ 3211
Stars 3211
Zul@@ 3211
Erdbe@@ 3210
Romane 3210
ernden 3210
iga 3210
rechtlich 3210
genossen 3209
mmer@@ 3209
140 3208
Satell@@ 3208
sph@@ 3208
Hunder@@ 3207
Kandidat 3207
vog@@ 3207
Aur@@ 3206
Schloss@@ 3206
Schreiben 3206
rin 3206
wart 3206
Ablauf 3205
Neuzeit 3205
Serb@@ 3205
Stück@@ 3205
manuel 3205
Parallel 3204
basis 3204
erfuhr 3204
tlicher 3204
Hinweis 3203
Sammlungen 3203
Val 3203
beur@@ 3203
Chir@@ 3202
Schmer@@ 3202
bad@@ 3202
schwedische 3202
schö@@ 3202
vielfach 3202
Apothek@@ 3201
assist@@ 3200
ive 3200
behörden 3199
Temperatur 3198
Ins@@ 3197
Poli@@ 3197
Straßburg 3197
bewahrt 3197
Bildhau@@ 3196
Leute 3196
ograf 3196
org@@ 3196
vollständige 3196
zial@@ 3196
Bundestag 3195
Mengen 3195
Schlagzeuger 3195
Verfass@@ 3195
genie@@ 3195
Á@@ 3195
Hamilton 3194
erinn@@ 3194
inische 3194
neun@@ 3194
sender 3194
Produzenten 3193
TA 3193
orientierte 3192
trop@@ 3192
unterrichtet 3191
verbliebenen 3191
Beisp@@ 3190
beln 3190
circa 3189
gh 3188
té 3188
verfügbar 3188
entworfen 3187
steher 3187
Erm@@ 3186
energ@@ 3186
esses 3186
Hirsch@@ 3185
aver@@ 3185
Frem@@ 3183
Fru@@ 3183
modern@@ 3183
preuß@@ 3183
seinerzeit 3183
tors 3183
übernahmen 3183
DFB 3182
diskutiert 3182
dynam@@ 3182
falt 3182
Anwendungen 3180
Nachwuchs@@ 3180
Palast 3180
Stadtzentr@@ 3180
gesucht 3180
quartier 3180
sowjetische 3180
Gebietsreform 3179
AB 3178
Lager@@ 3178
esa 3178
stoß 3178
säure 3178
1824 3177
Andrew 3177
aun@@ 3177
don@@ 3177
erweiterte 3177
eyer 3177
portugiesischen 3177
Nun@@ 3176
1825 3175
Information 3175
Tennis@@ 3175
engruppe 3175
ief 3175
metern 3175
Ulm 3174
Vas@@ 3174
ones 3174
Cambridge 3173
Erforschung 3173
Neapel 3173
seltener 3173
sig 3173
jah@@ 3172
Rapp@@ 3171
Sec@@ 3171
stechn@@ 3171
Dreharbeiten 3169
Gleis@@ 3169
internationaler 3169
Eindruck 3168
Gründe 3168
Spreng@@ 3168
Wasserk@@ 3168
bezir@@ 3168
nik 3168
Anbau 3167
Ash@@ 3167
Projekt@@ 3167
abgebaut 3167
geräte 3167
ausdrück@@ 3166
use@@ 3166
Lai@@ 3165
Schiffen 3165
Uraufführung 3165
iger@@ 3165
Fok@@ 3164
Stahl 3164
dür@@ 3164
hinsichtlich 3164
Adler 3163
Amtsgericht 3163
Handlungs@@ 3163
angebaut 3163
ems 3163
geleit@@ 3163
gerichteten 3163
äußer@@ 3163
Lebensmittel@@ 3162
Flora 3161
eils 3161
ensystem 3161
ria 3161
Enkel 3160
Ort@@ 3159
Vorpommern 3159
misch 3159
produktionen 3159
Blut 3158
Real 3158
Zeichnungen 3158
emm@@ 3158
Tatsache 3157
ae@@ 3157
chi 3157
versteht 3157
Effekt 3156
Säug@@ 3156
sog. 3156
äub@@ 3156
ür 3156
Schicksal 3155
Fälle 3154
Hinweise 3154
Mandat 3154
gering 3154
vermeiden 3154
Angst 3153
Flug 3153
Platt@@ 3153
Rechts 3153
half 3153
hist@@ 3153
DV@@ 3152
Sinf@@ 3152
norweg@@ 3152
orps 3152
Atom@@ 3151
Kompositionen 3151
Vertrags@@ 3151
annen 3151
Dame 3150
gebene 3150
durften 3149
sprecher 3149
20.000 3148
Junge 3148
management 3148
tab@@ 3148
Ankl@@ 3146
Rückzug 3145
ios 3145
bestätigte 3144
punk@@ 3143
unmittel@@ 3143
Parall@@ 3142
enturm 3142
verlegte 3142
Besitzungen 3141
Nation 3141
eid 3141
Kit@@ 3140
jüngere 3140
mittelalterliche 3140
resi@@ 3140
drück@@ 3139
kanten 3139
richtet 3139
Himmel 3138
indung 3138
IT 3137
komit@@ 3137
Anteile 3136
Eben@@ 3136
Niederösterreich 3136
deckten 3136
System@@ 3135
Valley 3135
fehlshaber 3135
ünde 3135
Leucht@@ 3134
Theologe 3134
einziger 3134
Abhän@@ 3132
Bedeut@@ 3132
Dekan@@ 3132
enbank 3132
Firmen 3131
aul@@ 3131
uts 3131
Kreisstadt 3130
komplex 3130
Blo@@ 3129
dokumentiert 3129
gramm 3129
wil 3129
Fac@@ 3128
Geschäft 3128
Ström@@ 3128
Angehörige 3127
Anordnung 3127
Dozent 3127
Platzierung 3127
Umgang 3127
grundle@@ 3127
ref@@ 3127
verbundenen 3127
äb@@ 3127
Gebirge 3126
Mineral@@ 3126
unser@@ 3126
Gebirgs@@ 3125
izi@@ 3125
Exil 3124
Format 3124
Hauptmann 3124
Schlu@@ 3124
cl@@ 3124
orden 3124
platzierten 3124
rix 3123
Bündnis 3122
Eva 3122
Journalisten 3122
fuhren 3122
han 3122
oto 3122
Haushalte 3121
Haut 3121
Sauerst@@ 3121
gehör@@ 3121
rieren 3120
Bühnen@@ 3119
Elektri@@ 3119
regul@@ 3119
turel@@ 3119
weichen 3119
Hauptrollen 3118
glaub@@ 3118
höher@@ 3118
öss@@ 3118
Rundfunk@@ 3117
gelern@@ 3117
Dass 3116
Journal 3116
Landschaftsschutz@@ 3116
Zuschauern 3116
dram@@ 3116
hi 3116
händler 3116
Beschluss 3115
Hob@@ 3115
diti@@ 3115
cer@@ 3114
darstell@@ 3113
Had@@ 3112
kum 3112
Stellvertreter 3111
befasst 3111
begriff 3111
verhältnisse 3111
Alternative 3109
Freih@@ 3109
Tunn@@ 3109
club 3109
Duisburg 3108
Grabst@@ 3108
gelegten 3108
raße 3108
Athleten 3107
Löwen 3107
felde 3107
Kot@@ 3106
Million 3106
abger@@ 3106
Analy@@ 3105
Sicherheit@@ 3105
col@@ 3105
vergleichsweise 3105
Abgeordnet@@ 3104
Spiels 3104
aktionen 3104
landschaft 3104
Observ@@ 3103
arbeits@@ 3103
nehmern 3103
ava 3102
mäß@@ 3102
eur 3101
Landtagswahl 3100
dienstes 3100
identisch 3100
rom 3100
vertretung 3100
zuzu@@ 3100
1822 3099
Max@@ 3099
Whit@@ 3099
erien 3099
ink 3099
nec@@ 3099
wendet 3099
Alle@@ 3098
Ansatz 3098
Schieds@@ 3098
Cel@@ 3097
Diskussion 3097
Dunk@@ 3097
ą@@ 3097
Boot@@ 3096
Fabri@@ 3096
Wik@@ 3095
ta@@ 3095
Hagen 3094
Redakteur 3094
rec@@ 3094
stag@@ 3094
Inhaber 3091
Tou@@ 3091
ausreichend 3091
württem@@ 3091
zeu@@ 3091
Vorstellungen 3090
dic@@ 3090
Platte 3089
hn@@ 3089
afel 3088
hum@@ 3088
sahen 3088
AD@@ 3087
AP@@ 3087
Kontext 3087
Schrif@@ 3087
Wat@@ 3087
Bogen@@ 3086
Eugen 3086
Masse 3086
Mög@@ 3086
Verständnis 3086
Verw@@ 3086
religiöse 3086
Besiedlung 3085
Margar@@ 3085
frau@@ 3085
mut 3085
vögel 3085
Ruhr 3084
kultur@@ 3084
medizinischen 3084
veranstaltet 3084
üblicherweise 3084
Ausstellungs@@ 3083
ī 3083
Amtes 3082
Verwal@@ 3082
Charl@@ 3081
Fachwerk@@ 3081
SED 3081
amtlichen 3081
annschaft 3081
ärer 3081
Colle@@ 3080
Konserv@@ 3080
Werbe@@ 3080
bisherige 3080
odie 3080
gewisse 3079
Cott@@ 3077
Grundlagen 3077
gefallen 3077
wichtig@@ 3077
FF@@ 3076
gö@@ 3076
Dritten 3075
Bakter@@ 3074
GE@@ 3074
Schlaf@@ 3074
flächen@@ 3074
Ist 3073
Steine 3073
einrichtung 3073
umfassende 3073
1807 3072
Marc 3072
fres@@ 3072
herrscht 3072
häufiger 3072
Erinn@@ 3071
Landwir@@ 3071
Verhält@@ 3071
musiker 3071
Bundesstaates 3070
Ergänz@@ 3070
Jeder 3070
sorge 3070
Museums@@ 3069
Zugehörigkeit 3069
1809 3068
Tas@@ 3068
mond 3068
vent 3068
Begegnung 3067
Wohnungen 3067
bergen 3067
igh@@ 3067
partei@@ 3067
Goth@@ 3066
dichte 3066
krimin@@ 3066
reiches 3066
trecht 3066
Hypo@@ 3065
Lange 3065
annter 3065
1798 3064
Eishockey 3064
Weil@@ 3064
arius 3064
enstern 3064
regisse@@ 3064
13,@@ 3063
otechn@@ 3063
schaff@@ 3063
Mitarbeitern 3062
Pier@@ 3062
begraben 3062
bot@@ 3062
Ey@@ 3061
anstelle 3061
gas 3061
hessischen 3061
publizierte 3061
America 3060
Schi@@ 3060
Sommerspielen 3060
Wid@@ 3060
schlecht 3060
Gos@@ 3059
Hoffmann 3059
bein 3059
sichts@@ 3059
Annahme 3058
Express 3058
Stadi@@ 3058
griechisch 3058
Osnabrück 3057
Sens@@ 3057
bedeutete 3057
ision 3057
letztes 3057
ufe 3057
vorübergehend 3057
Katz@@ 3056
krist@@ 3056
Jury 3055
Oran@@ 3055
Well@@ 3055
dimension@@ 3055
takt 3055
tragung 3055
Benz@@ 3054
Programme 3054
ladung 3054
denz 3053
Distanz 3052
Ji@@ 3052
Staub@@ 3052
beschränk@@ 3052
raum@@ 3052
9.@@ 3051
Segel@@ 3051
Straßenbahn 3051
ago@@ 3051
jap 3051
jene 3051
trags@@ 3051
Bekanntheit 3050
Element 3049
erhöhte 3049
gebräuch@@ 3049
Bestimmung 3048
Erdgeschoss 3048
Anschluss@@ 3047
Bundesregierung 3047
Demonstr@@ 3047
1829 3046
Günter 3046
Hammer@@ 3046
Jubilä@@ 3046
Streck@@ 3046
heißen 3046
ð@@ 3046
Rekord@@ 3045
acken 3045
angewand@@ 3045
jährliche 3045
Asi@@ 3044
Great 3044
eilung 3044
ogramm 3044
schwach 3044
vereinz@@ 3044
Reihenfolge 3042
→ 3042
Woh@@ 3041
konf@@ 3041
preußische 3041
Thron@@ 3040
bezeichneten 3040
existierte 3040
Musical 3039
Piloten 3039
Ruh@@ 3039
gegenwär@@ 3039
rag 3039
verwaltet 3039
124@@ 3038
1826 3038
Dist@@ 3038
Kommandant 3038
Tenn@@ 3038
XX@@ 3038
ower 3038
voraus@@ 3038
enbür@@ 3037
Endspiel 3036
Florenz 3036
Inszen@@ 3036
meldete 3036
übt 3036
Act 3034
Landrat 3034
SD 3034
kritisierte 3034
Ing@@ 3033
aufweisen 3033
entri@@ 3033
verbreitete 3033
Mond@@ 3032
Stärke 3032
din 3032
strom@@ 3031
Mario 3030
VA 3030
ilde 3030
komman@@ 3030
sts 3030
undenen 3030
Draft 3029
Großvater 3029
Hür@@ 3029
brunnen 3029
unterschiedlicher 3029
ühlen 3029
Benedikt@@ 3028
borg 3028
ruhen 3028
€ 3028
Cent@@ 3027
angrenzenden 3027
beruht 3027
geziel@@ 3027
kä@@ 3027
ll@@ 3027
Els@@ 3026
Haushalten 3026
kamer@@ 3026
ofs 3026
Entwür@@ 3025
Gesellschaften 3025
Insol@@ 3025
besuchen 3024
lautete 3024
versuchten 3024
Panz@@ 3023
Produkt@@ 3023
Rüst@@ 3023
enf@@ 3023
ME@@ 3022
Bie@@ 3021
chens 3020
jew@@ 3020
räder 3020
Nation@@ 3019
Politische 3019
aktuell 3019
illu@@ 3019
Edition 3018
Kass@@ 3018
Stift 3018
dere 3018
verwandt 3018
chener 3016
verteilung 3016
Überreste 3016
1802 3015
Blin@@ 3015
Donau@@ 3015
Gläub@@ 3015
Golden 3015
Play@@ 3014
Doktor 3013
Wahrheit 3013
halts@@ 3013
ossen@@ 3013
Semin@@ 3012
Torschütz@@ 3012
prob@@ 3012
Marathon 3011
Versicherungs@@ 3011
einsatz 3011
Reichsk@@ 3010
aer 3010
bi 3010
dank 3010
120@@ 3009
Jun@@ 3009
Polar@@ 3009
mes@@ 3009
rain@@ 3009
spezialisiert 3009
Gh@@ 3008
amtier@@ 3008
partei 3008
Eishockeyspieler 3007
Etappe 3007
Ex 3007
Sekund@@ 3007
verbesserte 3007
Basketball@@ 3006
Gy@@ 3006
Manuel 3006
beauftragte 3006
ole@@ 3005
Autob@@ 3004
Bühn@@ 3004
Gesell@@ 3004
entstandene 3004
ühr@@ 3004
Bände 3003
Dörfern 3003
einziges 3003
osten 3003
quellen 3003
Sud@@ 3002
Zahlreiche 3002
Torped@@ 3001
ics 3001
Restaurant 3000
cul@@ 3000
eto 3000
fränkischen 2999
interess@@ 2999
ert@@ 2998
tür@@ 2998
DNA 2997
Psycho@@ 2997
Fellow 2996
Jesu@@ 2996
Seh@@ 2996
brunn 2996
Result@@ 2995
della 2995
denkmalgeschütz@@ 2995
live 2995
verhindert 2995
Büh@@ 2994
Linden@@ 2994
Heck@@ 2993
Schriftstellerin 2993
itze 2993
monat@@ 2993
poly@@ 2993
bevorzugt 2992
icz 2992
inden 2992
Forschungen 2991
orts 2991
sons 2991
Gallen 2990
Hit 2990
Hoffnung 2990
Magn@@ 2990
folgend 2990
Kleine 2989
Okres 2989
Soldat 2989
Zugleich 2989
argent@@ 2989
gewächse 2989
Sportliche 2988
motor@@ 2988
Botan@@ 2987
schafter 2987
zwanzig 2987
Bebau@@ 2986
Nationalen 2986
Pad@@ 2986
Weiterentwicklung 2986
mittelt 2986
ups 2986
üd@@ 2986
Anst@@ 2985
Schichten 2985
plung 2985
Motiv 2984
entsprechen 2984
wich 2984
zy 2984
Karls 2983
Stufe 2983
Wart@@ 2983
inner@@ 2983
selber 2983
Leben@@ 2982
ahe 2982
gesellschaftlichen 2982
kler 2982
Vorgän@@ 2981
division 2981
kunfts@@ 2981
träch@@ 2981
Bow@@ 2980
denkmäler 2980
Ange@@ 2979
Beförderung 2979
Charak@@ 2979
Nachkriegszeit 2979
getragenen 2979
systemat@@ 2979
Belast@@ 2978
Streifen 2978
brem@@ 2977
fahrt@@ 2977
ili 2977
oss@@ 2977
traditionelle 2977
schnitten 2976
BB 2975
ligkeit 2975
smann 2975
1811 2974
1819 2974
gemeldet 2974
gige 2974
Jahrhunderte 2973
Kanzel 2973
Molek@@ 2973
rath 2973
traditionell 2973
bron@@ 2972
fabri@@ 2972
seln 2972
Ei@@ 2971
NE@@ 2971
NO@@ 2971
Netzwerk 2971
beheimat@@ 2971
eda 2971
männliche 2971
orum 2971
ror@@ 2971
schir@@ 2971
Jag@@ 2970
Turniers 2970
verständ@@ 2970
Gemeinder@@ 2969
Gießen 2969
Historic 2969
Human@@ 2969
analyse 2969
ied 2969
Disk@@ 2968
nehmung 2968
stift 2968
Engel 2967
Innere 2967
ickte 2967
kämpfe 2967
uter 2967
verzichtete 2967
Fünf 2966
Iv@@ 2966
gotische 2966
ish 2966
Statue 2965
ský 2965
Kleinstadt 2964
Statist@@ 2964
empfing 2964
smit@@ 2964
Trotzdem 2963
Wan@@ 2963
emin@@ 2963
tiefe 2963
äure 2963
Champ@@ 2962
Gabriel 2962
die@@ 2962
betreut 2961
erreichbar 2961
musi@@ 2961
Gebäude@@ 2960
Ple@@ 2960
portal 2960
Verbandes 2959
Verbrau@@ 2959
lika 2959
Nordseite 2958
kreises 2958
stammende 2958
Jäger 2957
Nan@@ 2957
erlernte 2957
ächen 2957
Paläst@@ 2956
Saarbrücken 2956
Shar@@ 2956
Weiter 2956
otischen 2956
с@@ 2956
Carlo 2955
Prince 2954
Time 2954
skop@@ 2954
erfahren 2953
griechische 2953
Marc@@ 2952
finanziert 2952
invest@@ 2952
Gelän@@ 2951
Graben 2951
egel@@ 2951
scheit@@ 2951
wären 2951
ś@@ 2951
Bistums 2950
Originaltitel 2950
Portal 2950
eiten 2950
Hag@@ 2949
Alpen@@ 2948
Völker@@ 2948
Berichte 2947
bog@@ 2947
erklär@@ 2947
glob@@ 2947
worauf 2947
Aspekte 2946
Einkommen 2946
Eric 2946
Koblenz 2946
Tat 2946
Ank@@ 2945
Reise@@ 2945
entstammte 2945
stad@@ 2945
start 2944
Begrün@@ 2943
Urspr@@ 2943
vic@@ 2943
Flüsse 2942
erkannte 2942
ohl 2942
stärke 2942
verbessern 2942
Chal@@ 2941
Erscheinungs@@ 2941
Kreu@@ 2941
LE@@ 2941
niederländische 2941
Haltest@@ 2940
Temper@@ 2940
darum 2940
hain 2940
schlüsse 2940
Hügel@@ 2939
Trio 2939
erneu@@ 2939
vereine 2939
Naz@@ 2938
Zehn@@ 2938
begeister@@ 2938
bezirks 2938
Gegenstand 2937
Ruine 2937
Sees 2937
mie 2937
transportiert 2937
äusern 2937
Beach 2936
Pfei@@ 2936
Produkt 2936
Creek 2935
Darin 2935
chor 2935
ö 2935
medizin 2934
rechn@@ 2934
tsch 2934
verschieden@@ 2934
Kreise 2933
reibungen 2933
Divis@@ 2932
Fest 2932
Klim@@ 2932
Vereinigte 2932
festival 2932
herum 2932
typisch 2932
union 2932
0,5 2931
Ali 2931
auftritt 2931
lic@@ 2931
Schwester@@ 2930
benden 2930
spätestens 2930
Dub@@ 2929
Mord 2929
ativer 2929
bestand@@ 2929
oren@@ 2929
Energi@@ 2928
Kommune 2928
Zimmer 2928
blü@@ 2928
intensiv 2928
kow@@ 2928
Geschäfte 2926
Hallen@@ 2926
Verbände 2926
erfasst 2926
ARD 2925
Aussehen 2925
Instrumente 2925
Legislatur@@ 2925
Mannes 2924
Plätzen 2924
Vertretern 2924
out@@ 2924
verwaltungs@@ 2924
ameister 2922
malerei 2922
rik@@ 2922
ía 2922
Dah@@ 2921
Details 2921
Lub@@ 2921
Zeug@@ 2921
chinesische 2921
unterir@@ 2921
Offiziere 2920
belg@@ 2920
inghausen 2920
urop@@ 2920
veröffentlich@@ 2920
Kuh@@ 2919
feiern 2919
zwang 2919
Mosk@@ 2918
Taf@@ 2918
Little 2917
Integration 2916
oi 2916
portugi@@ 2916
Interpretation 2915
Trink@@ 2915
lam@@ 2915
ränkt 2915
wirks@@ 2915
Hey@@ 2914
erbte 2914
ône 2914
Summe 2913
echn@@ 2913
schweizer@@ 2913
welle 2913
Bär@@ 2912
Verluste 2912
repräsent@@ 2912
0.@@ 2911
Davon 2911
schef 2911
Quadratkilometer 2910
iser 2910
ovice 2910
zel 2910
Yorker 2909
rank@@ 2909
verkaufen 2909
1801 2908
geseh@@ 2908
programm@@ 2908
Rast@@ 2907
Vorsitz 2907
lichste 2907
licht@@ 2907
125 2906
Sound 2906
veranstaltungen 2906
vorhand@@ 2906
Dorn@@ 2905
Haft@@ 2904
Währ@@ 2904
getre@@ 2904
gliederung 2904
pper 2904
Chap@@ 2903
Eingemein@@ 2903
Gesicht 2903
besuch@@ 2903
etto 2903
thes@@ 2903
1804 2902
Erziehung 2902
Gräfin 2902
Pass 2902
Aufenthalt 2901
ügel 2901
Ingenieur@@ 2900
arabischen 2900
dit 2900
farbe 2900
stammenden 2900
vort@@ 2900
wech@@ 2900
Debütalbum 2899
Gelegenheit 2899
Mitbegründer 2899
Wahrschein@@ 2899
fried 2899
Claude 2898
Erwachs@@ 2898
Karl@@ 2898
Theaterst@@ 2898
Volksk@@ 2898
fördern 2898
grab 2898
steig@@ 2898
ämm@@ 2898
mau@@ 2897
öpfe 2897
Pseud@@ 2896
tierung 2896
wissen 2896
Nob@@ 2895
werfen 2894
Last@@ 2893
leger 2893
Premier 2892
knüp@@ 2892
Bauarbeiten 2891
Vizemeister 2890
ügen 2890
Büro@@ 2889
Dän@@ 2889
gestif@@ 2889
jekt 2889
otten 2889
Termin@@ 2888
Vorlage 2888
installiert 2888
Stamm 2887
bas@@ 2887
deb@@ 2887
erkennt 2887
Bielefeld 2886
Brücken 2886
klen 2886
menschliche 2886
nutzt 2886
orchester 2886
pern 2886
türk@@ 2886
Elizabeth 2885
Railway 2885
übernimmt 2885
CA 2884
Johanna 2884
Lizenz 2884
Urs@@ 2884
ektor 2884
landwirtschaftliche 2884
Knoten 2883
Manchester 2883
rekt 2883
versamm@@ 2883
Türk@@ 2882
ausch@@ 2882
taucht 2882
Beach@@ 2881
Internet@@ 2881
Vereinten 2881
blo@@ 2881
ernde 2881
pfel 2881
verlänger@@ 2880
Erkrankung 2879
God@@ 2879
Prozess@@ 2879
gebunden 2879
linke 2879
Lyon 2878
gon 2878
1805 2877
NBA 2877
Verteidiger 2877
pflanzen 2877
Monte 2876
Russischen 2876
Träger@@ 2876
Unterrich@@ 2876
Stir@@ 2875
Tennis 2875
lied@@ 2875
eur@@ 2874
onds 2874
Bulgarien 2873
agements 2873
gedacht 2873
nationalsozialistischen 2873
pt 2873
umpf 2873
Anfangs@@ 2872
Kompet@@ 2872
antes 2872
Commun@@ 2871
Verbot 2871
Vögel 2871
atorin 2871
brücken 2871
enzeit@@ 2871
Chance 2870
Gesetze 2870
bon 2870
ernd 2870
evangel@@ 2870
1.000 2869
Worten 2869
sank 2869
station@@ 2869
fär@@ 2868
magnet@@ 2868
plat@@ 2868
prot@@ 2868
Kauf 2867
Zwe@@ 2867
eman 2867
sul 2867
Sanierung 2866
lateinischen 2866
musik@@ 2866
Maz@@ 2865
Wilhelm@@ 2865
bericht 2865
zugehörigen 2865
1827 2864
Atelier 2864
Reeder@@ 2864
Schwerin 2864
erklären 2864
more 2864
pa 2864
temper@@ 2864
1793 2863
Bernard 2863
Kulturdenkmale 2863
Michigan 2863
bekommt 2863
ology 2863
weihe 2863
Agrar@@ 2862
Hierzu 2862
lossen@@ 2862
nachfolgenden 2862
spanischer 2862
oge 2861
antreten 2860
eingeladen 2860
enbild@@ 2860
4,5 2859
Entscheidungen 2859
Hist@@ 2859
Net@@ 2859
Schrö@@ 2859
Step@@ 2859
Treib@@ 2859
ungsweise 2859
zogene 2859
Austausch 2858
NATO 2858
konferenz 2858
ologien 2858
Flugplatz 2857
gemäß@@ 2857
geöffnet 2857
oni@@ 2857
Höhle 2856
PD 2856
Roland 2856
pfalz 2856
row@@ 2856
wachung 2856
Gebi@@ 2855
Wiss@@ 2855
ausgerüstet 2855
isen@@ 2855
stlich 2855
Eier 2854
osse 2854
wettbewer@@ 2854
ński 2854
Aufhebung 2853
Büchern 2853
Versammlung 2853
firm@@ 2853
nen@@ 2853
reiter 2853
Autobahn@@ 2852
Journal@@ 2852
LP 2852
Deg@@ 2851
ansonsten 2851
steig 2851
technisch 2851
umfassen 2851
zent 2851
Donald 2850
Epi@@ 2850
UNESCO 2850
forderung 2850
igungen 2850
kast@@ 2850
11,@@ 2849
Rosen@@ 2849
Südti@@ 2849
Technologie 2849
ertes 2849
ration@@ 2849
Auft@@ 2848
fallenen 2848
musikal@@ 2848
rachten 2848
dae 2847
part@@ 2847
Moderne 2846
Scheit@@ 2846
gefeiert 2846
zo 2846
Brust@@ 2845
obere 2845
richs 2845
BBC 2844
Darunter 2844
Messe 2844
Wein 2844
überraschend 2844
Dop@@ 2843
jüngste 2843
pel@@ 2843
tausend 2843
Mitteleuropa 2842
arkt@@ 2842
hofs@@ 2842
speziellen 2842
Bildern 2841
Rosa 2841
hüter 2841
Früchte 2840
Gewinner 2840
Micha@@ 2840
Zar@@ 2840
ista 2840
rer 2840
Lüt@@ 2838
erz@@ 2838
gehabt 2838
itischen 2838
sprin@@ 2838
bestattet 2837
fassade 2837
legungen 2837
verord@@ 2837
Grem@@ 2836
Heiligen@@ 2836
erreich@@ 2836
slaw@@ 2835
stattfinden 2835
Anwalt 2834
Geologie 2834
Jugoslawien 2834
Sonntag 2834
Zentimetern 2834
ingrad 2834
isa 2834
räger 2834
Atl@@ 2833
Fahrzeugen 2833
It 2833
Zuletzt 2833
berichten 2833
retten 2833
rone 2833
veränder@@ 2833
.A. 2832
Eltern@@ 2832
Gedanken 2832
Harvard 2832
Palä@@ 2832
ators 2832
Kämpfe 2831
allmäh@@ 2831
ando 2831
Inzwischen 2830
Schwäb@@ 2830
bestellt 2830
bessere 2829
itsch 2829
kreisen 2829
sn@@ 2829
1823 2828
Plast@@ 2828
Nördlich 2827
Rolf 2827
bestimmen 2827
ickelt 2827
lesen 2827
nel 2827
14,@@ 2825
Mischung 2825
Vorstand@@ 2825
Innenraum 2824
alls 2824
Gewal@@ 2823
Sock@@ 2823
ets@@ 2823
lenk@@ 2823
ligasp@@ 2823
nötig 2823
Probl@@ 2822
Zufluss 2822
aph@@ 2822
gehalt 2822
Gespräch 2821
Janeiro 2821
Siegfried 2821
Day 2820
Zusatz@@ 2820
alisierten 2820
lassung 2820
ungl@@ 2820
Maße 2818
Südamerika 2818
getrenn@@ 2818
ieden 2818
lé@@ 2818
wenden 2818
Föder@@ 2817
Lady 2817
Zwecke 2817
ths 2817
Deut@@ 2816
Tum@@ 2816
Pfund 2815
belegen 2815
christliche 2815
greifen 2815
Andrea 2814
Gesellschafts@@ 2814
HK 2814
Nest@@ 2814
abgegeben 2814
hierzu 2814
jüd@@ 2814
stoßen 2814
wirklich 2814
Jen@@ 2813
iew 2813
luft@@ 2813
schlus@@ 2813
Demokratie 2812
Boo@@ 2811
1,2 2810
Anhän@@ 2810
Berufung 2810
Luci@@ 2810
alleine 2810
eignet 2810
stattfin@@ 2810
Absol@@ 2809
Alex 2809
Danzig 2809
astro@@ 2809
becker 2809
keinem 2809
1600 2808
Aufklärung 2808
Hain@@ 2808
Rog@@ 2808
förderung 2808
Palais 2807
otyp 2807
spannung 2807
Behin@@ 2806
Erweiter@@ 2806
Gitarrist 2806
Kristall@@ 2806
Yam@@ 2806
Bäume 2805
Krise 2805
Krü@@ 2805
begrün@@ 2805
iedrig@@ 2805
verheirat@@ 2805
Bridge 2804
bewal@@ 2804
gotischen 2804
Kraftwerk 2803
inner 2803
not 2803
Glück@@ 2802
Waren 2802
itis 2802
Bé@@ 2800
Cav@@ 2800
Personal 2800
begrenz@@ 2800
mand@@ 2800
Country 2799
ossi@@ 2799
Fiction 2798
Vorgeschichte 2798
shire 2798
zusammenh@@ 2798
aufgest@@ 2797
human@@ 2797
han@@ 2796
nommen 2796
DA 2795
Petro@@ 2795
Straßenbahn@@ 2795
vorne 2795
Lediglich 2794
gewinn@@ 2794
smittel 2794
Übertragung 2794
Bli@@ 2793
deckung 2792
erlei 2792
pers 2792
unmittelbarer 2792
Freizeit@@ 2791
berühmten 2791
symmet@@ 2791
elemente 2790
enab@@ 2790
gü@@ 2790
Regiments 2789
TSV 2789
Bismar@@ 2788
Lett@@ 2788
mas 2788
schlu@@ 2787
teure 2787
ystem 2787
ór@@ 2787
Generalleutnant 2786
regelmäßigen 2786
wohl@@ 2786
Allen 2785
Gulden 2785
Prozesse 2785
Wilhelms 2785
messer 2785
schel 2785
Business 2784
Los@@ 2784
Redak@@ 2784
gesperrt 2784
Geschäft@@ 2783
Oskar 2783
hagen 2783
marke 2783
bury 2782
Jugendlichen 2781
Tap@@ 2781
flüsse 2781
zusätzlichen 2781
Andre@@ 2780
zurückzuführen 2780
Erwar@@ 2779
Triebwagen 2779
kriegs@@ 2779
schlägt 2779
schu@@ 2779
Königreichs 2778
Rajon 2778
cen 2778
hersteller 2778
urkund@@ 2778
Schwarzen 2777
Tw@@ 2777
feier 2777
inhal@@ 2777
kennen@@ 2777
wovon 2777
Stett@@ 2776
Unabhängig@@ 2776
Vorläufer 2776
verkehrs 2776
zeitlichen 2776
AI@@ 2775
Allgemeine 2775
Atmosph@@ 2775
kaiser@@ 2775
landwirtschaftlich 2775
Bernd 2774
Clubs 2774
Isra@@ 2774
Titelverteidiger 2774
deh@@ 2774
schlech@@ 2774
unklar 2774
Begriffe 2773
Entwicklungen 2773
Grube 2773
Haar@@ 2773
Pflanze 2773
erfolgreichsten 2773
nächst@@ 2773
ächte 2773
klärung 2772
lins 2772
verfü@@ 2772
zugeschrieben 2772
Blau 2771
Chromos@@ 2771
Golf 2771
Traditi@@ 2771
gefügt 2771
gewinn 2771
weilen 2771
Fig@@ 2770
räge 2770
Antrieb 2769
Karri@@ 2769
Nationalversammlung 2769
Out@@ 2769
usst@@ 2769
wissenschaft@@ 2769
Übersicht 2769
Gitar@@ 2768
Luis 2768
Nacional 2768
Pommern 2768
Struk@@ 2768
win 2768
24@@ 2767
Audi@@ 2767
Dick@@ 2767
Kemp@@ 2767
Law@@ 2767
Trock@@ 2767
gesundheit@@ 2767
verlässt 2767
ziner 2767
Ausgrabungen 2766
Europe 2766
Foundation 2766
Jagd 2766
erfüllen 2766
Europä@@ 2765
Linien@@ 2765
chenen 2765
xis 2765
Mitarbeit@@ 2764
Racing 2764
vo 2764
Anthony 2763
Miller 2763
Siz@@ 2763
angestellt 2763
igar@@ 2763
mitte 2763
Dritte 2762
Opposition 2761
Power 2761
platzierte 2761
Bohr@@ 2760
Testament 2760
europä@@ 2760
geschehen 2760
jährlichen 2760
renomm@@ 2760
seitige 2760
trem@@ 2760
Forum 2759
Kroatien 2759
getau@@ 2759
Labor@@ 2758
ischsprachigen 2758
tnis@@ 2758
turnier 2758
Eröff@@ 2757
IO@@ 2757
bricht 2757
haven 2757
orientiert 2757
medizinische 2756
ond 2756
profit@@ 2756
Louise 2755
besaßen 2755
iro 2755
Bürgerkrieg 2754
onomen 2754
Clar@@ 2753
Gär@@ 2752
ansässigen 2752
kehrt 2752
show 2752
ulp@@ 2752
Tos@@ 2751
rannt 2751
roler 2751
such 2751
uma 2751
Municip@@ 2750
bedro@@ 2749
will@@ 2749
dner 2748
herz@@ 2748
Staatsexamen 2747
Luther@@ 2746
Therapie 2746
bol@@ 2746
literatur 2746
Gast 2745
Krem@@ 2745
gesteu@@ 2745
jahres 2744
zivil@@ 2744
PA 2743
therape@@ 2743
zugeteilt 2743
Eines 2742
Hong@@ 2742
Territori@@ 2742
überführt 2742
Anth@@ 2741
Hospital 2741
iten@@ 2741
schaftlichen 2741
SS@@ 2740
Steiermark 2740
hrt 2740
wählen 2739
Bett@@ 2738
Eis 2738
Falls 2738
Gewöl@@ 2738
wesens 2738
Georges 2737
ew 2737
frag@@ 2737
rac@@ 2737
Fläch@@ 2736
Wachstum 2736
Dokumentation 2735
Evangelisch 2735
Glaubens@@ 2735
Sohnes 2735
Weltre@@ 2735
altern@@ 2735
kandidierte 2735
Abkommen 2734
Badminton 2734
Hände 2734
Katholiken 2734
alie 2734
ansässig 2734
schwerer 2734
Gewichts@@ 2732
Kriegsgefangen@@ 2732
Stephen 2732
unterzeichnete 2732
Laut@@ 2731
eventu@@ 2731
kins 2731
schi 2731
untere 2731
mäßige 2730
positive 2730
umt 2730
KPD 2729
Stadtr@@ 2729
War 2729
hinteren 2729
vorderen 2729
Korn@@ 2728
Magnet@@ 2728
Minnesota 2728
verklei@@ 2728
Nap@@ 2727
SW@@ 2727
aufenth@@ 2727
Erzbistum 2726
Krä@@ 2726
Vorfeld 2726
freigel@@ 2726
gelangt 2726
illes 2726
sekre@@ 2726
transpor@@ 2726
Frach@@ 2725
Kühl@@ 2725
Vok@@ 2725
beenden 2725
ehmen 2725
Aires 2724
afte 2724
Lebensjahr 2723
etik 2723
raft@@ 2722
A.@@ 2721
chemische 2721
ush@@ 2721
chee 2720
Kontrol@@ 2719
Fabrik@@ 2718
Hauptbahnhof 2718
Hut@@ 2718
Skel@@ 2718
Vall@@ 2718
offs 2718
vit@@ 2718
Männer@@ 2717
Siedler 2717
Waffen@@ 2717
hervorra@@ 2717
Bald 2716
derungen 2716
sat@@ 2716
Ärz@@ 2716
Asien@@ 2715
Forscher 2714
Glück 2714
Thailand 2714
anschließ@@ 2714
tatsäch@@ 2714
Pferde 2713
Räum@@ 2713
aufgaben 2713
bewohnt 2713
ical 2712
japanischer 2712
physikal@@ 2712
weib@@ 2712
Salzburger 2711
ukra@@ 2711
Alliierten 2710
Che@@ 2710
Komponenten 2710
dok@@ 2710
erfahr@@ 2710
gewei@@ 2710
wissenschaftlich 2710
fliehen 2709
jan@@ 2709
ünden 2708
Brück@@ 2707
Greifs@@ 2707
Nürnberger 2707
Standorte 2707
beteiligung 2707
District 2706
Verletzungen 2706
Wer 2706
ändischen 2706
VE@@ 2705
umfangreichen 2705
verbinden 2705
vorerst 2705
Buck@@ 2704
Schlagzeug 2704
Syst@@ 2704
Typen 2704
Wohnungs@@ 2704
ritts@@ 2704
sum 2704
swissen@@ 2704
Temperaturen 2703
amo 2703
denkmalgeschützten 2703
Lissabon 2702
NFL 2702
Cover@@ 2701
Forderungen 2701
Kim 2701
Schreibweise 2701
amin 2701
atom@@ 2701
Voraussetzungen 2700
nehmlich 2700
Cru@@ 2699
Diesen 2699
Män@@ 2699
Sit@@ 2699
panz@@ 2699
Empfeh@@ 2698
Holland 2698
Long 2698
Stadtbezirk 2698
klinik 2698
müh@@ 2698
usstsein 2698
Aufführung 2697
Höl@@ 2697
Model 2697
Vermutlich 2697
kub@@ 2697
Gäste 2696
Stabil@@ 2696
ashi 2696
br 2696
drom 2696
großem 2696
Kriterien 2695
Problemen 2695
Sand 2695
digungen 2695
Marcus 2694
ektor@@ 2694
strichen 2694
Erzieh@@ 2693
now 2693
Griech@@ 2692
ielten 2692
ischsprach@@ 2692
Barock@@ 2691
Buenos 2691
ßer 2691
Konstantin@@ 2690
abweich@@ 2690
konkurrenz 2690
ree 2690
Eri@@ 2689
Heide 2689
Planungen 2689
act@@ 2689
kette 2689
lieben 2689
Erzählungen 2688
ima 2688
laubnis 2688
nationaler 2688
o- 2688
riegen 2688
unweit 2688
zel@@ 2688
Pyram@@ 2687
Szen@@ 2687
erend 2687
malte 2687
Fun@@ 2686
burgs 2686
erneuten 2686
rigen 2686
Ast@@ 2685
Benn@@ 2685
Münzen 2685
irischen 2685
unker 2684
wesentliche 2684
Affäre 2683
SC@@ 2683
Versorgungs@@ 2683
Waffe 2683
gi 2683
otische 2683
plante 2683
Marqu@@ 2682
Matth@@ 2682
erschossen 2682
law 2682
Bamberg 2681
Vorarl@@ 2681
ichter@@ 2681
mög@@ 2681
Anpass@@ 2680
Pflicht@@ 2680
rez 2680
Artillerie 2679
Website 2679
arium 2679
23@@ 2678
Kaserne 2678
erwies 2678
án@@ 2678
intel@@ 2677
lichung 2677
system@@ 2677
Batter@@ 2676
Erneu@@ 2676
Esc@@ 2676
häusern 2676
Grande 2675
Peri@@ 2675
Sieben 2675
Umgeben 2675
22@@ 2674
Diet@@ 2674
ains 2674
artikel 2674
Kämp@@ 2673
zif@@ 2673
Bewertung 2672
Departam@@ 2672
Erlangen 2672
Regelung 2672
amtlich 2672
gigkeit 2672
ämmer@@ 2672
Sam 2671
erschien@@ 2671
ET@@ 2670
Obergeschoss 2670
kar 2670
ministers 2670
stillgelegt 2670
zweig 2670
Repräsent@@ 2669
fliegen 2669
Cri@@ 2668
Verletzung 2668
ido 2668
Bedürf@@ 2667
Bogen 2667
Nordwest@@ 2667
lock@@ 2667
schlechten 2667
Clemens 2666
Kapital@@ 2666
Pflege 2666
fikation 2666
kaiserlichen 2666
BC 2665
Vorbereit@@ 2664
abri@@ 2664
inklusive 2664
versorgt 2664
Baudenkmäler 2663
Heilig@@ 2663
Quersch@@ 2663
Süß@@ 2663
russisch 2663
ssen 2663
uskri@@ 2663
Reinhard 2662
kamp@@ 2662
Längs@@ 2661
Redaktion 2661
Rumpf 2661
erhebliche 2661
trak@@ 2661
10.@@ 2660
Entlassung 2660
Haushalts@@ 2660
Zwill@@ 2660
bewegt 2660
dex 2660
mid 2660
strukturen 2660
Vermö@@ 2659
adi 2659
aufw@@ 2659
feu@@ 2658
karte 2658
unzu@@ 2658
Begegn@@ 2657
Ech@@ 2657
Verteilung 2657
Gebietes 2656
Ron@@ 2656
Selb@@ 2656
storben 2656
Motive 2655
Prakti@@ 2655
dukt 2655
hängen 2655
sof@@ 2655
Dikt@@ 2654
dekor@@ 2654
itig 2654
gehörigkeit 2653
Lokomotive 2652
position@@ 2652
Luther 2651
Rainer 2651
gross@@ 2651
landwirtschaftlichen 2651
inen@@ 2650
mem@@ 2650
rig 2650
ächter 2650
It@@ 2649
provinz 2649
zwischenzeitlich 2649
Chemnitz 2648
heuti@@ 2648
rand@@ 2648
tezeit 2648
vereinigt 2648
Ausscheiden 2647
Bataillon 2647
Cop@@ 2647
betr@@ 2647
demnach 2647
yth@@ 2647
Howard 2646
Jim 2646
knoten 2646
oa 2646
soweit 2646
übergab 2646
1700 2645
Drehbuchautor 2645
aqu@@ 2645
geschah 2645
igem 2645
uhl 2645
Bass@@ 2644
Erleb@@ 2644
Islam 2644
Queen 2644
geregelt 2644
konstruiert 2644
änglich 2644
Kurs 2643
Produktion@@ 2643
Township 2643
automatisch 2643
ement@@ 2643
leitungen 2643
ør@@ 2643
Episode 2642
Lip@@ 2642
North@@ 2642
Ensem@@ 2641
Woll@@ 2641
ede 2641
entwässer@@ 2641
olith@@ 2641
Könige 2640
geführte 2640
schli@@ 2640
shafen 2640
shi@@ 2640
unk 2640
äufe 2640
UdSSR 2639
acc@@ 2639
doppelt 2639
gebot 2639
AB@@ 2638
Free 2638
Oslo 2638
elung 2638
etts 2638
vielmehr 2638
with 2638
Einflüsse 2637
nehmer@@ 2637
Mr@@ 2635
esz@@ 2635
maximale 2635
wohlhab@@ 2635
Hubraum 2634
konvention@@ 2634
ques 2634
Asteroid 2633
Betreu@@ 2633
Fla@@ 2633
Kirchspiel 2633
junger 2633
sieg@@ 2633
Costa 2632
beseit@@ 2632
forts@@ 2632
schlägen 2632
vorläuf@@ 2632
Antrieb@@ 2631
azif@@ 2631
dritter 2631
nest@@ 2631
sidi@@ 2631
Sommerspiele 2630
iet@@ 2630
Cla@@ 2629
SR 2629
sees 2629
Evangelische 2628
itor 2628
linger 2628
müs@@ 2628
Überlieferung 2628
Blei@@ 2627
Dum@@ 2627
Lap@@ 2627
ganz@@ 2627
verteidigen 2627
enischen 2626
stran@@ 2626
ude 2626
ailli@@ 2625
anzei@@ 2625
Verantwor@@ 2624
isträger 2624
1794 2623
Pferd 2623
Ross 2623
anwaltschaft 2623
entw@@ 2623
mathem@@ 2623
nar@@ 2623
neur 2623
semester 2623
Enzy@@ 2621
Horn 2621
Pfarrh@@ 2621
ausreich@@ 2621
ight 2621
Disziplin 2620
Pian@@ 2620
Täter 2620
Tür 2620
finnischen 2620
gewählte 2620
loch 2620
schneller 2620
bestä@@ 2619
läufe 2619
verkörper@@ 2619
Film- 2618
Hochschulen 2618
Priester@@ 2618
Ray 2618
aidsch@@ 2617
verlaufen 2617
Napoleon 2616
asa 2616
Bedro@@ 2615
Mäd@@ 2615
akademischen 2615
gewendet 2615
ieten 2615
kräften 2615
ols 2615
Georgi@@ 2614
Voraussetzung 2614
adier 2614
Bill@@ 2613
elektro@@ 2613
Bres@@ 2612
Empf@@ 2612
gleichnamige 2612
itar@@ 2612
hinweg 2611
Ausrüstung 2610
Paulo 2610
Turin 2610
k.@@ 2610
trennen 2610
Airport 2609
Brian 2608
Studioalbum 2608
dei 2608
grüne 2608
üttel 2608
Geleg@@ 2607
waffen 2607
wen 2607
Harmon@@ 2606
Montreal 2606
ausstattung 2606
gewöl@@ 2606
goldenen 2606
Cz@@ 2605
Kampagne 2605
deutschsprachige 2605
Filial@@ 2604
Ih@@ 2604
mans 2604
ool 2604
österreich 2604
Ermord@@ 2603
Protok@@ 2603
Stifts@@ 2603
zeitwei@@ 2603
äfte 2603
AF 2602
Senator 2602
zehnten 2602
Luzern 2601
Priesterweihe 2601
betreff@@ 2601
cup 2601
enbau@@ 2601
erschlossen 2601
aufnehmen 2600
katholisch 2600
Conrad 2599
Dauer@@ 2599
Gesund@@ 2599
Unterscheidung 2599
Wand 2599
bereichen 2599
bürgerlichen 2599
illeg@@ 2599
zentrums 2599
Départ@@ 2598
Wesen 2598
steuer 2598
Angriff@@ 2597
euer 2597
benachbar@@ 2596
bieter 2596
kels 2596
sus 2596
Elementen 2595
Telefon@@ 2595
Theatre 2595
abilitation 2595
entwickl@@ 2595
andel 2594
cal 2594
förder@@ 2594
klassiz@@ 2594
konkur@@ 2594
chef 2593
kinder@@ 2593
ý@@ 2593
1790 2592
Lehrer@@ 2592
RO@@ 2592
Tatsächlich 2592
Wilhel@@ 2592
bestritten 2592
BS 2591
Tempel@@ 2591
experiment@@ 2591
önig 2591
Ankunft 2590
Blatt 2590
Cher@@ 2590
effek@@ 2590
näch@@ 2590
schott@@ 2590
Düssel@@ 2589
Kleinen 2589
eingang 2589
ried 2589
ässlich 2589
Bodendenk@@ 2588
Julia 2588
Konstanz 2588
Vogel 2588
ausgelegt 2588
irgend@@ 2588
regional 2588
schnitt@@ 2588
unabhängige 2588
Lorenz 2587
Saal 2587
angekündigt 2587
gewissen 2587
ité 2586
kli@@ 2586
may@@ 2586
AP 2585
Hass@@ 2585
Lichten@@ 2585
Konzert@@ 2584
Römer 2584
Turnieren 2584
bares 2584
literarischen 2584
mith@@ 2584
Bevölkerungsdichte 2583
Gedicht 2583
Islam@@ 2583
Kugel@@ 2583
Mom@@ 2583
RT 2583
Westseite 2583
antrieb 2583
unterhält 2583
Git@@ 2582
Verleger 2582
gebrochen 2582
Einkauf@@ 2581
Erben 2581
Herrn 2581
Kap 2581
Sant@@ 2581
bek 2581
franken 2581
Gebiets@@ 2580
Zeche 2580
bewe@@ 2580
fünfte 2580
onyme 2580
teres 2580
trags 2580
č 2580
Asch@@ 2579
Oberbürgermeister 2579
anwalt 2579
feuer@@ 2579
kommando 2579
uz 2579
Mord@@ 2578
entur@@ 2578
separ@@ 2578
wil@@ 2578
Ärzte 2578
Down@@ 2577
Handball@@ 2577
Vie@@ 2576
zweifel@@ 2576
к@@ 2576
Aufenthal@@ 2575
Indon@@ 2575
Arbeitgeber 2574
Sende@@ 2574
funk 2574
Hotels 2573
Sache 2573
Unentschieden 2573
fir@@ 2573
gemeinnütz@@ 2573
namentlich 2573
.de 2572
1797 2572
Stadium 2572
Südlich 2572
Zensus 2572
ilen 2572
Abgrenzung 2571
Bus 2571
Dessen 2571
Reform 2571
Unterbrech@@ 2571
studieren 2571
Güterverkehr 2570
Muster 2570
Nick@@ 2570
Trä@@ 2570
enbahn 2570
entes 2570
etablierte 2570
urteilung 2570
Langh@@ 2569
Insekten 2568
geschieden 2568
halben 2568
iti 2568
Bord@@ 2567
Firmen@@ 2567
bles 2567
grupp@@ 2567
jüngerer 2567
Kardin@@ 2566
Sha@@ 2566
dim@@ 2566
ds@@ 2566
zweigeschossi@@ 2566
Hän@@ 2565
Vorjahr 2565
betont 2565
ismen 2565
längeren 2565
Helsinki 2564
Tromp@@ 2564
bedroht 2564
geschaffenen 2564
hofer 2564
Bob@@ 2563
gesammelt 2563
Nad@@ 2562
liefern 2562
welchen 2562
1940er 2561
besonderer 2561
Begründung 2560
Koalition 2560
ichen 2560
liebe 2560
renoviert 2560
verursacht 2560
1792 2559
Musikern 2559
Seil@@ 2559
tom@@ 2559
1789 2558
Umbenennung 2558
gium 2558
lip@@ 2558
thalle 2558
zeitgenössischen 2558
Harald 2557
Sop@@ 2557
VfL 2557
thiop@@ 2557
Leser 2556
én@@ 2556
Becker 2555
Bemüh@@ 2555
Weis@@ 2555
erforsch@@ 2555
Überblick 2555
Kart@@ 2554
Kün@@ 2554
byzant@@ 2554
klagt 2554
Maximili@@ 2553
koordin@@ 2553
Inhalte 2552
markt@@ 2552
Landesstraße 2551
digkeiten 2551
geschoss 2551
instr@@ 2551
kurs 2551
seitlich 2551
Hauptrunde 2550
Philharmon@@ 2550
antike 2550
fahrzeug 2550
neberg 2550
Volksm@@ 2549
vul@@ 2549
IP 2548
Jörg 2548
Massi@@ 2548
Schol@@ 2548
codice 2548
seitens 2548
Verkaufs@@ 2547
metall@@ 2547
moral@@ 2547
Fotos 2546
Gewe@@ 2546
Mercedes 2546
Quarti@@ 2546
herrschte 2546
izierung 2546
kirchlichen 2546
offizi@@ 2546
tropischen 2546
werkes 2546
Ausgangs@@ 2545
Vorlesungen 2545
gehandelt 2545
gungen 2545
tage 2545
Angriffe 2544
gefäl@@ 2544
konzentrierte 2544
revolution@@ 2544
Lock@@ 2543
gegeneinander 2543
ová 2543
pler 2543
Stadtt@@ 2542
erfolgreichste 2542
fahrens 2542
lieder 2542
nitz@@ 2542
ofil@@ 2542
Ganz@@ 2541
angesch@@ 2541
nit@@ 2541
teilnahm 2541
wirkungen 2541
Entsteh@@ 2540
Key@@ 2540
Stipendium 2540
amin@@ 2540
ersetzen 2540
Nep@@ 2539
dauerhaft 2539
älterer 2539
Willen 2538
aufweist 2538
cha 2538
eri 2538
jag@@ 2538
oner 2538
Gordon 2537
Mend@@ 2537
Achse 2536
Bac@@ 2536
Heilbronn 2536
beobachten 2536
eilig@@ 2536
izieren 2536
autor 2535
biet@@ 2535
che@@ 2535
trotzdem 2535
ulierte 2535
Glasgow 2534
ef 2534
nomin@@ 2534
präsentierte 2534
ware 2534
yo 2534
Fleisch@@ 2533
Meer@@ 2533
Römischen 2533
Sicherung 2533
Sterne 2533
dot@@ 2533
Diskografie 2532
Sexu@@ 2532
VII. 2532
cu@@ 2532
Eigenschaft 2531
Gregor 2531
Over@@ 2531
autobahn 2530
ession@@ 2530
ungszeit 2530
Benedikt 2529
Francesco 2529
PC@@ 2529
Sakrist@@ 2529
Sprung 2529
Thom@@ 2529
Vordergrund 2529
angebot 2529
ecker 2529
eicht 2529
lio 2529
modi@@ 2529
schwierig 2529
Cross@@ 2528
anschau@@ 2528
anwes@@ 2528
darsteller 2528
enburgischen 2528
lehnt 2528
stande 2528
Flö@@ 2527
Versch@@ 2527
\ 2526
französisch 2526
inseln 2526
prüft 2526
Conc@@ 2525
Französ@@ 2525
Game 2525
Texten 2525
schild 2525
teilungs@@ 2525
Bergbau 2524
Brüdern 2524
Küche 2524
ehel@@ 2524
Ereignis 2523
Flüchtlinge 2523
Sandstein 2523
beliebt 2523
greift 2523
Gehir@@ 2522
ameisterschaften 2522
höhung 2522
mund@@ 2522
oro 2522
sitzt 2522
sturz 2522
trages 2522
Asp@@ 2521
Block 2521
itas 2521
teln 2521
zeugte 2521
Fün@@ 2520
Kür@@ 2520
Zucker@@ 2520
e- 2520
saison 2520
samer 2520
wachsen@@ 2520
Drogen@@ 2519
Heilige 2519
Immun@@ 2519
Pedro 2519
knüpft 2519
Genehmigung 2518
Lamp@@ 2518
Sher@@ 2518
ms@@ 2518
wirtschaf@@ 2518
Hinsicht 2517
Loire 2517
Paar@@ 2517
davor 2517
icus 2517
verteidigte 2517
Fulda 2516
Georgia 2516
Hop@@ 2516
Parlaments 2516
agoge 2516
ständi@@ 2516
drückt 2515
oo 2515
swahl@@ 2515
Aufstellung 2514
gressi@@ 2514
pul@@ 2514
stadion 2514
Soh@@ 2513
BMW 2512
Hauptsitz 2512
Mitteln 2512
Ressour@@ 2512
Wuppertal 2512
arib@@ 2512
ispr@@ 2512
Wurz@@ 2511
abor@@ 2511
gerichtet 2511
sigen 2511
Kiel@@ 2510
Präsid@@ 2510
gänz@@ 2510
malen 2510
tiefen 2510
MP@@ 2509
Morgen@@ 2509
Soziologie 2509
Spiegel@@ 2509
Chefredakteur 2508
Verbrechen 2508
gebäudes 2508
rierten 2508
verschoben 2508
Diego 2507
Gemäß 2507
dortige 2507
mag 2506
stir@@ 2506
verzeichnis 2506
Historische 2505
Restaurierung 2505
abet@@ 2505
aktu@@ 2505
ark 2505
berühr@@ 2505
dauert 2505
töten 2505
Gep@@ 2504
Periode 2504
Schätz@@ 2504
Telek@@ 2504
extrem 2504
frucht@@ 2504
Rande 2503
Zier@@ 2503
dati@@ 2503
spräsident 2503
Empfangs@@ 2502
Sied@@ 2502
Austra@@ 2501
Bomben@@ 2501
ehn 2501
verließen 2501
Dess@@ 2500
Kämpfen 2500
Staatlichen 2500
decker 2500
endok@@ 2500
historischer 2500
kritisch 2500
schaftliche 2500
30.000 2499
Stutt@@ 2499
gewonn@@ 2499
mäßigen 2499
zwöl@@ 2499
Bug@@ 2498
Mou@@ 2498
Publiz@@ 2498
gutes 2498
harmon@@ 2498
sturm 2498
ständnis 2498
Archäologie 2497
Erkrank@@ 2497
Philip 2497
Zürcher 2497
promin@@ 2497
Geistlicher 2496
Peru 2496
Phosph@@ 2496
Romans 2496
vergleichbar 2496
verwirk@@ 2496
Bataill@@ 2495
Humboldt 2495
Konservatorium 2495
phen@@ 2495
Quant@@ 2494
ament 2494
enbruch 2494
gerne 2494
geschloss@@ 2494
Monte@@ 2493
Wick@@ 2493
Zen@@ 2493
unterschied 2493
Biografien 2492
Continental 2492
olf 2492
Fließ@@ 2491
RS 2491
echnik 2491
ix@@ 2491
stu@@ 2491
vermein@@ 2491
österreich@@ 2491
Alice 2490
Jakob@@ 2490
Kompon@@ 2490
Schwarzw@@ 2490
Vereinen 2490
dänische 2490
trolle 2490
verarbeitet 2490
Dinge 2489
Kosten@@ 2489
arz@@ 2489
Anwend@@ 2488
Lenk@@ 2488
Sports 2488
liefert 2488
Ehepaar 2487
can@@ 2487
Gärten 2486
Handball 2486
Lehn@@ 2486
ban 2486
ár@@ 2486
7,5 2485
Behörde 2485
Juden@@ 2485
Pius 2485
ensionen 2485
Aspek@@ 2484
Stipen@@ 2484
dach@@ 2484
ies@@ 2484
publiziert 2484
var@@ 2484
Schließung 2483
Titular@@ 2483
Fame 2482
Green@@ 2482
landete 2482
tigkeits@@ 2482
Hanse@@ 2481
Paderborn 2481
finale 2481
markiert 2481
rechnung 2481
verse 2481
Ble@@ 2480
Erstaus@@ 2480
Stanley 2480
beschleun@@ 2480
chemischen 2480
Begleit@@ 2479
Diplomat 2479
Haltepunkt 2479
SB 2479
Sinn@@ 2479
flachen 2479
ämpfung 2479
Breis@@ 2478
freig@@ 2478
ologie@@ 2478
schlä@@ 2478
Daraus 2477
Keh@@ 2477
Neckar 2477
anspru@@ 2477
halts 2477
inhaf@@ 2477
ral 2477
wed@@ 2477
Bruders 2476
Lizenz@@ 2476
Spur@@ 2476
Winkel 2476
esi 2476
ries@@ 2476
verkehren 2476
René 2475
abend 2475
Landwirtschafts@@ 2474
Mr. 2474
Wellen@@ 2474
Ausdehnung 2473
Erhol@@ 2473
Gefangenschaft 2473
reit@@ 2473
Fürstentum 2472
Mü@@ 2472
enzel 2472
stellter 2472
nerin 2471
Schacht 2470
völk@@ 2469
Inspek@@ 2468
forderten 2468
lock 2468
omen@@ 2468
türkische 2468
Austragung 2467
Mythologie 2467
gür@@ 2467
mers 2467
registriert 2467
seg@@ 2467
ungspl@@ 2466
Dy@@ 2465
bezeichnen 2465
denburg 2465
dische 2465
enkan@@ 2465
galten 2465
gewies@@ 2465
ław 2465
asst 2464
emig@@ 2464
geform@@ 2464
perf@@ 2464
wä@@ 2464
Bibel 2463
Fast 2463
Missouri 2463
verlag@@ 2463
zimmer 2463
öhn@@ 2463
Cé@@ 2462
Lith@@ 2462
Olympische 2462
Sturm@@ 2462
Hyper@@ 2461
Litauen 2461
Sun@@ 2461
ehm@@ 2461
oka 2461
Hotel@@ 2460
magazin 2460
ph 2460
Tschech@@ 2459
Nationale 2458
esh@@ 2458
Kies@@ 2457
üben 2455
Junior 2454
Ou@@ 2454
back 2454
fing 2454
ografien 2454
Suc@@ 2453
arri@@ 2453
Beut@@ 2452
Nit@@ 2452
Tanz 2452
erd@@ 2452
wahr 2452
Fertig@@ 2451
Kabin@@ 2451
pp 2451
Cit@@ 2450
Gum@@ 2450
amme 2449
nö@@ 2449
ological 2449
sige 2449
Moor@@ 2448
stil@@ 2448
Dreif@@ 2447
Henri@@ 2447
anth@@ 2447
getra@@ 2447
ides 2447
stent 2447
ve@@ 2447
Are@@ 2446
Boy@@ 2446
Index 2446
dän@@ 2446
л@@ 2446
CS 2445
schuss 2445
tafel 2445
ular 2444
vill@@ 2444
zon@@ 2444
Eid@@ 2443
empel 2443
val 2443
26@@ 2442
Aster@@ 2442
Ax@@ 2442
demon@@ 2441
onder@@ 2441
ña 2441
DE 2440
Dorothe@@ 2440
hütte 2439
präsident 2439
quote 2439
1799 2438
Regime 2438
Sob@@ 2437
terte 2437
Finn@@ 2436
Stürmer 2436
DF@@ 2435
Abraham 2434
Wladimir 2434
mobili@@ 2434
strich 2434
170 2433
Colorado 2433
Patron@@ 2433
Prov@@ 2433
Sog@@ 2433
poem 2433
Kontak@@ 2432
Sé@@ 2432
Terr@@ 2431
bühne 2431
omet@@ 2431
vis 2431
Pastor 2429
Edinburgh 2428
still@@ 2428
Gaz@@ 2427
Nak@@ 2427
Tend@@ 2427
essischen 2427
Install@@ 2426
Ukra@@ 2426
beobach@@ 2426
Lippe 2425
revolution 2425
Australian 2424
Austria 2424
Flag@@ 2424
Rut@@ 2424
ascha 2424
damp@@ 2424
stall 2424
Admiral 2423
Hat@@ 2423
Rost@@ 2423
Esch@@ 2422
Impul@@ 2422
ahlen 2422
pole 2422
sius 2422
Alan 2421
Brow@@ 2421
Taus@@ 2421
Leutnant 2420
Fäh@@ 2419
beauf@@ 2419
kla@@ 2419
Airlines 2418
Kriti@@ 2418
TU 2418
Honor@@ 2417
Moore 2417
aks 2417
charts 2417
mas@@ 2417
Brunn@@ 2416
Borussia 2415
Dör@@ 2415
Lyn@@ 2415
nich@@ 2415
119@@ 2414
Gif@@ 2414
denberg 2414
Geburt@@ 2413
Mountains 2413
Bezirk@@ 2412
anist 2412
Tim 2411
cup@@ 2411
wendung 2411
Brat@@ 2410
Lac@@ 2410
Schmel@@ 2410
Tall@@ 2410
Glet@@ 2409
Gotth@@ 2409
Prem@@ 2409
pus 2409
Christopher 2408
Ontario 2408
akadem@@ 2407
Fundam@@ 2406
Muse@@ 2406
No 2406
aver 2406
ED@@ 2405
Santiago 2405
sach@@ 2405
holt 2404
strasse 2404
Manche 2403
Freg@@ 2402
Johnny 2401
cs 2401
Las 2400
tem@@ 2400
ün 2400
VfB 2398
garter 2398
15,@@ 2397
Musli@@ 2397
tot 2397
NRW 2396
wein 2396
jeg@@ 2395
Been@@ 2394
Zwick@@ 2394
oria 2394
Public 2393
ham@@ 2393
hib@@ 2393
kie@@ 2393
kran@@ 2393
750 2392
haupt 2392
Freie 2391
Fürsten@@ 2391
U.S. 2391
hold 2391
plast@@ 2391
Old 2390
Pension@@ 2390
Suff@@ 2390
bedeutend@@ 2390
Gä@@ 2389
Peg@@ 2389
Sow@@ 2389
Stal@@ 2389
oy 2389
Eil@@ 2388
Löwen@@ 2388
Rho@@ 2388
kontin@@ 2388
Big@@ 2387
Feri@@ 2385
oux 2385
Spring@@ 2383
Work@@ 2383
geomet@@ 2382
Hak@@ 2380
mäler 2380
Grön@@ 2379
­ 2379
105 2378
tester 2378
Bj@@ 2377
Instr@@ 2377
Maurice 2377
amer 2377
dur@@ 2377
AT 2376
Marco 2376
Duke 2375
ester@@ 2375
illo 2375
wall 2375
persön@@ 2374
rid 2374
iche 2372
Burgh@@ 2371
fik 2371
ission 2371
Haut@@ 2370
Tier 2370
ep 2370
gran@@ 2370
nam 2370
Eb@@ 2369
Lec@@ 2369
bring@@ 2369
kum@@ 2369
ás 2368
Alg@@ 2367
eal@@ 2367
helm 2367
ließ@@ 2367
ellip@@ 2366
LA 2364
För@@ 2363
Lov@@ 2363
erziel@@ 2363
stetten 2363
Entertainment 2362
Ferrari 2362
Technology 2362
izen 2362
Mant@@ 2361
27@@ 2360
Loch 2360
inos 2359
osi@@ 2359
elem@@ 2357
ocken 2357
schwed@@ 2357
vir@@ 2355
Hess@@ 2354
Vincent 2354
ahrt 2354
app 2353
eland 2353
nat@@ 2353
Roch@@ 2352
cel@@ 2352
itation 2352
reb@@ 2352
Giuseppe 2351
Glau@@ 2351
Internation@@ 2351
Space 2351
Ç@@ 2350
Eul@@ 2349
Zin@@ 2349
bing 2349
oden@@ 2349
republi@@ 2349
Sarah 2348
cz@@ 2348
Lux@@ 2347
Night 2347
Gras@@ 2346
Wern@@ 2346
besonder@@ 2346
hand 2346
Adams 2345
CH@@ 2344
Jü@@ 2344
umst@@ 2344
Freder@@ 2343
Weser 2343
Sun 2342
Ł@@ 2342
CC 2341
Pit@@ 2341
Pun@@ 2340
Brün@@ 2339
Margare@@ 2339
eption 2339
Nerv@@ 2337
Bapti@@ 2336
Blan@@ 2336
Fauna 2336
USS 2336
ws 2336
Christine 2335
Glaub@@ 2335
Pacific 2335
Depart@@ 2334
Lausanne 2334
Tok@@ 2334
Erwin 2333
Luise 2333
beruh@@ 2333
unken 2333
Bar 2332
Fred 2332
HP 2332
ο@@ 2332
ror 2331
Ark@@ 2330
Stud@@ 2330
Grun@@ 2328
Roth 2328
graph@@ 2328
Donn@@ 2327
Gesprä@@ 2327
Moment 2327
jewei@@ 2327
Chief 2326
mül@@ 2326
utr@@ 2326
ward 2326
Bergh@@ 2325
Kansas 2325
Kob@@ 2325
Verst@@ 2325
erlang@@ 2325
konzentri@@ 2325
lat 2325
marine 2325
ateg@@ 2324
loss 2324
Pist@@ 2323
Saf@@ 2323
either 2323
Death 2321
dition@@ 2321
aris 2320
Jimmy 2319
tic@@ 2319
Charlie 2318
Fa@@ 2318
ligen@@ 2318
emal@@ 2317
tzen 2317
Dan 2315
Nou@@ 2315
band@@ 2315
Board 2314
last 2314
geblich 2313
su 2313
Gon@@ 2312
Squ@@ 2312
org 2312
Adap@@ 2311
Panzer 2311
Stock 2311
Tank@@ 2311
auté 2310
в@@ 2310
Anti 2309
Hammer 2309
abin@@ 2309
atin 2307
Hits 2306
Sili@@ 2306
Tann@@ 2306
ürf@@ 2306
register 2304
schieden 2304
İ@@ 2304
May 2303
Petrus 2303
Detroit 2302
Willy 2302
gelag@@ 2302
450 2301
Mayer 2301
Nachwuch@@ 2301
Solo 2301
Sympt@@ 2301
mik@@ 2301
pati@@ 2301
stuhl 2301
Sed@@ 2300
cin@@ 2300
Loc@@ 2298
chlor@@ 2298
tat 2298
uter@@ 2298
Tul@@ 2297
derm@@ 2297
uf 2297
Soll@@ 2296
UK 2296
CSU 2295
Campus 2295
Clark 2295
sowjet@@ 2295
spor 2295
Dynam@@ 2294
Let@@ 2294
ub 2294
Lug@@ 2293
angeord@@ 2291
Blank@@ 2290
aik@@ 2290
fers 2290
î@@ 2290
durchschnitt@@ 2289
Wisconsin 2288
Anderson 2287
nau 2287
ramm 2287
tius 2287
Order 2286
Law 2285
Mall@@ 2285
Talent 2285
Belie@@ 2284
Court 2284
cho 2284
Nikolai 2283
,@@ 2282
Hildesheim 2282
Straßenb@@ 2282
enberger 2282
folgung 2282
jung@@ 2282
Pump@@ 2281
Vati@@ 2281
suchten 2281
won@@ 2281
asen@@ 2280
ij@@ 2280
og 2280
sens 2279
abs@@ 2278
Gramm@@ 2277
Rall@@ 2276
Sah@@ 2276
Seminar 2276
ric 2276
toire 2276
Rugby 2275
anca 2274
essa 2274
zir@@ 2274
bevor@@ 2273
lv@@ 2273
drau@@ 2272
GT@@ 2271
BM@@ 2270
Hang@@ 2270
enza 2269
syst@@ 2268
DO@@ 2267
region@@ 2267
samen 2267
Kla@@ 2266
refer@@ 2266
Billy 2265
División 2265
lik 2265
omin@@ 2265
IM@@ 2264
glad@@ 2263
Grie@@ 2262
eili@@ 2262
Blum@@ 2261
Fuchs 2261
Pati@@ 2261
förm@@ 2261
Sho@@ 2260
beschä@@ 2260
pfle@@ 2260
Chr@@ 2259
Gis@@ 2259
Is 2258
Wittenberg 2258
glieder 2257
meyer 2256
16,@@ 2255
Conference 2255
Iden@@ 2255
Mä@@ 2255
NR@@ 2255
Playoffs 2255
amkeit 2255
Strand 2254
rachte 2254
Soft@@ 2253
Ō@@ 2253
Leopold@@ 2252
Sequ@@ 2251
tags 2251
masch@@ 2249
press@@ 2249
Krit@@ 2248
manu@@ 2248
spon@@ 2248
Welter@@ 2247
dos 2247
enheiten 2247
pause 2247
CI@@ 2246
Reper@@ 2245
Thur@@ 2245
т@@ 2245
mon 2244
ony@@ 2244
1300 2243
Metz@@ 2243
Vau@@ 2242
geschaff@@ 2242
witsch 2242
cre@@ 2241
Phant@@ 2240
Willi 2239
Beat@@ 2238
Benz 2238
Memorial 2237
dokum@@ 2237
yr 2237
Arm 2235
Diam@@ 2235
eder 2235
Sag@@ 2234
Tir@@ 2234
ienen 2234
orie 2234
Desig@@ 2233
enfeld 2233
Exped@@ 2232
Tem@@ 2232
Lüneburg 2231
auth@@ 2230
Antwer@@ 2229
Acc@@ 2228
Manu@@ 2228
Stär@@ 2228
Sultan 2228
star 2228
ographi@@ 2227
qual@@ 2227
pack@@ 2226
101 2224
Vinc@@ 2224
Home 2223
Sold@@ 2223
1796 2222
Boli@@ 2222
rus 2222
edt 2221
kulturel@@ 2221
litt 2221
ortes 2221
fügt 2220
omot@@ 2220
rüstung 2220
Hend@@ 2219
EG 2218
hie@@ 2218
ising 2218
Quad@@ 2217
SP 2217
dol@@ 2217
stige 2216
Siemens 2215
eds 2215
otes 2214
Bess@@ 2213
amba 2213
bevorzug@@ 2213
Count@@ 2212
Leiden 2212
Long@@ 2211
Vizep@@ 2211
Alph@@ 2210
Melbourne 2209
Pupp@@ 2209
Scho@@ 2209
chir@@ 2209
lica 2209
Antarctic 2207
Marcel 2207
plant 2207
Du 2206
forderungen 2206
istan 2206
Kem@@ 2205
Verbreit@@ 2205
erner 2204
jün@@ 2204
ophon 2204
änderungen 2204
1795 2203
Neck@@ 2203
sogen@@ 2203
chter@@ 2202
neutr@@ 2201
status 2200
1784 2199
Andr@@ 2199
Bronz@@ 2199
Bremer@@ 2198
Walther 2198
Eintracht 2197
Singap@@ 2197
own 2196
Reichstag 2194
Theor@@ 2194
ji@@ 2194
UCI 2191
lle 2191
Zuschau@@ 2190
stone 2190
Chan@@ 2189
Garde 2189
bud@@ 2189
verh@@ 2188
Scor@@ 2187
Dic@@ 2186
Mississippi 2186
Must@@ 2186
relev@@ 2186
ads 2185
sle@@ 2185
Alger@@ 2184
fehl 2183
stud@@ 2183
ț@@ 2183
École 2182
17,@@ 2181
mid@@ 2181
ochem@@ 2181
Kak@@ 2180
éné@@ 2180
18,@@ 2179
rica 2179
AM 2178
Philosoph@@ 2178
betra@@ 2178
Cornel@@ 2177
minim@@ 2177
4000 2176
Bell 2176
SM 2176
Copa 2175
Path@@ 2175
eister 2174
Indiana 2172
U23 2170
err 2170
lah 2170
Pep@@ 2169
Roy 2169
wick 2169
Premier@@ 2168
Fli@@ 2167
Gemäl@@ 2167
rock@@ 2167
zwisch@@ 2167
AF@@ 2166
Abb@@ 2166
Militä@@ 2166
ogne 2166
ui 2166
unt 2166
Ve@@ 2165
cus 2165
enname 2165
ku 2165
AA 2164
Gertru@@ 2164
Sok@@ 2164
mos@@ 2163
Releg@@ 2162
U20 2162
arf 2162
Invasion 2161
Söh@@ 2161
abhäng@@ 2161
anti 2161
Fj@@ 2160
Jam@@ 2160
offiz@@ 2160
80@@ 2159
Mont 2159
ameter 2159
woll@@ 2159
var 2158
FF 2157
rei 2157
vre 2157
Area 2156
Cann@@ 2156
Standards 2156
boot 2156
chi@@ 2155
Châ@@ 2154
Gas 2154
Pyr@@ 2154
kehr 2153
oko 2153
Wester@@ 2151
Mountain 2150
Server 2150
Tower 2150
ethn@@ 2150
ption 2150
som@@ 2150
aug@@ 2149
omo 2149
verhin@@ 2149
Mam@@ 2148
Range 2148
Wirt@@ 2147
abe@@ 2146
lug 2146
ène 2146
Dance 2145
Ereig@@ 2145
Koch@@ 2145
Last 2145
irche 2145
vermut@@ 2145
block@@ 2144
Gul@@ 2143
Porsche 2143
Expan@@ 2142
fün@@ 2141
Frag@@ 2140
gymnasium 2140
rum 2140
60@@ 2139
chan@@ 2139
egte 2139
sv@@ 2139
ï@@ 2139
Fox 2138
Mili@@ 2138
gif@@ 2138
laf 2138
onym@@ 2138
HMS 2137
evi@@ 2137
meier 2137
plem@@ 2137
Braun 2136
Cin@@ 2136
Wild 2136
virtu@@ 2136
Cover 2135
Mineral 2135
Norman@@ 2135
These 2135
Vancouver 2135
unkt 2135
HF 2134
Commonwealth 2133
ocks 2133
rach 2133
Cross 2132
Dokument@@ 2132
internation@@ 2130
Fé@@ 2129
Sap@@ 2129
geordn@@ 2129
Bam@@ 2128
Arizona 2127
Chev@@ 2127
Hahn 2127
Hybri@@ 2127
Pakistan 2127
rit 2127
Ägyp@@ 2127
Ind@@ 2126
28@@ 2124
Sev@@ 2124
IF 2123
deos 2123
get 2123
nov@@ 2123
Institution 2122
studio 2122
Auguste 2121
Horiz@@ 2121
Florian 2120
Franc@@ 2120
Water@@ 2120
shut 2120
kör@@ 2119
Schü@@ 2118
chst@@ 2118
entre@@ 2118
Atlanta 2117
DI 2117
my@@ 2116
Wul@@ 2115
Plant@@ 2114
velle 2114
Ral@@ 2113
Crist@@ 2112
Manga 2112
Motors 2112
Railroad 2112
yi 2112
Bologna 2111
Male 2111
ielsweise 2111
1780 2110
Begriff@@ 2110
Cruz 2110
ileg@@ 2110
1791 2109
Nich@@ 2109
ultur 2109
üp@@ 2109
Magazine 2108
add@@ 2108
gin 2108
occ@@ 2108
CS@@ 2107
loser 2107
sar@@ 2107
billi@@ 2106
Jel@@ 2105
herzog@@ 2105
AE@@ 2104
Fant@@ 2104
Hang 2104
Provin@@ 2104
drama 2104
Cricket 2103
Microsoft 2103
itus 2102
kus@@ 2102
stan 2102
esi@@ 2101
las@@ 2101
slau@@ 2101
Holding 2100
Labor 2099
Masters 2099
ilia 2099
olitik 2099
rel 2099
ries 2099
enc@@ 2098
ophi@@ 2098
AZ 2097
Dublin 2097
Nicolas 2097
ickt 2097
int 2097
opro@@ 2097
iler 2094
maxim@@ 2094
Department 2093
Opera 2093
Prim@@ 2093
Diag@@ 2092
Norm 2092
Centr@@ 2090
bett 2089
hydro@@ 2089
Indian@@ 2088
Maine 2088
Québec 2088
rett@@ 2088
verur@@ 2088
Bereit@@ 2087
Hubert 2087
lov@@ 2087
elland 2086
rab@@ 2086
red 2086
Lon@@ 2084
Spec@@ 2084
fru@@ 2084
lerweile 2084
rell 2084
strand 2084
Beck 2083
Amin@@ 2082
Bann@@ 2082
ally 2082
beisp@@ 2082
Arran@@ 2081
Jane 2080
ours 2080
IR@@ 2079
gie 2079
1785 2078
Afro@@ 2077
Flo@@ 2077
AL 2076
TE@@ 2076
aussch@@ 2076
gg 2076
inst@@ 2076
Therap@@ 2075
Wood@@ 2075
Haupts@@ 2074
sage 2074
Liter@@ 2073
ces 2073
dom@@ 2073
änger@@ 2072
Agnes 2071
MW 2071
Tests 2071
journal@@ 2071
Khan 2070
elia 2069
1750 2068
Gabri@@ 2068
phy@@ 2068
Cant@@ 2067
Robin 2067
Roc@@ 2067
Southern 2067
Up 2067
ż@@ 2067
1787 2066
Sac@@ 2066
beför@@ 2066
Trin@@ 2065
ophy@@ 2064
Cad@@ 2063
Connecticut 2063
Magist@@ 2063
Württem@@ 2063
deckte 2063
prop@@ 2063
Pack@@ 2062
regi@@ 2061
osexu@@ 2060
konom@@ 2059
History 2058
illing 2058
Anat@@ 2057
sher@@ 2057
GA 2056
GT 2056
Stewart 2056
lab@@ 2056
ray 2056
ever 2055
Bruce 2054
IP@@ 2054
Magnus 2054
Philippe 2054
Pie@@ 2054
Pip@@ 2054
Soundtrack 2054
VI 2053
Weltk@@ 2052
Glad@@ 2051
Fossi@@ 2050
fert 2050
roff@@ 2050
Fan@@ 2049
ande 2049
ängerin 2049
medizin@@ 2048
gehörigen 2047
1400 2046
Unternehm@@ 2046
Mog@@ 2045
ographische 2045
Australia 2044
Car 2044
Cot@@ 2044
Liverpool 2044
orith@@ 2043
Maus@@ 2042
EM@@ 2041
Ergeb@@ 2041
Special 2041
itik 2041
osph@@ 2041
Erik 2040
Hop 2040
Stone 2040
lor@@ 2040
Abd@@ 2039
Nelson 2039
Performance 2039
Veter@@ 2039
Kevin 2038
Kō@@ 2038
Wolff 2037
ades 2037
airo 2037
iden@@ 2037
ull@@ 2035
Carl@@ 2034
Not 2034
antis@@ 2034
SF@@ 2033
nica 2033
sive 2033
Lincoln 2032
Up@@ 2032
Corn@@ 2031
Favor@@ 2031
Tai@@ 2031
atives 2031
erkenn@@ 2031
gebäu@@ 2031
oot 2031
Margaret 2030
onnen 2030
uto 2030
Bart@@ 2029
ielt 2029
morph@@ 2029
streng@@ 2028
ücksich@@ 2028
Challenge 2027
Chlor@@ 2027
Dag@@ 2027
erfül@@ 2027
sens@@ 2026
spur 2026
Greg@@ 2025
blu@@ 2024
kön@@ 2024
Tennessee 2023
Afghanistan 2022
pol 2022
Edmund 2021
Viktor 2021
exter@@ 2021
iv 2021
Sey@@ 2019
riv@@ 2019
äler 2019
Tang@@ 2018
ering 2018
core 2017
Leist@@ 2016
Politi@@ 2016
Puerto 2016
entation 2016
inae 2016
reserv@@ 2016
Berger 2015
Ell@@ 2015
Gottlieb 2015
burn 2015
KA 2014
Café 2013
publi@@ 2013
Konstantin 2012
alem 2012
fasste 2012
118@@ 2011
Cock@@ 2011
garde 2011
Geomet@@ 2009
Nick 2009
On 2009
Ign@@ 2008
egg 2008
Kis@@ 2007
post 2007
Heidel@@ 2005
Lep@@ 2005
Stephan@@ 2005
ald@@ 2005
Mitglie@@ 2004
Pilot 2004
con 2004
Fair@@ 2002
dh@@ 2002
rank 2002
Emma 2001
ce@@ 2001
russ@@ 2001
Boris 2000
ID 1999
Kick@@ 1999
esis 1999
Office 1998
Vermut@@ 1998
ektur 1997
rauch 1997
а 1997
ble@@ 1995
evo 1994
itän 1994
lug@@ 1994
Mex@@ 1993
Napole@@ 1993
Poll@@ 1993
after 1993
Dill@@ 1992
Explo@@ 1992
Jordan 1992
Riga 1992
azzo 1992
slow@@ 1992
Miami 1991
fj@@ 1991
Freiz@@ 1990
eckl@@ 1990
α@@ 1990
Bayer 1989
Grim@@ 1989
rasch@@ 1989
vest@@ 1989
Global 1988
SE 1988
Stef@@ 1988
TC 1988
entsprech@@ 1988
ichi 1986
national 1986
nun@@ 1986
ń@@ 1986
Jahrzeh@@ 1985
Kum@@ 1985
Wall 1985
issa 1985
Köl@@ 1984
ML 1984
oom 1984
eno 1983
gespro@@ 1983
AD 1982
thei@@ 1982
115@@ 1981
Lil@@ 1981
seminar 1981
side 1981
3D 1980
ordin@@ 1980
wah@@ 1980
Edgar 1979
Prü@@ 1979
abl@@ 1979
französ@@ 1979
repar@@ 1979
Ferr@@ 1978
IUCN 1978
viol@@ 1978
kind 1977
Comics 1976
reste 1976
rill 1976
Cec@@ 1975
Doh@@ 1975
Spart@@ 1975
aat 1975
eia 1975
ynam@@ 1975
Badmin@@ 1974
Box 1974
Ursula 1974
eli 1974
ingham 1974
Lach@@ 1973
Captain 1972
Cle@@ 1972
Lloyd 1972
Roma 1971
Wachst@@ 1971
rag@@ 1971
sozi@@ 1971
Brasili@@ 1970
Frederick 1970
dauerh@@ 1970
dez@@ 1969
ziger 1969
Australi@@ 1968
Clara 1968
Dog@@ 1968
Frit@@ 1968
hard@@ 1968
religi@@ 1968
én 1967
Aar@@ 1966
CT@@ 1966
Liechtenstein 1966
PE@@ 1966
Lawrence 1965
Will 1965
ultur@@ 1965
Entw@@ 1964
Myth@@ 1963
Rol@@ 1962
Russell 1962
Via 1962
motiv@@ 1962
üstet 1962
′ 1962
Nem@@ 1961
af 1961
ehnt 1961
fix@@ 1961
rise 1961
visu@@ 1961
Bibli@@ 1960
Kön@@ 1960
gress 1960
70@@ 1959
She@@ 1959
Territ@@ 1959
Disney 1958
ohen 1958
Raf@@ 1957
Sofia 1957
Coun@@ 1956
Wiel@@ 1956
than 1956
stattung 1955
38@@ 1954
Burk@@ 1954
IB@@ 1954
ibn 1954
stitution 1953
dale 1952
mul@@ 1952
Neumann 1951
otz@@ 1951
Magdalena 1950
elek@@ 1950
house 1950
iw@@ 1950
tional 1949
Cum@@ 1948
Hot 1948
Quint@@ 1948
Social 1948
Gestapo 1947
Jacob@@ 1947
ů@@ 1947
Sainte 1946
Studies 1946
FP@@ 1945
Hip 1945
dou@@ 1945
Besatz@@ 1944
Dj@@ 1944
Martin@@ 1944
Sever@@ 1944
Shanghai 1944
Beeth@@ 1943
Haute 1943
Patent 1942
hima 1942
Denis 1941
tru@@ 1941
Pall@@ 1940
pass 1940
Forest 1939
Fund 1939
KO 1939
Meteor@@ 1939
usin 1939
osaur@@ 1938
uri 1938
Dé@@ 1937
Sierra 1937
court 1937
tow 1937
uft 1937
1783 1936
1788 1935
Taiwan 1935
Tha@@ 1935
fang@@ 1935
20,@@ 1934
onal 1934
Dest@@ 1933
icke 1933
ziellen 1933
Orleans 1932
Weihnach@@ 1932
Admir@@ 1931
Hamm@@ 1931
Pent@@ 1931
alla 1931
genöss@@ 1930
schauer 1930
iet 1929
Antoine 1928
MC 1928
Mode 1928
aer@@ 1928
auft 1928
360 1927
Franz@@ 1927
nad 1927
sia 1926
Harris 1925
Iron@@ 1925
114@@ 1924
main 1924
Esk@@ 1923
from 1922
Dres@@ 1921
Laura 1921
lear@@ 1921
othek 1921
abstra@@ 1920
ims 1920
Dave 1919
Mans 1919
Place 1919
Mixed 1918
jana 1917
forder@@ 1916
1786 1915
Symp@@ 1915
CP@@ 1914
Maf@@ 1914
atra 1914
Lazar@@ 1913
Michel@@ 1913
S.@@ 1913
Uruguay 1913
eld 1913
o. 1913
220 1912
restaur@@ 1912
verfüg@@ 1912
verstär@@ 1911
Etym@@ 1910
Lib@@ 1909
adap@@ 1909
affel 1909
Krimin@@ 1908
Sad@@ 1908
Spur 1908
aise 1908
Trophy 1906
een 1906
Vä@@ 1905
Beschl@@ 1904
Ordin@@ 1904
bret@@ 1904
Fen@@ 1903
jon 1903
node 1903
text 1903
Lenn@@ 1902
but@@ 1902
lu 1902
29@@ 1901
TS 1901
Ler@@ 1900
Vig@@ 1899
Wikipedia 1899
Axel 1898
felt 1898
Iowa 1897
Lj@@ 1897
Lisa 1896
Signal 1896
fa 1896
ior 1896
rün@@ 1894
Nörd@@ 1893
griech@@ 1892
amerika 1891
äischen 1891
atti 1890
distri@@ 1890
arts 1889
Elis@@ 1888
Fell@@ 1888
SI@@ 1888
Lili@@ 1887
Ralph 1887
anim@@ 1887
my 1887
Cath@@ 1886
gelang@@ 1886
Good@@ 1885
lieferung 1885
rode 1884
Hz 1883
arta 1883
kowski 1883
rock 1883
Lah@@ 1882
Bosn@@ 1881
ault 1879
italien@@ 1879
104 1878
Jord@@ 1878
inea 1878
vertreter 1878
AR 1877
Adri@@ 1877
Lak@@ 1877
affe 1877
bos@@ 1877
itte 1877
1770 1876
E.@@ 1876
Morgan 1876
Vietnam 1876
appar@@ 1876
beit 1876
Equ@@ 1875
Lom@@ 1875
Olympia 1875
intern@@ 1875
ktur 1875
time 1875
reu@@ 1874
Farm@@ 1873
Yos@@ 1872
gregation 1872
oter 1872
Auschwitz 1869
Beth@@ 1869
Hos@@ 1869
Ruth 1869
dy@@ 1869
gerer 1869
regist@@ 1869
usse@@ 1869
Broadway 1868
brit@@ 1868
lon 1868
squ@@ 1868
säm@@ 1868
How@@ 1867
hem@@ 1867
polis 1867
ograph 1866
Canada 1863
Hipp@@ 1862
iegel@@ 1862
lings 1862
Kus@@ 1861
bom@@ 1861
pend@@ 1861
yc@@ 1861
1775 1860
czy@@ 1859
· 1859
Sage 1858
Stade 1858
lon@@ 1858
Ann 1857
Farm 1857
Guer@@ 1857
Rotterdam 1857
py@@ 1857
tan 1857
Raymond 1856
Rig@@ 1856
astronom@@ 1856
gebro@@ 1856
Sof@@ 1855
orph@@ 1855
Arc@@ 1854
Maryland 1854
Renault 1854
Sid@@ 1854
myth@@ 1854
wag@@ 1853
Call@@ 1852
entor 1849
fei@@ 1849
uan 1849
µ@@ 1848
aste 1847
onso 1847
lava 1846
Porto 1844
Situ@@ 1844
otti 1844
rieb@@ 1844
Orth@@ 1843
fft 1843
gy 1843
GP@@ 1842
aa 1842
bie 1842
ystems 1842
ötz@@ 1842
communes 1841
hl@@ 1841
• 1841
tigkeiten 1840
tro 1840
Rai@@ 1839
Roy@@ 1839
assist 1839
tener 1838
Gom@@ 1837
Nova 1837
greg@@ 1836
Nab@@ 1835
ely 1835
Id@@ 1834
negative 1834
Å@@ 1834
unda 1833
Inv@@ 1831
Bowl 1830
aud 1830
ites 1830
rekt@@ 1829
1772 1828
Hack@@ 1828
NA 1828
Offensive 1828
News 1827
Optim@@ 1827
Trib@@ 1827
GM 1826
emer 1826
EC@@ 1825
Pog@@ 1825
Avenue 1824
Plateau 1824
alist 1824
geladen 1824
ulus 1824
Down 1823
Johannes@@ 1823
Dopp@@ 1822
Kennedy 1822
erium 1822
weil@@ 1822
Johan 1821
omp@@ 1821
zin 1820
ς 1820
Gly@@ 1819
altungen 1819
stant 1819
Him@@ 1818
Isa@@ 1818
Jonathan 1818
Monument 1818
Psychiat@@ 1818
zia 1818
Pietro 1817
kov 1817
1776 1816
EP@@ 1816
rain 1816
End 1814
aun 1814
Fie@@ 1813
Match 1813
block 1813
cur@@ 1813
ise@@ 1813
pu@@ 1813
Loch@@ 1812
Turk@@ 1812
eles 1812
mos 1812
Hills 1811
Hyp@@ 1811
aid 1811
andro 1810
hut 1809
ihr@@ 1809
Pend@@ 1808
Story 1808
teams 1808
K.@@ 1807
gin@@ 1807
Contest 1806
Miguel 1806
enna 1806
Jung 1805
baden 1805
wuch@@ 1805
inj@@ 1804
unterschied@@ 1804
Cort@@ 1803
HD 1803
Lay@@ 1803
Canadian 1801
N. 1801
inas 1801
Franklin 1799
Osc@@ 1799
ossa 1799
partner 1799
riller 1799
Graham 1798
O. 1797
fro@@ 1797
angrenz@@ 1796
HS 1795
Mars 1795
bit 1795
icken 1795
102 1794
Eisenb@@ 1794
anga 1794
Engineering 1793
Jack@@ 1792
head 1792
Jon@@ 1791
Rain@@ 1791
Houston 1790
ress 1790
Aber@@ 1789
Il 1789
Lucas 1789
agan 1789
Elec@@ 1788
Miss 1788
Oppos@@ 1788
Niz@@ 1787
online 1787
Kim@@ 1785
Liz@@ 1785
Laf@@ 1784
Student 1784
eilt 1784
inski 1784
Rag@@ 1783
eus 1783
publiz@@ 1783
1777 1782
Dynamo 1782
storbenen 1782
Ś@@ 1782
RA 1781
Studio@@ 1781
ld@@ 1780
Fid@@ 1779
gard 1779
absolute 1777
erland 1776
Adj@@ 1775
Sais@@ 1775
Stap@@ 1775
urer 1775
19,@@ 1774
Hul@@ 1774
flan@@ 1774
AK 1773
Baby 1773
dan 1773
Peak 1772
Stru@@ 1772
Sund@@ 1772
views 1772
Nations 1770
brief 1770
ential 1770
entran@@ 1770
Boeing 1769
Marseille 1769
Ruf@@ 1769
arin 1769
RC 1768
alph@@ 1768
Moz@@ 1767
scheinlich 1767
Us@@ 1766
Ves@@ 1766
andal 1766
gesell@@ 1766
vi 1766
Arist@@ 1765
Hosp@@ 1765
Li 1765
Caroline 1764
obs 1764
ruch 1764
tia 1764
GC 1763
Gan@@ 1763
ody 1763
Andy 1762
FIFA 1762
Northern 1762
YouTube 1762
Telef@@ 1761
ness 1761
Cov@@ 1760
Parker 1760
Uran@@ 1760
Zusammenh@@ 1760
Inst@@ 1759
SL 1759
anwal@@ 1759
Aj@@ 1758
ISO 1758
label 1758
Jas@@ 1757
Ingenie@@ 1755
Joh@@ 1755
DR@@ 1754
Ernest 1754
berücksich@@ 1753
Low@@ 1752
1782 1751
Murray 1751
gle@@ 1751
ungsgebiet 1751
1778 1749
Nev@@ 1749
Evans 1747
nice 1747
Administ@@ 1746
Empire 1746
mack 1746
Bünd@@ 1745
Kay@@ 1745
parall@@ 1744
Billi@@ 1743
Kaz@@ 1743
wider 1743
lieu 1742
Lang 1741
SI 1741
esth@@ 1741
nütz@@ 1740
German 1739
Holocaust 1739
Laus@@ 1739
Amateur 1738
Sant 1738
Was@@ 1738
installi@@ 1738
sozialistischen 1738
135 1737
Go 1737
Cô@@ 1736
Lieutenant 1735
Origin@@ 1735
Verkauf@@ 1735
obile 1735
Development 1734
Kind@@ 1733
Places 1733
arch 1733
stamm@@ 1733
uda 1733
ici@@ 1732
jet 1732
Thé@@ 1731
archiv@@ 1731
Kelly 1730
hir 1730
reibt 1730
inv@@ 1729
stra 1729
Ltd. 1728
anes 1728
ident@@ 1728
sar 1728
plant@@ 1727
ss 1727
Busch 1726
Hawaii 1726
Vereinig@@ 1726
ark@@ 1726
Apple 1725
Behand@@ 1725
Turner 1725
128 1724
Community 1724
Senior 1724
Teat@@ 1724
oop 1724
Austin 1723
Campbell 1723
Gron@@ 1723
Kras@@ 1723
Weiss 1723
Ursprün@@ 1722
Vet@@ 1722
idd@@ 1722
Pla@@ 1721
zusätz@@ 1721
MP 1720
ettbewer@@ 1720
B.@@ 1719
positionen 1719
yers 1719
Marketing 1718
aust 1718
vet@@ 1718
ST 1717
ids 1717
ios@@ 1717
kk@@ 1717
Diöz@@ 1716
Font@@ 1716
büh@@ 1716
omorph@@ 1716
othek@@ 1716
patri@@ 1716
iner@@ 1715
synchron@@ 1715
zil 1715
ameister@@ 1714
asis 1714
α 1714
beklei@@ 1713
isi 1713
.com 1712
Kentucky 1712
andes 1712
Hep@@ 1711
Islands 1711
Ryan 1711
ferenz 1711
AG@@ 1710
Dallas 1710
Falk@@ 1710
Peters 1709
Stuart 1709
Walker 1709
iana 1709
ox 1709
Trich@@ 1708
sin 1708
öffentlich@@ 1708
Comic 1707
itim@@ 1707
wol@@ 1707
AV@@ 1706
Og@@ 1706
vel 1706
empl@@ 1705
ingu@@ 1705
Independent 1704
ever@@ 1704
115 1703
Jup@@ 1703
Symph@@ 1703
Salon 1702
intern 1702
Network 1701
ffs 1701
mac@@ 1701
roqu@@ 1701
sun@@ 1701
toria 1701
Gent@@ 1700
Paw@@ 1700
acks 1700
Light 1699
bor 1699
reli@@ 1699
Fernando 1698
Korea 1698
ures 1698
Urban 1697
thur 1696
öffent@@ 1696
Salv@@ 1695
ambia 1695
Darm@@ 1694
Zh@@ 1694
itive 1693
ə@@ 1693
Dennis 1692
Herausge@@ 1692
Inf@@ 1692
Kriegsgef@@ 1692
Level 1691
endant 1691
lot 1691
Sex 1690
anie 1690
bourg 1690
iy@@ 1690
reih@@ 1690
Ambro@@ 1689
María 1689
Relief 1689
entit@@ 1689
Berkeley 1688
eline 1688
ommer 1688
thor@@ 1687
Boys 1686
Doc@@ 1686
Thompson 1686
kab@@ 1685
Madonna 1684
Row@@ 1684
Slam 1684
protest@@ 1684
sei@@ 1684
ook 1683
ā 1683
Brooklyn 1682
Eisenh@@ 1682
Malta 1682
museums 1681
usa 1681
yan 1681
KP@@ 1680
ladi@@ 1680
nia 1680
Comedy 1679
western 1679
106 1678
lux@@ 1678
stim@@ 1678
36@@ 1677
Administration 1677
Matt 1677
Syl@@ 1677
aume 1677
ions 1677
iza 1677
1763 1676
MO@@ 1676
Spl@@ 1676
asso 1676
Gün@@ 1675
line@@ 1675
ár 1675
Zap@@ 1674
rio 1674
uten@@ 1674
figur@@ 1673
ll 1673
Acadé@@ 1672
Ut@@ 1672
Year 1672
Bordeaux 1671
Pac@@ 1671
enson 1671
Är@@ 1671
We 1670
ony 1670
Ray@@ 1669
Serge@@ 1669
dir@@ 1669
mom@@ 1669
Google 1668
tienne 1668
Emili@@ 1667
Nachkriegs@@ 1667
Produz@@ 1667
RI@@ 1667
aha 1667
bt@@ 1667
theaters 1667
Barn@@ 1666
Cass@@ 1666
Magde@@ 1666
Nass@@ 1666
atio 1666
beherber@@ 1666
1774 1665
legend 1665
ollege 1665
Hot@@ 1664
103 1663
Out 1663
hai 1663
Carter 1662
ugoslaw@@ 1662
Moun@@ 1661
Services 1661
Versa@@ 1661
Fäl@@ 1660
Hill@@ 1660
Punk 1660
Reser@@ 1660
Ski 1660
etal 1660
Fah@@ 1659
Hund@@ 1658
øn@@ 1658
Be 1657
Braunschwei@@ 1657
Ear@@ 1655
Hé@@ 1655
erwor@@ 1655
tradition@@ 1655
ury 1654
Tac@@ 1653
ał@@ 1653
Amer@@ 1652
BR@@ 1652
chise 1652
gesich@@ 1652
Franco 1651
box@@ 1651
Base 1650
Claudia 1650
Sri 1650
moor 1650
ähe 1650
Guar@@ 1649
Old@@ 1649
SSR 1649
igs 1649
programme 1649
KK 1648
eva 1648
quer@@ 1648
Bist@@ 1647
Eddie 1647
33@@ 1646
Guy 1646
ating 1646
g. 1646
à@@ 1646
Das@@ 1645
Grant 1645
Julian 1645
board 1645
jar@@ 1645
Warner 1644
bra 1644
Piet@@ 1643
leun@@ 1643
rüst@@ 1642
apel 1641
oga 1641
1781 1640
but 1640
propag@@ 1640
rea 1640
völ@@ 1640
Mack@@ 1639
oon 1639
tre 1639
Barthol@@ 1638
Sla@@ 1638
atius 1638
gres@@ 1638
ourt 1638
play 1638
unterrich@@ 1638
ühm@@ 1638
Camp 1637
Hansen 1637
format 1637
lies 1637
Action 1636
Oregon 1636
Würz@@ 1636
aca 1636
atta 1636
brie@@ 1636
scheiden 1636
tico 1636
IN 1635
uta 1635
108 1634
240 1634
Elem@@ 1634
rhyth@@ 1634
ş 1633
Agent 1632
Luigi 1632
öz@@ 1632
Billboard 1631
Guill@@ 1631
transport 1631
Seoul 1630
efs 1630
ilom@@ 1629
tempor@@ 1629
Bombar@@ 1628
Lords 1628
Münch@@ 1628
PG 1628
Vision 1628
legend@@ 1628
rolog@@ 1628
Cooper 1627
sal 1627
Field 1626
iri 1626
Wed@@ 1625
ón@@ 1625
Sex@@ 1624
Telegra@@ 1624
egal 1624
emot@@ 1624
BE@@ 1623
wing 1623
Gary 1622
Zagreb 1622
orio 1622
Hild@@ 1620
Type 1620
Tō@@ 1620
Wrestling 1620
down 1620
Austral@@ 1619
nig@@ 1619
Primera 1618
Verlu@@ 1618
ounds 1617
thers 1617
Hard 1616
eb 1616
ht@@ 1616
Knight 1615
Pag@@ 1615
adas 1615
Classic 1614
Pis@@ 1614
asser@@ 1614
Willi@@ 1613
engag@@ 1613
DF 1612
Kai 1612
Shō@@ 1612
Spin@@ 1612
schnit@@ 1612
vik 1612
BB@@ 1611
Elite 1610
Jonas 1610
Ress@@ 1610
Schles@@ 1610
indungs@@ 1610
Morris 1609
Silva 1609
Cleveland 1608
Your 1608
Fitz@@ 1607
ech 1607
ng 1606
Town@@ 1605
sicherungs@@ 1605
Book 1604
ishi 1604
gebau@@ 1603
Brothers 1602
Cul@@ 1602
Boy 1601
Deh@@ 1601
Java 1601
Journ@@ 1601
Mail 1601
ind 1601
sko 1601
ström 1601
Gefangen@@ 1600
analog 1600
relati@@ 1600
Harold 1599
Lut@@ 1599
style 1599
Robinson 1598
Say@@ 1598
Sky@@ 1598
ρ@@ 1598
Catherine 1597
Dez@@ 1597
Eurovision 1597
II@@ 1597
oba 1597
Ce@@ 1596
Jason 1596
Norwe@@ 1596
Zoo 1596
ny@@ 1596
kne@@ 1595
rier 1595
then@@ 1595
Katholi@@ 1594
bler 1594
Epis@@ 1593
Coast 1592
Commission 1592
hammer 1592
Alabama 1591
Birmingham 1591
Jules 1591
eindeuti@@ 1591
1760 1590
Championships 1590
Event 1590
sist@@ 1589
MTV 1588
Martha 1588
Survey 1588
ė 1588
Luftw@@ 1587
aupt@@ 1587
dil@@ 1587
thol@@ 1587
39@@ 1585
Aller@@ 1585
FM 1585
Gmina 1585
Verl@@ 1585
ansässi@@ 1585
can 1585
orter 1585
Head 1584
manager 1584
£ 1584
borough 1583
enda 1583
109 1582
Kent 1580
ju 1580
Saw@@ 1579
bine 1579
ι@@ 1579
Kaw@@ 1578
Mine 1578
Brom@@ 1577
sports 1577
Malaysia 1576
Venezuela 1576
anl@@ 1576
ehemal@@ 1576
Inn 1575
Medical 1575
Snow@@ 1575
Alberto 1574
Italia 1574
chester 1574
Gene 1572
jun@@ 1572
tons 1572
umin@@ 1572
züglich 1572
Bundest@@ 1571
dier 1571
Drehbuch@@ 1570
aj 1570
SB@@ 1569
Vegas 1569
Drag@@ 1568
gradu@@ 1568
zzo 1568
Hern@@ 1567
utter 1567
ione 1565
Joan 1563
gramm@@ 1563
iqu@@ 1563
Cun@@ 1562
Nancy 1562
into 1562
1779 1561
dal 1561
fug@@ 1561
rap@@ 1560
tica 1560
Château 1559
aba 1559
Digital 1558
107 1557
Cic@@ 1557
Teh@@ 1557
nex@@ 1557
[...]
