{"[PAD]":0,"[SOS]":1,"[EOS]":2,"[UNK]":3,"[MASK]":4,"!":5,"#":6,"$":7,"%":8,"&":9,"(":10,")":11,"*":12,"+":13,",":14,"-":15,".":16,"/":17,"0":18,"1":19,"2":20,"3":21,"4":22,"5":23,"6":24,"7":25,"8":26,"9":27,":":28,";":29,"=":30,"?":31,"@":32,"A":33,"B":34,"C":35,"D":36,"E":37,"F":38,"G":39,"H":40,"I":41,"J":42,"K":43,"L":44,"M":45,"N":46,"O":47,"P":48,"Q":49,"R":50,"S":51,"T":52,"U":53,"V":54,"W":55,"X":56,"Y":57,"Z":58,"\\":59,"_":60,"a":61,"b":62,"c":63,"d":64,"e":65,"f":66,"g":67,"h":68,"i":69,"j":70,"k":71,"l":72,"m":73,"n":74,"o":75,"p":76,"q":77,"r":78,"s":79,"t":80,"u":81,"v":82,"w":83,"x":84,"y":85,"z":86,"{":87,"}":88,"~":89,"£":90,"¤":91,"§":92,"©":93,"®":94,"°":95,"²":96,"³":97,"¶":98,"·":99,"º":100,"¼":101,"Á":102,"Ã":103,"Ä":104,"É":105,"Ö":106,"Ü":107,"ß":108,"à":109,"á":110,"â":111,"ã":112,"ä":113,"å":114,"æ":115,"ç":116,"è":117,"é":118,"ê":119,"ë":120,"ì":121,"í":122,"î":123,"ï":124,"ð":125,"ñ":126,"ò":127,"ó":128,"ô":129,"ö":130,"ø":131,"ù":132,"ú":133,"ü":134,"ý":135,"ÿ":136,"ā":137,"ă":138,"ą":139,"ć":140,"Č":141,"č":142,"ę":143,"ě":144,"ğ":145,"ı":146,"ł":147,"ń":148,"ň":149,"ő":150,"ř":151,"ś":152,"ş":153,"Š":154,"š":155,"ż":156,"ž":157,"α":158,"β":159,"ε":160,"ι":161,"ν":162,"ο":163,"ρ":164,"σ":165,"τ":166,"В":167,"Г":168,"С":169,"а":170,"б":171,"в":172,"г":173,"д":174,"е":175,"ж":176,"з":177,"и":178,"й":179,"к":180,"л":181,"м":182,"н":183,"о":184,"п":185,"р":186,"с":187,"т":188,"у":189,"х":190,"ц":191,"ч":192,"ш":193,"ы":194,"ь":195,"ю":196,"я":197,"і":198,"ј":199,"ا":200,"•":201,"€":202,"™":203,"�":204,"en":205,"er":206,"in":207,"ch":208,"th":209,"an":210,"es":211,"on":212,"un":213,"is":214,"at":215,"it":216,"ie":217,"or":218,"al":219,"the":220,"re":221,"st":222,"ar":223,"der":224,"ich":225,"ion":226,"as":227,"ur":228,"le":229,"te":230,"and":231,"of":232,"ein":233,"ge":234,"ent":235,"to":236,"be":237,"au":238,"und":239,"de":240,"om":241,"ung":242,"die":243,"ing":244,"ro":245,"den":246,"el":247,"wi":248,"ig":249,"ic":250,"ed":251,"am":252,"ol":253,"us":254,"im":255,"il":256,"ter":257,"ver":258,"for":259,"ten":260,"sch":261,"ot":262,"se":263,"op":264,"zu":265,"ation":266,"ab":267,"ut":268,"he":269,"ra":270,"we":271,"ies":272,"-@":273,"@-@":274,"hr":275,"em":276,"ist":277,"ul":278,"os":279,"ct":280,"qu":281,"ber":282,"ne":283,"gen":284,"lich":285,"ve":286,"ap":287,"ür":288,"icht":289,"isch":290,"um":291,"all":292,"das":293,"ier":294,"ir":295,"pro":296,"ke":297,"that":298,"omm":299,"con":300,"so":301,"est":302,"ess":303,"ach":304,"von":305,"wir":306,"auf":307,"are":308,"wh":309,"ce":310,"wer":311,"sp":312,"id":313,"ad":314,"ll":315,"et":316,"In":317,"für":318,"mit":319,"ly":320,"urop":321,"kt":322,"ere":323,"des":324,"our":325,"if":326,"ort":327,"eine":328,"quot":329,"la":330,"ck":331,"with":332,"ind":333,"tr":334,"su":335,"pr":336,"aus":337,"dies":338,"Europ":339,"ow":340,"The":341,"Ver":342,"dem":343,"af":344,"me":345,"iv":346,"ment":347,"ou":348,"ag":349,"men":350,"ts":351,"iss":352,"ell":353,"ate":354,"apos":355,"ha":356,"Un":357,"ungen":358,"ex":359,"ischen":360,"da":361,"gr":362,"ta":363,"ma":364,"nen":365,"ben":366,"fr":367,"co":368,"com":369,"00":370,"this":371,"res":372,"not":373,"ien":374,"lo":375,"ze":376,"nicht":377,"An":378,"ity":379,"sich":380,"art":381,"ive":382,"ges":383,"ust":384,"Re":385,"ant":386,"St":387,"end":388,"über":389,"ho":390,"ers":391,"Sie":392,"än":393,"werden":394,"li":395,"dass":396,"by":397,"lie":398,"auch":399,"ial":400,"ah":401,"ib":402,"ann":403,"port":404,"ser":405,"have":406,"wor":407,"sen":408,"vor":409,"fa":410,"igen":411,"wo":412,"uld":413,"Be":414,"pe":415,"will":416,"its":417,"ht":418,"ommiss":419,"Die":420,"ern":421,"fe":422,"ik":423,"oll":424,"tz":425,"als":426,"wie":427,"Europe":428,"iel":429,"you":430,"tel":431,"man":432,"du":433,"hen":434,"which":435,"ions":436,"ay":437,"ac":438,"no":439,"hal":440,"was":441,"Sch":442,"ther":443,"mo":444,"ungs":445,"tra":446,"hat":447,"ommission":448,"up":449,"ted":450,"We":451,"has":452,"schaf":453,"str":454,"ste":455,"per":456,"ident":457,"Pro":458,"form":459,"sind":460,"from":461,"einer":462,"..":463,"out":464,"age":465,"En":466,"can":467,"fer":468,"wird":469,"ip":470,"ard":471,"fü":472,"able":473,"pos":474,"inter":475,"do":476,"fen":477,"ug":478,"bei":479,"uss":480,"Par":481,"aben":482,"imm":483,"Th":484,"one":485,"ure":486,"je":487,"ische":488,"ön":489,"Er":490,"einen":491,"her":492,"fin":493,"ger":494,"Ar":495,"ament":496,"enn":497,"ft":498,"European":499,"pol":500,"iz":501,"br":502,"bes":503,"ise":504,"cl":505,"urch":506,"ine":507,"pl":508,"unter":509,"oder":510,"Au":511,"iten":512,"gan":513,"ite":514,"zur":515,"haben":516,"od":517,"Her":518,"hren":519,"sh":520,"sie":521,"Mit":522,"ige":523,"ire":524,"po":525,"200":526,"ide":527,"Aus":528,"ore":529,"Pr":530,"also":531,"ass":532,"Ho":533,"uns":534,"ations":535,"ally":536,"lichen":537,"ia":538,"part":539,"war":540,"ational":541,"ction":542,"Fr":543,"chen":544,"ult":545,"ition":546,"comp":547,"Ein":548,"mö":549,"ät":550,"aten":551,"dern":552,"kön":553,"reg":554,"dr":555,"hl":556,"ank":557,"Wir":558,"nach":559,"ang":560,"spe":561,"schaft":562,"io":563,"cht":564,"ill":565,"Union":566,"ok":567,"che":568,"ated":569,"ange":570,"Ge":571,"ob":572,"sten":573,"ans":574,"ieren":575,"og":576,"ice":577,"äs":578,"very":579,"go":580,"alle":581,"ff":582,"är":583,"stell":584,"ates":585,"gro":586,"ble":587,"leg":588,"rit":589,"Se":590,"dar":591,"Ich":592,"work":593,"hin":594,"cess":595,"vel":596,"ander":597,"EU":598,"durch":599,"keit":600,"iert":601,"ear":602,"ish":603,"einem":604,"ord":605,"ue":606,"kann":607,"Mr":608,"yst":609,"ember":610,"Vor":611,"comm":612,"Commission":613,"elt":614,"wur":615,"coun":616,"Gr":617,"national":618,"ight":619,"Das":620,"Ber":621,"pt":622,"tet":623,"ün":624,"your":625,"ub":626,"Herr":627,"weit":628,"ystem":629,"cre":630,"but":631,"ign":632,"there":633,"können":634,"liche":635,"ical":636,"It":637,"bo":638,"tim":639,"use":640,"igh":641,"beit":642,"ih":643,"more":644,"ast":645,"ommen":646,"fre":647,"ken":648,"ance":649,"ary":650,"ame":651,"now":652,"pre":653,"would":654,"ör":655,"Europä":656,"ome":657,"Ab":658,"mar":659,"chte":660,"heit":661,"19":662,"ud":663,"sho":664,"Ent":665,"ple":666,"ain":667,"lic":668,"sel":669,"üs":670,"ese":671,"ahr":672,"zum":673,"been":674,"Le":675,"cial":676,"&#":677,"ak":678,"lin":679,"land":680,"tre":681,"dis":682,"wä":683,"pla":684,"their":685,"diese":686,"zen":687,"glich":688,"other":689,"gel":690,"Ges":691,"polit":692,"ins":693,"any":694,"bar":695,"ile":696,"min":697,"should":698,"gt":699,"Pres":700,"Unter":701,"This":702,"ens":703,"nur":704,"ute":705,"De":706,"cr":707,"hand":708,"chn":709,"neh":710,"mer":711,"Al":712,"av":713,"Kon":714,"prov":715,"uch":716,"ents":717,"produ":718,"ution":719,"act":720,"ierung":721,"par":722,"way":723,"äsident":724,"ner":725,"unser":726,"Es":727,"soll":728,"Kommission":729,"ong":730,"teil":731,"noch":732,"new":733,"reich":734,"ück":735,"dieser":736,"daß":737,"countr":738,"sol":739,"For":740,"must":741,"ase":742,"Der":743,"under":744,"gram":745,"who":746,"etz":747,"ahl":748,"ian":749,"geb":750,"bet":751,"vie":752,"ktion":753,"Co":754,"kon":755,"ful":756,"stand":757,"Sp":758,"bere":759,"net":760,"ev":761,"gem":762,"fol":763,"Ih":764,"Hotel":765,"Dies":766,"ely":767,"ater":768,"tro":769,"mehr":770,"...":771,"Te":772,"President":773,"sta":774,"own":775,"20":776,"schen":777,"ces":778,"cent":779,"sit":780,"sein":781,"aber":782,"glie":783,"they":784,"over":785,"Inter":786,"Präsident":787,"like":788,"sup":789,"müs":790,"day":791,"fore":792,"formation":793,"cur":794,"ities":795,"wenn":796,"sib":797,"ings":798,"ks":799,"kl":800,"wick":801,"gegen":802,"ments":803,"year":804,"anz":805,"gre":806,"lament":807,"ual":808,"utz":809,"Auf":810,"Reg":811,"ef":812,"ßen":813,"nah":814,"Um":815,"leich":816,"ty":817,"off":818,"only":819,"Ma":820,"müssen":821,"kommen":822,"system":823,"wurde":824,"time":825,"Mitglie":826,"Fra":827,"get":828,"liament":829,"stat":830,"olle":831,"serv":832,"cil":833,"Parlament":834,"about":835,"immer":836,"fl":837,"assen":838,"nis":839,"pres":840,"zw":841,"cy":842,"gesch":843,"amp":844,"velop":845,"Ze":846,"need":847,"cts":848,"hn":849,"ded":850,"Member":851,"ced":852,"nehmen":853,"alt":854,"ms":855,"ph":856,"ütz":857,"olog":858,"führ":859,"cons":860,"ious":861,"Mar":862,"oc":863,"ität":864,"king":865,"sehr":866,"tain":867,"some":868,"fir":869,"these":870,"ause":871,"ammen":872,"ative":873,"tell":874,"bie":875,"ack":876,"ied":877,"sa":878,"import":879,"10":880,"Men":881,"ild":882,"Europäischen":883,"dire":884,"diesem":885,"onder":886,"usammen":887,"report":888,"ld":889,"stit":890,"bis":891,"setz":892,"ors":893,"such":894,"ket":895,"Parliament":896,"eines":897,"ichtig":898,"mat":899,"wen":900,"tern":901,"weiter":902,"Bes":903,"develop":904,"erson":905,"ular":906,"best":907,"ibt":908,"det":909,"vers":910,"ustr":911,"dif":912,"ility":913,"ople":914,"kte":915,"ihre":916,"gu":917,"dam":918,"int":919,"igkeit":920,"erg":921,"ateg":922,"Mitglied":923,"my":924,"atz":925,"ures":926,"los":927,"ific":928,"änd":929,"ctive":930,"halten":931,"iven":932,"rel":933,"möchte":934,"sche":935,"tho":936,"uß":937,"oper":938,"As":939,"geben":940,"viel":941,"most":942,"many":943,"gest":944,"come":945,"people":946,"ism":947,"sub":948,"what":949,"States":950,"them":951,"ihr":952,"unden":953,"into":954,"conom":955,"cle":956,"12":957,"bal":958,"mal":959,"bas":960,"ating":961,"entr":962,"inv":963,"iden":964,"Ne":965,"neu":966,"cause":967,"well":968,"amen":969,"ient":970,"mon":971,"uropä":972,"Im":973,"ds":974,"Coun":975,"iger":976,"pub":977,"just":978,"arbeit":979,"lung":980,"Jahr":981,"wel":982,"international":983,"äl":984,"countries":985,"zeit":986,"ement":987,"zie":988,"lau":989,"Über":990,"stru":991,"Zeit":992,"ices":993,"ats":994,"igt":995,"vo":996,"Or":997,"por":998,"Bericht":999,"Con":1000,"isten":1001,"mach":1002,"hier":1003,"Frau":1004,"Ch":1005,"itte":1006,"zwe":1007,"son":1008,"vis":1009,"Council":1010,"polic":1011,"europä":1012,"So":1013,"view":1014,"Me":1015,"xt":1016,"dition":1017,"fo":1018,"pen":1019,"techn":1020,"ansp":1021,"stellen":1022,"pon":1023,"than":1024,"Menschen":1025,"ider":1026,"econom":1027,"dec":1028,"were":1029,"hel":1030,"order":1031,"read":1032,"partic":1033,"eing":1034,"gleich":1035,"och":1036,"stütz":1037,"agre":1038,"wend":1039,"les":1040,"support":1041,"änder":1042,"hol":1043,"when":1044,"incl":1045,"ieden":1046,"legen":1047,"dieses":1048,"tschaft":1049,"Tr":1050,"important":1051,"led":1052,"Comm":1053,"emp":1054,"etzt":1055,"propos":1056,"essen":1057,"Mitgliedsta":1058,"program":1059,"ert":1060,"Land":1061,"again":1062,"qual":1063,"first":1064,"Str":1065,"vom":1066,"zwischen":1067,"allen":1068,"bre":1069,"cont":1070,"know":1071,"ards":1072,"ory":1073,"ru":1074,"enz":1075,"ail":1076,"roug":1077,"deut":1078,"US":1079,"sible":1080,"lä":1081,"ele":1082,"ließ":1083,"besonder":1084,"Entwick":1085,"sowie":1086,"gibt":1087,"halb":1088,"room":1089,"make":1090,"vent":1091,"ale":1092,"ween":1093,"Pol":1094,"hör":1095,"ights":1096,"ages":1097,"quest":1098,"Ger":1099,"because":1100,"Nach":1101,"press":1102,"bin":1103,"ster":1104,"halt":1105,"fact":1106,"between":1107,"ence":1108,"take":1109,"where":1110,"rei":1111,"Fin":1112,"forder":1113,"ives":1114,"issen":1115,"cour":1116,"oft":1117,"gar":1118,"proble":1119,"loc":1120,"rat":1121,"arge":1122,"fra":1123,"Grund":1124,"muss":1125,"Zu":1126,"Bere":1127,"gew":1128,"möglich":1129,"thing":1130,"eng":1131,"oh":1132,"bs":1133,"erv":1134,"Mitgliedstaaten":1135,"his":1136,"set":1137,"gh":1138,"bed":1139,"zial":1140,"ural":1141,"ject":1142,"äch":1143,"ware":1144,"uation":1145,"wür":1146,"world":1147,"hotel":1148,"main":1149,"He":1150,"mp":1151,"Art":1152,"ister":1153,"unsere":1154,"els":1155,"inn":1156,"bst":1157,"see":1158,"trag":1159,"bu":1160,"Europa":1161,"keine":1162,"Arbeit":1163,"issu":1164,"93":1165,"fort":1166,"All":1167,"ci":1168,"information":1169,"ßer":1170,"same":1171,"91":1172,"igung":1173,"Fl":1174,"istr":1175,"organ":1176,"Produ":1177,"Min":1178,"ital":1179,"spr":1180,"Zusammen":1181,"Rat":1182,"right":1183,"made":1184,"nat":1185,"ous":1186,"cted":1187,"here":1188,"akt":1189,"bel":1190,"Proble":1191,"versch":1192,"anderen":1193,"lag":1194,"line":1195,"policy":1196,"clear":1197,"bess":1198,"ionen":1199,"two":1200,"icher":1201,"jed":1202,"sicht":1203,"unkt":1204,"bring":1205,"ähr":1206,"arr":1207,"Ihre":1208,"Vorsch":1209,"öff":1210,"those":1211,"real":1212,"sicher":1213,"Ihnen":1214,"zahl":1215,"respon":1216,"voll":1217,"dit":1218,"years":1219,"finden":1220,"ink":1221,"unity":1222,"even":1223,"letz":1224,"being":1225,"ler":1226,"llen":1227,"then":1228,"ße":1229,"schließ":1230,"Ex":1231,"prom":1232,"ting":1233,"If":1234,"brauch":1235,"Kr":1236,"gemein":1237,"nahmen":1238,"Wenn":1239,"ischer":1240,"public":1241,"sc":1242,"uman":1243,"ständ":1244,"weise":1245,"every":1246,"itik":1247,"throug":1248,"good":1249,"chten":1250,"Br":1251,"wever":1252,"ys":1253,"währ":1254,"mittel":1255,"isation":1256,"Haus":1257,"chä":1258,"wa":1259,"ös":1260,"high":1261,"belie":1262,"num":1263,"Mon":1264,"Bereich":1265,"med":1266,"cept":1267,"effe":1268,"welt":1269,"spre":1270,"keiten":1271,"ko":1272,"dann":1273,"cer":1274,"diesen":1275,"ional":1276,"particular":1277,"weil":1278,"ument":1279,"market":1280,"fall":1281,"less":1282,"199":1283,"uring":1284,"ium":1285,"damit":1286,"offen":1287,"Pl":1288,"vir":1289,"nung":1290,"Sta":1291,"may":1292,"ited":1293,"deb":1294,"amil":1295,"vern":1296,"last":1297,"innen":1298,"had":1299,"beste":1300,"acht":1301,"att":1302,"To":1303,"stehen":1304,"isen":1305,"urn":1306,"lang":1307,"present":1308,"fahren":1309,"gener":1310,"ändern":1311,"say":1312,"conc":1313,"find":1314,"trans":1315,"stitution":1316,"Des":1317,"person":1318,"wichtig":1319,"wieder":1320,"beg":1321,"bus":1322,"jo":1323,"lish":1324,"tem":1325,"zeich":1326,"how":1327,"15":1328,"lim":1329,"err":1330,"chts":1331,"economic":1332,"process":1333,"wurden":1334,"Europäische":1335,"rest":1336,"Welt":1337,"Gro":1338,"Bür":1339,"differ":1340,"gra":1341,"There":1342,"gehen":1343,"wirtschaft":1344,"requ":1345,"wohl":1346,"trä":1347,"habe":1348,"del":1349,"sure":1350,"aut":1351,"rag":1352,"ior":1353,"ict":1354,"possible":1355,"entlich":1356,"lage":1357,"Ja":1358,"Hand":1359,"wort":1360,"fach":1361,"On":1362,"Diese":1363,"Gem":1364,"kr":1365,"place":1366,"Bo":1367,"unserer":1368,"sondern":1369,"air":1370,"star":1371,"wirk":1372,"reichen":1373,"ält":1374,"fund":1375,"play":1376,"human":1377,"elle":1378,"grund":1379,"ven":1380,"rif":1381,"concern":1382,"ters":1383,"No":1384,"ough":1385,"iti":1386,"ree":1387,"used":1388,"aum":1389,"aller":1390,"val":1391,"rent":1392,"prote":1393,"Ihr":1394,"ade":1395,"political":1396,"trol":1397,"einz":1398,"lobal":1399,"Sicher":1400,"fest":1401,"Wo":1402,"uro":1403,"incre":1404,"app":1405,"jedoch":1406,"iness":1407,"cor":1408,"point":1409,"Än":1410,"tegr":1411,"Gen":1412,"far":1413,"führen":1414,"alth":1415,"ßnahmen":1416,"di":1417,"rights":1418,"ker":1419,"angen":1420,"ows":1421,"put":1422,"30":1423,"after":1424,"Was":1425,"ausge":1426,"Änder":1427,"sim":1428,"You":1429,"ellen":1430,"fun":1431,"ace":1432,"area":1433,"industr":1434,"seine":1435,"heute":1436,"comple":1437,"ath":1438,"System":1439,"lagen":1440,"contin":1441,"development":1442,"through":1443,"neue":1444,"richt":1445,"gestell":1446,"Program":1447,"change":1448,"eln":1449,"Fe":1450,"ince":1451,"transp":1452,"erst":1453,"hö":1454,"europäischen":1455,"Unternehmen":1456,"Information":1457,"ants":1458,"Bar":1459,"text":1460,"want":1461,"tens":1462,"isp":1463,"ick":1464,"appro":1465,"lassen":1466,"uer":1467,"plic":1468,"access":1469,"mich":1470,"ith":1471,"therefore":1472,"itt":1473,"fahr":1474,"level":1475,"ready":1476,"does":1477,"Ind":1478,"000":1479,"bereits":1480,"Bet":1481,"help":1482,"against":1483,"satz":1484,"could":1485,"govern":1486,"fung":1487,"wert":1488,"loy":1489,"raft":1490,"sur":1491,"Gemein":1492,"Entwicklung":1493,"Ro":1494,"Teil":1495,"exam":1496,"ihrer":1497,"kle":1498,"icult":1499,"Richt":1500,"finan":1501,"exper":1502,"sollte":1503,"provide":1504,"ganz":1505,"ix":1506,"ability":1507,"country":1508,"ohne":1509,"within":1510,"pect":1511,"Wie":1512,"50":1513,"number":1514,"pra":1515,"great":1516,"18":1517,"prof":1518,"itä":1519,"utions":1520,"sign":1521,"Res":1522,"var":1523,"selbst":1524,"Frage":1525,"dat":1526,"ittee":1527,"neuen":1528,"operation":1529,"aur":1530,"denen":1531,"fle":1532,"Bürger":1533,"adt":1534,"gung":1535,"viron":1536,"At":1537,"hist":1538,"ude":1539,"führt":1540,"gent":1541,"ulation":1542,"social":1543,"Man":1544,"much":1545,"both":1546,"tal":1547,"meas":1548,"Sit":1549,"ierte":1550,"Pre":1551,"sollten":1552,"back":1553,"andere":1554,"Am":1555,"key":1556,"cap":1557,"ason":1558,"Leben":1559,"Jahren":1560,"sm":1561,"position":1562,"Mö":1563,"Ko":1564,"large":1565,"old":1566,"open":1567,"ga":1568,"kom":1569,"look":1570,"ved":1571,"ierten":1572,"group":1573,"still":1574,"que":1575,"zug":1576,"consider":1577,"Fre":1578,"Wer":1579,"Mo":1580,"einfach":1581,"lick":1582,"avail":1583,"unterstütz":1584,"vironment":1585,"woll":1586,"cit":1587,"schafts":1588,"ics":1589,"immt":1590,"ätz":1591,"Daten":1592,"hop":1593,"kehr":1594,"Is":1595,"Part":1596,"offer":1597,"posit":1598,"eigen":1599,"ests":1600,"Chin":1601,"fä":1602,"agement":1603,"Mittel":1604,"down":1605,"ros":1606,"machen":1607,"priv":1608,"free":1609,"spec":1610,"ask":1611,"fut":1612,"hän":1613,"without":1614,"Kom":1615,"ctor":1616,"Kommiss":1617,"fur":1618,"ffic":1619,"ep":1620,"zwei":1621,"ret":1622,"une":1623,"esen":1624,"oftware":1625,"grö":1626,"hlen":1627,"zeug":1628,"kun":1629,"ision":1630,"believe":1631,"unt":1632,"tow":1633,"schn":1634,"nahme":1635,"besondere":1636,"Ste":1637,"long":1638,"luss":1639,"different":1640,"geht":1641,"seit":1642,"bil":1643,"bur":1644,"inc":1645,"licher":1646,"quality":1647,"Dem":1648,"certain":1649,"inst":1650,"sprechen":1651,"services":1652,"Bed":1653,"inner":1654,"power":1655,"dazu":1656,"sk":1657,"ER":1658,"ised":1659,"liegt":1660,"arbe":1661,"komm":1662,"ime":1663,"kten":1664,"verschieden":1665,"az":1666,"ctions":1667,"ren":1668,"thor":1669,"current":1670,"future":1671,"eld":1672,"gef":1673,"strateg":1674,"üh":1675,"Stand":1676,"rap":1677,"cord":1678,"global":1679,"denn":1680,"eben":1681,"alten":1682,"ship":1683,"law":1684,"already":1685,"besch":1686,"Maßnahmen":1687,"11":1688,"ways":1689,"ator":1690,"Arbe":1691,"besser":1692,"fern":1693,"legal":1694,"too":1695,"ispiel":1696,"require":1697,"könn":1698,"Da":1699,"ves":1700,"darauf":1701,"mir":1702,"anges":1703,"statt":1704,"Tre":1705,"Ziel":1706,"think":1707,"member":1708,"ux":1709,"ahmen":1710,"viele":1711,"Person":1712,"employ":1713,"today":1714,"bt":1715,"kes":1716,"Wor":1717,"ollow":1718,"pass":1719,"jetzt":1720,"ichte":1721,"That":1722,"Möglich":1723,"ists":1724,"omen":1725,"ktur":1726,"Finanz":1727,"ivid":1728,"Rahmen":1729,"recht":1730,"course":1731,"cannot":1732,"stellung":1733,"sor":1734,"ienst":1735,"bietet":1736,"iß":1737,"disc":1738,"But":1739,"lif":1740,"ritt":1741,"fil":1742,"124":1743,"gestellt":1744,"betr":1745,"ize":1746,"cing":1747,"Internet":1748,"let":1749,"okrat":1750,"ismus":1751,"klär":1752,"available":1753,"before":1754,"bau":1755,"environment":1756,"uf":1757,"Commissioner":1758,"Energ":1759,"redu":1760,"Herrn":1761,"business":1762,"isl":1763,"neg":1764,"curity":1765,"iver":1766,"sam":1767,"mb":1768,"nor":1769,"met":1770,"imin":1771,"ving":1772,"nisse":1773,"sehen":1774,"atur":1775,"ness":1776,"EN":1777,"isk":1778,"question":1779,"Aussch":1780,"imple":1781,"pf":1782,"red":1783,"ustom":1784,"service":1785,"seiner":1786,"citiz":1787,"entwick":1788,"case":1789,"situation":1790,"technolog":1791,"dafür":1792,"opt":1793,"agen":1794,"uck":1795,"integr":1796,"zus":1797,"uten":1798,"Med":1799,"har":1800,"invest":1801,"enter":1802,"mor":1803,"gut":1804,"olution":1805,"kur":1806,"row":1807,"design":1808,"products":1809,"2009":1810,"findet":1811,"jor":1812,"anken":1813,"Af":1814,"issue":1815,"cond":1816,"wissen":1817,"schon":1818,"debate":1819,"ically":1820,"öl":1821,"Fall":1822,"nam":1823,"fair":1824,"financial":1825,"ante":1826,"proposal":1827,"Russ":1828,"einige":1829,"saf":1830,"suc":1831,"lossen":1832,"Informationen":1833,"Kommissar":1834,"energ":1835,"falls":1836,"gend":1837,"necess":1838,"ience":1839,"folg":1840,"ues":1841,"Euro":1842,"data":1843,"ahre":1844,"heiten":1845,"bereit":1846,"zusammen":1847,"setzung":1848,"Verein":1849,"ately":1850,"spra":1851,"arch":1852,"leist":1853,"Kin":1854,"Amer":1855,"Rechts":1856,"special":1857,"gesam":1858,"alen":1859,"verb":1860,"follow":1861,"nun":1862,"reason":1863,"Politik":1864,"meine":1865,"gress":1866,"Po":1867,"regard":1868,"achie":1869,"sagen":1870,"begr":1871,"zentr":1872,"said":1873,"Lage":1874,"würde":1875,"amer":1876,"car":1877,"conf":1878,"udget":1879,"bieten":1880,"enth":1881,"fully":1882,"Com":1883,"16":1884,"Arbeits":1885,"ont":1886,"activ":1887,"meet":1888,"fast":1889,"individ":1890,"Tra":1891,"allem":1892,"problem":1893,"ihren":1894,"Parlaments":1895,"äß":1896,"uding":1897,"14":1898,"wach":1899,"äm":1900,"kunft":1901,"stellt":1902,"And":1903,"wollen":1904,"liegen":1905,"heits":1906,"nov":1907,"zurück":1908,"ett":1909,"Serv":1910,"plan":1911,"example":1912,"worden":1913,"ides":1914,"Länder":1915,"direct":1916,"antwort":1917,"bewer":1918,"ica":1919,"ziel":1920,"means":1921,"miss":1922,"adv":1923,"illion":1924,"bl":1925,"amend":1926,"Vorschlag":1927,"Qu":1928,"IN":1929,"immung":1930,"isierung":1931,"Committee":1932,"aterial":1933,"punkt":1934,"abil":1935,"iving":1936,"major":1937,"uni":1938,"folgen":1939,"sozial":1940,"char":1941,"action":1942,"ply":1943,"ible":1944,"La":1945,"call":1946,"Pal":1947,"Kolle":1948,"hof":1949,"pay":1950,"Ad":1951,"grow":1952,"rie":1953,"cost":1954,"cas":1955,"custom":1956,"author":1957,"measures":1958,"ichter":1959,"compet":1960,"count":1961,"taken":1962,"13":1963,"rooms":1964,"haf":1965,"ually":1966,"waren":1967,"gang":1968,"stär":1969,"Best":1970,"However":1971,"Jahre":1972,"nie":1973,"Recht":1974,"since":1975,"iele":1976,"steht":1977,"kün":1978,"citizens":1979,"iter":1980,"common":1981,"unseren":1982,"legt":1983,"applic":1984,"pend":1985,"ensure":1986,"offers":1987,"ordnung":1988,"struct":1989,"ktionen":1990,"agreement":1991,"tun":1992,"bringen":1993,"Spe":1994,"top":1995,"ationen":1996,"Unterstütz":1997,"ilt":1998,"linie":1999,"ying":2000,"iff":2001,"vi":2002,"ward":2003,"na":2004,"inen":2005,"including":2006,"scheid":2007,"Lös":2008,"ordin":2009,"ron":2010,"ffen":2011,"wes":2012,"small":2013,"hig":2014,"allow":2015,"doch":2016,"Nor":2017,"insbesondere":2018,"Änderungs":2019,"page":2020,"during":2021,"lose":2022,"gl":2023,"auto":2024,"oren":2025,"bsite":2026,"17":2027,"schein":2028,"based":2029,"inde":2030,"discuss":2031,"famil":2032,"verfü":2033,"asse":2034,"während":2035,"aupt":2036,"gangen":2037,"Proje":2038,"lungs":2039,"Eine":2040,"ily":2041,"ential":2042,"trib":2043,"energy":2044,"Zwe":2045,"Ant":2046,"Für":2047,"wicht":2048,"schrif":2049,"25":2050,"cell":2051,"cult":2052,"ablish":2053,"cken":2054,"China":2055,"thank":2056,"Und":2057,"dra":2058,"leben":2059,"equ":2060,"EC":2061,"specific":2062,"using":2063,"sy":2064,"mus":2065,"give":2066,"defin":2067,"Lin":2068,"setzen":2069,"AN":2070,"necessary":2071,"control":2072,"chäft":2073,"colle":2074,"With":2075,"Ur":2076,"Mein":2077,"ding":2078,"ound":2079,"etwas":2080,"agt":2081,"areas":2082,"vention":2083,"road":2084,"Unterstützung":2085,"UN":2086,"hmen":2087,"side":2088,"ürlich":2089,"erhalten":2090,"legisl":2091,"gehör":2092,"establish":2093,"arbeiten":2094,"ird":2095,"aren":2096,"aid":2097,"build":2098,"ized":2099,"each":2100,"further":2101,"bank":2102,"ache":2103,"security":2104,"AT":2105,"porte":2106,"budget":2107,"atic":2108,"result":2109,"next":2110,"eas":2111,"mil":2112,"vote":2113,"modern":2114,"Zusammenarbeit":2115,"Stadt":2116,"Our":2117,"IT":2118,"Ländern":2119,"hält":2120,"success":2121,"tes":2122,"ES":2123,"Techn":2124,"Fir":2125,"einmal":2126,"incip":2127,"24":2128,"hope":2129,"stre":2130,"col":2131,"schaften":2132,"problems":2133,"ilfe":2134,"ersten":2135,"Markt":2136,"log":2137,"earch":2138,"three":2139,"letzten":2140,"Ser":2141,"außer":2142,"sing":2143,"Durch":2144,"kä":2145,"sum":2146,"ased":2147,"glichen":2148,"Bild":2149,"jen":2150,"igten":2151,"half":2152,"whe":2153,"utes":2154,"Zimmer":2155,"conta":2156,"gesetzt":2157,"Sicherheit":2158,"ared":2159,"Umwelt":2160,"lik":2161,"opport":2162,"ditions":2163,"cooperation":2164,"2010":2165,"wish":2166,"princip":2167,"ja":2168,"rece":2169,"spiel":2170,"commun":2171,"Group":2172,"bede":2173,"ules":2174,"found":2175,"Problem":2176,"ca":2177,"ged":2178,"bat":2179,"Web":2180,"utzen":2181,"entlichen":2182,"few":2183,"verl":2184,"zess":2185,"city":2186,"ahn":2187,"walt":2188,"health":2189,"tragen":2190,"itz":2191,"genommen":2192,"umf":2193,"ements":2194,"Regierung":2195,"stim":2196,"ichten":2197,"implement":2198,"IS":2199,"Hin":2200,"Qual":2201,"invol":2202,"lungen":2203,"Mad":2204,"histor":2205,"Namen":2206,"glau":2207,"cho":2208,"fts":2209,"while":2210,"Verfü":2211,"why":2212,"verwen":2213,"markt":2214,"given":2215,"streng":2216,"Ital":2217,"sequ":2218,"größ":2219,"örder":2220,"spl":2221,"Form":2222,"Dienst":2223,"ktiv":2224,"addition":2225,"ining":2226,"lead":2227,"2008":2228,"hap":2229,"Beit":2230,"rechte":2231,"pract":2232,"pop":2233,"ines":2234,"protection":2235,"cover":2236,"treten":2237,"uc":2238,"ellschaft":2239,"kauf":2240,"leicht":2241,"ext":2242,"lt":2243,"pack":2244,"Organ":2245,"pat":2246,"besteht":2247,"company":2248,"New":2249,"programm":2250,"Bel":2251,"Deut":2252,"shall":2253,"inform":2254,"führung":2255,"Community":2256,"lemen":2257,"licht":2258,"Spiel":2259,"ierungs":2260,"dress":2261,"spol":2262,"sour":2263,"wär":2264,"drei":2265,"cially":2266,"Dar":2267,"Bei":2268,"fiel":2269,"Kollegen":2270,"umen":2271,"zü":2272,"ises":2273,"wäre":2274,"Fragen":2275,"zieh":2276,"beim":2277,"refer":2278,"esse":2279,"systems":2280,"San":2281,"life":2282,"zept":2283,"Ir":2284,"however":2285,"start":2286,"Vol":2287,"einge":2288,"government":2289,"deren":2290,"Energie":2291,"CO":2292,"sibility":2293,"urs":2294,"gaben":2295,"ising":2296,"wal":2297,"bit":2298,"wendung":2299,"Tag":2300,"ialog":2301,"itäten":2302,"region":2303,"zo":2304,"dig":2305,"politischen":2306,"Vertrag":2307,"Gesch":2308,"initi":2309,"cher":2310,"Ob":2311,"uge":2312,"House":2313,"Sol":2314,"ichterstat":2315,"alled":2316,"nal":2317,"fte":2318,"muß":2319,"Mrs":2320,"Fraktion":2321,"consum":2322,"ified":2323,"United":2324,"handelt":2325,"Rest":2326,"ning":2327,"ivil":2328,"needs":2329,"igin":2330,"Stra":2331,"Bedeut":2332,"diff":2333,"gether":2334,"häng":2335,"respect":2336,"öt":2337,"rele":2338,"Besch":2339,"iety":2340,"Not":2341,"hang":2342,"Entscheid":2343,"lay":2344,"mot":2345,"ively":2346,"compan":2347,"exp":2348,"appe":2349,"complete":2350,"Ben":2351,"Bedeutung":2352,"aurant":2353,"programme":2354,"crit":2355,"prü":2356,"Gu":2357,"Mal":2358,"accept":2359,"pur":2360,"welche":2361,"anal":2362,"Kunden":2363,"clos":2364,"better":2365,"working":2366,"did":2367,"ätze":2368,"rapporte":2369,"mult":2370,"genau":2371,"Eben":2372,"USA":2373,"Staaten":2374,"eig":2375,"100":2376,"poin":2377,"always":2378,"bereich":2379,"Flug":2380,"ader":2381,"self":2382,"Lis":2383,"don":2384,"care":2385,"Ergeb":2386,"Seite":2387,"book":2388,"ling":2389,"state":2390,"Regel":2391,"ton":2392,"iet":2393,"asch":2394,"interest":2395,"What":2396,"assung":2397,"kenn":2398,"wirklich":2399,"dabei":2400,"step":2401,"elf":2402,"reach":2403,"druck":2404,"ingungen":2405,"conne":2406,"trade":2407,"zeigt":2408,"dren":2409,"Schutz":2410,"whether":2411,"ina":2412,"particularly":2413,"lad":2414,"production":2415,"tradition":2416,"recent":2417,"full":2418,"gabe":2419,"transport":2420,"seinen":2421,"rän":2422,"ane":2423,"bind":2424,"dom":2425,"2007":2426,"große":2427,"2000":2428,"ildren":2429,"Mil":2430,"großen":2431,"terms":2432,"issues":2433,"bon":2434,"second":2435,"Strateg":2436,"träge":2437,"Ap":2438,"Port":2439,"Eng":2440,"notwend":2441,"Berichterstat":2442,"halts":2443,"making":2444,"aty":2445,"stra":2446,"ocr":2447,"They":2448,"non":2449,"mut":2450,"account":2451,"deal":2452,"mm":2453,"together":2454,"Rom":2455,"difficult":2456,"Fol":2457,"cks":2458,"Tur":2459,"term":2460,"Programm":2461,"Mus":2462,"Bus":2463,"Geschä":2464,"clus":2465,"EUR":2466,"exist":2467,"role":2468,"Gar":2469,"AR":2470,"low":2471,"contrib":2472,"Aber":2473,"ww":2474,"Lebens":2475,"express":2476,"bestimm":2477,"Thema":2478,"ölker":2479,"bekann":2480,"darüber":2481,"stay":2482,"Möglichkeit":2483,"uments":2484,"uter":2485,"basis":2486,"sector":2487,"centr":2488,"reco":2489,"Probleme":2490,"Li":2491,"gelegen":2492,"ention":2493,"Zug":2494,"Kinder":2495,"tax":2496,"reform":2497,"instit":2498,"Wett":2499,"davon":2500,"Auto":2501,"erforder":2502,"Gener":2503,"Ausschuss":2504,"oti":2505,"going":2506,"dan":2507,"When":2508,"Beispiel":2509,"Frauen":2510,"water":2511,"load":2512,"tschafts":2513,"kosten":2514,"schließlich":2515,"geord":2516,"uft":2517,"guar":2518,"kets":2519,"weisen":2520,"management":2521,"ross":2522,"Verfügung":2523,"commit":2524,"decision":2525,"meiner":2526,"chan":2527,"wand":2528,"proje":2529,"become":2530,"ikan":2531,"näch":2532,"carr":2533,"politik":2534,"extre":2535,"research":2536,"ches":2537,"oth":2538,"vious":2539,"Famil":2540,"Fort":2541,"ners":2542,"daher":2543,"km":2544,"women":2545,"hervor":2546,"Richtlinie":2547,"Service":2548,"wee":2549,"These":2550,"kämp":2551,"Zahl":2552,"enten":2553,"gegenüber":2554,"proper":2555,"fon":2556,"iben":2557,"ifen":2558,"aim":2559,"conditions":2560,"Wahl":2561,"Weise":2562,"wide":2563,"40":2564,"ategor":2565,"iod":2566,"jeder":2567,"ose":2568,"könnte":2569,"hy":2570,"II":2571,"unterstützen":2572,"unde":2573,"enzen":2574,"Fun":2575,"blick":2576,"tour":2577,"Zukunft":2578,"lichkeit":2579,"ums":2580,"International":2581,"another":2582,"opp":2583,"Mill":2584,"deta":2585,"rad":2586,"suchen":2587,"darf":2588,"date":2589,"ash":2590,"igr":2591,"address":2592,"kommt":2593,"Kar":2594,"kre":2595,"whole":2596,"ziehen":2597,"AS":2598,"sever":2599,"benef":2600,"schied":2601,"speak":2602,"Weg":2603,"vour":2604,"pers":2605,"stud":2606,"word":2607,"located":2608,"alles":2609,"short":2610,"bild":2611,"negoti":2612,"sowohl":2613,"klar":2614,"Industr":2615,"neten":2616,"children":2617,"eigenen":2618,"lack":2619,"Situation":2620,"Seiten":2621,"prior":2622,"Artik":2623,"schutz":2624,"list":2625,"ehen":2626,"selves":2627,"kein":2628,"wegen":2629,"ban":2630,"wier":2631,"guarante":2632,"Auch":2633,"Hier":2634,"Per":2635,"sto":2636,"matter":2637,"gn":2638,"ultur":2639,"espe":2640,"spolitik":2641,"joy":2642,"Wettbewer":2643,"proced":2644,"racht":2645,"schnell":2646,"writ":2647,"around":2648,"Minister":2649,"ars":2650,"org":2651,"inclu":2652,"him":2653,"Gegen":2654,"fert":2655,"natürlich":2656,"Viel":2657,"Forsch":2658,"fect":2659,"frei":2660,"üt":2661,"ieg":2662,"Chr":2663,"Mehr":2664,"dist":2665,"companies":2666,"ihnen":2667,"yo":2668,"ktor":2669,"Kre":2670,"industry":2671,"profess":2672,"isions":2673,"anc":2674,"cut":2675,"amework":2676,"samen":2677,"rapporteur":2678,"Als":2679,"local":2680,"stimmung":2681,"aff":2682,"iate":2683,"employment":2684,"ika":2685,"effect":2686,"soc":2687,"weitere":2688,"material":2689,"Rolle":2690,"month":2691,"cris":2692,"coming":2693,"views":2694,"improv":2695,"visit":2696,"third":2697,"vest":2698,"burg":2699,"auer":2700,"done":2701,"gere":2702,"Ende":2703,"Sk":2704,"erreichen":2705,"doc":2706,"scheiden":2707,"Air":2708,"dessen":2709,"äuß":2710,"especially":2711,"hoto":2712,"various":2713,"regul":2714,"DE":2715,"weg":2716,"comes":2717,"cel":2718,"personal":2719,"innov":2720,"Verbrauch":2721,"favour":2722,"finanz":2723,"create":2724,"gegeben":2725,"abhäng":2726,"Ihrer":2727,"Software":2728,"ety":2729,"job":2730,"show":2731,"ences":2732,"besonders":2733,"zwar":2734,"isches":2735,"light":2736,"Währ":2737,"xim":2738,"zip":2739,"60":2740,"innerhalb":2741,"lauf":2742,"approach":2743,"iges":2744,"pose":2745,"dings":2746,"resolution":2747,"demand":2748,"cal":2749,"Grup":2750,"Afr":2751,"site":2752,"instr":2753,"geschlossen":2754,"äd":2755,"resour":2756,"ody":2757,"geführt":2758,"institution":2759,"Produkt":2760,"Kol":2761,"represent":2762,"accord":2763,"entfern":2764,"amm":2765,"adop":2766,"million":2767,"hä":2768,"Wirtschaft":2769,"Vers":2770,"ury":2771,"europäische":2772,"sprache":2773,"crisis":2774,"internationalen":2775,"oney":2776,"Zentr":2777,"ably":2778,"typ":2779,"post":2780,"ground":2781,"distr":2782,"frien":2783,"sele":2784,"hatte":2785,"directive":2786,"verschiedenen":2787,"face":2788,"continue":2789,"ief":2790,"ipt":2791,"gentlemen":2792,"lines":2793,"trodu":2794,"progress":2795,"imp":2796,"origin":2797,"rä":2798,"communic":2799,"IC":2800,"Grün":2801,"rael":2802,"really":2803,"regional":2804,"Berichterstatter":2805,"opin":2806,"serious":2807,"Wirtschafts":2808,"install":2809,"understand":2810,"head":2811,"ativen":2812,"kung":2813,"hil":2814,"round":2815,"80":2816,"Dire":2817,"Alle":2818,"dür":2819,"called":2820,"Haupt":2821,"möchten":2822,"though":2823,"ingen":2824,"2006":2825,"contra":2826,"project":2827,"mitt":2828,"TO":2829,"läs":2830,"Lie":2831,"antrag":2832,"hard":2833,"vielen":2834,"Char":2835,"ifiz":2836,"fficient":2837,"Fahr":2838,"period":2839,"general":2840,"facil":2841,"genann":2842,"private":2843,"Transp":2844,"German":2845,"Meinung":2846,"Den":2847,"hoch":2848,"ization":2849,"draw":2850,"ichts":2851,"automat":2852,"Sy":2853,"near":2854,"rules":2855,"oment":2856,"user":2857,"dort":2858,"centre":2859,"itself":2860,"introdu":2861,"rop":2862,"food":2863,"Je":2864,"ifft":2865,"Gesund":2866,"experience":2867,"Artikel":2868,"peace":2869,"ksam":2870,"Fo":2871,"itor":2872,"Fest":2873,"atives":2874,"ons":2875,"something":2876,"dou":2877,"ances":2878,"Bl":2879,"agr":2880,"product":2881,"aussch":2882,"Abgeord":2883,"asing":2884,"equip":2885,"AL":2886,"folgt":2887,"beach":2888,"organis":2889,"lands":2890,"break":2891,"turn":2892,"schaffen":2893,"among":2894,"ots":2895,"ivers":2896,"terr":2897,"Fisch":2898,"anzu":2899,"Invest":2900,"ither":2901,"Zusammenhang":2902,"big":2903,"single":2904,"mäß":2905,"Tour":2906,"Treaty":2907,"Comp":2908,"Schluss":2909,"feat":2910,"kind":2911,"test":2912,"ierungen":2913,"Nutz":2914,"lock":2915,"agree":2916,"gern":2917,"Deutsch":2918,"War":2919,"institutions":2920,"Madam":2921,"Rück":2922,"least":2923,"nehmer":2924,"Geschäfts":2925,"affen":2926,"befindet":2927,"läge":2928,"Partner":2929,"gesagt":2930,"Su":2931,"ugen":2932,"forward":2933,"sport":2934,"frage":2935,"subject":2936,"taking":2937,"hät":2938,"Kl":2939,"run":2940,"hinaus":2941,"unehmen":2942,"fehl":2943,"ino":2944,"ago":2945,"Gebie":2946,"ativ":2947,"ühr":2948,"ichtet":2949,"Entschließ":2950,"tele":2951,"Technolog":2952,"milit":2953,"ließen":2954,"ferenz":2955,"mention":2956,"Lösung":2957,"ils":2958,"towards":2959,"politische":2960,"Demokrat":2961,"bestehen":2962,"Wind":2963,"Pe":2964,"wind":2965,"entfernt":2966,"Gleich":2967,"einzel":2968,"igkeiten":2969,"idency":2970,"Gemeinschaft":2971,"atten":2972,"gesehen":2973,"RO":2974,"imate":2975,"fang":2976,"ände":2977,"name":2978,"gelegt":2979,"she":2980,"welcome":2981,"teilung":2982,"following":2983,"keep":2984,"zeitig":2985,"El":2986,"table":2987,"Hilfe":2988,"Cl":2989,"wahr":2990,"Komm":2991,"ults":2992,"event":2993,"Haushalts":2994,"AC":2995,"pa":2996,"ende":2997,"ry":2998,"often":2999,"mark":3000,"leistungen":3001,"idar":3002,"version":3003,"My":3004,"Verantwort":3005,"growth":3006,"erste":3007,"close":3008,"flex":3009,"entsprechen":3010,"strong":3011,"langu":3012,"23":3013,"grat":3014,"icle":3015,"Terr":3016,"ritte":3017,"sweise":3018,"software":3019,"vol":3020,"betre":3021,"once":3022,"begrü":3023,"Präsidentin":3024,"Ihren":3025,"Rates":3026,"absol":3027,"werk":3028,"particip":3029,"deli":3030,"ote":3031,"Emp":3032,"increase":3033,"ring":3034,"AG":3035,"Germany":3036,"ians":3037,"edom":3038,"iday":3039,"ragen":3040,"ov":3041,"cke":3042,"Ta":3043,"ols":3044,"positive":3045,"ived":3046,"hnt":3047,"network":3048,"excell":3049,"several":3050,"Jan":3051,"individual":3052,"Members":3053,"Car":3054,"weis":3055,"direkt":3056,"Region":3057,"racy":3058,"Uhr":3059,"money":3060,"house":3061,"Entwicklungs":3062,"daran":3063,"framework":3064,"resources":3065,"konn":3066,"opportunity":3067,"ican":3068,"field":3069,"iken":3070,"leis":3071,"ämlich":3072,"mos":3073,"town":3074,"beiden":3075,"extrem":3076,"Spra":3077,"home":3078,"ours":3079,"indem":3080,"stain":3081,"ification":3082,"ets":3083,"nämlich":3084,"dest":3085,"ival":3086,"gewähr":3087,"things":3088,"amental":3089,"ffiz":3090,"Projekt":3091,"iere":3092,"standards":3093,"ped":3094,"optim":3095,"orn":3096,"Gre":3097,"ittle":3098,"Kultur":3099,"fäh":3100,"Zust":3101,"proposals":3102,"function":3103,"öffentlichen":3104,"Frank":3105,"zogen":3106,"Ele":3107,"einander":3108,"weniger":3109,"prochen":3110,"Sozial":3111,"halte":3112,"TV":3113,"amendments":3114,"World":3115,"abo":3116,"ference":3117,"reicht":3118,"obje":3119,"feel":3120,"force":3121,"teilen":3122,"raph":3123,"behalf":3124,"Wasser":3125,"Initi":3126,"wün":3127,"ones":3128,"21":3129,"rather":3130,"def":3131,"range":3132,"Do":3133,"leisten":3134,"Verfahren":3135,"Span":3136,"Deshalb":3137,"partners":3138,"admin":3139,"auen":3140,"State":3141,"entscheiden":3142,"erien":3143,"IP":3144,"Bank":3145,"Klim":3146,"Natur":3147,"Stell":3148,"class":3149,"tlich":3150,"days":3151,"Wes":3152,"macht":3153,"Stru":3154,"soci":3155,"Europas":3156,"oun":3157,"asst":3158,"ladies":3159,"etc":3160,"Institution":3161,"Hotels":3162,"Personen":3163,"pot":3164,"Frei":3165,"verkehr":3166,"Ac":3167,"baren":3168,"away":3169,"fragen":3170,"idence":3171,"forderungen":3172,"sichtlich":3173,"Kü":3174,"cript":3175,"mean":3176,"grün":3177,"Verhand":3178,"Kosten":3179,"Sep":3180,"ünst":3181,"Dis":3182,"flo":3183,"bi":3184,"AP":3185,"Go":3186,"troll":3187,"online":3188,"unserem":3189,"anim":3190,"Israel":3191,"Red":3192,"illa":3193,"Fil":3194,"mag":3195,"ruck":3196,"vier":3197,"Punkt":3198,"Tats":3199,"2005":3200,"Uns":3201,"Millionen":3202,"beral":3203,"seem":3204,"Bas":3205,"prä":3206,"economy":3207,"signific":3208,"zer":3209,"utet":3210,"Stud":3211,"adopted":3212,"enjoy":3213,"Aussprache":3214,"Sw":3215,"hunder":3216,"isse":3217,"ächlich":3218,"technology":3219,"greifen":3220,"might":3221,"Dieses":3222,"völker":3223,"Produkte":3224,"price":3225,"gemacht":3226,"uellen":3227,"Ebene":3228,"foc":3229,"verständ":3230,"Berlin":3231,"via":3232,"enden":3233,"groß":3234,"vision":3235,"leit":3236,"Zugang":3237,"yet":3238,"Bezug":3239,"uses":3240,"Ru":3241,"mann":3242,"Gä":3243,"appropr":3244,"kennen":3245,"eded":3246,"Ter":3247,"excellent":3248,"Schl":3249,"ension":3250,"viol":3251,"family":3252,"rechts":3253,"legislation":3254,"little":3255,"Jul":3256,"lon":3257,"mind":3258,"tember":3259,"ON":3260,"activities":3261,"elect":3262,"aufge":3263,"jähr":3264,"safety":3265,"gerade":3266,"demokrat":3267,"staat":3268,"quite":3269,"border":3270,"until":3271,"tage":3272,"lear":3273,"sogar":3274,"agricult":3275,"web":3276,"Tür":3277,"educ":3278,"erwar":3279,"opinion":3280,"solution":3281,"glaube":3282,"known":3283,"einzu":3284,"ently":3285,"Rechte":3286,"bitte":3287,"Date":3288,"object":3289,"brauchen":3290,"policies":3291,"gilt":3292,"sichtig":3293,"Pat":3294,"olf":3295,"content":3296,"words":3297,"National":3298,"Abkommen":3299,"ume":3300,"reiche":3301,"2004":3302,"altung":3303,"democr":3304,"stimmen":3305,"Park":3306,"Abstimmung":3307,"Priv":3308,"Bau":3309,"regel":3310,"freedom":3311,"öffentlich":3312,"comfort":3313,"having":3314,"bzw":3315,"erfolg":3316,"persön":3317,"jeden":3318,"provided":3319,"darin":3320,"bare":3321,"points":3322,"Sü":3323,"etwa":3324,"relation":3325,"Kap":3326,"zunehmen":3327,"verbunden":3328,"22":3329,"nationalen":3330,"Geld":3331,"costs":3332,"ison":3333,"host":3334,"Instr":3335,"som":3336,"sat":3337,"Sup":3338,"raum":3339,"Verbraucher":3340,"constru":3341,"einigen":3342,"request":3343,"schl":3344,"gute":3345,"challen":3346,"effective":3347,"unterstützt":3348,"ided":3349,"künft":3350,"ckt":3351,"apan":3352,"model":3353,"Erfahr":3354,"value":3355,"members":3356,"ify":3357,"Beschäft":3358,"ght":3359,"derzeit":3360,"Stre":3361,"anst":3362,"apart":3363,"vert":3364,"ric":3365,"remain":3366,"responsibility":3367,"tt":3368,"Nov":3369,"Preis":3370,"September":3371,"treat":3372,"fordern":3373,"Pa":3374,"denken":3375,"eren":3376,"iding":3377,"concerned":3378,"ideo":3379,"zimmer":3380,"gestimmt":3381,"Bal":3382,"ave":3383,"risk":3384,"EL":3385,"unterschied":3386,"include":3387,"Sou":3388,"Can":3389,"imes":3390,"four":3391,"Debat":3392,"ebenfalls":3393,"Jahres":3394,"situ":3395,"voted":3396,"beh":3397,"prove":3398,"context":3399,"mobil":3400,"importance":3401,"zeigen":3402,"standard":3403,"betrifft":3404,"Text":3405,"recomm":3406,"üssel":3407,"front":3408,"Geb":3409,"ucht":3410,"70":3411,"Strategie":3412,"erklär":3413,"Dieser":3414,"mess":3415,"haus":3416,"za":3417,"ever":3418,"stant":3419,"win":3420,"dürfen":3421,"OR":3422,"attra":3423,"strategy":3424,"AD":3425,"2003":3426,"others":3427,"wärt":3428,"nete":3429,"location":3430,"meisten":3431,"Sel":3432,"One":3433,"Disk":3434,"greater":3435,"Kolleg":3436,"body":3437,"manu":3438,"Wach":3439,"Op":3440,"icial":3441,"möglichen":3442,"thod":3443,"building":3444,"attention":3445,"society":3446,"Fortsch":3447,"telle":3448,"environmental":3449,"Sub":3450,"teile":3451,"rate":3452,"Organisation":3453,"Website":3454,"Son":3455,"Rei":3456,"results":3457,"deutlich":3458,"Änderungsan":3459,"arbeitet":3460,"wiesen":3461,"ager":3462,"ihn":3463,"above":3464,"entire":3465,"geschlagen":3466,"projects":3467,"wahl":3468,"laub":3469,"zustellen":3470,"änger":3471,"Pos":3472,"mass":3473,"mail":3474,"wirtschaftlichen":3475,"times":3476,"application":3477,"tober":3478,"ott":3479,"ocracy":3480,"sollen":3481,"hlt":3482,"nichts":3483,"groups":3484,"len":3485,"makes":3486,"Mär":3487,"Janu":3488,"oting":3489,"Qualität":3490,"weiterhin":3491,"Fä":3492,"lat":3493,"verbess":3494,"Nicht":3495,"left":3496,"kar":3497,"Gesetz":3498,"principle":3499,"ihm":3500,"2001":3501,"Just":3502,"simply":3503,"Verkehr":3504,"forts":3505,"zeichnet":3506,"week":3507,"bour":3508,"Dr":3509,"uen":3510,"Bem":3511,"Austr":3512,"terror":3513,"itionen":3514,"past":3515,"drück":3516,"Ort":3517,"onstr":3518,"ona":3519,"photo":3520,"never":3521,"increasing":3522,"ständig":3523,"sty":3524,"istan":3525,"Sal":3526,"overn":3527,"authorities":3528,"entliche":3529,"keinen":3530,"team":3531,"Verbind":3532,"ented":3533,"questions":3534,"Menschenrechte":3535,"Fund":3536,"iful":3537,"hes":3538,"dell":3539,"gratul":3540,"27":3541,"hler":3542,"clearly":3543,"hip":3544,"send":3545,"seinem":3546,"fig":3547,"OS":3548,"verfahren":3549,"CD":3550,"structure":3551,"inge":3552,"reserv":3553,"minister":3554,"cop":3555,"bleiben":3556,"Unsere":3557,"gemeinsam":3558,"ledge":3559,"Dok":3560,"ihrem":3561,"wan":3562,"stum":3563,"ideal":3564,"After":3565,"due":3566,"Bezieh":3567,"unkte":3568,"anderer":3569,"ampf":3570,"Demokratie":3571,"iled":3572,"along":3573,"Sicherheits":3574,"Design":3575,"Wh":3576,"Leist":3577,"dien":3578,"trolle":3579,"sustain":3580,"erziel":3581,"ächst":3582,"bew":3583,"fundamental":3584,"tag":3585,"Che":3586,"istic":3587,"sof":3588,"East":3589,"Benutz":3590,"beginn":3591,"Deutschland":3592,"hörden":3593,"staff":3594,"Ansicht":3595,"mechan":3596,"aged":3597,"provides":3598,"sei":3599,"shop":3600,"super":3601,"lei":3602,"würden":3603,"sal":3604,"firm":3605,"essential":3606,"solche":3607,"wenig":3608,"beispiel":3609,"crimin":3610,"Room":3611,"wichtige":3612,"Dank":3613,"Prof":3614,"fish":3615,"ging":3616,"answer":3617,"ders":3618,"zusätz":3619,"laden":3620,"struktur":3621,"unächst":3622,"kurz":3623,"Umsetzung":3624,"total":3625,"bung":3626,"deshalb":3627,"pages":3628,"Förder":3629,"Sitz":3630,"graph":3631,"fairs":3632,"vement":3633,"achieve":3634,"Pra":3635,"ana":3636,"proposed":3637,"isiert":3638,"contact":3639,"significant":3640,"check":3641,"central":3642,"add":3643,"ehr":3644,"came":3645,"ka":3646,"moder":3647,"leader":3648,"schwer":3649,"bedeutet":3650,"ift":3651,"return":3652,"sites":3653,"Gesellschaft":3654,"Hö":3655,"verein":3656,"infl":3657,"herr":3658,"method":3659,"internal":3660,"assist":3661,"responsible":3662,"ported":3663,"haltung":3664,"gebung":3665,"website":3666,"young":3667,"inten":3668,"aktiv":3669,"heim":3670,"hoffe":3671,"pflicht":3672,"stu":3673,"zehn":3674,"autiful":3675,"Ira":3676,"züglich":3677,"cir":3678,"link":3679,"Off":3680,"changes":3681,"iers":3682,"Stat":3683,"griff":3684,"gas":3685,"moment":3686,"arian":3687,"sug":3688,"hnen":3689,"Bevölker":3690,"komple":3691,"nu":3692,"llt":3693,"Buch":3694,"Groß":3695,"termin":3696,"unst":3697,"mosph":3698,"Verbesser":3699,"charac":3700,"aufgrund":3701,"democracy":3702,"ref":3703,"regulation":3704,"interests":3705,"gebracht":3706,"easy":3707,"cu":3708,"Christ":3709,"inzip":3710,"utzt":3711,"werde":3712,"nutzen":3713,"Industrie":3714,"aup":3715,"setzt":3716,"Schul":3717,"Ziele":3718,"Prozess":3719,"ands":3720,"Govern":3721,"prec":3722,"seits":3723,"safe":3724,"share":3725,"2002":3726,"regions":3727,"lot":3728,"Klima":3729,"meeting":3730,"zä":3731,"posed":3732,"Herren":3733,"uell":3734,"ichen":3735,"anten":3736,"wirkungen":3737,"benöt":3738,"Mail":3739,"Vorschläge":3740,"teilt":3741,"Mor":3742,"technical":3743,"Verantwortung":3744,"äre":3745,"cultural":3746,"schre":3747,"gemeinsamen":3748,"fight":3749,"Struktur":3750,"prevent":3751,"mals":3752,"Außen":3753,"Schwe":3754,"aging":3755,"extra":3756,"distrib":3757,"Lo":3758,"nächsten":3759,"ME":3760,"implementation":3761,"ri":3762,"bro":3763,"neuer":3764,"aud":3765,"training":3766,"lease":3767,"lange":3768,"Steuer":3769,"Book":3770,"forman":3771,"auszu":3772,"Sa":3773,"civil":3774,"ID":3775,"Meer":3776,"Parte":3777,"liches":3778,"heart":3779,"passen":3780,"uelle":3781,"currently":3782,"länd":3783,"gliche":3784,"interess":3785,"Aspe":3786,"lab":3787,"minutes":3788,"sozialen":3789,"Restaurant":3790,"Russia":3791,"Windows":3792,"Angelegen":3793,"frist":3794,"iar":3795,"required":3796,"subs":3797,"move":3798,"198":3799,"offe":3800,"affe":3801,"Anwendung":3802,"Bil":3803,"pool":3804,"schö":3805,"efforts":3806,"umente":3807,"Hol":3808,"Bedingungen":3809,"notwendig":3810,"grup":3811,"First":3812,"gehört":3813,"Grundlage":3814,"cli":3815,"ulture":3816,"funktion":3817,"friend":3818,"besten":3819,"amb":3820,"richtig":3821,"PC":3822,"related":3823,"General":3824,"sea":3825,"longer":3826,"beautiful":3827,"kei":3828,"natural":3829,"Dah":3830,"itäts":3831,"Erweiter":3832,"ama":3833,"Betrie":3834,"capital":3835,"Nä":3836,"competition":3837,"Japan":3838,"Kur":3839,"tin":3840,"Richtung":3841,"Frieden":3842,"Debatte":3843,"Trans":3844,"involved":3845,"ene":3846,"recogn":3847,"continu":3848,"organisation":3849,"negotiations":3850,"months":3851,"ench":3852,"beispielsweise":3853,"iellen":3854,"ßt":3855,"vielleicht":3856,"etzen":3857,"competit":3858,"manufact":3859,"parties":3860,"stadt":3861,"uz":3862,"fordert":3863,"SE":3864,"fis":3865,"berück":3866,"democratic":3867,"Gäste":3868,"Vertr":3869,"Wel":3870,"markets":3871,"Verf":3872,"Krit":3873,"anced":3874,"bekannt":3875,"gefähr":3876,"Institutionen":3877,"Netz":3878,"enthalten":3879,"November":3880,"messen":3881,"Wert":3882,"aden":3883,"chter":3884,"quick":3885,"needed":3886,"Jahrhunder":3887,"Tages":3888,"lar":3889,"happen":3890,"betra":3891,"ined":3892,"weder":3893,"ames":3894,"lö":3895,"unver":3896,"hinder":3897,"Interesse":3898,"corre":3899,"apply":3900,"clar":3901,"May":3902,"active":3903,"Apr":3904,"uth":3905,"spir":3906,"linien":3907,"bahn":3908,"atal":3909,"option":3910,"solutions":3911,"stor":3912,"hens":3913,"dy":3914,"themselves":3915,"boten":3916,"try":3917,"Erklär":3918,"cure":3919,"Ju":3920,"ators":3921,"Daher":3922,"90":3923,"Presidency":3924,"Jo":3925,"schluss":3926,"unge":3927,"ished":3928,"Wieder":3929,"Hinblick":3930,"scheint":3931,"foreign":3932,"berg":3933,"span":3934,"station":3935,"Gl":3936,"ption":3937,"administr":3938,"Reihe":3939,"Sport":3940,"hib":3941,"item":3942,"vorsch":3943,"customers":3944,"according":3945,"requirements":3946,"perfect":3947,"vorgeschlagen":3948,"IM":3949,"danken":3950,"äter":3951,"enough":3952,"Ide":3953,"Entscheidung":3954,"platz":3955,"Cor":3956,"erfü":3957,"fün":3958,"Gebiet":3959,"appropriate":3960,"äsent":3961,"andid":3962,"sitz":3963,"allerdings":3964,"board":3965,"schwier":3966,"Integr":3967,"ibility":3968,"eth":3969,"directly":3970,"By":3971,"Fern":3972,"itens":3973,"stück":3974,"llig":3975,"ses":3976,"amo":3977,"Wort":3978,"cases":3979,"actions":3980,"mand":3981,"Von":3982,"yp":3983,"Damen":3984,"developing":3985,"dialog":3986,"funds":3987,"farm":3988,"Sh":3989,"merksam":3990,"lig":3991,"live":3992,"nature":3993,"hon":3994,"presented":3995,"Änderungsantrag":3996,"unternehmen":3997,"Erfolg":3998,"looking":3999,"könnten":4000,"gemeinsame":4001,"wider":4002,"RE":4003,"normal":4004,"extremely":4005,"zel":4006,"allgem":4007,"Pub":4008,"brit":4009,"hm":4010,"relev":4011,"rup":4012,"Wohn":4013,"gesetz":4014,"richtung":4015,"respe":4016,"Kenn":4017,"acc":4018,"upon":4019,"Auswirkungen":4020,"volle":4021,"harmon":4022,"developed":4023,"stead":4024,"rela":4025,"peten":4026,"gestat":4027,"states":4028,"Tele":4029,"disk":4030,"ought":4031,"Plan":4032,"bevor":4033,"events":4034,"Tro":4035,"ada":4036,"commod":4037,"camp":4038,"aper":4039,"erwä":4040,"standen":4041,"umfassen":4042,"stop":4043,"Verhandlungen":4044,"istischen":4045,"tar":4046,"Öff":4047,"erreicht":4048,"monitor":4049,"April":4050,"thus":4051,"night":4052,"alter":4053,"1999":4054,"prep":4055,"Möglichkeiten":4056,"ites":4057,"demonstr":4058,"caus":4059,"Tatsache":4060,"euro":4061,"cast":4062,"mob":4063,"weiß":4064,"Regionen":4065,"500":4066,"nimmt":4067,"Selbst":4068,"Diskuss":4069,"Aktiv":4070,"takt":4071,"Cour":4072,"contain":4073,"gelten":4074,"gleichen":4075,"Version":4076,"Real":4077,"Mer":4078,"yl":4079,"lex":4080,"Einsatz":4081,"verwendet":4082,"modif":4083,"acy":4084,"unch":4085,"improve":4086,"Abgeordneten":4087,"lied":4088,"Mitarbeit":4089,"holiday":4090,"Funktion":4091,"tä":4092,"aurants":4093,"altern":4094,"soon":4095,"ctors":4096,"denke":4097,"sucht":4098,"maintain":4099,"hab":4100,"minim":4101,"freund":4102,"climate":4103,"ermöglich":4104,"ball":4105,"tats":4106,"jenigen":4107,"previous":4108,"amt":4109,"fel":4110,"encour":4111,"dev":4112,"education":4113,"Inst":4114,"26":4115,"Verwalt":4116,"initiative":4117,"indic":4118,"recommend":4119,"Heraus":4120,"Ihrem":4121,"true":4122,"More":4123,"rachten":4124,"anti":4125,"history":4126,"Mitglieder":4127,"Kön":4128,"held":4129,"How":4130,"file":4131,"ables":4132,"chem":4133,"Binnen":4134,"kor":4135,"Proto":4136,"sus":4137,"Dam":4138,"Foto":4139,"laim":4140,"separ":4141,"Ausdruck":4142,"Brit":4143,"Agr":4144,"atory":4145,"jeweil":4146,"hinzu":4147,"schriften":4148,"Vertre":4149,"mbH":4150,"bath":4151,"type":4152,"hung":4153,"ape":4154,"workers":4155,"Far":4156,"Sc":4157,"Besuch":4158,"France":4159,"kleinen":4160,"Druck":4161,"formance":4162,"erforderlich":4163,"haps":4164,"bot":4165,"Geschichte":4166,"för":4167,"maxim":4168,"Zus":4169,"Dienstleistungen":4170,"protect":4171,"Außer":4172,"Rechn":4173,"procedure":4174,"combin":4175,"Inform":4176,"depend":4177,"Änderungsanträge":4178,"ested":4179,"onen":4180,"ases":4181,"Insel":4182,"Schritt":4183,"Wissen":4184,"final":4185,"Kolleginnen":4186,"arbeitung":4187,"Programme":4188,"Ergebnis":4189,"Kraft":4190,"character":4191,"angenommen":4192,"Doch":4193,"darum":4194,"höch":4195,"jud":4196,"entsch":4197,"fortun":4198,"fünf":4199,"exten":4200,"vic":4201,"achten":4202,"ländern":4203,"Iran":4204,"condition":4205,"ielle":4206,"Terror":4207,"kämpfung":4208,"avo":4209,"28":4210,"moun":4211,"card":4212,"resol":4213,"actually":4214,"scho":4215,"Please":4216,"heiß":4217,"immed":4218,"achen":4219,"Nie":4220,"please":4221,"strengthen":4222,"charge":4223,"Nord":4224,"una":4225,"analys":4226,"krä":4227,"Dialog":4228,"seen":4229,"Fischere":4230,"nehm":4231,"Forschung":4232,"itions":4233,"helfen":4234,"entwickelt":4235,"Team":4236,"hold":4237,"either":4238,"GmbH":4239,"gesellschaft":4240,"Früh":4241,"....":4242,"idea":4243,"majority":4244,"spräsident":4245,"iner":4246,"iffen":4247,"Musik":4248,"language":4249,"Kunst":4250,"Portug":4251,"erhö":4252,"Raum":4253,"music":4254,"AM":4255,"commer":4256,"kra":4257,"emphas":4258,"useum":4259,"Handels":4260,"ceed":4261,"ilities":4262,"additional":4263,"gesamten":4264,"Verordnung":4265,"schie":4266,"Beziehungen":4267,"communication":4268,"From":4269,"Office":4270,"expect":4271,"ebenso":4272,"Antwort":4273,"bisher":4274,"created":4275,"getr":4276,"cies":4277,"relations":4278,"ax":4279,"century":4280,"Vereinigten":4281,"bildung":4282,"unik":4283,"Mot":4284,"prices":4285,"Schlussel":4286,"Nähe":4287,"gegenwärt":4288,"impact":4289,"isieren":4290,"igration":4291,"document":4292,"ano":4293,"enable":4294,"akzept":4295,"intens":4296,"colleag":4297,"reib":4298,"atch":4299,"verantwort":4300,"hout":4301,"erhe":4302,"ürz":4303,"parliament":4304,"einzelnen":4305,"ey":4306,"ingt":4307,"ermöglicht":4308,"Landes":4309,"bian":4310,"Turkey":4311,"Ris":4312,"Bre":4313,"Schaf":4314,"bedeuten":4315,"Bereichen":4316,"hatten":4317,"hinter":4318,"Liste":4319,"mission":4320,"South":4321,"Haushalt":4322,"suggest":4323,"Luft":4324,"certainly":4325,"fähigkeit":4326,"CH":4327,"thre":4328,"bef":4329,"concerns":4330,"weltweit":4331,"verschiedene":4332,"fu":4333,"zone":4334,"befinden":4335,"abon":4336,"tack":4337,"consequ":4338,"indest":4339,"Interessen":4340,"Krise":4341,"--":4342,"ternal":4343,"sound":4344,"effiz":4345,"investment":4346,"happ":4347,"Government":4348,"programmes":4349,"living":4350,"www":4351,"Bevölkerung":4352,"hätte":4353,"facilities":4354,"igungs":4355,"Wettbewerbs":4356,"mitteln":4357,"Förderung":4358,"space":4359,"ony":4360,"Unser":4361,"refle":4362,"cen":4363,"va":4364,"everything":4365,"leistet":4366,"Du":4367,"relax":4368,"works":4369,"Kos":4370,"Türkei":4371,"länder":4372,"prim":4373,"tion":4374,"almost":4375,"sprech":4376,"phone":4377,"dict":4378,"ination":4379,"pict":4380,"coordin":4381,"Kle":4382,"Paris":4383,"French":4384,"frü":4385,"Verpflicht":4386,"links":4387,"Stabil":4388,"receive":4389,"ping":4390,"agreements":4391,"cru":4392,"mentioned":4393,"committee":4394,"adurch":4395,"Staats":4396,"Gelegen":4397,"Rad":4398,"Beitrag":4399,"hend":4400,"guarantee":4401,"Platz":4402,"American":4403,"gain":4404,"hor":4405,"rieben":4406,"Reform":4407,"ffer":4408,"Aug":4409,"aner":4410,"spielen":4411,"mel":4412,"rates":4413,"folge":4414,"abge":4415,"formen":4416,"Ausschusses":4417,"fam":4418,"ändert":4419,"included":4420,"profit":4421,"parts":4422,"Blick":4423,"associ":4424,"teid":4425,"uren":4426,"assess":4427,"wichtigen":4428,"bra":4429,"Führ":4430,"amerikan":4431,"esten":4432,"ond":4433,"guests":4434,"doing":4435,"knowledge":4436,"existing":4437,"decisions":4438,"spricht":4439,"aware":4440,"usst":4441,"ired":4442,"claim":4443,"lok":4444,"internationale":4445,"Let":4446,"enlarge":4447,"partner":4448,"West":4449,"verfügt":4450,"Familien":4451,"Bü":4452,"wr":4453,"Har":4454,"except":4455,"concerning":4456,"vö":4457,"Kontrolle":4458,"enor":4459,"Host":4460,"LE":4461,"Aufgabe":4462,"five":4463,"Apart":4464,"Mob":4465,"ira":4466,"relig":4467,"heißt":4468,"weiteren":4469,"chs":4470,"users":4471,"gab":4472,"leading":4473,"Gruppe":4474,"iting":4475,"Arch":4476,"Handel":4477,"Entschließung":4478,"ule":4479,"conflic":4480,"seite":4481,"dre":4482,"licken":4483,"joint":4484,"takes":4485,"zif":4486,"meinen":4487,"Net":4488,"35":4489,"writing":4490,"änden":4491,"Behörden":4492,"objectives":4493,"wachsen":4494,"Cas":4495,"sag":4496,"ilar":4497,"cep":4498,"ari":4499,"fli":4500,"Erweiterung":4501,"sess":4502,"Außerdem":4503,"Lisbon":4504,"lle":4505,"gemäß":4506,"Will":4507,"ült":4508,"prakt":4509,"reiben":4510,"mitted":4511,"Einzel":4512,"approv":4513,"heut":4514,"Themen":4515,"mid":4516,"Agen":4517,"wirtschaftliche":4518,"jobs":4519,"größer":4520,"rich":4521,"mend":4522,"Kampf":4523,"mü":4524,"reasons":4525,"conclus":4526,"gleichzeitig":4527,"29":4528,"handeln":4529,"jedem":4530,"chsel":4531,"gangenen":4532,"pal":4533,"schle":4534,"exclus":4535,"amount":4536,"Court":4537,"mein":4538,"illegal":4539,"designed":4540,"Beg":4541,"Liss":4542,"corpor":4543,"Zum":4544,"Hoch":4545,"ften":4546,"Minuten":4547,"throughout":4548,"connection":4549,"Ha":4550,"center":4551,"PE":4552,"Weiter":4553,"Notwend":4554,"media":4555,"integration":4556,"Haf":4557,"neut":4558,"Proz":4559,"absolute":4560,"barkeit":4561,"military":4562,"bleibt":4563,"restaurant":4564,"ature":4565,"unique":4566,"prüfen":4567,"unabhäng":4568,"America":4569,"kraft":4570,"verständlich":4571,"immungen":4572,"Akt":4573,"handlung":4574,"Wachstum":4575,"zeugen":4576,"Lon":4577,"Prior":4578,"Lissabon":4579,"Zur":4580,"community":4581,"öst":4582,"correct":4583,"Folgen":4584,"bru":4585,"genie":4586,"aring":4587,"values":4588,"See":4589,"van":4590,"across":4591,"Verbindung":4592,"Vis":4593,"Sor":4594,"Home":4595,"agricultural":4596,"worten":4597,"itten":4598,"PL":4599,"lis":4600,"anzen":4601,"outside":4602,"Seit":4603,"Online":4604,"präsent":4605,"Dan":4606,"fail":4607,"hase":4608,"nothing":4609,"objective":4610,"fonds":4611,"later":4612,"surround":4613,"Di":4614,"forms":4615,"ausch":4616,"ktive":4617,"Binnenmarkt":4618,"oblig":4619,"ersch":4620,"entre":4621,"bald":4622,"North":4623,"fördern":4624,"accommod":4625,"ären":4626,"Ka":4627,"population":4628,"jede":4629,"heraus":4630,"Forder":4631,"practice":4632,"travel":4633,"sent":4634,"sex":4635,"Up":4636,"gän":4637,"sieht":4638,"nachhalt":4639,"unseres":4640,"took":4641,"vil":4642,"situated":4643,"party":4644,"although":4645,"professional":4646,"park":4647,"aster":4648,"hinsichtlich":4649,"Global":4650,"code":4651,"vin":4652,"Verbesserung":4653,"fallen":4654,"bekommen":4655,"älle":4656,"Schaffung":4657,"consult":4658,"ires":4659,"promise":4660,"unities":4661,"Ukra":4662,"search":4663,"package":4664,"krit":4665,"angemessen":4666,"aspe":4667,"Affairs":4668,"Werk":4669,"complex":4670,"regarding":4671,"Bu":4672,"bedingungen":4673,"features":4674,"capac":4675,"45":4676,"jahr":4677,"konnte":4678,"Dec":4679,"iens":4680,"sense":4681,"später":4682,"gal":4683,"Dokument":4684,"keyword":4685,"Innen":4686,"iterr":4687,"bezüglich":4688,"raf":4689,"Amend":4690,"richten":4691,"bad":4692,"basic":4693,"richtungen":4694,"Centr":4695,"official":4696,"benefit":4697,"kn":4698,"Gesundheit":4699,"established":4700,"completely":4701,"ST":4702,"fal":4703,"publish":4704,"territ":4705,"igte":4706,"gerichtet":4707,"famous":4708,"reports":4709,"Play":4710,"garant":4711,"dle":4712,"instrument":4713,"jedes":4714,"quis":4715,"London":4716,"dialogue":4717,"ald":4718,"kulture":4719,"kungen":4720,"early":4721,"Volks":4722,"Kor":4723,"ester":4724,"original":4725,"transfer":4726,"August":4727,"ris":4728,"wenden":4729,"vorschriften":4730,"breakfast":4731,"Benutzer":4732,"poor":4733,"culture":4734,"ush":4735,"note":4736,"pan":4737,"Barcel":4738,"prozess":4739,"Augen":4740,"fortunately":4741,"congratul":4742,"Notwendigkeit":4743,"spezie":4744,"Informations":4745,"governments":4746,"neben":4747,"Frankreich":4748,"Lux":4749,"Lösungen":4750,"Zentrum":4751,"Mag":4752,"trotz":4753,"digital":4754,"hours":4755,"indeed":4756,"Nutzung":4757,"club":4758,"customer":4759,"ps":4760,"ovo":4761,"race":4762,"ausgestat":4763,"performance":4764,"guide":4765,"onom":4766,"ec":4767,"cri":4768,"lässt":4769,"Met":4770,"satis":4771,"Anal":4772,"pite":4773,"beteil":4774,"Rel":4775,"remo":4776,"dete":4777,"potential":4778,"fs":4779,"koll":4780,"verg":4781,"Kern":4782,"Macht":4783,"ieben":4784,"iversit":4785,"nissen":4786,"Finally":4787,"300":4788,"iment":4789,"ufig":4790,"osen":4791,"ermöglichen":4792,"wunder":4793,"credit":4794,"iveness":4795,"plant":4796,"files":4797,"entwickeln":4798,"hohe":4799,"Russland":4800,"ava":4801,"brigen":4802,"erweise":4803,"anzös":4804,"äss":4805,"unsch":4806,"publik":4807,"creation":4808,"Aben":4809,"Initiative":4810,"achieved":4811,"construction":4812,"Angeb":4813,"wichtigsten":4814,"wise":4815,"Ster":4816,"konkre":4817,"div":4818,"Standard":4819,"image":4820,"Innov":4821,"grundlegen":4822,"Gelegenheit":4823,"wobei":4824,"stage":4825,"extens":4826,"built":4827,"speed":4828,"broad":4829,"comfortable":4830,"gesamt":4831,"Kir":4832,"pet":4833,"includes":4834,"rund":4835,"Febru":4836,"traditional":4837,"Arbeitspl":4838,"igent":4839,"soziale":4840,"breit":4841,"plann":4842,"Thank":4843,"lant":4844,"industrial":4845,"vertr":4846,"enthält":4847,"Ergebnisse":4848,"efficient":4849,"consumers":4850,"amendment":4851,"nahe":4852,"verbessern":4853,"allows":4854,"bert":4855,"erster":4856,"Gree":4857,"seems":4858,"kleine":4859,"Gip":4860,"sustainable":4861,"clean":4862,"ba":4863,"san":4864,"Social":4865,"transl":4866,"Server":4867,"Gewalt":4868,"circ":4869,"schließend":4870,"Now":4871,"game":4872,"Management":4873,"Überein":4874,"quickly":4875,"Konferenz":4876,"huge":4877,"principles":4878,"Since":4879,"simple":4880,"ull":4881,"sicherheit":4882,"nation":4883,"Article":4884,"Regierungen":4885,"Damit":4886,"hoben":4887,"loss":4888,"Fur":4889,"OL":4890,"contains":4891,"irgend":4892,"plies":4893,"nuclear":4894,"stances":4895,"stens":4896,"union":4897,"prise":4898,"export":4899,"diskut":4900,"spend":4901,"amera":4902,"commitment":4903,"Gemeinschafts":4904,"zahlen":4905,"genannten":4906,"ipl":4907,"computer":4908,"inne":4909,"Les":4910,"ograph":4911,"Wochen":4912,"theless":4913,"focus":4914,"buch":4915,"kennt":4916,"received":4917,"gewä":4918,"offenen":4919,"Pass":4920,"aufzu":4921,"Debian":4922,"download":4923,"ET":4924,"verstär":4925,"Beschäftigung":4926,"subsid":4927,"Eur":4928,"treatment":4929,"maßnahmen":4930,"DV":4931,"Univers":4932,"Fehler":4933,"ini":4934,"spar":4935,"sett":4936,"beein":4937,"balance":4938,"31":4939,"iko":4940,"meinem":4941,"agreed":4942,"spect":4943,"nern":4944,"atast":4945,"box":4946,"völlig":4947,"Log":4948,"below":4949,"Verwendung":4950,"independ":4951,"ological":4952,"ganzen":4953,"haupt":4954,"increased":4955,"üsse":4956,"tic":4957,"onnen":4958,"arg":4959,"gefunden":4960,"stress":4961,"schließen":4962,"recently":4963,"orf":4964,"categor":4965,"record":4966,"applications":4967,"schriftlich":4968,"rein":4969,"treffen":4970,"schön":4971,"WTO":4972,"stellungen":4973,"goods":4974,"ming":4975,"matters":4976,"tung":4977,"oss":4978,"Fuß":4979,"197":4980,"jour":4981,"promote":4982,"Darüber":4983,"relevant":4984,"FR":4985,"counter":4986,"sichtigt":4987,"erlau":4988,"Zeitpunkt":4989,"mis":4990,"grenz":4991,"Linux":4992,"riften":4993,"levels":4994,"Second":4995,"perhaps":4996,"mehrere":4997,"Tat":4998,"draft":4999,"aler":5000,"tatsächlich":5001,"Bitte":5002,"lux":5003,"Voraus":5004,"MS":5005,"liz":5006,"everyone":5007,"großer":5008,"eindeut":5009,"verwenden":5010,"cross":5011,"ti":5012,"sourcen":5013,"prob":5014,"Maß":5015,"ganze":5016,"friendly":5017,"scient":5018,"geeig":5019,"Solidar":5020,"dynam":5021,"stoff":5022,"Krieg":5023,"limited":5024,"successful":5025,"öhn":5026,"choice":5027,"tliche":5028,"Stellung":5029,"ilität":5030,"sterdam":5031,"oil":5032,"Konfli":5033,"icles":5034,"pflich":5035,"learn":5036,"gesprochen":5037,"exchange":5038,"alte":5039,"regular":5040,"closed":5041,"Änderungen":5042,"Vertrags":5043,"Amsterdam":5044,"Einführung":5045,"Stunden":5046,"solid":5047,"Business":5048,"gerne":5049,"flä":5050,"Anfang":5051,"Woche":5052,"Central":5053,"Bur":5054,"Here":5055,"Miss":5056,"zeugt":5057,"Barcelona":5058,"Vereinbar":5059,"ieb":5060,"Some":5061,"archite":5062,"west":5063,"experien":5064,"spezif":5065,"Therefore":5066,"whose":5067,"tempor":5068,"itness":5069,"Mic":5070,"June":5071,"Nat":5072,"direction":5073,"purch":5074,"itel":5075,"former":5076,"Gew":5077,"Integration":5078,"liberal":5079,"Bekämpfung":5080,"ausschuss":5081,"hindern":5082,"appear":5083,"measure":5084,"sun":5085,"gewährleisten":5086,"sorgen":5087,"Develop":5088,"iglich":5089,"sufficient":5090,"cker":5091,"Lauf":5092,"äußerst":5093,"Män":5094,"Anzahl":5095,"Gesundheits":5096,"equipment":5097,"Get":5098,"Standpunkt":5099,"Col":5100,"Pan":5101,"carried":5102,"Veranst":5103,"aspects":5104,"asked":5105,"register":5106,"enlargement":5107,"status":5108,"iation":5109,"added":5110,"bestät":5111,"verstehen":5112,"rid":5113,"feld":5114,"Mitarbeiter":5115,"guten":5116,"verfüg":5117,"istische":5118,"fan":5119,"ially":5120,"covered":5121,"Booking":5122,"double":5123,"supply":5124,"ope":5125,"gerä":5126,"Reise":5127,"Komprom":5128,"Lat":5129,"Ober":5130,"örper":5131,"blo":5132,"six":5133,"vertreten":5134,"Transport":5135,"Bahn":5136,"spruch":5137,"criter":5138,"ufen":5139,"response":5140,"erve":5141,"Kosovo":5142,"deliver":5143,"Ham":5144,"got":5145,"Auswahl":5146,"server":5147,"Pla":5148,"iell":5149,"profession":5150,"Further":5151,"rail":5152,"Position":5153,"suit":5154,"Kommissarin":5155,"placed":5156,"undes":5157,"external":5158,"concept":5159,"mented":5160,"beginning":5161,"auber":5162,"Fach":5163,"reduce":5164,"Erachten":5165,"possibility":5166,"gesamte":5167,"shown":5168,"sterreich":5169,"Material":5170,"Wahr":5171,"Erachtens":5172,"Don":5173,"esh":5174,"zunächst":5175,"fahrt":5176,"effects":5177,"Sum":5178,"stic":5179,"Mac":5180,"SP":5181,"news":5182,"funding":5183,"frieden":5184,"Club":5185,"higher":5186,"infra":5187,"internet":5188,"mobile":5189,"wissenschaft":5190,"priority":5191,"walk":5192,"eller":5193,"stark":5194,"bauen":5195,"bestimmte":5196,"verfügen":5197,"Aufen":5198,"Auff":5199,"krimin":5200,"Wettbewerb":5201,"highly":5202,"Sto":5203,"review":5204,"Mai":5205,"legung":5206,"Fortschritte":5207,"Aufenth":5208,"ills":5209,"pleas":5210,"Opt":5211,"Ukraine":5212,"Frühstück":5213,"meines":5214,"Aut":5215,"pressure":5216,"Eigen":5217,"Süd":5218,"emiss":5219,"opportunities":5220,"läss":5221,"Strand":5222,"eigene":5223,"gehören":5224,"engine":5225,"Convention":5226,"equipped":5227,"prepared":5228,"condu":5229,"freien":5230,"Oc":5231,"hne":5232,"commercial":5233,"Exper":5234,"shows":5235,"Hinter":5236,"gült":5237,"IL":5238,"schnitt":5239,"advan":5240,"Tage":5241,"wonder":5242,"capacity":5243,"Dat":5244,"Gebä":5245,"größten":5246,"fix":5247,"lediglich":5248,"Ok":5249,"wählen":5250,"iplom":5251,"band":5252,"transparen":5253,"Star":5254,"steller":5255,"imension":5256,"ähn":5257,"versuchen":5258,"source":5259,"Leit":5260,"Angebot":5261,"iterrane":5262,"kan":5263,"verpflich":5264,"Juni":5265,"nä":5266,"Nieder":5267,"scht":5268,"Pf":5269,"vorliegen":5270,"obwohl":5271,"letter":5272,"einschließlich":5273,"wünschen":5274,"Install":5275,"mäßig":5276,"atastrop":5277,"aving":5278,"xis":5279,"Of":5280,"sl":5281,"talk":5282,"usion":5283,"SS":5284,"acceptable":5285,"ierenden":5286,"Roman":5287,"setting":5288,"Instrument":5289,"similar":5290,"ski":5291,"zy":5292,"Produktion":5293,"consumer":5294,"billion":5295,"rought":5296,"Stim":5297,"gy":5298,"rang":5299,"oppel":5300,"solidar":5301,"aul":5302,"traffic":5303,"vorhand":5304,"thanks":5305,"office":5306,"Jugend":5307,"defen":5308,"Herzen":5309,"Post":5310,"haft":5311,"obtain":5312,"pret":5313,"Ratspräsident":5314,"kam":5315,"Neu":5316,"dring":5317,"vorgesehen":5318,"rom":5319,"hören":5320,"Dinge":5321,"einzig":5322,"Bestimmungen":5323,"artige":5324,"determin":5325,"reached":5326,"Sim":5327,"beschäft":5328,"stag":5329,"UR":5330,"orient":5331,"mod":5332,"considered":5333,"Mich":5334,"Mehrheit":5335,"style":5336,"Liefer":5337,"innovative":5338,"thin":5339,"suffer":5340,"English":5341,"HT":5342,"Drit":5343,"Africa":5344,"erheb":5345,"highl":5346,"veh":5347,"schütz":5348,"ehm":5349,"volution":5350,"concl":5351,"König":5352,"sagte":5353,"Erklärung":5354,"block":5355,"prepar":5356,"engen":5357,"Sicht":5358,"Aktivitäten":5359,"bestimmten":5360,"worth":5361,"behind":5362,"south":5363,"konzentr":5364,"itation":5365,"sätz":5366,"wurf":5367,"categories":5368,"City":5369,"fisher":5370,"abzu":5371,"Zw":5372,"supported":5373,"elekt":5374,"reading":5375,"series":5376,"Tät":5377,"popular":5378,"Auss":5379,"zweite":5380,"aufgenommen":5381,"fält":5382,"creen":5383,"decided":5384,"Vorschriften":5385,"Kommunik":5386,"mains":5387,"Medien":5388,"Erfahrung":5389,"ghan":5390,"compre":5391,"assistance":5392,"coll":5393,"cul":5394,"äst":5395,"Systems":5396,"Anwend":5397,"setzungen":5398,"wesentlich":5399,"Republic":5400,"Inde":5401,"abor":5402,"Sil":5403,"Bul":5404,"Protokoll":5405,"Spain":5406,"EM":5407,"arily":5408,"wertung":5409,"tool":5410,"Prä":5411,"providing":5412,"phys":5413,"lies":5414,"Dez":5415,"ends":5416,"pie":5417,"stability":5418,"1998":5419,"Staat":5420,"Entscheidungen":5421,"ategorien":5422,"maß":5423,"bringt":5424,"gerecht":5425,"door":5426,"gets":5427,"adap":5428,"Italy":5429,"Punkte":5430,"aschinen":5431,"solchen":5432,"klus":5433,"regards":5434,"ij":5435,"secure":5436,"plat":5437,"green":5438,"ios":5439,"death":5440,"sätze":5441,"lower":5442,"abkommen":5443,"fangen":5444,"arenz":5445,"hohen":5446,"Somm":5447,"choose":5448,"IV":5449,"Familie":5450,"Landwirtschaft":5451,"creating":5452,"bein":5453,"sibilities":5454,"fluss":5455,"spac":5456,"remains":5457,"Berichts":5458,"Höhe":5459,"avoid":5460,"rene":5461,"ierter":5462,"Personal":5463,"mbol":5464,"iency":5465,"nommen":5466,"ico":5467,"Während":5468,"somit":5469,"wander":5470,"legislative":5471,"Gefahr":5472,"size":5473,"video":5474,"sprechend":5475,"allein":5476,"rule":5477,"smo":5478,"December":5479,"Site":5480,"einheit":5481,"vergangenen":5482,"regulations":5483,"TH":5484,"Sprache":5485,"Open":5486,"registr":5487,"schätz":5488,"movement":5489,"morgen":5490,"hear":5491,"instruments":5492,"stands":5493,"Well":5494,"hotels":5495,"istics":5496,"Aufmerksam":5497,"materials":5498,"erfolgreich":5499,"Ansatz":5500,"compromise":5501,"Hy":5502,"neigh":5503,"Bud":5504,"pression":5505,"Freiheit":5506,"agenda":5507,"Erzeug":5508,"sofort":5509,"pleased":5510,"discussion":5511,"ateral":5512,"emer":5513,"Italien":5514,"High":5515,"details":5516,"jün":5517,"mem":5518,"Agrar":5519,"presents":5520,"Dabei":5521,"Party":5522,"trägt":5523,"Ferien":5524,"repe":5525,"industrie":5526,"bey":5527,"sitzen":5528,"Arbeitnehmer":5529,"ständigen":5530,"uchen":5531,"tät":5532,"danger":5533,"Präsidenten":5534,"wimm":5535,"Volk":5536,"letzt":5537,"öffnet":5538,"floor":5539,"Computer":5540,"Transparenz":5541,"Eing":5542,"Privat":5543,"latest":5544,"kü":5545,"Services":5546,"Tor":5547,"pover":5548,"Kontakt":5549,"Tagesordnung":5550,"independent":5551,"etary":5552,"Market":5553,"places":5554,"Gruppen":5555,"uted":5556,"handel":5557,"Aufmerksamkeit":5558,"cup":5559,"Prü":5560,"ork":5561,"ffe":5562,"mous":5563,"Verkehrs":5564,"roat":5565,"obvious":5566,"quar":5567,"akter":5568,"ühungen":5569,"günst":5570,"virt":5571,"Dezember":5572,"else":5573,"procedures":5574,"Berg":5575,"British":5576,"iately":5577,"aust":5578,"deck":5579,"Rights":5580,"iterranean":5581,"Öffentlich":5582,"Bildung":5583,"medium":5584,"außerdem":5585,"gives":5586,"employe":5587,"contribution":5588,"ques":5589,"reign":5590,"braucht":5591,"vollen":5592,"dadurch":5593,"brechen":5594,"Aktion":5595,"violence":5596,"Stär":5597,"airport":5598,"tom":5599,"Ph":5600,"erous":5601,"osp":5602,"Stelle":5603,"wohn":5604,"Prinzip":5605,"labour":5606,"32":5607,"fishing":5608,"message":5609,"ras":5610,"stärker":5611,"icy":5612,"Investitionen":5613,"Diskussion":5614,"announ":5615,"Basis":5616,"zeuge":5617,"französ":5618,"lösen":5619,"fehlen":5620,"eval":5621,"produced":5622,"PS":5623,"Bereiche":5624,"transpar":5625,"Nationen":5626,"einzige":5627,"March":5628,"Cal":5629,"erinn":5630,"print":5631,"wesen":5632,"statement":5633,"pointed":5634,"produce":5635,"Empfehl":5636,"Golf":5637,"garden":5638,"Grenzen":5639,"iture":5640,"legit":5641,"vorher":5642,"Western":5643,"purpose":5644,"contract":5645,"ritts":5646,"dut":5647,"wortern":5648,"Such":5649,"leitet":5650,"expla":5651,"europäischer":5652,"steps":5653,"Technologie":5654,"leb":5655,"brought":5656,"Kop":5657,"provisions":5658,"Agent":5659,"196":5660,"influ":5661,"arm":5662,"lam":5663,"ries":5664,"ollar":5665,"bezogen":5666,"criteria":5667,"easily":5668,"Mediterranean":5669,"standing":5670,"Tex":5671,"sprün":5672,"went":5673,"activity":5674,"furn":5675,"zweiten":5676,"Super":5677,"keits":5678,"ously":5679,"Preise":5680,"insgesamt":5681,"property":5682,"erkenn":5683,"Analy":5684,"display":5685,"beziehen":5686,"stelle":5687,"ón":5688,"effort":5689,"uner":5690,"Regeln":5691,"DI":5692,"transparency":5693,"Down":5694,"Präsidentschaft":5695,"ki":5696,"thous":5697,"Umgebung":5698,"Dom":5699,"Portugal":5700,"Anforderungen":5701,"angesichts":5702,"Rot":5703,"iffe":5704,"atmosph":5705,"Schlusselwortern":5706,"getan":5707,"arrange":5708,"leave":5709,"Projekte":5710,"task":5711,"instead":5712,"betreffen":5713,"falt":5714,"giving":5715,"oben":5716,"Metho":5717,"ürf":5718,"Nur":5719,"map":5720,"üst":5721,"Auffassung":5722,"Meine":5723,"Iraq":5724,"bell":5725,"wirken":5726,"zahlreiche":5727,"Development":5728,"anders":5729,"minor":5730,"Sen":5731,"institutional":5732,"ugs":5733,"geln":5734,"keiner":5735,"stein":5736,"CE":5737,"ette":5738,"Anfrage":5739,"kürz":5740,"ellow":5741,"ourselves":5742,"Sign":5743,"griffen":5744,"Oper":5745,"January":5746,"solidarity":5747,"fficiency":5748,"Last":5749,"otes":5750,"relationship":5751,"Cre":5752,"Rooms":5753,"Pap":5754,"alb":5755,"begrüße":5756,"Bürgern":5757,"erhält":5758,"dise":5759,"ühm":5760,"prises":5761,"Schwier":5762,"warm":5763,"ruh":5764,"EG":5765,"Wider":5766,"child":5767,"rig":5768,"Rede":5769,"Neben":5770,"Bad":5771,"poverty":5772,"Hins":5773,"Hinsicht":5774,"Afghan":5775,"UK":5776,"Free":5777,"inger":5778,"eigentlich":5779,"Koh":5780,"accep":5781,"DVD":5782,"elections":5783,"Belg":5784,"wichtiger":5785,"Palest":5786,"Hung":5787,"ünd":5788,"vital":5789,"utter":5790,"Flughaf":5791,"zweif":5792,"Armut":5793,"Republik":5794,"verse":5795,"exhib":5796,"wall":5797,"mensch":5798,"hesion":5799,"März":5800,"heben":5801,"lives":5802,"schw":5803,"Nr":5804,"yer":5805,"Today":5806,"Del":5807,"pain":5808,"36":5809,"Untersuch":5810,"conference":5811,"humanit":5812,"legation":5813,"ique":5814,"October":5815,"Lebensmittel":5816,"Gründen":5817,"dienen":5818,"stabil":5819,"ilen":5820,"ark":5821,"etimes":5822,"niedr":5823,"consequences":5824,"Cap":5825,"summer":5826,"click":5827,"King":5828,"zieht":5829,"demokratischen":5830,"Wein":5831,"erwarten":5832,"benefits":5833,"nöt":5834,"deten":5835,"Museum":5836,"Bra":5837,"accommodation":5838,"allowed":5839,"Bemühungen":5840,"vorhanden":5841,"foot":5842,"rum":5843,"Sitzung":5844,"beitragen":5845,"ktiven":5846,"Os":5847,"forderung":5848,"Bon":5849,"tete":5850,"constit":5851,"parte":5852,"Flü":5853,"path":5854,"auern":5855,"decl":5856,"Italian":5857,"Spa":5858,"challenges":5859,"Mult":5860,"leistungs":5861,"leider":5862,"gros":5863,"Schweiz":5864,"Veränder":5865,"möglichkeiten":5866,"equal":5867,"eingesetzt":5868,"distribution":5869,"Öffentlichkeit":5870,"Änderung":5871,"diejenigen":5872,"advantage":5873,"Bürgerinnen":5874,"Det":5875,"terrorism":5876,"Sache":5877,"York":5878,"Java":5879,"curren":5880,"kannst":5881,"itzer":5882,"cou":5883,"damage":5884,"geschaffen":5885,"lös":5886,"ike":5887,"unterst":5888,"AB":5889,"Instit":5890,"forget":5891,"ault":5892,"ology":5893,"ost":5894,"study":5895,"victim":5896,"Beteil":5897,"sort":5898,"consist":5899,"drücklich":5900,"verkauf":5901,"Dritt":5902,"ehe":5903,"modified":5904,"erfahren":5905,"Ged":5906,"fine":5907,"ather":5908,"colleagues":5909,"mä":5910,"conflict":5911,"geleg":5912,"Kennt":5913,"Stabilität":5914,"durchgeführt":5915,"kit":5916,"Linie":5917,"deral":5918,"länger":5919,"Unternehmens":5920,"Phil":5921,"öffentliche":5922,"häufig":5923,"leiten":5924,"Vertreter":5925,"ausgestattet":5926,"paid":5927,"Ressourcen":5928,"Sinne":5929,"kontroll":5930,"1997":5931,"Enter":5932,"bür":5933,"finally":5934,"trip":5935,"Bulgar":5936,"documents":5937,"folgenden":5938,"Video":5939,"ihres":5940,"Oktober":5941,"morrow":5942,"konnten":5943,"sonst":5944,"zusch":5945,"Ist":5946,"cos":5947,"ams":5948,"Sommer":5949,"benötigen":5950,"reality":5951,"Fon":5952,"48":5953,"Wä":5954,"verbind":5955,"Bilder":5956,"ering":5957,"forces":5958,"poses":5959,"NAT":5960,"exact":5961,"written":5962,"uit":5963,"tomorrow":5964,"hältnis":5965,"itude":5966,"sole":5967,"bewusst":5968,"sinn":5969,"integrated":5970,"neues":5971,"dence":5972,"erc":5973,"limit":5974,"Test":5975,"Directive":5976,"Gel":5977,"dank":5978,"höher":5979,"electron":5980,"Loc":5981,"Tem":5982,"annual":5983,"reibung":5984,"congratulate":5985,"zuführen":5986,"film":5987,"Bot":5988,"atmosphere":5989,"liar":5990,"übrigen":5991,"resse":5992,"base":5993,"discrimin":5994,"types":5995,"Juli":5996,"gnis":5997,"ored":5998,"geber":5999,"aktuellen":6000,"Mart":6001,"geworden":6002,"perform":6003,"dient":6004,"Econom":6005,"AK":6006,"orial":6007,"ara":6008,"75":6009,"ades":6010,"Gericht":6011,"gebaut":6012,"compon":6013,"vergessen":6014,"verstanden":6015,"Ereign":6016,"scheinlich":6017,"ya":6018,"Also":6019,"serve":6020,"adequ":6021,"interesting":6022,"Datei":6023,"growing":6024,"saying":6025,"erneut":6026,"verhindern":6027,"gehend":6028,"launch":6029,"ails":6030,"Mod":6031,"Werte":6032,"hätten":6033,"Jahrhundert":6034,"occur":6035,"Amendment":6036,"Rechtsvorschriften":6037,"reli":6038,"organisations":6039,"crucial":6040,"dent":6041,"quare":6042,"operating":6043,"Security":6044,"gewöhn":6045,"wimming":6046,"Aufgaben":6047,"Rats":6048,"ifik":6049,"Bestell":6050,"Januar":6051,"alternative":6052,"Koordin":6053,"Ren":6054,"Fällen":6055,"Monaten":6056,"Villa":6057,"Finanzierung":6058,"univers":6059,"comprehens":6060,"ierende":6061,"prefer":6062,"ibr":6063,"elements":6064,"genießen":6065,"Furthermore":6066,"useful":6067,"Bro":6068,"Spanish":6069,"applied":6070,"opol":6071,"PH":6072,"ias":6073,"monitoring":6074,"Every":6075,"Film":6076,"dienst":6077,"Your":6078,"listen":6079,"dlich":6080,"ielt":6081,"Forschungs":6082,"sichtigen":6083,"behandelt":6084,"entsprechenden":6085,"ney":6086,"school":6087,"berühm":6088,"langfrist":6089,"tempt":6090,"berücksichtigt":6091,"Nachbar":6092,"spee":6093,"practical":6094,"started":6095,"Minder":6096,"largest":6097,"Milliar":6098,"Terrorismus":6099,"implemented":6100,"July":6101,"Stu":6102,"Straßen":6103,"frequ":6104,"ffet":6105,"Saf":6106,"enh":6107,"spirit":6108,"Mid":6109,"ife":6110,"Lu":6111,"bezieh":6112,"Gal":6113,"won":6114,"tools":6115,"section":6116,"gewiesen":6117,"ienz":6118,"üb":6119,"wart":6120,"relating":6121,"Grand":6122,"IB":6123,"unmittel":6124,"DA":6125,"werte":6126,"constant":6127,"requires":6128,"zeichnung":6129,"analysis":6130,"immediately":6131,"berecht":6132,"beschrän":6133,"zeichnen":6134,"cement":6135,"rowser":6136,"kap":6137,"Schließ":6138,"partnership":6139,"train":6140,"bilden":6141,"osop":6142,"ursprün":6143,"goes":6144,"sprach":6145,"Auftrag":6146,"systeme":6147,"Hel":6148,"beru":6149,"sektor":6150,"wenige":6151,"payment":6152,"bor":6153,"bü":6154,"offiz":6155,"Städ":6156,"wood":6157,"erkennen":6158,"island":6159,"waste":6160,"fän":6161,"afr":6162,"Stad":6163,"lesen":6164,"gewesen":6165,"Gast":6166,"accession":6167,"leistung":6168,"nes":6169,"zi":6170,"operations":6171,"kret":6172,"Bundes":6173,"Heute":6174,"decken":6175,"nungen":6176,"craft":6177,"ero":6178,"aign":6179,"employees":6180,"entsprechend":6181,"kil":6182,"reduction":6183,"behalten":6184,"formul":6185,"efficiency":6186,"Anstreng":6187,"doubt":6188,"Verteid":6189,"produz":6190,"eher":6191,"würd":6192,"beyond":6193,"Wohl":6194,"conven":6195,"früher":6196,"Modell":6197,"Universit":6198,"Behandlung":6199,"trägen":6200,"größte":6201,"erns":6202,"Beginn":6203,"ples":6204,"Hä":6205,"wid":6206,"hair":6207,"carry":6208,"farmers":6209,"Center":6210,"DF":6211,"iveau":6212,"Public":6213,"unten":6214,"komp":6215,"Bedürf":6216,"processes":6217,"scientific":6218,"hom":6219,"zufrieden":6220,"temporary":6221,"Green":6222,"dates":6223,"IF":6224,"minimum":6225,"splan":6226,"tains":6227,"ado":6228,"jüng":6229,"north":6230,"perman":6231,"Folge":6232,"ality":6233,"ista":6234,"effizient":6235,"zep":6236,"Although":6237,"Human":6238,"warum":6239,"circum":6240,"ls":6241,"happy":6242,"Many":6243,"befür":6244,"ato":6245,"klein":6246,"Tal":6247,"Aspekte":6248,"endlich":6249,"Menschenrechts":6250,"adopt":6251,"fühl":6252,"voting":6253,"ured":6254,"beant":6255,"freie":6256,"Dien":6257,"ellschaften":6258,"01":6259,"Centre":6260,"weist":6261,"38":6262,"Cr":6263,"stehenden":6264,"Zweitens":6265,"apartment":6266,"98":6267,"steigen":6268,"Start":6269,"imat":6270,"richtige":6271,"sw":6272,"Tradition":6273,"veröffentlich":6274,"alität":6275,"Berichterstatterin":6276,"Natürlich":6277,"copy":6278,"Mann":6279,"rosoft":6280,"fügen":6281,"occas":6282,"Angelegenheit":6283,"losen":6284,"ausgezeich":6285,"versucht":6286,"Obje":6287,"bedingt":6288,"coast":6289,"justice":6290,"pursu":6291,"reference":6292,"persons":6293,"Parteien":6294,"iro":6295,"estic":6296,"preis":6297,"Vertrauen":6298,"vorzu":6299,"Angelegenheiten":6300,"AF":6301,"Wil":6302,"gelt":6303,"erfüllen":6304,"stock":6305,"gemeinschaft":6306,"technischen":6307,"förder":6308,"powers":6309,"Vergangen":6310,"Solidarität":6311,"Lassen":6312,"variety":6313,"verz":6314,"Dateien":6315,"sectors":6316,"critic":6317,"Opfer":6318,"Mos":6319,"Zivil":6320,"lichkeiten":6321,"historical":6322,"würdig":6323,"Inhalt":6324,"schützen":6325,"fried":6326,"ideas":6327,"dauer":6328,"kunden":6329,"ories":6330,"perfe":6331,"és":6332,"expl":6333,"izin":6334,"tex":6335,"überhaupt":6336,"restr":6337,"verab":6338,"steuer":6339,"Schn":6340,"herz":6341,"Val":6342,"fresh":6343,"ogle":6344,"400":6345,"Mand":6346,"Praxis":6347,"paar":6348,"meaning":6349,"erklärt":6350,"Küche":6351,"expe":6352,"jem":6353,"Spezial":6354,"technologies":6355,"zumindest":6356,"itzen":6357,"iker":6358,"renov":6359,"Erfahrungen":6360,"drive":6361,"Flughafen":6362,"roll":6363,"gruppe":6364,"Microsoft":6365,"sports":6366,"cert":6367,"ücke":6368,"Cy":6369,"Wunsch":6370,"weeks":6371,"Even":6372,"uration":6373,"begin":6374,"architect":6375,"Spanien":6376,"anden":6377,"comprehensive":6378,"ständige":6379,"Tagen":6380,"Conference":6381,"losigkeit":6382,"candid":6383,"raten":6384,"mic":6385,"cription":6386,"depart":6387,"session":6388,"usch":6389,"rapid":6390,"Annahme":6391,"plans":6392,"lernen":6393,"highest":6394,"Schwierigkeiten":6395,"staaten":6396,"säm":6397,"kannt":6398,"comb":6399,"campaign":6400,"las":6401,"wanted":6402,"krise":6403,"nice":6404,"Firma":6405,"laufen":6406,"Aller":6407,"trächt":6408,"Pet":6409,"Ost":6410,"challenge":6411,"namely":6412,"bien":6413,"vollständig":6414,"Liberal":6415,"Herausforderungen":6416,"Fischerei":6417,"tritt":6418,"strategic":6419,"businesses":6420,"33":6421,"zahlt":6422,"PT":6423,"fire":6424,"dep":6425,"preci":6426,"thought":6427,"extent":6428,"eingesch":6429,"wahrscheinlich":6430,"deep":6431,"Secondly":6432,"sechs":6433,"ologie":6434,"join":6435,"raised":6436,"anlage":6437,"erinnern":6438,"verantwortlich":6439,"utt":6440,"config":6441,"Islam":6442,"Vergangenheit":6443,"wards":6444,"served":6445,"Flor":6446,"verpflichtet":6447,"Flex":6448,"urgent":6449,"alone":6450,"wine":6451,"agieren":6452,"ception":6453,"genu":6454,"Ire":6455,"numerous":6456,"gangs":6457,"bessere":6458,"likely":6459,"calls":6460,"substant":6461,"1996":6462,"nungs":6463,"historic":6464,"Hil":6465,"Arab":6466,"wasser":6467,"gekommen":6468,"regime":6469,"klass":6470,"late":6471,"netz":6472,"sichern":6473,"anderem":6474,"Gest":6475,"Tier":6476,"Schritte":6477,"verläss":6478,"friends":6479,"Ireland":6480,"kämpfen":6481,"caused":6482,"Arbeitsplätze":6483,"NATO":6484,"wechsel":6485,"zusetzen":6486,"Kredit":6487,"target":6488,"Verfassung":6489,"honour":6490,"Winter":6491,"Entschließungs":6492,"Camp":6493,"150":6494,"initiatives":6495,"MP":6496,"innovation":6497,"nel":6498,"track":6499,"Altern":6500,"During":6501,"daily":6502,"sales":6503,"beginnen":6504,"News":6505,"NG":6506,"cting":6507,"Produktions":6508,"abe":6509,"Urlaub":6510,"ischem":6511,"cohesion":6512,"ruption":6513,"genug":6514,"fas":6515,"leaders":6516,"Denn":6517,"maximum":6518,"mögen":6519,"restrict":6520,"Krank":6521,"changed":6522,"Democr":6523,"despite":6524,"ays":6525,"teach":6526,"Landwir":6527,"aktion":6528,"Verwaltung":6529,"lost":6530,"usw":6531,"Hostels":6532,"options":6533,"Aufenthalt":6534,"starting":6535,"sult":6536,"versor":6537,"wiederhol":6538,"plus":6539,"Agenda":6540,"accordance":6541,"Hoff":6542,"Infra":6543,"Ausschuß":6544,"gers":6545,"borders":6546,"getragen":6547,"screen":6548,"Are":6549,"quiet":6550,"Austria":6551,"iö":6552,"Waren":6553,"Kapital":6554,"Sat":6555,"restaurants":6556,"shops":6557,"Moder":6558,"kop":6559,"weiten":6560,"Regierungs":6561,"gruppen":6562,"absolutely":6563,"dung":6564,"advert":6565,"darstellt":6566,"begrüßen":6567,"distance":6568,"Verpflichtungen":6569,"konom":6570,"Vir":6571,"concentr":6572,"erfolgt":6573,"village":6574,"außerhalb":6575,"hervorragen":6576,"erkennung":6577,"anything":6578,"ye":6579,"Grö":6580,"kategorien":6581,"ford":6582,"accepted":6583,"domin":6584,"methods":6585,"Berat":6586,"probably":6587,"Alt":6588,"Afghanistan":6589,"sometimes":6590,"rise":6591,"aver":6592,"Ange":6593,"34":6594,"Überwach":6595,"scale":6596,"affected":6597,"Constitution":6598,"motor":6599,"Moreover":6600,"fill":6601,"verurs":6602,"reichend":6603,"exerc":6604,"stets":6605,"Anstrengungen":6606,"Download":6607,"heutigen":6608,"Milliarden":6609,"umfang":6610,"privaten":6611,"expressed":6612,"jeweiligen":6613,"Acht":6614,"2020":6615,"enze":6616,"diplom":6617,"Telefon":6618,"urance":6619,"schönen":6620,"investig":6621,"fällt":6622,"bitten":6623,"trust":6624,"simpl":6625,"representatives":6626,"allgemeinen":6627,"sil":6628,"Agre":6629,"zukünft":6630,"eindeutig":6631,"Nun":6632,"deine":6633,"sens":6634,"Chinese":6635,"Sonder":6636,"nachten":6637,"published":6638,"reforms":6639,"Sm":6640,"emissions":6641,"operate":6642,"Ord":6643,"offered":6644,"Erstens":6645,"Google":6646,"lass":6647,"letzte":6648,"IG":6649,"verme":6650,"breite":6651,"chair":6652,"gment":6653,"trying":6654,"langen":6655,"Vergleich":6656,"offering":6657,"languages":6658,"verkehrs":6659,"nütz":6660,"Antrag":6661,"negative":6662,"Mess":6663,"valid":6664,"chance":6665,"structural":6666,"Kriterien":6667,"99":6668,"opping":6669,"format":6670,"interested":6671,"mas":6672,"prüft":6673,"Roma":6674,"Mittelme":6675,"Konzept":6676,"sorg":6677,"Archite":6678,"IR":6679,"dro":6680,"heard":6681,"wertungen":6682,"uern":6683,"amerikanischen":6684,"Gipfel":6685,"italien":6686,"Slo":6687,"OT":6688,"voraus":6689,"Spieler":6690,"dringend":6691,"images":6692,"Georg":6693,"Organisationen":6694,"SM":6695,"erung":6696,"zeiten":6697,"Allerdings":6698,"AV":6699,"flexible":6700,"Wann":6701,"became":6702,"ek":6703,"übernehmen":6704,"ML":6705,"Shop":6706,"Stellen":6707,"worldwide":6708,"otion":6709,"Prem":6710,"geschrieben":6711,"seiten":6712,"elling":6713,"renew":6714,"oo":6715,"While":6716,"Viele":6717,"degre":6718,"zahlreichen":6719,"Kan":6720,"Zentral":6721,"Gebäude":6722,"icated":6723,"Leg":6724,"ethn":6725,"approved":6726,"confidence":6727,"remember":6728,"ighted":6729,"bir":6730,"demands":6731,"verm":6732,"Wahlen":6733,"machine":6734,"Partei":6735,"isely":6736,"uded":6737,"Palestin":6738,"gesund":6739,"talking":6740,"daten":6741,"appreci":6742,"wrong":6743,"37":6744,"historischen":6745,"clients":6746,"element":6747,"priorities":6748,"vorgelegt":6749,"brand":6750,"committed":6751,"critical":6752,"currency":6753,"stieg":6754,"influence":6755,"targe":6756,"Out":6757,"Adresse":6758,"Soll":6759,"Völker":6760,"Gra":6761,"gebie":6762,"beschlossen":6763,"adjust":6764,"email":6765,"Atmosph":6766,"modernen":6767,"heav":6768,"overall":6769,"führte":6770,"Ins":6771,"stimm":6772,"agraph":6773,"unemployment":6774,"gesche":6775,"erwartet":6776,"Bio":6777,"uls":6778,"genutzt":6779,"Voll":6780,"Ca":6781,"mountain":6782,"Gesamt":6783,"occup":6784,"release":6785,"Vereinbarung":6786,"Ven":6787,"processing":6788,"brid":6789,"intended":6790,"Firmen":6791,"Anerkennung":6792,"speziell":6793,"pun":6794,"angeboten":6795,"banks":6796,"shof":6797,"IA":6798,"militär":6799,"folger":6800,"lier":6801,"schlag":6802,"Russian":6803,"explo":6804,"Grie":6805,"Code":6806,"ritten":6807,"erstör":6808,"geschütz":6809,"Zustimmung":6810,"spannen":6811,"eingehen":6812,"scope":6813,"conclusion":6814,"reduz":6815,"Einrichtung":6816,"sitting":6817,"Schlüssel":6818,"University":6819,"bote":6820,"Em":6821,"feed":6822,"positions":6823,"Mass":6824,"crime":6825,"Prozent":6826,"95":6827,"poll":6828,"bemü":6829,"administration":6830,"Obwohl":6831,"Einige":6832,"bourg":6833,"sper":6834,"erlaubt":6835,"größere":6836,"Gas":6837,"izing":6838,"persönlichen":6839,"atalog":6840,"bestimmt":6841,"slow":6842,"chtet":6843,"games":6844,"Verhalten":6845,"Tun":6846,"Ausgaben":6847,"vari":6848,"entschieden":6849,"nationale":6850,"seines":6851,"welches":6852,"ühren":6853,"getroffen":6854,"Eigent":6855,"Nations":6856,"ecut":6857,"apartments":6858,"hinweisen":6859,"bul":6860,"syn":6861,"touch":6862,"ausschließlich":6863,"stimme":6864,"forced":6865,"Wissenschaft":6866,"este":6867,"begrenz":6868,"administrative":6869,"erweiter":6870,"respond":6871,"laws":6872,"Falls":6873,"Zeichen":6874,"attack":6875,"Friedens":6876,"Dann":6877,"transparent":6878,"opening":6879,"victims":6880,"Sektor":6881,"Besonder":6882,"Pak":6883,"karte":6884,"Zweif":6885,"ensuring":6886,"sych":6887,"berücksichtigen":6888,"morning":6889,"Indeed":6890,"iste":6891,"fields":6892,"circumstances":6893,"stattung":6894,"sav":6895,"Mitteilung":6896,"barer":6897,"atte":6898,"tabled":6899,"sprü":6900,"players":6901,"Dazu":6902,"Dro":6903,"überzeugt":6904,"komplex":6905,"Stock":6906,"Einfluss":6907,"thaf":6908,"DP":6909,"Swiss":6910,"Kompromiss":6911,"glauben":6912,"flü":6913,"Schwer":6914,"Distr":6915,"sagt":6916,"Reformen":6917,"cret":6918,"Mc":6919,"Ve":6920,"expert":6921,"deutschen":6922,"descri":6923,"Waffen":6924,"Systeme":6925,"Doppel":6926,"entgegen":6927,"Falle":6928,"mill":6929,"Regional":6930,"sensit":6931,"increasingly":6932,"encourage":6933,"iling":6934,"Irak":6935,"beide":6936,"divers":6937,"igungen":6938,"natür":6939,"Restaurants":6940,"Karte":6941,"ione":6942,"izes":6943,"Währung":6944,"contribute":6945,"fellow":6946,"stoffe":6947,"decide":6948,"separate":6949,"bill":6950,"zudem":6951,"konstru":6952,"improved":6953,"Cast":6954,"competitive":6955,"Atmosphäre":6956,"sicherzustellen":6957,"danke":6958,"Betriebs":6959,"Richtlinien":6960,"QL":6961,"player":6962,"proceed":6963,"automatisch":6964,"agriculture":6965,"samm":6966,"manufactur":6967,"sü":6968,"Eind":6969,"bedarf":6970,"OM":6971,"ergreifen":6972,"legant":6973,"lebt":6974,"fälle":6975,"Durchführung":6976,"Garant":6977,"Konflikt":6978,"Wik":6979,"intell":6980,"fläche":6981,"minute":6982,"structures":6983,"comments":6984,"zusätzliche":6985,"Unterkategorien":6986,"End":6987,"Nutzen":6988,"angeb":6989,"cred":6990,"expected":6991,"budgetary":6992,"ehemal":6993,"erwähnt":6994,"tit":6995,"effectively":6996,"97":6997,"cycl":6998,"Trotz":6999,"Ihres":7000,"Mex":7001,"lück":7002,"globalen":7003,"participation":7004,"fit":7005,"She":7006,"führten":7007,"fähig":7008,"infrastructure":7009,"Bestand":7010,"Bis":7011,"spa":7012,"Only":7013,"Sky":7014,"Idee":7015,"valu":7016,"Stil":7017,"goal":7018,"Luxem":7019,"Tar":7020,"gezeigt":7021,"hood":7022,"Österreich":7023,"installation":7024,"mittler":7025,"ns":7026,"reviews":7027,"tot":7028,"55":7029,"lern":7030,"angesprochen":7031,"Sterne":7032,"Bay":7033,"bran":7034,"cities":7035,"Kauf":7036,"Immobil":7037,"accoun":7038,"läuft":7039,"datab":7040,"pictures":7041,"summit":7042,"Lang":7043,"Wettbewerbsfähigkeit":7044,"reduced":7045,"motion":7046,"ham":7047,"bürger":7048,"competen":7049,"Ang":7050,"unbedingt":7051,"mär":7052,"ifizierung":7053,"Hause":7054,"vere":7055,"aimed":7056,"akzeptieren":7057,"dere":7058,"Airport":7059,"worked":7060,"pendence":7061,"says":7062,"Bemer":7063,"reisen":7064,"oten":7065,"Ther":7066,"Öl":7067,"elektron":7068,"sources":7069,"mainly":7070,"hoffen":7071,"arus":7072,"entwickel":7073,"debt":7074,"ola":7075,"parking":7076,"anda":7077,"Innovation":7078,"destens":7079,"ugg":7080,"Verkauf":7081,"sichten":7082,"People":7083,"schreiten":7084,"ückt":7085,"seek":7086,"Fakt":7087,"Beruf":7088,"Infrastruktur":7089,"wält":7090,"Vier":7091,"älter":7092,"Vo":7093,"altet":7094,"whom":7095,"ober":7096,"SD":7097,"selbstverständlich":7098,"teuer":7099,"willing":7100,"Leute":7101,"Power":7102,"Profess":7103,"Griechen":7104,"Agreement":7105,"Homepage":7106,"menu":7107,"specifically":7108,"EW":7109,"län":7110,"supports":7111,"attle":7112,"benutzt":7113,"generation":7114,"Christian":7115,"selection":7116,"OF":7117,"confirm":7118,"erzielt":7119,"hagen":7120,"discussed":7121,"ended":7122,"risks":7123,"entspricht":7124,"attempt":7125,"gelöst":7126,"gestellten":7127,"Haltung":7128,"planning":7129,"icken":7130,"bestehenden":7131,"96":7132,"ties":7133,"entwicklung":7134,"zeichen":7135,"Dollar":7136,"Vorteile":7137,"zt":7138,"Osten":7139,"finanziellen":7140,"guard":7141,"Photo":7142,"bia":7143,"east":7144,"spective":7145,"lager":7146,"abr":7147,"Nahr":7148,"Beitritts":7149,"Garten":7150,"votes":7151,"running":7152,"Glück":7153,"leichter":7154,"Ident":7155,"Nacht":7156,"assessment":7157,"nahm":7158,"ambit":7159,"began":7160,"protected":7161,"discrimination":7162,"Künst":7163,"Milit":7164,"constitution":7165,"orea":7166,"Mio":7167,"anger":7168,"SQL":7169,"guest":7170,"mi":7171,"Policy":7172,"moral":7173,"season":7174,"CO2":7175,"achtet":7176,"Abschluss":7177,"compar":7178,"Rand":7179,"lying":7180,"Gerä":7181,"understanding":7182,"alloc":7183,"rural":7184,"ktoren":7185,"entsprechende":7186,"abwe":7187,"möglicherweise":7188,"schrift":7189,"Technologien":7190,"08":7191,"regret":7192,"Gold":7193,"discussions":7194,"Mün":7195,"Paket":7196,"uba":7197,"Frankfur":7198,"rechten":7199,"isol":7200,"precisely":7201,"Reserv":7202,"bege":7203,"brief":7204,"hre":7205,"kaum":7206,"umgesetzt":7207,"asser":7208,"festgelegt":7209,"unterschiedlichen":7210,"guidelines":7211,"ION":7212,"elegant":7213,"Erd":7214,"Schließlich":7215,"jene":7216,"tp":7217,"Anpass":7218,"adequate":7219,"India":7220,"families":7221,"Fonds":7222,"wogen":7223,"notwendigen":7224,"lust":7225,"hour":7226,"cers":7227,"stated":7228,"icip":7229,"1990":7230,"ichert":7231,"Hintergrund":7232,"aktuelle":7233,"Licht":7234,"mix":7235,"suitable":7236,"Barro":7237,"lemente":7238,"immigration":7239,"selben":7240,"1995":7241,"quant":7242,"hund":7243,"ery":7244,"Emiss":7245,"kommenden":7246,"Anspruch":7247,"Beih":7248,"graf":7249,"Vie":7250,"ube":7251,"Status":7252,"Asia":7253,"asks":7254,"temper":7255,"automatically":7256,"medic":7257,"chann":7258,"Produkten":7259,"entry":7260,"represents":7261,"russ":7262,"aint":7263,"manner":7264,"Sam":7265,"init":7266,"pension":7267,"ibilität":7268,"deckt":7269,"era":7270,"aries":7271,"Funktionen":7272,"introduced":7273,"Kenntnis":7274,"Lad":7275,"Chance":7276,"enterprises":7277,"iat":7278,"developments":7279,"ley":7280,"shopping":7281,"yourself":7282,"gleiche":7283,"Card":7284,"mindestens":7285,"rasch":7286,"schlä":7287,"Aufnahme":7288,"vit":7289,"klare":7290,"hilfe":7291,"villa":7292,"freuen":7293,"Cze":7294,"buy":7295,"geändert":7296,"plement":7297,"nachdem":7298,"Belarus":7299,"Herz":7300,"Grundsatz":7301,"moderne":7302,"Fel":7303,"ivity":7304,"manage":7305,"paper":7306,"spart":7307,"ids":7308,"Zunächst":7309,"aby":7310,"kund":7311,"Elekt":7312,"Standards":7313,"gehalten":7314,"dead":7315,"kitchen":7316,"reje":7317,"kept":7318,"Vorbereit":7319,"speaking":7320,"wants":7321,"ampag":7322,"LAN":7323,"binden":7324,"aupts":7325,"ureau":7326,"angegeben":7327,"improving":7328,"freiheit":7329,"aming":7330,"44":7331,"Schaden":7332,"introduction":7333,"rahmen":7334,"ense":7335,"Turk":7336,"referred":7337,"fisheries":7338,"schul":7339,"Station":7340,"defined":7341,"God":7342,"zuletzt":7343,"äu":7344,"buffet":7345,"Zwischen":7346,"electronic":7347,"uly":7348,"Sprachen":7349,"uals":7350,"itch":7351,"Liz":7352,"jur":7353,"stable":7354,"arischen":7355,"schem":7356,"ADS":7357,"police":7358,"Ausbildung":7359,"technische":7360,"provision":7361,"näher":7362,"übernachten":7363,"competitiveness":7364,"herunter":7365,"income":7366,"relate":7367,"analy":7368,"Middle":7369,"breiten":7370,"ständen":7371,"Costa":7372,"closely":7373,"03":7374,"Banken":7375,"marks":7376,"Beitritt":7377,"managed":7378,"tourist":7379,"John":7380,"animals":7381,"Vereinten":7382,"erfüllt":7383,"detailed":7384,"powerful":7385,"assungs":7386,"Por":7387,"amber":7388,"Mitgliedstaat":7389,"astr":7390,"gency":7391,"Effe":7392,"Sing":7393,"listed":7394,"cording":7395,"Inhalte":7396,"mehreren":7397,"dio":7398,"Klimawand":7399,"Forderung":7400,"Boden":7401,"linked":7402,"Betr":7403,"Ty":7404,"Economic":7405,"Dig":7406,"TR":7407,"artigen":7408,"prison":7409,"liefer":7410,"Greece":7411,"stät":7412,"bathroom":7413,"tief":7414,"Schla":7415,"functions":7416,"conver":7417,"präsident":7418,"iance":7419,"warten":7420,"Bush":7421,"swimming":7422,"cia":7423,"immen":7424,"decor":7425,"Initiativen":7426,"symbol":7427,"Termin":7428,"mechanis":7429,"supporting":7430,"street":7431,"Patient":7432,"proport":7433,"Mensch":7434,"evening":7435,"audio":7436,"coordination":7437,"hot":7438,"verfolgen":7439,"speech":7440,"visitors":7441,"64":7442,"avig":7443,"becoming":7444,"Kommunikation":7445,"lymp":7446,"ütze":7447,"vermeiden":7448,"Any":7449,"ancen":7450,"iums":7451,"quem":7452,"betonen":7453,"tur":7454,"Kal":7455,"paragraph":7456,"exactly":7457,"mitglie":7458,"financing":7459,"select":7460,"Pack":7461,"love":7462,"wanderung":7463,"combat":7464,"Dre":7465,"GN":7466,"Plen":7467,"erzielen":7468,"phr":7469,"zielle":7470,"verfügbar":7471,"weap":7472,"Work":7473,"aters":7474,"immern":7475,"flow":7476,"Bos":7477,"siehe":7478,"senden":7479,"CS":7480,"besonderen":7481,"gran":7482,"Abschließend":7483,"altungen":7484,"genannt":7485,"purposes":7486,"Why":7487,"multip":7488,"thousands":7489,"black":7490,"Czech":7491,"presidency":7492,"staatlichen":7493,"Dienste":7494,"ED":7495,"parliamentary":7496,"eingeschrän":7497,"remind":7498,"Prote":7499,"Instrumente":7500,"schwierig":7501,"weak":7502,"aded":7503,"affect":7504,"Regelung":7505,"sicherlich":7506,"weite":7507,"networks":7508,"benutzen":7509,"radio":7510,"satisf":7511,"verbessert":7512,"ints":7513,"resort":7514,"Beschl":7515,"teten":7516,"Qualitäts":7517,"Berichte":7518,"verur":7519,"spunkt":7520,"Zweck":7521,"Weit":7522,"gering":7523,"properly":7524,"duty":7525,"iser":7526,"interpret":7527,"Its":7528,"marketing":7529,"compens":7530,"gerichte":7531,"considerable":7532,"Körper":7533,"ifying":7534,"corporate":7535,"liebe":7536,"otherwise":7537,"Währungs":7538,"Abgeordnete":7539,"stärken":7540,"äden":7541,"ologischen":7542,"hnung":7543,"Bruss":7544,"defic":7545,"2011":7546,"Bereit":7547,"idents":7548,"05":7549,"roy":7550,"anderes":7551,"Arten":7552,"Stimme":7553,"liefert":7554,"sized":7555,"Vorgehen":7556,"Verwaltungs":7557,"Board":7558,"erhöhen":7559,"stechn":7560,"feature":7561,"Aust":7562,"white":7563,"collection":7564,"stattfinden":7565,"uropa":7566,"britann":7567,"Risiko":7568,"Alp":7569,"bear":7570,"Ratsvor":7571,"Brussels":7572,"criminal":7573,"Netzwerk":7574,"Sea":7575,"chines":7576,"iffer":7577,"earlier":7578,"Spr":7579,"born":7580,"comment":7581,"plants":7582,"difficulties":7583,"Zudem":7584,"refuge":7585,"recognis":7586,"facing":7587,"Pakistan":7588,"wären":7589,"Olymp":7590,"verring":7591,"spann":7592,"client":7593,"Übereinkommen":7594,"dram":7595,"ita":7596,"Vielfalt":7597,"watch":7598,"Motor":7599,"iler":7600,"wegung":7601,"thinking":7602,"Anwendungen":7603,"bereitet":7604,"uchs":7605,"extensive":7606,"Schiff":7607,"Einrichtungen":7608,"provider":7609,"hochwert":7610,"Installation":7611,"Arg":7612,"crete":7613,"electric":7614,"07":7615,"Tätigkeit":7616,"Wege":7617,"animal":7618,"werke":7619,"räge":7620,"resist":7621,"gefordert":7622,"ikal":7623,"ING":7624,"aschine":7625,"Lab":7626,"delivery":7627,"hle":7628,"felt":7629,"inal":7630,"isierten":7631,"Monate":7632,"Abend":7633,"04":7634,"rück":7635,"Presse":7636,"popul":7637,"Prioritäten":7638,"ünft":7639,"Suche":7640,"ienen":7641,"voller":7642,"Research":7643,"lob":7644,"Then":7645,"bodies":7646,"Never":7647,"button":7648,"Holz":7649,"konkrete":7650,"Mechan":7651,"According":7652,"ju":7653,"drawn":7654,"urban":7655,"lio":7656,"getting":7657,"dealing":7658,"pati":7659,"darstellen":7660,"proto":7661,"itter":7662,"GB":7663,"usually":7664,"wirks":7665,"Ban":7666,"Analyse":7667,"Moment":7668,"ökonom":7669,"freue":7670,"itate":7671,"idential":7672,"submitted":7673,"gewicht":7674,"gründet":7675,"http":7676,"forest":7677,"zentrum":7678,"declar":7679,"06":7680,"idet":7681,"itzerland":7682,"Büro":7683,"actual":7684,"Sinn":7685,"lieben":7686,"Großbritann":7687,"Script":7688,"Engagement":7689,"sage":7690,"shar":7691,"darunter":7692,"prüfung":7693,"Frem":7694,"Check":7695,"nieder":7696,"Bade":7697,"gelangen":7698,"February":7699,"expand":7700,"Straße":7701,"Desk":7702,"authority":7703,"Kindern":7704,"opposition":7705,"founded":7706,"cele":7707,"students":7708,"Unabhäng":7709,"haften":7710,"Veränderungen":7711,"mitten":7712,"atoren":7713,"euch":7714,"geeignet":7715,"öm":7716,"splä":7717,"Switzerland":7718,"Besucher":7719,"prem":7720,"amente":7721,"oker":7722,"üp":7723,"Gebieten":7724,"Schengen":7725,"Lam":7726,"einiger":7727,"Asyl":7728,"Einigung":7729,"atively":7730,"führer":7731,"Zeitraum":7732,"compat":7733,"save":7734,"Ak":7735,"openhagen":7736,"vac":7737,"Dav":7738,"consideration":7739,"finanzielle":7740,"presence":7741,"Leistungs":7742,"Achtung":7743,"followed":7744,"Katastrop":7745,"kräft":7746,"EP":7747,"promoting":7748,"omet":7749,"Stellungnahme":7750,"Sand":7751,"Dol":7752,"Brüssel":7753,"strict":7754,"auth":7755,"Grenz":7756,"medical":7757,"09":7758,"stände":7759,"hindert":7760,"Zweifel":7761,"aucher":7762,"terrace":7763,"behör":7764,"195":7765,"istence":7766,"funktioniert":7767,"elimin":7768,"entirely":7769,"humanitarian":7770,"ausdrücklich":7771,"ISO":7772,"konferenz":7773,"kern":7774,"flexibility":7775,"Cli":7776,"ergän":7777,"Health":7778,"picture":7779,"tourism":7780,"color":7781,"Flücht":7782,"angezeigt":7783,"Lesung":7784,"Anteil":7785,"anging":7786,"Associ":7787,"erstellt":7788,"Krä":7789,"Harmon":7790,"wagen":7791,"lement":7792,"hängt":7793,"opened":7794,"propose":7795,"acqu":7796,"programs":7797,"esterday":7798,"Königreich":7799,"Programms":7800,"richtigen":7801,"vertrag":7802,"vereinbar":7803,"Versch":7804,"Gemeinsamen":7805,"gebiet":7806,"02":7807,"bericht":7808,"hands":7809,"camera":7810,"entweder":7811,"experts":7812,"Unfortunately":7813,"defence":7814,"contr":7815,"degree":7816,"Other":7817,"ordinary":7818,"Sach":7819,"Charakter":7820,"auty":7821,"bemer":7822,"welcher":7823,"Ba":7824,"Fle":7825,"tail":7826,"Verständ":7827,"erklären":7828,"informed":7829,"dens":7830,"utin":7831,"rufen":7832,"Each":7833,"anlagen":7834,"Jetzt":7835,"Menge":7836,"Wal":7837,"klicken":7838,"Environment":7839,"Absatz":7840,"geschä":7841,"selected":7842,"konzentrieren":7843,"politischer":7844,"condem":7845,"applies":7846,"expens":7847,"Pun":7848,"nennen":7849,"sold":7850,"adoption":7851,"durchaus":7852,"signal":7853,"gewährleistet":7854,"Ern":7855,"Las":7856,"erreich":7857,"gewün":7858,"celebr":7859,"ication":7860,"tut":7861,"chmal":7862,"Anges":7863,"seriously":7864,"Arbeiten":7865,"Worte":7866,"Regul":7867,"gradu":7868,"implementing":7869,"beauf":7870,"aims":7871,"Einhaltung":7872,"ental":7873,"Band":7874,"entstehen":7875,"etze":7876,"Leistungen":7877,"winter":7878,"arf":7879,"Aufbau":7880,"Salz":7881,"saw":7882,"practices":7883,"kulturellen":7884,"belong":7885,"möglichst":7886,"gegenseit":7887,"Stärkung":7888,"dagegen":7889,"Poland":7890,"wollte":7891,"Rum":7892,"Private":7893,"threat":7894,"stet":7895,"zählen":7896,"Immobilien":7897,"SL":7898,"Entsch":7899,"belieb":7900,"domestic":7901,"Forderungen":7902,"gesp":7903,"spielt":7904,"connected":7905,"tte":7906,"iles":7907,"Found":7908,"Herausforderung":7909,"His":7910,"kräfte":7911,"mögliche":7912,"Verpflichtung":7913,"lokalen":7914,"Ed":7915,"establishment":7916,"Aspekt":7917,"acknow":7918,"ending":7919,"Jed":7920,"geleistet":7921,"entit":7922,"tie":7923,"pleasant":7924,"diskutieren":7925,"gewinnen":7926,"Wirk":7927,"39":7928,"kel":7929,"suppl":7930,"ecutive":7931,"rep":7932,"Firstly":7933,"signed":7934,"Som":7935,"ores":7936,"Warum":7937,"PHP":7938,"rank":7939,"alley":7940,"ideos":7941,"played":7942,"exclusive":7943,"calling":7944,"Enterprise":7945,"Teile":7946,"anspr":7947,"Kompon":7948,"Apartments":7949,"sle":7950,"fixed":7951,"phrase":7952,"Gott":7953,"enormous":7954,"Wellness":7955,"reducing":7956,"Entschließungsantrag":7957,"Ti":7958,"schöne":7959,"eit":7960,"monetary":7961,"beha":7962,"Einkauf":7963,"AU":7964,"dish":7965,"Versuch":7966,"Frankfurt":7967,"Adr":7968,"igkeits":7969,"tür":7970,"bound":7971,"phil":7972,"meetings":7973,"exter":7974,"core":7975,"Webseite":7976,"EF":7977,"Kritik":7978,"aspect":7979,"Maschinen":7980,"jederzeit":7981,"failure":7982,"assure":7983,"ünen":7984,"maßen":7985,"MB":7986,"dule":7987,"Over":7988,"meld":7989,"myself":7990,"Vielen":7991,"vernünft":7992,"erfolgen":7993,"Afrika":7994,"ernsthaf":7995,"besitz":7996,"playing":7997,"chron":7998,"informieren":7999,"Sorge":8000,"concrete":8001,"schech":8002,"ength":8003,"Hauses":8004,"gelegten":8005,"pap":8006,"zz":8007,"accur":8008,"verloren":8009,"bio":8010,"balanced":8011,"permanent":8012,"Barroso":8013,"Rä":8014,"rain":8015,"Rechnung":8016,"components":8017,"communications":8018,"65":8019,"church":8020,"EADS":8021,"Forum":8022,"III":8023,"geschehen":8024,"Trade":8025,"Europeans":8026,"sin":8027,"ala":8028,"icks":8029,"gelungen":8030,"politics":8031,"walking":8032,"tzen":8033,"krat":8034,"metres":8035,"Arbeitslosigkeit":8036,"Est":8037,"appears":8038,"average":8039,"gezogen":8040,"Allgem":8041,"hafte":8042,"zeugung":8043,"Justice":8044,"liance":8045,"delay":8046,"Verhältnis":8047,"feststellen":8048,"detail":8049,"unacceptable":8050,"luxur":8051,"Partnerschaft":8052,"cin":8053,"initial":8054,"statements":8055,"Februar":8056,"Ratsvorsitz":8057,"erleben":8058,"Dennoch":8059,"vehicles":8060,"Gewähr":8061,"abgeschlossen":8062,"Guest":8063,"MA":8064,"Lehr":8065,"teilweise":8066,"abilities":8067,"spie":8068,"yn":8069,"öffnen":8070,"Diskrimin":8071,"fulfil":8072,"Zeiten":8073,"habit":8074,"ips":8075,"producers":8076,"Überwachung":8077,"shower":8078,"Kommissions":8079,"reasonable":8080,"Leider":8081,"amin":8082,"owners":8083,"definit":8084,"unabhängig":8085,"Zuständ":8086,"leihen":8087,"3D":8088,"natur":8089,"differences":8090,"Eisen":8091,"governmental":8092,"aums":8093,"betrachtet":8094,"hingewiesen":8095,"mbly":8096,"ök":8097,"Because":8098,"leitung":8099,"rot":8100,"Justiz":8101,"icians":8102,"grant":8103,"Defin":8104,"regionalen":8105,"happened":8106,"geograph":8107,"het":8108,"erforderlichen":8109,"imag":8110,"recognition":8111,"drop":8112,"freut":8113,"purchase":8114,"üben":8115,"wait":8116,"nächste":8117,"Bran":8118,"fear":8119,"gestalten":8120,"Sem":8121,"endgült":8122,"peaceful":8123,"absolut":8124,"Texte":8125,"eingerichtet":8126,"qualität":8127,"sand":8128,"Leistung":8129,"scher":8130,"achtung":8131,"bewertungen":8132,"schreiben":8133,"folgende":8134,"Begriff":8135,"gegenwärtigen":8136,"Irish":8137,"verfolgt":8138,"landsc":8139,"Under":8140,"Prag":8141,"seh":8142,"buildings":8143,"gelassen":8144,"Ps":8145,"hing":8146,"leiden":8147,"cook":8148,"percent":8149,"grade":8150,"licherweise":8151,"tests":8152,"Mitte":8153,"2013":8154,"behaup":8155,"bequem":8156,"MO":8157,"Madrid":8158,"starke":8159,"gegenwärtig":8160,"Kingdom":8161,"vertre":8162,"Note":8163,"weight":8164,"appoint":8165,"positiv":8166,"easier":8167,"telephone":8168,"Top":8169,"punkte":8170,"Umfang":8171,"Meter":8172,"preise":8173,"genuine":8174,"beds":8175,"rob":8176,"unterstütze":8177,"estate":8178,"economies":8179,"conv":8180,"reise":8181,"iegen":8182,"Most":8183,"jeweils":8184,"seven":8185,"beob":8186,"Casino":8187,"Formen":8188,"Hor":8189,"Angaben":8190,"ugos":8191,"suite":8192,"introduce":8193,"Nahrungs":8194,"hner":8195,"ny":8196,"inside":8197,"scen":8198,"acts":8199,"Name":8200,"derer":8201,"Geist":8202,"asyl":8203,"Tic":8204,"wett":8205,"Wall":8206,"Schlaf":8207,"ente":8208,"indire":8209,"vul":8210,"äger":8211,"forth":8212,"benötigt":8213,"Mat":8214,"houses":8215,"strength":8216,"Treffen":8217,"Beihil":8218,"numbers":8219,"gave":8220,"agencies":8221,"niemand":8222,"49":8223,"übertragen":8224,"persönlich":8225,"erstellen":8226,"impress":8227,"Kontin":8228,"Fore":8229,"dangerous":8230,"unto":8231,"ometer":8232,"ameter":8233,"database":8234,"App":8235,"besuchen":8236,"Patienten":8237,"üter":8238,"600":8239,"Kompeten":8240,"Irland":8241,"ügen":8242,"unfortunately":8243,"sets":8244,"excess":8245,"Drogen":8246,"fügt":8247,"Meiner":8248,"vey":8249,"items":8250,"discover":8251,"erscheint":8252,"Herstellung":8253,"Wald":8254,"einsetzen":8255,"expend":8256,"umwelt":8257,"wirksam":8258,"demokratische":8259,"isine":8260,"dennoch":8261,"appar":8262,"800":8263,"ahead":8264,"wom":8265,"generally":8266,"Entwicklungen":8267,"larger":8268,"Verteidigung":8269,"okraten":8270,"schwe":8271,"Cur":8272,"Titel":8273,"versorgung":8274,"Europäer":8275,"flanzen":8276,"photograph":8277,"wonderful":8278,"Samm":8279,"Großbritannien":8280,"überein":8281,"wenigen":8282,"kunfts":8283,"ads":8284,"Mun":8285,"asylum":8286,"Heil":8287,"legitim":8288,"neighbour":8289,"überprüfen":8290,"multi":8291,"verw":8292,"guarantees":8293,"Element":8294,"worfen":8295,"Bewertung":8296,"fassen":8297,"Inn":8298,"voice":8299,"Sur":8300,"Betrieb":8301,"names":8302,"PR":8303,"genet":8304,"Na":8305,"offee":8306,"Angesichts":8307,"ishing":8308,"Problemen":8309,"becomes":8310,"trading":8311,"füll":8312,"consumption":8313,"ehrte":8314,"veröffentlicht":8315,"membership":8316,"stone":8317,"immediate":8318,"raise":8319,"Priorität":8320,"Dub":8321,"Ol":8322,"kul":8323,"definition":8324,"cards":8325,"improvement":8326,"establishing":8327,"Once":8328,"Ideen":8329,"korre":8330,"Gerichtshof":8331,"vents":8332,"stums":8333,"bereiten":8334,"Fortschritt":8335,"gewalt":8336,"Regulation":8337,"helpful":8338,"isierte":8339,"Control":8340,"phase":8341,"Hersteller":8342,"aufmerksam":8343,"Entwurf":8344,"Polen":8345,"impossible":8346,"carefully":8347,"unterschiedliche":8348,"Num":8349,"African":8350,"convin":8351,"Ausgang":8352,"bruch":8353,"Polize":8354,"Media":8355,"harm":8356,"Führung":8357,"imit":8358,"Hard":8359,"Prime":8360,"Support":8361,"Griechenland":8362,"geräum":8363,"Wand":8364,"evidence":8365,"Regelungen":8366,"Globalisierung":8367,"PDF":8368,"Ul":8369,"associated":8370,"owned":8371,"andidaten":8372,"orders":8373,"betroffen":8374,"told":8375,"zustimmen":8376,"Nah":8377,"transition":8378,"advanced":8379,"Break":8380,"Chancen":8381,"grenzüber":8382,"mächt":8383,"grenzen":8384,"vollkommen":8385,"hängen":8386,"reiber":8387,"PPE":8388,"instance":8389,"dlichen":8390,"toler":8391,"Black":8392,"Austral":8393,"vorliegenden":8394,"aves":8395,"Agentur":8396,"Fen":8397,"Gästebewertungen":8398,"sensitive":8399,"strongly":8400,"68":8401,"Poker":8402,"difference":8403,"ael":8404,"gg":8405,"Komfort":8406,"experienced":8407,"tätig":8408,"Turkish":8409,"ned":8410,"stance":8411,"verlassen":8412,"47":8413,"Link":8414,"schrän":8415,"intervention":8416,"roh":8417,"zuvor":8418,"Mitteln":8419,"profitieren":8420,"shared":8421,"42":8422,"capable":8423,"mine":8424,"conclusions":8425,"eingeführt":8426,"kostenlos":8427,"Kil":8428,"grounds":8429,"plätze":8430,"election":8431,"frag":8432,"DR":8433,"wirkt":8434,"Kohäs":8435,"Schw":8436,"attach":8437,"ausschusses":8438,"desire":8439,"anyone":8440,"Prov":8441,"Militär":8442,"Scho":8443,"ilateral":8444,"ECU":8445,"Rechnungs":8446,"fare":8447,"gewiss":8448,"Verlust":8449,"Vorsitzen":8450,"Act":8451,"Cam":8452,"excl":8453,"Beteiligung":8454,"offensichtlich":8455,"dir":8456,"Wür":8457,"Mark":8458,"Wien":8459,"finance":8460,"Beschäftigungs":8461,"ennen":8462,"jet":8463,"ni":8464,"died":8465,"Erhö":8466,"keeping":8467,"fiscal":8468,"spent":8469,"täglich":8470,"mun":8471,"Elemente":8472,"Offen":8473,"Worten":8474,"proof":8475,"linge":8476,"factory":8477,"Fi":8478,"ffizienz":8479,"truly":8480,"Palestinian":8481,"A5":8482,"wohner":8483,"Erklärungen":8484,"umin":8485,"rightly":8486,"master":8487,"zig":8488,"aria":8489,"citizen":8490,"1994":8491,"availability":8492,"machines":8493,"stärk":8494,"CC":8495,"Admin":8496,"closer":8497,"religious":8498,"weiterer":8499,"psych":8500,"züg":8501,"verbundenen":8502,"Wi":8503,"qualifiz":8504,"wishes":8505,"Anlagen":8506,"Einkommen":8507,"eingere":8508,"miteinander":8509,"compla":8510,"komfort":8511,"Links":8512,"Messe":8513,"allel":8514,"dimension":8515,"charged":8516,"üssen":8517,"commitments":8518,"continued":8519,"ktors":8520,"Maße":8521,"kompliz":8522,"territory":8523,"karten":8524,"packages":8525,"convinced":8526,"typical":8527,"mittag":8528,"continues":8529,"Klein":8530,"figures":8531,"führenden":8532,"Bern":8533,"collabor":8534,"insurance":8535,"Märkte":8536,"Kopf":8537,"EX":8538,"Paläst":8539,"spending":8540,"wortet":8541,"Technik":8542,"participate":8543,"USB":8544,"motiv":8545,"ania":8546,"Origin":8547,"zentral":8548,"perspective":8549,"Street":8550,"fanta":8551,"hosp":8552,"Geschäftsordnung":8553,"medizin":8554,"klang":8555,"Rein":8556,"organiz":8557,"Tourismus":8558,"iano":8559,"gemüt":8560,"umfasst":8561,"Jahrhunderts":8562,"models":8563,"tasks":8564,"verabschie":8565,"elected":8566,"beglück":8567,"ensions":8568,"ray":8569,"Commun":8570,"künd":8571,"Verbrechen":8572,"umfassende":8573,"length":8574,"Bedürfnisse":8575,"Et":8576,"angt":8577,"Indien":8578,"hum":8579,"beteiligt":8580,"kaufen":8581,"Mobil":8582,"Jour":8583,"führungen":8584,"suche":8585,"Beihilfen":8586,"atta":8587,"Mel":8588,"HO":8589,"cuisine":8590,"ategory":8591,"wesentlichen":8592,"Komple":8593,"passed":8594,"üss":8595,"langt":8596,"sofern":8597,"barr":8598,"translation":8599,"noon":8600,"honourable":8601,"haltet":8602,"zö":8603,"Due":8604,"pi":8605,"Quest":8606,"bestätigt":8607,"Budget":8608,"announced":8609,"Foreign":8610,"Strom":8611,"elegan":8612,"waiting":8613,"allowing":8614,"Rezept":8615,"einfachen":8616,"appeal":8617,"Sehens":8618,"adapt":8619,"Gleichzeitig":8620,"lösung":8621,"geschützt":8622,"Gran":8623,"changing":8624,"unless":8625,"Heimat":8626,"marked":8627,"zählt":8628,"Digital":8629,"jährigen":8630,"uting":8631,"Swe":8632,"Atlant":8633,"Wiederauf":8634,"Nevertheless":8635,"Van":8636,"vielfält":8637,"greatest":8638,"erecht":8639,"Association":8640,"krieg":8641,"studies":8642,"passt":8643,"zentrale":8644,"Press":8645,"ergeben":8646,"Todes":8647,"sämtliche":8648,"exercise":8649,"französischen":8650,"ieht":8651,"qualit":8652,"Karten":8653,"article":8654,"approxim":8655,"Nutzer":8656,"Mü":8657,"matic":8658,"nom":8659,"ambitious":8660,"geist":8661,"ashion":8662,"Main":8663,"Tab":8664,"Aktionen":8665,"Mitglieds":8666,"ologische":8667,"wahren":8668,"vorschlag":8669,"gap":8670,"solcher":8671,"satell":8672,"mak":8673,"mack":8674,"trav":8675,"Manager":8676,"wettbewer":8677,"garantiert":8678,"spo":8679,"Stein":8680,"booking":8681,"candidate":8682,"phen":8683,"Democrats":8684,"Pil":8685,"asil":8686,"equality":8687,"hose":8688,"örter":8689,"Nether":8690,"respective":8691,"Vielzahl":8692,"Lizenz":8693,"ata":8694,"ernst":8695,"gesundheit":8696,"spacious":8697,"described":8698,"sensus":8699,"highlight":8700,"Mindest":8701,"Bib":8702,"Click":8703,"internationaler":8704,"schiede":8705,"reden":8706,"Terrasse":8707,"Gründe":8708,"sides":8709,"outcome":8710,"revolution":8711,"ausgewä":8712,"learning":8713,"tran":8714,"gebe":8715,"achieving":8716,"prop":8717,"gypt":8718,"tabel":8719,"combination":8720,"Third":8721,"arten":8722,"Vien":8723,"tenance":8724,"Geschäft":8725,"Beschluss":8726,"Format":8727,"contrary":8728,"endum":8729,"größeren":8730,"Fire":8731,"Tip":8732,"igrants":8733,"Hafen":8734,"confir":8735,"sicherung":8736,"Finn":8737,"controls":8738,"nutz":8739,"Alban":8740,"Report":8741,"ungsverfahren":8742,"Gesprä":8743,"ENT":8744,"spread":8745,"ral":8746,"ller":8747,"possibilities":8748,"46":8749,"Empfehlungen":8750,"keinerlei":8751,"convenient":8752,"Sound":8753,"COM":8754,"Santa":8755,"organised":8756,"Kontroll":8757,"verteid":8758,"Registr":8759,"Fraktionen":8760,"krank":8761,"micro":8762,"Sof":8763,"schung":8764,"failed":8765,"Wechsel":8766,"ellos":8767,"colleague":8768,"Saint":8769,"gegangen":8770,"factor":8771,"wendet":8772,"stil":8773,"pure":8774,"änge":8775,"rock":8776,"seeing":8777,"weapons":8778,"Alex":8779,"stimmt":8780,"uster":8781,"fand":8782,"wealth":8783,"tainment":8784,"Rou":8785,"registered":8786,"istisch":8787,"Grundrechte":8788,"rechtlichen":8789,"grundsätz":8790,"onto":8791,"label":8792,"Eastern":8793,"installed":8794,"haupts":8795,"advis":8796,"finde":8797,"obviously":8798,"nachhaltige":8799,"Gaz":8800,"Wichtig":8801,"wünsche":8802,"yesterday":8803,"überall":8804,"nationaler":8805,"spolit":8806,"Gent":8807,"erei":8808,"expenditure":8809,"Gebiete":8810,"Summit":8811,"ausreichend":8812,"spezielle":8813,"ißen":8814,"Kirche":8815,"matik":8816,"Urs":8817,"erb":8818,"earth":8819,"dispos":8820,"nötig":8821,"Liber":8822,"reliable":8823,"Dimension":8824,"orge":8825,"Resort":8826,"himself":8827,"Player":8828,"Verletz":8829,"obligations":8830,"clo":8831,"außen":8832,"promotion":8833,"subje":8834,"venue":8835,"advance":8836,"district":8837,"betrachten":8838,"Option":8839,"payments":8840,"lehnt":8841,"stood":8842,"expression":8843,"Wün":8844,"Zoll":8845,"individuals":8846,"advertising":8847,"intelle":8848,"rough":8849,"Blog":8850,"Erst":8851,"Liberalisierung":8852,"Mik":8853,"Yet":8854,"Künstler":8855,"atures":8856,"court":8857,"disease":8858,"attractive":8859,"spot":8860,"diesel":8861,"factors":8862,"starken":8863,"Verb":8864,"atever":8865,"vorgeschlagenen":8866,"zufolge":8867,"Konz":8868,"rol":8869,"laid":8870,"Roy":8871,"kontext":8872,"sale":8873,"spät":8874,"deration":8875,"totally":8876,"bestell":8877,"Dut":8878,"observ":8879,"Botschaft":8880,"moving":8881,"enables":8882,"iking":8883,"Jeder":8884,"großes":8885,"Foundation":8886,"bieter":8887,"Arbeitsmarkt":8888,"Flexibilität":8889,"Hoffnung":8890,"Paul":8891,"Zahlen":8892,"Minderheiten":8893,"iertes":8894,"Universität":8895,"Live":8896,"asking":8897,"Monat":8898,"einfache":8899,"courses":8900,"Studio":8901,"jüngsten":8902,"grand":8903,"Beschreibung":8904,"verletz":8905,"command":8906,"correspon":8907,"abol":8908,"Ereignisse":8909,".-":8910,"leun":8911,"granted":8912,"lägen":8913,"ärm":8914,"ausgewogen":8915,"unable":8916,"Netherlands":8917,"liter":8918,"unternommen":8919,"Front":8920,"dorf":8921,"benach":8922,"cars":8923,"Realität":8924,"mie":8925,"winden":8926,"Mitgliedern":8927,"Niveau":8928,"fraud":8929,"trollen":8930,"Speicher":8931,"Hinweis":8932,"ua":8933,"existence":8934,"books":8935,"reservation":8936,"devices":8937,"Tom":8938,"zerstör":8939,"Grunde":8940,"ela":8941,"limits":8942,"Verständnis":8943,"prevention":8944,"entitled":8945,"sequent":8946,"strengthening":8947,"Cop":8948,"Syr":8949,"Sonnen":8950,"Back":8951,"Where":8952,"neither":8953,"Teilnehmer":8954,"governance":8955,"exhibition":8956,"NI":8957,"danach":8958,"User":8959,"garantieren":8960,"compared":8961,"udes":8962,"si":8963,"argument":8964,"threaten":8965,"aktionen":8966,"Freund":8967,"continuing":8968,"scr":8969,"Gesetzgebung":8970,"SC":8971,"grie":8972,"Schön":8973,"match":8974,"olo":8975,"gegründet":8976,"middle":8977,"hall":8978,"chst":8979,"vereign":8980,"sovereign":8981,"teilnehmen":8982,"gewisse":8983,"television":8984,"vorschlagen":8985,"completed":8986,"combined":8987,"bewegen":8988,"regeln":8989,"allgemeine":8990,"Mir":8991,"Sar":8992,"Journal":8993,"MU":8994,"asy":8995,"arbeite":8996,"Peter":8997,"Mutter":8998,"situations":8999,"Experten":9000,"Risiken":9001,"architecture":9002,"cm":9003,"einverstanden":9004,"Politiker":9005,"Eindruck":9006,"Day":9007,"nehmern":9008,"relativ":9009,"Marken":9010,"glass":9011,"160":9012,"write":9013,"Cypr":9014,"taste":9015,"betroffenen":9016,"Mittelmeer":9017,"Time":9018,"britischen":9019,"Croat":9020,"Marketing":9021,"festgestellt":9022,"Syn":9023,"43":9024,"Phase":9025,"store":9026,"grammat":9027,"türk":9028,"dated":9029,"stimul":9030,"SA":9031,"mode":9032,"Ruhe":9033,"philosop":9034,"Relig":9035,"Slow":9036,"beinhaltet":9037,"targets":9038,"recommendations":9039,"oppos":9040,"blog":9041,"Breakfast":9042,"ena":9043,"claims":9044,"würdigkeiten":9045,"White":9046,"anischen":9047,"proz":9048,"plays":9049,"independence":9050,"Studien":9051,"Bol":9052,"Custom":9053,"Meeres":9054,"inspe":9055,"kete":9056,"fruit":9057,"territorial":9058,"PRO":9059,"Agency":9060,"Meinungs":9061,"amoun":9062,"Fac":9063,"änglich":9064,"skills":9065,"Methode":9066,"Unabhängigkeit":9067,"Koordinierung":9068,"merely":9069,"außerord":9070,"Nu":9071,"voc":9072,"Rob":9073,"chnet":9074,"schir":9075,"Another":9076,"desk":9077,"Tisch":9078,"daraus":9079,"onia":9080,"Beob":9081,"Latin":9082,"iber":9083,"unit":9084,"älfte":9085,"erneuer":9086,"meant":9087,"bag":9088,"Gegenteil":9089,"handlungen":9090,"Datenschutz":9091,"ktivität":9092,"bene":9093,"Diskriminierung":9094,"patent":9095,"genannte":9096,"Pers":9097,"griffe":9098,"Beif":9099,"Colle":9100,"drin":9101,"erhöht":9102,"Distrib":9103,"Energy":9104,"beruf":9105,"Kombin":9106,"Prüfung":9107,"85":9108,"coffee":9109,"250":9110,"update":9111,"pil":9112,"Anlage":9113,"labor":9114,"mechanism":9115,"kmal":9116,"conclude":9117,"sid":9118,"istik":9119,"Flash":9120,"released":9121,"laut":9122,"Great":9123,"extended":9124,"Architektur":9125,"responsibilities":9126,"Datenbank":9127,"sec":9128,"informiert":9129,"Greek":9130,"angeht":9131,"breitung":9132,"hergestellt":9133,"Kind":9134,"lastung":9135,"allery":9136,"platform":9137,"Größe":9138,"tent":9139,"Festival":9140,"besitzt":9141,"geschieht":9142,"öp":9143,"hebung":9144,"memory":9145,"goals":9146,"Erhöhung":9147,"Klicken":9148,"mittels":9149,"anen":9150,"Gol":9151,"Aussicht":9152,"annt":9153,"interface":9154,"sobald":9155,"THE":9156,"gä":9157,"Deutsche":9158,"Engl":9159,"ässer":9160,"Überprüfung":9161,"uung":9162,"route":9163,"Ear":9164,"delic":9165,"umb":9166,"gesellschaften":9167,"nar":9168,"arms":9169,"bezeichnet":9170,"richtlinie":9171,"oral":9172,"Nichtr":9173,"jemand":9174,"museum":9175,"attform":9176,"Finan":9177,"chain":9178,"putting":9179,"reception":9180,"communities":9181,"iques":9182,"Dorf":9183,"bringing":9184,"consensus":9185,"burden":9186,"hlten":9187,"Zugriff":9188,"Voraussetzungen":9189,"theit":9190,"erfordert":9191,"agency":9192,"empfehlen":9193,"binding":9194,"intention":9195,"substantial":9196,"holung":9197,"Akte":9198,"ura":9199,"Roh":9200,"ador":9201,"gerufen":9202,"evalu":9203,"cycle":9204,"Muslim":9205,"Gegensatz":9206,"verste":9207,"inens":9208,"organisationen":9209,"atlant":9210,"seeking":9211,"employed":9212,"storage":9213,"Geh":9214,"speziellen":9215,"usual":9216,"compliance":9217,"estim":9218,"disch":9219,"notice":9220,"Sehenswürdigkeiten":9221,"NL":9222,"gutes":9223,"Plä":9224,"sequently":9225,"Data":9226,"Set":9227,"ausreichen":9228,"komplett":9229,"Erwart":9230,"Ausland":9231,"lect":9232,"mittelt":9233,"Nichtraucher":9234,"Bor":9235,"pä":9236,"discussing":9237,"Box":9238,"appointed":9239,"antages":9240,"iche":9241,"SV":9242,"zusätzlich":9243,"extend":9244,"Effizienz":9245,"Hall":9246,"Thus":9247,"politisch":9248,"Obama":9249,"vulner":9250,"41":9251,"Ganz":9252,"piece":9253,"Tha":9254,"tried":9255,"pill":9256,"visual":9257,"ancient":9258,"Kurz":9259,"drän":9260,"ventions":9261,"Ke":9262,"Bildungs":9263,"ördert":9264,"massive":9265,"contained":9266,"Vorteil":9267,"consistent":9268,"Städte":9269,"iode":9270,"flug":9271,"echte":9272,"raw":9273,"libr":9274,"science":9275,"background":9276,"personen":9277,"strategie":9278,"besseren":9279,"mov":9280,"Rome":9281,"technik":9282,"einzigen":9283,"bett":9284,"Bosn":9285,"Rumän":9286,"kehren":9287,"Refer":9288,"recovery":9289,"successfully":9290,"biggest":9291,"Wirkung":9292,"accessible":9293,"sorgfält":9294,"fassung":9295,"song":9296,"advice":9297,"Sho":9298,"journal":9299,"beginnt":9300,"Pflicht":9301,"maintenance":9302,"án":9303,"submit":9304,"JavaScript":9305,"push":9306,"Prodi":9307,"constantly":9308,"Find":9309,"chosen":9310,"ausführ":9311,"Alliance":9312,"winn":9313,"tten":9314,"faces":9315,"Absicht":9316,"Fax":9317,"schlagen":9318,"gebil":9319,"pas":9320,"jun":9321,"nations":9322,"erh":9323,"pul":9324,"addressed":9325,"ida":9326,"Romania":9327,"Michael":9328,"eur":9329,"story":9330,"wodurch":9331,"Prakt":9332,"Teilen":9333,"glad":9334,"Special":9335,"diskutiert":9336,"rec":9337,"Austrian":9338,"texts":9339,"manchmal":9340,"Männer":9341,"dedicated":9342,"wichtigste":9343,"perfectly":9344,"Niederland":9345,"hauptsächlich":9346,"Vil":9347,"Corpor":9348,"dynamic":9349,"zeß":9350,"Ebenso":9351,"thes":9352,"consolid":9353,"beaches":9354,"ée":9355,"Def":9356,"itage":9357,"Vienna":9358,"Kyo":9359,"Delegation":9360,"advantages":9361,"urge":9362,"tos":9363,"Streit":9364,"CP":9365,"Korea":9366,"ula":9367,"Generation":9368,"Charter":9369,"Willen":9370,"Seine":9371,"holders":9372,"Bestandteil":9373,"bezieht":9374,"globale":9375,"Hamburg":9376,"spezial":9377,"Minutes":9378,"testing":9379,"arrival":9380,"Those":9381,"edia":9382,"betont":9383,"England":9384,"Ros":9385,"Kyoto":9386,"sichtigung":9387,"Anpassung":9388,"sell":9389,"Bedarf":9390,"ländlichen":9391,"jungen":9392,"truth":9393,"Gedanken":9394,"DER":9395,"Lob":9396,"bureau":9397,"Chamber":9398,"engl":9399,"liothe":9400,"wann":9401,"usetzen":9402,"stream":9403,"schneller":9404,"Fa":9405,"category":9406,"istrat":9407,"ausländ":9408,"mes":9409,"vak":9410,"ordnungs":9411,"Klimawandel":9412,"reagieren":9413,"ugosla":9414,"Ker":9415,"zil":9416,"produktion":9417,"organization":9418,"fuel":9419,"thereby":9420,"Show":9421,"angs":9422,"qualified":9423,"higkeit":9424,"angene":9425,"guaranteed":9426,"sicherstellen":9427,"Austausch":9428,"quer":9429,"ump":9430,"900":9431,"Internationalen":9432,"causes":9433,"angel":9434,"intensive":9435,"entscheid":9436,"onial":9437,"Ra":9438,"Vorbereitung":9439,"Teilnahme":9440,"inary":9441,"attacks":9442,"ciliation":9443,"Fotos":9444,"Bahnhof":9445,"surface":9446,"tend":9447,"Express":9448,"Fert":9449,"1992":9450,"quid":9451,"modell":9452,"igem":9453,"zwungen":9454,"positiven":9455,"testen":9456,"seitens":9457,"ausende":9458,"Sweden":9459,"Berück":9460,"Ton":9461,"LT":9462,"Zustand":9463,"figur":9464,"Wander":9465,"aktual":9466,"explain":9467,"Bi":9468,"Know":9469,"surrounding":9470,"veget":9471,"idung":9472,"conduct":9473,"Inner":9474,"Strukturfonds":9475,"folgerungen":9476,"ablen":9477,"preserv":9478,"Fü":9479,"Company":9480,"isierungs":9481,"sichts":9482,"respekt":9483,"Reaktion":9484,"Fälle":9485,"unanim":9486,"übernommen":9487,"Muse":9488,"window":9489,"destroy":9490,"ktions":9491,"120":9492,"istenz":9493,"ergriffen":9494,"Blue":9495,"device":9496,"orien":9497,"gender":9498,"fällen":9499,"koordin":9500,"Einklang":9501,"talks":9502,"kontin":9503,"Welche":9504,"planned":9505,"Angriff":9506,"Gefühl":9507,"semin":9508,"aufen":9509,"mutual":9510,"Federal":9511,"Kooperation":9512,"instru":9513,"someone":9514,"behandeln":9515,"Financial":9516,"praktisch":9517,"TP":9518,"meters":9519,"bekannten":9520,"Gut":9521,"Methoden":9522,"ky":9523,"technological":9524,"wers":9525,"Beach":9526,"spezifischen":9527,"geste":9528,"orgnis":9529,"andererseits":9530,"evaluation":9531,"Formular":9532,"Ausnahme":9533,"kleiner":9534,"mechanisms":9535,"Anliegen":9536,"Pool":9537,"vieler":9538,"trifft":9539,"vehicle":9540,"teen":9541,"ichern":9542,"Bedenken":9543,"Verfüg":9544,"delegation":9545,"herzlich":9546,"tzentr":9547,"fühlen":9548,"gir":9549,"Schrif":9550,"ignor":9551,"fragt":9552,"Model":9553,"Non":9554,"ervice":9555,"issens":9556,"Nachrichten":9557,"sprachen":9558,"guter":9559,"cat":9560,"derzeitigen":9561,"akzeptiert":9562,"fug":9563,"contents":9564,"klusive":9565,"competence":9566,"stö":9567,"trend":9568,"Audit":9569,"EB":9570,"formal":9571,"occasion":9572,"flu":9573,"welchen":9574,"fein":9575,"beauty":9576,"metho":9577,"grundlage":9578,"Hälfte":9579,"gestern":9580,"explan":9581,"Institute":9582,"Kollege":9583,"Win":9584,"physical":9585,"persönliche":9586,"sched":9587,"Einwanderung":9588,"Tod":9589,"compl":9590,"stellte":9591,"Leitlinien":9592,"assum":9593,"sibly":9594,"ansion":9595,"Class":9596,"Paper":9597,"kürzlich":9598,"ando":9599,"Gesetze":9600,"determined":9601,"consultation":9602,"incent":9603,"versions":9604,"Rules":9605,"befassen":9606,"beschäftigt":9607,"imper":9608,"etter":9609,"blue":9610,"Grundsätze":9611,"Martin":9612,"ía":9613,"reply":9614,"Fitness":9615,"systemat":9616,"railway":9617,"holen":9618,"künst":9619,"browser":9620,"Ordnung":9621,"examples":9622,"rupt":9623,"geiz":9624,"aircraft":9625,"SO":9626,"dealt":9627,"Bill":9628,"ickt":9629,"zugleich":9630,"Kurs":9631,"migration":9632,"ague":9633,"Unterschiede":9634,"beachten":9635,"Diskussionen":9636,"TER":9637,"disposal":9638,"unsten":9639,"vielmehr":9640,"recognise":9641,"conditioning":9642,"schafft":9643,"werten":9644,"Sanktionen":9645,"sanctions":9646,"Beweis":9647,"investments":9648,"schritt":9649,"Fähigkeit":9650,"asp":9651,"verstärkt":9652,"ius":9653,"decades":9654,"gegebenen":9655,"Caf":9656,"Anti":9657,"fertigt":9658,"ws":9659,"secon":9660,"outstanding":9661,"Umständen":9662,"registration":9663,"beeinfl":9664,"Lord":9665,"industries":9666,"weiteres":9667,"nochmals":9668,"identity":9669,"Export":9670,"schau":9671,"patients":9672,"gearbeitet":9673,"Fer":9674,"spaces":9675,"dé":9676,"höchst":9677,"Berücksichtigung":9678,"Erde":9679,"oret":9680,"entially":9681,"distin":9682,"destru":9683,"Signal":9684,"ships":9685,"nearby":9686,"Radio":9687,"enge":9688,"geöffnet":9689,"empt":9690,"bestand":9691,"emphasise":9692,"flight":9693,"unzu":9694,"treated":9695,"representative":9696,"Farben":9697,"griech":9698,"Beifall":9699,"regionale":9700,"quir":9701,"Reisen":9702,"Beim":9703,"remove":9704,"bud":9705,"wing":9706,"dele":9707,"Strategien":9708,"Gebrauch":9709,"ategorie":9710,"reject":9711,"Nachdem":9712,"Perspe":9713,"Hist":9714,"aca":9715,"konkreten":9716,"Sun":9717,"kombin":9718,"Zahlungs":9719,"gespe":9720,"incorpor":9721,"leads":9722,"diversity":9723,"reve":9724,"räume":9725,"holidays":9726,"fuhr":9727,"surv":9728,"Apparte":9729,"resulting":9730,"körper":9731,"andels":9732,"colour":9733,"brings":9734,"agent":9735,"sieben":9736,"Ass":9737,"Skype":9738,"erscheinen":9739,"prinzip":9740,"Bewegung":9741,"oted":9742,"behörden":9743,"überzeugen":9744,"approval":9745,"Lö":9746,"zulegen":9747,"gewählt":9748,"verlieren":9749,"primarily":9750,"title":9751,"bac":9752,"cheap":9753,"Unterkunft":9754,"agiert":9755,"ffend":9756,"Veröffentlich":9757,"bindung":9758,"Tim":9759,"Nik":9760,"rejected":9761,"square":9762,"Fischer":9763,"damals":9764,"Definition":9765,"association":9766,"Dokumente":9767,"gewünsch":9768,"mlich":9769,"früh":9770,"liefern":9771,"Erwä":9772,"regelmäßig":9773,"Einkaufs":9774,"optimal":9775,"quote":9776,"Jahrzehn":9777,"fif":9778,"artists":9779,"abhängig":9780,"gone":9781,"edge":9782,"exec":9783,"fashion":9784,"Schulden":9785,"Untersuchung":9786,"bing":9787,"none":9788,"Besitz":9789,"hostels":9790,"Haut":9791,"boot":9792,"läu":9793,"exception":9794,"Maßnahme":9795,"Handeln":9796,"ora":9797,"surpr":9798,"bereiche":9799,"Lager":9800,"kommun":9801,"spezifische":9802,"ktiver":9803,"Sow":9804,"Schwar":9805,"auben":9806,"Spiele":9807,"Inseln":9808,"Landwirte":9809,"abled":9810,"jährlich":9811,"approximately":9812,"satellite":9813,"speakers":9814,"Autor":9815,"romant":9816,"institutionellen":9817,"Tai":9818,"wachen":9819,"Dutch":9820,"esty":9821,"repeated":9822,"grenzüberschreiten":9823,"dritten":9824,"stoffen":9825,"therap":9826,"previously":9827,"präsentiert":9828,"Verträge":9829,"üstung":9830,"relaxing":9831,"veranst":9832,"Argent":9833,"oples":9834,"selten":9835,"proportion":9836,"golf":9837,"meist":9838,"Lake":9839,"Pop":9840,"GU":9841,"gericht":9842,"complic":9843,"obst":9844,"knüp":9845,"ml":9846,"igern":9847,"holding":9848,"Straf":9849,"anerkannt":9850,"1000":9851,"VI":9852,"beziehung":9853,"species":9854,"Krisen":9855,"deiner":9856,"anbieten":9857,"Andre":9858,"spartner":9859,"fem":9860,"Engine":9861,"magn":9862,"junge":9863,"Graf":9864,"accounts":9865,"compatible":9866,"FA":9867,"Joh":9868,"leadership":9869,"parlament":9870,"begonnen":9871,"Both":9872,"Revolution":9873,"Wachstums":9874,"smoking":9875,"entstanden":9876,"Tagung":9877,"Glau":9878,"luxury":9879,"berühmten":9880,"sparte":9881,"Brazil":9882,"märkte":9883,"genü":9884,"Empfehlung":9885,"Tiere":9886,"Weitere":9887,"drugs":9888,"Wegen":9889,"penal":9890,"bezug":9891,"index":9892,"seien":9893,"Grenze":9894,"offic":9895,"mittlung":9896,"Sprach":9897,"requested":9898,"Antworten":9899,"mutz":9900,"Amerika":9901,"breitet":9902,"Laufe":9903,"einzelne":9904,"allgemein":9905,"agno":9906,"umfassenden":9907,"formed":9908,"igerung":9909,"subsidiar":9910,"Rezeption":9911,"Tibet":9912,"ido":9913,"Mak":9914,"hit":9915,"extreme":9916,"Komment":9917,"Sä":9918,"glück":9919,"resolve":9920,"Dublin":9921,"attitude":9922,"orgt":9923,"beraten":9924,"Lou":9925,"slight":9926,"gebunden":9927,"pp":9928,"verlangen":9929,"oram":9930,"ultim":9931,"Mehrwert":9932,"Safety":9933,"wichtiges":9934,"deutsche":9935,"disaster":9936,"manufacturing":9937,"gence":9938,"vorgenommen":9939,"zielt":9940,"eye":9941,"ampagne":9942,"uel":9943,"improvements":9944,"Stadtzentr":9945,"refugees":9946,"meister":9947,"entschlossen":9948,"Unterschied":9949,"knows":9950,"eight":9951,"Roll":9952,"wim":9953,"liber":9954,"prepare":9955,"ruhigen":9956,"forum":9957,"Premier":9958,"GDP":9959,"warded":9960,"zurückzu":9961,"horiz":9962,"stol":9963,"Stück":9964,"werfen":9965,"itime":9966,"river":9967,"faced":9968,"carbon":9969,"traditionellen":9970,"Pay":9971,"attractions":9972,"represented":9973,"Mol":9974,"Palace":9975,"plause":9976,"amongst":9977,"symp":9978,"Regime":9979,"consists":9980,"Studie":9981,"andal":9982,"controll":9983,"looks":9984,"endor":9985,"Vielleicht":9986,"mountains":9987,"primary":9988,"Ministers":9989,"aux":9990,"dok":9991,"ideale":9992,"basiert":9993,"iced":9994,"Alter":9995,"Pflanzen":9996,"steel":9997,"compensation":9998,"default":9999,"combating":10000,"TA":10001,"Dienstleistungs":10002,"error":10003,"Reich":10004,"Fenster":10005,"ae":10006,"Voraussetzung":10007,"ifiziert":10008,"defend":10009,"Details":10010,"unterschiedlich":10011,"Ungleich":10012,"Agrarpolitik":10013,"ipul":10014,"participants":10015,"Patent":10016,"grundlegenden":10017,"Zul":10018,"driving":10019,"ikanischen":10020,"Morgen":10021,"wirt":10022,"helping":10023,"Strategy":10024,"renewable":10025,"comply":10026,"Garantie":10027,"Feld":10028,"politicians":10029,"sky":10030,"beauftrag":10031,"Jose":10032,"Normen":10033,"Jean":10034,"beab":10035,"omas":10036,"Tool":10037,"Mach":10038,"Rem":10039,"smaller":10040,"Gesam":10041,"Fremden":10042,"keines":10043,"yr":10044,"substances":10045,"Schwerpunkt":10046,"diction":10047,"cool":10048,"discharge":10049,"liability":10050,"nearly":10051,"safeguard":10052,"ima":10053,"Solar":10054,"Key":10055,"domain":10056,"firstly":10057,"1993":10058,"Konsequ":10059,"significantly":10060,"stations":10061,"Vom":10062,"ikas":10063,"wegs":10064,"pleasure":10065,"Sehr":10066,"bildet":10067,"Altstadt":10068,"genauso":10069,"intellect":10070,"thers":10071,"assign":10072,"Vorsitz":10073,"mandate":10074,"Genehm":10075,"taxes":10076,"obligation":10077,"künftig":10078,"Jer":10079,"Gewicht":10080,"lake":10081,"ieties":10082,"erheblich":10083,"Allgemeinen":10084,"Ferner":10085,"Typ":10086,"couple":10087,"termine":10088,"kulturelle":10089,"multiple":10090,"Action":10091,"Via":10092,"inspir":10093,"Landschaft":10094,"fers":10095,"hi":10096,"willkommen":10097,"schlecht":10098,"menschlichen":10099,"affairs":10100,"permit":10101,"zuverläss":10102,"favor":10103,"Entwicklungsländern":10104,"folio":10105,"older":10106,"aktive":10107,"turned":10108,"repeat":10109,"manufacturers":10110,"suffering":10111,"Freude":10112,"peoples":10113,"langsam":10114,"enger":10115,"coher":10116,"reflect":10117,"directives":10118,"controlled":10119,"Atom":10120,"uk":10121,"700":10122,"A4":10123,"vous":10124,"funktionieren":10125,"dependent":10126,"Aufgrund":10127,"Veranstaltungen":10128,"wiederum":10129,"Glas":10130,"recognised":10131,"Egypt":10132,"disast":10133,"photos":10134,"haber":10135,"Umweltschutz":10136,"städ":10137,"poten":10138,"surrounded":10139,"Despite":10140,"calcul":10141,"plicit":10142,"spok":10143,"angehör":10144,"ispiele":10145,"AND":10146,"Angebote":10147,"List":10148,"arrangements":10149,"gs":10150,"Rund":10151,"itze":10152,"schwierigen":10153,"nos":10154,"abl":10155,"autom":10156,"Dy":10157,"regelmäß":10158,"Gesicht":10159,"Swed":10160,"RA":10161,"mobility":10162,"ehemaligen":10163,"Pin":10164,"Located":10165,"emphasis":10166,"Sau":10167,"constructive":10168,"extension":10169,"Thanks":10170,"exists":10171,"Verfügbarkeit":10172,"wesentliche":10173,"streben":10174,"Square":10175,"Übernach":10176,"iente":10177,"Hilfs":10178,"Eltern":10179,"uts":10180,"kinds":10181,"Tit":10182,"involving":10183,"Freunde":10184,"Liebe":10185,"fighting":10186,"auchen":10187,"bars":10188,"Schne":10189,"ventionen":10190,"Publik":10191,"Schäden":10192,"Befug":10193,"Hostelsclub":10194,"Wahrheit":10195,"soft":10196,"Gewinn":10197,"presentation":10198,"falsch":10199,"operators":10200,"Suite":10201,"Kandidaten":10202,"begrün":10203,"A3":10204,"Bör":10205,"CL":10206,"geboren":10207,"Stunde":10208,"requests":10209,"Browser":10210,"Hindern":10211,"Apartment":10212,"zweifellos":10213,"imal":10214,"Before":10215,"Satell":10216,"yes":10217,"rapporteurs":10218,"Polizei":10219,"schools":10220,"Bö":10221,"bek":10222,"Maria":10223,"trial":10224,"Abkommens":10225,"orte":10226,"liberalisation":10227,"diseases":10228,"umn":10229,"involvement":10230,"Jun":10231,"sehe":10232,"Sens":10233,"dramat":10234,"beschrieben":10235,"Two":10236,"gefördert":10237,"weltweiten":10238,"HD":10239,"Nice":10240,"ermaßen":10241,"iso":10242,"util":10243,"protecting":10244,"expectations":10245,"wettbewerbs":10246,"Massen":10247,"GNU":10248,"beseit":10249,"Hal":10250,"finding":10251,"staatliche":10252,"plug":10253,"illustr":10254,"courage":10255,"rown":10256,"Zusatz":10257,"blood":10258,"CN":10259,"lair":10260,"akes":10261,"Av":10262,"abling":10263,"höhere":10264,"Airbus":10265,"zunehmend":10266,"southern":10267,"soweit":10268,"herrscht":10269,"Kaffe":10270,"waters":10271,"kolle":10272,"terrorist":10273,"landscape":10274,"sight":10275,"Kombination":10276,"Klimaanlage":10277,"opposite":10278,"isted":10279,"Pod":10280,"Anfragen":10281,"feeling":10282,"drawing":10283,"treaty":10284,"neter":10285,"flächen":10286,"wissenschaftlichen":10287,"beträcht":10288,"Weiß":10289,"wachstum":10290,"höchste":10291,"naturally":10292,"hie":10293,"m2":10294,"EZ":10295,"opposed":10296,"UNO":10297,"birth":10298,"mur":10299,"heber":10300,"delivered":10301,"Eigenschaften":10302,"Harmonisierung":10303,"umzusetzen":10304,"tech":10305,"tact":10306,"annes":10307,"authent":10308,"Dach":10309,"Follow":10310,"servers":10311,"obstac":10312,"Balt":10313,"furnished":10314,"Sud":10315,"usche":10316,"holds":10317,"aktuell":10318,"contemporary":10319,"Überzeugung":10320,"Gentoo":10321,"Hong":10322,"launched":10323,"tedly":10324,"iction":10325,"legungen":10326,"weshalb":10327,"Schweden":10328,"aufzunehmen":10329,"aturen":10330,"happens":10331,"Ram":10332,"WC":10333,"pour":10334,"solve":10335,"fordere":10336,"lebens":10337,"KMU":10338,"Kranken":10339,"quellen":10340,"Royal":10341,"balcon":10342,"Nahen":10343,"Rh":10344,"Wur":10345,"marg":10346,"attemp":10347,"lieb":10348,"sn":10349,"Erwachsen":10350,"sinnvoll":10351,"dau":10352,"schwar":10353,"meldung":10354,"italienischen":10355,"whatever":10356,"ücken":10357,"zahlung":10358,"Ladies":10359,"wareness":10360,"debates":10361,"zusätzlichen":10362,"herrschen":10363,"expensive":10364,"shape":10365,"personally":10366,"unmittelbar":10367,"expertise":10368,"BM":10369,"applicable":10370,"amerikanische":10371,"heavy":10372,"stuff":10373,"ofin":10374,"figure":10375,"Mont":10376,"Gebur":10377,"Update":10378,"Nahrungsmittel":10379,"Vision":10380,"Use":10381,"betreffenden":10382,"criticism":10383,"millions":10384,"straße":10385,"Nachfrage":10386,"Flä":10387,"Got":10388,"Master":10389,"durchzuführen":10390,"stake":10391,"Genau":10392,"Gesetzes":10393,"antly":10394,"Einstellung":10395,"websites":10396,"Cook":10397,"sicherungs":10398,"rational":10399,"splätzen":10400,"parallel":10401,"bom":10402,"Krimin":10403,"hoher":10404,"1980":10405,"Erwartungen":10406,"Westen":10407,"Dadurch":10408,"Island":10409,"grundlegende":10410,"ethnic":10411,"BSE":10412,"auens":10413,"apter":10414,"kurzem":10415,"hospital":10416,"covers":10417,"zugänglich":10418,"output":10419,"ziemlich":10420,"officials":10421,"Verbesserungen":10422,"freundliche":10423,"Theater":10424,"igence":10425,"Touristen":10426,"künftigen":10427,"USD":10428,"Ann":10429,"drücken":10430,"bridge":10431,"hoff":10432,"üg":10433,"confirmed":10434,"ille":10435,"Dafür":10436,"David":10437,"enjo":10438,"verwalt":10439,"plate":10440,"ilst":10441,"entscheidend":10442,"consc":10443,"Festlegung":10444,"appreciate":10445,"Wirklichkeit":10446,"privacy":10447,"TE":10448,"Soc":10449,"Hohen":10450,"kontrolle":10451,"Zimmern":10452,"cro":10453,"Drittländern":10454,"Temper":10455,"beizu":10456,"tragung":10457,"vast":10458,"bekämpfen":10459,"afford":10460,"Audio":10461,"betrieben":10462,"CR":10463,"gänz":10464,"Swedish":10465,"iern":10466,"producing":10467,"FOR":10468,"uchten":10469,"begann":10470,"Problems":10471,"reten":10472,"arische":10473,"niemals":10474,"Good":10475,"nummer":10476,"führende":10477,"behörde":10478,"Mut":10479,"info":10480,"ulted":10481,"earn":10482,"itäre":10483,"nachzu":10484,"MEPs":10485,"gratulieren":10486,"whilst":10487,"Berufs":10488,"stron":10489,"opinions":10490,"Luxembourg":10491,"Tel":10492,"Änderungsanträgen":10493,"spring":10494,"interessiert":10495,"Kä":10496,"zöger":10497,"Fein":10498,"Kategorie":10499,"aufgefordert":10500,"Rotary":10501,"Amts":10502,"Vorschlägen":10503,"kurs":10504,"Ag":10505,"historische":10506,"ischung":10507,"happening":10508,"religiö":10509,"Dauer":10510,"stellungs":10511,"grad":10512,"Mittelpunkt":10513,"abgelehnt":10514,"plen":10515,"Rule":10516,"retain":10517,"uters":10518,"Heiz":10519,"corner":10520,"ittees":10521,"Übereinstimmung":10522,"Geräte":10523,"umping":10524,"resolutions":10525,"ismen":10526,"Papier":10527,"Klar":10528,"entwickelten":10529,"helps":10530,"equally":10531,"Verfassungs":10532,"acquis":10533,"Steuern":10534,"centres":10535,"paläst":10536,"Kann":10537,"thedr":10538,"iene":10539,"Ferienwohn":10540,"decis":10541,"parliaments":10542,"reichung":10543,"jährige":10544,"venture":10545,"präz":10546,"Metro":10547,"experiences":10548,"recommendation":10549,"Sad":10550,"reds":10551,"resolved":10552,"switch":10553,"münd":10554,"hlte":10555,"kurr":10556,"advoc":10557,"Serie":10558,"wirklichen":10559,"regulatory":10560,"Los":10561,"Que":10562,"Essen":10563,"außergewöhn":10564,"Ohne":10565,"anstatt":10566,"rev":10567,"Verring":10568,"certainty":10569,"restrictions":10570,"gehoben":10571,"66":10572,"ami":10573,"Rumänien":10574,"Emissionen":10575,"diverse":10576,"inflation":10577,"Div":10578,"umgeben":10579,"Menü":10580,"Geschle":10581,"valuable":10582,"palästinens":10583,"Strukturen":10584,"ingu":10585,"Fahrzeug":10586,"capt":10587,"familiar":10588,"alp":10589,"define":10590,"healthy":10591,"uppen":10592,"Nein":10593,"OK":10594,"reaching":10595,"nischen":10596,"contributions":10597,"Süden":10598,"Kapaz":10599,"riesigen":10600,"cra":10601,"regen":10602,"Beispiele":10603,"Four":10604,"TS":10605,"tu":10606,"conserv":10607,"entered":10608,"awareness":10609,"iary":10610,"strategies":10611,"iebs":10612,"intend":10613,"Ratspräsidentschaft":10614,"Brenn":10615,"contrast":10616,"Instead":10617,"proud":10618,"usal":10619,"hilft":10620,"cha":10621,"Hauptstadt":10622,"oli":10623,"Ungar":10624,"Schule":10625,"verlangt":10626,"flat":10627,"cycling":10628,"Dort":10629,"vess":10630,"schließt":10631,"thorough":10632,"universal":10633,"schef":10634,"Eisenbahn":10635,"ahnen":10636,"handling":10637,"Maastr":10638,"iban":10639,"volunt":10640,"articles":10641,"privile":10642,"skin":10643,"Framework":10644,"produkte":10645,"Expl":10646,"Balkan":10647,"bemüht":10648,"Arbeitsplätzen":10649,"Britain":10650,"determine":10651,"reserve":10652,"Entwicklungsländer":10653,"amounts":10654,"hervorheben":10655,"secret":10656,"Technology":10657,"MySQL":10658,"Rich":10659,"Enjoy":10660,"para":10661,"snow":10662,"äten":10663,"ipp":10664,"unktions":10665,"uh":10666,"annehmen":10667,"collective":10668,"Krankheiten":10669,"Late":10670,"Armen":10671,"2012":10672,"latter":10673,"Punkten":10674,"ierend":10675,"Copy":10676,"president":10677,"ausgezeichneten":10678,"füllung":10679,"verändern":10680,"BIP":10681,"legally":10682,"verhalten":10683,"direkte":10684,"veran":10685,"ausgesprochen":10686,"manager":10687,"natürlichen":10688,"conciliation":10689,"berechtigt":10690,"Cyprus":10691,"betrieb":10692,"recommended":10693,"Turn":10694,"Materialien":10695,"Sonn":10696,"gi":10697,"anschließen":10698,"continent":10699,"relatively":10700,"Bulgaria":10701,"beglückwünschen":10702,"passengers":10703,"ateful":10704,"increases":10705,"bedroom":10706,"eingeschränkt":10707,"Erinner":10708,"western":10709,"entdeck":10710,"nachhaltigen":10711,"anner":10712,"einerseits":10713,"trotzdem":10714,"units":10715,"Hü":10716,"ahme":10717,"largely":10718,"heil":10719,"ehrgeiz":10720,"spür":10721,"involve":10722,"sexual":10723,"engineering":10724,"Monetary":10725,"Director":10726,"Freizeit":10727,"SMEs":10728,"Original":10729,"maschinen":10730,"Brasil":10731,"spanischen":10732,"erinner":10733,"wirtschaftlicher":10734,"Croatia":10735,"requirement":10736,"Beratung":10737,"Zentralbank":10738,"München":10739,"DS":10740,"besitzen":10741,"Kunde":10742,"geschäft":10743,"Szen":10744,"ändler":10745,"bilateral":10746,"Ima":10747,"exc":10748,"installiert":10749,"excit":10750,"restric":10751,"Kohäsion":10752,"andon":10753,"Haup":10754,"eröffnet":10755,"faction":10756,"ursprünglichen":10757,"büro":10758,"zentralen":10759,"flüge":10760,"komme":10761,"wirkung":10762,"contracts":10763,"schätzung":10764,"View":10765,"Life":10766,"Ausführungen":10767,"password":10768,"facilitate":10769,"Bew":10770,"lautet":10771,"Entscheidungs":10772,"windigkeit":10773,"stes":10774,"Mem":10775,"USS":10776,"zugunsten":10777,"verändert":10778,"rare":10779,"Arme":10780,"ameras":10781,"Tatsächlich":10782,"verabschiedet":10783,"aka":10784,"quarter":10785,"Old":10786,"Schnitt":10787,"denk":10788,"straight":10789,"ausgezeichnete":10790,"vollständige":10791,"precise":10792,"Kroat":10793,"discip":10794,"fähr":10795,"faith":10796,"Mitgliedschaft":10797,"ole":10798,"impression":10799,"operational":10800,"swe":10801,"Like":10802,"automatic":10803,"Provin":10804,"Gästen":10805,"rote":10806,"Agricult":10807,"deter":10808,"ruct":10809,"fertig":10810,"Rent":10811,"Zwei":10812,"Prüf":10813,"Champ":10814,"detaill":10815,"Bedien":10816,"einrichtungen":10817,"loaded":10818,"shad":10819,"letzter":10820,"Struct":10821,"erwähn":10822,"conflicts":10823,"Angst":10824,"Spann":10825,"BR":10826,"Kamera":10827,"lip":10828,"Studenten":10829,"zuständigen":10830,"gather":10831,"aside":10832,"minority":10833,"privat":10834,"Bibliothe":10835,"päck":10836,"moved":10837,"Aktien":10838,"angemessene":10839,"Plaza":10840,"dienste":10841,"aktivieren":10842,"Frien":10843,"Plenum":10844,"PA":10845,"Anwendungs":10846,"Legal":10847,"Verringerung":10848,"kans":10849,"ario":10850,"zne":10851,"zulassen":10852,"lebnis":10853,"ossen":10854,"Moun":10855,"inzwischen":10856,"Munich":10857,"Alternative":10858,"Websites":10859,"verursacht":10860,"Außenpolitik":10861,"Behinder":10862,"angehen":10863,"Mas":10864,"entspannen":10865,"1991":10866,"tlichen":10867,"ermut":10868,"esch":10869,"Gleichgewicht":10870,"fee":10871,"exclusively":10872,"hervorragende":10873,"achte":10874,"proved":10875,"Take":10876,"bewält":10877,"visa":10878,"Cent":10879,"Ausgabe":10880,"warr":10881,"Frü":10882,"Freiheiten":10883,"prohib":10884,"meat":10885,"zuerst":10886,"rac":10887,"takte":10888,"profile":10889,"volume":10890,"äumen":10891,"österreich":10892,"Schatten":10893,"magaz":10894,"welfare":10895,"gewonnen":10896,"Standort":10897,"Optim":10898,"richtet":10899,"destination":10900,"gewissen":10901,"fällig":10902,"orten":10903,"Regierungskonferenz":10904,"ipel":10905,"Kn":10906,"Vi":10907,"Ziffer":10908,"filter":10909,"Projekten":10910,"Subsid":10911,"erlauben":10912,"ais":10913,"runs":10914,"removed":10915,"exceptional":10916,"Stadtzentrum":10917,"Europol":10918,"creative":10919,"Meet":10920,"würdigkeit":10921,"notwendige":10922,"string":10923,"Page":10924,"judicial":10925,"Plug":10926,"interessant":10927,"objects":10928,"Grad":10929,"derartige":10930,"Drittens":10931,"künfte":10932,"Direkt":10933,"weisung":10934,"Vereinbarungen":10935,"Abschnitt":10936,"obtained":10937,"preparation":10938,"identify":10939,"derung":10940,"helped":10941,"enthus":10942,"1989":10943,"thet":10944,"teils":10945,"buchen":10946,"Redner":10947,"Prinzipien":10948,"Einbeziehung":10949,"Charta":10950,"geboten":10951,"worse":10952,"issued":10953,"creates":10954,"Norden":10955,"Word":10956,"schnelle":10957,"Jes":10958,"Verbot":10959,"dritte":10960,"named":10961,"Liby":10962,"CF":10963,"Vice":10964,"legte":10965,"freiwill":10966,"derart":10967,"klaren":10968,"Church":10969,"River":10970,"Proced":10971,"Arbeitsplatz":10972,"Ware":10973,"witness":10974,"bele":10975,"individuell":10976,"Küste":10977,"Fluss":10978,"88":10979,"ancy":10980,"realistic":10981,"kostet":10982,"westlichen":10983,"geäuß":10984,"ministers":10985,"Israeli":10986,"genehm":10987,"Konsens":10988,"depends":10989,"subsidies":10990,"grateful":10991,"vig":10992,"Il":10993,"customs":10994,"waffen":10995,"habt":10996,"Vorschlags":10997,"Küsten":10998,"charming":10999,"onomie":11000,"Tschech":11001,"eyes":11002,"curs":11003,"Englisch":11004,"Anschluss":11005,"Music":11006,"Boot":11007,"Partnern":11008,"erhältlich":11009,"zin":11010,"Kontext":11011,"Programmen":11012,"Edu":11013,"chnen":11014,"schwed":11015,"catalog":11016,"Zyp":11017,"Ausführung":11018,"Indones":11019,"trafficking":11020,"discovered":11021,"intent":11022,"außerordentlich":11023,"schlägt":11024,"Zert":11025,"Einheit":11026,"Whe":11027,"77":11028,"Fran":11029,"organizations":11030,"Glauben":11031,"ograf":11032,"Viertel":11033,"productive":11034,"higkeiten":11035,"kontakt":11036,"uropäischen":11037,"firms":11038,"sah":11039,"verwe":11040,"eigenes":11041,"fehlt":11042,"Pen":11043,"Bauern":11044,"ighten":11045,"Kommunikations":11046,"neuesten":11047,"Politiken":11048,"Kommun":11049,"Funds":11050,"Pact":11051,"Stahl":11052,"angesehen":11053,"award":11054,"entdecken":11055,"Inc":11056,"remote":11057,"Stimmen":11058,"verdient":11059,"understood":11060,"iot":11061,"pollution":11062,"Trag":11063,"auftreten":11064,"kommunik":11065,"hardware":11066,"Nos":11067,"sers":11068,"ceeded":11069,"IX":11070,"effectiveness":11071,"LO":11072,"foll":11073,"hart":11074,"sauber":11075,"Investitions":11076,"bestätigen":11077,"geprüft":11078,"erstre":11079,"ferner":11080,"Anbieter":11081,"minuten":11082,"dor":11083,"jetz":11084,"echten":11085,"Jack":11086,"topic":11087,"flag":11088,"maintained":11089,"lobby":11090,"anze":11091,"eds":11092,"viet":11093,"zza":11094,"corruption":11095,"loyment":11096,"austausch":11097,"beschränkt":11098,"Food":11099,"bildungs":11100,"functioning":11101,"ops":11102,"Bucht":11103,"mini":11104,"erweitert":11105,"ão":11106,"imposed":11107,"committees":11108,"nt":11109,"israel":11110,"Schuld":11111,"aught":11112,"declaration":11113,"verbesser":11114,"Washing":11115,"correctly":11116,"Amendments":11117,"schuld":11118,"Applause":11119,"oring":11120,"reiz":11121,"veränder":11122,"wirtschaftlich":11123,"beschleun":11124,"früheren":11125,"ausgesetzt":11126,"ultimately":11127,"begrüßt":11128,"Slovak":11129,"lets":11130,"ausschuß":11131,"reserves":11132,"AKP":11133,"residence":11134,"Subsidiar":11135,"beträgt":11136,"igsten":11137,"durchführen":11138,"depth":11139,"Faktoren":11140,"Blut":11141,"wild":11142,"verleihen":11143,"lev":11144,"entlang":11145,"Beam":11146,"Executive":11147,"rohung":11148,"Putin":11149,"vorlegen":11150,"Vermögen":11151,"Urlau":11152,"Verfahrens":11153,"höchsten":11154,"parents":11155,"ziplin":11156,"uier":11157,"handels":11158,"starten":11159,"stab":11160,"Fähigkeiten":11161,"grenzung":11162,"Taiwan":11163,"uese":11164,"icon":11165,"trages":11166,"remaining":11167,"Welcome":11168,"phenomen":11169,"statistics":11170,"Question":11171,"Vene":11172,"ifications":11173,"bedau":11174,"flege":11175,"boat":11176,"offices":11177,"deals":11178,"charges":11179,"Veranstaltung":11180,"emergency":11181,"kette":11182,"Monte":11183,"verringern":11184,"sorge":11185,"pieces":11186,"Planung":11187,"Mobilität":11188,"ym":11189,"phar":11190,"schätzen":11191,"67":11192,"katastrop":11193,"ativer":11194,"focused":11195,"Gestaltung":11196,"gold":11197,"battle":11198,"ießen":11199,"CON":11200,"UM":11201,"vergleich":11202,"angebot":11203,"sichere":11204,"liste":11205,"leaving":11206,"denkt":11207,"ema":11208,"cancel":11209,"organisiert":11210,"Elect":11211,"aps":11212,"Stift":11213,"hole":11214,"delighted":11215,"Client":11216,"disp":11217,"bestimmen":11218,"arab":11219,"Gespräche":11220,"Ferr":11221,"oud":11222,"succeed":11223,"School":11224,"DC":11225,"dich":11226,"Very":11227,"sorgt":11228,"reported":11229,"ausgeschlossen":11230,".....":11231,"aktiven":11232,"Distribution":11233,"Plus":11234,"arded":11235,"gewinn":11236,"promises":11237,"rechtliche":11238,"chinesischen":11239,"Lim":11240,"bart":11241,"assend":11242,"acting":11243,"geltenden":11244,"Haft":11245,"isto":11246,"schauen":11247,"Infl":11248,"Gesellschaften":11249,"fänger":11250,"abroad":11251,"Canada":11252,"Sorgen":11253,"zustand":11254,"sodass":11255,"kill":11256,"Urspr":11257,"characteristics":11258,"abandon":11259,"answers":11260,"leichtern":11261,"HTML":11262,"Maastricht":11263,"kas":11264,"themat":11265,"Polish":11266,"protocol":11267,"drug":11268,"Cho":11269,"ani":11270,"Washington":11271,"gezwungen":11272,"treiben":11273,"Übersetzung":11274,"Krie":11275,"Bemerkungen":11276,"cable":11277,"Abhäng":11278,"serves":11279,"Mode":11280,"investors":11281,"messages":11282,"minorities":11283,"effektiv":11284,"restruct":11285,"Verbindungen":11286,"demonstrate":11287,"IE":11288,"sozi":11289,"trees":11290,"marquis":11291,"kohol":11292,"Baby":11293,"accompan":11294,"erging":11295,"Amerikan":11296,"Marktes":11297,"Farb":11298,"temperature":11299,"ussen":11300,"wiegen":11301,"hinzufügen":11302,"liegenden":11303,"streets":11304,"gespielt":11305,"Copenhagen":11306,"nd":11307,"prosper":11308,"supposed":11309,"Asse":11310,"abgestimmt":11311,"Frühstücks":11312,"eins":11313,"Werbung":11314,"cutting":11315,"unmöglich":11316,"trop":11317,"locations":11318,"Besorgnis":11319,"tours":11320,"verbrauch":11321,"schwä":11322,"telefon":11323,"Max":11324,"Able":11325,"erleichtern":11326,"justified":11327,"Bir":11328,"verehrte":11329,"behavi":11330,"usern":11331,"Puer":11332,"wünsch":11333,"werb":11334,"Zielen":11335,"Automobil":11336,"mung":11337,"somewhat":11338,"Image":11339,"cold":11340,"verhindert":11341,"electricity":11342,"leisure":11343,"demonstrated":11344,"hundreds":11345,"aufnehmen":11346,"lav":11347,"ogen":11348,"Wird":11349,"Umgang":11350,"root":11351,"solange":11352,"Asien":11353,"alts":11354,"noise":11355,"bedrooms":11356,"Ret":11357,"speaker":11358,"conducted":11359,"ungefähr":11360,"kurze":11361,"reiter":11362,"anke":11363,"connections":11364,"tackle":11365,"icans":11366,"Zusätz":11367,"Baltic":11368,"kontinuier":11369,"Procedure":11370,"86":11371,"noted":11372,"Partners":11373,"bilater":11374,"Their":11375,"George":11376,"zeptabel":11377,"Protection":11378,"unent":11379,"pekt":11380,"crimes":11381,"pick":11382,"dans":11383,"adopting":11384,"maintaining":11385,"Halb":11386,"clim":11387,"collect":11388,"Portuguese":11389,"constitutional":11390,"projekt":11391,"bemühen":11392,"Kräfte":11393,"cam":11394,"transatlant":11395,"tags":11396,"einheitlichen":11397,"Beiträge":11398,"akzeptabel":11399,"forschung":11400,"spakt":11401,"produziert":11402,"Konto":11403,"conce":11404,"globalisation":11405,"module":11406,"Optionen":11407,"Komponenten":11408,"iana":11409,"Ski":11410,"journey":11411,"Jedes":11412,"lined":11413,"Chair":11414,"hlung":11415,"Legisl":11416,"appeared":11417,"Author":11418,"norm":11419,"Beziehung":11420,"Garden":11421,"onsor":11422,"bekräft":11423,"pharma":11424,"Vorhaben":11425,"Führer":11426,"ruhig":11427,"übernimmt":11428,"demanding":11429,"Gefahren":11430,"Edit":11431,"Geheim":11432,"Robert":11433,"IDS":11434,"sleep":11435,"Pia":11436,"Access":11437,"ticket":11438,"furniture":11439,"Consum":11440,"intensiv":11441,"VER":11442,"navig":11443,"regularly":11444,"Kat":11445,"zeichnis":11446,"definiert":11447,"credibility":11448,"coal":11449,"welchem":11450,"itag":11451,"geprä":11452,"passiert":11453,"WLAN":11454,"scheinen":11455,"spectac":11456,"anne":11457,"intellectual":11458,"iron":11459,"twent":11460,"akte":11461,"Ausstellung":11462,"Defiz":11463,"sätzen":11464,"involves":11465,"immigrants":11466,"verschiedener":11467,"tatsäch":11468,"lists":11469,"wollten":11470,"Kabel":11471,"replace":11472,"Geträn":11473,"äußern":11474,"kurzfrist":11475,"Jac":11476,"concluded":11477,"jenen":11478,"schönsten":11479,"DN":11480,"remark":11481,"voran":11482,"Klasse":11483,"bekämpfung":11484,"schaffung":11485,"Vorbe":11486,"konkret":11487,"stoß":11488,"Pic":11489,"getrenn":11490,"faster":11491,"endung":11492,"Argument":11493,"Plattform":11494,"supplement":11495,"metal":11496,"einig":11497,"license":11498,"expansion":11499,"lays":11500,"actively":11501,"verurteilt":11502,"Brand":11503,"zard":11504,"bezahlen":11505,"eu":11506,"legitimate":11507,"schirm":11508,"Year":11509,"iest":11510,"facts":11511,"divided":11512,"Dynam":11513,"itar":11514,"ource":11515,"Gaza":11516,"pic":11517,"IK":11518,"director":11519,"Opposition":11520,"follows":11521,"stehende":11522,"corded":11523,"Noch":11524,"youth":11525,"gänge":11526,"Betre":11527,"Resolution":11528,"Japanese":11529,"Farbe":11530,"Given":11531,"ACP":11532,"respected":11533,"ports":11534,"artet":11535,"Aktual":11536,"schäd":11537,"57":11538,"uttle":11539,"Kompetenz":11540,"cohol":11541,"fac":11542,"federal":11543,"roads":11544,"subsidiarity":11545,"spoken":11546,"prozesses":11547,"BA":11548,"Rechtsstaat":11549,"Cha":11550,"careful":11551,"inhabit":11552,"spekt":11553,"Sund":11554,"unfair":11555,"Schau":11556,"Congress":11557,"dishes":11558,"Structural":11559,"Friday":11560,"52":11561,"nut":11562,"Polit":11563,"Identität":11564,"Mall":11565,"ongoing":11566,"Sektoren":11567,"Hamas":11568,"beziehungen":11569,"Erholung":11570,"impressive":11571,"Block":11572,"Cit":11573,"Konsult":11574,"ikes":11575,"versamm":11576,"pattern":11577,"Ku":11578,"Mangel":11579,"Nap":11580,"Är":11581,"determination":11582,"entertainment":11583,"Var":11584,"CA":11585,"aussprechen":11586,"boost":11587,"gestaltet":11588,"infr":11589,"letztlich":11590,"Deswegen":11591,"Yes":11592,"nunmehr":11593,"contacts":11594,"indicated":11595,"ère":11596,"Ersatz":11597,"channel":11598,"Anmer":11599,"Bug":11600,"traditions":11601,"ausgeführt":11602,"competent":11603,"Mexico":11604,"reveal":11605,"Einschrän":11606,"Perhaps":11607,"verwand":11608,"Energien":11609,"kurzen":11610,"Fundamental":11611,"stem":11612,"radi":11613,"Feuer":11614,"Erzeugnisse":11615,"Phone":11616,"C5":11617,"Milch":11618,"Krankheit":11619,"GM":11620,"oub":11621,"oni":11622,"Ambien":11623,"lu":11624,"sq":11625,"maritime":11626,"sorgfältig":11627,"cab":11628,"sac":11629,"heritage":11630,"connect":11631,"Schlussfolgerungen":11632,"obli":11633,"overcome":11634,"organized":11635,"onymous":11636,"rechen":11637,"füllen":11638,"zusammenarbeiten":11639,"wesend":11640,"classic":11641,"56":11642,"updated":11643,"emerging":11644,"amerika":11645,"Cer":11646,"VAT":11647,"Versamm":11648,"Veröffentlichung":11649,"erinnert":11650,"mista":11651,"Michel":11652,"comed":11653,"inser":11654,"direkten":11655,"endorse":11656,"51":11657,"züge":11658,"autonom":11659,"taxation":11660,"encouraging":11661,"verstärken":11662,"weather":11663,"Eis":11664,"SAP":11665,"höheren":11666,"musste":11667,"Respekt":11668,"Vize":11669,"ès":11670,"aggress":11671,"wender":11672,"flexib":11673,"Reduz":11674,"Wohlstand":11675,"Untersuchungen":11676,"Fehl":11677,"Rechnungshof":11678,"interven":11679,"plenary":11680,"Ambiente":11681,"Kontrollen":11682,"stronger":11683,"SK":11684,"atom":11685,"explicit":11686,"jegliche":11687,"bestehende":11688,"entscheidende":11689,"idden":11690,"ifies":11691,"Ausmaß":11692,"vely":11693,"strategischen":11694,"bottom":11695,"Baum":11696,"zonen":11697,"Einstellungen":11698,"UNG":11699,"UT":11700,"finished":11701,"Sauna":11702,"zneimit":11703,"mother":11704,"Law":11705,"Mobile":11706,"ausend":11707,"durchschnitt":11708,"displayed":11709,"anspruchs":11710,"Ausgangspunkt":11711,"Einw":11712,"programms":11713,"heutige":11714,"tickets":11715,"WF":11716,"Schü":11717,"newly":11718,"gewährt":11719,"zir":11720,"Balkans":11721,"visible":11722,"fleet":11723,"Equ":11724,"walls":11725,"decre":11726,"usehen":11727,"eral":11728,"chemical":11729,"zneimittel":11730,"solar":11731,"Marina":11732,"Fair":11733,"Symbol":11734,"dign":11735,"kter":11736,"Women":11737,"Geschäfte":11738,"scheidet":11739,"inclusion":11740,"gefallen":11741,"Bestellung":11742,"outdoor":11743,"Beste":11744,"Guide":11745,"Poten":11746,"seat":11747,"gor":11748,"Wild":11749,"bike":11750,"dinner":11751,"atre":11752,"behaviour":11753,"gigen":11754,"kal":11755,"theoret":11756,"Clear":11757,"Wa":11758,"parks":11759,"proposes":11760,"frequently":11761,"wiederholen":11762,"traum":11763,"assets":11764,"Ado":11765,"fab":11766,"kens":11767,"collaboration":11768,"verf":11769,"isses":11770,"russischen":11771,"teilungen":11772,"settings":11773,"sensible":11774,"ausgegeben":11775,"Riv":11776,"gyp":11777,"übrigens":11778,"erhebliche":11779,"beruht":11780,"entwurf":11781,"Mrd":11782,"glaub":11783,"Badezimmer":11784,"DO":11785,"kin":11786,"bestimmter":11787,"Gründung":11788,"Kapitel":11789,"schweren":11790,"Subsidiarität":11791,"accompanied":11792,"ox":11793,"ст":11794,"58":11795,"dining":11796,"father":11797,"einzigartige":11798,"melden":11799,"perfekt":11800,"absen":11801,"gefügt":11802,"Verbraucherschutz":11803,"übt":11804,"Übergangs":11805,"doesn":11806,"freundlich":11807,"itts":11808,"Tarif":11809,"Tabak":11810,"belangt":11811,"Bereitstellung":11812,"Mission":11813,"schefs":11814,"Read":11815,"beschäftigen":11816,"Formul":11817,"faßt":11818,"Verbreitung":11819,"assume":11820,"Tsch":11821,"Viet":11822,"invite":11823,"interessante":11824,"Hans":11825,"babwe":11826,"interpretation":11827,"Glaub":11828,"schieden":11829,"Bemerkung":11830,"schluß":11831,"cow":11832,"brut":11833,"proposing":11834,"Rechtsgrundlage":11835,"betreffend":11836,"Werkzeug":11837,"Persön":11838,"caf":11839,"nine":11840,"gespeichert":11841,"Zwecke":11842,"splans":11843,"Fleisch":11844,"Vater":11845,"Malta":11846,"Führungs":11847,"occasions":11848,"Thirdly":11849,"BC":11850,"Niger":11851,"Administr":11852,"eingereicht":11853,"bol":11854,"Belgium":11855,"Edition":11856,"ión":11857,"tagen":11858,"schule":11859,"drivers":11860,"Adobe":11861,"exceed":11862,"nahezu":11863,"printing":11864,"Mur":11865,"dur":11866,"Umfeld":11867,"dos":11868,"accident":11869,"izza":11870,"library":11871,"fohlen":11872,"Himm":11873,"teams":11874,"configuration":11875,"deficit":11876,"Dass":11877,"scheme":11878,"zed":11879,"beigetragen":11880,"Ausstattung":11881,"Stor":11882,"possibly":11883,"läßt":11884,"kreis":11885,"corresponding":11886,"virtual":11887,"bach":11888,"gallery":11889,"wohnen":11890,"lasting":11891,"layer":11892,"Gepäck":11893,"legale":11894,"input":11895,"vorhandenen":11896,"drückt":11897,"verantwortungs":11898,"kür":11899,"stamm":11900,"examine":11901,"Bedrohung":11902,"idge":11903,"bedauer":11904,"Philosop":11905,"92":11906,"protest":11907,"joined":11908,"jener":11909,"78":11910,"reduzieren":11911,"lit":11912,"istry":11913,"afternoon":11914,"gehe":11915,"owner":11916,"Alles":11917,"vulnerable":11918,"eastern":11919,"Vorstellung":11920,"fäll":11921,"gross":11922,"iegel":11923,"dahin":11924,"Webseiten":11925,"lässlich":11926,"dringen":11927,"Orte":11928,"properties":11929,"ifor":11930,"kultur":11931,"Beschlüsse":11932,"rul":11933,"iessen":11934,"dary":11935,"dim":11936,"verän":11937,"drink":11938,"systemen":11939,"Männern":11940,"inations":11941,"frame":11942,"ARE":11943,"VP":11944,"überras":11945,"unverzüglich":11946,"72":11947,"wellen":11948,"ilater":11949,"interpre":11950,"channels":11951,"destruction":11952,"td":11953,"anbelangt":11954,"Secret":11955,"proven":11956,"showing":11957,"Games":11958,"Franc":11959,"angewand":11960,"Schlafzimmer":11961,"enty":11962,"Verpack":11963,"dürfte":11964,"inf":11965,"geteilt":11966,"B5":11967,"ziellen":11968,"Buchung":11969,"rapidly":11970,"horizon":11971,"Tech":11972,"Fis":11973,"vorrang":11974,"driver":11975,"northern":11976,"dex":11977,"patient":11978,"installieren":11979,"verd":11980,"sugar":11981,"einfacher":11982,"Insbesondere":11983,"shap":11984,"beteiligen":11985,"Hof":11986,"elles":11987,"inos":11988,"Soviet":11989,"cuts":11990,"ziele":11991,"akten":11992,"entscheidender":11993,"entsteht":11994,"impose":11995,"identified":11996,"finish":11997,"insist":11998,"Konzer":11999,"geräte":12000,"GE":12001,"Neue":12002,"Schluß":12003,"britische":12004,"castle":12005,"Katastrophe":12006,"Allian":12007,"Haftung":12008,"Hungary":12009,"chest":12010,"avec":12011,"Newsletter":12012,"oured":12013,"Chinas":12014,"alcohol":12015,"Kongress":12016,"Zivilgesellschaft":12017,"Spar":12018,"tobac":12019,"Klaus":12020,"fing":12021,"anwesend":12022,"apest":12023,"Amt":12024,"einbezogen":12025,"partly":12026,"eingehalten":12027,"Investment":12028,"eva":12029,"Gerichte":12030,"burger":12031,"woman":12032,"Gi":12033,"Individ":12034,"Training":12035,"ér":12036,"doors":12037,"strafe":12038,"antworten":12039,"sharing":12040,"Dusche":12041,"returned":12042,"documentation":12043,"Fu":12044,"Güter":12045,"transactions":12046,"bahnhof":12047,"verkaufen":12048,"Genehmigung":12049,"PO":12050,"ächt":12051,"confer":12052,"settlement":12053,"Gang":12054,"greif":12055,"copyright":12056,"Prop":12057,"vised":12058,"Beschrän":12059,"decisive":12060,"Betracht":12061,"fantastic":12062,"preparing":12063,"roof":12064,"Erkennt":12065,"starts":12066,"Balkon":12067,"ville":12068,"Thurs":12069,"celer":12070,"depending":12071,"gol":12072,"techniques":12073,"Sudan":12074,"werks":12075,"Thomas":12076,"ergänzen":12077,"ield":12078,"passenger":12079,"behandlung":12080,"schicken":12081,"angegebenen":12082,"artist":12083,"Naz":12084,"atter":12085,"Ansprü":12086,"vorbereitet":12087,"Betrag":12088,"BO":12089,"enthalt":12090,"defe":12091,"sauna":12092,"käu":12093,"Selbstverständlich":12094,"generated":12095,"Assembly":12096,"Cle":12097,"kos":12098,"Stras":12099,"Donner":12100,"Belast":12101,"ausschau":12102,"satisfied":12103,"resistance":12104,"CAP":12105,"Staates":12106,"serviert":12107,"Haushaltsplan":12108,"Glaubwürdigkeit":12109,"spap":12110,"agers":12111,"vorstellen":12112,"zugrund":12113,"demokraten":12114,"cash":12115,"Verlauf":12116,"Straß":12117,"surroundings":12118,"Hardware":12119,"revision":12120,"worr":12121,"Verhandlungs":12122,"Kollegin":12123,"deleg":12124,"signs":12125,"Satz":12126,"ancing":12127,"offene":12128,"sozialer":12129,"Konsequenzen":12130,"voluntary":12131,"kamen":12132,"Alb":12133,"konfront":12134,"ergie":12135,"plications":12136,"Single":12137,"visited":12138,"lokale":12139,"Camping":12140,"gig":12141,"banking":12142,"renovated":12143,"Vietnam":12144,"catch":12145,"kg":12146,"verbringen":12147,"Sche":12148,"Medik":12149,"widely":12150,"educational":12151,"Sollte":12152,"Gewährleistung":12153,"regarded":12154,"Holiday":12155,"shares":12156,"prene":12157,"herzustellen":12158,"Auge":12159,"tobacco":12160,"angebracht":12161,"strugg":12162,"beeindruck":12163,"grundsätzlich":12164,"Network":12165,"exports":12166,"commission":12167,"Nachhalt":12168,"distributed":12169,"decorated":12170,"Award":12171,"schreck":12172,"maschine":12173,"imedia":12174,"Spaz":12175,"losses":12176,"Übersetz":12177,"ameters":12178,"visory":12179,"transportation":12180,"Pakete":12181,"considering":12182,"Budgets":12183,"Ernähr":12184,"belling":12185,"Bulgarien":12186,"54":12187,"Fast":12188,"Road":12189,"Gegenstand":12190,"excessive":12191,"outh":12192,"betreiben":12193,"containing":12194,"üne":12195,"sicheren":12196,"Az":12197,"abuse":12198,"bindet":12199,"Kilometer":12200,"thir":12201,"Überlegungen":12202,"digit":12203,"Northern":12204,"gst":12205,"Gegend":12206,"looked":12207,"ror":12208,"izüg":12209,"Gerät":12210,"foundation":12211,"nevertheless":12212,"auseinander":12213,"izer":12214,"Canon":12215,"heating":12216,"placement":12217,"Jede":12218,"attend":12219,"Gerecht":12220,"Interess":12221,"Detail":12222,"LateRooms":12223,"desired":12224,"Anstieg":12225,"ibel":12226,"solches":12227,"Treat":12228,"berge":12229,"Nachricht":12230,"Sonne":12231,"personnel":12232,"acknowledge":12233,"verteidigen":12234,"jung":12235,"ROM":12236,"verbinden":12237,"holm":12238,"freedoms":12239,"Ungarn":12240,"lounge":12241,"Whether":12242,"AIDS":12243,"heat":12244,"präsentieren":12245,"Schweizer":12246,"Description":12247,"Schrift":12248,"frem":12249,"vorzulegen":12250,"Hon":12251,"Reduzierung":12252,"bereitgestellt":12253,"appropri":12254,"Wünsche":12255,"Job":12256,"orca":12257,"housing":12258,"Kreuz":12259,"ieller":12260,"amed":12261,"stored":12262,"ersetzt":12263,"milk":12264,"Potenzial":12265,"Wart":12266,"performed":12267,"erlebt":12268,"Ansichten":12269,"absence":12270,"Urheber":12271,"distingu":12272,"Videos":12273,"declared":12274,"stolz":12275,"Ill":12276,"enswert":12277,"Versionen":12278,"Positionen":12279,"applying":12280,"Strasbourg":12281,"Ministerpräsident":12282,"fertigen":12283,"elsewhere":12284,"widmet":12285,"technologie":12286,"inational":12287,"erfolgreiche":12288,"kapital":12289,"Sony":12290,"Vel":12291,"individuelle":12292,"Korruption":12293,"behinder":12294,"secur":12295,"Praktiken":12296,"Town":12297,"burn":12298,"Luxus":12299,"wiederholt":12300,"Arzneimittel":12301,"begrenzt":12302,"führungs":12303,"upper":12304,"ordnungen":12305,"Semin":12306,"Letz":12307,"53":12308,"Wolf":12309,"Entlastung":12310,"lichten":12311,"zielen":12312,"Widerspruch":12313,"prin":12314,"inhabitants":12315,"universit":12316,"Prague":12317,"én":12318,"Agriculture":12319,"istern":12320,"Exchange":12321,"islands":12322,"substance":12323,"Moz":12324,"stoßen":12325,"functional":12326,"GR":12327,"cation":12328,"gemeinschaftlichen":12329,"Pot":12330,"urteilung":12331,"Content":12332,"motive":12333,"Hungarian":12334,"Vill":12335,"rical":12336,"suites":12337,"Gemeinde":12338,"metro":12339,"Gleichstellung":12340,"Besonders":12341,"Systemen":12342,"organisieren":12343,"Ler":12344,"Without":12345,"sending":12346,"chnitten":12347,"Einer":12348,"Sant":12349,"til":12350,"ennung":12351,"Modul":12352,"vermitteln":12353,"Verzöger":12354,"exciting":12355,"Mitarbeitern":12356,"duties":12357,"cepts":12358,"wissenschaftliche":12359,"harmonisation":12360,"ales":12361,"mostly":12362,"Lobby":12363,"Thursday":12364,"Zahlung":12365,"finanziert":12366,"courts":12367,"ausgezeichnet":12368,"Zone":12369,"menschliche":12370,"Erstellung":12371,"Fün":12372,"ärkt":12373,"einzusetzen":12374,"chr":12375,"unbe":12376,"flights":12377,"wald":12378,"französische":12379,"solely":12380,"offiziellen":12381,"balcony":12382,"niveau":12383,"desto":12384,"arrive":12385,"Filter":12386,"ähnlich":12387,"oriented":12388,"Ltd":12389,"präch":12390,"ausgerichtet":12391,"Schwä":12392,"enhance":12393,"uche":12394,"zit":12395,"urg":12396,"smooth":12397,"crib":12398,"bislang":12399,"Sicherung":12400,"wahlen":12401,"gestattet":12402,"Übrigen":12403,"versichern":12404,"raising":12405,"prosperity":12406,"consent":12407,"imports":12408,"internen":12409,"1970":12410,"Alger":12411,"schne":12412,"neun":12413,"updates":12414,"zwingen":12415,"referendum":12416,"pursue":12417,"suppliers":12418,"elector":12419,"künftige":12420,"nationally":12421,"Who":12422,"iera":12423,"Sollten":12424,"elektronischen":12425,"PSE":12426,"itra":12427,"folgung":12428,"investieren":12429,"spartei":12430,"weile":12431,"allzu":12432,"afft":12433,"extraordinary":12434,"rüstung":12435,"gerät":12436,"empfohlen":12437,"repair":12438,"Tenn":12439,"merk":12440,"Treib":12441,"illegalen":12442,"broadcast":12443,"erzeug":12444,"Atlantic":12445,"complicated":12446,"iebe":12447,"orama":12448,"voranzu":12449,"beding":12450,"stars":12451,"representation":12452,"Gerechtigkeit":12453,"lan":12454,"deposit":12455,"politically":12456,"verhält":12457,"exklus":12458,"Apple":12459,"arguments":12460,"Verletzung":12461,"institutionelle":12462,"Liter":12463,"saving":12464,"licens":12465,"informationen":12466,"kehrt":12467,"batter":12468,"lings":12469,"immers":12470,"Wähler":12471,"winning":12472,"stammen":12473,"räumen":12474,"administrat":12475,"Schulen":12476,"EZB":12477,"verboten":12478,"individuellen":12479,"hervorgehoben":12480,"verkauft":12481,"mittleren":12482,"Earth":12483,"wines":12484,"Preisen":12485,"Eurozone":12486,"Prozesses":12487,"......":12488,"Look":12489,"providers":12490,"traditionelle":12491,"itors":12492,"Rock":12493,"letztendlich":12494,"stylish":12495,"NIC":12496,"Oder":12497,"division":12498,"department":12499,"ounge":12500,"Franz":12501,"covering":12502,"Organe":12503,"großem":12504,"component":12505,"uated":12506,"Freizüg":12507,"FI":12508,"itals":12509,"unterstreichen":12510,"Pas":12511,"audit":12512,"Marke":12513,"erfolgreichen":12514,"geführten":12515,"Darum":12516,"viertel":12517,"farming":12518,"gebieten":12519,"wave":12520,"manufacturer":12521,"Event":12522,"zellen":12523,"army":12524,"cooperate":12525,"Email":12526,"sem":12527,"Made":12528,"Fernseh":12529,"clubs":12530,"altungs":12531,"carrying":12532,"aer":12533,"inj":12534,"zugang":12535,"Stoffe":12536,"Schle":12537,"negotiating":12538,"Donnerstag":12539,"partment":12540,"Vizepräsident":12541,"sparen":12542,"festival":12543,"Werke":12544,"savings":12545,"Finanzierungs":12546,"Deutschen":12547,"Fig":12548,"cot":12549,"Ägyp":12550,"replaced":12551,"Burg":12552,"Brasilien":12553,"diss":12554,"united":12555,"eignet":12556,"allocated":12557,"shadow":12558,"rats":12559,"zuständig":12560,"Kriegs":12561,"certific":12562,"Zuständigkeit":12563,"Kroatien":12564,"dark":12565,"edition":12566,"Stability":12567,"Professional":12568,"professionals":12569,"chnung":12570,"Budapest":12571,"Hen":12572,"gested":12573,"ursprünglich":12574,"definitely":12575,"einst":12576,"senz":12577,"Freunden":12578,"zentren":12579,"Latein":12580,"erf":12581,"theme":12582,"fernen":12583,"thousand":12584,"Wohnung":12585,"verwaltung":12586,"facility":12587,"Bang":12588,"Konstru":12589,"abstimmen":12590,"Vereinfach":12591,"bedeutend":12592,"Fußball":12593,"bereichen":12594,"addresses":12595,"Wissens":12596,"insp":12597,"max":12598,"Point":12599,"iring":12600,"Werbe":12601,"islam":12602,"biz":12603,"Water":12604,"überprüft":12605,"makers":12606,"orie":12607,"vorgeschlagene":12608,"relaxation":12609,"geraten":12610,"Extre":12611,"Lounge":12612,"ührt":12613,"Within":12614,"häuser":12615,"Following":12616,"Bett":12617,"planet":12618,"Wirtschaftswachstum":12619,"thr":12620,"gekenn":12621,"generate":12622,"rub":12623,"dee":12624,"ipol":12625,"zukünftigen":12626,"Unternehmer":12627,"schlechter":12628,"Friend":12629,"hinweg":12630,"monopol":12631,"adding":12632,"unterzeichnet":12633,"Eigentum":12634,"Migr":12635,"Rap":12636,"effizienz":12637,"Zypern":12638,"Smo":12639,"werken":12640,"exit":12641,"phones":12642,"igert":12643,"Dikt":12644,"dokument":12645,"appointment":12646,"oubtedly":12647,"amaz":12648,"Anlass":12649,"Textil":12650,"gebiete":12651,"magnific":12652,"aking":12653,"Mini":12654,"beeinträcht":12655,"Aktionsplan":12656,"Verhaltens":12657,"Facilities":12658,"iesen":12659,"portal":12660,"ferenzen":12661,"Prozesse":12662,"Auditors":12663,"Dor":12664,"ipher":12665,"spreche":12666,"beobachten":12667,"konfrontiert":12668,"uries":12669,"Abfall":12670,"difficulty":12671,"NGOs":12672,"Modernis":12673,"breach":12674,"vorgesehenen":12675,"weilen":12676,"reb":12677,"zutage":12678,"irs":12679,"adults":12680,"sman":12681,"labelling":12682,"interior":12683,"windows":12684,"Alexander":12685,"sou":12686,"ivals":12687,"Freitag":12688,"ivalent":12689,"Pfe":12690,"Head":12691,"Kulturen":12692,"Beweg":12693,"directory":12694,"Quark":12695,"Angel":12696,"grav":12697,"ensures":12698,"Orient":12699,"Socialist":12700,"Line":12701,"Millenn":12702,"ifizieren":12703,"wirksame":12704,"onien":12705,"erwähnen":12706,"tennis":12707,"Alpen":12708,"prime":12709,"Grünen":12710,"lessons":12711,"Sym":12712,"VO":12713,"Erfüllung":12714,"parad":12715,"Versand":12716,"forthcoming":12717,"Freizügigkeit":12718,"Eth":12719,"TEN":12720,"inklusive":12721,"emot":12722,"constitute":12723,"Ablehnung":12724,"HU":12725,"LA":12726,"andern":12727,"forcement":12728,"career":12729,"satisfaction":12730,"spannung":12731,"geleitet":12732,"bewähr":12733,"cean":12734,"greatly":12735,"necessarily":12736,"preventing":12737,"appearance":12738,"genügend":12739,"lehr":12740,"ansprechen":12741,"Städten":12742,"multilateral":12743,"beantworten":12744,"societies":12745,"promised":12746,"Abschaffung":12747,"Gefän":12748,"album":12749,"Allianz":12750,"Common":12751,"enabled":12752,"Übernachtung":12753,"Kontakte":12754,"reaction":12755,"Sloven":12756,"hundred":12757,"bay":12758,"infe":12759,"großzüg":12760,"bedeutende":12761,"benutz":12762,"commerce":12763,"militärischen":12764,"Vorder":12765,"förderung":12766,"wäl":12767,"resource":12768,"geladen":12769,"Vorausschau":12770,"Defen":12771,"Autobahn":12772,"Belgien":12773,"spoke":12774,"Dou":12775,"sad":12776,"Gros":12777,"vacation":12778,"behaupten":12779,"XP":12780,"judge":12781,"Quellen":12782,"Situationen":12783,"itim":12784,"bright":12785,"vieles":12786,"explore":12787,"tor":12788,"recorded":12789,"supplies":12790,"probleme":12791,"subjects":12792,"rising":12793,"Tax":12794,"neighb":12795,"Spazier":12796,"awarded":12797,"uble":12798,"asen":12799,"Toch":12800,"iland":12801,"laufenden":12802,"Volksgesundheit":12803,"71":12804,"lief":12805,"vorange":12806,"packaging":12807,"Ten":12808,"ysteme":12809,"religion":12810,"democrat":12811,"Binnenmarktes":12812,"ré":12813,"Indian":12814,"Perspektive":12815,"introducing":12816,"Diplom":12817,"dun":12818,"uers":12819,"iale":12820,"festzulegen":12821,"Regierungschefs":12822,"prechen":12823,"gebildet":12824,"kir":12825,"ersetzen":12826,"ußt":12827,"arbeits":12828,"Serbia":12829,"Katastrophen":12830,"Commer":12831,"diver":12832,"Energies":12833,"dog":12834,"studio":12835,"valley":12836,"enabling":12837,"reicher":12838,"Kaffee":12839,"empf":12840,"tourists":12841,"kö":12842,"pm":12843,"complement":12844,"Demonstr":12845,"concepts":12846,"beliebt":12847,"significance":12848,"crop":12849,"abilität":12850,"Dokumenten":12851,"vict":12852,"Nummer":12853,"attempts":12854,"erzeugt":12855,"Einwohner":12856,"strategische":12857,"spf":12858,"suggestions":12859,"Source":12860,"wear":12861,"verfügbaren":12862,"Tätigkeiten":12863,"Nic":12864,"handle":12865,"kapaz":12866,"Professor":12867,"Zy":12868,"Still":12869,"ught":12870,"bonus":12871,"Zusch":12872,"Befugnisse":12873,"Americans":12874,"visiting":12875,"Passwort":12876,"militärische":12877,"Aqu":12878,"forests":12879,"proceedings":12880,"lots":12881,"Schloss":12882,"produkt":12883,"Secretary":12884,"specified":12885,"flows":12886,"deutsch":12887,"fla":12888,"bling":12889,"supervision":12890,"reservations":12891,"firmly":12892,"erreichbar":12893,"Konzep":12894,"exclusion":12895,"boast":12896,"stocks":12897,"ähnliche":12898,"barriers":12899,"Spitzen":12900,"pac":12901,"Dra":12902,"deserv":12903,"fourth":12904,"suggested":12905,"quarters":12906,"dt":12907,"empfangen":12908,"multinational":12909,"sustainability":12910,"comparison":12911,"spectacular":12912,"mitteilen":12913,"ibar":12914,"Puerto":12915,"Hunder":12916,"Commissioners":12917,"Volkes":12918,"indirect":12919,"Anwesen":12920,"realise":12921,"langfristige":12922,"slightly":12923,"gedacht":12924,"uminium":12925,"Chi":12926,"tested":12927,"Sind":12928,"specially":12929,"Übergang":12930,"Monday":12931,"exe":12932,"umfassend":12933,"kernel":12934,"gründen":12935,"accurate":12936,"fitness":12937,"weitgehend":12938,"geschafft":12939,"entreprene":12940,"Modelle":12941,"obliged":12942,"endet":12943,"ausgehen":12944,"cession":12945,"lift":12946,"ECB":12947,"dream":12948,"unabhängigen":12949,"Hat":12950,"tene":12951,"embar":12952,"ACH":12953,"topics":12954,"disasters":12955,"gänger":12956,"zell":12957,"beln":12958,"Flugzeug":12959,"towns":12960,"Based":12961,"rt":12962,"react":12963,"icing":12964,"Territ":12965,"hill":12966,"behoben":12967,"Frist":12968,"exploitation":12969,"tere":12970,"absur":12971,"sought":12972,"Fron":12973,"disabled":12974,"Meister":12975,"integriert":12976,"notes":12977,"Schiffe":12978,"Consult":12979,"paying":12980,"wirtschaften":12981,"Tochter":12982,"Wire":12983,"zert":12984,"ghter":12985,"klärung":12986,"Nachbarn":12987,"athol":12988,"flood":12989,"cosy":12990,"Ken":12991,"Zucker":12992,"afrika":12993,"Lieferung":12994,"dignity":12995,"Hu":12996,"routes":12997,"hingegen":12998,"mittlungs":12999,"Armee":13000,"Omb":13001,"render":13002,"konzentriert":13003,"Pläne":13004,"Präsent":13005,"Gerichts":13006,"eingegangen":13007,"Call":13008,"Poly":13009,"Wirtschaftspolitik":13010,"Lag":13011,"zivil":13012,"fleisch":13013,"receiving":13014,"Spir":13015,"beur":13016,"nachdrücklich":13017,"Meines":13018,"wege":13019,"grenze":13020,"portug":13021,"kett":13022,"Finland":13023,"Existenz":13024,"Provinz":13025,"Zür":13026,"dic":13027,"dliche":13028,"Vorlage":13029,"trovers":13030,"sop":13031,"reduziert":13032,"59":13033,"VIS":13034,"elbe":13035,"begriffen":13036,"Ebenen":13037,"Willkommen":13038,"Emissions":13039,"Flüchtlinge":13040,"escap":13041,"toile":13042,"pread":13043,"sprinzip":13044,"dankbar":13045,"Gerade":13046,"entwickelte":13047,"herum":13048,"Prom":13049,"surve":13050,"Spaß":13051,"welcomed":13052,"analyse":13053,"directed":13054,"ées":13055,"ultane":13056,"weisungen":13057,"irre":13058,"läuter":13059,"Rückkehr":13060,"verteilt":13061,"shipping":13062,"Trotzdem":13063,"Ehe":13064,"abend":13065,"obstacles":13066,"dei":13067,"Zeitung":13068,"doub":13069,"Ombud":13070,"demic":13071,"zukünftige":13072,"ernsthaft":13073,"fron":13074,"Befür":13075,"mn":13076,"Äuß":13077,"rolle":13078,"bann":13079,"Having":13080,"gewähren":13081,"budgets":13082,"otte":13083,"bergen":13084,"gardens":13085,"Doc":13086,"remarks":13087,"gebeten":13088,"euros":13089,"irischen":13090,"Weiteren":13091,"Oste":13092,"gam":13093,"ulf":13094,"fähigen":13095,"Moroc":13096,"coordinated":13097,"uous":13098,"Leon":13099,"vorliegende":13100,"Verarbeitung":13101,"beings":13102,"jetzigen":13103,"verdienen":13104,"prest":13105,"bsp":13106,"invent":13107,"Bord":13108,"muse":13109,"ati":13110,"Widerstand":13111,"Bege":13112,"beschreibung":13113,"bekannte":13114,"Cup":13115,"humanitäre":13116,"blind":13117,"diplomat":13118,"Tools":13119,"acknowled":13120,"programming":13121,"Kriminalität":13122,"wies":13123,"deswegen":13124,"manche":13125,"Berichten":13126,"Islamic":13127,"sheet":13128,"Salzburg":13129,"japan":13130,"evident":13131,"brochen":13132,"NO":13133,"armed":13134,"Wiederaufbau":13135,"sovereignty":13136,"beauftragten":13137,"GA":13138,"begeg":13139,"unterscheiden":13140,"refers":13141,"convent":13142,"beschränken":13143,"supplier":13144,"yon":13145,"undoubtedly":13146,"lehnen":13147,"surely":13148,"Lok":13149,"liehen":13150,"iga":13151,"Zusätzlich":13152,"mussten":13153,"Rechten":13154,"invited":13155,"violations":13156,"Wetter":13157,"portfolio":13158,"Kommissionspräsident":13159,"gestellte":13160,"Gemeinsame":13161,"dictator":13162,"Wäl":13163,"Guests":13164,"periods":13165,"Märkten":13166,"Vari":13167,"vas":13168,"prece":13169,"absor":13170,"iva":13171,"armen":13172,"Bars":13173,"knapp":13174,"wechseln":13175,"Does":13176,"fly":13177,"gained":13178,"suffered":13179,"ares":13180,"gesetzten":13181,"uggage":13182,"Pie":13183,"enthaltenen":13184,"vary":13185,"ulpt":13186,"beendet":13187,"vollständigen":13188,"Fan":13189,"contributed":13190,"abzusch":13191,"Aufsichts":13192,"einheitliche":13193,"mu":13194,"erfreut":13195,"checks":13196,"centuries":13197,"bisherigen":13198,"Veränderung":13199,"gebühren":13200,"Montag":13201,"fängt":13202,"murder":13203,"hoffentlich":13204,"Sein":13205,"placing":13206,"hierbei":13207,"MP3":13208,"Rechtsstaatlichkeit":13209,"Ref":13210,"angepasst":13211,"welcomes":13212,"robust":13213,"lösungen":13214,"investigation":13215,"tan":13216,"Protocol":13217,"penalty":13218,"BMW":13219,"Rio":13220,"orer":13221,"relative":13222,"approve":13223,"Konflikte":13224,"restricted":13225,"anische":13226,"clause":13227,"bestimmungen":13228,"Cir":13229,"reffen":13230,"praktische":13231,"permitted":13232,"everyday":13233,"Branche":13234,"zugrunde":13235,"fax":13236,"Wählen":13237,"Bru":13238,"wil":13239,"Satur":13240,"unning":13241,"Leiden":13242,"aution":13243,"missing":13244,"productivity":13245,"Verg":13246,"liquid":13247,"Space":13248,"Runde":13249,"inevit":13250,"herstellung":13251,"betten":13252,"Verfasser":13253,"gerichtete":13254,"Fisher":13255,"Cub":13256,"hilfen":13257,"HR":13258,"tradem":13259,"Parad":13260,"häfen":13261,"ello":13262,"acceler":13263,"timet":13264,"believes":13265,"Welth":13266,"kurrenz":13267,"blau":13268,"aling":13269,"passion":13270,"subscri":13271,"explained":13272,"spolitischen":13273,"Fal":13274,"aub":13275,"festgelegten":13276,"uniform":13277,"Verteilung":13278,"projekte":13279,"Bevölkerungs":13280,"gelingt":13281,"Doha":13282,"Funktions":13283,"operative":13284,"Finanzkrise":13285,"Luxemburg":13286,"attrib":13287,"unabhängige":13288,"wonach":13289,"jac":13290,"ín":13291,"erhoben":13292,"einzuführen":13293,"URL":13294,"intelligent":13295,"narrow":13296,"wrote":13297,"arbeitungs":13298,"Notes":13299,"university":13300,"Consumer":13301,"Lay":13302,"hast":13303,"deliber":13304,"Kontinent":13305,"Gottes":13306,"ardo":13307,"Betreiber":13308,"Beteiligten":13309,"James":13310,"Import":13311,"Quality":13312,"reserved":13313,"PM":13314,"arbit":13315,"Sunday":13316,"tree":13317,"ergibt":13318,"whereas":13319,"belief":13320,"opolit":13321,"sha":13322,"überw":13323,"Metall":13324,"FC":13325,"но":13326,"eless":13327,"entrance":13328,"weekend":13329,"tables":13330,"zweck":13331,"BE":13332,"Len":13333,"junkt":13334,"eseit":13335,"zurückzuführen":13336,"Objekt":13337,"Würde":13338,"ökonomischen":13339,"artistic":13340,"Asian":13341,"verwende":13342,"Tourism":13343,"poly":13344,"Lernen":13345,"geäußert":13346,"Tennis":13347,"Yugosla":13348,"lovely":13349,"cancer":13350,"Herbst":13351,"Steuerung":13352,"Culture":13353,"videos":13354,"warrant":13355,"unentgel":13356,"fans":13357,"kontrollieren":13358,"Gelder":13359,"Pac":13360,"seg":13361,"mitglieder":13362,"Mi":13363,"encounter":13364,"Merkmal":13365,"restructuring":13366,"Song":13367,"hearing":13368,"films":13369,"platte":13370,"luxurious":13371,"zweit":13372,"yside":13373,"Agenturen":13374,"Ursachen":13375,"description":13376,"Vertrages":13377,"wiegend":13378,"bedro":13379,"öffnung":13380,"magnificent":13381,"iPhone":13382,"speichern":13383,"ESS":13384,"Georgia":13385,"Frie":13386,"scene":13387,"brachte":13388,"ito":13389,"spieler":13390,"einzigartigen":13391,"killed":13392,"spapers":13393,"äume":13394,"tea":13395,"Schon":13396,"Fahrzeuge":13397,"Lith":13398,"bern":13399,"hostel":13400,"fishermen":13401,"Abhängigkeit":13402,"Ev":13403,"Kas":13404,"Sammlung":13405,"hem":13406,"eventually":13407,"indicate":13408,"Vista":13409,"lieber":13410,"Jung":13411,"äum":13412,"herunterladen":13413,"Bereitschaft":13414,"argu":13415,"trieben":13416,"Gewerk":13417,"ierender":13418,"Ball":13419,"Palästinen":13420,"reibt":13421,"sters":13422,"verbindet":13423,"Geschmack":13424,"besorgt":13425,"filled":13426,"Berichterstatters":13427,"Wikitra":13428,"Börse":13429,"Hom":13430,"leaves":13431,"umsetzen":13432,"garten":13433,"uden":13434,"на":13435,"erfordern":13436,"Palästinenser":13437,"gefasst":13438,"imagine":13439,"dry":13440,"vereinbart":13441,"RI":13442,"Rab":13443,"besonderer":13444,"Ticket":13445,"estimated":13446,"Full":13447,"lamente":13448,"enterprise":13449,"Anwender":13450,"merz":13451,"Charles":13452,"Catal":13453,"organic":13454,"Debatten":13455,"reflected":13456,"aktiviert":13457,"enhanced":13458,"manif":13459,"generations":13460,"Anton":13461,"modules":13462,"Beseit":13463,"nights":13464,"Family":13465,"massage":13466,"strengthened":13467,"icals":13468,"everybody":13469,"Quad":13470,"hydr":13471,"Fernsehen":13472,"Vereinfachung":13473,"script":13474,"anch":13475,"gemä":13476,"Travel":13477,"korrekt":13478,"theory":13479,"radical":13480,"Dritten":13481,"Kab":13482,"langfristig":13483,"Kanada":13484,"Stockholm":13485,"portugies":13486,"externen":13487,"anwend":13488,"Among":13489,"Wikitravel":13490,"leite":13491,"severe":13492,"hardly":13493,"philosophy":13494,"Saddam":13495,"vorbei":13496,"belle":13497,"publication":13498,"steigt":13499,"62":13500,"ström":13501,"movements":13502,"Corporate":13503,"gner":13504,"Öffnung":13505,"vessels":13506,"kture":13507,"turning":13508,"Trek":13509,"hundert":13510,"appropriations":13511,"plenty":13512,"Hot":13513,"Faktor":13514,"unterliegen":13515,"gestärkt":13516,"regardless":13517,"homes":13518,"Straßburg":13519,"Miß":13520,"Grundlagen":13521,"spiegelt":13522,"kontaktieren":13523,"counts":13524,"Zahlungen":13525,"etten":13526,"Addition":13527,"gegenwärtige":13528,"günstig":13529,"twenty":13530,"Project":13531,"weitern":13532,"Besides":13533,"Geneva":13534,"bug":13535,"Stutt":13536,"errors":13537,"Tausende":13538,"jahres":13539,"Währungsunion":13540,"bedanken":13541,"fördert":13542,"pillar":13543,"ibe":13544,"angest":13545,"geschichte":13546,"reflects":13547,"Erinnerung":13548,"uum":13549,"gefragt":13550,"undertaken":13551,"kleines":13552,"überaus":13553,"overview":13554,"continuous":13555,"gerichteten":13556,"machte":13557,"lor":13558,"lap":13559,"methoden":13560,"Spekt":13561,"wachsenden":13562,"bewältigen":13563,"gess":13564,"cells":13565,"ART":13566,"künstler":13567,"gast":13568,"vertrau":13569,"worst":13570,"Zugangs":13571,"istischer":13572,"Parlamente":13573,"täus":13574,"erhöh":13575,"afrikanischen":13576,"achter":13577,"hilfre":13578,"Direct":13579,"verweisen":13580,"parameters":13581,"korrig":13582,"Schreiben":13583,"considerably":13584,"listings":13585,"Umsatz":13586,"experiment":13587,"ôtel":13588,"werben":13589,"Laut":13590,"covery":13591,"drinks":13592,"Satelliten":13593,"öder":13594,"tox":13595,"übersch":13596,"einzigart":13597,"Energieeffizienz":13598,"shot":13599,"Gay":13600,"lah":13601,"bewahr":13602,"Petitions":13603,"nützlich":13604,"Place":13605,"trends":13606,"Game":13607,"simultane":13608,"optimale":13609,"instructions":13610,"infringe":13611,"concentrate":13612,"Ombudsman":13613,"fes":13614,"rental":13615,"zusammenzu":13616,"Entfern":13617,"CHF":13618,"worthy":13619,"Jos":13620,"Sachen":13621,"prospe":13622,"kilomet":13623,"Heizung":13624,"Meeting":13625,"auschen":13626,"steuern":13627,"froh":13628,"usive":13629,"istiken":13630,"football":13631,"vine":13632,"gelesen":13633,"hervorragenden":13634,"Gespräch":13635,"Transfer":13636,"täglichen":13637,"verhandlungen":13638,"Komplex":13639,"Schüler":13640,"politisches":13641,"wunderschönen":13642,"Beseitigung":13643,"Erhaltung":13644,"Bonus":13645,"türkischen":13646,"ötz":13647,"anhalten":13648,"dert":13649,"niederländ":13650,"Wär":13651,"intern":13652,"Through":13653,"Playa":13654,"mutzung":13655,"doppel":13656,"Versor":13657,"gestr":13658,"ixel":13659,"Attra":13660,"excluded":13661,"Administration":13662,"Statt":13663,"Suiten":13664,"76":13665,"Iron":13666,"Kopenhagen":13667,"restore":13668,"dienstleistungen":13669,"Mikro":13670,"Valen":13671,"prag":13672,"vorbe":13673,"Parameter":13674,"stärkere":13675,"hers":13676,"Dialogs":13677,"departure":13678,"mitglied":13679,"transmission":13680,"Freih":13681,"recognized":13682,"Education":13683,"94":13684,"itarian":13685,"Soft":13686,"Vict":13687,"Monitor":13688,"fox":13689,"distort":13690,"schläge":13691,"reconstruction":13692,"ausgaben":13693,"Regen":13694,"Kam":13695,"Wed":13696,"fi":13697,"thumb":13698,"trig":13699,"rd":13700,"figuration":13701,"äufer":13702,"zun":13703,"anticip":13704,"überwinden":13705,"discre":13706,"Renten":13707,"sections":13708,"sichergestellt":13709,"vorschläge":13710,"Dän":13711,"mouth":13712,"specialist":13713,"Wirtschaftskrise":13714,"Lit":13715,"auffordern":13716,"Zusammenhalt":13717,"zugelassen":13718,"wea":13719,"Chile":13720,"Reserve":13721,"Amb":13722,"geprägt":13723,"kampf":13724,"tank":13725,"arise":13726,"engage":13727,"anschließend":13728,"wice":13729,"angewendet":13730,"insof":13731,"Korre":13732,"unentgeltlich":13733,"umm":13734,"Dolom":13735,"Phän":13736,"roots":13737,"countryside":13738,"renowned":13739,"ova":13740,"Kno":13741,"Next":13742,"Navig":13743,"Ausflüge":13744,"colours":13745,"NE":13746,"zuges":13747,"Hohe":13748,"Mandat":13749,"Medizin":13750,"haushalt":13751,"juris":13752,"inent":13753,"anhand":13754,"normalen":13755,"SW":13756,"quet":13757,"Minute":13758,"legten":13759,"intends":13760,"angemessenen":13761,"oration":13762,"Golden":13763,"Nam":13764,"geplant":13765,"Erlebnis":13766,"ICH":13767,"gart":13768,"upp":13769,"Sicherheitspolitik":13770,"saved":13771,"Mechanismen":13772,"etabl":13773,"Vide":13774,"cking":13775,"acted":13776,"ASE":13777,"ambition":13778,"män":13779,"defiz":13780,"managing":13781,"ländliche":13782,"Eingang":13783,"Drei":13784,"erkannt":13785,"decade":13786,"Stärke":13787,"Wandel":13788,"Register":13789,"träglich":13790,"confirmation":13791,"Hels":13792,"sud":13793,"Ergänz":13794,"Dres":13795,"stages":13796,"Bestät":13797,"sau":13798,"unvergess":13799,"GAP":13800,"heißen":13801,"Civil":13802,"rechnen":13803,"lia":13804,"posing":13805,"sufficiently":13806,"Should":13807,"Kohäsionspolitik":13808,"Light":13809,"bedür":13810,"Internationale":13811,"horse":13812,"wage":13813,"lichem":13814,"freely":13815,"profits":13816,"kommer":13817,"Industry":13818,"HIV":13819,"tö":13820,"sogenannten":13821,"destroyed":13822,"realer":13823,"acceptance":13824,"threats":13825,"mith":13826,"ii":13827,"zweitens":13828,"bedded":13829,"EST":13830,"taxpay":13831,"iversary":13832,"Tunes":13833,"Represent":13834,"senken":13835,"Train":13836,"Wesentlichen":13837,"hohem":13838,"350":13839,"produzieren":13840,"Bour":13841,"sekret":13842,"missions":13843,"contextual":13844,"diesbezüglich":13845,"targeted":13846,"Stiftung":13847,"hur":13848,"Geschen":13849,"niedriger":13850,"beruhen":13851,"Fang":13852,"thetic":13853,"demograph":13854,"Leitung":13855,"Labour":13856,"geringer":13857,"gehende":13858,"Ce":13859,"showed":13860,"leiter":13861,"Search":13862,"Kong":13863,"urgently":13864,"natürliche":13865,"Shar":13866,"irl":13867,"strukture":13868,"stattfindet":13869,"kämpft":13870,"erhielt":13871,"quiry":13872,"selling":13873,"driven":13874,"Plane":13875,"Luf":13876,"Implement":13877,"Generationen":13878,"FS":13879,"nör":13880,"bedeut":13881,"Islands":13882,"Außenminister":13883,"enem":13884,"konvention":13885,"Lastly":13886,"ни":13887,"Investoren":13888,"mist":13889,"tenden":13890,"Process":13891,"untersucht":13892,"mehrfach":13893,"Pfer":13894,"bekommt":13895,"bevölker":13896,"Bewer":13897,"mmern":13898,"ädchen":13899,"PP":13900,"zauber":13901,"aschen":13902,"bewe":13903,"miles":13904,"Umweltfragen":13905,"Bestimmung":13906,"bezogenen":13907,"agon":13908,"Souverän":13909,"umfangreiche":13910,"Todesstrafe":13911,"igend":13912,"endors":13913,"banken":13914,"geld":13915,"Thailand":13916,"XI":13917,"oppelt":13918,"Saison":13919,"SU":13920,"blic":13921,"izieren":13922,"eventuell":13923,"DEN":13924,"Alters":13925,"appell":13926,"heading":13927,"cz":13928,"functionality":13929,"panel":13930,"Nachbarschaft":13931,"grös":13932,"compuls":13933,"Arbeitgeber":13934,"della":13935,"honest":13936,"ranging":13937,"Vort":13938,"melt":13939,"wirel":13940,"genz":13941,"überlassen":13942,"technisch":13943,"Gehminuten":13944,"Valley":13945,"greift":13946,"geschätz":13947,"existiert":13948,"Ankunft":13949,"vornehmen":13950,"ystems":13951,"negativen":13952,"villages":13953,"82":13954,"emb":13955,"holt":13956,"Arbeiter":13957,"chat":13958,"cles":13959,"relates":13960,"universities":13961,"wireless":13962,"Anhör":13963,"Venice":13964,"Nation":13965,"alarm":13966,"gewe":13967,"mente":13968,"ji":13969,"mens":13970,"dargestellt":13971,"Quelle":13972,"highlighted":13973,"prospects":13974,"erweitern":13975,"pense":13976,"ESCO":13977,"derzeitige":13978,"Schwarz":13979,"berichten":13980,"adi":13981,"sichtbar":13982,"Barr":13983,"unforget":13984,"isations":13985,"enorme":13986,"adapted":13987,"Senkung":13988,"coherent":13989,"museums":13990,"Versorgung":13991,"stick":13992,"Stamm":13993,"chester":13994,"kündigt":13995,"nord":13996,"denjenigen":13997,"Andere":13998,"ai":13999,"effiziente":14000,"bestellen":14001,"Niederlanden":14002,"Cookies":14003,"normalerweise":14004,"conventional":14005,"internationally":14006,"Amerikaner":14007,"130":14008,"gate":14009,"untersuchen":14010,"combine":14011,"Registrierung":14012,"zio":14013,"mistake":14014,"Sah":14015,"nbsp":14016,"anno":14017,"Diam":14018,"iforn":14019,"Tonnen":14020,"Consequently":14021,"Maschine":14022,"regionen":14023,"geblieben":14024,"Großteil":14025,"110":14026,"Geschwindigkeit":14027,"wirklichung":14028,"ruf":14029,"Joseph":14030,"arrived":14031,"geeignete":14032,"Kürz":14033,"LIN":14034,"designs":14035,"Parkplatz":14036,"deeply":14037,"Migration":14038,"Tu":14039,"consulting":14040,"panoram":14041,"Entwickler":14042,"municip":14043,"usalem":14044,"Plat":14045,"Katalog":14046,"Langu":14047,"angenehm":14048,"Geburt":14049,"neighbouring":14050,"Dingen":14051,"Hig":14052,"pu":14053,"Ausgleich":14054,"ordan":14055,"Instruments":14056,"filling":14057,"Handlungs":14058,"Level":14059,"collected":14060,"Lohn":14061,"Augenblick":14062,"Konzentr":14063,"Telekommunik":14064,"reput":14065,"aufs":14066,"aga":14067,"erstmals":14068,"Belgian":14069,"Institut":14070,"NT":14071,"stör":14072,"fees":14073,"verschle":14074,"zahlungen":14075,"Basel":14076,"gift":14077,"inmitten":14078,"characters":14079,"zukommen":14080,"verschär":14081,"Ruf":14082,"pin":14083,"mangeln":14084,"lossenheit":14085,"Fahrt":14086,"Versammlung":14087,"Treaties":14088,"Bearbeitung":14089,"gelö":14090,"anzeigen":14091,"aufgebaut":14092,"classes":14093,"palästinensischen":14094,"äne":14095,"Sob":14096,"Vent":14097,"Sohn":14098,"Situated":14099,"blocks":14100,"Häuser":14101,"mt":14102,"exem":14103,"subsequent":14104,"integrierten":14105,"fehler":14106,"nisses":14107,"beenden":14108,"kov":14109,"fähige":14110,"schnellen":14111,"Urteil":14112,"briefly":14113,"toug":14114,"iences":14115,"festzustellen":14116,"gelegenen":14117,"Johannes":14118,"GP":14119,"enjoyed":14120,"Domain":14121,"sounds":14122,"lived":14123,"Jahrzehnten":14124,"prompt":14125,"considers":14126,"Nachhaltigkeit":14127,"egal":14128,"raid":14129,"Lehrer":14130,"horizontal":14131,"computers":14132,"entscheidenden":14133,"Auseinander":14134,"Denmark":14135,"Regulierung":14136,"Alkohol":14137,"anzunehmen":14138,"Castle":14139,"griechischen":14140,"endar":14141,"Mitentscheid":14142,"Bewusst":14143,"kol":14144,"pressed":14145,"könnt":14146,"hochwertige":14147,"Bibliothek":14148,"phenomenon":14149,"beun":14150,"Leiter":14151,"php":14152,"letters":14153,"müß":14154,"chairman":14155,"Reservierung":14156,"63":14157,"Mul":14158,"clin":14159,"Chem":14160,"cue":14161,"festen":14162,"xy":14163,"Print":14164,"Hostel":14165,"learned":14166,"convergence":14167,"Mechanismus":14168,"gewünschten":14169,"Holl":14170,"porters":14171,"Gau":14172,"Tests":14173,"joining":14174,"Berliner":14175,"lige":14176,"referring":14177,"Vertretern":14178,"Constitutional":14179,"Porto":14180,"73":14181,"essentially":14182,"ifi":14183,"kratie":14184,"Offic":14185,"dating":14186,"keinem":14187,"cleaning":14188,"arbitr":14189,"Pension":14190,"weich":14191,"linken":14192,"Traum":14193,"Truppen":14194,"Aca":14195,"getreten":14196,"quotas":14197,"supp":14198,"decline":14199,"diplomatic":14200,"WE":14201,"Unions":14202,"wärts":14203,"Mängel":14204,"Journalisten":14205,"Mah":14206,"fined":14207,"unterbrochen":14208,"Seele":14209,"befug":14210,"female":14211,"Francis":14212,"SCH":14213,"isa":14214,"adds":14215,"affects":14216,"reliability":14217,
[...]
