#version: 0.2 - Trained by `huggingface/tokenizers`
e n
e r
i n
c h
t h
a n
e s
o n
u n
i s
a t
i t
i e
o r
a l
th e
r e
s t
a r
d er
i ch
i on
a s
u r
l e
t e
an d
o f
e in
g e
en t
t o
b e
a u
un d
d e
o m
un g
d ie
in g
r o
d en
e l
w i
i g
i c
e d
a m
o l
u s
i m
i l
t er
v er
f or
t en
s ch
o t
s e
o p
z u
at ion
a b
u t
h e
r a
w e
i es
- @
@ -@
h r
e m
is t
u l
o s
c t
q u
b er
n e
g en
l ich
v e
a p
ü r
ich t
is ch
u m
al l
d as
i er
i r
p ro
k e
th at
om m
c on
s o
es t
es s
a ch
v on
wi r
au f
a re
w h
c e
w er
s p
i d
a d
l l
e t
I n
f ür
m it
l y
ur op
k t
er e
d es
o ur
i f
or t
ein e
qu ot
l a
c k
wi th
in d
t r
s u
p r
au s
d ies
E urop
o w
T he
V er
de m
a f
m e
i v
m ent
o u
a g
m en
t s
is s
el l
at e
ap os
h a
U n
ung en
e x
isch en
d a
g r
t a
m a
n en
b en
f r
c o
c om
0 0
th is
r es
n ot
i en
l o
z e
n icht
A n
it y
s ich
ar t
i ve
g es
u st
R e
an t
S t
en d
ü ber
h o
er s
S ie
ä n
wer den
l i
das s
b y
l ie
au ch
i al
a h
i b
an n
p ort
s er
ha ve
w or
s en
v or
f a
ig en
w o
ul d
B e
p e
wi ll
it s
h t
omm iss
D ie
er n
f e
i k
ol l
t z
al s
w ie
Europ e
ie l
y ou
te l
m an
d u
h en
wh ich
ion s
a y
a c
n o
h al
w as
S ch
th er
m o
ung s
t ra
h at
ommiss ion
u p
te d
W e
h as
sch af
st r
st e
p er
id ent
P ro
for m
s ind
fr om
ein er
. .
o ut
a ge
E n
c an
f er
wir d
i p
ar d
f ü
ab le
p os
in ter
d o
f en
u g
be i
us s
P ar
ab en
im m
T h
on e
u re
j e
isch e
ö n
E r
ein en
h er
f in
g er
A r
am ent
en n
f t
Europe an
p ol
i z
b r
b es
is e
c l
ur ch
in e
p l
un ter
o der
A u
it en
g an
it e
z ur
h aben
o d
H er
hr en
s h
s ie
M it
i ge
i re
p o
2 00
i de
A us
or e
P r
al so
as s
H o
un s
ation s
all y
lich en
i a
p art
w ar
ation al
ct ion
F r
ch en
ul t
it ion
com p
E in
m ö
ä t
at en
der n
k ön
re g
d r
h l
an k
W ir
n ach
an g
sp e
schaf t
i o
ch t
il l
Un ion
o k
ch e
at ed
an ge
G e
o b
st en
an s
ier en
o g
ic e
ä s
ver y
g o
al le
f f
ä r
st ell
at es
g ro
b le
le g
r it
S e
d ar
I ch
wor k
h in
c ess
v el
an der
E U
d urch
ke it
ier t
e ar
is h
ein em
or d
u e
k ann
M r
y st
em ber
V or
c omm
C ommission
el t
w ur
co un
G r
n ational
ig ht
D as
B er
p t
te t
ü n
y our
u b
Her r
we it
yst em
c re
b ut
ig n
th ere
kön nen
lich e
ic al
I t
b o
t im
us e
ig h
be it
i h
m ore
a st
omm en
f re
k en
an ce
ar y
am e
n ow
p re
wo uld
ö r
Europ ä
om e
A b
m ar
ch te
he it
1 9
u d
s ho
En t
p le
a in
l ic
s el
ü s
es e
a hr
zu m
be en
L e
c ial
& #
a k
l in
l and
t re
d is
w ä
p la
the ir
dies e
z en
g lich
o ther
ge l
G es
pol it
in s
an y
b ar
i le
m in
sho uld
g t
P res
Un ter
Th is
en s
n ur
u te
D e
c r
h and
ch n
ne h
m er
A l
a v
K on
pro v
u ch
ent s
pro du
ut ion
a ct
ier ung
p ar
w ay
äs ident
n er
un ser
E s
s oll
K ommission
on g
te il
no ch
ne w
re ich
ü ck
dies er
da ß
coun tr
s ol
F or
m ust
as e
D er
un der
gr am
wh o
et z
ah l
i an
ge b
be t
v ie
kt ion
C o
k on
f ul
st and
S p
ber e
ne t
e v
ge m
f ol
I h
Ho tel
D ies
el y
at er
t ro
me hr
.. .
T e
Pres ident
st a
ow n
2 0
sch en
c es
c ent
s it
s ein
ab er
g lie
the y
o ver
In ter
Pr äsident
li ke
su p
m üs
da y
for e
form ation
c ur
it ies
w enn
s ib
ing s
k s
k l
wi ck
ge gen
ment s
y ear
an z
g re
l ament
u al
ut z
Au f
Re g
e f
ß en
n ah
U m
le ich
t y
of f
on ly
M a
müs sen
k ommen
s ystem
wur de
tim e
Mit glie
F ra
ge t
li ament
st at
ol le
ser v
c il
Par lament
ab out
imm er
f l
as sen
n is
pr es
z w
c y
ges ch
am p
vel op
Z e
ne ed
ct s
h n
de d
M ember
c ed
neh men
al t
m s
p h
ü tz
ol og
fü hr
con s
io us
M ar
o c
it ät
k ing
se hr
ta in
s ome
f ir
th ese
au se
am men
at ive
te ll
b ie
a ck
ie d
s a
im port
1 0
M en
il d
Europä ischen
d ire
dies em
on der
us ammen
re port
l d
st it
b is
se tz
or s
su ch
ke t
Par liament
ein es
icht ig
m at
w en
ter n
weit er
B es
de velop
ers on
ul ar
b est
ib t
de t
ver s
ust r
d if
il ity
op le
k te
ih re
g u
d am
in t
ig keit
er g
ate g
Mitglie d
m y
at z
ur es
l os
if ic
än d
ct ive
hal ten
iv en
re l
mö chte
sch e
th o
u ß
op er
A s
ge ben
v iel
mo st
man y
g est
com e
pe ople
is m
su b
wh at
St ates
the m
i hr
und en
in to
con om
c le
1 2
b al
m al
b as
at ing
ent r
in v
i den
N e
ne u
c ause
w ell
am en
i ent
m on
urop ä
I m
d s
Co un
ig er
p ub
j ust
ar beit
l ung
J ahr
w el
inter national
ä l
countr ies
ze it
em ent
z ie
l au
Ü ber
str u
Ze it
ic es
at s
ig t
v o
O r
p or
Ber icht
C on
is ten
m ach
h ier
Fr au
C h
it te
z we
s on
v is
Coun cil
pol ic
e uropä
S o
vie w
M e
x t
d ition
f o
p en
te chn
an sp
stell en
p on
th an
Men schen
i der
e conom
de c
wer e
h el
or der
re ad
part ic
ein g
g leich
o ch
st ütz
ag re
w end
l es
sup port
än der
h ol
wh en
in cl
ie den
le gen
dies es
t schaft
T r
import ant
le d
C omm
em p
etz t
pro pos
ess en
Mitglied sta
pro gram
er t
L and
ag ain
qu al
fir st
S tr
v om
zw ischen
all en
b re
con t
k now
ard s
or y
r u
en z
a il
ro ug
de ut
U S
sib le
l ä
e le
lie ß
bes onder
Ent wick
so wie
g ibt
hal b
ro om
ma ke
v ent
al e
we en
P ol
h ör
igh ts
ag es
qu est
G er
be cause
N ach
pr ess
b in
st er
hal t
fa ct
bet ween
en ce
ta ke
wh ere
re i
F in
for der
iv es
iss en
c our
of t
g ar
pro ble
lo c
r at
ar ge
f ra
Gr und
m uss
Z u
B ere
ge w
mö glich
th ing
en g
o h
b s
er v
Mitgliedsta aten
h is
se t
g h
be d
z ial
ur al
je ct
ä ch
w are
u ation
w ür
wor ld
ho tel
ma in
H e
m p
Ar t
is ter
uns ere
el s
in n
b st
se e
tra g
b u
Europ a
k eine
Ar beit
is su
9 3
for t
A ll
c i
in formation
ß er
s ame
9 1
ig ung
F l
ist r
or gan
Pro du
M in
it al
sp r
Z usammen
R at
r ight
ma de
n at
o us
c ted
h ere
a kt
be l
Pro ble
ver sch
ander en
la g
l ine
polic y
cle ar
b ess
ion en
t wo
ich er
j ed
s icht
un kt
br ing
ä hr
ar r
Ih re
Vor sch
ö ff
tho se
re al
sich er
Ih nen
z ahl
res pon
v oll
d it
year s
fin den
in k
un ity
ev en
le tz
b eing
l er
ll en
th en
ß e
sch ließ
E x
pr om
t ing
I f
br auch
K r
gem ein
nah men
W enn
isch er
pub lic
s c
um an
st änd
we ise
e very
it ik
th roug
go od
ch ten
B r
we ver
y s
wä hr
mit tel
is ation
H aus
ch ä
w a
ö s
h igh
be lie
n um
M on
Bere ich
m ed
ce pt
ef fe
w elt
sp re
ke iten
k o
d ann
c er
dies en
ion al
partic ular
we il
um ent
mar ket
f all
l ess
19 9
ur ing
i um
dam it
of fen
P l
v ir
n ung
S ta
ma y
it ed
de b
am il
ver n
la st
in nen
h ad
bes te
ach t
at t
T o
ste hen
is en
ur n
l ang
pres ent
fa hren
gen er
än dern
s ay
con c
f ind
tr ans
stit ution
D es
p erson
w ichtig
wie der
be g
b us
j o
l ish
te m
ze ich
h ow
1 5
l im
er r
ch ts
econom ic
pro cess
wur den
Europä ische
r est
W elt
G ro
B ür
dif fer
g ra
Th ere
ge hen
wir tschaft
re qu
wo hl
tr ä
ha be
de l
su re
au t
ra g
i or
ic t
pos sible
ent lich
la ge
J a
H and
w ort
f ach
O n
Dies e
G em
k r
pla ce
B o
unser er
son dern
a ir
st ar
wir k
reich en
äl t
f und
pla y
h uman
el le
gr und
v en
r if
conc ern
ter s
N o
ou gh
it i
re e
us ed
au m
all er
v al
r ent
pro te
I hr
a de
polit ical
tro l
ein z
lo bal
S icher
f est
W o
ur o
in cre
ap p
jed och
in ess
c or
po int
Ä n
te gr
G en
f ar
fü hren
al th
ß nahmen
d i
r ights
k er
an gen
ow s
p ut
3 0
af ter
W as
aus ge
Än der
s im
Y ou
ell en
f un
a ce
are a
ind ustr
s eine
he ute
comp le
a th
S ystem
la gen
cont in
develop ment
throug h
ne ue
r icht
ges tell
Pro gram
ch ange
el n
F e
in ce
tr ansp
er st
h ö
europä ischen
Unter nehmen
In formation
an ts
B ar
te xt
w ant
ten s
is p
ic k
ap pro
l assen
u er
pl ic
ac cess
m ich
i th
there fore
it t
fa hr
le vel
read y
do es
In d
00 0
bere its
B et
hel p
again st
s atz
co uld
go vern
f ung
wer t
lo y
ra ft
s ur
Gem ein
Entwick lung
R o
Te il
ex am
ihr er
k le
ic ult
R icht
fin an
ex per
soll te
prov ide
gan z
i x
ab ility
countr y
oh ne
with in
pe ct
W ie
5 0
num ber
p ra
gre at
1 8
pr of
it ä
ut ions
s ign
R es
v ar
sel bst
Fra ge
d at
itte e
neu en
oper ation
a ur
den en
f le
Bür ger
ad t
g ung
vir on
A t
h ist
u de
führ t
g ent
ul ation
so cial
M an
m uch
bo th
t al
me as
S it
ier te
P re
soll ten
b ack
ander e
A m
ke y
c ap
as on
Le ben
Ja hren
s m
pos ition
M ö
K o
l arge
ol d
op en
g a
k om
lo ok
v ed
ier ten
gro up
st ill
qu e
zu g
cons ider
F re
W er
M o
ein fach
lic k
av ail
unter stütz
viron ment
w oll
c it
schaf ts
ic s
imm t
ä tz
D aten
h op
ke hr
I s
P art
of fer
pos it
e igen
est s
C hin
f ä
age ment
Mit tel
d own
ro s
mach en
pr iv
fre e
spe c
as k
f ut
h än
with out
K om
ct or
K ommiss
f ur
ff ic
e p
zwe i
re t
un e
es en
oft ware
gr ö
hl en
ze ug
k un
is ion
belie ve
un t
to w
sch n
nah me
besonder e
S te
l ong
l uss
differ ent
ge ht
se it
b il
b ur
in c
lich er
qual ity
D em
cer tain
in st
spre chen
serv ices
B ed
in ner
po wer
da zu
s k
E R
is ed
lie gt
ar be
k omm
im e
k ten
versch ieden
a z
ct ions
r en
th or
cur rent
fut ure
el d
ge f
str ateg
ü h
St and
ra p
c ord
g lobal
den n
e ben
al ten
sh ip
la w
al ready
bes ch
Ma ßnahmen
1 1
way s
at or
Ar be
bess er
f ern
leg al
to o
isp iel
requ ire
kön n
D a
v es
dar auf
m ir
an ges
stat t
T re
Z iel
th ink
m ember
u x
ah men
vie le
P erson
emp loy
to day
b t
k es
W or
oll ow
p ass
j etzt
ich te
T hat
Mö glich
ist s
om en
kt ur
Fin anz
iv id
R ahmen
re cht
cour se
can not
stell ung
s or
ien st
bie tet
i ß
dis c
B ut
l if
rit t
f il
12 4
gestell t
be tr
i ze
c ing
Inter net
le t
ok rat
ism us
kl är
avail able
be fore
b au
en vironment
u f
Commission er
En erg
re du
Herr n
bus iness
is l
ne g
cur ity
i ver
s am
m b
n or
m et
im in
v ing
nis se
se hen
at ur
n ess
E N
is k
quest ion
Aus sch
im ple
p f
re d
ust om
serv ice
s einer
cit iz
ent wick
c ase
sit uation
techn olog
da für
op t
a gen
u ck
in tegr
z us
u ten
M ed
h ar
inv est
ent er
m or
g ut
ol ution
k ur
ro w
des ign
produ cts
200 9
fin det
j or
ank en
A f
issu e
con d
w issen
sch on
deb ate
ic ally
ö l
F all
n am
fa ir
finan cial
an te
propos al
R uss
ein ige
s af
su c
los sen
Information en
Kommiss ar
en erg
fall s
gen d
ne cess
ien ce
fol g
u es
E uro
dat a
ah re
he iten
bere it
z usammen
setz ung
Ver ein
at ely
sp ra
ar ch
le ist
K in
A mer
Re chts
spe cial
ges am
al en
ver b
f ollow
n un
re ason
Pol itik
m eine
gr ess
P o
reg ard
ach ie
sa gen
be gr
z entr
sa id
L age
wür de
am er
c ar
con f
ud get
bie ten
en th
ful ly
C om
1 6
Arbe its
on t
act iv
me et
fa st
ind ivid
T ra
alle m
proble m
i hren
Parlament s
ä ß
ud ing
1 4
w ach
ä m
kun ft
stell t
An d
woll en
lie gen
he its
no v
zur ück
et t
S erv
pl an
exam ple
wor den
id es
L änder
dire ct
ant wort
be wer
ic a
z iel
me ans
m iss
ad v
ill ion
b l
am end
Vorsch lag
Q u
I N
imm ung
is ierung
Comm ittee
ater ial
p unkt
ab il
iv ing
ma jor
un i
fol gen
so zial
ch ar
a ction
p ly
ib le
L a
c all
P al
K olle
h of
p ay
A d
gro w
r ie
co st
c as
c ustom
au thor
meas ures
ich ter
comp et
coun t
ta ken
1 3
room s
h af
u ally
war en
gan g
st är
B est
Ho wever
J ahre
n ie
Re cht
s ince
ie le
ste ht
k ün
citiz ens
it er
comm on
unser en
leg t
ap plic
p end
en sure
off ers
ord nung
stru ct
ktion en
agre ement
t un
bring en
S pe
to p
ation en
Unter stütz
il t
lin ie
y ing
if f
v i
w ard
n a
in en
incl uding
sche id
L ös
ord in
r on
f fen
w es
sm all
h ig
all ow
do ch
N or
ins besondere
Änder ungs
p age
d uring
lo se
g l
au to
or en
bs ite
1 7
sch ein
bas ed
in de
disc uss
f amil
ver fü
as se
währ end
au pt
gan gen
Pro je
l ungs
E ine
il y
ent ial
tr ib
energ y
Z we
An t
F ür
w icht
sch rif
2 5
c ell
c ult
ab lish
ck en
Chin a
th ank
Un d
d ra
le ben
e qu
E C
spec ific
us ing
s y
m us
g ive
de fin
L in
setz en
A N
necess ary
con trol
chä ft
c olle
W ith
U r
M ein
d ing
o und
et was
ag t
are as
vent ion
ro ad
Unterstütz ung
U N
h men
s ide
ür lich
er halten
leg isl
ge hör
est ablish
arbe iten
ir d
ar en
a id
bu ild
iz ed
e ach
fur ther
b ank
ach e
se curity
A T
por te
b udget
at ic
res ult
ne xt
e as
m il
vo te
mo dern
Zusammen arbeit
St adt
O ur
I T
L ändern
h ält
suc cess
t es
E S
Te chn
F ir
ein mal
inc ip
2 4
hop e
st re
c ol
schaf ten
proble ms
il fe
er sten
Mar kt
lo g
ear ch
th ree
letz ten
S er
au ßer
s ing
D urch
k ä
s um
as ed
g lichen
B ild
j en
ig ten
hal f
w he
ut es
Z immer
con ta
ges etzt
Sicher heit
are d
Um welt
li k
op port
dit ions
co operation
20 10
w ish
pr incip
j a
re ce
sp iel
comm un
Gro up
be de
ul es
fo und
Proble m
c a
ge d
b at
We b
ut zen
ent lichen
fe w
ver l
z ess
c ity
ah n
w alt
he alth
tra gen
it z
gen ommen
um f
em ents
Reg ierung
st im
ich ten
imple ment
I S
H in
Q ual
inv ol
l ungen
M ad
hist or
N amen
g lau
ch o
f ts
wh ile
Ver fü
wh y
ver wen
mar kt
g iven
str eng
It al
se qu
grö ß
ör der
sp l
For m
D ienst
kt iv
ad dition
in ing
le ad
200 8
h ap
Be it
re chte
pra ct
p op
in es
prote ction
co ver
tre ten
u c
ell schaft
k auf
le icht
ex t
l t
p ack
Or gan
p at
beste ht
comp any
Ne w
program m
B el
De ut
sh all
in form
führ ung
Comm unity
le men
lich t
Sp iel
ier ungs
dr ess
sp ol
so ur
w är
d rei
ci ally
D ar
Be i
f iel
Kolle gen
um en
z ü
is es
wä re
Fra gen
zie h
be im
re fer
es se
system s
S an
lif e
ze pt
I r
ho wever
st art
V ol
ein ge
govern ment
der en
Energ ie
C O
sib ility
ur s
g aben
is ing
w al
b it
wend ung
T ag
ial og
itä ten
reg ion
z o
d ig
polit ischen
Ver trag
Ges ch
in iti
ch er
O b
u ge
Ho use
S ol
ichter stat
alle d
n al
f te
m uß
Mr s
Fra ktion
cons um
if ied
Un ited
hand elt
R est
n ing
iv il
need s
ig in
St ra
Be deut
dif f
ge ther
hän g
res pect
ö t
re le
Bes ch
ie ty
N ot
h ang
Ent scheid
la y
m ot
iv ely
comp an
ex p
ap pe
comple te
B en
Bedeut ung
aur ant
program me
c rit
pr ü
G u
M al
ac cept
p ur
wel che
an al
K unden
cl os
bet ter
work ing
d id
ät ze
rap porte
m ult
gen au
E ben
US A
Sta aten
e ig
1 00
po in
al ways
bere ich
Fl ug
a der
sel f
L is
d on
c are
Er geb
Se ite
bo ok
l ing
st ate
Re gel
t on
ie t
as ch
inter est
W hat
ass ung
k enn
wirk lich
da bei
ste p
el f
re ach
dr uck
ing ungen
con ne
tra de
ze igt
dr en
Sch utz
whe ther
in a
particular ly
l ad
produ ction
tra dition
re cent
ful l
ga be
transp ort
s einen
r än
an e
b ind
d om
200 7
gro ße
200 0
il dren
M il
gro ßen
ter ms
issu es
b on
se cond
Str ateg
trä ge
A p
P ort
En g
not wend
Ber ichterstat
hal ts
ma king
at y
st ra
o cr
The y
n on
m ut
ac count
de al
m m
to gether
R om
diff icult
F ol
ck s
T ur
ter m
Program m
M us
B us
Ges chä
cl us
EU R
ex ist
ro le
G ar
A R
l ow
con trib
A ber
w w
Leben s
ex press
best imm
The ma
öl ker
be kann
dar über
st ay
Möglich keit
um ents
u ter
bas is
se ctor
cent r
re co
Proble me
L i
ge legen
ent ion
Z ug
Kin der
ta x
re form
in stit
W ett
da von
Au to
er forder
Gen er
Aussch uss
ot i
go ing
d an
W hen
Be ispiel
Frau en
w ater
lo ad
t schafts
ko sten
schließ lich
ge ord
u ft
gu ar
ke ts
we isen
man agement
ros s
Verfü gung
comm it
dec ision
m einer
ch an
w and
pro je
be come
ik an
n äch
c arr
polit ik
ex tre
res earch
ch es
o th
v ious
F amil
F ort
n ers
da her
k m
w omen
her vor
Richt linie
Serv ice
we e
Th ese
kä mp
Z ahl
ent en
gegen über
pro per
f on
i ben
if en
a im
con ditions
W ahl
We ise
wi de
4 0
ateg or
i od
je der
o se
könn te
h y
I I
unterstütz en
und e
en zen
F un
b lick
to ur
Zu kunft
lich keit
um s
Inter national
an other
op p
M ill
de ta
ra d
su chen
dar f
d ate
as h
ig r
ad dress
komm t
K ar
k re
who le
zie hen
A S
se ver
ben ef
sch ied
spe ak
We g
v our
p ers
st ud
wor d
loc ated
all es
sh ort
b ild
neg oti
so wohl
kl ar
Ind ustr
ne ten
ch ildren
eigen en
la ck
Sit uation
Se iten
pr ior
Art ik
sch utz
l ist
e hen
sel ves
k ein
we gen
b an
wi er
guar ante
Au ch
H ier
P er
st o
mat ter
g n
ult ur
es pe
spol itik
jo y
Wett bewer
pro ced
ra cht
schn ell
w rit
ar ound
Min ister
ar s
or g
incl u
h im
Ge gen
fer t
nat ürlich
V iel
For sch
fe ct
fre i
ü t
ie g
C hr
Me hr
d ist
compan ies
ih nen
y o
kt or
K re
industr y
prof ess
is ions
an c
c ut
ame work
s amen
rapporte ur
Al s
loc al
st immung
af f
i ate
employ ment
ik a
effe ct
so c
weit ere
m aterial
R olle
mon th
cr is
com ing
view s
im prov
vis it
th ird
v est
bur g
au er
d one
g ere
En de
S k
er reichen
do c
sche iden
A ir
d essen
ä uß
espe cially
ho to
var ious
reg ul
D E
we g
com es
c el
person al
in nov
Ver brauch
fa vour
fin anz
cre ate
ge geben
ab häng
Ihr er
S oftware
et y
j ob
sh ow
en ces
besonder s
z war
isch es
l ight
W ähr
x im
z ip
6 0
inner halb
l auf
appro ach
ig es
po se
d ings
res olution
dem and
c al
Gr up
A fr
s ite
in str
gesch lossen
ä d
res our
od y
ge führt
in stitution
Produ kt
K ol
re present
ac cord
ent fern
am m
ad op
m illion
h ä
Wir tschaft
Ver s
ur y
europä ische
spra che
cris is
international en
one y
Z entr
ab ly
ty p
po st
gro und
d istr
fr ien
se le
hat te
dire ctive
verschieden en
fa ce
contin ue
ie f
ip t
gent lemen
lin es
tro du
pro gress
im p
or igin
r ä
commun ic
I C
Gr ün
ra el
re ally
reg ional
Berichterstat ter
op in
ser ious
Wir tschafts
inst all
under stand
he ad
at iven
k ung
h il
ro und
8 0
D ire
Al le
d ür
c alled
H aupt
mö chten
th ough
ing en
200 6
con tra
pro ject
mit t
T O
l äs
L ie
ant rag
h ard
viel en
Ch ar
if iz
ffic ient
F ahr
per iod
gener al
fa cil
gen ann
priv ate
Tr ansp
Ger man
Mein ung
D en
ho ch
iz ation
dra w
icht s
auto mat
S y
ne ar
r ules
om ent
us er
d ort
cent re
its elf
in trodu
ro p
fo od
J e
if ft
Ges und
exper ience
Artik el
pe ace
ks am
F o
it or
F est
at ives
on s
some thing
d ou
an ces
B l
ag r
produ ct
aus sch
Ab geord
as ing
equ ip
A L
fol gt
be ach
organ is
land s
bre ak
t urn
schaf fen
am ong
ot s
i vers
ter r
F isch
an zu
In vest
i ther
Zusammen hang
b ig
sing le
m äß
T our
Tre aty
Com p
Sch luss
fe at
k ind
t est
ier ungen
N utz
lo ck
agre e
g ern
Deut sch
W ar
instit utions
Mad am
R ück
le ast
neh mer
Geschä fts
af fen
be findet
lä ge
Part ner
ges agt
S u
u gen
for ward
sp ort
fra ge
sub ject
ta king
h ät
K l
r un
hin aus
une hmen
fe hl
in o
ag o
Ge bie
at iv
ü hr
ich tet
Ent schließ
te le
Techn olog
mil it
lie ßen
fer enz
ment ion
Lös ung
il s
tow ards
polit ische
Dem okrat
beste hen
W ind
P e
w ind
entfern t
G leich
einz el
ig keiten
iden cy
Gemein schaft
at ten
ges ehen
R O
im ate
f ang
än de
n ame
ge legt
s he
wel come
teil ung
follow ing
ke ep
zeit ig
E l
t able
H ilfe
C l
w ahr
K omm
ul ts
ev ent
Haus halts
A C
p a
en de
r y
of ten
mar k
leist ungen
id ar
vers ion
M y
Ver antwort
grow th
er ste
c lose
fle x
ent sprechen
str ong
lang u
2 3
gr at
ic le
T err
rit te
s weise
s oftware
v ol
be tre
on ce
begr ü
Präsident in
I hren
R ates
ab sol
wer k
partic ip
de li
o te
E mp
incre ase
r ing
A G
Ger many
i ans
ed om
id ay
ra gen
o v
c ke
T a
ol s
posit ive
iv ed
hn t
net work
ex cell
sever al
J an
individ ual
Member s
C ar
we is
dire kt
Reg ion
ra cy
U hr
m oney
ho use
Entwick lungs
dar an
fr amework
resour ces
kon n
opport unity
ic an
fiel d
ik en
le is
äm lich
m os
tow n
bei den
extre m
Sp ra
h ome
our s
in dem
st ain
ific ation
et s
n ämlich
d est
iv al
ge währ
th ings
ament al
ff iz
Proje kt
ier e
stand ards
p ed
op tim
or n
G re
itt le
K ultur
fä h
Z ust
propos als
fun ction
öff entlichen
Fr ank
zo gen
E le
ein ander
wen iger
pro chen
So zial
hal te
T V
amend ments
Wor ld
ab o
fer ence
re icht
ob je
fe el
for ce
teil en
ra ph
be half
Was ser
In iti
w ün
on es
2 1
ra ther
de f
r ange
D o
le isten
Ver fahren
Sp an
Des halb
part ners
ad min
au en
St ate
ent scheiden
er ien
I P
B ank
K lim
N atur
S tell
cl ass
t lich
day s
W es
mach t
Str u
so ci
Europ as
o un
as st
lad ies
et c
In stitution
Hotel s
Person en
p ot
F rei
ver kehr
A c
bar en
a way
fra gen
iden ce
forder ungen
sicht lich
K ü
cr ipt
me an
gr ün
Ver hand
Ko sten
Se p
ün st
D is
f lo
b i
A P
G o
tro ll
on line
unser em
an im
Is rael
R ed
il la
F il
m ag
ru ck
v ier
P unkt
T ats
200 5
Un s
Mill ionen
ber al
se em
B as
pr ä
econom y
sign ific
z er
u tet
St ud
adop ted
en joy
Aus sprache
S w
h under
is se
äch lich
technolog y
gre ifen
m ight
Dies es
v ölker
Produ kte
pr ice
gem acht
u ellen
Eben e
f oc
ver ständ
Ber lin
v ia
en den
gro ß
vis ion
le it
Zug ang
y et
Be zug
us es
R u
m ann
G ä
appro pr
ken nen
e ded
T er
excell ent
Sch l
ens ion
vi ol
famil y
re chts
legisl ation
l ittle
J ul
l on
m ind
tem ber
O N
activ ities
ele ct
auf ge
j ähr
saf ety
ger ade
dem okrat
sta at
qu ite
b order
unt il
ta ge
le ar
so gar
agr icult
we b
T ür
ed uc
er war
opin ion
sol ution
glau be
know n
ein zu
ent ly
Re chte
b itte
D ate
ob ject
brauch en
polic ies
g ilt
s ichtig
P at
ol f
cont ent
wor ds
N ational
Ab kommen
um e
reich e
200 4
alt ung
dem ocr
stim men
Par k
Ab stimmung
Pr iv
B au
re gel
fre edom
öff entlich
com fort
ha ving
b zw
er folg
pers ön
je den
provide d
dar in
b are
poin ts
S ü
et wa
rel ation
K ap
z unehmen
verb unden
2 2
national en
G eld
cost s
is on
ho st
In str
s om
s at
S up
r aum
Verbrauch er
con stru
ein igen
re quest
sch l
g ute
ch allen
effe ctive
unterstütz t
ide d
kün ft
c kt
ap an
mo del
Er fahr
val ue
member s
if y
Bes chäft
g ht
der zeit
St re
an st
ap art
ver t
r ic
re main
respon sibility
t t
No v
Pre is
Sep tember
tre at
for dern
P a
den ken
er en
id ing
concern ed
ide o
z immer
gest immt
B al
a ve
r isk
E L
unter schied
incl ude
S ou
C an
im es
f our
De bat
eben falls
Jahr es
sit u
vo ted
be h
pro ve
con text
mo bil
import ance
ze igen
stand ard
betr ifft
T ext
re comm
üs sel
fr ont
Ge b
u cht
7 0
Strateg ie
er klär
Dies er
m ess
h aus
z a
e ver
st ant
w in
dür fen
O R
at tra
strateg y
A D
200 3
oth ers
wär t
ne te
loc ation
me isten
S el
O ne
D isk
gre ater
Kol leg
b ody
man u
W ach
O p
ic ial
mö glichen
th od
build ing
att ention
soc iety
Fort sch
tel le
environment al
S ub
te ile
r ate
Organ isation
We bsite
S on
Re i
res ults
deut lich
Änderungs an
arbeit et
wi esen
ag er
ih n
abo ve
ent ire
gesch lagen
proje cts
w ahl
lau b
zu stellen
än ger
P os
m ass
ma il
wirtschaft lichen
tim es
applic ation
to ber
ot t
oc racy
soll en
hl t
nicht s
group s
l en
ma kes
M är
Jan u
ot ing
Qual ität
weiter hin
F ä
l at
ver bess
N icht
le ft
k ar
Ges etz
princip le
ih m
200 1
J ust
sim ply
Ver kehr
for ts
zeich net
wee k
b our
D r
u en
B em
A ustr
terr or
ition en
p ast
dr ück
Or t
on str
on a
p hoto
ne ver
incre asing
ständ ig
st y
ist an
S al
over n
author ities
ent liche
k einen
te am
Ver bind
en ted
quest ions
Menschen rechte
F und
if ul
h es
de ll
grat ul
2 7
hl er
clear ly
h ip
s end
s einem
f ig
O S
ver fahren
C D
struct ure
in ge
res erv
min ister
c op
ble iben
Uns ere
gemein sam
led ge
D ok
ihre m
w an
st um
ide al
Af ter
du e
Be zieh
un kte
ander er
amp f
Demokrat ie
ile d
al ong
Sicher heits
Des ign
W h
Le ist
d ien
trol le
su stain
er ziel
äch st
be w
fund amental
t ag
C he
ist ic
s of
E ast
Ben utz
beg inn
Deutsch land
hör den
st aff
An sicht
me chan
age d
prov ides
se i
sh op
su per
le i
wür den
s al
fir m
ess ential
sol che
wen ig
be ispiel
cr imin
Ro om
wicht ige
D ank
Pr of
f ish
g ing
ans wer
der s
zus ätz
la den
stru ktur
un ächst
kur z
Um setzung
to tal
b ung
des halb
p ages
F örder
Sit z
gra ph
fair s
v ement
achie ve
P ra
an a
propos ed
is iert
conta ct
signific ant
che ck
centr al
ad d
e hr
c ame
k a
mo der
le ader
sch wer
bede utet
if t
ret urn
sit es
Ges ellschaft
H ö
ver ein
in fl
her r
me thod
inter nal
ass ist
respon sible
por ted
halt ung
geb ung
we bsite
yo ung
in ten
akt iv
he im
hof fe
pf licht
st u
ze hn
aut iful
I ra
zü glich
c ir
lin k
O ff
ch anges
ier s
St at
gr iff
g as
m oment
ar ian
su g
h nen
Be völker
kom ple
n u
ll t
B uch
Gro ß
ter min
un st
mos ph
Ver besser
char ac
auf grund
dem ocracy
re f
reg ulation
inter ests
geb racht
eas y
c u
Chr ist
in zip
utz t
wer de
n utzen
Industr ie
au p
setz t
Sch ul
Z iele
Pro zess
and s
G overn
pre c
se its
saf e
sh are
200 2
reg ions
l ot
Klim a
meet ing
z ä
pos ed
Herr en
u ell
ich en
an ten
wirk ungen
ben öt
Ma il
Vorsch läge
teil t
M or
techn ical
Verantwort ung
ä re
cult ural
sch re
gemein samen
f ight
Stru ktur
pre vent
m als
Au ßen
Sch we
ag ing
ex tra
distr ib
L o
näch sten
M E
implement ation
r i
b ro
neu er
au d
tra ining
le ase
l ange
Ste uer
Bo ok
for man
aus zu
S a
c ivil
I D
Me er
Par te
lich es
he art
p assen
u elle
current ly
l änd
g liche
inter ess
A spe
l ab
min utes
sozial en
Rest aurant
Russ ia
Wind ows
An gelegen
fr ist
i ar
require d
sub s
mo ve
19 8
of fe
af fe
An wendung
B il
po ol
sch ö
ef forts
umen te
H ol
Bed ingungen
notwend ig
gr up
Fir st
gehör t
Grund lage
c li
ult ure
fun ktion
frien d
bes ten
am b
r ichtig
P C
rel ated
Gener al
se a
lon ger
be autiful
ke i
nat ural
D ah
itä ts
Er weiter
am a
Bet rie
cap ital
N ä
compet ition
J apan
K ur
t in
Richt ung
Fr ieden
Debat te
Tr ans
invol ved
en e
reco gn
contin u
organ isation
negoti ations
month s
en ch
beispiel sweise
ie llen
ß t
viel leicht
et zen
compet it
manu fact
part ies
st adt
u z
forder t
S E
f is
ber ück
democr atic
Gä ste
Ver tr
W el
mar kets
Ver f
K rit
an ced
bekann t
gef ähr
Institution en
N etz
enth alten
Nov ember
m essen
W ert
a den
ch ter
qu ick
ne eded
Jahr hunder
T ages
l ar
hap pen
be tra
in ed
we der
am es
l ö
un ver
hin der
Inter esse
cor re
app ly
cl ar
M ay
act ive
A pr
u th
sp ir
lin ien
b ahn
at al
opt ion
sol utions
st or
hen s
d y
them selves
bo ten
tr y
Er klär
c ure
J u
at ors
Dah er
9 0
Pres idency
J o
sch luss
un ge
ish ed
Wie der
Hin blick
schein t
fore ign
ber g
sp an
st ation
G l
pt ion
admin istr
Rei he
S port
h ib
it em
vor sch
custom ers
accord ing
require ments
per fect
vor geschlagen
I M
d anken
ä ter
en ough
I de
Entscheid ung
pl atz
C or
er fü
fü n
Gebie t
appropr iate
äs ent
and id
sit z
aller dings
bo ard
sch wier
In tegr
ib ility
e th
direct ly
B y
F ern
iten s
st ück
ll ig
s es
am o
W ort
cas es
act ions
m and
V on
y p
D amen
develop ing
d ialog
fund s
far m
S h
mer ksam
l ig
l ive
nat ure
h on
pres ented
Änderungs antrag
unter nehmen
Er folg
look ing
könn ten
gemein same
wi der
R E
nor mal
extrem ely
z el
all gem
P ub
br it
h m
rele v
r up
Wo hn
ges etz
richt ung
res pe
K enn
ac c
up on
Aus wirkungen
v olle
har mon
develop ed
ste ad
re la
pe ten
gest at
st ates
Te le
dis k
ou ght
Pl an
be vor
ev ents
T ro
ad a
comm od
c amp
ap er
er wä
stand en
umf assen
st op
Verhand lungen
ist ischen
t ar
Ö ff
er reicht
mon itor
Apr il
th us
n ight
al ter
199 9
pre p
Möglich keiten
it es
dem onstr
c aus
Tats ache
e uro
c ast
mo b
we iß
Reg ionen
5 00
n immt
Sel bst
Disk uss
A ktiv
ta kt
C our
con tain
gel ten
gleich en
Vers ion
Re al
M er
y l
le x
Ein satz
verwen det
mo dif
ac y
un ch
im prove
Abgeord neten
lie d
Mit arbeit
hol iday
Fun ktion
t ä
aur ants
al tern
so on
ct ors
den ke
su cht
main tain
h ab
min im
fre und
cl imate
er möglich
b all
t ats
jen igen
pre vious
am t
f el
en cour
de v
educ ation
In st
2 6
Ver walt
initi ative
ind ic
recomm end
Her aus
Ihre m
tr ue
M ore
ra chten
ant i
hist ory
Mitglie der
K ön
hel d
H ow
f ile
ab les
ch em
B innen
k or
Pro to
s us
D am
Fo to
la im
se par
Aus druck
B rit
A gr
at ory
je weil
hin zu
schrif ten
Ver tre
mb H
b ath
ty pe
h ung
ap e
work ers
F ar
S c
Bes uch
Fr ance
kle inen
D ruck
forman ce
erforder lich
hap s
b ot
Gesch ichte
f ör
ma xim
Z us
Dienst leistungen
prote ct
Au ßer
Re chn
proced ure
com bin
In form
de pend
Änderungsan träge
es ted
on en
as es
In sel
Sch ritt
W issen
fin al
Kolleg innen
arbeit ung
Program me
Ergeb nis
K raft
charac ter
angen ommen
D och
dar um
hö ch
j ud
ent sch
fort un
fün f
ex ten
v ic
ach ten
l ändern
Ir an
con dition
iel le
Terr or
kämp fung
av o
2 8
mo un
c ard
res ol
act ually
sch o
P lease
he iß
imm ed
ach en
N ie
ple ase
streng then
ch arge
N ord
un a
anal ys
kr ä
D ialog
se en
Fisch ere
neh m
Forsch ung
it ions
hel fen
entwick elt
Te am
hol d
e ither
G mbH
ges ellschaft
Fr üh
.. ..
ide a
major ity
spr äsident
in er
if fen
Mus ik
langu age
K unst
Port ug
er hö
R aum
mus ic
A M
comm er
k ra
emp has
use um
Hand els
ce ed
il ities
addition al
gesam ten
Ver ordnung
sch ie
Bezieh ungen
communic ation
Fr om
Off ice
ex pect
eben so
Ant wort
bis her
cre ated
ge tr
c ies
rel ations
a x
cent ury
Verein igten
bild ung
un ik
M ot
pr ices
Schluss el
Nä he
gegen wärt
imp act
is ieren
igr ation
doc ument
an o
en able
ak zept
in tens
colle ag
re ib
at ch
ver antwort
ho ut
er he
ür z
par liament
einzel nen
e y
ing t
ermöglich t
Land es
b ian
Tur key
R is
B re
Sch af
bede uten
Bereich en
hat ten
h inter
Lis te
miss ion
Sou th
Haus halt
sug gest
L uft
certain ly
fäh igkeit
C H
th re
be f
concern s
welt weit
verschieden e
f u
z one
be finden
ab on
ta ck
con sequ
ind est
Inter essen
Kr ise
- -
tern al
so und
e ffiz
invest ment
h app
Govern ment
programm es
l iving
ww w
Bevölker ung
hät te
facil ities
ig ungs
Wettbewer bs
mittel n
Förder ung
sp ace
on y
Un ser
re fle
c en
v a
every thing
leis tet
D u
rela x
work s
K os
Tür kei
l änder
pr im
t ion
al most
spre ch
ph one
d ict
in ation
p ict
co ordin
K le
Par is
Fr ench
fr ü
Ver pflicht
lin ks
St abil
rece ive
p ing
agre ements
cr u
mention ed
comm ittee
ad urch
Sta ats
Ge legen
R ad
Beit rag
h end
guarante e
Pl atz
Amer ican
g ain
h or
rie ben
Re form
f fer
A ug
an er
spiel en
m el
r ates
fol ge
ab ge
for men
Ausschuss es
f am
änder t
inclu ded
prof it
par ts
B lick
as soci
te id
ur en
ass ess
wicht igen
b ra
F ühr
amer ikan
es ten
on d
gu ests
do ing
know ledge
exist ing
dec isions
spr icht
a ware
us st
ire d
c laim
lo k
international e
L et
en large
part ner
W est
verfü gt
Famil ien
B ü
w r
H ar
ex cept
concern ing
v ö
Kon trolle
en or
Ho st
L E
Auf gabe
f ive
A part
M ob
i ra
rel ig
heiß t
weiter en
ch s
us ers
g ab
lead ing
Grup pe
it ing
Ar ch
Hand el
Entschließ ung
u le
conf lic
se ite
d re
lic ken
jo int
ta kes
z if
m einen
N et
3 5
writ ing
än den
Be hörden
object ives
wach sen
C as
s ag
il ar
ce p
ar i
f li
Erweiter ung
s ess
Außer dem
Lis bon
l le
gem äß
W ill
ü lt
pra kt
rei ben
mit ted
Ein zel
ap prov
he ut
The men
m id
A gen
wirtschaft liche
job s
grö ßer
r ich
men d
K ampf
m ü
reason s
con clus
gleich zeitig
2 9
hand eln
je dem
ch sel
gangen en
p al
sch le
ex clus
amo unt
Cour t
m ein
il legal
design ed
Be g
L iss
cor por
Z um
Ho ch
f ten
Min uten
throug hout
conne ction
H a
cent er
P E
We iter
Not wend
med ia
integr ation
H af
ne ut
Pro z
absol ute
bar keit
milit ary
ble ibt
rest aurant
at ure
uni que
prü fen
un abhäng
Amer ica
k raft
verständ lich
imm ungen
A kt
hand lung
Wach stum
ze ugen
L on
Pr ior
Liss abon
Z ur
comm unity
ö st
corre ct
Fol gen
br u
gen ie
ar ing
val ues
Se e
v an
ac ross
Verbind ung
V is
S or
H ome
agricult ural
wor ten
it ten
P L
l is
an zen
out side
Se it
On line
pr äsent
D an
fa il
has e
no thing
obje ctive
fon ds
l ater
sur round
D i
form s
au sch
kt ive
Binnen markt
ob lig
er sch
ent re
bal d
Nor th
för dern
ac commod
är en
K a
pop ulation
je de
her aus
For der
pract ice
tra vel
s ent
se x
U p
g än
sie ht
nach halt
unser es
to ok
v il
situ ated
part y
alth ough
profess ional
par k
ast er
hin sichtlich
G lobal
co de
v in
Verbesser ung
f allen
be kommen
äl le
Schaf fung
cons ult
ir es
prom ise
un ities
U kra
se arch
pack age
k rit
ange messen
as pe
Af fairs
Wer k
comple x
regard ing
B u
bed ingungen
feat ures
cap ac
4 5
j ahr
konn te
De c
ien s
sen se
sp äter
g al
Dok ument
key word
In nen
it err
be züglich
ra f
A mend
r ichten
b ad
bas ic
richt ungen
C entr
off icial
benef it
k n
Gesund heit
establish ed
complete ly
S T
f al
pub lish
ter rit
ig te
ger ichtet
fam ous
report s
P lay
gar ant
d le
instr ument
jed es
qu is
Lon don
dialog ue
al d
k ulture
k ungen
ear ly
Vol ks
K or
es ter
origin al
trans fer
Aug ust
r is
wen den
vor schriften
break fast
Benutz er
po or
cult ure
us h
no te
p an
Bar cel
pro zess
Au gen
fortun ately
con gratul
Notwend igkeit
spe zie
Inform ations
govern ments
ne ben
Frank reich
L ux
Lös ungen
Zentr um
M ag
tro tz
dig ital
h ours
inde ed
Nutz ung
cl ub
custom er
p s
o vo
ra ce
aus gestat
per formance
gu ide
on om
e c
cr i
läs st
M et
sat is
An al
p ite
be teil
R el
re mo
de te
pot ential
f s
k oll
ver g
K ern
M acht
ie ben
iver sit
n issen
Fin ally
3 00
im ent
uf ig
os en
er möglichen
w under
cre dit
iven ess
pl ant
fil es
entwick eln
ho he
Russ land
av a
br igen
er weise
anz ös
äs s
un sch
pub lik
cre ation
A ben
Initi ative
achie ved
constru ction
An geb
wichtig sten
w ise
S ter
kon kre
d iv
Stand ard
im age
In nov
grund legen
Gelegen heit
wo bei
st age
ex tens
bu ilt
spe ed
b road
comfort able
gesam t
K ir
p et
inclu des
r und
Fe bru
tradition al
Arbeit spl
ig ent
sozial e
bre it
pl ann
Th ank
l ant
industr ial
ver tr
enth ält
Ergeb nisse
e fficient
consum ers
amend ment
na he
verbess ern
all ows
ber t
er ster
G ree
seem s
kle ine
G ip
sustain able
cle an
b a
s an
So cial
trans l
Ser ver
Ge walt
cir c
schließ end
N ow
g ame
Man agement
Über ein
quick ly
Kon ferenz
h uge
princip les
S ince
sim ple
ul l
sicher heit
n ation
Art icle
Reg ierungen
Dam it
ho ben
los s
F ur
O L
conta ins
ir gend
pl ies
nu clear
st ances
sten s
un ion
pr ise
ex port
disk ut
sp end
amer a
commit ment
Gemein schafts
zahl en
genann ten
ip l
comp uter
in ne
L es
og raph
Wo chen
the less
foc us
b uch
kenn t
rece ived
ge wä
offen en
P ass
auf zu
De bian
down load
E T
ver stär
Beschäft igung
subs id
E ur
treat ment
ma ßnahmen
D V
Un ivers
Fe hler
in i
sp ar
set t
be ein
bal ance
3 1
ik o
m einem
agre ed
spe ct
n ern
at ast
bo x
vö llig
L og
bel ow
Ver wendung
inde pend
olog ical
gan zen
h aupt
incre ased
üs se
t ic
on nen
ar g
gef unden
str ess
sch ließen
recent ly
or f
c ategor
re cord
applic ations
schrif tlich
re in
tre ffen
sch ön
W TO
stell ungen
good s
m ing
mat ters
t ung
os s
F uß
19 7
j our
prom ote
Dar über
relev ant
F R
co unter
sichtig t
er lau
Zeit punkt
m is
gr enz
Lin ux
rif ten
level s
Se cond
per haps
mehr ere
T at
d raft
al er
tats ächlich
B itte
l ux
Vor aus
M S
li z
every one
gro ßer
ein deut
verwen den
c ross
t i
sour cen
pro b
Ma ß
gan ze
friend ly
sc ient
ge eig
Sol idar
dy nam
st off
Kr ieg
lim ited
success ful
ö hn
cho ice
t liche
Stell ung
il ität
ster dam
o il
Kon fli
ic les
pf lich
lear n
ges prochen
ex change
al te
reg ular
clos ed
Änder ungen
Vertrag s
Am sterdam
Ein führung
St unden
sol id
Bus iness
ger ne
fl ä
An fang
Wo che
Centr al
B ur
H ere
M iss
zeug t
Barcel ona
Verein bar
ie b
S ome
arch ite
w est
exper ien
spe zif
There fore
who se
tem por
it ness
M ic
J une
N at
dire ction
p urch
it el
form er
Ge w
Integr ation
li beral
Be kämpfung
aussch uss
hin dern
appe ar
meas ure
s un
gewähr leisten
sor gen
De velop
ig lich
su fficient
ck er
L auf
äuß erst
M än
An zahl
Gesund heits
equip ment
G et
Stand punkt
C ol
P an
carr ied
Ver anst
aspe cts
ask ed
reg ister
enlarge ment
stat us
i ation
ad ded
best ät
ver stehen
r id
f eld
Mitarbeit er
gu ten
verfü g
ist ische
f an
i ally
cover ed
Book ing
dou ble
sup ply
op e
ger ä
Re ise
Kom prom
L at
O ber
ör per
b lo
s ix
ver treten
Transp ort
B ahn
spr uch
crit er
u fen
respon se
er ve
Kos ovo
deli ver
H am
g ot
Aus wahl
ser ver
P la
ie ll
profess ion
Fur ther
ra il
Pos ition
su it
Kommissar in
pla ced
und es
ex ternal
con cept
men ted
beginn ing
au ber
F ach
redu ce
E rachten
pos sibility
gesam te
sh own
ster reich
M aterial
W ahr
Erachten s
D on
es h
z unächst
fahr t
effe cts
S um
st ic
M ac
S P
new s
fund ing
fr ieden
Cl ub
hig her
in fra
inter net
mob ile
wissen schaft
prior ity
wal k
ell er
star k
bau en
bestimm te
verfü gen
Au fen
Au ff
kr imin
Wettbewer b
high ly
S to
re view
Ma i
leg ung
Fortsch ritte
Aufen th
ill s
ple as
O pt
Ukra ine
Früh stück
m eines
A ut
press ure
E igen
Sü d
em iss
opport unities
läs s
Str and
eigen e
gehör en
eng ine
Con vention
equip ped
prep ared
con du
fre ien
O c
h ne
commer cial
Ex per
sh ows
H inter
g ült
I L
schn itt
adv an
T age
w onder
capac ity
D at
Geb ä
größ ten
f ix
led iglich
O k
wä hlen
ipl om
b and
transp aren
St ar
stell er
im ension
ä hn
ver suchen
sour ce
Le it
Angeb ot
iterr ane
k an
ver pflich
J uni
n ä
Nie der
sch t
P f
vor liegen
ob wohl
let ter
ein schließlich
wün schen
Inst all
mäß ig
atast rop
av ing
x is
O f
s l
tal k
us ion
S S
accept able
ieren den
Rom an
set ting
Instr ument
sim ilar
sk i
z y
Produ ktion
consum er
b illion
roug ht
St im
g y
r ang
opp el
sol idar
au l
tra ffic
vor hand
thank s
off ice
Ju gend
de fen
Her zen
Po st
haf t
ob tain
pre t
Rat spräsident
k am
Ne u
dr ing
vor gesehen
r om
hör en
D inge
einz ig
Best immungen
art ige
de termin
reach ed
S im
bes chäft
st ag
U R
or ient
mo d
consider ed
M ich
Mehr heit
sty le
Lie fer
innov ative
th in
su ffer
Eng lish
H T
D rit
Afr ica
erhe b
hig hl
ve h
sch ütz
e hm
v olution
con cl
Kön ig
sag te
Erklär ung
b lock
pre par
en gen
S icht
Aktiv itäten
bestimm ten
wor th
beh ind
so uth
kon zentr
it ation
s ätz
wur f
categor ies
C ity
fis her
ab zu
Z w
sup ported
ele kt
read ing
ser ies
T ät
pop ular
A uss
zwe ite
auf genommen
f ält
cre en
dec ided
Vorsch riften
Komm unik
ma ins
Med ien
Erfahr ung
gh an
comp re
assist ance
c oll
c ul
ä st
System s
An wend
setz ungen
wes entlich
Re public
In de
ab or
S il
B ul
Proto koll
Sp ain
E M
ar ily
wert ung
to ol
Pr ä
prov iding
ph ys
l ies
De z
end s
p ie
st ability
199 8
Sta at
Entscheid ungen
ategor ien
ma ß
bring t
gere cht
do or
ge ts
ad ap
Ital y
P unkte
asch inen
sol chen
kl us
reg ards
i j
se cure
pl at
gre en
i os
de ath
s ätze
lo wer
ab kommen
f angen
ar enz
ho hen
S omm
cho ose
I V
Famil ie
Land wirtschaft
cre ating
b ein
sib ilities
fl uss
sp ac
re mains
Bericht s
Hö he
avo id
ren e
ier ter
Person al
mb ol
ien cy
n ommen
ic o
Währ end
som it
w ander
legisl ative
Ge fahr
s ize
v ideo
sprech end
alle in
ru le
s mo
Dec ember
S ite
ein heit
ver gangenen
regul ations
T H
Spra che
O pen
reg istr
sch ätz
mo vement
mor gen
he ar
instr uments
stand s
W ell
hotel s
ist ics
Auf merksam
material s
erfolg reich
An satz
com promise
H y
ne igh
B ud
press ion
Frei heit
agen da
Er zeug
sof ort
ple ased
discuss ion
ater al
em er
Ital ien
H igh
deta ils
j ün
m em
Agr ar
pres ents
Da bei
Part y
trä gt
F erien
re pe
industr ie
be y
sit zen
Arbeit nehmer
ständ igen
u chen
t ät
dan ger
Präsident en
wi mm
Vol k
letz t
öff net
flo or
Comp uter
Transp arenz
E ing
Priv at
lat est
k ü
Serv ices
T or
po ver
Kon takt
Tages ordnung
independ ent
et ary
Mar ket
pla ces
Grup pen
u ted
hand el
Aufmerksam keit
c up
Pr ü
or k
f fe
mo us
Verkehr s
ro at
ob vious
qu ar
ak ter
üh ungen
g ünst
vir t
Dez ember
el se
proced ures
Ber g
Brit ish
i ately
au st
de ck
R ights
iterrane an
Öff entlich
Bild ung
med ium
außer dem
g ives
employ e
contrib ution
qu es
re ign
brauch t
voll en
d adurch
bre chen
A ktion
viol ence
St är
air port
to m
P h
er ous
os p
S telle
wo hn
Pr inzip
lab our
3 2
fish ing
mess age
r as
stär ker
ic y
Invest itionen
Diskuss ion
ann oun
Bas is
ze uge
fr anzös
lö sen
fe hlen
ev al
produ ced
P S
Bereich e
transp ar
N ationen
einz ige
Mar ch
C al
er inn
pr int
w esen
stat ement
poin ted
produ ce
Emp fehl
G olf
gar den
Gr enzen
it ure
leg it
vor her
Wes tern
pur pose
contra ct
rit ts
d ut
wor tern
S uch
leit et
ex pla
europä ischer
step s
Technolog ie
le b
b rought
K op
prov isions
A gent
19 6
infl u
ar m
l am
r ies
oll ar
be zogen
criter ia
eas ily
Med iterranean
stand ing
T ex
spr ün
w ent
activ ity
f urn
zwe iten
Sup er
ke its
ous ly
Pre ise
ins gesamt
proper ty
er kenn
Anal y
dis play
be ziehen
st elle
ó n
ef fort
un er
Regel n
D I
transparen cy
D own
Präsident schaft
k i
tho us
Um gebung
D om
Portug al
An forderungen
anges ichts
R ot
if fe
at mosph
Schlussel wortern
get an
arr ange
le ave
Proje kte
t ask
in stead
betre ffen
f alt
g iving
o ben
Me tho
ür f
N ur
m ap
ü st
Auff assung
M eine
Ira q
be ll
wir ken
zahl reiche
Develop ment
ander s
min or
S en
institution al
ug s
gel n
k einer
st ein
C E
et te
An frage
k ürz
ell ow
our selves
S ign
gr iffen
O per
Janu ary
solidar ity
ffic iency
L ast
ot es
relation ship
C re
Room s
P ap
al b
begrü ße
Bür gern
er hält
d ise
üh m
pr ises
Sch wier
war m
ru h
E G
W ider
ch ild
r ig
Re de
Ne ben
B ad
pover ty
H ins
Hins icht
Af ghan
U K
F ree
ing er
eig entlich
K oh
ac cep
DV D
ele ctions
Bel g
wichtig er
Pal est
H ung
ün d
v ital
ut ter
Flug haf
zwe if
Ar mut
Re publik
ver se
ex hib
w all
men sch
hes ion
Mär z
he ben
l ives
sch w
N r
y er
To day
D el
p ain
3 6
Unter such
con ference
human it
leg ation
i que
Oc tober
Lebens mittel
Grün den
dien en
st abil
il en
ar k
et imes
nie dr
consequ ences
C ap
sum mer
cl ick
K ing
zie ht
demokrat ischen
W ein
erwar ten
benef its
n öt
de ten
M useum
B ra
accommod ation
allow ed
Bem ühungen
vorhand en
fo ot
r um
Sitz ung
beit ragen
kt iven
O s
forder ung
B on
te te
con stit
par te
Fl ü
p ath
au ern
de cl
Ital ian
Sp a
challen ges
M ult
leist ungs
le ider
gro s
Schwe iz
Ver änder
möglich keiten
e qual
ein gesetzt
distrib ution
Öffentlich keit
Änder ung
die jenigen
advan tage
Bürger innen
D et
terror ism
S ache
Y ork
J ava
cur ren
kann st
itz er
c ou
dam age
gesch affen
l ös
i ke
unter st
A B
In stit
for get
au lt
olog y
o st
stud y
vic tim
Be teil
s ort
cons ist
drück lich
ver kauf
D ritt
e he
modif ied
er fahren
G ed
fin e
a ther
colleag ues
m ä
conflic t
ge leg
Kenn t
Stabil ität
durch geführt
k it
Lin ie
der al
l änger
Unternehmen s
P hil
öff entliche
hä ufig
le iten
Vertre ter
ausgestat tet
p aid
Res sourcen
S inne
kon troll
199 7
En ter
b ür
fin ally
tr ip
Bul gar
doc uments
folgen den
V ideo
ihr es
Ok tober
mor row
konn ten
son st
zus ch
I st
c os
am s
Somm er
benöt igen
real ity
F on
4 8
W ä
verb ind
Bil der
er ing
for ces
pos es
N AT
ex act
writ ten
u it
to morrow
hält nis
it ude
so le
bew usst
s inn
integr ated
neu es
den ce
er c
lim it
T est
Dire ctive
G el
d ank
hö her
elect ron
L oc
T em
ann ual
reib ung
congratul ate
zu führen
fil m
B ot
atmosph ere
li ar
ü brigen
res se
b ase
dis crimin
typ es
Jul i
g nis
or ed
ge ber
akt uellen
M art
ge worden
per form
d ient
E conom
A K
or ial
ar a
7 5
ad es
Ger icht
geb aut
comp on
verg essen
ver standen
E reign
schein lich
y a
Al so
ser ve
ade qu
interest ing
Date i
grow ing
say ing
er neut
ver hindern
ge hend
la unch
ail s
M od
Wer te
hät ten
Jahrhunder t
oc cur
Amend ment
Rechts vorschriften
re li
organis ations
cru cial
d ent
qu are
oper ating
Se curity
gew öhn
wimm ing
Auf gaben
R ats
if ik
Bes tell
Janu ar
altern ative
Ko ordin
R en
Fä llen
Mon aten
V illa
Finanz ierung
uni vers
compre hens
ieren de
pre fer
ib r
ele ments
genie ßen
Further more
use ful
B ro
Span ish
app lied
op ol
P H
i as
monitor ing
E very
Fil m
d ienst
Y our
l isten
d lich
iel t
Forsch ungs
sicht igen
be handelt
entsprechen den
ne y
scho ol
ber ühm
lang frist
tem pt
berück sichtigt
Nach bar
spe e
pract ical
star ted
Min der
lar gest
Mil liar
Terror ismus
imple mented
Jul y
St u
Stra ßen
fre qu
ff et
S af
en h
spir it
M id
if e
L u
be zieh
G al
w on
to ols
se ction
ge wiesen
ien z
ü b
w art
rel ating
Gr and
I B
un mittel
D A
wer te
con stant
requ ires
zeich nung
analys is
immed iately
bere cht
besch rän
zeich nen
c ement
row ser
k ap
Sch ließ
partners hip
tra in
bil den
os op
ur sprün
go es
spra ch
Auf trag
system e
H el
ber u
se ktor
wen ige
pay ment
b or
b ü
off iz
St äd
wo od
er kennen
is land
wa ste
f än
af r
St ad
les en
gew esen
G ast
access ion
leist ung
n es
z i
oper ations
k ret
B undes
He ute
de cken
n ungen
c raft
er o
a ign
employe es
ent sprechend
k il
redu ction
be halten
form ul
e fficiency
An streng
dou bt
Ver teid
produ z
e her
wür d
bey ond
Wo hl
con ven
frü her
Mo dell
Un iversit
Be handlung
trä gen
größ te
ern s
Beg inn
pl es
H ä
wi d
ha ir
carr y
farm ers
C enter
D F
ive au
Pub lic
un ten
kom p
Bed ürf
process es
scient ific
h om
zu frieden
tempor ary
Gre en
d ates
I F
minim um
spl an
ta ins
ad o
jün g
nor th
per man
Fol ge
al ity
ist a
effiz ient
ze p
Al though
H uman
war um
circ um
l s
happ y
M any
be für
at o
kle in
T al
Aspe kte
end lich
Menschen rechts
ad opt
fü hl
v oting
ure d
be ant
fre ie
D ien
ell schaften
0 1
C entre
we ist
3 8
C r
stehen den
Zwe itens
apart ment
9 8
ste igen
St art
im at
richt ige
s w
Tra dition
ver öffentlich
al ität
Berichterstatter in
Nat ürlich
cop y
M ann
ros oft
fü gen
oc cas
Angelegen heit
los en
ausge zeich
ver sucht
Ob je
bed ingt
co ast
just ice
pur su
refer ence
person s
Parte ien
i ro
est ic
pre is
Vertr auen
vor zu
Angelegen heiten
A F
W il
gel t
erfü llen
sto ck
gemein schaft
techn ischen
f örder
power s
Ver gangen
Solidar ität
L assen
var iety
ver z
Date ien
se ctors
crit ic
Op fer
M os
Z ivil
lich keiten
histor ical
wür dig
In halt
schütz en
fr ied
ide as
d auer
k unden
or ies
per fe
é s
ex pl
iz in
te x
über haupt
rest r
ver ab
ste uer
Sch n
her z
V al
fr esh
og le
4 00
M and
Pra xis
pa ar
mean ing
erklär t
Kü che
ex pe
j em
Spe zial
technolog ies
zum indest
it zen
ik er
ren ov
Erfahr ungen
dr ive
Flughaf en
ro ll
grup pe
Mic rosoft
sport s
c ert
ü cke
C y
W unsch
wee ks
E ven
ur ation
beg in
archite ct
Span ien
and en
comprehens ive
ständ ige
T agen
Con ference
los igkeit
c andid
r aten
m ic
cript ion
de part
sess ion
us ch
rap id
An nahme
pl ans
ler nen
high est
Schwier igkeiten
sta aten
s äm
kann t
com b
camp aign
l as
wan ted
kr ise
n ice
Fir ma
lauf en
All er
trä cht
P et
O st
challen ge
nam ely
b ien
voll ständig
Li beral
Heraus forderungen
Fischere i
tr itt
strateg ic
business es
3 3
zahl t
P T
f ire
de p
pre ci
th ought
ext ent
ein gesch
wahr scheinlich
de ep
Second ly
se chs
olog ie
jo in
ra ised
an lage
erinn ern
verantwort lich
ut t
conf ig
Is lam
Vergangen heit
w ards
serv ed
Fl or
verpflich tet
F lex
ur gent
al one
w ine
ag ieren
cept ion
gen u
I re
num erous
gang s
bess ere
lik ely
call s
sub stant
199 6
n ungs
histor ic
H il
Ar ab
was ser
ge kommen
reg ime
kl ass
l ate
ne tz
sich ern
ander em
G est
T ier
Sch ritte
verl äss
frien ds
Ire land
kämp fen
caus ed
Arbeitspl ätze
NAT O
we chsel
zus etzen
Kre dit
tar get
Verf assung
hon our
W inter
Entschließ ungs
C amp
15 0
initi atives
M P
innov ation
n el
tra ck
Al tern
D uring
da ily
sal es
beg innen
New s
N G
ct ing
Produkt ions
a be
Ur laub
isch em
co hesion
rup tion
gen ug
f as
leader s
D enn
maxim um
mö gen
restr ict
Kr ank
change d
Dem ocr
des pite
ay s
te ach
Land wir
a ktion
Verwalt ung
lo st
us w
Host els
opt ions
Aufenth alt
start ing
s ult
vers or
wieder hol
pl us
Agen da
accord ance
H off
In fra
Aussch uß
g ers
border s
ge tragen
s creen
A re
qu iet
Austr ia
i ö
W aren
Kap ital
S at
rest aurants
shop s
M oder
k op
we iten
Reg ierungs
grup pen
absolute ly
d ung
ad vert
dar stellt
begrü ßen
dist ance
Verpflicht ungen
kon om
V ir
con centr
er folgt
vil lage
außer halb
hervor ragen
erkenn ung
any thing
y e
Gr ö
k ategorien
for d
accep ted
dom in
method s
Ber at
prob ably
Al t
Afghan istan
som etimes
r ise
a ver
An ge
3 4
Über wach
sc ale
affe cted
Con stitution
mot or
More over
f ill
ver urs
reich end
ex erc
st ets
Anstreng ungen
Down load
heut igen
Milliar den
umf ang
priv aten
express ed
jeweil igen
A cht
20 20
en ze
d iplom
Tele fon
ur ance
schö nen
invest ig
fä llt
bit ten
tr ust
sim pl
represent atives
allgem einen
s il
A gre
zu künft
eindeut ig
N un
d eine
sen s
Chin ese
S onder
nach ten
publish ed
reform s
S m
emiss ions
oper ate
Or d
offer ed
Er stens
Go ogle
l ass
letz te
I G
ver me
bre ite
ch air
g ment
tr ying
l angen
Ver gleich
offer ing
langu ages
verkehr s
n ütz
An trag
neg ative
M ess
val id
ch ance
struct ural
Krit erien
9 9
opp ing
form at
inter ested
m as
prü ft
Rom a
Mittel me
Kon zept
sor g
Arch ite
I R
d ro
he ard
wert ungen
u ern
amerikan ischen
Gip fel
ital ien
S lo
O T
vor aus
Spiel er
dring end
im ages
Ge org
Organisation en
S M
er ung
ze iten
Aller dings
A V
flex ible
W ann
be came
e k
über nehmen
M L
S hop
Stell en
world wide
ot ion
Pre m
gesch rieben
se iten
ell ing
rene w
o o
Wh ile
V iele
de gre
zahl reichen
K an
Zentr al
Gebä ude
ic ated
Le g
eth n
approv ed
conf idence
re member
igh ted
b ir
demand s
ver m
Wahl en
mach ine
Parte i
is ely
u ded
Palest in
ges und
tal king
d aten
ap preci
wr ong
3 7
histor ischen
cli ents
ele ment
prior ities
vor gelegt
br and
commit ted
crit ical
curren cy
st ieg
influ ence
t arge
O ut
Ad resse
S oll
V ölker
G ra
geb ie
besch lossen
ad just
em ail
At mosph
moder nen
he av
over all
führ te
In s
st imm
ag raph
un employment
ges che
erwar tet
B io
ul s
gen utzt
V oll
C a
moun tain
Ges amt
oc cup
rele ase
Vereinbar ung
V en
process ing
br id
inten ded
Fir men
An erkennung
spezie ll
p un
ange boten
bank s
sh of
I A
milit är
fol ger
l ier
sch lag
Russ ian
exp lo
Gr ie
Co de
rit ten
erst ör
gesch ütz
Zust immung
span nen
ein gehen
sc ope
conclus ion
redu z
Ein richtung
sit ting
Schl üssel
Univers ity
bo te
E m
fe ed
posit ions
M ass
cr ime
Proz ent
9 5
p oll
be mü
administr ation
Ob wohl
Ein ige
bour g
sp er
erlau bt
größ ere
G as
iz ing
persön lichen
atal og
best immt
s low
ch tet
g ames
Ver halten
T un
Aus gaben
var i
entsch ieden
national e
sein es
wel ches
ü hren
getr offen
E igent
N ations
e cut
apart ments
hin weisen
b ul
sy n
to uch
aus schließlich
stim me
for ced
Wissen schaft
es te
begr enz
administr ative
er weiter
respon d
law s
Fall s
Ze ichen
at tack
Frieden s
D ann
transpar ent
open ing
victim s
Se ktor
Bes onder
P ak
kar te
Zwe if
ens uring
sy ch
berück sichtigen
mor ning
Inde ed
is te
fiel ds
circum stances
statt ung
s av
Mit teilung
bar er
at te
table d
spr ü
play ers
Da zu
D ro
über zeugt
komple x
Sto ck
Ein fluss
th af
D P
Sw iss
Komprom iss
glau ben
fl ü
Sch wer
D istr
s agt
Re formen
cre t
M c
V e
exper t
deut schen
des cri
W affen
System e
D oppel
ent gegen
F alle
m ill
Reg ional
sen sit
increasing ly
encour age
il ing
Ira k
bei de
di vers
ig ungen
nat ür
Rest aurants
Kar te
ion e
iz es
Währ ung
contrib ute
f ellow
st offe
dec ide
separ ate
b ill
zu dem
kon stru
improv ed
C ast
competit ive
Atmosph äre
sicher zustellen
dan ke
Betrie bs
Richt linien
Q L
play er
pro ceed
automat isch
agricult ure
sam m
manufact ur
s ü
E ind
be darf
O M
er greifen
leg ant
le bt
f älle
Durch führung
Gar ant
Konfli kt
W ik
in tell
flä che
min ute
struct ures
comm ents
zusätz liche
Unter kategorien
En d
N utzen
ange b
cre d
expe cted
budget ary
ehe mal
erwä hnt
t it
effect ively
9 7
cy cl
Tro tz
Ihr es
M ex
l ück
global en
particip ation
f it
S he
führ ten
fä hig
infra structure
Best and
B is
sp a
On ly
Sk y
Ide e
val u
St il
go al
Lux em
T ar
ge zeigt
ho od
Ö sterreich
install ation
mitt ler
n s
re views
to t
5 5
l ern
anges prochen
Ster ne
B ay
br an
c ities
K auf
Im mobil
ac coun
lä uft
dat ab
pict ures
sum mit
L ang
Wettbewerbs fähigkeit
redu ced
mot ion
h am
bür ger
com peten
An g
un bedingt
m är
ifiz ierung
H ause
ver e
aim ed
akzept ieren
der e
Air port
work ed
pen dence
say s
Bem er
re isen
o ten
Th er
Ö l
elekt ron
sour ces
main ly
h offen
ar us
entwick el
deb t
ol a
par king
and a
Innov ation
des tens
ug g
Ver kauf
sich ten
Pe ople
schre iten
ü ckt
see k
F akt
Ber uf
Infra struktur
wä lt
V ier
äl ter
V o
al tet
wh om
o ber
S D
selbst verständlich
te uer
will ing
Le ute
Po wer
Prof ess
Grie chen
Agre ement
Home page
men u
specific ally
E W
l än
support s
att le
ben utzt
gener ation
Christ ian
sele ction
O F
con firm
erziel t
ha gen
discuss ed
en ded
ris ks
ent spricht
at tempt
gel öst
gestell ten
H altung
plann ing
ic ken
bestehen den
9 6
t ies
entwick lung
zeich en
D ollar
Vor teile
z t
O sten
finanz iellen
gu ard
P hoto
b ia
e ast
spe ctive
la ger
ab r
N ahr
Beit ritts
Gar ten
v otes
run ning
Gl ück
leich ter
I dent
Nach t
assess ment
nah m
am bit
be gan
prote cted
discrimin ation
K ünst
Mil it
con stitution
ore a
M io
an ger
S QL
gu est
m i
Pol icy
mor al
se ason
CO 2
ach tet
Ab schluss
comp ar
R and
ly ing
Ger ä
understand ing
all oc
r ural
kt oren
entsprechen de
ab we
möglich erweise
schrif t
Technolog ien
0 8
reg ret
G old
discuss ions
M ün
Pa ket
ub a
Frank fur
re chten
is ol
prec isely
Res erv
be ge
br ief
h re
k aum
um gesetzt
as ser
fest gelegt
unterschied lichen
guide lines
I ON
e legant
Er d
Schließ lich
jen e
t p
An pass
adequ ate
Ind ia
famil ies
Fon ds
wo gen
notwend igen
l ust
h our
c ers
st ated
ic ip
199 0
ich ert
Hinter grund
akt uelle
L icht
m ix
suit able
Bar ro
lemen te
imm igration
sel ben
199 5
qu ant
h und
er y
E miss
kommen den
An spruch
Be ih
gra f
V ie
u be
Stat us
As ia
as ks
tem per
automat ically
med ic
ch ann
Produ kten
entr y
re presents
r uss
ain t
mann er
S am
in it
p ension
ib ilität
dec kt
er a
ar ies
Fun ktionen
introdu ced
Kennt nis
L ad
Ch ance
enter prises
i at
develop ments
le y
sh opping
your self
gleich e
C ard
min destens
r asch
sch lä
Auf nahme
v it
kl are
h ilfe
v illa
fre uen
C ze
bu y
ge ändert
ple ment
nach dem
Bel arus
Her z
Grund satz
moder ne
F el
iv ity
man age
p aper
sp art
id s
Z unächst
ab y
k und
Ele kt
Stand ards
ge halten
de ad
kit chen
re je
ke pt
Vor bereit
speak ing
w ants
amp ag
L AN
bin den
aup ts
ure au
ange geben
improv ing
frei heit
am ing
4 4
Sch aden
introdu ction
ra hmen
en se
Tur k
refer red
fisher ies
sch ul
St ation
defin ed
G od
zu letzt
ä u
bu ffet
Zw ischen
electron ic
ul y
Spra chen
u als
it ch
L iz
j ur
st able
ar ischen
sch em
AD S
pol ice
Aus bildung
techn ische
prov ision
nä her
über nachten
competit iveness
her unter
in come
rel ate
anal y
Mid dle
bre iten
st änden
Co sta
clos ely
0 3
B anken
mar ks
Beit ritt
man aged
tour ist
Jo hn
anim als
Verein ten
erfü llt
deta iled
power ful
ass ungs
P or
am ber
Mitgliedsta at
a str
gen cy
E ffe
S ing
lis ted
cord ing
In halte
mehr eren
d io
Klima wand
Forder ung
Bo den
link ed
Bet r
T y
Econom ic
D ig
T R
art igen
pr ison
lie fer
Gree ce
st ät
bath room
t ief
Sch la
fun ctions
con ver
pr äsident
i ance
war ten
Bus h
s wimming
c ia
im men
dec or
Initi ativen
sy mbol
Ter min
mechan is
support ing
stre et
Pat ient
pro port
Men sch
even ing
aud io
coordin ation
h ot
ver folgen
spee ch
visit ors
6 4
av ig
be coming
Kommunik ation
ly mp
üt ze
verme iden
An y
anc en
ium s
qu em
bet onen
t ur
K al
par agraph
exact ly
mit glie
finan cing
sele ct
P ack
lo ve
wander ung
com bat
D re
G N
Pl en
erziel en
p hr
ziel le
verfüg bar
we ap
Wor k
at ers
imm ern
fl ow
B os
sie he
sen den
C S
besonder en
gr an
Ab schließend
alt ungen
genann t
pur poses
W hy
mult ip
thous ands
b lack
Cze ch
pres idency
staat lichen
Dien ste
E D
parliament ary
eingesch rän
re mind
Pro te
Instr umente
schwier ig
we ak
a ded
af fect
Regel ung
sicher lich
we ite
network s
ben utzen
rad io
satis f
verbess ert
in ts
res ort
Besch l
te ten
Qual itäts
Ber ichte
ver ur
sp unkt
Zwe ck
We it
ger ing
proper ly
dut y
is er
inter pret
I ts
market ing
comp ens
ger ichte
consider able
K örper
if ying
corpor ate
lie be
other wise
Währ ungs
Abgeord nete
stär ken
ä den
olog ischen
hn ung
Br uss
def ic
20 11
Bere it
ident s
0 5
ro y
ander es
Ar ten
Stim me
lie fert
s ized
Vor gehen
Verwalt ungs
Bo ard
erhö hen
ste chn
feat ure
A ust
wh ite
colle ction
statt finden
urop a
brit ann
Ris iko
Al p
be ar
Rats vor
Bruss els
crimin al
Netz werk
Se a
ch ines
if fer
ear lier
S pr
b orn
comm ent
pl ants
difficult ies
Zu dem
ref uge
reco gnis
fa cing
Pak istan
wär en
O lymp
ver ring
sp ann
cli ent
Überein kommen
dr am
it a
Viel falt
w atch
Mot or
il er
we gung
thin king
Anwend ungen
bereit et
uch s
extens ive
Sch iff
Ein richtungen
prov ider
hoch wert
Install ation
Ar g
cre te
elect ric
0 7
Tät igkeit
We ge
anim al
wer ke
rä ge
res ist
ge fordert
ik al
IN G
asch ine
L ab
deli very
h le
f elt
in al
is ierten
Mon ate
Aben d
0 4
r ück
Pres se
pop ul
Prior itäten
ün ft
Su che
ien en
voll er
Res earch
lo b
T hen
bo dies
Ne ver
but ton
Hol z
konkre te
Me chan
Ac cording
j u
draw n
ur ban
li o
get ting
deal ing
pat i
dar stellen
pro to
it ter
G B
us ually
wir ks
B an
Analy se
M oment
ö konom
fre ue
it ate
ident ial
sub mitted
gew icht
grün det
ht tp
for est
zentr um
de clar
0 6
ide t
itzer land
Bü ro
act ual
S inn
lie ben
Groß britann
S cript
Eng agement
s age
sh ar
dar unter
prü fung
Fre m
Che ck
nie der
B ade
gel angen
Febru ary
exp and
Stra ße
Des k
author ity
Kin dern
op position
found ed
ce le
stud ents
Un abhäng
haf ten
Veränder ungen
mit ten
ator en
e uch
geeig net
ö m
sp lä
Sw itzerland
Besuch er
pre m
amen te
ok er
ü p
Ge bieten
Sch engen
L am
ein iger
As yl
Ein igung
at ively
führ er
Zeit raum
comp at
sa ve
A k
open hagen
v ac
D av
consider ation
finanz ielle
pres ence
Leist ungs
Acht ung
follow ed
K atastrop
krä ft
E P
prom oting
om et
Stellung nahme
S and
D ol
Br üssel
str ict
au th
Gr enz
med ical
0 9
st ände
hinder t
Zweif el
auch er
ter race
be hör
19 5
isten ce
funktion iert
el imin
entire ly
humanit arian
aus drücklich
IS O
kon ferenz
k ern
flex ibility
C li
erg än
He alth
pict ure
tour ism
col or
Flü cht
ange zeigt
Les ung
An teil
ang ing
As soci
er stellt
Kr ä
Har mon
wa gen
le ment
hän gt
open ed
pro pose
ac qu
program s
ester day
König reich
Program ms
richt igen
ver trag
verein bar
Ver sch
Gemein samen
geb iet
0 2
ber icht
hand s
c amera
ent weder
exper ts
Un fortunately
defen ce
con tr
degre e
O ther
ordin ary
S ach
Char akter
au ty
be mer
wel cher
B a
F le
ta il
Ver ständ
erklär en
inform ed
den s
ut in
ru fen
E ach
an lagen
J etzt
Men ge
W al
k licken
En vironment
Ab satz
gesch ä
sele cted
konzentr ieren
polit ischer
con dem
ap plies
exp ens
P un
nen nen
sol d
ad option
durch aus
sign al
gewähr leistet
Er n
L as
er reich
gew ün
cele br
ic ation
t ut
ch mal
An ges
serious ly
Arbe iten
Wor te
Reg ul
gra du
implement ing
be auf
aim s
Ein haltung
ent al
B and
ent stehen
et ze
Leist ungen
w inter
ar f
Auf bau
Sal z
sa w
pract ices
kulture llen
bel ong
möglich st
gegen seit
Stär kung
da gegen
Pol and
woll te
R um
Priv ate
thre at
st et
zä hlen
Immobil ien
S L
Ent sch
belie b
dom estic
Forder ungen
ges p
spiel t
conne cted
t te
il es
F ound
Heraus forderung
H is
krä fte
mö gliche
Verpflicht ung
lok alen
E d
establish ment
Aspe kt
ack now
end ing
J ed
ge leistet
ent it
t ie
pleas ant
diskut ieren
gew innen
Wir k
3 9
k el
sup pl
ecut ive
re p
First ly
sign ed
S om
or es
War um
PH P
r ank
alle y
ide os
play ed
exclus ive
call ing
Enter prise
Te ile
ansp r
Kom pon
Apart ments
s le
fix ed
phr ase
G ott
enor mous
Well ness
redu cing
Entschließungs antrag
T i
schö ne
e it
mon etary
be ha
Ein kauf
A U
d ish
Ver such
Frankfur t
A dr
ig keits
t ür
bo und
ph il
meet ings
ex ter
c ore
Web seite
E F
Krit ik
as pect
M aschinen
jeder zeit
fail ure
as sure
ü nen
ma ßen
M B
du le
O ver
m eld
my self
Viel en
vern ünft
er folgen
Afr ika
erns thaf
bes itz
play ing
ch ron
inform ieren
Sor ge
con crete
sche ch
eng th
Haus es
geleg ten
p ap
z z
ac cur
verl oren
b io
bal anced
perman ent
Barro so
R ä
ra in
Rechn ung
compon ents
communic ations
6 5
ch urch
E ADS
For um
II I
gesche hen
Tra de
European s
s in
al a
ic ks
gel ungen
polit ics
wal king
tz en
k rat
met res
Arbeits losigkeit
E st
appe ars
aver age
ge zogen
All gem
haf te
zeug ung
Just ice
li ance
de lay
Ver hältnis
fest stellen
deta il
un acceptable
lux ur
Partner schaft
c in
init ial
stat ements
Febru ar
Ratsvor sitz
er leben
Den noch
veh icles
Ge währ
ab geschlossen
Gu est
M A
Le hr
teil weise
abil ities
sp ie
y n
öff nen
Dis krimin
ful fil
Ze iten
hab it
ip s
produ cers
Überwach ung
sho wer
Kommiss ions
reason able
Le ider
am in
own ers
defin it
unabhäng ig
Zust änd
lei hen
3 D
nat ur
differ ences
E isen
government al
au ms
betra chtet
hin gewiesen
mb ly
ö k
Be cause
leit ung
ro t
Just iz
ic ians
gr ant
De fin
regional en
happen ed
ge ograph
he t
erforder lichen
im ag
recogn ition
d rop
fre ut
purch ase
ü ben
wa it
näch ste
Br an
fe ar
gest alten
S em
end gült
peace ful
absol ut
Tex te
ein gerichtet
qual ität
s and
Leist ung
sch er
acht ung
be wertungen
sch reiben
folgen de
Be griff
gegenwärt igen
Ir ish
ver folgt
land sc
Un der
P rag
se h
build ings
gel assen
P s
h ing
le iden
co ok
per cent
gra de
licher weise
t ests
Mit te
20 13
beh aup
be quem
M O
Mad rid
star ke
gegenwärt ig
King dom
ver tre
No te
we ight
ap point
posit iv
eas ier
tele phone
T op
p unkte
Um fang
Me ter
pre ise
genu ine
be ds
ro b
unterst ütze
est ate
econom ies
con v
re ise
ie gen
Mo st
jeweil s
se ven
be ob
Cas ino
For men
H or
An gaben
ug os
su ite
introdu ce
Nahr ungs
h ner
n y
ins ide
sc en
act s
N ame
der er
Ge ist
as yl
T ic
we tt
W all
Schla f
en te
ind ire
v ul
ä ger
for th
benöt igt
M at
ho uses
streng th
Tre ffen
Beih il
number s
ga ve
agen cies
nie mand
4 9
über tragen
persön lich
er stellen
im press
Kon tin
F ore
danger ous
un to
ome ter
ame ter
datab ase
Ap p
bes uchen
Patient en
ü ter
6 00
Kom peten
Ir land
ü gen
un fortunately
se ts
ex cess
Dro gen
fü gt
M einer
ve y
item s
dis cover
er scheint
Her stellung
W ald
ein setzen
ex pend
um welt
wir ksam
demokrat ische
is ine
den noch
ap par
8 00
a head
w om
gener ally
Entwick lungen
lar ger
Verteid igung
ok raten
sch we
C ur
T itel
versor gung
Europä er
fl anzen
photo graph
wonder ful
S amm
Großbritann ien
über ein
wen igen
kun fts
ad s
M un
asyl um
He il
legit im
neigh bour
über prüfen
mult i
ver w
guarante es
Ele ment
wor fen
Be wertung
f assen
In n
vo ice
S ur
Betrie b
nam es
P R
gen et
N a
offe e
Anges ichts
ish ing
Proble men
be comes
tra ding
fü ll
consum ption
ehr te
veröffentlich t
member ship
st one
immed iate
ra ise
Prior ität
D ub
O l
k ul
defin ition
c ards
improv ement
establish ing
On ce
Ide en
kor re
Gericht shof
v ents
st ums
bere iten
Fortsch ritt
gew alt
Reg ulation
help ful
is ierte
Con trol
p hase
Her steller
auf merksam
Ent wurf
Pol en
im possible
care fully
unterschied liche
N um
Afr ican
con vin
Aus gang
br uch
Pol ize
Med ia
har m
Führ ung
im it
H ard
Pr ime
Sup port
Griechen land
gerä um
W and
ev idence
Regel ungen
Global isierung
P DF
U l
associ ated
own ed
andid aten
order s
betr offen
to ld
zu stimmen
N ah
trans ition
adv anced
Bre ak
Ch ancen
grenz über
mä cht
gr enzen
voll kommen
hän gen
rei ber
P PE
inst ance
d lichen
to ler
B lack
Austr al
vorliegen den
av es
Agent ur
F en
Gäste bewertungen
sensit ive
strong ly
6 8
P oker
differ ence
a el
g g
Kom fort
experien ced
tät ig
Turk ish
n ed
st ance
ver lassen
4 7
L ink
sch rän
inter vention
ro h
zu vor
Mittel n
profit ieren
sh ared
4 2
cap able
m ine
conclus ions
einge führt
kosten los
K il
ground s
pl ätze
ele ction
fra g
D R
wir kt
Koh äs
Sch w
att ach
ausschuss es
des ire
any one
Pro v
Milit är
Sch o
il ateral
EC U
Rechn ungs
f are
gew iss
Ver lust
Vor sitzen
A ct
C am
ex cl
Beteil igung
offen sichtlich
d ir
W ür
Mar k
W ien
fin ance
Beschäft igungs
en nen
j et
n i
die d
Er hö
keep ing
fis cal
sp ent
tä glich
m un
E lemente
O ffen
Wor ten
pro of
lin ge
fact ory
F i
ffiz ienz
tr uly
Palestin ian
A 5
wo hner
Erklär ungen
um in
right ly
ma ster
z ig
ar ia
citiz en
199 4
avail ability
mach ines
stär k
C C
Ad min
clos er
relig ious
weiter er
p sych
zü g
verbunden en
W i
qual ifiz
wish es
An lagen
Ein kommen
eing ere
mit einander
comp la
kom fort
Lin ks
M esse
alle l
d imension
charge d
üs sen
commit ments
continu ed
kt ors
Ma ße
komp liz
territ ory
kar ten
pack ages
convin ced
typ ical
mitt ag
contin ues
Kle in
fig ures
führen den
B ern
coll abor
ins urance
Mär kte
Kop f
E X
Pal äst
spend ing
wor tet
Techn ik
particip ate
US B
mot iv
an ia
Or igin
zentr al
per spective
Stre et
fan ta
h osp
Geschäfts ordnung
med izin
kl ang
R ein
organ iz
Tour ismus
ian o
gem üt
umf asst
Jahrhunder ts
model s
t asks
verab schie
ele cted
beg lück
ens ions
ra y
Comm un
kün d
Ver brechen
umfassen de
l ength
Bedürf nisse
E t
ang t
Ind ien
h um
beteil igt
kauf en
Mob il
J our
führ ungen
su che
Beihil fen
at ta
M el
H O
cu isine
ateg ory
wes entlichen
Kom ple
pass ed
üs s
lang t
sof ern
bar r
transl ation
no on
honour able
hal tet
z ö
D ue
p i
Qu est
bestät igt
B udget
announ ced
Fore ign
Str om
ele gan
wa iting
allow ing
Re zept
einfach en
appe al
Se hens
adap t
Gleich zeitig
lös ung
geschütz t
Gr an
ch anging
un less
He imat
mark ed
zä hlt
Dig ital
jähr igen
ut ing
S we
At lant
Wieder auf
Never theless
V an
viel fält
great est
ere cht
Associ ation
kr ieg
stu dies
p asst
zentr ale
Pr ess
er geben
To des
säm tliche
exerc ise
französ ischen
ie ht
qual it
Kar ten
art icle
appro xim
Nutz er
M ü
mat ic
n om
ambit ious
ge ist
ash ion
M ain
T ab
A ktionen
Mitglied s
olog ische
wa hren
vorsch lag
g ap
sol cher
sat ell
ma k
ma ck
tra v
Man ager
wett bewer
garant iert
sp o
Ste in
book ing
candid ate
p hen
Democr ats
P il
as il
e quality
ho se
ör ter
Ne ther
respe ctive
Viel zahl
Liz enz
at a
ern st
gesund heit
spac ious
descri bed
sen sus
highl ight
M indest
B ib
C lick
international er
schie de
re den
Terr asse
Grün de
s ides
out come
re volution
ausge wä
lear ning
tr an
ge be
achie ving
pro p
gy pt
ta bel
combin ation
Th ird
ar ten
V ien
ten ance
Ges chäft
Besch luss
For mat
contr ary
end um
größer en
F ire
T ip
igr ants
Haf en
con fir
sicher ung
Fin n
control s
n utz
Al ban
Re port
ungs verfahren
Ges prä
EN T
sp read
r al
ll er
pos sibilities
4 6
Empfehl ungen
keiner lei
conven ient
So und
CO M
San ta
organ ised
Kon troll
ver teid
Reg istr
Fra ktionen
kr ank
mic ro
S of
sch ung
fa iled
We chsel
ell os
colleag ue
S aint
ge gangen
fact or
wen det
st il
p ure
än ge
ro ck
se eing
weap ons
A lex
st immt
ust er
f and
we alth
tain ment
R ou
register ed
ist isch
Grund rechte
recht lichen
grund sätz
on to
la bel
East ern
inst alled
h aupts
ad vis
fin de
obvious ly
nachhalt ige
G az
W ichtig
wün sche
y esterday
über all
national er
spol it
G ent
ere i
expend iture
Gebie te
Sum mit
aus reichend
spe zielle
i ßen
Kir che
mat ik
Ur s
er b
ear th
dis pos
nöt ig
Li ber
reli able
D imension
or ge
Res ort
him self
Play er
Ver letz
oblig ations
c lo
au ßen
prom otion
sub je
ven ue
adv ance
distr ict
betra chten
O ption
pay ments
le hnt
sto od
express ion
W ün
Z oll
individ uals
advert ising
in telle
roug h
B log
Er st
Liberal isierung
M ik
Y et
Künst ler
at ures
cour t
dise ase
attra ctive
sp ot
dies el
fact ors
star ken
Ver b
ate ver
vorgeschlagen en
zu folge
Kon z
ro l
la id
Ro y
kon text
s ale
sp ät
der ation
tot ally
bes tell
D ut
ob serv
Bot schaft
mo ving
en ables
ik ing
Je der
groß es
Found ation
bie ter
Arbeits markt
Flex ibilität
Hoff nung
P aul
Zahl en
Minder heiten
iert es
Universit ät
L ive
as king
Mon at
einfach e
cour ses
Stud io
jüng sten
gr and
Besch reibung
ver letz
comm and
cor respon
ab ol
Ereign isse
. -
le un
gran ted
lä gen
är m
ausge wogen
un able
Nether lands
l iter
unter nommen
Fr ont
d orf
ben ach
car s
Real ität
m ie
win den
Mitglie dern
N iveau
fr aud
tro llen
Spe icher
Hin weis
u a
ex istence
book s
reserv ation
dev ices
T om
z erstör
Grund e
el a
lim its
Verständ nis
pre vention
entit led
sequ ent
strengthen ing
C op
Sy r
Son nen
B ack
W here
ne ither
Teil nehmer
govern ance
exhib ition
N I
dan ach
U ser
garant ieren
comp ared
u des
s i
arg ument
thre aten
a ktionen
Fre und
continu ing
s cr
Gesetz gebung
S C
gr ie
Sch ön
mat ch
ol o
ge gründet
mid dle
h all
ch st
vere ign
so vereign
teil nehmen
gew isse
tele vision
vorsch lagen
comple ted
combin ed
be wegen
regel n
allgem eine
M ir
S ar
Jour nal
M U
as y
arbe ite
Pe ter
M utter
situ ations
Exper ten
Ris iken
architect ure
c m
ein verstanden
Politik er
Eind ruck
D ay
nehm ern
rel ativ
Mar ken
gl ass
16 0
wr ite
Cy pr
ta ste
betr offenen
Mittelme er
T ime
brit ischen
C roat
Market ing
fest gestellt
Sy n
4 3
P hase
st ore
gram mat
tür k
d ated
stim ul
S A
mo de
Ru he
phil osop
Rel ig
S low
bein haltet
targe ts
recommend ations
op pos
b log
Break fast
en a
claim s
würdig keiten
Wh ite
an ischen
pro z
pla ys
inde pendence
Stud ien
B ol
C ustom
Meer es
in spe
ke te
fr uit
territ orial
P RO
Agen cy
Mein ungs
am oun
F ac
än glich
sk ills
Metho de
Unabhäng igkeit
Koordin ierung
mer ely
außer ord
N u
v oc
R ob
ch net
sch ir
An other
des k
T isch
dar aus
on ia
Be ob
Lat in
i ber
un it
äl fte
er neuer
me ant
b ag
Gegen teil
hand lungen
Daten schutz
ktiv ität
ben e
Diskrimin ierung
pat ent
genann te
P ers
gr iffe
Be if
C olle
dr in
erhö ht
Distr ib
Energ y
ber uf
Kom bin
Prü fung
8 5
c offee
2 50
up date
p il
An lage
lab or
mechan ism
k mal
concl ude
s id
ist ik
Fl ash
rele ased
lau t
Gre at
exten ded
Archite ktur
respon sibilities
Daten bank
se c
inform iert
Gree k
ange ht
breit ung
her gestellt
K ind
last ung
aller y
plat form
Grö ße
t ent
Fest ival
besitz t
gesch ieht
ö p
he bung
mem ory
go als
Erhö hung
K licken
mittel s
an en
G ol
Auss icht
ann t
inter face
so bald
TH E
g ä
Deut sche
En gl
äs ser
Über prüfung
u ung
ro ute
E ar
de lic
um b
ges ellschaften
n ar
ar ms
be zeichnet
richt linie
or al
Nicht r
jem and
m useum
att form
Fin an
ch ain
put ting
re ception
commun ities
i ques
D orf
bring ing
con sensus
bur den
hl ten
Zu griff
Voraus setzungen
the it
erforder t
agen cy
emp fehlen
bind ing
int ention
substant ial
hol ung
A kte
ur a
R oh
ad or
ger ufen
eval u
cy cle
Mus lim
Gegen satz
ver ste
in ens
organisation en
at lant
see king
employ ed
stor age
Ge h
spezie llen
us ual
comp liance
est im
d isch
not ice
Sehens würdigkeiten
N L
gut es
P lä
sequ ently
Dat a
S et
aus reichen
komple tt
Er wart
Aus land
le ct
mittel t
Nichtr aucher
B or
p ä
discuss ing
Bo x
ap pointed
ant ages
ich e
S V
zusätz lich
exten d
E ffizienz
H all
Th us
polit isch
Ob ama
vul ner
4 1
G anz
pie ce
T ha
tr ied
p ill
vis ual
anc ient
Kur z
dr än
vent ions
K e
Bild ungs
örder t
mass ive
contain ed
Vor teil
consist ent
Städ te
io de
fl ug
e chte
ra w
li br
sc ience
back ground
person en
strateg ie
besser en
mo v
R ome
techn ik
einz igen
bet t
Bos n
Rum än
ke hren
Re fer
reco very
success fully
big gest
Wir kung
access ible
sorg fält
f assung
s ong
adv ice
S ho
jour nal
beginn t
Pf licht
main tenance
á n
sub mit
Java Script
p ush
Pro di
constant ly
F ind
ch osen
aus führ
All iance
w inn
t ten
fa ces
Ab sicht
F ax
sch lagen
geb il
p as
j un
n ations
er h
p ul
address ed
id a
Roman ia
Mich ael
e ur
st ory
wo durch
Pra kt
Teil en
gl ad
Spe cial
diskut iert
re c
Austr ian
tex ts
man chmal
Män ner
ded icated
wichtig ste
perfect ly
Nieder land
haupts ächlich
V il
Cor por
dynam ic
ze ß
Eben so
th es
con solid
beach es
é e
De f
it age
Vien na
K yo
De legation
adv antages
ur ge
to s
Stre it
C P
K orea
ul a
Gener ation
Char ter
Will en
S eine
hol ders
Bestand teil
be zieht
global e
Ham burg
spe zial
Min utes
test ing
arr ival
T hose
ed ia
bet ont
Eng land
R os
Kyo to
sichtig ung
Anpass ung
s ell
Bed arf
länd lichen
j ungen
tr uth
Ged anken
D ER
L ob
b ureau
Ch amber
eng l
lio the
w ann
us etzen
stre am
schnell er
F a
c ategory
ist rat
aus länd
m es
v ak
ord nungs
Klimawand el
re agieren
ugos la
K er
z il
produ ktion
organ ization
fu el
there by
S how
ang s
qual ified
h igkeit
angen e
guarante ed
sicher stellen
Aust ausch
qu er
um p
9 00
International en
caus es
ange l
intens ive
ent scheid
on ial
R a
Vorbereit ung
Teil nahme
in ary
atta cks
cil iation
Foto s
Bahn hof
sur face
ten d
Ex press
F ert
199 2
qu id
mo dell
ige m
zw ungen
posit iven
tes ten
se itens
aus ende
Swe den
Ber ück
T on
L T
Zust and
fig ur
W ander
akt ual
expla in
B i
K now
surround ing
ve get
id ung
condu ct
In ner
Struktur fonds
folger ungen
ab len
pres erv
F ü
Comp any
is ierungs
sicht s
respe kt
Re aktion
F älle
un anim
über nommen
M use
wind ow
dest roy
kt ions
1 20
isten z
er griffen
Bl ue
dev ice
or ien
gen der
fä llen
ko ordin
Ein klang
tal ks
kon tin
Wel che
plann ed
An griff
Ge fühl
se min
auf en
mut ual
Fe deral
Ko operation
in stru
some one
be handeln
Finan cial
prakt isch
T P
me ters
bekann ten
G ut
Metho den
k y
technolog ical
wer s
Be ach
spezif ischen
ges te
org nis
anderer seits
eval uation
Form ular
Aus nahme
kle iner
mechanis ms
An liegen
Po ol
viel er
tr ifft
veh icle
te en
ich ern
Be denken
Verfü g
de legation
herz lich
tz entr
fü hlen
g ir
Sch rif
ign or
fra gt
Mo del
N on
erv ice
iss ens
Nach richten
spra chen
gu ter
c at
derzeit igen
akzept iert
f ug
cont ents
klus ive
competen ce
st ö
tr end
Au dit
E B
form al
occas ion
fl u
wel chen
f ein
be auty
me tho
grund lage
H älfte
ges tern
ex plan
Instit ute
Kolle ge
W in
phys ical
persön liche
sch ed
Ein wanderung
T od
com pl
stell te
Leit linien
ass um
sib ly
ans ion
Cl ass
P aper
kürz lich
and o
Ges etze
determin ed
consult ation
in cent
vers ions
R ules
bef assen
beschäft igt
im per
et ter
bl ue
Grund sätze
Mart in
í a
re ply
F itness
system at
rail way
hol en
kün st
b rowser
Ord nung
exam ples
rup t
ge iz
air craft
S O
de alt
B ill
ic kt
zu gleich
K urs
m igration
ag ue
Unter schiede
beach ten
Diskuss ionen
T ER
dispos al
un sten
viel mehr
recogn ise
condition ing
schaf ft
wer ten
San ktionen
san ctions
Be weis
invest ments
sch ritt
Fä higkeit
as p
verstär kt
i us
dec ades
gegeben en
C af
Ant i
fert igt
w s
se con
out standing
Um ständen
registr ation
beein fl
L ord
industr ies
weiter es
noch mals
ident ity
Ex port
sch au
pati ents
ge arbeitet
F er
spac es
d é
höch st
Berück sichtigung
Er de
or et
ent ially
dist in
dest ru
Sign al
ship s
near by
Rad io
en ge
ge öffnet
em pt
best and
emphas ise
fl ight
un zu
tre ated
represent ative
Far ben
grie ch
Beif all
region ale
qu ir
Re isen
Be im
re move
b ud
w ing
de le
Strateg ien
Ge brauch
ategor ie
re ject
Nach dem
Per spe
H ist
ac a
konkre ten
S un
kom bin
Zahl ungs
ges pe
in corpor
lead s
divers ity
re ve
rä ume
holiday s
fu hr
sur v
Ap parte
result ing
k örper
and els
col our
br ings
ag ent
sie ben
As s
Sky pe
ersch einen
pr inzip
Be wegung
o ted
be hörden
über zeugen
approv al
L ö
zu legen
gewä hlt
verl ieren
prim arily
tit le
b ac
che ap
Unter kunft
ag iert
ff end
Ver öffentlich
bind ung
T im
N ik
reje cted
s quare
F ischer
dam als
Defin ition
associ ation
Dok umente
gewün sch
m lich
fr üh
lie fern
Er wä
regel mäßig
Einkauf s
optim al
qu ote
Jahr zehn
f if
art ists
abhäng ig
g one
ed ge
ex ec
f ashion
Schul den
Untersuch ung
b ing
n one
Bes itz
host els
H aut
bo ot
lä u
except ion
Maß nahme
Hand eln
or a
sur pr
bereich e
L ager
komm un
spezif ische
kt iver
S ow
Sch war
au ben
Sp iele
Insel n
Landwir te
able d
jähr lich
approxim ately
satell ite
speak ers
Aut or
rom ant
institution ellen
Ta i
wach en
Dut ch
est y
repe ated
grenzüber schreiten
dr itten
st offen
ther ap
previous ly
präsent iert
Ver träge
üst ung
relax ing
ver anst
Ar gent
op les
sel ten
proport ion
g olf
me ist
La ke
P op
G U
ger icht
com plic
ob st
kn üp
m l
ig ern
hol ding
Stra f
aner kannt
1 000
V I
bezieh ung
spec ies
Kr isen
d einer
an bieten
And re
spart ner
f em
Eng ine
mag n
j unge
G raf
accoun ts
compat ible
F A
J oh
leader ship
par lament
beg onnen
Bo th
Re volution
Wach stums
smo king
ent standen
Tag ung
G lau
lux ury
berühm ten
spar te
Bra zil
mär kte
gen ü
Empfehl ung
T iere
Weit ere
dr ugs
We gen
pen al
be zug
inde x
se ien
Gr enze
off ic
mitt lung
Spra ch
requ ested
Ant worten
m utz
Amer ika
breit et
Lauf e
einzel ne
all gemein
ag no
umfassen den
form ed
iger ung
subsid iar
Rezept ion
Ti bet
id o
M ak
h it
extre me
Komm ent
S ä
gl ück
resol ve
Dub lin
att itude
or gt
ber aten
L ou
s light
geb unden
p p
verl angen
or am
ult im
Mehr wert
Saf ety
wichtig es
deut sche
dis aster
manufact uring
gen ce
vor genommen
ziel t
ey e
ampag ne
u el
improv ements
Stad tzentr
refuge es
me ister
entsch lossen
Unter schied
know s
e ight
R oll
wi m
li ber
prep are
ruh igen
for um
Prem ier
G DP
war ded
zurück zu
hor iz
st ol
St ück
wer fen
it ime
r iver
fa ced
car bon
tradition ellen
P ay
attra ctions
re presented
M ol
Pal ace
pl ause
among st
sy mp
Reg ime
cons ists
Stu die
and al
con troll
look s
end or
Viel leicht
moun tains
prim ary
Minister s
au x
do k
ide ale
bas iert
ic ed
Al ter
P flanzen
ste el
compens ation
def ault
comb ating
T A
Dienst leistungs
err or
Re ich
Fen ster
a e
Voraus setzung
ifiz iert
def end
Det ails
unterschied lich
Un gleich
Agrar politik
ip ul
particip ants
Pat ent
grundlegen den
Z ul
dr iving
ikan ischen
Mor gen
wir t
help ing
Strateg y
renew able
comp ly
Garant ie
F eld
polit icians
sk y
beauf trag
J ose
Nor men
Je an
be ab
om as
To ol
M ach
R em
sm aller
Ges am
Frem den
k eines
y r
sub stances
Schwer punkt
dict ion
co ol
disch arge
li ability
near ly
safe guard
im a
Sol ar
K ey
dom ain
first ly
19 93
Kon sequ
significant ly
st ations
V om
ik as
weg s
pleas ure
Se hr
bil det
Alt stadt
genau so
intelle ct
th ers
ass ign
Vor sitz
mand ate
Gen ehm
tax es
oblig ation
künft ig
J er
Ge wicht
la ke
iet ies
erheb lich
Allgem einen
Fern er
T yp
cou ple
term ine
kulture lle
multip le
A ction
V ia
in spir
Land schaft
f ers
h i
will kommen
schle cht
mensch lichen
af fairs
per mit
zu verläss
fa vor
Entwicklungs ländern
fol io
ol der
akt ive
turn ed
repe at
manufactur ers
suffer ing
Fre ude
pe oples
lang sam
en ger
co her
refle ct
direct ives
control led
A tom
u k
7 00
A 4
vo us
funktion ieren
depend ent
Auf grund
Veranst altungen
wieder um
Gl as
recognis ed
E gypt
dis ast
photo s
h aber
Umwelt schutz
st äd
po ten
surround ed
Des pite
cal cul
plic it
sp ok
ange hör
isp iele
AN D
Ange bote
L ist
arrange ments
g s
R und
it ze
schwier igen
n os
ab l
auto m
D y
regel mäß
Ges icht
Sw ed
R A
mob ility
ehemal igen
P in
Loc ated
emphas is
S au
constru ctive
extens ion
Thank s
ex ists
Verfüg barkeit
wes entliche
stre ben
S quare
Über nach
ien te
Hil fs
El tern
ut s
kind s
T it
invol ving
Fre unde
Lie be
fight ing
auch en
bar s
Sch ne
vent ionen
Pub lik
Sch äden
Be fug
Hostels club
Wahr heit
s oft
Gew inn
present ation
fal sch
oper ators
Su ite
K andidaten
begr ün
A 3
B ör
C L
geb oren
St unde
request s
B rowser
Hin dern
Apart ment
zweif ellos
im al
Be fore
Sat ell
y es
rapporte urs
Polize i
scho ols
B ö
be k
Mar ia
tr ial
Abkommen s
or te
liberal isation
dise ases
um n
invol vement
J un
se he
S ens
dram at
besch rieben
T wo
gef ördert
welt weiten
H D
N ice
er maßen
is o
ut il
protect ing
expect ations
wettbewer bs
M assen
GN U
bes eit
H al
find ing
staat liche
pl ug
ill ustr
cour age
row n
Zus atz
blo od
C N
la ir
ak es
A v
ab ling
hö here
Air bus
zunehmen d
south ern
so weit
herr scht
K affe
w aters
k olle
terror ist
landsc ape
s ight
Kombin ation
Klima anlage
oppos ite
is ted
P od
An fragen
feel ing
draw ing
tre aty
ne ter
flä chen
wissenschaft lichen
be trächt
We iß
wach stum
höch ste
natur ally
h ie
m 2
E Z
op posed
UN O
bir th
m ur
he ber
deliver ed
Eigen schaften
Harmon isierung
um zusetzen
te ch
ta ct
ann es
auth ent
D ach
F ollow
ser vers
obst ac
B alt
furn ished
S ud
us che
hol ds
akt uell
con temporary
Über zeugung
Gent oo
H ong
launch ed
ted ly
ict ion
leg ungen
wes halb
Schwe den
auf zunehmen
atur en
happ ens
R am
W C
p our
sol ve
forder e
leben s
K MU
Kr anken
qu ellen
Roy al
bal con
Nah en
R h
W ur
mar g
atte mp
lie b
s n
Er wachsen
sinn voll
d au
sch war
meld ung
italien ischen
wh atever
ück en
zahl ung
Lad ies
waren ess
deb ates
zusätz lichen
herr schen
expens ive
sh ape
person ally
unmittel bar
expert ise
B M
applic able
amerikan ische
heav y
stu ff
of in
fig ure
Mon t
Ge bur
Up date
Nahrungs mittel
V ision
U se
betreffen den
critic ism
mill ions
stra ße
Nach frage
F lä
G ot
M aster
durch zuführen
sta ke
Gen au
Gesetz es
ant ly
Ein stellung
web sites
Co ok
sicher ungs
r ational
splä tzen
par allel
b om
Kr imin
ho her
19 80
Erwart ungen
Wes ten
D adurch
Is land
grundlegen de
ethn ic
B SE
au ens
ap ter
kurz em
hosp ital
co vers
zug änglich
out put
zie mlich
official s
Verbesser ungen
freund liche
The ater
igen ce
Tour isten
künft igen
US D
An n
drück en
brid ge
h off
ü g
confir med
il le
Da für
Dav id
en jo
ver walt
pl ate
il st
entscheiden d
cons c
Fest legung
appreci ate
Wirk lichkeit
priv acy
T E
S oc
Ho hen
kon trolle
Z immern
c ro
Dritt ländern
Tem per
bei zu
trag ung
v ast
be kämpfen
af ford
Au dio
betr ieben
C R
gän z
Swed ish
ier n
produ cing
F OR
uch ten
beg ann
Proble ms
re ten
ar ische
nie mals
Go od
num mer
führen de
behör de
M ut
in fo
ul ted
ear n
itä re
nach zu
ME Ps
gratul ieren
wh ilst
Beruf s
str on
opin ions
Luxem bourg
T el
Änderungsan trägen
spr ing
interess iert
K ä
zö ger
F ein
K ategorie
aufge fordert
Rot ary
Am ts
Vorsch lägen
kur s
A g
histor ische
isch ung
happen ing
relig iö
D auer
stell ungs
gra d
Mittel punkt
abge lehnt
pl en
Ru le
re tain
u ters
He iz
cor ner
itte es
Überein stimmung
Gerä te
um ping
resol utions
is men
Pap ier
Kl ar
entwickel ten
help s
equ ally
Verf assungs
ac quis
Ste uern
cent res
pal äst
K ann
the dr
ien e
Ferien wohn
dec is
parliament s
reich ung
jähr ige
vent ure
prä z
Met ro
experien ces
recommend ation
S ad
re ds
resol ved
sw itch
m ünd
hl te
kur r
adv oc
Ser ie
wirk lichen
regul atory
L os
Q ue
Es sen
außer gewöhn
O hne
an statt
re v
Ver ring
certain ty
restrict ions
ge hoben
6 6
am i
Rumän ien
Emiss ionen
di verse
infl ation
D iv
um geben
Men ü
Gesch le
valu able
paläst inens
Struktur en
ing u
Fahr zeug
cap t
famil iar
al p
defin e
health y
up pen
N ein
O K
reach ing
n ischen
contrib utions
Sü den
Kap az
ries igen
c ra
re gen
Be ispiele
F our
T S
t u
con serv
enter ed
a wareness
i ary
strateg ies
ie bs
inten d
Ratspräsident schaft
Br enn
contra st
In stead
pro ud
us al
hil ft
ch a
Haupt stadt
ol i
Un gar
Sch ule
ver langt
fl at
cycl ing
D ort
v ess
schließ t
thor ough
univers al
sch ef
Eisen bahn
ah nen
hand ling
Ma astr
ib an
vol unt
art icles
priv ile
sk in
Fr amework
produ kte
Ex pl
Bal kan
bemü ht
Arbeit splätzen
Brit ain
de termine
res erve
Entwicklungs länder
amoun ts
hervor heben
se cret
Technolog y
My SQL
R ich
En joy
par a
s now
ä ten
ip p
unkt ions
u h
an nehmen
colle ctive
Krank heiten
L ate
Ar men
20 12
lat ter
Pun kten
ier end
Cop y
pres ident
ausgezeich neten
füll ung
ver ändern
B IP
leg ally
ver halten
dire kte
ver an
aus gesprochen
man ager
natür lichen
con ciliation
berecht igt
Cypr us
betr ieb
recomm ended
T urn
Material ien
Son n
g i
an schließen
contin ent
rel atively
Bulgar ia
beglück wünschen
passen gers
ate ful
incre ases
bed room
eingeschrän kt
Er inner
wes tern
ent deck
nachhalt igen
ann er
einer seits
trotz dem
un its
H ü
ah me
large ly
he il
ehr geiz
sp ür
invol ve
sex ual
engine ering
Mon etary
Dire ctor
Frei zeit
SM Es
Origin al
m aschinen
Br asil
span ischen
er inner
wirtschaft licher
Croat ia
require ment
Berat ung
Zentral bank
Mün chen
D S
bes itzen
K unde
geschä ft
S zen
änd ler
bil ateral
I ma
ex c
install iert
ex cit
rest ric
Kohäs ion
and on
H aup
er öffnet
fa ction
ursprün glichen
bü ro
zentr alen
flü ge
komm e
wirk ung
contra cts
schätz ung
Vie w
L ife
Aus führungen
pass word
facil itate
Be w
lau tet
Entscheid ungs
wind igkeit
st es
M em
US S
zug unsten
ver ändert
ra re
Ar me
amer as
Tats ächlich
verabschie det
ak a
quar ter
O ld
Schn itt
den k
stra ight
ausgezeich nete
voll ständige
prec ise
K roat
disc ip
f ähr
fa ith
Mitglied schaft
o le
im pression
oper ational
s we
Li ke
automat ic
Pro vin
Gä sten
ro te
Agr icult
de ter
ru ct
fert ig
R ent
Zwe i
Prü f
Ch amp
deta ill
Bed ien
ein richtungen
lo aded
sh ad
letz ter
Stru ct
erwä hn
conflic ts
Ang st
Sp ann
B R
K amera
li p
Stud enten
zu ständigen
ga ther
as ide
minor ity
priv at
Bib liothe
pä ck
mo ved
Akt ien
angemessen e
Pla za
dien ste
aktiv ieren
Fr ien
Plen um
P A
Anwend ungs
Le gal
Verring erung
k ans
ar io
z ne
zu lassen
leb nis
os sen
Mo un
in zwischen
Mun ich
Altern ative
Web sites
verurs acht
Außen politik
Be hinder
ange hen
M as
ent spannen
19 91
t lichen
er mut
es ch
Gleich gewicht
fe e
exclus ively
hervorragen de
ach te
prov ed
Ta ke
be wält
vis a
C ent
Aus gabe
war r
Fr ü
Frei heiten
pro hib
me at
zu erst
ra c
ta kte
prof ile
vol ume
ä umen
ö sterreich
Sch atten
mag az
wel fare
gew onnen
Stand ort
Opt im
r ichtet
dest ination
gew issen
fä llig
or ten
Regierungs konferenz
ip el
K n
V i
Z iffer
fil ter
Proje kten
Sub sid
erlau ben
a is
r uns
remo ved
except ional
Stadtzentr um
Europ ol
cre ative
Me et
würd igkeit
notwend ige
str ing
P age
jud icial
Pl ug
interess ant
obje cts
G rad
der artige
Drit tens
kün fte
Dire kt
weis ung
Vereinbar ungen
Ab schnitt
obtain ed
prepar ation
ident ify
der ung
help ed
enth us
198 9
the t
teil s
bu chen
Red ner
Prinzip ien
Ein beziehung
Char ta
ge boten
wor se
issu ed
cre ates
Nor den
W ord
schn elle
J es
Ver bot
dr itte
nam ed
Li by
C F
V ice
leg te
frei will
der art
kl aren
Ch urch
R iver
Pro ced
Arbeitspl atz
W are
w itness
be le
individ uell
Kü ste
Fl uss
8 8
an cy
real istic
ko stet
west lichen
ge äuß
minister s
Israel i
gen ehm
Kon sens
depend s
subsid ies
gr ateful
v ig
I l
custom s
w affen
hab t
Vorschlag s
Kü sten
char ming
onom ie
T schech
ey es
cur s
Engl isch
An schluss
Mus ic
Bo ot
Part nern
erhält lich
z in
Kon text
Program men
E du
ch nen
schw ed
c atalog
Z yp
Aus führung
Ind ones
traffic king
dis covered
int ent
außerord entlich
schlä gt
Z ert
Ein heit
W he
7 7
Fr an
organiz ations
Glau ben
og raf
Vier tel
produ ctive
hig keiten
kon takt
uropä ischen
fir ms
s ah
ver we
eigen es
fehl t
P en
Bau ern
igh ten
Kommunik ations
neu esten
Politik en
Komm un
Fund s
P act
Sta hl
anges ehen
a ward
ent decken
In c
remo te
Stim men
ver dient
under stood
i ot
poll ution
T rag
auf treten
komm unik
hard ware
N os
s ers
ce eded
I X
effect iveness
L O
f oll
h art
s auber
Invest itions
bestät igen
ge prüft
erst re
fern er
An bieter
min uten
d or
j etz
e chten
J ack
top ic
f lag
maintain ed
lob by
an ze
ed s
vie t
z za
cor ruption
loy ment
aust ausch
beschrän kt
Fo od
bild ungs
function ing
op s
B ucht
min i
erweiter t
ã o
im posed
comm ittees
n t
is rael
Sch uld
au ght
declar ation
ver besser
Was hing
correct ly
Amend ments
sch uld
Ap plause
or ing
re iz
ver änder
wirtschaft lich
besch leun
früher en
aus gesetzt
ultim ately
begrü ßt
Slo vak
le ts
aussch uß
reserv es
AK P
res idence
Subsid iar
be trägt
ig sten
durch führen
dep th
Fakt oren
Bl ut
wi ld
ver leihen
le v
ent lang
Be am
Ex ecutive
ro hung
P utin
vor legen
Ver mögen
Ur lau
Verfahren s
höch sten
par ents
zip lin
u ier
hand els
star ten
st ab
Fä higkeiten
grenz ung
Tai wan
u ese
ic on
tra ges
remain ing
Wel come
phen omen
stat istics
Quest ion
V ene
ific ations
bed au
fle ge
bo at
off ices
de als
char ges
Veranst altung
emer gency
ket te
Mon te
verring ern
sor ge
pie ces
Plan ung
Mob ilität
y m
ph ar
schätz en
6 7
k atastrop
at iver
foc used
Gest altung
g old
b attle
ie ßen
CO N
U M
ver gleich
ange bot
sich ere
lis te
le aving
den kt
em a
can cel
organis iert
Ele ct
ap s
St ift
ho le
del ighted
Cli ent
dis p
best immen
ar ab
Gesprä che
F err
ou d
suc ceed
Scho ol
D C
d ich
Ver y
sor gt
re ported
aus geschlossen
.. ...
akt iven
Distrib ution
Pl us
ar ded
gew inn
prom ises
recht liche
chines ischen
L im
b art
ass end
act ing
gelten den
Haf t
is to
sch auen
In fl
Ges ellschaften
f änger
ab road
Can ada
Sor gen
zu stand
so dass
k ill
Ur spr
character istics
ab andon
answer s
leich tern
HT ML
Maastr icht
k as
the mat
Pol ish
proto col
dr ug
C ho
an i
Washing ton
ge zwungen
tre iben
Über setzung
Kr ie
Bemer kungen
c able
Ab häng
serv es
Mo de
invest ors
mess ages
minor ities
effe ktiv
rest ruct
Verbind ungen
demonstr ate
I E
so zi
tre es
mar quis
ko hol
B aby
ac compan
erg ing
Amer ikan
Markt es
Far b
temper ature
us sen
wie gen
hinzu fügen
liegen den
stre ets
gesp ielt
C openhagen
n d
pro sper
sup posed
As se
ab gestimmt
Frühstück s
ein s
Wer bung
cut ting
un möglich
tro p
loc ations
Bes orgnis
to urs
ver brauch
sch wä
tele fon
Ma x
A ble
er leichtern
just ified
B ir
ver ehrte
beha vi
us ern
P uer
wün sch
wer b
Ziel en
Auto mobil
m ung
some what
Ima ge
c old
ver hindert
electric ity
leis ure
demonstr ated
hund reds
auf nehmen
la v
o gen
Wir d
Um gang
ro ot
sol ange
As ien
al ts
no ise
bed rooms
R et
speak er
condu cted
un gefähr
kur ze
re iter
an ke
conne ctions
tack le
ic ans
Zus ätz
Balt ic
kontin uier
Proced ure
8 6
no ted
Part ners
bil ater
The ir
Ge orge
zep tabel
Prote ction
un ent
pe kt
cr imes
p ick
d ans
adop ting
maintain ing
H alb
cl im
colle ct
Portug uese
constitution al
proje kt
bemü hen
Krä fte
c am
trans atlant
tag s
einheit lichen
Beit räge
ak zeptabel
for schung
sp akt
produz iert
Kon to
con ce
global isation
mo dule
Opt ionen
Kompon enten
ian a
Sk i
jour ney
Jed es
lin ed
C hair
hl ung
Leg isl
appe ared
Au thor
nor m
Bezieh ung
Gar den
on sor
be kräft
phar ma
Vor haben
Führ er
ru hig
über nimmt
demand ing
Ge fahren
E dit
Ge heim
Ro bert
ID S
sle ep
P ia
Ac cess
tic ket
furn iture
Con sum
intens iv
V ER
n avig
regular ly
K at
zeich nis
defin iert
cred ibility
co al
wel chem
it ag
ge prä
pass iert
W LAN
sch einen
spect ac
an ne
intellect ual
ir on
t went
ak te
Aus stellung
Def iz
sätz en
invol ves
imm igrants
verschieden er
tats äch
l ists
woll ten
Ka bel
re place
Get rän
äuß ern
kurz frist
J ac
concl uded
jen en
schön sten
D N
re mark
vor an
Kl asse
be kämpfung
schaf fung
Vor be
kon kret
sto ß
P ic
getr enn
fa ster
end ung
Arg ument
Pl attform
sup plement
met al
ein ig
lic ense
exp ansion
la ys
activ ely
verur teilt
Br and
z ard
be zahlen
e u
legit imate
schir m
Y ear
ies t
fa cts
div ided
Dy nam
it ar
our ce
Gaz a
p ic
I K
dire ctor
Op position
foll ows
stehen de
cor ded
N och
you th
gän ge
Bet re
Res olution
Japan ese
F arbe
G iven
AC P
respe cted
port s
ar tet
Akt ual
sch äd
5 7
utt le
Kompeten z
co hol
fa c
fe deral
road s
subsidiar ity
spok en
prozess es
B A
Rechts staat
C ha
care ful
in habit
spe kt
S und
un fair
Sch au
Con gress
dish es
Struct ural
Fr iday
5 2
n ut
Pol it
Ident ität
M all
on going
Se ktoren
Ham as
bezieh ungen
Er holung
impress ive
B lock
C it
Kon sult
ik es
vers amm
pat tern
K u
M angel
N ap
Ä r
determin ation
enter tainment
V ar
C A
aus sprechen
bo ost
gest altet
in fr
letz tlich
Des wegen
Y es
nun mehr
conta cts
indic ated
è re
Er satz
chann el
An mer
B ug
tra ditions
ausge führt
compet ent
Mex ico
reve al
Ein schrän
Per haps
ver wand
Energ ien
kur zen
Fund amental
st em
ra di
Fe uer
Erzeug nisse
Ph one
C 5
Mil ch
Krank heit
G M
ou b
on i
Am bien
l u
s q
mar itime
sorgfält ig
c ab
s ac
her itage
conne ct
Schluss folgerungen
ob li
over come
organ ized
ony mous
re chen
fü llen
zusammen arbeiten
wes end
class ic
5 6
up dated
em erging
amer ika
C er
V AT
Ver samm
Veröffentlich ung
erinner t
m ista
Mich el
com ed
in ser
dire kten
endor se
5 1
zü ge
aut onom
tax ation
encour aging
verstär ken
we ather
E is
S AP
höher en
mus ste
Res pekt
V ize
è s
ag gress
wen der
flex ib
Red uz
Wohl stand
Untersuch ungen
Fe hl
Rechnungs hof
inter ven
plen ary
Ambien te
Kon trollen
stron ger
S K
at om
ex plicit
je gliche
bestehen de
entscheiden de
id den
if ies
Aus maß
vel y
strateg ischen
bot tom
B aum
z onen
Ein stellungen
UN G
U T
fin ished
Sa una
zne imit
mo ther
La w
Mob ile
aus end
durch schnitt
display ed
anspr uchs
Ausgang spunkt
Ein w
program ms
heut ige
tic kets
W F
Sch ü
new ly
gewähr t
z ir
Bal kans
vis ible
fle et
E qu
wall s
de cre
use hen
er al
chem ical
zneimit tel
sol ar
Mar ina
F air
Sy mbol
d ign
k ter
W omen
Geschä fte
sche idet
incl usion
gef allen
Bestell ung
out door
Bes te
Gu ide
Po ten
se at
g or
W ild
bi ke
d inner
at re
behavi our
g igen
k al
the oret
C lear
W a
par ks
propos es
frequ ently
wiederhol en
tr aum
asse ts
A do
f ab
ken s
collabor ation
ver f
iss es
russ ischen
teil ungen
sett ings
sen sible
ausge geben
R iv
g yp
übrigen s
erheb liche
beru ht
ent wurf
Mr d
glau b
Bade zimmer
D O
k in
bestimm ter
Grün dung
Kap itel
schwer en
Subsidiar ität
accompan ied
o x
с т
5 8
d ining
fa ther
einzig artige
mel den
perfe kt
ab sen
ge fügt
Verbraucher schutz
ü bt
Über gangs
does n
freund lich
it ts
Tar if
Tab ak
bel angt
Bereit stellung
Miss ion
schef s
Re ad
beschäft igen
Form ul
fa ßt
Ver breitung
ass ume
T sch
V iet
inv ite
interess ante
H ans
b abwe
interpret ation
G laub
sch ieden
Bemer kung
schl uß
c ow
br ut
propos ing
Rechts grundlage
betre ffend
Werk zeug
Pers ön
c af
n ine
gespe ichert
Zwe cke
spl ans
Fle isch
V ater
Mal ta
Führ ungs
occas ions
Third ly
B C
N iger
Admin istr
eingere icht
b ol
Belg ium
E dition
i ón
ta gen
sch ule
dr ivers
Ado be
ex ceed
nahe zu
print ing
M ur
d ur
Um feld
d os
acc ident
iz za
libr ary
fo hlen
H imm
team s
config uration
defic it
D ass
schem e
z ed
bei getragen
Aus stattung
St or
pos sibly
lä ßt
kre is
correspon ding
virt ual
b ach
g allery
wo hnen
last ing
lay er
Ge päck
leg ale
in put
vorhanden en
dr ückt
verantwort ungs
k ür
st amm
exam ine
Bed rohung
id ge
bed auer
Phil osop
9 2
pro test
jo ined
jen er
7 8
reduz ieren
l it
istr y
after noon
ge he
ow ner
All es
vulner able
east ern
Vor stellung
fä ll
gros s
ie gel
da hin
Web seiten
läss lich
dr ingen
Or te
proper ties
i for
k ultur
Beschl üsse
r ul
ies sen
dar y
d im
ver än
dr ink
system en
Män nern
in ations
fr ame
AR E
V P
über ras
unver züglich
7 2
well en
il ater
inter pre
chann els
destru ction
t d
an belangt
Se cret
prov en
show ing
G ames
Fr anc
ange wand
Schlaf zimmer
ent y
Ver pack
dür fte
in f
ge teilt
B 5
zie llen
Buch ung
rapid ly
horiz on
Te ch
F is
vor rang
dr iver
north ern
de x
pat ient
install ieren
ver d
su gar
einfach er
Ins besondere
sh ap
beteil igen
H of
ell es
in os
So viet
cut s
zie le
ak ten
entscheiden der
ent steht
im pose
ident ified
fin ish
ins ist
Kon zer
gerä te
G E
Ne ue
Schl uß
brit ische
cast le
Katastrop he
All ian
Haf tung
Hung ary
ch est
ave c
News letter
ou red
Chin as
al cohol
Kon gress
Zivil gesellschaft
S par
to bac
Kl aus
f ing
an wesend
ap est
Am t
ein bezogen
part ly
einge halten
Invest ment
ev a
Ger ichte
bur ger
wom an
G i
Ind ivid
Tra ining
é r
do ors
stra fe
ant worten
sh aring
D usche
return ed
document ation
F u
G üter
trans actions
bahn hof
verkauf en
Genehm igung
P O
ä cht
con fer
sett lement
G ang
gre if
copy right
Pro p
vis ed
Besch rän
decis ive
Bet racht
fanta stic
prepar ing
ro of
Er kennt
star ts
Bal kon
vil le
Th urs
cel er
depend ing
g ol
techn iques
Sud an
wer ks
Th omas
ergän zen
iel d
passen ger
be handlung
sch icken
angegeben en
art ist
N az
at ter
An sprü
vor bereitet
Bet rag
B O
enth alt
de fe
sa una
kä u
Selbst verständlich
gener ated
Asse mbly
C le
k os
Str as
Don ner
Bel ast
aussch au
satisf ied
resist ance
C AP
Sta ates
serv iert
Haushalt splan
Glaub würdigkeit
sp ap
ag ers
vor stellen
zu grund
dem okraten
cas h
Ver lauf
Stra ß
surround ings
Hard ware
re vision
wor r
Verhand lungs
Kolleg in
de leg
sign s
S atz
an cing
offen e
sozial er
Konsequ enzen
volunt ary
k amen
Al b
kon front
erg ie
plic ations
Sing le
vis ited
lok ale
Camp ing
g ig
bank ing
renov ated
Viet nam
c atch
k g
ver bringen
Sch e
Med ik
wide ly
educ ational
Soll te
Gewähr leistung
reg arded
Hol iday
shar es
pr ene
her zustellen
Au ge
tobac co
angeb racht
str ugg
beein druck
grundsätz lich
Net work
export s
c ommission
Nach halt
distrib uted
decor ated
A ward
schre ck
m aschine
im edia
Sp az
los ses
Über setz
ame ters
vis ory
transport ation
Pa kete
consider ing
Bud gets
Ern ähr
bell ing
Bulgar ien
5 4
F ast
Ro ad
Gegen stand
excess ive
ou th
betre iben
contain ing
ü ne
sicher en
A z
ab use
bin det
Kil ometer
th ir
Über legungen
dig it
North ern
g st
Ge gend
look ed
r or
iz üg
Ger ät
found ation
never theless
aus einander
iz er
Can on
he ating
pla cement
Je de
atten d
G erecht
Inter ess
Det ail
Late Rooms
des ired
An stieg
i bel
sol ches
Tre at
ber ge
Nach richt
Son ne
person nel
acknow ledge
verteid igen
j ung
RO M
ver binden
hol m
freedom s
Ungar n
lo unge
Whe ther
A IDS
he at
präsent ieren
Schweiz er
Des cription
Schrif t
fre m
vorzu legen
H on
Reduz ierung
bereit gestellt
appropr i
Wün sche
J ob
or ca
ho using
Kre uz
iell er
am ed
stor ed
er setzt
mil k
Poten zial
W art
perform ed
er lebt
An sichten
absen ce
Ur heber
dist ingu
V ideos
decl ared
stol z
I ll
ens wert
Vers ionen
Pos itionen
apply ing
Stras bourg
Minister präsident
fert igen
else where
wid met
technolog ie
in ational
erfolg reiche
kap ital
Son y
V el
individ uelle
Kor ruption
be hinder
se cur
Prakt iken
T own
b urn
Lux us
wiederhol t
Ar zneimittel
begrenz t
führ ungs
up per
ord nungen
Sem in
L etz
5 3
W olf
Ent lastung
lich ten
ziel en
Wider spruch
pr in
inhabit ants
un iversit
Prag ue
é n
Agricult ure
is tern
Ex change
is lands
sub stance
Mo z
sto ßen
function al
G R
c ation
gemeinschaft lichen
P ot
ur teilung
Con tent
mot ive
Hung arian
V ill
r ical
su ites
Gemein de
met ro
Gleich stellung
Besonder s
System en
organis ieren
L er
With out
send ing
chn itten
Ein er
S ant
t il
enn ung
Mod ul
ver mitteln
Ver zöger
excit ing
Mitarbeit ern
dut ies
cep ts
wissenschaft liche
harmon isation
al es
most ly
Lob by
Thurs day
Zahl ung
finanz iert
cour ts
ausge zeichnet
Z one
mensch liche
Er stellung
F ün
är kt
einz usetzen
ch r
un be
fl ights
wal d
französ ische
sole ly
offiz iellen
balcon y
n iveau
des to
arr ive
Fil ter
ähn lich
orien ted
L td
pr äch
aus gerichtet
Sch wä
enh ance
u che
z it
ur g
smo oth
cr ib
bis lang
Sicher ung
wahl en
gestat tet
Ü brigen
ver sichern
ra ising
prosper ity
cons ent
import s
inter nen
19 70
Al ger
sch ne
ne un
up dates
zw ingen
refer endum
pursu e
suppl iers
ele ctor
künft ige
nation ally
W ho
ier a
Soll ten
elektron ischen
P SE
it ra
fol gung
invest ieren
sparte i
we ile
all zu
af ft
extra ordinary
r üstung
ger ät
emp fohlen
rep air
T enn
mer k
Tre ib
illegal en
broad cast
er zeug
Atlant ic
complic ated
ie be
or ama
vor anzu
bed ing
star s
represent ation
Gerecht igkeit
l an
de posit
polit ically
ver hält
ex klus
Ap ple
arg uments
Verletz ung
institution elle
L iter
s aving
lic ens
information en
kehr t
bat ter
l ings
imm ers
Wä hler
winn ing
st ammen
rä umen
admin istrat
Schul en
EZ B
ver boten
individ uellen
hervor gehoben
verkauf t
mittler en
Ear th
w ines
Pre isen
Euro zone
Prozess es
.... ..
Lo ok
provider s
tradition elle
it ors
Ro ck
letzten dlich
sty lish
N IC
O der
div ision
depart ment
oun ge
Fr anz
cover ing
Organ e
groß em
compon ent
u ated
Fre izüg
F I
it als
unterst reichen
P as
au dit
Mar ke
erfolg reichen
ge führten
Dar um
vier tel
farm ing
gebie ten
wa ve
manufactur er
E vent
z ellen
ar my
co operate
E mail
se m
Ma de
Fern seh
club s
alt ungs
carr ying
a er
in j
zu gang
St offe
Sch le
negoti ating
Donner stag
part ment
Vize präsident
sp aren
fest ival
Wer ke
sav ings
Finanz ierungs
Deut schen
F ig
c ot
Ä gyp
re placed
Bur g
Brasil ien
d iss
un ited
eig net
alloc ated
shad ow
r ats
zu ständig
Krieg s
cert ific
Zuständ igkeit
Kroat ien
dar k
ed ition
St ability
Profess ional
profession als
chn ung
Bud apest
H en
ges ted
ursprün glich
definit ely
ein st
sen z
Fre unden
zentr en
Lat ein
er f
the me
fer nen
thous and
Wohn ung
verwalt ung
facil ity
B ang
Kon stru
ab stimmen
Ver einfach
bedeuten d
Fuß ball
bereich en
address es
W issens
in sp
ma x
Po int
ir ing
Wer be
isl am
b iz
W ater
über prüft
mak ers
or ie
vorgeschlagen e
relax ation
ger aten
Ex tre
L ounge
ühr t
With in
hä user
Follow ing
Bet t
plan et
Wirtschafts wachstum
th r
ge kenn
gener ate
r ub
de e
ip ol
zukünft igen
Unter nehmer
schle chter
Frien d
hin weg
mon opol
ad ding
unter zeichnet
Eigent um
M igr
R ap
effiz ienz
Zyp ern
S mo
wer ken
ex it
ph ones
iger t
Di kt
dok ument
appoint ment
oub tedly
am az
An lass
Text il
gebie te
magn ific
ak ing
Min i
beein trächt
Aktion splan
Verhalten s
Fac ilities
ies en
port al
fer enzen
Proz esse
Audit ors
D or
ip her
spre che
beob achten
konfront iert
ur ies
Ab fall
difficult y
NG Os
Moder nis
bre ach
vorgesehen en
weil en
re b
zu tage
ir s
ad ults
s man
la belling
inter ior
wind ows
Alex ander
so u
iv als
Fre itag
ival ent
P fe
He ad
Kultur en
Be weg
direct ory
Qu ark
An gel
gra v
ens ures
Or ient
Social ist
L ine
Mill enn
ifiz ieren
wirks ame
on ien
erwä hnen
ten nis
Al pen
pr ime
Gr ünen
less ons
Sy m
V O
Er füllung
par ad
Vers and
forth coming
Freizüg igkeit
E th
T EN
in klusive
em ot
constit ute
Able hnung
H U
L A
an dern
for cement
care er
satis faction
spann ung
ge leitet
be währ
ce an
great ly
necess arily
prevent ing
appear ance
genü gend
le hr
ansp rechen
Städ ten
mult ilateral
beant worten
soc ieties
prom ised
Ab schaffung
Ge fän
alb um
Allian z
Comm on
enable d
Übernach tung
Kon takte
re action
Slo ven
hund red
b ay
in fe
groß züg
bedeuten de
ben utz
commer ce
militär ischen
Vor der
förder ung
wä l
resour ce
ge laden
Vor ausschau
De fen
Auto bahn
Belg ien
spo ke
D ou
s ad
Gro s
vac ation
behaup ten
X P
jud ge
Qu ellen
Situation en
it im
br ight
viel es
expl ore
t or
re corded
sup plies
proble me
subje cts
r ising
Ta x
neigh b
Spaz ier
a warded
u ble
as en
T och
il and
lauf enden
Volks gesundheit
7 1
lie f
vor ange
pack aging
T en
ystem e
relig ion
democr at
Binnenmarkt es
r é
Ind ian
Perspe ktive
introdu cing
D iplom
d un
u ers
ial e
fest zulegen
Regierung schefs
pre chen
gebil det
k ir
er setzen
uß t
arbe its
Ser bia
Katastrop hen
Comm er
di ver
Energ ies
do g
stud io
v alley
en abling
reich er
Kaffe e
emp f
tour ists
k ö
p m
comple ment
Dem onstr
con cepts
belie bt
signific ance
c rop
abil ität
Dokument en
v ict
Num mer
attemp ts
er zeugt
Ein wohner
strateg ische
sp f
suggest ions
S ource
we ar
verfüg baren
Tät igkeiten
N ic
hand le
kap az
Profess or
Z y
St ill
ug ht
bon us
Zus ch
Befug nisse
Amer icans
visit ing
Pass wort
militär ische
A qu
for ests
proceed ings
l ots
Sch loss
produ kt
Secret ary
spec ified
fl ows
deut sch
f la
bl ing
super vision
reserv ations
firm ly
erreich bar
Kon zep
exclus ion
bo ast
sto cks
ähn liche
barr iers
Sp itzen
p ac
D ra
des erv
four th
sug gested
quar ters
d t
emp fangen
mult inational
sustain ability
compar ison
spectac ular
mit teilen
ib ar
Puer to
H under
Commission ers
Vol kes
indire ct
An wesen
real ise
langfrist ige
slight ly
ged acht
umin ium
Ch i
tes ted
S ind
spe cially
Über gang
Mon day
ex e
umf assend
kern el
grün den
accur ate
f itness
weit gehend
gesch afft
entre prene
Model le
obli ged
en det
aus gehen
cess ion
lif t
EC B
dre am
unabhäng igen
H at
ten e
em bar
AC H
top ics
disast ers
g änger
z ell
bel n
Flug zeug
town s
B ased
r t
re act
ic ing
Ter rit
h ill
be hoben
Fr ist
explo itation
ter e
ab sur
so ught
Fr on
dis abled
Me ister
integr iert
not es
Sch iffe
Con sult
pay ing
wirt schaften
Toch ter
W ire
z ert
gh ter
klär ung
Nachbar n
ath ol
flo od
cos y
K en
Zu cker
afr ika
Liefer ung
dign ity
H u
ro utes
hin gegen
mitt lungs
Arme e
O mb
ren der
konzentr iert
Plä ne
Pr äsent
Ger ichts
einge gangen
C all
Pol y
Wirtschaft spolitik
L ag
z ivil
fle isch
rece iving
Sp ir
be ur
nach drücklich
M eines
we ge
gr enze
port ug
ket t
Fin land
Ex istenz
Provin z
Z ür
d ic
d liche
Vor lage
tro vers
s op
reduz iert
5 9
V IS
el be
begr iffen
Eben en
Will kommen
Emiss ions
Flücht linge
es cap
to ile
pre ad
spr inzip
dank bar
Ger ade
entwickel te
her um
Pr om
sur ve
Spa ß
wel comed
analy se
dire cted
é es
ult ane
weis ungen
ir re
lä uter
Rück kehr
ver teilt
ship ping
Trotz dem
E he
ab end
obstac les
de i
Zeit ung
dou b
Omb ud
dem ic
zukünft ige
ernsthaf t
fr on
Be für
m n
Ä uß
ro lle
b ann
H aving
gewä hren
bud gets
ot te
ber gen
garden s
D oc
re marks
gebe ten
eur os
ir ischen
Weiter en
O ste
g am
ul f
fäh igen
Mor oc
coordin ated
u ous
Le on
vorliegen de
Ver arbeitung
being s
jetz igen
ver dienen
pr est
b sp
inv ent
B ord
m use
at i
Wider stand
Be ge
besch reibung
bekann te
C up
human itäre
bl ind
diplom at
To ols
acknow led
programm ing
Krimin alität
wi es
des wegen
man che
Ber ichten
Islam ic
she et
Salz burg
j apan
ev ident
bro chen
N O
ar med
Wiederauf bau
sovereign ty
beauftrag ten
G A
bege g
unter scheiden
ref ers
con vent
beschrän ken
suppl ier
y on
und oubtedly
le hnen
sure ly
L ok
lie hen
ig a
Zusätz lich
mus sten
Re chten
inv ited
viol ations
W etter
port folio
Kommission spräsident
gestell te
Gemein same
dict ator
W äl
Gu ests
period s
Mär kten
V ari
v as
pre ce
ab sor
iv a
ar men
Bar s
kn app
wechsel n
Do es
f ly
gain ed
suffer ed
ar es
gesetz ten
ugg age
P ie
enthalten en
v ary
ul pt
been det
voll ständigen
F an
contrib uted
ab zusch
Auf sichts
einheit liche
m u
er freut
che cks
cent uries
bisher igen
Veränder ung
geb ühren
Mon tag
fän gt
mur der
hoff entlich
S ein
pla cing
hier bei
MP 3
Rechtsstaat lichkeit
Re f
ange passt
wel comes
rob ust
lös ungen
investig ation
t an
Proto col
penal ty
BM W
R io
or er
rel ative
appro ve
Konfli kte
restric ted
an ische
cl ause
bestimm ungen
C ir
re ffen
prakt ische
per mitted
every day
Bran che
zugrund e
fa x
Wä hlen
B ru
wi l
S atur
un ning
Le iden
aut ion
miss ing
product ivity
Ver g
li quid
Sp ace
R unde
ine vit
her stellung
bet ten
Verf asser
gerichte te
Fis her
C ub
hil fen
H R
tra dem
Par ad
hä fen
ell o
ac celer
tim et
belie ves
Wel th
kurr enz
b lau
al ing
pass ion
subs cri
expla ined
spolit ischen
F al
au b
fest gelegten
uni form
Ver teilung
proje kte
Bevölker ungs
gel ingt
Do ha
F unktions
oper ative
Finanz krise
Luxem burg
at trib
unabhäng ige
won ach
j ac
í n
er hoben
einzu führen
UR L
intell igent
nar row
w rote
arbeit ungs
Not es
univers ity
Consum er
L ay
ha st
deli ber
Kontin ent
Got tes
ard o
Bet reiber
Beteil igten
J ames
Im port
Qual ity
reserv ed
P M
ar bit
Sund ay
tre e
erg ibt
where as
belie f
opol it
s ha
über w
Met all
F C
н о
el ess
entr ance
week end
t ables
zwe ck
B E
L en
j unkt
ese it
zurück zuführen
Obje kt
Wür de
ökonom ischen
art istic
As ian
verwen de
Tour ism
pol y
Ler nen
geäuß ert
Tenn is
Y ugosla
lo vely
can cer
Her bst
Steuer ung
C ulture
v ideos
warr ant
unent gel
f ans
kontroll ieren
Gel der
P ac
se g
mitglie der
M i
en counter
Mer kmal
restruct uring
S ong
he aring
fil ms
plat te
luxur ious
z weit
ys ide
Agent uren
Urs achen
des cription
Ver trages
wie gend
bed ro
öff nung
magnific ent
i Phone
spe ichern
ES S
Georg ia
Fr ie
sc ene
bra chte
it o
spiel er
einzig artigen
kil led
spap ers
ä ume
te a
Sch on
Fahr zeuge
L ith
ber n
host el
fisher men
Abhäng igkeit
E v
K as
Samm lung
he m
event ually
indic ate
V ista
lie ber
J ung
ä um
herunter laden
Bereit schaft
ar gu
tr ieben
Ge werk
ieren der
B all
Paläst inen
re ibt
st ers
ver bindet
Gesch mack
bes orgt
fil led
Berichterstat ters
Wik itra
Bör se
H om
le aves
um setzen
gar ten
u den
н а
er fordern
Palästinen ser
gef asst
imag ine
dr y
verein bart
R I
R ab
besonder er
Tic ket
estim ated
F ull
l amente
enter prise
An wender
mer z
Char les
C atal
organ ic
Debat ten
refle cted
aktiv iert
enh anced
man if
gener ations
Ant on
mod ules
B eseit
n ights
Famil y
mass age
strengthen ed
ic als
every body
Qu ad
hy dr
Fern sehen
Vereinfach ung
s cript
an ch
gem ä
Tra vel
korre kt
the ory
rad ical
Drit ten
K ab
langfrist ig
Kan ada
Stock holm
portug ies
exter nen
an wend
Am ong
Wikitra vel
le ite
sever e
hard ly
philosop hy
Sad dam
vor bei
bel le
public ation
ste igt
6 2
str öm
mov ements
Corpor ate
g ner
Öff nung
vess els
kt ure
turn ing
Tre k
hunder t
appropri ations
pl enty
H ot
Fakt or
unter liegen
gest ärkt
regard less
hom es
Straß burg
M iß
Grund lagen
spie gelt
kontakt ieren
coun ts
Zahl ungen
et ten
Ad dition
gegenwärt ige
günst ig
twent y
Pro ject
weit ern
Bes ides
Gen eva
b ug
St utt
err ors
T ausende
jahr es
Währungs union
bed anken
förder t
pill ar
i be
ang est
gesch ichte
refle cts
Erinner ung
u um
ge fragt
under taken
kle ines
über aus
over view
continu ous
gerichte ten
mach te
l or
l ap
metho den
Spe kt
wachsen den
bewält igen
g ess
cell s
AR T
künst ler
g ast
vertr au
wor st
Zugang s
ist ischer
Par lamente
tä us
erhö h
afr ikanischen
ach ter
hil fre
Dire ct
ver weisen
par ameters
kor rig
Sch reiben
consider ably
list ings
Um satz
exper iment
ô tel
wer ben
L aut
co very
drin ks
Satell iten
ö der
to x
über sch
einzig art
Energie effizienz
sh ot
G ay
la h
be wahr
Pet itions
nütz lich
Pla ce
tr ends
G ame
sim ultane
optim ale
instru ctions
infr inge
concentr ate
Ombud sman
f es
rent al
zusammen zu
Ent fern
CH F
worth y
J os
S achen
pro spe
kil omet
Heiz ung
Meet ing
au schen
ste uern
f roh
us ive
ist iken
foot ball
v ine
gel esen
hervorragen den
Ges präch
Trans fer
tä glichen
ver handlungen
Komple x
Schü ler
polit isches
wunder schönen
Beseit igung
Er haltung
Bon us
türk ischen
ö tz
an halten
der t
nieder länd
W är
inter n
Th rough
Play a
mutz ung
d oppel
Ver sor
gest r
ix el
At tra
excl uded
Administr ation
St att
Su iten
7 6
I ron
K openhagen
rest ore
dienst leistungen
Mik ro
V alen
p rag
vor be
Par ameter
stärk ere
h ers
Dialog s
depart ure
mitglie d
trans mission
Fre ih
recogn ized
Edu cation
9 4
it arian
S oft
V ict
Mon itor
fo x
dist ort
sch läge
re construction
aus gaben
Re gen
K am
W ed
f i
th umb
tr ig
r d
fig uration
äu fer
z un
ant icip
über winden
dis cre
R enten
se ctions
sicher gestellt
vorsch läge
D än
m outh
special ist
Wirtschafts krise
L it
auf fordern
Zusammen halt
zu gelassen
we a
Ch ile
Res erve
Am b
geprä gt
k ampf
t ank
ar ise
eng age
an schließend
wi ce
ange wendet
ins of
Kor re
unentgel tlich
um m
Dol om
P hän
ro ots
countr yside
ren owned
ov a
K no
N ext
N avig
Aus flüge
col ours
N E
zu ges
Ho he
Mand at
Med izin
haus halt
jur is
in ent
an hand
normal en
S W
qu et
Min ute
leg ten
inten ds
angemessen en
or ation
Gol den
N am
ge plant
Er lebnis
IC H
g art
up p
Sicherheit spolitik
sav ed
Mechan ismen
et abl
V ide
ck ing
ac ted
AS E
amb ition
m än
def iz
man aging
länd liche
Eing ang
D rei
er kannt
dec ade
Stär ke
Wand el
Reg ister
trä glich
confirm ation
H els
su d
Er gänz
D res
st ages
Best ät
s au
unver gess
G AP
he ißen
C ivil
re chnen
li a
pos ing
sufficient ly
Sho uld
Kohäsion spolitik
L ight
bed ür
International e
hor se
w age
lich em
fre ely
prof its
komm er
Industr y
H IV
t ö
so genannten
destroy ed
real er
accept ance
thre ats
m ith
i i
zwe itens
bed ded
ES T
tax pay
ivers ary
Tun es
Re present
sen ken
Tra in
Wes entlichen
hohe m
3 50
produz ieren
B our
se kret
miss ions
context ual
dies bezüglich
targe ted
Stift ung
h ur
Ges chen
niedr iger
beru hen
F ang
the tic
dem ograph
Leit ung
Lab our
ger inger
gehen de
C e
show ed
le iter
Se arch
Kon g
urgent ly
natür liche
S har
ir l
stru kture
statt findet
kämp ft
erh ielt
quir y
s elling
dr iven
Pl ane
L uf
Im plement
Gener ationen
F S
n ör
be deut
Is lands
Außen minister
en em
kon vention
Last ly
н и
Invest oren
m ist
ten den
Pro cess
unter sucht
mehr fach
P fer
be kommt
be völker
Be wer
mm ern
äd chen
P P
z auber
as chen
be we
mil es
Umwelt fragen
Best immung
bezogen en
ag on
Sou verän
umfang reiche
Todes strafe
ig end
end ors
b anken
gel d
Tha iland
X I
opp elt
Sa ison
S U
b lic
iz ieren
event uell
D EN
Al ters
app ell
head ing
c z
function ality
pan el
Nachbar schaft
gr ös
comp uls
Arbeit geber
dell a
hon est
rang ing
V ort
m elt
wi rel
gen z
über lassen
techn isch
Geh minuten
V alley
gre ift
gesch ätz
exist iert
An kunft
vor nehmen
ystem s
neg ativen
villa ges
8 2
em b
hol t
Arbeit er
ch at
cl es
rel ates
universit ies
wirel ess
An hör
Ven ice
N ation
al arm
ge we
men te
j i
men s
dar gestellt
Qu elle
highl ighted
prospe cts
er weitern
pen se
ES CO
derzeit ige
Schwar z
ber ichten
ad i
sicht bar
B arr
un forget
is ations
enor me
adap ted
Sen kung
coher ent
muse ums
Versor gung
st ick
St amm
ches ter
künd igt
n ord
den jenigen
An dere
a i
effiz iente
bestell en
Niederland en
Cook ies
normal erweise
convent ional
inter nationally
Amerikan er
1 30
g ate
unter suchen
comb ine
Registr ierung
z io
mista ke
S ah
n bsp
ann o
Di am
ifor n
T onnen
Con sequently
M aschine
reg ionen
geb lieben
Groß teil
1 10
Gesch windigkeit
wirklich ung
ru f
Jose ph
arr ived
geeig nete
K ürz
L IN
design s
Park platz
deep ly
M igration
T u
consult ing
pan oram
Entwick ler
mun icip
usal em
Pl at
K atalog
Lang u
angen ehm
Gebur t
neighbour ing
D ingen
H ig
p u
Aus gleich
ord an
Instr uments
fill ing
Hand lungs
Le vel
colle cted
Lo hn
Augen blick
Kon zentr
Tele kommunik
re put
auf s
ag a
erst mals
Belg ian
Instit ut
N T
st ör
fe es
versch le
zahl ungen
Bas el
g ift
in mitten
charac ters
zu kommen
versch är
R uf
p in
man geln
lossen heit
Fahr t
Versamm lung
Treat ies
Be arbeitung
gel ö
an zeigen
auf gebaut
class es
palästinens ischen
ä ne
S ob
V ent
So hn
Sit uated
blo cks
Hä user
m t
ex em
sub sequent
integr ierten
fehl er
n isses
been den
ko v
fäh ige
schn ellen
Ur teil
brief ly
to ug
ien ces
fest zustellen
gelegen en
Joh annes
G P
enjoy ed
Dom ain
sound s
l ived
Jahrzehn ten
prom pt
consider s
Nachhalt igkeit
e gal
ra id
Lehr er
horizon tal
comp uters
entscheiden den
Aus einander
Den mark
Regul ierung
Al kohol
anz unehmen
Cast le
griech ischen
end ar
Mit entscheid
Bew usst
k ol
press ed
könn t
hochwert ige
Bibliothe k
phenomen on
be un
Le iter
ph p
let ters
mü ß
chair man
Reserv ierung
6 3
M ul
cl in
Che m
c ue
f esten
x y
Pr int
Host el
learn ed
conver gence
Mechan ismus
gewünsch ten
H oll
por ters
G au
T ests
jo ining
Berlin er
li ge
refer ring
Vertre tern
Constitution al
Por to
7 3
ess entially
if i
krat ie
O ffic
d ating
k einem
clean ing
arbit r
P ension
we ich
lin ken
Tr aum
Tr uppen
A ca
ge treten
quot as
sup p
decl ine
diplom atic
W E
Un ions
wär ts
Män gel
Journal isten
M ah
fin ed
unter brochen
Se ele
bef ug
fem ale
Franc is
S CH
is a
ad ds
affe cts
reli ability
Hindern isse
Au fr
Akt ions
k au
ows ki
ec ological
i kt
o ter
-- --
Moun tain
bo ards
present ing
Emp fang
clar ify
IM F
App lik
Gemein schaften
pain t
B it
An derer
Fin de
AN T
Pia zza
asse mbly
Urlau bs
B I
Rat schlag
Friend ly
c row
er zeugen
con trovers
Vor rang
As sozi
gefähr det
humanit ären
Desk top
f ro
All ah
Ver wirklichung
cre w
bedeuten den
Drit tel
qualit ativ
h an
comp act
Prä senz
at is
ein gestellt
recht zeitig
cult ures
th row
wi des
Inter nal
üh ne
remain ed
LE D
K ampagne
P ir
wor ben
sh ift
hier für
ein zur
Zür ich
Ver zeichnis
ag g
Rei hen
geräum t
mar ine
geograph ical
u chte
ein stimm
Br ief
UN ESCO
Custom er
Premier minister
strugg le
ar ising
tr ies
offiz ielle
europä isches
supp lied
process ed
Fe deration
d auern
iel ten
pla stic
char akter
dra st
Projekt s
t ip
elekt r
Z ins
c s
Co operation
Schön heit
proz esse
press ing
S ex
um ul
transfer red
equ ivalent
neut ral
l ers
r ide
il legale
ver ank
ind o
can cell
Wir ksam
Verteid igungs
H aben
ed itor
ze ige
ling en
h u
re ader
L ic
f els
te in
be zahlt
ink i
finanz ieren
Col om
Ol iven
Mall orca
D ir
T U
Fahr er
candid ates
Smo king
H an
Dar stellung
betra cht
bef asst
kontroll iert
ink el
Jo int
po und
G O
versch l
prison ers
b aus
AL E
ehr ten
K ategorien
f ugen
Im mer
Schn ell
f uer
so eben
av iation
sc ar
effe ktive
ätz en
pend ing
ende av
Eigent ums
be wahren
see ks
beg leitet
bur gh
Vertr ieb
satisf y
S ier
ch amp
ap t
Sch icks
Über tragung
Ägyp ten
Lith u
Sie d
eng aged
Team s
unforget table
ap pen
Sie g
Be achtung
out s
fund ed
put s
Gal ile
A ch
n ik
id y
ou ter
origin ally
meaning fully
Gen ießen
8 9
d ollar
t ort
recht lich
highl ights
delic ious
F L
F ut
günst ige
trip s
best re
H it
K DE
Sch lag
po ols
Kon s
gem essen
anzu wenden
ste igern
Er richtung
Ergeb nissen
Sm all
m ern
neh me
Saf e
verletz ungen
m ord
zieh ung
ado x
k oh
ber ichte
ex h
whe el
b row
or ia
ster ben
Anderer seits
sp iele
är ten
cr atic
Per formance
favour able
Ass ist
junkt ur
B lair
Geb ühren
Inde x
gleich ermaßen
Produ z
Stutt gart
ste am
wirk liche
second ly
Christ mas
List ings
ma cro
bar es
Aben dessen
angewand t
Satur day
as iat
dem y
hy po
langfrist igen
Tic kets
B om
X ML
in folge
Ver mittlungs
pa ket
iz iert
fund ament
minim al
Flor enz
e b
aner kann
D ring
cu ted
efficient ly
for got
war ning
Cas a
Beschl uß
Bewusst sein
oll ars
Arbeit nehmern
Mag az
Modernis ierung
m ort
Lin ien
B ig
k u
l unch
ex curs
sh ore
Kir chen
harm ful
kontext uellen
exec ution
We il
bo y
cop e
digital en
wesentlich er
consc ious
Hels inki
N ET
ü mer
müs ste
Mon tene
Author ity
hen ce
anz ig
schwier ige
re min
ann iversary
Relig ion
acc idents
Ge fangen
ak s
facil it
Ac count
Mex iko
ergän zt
entdeck st
z on
in tim
ver wal
aut or
Bur ma
Himm el
Austral ia
ach sen
ik el
Mult i
quis ite
aus üben
Be grün
Er fordern
Entwicklungs hilfe
occur red
Sing ap
kontext uell
Be ide
dis krimin
alt es
Res ult
O P
offen bar
incre d
r and
st ret
achie vement
mär kten
thedr al
suc ceeded
context ually
s ive
ur gency
form ats
Aus arbeitung
Port al
Aufenth alts
Bedürf nissen
grammat ically
á s
gere gelt
hinzu fugen
Plane ten
freund lichen
encour aged
Spiel en
willing ness
well ness
amen ded
grammat isch
D ritte
super ior
consequ ence
Jugend lichen
р а
fun k
1 st
W ol
en cy
or ous
müs sten
Bet ten
integr ate
Arch iv
coll ap
kü mmern
I deal
gesetz lichen
Fün f
be llen
ver he
iz en
Se ktors
gu ided
Schlussel wort
Schlussel phrase
wides pread
aufge zahlt
Foto graf
sop hist
S l
ä le
Pro zeß
regel ung
komple tte
Steuer zahl
OL AF
Auftrag s
ad mit
with draw
läss ig
ur m
Aus bau
prakt ischen
perfe kte
pres erve
Kredit karte
pre dict
regul ated
cal m
Wil li
h ell
fest legen
erklär te
6 9
im ents
gew and
grow n
log ical
fähr t
Dän em
re tail
Ab st
Wochen ende
Som it
a kei
cr y
Kon vent
Erzeug er
b ott
b ahnen
hier zu
fo to
Zu verläss
plic ation
sk a
compuls ory
re venue
bre ath
gekenn zeichnet
st opp
Nor mal
v ice
out ique
Oper a
er wiesen
ver folg
ver letzt
Wirksam keit
er sta
con struct
head s
ent deckt
dr ich
Sm art
älter en
Komple tt
Finn land
Jer usalem
N one
De ck
im plications
oper ates
hä re
gewä hlten
mus ical
Auss age
Lou is
con vention
Ent spannung
rä um
len ken
strict ly
program men
trans form
Effe kt
vor zunehmen
mo vie
We ih
bel g
attach ed
ic king
An ne
Dan ish
v ator
in halt
tro uble
AL L
e at
D ör
P ier
ge fühl
Über blick
NIC HT
cr ises
fair ly
hy dro
ski ing
prin ted
ol es
Re vision
every where
er er
bewer ten
Kar l
Wissenschaft ler
imper ial
ke ten
kom peten
Bran chen
Expl orer
G PS
je glich
poor est
co des
caus ing
incorpor ated
Benutz ern
sm art
individ ually
Früh jahr
Pil ot
ach er
vor gelegten
18 0
ator ium
Bild schirm
scient ists
pure ly
R i
m ere
manufact ure
en vis
Ha ar
bein halten
H arr
L abor
re ly
ver hältnis
negoti ation
üt ung
niedr ig
er leichter
Ro th
Fisher ies
ut most
sp here
ex ecutive
weit ung
K öl
M ädchen
m ant
produ ces
pass ing
Ser bien
mäß ige
I WF
P flege
a w
ü bung
graph ic
explan ation
ist ical
res ulted
report ing
Kern el
incent ives
Q U
M essen
ang le
any where
IC E
Hoch schul
enn ess
Wo uld
meet s
Sc ience
zerstör t
Fremden verkehr
7 4
Eur os
N izza
ht ml
Mo dule
ivers ity
ul ous
con cer
wel coming
rat ification
Hin weise
absur d
all o
genau e
enter ing
CD s
ö ch
Produ ct
Ch ildren
clos ure
C uba
E vents
wi g
Ver sicherungs
ther mal
Dem okraten
environment ally
Moder n
ed ited
Con tin
angene h
C lin
an forderungen
mo use
claim ed
S n
fas cin
H uss
zie ll
War craft
Souverän ität
V IP
ut ung
üt ter
Phän omen
C hat
E p
ell ers
An betracht
ak er
haf tet
Betrie be
Dat um
Arg umente
th aus
Hö chst
ul en
Luft fahrt
rec ip
op ens
In tell
del n
hop es
Veranst altungs
L uc
au g
Sch wim
Vorsitzen den
komfort able
norm ally
K und
ein gebracht
Hand y
tow ard
Emp loyment
nehm bar
beeinfl ussen
C at
19 60
Park plätze
chr ist
c ater
hy th
frü hen
en forcement
be hält
wo o
Her ze
Sil ver
pro spect
under min
cas ino
airport s
i leg
be aring
qual ities
Auto s
Bud d
benach teil
dam ages
zeich nungen
tran qu
U L
air lines
anzu bieten
Fire fox
hospital ity
n ic
pro zeß
part ial
mal er
govern ing
spl end
associ ations
Innov ationen
virt ually
klass ischen
Z er
in her
ag ents
pl ates
erst klass
Wer ten
bran che
gradu ally
oper ator
Sport s
trav elling
beseit igen
stamm t
ent stand
mit zu
pl atten
Fr anzös
alen der
mittler weile
a wa
Auf zug
PE G
In spe
medic ines
arbeite te
wea ken
M is
un ab
Le ban
Leg itim
Aus weitung
Fahr rad
exten ding
Are a
secon ds
st anz
gleich heit
Akte ure
parlament arischen
man gel
Um struktur
einge leitet
ab stain
des crib
Im p
trans fers
legitim acy
A gain
G T
j an
z icht
an wenden
An onymous
no ck
P har
beant wortet
schem es
Chair man
sud den
ing ly
me ter
Se ver
gült ig
verste he
disp ute
spf licht
li able
Tr end
cho ices
jeden falls
Tun is
her auszu
EC D
sch wach
Inter governmental
mon t
address ing
an sehen
Volk spartei
Muse en
Infl ation
T ok
av al
recogn ize
aufzu bauen
Temper atur
om a
Br ut
gefähr lich
ch ed
el la
neighb ours
K ür
St ör
romant ic
ot ic
Kon ver
gest atten
ed it
inter ne
hol der
lik ed
Sob ald
h orn
Re chen
ian ischen
stud ent
um zu
achie v
Verbrauch ern
schl imm
C ot
D un
S old
man ual
As ht
satis factory
R SS
In fo
ta k
fol gend
deb ating
Ris ik
Z erstör
Mit tag
är er
Apparte ment
6 1
N ero
n ische
p g
gemeinsam es
Elekt ron
Sier ra
K OM
in ely
war tet
Rat ifizierung
magaz ine
p ace
Welt krieg
E ti
O t
ab schließen
Kon junktur
stat ten
on n
um gehen
Ein fl
flo ors
Benutz ung
F ass
T enden
c c
Ab lauf
H z
Pr in
pre v
Sub ject
Liefer anten
würd igen
ung laub
zu fügen
beab sichtigt
order ed
percent age
f oss
be zeichnen
aner kennen
constit utes
kon sequent
amen ities
oft mals
auf bauen
kun st
Vermögen s
co decision
sel ber
Stabil itäts
d umping
Ver ab
über wachen
bes ucht
where by
Entsch lossenheit
ein seit
se cre
tro ops
Dokument ation
St imm
Vor stellungen
verl ust
Br un
pil ot
Niger ia
c lock
c racy
kon zept
sur prise
Gre m
viol ation
E ure
ob served
produ kten
elimin ate
b id
sch were
arr en
Ex ternal
La den
st ro
ör tern
land wirtschaftlichen
Ma xim
f at
gest altung
Nach mittag
Zust ell
condem n
Sie mens
mäß igen
Design er
ausgewä hlt
E asy
vor n
hin ein
bring ung
opt ional
song s
L esen
P atten
f isch
moment an
Verkauf s
Slovak ia
exh aust
Zuverläss igkeit
K y
an ter
se gment
com position
Verein igte
verring ert
an ca
pe te
Er reichung
näch ster
län gst
Be le
oper ated
rest ored
Sam stag
u ert
surpr ised
enthus ia
bo den
bew ußt
Betre uung
versamm lung
Sch r
Ze ich
mult ilater
er teilt
Ver gn
T ieren
tra cks
organ ise
samm eln
C ash
es tens
dr uc
ko st
T anz
l ere
vor gestellt
inc ident
instr umente
gesellschaft lichen
Alb um
reg ierung
so il
vari able
m yst
p air
along side
accoun ting
vict ory
O ECD
ce ut
t wice
treat ments
L änge
u led
al ia
sich ert
welt weite
E IN
R uß
be er
In kraft
ack s
Soc iety
Asht on
Z war
and e
ra gend
ib il
Stor age
o hl
aus ser
ip ts
verur teilen
acqu ired
Nik on
ur laub
de em
ag og
able hnen
special ists
cult iv
record s
Z auber
gehen den
therap y
F ö
T ol
gesch ickt
Kü hl
Rich ard
Kon vention
Elekt ro
gr ass
particip ating
befür worten
luxur iö
P ad
pro xim
genu inely
war n
Qual ifik
fr ischen
no vel
kl aus
var ied
Ko operations
V in
ge pf
Ver he
up grade
timet able
ein geb
ex pense
pen ded
lä ufig
t ill
expl os
Ferienwohn ung
ol ive
Stre cke
nehm lichkeiten
empt y
gehör igen
Sonn tag
Beam ten
re agiert
us age
italien ische
Galile o
T amp
U sing
ir able
produ cer
conc ert
Flug häfen
struktur en
teach ing
Frie drich
S ir
Zu ge
Wär me
S kr
kl asse
Über nahme
Garant ien
spezial isiert
lä dt
ed ig
sch iff
under ground
Sol ana
A br
se es
pro pr
con vert
An meldung
pl ötz
ev ol
ie fer
ne ts
Sch wellen
K äufer
er neu
ac compl
Ma ke
Gro w
statt gefunden
herr lichen
dem ie
di ents
s la
er ie
sp ite
beg ins
Tradition en
Prem ium
t at
ch apter
guarante eing
Weiter entwicklung
Engine ering
la c
Pr im
B ag
an träge
str onom
eng ines
Bü cher
fas zin
Wed nes
V arian
zu geben
her o
Aspe kten
Ober fläche
Mass age
deserv es
B ER
kauf t
Kenn zeichnung
ök ologischen
ig are
dr yer
Kl ass
Spe isen
tar iff
kosten lose
Kre is
profession elle
kon figur
S wimming
th res
ent fernen
de z
Be vor
iss ance
Aus bildungs
Con ne
in adequate
il led
eigen er
Vis a
Pass ag
Bosn ia
re ifen
st ad
pr ize
halt ungs
Res idence
E hre
amend ing
Jed och
offiz iell
pun ish
medic ine
ap el
inn ere
H ave
p has
Durch setzung
Dänem ark
esty le
f abr
gr ünen
per su
defin ieren
approach es
Schul z
G ibt
str and
h ause
Zeit plan
Wer den
too th
R ett
R ichter
ke ys
ansp ru
lä uf
Qu art
Qu oten
pret ty
Büro kratie
more over
R y
it ive
combin es
Partners hip
p ensions
Tr ib
pl ural
b ö
develop ers
as set
op ard
ge führte
op enness
Ver hält
ank a
He ads
effe ktiver
het or
err ichtet
conf idential
stechn ik
i op
Haupt bahnhof
keines wegs
Copy right
E IB
th y
wärt ige
graph y
fal se
Hist or
fl üss
Air lines
Grün buch
grenzüberschreiten den
E A
Dre h
re publik
Nichtraucher zimmer
inv o
kilomet res
W W
ü che
к о
act ors
Latein amerika
insp ired
A ff
t schech
Be hör
Aus be
Bes uchen
consider ations
bege ister
Konz ert
un necessary
se ats
Mic ro
P y
ver breitet
id ad
20 15
trag ic
Ex tra
amb od
euro zone
Ansprü che
B 4
C ross
F assung
S ort
auf recht
Ber ge
cap abilities
beteil igten
campaign s
intent ions
S i
t ab
ü hen
oll en
sor ry
reput ation
Behör de
Z im
b aby
el and
fe wer
land schaft
bere chnet
tho tel
iet ung
teach ers
Ven edig
Slow akei
gä ste
P ER
em ost
Ad d
spee ches
lo hnt
er lassen
ment al
Ka iser
chines ische
l anger
р о
effizient er
Re par
relationship s
repeated ly
zustand e
bevölker ung
M I
Th ree
Kon kurrenz
ge liefert
Auto mat
panoram ic
Funktion ieren
Protokoll s
C ô
or i
Nach druck
Volks wirtschaften
kü ste
concentr ation
Palestin ians
R ail
as i
gr aben
Niederland e
x en
en der
Ab bau
Industr ial
ge kehrt
ver steht
kon zip
W under
found ations
Freih andels
ch ern
P V
Le ip
öl f
Frühstücks buffet
Vorder grund
C ru
S Y
beit rä
ged y
Sim ilar
pictures que
confer ences
ow ing
journal ists
sophist icated
Z un
con stra
sp onsor
zer o
un eingeschränkt
Kompeten zen
E c
at on
ber s
economic ally
communic ate
dau ert
sekret är
p her
enor men
desk top
büro krat
E uch
F P
d än
d rag
ver öffentlichen
her stellen
un te
important ly
AL DE
Verhe ugen
er örter
Verhand lung
Wednes day
h idden
Im per
Gre ens
sess ions
Ha iti
quant it
ie fe
for ese
op ter
op ho
man chen
graph ics
el ig
po ker
rei ze
Moroc co
hilfre ich
Dres den
ad ays
And al
ersten s
gere chte
Den ken
Klar heit
ä nen
bei behalten
Dynam ik
a he
Mar ok
fahr er
stärk sten
M uster
il i
gener ell
volle m
angene hmen
le m
krä ften
gegebenen falls
bedro ht
S ha
g in
ple d
find ung
B ou
S pl
s ights
be zü
Mittelme err
wor te
Su ites
Colle ge
m om
stell ern
over looking
N ok
ch ief
ic ars
for emost
Rechn er
Wahr ung
qu a
under lying
arr est
nor men
O bst
ct ic
load ing
günst igen
Philosop hie
amaz ing
Welth andels
la sten
An reg
ac ión
Sch alt
Sp itze
erhe ben
Grow th
re ci
be arbeiten
short ly
Montene gro
w ed
ste il
respe cts
fanta st
j ah
er teilen
tra gedy
bes chä
äs id
Net ze
Ed in
ges ichert
occup ation
ex posed
Oper ation
Lebensmittel sicherheit
gros se
gros sen
19 th
Zimmer beschreibung
Stat istiken
s wi
ha i
comple tion
genau er
Wik icars
weak ness
Ver d
Auf lösung
drän gen
ge widmet
il li
St aff
exam ined
spl it
sett le
ber ichterstat
me al
kl imat
A dam
as er
ent täus
wi en
De partment
schwed ischen
G elt
r an
t ang
prov ince
text ile
surpr ising
s ed
R ing
die val
Kön nen
Jes us
aus wirken
typ ischen
Miss brauch
per mission
check ed
ill ance
bath rooms
städ t
ven ues
Gew ässer
Chancen gleichheit
m igr
qu i
exam ination
vertr itt
Krie ges
f ließen
ac company
vor sieht
Spe ed
owners hip
ge heim
Her kunfts
V ul
j er
man ipul
fre cht
clar ity
Hä fen
sp hase
Auf hebung
log ic
Spezial itäten
Flä che
h ern
v acc
el der
An im
Ge gner
finan ced
14 0
knüp ft
n utzt
vor über
Komment are
arab ischen
sen sor
Min im
Ziel setzungen
zess ion
Obje kte
syn chron
v ior
verwen deten
joint ly
A th
Pac ific
Fort setzung
fortun ate
Sold aten
M aus
ear ning
Vor red
refer ences
record ing
com pete
up gra
ult imate
deck ung
gir ls
Cle an
g lo
r ating
Aca demy
on te
ges ucht
ik i
col ors
L ibr
M illion
S now
h ü
Se kunden
Prof il
Dom in
Georg ien
ehemal ige
lo ans
ant as
GU E
H S
z weiter
ü br
op pose
vor teil
Me ilen
schl üssel
remark able
I sol
h abil
r ess
s qu
sp häre
beg leiten
Ter ms
maxim al
Geschle chter
Anmer kungen
ab a
Proble matik
Kre ativ
angenommen en
conven ience
elector al
i Pod
ein her
fol der
condition ed
größer es
Korre ktur
cl icking
wid men
le ute
unmittel barer
Sow ohl
8 1
M ix
ac io
ang ers
beg un
schö p
Beschrän kungen
digit ale
N RO
Ver sprechen
Ein en
serv ing
Trag ö
Valen cia
G aler
mon at
sü dlichen
Wichtig keit
jun ction
T ou
e uropa
in ken
an geschlossen
it able
re call
gewöhn lich
Spir it
M AN
r iding
st unning
se bene
so ul
Liber alen
ort s
setz te
Bere its
innov ativen
Govern ance
CE O
navig ation
Konver genz
er ungen
hinzu gefügt
Represent ative
respekt ieren
fif th
schrif tliche
Fisch ler
Bil dern
authent ic
La sten
Terror isten
Nok ia
n ative
Г ј
er arbeitet
so ever
ob serve
verab schieden
8 7
H ann
del t
krit erien
zweif el
Bestät igung
B ier
j ing
Offen heit
Urspr ungs
Extre m
F ace
ion es
ll a
ib ung
Unter künfte
bel s
chem ische
Ereign is
Edin burgh
8 3
altern atives
ape ut
l uck
ar ts
str ö
str äger
ine a
ket ten
did n
ipel ine
Le ft
vertr aut
news letter
ein igt
for cing
regional er
Vorgehen sweise
collap se
T auch
ing re
up s
Inter vention
us can
per pet
affect ing
compla ints
behinder ten
fa ire
Ein nahmen
B lo
ho hes
geb nis
bro ken
Syr ia
ermut igen
doub ts
ie fen
cons isten
v re
ions hip
größ ter
Gip felt
Ther ap
L CD
Z E
ö hnen
v ibr
los ing
Con s
vious ly
Caf é
X X
fore cast
initi ally
Schicks al
str asse
Bro k
transition al
h iking
se ktors
sched uled
G ü
Ver ordnungen
fe et
Ar ena
gest iegen
Or ten
suggest s
Entfern ung
Gipfelt reffen
R aums
In f
ay a
Mar co
special ized
Nutz ungs
nöt igen
descri be
Cô te
ar ray
Über sicht
Minder heit
ho c
Aus richtung
rif ft
IN D
constru cted
behaup tet
geb ill
Ru br
Universit äten
st on
ra ces
voll es
Russ lands
endgült ige
A y
un ions
Sch m
her steller
fort setzen
Emp fänger
H our
T ot
sur vey
öffentlich er
Bosn ien
comm end
Er folge
enjo ys
Z immers
hr t
bo ats
Ne hmen
plan en
exist ieren
anzu passen
Schl acht
T imes
D im
Aus grenzung
hä uf
S av
fre ier
klär en
dele te
B enz
er kennt
Re ferenz
Ein es
Kon serv
bro ader
cure ment
erheb lichen
öst lichen
Rä ume
Cur rent
n amen
con i
An zeige
terr ible
grant ing
G a
Er arbeitung
energ ie
Riv iera
H P
represent ing
n ament
integr ierte
be weisen
De posit
bezogen e
conf ident
decl are
sa ke
Ind ik
D M
Se ction
gefähr den
stät igkeit
Tamp ere
k orea
le ger
UN D
stät ten
Nichtraucher zonen
ipol itik
inst antly
stress ed
Mac ed
Erwachsen e
ingre dients
H A
er worben
to urn
str ike
sol ch
ampag nen
re vised
se cut
af raid
Innen stadt
dram atic
H ände
z ing
op pon
fal sche
Konz ern
Y o
gew achsen
betr iebe
erforder liche
T aten
er ation
gel ern
Las er
Aut onomie
Gefän gnis
druc kt
B ureau
F utter
un dern
fr ucht
Be fehl
Bet rifft
H ändler
ic ations
gen e
Gemein sam
dead line
man agers
mix ed
un en
Ver länger
President s
Ser ies
ref used
schre ibt
Nord ic
üst et
princip al
Wohn zimmer
S ams
h us
dies bezü
form ular
vi able
inform al
span ische
Vene zu
Commer ce
Kür ze
ver wiesen
ad m
part ition
bewe gt
hervor ragend
Urs ache
Apparte ments
Är z
D al
F lag
L ot
oblig ator
Kir k
Auss agen
re m
ge ehrte
yst al
trans action
R oc
be ef
lo go
li zen
may be
trib ute
stor es
eth ical
kompliz iert
ard in
erwähn ten
tatsäch lichen
d ance
ch i
und ry
Sp iegel
Str ände
gar age
ner g
Ste igerung
Fil me
Bu ild
Ne uer
ven ted
flex ibel
appar ent
F ile
Re icht
Mit two
deb ated
ath y
maß geb
D üssel
M au
il ation
ab gegeben
To gether
health care
gemeinsam er
lö schen
stor ies
prefer red
berühm te
alloc ation
forgot ten
L ong
af fil
An tr
ass urance
formul iert
neighbour hood
ges to
Sch re
what soever
Kom p
se as
se her
ib ly
splend id
C AN
or ted
ra ge
über mitteln
ange bote
Ges ell
according ly
Rein igung
ind igen
mar king
zus agen
lay out
D est
stell ten
Bürger beauftragten
Sc ot
Mos cow
re med
vor liegt
Kon sum
üb lichen
m ater
er arbeiten
ch ung
An nehmlichkeiten
erst es
integr ity
drän gt
Ad v
oss ier
Flor ence
r aums
besonder es
You th
Altern ativen
Sau di
ab gesehen
Mon tage
reichen de
class ical
viol ent
jähr lichen
lange m
8 4
ben ch
sen sib
Ab teilung
19 50
tes te
uz zi
bewer tet
wid th
hochwert igen
aktual isiert
Ausbe utung
E hr
g iene
os ing
Or der
vir us
bell a
Sow jet
Z o
Einzel heiten
mechanis men
gor ith
F abr
R ass
di agno
Up dates
verstär kte
krank ungen
Verab schied
K it
he iz
Aus nahmen
Fre edom
mut lich
Bestell ungen
befür wortet
compar able
taxpay ers
C 4
ar ks
car te
Spr ing
t ungen
zu zu
fr ank
ähn lichen
coast al
st ä
and in
Pr est
Sa al
listen ing
pharma ceut
Formul ierung
N EW
f anden
de lays
red und
R S
Aus rüstung
bas ieren
h ills
to ll
ess el
zw anzig
klär t
Invest ition
begeg nen
por ter
old est
iod iversity
Sm ith
diesel ben
ausländ ischen
Verabschied ung
F ord
per ipher
chn er
Nor m
K W
de voted
no body
met all
Che f
Tal iban
dep loy
Huss ein
c uss
er weisen
ut ors
zug ute
wä chst
wel le
Chr is
post al
green house
Mensch heit
Mittwo ch
ange kündigt
cert ification
bedauer lich
R ural
um es
tens ion
anzu zeigen
eindeut ige
gegenseit igen
Zun ahme
C anc
K lassen
ar ians
ign ore
deut liche
ling u
mechan ismus
tät igen
cert ified
Defen ce
S tern
zu gestimmt
co ach
sub sequently
prom oted
beg ünst
answer ed
Dritt staaten
elektron ische
popul ations
des erve
ativ ity
iner y
ein treten
ber ichtet
da vor
fü llt
Unter drück
reib ungs
F requ
Ver käu
Mon ti
zeich nete
Wohn ungen
präz ise
überras cht
K red
L ud
er led
St raft
bas ically
Werk zeuge
R od
t é
nach ts
igh ter
a issance
e ase
t ier
ber ger
198 8
verurs achen
cook ies
getrenn t
Leip zig
d ial
y ards
le ih
ve z
wir ft
geb nisse
elect rical
begrün det
L om
m ary
ad ult
äl sch
wachsen de
D B
sch r
Bes teuer
transl ated
Sar ko
aus wählen
rat ified
Bar on
Fest platte
komplex en
cred ible
en viron
dis count
fert igung
Prof it
s ach
as che
ul tra
str engen
Fischere ipolitik
fu hren
assign ed
Millenn ium
R enn
Wieder herstellung
vertr auen
op es
Ch ief
remo val
surve illance
auf re
ös s
prof ound
G ate
Gesetz geb
profession ellen
expens es
J ur
g age
Ch ic
fall ing
negoti ated
super b
Bil anz
assure d
f ell
bo om
thank ing
NG L
Betr ug
K uba
techn ique
Zwe iten
ver teilung
Pr äsid
fre ul
under take
Gemein den
prepar ations
worr ying
W en
Y O
der selben
durch zusetzen
p um
un certainty
tr at
ger ingen
aut umn
Vis ual
secon dary
K G
st ipul
sch icht
Fin anzen
orient ation
Ren nen
Rh ein
fac to
fo ster
Mal ays
Menschenrechts verletzungen
bei der
schle chte
arg ue
Sams ung
ose x
Mod us
ökonom ische
ref use
Begrün dung
R in
b ird
An ders
post s
beha vior
am big
est r
aktiv itäten
andin av
T os
ta st
An reize
fl anz
bevor zu
Log ik
b ought
Fe ed
verpflich ten
Klimawand els
erleichter t
er werben
um so
trans it
express ly
territ ories
diesel be
sp ell
ad venture
Ma ur
bel t
inner en
be weg
os is
land es
ev olution
Abgeord neter
civil ian
Vertr auens
isch t
techn ischer
druck s
spect rum
me als
zusammen arbeit
nation als
H änden
P ed
sus pended
Publik um
mom ents
A li
ver mittelt
con vey
progress ive
Log istik
pap ers
Kommissions vorschlag
the atre
be an
unterschied licher
sec ution
Elect ron
Zur ück
C AD
pla in
SD L
inspe ction
Einw anderer
l assung
auf nahme
Ver folgung
art ific
kön ne
Pal ette
Graf ik
Steuerzahl er
T W
su ited
Er öffnung
ic ian
ichtig keit
Finn ish
o ul
Um stände
Ja zz
mä h
verz err
renew ed
K m
re cru
ot ten
zur zeit
Ein fach
char m
krit ischen
gef angen
Je wish
modif y
renov iert
or ium
um gehend
Spazier gang
Zerstör ung
ü se
Er schein
og a
best ände
foc using
komplex e
spür en
D L
Menschen rechten
Dan iel
Refer endum
ach ed
ide l
olog isch
Con serv
Schutz es
indic ators
Sc ott
gerecht fertigt
verbind ung
pres idential
auth ors
K ra
benef icial
demokrat ischer
San ter
aud ience
elegan te
arbeite ten
Be zeichnung
No bel
Dan ach
ver geben
tra ined
Internet zugang
bemer kens
religiö sen
juris diction
h after
tr am
dass elbe
verm ieden
n ier
Dies en
jüng ste
Erwä gung
Se lect
dar gelegt
Dienst leistung
pat ch
defic its
Other wise
nom in
deter ior
simultane ously
Kennt nisse
F akten
J ugosla
K ore
An träge
He im
N A
just ify
leben den
install ations
E ver
w is
ungs bereich
tele communications
Di agno
arrange ment
Fel der
distin ction
res idential
her ein
sa al
belie ved
stu died
Dou ble
ge habt
he ight
verständ nis
expand ed
ul ate
Ma jor
arbeit er
Pf lichten
explicit ly
C T
ret ten
rub ber
Marok ko
B ah
K atal
necess ity
Pal ma
y ers
In genie
ell i
verfahren s
schwier iger
L or
z og
our met
ens ionen
design er
fab ric
rul ing
auf er
contra dict
seem ed
D IN
er öffnen
om in
av i
plan ung
schre it
Vis um
niedr igen
endgült igen
escap e
employ ers
Mil ose
Kern kraft
bureau cracy
bran ch
einstimm ig
fre ight
CO D
research ers
indo or
i ße
z ia
Hand lungen
E del
wick lung
Bes atz
pers ist
F uss
re cession
ein führen
fahr ts
besch ließen
Privat sphäre
F ans
т о
be wegung
reich halt
20 th
zw ölf
beschleun igen
ü d
fe hle
tra ce
sag ten
Vertr iebs
En ts
par ameter
turn s
Pe ters
spect ives
woo den
negoti ate
frequ ent
observ ation
Z ut
ber ufen
tr as
mal e
Univers al
Zim babwe
t win
Re is
De leg
hör t
pul se
te mp
ze igte
Reg ard
Rück gang
beruf lichen
interven e
boast s
B L
b ast
Men gen
Mein ungen
M s
un zä
Her kunft
olog ne
Install ations
Berat ungen
medizin ische
C lim
H ör
Alp ha
t ter
Unter richt
demokrat isch
demonstr ates
N ichts
ro us
integr ieren
Doppel zimmer
M und
ser b
Der zeit
foc uses
verbind lich
citizen ship
ärm sten
conserv ation
au te
ce iling
Re präsent
He kt
sicher er
Erzeug ung
ausführ lich
Langu age
C I
Ge win
organis ierten
B aden
P ut
ro chen
ter en
res um
fre ige
nu kle
K arr
ir ische
Res iden
ason ic
Austral ien
er läuter
ip pe
cancell ation
ab geben
pre vented
greifen de
tourn ament
aus sehen
ip ulation
fun ktionen
Pe ace
enjo ying
7 9
view ed
üh le
kur se
wohn ern
adjust ment
Plen ar
gol den
H ab
Erfolg s
Slow en
k ong
In tel
t ausend
competen ces
unanim ously
toug h
Lithu ania
la ß
Min istry
israel ischen
an passen
con front
dis put
Dar fur
kam mer
Hist ory
ver schaffen
ver mögen
ill on
änder ungen
clos ing
continu ously
Süd afrika
frequ ency
S ER
in sufficient
qu elle
industr iellen
Arbeits zeit
verz ichten
österreich ischen
Geschen k
ein geräumt
ge ograf
ank ommen
incl usive
ux e
relev anten
heraus ragen
accur acy
g ip
el i
con version
pos sess
wä sche
Energie quellen
lass ungen
achiev ements
T emp
e ure
chair s
supplement ary
B av
T ank
fr ustr
prom ising
Fest stellung
character istic
coordin ate
Verteidigung spolitik
catalog ue
ga stronom
AT ION
Verlänger ung
proble mat
Produ ktivität
staat licher
refle ction
Geträn ke
Wire less
Yugosla via
Phar ma
M T
gest artet
Zusammen setzung
eig entliche
H old
geb ä
death s
umfang reichen
s izes
app ing
ordnungs gemäß
K anal
M ie
en kt
et schen
mer ken
Con troll
Stu fe
B S
r öm
п о
sp aper
heim ischen
measure ment
In halten
Br ü
cal endar
klein ere
Ins gesamt
Belast ung
Pro test
Br ücke
Fo ot
P i
Grund sätzen
Loc ation
liefer ung
dim ensions
applic ant
Sum me
quant ity
C AM
S MS
ap es
agre es
defin ing
Deutsch lands
sold iers
Hig hl
Ruß land
innov ations
path s
Be urteilung
reg imes
gel ingen
geb ühr
ir n
ag anda
mittel alter
find s
author ised
privile ged
re lief
arch ive
chem icals
J ar
lo d
big ger
cop ying
geeig neten
abkommen s
Grö ßen
al in
ein laden
schen ken
bal ances
sc ore
geleg te
y ard
be am
et a
einge tragen
spie geln
Jos é
Arbeits gruppe
anal og
ton nes
Israel is
Wün schen
900 1
Sever al
Rass ismus
st an
kur zer
IB M
gelern t
per ce
sam ple
Regional politik
Köl n
S ri
ph an
Beob achter
Inkraft treten
Düssel dorf
t um
do ctor
Aus übung
akt ions
human ity
voc ational
metho de
Zert ifik
n it
pr inter
Ver sorg
not ified
F inger
W eine
p od
in ity
Gro ßen
der jenigen
auf gestellt
alt ies
Ord ner
threaten ed
R un
Ver ts
glau bt
attra ct
jud gment
Oste uropa
R af
er langen
ic ts
Ta belle
ehr lich
ident ification
cir cu
ira k
kombin iert
he ft
gen iessen
ass ungen
ausreichen de
Gewin ne
b licken
pro curement
no st
sign ing
zentr aler
Jugend liche
stopp ed
C oll
k at
l ively
du al
pat ents
z usehen
er ten
os ition
ste cken
Arbeits losen
Wert pap
Pan orama
Olymp ic
dra wal
pun kten
bu ying
stre aming
Bei jing
evalu ate
C lau
b ow
in akzeptabel
im ported
fa ils
access ories
kom pon
Mil an
Vir t
j k
per iode
Aussch üsse
terror ists
to wer
sta ats
sign als
gl as
post pon
Ele vator
genie ßt
E cht
K art
M ap
ab stra
ex pos
zug s
Weiter hin
4 50
fascin ating
g ow
р е
ge achtet
ill er
Coun try
EUR O
mitt lere
G or
g ten
de tr
möglich keit
b aut
str om
Er halt
manufact ured
Rel ax
insof ern
H OT
p it
gel angt
auto motive
Kre bs
Verletz ungen
ge plan
auf geführt
wh el
lo v
Re cent
dis ziplin
nachhalt ig
b iodiversity
g io
Ne ph
kosten losen
Vir us
vor gehen
zeich neten
Vertre tung
Anhör ung
k lin
Prä vention
umfang reich
mist akes
con ventions
sh uttle
Pr ize
Ab schluß
Zur ich
belong s
ausländ ische
ç a
is ons
me dieval
Ar m
fl ash
far ms
Übereinkommen s
I ER
sho ck
cancel led
M D
r ix
w n
on ic
he ct
respekt iert
Libr ary
ernsthaf te
cab in
An dr
io x
gesch mack
G 20
K ein
gel ang
Te e
organis ierte
Sh are
ursprün gliche
afford able
g ige
ger inge
arrange d
jeglich er
ver zeichnen
Ver suche
unst able
Sc ient
Anwesen heit
C ologne
D iffer
sch m
arbitr ary
at ik
as so
Re lease
tim ely
emer ged
H alle
er kunden
wün scht
Corpor ation
beizu tragen
a qu
s ul
it is
ver liehen
op h
av en
Versorg ungs
R on
ein stellen
contrib uting
Beschäft igten
erneuer baren
Z ahn
ig o
qual ifications
Besch werden
Ph ys
Jac ques
3 60
consist ently
Made ira
K lin
un employed
and em
sch la
An hän
gu ards
wirtschaft ung
Spekt rum
ñ a
when ever
b read
ein iges
be cken
ann i
subscri be
v ot
ver sehen
iz ens
publish ing
bedau ere
kö mm
m ble
at ember
res idents
Rahmen bedingungen
mand atory
vernünft ig
compl iment
Sarko zy
l é
est ag
ind u
stütz en
rie b
russ ische
ü re
vis its
occup ied
FA Q
Weiß buch
atember auben
v ens
The orie
Ma ils
Innov ations
medizin ischen
Haup tz
w inner
author ized
Democr atic
D J
S ac
Unter zeichnung
Sol utions
pot entially
Syr ien
Ergänz ung
s wert
Europ ar
Le id
Kapaz ität
pass ieren
famil i
gelegen e
Ban anen
prem ium
Spann ungen
s enten
ver mutlich
Es s
ill as
Le ague
an x
ver arbeitet
fr u
under mine
over whel
real isiert
pay s
heut zutage
Ein schätzung
zunehmen de
198 6
South ern
Cap tain
erörter t
elder ly
P sych
at em
ge o
la ying
Re zession
Be wält
war s
Sp y
system atic
fel der
Al ps
real istisch
typ isch
G ir
An hang
treat ies
experien cing
lager ung
M ug
et r
An reiz
inter active
gewünsch te
Argent in
tak ings
im posing
hol fen
purch ased
Argent ina
M ischung
T reiber
For ce
Con tact
verein t
emphas ised
a j
l us
ke en
mat ure
l ens
m und
ü ge
we hr
br ands
unter nehmer
läu fe
überw acht
prev ail
with drawal
Be h
är enz
instit ute
sper iode
p es
p ig
ein nehmen
be wiesen
ak ul
mer t
Ma zed
Pl ätze
lok aler
Social ists
scr utin
V it
ie hlt
ckt ail
f acht
unter breiten
emiss ion
Einschrän kungen
emot ional
ther apeut
Ber gen
etz ung
ys sen
gemüt liche
er ad
vo ters
Besteuer ung
U P
p se
ver bleiben
em on
sel y
Energie politik
Iran ian
bureau cratic
marg inal
detr iment
K eine
In halts
Ver me
Ne ues
höch ster
Ist an
fü hle
W esen
ú n
inter institutional
bl ame
reib ungen
sonst ige
wirks amen
Kä mp
J ordan
hol z
stimm ungs
b ist
sp unkte
Im mun
bein ahe
sü d
Produz enten
Parliament ary
technolog ische
Sloven ia
H um
all mäh
über legen
fol glich
public ations
last et
adv ise
Aben teuer
nut r
manif est
Bewält igung
c ros
ver arbeitung
emp fängt
schwer wiegen
indic ates
w ahre
miss ed
preserv ed
Leban on
ver wirklichen
ag d
pol nischen
statt dessen
offic ially
consisten cy
B in
ar ier
ant es
col onial
Tür en
198 7
bilater alen
Wäl der
L isten
Amer ikas
ruh ige
Cap ital
elegan ten
Präsent ation
P ur
R ic
k new
comp ass
Fe ier
Pal acio
Bon n
geist igen
prec ision
E E
G il
R ind
schließ e
Sitz ungen
Überwach ungs
erweiter ten
crop s
H em
gen öss
ir ts
ün den
bl att
interess anten
vereinbar ten
te enth
auf wand
log istics
Zuständ igkeiten
S pre
S ix
g ul
Ko hl
rele ases
Erweiter ungs
SL R
Konzentr ation
ha zard
An gabe
automat ische
pursu ed
vertre ter
Treib haus
certific ate
B uen
ent spann
Ver mittlung
Se en
Ch ange
mechan ical
stu fen
gebä ude
z ones
ber at
prest ig
cre ature
famil ien
Landwir tschafts
G on
e z
auf gerufen
per spectives
konstru ktive
Vil lage
Mittelmeerr aum
d uration
the ater
so genannte
li b
ide ally
General sekretär
L iban
T AC
ver age
real ize
Äuß erungen
K lang
n ail
Ber ater
cent ers
Con ver
tax i
198 5
O x
ans on
bus y
Hy per
Phil ipp
f este
all ing
dr ives
star kes
irl pool
g te
g ingen
en rich
sch a
auf einander
leich te
prec ious
C arr
P au
oc ol
Club s
schw ung
B atter
er örtern
ge ar
ill ness
under takings
Wh ich
reveal ed
L od
ver sicherung
men ge
plan e
re fresh
as ien
hand ed
Spezial isten
D ru
schaf ter
nach läss
not ably
Th yssen
pre ced
wert volle
regul ate
Funktion alität
Krä ften
Commun ist
idy ll
geplan ten
b ib
com posed
motor way
Termin al
gewiss er
post ed
emer ge
L uggage
w of
über geben
ern o
hal le
Le hren
hand lungs
where ver
Dire ktor
tä usch
kommer ziellen
be wirken
ber ührt
fort gesetzt
Welt wirtschaft
hö re
spec ify
Palest ine
Mol do
T EC
Ver stär
Un til
Haus halte
technolog ischen
modern er
feed back
ir t
get ö
rad ik
B ä
c ameras
p d
ed ing
sen ior
unter breitet
nach denken
gener ous
Gen uss
fair en
AS S
Berat ungs
An griffe
än gen
mach inery
bre iter
acquis ition
Similar ly
N OT
h ielt
un k
new spaper
atten ded
einzu gehen
Adr essen
U fer
unter scheidet
erstre ckt
com prises
vor bereiten
Ein wander
einge laden
bew aff
warm ly
A bo
fe as
invest iert
feat uring
klein eren
Verlust e
T ief
k unde
as ion
Un sicherheit
Er be
akt iver
recht fertigen
Gu ant
Cit izens
C ou
des irable
Aus blick
He ating
lag ern
erwähn te
T ues
c ket
will igen
char ter
suggest ion
B ühne
r in
as is
ru fe
Kapaz itäten
Holl and
wi fe
Was ch
prü f
dest inations
purch asing
M eld
W M
alt ar
bis schen
tho use
gl ing
L ern
r ival
weit aus
teil zunehmen
initi ated
exter ne
J et
L ärm
st ern
Be wohner
par adox
forder te
Ob viously
vernünft ige
excurs ions
später en
disput es
it é
ce ase
ausge ht
Andal us
mo ves
Inter pret
icher ung
Mö bel
declar ations
beiträ gt
sch alten
prom en
eig entlichen
mäß igkeit
intell igence
Adr i
re ct
be denken
ang ere
real en
down loaded
Instrument en
f inger
Re ader
je opard
Fr ied
ein halten
ge ziel
em br
id ance
Pr äm
verl änger
draft ing
Schnitt stelle
y le
ab schließend
ür en
tr ess
sh if
erinn ere
Istan bul
w öch
com pr
Kon figuration
wa ke
appar ently
Flä chen
Abst immungen
thres hold
end o
deut lichen
finan ces
Technolog ies
Red u
sent ence
Verb ün
läu tern
Sch eit
Iraq i
swi ft
d iving
aus ger
ider s
Fol ter
z immern
legen d
Qu ell
Aut oren
Milose vic
sp ots
essen ce
rat ifiziert
Einkommen s
Gepäck raum
H i
т е
st ücke
war ming
bed ienen
bil anz
lad ung
sp are
express ing
contract ual
Wil le
sin cer
ed a
int uit
sof a
jem als
Rubr ik
C AR
t ight
str ip
Al uminium
rat io
ausgestat tete
ro v
aus drück
Pro gress
wirk ungs
Kunst stoff
gir l
none theless
Galer ie
th ick
ro se
return s
DI E
fulfil led
Mehrwert steuer
sched ule
G ute
ver sprechen
ir regular
com ings
vor sichtig
ci ón
bekräft igt
vor hin
Le uten
bor ne
f lying
wor ding
ok ol
geb rochen
ur er
ge handelt
se mi
qu o
ad vent
str ange
Ar ts
Zu frieden
conv ince
inter med
De clar
Um wel
bed auern
maxim ale
bert ies
grenzüberschreiten de
T ube
wo hnt
dam al
mus ik
AP I
mag net
domin ant
agent ur
trop ical
Merkmal e
re placement
lo ved
enlarge d
Ther mal
Regul ierungs
belieb igen
M auer
Cre dit
sonst igen
F ok
mer kt
los er
z eln
Ver markt
vor behalten
Gip fels
schritt weise
F at
R T
c ache
ikan ische
dev ast
Co st
versch mutzung
structure d
Gebä uden
Maced onia
S creen
в а
re per
tr ennen
ex changes
cho se
trav ellers
al ign
über mittelt
Reg imes
Arbeits bedingungen
krit isch
talk ed
announ ce
Roll en
p flanz
er läutern
Be kann
Be haupt
ungs weise
organ ize
air line
Erd be
beur teilen
A ctive
iz z
Mit t
teil te
IN TER
Komprom iß
Tim or
un eingeschrän
Schwim mb
ra ises
Minister rat
Pl atten
Per u
gewinn t
Gew inner
verbind ungen
gemüt lichen
Konsult ation
Konzep te
angeneh me
T ob
19 45
az zo
soc io
grundlegen der
K im
o z
ib iot
All tag
ument en
Sub ventionen
substant ially
transatlant ic
am ar
sch aden
che iden
krit ische
incent ive
münd lichen
HOT EL
al ike
re formen
ste iger
einz usch
Get re
Vorred ner
l amp
un usual
find ings
Kin nock
Legisl ativ
Konstru ktion
Scot land
L anz
d ollars
s burg
un known
pre lim
Flug gesellschaften
Dis play
regret table
Venezu ela
L ip
äd igung
RE ACH
icy cle
occur s
partnership s
Olymp us
w ages
er te
ag nos
ohne hin
Char me
Frem d
Heil igen
P akt
T w
vor zusch
ange wiesen
host s
Ferienwohn ungen
controvers ial
j pg
ist all
com pos
ste hung
rac ism
demograph ic
S top
w ich
kom pet
termin al
Stabilität spakt
controll ing
C ome
L ap
coun cil
net ze
kapaz ität
Ver trägen
cir cle
Cal iforn
Koh le
condem ned
Unter haltung
F ab
Über arbeitung
ru ft
short comings
D ist
s cre
An bau
sol ved
integr al
Ap ache
exhib itions
J av
N ull
14 9
lies t
map s
C ult
men gen
del ight
splä ne
aca demic
Medik amente
Lic ense
B ow
ir y
su ff
photograph s
C ert
le z
ing ung
ausge de
fahr zeuge
sun ny
Ren aissance
angeboten en
clo thing
erf asst
bi ological
Ost see
ier bar
wor ry
Kon figur
neg ativ
sil ence
meld ungen
Ex p
Ste uers
global er
camp s
Alban ia
plötz lich
Unterdrück ung
e gg
ne o
Ge ben
sl opes
in kl
be gangen
he bt
gesch ritten
Com ple
Elektron ik
un ting
St ich
Vor gaben
box es
heav ily
empf iehlt
3 000
F uer
T uscan
u he
age ments
ton s
consequ ently
Budget ary
spolit ische
Repar atur
S hang
ver breite
sch lage
Ar c
bas ierte
pain ting
komfort ablen
i ated
ch ocol
icht lich
po le
19 30
infl uen
S IS
st ür
Ro und
Emp ire
Tem po
Hü gel
bewahr t
stat istical
problem los
U V
der artigen
ein gebunden
ges onder
pl ätzen
Aus ge
Hotel safe
besch reibt
bevor stehenden
H ill
P last
S org
ver arbeiten
sp err
An bindung
has en
zwe ier
fo under
perform ing
us ste
lich keits
voll ständ
app ed
ren omm
lif eration
äuß erster
Geb ir
Commun ication
Mü ller
bas ierten
Gem üse
anc ies
Rück en
br ä
hand led
Kon ferenzen
meas uring
Bl umen
Haushalt splans
ar me
su chte
aus wärtige
frei heiten
leit ungen
expand ing
are l
cre ativity
beeinfl usst
katastrop hen
Tarif a
Übersetz ungs
C au
Er neuer
kr ie
Sol che
dio x
S end
a es
in no
ch tern
ver kün
tr uck
ör tlichen
Is ra
S anti
verw alten
Kohäs ions
Liter atur
de cent
ic i
Vor feld
änder ung
ret ire
pract ically
einzu halten
einzu beziehen
Declar ation
break ing
erziel ten
pattern s
v r
al i
Techn ical
pot ent
las er
Betr offenen
r unde
Cer tain
tort ure
M are
lo ster
ange legt
De vis
equ ity
größer er
pursu ant
ad os
Unter lagen
gest ütz
Verantwort lichen
bra in
uner lässlich
gegenseit ige
genet ic
Gerichtshof s
P az
trans formation
Fre il
verb and
spekt akul
Ver w
ign ored
pen den
wunder schöne
reje ction
J on
Shop ping
Mazed onien
L earning
Koh ärenz
Cho ose
kontinuier lich
Tragö die
H ub
or ter
st unden
sch rank
aus stattung
ken ne
21 st
Mot iv
spar ungen
ethn ischen
Aktual isierung
B ach
F ly
be m
col umn
stay ing
hes itate
trig ger
prelim inary
E valu
str enge
out set
sc andal
Br idge
krit isiert
angeb lich
Flücht lings
Bewer ber
em bra
über wach
Fin ance
schl immer
simpl ification
Ratsvorsitz es
Consult ing
aufre chter
in ischen
Er nen
sh ame
tre as
unge achtet
effizient en
beruf liche
Clear ly
F as
p act
ier tem
ann a
mag ic
qualifiz ierte
ofin anz
S I
auf gaben
hol es
Finanz mittel
uz z
normal e
Exper ience
beru h
sil ver
Gerä ten
Prov ence
vielfält igen
Schatten berichterstat
Lit auen
prestig ious
urch t
wur fs
teil ten
tain ing
best änd
offen kund
H L
p reg
res sourcen
ome ters
ep i
dist ur
Pan oram
Gesprä chen
aktual isieren
th alten
ann ing
my th
12 5
ko dex
Ta ste
Sal es
inten se
Fö deration
Tues day
quot a
kon serv
far ben
kosten frei
Bü ros
Heimat land
schwar z
keep s
simpl ify
w ast
se y
sh ell
Ab u
dra f
gerä ten
würd ige
wom it
Isra els
F ed
il lo
ak is
beg ab
nehm ung
Eigen schaft
de pendence
Sp am
gra ce
pharmaceut ical
C ro
a co
c aught
em en
dis plays
Chr isten
d ia
ar te
lic ence
ph y
Ex hib
sitz ung
Pan asonic
Gest atten
R AM
S ul
and t
kon sum
avo ided
spät estens
ge braucht
fe ars
reg ierungs
Kon tra
Euro stat
unzu reichend
enttäus cht
Welt bank
mus ikal
irgend wo
nöt ige
begrenz te
Karr iere
X L
von einander
form ing
fu els
fal schen
verz ö
reiter ate
ge leis
Mar x
mon uments
Min ibar
Organ ization
date i
toler ance
meant ime
forman ces
gefähr lichen
erneuer bare
drin king
Andre as
be trag
iv ir
Rahmen programm
Trans l
Liban on
F F
us a
not ion
sh el
ün de
low est
EG F
entreprene ur
H as
t one
ad ing
prom ot
Gem äß
conf usion
Geschä ften
acknowled ged
Kreativ ität
I biz
ar o
son n
schutz es
liter ature
detaill ierte
autonom y
E ll
for ums
less on
Pat r
advert is
O cean
be find
sch merz
her kömm
olog ien
pen alties
ausge arbeitet
Dar in
Nat ural
Vorsitzen der
thorough ly
Französ isch
2 20
H ence
f lich
ze hnt
vö ll
Francis co
U s
sol ide
olog ischer
rein force
explo it
gewün scht
Edit or
Gewerk schaften
C are
pr ere
fr isch
Sch mid
cr ash
Techn iken
stre icht
gefähr liche
config ure
mith ilfe
C in
K och
un iver
ma themat
zunehmen den
cop ies
amb res
chest ra
getö tet
G allery
re cycling
Re aktionen
Geb ühr
slow ly
Prest ige
draf ted
B ell
R ac
S AT
h ors
st ü
sho ul
B ase
C V
s ä
is st
af firm
Auf forderung
sc ulpt
Trans aktionen
ordnungs gemä
Wart ung
m ol
stra frecht
Comp et
Yo ung
d ein
k ulation
est imate
att ent
Lebens qualität
finanz iell
R ight
ungs maßnahmen
entr ies
ignor iert
verbesser te
A er
K ie
f ate
la kes
fen ster
lä ub
Rand lage
F O
H ug
Un fall
Aus nahm
tre men
monitor ed
autom ation
C orn
D ampf
S id
un fortunate
hen de
spirit ual
toile t
in corporate
at ro
sch licht
we igh
public ly
nam ens
Kin des
Plan et
relax ed
Beob acht
Einschrän kung
F if
der og
ra gt
prem ises
Adri atic
Se le
under taking
kon trollen
Inter face
ious ly
Fe hlen
Fre uen
Elekt r
Liby a
municip al
concer ts
f liegen
aus führen
Ex cell
specific ations
indic ation
isol ation
nutr ition
B le
G io
t auchen
dis appointed
respect ing
Lebens mitteln
stop s
älter e
Vo gel
benutz er
H aupts
wir tschafts
under line
bil der
Berichterstat tern
discip line
Optim ierung
Jugosla wien
e ken
Gr iff
sa iling
Mult ip
Every one
EW G
D ich
W atch
m ad
ch sten
ges chen
pl ing
Einzel nen
None theless
O ra
T M
t ips
mot ions
Gu inea
head quarters
ifiz ierungs
Rou te
a o
il der
sch es
An na
Str asse
Dr ive
uell er
schle chten
ver einfachen
os a
he ated
ern ste
Mar g
Kü chen
Aktiv ität
EM U
surv ival
brut al
E EC
Be wertungen
str itten
wür fe
Auto m
beträcht liche
accept ing
näch st
benef ic
endgült ig
Indones ia
M ahl
alle ine
Sy mp
sett led
plat forms
ausgewä hlten
Malays ia
mo dest
Ger ichten
Arbeits kräfte
Luft verkehrs
Inner halb
Vergn ügen
erläuter t
aus zusch
develop s
err y
rece ives
Hin zu
Entwicklungs zusammenarbeit
sol o
Con ditions
Ch an
hop ed
cover age
stay s
Rechen schaft
Tol er
A str
C M
G 8
г о
er ium
on ds
Ein fuhr
besch reiben
SS L
fit ted
Jun ior
infringe ment
C old
and el
de utet
ver handeln
Rechts rahmen
teil genommen
conver ted
nutz bar
e g
Subsidiarität sprinzip
gebill igt
d igt
am id
To wer
irgend welche
mov ies
expos ure
un ification
den ted
PC s
Ster nen
Amts zeit
r ied
Aus legung
Tschech ischen
Komplett preise
promen ade
ab zielen
Every thing
Wien er
h ide
tho do
Me an
lack ing
Real isierung
isol ated
h ändler
inter action
fir es
ök ologische
G ült
b lieb
vis ions
bus es
acqu ire
P ul
S IM
aus es
wär mung
Cal a
Hung er
architect ural
Willi am
Verstär kung
B B
kon solid
wel ve
book ed
def ending
Dis ziplin
Stat istik
pet ition
endeav our
artific ial
Devis en
m iß
le ather
sen der
str ichen
typ ically
except ions
measure d
Betr ugs
b ard
Dar le
expla ins
ausgewogen en
Santi ago
A par
im s
klar er
gain s
F oc
T able
ch al
ad mitted
aus enden
gesam melt
Markt wirtschaft
äuß erung
light ing
gain ing
Pier re
Zufrieden heit
G ärten
St orn
redu ctions
Gegen wart
unver zicht
CN S
cater ing
Hekt ar
i ère
ob servers
zen s
Flug zeuge
Sh uttle
belong ing
Beweg ungen
e en
an teil
le ister
not iced
comp are
Weiter bildung
est a
Süd ti
Eing rif
in quiry
ent worfen
be arbeitet
res ted
Herr schaft
Fe atures
Train ings
Zimmers ervice
m igrants
er hol
am ple
mit geteilt
set up
Ex cel
accep ts
r ust
op ing
fe iern
work shop
tal ent
Ju an
tack ling
neigh bor
Paläst ina
S can
date ien
download ing
197 9
f ought
st ones
respon ses
zurück kehren
Initi ativ
registr iert
ver ehrten
Ver stö
alle ged
Drit ter
Betriebs system
watch ing
Atlant ik
keines falls
Tsch etschen
Californ ia
Ab sichten
Ges che
17 0
Eing abe
handel te
Assozi ierungs
in cur
ann te
her bei
viel seit
eigen em
Super ior
Zivil isation
portugies ischen
re verse
we ib
gleich er
respect ively
verwal tet
B und
uld igen
contin uation
Individ ual
Clim ate
un ilateral
it udes
den ied
ange fangen
18 th
ensure d
Li quid
Eigent ümer
sand y
Ä hn
st aben
aus gelöst
inter im
zw angs
power ed
bereit ung
terr asse
Bu ffet
Ernähr ungs
foto graf
M ig
An weisungen
ill es
Se ven
Nie mand
kennt nis
engl ischen
stuff s
P est
o ste
im en
St ick
vor sitzen
Sch ätz
ließ t
loy al
Finanz märkte
fail ing
r ific
t ap
th al
au ten
work shops
harmon y
abol ition
Lanz ar
on ing
tra ur
tra il
Au fre
ober en
Nu kle
einzel staatlichen
freund schaft
complex ity
secure d
genehm igt
N ature
igen de
Sch ott
tell s
Entschließ ungen
sustain ed
h är
p ir
for tabel
Ein trag
ced es
Ex porte
batter y
al itäten
In haber
Bet on
aggress ive
em e
Bes itzer
Sü do
mod ular
wettbewerbs fähig
is n
sh ut
Stud ios
GB P
wirks amer
Schne e
2 nd
un like
do us
unter halten
Gebie ts
Sozial demokraten
erfolg te
Class ic
controll er
l ights
po the
Ser ien
favour ite
demonstr ation
prag mat
K ör
com o
lä gt
har bour
Dienst ag
wenig stens
beschäft igung
capt ure
exe cuted
ver stoßen
durch geführten
fur b
consolid ation
Cub ase
ersta un
ge holfen
dam er
auszu üben
Os lo
cook ing
delic ate
Inner es
Defiz it
describ es
b one
ö ne
is ierungen
ver größ
beit reten
tell ing
qualifiz ierten
K alender
m esse
s hr
x x
Organ en
Op fern
accommod ate
befür worte
m ischung
Kommiss are
Staats an
Analy sen
con junction
by l
tra ins
ange ben
zeit genöss
Durch schnitt
G H
ü ste
in tr
in wie
ap ol
fe ier
she ets
proport ional
Anton io
tang ible
L D
k ore
un an
log in
eingere ichten
Shang hai
K ne
for mit
Com fort
Mot to
Zw angs
d achte
Fra gest
fahr ten
Ko hlen
wes ens
gute m
con vers
Auf nahmen
mon ument
Vis it
cos met
listen ed
Scheit ern
R ental
S per
d il
ä mp
Ab onn
lau ghter
back s
pass es
pati bel
iso de
verank ert
Abo ve
G I
M iet
f ault
r hetor
gr ants
ges unden
Le hre
viel fach
Christ demokraten
analys ieren
Prä z
stö ßt
einzur ichten
ö te
Sch ienen
inter view
Qu ick
stärker en
church es
künd igung
zusammenzu arbeiten
vor kommen
real isieren
deb ian
sport ing
thes is
gericht shof
Gefangen en
Clin ton
L ul
g li
less ly
character ised
Shop s
shar p
kurzfrist ig
Tunis ia
G ulf
J ak
un ken
Tour en
passen de
interess ieren
orient ierte
appreci ated
distingu ish
Ibiz a
e cht
Pro per
abge halten
Verzöger ung
et us
Er wer
into ler
deb att
sal on
gewä hlte
Koordin ation
fried lichen
konzip iert
ge opolit
Be auty
stre cken
AC K
ruh iger
säm tlichen
intell ig
Eure x
Anhän ger
Moldo va
B ret
P ast
in begriffen
ate ur
prob ieren
Muse ums
ly s
St off
Fr att
Auf wand
author isation
found ing
hä use
excell ence
Hel p
ikal ien
C ab
r ungen
ou ver
Ar zt
kon to
Anwendungs bereich
Ernähr ung
re cover
lo vers
Se villa
Gu ard
share holders
Col or
immen se
A zer
L ow
Mon tre
di agnos
schütz t
niederländ ischen
F lo
N ight
ver gangen
sign ature
mult imedia
Stad ium
favor ite
Gesell schafts
W ellen
um a
ör t
trans mit
grat is
degre es
bas es
por no
Dien sten
Tot al
R ang
wi dr
ol as
can o
unter graben
Zu behör
sy m
198 4
Tex tes
prohib ited
W A
b aum
ch amber
th ly
re z
La eken
Ukra in
н е
read s
Natur ally
schul den
ent a
ies e
For est
Erkennt nisse
anson sten
L och
P om
be at
gu idance
my sq
hier arch
So weit
clear er
activ ated
kre dit
Dan ke
Ober flächen
lager t
beeinträcht igt
bann ed
deem ed
C i
P AR
Verein igung
schl üsse
bir ds
estim ates
Monitor ing
E ther
H ur
in as
In dem
inter governmental
Vor sorge
beit rag
appro x
roll ing
ent scheidet
den selben
ere ien
inv itation
Bed ingung
food s
erziel le
Mos kau
k la
alle t
kon sult
bon ds
Partner schaften
Untersuch ungs
Eti kett
m ma
an schluss
forder ten
berecht igten
photograph y
j ack
greifen den
General dire
surv ive
Slowen ien
erno byl
tremen dous
A vi
L ido
Q uer
c art
an to
fr au
Grund freiheiten
Log o
Gel ände
ias m
F T
ens ional
ambit ions
L ind
Be zahlung
back ing
üb lich
Erwachsen en
wof ür
B ünd
im prison
unter wegs
min eral
ständ igkeit
cho osing
Tats achen
circ ulation
orient ierten
verbind liche
pursu ing
gesund heits
mak ro
po et
bad ly
ASE AN
asiat ischen
proxim ity
S ess
t ape
Ö konom
all ies
con gress
Er ste
pal ette
asp ir
Div ision
tox ic
Implement ierung
z iger
An näher
Ma ison
EC T
för m
search ing
A ka
E K
ak i
dis par
gel ung
global ization
bereit zustellen
AS P
though ts
ersch ienen
Anreg ungen
S wo
T ut
Be zir
Min eral
Vorsitzen de
Verzöger ungen
R ay
Jack son
aufrechter halten
un prece
den y
Adv anced
Vor wand
visit or
Befür cht
d ust
ter y
Au di
Gr ab
grün dete
konstru ktiven
al ed
inter essen
Ber lus
Al ong
orient iert
iling ual
tail ored
Fragest unde
C ube
b und
ro ut
im plies
stat ut
mon d
geord net
Konflikt s
Komment ar
Lanzar ote
Ch ann
All ow
IS T
subsid iary
prefer ences
teach er
N av
d in
ein drucks
Fratt ini
V öl
auf weisen
St ore
li ver
str ik
einz iges
irgend einer
ifi able
overwhel ming
el led
dire ctions
Nor way
wan ger
Integr ations
announ cement
Alban ien
münd liche
lingu istic
A to
be wertung
am bi
ne ider
ex empt
durch setzen
Ab stand
Tr ends
hö he
sy mb
congratul ations
depart ments
A ma
des per
str iking
ev il
ru hen
govern ed
modern es
betre uung
mind s
gesetz te
günst iger
L uz
sch alter
ier er
zum al
Tr ink
eng agiert
fäh iger
Stre cken
engine ers
Einfl uß
C ore
G all
Y a
is c
ver gleichen
ad her
ben annt
Er ika
bl ings
schön er
verm ie
Fron tex
ab und
cons ulted
prom inent
größ t
cript ions
Nicht regierungs
gesellschaft liche
transl ations
Ereign issen
C hal
M ID
st ics
Co uld
Mar c
mach ten
special ities
prevent ive
vorher igen
reisen de
Effe kte
Ern st
Perspe ktiven
Z in
en force
re press
hier mit
Mon ats
typ ische
Dis cover
Urspr ung
D ur
S H
dam aged
separ ately
lok al
stake holders
Sch en
12 8
Far m
IL L
beseit igt
Erdbe ben
mo unt
Ber u
mar ri
hon or
investig ate
compat ibility
celebr ate
Verkäu fer
k ord
do ctors
international es
bre ites
EC HO
account ability
wenig sten
ras che
Armut s
symp to
Aufr uf
klaus el
environ ments
Arbeits weise
stre it
Air es
gegenseit ig
coher ence
Fut ure
e e
kom fortabel
Priv acy
Jahres bericht
vorher ige
parlament arische
übr ig
D U
re furb
be fre
um stritten
cont est
schnell es
Rel ations
Distr ict
unanim ous
wünsch enswert
Mug abe
к а
er re
pe z
Co ast
Lam an
Admin istrat
secur ities
incred ible
Echt zeit
G ift
j üd
at ie
all iance
end igung
them es
challen ging
moder ate
analys es
unprece dented
Im pf
Wor king
bit ter
neut r
st amp
ater ie
redu ces
assess ments
stabil ität
erb aut
Rind fleisch
d ün
k ommission
л и
be fried
El ite
schwe mm
S in
re conciliation
err ichten
trä ger
einzel ner
Som etimes
gä be
H ôtel
k ed
s can
der iv
em it
fe els
requ iring
glück lich
Pot ential
Legitim ität
Buen os
R ö
re if
TO R
Binnenmarkt s
Addition ally
at ile
ic ate
Produ cts
türk ische
Brut to
ne ur
We ek
sub stit
ru he
allgem einer
vertrag s
chocol ate
F TP
ange hören
Über setzungen
domin ated
quant ities
qualit ative
Relig ions
enthus iasm
d angers
ab gesch
pe ak
Stand punkte
Buch ungs
Integr ität
sus pic
bran ches
d einen
ab gest
Menschen handel
OR T
196 7
Medik ament
G L
L ange
á r
der ived
if ferenz
res ign
Bol kes
d ul
al on
ab stimmung
Con tain
har te
jeweil ige
Vorbereit ungen
öp fen
calcul ated
An zeigen
sh ots
opt ical
grundlegen d
dring lich
investig ations
dee pen
Tenden z
E hren
me id
Ch ild
Rahmen s
Kl uft
br enn
Finanz minister
Kredit karten
temper atures
S ab
nen nt
wend ungen
komm erzielle
verb ot
Har bour
Est onia
Fein d
U PS
v ina
müs se
Spe zif
further more
Bedien ung
abandon ed
g lob
w inkel
con fron
Präsident schafts
az z
mir ror
Lös ungs
DE M
rail ways
Besonder heiten
Ker nen
Ausnahm ere
G am
ro g
Finanz iellen
Fern seher
ries ige
adjust ed
Bis her
schne iden
rand om
S her
ung arischen
bes tens
aufge hoben
Hö hen
registr ieren
analy t
tief st
Fuer te
S ien
or ig
kon sequ
hä usern
sprech ung
S OL
s lip
ze igten
tro cken
Parlament en
fir men
economic s
Informations gesellschaft
infra structures
defen se
concentr ated
shap ed
know ing
check ing
adapt ation
marg in
tradem arks
er freul
as mus
be greifen
isp ens
klar es
bi ologischen
bro ch
Ca stell
H I
e cho
pr on
Qu artet
Gleich behandlung
vol unte
dest abil
Mer cedes
genet ically
Attra ktionen
Hit ler
Bolkes tein
B lau
oc ra
sa ison
jähr liche
ckt ails
begrenz ten
tran se
ignor ieren
parad ise
Präsid ium
Bar nier
contrib utes
Gelegen heiten
enor m
fried liche
fein d
müß te
sudden ly
Minim um
habil itation
Z ä
al beit
ten der
back ed
markt es
Eur or
conv iction
ot a
An kündigung
Be endigung
mo des
land wirtschaftliche
Alp ine
dele ted
sincer ely
A A
zu tiefst
all a
mar ke
versch oben
contin ually
Ta bellen
clar ification
Sil ber
Hil fen
exklus iven
B road
w unsch
ha ven
Be frei
was h
inv ested
contin ental
label s
l uft
Be weise
ug gling
Forsch er
kürz t
g od
ch ambres
is ms
ge fällt
bes cheiden
Ein tritt
Ch ip
eng ag
dictator ship
Mit wirkung
gesch oss
lä ß
laub nis
lei ht
AK VIS
Rand e
Effe ktivität
sin ken
Current ly
ch ip
ein schlä
aus gesch
gr üne
Ent decken
ott i
Unions bürger
propr iet
bo gen
Stud ium
bemer kt
S ak
c ular
л ь
re ine
for tz
up coming
ident ical
fü hlt
Auf sicht
best immung
Über leben
Dire ctors
Besuch ern
W örter
g au
p ipeline
tr es
La bel
pat ri
gere chten
IC A
Je den
Enter tainment
Umstruktur ierung
ta ine
Ab gesehen
zeit raum
acc used
bor row
Schiff s
Par ks
new spapers
versch ieben
verständ igen
hinzu weisen
leb te
autom ated
P G
änder ungs
iar ies
steigen den
Ca thedral
Doc ument
L ar
W ats
er be
om ed
pr an
unter streicht
mer ch
gesch neider
voll ziehen
effe ktiven
haus en
197 8
discre tion
Tunes ien
F ix
k id
l iv
s li
un likely
st anzen
gem achten
energ ies
conne cting
mail ing
assum ed
Vor bild
dis mant
Part ition
Netz es
combin ing
intens iven
obtain ing
an ony
re ale
Industr iel
condition al
seek ers
erreich te
g if
br icht
ausge glichen
ides how
Fol glich
Pe king
formul a
Blue tooth
belg ischen
Ernen nung
Mean while
ocra cies
B liz
de central
ver setzt
ab zielt
Mar ine
Car ib
vorsch lägt
adequ ately
appreci ation
stab ile
un certain
min ing
Qu ar
eig nen
institution en
fif teen
wo zu
fe iert
dis semin
öl le
Fert igung
ur z
ind ispens
liegen de
finanz ieller
Lie blings
super visory
Kur se
board ing
vorange gangenen
unab ding
Ab stimmungs
real ized
Zwe cken
sum mar
Energie versorgung
writ er
character ized
Statt dessen
constra ints
Hann over
3 rd
C ad
auf trag
emp find
Fl otte
lö st
N ev
Sie he
Al ber
Spiel raum
Ben ach
hy per
Sowjet union
c ulation
ung es
em bedded
qu ery
bo da
viel falt
fra gment
All gemein
different ly
Auftrag geber
Zul assung
Defiz ite
enem y
Baron ess
Virt ual
s alt
uld ung
Ab fälle
Flü ge
Liby en
ver nachläss
lo op
just ification
mess er
Stat ut
dauer hafte
Hong kong
grö ße
return ing
anne x
C IA
as ma
cr ystal
capac ities
Dar auf
Net to
hum ans
verhe er
p ione
ed iting
il a
ide alen
fre ies
gem el
zie he
mem or
E cke
schwer er
Erwä g
G raph
H ass
Se gel
amt ierender
Wachstum spakt
Hinsicht lich
B ath
we ißen
ive aus
per formances
we ichen
rest aur
kom patibel
bereit stellen
197 5
Ganz es
Regard ing
f et
er mitteln
ant on
Aus fuhr
Kol um
nütz liche
N H
el son
Sch uh
str ive
Bar ack
Man che
perman ently
string ent
enthusia st
Verme idung
Getre ide
Wats on
bie gen
iger weise
ven te
Nor wegen
gere chnet
div ide
W HO
m ischen
th ro
ge klärt
special ised
wan dern
remo ving
Sim babwe
Wal es
breath taking
C res
wer be
weiter zu
ein schrän
ma ils
part ially
ät ter
dam aging
host ing
Che mie
IR C
Wolf gang
H art
k ids
ö ten
die t
ter a
gr ab
spiel te
tä gliche
Dring lichkeit
Welthandels organisation
M old
N R
er suchen
ct ure
ped estr
mi xt
zuverläss ig
I O
S us
m äss
n ick
month ly
break s
hung er
Out look
K ok
ü sten
co inc
dis agree
Sp uren
gra ve
Trans it
semin ars
Plug in
elig ible
D ES
i qu
kon fli
Ze ug
Ziel setzung
camp ing
swe et
G VO
p y
в о
pol is
Me tern
ek ut
veget ables
systemat isch
cros sing
Sorg falt
Swo boda
d ot
f ere
ction al
ahr t
vers prochen
stru ck
sim ul
weap on
Hor iz
Aufre chter
B ob
bere ite
Im pulse
deut licher
schn itts
hof ft
demand ed
tie fe
defiz it
J en
Kon vents
Fre ie
herr liche
Cr imin
Infrastruktur en
Jahrzehn te
w uchs
be zahl
ver knüpft
ess er
unter liegt
Ge ber
Ent stehung
cr yp
att formen
proje kten
AS T
competit ors
korrig ieren
Cult ural
K loster
L aur
al ition
besch luss
st reichen
ach ing
ine quality
eng agement
ausge legt
imp etus
schön es
bol lah
Fu j
K E
h ütung
ill en
bed ien
invest ing
Ak zept
K ul
Al gar
zahl reicher
verein facht
Dan ube
verhält nisse
Nachbarschaft spolitik
Anne x
M ary
k andidaten
or th
Che chn
islam ischen
Telekommunik ations
exem pl
gip fel
Berlus coni
h üb
re ward
prom otes
Ste fan
hervor zu
flo wers
komple tten
ausgewogen e
Build ing
r ivers
not ification
heit lich
stra ßen
particip ated
grün dlich
intens iver
transl ate
bemer ken
anspru chn
K el
ver bieten
ges unde
heim er
Ka thedr
Allgem eine
DN A
M AR
wir r
lo ben
che f
durch gesetzt
Gleich heit
Außen grenzen
sex uellen
jah rel
Toler anz
re vol
Be griffe
Er rungen
Con c
Mer cos
Wohl befinden
Behinder ungen
quantit ative
zwangs läufig
o ge
dies mal
Fund ament
jung er
Cot on
strö me
Mitt ler
D ry
K S
b org
us sten
In fe
Er reichen
Ab out
net te
Daten banken
unmittel baren
stimul ate
distin ct
permit s
pran ational
L ama
O ze
un limited
be e
up pe
fünf zehn
datab ases
Man hat
interpre ted
Singap ore
k ok
el ong
so w
ex zell
ann ten
zusammen hängen
schein lichkeit
centr ally
Bal i
Hol y
Ju den
Konfli kten
constit u
Schwimmb ad
anspruchn ahme
p iano
am an
sch rieb
vor geschrieben
ph on
Or ts
activ ate
optim um
independ ently
dro ht
gradu al
Auseinander setzung
Ärz te
L amp
Ver lag
Chechn ya
H osp
an streben
pol ize
Equ ip
zauber n
stret ch
ic ker
For st
ium ph
Haushalts jahr
avo iding
Therap ie
B outique
p ull
ant ic
ho b
sen det
bes agt
Pal ast
Alle in
gas es
advoc ate
japan ischen
Annäher ung
e urop
f usion
est one
versch winden
Mercos ur
y ellow
an as
ar rested
ge kauft
personen bezogenen
B ast
ein genommen
aten te
che ese
Sozial politik
gelten d
zerstör en
winn ers
vorrang ig
p ine
al ive
ab uses
Ent spannen
counter fe
indire kt
Ann ual
defe cts
Aufrechter haltung
H orn
R ather
re ck
re tr
ter in
ex klusive
wor auf
Le gen
Col um
curren cies
Sä ule
bekräft igen
t aught
wer tet
id al
men ü
end ienst
IC T
Mem ory
u ay
he ik
Fr isten
rest oration
besser es
anst elle
dien sten
Element en
Coton ou
al and
sch ol
Re cord
off set
harmon ised
Chem ikalien
w olle
ger y
ide ological
leb ten
tur no
reb ungen
Reihen folge
on ze
ste ckt
Aus gangs
tens ions
wand eln
h ire
at tain
vor ne
Ber ichtig
Mon opol
Gen f
analys iert
N ar
P OS
ct u
hen sible
ins ula
gest alte
num er
sk ill
Pal azzo
hope fully
Unser er
kü m
a ire
ver leiht
Land e
verstär kten
Sen ior
P XI
re venues
qu art
tr itts
Se kret
bo oth
leben d
sum mary
anzu gehen
wahr nehmen
Fortsch ritts
kir che
thumb nail
Kore an
beach tet
umfassen des
Stellen wert
R ES
art ikel
bo le
For en
Welt markt
Sh ort
profit able
stät te
Verhält nisse
t tes
An sprech
Be achten
Ein heiten
Al arm
Sk la
scen ario
inevit ably
Reicht um
Treibhaus gas
d icht
ein gerichtete
de penden
ord nen
gu ides
Über rasch
wirk licht
IG C
philosop h
Tschetschen ien
or gen
so cially
res cue
vor haben
Tr ennung
Lie b
Bal ance
Mag ic
verw öhnen
C athol
N OR
re chnung
be ars
sur fing
herr schaft
197 6
simpl ified
motiv ated
regelmäß igen
coal ition
B la
v ierte
el ite
out lined
hand ic
sol ving
setz ungs
zukünft ig
er we
art ig
ator ies
Spe c
PC I
Mult imedia
Lu kas
freie m
bag s
ver suche
ver wirklicht
so zusagen
com pound
che cken
Con tra
real ised
führen der
let te
convenient ly
Lim ited
Territ orium
resum ed
be legt
so zio
get es
öff nete
Erd öl
Leiden schaft
Argentin ien
s laughter
ge folgt
Aus stellungen
Ge geben
Solidar itäts
fundament ally
hazard ous
Vermarkt ung
in y
ens hr
Internet seite
zo om
Einw ände
inevit able
7 50
A zur
r hyth
р и
it ären
no se
ang o
bre cher
Fl ach
Car l
Kred ite
circu it
I DE
pro liferation
Aus sichten
industr ielle
einzu stellen
IV E
Carib bean
ut or
pre jud
ath on
Sol ange
Dafür halten
L ett
ge änder
ab schluss
Vor stand
dis covery
Lin ken
inform ations
Archite kten
län gere
Ty pe
tie fer
gather ed
indispens able
be her
sie d
verschieden sten
Kl är
Dol met
Entsch ädigung
offic ers
T ast
b ungen
co d
über setzt
los es
kul in
rough ly
Kons umenten
Indik atoren
Kernen ergie
um gekehrt
urop as
Her angehen
Entwicklung spolitik
prof iles
Jugend her
fehlen de
p ad
prov in
Dies el
sur plus
IL O
vernünft igen
C u
R ating
tr au
öhn ung
conv inc
al ien
ge ehr
In anspruchnahme
present ations
ilt on
Crimin al
den z
bes ie
Sp onsor
betr ug
kenn ung
geschlossen en
Don au
emiss ionen
koordin ieren
nachzu denken
vorzusch lagen
F ine
c kets
ap olog
für chte
Re den
Kon solid
Med ical
plug in
Szen e
U B
sch ar
Mit bürger
trans formed
Komm ando
Sicherheits rat
Wh irlpool
Mer kel
SP A
Kompon ente
Moz illa
preg n
Völ kern
g on
t welve
min es
anz usch
Druck er
Graf iken
tradem ark
R F
o cean
al ar
aus gebaut
Tag ungs
dig ungen
Golf platz
DVD s
Mobil telefon
Roh stoff
systemat ically
unter en
Geschäfts bedingungen
separ ated
observ ations
gelö scht
cuss ions
De kor
open ly
law yers
Christ ians
Pan el
beant ragt
be fehl
sp ont
ex ecut
deut scher
Fun k
Cha os
E VP
P ict
н ы
ent ities
des ert
Wo od
schn itte
don ors
korre kte
explan ations
Semin ar
paint ings
opho bia
M PEG
zu lässig
bes etzt
sh af
now adays
wen de
Tr ust
down town
Grand e
PV C
Foc us
A ge
G astr
K R
g ste
zu kunfts
os ion
su pranational
Zug leich
198 2
Solidar ity
Sum mer
delay ed
s ick
le idet
el abor
fr es
An zeichen
fin est
ue ber
cap ability
Del uxe
Moder ne
Nichtregierungs organisationen
G EL
unter einander
kommen de
ifik ation
schwed ische
Vict oria
D rag
D ifferenz
re pression
ko oper
constit uen
scen ery
Ot to
Algar ve
M asse
p up
er l
zu gewiesen
auch t
Pal m
mod ul
consist ing
symbol ic
ma j
mehr erer
wieder hole
prec aution
bro ther
rein forced
employe e
beeinträcht igen
begeister t
oppon ents
an che
ein gerichteten
iz ität
14 2
jud ges
block ed
tr enn
speak s
anders wo
glob ally
b ands
In tens
Stat ute
Lo ve
ari os
moral ische
T ap
ge fahren
de priv
pr ints
ges orgt
Ho heits
med ien
Finanz rahmen
proced ural
Demokrat ien
home page
sus pension
Pf ad
Orient ierung
envis aged
abstain ed
g aming
t aten
bei hilfen
sup ple
del le
radi ation
Dikt atur
gestr ichen
Manhat tan
T iro
z á
igen te
Form el
Gu atem
mel det
Loc al
semin ar
koh är
indigen ous
J ud
N ear
d ol
ma ker
Re view
Sch iffen
Th un
selbst änd
integr ating
Tra ck
rece ipt
Hier bei
ba thing
klass ische
retire ment
N ob
Jahr estag
New spapers
criter ion
Mü he
warrant y
A venue
P hasen
flo wer
freund licher
rob ots
überein stimmen
C 6
K arel
b old
wi re
rä gen
sty les
resol ving
Augen merk
restrict ive
proto koll
Automobil industrie
M uch
p el
ge worfen
to wel
che aper
Le der
act or
Nach folgend
sour cing
C os
L an
d al
t w
man o
Er leichter
Grün der
Demokrat isierung
review ed
furn ish
Fok us
Z ellen
ge omet
ung erecht
lin king
Mo unt
install ing
bevor zug
touch ed
reci pro
we t
separ ation
Que en
tatsäch liche
s lich
an bietet
us chen
Ver schie
med iterr
crimin als
198 3
stop pen
voraus gesetzt
Anmer kung
nör dlichen
v ierten
work force
lin der
Nach teil
ausge übt
druck en
Wahr scheinlichkeit
Gesam theit
F RE
K up
c ens
er zeugung
al g
ge werb
pr ide
Natur a
disast rous
vig il
Johannes burg
Kathedr ale
M u
be freien
Sch okol
ill ing
Mar bella
hel m
fahr zeug
carr ier
congratul ating
Met al
Ty rol
bound aries
zuges chnitten
t ighten
u ct
be hold
inter ference
bin sel
count less
Fel sen
dän ischen
I sa
m ild
r ation
An reise
über wält
pl äne
Auf träge
inst ability
einmal ige
verl iert
Ben j
Natur katastrophen
week ly
beant ragen
R ational
U EN
über wiegend
ins on
begrü ß
feel ings
beglück wünsche
benach richtig
lev ard
gr id
pl ot
aufge worfen
schl ies
subs cription
indirect ly
the ast
ein bringen
Rechts sicherheit
chem ischen
Stellung nahmen
clo thes
VI EW
t v
port ion
fort schritt
star ker
ält esten
Man chmal
sk illed
Hal binsel
Tax i
e co
re präsent
ex tr
inter faces
Zusammen bruch
differ enz
admin ister
Wahr nehmung
größten teils
gy m
sü dlich
celebr ated
b ou
b ust
p pe
qu oten
gemeinschaft liche
dauer haften
angehör igen
Vorbe halte
einzigart ig
fortz usetzen
G h
a wait
ic ular
Ein wohnern
Vor gänger
chn ungen
exam ining
Gesetz geber
rig orous
häuf iger
Res pon
Dienst es
Komprom isse
Gewähr ung
Muslim s
griech ische
alp ine
H ell
L ust
b less
i ös
k anz
re fined
am ination
ut ze
design ers
frist ig
veranst altungen
religiö se
Frü hl
L anka
an bieter
im ir
mach e
Br ust
Kar ls
Roman ian
folger ung
uba i
Kranken haus
mo on
bar bar
genau en
meisten s
G ur
l oud
re production
point ing
ausge drückt
ucht ung
bew undern
graph ical
hinzu zufügen
vorhand ene
Bör sen
ok ed
Auf stieg
IN I
stay ed
Material s
Lod ge
inno cent
ver breiten
trans mitted
capital ism
Kop ie
Indones ien
Erneuer ung
D id
K la
an fangen
lif estyle
Sub stanzen
Ratspräsident en
Tha i
transatlant ischen
scrutin y
b ub
t licher
v ation
be wirkt
Be förderung
unter strichen
De ep
Bere chnung
15 00
Dis abled
einzu leiten
limit ations
Leistungs fähigkeit
Lok al
be weist
ver glichen
gu itar
pra ise
tin y
rig id
nutz ung
libr aries
Bege ister
geschätz t
Weih nachts
y ch
be haltung
stat ute
groß artige
Vir en
Wur zeln
allmäh lich
Nukle ar
Chann el
A la
T ony
f ib
т а
ie ß
Aus fahrt
distr icts
A x
ion i
te c
ol ly
dem ocracies
stat ing
vo ices
fest gehalten
nam o
Car los
bill igen
Vo y
excl ude
Ret urn
H altes
M ä
Fre ien
strateg ien
Span isch
erwar te
ideal er
Industrie politik
abzu lehnen
cin ema
öp fe
dahin gehend
Sah ara
M é
R oss
mer zen
imin i
pan els
parte i
imper ative
J ane
S ust
T hal
ak ed
Ges etzen
Inter view
zeit lich
Pra ct
Sign ale
audio vis
subje cted
labor atory
Lay out
ut ility
inv al
Mal ware
Gegen stände
vic inity
dauer haft
CP U
safeguard ing
exc use
c end
in je
automat ischen
distingu ished
vot re
h aut
ab ot
Ver z
lo ader
br uck
Her berge
Im porte
währ ung
tradition ell
geord neten
Su chen
ench ant
pd f
f its
il ty
sch äden
ad verse
ag eing
ex ert
Al bert
bie tern
cal culation
hinter lassen
neues te
adi das
Her itage
Ein bindung
jähr iger
betra chte
vertr ieben
refuge e
bedür ft
Conver ter
f ter
ein setzt
ro les
saf ely
cell or
sum s
civil ians
Eur oc
berecht igung
schwe igen
kompeten z
Messen ger
hect ares
B ung
T C
W ritten
c ere
the men
men schen
landsc apes
außergewöhn liche
Immun ität
influen ced
Sien a
K az
S äm
in comes
Ver hinder
ign ano
Buch staben
Folgen des
vielfält ige
unanim ity
L y
r of
ü chter
In ns
up load
Se gment
deliver ing
threaten ing
fes thalten
Mold au
st ir
be legen
must er
bre ast
adv ances
Ac ro
kennt nisse
Lat via
hear ts
Rede zeit
kill ing
Guant á
B ike
H aust
M oh
Landwir ten
Champ ionship
monopol y
entreprene urs
Zin sen
M ast
ó w
ö hnt
gre w
But ton
house hold
dre hen
erweiter te
sensit ivity
stechn ologie
Gran ada
Bru der
an es
re fund
Kr upp
wal ks
roh ungen
Nam ens
ar ises
el en
sch all
Ver stoß
coun ting
chs lungs
vorzu bereiten
kommun istischen
inspir ation
B ind
ungs system
bl as
electron ics
mangeln de
B end
In cl
ex isted
com promises
letz tes
schein end
dra fts
ton ight
ikan en
Hier zu
Partner schafts
genü gt
Imper ial
Ora cle
л е
Ver sicherung
weit em
dis appear
gesch le
gesch windigkeit
ru led
eng agieren
mult ilingual
Kre atur
dee per
al y
ab teilung
star tet
veröffentlich ten
E V
K L
ent ity
bes ides
cess ions
stär ke
top ical
schnell st
wunder bare
Guantá namo
de cess
Au ft
kl en
kle idung
Fre ib
Wer de
exten ds
Angel es
Z ap
h ub
p flanzen
in sel
de ar
aus bildung
Oper ationen
Cr ist
s elt
an ien
Ein ladung
Ab sol
Zeit ungen
gleich zeit
ME DA
cul inary
Prov ider
Bang lad
Spezif ik
ange führt
leich ten
Mehr ere
chs elt
D ays
ver teilen
Gr ill
cer em
inc ere
Ziel s
Sa x
feed ing
resort s
Temper aturen
t ub
fa kt
pre decess
unver meid
Angeb ots
argu ed
recru it
D eine
Ge we
Europä isches
wick elt
Frankreich s
proportion ate
D G
v illas
fa ktor
tel n
consult ations
belieb ten
Atom waffen
zivil en
getes tet
R osen
W ay
s arge
la va
benöt igten
HT TP
pill ars
Straf gerichtshof
män n
t ü
auf tritt
lo an
Ap plication
Bre men
d oppelt
ver träge
Un glück
organ s
ausge hend
invest itionen
Mot oren
Mart ini
stock ung
Nahr ung
Ul tra
Face book
K andid
W hil
r ischen
et ime
kt on
aus machen
was hing
gener ating
tem plate
Ur ban
Durch führungs
optim alen
196 8
Erd gas
autonom ous
Verpack ung
deleg ations
Migr anten
städt ischen
weiter gegeben
Zu erst
inst ant
R ückt
k amera
Ver gabe
St alin
gre y
mus lim
Artik els
schlimm sten
multilater alen
E ck
S ave
kon stitution
distrib utors
197 3
Neu igkeiten
cool ing
eli hood
Controll er
benachrichtig t
H ER
n an
ein wand
tr i
fin der
gän gen
credit ed
abzusch ließen
endors ed
ne ys
auf richtig
19 20
immer hin
vis as
Tr äger
enz a
Les er
Hoff nungen
ausführ liche
R ain
ig ter
gel aufen
Gro ße
16 th
defin itions
Dienst stellen
expl oring
S R
An sätze
str enger
uss y
Th ess
Jahr zehnt
finanz ierung
Sim ply
qua ke
Gült igkeit
Ether net
be kämpft
if un
Nord ir
Tor re
IF A
Beitritts verhandlungen
inwie weit
an melden
Au th
work er
Co hesion
ty pen
is mo
po ul
pre vents
sa il
Sozial isten
regel ungen
gesetz lich
Sto l
d imin
g üter
Er werb
Auf lagen
paragraph s
Königreich s
Ungleich heiten
Colom bia
Sort iment
op f
stand e
Man u
bau ten
verein baren
Staats bürger
embar go
clin ical
O h
un al
al ows
En gel
mehr mals
det ention
cer am
Sou ven
angemessen er
Meinungs äußerung
Verhaltens kodex
Zustell betten
U g
V ic
an lässlich
ein heiten
Wir t
dest ro
Bas ic
SE O
ari at
erreich ten
voranzu treiben
Varian te
tra ils
He idel
far b
colle ctions
Mail and
App ell
Spl it
Hauptz iel
j ar
st eine
zu cht
tra p
US E
design ated
Fil es
198 1
dre ams
Tou ch
G anzen
M es
m ud
s incere
in correct
im o
ra chte
sie b
ins ight
zwe imal
after wards
Wor ks
aren a
len e
stu hl
assess ed
adjust ments
ac id
Aus stellungs
Bar o
dete ction
Tip ps
Migr ations
maler ischen
M achen
ent lassen
dr it
AC E
gratul iere
explo ited
koordin iert
decre ase
fru its
G ibr
W agen
u an
be hindert
sur f
herr sch
Pub lish
gesetz liche
Maß stab
Ve get
audio visual
N i
b ugs
u to
es ischen
om s
imm unity
har ten
commun ist
Air ways
determin ing
katastrop hal
Quad rat
Darle hen
W oh
ad mission
str ic
Ze ile
bed ient
Dem ocracy
bl ut
Ter race
Leon ardo
leite te
Chic ago
C lose
inter ventions
Se cure
Schau spieler
Swimming pool
O DER
b unt
p id
ein leiten
ser ial
Be at
war men
main tains
row s
Viel mehr
IM P
rup ted
Kraft stoff
Schließ ung
consolid ate
Whil st
D ia
en er
pro tests
Ver ona
pre ises
iti ver
top s
Gesch ichten
chan ces
Bas il
ref usal
Work shops
symp athy
schuld ig
K lick
b ä
wo und
her an
Ge fähr
acc umul
Sitzung speriode
Exhib ition
P ent
r ice
ab hängen
frü here
dynam ischen
Gal ax
etter ing
lizen z
C av
m art
auf kommen
ck ten
fr iger
Gemeinschafts recht
consolid ated
1 15
o ve
Un less
Con go
ichter stattung
verm ietung
worr ied
Passag iere
M ale
dat um
Stadt teil
Hindern is
agg reg
ie th
unter halb
Ab weich
best raft
wish ing
reach es
carr iers
bü cher
ß ig
ser klärung
Bet ween
fil ters
Zahl reiche
persön licher
K ameras
k ers
u i
is i
ein beziehen
au ction
om an
bes uch
ans äss
Ab wicklung
mar ried
Sp enden
versch w
contain er
Mitglieds staaten
Navig ation
st ere
ges prä
Dec ision
Autor ität
Schluß folgerungen
D up
n ad
and auern
ein geben
einz eln
wärt ig
tit les
quir ies
au gen
En des
Bürger rechte
Währ ungen
betre ibt
graph ie
Hol ly
bü ros
Anpass ungen
diesbezü glichen
C annes
p fe
or ange
ersch ien
ffe kt
In sofern
Un like
no ble
Obje ctive
Künst lern
secur ing
Benj amin
H und
M ER
af fair
10 5
best icht
techn ically
Bei behaltung
Gesundheits wesen
vac uum
bedür fen
Gio v
t auschen
el ast
ver such
ad dit
fl our
Mar ie
Zentr en
Super visory
abwe chslungs
Streit kräfte
obstac le
B G
er fassen
st ahl
af fung
com od
form ally
lin ary
Mö chten
mie ten
Colle ction
Thess alon
R imini
co ding
über flüss
du b
lin ing
20 14
wach stums
carr ies
demonstr ations
Kos met
irgend eine
concl udes
stabil en
Fischerei abkommen
regelmäß ige
fla vour
en compass
auf weist
aus genommen
end less
ear ned
De b
Im ages
No vo
posit ives
modern isation
vol umen
Sozial partner
distrib ute
ira c
unmittel bare
preserv ation
st roll
pre isen
Bl u
Sal v
ec os
compla int
Tit an
convinc ing
Verhinder ung
G EN
S ett
X V
к и
spr ung
Bre it
appar at
w aves
re vers
de kor
auf rufen
if er
ck te
pre ference
IT E
Tour ist
Ged anke
exec ute
schwar zen
kin der
Akzept anz
p estic
sch ien
ab geschafft
The atre
sho es
rei he
Po ettering
sleep ing
h ou
gen oc
ges enkt
Pr ince
begr enzen
jud ic
enh ancing
Environment al
Rä um
Frü chte
Säm tliche
re ben
än gern
respon ding
Wo hler
Bet räge
Ste el
Pos selt
div isions
sil ent
resist ant
Fert igungs
punish ment
r unden
ar re
St immung
some where
Port folio
sex uelle
thin ks
therap ie
Ten er
L angen
icht ung
best anden
miss ible
klar stellen
Verbind ungs
cycl es
Alger ia
M á
p ix
bes etz
Kon go
bereit schaft
mein t
bestell t
luxuriö se
Tw itter
A X
r ated
Auf klärung
pass ive
Comp act
Krit erium
Cast ro
Flücht lingen
Peters burg
Gegeben heiten
V M
W alter
ä gern
re fra
ian ische
sele cting
Projekt es
cra fts
Hunder te
B olog
R ate
re actions
ab ort
do gs
Pat ch
sprach igen
v iert
Unter haltungs
lim iting
reichen den
anzu erkennen
moun ted
Glück s
Konsolid ierung
Wohler gehen
Ne ed
Ne pal
amt ierenden
amt ierende
attempt ing
h lige
м е
Ver band
ex quisite
ident ifizieren
Er leben
äl en
Grund prinzip
EL L
outer most
N ür
S N
S og
de pl
ver handelt
go vina
12 3
Über schwemm
let t
bekann testen
OR K
üst ungs
rum än
herrschen den
verschär ft
Canc ún
A raf
L arge
Finanz ielle
class ification
lat ein
ge liefer
du plic
pl ung
ank omm
197 4
O d
S TO
ver setzen
ir respective
str ikes
cl auses
Her stellern
work place
inv ites
Über mittlung
fort geschritten
fest ivals
Je ws
model le
Entschließungs anträge
clim bing
überras chen
B eing
P el
ra cing
fin ishing
prov es
view ing
dec iding
dist ant
optim ieren
bi of
amb ience
Applik ationen
D ubai
I cel
c ements
un ches
In telle
Ar my
comm only
wenn gleich
lim itation
var ian
AS A
tie fen
Naz i
anwend ungen
compliment ary
re iten
am ment
Sch wach
mar ken
Grund stück
imp liz
arm ament
tschech ischen
L etzt
dire kter
rat ify
uf fer
reason ably
scheid ung
Priv ileg
Sub je
Ged ächt
wood s
Kapital ismus
Brü der
M ust
com forts
Ex ekut
hair dryer
definit ive
scen es
K ling
S ich
there of
sup porters
gu ilty
wert ungs
dür ften
young er
Netz werke
Eur atom
block iert
abzu geben
refurb ished
n as
co ins
Le ader
geb rachten
vo y
stre bt
Spiel ern
Besch leun
Stabil isierung
gewand elt
Temp el
G anze
un ified
sp at
sh ine
altern ativen
kil ometers
anspr üche
Erkennt nis
Bliz zard
re me
end ums
end anger
sicher ungen
human e
car go
col on
Fest ung
EL DR
Can aria
corpor ations
vereinbar ung
Infl ations
ne z
Se hen
AR D
Den k
ausgestat teten
Wä sches
U C
k w
qu asi
icht igen
sp äten
dis abilities
gra fen
gent le
pack en
safe guards
Lauf zeit
bedeutend sten
Komplex ität
Dör fer
geschen kt
E co
Z ell
h ut
iss on
ze u
Ne ither
Produ ction
pf legen
Gegen wärtig
aster y
Gal ic
meaning ful
schul en
recognis es
frag ile
marri age
J agd
Un ix
Pr ix
Bet a
symb ols
B IL
se ed
auf hören
mo le
hel ic
passen den
Volks wagen
gült igen
Sof ern
diplomat ischen
Interpret ation
L L
er mor
zu greifen
Un regelmäß
Er stellen
Se g
ak h
Aussch üssen
Gar da
medic inal
dead lines
confir ms
durchschnitt lich
Sl ideshow
antas ie
Gesetzgeb ungs
Begeister ung
w ein
aus geben
ans a
sho oting
cur y
No ten
saf er
crit ique
sac rific
A sh
U sers
le id
ver weist
ges chnitten
Vor gang
Bestell er
dep loyment
verlänger t
B SD
H ut
l asst
process or
Med ina
exp liz
lad imir
aim ing
Eur ob
län glich
D ür
lin ess
führ end
Gen der
wert vollen
zurück kommen
gehör ige
sus pe
steuer ung
Any one
Bir ma
Icel and
C anal
M uss
g os
es cal
par alle
tag on
Überein kunft
mod us
Vie h
Herze govina
E li
ein gest
ah ll
sh ire
wahr genommen
Versch ieden
Polit ical
theoret ical
Camping platz
unvergess lichen
Again st
Inns bruck
Wäsches ervice
Z it
re tro
ow der
Re ifen
Nach teile
Sta y
bereit gestellten
Gleich wohl
lis her
thir ty
H ague
e ating
ro tt
res id
Die jenigen
Me gap
Musik er
transpar enter
B org
C amer
L au
or o
fe der
setz ten
bre eding
Best ände
lauf ende
deli vers
indic ations
emphas ize
säm tlicher
außergewöhn lichen
Pfe iler
ex ac
ktion ismus
Bes etzung
trans national
dete ct
dynam ische
PH ARE
Lab VIEW
Parad ies
ident ifying
fol d
kop ieren
Joh ann
zuverläss ige
ü ger
ge zahlt
ent f
aus zus
Über trag
bu ffer
modif ication
herunter geladen
forest ry
h ungen
ge zielt
us ions
ter ia
no ten
per ception
Ungleich heit
Verpack ungs
Sust ain
E gal
ver ify
ug t
National park
valid ity
Bol iv
lac ier
c um
ver ordnung
est ro
We is
bas ierend
Sy nerg
Nutz ern
erkenn bar
Rä umen
cot ton
Hold ing
L um
c attle
for ma
loc ally
15 th
text iles
AT E
schätz t
sec ular
sparte ien
Persön lichkeiten
Chan cellor
B urn
K amin
s alle
it ert
al gorith
co at
Vor sicht
sc rap
Kommissar s
amerikan ischer
Download s
glo be
b ör
er ne
se ch
Re flex
mat ches
Str änden
Gen fer
wish ed
sight seeing
hers elf
wis dom
C SS
E tagen
T win
im balances
ir anischen
sp ur
Ent täusch
Fra gestell
Best rebungen
territorial en
inser t
L if
in land
au ert
An leger
rest ri
want ing
assess ing
vorgesehen e
rene wal
Sen der
revolution ary
Offic er
Diagno se
al uminium
ung leich
men us
ther m
kl ingen
ster ity
beob achtet
elegan ce
advis ed
quer ies
Grem ien
A wards
D ell
i ors
be hindern
om ass
im on
kl am
Nord korea
Fischere ise
pal ace
infra struktur
Cy ber
Glauben s
hors es
a wards
zu ständige
gew ichte
arr iving
fair er
hy giene
amm ern
ris iko
compre hensible
Est land
Schott land
ere ig
ger man
pre text
cost ly
don or
bekann tlich
stud ios
Sozial demokratischen
k ow
q m
r ors
st unde
de feat
Ver schlechter
Um stellung
Rechts an
jen ige
Rück sicht
Schwer punkte
genet isch
rare ly
beliebt esten
drit tens
ankomm t
O ffer
T T
ch art
ur ity
und i
se aside
he aded
Un it
über trieben
br illi
key board
Bed rohungen
personal ity
music ians
asser t
democrat ically
Kam mer
accompany ing
Con f
Ch allen
Sicher stellung
Foto kop
Gast freundschaft
Mitglieds länder
exception ally
certific ates
5 000
G lo
el te
zu erhalten
mo od
nach teil
rest ra
Up grade
vorzu gehen
stimul us
broadcast ing
kapaz itäten
Nordir land
E sp
than ol
mobil en
Mark us
knüp fen
Stör ungen
remed y
Geschäfts führer
attra ktiv
cast ing
schlä gen
Olymp ischen
gewalt ige
Gibr altar
ul o
St ütz
ann ually
Be grenzung
ass ador
Ent deckung
Tr ip
grün de
block ing
Beih ilfe
vess el
witness ed
Zert ifizierung
Funktions weise
vine yards
vorbe halt
F ro
O ME
l anges
v ou
er bringen
dis appoint
anz usehen
tun nel
introdu ces
Stre ben
niedr ige
vari ables
cred its
bedau re
pedestr ian
L ater
v y
be zaubern
ger t
ys is
Afr ikas
wind ung
download s
Lad y
Solar ium
tranqu il
Bolog na
A then
D ere
ab st
Ein blick
prote ctive
17 th
legisl ativen
class ified
stechn ologien
aka dem
frem den
N ich
ä ts
ern annt
Er krankungen
Nach folger
Verkehrs mittel
track ing
gi ant
aufrecht zuerhalten
perce ived
u els
iv o
pl ante
stütz t
Teil nehmern
österreich ische
Er fassung
Ze ilen
icher ten
Fahr zeugen
ürz t
krit isieren
Zwischen zeit
dramat ically
dau ghter
Alger ien
Ansprech partner
re ar
ier bare
da iry
cre am
Internet seiten
dig te
Ter mine
kulture ller
trial s
Song s
Tok yo
Beobacht ungs
a al
v ag
tr ation
Ein reise
Al c
Ne g
Dem o
lif ting
opt ionen
Kl aren
button s
flood s
---- ----
shoul der
at um
kt ives
port ra
Zusammen halts
wissen schaften
Ele ganz
dre w
Kan äle
Adr ia
flexib ler
B N
g aller
hal ter
Raum fahrt
fas c
Result at
Inf os
Thessalon iki
inc idents
Job s
G ig
H op
b les
me er
Be wirtschaftung
Fr ucht
sel ts
ty ard
broad ly
Doppel bett
beweg ungen
MID I
M M
lie derung
istr ib
Tur m
aufge griffen
Gest alt
bedeut sam
Herze gow
Deleg ationen
univer se
L IF
all erg
ad ian
zü gen
Zentr alb
l ighten
fa den
Te uf
Ro se
IT Y
prere quisite
A le
T s
w rap
ge einigt
den oun
ap pr
ad mir
ta ged
Se attle
Wieder ein
spart nern
Quart al
sow jet
exac erb
P um
y ield
Sie b
mass iven
wider spiegeln
Wi Fi
tenden cy
Telekommunik ation
L ago
ul ated
auf halten
per secution
ichte te
asse mble
Eben falls
earth quake
seg ments
Excell ent
T akt
u v
er for
in th
re friger
ver danken
ad resse
Über windung
Me thod
Ital iens
197 7
handel ten
Tun nel
rück en
Wechsel kurs
s ister
is tet
de pos
ag n
Aus lands
Vor mittag
rif t
Spiel s
Vol umen
send s
encour ages
ruh igt
bürger liche
diox ide
M oney
ic ons
weit et
Auf stockung
stat ic
Str ess
lang jährige
access ed
omen te
Besch werde
west liche
berühm t
jem anden
push ed
Pop ular
Bang kok
r anges
ro ph
ber ühr
pr icing
Her man
ful filling
whole hear
Inst abilität
Som alia
uneingeschrän kte
Cathol ic
C ell
d ossier
in appropriate
tra gt
Chin esen
wind igkeits
config ured
Sof ia
Moun tains
A 6
it uation
ap pl
über trag
Zu kunfts
Zusammen fassung
sam keit
Kin o
hard t
advan taged
Ty pen
Cli ents
freiwill ig
Hen ry
Geburt stag
Ec ofin
S z
Ch irac
son t
La undry
she ep
steigen de
israel ische
E specially
W ant
Er hebung
kon tra
inst aller
Can ary
Pos it
OS ZE
Pun ta
preserv ing
Übersetz er
complement ary
küm mert
s lo
ess im
hal ben
Par allel
develop er
Land schaften
Recht sprechung
Zentr ums
bi ologische
Kap it
kar a
inspe ctions
Kühl schrank
we iger
aus wahl
Mar io
Hand buch
val uation
Artik eln
aufge treten
Stein berg
Apar thotel
Guatem ala
L yon
N V
X Press
i pe
ro up
sp am
Se bast
ord entlich
Bü gel
K K
Ein stimm
di am
Ste p
pac kt
Freil assung
em otion
ib us
So le
All erg
Mon d
bank rupt
Vir gin
forese e
problemat isch
hervorzu heben
D og
G oth
R ub
W ende
m ira
Ein sparungen
cor respond
custom ized
food stuffs
diplom acy
Ath ens
orig ins
genoc ide
zu halten
Gemeinschaft sebene
attemp ted
bele bung
Fabr ik
Ukrain ian
E po
O W
ver sicherungs
part nern
Vor stands
bin nen
Stand orten
appe aring
OS CE
Del ta
Look ing
Zins sätze
Zo om
k lick
la de
Sch ritten
ile mma
Zeit alter
improv es
profit iert
Altern ativ
precaution ary
A lic
F ont
T aschen
ge denkt
am as
stand es
Fe der
kre uz
Kön n
maß geschneider
kompliz ierten
Skr ipt
Gelt ungsbereich
feas ible
E ye
w ör
st if
sp reading
wo ody
gel ände
min ded
Zu wanderung
understand able
mark iert
leis te
Wes te
Cor bett
gewöhn liche
agent uren
G öt
R ica
be arbeitung
bas ket
uni qu
geschütz ten
Bay er
Unregelmäß igkeiten
C art
L ü
T hr
er zählt
le ug
ent ziehen
be ts
An re
An sehen
ant iken
Ein leitung
Dar aus
schl ug
Stre am
Em br
Liz enzen
Wiederauf nahme
peripher al
Araf at
b ab
i ents
in et
Bes ichtig
gew ahrt
verl ängern
pat ron
getr offenen
formul ieren
Fü lle
Zul iefer
beauftrag te
kür zen
gam bling
Dolom iten
beun ruhigt
D ial
L ac
Ä ra
ein richten
ver pflicht
min der
engine er
Photo shop
Kohäsions fonds
D é
ve ter
ob gleich
komm ent
verbunden e
coordin ating
dynam isch
hom ogen
ala i
licens ed
macro economic
H ir
d ive
n est
ve t
rel uct
Tr i
fahr zeugen
tour istischen
rä der
continu ity
wider spiegelt
intell igente
psych ological
Mach ine
bilater ale
wh oles
Sch wanger
proble matic
Tro cken
pan orama
Ker am
dor thin
reader s
Clean ing
oste uropäischen
k ne
gen ossen
ide ology
No thing
Zus agen
Bulgar ian
Card iff
Ra keten
GM Os
appell iere
damal igen
5 th
Un i
Pr ies
10 1
Hand hab
gere chter
Sal on
IM O
advis ory
Aff il
R ichtigkeit
äl er
sam ples
seiner zeit
arch iv
parte ment
bom b
verwand eln
leite ten
Cons ider
Verschlechter ung
ges endet
Pr ice
Al z
new est
vie wer
protection ism
feat ured
erziel te
Jahrhunder te
Kle idung
cou ples
ausgewä hlte
Beweg ungs
Transl ation
N ick
y en
au sterity
Sch ein
ine qualities
hin nehmen
prote cts
event uelle
Beschäftigung spolitik
Erzeug nissen
erfahren en
manage ments
benach bar
kommun izieren
Vict or
confidential ity
Schätz ungen
alar ming
re im
con cessions
tr ick
leg acy
Beispiel sweise
Bem ühen
Bio kraft
flü gel
Mü ll
veran lassen
Silver Fast
V ö
ein satz
for ge
os o
bo ys
To ile
You Tube
Fort un
org ungs
betre iber
Exper t
Bundes republik
AV I
fem in
Mitentscheid ung
Konfigur ations
Auth ent
B rown
S hip
e chter
est änd
ern ing
any way
Parlament arier
att itudes
ausge gangen
Kol onial
Tex as
Cre ative
pain ful
Bro sch
veröffentlich te
Ange boten
Wall ström
Konzer te
Zut aten
B ass
N iel
Se qu
spre is
seit dem
lay ers
prior it
Informations austausch
proz essen
Lett land
ine ffe
oper a
Ad just
pack ed
Red ing
alp ha
berat ung
T iefe
er kl
ag na
ste ep
Tag ungen
Lebens bedingungen
list ing
BA E
flexib len
Ministerpräsident en
persu ade
man s
ong ue
Über sch
Art icles
Ko dex
kehr ungen
hy brid
Bu y
spa ket
Wart ungs
Zentralb anken
V itor
h ôtel
al ters
ter rain
Er ziehung
legen dary
Erweiter ungen
blo ß
foss il
Euroc opter
A dress
D ivers
P av
o on
ch rom
ver gabe
mö ge
kl er
mach ung
Me as
gemein t
fahr ung
priv ileg
Ferien haus
Privat isierung
Stu dies
verurs achten
Ox ford
Thyssen Krupp
W id
l ending
be ck
ex akt
fr ische
ze ile
stress es
verteid igt
consc ience
Jar z
Z ak
z ione
aus gestellt
ag an
ong ol
icher heit
high way
Vier tens
Kontin ents
strukture llen
irregular ities
thodo x
P ixel
V all
be geben
vor läuf
stell end
Fl u
To ten
transparen te
Bro t
Alp es
Verg essen
cerem ony
be acht
proble men
Fl üss
amend o
initi ate
Gra z
Gesicht spunkt
Lom é
rout ine
über denken
par ent
organ ising
bon d
irgend wie
Ang ola
Ul tim
poten ziellen
TAC IS
Herzegow ina
G y
S ardin
Re cycling
igen en
Auf stellung
sc ape
hoch rang
tar iat
anerkann ten
Kolum bien
S OF
f ed
v ort
С С
ern ity
Fra cht
let scher
kün ften
ME P
Ster e
zep te
schrift lichen
Rh ine
administrat or
myst er
Jarz emb
c igare
ch ap
de du
ing ton
os es
bet es
Industr ien
overn ight
F usion
d ungs
re conc
mo uld
Da von
13 5
dy n
condu cting
mächt igen
Ram blas
facilit ating
j ub
ge halt
dem nächst
An gehörigen
geb ungen
Fra ktions
Man uel
Demokrat ischen
attra ktive
Höhe punkt
cou p
decor ation
Roh stoffe
or ious
ac ute
Fr ances
comm ands
geb ucht
IS S
organis ms
konkre ter
valu ed
1990 s
scr ipts
regen de
Vort rag
Imp uls
or gung
ed y
dem selben
co operative
Er asmus
bre a
AT A
wissenschaft lich
Work shop
barr ier
privile ges
Prop he
diver sen
Mitentscheid ungsverfahren
Welt meister
posit ory
begr iff
24 0
irgend wann
Genau igkeit
remin ded
Gewässer n
intuit ive
be c
ct r
Sch ad
gesch ah
Bed auern
gehör te
Kur dish
unge he
umfassen der
verantwort ung
push ing
Konserv ativen
Verstö ße
mixt ure
K anz
W ies
ein räumen
au lic
il ien
über schreiten
geb ir
ful fill
Nach weis
Br ücken
lif elong
umen ted
Industr ies
hinaus gehen
pot ato
minister ium
Prote ktionismus
journal ist
ehrgeiz ige
Jac uzzi
Vul kan
reper cussions
C ra
M IT
T an
з а
co b
stär kt
War nung
poor er
4 th
B at
br ennen
vo or
jur istischen
Fotograf ie
offenkund ig
O ffiz
R out
g asse
to ck
de hnung
Be y
Li ikanen
Design s
zy klus
virt uellen
Ren ov
Rett ung
Verbün deten
einschlä gigen
th ou
el ten
ed t
ben en
Unter bre
spr ingen
Wohn sitz
definit iv
C ards
H ein
H ay
ter races
se id
art ic
20 50
Zu fall
antwort ung
zo gener
Pay Pal
YO U
formit y
Contain er
retr ie
P D
en cry
ie ur
Ver urteilung
sh aus
Mar s
comple ting
Pre ises
vert ical
furnish ings
n nen
to ys
be heben
tra f
Ne igh
Br anden
richt linien
Fest ivals
Maß stä
archite kton
betreffen de
Val ent
Liber als
Dienstleistungs richtlinie
enem ies
B row
R iesen
V ital
n ein
t ube
ab ends
dis advantaged
kon kurr
Auf teilung
gew ann
CO S
üt ten
Chr isto
Lie chten
Sy d
vergleich bar
Befürcht ungen
ier einrichtungen
Aus kunft
pre dic
Wer ken
activ ists
ban ana
OR E
corre ction
freund liches
tack led
Straßen verkehr
beschleun igt
wed ding
reim bur
Jarzemb owski
k anal
be lastet
aus zur
Pro be
Aus ser
ank ungen
möglich er
transp orted
AR C
Scient ific
Evalu ierung
O liver
n isch
un um
ho o
vor getragen
Pol ice
ath let
posit ively
har sh
Po ints
Form ate
Klim asch
Beschrän kung
Gedächt nis
h unting
ç o
pro stitution
auf geben
wer ter
unter nimmt
vis ibility
respon ded
spec ulation
defin es
modif ications
sus pend
höher er
Publik ationen
invo ice
Recent ly
H ad
L ittle
O G
sp un
St offen
pos itiver
dis advantage
inv iting
cont amin
pra xis
aufge führten
renov ierte
Band breite
Ausge wogen
G AT
S cr
j ug
r ush
ir r
wes ter
beautiful ly
Bre ite
tempor arily
prepar atory
bag gage
durchschnitt liche
Vari ablen
exem ption
weakness es
C MS
P ots
Ö kos
ö cke
tel s
Pr omen
zwe cken
lag geben
line ar
Stra fe
vol umes
smo ke
berecht igte
roy al
proz ent
Ros a
schreck lichen
kompon enten
C row
es k
Best reben
Haushalts ausschusses
Mail ing
hom osex
gewalt igen
Moz art
Kürz ungen
Veranstaltungs räume
b icycle
hr end
br ush
Ge hör
entr ust
priv ater
une qu
Fest platten
vert iefen
attra ction
beauf tragt
Klaus el
V A
k ör
m ig
to lle
hn te
wieder herzustellen
spec ul
mass iv
Wh atever
jün ger
elimin ating
offic er
Schnitt stellen
korrig iert
transe uropäischen
W ass
l uggage
ü pf
ro ten
deb ts
ausge prä
pur suit
pa kete
abzu stimmen
Photo copying
zö gern
B ull
C hen
U pon
br un
De pression
ausge liefert
Sit es
knüp fung
Prüf ungen
Word Press
anspruchs volle
sensib len
Cau cas
befre it
O ft
e hren
er mittelt
le uten
with drawn
ern er
order ing
Mitgliedsta ates
AN Y
Gegen den
erhe bt
verbind lichen
geräum igen
prop aganda
G utes
H E
P oc
R ud
b ikes
ä glich
In zwischen
Un recht
coun ted
schein bar
Ta sten
Natur schutz
Fischere if
DI A
Econom y
kop f
ehrgeiz igen
Fotokop iereinrichtungen
F X
S AR
de vote
In fine
access ibility
entsprechen der
commod ity
exklus iv
Pfer de
Hochschul en
D alai
re lie
pl äd
social ist
Euro just
folgen des
Sc andinav
kulture ll
retain ed
deliber ately
Hosp ital
P es
k W
fr ames
ast on
relev ance
accommod ations
Beitritts kandidaten
evalu ated
S ara
an scheinend
wi ß
wi den
ag net
bes orgnis
19 0
land ing
sequ ence
wand lung
gefähr licher
gän gig
geleg entlich
launch ing
züg ig
olo gen
liber ty
ex zellen
deb atte
bl ow
stre cke
kre ative
abge deckt
sort s
ober fläche
Fert ig
Turn ier
voranzu bringen
is ierter
pro be
ag ger
ph ony
di kt
sur gery
Med ium
And or
Global isation
wunder baren
Ann an
e ve
e per
om o
ver nehmen
se ment
ag ten
will en
bes ide
nach t
stell vertreten
tim ing
produ ctions
Im mo
technolog ien
initi ativen
optim iert
Informations schalter
Bot schaften
Rob oter
Rund funk
künstler ischen
scre ens
läß lich
enshr ined
A Y
r ug
Ger ne
success es
Energie verbrauch
comfort ably
aul ts
rhetor ic
2 30
c atal
und em
el o
unter zeichnen
comp iled
nach kommen
ord net
fol k
vir uses
Ste phen
bau te
Friedens prozess
Schrif tliche
Proper ty
pron oun
Giov anni
E cu
F E
K ub
at ar
über tragung
ste ten
Inter ventionen
zw ing
einge bet
burn ing
Sym bole
Erleichter ung
F res
N erv
f atal
h ind
an ium
ent es
he aling
com it
Be antwortung
nach folgenden
offen sicht
Tra v
[...]
