. 56642491
, 39980294
der 34560409
und 26056879
die 21158320
in 20942905
&quot; 17849450
en 15058141
er 15041339
@-@ 13896996
den 13620927
von 12317855
t 9962247
) 9862494
( 9853715
des 9443540
im 9020198
er@@ 8709591
te 8212346
mit 8040984
ten 7406136
dem 7335154
ung 7220512
en@@ 7078270
ist 6989716
wurde 6895326
s@@ 6856078
ver@@ 6541388
k@@ 6425292
als 6418470
das 6254407
S@@ 6217139
Die 6186032
an 6123706
auf 6111021
t@@ 6091821
sch@@ 6077864
ein 5910683
z@@ 5864863
zu 5708026
n@@ 5610978
für 5455196
eine 5425389
es 5381324
W@@ 5335372
D@@ 5132301
st@@ 5113571
B@@ 5041326
K@@ 4952892
sich 4950735
H@@ 4922395
war 4921760
F@@ 4902033
L@@ 4850939
R@@ 4783681
ä@@ 4647498
l@@ 4630019
aus 4610470
ischen 4573060
Sch@@ 4521931
be@@ 4508198
ein@@ 4491515
G@@ 4391737
Ver@@ 4377031
g@@ 4376423
w@@ 4177712
f@@ 4148871
e 4030391
h@@ 3971972
s 3958673
T@@ 3840490
d@@ 3763376
M@@ 3706100
el 3704413
g 3627978
am 3608046
ent@@ 3584178
lich 3579228
um 3577370
E@@ 3576488
m@@ 3574099
P@@ 3552149
auch 3535851
n 3519542
b@@ 3494644
e@@ 3434892
bis 3428960
ch@@ 3426431
N@@ 3377084
nach 3317793
: 3217303
bei 3202198
“ 3201910
ungen 3200344
el@@ 3189092
„ 3181527
r@@ 3176179
auf@@ 3088577
Z@@ 3083485
it@@ 3076577
al@@ 3057169
Der 3041904
i@@ 3040294
ter 2972536
le@@ 2963243
ungs@@ 2927028
einer 2875923
Er@@ 2860492
an@@ 2857047
de 2837533
sie 2833900
ische 2818667
zum 2810263
ge@@ 2796289
aus@@ 2774080
z 2757013
St@@ 2745174
au@@ 2719618
ab@@ 2663129
tr@@ 2659610
A@@ 2639989
ig@@ 2556019
V@@ 2465007
k 2449992
eg@@ 2447796
in@@ 2389644
An@@ 2332200
durch 2320259
ö@@ 2303210
ang@@ 2292311
– 2271555
über 2252740
eb@@ 2243309
einem 2240234
einen 2237353
ar@@ 2207858
Im 2181156
eh@@ 2170299
m 2162668
d 2144194
lichen 2137935
werden 2134984
nicht 2116366
ich@@ 2110333
Das 2109941
sind 2106098
ti@@ 2106019
re@@ 2075548
un@@ 2074326
or@@ 2055395
um@@ 2051564
et@@ 2033107
ur@@ 2027483
ie 2017031
ü@@ 2003072
on@@ 1997380
si@@ 1983291
; 1982774
ach@@ 1974026
et 1972196
In 1966053
wird 1965763
Be@@ 1962315
at@@ 1955460
zur 1943599
di@@ 1943019
es@@ 1939211
I@@ 1919624
ag@@ 1910915
J@@ 1899599
Aus@@ 1892699
f 1889375
ge 1878475
is@@ 1878316
ts@@ 1834484
p@@ 1824800
we@@ 1820391
igen 1810490
ert 1809681
u@@ 1808534
oder 1793400
schaft 1787846
der@@ 1772652
wurden 1772057
ot@@ 1771815
- 1741942
ek@@ 1735592
ter@@ 1723750
geb@@ 1723185
unter 1722814
C@@ 1722318
on 1714221
Ab@@ 1714077
wer@@ 1713249
j@@ 1705091
O@@ 1700893
ak@@ 1695947
ern 1678121
al 1678103
dass 1658534
is 1654526
liche 1627750
In@@ 1624619
am@@ 1606284
/ 1579432
st 1577647
sten 1577229
ch 1575267
il@@ 1573150
ber@@ 1571803
Er 1563168
Re@@ 1559784
of 1558246
gel@@ 1555291
and 1547857
Al@@ 1544951
enen 1540443
us 1535983
chen 1535490
l 1529638
unter@@ 1525910
eben 1520982
Vor@@ 1517812
Jahr 1508959
ien 1506815
vor@@ 1505313
än@@ 1505183
Ein@@ 1503623
le 1503584
gen@@ 1497104
ör@@ 1489467
Ge@@ 1487030
ger@@ 1485956
vor 1476058
ür@@ 1471192
ff@@ 1465987
he@@ 1458978
li@@ 1449556
im@@ 1447646
ken 1446715
U@@ 1438181
ed@@ 1428238
gesch@@ 1415269
bes@@ 1392094
über@@ 1391972
Ar@@ 1388321
br@@ 1385361
ens@@ 1374059
as@@ 1367770
Auf@@ 1364546
o@@ 1357229
är@@ 1346676
ol@@ 1343784
wie 1334867
or 1322538
os@@ 1310691
em@@ 1310032
y@@ 1294749
Le@@ 1280510
ene 1279391
at 1278806
th@@ 1273650
au 1264197
ich 1260590
af@@ 1254392
fer@@ 1252314
sowie 1251507
i 1246962
vom 1245994
ges@@ 1240765
enden 1238452
end@@ 1233735
and@@ 1230929
Tr@@ 1225766
us@@ 1223765
ige 1221462
seiner 1219334
se@@ 1217986
om@@ 1215615
id@@ 1212520
Gr@@ 1212202
Nach 1208716
v@@ 1207546
so@@ 1204000
noch 1198079
zi@@ 1196414
Kon@@ 1194375
Di@@ 1194225
est@@ 1189157
Reg@@ 1188211
ischer 1184122
ik@@ 1184086
str@@ 1176211
Br@@ 1172716
nur 1172185
hatte 1166721
ist@@ 1166363
Mar@@ 1166123
her@@ 1164149
stell@@ 1160806
elle 1146864
ir@@ 1139808
seine 1139634
ab 1135797
ul@@ 1134770
ens 1131625
spi@@ 1129150
sp@@ 1122235
elt 1119654
ier@@ 1115357
enn@@ 1113393
ers 1109938
aber 1109883
y 1108649
Jahre 1107549
de@@ 1106313
ation 1105739
iz@@ 1101618
gt 1098867
ten@@ 1097941
ah@@ 1097642
gr@@ 1096869
erte 1095733
ß@@ 1093107
tig@@ 1089737
te@@ 1087294
ner 1085800
ing@@ 1084185
Her@@ 1077420
und@@ 1077220
isch 1076048
o 1075837
ende 1074842
Sie 1071112
zwei 1070728
1. 1069757
ell@@ 1063067
ach 1057588
Se@@ 1055777
ben 1052775
waren 1050474
eten 1049899
tion 1049513
ut@@ 1049203
ke 1041041
ler 1039489
men 1037777
eren 1037389
zwischen 1025156
sen 1023452
hat 1020345
ne 1017854
eng@@ 1015542
dar@@ 1015461
Ber@@ 1007049
ad@@ 1002089
ri@@ 997511
me@@ 995570
ie@@ 994082
ger 993258
Land@@ 992500
Ch@@ 991622
* 990943
Unter@@ 990459
vi@@ 986371
ass@@ 982653
end 977465
ler@@ 977458
it 976720
erung 974409
gen 972153
op@@ 971776
eines 968597
ze@@ 965187
lich@@ 965011
äl@@ 963477
ale 959268
kt 958730
icht 957910
len 955783
fol@@ 954543
sein 948976
ent 947740
Jahren 945211
all@@ 938277
Am 933188
ere 930811
tet 928792
ne@@ 926527
kom@@ 926131
a@@ 925827
bi@@ 925083
äng@@ 919568
tung 918282
gew@@ 917936
fl@@ 917530
Fr@@ 914338
uch@@ 912748
Or@@ 907344
ati@@ 906400
mer@@ 904555
üh@@ 904334
gegen 903103
isch@@ 902956
se 900284
17@@ 895698
lo@@ 894005
dieser 893309
r 890787
ät@@ 888714
geh@@ 887604
anz@@ 886421
Fre@@ 881263
unk@@ 879700
ho@@ 879438
utz@@ 872561
ni@@ 871114
Wer@@ 870794
ite 870024
We@@ 869181
Kom@@ 866901
1 866678
aten 866275
Es 866103
iert 853412
Ges@@ 853395
ung@@ 849748
ar 848924
a 848793
isti@@ 846513
cht 845272
etz@@ 845004
Fl@@ 843359
2 839180
h 833874
Str@@ 828179
og@@ 826788
lin@@ 825574
ro@@ 825489
Sp@@ 824422
ts 823533
ersten 820758
age 820131
nh@@ 819687
man 816082
ur 815734
Nach@@ 814542
weise 813398
führ@@ 813165
äch@@ 812881
Par@@ 812670
ing 809874
ün@@ 804679
sel@@ 801657
Zeit 800951
nen 796198
ang 794032
c@@ 793890
bl@@ 793690
as 789878
che 789707
berg 786605
kon@@ 785818
per@@ 784815
schaften 783683
eder@@ 782596
seit 781783
jedoch 780636
ib@@ 777838
u 777107
ob@@ 776516
Stadt 775376
land 774608
acht 773943
so 772402
reich@@ 771897
he 771611
best@@ 771324
rich@@ 768418
nung 766042
ingen 765774
schen 763498
uf@@ 762261
p 761872
em 761780
He@@ 759561
ehen 758217
ok@@ 755653
ap@@ 754180
inter@@ 751326
keit 751135
bil@@ 750346
18@@ 748839
ser@@ 746393
zu@@ 746158
spr@@ 746015
b 741646
ele 739389
etwa 739016
drei 738602
sti@@ 738158
fin@@ 736480
Ober@@ 735839
ph@@ 733139
mer 732774
amm@@ 729550
ine 726107
for@@ 721645
Qu@@ 721207
ste 721008
rech@@ 720712
itz@@ 719377
ech@@ 717986
stand 716653
beg@@ 715924
Spi@@ 712404
Bau@@ 706863
Kre@@ 705643
wieder 704787
Th@@ 702936
mit@@ 702283
eig@@ 700867
Geschichte 700741
ze 699408
ellen 699286
alt@@ 698814
iten 693934
uk@@ 693360
Am@@ 692844
wen@@ 692494
ell 690141
ann@@ 689562
fr@@ 689220
mehr 687998
Ne@@ 686779
öl@@ 686567
ß 683224
3 681141
itz 680567
Als 679400
da 677105
agen 677056
lung 676629
Leben 675963
tes 673269
x@@ 673067
seinem 671910
v 669682
pl@@ 669534
if@@ 667332
su@@ 666411
Kr@@ 666156
Bes@@ 665965
enz@@ 665954
isten 662200
fre@@ 661029
besch@@ 660333
isi@@ 659895
iger 659297
gemein@@ 659010
oh@@ 658252
liegt 658225
hal@@ 655848
5 654754
zeit 653390
16@@ 653318
men@@ 652978
hin@@ 652626
sh@@ 649036
zus@@ 648453
ma@@ 647602
ed 646744
seinen 646695
ran@@ 645780
ins@@ 645461
2@@ 644384
später 643788
Von 643585
Si@@ 643357
dete 643068
beim 642835
sch 642492
onen 641615
Bei 641614
verl@@ 639759
os 639034
ker 638626
zen 638421
arbeit@@ 636498
qu@@ 635713
äf@@ 635486
3@@ 634861
tur@@ 633806
ster 633764
Bundes@@ 633715
bar@@ 633327
kl@@ 631863
ehr@@ 629559
re 626866
gi@@ 626385
den@@ 626261
elen 626021
ug@@ 624074
ec@@ 624022
Ende 623513
det 622144
diese 621065
ihre 618624
ern@@ 618442
öh@@ 617300
Au@@ 616125
schaft@@ 615513
mann 615078
El@@ 614086
bre@@ 612198
ih@@ 611147
west@@ 610655
att@@ 609889
ßen 609061
setz@@ 606188
ste@@ 605964
kann 603500
Me@@ 602868
Über@@ 602725
sche 602145
teil 601852
wo 599900
tigen 599565
ia 599185
hr@@ 597677
Mon@@ 597451
ep@@ 595561
ru@@ 594828
do@@ 593976
äh@@ 593502
teil@@ 591439
pf@@ 590765
4 590579
inn@@ 590454
Un@@ 590356
lang@@ 590313
kle@@ 589231
off@@ 588550
kam 588248
Nor@@ 586959
dig@@ 584935
ord@@ 584863
konnte 583547
Mit@@ 581886
ete 580583
heit 580197
of@@ 580090
erste 579884
Mit 579783
gleich@@ 579392
mus@@ 578505
En@@ 576785
Gemeinde 576331
burg 575157
ig 574012
bel@@ 572811
war@@ 568224
ess@@ 566914
kur@@ 565619
Kin@@ 565349
ihm 565301
ft 560059
Pr@@ 559948
il 559866
etzt 559368
fü@@ 558364
weit@@ 557826
Ad@@ 555307
Gemein@@ 554774
August 554700
Ger@@ 553085
enti@@ 552832
Mai 552350
ef@@ 550683
halb 550546
15@@ 550282
od@@ 549649
März 548458
Ma@@ 548061
haben 547901
Januar 546720
ierte 546482
av@@ 546235
min@@ 543307
Teil 542454
kre@@ 542415
heute 541359
Oktober 541013
üs@@ 540796
zeich@@ 540507
aff@@ 539453
lt 538497
par@@ 537190
Te@@ 535886
Ang@@ 535284
deut@@ 535000
licher 533601
erst@@ 533415
Haupt@@ 532133
geg@@ 531955
Pro@@ 531056
kr@@ 530867
dann 530675
esen 530566
äu@@ 528976
Bo@@ 528505
äs@@ 528410
ihrer 527743
größ@@ 526422
Bez@@ 525402
zwe@@ 523833
schi@@ 523512
ben@@ 522751
lie@@ 522235
leg@@ 521795
&amp; 521488
bereits 521227
hand@@ 521164
ater 521148
eler 520703
dessen 520095
dort 519698
’ 519538
verw@@ 518438
tete 517150
September 515383
Kl@@ 515368
.@@ 513902
ad 513879
† 513786
mi@@ 513055
verk@@ 512796
bau@@ 511888
ez@@ 511144
alle 510861
ind@@ 510648
Um@@ 510442
April 509910
enten 509264
West@@ 508484
ahl@@ 508140
Bah@@ 507879
For@@ 507637
Juni 507018
ik 506330
nach@@ 506284
zug@@ 505575
Universität 505348
me 504753
Li@@ 504458
gab 504314
Juli 502827
Pf@@ 502312
wi@@ 501777
Man@@ 501305
erten 498904
bek@@ 498743
The@@ 498181
schafts@@ 497861
ow@@ 497801
Gesch@@ 497677
ihn 497287
Bil@@ 496073
Ex@@ 496002
Kirche 495652
anderen 495522
ort 494913
0er 493802
gest@@ 493778
Pol@@ 493642
während 493342
Dezember 492753
eg 492004
US 490662
erhielt 490256
Stadt@@ 489394
gibt 489371
vier 487983
erh@@ 486541
sol@@ 486381
gem@@ 485232
sich@@ 485218
gestellt 484900
To@@ 484762
res@@ 484556
Beg@@ 484222
ahr@@ 482713
az@@ 482684
Fran@@ 482091
ile 482045
ken@@ 481481
ersch@@ 480876
durch@@ 480282
6 479972
oren 479318
Ein 478915
B 478752
was 477789
November 477250
Saison 476826
trä@@ 476212
aum 475982
w 475298
km 475133
man@@ 473668
mt 473584
wel@@ 473248
x 473026
ihr 472868
beiden 472437
süd@@ 471530
Diese 471110
fen 470684
fahr@@ 470362
12@@ 470064
wir@@ 470023
fe 469594
olog@@ 468825
Bl@@ 468804
dern 468378
A 467016
egen 467010
stadt 465452
Nord@@ 464963
% 463008
cher 462825
2. 461813
wal@@ 461445
äd@@ 460455
tri@@ 459592
Kir@@ 459557
4@@ 458682
Hand@@ 457865
wor@@ 457404
oc@@ 457258
ant@@ 456918
Seit 456607
Inter@@ 455621
rit@@ 453036
Platz 452989
Deutschland 452107
können 451910
Bur@@ 451520
ub@@ 450974
ierung 450941
diesem 449637
itung 448900
ei 448432
halten 448040
Mus@@ 447972
pp@@ 447745
ins 447261
Arbeit@@ 447246
grund 446395
10@@ 446332
lu@@ 445700
stellung 445068
mittel@@ 444931
1@@ 444283
aben 444094
Berlin 443607
Jahrhundert 442300
tor 442086
Kar@@ 441955
trat 441480
fer 441419
Dor@@ 441333
Ze@@ 440753
Ent@@ 440243
be 439411
Ste@@ 438860
ks 438770
D 436798
Ro@@ 436178
nis 436151
Po@@ 435313
eter 435054
ise 435050
Wi@@ 434392
Süd@@ 433609
ic@@ 433358
mal 432910
pr@@ 432801
Spiel@@ 432595
ationen 432421
uer@@ 431736
est 431305
ön@@ 430849
Sta@@ 430198
Bere@@ 430181
mög@@ 430057
Aut@@ 429804
ac@@ 429684
je@@ 429489
star@@ 429045
Verw@@ 428942
Mo@@ 428578
ehr 428517
Mitglied 428457
Mün@@ 428212
Februar 428124
Hoch@@ 427787
els@@ 427641
ster@@ 427551
mar@@ 427277
worden 426495
einz@@ 425599
Eine 424215
steht 423871
bau 423134
the@@ 422299
sen@@ 420797
bar 420632
po@@ 419753
bere@@ 419743
nahm 419623
annt 419251
fand 418599
tel@@ 418596
Pl@@ 418540
lag 417940
Kun@@ 417893
Ur@@ 416929
ister 415875
üt@@ 415393
Hol@@ 414951
Welt@@ 414754
trag 414517
deutschen 414442
up@@ 413950
fi@@ 413758
ähr@@ 413654
tern 413627
onn@@ 413333
pe 410734
igt 410577
Kur@@ 410304
8 410052
Tur@@ 409833
hi@@ 409797
Sü@@ 409542
Groß@@ 409249
ums 408994
reib@@ 408837
nt 408643
c 408543
ender 408173
deren 408121
Spr@@ 407839
National@@ 407618
Per@@ 407327
Dar@@ 407172
amerikan@@ 407162
Fol@@ 406793
oll@@ 406790
son 406379
Grund@@ 405970
Schwe@@ 405849
lage 405635
tischen 405539
De@@ 404610
Auch 404365
schw@@ 404161
Bar@@ 404004
weg@@ 403756
7 403680
sk@@ 403290
zurück 403289
Fahr@@ 402735
ber 402157
mal@@ 401822
elte 401718
Nieder@@ 401712
ili@@ 401685
Pre@@ 401578
damit 400831
ex@@ 400562
wohl 400420
ate 399665
ausge@@ 398810
eln 398291
Für 397861
meister@@ 397310
fass@@ 395399
zäh@@ 395011
to 393951
Geg@@ 392694
asse 392417
bach 392411
-@@ 391921
zunächst 391572
tre@@ 390613
folg@@ 390508
ett@@ 390264
dung 389898
ra@@ 388550
neh@@ 388469
wirt@@ 388469
dr@@ 388371
alten 388332
loss 388163
ard 388029
eil@@ 387510
Auf 387431
statt 387364
atz 387039
leb@@ 386806
ihren 386444
5@@ 386398
bekannt 386027
lieg@@ 385354
U 384958
ehemal@@ 384866
Familie 384587
zusammen 383156
14@@ 382862
tim@@ 382746
keine 382691
Studi@@ 382581
_ 381714
Zw@@ 381151
ath@@ 380975
ren@@ 380738
Min@@ 380246
Wal@@ 380126
rif@@ 379893
pi@@ 379664
befindet 379359
fe@@ 379187
stein 378460
ener 377531
schule 377189
sehr 376945
ori@@ 376919
Ort 376614
ache 376067
all 376058
ologie 375785
uz@@ 375585
her 375439
ick@@ 374668
S 373412
Ä@@ 372979
20 372680
weitere 372664
aut 372620
nam@@ 372547
folgen@@ 372504
beit 371662
erk@@ 371539
Mittel@@ 370902
Namen 370541
amen 370312
Schw@@ 369508
are 368953
verschied@@ 367801
Verein@@ 367701
ül@@ 367361
lang 366867
ier 366501
begann 366412
dam@@ 366015
alen 365815
äuf@@ 365706
ill@@ 365338
wissen@@ 364866
mehr@@ 364858
len@@ 363806
ons@@ 363140
no@@ 363051
Film 362997
Sohn 362870
ba@@ 362578
Co@@ 361385
üc@@ 361202
wegen 360955
ister@@ 360839
ina 360805
sta@@ 360797
Dies@@ 360634
Zeit@@ 360258
Y@@ 359979
iti@@ 359749
auer 359669
annte 359089
denen 359076
zentr@@ 359051
Rech@@ 358671
veröffentlich@@ 357865
form@@ 357817
arr@@ 357764
spielte 357125
politi@@ 356997
Schul@@ 356616
Dre@@ 356486
ander@@ 355402
gewann 354740
zeug@@ 354253
ev@@ 354247
gang 354064
13@@ 353763
Krieg@@ 353405
französ@@ 353232
scher 352944
straße 352187
Zu@@ 351699
bzw. 351669
allem 350799
Fin@@ 350781
ebenfalls 350578
Reich@@ 350480
G 350239
ecke 350077
art 349950
öst@@ 349910
Personen 349828
endet 349219
Lin@@ 349212
ut 349043
9 348720
uss 348079
Ph@@ 348011
iv@@ 347452
geleg@@ 347407
2010 346758
Ak@@ 346697
bind@@ 346395
ve 346116
kri@@ 345957
schließlich 345625
Rich@@ 345429
anderem 345367
werk 345304
tel 345086
2011 345033
So@@ 344900
its 344552
inen 344438
reich 344250
10 344110
alb@@ 343497
uss@@ 343466
bahn 341824
ße 341639
C 341574
ging 341209
altung 340925
geführt 340514
öch@@ 339723
la 339669
Geb@@ 339492
Politi@@ 338320
6@@ 338075
Kri@@ 337804
ät 336478
tro@@ 336028
führte 335938
immer 335923
gebiet 335102
ente 335101
sel 334954
ard@@ 334906
ennen 334796
ide 334650
ks@@ 334416
Com@@ 334027
tor@@ 333613
jähr@@ 333361
trieb@@ 333123
Fuß@@ 333001
änder@@ 332977
keiten 332668
uh@@ 332024
unde 331715
lan@@ 330988
P 330767
gesetzt 330619
ton 330331
ätz@@ 329900
König@@ 329847
ahl 329630
ständi@@ 329468
net 329095
lig@@ 328593
Weltkri@@ 328325
ations@@ 328085
bez@@ 328039
trieb 327833
national@@ 327729
Ö@@ 327392
icht@@ 327364
Bi@@ 327096
auen 326538
chen@@ 326475
tionen 326411
ka 326302
tiv@@ 325903
ker@@ 325568
kommen 325252
selbst 325015
ohne 324764
ogen 324169
dorf 323640
L 322995
ko@@ 322969
lag@@ 322392
Weit@@ 322316
2015 322222
neuen 321813
des@@ 321364
tur 321167
2009 321140
2012 320754
errich@@ 320740
V 320458
dabei 320295
fte 319929
lagen 319897
Milli@@ 319811
2008 319677
Fern@@ 318881
wah@@ 318643
ari@@ 318410
Bel@@ 318406
2014 318138
Eins@@ 317328
15 317017
gehörte 316906
Grün@@ 316691
hr 316541
M 316538
2013 316452
weiter 316199
eck@@ 315694
genommen 315678
assen 315482
tragen 315155
enz 314961
kreis 314549
Zi@@ 313697
tlich 313456
formula 313314
Proz@@ 313301
nahme 313213
pen 313068
tig 312910
entwick@@ 312657
enst@@ 312553
Während 312321
19. 312076
leit@@ 312007
ließ 311846
els 311838
Som@@ 311684
hier 311664
Woh@@ 311617
&apos; 311387
kehr@@ 311352
führt 311264
deutscher 310978
enf@@ 310764
the 310551
mb@@ 310381
Musik@@ 309957
häng@@ 309924
Mas@@ 309557
ichte 309405
trag@@ 309109
Meter 309022
Kap@@ 308962
7@@ 308871
ain@@ 308443
ünst@@ 308107
hin 308061
innen 308056
2016 307951
bu@@ 307875
letz@@ 307456
vers@@ 307076
neue 306819
ellschaft 306455
arbeitete 306409
ßerdem 306294
zeit@@ 306157
schnit@@ 306016
gro@@ 305951
Jahrhunderts 305790
erstmals 305691
Vi@@ 305651
2007 305507
bet@@ 305437
pre@@ 305363
Entw@@ 305208
ov@@ 305138
nte 304872
tige 304418
zeh@@ 304295
öff@@ 304081
alt 303316
Con@@ 303170
ieren 303148
Landes@@ 302742
Rol@@ 302581
O 302533
meister 302109
urg 302003
kun@@ 301726
isse 301250
ast@@ 301016
ühr@@ 300439
produ@@ 300409
lossen 300086
nahmen 300084
Ab 299963
annten 299070
enth@@ 298630
bezeichnet 298434
sche@@ 297816
wür@@ 297644
Sal@@ 297495
sehen 297326
ant 297168
mann@@ 296888
iter 296207
sei 296105
land@@ 295433
New 295260
Flug@@ 295230
fünf 295214
un 294895
ign@@ 294647
ner@@ 294646
kan@@ 294519
Teil@@ 294203
uch 294097
2017 294062
II. 294030
änd@@ 294025
elten 293926
Kle@@ 293773
tigt 293677
isen 293077
Mot@@ 292701
woh@@ 292107
Seine 291866
du@@ 291634
Europ@@ 291226
The 291161
ke@@ 290797
iß@@ 290700
ierten 290166
St. 289948
2006 289842
ade 289690
to@@ 289605
gehört 289318
Name 289261
för@@ 289033
ans 289003
ehe 288810
pol@@ 288501
abe 288250
zial@@ 288219
Mag@@ 287772
wich@@ 287758
Mor@@ 287699
Herr@@ 287525
gebaut 287351
gesamt 286983
zeu@@ 286739
Ort@@ 286431
ma 286419
fahren 286276
leich 286216
Sol@@ 286211
50 286142
gek@@ 286079
erin 286002
prä@@ 285726
erst 285685
vol@@ 285606
azu 285571
tu@@ 285219
its@@ 284917
zw@@ 284895
Titel 284856
I 284301
ekt 284278
nah@@ 283969
Pri@@ 283266
dec@@ 283152
Deutschen 282882
zog 282861
Lehr@@ 282527
Mal@@ 282519
Bre@@ 282480
esch@@ 282188
one 282037
schon 281984
ans@@ 281943
grup@@ 281940
chter 281225
Har@@ 281201
det@@ 281072
kel 280965
ös@@ 280802
zweiten 280753
schluss 279848
Ser@@ 279822
ute 279804
Ob@@ 279713
Rück@@ 279140
elt@@ 279053
Famili@@ 278875
Met@@ 278808
aden 278634
2018 278257
gehör@@ 278240
icklung 278087
sion 278065
ng@@ 278040
Car@@ 278028
Wasser@@ 278005
2019 277566
Band 277390
zahlreich@@ 277041
fang@@ 277009
tei 276926
sondern 276863
einige 276795
Gruppe 276724
na 276701
pro@@ 276436
amp 276347
wäh@@ 276297
Zu 275824
bah@@ 275527
punkt 275295
seines 275292
pel@@ 274946
Sein 274847
Char@@ 274818
Produk@@ 274703
Stu@@ 274513
heirat@@ 274233
kte 274173
ku@@ 274095
achen 273925
Gener@@ 273889
Den@@ 273833
ball@@ 273828
Volks@@ 273610
lichkeit 273437
nete 273394
Kö@@ 273329
por@@ 273213
F 273160
So 272981
ons 272735
zurück@@ 272654
Medi@@ 272625
ück@@ 272375
atur 272219
hol@@ 271880
30 271829
ände 271678
Gu@@ 271519
Gl@@ 271230
Liste 271192
ck 271143
Jah@@ 270711
besondere 270604
Zus@@ 270289
Bas@@ 270212
Zusammen@@ 269882
änge 269093
Lebens@@ 268930
mun@@ 268839
dire@@ 268837
äus@@ 268643
präs@@ 268559
8@@ 268194
rund 268032
sprüng@@ 267796
Deutsch@@ 267718
Neu@@ 267686
Tri@@ 267474
anischen 267385
ihrem 267355
vertr@@ 267328
Gel@@ 267279
jah@@ 267238
kh@@ 267231
bri@@ 267188
ym@@ 266801
neben 266687
studierte 266482
Ko@@ 266382
klär@@ 266147
wes@@ 266133
hatten 266034
reg@@ 265792
R 265496
grün@@ 265459
bildung 265448
Sh@@ 265032
Karriere 264567
Menschen 264552
Chr@@ 264541
ließ@@ 264440
res 264073
ta 264020
Friedrich 263799
2005 263589
hab@@ 263466
äche 263431
9@@ 263207
Dan@@ 263008
mehrere 262506
ay 262294
Bürger@@ 261908
mon@@ 261389
Bru@@ 261029
3. 260677
Bevöl@@ 260453
Besch@@ 260350
fun@@ 260268
feld 260224
Wo@@ 259937
Schl@@ 259566
andere 259527
18 259185
ilen 258976
Provin@@ 258847
bt 258738
iden 258516
besteht 258509
As@@ 258474
tis@@ 258312
Wirt@@ 257911
ücke 257893
aft 257809
20. 257787
gegen@@ 257542
ali@@ 257072
sitz@@ 256971
Zentr@@ 256897
amp@@ 256592
ick 256523
deutsche 255980
bo@@ 255944
Mat@@ 255863
letzten 255742
ot 255407
Wol@@ 255360
per 254824
ßen@@ 254811
ou@@ 254796
dieses 254773
großen 254635
Wir@@ 254568
Anfang 254476
Got@@ 254452
185@@ 254284
dre@@ 254021
2000 253833
Durch 253776
ober@@ 253541
B. 253476
tritt 253137
genannt 253131
nig 253071
16 252928
Kan@@ 252776
tions@@ 252679
Tod 252558
H 252240
drit@@ 252191
inger 251364
ule 251041
T 250848
Kat@@ 250844
Art 250806
weit 250806
18. 250545
1945 250309
zahl 250077
unden 250044
kul@@ 249737
enh@@ 249679
chte 249596
Sy@@ 249572
Öster@@ 249480
fäl@@ 249168
Kol@@ 249049
haus 248679
E 248594
wenn 248567
sollte 248540
liga 248530
blieb 248366
0 248056
inn 247946
bedeut@@ 247535
stieg 247388
Kilometer 247198
ester 247162
ver 247012
voll@@ 246867
stütz@@ 246603
geord@@ 246540
timm@@ 246513
große 246353
Staats@@ 246334
tätig 246197
ograf@@ 246132
mut@@ 245705
ütz@@ 245600
Inn@@ 245474
Präs@@ 245380
fan@@ 245261
Heim@@ 245228
ck@@ 245120
Fe@@ 245071
gewählt 244955
lat@@ 244750
eb 244679
erg@@ 244624
wieder@@ 244593
2004 244550
erfolgte 244490
erne@@ 244478
diesen 244468
Natur@@ 244421
schließend 244388
Da 244329
Ost@@ 243975
fal@@ 243840
Tor@@ 243761
folgenden 243696
Rh@@ 243498
yp@@ 243430
sam 243151
leich@@ 242964
12 242945
riff 242860
wechselte 242836
haf@@ 242835
Unternehmen 242826
Stra@@ 242436
athol@@ 242435
ats@@ 242403
Hil@@ 242235
weiter@@ 242191
tische 242002
Fil@@ 241902
uc@@ 241536
isches 241402
2020 241369
ana 241368
allerdings 241327
standen 241223
schaf@@ 241135
ück 240772
stamm@@ 240695
Gebiet 240528
Mer@@ 240484
Haus@@ 240080
ki@@ 239896
frü@@ 239849
Johann 239651
anst@@ 239576
ult@@ 239485
dan@@ 239423
feh@@ 239162
Kais@@ 238914
los@@ 238818
iss@@ 238732
stän@@ 238692
kar@@ 238193
neu@@ 238123
mach@@ 238002
wobei 237666
teilung 237505
izi@@ 237013
essen 236781
tion@@ 236651
kirche 236500
Einwohner 236303
Bu@@ 236283
soll 235984
auspi@@ 235949
40 235942
sprech@@ 235833
endung 235692
Gru@@ 235671
é 235577
Kul@@ 235473
sa@@ 235202
nungen 235115
itig 234875
Straße 234830
14 234825
Beispi@@ 234184
spä@@ 233902
id 233538
starb 233487
Mitte 233426
ämp@@ 233368
Hö@@ 233012
bed@@ 232883
gegründet 232874
ack@@ 232829
Fel@@ 232744
ihe 232438
Meister@@ 232384
inner@@ 232211
kung 232165
band 231907
Zwe@@ 231791
publi@@ 231425
ven 231243
Frau 231220
ame 231219
sat@@ 231143
mis@@ 231065
nörd@@ 230306
K 230174
Luf@@ 230068
lassen 229844
Berg@@ 229680
Rah@@ 229565
asi@@ 229487
issen@@ 229404
km@@ 229355
je 229350
Nachdem 228712
Gi@@ 228605
Forsch@@ 228592
Dis@@ 228273
allen 228185
25@@ 228169
platz 228169
port 227889
nehmen 227814
15. 227797
Dr@@ 227669
scheid@@ 227655
angel@@ 227654
ält 227547
erreichte 227429
Sen@@ 227360
les 227328
gar@@ 227270
lik@@ 227220
Mannschaft 227096
form 227025
Fried@@ 226897
Verein 226897
mäß@@ 226884
Schi@@ 226273
fasst 226236
Zweiten 226088
onal@@ 226001
Gen@@ 225820
Grenz@@ 225759
Karl 225736
igten 225686
Geor@@ 225622
Kor@@ 225557
heim 225541
Durch@@ 225515
Region 225450
Best@@ 225448
übernahm 225331
Klo@@ 225272
anl@@ 225222
nun 224745
sechs 224570
musste 224539
4. 224500
jeweils 224355
sor@@ 224333
ismus 224301
alif@@ 224268
mel@@ 224122
z. 223785
dah@@ 223494
app@@ 222974
nord@@ 222881
tw@@ 222615
Bay@@ 222542
weiteren 222451
om 222363
Gebäude 222292
haup@@ 221906
Hamb@@ 221518
ität 221088
uv@@ 220815
emati@@ 220734
äre 220555
adi@@ 220416
13 220029
ßer@@ 219907
riff@@ 219833
ud@@ 219607
alien 219567
uten 219158
ta@@ 219122
Ben@@ 219005
haus@@ 218894
öster@@ 218829
seh@@ 218599
30@@ 218555
Mod@@ 218161
000 217993
Stand@@ 217855
enst 217449
tik 217398
25 217389
eleg@@ 217230
N 217106
Hel@@ 217070
16. 216874
100 216859
sig@@ 216792
17. 216788
ander 216092
X@@ 215847
Lu@@ 215712
ess 215576
Jug@@ 215296
2003 215187
2001 215021
USA 214999
ong@@ 214915
Ru@@ 214763
Sa@@ 214334
I. 214162
schrift 213965
Mut@@ 213963
Christ@@ 213891
besonder@@ 213818
Plat@@ 213291
Gar@@ 213054
a. 212937
ban@@ 212867
Res@@ 212226
Cor@@ 212123
zt 212103
emp@@ 212088
uti@@ 211552
Wil@@ 211489
Buch@@ 211188
utz 211071
FC 210750
Hal@@ 210634
cht@@ 210492
Por@@ 210298
issen 210146
iker 210118
schri@@ 209909
2002 209880
An 209582
zeichnet 209431
la@@ 209129
dis@@ 209014
ident 208900
sin@@ 208881
wig 208821
chi@@ 208795
asser 208616
Gro@@ 208565
Form 208485
irk 208305
rö@@ 208202
17 208057
tif@@ 207818
regi@@ 207796
Sil@@ 207784
bur@@ 207762
184@@ 207723
é@@ 207287
5. 207247
üb@@ 207223
ice 206874
schied@@ 206826
ann 206575
Film@@ 206313
University 206253
dav@@ 206178
este 205794
Joh@@ 205093
Bor@@ 205061
Proj@@ 204921
tru@@ 204833
anti@@ 204178
abei 204040
Organ@@ 203986
ette 203465
kön@@ 203305
Album 203292
absol@@ 203133
Vol@@ 203026
Ju@@ 202996
2021 202853
Fer@@ 202335
ret@@ 202184
Rus@@ 202106
gel 201994
aur@@ 201938
plat@@ 201690
Land 201449
Tre@@ 201356
ass 201259
Do@@ 201210
24@@ 201021
ett 200767
Wilhelm 200689
19 200418
Ern@@ 200122
Pi@@ 200078
Phil@@ 200011
ager 199845
lus@@ 199818
brach@@ 199793
les@@ 199665
13. 199539
14. 199520
eld 199259
ion 199181
get@@ 199022
26@@ 198735
wan@@ 198660
Son@@ 198364
Spe@@ 198316
err@@ 198301
6. 198263
tar@@ 198229
ps 198174
ore 198158
histor@@ 198139
fest@@ 198036
Dem@@ 197951
öffent@@ 197823
kor@@ 197432
iff 197215
aw@@ 197176
Hin@@ 196999
Archit@@ 196499
eller 196381
Pe@@ 196219
Einwoh@@ 196058
port@@ 196006
gil@@ 195704
loc@@ 195459
W 195067
Sel@@ 194816
til@@ 194693
Lud@@ 194552
1999 194290
Op@@ 194108
zel@@ 193770
Ri@@ 193650
Stre@@ 193646
lau@@ 193634
Lo@@ 193406
Dam@@ 193296
Col@@ 192622
Stein@@ 192473
John 192315
ika 192296
11 191783
konn@@ 191699
180@@ 191490
Heinrich 190274
ust@@ 190234
met@@ 190218
Eisen@@ 189952
orie 189069
Milit@@ 188839
At@@ 188821
28@@ 188573
Pal@@ 188502
ates 188446
8. 188379
rati@@ 188335
gut 188103
mu@@ 187959
zig 187924
Sport@@ 187800
mo@@ 187294
ew@@ 187293
1990 187163
alis@@ 187141
ip@@ 187050
7. 186972
Far@@ 186897
pon@@ 186694
eff@@ 186392
befin@@ 186282
War@@ 186247
ante 185523
ikan@@ 185416
ase 185312
fast 185226
tin 184975
iz 184840
9. 184740
Ho@@ 184702
ow 184614
ög@@ 184518
á@@ 184514
Rot@@ 184387
Kant@@ 184377
fall@@ 184329
gesam@@ 184309
Haup@@ 184244
ers@@ 184214
Off@@ 184104
ys@@ 184041
Frank@@ 183980
ai 183866
stand@@ 183802
folgte 183755
Ü@@ 183574
eht 183547
tag 183506
hen 183500
bü@@ 183477
1,@@ 183392
eck 183385
It@@ 183321
wach@@ 183161
rat 182936
Pap@@ 182668
Hi@@ 182636
herr@@ 182372
27@@ 182368
yr@@ 182229
alit@@ 182033
Ir@@ 182008
schließ@@ 181898
lam@@ 181828
dies 181523
Ros@@ 181453
fes@@ 181409
Hans 181349
Han@@ 181246
kal@@ 181032
vierte 180948
ür 180299
ue 180203
60 180183
har@@ 180134
eden@@ 179621
gre@@ 179391
üst@@ 179381
oph@@ 179290
Tex@@ 179191
1998 179148
York 179121
ay@@ 178917
mas@@ 178875
Sach@@ 178741
Bal@@ 178679
ef 178298
Mann@@ 178280
ob 178022
DR 177776
Peter 177593
atur@@ 177586
Paris 177522
Hor@@ 177448
Indi@@ 177171
Gra@@ 177081
ainer 177030
see 176881
bun@@ 176788
sit@@ 176185
lek@@ 176141
gez@@ 175735
pen@@ 175722
Paul 175660
aj@@ 175622
Sto@@ 175481
oth@@ 175447
also 175270
yl@@ 175189
tn@@ 174593
,@@ 174508
tan@@ 174389
dem@@ 174356
vier@@ 174098
Mi@@ 174016
Su@@ 173927
europ@@ 173834
ils 173758
All@@ 173663
lar 173656
gl@@ 173400
old 173154
ol 173145
21 172945
Is@@ 172890
nor@@ 172881
Vier@@ 172854
29@@ 172624
Prot@@ 172444
Lang@@ 172411
dor@@ 172262
Gem@@ 172250
Liter@@ 171982
ative 171749
Ta@@ 171225
trol@@ 171212
fri@@ 171203
ches 171079
fu@@ 171045
tak@@ 170993
ra 170978
fel@@ 170927
Es@@ 170447
ast 170443
tem@@ 170194
kt@@ 170184
los 170006
Ot@@ 169884
Jo@@ 169805
lar@@ 169767
erreich@@ 169624
20@@ 169361
pe@@ 169300
gli@@ 169264
Ind@@ 169251
ispi@@ 168819
Sing@@ 168689
ser 168580
Eur@@ 168551
Im@@ 168497
zer@@ 168411
kel@@ 168336
nik 168275
24 168116
1994 168089
ammen@@ 167802
bert 167633
bal@@ 167498
kn@@ 167341
di 167003
ball 166857
itali@@ 166808
Kamp@@ 166708
far@@ 166703
ca@@ 166587
th 166406
ovi@@ 166343
mus 166293
fall 166032
gar 166003
Beh@@ 165895
1996 165638
Eng@@ 165593
enburg 165205
Win@@ 165174
leh@@ 165125
Fir@@ 164913
2,@@ 164904
ais@@ 164569
1997 164443
Team 164403
1992 164269
Kam@@ 164190
ms 164180
= 164119
Em@@ 163994
Serie 163751
mp@@ 163732
ark@@ 163669
Sek@@ 163638
ble@@ 163625
Olymp@@ 163464
ir 163358
ly@@ 162577
ak 162439
ley 162322
ingt 162309
bish@@ 162251
not@@ 161975
0,@@ 161147
rek@@ 160834
0@@ 160734
ets 160432
üng@@ 160388
bas@@ 160346
V. 160277
Mos@@ 160213
dru@@ 160074
üm@@ 160060
ator 159618
ote 159579
ses 159468
1995 158764
pos@@ 158656
1991 158651
san@@ 158582
moder@@ 158409
amer@@ 158349
&#91; 158336
80 158204
aller 158184
ski 158153
&#93; 158082
Bri@@ 157422
Progr@@ 157421
zer 157408
elek@@ 157226
furt 156856
ki 156698
aut@@ 156688
ame@@ 156634
Liga 156494
Kal@@ 156430
San@@ 156322
tä@@ 156282
art@@ 156086
1993 156079
Mari@@ 155622
edr@@ 155604
son@@ 155565
ey@@ 155398
Rom@@ 155377
Rel@@ 155323
üd@@ 155068
üf@@ 155020
Trans@@ 154578
sy@@ 154438
zul@@ 154176
tra@@ 154129
zen@@ 154051
nom@@ 154019
ium 153936
ino 153838
eri@@ 153689
23@@ 153623
edi@@ 153459
Gal@@ 153319
Professor 153148
ters 153072
del 153005
gu@@ 152737
Pa@@ 152733
ena 152494
ish@@ 152346
Dol@@ 152238
22 152139
emen 152031
Schwar@@ 152008
Maria 151830
23 151697
0.000 151260
Tit@@ 150935
Ty@@ 150922
chin@@ 150681
eme 150585
kir@@ 150543
ebr@@ 150468
eli@@ 150394
1989 150369
wo@@ 150152
Wor@@ 149991
London 149769
som@@ 149532
ther 149464
lit@@ 149253
Ter@@ 149112
Men@@ 148512
ron@@ 147915
bli@@ 147140
ommen 146595
ats 146554
ents 146503
Bü@@ 146487
Gre@@ 146379
mals 146102
aille 146018
enso 146000
Europa 145799
Dok@@ 145519
nationale 145310
ator@@ 145170
tere 145126
tag@@ 144993
ano 144876
35 144652
ax@@ 144647
Alt@@ 144453
lte 144435
ica 144379
wa 144039
Des@@ 144038
ja 143937
olf 143922
ales 143784
Techn@@ 143248
Ac@@ 143161
wid@@ 143013
pu@@ 142982
Oper@@ 142715
zun@@ 142699
oni@@ 142587
League 142396
179@@ 142249
ure 142168
arti@@ 141491
Rad@@ 141050
Ul@@ 140842
wechsel@@ 140580
zin@@ 140555
off 140502
let@@ 140379
io 140311
Franz 140070
Kas@@ 140070
indi@@ 139888
Plan@@ 139824
annes 139592
gan@@ 139557
70 139007
Ev@@ 138934
tho@@ 138889
Go@@ 138750
90 138610
urch 138581
Austr@@ 138311
eter@@ 138201
enberg 138020
esse 137853
lands 137705
200 137668
ling 137665
Saint 137552
idi@@ 136841
asti@@ 136724
ai@@ 136564
ost@@ 136379
kap@@ 136297
entr@@ 136229
Ha@@ 136171
hielt 135974
techn@@ 135922
ce 135808
r. 135807
ographie 135776
Mis@@ 135533
ns 135525
1972 135435
ammen 135215
1933 135177
alle@@ 135127
bin@@ 135039
1988 134959
Bot@@ 134541
La 134417
int@@ 134413
Ed@@ 134191
ther@@ 134053
32 133843
stre@@ 133713
positi@@ 133571
tin@@ 133466
amb@@ 133419
cu@@ 133381
Bed@@ 133310
ff 133307
Cr@@ 133101
prom@@ 132993
Bro@@ 132989
Ti@@ 132960
yn@@ 132910
Michael 132886
deutsch@@ 132852
eti@@ 132829
ese 132774
ihr@@ 132758
Sin@@ 132701
Mil@@ 132383
Bet@@ 132129
Museum 132047
ail@@ 131941
ume 131787
ó@@ 131680
ement 131647
anc@@ 131617
Mel@@ 131562
.000 131428
1980 131155
äude 130906
isation 130629
ane 130558
organ@@ 130451
lers 130438
do 130333
ors 130212
egr@@ 130003
Ag@@ 129924
Wes@@ 129731
1987 129714
finale 129572
² 129394
1970 129039
co@@ 128989
County 128877
sw@@ 128636
Ki@@ 128482
Sam@@ 128470
Val@@ 128375
Prin@@ 128319
Parlam@@ 128257
Syst@@ 128257
fün@@ 128206
Brand@@ 128067
Os@@ 128010
ama 127990
test@@ 127940
unkt 127642
1939 127361
Thomas 127118
preu@@ 127060
Ban@@ 126999
abri@@ 126854
Gö@@ 126662
ko 126660
ah 126623
Not@@ 126431
ag 126427
tt@@ 126368
Du@@ 126165
Leg@@ 126124
Cl@@ 125974
mw@@ 125920
1938 125591
film 125379
Prof@@ 125318
1986 125257
bec@@ 125237
del@@ 125232
Robert 125050
1974 124821
pro 124547
astr@@ 124456
ven@@ 124401
š@@ 124372
26 124318
Et@@ 124197
Bus@@ 124191
AG 123968
28 123850
zy@@ 123690
1984 123571
ünden 123443
San 123389
era 123371
1975 123212
Martin 122891
nch@@ 122865
1985 122795
Nam@@ 122729
ock 122693
Aug@@ 122604
stan@@ 122591
nier 122541
National 122226
eint 121948
och 121934
Ren@@ 121837
andes 121785
mat@@ 121661
gri@@ 121659
lanz@@ 121625
1944 121570
ci@@ 121405
Tour@@ 121385
ea 121238
xim@@ 121139
Akadem@@ 121067
gal@@ 121024
wur@@ 121014
Tro@@ 120933
mm 120899
hie 120898
entw@@ 120822
did@@ 120796
ek 120786
Bon@@ 120770
mot@@ 120745
Ni@@ 120680
fort 120614
til 120608
00 120542
Del@@ 120415
tive 120190
ling@@ 120063
1978 119926
ey 119867
ti 119820
1968 119692
Deb@@ 119678
Mich@@ 119540
Jahr@@ 119453
ei@@ 119446
Eis@@ 119427
lad@@ 119413
Je@@ 119326
öffentlich@@ 119298
cm 119255
Form@@ 119199
Person@@ 119175
27 119099
Hy@@ 119037
gegrün@@ 119028
Gold@@ 118946
ams 118932
Andre@@ 118931
19@@ 118917
ustr@@ 118876
Wit@@ 118863
Tal@@ 118854
Ol@@ 118848
3,@@ 118802
ema 118771
ini 118746
sa 118733
wil@@ 118681
run@@ 118551
iche 118441
500 118439
1969 118305
umb@@ 117809
1979 117748
dh@@ 117737
ustri@@ 117623
On@@ 117605
1973 117595
1983 117468
ht 117328
1971 117325
Dom@@ 117258
Kn@@ 117220
emein@@ 117139
Bib@@ 117137
1982 117028
wer 116888
Ing@@ 116861
International 116837
serv@@ 116718
tal 116581
Stad@@ 116490
West 116439
iler 116214
ide@@ 116168
ges 116061
afr@@ 116047
aly@@ 116000
1976 115944
hy@@ 115932
mess@@ 115790
Chem@@ 115706
co 115688
ört 115671
Institut 115522
Sz@@ 115490
verg@@ 115450
ack 115282
Tem@@ 115261
Gü@@ 115046
by 114903
ras@@ 114740
1960 114679
City 114670
ien@@ 114271
Arti@@ 114094
Mitgli@@ 114077
medi@@ 113955
ha@@ 113812
! 113449
Carl 113425
arm@@ 113089
win@@ 113088
ises 113062
sburg 113050
ence 113020
eo 112963
Ham@@ 112945
1950 112852
enes 112760
Mc@@ 112756
í@@ 112726
sych@@ 112723
1946 112659
Web@@ 112482
ode 112374
1981 112345
fen@@ 112327
ca 112280
England 112256
ings 112179
Joseph 112092
Z 112076
36 111832
inc@@ 111406
Sk@@ 111328
arch@@ 111291
Minister@@ 111160
mission 111070
thi@@ 111005
dar 110986
kop@@ 110830
Red@@ 110495
System 110381
hard 110193
mor@@ 110060
Pres@@ 109925
Cas@@ 109919
vat@@ 109874
1.@@ 109847
1964 109407
ha 109139
ider 109136
SP@@ 109106
1977 109085
plan@@ 109060
1967 108849
Pil@@ 108828
Gol@@ 108695
net@@ 108671
kol@@ 108640
Bür@@ 108618
ater@@ 108405
za 107956
33 107877
Tab@@ 107807
sek@@ 107728
34 107579
onom@@ 107220
lug@@ 107215
j 107156
Sand@@ 107122
ple@@ 107019
iste 106530
Tour 106326
onz@@ 106279
Tür@@ 106253
abr@@ 106219
II 106202
ata 106167
1965 106154
Mass@@ 106121
á 106114
selb@@ 106017
iken 105993
Hist@@ 105771
Jose@@ 105736
Division 105719
ange 105543
31 105509
Med@@ 105488
Universit@@ 105445
1966 105353
fiz@@ 105340
Juni@@ 105335
45 105322
alm@@ 105113
Juli@@ 105065
29 105004
Fri@@ 104898
ic 104886
ont 104444
Fak@@ 104438
ł@@ 104376
ford 104277
ebe 103985
1963 103951
1961 103943
kamp@@ 103861
ost 103816
syst@@ 103775
Christian 103692
onder@@ 103659
was@@ 103561
tit@@ 103522
ara 103518
1952 103301
1962 103203
org@@ 103193
Fo@@ 103161
38 103150
1956 103047
75 102965
1940 102881
bs 102662
illa 102654
no 102304
37 102292
1948 102281
oper@@ 102248
park 102240
Hu@@ 102203
° 102083
Park 101905
priv@@ 101874
Pas@@ 101761
ee 101718
uz 101690
Ap@@ 101638
Kab@@ 101603
ong 101458
1949 101432
Rud@@ 101259
Syn@@ 101213
du 101205
rot@@ 100789
ond@@ 100776
Tel@@ 100554
Lab@@ 100551
1941 100510
estr@@ 100245
med@@ 100212
ros@@ 100113
van 100025
1942 100023
1943 99987
prin@@ 99820
Journ@@ 99672
Lit@@ 99662
jap@@ 99538
1958 99362
ars 99356
aun@@ 99211
Il@@ 99151
Pan@@ 98812
ya 98807
Cal@@ 98704
Sub@@ 98592
aill@@ 98572
Dé@@ 98566
studi@@ 98521
lo 98518
nit@@ 98506
üler 98335
Phili@@ 98283
unge 98207
ille 98180
ae 98109
ys 97950
Kenn@@ 97662
milit@@ 97615
ust 97603
Nik@@ 97508
David 97477
1959 97398
tar 97361
General 97261
poli@@ 97109
Mol@@ 97072
William 96956
oy@@ 96952
Leb@@ 96938
fil@@ 96936
College 96695
assi@@ 96385
tradi@@ 96330
Alexander 96322
rom@@ 95932
Span@@ 95843
Don@@ 95762
1947 95738
1957 95666
sion@@ 95287
urs 95283
itu@@ 95228
Richard 94944
wak@@ 94798
system 94621
ages 94620
Sat@@ 94408
hor@@ 94185
las 94096
chan@@ 94092
1918 94019
adem@@ 93986
1953 93904
1934 93821
Dec@@ 93771
39 93758
adr@@ 93718
1955 93673
1936 93650
alls 93649
1954 93643
ance 93641
č@@ 93640
trans@@ 93454
opp@@ 93418
otte 93352
1920 93302
aup@@ 93242
eth@@ 93156
ok 93073
tür@@ 93036
Arch@@ 93032
1919 92999
dest@@ 92992
agement 92967
65 92951
esti@@ 92381
tern@@ 92254
chr@@ 92182
ky 92080
Fu@@ 91955
Man 91921
bor@@ 91831
aten@@ 91454
Cup 91380
way 91344
nie 91314
bot 91163
typ@@ 90956
atr@@ 90859
… 90802
og 90764
Union 90752
ora 90648
burg@@ 90618
Ker@@ 90520
Anti@@ 90506
ener@@ 90495
School 90445
kat@@ 90413
Fi@@ 90224
ace 90116
ary 90105
Hein@@ 89913
une 89913
Math@@ 89869
we 89849
lerin 89597
Hot@@ 89594
sist@@ 89558
‘ 89541
Roman 89503
Bat@@ 89496
serie 89486
Jean 89469
Rein@@ 89353
1937 89277
ands 89269
Distr@@ 89043
inden 88648
name 88624
Num@@ 88601
Mad@@ 88493
China 88427
elerin 88426
ill 88424
Max 88387
1951 88203
dad@@ 88195
Lig@@ 88178
nat@@ 88151
bot@@ 88144
strum@@ 88138
od 88111
1935 88034
tron@@ 88000
Lag@@ 87953
pan@@ 87905
Q@@ 87814
ause 87740
+ 87610
Orig@@ 87609
alter@@ 87465
mag@@ 87257
Ander@@ 87144
1930 87019
Gas@@ 87001
bro@@ 86987
James 86962
kam@@ 86787
Bern@@ 86779
rel@@ 86768
Patr@@ 86659
for 86592
Pot@@ 86529
ograph@@ 86514
4,@@ 86424
sam@@ 86416
ution 86349
pass@@ 86346
Mont@@ 86308
iko 86225
World 86209
rün@@ 86198
program@@ 86165
Hir@@ 86158
dro@@ 86103
George 86018
TV 86000
peri@@ 85813
ont@@ 85698
Jes@@ 85602
ville 85593
ony@@ 85506
inst@@ 85453
mand@@ 85447
prof@@ 85186
ickl@@ 85134
abil@@ 85075
Parti@@ 85045
Ord@@ 85022
ain 85021
partement 84980
Seg@@ 84926
ala 84863
Bad@@ 84846
ense@@ 84621
Mach@@ 84396
pres@@ 84263
ando 84072
Bir@@ 84048
use 83973
Sar@@ 83856
position 83557
ems 83541
Fal@@ 83420
chung 83413
ō 83232
etes 83194
CD@@ 83143
1914 83141
Dr. 83121
chester 83120
stati@@ 83089
My@@ 83082
kw@@ 83028
197@@ 83025
2.@@ 82939
arg@@ 82808
1928 82793
nes 82764
lem 82756
mod@@ 82741
will 82700
sur 82622
under@@ 82476
hu@@ 82439
iment 82295
Bud@@ 82268
char@@ 82211
ump@@ 82175
gestell@@ 82142
car@@ 82115
emb@@ 82107
X 82051
Sem@@ 81850
ire 81689
din@@ 81644
1929 81641
River 81606
identi@@ 81585
Stadi@@ 81506
pa@@ 81469
ital 81411
ap 81410
55 81382
64 81293
versi@@ 81182
Revol@@ 81076
Bul@@ 81066
relati@@ 81052
198@@ 81044
Sim@@ 80797
Radi@@ 80776
1932 80743
usi@@ 80718
Japan 80703
eum 80673
Club 80627
jewe@@ 80613
urt 80546
Walter 80439
Premi@@ 80410
proj@@ 80349
Nord 80178
« 80115
1900 79711
» 79704
ly 79620
Cam@@ 79608
Charles 79485
Dav@@ 79478
American 79380
ō@@ 79360
Pop@@ 79324
ton@@ 79307
va 79261
ome 79167
Anna 79117
yst@@ 78945
dings 78819
tal@@ 78732
apo@@ 78705
Sau@@ 78679
graf@@ 78388
li 78302
alg@@ 78291
flo@@ 78291
85 78249
kus@@ 78071
ath 78038
196@@ 78007
dür@@ 77815
400 77739
union 77639
han@@ 77619
esp@@ 77557
SC 77432
ø@@ 77368
ani 77290
mig@@ 77268
A. 77191
kin@@ 76995
199@@ 76926
Emp@@ 76885
42 76871
gs 76845
ders 76773
ā@@ 76772
1925 76700
law@@ 76698
our 76671
Le 76650
dam 76565
Ke@@ 76523
erie 76523
eu@@ 76442
kö@@ 76384
ni 76326
ura 76292
48 76223
Kup@@ 76220
urg@@ 76210
Mark 76200
Les@@ 76107
Mur@@ 76105
5,@@ 76046
eler@@ 75973
ment@@ 75939
ney 75868
kum@@ 75777
La@@ 75690
Nati@@ 75658
300 75485
hel@@ 75400
ona 75385
sem@@ 75354
rol@@ 75352
lem@@ 75322
1924 75257
Pub@@ 75140
ike 75037
1927 74962
ve@@ 74921
akter@@ 74892
atus 74771
Sci@@ 74698
Chi@@ 74601
prak@@ 74536
frag@@ 74473
ockey 74472
‚ 74294
Lat@@ 74032
fs 73989
ouver@@ 73898
abeth 73872
tes@@ 73850
1910 73801
Sor@@ 73799
britanni@@ 73720
44 73504
ac 73435
Super@@ 73392
ächst 73299
Award 73120
sive 72996
chs 72917
fas@@ 72798
formation 72687
Lor@@ 72671
ight 72667
É@@ 72619
7,@@ 72585
Ven@@ 72563
ment 72507
United 72419
abl@@ 72404
Ere@@ 72366
Mik@@ 72227
US@@ 72131
ada 72116
Sof@@ 72099
1931 72084
1921 71979
ć 71920
Jan@@ 71884
Jus@@ 71830
ines 71803
Nov@@ 71718
Hom@@ 71530
Tun@@ 71434
Song 71388
ies 71354
tiz@@ 71344
ez 71290
Grand 71033
Ant@@ 71017
luss 70931
1923 70915
iss 70914
Pat@@ 70849
1926 70705
stor@@ 70655
bay@@ 70599
ty 70592
seur 70557
Pau@@ 70535
nomin@@ 70525
lim@@ 70487
ari 70460
gol@@ 70411
Blu@@ 70401
istr@@ 70390
Engl@@ 70340
imin@@ 70318
enfalls 70289
Hit@@ 70256
AS@@ 70208
6,@@ 70082
pas@@ 70081
anne 70051
? 70046
mes 70044
52 70020
Bol@@ 69929
1912 69891
uli@@ 69867
Open 69811
ls 69766
inal 69635
nd@@ 69629
Star@@ 69590
Tan@@ 69522
och@@ 69433
Anf@@ 69398
liz@@ 69370
Cap@@ 69315
Louis 69097
cor@@ 69090
pal@@ 69088
1922 69071
AT@@ 69047
Wag@@ 69043
Sum@@ 69012
Festival 68895
Hum@@ 68856
ds 68819
fir@@ 68809
ais 68790
Lim@@ 68766
Tenn@@ 68677
tol@@ 68604
72 68596
que 68541
gh@@ 68510
liter@@ 68478
Hon@@ 68463
dur@@ 68449
zur@@ 68436
lin 68417
ory 68332
eder 68315
ppe 68252
oz@@ 68212
ou 68180
cher@@ 68174
51 68056
No@@ 67943
eng 67762
wech@@ 67738
Albert 67504
vis@@ 67382
47 67222
ř@@ 67198
Mand@@ 67042
part@@ 67032
ita 67012
fur@@ 66937
41 66909
Rou@@ 66632
line 66550
Rum@@ 66524
Cre@@ 66474
56 66463
Roc@@ 66434
eden 66402
Can@@ 66359
sm@@ 66350
air@@ 66315
empl@@ 66224
Kad@@ 65983
43 65965
film@@ 65925
vari@@ 65865
famil@@ 65739
inger@@ 65698
54 65613
include 65537
88 65491
nant 65490
prot@@ 65418
defin@@ 65375
Pen@@ 65354
1913 65329
inf@@ 65275
Jac@@ 65261
Nic@@ 65094
Royal 64994
stil@@ 64964
Net@@ 64956
Air@@ 64935
Alb@@ 64900
Ann@@ 64876
dition 64855
Amer@@ 64848
ola 64790
53 64776
iller 64772
ella 64662
Gran@@ 64593
liste 64590
Tar@@ 64536
Ok@@ 64511
Nav@@ 64401
Station 64244
log@@ 64220
Los 64140
78 64068
rad@@ 64032
Wah@@ 63929
Tak@@ 63862
mark 63777
rich 63756
ham 63728
Mul@@ 63630
dies@@ 63596
Ath@@ 63592
86 63583
ash@@ 63521
Der@@ 63507
Island 63489
bis@@ 63487
1911 63478
71 63455
66 63434
low 63370
46 63352
teur 63340
ards 63323
49 63275
SS 63252
enda 63225
ime 63224
azz 63162
tic@@ 63154
lege 62992
Washington 62946
Portu@@ 62921
ws 62907
J 62747
1000 62709
Luc@@ 62578
alog@@ 62543
S. 62423
ieder 62403
Jer@@ 62398
63 62361
PS 62354
ér@@ 62302
76 62158
1907 62153
fle@@ 62059
ental 62039
68 61932
tut@@ 61909
1905 61899
89 61890
mid@@ 61875
3.@@ 61856
rem@@ 61749
195@@ 61685
62 61648
95 61571
fik@@ 61553
84 61522
2022 61518
Bank 61511
vern@@ 61377
57 61368
Mac@@ 61343
zös@@ 61274
Camp@@ 61125
1917 61117
× 61111
ity 61105
58 60991
ico 60955
mt@@ 60955
ole 60936
ris@@ 60796
8,@@ 60779
ith 60640
83 60628
religi@@ 60623
Olympi@@ 60589
Astr@@ 60586
Hen@@ 60585
Tom@@ 60569
í 60524
1908 60518
77 60470
67 60468
Sou@@ 60445
Wat@@ 60422
Af@@ 60406
5.@@ 60335
chem@@ 60313
61 60218
una 60065
Est@@ 60015
Alfre@@ 59925
Bras@@ 59900
put@@ 59868
stitu@@ 59863
Marie 59849
sar@@ 59845
Rob@@ 59716
87 59691
dens@@ 59664
05 59522
74 59508
ald 59471
kas@@ 59427
alifor@@ 59394
ünde 59344
ket@@ 59340
59 59256
ogr@@ 59214
bus@@ 59107
lub 59104
82 59094
Sw@@ 59092
Harr@@ 59053
rec@@ 59052
Frank 58994
agn@@ 58959
Rem@@ 58952
Bos@@ 58884
ro 58852
hi 58849
rest@@ 58826
ão 58786
ord 58731
eau 58656
igi@@ 58617
Prim@@ 58589
Mes@@ 58535
sal@@ 58435
sil@@ 58431
sub@@ 58327
tan 58223
ima 58151
Mex@@ 58135
alist 58126
04 58111
1906 58105
ordin@@ 58101
such 58079
mil@@ 58076
ov 58076
Air 58054
eur@@ 58046
73 57977
AR@@ 57944
Steph@@ 57925
Kos@@ 57850
num@@ 57849
vid@@ 57846
kg 57798
IS@@ 57796
neur 57750
flu@@ 57706
81 57689
ask@@ 57681
val@@ 57638
ande 57632
ular@@ 57606
tent@@ 57533
tis 57448
Hab@@ 57446
af 57443
mes@@ 57339
q@@ 57325
Mär@@ 57269
Ram@@ 57239
ota 57189
min 57171
sc@@ 56917
De 56853
&#124; 56747
Maur@@ 56724
adel@@ 56713
ical 56687
same 56681
chn@@ 56500
Laur@@ 56435
semb@@ 56391
1909 56383
01 56337
Id@@ 56335
esh@@ 56173
ty@@ 56160
Vir@@ 55997
then 55987
dy 55895
album 55863
Mah@@ 55815
69 55804
ira 55783
Records 55773
08 55751
Sul@@ 55748
III 55723
1904 55673
Sur@@ 55661
ela 55573
Ly@@ 55526
ani@@ 55511
ao 55466
ony 55440
sab@@ 55439
J. 55426
ES@@ 55420
Rock 55415
Ra@@ 55400
don@@ 55400
Maj@@ 55355
Publi@@ 55338
Bec@@ 55334
ox@@ 55083
inten@@ 55025
Company 54924
1915 54795
Tu@@ 54742
79 54685
99 54665
ison 54549
09 54523
isl@@ 54506
CD 54395
Rap@@ 54389
Hug@@ 54377
alli@@ 54368
zo 54279
ba 54263
äß@@ 54228
station 54205
dic@@ 54132
ision 54019
Kanada 54016
Des 53973
9,@@ 53736
96 53656
band@@ 53616
ose 53531
Henry 53508
tic 53458
sk 53433
07 53430
Bask@@ 53427
Angeles 53271
Uni@@ 53159
150 53115
dia 53109
1903 53091
win 53073
Ba@@ 53007
tra 52976
CA@@ 52917
bus 52913
ny 52910
Gir@@ 52850
Feder@@ 52773
State 52717
Sig@@ 52700
Bun@@ 52686
ius 52679
AP 52662
yer 52600
uel 52485
1916 52457
Gün@@ 52365
stat@@ 52338
Daniel 52318
bit@@ 52239
tad@@ 52231
öß@@ 52169
omin@@ 52134
Hau@@ 52126
domin@@ 52079
ua 52022
Bak@@ 51918
ô@@ 51916
Abr@@ 51911
mir 51831
Rec@@ 51791
Vil@@ 51783
1902 51676
Top 51649
Radio 51598
gener@@ 51582
ato 51571
aux 51569
neg@@ 51560
Wilhel@@ 51513
ix 51478
pendi@@ 51472
tro 51465
§ 51409
emente 51407
pis@@ 51201
Pow@@ 51119
plan 51065
Vik@@ 51048
Play@@ 51001
98 50981
wood 50978
Vic@@ 50956
ado 50919
Pu@@ 50900
Cast@@ 50866
Sak@@ 50707
1901 50682
South 50631
Bab@@ 50608
enc@@ 50593
elles 50580
92 50537
organisation 50495
m. 50475
House 50387
riere 50373
ics 50356
ga 50317
SS@@ 50280
Liber@@ 50172
sexu@@ 50166
ake 50063
sing@@ 50059
ida 50054
06 50021
con@@ 49919
Ox@@ 49887
grap@@ 49835
Music 49831
Ah@@ 49820
Lar@@ 49818
oni 49800
Sec@@ 49759
1848 49677
utsch@@ 49574
Rod@@ 49504
Society 49484
Lib@@ 49364
ding 49268
1899 49184
ün 49178
UN@@ 49172
dio 49158
High@@ 49142
agne 49125
Mem@@ 49044
osa 48879
go@@ 48867
North 48831
Leon@@ 48730
Flor@@ 48723
ations 48682
Lou@@ 48675
nati@@ 48642
weiten 48441
600 48400
iro 48351
800 48333
oti@@ 48295
öz@@ 48225
94 48171
Pom@@ 48162
ero 48102
Carol@@ 48090
Mak@@ 48090
1898 48087
unt 48087
ington 48007
itt 47972
lis 47932
93 47870
beit@@ 47870
spe@@ 47828
igh@@ 47814
lere 47792
Oli@@ 47789
ry 47773
03 47737
ón 47734
C. 47713
Ori@@ 47676
ij@@ 47645
jur@@ 47561
1890 47558
Av@@ 47521
Alli@@ 47510
low@@ 47464
ava 47431
hunder@@ 47404
inde 47352
New@@ 47302
Has@@ 47258
Lam@@ 47232
02 47221
Tow@@ 47215
bul@@ 47166
bes 47130
Vo@@ 47128
SE@@ 47022
Hall 46925
97 46904
Rog@@ 46870
enne 46869
Santa 46818
Anth@@ 46743
bran@@ 46716
Seb@@ 46660
Chicago 46464
si 46448
Pierre 46418
mir@@ 46358
essor 46354
91 46347
met 46341
az 46285
1895 46254
Dev@@ 46234
Eg@@ 46202
mar 46084
field 46079
Ku@@ 46074
M. 46070
1896 46059
Lan@@ 46027
â@@ 46023
Mir@@ 46010
Ear@@ 46003
ž@@ 45968
lob@@ 45931
Sab@@ 45919
Ca@@ 45808
Association 45792
ism@@ 45734
1870 45719
Na@@ 45697
Š@@ 45692
ish 45670
oto 45662
verse 45585
autom@@ 45558
gewäh@@ 45526
High 45366
iter@@ 45332
ign 45323
1871 45290
sho@@ 45255
1897 45239
Ari@@ 45196
po 45144
awa 45125
red@@ 45079
ief 45078
ello 45012
Vill@@ 44917
ife 44898
Institute 44884
op 44849
Lev@@ 44813
ye 44747
yc@@ 44721
aja 44714
lima 44707
raine 44668
à 44667
Vis@@ 44581
Institu@@ 44570
mol@@ 44492
ologi@@ 44409
mau@@ 44408
Kh@@ 44367
ré@@ 44349
lock 44331
born 44321
00@@ 44281
Domin@@ 44246
4.@@ 44209
Jap@@ 44137
Ale@@ 44114
natur@@ 44070
May@@ 44068
British 44053
Cur@@ 44053
Tran@@ 44023
All 44010
ée 43985
ting 43941
elli 43940
ques 43920
ali 43841
Andr@@ 43830
Sc@@ 43772
But@@ 43762
ift 43635
Stan@@ 43567
ear@@ 43445
trop@@ 43434
int 43329
tab@@ 43251
zis@@ 43208
ine@@ 43172
aul@@ 43159
Lake 43140
agon@@ 43124
fak@@ 43116
Arts 43019
Clau@@ 43007
Alexand@@ 42992
Franc@@ 42965
xe 42965
Ran@@ 42894
Academy 42879
Pin@@ 42854
anda 42827
grab@@ 42811
vers 42777
Sav@@ 42775
ě@@ 42692
fran@@ 42654
App@@ 42630
international 42564
1893 42549
Jahrhunder@@ 42516
1,5 42504
ech 42500
lie 42471
193@@ 42413
El 42413
mont 42369
Clar@@ 42364
udi@@ 42317
zone 42258
ave 42170
Tim@@ 42140
etts 42112
1850 42045
lande 42016
Vid@@ 42004
ident@@ 41864
Cro@@ 41761
³ 41721
1892 41694
aller@@ 41689
1880 41611
popul@@ 41555
imb@@ 41551
Moh@@ 41535
my 41530
radi@@ 41474
ion@@ 41390
tors 41383
sum@@ 41251
ian 41248
olo@@ 41233
Pad@@ 41212
ario 41210
shire 41209
up 41158
Arm@@ 41149
RA@@ 41135
Star 41128
aci@@ 41070
SA 41068
kan 40975
fund@@ 40973
Gor@@ 40920
Mu@@ 40868
onal 40852
ère 40839
1885 40787
vo@@ 40772
MS 40762
án 40741
Blan@@ 40727
Nag@@ 40698
Eu@@ 40683
Center 40629
Gil@@ 40586
Sus@@ 40583
ý 40581
ulation 40539
1894 40527
Kil@@ 40497
pot@@ 40495
odi@@ 40452
Coun@@ 40420
Group 40375
1888 40347
uni@@ 40335
cha 40294
Sho@@ 40285
Wa@@ 40218
ells 40162
1889 40101
yn 40099
1874 40068
Eri@@ 40059
ays 40013
try 40002
ury 39997
gal 39941
Football 39841
ehem@@ 39816
H. 39806
ju@@ 39778
Thi@@ 39771
1891 39728
mos@@ 39715
zahl@@ 39659
pil@@ 39654
D. 39600
Arthur 39584
organis@@ 39567
go 39530
Hav@@ 39510
eil 39488
person@@ 39484
pa 39472
ul 39391
mond 39384
Ig@@ 39303
ū@@ 39290
Liv@@ 39289
mak@@ 39289
Show 39288
Argent@@ 39286
ail 39278
å@@ 39253
ux 39231
Israel 39213
were 39178
Cy@@ 39129
oma 39088
bö@@ 39051
Simon 39046
CO@@ 38999
Smith 38991
liber@@ 38954
com@@ 38869
1860 38837
ri 38805
onne 38744
Dur@@ 38630
cho@@ 38629
bat@@ 38599
Black 38598
ami@@ 38585
fig@@ 38582
ío 38558
1879 38551
vir@@ 38539
traf@@ 38524
cl@@ 38516
Pak@@ 38500
tour@@ 38458
Augus@@ 38449
ila 38446
tech@@ 38444
kilom@@ 38417
1866 38400
ji 38396
AC 38355
1500 38325
Rev@@ 38320
Pic@@ 38315
philos@@ 38227
gü@@ 38194
ati 38174
phy@@ 38166
Arab@@ 38134
Mun@@ 38090
Cat@@ 38033
Live 38010
jo@@ 37972
rup@@ 37966
Bay 37959
Vel@@ 37948
VI@@ 37937
omb@@ 37917
seg@@ 37911
dan 37809
ond 37788
probl@@ 37785
tend@@ 37760
iga 37754
hum@@ 37708
250 37698
1875 37677
Blo@@ 37637
stad@@ 37611
Super 37596
ble 37596
FI@@ 37533
q 37490
Tol@@ 37485
oug@@ 37433
Atlan@@ 37400
aka 37366
uno 37337
ede 37332
tle 37310
aug@@ 37212
Dig@@ 37210
auto@@ 37174
tom@@ 37150
prim@@ 37072
1887 37015
Party 37003
1867 36982
phe 36962
OS 36953
Č@@ 36931
eta 36907
Que@@ 36871
1886 36859
Chin@@ 36775
Columb@@ 36753
Internet 36735
Rail@@ 36721
Soci@@ 36711
dal@@ 36682
King 36622
Haw@@ 36608
material 36603
kad@@ 36586
uri 36531
120 36528
W. 36404
Francisco 36356
able 36334
idae 36328
teri@@ 36308
extr@@ 36261
dium 36248
dün@@ 36228
1872 36226
Cer@@ 36170
1884 36123
bien 36114
Profes@@ 36019
1873 35991
strat@@ 35953
Tanz@@ 35952
1868 35929
tam@@ 35921
sta 35918
Edward 35883
figur@@ 35859
ensis 35845
José 35794
Wh@@ 35771
ej@@ 35748
isa 35741
zi 35732
... 35700
ements 35626
Commun@@ 35614
ants 35504
Nar@@ 35450
1881 35385
1882 35380
Don 35318
Champi@@ 35308
initi@@ 35304
ito 35272
6.@@ 35264
vice 35263
States 35216
Greg@@ 35178
Ci@@ 35066
IC@@ 35001
nov@@ 34913
ce@@ 34875
tha 34865
1883 34859
ends 34839
1878 34829
Ky@@ 34820
Ka@@ 34792
cus 34782
out 34721
Soh@@ 34635
Street 34617
Conn@@ 34565
famili@@ 34542
1876 34461
Ferr@@ 34434
vel@@ 34420
1861 34391
restaur@@ 34375
eth 34332
ition 34244
örd@@ 34243
tir@@ 34187
view 34187
col@@ 34138
let 34128
well 34109
Pon@@ 34101
ë@@ 34092
vention 34075
via 34071
Penn@@ 34012
dik@@ 33958
kab@@ 33924
1869 33801
Fut@@ 33770
Vit@@ 33726
France 33709
aga 33707
pul@@ 33699
Afr@@ 33697
istan 33671
E. 33657
Arg@@ 33637
1864 33636
erry 33616
Red 33614
ides 33603
Mid@@ 33503
Afrika 33488
ami 33478
kin 33476
Mary 33461
mati@@ 33433
1865 33395
Loc@@ 33380
Ö 33372
700 33323
iy@@ 33277
lip@@ 33265
idge 33237
ici@@ 33179
IV 33157
tener 33154
1862 33153
tex@@ 33151
ots 33150
Div@@ 33129
1877 33116
text 33087
eur 33077
seud@@ 33063
Prix 33037
Gh@@ 33027
uy@@ 33026
Nat@@ 32993
Texas 32986
Antonio 32911
ous 32864
aya 32855
sequ@@ 32715
ames 32704
aki 32681
fa@@ 32664
bir@@ 32650
archit@@ 32625
Yor@@ 32623
IN@@ 32541
umin@@ 32519
chi 32502
da@@ 32500
Fes@@ 32355
Lee 32351
don 32339
gün@@ 32329
bara 32296
ín 32269
ores 32215
− 32103
hom@@ 32075
histori@@ 32044
ú@@ 31961
nec@@ 31929
agr@@ 31899
su 31888
open@@ 31878
ology 31861
Lon@@ 31849
version 31828
Buc@@ 31652
ves 31645
Tom 31638
mo 31623
Hill 31590
esses 31545
ban 31526
kale 31472
AS 31415
tus 31390
ement@@ 31364
mf@@ 31356
BM@@ 31351
enter 31338
wa@@ 31333
individu@@ 31282
lor@@ 31269
qui@@ 31228
Al 31192
yth@@ 31186
over 31177
è@@ 31175
8.@@ 31159
1863 31124
Best 31052
Din@@ 30997
anger 30995
Az@@ 30990
ament 30987
1800 30955
F. 30951
7.@@ 30932
Kilom@@ 30913
fo@@ 30913
elem@@ 30890
R. 30884
Awards 30851
Van 30843
anth@@ 30841
gres@@ 30823
reste 30755
iki 30717
front 30711
ship 30693
materi@@ 30674
unc@@ 30637
professi@@ 30625
kio 30611
lam 30594
tain 30539
aining 30525
ER@@ 30484
spir@@ 30465
Fac@@ 30445
haber 30421
Force 30393
ń@@ 30358
Bou@@ 30342
atin 30339
onald 30336
aceae 30295
ning 30243
Boy@@ 30180
Was@@ 30176
nde 30150
Boston 30129
Meg@@ 30108
Oc@@ 30106
sal 30099
bin 30064
sur@@ 29990
prop@@ 29971
own 29965
BC 29961
ports 29958
Bow@@ 29957
syl@@ 29901
sky 29866
exper@@ 29860
instrum@@ 29836
aissance 29781
itation 29736
our@@ 29721
Thom@@ 29710
rom 29663
NGC 29653
region 29651
west 29600
Sm@@ 29595
gan 29572
jug@@ 29530
Les 29507
Univers@@ 29500
eri 29487
ley@@ 29467
alis 29460
Cel@@ 29440
anus 29430
jam@@ 29394
syn@@ 29375
Law@@ 29351
orden 29323
Barcelona 29278
bol 29265
ube 29243
SA@@ 29238
agu@@ 29228
cr@@ 29228
Big 29214
ci 29187
uld 29161
Amerika 29152
list@@ 29150
ady 29136
Williams 29125
Jones 29121
tre 29104
Jor@@ 29005
You 28988
ough 28984
bridge 28915
ences 28892
inv@@ 28876
polis 28870
ilde 28868
ades 28865
200@@ 28862
eus 28859
Jack 28822
án@@ 28808
CO 28783
aria 28781
ham@@ 28744
alar@@ 28718
Tam@@ 28673
Hay@@ 28652
Cru@@ 28634
tier 28612
Cu@@ 28608
East 28595
industri@@ 28595
üne 28570
Cou@@ 28567
TA 28550
fot@@ 28550
ania 28512
Madrid 28509
ross 28498
tions 28456
lor 28440
Var@@ 28384
antas@@ 28370
ny@@ 28364
vent@@ 28359
ault 28338
FA 28323
Histori@@ 28319
gio 28314
uke 28291
yg@@ 28271
king 28268
eu 28250
parti@@ 28247
under 28226
Cir@@ 28134
bol@@ 28097
ope 28088
ret 28087
Dou@@ 28073
onia 28055
Joe 28049
team 28044
earch 28031
Brown 27982
sons 27953
Juan 27932
usal@@ 27909
ort@@ 27880
ones 27825
ston 27823
ador 27815
sim@@ 27802
1830 27789
pri@@ 27784
olo 27751
differ@@ 27727
How@@ 27692
P. 27686
ces@@ 27633
Virginia 27588
ingu@@ 27559
ardo 27554
ax 27549
Corpor@@ 27548
ī@@ 27535
inus 27481
Sir 27460
Tay@@ 27445
rey 27414
3000 27413
European 27377
tain@@ 27359
biet 27342
.C. 27273
stant@@ 27221
ori 27211
sul@@ 27204
etc. 27183
Lord 27162
ometr@@ 27156
Kön@@ 27154
sang 27138
Love 27130
François 27126
Philipp@@ 27104
gia 27097
edy 27055
nam 27001
cy 26970
eci@@ 26966
ram@@ 26962
50@@ 26936
real 26933
Florida 26926
ova 26906
ç@@ 26869
Barr@@ 26868
One 26828
dist@@ 26824
cre@@ 26815
ago 26762
Championship 26759
bury 26749
vania 26717
thern 26715
DVD 26703
fin 26699
endel@@ 26695
ä 26669
White 26658
par 26606
ize 26575
def@@ 26523
Elec@@ 26485
Western 26459
berto 26410
alia 26392
yd@@ 26376
Jacques 26360
Shi@@ 26294
Jam@@ 26274
Hosp@@ 26196
endi@@ 26195
Cle@@ 26188
Scott 26150
Anne 26126
AD@@ 26118
Ken@@ 26113
autor@@ 26108
Dal@@ 26104
ministr@@ 26101
anga 26089
olas 26034
unds 26031
ʿ@@ 26010
pur@@ 25963
Nu@@ 25957
institu@@ 25954
ă@@ 25953
Alex@@ 25947
bers 25836
outh 25829
pap@@ 25819
cas@@ 25812
AC@@ 25804
uo 25782
eral 25779
dat@@ 25762
abor@@ 25735
por 25684
major 25665
ares 25664
sü@@ 25663
Central 25641
AM@@ 25635
bo 25624
sign@@ 25606
L. 25589
Christi@@ 25580
Army 25570
Cath@@ 25465
ativ@@ 25453
ouv@@ 25448
Beau@@ 25447
ops 25439
cer@@ 25435
ès 25429
vie@@ 25421
estra 25394
zar@@ 25372
110 25297
Whit@@ 25286
aire 25273
sis 25271
etti 25265
lab@@ 25252
EP 25239
Y 25159
lia 25152
John@@ 25121
onto 25108
én@@ 25098
sun@@ 25088
Scot@@ 25083
æ@@ 25063
ę@@ 25057
Mill@@ 25041
yon 25031
lan 25022
St 25008
uba 24998
ush@@ 24956
osp@@ 24947
š 24898
10,@@ 24863
Johnson 24812
AN@@ 24801
cal 24784
Victoria 24766
anci@@ 24757
omen 24741
sin 24729
yan 24722
DS 24700
kup@@ 24696
urn@@ 24641
Bill@@ 24620
phil@@ 24618
vil@@ 24609
Sher@@ 24597
Maz@@ 24554
chil@@ 24541
stanbul 24506
ș@@ 24465
ó 24395
atom@@ 24343
Kit@@ 24331
ego 24320
Young 24310
She@@ 24291
video 24283
loy@@ 24254
prob@@ 24246
ista 24227
Ž@@ 24187
ebo@@ 24185
hav@@ 24169
interpre@@ 24147
ash 24091
Squ@@ 24070
aud 24064
ces 24051
time 24051
Lis@@ 24050
quelle 24050
cul@@ 24048
Munici@@ 24036
ū 24015
dé@@ 23991
ía 23970
9.@@ 23960
Ohio 23955
mente 23951
tien 23935
180 23898
ido 23892
RE@@ 23858
ortho@@ 23810
és 23798
vic@@ 23785
Hat@@ 23770
jo 23766
diplom@@ 23728
provin@@ 23711
ula 23701
aro 23694
Meh@@ 23677
Green 23673
Sant@@ 23652
inas 23642
opo@@ 23620
Tw@@ 23601
Games 23571
First 23544
etti@@ 23525
ili 23495
Bang@@ 23457
tot@@ 23453
CE@@ 23447
Chile 23442
Chap@@ 23419
edo 23406
sah@@ 23396
$ 23377
journ@@ 23293
omo 23223
rain 23220
Blue 23195
Council 23195
mittee 23189
resp@@ 23172
Viet@@ 23171
can@@ 23168
oa 23148
ests 23070
mi 23057
ères 23043
Life 23039
igan 22923
asi 22921
# 22907
esa 22873
anta 22869
dis 22867
0.@@ 22865
ref 22821
sey 22794
Carlos 22791
ept@@ 22769
ual 22748
blo@@ 22741
Henri 22727
12,@@ 22726
sour@@ 22725
” 22718
40@@ 22675
ense 22653
lü@@ 22626
inspir@@ 22616
Ali@@ 22596
Kus@@ 22561
California 22537
progr@@ 22531
Bev@@ 22485
alth 22482
any 22481
ids 22478
tos 22467
Illinois 22464
fa 22455
Ben 22426
ep 22413
temper@@ 22409
eds 22399
thr@@ 22370
ST@@ 22368
900 22317
tun@@ 22291
Centre 22245
ár@@ 22241
grub@@ 22210
Cul@@ 22184
ex 22153
ering 22139
quot@@ 22137
Riv@@ 22133
these 22105
Q 22102
Town 22098
Road 22084
ho 22048
Rep@@ 22044
aine 22030
obj@@ 22018
oli 22018
AB@@ 21994
press 21983
asa 21972
UEFA 21964
eto 21960
124@@ 21942
respon@@ 21932
cel@@ 21928
patr@@ 21907
AP@@ 21903
ji@@ 21899
irat@@ 21892
ains 21885
yan@@ 21878
160 21863
Sun@@ 21848
cir@@ 21792
lit 21777
K. 21752
avi@@ 21717
Nob@@ 21705
uk 21705
iller@@ 21694
ado@@ 21684
polit@@ 21660
bi 21642
Me 21632
mah@@ 21621
din 21598
Church 21557
aqu@@ 21541
alan@@ 21539
ór@@ 21525
ect 21521
eles 21509
yo 21505
air 21487
nation@@ 21480
azar@@ 21472
PC 21436
My 21427
ols 21424
gö@@ 21381
ous@@ 21372
Brit@@ 21362
bour@@ 21355
cio 21342
Jackson 21324
ince 21320
rap@@ 21257
ansas 21255
ior 21252
Times 21216
saison 21212
CH@@ 21194
quit@@ 21193
resul@@ 21184
Ay@@ 21179
ae@@ 21145
nas@@ 21130
130 21110
COVID 21087
oks 21074
Ped@@ 21061
xi@@ 21061
cal@@ 21057
deg@@ 21047
alternati@@ 21045
Chil@@ 21042
hem 21018
Windows 21002
Cin@@ 20972
BA 20964
oo 20916
vin 20891
pend@@ 20868
if 20855
vit@@ 20853
11,@@ 20844
bon@@ 20833
oria 20825
ilit@@ 20819
antes 20812
has@@ 20803
imp@@ 20800
separ@@ 20800
universit@@ 20795
imi@@ 20785
tari@@ 20782
IM@@ 20779
kil@@ 20773
Media 20754
lé@@ 20753
ular 20745
hai 20703
hau@@ 20701
Jersey 20666
cho 20660
Cop@@ 20649
pat@@ 20627
Osman@@ 20626
oi 20625
NA 20567
Hung@@ 20527
row 20526
DC 20481
Women 20475
140 20468
mad 20455
feder@@ 20414
entes 20394
Sain@@ 20363
Anton@@ 20352
situ@@ 20326
mine 20301
exp@@ 20286
assist@@ 20257
Á@@ 20251
Ash@@ 20209
any@@ 20151
ü 20124
aud@@ 20110
vas@@ 20081
Tod@@ 20063
ð@@ 20056
orum 20055
aco 20019
lier 20003
git@@ 19975
spor@@ 19974
ñ@@ 19955
iness 19943
ason 19931
CI@@ 19895
orial 19882
AI@@ 19861
Real 19852
ogo 19850
half 19841
ī 19828
DV@@ 19818
now 19809
aster@@ 19779
pes 19759
yle 19746
origin@@ 19614
11@@ 19595
Comp@@ 19595
tival 19595
esc@@ 19591
Ji@@ 19588
ric@@ 19527
esia 19505
Eliz@@ 19474
cin@@ 19472
inform@@ 19456
vo 19456
Sup@@ 19452
han 19441
bom@@ 19386
BS 19379
fic 19376
350 19374
ą@@ 19360
tics 19339
uma 19330
var@@ 19181
ref@@ 19108
ias 19058
ome@@ 19057
tica 19049
Jos@@ 19032
Hak@@ 19031
amo@@ 19009
Doc@@ 19001
hil 18942
ords 18937
kis@@ 18935
mom@@ 18923
dice 18903
igu@@ 18902
gi 18900
pedi@@ 18892
MA 18886
Cab@@ 18881
ega 18873
Ye@@ 18863
pin@@ 18846
America 18835
ites 18822
Manuel 18816
aison 18801
CA 18800
aba 18799
na@@ 18767
S.@@ 18766
Great 18762
Def@@ 18712
XV@@ 18712
vin@@ 18696
ills 18683
ye@@ 18669
cia 18661
→ 18634
DNA 18623
ture 18585
lara 18571
ique 18570
A.@@ 18531
€ 18519
event@@ 18508
120@@ 18497
elo 18446
ede@@ 18412
ever 18399
Venez@@ 18384
Ali 18383
elop@@ 18377
sak@@ 18366
site 18343
atre 18329
ö 18311
Direc@@ 18298
work 18276
soci@@ 18267
Premier 18255
forman@@ 18251
may@@ 18233
Isra@@ 18211
Time 18196
rea 18178
kend@@ 18143
Ny@@ 18106
fon@@ 18106
division 18096
ated 18092
ights 18079
NE@@ 18070
tek@@ 18058
TC 18056
eli 18018
club 18015
NBA 18010
nes@@ 17995
dom@@ 17990
Day 17983
get 17924
ld 17924
ör 17919
Pier@@ 17910
ś@@ 17897
rol 17858
energ@@ 17819
cur@@ 17778
It 17775
uta 17754
tia 17751
ento 17750
cons@@ 17747
court 17732
not 17717
Alg@@ 17711
Ré@@ 17704
sec@@ 17704
Willi@@ 17694
194@@ 17665
bec 17664
dri@@ 17629
Mé@@ 17620
law 17614
kub@@ 17612
iki@@ 17604
eser@@ 17584
cap@@ 17555
dez 17548
duk@@ 17529
eno 17522
alo 17506
pio 17497
Tou@@ 17494
lum 17485
cole 17468
Tok@@ 17467
osh@@ 17456
jan@@ 17436
rez 17417
plant@@ 17406
BBC 17402
esi 17401
Sult@@ 17385
adi 17382
dit 17356
mem@@ 17347
amo 17307
ree 17293
attle 17241
Europe 17195
ways 17186
Nacional 17163
non 17159
bu 17149
arte 17139
10.@@ 17112
büt@@ 17103
hips 17093
lines 17045
Kim 17027
test 17016
District 16992
bon 16991
Ou@@ 16989
War 16967
administr@@ 16900
Tari@@ 16895
Luis 16881
mina 16837
ness 16829
ku 16813
inos 16788
refer@@ 16787
ehir@@ 16773
br 16769
iti 16726
Aires 16715
tas@@ 16715
Canadi@@ 16679
ket 16649
Grande 16642
apar@@ 16642
ues 16641
set 16639
meng@@ 16627
more 16625
Long 16603
Produc@@ 16585
RO@@ 16571
Buenos 16562
key 16546
hur@@ 16534
acc@@ 16526
act@@ 16510
modi@@ 16499
Centr@@ 16485
atis@@ 16480
Pedro 16451
ý@@ 16369
pos 16347
ois 16336
ud 16331
dir@@ 16318
chef 16251
č 16244
quar@@ 16241
with 16237
dol@@ 16235
lav@@ 16197
apo 16169
signi@@ 16153
80@@ 16133
Ukr@@ 16129
azine 16126
kent@@ 16103
Paulo 16072
show 16068
occ@@ 16065
eure 16062
aborat@@ 16017
Nak@@ 16003
dom 15984
emper@@ 15984
eph@@ 15974
road 15972
Esp@@ 15955
amente 15919
track 15886
tario 15877
King@@ 15868
ally 15845
depend@@ 15840
bos@@ 15838
tains 15779
rid 15765
él@@ 15762
Muh@@ 15743
vil 15733
writ@@ 15695
Kem@@ 15667
CN 15635
Indon@@ 15606
gru@@ 15557
tional 15557
MP@@ 15546
aha 15533
ection 15517
dos 15497
iler@@ 15477
sia 15453
Jack@@ 15443
ographi@@ 15443
\ 15429
idi 15411
plas@@ 15383
shu@@ 15349
Australian 15344
enta 15344
ference 15331
müc@@ 15327
zona 15323
mik@@ 15322
ael 15319
Las 15310
lov@@ 15306
No 15302
Santiago 15270
illo 15219
stud@@ 15191
You@@ 15161
lieb 15159
aro@@ 15091
ple 15080
lobal 15068
ouvern@@ 15058
imi 15048
mas 15046
Entertainment 15004
allas 15004
Jul@@ 14951
ward 14951
tü@@ 14948
ional 14930
back 14908
Sah@@ 14877
ses@@ 14835
XX@@ 14830
kes@@ 14817
toire 14794
ological 14779
ê@@ 14752
partment 14746
ennes 14745
Ç@@ 14731
ods 14719
esta 14708
dirig@@ 14666
UK 14644
post 14627
Ł@@ 14608
eni 14603
U.S. 14561
arri@@ 14552
aver@@ 14518
ana@@ 14511
live 14501
Dani@@ 14479
oko 14434
Biographie 14409
iles 14382
con 14367
amin@@ 14361
ț@@ 14331
101 14297
ás 14242
wat@@ 14164
11.@@ 14162
otr@@ 14156
ths 14150
cut 14126
eer 14122
May 14121
fac@@ 14115
ui 14101
ég@@ 14064
î@@ 14054
uela 14024
ature 14005
pha 13989
multi@@ 13986
auté 13982
Gür@@ 13977
aye 13960
oro 13958
wann 13955
Kaz@@ 13941
mul@@ 13929
ité 13925
sus 13902
División 13898
inde@@ 13893
Acc@@ 13890
him@@ 13890
rie 13887
out@@ 13842
var 13837
uki 13813
­ 13810
oman 13789
amba 13788
aa 13784
porte 13774
bak@@ 13767
lot 13703
Türk@@ 13691
ierra 13681
msh@@ 13674
lev@@ 13671
fron@@ 13669
imo 13638
inae 13627
ait 13612
sö@@ 13610
sions 13578
Ō@@ 13569
usa 13557
coun@@ 13543
ène 13504
ango 13499
ng 13490
encia 13443
nia 13419
iri 13404
last 13400
akt@@ 13378
augh@@ 13375
dev@@ 13327
aße 13315
ambi@@ 13306
tu 13303
fond@@ 13291
éri@@ 13280
kno@@ 13279
Roy@@ 13262
Democ@@ 13255
toria 13253
tempor@@ 13245
These 13229
oy 13225
evi@@ 13214
Carr@@ 13211
anti 13197
right 13196
igo 13183
tico 13172
van@@ 13167
pression 13165
jus@@ 13156
side 13149
top@@ 13107
ï@@ 13097
tran@@ 13091
ż@@ 13090
Copa 13087
aces 13070
after 13064
enant 13028
aza 13013
eda 13004
Enter@@ 13003
unda 12996
uerto 12986
Tang@@ 12957
anistan 12950
auth@@ 12926
sou@@ 12923
grav@@ 12916
eing 12906
aliz@@ 12866
′ 12853
aland 12824
35@@ 12785
Gaz@@ 12747
embr@@ 12727
Kis@@ 12711
terr@@ 12706
AM 12673
nu@@ 12667
appar@@ 12666
History 12665
studio 12602
Microsoft 12599
lah 12588
tice 12578
act 12566
µ@@ 12566
deb@@ 12563
CC@@ 12559
day 12496
Australia 12452
explo@@ 12450
aer@@ 12440
Way@@ 12437
tec@@ 12389
ilo 12343
On 12338
mac@@ 12333
ů@@ 12308
adu@@ 12307
anim@@ 12306
Roma 12280
eran 12273
yon@@ 12249
acy 12240
than 12238
very 12229
elec@@ 12208
ely 12177
national 12155
tras@@ 12136
namo 12119
partamento 12093
Nig@@ 12077
tie 12046
ées 12034
Canada 12029
conom@@ 12027
erra 12026
even 12024
liv@@ 12015
ying 12015
depor@@ 12013
rev@@ 12007
ulu 12006
med 11990
té 11985
azi 11981
ás@@ 11957
Migu@@ 11949
endant 11928
Hot 11922
tical 11901
Å@@ 11897
yen 11881
ev 11855
Disney 11848
lies 11830
ş@@ 11830
main 11806
ingo 11802
Il 11800
house 11798
yi 11793
adap@@ 11788
kuli@@ 11776
aume 11775
bourg 11747
ires 11738
vek@@ 11725
peti@@ 11717
play 11697
adas 11692
agre@@ 11676
jed@@ 11666
rock 11614
Kongo 11610
isi 11604
eux 11579
Cum@@ 11568
say@@ 11566
· 11553
BK 11543
én 11540
aca 11522
from 11519
sea 11502
box 11487
bit 11459
ál@@ 11424
mad@@ 11418
FIFA 11416
dul@@ 11413
matr@@ 11408
red 11405
town 11348
ean 11341
uel@@ 11313
perman@@ 11310
Kim@@ 11303
other 11303
.com 11301
andi@@ 11300
GC 11298
cos 11256
isp@@ 11202
yo@@ 11189
umi 11151
German 11136
VI 11128
top 11128
communes 11126
fem@@ 11097
sau 11097
ii 11057
others 11035
Govern@@ 11031
dir 11019
gradu@@ 11004
ough@@ 10967
Geometr@@ 10957
Ś@@ 10953
eti 10944
Cant@@ 10930
anos 10927
ayr@@ 10926
atives 10909
ures 10905
icia 10902
pon 10896
oka 10895
Empire 10883
mani@@ 10846
distr@@ 10782
ograp@@ 10778
aç@@ 10751
dou@@ 10748
aron 10736
sing 10733
elde 10708
monum@@ 10704
ados 10690
33@@ 10688
rod@@ 10683
âteau 10681
sort 10665
alla 10656
territ@@ 10649
Dez@@ 10643
parte 10639
light 10638
Google 10627
viol@@ 10624
eva 10623
Eurov@@ 10614
za@@ 10607
tures 10595
igh 10588
ė 10569
part 10566
erre 10563
rou@@ 10550
Wan@@ 10536
vet@@ 10498
ural 10487
down 10436
uro 10423
• 10421
board 10417
eria 10409
sian 10407
style 10405
ited 10399
niveau 10378
Billboard 10368
anes 10366
Italia 10348
vi 10327
cep@@ 10326
esh 10325
crip@@ 10319
Say@@ 10305
hon@@ 10281
María 10278
ə@@ 10269
eron 10261
ā 10236
estig@@ 10208
but 10198
plus 10193
wn 10191
but@@ 10179
Kut@@ 10141
yer@@ 10131
adém@@ 10129
ayo 10127
cat@@ 10091
illes 10061
aise 10046
cle 10045
apos@@ 10037
KK 10026
ký 10025
endo 10019
expres@@ 9996
fo 9986
ém@@ 9967
ilia 9938
Educ@@ 9904
atro 9903
personal 9903
£ 9896
uli 9888
anno@@ 9886
uni 9883
ning@@ 9878
mant@@ 9877
lik 9872
dle 9865
12.@@ 9853
eca 9825
format 9825
lleg@@ 9812
ties 9809
ui@@ 9808
lis@@ 9800
hip 9793
trong 9787
atri@@ 9786
kut@@ 9754
aves 9752
tas 9734
ating 9715
ran 9704
ación 9690
tres 9669
head 9656
jer@@ 9654
.. 9632
õ@@ 9632
eros 9631
apa 9578
Yo@@ 9572
ebil@@ 9569
wh@@ 9561
Indian 9556
½ 9548
ishi 9535
sev@@ 9533
ace@@ 9521
com 9502
transfer@@ 9500
irs 9494
Ş@@ 9487
him 9486
Nigeria 9464
over@@ 9463
Kay@@ 9458
onde 9445
design 9418
atura 9408
annel 9366
boy@@ 9345
éli@@ 9339
ality 9250
into 9250
ient 9245
nav@@ 9227
sad@@ 9189
prov@@ 9184
orio 9177
comp@@ 9170
vel 9167
hir 9159
{ 9147
gin@@ 9130
ments 9119
equ@@ 9116
hist@@ 9116
amar@@ 9113
spor 9112
ě 9111
ted 9094
pens@@ 9087
tory 9084
été 9066
ety 9056
idad 9048
ő@@ 9040
As 9037
ń 9005
hus@@ 9003
ø 8988
tish 8965
ape 8954
inga 8951
és@@ 8943
ople 8936
eka 8922
añ@@ 8913
Do 8900
rier 8892
ful 8863
ave@@ 8839
termin@@ 8820
ė@@ 8819
aiss@@ 8816
wards 8790
cell@@ 8784
enci@@ 8781
ici 8779
clu@@ 8775
alre@@ 8770
exist@@ 8768
cop@@ 8745
201@@ 8743
bac@@ 8739
ú 8716
can 8715
lib@@ 8711
ext 8694
— 8689
anas 8688
ensemble 8677
Î@@ 8659
English 8637
orient@@ 8633
istes 8607
dae 8581
films 8559
prise 8555
Famil@@ 8520
san 8514
ña 8507
oir 8503
sup@@ 8491
trol 8490
icul@@ 8432
ác@@ 8431
Mek@@ 8427
´ 8415
éc@@ 8415
state 8407
tín 8402
Ú@@ 8389
struc@@ 8386
onales 8383
Alem@@ 8379
African 8325
pi 8321
maz@@ 8313
tura 8302
cial 8299
lu 8296
ʻ@@ 8291
many 8289
trav@@ 8286
év@@ 8286
Academ@@ 8241
ories 8226
doc@@ 8224
French 8196
Wak@@ 8188
rique 8187
Haz@@ 8169
Mexico 8156
rac@@ 8147
Franç@@ 8146
orig@@ 8142
left 8135
div@@ 8126
IX 8125
tural 8116
zon 8114
ò 8111
deu@@ 8107
hak@@ 8107
ect@@ 8100
seau 8097
nin 8077
ono 8066
ň@@ 8059
oso 8039
endi 8022
Ng@@ 8009
sus@@ 7986
c. 7974
ists 7974
song 7974
anza 7972
Gran 7952
ğ@@ 7920
wn@@ 7905
To 7902
rus@@ 7894
cip@@ 7890
rent 7883
ground 7872
oj@@ 7841
recher@@ 7824
rí@@ 7821
lí@@ 7819
α 7818
aide 7812
afa 7786
ć@@ 7773
trac@@ 7768
Micro@@ 7758
hiz@@ 7727
ă 7725
yar@@ 7723
ilio 7697
new@@ 7697
ça 7691
ency 7687
rio 7686
má@@ 7669
alem@@ 7665
ș 7662
water 7660
ilg@@ 7658
VII 7622
emi 7609
kit@@ 7607
enin 7596
phot@@ 7594
agua 7592
tí@@ 7590
visi@@ 7567
asp@@ 7562
bern@@ 7557
″ 7552
Africa 7536
que@@ 7533
media 7508
isto 7478
neo 7478
uru 7468
favor@@ 7457
.S. 7453
school 7442
ities 7402
propor@@ 7392
ican 7387
å 7387
üm 7381
quien 7379
hut@@ 7374
lement 7332
cli@@ 7331
This 7321
Theo 7308
oca 7283
zon@@ 7283
lon@@ 7279
188@@ 7263
Universidad 7258
Baz@@ 7255
Ankara 7252
cast 7244
has 7235
uses 7234
jas 7211
β 7203
super@@ 7201
ül 7190
partie 7178
avi 7158
ège 7157
pun@@ 7155
univers@@ 7142
benz@@ 7138
à@@ 7131
versit@@ 7124
ı@@ 7103
bab@@ 7063
ird 7040
hat@@ 7028
duc@@ 7025
ague 7019
eas 7010
fut@@ 6998
oire 6994
İ@@ 6971
He 6961
asc@@ 6961
Au 6951
qua 6947
ongo 6933
ł 6924
ving 6906
bay 6898
onc@@ 6894
Ø@@ 6876
ples 6873
emple 6872
jun@@ 6869
mari@@ 6861
dad 6850
main@@ 6850
Ż@@ 6837
ē@@ 6827
ş 6818
obr@@ 6808
bas 6799
craft 6795
WW@@ 6770
fi 6762
ority 6762
ako 6749
Öz@@ 6744
Partido 6737
diff@@ 6732
isha 6723
design@@ 6709
ease 6693
kana 6685
face 6682
uj@@ 6680
that 6669
Shu@@ 6666
gir@@ 6665
teh@@ 6650
viv@@ 6647
tribu@@ 6624
Asia 6621
fic@@ 6601
ón@@ 6600
cy@@ 6576
waf@@ 6560
bier@@ 6558
♂ 6537
WWE 6536
ime@@ 6530
bia 6520
voir 6513
ë 6504
ayn@@ 6498
lec@@ 6495
India 6485
187@@ 6482
bio 6481
vie 6481
oblig@@ 6462
ís 6460
ational 6446
eas@@ 6446
anni@@ 6433
squ@@ 6387
Sud 6362
esto 6348
less 6345
route 6339
life 6328
atu 6316
ét@@ 6308
edi 6304
his 6303
plic@@ 6302
zam@@ 6296
camp@@ 6294
ción 6293
Distribu@@ 6285
trang 6276
è 6273
audi@@ 6246
lic@@ 6233
± 6221
lead@@ 6216
eso 6190
Chic@@ 6183
emas 6172
March 6159
Nis@@ 6159
change 6156
adop@@ 6151
pour 6143
For 6137
maj@@ 6137
Tek@@ 6136
dren 6136
sent@@ 6136
mek@@ 6125
integr@@ 6118
sil 6098
ň 6098
jud@@ 6097
ily 6094
tivo 6083
profes@@ 6080
inda 6079
egem@@ 6072
premi@@ 6071
Amér@@ 6041
tique 6040
Biz@@ 6037
ľ@@ 6037
cri@@ 6031
trat@@ 6024
189@@ 6016
titu@@ 6013
ı 5990
rem 5986
adol@@ 5975
fus@@ 5974
estudi@@ 5967
ible 5967
Amerik@@ 5945
entos 5885
put 5869
public 5867
lim 5864
atia 5859
ism 5856
qui 5854
quel@@ 5852
sci@@ 5851
né 5829
zor@@ 5829
destr@@ 5810
Mais 5804
perior 5801
former 5798
ensa 5792
Guinea 5789
idea 5753
tür 5753
lenen 5750
cine 5744
this 5741
Ireland 5722
alc@@ 5708
ext@@ 5699
pek@@ 5697
Si 5696
leur 5693
ects 5691
Son 5680
ishing 5671
Kid@@ 5667
pas 5667
Arth@@ 5658
Böl@@ 5658
mara 5657
new 5654
invol@@ 5648
mili@@ 5642
œ@@ 5623
kari@@ 5620
divers@@ 5612
Colomb@@ 5591
model@@ 5590
sek 5581
} 5546
Å 5544
186@@ 5532
zil@@ 5530
unga 5506
idas 5498
gun@@ 5495
Ital@@ 5494
nay 5477
ín@@ 5447
olan 5441
atos 5433
Đ@@ 5431
ina@@ 5430
radio 5426
ellos 5424
numer@@ 5422
dér@@ 5421
ndi@@ 5399
works 5363
ève 5363
-- 5360
President 5357
uka 5344
ño 5329
öne@@ 5325
ices 5322
Fam@@ 5320
car 5310
temp@@ 5309
ember 5306
mab@@ 5291
w.@@ 5284
rá@@ 5283
xa 5278
ól@@ 5273
ful@@ 5271
tribut@@ 5243
dok@@ 5228
sep@@ 5228
dra@@ 5197
tric@@ 5186
Uganda 5183
wing 5177
resid@@ 5172
ansa 5168
tir 5155
ables 5153
cas 5153
suff@@ 5150
mec@@ 5148
ieurs 5131
enas 5095
yal@@ 5086
aines 5072
scor@@ 5067
vot@@ 5041
nos 5030
ì 5026
away 5024
blan@@ 5022
~ 5021
çe 5020
ź 5018
gun 5017
ambo 5008
rant 5006
abu 5003
publ@@ 5002
Grou@@ 4999
vill@@ 4997
fu 4996
yu 4976
mis 4968
americ@@ 4964
acha 4962
ewa 4961
perten@@ 4951
tras 4950
Ó@@ 4940
thi 4928
manif@@ 4924
service 4902
erek 4880
éch@@ 4876
edit@@ 4873
Mec@@ 4861
leng@@ 4860
uda 4856
ateur 4855
Apr@@ 4851
minut@@ 4849
Fren@@ 4839
oğlu 4838
ḫ@@ 4833
run 4824
group 4817
Kib@@ 4801
yat@@ 4800
hib@@ 4788
pic@@ 4780
modern 4767
sol 4765
sous 4730
teurs 4723
eki 4709
odes 4697
music 4685
eaux 4682
cos@@ 4674
contr@@ 4667
tera 4660
spec@@ 4654
XX 4645
ž 4644
mur@@ 4638
wi 4616
ective 4612
Wash@@ 4610
opsis 4609
enos 4603
inin 4601
iliz 4595
proc@@ 4586
Yar@@ 4582
chia 4575
kem@@ 4569
mez 4568
chu@@ 4556
cont@@ 4555
Yun@@ 4549
eras 4537
ò@@ 4537
française 4530
arias 4522
cou@@ 4505
ç 4503
mé@@ 4502
cro@@ 4483
eurs 4479
ecture 4455
tros 4453
icio 4451
ın@@ 4442
pios 4410
yas@@ 4402
Ago@@ 4392
usi 4388
ip 4383
partam@@ 4370
nak@@ 4362
exten@@ 4361
donn@@ 4358
sac@@ 4349
cus@@ 4344
♀ 4341
dans 4332
enga 4324
û@@ 4324
ù 4301
tek 4293
chang@@ 4292
Æ@@ 4289
pop 4286
ías 4277
aban 4261
center 4256
rail@@ 4255
estim@@ 4248
aifa 4233
auc@@ 4229
ulia 4229
original 4228
érie 4207
Sa 4204
dil@@ 4198
From 4190
ww@@ 4188
cant@@ 4161
order 4149
tard 4129
jum@@ 4128
engo 4119
diz@@ 4116
ved 4115
âte@@ 4111
tul@@ 4103
êt 4098
With 4096
point 4087
kuh@@ 4083
milli@@ 4082
ḥ@@ 4081
kim@@ 4079
Un 4077
ő 4069
UE@@ 4068
back@@ 4063
Compan@@ 4053
won 4041
ayan 4039
tham 4039
lay@@ 4037
still 4033
date 4032
ished 4029
aret 4025
install@@ 4023
arc@@ 4020
bao 4017
cer 4012
mez@@ 4008
tima 4007
world 4006
eza 4001
uso 3996
class 3991
gul@@ 3989
ų 3983
come 3981
esper@@ 3956
had 3951
Ü 3951
anan 3950
aina 3945
techni@@ 3944
ool 3939
self 3935
umba 3931
Su 3927
icas 3918
ük@@ 3914
When 3913
acio 3905
sav@@ 3897
they 3897
lieu 3896
tim 3896
èle 3892
wili 3884
map@@ 3874
ances 3867
docum@@ 3867
Este 3863
acu@@ 3861
‰ 3858
ř 3857
His 3856
information 3856
sever@@ 3841
ème 3841
kisi@@ 3829
zili@@ 3818
iliz@@ 3817
fab@@ 3813
held 3808
Braz@@ 3806
ecu@@ 3805
roy@@ 3805
yak@@ 3805
cam@@ 3803
nacional 3789
ece 3784
cad@@ 3782
mont@@ 3780
tour 3774
book 3763
para 3757
trad@@ 3756
España 3750
action 3748
saf@@ 3745
kav@@ 3741
ê 3741
Þ@@ 3731
phi 3726
gu 3719
Conse@@ 3712
ability 3710
solo 3700
dak@@ 3693
nouvelle 3693
cle@@ 3690
champ@@ 3684
Ban 3678
ağ@@ 3669
total 3667
đ@@ 3661
cour@@ 3658
ween 3657
Oy@@ 3655
vez 3652
Sur 3651
body 3640
Hindi 3636
éd@@ 3633
nom 3613
wr@@ 3608
sti 3603
epis@@ 3595
formes 3595
data 3591
bou@@ 3579
ording 3579
éro@@ 3574
long@@ 3568
cours 3557
bre 3556
ération 3553
voc@@ 3549
pein@@ 3546
Parti 3544
his@@ 3543
yen@@ 3536
bles 3535
ancia 3522
march@@ 3522
ney@@ 3519
ligh@@ 3508
iku@@ 3497
ã@@ 3496
adan 3490
Yah@@ 3484
isons 3472
ilk 3459
hara 3457
After 3447
ules 3444
kara 3439
tent 3435
tena 3432
inci 3430
elimin@@ 3409
ð 3407
mich@@ 3402
En 3401
final 3399
tific@@ 3396
anya 3383
èg@@ 3382
Brasil 3380
reti@@ 3380
thu@@ 3379
cit@@ 3376
Historia 3374
long 3372
interpret@@ 3370
ography 3368
toral 3368
Í@@ 3360
Ét@@ 3356
aires 3338
ŏ@@ 3335
Lond@@ 3332
public@@ 3317
pad@@ 3294
Pour 3290
tou@@ 3288
cover@@ 3263
Papa 3254
haz@@ 3254
naci@@ 3248
once 3242
ís@@ 3239
orden@@ 3235
Uz@@ 3231
did 3227
nac@@ 3217
isco 3216
nord 3214
Cao 3213
jos 3207
best 3203
ť@@ 3203
Ba 3200
Constitu@@ 3199
entre@@ 3199
like 3195
hio 3185
fied 3184
population 3184
concer@@ 3182
She 3179
ismo 3175
ered 3171
area 3170
mill@@ 3169
doğ@@ 3164
span 3163
riv@@ 3162
two 3156
lı 3155
city 3151
sir@@ 3147
place 3139
ṣ@@ 3116
aji 3111
proxim@@ 3109
brit@@ 3103
There 3102
і@@ 3100
Como 3097
ême 3096
udi 3094
zey 3094
round 3092
appel@@ 3091
@ 3088
ź@@ 3084
pia 3077
At 3076
tiva 3072
Febru@@ 3062
active 3046
ún 3043
iwa 3042
Œ@@ 3042
μ@@ 3042
eski 3038
ın 3038
hui 3032
determin@@ 3028
cla@@ 3026
iç@@ 3026
about 3024
contin@@ 3022
trou@@ 3017
arios 3013
suite 3007
Nam 3006
onio 3006
rég@@ 3005
times 3000
luk@@ 2982
Ř@@ 2981
oles 2978
sible 2976
amu 2972
Virgin@@ 2971
have 2953
tee 2953
Her 2950
maf@@ 2944
dial 2943
י@@ 2939
building 2930
church 2928
cu 2923
icos 2923
ğ 2917
simil@@ 2911
aş@@ 2907
retr@@ 2905
ır@@ 2891
propri@@ 2889
relig@@ 2888
èse 2888
ned 2875
erc@@ 2874
chez 2872
Ș@@ 2872
commun@@ 2847
nea 2835
mam@@ 2831
jaw@@ 2830
opo 2829
ô 2821
aki@@ 2809
quel 2798
inning 2796
dur 2792
Alman@@ 2791
› 2788
angi 2783
Ḫ@@ 2783
ended 2781
play@@ 2776
‹ 2762
alian 2761
Kik@@ 2747
mak 2743
fication 2741
finales 2733
cab@@ 2711
them 2703
Ä 2700
ʾ@@ 2699
first 2683
hap@@ 2683
centr@@ 2680
cum@@ 2674
where 2671
ו@@ 2662
ques@@ 2659
190@@ 2654
idos 2653
arak 2638
Pia 2633
muda 2632
lake 2627
Minh 2625
mov@@ 2621
sé@@ 2621
ņ@@ 2621
most 2609
α@@ 2604
appro@@ 2597
By 2595
kaz@@ 2592
rière 2590
monde 2587
esab@@ 2586
vec@@ 2586
isis 2578
chini 2577
idence 2577
ка 2572
kip@@ 2567
libr@@ 2562
clus@@ 2561
alan 2552
mim@@ 2547
Yıl@@ 2542
bir 2542
head@@ 2541
general 2540
lil@@ 2540
four 2538
undo 2535
eon@@ 2533
sik@@ 2533
pes@@ 2527
fam@@ 2526
emba 2522
México 2519
match 2516
ya@@ 2509
party 2507
cent@@ 2503
itos 2499
leri 2496
edad 2491
mula 2489
onge@@ 2489
ected 2485
ık@@ 2483
educ@@ 2481
edrich 2475
comm@@ 2468
ought 2468
umo 2468
forme 2467
ος 2467
ellas 2464
coll@@ 2463
chev@@ 2462
études 2458
optera 2454
ête 2451
Anc@@ 2446
azo 2443
ď@@ 2440
Ayr@@ 2429
éo 2429
ṭ@@ 2425
requ@@ 2424
result@@ 2418
oyn@@ 2407
ť 2407
atique 2400
ã 2397
Elle 2393
ampi@@ 2392
şehir 2384
raz@@ 2377
imba 2375
ép@@ 2371
Sin 2369
üz@@ 2368
mix@@ 2364
gön@@ 2360
force 2354
June 2352
undi 2348
ús@@ 2346
pris@@ 2343
oku@@ 2342
général 2339
Oly@@ 2337
français 2337
Türk 2322
ngu@@ 2313
nou@@ 2311
î 2307
plac@@ 2302
hosp@@ 2297
umbo 2297
ded 2284
player 2280
sey@@ 2277
icha 2273
ıl@@ 2266
С@@ 2266
γ 2265
fils 2264
zas 2262
municipio 2261
year 2252
vy@@ 2238
ingia 2231
uza 2210
sed 2203
ık 2199
icro@@ 2195
Histoire 2192
né@@ 2190
dose 2186
htt@@ 2184
Nueva 2183
pré@@ 2169
Con 2167
‑ 2167
cá@@ 2162
jou@@ 2159
yok@@ 2159
present@@ 2158
later 2151
cula 2147
Santi@@ 2143
ainst 2137
Janu@@ 2129
speci@@ 2127
Argentina 2121
ů 2117
ə 2114
promot@@ 2109
ır 2102
Т@@ 2099
power 2098
dini 2091
Rus 2089
mé 2086
Yes@@ 2076
ś 2074
meil@@ 2057
Yer@@ 2047
iev@@ 2046
Se 2043
grou@@ 2043
--@@ 2042
quier 2042
histoire 2041
sera 2036
oci@@ 2035
kay@@ 2034
tés 2032
ù@@ 2030
uko 2029
she 2026
tér@@ 2024
ample 2022
bres 2021
topl@@ 2020
conn@@ 2017
habit@@ 2013
hiv@@ 2011
only 2010
yük@@ 2010
single 2007
fé@@ 2005
Ce 1992
Э@@ 1991
yal 1989
reci@@ 1988
avec 1987
aş 1986
wana 1986
due 1982
acter@@ 1978
в@@ 1977
aje 1975
kwa 1970
ked 1969
direc@@ 1966
aras@@ 1962
They 1957
kati@@ 1953
ète 1953
Í 1950
aque 1940
≈ 1940
hac@@ 1935
roi 1934
Allem@@ 1928
geri 1926
hay@@ 1923
unas 1921
publique 1920
ım 1920
using 1919
led 1915
bey@@ 1913
dipl@@ 1913
una@@ 1913
Estado 1910
avant 1906
izi 1902
aña 1901
tores 1901
thé@@ 1898
fore 1893
éré@@ 1891
baz@@ 1888
þ@@ 1887
tant 1882
echo 1881
XVI 1876
® 1876
ativa 1873
yaz@@ 1872
eshi 1871
ifu 1871
Canton 1868
allem@@ 1866
Ni 1862
inh 1859
aliste 1858
tionn@@ 1849
usu 1846
Guerra 1845
case 1833
gether 1829
veau 1829
alista 1824
ân 1815
ï 1811
kho@@ 1810
çal@@ 1810
metal 1808
model 1806
Sept@@ 1804
kia 1804
made 1804
ión 1797
cion@@ 1786
kim 1781
firm@@ 1780
type 1780
qu 1778
idades 1773
ē 1773
destin@@ 1762
senti@@ 1756
σ 1756
pre 1755
iran 1754
isme 1744
indi 1743
buil@@ 1737
terior 1725
ǧ@@ 1725
ific@@ 1717
alim@@ 1711
Campeonato 1708
adores 1696
faire 1695
poin@@ 1694
prises 1691
appe@@ 1689
β@@ 1686
tly 1684
Türkiye 1682
Eyl@@ 1681
forma 1679
homme 1678
guerre 1675
pero 1675
nuc@@ 1666
Indonesia 1662
cian 1662
ì@@ 1661
א@@ 1660
Ligi 1652
mano 1652
retur@@ 1650
base 1648
ectiv@@ 1644
Ḥ@@ 1643
event 1640
estas 1635
esha 1634
ıy@@ 1632
just 1631
class@@ 1630
tof@@ 1625
egos 1624
quan 1622
yet 1620
laya 1618
kid@@ 1607
qué 1604
puis 1601
ezo 1599
ngh@@ 1594
на 1594
rue 1588
eñ@@ 1585
İz@@ 1585
their 1583
adora 1582
who 1582
nde@@ 1575
econom@@ 1574
through 1572
umu 1564
tam 1560
étr@@ 1557
wam@@ 1556
uwe@@ 1551
puer@@ 1549
ר@@ 1548
cru@@ 1547
ük 1547
ız@@ 1546
may 1545
vita 1545
culp@@ 1542
eş@@ 1541
önem@@ 1541
ağı 1540
weng@@ 1537
Burundi 1534
caus@@ 1534
limit@@ 1534
Ā@@ 1527
át 1526
ς 1522
Barcel@@ 1519
people 1516
tah@@ 1509
İstanbul 1507
`@@ 1506
hii 1506
А@@ 1505
ubic@@ 1504
dres 1502
ț 1502
hid@@ 1499
temps 1499
¹ 1499
ский 1499
clo@@ 1498
imbo 1495
verdi 1493
odo 1492
Guin@@ 1485
faz@@ 1485
bed 1484
ayı 1483
dül@@ 1482
septi@@ 1478
XVIII 1476
Mp@@ 1474
enzi 1474
tif 1471
incorpor@@ 1470
leo 1469
ending 1464
kata 1463
Δ@@ 1460
wap@@ 1458
some 1456
út 1456
İl@@ 1456
grande 1455
Lan 1454
éré 1452
Nguyễn 1451
érieur 1451
lors 1450
útbol 1450
princip@@ 1447
Una 1446
מ@@ 1440
ách 1439
istas 1437
В@@ 1435
р@@ 1434
estruc@@ 1430
́ 1429
ա@@ 1423
wake 1422
élé@@ 1417
cens@@ 1414
ν 1414
gian 1412
ż 1412
æ 1410
ל@@ 1410
level 1407
istre 1401
with@@ 1401
awa@@ 1398
izo 1394
Mw@@ 1386
yol@@ 1386
ʿ 1383
Para 1381
λ 1379
scienti@@ 1376
gique 1374
ède 1374
osu 1371
which 1367
ʾ 1365
origine 1364
eye 1358
idente 1357
δ@@ 1352
kül@@ 1351
suc@@ 1349
â 1349
ası 1345
aciones 1344
elik 1344
election 1343
cet 1342
köy 1342
р 1342
tries 1341
XIX 1339
envir@@ 1339
сь@@ 1339
mek 1337
unia 1335
abaj@@ 1330
color 1329
what 1321
с@@ 1319
ungu 1318
་ 1318
endre 1317
forc@@ 1312
κ@@ 1311
ש@@ 1310
Ć@@ 1309
İn@@ 1308
Д@@ 1307
musical 1301
tish@@ 1299
ǎ@@ 1295
О@@ 1295
ב@@ 1295
bul 1294
ährend 1292
carr@@ 1291
municip@@ 1289
Ľ@@ 1289
there 1286
rar 1278
atta@@ 1275
् 1272
issu@@ 1268
kiş@@ 1264
lili@@ 1264
Ž 1264
fici@@ 1263
yet@@ 1262
yü@@ 1256
high 1250
Kır@@ 1248
úa 1247
gör@@ 1243
huy@@ 1243
investig@@ 1243
ļ@@ 1243
М@@ 1243
conc@@ 1241
performan@@ 1241
República 1239
ezi 1237
pay@@ 1233
beau@@ 1230
só@@ 1229
uzi 1229
home 1228
util@@ 1227
dej@@ 1226
ˈ@@ 1226
Ağ@@ 1225
went 1225
İs@@ 1225
¼ 1222
ль@@ 1222
xu@@ 1219
óg@@ 1216
imiento 1215
leurs 1215
192@@ 1213
when 1213
cription 1212
greso 1210
éta@@ 1208
^ 1204
gaz@@ 1200
eño 1197
mais 1197
intro@@ 1196
mch@@ 1196
Ə@@ 1196
conse@@ 1194
üre@@ 1194
Sov@@ 1192
conf@@ 1192
loi 1192
sans 1192
uu 1192
Α@@ 1192
δ 1191
Phi 1186
hasa 1186
ą 1183
mois 1182
Baş@@ 1181
ded@@ 1180
cost@@ 1173
pose 1173
àn 1172
ifa 1171
season 1171
aî@@ 1167
Entre 1165
ided 1164
Ó 1163
jia 1161
iques 1160
visit@@ 1160
ları 1159
juli@@ 1157
ched 1156
bora 1154
produc@@ 1154
Г@@ 1154
carri@@ 1153
aşa 1152
大@@ 1150
Mei 1147
ciones 1147
deux 1147
ict 1147
liği 1146
apon 1143
Nguy@@ 1142
ро@@ 1142
の@@ 1140
unu 1139
ım@@ 1139
coul@@ 1138
encu@@ 1138
naf@@ 1138
К@@ 1133
Kenya 1132
⚭ 1131
each 1130
ε 1130
Mart 1128
génér@@ 1125
学@@ 1122
н@@ 1121
take 1120
atif 1119
emu 1117
ghi 1116
section 1116
luk 1115
observ@@ 1115
enton@@ 1114
π 1114
к 1114
º 1113
ız 1112
ḍ@@ 1111
ה@@ 1110
japon@@ 1107
been 1105
isión 1104
П@@ 1104
Ț@@ 1103
ibu 1099
נ@@ 1097
Σ@@ 1093
chap@@ 1087
ehir 1084
fico 1083
enek@@ 1082
л@@ 1081
gün 1080
conqu@@ 1075
late 1074
Nh@@ 1070
ָ@@ 1070
镇 1068
known 1064
ÿ 1064
γ@@ 1062
ateurs 1060
ambu@@ 1059
bán 1059
soft 1059
Л@@ 1058
game 1057
near 1057
ω 1056
voy@@ 1055
isant 1054
й 1053
État 1052
Р@@ 1052
grand 1050
çi 1048
И@@ 1046
second 1037
natural 1033
rés@@ 1033
σ@@ 1033
fica 1031
cier@@ 1028
align 1026
ſ@@ 1026
actor 1025
↑ 1025
indic@@ 1024
otra 1024
iş@@ 1020
0s 1018
placed 1018
prac@@ 1018
près 1017
atika 1015
capit@@ 1011
‐ 1010
associ@@ 1008
estudio 1008
в 1008
commer@@ 1007
У@@ 1005
ε@@ 1003
ÿ@@ 1001
inco 1000
Kig@@ 998
inclu@@ 998
isim@@ 994
ún@@ 994
ν@@ 994
ulus@@ 991
dır@@ 990
aged 989
ός 988
Bu 987
н 987
jour 982
featur@@ 981
régi@@ 980
full 979
isine 978
alar 977
д@@ 977
vili@@ 972
director 971
ה 966
social 965
ц@@ 965
к@@ 963
sebe@@ 959
и 959
ingi 957
Yeni 956
services 955
ised 952
ológ@@ 952
comple@@ 951
serve 951
ע@@ 951
ativo 950
web 950
м@@ 950
Bir 947
ofu 944
celle 942
kuf@@ 940
historia 939
ería 938
make 938
Ω 938
libre 934
ác 934
civil 932
octu@@ 932
onnat 932
encias 931
siz 931
π@@ 930
three 929
éti@@ 929
days 925
angu 924
obra 923
т 923
sana 917
↔ 917
kik@@ 916
Κ@@ 915
pain@@ 914
Sau 913
ġ@@ 912
baş@@ 911
tay 908
yap@@ 908
crit@@ 907
─ 903
muz@@ 902
τ@@ 900
Â@@ 899
fér@@ 895
ра@@ 894
alı 892
у@@ 889
я 889
entre 886
umia 885
ên 883
ű@@ 882
ь@@ 882
used 881
afin 880
hoa 880
ét 879
да 878
¾ 877
control 875
θ@@ 875
----@@ 873
ּ@@ 873
history 872
illed 872
ד@@ 871
∞ 871
course 870
foc@@ 870
ités 869
cada 865
ticas 865
ον 863
Kati 861
condi@@ 860
would 859
ectu@@ 855
beri 852
yük 851
Ε@@ 849
ְ@@ 849
χ@@ 848
й@@ 848
iye 847
λ@@ 846
yana@@ 845
ḥ 844
alled 842
based 842
uş@@ 842
nú@@ 841
onu 841
points 840
ói 840
ţ@@ 839
ло@@ 839
constitu@@ 835
mundo 828
possible 827
üş@@ 825
influ@@ 823
comb@@ 820
compos@@ 818
ŭ@@ 818
contra 817
Σ 816
without 812
Π@@ 811
ι 811
ρ@@ 811
ь 809
Б@@ 807
distribu@@ 806
offici@@ 806
activ@@ 805
cual 804
mbal@@ 803
parti 803
irse 802
expl@@ 801
ilim@@ 801
Üniversitesi 800
être 800
ecto 799
unos 799
Feb@@ 798
ained 798
rir 798
sos@@ 798
Une 796
ích 796
т@@ 794
arı 793
sud 791
quay 789
ва 789
wani 788
lesia 787
会 787
compl@@ 785
between 784
lui 784
│ 783
franç@@ 782
山@@ 782
tiy@@ 781
û 780
oğ@@ 779
ш@@ 779
ʼ@@ 777
both 775
wais@@ 775
з@@ 773
contempor@@ 771
año 769
gé@@ 768
Ο@@ 767
anah@@ 766
mort 766
unci@@ 766
Τ@@ 765
ám 764
Č 763
day@@ 761
landa 761
Μ@@ 761
Akad@@ 760
ни@@ 759
≤ 759
ן 758
classi@@ 757
jeu 757
η 757
años 756
novel@@ 756
É 756
Ø 756
本@@ 756
о@@ 753
jina 751
fait 750
country 749
onship 749
édi@@ 748
hud@@ 747
pata 747
ма@@ 747
novi@@ 745
úl@@ 745
ли@@ 744
ː@@ 743
lég@@ 742
conv@@ 741
polic@@ 741
father 740
vida 738
È@@ 737
organiz@@ 735
е 735
áng 734
ח@@ 731
vu 730
Par 725
those 725
some@@ 721
ôle 721
日@@ 720
ayar@@ 719
Việt 718
osas 718
while 718
years 717
tay@@ 715
் 715
élec@@ 714
wala 713
ַ@@ 713
nhau 712
г 710
óm@@ 707
ת 705
small 703
ч@@ 703
along 702
Λ@@ 701
À 700
φ@@ 700
天@@ 699
during 698
formed 697
Ñ@@ 696
aç 694
embre 693
él 693
üz 693
ıs@@ 692
ла@@ 692
ם 692
pour@@ 691
ный 690
adil@@ 688
clos@@ 688
ре@@ 688
国@@ 687
against 684
anh 684
ви@@ 684
around 683
kez 682
ִ@@ 679
trois 676
с 674
bang 672
imani 672
ω@@ 671
ôt 670
cil 667
ο@@ 666
ufu 665
sett@@ 664
lado 663
series 663
provid@@ 662
ская 662
commune 660
gol 660
imu 660
mash@@ 659
plu@@ 659
found@@ 658
Guerre 656
Văn 656
mita 656
ongo@@ 655
culo 652
З@@ 652
д 652
а@@ 650
community 647
ış 647
вич 647
écn@@ 646
Š 645
artic@@ 642
million 641
Н@@ 641
ל 641
ι@@ 640
а 640
govern@@ 639
Califor@@ 637
Azer@@ 636
kuj@@ 634
next 634
ρ 634
中@@ 634
ased 633
ј@@ 633
б@@ 632
production 631
г@@ 630
ко@@ 629
ajes 627
curr@@ 627
incia 627
norte 627
ıl 627
י 627
football 625
но@@ 624
contre 620
ış@@ 620
新@@ 620
lama 619
much 619
Sơn 618
ר 618
amii 617
文@@ 615
ί@@ 614
family 613
actu@@ 612
could 612
ж@@ 612
entro 610
Ṣ@@ 609
compar@@ 608
number 608
Ν@@ 608
μ 607
fark@@ 605
ἀ@@ 605
guit@@ 604
short 603
≥ 603
afir@@ 602
five 602
marqu@@ 602
sent 601
being 600
vile 600
ле@@ 600
ת@@ 600
м 599
acı 597
économ@@ 597
tainment 596
before 595
estos 595
europé@@ 595
Francia 594
different 594
¡ 594
alik@@ 593
thu 593
là 591
Ι@@ 590
equi@@ 589
lý 588
hay 587
ри@@ 587
ṯ@@ 587
language 586
À@@ 586
hô@@ 584
équ@@ 584
Ngo@@ 583
six 583
again 581
culture 581
logr@@ 581
prec@@ 581
uzo 581
я@@ 577
municipal@@ 576
мо@@ 575
death 574
kij@@ 573
onya 573
princi@@ 571
ños 571
х@@ 570
ħ@@ 569
פ@@ 569
‎ 569
ק@@ 568
ª 567
Ф@@ 567
п@@ 567
local 566
merc@@ 563
species 563
го@@ 563
secre@@ 562
ĸ 560
0,000 558
η@@ 557
conserv@@ 555
waz@@ 555
có@@ 554
ically 554
kuz@@ 553
luy@@ 553
ently 552
не@@ 552
і 552
ṭ 552
embargo 551
aband@@ 549
ográ@@ 549
company 547
Cumhuriy@@ 546
armée 546
ո@@ 546
₂ 546
ào 545
‒ 545
Е@@ 544
jeun@@ 543
ǐ 543
ία 540
на@@ 539
anı 537
agric@@ 536
ー@@ 536
kea 532
Ко@@ 532
individ@@ 531
ː 531
Ч@@ 531
October 530
ɛ@@ 530
kua 529
כ@@ 529
who@@ 528
dici@@ 526
étu@@ 526
July 525
office 525
avoir 524
cito 524
edil@@ 524
böl@@ 523
unca 523
uç@@ 523
women 523
до@@ 523
engine 522
mpi@@ 522
ης 522
afu 520
población 520
ę 520
aría 519
л 519
ilik 518
waka 518
山 517
Dans 516
franc@@ 516
race 516
三@@ 516
registr@@ 515
ка@@ 515
concep@@ 514
conduc@@ 514
wali@@ 513
ր@@ 513
colon@@ 512
droit 512
foot@@ 512
four@@ 512
önem 510
ị 509
frances@@ 507
村 507
development 506
ή 506
ḏ@@ 506
alité 505
京@@ 505
casa 504
huo 504
oría 504
ľ 504
ḫ 503
Β@@ 502
е@@ 502
east 500
vai 500
ŋ 500
Thanh 499
desc@@ 498
ología 497
中国@@ 497
koa 496
xem 496
и@@ 496
ы@@ 496
member 495
óc 495
üç@@ 495
ticos 494
ύ@@ 494
東@@ 493
beledi@@ 492
señ@@ 492
ército 492
ŋ@@ 492
ǫ@@ 491
ución 490
ṇ@@ 489
lés 488
ılar 488
Со@@ 488
ously 487
comun@@ 486
games 485
construc@@ 484
nje 484
Adem@@ 483
ığ@@ 483
clas@@ 482
lü 482
Φ@@ 481
tout 479
ски 479
ached 478
otball 478
Δ 477
isho 476
partic@@ 476
Ď@@ 476
said 475
umani 475
ǔ 474
más 473
making 471
charac@@ 470
champi@@ 469
στ@@ 469
ве@@ 469
abab@@ 468
ა@@ 468
ό@@ 467
ķ@@ 466
ων 466
hali 465
της 465
central 463
peu 463
Nguyên 462
ekonom@@ 461
title 460
Γ@@ 460
ная 460
Bình 459
Χ@@ 459
工@@ 459
const@@ 458
joint 458
mev@@ 458
large 457
pou@@ 457
се@@ 457
ское 457
С 456
ди@@ 455
家@@ 454
political 453
recog@@ 453
Anh 452
gran 452
khi 452
reduc@@ 450
во@@ 450
не 450
high@@ 449
υ@@ 449
Ц@@ 449
Kif@@ 448
district 448
nh 448
ла 448
科@@ 448
colspan 447
zey@@ 447
高@@ 447
hadi 446
ан@@ 446
о 446
entras 445
maya 444
ֶ@@ 444
ン@@ 444
biy@@ 442
kez@@ 442
èmes 442
üş 442
ṣ 442
美@@ 442
junto 441
çı 440
early 439
lık 439
ế 439
ά@@ 438
К 437
because 436
jini 436
quy 436
ъ 436
née 434
э@@ 434
Во@@ 432
ֹ@@ 432
一@@ 432
acces@@ 431
де@@ 431
по@@ 431
Paşa 430
gén@@ 430
much@@ 430
Ка@@ 430
ived 429
polí@@ 429
çu 429
Ṭ@@ 429
校 429
西@@ 429
φ 428
Ма@@ 428
ẓ@@ 428
№ 428
ıt 427
ἐ@@ 427
ği 426
Por 424
children 423
ե@@ 423
Tây 422
government 422
elected 421
found 421
ôn 421
ει@@ 421
א 421
術@@ 421
lise 420
pays 420
城@@ 419
rement 418
ǐ@@ 418
По@@ 418
Nisan 417
fav@@ 417
particu@@ 416
αν@@ 416
ג@@ 416
disput@@ 415
ülk@@ 415
Ǧ@@ 415
За@@ 415
inah@@ 414
ordu 414
âce 413
úbl@@ 413
ğr@@ 413
οι 413
continu@@ 412
père 412
北@@ 412
ס@@ 410
adhi 409
ecek 408
mej@@ 408
ogle 408
õ 408
,000 407
cultur@@ 407
charg@@ 406
jour@@ 405
南@@ 405
ας 403
` 402
Бо@@ 402
ια 401
ailleurs 400
larg@@ 400
ɔ@@ 400
王@@ 400
derni@@ 399
tous 399
út@@ 399
ко 397
А 396
то@@ 396
wanza 395
ông 395
ŵ@@ 395
ρι@@ 395
ти@@ 395
cional 394
estudios 394
ición 394
ouvent 394
police 394
ít 394
™ 393
escu@@ 392
̯ 392
ва@@ 391
record 390
ט@@ 390
hari@@ 389
ն@@ 389
Ī@@ 388
dows 387
寺 387
llam@@ 386
parator@@ 386
бо@@ 386
צ@@ 386
у 385
œuvre 384
eyi 383
oyun@@ 383
ǒ@@ 383
σι@@ 383
como 382
réalis@@ 381
ikia 380
premier 380
nouv@@ 379
ар@@ 379
ру@@ 379
研究@@ 379
combin@@ 378
qued@@ 378
Ħ@@ 378
га@@ 378
ῖ@@ 378
artist@@ 377
support 377
ịnh 377
yay@@ 376
ρος 376
子@@ 376
poder 375
village 374
κα@@ 374
⅔ 374
ately 372
another 370
aliy@@ 369
adı 368
zwa 367
inay@@ 366
μα 366
Hoa 365
excep@@ 365
dado 364
guerra 364
ieron 364
üçük 363
Я@@ 363
eneo 362
enfants 362
ıca 362
ή@@ 362
vard@@ 361
ρο@@ 361
ն 359
déc@@ 357
program 357
propi@@ 357
та@@ 357
海@@ 357
民@@ 356
Trần 355
wenda 355
ου 355
ки 355
ῶ@@ 354
Hồ 353
Õ@@ 353
âm 353
άν@@ 353
ен@@ 353
ё@@ 353
yeri 352
oldu@@ 350
ы 350
⁄ 350
Dương 349
present 349
ми@@ 349
小@@ 349
ngo@@ 348
December 347
bierno 347
τος 347
within 346
θ 346
ο 346
堂 346
安@@ 346
но 345
Hà 344
experi@@ 344
ɪ@@ 344
Α 344
石@@ 344
empe@@ 343
kama 342
да@@ 342
unzi 341
Ρ@@ 341
ֵ@@ 341
kı 340
tarde 340
έ@@ 340
dispar@@ 339
independ@@ 339
politique 339
esine 338
iyi 338
со@@ 338
ảng 338
anay@@ 337
cré@@ 337
represent@@ 337
ài 337
Ж@@ 337
за@@ 337
hata 336
llev@@ 336
rece@@ 336
sanat@@ 336
written 336
М 336
би@@ 336
人@@ 336
县 336
з 335
⅓ 334
built 333
conver@@ 333
sobre 333
µ 333
osos 332
century 331
На@@ 331
día 330
kush@@ 329
ǔ@@ 329
Ayn@@ 328
signed 328
ʔ@@ 328
κ 328
址 328
espec@@ 327
travail 327
во 327
ública 326
ű 326
Ми@@ 326
П 326
гро@@ 325
та 325
encore 324
ικ@@ 324
τ 324
emble 323
given 323
huri 323
Х@@ 323
kır@@ 322
zh 322
ď 322
ệm 322
Tanzania 321
auti 321
子 321
import@@ 320
òn 320
ი@@ 320
ió 319
où 319
phong 319
Ġ@@ 319
ảo 319
Kupası 317
comme 316
malar@@ 316
ương 316
ζ@@ 316
gouvern@@ 314
menos 314
евич 314
сель@@ 313
among 312
ellik@@ 312
đi@@ 312
бе@@ 312
ра 312
mang 311
quatre 310
¥ 310
Müz@@ 309
après 309
αλ@@ 309
ћ 309
spéci@@ 308
航@@ 308
nouveau 307
quali@@ 307
déf@@ 306
obras 306
Đồng 306
ıs 306
В 306
ז@@ 306
autre 305
osto 305
Ἀ@@ 305
anlığı 304
jours 304
са@@ 304
ба@@ 303
， 303
north 302
金@@ 302
pendant 301
га 301
си@@ 301
munici@@ 300
ль 299
Bahari 298
ǧ 298
Θ@@ 298
道 298
Maji 297
called 297
ustos 297
ме@@ 296
会@@ 296
院 296
х 295
Thái 294
το@@ 294
☉ 294
nhi@@ 293
ин@@ 293
че@@ 293
ւ@@ 293
ái 292
ат@@ 292
кий 292
ình 291
ρα@@ 291
па@@ 291
、 291
公@@ 291
ıcı 290
те@@ 290
田@@ 290
Hải 289
clim@@ 289
dır 289
յ@@ 289
constr@@ 288
ported 288
水@@ 288
Hoàng 287
上@@ 287
gouvernement 286
vur@@ 285
ξ 285
Са@@ 285
ска 285
ф@@ 285
forces 284
Бе@@ 284
ц 284
чи@@ 284
direction 283
muş 283
█ 283
古@@ 283
inté@@ 282
Ш@@ 282
ի@@ 282
Büyük 281
太@@ 281
role 280
О 280
Ру@@ 280
ги@@ 280
allow@@ 279
signific@@ 279
titul@@ 279
ɛ 279
came 278
ilerin 278
succ@@ 278
Après 277
・ 277
区 277
Ces 276
cause 276
ʃ@@ 276
。 276
centre 275
incor@@ 275
otro 275
ucu 275
wezi 275
ζ 275
И 275
ე@@ 275
Kwa 274
mise 274
ׁ@@ 274
tiki 273
église 273
ξ@@ 273
地@@ 273
construction 272
có 272
muz 272
çı@@ 272
ḍ 272
though 271
Đức 271
few 270
gelen 270
òng 270
← 270
orta@@ 269
ʰ@@ 269
社 269
çek@@ 268
önc@@ 268
Ē@@ 268
often 267
sont 267
úc 267
Мо@@ 267
coup 266
İ 266
Ō 266
Η@@ 266
τι@@ 266
ṟ@@ 265
̃ 264
Ле@@ 264
ор@@ 264
所 264
Machi 263
artí@@ 263
bila 263
trai 263
ά 263
Ба@@ 263
立@@ 263
categ@@ 262
iş 262
muj@@ 262
tuy@@ 262
ǎ 262
ὐ@@ 262
空@@ 262
otros 261
tiem@@ 261
τα@@ 261
arse 260
inici@@ 260
ник 260
技@@ 259
του 258
important 257
since 257
ḗ 257
Londres 256
centro 256
xico 256
ḗ@@ 256
consider@@ 255
maç@@ 255
ĩnh 255
Ş 254
αγ@@ 254
ερ@@ 254
áp 253
appear@@ 252
culos 252
risto 252
xième 252
Hòa 251
Се@@ 251
ד 251
ὶ 251
financi@@ 250
inaug@@ 250
sao 250
ıf@@ 250
ũ 250
ψ@@ 250
хо@@ 250
ạc 250
军@@ 250
平@@ 250
林@@ 250
année 249
contribut@@ 249
¿ 249
Ú 249
Т 249
ний 249
ст@@ 249
大学 249
李@@ 249
Unidos 248
mwan@@ 248
რ@@ 248
wany@@ 247
Lý 246
épo@@ 246
αρ@@ 246
лу@@ 246
ля@@ 246
ю@@ 246
ב 246
ṃ@@ 246
cô@@ 245
ス@@ 245
lors@@ 244
Ķ@@ 244
ελ@@ 244
ное 244
ство 244
occas@@ 243
İm@@ 243
Ра@@ 243
া@@ 243
リ@@ 243
bajo 242
cette 242
chí 242
hili 242
αι@@ 242
ш 242
イ@@ 242
į@@ 241
ɔ 241
ου@@ 241
Не@@ 241
遗@@ 241
candid@@ 240
familia 240
Đại 240
̀ 240
ώ@@ 240
Д 240
画@@ 240
sociation 239
ıc@@ 239
ον@@ 239
ков 239
January 238
jeres 238
đa 238
□ 238
二@@ 238
amiento 237
khi@@ 237
tourn@@ 237
ṯ 237
defe@@ 236
inclus@@ 236
ו 236
க@@ 236
ạm 236
ủ 236
ラ@@ 236
Nga 235
dió 235
ʃ 235
ве 235
ἰ@@ 235
市 235
develop@@ 234
uncu 234
ġ 234
ών 234
Александ@@ 234
нов 234
ி@@ 234
ẵ@@ 234
ἄ@@ 234
ῦ@@ 234
有@@ 234
concentr@@ 233
popular 233
reco@@ 233
Ő@@ 233
Л 233
ни 233
东@@ 233
江@@ 233
deci@@ 232
ού@@ 232
пи@@ 232
ї@@ 232
ṅ@@ 232
人 232
ennent 231
ική 231
ли 231
្ 231
◊ 231
十@@ 231
З 230
У 230
ா@@ 230
ი 230
ʼ 229
Но@@ 229
ров@@ 229
⇒ 229
Cuando 228
acto 228
comer@@ 228
contribu@@ 228
españ@@ 228
ligne 228
uvo 228
Ку@@ 228
Güney 227
Đi@@ 227
λι@@ 227
за 226
ـ@@ 226
≡ 226
光@@ 226
四@@ 226
actual 225
kila 225
сто@@ 225
Durante 224
cao 224
wever 224
ер@@ 224
ῆ@@ 224
َ@@ 223
郎 223
médi@@ 222
ατ@@ 222
Го@@ 222
ḳ@@ 222
部 222
mayor 221
complet@@ 220
occup@@ 220
ĕ@@ 220
Б 220
Ро@@ 220
música 219
Ю@@ 219
ⴰ@@ 219
和@@ 219
白@@ 219
establ@@ 218
muerte 217
otras 217
ί 217
☆ 217
ッ@@ 217
région 216
third 216
Н 216
ке 216
ше@@ 216
⟩ 216
autres 215
khu 215
ца 215
Quốc 214
aşı 214
bâ@@ 214
sión 214
ually 214
об@@ 214
ч 214
ện 214
五@@ 214
développ@@ 213
especi@@ 213
icios 213
record@@ 213
tesi 213
ánh 213
áo 213
武@@ 213
Bắc 212
amér@@ 212
incre@@ 212
óng 212
ơ 212
ες 212
όν@@ 212
Ulus@@ 211
ellement 211
péri@@ 211
λλ@@ 211
ев@@ 211
ლ@@ 211
人民@@ 211
famille 210
Ò@@ 210
œuv@@ 210
ℳ 210
物@@ 210
Nha 209
dont 209
ùng 209
明@@ 209
街@@ 209
anyika 208
ectos 208
vì 208
Пет@@ 208
⟨ 208
capac@@ 207
period 207
prepar@@ 207
ακ@@ 207
生@@ 207
yao 206
àng 206
ма 206
щ@@ 206
ア@@ 206
ル@@ 206
教@@ 205
iliy@@ 204
released 204
ние 204
≠ 204
木@@ 204
自@@ 204
crit 203
tü 203
Á 203
Ви@@ 203
ོ@@ 203
Ά@@ 201
ня 201
市@@ 201
ʒ@@ 200
εν@@ 200
ге@@ 200
​ 200
ト@@ 200
川@@ 200
都@@ 200
đ 199
вет 199
ду@@ 199
ས 199
女@@ 199
angla@@ 198
capital 198
poco 198
ģ@@ 198
ŭ 197
化@@ 197
青@@ 197
ρί@@ 196
όν 196
ه@@ 196
giai 195
Ν 195
ев 195
ков@@ 195
主@@ 195
ección 194
très 194
ṛ@@ 194
Unis 193
celebr@@ 193
died 193
follow@@ 193
poste 193
principal 193
ʷ@@ 193
Ω@@ 193
άκ@@ 193
կ@@ 193
門 193
alipo@@ 192
consist@@ 192
introduc@@ 192
karne 192
mayo 192
ʳ@@ 192
Λ 192
Υ@@ 192
Де@@ 192
ста@@ 192
έν@@ 191
ής 191
зо@@ 191
duy 190
Φ 190
տ@@ 190
members 189
º@@ 189
óa 189
нович 189
₁ 189
協@@ 189
Mundial 188
Γ 188
ку@@ 188
lığı 187
thay 187
uzak@@ 187
États 187
пе@@ 187
ه 187
ganda 186
prés@@ 186
Ê@@ 186
建@@ 186
星@@ 186
神@@ 186
competi@@ 185
ψ 185
ав@@ 185
про@@ 185
ּ 185
Æ 184
Про@@ 184
合@@ 184
法@@ 184
oeste 183
ις 183
λε@@ 183
να@@ 183
八@@ 183
fuer@@ 182
particip@@ 182
Β 182
cuer@@ 181
medio 181
öğ@@ 181
ǁ@@ 181
και 181
த@@ 181
ག@@ 181
ần 181
田 181
院@@ 181
ografía 180
siy@@ 180
þ 180
Бу@@ 180
До@@ 180
Ḍ@@ 180
道@@ 180
acak 179
biri 179
grandes 179
zuri 179
θη@@ 179
κλ@@ 179
μος 179
ע 179
ḷ@@ 179
ữ 179
代@@ 179
usawa 178
Ū@@ 178
μα@@ 178
бу@@ 178
нов@@ 178
ர@@ 178
ს@@ 178
↓ 178
と@@ 178
dedic@@ 177
même 177
ocup@@ 177
ίας 177
πο@@ 177
τα 177
བ@@ 177
ến 177
理@@ 177
花@@ 177
ȟ@@ 176
Ре@@ 176
окру@@ 176
ск@@ 176
ŕ@@ 175
Ť@@ 175
̓ 175
̱ 175
άρ@@ 175
Р 175
ر@@ 175
公司 175
城 175
河 175
Mỹ 174
να 174
Па@@ 174
ན 174
河@@ 174
部@@ 174
cü 173
ного 173
ancien 172
esini 172
until 172
δι@@ 172
ισ@@ 172
τρ@@ 172
χ 172
ского 172
清@@ 172
compte 171
fut 171
segu@@ 171
tober 171
ılı 171
Ар@@ 171
СССР 171
пу@@ 171
ция 171
ང 171
During 170
sür@@ 170
Ô@@ 170
Ве@@ 170
ки@@ 170
ン 170
关@@ 170
become 169
bzw@@ 169
üy@@ 169
ŷ@@ 169
он@@ 169
信@@ 169
command@@ 168
langu@@ 168
ал@@ 168
ọc 168
arded 167
ɪ 167
θος 167
ων@@ 167
Пе@@ 167
ур@@ 167
ши@@ 167
全@@ 167
州@@ 167
È 166
ĸ@@ 166
ʹ@@ 166
ορ@@ 166
мен@@ 166
му@@ 166
ные 166
ти 166
ー 166
fonc@@ 165
linal@@ 165
ασ@@ 165
Ва@@ 165
Я 165
ש 165
业@@ 165
¢ 164
ு@@ 164
caso 163
conoc@@ 163
declar@@ 163
fois 163
Та@@ 163
ров 163
的@@ 163
社@@ 163
société 162
toujours 162
ос@@ 162
щи@@ 162
ب@@ 162
having 161
took 161
έρ@@ 161
Ду@@ 161
Ẓ@@ 161
ọ 161
ἔ@@ 161
术@@ 161
行@@ 161
龙@@ 161
compr@@ 160
khai 160
première 160
wao 160
κος 160
І@@ 160
之@@ 160
國@@ 160
阳@@ 160
Hán 159
awala 159
marri@@ 159
proces@@ 159
unid@@ 159
ường 159
εία 159
ὀ@@ 159
松@@ 159
está 158
south 158
tüm 158
ной 158
ско 158
ப@@ 158
ὸ@@ 158
シ@@ 158
基@@ 158
川 158
方@@ 158
野@@ 158
denomin@@ 157
embar@@ 157
ɑ@@ 157
̌ 157
ля 157
ча@@ 157
њ@@ 157
வ@@ 157
ི@@ 157
治@@ 157
王 157
賞 157
ιν@@ 156
ιος 156
νη 156
Влади@@ 156
作@@ 156
长@@ 156
館 156
Thành 155
banda 155
vement 155
Му@@ 155
лов@@ 155
ვ@@ 155
antigu@@ 154
played 154
taş@@ 154
¬ 154
Ан@@ 154
Ф 154
ло 154
ي@@ 154
■ 154
い@@ 154
芸@@ 154
military 153
重@@ 153
Kristo 152
İk@@ 152
aliza 151
padre 151
Ζ@@ 151
ευ@@ 151
ս@@ 151
ֲ@@ 151
∙ 151
春@@ 151
including 150
seph 150
мир 150
世@@ 150
bilin@@ 149
cargo 149
success@@ 149
Ли@@ 149
Росси@@ 149
район 149
са 149
ту@@ 149
ش@@ 149
集 149
oppos@@ 148
était 148
ñ 148
̥ 148
σκ@@ 148
Ме@@ 148
рий 148
乡 148
Doğu 147
conten@@ 147
corresp@@ 147
αυ@@ 147
λα@@ 147
र 147
博@@ 147
正@@ 147
acional 146
cinq 146
posición 146
provincia 146
tı 146
ăng 146
άσ@@ 146
ίν@@ 146
θε@@ 146
ρα 146
Ки@@ 146
ных 146
ད@@ 146
ṓ@@ 146
寺@@ 146
named 145
Π 145
Ста@@ 145
ба 145
лы@@ 145
մ@@ 145
ن@@ 145
学院 145
Chuo 144
neces@@ 144
suiv@@ 144
же@@ 144
־ 144
ا 144
♭ 144
学 144
師@@ 144
通@@ 144
tiempo 143
ép 143
άλ@@ 143
ργ@@ 143
Си@@ 143
вая 143
заво@@ 143
Հ@@ 143
政@@ 143
Wilaya 142
alidad 142
haa 142
todo 142
uyên 142
ˁ@@ 142
̲ 142
ίου 142
ικό 142
Су@@ 142
ի 142
্ 142
join@@ 141
kü 141
Şark@@ 141
ũng 141
παρ@@ 141
Э 141
ìn 140
÷ 140
ızı 140
ưng 140
σα 140
гу@@ 140
卫@@ 140
限@@ 140
respons@@ 139
ıt@@ 139
ʒ 139
зе@@ 139
сти@@ 139
ம@@ 139
ར@@ 139
ὁ 139
₤ 139
★ 139
塔 139
村@@ 139
Başkan@@ 138
Châu 138
uvu 138
ċ@@ 138
ʊ@@ 138
ρά@@ 138
ό 138
ότητα 138
ци@@ 138
ნ@@ 138
ận 138
ῦ 138
₱ 138
kuna 137
Ā 137
ısı 137
ικός 137
των 137
Ива@@ 137
б 137
п 137
事@@ 137
馬@@ 137
Cette 136
Trung 136
asyonu 136
kurul@@ 136
nó 136
ų@@ 136
δρ@@ 136
ομ@@ 136
Васи@@ 136
род@@ 136
― 136
る@@ 136
不@@ 136
長@@ 136
Nội 135
asili 135
pobl@@ 135
Θε@@ 135
εφαλ@@ 135
Ј@@ 135
Алек@@ 135
То@@ 135
из@@ 135
त 135
真@@ 135
akini 134
département 134
kati 134
releas@@ 134
Υ 134
Ла@@ 134
ъ@@ 134
ل@@ 134
م@@ 134
película 133
üsü 133
ʉ@@ 133
Η 133
Г 133
Ա@@ 133
ク@@ 133
タ@@ 133
史@@ 133
Estados 132
anlar 132
mondi@@ 132
ţ 132
ũ@@ 132
ɑ 132
ɗ@@ 132
ɡ@@ 132
ница 132
ск 132
стро@@ 132
ха@@ 132
ِ@@ 132
ச@@ 132
រ@@ 132
マ@@ 132
原@@ 132
室 132
業@@ 132
电@@ 132
黄@@ 132
Hồng 131
altı 131
dernier 131
série 131
équi@@ 131
ŏ 131
υ 131
Ни@@ 131
ạt 131
年@@ 131
德@@ 131
测@@ 131
马@@ 131
ases@@ 130
différ@@ 130
ǝ@@ 130
ͤ 130
όλ@@ 130
ния 130
ской 130
ства 130
ть 130
љ@@ 130
following 129
lık@@ 129
αμ@@ 129
Чер@@ 129
зер@@ 129
ян@@ 129
მ@@ 129
ო@@ 129
ằng 129
张@@ 129
Κοιν@@ 128
гор@@ 128
лю@@ 128
ны 128
ất 128
州 128
机@@ 128
門@@ 128
eleri 127
miş 127
ãi 127
ıp 127
͡ 127
εί@@ 127
ολ@@ 127
Га@@ 127
жи@@ 127
су@@ 127
华@@ 127
放@@ 127
程@@ 127
阿@@ 127
Almanya 126
ancak 126
pueblo 126
ˁ 126
ские 126
ю 126
解@@ 126
kuto@@ 125
propos@@ 125
rôle 125
several 125
Те@@ 125
ры@@ 125
ק 125
ục 125
カ@@ 125
福@@ 125
iriki 124
Į 124
ǃ@@ 124
ʲ@@ 124
Об@@ 124
При@@ 124
аль@@ 124
ит@@ 124
лен@@ 124
льный 124
ша@@ 124
э 124
འ@@ 124
უ@@ 124
ḏ 124
Tân 123
olewa 123
worked 123
çık@@ 123
сть 123
то 123
ền 123
中心 123
地 123
法 123
ileri 122
kiye 122
pili 122
Ε 122
Ο 122
по 122
ས@@ 122
ུ@@ 122
ジ@@ 122
央@@ 122
月@@ 122
According 121
groupe 121
tanto 121
telev@@ 121
Ð@@ 121
λος 121
Ло@@ 121
ф 121
س@@ 121
ི 121
⋅ 121
amı 120
compet@@ 120
peut 120
tekn@@ 120
udur 120
© 120
άς 120
κύ@@ 120
πρ@@ 120
τά@@ 120
ди 120
рин@@ 120
د@@ 120
ي 120
ẓ 120
⊙ 120
レ@@ 120
周@@ 120
江 120
cambi@@ 119
coi 119
español 119
lerini 119
ɐ 119
Αγ@@ 119
ρε@@ 119
Мар@@ 119
сте@@ 119
∈ 119
▬ 119
television 118
сла@@ 118
ك@@ 118
发@@ 118
永@@ 118
派 118
Cumhuriyeti 117
présent@@ 117
ơn 117
Δημ@@ 117
доро@@ 117
√ 117
九@@ 117
dağ@@ 116
kuv@@ 116
layan 116
published 116
Ý@@ 116
ư 116
ʔ 116
Θ 116
Ι 116
ίδ@@ 116
απ@@ 116
μέ@@ 116
πος 116
το 116
ня@@ 116
₀ 116
吉@@ 116
Esta 115
arriv@@ 115
fue 115
ildi 115
students 115
πί@@ 115
ών@@ 115
Гор@@ 115
вер@@ 115
ბ@@ 115
ロ@@ 115
下@@ 115
党 115
商@@ 115
帝@@ 115
成@@ 115
duy@@ 114
kazi 114
quelques 114
río 114
ɣ@@ 114
ст 114
ча 114
ⴻ@@ 114
이@@ 114
daki 113
debut 113
ekani 113
huko 113
Đông 113
Ελλην@@ 113
Παν@@ 113
λόγ@@ 113
οπ@@ 113
вет@@ 113
ет@@ 113
он 113
ع@@ 113
ა 113
ạng 113
保@@ 113
ciudad 112
kuwa 112
ке@@ 112
шка 112
ْ@@ 112
თ@@ 112
体@@ 112
六@@ 112
玉@@ 112
moja 111
représent@@ 111
todos 111
Αν@@ 111
αί@@ 111
αθ@@ 111
ϑ 111
Българ@@ 111
Да@@ 111
хи@@ 111
ө@@ 111
ى 111
元@@ 111
集@@ 111
alık 110
atı 110
depuis 110
lük 110
nuevo 110
personn@@ 110
toute 110
Δι@@ 110
ήσ@@ 110
Миха@@ 110
вя@@ 110
лов 110
при@@ 110
ә@@ 110
ា@@ 110
か@@ 110
委员会 110
验@@ 110
düz@@ 109
Ô 109
ʁ@@ 109
̄ 109
οί 109
Вер@@ 109
Крас@@ 109
ман 109
от@@ 109
ự 109
└ 109
● 109
井@@ 109
同@@ 109
总@@ 109
義@@ 109
Bộ 108
Ils 108
deş@@ 108
territoire 108
ǫ 108
τερ@@ 108
ان 108
lider@@ 107
àm 107
Лю@@ 107
Пре@@ 107
ша 107
د 107
म@@ 107
た@@ 107
千@@ 107
台@@ 107
族@@ 107
第@@ 107
νης 106
дар@@ 106
лин@@ 106
ạch 106
ル 106
仁@@ 106
出@@ 106
号 106
土@@ 106
皇@@ 106
群 106
COVI@@ 105
almente 105
aujour@@ 105
bà 105
consid@@ 105
durant 105
primer 105
ſ 105
ǀ@@ 105
κο@@ 105
μβ@@ 105
ξι@@ 105
πλ@@ 105
Вели@@ 105
Хо@@ 105
ран@@ 105
ح@@ 105
Công 104
abril 104
recu@@ 104
tiene 104
ĭ@@ 104
ʉ 104
Лу@@ 104
ж 104
жа@@ 104
зи@@ 104
թ@@ 104
ך 104
़ 104
ன 104
ấn 104
ὰ 104
し@@ 104
七@@ 104
名@@ 104
ficie 103
Ğ@@ 103
οδ@@ 103
Че@@ 103
ր 103
ầu 103
∴ 103
ABD 102
Ocak 102
aliye@@ 102
condu@@ 102
deter@@ 102
hiệu 102
ĝ@@ 102
ρω@@ 102
ως 102
жен@@ 102
це@@ 102
գ@@ 102
ח 102
র@@ 102
ổ 102
ὑ@@ 102
に@@ 102
宝@@ 102
百@@ 102
華@@ 102
藤@@ 102
音@@ 102
années 101
became 101
province 101
τη@@ 101
те 101
фа@@ 101
ết 101
∆ 101
⌀ 101
キ@@ 101
ド@@ 101
造@@ 101
里 101
Eylül 100
aussi 100
enero 100
soit 100
Ç 100
Δήμ@@ 100
εύ@@ 100
τε@@ 100
Ха@@ 100
ха 100
ম@@ 100
ོ 100
ྱ@@ 100
ⵏ 100
丸 100
木 100
源@@ 100
Alman 99
bağ@@ 99
días 99
realiz@@ 99
àu 99
êm 99
ĩ 99
į 99
œ 99
κά@@ 99
υμ@@ 99
όρ@@ 99
Гу@@ 99
Кар@@ 99
ско@@ 99
द 99
ệ 99
ộc 99
展 99
nombre 98
Ό@@ 98
τική 98
йский 98
тра@@ 98
цы 98
ق@@ 98
ེ 98
な@@ 98
一 98
内@@ 98
多@@ 98
巴@@ 98
等@@ 98
dü 97
titre 97
óm 97
Укра@@ 97
го 97
ря@@ 97
це 97
ще@@ 97
و 97
ி 97
ὸ 97
刘@@ 97
号@@ 97
汉@@ 97
行 97
atao 96
bió 96
career 96
onóm@@ 96
previ@@ 96
ˌ@@ 96
εις 96
οφ@@ 96
вый 96
сло@@ 96
ты 96
Ս@@ 96
վ@@ 96
ט 96
与@@ 96
广@@ 96
絵@@ 96
里@@ 96
hệ 95
isinin 95
partici@@ 95
vuel@@ 95
şehir@@ 95
ʊ 95
Κα@@ 95
έλ@@ 95
Ново@@ 95
Ор@@ 95
Сте@@ 95
гра@@ 95
Մ@@ 95
್ 95
∨ 95
ス 95
島@@ 95
帝 95
竹@@ 95
革@@ 95
dès 94
espè@@ 94
pequ@@ 94
ίλ@@ 94
Ин@@ 94
Све@@ 94
Ша@@ 94
нова 94
ز@@ 94
र@@ 94
් 94
། 94
ག 94
は@@ 94
コ@@ 94
心@@ 94
生 94
谷@@ 94
Birliği 93
jiji 93
mesi 93
вой 93
мы@@ 93
ро 93
ָ 93
ف@@ 93
و@@ 93
ស@@ 93
Ḏ@@ 93
ᾶ@@ 93
≙ 93
史 93
朱@@ 93
oloj@@ 92
ητ@@ 92
τός 92
ван@@ 92
вар@@ 92
ле 92
ད 92
ị@@ 92
ὄ@@ 92
云@@ 92
制@@ 92
時@@ 92
洋@@ 92
記 92
canción 91
eviz@@ 91
isini 91
préc@@ 91
tipo 91
üncü 91
ılık 91
άδ@@ 91
Пер@@ 91
ции 91
ি@@ 91
ட@@ 91
མ@@ 91
◎ 91
ⵉ@@ 91
外@@ 91
平 91
杨@@ 91
间@@ 91
飞@@ 91
Agosti 90
así 90
ecek@@ 90
pointed 90
produced 90
và 90
άγ@@ 90
Серге@@ 90
ак@@ 90
зна@@ 90
лий 90
стра@@ 90
ў@@ 90
֣ 90
ס 90
ܝ@@ 90
ަ@@ 90
া 90
མ 90
ℓ 90
▭ 90
フ@@ 90
共@@ 90
前@@ 90
宗@@ 90
局 90
水 90
老@@ 90
育@@ 90
風@@ 90
February 89
ına 89
ίκ@@ 89
ιλ@@ 89
Вол@@ 89
Е 89
кова 89
ம 89
ḷ 89
ạnh 89
庙 89
旧@@ 89
红@@ 89
alement 88
fútbol 88
nda 88
ydi 88
Û@@ 88
ĭ 88
ʰ 88
Ξ@@ 88
Ψ 88
αβ@@ 88
Гри@@ 88
ды 88
ַ 88
ṉ@@ 88
《 88
》 88
論 88
created 87
doit 87
hilo 87
principales 87
puesto 87
umri 87
γι@@ 87
Боль@@ 87
Москов@@ 87
ви 87
қ@@ 87
أ@@ 87
ر 87
ỗ 87
ト 87
兵@@ 87
學@@ 87
宗 87
家 87
野 87
陈@@ 87
moins 86
muy 86
évol@@ 86
ίων 86
με@@ 86
τη 86
мит@@ 86
нь 86
пре@@ 86
ска@@ 86
ἴ@@ 86
ら@@ 86
司@@ 86
命@@ 86
宁@@ 86
楼 86
沙@@ 86
Tuy 85
asyon 85
connu 85
découver@@ 85
mondiale 85
served 85
αστ@@ 85
Ге@@ 85
Сер@@ 85
клуб 85
обо@@ 85
сь 85
ף 85
ỳ@@ 85
⅛ 85
原 85
書@@ 85
氏@@ 85
湖@@ 85
began 84
descri@@ 84
hasta 84
ingana 84
isième 84
married 84
yıl@@ 84
Ţ@@ 84
Περ@@ 84
πολι@@ 84
ем@@ 84
рав@@ 84
ү@@ 84
अ@@ 84
Ἰ@@ 84
‌ 84
デ@@ 84
展@@ 84
特@@ 84
郡 84
의 84
Vương 83
started 83
various 83
wrote 83
ħ 83
ĩ@@ 83
Ź@@ 83
ɐ@@ 83
ɾ@@ 83
λί@@ 83
όδ@@ 83
Никола@@ 83
ком@@ 83
ми 83
֨ 83
ץ 83
ت@@ 83
خ@@ 83
დ@@ 83
ს 83
ῥ@@ 83
モ@@ 83
分@@ 83
力@@ 83
士 83
念@@ 83
愛@@ 83
火@@ 83
路@@ 83
constru@@ 82
sız 82
wango 82
Иван 82
ан 82
фи@@ 82
ѣ@@ 82
ல@@ 82
ལ@@ 82
伊@@ 82
明 82
画 82
路 82
ayant 81
cuando 81
deuxième 81
yıld@@ 81
ŕ 81
ƒ 81
̣ 81
Καρ@@ 81
γκ@@ 81
εια 81
καλ@@ 81
μι@@ 81
μπ@@ 81
οι@@ 81
σπ@@ 81
τέ@@ 81
τή@@ 81
τικ@@ 81
си 81
ских 81
цион@@ 81
чен@@ 81
ܐ 81
ེ@@ 81
▀ 81
エ@@ 81
万@@ 81
林 81
球@@ 81
用@@ 81
省@@ 81
知@@ 81
経@@ 81
義 81
êu 80
γιος 80
Андре@@ 80
Ди@@ 80
Ча@@ 80
бра@@ 80
кин 80
ֹ 80
〉 80
佐@@ 80
园 80
島 80
本 80
次@@ 80
町 80
대@@ 80
Genel 79
awali 79
hát 79
tement 79
üğü 79
Ψ@@ 79
ην@@ 79
Ал@@ 79
За 79
России 79
ис@@ 79
тар@@ 79
ье 79
ج@@ 79
ἡ 79
├ 79
ⴷ@@ 79
唐@@ 79
士@@ 79
cá 78
minh 78
vient 78
Μαρ@@ 78
σία 78
Пи@@ 78
Ти@@ 78
бал@@ 78
лек@@ 78
чка 78
ър@@ 78
ׁ 78
م 78
♥ 78
ん@@ 78
ニ@@ 78
宮@@ 78
少@@ 78
泉@@ 78
Kuzey 77
aları 77
cuatro 77
estado 77
futbol@@ 77
hombres 77
itwa 77
président 77
̂ 77
ίσ@@ 77
ато@@ 77
вен@@ 77
ги 77
дру@@ 77
хов@@ 77
զ@@ 77
ু@@ 77
ま@@ 77
仙@@ 77
佛@@ 77
定@@ 77
站 77
食@@ 77
nueva 76
occu@@ 76
permet@@ 76
ησ@@ 76
μά@@ 76
Ев@@ 76
де 76
кон@@ 76
кра@@ 76
нин@@ 76
ی 76
র 76
ි@@ 76
ὴ 76
♯ 76
殿 76
门@@ 76
chữ 75
Ì@@ 75
̩ 75
έρας 75
ησι@@ 75
χος 75
ата@@ 75
горо@@ 75
им@@ 75
ре 75
тан@@ 75
ще 75
ղ@@ 75
ُ@@ 75
न 75
ய@@ 75
ὕ@@ 75
ィ@@ 75
利@@ 75
尔@@ 75
會 75
津@@ 75
commen@@ 74
established 74
huu 74
Ë@@ 74
Ś 74
şir@@ 74
̕ 74
προ@@ 74
τρο@@ 74
χρ@@ 74
όσ@@ 74
Щ@@ 74
ать 74
мор@@ 74
пор@@ 74
све@@ 74
сти 74
тя@@ 74
ья 74
स 74
ම@@ 74
် 74
ḵ@@ 74
Ἐ@@ 74
∧ 74
◻ 74
☮ 74
ⴳ@@ 74
お@@ 74
サ@@ 74
像 74
加@@ 74
口@@ 74
女 74
实@@ 74
思@@ 74
英@@ 74
郎@@ 74
mà 73
siglo 73
éx@@ 73
̇ 73
Καλ@@ 73
Νικ@@ 73
υρ@@ 73
ύλ@@ 73
Би@@ 73
Федера@@ 73
Х 73
лё@@ 73
обще@@ 73
па 73
ты@@ 73
լ@@ 73
շ@@ 73
प 73
க 73
ạo 73
ん 73
乐@@ 73
书@@ 73
克@@ 73
场 73
庄@@ 73
观@@ 73
陽@@ 73
雄 73
龍@@ 73
laş@@ 72
maji 72
plusieurs 72
quy@@ 72
système 72
uyền 72
ɵ 72
ηγ@@ 72
περ@@ 72
Все@@ 72
Гра@@ 72
Пу@@ 72
ева 72
ники 72
од@@ 72
व@@ 72
ব@@ 72
ு 72
კ@@ 72
き@@ 72
り@@ 72
オ@@ 72
式@@ 72
盟 72
草@@ 72
Avrupa 71
encontr@@ 71
moved 71
ofici@@ 71
públ@@ 71
sahi@@ 71
tienen 71
Ευ@@ 71
γλ@@ 71
δε@@ 71
κτ@@ 71
πι@@ 71
τον 71
Из@@ 71
Кри@@ 71
ман@@ 71
ри 71
тин 71
न@@ 71
म 71
ে@@ 71
ར 71
ტ@@ 71
ẽ@@ 71
を@@ 71
ウ@@ 71
ャ@@ 71
宋@@ 71
景@@ 71
興@@ 71
计@@ 71
近@@ 71
防@@ 71
jwa 70
theo 70
époque 70
ôi 70
εκ@@ 70
ιρ@@ 70
ριστ@@ 70
τε 70
али@@ 70
ден@@ 70
ед@@ 70
кая 70
спор@@ 70
ци 70
հ@@ 70
ک@@ 70
क 70
ữu 70
⚔ 70
り 70
バ@@ 70
天 70
徐@@ 70
探@@ 70
设@@ 70
： 70
Cumhur@@ 69
Thiên 69
caract@@ 69
geç@@ 69
huwa 69
jimbo 69
lerde 69
ouest 69
secu@@ 69
ğu 69
λευ@@ 69
μν@@ 69
υσ@@ 69
бан@@ 69
град@@ 69
ника 69
слав 69
ර@@ 69
ᐧ@@ 69
ải 69
く@@ 69
セ@@ 69
专@@ 69
園 69
堂@@ 69
専@@ 69
張@@ 69
朝@@ 69
由@@ 69
甲@@ 69
管@@ 69
cuar@@ 68
país 68
Ż 68
ɒ@@ 68
έα 68
θέ@@ 68
πόλ@@ 68
ώ 68
Вы@@ 68
Геор@@ 68
Фе@@ 68
комите@@ 68
спо@@ 68
ше 68
шо@@ 68
ёр@@ 68
դ@@ 68
य 68
‛ 68
₹ 68
あ@@ 68
台 68
御@@ 68
忠@@ 68
昌@@ 68
無@@ 68
界@@ 68
聖@@ 68
記@@ 68
象@@ 68
赤@@ 68
Trường 67
ambao 67
sistem@@ 67
wilaya 67
˚ 67
Έ@@ 67
Παρ@@ 67
άμ@@ 67
ιστ@@ 67
ρυ@@ 67
φύ@@ 67
Ком@@ 67
Македо@@ 67
Сою@@ 67
город@@ 67
дин@@ 67
обла@@ 67
прав@@ 67
фо@@ 67
ћ@@ 67
Қ@@ 67
ن 67
پ@@ 67
ল@@ 67
ர 67
่ 67
ⴰ 67
ⵣ@@ 67
う@@ 67
ナ@@ 67
ポ@@ 67
善@@ 67
夏@@ 67
委@@ 67
字@@ 67
富@@ 67
日 67
한@@ 67
acción 66
gesi 66
huy 66
miş@@ 66
mujeres 66
Ģ@@ 66
΄ 66
Αρ@@ 66
ημ@@ 66
ογ@@ 66
πέ@@ 66
Кон@@ 66
ите@@ 66
ֽ@@ 66
य@@ 66
ා@@ 66
ạ 66
が@@ 66
丁@@ 66
三 66
嘉@@ 66
図 66
星 66
秀@@ 66
進@@ 66
Japon 65
améric@@ 65
hizo 65
juu 65
ɨ 65
Μ 65
Με@@ 65
ηλ@@ 65
οσ@@ 65
στι@@ 65
ύρ@@ 65
Бал@@ 65
Николай 65
кан@@ 65
нови@@ 65
слав@@ 65
ى@@ 65
้ 65
པ@@ 65
ọng 65
◦ 65
〜 65
兴@@ 65
团@@ 65
导@@ 65
支 65
文 65
書 65
来@@ 65
기@@ 65
김@@ 65
민@@ 65
avait 64
dù 64
eğ@@ 64
hijo 64
momento 64
oliki 64
similar 64
̍ 64
Γι@@ 64
σσ@@ 64
τρι@@ 64
Пар@@ 64
вы@@ 64
ган@@ 64
льная 64
пере@@ 64
рен@@ 64
спе@@ 64
съ@@ 64
фе@@ 64
ё 64
স@@ 64
த 64
ống 64
ἱ@@ 64
᾽ 64
⁠ 64
ℛ@@ 64
⇔ 64
ⵜ@@ 64
れ@@ 64
ハ@@ 64
交@@ 64
以@@ 64
友@@ 64
口 64
場 64
开@@ 64
我@@ 64
改@@ 64
曲@@ 64
氏 64
波@@ 64
深@@ 64
联@@ 64
語 64
銀@@ 64
chaque 63
âu 63
Κ 63
Προ@@ 63
αδ@@ 63
είο 63
καν@@ 63
λέ@@ 63
ού 63
ώργ@@ 63
Констан@@ 63
Нико@@ 63
народ@@ 63
нин 63
ста 63
ܡ@@ 63
रा@@ 63
ხ@@ 63
ệ@@ 63
⅜ 63
ⵙ@@ 63
中 63
军 63
拉@@ 63
研究 63
秋@@ 63
Mayıs 62
aît 62
bunge 62
escrit@@ 62
ilir 62
okea 62
oldu 62
αν 62
ει 62
όφ@@ 62
до 62
се 62
чу@@ 62
ا@@ 62
ण 62
श 62
় 62
₃ 62
み@@ 62
ケ@@ 62
動@@ 62
岡@@ 62
志@@ 62
手@@ 62
蒙@@ 62
资@@ 62
ekana 61
ensuite 61
febr@@ 61
obten@@ 61
zaman 61
ɨ@@ 61
ɬ@@ 61
έχ@@ 61
ιγ@@ 61
κλη@@ 61
κυ@@ 61
ουλ@@ 61
τσ@@ 61
όγ@@ 61
Михаил 61
град 61
мия 61
рон@@ 61
рус@@ 61
тов 61
є@@ 61
ු@@ 61
チ@@ 61
中华@@ 61
动@@ 61
医@@ 61
国 61
墓 61
居@@ 61
現@@ 61
筑@@ 61
苏@@ 61
連@@ 61
주@@ 61
ían 60
Κά@@ 60
βι@@ 60
ικής 60
νο@@ 60
οβ@@ 60
στο@@ 60
Ту@@ 60
ате@@ 60
имени 60
мов 60
ок@@ 60
рина 60
сою@@ 60
ый 60
ә 60
ت 60
ق 60
ཁ@@ 60
შ@@ 60
い 60
グ@@ 60
テ@@ 60
ブ@@ 60
书 60
于@@ 60
墓@@ 60
摩@@ 60
溪@@ 60
良@@ 60
鉄@@ 60
escri@@ 59
ính 59
úp 59
Ιωάν@@ 59
επ@@ 59
ουν@@ 59
οχ@@ 59
πά@@ 59
Рес@@ 59
от 59
тина 59
ър 59
را@@ 59
ক@@ 59
ন 59
ন@@ 59
ྲ@@ 59
გ@@ 59
Ṯ@@ 59
ẽ 59
〈 59
ミ@@ 59
井 59
产@@ 59
故@@ 59
池@@ 59
農@@ 59
雪@@ 59
電@@ 59
Hội 58
başkan@@ 58
göz@@ 58
however 58
número 58
sistema 58
yeni 58
ço@@ 58
εφ@@ 58
вой@@ 58
ву@@ 58
жа 58
ление 58
пер@@ 58
рия 58
ствен@@ 58
ход@@ 58
ս 58
ال@@ 58
ह@@ 58
න@@ 58
ქ@@ 58
ắ@@ 58
ノ@@ 58
プ@@ 58
ュ@@ 58
夫@@ 58
系@@ 58
藤 58
詩@@ 58
運@@ 58
陵 58
mejor 57
troisième 57
ʷ 57
̈ 57
Μον@@ 57
βί@@ 57
εσ@@ 57
υν@@ 57
όκ@@ 57
Бар@@ 57
От@@ 57
вод@@ 57
стан@@ 57
уч@@ 57
ї 57
ׂ@@ 57
غ@@ 57
ܪ@@ 57
ު@@ 57
า@@ 57
ἑ@@ 57
久@@ 57
应@@ 57
流@@ 57
湖 57
经@@ 57
語@@ 57
Irel@@ 56
Kỳ 56
effet 56
insi 56
remain@@ 56
selon 56
Ï@@ 56
şu 56
γέν@@ 56
δος 56
ιδ@@ 56
ρου 56
τυ@@ 56
Кара@@ 56
Ри@@ 56
Сто@@ 56
бор@@ 56
вое 56
институ@@ 56
кт 56
кто@@ 56
она@@ 56
поселе@@ 56
уче@@ 56
чки 56
ִ 56
ך@@ 56
الع@@ 56
ल 56
ན@@ 56
ṉ 56
ậu 56
♣ 56
つ@@ 56
何@@ 56
報 56
康@@ 56
朝 56
版@@ 56
谷 56
（ 56
Dünya 55
azini 55
leş@@ 55
tamente 55
đi 55
ʕ@@ 55
ʽ@@ 55
Ί@@ 55
Παλ@@ 55
ικά 55
ούς 55
ριο 55
τί@@ 55
ται 55
Димит@@ 55
Моск@@ 55
атов 55
государствен@@ 55
для 55
ек@@ 55
ку 55
лы 55
ниче@@ 55
пол@@ 55
рал 55
բ@@ 55
պ@@ 55
ք 55
ܘ@@ 55
ម@@ 55
Ἑ@@ 55
ⵔ@@ 55
さ@@ 55
ガ@@ 55
ク 55
之 55
光 55
吴@@ 55
夫 55
峰@@ 55
年 55
春 55
胡@@ 55
陳@@ 55
리@@ 55
También 54
cinco 54
desde 54
ilç@@ 54
kuu 54
ların 54
migu@@ 54
onun 54
zote 54
ètres 54
último 54
ʌ@@ 54
Εθν@@ 54
Ρ 54
μφ@@ 54
ους 54
ποι@@ 54
υγ@@ 54
όπ@@ 54
Вар@@ 54
би 54
кни@@ 54
кол@@ 54
ности 54
ну@@ 54
рай@@ 54
ститу@@ 54
тор@@ 54
университет 54
чи 54
ј 54
ց@@ 54
بي@@ 54
त@@ 54
్ 54
് 54
น@@ 54
Ḳ@@ 54
ẹ 54
ệu 54
ἡ@@ 54
∼ 54
⊤ 54
こ@@ 54
パ@@ 54
务@@ 54
大 54
神 54
组 54
试@@ 54
鐘@@ 54
队 54
馆 54
香@@ 54
국@@ 54
agosto 53
arası 53
casi 53
hizi 53
kundi 53
premiers 53
Ė@@ 53
Ț 53
ɣ 53
ρύ@@ 53
τας 53
Жи@@ 53
Шу@@ 53
Ъ 53
арти@@ 53
бро@@ 53
бы@@ 53
гар@@ 53
йской 53
куль@@ 53
лод@@ 53
мар@@ 53
мер@@ 53
публика 53
рис 53
тиче@@ 53
ут@@ 53
״ 53
ب 53
ة 53
ص@@ 53
ग@@ 53
ज 53
ত@@ 53
ன@@ 53
ལ 53
ẹ@@ 53
ⵍ@@ 53
ち@@ 53
ョ@@ 53
双@@ 53
吉 53
君@@ 53
夜@@ 53
梁@@ 53
楽@@ 53
济@@ 53
甲 53
秦@@ 53
聞 53
色@@ 53
議@@ 53
開@@ 53
Osmanlı 52
¨ 52
áu 52
şek@@ 52
ǝ 52
̅ 52
Κυ@@ 52
Πολ@@ 52
θα 52
ιμ@@ 52
μή@@ 52
νομ@@ 52
τικός 52
ϑ@@ 52
Чи@@ 52
гла@@ 52
дь 52
мм 52
мо 52
пар@@ 52
револю@@ 52
тро@@ 52
ҳ@@ 52
ց 52
ނ@@ 52
ை 52
ม@@ 52
བ 52
ཚ@@ 52
ཨ@@ 52
ἕ@@ 52
◡ 52
ダ@@ 52
可@@ 52
回@@ 52
左@@ 52
洪@@ 52
精@@ 52
系 52
起@@ 52
陵@@ 52
鳥@@ 52
） 52
ambazo 51
kadar 51
phố 51
pueb@@ 51
sát 51
ubwa 51
yali@@ 51
ʲ 51
αλλ@@ 51
αφ@@ 51
βασ@@ 51
κατ@@ 51
μαν@@ 51
πολ@@ 51
σύ@@ 51
τζ@@ 51
Мак@@ 51
бы 51
вица 51
дия 51
им 51
нау@@ 51
оло@@ 51
ственный 51
сы 51
ща@@ 51
ђ@@ 51
֥ 51
ז 51
ਰ@@ 51
ส@@ 51
ុ@@ 51
∅ 51
元 51
劉@@ 51
岩@@ 51
常@@ 51
战@@ 51
斯@@ 51
花 51
藏@@ 51
観@@ 51
黃@@ 51
龙 51
described 50
empres@@ 50
mito 50
spé@@ 50
ğin 50
̑ 50
Σύ@@ 50
ές 50
αρχ@@ 50
ιά 50
κας 50
μον@@ 50
όμ@@ 50
Кор@@ 50
ати@@ 50
бе 50
дов 50
миро@@ 50
нен@@ 50
росси@@ 50
ры 50
сов@@ 50
ун@@ 50
шко@@ 50
س 50
ل 50
ِ 50
์ 50
ྒ@@ 50
ე 50
ᐃ@@ 50
ều 50
⅝ 50
♠ 50
ⵓ 50
丹@@ 50
修@@ 50
县@@ 50
峰 50
後@@ 50
海 50
点@@ 50
能@@ 50
衛@@ 50
시@@ 50
Liên 49
cerca 49
presidente 49
received 49
tự 49
uyết 49
wana@@ 49
Âu 49
Ċ@@ 49
ĕ 49
ước 49
ɫ@@ 49
ρο 49
Фи@@ 49
Ц 49
Ч 49
Ши@@ 49
зу@@ 49
зы@@ 49
ната 49
ников 49
осу@@ 49
ръ@@ 49
тин@@ 49
тру@@ 49
ческий 49
ײ@@ 49
آ@@ 49
الم@@ 49
ग 49
ष 49
ள 49
ཡ@@ 49
ር@@ 49
ṃ 49
ạn 49
ὴ@@ 49
∶ 49
ⵓ@@ 49
も@@ 49
ア 49
ェ@@ 49
ム@@ 49
代 49
動 49
厂 49
性@@ 49
月 49
石 49
统@@ 49
者 49
雄@@ 49
Naili 48
américain 48
continued 48
donc 48
donde 48
imeh@@ 48
kodi 48
lugar 48
olup 48
punto 48
unun 48
̪ 48
Κύ@@ 48
δο@@ 48
ικών 48
μή 48
μυ@@ 48
οκ@@ 48
οπο@@ 48
τικό 48
года 48
ден 48
еди@@ 48
логи@@ 48
ме 48
нал 48
под@@ 48
раз@@ 48
ג 48
މ@@ 48
ं 48
द@@ 48
व 48
ṛ 48
ệt 48
ὺ@@ 48
‡ 48
ド 48
メ@@ 48
反@@ 48
喜@@ 48
团 48
府@@ 48
德 48
文化 48
智@@ 48
株@@ 48
泰@@ 48
洞@@ 48
済@@ 48
渡@@ 48
湾@@ 48
者@@ 48
阪@@ 48
사@@ 48
조@@ 48
Kaskazini 47
Quân 47
adlı 47
hace 47
nüf@@ 47
undan 47
üç 47
Ξ 47
ήμ@@ 47
δυ@@ 47
ιο 47
οτ@@ 47
πα@@ 47
ρέ@@ 47
На 47
ген@@ 47
дви@@ 47
ера 47
зан@@ 47
зар@@ 47
йн 47
слу@@ 47
соб@@ 47
соци@@ 47
три@@ 47
шки 47
ք@@ 47
ش 47
گ@@ 47
ला 47
প@@ 47
ப 47
ව@@ 47
ཅ@@ 47
ḕ 47
ả 47
‍ 47
Ⅹ@@ 47
▄ 47
ⴱ@@ 47
ピ@@ 47
乌@@ 47
先@@ 47
兰@@ 47
农@@ 47
凤@@ 47
初@@ 47
区@@ 47
及@@ 47
哈@@ 47
室@@ 47
屋@@ 47
所@@ 47
毛@@ 47
見@@ 47
越@@ 47
雲@@ 47
黒@@ 47
Kasım 46
lerden 46
mismo 46
İsp@@ 46
ΐ@@ 46
Επ@@ 46
άπ@@ 46
αχ@@ 46
ειδ@@ 46
λά@@ 46
μου 46
νε@@ 46
πε@@ 46
που 46
ση 46
Бра@@ 46
СС@@ 46
ду 46
жо@@ 46
из 46
лена 46
ново 46
сты@@ 46
тив@@ 46
ֻ@@ 46
الله 46
ި@@ 46
ब@@ 46
वा@@ 46
அ@@ 46
ட 46
ម 46
ṅ 46
ẕ@@ 46
ật 46
ὁ@@ 46
け@@ 46
ビ@@ 46
仁 46
信 46
勝@@ 46
區 46
合 46
哲@@ 46
守@@ 46
布@@ 46
延@@ 46
恩@@ 46
昭@@ 46
桥@@ 46
漢@@ 46
県@@ 46
章 46
若@@ 46
运@@ 46
아@@ 46
Desde 45
ciud@@ 45
deki 45
difer@@ 45
gibi 45
kı@@ 45
lerine 45
şehr@@ 45
ɲ@@ 45
Συ@@ 45
Τ 45
εδ@@ 45
ματ@@ 45
τρα 45
υλ@@ 45
υπ@@ 45
φέρ@@ 45
Съ@@ 45
Хри@@ 45
Щ 45
бар@@ 45
вед@@ 45
дор 45
ез@@ 45
ктор 45
лен 45
лина 45
мя@@ 45
нии 45
нина 45
сер@@ 45
сов 45
чо@@ 45
чь 45
ёт@@ 45
ғ@@ 45
ֵ 45
اد@@ 45
رو@@ 45
لا@@ 45
का@@ 45
ल@@ 45
ல 45
ಾ@@ 45
ཆ@@ 45
ძ@@ 45
አ@@ 45
ន@@ 45
ḻ@@ 45
ẖ@@ 45
ẞ 45
ể 45
⁴ 45
ム 45
共和@@ 45
半@@ 45
國 45
如@@ 45
密@@ 45
庆@@ 45
戦@@ 45
梅@@ 45
森@@ 45
橋 45
港@@ 45
經 45
经 45
軍@@ 45
隆@@ 45
面@@ 45
Hàn 44
dön@@ 44
política 44
Â 44
ümü 44
ċ 44
ında 44
Ň@@ 44
ǒ 44
ɕ@@ 44
ɵ@@ 44
ʹ 44
ήν@@ 44
γεν@@ 44
εν 44
ην 44
μεν@@ 44
ϊ@@ 44
Од@@ 44
българ@@ 44
вета 44
воз@@ 44
гер@@ 44
дан 44
ора 44
пра@@ 44
тер@@ 44
тия 44
че 44
чный 44
ьо@@ 44
Կ@@ 44
ְ 44
بن 44
من 44
يا 44
ް 44
ជ@@ 44
ត@@ 44
ạ@@ 44
ụ 44
ⵏ@@ 44
し 44
て@@ 44
労@@ 44
南 44
員@@ 44
器@@ 44
崖@@ 44
師 44
広@@ 44
志 44
指@@ 44
控@@ 44
清 44
罗@@ 44
臣@@ 44
角@@ 44
護@@ 44
载@@ 44
間@@ 44
音 44
风@@ 44
黨 44
리 44
하@@ 44
Tras 43
aient 43
dentro 43
deven@@ 43
hakk@@ 43
ması 43
primera 43
quement 43
también 43
ượng 43
ˀ@@ 43
Φιλ@@ 43
άβ@@ 43
μακ@@ 43
σης 43
τες 43
ωρ@@ 43
Ё 43
Бер@@ 43
Мал@@ 43
же 43
ити@@ 43
мя 43
над@@ 43
ху@@ 43
чев 43
֔ 43
إ@@ 43
ام@@ 43
ط@@ 43
ف 43
لي@@ 43
ور 43
ܐ@@ 43
އ@@ 43
स@@ 43
জ@@ 43
ት 43
ን@@ 43
ង 43
ិ@@ 43
ḳ 43
ệp 43
ἶ@@ 43
⅞ 43
す@@ 43
ワ@@ 43
丛@@ 43
义@@ 43
今@@ 43
任@@ 43
塔@@ 43
孝@@ 43
安 43
射@@ 43
居 43
师@@ 43
徳@@ 43
柳@@ 43
械@@ 43
甘@@ 43
直@@ 43
祖@@ 43
総@@ 43
蔵@@ 43
装@@ 43
覧@@ 43
郭@@ 43
酒@@ 43
aştır@@ 42
trabaj@@ 42
 42
ùa 42
ĳ@@ 42
ʀ@@ 42
έ 42
καρ@@ 42
κι@@ 42
λη 42
λογ@@ 42
ρία 42
ρον@@ 42
σφ@@ 42
φορ@@ 42
І 42
Авто@@ 42
Кали@@ 42
Север@@ 42
акаде@@ 42
дж@@ 42
дом 42
ды@@ 42
жи 42
каде@@ 42
лин 42
мет@@ 42
поли@@ 42
рии 42
рин 42
стре@@ 42
цо@@ 42
ши 42
Գ@@ 42
տ 42
ار 42
نا 42
ی@@ 42
क@@ 42
श@@ 42
দ@@ 42
ந@@ 42
ක@@ 42
ා 42
ུ 42
ẩn 42
ột 42
族 42
歌@@ 42
産@@ 42
羅@@ 42
虎@@ 42
金 42
성@@ 42
Magharibi 41
crí@@ 41
entonces 41
habitants 41
linois 41
marzo 41
producción 41
zake 41
Ödül@@ 41
ĉ@@ 41
Đ 41
ıdır 41
Χ 41
ίζ@@ 41
αντ@@ 41
λη@@ 41
ούν@@ 41
τω 41
България 41
Й 41
Под@@ 41
Раз@@ 41
Ш 41
Ше@@ 41
авто@@ 41
воен@@ 41
дан@@ 41
дер@@ 41
зем@@ 41
итель 41
каз@@ 41
лка 41
мы 41
сту@@ 41
ُ 41
ެ@@ 41
ங 41
ἁ@@ 41
Ἄ@@ 41
ⵎ@@ 41
二 41
写@@ 41
协@@ 41
宇@@ 41
尾@@ 41
崎@@ 41
工程 41
座 41
紀@@ 41
紫@@ 41
船@@ 41
铁@@ 41
長 41
際@@ 41
화@@ 41
However 40
celui 40
irika 40
membre 40
toda 40
uzun 40
vya 40
équipe 40
ăn 40
Ł 40
ŷ 40
ɡ 40
ɬ 40
ɯ 40
ʀ 40
ʻ 40
Αλ@@ 40
Απ@@ 40
έρα 40
έσ@@ 40
ανα@@ 40
μπο@@ 40
τι 40
ωνία 40
вра@@ 40
гово@@ 40
ита@@ 40
най 40
ром 40
собо@@ 40
стиче@@ 40
эн@@ 40
Պ@@ 40
ա 40
গ@@ 40
ே@@ 40
ත@@ 40
บ@@ 40
ប@@ 40
ập 40
ặng 40
ὅ@@ 40
ὲ 40
入@@ 40
屋 40
施@@ 40
普@@ 40
望@@ 40
権@@ 40
活@@ 40
目@@ 40
論@@ 40
雅@@ 40
黎@@ 40
나@@ 40
인@@ 40
Fue 39
Quận 39
tỉnh 39
utiliz@@ 39
ĉ 39
άρι 39
ανδ@@ 39
βρα@@ 39
ετ@@ 39
μη@@ 39
ρά 39
φιλ@@ 39
φυ@@ 39
Ак@@ 39
Мини@@ 39
Ь 39
бер@@ 39
гре@@ 39
ет 39
лия 39
ны@@ 39
сен@@ 39
тов@@ 39
ца@@ 39
цер@@ 39
ён@@ 39
є 39
ֶ 39
ح 39
َ 39
چ@@ 39
ܒ@@ 39
ना@@ 39
री 39
য 39
ನ@@ 39
ย@@ 39
ო 39
᜔ 39
គ@@ 39
ản 39
ẩm 39
ắc 39
ếu 39
ゲ@@ 39
京 39
仏@@ 39
副@@ 39
婦@@ 39
息@@ 39
振@@ 39
易@@ 39
會@@ 39
歌 39
正 39
治 39
溪 39
然@@ 39
玄@@ 39
第二@@ 39
豊@@ 39
陶@@ 39
龍 39
다 39
신@@ 39
Nhà 38
eshim@@ 38
mới 38
pitia 38
thị 38
¦ 38
Đảng 38
ımı 38
Ľ 38
ǂ@@ 38
Ș 38
Περι@@ 38
Πρω@@ 38
εξ@@ 38
ηδ@@ 38
ισμός 38
ματα 38
νά@@ 38
ροι 38
σε@@ 38
Дру@@ 38
Ке@@ 38
автомоби@@ 38
вы 38
кар@@ 38
лни 38
публи@@ 38
сан@@ 38
стер@@ 38
строитель@@ 38
тре@@ 38
чер@@ 38
шая 38
ят 38
қ 38
Բ@@ 38
փ@@ 38
ان@@ 38
ري@@ 38
ّ@@ 38
वि@@ 38
হ@@ 38
ਾ@@ 38
ರ@@ 38
ස@@ 38
ཀ@@ 38
ក 38
ᠠ@@ 38
ổi 38
ừa 38
Ἱ@@ 38
Ῥ@@ 38
₩ 38
る 38
わ@@ 38
グ 38
ソ@@ 38
ボ@@ 38
事 38
劇@@ 38
力 38
化 38
华 38
右@@ 38
団 38
型@@ 38
岛 38
感@@ 38
成 38
教 38
无@@ 38
橋@@ 38
気@@ 38
浦@@ 38
独@@ 38
相@@ 38
線 38
级@@ 38
范@@ 38
茶@@ 38
记 38
辛@@ 38
际@@ 38
麻@@ 38
黑@@ 38
정@@ 38
Chiến 37
Mã 37
Từ 37
durante 37
existe 37
included 37
nchi 37
segundo 37
 37
¸ 37
Ą@@ 37
ılan 37
̊ 37
Βι@@ 37
Εκ@@ 37
Λι@@ 37
Μπ@@ 37
Πλ@@ 37
άφ@@ 37
ίδες 37
βά@@ 37
δί@@ 37
ημα 37
μη 37
παι@@ 37
στά@@ 37
υχ@@ 37
ύ 37
Национа@@ 37
Фа@@ 37
джи@@ 37
или 37
ком 37
лан@@ 37
лич@@ 37
партия 37
пут@@ 37
санд@@ 37
стан 37
тур@@ 37
тура 37
Ե@@ 37
բ 37
կ 37
֖ 37
ֱ@@ 37
ية 37
ين 37
ܢ@@ 37
ं@@ 37
आ@@ 37
ट 37
मा@@ 37
ি 37
ண@@ 37
ை@@ 37
න 37
ồ 37
Ὀ@@ 37
ベ@@ 37
上 37
事件 37
公 37
头@@ 37
官@@ 37
心 37
昌 37
桥 37
楼@@ 37
武 37
沟@@ 37
洞 37
环@@ 37
男 37
米@@ 37
紅@@ 37
西 37
講@@ 37
赵@@ 37
车 37
进@@ 37
문@@ 37
Có 36
Giáo 36
dài 36
mayan 36
nhạc 36
okana 36
partir 36
región 36
Ù@@ 36
ǣ@@ 36
ʕ 36
Κο@@ 36
Κου@@ 36
έας 36
έγ@@ 36
βλ@@ 36
γραφ@@ 36
θρ@@ 36
λύ@@ 36
με 36
ουσ@@ 36
τις 36
τύ@@ 36
φαν@@ 36
όπουλ@@ 36
Сан@@ 36
ван 36
ер 36
зы 36
лат@@ 36
лей@@ 36
лова 36
мир@@ 36
мокра@@ 36
опера@@ 36
ору@@ 36
тор 36
фон 36
шен@@ 36
щ 36
ў 36
Վ@@ 36
׃ 36
ع 36
مَ@@ 36
ە@@ 36
ܬ@@ 36
ள@@ 36
ோ@@ 36
པ 36
ብ@@ 36
Ḵ@@ 36
ồ@@ 36
ụ@@ 36
ⁿ 36
ズ 36
临@@ 36
伝@@ 36
员 36
園@@ 36
奥@@ 36
孙@@ 36
宮 36
寿@@ 36
憲@@ 36
戸@@ 36
曲 36
条@@ 36
横@@ 36
熊@@ 36
目 36
箭@@ 36
葉@@ 36
董@@ 36
言@@ 36
鎮 36
陆@@ 36
風 36
가@@ 36
선@@ 36
Nhật 35
gerek@@ 35
imbali 35
yard@@ 35
yüz@@ 35
¯ 35
época 35
ɘ@@ 35
˧ 35
Ανα@@ 35
άρι@@ 35
έφ@@ 35
ατρ@@ 35
είας 35
εβ@@ 35
καθ@@ 35
κιν@@ 35
νω@@ 35
ρού@@ 35
την 35
χν@@ 35
Ад@@ 35
Бур@@ 35
Кра@@ 35
Май@@ 35
Пра@@ 35
Центра@@ 35
Ю 35
ад@@ 35
анд@@ 35
бере@@ 35
боль@@ 35
ге 35
дей@@ 35
дра@@ 35
еле@@ 35
льное 35
нер@@ 35
род 35
сси@@ 35
ули@@ 35
цев 35
ار@@ 35
الس@@ 35
ك 35
ना 35
ስ@@ 35
ọ@@ 35
ốc 35
Ἔ@@ 35
┬ 35
ⱏ@@ 35
っ@@ 35
よ@@ 35
典 35
向@@ 35
問@@ 35
备@@ 35
好@@ 35
孟@@ 35
幸@@ 35
廣@@ 35
是@@ 35
期@@ 35
校@@ 35
沈@@ 35
港 35
照@@ 35
物 35
珠@@ 35
素@@ 35
英 35
華 35
蔵 35
足@@ 35
都 35
鹿@@ 35
는 35
스@@ 35
espèce 34
frente 34
lamu 34
oloji 34
tranh 34
yaş@@ 34
yür@@ 34
Þ 34
ày 34
èrent 34
ăm 34
Ć 34
ˠ@@ 34
Εν@@ 34
Κωνσταντ@@ 34
Στρ@@ 34
Σχολ@@ 34
άλλ@@ 34
ήρ@@ 34
ίκη 34
ιώ@@ 34
λις 34
λυ@@ 34
μέν@@ 34
μικρ@@ 34
πού@@ 34
σμ@@ 34
Ман@@ 34
ват@@ 34
льного 34
нато@@ 34
рез@@ 34
сс 34
стри@@ 34
ческого 34
խ@@ 34
ռ@@ 34
֙ 34
֛ 34
لا 34
وا@@ 34
पा@@ 34
या@@ 34
দ 34
ো@@ 34
ા@@ 34
இ@@ 34
ீ@@ 34
ප@@ 34
ང@@ 34
ေ@@ 34
ფ@@ 34
ក@@ 34
ស 34
ḱ@@ 34
ủy 34
᾿ 34
で@@ 34
傳 34
党@@ 34
创@@ 34
別@@ 34
孫@@ 34
形@@ 34
曹@@ 34
格@@ 34
沢@@ 34
源 34
瑞@@ 34
股@@ 34
著@@ 34
話 34
郑@@ 34
门 34
도@@ 34
아 34
학@@ 34
Trong 33
alın@@ 33
largo 33
liğ@@ 33
mpya 33
neden@@ 33
umika 33
watu 33
üğ@@ 33
ɾ 33
Αρχ@@ 33
Εθνική 33
Μουσ@@ 33
Χρ@@ 33
αγγελ@@ 33
ανά@@ 33
ηθ@@ 33
ιχ@@ 33
λεύ@@ 33
ουρ@@ 33
ούλ@@ 33
περι@@ 33
ρκ@@ 33
σχ@@ 33
τολ@@ 33
τον@@ 33
τού@@ 33
χή 33
Є@@ 33
Глав@@ 33
Зе@@ 33
бри@@ 33
вин@@ 33
ене@@ 33
ита 33
итель@@ 33
мен 33
само@@ 33
тер 33
уби@@ 33
ұ@@ 33
ئ@@ 33
اب@@ 33
اد 33
الأ@@ 33
الق@@ 33
بر@@ 33
बा@@ 33
भ@@ 33
ली 33
ী 33
ా@@ 33
ು 33
ാ@@ 33
ල@@ 33
မ@@ 33
ာ@@ 33
ᛁ@@ 33
ṷ@@ 33
ἅ@@ 33
ῳ 33
῾ 33
◌ 33
♦ 33
そ@@ 33
倉@@ 33
助 33
图@@ 33
岗@@ 33
岳@@ 33
干@@ 33
房@@ 33
景 33
松 33
樂@@ 33
流 33
灣@@ 33
牛@@ 33
省 33
秋 33
第一@@ 33
网 33
舞@@ 33
营@@ 33
要@@ 33
言 33
趙@@ 33
達@@ 33
鈴@@ 33
경@@ 33
마@@ 33
오@@ 33
－ 33
～ 33
ainsi 32
arabu 32
hacer 32
juego 32
liko 32
located 32
mji 32
nın 32
opened 32
uyện 32
yıl 32
Ī 32
ımc@@ 32
ưu 32
ɫ 32
ɹ@@ 32
άζ@@ 32
αύ@@ 32
δρο@@ 32
θήκη 32
μο@@ 32
νη@@ 32
πν@@ 32
όρος 32
Бело@@ 32
Ги@@ 32
Пол@@ 32
Свети 32
Тур@@ 32
ари 32
бург@@ 32
вели@@ 32
дин 32
дне@@ 32
жение 32
кла@@ 32
лев@@ 32
лей 32
них 32
ность 32
няя 32
обра@@ 32
рабо@@ 32
ран 32
рю@@ 32
сп@@ 32
ул 32
الج@@ 32
الد@@ 32
في 32
محمد 32
مي@@ 32
ون@@ 32
ْ 32
ܕ@@ 32
ރ@@ 32
कर 32
ति 32
प@@ 32
रु@@ 32
ந 32
ழ@@ 32
ᜎ@@ 32
ῷ 32
‾ 32
⊕ 32
ⵜ 32
て 32
イ 32
ラ 32
乙@@ 32
創@@ 32
功@@ 32
后@@ 32
园@@ 32
在@@ 32
塾 32
宣@@ 32
察@@ 32
政 32
末@@ 32
桂@@ 32
洲@@ 32
然 32
白 32
祖 32
纪@@ 32
群@@ 32
親@@ 32
许@@ 32
语 32
远@@ 32
酒 32
镇@@ 32
関@@ 32
雨 32
이 32
장 32
Kusini 31
bầu 31
daha 31
ishia 31
puede 31
êng 31
ísticas 31
ˑ@@ 31
Καλλ@@ 31
Μεγάλ@@ 31
έκ@@ 31
ίμ@@ 31
γράφ@@ 31
κοιν@@ 31
μόν@@ 31
πατ@@ 31
ραν@@ 31
ταν@@ 31
χλ@@ 31
ώς 31
Вла@@ 31
Георги 31
Мария 31
Петер@@ 31
Ху@@ 31
гия 31
жан@@ 31
жество 31
кре@@ 31
лет@@ 31
лна 31
миче@@ 31
музе@@ 31
мыш@@ 31
нение 31
ну 31
образ@@ 31
объ@@ 31
пло@@ 31
рат 31
рец 31
син@@ 31
ске 31
хозяй@@ 31
ший 31
յ 31
֩ 31
الح@@ 31
ދ@@ 31
ज@@ 31
रि@@ 31
ெ@@ 31
ொ@@ 31
ర@@ 31
นา@@ 31
ስ 31
ገ@@ 31
ᓂ@@ 31
ប 31
ᠭ@@ 31
ℝ 31
♪ 31
⦿ 31
丰@@ 31
伝 31
作 31
佳@@ 31
其@@ 31
划 31
和 31
孔@@ 31
形 31
悲@@ 31
护@@ 31
柏@@ 31
比@@ 31
範@@ 31
美 31
蘭@@ 31
財@@ 31
速@@ 31
陸@@ 31
공@@ 31
Nó 30
compañ@@ 30
dân 30
début 30
lararası 30
ledi 30
oyuncu 30
quốc 30
retir@@ 30
siku 30
íses 30
Ņ@@ 30
ŝ 30
ʁ 30
̠ 30
Άν@@ 30
Ελ@@ 30
άρχ@@ 30
αγγ@@ 30
ασκ@@ 30
για 30
ισσ@@ 30
νέ@@ 30
πυ@@ 30
ραγ@@ 30
τρα@@ 30
Рос@@ 30
Хи@@ 30
вина 30
вре@@ 30
вые 30
ем 30
зов 30
кате@@ 30
кор@@ 30
мат@@ 30
мати@@ 30
пера@@ 30
рий@@ 30
сы@@ 30
ть@@ 30
уни@@ 30
ян 30
һ@@ 30
ւ 30
اس@@ 30
ز 30
لو@@ 30
وال@@ 30
وم@@ 30
ون 30
َّ@@ 30
ता 30
ು@@ 30
መ@@ 30
ᛌ@@ 30
ᜒ@@ 30
ὰ@@ 30
⁣ 30
⁺ 30
₄ 30
ℓ@@ 30
⊆ 30
⊗ 30
┌ 30
ⰻ@@ 30
ⵢ@@ 30
々@@ 30
せ@@ 30
ギ@@ 30
侯@@ 30
務@@ 30
呂@@ 30
図@@ 30
境@@ 30
奉@@ 30
师 30
庭@@ 30
录 30
想@@ 30
機@@ 30
母@@ 30
气@@ 30
泉 30
浩@@ 30
為@@ 30
良 30
论@@ 30
貞@@ 30
达@@ 30
陽 30
비@@ 30
영@@ 30
일@@ 30
천@@ 30
평@@ 30
회 30
değ@@ 29
doğru 29
están 29
gobierno 29
ishwa 29
isiwa 29
nuev@@ 29
sinh 29
trabajo 29
yote 29
Ý 29
ıları 29
ĺ@@ 29
Œ 29
Şampiyon@@ 29
ǚ 29
ǵ@@ 29
ʂ@@ 29
̆ 29
Κόμ@@ 29
Συν@@ 29
Τσ@@ 29
άδες 29
βο@@ 29
ειν@@ 29
ελλ@@ 29
κα 29
Ж 29
Рай@@ 29
ата 29
вен 29
графи@@ 29
дел@@ 29
дри@@ 29
ей 29
искус@@ 29
оп@@ 29
рак@@ 29
сто 29
су 29
ся 29
техниче@@ 29
туры 29
шта@@ 29
шу@@ 29
эк@@ 29
язы@@ 29
ֿ@@ 29
ای@@ 29
به 29
سي@@ 29
ކ@@ 29
ா 29
ಮ@@ 29
ด@@ 29
ว@@ 29
ླ@@ 29
ṇ 29
ố 29
ồng 29
ἱ 29
ὲ@@ 29
ひ@@ 29
ズ@@ 29
两@@ 29
住@@ 29
周 29
団@@ 29
坪@@ 29
夏 29
崇@@ 29
库 29
弹@@ 29
惠@@ 29
未@@ 29
杜@@ 29
根@@ 29
機 29
泽@@ 29
洛@@ 29
瀬@@ 29
督@@ 29
組@@ 29
羽@@ 29
胜@@ 29
菩@@ 29
資@@ 29
車@@ 29
遥@@ 29
阳 29
飛@@ 29
라@@ 29
로 29
로@@ 29
서@@ 29
자@@ 29
지@@ 29
Thế 28
desarrollo 28
después 28
grupo 28
hiyo 28
idir 28
joined 28
èrement 28
Ŝ@@ 28
ǟ@@ 28
ȳ@@ 28
ɒ 28
ɘ 28
Μέ@@ 28
Το 28
άρκ@@ 28
έπ@@ 28
είου 28
θή@@ 28
ιάς 28
ικού 28
μορφή 28
νόμ@@ 28
ολόγ@@ 28
πτ@@ 28
ρή@@ 28
ρατ@@ 28
όπο@@ 28
София 28
вых 28
йна 28
кого 28
лок 28
му 28
национа@@ 28
право@@ 28
роди@@ 28
свя@@ 28
ту 28
училище 28
фон@@ 28
част@@ 28
чной 28
מ 28
اش@@ 28
الش@@ 28
الك@@ 28
با@@ 28
ذ@@ 28
ض@@ 28
ور@@ 28
وَ@@ 28
ञ 28
ड 28
मि@@ 28
ਿ@@ 28
ய 28
ಗ@@ 28
ද@@ 28
ල 28
ზ@@ 28
ት@@ 28
ត 28
○ 28
え@@ 28
け 28
ゴ@@ 28
丁 28
主 28
働@@ 28
墨@@ 28
大學 28
宝 28
岭 28
崎 28
己@@ 28
店 28
弘@@ 28
影@@ 28
数@@ 28
斗@@ 28
浪@@ 28
窟 28
細@@ 28
聞@@ 28
臨@@ 28
茂@@ 28
萬@@ 28
虎 28
詩 28
説 28
超@@ 28
軍 28
那@@ 28
雷@@ 28
静@@ 28
頭@@ 28
首@@ 28
그@@ 28
기 28
사 28
을 28
장@@ 28
Aralık 27
Mungu 27
económ@@ 27
ngữ 27
zao 27
çok 27
ŗ@@ 27
ɲ 27
̧ 27
Αγίου 27
Ρω@@ 27
ασία 27
δέ@@ 27
δήμ@@ 27
δία 27
δια@@ 27
θλ@@ 27
λευθερ@@ 27
μαχ@@ 27
ναι 27
νι@@ 27
ολογ@@ 27
παν@@ 27
τήρ@@ 27
ταμ@@ 27
Ав@@ 27
Аль@@ 27
Бел@@ 27
Кур@@ 27
Пло@@ 27
Пос@@ 27
Юж@@ 27
граждан@@ 27
губер@@ 27
дела@@ 27
душ@@ 27
дь@@ 27
ины 27
каза@@ 27
поль@@ 27
пы@@ 27
ради@@ 27
рал@@ 27
свобо@@ 27
тво@@ 27
труд@@ 27
фор@@ 27
хан@@ 27
ход 27
шин@@ 27
щен@@ 27
ң@@ 27
Ն@@ 27
اء 27
لل@@ 27
لَ@@ 27
ٱ@@ 27
ण@@ 27
ক 27
শ@@ 27
ವ@@ 27
เ@@ 27
ር 27
ደ@@ 27
ᐊ@@ 27
ᐤ 27
ᐦ@@ 27
ណ@@ 27
ន 27
ᠢ@@ 27
ὖ@@ 27
⁶ 27
ろ@@ 27
ァ@@ 27
ツ@@ 27
丙@@ 27
亭 27
亭@@ 27
俊@@ 27
动 27
品@@ 27
圣@@ 27
坡@@ 27
崔@@ 27
庙@@ 27
府 27
度@@ 27
庵 27
彭@@ 27
情@@ 27
慶@@ 27
敬@@ 27
方 27
昆@@ 27
板@@ 27
楊@@ 27
櫓 27
民 27
油@@ 27
游@@ 27
燕@@ 27
発@@ 27
礼@@ 27
网@@ 27
而@@ 27
胡 27
艾@@ 27
通 27
霊@@ 27
박@@ 27
소@@ 27
스 27
양@@ 27
의@@ 27
Khi 26
amoja 26
chuy@@ 26
descu@@ 26
founded 26
harek@@ 26
projet 26
sasa 26
Ð 26
Ė 26
Ě@@ 26
ığı 26
Ũ@@ 26
Δημοκρατ@@ 26
Ιω@@ 26
Κορ@@ 26
Ορ@@ 26
αίν@@ 26
αρι@@ 26
βασιλ@@ 26
δα 26
δύ@@ 26
κον@@ 26
ούδ@@ 26
ωπ@@ 26
ώσ@@ 26
Ђ@@ 26
Й@@ 26
Тре@@ 26
Фран@@ 26
авиа@@ 26
бли@@ 26
вал 26
дво@@ 26
зе 26
кин@@ 26
къ@@ 26
лет 26
маши@@ 26
нски 26
пас@@ 26
пат@@ 26
пи 26
пла@@ 26
района 26
рев@@ 26
рован@@ 26
спа@@ 26
ся@@ 26
тече@@ 26
хра@@ 26
цио@@ 26
҃ 26
դ 26
֜ 26
ما@@ 26
ک 26
का 26
ती 26
सन 26
ে 26
ண 26
జ@@ 26
ల@@ 26
ಹ@@ 26
ง@@ 26
ม 26
ཏ@@ 26
ཤ@@ 26
ን 26
ព@@ 26
យ@@ 26
ា 26
Ọ@@ 26
ộ 26
ờ 26
ợ 26
ợi 26
ử 26
Ἁ@@ 26
ἠ@@ 26
ℕ 26
ふ@@ 26
リ 26
伽@@ 26
侯 26
叶@@ 26
吳@@ 26
命 26
坂@@ 26
坊 26
堡@@ 26
塘@@ 26
學 26
実@@ 26
宿@@ 26
将@@ 26
尚@@ 26
尼@@ 26
庚@@ 26
慈@@ 26
报 26
持@@ 26
新 26
晋@@ 26
桃@@ 26
池 26
理 26
登@@ 26
禅@@ 26
童@@ 26
船 26
草 26
菊@@ 26
蒲@@ 26
薬@@ 26
賜@@ 26
雨@@ 26
领@@ 26
鬼@@ 26
구@@ 26
미@@ 26
선 26
𐌢 26
Cộng 25
Maisha 25
bilg@@ 25
ejempl@@ 25
había 25
iendo 25
ikali 25
prend 25
trò 25
yön@@ 25
Ì 25
étant 25
últim@@ 25
đo@@ 25
Ē 25
Ÿ@@ 25
ǚ@@ 25
ɗ 25
Βασίλ@@ 25
Ιερ@@ 25
Μα@@ 25
ήλ 25
λεπ@@ 25
ρν@@ 25
ρό@@ 25
συν@@ 25
ταλ@@ 25
τό 25
χαρ@@ 25
ϰ@@ 25
Гла@@ 25
Международ@@ 25
Три@@ 25
Фили@@ 25
Ы@@ 25
бай@@ 25
вод 25
вода 25
вор@@ 25
гат@@ 25
гда 25
гов@@ 25
кло@@ 25
кономиче@@ 25
ления 25
нар@@ 25
ните 25
ном 25
она 25
пан@@ 25
раб@@ 25
рас@@ 25
рова@@ 25
рода 25
ските 25
совет@@ 25
тен@@ 25
тя 25
тё@@ 25
фло@@ 25
цар@@ 25
цент@@ 25
центра@@ 25
чна 25
ъл@@ 25
Ә@@ 25
ө 25
֧ 25
ما 25
ول 25
ّ 25
ܝ 25
ާ@@ 25
मन 25
ড 25
ী@@ 25
ਸ@@ 25
ਾ 25
ற@@ 25
ஸ 25
ක 25
ය 25
็ 25
င 25
ል@@ 25
ᜓ@@ 25
រ 25
ẖ 25
ẞ@@ 25
ội 25
ử@@ 25
≪ 25
だ@@ 25
や@@ 25
タ 25
ネ@@ 25
东 25
义 25
令 25
份@@ 25
伯@@ 25
余@@ 25
刀 25
司 25
吕@@ 25
吾@@ 25
員 25
场@@ 25
報@@ 25
宜@@ 25
岛@@ 25
律@@ 25
提@@ 25
桐@@ 25
欧@@ 25
澳@@ 25
秘@@ 25
系统 25
絵 25
與@@ 25
調@@ 25
训@@ 25
语@@ 25
质@@ 25
辰 25
造 25
遊@@ 25
選@@ 25
银@@ 25
陀@@ 25
韓@@ 25
魔@@ 25
齐@@ 25
고@@ 25
구 25
국 25
단 25
동@@ 25
러@@ 25
수@@ 25
육@@ 25
은 25
Chính 24
Daha 24
aliwa 24
announc@@ 24
bahari 24
büyük 24
encuentr@@ 24
estaba 24
hecho 24
müzik 24
tatu 24
todas 24
trouve 24
Ã@@ 24
Ĉ@@ 24
Đế 24
ını 24
ŝ@@ 24
ǁ 24
ɕ 24
ɜ@@ 24
̨ 24
Επι@@ 24
ίνα 24
αία 24
δικα@@ 24
ειο 24
εργ@@ 24
ηφ@@ 24
θν@@ 24
θρω@@ 24
ιζ@@ 24
ιτ@@ 24
ιών 24
κε@@ 24
οδος 24
οικ@@ 24
ρη@@ 24
σε 24
σο@@ 24
στή@@ 24
τάθλημα 24
Роди@@ 24
СА@@ 24
СР 24
вла@@ 24
вобо@@ 24
город 24
жиз@@ 24
зи 24
ить 24
как 24
коло@@ 24
любо@@ 24
мона@@ 24
мост 24
муниципа@@ 24
остров 24
рей@@ 24
ственной 24
стран@@ 24
стру@@ 24
уз@@ 24
хан 24
Ѵ 24
Դ@@ 24
լ 24
ال 24
ج 24
ست@@ 24
شا@@ 24
ند@@ 24
نه 24
ܠ@@ 24
চ@@ 24
ত 24
ল 24
ి@@ 24
แ@@ 24
პ@@ 24
წ@@ 24
េ@@ 24
ầm 24
ứ 24
⁵ 24
ⰰ@@ 24
き 24
ど@@ 24
の 24
め@@ 24
ホ@@ 24
ヤ@@ 24
丘@@ 24
仲@@ 24
位@@ 24
利 24
刻 24
劇 24
办@@ 24
后 24
君 24
堡 24
夕@@ 24
妙@@ 24
始@@ 24
字 24
巨@@ 24
座@@ 24
征@@ 24
徽@@ 24
慧@@ 24
戊@@ 24
支@@ 24
旗@@ 24
杂@@ 24
案 24
步@@ 24
湾 24
灵@@ 24
私@@ 24
科 24
稲@@ 24
练@@ 24
術 24
表@@ 24
规@@ 24
量@@ 24
铁路 24
間 24
閣 24
香 24
馬 24
교@@ 24
당 24
생@@ 24
어 24
우@@ 24
전@@ 24
제@@ 24
지 24
푸@@ 24
Después 23
alors 23
carrière 23
distrito 23
dogo 23
localidad 23
manera 23
nói 23
segunda 23
sonr@@ 23
tient 23
xã 23
yı 23
Ñ 23
ây 23
Ļ@@ 23
Ŭ@@ 23
ǀ 23
ɴ 23
ʎ 23
Αυτοκ@@ 23
Μά@@ 23
έμ@@ 23
έως 23
ακή 23
από 23
γαλ@@ 23
ζω@@ 23
κου@@ 23
μένη 23
προς 23
στις 23
σω@@ 23
χει@@ 23
όβ@@ 23
ύν@@ 23
ώρ@@ 23
Бы@@ 23
Кла@@ 23
По 23
Це@@ 23
Ь@@ 23
ани 23
вари@@ 23
век 23
все@@ 23
джа@@ 23
един@@ 23
ему 23
жде@@ 23
ждение 23
зия 23
коми@@ 23
кро@@ 23
лер 23
науч@@ 23
нитель@@ 23
нос@@ 23
ност 23
ским 23
ском 23
стар@@ 23
теле@@ 23
хся 23
цен@@ 23
чения 23
џ@@ 23
عبد 23
مج@@ 23
من@@ 23
ول@@ 23
ير 23
ތ@@ 23
ް@@ 23
ख 23
गु@@ 23
ड@@ 23
ता@@ 23
रा 23
वी@@ 23
हा@@ 23
ि 23
ট@@ 23
ರ 23
ಿ 23
ಿ@@ 23
ග@@ 23
ය@@ 23
ห@@ 23
ྡ@@ 23
ც@@ 23
ም 23
᛬ 23
ែ@@ 23
់ 23
ế@@ 23
ễn 23
ới 23
ực 23
℘ 23
▫ 23
☃ 23
か 23
く 23
ゃ@@ 23
ナ 23
ュ 23
ロ 23
世 23
円@@ 23
勒@@ 23
勧@@ 23
器 23
型 23
壁@@ 23
太 23
奇@@ 23
守 23
客@@ 23
庐@@ 23
政府 23
梅 23
演@@ 23
父 23
町@@ 23
空 23
結@@ 23
维@@ 23
耳@@ 23
興 23
荒@@ 23
蔡@@ 23
要 23
評@@ 23
賀@@ 23
車 23
輪 23
车@@ 23
郷@@ 23
铜@@ 23
阮@@ 23
鹰@@ 23
도 23
원 23
｜ 23
Danh 22
Dân 22
conocido 22
cual@@ 22
emaji 22
fueron 22
malar 22
misma 22
númer@@ 22
quân 22
returned 22
sido 22
văn 22
Õ 22
üdür 22
ĩa 22
ǃ 22
ǜ@@ 22
ɓ@@ 22
Αθηνών 22
Γεω@@ 22
Ελλ@@ 22
Ελλάδας 22
Κατ@@ 22
Κλ@@ 22
άλασ@@ 22
ήγ@@ 22
ενός 22
κοπ@@ 22
ντ@@ 22
οιν@@ 22
πει@@ 22
ρίου 22
ρακ@@ 22
ρι 22
στασ@@ 22
συ@@ 22
τελ@@ 22
τοπ@@ 22
τρί@@ 22
χρόν@@ 22
Гер@@ 22
Мон@@ 22
ССР 22
бург 22
вого 22
его 22
ен 22
жав@@ 22
истории 22
кой 22
комплек@@ 22
кры@@ 22
лу 22
мал@@ 22
мон@@ 22
музы@@ 22
риа@@ 22
следовате@@ 22
со 22
сты 22
так@@ 22
тат@@ 22
хи 22
яр@@ 22
ях 22
ѡ@@ 22
ѣ 22
ҷ@@ 22
Զ@@ 22
ը 22
չ@@ 22
֗ 22
נ 22
بن@@ 22
قل@@ 22
مل@@ 22
نا@@ 22
يل 22
ۇ@@ 22
ܚ@@ 22
ܣ@@ 22
गो@@ 22
ङ 22
ति@@ 22
ध@@ 22
री@@ 22
ला@@ 22
शा@@ 22
ु 22
ਗ@@ 22
ூ@@ 22
ಕ@@ 22
ക@@ 22
ං@@ 22
พ@@ 22
ล@@ 22
สร@@ 22
สโม@@ 22
ཕ@@ 22
ཟ@@ 22
ል 22
ራ 22
ነ@@ 22
እ@@ 22
ግ@@ 22
ᚐ@@ 22
ធ@@ 22
ᠡ@@ 22
ḱ 22
ṁ@@ 22
Ẹ@@ 22
ἵ@@ 22
ὖ 22
ῷ@@ 22
⌊ 22
♁ 22
じ@@ 22
ち 22
オ 22
ヒ@@ 22
下 22
丑 22
乐 22
乙 22
也 22
乡@@ 22
什@@ 22
企@@ 22
体 22
佛 22
健@@ 22
典@@ 22
冬@@ 22
友 22
呼@@ 22
喜 22
固@@ 22
址@@ 22
夢@@ 22
威@@ 22
容@@ 22
岡 22
彦 22
打@@ 22
斎 22
时@@ 22
最@@ 22
服@@ 22
森 22
植@@ 22
業 22
片@@ 22
盛@@ 22
碑 22
碧@@ 22
考 22
聯@@ 22
融@@ 22
製@@ 22
食 22
강@@ 22
수 22
체@@ 22
︎ 22
Amerikan 21
adhim@@ 21
eyal@@ 21
hiện 21
metros 21
mús@@ 21
pequeñ@@ 21
personas 21
thành 21
toba 21
ziwa 21
çev@@ 21
Ĳ@@ 21
Ū 21
ǰ@@ 21
ʏ@@ 21
ˈ 21
˥ 21
Βασ@@ 21
Γεν@@ 21
Ζ 21
Λε@@ 21
Λου@@ 21
Παπ@@ 21
ίο 21
απο@@ 21
δελφ@@ 21
δρόμ@@ 21
ειρ@@ 21
ιακ@@ 21
κοινότητα 21
κολ@@ 21
κρά@@ 21
κόσ@@ 21
λει@@ 21
λλογ@@ 21
μάτων 21
μαρ@@ 21
μερ@@ 21
νό@@ 21
ποδ@@ 21
στα@@ 21
φω@@ 21
χω@@ 21
ύγ@@ 21
Велико@@ 21
Карл 21
Цент@@ 21
ана 21
берг 21
вос@@ 21
гле@@ 21
жизни 21
йского 21
лектро@@ 21
льной 21
нат 21
ник@@ 21
ным 21
плани@@ 21
ред@@ 21
селе@@ 21
ската 21
служ@@ 21
сс@@ 21
тель@@ 21
транспор@@ 21
ус 21
фа 21
ща 21
ѧ@@ 21
է@@ 21
ջ@@ 21
֑ 21
تو 21
ستان 21
ين@@ 21
ܵ@@ 21
पुर 21
मो@@ 21
वर 21
सत 21
ੁ@@ 21
ર@@ 21
ల 21
ತ@@ 21
ದ@@ 21
අ@@ 21
ก@@ 21
ด 21
ላ@@ 21
ም@@ 21
ባ@@ 21
ዮ@@ 21
ᐣ 21
ᜆ@@ 21
ḻ 21
ại 21
ắng 21
Ẽ@@ 21
ễ@@ 21
ộng 21
ụng 21
ỵ 21
ỷ 21
ὤ@@ 21
⌋ 21
△ 21
☧ 21
ⰲ@@ 21
「 21
」 21
う 21
ね@@ 21
カ 21
ジ 21
ユ@@ 21
亚@@ 21
令@@ 21
伯 21
像@@ 21
児@@ 21
兵 21
列@@ 21
参@@ 21
域@@ 21
壬@@ 21
定 21
寶 21
尊@@ 21
希@@ 21
干 21
庭 21
弥@@ 21
戦 21
敏 21
旗 21
来 21
柴@@ 21
栄@@ 21
树@@ 21
歴@@ 21
母 21
波 21
洋 21
浜@@ 21
火 21
牛 21
男@@ 21
真 21
短@@ 21
祠 21
立 21
章@@ 21
编 21
翼@@ 21
葛@@ 21
蓮@@ 21
蘇@@ 21
谢@@ 21
錦@@ 21
録 21
題 21
鬼 21
鲁@@ 21
가 21
대 21
라 21
에@@ 21
주 21
화 21
𝜵 21
Pháp 20
dı 20
esinde 20
huyện 20
merkezi 20
muş@@ 20
présente 20
utilis@@ 20
zaman@@ 20
ãn 20
ļ 20
Ɖ@@ 20
ơi 20
Ư@@ 20
ɯ@@ 20
ʌ 20
͜ 20
Ένω@@ 20
Βασιλ@@ 20
Βουλ@@ 20
Στα@@ 20
άδα 20
ίγ@@ 20
βαρ@@ 20
δευ@@ 20
κατα@@ 20
λλην@@ 20
μελ@@ 20
στη 20
στρ@@ 20
σύν@@ 20
τικά 20
Ай@@ 20
Йо@@ 20
Ы 20
без 20
вез@@ 20
вро@@ 20
гу 20
доб@@ 20
дро@@ 20
жения 20
звез@@ 20
испол@@ 20
йн@@ 20
лед@@ 20
лез@@ 20
лица 20
лище 20
мат 20
мии 20
мин 20
насти@@ 20
пове@@ 20
ску@@ 20
сме@@ 20
ств 20
ствие 20
стов 20
стра 20
теат@@ 20
трен@@ 20
управ@@ 20
хар@@ 20
хот@@ 20
худож@@ 20
чей 20
чо 20
Լ@@ 20
Ո@@ 20
մ 20
׀ 20
إن@@ 20
ات@@ 20
از@@ 20
در 20
دي 20
وا 20
ې@@ 20
ܫ@@ 20
ވ@@ 20
ގ@@ 20
ސ@@ 20
नि@@ 20
मे@@ 20
सा@@ 20
ी 20
আ@@ 20
ஜ@@ 20
ಂ@@ 20
ി@@ 20
ත 20
ප 20
ි 20
จ@@ 20
ต@@ 20
ฟุต@@ 20
ฬ@@ 20
อล@@ 20
ไ@@ 20
ង@@ 20
យ 20
វ@@ 20
ោ@@ 20
ᴹ@@ 20
ấm 20
ứ@@ 20
ῆ 20
‭ 20
∗ 20
ⱄ@@ 20
ⵄ@@ 20
ⵔ 20
ぐ@@ 20
と 20
へ@@ 20
业 20
伏@@ 20
传 20
切@@ 20
划@@ 20
刻@@ 20
午 20
头 20
奈@@ 20
委员@@ 20
季@@ 20
宏 20
屠@@ 20
巳 20
復@@ 20
微@@ 20
快@@ 20
愛 20
於@@ 20
湘@@ 20
潭@@ 20
益@@ 20
矿@@ 20
習@@ 20
耳 20
臣 20
苑@@ 20
苗@@ 20
裕@@ 20
裸@@ 20
辛 20
重 20
雪 20
雲 20
面 20
高 20
魏@@ 20
鱼@@ 20
麗@@ 20
거@@ 20
군 20
바@@ 20
보@@ 20
부@@ 20
어@@ 20
호 20
𐌠 20
Một 19
dedor 19
hội 19
importante 19
lendir@@ 19
maye 19
période 19
sız@@ 19
thuộc 19
tài 19
Ê 19
Î 19
ünü 19
Ę 19
ȧ 19
ʏ 19
̦ 19
Μακεδ@@ 19
Τζ@@ 19
άν 19
γρ@@ 19
δό@@ 19
ιν 19
κρι@@ 19
ούσ@@ 19
πιστ@@ 19
ρου@@ 19
τά 19
του@@ 19
τυχ@@ 19
φερ@@ 19
ωμα 19
ϋ@@ 19
όχ@@ 19
Љ@@ 19
Ћ@@ 19
Хар@@ 19
ара 19
века 19
версите@@ 19
вол@@ 19
дон@@ 19
ждан@@ 19
зда@@ 19
иг@@ 19
ите 19
кино@@ 19
лата 19
лно 19
лъ@@ 19
мета@@ 19
над 19
нем@@ 19
нен 19
нове@@ 19
оба@@ 19
реб@@ 19
рок 19
став@@ 19
том 19
управление 19
чин 19
ён 19
Տ@@ 19
צ 19
׳ 19
الب@@ 19
الف@@ 19
به@@ 19
ث@@ 19
در@@ 19
دي@@ 19
مه@@ 19
می@@ 19
هر 19
ބ@@ 19
ः 19
ई 19
जिला 19
सं@@ 19
सू@@ 19
हि@@ 19
ि@@ 19
ू@@ 19
ਨ@@ 19
മ@@ 19
ජ@@ 19
ྗ@@ 19
တ@@ 19
ჩ@@ 19
ለ@@ 19
ሰ@@ 19
ድ@@ 19
ទ@@ 19
ᠣ@@ 19
ḡ@@ 19
ṁ 19
Ṛ@@ 19
Ẁ@@ 19
ảnh 19
ối 19
ớ@@ 19
ἦ@@ 19
ὶ@@ 19
‧ 19
‿ 19
₨ 19
∃ 19
▶ 19
ⵖ@@ 19
ⵡ@@ 19
え 19
す 19
み 19
ら 19
れ 19
中国 19
乾@@ 19
传@@ 19
使@@ 19
俗@@ 19
俱@@ 19
優@@ 19
内 19
冯@@ 19
勝 19
卓@@ 19
吾 19
坝@@ 19
場@@ 19
处 19
如 19
姬@@ 19
宫 19
宫@@ 19
寨@@ 19
審@@ 19
局@@ 19
岭@@ 19
库@@ 19
店@@ 19
庫 19
当@@ 19
彦@@ 19
忠 19
意@@ 19
房 19
曾@@ 19
机 19
杉@@ 19
核@@ 19
桑@@ 19
次 19
泰 19
浮@@ 19
潘@@ 19
申@@ 19
番@@ 19
皮@@ 19
矢@@ 19
突@@ 19
窑@@ 19
節@@ 19
緑@@ 19
線@@ 19
縣 19
羊@@ 19
艺@@ 19
芳@@ 19
莫@@ 19
菜 19
藝@@ 19
街 19
衛 19
衡@@ 19
觀@@ 19
説@@ 19
貴@@ 19
輪@@ 19
连@@ 19
達 19
遺@@ 19
邦@@ 19
郡@@ 19
钱@@ 19
雅 19
願@@ 19
體@@ 19
鼓 19
무@@ 19
연@@ 19
한 19
해@@ 19
현@@ 19
Temmuz 18
diğ@@ 18
dòng 18
hacia 18
họ 18
học 18
millones 18
nước 18
Ë 18
ışt@@ 18
Ů@@ 18
ượ@@ 18
ɦ@@ 18
ʂ 18
ʎ@@ 18
ˠ 18
Πέ@@ 18
άρα 18
ήλ@@ 18
αζ@@ 18
εγ@@ 18
επι@@ 18
θη 18
θυ@@ 18
μέσ@@ 18
ματος 18
μό@@ 18
ξε@@ 18
παλ@@ 18
πολλ@@ 18
πουδ@@ 18
πους 18
πρω@@ 18
ρίς 18
στρα@@ 18
σχολ@@ 18
υφ@@ 18
φθ@@ 18
όμα 18
Дж@@ 18
Запад@@ 18
Сред@@ 18
благо@@ 18
бя 18
вана 18
год@@ 18
дер 18
зах@@ 18
их 18
кар 18
коман@@ 18
комму@@ 18
кораб@@ 18
кур@@ 18
лом 18
нам 18
обе@@ 18
око@@ 18
ологи@@ 18
они 18
помо@@ 18
пред@@ 18
при 18
рио@@ 18
роден 18
ският 18
сков@@ 18
ското 18
сле@@ 18
тон 18
тран@@ 18
фу@@ 18
чно 18
ү 18
ծ@@ 18
װ@@ 18
أبو 18
افغانستان 18
الخ@@ 18
الن@@ 18
ام 18
انی 18
دل 18
عة 18
عل@@ 18
مر@@ 18
مع@@ 18
مو@@ 18
مي 18
ها 18
ܢ 18
ލ@@ 18
ँ@@ 18
कु@@ 18
ख@@ 18
चि@@ 18
जा@@ 18
जि@@ 18
ने@@ 18
वे@@ 18
ह 18
ु@@ 18
ू 18
ृ@@ 18
ই@@ 18
স 18
ਤ@@ 18
ਦ@@ 18
எ@@ 18
ా 18
ನ 18
ೆ@@ 18
ก 18
กี@@ 18
ช@@ 18
ต 18
น 18
ศ@@ 18
ห 18
າ@@ 18
ိ@@ 18
በ@@ 18
ክ@@ 18
ድ 18
ᜈ 18
ᜈ@@ 18
ᜉ@@ 18
ảy 18
ỉ 18
Ἴ@@ 18
ὔ@@ 18
‟ 18
‣ 18
♡ 18
ⴼ@@ 18
ば@@ 18
シ 18
八 18
刊 18
员@@ 18
坊@@ 18
基 18
塚 18
好 18
實@@ 18
寶@@ 18
尊 18
幽@@ 18
弁@@ 18
得@@ 18
忍@@ 18
怀@@ 18
恒@@ 18
才@@ 18
报@@ 18
料@@ 18
旅@@ 18
极@@ 18
果@@ 18
查@@ 18
楚@@ 18
樂 18
死@@ 18
殊@@ 18
浦 18
滨@@ 18
爱@@ 18
玉 18
玛@@ 18
琴 18
琴@@ 18
癸@@ 18
相 18
研@@ 18
祥@@ 18
竹 18
経 18
維@@ 18
翁 18
舟@@ 18
荷@@ 18
落@@ 18
藏 18
藩 18
虞@@ 18
諸@@ 18
议@@ 18
说@@ 18
谱 18
边@@ 18
逸@@ 18
锡@@ 18
长 18
隊 18
교 18
산 18
산@@ 18
세@@ 18
양 18
일 18
Nhân 17
anın 17
caractér@@ 17
cuenta 17
exemple 17
mış 17
partido 17
rağ@@ 17
sensa 17
uvent 17
versión 17
yake 17
Û 17
Ź 17
ơ@@ 17
ǥ@@ 17
ȥ 17
ȧ@@ 17
ȯ@@ 17
ˀ 17
˘ 17
ˤ@@ 17
̤ 17
Ιστο@@ 17
άχ@@ 17
έζ@@ 17
ίνη 17
δικ@@ 17
είς 17
εω@@ 17
κρί@@ 17
κόμ@@ 17
μετα@@ 17
οί@@ 17
πρό@@ 17
τηγ@@ 17
τηγορ@@ 17
ωγ@@ 17
ϊ 17
ϊκ@@ 17
όρι@@ 17
ότ@@ 17
Въ@@ 17
Кита@@ 17
Ст@@ 17
вете 17
водо@@ 17
грани@@ 17
ец 17
зя@@ 17
йки 17
компания 17
кул@@ 17
лаго@@ 17
нова@@ 17
площа@@ 17
пти@@ 17
река 17
рен 17
рес@@ 17
рой 17
свет@@ 17
сел@@ 17
сен 17
сия 17
скую 17
смер@@ 17
ступ@@ 17
сть@@ 17
точ@@ 17
удо@@ 17
укра@@ 17
учи@@ 17
ющий 17
яв@@ 17
ям 17
Ռ@@ 17
֤ 17
الت@@ 17
الص@@ 17
اک@@ 17
رة 17
ری@@ 17
ظ@@ 17
غ 17
مان 17
ود 17
ښ@@ 17
ھ@@ 17
ܦ@@ 17
ީ@@ 17
चल 17
थ@@ 17
पु@@ 17
बि@@ 17
शि@@ 17
ष@@ 17
ा 17
ಡ@@ 17
ಲ@@ 17
ೆ 17
പ@@ 17
ി 17
හ@@ 17
ง 17
รั@@ 17
วั@@ 17
า 17
ཐ@@ 17
ྟ@@ 17
ရ@@ 17
ာ 17
ု@@ 17
ြ@@ 17
ღ@@ 17
ይ@@ 17
ំ@@ 17
ᠲ@@ 17
ặc 17
ển 17
ỏ 17
ở 17
ὠ@@ 17
ῃ 17
∂ 17
≫ 17
ⰾ@@ 17
ⱀ@@ 17
た 17
ゆ@@ 17
キ 17
世界 17
严@@ 17
乃@@ 17
云 17
仪@@ 17
來@@ 17
克 17
别@@ 17
剣@@ 17
助@@ 17
印@@ 17
即@@ 17
厂@@ 17
唐 17
圖@@ 17
土 17
坂 17
坑@@ 17
塚@@ 17
寅 17
对@@ 17
属@@ 17
想 17
战 17
手 17
抗@@ 17
时 17
映@@ 17
柔@@ 17
査@@ 17
桜@@ 17
永 17
派@@ 17
浙@@ 17
渭@@ 17
满@@ 17
灯@@ 17
烏@@ 17
牡@@ 17
珍 17
瓦@@ 17
畫 17
砂@@ 17
福 17
統@@ 17
經@@ 17
结@@ 17
考@@ 17
耶@@ 17
萨@@ 17
蓝@@ 17
行政@@ 17
角 17
警@@ 17
賢@@ 17
贝 17
辰@@ 17
迦@@ 17
邱@@ 17
關@@ 17
阁 17
陣@@ 17
隆 17
露@@ 17
青 17
革 17
養@@ 17
马 17
鶴@@ 17
랑 17
레@@ 17
상@@ 17
시 17
은@@ 17
중@@ 17
통@@ 17
️ 17
Bản 16
Eneo 16
Selon 16
ampiy@@ 16
announced 16
ashara 16
idadi 16
kaç 16
luğu 16
membres 16
sezon@@ 16
través 16
trực 16
tır@@ 16
ungum@@ 16
üzer@@ 16
Ă 16
İlk 16
Ɔ 16
Ǝ@@ 16
ȝ 16
ɓ 16
ɤ 16
ʋ@@ 16
ˑ 16
Αντι@@ 16
Θεσσαλον@@ 16
Πρ@@ 16
άντα 16
ανά 16
διά 16
είων 16
εμ@@ 16
ητής 16
ιω@@ 16
κέν@@ 16
κατά 16
μουσ@@ 16
νας 16
ορά 16
ρίας 16
ριστιαν@@ 16
ς@@ 16
σίας 16
σιο 16
σκοπ@@ 16
στήρι@@ 16
στην 16
τής 16
όμεν@@ 16
ύτερ@@ 16
ώνα 16
ϕ@@ 16
Кли@@ 16
Меж@@ 16
Пор@@ 16
бор 16
бур@@ 16
вид@@ 16
война 16
вом 16
гли@@ 16
государ@@ 16
гру@@ 16
жд@@ 16
желез@@ 16
инжен@@ 16
ительно 16
край 16
луч@@ 16
мин@@ 16
него 16
нию 16
пен@@ 16
поло@@ 16
полу@@ 16
смо@@ 16
тий 16
хе@@ 16
художе@@ 16
щение 16
ґ@@ 16
ң 16
Մ 16
، 16
بر 16
بي 16
زي@@ 16
فر@@ 16
له 16
مة 16
وي@@ 16
कि@@ 16
च@@ 16
पूर 16
मा 16
मु@@ 16
सि@@ 16
ार@@ 16
ం@@ 16
ತ 16
വ@@ 16
ර 16
ේ 16
ෝ 16
อง@@ 16
འ 16
ྐ@@ 16
ዓ@@ 16
የ@@ 16
ያ@@ 16
ᐢ@@ 16
ᑲ@@ 16
ᔨ@@ 16
ᜐ@@ 16
ព 16
ល@@ 16
ᠪ@@ 16
ẁ@@ 16
ẏ@@ 16
ạp 16
ẫu 16
ỳ 16
ἷ@@ 16
⁰ 16
Ⅱ 16
┐ 16
▪ 16
⚊ 16
ⰵ@@ 16
ⵟ@@ 16
⸗ 16
ザ@@ 16
ブ 16
ヨ@@ 16
丸@@ 16
介 16
保 16
凰@@ 16
出 16
勘@@ 16
受@@ 16
古 16
句@@ 16
團 16
地区 16
坡 16
培@@ 16
复@@ 16
外 16
存@@ 16
孤@@ 16
官 16
幡@@ 16
幼@@ 16
彩@@ 16
戌 16
投@@ 16
拳 16
挥@@ 16
斎@@ 16
斗 16
早@@ 16
朴@@ 16
柯@@ 16
梦@@ 16
樹@@ 16
泥@@ 16
津 16
温@@ 16
燈@@ 16
獅@@ 16
现@@ 16
界 16
疆@@ 16
祭 16
禮 16
禹@@ 16
移@@ 16
站@@ 16
端@@ 16
筆@@ 16
筑 16
綱@@ 16
編 16
縁@@ 16
红 16
肃@@ 16
舞 16
芦@@ 16
荣@@ 16
莊@@ 16
衆@@ 16
观 16
話@@ 16
贵@@ 16
辺 16
辺@@ 16
迷@@ 16
錢@@ 16
閻@@ 16
随@@ 16
雑@@ 16
非@@ 16
韩@@ 16
顺@@ 16
館@@ 16
麟 16
鼓@@ 16
고 16
남@@ 16
성 16
야 16
에 16
윤@@ 16
인 16
자 16
호@@ 16
회@@ 16
Katika 15
Tổng 15
kendi 15
nchini 15
nommé 15
octubre 15
sông 15
sư 15
sản 15
 15
 15
ĝ 15
ķ 15
Ń 15
ņ 15
Ň 15
Ǝ 15
ƚ 15
ƛ 15
ʐ@@ 15
ʦ@@ 15
˜ 15
Ερ@@ 15
Οι 15
άλυ@@ 15
έβ@@ 15
ήθ@@ 15
ήματα 15
ίκης 15
αμπ@@ 15
αρκ@@ 15
βαν@@ 15
γραφή 15
είδ@@ 15
θερμ@@ 15
θμ@@ 15
ιλι@@ 15
κίν@@ 15
κι 15
κορ@@ 15
λα 15
λεγ@@ 15
μία 15
μικ@@ 15
ουσα 15
που@@ 15
προσ@@ 15
ρίζ@@ 15
ρη 15
ριν@@ 15
σμού 15
στερ@@ 15
ταρ@@ 15
τους 15
τό@@ 15
χεί@@ 15
ώπ@@ 15
ώρα 15
Администра@@ 15
История 15
Сре@@ 15
ане 15
бат@@ 15
бо 15
бъ@@ 15
виде@@ 15
вну@@ 15
времен@@ 15
время 15
ген 15
града 15
граф@@ 15
ент@@ 15
изо@@ 15
ил 15
име@@ 15
исто@@ 15
йска 15
йских 15
кам@@ 15
кос@@ 15
крат@@ 15
кри@@ 15
лли@@ 15
ляр@@ 15
май 15
май@@ 15
мая 15
мер 15
мина@@ 15
мой 15
море 15
нер 15
производ@@ 15
ру 15
руп@@ 15
сво@@ 15
ски@@ 15
сни 15
спи@@ 15
съю@@ 15
тем@@ 15
тен 15
тео@@ 15
той 15
тон@@ 15
цу 15
Ӏ@@ 15
Ӿ 15
Թ@@ 15
Շ@@ 15
ե 15
ժ@@ 15
פ 15
ات 15
از 15
الر@@ 15
بو@@ 15
بی@@ 15
حي@@ 15
دا@@ 15
رب 15
سل@@ 15
علي 15
لة 15
وری 15
پور 15
چی 15
کی 15
ހ@@ 15
ާ 15
ެ 15
उ@@ 15
चा@@ 15
थ 15
दा@@ 15
दी 15
ध 15
नाथ 15
नी 15
महा@@ 15
मी 15
या 15
रे 15
रे@@ 15
लो@@ 15
षेत 15
सु@@ 15
ी@@ 15
े@@ 15
ो 15
খ@@ 15
ஆ@@ 15
ச 15
ೇ@@ 15
ത@@ 15
ร 15
ཞ@@ 15
ራ@@ 15
ᑳ@@ 15
ᖅ 15
ᜃ@@ 15
ី@@ 15
ᠤ@@ 15
ᠬ@@ 15
ṓ 15
ậm 15
ểu 15
Ἡ@@ 15
ῖ 15
‴ 15
⅙ 15
↦ 15
∀ 15
☐ 15
✝ 15
ⴽ@@ 15
ご@@ 15
へ 15
め 15
コ 15
ゼ@@ 15
个@@ 15
丹 15
亜@@ 15
亥 15
依@@ 15
倶@@ 15
剛@@ 15
包@@ 15
區@@ 15
卜@@ 15
卢@@ 15
去@@ 15
叉 15
取@@ 15
图 15
圆@@ 15
夷@@ 15
姫 15
宅 15
実 15
寅@@ 15
尔 15
屈@@ 15
屏@@ 15
岸@@ 15
底@@ 15
康 15
後 15
恵@@ 15
承@@ 15
晉@@ 15
晓@@ 15
暴@@ 15
曼@@ 15
望 15
東 15
构@@ 15
椅@@ 15
毘@@ 15
汉 15
汽@@ 15
浅@@ 15
浜 15
満@@ 15
潮@@ 15
灣 15
点 15
焼 15
狂@@ 15
班@@ 15
申 15
病@@ 15
监@@ 15
眼@@ 15
硕@@ 15
祥 15
笑@@ 15
索@@ 15
組 15
羊 15
臥@@ 15
至@@ 15
臺@@ 15
色 15
葉 15
蒋@@ 15
虚@@ 15
虫 15
衣 15
衣@@ 15
袁@@ 15
計@@ 15
誌 15
证@@ 15
调@@ 15
责@@ 15
走@@ 15
身@@ 15
農 15
达 15
適@@ 15
鎮@@ 15
锦@@ 15
陕@@ 15
順@@ 15
頼@@ 15
顾@@ 15
鳴@@ 15
麗 15
꧀ 15
관 15
다@@ 15
상 15
충 15
Giải 14
aunque 14
awaida 14
condado 14
devient 14
hàng 14
ilgili 14
iliş@@ 14
karibu 14
larda 14
llamado 14
luğ@@ 14
mtu 14
phía 14
seç@@ 14
superficie 14
tử 14
veces 14
weza 14
Ù 14
ĥ 14
Ħ 14
ının 14
ıyor 14
Ŋ 14
Ǒ@@ 14
Ƚ 14
˝ 14
̞ 14
̰ 14
͘ 14
Απο@@ 14
Αργ@@ 14
Ελλάδ@@ 14
Μακ@@ 14
Ομ@@ 14
Τα 14
άνω 14
ίδα 14
αργ@@ 14
δημ@@ 14
δημο@@ 14
διά@@ 14
δοκ@@ 14
ελλην@@ 14
θαν@@ 14
ιερ@@ 14
ικοί 14
κη 14
λαβ@@ 14
μάχ@@ 14
μην@@ 14
μμ@@ 14
νησ@@ 14
νύ@@ 14
οίκ@@ 14
ογραφ@@ 14
παλαι@@ 14
παρα@@ 14
ποταμ@@ 14
ροφή 14
σμα 14
στο 14
τή 14
τρο 14
τροπ@@ 14
τροφ@@ 14
υπο@@ 14
ότη@@ 14
ώδ@@ 14
Ё@@ 14
До 14
Кро@@ 14
Пред@@ 14
Рабо@@ 14
Софи@@ 14
административ@@ 14
ал 14
без@@ 14
бит@@ 14
бре@@ 14
вер 14
войны 14
дивизи@@ 14
дии 14
ени 14
жда 14
изи@@ 14
клю@@ 14
кня@@ 14
коно@@ 14
коро@@ 14
манасти@@ 14
медици@@ 14
мента@@ 14
нан@@ 14
ници 14
об 14
оби@@ 14
община 14
оз@@ 14
остро@@ 14
памя@@ 14
писате@@ 14
пита@@ 14
под 14
противо@@ 14
публики 14
пя@@ 14
рая 14
тех@@ 14
физи@@ 14
чина 14
щи 14
ёт 14
Ѳ 14
ҫ@@ 14
ӓ@@ 14
Յ@@ 14
թ 14
խ 14
جن@@ 14
جو@@ 14
دة 14
دی@@ 14
سر@@ 14
ط 14
مى 14
يد 14
يم 14
ڤ@@ 14
ې 14
ۡ@@ 14
जय 14
ट@@ 14
दुर 14
ब 14
सी 14
से@@ 14
। 14
ਮ@@ 14
ੀ 14
ં@@ 14
ા 14
ழ 14
ు 14
ಬ@@ 14
ැ@@ 14
ී 14
ෙ@@ 14
ร@@ 14
ნ 14
ዳ@@ 14
ᐸ@@ 14
ᒧ@@ 14
ᓀ@@ 14
ᔭ@@ 14
ᚢ@@ 14
ᛏ@@ 14
Ḫ 14
ḵ 14
Ṇ@@ 14
ṗ@@ 14
Ằ@@ 14
ẻ 14
ỉnh 14
ἤ@@ 14
ῇ 14
₰ 14
Ⅲ 14
↵ 14
⇌ 14
∑ 14
≃ 14
⚫ 14
❘ 14
ⰴ@@ 14
ⵙ 14
げ@@ 14
で 14
ウ 14
久 14
争 14
例 14
俞@@ 14
再@@ 14
刀@@ 14
坐@@ 14
垣@@ 14
声@@ 14
奖@@ 14
姑@@ 14
姚@@ 14
婚@@ 14
宏@@ 14
宦 14
岩 14
岳 14
岸 14
己 14
庄 14
庚 14
度 14
式 14
强 14
强@@ 14
戎 14
扎@@ 14
据@@ 14
日本 14
易 14
曽@@ 14
朗@@ 14
極@@ 14
構@@ 14
樹 14
求@@ 14
汗 14
沢 14
淮@@ 14
滩@@ 14
潮 14
澄@@ 14
犬@@ 14
獅 14
現 14
環@@ 14
皇 14
知 14
礼 14
祭@@ 14
禮@@ 14
穆@@ 14
笺 14
籍@@ 14
紀 14
絹@@ 14
總@@ 14
绘@@ 14
绥@@ 14
续@@ 14
羽 14
舎 14
舒@@ 14
芝@@ 14
药@@ 14
蛇@@ 14
読@@ 14
議 14
豐@@ 14
賞@@ 14
賦 14
贡@@ 14
越 14
过@@ 14
鄭@@ 14
釈@@ 14
释@@ 14
钟@@ 14
靈@@ 14
鸣@@ 14
ꦧ@@ 14
승@@ 14
안@@ 14
영 14
진@@ 14
치@@ 14
Lịch 13
conocida 13
hayat@@ 13
ikinci 13
kwamba 13
lığ@@ 13
maları 13
mientras 13
pesar 13
peuvent 13
respectiv@@ 13
sân 13
söz@@ 13
trung 13
wanja 13
Ò 13
ından 13
Ŏ@@ 13
şark@@ 13
Ÿ 13
ƒ@@ 13
ǂ 13
ǅ@@ 13
ɖ@@ 13
ʋ 13
ʴ@@ 13
̜ 13
Ύ@@ 13
Βαλ@@ 13
Μεγ@@ 13
έργ@@ 13
ίλι@@ 13
αγι@@ 13
ανο@@ 13
αϊκ@@ 13
γλώσσα 13
γραμ@@ 13
ερν@@ 13
θεν@@ 13
θερ@@ 13
ικές 13
κλει@@ 13
λεύθερ@@ 13
μέρα 13
μας 13
ολογία 13
οξ@@ 13
ραβ@@ 13
σμός 13
ταγ@@ 13
ταξ@@ 13
τεχν@@ 13
υζαντιν@@ 13
φή 13
χολ@@ 13
όλη 13
ϛ 13
Ско@@ 13
архи@@ 13
большо@@ 13
вно 13
воло@@ 13
гате@@ 13
дат 13
два 13
дя@@ 13
замест@@ 13
зии 13
ино@@ 13
истори@@ 13
ких 13
кия 13
личе@@ 13
льно 13
льных 13
нах 13
нет 13
низ@@ 13
ново@@ 13
оста@@ 13
отде@@ 13
парти@@ 13
пе 13
проек@@ 13
ристи@@ 13
сбор@@ 13
сни@@ 13
сон 13
стве 13
стин@@ 13
тие 13
федера@@ 13
фрон@@ 13
футбо@@ 13
ций 13
чески 13
шего 13
шно 13
щая 13
электро@@ 13
ём 13
ѧ 13
ҝ@@ 13
Բ 13
Ք@@ 13
ճ@@ 13
֠ 13
أن@@ 13
بلا@@ 13
تر@@ 13
ث 13
خان 13
دی 13
رب@@ 13
ض 13
مار@@ 13
مصر 13
ورة 13
ير@@ 13
ګ@@ 13
ێ@@ 13
ܪ 13
ި 13
ँ 13
इ@@ 13
उप@@ 13
को@@ 13
गढ 13
च 13
राज@@ 13
लि@@ 13
विश 13
ট 13
ষ 13
ਕ@@ 13
ਪ@@ 13
ੰ@@ 13
વ@@ 13
્ 13
ஷ 13
ద@@ 13
ి 13
ದ 13
ಯ@@ 13
ಲ 13
ಸ@@ 13
ര@@ 13
ณ@@ 13
ป@@ 13
ย 13
ลา@@ 13
อ@@ 13
ะ@@ 13
ี 13
ุ@@ 13
န 13
ረ 13
ቅ@@ 13
ኢ@@ 13
፡ 13
ᐅ@@ 13
ᑯ@@ 13
ᚨ 13
ᛁ 13
ខ 13
ᠨ 13
ḇ@@ 13
Ḷ 13
ả@@ 13
ồn 13
ời 13
Ἅ@@ 13
ὐ 13
⁽ 13
⁾ 13
ⁿ@@ 13
℔ 13
↲ 13
↳ 13
◇ 13
ⱃ@@ 13
ⱝ@@ 13
ⲉ@@ 13
ⵉ 13
〇@@ 13
ぬ@@ 13
び@@ 13
む@@ 13
エ 13
フ 13
为@@ 13
亀@@ 13
争@@ 13
亮 13
仏 13
伦@@ 13
使 13
倪@@ 13
健 13
備@@ 13
兼@@ 13
冀@@ 13
冲@@ 13
凉@@ 13
刺@@ 13
午@@ 13
卫 13
历@@ 13
名 13
味 13
夜 13
夢 13
奇 13
姬 13
婦 13
孜@@ 13
富 13
寧 13
寿 13
就@@ 13
尹@@ 13
尾 13
布 13
帖 13
帳 13
幕@@ 13
廟 13
廣 13
彼@@ 13
慶 13
戏@@ 13
我 13
揚@@ 13
敦@@ 13
智 13
曜@@ 13
栗@@ 13
歐@@ 13
沟 13
洲 13
浄@@ 13
淑@@ 13
熊 13
燕 13
牧@@ 13
猿@@ 13
用 13
甫 13
略@@ 13
着@@ 13
矿 13
磁@@ 13
秀 13
秦 13
程 13
純@@ 13
織@@ 13
纳@@ 13
线 13
绿@@ 13
翠@@ 13
自 13
致@@ 13
臼 13
莱@@ 13
薩 13
見 13
解 13
試@@ 13
譜 13
议 13
诗 13
诗@@ 13
豹 13
起 13
返@@ 13
進 13
過@@ 13
邑@@ 13
邓@@ 13
銅@@ 13
铺@@ 13
镜@@ 13
障@@ 13
雁@@ 13
霍@@ 13
韶@@ 13
須@@ 13
頭 13
魂 13
魚 13
鳥 13
鸡@@ 13
ꜣ@@ 13
게@@ 13
광@@ 13
명@@ 13
모@@ 13
민 13
불@@ 13
여@@ 13
원@@ 13
유@@ 13
재@@ 13
전 13
집 13
！ 13
Biografía 12
Birleşik 12
Thổ 12
andishi 12
angaza 12
anlat@@ 12
construcción 12
década 12
fuat@@ 12
género 12
humo 12
ikuwa 12
larından 12
lã@@ 12
línea 12
mayoría 12
mô 12
partidos 12
sử 12
taifa 12
tenía 12
título 12
tế 12
vàng 12
 12
¤ 12
Ã 12
ölç@@ 12
ĺ 12
ŀ@@ 12
Ő 12
ŗ 12
Ţ 12
Ŵ 12
ưa 12
ươ@@ 12
ǽ@@ 12
ǿ@@ 12
ɹ 12
ʧ 12
Του@@ 12
άνδρ@@ 12
έδ@@ 12
έλλ@@ 12
αγωγ@@ 12
αϊ@@ 12
βολ@@ 12
διακ@@ 12
διδ@@ 12
είναι 12
ηλε@@ 12
ηση 12
θεια 12
ιπ@@ 12
κερ@@ 12
κω@@ 12
μάν@@ 12
μέχρι 12
μεσ@@ 12
ονομ@@ 12
οργ@@ 12
ορι@@ 12
ράς 12
ρού 12
στρατ@@ 12
ταυ@@ 12
τεύ@@ 12
τοκ@@ 12
τρου 12
φά@@ 12
φάν@@ 12
ωλ@@ 12
Евро@@ 12
Сле@@ 12
Спи@@ 12
армия 12
бле@@ 12
вания 12
вест@@ 12
волю@@ 12
гов 12
дете@@ 12
древ@@ 12
ена 12
ити 12
литера@@ 12
много@@ 12
моби@@ 12
особ@@ 12
полк 12
пру@@ 12
работ@@ 12
рам@@ 12
рё@@ 12
сил 12
син 12
сса 12
сторо@@ 12
так 12
том@@ 12
ческих 12
что 12
љ 12
Ѧ 12
Ѳ@@ 12
Ө@@ 12
Ա 12
ձ@@ 12
չ 12
և@@ 12
آباد 12
الدين 12
الغ@@ 12
اي@@ 12
تق@@ 12
تي 12
تی@@ 12
دا 12
رية 12
ری 12
سی@@ 12
شر@@ 12
عبد@@ 12
فة 12
ني@@ 12
وب@@ 12
وت@@ 12
وس@@ 12
وق@@ 12
ٰ@@ 12
گ 12
ܛ@@ 12
ܩ@@ 12
ई@@ 12
गा@@ 12
चन 12
चो@@ 12
छ@@ 12
ठ@@ 12
णा 12
ते@@ 12
दु@@ 12
मार 12
रम 12
वा 12
विकास 12
े 12
ঘ@@ 12
জ 12
ধ@@ 12
প 12
ভ@@ 12
ম 12
য@@ 12
ਹ@@ 12
મ@@ 12
న@@ 12
మ@@ 12
ಕ 12
ന@@ 12
ව 12
ළ@@ 12
ค@@ 12
รี@@ 12
ว 12
อ 12
ཝ 12
း@@ 12
უ 12
ჯ@@ 12
ჲ 12
ና@@ 12
ኤ@@ 12
ጽ@@ 12
ᓇ@@ 12
ᓯ@@ 12
᚛ 12
ᜀ@@ 12
ᜄ@@ 12
ᜋ@@ 12
ᜒ 12
ដ@@ 12
ហ@@ 12
អ@@ 12
័ 12
ᠯ@@ 12
ḙ@@ 12
Ṻ@@ 12
ắm 12
ếm 12
ỏ@@ 12
ồi 12
ức 12
ἀ 12
Ὑ@@ 12
ὼ@@ 12
℃ 12
ℤ 12
Ⅰ 12
∫ 12
① 12
③ 12
ⱁ@@ 12
ⱅ@@ 12
ⲟ@@ 12
づ@@ 12
な 12
に 12
ぼ@@ 12
ま 12
プ 12
マ 12
ヴ@@ 12
丽@@ 12
乎 12
五 12
低@@ 12
佐 12
俊 12
倉 12
傳@@ 12
冰@@ 12
凌@@ 12
則@@ 12
勢@@ 12
北 12
卯 12
厅 12
叔@@ 12
告 12
喀@@ 12
嘎@@ 12
因 12
固 12
圓 12
增@@ 12
売@@ 12
変@@ 12
奨@@ 12
奴 12
威 12
宁 12
宅@@ 12
宋 12
害@@ 12
密 12
寒@@ 12
封@@ 12
工 12
席 12
廉@@ 12
廷@@ 12
引@@ 12
弘 12
彬 12
役@@ 12
往@@ 12
思 12
急@@ 12
恋@@ 12
承 12
抱@@ 12
收@@ 12
敏@@ 12
斜@@ 12
旭@@ 12
時 12
暮@@ 12
未 12
札@@ 12
柱@@ 12
标@@ 12
様 12
模@@ 12
毗@@ 12
涛 12
淵@@ 12
漁@@ 12
漢 12
濟@@ 12
炮@@ 12
熙 12
爆@@ 12
牌@@ 12
犬 12
狩@@ 12
猫@@ 12
献@@ 12
珍@@ 12
盐@@ 12
盘@@ 12
盟@@ 12
础@@ 12
碑@@ 12
祐@@ 12
種@@ 12
穂@@ 12
窑 12
简 12
節 12
类@@ 12
納@@ 12
終@@ 12
綱 12
线@@ 12
羅 12
職@@ 12
肖@@ 12
腾@@ 12
舟 12
茶 12
莲@@ 12
薩@@ 12
藩@@ 12
號 12
见 12
记@@ 12
豫@@ 12
貝 12
輔 12
郛 12
酉@@ 12
阁@@ 12
陶 12
雍@@ 12
零 12
雷 12
霊 12
類@@ 12
骨@@ 12
鱼 12
鳳@@ 12
ꦸ@@ 12
노@@ 12
방@@ 12
비 12
신 12
우 12
운 12
임@@ 12
최@@ 12
타@@ 12
태@@ 12
트@@ 12
학 12
현 12
협@@ 12
희 12
； 12
Mto 11
adamu 11
aduni 11
caracter@@ 11
của 11
diciembre 11
eği 11
inglés 11
inş@@ 11
junio 11
lên 11
müz@@ 11
souvent 11
thích 11
timu 11
tích 11
tướng 11
varias 11
yeye 11
Ï 11
ãng 11
étaient 11
Ě 11
ıda 11
ĳ 11
ƀ@@ 11
ười 11
ǖ@@ 11
ǘ 11
ǜ 11
ȳ 11
Ƚ@@ 11
ɚ 11
ɜ 11
ɳ@@ 11
ʑ@@ 11
ʧ@@ 11
Πανεπιστήμιο 11
Σερ@@ 11
άμε@@ 11
έξ@@ 11
αιν@@ 11
αρίου 11
εισ@@ 11
κατά@@ 11
μένος 11
μέρος 11
μια 11
παρά@@ 11
πεδ@@ 11
πλη@@ 11
πολί@@ 11
πόλε@@ 11
τάν@@ 11
τορ@@ 11
χώ@@ 11
όνομ@@ 11
ϵ 11
Џ@@ 11
Ос@@ 11
Роб@@ 11
Ъ@@ 11
аре@@ 11
ати 11
быть 11
бя@@ 11
вия 11
води@@ 11
връ@@ 11
гна@@ 11
груп@@ 11
дея@@ 11
дже@@ 11
догово@@ 11
евре@@ 11
ква@@ 11
кли@@ 11
кру@@ 11
лиза@@ 11
мент 11
мла@@ 11
най@@ 11
ней 11
ней@@ 11
ными 11
пара@@ 11
пис@@ 11
план@@ 11
побе@@ 11
права 11
развити@@ 11
рих 11
ря 11
сед@@ 11
село 11
став 11
стви@@ 11
твор@@ 11
того 11
ток 11
хоро@@ 11
юр@@ 11
њ 11
Ѫ 11
Ү@@ 11
һ 11
ӣ 11
ӧ@@ 11
Կ 11
֕ 11
آن 11
ائ@@ 11
اح@@ 11
اسلامی 11
الإ@@ 11
اني 11
اه@@ 11
او@@ 11
ایران 11
بور@@ 11
تب@@ 11
تم@@ 11
جه@@ 11
خت@@ 11
دار@@ 11
دان 11
دان@@ 11
دو 11
دى 11
را 11
زی 11
سلام 11
شه@@ 11
شي@@ 11
ص 11
فر 11
لی@@ 11
مح@@ 11
مرا@@ 11
وج@@ 11
وم 11
وی@@ 11
پر@@ 11
ۈ@@ 11
ܥ@@ 11
कर@@ 11
जा 11
जी@@ 11
टी 11
ते 11
दि@@ 11
दिल 11
दे@@ 11
धर 11
पर@@ 11
मण 11
रसा@@ 11
राज 11
राम 11
लक 11
ळ@@ 11
वै@@ 11
शे@@ 11
सिंह 11
सो@@ 11
ा@@ 11
ौ@@ 11
ॐ 11
॥ 11
অ@@ 11
উ@@ 11
ਅ@@ 11
ਰ 11
ੁ 11
ર 11
ે@@ 11
ஜ 11
క@@ 11
ಳ@@ 11
ട@@ 11
ම 11
ท@@ 11
บุรี 11
ยา@@ 11
ราช@@ 11
ไท@@ 11
ະ@@ 11
ཙ@@ 11
ཱ 11
ྨ@@ 11
း 11
ყ@@ 11
ሃ@@ 11
ብ 11
Ꮳ@@ 11
ᛅ@@ 11
ល 11
ី 11
៊ 11
Ấ@@ 11
ẫn 11
ắt 11
ốt 11
ự@@ 11
ỹ@@ 11
Ἕ@@ 11
Ἠ@@ 11
ὡ@@ 11
ῡ@@ 11
⁊ 11
⁻ 11
℅ 11
℗ 11
ℝ@@ 11
Ↄ 11
▲ 11
☾ 11
♩ 11
ⰽ@@ 11
ⲓ@@ 11
ⵛ@@ 11
あ 11
ざ@@ 11
は 11
も 11
ろ 11
ペ@@ 11
丝@@ 11
両@@ 11
乗@@ 11
予@@ 11
仓@@ 11
仙 11
任 11
俳@@ 11
傅@@ 11
全 11
养@@ 11
刑@@ 11
前 11
勋@@ 11
卧@@ 11
卷 11
叢@@ 11
告@@ 11
営@@ 11
噶@@ 11
堀 11
塘 11
多 11
夷 11
奈 11
奖 11
完@@ 11
寛@@ 11
實 11
寧@@ 11
寨 11
尼 11
峡@@ 11
巡@@ 11
巻 11
幹@@ 11
怒@@ 11
性 11
恭@@ 11
慕@@ 11
拓@@ 11
拳@@ 11
排@@ 11
整@@ 11
旺@@ 11
昇@@ 11
昭 11
术 11
析@@ 11
枝@@ 11
楠@@ 11
楽 11
欲@@ 11
残@@ 11
殺@@ 11
氣 11
汤@@ 11
沖@@ 11
沼@@ 11
洗@@ 11
湯@@ 11
澤@@ 11
激@@ 11
濟 11
灰@@ 11
炭@@ 11
热@@ 11
父@@ 11
爾@@ 11
狮@@ 11
猫 11
獨@@ 11
玄 11
班 11
産 11
甫@@ 11
發@@ 11
益 11
示 11
示@@ 11
祁@@ 11
祐 11
祝@@ 11
禅 11
笔@@ 11
筆 11
策@@ 11
米 11
約 11
級@@ 11
翔 11
舍@@ 11
艇 11
艦 11
茅@@ 11
菜@@ 11
蜀@@ 11
覚@@ 11
览@@ 11
觉@@ 11
許@@ 11
談 11
识@@ 11
诸@@ 11
賢 11
跡 11
邊@@ 11
郷 11
錄 11
錫@@ 11
鐵@@ 11
闘@@ 11
阴@@ 11
阿 11
震 11
霞@@ 11
靖@@ 11
題@@ 11
顶@@ 11
项@@ 11
预@@ 11
额@@ 11
飞 11
飲@@ 11
饮@@ 11
鮮@@ 11
鷹@@ 11
鹰 11
麦@@ 11
黎 11
금@@ 11
년@@ 11
마 11
미 11
백@@ 11
부 11
서 11
역 11
위@@ 11
음@@ 11
임 11
종@@ 11
진 11
차@@ 11
철@@ 11
𝄇 11
🇦 11
Savaşı 10
afya 10
asının 10
devlet 10
edilen 10
environ 10
güç@@ 10
habitantes 10
için 10
không 10
kullan@@ 10
köy@@ 10
takri@@ 10
taraf@@ 10
vieron 10
Ă@@ 10
đại 10
Ĝ 10
Ĝ@@ 10
Į@@ 10
ıldı 10
ĵ 10
Ņ 10
Ə 10
ƿ 10
ƿ@@ 10
ǘ@@ 10
ȝ@@ 10
ɟ@@ 10
ɥ 10
ɥ@@ 10
ɴ@@ 10
ʈ@@ 10
ʤ@@ 10
ʱ 10
ˡ@@ 10
Ανατολ@@ 10
Γκ@@ 10
Σο@@ 10
Φρ@@ 10
άλογ@@ 10
άνα@@ 10
ένα 10
ίδας 10
αναγ@@ 10
αυτ@@ 10
γμα 10
δεν 10
δρα@@ 10
δύνα@@ 10
θάνα@@ 10
θε 10
μετά 10
μορφ@@ 10
ουν 10
παί@@ 10
πον@@ 10
πρόσ@@ 10
ρική 10
σαν 10
σας 10
στα 10
στολ@@ 10
τιμ@@ 10
υνα@@ 10
φυσ@@ 10
Є 10
Ѕ 10
Вто@@ 10
Его 10
Македония 10
Пари@@ 10
Пър@@ 10
ато 10
български 10
бю@@ 10
вание 10
вате@@ 10
визи@@ 10
вне@@ 10
вс@@ 10
въ@@ 10
гат 10
год 10
гори@@ 10
гъ@@ 10
дат@@ 10
диа@@ 10
дина@@ 10
дни 10
др 10
език 10
есть 10
ето 10
жда@@ 10
зависи@@ 10
зви@@ 10
имо@@ 10
история 10
каче@@ 10
крепо@@ 10
кс 10
мена 10
мини@@ 10
мира 10
ним 10
нове 10
ному 10
области 10
оте@@ 10
поэ@@ 10
пр@@ 10
прин@@ 10
пъ@@ 10
света 10
система 10
следо@@ 10
сли 10
сре@@ 10
тър@@ 10
шения 10
ът 10
ью 10
ҧ@@ 10
Ҳ@@ 10
Ө 10
ղ 10
շ 10
ո 10
վ 10
ׂ 10
כ 10
اس 10
ة@@ 10
تف@@ 10
تي@@ 10
خ 10
دس 10
رام 10
روز 10
سع@@ 10
عب 10
على 10
كل 10
لی 10
مان@@ 10
مص@@ 10
هم 10
ود@@ 10
وف 10
يه 10
ټ@@ 10
کو@@ 10
گا@@ 10
ہ 10
ܹ@@ 10
ंद 10
की 10
कृष 10
झ@@ 10
दा 10
दी@@ 10
देव@@ 10
भ 10
भा@@ 10
भु@@ 10
रण 10
हे@@ 10
ान 10
ो@@ 10
ং@@ 10
ਜ@@ 10
ਲ@@ 10
પ@@ 10
ી 10
ீ 10
ே 10
ం 10
గ@@ 10
వ@@ 10
ඩ@@ 10
බ@@ 10
ශ 10
ท 10
ประ@@ 10
พิ@@ 10
฿ 10
เก@@ 10
โ@@ 10
ไทย 10
ྣ@@ 10
ྷ@@ 10
လ@@ 10
ჳ 10
ህ@@ 10
ቀ@@ 10
ተ@@ 10
ወ@@ 10
ጊ@@ 10
Ꭹ 10
Ꭹ@@ 10
Ꮃ@@ 10
Ꮒ@@ 10
ᑎ@@ 10
ᚋ@@ 10
ᚱ@@ 10
ᛚ 10
ឹ@@ 10
ូ@@ 10
ួ@@ 10
ះ@@ 10
ᠢ 10
ᠰ@@ 10
ᠵ@@ 10
ᠷ@@ 10
ᴷ 10
Ḷ@@ 10
ṙ@@ 10
ặt 10
Ẹ 10
ủ@@ 10
ἰ 10
ὼ 10
ℂ 10
ℵ@@ 10
∪ 10
⊥ 10
② 10
♃ 10
✡ 10
➝ 10
ⱆ@@ 10
ⱑ@@ 10
ⲣ@@ 10
ⵍ 10
々 10
こ 10
ぶ@@ 10
ほ@@ 10
ょ@@ 10
チ 10
ツ 10
ミ 10
ヶ@@ 10
且@@ 10
丘 10
丙 10
也@@ 10
亳 10
介@@ 10
他@@ 10
位 10
修 10
僧@@ 10
关 10
凡@@ 10
分 10
刊@@ 10
刚 10
初 10
剧 10
劳@@ 10
勇 10
勇@@ 10
勐@@ 10
勤@@ 10
包 10
十 10
单@@ 10
厚@@ 10
只@@ 10
同 10
响@@ 10
善 10
城市 10
墙 10
夕 10
姜@@ 10
孝 10
宙@@ 10
宪@@ 10
宿 10
対@@ 10
將@@ 10
小 10
層@@ 10
屯@@ 10
岐@@ 10
崖 10
帰@@ 10
幌@@ 10
幻@@ 10
庫@@ 10
庸 10
役 10
征 10
得 10
怪@@ 10
恭 10
情 10
意 10
慈 10
慎 10
戲 10
戴@@ 10
戸 10
扶@@ 10
批@@ 10
折@@ 10
接@@ 10
效@@ 10
救@@ 10
敬 10
断@@ 10
昔@@ 10
晉 10
晋 10
晴@@ 10
暗@@ 10
枣@@ 10
架@@ 10
染@@ 10
柱 10
柳 10
栖@@ 10
桓@@ 10
條@@ 10
樊@@ 10
歩@@ 10
死 10
殷 10
比 10
汪@@ 10
沿@@ 10
淳@@ 10
滇@@ 10
滿@@ 10
潜@@ 10
濃@@ 10
炎@@ 10
無 10
熟@@ 10
熱@@ 10
版 10
犯@@ 10
甸@@ 10
異@@ 10
疏 10
皿 10
直 10
眼 10
破@@ 10
磨@@ 10
礁 10
秉@@ 10
种@@ 10
竜@@ 10
競@@ 10
笛 10
简@@ 10
紅 10
紹@@ 10
繁@@ 10
级 10
织@@ 10
绍@@ 10
综@@ 10
翔@@ 10
老 10
耕@@ 10
职@@ 10
聚@@ 10
肉 10
艹 10
节@@ 10
芳 10
茂 10
蒙 10
藍 10
蜜@@ 10
血@@ 10
裕 10
視@@ 10
视@@ 10
証@@ 10
詞 10
談@@ 10
謝@@ 10
貝@@ 10
貫@@ 10
赛@@ 10
軌@@ 10
軒 10
辽@@ 10
送@@ 10
遠@@ 10
郊@@ 10
郝@@ 10
酉 10
醉@@ 10
鏡@@ 10
铁 10
顧@@ 10
项 10
飯@@ 10
馆@@ 10
魏 10
魚@@ 10
黄 10
과@@ 10
관@@ 10
나 10
랑@@ 10
물@@ 10
배@@ 10
삼@@ 10
석@@ 10
송@@ 10
술@@ 10
여 10
오 10
종 10
청@@ 10
하 10
흥@@ 10
﻿ 10
𐌣 10
Ekim 9
algunos 9
amment 9
bilinen 9
cuales 9
cái 9
cô 9
cổ 9
düş@@ 9
ejemplo 9
göre 9
hiệ@@ 9
kwenye 9
luego 9
muchos 9
nivel 9
noviembre 9
sağ@@ 9
según 9
singi 9
trí 9
vió 9
viện 9
vô 9
về 9
yapan 9
òa 9
Ą 9
Độ 9
đá 9
ģ 9
ĵ@@ 9
Ļ 9
Ř 9
Şub@@ 9
Ŭ 9
Ű 9
Ɗ@@ 9
Ɛ 9
Ƣ 9
ược 9
ǣ 9
Ǵ@@ 9
ɦ 9
ɻ@@ 9
ɽ@@ 9
ʐ 9
ʱ@@ 9
ˇ 9
˨ 9
˩ 9
̚ 9
̡ 9
͂ 9
Αθη@@ 9
Γου@@ 9
Ελλάδα 9
Ισ@@ 9
Μπο@@ 9
ίνου 9
γαρ@@ 9
γε@@ 9
γεω@@ 9
δίας 9
δίσ@@ 9
δεί@@ 9
δεκα@@ 9
διο 9
είν@@ 9
εθν@@ 9
ειλ@@ 9
ερ 9
ερι@@ 9
ητική 9
ιού 9
ιστο@@ 9
κέρ@@ 9
κε 9
κο 9
κομ@@ 9
κρατ@@ 9
κυρι@@ 9
μέρ@@ 9
μαϊκ@@ 9
μετ@@ 9
μισ@@ 9
νησι@@ 9
νών 9
ξεις 9
ξη 9
ξης 9
ούμεν@@ 9
πολη 9
πορ@@ 9
στατ@@ 9
σύστημα 9
τελε@@ 9
τερ 9
τηρ@@ 9
τια 9
τικών 9
χώρ@@ 9
ωση 9
όλου 9
ότητες 9
ϖ 9
Ѓ@@ 9
Ј 9
Ў@@ 9
Амери@@ 9
Бри@@ 9
Исто@@ 9
Олимпи@@ 9
Северна 9
бое@@ 9
было 9
в. 9
ват 9
вать 9
восто@@ 9
встре@@ 9
вто@@ 9
города 9
городе 9
гри@@ 9
дата 9
дате@@ 9
дей 9
дек@@ 9
дж 9
ел 9
жен 9
живо@@ 9
защ@@ 9
йски 9
канди@@ 9
ката 9
квар@@ 9
мана 9
мате@@ 9
мене@@ 9
нения 9
ност@@ 9
образо@@ 9
оке@@ 9
организация 9
офи@@ 9
пей@@ 9
писание 9
полити@@ 9
политиче@@ 9
прия@@ 9
реги@@ 9
реди@@ 9
рели@@ 9
рения 9
рим@@ 9
секре@@ 9
сем@@ 9
ския 9
современ@@ 9
сред@@ 9
стен@@ 9
тел 9
това 9
уда@@ 9
фер@@ 9
ця@@ 9
чение 9
ческие 9
ќ 9
Դ 9
Ժ@@ 9
Ի@@ 9
ծ 9
֦ 9
أم@@ 9
ارة 9
اص@@ 9
اف@@ 9
اق@@ 9
الط@@ 9
العربية 9
الل@@ 9
الي@@ 9
برا@@ 9
بل 9
بل@@ 9
تا 9
تی 9
جان 9
جب@@ 9
حص@@ 9
خل@@ 9
دين 9
راء 9
رق@@ 9
عد@@ 9
فو@@ 9
قي@@ 9
كة 9
لك 9
مية 9
ني 9
نگ@@ 9
نی 9
وات 9
ٌ 9
ܠ 9
के 9
गी@@ 9
घ@@ 9
णा@@ 9
तन 9
तिक 9
तु@@ 9
दर 9
देव 9
पश 9
फ 9
फ@@ 9
भू@@ 9
भो@@ 9
यक 9
योग 9
रह 9
राम@@ 9
राय@@ 9
राष 9
ले@@ 9
शा 9
ঁ@@ 9
ও@@ 9
ণ@@ 9
ু 9
ਭ@@ 9
ੂ@@ 9
ત@@ 9
દ 9
ન@@ 9
િ@@ 9
ஷ@@ 9
ஹ@@ 9
ర 9
ు@@ 9
ಣ 9
ಮ 9
ೂ@@ 9
ೋ@@ 9
ം 9
ട 9
ද 9
ී@@ 9
การ@@ 9
ข@@ 9
คร@@ 9
ฆ@@ 9
จัง@@ 9
บ 9
ภ@@ 9
วิ@@ 9
หรือ 9
ี@@ 9
ียง@@ 9
เช@@ 9
ລ@@ 9
ວ@@ 9
ཛ@@ 9
က@@ 9
န@@ 9
္ 9
ለ 9
ማ 9
ረ@@ 9
ቡ@@ 9
ታ@@ 9
ዋ@@ 9
ዘ@@ 9
ጋ@@ 9
Ꮝ@@ 9
ᑦ 9
ᑭ@@ 9
ᒣ@@ 9
ᖹ@@ 9
ᚈ@@ 9
᚜ 9
ᚠ@@ 9
ᚦ@@ 9
ᛉ 9
ᜊ@@ 9
ᜌ@@ 9
គ 9
ទ 9
ᠴ@@ 9
ᴉ@@ 9
ḯ@@ 9
ḿ@@ 9
Ṛ 9
ễ 9
ọn 9
ụy 9
ἢ 9
ὺ 9
ᾳ 9
※ 9
ℏ 9
┴ 9
▼ 9
ⱉ@@ 9
ⱓ@@ 9
ⱪ 9
ⲥ@@ 9
ⵇ@@ 9
ご 9
つ 9
ね 9
ィ 9
ギ 9
テ 9
ノ 9
了@@ 9
互@@ 9
亡@@ 9
仇@@ 9
仕@@ 9
付@@ 9
仲 9
件 9
伍@@ 9
佘@@ 9
俄@@ 9
倫 9
倫@@ 9
儋@@ 9
優 9
儿@@ 9
六 9
兰 9
具@@ 9
冈@@ 9
冰 9
冷@@ 9
几 9
凤 9
击@@ 9
勒 9
匕 9
卯@@ 9
厥@@ 9
叔 9
各@@ 9
吊@@ 9
味@@ 9
哲 9
唱@@ 9
嘉 9
因@@ 9
圓@@ 9
圖 9
坦@@ 9
埃@@ 9
埠@@ 9
塩@@ 9
墩@@ 9
声 9
壽@@ 9
处@@ 9
妹@@ 9
姓 9
娘@@ 9
宾@@ 9
寸 9
尚 9
届@@ 9
广 9
序 9
建 9
彌@@ 9
彫@@ 9
応@@ 9
恐@@ 9
悟@@ 9
應@@ 9
戌@@ 9
才 9
托@@ 9
技 9
抚@@ 9
拉 9
挥 9
放 9
敷 9
斌 9
旦 9
旦@@ 9
是 9
曙@@ 9
朋@@ 9
杉 9
杏@@ 9
条 9
梧@@ 9
樟@@ 9
止@@ 9
气 9
汇@@ 9
汝@@ 9
汾@@ 9
注 9
洪 9
活 9
渠@@ 9
灯 9
率@@ 9
琳 9
璋 9
璧@@ 9
留@@ 9
畫@@ 9
當@@ 9
登 9
的 9
皆@@ 9
盾 9
矢 9
税@@ 9
稿 9
策 9
築@@ 9
纲@@ 9
组@@ 9
络@@ 9
署 9
肉@@ 9
背@@ 9
能 9
脇@@ 9
至 9
舎@@ 9
苑 9
菠@@ 9
蘭 9
蘿@@ 9
虹 9
虹@@ 9
螺@@ 9
観 9
訓 9
詠@@ 9
調 9
識 9
豆 9
豪 9
贝@@ 9
财@@ 9
贤@@ 9
走 9
足球 9
軽@@ 9
辞@@ 9
辭@@ 9
逆@@ 9
选@@ 9
那 9
邵@@ 9
鄉 9
钱 9
问@@ 9
階@@ 9
雀@@ 9
難@@ 9
零@@ 9
鞍@@ 9
韦@@ 9
頂@@ 9
領@@ 9
顯@@ 9
题@@ 9
颜@@ 9
风 9
首 9
験@@ 9
麻 9
ꜣ 9
ꦥ@@ 9
계@@ 9
드 9
맛 9
문 9
예@@ 9
울@@ 9
월@@ 9
음 9
제 9
찬@@ 9
카@@ 9
투@@ 9
포@@ 9
훈 9
︠ 9
︡ 9
𝄆 9
Fransa 8
Tarih@@ 8
acuer@@ 8
algunas 8
ambaye 8
atifu 8
baad@@ 8
başkanı 8
chiến 8
dört 8
göster@@ 8
ilmiş 8
julio 8
küçük 8
lerinin 8
lugha 8
phóng 8
primeros 8
proy@@ 8
proyecto 8
septiembre 8
siendo 8
sı@@ 8
thì 8
thức 8
thực 8
tiếng 8
trị 8
varios 8
vua 8
yanay@@ 8
Üniversit@@ 8
özel 8
đoàn 8
đồng 8
động 8
Ę@@ 8
Ġ 8
ĥ@@ 8
Ŗ 8
Ɔ@@ 8
ưởng 8
Ƴ 8
Ʒ 8
Ǫ@@ 8
ɤ@@ 8
ɩ@@ 8
ʈ 8
ˊ@@ 8
̟ 8
͵ 8
Κωνστ@@ 8
Μια 8
Οικ@@ 8
Πολιτ@@ 8
Πρό@@ 8
ανακ@@ 8
ανδρ@@ 8
αξ@@ 8
απε@@ 8
βιβλ@@ 8
γράμ@@ 8
δη@@ 8
εί 8
επαρχ@@ 8
εται 8
εχ@@ 8
ζωή 8
κοσμ@@ 8
κυβ@@ 8
κόρ@@ 8
λεξ@@ 8
μένης 8
ματο@@ 8
μεγ@@ 8
μο 8
νέα 8
νώ@@ 8
ομηχαν@@ 8
οπλ@@ 8
ουσι@@ 8
ούλιο 8
περί@@ 8
ποι 8
πολυ@@ 8
πολύ 8
πρι@@ 8
σεις 8
σκην@@ 8
στε 8
στον 8
σώ@@ 8
τέλος 8
τεκ@@ 8
τικής 8
τοπο@@ 8
τρία 8
τών 8
χειρ@@ 8
χορ@@ 8
χώρα 8
ψη 8
ωβ@@ 8
όνα 8
Ϝ 8
ϱ@@ 8
После 8
Фридрих 8
аб@@ 8
ави@@ 8
бия 8
бло@@ 8
боле@@ 8
бу 8
ване 8
вата 8
вена 8
вид 8
времени 8
всех 8
вым 8
высо@@ 8
г. 8
генерал 8
гон@@ 8
дена 8
дент@@ 8
дре@@ 8
дъ@@ 8
дър@@ 8
ется 8
ждения 8
защит@@ 8
зиден@@ 8
зма 8
ител@@ 8
ители 8
капита@@ 8
кие 8
кой@@ 8
компози@@ 8
кси@@ 8
ланд@@ 8
лии 8
лимпи@@ 8
лища 8
лько 8
льные 8
мей@@ 8
мери@@ 8
мест@@ 8
меха@@ 8
мъ@@ 8
нее 8
ника@@ 8
област 8
обре@@ 8
профе@@ 8
пы 8
раз 8
рази@@ 8
ред 8
ряд 8
свой 8
систе@@ 8
скус@@ 8
сно 8
соеди@@ 8
ссо@@ 8
стрел@@ 8
технологи@@ 8
тна 8
тора 8
три 8
фика@@ 8
храни@@ 8
цией 8
ческой 8
чет@@ 8
шей 8
ью@@ 8
ют 8
ђ 8
ѳ 8
Ҍ 8
ғ 8
ҙ 8
Қ 8
ӕ@@ 8
ӥ 8
ӯ@@ 8
Խ@@ 8
Ղ@@ 8
հ 8
օ@@ 8
ֆ@@ 8
և 8
ױ@@ 8
ء@@ 8
ؤ@@ 8
ئ 8
ادي 8
الإسلا@@ 8
المح@@ 8
بال@@ 8
بة 8
بد@@ 8
جد@@ 8
جع@@ 8
جمع@@ 8
حم@@ 8
سر 8
سن@@ 8
شع@@ 8
ـ 8
في@@ 8
قر@@ 8
مد@@ 8
مه 8
می 8
نج@@ 8
نی@@ 8
ٍ 8
ٽ@@ 8
پ 8
ځ@@ 8
چ 8
ژ@@ 8
کر 8
کر@@ 8
ین 8
ܓ@@ 8
ܗ@@ 8
ܟ@@ 8
ܣ 8
ܳ@@ 8
ށ@@ 8
ंड@@ 8
अव@@ 8
के@@ 8
टा@@ 8
दान 8
देवी 8
धी 8
नन 8
पाल 8
पू@@ 8
मी@@ 8
मै@@ 8
रक 8
लिक 8
ले 8
षद 8
सा 8
हम 8
है 8
ঞ 8
ষ@@ 8
ਬ@@ 8
ੀ@@ 8
੍ 8
અ@@ 8
જ@@ 8
દ@@ 8
હ@@ 8
ற 8
ಜ@@ 8
ಳ 8
ಾ 8
ೀ@@ 8
ക 8
പ 8
ള@@ 8
ു@@ 8
ൂ@@ 8
බ 8
හ 8
ේ@@ 8
ො@@ 8
ข 8
จ 8
พล@@ 8
รา@@ 8
ล 8
อา@@ 8
ื 8
ู@@ 8
ງ@@ 8
ນ@@ 8
ྩ@@ 8
ည 8
ပ@@ 8
သ@@ 8
ျ@@ 8
ሓ@@ 8
ቤ@@ 8
ኣ@@ 8
ዕ@@ 8
ጵ@@ 8
ᐁ@@ 8
ᔮ@@ 8
ᚉ@@ 8
ᚔ@@ 8
ᜓ 8
ច@@ 8
ិ 8
ើ@@ 8
៉ 8
ᠦ@@ 8
ᠩ@@ 8
ᠷ 8
ḑ 8
Ḥ 8
Ṙ@@ 8
Ṿ@@ 8
ẩ@@ 8
ề@@ 8
ểm 8
ệnh 8
Ọ 8
ố@@ 8
ừng 8
ὃ@@ 8
ῑ@@ 8
ῳ@@ 8
ῶ 8
₈ 8
ₙ 8
Ⅳ 8
Ⅼ@@ 8
Ↄ@@ 8
↶ 8
∕ 8
⌘ 8
▦ 8
⦁ 8
ⰱ@@ 8
ⴼ 8
ⵀ@@ 8
ⵊ@@ 8
〚 8
〛 8
お 8
ぎ 8
げ 8
さ 8
ど 8
や 8
ゅ@@ 8
ザ 8
ゾ@@ 8
ネ 8
ヘ@@ 8
メ 8
モ 8
丈@@ 8
乎@@ 8
亥@@ 8
仮@@ 8
休@@ 8
佑 8
佑@@ 8
佳 8
儀 8
儒@@ 8
允@@ 8
內@@ 8
兩@@ 8
共和国 8
兴 8
冬 8
决@@ 8
冶@@ 8
准@@ 8
凡 8
制 8
券@@ 8
匈@@ 8
匹@@ 8
单 8
博 8
卡@@ 8
又 8
又@@ 8
发 8
吹@@ 8
唄 8
商 8
啓@@ 8
围@@ 8
團@@ 8
坪 8
垣 8
壮@@ 8
奎@@ 8
委 8
專@@ 8
岬 8
峨@@ 8
峪@@ 8
嶋 8
嶺 8
巫@@ 8
市镇 8
席@@ 8
帯 8
幾@@ 8
庁 8
庆 8
延 8
弦@@ 8
彝@@ 8
待@@ 8
徒 8
必@@ 8
态@@ 8
恵 8
悟 8
悦@@ 8
悪@@ 8
惟@@ 8
憂@@ 8
戊 8
拟@@ 8
捷@@ 8
推@@ 8
揆 8
摩 8
敢@@ 8
斋@@ 8
更@@ 8
朗 8
期 8
权@@ 8
材@@ 8
杰 8
格 8
案@@ 8
梓@@ 8
條 8
梨@@ 8
梵@@ 8
棺@@ 8
検@@ 8
概@@ 8
榮 8
樓 8
欣@@ 8
段@@ 8
殿@@ 8
毕@@ 8
氐 8
沂@@ 8
沒@@ 8
油 8
洮@@ 8
淀@@ 8
淡@@ 8
漫@@ 8
漳@@ 8
瀬 8
烧@@ 8
焦@@ 8
煌 8
爵 8
爾 8
牟@@ 8
牧 8
犁@@ 8
猪@@ 8
玲 8
琦 8
瑞 8
瑪@@ 8
畔@@ 8
番 8
疏@@ 8
盛 8
督 8
碉@@ 8
祿@@ 8
积@@ 8
稷@@ 8
稽@@ 8
窦@@ 8
竞 8
笛@@ 8
符@@ 8
筹@@ 8
範 8
約@@ 8
紙 8
維 8
继@@ 8
缉@@ 8
编@@ 8
羌@@ 8
聲 8
聿 8
肥@@ 8
胶@@ 8
脉 8
舌 8
艤@@ 8
若 8
苦@@ 8
荊@@ 8
葡@@ 8
薛@@ 8
藥@@ 8
號@@ 8
血 8
衡 8
裁@@ 8
裴@@ 8
襖@@ 8
覺@@ 8
誠@@ 8
誰@@ 8
識@@ 8
譚 8
譚@@ 8
论 8
证 8
谋@@ 8
谱@@ 8
豆@@ 8
豪@@ 8
賀 8
贺@@ 8
贾@@ 8
赞 8
超 8
輸@@ 8
辉 8
迎@@ 8
远 8
追@@ 8
退@@ 8
逐@@ 8
逸 8
遠 8
還@@ 8
邑 8
邮@@ 8
郁@@ 8
采@@ 8
鉱@@ 8
鑑 8
関 8
阙 8
陀 8
陰@@ 8
霞 8
静 8
顶 8
魔 8
鲜@@ 8
鳳 8
鶴 8
鹏 8
黔@@ 8
ꦤ 8
ꦺ@@ 8
ꦼ@@ 8
강 8
개@@ 8
과 8
님 8
동 8
르@@ 8
를 8
만@@ 8
봉@@ 8
속@@ 8
심@@ 8
요@@ 8
으@@ 8
적@@ 8
징@@ 8
춘@@ 8
토@@ 8
피@@ 8
합@@ 8
해 8
향@@ 8
혁 8
혜@@ 8
ﺍ@@ 8
￼ 8
🇪 8
Haziran 7
Januari 7
Người 7
ajili 7
andı 7
bóng 7
cheza 7
chương 7
comenz@@ 7
diği 7
giáo 7
hivi 7
hük@@ 7
imleri 7
karakter@@ 7
lardan 7
larını 7
meye 7
miền 7
mẹ 7
ngày 7
niên 7
nombr@@ 7
năm 7
quá 7
söy@@ 7
sĩ 7
thân 7
thất 7
tió 7
triều 7
trấn 7
tên 7
vương 7
¶ 7
Ông 7
ành 7
álb@@ 7
çoğ@@ 7
ìm 7
Ğ 7
ğer 7
Ĩ 7
ılar@@ 7
ılmış 7
Ĵ 7
Ķ 7
Ť 7
Ŧ@@ 7
ŵ 7
ƀ 7
Ɗ 7
Ɛ@@ 7
ƣ@@ 7
ườ@@ 7
Ʊ 7
Ƶ 7
ǩ@@ 7
ǰ 7
ȟ 7
ȥ@@ 7
ɠ 7
ʍ 7
ʙ 7
ʸ 7
ˌ 7
̝ 7
Ή@@ 7
ΐ 7
Αλεξ@@ 7
Αυγ@@ 7
Αφ@@ 7
Ιστορία 7
Πο@@ 7
Υπ@@ 7
άτων 7
έστ@@ 7
ήρω@@ 7
ήσεις 7
ανατολ@@ 7
αντί@@ 7
αντιν@@ 7
αξι@@ 7
γνω@@ 7
γνώ@@ 7
δη 7
διασ@@ 7
δρά@@ 7
είχ@@ 7
εικ@@ 7
εινε 7
εντρ@@ 7
ζυγ@@ 7
ηχ@@ 7
ισμ@@ 7
καρι@@ 7
κόρη 7
μένων 7
μεγάλη 7
νες 7
ογράφ@@ 7
ογραφία 7
οντας 7
οποι@@ 7
ουσία 7
παράδ@@ 7
πλο@@ 7
πυρ@@ 7
ράφ@@ 7
ρίσ@@ 7
ροφ@@ 7
σεν@@ 7
σημ@@ 7
στική 7
συνα@@ 7
τού 7
τρια 7
υζ@@ 7
υψ@@ 7
φορά 7
φυλ@@ 7
όδου 7
όμε@@ 7
όχι 7
ώματα 7
ϕ 7
ϲ 7
Во 7
Йор@@ 7
При 7
Хе@@ 7
ано 7
армии 7
архитек@@ 7
блиоте@@ 7
буду@@ 7
вала 7
второй 7
въз@@ 7
генера@@ 7
гии 7
гимна@@ 7
граф 7
група 7
дале@@ 7
действия 7
дения 7
дли@@ 7
дна 7
жава 7
жур@@ 7
игра@@ 7
импе@@ 7
исследо@@ 7
ителей 7
кари@@ 7
ках 7
кономи@@ 7
кти@@ 7
лд 7
лем 7
лиш@@ 7
лото 7
мерикан@@ 7
мом 7
мс 7
нами 7
немец@@ 7
нес 7
нк@@ 7
ното 7
ографи@@ 7
ол@@ 7
пад@@ 7
пле@@ 7
пора@@ 7
пробле@@ 7
скому 7
специ@@ 7
станов@@ 7
ством 7
ству@@ 7
тах 7
терито@@ 7
тно 7
уез@@ 7
установ@@ 7
уча@@ 7
фут@@ 7
хай@@ 7
ходи@@ 7
чат@@ 7
чело@@ 7
человека 7
чных 7
҂ 7
Ғ@@ 7
ҕ 7
ҥ 7
Ұ 7
ҹ@@ 7
Һ 7
ӕ 7
Ջ@@ 7
է 7
ֳ@@ 7
ם@@ 7
إن 7
ابن 7
احمد 7
اری 7
است 7
اك@@ 7
اما 7
اً 7
باب 7
بار@@ 7
بد 7
بع@@ 7
تح@@ 7
ترا@@ 7
ته 7
جا@@ 7
حر@@ 7
خو@@ 7
داد 7
دم 7
دن 7
ده 7
ران 7
ري 7
زر@@ 7
زيرة 7
سب@@ 7
ست 7
سم@@ 7
سو@@ 7
ضلع 7
ظ 7
عم@@ 7
فل@@ 7
قد 7
كي@@ 7
لال 7
لام 7
مش@@ 7
مط@@ 7
مق@@ 7
مين 7
نظام 7
نور 7
نور@@ 7
وادي 7
وار 7
يس 7
ّة 7
ٹ 7
پی@@ 7
څ@@ 7
ڈ@@ 7
ډ@@ 7
ړ@@ 7
ږ 7
ڠ 7
کے 7
گر@@ 7
یم 7
ޔ@@ 7
ंग 7
ंस 7
अ 7
अग 7
ओ@@ 7
कुमार 7
खा 7
गि@@ 7
घ 7
चित 7
जी 7
जु@@ 7
ञा@@ 7
ठी 7
तर 7
धा 7
धि@@ 7
नु@@ 7
पत 7
बु@@ 7
भूमि 7
मस 7
रु 7
वत 7
वन 7
विक 7
शन 7
शो@@ 7
सर 7
हन 7
শ 7
ূ@@ 7
ਖ@@ 7
ਲ 7
਼ 7
ੱ@@ 7
ધ@@ 7
உ@@ 7
ప@@ 7
ీ@@ 7
ూ@@ 7
ಡ 7
ಪ@@ 7
ಸ 7
ന 7
യ@@ 7
ല@@ 7
ු 7
ෝ@@ 7
ค 7
ธ@@ 7
พระ@@ 7
สา@@ 7
อบ@@ 7
าน@@ 7
เข@@ 7
༌ 7
ྷ 7
စ@@ 7
ဆ@@ 7
မ 7
အ@@ 7
ီ@@ 7
ွ@@ 7
ბ 7
დ 7
მ 7
ሊ@@ 7
ላ 7
ማ@@ 7
ሪ 7
ሳ 7
ና 7
ፍ@@ 7
። 7
ᐠ 7
ᐯ@@ 7
ᐱ@@ 7
ᑊ@@ 7
ᑐ@@ 7
ᒋ@@ 7
ᓈ@@ 7
ᓐ 7
ᖅ@@ 7
ᚂ@@ 7
ᚑ@@ 7
ᚕ 7
ᚱ 7
ᚾ 7
ᛋ@@ 7
ᛏ 7
ᛚ@@ 7
ᛞ 7
ᛟ 7
ᜃ 7
ᜅ 7
ដ 7
ᠳ@@ 7
ᴍ 7
ᵁ 7
ḋ@@ 7
Ḡ@@ 7
ḩ@@ 7
ḿ 7
Ṁ 7
Ṇ 7
ṡ@@ 7
ẗ 7
ầ@@ 7
ầy 7
ẫ@@ 7
ếp 7
ἂ@@ 7
ἥ@@ 7
Ἵ@@ 7
Ὁ 7
Ὄ@@ 7
Ὅ@@ 7
ᾶ 7
ῴ@@ 7
₺ 7
℮ 7
∠ 7
⊂ 7
⋯ 7
␣ 7
┘ 7
♈ 7
⚡ 7
➔ 7
ⰸ@@ 7
ⱨ@@ 7
ⲁ@@ 7
ⲙ@@ 7
ⲛ@@ 7
『 7
ず 7
せ 7
デ 7
バ 7
七 7
万 7
乘@@ 7
乱 7
乱@@ 7
亞@@ 7
亦@@ 7
今 7
仓 7
仔 7
伤@@ 7
供@@ 7
侦@@ 7
便@@ 7
促@@ 7
個@@ 7
假@@ 7
傑 7
儿 7
児 7
兒 7
冒@@ 7
冠@@ 7
凝@@ 7
処@@ 7
剧@@ 7
剪@@ 7
功 7
务 7
勞@@ 7
勢 7
勤 7
卜 7
厥 7
厳@@ 7
去 7
吐@@ 7
咏@@ 7
品 7
坛@@ 7
坝 7
垂@@ 7
壽 7
失@@ 7
夹@@ 7
奔@@ 7
奴@@ 7
妖@@ 7
姥@@ 7
娘 7
季 7
孫 7
宇 7
宛@@ 7
宜 7
宴@@ 7
宾 7
寝@@ 7
尋@@ 7
尖@@ 7
层@@ 7
屯 7
峡 7
崩@@ 7
巽@@ 7
帅@@ 7
常 7
序@@ 7
异@@ 7
弓@@ 7
弟 7
弥 7
弦 7
張 7
強@@ 7
從@@ 7
忍 7
恋 7
恒 7
惟 7
惠 7
愚@@ 7
戏 7
戚@@ 7
戰 7
扬@@ 7
抄 7
拔@@ 7
拝@@ 7
授 7
掛 7
播@@ 7
撮@@ 7
攻@@ 7
敖@@ 7
敷@@ 7
斯 7
显@@ 7
曰 7
朦@@ 7
杖@@ 7
杭@@ 7
板 7
架 7
桂 7
棠@@ 7
槃@@ 7
槐@@ 7
様@@ 7
橫@@ 7
檀@@ 7
欣 7
段 7
殷@@ 7
殺 7
毅 7
毎@@ 7
毒@@ 7
氷@@ 7
沁@@ 7
沃@@ 7
沽@@ 7
泊@@ 7
泗@@ 7
涯 7
深 7
渓@@ 7
渡 7
湄@@ 7
湘 7
湯 7
滅@@ 7
滕@@ 7
潇@@ 7
潭 7
濤 7
為 7
烽@@ 7
照 7
猴@@ 7
球 7
瑶@@ 7
產@@ 7
略 7
盤@@ 7
眉 7
看@@ 7
着 7
磯@@ 7
祁 7
禁@@ 7
禪@@ 7
穴 7
窯 7
童 7
笠@@ 7
算@@ 7
粉@@ 7
綠@@ 7
編@@ 7
縄@@ 7
罐 7
罗 7
翁@@ 7
耀@@ 7
而 7
聖 7
舊@@ 7
般@@ 7
芒@@ 7
荔@@ 7
荣 7
菅@@ 7
营 7
落 7
蓬@@ 7
蓮 7
蔚@@ 7
蛇 7
蟹 7
衍 7
褒@@ 7
襄@@ 7
設@@ 7
誓@@ 7
誕@@ 7
誠 7
謙@@ 7
话 7
说 7
谈@@ 7
谭@@ 7
豐 7
象 7
買@@ 7
賓@@ 7
賛@@ 7
贞@@ 7
费@@ 7
転@@ 7
輝 7
辭 7
運 7
邸 7
邹@@ 7
鄂@@ 7
鄧@@ 7
醫@@ 7
采 7
鉄 7
钢@@ 7
铢 7
错 7
閥 7
问 7
闸 7
阜@@ 7
険 7
隐@@ 7
隹 7
雁 7
震@@ 7
霧 7
霧@@ 7
順 7
顕@@ 7
餘@@ 7
饶@@ 7
駒@@ 7
骏 7
骨 7
魂@@ 7
鴨@@ 7
鸿@@ 7
麦 7
點@@ 7
鼎@@ 7
꞉ 7
ꦏ@@ 7
ꦠ@@ 7
건@@ 7
경 7
귀@@ 7
꽃@@ 7
내@@ 7
누@@ 7
니@@ 7
님@@ 7
단@@ 7
당@@ 7
독@@ 7
두@@ 7
드@@ 7
래@@ 7
려@@ 7
류@@ 7
메@@ 7
보 7
북@@ 7
브@@ 7
새@@ 7
식@@ 7
실@@ 7
씨@@ 7
야@@ 7
와 7
왕 7
왕@@ 7
저@@ 7
즈 7
초@@ 7
축@@ 7
출@@ 7
파@@ 7
프@@ 7
함@@ 7
홍@@ 7
황@@ 7
ﬅ 7
＊ 7
� 7
𝔣 7
Aprili 6
Aynı 6
akiwa 6
anisha 6
anlam@@ 6
asında 6
büyü@@ 6
bır@@ 6
carrera 6
comenzó 6
cùng 6
dével@@ 6
hóa 6
iyle 6
kazan@@ 6
lerinde 6
mét 6
ngay 6
pelí@@ 6
refu 6
sın@@ 6
thư 6
tuvo 6
términ@@ 6
tình 6
veya 6
wengi 6
wote 6
Ċ 6
Ď 6
Ģ 6
İngiliz 6
Ű@@ 6
Ŷ 6
Ɓ 6
ƈ 6
ƕ@@ 6
Ƙ 6
ƛ@@ 6
Ʈ 6
ướng 6
Ʋ 6
ǵ 6
Ȣ 6
Ȳ 6
Ɂ@@ 6
ɖ 6
ɟ 6
ɧ@@ 6
ɩ 6
ɶ@@ 6
ʝ 6
ʳ 6
ˆ 6
ˇ@@ 6
˙ 6
˦ 6
͏ 6
Αυ@@ 6
Γαλλ@@ 6
Γερμαν@@ 6
Ιν@@ 6
Ολυμπιακ@@ 6
άλι 6
άλλη 6
άρια 6
έλευ@@ 6
ίδι 6
ακό 6
ασίας 6
βουλευ@@ 6
γον@@ 6
γρα@@ 6
γυνα@@ 6
δημιουργ@@ 6
δρομ@@ 6
δύο 6
ειας 6
εκ 6
επίσ@@ 6
ετα@@ 6
ηματ@@ 6
ησης 6
θεση 6
θηκε 6
καδημ@@ 6
καλλ@@ 6
λάβ@@ 6
λειτουργ@@ 6
λιο 6
λο 6
μεγάλ@@ 6
νερ@@ 6
ορο@@ 6
οσπον@@ 6
πρώτος 6
ραφ@@ 6
συμ@@ 6
συμβ@@ 6
τικές 6
τιν@@ 6
φαλ@@ 6
φρά@@ 6
ψε 6
όλων 6
όρεια 6
ότι 6
ώνεται 6
ώσεις 6
ϝ 6
ϟ 6
ϱ 6
Ў 6
Џ 6
Но 6
Нор@@ 6
Он 6
Спо@@ 6
Фор@@ 6
андар@@ 6
арх@@ 6
бира@@ 6
брига@@ 6
важ@@ 6
вз@@ 6
вите 6
вместе 6
глав@@ 6
души 6
жена 6
жина 6
зако@@ 6
запа@@ 6
зва@@ 6
зо 6
информа@@ 6
ител 6
иту@@ 6
коле@@ 6
корпу@@ 6
креп@@ 6
лась 6
лист 6
лож@@ 6
мени@@ 6
мето@@ 6
мили@@ 6
мину@@ 6
моде@@ 6
назна@@ 6
нача@@ 6
нем 6
нима@@ 6
ният 6
нологи@@ 6
организации 6
освобо@@ 6
откры@@ 6
отно@@ 6
первый 6
пит@@ 6
подоб@@ 6
поч@@ 6
против 6
пси@@ 6
път 6
разде@@ 6
рата 6
рах 6
рите 6
рито@@ 6
сам 6
спек@@ 6
ства@@ 6
стве@@ 6
ство@@ 6
стей 6
стоя@@ 6
струк@@ 6
сч@@ 6
телевизи@@ 6
тически 6
тъ@@ 6
фильм 6
функ@@ 6
христи@@ 6
цеп@@ 6
чен 6
чень 6
четы@@ 6
числен@@ 6
шение 6
шла 6
эти@@ 6
ява 6
ята 6
ёл 6
џ 6
Ѡ 6
ҁ@@ 6
ґ 6
Ғ 6
Ң 6
Һ@@ 6
Ә 6
ӧ 6
ԑ 6
Ս 6
Ց@@ 6
Օ@@ 6
օ 6
֞ 6
֫ 6
آ 6
آزاد 6
أحمد 6
أس 6
أس@@ 6
أن 6
أي@@ 6
إل@@ 6
إلا 6
اب 6
اج@@ 6
ادر 6
ارا 6
اره 6
است@@ 6
اع@@ 6
الة 6
الدین 6
الز@@ 6
المع@@ 6
الملك 6
الوط@@ 6
انا 6
انية 6
با 6
بيل 6
بين 6
تر 6
تك@@ 6
تون@@ 6
تُ@@ 6
جد 6
خان@@ 6
خر@@ 6
دير 6
ذ 6
رج@@ 6
رين 6
زة 6
زيد 6
سط@@ 6
سلا@@ 6
سی 6
شی@@ 6
صر 6
ضاء 6
علی 6
عن@@ 6
كتاب 6
كر@@ 6
كو@@ 6
لف@@ 6
لن@@ 6
لي 6
مال 6
مز@@ 6
مسجد 6
مع 6
مل 6
ملی 6
مهورية 6
مین 6
نح@@ 6
ند 6
نظ@@ 6
هي 6
هي@@ 6
وز@@ 6
وية 6
يخ 6
يو 6
يُ@@ 6
ٹ@@ 6
ړ 6
ژ 6
ښ 6
ڠ@@ 6
کا 6
کھ@@ 6
کی@@ 6
ڪ@@ 6
ۆ@@ 6
یت 6
ܙ@@ 6
ܡ 6
ܲ@@ 6
ީ 6
ंग@@ 6
ंगा 6
अं@@ 6
अन 6
इन 6
कार 6
घा@@ 6
चंद 6
चक 6
चे 6
ठ 6
तत 6
दू@@ 6
देश 6
धि 6
नगर 6
नि 6
पि@@ 6
बी@@ 6
भारत 6
मंदिर 6
मध 6
मान@@ 6
यम 6
यान 6
यु@@ 6
रिया@@ 6
रीय 6
ळ 6
वास 6
शं@@ 6
सार 6
हर 6
ार 6
ित 6
िया 6
ीन 6
ঙ 6
ফ@@ 6
ব 6
ৃ@@ 6
ਚ@@ 6
ਿ 6
ગ@@ 6
ડ@@ 6
ય@@ 6
સ@@ 6
ି@@ 6
అ@@ 6
చ@@ 6
ట@@ 6
త@@ 6
బ@@ 6
ಣ@@ 6
അ@@ 6
ോ@@ 6
ඔ@@ 6
ණ@@ 6
ශ@@ 6
กา@@ 6
ขา@@ 6
ชา@@ 6
ชาติ 6
ณ 6
ณฑ@@ 6
ตร@@ 6
ผ@@ 6
ฟ@@ 6
ยู@@ 6
รร@@ 6
วน 6
ษ@@ 6
สิ@@ 6
อย@@ 6
ั@@ 6
ัน@@ 6
ำ@@ 6
ีย@@ 6
ื@@ 6
ุ 6
เต 6
เต@@ 6
เทศ@@ 6
เพ@@ 6
ຊ@@ 6
ດ@@ 6
ນ 6
ວ 6
ັ@@ 6
ཁ 6
ཉ@@ 6
ྙ@@ 6
ྟ 6
ྦ@@ 6
ྫ@@ 6
ခ@@ 6
ဝ@@ 6
ှ@@ 6
ლ 6
რ 6
ძ 6
ჭ@@ 6
ሥ@@ 6
ቢ@@ 6
ተ 6
ቱ 6
ታ 6
ነ 6
ከ@@ 6
ክ 6
ዊ 6
ዝ@@ 6
ያ 6
ዲ@@ 6
ጉ@@ 6
ፋ@@ 6
Ꭰ@@ 6
Ꭶ@@ 6
Ꭿ@@ 6
ᑕ@@ 6
ᒃ 6
ᒥ@@ 6
ᓄ@@ 6
ᓗ@@ 6
ᓱ@@ 6
ᓴ@@ 6
ᔑ@@ 6
ᚒ@@ 6
ᚔ 6
ᚺ 6
ᛆ@@ 6
ᛋ 6
ᜇ@@ 6
ᜌ 6
ខ@@ 6
ច 6
ថ 6
ᠮ@@ 6
ᵱ 6
ḃ 6
Ḍ 6
Ḟ 6
ḡ 6
Ḱ@@ 6
Ḵ 6
Ṃ 6
ṟ 6
Ṣ 6
Ṭ 6
ṿ@@ 6
Ẏ 6
Ấn 6
ấu 6
ẩu 6
ề 6
ỉ@@ 6
Ị@@ 6
ốn 6
ớ 6
ờ@@ 6
ợ@@ 6
ữa 6
Ỳ 6
ὂ@@ 6
Ὁ@@ 6
ὥ@@ 6
ὦ 6
ὦ@@ 6
Ὠ@@ 6
ᾰ 6
ᾰ@@ 6
ῇ@@ 6
⁸ 6
₦ 6
₫ 6
₴ 6
Ⅴ 6
Ⅵ 6
∘ 6
∝ 6
∩ 6
⑧ 6
═ 6
▽ 6
☩ 6
✓ 6
➨ 6
ⰶ@@ 6
ⱈ@@ 6
ⱌ@@ 6
ⲓ 6
ⲩ@@ 6
ⲱ@@ 6
ⵃ@@ 6
』 6
ず@@ 6
ぞ@@ 6
ば 6
ぱ@@ 6
ふ 6
む 6
ゃ 6
よ 6
ェ 6
ケ 6
ッ 6
ヌ@@ 6
ハ 6
パ 6
ㅅ 6
ㅇ 6
㎡ 6
上海 6
並@@ 6
中國 6
丽 6
乔@@ 6
乘 6
乳@@ 6
仰@@ 6
伸@@ 6
你@@ 6
侍@@ 6
侠@@ 6
価@@ 6
係 6
借@@ 6
偶@@ 6
傾@@ 6
僕@@ 6
僧 6
儀@@ 6
兄@@ 6
具 6
凯 6
则@@ 6
剛 6
加 6
印 6
压@@ 6
厢@@ 6
变 6
变@@ 6
叟 6
句 6
右 6
向 6
吟@@ 6
咸@@ 6
哀@@ 6
唯 6
唯@@ 6
問 6
喆 6
囉@@ 6
圃 6
地方 6
圳@@ 6
坚@@ 6
埔@@ 6
執@@ 6
堀@@ 6
塑@@ 6
塾@@ 6
契@@ 6
妓 6
妹 6
姉@@ 6
始 6
姜 6
姿 6
婆@@ 6
婷 6
实 6
宴 6
寫@@ 6
寻@@ 6
封 6
尋 6
尧@@ 6
尹 6
屍 6
屿@@ 6
岱@@ 6
左 6
差@@ 6
幸 6
幺 6
床 6
廃@@ 6
廊 6
廻@@ 6
弄@@ 6
彈@@ 6
律 6
徵@@ 6
念 6
慎@@ 6
慧 6
憲 6
懷@@ 6
懿@@ 6
戈 6
户@@ 6
扇 6
扇@@ 6
扎 6
押@@ 6
招@@ 6
拱@@ 6
捨@@ 6
援@@ 6
操 6
散@@ 6
斤 6
旭 6
旺 6
晶 6
暑@@ 6
曇@@ 6
曰@@ 6
有 6
服 6
札 6
权 6
果 6
枢@@ 6
枯@@ 6
染 6
根 6
桑 6
桜 6
梁 6
梦 6
棒 6
榆@@ 6
構 6
標@@ 6
樣@@ 6
此@@ 6
歸@@ 6
毓@@ 6
気 6
氣@@ 6
汗@@ 6
汴@@ 6
沙 6
沼 6
泾@@ 6
浩 6
涅@@ 6
液@@ 6
淳 6
淵 6
渠 6
溫@@ 6
漠@@ 6
潤@@ 6
澄 6
灌@@ 6
災@@ 6
炎 6
烈@@ 6
焉@@ 6
焼@@ 6
熙@@ 6
營@@ 6
爪 6
爿 6
牌 6
牙 6
牙@@ 6
狗 6
珠 6
珩 6
琼@@ 6
瑠@@ 6
瓷@@ 6
甘 6
甚@@ 6
生活 6
由 6
畑 6
發 6
皮 6
盆@@ 6
盧@@ 6
眉@@ 6
眞@@ 6
禪 6
禾 6
私 6
称@@ 6
稿@@ 6
穎 6
等 6
箋 6
箕@@ 6
箭 6
篠@@ 6
篤@@ 6
籠 6
粟@@ 6
粤@@ 6
粥@@ 6
精 6
紐 6
純 6
素 6
綿@@ 6
繪@@ 6
绛@@ 6
络 6
置@@ 6
羌 6
羲@@ 6
翼 6
耿@@ 6
聂@@ 6
股 6
胧@@ 6
脚@@ 6
膳@@ 6
舜@@ 6
艦@@ 6
艳@@ 6
芬@@ 6
芸 6
茨@@ 6
荆@@ 6
莉 6
菲@@ 6
萍 6
萧@@ 6
萩@@ 6
葬 6
蕭@@ 6
薇@@ 6
薫 6
藍@@ 6
虍 6
虞 6
蛮@@ 6
蝶@@ 6
蟠@@ 6
衆 6
补@@ 6
裏@@ 6
計 6
訳@@ 6
詹@@ 6
誓 6
請@@ 6
警 6
讯@@ 6
讲@@ 6
诚 6
诚@@ 6
话@@ 6
请@@ 6
贵 6
赋 6
赣@@ 6
足 6
踏@@ 6
身 6
轨@@ 6
转@@ 6
轮 6
辨@@ 6
还@@ 6
进 6
迪 6
迪@@ 6
述@@ 6
連 6
遂@@ 6
遍@@ 6
遣@@ 6
遵@@ 6
邪@@ 6
配@@ 6
酷@@ 6
量 6
釜@@ 6
録@@ 6
钧 6
閣@@ 6
闽@@ 6
队@@ 6
阮 6
除@@ 6
陰 6
隍@@ 6
雙@@ 6
離@@ 6
霍 6
靈 6
靶@@ 6
響@@ 6
頓@@ 6
額@@ 6
養 6
馔@@ 6
香港 6
鶏 6
鶏@@ 6
鸟 6
鹅@@ 6
鹿 6
麿 6
黨@@ 6
齊 6
齊@@ 6
간 6
광 6
내 6
닝 6
들 6
들@@ 6
름@@ 6
면 6
베@@ 6
별 6
병@@ 6
석 6
송 6
악 6
앙@@ 6
언@@ 6
역@@ 6
연 6
요 6
있@@ 6
조 6
죽@@ 6
첩 6
치 6
커@@ 6
코@@ 6
태 6
텔 6
향 6
효@@ 6
희@@ 6
ﬁ 6
＄ 6
𐌡 6
🏴 6
Ağustos 5
Chúng 5
Coğr@@ 5
Các 5
Devlet@@ 5
Kanisa 5
Sự 5
Xã 5
adamente 5
asyon@@ 5
aunti 5
açık@@ 5
başl@@ 5
bên 5
bất 5
chủ 5
cáo 5
cây 5
công 5
desarr@@ 5
diferentes 5
esinin 5
ezwa 5
febrero 5
giao 5
hayo 5
himu 5
indeki 5
ingine 5
keş@@ 5
larına 5
mkoa 5
mwa 5
müş@@ 5
mạng 5
người 5
nhà 5
nhân 5
niversit@@ 5
nombre@@ 5
notamment 5
phòng 5
programa 5
sự 5
takım 5
thanh 5
thế 5
tinh 5
tiền 5
trưởng 5
tâm 5
usieurs 5
vardır 5
zamani 5
 5
 5
ª@@ 5
ünya 5
ünün 5
đường 5
đế 5
địch 5
Ĕ 5
ıya 5
Ŋ@@ 5
Şubat 5
Ŧ 5
Ů 5
Ų 5
Ɩ 5
Ƨ 5
ƶ 5
Ǎ 5
ǭ 5
Ƿ@@ 5
ȉ@@ 5
ȏ@@ 5
ȩ 5
ʘ 5
ˉ 5
ˋ 5
ˍ 5
ˡ 5
̉ 5
̬ 5
͞ 5
Έλλην@@ 5
Εξ@@ 5
Ευρ@@ 5
Μάρ@@ 5
Σε 5
άλληλ@@ 5
άνθρω@@ 5
έρν@@ 5
ίες 5
αίσ@@ 5
ανου@@ 5
απλ@@ 5
ατο@@ 5
αυτο@@ 5
βάλλ@@ 5
βορ@@ 5
βρίσκ@@ 5
γνωστ@@ 5
γραμμα 5
δεύτερ@@ 5
δομ@@ 5
δού@@ 5
ελ 5
επί 5
επί@@ 5
ητή 5
ισμού 5
κάνει 5
καταστ@@ 5
μένα 5
μένο 5
μεγαλ@@ 5
μει@@ 5
μετά@@ 5
μετρ@@ 5
μονα@@ 5
οσφ@@ 5
πηγ@@ 5
πιο 5
πλευ@@ 5
πρώτη 5
πόλη 5
ριβ@@ 5
σον 5
συλλογ@@ 5
ταχ@@ 5
τημα 5
τουργ@@ 5
τραγ@@ 5
τσι 5
χρον@@ 5
ωματ@@ 5
ωνίας 5
ωνα 5
όλα 5
όλε@@ 5
όρε@@ 5
ότερ@@ 5
Ϙ 5
Ϛ 5
Ϝ@@ 5
ϝ@@ 5
ϵ@@ 5
Ϲ@@ 5
Ѓ 5
Љ 5
Њ 5
Бълга@@ 5
Дже@@ 5
Европа 5
Ита@@ 5
Фри@@ 5
анти@@ 5
была 5
вает 5
вали 5
вли@@ 5
гата 5
где 5
гене@@ 5
геро@@ 5
гли 5
година 5
годы 5
два@@ 5
двух 5
действи@@ 5
дение 5
деся@@ 5
дет 5
дет@@ 5
дире@@ 5
дней 5
долж@@ 5
европей@@ 5
её 5
женщи@@ 5
изда@@ 5
инте@@ 5
интер@@ 5
ителя 5
ито 5
йни 5
ками 5
ката@@ 5
контро@@ 5
края 5
логия 5
лосо@@ 5
лся 5
мно@@ 5
мощ@@ 5
настоя@@ 5
нд 5
него@@ 5
нови 5
ную 5
образование 5
общи@@ 5
обы@@ 5
один 5
ори@@ 5
основ@@ 5
партии 5
песни 5
пли@@ 5
пон@@ 5
посе@@ 5
прави@@ 5
пря@@ 5
пъл@@ 5
рана 5
рани 5
режи@@ 5
реки 5
самы@@ 5
сек@@ 5
сим@@ 5
сна@@ 5
стат@@ 5
ств@@ 5
ству 5
ствует 5
стър 5
сю@@ 5
тат 5
тел@@ 5
треб@@ 5
треш@@ 5
тря@@ 5
ферен@@ 5
филь@@ 5
финан@@ 5
фици@@ 5
части@@ 5
чего 5
чие 5
чис@@ 5
шие 5
ших 5
щения 5
ък 5
это 5
юще@@ 5
ющие 5
ённых 5
ѓ@@ 5
ѕ 5
ѝ 5
Ѣ 5
ѫ 5
Ѵ@@ 5
ҍ 5
Ґ@@ 5
ҡ@@ 5
Ү 5
Ұ@@ 5
Ӏ 5
ӗ@@ 5
ӣ@@ 5
Ԑ 5
Գ 5
Է@@ 5
Ծ@@ 5
Ճ@@ 5
Չ@@ 5
Ր@@ 5
գ 5
զ 5
պ 5
֚ 5
ֽ 5
ׇ@@ 5
؟ 5
ء 5
أص@@ 5
أُ@@ 5
ؤ 5
ائل 5
اتحاد 5
اخ@@ 5
ادة 5
اسم 5
البي@@ 5
الحر@@ 5
الحياة 5
الرا@@ 5
الرحمن 5
الض@@ 5
القر@@ 5
المغ@@ 5
الو@@ 5
الوطني 5
الي 5
اول@@ 5
بال 5
بح@@ 5
بش@@ 5
بغ@@ 5
ةً 5
تا@@ 5
تو@@ 5
جامعة 5
جي 5
حزب 5
حين 5
دو@@ 5
دية 5
ربي 5
زا 5
سا 5
سان 5
شري@@ 5
شی 5
صاح@@ 5
عش@@ 5
عين 5
فا 5
فار@@ 5
فاع 5
فت@@ 5
فی@@ 5
قط@@ 5
كر 5
كل@@ 5
لاح@@ 5
لار@@ 5
لم 5
مت 5
مس@@ 5
ملا@@ 5
موت 5
مور@@ 5
مون@@ 5
مُ@@ 5
نة 5
نس@@ 5
نش@@ 5
نف@@ 5
نى 5
واز 5
وال 5
والا 5
وسف 5
وط@@ 5
وف@@ 5
وق 5
ولا 5
ولاية 5
وه@@ 5
وی 5
يار 5
يك@@ 5
يون 5
ًا 5
ِّ@@ 5
ٓ 5
٢@@ 5
پاکستان 5
پش@@ 5
پو@@ 5
ڊ@@ 5
ڕ@@ 5
ھ 5
ہ@@ 5
یا 5
ە 5
ܕ 5
ܘ 5
ܥ 5
ܨ@@ 5
ފ@@ 5
ंद@@ 5
कल 5
कुछ 5
कै@@ 5
खु@@ 5
गौ@@ 5
चार 5
चु@@ 5
टा 5
डी 5
तरा@@ 5
तार 5
था@@ 5
थी 5
दक 5
धु@@ 5
नदी 5
नी@@ 5
ने 5
पड 5
पर 5
पार@@ 5
बर 5
बे@@ 5
भारतीय 5
भाषा 5
मृत 5
रण@@ 5
रह@@ 5
रात 5
रू 5
वार 5
विद 5
शरीर 5
शास 5
शी 5
हिन 5
ारा 5
ौ 5
খ 5
ছ@@ 5
ঠ@@ 5
ড@@ 5
ো 5
ਆ@@ 5
ਕ 5
ਵ@@ 5
ਸ 5
ੈ@@ 5
ક@@ 5
ણ@@ 5
ત 5
ી@@ 5
ુ@@ 5
ો@@ 5
୍ 5
ஏ 5
ஐ@@ 5
శ 5
ಅ@@ 5
ಆ@@ 5
ಟ 5
ಯ 5
ಶ@@ 5
ച@@ 5
ത 5
ര 5
േ@@ 5
ට 5
ෂ@@ 5
ස 5
กีฬา 5
ญ 5
ทร@@ 5
นาม 5
ป 5
ยา 5
ระ@@ 5
ราย 5
สะ@@ 5
สัง@@ 5
สุ@@ 5
หน@@ 5
อย 5
ะ 5
ิ@@ 5
ู 5
เม@@ 5
ให@@ 5
ທ@@ 5
ອ@@ 5
ົ@@ 5
ཇ@@ 5
ཨ 5
ྔ@@ 5
ྤ@@ 5
ྭ@@ 5
ྱ 5
တ 5
ီ 5
့ 5
Ⴀ@@ 5
Ⴁ 5
Ⴑ 5
გ 5
კ 5
ქ 5
ღ 5
ყ 5
ც 5
ჵ 5
ჷ 5
ሌ 5
ሮ@@ 5
ሱ 5
ሲ@@ 5
ሻ@@ 5
ቲ 5
ቶ 5
ቶ@@ 5
ኖ@@ 5
ኛ 5
ኩ@@ 5
ዊ@@ 5
ይ 5
ደ 5
ዴ@@ 5
ጎ@@ 5
ጣ@@ 5
ፌ@@ 5
Ꮧ 5
Ꮼ@@ 5
ᐟ@@ 5
ᑦ@@ 5
ᑫ@@ 5
ᑯ 5
ᒌ@@ 5
ᒪ@@ 5
ᓃ@@ 5
ᚊ@@ 5
ᚏ@@ 5
ᚭ@@ 5
ᚴ@@ 5
ᚼ 5
ᛅ 5
ᛒ 5
ᛘ@@ 5
᛫ 5
ᜇ 5
ᜑ@@ 5
ជ 5
ᠠ 5
ᠥ@@ 5
ᠨ@@ 5
ᠭ 5
ᠯ 5
ᠶ@@ 5
ᱤ 5
ᴀ 5
ḇ 5
Ḑ 5
Ḹ 5
ḹ 5
Ṝ 5
ẃ@@ 5
ẏ 5
Ẓ 5
ấp 5
ấy 5
ịch 5
ọi 5
ỏi 5
ợp 5
Ἥ@@ 5
ᾱ 5
ῃ@@ 5
῎ 5
ῠ@@ 5
⁂ 5
⁷ 5
₅ 5
₡ 5
ℕ@@ 5
ℚ 5
ↀ 5
⇝ 5
≲ 5
⊃ 5
④ 5
⑥ 5
Ⓐ 5
Ⓡ@@ 5
┤ 5
║ 5
╰ 5
☺ 5
☿ 5
⚰ 5
✕ 5
ⰰ 5
ⰳ@@ 5
ⱂ@@ 5
ⱜ@@ 5
ⲡ@@ 5
ⴵ 5
ⴶ@@ 5
ⴷ 5
ⴹ@@ 5
ⵎ 5
〰 5
が 5
ぎ@@ 5
だ 5
べ@@ 5
ゑ 5
を 5
ァ 5
セ 5
ゼ 5
レ 5
ㄨ@@ 5
享@@ 5
亻 5
仪 5
们@@ 5
伐@@ 5
众@@ 5
伟 5
伟@@ 5
伴@@ 5
佗 5
來 5
侍 5
候@@ 5
偉 5
偉@@ 5
儒 5
先 5
兒@@ 5
內 5
冀 5
冂 5
冤@@ 5
净@@ 5
几@@ 5
切 5
判@@ 5
剑 5
劃 5
励@@ 5
勸@@ 5
匡@@ 5
匯@@ 5
升 5
卓 5
卞@@ 5
占@@ 5
却@@ 5
叉@@ 5
叙@@ 5
启@@ 5
咄@@ 5
咸 5
哉 5
営 5
嘴@@ 5
嚴@@ 5
囊@@ 5
回 5
均@@ 5
坚 5
坛 5
埔 5
域 5
堅 5
堆 5
堰 5
塞 5
塞@@ 5
壁 5
壇@@ 5
壬 5
壶 5
奏@@ 5
奘 5
奮@@ 5
妃@@ 5
妇@@ 5
妻@@ 5
姓@@ 5
姫@@ 5
娜 5
娟 5
存 5
客 5
寂@@ 5
寒 5
察 5
射 5
将 5
尕@@ 5
尖 5
尺@@ 5
岐 5
峠 5
峯@@ 5
嶋@@ 5
嶺@@ 5
巻@@ 5
希 5
帖@@ 5
帯@@ 5
帳@@ 5
広 5
庇 5
弁 5
引 5
弾@@ 5
当 5
彥@@ 5
彰@@ 5
彳 5
徳 5
徹@@ 5
忘@@ 5
怪 5
恆@@ 5
息 5
悉@@ 5
悔 5
悠@@ 5
悰 5
懸@@ 5
或@@ 5
戰@@ 5
把@@ 5
投 5
拜@@ 5
指 5
挹@@ 5
換@@ 5
摆@@ 5
撃@@ 5
操@@ 5
敗@@ 5
數@@ 5
斉@@ 5
斐@@ 5
料 5
斧 5
既@@ 5
旬 5
昆 5
昇 5
晴 5
晶@@ 5
暖@@ 5
曾 5
朱 5
朽@@ 5
杀 5
李 5
杖 5
杯 5
极 5
析 5
枝 5
枫 5
栋 5
样@@ 5
桃 5
棍 5
棚@@ 5
楠 5
極 5
楷 5
楷@@ 5
榮@@ 5
権 5
欽@@ 5
歓@@ 5
歩 5
歷@@ 5
每 5
汕@@ 5
汤 5
汨@@ 5
沅@@ 5
沉@@ 5
沛@@ 5
沧@@ 5
沮@@ 5
沱@@ 5
泥 5
泽 5
洁 5
洼@@ 5
测 5
浪 5
润@@ 5
淨@@ 5
渋@@ 5
渔@@ 5
湊@@ 5
湟@@ 5
満 5
溝 5
溝@@ 5
滑@@ 5
滨 5
滴@@ 5
澤 5
瀧@@ 5
炕@@ 5
烟@@ 5
煙@@ 5
爭@@ 5
片 5
狄 5
狐@@ 5
獄 5
獄@@ 5
琅@@ 5
琵@@ 5
琶 5
瑟@@ 5
璃 5
璜 5
瓜 5
甜@@ 5
畠@@ 5
皓 5
監 5
眠@@ 5
矛@@ 5
矯@@ 5
码@@ 5
磐@@ 5
礁@@ 5
祠@@ 5
禁 5
禄@@ 5
禹 5
离@@ 5
禽@@ 5
种 5
租@@ 5
種 5
稽 5
究@@ 5
穿@@ 5
窟@@ 5
竜 5
端 5
算 5
箜@@ 5
箱 5
篆@@ 5
篇 5
篌 5
篮@@ 5
簡@@ 5
簪 5
粒@@ 5
紙@@ 5
絕@@ 5
絲 5
絲@@ 5
続@@ 5
约@@ 5
署@@ 5
翻@@ 5
耐@@ 5
聪 5
肀 5
肃 5
肇@@ 5
胜 5
胤 5
胥 5
臧 5
臨 5
臺 5
臼@@ 5
與 5
舉@@ 5
舍 5
舰@@ 5
舱 5
艮 5
节 5
芽 5
苏 5
莎@@ 5
莽@@ 5
菊 5
菱 5
菱@@ 5
葬@@ 5
葵 5
蒼@@ 5
蔓@@ 5
蔣@@ 5
蔬@@ 5
薄@@ 5
薔@@ 5
薬 5
虔 5
蜜 5
袖@@ 5
被 5
覆@@ 5
親 5
觀 5
訓@@ 5
認@@ 5
說@@ 5
讃@@ 5
谁@@ 5
豊 5
賈@@ 5
質@@ 5
贤 5
贸@@ 5
赓 5
赛 5
赤 5
赫 5
赫@@ 5
趾 5
跡@@ 5
載@@ 5
輝@@ 5
输@@ 5
退 5
适 5
选 5
透@@ 5
速 5
逢@@ 5
適 5
遷 5
選 5
邦 5
邪 5
郁 5
酋 5
釈 5
釋 5
釣@@ 5
鈞 5
鉢 5
鉴 5
錫 5
鍾@@ 5
鎌@@ 5
鏡 5
鐘 5
鑫 5
钟 5
铭 5
锋 5
锷 5
閑@@ 5
闲@@ 5
阝 5
限 5
険@@ 5
隋@@ 5
雀 5
雕@@ 5
難 5
霜 5
霜@@ 5
霸@@ 5
靜@@ 5
韻@@ 5
須 5
须@@ 5
顿@@ 5
颐 5
颖 5
餅 5
駅 5
騎@@ 5
驿@@ 5
魯@@ 5
鵜@@ 5
鸭@@ 5
鹫@@ 5
麟@@ 5
麵 5
黒 5
黙@@ 5
鼠 5
鼻 5
齡 5
龚@@ 5
ꝏ@@ 5
개 5
게 5
겨@@ 5
곡 5
길 5
꽃 5
남 5
네@@ 5
느@@ 5
더@@ 5
덕@@ 5
데@@ 5
디@@ 5
림@@ 5
매@@ 5
명 5
모 5
무 5
반@@ 5
분@@ 5
블@@ 5
설@@ 5
소 5
숙 5
순@@ 5
없@@ 5
예 5
운@@ 5
울 5
정 5
준 5
준@@ 5
창@@ 5
초 5
친@@ 5
크@@ 5
터 5
트 5
판@@ 5
행 5
혁@@ 5
후@@ 5
ﬂ 5
𝑭 5
𝒙 5
𝒜 5
🇮 5
󠁧 5
󠁿 5
acuerdo 4
alcanz@@ 4
başar@@ 4
bàn 4
báo 4
bằng 4
bộ 4
cung 4
cầu 4
cứu 4
destac@@ 4
doğr@@ 4
dış@@ 4
eció 4
especie 4
establec@@ 4
falme 4
genel 4
hariki 4
içer@@ 4
kaç@@ 4
khoa 4
kubwa 4
kwanza 4
kıs@@ 4
lanan 4
larının 4
lerle 4
leştir@@ 4
làng 4
lục 4
mayı 4
mbili 4
milioni 4
millî 4
muziki 4
máy 4
nghĩa 4
nhất 4
nombreux 4
phải 4
pués 4
quận 4
sẽ 4
thời 4
toàn 4
trận 4
vị 4
yêu 4
 4
 4
 4
 4
 4
çoc@@ 4
úng 4
Ĉ 4
đó 4
đến 4
đội 4
Ĭ 4
Ĭ@@ 4
İmparator@@ 4
ılır 4
Ń@@ 4
ŉ@@ 4
Ŗ@@ 4
Ŝ 4
ŧ 4
Ƃ 4
Ƈ 4
Ƒ 4
ƚ@@ 4
Ɲ 4
Ƥ 4
ƨ 4
Ƭ 4
Ư 4
ưới 4
ƴ 4
ǅ 4
ǥ 4
Ǧ 4
Ǩ 4
ǹ 4
ǹ@@ 4
Ǿ 4
ȩ@@ 4
Ʌ 4
Ɏ 4
ɝ 4
ɮ@@ 4
ɰ 4
ɱ 4
ɽ 4
ʙ@@ 4
ʤ 4
ʸ@@ 4
ʽ 4
ˋ@@ 4
ˍ@@ 4
˛ 4
̺ 4
ͥ 4
ͧ 4
ͫ 4
Αθή@@ 4
Αθήνα 4
Αν 4
Βεν@@ 4
Για 4
Θεσσαλ@@ 4
Με 4
Νο@@ 4
Ντ@@ 4
Ου@@ 4
Σου@@ 4
Στο 4
έμου 4
ήσει 4
ήχ@@ 4
ίδια 4
ίδιος 4
ΰ@@ 4
αδελφ@@ 4
αιτ@@ 4
ανθρ@@ 4
αντι 4
αντι@@ 4
αρμ@@ 4
γκ 4
γρά@@ 4
διάσ@@ 4
διατ@@ 4
διπλ@@ 4
δυν@@ 4
εδρ@@ 4
εδρος 4
εων 4
ημερ@@ 4
θω@@ 4
κάτω 4
καλύ@@ 4
κατο@@ 4
λίγ@@ 4
λλο 4
μάχη 4
μένοι 4
ματική 4
μητ@@ 4
μπουμ 4
ναν 4
ντ 4
οθέ@@ 4
ολο@@ 4
ομάδα 4
ουμε 4
οχή 4
πέν@@ 4
πέντε 4
πίσ@@ 4
παράδειγμα 4
περίοδο 4
προστ@@ 4
σεων 4
σκευ@@ 4
σταθμ@@ 4
στη@@ 4
στοιχ@@ 4
συγκ@@ 4
συμπ@@ 4
τέσσ@@ 4
τίου 4
ταινία 4
τευ@@ 4
τυπ@@ 4
υπερ@@ 4
χο 4
χωρίς 4
ψήφ@@ 4
Ϡ 4
ϩ@@ 4
Ϲ 4
Ї 4
Њ@@ 4
Ќ 4
Афри@@ 4
Дим@@ 4
От 4
Уи@@ 4
бил 4
брат 4
вдо@@ 4
вся@@ 4
дах 4
держа@@ 4
дол@@ 4
дома@@ 4
едо@@ 4
емы@@ 4
ено 4
жено 4
жет 4
живот 4
зада@@ 4
зон 4
има 4
импера@@ 4
инди@@ 4
ится 4
йския 4
йся 4
ким 4
клу@@ 4
ковод@@ 4
когда 4
концер@@ 4
которой 4
ктора 4
лага 4
лах 4
лено 4
мата 4
меда@@ 4
между 4
международ@@ 4
мож@@ 4
муж@@ 4
музи@@ 4
наи@@ 4
населе@@ 4
начи@@ 4
нием 4
ници@@ 4
ниями 4
ниях 4
нор@@ 4
ография 4
отли@@ 4
отноше@@ 4
переда@@ 4
печат@@ 4
поз@@ 4
пол 4
поле@@ 4
пос@@ 4
прави 4
право 4
праз@@ 4
пред 4
преда@@ 4
простра@@ 4
проце@@ 4
раст@@ 4
рез 4
руковод@@ 4
само 4
связи 4
седате@@ 4
сигур@@ 4
сили 4
скими 4
след 4
совета 4
сом 4
сра@@ 4
среди 4
стату@@ 4
ственно 4
стой@@ 4
страна 4
сце@@ 4
там 4
тся 4
турата 4
убий@@ 4
усло@@ 4
фил@@ 4
филосо@@ 4
француз@@ 4
хия 4
център 4
ците 4
църква 4
шим 4
широ@@ 4
ълга@@ 4
ъм 4
ься 4
ями 4
ѡ 4
ѵ 4
Ѹ@@ 4
ҍ@@ 4
Ґ 4
Җ@@ 4
ҡ 4
Ҥ 4
ҥ@@ 4
ҫ 4
ҳ 4
Ҷ@@ 4
ҷ 4
ӄ 4
Ӕ 4
ӥ@@ 4
Ӯ 4
ӱ 4
ӱ@@ 4
ԓ 4
Է 4
Ի 4
Հ 4
Ձ@@ 4
Փ@@ 4
ժ 4
ջ 4
֭ 4
ן@@ 4
أ 4
إي@@ 4
اة 4
اخت@@ 4
ارف 4
اسلام 4
اض@@ 4
افغ@@ 4
البح@@ 4
الحرب 4
الدي@@ 4
السع@@ 4
العل@@ 4
القدم 4
اللغة 4
المن@@ 4
اله@@ 4
اليوم 4
الی@@ 4
انگ@@ 4
اه 4
اِ@@ 4
اپ@@ 4
اں 4
باز 4
باش@@ 4
برو@@ 4
بہ@@ 4
بی 4
تاب 4
تل 4
ثم 4
جل@@ 4
جوا@@ 4
جي@@ 4
جی@@ 4
حی@@ 4
خدا 4
خوا@@ 4
دخ@@ 4
دُ@@ 4
رات 4
رار 4
رش@@ 4
رم 4
زی@@ 4
سك@@ 4
سلط@@ 4
سي 4
سپ@@ 4
شہ@@ 4
طر@@ 4
طق 4
طي 4
عب@@ 4
علوم 4
عي@@ 4
فا@@ 4
فارسی 4
فت 4
فرا@@ 4
فری@@ 4
قب@@ 4
قة 4
كان 4
كري@@ 4
كي 4
لات 4
لكرة 4
ليل 4
مؤ@@ 4
مبار@@ 4
مر 4
مض@@ 4
نادي 4
نار@@ 4
نان 4
ندر 4
نو 4
هد 4
وان 4
وب 4
وس 4
وقت 4
ولي@@ 4
وني 4
يات 4
يت 4
يت@@ 4
يران 4
يم@@ 4
ينا 4
يني 4
يها 4
يو@@ 4
ً 4
ڈی 4
ڑ 4
ږ@@ 4
گی 4
گی@@ 4
ۋ@@ 4
یہ 4
ۍ 4
ܰ@@ 4
ܼ@@ 4
ޢ@@ 4
ު 4
ޫ 4
߬ 4
ंब@@ 4
अक 4
अब 4
अम@@ 4
आज 4
आर 4
उत 4
उस 4
ऋ@@ 4
ए 4
कार@@ 4
कृत 4
को 4
गत 4
गां@@ 4
गी 4
ङ@@ 4
जग@@ 4
जन 4
जन@@ 4
जे 4
णी 4
तो@@ 4
थि@@ 4
दास 4
धन 4
नव@@ 4
नाम 4
निर 4
परि@@ 4
पहा@@ 4
पी 4
बाद 4
बो@@ 4
मर 4
मह@@ 4
मान 4
मिल 4
मुक 4
मे 4
यत 4
यार 4
यास 4
यो@@ 4
रदेश 4
रिया 4
रै@@ 4
रो@@ 4
लाल 4
ली@@ 4
लू 4
वंश 4
वल 4
वि 4
वी 4
शु@@ 4
षि@@ 4
सम 4
सर@@ 4
सी@@ 4
हा 4
हो 4
हो@@ 4
ारी 4
ूल 4
ोर 4
ফ 4
ৈ@@ 4
ਜ 4
ਬ 4
ਮ 4
ੂ 4
ੇ@@ 4
બ@@ 4
ભ@@ 4
લ@@ 4
ୀ 4
ஃ@@ 4
ஞ 4
ஹ 4
ோ 4
డ 4
య 4
ె@@ 4
ో@@ 4
ಇ@@ 4
ಒ@@ 4
ಚ@@ 4
ಟ@@ 4
ಷ@@ 4
ೊ@@ 4
ബ@@ 4
സ 4
ൻ 4
ർ 4
ට@@ 4
ධ@@ 4
භ@@ 4
คน 4
จิ@@ 4
ชั@@ 4
ซ@@ 4
ฐ 4
ดิ@@ 4
ติ@@ 4
ถ 4
นคร 4
บาง@@ 4
บุ@@ 4
มา@@ 4
มิ@@ 4
ลิ@@ 4
วัฒ@@ 4
วา@@ 4
ษ 4
ส 4
สม@@ 4
หา@@ 4
อุ@@ 4
ัย 4
เก 4
ใ@@ 4
ຍ@@ 4
ບ@@ 4
ປ@@ 4
ພ@@ 4
ຸ@@ 4
ཆ 4
ྲ 4
ླ 4
က 4
ထ@@ 4
ပ 4
၅@@ 4
ვ 4
ზ 4
თ 4
ჟ@@ 4
ტ 4
შ 4
ჩ 4
წ 4
ხ 4
ჯ 4
ჴ 4
ჶ@@ 4
჻ 4
ሀ@@ 4
ህ 4
ሐ@@ 4
ሕ@@ 4
ሞ@@ 4
ሰ 4
ሱ@@ 4
ሳ@@ 4
ሹ@@ 4
ቆ@@ 4
ቦ@@ 4
ቴ@@ 4
ኪ@@ 4
ው@@ 4
ዛ@@ 4
ጅ@@ 4
ጋ 4
ጠ@@ 4
ጢ@@ 4
ፀ@@ 4
ፍ 4
Ꭺ@@ 4
Ꮥ@@ 4
Ꮪ@@ 4
ᐎ@@ 4
ᐘ@@ 4
ᒧ 4
ᔪ@@ 4
ᖃ@@ 4
ᚃ@@ 4
ᚅ@@ 4
ᚓ@@ 4
ᚾ@@ 4
ᚿ 4
ᛖ 4
ᜅ@@ 4
ឋ@@ 4
ថ@@ 4
វ 4
អ 4
ៀ@@ 4
ះ 4
ᠡ 4
ᥒ@@ 4
ᱚ@@ 4
ᱨ@@ 4
ᴀ@@ 4
Ḏ 4
Ḡ 4
ṕ@@ 4
Ṙ 4
ṙ 4
ṝ 4
Ṯ 4
Ṳ 4
ṳ 4
ṵ@@ 4
Ẕ@@ 4
ẳng 4
ẻ@@ 4
Ẽ 4
ộ@@ 4
Ứ@@ 4
ửa 4
ỹ 4
ἒ@@ 4
ᾳ@@ 4
‖ 4
⁒ 4
⁡ 4
₠ 4
₣ 4
₧ 4
₿ 4
℟ 4
⅕ 4
Ⅶ 4
Ⅷ 4
Ⅽ@@ 4
↕ 4
∉ 4
∟ 4
≘ 4
⊢ 4
⋆ 4
⌗ 4
⌥ 4
⑤ 4
▒ 4
☯ 4
☰ 4
☽ 4
♄ 4
♌ 4
⚒ 4
✠ 4
✶ 4
⬤ 4
ⰵ 4
ⱏ 4
Ᵽ 4
Ɽ 4
ⱱ 4
Ⱳ 4
ⲉ 4
ⲕ@@ 4
ⲣ 4
ⲧ 4
ⲧ@@ 4
ⵅ@@ 4
ⵕ@@ 4
ⵚ@@ 4
⹀ 4
ぐ 4
び 4
べ 4
ほ 4
ぼ 4
ゆ 4
ゥ@@ 4
ォ@@ 4
ゴ 4
サ 4
ダ 4
ニ 4
ビ 4
ポ 4
ャ 4
丑@@ 4
专 4
丕@@ 4
丬 4
中央 4
举@@ 4
九 4
习@@ 4
买@@ 4
亂 4
了 4
亜 4
亠 4
亡 4
仔@@ 4
们 4
伎@@ 4
优@@ 4
但@@ 4
住 4
你 4
供 4
侵@@ 4
俗 4
俺@@ 4
倒@@ 4
倭@@ 4
偵@@ 4
傘@@ 4
储@@ 4
僊 4
充 4
兆 4
円 4
冫 4
准 4
凌 4
剃@@ 4
剑@@ 4
剣 4
劉 4
勃 4
勅@@ 4
勾@@ 4
医 4
升@@ 4
卑 4
卒@@ 4
单位 4
卩 4
危@@ 4
厄@@ 4
历 4
厉@@ 4
厦 4
叛@@ 4
召@@ 4
吃@@ 4
启 4
吴 4
吸@@ 4
咖@@ 4
咲 4
哈 4
哥@@ 4
唄@@ 4
啓 4
喬@@ 4
單@@ 4
嗣 4
嗣@@ 4
嘛@@ 4
四 4
国家 4
圭 4
圭@@ 4
圻 4
均 4
坎 4
坤 4
埋@@ 4
堅@@ 4
堺@@ 4
墀 4
墳 4
壇 4
壤@@ 4
奚@@ 4
奥 4
奸 4
妓@@ 4
姐 4
姒 4
姦 4
娛@@ 4
娲@@ 4
婆 4
媒@@ 4
孛@@ 4
孟 4
孩@@ 4
宀 4
容 4
寄@@ 4
寇 4
寛 4
寸@@ 4
將 4
尉@@ 4
導@@ 4
尘@@ 4
屄 4
履@@ 4
岑@@ 4
嵐 4
嵯@@ 4
巌@@ 4
巢@@ 4
巳@@ 4
巴 4
帆@@ 4
带@@ 4
幢 4
并 4
并@@ 4
廖@@ 4
廷 4
廼@@ 4
彩 4
彪 4
彬@@ 4
影 4
徽 4
忆 4
怕@@ 4
怖@@ 4
恃@@ 4
恩 4
悬@@ 4
惨@@ 4
愈 4
愈@@ 4
感 4
憶 4
懐@@ 4
懿 4
戎@@ 4
戒 4
戯@@ 4
戲@@ 4
所有 4
抒@@ 4
抜@@ 4
抽@@ 4
拒@@ 4
拭 4
拼@@ 4
拾@@ 4
挙 4
挙@@ 4
掛@@ 4
提 4
撃 4
撒@@ 4
撰@@ 4
攝@@ 4
改 4
敎@@ 4
教育 4
斤@@ 4
斬@@ 4
施 4
旅 4
昀 4
晚@@ 4
晩@@ 4
暂@@ 4
暉@@ 4
暦@@ 4
朔 4
束@@ 4
柏 4
查 4
栃@@ 4
标 4
梯 4
棄@@ 4
棒@@ 4
棱@@ 4
植 4
椒 4
楓@@ 4
楞@@ 4
橫 4
櫛@@ 4
權 4
止 4
步 4
歳@@ 4
残 4
毛 4
毫 4
氵 4
汀 4
汀@@ 4
沓@@ 4
没@@ 4
泊 4
注@@ 4
洁@@ 4
洱@@ 4
济 4
浴@@ 4
涟@@ 4
涪@@ 4
涯@@ 4
涵 4
混@@ 4
渊 4
渓 4
温 4
測@@ 4
游 4
準@@ 4
滋@@ 4
滝@@ 4
滦@@ 4
漂@@ 4
潔 4
潛@@ 4
潤 4
潼@@ 4
澧@@ 4
濂 4
濃 4
濮@@ 4
濱@@ 4
瀾@@ 4
灾@@ 4
烏 4
煤@@ 4
燃@@ 4
燧@@ 4
牆 4
特 4
状@@ 4
狄@@ 4
狐 4
狗@@ 4
狮 4
狼@@ 4
献 4
猷 4
獎 4
玫@@ 4
玻@@ 4
琉@@ 4
琪 4
瑜 4
瑰 4
環 4
瓚 4
瓜@@ 4
瓦 4
瓶@@ 4
电 4
畀 4
畔 4
疊@@ 4
病 4
症@@ 4
痕 4
療@@ 4
発 4
百 4
盆 4
盖@@ 4
盡 4
睡@@ 4
瞳 4
砖@@ 4
硫@@ 4
礻 4
祇@@ 4
祈@@ 4
祗 4
祺 4
禄 4
稚@@ 4
稻 4
穂 4
積@@ 4
笈 4
笑 4
筋@@ 4
筒@@ 4
箏 4
管 4
籍 4
籠@@ 4
类 4
粵@@ 4
糸 4
紋 4
紋@@ 4
紡@@ 4
絞 4
絞@@ 4
絡@@ 4
絶@@ 4
継@@ 4
綺@@ 4
緋@@ 4
緒@@ 4
練@@ 4
織 4
纥 4
约 4
纲 4
细@@ 4
结 4
绪@@ 4
维 4
缶 4
罪@@ 4
羞@@ 4
翬 4
耒 4
耷 4
聲@@ 4
肩@@ 4
育 4
胥@@ 4
胴 4
脫@@ 4
舆 4
舜 4
航 4
芜 4
芝 4
苹 4
茆@@ 4
茉@@ 4
茹@@ 4
荀@@ 4
荘@@ 4
荼@@ 4
莉@@ 4
莊 4
菁@@ 4
萬 4
萱 4
葵@@ 4
蒸@@ 4
蓄@@ 4
蓉@@ 4
蓋@@ 4
蔦@@ 4
薇 4
薪@@ 4
蘆@@ 4
處 4
虛@@ 4
虫@@ 4
蜀 4
蜂@@ 4
蝋@@ 4
蠡@@ 4
衙@@ 4
衤 4
表 4
袈@@ 4
袖 4
裁 4
裂@@ 4
討@@ 4
評 4
誘@@ 4
講 4
證@@ 4
讨@@ 4
讲 4
讽 4
设 4
诏@@ 4
诤 4
诺@@ 4
豸 4
貌 4
負@@ 4
貴 4
賽 4
賽@@ 4
贴 4
赵 4
趙 4
跨@@ 4
践@@ 4
蹄@@ 4
車站 4
軒@@ 4
軸 4
轉 4
轮@@ 4
辉@@ 4
辐@@ 4
辻@@ 4
込@@ 4
运 4
近 4
週@@ 4
逻@@ 4
遐@@ 4
遼@@ 4
還 4
邈 4
邕 4
邨@@ 4
邯@@ 4
邳 4
郵@@ 4
鄉@@ 4
酔@@ 4
釀@@ 4
鉱 4
鉴@@ 4
鋼@@ 4
鑾@@ 4
钦@@ 4
钵 4
铺 4
错@@ 4
閔@@ 4
閖@@ 4
闪@@ 4
闰 4
闵 4
闻@@ 4
阎@@ 4
阙@@ 4
阴 4
阵@@ 4
阶@@ 4
附@@ 4
际 4
陛@@ 4
陣 4
隊@@ 4
階 4
隶@@ 4
雜@@ 4
電 4
霄@@ 4
霆 4
霸 4
靖 4
非 4
靡 4
頁 4
預 4
頫 4
頼 4
颐@@ 4
飠 4
饣 4
饭 4
駱@@ 4
騒@@ 4
験 4
骥 4
髪@@ 4
魁 4
鯉@@ 4
鲁 4
鲍@@ 4
鲲@@ 4
鴻 4
鴻@@ 4
鵝@@ 4
鷲@@ 4
鸞@@ 4
鸟@@ 4
鸿 4
鹏@@ 4
鹤@@ 4
麒@@ 4
麴@@ 4
黃 4
默@@ 4
鼎 4
鼻@@ 4
齋 4
齿 4
꜀ 4
ꞑ@@ 4
ꟾ@@ 4
ꦴ@@ 4
각@@ 4
계 4
골@@ 4
군@@ 4
권@@ 4
그 4
근 4
글 4
날 4
날@@ 4
농@@ 4
니 4
더 4
든 4
등@@ 4
란@@ 4
래 4
령 4
령@@ 4
루 4
루@@ 4
린@@ 4
림 4
만 4
말@@ 4
망@@ 4
머@@ 4
며 4
발@@ 4
방 4
백 4
버@@ 4
법 4
복@@ 4
불 4
빅@@ 4
빈@@ 4
빛@@ 4
섬 4
실 4
쏘@@ 4
씨 4
악@@ 4
안 4
알@@ 4
업@@ 4
었@@ 4
열@@ 4
염@@ 4
온@@ 4
올@@ 4
외 4
용 4
용@@ 4
욱 4
웅@@ 4
위 4
유 4
재 4
쟁@@ 4
절@@ 4
차 4
체 4
추@@ 4
충@@ 4
카 4
키@@ 4
탄@@ 4
터@@ 4
톨@@ 4
티 4
티@@ 4
표 4
플@@ 4
항@@ 4
행@@ 4
형@@ 4
ﺥ 4
ﺮ@@ 4
ﺵ 4
ﺽ 4
Ｓ@@ 4
𐌰@@ 4
𐤏@@ 4
𐭯@@ 4
𝚫@@ 4
𝜇 4
𝜏 4
🅂 4
🇧 4
🇹 4
🏳 4
🏽 4
👈 4
👩 4
🔗 4
🜨 4
󠁢 4
Avru@@ 3
Coğrafya 3
Kiingereza 3
Makala 3
Rusya 3
Tangu 3
abilir 3
aynı 3
bọ 3
câu 3
cấp 3
cộng 3
dunia 3
dığı 3
dạng 3
eceğ@@ 3
equipo 3
giải 3
giống 3
hakkında 3
hoàng 3
hành 3
hình 3
hòa 3
ilikuwa 3
izaji 3
jerumani 3
kabul 3
karşı 3
kaskazini 3
kinh 3
kısa 3
kỳ 3
larla 3
larında 3
làm 3
lập 3
lực 3
mesini 3
mto 3
mwen@@ 3
một 3
như 3
này 3
núi 3
phần 3
phủ 3
sadece 3
sahip@@ 3
shule 3
sigui@@ 3
sắc 3
tamam@@ 3
tasar@@ 3
thấp 3
thờ 3
truyền 3
trường 3
tây 3
tính 3
títul@@ 3
tộc 3
uniani 3
vận 3
wakazi 3
watoto 3
 3
 3
álbum 3
üzere 3
đình 3
đô 3
đơn 3
đất 3
độc 3
đời 3
Ĕ@@ 3
Ĥ 3
ıkları 3
Ĳ 3
Ĵ@@ 3
Ĺ 3
ŉ 3
Ŏ 3
Ŕ 3
Ƅ 3
Ɖ 3
Ɵ 3
Ơ 3
ư@@ 3
Ǆ 3
ǆ 3
Ǉ 3
ǈ 3
Ǚ 3
ǭ@@ 3
Ǯ 3
Ǵ 3
Ƿ 3
ǿ 3
ȁ@@ 3
ȍ 3
ȗ@@ 3
Ȝ 3
Ȟ 3
Ƞ 3
ȫ@@ 3
ȭ@@ 3
Ȯ@@ 3
Ȼ 3
Ⱦ@@ 3
ɉ 3
Ɍ 3
ɳ 3
ɸ@@ 3
ɺ@@ 3
ʦ 3
ʺ 3
ˊ 3
˖ 3
ˤ 3
̋ 3
̐ 3
̢ 3
̵ 3
̻ 3
Έχ@@ 3
Αγγλ@@ 3
Εί@@ 3
Ολυμπ@@ 3
Πόλε@@ 3
Στην 3
έρνηση 3
έρχ@@ 3
έτος 3
ήθηκε 3
ίνο 3
αγώνα 3
αλλά 3
αναπ@@ 3
αση 3
γίν@@ 3
δική 3
ειες 3
εκατο@@ 3
εκλογές 3
εμπ@@ 3
θρη@@ 3
θυν@@ 3
ιδι@@ 3
ιστική 3
καν 3
κει@@ 3
κοινων@@ 3
λαδ@@ 3
λευτα@@ 3
μένες 3
μένου 3
μές 3
μέτρα 3
μπου@@ 3
μυθ@@ 3
ογέν@@ 3
οκα@@ 3
ουλίου 3
πάνω 3
πολιτική 3
πρόεδρος 3
ρίσκ@@ 3
ραση 3
ρισης 3
σημαν@@ 3
σπουδ@@ 3
συλλ@@ 3
τέλε@@ 3
ταθλ@@ 3
ταν 3
τιο 3
τούς 3
υπάρχει 3
υπέ@@ 3
χε 3
ψει 3
όταν 3
ότερη 3
ότητας 3
ότια 3
ϐ 3
ϙ 3
ϟ@@ 3
ϫ@@ 3
Ϻ 3
Ђ 3
Ї@@ 3
Ѝ 3
Германия 3
Дей@@ 3
Лон@@ 3
Основ@@ 3
Так@@ 3
Шве@@ 3
бря 3
был 3
вани 3
веро@@ 3
владе@@ 3
вото 3
вши@@ 3
вший 3
голям 3
дву@@ 3
дерев@@ 3
деревня 3
деятель@@ 3
дис@@ 3
дове 3
друго@@ 3
държав@@ 3
ези@@ 3
епи@@ 3
ещё 3
закон@@ 3
иде@@ 3
име 3
испан@@ 3
ию@@ 3
кви 3
кило@@ 3
кита@@ 3
ките 3
км 3
команд@@ 3
комп@@ 3
контра@@ 3
кръ@@ 3
кът 3
лага@@ 3
лния 3
март 3
материа@@ 3
меди@@ 3
мени 3
мента 3
меня@@ 3
меся@@ 3
мпи@@ 3
наб@@ 3
нали@@ 3
наме@@ 3
наре@@ 3
наслед@@ 3
наход@@ 3
началь@@ 3
нието 3
ностью 3
орга@@ 3
органи@@ 3
пет 3
плат@@ 3
пода@@ 3
пози@@ 3
после 3
преде@@ 3
представ@@ 3
прода@@ 3
простран@@ 3
птем@@ 3
рение 3
рите@@ 3
ряд@@ 3
своих 3
симво@@ 3
след@@ 3
смър@@ 3
сня@@ 3
совер@@ 3
состав 3
состоя@@ 3
ссии 3
става 3
стати@@ 3
стъп@@ 3
суще@@ 3
тек@@ 3
тем 3
типа 3
тит@@ 3
тол@@ 3
только 3
тради@@ 3
университе@@ 3
устрой@@ 3
фак@@ 3
фек@@ 3
форма 3
форма@@ 3
фри@@ 3
характе@@ 3
хер@@ 3
хора 3
циона@@ 3
части 3
чва 3
человек 3
шел 3
школ@@ 3
щер@@ 3
що 3
эта@@ 3
юг 3
юж@@ 3
ются 3
ющих 3
ѓ 3
Ѩ 3
ѫ@@ 3
Ѭ 3
Ѯ 3
ѳ@@ 3
Ҁ 3
Ҕ 3
җ 3
ҙ@@ 3
ҟ@@ 3
Ҡ 3
Ң@@ 3
Ҥ@@ 3
Ҫ 3
ҭ@@ 3
Ҳ 3
Ҽ 3
Ӟ 3
ӟ@@ 3
Ӣ 3
ӯ 3
ԓ@@ 3
Ԛ 3
Ԝ 3
Զ 3
Թ 3
Շ 3
Օ 3
Ֆ@@ 3
ը@@ 3
ճ 3
ռ 3
֮ 3
ֻ 3
װ 3
أش@@ 3
أل@@ 3
إذا 3
إلى 3
ئر 3
ئی 3
ابو 3
ابی 3
اج 3
ازی 3
اسي 3
اض 3
اط@@ 3
اع 3
اغ@@ 3
اف 3
اق 3
اك 3
الأولى 3
الإنس@@ 3
البر@@ 3
الث@@ 3
الجام@@ 3
الجز@@ 3
الجن@@ 3
الحزب 3
الري@@ 3
السلام 3
الطبي@@ 3
العظ@@ 3
الفر@@ 3
المد@@ 3
المست@@ 3
المص@@ 3
الوطنية 3
امة 3
امی@@ 3
انق@@ 3
اور 3
اور@@ 3
بعة 3
بند@@ 3
بو 3
بير 3
بين@@ 3
تاج 3
تار@@ 3
تد@@ 3
تص@@ 3
تع@@ 3
تل@@ 3
تن@@ 3
ته@@ 3
تور@@ 3
تون 3
جا 3
جار@@ 3
جمي@@ 3
جنا@@ 3
حسن 3
خت 3
خي@@ 3
دائ@@ 3
دود 3
دون@@ 3
ديد 3
دھ@@ 3
رائ@@ 3
راج 3
راد 3
رد 3
رسول 3
رض@@ 3
رف@@ 3
رو 3
روز@@ 3
زار 3
زند@@ 3
سان@@ 3
سة 3
ستانی 3
سرائ@@ 3
سما@@ 3
سید 3
سے 3
شار@@ 3
شام 3
شاہ 3
شن@@ 3
صة 3
صن@@ 3
طان 3
طن 3
ظهر 3
عائ@@ 3
عباس 3
عد 3
غة 3
فات 3
فري@@ 3
قد@@ 3
قص@@ 3
قي 3
قی 3
كا 3
كت@@ 3
كلي@@ 3
كن 3
لاب 3
لاد 3
لان 3
لق@@ 3
لن 3
لية 3
مؤس@@ 3
ماء 3
ماني 3
مب@@ 3
مد 3
مدر@@ 3
مس 3
معر@@ 3
مقرا@@ 3
مون 3
میں 3
ناصر 3
نام 3
نام@@ 3
ندی 3
نس 3
نم@@ 3
نو@@ 3
نڈ@@ 3
هار@@ 3
هة 3
وإ@@ 3
واحد 3
وار@@ 3
والم@@ 3
ودية 3
وز 3
وش@@ 3
وص@@ 3
وطن 3
وغ@@ 3
وك@@ 3
ولا@@ 3
ولي 3
ولی 3
وي 3
يف 3
١ 3
ټ 3
پری@@ 3
پنج@@ 3
ځ 3
ډ 3
ڌ@@ 3
ڑی 3
کار@@ 3
کت 3
کچھ 3
ګ 3
گر 3
ڼ 3
ہے 3
ید 3
یر 3
یون@@ 3
ے 3
ۥ 3
۱@@ 3
۶ 3
ܒ 3
ܗ 3
ܛ 3
ܩ 3
ޒ@@ 3
ޤ@@ 3
ޮ@@ 3
ߊ 3
ंगे 3
ंच@@ 3
ंड 3
ः@@ 3
अनु@@ 3
अप@@ 3
अभ@@ 3
अर 3
अर@@ 3
अल 3
अस 3
आत 3
इ 3
ऊ@@ 3
एक@@ 3
ऐ@@ 3
ओ 3
काम 3
काल@@ 3
कित 3
किया 3
की@@ 3
कृति 3
गम 3
चार@@ 3
चौ@@ 3
छा@@ 3
जो@@ 3
टे@@ 3
टो@@ 3
डा 3
डे@@ 3
तक 3
तान 3
ताल 3
ती@@ 3
तु 3
तै@@ 3
दर@@ 3
दार 3
दे 3
दो@@ 3
धा@@ 3
निया 3
पार 3
पुत 3
पुरा@@ 3
पुरु@@ 3
बच 3
बन 3
बी 3
भक 3
भर 3
भिक 3
मं@@ 3
मंड@@ 3
मत 3
मल 3
माण 3
मार@@ 3
माल 3
मुख 3
में 3
यन 3
यी 3
यू@@ 3
ये 3
ये@@ 3
रत 3
रमण 3
रान 3
रिय 3
रूप 3
रेन 3
रो 3
लग@@ 3
लन 3
लोक 3
वक 3
वाद 3
वान 3
वो 3
शत 3
षा 3
षा@@ 3
षि 3
षिण 3
संस 3
सप 3
सम@@ 3
से 3
सै@@ 3
हम@@ 3
ही@@ 3
हु@@ 3
हू@@ 3
हैं 3
ऽ@@ 3
िल 3
ुक 3
ौर 3
३ 3
ঁ 3
ও 3
ছ 3
ঝ@@ 3
ঢ 3
ঢ@@ 3
ণ 3
ধ 3
হ 3
ৰ@@ 3
ਂ 3
ਤ 3
ੋ@@ 3
ઇ@@ 3
ઈ 3
ચ@@ 3
જ 3
ଜ@@ 3
ଡ 3
ତ@@ 3
ନ@@ 3
ର@@ 3
ା 3
ା@@ 3
ஃ 3
ஐ 3
క 3
ట 3
భ@@ 3
శ@@ 3
స@@ 3
హ@@ 3
ీ 3
ಎ@@ 3
ಶ 3
ം@@ 3
എ@@ 3
ണ 3
മ 3
റ@@ 3
ല 3
ള 3
ഴ@@ 3
സ@@ 3
ീ@@ 3
െ@@ 3
ൊ@@ 3
ආ@@ 3
උ@@ 3
එ@@ 3
ණ 3
ඹ 3
ඹ@@ 3
ූ@@ 3
กร@@ 3
กรุง@@ 3
กอง@@ 3
การ 3
คุ@@ 3
งค@@ 3
ช 3
ฏ 3
ตน 3
ถ@@ 3
ทั@@ 3
บล 3
บั@@ 3
ผ 3
พร@@ 3
พันธ@@ 3
ฟุตบอล 3
ภู@@ 3
มหา@@ 3
มี@@ 3
ยน 3
ริ@@ 3
รี 3
ละ@@ 3
ลำ@@ 3
วง@@ 3
ศึกษา 3
สถา@@ 3
สว@@ 3
สิง@@ 3
หม@@ 3
หล@@ 3
หาร 3
อก@@ 3
อม@@ 3
อร 3
ฮ@@ 3
ัก@@ 3
ัน 3
ันท@@ 3
เจ@@ 3
เด@@ 3
เดีย@@ 3
เท@@ 3
เร@@ 3
เอ 3
เอ@@ 3
แดง 3
โล@@ 3
โลก 3
๋ 3
ສ 3
ສ@@ 3
ິ@@ 3
ໄ@@ 3
ྨ 3
စ 3
ဇ@@ 3
ဗ@@ 3
ဘ@@ 3
ယ@@ 3
ု 3
ူ@@ 3
ႇ 3
ႉ 3
Ⴏ 3
Ⴕ@@ 3
Ⴗ 3
Ⴜ 3
პ 3
ჟ 3
ჭ 3
ჰ 3
ჱ 3
ჶ 3
ሁ 3
ሎ 3
ሥ 3
ሲ 3
ሴ 3
ባ 3
ች 3
ኑ 3
ካ@@ 3
ዋ 3
ው 3
ዎ@@ 3
ዐ 3
ዕ 3
ዜ@@ 3
ዬ 3
ዱ@@ 3
ጌ@@ 3
ፈ 3
ፈ@@ 3
ፓ@@ 3
Ꭻ@@ 3
Ꭽ 3
Ꮕ@@ 3
Ꮵ@@ 3
ᐚ@@ 3
ᐟ 3
ᐡ 3
ᑌ@@ 3
ᑑ@@ 3
ᑮ@@ 3
ᒃ@@ 3
ᓕ@@ 3
ᓪ@@ 3
ᓰ@@ 3
ᕐ@@ 3
ᖏ@@ 3
ᚁ@@ 3
ᚉ 3
ᚋ 3
ᚌ@@ 3
ᚓ 3
ᚙ 3
ᚢ 3
ᚦ 3
ᚨ@@ 3
ᚷ 3
ᚹ 3
ᚻ 3
ᛒ@@ 3
ᜆ 3
ᜎ 3
ᜏ@@ 3
ណ 3
ភ 3
ភ@@ 3
ហ 3
ឱ 3
ៃ 3
ំ 3
ៈ 3
។ 3
ᠤ 3
ᠰ 3
ᥛ@@ 3
ᥫ@@ 3
ᥰ@@ 3
ᦱ 3
ᧈ 3
ᱟ@@ 3
ᱠ@@ 3
ᱤ@@ 3
ᴇ 3
ᴰ@@ 3
ᴶ 3
ᵉ 3
ᵉ@@ 3
ᵹ@@ 3
Ḅ 3
ḅ@@ 3
ḑ@@ 3
Ḧ 3
ḧ 3
Ḩ 3
Ḩ@@ 3
Ḳ 3
Ṃ@@ 3
Ṅ 3
Ṉ 3
Ṉ@@ 3
Ṋ 3
ṗ 3
Ṟ 3
ṡ 3
Ṱ 3
ṱ 3
ṹ@@ 3
ẁ 3
ẃ 3
Ẅ 3
Ẋ 3
Ẍ 3
ẍ 3
ẍ@@ 3
Ẕ 3
ẕ 3
ẗ@@ 3
ẟ 3
ấ 3
ấ@@ 3
ắn 3
Ị 3
ọa 3
ổng 3
Ụ 3
Ỵ 3
ỵ@@ 3
Ỷ 3
ἓ@@ 3
ἠ 3
ἥ 3
Ἡ 3
ὅ 3
ὗ 3
ὢ@@ 3
ὣ@@ 3
Ὦ@@ 3
ᾱ@@ 3
ῡ 3
‪ 3
‽ 3
₆ 3
₉ 3
ₑ 3
ℒ 3
℞ 3
℣ 3
ℤ@@ 3
℥ 3
Ⅎ 3
ℳ@@ 3
⅟ 3
Ⅸ 3
↩ 3
↺ 3
⇄ 3
⇐ 3
⇑ 3
∇ 3
∎ 3
∓ 3
≅ 3
≧ 3
≨ 3
⊨ 3
〈 3
〉 3
⎝ 3
⎯ 3
⑦ 3
Ⓚ 3
Ⓟ 3
Ⓡ 3
◆ 3
◯ 3
☢ 3
☷ 3
♉ 3
♊ 3
♋ 3
♍ 3
♎ 3
♏ 3
♐ 3
♑ 3
♒ 3
♓ 3
♧ 3
♲ 3
⚓ 3
❐ 3
ⰾ 3
ⰿ@@ 3
ⱅ 3
ⱞ@@ 3
Ⱪ 3
Ⱪ@@ 3
Ɑ 3
Ɱ 3
Ɒ 3
ⱴ 3
Ⲏ@@ 3
ⲏ@@ 3
ⲛ 3
Ⲟ@@ 3
ⲥ 3
ⲫ@@ 3
ⲱ 3
ⴓ 3
ⴹ 3
ⴾ@@ 3
ⵛ 3
ⵟ 3
ⵢ 3
ⵥ@@ 3
〔 3
〕 3
ぇ@@ 3
じ 3
ぜ 3
そ 3
ぞ 3
っ 3
ひ 3
ぽ@@ 3
ゝ@@ 3
ガ 3
ソ 3
ペ 3
ヤ 3
丈 3
丝 3
丞 3
临 3
么 3
乞@@ 3
乳 3
亀 3
亂@@ 3
于 3
亞 3
交 3
亲 3
亲@@ 3
亶@@ 3
人口 3
从 3
从@@ 3
以 3
件@@ 3
伊 3
伏 3
众 3
似@@ 3
何 3
佬@@ 3
例@@ 3
侗@@ 3
侠 3
俎 3
俵@@ 3
候 3
偏@@ 3
偕@@ 3
做@@ 3
傀@@ 3
傍@@ 3
傘 3
債@@ 3
僰@@ 3
允 3
充@@ 3
兜 3
兜@@ 3
入 3
兼 3
冉@@ 3
农 3
冢 3
冥@@ 3
冨@@ 3
冻@@ 3
凉 3
凰 3
凱@@ 3
凵 3
刂 3
刈 3
刑 3
列 3
判 3
別 3
券 3
刹 3
則 3
剌@@ 3
劍 3
努@@ 3
势@@ 3
勲@@ 3
勿@@ 3
匚 3
千 3
卢 3
卦@@ 3
卷@@ 3
卿 3
卿@@ 3
厚 3
厨@@ 3
参 3
取 3
受 3
叡@@ 3
可 3
台灣 3
叶 3
吏@@ 3
吳 3
吸 3
呉@@ 3
呢@@ 3
咏 3
啟@@ 3
啡 3
啤 3
啼@@ 3
喇@@ 3
喊 3
嚞 3
圉 3
圣 3
圩@@ 3
圳 3
坤@@ 3
埠 3
堆@@ 3
堤 3
堯 3
塊@@ 3
塵@@ 3
墅 3
増@@ 3
墟 3
墳@@ 3
壩 3
壮 3
壯 3
売 3
壶@@ 3
壺 3
央 3
奏 3
奧@@ 3
奪@@ 3
妃 3
妍@@ 3
妙 3
妫@@ 3
妾 3
妾@@ 3
姆 3
姚 3
姥 3
娃@@ 3
娄 3
娜@@ 3
娥 3
婁 3
婷@@ 3
媛 3
嫩@@ 3
嬴 3
嬴@@ 3
孙 3
孰@@ 3
完 3
宣 3
宪 3
宰 3
宰@@ 3
害 3
寇@@ 3
寓@@ 3
寮 3
导 3
對@@ 3
少 3
尘 3
尽 3
层 3
属 3
履 3
屿 3
岁 3
岗 3
岷@@ 3
崑 3
崑@@ 3
崗@@ 3
崙@@ 3
嵇@@ 3
嵩@@ 3
嶠 3
巛 3
巧@@ 3
已@@ 3
巷 3
巷@@ 3
帆 3
帕@@ 3
帘@@ 3
帥@@ 3
带 3
帽@@ 3
幻 3
幽 3
庵@@ 3
廊@@ 3
弓 3
弗@@ 3
弟@@ 3
弱@@ 3
弹 3
弼@@ 3
彈 3
归 3
归@@ 3
彭 3
彰 3
彻@@ 3
徐 3
徒@@ 3
従@@ 3
徴@@ 3
徵 3
徹 3
忌 3
忽@@ 3
忾 3
怀 3
怜@@ 3
恆 3
恨 3
悝 3
悼@@ 3
惣@@ 3
惹@@ 3
愁 3
愍@@ 3
愿@@ 3
態@@ 3
憑@@ 3
應 3
戀@@ 3
戒@@ 3
戯 3
戶@@ 3
托 3
扫@@ 3
抑@@ 3
披@@ 3
拖@@ 3
拙@@ 3
拭@@ 3
拾 3
挑 3
振 3
捕@@ 3
捷 3
授@@ 3
推 3
描@@ 3
握@@ 3
搞@@ 3
搶@@ 3
摂@@ 3
摄@@ 3
撇 3
撫@@ 3
攵 3
敎 3
敕@@ 3
敦 3
於 3
旨@@ 3
昂@@ 3
昉 3
映 3
昱 3
時間 3
晃 3
晏 3
晏@@ 3
晨 3
暁@@ 3
曆 3
曳@@ 3
替@@ 3
杏 3
杜 3
杨 3
枇@@ 3
枕 3
枕@@ 3
枚@@ 3
枡@@ 3
柔 3
柘@@ 3
柿@@ 3
栏@@ 3
栽 3
桓 3
桢 3
档@@ 3
梨 3
梯@@ 3
检@@ 3
棋 3
棣@@ 3
椎@@ 3
椰@@ 3
椿 3
椿@@ 3
楓 3
楚 3
楯@@ 3
榴@@ 3
樋 3
標 3
横 3
樺@@ 3
橘 3
橘@@ 3
檗@@ 3
權@@ 3
欒 3
欽 3
歯@@ 3
歳 3
殳 3
毅@@ 3
毋 3
氵@@ 3
氹@@ 3
汁 3
污@@ 3
汲@@ 3
汶@@ 3
沫@@ 3
泮 3
洒@@ 3
洛 3
洱 3
浴 3
涂@@ 3
消@@ 3
涞@@ 3
涧@@ 3
涵@@ 3
涼 3
涼@@ 3
涿@@ 3
淖@@ 3
淞@@ 3
済 3
渊@@ 3
渚@@ 3
渝@@ 3
渭 3
渾@@ 3
湛@@ 3
湿@@ 3
溜@@ 3
演 3
漕@@ 3
漱@@ 3
潞@@ 3
澜@@ 3
濕 3
濡@@ 3
瀑@@ 3
灘 3
灬 3
灵 3
灶@@ 3
炳@@ 3
烦@@ 3
烹@@ 3
焌 3
焔@@ 3
焕@@ 3
焱 3
煌@@ 3
煩@@ 3
熹@@ 3
燎@@ 3
燒@@ 3
燥 3
燮 3
爨@@ 3
爪@@ 3
爲@@ 3
爵@@ 3
牝@@ 3
犀@@ 3
状 3
狭@@ 3
猪 3
猴 3
獣@@ 3
玩@@ 3
玮 3
环 3
玲@@ 3
珂@@ 3
珊 3
珊@@ 3
珙@@ 3
珪 3
琰 3
瑕 3
瑗 3
瑛 3
瑟 3
璃@@ 3
瓮 3
瓶 3
甄@@ 3
甜 3
留 3
畜 3
畠 3
疆 3
疋 3
疑 3
疑@@ 3
疯@@ 3
疾 3
痕@@ 3
痛@@ 3
痞@@ 3
瘦@@ 3
皂@@ 3
皋@@ 3
盘 3
監@@ 3
盲 3
盾@@ 3
県 3
眠 3
睢@@ 3
睦 3
睦@@ 3
睿 3
瞿@@ 3
矛 3
矩@@ 3
砲 3
破 3
碗@@ 3
磊 3
磷@@ 3
礎@@ 3
祝 3
票 3
票@@ 3
祯 3
禧 3
禾@@ 3
稷 3
穀@@ 3
積 3
穹 3
窓@@ 3
窮@@ 3
竟 3
竺 3
竺@@ 3
笔 3
笙 3
第 3
笳 3
筒 3
答 3
答@@ 3
筠 3
箴@@ 3
篆 3
簡 3
粉 3
粋@@ 3
粥 3
糟@@ 3
糸@@ 3
紡 3
索 3
給@@ 3
続 3
網 3
網@@ 3
緑 3
緝 3
績@@ 3
纪 3
纯@@ 3
纺@@ 3
纽@@ 3
绅@@ 3
统 3
绸@@ 3
罕 3
罪 3
置 3
翠 3
耘 3
耶 3
耿 3
聘 3
聚 3
肅 3
肚@@ 3
肯@@ 3
胎@@ 3
胞@@ 3
脈 3
脉@@ 3
脊 3
脏 3
脚 3
脩 3
脱@@ 3
腰@@ 3
腳 3
腹@@ 3
膚@@ 3
膳 3
臭@@ 3
舫 3
舶@@ 3
芙@@ 3
芥@@ 3
芬 3
芮@@ 3
芷@@ 3
苌@@ 3
苍@@ 3
苕 3
苗 3
苻@@ 3
范 3
茗@@ 3
茸 3
茸@@ 3
荒 3
荘 3
莖@@ 3
莪@@ 3
莫 3
获@@ 3
菅 3
菟@@ 3
菲 3
萄 3
萍@@ 3
葛 3
葫@@ 3
蒲 3
蓟@@ 3
蔭 3
蔭@@ 3
蕃 3
蕃@@ 3
薫@@ 3
薰 3
藝 3
藪@@ 3
藻 3
蛙 3
蝌@@ 3
蝕@@ 3
蝦@@ 3
蝴@@ 3
融 3
螳@@ 3
蟜@@ 3
蠻@@ 3
衰 3
袁 3
袋@@ 3
被@@ 3
裏 3
裔 3
補@@ 3
裟@@ 3
裳 3
襄 3
規 3
規@@ 3
視 3
覚 3
覺 3
訶@@ 3
誉@@ 3
誌@@ 3
課@@ 3
謙 3
謹@@ 3
讀@@ 3
训 3
评@@ 3
词@@ 3
译@@ 3
诩 3
课@@ 3
谈 3
谿 3
豬@@ 3
貞 3
財 3
費@@ 3
賦@@ 3
質 3
賭@@ 3
贼 3
资 3
赉@@ 3
赖@@ 3
赞@@ 3
趣 3
跋@@ 3
跑@@ 3
跨 3
跳@@ 3
践 3
踊@@ 3
軌 3
軻 3
輔@@ 3
輿@@ 3
辅@@ 3
辖@@ 3
辞 3
辦@@ 3
边 3
辽 3
迅 3
迈@@ 3
连 3
述 3
迹 3
送 3
逓@@ 3
逝@@ 3
違@@ 3
邀@@ 3
邊 3
邛@@ 3
邠 3
邢@@ 3
郊 3
郞 3
郭 3
郴@@ 3
鄂 3
鄒@@ 3
酱 3
酸@@ 3
酿@@ 3
釋@@ 3
釜 3
釧@@ 3
鈍@@ 3
鈴 3
鈷@@ 3
銅 3
銭@@ 3
錄@@ 3
錐@@ 3
錬@@ 3
鍾 3
鑑@@ 3
鑓@@ 3
针 3
针@@ 3
钊 3
钦 3
钰@@ 3
锁@@ 3
锋@@ 3
锣 3
锺@@ 3
镈 3
镛@@ 3
镞 3
開 3
閤@@ 3
閭 3
關 3
闹@@ 3
闾 3
阪 3
陂@@ 3
陇@@ 3
陈 3
降@@ 3
陟 3
陪@@ 3
隠@@ 3
隨@@ 3
隱@@ 3
隸 3
雖@@ 3
離 3
雯 3
雯@@ 3
霄 3
霖 3
露 3
靜 3
靠@@ 3
靳 3
靴 3
鞠@@ 3
韋@@ 3
韦 3
韮@@ 3
韵 3
韶 3
響 3
領 3
顔 3
顯 3
领 3
颇@@ 3
频 3
颖@@ 3
飯 3
飽@@ 3
餌@@ 3
餐@@ 3
馥 3
馮@@ 3
駒 3
駝@@ 3
駿 3
騰@@ 3
驊 3
驢@@ 3
髡@@ 3
鬚@@ 3
鬥 3
鬲 3
鮑@@ 3
鯉 3
鱘@@ 3
鲟@@ 3
鳩@@ 3
鳴 3
鵞@@ 3
鶯 3
鷹 3
鷺@@ 3
鹊 3
鹤 3
鹽@@ 3
黴@@ 3
齋@@ 3
齒 3
龜@@ 3
龟@@ 3
ꆃ@@ 3
ꓽ 3
꙯ 3
ꜥ@@ 3
Ꜯ 3
ꝏ 3
Ꝗ 3
Ꭓ@@ 3
ꟾ 3
ꦕ@@ 3
ꦩ@@ 3
ꦫ@@ 3
ꦭ@@ 3
간@@ 3
감@@ 3
공 3
궁 3
궁@@ 3
극@@ 3
근@@ 3
김 3
낙@@ 3
난@@ 3
너 3
너@@ 3
넘 3
녀 3
녀@@ 3
노 3
놈 3
뉴@@ 3
달@@ 3
두 3
디 3
때@@ 3
락@@ 3
람 3
련@@ 3
록@@ 3
룡@@ 3
른 3
른@@ 3
릭@@ 3
막@@ 3
목@@ 3
물 3
밀@@ 3
받@@ 3
밤 3
밤@@ 3
버 3
범 3
빈 3
빼@@ 3
뽀@@ 3
삼 3
생 3
설 3
섬@@ 3
세 3
손@@ 3
순 3
술 3
슈@@ 3
슬@@ 3
습@@ 3
심 3
십@@ 3
써 3
애@@ 3
엔 3
엘@@ 3
온 3
워@@ 3
월 3
육 3
을@@ 3
잎@@ 3
저 3
적 3
절 3
점 3
족@@ 3
좋@@ 3
쩔@@ 3
처@@ 3
천 3
철 3
촌 3
타 3
탈@@ 3
탑 3
테@@ 3
파 3
팔@@ 3
편@@ 3
폭 3
풀@@ 3
함 3
합 3
헌@@ 3
형 3
혜 3
홍 3
환 3
흐@@ 3
히@@ 3
ﬀ 3
︢ 3
ﹳ 3
ﺱ 3
ﺹ 3
ﻱ 3
＆ 3
／ 3
Ａ@@ 3
ｰ@@ 3
𐍂@@ 3
𐤉@@ 3
𐭠@@ 3
𖬵 3
𝘀@@ 3
𝛄 3
𝛾 3
𝜈 3
𞤤@@ 3
𞤵@@ 3
🇨 3
🇫 3
🇬 3
🇱 3
🇸 3
🇻 3
🇿 3
🌈 3
👨 3
🖖 3
😂 3
󠁮 3
Birleş@@ 2
Japani 2
Julai 2
Kikuu 2
Mashariki 2
Mwaka 2
Ngày 2
Năm 2
Según 2
Sikukuu 2
ampiyon@@ 2
araştır@@ 2
bağl@@ 2
başka 2
belir@@ 2
binh 2
biên 2
bulun@@ 2
bản 2
chake 2
chân 2
chính 2
cách 2
còn 2
cửa 2
danh 2
debido 2
duğu 2
düşün@@ 2
dưới 2
ebilir 2
eonato 2
ezaji 2
giá 2
giả 2
giới 2
gái 2
gọi 2
habari 2
haribi 2
hiên 2
hậu 2
hữu 2
ikiwa 2
importantes 2
isinde 2
karş@@ 2
kişi 2
kıy@@ 2
lerinden 2
lạc 2
lấy 2
lễ 2
maana 2
miembro 2
miembros 2
môi 2
mặt 2
mọi 2
nghị 2
những 2
nào 2
nơi 2
ongozi 2
onjwa 2
ortaya 2
permet 2
phim 2
phá 2
pháp 2
phương 2
pueden 2
quyết 2
situé 2
située 2
sáng 2
sır@@ 2
tarihi 2
temporada 2
thuật 2
thương 2
thắng 2
tiến 2
tiểu 2
tương 2
tại 2
tập 2
tịch 2
tới 2
uliwa 2
usunda 2
uygul@@ 2
viên 2
vũ 2
với 2
yapıl@@ 2
yöne@@ 2
yüksek 2
 2
 2
ándose 2
çıkan 2
ödül@@ 2
öldür@@ 2
önce 2
ümüz@@ 2
Đây 2
điểm 2
đã 2
đạo 2
đảo 2
đấu 2
đề 2
đối 2
Ĥ@@ 2
Ĩ@@ 2
İng@@ 2
İtal@@ 2
ığında 2
Ŕ@@ 2
Ũ 2
Ŷ@@ 2
Ɓ@@ 2
ƅ 2
Ƌ 2
ƍ 2
Ɠ 2
Ɣ 2
ƕ 2
Ɨ 2
ƙ 2
ƙ@@ 2
Ɯ 2
ƞ 2
Ƣ@@ 2
ƣ 2
ƥ 2
ƨ@@ 2
Ʃ 2
ƭ 2
ưở@@ 2
Ƹ 2
Ƽ 2
ǉ 2
ǉ@@ 2
Ǌ 2
ǋ 2
ǌ 2
ǟ 2
ǡ@@ 2
Ǥ 2
ǩ 2
Ǫ 2
Ǯ@@ 2
ǯ 2
ǯ@@ 2
Ǽ 2
Ǿ@@ 2
ȃ 2
ȃ@@ 2
ȗ 2
ȣ 2
Ȥ 2
Ȧ 2
ȫ 2
Ȯ 2
ȯ 2
Ƀ 2
Ʉ 2
Ɉ 2
ɚ@@ 2
ɢ@@ 2
ɭ 2
ɰ@@ 2
ɸ 2
ɻ 2
ʄ 2
ʄ@@ 2
ʇ@@ 2
ʑ 2
ʟ@@ 2
ʣ 2
ˉ@@ 2
ˢ 2
̮ 2
̴ 2
̶ 2
̷ 2
̹ 2
͈ 2
͗ 2
͟ 2
͠ 2
ͦ 2
Ά 2
Ή 2
Από 2
Δεκ@@ 2
Ευρωπαϊκ@@ 2
Ευρώπη 2
Μπρ@@ 2
ΠΑ 2
Σεπτεμβρίου 2
άμεις 2
άνουν 2
άσεις 2
άσκ@@ 2
έγι@@ 2
έμβ@@ 2
έργο 2
έχει 2
ήματος 2
ήμερα 2
ήταν 2
ίδι@@ 2
αγων@@ 2
ανάπτυ@@ 2
ανή@@ 2
αποφ@@ 2
από@@ 2
αριθμ@@ 2
αρχι@@ 2
αυξ@@ 2
αυτό 2
βασιλιά 2
βιτς 2
γυναίκ@@ 2
διάφορ@@ 2
διαί@@ 2
διαφ@@ 2
διαφορ@@ 2
δολ@@ 2
εγκ@@ 2
ειο@@ 2
εκκλη@@ 2
εμφ@@ 2
ενεργ@@ 2
επικ@@ 2
ερα 2
ερμαν@@ 2
ευρ@@ 2
ζή@@ 2
ζε 2
ζει 2
ημάτων 2
ηρε@@ 2
ησαν 2
θήκ@@ 2
θεω@@ 2
θεωρ@@ 2
καλλι@@ 2
κατέ@@ 2
κατασκευ@@ 2
κυκλ@@ 2
κυρί@@ 2
λυμπ@@ 2
μέλος 2
μέρες 2
μέτρ@@ 2
μαζ@@ 2
μενα 2
μεταξύ 2
οδο 2
οθε@@ 2
οκρατ@@ 2
ονται 2
ουλευ@@ 2
ουνίου 2
οφορ@@ 2
οφόρ@@ 2
π.@@ 2
παιδιά 2
πατέρα 2
περιοχές 2
περισσ@@ 2
πολεμ@@ 2
πολιτι@@ 2
πραγματ@@ 2
προηγ@@ 2
προσωπ@@ 2
πρώ@@ 2
ροφορ@@ 2
σίες 2
σει 2
σταση 2
στασης 2
συγ@@ 2
σωτερ@@ 2
τές 2
τελευτα@@ 2
τηση 2
τμή@@ 2
τμήμα 2
τοιχ@@ 2
τορα 2
τραγούδ@@ 2
τρεις 2
τότε 2
υπουργ@@ 2
υπό 2
υργ@@ 2
χαμ@@ 2
χαρακ@@ 2
χιλι@@ 2
ωσης 2
ωτερ@@ 2
όνο 2
όνομα 2
όπως 2
ότε 2
ώνες 2
ϒ 2
ϡ 2
ϡ@@ 2
Ϭ 2
ϲ@@ 2
ϴ 2
Ϸ 2
ϸ 2
ϻ 2
Ѕ@@ 2
Герма@@ 2
Гър@@ 2
Джо@@ 2
Испа@@ 2
Те 2
Фридри@@ 2
Это 2
Южна 2
Япо@@ 2
авгу@@ 2
актив@@ 2
анали@@ 2
бата 2
более 2
бре 2
бър@@ 2
ването 2
варя 2
верх@@ 2
вил 2
вле@@ 2
влия@@ 2
вру@@ 2
все 2
вше@@ 2
вър@@ 2
выпу@@ 2
герман@@ 2
гим@@ 2
гло@@ 2
годи@@ 2
години 2
году 2
голе@@ 2
готов@@ 2
гръ@@ 2
декабря 2
дени 2
дера@@ 2
дипло@@ 2
дите 2
дой 2
доку@@ 2
дости@@ 2
другие 2
един 2
една 2
жении 2
жил 2
зави@@ 2
зани 2
зыва@@ 2
извест@@ 2
изпъл@@ 2
испо@@ 2
ителем 2
ителите 2
ително 2
йската 2
казате@@ 2
как@@ 2
като@@ 2
кнове@@ 2
ког@@ 2
кора@@ 2
которые 2
край@@ 2
круп@@ 2
към 2
лени 2
лиза 2
лись 2
лите 2
лите@@ 2
литератур@@ 2
лните 2
льным 2
лями 2
места 2
место 2
мно 2
многи@@ 2
много 2
нари@@ 2
населения 2
нея 2
ните@@ 2
ниците 2
нията 2
ността 2
общ@@ 2
одно@@ 2
октября 2
опреде@@ 2
осно@@ 2
остав@@ 2
период 2
писи 2
получа@@ 2
помощ@@ 2
послед@@ 2
постро@@ 2
поя@@ 2
правитель@@ 2
предло@@ 2
програ@@ 2
програм@@ 2
продол@@ 2
продук@@ 2
произ@@ 2
против@@ 2
работа@@ 2
работи 2
работы 2
районе 2
расте@@ 2
регион 2
реша@@ 2
рът 2
себя 2
сент@@ 2
сии 2
случа@@ 2
соз@@ 2
специали@@ 2
ссе@@ 2
ството 2
стен 2
сут@@ 2
така 2
тата 2
творче@@ 2
тези 2
террито@@ 2
тил 2
тира 2
тных 2
тому 2
тото 2
тта 2
убе@@ 2
уже 2
упо@@ 2
уров@@ 2
фли@@ 2
ходит 2
цата 2
цел 2
цию 2
часть 2
чето 2
числе@@ 2
чната 2
чни 2
шли 2
щата 2
щё 2
этот 2
юго@@ 2
ющего 2
ющи@@ 2
января 2
Ѣ@@ 2
ѯ 2
Ѱ 2
ѱ@@ 2
Ѹ 2
ҁ 2
҄ 2
Ҋ 2
ҋ 2
ҏ 2
Ҕ@@ 2
ҕ@@ 2
Җ 2
җ@@ 2
Ҟ 2
Ҧ 2
Ҫ@@ 2
Ҭ 2
ҭ 2
ұ 2
Ҷ 2
Ӂ 2
Ӄ 2
ӆ 2
ӈ 2
Ӊ 2
ӊ 2
ӎ 2
ӑ@@ 2
Ӓ 2
ӓ 2
ӛ 2
Ӝ 2
ӝ 2
ӟ 2
ӡ 2
Ӥ 2
Ӧ 2
Ӭ 2
ӭ 2
Ӱ 2
Ӵ 2
ӵ 2
ӵ@@ 2
ӷ@@ 2
ӹ 2
Ӽ 2
Ԓ@@ 2
Ը 2
Ը@@ 2
Լ 2
Ղ 2
Ն 2
Ո 2
Ջ 2
Ռ 2
Վ 2
Տ 2
Ր 2
Ց 2
Ւ 2
Ւ@@ 2
Ք 2
Ֆ 2
՛ 2
փ 2
ֆ 2
֓ 2
֘ 2
֝ 2
֡ 2
֬ 2
ֿ 2
ײ 2
آبادی 2
آخر 2
آر@@ 2
آغ@@ 2
أح@@ 2
أخ@@ 2
أر@@ 2
أه@@ 2
إقليم 2
ائم 2
ائی 2
ابة 2
ادی 2
ارات 2
ارب 2
ارت 2
اردو 2
اري 2
اسی 2
اص 2
اضي 2
اعة 2
الأح@@ 2
الأس@@ 2
الإم@@ 2
الات@@ 2
الاح@@ 2
الاقوامی 2
الان@@ 2
البا@@ 2
البل@@ 2
الجيش 2
الدولة 2
الذ@@ 2
الرح@@ 2
الرو@@ 2
الشر@@ 2
الشرق@@ 2
الصح@@ 2
العالم 2
العالمية 2
الفل@@ 2
المج@@ 2
المدينة 2
المس@@ 2
المق@@ 2
النا@@ 2
النف@@ 2
الی 2
امات 2
امل 2
امیر 2
امین 2
انج@@ 2
اہ@@ 2
این 2
باب@@ 2
بات@@ 2
باد@@ 2
بار 2
باع@@ 2
بان@@ 2
بخ@@ 2
بص@@ 2
بط@@ 2
بع 2
بلا 2
بول@@ 2
بھ@@ 2
بیر 2
تج@@ 2
تس@@ 2
جام@@ 2
جان@@ 2
جة 2
جر@@ 2
جز@@ 2
جل 2
جم 2
جم@@ 2
جمع 2
جنة 2
جو 2
جہ@@ 2
جی 2
حة 2
حت@@ 2
حد@@ 2
حس@@ 2
حل 2
حل@@ 2
حية 2
خات@@ 2
خال@@ 2
دار 2
دارة 2
داری 2
دد 2
درا@@ 2
دف@@ 2
دها 2
دون 2
ديدة 2
دًا 2
دین 2
ذر@@ 2
ذي 2
رئيس 2
راب 2
ربة 2
ربية 2
رت 2
رح@@ 2
رس@@ 2
رض 2
رير 2
رہ 2
ریز 2
زب@@ 2
زم 2
زوج@@ 2
زیر 2
سات 2
سب 2
ستخدم 2
سری 2
سلسل@@ 2
سلطان 2
سور@@ 2
سون@@ 2
سيا 2
سية 2
سک@@ 2
شت 2
شن 2
صدر 2
صف 2
ضع 2
طة 2
طف@@ 2
ظم 2
ظه@@ 2
عالم 2
عام 2
عت 2
عر@@ 2
عرا@@ 2
عص@@ 2
عل 2
علم 2
عم 2
عن 2
عه 2
عی@@ 2
غر@@ 2
غلام 2
غيرة 2
فاق 2
فتح 2
فرو@@ 2
فض@@ 2
فق@@ 2
فلسط@@ 2
فور@@ 2
فی 2
قاع@@ 2
قانون 2
قسم 2
قية 2
قی@@ 2
كث@@ 2
كن@@ 2
كور@@ 2
لاح 2
لاہور 2
لب 2
لت@@ 2
لش@@ 2
لو 2
لوب 2
ليس 2
ماب@@ 2
ماس@@ 2
مال@@ 2
مت@@ 2
متح@@ 2
متع@@ 2
مجلس 2
مخ@@ 2
مخت@@ 2
مدد 2
مدينة 2
مذ@@ 2
مرح@@ 2
مز 2
مغ@@ 2
مك@@ 2
مہ 2
ناء 2
نان@@ 2
نحو 2
نص@@ 2
نط@@ 2
نية 2
نين 2
نگ 2
نہ 2
نے 2
هذا 2
هو 2
هٔ 2
وأ@@ 2
واح@@ 2
والی 2
وان@@ 2
وث@@ 2
وح@@ 2
وخ@@ 2
ورا@@ 2
وري 2
وري@@ 2
ورية 2
وسی 2
وض@@ 2
وع 2
وع@@ 2
وله 2
وما 2
ونا 2
ونی 2
وّ@@ 2
يخ@@ 2
يز@@ 2
يع@@ 2
يق@@ 2
ينة 2
يه@@ 2
يوم 2
يون@@ 2
ٌ@@ 2
ٓ@@ 2
٠ 2
٠@@ 2
٣@@ 2
٤ 2
٧ 2
٨ 2
٩ 2
ٹا 2
ٹھ@@ 2
پاک@@ 2
پرو@@ 2
پور@@ 2
پوری 2
ڄ@@ 2
څ 2
چی@@ 2
ڈ 2
ژن 2
کان@@ 2
کتاب 2
کری@@ 2
کش@@ 2
کشمیر 2
کل@@ 2
کم 2
کن 2
کون@@ 2
کہ 2
ڬ@@ 2
گا 2
گو@@ 2
گھر 2
ڵ@@ 2
ں 2
ں@@ 2
ڼ@@ 2
ھی 2
ہا@@ 2
ہار 2
ہار@@ 2
ہر@@ 2
ۆ 2
یار 2
یو 2
یں 2
ے@@ 2
۝ 2
۬ 2
۲@@ 2
۳ 2
ܓ 2
ܔ@@ 2
ܙ 2
ܜ@@ 2
ܟ 2
ܦ 2
ܬ 2
ܶ@@ 2
ܺ@@ 2
ܼ 2
݂ 2
ޅ@@ 2
ޖ@@ 2
ޝ@@ 2
ޯ@@ 2
ंत 2
अग@@ 2
अभि@@ 2
आ 2
आन 2
इंड@@ 2
उद 2
उपा@@ 2
उर 2
ऊ 2
ऌ 2
ए@@ 2
ऑफ 2
कम 2
करण 2
कास 2
कू@@ 2
कॉ@@ 2
कोर 2
कौ@@ 2
खण 2
खा@@ 2
खे@@ 2
गति 2
गया 2
गल 2
चा 2
चाह@@ 2
चे@@ 2
जब 2
जय@@ 2
जल 2
जाति 2
जाने 2
जीत 2
जोड 2
टक 2
टन 2
टर 2
टी@@ 2
ठा 2
ठा@@ 2
डर 2
डल 2
डी@@ 2
डॉ@@ 2
ढ 2
ढ@@ 2
णि@@ 2
तः 2
तर@@ 2
तीस@@ 2
तृ@@ 2
तो 2
था 2
दस 2
दिर 2
धार 2
धार@@ 2
नक 2
नर 2
नाग@@ 2
नात 2
निक 2
नै@@ 2
नौ@@ 2
पक 2
पट@@ 2
पति 2
पद 2
पा 2
पृथ 2
पो@@ 2
बं@@ 2
बड 2
बन@@ 2
बहु@@ 2
बे 2
भग@@ 2
भा 2
भाई 2
भि@@ 2
भे@@ 2
भौ@@ 2
मद 2
मद@@ 2
मुद 2
यर 2
यालय 2
योग@@ 2
यौ@@ 2
रं@@ 2
रख@@ 2
रत@@ 2
रति 2
रति@@ 2
रन 2
रम@@ 2
रवा@@ 2
रस 2
रिक 2
रिय@@ 2
रू@@ 2
रेस 2
लम 2
लय 2
लिय@@ 2
वन@@ 2
वरी 2
वाल 2
वाले 2
विज 2
शक 2
शर 2
शिक 2
शिष 2
शी@@ 2
षित 2
षे@@ 2
संग 2
संघ 2
सक@@ 2
समा@@ 2
सह@@ 2
सां@@ 2
सिं@@ 2
सिक 2
सिद 2
सूर 2
हस 2
हिं@@ 2
है@@ 2
िय@@ 2
िया@@ 2
ै 2
ै@@ 2
ौद 2
ॠ 2
ॡ 2
ং 2
অ 2
ঌ 2
গ 2
ঘ 2
চ 2
থ 2
থ@@ 2
ৌ@@ 2
ৠ 2
ৡ 2
ৰ 2
ਇ@@ 2
ਉ 2
ਏ 2
ਖ 2
ਘ 2
ਟ 2
ਟ@@ 2
ਡ 2
ਣ 2
ਧ@@ 2
ਨ 2
ਪ 2
ਫ@@ 2
ਵ 2
ੇ 2
ੌ@@ 2
ੜ@@ 2
੧ 2
ੰ 2
ੴ 2
ઝ@@ 2
ટ 2
ઠ@@ 2
ડ 2
ણ 2
ન 2
ય 2
લ 2
ળ 2
ળ@@ 2
ૂ 2
ૂ@@ 2
ૃ 2
ૈ@@ 2
ો 2
ଇ@@ 2
ଖ@@ 2
ଙ 2
ଦ 2
ଦ@@ 2
ବ@@ 2
ଳ 2
ଳ@@ 2
଼ 2
அ 2
ஆ 2
ஒ@@ 2
ஶ 2
ఇ@@ 2
ఖ@@ 2
జ 2
డ@@ 2
త 2
ద 2
న 2
మ 2
య@@ 2
ళ@@ 2
ష 2
ొ@@ 2
ಂ 2
ಈ 2
ಉ@@ 2
ಌ 2
ಗ 2
ಘ@@ 2
ಚ 2
ಥ@@ 2
ಪ 2
ಱ 2
ಷ 2
ೂ 2
ೃ@@ 2
ೇ 2
ೠ 2
[...]
