۔ 1
کے 1
میں 1
، 1
کی 1
ہے 1
اور 1
سے 1
کا 1
نے 1
اس 1
پر 1
کو 1
ایک 1
ان 1
ہیں 1
ک@@ 1
س@@ 1
) 0.9549973922572265
( 0.9357230415895048
یہ 1
ہ 1
. 0.16682629007290847
پ@@ 1
جو 1
وں 1
ی@@ 1
و 1
م@@ 1
ن@@ 1
کہ 1
کیا 1
ہ@@ 1
ی 1
گ@@ 1
ے 1
ر@@ 1
ش@@ 1
و@@ 1
تھا 1
ب@@ 1
&quot; 0.3503277820037396
ل@@ 1
واقع 1
کر 1
ز@@ 1
بھی 1
یا 1
ک 1
آ@@ 1
ا 1
چ@@ 1
ح@@ 1
ت 1
می@@ 1
ان@@ 1
ای@@ 1
د@@ 1
وہ 1
ڈ@@ 1
ر 1
ل 1
ری@@ 1
س 1
تھے 1
بی@@ 1
ٹ@@ 1
@-@ 0.416498620991739
ٹ 1
ع@@ 1
ا@@ 1
ج@@ 1
ت@@ 1
رو@@ 1
لیے 1
ف@@ 1
گیا 1
ز 1
خ@@ 1
لی@@ 1
را@@ 1
د 1
م 1
سی@@ 1
ار@@ 1
بعد 1
پی@@ 1
کی@@ 1
ق@@ 1
: 1
وی@@ 1
تی 1
من@@ 1
یں 1
کر@@ 1
ب 1
بر@@ 1
ور 1
جس 1
ائی 1
ور@@ 1
ال@@ 1
ن 1
دی 1
ہو 1
آبادی 1
تھی 1
نی@@ 1
بن 1
ش 1
ص@@ 1
ڈ 1
ساتھ 1
دی@@ 1
نہیں 1
لا@@ 1
ین 1
انی 1
ہی 1
نی 1
اب@@ 1
ری 1
مجموعی 1
افراد 1
کرنے 1
ار 1
; 1
لی 1
ام@@ 1
غ@@ 1
تک 1
دیا 1
اس@@ 1
اپنے 1
تفصیلات 1
اد@@ 1
مشتمل 1
تا 1
&amp; 1
وا@@ 1
جاتا 1
طور 1
کاؤنٹی 1
ط@@ 1
تو 1
ات 1
ہوئے 1
سر@@ 1
ہو@@ 1
ائ@@ 1
نا 1
ون@@ 1
با@@ 1
آپ 1
ف 1
لے 1
جی@@ 1
سی 1
مح@@ 1
ق 1
پاکستان 1
لو@@ 1
نا@@ 1
نہ 1
کو@@ 1
نام 1
مر@@ 1
تے 1
ہوا 1
می 1
ٹی 1
ڈی@@ 1
او@@ 1
ٹی@@ 1
ون 1
متحدہ 1
اللہ 1
کھ@@ 1
تی@@ 1
ج 1
پر@@ 1
گئے 1
شہر 1
ما@@ 1
ذ@@ 1
نگ@@ 1
در@@ 1
سو@@ 1
تھ@@ 1
فی@@ 1
شپ 1
مع@@ 1
زیادہ 1
ضلع 1
امریکا 1
ہی@@ 1
ول@@ 1
دہ 1
مو@@ 1
انہوں 1
اپنی 1
گ 1
اں 1
بھ@@ 1
گئی 1
علاقہ 1
ھ 1
سطح 1
جب 1
جن@@ 1
زی@@ 1
کار@@ 1
ِ 1
ریاستہائے 1
لا 1
فر@@ 1
دو 1
مل@@ 1
رہ 1
اری 1
میٹر 1
ات@@ 1
وی 1
حاصل 1
محمد 1
لیکن 1
ح 1
کرتے 1
مربع 1
شی@@ 1
اش@@ 1
بی 1
رقبہ 1
اف@@ 1
ہوئی 1
ٹاؤن 1
چی@@ 1
والے 1
ئ@@ 1
سن@@ 1
ال 1
بہت 1
ي@@ 1
بلندی 1
چ 1
سب 1
گر@@ 1
یوں 1
لہ 1
ہر 1
کیلومیٹر 1
اب 1
اسے 1
ڑ@@ 1
سال 1
نگ 1
ول 1
ھ@@ 1
وقت 1
وجہ 1
کہا 1
ث@@ 1
دار 1
وس@@ 1
شن 1
اہ@@ 1
پہلے 1
ہونے 1
ست@@ 1
شامل 1
ہوتا 1
بل@@ 1
ام 1
دے 1
کچھ 1
پ 1
آباد 1
انہ 1
گی 1
/ 1
اص@@ 1
کام 1
مش@@ 1
انے 1
کسی 1
دھ@@ 1
یر 1
اسی 1
رہے 1
ع 1
gt 1
اد 1
خان 1
بن@@ 1
ٹر 1
lt 1
ائی@@ 1
چھ@@ 1
مہ 1
جن 1
ند@@ 1
وب@@ 1
علی 1
ك@@ 1
3@@ 1
اک@@ 1
تر@@ 1
رہ@@ 1
سن 1
مس@@ 1
قی@@ 1
سٹ@@ 1
یت 1
طرح 1
بہ@@ 1
جنگ 1
اح@@ 1
‘ 1
نو@@ 1
حکومت 1
َ@@ 1
گی@@ 1
رہائشی 1
شاہ 1
وری 1
اق@@ 1
ائے 1
حی@@ 1
مان@@ 1
کم 1
دور 1
لیا 1
کار 1
ض@@ 1
طرف 1
4@@ 1
گھ@@ 1
سو 1
حضرت 1
شہ@@ 1
جو@@ 1
صوبہ 1
مق@@ 1
مار@@ 1
سمندر 1
ہم 1
ي 1
کہ@@ 1
کوئی 1
خلاف 1
کن@@ 1
گا 1
کل 1
جا 1
قہ 1
ما 1
استعمال 1
مہ@@ 1
مطابق 1
اج@@ 1
اع@@ 1
تع@@ 1
بو@@ 1
زبان 1
الی@@ 1
عام 1
من 1
فلم 1
’ 0.7752844951016595
انہیں 1
تو@@ 1
مج@@ 1
تعلیم 1
از 1
بھارت 1
ستان 1
ڈی 1
ہوں 1
مان 1
سر 1
تمام 1
نک@@ 1
5@@ 1
شروع 1
ڑ 1
نس@@ 1
جائے 1
پیدا 1
6@@ 1
آر@@ 1
اتی 1
غیر 1
انا 1
تص@@ 1
رہا 1
والی 1
زندگی 1
اور@@ 1
مد@@ 1
لائ@@ 1
سل@@ 1
را 1
ٹھ@@ 1
ِ@@ 1
تر 1
عل@@ 1
مب@@ 1
نظ@@ 1
کس 1
از@@ 1
پھر 1
وال@@ 1
پو@@ 1
بار 1
ٹر@@ 1
مص@@ 1
ارت 1
گو@@ 1
تھیں 1
لئے 1
ٹن 1
سٹ 1
مت 1
سم@@ 1
است@@ 1
دوران 1
بر 1
9@@ 1
سک@@ 1
پرو@@ 1
2@@ 1
ائل 1
پور 1
پی 1
تج@@ 1
خ 1
7@@ 1
- 0.8458999867017315
ء 1
مقام 1
صرف 1
بح@@ 1
وار 1
نڈ 1
نام@@ 1
بے 1
اط@@ 1
جی 1
رات 1
اسلام 1
ملک 1
شر@@ 1
کرکٹ 1
مشہور 1
تا@@ 1
کتاب 1
ہر@@ 1
فل@@ 1
یہاں 1
قی 1
زی 1
دو@@ 1
کیے 1
ابی 1
8@@ 1
لکھ@@ 1
ست 1
جاتی 1
کئی 1
رین 1
تین 1
کھی@@ 1
ہوتی 1
پیش 1
برا@@ 1
خود 1
وج@@ 1
جہاں 1
ؤ 1
دا@@ 1
ند 1
اے 1
ٰ 1
کرنا 1
ض 1
کرتا 1
بات 1
لوگوں 1
آئ@@ 1
انوں 1
لینڈ 1
مختلف 1
سپ@@ 1
چو@@ 1
وم@@ 1
بد@@ 1
عبد 1
ظ@@ 1
توں 1
موجود 1
تاریخ 1
نڈ@@ 1
فی 1
ُ@@ 1
ث 1
رب@@ 1
201@@ 1
حصہ 1
2 0.5965287830177344
&#124; 1
یم 1
ندی 1
ٹا 1
امام 1
مط@@ 1
الی 1
اپ@@ 1
وا 1
دنیا 1
عمر 1
دن 1
وف@@ 1
ں 1
نس 1
ارے 1
فرانسیسی 1
انڈ@@ 1
بار@@ 1
قائم 1
دوسرے 1
اہم 1
رت 1
ئی 1
پہلی 1
ابن 1
آف 1
سینٹ 1
ہوائی 1
احمد 1
دونوں 1
ریاست 1
جر@@ 1
لو 1
زہ 1
1 0.5157130351373468
وفات 1
&#93; 1
عی@@ 1
الدین 1
وق@@ 1
شی 1
خو@@ 1
دریا 1
جانے 1
بین 1
پور@@ 1
انگ@@ 1
اگ@@ 1
عہ 1
اردو 1
جنوبی 1
گے 1
یل 1
&#91; 1
الح@@ 1
ط 1
3 0.6567349415920627
جھ@@ 1
ئر 1
علاوہ 1
مت@@ 1
یعنی 1
ہزار 1
5 0.7113549383455342
رے 1
اسٹ@@ 1
بال@@ 1
بڑے 1
نٹ 1
فہرست 1
کھ 1
of 0.04468316785490723
سائ@@ 1
الم@@ 1
ابو 1
؛ 1
عت 1
تہ 1
کن 1
بہ 1
جان@@ 1
الب@@ 1
صح@@ 1
&apos; 0.40076386734385816
پھ@@ 1
دار@@ 1
پاس 1
فوج 1
لڑ@@ 1
دیگر 1
غ 1
وت@@ 1
رہی 1
ڈا 1
اروں 1
پار@@ 1
فار@@ 1
ے@@ 1
علیہ 1
ڑی 1
سلطنت 1
یونیورسٹی 1
سید 1
نق@@ 1
اگر 1
جیسے 1
ئے 1
خط@@ 1
اسٹیشن 1
علم 1
بڑا 1
لوگ 1
200@@ 1
ایا 1
4 0.6831069541978568
بڑی 1
ہندوستان 1
ایران 1
تم@@ 1
الع@@ 1
نش@@ 1
کت 1
ہوتے 1
جبکہ 1
مست@@ 1
هٔ 1
عم@@ 1
مز@@ 1
, 0.010618238439356286
مض@@ 1
پری@@ 1
خاندان 1
20@@ 1
روں 1
ري@@ 1
صدی 1
خواتین 1
عمل 1
جہ@@ 1
اڈا 1
17@@ 0.8858198408446925
سا@@ 1
جہ 1
8ء 1
زر@@ 1
6 0.7690346186467699
نج@@ 1
وم 1
ریلوے 1
اض@@ 1
دوسری 1
.@@ 0.6761802967874228
قومی 1
شمالی 1
تح@@ 1
دست@@ 1
فہ 1
خی@@ 1
خت 1
مگر 1
نٹ@@ 1
دان 1
داد 1
بچ@@ 1
مل 1
خاص 1
جاری 1
صدر 1
اپنا 1
مغربی 1
ارہ 1
بیان 1
یات 1
بارے 1
جاتے 1
کری@@ 1
1,@@ 1
دین 1
ؤ@@ 1
عدد 1
کل@@ 1
گن 1
پنجاب 1
واق@@ 1
پڑ@@ 1
ابتدائی 1
عات 1
نیا 1
درمیان 1
ٹو@@ 1
آئی 1
ائر 1
تش@@ 1
0ء 1
سکتا 1
بت 1
تب@@ 1
بنا 1
ود 1
عبد@@ 1
تعلق 1
پہنچ@@ 1
چار 1
ٹیسٹ 1
ۃ 1
فو@@ 1
اء 1
جسے 1
یون@@ 1
آغاز 1
روا@@ 1
فرانس 1
والا 1
کرتی 1
تق@@ 1
تاہم 1
مک@@ 1
والد 1
13@@ 1
کا@@ 1
7 0.8055486273072837
نوں 1
نیو 1
یو@@ 1
علاقے 1
8 0.8215071769266403
ص 1
لگ@@ 1
زا 1
سا 1
حسین 1
7ء 1
نظر 1
قبل 1
وار@@ 1
ریہ 1
زمین 1
طر@@ 1
شا@@ 1
15@@ 1
1ء 1
16@@ 0.9785446098875189
صی@@ 1
تخ@@ 1
عد@@ 1
اخت@@ 1
کردار 1
کالج 1
ایت 1
فور@@ 1
رکھ@@ 1
9 0.8879179662584301
ؓ 1
شہ 1
الاقوامی 1
چاہ@@ 1
گھر 1
تعمیر 1
امریکی 1
ادہ 1
ادت 1
خوا@@ 1
عث@@ 1
قرار 1
گاؤں 1
سیاسی 1
ين@@ 1
ٹیم 1
سال@@ 1
لوں 1
ْ@@ 1
موں 1
مین 1
قب@@ 1
انی@@ 1
منٹ 1
مخ@@ 1
19@@ 1
فت@@ 1
کور@@ 1
ه@@ 1
گن@@ 1
گا@@ 1
جان 1
ٹس 1
کس@@ 1
عرب 1
تعداد 1
1@@ 1
ك 1
شت 1
– 0.30686450084576244
ویں 1
20 0.9876655223071803
انگریزی 1
چین 1
صاحب 1
جگہ 1
0@@ 1
ممالک 1
وال 1
6ء 1
5ء 1
شادی 1
وز@@ 1
مسجد 1
آب@@ 1
2ء 1
ٰ@@ 1
پیدائش 1
ادا 1
کیونکہ 1
مي@@ 1
رام 1
مسی@@ 1
شیخ 1
گور@@ 1
مسلم 1
مرا@@ 1
مکمل 1
اخ@@ 1
دا 1
14@@ 1
دع@@ 1
نم@@ 1
مول@@ 1
کہتے 1
اسلامی 1
عب@@ 1
3ء 1
“ 0.47200339807200903
در 1
ادی 1
قریب 1
پولی@@ 1
18@@ 0.7745644547423864
لاہور 1
ملا@@ 1
قبول 1
اتے 1
رس@@ 1
ذریعہ 1
گری@@ 1
وزیر 1
بھی@@ 1
4ء 1
دس 1
حیثیت 1
ّ@@ 1
تن@@ 1
مخت@@ 1
بنگ@@ 1
یونین 1
رض@@ 1
روس 1
کلا@@ 1
اٹھ@@ 1
عربی 1
ستہ 1
اسک@@ 1
سلطان 1
مشرقی 1
کٹ 1
جائ@@ 1
ولی@@ 1
فری@@ 1
ڑے 1
امی 1
وان 1
مولانا 1
مال@@ 1
جا@@ 1
شو@@ 1
مدد 1
قدیم 1
آئے 1
ۂ 1
کش@@ 1
جے 1
سع@@ 1
آخر 1
ہار@@ 1
الینوائے 1
معاش@@ 1
رکھا 1
زیر 1
کلی@@ 1
تف@@ 1
مون@@ 1
متا@@ 1
10@@ 1
ایس 1
قتل 1
ھی 1
کٹ@@ 1
نظام 1
عظیم 1
شائع 1
بول@@ 1
فرمایا 1
ذی@@ 1
حملہ 1
نو 1
کان@@ 1
مال 1
مپ@@ 1
ولی 1
ہائی 1
وہاں 1
زب@@ 1
” 1
10 0.6924770970343169
سام@@ 1
ترا@@ 1
ویل 1
صورت 1
9ء 1
بلکہ 1
علاقوں 1
واپس 1
آیا 1
ذکر 1
گرا@@ 1
انتظ@@ 1
اختیار 1
کون@@ 1
کرو@@ 1
بعض 1
ختم 1
دور@@ 1
پہ@@ 1
ندر 1
خات@@ 1
تحریک 1
فتح 1
بنایا 1
میچ 1
شخص 1
فوجی 1
لب 1
افت 1
قرآن 1
وو@@ 1
199@@ 1
بور@@ 1
گرو@@ 1
وس 1
میت 1
تھ 1
انت@@ 1
با 1
لات 1
اؤ@@ 1
12@@ 1
لم 1
دینے 1
ڈھ@@ 1
پہلا 1
شاہ@@ 1
اعظم 1
حص@@ 1
کوشش 1
شیا 1
ڑا 1
ائن 1
تقسیم 1
تبدی@@ 1
جانب 1
خص@@ 1
منظ@@ 1
حکم 1
کول@@ 1
صر 1
مزید 1
برطانوی 1
000 1
تہ@@ 1
پاکستانی 1
ایم 1
رسول 1
انھوں 1
طری@@ 1
کمی@@ 1
فائ@@ 1
نوا@@ 1
ونی 1
زار 1
تقری@@ 1
رنز 1
قابل 1
حر@@ 1
دیکھ@@ 1
خلی@@ 1
ٹھ 1
فر 1
ادی@@ 1
وغیرہ 1
لکھا 1
خدمات 1
اہل 1
آخری 1
سان 1
قو@@ 1
مث@@ 1
موسی@@ 1
دوں 1
دگی 1
حسن 1
کتاب@@ 1
وے 1
گئیں 1
اسکول 1
بری@@ 1
رو 1
اون@@ 1
نر 1
خان@@ 1
تیار 1
کاونٹی 1
بھائی 1
حد 1
مارچ 1
ترکی 1
پانی 1
پہا@@ 1
دہ@@ 1
گز@@ 1
پانچ 1
پڑھ@@ 1
كاونٹي 1
كاؤنٹي 1
نز 1
اُ@@ 1
مف@@ 1
ذ 1
جمہوریہ 1
بولا 1
مذ@@ 1
چی 1
ئر@@ 1
ترین 1
آج 1
سکتے 1
حکمر@@ 1
چند 1
دل 1
انس@@ 1
عمر@@ 1
این 1
بنیاد 1
بڑھ@@ 1
انجام 1
لین 1
ایسے 1
چھو@@ 1
بخ@@ 1
ثر 1
قسم 1
اف 1
سما@@ 1
رانی 1
صف@@ 1
دت 1
معاہ@@ 1
کبھی 1
ٹرو@@ 1
12 0.7511133103653153
خیال 1
کراچی 1
چل@@ 1
مسلمانوں 1
خدا 1
مانی 1
15 0.8148583748035776
اظ 1
پورٹ 1
نار@@ 1
گو 1
قر@@ 1
بیت 1
ترقی 1
ولا@@ 1
موجودہ 1
ٹری@@ 1
کٹر 1
مرکزی 1
گاہ 1
ارک 1
شمار 1
198@@ 1
متعلق 1
الہ 1
کنساس 1
حق 1
عہ@@ 1
امات 1
خت@@ 1
عالم 1
ہج@@ 1
الف@@ 1
تم 1
دیتے 1
سرب@@ 1
197@@ 1
کونسل 1
آزاد 1
ٹو 1
تحت 1
مینیسوٹا 1
چھ 1
لفظ 1
سندھ 1
حدیث 1
بلو@@ 1
بادشاہ 1
عالمی 1
ایسا 1
آزادی 1
کرکے 1
سہ 1
مور@@ 1
لال 1
بنیادی 1
ستی 1
اہ 1
جات 1
ذیل 1
انگری@@ 1
اگست 1
موت 1
ژ@@ 1
تحری@@ 1
مقامی 1
قیام 1
یو 1
سب@@ 1
سلسلہ 1
متعدد 1
اول 1
گروپ 1
پارٹی 1
سرکاری 1
ادب 1
انڈیانا 1
مار 1
نف@@ 1
رکھنے 1
ازی 1
طاق@@ 1
امی@@ 1
قانون 1
طی@@ 1
رکھتے 1
مغ@@ 1
جنوری 1
سور@@ 1
مے 1
سفر 1
ظاہر 1
سنگھ 1
سری 1
قت 1
کان 1
ید 1
مشی 1
اصل 1
پھی@@ 1
کرا@@ 1
نیشنل 1
ہار 1
عی 1
آن@@ 1
پوری 1
جاپ@@ 1
ہند 1
ریاست@@ 1
اکتوبر 1
میر 1
مسلمان 1
دسمبر 1
قبضہ 1
اکی@@ 1
لیم 1
لاح@@ 1
ایڈ@@ 1
قبی@@ 1
سین 1
دوبارہ 1
حقی@@ 1
جون 1
رح@@ 1
راہ 1
ہا 1
انتخابات 1
قط@@ 1
فق@@ 1
مئی 1
تس@@ 1
يا 1
صل 1
افری@@ 1
ذریعے 1
11 0.7969660403229113
لز 1
دف@@ 1
نما 1
بیٹے 1
ہا@@ 1
کافی 1
اسٹی@@ 1
ہاتھ 1
فن 1
الق@@ 1
ماری 1
اعلان 1
کیں 1
صوب@@ 1
بنائے 1
داری 1
نہ@@ 1
جدید 1
وسط 1
ستمبر 1
ادر 1
شہر@@ 1
شمال 1
رکن 1
تیں 1
حک@@ 1
شری@@ 1
قوم 1
َ 1
بھارتی 1
سمجھ@@ 1
جولائی 1
لڈ 1
الن@@ 1
درجہ 1
14 0.8856749046175804
ڈر 1
جانا 1
کال@@ 1
دم 1
19 0.9352051778609775
راج 1
نومبر 1
30 0.7956386139793371
دہلی 1
لاطینی 1
تحقی@@ 1
ود@@ 1
منتخب 1
وي@@ 1
آسٹریلیا 1
جزی@@ 1
عرص@@ 1
ملا 1
بہترین 1
سامنے 1
ڈرا@@ 1
فرم@@ 1
لن@@ 1
مذہبی 1
عوامی 1
کیریئر 1
نز@@ 1
شام 1
نک 1
زوں 1
اکثر 1
ہد@@ 1
میری 1
جرمنی 1
لندن 1
آنے 1
بنانے 1
ﷺ 1
چے 1
شعب@@ 1
اداک@@ 1
2,@@ 1
بند@@ 1
مد 1
اسمبلی 1
لي@@ 1
رس 1
194@@ 1
بل 1
شکست 1
جنوب 1
حض@@ 1
ایسی 1
چکے 1
ڈاکٹر 1
پہن@@ 1
ائد 1
دیں 1
روسی 1
وائ@@ 1
اپریل 1
زن 1
یے 1
فارسی 1
انتقال 1
ریت 1
18 0.7467160746448892
16 0.8091883264124378
گر 1
اموں 1
جنگ@@ 1
نامہ 1
اثر 1
اول@@ 1
دل@@ 1
سان@@ 1
برطانیہ 1
پس 1
بطور 1
انق@@ 1
؟ 1
ؤں 1
ائیں 1
لح@@ 1
خلا@@ 1
فا@@ 1
کریں 1
فرو@@ 1
13 0.8616412638538206
آ 1
سوویت 1
تھی@@ 1
فروری 1
مقرر 1
تقریباً 1
ڑھ 1
جامعہ 1
کرے 1
کوں 1
ني@@ 1
تحصیل 1
خط 1
کیوں 1
یور@@ 1
لہ@@ 1
جنرل 1
سین@@ 1
لاع 1
T@@ 0.10186418917106194
قات 1
سکے 1
فرا@@ 1
اوی@@ 1
25 0.8421301990284369
جار@@ 1
کامیاب 1
رائے 1
مز 1
نئی 1
بند 1
ریف 1
196@@ 1
مر 1
تاریخی 1
ڈے 1
کاری 1
ين 1
17 0.8613233438943896
دہائی 1
دیکھا 1
كي@@ 1
پسند 1
شخصی@@ 1
سند@@ 1
عہد 1
چر@@ 1
وب 1
اعز@@ 1
ہلا@@ 1
دری@@ 1
ٹاون 1
اٹ@@ 1
بچوں 1
رائ@@ 1
195@@ 1
اک 1
امیر 1
لق@@ 1
ریا 1
پش@@ 1
شاعری 1
روایت 1
وت 1
G@@ 0.10012445759669818
راہ@@ 1
ڈو 1
ہوئیں 1
نیو@@ 1
چنانچہ 1
السلام 1
غز@@ 1
خانہ 1
حالات 1
فض@@ 1
مرکز 1
شاہی 1
امل 1
,@@ 1
شریف 1
الا 1
سیع 1
شاعر 1
صن@@ 1
مذہب 1
انگ 1
ڈو@@ 1
آئیووا 1
ترک 1
شع@@ 1
صلی 1
کامی@@ 1
اندر 1
ارف 1
جماعت 1
الت@@ 1
ظ 1
اِ@@ 1
شکل 1
دائ@@ 1
جر 1
بھر 1
سیاست 1
غلام 1
چھوٹا 1
نتیجے 1
بنی 1
ملی 1
موقع 1
مشرق 1
الو@@ 1
روز 1
رنگ 1
فیصد 1
اسرائیل 1
اي@@ 1
رون 1
انداز 1
فٹ 1
ائیوں 1
تد@@ 1
سکتی 1
کمیون@@ 1
_ 0.7802261104498616
صوبے 1
اظ@@ 1
افغانستان 1
معلوم 1
قصبہ 1
حال 1
جل@@ 1
نئے 1
او 1
یاں 1
کنی@@ 1
یار 1
کردہ 1
الر@@ 1
الگ 1
شدہ 1
حصے 1
اِس 1
اچھ@@ 1
ڈن 1
تاکہ 1
اگرچہ 1
یہی 1
مدر@@ 1
ہسپان@@ 1
اث@@ 1
انٹر@@ 1
پنسلو@@ 1
موض@@ 1
چان@@ 1
لان@@ 1
حال@@ 1
کلومیٹر 1
اضی 1
درج 1
مند@@ 1
نل 1
سفی@@ 1
روز@@ 1
قید 1
دریائے 1
بلی@@ 1
انسان 1
جز@@ 1
روف 1
داخل 1
h 0.24127459592220846
لیگ 1
ٹری 1
وص@@ 1
دیوں 1
معام@@ 1
اُس 1
فیصلہ 1
پڑا 1
پا 1
جام@@ 1
نمبر 1
انسانی 1
ہندو 1
فوج@@ 1
تلا@@ 1
ڑوں 1
لس 1
سين@@ 1
اوہائیو 1
پائی 1
ضر@@ 1
زل 1
پن 1
چکی 1
ترجمہ 1
کت@@ 1
سات 1
اؤن@@ 1
اق 1
اضاف@@ 1
نمائند@@ 1
کشن 1
علامت 1
گرد 1
خار@@ 1
وٹ 1
حقوق 1
کردیا 1
انیا 1
آر 1
الحکومت 1
امن 1
چار@@ 1
رار 1
مصر 1
خواجہ 1
جواب 1
تنا@@ 1
برو@@ 1
یز 1
فراہم 1
S@@ 0.056784120742371796
دیے 1
باب@@ 1
کث@@ 1
L@@ 0.07165724936492185
قل@@ 1
نتی@@ 1
ایل 1
اج 1
مری@@ 1
وع 1
اون 1
دکھ@@ 1
امین 1
والوں 1
جمع 1
فت 1
کتب 1
رکھی 1
داخ@@ 1
ہندوستانی 1
باہر 1
ارا 1
مقصد 1
ویژن 1
اُن 1
معروف 1
کمپنی 1
درا@@ 1
الز@@ 1
چر 1
اداکارہ 1
میل 1
زمانے 1
ئی@@ 1
تان 1
وسلم 1
لر 1
ٹے 1
حد@@ 1
فتار 1
مراد 1
24 0.8157971525070813
ظم 1
دش@@ 1
تب 1
سي@@ 1
الت 1
ى 1
مجموع@@ 1
21 0.8102139276941566
ادارہ 1
لام 1
گرام 1
سابق 1
یہو@@ 1
ماؤ@@ 1
لگا 1
اجازت 1
نائ@@ 1
محل 1
دوسرا 1
سہ@@ 1
باوجود 1
طل@@ 1
زم 1
سیریز 1
گری 1
مقاب@@ 1
وسطی 1
ثابت 1
جارج@@ 1
قلعہ 1
ڈیا 1
22 0.8738574148179179
حی 1
مرتبہ 1
تشکیل 1
باب 1
حمایت 1
پال 1
ڈیو 1
امت 1
عوام 1
2.@@ 1
ئن 1
اتحاد 1
تبا@@ 1
باقی 1
تنظیم 1
واشنگٹن 1
عر@@ 1
وص 1
دید 1
حملے 1
چھوڑ 1
قص@@ 1
پردیش 1
ضرورت 1
بي@@ 1
برائے 1
مارے 1
قری@@ 1
لاب 1
ہونا 1
بغیر 1
تعلیمی 1
مات 1
ونا 1
عط@@ 1
مغرب 1
1.@@ 1
سلی@@ 1
میہ 1
فیلڈ 1
تیس 1
بتا@@ 1
زمانہ 1
ظاہ@@ 1
مم@@ 1
یہودی 1
23 0.8749230380163342
0 0.7221765757737102
مدینہ 1
50 0.819085636081962
وف 1
منتقل 1
مقابلہ 1
لف@@ 1
کیلیفورنیا 1
لن 1
an 0.04164184609087752
3,@@ 1
D@@ 0.06949893996416626
ذا 1
ﺎ@@ 1
سمجھا 1
لار@@ 1
علامہ 1
کشمیر 1
کم@@ 1
دیتا 1
ورا@@ 1
ضی 1
باع@@ 1
باد@@ 1
انگلینڈ 1
ہری 1
مسل@@ 1
ممل@@ 1
کمیون 1
or 0.08256014502116266
خدمت 1
مانے 1
ماب@@ 1
دوس@@ 1
سٹی@@ 1
پنج@@ 1
شن@@ 1
راج@@ 1
الفاظ 1
ﺍ@@ 1
کھیل 1
زند@@ 1
کھلاڑی 1
بش@@ 1
بع@@ 1
قبال 1
ء@@ 1
ایہ 1
25@@ 1
حالت 1
وسی 1
193@@ 1
Saint 0.8932981060340379
پن@@ 1
کینی@@ 1
چا 1
ه 1
ارات 1
عمل@@ 1
خلافت 1
باز 1
ریس 1
پاک 1
جڑواں 1
روش@@ 1
نف 1
بغاوت 1
ندھ@@ 1
چلے 1
ورت 1
اعلیٰ 1
ماں 1
26 0.9212818698971571
نماز 1
واں 1
فلموں 1
بری 1
! 0.9717607868525697
علا@@ 1
میرے 1
e 0.07650961122486197
چکا 1
ٹل 1
قل 1
R@@ 0.07156820485904082
امری@@ 1
رک 1
نسی 1
اتا 1
آگے 1
جاسک@@ 1
یورپ 1
چھوٹے 1
لت 1
قین 1
انص@@ 1
واز 1
گول@@ 1
ناول 1
ران 1
انھ@@ 1
علوم 1
ٹیلی 1
d 0.08613513078800766
بیر 1
افواج 1
آسٹ@@ 1
اولاد 1
حلقہ 1
جلد 1
تعلقات 1
اتح@@ 1
عمو@@ 1
الخ@@ 1
وسف 1
ایوارڈ 1
جنا@@ 1
28 0.8915038592429705
24@@ 1
حوال@@ 1
خصوص@@ 1
سط@@ 1
رج@@ 1
27 0.9039472792866238
نسل 1
M@@ 0.07147398992879593
بلا@@ 1
= 0.8650952367207965
الج@@ 1
روم 1
الش@@ 1
بڑ@@ 1
نت@@ 1
حم@@ 1
3.@@ 1
A@@ 0.08257501092100084
قبر@@ 1
بق@@ 1
ماس@@ 1
نور 1
رف 1
سام 1
غل@@ 1
w@@ 0.07846373544285565
كي 1
نقل 1
اند@@ 1
وطن 1
40 0.8369191643260443
سعو@@ 1
رن 1
آد@@ 1
الف 1
افی 1
اؤں 1
دول@@ 1
the 0.007367763068772202
وام 1
موا@@ 1
دد 1
in 0.012273817335840652
شار 1
ً 1
ونکہ 1
لاس 1
بان@@ 1
P@@ 0.0647618937013818
ﮐ@@ 1
َّ@@ 1
مثال 1
علی@@ 1
اعت 1
ثق@@ 1
مالک 1
مجھ@@ 1
26@@ 1
اندا@@ 1
ولا 1
خر@@ 1
Canton 1
عراق 1
رش@@ 1
ساح@@ 1
سلسل@@ 1
وز 1
محمود 1
اسم 1
آن 1
راب 1
شک@@ 1
خال@@ 1
فلسط@@ 1
انات 1
قدر 1
بغ@@ 1
وات 1
دیش 1
افظ 1
B@@ 0.05973401767981224
29 0.9036999466866308
قان@@ 1
بت@@ 1
جع@@ 1
دي@@ 1
مون 1
قدر@@ 1
سلا@@ 1
بوط 1
ریلو@@ 1
واضح 1
پان@@ 1
28@@ 1
ُ 1
شل 1
ؒ 1
وض@@ 1
e@@ 0.06790693367879021
27@@ 1
اك@@ 1
حل 1
سلو@@ 1
ریل 1
29@@ 1
عباس 1
ير@@ 1
رم 1
0.@@ 1
آل 1
رق@@ 1
انتخاب 1
ائع 1
ابت@@ 1
ادات 1
مظ@@ 1
زید 1
60 0.959506115884471
في@@ 1
بلا 1
دان@@ 1
طلا@@ 1
نت 1
خد@@ 1
رب 1
مس 1
192@@ 1
یرہ 1
نور@@ 1
متع@@ 1
H@@ 0.061155274922288685
County 0.7205966733243044
ﮯ 1
سوس 1
-@@ 0.8945738286502918
لائی 1
سم 1
سنگ@@ 1
K@@ 0.0755184507030273
us@@ 0.12351150604750535
جذ@@ 1
اما 1
ثقاف@@ 1
ذر@@ 1
30@@ 1
موسم 1
جد@@ 1
2018 0.49272879243676443
نص@@ 1
جسم 1
يك@@ 1
بط@@ 1
رد 1
تعل@@ 1
مبار@@ 1
واحد 1
الم 1
N@@ 0.06459240673771365
تال 1
عن@@ 1
تل@@ 1
الس@@ 1
کوش@@ 1
جوا@@ 1
بات@@ 1
اسلا@@ 1
نواب 1
بز@@ 1
بال 1
معلومات 1
31 0.8339369409420107
مرح@@ 1
حات 1
قاع@@ 1
عے 1
ابل 1
باش@@ 1
4.@@ 1
ساب@@ 1
ْ 1
C@@ 0.05302428919808019
سل 1
ارتی 1
دود 1
وجود 1
مؤ@@ 1
مبر 1
نصف 1
يو@@ 1
80 0.9888679624350846
District 1
منی 1
طالب 1
عام@@ 1
amp 0.3621858150823933
قائد 1
لان 1
ہاں 1
وَ@@ 1
متح@@ 1
سٹی 1
الل@@ 1
ﯿ@@ 1
فن@@ 1
تار@@ 1
ماء 1
est@@ 0.15004172874342359
مقد@@ 1
فظ 1
ـ@@ 1
جگ@@ 1
كو@@ 1
70 1
4,@@ 1
ئ 1
الرحمن 1
بج@@ 1
نات 1
لاً 1
حس@@ 1
جد 1
مشتر@@ 1
انج@@ 1
I@@ 0.09308433073072282
مینی@@ 1
100 0.5978739295832971
اسب 1
صاح@@ 1
فضل 1
لش@@ 1
ہند@@ 1
سبب 1
2019 0.4490244575029816
انڈی@@ 1
بول 1
مالی 1
چہ 1
لاح 1
5.@@ 1
علاق@@ 1
صد@@ 1
العلوم 1
ثار 1
الوج@@ 1
درس 1
O@@ 0.08157821665669095
35 0.9868821818413773
قد@@ 1
y 0.01929628659973582
ﻣ@@ 1
يل 1
فاق 1
ﻮ@@ 1
6.@@ 1
قائ@@ 1
ائي 1
سون@@ 1
وق 1
% 0.13376702746016295
الد@@ 1
tim@@ 0.455744014613954
أ@@ 0.9268355614374437
فرد 1
نوب@@ 1
2013 0.38296346297954886
ns 0.614966891358968
and 0.010059869935067932
عقد 1
تاب@@ 1
اح 1
x 0.16543253944852998
ment 0.21262691664268174
s 0.030144927597638774
جمع@@ 1
مَ@@ 1
ذات 1
enti@@ 0.24700736650319155
الص@@ 1
5,@@ 1
model 1
لَ@@ 1
وط@@ 1
7.@@ 1
contribut@@ 1
format 1
عق@@ 1
ame 0.6318374743853737
عش@@ 1
ern@@ 0.6656698165692152
عظ@@ 1
لاف 1
طلب 1
com@@ 0.13474497241900876
نان@@ 1
‌ 1
زي@@ 1
8.@@ 1
الب 1
DNA 1
افغ@@ 1
عز@@ 1
ab@@ 0.07792507837814343
ناصر 1
آز@@ 1
جون@@ 1
185@@ 0.6537734571400889
ائم 1
9.@@ 1
190@@ 1
E@@ 0.05619410045349586
بط 1
br 1
وع@@ 1
i 0.08341290336152322
al 0.029088518904380092
فات 1
par@@ 0.10346458083172215
90 0.9189243935908912
a 0.009562771002395186
y@@ 0.06329631367692615
لغ@@ 1
باد 1
اتھ 1
سند 1
جم 1
ں@@ 1
mt@@ 1
خر 1
ad 0.14401025966916817
فاع 1
سف@@ 1
2015 0.33626225407171817
نما@@ 1
ير 1
كا 1
يو 1
ویت 1
گوں 1
2014 0.3279615835192802
جم@@ 1
J@@ 0.0782572324225514
لم@@ 1
کمپ@@ 1
ﯽ 1
32 0.9302054060691102
اعتب@@ 1
6,@@ 1
وان@@ 1
قاد@@ 1
تفصی@@ 1
شار@@ 1
مجلس 1
ناف@@ 1
وش@@ 1
رہائ@@ 1
ar@@ 0.04558063377879971
وح@@ 1
mina 1
غرا@@ 1
Q@@ 0.6987754571718939
۱@@ 1
خل@@ 1
de 0.00562770343285707
formula 0.4093152909268847
بد 1
بو 1
33 1
رل 1
t 0.02718683427390793
عص@@ 1
مع 1
نوان 1
الغ@@ 1
بلغ@@ 1
2008 0.3111831227293913
Ch@@ 0.09562997520344785
اغ@@ 1
ـ 1
34 1
75 1
45 0.9509597389040547
راء 1
سج@@ 1
36 0.9981994944399446
موجو@@ 1
ًا 1
بص@@ 1
مسلسل 1
F@@ 0.03885105071063324
رقم 1
سوم 1
2012 0.2928886042721298
محافظ@@ 1
بس 1
منص@@ 1
s@@ 0.023037138796128565
مُ@@ 1
نان 1
2010 0.23524310238787632
ّ 1
ity 0.1443942334683063
on 0.01933827825742742
اض 1
لف 1
عدم 1
طب@@ 1
39 1
رئ@@ 1
200 0.7880810903752925
قدم 1
فران@@ 1
38 1
2017 0.3163567994496278
لي 1
ar 0.04893411505954111
سي 1
7,@@ 1
2016 0.29445955006058055
37 0.996987193409276
٪ 1
اسرائی@@ 1
سك@@ 1
قا 1
ہائے 1
المع@@ 1
ﺮ@@ 1
الات 1
صبح 1
جما@@ 1
تاج 1
2011 0.25266533729147295
it@@ 0.05339559562392601
ومن@@ 1
آغ@@ 1
دون@@ 1
اً 1
W@@ 0.04359172647287706
عالم@@ 1
تنظ@@ 1
a@@ 0.07172737810307614
حمل@@ 1
8,@@ 1
c 0.06415184726669855
I 0.14392048207867209
اذ 1
h@@ 0.035118055651505484
رض 1
کھلا@@ 1
علاج 1
ﻧ@@ 1
لين@@ 1
500 0.7790900830990269
کیل 1
فس@@ 1
65 0.8621777894433404
عل 1
كر@@ 1
نگٹن 1
مرک@@ 1
55 1
2020 0.30971809271718076
o@@ 0.04454146266823063
ﻭ@@ 1
سلط@@ 1
سين 1
p@@ 0.029812906306722682
حول 1
يني@@ 1
ادل 1
فا 1
9,@@ 1
الجزائر 1
42 1
2009 0.2523349820263621
V@@ 0.05317459943777054
189@@ 1
2007 0.26634158870495295
an@@ 0.03975105189077045
عرض 1
d@@ 0.031122824755705228
ؑ 1
ﺎ 1
اذ@@ 1
ضد 1
52 1
44 1
عائ@@ 1
فیص@@ 1
وك@@ 1
ہندو@@ 1
ur@@ 0.04999966503126391
ہسپ@@ 1
ژن 1
اني 1
خف@@ 1
n@@ 0.027938050374061794
ري 1
48 1
41 1
قبض@@ 1
ﮨ@@ 1
47 1
85 1
as@@ 0.047050487851567575
تون@@ 1
ﺳ@@ 1
ﺭ@@ 1
بس@@ 1
لل@@ 1
خی 1
La 0.07302369343018407
58 1
بع 1
184@@ 0.5664071721267417
شر 1
اقتص@@ 1
56 1
188@@ 1
z@@ 0.04272791733637801
يم 1
ik@@ 0.17381958006523088
مدی@@ 1
معر@@ 1
43 1
جب@@ 1
ٔ 1
57 1
صف 1
کاؤن@@ 1
r@@ 0.026500028014573324
انتخ@@ 1
بلی 1
53 1
j@@ 0.05488540518372633
الط@@ 1
سلام 1
86 1
ﺑ@@ 1
to@@ 0.09420188005924907
95 1
al@@ 0.032259290279452194
46 1
23@@ 1
تاب 1
54 1
2006 0.24887593835027297
72 1
61 1
2021 0.3501714411463518
رف@@ 1
نط@@ 1
00@@ 1
87 1
ریز 1
99 1
قع 1
51 1
49 1
er 0.013215769214310757
ship 0.2452873924437711
k@@ 0.032066614786337176
62 1
شاع@@ 1
es 0.01211080259724842
الله 1
​ 1
ing 0.013301164031683825
64 0.8573526791724325
68 1
مالي 1
آخ@@ 1
ed 0.009734395936645898
88 1
عد 1
Z 1
يم@@ 1
63 1
عرا@@ 1
فع@@ 1
2000 0.2671270725367667
اوہ@@ 1
ﯾ@@ 1
جرا@@ 1
فل 1
وري 1
لوب 1
سوٹا 1
تز@@ 1
راً 1
b@@ 0.02900997427762296
66 1
ural 0.7849015949661526
59 1
ہور 1
78 1
حي@@ 1
is 0.013417979827505047
96 1
74 1
83 1
حزب 1
ترج@@ 1
الرح@@ 1
73 1
یع@@ 1
ﺗ@@ 1
84 1
ation 0.022995503276667304
ؔ 1
اط 1
عب 1
92 1
ڈاک@@ 1
c@@ 0.024753817453666407
77 1
توا@@ 1
00 0.631110909250299
98 1
89 1
93 1
76 1
97 1
67 1
iki 1
ag@@ 0.04674824528099306
طان 1
يون@@ 1
81 1
دث 1
300 0.9443301220535756
A 0.06195409386247005
94 1
كون@@ 1
ترو@@ 1
t@@ 0.021932538277539836
+ 0.5485440416238683
69 1
Z@@ 0.06498163490839626
تمل 1
نمائ@@ 1
نشر 1
قدی@@ 1
u 0.06653583676681436
03 1
82 1
دي 1
text 1
C 0.14371061796177279
71 1
مي 1
وط 1
180@@ 0.5569804721295055
187@@ 1
نساس 1
am@@ 0.043484919481314874
ision 0.34770598269679304
0,@@ 0.549505069265217
v@@ 0.029313232467742676
تور@@ 1
U@@ 0.0684462436031171
2005 0.24725732238829706
جات@@ 1
91 1
دخ@@ 1
تض@@ 1
05 1
en 0.0063924016472559995
اع 1
2004 0.2561788622594473
rev@@ 0.7398966605209989
09 1
درمی@@ 1
79 1
ext 1
ye 0.43405060322210304
in@@ 0.02122437438959199
ارب 1
186@@ 1
1990 0.34671061522957763
دُ@@ 1
wn@@ 0.7934314111163158
وري@@ 1
سون 1
نوع 1
ٹي 1
‎ 1
باء 1
02 1
04 1
ﮧ 1
06 1
07 1
تعلی@@ 1
سیم 1
g@@ 0.021814376743370903
01 1
q 0.8133116810315794
ربی 1
i@@ 0.032855289009795154
قد 1
Y@@ 0.08827386252167577
جمہو@@ 1
توب@@ 1
* 0.2873737685576777
سلم 1
ad@@ 0.030051192975007236
القر@@ 1
08 1
البر@@ 1
تي@@ 1
f@@ 0.019296998201017428
m@@ 0.022979364745467582
تي 1
آسٹری@@ 1
ﻟ@@ 1
ﻨ@@ 1
راض@@ 1
اص 1
The 0.012950936323458777
باً 1
ia 0.05203255692774038
Sh@@ 0.1322244060649586
l@@ 0.02310784102252725
on@@ 0.0283467737456707
جنوب@@ 1
Bo@@ 0.12369369664457103
ارد 1
تون 1
الث@@ 1
الح 1
شب@@ 1
است 1
o 0.02188777249757761
la 0.006264239955926778
at 0.01653214808908359
en@@ 0.01841934913433705
2003 0.26562627684801154
p 0.0651437286155227
اجتماع@@ 1
تاری@@ 1
l 0.03419389383402217
جي@@ 1
في 0.1388061206099677
تغ@@ 1
re@@ 0.013931262274734308
k 0.03763175974312566
تش 1
ﮟ 1
ضل@@ 1
انيا 1
بنی@@ 1
ﺟ@@ 1
179@@ 0.5147843690849289
ul@@ 0.037154740378558385
دف 1
دیث 1
غم 1
0,000 0.6983461672474973
ﻠ@@ 1
om@@ 0.05150748256172321
ﺩ@@ 1
400 0.8043376767547737
ch@@ 0.02033470719653295
ينا 1
es@@ 0.037310422484550326
ترا 1
2002 0.24734624492584995
المن@@ 1
ثیت 1
وي 1
شي@@ 1
q@@ 0.6404051904984823
et 0.011487351359871395
ﺮ 1
شنل 1
er@@ 0.017603896218843746
1980 0.3690931341637675
كل@@ 1
is@@ 0.032791695914414165
n 0.03370390171128451
ﺭ 1
طلاق 1
طف@@ 1
to 0.0056635220401783735
or@@ 0.02473995660518674
ایوار@@ 1
إ@@ 0.708528511576579
بي 1
ظر 1
منصب 1
ah@@ 0.09760655753475415
صد 1
١@@ 1
ﭘ@@ 1
الي@@ 1
un@@ 0.027051806924622827
الذ@@ 1
كول@@ 1
ﻤ@@ 1
us 0.031502857744440504
حسب 1
يس 1
بنا@@ 1
ائز 1
ﮭ@@ 1
وث@@ 1
le 0.011337494325998378
صول 1
راض 1
لوس 1
ربي 1
el@@ 0.026228971200994412
المق@@ 1
1945 0.3542865125098745
2001 0.2264998845728491
33@@ 1
غر@@ 1
ادي 1
قوم@@ 1
مایا 1
قبہ 1
الان@@ 1
g 0.045896347503538354
ref 1
th@@ 0.027023236512367686
وما 1
b 0.09234001606845765
اء@@ 1
11@@ 1
العل@@ 1
لت@@ 1
كار@@ 1
min@@ 0.0716968999894377
دات 1
Kh@@ 0.3549815331310147
۲@@ 1
os@@ 0.0466070548879662
... 0.3134904146357919
یونیور@@ 1
ني 1
as 0.008745518543327557
رائی@@ 1
پاک@@ 1
كو 1
اسم@@ 1
جل 1
m 0.03584474687392232
w 0.05166186080372839
تل 1
at@@ 0.025021929656946617
نفس 1
Munici@@ 0.9506342700587352
u@@ 0.03134103971305303
— 0.02856112868734741
pal@@ 0.3129074265707695
Ar@@ 0.054868382141211286
Mar@@ 0.050499040261409354
ِّ@@ 1
اگر@@ 1
1970 0.3382433232442169
D 0.1128308668763286
1992 0.28047043882624134
1991 0.28810533395913385
1999 0.22603902368677178
ak@@ 0.0461825935490907
علي 1
150 0.8955749952543023
صیل 1
التر@@ 1
te 0.017301758947598996
ah 0.21909834157175156
يات 1
1960 0.3644070355688387
10.@@ 1
1950 0.39755650143720767
حق@@ 1
داء 1
x@@ 0.04974558875648394
ندا 1
1947 0.5395635796844384
ويل 1
ة 0.3787936407698037
ستر@@ 1
Re@@ 0.05297108152566442
T 0.12149176281047609
کیری@@ 1
كس 1
ﻋ@@ 1
جور@@ 1
st@@ 0.01570463103956993
1998 0.23195967559519476
عرف 1
ic 0.05327185392639231
ستانی 1
» 0.02253180804166292
لاد 1
htt@@ 1
ﺘ@@ 1
av@@ 0.035830062120251145
Air@@ 0.40914568234355764
600 0.9039917229127309
district 0.2667305703024331
يد 1
ناء 1
um 0.03274818795277203
ٍ 1
la@@ 0.07701102285035479
قي@@ 1
E 0.12172292455809845
le@@ 0.02084228797410072
وسط@@ 1
il@@ 0.030958023266441627
B 0.10653621084944655
ol@@ 0.02789926827970321
وظ@@ 1
United 0.10167870132369335
مشر@@ 1
1989 0.28454820856636465
ot@@ 0.030987921252702024
قض@@ 1
1997 0.23852695951123962
el 0.00748251052385015
عن 1
L 0.09482903042467623
800 0.910770449100386
co@@ 0.03436556191686015
,000 0.6313049135553758
ay 0.05880937957931081
وامی 1
ac@@ 0.017342290592302398
and@@ 0.049907961699279295
1940 0.3981983523704947
ة@@ 1
ﷲ 1
ce 0.03606987811644648
municipal@@ 0.5611156676034361
1996 0.23060656658178433
Al@@ 0.035948397244129425
الدين 1
طینی 1
كري@@ 1
ty 0.07615206912404476
ئیں 1
aj@@ 0.13140606819346354
1918 0.47822200001542464
يت 1
تُ@@ 1
ate 0.027273732933362105
tr@@ 0.01673801411101607
am 0.03124380008438458
1993 0.24782654560165757
ولد 1
sur 0.0487929400068704
رر 1
1920 0.41623308071720083
ومن 1
۰@@ 1
esh@@ 0.9062067265403156
States 0.13174213585510233
12.@@ 1
O 0.11435043141678582
انتق@@ 1
Ohio 0.755772031437677
ra@@ 0.05705538080181969
sh@@ 0.04422980535189291
f 0.044664537836878924
250 0.9896574776187631
az@@ 0.07608035939448254
الك@@ 0.7070251951294954
يلي 1
ir@@ 0.039951129903995825
دوب@@ 1
ضم 1
700 1
N 0.13901820493382153
ay@@ 0.06391821711348115
10,@@ 1
1941 0.3546098614700786
40@@ 1
11.@@ 1
} 1
ow@@ 0.0809476518303624
ist 0.01948650049019125
r 0.06718349526057282
ti@@ 0.022000793273035148
1988 0.26700485381802763
im@@ 0.0191103021799189
ph@@ 0.03195879869492216
كر 1
ic@@ 0.024926136747830983
An@@ 0.03593808492400613
R 0.1038853814308054
de@@ 0.028018783898863874
ent 0.01585468613509
ضاء 1
واج 1
ﺪ@@ 1
پیدائ@@ 1
em@@ 0.025093110074848393
ۃ@@ 1
ya 0.076436280705357
كور@@ 1
ومات 1
لك@@ 1
1939 0.35871522314628523
رين 1
ٌ 1
1971 0.32517075367015674
واس@@ 1
1944 0.31242539065221847
name 0.10578518255681253
۹@@ 1
كان@@ 1
بين@@ 1
ou@@ 0.052110478492698266
« 0.01828809269646384
ريك@@ 1
po@@ 0.02980758962438585
F 0.10681288586793278
ؐ 1
1995 0.20989772666539866
ak 0.10463550907386274
# 0.43787429271671086
by 0.010295935253548718
1948 0.3808269848723655
ﮩ@@ 1
120 0.9419696543783276
راد 1
ﻮ 1
مين 1
P 0.08351481436321158
اه@@ 1
1994 0.2053349405913719
ang@@ 0.03530042706499127
port 0.08044947086092041
z 0.032055634142767096
1000 0.7073420786279284
اري 1
ۓ 1
ابت 1
دري@@ 1
ومت 1
2022 0.4230791275397113
village 0.15314747794128353
11,@@ 1
1930 0.36411321456275186
اوت 1
جڑ@@ 1
S 0.08485815468480498
بري@@ 1
ﺣ@@ 1
الاح@@ 1
يني 1
ﮞ 1
th 0.02848047595445215
In@@ 0.03553531095727872
1984 0.2609709446520358
المر@@ 1
1986 0.2543518195486009
kh@@ 0.11318061489499186
ur 0.06484830012432038
جه@@ 1
جوم 1
طق 1
35@@ 1
ﮔ@@ 1
ine 0.024948462298397187
التح@@ 1
1979 0.278612829930029
۳@@ 1
فري@@ 1
oc@@ 0.03270041968230746
ap@@ 0.023470653248622846
مود 1
ﺴ@@ 1
X@@ 0.08606295976973813
نوم@@ 1
هم 0.7098393053735319
دون 1
li@@ 0.019401198257250354
1985 0.2520438120685873
Reg@@ 0.07797792935668273
De@@ 0.06050823054696413
{ 0.8640000244133101
50@@ 0.8731559752427142
ed@@ 0.028466521396593777
New 0.05283653346829849
أت 1
تبر 1
12,@@ 1
ban 0.2722134135957393
زمان@@ 1
ﺷ@@ 1
.com 0.9310126090023779
وغ@@ 1
1987 0.2383631211777617
ﺋ@@ 1
ﻥ 1
الي 1
1975 0.2591059712096746
1919 0.3976456845816089
ka 0.11127333180068975
1974 0.2676892838320412
1942 0.3057230174071347
tion 0.018301564437818132
ً@@ 1
du 0.013079393828163822
station 0.1297829422493864
1982 0.2518602413060027
٭ 1
II 0.09084669014701097
lu 0.9570549197437033
ó@@ 0.06078627075832668
شخص@@ 1
1978 0.26525995845269656
1983 0.25047651072173527
النس@@ 1
اتب 1
فق 1
ain 0.061411239326429556
for 0.007688214250264396
كن 1
ang 0.07365237860463829
w.@@ 1
جي 1
id@@ 0.024090615007936314
ww@@ 1
مه@@ 1
1973 0.26140036386291016
um@@ 0.025002480041203798
et@@ 0.02037100656974207
مثل 1
1917 0.41083590012440974
ﻗ@@ 1
af@@ 0.03235720411842534
M 0.07893636103726738
ps 0.08282557463532098
j 0.25798448207748087
qu@@ 0.01828391270599136
٫ 1
G 0.12085863219039608
ec@@ 0.022415600204749638
ated 0.019355097350936074
di@@ 0.014341521316679207
si@@ 0.020708367402686025
المص@@ 1
1956 0.3096466801266103
1967 0.27064950303064333
1969 0.2663770612953066
Is@@ 0.11432747016712352
Ol@@ 0.3319773669128768
1972 0.2365515471448759
Par@@ 0.04687141556345399
مك@@ 1
Th@@ 0.03339944509798741
اجتم@@ 1
۵@@ 1
۸@@ 1
… 0.29784326091003427
ﺖ 1
1914 0.3831727663781583
X 0.16816034063105928
لول 1
مسي@@ 1
زي 1
1981 0.23019743794459047
ary 0.03204659797874016
ers 0.01263428639351408
iv@@ 0.05155567060501699
ﻌ@@ 1
au@@ 0.022681127960856234
International 0.1463999004450198
be 0.01897270044748502
me@@ 0.02973102859862051
ne 0.025250395230812624
se@@ 0.019572744741296704
130 1
ٸ@@ 1
۰ 1
اؤن 1
Se@@ 0.05291650414249617
الاق@@ 1
1949 0.3017776299238981
og@@ 0.0468632104190892
1976 0.23104919585580508
1977 0.24426169704632705
80@@ 1
° 0.18871052335841126
1946 0.2778747616581693
eh@@ 0.037744397415422105
it 0.009973850255472008
؁ 1
عم 1
ﮑ@@ 1
ثم 1
110 1
1965 0.25911390788975774
900 1
Provin@@ 0.22640165254369254
1958 0.28695225994370566
way 0.05154904502073094
124@@ 1
land 0.03707393902277118
ve 0.014376722701135412
٢@@ 1
1936 0.30752494652177476
br@@ 0.021376440178780282
ut@@ 0.026719392993288228
يل@@ 1
1962 0.2702157550173026
ol 0.07934114337318376
۷@@ 1
ci@@ 0.029383991107083403
ent@@ 0.013392371653539122
ge@@ 0.03308641600826777
لند@@ 1
وخ@@ 1
Lo@@ 0.108525412238247
افظ@@ 1
بح 1
Tr@@ 0.03160264457922151
age 0.016223484879902817
ائیو 1
public 0.08858253636888835
● 1
ional 0.2956933643832546
é 0.011862012933133173
مانوں 1
ضمن 1
فرانسی@@ 1
ir 0.043191984576840765
Sof@@ 0.5423594481982731
قي 1
III 0.15334379605265616
V 0.09865117925037395
ash@@ 0.15978792226441635
ﺒ@@ 1
ﺧ@@ 1
H 0.13569243321729516
180 1
em 0.07682278662687304
ro@@ 0.018690039651620638
ﻓ@@ 1
are 0.013791514108799205
eg@@ 0.022803867973567923
ish 0.04300023884681582
ard 0.03328190413251853
town 0.11192590058310603
140 1
ical 0.04865633120450138
wa 0.13711593651543624
ni@@ 0.03348363801259906
1957 0.2823551846029438
1968 0.21161328093441686
ho@@ 0.025718987557596645
् 0.014893133121478502
od@@ 0.04095093104622485
ri@@ 0.02535586577665011
فورنیا 1
ولوج@@ 1
1964 0.23322587468643893
Com@@ 0.03466434549370298
iz@@ 0.03655985159066647
به@@ 1
۴@@ 1
ous 0.034100690627170645
كلي@@ 1
1963 0.24982305082372286
160 1
ٗ 1
ach@@ 0.022536980094049388
be@@ 0.017385508675454426
city 0.09567579780426032
1935 0.3150379336742591
dice 0.44801829000841215
Ab@@ 0.044619836633802014
لد 1
Bar@@ 0.06104723910929511
حز@@ 1
1943 0.23011525617178807
Mor@@ 0.07753803850683358
aw@@ 0.05018771142195102
ana 0.03787765376362318
ab 0.07836974409486429
lo@@ 0.019507584508489287
ma@@ 0.03365162256329022
واع 1
• 0.8585180351669114
والم@@ 1
ev@@ 0.025103606660029653
ory 0.04876657736854348
ﺪ 1
Br@@ 0.03017283115852003
1953 0.28225288632477785
ﻦ 1
واح@@ 1
ﯼ 1
101 1
120@@ 1
Maz@@ 0.7155367036148059
Sain@@ 0.46062751964231036
ice 0.03775972640280867
é@@ 0.012105802328860833
يخ 1
Mon@@ 0.049223473353995205
Central 0.2047418788930204
ig@@ 0.01659733979890519
ﺕ 1
المؤ@@ 1
قال 1
۶@@ 1
one 0.015219042005530675
ابات 1
ﻡ 1
Mo@@ 0.05133015530929008
الأ@@ 0.22988568623092887
ans 0.025829558635600734
ea 0.0875595216327294
dis@@ 0.018192810489613864
ill@@ 0.039138477811356535
ov@@ 0.04525257248621222
ﺁ@@ 1
بين 0.854815157400052
1937 0.27400754863009674
les 0.007670349536781709
المح@@ 1
كل 0.9549023672988117
Co@@ 0.03647556037143389
tri@@ 0.030732402725989472
المسل@@ 1
1951 0.28483827678826545
Con@@ 0.027512764892687606
U 0.08557589693834883
ł@@ 0.27739549227747773
1952 0.25760055079034033
ها 0.2758190930568883
inn@@ 0.07547073513242707
un 0.006542259163255736
حل@@ 1
٣@@ 1
لاء 1
350 1
ﮦ 1
1912 0.3348412734246072
1959 0.24345658489201333
1938 0.24059640236948854
1961 0.2336461074157421
بلغ 1
Be@@ 0.030840701549622658
est 0.006416054963540429
ota 0.15946638628510126
الث 1
يس@@ 1
As@@ 0.0619855159784664
IC@@ 0.4310529199215963
ey@@ 0.11303679966659218
ina 0.038074436786263044
1933 0.2564310821533485
Dar@@ 0.1400325485666577
NA 0.5400509070396629
الفر@@ 1
ولي@@ 1
ani 0.1501191705348181
vi@@ 0.01783594364282707
1954 0.25054741114620305
ﺍ 1
1921 0.3226093125852072
حت@@ 1
il 0.013561953511608276
طن 1
Car@@ 0.037841956141095125
ۡ@@ 1
ie 0.014402156647324589
نوف@@ 1
يز 1
؍ 1
ne@@ 0.023310467078781906
\ 1
se 0.006620616044633964
‏ 1
نح@@ 1
K 0.10889805546365183
bi@@ 0.023840737076824544
ence 0.021280404564626782
har@@ 0.08269924459979189
ong@@ 0.05128827446355247
coun@@ 0.06251165259075268
ub@@ 0.07717849775020552
۲ 1
os 0.009482311282102886
علیٰ 1
1966 0.20186199177982195
$ 0.07725950678073447
الرا@@ 1
ﻞ 1
id 0.050871033447681104
ing@@ 0.03123468677545016
re 0.01845538225901666
ولي 1
برطان@@ 1
no@@ 0.03913085880815286
elle 0.0222281716643914
Per@@ 0.052891171527456066
ology 0.08215568259292212
1955 0.23722695909508115
ver@@ 0.00958494245118021
Ro@@ 0.04498054305796146
ژ 1
ton 0.035402414801894405
ha@@ 0.09792338266722553
ère 0.039580607927675766
اله@@ 0.7885094553847518
des 0.0043440289875073595
رة 0.40396602137513815
1934 0.2641763246551007
ter 0.01171308885127821
mad 0.4596092166851027
tu@@ 0.04746305215309774
St@@ 0.019787680636012422
ob@@ 0.02628476644233513
with 0.00578405462386905
موج@@ 1
ى@@ 1
1932 0.2767385809056904
يش@@ 1
ﺱ 1
.. 0.4915700747148453
yn@@ 0.10685655767291864
ai 0.06097206792778728
نحو 1
Gu@@ 0.046681560439376844
Am@@ 0.04438843325332621
ari@@ 0.042602196433333475
di 0.08573345520873599
يُ@@ 1
ﭼ@@ 1
Region 0.2682077764264822
do@@ 0.027844293303354882
طي@@ 1
ﺯ@@ 1
na 0.04410807454042259
1913 0.31944325027510295
واض@@ 1
کیلی@@ 1
istan 0.2278522531767113
ie@@ 0.04212207421617502
۱ 1
1922 0.2806526860460398
ari 0.16404638295333496
ter@@ 0.014114461897928145
Qu@@ 0.040388699619423186
ﻲ 1
od 0.037486480455593524
۳ 1
ati@@ 0.025353837749808657
ﻴ@@ 1
امي 1
v 0.0511145794979112
كن@@ 1
اك 1
1931 0.2696644782133307
Ger@@ 0.05808290949837385
gen@@ 0.021184410651718204
ly 0.011658038640028668
ons 0.018304106719076774
eb@@ 0.021098597136975237
ﻢ 1
W 0.1157723824763675
والح@@ 1
كام@@ 1
ok@@ 0.03476797407259097
Kar@@ 0.07866063794327662
رية 0.6560801483163938
ative 0.04181620728113767
op@@ 0.01606388321407362
برت 1
ali 0.19397163713702922
ليس 1
ٓ@@ 1
1929 0.239771270627179
bor@@ 0.06134091161616688
hi@@ 0.02672535512113212
partment 0.13388846327239462
ts 0.011981026144269801
تط@@ 1
ﻝ 1
California 0.13409141236869168
٠@@ 1
Ne@@ 0.04460842487018531
gh@@ 0.2280352570732613
فقط 1
ﺤ@@ 1
ch 0.020240036693155473
gu@@ 0.027685044680224594
territ@@ 0.13767987542553717
المج@@ 1
ant 0.010833608596184393
ough 0.09844822343245457
ac 0.13488961326703403
ber@@ 0.024318847925071874
· 0.07016237783180637
South 0.0661143713933231
da 0.02332745010434398
1924 0.24870447836089485
Ma@@ 0.04759558764850359
pr@@ 0.015805558257648105
فرنس@@ 1
‍ 1
1500 0.6585145299768908
eng@@ 0.026993230995002906
per@@ 0.013275604404912626
عي@@ 1
كتاب 1
te@@ 0.017864828748828488
Man@@ 0.0392012699864226
Pr@@ 0.032816412169708285
ta 0.025549421981079085
هر 1
٩@@ 1
ﻼ@@ 1
👈 1
sp@@ 0.019351505770576254
يون 1
lands 0.0987321683607168
٢ 1
ism 0.08636700341307377
طان@@ 1
۵ 1
ali@@ 0.035283810795551096
Sal@@ 0.0674671158688553
Pe@@ 0.062352851793834575
ندي 1
يت@@ 1
ep@@ 0.02334780072217764
به 1
على 0.1320221693718539
فہر@@ 1
commune 0.08614943849378869
ex@@ 0.010831031402903545
الض@@ 1
شخ@@ 1
وني 1
man 0.022730955639786034
pp@@ 0.0490097434126209
ra 0.03381635922700408
ba@@ 0.04557717091281737
he@@ 0.020394247325696162
Tow@@ 0.18445412222467056
كت@@ 1
Y 0.19553727010599267
خي@@ 1
3000 0.7589165180422199
Me@@ 0.046457859008757686
ong 0.051020733787168544
Sa@@ 0.13200711619495054
۴ 1
Pak@@ 0.24490115827178252
man@@ 0.01934327532409544
ran@@ 0.028643341469785717
1915 0.276074785034493
Nor@@ 0.03537746075838464
ru@@ 0.028964366981945443
É@@ 0.05830152435591436
orial 0.14490563704420215
rail@@ 0.1547124905403043
that 0.005795975502828898
Moh@@ 0.292237586472746
Ph@@ 0.04859698201225881
العظ@@ 1
عض@@ 1
all@@ 0.020545294389740426
المغ@@ 1
تبع 1
Mal@@ 0.06257417911812464
ai@@ 0.06271379899338245
ge 0.016129777775741885
we@@ 0.017156605238625954
البل@@ 1
واست@@ 1
Ad@@ 0.030915117148501273
Le@@ 0.023954028963068686
Pol@@ 0.03791208867108246
ath@@ 0.028882109009953916
pl@@ 0.011967261834991789
نوائے 1
-- 1
ance 0.017582464396077118
ian 0.0620784950171195
י@@ 1
ﷺ@@ 1
Sp@@ 0.03261250191588014
مة 0.3033579910250355
--@@ 1
res@@ 0.01421602248246918
1916 0.2721401229586378
Es@@ 0.08349471264762372
au 0.00940650034885671
واش@@ 1
البح@@ 1
زيد 1
شري@@ 1
1923 0.23079000899600594
الآ@@ 1
all 0.014950859021960868
ﺠ@@ 1
Ali 0.3842489116215139
co 0.03563006223901551
den 0.0050082684312937375
يز@@ 1
ﺅ@@ 1
1926 0.2181879058221167
gr@@ 0.012732135100261815
الحک@@ 1
ign@@ 0.036355433671605465
so@@ 0.01807936492343044
was 0.0023763977667557367
yr@@ 0.061449721727586205
ā@@ 0.1572144126267187
الجام@@ 1
يران 1
ﺩ 1
1900 0.230757422289631
En@@ 0.03584028334336916
lu@@ 0.03460648067721791
ﮏ 1
Martin 0.14451967534634058
ﮕ@@ 1
Col@@ 0.036776610520810694
ement 0.013197643091469258
mon@@ 0.017507015813248445
uc@@ 0.03170793747868075
۷ 1
Bel@@ 0.053439987652016435
Li@@ 0.042020697359655274
ties 0.03223844471338874
son 0.008477762513575623
ﺻ@@ 1
able 0.015697635086359782
lam@@ 0.06086468435390899
Ho@@ 0.06937326270627246
Sar@@ 0.12553641297476492
ys@@ 0.05077608762924855
Ver@@ 0.013960723959235614
ez@@ 0.061649846406095776
onom@@ 0.12406548382027634
For@@ 0.03238805807994607
تاريخ 1
عمال 1
واء 1
Ah@@ 0.24195119864233564
anc@@ 0.026988131294595163
community 0.11217257649919905
dom@@ 0.08774979678706864
ure 0.02102800070585941
ده 1
ﻘ@@ 1
Bol@@ 0.14802288800748054
North 0.065556684257164
ect 0.030717321438901612
ville 0.04587430658847021
que 0.0034501404695820265
داً 1
City 0.05381939384786578
tic 0.04857225402785289
هد 1
ٖ@@ 1
ڪ@@ 1
۶ 1
ala 0.07849398708166731
region 0.11770570855882243
كوم@@ 1
يع@@ 0.8127896224136588
IS@@ 0.16888884980848065
ates 0.027839222475745957
المد@@ 1
المش@@ 1
عضو 1
ell@@ 0.01991822124341927
ابتد@@ 1
ابع 1
Cor@@ 0.03648599614807276
ire 0.02598476314098695
iy@@ 0.13285845756534564
ﻻ@@ 1
Ex@@ 0.03435352974242308
end@@ 0.015327653876349621
ha 0.04763439707680239
كان 0.32583573975459584
1878 0.4136177444260498
1905 0.24049860205387028
Pal@@ 0.06284217916740821
ki 0.08895109229045935
ته@@ 1
1910 0.2131416108747457
no 0.01726503273514423
1925 0.2008023109643098
ics 0.039939909721595855
ze@@ 0.0556046539474593
Di@@ 0.023796669559382783
ace 0.033084561317800625
ann@@ 0.02311062595620348
arr@@ 0.025180491835179248
from 0.005435052509404203
top 0.08394381508095872
النا@@ 1
مذہ@@ 1
No@@ 0.07918066185729164
ard@@ 0.031045781788917582
mar@@ 0.015357390443005365
۸ 1
Kor@@ 0.09091644519928026
Or@@ 0.025737888631498784
gi@@ 0.019901784823223616
ile 0.02203087189082053
ille 0.05709411261109916
ley 0.03300828355031588
á@@ 0.02068590089489366
1927 0.19655663160888445
Val@@ 0.057303788866535726
ו@@ 1
1928 0.17685836228519022
ast 0.030825197687031458
level 0.11263648925064926
وّ@@ 1
المث@@ 1
Has@@ 0.32150104246315175
India 0.09848221152458018
des@@ 0.01948113015644214
hi 0.10431458943387925
؎ 1
Po@@ 0.04010734068778288
البا@@ 1
مرتب@@ 1
1908 0.237224933736554
Tol@@ 0.2935653126809249
bl@@ 0.02115401458430714
bot 0.3165968883739185
ta@@ 0.026378166155872938
لين 1
1870 0.32510695526230843
1911 0.22821495317684487
Mont@@ 0.11994305475356917
du@@ 0.030220282029707522
ot 0.04411820342053858
su@@ 0.012459286695558635
Gr@@ 0.023314257342357425
Char@@ 0.05784852467235622
ass@@ 0.013462931804774236
pe@@ 0.025023095626745612
1848 0.39119054575015627
1890 0.2977472944968438
cr@@ 0.020741602814124526
incorpor@@ 0.16701966963712256
ish@@ 0.04070180508271988
li 0.08697043208531947
أ 1
دين 1
ية 0.0834495615416609
Jean 0.07758456655774028
ess 0.020583924312730532
ou 0.021278422221231722
ﺸ@@ 1
1907 0.24479481479628296
Aut@@ 0.08904878227160092
١ 1
Air 0.11341217689778352
Bur@@ 0.04497535226424608
ica 0.02209942623631945
st 0.01649879505825951
له 0.8356993235089941
ﻔ@@ 1
1880 0.32913998030784825
Her@@ 0.02904232831155489
ell 0.028610397545542874
ind@@ 0.030558967416489738
ania 0.11352272456047025
ations 0.011199993484792743
Ag@@ 0.0935936389028544
che 0.025582875393901968
ey 0.041442862328356346
ib@@ 0.030595190670050097
٣ 1
ذری@@ 1
Bal@@ 0.07191826449264514
Bor@@ 0.06342461277044589
China 0.09567732591141796
der 0.001680800864604609
iss@@ 0.03733949628954996
روع 1
Ser@@ 0.03347578326501862
con@@ 0.008088729686533742
lin@@ 0.022403019914501804
So@@ 0.03953388111532013
ick@@ 0.03279724422136845
ô@@ 0.07395377959801208
المس@@ 1
Ur@@ 0.07691885466026444
West 0.06232380170892872
mo@@ 0.014841729816163902
our 0.027061271805736625
zy@@ 0.2359636433154574
الحر@@ 1
المت@@ 1
1860 0.3464092302721931
Chap@@ 0.22632076413416946
elec@@ 0.03861009116632577
الوط@@ 1
معظم 1
۹ 1
ﻭ 1
1909 0.23922942493460264
World 0.033873573931587214
amp@@ 0.037565330087118626
bo@@ 0.01695869301251738
متر 1
٤@@ 1
Har@@ 0.04363147482555417
Jersey 0.24967851825927978
ca 0.039698110013168864
ek@@ 0.01846951716015043
ion 0.02237928136274015
lines 0.13623153944678654
Pierre 0.1428112800309312
Pro@@ 0.039849870982963415
Vo@@ 0.15254897579097645
كم 1
Gar@@ 0.06599616580911925
ite 0.012369935359003966
المست@@ 0.9693184887076652
٠ 1
Cr@@ 0.04461550229044922
تمث@@ 1
ﺐ 1
He@@ 0.02758384227289672
oh@@ 0.0465047226718032
oph@@ 0.05360339355085646
str@@ 0.01613576349248639
يار 1
1897 0.285174773840495
ale 0.010955406222832696
ins 0.0231695872494231
tro@@ 0.031101702478152884
London 0.06256087766760149
area 0.04123625668222614
ly@@ 0.04995113567176878
ue 0.014300659783958692
1895 0.28516933078535606
ek 0.03474029318506394
ès 0.06703600792505836
dom 0.11067295351877574
pi@@ 0.016006672432849024
ist@@ 0.017378844430400452
ore 0.03137324609045392
Su@@ 0.04182596282269795
ages 0.029609236786843313
cons@@ 0.02902794760660932
hum@@ 0.04212777685315174
ؒ@@ 1
٦@@ 1
ji 0.14952161063931416
ﻬ@@ 1
1876 0.3618819026246064
King@@ 0.11486587809887124
University 0.025695267152407084
بوا@@ 1
زوج@@ 1
া@@ 1
1901 0.24318591144785015
? 0.090244323910944
Go@@ 0.05455911228870186
Inter@@ 0.04770476680555123
ant@@ 0.01945174554342663
ents 0.013062143899449864
ug@@ 0.02935084254438335
za 0.04085197472384872
المنا@@ 1
ﺰ@@ 1
Rus@@ 0.03916037096871662
ess@@ 0.020264382663488224
mi@@ 0.02156962431617938
ud@@ 0.03462017736438863
کاون@@ 1
ency 0.07687255455704577
its 0.007938086919261495
pol@@ 0.03696891036772124
Japan 0.10428357592156802
air@@ 0.027576490000744143
ff@@ 0.0175517475849171
inc@@ 0.018786854247691883
ost 0.033557113889103575
uy@@ 0.09274087108818616
1906 0.2112091930107974
Ac@@ 0.0339379838149132
Ber@@ 0.02837304391302749
sa@@ 0.026887163783198963
inter@@ 0.010852186035173895
ورة 0.8562615889852183
ﭖ 1
ais 0.04689912620282064
1896 0.2643695733806478
Gre@@ 0.04485909485793651
adi@@ 0.037668036399414406
der@@ 0.01281982041246787
ome 0.03617484967261782
العالم 1
Kal@@ 0.13181606009502814
Mah@@ 0.11898168308612261
cor@@ 0.017074611156628016
غير 0.5976234043130191
ليل 1
ma 0.027567010558130853
الشر@@ 1
ٴ 1
1877 0.35563350166051316
1904 0.21410842824344772
Bi@@ 0.04365923867396859
ecture 0.11039267166087528
أُ@@ 1
1898 0.24941253737058744
Rom@@ 0.06405191910858067
Tur@@ 0.041164074462074055
hu@@ 0.04610446836041373
me 0.016391770612541996
syl@@ 0.14766106407082996
ولم 1
Mas@@ 0.0523423936795852
â@@ 0.04256050108284643
اسي 1
﴾ 1
She@@ 0.17535577295772944
1800 0.4270371760262312
National 0.030488080159646814
je@@ 0.04423067366573953
tions 0.012088330787667644
ديد 0.8980939793644277
Mus@@ 0.03956925747777422
az 0.08452021969437146
ford 0.0487022272299702
الات@@ 1
Bas@@ 0.058125999026230654
Mos@@ 0.07637997804807542
Park 0.06257590228801865
amb@@ 0.024542414360106898
ara 0.0513734670108654
enne 0.040947583293053244
ight 0.018574281804237595
1899 0.24569539199020454
Penn@@ 0.1520068494125306
administr@@ 0.05420102279722897
the@@ 0.023720771824553382
und@@ 0.014749941808064784
yp@@ 0.043904917840899185
ola 0.0803771240501493
und 0.0019093826506601016
AC@@ 0.16815194002495662
San 0.03681372266180482
uz@@ 0.05666593807247659
الرو@@ 1
vania 0.16837546525176147
البي@@ 0.9279334629847492
ثلا@@ 1
Em@@ 0.05592653987458885
Mac@@ 0.07295585527693672
Mi@@ 0.06498289692152041
als 0.005212363293349472
بير 1
وادي 1
﴿ 1
Pre@@ 0.05800488307821077
include 0.04682101244238323
الفت@@ 1
ﺌ@@ 1
ﻳ@@ 1
1830 0.38876020576999376
ash 0.11465598097588355
الجز@@ 1
الجن@@ 1
Un@@ 0.026984213137552955
ain@@ 0.027046329231323277
ﮢ@@ 1
CO@@ 0.1518114614153686
Gen@@ 0.07481785741927899
يوم 1
ٖ 1
ﮬ@@ 1
Pl@@ 0.02758075843673419
hip 0.13020148822130864
بناء 1
٥ 1
ﻃ@@ 1
1882 0.3054315030714171
ahr@@ 0.09205056270086925
وتع@@ 1
1892 0.26242984733259545
Cap@@ 0.05908673059062438
ane 0.04231226832759121
ebr@@ 0.12688293880083798
ens 0.013719344675639731
ji@@ 0.24615164272240592
language 0.08945131113920045
trans@@ 0.019646892296999192
ؓ@@ 1
٧ 1
Ham@@ 0.08492223381724047
ama 0.034250373436090956
car@@ 0.013396396525258565
Gol@@ 0.0984110523901526
col@@ 0.015543406008831343
wer 0.07080847706881488
è@@ 0.02346010898943372
السل@@ 1
Cl@@ 0.0424390241059931
sub@@ 0.017340720088969124
uk@@ 0.03707756672070883
ze 0.024788735930136415
وير 1
BC 0.08820486588175111
Ta@@ 0.10523059019516455
تت@@ 1
٦ 1
ﮍ@@ 1
ﺏ 1
1881 0.28959071890067484
1894 0.2559097285944767
Q 0.18397556899290954
om 0.03509545627894837
Cro@@ 0.07701755293586698
old 0.020905897504227333
section 0.08622074470861008
المط@@ 1
٨@@ 1
1871 0.2711502627728324
1902 0.19877014723547798
go@@ 0.0176446007478678
im 0.004582692094776365
main 0.04109672183406951
ָ@@ 1
٤ 1
Tar@@ 0.12849016098822877
ens@@ 0.013108718203373313
ings 0.01805559093196323
أبو 1
نى 1
aux 0.011426858150588592
fac@@ 0.020695038342448287
٧@@ 1
1903 0.19292058255906708
At@@ 0.04874217910154371
In 0.003792955334378236
العمل 1
شه@@ 1
1887 0.27044524071065745
Au@@ 0.03930987466855508
mer@@ 0.01830274898869675
sett@@ 0.07809764305653959
ve@@ 0.024587019337027952
AR@@ 0.11058010193847383
Mad@@ 0.06426571262227788
Mir@@ 0.12688888409604285
Ru@@ 0.08811569462710041
Si@@ 0.03473119838657672
han 0.08101078871184332
mu@@ 0.03757130959232105
unc@@ 0.03331736878563642
تها 0.6009482977821965
يش 1
٥@@ 1
ast@@ 0.032831994172749034
ich@@ 0.01526336871211176
تين 1
ﻄ@@ 1
1884 0.2702690613733897
Cas@@ 0.04980244562864363
ographi@@ 0.1421332158879975
ti 0.03921514913793445
الوقت 1
Fre@@ 0.024698861861958923
Laur@@ 0.11549476340847364
aire 0.01966232982657372
era 0.013264234469383566
fi@@ 0.015954895442770973
England 0.05714090408209812
ano 0.018854610994785904
hal@@ 0.03816326188840255
ku@@ 0.05556183104354093
تك@@ 0.6825086024268372
AS@@ 0.08368346377557395
Arab@@ 0.16427195056549146
Arch@@ 0.102383119113272
amm@@ 0.029069462254444976
dr@@ 0.01631593428792927
province 0.10872229770105538
tor 0.017373416184401833
ר@@ 1
ﮮ 1
ada 0.009911786578523854
do 0.014364721579871094
local 0.03908868045202404
ويك@@ 1
1879 0.2766054080118454
East 0.06216662714847719
ges 0.05274204676899588
ise 0.014234202842256502
sc@@ 0.023172401323311206
نه@@ 1
Az@@ 0.1562012853262413
Le 0.009591181045861678
River 0.0493413047983981
UN@@ 0.1483200686045902
cul@@ 0.019805441741335587
ople 0.1277758830434504
ther@@ 0.041298429683953655
ٌ@@ 1
CA@@ 0.07005488196843941
arch@@ 0.04534232643736812
has 0.007616867907763549
ont 0.019296187679732395
عة 0.21059356376668625
وه@@ 1
Cal@@ 0.05306240145990843
El@@ 0.021672835495830815
Gal@@ 0.048793679725881924
Sy@@ 0.04769495253193484
aci@@ 0.02372276480972509
lar@@ 0.020903118166945126
sion 0.018072338450302494
ּ@@ 1
1886 0.24783232632411473
1891 0.23228310212824393
Pi@@ 0.054265803026651314
sk@@ 0.03654641862641706
type 0.07473518069959177
מ@@ 1
ﺼ@@ 1
Min@@ 0.025764456488790857
Ou@@ 0.17034435439979156
Ri@@ 0.05900310031916965
Str@@ 0.025759164103326126
dan 0.07297118079766549
her@@ 0.015156008409470876
بيل 1
وجد 1
் 1
IN@@ 0.1340842238469033
end 0.012468182679980368
sia 0.08847492595008521
tics 0.038731644276297286
were 0.005058874157482187
wor@@ 0.01585404473190844
وسي@@ 1
1864 0.25457239224685674
Sau@@ 0.1472546115249093
Sol@@ 0.05013654839874102
net@@ 0.07143006316268509
ten@@ 0.010503541726541922
1885 0.22119244252438347
Ang@@ 0.029679176945765818
Lu@@ 0.03780412753849988
Shu@@ 0.5214199350014381
bar@@ 0.021609290857967426
del 0.004096727609601885
ks 0.012593266632209735
أن 0.13029508527043449
نفس@@ 1
Cy@@ 0.11591104245562585
IV 0.07878288177346739
ok 0.03909546206792504
sch@@ 0.005438588471711663
عي 0.8430921708179252
ﻀ@@ 1
Lan@@ 0.15427016689537934
bu@@ 0.024719270675534647
ré@@ 0.008247909393506139
tan@@ 0.03783406894894521
va 0.035522424624647574
ę@@ 0.3875176942199527
عشر 1
Bu@@ 0.047157807914031846
J 0.08074593017760552
Lang@@ 0.10020085769984488
ao 0.055679919247150024
ata 0.032267887709790104
ja 0.03872776637872289
pa@@ 0.044171249398045176
up@@ 0.024303645430185972
بني 1
ٔ@@ 1
٨ 1
Al 0.05988805677552027
Hu@@ 0.07186221064168669
country 0.05395695276638063
this 0.010347280374899475
ä@@ 0.008322779119194478
العالم@@ 1
ماني 1
٬ 1
ۡ 1
1850 0.25580185099143116
Fo@@ 0.03662002216240788
uch@@ 0.029840916605658848
الثق@@ 1
Chi@@ 0.05759382945197666
ba 0.06299486553624167
ni 0.044768181540384575
ڙ@@ 1
ham 0.059870011241809254
men@@ 0.014979714282686551
tern 0.024188723365496635
́ 0.04656797237350139
ؔ@@ 1
1889 0.20720962240044266
ality 0.04756389928655761
fl@@ 0.013820837907802069
state 0.02835296276492785
time 0.010692202920126972
ym@@ 0.03258881168358362
وأ@@ 0.27196387854571485
← 1
1893 0.20667733774558222
York 0.02358046729511968
ese 0.01800255622549619
ix 0.06590817189412422
not 0.00860089682805636
ular 0.026132387114099872
ٍ@@ 1
Juli@@ 0.07714061771798605
ack@@ 0.02100765752392385
ase 0.02163932837578629
chi 0.09509824093239914
onne 0.07117156865617551
si 0.04102970533391302
ws 0.020861630579961796
كتب 1
1867 0.24522563152186752
Far@@ 0.06744596114759539
Geor@@ 0.04958103374356118
State 0.03229980860626158
ail@@ 0.02037851926635048
sian 0.045462316692062944
1888 0.21452573876428904
Ku@@ 0.14821249487660448
Lab@@ 0.09170631294423454
Mol@@ 0.09690983982623418
mad@@ 0.0845546056486537
obj@@ 0.048912870427273096
א@@ 1
ةً 1
Ir@@ 0.030475955095614002
government 0.033686260934258805
style 0.05320655352752745
try 0.030406966500627228
المه@@ 1
دير 1
٩ 1
Lin@@ 0.05275954158113331
Soci@@ 0.061717294042546646
bas@@ 0.017372660727270724
comp@@ 0.01424859661739116
ili@@ 0.016001356365319276
pre@@ 0.01256333798218296
AT@@ 0.0919799107336702
Cat@@ 0.05886084370537383
U.S. 0.04792770206025202
cu@@ 0.011750161092361766
ديم 1
Tal@@ 0.10366958913634708
^ 1
ade 0.016803860920941768
if@@ 0.014753992825668012
lah 0.2828117720789458
nam@@ 0.021472019621750302
sa 0.012313256324821976
ايا 1
سيا 1
فة 0.3649103756887968
ﭽ@@ 1
ﻑ 1
ﻫ@@ 1
Mag@@ 0.03556449476030156
Mid@@ 0.06815931816523582
Sw@@ 0.04533229159714683
ans@@ 0.0400229620061365
ator 0.03436300986415856
gar@@ 0.028462563956615613
ér@@ 0.013817719212863299
ə@@ 0.8023874613508348
پنس@@ 1
র@@ 1
Indian 0.06954782140744442
Maur@@ 0.11450979739099766
he 0.003562465745433952
reg@@ 0.012760629936236598
uri 0.10178602800598915
world 0.040264367607898324
ﭩ@@ 1
Hy@@ 0.06816505596455943
ette 0.03663484715977168
for@@ 0.009071201065286926
lem@@ 0.04626609244481797
use 0.0144186025725165
يف@@ 1
Santa 0.07423602401162312
field 0.030988623472774025
mont 0.10172903779630484
ש@@ 1
عليه 1
Ali@@ 0.16161025802062878
ets 0.01762071057275437
isi@@ 0.01726636656628186
دة 0.16600768383215367
كث@@ 1
College 0.03462021687602625
John 0.019513949593075258
Sub@@ 0.0864024898770256
Ter@@ 0.050176040760193004
ine@@ 0.05740170380427469
oy@@ 0.023967066349859845
tic@@ 0.019145268567489375
í@@ 0.011387673490271652
كاون@@ 1
ٗ@@ 1
CE@@ 0.12552726287860458
Hau@@ 0.16035448716057443
Kur@@ 0.04966538222900728
Res@@ 0.030581514870523508
cas@@ 0.018881817492241142
ental 0.02370986382674817
fre@@ 0.016658647299287073
ita 0.032477462651577325
ital 0.029366173047237026
uv@@ 0.0429232160615684
yc@@ 0.046117489139939426
ś@@ 0.41223373976944283
AN@@ 0.16161899213653694
Av@@ 0.0753962434906642
ES@@ 0.09896161334822572
La@@ 0.059118303735668946
Pu@@ 0.059956159238287274
ave 0.02410068305583389
ign 0.029944868599076864
ל@@ 1
Mat@@ 0.0340040611844917
anti@@ 0.024931259647825426
cur@@ 0.017497928603951805
ting 0.010830730636802082
ְ@@ 1
ٽ@@ 1
1873 0.22441826544102755
Ab 0.1105397776148805
TC 0.19246473352828006
ul 0.06996266191907688
ver 0.01325125869059489
ؑ@@ 1
اه 1
ਰ@@ 1
ﮫ 1
Sav@@ 0.09883752572051856
acc@@ 0.013643105204001795
tel@@ 0.020273016374116
tes 0.01120147757210896
til@@ 0.02595537382654017
ב@@ 1
الإ@@ 0.14850220427238917
1861 0.20725382017513838
AM@@ 0.15556761025590235
Ban@@ 0.07523868733687933
Ben@@ 0.0412563009121755
Fer@@ 0.0630571509777238
Que@@ 0.05042169248225733
Sel@@ 0.07232410652150585
Time 0.13826373775410053
ean 0.058593766664271775
ino 0.020075400102413543
lar 0.0380211421763192
ה@@ 1
عين 1
alis@@ 0.023921173009021544
division 0.0620402943546966
ere 0.017024230026747914
igh@@ 0.020314768866555685
nor@@ 0.018872539947638864
ted 0.006649815626883706
val@@ 0.020495194475531463
ה 1
ازت 1
السع@@ 1
1875 0.21686593126090817
Ba@@ 0.11473123116592637
Fi@@ 0.044555080945104714
Vi@@ 0.03125070649384773
ally 0.006680663546002502
ax@@ 0.03334392225705814
cre@@ 0.010758139628330348
iki@@ 0.3954521910739938
rec@@ 0.009378740307365893
اضي 1
Dev@@ 0.0532413366469315
Ha@@ 0.08023074336498427
dia 0.057539593030207864
ograph@@ 0.07403356136113744
ères 0.03375120980938033
كاؤن@@ 1
يق@@ 0.4346427594807265
Mari@@ 0.061485992516228875
Sur@@ 0.06211392378229919
arg@@ 0.03433764562647822
ds 0.019395718094764716
tical 0.03329017864517618
يول@@ 1
﻿ 1
Hil@@ 0.07785344915227119
Kr@@ 0.025353912875514847
San@@ 0.05383204231945919
ach 0.011636913404859924
line 0.02002426896234643
ut 0.024222129299724414
× 0.1442280941489608
ō@@ 0.09574930231328653
مارس 0.8001900938700027
ٴ@@ 1
Fr@@ 0.01864576140696486
Ge@@ 0.014458912837052746
Nic@@ 0.06734706017452691
Ra@@ 0.0857028565925005
ban@@ 0.024236990783616068
ng@@ 0.025480616471638403
ura 0.03813454820657787
غي@@ 0.7586332396729616
ﺨ@@ 1
1872 0.211991047163375
Af@@ 0.058015497386555835
Lar@@ 0.11361135811738836
The@@ 0.02327030852961492
aba 0.025186173529299447
ick 0.017116284464571842
io 0.019587544516207596
ors 0.011804328456475647
other 0.007435299549169005
ﺲ 1
￼ 1
eli@@ 0.042004120910044115
ler@@ 0.014684276168771463
polit@@ 0.10059925794207328
ִ@@ 1
أن@@ 0.2352350292732813
بالم@@ 1
ﺿ@@ 1
1865 0.1949194298865224
It 0.006308006792241401
Trans@@ 0.04871145267864344
Tri@@ 0.03430486603290104
bot@@ 0.05687272457265587
hy@@ 0.031658156390540905
system 0.02942783646483329
النظ@@ 0.9861539029453599
ݨ 1
ਾ@@ 1
་ 1
ﻏ@@ 1
ﻱ 1
Gro@@ 0.05923897561990599
Lam@@ 0.12067528070285728
Mur@@ 0.05207583374511293
Wo@@ 0.040943364867981225
enc@@ 0.015244276004961433
sk 0.12970917919338076
ć 0.06906387152682612
جمي@@ 1
يخ@@ 1
يه@@ 1
ﺅ 1
Can@@ 0.03900109712945249
To@@ 0.024506332634285144
agne 0.037673922370892995
ush@@ 0.070888591447968
্ 1
Mich@@ 0.03988547818826745
Pri@@ 0.03585112157522256
alm@@ 0.03283900153170162
art 0.012932837372113851
ences 0.022292745118300226
hir 0.3859459577940065
oma 0.05147536770932467
pos@@ 0.008039140040399469
rit@@ 0.026014013038139962
thern 0.024549464625738714
− 0.14699881733790257
1862 0.19079349952317334
1883 0.193623314156624
Bah@@ 0.04171763908424807
Bon@@ 0.07910965741078842
Dr@@ 0.031049874371499087
Kam@@ 0.08859530090801884
Tom@@ 0.07002169081268707
cell@@ 0.0645712990667033
emb@@ 0.024008298933887236
onn@@ 0.013572158322429214
ye@@ 0.058159533732388476
خرج 1
كون 1
مه 1
IM@@ 0.18580525265251735
Lake 0.06611876530859455
Sul@@ 0.12044147834875772
people 0.019155175808008126
á 0.023688770150965852
ته 0.2631945820055926
Hum@@ 0.06661308440670524
Lag@@ 0.12748667213513798
Nord 0.08559763463734103
RA@@ 0.0874249973328548
Vil@@ 0.09521689454168458
ke@@ 0.023347844324246084
ko 0.05449446382797821
langu@@ 0.15545681297698435
ole 0.03197685550828642
ols 0.03378954333049701
ort 0.03210481651140698
oth@@ 0.030865875094316767
wi@@ 0.024605988032028552
ą@@ 0.4280508523643773
الثاني 0.9947576164656039
Beau@@ 0.11914195918287844
Bro@@ 0.02956744283023424
Den@@ 0.04234320375783081
OS 0.10965318758456874
RE@@ 0.1720799816302445
Sch@@ 0.005214006405212047
arm@@ 0.01661348948547511
burg 0.033792073603330766
iti@@ 0.019840480338026156
ner 0.009004384856658255
pe 0.013632285169037162
their 0.006099197629546431
ux 0.02478051754949078
yg@@ 0.1613003736786041
ˈ@@ 1
ַ@@ 1
العلا@@ 1
وَّ@@ 1
ﻒ 1
1863 0.18515740665394184
Jan@@ 0.06523840642541985
Ko@@ 0.0524347545316226
Ni@@ 0.05412041054993006
Pan@@ 0.052108957988669796
Sam@@ 0.044705663054868734
ble 0.02145394184448715
have 0.0072608207205029085
tar@@ 0.017087254334085717
ë@@ 0.10419843203902791
يف 1
1866 0.15788964815535003
Du@@ 0.04361967416983682
bar 0.04218289071323178
bel@@ 0.011606109647255525
ij@@ 0.10184059551794403
ira 0.052456338882936444
lat@@ 0.018898147365592186
ri 0.07134461840026814
sy@@ 0.02722733451609093
yl@@ 0.025908897550380467
zi@@ 0.020218509704596228
Elec@@ 0.07553153290728573
Empire 0.0755567788652479
Gi@@ 0.027797771828381272
Muh@@ 0.17847567567807857
Paul 0.0335315472525285
Sou@@ 0.03704846174350794
ath 0.03769386736201575
bi 0.10569242452350604
int@@ 0.011985316723964714
more 0.010417217236971478
over 0.010500262540789502
ser@@ 0.01087854764692853
yan 0.07126665957823261
لة 0.11581461085260232
وة 1
1869 0.19771126683745888
Im@@ 0.038605628824054807
Mer@@ 0.029491033793405872
Por@@ 0.033193814331227776
St. 0.03298333769044051
Wi@@ 0.03760098228519076
action 0.02893500010952967
dec@@ 0.009657970518814509
ena 0.022294459739351038
eti@@ 0.034818386469525585
sol@@ 0.008667439409848657
Andr@@ 0.10848368247006869
Lou@@ 0.06725332744332323
Mis@@ 0.03860428500690178
We@@ 0.01790646836645448
adi 0.17581840529303835
apo@@ 0.034766917984238074
nes 0.026560688787569044
ust 0.049265761487352115
اة 0.45210447075352717
الاست@@ 0.5811238820700677
صي@@ 0.818672821040878
ضي@@ 1
ﭨ@@ 1
Land@@ 0.023071175021651305
aki 0.07942276975697844
eo 0.026010565499470763
ih@@ 0.029891457088183054
lan@@ 0.016018289143458268
medi@@ 0.013253646268680207
oli 0.221118171255936
oni@@ 0.028219856429339663
ord@@ 0.01542365452133417
work 0.01234457535859184
الصح@@ 1
″ 1
 1
Stadi@@ 0.09203133839285109
Tor@@ 0.02741794474294477
Wil@@ 0.02552061270581452
ass 0.02505306918498343
astr@@ 0.05003647687990405
esh 0.09450302927374858
loc@@ 0.014101927896255688
mag@@ 0.021176274995547195
mas@@ 0.0172225695087696
tor@@ 0.011837680476568883
yn 0.09711114891425895
English 0.03260785306958197
Il@@ 0.07990105698157554
Sab@@ 0.09030685094195091
Union 0.03481206250769246
alist 0.04458000397759832
appe@@ 0.0448267253317925
fa@@ 0.012493904079306787
ju@@ 0.024078994263497987
ke 0.01410531242882501
ki@@ 0.030408528012176663
mat@@ 0.014017558889771794
mis@@ 0.013440297079241333
ological 0.04768976823602829
onal 0.016786741003176515
ry 0.028213449901408793
ways 0.04245926079540007
النف@@ 1
Bl@@ 0.02416586869580552
US@@ 0.051263922691828445
ene 0.012938665423669506
non 0.023950952666180397
ora 0.02646807130158569
ron@@ 0.056670214007244125
إل@@ 0.3762508119580264
تمع 1
لك 1
Ash@@ 0.10183033394515667
Do@@ 0.039973230358095135
SA@@ 0.11360320126436839
Sec@@ 0.022541551873788077
agu@@ 0.04601331119060104
eu@@ 0.10076425638220655
fer@@ 0.009194660931606221
ik 0.028923244918536158
ko@@ 0.035790755090595566
ond@@ 0.017411109201635806
tries 0.04899586670377453
ée 0.004190784374187185
COVID 0.13947255269701528
Del@@ 0.03914760213350739
Des@@ 0.023523972306556614
Mil@@ 0.032658896294734334
ange 0.026195816535419438
ani@@ 0.039800165059877726
form 0.01649730250970134
fr@@ 0.00929524142503807
ier@@ 0.01512706162208162
isti@@ 0.01385822171646429
king 0.015588950519925178
population 0.01901943035938628
ts@@ 0.011275647682966796
wid@@ 0.043033100799501935
أم@@ 0.3779823549086248
ٕ@@ 1
ۖ 1
1874 0.17231627973528937
Bak@@ 0.0822078296679451
Er@@ 0.007602933771403878
Hol@@ 0.018337451472856335
Sci@@ 0.0413011634941082
TV 0.029291923661442735
also 0.0041543744578692345
ars 0.017512063556686504
fe@@ 0.012026316745701357
mir 0.10611453662040725
net 0.04147937469109017
ren@@ 0.011862816330220112
tw@@ 0.020708259333633783
ung@@ 0.01683103286845352
which 0.003506931562530563
الحدي@@ 1
1868 0.168914140436051
Council 0.04079163491229645
Oc@@ 0.046192966848315364
act 0.01881306056945081
ational 0.046555391056645815
aya 0.04888821728838695
emati@@ 0.047326126192361796
ies 0.011211024452266887
ines 0.018597391621153342
kar@@ 0.038733764571676134
ler 0.009720438016891578
low 0.014527427853729057
single 0.02443810003390982
van 0.04288591648253175
تج 1
هـ 1
Fin@@ 0.024020059457341227
Island 0.049228948019574975
Ju@@ 0.039852784311952126
Pres@@ 0.033879252934897346
ater 0.016879770861810858
berg 0.01930090217527056
ich 0.012736504131162348
log@@ 0.035751378944479516
sel@@ 0.009852666817726395
tur@@ 0.00812021284292015
ven@@ 0.010832346896837866
wo 0.02539801026808186
š@@ 0.06589138785294182
المُ@@ 1
₹ 1
ﮪ 1
Dis@@ 0.03575192012372438
Hung@@ 0.09454624698306051
SA 0.10583586272750593
Western 0.05374212145939712
ault 0.06833207397221873
aza 0.05848591162771285
bec 0.08623396688103982
bur@@ 0.017900794836719986
onia 0.050062709961751176
ous@@ 0.0905980084988312
out 0.007419075147999868
per 0.014614359655260105
prot@@ 0.012630275341015195
حدث 1
ি@@ 1
Bad@@ 0.11522672178654561
Bos@@ 0.07510379556374723
Feder@@ 0.04083642213121837
Games 0.07111506519737074
Gir@@ 0.056995447895007385
Pas@@ 0.04898551835251403
SE@@ 0.09043234780939334
Tak@@ 0.08749696691291675
ap 0.04018897161794682
aye 0.10817518402958295
can 0.011264828386965534
cel@@ 0.028816131348865903
ham@@ 0.09244445523456075
mer 0.011973757339873266
nuc@@ 0.08635992776946153
ny 0.06831780880838104
التص@@ 0.9659725710362492
ڊ@@ 1
Eg@@ 0.0718427106960674
ack 0.014548843937820596
ating 0.011760930320441567
chi@@ 0.026530311542562166
cri@@ 0.017052788725058863
ington 0.04432523300159405
ography 0.03521788768586435
ros@@ 0.030012094040879893
var 0.1731885554734959
أس@@ 0.2431497755953302
السي@@ 0.538484762148134
هو 0.09098226235961569
ਸ@@ 1
Ak@@ 0.04209910317192492
Bab@@ 0.0862066256102293
Chin@@ 0.04646136462650015
Great 0.05835455492504805
History 0.024948440046488104
US 0.019062699542178548
Vill@@ 0.07329647698943949
aus@@ 0.006858387413236454
awa 0.07618157985649068
cl@@ 0.012288479978801921
ights 0.03185510433502703
ison 0.01839407376687981
oper@@ 0.012238516431495542
ski 0.03981335683000462
ture 0.011922562742933483
wh@@ 0.013863189869104075
طلق 1
️ 1
Bay@@ 0.054276115304638786
Ind@@ 0.05225936298706003
System 0.08733975592197248
Wal@@ 0.025554151652510862
Wor@@ 0.03164340954238692
ability 0.04085088874815445
beg@@ 0.016684476867949286
ide 0.025257735779349245
most 0.01146070346378003
olog@@ 0.020252380435319843
pres@@ 0.0076690271687118
pro@@ 0.00742434478977891
ran 0.05979034717930238
إن 0.7831070597707946
نه 1
Bus@@ 0.04398112219466834
Ed@@ 0.024355500138451128
Hor@@ 0.03422277604159989
Sil@@ 0.03508085995594553
ador 0.017428590741632093
att@@ 0.0069244891764261235
ebo@@ 0.11958876688952272
lam 0.108973631158124
life 0.015616931407517971
number 0.016381657457317157
pedi@@ 0.11272758564203096
por@@ 0.009694293791461863
ung 0.0029047493135758618
war 0.004193792234115523
رًا 1
نين 1
ਦ@@ 1
Sing@@ 0.0344272926985258
ae 0.030098766651010717
constitu@@ 0.026187592403744863
ering 0.030213071244063482
ger@@ 0.011236174456352485
progr@@ 0.025547861585644527
ster@@ 0.02268551323291234
נ@@ 1
़ 0.03606230957364801
ক@@ 1
ﭙ@@ 1
ﯽ@@ 1
Ci@@ 0.0328968535494072
Gor@@ 0.09131037825092007
Hal@@ 0.04141567797506364
Je@@ 0.02119797277092544
Mu@@ 0.0538512363061775
Te@@ 0.019179288192597184
Tw@@ 0.09271022442147565
VI 0.1206330153228303
alth 0.030405791546323564
aur@@ 0.02482704887818586
dar@@ 0.01747246659357812
lement 0.05665706908900519
ories 0.03646143549727273
sci@@ 0.04935631751648082
ual 0.015833526403026387
ç@@ 0.01632259549232277
A. 0.040637788210967155
Meh@@ 0.2130428794279107
ains 0.01802605672318572
ert 0.011338062312848347
mus@@ 0.009783617674380619
pen@@ 0.019510598516257197
war@@ 0.015706305565608144
ö@@ 0.008352502580845137
بالت@@ 1
سرائ@@ 1
ੀ 1
ﻊ 1
Cre@@ 0.03247374703775088
House 0.02740411066207856
Ji@@ 0.17257895617872734
Las 0.03176924179969027
Ti@@ 0.03174846334690476
ales 0.005039693022670068
bers 0.046539283787134164
ef@@ 0.009982743855372414
fication 0.03869091652325841
gan 0.09303850305669198
las 0.0036213909661899297
ome@@ 0.06895543912084492
rati@@ 0.026408535379360526
sive 0.020130645705141597
vol@@ 0.010315661541307445
Ś@@ 0.4489947833828612
إلى 0.04848761301180887
بة 0.24008209740073164
مى 1
AC 0.07692679545513957
Lat@@ 0.06072038532207437
Portu@@ 0.05674831104840019
RO@@ 0.14063028201389682
Ram@@ 0.048803104592274146
atis@@ 0.0464196557294739
cal 0.031149787542229884
don 0.05459650159834737
gl@@ 0.02157715587271528
gre@@ 0.0128736553396126
tion@@ 0.019209372252704433
will 0.017168711194448856
ón 0.010447885477352
Ł@@ 0.268928472884339
ע@@ 1
هي@@ 0.3628738768283367
AB@@ 0.14465439840143887
Azer@@ 0.16397283938418042
CA 0.10339490103861465
CI@@ 0.1085726288183353
Nar@@ 0.09918804900968213
ST@@ 0.122611423016339
Ste@@ 0.016029800623928215
Var@@ 0.09736791045199078
atr@@ 0.02562506655523982
dro@@ 0.020437982974891442
duc@@ 0.03818620378709268
edi@@ 0.013662858601409209
fic 0.0318804839235051
ip 0.367328684005612
ond 0.02494560006348685
ost@@ 0.05733747127725394
priv@@ 0.02276842587381827
qui@@ 0.015145509704926098
well 0.010262460550943422
الإم@@ 1
تأ@@ 0.781096357301251
قوق 1
ﮈ@@ 1
ﺀ 1
ﺯ 1
ﻈ@@ 1
Ay@@ 0.086138966367374
Christ@@ 0.03182105189027053
El 0.00567473841778256
Gl@@ 0.030380170125196424
Jam@@ 0.08609833050233888
My@@ 0.062286332211356384
NE@@ 0.1356662658299683
Road 0.04182780882357051
Som@@ 0.03857737633948189
ae@@ 0.0708712366593809
cer@@ 0.010059714796215475
class 0.04022304666153592
ente 0.007617013607846862
had 0.003617440854876169
his 0.0019666790768183284
ids 0.0445058385910737
ila 0.053336921760062814
institu@@ 0.038014578621227195
mor@@ 0.018776480093676908
ness 0.03397992171979223
ope 0.0419170472410773
sur@@ 0.007704820824426003
tem@@ 0.01611133903961836
two 0.005470873632019285
uh@@ 0.04594102099155682
vel@@ 0.01711001227685197
ég@@ 0.023578168449014062
č@@ 0.07020925505670632
مؤس@@ 1
ﷲ@@ 1
Cam@@ 0.0316912510891424
Camp@@ 0.04057547645107833
Commun@@ 0.03901420276218941
Gh@@ 0.08038888013302761
VII 0.15357662676211778
Wh@@ 0.020712070988256347
ami 0.05132449786998984
ask@@ 0.0368462050555833
cal@@ 0.01761079752191274
del@@ 0.017251940245926595
direc@@ 0.01197667547779796
eter 0.026559168434999163
hol@@ 0.021192956903800096
ini 0.01806655116399079
ori@@ 0.01475812114981816
rel@@ 0.0057071560014287015
row 0.04476691077433653
une 0.0024142236784050405
ution 0.020644542879317947
wood 0.030546243062201932
أه@@ 0.5802201369420568
يه 0.4074734925347484
ਿ@@ 1
ﭦ 1
Colomb@@ 0.10899335662745949
Est@@ 0.019190037047954748
Gran@@ 0.05702266074957891
Kas@@ 0.08017608668828126
Mot@@ 0.031841529184613034
Rah@@ 0.06998640874101016
edr@@ 0.04391008271231658
elop@@ 0.06952472298123966
grap@@ 0.02950555140274753
hr@@ 0.02611195766160917
ici@@ 0.010535887052543087
mp@@ 0.025998013289557215
pu@@ 0.010906441033874427
they 0.006878370612242693
ابق 1
المف@@ 1
تست@@ 1
طبي@@ 0.9608000271485049
ব@@ 1
․ 1
🔹 1
AI@@ 0.11169812695002886
ER@@ 0.09613428811059507
Phil@@ 0.030441689299647672
ature 0.015374615910849357
dev@@ 0.01832313970684401
fin@@ 0.005062791808307789
ill 0.02161643459469094
ning 0.014054643163554367
sec@@ 0.007988650912661955
ת 1
الملك 1
عند 0.5820390309107256
ينا@@ 1
ন 1
ﮌ@@ 1
ﺫ@@ 1
Dav@@ 0.044317731858415185
Hill 0.055619903156367126
Mé@@ 0.07956431164885935
Nov@@ 0.05397334224661586
Sim@@ 0.037771252986420686
Sor@@ 0.08659277657912054
Vir@@ 0.060236237262650774
ago 0.05123096340541086
artic@@ 0.036351069476516
ati 0.05913782224707075
ber 0.02259023482549124
ection 0.012501832795878924
histori@@ 0.02403966321942978
inf@@ 0.023095417155642388
very 0.012177735931818865
án 0.015557818444191013
دًا 1
American 0.009388825452104604
Fl@@ 0.014367797599021194
Fran@@ 0.019213251530488737
Les 0.00876147179297639
Lim@@ 0.05673203818972354
Loc@@ 0.046960525356093845
Na@@ 0.0762721655633835
enn@@ 0.010266347169154425
ky 0.027985726769827923
leg@@ 0.010196701485416123
ock 0.030412265287650505
tain 0.01384891430444717
tive 0.021264608438601965
tra 0.030000221548932025
أخ@@ 0.5769693975612513
ਤ@@ 1
Bri@@ 0.03924456912613527
British 0.017304345838854002
Kan@@ 0.04610972889042648
Rh@@ 0.04152482290020588
Sc@@ 0.046730173480262746
Vol@@ 0.03403117289367697
cap@@ 0.010701681191053835
ney 0.02054089773681026
ona 0.02754964793657118
proc@@ 0.016769679351423497
rom@@ 0.018726237512269133
set 0.018007166472985458
sho@@ 0.008916968297271384
£ 0.07955782869719769
ī@@ 0.1659478261027757
التع@@ 0.575823753463599
وى 0.6012995306170134
ۂ@@ 1
Bat@@ 0.04285104200098662
CH@@ 0.11909330883982822
Ca@@ 0.06953832440914179
Dur@@ 0.051777278092951476
Fal@@ 0.0722903711702103
Indi@@ 0.02919129042595086
Ox@@ 0.0627791854983285
Sum@@ 0.03348833204909084
anz@@ 0.01579295281351254
cant@@ 0.03763601770469116
chan@@ 0.02505536369650525
cin@@ 0.025747066960473425
ding 0.020862980403061195
gal 0.08053755811339264
hab@@ 0.0214102690566193
och@@ 0.057570215168848304
oll@@ 0.016150409837690432
oug@@ 0.05113220033278686
oz@@ 0.06120160728283025
site 0.018819080862233592
we 0.02972199184291279
ֹ@@ 1
۞ 1
ﮯ@@ 1
Anti@@ 0.06576333175718263
Cer@@ 0.03761040697620549
Mak@@ 0.07603795603813045
PS 0.08799617991713088
Seine 0.0524997680186983
`@@ 0.7410886750804566
app@@ 0.014183107924371129
day 0.011064978378049798
div@@ 0.04329206502543638
eff@@ 0.013106109100093615
ein 0.0032051490035514634
ft 0.019880048268615502
national 0.018235569476375512
ther 0.008208421908245596
zi 0.08420398995489167
ń@@ 0.16796890969079556
ם 1
التار@@ 1
٘ 1
CO 0.11123717706386498
Der@@ 0.05225453229890144
George 0.023838306461551963
Nag@@ 0.09380171596279158
Sz@@ 0.08892564400369128
This 0.00801374000272869
Vis@@ 0.08042814087971226
aliz@@ 0.017473320410651628
char@@ 0.016348002868033416
ee 0.031810653976107876
eth@@ 0.036802023325935504
ever 0.018478386902458066
ez 0.019965397290111497
ins@@ 0.010506262433623514
many 0.009168767274424547
place 0.010765615405123958
ple@@ 0.03233942571848976
son@@ 0.013982887352906996
tig@@ 0.013661452757642748
ão 0.0575951075644035
ā 0.24117060969906065
ولاية 0.7023548445946447
ڏ@@ 1
ڙ 1
0s 0.012085529699665235
App@@ 0.07409956820623437
Dom@@ 0.04975286431137396
European 0.02789583608806877
Hel@@ 0.035489408551406865
High@@ 0.049275691327278645
Kol@@ 0.04742451656725436
Liv@@ 0.0786162499841099
MS 0.061883243981925996
Rec@@ 0.02513196894635276
Ros@@ 0.02368130904784673
Sud 0.08169194121784058
Tro@@ 0.03302507015796173
bil@@ 0.00988122823166985
book 0.02374150900953726
bu 0.03501246018228927
ga 0.036992048969761
ht 0.07418434283460737
inal 0.022519047385788006
red 0.006137736797720502
ro 0.021679245411972067
shire 0.03403739748151212
ters 0.010039531554835515
thu@@ 0.07894643675655372
ud 0.0463260867580994
vir@@ 0.026839185316766264
vo@@ 0.009373616478098513
إن@@ 0.39406886305382594
نة 0.2805948841914522
وفي 0.23584970950621698
ٶ 1
Bou@@ 0.0820006951148405
CC@@ 0.12396111693333822
Carol@@ 0.043703198872207104
Company 0.031681786060361095
Division 0.025486861191727828
How@@ 0.06984233217440543
Pow@@ 0.05806854483927414
Tu@@ 0.07118689462850204
ag 0.08207701953459025
cir@@ 0.019608674686960318
fo@@ 0.01605421451948092
him 0.008517887790736482
ima 0.03027143750073529
inde@@ 0.06712050554585552
land@@ 0.016002407412523883
lo 0.006175758982961457
nia 0.09938233524445045
onde 0.0475132744493992
ote 0.015454894068298359
out@@ 0.01620797115419484
so 0.006805703169784239
ves 0.01145086772896789
ş@@ 0.026240583939541307
حي 0.8036081959866319
عاب 0.9730330248416424
ﮎ 1
ﻖ 1
Ap@@ 0.036647370253307145
Kon@@ 0.01303802287858174
Uni@@ 0.04224969833308038
aff@@ 0.013099411099530936
aine 0.019049523101886214
azi 0.08466575956982132
bridge 0.036951592100462304
ems 0.017499705144269614
esia 0.15029485746191557
ground 0.022137060554074005
kl@@ 0.015868008246077772
men 0.008425767375389706
met@@ 0.016515315359071768
mun@@ 0.02965822509998364
sen@@ 0.012744150704150978
sous 0.015764475462498276
tural 0.024089448249419866
í 0.01833766549864546
مقاط@@ 1
ې 1
ー@@ 1
AM 0.10528220926696347
AP@@ 0.08215632100273962
Bre@@ 0.023531681496631193
IX 0.1449567441346245
Kus@@ 0.24572562987945237
Mel@@ 0.028771486771884635
School 0.012737212352035948
ams 0.013564538332783326
independ@@ 0.03387275255100454
my 0.03333405002917376
off@@ 0.0069866628377539585
op 0.017804072725724113
our@@ 0.025016577575792516
ov 0.03040595621046039
raine 0.06808028632373231
rol@@ 0.034976731357852765
tier 0.057914066829297804
unt 0.027667995063506493
urg 0.035249914680172106
wan@@ 0.04089314951708077
who 0.004082042175102816
ys 0.030986958498381945
ورك 1
਼ 1
ﺝ 1
CD 0.047872386830334006
Cir@@ 0.06421783728778219
Dam@@ 0.05285078176972234
Mem@@ 0.0411017918075362
Sult@@ 0.16988032882874451
War 0.015406120803198711
William 0.02016659480550388
any 0.01628065929221437
blo@@ 0.04252331267477083
cop@@ 0.025499322936486827
cy 0.038469385882021076
ely 0.009751476449070071
eng 0.08311543170682405
go 0.01601519836003637
group 0.015144223716050393
ker 0.012783656319117707
oa 0.06402871171266143
of@@ 0.013722908172339445
ority 0.027032820658805943
ow 0.025996743442045632
tis@@ 0.01752632774669058
uf@@ 0.013163074974147449
up 0.006650058509014593
view 0.02092940670165151
ן 1
البط@@ 0.9232282226394819
مركز 0.4257170236836979
ۓ@@ 1
ﻐ@@ 1
@ 0.49158741115063914
Don@@ 0.050046413668739034
Maj@@ 0.042976794195486806
Med@@ 0.03367567885911521
bert 0.02831385116834407
bro@@ 0.013439116329669014
change 0.025495243524926017
comm@@ 0.010525218847611907
din 0.11282952270368132
eas@@ 0.026921625756200156
ehr@@ 0.02343748351807464
elles 0.01750272936084375
soci@@ 0.014014965989204098
than 0.009160165073939788
uk 0.09006957666705986
uni@@ 0.014041002168406765
ute 0.02393518617028859
أح@@ 0.6853682393811432
ٱ@@ 1
ﺬ@@ 1
Bank 0.05359207434569208
Bul@@ 0.030827920081854265
Ear@@ 0.01740057940070139
Louis 0.028122729082020934
Mand@@ 0.07865552118297468
ame@@ 0.040925053148051324
bal@@ 0.02263048474950827
bon 0.04922169051592707
bus@@ 0.013765471554874922
ches 0.011965963326668012
cle 0.04537908668088587
conom@@ 0.0579717646215886
dar 0.05901909945289711
dem@@ 0.008313782206710795
ider 0.03690937806781724
int 0.03770699327990917
ket 0.02402626254349032
org@@ 0.04229221291163545
osh@@ 0.12397560239734691
pap@@ 0.0246784673870299
peri@@ 0.02069927729419712
put@@ 0.020945692003230883
rent 0.026818531368060037
sar@@ 0.09332651143901874
stat@@ 0.016976446224050756
una 0.0026366398959290593
ד@@ 1
الموس@@ 0.8337767364400928
موال@@ 1
ناك 1
ম@@ 1
ਹ@@ 1
ி@@ 1
ﭔ@@ 1
Govern@@ 0.02815224135256882
Grand 0.026853478938049968
Jo@@ 0.01941768768847012
Pen@@ 0.04423070572341244
War@@ 0.02497092376394932
Washington 0.028698956276842973
ais@@ 0.017938420309817085
ces 0.008386815369768584
dou@@ 0.01986937584173361
ech 0.03684923705224733
hor@@ 0.01815421668734614
idge 0.03888978344404846
ingen 0.01910815746578216
ium 0.044858081101355016
mission 0.013907439700608747
mut@@ 0.03279522753732876
pa 0.047150886387534556
ports 0.016431528123429722
press 0.04679878590093329
tice 0.02337351037087999
would 0.006854401354992519
ż@@ 0.33452948928288234
هذا 0.1214690826344715
هما 0.44903948023083273
। 0.01123939453055358
স@@ 1
AS 0.08679831417793332
Dec@@ 0.04635055881643105
James 0.020458379055462043
On@@ 0.02271295853267268
Women 0.040164755503304776
ait 0.008511978223853762
anim@@ 0.019436317416105145
crip@@ 0.02531719679487987
ho 0.12044112843182465
ida 0.013653395870261913
itz@@ 0.016439913463775793
les@@ 0.022416159191634758
low@@ 0.010904816901028317
own 0.013531650738924884
ques 0.005926373890862309
res 0.012765964194691354
speci@@ 0.02553316632968776
sti@@ 0.010645057931974546
ə 1
الموا@@ 0.7016564771765627
جري@@ 0.9860462517307551
ذي 1
ريق 0.410949283052578
◼ 1
ﺛ@@ 1
ﺦ 1
Bay 0.04313670925847942
Bil@@ 0.024288330577455063
But@@ 0.06510526081805726
Cur@@ 0.03391560666422589
Pot@@ 0.05625257916604256
amo@@ 0.03622266869890273
bas 0.09812739758347276
but 0.003690513924984452
econom@@ 0.026361678743816543
eri 0.04757343362740678
mal@@ 0.016866775266439066
nh@@ 0.01178098319177727
serv@@ 0.010031107990521876
stand@@ 0.01394816892172174
tre 0.008820477772341318
ua 0.03338440403798947
via 0.028231683769645872
vis@@ 0.009581789817131108
xi@@ 0.09502096118593942
za@@ 0.12751226413583258
å@@ 0.11336865403667591
él@@ 0.010558129513852302
جة 0.647968582472833
ু@@ 1
ਮ@@ 1
Bang@@ 0.06696253507943344
Bud@@ 0.0436460461848969
Chile 0.06457097867539027
Dor@@ 0.022130180986331648
Marie 0.043756857193077994
Nav@@ 0.022077466831446044
New@@ 0.03203762317115134
Organ@@ 0.0355013949893627
Ori@@ 0.05300000740519259
Party 0.0247906599942708
Prot@@ 0.03288849987520365
Tre@@ 0.028379958934884673
anga 0.06408305565007837
back@@ 0.037346729459062436
court 0.030223545163022197
dic@@ 0.011632663544636405
eld 0.02503032209795937
emp@@ 0.010109880736479521
face 0.017341249720347295
first 0.0030130493710111934
following 0.012630624178611915
ng 0.04984775545542519
ret@@ 0.014862783456334093
sil 0.09196654162609902
sw@@ 0.022044292068486227
tom@@ 0.014823701428473762
wn 0.014852760550280196
­ 0.21287741393954432
أص@@ 0.2594288224887976
دى 0.7032999708769556
هي 0.10792573055669281
া 1
ਾ 1
AD@@ 0.07676127064038826
Ari@@ 0.046139571926397005
Leg@@ 0.024896882400591746
Medi@@ 0.022652023626877415
Mes@@ 0.06597158500118724
Pap@@ 0.039642654083208426
Plan@@ 0.046399973435163784
Sem@@ 0.048278683597551185
agn@@ 0.02316378979017919
cy@@ 0.03541388594262408
hai 0.03653406971736519
ier 0.018822013056276617
kan 0.09198857434063124
kin@@ 0.03463752693109806
lan 0.08381020272726061
million 0.019514574911732828
only 0.0069933903777989375
ony 0.019750155008680326
ross 0.016814527538602447
tel 0.024236836030213846
tiv@@ 0.013026875786318023
ת@@ 1
وقد 0.174425894804527
আ@@ 1
ল@@ 1
Cou@@ 0.05069203756641441
General 0.01786353708465703
Mul@@ 0.050773058147359475
Pon@@ 0.07305316492222215
Sak@@ 0.09781542159195204
Sen@@ 0.017785590164223024
St 0.033636541678513356
acy 0.028326407705710342
aga 0.04221620880260379
air 0.018867303373490754
atom@@ 0.08455169195556533
icro@@ 0.06767358946435502
illa 0.017911860341054818
ists 0.014951448288787873
let 0.03974575582761265
lier 0.02310792153284833
mal 0.018350558618081297
ree 0.019016099318147843
ste@@ 0.009073663167131324
team 0.00792523141764733
techn@@ 0.022763413095083514
ارة 0.14518025622739997
العرا@@ 0.8777273086461211
ذكر 0.870710454481939
هذ@@ 1
يح@@ 0.48713371579438025
ো@@ 1
ਕ@@ 1
ਲ@@ 1
Blo@@ 0.05369466962798235
Green 0.04996769906935547
King 0.022785211731396197
M. 0.0430724424753143
Mexico 0.047644735466814914
Nigeria 0.13834055986956595
Off@@ 0.022759767866490806
Pom@@ 0.07327542517391301
Ul@@ 0.035146068601880964
ann 0.04470266631753434
ear@@ 0.010917450208186253
ense 0.020753802787355457
ew@@ 0.02902496490245375
igu@@ 0.018830298502564853
iness 0.020274872785385582
kr@@ 0.02113882487078531
light 0.02062093628037976
ms 0.016999806172650365
ouv@@ 0.011988707073370177
ox@@ 0.03540809535675639
ret 0.04587474444865649
su 0.0028692927124294833
tin 0.01681517199645273
tors 0.02085903975380065
~ 0.1957451028008993
ū@@ 0.09029783645780072
כ@@ 1
أحمد 0.9320880634112132
أو 0.07415430068027112
୍ 1
్ 1
Asia 0.05681613260759882
France 0.00996691351616907
French 0.01788364504639139
Fu@@ 0.04420917373015399
Ki@@ 0.04291426426666968
Life 0.0387727325076637
Sir 0.04492166545549394
Street 0.02223360060274521
ana@@ 0.13960438684628046
aro@@ 0.11914734020236534
aul@@ 0.06172204620359621
auth@@ 0.01657301918072146
ava 0.04399415260496699
been 0.004087857978644201
eas 0.022423560259063814
equ@@ 0.021839947669396426
istr@@ 0.024558092484249373
mot@@ 0.01134999431703078
organiz@@ 0.013336772833086862
regi@@ 0.020604070236256856
san 0.10333451446135608
semb@@ 0.02358457513967556
under 0.00688044662157402
verse 0.03005321704889746
web 0.08423488483287915
ֶ@@ 1
بالق@@ 0.8927827525195197
قة 0.11512592336529871
يين 0.2390445561927922
್ 1
A.@@ 0.07476701001313024
Chr@@ 0.01782664273102887
Cru@@ 0.05397047439064338
Do 0.10453523266160564
Ke@@ 0.03330968569696725
May@@ 0.03615962912994441
Mc@@ 0.012122782641955264
Met@@ 0.025377827160366063
Rem@@ 0.06090096238760953
bol@@ 0.05078077911742311
dle 0.029123387966811454
eter@@ 0.02037206897097158
formation 0.024247017325162268
fort 0.024919350563886455
ites 0.02417897812193935
med 0.07413432873189685
mir@@ 0.03480011121674138
ori 0.06491294249991997
side 0.008082420858654429
ח@@ 1
פ@@ 1
اليا 0.6581337778536686
دية 0.25139483253533157
سنة 0.18788812862047718
म@@ 0.050767025303469784
ਨ@@ 1
市 0.025816957705398703
ﺡ 1
As 0.010128785786375723
Beh@@ 0.06070560279343797
DC 0.0695139988375991
Wat@@ 0.031151529281770386
White 0.03393233966555142
about 0.007249859264081421
ake 0.019544921936362328
ants 0.007176412845107068
ark@@ 0.03311306641684232
bat@@ 0.014868424321746369
educ@@ 0.01414174230911404
ella 0.018378261973979584
energ@@ 0.04144685107475302
ff 0.028417799168685063
flu@@ 0.035683627534745556
ful 0.012892002960192236
lab@@ 0.021298478292424695
lim 0.08051748139303676
mov@@ 0.01312387890639682
phot@@ 0.028169638096738975
tional 0.013210891068544705
tle 0.015869702058269944
ées 0.0062232699304827525
ü@@ 0.005711972362453491
ская 0.010540160369394615
اره 0.7584046238991133
حة 0.1552156240067586
Baz@@ 0.17766333099573606
Cel@@ 0.046204417073277236
Church 0.022409701381870338
FI@@ 0.057761449896039596
Fir@@ 0.058815905367128586
Guinea 0.1444635113076196
Ker@@ 0.04768957195997141
Op@@ 0.032339088438632264
Rich@@ 0.023168682816474925
aa 0.1372509066397226
bury 0.04563998004800294
data 0.039835536918800526
date 0.029362801661307118
ected 0.009450288277095764
ef 0.021270925258890322
els 0.009050915518321184
enz@@ 0.014086625718194138
her 0.002750945533166489
ico 0.00776719108956335
known 0.007019626901937503
mil@@ 0.01760465053873564
parti@@ 0.013675646088168476
plic@@ 0.017125456825436137
second 0.007650257133771735
stein 0.021818308454726928
ten 0.001777235440751869
teri@@ 0.03581071904443999
universit@@ 0.023218136067859024
urs 0.009248570963416903
wat@@ 0.027703734589469214
years 0.005782048253366132
р@@ 0.005431822876214189
محافظة 0.7817471356755474
ੰ@@ 1
ﺶ 1
Day 0.04206674834890063
Haw@@ 0.03965991889615474
Henry 0.02692280731102762
Hon@@ 0.0251133737689407
R. 0.054965087287955246
Rad@@ 0.046058322014011166
Rel@@ 0.026459099272823344
SS 0.04820876430072699
Shi@@ 0.0527848040773501
ands 0.01674775771254005
arak 0.09648817222520074
asi@@ 0.01569260179398818
aum 0.029151930766572295
ays 0.014310562085616676
cont@@ 0.008496152975296217
dy 0.02698450300705833
eli 0.04828904223454518
eri@@ 0.02697339821070954
esc@@ 0.018539662726426785
ex 0.04033197736923804
hat@@ 0.0838788327466439
ide@@ 0.023428333331590202
ili 0.051962961481594634
illed 0.02514227333817693
ities 0.021599653916851744
lig@@ 0.01764802003223465
lim@@ 0.02476357081717202
mit@@ 0.00829385216435607
now 0.011754137393762668
oks 0.023455092469356127
ongo 0.09154503099851828
oni 0.0487447446536222
pel@@ 0.01925445790735802
prop@@ 0.010630633012658588
sky 0.04198124257683357
spec@@ 0.01512903462349471
tan 0.03421507344022679
tis 0.03891840297370799
ula 0.0672391696049253
ures 0.014892801649226446
ń 0.23564561118934033
Рес@@ 0.06663456986430474
لأ@@ 0.6384536051949768
ﻩ 1
America 0.02297820100024231
Chil@@ 0.043375657928962155
Clar@@ 0.03467614587168643
Cum@@ 0.11582412991492698
De 0.012958987574287916
Florida 0.040995146287074666
For 0.015876817135298996
Gil@@ 0.04459507104085456
Tun@@ 0.04789207735442513
ado 0.0021063460357226365
af 0.05703760626771785
alan 0.08197167425750503
bre@@ 0.007058575253324251
car 0.017274992750538325
civil 0.0417812192413466
den@@ 0.009654923345935708
ece 0.01952987704551433
gro@@ 0.010246451824625927
ked 0.016722741109665266
lobal 0.045976588202156256
nin 0.05075037821158913
organ@@ 0.02895394815844621
pes 0.020305055480759022
pul@@ 0.018429684742535223
self 0.011148573529272057
tal@@ 0.016891988859341036
title 0.019694980907042584
ór@@ 0.02816309184518331
خلال 0.14663986799814033
عه 0.8117105147041893
هار@@ 0.7756643067233862
ন@@ 1
র 1
ﺜ@@ 1
CD@@ 0.047342438725463155
D. 0.03721770929767199
Dem@@ 0.021764293373165326
Neu@@ 0.03967432695043607
Os@@ 0.02745707934086009
Rev@@ 0.053940159404020825
Ré@@ 0.022473434287310377
Stand@@ 0.036418634652879776
Town 0.047683948442269565
ail 0.02829120805892678
amar@@ 0.08761560780324158
cad@@ 0.0312986397038914
cial 0.015586741164116454
din@@ 0.0265061615352239
doc@@ 0.022719959717298503
during 0.005758029645013176
has@@ 0.07327402611132777
into 0.0044034514621243215
ior 0.015352136910232806
je 0.03056613811074701
new 0.005794086688193735
ont@@ 0.024382433972343288
outh 0.021768961804036147
power 0.020398747793764407
right 0.01789489628944044
them 0.008521761152237463
thi 0.08654323899864723
tin@@ 0.027058748891773437
tre@@ 0.008119378797811336
ulation 0.036967208839768735
vi 0.09881627429522791
water 0.015602881231182395
ying 0.012476970589422395
ː 1
ֵ@@ 1
الأح@@ 0.5422859472128028
يع 0.8185909452855853
க@@ 1
ﭧ 1
An 0.018652193990039794
Bir@@ 0.02726383717322327
Centre 0.03941503928004758
First 0.025520296838769718
Hab@@ 0.048002245308947124
Hat@@ 0.1072938730190379
Hin@@ 0.03998585969962619
Ireland 0.03608280476194439
Juan 0.02922735799783283
My 0.047129018027243695
Nu@@ 0.05133756657111482
Red 0.030821958960672323
Roc@@ 0.035931168952660256
West@@ 0.01757557687520845
against 0.007813690254412272
ato 0.0162581950037334
capital 0.026956307188348447
come 0.01947927920893309
ech@@ 0.011611622673713178
estim@@ 0.027509475810904464
eu 0.02474999119856225
even 0.016248371332752386
fol@@ 0.007894698969019407
iri 0.091670224867614
ited 0.010968361810578671
ith 0.024877447867612475
jus@@ 0.021990522880102763
last 0.01576059644837753
law 0.018506121438341575
mittee 0.024908554126144813
olas 0.04814576867866809
others 0.01787045211795822
oto 0.026694829444543003
pot@@ 0.019876646108335318
school 0.009492068565441346
sea 0.027407525277274466
see 0.016119833405502833
struc@@ 0.01090475677919878
sup@@ 0.008955902975006539
thi@@ 0.022996026320883527
total 0.012966156524952262
tro 0.020910998566726055
ui 0.06935169910423122
ury 0.02479236168827862
én@@ 0.008166545526820718
ê@@ 0.010830278727395417
î@@ 0.01893173946376007
الشرق@@ 0.7706367758597908
وفي@@ 0.4377841437644771
ত@@ 1
ਸ 1
ା@@ 1
Dou@@ 0.052570657824284724
Group 0.023663809397753744
Institute 0.02652421469586997
Sus@@ 0.04725166966097578
abl@@ 0.020083594342898827
agr@@ 0.034545237906251546
body 0.02464625447127836
eau 0.013444129913585135
ein@@ 0.002537123175319232
ello 0.028081321291346495
erg@@ 0.017310370869990793
esti@@ 0.01362947987627868
eux 0.019863805693000752
han@@ 0.0693355980121707
hin@@ 0.011430474243223408
municip@@ 0.03295259228178664
nom@@ 0.01598993486004685
ods 0.021178485895825324
ords 0.019951111302153556
ough@@ 0.016232484703466166
sal@@ 0.012646684322153025
ster 0.010689121963579885
tar 0.05006979999290282
ty@@ 0.03131658280546117
½ 0.28799711900803865
û@@ 0.028293651096438128
الة 0.21715540671160238
الذي 0.10478419836239715
الري@@ 0.4482769961202329
رير 0.6219569776249457
وله 0.773461645632003
ݙ@@ 1
ह@@ 0.064341210139664
ে@@ 1
ਪ@@ 1
﷤ 1
ﻪ 1
Austr@@ 0.02610819120482604
Center 0.024726750929583836
Coun@@ 0.033142832141011845
Educ@@ 0.02769544742154059
Kaz@@ 0.06804242888629797
One 0.015961554622030322
Royal 0.019077465184409743
Sho@@ 0.04508207823354138
Sin@@ 0.03504285432198014
Ty@@ 0.025179277296859197
Ze@@ 0.014331901938612952
ats 0.007745894973965257
augh@@ 0.01210490901137298
bin@@ 0.032071464764132515
bir@@ 0.015216274726208985
chem@@ 0.027798105129449635
das 0.0019484525935842317
dig@@ 0.012303802735898171
entr@@ 0.006883431757254294
gu 0.3190960479291827
ld 0.04068412322632758
mi 0.020571940382152723
not@@ 0.006858607597127934
osa 0.019576642568677735
tab@@ 0.027331211739525258
tol@@ 0.03665846200049344
van@@ 0.06672354387723398
¿ 0.3060946117291709
ó 0.0015941093738042777
ος 0.01758636021562213
і@@ 0.23573461876106327
النق@@ 0.7026334260900428
ٶ@@ 1
′ 0.2817032788942296
ﺹ 1
All 0.014897853298711239
Fe@@ 0.02356248243992688
Pat@@ 0.037510245904069844
Sah@@ 0.10654987182029313
Tel@@ 0.02241698895078539
Vel@@ 0.06298932479219525
XVI 0.09971009795197043
Ye@@ 0.028582608285219736
abr@@ 0.026145276408009146
after 0.003664244717981762
atia 0.12090531753566708
century 0.011626469298903498
down 0.013616836142382249
ease 0.016000222996404363
eph@@ 0.05766560237501673
ike 0.016080481644184488
mond 0.03503634114049056
munici@@ 0.21379400232655543
ones 0.006530483438959776
order 0.016268828536741633
partic@@ 0.016628316638141214
prim@@ 0.008757822692936358
refer@@ 0.014568401494901934
sey 0.05074989698285607
urt 0.01716406865338134
uss@@ 0.01717609507280442
à 0.0007184183092747582
Ż@@ 0.4010131367182515
י 1
؂ 1
فقد 0.418829770241554
ٲ@@ 1
ې@@ 1
ۚ 1
न@@ 0.04128490556417175
ल@@ 0.05237056318899736
ਵ@@ 1
Africa 0.030960813661436496
All@@ 0.027268036289112854
Association 0.018473955895251436
B. 0.023948124246903308
Blan@@ 0.048369776319103434
Bot@@ 0.02261195495026773
Cant@@ 0.09103727178903795
Cath@@ 0.042644616864226374
Dan@@ 0.02140158389805803
Div@@ 0.06385107832870324
E. 0.043755123250220074
Jer@@ 0.03561128634182445
Tam@@ 0.04264432406988893
Tran@@ 0.05925978311045811
aft 0.01907783423067531
anne 0.04447337310558808
art@@ 0.017808476614957283
asa 0.03284106876092667
can@@ 0.007182140178884747
depend@@ 0.02622093264438512
differ@@ 0.03784436916772553
dol@@ 0.02825418167421632
ect@@ 0.017041933483714355
ects 0.011263842404240594
eth 0.0361790357205474
history 0.015399593298697235
mes 0.010841203905697183
ple 0.010201697487618901
point 0.014303784395555992
sin@@ 0.01322837109575604
some 0.0069523971684617904
tal 0.0332188844231484
âte@@ 0.273564916658171
ē@@ 0.3182281474475273
А@@ 0.0040043801563625775
Со@@ 0.010412278553730312
أس 0.35264828206144017
قيق 0.6094311796896545
قًا 0.5756805883591727
كز 0.4377038666530736
न 0.026879261646018383
र 0.028196397571272146
ﻪ@@ 1
Gaz@@ 0.11346409051206502
Jac@@ 0.03409132895392088
Kat@@ 0.026119904124533126
Mach@@ 0.051707729332622486
Men@@ 0.03126171864185415
Nam@@ 0.04494336930129777
Olympi@@ 0.03692284225563608
Ren@@ 0.02116763767348383
SP@@ 0.04419584493615876
Techn@@ 0.027171022542716264
You 0.02846120616240902
aja 0.04428334103976252
alia 0.06436359949469832
aria 0.020126650013828212
ave@@ 0.05898803578839385
ce@@ 0.008878446831281618
colspan 0.08548758435127657
comple@@ 0.014437358026843362
da@@ 0.04324386374236316
eci@@ 0.020233436833421384
ero 0.01118059117173076
fu@@ 0.010150401300553587
gen 0.009048977833522088
ides 0.013879704369887697
ip@@ 0.026248264118869383
mes@@ 0.01792771417339243
military 0.020817213372396386
ner@@ 0.013365351621532278
otte 0.036284090662634834
ovi@@ 0.03589049783712753
pur@@ 0.010754545846352274
sit@@ 0.011660617301855296
ust@@ 0.0220927373607744
uti@@ 0.01081673299591057
wa@@ 0.05072263100173735
year 0.005113511324186188
yo 0.02102855893324046
yst@@ 0.03593233171918273
ō 0.03637438905905983
ž@@ 0.0797258265475856
м@@ 0.002963317028581911
ׁ@@ 1
ק@@ 1
म 0.0348977589019955
स 0.014539270781914387
ੇ 1
ﮉ@@ 1
ﹰ 1
ﺰ 1
ﻇ@@ 1
ﻉ 1
� 1
Ann@@ 0.04318023834173958
Hi@@ 0.023012734143485772
Man 0.02954817534440043
Num@@ 0.055112664635223144
Pa@@ 0.023709873816699693
Paris 0.010967941730554978
Sat@@ 0.0534453511266612
Zi@@ 0.029874424300517
abri@@ 0.02451900646642888
ami@@ 0.02740966029524016
any@@ 0.02714749887012782
asti@@ 0.03374521042801695
attle 0.015472480181546105
atur@@ 0.016863472383238483
aut 0.014432807806246648
between 0.005238567890950704
err@@ 0.012425163698335961
eum 0.03181233385811639
ize 0.03292579113378368
ken@@ 0.018137671611090797
ks@@ 0.022222410962000474
let@@ 0.008941740007710738
los@@ 0.016265925481266444
mac@@ 0.04669897418552136
na@@ 0.06906993877637889
ode 0.01572596844785939
ois 0.04142190959888547
plas@@ 0.05694576099209769
tak@@ 0.008356203477291943
uni 0.11458360933736021
wal@@ 0.013243361283770525
writ@@ 0.011295748476185861
yth@@ 0.03208561589657901
± 0.32194920552431094
ür@@ 0.006639366230403189
إذا 0.44607084774429984
الحرب 0.3558350398248042
انستان 1
بعة 0.3756549546957345
مما 0.4128820222781947
وروب@@ 0.6077800951600522
ٸ 1
है 0.010928911346946952
ੁ@@ 1
県 1
ﮓ 1
AP 0.0615220933818691
Astr@@ 0.0586442016393943
Atlan@@ 0.03853407080673841
BA 0.0558736784219266
C. 0.02263346130551847
Cup 0.013190820297594268
Dig@@ 0.056249939450530355
H. 0.04226260350638506
I. 0.02908057052966177
Joseph 0.020682710182507873
Law@@ 0.04344058068614758
Ob@@ 0.01837469554053453
Spr@@ 0.016334106821959817
Victoria 0.04146127775042418
ado@@ 0.05544375962960635
ados 0.004737109414894776
ament 0.022697311145949264
development 0.017575382761160725
earch 0.013295421468617322
ican 0.01972090447492956
ime 0.013179678996801806
ito 0.013033663678108915
iz 0.03409619603836844
lin 0.03326247000472407
list@@ 0.013415263517095656
ments 0.014861973734185286
mul@@ 0.028571956705267184
plat@@ 0.015285279808341207
port@@ 0.005336933064462005
produc@@ 0.0075196196831709364
sexu@@ 0.0247529805029775
small 0.013325862349466814
âteau 0.04054732725936529
ém@@ 0.01707244885864617
н 0.0027217938405106642
ר 1
عبر 0.48510041924295455
ਗ@@ 1
් 1
 1
Alli@@ 0.04223348041232992
Blue 0.04336143465180684
Braz@@ 0.037463191003612666
Cast@@ 0.03331367526943688
Fac@@ 0.02779440711135688
GC 0.1616697823234781
Land 0.028898249132090055
Luc@@ 0.02657715476926659
No 0.02519754384544078
Robert 0.014607528667336188
S.@@ 0.054311191000184306
Sto@@ 0.023632628357299124
Super@@ 0.030421069727280422
Ven@@ 0.028000353240782892
back 0.008889082013662413
bes 0.02143585880208681
bs 0.01640991796579567
death 0.013430674475027393
ders 0.017660444468030268
eme 0.019063448142203572
ements 0.00824796897632006
gener@@ 0.009679436007260447
ling 0.012218584385033293
lis 0.03210711619854982
mur@@ 0.02089070866766478
neg@@ 0.014771969679532908
omb@@ 0.026035354019883113
prof@@ 0.013881283675039626
ston 0.038283332706445836
sych@@ 0.026523590506264006
yd@@ 0.05707786039163947
án@@ 0.012898927979496173
æ@@ 0.10148540002275254
ï@@ 0.013056361546730802
ț 0.9321244260696268
ؐ@@ 1
إلا 0.3730218114543821
قام 0.45675187785372323
یووا 1
ਰ 1
ு@@ 1
ﻼ 1
Corpor@@ 0.037449412719752696
FA 0.04959490452195564
Hay@@ 0.04412981608703101
High 0.016148827928752347
J. 0.02493053680550415
Jah@@ 0.03679756836850259
Joh@@ 0.026515403651917978
MP@@ 0.06929455112000428
On 0.0037220168214224278
Oper@@ 0.021024409342843928
Rock 0.03511110188426747
S. 0.03503790245817942
Sk@@ 0.03187083327637991
Syn@@ 0.03535075890113079
VI@@ 0.08820252536420078
Way@@ 0.08449696230222765
aka 0.029929605239989058
align 0.06202497187296067
amu 0.23343712696915928
aug@@ 0.0355883181885427
cha 0.01322754177285684
con 0.0016997846434490434
dens@@ 0.02094921888302083
ester 0.019953719191587928
mel@@ 0.0206679473629629
mit 0.0013119958487326823
nam 0.02990650208896323
pan@@ 0.011372346802585347
play 0.009782984067839017
radi@@ 0.03039459577619646
sequ@@ 0.014195458381299266
sour@@ 0.015377429720046017
vers 0.00678189257668345
wo@@ 0.017180428013151148
э@@ 0.0032471507665484778
ؕ 1
الفل@@ 0.5790753903276801
ம@@ 1
ர@@ 1
⇽ 1
ﭜ@@ 1
Arm@@ 0.02799691133735638
Award 0.017721014337445717
German 0.013312021149586075
Harr@@ 0.02198193852885422
Jus@@ 0.02232630024450177
Kab@@ 0.05344986199941911
Ot@@ 0.019562308396020946
Progr@@ 0.02557990701169725
Publi@@ 0.03083050099715629
Rud@@ 0.04704432429306991
Stu@@ 0.015401863978504729
Tan@@ 0.039365243685915804
Tem@@ 0.03584334690899798
Win@@ 0.018756667254732823
aut@@ 0.012601544740441822
cat@@ 0.011709528915750672
center 0.022795782717934653
cep@@ 0.018997860010268524
chen@@ 0.02590458526538945
cher 0.010880389204468068
contr@@ 0.004684822515577179
ei 0.01642978471749186
idi 0.0617494195691269
ken 0.005353121473268861
kno@@ 0.02566711720015592
lege 0.024220977509047625
mol@@ 0.0241340477853825
new@@ 0.01879179731120777
ny@@ 0.05191497593321695
played 0.00666256006349498
tain@@ 0.01374128936117943
there 0.005848397008809727
tho@@ 0.013588744426295285
tu 0.056312483610642367
ule 0.015590604166079915
ult@@ 0.010260721339164006
when 0.004251225148169851
ár@@ 0.0277148859540658
Ş@@ 0.04995018932027559
Š@@ 0.07572245490876672
а@@ 0.0036959365793467936
ג@@ 1
ז@@ 1
ל 1
الأر@@ 0.32034291380364205
الإسلا@@ 0.5942354862393883
سة 0.08250007129982219
ضع 0.6250080873265021
مية 0.1548028514515637
وتح@@ 0.6497142006155099
܂ 1
த@@ 1
Bern@@ 0.025636829711241385
Bru@@ 0.01796544695706125
Chem@@ 0.04454479043696592
Democ@@ 0.022497960471225417
Kin@@ 0.014281500218012862
Kos@@ 0.05492804738720751
Lit@@ 0.02260603260103442
Not@@ 0.017293102135285128
Plat@@ 0.02570511853251403
Rou@@ 0.018229864177148614
assi@@ 0.0301459027937574
ax 0.05315798868717937
bit 0.041637765812572614
control 0.01714006383272842
force 0.021352465707163735
ger 0.005772646862837243
hav@@ 0.030530911747962734
iro 0.03126993643188186
key 0.019541569451051236
lit@@ 0.012212215412985103
mod@@ 0.016128724298489015
nay 0.08116527569564753
prob@@ 0.013025286453003772
put 0.020637840593751806
sam 0.036664007024123375
sin 0.016203616585949886
syn@@ 0.019943038316051043
té 0.010652499916859319
vo 0.028229890214353206
Ç@@ 0.0346871920664722
är@@ 0.007431432091348698
публика 0.17039275958594252
ա@@ 0.6362032426995265
كات 0.3234173726839056
ਂ 1
☆ 1
Black 0.022091070343857794
Canada 0.013976285570687709
David 0.013180600678615604
Dre@@ 0.016652385157905306
FC 0.01316115367633737
Han@@ 0.020544451024963467
Hom@@ 0.03184567985888361
KK 0.24479720602690574
L. 0.04523307614696387
MA 0.05349769967766574
Radi@@ 0.05477323044242883
SC 0.0410383831110474
Society 0.020076925005082468
Sun@@ 0.04516966286213653
Tay@@ 0.03820452389471384
V. 0.03565579513168206
Venez@@ 0.04698318150356773
W. 0.03903548554013013
aland 0.02656276108371565
alb@@ 0.01269154585711128
atin 0.02606772574432341
bri@@ 0.012213091200602409
cine 0.03332683077319342
ck 0.019777422011964012
dan@@ 0.025278304926037654
dh@@ 0.02917842380931599
dir 0.020594907824178693
dra@@ 0.015289106914987497
ett 0.019387259933223596
four@@ 0.01910976741068899
gel@@ 0.004933722459858769
imb@@ 0.03499235593392074
inh 0.04294310435945118
ister 0.007478145696751719
lad@@ 0.017267995244235796
mar 0.03148879428984732
mb@@ 0.01212321327288616
min 0.059916193417224484
ples 0.014190506516199406
polis 0.04319189513794694
popul@@ 0.015345823676745675
sign@@ 0.020373967858332346
sim@@ 0.009221562774412632
uz 0.060431291244227296
ved 0.005172263460169711
vili@@ 0.08528451759402629
vor@@ 0.005948717220764557
zor@@ 0.16693100967656432
ɛ@@ 1
الأم@@ 0.19307146985993814
بما 0.3669231867747014
جماعة 0.5330171081860238
حتى 0.13367808163157632
ظه@@ 0.3296860499373979
قلي@@ 0.3456170082248439
ज 0.03253891901029526
ੋ@@ 1
ா@@ 1
ﭺ 1
ﻻ 1
African 0.023609753555354523
Barr@@ 0.040770929169212586
Bau@@ 0.011538584047980593
Charles 0.012533663677744137
Din@@ 0.054153358083207814
Domin@@ 0.042051042803668635
Indonesia 0.07830515242017022
Internet 0.048420730326169434
Lib@@ 0.039015003507835815
Ly@@ 0.03369395801318034
Nak@@ 0.08089896278485333
Pau@@ 0.041936053730166914
Rail@@ 0.02086076126044889
Ran@@ 0.04017134941038876
SS@@ 0.06021199551932444
Sand@@ 0.027419820896713482
Tim@@ 0.03905225994612875
Virginia 0.02635521352682265
aceae 0.028864457423454285
alls 0.014830554933144176
anistan 0.0831176436169937
aun@@ 0.0318205729982241
aves 0.015828130765333192
bac@@ 0.037189079326288114
bei 0.0030659410484600255
curr@@ 0.015244754474024628
dé@@ 0.0017355993121075208
eck@@ 0.023163123592146395
engine 0.03785532534585086
ennes 0.022471984922745724
gs 0.01228012355774998
house 0.011459706852661943
if 0.010720793256685518
ince 0.01258730707754236
kam@@ 0.06833319756370039
lem 0.026942852308966148
len@@ 0.011865910189794056
may 0.006885328179761993
och 0.05156136742085664
oo 0.05285972653452863
pas 0.006672800699193958
sil@@ 0.014310462217976131
test 0.030945715575548243
uba 0.0477821143990777
vet@@ 0.05231129271568494
wer@@ 0.004238239315719851
xim@@ 0.010569449117858743
yan@@ 0.031243723318571445
ú@@ 0.012875194292740082
у@@ 0.0017044678156031326
أر@@ 0.21781581160116129
أي@@ 0.3033371566341499
ڄ@@ 1
ۤ 1
শ@@ 1
ﻢ@@ 1
Army 0.015226481777585087
Eng@@ 0.018889501523859587
Flor@@ 0.03990213334017056
Haz@@ 0.10607449633765002
It@@ 0.013907562041056826
Kom@@ 0.0095137304647692
Net@@ 0.02600912417973553
P. 0.038181888903071746
Peter 0.015386205883259459
Revol@@ 0.027766681275569836
Richard 0.017899776474585332
Station 0.02379583111650209
USA 0.023964043331404068
Uz@@ 0.13593887059674106
Vic@@ 0.018339056262676606
agement 0.014716604570420478
ande 0.019932009873438405
audi@@ 0.027537489739041472
avi@@ 0.024219897044509123
dium 0.057866959846684746
dul@@ 0.05787735934345828
eine 0.0017329768488060792
enberg 0.038136674876637335
erre 0.02605555814729004
ety 0.01260286524699678
fil@@ 0.008628832860214541
identi@@ 0.0076273289539342025
ived 0.037312054336611486
liter@@ 0.015696823701117406
loy@@ 0.013368030115923305
multi@@ 0.018906616133197746
nik 0.03167628389207625
offici@@ 0.008430774570390822
philos@@ 0.029066222671915914
political 0.015143547570410937
positi@@ 0.010667201797804836
sen 0.006945148322131753
sou@@ 0.006366629665821333
squ@@ 0.01590321263015482
techni@@ 0.023972010812736772
these 0.007670114754947587
three 0.00435353928444328
ton@@ 0.027193054101149965
vention 0.022103980008835976
vice 0.015025884064476571
ward 0.014476060504694476
ène 0.01757629399251616
ë 0.14545101016066508
ğ@@ 0.026386017565734873
ский 0.0036278684846301505
ادة 0.11077637788415308
وهو 0.13570020716764766
ښ@@ 1
ڪ 1
क@@ 0.03754272738546557
द@@ 0.056841871061416686
হ@@ 1
ମ@@ 1
ର@@ 1
ང 1
ﻕ 1
ﻦ@@ 1
Ale@@ 0.021829878846706455
Boy@@ 0.0332313780807739
Cop@@ 0.039934211727913935
Ev@@ 0.017802006212521145
He 0.0013787223716944287
Kn@@ 0.023831687372984446
Liber@@ 0.020270483918130022
Pad@@ 0.04455047709877427
Red@@ 0.02691031683067965
They 0.007421750382020683
Thomas 0.012943945120478634
Tour@@ 0.023206485355786757
UK 0.019742859240228474
WW@@ 0.11375444642700587
ades 0.010483530699125927
amba 0.10388552893190517
around 0.009112624131246277
asse 0.017210434061966796
aud@@ 0.03919214160706952
band 0.006385575557644781
based 0.0074382432260018255
dal@@ 0.0409821981588672
det@@ 0.008422198611922649
ective 0.015888813649127007
ells 0.02197097261652135
ema 0.01740822138677788
form@@ 0.003167712084931321
fran@@ 0.019819152653318746
gar 0.022645220555308047
gi 0.06356483181075205
head 0.012438425189982207
hom@@ 0.008647842550431006
indi@@ 0.014420542696575948
ingu@@ 0.020698705244737894
ion@@ 0.028091582320985835
jer@@ 0.05226120815502605
lag 0.016280882658346527
long 0.007803353554668959
met 0.012741650673908433
mine 0.02271867281020762
nav@@ 0.014340384870734569
omo 0.05903151171979076
original 0.00995948320976533
proj@@ 0.00948523744210696
rea 0.02234460406096852
ref@@ 0.01288921283677297
ser 0.00829178529646665
sion@@ 0.014428590047615418
spir@@ 0.02301499533192163
thr@@ 0.013055814910670479
ube 0.04048422181300672
udi@@ 0.025907434500466425
used 0.0035147892095053674
vill@@ 0.029341910135909102
wes@@ 0.012883144310881169
yi 0.04471134898745664
yon 0.030724004305870363
ö 0.10799022116133715
ī 0.12185212545898645
х@@ 0.004354751098068834
آيت 0.5639330716429113
امة 0.4431948864972835
بها 0.2031941569896725
حصل 0.41404350235366916
ٓ 1
ړ@@ 1
ݨ@@ 1
त 0.019284586183602924
জ@@ 1
ਬ@@ 1
ப@@ 1
Alb@@ 0.032233327339642716
BS 0.03622712959688122
Columb@@ 0.026296321695481944
Constitu@@ 0.031830561390921906
Dal@@ 0.048537624735765686
Dol@@ 0.026010327253784035
Grande 0.04179567554832358
Hak@@ 0.1026907705368599
Id@@ 0.04963949623614549
Kad@@ 0.05884609289791971
Kit@@ 0.05101499662746768
Mary 0.021156035897088542
Mill@@ 0.036354356471251195
Museum 0.017594487023167234
Nob@@ 0.06208463931508016
Philipp@@ 0.03352492381132171
Produc@@ 0.0245913395677616
Rob@@ 0.021182896643995367
Seg@@ 0.02190471728545231
Sm@@ 0.03531303931084867
TA 0.04133370028805325
alg@@ 0.016364495641491186
alt@@ 0.007663878468841586
aly@@ 0.017317670278264957
commun@@ 0.008224243524093832
cus 0.03524813543150905
expres@@ 0.015352155021215749
fri@@ 0.00881750131668185
get 0.012920020299862946
ii 0.07540846072733702
lead@@ 0.007140942196525411
like 0.008157087634728175
mill@@ 0.0543743195238178
pil@@ 0.015630564297844488
prin@@ 0.01353965418122709
publi@@ 0.013005219327579549
sburg 0.03353813056956795
sta 0.015028892836517076
tag@@ 0.030815915810641616
tt@@ 0.04210301657769741
uela 0.039217217242690026
uerto 0.035738076991336735
uli 0.1317371599413407
under@@ 0.007691782062022155
var@@ 0.021474776630520793
vari@@ 0.007288929630135255
win 0.010232361530001548
women 0.011395754779707883
ín 0.01919562052672632
ă@@ 0.059337885687007916
р 0.002416305338471014
التق@@ 0.3754169739453438
الفي@@ 0.2022803409153921
ذلك 0.05329775781685712
سمبر 1
ڳ@@ 1
वा@@ 0.04221872869959896
ारा 0.35104018777586776
প@@ 1
ੂ@@ 1
ﺚ 1
Australia 0.012646636039603832
Bes@@ 0.011015771014033782
Cu@@ 0.021905961735858594
Edward 0.026109741174670614
Fam@@ 0.08991976174165092
Jor@@ 0.029322355741567926
Kul@@ 0.02764028347366456
Lor@@ 0.01917609206622518
Mass@@ 0.020449736281023343
Math@@ 0.0384557849850876
Pin@@ 0.03255382416819138
Scot@@ 0.014781687289722727
To 0.021382642604359008
Vid@@ 0.037575867392429754
abor@@ 0.008552953523414194
act@@ 0.019500530115157375
afa 0.11366756699927377
aqu@@ 0.015411324619734084
arti@@ 0.007722638725251795
cens@@ 0.018518098168858896
ces@@ 0.008331358324772168
conn@@ 0.007294046429347254
cos@@ 0.037525584899678686
eb 0.028732919479088327
egr@@ 0.02759064231500577
ela 0.01222353507562289
esi 0.01985325480734253
hel@@ 0.00807492178172632
inv@@ 0.006411339675068724
jan@@ 0.0474029645298826
jo@@ 0.011469284097694396
kin 0.03037145865081834
nati@@ 0.014549492011138556
neu@@ 0.017356935121037635
num@@ 0.015538330455931924
part 0.0033707240886435147
po 0.013717087388954465
position 0.0064817372451808145
post 0.018814985695572987
resp@@ 0.012753321187825926
stor@@ 0.01662047044896245
tica 0.009862126612676384
ustri@@ 0.034309580927024706
vil@@ 0.02443540460139795
wala 0.5530583292145356
west 0.009134171978254639
yo@@ 0.010536391989520874
ñ@@ 0.012674726206806618
ø@@ 0.030845089702929183
и 0.00043738909590291527
о 0.0034046702610068275
с@@ 0.0013036688506843602
التي 0.037404345485556725
العام 0.24022211558290446
سياسي 0.23768189517596025
طي 0.3951264821173091
كبير 0.3704062241787388
ۀ 1
क 0.015384135679728317
द 0.022378171771478494
ो 0.14980578018204663
গ@@ 1
ੱ@@ 1
☃ 1
ﮅ@@ 1
🐢 1
----@@ 0.6193386694394846
Brit@@ 0.01924728891987989
Dé@@ 0.01974349292651243
Europe 0.011409063620364637
Hen@@ 0.036236994108199236
Ig@@ 0.025625415178819548
K. 0.051804960472472426
Ka@@ 0.05039398383867474
Kir@@ 0.011553175449131503
May 0.00600254511913363
Milit@@ 0.02101161979926181
Name 0.02491172689986393
PC 0.04464654038527342
Prin@@ 0.029741601861657335
Son@@ 0.016662939205904982
Squ@@ 0.023751231346835374
aco 0.03809927694314253
acter@@ 0.022134456935012953
active 0.017297675820060393
andes 0.04468290775423916
andi@@ 0.04853005918180113
avi 0.09397852329469847
bet@@ 0.011697727540168954
bin 0.046142494153035535
defin@@ 0.014266117847305132
dern 0.01428340534896532
dur@@ 0.011743559180453332
eds 0.017113641063698382
ev 0.036706726300225874
extr@@ 0.011235332712286017
fal@@ 0.01547750178722711
fe 0.012520505472280985
feder@@ 0.016284367201483844
grav@@ 0.03149925422625007
idi@@ 0.014858045913570343
international 0.01154497687692551
ister@@ 0.009964476101455835
kel@@ 0.024458875738191603
lov@@ 0.027655195311555875
mand@@ 0.01699904131990218
ministr@@ 0.01839858441761416
modern 0.01891870313523541
ordin@@ 0.014981840201765378
period 0.012230416668780041
ram@@ 0.03175441633787662
sep@@ 0.022335914042345036
social 0.0128236710443905
sor@@ 0.007126465196008433
support 0.012132463191955774
third 0.009714496016126143
tron@@ 0.01615064366573374
uj@@ 0.11347233133961011
ules 0.01904586504856469
vic@@ 0.00586040362472263
vil 0.01717819232095504
Ö@@ 0.018072083029355687
ève 0.03457312818421984
ía 0.002525869208704071
ı 0.009708632636404988
К@@ 0.0035398540176282633
أي 0.14383639351271316
للا@@ 0.4438486719733069
ٻ@@ 1
ফ@@ 1
ਜ@@ 1
ੇ@@ 1
ರ@@ 1
ﻆ 1
Academy 0.017841600217761447
Amer@@ 0.0260897528088393
Francisco 0.0184242652238385
Ky@@ 0.042368768678219745
Kö@@ 0.021389736048134912
Les@@ 0.03620961914893423
Prof@@ 0.04510567681237998
Studi@@ 0.012649164126672765
Tit@@ 0.025593553079611808
Tour 0.016972741810818048
agua 0.026928790734749852
aise 0.023288536935180043
ald 0.027118914494702044
amer@@ 0.021756974376891343
ando 0.003579452622416734
annel 0.02175605984845802
anth@@ 0.022056915513155147
arc@@ 0.03765211670732619
being 0.0044919684816793265
ben@@ 0.008173185052901008
bia 0.048072521635336526
chia 0.08391793154995898
coll@@ 0.004962162019841891
die 0.00037792118892210455
dri@@ 0.011782588752710266
ej@@ 0.011140499514467028
ep 0.012358758890096933
eral 0.02567361153348695
esa 0.01481806497958583
eti 0.04489294763389053
ett@@ 0.013510678958732543
former 0.006652467280989474
heim 0.023521437518145612
him@@ 0.014824643465025756
home 0.0079754738100397
hur@@ 0.03239232551719935
ily 0.011771902964634857
kan@@ 0.017392839770729692
km 0.005079611802810965
kö@@ 0.03952009638400821
may@@ 0.03412684682143273
ned 0.005805542793842473
ought 0.007542865379254829
pas@@ 0.006293714124546595
plac@@ 0.007692803815559167
published 0.008730304326776298
ses 0.0028884330785358156
such 0.0038908454469656862
sum@@ 0.010114264096675728
using 0.008529550003065347
wr@@ 0.026696229153681743
к 0.0014899723405475674
л@@ 0.002121468809035605
на 0.000522485606686578
ы@@ 0.004651010730996687
الدي@@ 0.2914739249991607
القان@@ 0.39360062533631907
اللا@@ 0.33412778523607634
المي@@ 0.1921874485281075
فيه 0.2883982990449644
مجمو@@ 1
ۤ@@ 1
य@@ 0.03485610389910286
ம 1
് 1
ﮠ 1
ﮧ@@ 1
ﺢ 1
Band 0.019684789865388696
Cab@@ 0.030457788475978846
Club 0.009737270481841639
DS 0.044023206384116775
Eu@@ 0.03415002354151144
Fol@@ 0.00886351266918845
Gel@@ 0.023479293033937174
January 0.00595778725649336
Kre@@ 0.01033304796710456
Lon@@ 0.07402045232091492
Lord 0.02498271693549045
Los 0.005243924306038661
March 0.005807014366818502
Orig@@ 0.022014629790523897
Rot@@ 0.02165300795627628
There 0.007115529220537211
XX@@ 0.06366154466478152
ady 0.011203260110540517
aille 0.01773582279159824
anci@@ 0.010096473269045012
anda 0.018253088809632483
angi 0.1302227269822518
asi 0.041278750488606616
asp@@ 0.020106018808019356
aud 0.032364571043658925
ayan 0.050318442159661
bach 0.014954339052387551
chester 0.021078758333110258
cou@@ 0.009319664154169467
dat@@ 0.03011938897649593
eer 0.011762726786978702
ele 0.007695698573497977
els@@ 0.01400987376467995
family 0.00494163292752839
fer 0.005903957613011172
jo 0.008792166894752854
ker@@ 0.016663291644131224
lock 0.01723997174199185
mach@@ 0.013698202822193728
mid@@ 0.014193060508318613
nov@@ 0.009880576097845302
off 0.006193684095352672
opo@@ 0.05163085165661789
part@@ 0.009720587314923765
play@@ 0.0065733907673175595
qu 0.01891221087889793
ras@@ 0.02583884008465303
rem@@ 0.006575501906457333
sem@@ 0.0073333430299835
spe@@ 0.009291129978490157
stadt 0.015230198029582052
sul@@ 0.04208161527446315
syst@@ 0.014353665409474928
tus 0.04956726717918409
ues 0.012215434822790699
ulu 0.05787865057628368
vec@@ 0.03937393659349751
vid@@ 0.008943413377961458
won 0.0054883832617393675
ú 0.019432585558320847
Ка@@ 0.005650005447583648
ס@@ 1
ابة 0.16042066286936288
الأس@@ 0.1422458495061471
وإ@@ 0.2028098884907516
ە@@ 1
ट@@ 0.04929591742567073
ன 1
ར@@ 1
： 0.008535102820799622
Acc@@ 0.0536013889134997
Argentina 0.026293600081431973
August 0.004157596283271452
Gem@@ 0.03439708900896609
Hav@@ 0.02837583999331009
Lee 0.022305462846013473
Lev@@ 0.027000484447704715
Lud@@ 0.02506970779484917
Maria 0.019019707270345985
Mit@@ 0.009405449447834037
Pic@@ 0.024566912825074432
President 0.013642715246055932
Um@@ 0.013383826163339281
Wah@@ 0.0858931476761948
Yar@@ 0.0942754455631174
aca 0.03220742499474024
acu@@ 0.03302075284179611
ahl@@ 0.013992307447107936
anti 0.019785099305888593
ator@@ 0.03275751493908873
before 0.0046605645546041715
chil@@ 0.013769117695151212
cli@@ 0.013511829968931629
color 0.022228485299732665
dition 0.006590860329521194
dorf 0.018988634432725807
eto 0.019464870960436333
fus@@ 0.02478401449325106
ict 0.029871792941154104
ific@@ 0.012682197427776388
illo 0.02007189870114377
ils 0.006494237963672292
inger 0.015439943667699574
iran 0.4468559102698585
isa 0.023952087189957585
isation 0.013582659431157223
itation 0.021871094535492946
ius 0.03569869237064459
just 0.011124544368457043
kal@@ 0.017575382761160725
lers 0.015537151345684648
lev@@ 0.016370189196212564
lic@@ 0.013047069582990515
lie 0.014008715371243962
mann 0.008136412775209212
mark 0.02073034233772943
odi@@ 0.02152123838198878
og 0.03244523740135478
oro 0.032477684411071794
rat 0.023883182789924674
recog@@ 0.015150345041050436
respon@@ 0.009619929057104914
san@@ 0.01642682923602204
tia 0.034426044593029254
uli@@ 0.028161518461345257
umb@@ 0.02076096750435872
ump@@ 0.016389454367976553
uses 0.006597988728522698
vent@@ 0.011434976713541808
versi@@ 0.01034749277740437
works 0.010138578103234083
yal@@ 0.04519959696577103
² 0.010367534706955547
Á@@ 0.01682751937076467
â 0.2726853653179659
éli@@ 0.020056377728659838
й 0.0015772832279577719
צ@@ 1
الدرا@@ 0.3159703491103647
څ@@ 1
۽ 1
۾ 1
रा@@ 0.028850235825231392
ਨ 1
ਲ 1
క@@ 1
ོ@@ 1
ﭤ@@ 1
ﮂ@@ 1
Big 0.022452640709282753
Def@@ 0.026138264051989286
Dr. 0.02112812693329101
Ken@@ 0.04728241373178376
Kil@@ 0.03374804251487911
Pier@@ 0.0648890523447344
Rap@@ 0.032714821271545305
Sig@@ 0.0338120384218578
Smith 0.016771878271619703
Span@@ 0.015366611428577249
Stan@@ 0.0253608408720649
Thi@@ 0.03312675369845255
Wa@@ 0.04560246600486137
aining 0.00851413356884847
ards 0.006874289410116736
ares 0.009668207862717004
ativ@@ 0.016595499645674538
bom@@ 0.03067598528752392
bour@@ 0.01647259093883804
bul@@ 0.014115334827021809
cil 0.024552955264970127
design@@ 0.0075874819341941015
don@@ 0.009920750085678947
dru@@ 0.019108521386829117
eni 0.0496292495663049
ento 0.00819712712193872
ered 0.00593347937026306
fa 0.042231233306712926
fied 0.008360287560859063
gian 0.024752569472744214
haz@@ 0.07644486493434262
hist@@ 0.031205003376088197
iliz@@ 0.03606705786802035
ills 0.016430213768009842
ista 0.005554139094052066
itz 0.008102049792882125
los 0.0007866626011539139
lot 0.012885060380383303
make 0.011137725988951575
mo 0.012732757460167176
natural 0.01894864325686442
ova 0.029870835185734475
pin@@ 0.01890145425382567
production 0.008701443513360035
rac@@ 0.009636619152639534
sig@@ 0.0052714891435648
since 0.006045247116461869
star@@ 0.007148707929687633
ume 0.012375092883276997
urn@@ 0.020813879905187082
where 0.002948798712334909
win@@ 0.00915890209662771
yer 0.01412228868141294
ás@@ 0.02255585515221962
êt 0.0271949874897599
но@@ 0.0016894243188201304
т@@ 0.0015160231217408989
جامعة 0.18723864345497002
هذه 0.05449257131324099
يست@@ 0.3236590863891149
ۙ 1
र@@ 0.01702426094419492
व@@ 0.02778750975448896
দ@@ 1
ল 1
ী 1
ਜ 1
੍ 1
ა@@ 0.4897635327486225
Bec@@ 0.02280169714802895
Bib@@ 0.026474471234753973
Brown 0.022643791654465333
By 0.011708280918106578
Comp@@ 0.03193674305191243
Cul@@ 0.01580374551419667
F. 0.030982043214073163
Micro@@ 0.08791034275004694
Mun@@ 0.021816517780160232
Nat@@ 0.037634176692234414
Natur@@ 0.017857492405836402
Ny@@ 0.06914294717634854
Rein@@ 0.02235866506376699
Sup@@ 0.039914224079188786
Tanzania 0.1382858943526971
Web@@ 0.026524762006620246
ace@@ 0.026465294709280995
bo 0.02850132914037198
ded 0.008177571197698592
deg@@ 0.015793416973379014
exp@@ 0.006522790310480951
fab@@ 0.030949311140526917
ference 0.013153563585846717
gan@@ 0.010550667838965999
hap@@ 0.025591277723973745
hosp@@ 0.018490204329645
ices 0.012441669647369287
ident 0.005850928652378696
ien 0.004160763865954073
ina@@ 0.153446992983117
ished 0.007238529982934686
jur@@ 0.012042524829105603
khi 0.012398533361893425
member 0.006429283383885471
oi 0.03645494266906069
olan 0.0174713026908586
ons@@ 0.006281404019754239
ony@@ 0.01808745930686014
phy@@ 0.02243765069402552
pression 0.020728127129004896
pri@@ 0.007479209104048107
prov@@ 0.01018751581290084
religi@@ 0.014816998362468378
resul@@ 0.006916206965374844
sac@@ 0.018745285593619217
sions 0.00825793321190776
stre@@ 0.008666914865138209
stud@@ 0.008928723987409442
unds 0.012961391645460972
union 0.019390750924798403
yon@@ 0.02158731021800131
ör@@ 0.003934555537050265
ς 0.030258164920443392
ци@@ 0.0056228690130092395
أد@@ 0.20009412592487474
بريل 1
تصني@@ 0.42188903143659373
ظهر 0.23689395658973933
فإن 0.25697934773172443
كة 0.061224077889235784
ڌ@@ 1
ल 0.021888174524093574
ನ@@ 1
‬ 1
√ 1
 1
ﮒ 1
Anth@@ 0.02695133138936779
BM@@ 0.04452428733607829
Bet@@ 0.015891373697478124
Doc@@ 0.021920530339808234
Fel@@ 0.014838333743786396
Fil@@ 0.013007527983711452
Hit@@ 0.028382662944198656
Ing@@ 0.017352648521193483
Israel 0.022958770690214268
Ital@@ 0.01425373472204635
Leb@@ 0.030518152955928957
Lig@@ 0.02185707487586306
Luis 0.026268907522829753
Ok@@ 0.037937270636582726
Phili@@ 0.016237802383577866
Roy@@ 0.03039757460161533
Tab@@ 0.03084331911002613
XVIII 0.052671543437209985
Yun@@ 0.08737267790378081
aji 0.09063382010467315
base 0.00974865443184565
bec@@ 0.010250990713575029
board 0.015465100460134875
both 0.004355886371800527
building 0.007300041745407944
cip@@ 0.014420587896276812
dies 0.01599642796697888
edi 0.061806523229444875
elli 0.02553921834758778
enci@@ 0.010544948444004235
esp@@ 0.005682071034198096
eta 0.011491045054548754
evi@@ 0.0650393561615174
fic@@ 0.004813994684707208
ges@@ 0.004306980573851755
haus@@ 0.020186950147077692
ika 0.01685471894899994
iti 0.04784577441454084
ité 0.0027785977403758013
later 0.0032070151319494285
lieu 0.015005329202608601
lob@@ 0.023351394303972223
lor@@ 0.038463125838693844
mak@@ 0.010806741305882644
ogr@@ 0.03618310349938198
oman 0.01570055298803115
oy 0.04267306635644182
pat@@ 0.011093121887370425
plan@@ 0.009347630106125795
record@@ 0.010129907193301452
rey 0.015130442425451213
separ@@ 0.011420797279697692
sing 0.01328658306648388
sing@@ 0.00828039663106695
sm@@ 0.016899418324856752
sus 0.0034819799048163166
times 0.006915487516313996
tres 0.0056084094184952315
tric@@ 0.016125870921244168
urg@@ 0.019447694175186915
wing 0.00836333456245736
zer@@ 0.03160278134106693
å 0.24481645195750565
és 0.001763342279993338
ð@@ 0.0914069188231649
ô 0.024267542607982105
öl@@ 0.007779656448312235
ź@@ 0.5608395745006198
ɔ@@ 1
в@@ 0.0011962654490963482
к@@ 0.002169237881206265
ка@@ 0.0018419942603870455
א 1
الاتحاد 0.3433227682319351
ّة 0.23097700529587412
अ@@ 0.031213701764552144
मा@@ 0.0453079844811453
य 0.014407010605642713
हम@@ 0.27832752426820434
१ 0.3300239569714565
ঙ 1
় 1
ా@@ 1
ಿ@@ 1
€ 0.06555399209900001
↑ 1
﷫ 1
ﺵ 1
.S. 0.08382788902800034
Anton@@ 0.06436121207022734
Argent@@ 0.034829276851899536
Art 0.009915892951142478
Aug@@ 0.026908381601244966
Ben 0.03376115110358512
Conn@@ 0.018595687893061225
FIFA 0.04968901250017567
Gö@@ 0.030057872454917957
Kay@@ 0.09311303742267743
Tok@@ 0.029444563717926607
Van 0.025251023275085556
Viet@@ 0.026954471844276053
alar@@ 0.02334223224836843
alif@@ 0.014347372408921723
apa 0.027134642301073583
atus 0.01915152119116851
bek@@ 0.01154709099976631
cla@@ 0.007967545421229261
construction 0.009437968385224994
contin@@ 0.010242264254204178
def@@ 0.005606492552271656
distr@@ 0.023989505318036695
domin@@ 0.010567926122236896
eck 0.017491836964092487
enburg 0.02709336241927682
erry 0.017357742306128767
eus 0.04960827362192561
general 0.006973884562030897
gia 0.009034458308608906
grou@@ 0.009494913981722595
iller 0.011632549164505684
included 0.0074853297633885926
lang 0.01636049855204898
led 0.003822357429736415
less 0.008616047523111415
liz@@ 0.03477917856927357
mah@@ 0.07264746669950022
major 0.007505835471565342
mos@@ 0.014577929247152493
ogen 0.01712806905343351
ord 0.022949265375500277
orig@@ 0.02485737016426634
pay@@ 0.018909528639818592
pon 0.011526398548407502
several 0.005040794316690879
shu@@ 0.06815581220781772
trac@@ 0.009517379192851817
trop@@ 0.014714336188049942
tures 0.008981121216673249
usa 0.03160009217883237
usi@@ 0.012644668839283895
various 0.010305226316424563
vor 0.004259280917743209
wi 0.15762379495279488
zam@@ 0.08001021370796858
à@@ 0.12797646665238993
š 0.07267775075595864
α 0.009062189377009451
г@@ 0.0020672532677502744
ка 0.0019037701130813097
القي@@ 0.28508480251563845
تخب 1
كما 0.07686070961136157
مج 0.3837070384374448
ٕ 1
दूर 0.5135725368729397
श 0.032028608915976975
हि@@ 0.13779869640294776
ੀ@@ 1
♦ 1
Abr@@ 0.03212248097450413
Alexander 0.01777357380392846
Force 0.016830732756738524
Fri@@ 0.020088213198500644
Got@@ 0.015223362850560033
Leon@@ 0.02817788250972713
Love 0.018386760942041724
Prim@@ 0.0147585862324392
Rog@@ 0.01942743288748047
Sant@@ 0.02519340542153436
Sur 0.021886526159529376
Tang@@ 0.10322971655651204
Texas 0.013817310782159954
Vit@@ 0.04055910058319205
Was@@ 0.06332575790037619
Wol@@ 0.011463238045451326
You@@ 0.037133017628226045
aban 0.009857855393825282
abeth 0.017985440885787136
alar 0.07455950967766302
alli@@ 0.014026410059652659
ander 0.018680296479310923
anus 0.04264249101411591
appro@@ 0.0057107653735825195
asc@@ 0.0200932355855665
azar@@ 0.0632443842163157
azine 0.011954217816343636
chu@@ 0.06084486992651241
commer@@ 0.010020407611439379
cour@@ 0.005840996456317663
docum@@ 0.009292615991703758
etes 0.0320681284893463
fam@@ 0.013972329477909858
far@@ 0.012305439025749808
ierra 0.03080518229764592
inclu@@ 0.007686024438099045
including 0.003397901699149656
ird 0.04154315570955779
itu@@ 0.017860220507452403
kil@@ 0.012455815365327808
kir@@ 0.025352150614899403
kon@@ 0.00606941060184358
liv@@ 0.006978769778010494
made 0.002881122567450791
media 0.012363475863415945
nd@@ 0.033082392750431004
ockey 0.01465922085916413
oire 0.022228354667930723
oka 0.08701487681890929
oti@@ 0.014277388590511449
over@@ 0.006356197565550527
plant@@ 0.016949034391962853
quar@@ 0.00899846859356309
rich@@ 0.006372280192955425
rière 0.025947706395509824
run@@ 0.006588499501472743
sab@@ 0.024032281886731104
series 0.004204684850708956
stan@@ 0.030834355571865674
tas@@ 0.024507708499830996
then 0.0028779803438648806
tory 0.010788275683105924
tour@@ 0.0058387457831371005
trol@@ 0.01921779469597006
uld 0.011865391527562176
video 0.00965820088000529
while 0.0035905034008007278
zo 0.01369815594329124
zone 0.018828205911146253
Ü@@ 0.022951297891746467
ül@@ 0.008915426140457742
İ@@ 0.020661867031666954
ș@@ 0.057022870858182154
π 0.09284123193477783
М@@ 0.0035708045631608907
ла@@ 0.0027688166195497165
т 0.0013430525422520952
ֲ@@ 1
القرن 0.15231360922876203
المك@@ 0.3549527862185787
الولا@@ 0.559978875206537
شارك 0.23701946791696407
وكان 0.135611100155746
ٽ 1
का 0.009860978771760282
स@@ 0.02126397601694582
য 1
வ@@ 1
大@@ 0.0034081250638605867
 1
ﻛ@@ 1
.C. 0.020680010380952827
Alt@@ 0.02700789490581923
Anne 0.027268256673487905
Arthur 0.022606023743313712
Cle@@ 0.02248649531246186
Fut@@ 0.031224910271489378
Gold@@ 0.02468376165914398
Gra@@ 0.016944362984427
Hall 0.011250162553254476
Jacques 0.02445790341082911
June 0.004566845150907927
League 0.004445413708927662
Liter@@ 0.020443252504569732
Pop@@ 0.01736838639048016
Sach@@ 0.026824420924754247
Sher@@ 0.02633608236275786
Star@@ 0.020214410887505904
` 1
activ@@ 0.005029424807036159
adel@@ 0.016434376771906237
aer@@ 0.02763190456235047
aill@@ 0.0198651512327738
aus 0.001275064120369362
aver@@ 0.008447915490902468
ayo 0.03493620383316273
bus 0.015995920677562
central 0.01063309278886039
class@@ 0.00845043107740995
com 0.059292118608957896
dam 0.01910750377878481
different 0.008104458921881271
dit 0.012309210629998808
dos 0.004357925106865414
dre@@ 0.010813468411618144
edo 0.022609811051833625
este 0.004580195145670013
hiv@@ 0.18274540348226143
icul@@ 0.010832235331562464
influ@@ 0.007012453666180746
inst@@ 0.006794762052821413
kg 0.031605820765881046
ku 0.05488522488700767
larg@@ 0.009989464829625476
lay@@ 0.02247592616033498
lia 0.02486629289478807
liber@@ 0.013105892257790085
lit 0.014735594382665976
live 0.011594819172844679
located 0.005081149738431035
mem@@ 0.008593905791760023
nu@@ 0.010317204156993061
onal@@ 0.013742886412392168
pain@@ 0.010182789426729318
park 0.01453321666672054
popular 0.010245734593464373
rap@@ 0.005860578577964199
rif@@ 0.010851435897361582
rup@@ 0.011466724661544454
sam@@ 0.021865756637583753
sav@@ 0.01681264187777538
sey@@ 0.13218255372894203
sist@@ 0.009029925682631263
tains 0.012030759878924683
tam@@ 0.013418077959961184
tern@@ 0.018200821325884305
through 0.003455226110971567
tigen 0.00994620764468527
tradi@@ 0.0057216407343100035
uma 0.02952341140063739
uta 0.02566658037252077
what 0.007883229009114479
Î@@ 0.07025433231750995
ét@@ 0.003730036335190376
ź 0.15343208227489227
ʃ@@ 1
али@@ 0.017787774515756565
г 0.0026491946400649937
ный 0.001953754328157155
إ 1
اته 0.1293723158050895
سمي 1
لها 0.10621581167837049
نامج 0.2777877252091534
ڤ@@ 1
ڻ 1
का@@ 0.03839561006595801
छ@@ 0.08274173669935435
श@@ 0.03752630951982916
ਆ@@ 1
ਭ@@ 1
ತ@@ 1
ි@@ 1
ე@@ 0.6879242465476338
山@@ 0.014931269511770737
ﭻ 1
ﮄ@@ 1
Biz@@ 0.09549378156582336
DR 0.0248663801665779
Distr@@ 0.03364178192110511
EP 0.02402532279235471
Gener@@ 0.013628338372092597
Google 0.04879792928956022
Kap@@ 0.01393243063755974
Kis@@ 0.06284637911918155
Kut@@ 0.09843858802073913
Lis@@ 0.03363475491704849
Michael 0.009107684346892029
Mut@@ 0.018751435433477622
Pil@@ 0.023425995562694705
Proj@@ 0.014369943109589563
Say@@ 0.06872414091063897
Whit@@ 0.021756647750767726
alian 0.014198431986679045
alla 0.016057455022265976
alle 0.009118601052578
alog@@ 0.01554229597364277
ample 0.010064813320936637
ango 0.03444598944657354
annes 0.02136888089779308
ardo 0.020245907685804365
born 0.002899372360722297
bos@@ 0.027362302332935146
carr@@ 0.027908594640431498
ck@@ 0.014138799008673856
cription 0.008883942269897178
edit@@ 0.011490599530130737
elected 0.009121126217765512
ement@@ 0.012858936472165291
emi 0.05517174110794898
emple 0.0355401263561603
encia 0.0032787325725424036
ently 0.0037276017302299773
fig@@ 0.010740363344888338
film 0.002393826463615674
game 0.00449364474393547
hay@@ 0.05809789645068909
histor@@ 0.011722780266152696
icia 0.02595269651582294
igan 0.01726300025000836
igh 0.036566895918459005
kad@@ 0.030812550548291167
lav@@ 0.01876691532947861
law@@ 0.011509832205477804
mara 0.04392627119764573
otr@@ 0.05307638789911377
pass@@ 0.0038756427491382565
pha 0.038499266202794036
pun@@ 0.011612782404095674
record 0.0072958632211486294
rez 0.021998140596361973
termin@@ 0.007918119099199723
tha 0.03035878883231721
trav@@ 0.005493401142994841
ven 0.005257651649642842
version 0.006581818729850522
vie@@ 0.0058776203492467176
vin@@ 0.016659865127653852
ì 0.03602021927942354
ío 0.017226321433845265
ım 0.03497321337616774
Ō@@ 0.093001187350852
ʁ@@ 1
д@@ 0.0012693472034932655
ро@@ 0.0011591996614062584
افة 0.14579487462471533
المسي@@ 0.2669437285850666
بسبب 0.14904484007696064
رئيس 0.20839594528357863
لدي@@ 0.293769320932109
ګ@@ 1
ण 0.036868063789571706
प 0.006029056632178931
ब@@ 0.02469593116414525
ला 0.05499900389895074
ে 1
ਅ@@ 1
ਤ 1
ସ@@ 1
ା 1
ୁ@@ 1
ನ 1
ი 0.7551061625574191
რ@@ 0.7400676637244105
ﺾ 1
Andre@@ 0.010799701827205901
Arg@@ 0.03116478939771553
Ath@@ 0.011523852283799537
Christian 0.010661945739945427
Distribu@@ 0.02441624993978357
Eliz@@ 0.02158247403836556
Emp@@ 0.03342316215679736
Fak@@ 0.03496611484602928
Film 0.007611712908127208
Kun@@ 0.010784259849053117
Me 0.02043356763210839
Open 0.015890468062757353
Spe@@ 0.012494381327093431
Tex@@ 0.020727773936783524
These 0.008319564758228315
XX 0.025544961348220253
ables 0.008056915657602325
aden 0.014748645648083663
afr@@ 0.037613723839132994
ague 0.007530399375003037
ambi@@ 0.022464710433327373
apar@@ 0.008742082382815285
arri@@ 0.008367758446919824
ason 0.012199492591755427
bara 0.03643993195947449
cer 0.0178981682391481
charac@@ 0.007813857943259886
cle@@ 0.010792840302666298
conduc@@ 0.010432923274615116
culture 0.013180882189826364
design 0.01072472240028148
develop@@ 0.006639253893469586
ectiv@@ 0.011806290462816497
emen 0.020902225310960896
erie 0.016186112045196713
ers@@ 0.021907222132922118
fem@@ 0.004667854382907717
flo@@ 0.008347477526564066
hat 0.004992733481810348
high@@ 0.006833665600588319
hon@@ 0.006337293995805791
imi 0.03761141763212321
irs 0.014103657080265529
isi 0.014882348360741034
isl@@ 0.009859286696401773
len 0.004249016822721205
ley@@ 0.02380613585118473
ligh@@ 0.010101538167098354
lor 0.021160107359920056
ment@@ 0.008718750724681236
mom@@ 0.015482673945090671
numer@@ 0.01187976031644927
ose 0.016530001441299975
pi 0.06871497630697744
poli@@ 0.01464178529267925
prac@@ 0.008727999436225856
represent@@ 0.004876013038886987
secre@@ 0.01889614222966722
super@@ 0.008420506019040801
sus@@ 0.007178340529633238
test@@ 0.011914576068972582
tif@@ 0.011095712514162002
took 0.004828637499056822
traf@@ 0.01849512161023263
ui@@ 0.04845194014168204
voc@@ 0.008010691899186441
wel@@ 0.007957934751858495
ya@@ 0.11478927086211123
yar@@ 0.03368582603014205
zar@@ 0.047041672529303365
zer 0.02429120367557243
zu@@ 0.006831585424607622
éc@@ 0.010123283534544813
ê 0.02500908139024127
õ@@ 0.07637585108297736
ın 0.007996687091644255
ǎ@@ 0.5652031911736386
ɪ@@ 1
α@@ 0.011616281108718781
δ@@ 0.008390713323825572
И@@ 0.002470633488953604
ба@@ 0.0036310944188860297
за@@ 0.0010926532440217421
ш@@ 0.0016973277529661788
؀ 1
أش@@ 0.15610769584867107
العربية 0.1901792894035171
العص@@ 0.3374017460969322
تقل 0.7399684722401959
تلك 0.15776718212791055
ثة 0.15325629500844165
فيها 0.13302743895195657
لعب 0.09984094564595009
چنان@@ 1
ग 0.02557715098416099
ज@@ 0.030895341115878282
त@@ 0.022945450194855166
দ 1
ੈ@@ 1
ି@@ 1
ག 1
◾ 1
 1
ﻡ@@ 1
Aires 0.026192081403947628
BBC 0.019344088859110393
Clau@@ 0.020201129031917855
Deb@@ 0.015261458134807523
Esp@@ 0.011504357368063524
February 0.004738601558147131
Form@@ 0.01753746508401121
From 0.008089013195415275
Hug@@ 0.01580467232018471
Music 0.008143698646844208
Parti@@ 0.021374524848560374
Paulo 0.049777060491566584
Person@@ 0.010806300443420232
Real 0.01968015434162547
Star 0.01490520810391836
Univers@@ 0.03400056744424857
Wes@@ 0.020891360156838356
Windows 0.026102919090304568
adan 0.06682200959122049
adr@@ 0.008705146601939079
agen 0.005960562106646229
aha 0.03920423022966219
alis 0.026289232067280666
alle@@ 0.025148688266899207
ames 0.025927428606529718
anger 0.015869661154189148
became 0.0026218083978171653
because 0.005802618863181642
bed 0.016478138102166865
bit@@ 0.012642267359936791
box 0.020040041161760884
bun@@ 0.012777007914441443
ca@@ 0.014140670500921788
called 0.0037078565772667993
chang@@ 0.005158186524641348
cho@@ 0.006876511244367071
ci 0.008945845115582557
cit@@ 0.012789439304779396
const@@ 0.021766154001489423
cut 0.013914419472789607
edy 0.012349505141993438
ehr 0.011333375540893937
embr@@ 0.0312567985078272
eva 0.0271094202347387
event@@ 0.009403720948205348
financi@@ 0.011699650078107342
follow@@ 0.007483772168775206
gal@@ 0.00942562280471437
gir@@ 0.009712091336498991
given 0.007974668206624545
hut@@ 0.08828986672527392
idae 0.0051480554972447076
idence 0.011730291202638429
ition 0.008885721868296177
kara 0.12124880442043823
med@@ 0.0063111467014680235
near 0.006885376136465241
nec@@ 0.014790709473399688
oj@@ 0.05704220401769385
ores 0.003740303677159216
oria 0.017952686926242762
pic@@ 0.01079318011782249
pose 0.00835827528516091
princip@@ 0.0074230809976985656
rain 0.016432808637449937
rant 0.017956005863896667
say@@ 0.008974914967572904
scienti@@ 0.012859555022507635
sed 0.007074645965273142
sel 0.009856739000495945
toral 0.015862989498434517
trong 0.0021030904961882304
typ@@ 0.007841924594122656
umin@@ 0.019624632034150005
uru 0.058589344528143704
yu 0.06045459770179809
§ 0.07259823562620107
ège 0.012081867574612187
én 0.0210614091356154
év@@ 0.006168485349678273
ña 0.015291804401985208
ön@@ 0.00884664869652213
ć@@ 0.10021705422403547
Č@@ 0.054754870472448494
ƒ 1
Φ 0.9787011630555881
β@@ 0.006955078580323557
κ@@ 0.007009829437815196
ν@@ 0.0088703032774744
публи@@ 0.013955032814003024
с 0.0005865367296805035
ы 0.0014857879044885868
باسم 0.20629560780423603
كانت 0.04951858089650289
आ@@ 0.01762966142350269
ता@@ 0.04480794461277805
व 0.015153210523500086
ি 1
ਟ 1
ச@@ 1
ட@@ 1
ి@@ 1
ཁ@@ 1
⁄ 1
ﮌ 1
ﮟ@@ 1
ﺕ@@ 1
Alexand@@ 0.019084253056305032
Arth@@ 0.20837097602305174
Buenos 0.024812807333987632
CN 0.049681187576196245
Die 0.0007926059644425321
Ein@@ 0.00317701358145466
Fern@@ 0.008030004628852037
Hir@@ 0.021428201819225688
Hist@@ 0.01874401819111273
Journ@@ 0.014218061230214985
Luf@@ 0.01811868673536281
Meg@@ 0.031341472039799236
Mik@@ 0.02280193056943028
Patr@@ 0.01060346240686827
Rod@@ 0.014269959862969065
Roman 0.011066450839971874
Seb@@ 0.027803006430605664
Ukr@@ 0.03141677496077146
Yer@@ 0.09089737842539315
ache 0.009106463455940758
aissance 0.014459611954130532
amii 0.3535767661172484
ances 0.0056536589657430435
ante 0.0020582666974772105
ats@@ 0.01594086131428216
aume 0.01651114450614478
ayn@@ 0.06385255528028183
bourg 0.018808940710237955
cam@@ 0.007641461196482692
capit@@ 0.011723436174005255
case 0.008691433474106976
charg@@ 0.01246798024280898
chen 0.002972456220134906
clus@@ 0.013699591104019573
craft 0.010032657924350834
dor@@ 0.011055223213600706
eller 0.012667500221149555
elo 0.01701765290172509
eno 0.01603707253341539
envir@@ 0.010737253317556445
erk@@ 0.012054201768644057
esse 0.007250747930775594
essor 0.010247682469281979
fu 0.11293786467509981
full 0.008927724403919958
geb@@ 0.0027596735444917167
get@@ 0.011322661880342385
gradu@@ 0.006472642059866936
high 0.004489237979384051
ief 0.009330651074775114
iger 0.006130637546278471
igi@@ 0.021825304481824855
jam@@ 0.015221404177988004
kur@@ 0.006429616802056016
lake 0.028216348343502114
lik@@ 0.007291949050199793
lip@@ 0.02271374895658989
lui 0.004850126840335833
lum 0.027919392561924435
lé@@ 0.011818157436026846
par 0.0007562823390508464
que@@ 0.013643916695258064
som@@ 0.0099228435515995
stant@@ 0.022431051144372577
tario 0.017052695086298617
temp@@ 0.006410670177136302
tie 0.017021500490711963
top@@ 0.019249867482220392
tos 0.005307915803252266
tran@@ 0.013482355591074266
tru@@ 0.01024018509737853
until 0.003097065558923542
usal@@ 0.03173420124569341
verg@@ 0.02427411524526953
von 0.0003925744709958626
wil@@ 0.014508630736571035
yle 0.014127508570209977
zon 0.06816399333624654
ý@@ 0.10897717500264703
ın@@ 0.01581714674062186
Σ@@ 0.0071938611647942114
θ@@ 0.0077696602804401636
ον 0.046702016037048065
ός 0.012897401719490345
С@@ 0.0013497646296961195
У@@ 0.002697815113892172
а 0.0018253432406309228
б@@ 0.001615276258402397
в 0.00018527643125410253
н@@ 0.0012650900004877465
ная 0.0024517183858838564
أل@@ 0.07888885122244489
توي 0.2827045001277703
لية 0.04782626639182323
ڻ@@ 1
की 0.006010812723034637
ख 0.06764709326152714
ফ 1
ম 1
ী@@ 1
ਿ 1
ବ@@ 1
ய@@ 1
ு 1
ಗ@@ 1
ྫ@@ 1
თ@@ 1
ი@@ 0.42990260375892814
∗ 1
中@@ 0.0042202693414262575
 1
ﺖ@@ 1
ﻚ@@ 1
ﻞ@@ 1
Afr@@ 0.03444057226914204
Albert 0.016676744003740234
Australian 0.008836774419878518
Centr@@ 0.02227185556836361
December 0.003821227344231508
Direc@@ 0.0095059403518495
Eur@@ 0.01113888822983481
Hand@@ 0.008480529884227726
Institu@@ 0.01973775238343716
Juni@@ 0.014627238160725153
Long 0.018023601424431906
Madrid 0.013880359362165615
Nam 0.012742256127544194
Nis@@ 0.1366918835943167
Scott 0.01733587389471064
Soh@@ 0.08324202316055852
Song 0.019789607754620766
Tek@@ 0.07436210017393453
Wak@@ 0.06305281831183304
Yah@@ 0.06277532012141644
adem@@ 0.010213128325853537
alo 0.024862879508315335
anan 0.05677469337587696
ander@@ 0.008828894002296202
ape 0.014729529107950152
ately 0.0049036351754930384
atur 0.016284837510328998
añ@@ 0.009635700158877757
beau@@ 0.015832767836531147
become 0.007141701272080535
ben 0.003900762199460272
bon@@ 0.01707896107521768
compos@@ 0.0036840329433570594
cum@@ 0.02017492844351983
did 0.004526021376136852
dil@@ 0.02830276983749977
ego 0.008755166148650162
ei@@ 0.00851844553985149
eil 0.019024945089986728
ept@@ 0.01342329084372806
established 0.0063256971761125255
ete 0.0051116259056361215
fon@@ 0.0072024806356490246
gemein@@ 0.006963898217428093
gio 0.022940010146682926
hil 0.03957270719711
ically 0.007600462975155946
indi 0.18581544469120914
ische 0.001639581456646252
ised 0.0063561474076755465
ishi 0.051319623976689994
ism@@ 0.02593607162574881
issu@@ 0.004960313484066586
ket@@ 0.0077459523726369165
kor@@ 0.014640609038365981
left 0.004758271420044823
lik 0.02913840370861706
mm 0.00973205775995389
nation@@ 0.010760739039067753
ograp@@ 0.020974206917299038
ops 0.007889910833864039
osp@@ 0.01600748072109348
ots 0.0076165365624349555
sch 0.006476617275155211
service 0.004468920812193703
sons 0.010531348868214736
stati@@ 0.01824198567032387
suff@@ 0.007315123949638803
tari@@ 0.023637105259937775
temper@@ 0.014375770612544223
tempor@@ 0.01213708901317348
tific@@ 0.01864866637660988
tit@@ 0.007115549682682854
tribu@@ 0.016562499975917324
umi 0.05049354468222349
unda 0.012378449032139882
uro 0.027092163240345735
vers@@ 0.00428451478031901
än@@ 0.0030356972716041185
éri@@ 0.0033588491425863244
ʻ@@ 0.112458219839356
σ@@ 0.006918008871167283
φ@@ 0.007516837319941
й@@ 0.0011539668870885053
ль@@ 0.0008989772372429152
та@@ 0.0017848535403593335
ь@@ 0.0018722980630063437
ט@@ 1
أث@@ 0.1210474890548
أحد 0.12657843922092266
الخار@@ 0.2715251435327482
انية 0.06180225801607342
زيرة 0.23122784211266253
عبة 0.2850321340911374
غة 0.2495755494163956
مدينة 0.08337809028794638
والأ@@ 0.17050973968739502
ټ@@ 1
ڊ 1
ڌ 1
ۍ 1
ग@@ 0.026378394035348036
दु@@ 0.15454024420985596
फ 0.029379752176678393
ब 0.02767403452009746
बा@@ 0.03316843052293552
या 0.019983771406753368
री 0.029295567403575112
रु@@ 0.07890985464396312
ु 0.09516870930189589
ु@@ 0.07356936453629244
ਚ@@ 1
ੜ@@ 1
ર@@ 1
க 1
த 1
ந@@ 1
ತ 1
ು 1
ს@@ 0.9196098482611182
ḥ@@ 0.22808112056750846
ン@@ 0.6186907126798269
海@@ 0.007465334605471909
 1
ﺽ 1
ﻥ@@ 1
Ant@@ 0.02089836813666543
At 0.0038097801257187722
Augus@@ 0.02251535093980721
Beg@@ 0.007282326627261185
Famil@@ 0.017565926323919238
Hosp@@ 0.014793767998001297
However 0.004245690424064277
Isra@@ 0.022097540536074132
Jes@@ 0.012618021206878442
July 0.003368862666676288
Mex@@ 0.014028025463259588
Nig@@ 0.045660803038460866
Nik@@ 0.015353278955992677
Play@@ 0.0095503751997061
Roma 0.028651373412997918
Steph@@ 0.013769516297515227
Su 0.007651729789052823
Tari@@ 0.07569493593904406
UE@@ 0.1488816765693818
aborat@@ 0.018454380597276093
aces 0.011390853779713061
acha 0.07256113649160134
alt 0.010486820770539335
anes 0.023351611595153227
anta 0.0123010700876399
anya 0.047285732210345065
aro 0.021865727114837055
ayr@@ 0.03211672266131923
bab@@ 0.028523700092398036
cent@@ 0.008577078750366118
cho 0.002874309160884357
conver@@ 0.009985561781432705
could 0.004370726293593503
course 0.010082624287716968
cro@@ 0.005825052612215151
dist@@ 0.003307394077100934
due 0.004204817818334496
eca 0.02349683630510707
ends 0.006255442259390168
eron 0.006259715520313503
estr@@ 0.004096405397082421
etz@@ 0.004791578593645344
ext@@ 0.00653206906221498
father 0.005336302071594867
final 0.003439874995605284
football 0.004401863127189889
found@@ 0.012515440028980513
gol@@ 0.0091552927972076
hand@@ 0.004142246159819183
hara 0.1071734201331509
held 0.0037659265228419227
hips 0.004781023461828205
hui 0.016454771016285473
hus@@ 0.013927961783556854
ided 0.007802999169843385
iga 0.024047323524551262
illes 0.021064115877085468
important 0.006781636411399883
inas 0.014807705105096292
isch 0.003958868767535499
iter@@ 0.018235025730075353
kas@@ 0.03870177369050035
mas 0.015538330455931924
nas@@ 0.02800037921811663
née 0.0140527075253893
olo 0.022287100311379298
onald 0.016155514569429825
pend@@ 0.010545486233202525
pia 0.10249045846538454
prom@@ 0.0033267756407153516
promot@@ 0.007256435526896298
près 0.01117736301270478
ric@@ 0.006741504771561009
road 0.005989915125728656
rod@@ 0.04364179100734439
rot@@ 0.009040789091232897
rou@@ 0.007896157899256963
sat@@ 0.009151783263243216
some@@ 0.006301674345726709
sta@@ 0.011129089426596284
strat@@ 0.01314364223103927
tot@@ 0.012187125091008449
tun@@ 0.013288375530973392
uka 0.07095366625606093
ular@@ 0.0074450751332212056
vin 0.02057812356548549
wen@@ 0.005375667670106986
yal 0.0208704214846346
ün@@ 0.004410289205156958
ě@@ 0.04841412523684922
ı@@ 0.011291434940720175
ʿ@@ 0.09630044952702078
ία 0.0063898713657519115
β 0.054458876687471104
π@@ 0.007022588832649816
ρ 0.019951141343081177
е 0.0006060373460226236
ми 0.0016582530438025746
на@@ 0.0008893981853505895
ра 0.001954521376555553
ра@@ 0.0012522984294700327
я 0.0011734537424163186
ד 1
أما 0.17107811973146692
التعل@@ 0.6441189758068079
الذين 0.11573010735528984
النه@@ 0.20001466430157058
ضة 0.1687833925828218
هة 0.16724312988402748
ܐ 1
ख@@ 0.03464559052663713
जी 0.07324097600668747
ना@@ 0.026270632492132483
ली 0.031069118988078626
सु@@ 0.0468513521348801
ા@@ 1
ର 1
ఖ@@ 1
మ@@ 1
ದ@@ 1
ಮ@@ 1
བ@@ 1
⭐ 1
の 0.3531119137437865
ス@@ 1
天@@ 0.009257205471896079
ﭖ@@ 1
ﭴ@@ 1
ﮀ@@ 1
ﺙ 1
🌺 1
AG 0.020720798363315567
Arts 0.009820482022540896
Best 0.009551540056926329
Burundi 0.21900241067002044
Christi@@ 0.01975288410934853
Eri@@ 0.014774682266286334
Franc@@ 0.01161552347841403
François 0.01565036087649609
Media 0.01625082841520764
Nach@@ 0.004938645099064526
Ng@@ 0.013391803161558486
Ober@@ 0.004978991352570346
Olymp@@ 0.008113902438549371
Pedro 0.018031173047108853
Rum@@ 0.026598053512025464
Tod@@ 0.01445313476399901
Wan@@ 0.08007810355337813
Willi@@ 0.029225775016326175
Young 0.014304295002048826
aged 0.0048320762018847566
agre@@ 0.007478819946280667
alan@@ 0.02720783364241411
alit@@ 0.010810268015565479
anza 0.015343461490288056
apon 0.05793913999017821
aç@@ 0.0139802302596658
best 0.005451295363785471
bio 0.015916810157942978
c. 0.022238637212666834
camp@@ 0.0027401787167596514
cia 0.017927654193855704
cole 0.011652427834433406
compl@@ 0.005815723164327756
dam@@ 0.004828678323414874
destr@@ 0.008484944925621515
diff@@ 0.005316188966656108
dio 0.006385797135403097
early 0.003172343064500692
eaux 0.015080813278184758
ectu@@ 0.011611744949545075
eder@@ 0.004390204639641374
election 0.004831957787440458
empl@@ 0.014571337100631588
ended 0.002905949397421762
endi 0.04500884353335518
entes 0.003101896775108943
eur@@ 0.010642256658771294
feld 0.0124604763050152
five 0.0043798443596406115
fle@@ 0.007657047450266153
found 0.0032735794112460463
ging 0.0076335862915479745
gol 0.04813231402394686
govern@@ 0.009873592417508391
half 0.00639382368066089
hari@@ 0.3322910343100936
head@@ 0.006424816486012141
ig 0.0057104065150550415
isse 0.006109628581497169
kab@@ 0.03268948170034876
kul@@ 0.009920359227148762
leng@@ 0.00790258620048682
long@@ 0.005507766911378161
mani@@ 0.014316511003713648
nch@@ 0.013661097256806585
nit@@ 0.014720842500490886
né 0.004930312497887191
oci@@ 0.010707949940878208
police 0.008978151494569707
pre 0.007877703623412497
pris@@ 0.009086194053990526
program 0.007637218845231626
quan 0.013903992809180761
r. 0.009637979937056326
retur@@ 0.00613623859615507
rich 0.01921018519730395
rid 0.035367441478510335
rie 0.018980617174818023
ris@@ 0.008535880027743406
saf@@ 0.013541896400336453
said 0.004450720198269745
short 0.007397543093520843
sun@@ 0.020718517410399973
terior 0.012989467639999988
tex@@ 0.006525851024639839
tou@@ 0.006285784127106988
tras@@ 0.014268410912987558
uel 0.009823930348213302
uer@@ 0.00618296882971113
unk@@ 0.003537587178722317
vier 0.0059101639281277365
vit@@ 0.0168766194356555
wani 0.2737819742487488
ween 0.022047872135514027
zen@@ 0.020077185477642704
äl@@ 0.00418174752094124
ède 0.013242204940829441
œ@@ 0.010433626498424066
ɑ 1
Χ@@ 0.015591137019636629
Д@@ 0.001878249748377588
вет@@ 0.009854042657057163
з@@ 0.0012169976059461095
м 0.0006537355461346525
ни 0.0028886990695853624
ч@@ 0.0011865258481375677
э 0.02223433825310814
я@@ 0.0014056582999135956
і 0.29629184819592674
أف@@ 0.1257762090622422
أنه 0.056501809106190654
اعة 0.18529842381357184
الأص@@ 0.18079986806995355
التاريخ 0.24551903815820197
الرئ@@ 0.18639950385063817
طة 0.04879020795524852
مرة 0.10633210699617565
يؤ@@ 0.24012285888065857
ः 0.24855505003530082
ता 0.02098767089496265
ना 0.02805660935567156
प@@ 0.018354397145951506
सं@@ 0.0209534725880285
ृ@@ 0.13839628926561973
ং@@ 1
ই@@ 1
ক 1
ੈ 1
ପ@@ 1
ି 1
ெ@@ 1
ை@@ 1
ర@@ 1
ల@@ 1
ಾ@@ 1
ೆ 1
න 1
ර@@ 1
ས@@ 1
ლ@@ 0.5743762766733357
ო@@ 0.750530828083755
ṭ@@ 0.2372745732931108
ッ@@ 1
ン 0.31775601093838357
ー 0.2667791107878407
国 0.007830922495154847
 1
ﮭ 1
﷾ 1
0.000 0.014739201375924849
Bed@@ 0.01679421051017035
Berlin 0.005343663100156344
Bez@@ 0.006982691292343012
Buc@@ 0.014966668757818536
Buch@@ 0.013242619374672745
Daniel 0.01240123266781397
Don 0.01281474827314043
Et@@ 0.01528260006789389
Gas@@ 0.018016938647873525
Ges@@ 0.004256972999494259
Henri 0.019087059770483476
Hot@@ 0.012817128292785149
John@@ 0.018419154592447053
Jose@@ 0.017579380091652854
Mark 0.010618904101975525
Mek@@ 0.07168011388238656
Microsoft 0.028681940463324982
Mod@@ 0.011959107236700989
October 0.0029296856789357757
Sa 0.014826110778507469
She 0.0019523161971076058
Super 0.012332729158323456
Vik@@ 0.022341116410103137
Yor@@ 0.020216006632781135
adol@@ 0.02503162989810785
alter@@ 0.011123231598066045
anni@@ 0.019392397559130452
ağ@@ 0.014032495079877966
aş@@ 0.017119236227868557
baz@@ 0.08385335314981927
bol 0.014664258464409222
bt 0.010589719297775732
conf@@ 0.005909586733085924
cos 0.00967333645371344
cus@@ 0.0071395670037001265
cá@@ 0.013175799708737326
dez 0.015517126027756293
dial 0.017701853901047424
eda 0.022367624002875775
enant 0.010253192560673011
ender 0.006301827197726351
enf@@ 0.0058557002505672485
exist@@ 0.004972220265127304
fall 0.007957815130485279
four 0.0026617398616789294
fut@@ 0.006826309733614191
gö@@ 0.03551269333941843
habitants 0.011087108299534873
hadi 0.23100019963950214
hr 0.011539456862429671
ias 0.01353911947074667
ift 0.0290943630626049
ilg@@ 0.056786078229235794
imp@@ 0.005646210310196826
information 0.008304574374291135
inga 0.05363746984731469
ingo 0.025932611356198728
integr@@ 0.00993267076682577
inus 0.03335548618156834
ishing 0.007287072543832876
jun@@ 0.026106566373503684
kap@@ 0.015172263099710153
kazi 0.2895724067112896
kes@@ 0.027713994133748816
km@@ 0.010292870851416693
kn@@ 0.010567769592477088
kol@@ 0.01956925001883116
late 0.0049758757728067
ls 0.007347295482398794
lus@@ 0.010330343994249933
main@@ 0.005380841467972771
nant 0.014903123744177479
nes@@ 0.03258351817320117
next 0.005933421675193597
north 0.005124257926406382
ogo 0.04168473363429227
ologi@@ 0.007610587183399806
polic@@ 0.01086890085713245
publ@@ 0.007452452774096695
red@@ 0.014015497715126102
relig@@ 0.011387300231801047
rol 0.03718174448444637
ses@@ 0.007908456487020656
sie 0.00122932872600478
sis 0.03640282716171238
stanbul 0.054772433175102345
stell@@ 0.003089996050161727
take 0.006241574834891649
though 0.0028198525802959856
tique 0.005611962877618373
tín 0.02284548331777962
uss 0.00882197402685164
viol@@ 0.0059285701968945625
zu 0.0006699643957663371
ä 0.05787198580345424
éch@@ 0.010918030273835123
ő@@ 0.1198670432048904
ɡ@@ 1
ɪ 1
ʊ 1
ː@@ 0.544008071504627
Β@@ 0.010737777055288465
Λ@@ 0.012548977607671256
ο 0.0022569666526907587
Са@@ 0.004691227652305015
Т@@ 0.002162759809014875
Х@@ 0.004500101701431403
де@@ 0.0010786911736460853
о@@ 0.0006907599437703576
қ@@ 0.9707694900700505
ү@@ 0.7359804494322741
ו 1
أغ@@ 0.12712609670950234
الطبي@@ 0.18497263868132252
طاني 0.4472437611351546
طريق 0.14310806665317055
فية 0.08277218547802251
كبي@@ 0.4317061371725728
مانيا 0.19284597504834688
कु@@ 0.06713512273028527
ति@@ 0.06035754642379033
तु@@ 0.06601809631132871
भ@@ 0.04642983012120803
ভ@@ 1
ਖ@@ 1
ਟ@@ 1
କ@@ 1
ා@@ 1
ු@@ 1
უ@@ 0.9914400564312138
Ἰ@@ 1
‑ 0.2866726014367533
新@@ 0.006338685791088703
本@@ 0.008527585085281451
ﮁ@@ 1
ﮝ@@ 1
ﮡ 1
ﯼ@@ 1
🌹 1
Ankara 0.06282432207768887
Cin@@ 0.016559860922731772
Deutsch@@ 0.010859043487758846
Frank@@ 0.012767822750608102
Franç@@ 0.027433381759941183
Fried@@ 0.013086386267379709
Friedrich 0.010110607076264157
His 0.0029195712654850356
Il 0.0010292747702938447
Jap@@ 0.005635336787159044
Live 0.015282618663201524
Mec@@ 0.04882432791019954
Par 0.01610987803480773
September 0.0019230571498081094
Sov@@ 0.07810277279038166
Tou@@ 0.016682649732924545
Universit@@ 0.011481130588934317
Vor@@ 0.002265635787011894
When 0.004675672638507347
XV@@ 0.026783706273880957
Yo@@ 0.029100514133490647
ager 0.004755439900718852
alim@@ 0.015322684793829514
amin@@ 0.013531119118433188
angel@@ 0.010557993549145366
anos 0.006113990021926453
archit@@ 0.005935504313451218
atre 0.007847081555163653
auf 0.0005809439993122521
autom@@ 0.007521369095340295
away 0.0068146504292633785
bak@@ 0.022557535555609333
bau@@ 0.0056910496448429205
bay 0.013219875564182757
ble@@ 0.010927158434273214
boy@@ 0.014793604098491061
bres 0.010462691518969022
burg@@ 0.010214905116008033
capac@@ 0.008267893210977968
chin@@ 0.011495032132765934
cht 0.003882723846382362
cm 0.01012581292719996
conqu@@ 0.014105918960859998
dav@@ 0.009387697281727772
dis 0.013232208219732472
distribu@@ 0.008524610187471889
east 0.006229203548397157
elen 0.00468990424570609
elt 0.0024847898047527777
eran 0.005250411641186541
eur 0.002260926715514967
exper@@ 0.007050271319056318
explo@@ 0.008410194873152173
fen@@ 0.012315919875212493
fici@@ 0.010146139561196714
hak@@ 0.046386961316921306
hard 0.01040607821084127
idad 0.0019157681176176758
ife 0.005551987359075913
igo 0.015609615223403914
ilia 0.03326308663298574
incre@@ 0.004195005513400268
inos 0.009464000499494085
invol@@ 0.004782405685438663
jaw@@ 0.18981212849887158
jum@@ 0.020463419941149745
kat@@ 0.010571336287204728
kho@@ 0.03834002608360844
lag@@ 0.00850058059162604
large 0.0035625423542477606
libr@@ 0.0072321987710494764
ling@@ 0.01597284927715414
lis@@ 0.02827842036689466
mab@@ 0.18530352687182
mari@@ 0.010772141411914852
material 0.010059083510346617
members 0.0037941434088615586
mili@@ 0.013047418581160935
occ@@ 0.0053244252868749
oko 0.04643197564143602
olo@@ 0.02148945226087121
onder@@ 0.019171549240046725
orient@@ 0.012150330969123532
present 0.005151561582366496
present@@ 0.0035981267353751454
provid@@ 0.004326326228936626
provin@@ 0.014419123106593483
rique 0.013141016106457253
scor@@ 0.003531133035774578
south 0.00497716137673304
started 0.005001377106421655
tad@@ 0.010412267811982203
tes@@ 0.0132027067051241
ths 0.005222833638093754
tn@@ 0.015312354556042934
tribut@@ 0.008988075723398143
ungs@@ 0.001215968080105091
uzi 0.25478083787005085
ving 0.005589135214346937
visi@@ 0.012107288153467677
who@@ 0.005422646418284781
xe 0.010404660168394692
yat@@ 0.03419591871128495
zw@@ 0.011929194816236955
¥ 0.46436181436331087
¼ 0.5150836947609683
ál@@ 0.01707111848592228
ç 0.014133029168815021
î 0.04079981014825215
ē 0.3236753045368148
ır 0.010516009088350669
ū 0.03335367036024673
ż 0.5643321436388844
ɾ@@ 1
ʼ@@ 0.12272873123801867
ή 0.004381937971060097
αν@@ 0.005580469848007916
ει@@ 0.012661821413599934
μ@@ 0.005036933001241715
ω@@ 0.008274813689020527
Г@@ 0.0017973882545800927
Ко@@ 0.0027885069102141203
Ре@@ 0.006367226756067065
ж@@ 0.000988739938271649
з 0.0038454074857424622
л 0.0005902132595961232
окру@@ 0.007546502011228873
рай@@ 0.009643164904953717
ск 0.008575004901861593
ц@@ 0.0022239252798040604
ш 0.010885824057731721
ї@@ 0.5868500574651948
ј@@ 0.46054775428640476
ի@@ 0.9564467221214462
ע 1
أك@@ 0.0776280198451083
تمبر 1
دولة 0.2165583309033653
سية 0.051344761938414495
وية 0.05916002738917005
ينة 0.12765324777318104
ۢ 1
जि@@ 0.08896737657178862
চ@@ 1
ਗ 1
ੁ 1
ੌ@@ 1
ହ@@ 1
େ@@ 1
ல@@ 1
ම@@ 1
ව@@ 1
タ@@ 1
モ@@ 1
日@@ 0.007315572197634176
 1
Academ@@ 0.019673953286950686
After 0.0019445283077571505
Am 0.003355421797986936
Berg@@ 0.011062718079939289
Blu@@ 0.013835235907372827
Boston 0.011154807745227356
Canadi@@ 0.006722767537987886
Elle 0.0027558845071214973
Entertainment 0.015998835361824792
Histori@@ 0.008465156875740672
Jackson 0.013572713412865173
Johnson 0.011579402607841596
José 0.007396347229348462
Kenn@@ 0.009834698632602565
Kid@@ 0.06160692709238522
Kl@@ 0.005218665744775432
Migu@@ 0.018624963384951003
Partido 0.020969442696907394
Radio 0.008455994585247987
Riv@@ 0.031173646613813735
Rol@@ 0.006470341049129931
Si 0.01398629830363897
Stre@@ 0.011265543231342668
Syst@@ 0.01323117148906355
Sü@@ 0.00730813307542218
Tom 0.01225592203236802
Wer@@ 0.003437025035568688
Williams 0.01140333321685317
With 0.006063319201629911
abab@@ 0.5998809965285151
abe 0.006804828464728254
ained 0.003321404369688791
allas 0.01538749442726959
amo 0.02028749915991218
ario 0.0028027576771979565
aster@@ 0.01185074113247065
atos 0.010430314945244974
aup@@ 0.026151172448116437
bah@@ 0.008783836525518436
bay@@ 0.023475230765303605
bre 0.0049614143447504954
carri@@ 0.006469077453785432
ched 0.004736839425481308
concentr@@ 0.010941837619716064
condi@@ 0.006538515776776403
defe@@ 0.005005996332001633
each 0.0030092687574542246
ende 0.0026725888016795023
ending 0.005667155155428528
ensis 0.009213075480410017
ests 0.0059632056749729725
fi 0.04568142514315113
forces 0.006433983546366737
frag@@ 0.011824513506830326
fund@@ 0.0037508694689748637
gun 0.01507469151473301
habit@@ 0.006732988600980231
haf@@ 0.011050908123790122
hin 0.009884646881208107
hud@@ 0.25406832818150493
iden 0.007824060387573453
interpre@@ 0.019982282280879154
ique 0.0028463969702100683
iş@@ 0.01174210891867817
jap@@ 0.0304101099140767
kom@@ 0.003150314278732835
lara 0.014608724384150283
lie@@ 0.004119048425493702
march@@ 0.01332816788981303
match 0.004123216755578203
office 0.006158608112767463
olf 0.011944193350390183
open@@ 0.008236468404272865
para 0.0008408128614224976
party 0.005685480479668918
person@@ 0.003374598351923991
plan 0.006099829414756261
ppe 0.01450833419249501
propor@@ 0.012831902749305483
public@@ 0.0028808127420551135
reci@@ 0.005143787957295018
requ@@ 0.005945780323680433
rest@@ 0.0034157567856215884
rier 0.011558674957972194
run 0.005784262230750157
sche 0.004953705492493586
seg@@ 0.008124652913997428
song 0.003033986494772416
spor@@ 0.0202219833026907
tas 0.011782328915081047
terr@@ 0.0110916851536759
those 0.00408261863822916
tico 0.003986059336861229
tiz@@ 0.009291662892539167
tra@@ 0.002666747329125464
trol 0.025122618503890342
ually 0.0032607330750017583
ums 0.003570743311699448
unci@@ 0.011475030182248698
unga 0.07057724220369578
unter 0.0016776735124130842
ustr@@ 0.005207598299052129
verdi 0.09939517096739763
versit@@ 0.0259002850975047
voir 0.007366215388309519
wak@@ 0.01753883836325951
wards 0.005131294158115335
was@@ 0.011210224481901301
yak@@ 0.02423114466687973
yas@@ 0.021551722572448383
yet 0.014081366343867665
zel@@ 0.015417215223077636
zon@@ 0.0238351875693853
© 1
ás 0.00785819344031518
éré 0.015362303888319054
ì@@ 0.1298679916427044
ño 0.01472470323308275
ɔ 1
̃ 1
Κ@@ 0.005816632038613967
ε@@ 0.006036711593489841
η 0.002393189531533674
λ@@ 0.00666855134331666
ν 0.01120510527700509
στ@@ 0.005524246940783275
τ@@ 0.004989130031734916
Н@@ 0.0029221856190899493
Р@@ 0.0026128667828516604
авто@@ 0.005596967560531727
ар@@ 0.0020815078799875965
ва 0.001597611914741661
ви@@ 0.0009503865513738498
д 0.001346398491740419
до@@ 0.0008064991579236296
е@@ 0.0011553369643858991
коно@@ 0.026001325464332224
ла 0.0008327939486594419
льный 0.006693966642411335
ни@@ 0.000725653169837767
ре@@ 0.000669453482998721
ри@@ 0.0008544032764375935
ство 0.002462062697115177
у 0.0008707314635381709
ե@@ 0.6394870391564597
ո@@ 0.5271392206923076
ֱ@@ 1
ב 1
ך@@ 1
؏ 1
الأولى 0.08916189876266314
المدينة 0.11726230531454072
اية 0.09613834637887338
حين 0.13802837046670532
خرى 0.8371349160552087
زية 0.10461542644108328
عية 0.05377679247427613
مايو 0.10210032248891818
منها 0.07847024358815703
يرة 0.17991216939118299
َّة 0.17174112727242125
ٿ@@ 1
ं 0.04249846510783836
ंग@@ 0.044158995158643195
ऐ 1
कर 0.014131647068890987
जहाँ 0.3023496588928862
ट 0.007318741397868061
टी 0.043887528323888564
ड 0.01181089570117648
तान 0.10055377053791278
ध@@ 0.03240728323188602
ने 0.007745540059602968
पा@@ 0.025443911689303794
मु@@ 0.03674682858539532
या@@ 0.0199696336656868
वि@@ 0.013781188194845636
सि@@ 0.03521621533260114
গ 1
ত 1
ਕ 1
ਬ 1
ତ@@ 1
ు 1
ು@@ 1
ക@@ 1
ල@@ 1
ད@@ 1
ა 0.8586166051919287
ṣ@@ 0.1677576654932878
ῖ@@ 0.7470777769125984
の@@ 0.3383598429857468
ケ@@ 1
地方 0.03415943471719407
 1
ﭠ@@ 1
ﮍ 1
ﮘ@@ 1
ﺞ 1
ﺺ 1
🐱 1
🔸 1
.000 0.014547141707242466
Ander@@ 0.01092284977881349
Angeles 0.0073224727001925715
Antonio 0.00975330878572979
Aus@@ 0.001375870935937902
Bow@@ 0.009660160671714161
Bun@@ 0.01605202639090141
DVD 0.013464367505736744
Das 0.0014177475255401386
Football 0.00650513110802887
Form 0.013256110188686375
Hamb@@ 0.009400484882315855
Inn@@ 0.009937874325020146
Jack 0.010537796324387585
Jones 0.009932738069456458
Jos@@ 0.01747544069488171
Kamp@@ 0.014771543773526765
Karl 0.008614104345952391
Kenya 0.03495047910061298
María 0.011164086740081385
Max 0.01227115629121542
Nati@@ 0.009716699117324493
Santiago 0.016931041424412478
Thom@@ 0.014378990151633027
Times 0.009018326609092452
acio 0.012738162180491723
agric@@ 0.006840237306210972
aifa 0.11743880044327258
angu 0.3117874139296905
anl@@ 0.010522386292164102
another 0.0038559287560715285
anı 0.022290801957549115
aten 0.0030443520525568527
ater@@ 0.014012513321525508
atri@@ 0.011042331543895733
atu 0.051594610712474405
auto@@ 0.010721679681443363
ball 0.003305524333164516
bir 0.0019802384402382
bli@@ 0.008582283214892898
but@@ 0.004784003037976264
came 0.004354094521509883
caus@@ 0.003864733120351251
chr@@ 0.014297272494791277
ción 0.0014248987104627279
clos@@ 0.005119075926013584
clu@@ 0.004070301220302134
combin@@ 0.006234173572054406
cover@@ 0.0042422812136038894
dings 0.0053832215397483915
ega 0.008063760252020937
eki 0.050674170158894166
eles 0.01511259238154165
ener 0.00536869732168053
enta 0.006164163222584537
enth@@ 0.0073228435378809575
esses 0.006136036891546258
few 0.0050976257355364405
fo 0.018668906389555828
foc@@ 0.005981808558851382
ful@@ 0.006109677753756063
fur@@ 0.003229141763593731
gang 0.006678406120123992
gres@@ 0.006137549999416373
hem 0.02952843566035471
ible 0.005678126944544966
ido 0.001643867405741471
iev@@ 0.004516863502198941
iler 0.009066743178696216
imin@@ 0.010102430454905017
inde 0.0070113526143054695
introduc@@ 0.004892069290156012
ises 0.0053738279847399375
isha 0.03167968309088426
isis 0.011193223327415423
isto 0.03436001521122125
its@@ 0.009791489714368997
jah@@ 0.010850912400250344
journ@@ 0.004327060822949124
kit@@ 0.020612417178688083
kus@@ 0.02583945422895362
leb@@ 0.00703304857766529
lies 0.005627677155229224
mak 0.024808392492207846
map@@ 0.024843506846072866
mig@@ 0.005274765053045184
model@@ 0.0070600297706360565
modi@@ 0.008197046804758842
mé@@ 0.002543748166858999
named 0.0025852103751271794
ob 0.00976714397827281
obr@@ 0.050330636393583
observ@@ 0.0052568393918945334
oir 0.008118152765925537
ously 0.004130541853326209
performan@@ 0.004478002430733965
perior 0.013593052493268405
pon@@ 0.0036840997264813223
possible 0.005965543872294738
produced 0.004474445794933116
real 0.007127125639038925
reduc@@ 0.007531369671762627
species 0.0030856771466241514
ste 0.003126909073203873
suc@@ 0.005327067319975608
teh@@ 0.056801556815841515
tera 0.011167946421257019
tim 0.02390397172504905
topl@@ 0.02593944716225947
trad@@ 0.009588990334458359
uch 0.009345715169405666
unter@@ 0.001701719724194677
vez 0.005708389024734659
vot@@ 0.0044594109200378545
zen 0.0037076895383135414
zis@@ 0.04279771140607831
çe 0.03980308337171319
èg@@ 0.012124699524679686
ól@@ 0.01484723749858816
ü 0.00853596161206886
Ā@@ 0.1925001663662518
Đ@@ 0.0038763024198170365
ık@@ 0.018116879015436533
ır@@ 0.009748799656668793
ŋ 0.6603953075818303
ś 0.31076631094680746
Ž@@ 0.04239497409054585
ʃ 1
̞ 1
Α@@ 0.005829027146339614
Θ@@ 0.03736078282696101
Μ@@ 0.006053297817424612
Ν@@ 0.007672999874313955
Π@@ 0.006091647874313661
ά 0.006637980304128068
αγ@@ 0.011366520020143654
γ@@ 0.0057891199620628
κα@@ 0.008568672536942127
Ал@@ 0.012982310969713999
В@@ 0.0013531267543030292
Ма@@ 0.003196969508753119
О@@ 0.0010658944145057428
Ч@@ 0.003983085971578933
ан@@ 0.0013939317095777877
ли@@ 0.0006644747897129322
но 0.0007101609397522178
ское 0.003537075104238385
сп@@ 0.009725132671415025
ха@@ 0.003973339576222041
ческий 0.013803956050339159
ь 0.001546952516066237
Қ@@ 1
ն 0.6808290637357075
ր@@ 0.4694646914442263
ַ 1
ئة 0.05237056318899736
بية 0.04749053979982883
تكون 0.06568240588927657
توبر 1
جميع 0.07680724501090848
دها 0.10051299649987606
سياس@@ 0.1778642001090239
نية 0.03768068032836454
ينات 0.148302692271612
ڳ 1
ۗ 1
ۭ 1
को 0.006005968638516665
जा@@ 0.025522363073118965
ड@@ 0.027068566245264276
मंदिर 0.1478045961965175
राज 0.0276402048486342
लाई 0.5866494637289907
लों 0.06909610941294443
ष 0.015467791536191329
हम 0.16271019313370785
ि@@ 0.04552674969280861
ব 1
ৰ@@ 1
ਯ@@ 1
ੲ@@ 1
ગ@@ 1
ଗ@@ 1
ଦ@@ 1
ட 1
ப 1
ள@@ 1
ద@@ 1
ా 1
ಂ@@ 1
ವ@@ 1
ಸ@@ 1
ೇ@@ 1
ල 1
ḥ 0.5631486691879184
→ 0.04268100787503171
⋅ 0.9658071323986183
✅ 1
ア@@ 0.9050663559646068
ポ@@ 1
国@@ 0.005722082798803112
西@@ 0.0032112336945145717
ﺱ@@ 1
ﻝ@@ 1
ﻩ@@ 1
Alfre@@ 0.011969700744480317
Archit@@ 0.008253731916352121
Awards 0.0061244850189740305
Barcelona 0.013312944647925743
Bir 0.04339242306482726
Carl 0.01092085020588779
DV@@ 0.04686119452173852
Dez@@ 0.1406886695730111
Enter@@ 0.02822461873042801
Es 0.002121672084517907
Estado 0.0146054136236233
Frank 0.009052384996792999
Gran 0.016867716361399124
Her 0.0060002008122680755
Johann 0.008531421657272466
Kem@@ 0.036217853862500336
Kim 0.014111515797154904
Mann@@ 0.011074457042128399
Nord@@ 0.005328420894974059
Oli@@ 0.009613979729292586
Ost@@ 0.009992623993904234
Schw@@ 0.006759668011910863
Simon 0.01279557042525344
Son 0.005590495256334959
Von 0.004069476974651093
XIX 0.01279266482080252
Zw@@ 0.006868454292931506
ako 0.053754452236326036
antas@@ 0.011975828347224974
apo 0.04022751614945936
apos@@ 0.02848440719517961
bes@@ 0.0016805916087030948
bez@@ 0.00791681929578255
categ@@ 0.007192780220209053
centre 0.004632991877970966
chap@@ 0.005949058512530954
church 0.004524716121727782
clim@@ 0.0072756831318581865
clo@@ 0.004308151506110878
colon@@ 0.008956313931249009
company 0.0025777636948727256
concep@@ 0.005585088609686621
conserv@@ 0.0048273751002338985
continu@@ 0.0038049541560134623
dad 0.008933936552557732
dem 0.0003734109989788411
dir@@ 0.007838586746134026
eg 0.005206681540419768
eing 0.009951700292705269
enas 0.014933714832764669
ener@@ 0.011429356151141096
enes 0.006269366865221733
enh@@ 0.0062313679577150225
enin 0.02393483496073987
erh@@ 0.0055028992849238305
eria 0.01522185183013902
establ@@ 0.006235224568387737
etti 0.012167765930955062
etts 0.010341096822102535
experi@@ 0.0054097771295881026
figur@@ 0.008541902259804716
fore 0.006400796689039622
formed 0.002562185358296362
gel 0.0120111580413362
gli@@ 0.012125382197462217
hib@@ 0.008649659665639063
icas 0.004991632042639003
iken 0.01958906871863105
ilk 0.010715917072751678
imi@@ 0.009305920378958754
inda 0.037907887746389056
ingt 0.01022810261141451
inn 0.008220451829471597
irat@@ 0.033058122291319485
jed@@ 0.10169284898478728
jia 0.21438741734172498
jou@@ 0.003390198755524505
kun@@ 0.008225179183254524
lesia 0.0110810364116655
moved 0.0027139702177722655
nat@@ 0.008351442462219095
neo 0.009076971897868085
ogle 0.5264020567681256
omin@@ 0.02420706261842461
onto 0.006430873350476531
opp@@ 0.0060235061222223335
plus 0.0009436514919871312
points 0.003880549803041024
prepar@@ 0.0073586161289680724
princi@@ 0.00779245098954134
prise 0.006050054651295728
probl@@ 0.00484144648832026
propos@@ 0.005443498226601823
publique 0.009440671633693744
qua 0.010278794099196638
role 0.0038764246484645705
sal 0.01315133652705373
sein 0.0023093777880054604
still 0.0034192960200120533
strum@@ 0.02211564253592843
tei 0.00946829288482492
tek 0.04194005356647854
television 0.004867475403338348
tish 0.011155551546334632
tut@@ 0.007654909946679674
uke 0.008283776019673898
uno 0.004011469156991384
wig 0.00892054065675459
with@@ 0.011769845080039103
within 0.002986458614242046
written 0.004311684289129231
wrote 0.004188793151067817
yol@@ 0.031654023022143304
Å@@ 0.0625839390970357
üm@@ 0.00809775671898657
ř@@ 0.02057030303207287
ʊ@@ 1
άν@@ 0.00623388688183312
ε 0.009843817012363558
η@@ 0.006706654743310968
ρ@@ 0.005207094041857516
ρι@@ 0.007289959160978836
υ@@ 0.006264785388403084
ό@@ 0.005706609249584067
ав@@ 0.004540180402615194
ал@@ 0.00309364056856732
край 0.05199277467259433
стиче@@ 0.00992743509813262
сы 0.007156585275644249
та 0.0009320458753741672
чи@@ 0.0013396625504800404
ҳ@@ 1
ә@@ 0.39673072516413493
ּ 1
ח 1
الأول 0.06895614472652005
البري@@ 0.10431760205925669
الحي@@ 0.7882502529103514
المملكة 0.046062815139701827
الية 0.03667449262899801
جنة 0.15573779326894502
ٙ@@ 1
ڀ@@ 1
ܝ@@ 1
आज 0.18273880482537075
उ@@ 0.029159605624896223
के@@ 0.04401792935470167
च 0.028309428629802593
चो@@ 0.31652934132462457
दुनिया 0.23465253193574045
नि@@ 0.01870884312692853
नी 0.02355797115212073
महा@@ 0.04998284177757751
मा 0.05281444096068363
मे@@ 0.02786590605572319
लय 0.1547685795969977
सा@@ 0.020545500719659795
ह 0.02492867940914309
हिं@@ 0.4619230899752428
ा@@ 0.05014354663297762
ान 0.06698013698813605
ी 0.020178745509444818
१@@ 0.05896638581817514
२ 0.13788473455005248
খ@@ 1
জ 1
ਵ 1
ତ 1
ନ 1
ை 1
త@@ 1
న@@ 1
ర 1
ಕ@@ 1
ග@@ 1
ბ@@ 0.7289285412442701
მ@@ 0.6516648691435436
ṇ@@ 0.19422024806107444
↵ 1
█ 1
ト@@ 0.887319956828046
中国@@ 0.022033558839852262
 1
ﭝ@@ 1
ﭡ@@ 1
ﮃ@@ 1
ﻂ 1
ﻅ 1
ﻰ 1
ﻲ@@ 1
Alg@@ 0.010912939848644432
April 0.0013892268391785254
Bundes@@ 0.003547977166314658
Cao 0.032609331606741905
Champi@@ 0.003999502795688273
During 0.002603234383806057
Ent@@ 0.005403058071447964
Entre 0.009222275149680933
Hot 0.012595667005282042
Jack@@ 0.02010086933439198
König@@ 0.007043647430575437
NGC 0.015779824615559036
Paşa 0.08878590333510276
So 0.00623323936614743
Tür@@ 0.021035223544098536
Wit@@ 0.010531923995721983
abil@@ 0.004710499900691567
abu 0.05566924682089374
ached 0.003844111762884477
ación 0.0004530737304293548
actor 0.006749932476750907
adop@@ 0.0051582457096882835
adu@@ 0.012749964831069332
agon@@ 0.006826851032303645
ainer 0.009889840877371922
ambo 0.06044786246040987
ansas 0.008399652259734073
aras@@ 0.06320360097493756
assist@@ 0.005155719435210959
ası 0.008365373390494688
athol@@ 0.003212941671028575
atives 0.005161160420808377
bed@@ 0.007398054151560351
bran@@ 0.005454960361678478
built 0.002317541818639018
classi@@ 0.005578462103711957
compar@@ 0.004461986205172551
complet@@ 0.0031115648169285043
conv@@ 0.0066083621638117025
days 0.0040855777532393875
declar@@ 0.005618135978044119
ember 0.014666181497445915
endel@@ 0.04816516056537961
esta 0.00220327576884547
eurs 0.003184945454726248
excep@@ 0.005310411846696277
eye 0.015968166257176758
fes@@ 0.003762571497774246
foot@@ 0.005770297008073018
fron@@ 0.006246042551414169
front 0.005108280570378156
fs 0.006721135228837834
hay 0.006970976273728288
hen 0.011031562446984115
hiz@@ 0.027608204950913963
idea 0.007644118000187212
ige 0.001768529426256682
ilo 0.0218357589593929
industri@@ 0.00540509167378709
initi@@ 0.0027339512845735844
instrum@@ 0.0058451274991773595
inten@@ 0.005407656428751754
ires 0.0028413422422829096
isch@@ 0.002401497835838362
iss 0.008700305886532304
joined 0.003517694825025976
kid@@ 0.026877342425735338
lı 0.00940098288167391
mati@@ 0.00919776071645939
much 0.0036204342455645956
music 0.0022368947437292085
nak@@ 0.032670653136642545
nationale 0.004452382453467944
nis 0.0038942443083015725
oles 0.007937631264550245
ongo@@ 0.032522675050698335
organis@@ 0.004996957156953655
pos 0.0037529659238847496
prec@@ 0.006659341377707851
quali@@ 0.005300995901411758
ques@@ 0.006740665673068469
qui 0.000534123856250245
quot@@ 0.012069427413722331
race 0.00484915650824816
rech@@ 0.002936523044645619
reich 0.007030810355226527
relati@@ 0.004168552298238968
resid@@ 0.004295176061469121
serve 0.006511678335765234
sir@@ 0.015608219654858839
situ@@ 0.0027072105776646464
six 0.002712128286576997
stand 0.002613116184805438
tag 0.010109860166284202
tent@@ 0.009387342567202002
titu@@ 0.004215289197330833
uo 0.020153210252789232
usi 0.07558281554982799
vas@@ 0.011371065048506056
yap@@ 0.008623000434282421
yaz@@ 0.01281295911831399
yen 0.008300337261614377
yer@@ 0.014706464380096523
ác@@ 0.006741872943367903
æ 0.13396641397265277
ça 0.014392014708979318
ên 0.011944379980205798
ð 0.184824218652198
ò@@ 0.04259738262988608
ún 0.006559975779391864
üs@@ 0.003860136709606259
ý 0.011003663509269403
ık 0.013700648783317318
ş 0.01194794142006601
ɛ 0.6014057485167867
ʼ 0.6543079133850002
ί@@ 0.004102918056029089
ι 0.006160807288406601
Б@@ 0.0014756551732855421
Ба@@ 0.004362611917817306
Та@@ 0.0035629825295078834
Укра@@ 0.008033185286298115
бли@@ 0.007294785984569669
ва@@ 0.0006850940214999462
га@@ 0.001275787401108195
да 0.0009985920500029527
къ@@ 0.027751607376013378
ло@@ 0.0007002347958879069
ме@@ 0.0010133484523977
не@@ 0.00048802715279147346
ст@@ 0.001012681367076311
те@@ 0.0009586035801768441
то@@ 0.0008856453946225629
фе@@ 0.003548610636835292
ъ@@ 0.007781840796357936
ש 1
أة 0.09051323036734354
الأرض 0.14592699836257536
بإ@@ 0.09394974841638352
بحت 0.13580447945352825
ديدة 0.06127228024571105
سكان@@ 0.07681911960430554
قية 0.06544113231279226
كرة 0.02942355330810135
لإ@@ 0.07522807409910207
لكن 0.10410254125802831
مقرا@@ 0.137731852041404
مكن 0.1467458444845154
منذ 0.06026019081990021
يكون 0.06624379125220899
يها 0.1641389499949026
څ 1
ډ@@ 1
ܕ@@ 1
ܘ@@ 1
और 0.0035973628688507637
के 0.0014690967523870954
गु@@ 0.037806360092565446
दा@@ 0.03237687527201561
रा 0.023337846836406766
ि 0.06356258371598132
े@@ 0.03820636587092618
॥ 0.6507090484868637
ড 1
য@@ 1
ূ@@ 1
ਇ@@ 1
ਘ 1
ਦ 1
ଜ@@ 1
ୀ 1
େ 1
எ@@ 1
ற@@ 1
ள 1
ழ@@ 1
ி 1
ே@@ 1
ோ@@ 1
ల 1
ు@@ 1
ಯ@@ 1
ಲ@@ 1
ೋ@@ 1
മ@@ 1
ി@@ 1
ක@@ 1
න@@ 1
හ@@ 1
ུ@@ 1
ვ@@ 0.5374015027304447
Ἑ@@ 1
₨ 1
┈ 1
ⴰ@@ 0.8605497565371825
ス 0.3287122449223135
东 0.017972735308198144
人民@@ 0.01271271189304879
國 0.0037645441498098276
島@@ 0.03987108451353446
省 0.004300328265390706
 1
 1
 1
 1
ﮈ 1
ﮣ@@ 1
ﺥ 1
🐰 1
💥 1
According 0.0037105410630665766
Alman@@ 0.07483943027496409
Anna 0.009539896013830759
Arti@@ 0.00834499819959582
Ba 0.02470424544202659
Carlos 0.007038334497337602
Carr@@ 0.011858377411311084
Chic@@ 0.04171285385050887
Chicago 0.005000400574575139
Da 0.007470954686185534
Der 0.000716076230344737
Disney 0.012492642589952316
Festival 0.0042316241150660615
Greg@@ 0.011490394545837708
Illinois 0.008587334623893767
Jug@@ 0.007798053308169102
Kik@@ 0.09009309352780845
Kle@@ 0.0058442681268422855
Ord@@ 0.012688089104014023
Professor 0.006703584702527519
Sek@@ 0.010841352927145286
Tenn@@ 0.007589811483735585
Zu@@ 0.005684709680837432
ael 0.014694493186636329
aines 0.006013418805066021
aller 0.002818161283372307
along 0.002297273276160896
amen 0.004731825543714304
anas 0.0077578115475268675
anlar 0.04936210623080246
announced 0.003007127014708597
appear@@ 0.001829928943234798
associ@@ 0.003631158900560108
aten@@ 0.00737477594959272
ball@@ 0.004558737611170463
centr@@ 0.0038402286866651143
children 0.002620585201998392
club 0.0015245474800444315
comb@@ 0.004490329294909437
construc@@ 0.004931481744568869
corresp@@ 0.005803948846768905
denomin@@ 0.010021427767483077
diz@@ 0.016585021167622758
dows 0.023166174415995895
dur 0.025577802714342773
eler 0.0033252653279752945
enz 0.0063375813478171944
erra 0.006941194672228898
esto 0.008020869397311708
event 0.0038644546089432073
eza 0.006787733393229487
famili@@ 0.003293079118699388
fan@@ 0.004595306623093959
feh@@ 0.009056862313770658
fel@@ 0.004217328524470324
gether 0.0034808104617680196
hasa 0.13269810771263313
having 0.0033645486919621193
however 0.00366361013590901
hô@@ 0.010882221760648295
icos 0.0033766950028419535
idente 0.010287432143672686
iller@@ 0.013855953749238552
inform@@ 0.004426311207182038
inning 0.002677308568109413
ismo 0.004632573968600241
jud@@ 0.005781854311078869
kam 0.003665927252156601
kana 0.10205942825370369
kw@@ 0.01311573516587166
lug@@ 0.009617923986227198
materi@@ 0.008170977465242557
milli@@ 0.007392872499049732
msh@@ 0.09590731818612182
muj@@ 0.01826194239957694
national@@ 0.004993367932712824
ngu@@ 0.05004559359470711
nier 0.008663062520560184
né@@ 0.0042623006640487935
oca 0.014697916196696444
ort@@ 0.005311460601226248
orum 0.02022124263852798
pad@@ 0.016355813276208272
patr@@ 0.0041365936922669625
phe 0.014831971553566617
rar 0.07306891799469413
rece@@ 0.005162679357467804
rem 0.10582527834740467
retr@@ 0.009253908207531986
round 0.0030956883463261415
sad@@ 0.03664844350216802
same 0.0016130014575649573
sang 0.010689432403584056
sei 0.006738583690764468
sent 0.0044626624645170195
she 0.0007707302793801108
sible 0.005479724640709172
signific@@ 0.003387634871202982
sociation 0.008135517830565969
sten 0.0013643949477182818
students 0.0037198162438264047
studi@@ 0.0028047784023684814
tah@@ 0.036626561657107516
tant 0.0031218670293456045
tham 0.011442882577095397
tik 0.008005575101788419
tish@@ 0.16141816450213
undi 0.058110199419878446
univers@@ 0.010599289217920041
vat@@ 0.013586491460946103
without 0.0038213432529280757
zeh@@ 0.007199669771081634
zur 0.0011215828733482554
´ 0.054135805372334485
Æ@@ 0.08078289163235325
ßen 0.003587484053182299
éd@@ 0.004521542208586739
ême 0.01568628249542658
ís 0.010788864611941241
óng 0.022987487077420585
ös@@ 0.007501535078038645
üd@@ 0.010453190391805629
üst@@ 0.009269056199359669
č 0.04280849649240392
ɐ 1
ɦ 1
ʒ 1
Κα@@ 0.024379968299683606
ά@@ 0.003681069449719699
θ 0.06362321833920025
λε@@ 0.01107281342034517
ρο@@ 0.006749561132058342
το 0.0010858079971569278
ω 0.025650292218521872
Авто@@ 0.01869085507273377
З@@ 0.0022188080568854573
На@@ 0.002041343283762741
Но@@ 0.0052657401672305286
П@@ 0.0012087016132283194
Ц@@ 0.003947175691229949
аль@@ 0.0015847591737019307
бе@@ 0.0012906796457019993
во 0.0015605739176378427
го@@ 0.0007209602833463401
да@@ 0.0008305281558766374
кру@@ 0.00860121483370454
ма@@ 0.0008035745597361013
ре 0.0019025203475611073
ч 0.004147540165299043
ө@@ 0.4707657021005416
յ@@ 0.7089444329225171
ն@@ 0.4970429683892957
ׁ 1
ק 1
؃ 1
ؕ@@ 1
أو@@ 0.10676667513796367
أول 0.04272898068133894
الأك@@ 0.06868078337232196
الاقتص@@ 0.11866533630057177
اليوم 0.1119064512290281
تمي 0.8142927391421979
تهم 0.13371855334869154
حيث 0.019819801372741835
زة 0.036947046369537745
شكل 0.11554844645006491
فيما 0.12632926654960475
مانية 0.06103313458125751
مشيخ@@ 0.11841082619590566
ولة 0.05035369287807285
ولدت 0.12208313939707229
ځ@@ 1
ڄ 1
ڇ@@ 1
ڠ 1
ۆ@@ 1
ܢ@@ 1
को@@ 0.025965759839076775
ञ 0.255863968086391
ति 0.017152458726309647
ती 0.01786411509912345
ने@@ 0.021627071603976464
पि@@ 0.05884257683329711
फिर 0.09657840936559262
मह@@ 0.10273362060632865
मी@@ 0.046131518216741677
रि@@ 0.01650556379949655
ला@@ 0.011896450550301892
वी 0.04320886553353892
शे@@ 0.08019616910170463
सी 0.028918887283977273
से 0.0035072347231654604
ा 0.02287841523064916
ार 0.04000148366246383
ारी 0.05133695768076901
অ@@ 1
স 1
ਂ@@ 1
ਐ@@ 1
ਡ@@ 1
ં@@ 1
କ 1
ଭ@@ 1
ୋ@@ 1
அ@@ 1
ர 1
ா 1
జ@@ 1
స@@ 1
ാ@@ 1
ു@@ 1
ද 1
ය@@ 1
ර 1
ස@@ 1
ා 1
མ 1
ས 1
ქ@@ 1
ἀ@@ 0.3109492971773642
✔ 1
ウ@@ 1
チ@@ 1
人 0.001060423124265564
劇@@ 0.024165210300851777
南@@ 0.003505286287265167
和@@ 0.013715937248403117
國@@ 0.003679156046211225
場@@ 0.039081901188433806
字 0.010780332576134071
安@@ 0.004710368168746967
岡@@ 0.09451581033826838
朝 0.010391411120722201
清@@ 0.009587442458956758
湾 0.044374912762802726
版@@ 0.019213171294185146
百@@ 0.014057672261358817
高@@ 0.003809234687598455
이 0.9775838461946174
 1
 1
ﭕ@@ 1
ﮙ@@ 1
ﺏ@@ 1
ﻎ 1
ﻜ@@ 1
🔘 1
BK 0.05230676925949963
Bill@@ 0.010385504974144952
Championship 0.003445999532734191
Guin@@ 0.04999137634813432
Gü@@ 0.011546697122071585
Hö@@ 0.007823714562131797
Italia 0.011956591259162035
Kais@@ 0.006833648683480755
Oy@@ 0.029936583729444213
Rep@@ 0.024242443292824253
República 0.010680680477702128
Schwar@@ 0.008999616554272652
Top 0.006834639683876981
Türk@@ 0.030732181913360194
UEFA 0.012529286427433055
Uganda 0.029148125292028353
Un 0.003041476086117647
WWE 0.02019603952825556
Wag@@ 0.01247090386318095
Yeni 0.05519327820578222
aber 0.0016204579223669867
actual 0.0072684744722922995
again 0.0026292705650024636
alien 0.0067022419348145065
aller@@ 0.01179255744258439
allow@@ 0.0030456995528101677
antes 0.0014267030839530592
arded 0.0032776907092771867
aña 0.011003767945015435
band@@ 0.006443547071482425
best@@ 0.0023036816742880387
cher@@ 0.0069295917876436635
cian 0.005818285663481293
conc@@ 0.0072056467424568855
deb@@ 0.006034548279356407
ded@@ 0.04353339198378885
desc@@ 0.004418339667042657
dest@@ 0.00792569715830928
dose 0.011800046838169433
dren 0.01544284343094964
ede 0.009570899081128485
egem@@ 0.06111251684064757
ehir 0.08229277586067185
elimin@@ 0.005902871129501074
endi@@ 0.005131061387348737
eshi 0.05447288557450555
estra 0.004956488216121941
exten@@ 0.0035702056226778723
fas@@ 0.004388058511448493
fen 0.003955677206554939
firm@@ 0.00418186094774274
forc@@ 0.003490172709921404
française 0.005563457271716631
hid@@ 0.010434069700174605
huri 0.20473793918038097
iles 0.005741834144005003
ilik 0.0475179311443363
imo 0.009290117982396071
indic@@ 0.0041019125747689565
irk 0.00804538598610373
isco 0.047406017271029555
isp@@ 0.018012236152654185
itali@@ 0.0037841297633826685
iwa 0.05846823413671928
iye 0.04341601703067912
izi@@ 0.007232048856926343
kav@@ 0.0430561436303045
kay@@ 0.011367304178414108
kia 0.06809926590253518
kilom@@ 0.008935733701360651
lang@@ 0.002176752967744316
ları 0.004781518130624999
lec@@ 0.006345492450313071
lek@@ 0.008795971768212396
limit@@ 0.0033298179583986327
maj@@ 0.0035749613700744765
marri@@ 0.007118027428589873
maz@@ 0.03971955579733264
mez 0.023715517740576533
nah@@ 0.006503423396991938
ngh@@ 0.021559296982911987
often 0.002526749696610154
ometr@@ 0.025401822926047528
onc@@ 0.009086797945856992
once 0.0026982537813829153
optera 0.025563802058321896
ording 0.003287376586187516
oğlu 0.0314167182061008
personal 0.00508383980105879
peti@@ 0.0027383926766865714
pointed 0.0030060650802643963
ported 0.0023780719974800944
professi@@ 0.0022355073550073008
quier 0.010550632388105923
radio 0.0037838852291782084
received 0.0018646341785706771
remain@@ 0.0025579131669697212
sak@@ 0.029737556287176403
senti@@ 0.009504100406191584
show 0.0021475029034153654
sos@@ 0.022976417003382113
span 0.019962980215759447
succ@@ 0.002535655645612848
tien 0.00895221021267019
tir@@ 0.0040655615214836354
tly 0.0034233559157206485
tras 0.004460760444212548
tul@@ 0.013845082791665906
una@@ 0.1189557171869266
unas 0.011649093424552141
vu 0.015244981656826657
wah@@ 0.005578200863106582
wana 0.1069705862480312
went 0.0025458348693028635
zin@@ 0.010060429060006119
zur@@ 0.019202574531784748
Í@@ 0.04493237228193083
Öster@@ 0.007390910784235444
Ú@@ 0.021868186211091142
ã 0.021691194391572306
ã@@ 0.029029019304205445
ème 0.003368347723137272
éro@@ 0.003888962690561021
ï 0.018528124862015282
ör 0.02661299953151768
ø 0.05486730279926275
üh@@ 0.0020292903688402023
üz@@ 0.02512144814654943
ğ 0.026727110984874212
ıl@@ 0.005156323252712992
ım@@ 0.01140285656108224
ǐ 0.5423285630043322
ɣ@@ 1
ʈ 1
Ι@@ 0.010571990294098468
αι@@ 0.007392267967820731
αλ@@ 0.005937168109187999
ας 0.005132206141660829
ευ@@ 0.005992571514471722
ηθ@@ 0.036725585289070335
ης 0.0042489509537341225
ισ@@ 0.007406690495478656
ου@@ 0.005101866602202619
σα 0.027907116736968496
τος 0.016051141504210952
χ@@ 0.0030759381824764496
Во@@ 0.002489777953851869
Мо@@ 0.003756535280730568
По@@ 0.0012331776818555616
При@@ 0.004349879835092815
Росси@@ 0.0061258790875598325
Федера@@ 0.011487798711011708
Э@@ 0.0012165613283682652
бо@@ 0.0008022162241089721
ве@@ 0.000618766451697994
вер@@ 0.0012734744667932257
ен@@ 0.0009451513999763435
ин@@ 0.0009695751177070173
ле@@ 0.00047111737945246593
мо 0.005477879937248399
п@@ 0.0007301644414475124
па@@ 0.0009489263077074051
род@@ 0.0032513943537052343
са@@ 0.0010364887616710243
ской 0.0006112780894250833
стан 0.019057129176539858
ти 0.0015006338362204168
ти@@ 0.0006378712160198393
ё@@ 0.0008820351176787269
ә 1
ָ 1
ֻ@@ 1
ׂ@@ 1
ט 1
ס 1
أخرى 0.044110776377309854
إي@@ 0.03224935194740204
الإي@@ 0.1110080237826412
الجنوب@@ 0.11457555114049425
المتح@@ 0.15753437713879306
داية 0.08792049640478822
ربة 0.10742851336990246
صة 0.07899258727759118
عدة 0.06477328606812938
علومات 0.1389656001427138
عليها 0.07960765747886275
مهورية 0.09894094572372943
ودية 0.09206330315805591
ولكن 0.04887239288746107
ٝ 1
ۈ@@ 1
ݜ@@ 1
ݢ@@ 1
ं@@ 0.008662611044294173
कल 0.046352979825471624
कि 0.011199628305055442
गो@@ 0.04079457575916642
च@@ 0.010868472925988578
छ 0.3827885637845554
ण@@ 0.027289910178152382
तर@@ 0.04444252788666794
था@@ 0.03962182267392064
मन 0.047787038035029074
मस 0.11478654330429106
मी 0.03092745834575514
मो@@ 0.029644033351503982
रे 0.05212475169227794
वे@@ 0.020317932684055726
शा@@ 0.020157064456405863
सर 0.025325915095866677
ार@@ 0.02365426208819238
ारे 0.08683788738021012
ी@@ 0.028715399601504422
ै@@ 0.07510851129103416
উ@@ 1
ণ@@ 1
ਏ 1
ਫ@@ 1
ਮ 1
ੋ 1
દ@@ 1
ય@@ 1
ા 1
ુ@@ 1
ଣ@@ 1
ଦ 1
ନ@@ 1
ଲ@@ 1
ଶ@@ 1
ங 1
ன@@ 1
ం@@ 1
అ@@ 1
క 1
ಪ@@ 1
ಲ 1
ಿ 1
ೆ@@ 1
ද@@ 1
า@@ 0.013400997766758457
མ@@ 1
ნ@@ 0.38007802320700934
ḍ@@ 0.2593017538894841
Ḥ@@ 0.20293180739177016
ṯ 1
ἡ 1
ῆ@@ 0.47175699950791883
ⵉ@@ 1
シ@@ 0.6801537029160281
ド@@ 0.9166587618521991
ニ 1
ラ@@ 0.45530553015655884
京@@ 0.01290413418891198
北@@ 0.003236467385179401
南 0.0050650236957720685
台@@ 0.009992639496439209
四@@ 0.004519563250615574
子 0.0022081726366133597
民@@ 0.0033273467036502445
神@@ 0.00973424952260845
禮 0.05109110467688415
 1
 1
ﮉ 1
ﺆ@@ 1
ﺔ@@ 1
ﻖ@@ 1
Apr@@ 0.0700563163613582
Barcel@@ 0.03689704451904098
Brand@@ 0.007313619080362576
Bu 0.006206355343355418
Ern@@ 0.004283213206000767
Geb@@ 0.00465604450464609
Grund@@ 0.0039730553723774705
Jul@@ 0.016048986263846574
Kim@@ 0.018495906457042372
Kri@@ 0.004453312230392184
Krieg@@ 0.004477316838319201
Lond@@ 0.07828109610621185
Mai 0.00282144737553891
Milli@@ 0.0045765238250132095
Mitte 0.006998054012300489
México 0.006390626423437834
Osman@@ 0.0443042860960633
Para 0.006945204071735348
Ped@@ 0.023699277854468362
Pf@@ 0.0031156171643411164
Profes@@ 0.006863723670227388
Reich@@ 0.004013996838320676
Sport@@ 0.0060091916545978764
Stra@@ 0.00588936294866224
Walter 0.006405257295286683
Wir@@ 0.005701823635333224
adas 0.0011562249518075832
aison 0.009062697633552916
aje 0.0029385844791790885
among 0.0024479112384685185
anah@@ 0.08490216482546804
aret 0.0228230871078301
bang 0.012135812595548225
bind@@ 0.003993151592937018
bis@@ 0.010071029444513407
bles 0.003335947873108188
cast 0.002834751215038202
chs 0.007442578554036266
cio 0.005177579476309987
compr@@ 0.0025703413701511075
conse@@ 0.0036790498043386805
dah@@ 0.006857443335645949
dans 0.00023762101031993244
died 0.001736841784978603
eil@@ 0.003365351965879035
emba 0.09827171184378963
endant 0.002920974541627172
enter 0.006236102590477309
eon@@ 0.03251480067169027
epis@@ 0.002259261565448826
ern 0.0009425413895741222
esch@@ 0.005267787578249227
especi@@ 0.002490307931767168
estig@@ 0.010478353544818181
europ@@ 0.0057554789066911445
français 0.003236605621733353
fun@@ 0.0018591367110517784
grand 0.003338752066552901
gri@@ 0.005152452866873946
icht 0.001692497651140236
ikan@@ 0.008108920953010386
iko 0.008565872616017163
ime@@ 0.04218295210409613
itung 0.0035546653376383602
iç@@ 0.015646014334305354
joint 0.004855591609104591
kata 0.03589198265104734
kaz@@ 0.031004126306419397
kel 0.004749247102216039
khi@@ 0.04526444840029599
kop@@ 0.010859158496851165
lib@@ 0.007549404631070693
making 0.0029194093596423085
merc@@ 0.009569951068441846
mez@@ 0.01117516653002652
mik@@ 0.03297900186004601
milit@@ 0.002394750098196468
moder@@ 0.002967441308425777
mus 0.007722805266198356
mw@@ 0.010371337166103499
nac@@ 0.009582297820704034
nou@@ 0.010022458678748309
onz@@ 0.005619012733714761
ool 0.03700007665568829
opo 0.05964247142294672
orio 0.004615009226876436
ouvern@@ 0.04374726443252062
pendi@@ 0.006078907999703557
por 0.00024676184581807673
pour 0.00031752464753355425
profes@@ 0.0030402127642591807
pré@@ 0.0014999741273457985
quel@@ 0.010151832248944104
quit@@ 0.0030692723373704767
rek@@ 0.00943679880244787
result@@ 0.003960514762014057
riv@@ 0.00580365903980332
rock 0.0032446899074851316
sah@@ 0.019418609163884847
sana 0.08264827502072009
services 0.0028312090177267384
similar 0.002895923696200301
spr@@ 0.0015920145405303448
sti 0.08421148217486427
tek@@ 0.01320116871305897
til 0.0049896260243934365
toria 0.00737152649894399
ubic@@ 0.008381982861326376
uda 0.010808560800689327
uel@@ 0.008650608375588132
ulia 0.04741551720292092
umu 0.028320077823254745
vern@@ 0.008646273113846024
zul@@ 0.009817850808626145
³ 0.01972667585444707
àn 0.008662824640103093
àng 0.01010765963893759
ân 0.006349492359297953
äre 0.007468790134403702
ät@@ 0.0018263704425854242
ép@@ 0.007451786972376355
ête 0.003690781536225971
ù@@ 0.021278716181446236
ún@@ 0.004780114494462299
û 0.025778944908329007
ük@@ 0.013352289763432576
ünde 0.010432745840594308
üsü 0.04315229616526576
ą 0.2744443134076604
ıs@@ 0.01042348822147057
ł 0.057826668229007415
ŋ@@ 0.39378778683196164
ǒ@@ 0.6375178719843073
ț@@ 0.02876619885397347
ȝ 1
ɫ@@ 1
ʁ 1
ʒ@@ 1
ʾ 0.4392127900862452
ˌ@@ 1
̄ 0.6007513352975083
Ε@@ 0.004938874834995946
Σ 0.061888925768448934
λι@@ 0.006170056405842826
μ 0.015545859635400743
μα@@ 0.011926518699928931
ο@@ 0.003147673994354178
οι 0.0026289647154488756
σία 0.013722443051378073
το@@ 0.005353120142387858
Ар@@ 0.002842989097507867
Бе@@ 0.0033858602813630974
Га@@ 0.004548596733608046
Ми@@ 0.003060747415912965
Му@@ 0.0047805973942371795
Пет@@ 0.005921197456787814
ССР 0.010226296485689424
Ха@@ 0.004145850527070597
ан 0.006321743199954315
би@@ 0.0011072369281986485
вич 0.0027353645339746138
во@@ 0.0005342995488603092
ди@@ 0.0006442683059941094
ев 0.0031787127007053637
ер@@ 0.0013206673950000123
зах@@ 0.007084349965205248
каз@@ 0.00589066160001718
кий 0.004789334002501931
кло@@ 0.008400603726980642
му@@ 0.0015565890267323196
об@@ 0.0009095809591624608
пе@@ 0.001036587177599887
ров@@ 0.0020197200553810505
ры@@ 0.0019131987129785452
ста@@ 0.000994174248153024
сти@@ 0.001264203881611161
сы@@ 0.002702563476035373
х 0.00045040458560057303
ъ 0.03749935318364496
լ@@ 1
կ@@ 0.7746826152550189
մ@@ 0.9496969216830451
տ@@ 0.758713436287325
ְ 1
ارية 0.07348142996518325
الرغم 0.06099997905919382
القدي@@ 0.0691496088600213
ثلاثة 0.09338998767494956
جية 0.055175942148551885
حية 0.033086386692008043
زب 0.5787111919689835
غيرة 0.09102893275159278
قيقة 0.09581577180465292
للإ@@ 0.09564424735319227
نادي 0.03850719407177603
واحدة 0.0731052008922683
ودة 0.082681281520329
وهي 0.030086127979786572
يًا 0.05729258817030096
ٺ@@ 1
ځ 1
ڠ@@ 1
ۗ@@ 1
۟ 1
ܐ@@ 1
ܪ@@ 1
ަ@@ 1
ँ@@ 0.03192135511342618
अक 0.060798452074562456
ई 0.014578699147208676
कि@@ 0.02019892474713079
गर 0.05773193319443796
चार 0.03510537158574037
जा 0.021255504625333415
जी@@ 0.02389105719953885
तब 0.09564424735319227
दा 0.04342040716778688
दास 0.19419292196215623
दी@@ 0.06400554281467058
धी 0.09699979100528437
पुरा@@ 0.09397284717249535
रो@@ 0.012697086369084521
लि@@ 0.019231464665829458
वारा 0.015406172913533356
शि@@ 0.03386850359722779
सा 0.029521976211882264
सिंह 0.06650357082574705
हा@@ 0.019070263225699536
हिन 0.06257164455667663
ू 0.0322056356734703
ू@@ 0.021553405314792513
े 0.013830961172894009
ै 0.3918314245127113
ों 0.024683995758733073
२@@ 0.05964032376994816
ধ@@ 1
ਆ 1
ਇ 1
ਣ 1
ਥ@@ 1
ਧ@@ 1
ੜ 1
ન@@ 1
સ@@ 1
ી@@ 1
ો 1
ଙ 1
ଚ@@ 1
ଵ@@ 1
ୂ@@ 1
ந 1
ய 1
ூ@@ 1
ం 1
ద 1
ప@@ 1
ದ 1
ಶ 1
ೀ@@ 1
ം 1
ന 1
മ 1
ല@@ 1
ජ@@ 1
ප@@ 1
ෙ@@ 1
ේ@@ 1
ག@@ 1
ད 1
ར 1
ལ@@ 1
ྱ@@ 1
် 0.4542708259504198
ḇ@@ 1
ḏ 1
ṃ@@ 0.3150002722356848
Ἄ@@ 1
ῶ@@ 0.32739107163772097
† 0.002661929922702944
⁦ 1
⁩ 1
⃣ 1
≈ 0.1929037306563278
≥ 0.2086509739752117
─ 0.018534404236870597
▪ 1
✨ 1
❤ 1
ィ@@ 1
マ 0.5990131759187091
ュ@@ 1
三@@ 0.0022713665892506686
上@@ 0.0035083063575836277
之@@ 0.0021904093138175916
区 0.002967441308425777
和 0.0007393600188806024
寺 0.017791387537491463
州 0.0026148488836854967
帝 0.011360587631714101
師 0.012782929801227381
李@@ 0.0069156249615453655
江@@ 0.007724750275943074
田 0.016210143688918332
福@@ 0.007843976999579595
科 0.005713960448400734
語 0.009624840521232374
軍 0.0062509300562160535
 1
 1
 1
 1
 1
 1
 1
ﭗ 1
ﭰ@@ 1
ﮞ@@ 1
ﺐ@@ 1
ﻙ@@ 1
💙 1
📌 1
Ban 0.0142266426795925
Baş@@ 0.025406832818150493
Bras@@ 0.012920925593713084
Brasil 0.011106046918142742
Como 0.007552248027960764
Compan@@ 0.027208369989868027
Cumhuriyeti 0.046930506387148095
Dani@@ 0.015118807703260148
Eisen@@ 0.005993036160074794
En 0.00024322923644633804
Ere@@ 0.009988899612422022
Europa 0.004052920686904532
Fes@@ 0.01988397431132085
Franz 0.006481791465377527
Haus@@ 0.0051370442749804615
Joe 0.005570796827773642
Kongo 0.06036414576190796
Mw@@ 0.08647491966957116
Nh@@ 0.0098465207017423
Ni 0.04788627807119403
Nieder@@ 0.0032900834372543877
Nueva 0.006116993559799437
Prix 0.005280736859035182
Süd@@ 0.0031018340360293713
Tây 0.009417674985473403
Türk 0.01620573439685831
Türkiye 0.012919111468475283
Yes@@ 0.04039174132586185
acht 0.0016373489174460894
aina 0.031003778086302742
ainst 0.029407810816167928
aiss@@ 0.00810853190798927
aki@@ 0.05043211754041309
alc@@ 0.01978251673851262
alen 0.003527022512632658
aliy@@ 0.041736504168310415
alternati@@ 0.005313303381656037
alı 0.009032893932238387
ambu@@ 0.07736693906087587
anyika 0.14095447230862188
arte 0.008205375381047651
atura 0.006441588071228674
auc@@ 0.005100576465975956
auf@@ 0.00044020217687232283
aî@@ 0.0026813420692800133
ağı 0.016978413797572058
berto 0.005725915448087424
bish@@ 0.003360561250425541
biy@@ 0.042067241476562794
cab@@ 0.0020510085338376186
celle 0.0039044588199321794
cet 0.006390202336421543
compet@@ 0.002850340730984374
consider@@ 0.0012974172400806385
consist@@ 0.00308291961118252
cu 0.020019525888344533
dad@@ 0.007639318290656239
dae 0.007572343491298858
diplom@@ 0.005861330868209722
egen 0.0028362366284029788
eka 0.019502157501392132
emu 0.12437831781977339
enden 0.0010714702532106045
ensemble 0.004467271892019864
enst@@ 0.004068139581657541
eras 0.004485360599139555
erc@@ 0.005194483432486641
erst@@ 0.0023733454953306496
esen 0.0024375329019124883
esha 0.051574104807040784
eş@@ 0.010601711303151767
fast 0.003747579929421353
films 0.0029112431351186567
fir@@ 0.0016029533557160606
furt 0.006412498572969826
gaz@@ 0.016394961072458906
gem@@ 0.0024363926695063504
grande 0.0032232987457958616
gul@@ 0.013219037973087627
heit 0.0023373341363289637
hie 0.0035363756369455475
hizi 0.3775235757237487
iche 0.005201981678630616
ident@@ 0.005920642897233735
iker 0.005085560454257816
imiento 0.0022547483963623236
inae 0.011150819958684301
inci 0.01637900736751822
ismus 0.006061013836370774
isons 0.005853004231478174
itt 0.00898187126041873
izi 0.03890152741956103
izo 0.023612176974133942
jas 0.006420253943836754
jug@@ 0.002269955797135432
kale 0.02524650069226313
kis@@ 0.019880537447728882
kle@@ 0.002225550278464276
lich@@ 0.0013592703222873217
mann@@ 0.004327894645095622
metal 0.005519094508385352
mix@@ 0.003343320130624942
monum@@ 0.0041981895775610855
má@@ 0.003435252842569311
namo 0.03208410685618042
nie 0.006072694042897985
ning@@ 0.007249696365482527
nomin@@ 0.0023558775363710506
nos 0.0049926070624625625
occu@@ 0.004752255894055921
odo 0.006011569036111524
ologie 0.001877378565545174
omen 0.034428191390521966
onship 0.0026129463389648095
oppos@@ 0.0033788576751051444
origin@@ 0.0015424261883910386
ortho@@ 0.01709724250379082
oso 0.0037901017471318726
oyn@@ 0.016488975615201126
pio 0.007384758819306511
program@@ 0.00286071471502422
proxim@@ 0.00469503018221224
puis 0.0015493571141397486
rad@@ 0.006292690700407707
raz@@ 0.006953700943361943
released 0.0009178665313895654
rement 0.0032827122005218787
rio 0.008239959600045524
rom 0.0242681399733802
scher 0.0037201358242821055
season 0.0005933470867761279
seh@@ 0.0061318586387106785
sever@@ 0.006740043914669526
siz 0.030040181797023145
sol 0.008685092360548615
tainment 0.016964849097151177
tam 0.030405476337093566
tard 0.0037989584655989824
tent 0.005654926530148624
tir 0.003934173795986733
tof@@ 0.0860704784763049
trag@@ 0.0033777496441610615
vel 0.01164875634327838
verl@@ 0.002014131916929252
visit@@ 0.004198687647069995
weg@@ 0.0025251258108735055
xa 0.014008608735128701
zaman 0.02989961857904825
zas 0.008635156801549228
zh 0.013563676852622622
 1
µ@@ 0.04718560708509198
Ét@@ 0.01800216763852909
État 0.003976118943810588
Þ@@ 0.07638641833228321
ài 0.008197480536229453
át 0.010119702271764978
äd@@ 0.0029305720958565217
äs@@ 0.0025657528002015558
éré@@ 0.0043214716672073635
ét 0.02604102095856808
ís@@ 0.0037073853325651856
ă 0.03127282639279541
ġ@@ 0.3568320043552289
İstanbul 0.018515342314655917
ıca 0.09349859049221144
ız@@ 0.012508053620361455
ış@@ 0.005467021804479156
ķ@@ 0.6032457136564797
ő 0.09197215918211671
ɑ@@ 0.5828657908978149
ɖ 1
ɦ@@ 1
ɲ@@ 1
ʹ 1
ʹ@@ 1
ʾ@@ 0.18694652483353993
̥ 0.9795785612817781
Γ@@ 0.0063872155972735005
Τ@@ 0.003450237709532658
Υ@@ 0.01811177850623344
άλασ@@ 0.07400279839397488
άρ@@ 0.005942463103980476
έλ@@ 0.010756294462554166
ή@@ 0.003662962354224788
ίας 0.0026318597197834324
αρ@@ 0.0037988120827730783
γκ@@ 0.005168767012365655
δία 0.05890850161528064
εί@@ 0.006588349091128787
ζ@@ 0.0034119675986552757
ια 0.00352304329020276
ιο 0.008399470511407565
κω@@ 0.04395344859709653
λ 0.007120256869385465
ου 0.0021786761389547
ού@@ 0.005117009015752709
πολι@@ 0.018298349346352535
ρος 0.016405484154020177
σι@@ 0.005955565784607927
τι@@ 0.004900936326128807
ων 0.002473758605828198
ύ@@ 0.0031996564244507007
Александ@@ 0.0033695036481008766
Бо@@ 0.0018876127155642703
Ж@@ 0.002409364595556717
Ра@@ 0.002261309104448848
Су@@ 0.003182363815642272
Ф@@ 0.0010611883922293957
Ш@@ 0.0018940912566965402
Я@@ 0.0021891950678952043
ата@@ 0.002569545437842132
ге@@ 0.0013712854119600458
гу@@ 0.0015095294680174654
дар@@ 0.0028850821650582364
евич 0.00399547888054036
за 0.0004343270427635116
и@@ 0.0004556790065600504
йн 0.005641428244397408
йской 0.0031743056604832095
ки 0.00045859368143063943
ко@@ 0.0003508103644032666
ку@@ 0.0008810604907507163
ма 0.0008304625055556812
ми@@ 0.0005964645787688333
мир 0.006724380619642816
мо@@ 0.0003707324587932663
мы@@ 0.00235973211658248
ний 0.0009074823417399932
ния 0.0005490937431259261
обла@@ 0.0029897869862601195
ор@@ 0.0011048111385502494
ос@@ 0.002110895932826432
ру@@ 0.0005842284148569597
си@@ 0.000615114081774494
ск@@ 0.0015830732886926594
сла@@ 0.0030527940494560622
ст 0.0016171026186278738
сто 0.005007841403874365
сто@@ 0.0006131055114243373
сть 0.0016338020781942407
тия 0.0037321667973955514
ты 0.0013029446375585172
ур@@ 0.002357140868764677
хан@@ 0.012017956000992846
ху@@ 0.007300466480725829
ции 0.0005944769192733692
ша 0.00616695497451421
ше@@ 0.0008621720256323123
ши 0.007168516634704609
ғ@@ 0.5155869229906707
ւ@@ 0.3993710048744286
ך 1
أكثر 0.022155936060838984
إص@@ 0.07169633748096335
اتها 0.05821282972779525
اصة 0.06331893718900933
اعدة 0.07930967033534594
الأد@@ 0.06724609952964801
العالمية 0.06780106070865183
العسك@@ 0.07395917869713993
القدم 0.04911137890855485
بأن 0.07093361048648501
ربية 0.05239044193759823
سنوات 0.07174105685565911
مالية 0.07307810625541512
هناك 0.029476896310567775
والإ@@ 0.06610595300761653
والذي 0.05784686474627097
وبعد 0.08223953958446198
ورية 0.038037430216778516
ينية 0.03530441726169652
ٻ 1
ڃ@@ 1
ډ 1
ڍ@@ 1
ڤ 1
ڬ@@ 1
ڭ 1
ۙ@@ 1
ܠ@@ 1
ܫ@@ 1
ܬ@@ 1
ܵ@@ 1
ݙ 1
އ@@ 1
މ@@ 1
ި@@ 1
ު@@ 1
अत 0.09532607174846504
अधि@@ 0.04720012970542458
अम@@ 0.13760978991485795
इस 0.007568938399190725
घ@@ 0.021036505964640462
चित 0.029889258799558782
जन 0.018594915431870578
जन@@ 0.029628760794393468
झ@@ 0.03210724371559564
ञा@@ 0.07529464801953115
ठ@@ 0.02326433038103468
तम 0.06487244749229298
थ 0.01596116974866463
दर 0.018479892256400298
दि@@ 0.018867405648987416
दी 0.01439444958436086
देव 0.12645223938122083
धर 0.041779458555697584
पर 0.004133936128712146
पुर 0.023234957709981404
भारत 0.013235009424525107
में 0.0010792646195637242
रम 0.029605246409258178
राम 0.049673439604334034
राम@@ 0.09595565856827207
री@@ 0.014993820873258073
रू 0.2071167756371587
रे@@ 0.00922512427043916
लक 0.047513724838928205
ले 0.01653163484065188
विष 0.10583745056713637
शन 0.021463078558259994
सी@@ 0.01690128077054792
हे@@ 0.04261009486435001
ौ@@ 0.04668604359511654
ও@@ 1
ঞ 1
ট 1
শ 1
হ 1
ু 1
ਣ@@ 1
ે 1
્ 1
ଁ 1
ଂ@@ 1
ଓ 1
ଡ 1
ଥ@@ 1
ଧ@@ 1
ପ 1
ଯ@@ 1
ଳ@@ 1
ଷ 1
ସ 1
଼ 1
ୀ@@ 1
ୁ 1
ୟ@@ 1
ஜ@@ 1
ண@@ 1
ற 1
గ@@ 1
త 1
య@@ 1
వ@@ 1
హ 1
హ@@ 1
ి 1
ీ 1
ಬ@@ 1
ರ 1
ಹ@@ 1
ത@@ 1
യ@@ 1
വ@@ 1
ත 1
ལ 1
ོ 1
ྒ@@ 1
კ@@ 0.5096847093227568
ტ@@ 0.6027188615048146
ჭ@@ 1
ხ@@ 0.6169987451256259
ṛ@@ 0.3067169317435612
Ἀ@@ 0.2983627740696121
Ἡ@@ 1
ῦ 0.43719549979284933
‛ 1
⅛ 1
↓ 1
↔ 0.40714636957109895
┄ 1
■ 1
♥ 0.9761147049830448
ⵔ@@ 1
《 0.0011261820467419715
イ@@ 0.2645631958685117
ジ@@ 0.5578925597599133
デ@@ 0.9851721576345649
ト 0.23764225083437077
バ@@ 0.7869020483728766
マ@@ 0.5617526222409546
ミ@@ 0.9887007112077546
ル@@ 0.33411430473154813
レ@@ 0.591103294580739
下 0.002065913070515459
会@@ 0.0079769872322427
信@@ 0.00703841525375461
北 0.004898883709075382
华@@ 0.012242451218687306
回@@ 0.006436691489784711
基@@ 0.0031669493344668818
大 0.0023574065823138515
央@@ 0.02004103663200269
富@@ 0.015783934963074224
帝@@ 0.014663757692919261
東@@ 0.004594092541967566
水 0.006820579915428912
江 0.009776981057341986
王 0.005914401748516394
理 0.003523340071287507
白@@ 0.007212946647815178
级 0.005780156343712285
西 0.004146429676499381
都@@ 0.01600021089976033
金@@ 0.0036342016936976034
의 0.6504364716522268
 1
 1
 1
 1
 1
 1
ﺀ@@ 1
ﺓ@@ 1
ﺬ 1
ﻍ 1
🏆 1
👉 1
1,5 0.009421098045927325
7. 0.00560626008111914
Ago@@ 0.0425044635567334
Alem@@ 0.00623457677479487
Alex@@ 0.009783287445747274
Alman 0.033627145641272393
Amér@@ 0.005284426677563151
Anc@@ 0.05099200860242081
Auch 0.0026911616998257864
Ağ@@ 0.05241282357605831
Bắc 0.008649862943109996
Bộ 0.010887103797801445
Europ@@ 0.0025813517480340765
Famili@@ 0.0036788986245600216
Ferr@@ 0.005570987953082311
Geschichte 0.0015656012033258189
Gru@@ 0.002741426883123176
Hans 0.003851534271910105
Indon@@ 0.012500067406398674
Institut 0.005123048801462523
Jahr@@ 0.009052518583946057
Leben 0.0016244190112334593
Londres 0.005280762114239079
National@@ 0.002483130197418823
Osmanlı 0.023105337091732833
Phi 0.015160448619126226
Pub@@ 0.013597952689303468
Savaşı 0.026141885370444158
Show 0.004444904511711533
Sin 0.003630752943015137
Staats@@ 0.0043185544376310525
Unter@@ 0.0010868318573381316
Việt 0.004668288550517572
Wilhel@@ 0.01533946840610728
Wilhelm 0.003924358146602008
Yıl@@ 0.031908133341332766
absol@@ 0.002976557933024459
achen 0.003852918541144521
actu@@ 0.0012399255203990698
adap@@ 0.0022303036357218726
ahl 0.002970208510719029
alik@@ 0.16868025577097776
alled 0.004540236408360315
ampi@@ 0.07029865373889478
anno@@ 0.018589843835157
ansa 0.052382985638636574
anst@@ 0.004474861213999564
aron 0.0007951447619614536
asser 0.004198837729640763
ativa 0.005680907532023545
atta@@ 0.0049429945621502994
auer 0.0026947411233979907
ause 0.0032937520076269495
azu 0.0036514644942585513
azz 0.003602054381705673
aşa 0.06132975751370919
bao 0.004899609756243628
bern@@ 0.0053657800695727535
blan@@ 0.00271349534868309
bul 0.04686676376387183
büt@@ 0.022322018240343276
cas 0.0026529546627571316
celebr@@ 0.002549394397046559
chev@@ 0.004815736478794259
chn@@ 0.014065282715235152
concer@@ 0.0013500970886905351
consid@@ 0.0021222658284260525
continued 0.0017064530976580612
cost@@ 0.0030702054094516253
coul@@ 0.004646287594580305
created 0.0017411105239139874
cula 0.017313967357807575
culp@@ 0.0034423576106870817
cultur@@ 0.0050206474586083644
có@@ 0.007305538161058205
day@@ 0.011149851604818897
dej@@ 0.004826830657053144
described 0.0016829050873272719
det 0.0016923480612100763
determin@@ 0.0032782815424305194
did@@ 0.0029742648501038947
disput@@ 0.003585899573194663
ebe 0.007427259455940298
echo 0.006225893862955915
edad 0.0021611198290897387
egos 0.00478391824599703
eig@@ 0.00151807916678374
einer 0.00037894188700556285
elek@@ 0.005243223647037021
enda 0.004500413506677456
ensa 0.004726963912620383
entos 0.001300283158883895
entre@@ 0.003222907363243921
erne@@ 0.004433963065505969
eros 0.0026308626678313483
erte 0.0008801164961137112
expl@@ 0.0018621131424027108
fav@@ 0.003462565435452303
fest@@ 0.00430686432198216
fond@@ 0.002878289560290337
formes 0.006469911371330921
für 0.00020115861385748798
gesch@@ 0.0007745925842647524
gru@@ 0.00518358310108124
gü@@ 0.006635184476434055
hac@@ 0.006061433064951117
iler@@ 0.007150273299509927
ilit@@ 0.0037668001237546535
ilç@@ 0.018640999329385493
import@@ 0.002400294236274633
individ@@ 0.002628407751286781
inin 0.003911041761510961
kim 0.0191163753099292
kiye 0.15171488791932128
kri@@ 0.002969106333262041
kum@@ 0.008292510583811379
kup@@ 0.02422511966381791
köy 0.025363063150954872
leri 0.0023975163592315748
lerin 0.004796928358827987
liga 0.0026362456709072557
lil@@ 0.037474323919118285
loi 0.0041987578971504095
lon@@ 0.005612757548668054
mam@@ 0.009412344468398972
manif@@ 0.004626643904334758
mant@@ 0.004403969920218329
married 0.0016202738082180502
mau@@ 0.009226958980828957
mess@@ 0.0035278248462478922
mich@@ 0.04567071821470076
minut@@ 0.0027326341698430483
mont@@ 0.004598263250226212
mé 0.007448201353656173
nea 0.009974354160510382
neh@@ 0.002778226087084172
nen 0.0013252896246790185
neur 0.002557869149084554
nicht 0.000520973264993607
nun 0.003572430000507371
odes 0.003274528857325766
oku@@ 0.03179603634857086
onen 0.0015564076475269584
partamento 0.005946111182009609
particip@@ 0.0009247793157057911
[...]
