۔ 1107595
کے 1043958
میں 926368
، 848254
کی 815625
ہے 706831
اور 647808
سے 511982
کا 507097
نے 411560
اس 375782
پر 328641
کو 323641
ایک 312979
ان 236102
ہیں 231408
ک@@ 230487
س@@ 214191
) 208652
( 204095
یہ 203491
ہ 199896
. 194907
پ@@ 191154
جو 184020
وں 179409
ی@@ 178677
و 175254
م@@ 169876
ن@@ 166980
کہ 166017
کیا 164165
ہ@@ 163122
ی 158070
گ@@ 153130
ے 153043
ر@@ 151965
ش@@ 151037
و@@ 146037
تھا 144113
ب@@ 143908
&quot; 143715
ل@@ 139084
واقع 138207
کر 137803
ز@@ 136594
بھی 133887
یا 131075
ک 129550
آ@@ 122592
ا 122288
چ@@ 120077
ح@@ 119613
ت 118792
می@@ 118461
ان@@ 117839
ای@@ 116833
د@@ 116044
وہ 113894
ڈ@@ 113445
ر 112604
ل 111846
ری@@ 110903
س 110197
تھے 108373
بی@@ 107449
ٹ@@ 107377
@-@ 105482
ٹ 104063
ع@@ 103468
ا@@ 101158
ج@@ 100930
ت@@ 100505
رو@@ 100226
لیے 99619
ف@@ 99153
گیا 98720
ز 97880
خ@@ 97288
لی@@ 93852
را@@ 92642
د 91801
م 88417
سی@@ 84892
ار@@ 83734
بعد 83509
پی@@ 82350
کی@@ 82257
ق@@ 81823
: 81598
وی@@ 80506
تی 79403
من@@ 77578
یں 77563
کر@@ 75862
ب 75601
بر@@ 75126
ور 74619
جس 73931
ائی 73607
ور@@ 73308
ال@@ 71804
ن 71276
دی 71212
ہو 71174
آبادی 70956
تھی 70539
نی@@ 69807
بن 68979
ش 68306
ص@@ 68270
ڈ 68016
ساتھ 67150
دی@@ 66857
نہیں 65709
لا@@ 65649
ین 65572
انی 65032
ہی 64859
نی 63427
اب@@ 63157
ری 62872
مجموعی 61820
افراد 61395
کرنے 61174
ار 60131
; 59939
لی 59893
ام@@ 59885
غ@@ 59851
تک 59668
دیا 59468
اس@@ 59286
اپنے 58719
تفصیلات 58629
اد@@ 58107
مشتمل 57796
تا 57615
&amp; 57439
وا@@ 56686
جاتا 56585
طور 55996
کاؤنٹی 55743
ط@@ 54626
تو 54331
ات 54063
ہوئے 53990
سر@@ 53823
ہو@@ 53694
ائ@@ 53536
نا 51807
ون@@ 51715
با@@ 50923
آپ 50912
ف 50904
لے 50897
جی@@ 50748
سی 50252
مح@@ 50163
ق 49757
پاکستان 49125
لو@@ 49068
نا@@ 48903
نہ 48601
کو@@ 48315
نام 48288
مر@@ 48242
تے 47894
ہوا 47374
می 47298
ٹی 47076
ڈی@@ 46673
او@@ 46493
ٹی@@ 46197
ون 46168
متحدہ 45813
اللہ 45510
کھ@@ 45251
تی@@ 45229
ج 44294
پر@@ 43746
گئے 43455
شہر 43219
ما@@ 43165
ذ@@ 42939
نگ@@ 42684
در@@ 42639
سو@@ 42373
تھ@@ 41883
فی@@ 41738
شپ 40741
مع@@ 40468
زیادہ 40394
ضلع 40259
امریکا 40196
ہی@@ 40142
ول@@ 40019
دہ 39976
مو@@ 39927
انہوں 39922
اپنی 39748
گ 39703
اں 39461
بھ@@ 39417
گئی 39142
علاقہ 39104
ھ 38918
سطح 38869
جب 38437
جن@@ 38392
زی@@ 38194
کار@@ 38158
ِ 38071
ریاستہائے 37871
لا 37786
فر@@ 37458
دو 36897
مل@@ 36828
رہ 36826
اری 36779
میٹر 36626
ات@@ 36496
وی 36481
حاصل 36074
محمد 35871
لیکن 35703
ح 35623
کرتے 35397
مربع 35345
شی@@ 35330
اش@@ 35228
بی 34715
رقبہ 34672
اف@@ 34645
ہوئی 34599
ٹاؤن 34572
چی@@ 34440
والے 34313
ئ@@ 34018
سن@@ 34012
ال 33697
بہت 33536
ي@@ 33524
بلندی 33427
چ 33385
سب 33284
گر@@ 33212
یوں 33188
لہ 33025
ہر 32951
کیلومیٹر 32807
اب 32696
اسے 32633
ڑ@@ 32394
سال 31687
نگ 31596
ول 31579
ھ@@ 31576
وقت 31547
وجہ 31502
کہا 31189
ث@@ 31047
دار 30949
وس@@ 30761
شن 30705
اہ@@ 30594
پہلے 30462
ہونے 30437
ست@@ 30297
شامل 30262
ہوتا 30216
بل@@ 30183
ام 30148
دے 30133
کچھ 29939
پ 29902
آباد 29865
انہ 29573
گی 29560
/ 29549
اص@@ 29493
کام 29488
مش@@ 29474
انے 29454
کسی 29392
دھ@@ 29208
یر 29019
اسی 28975
رہے 28827
ع 28797
gt 28612
اد 28587
خان 28470
بن@@ 28463
ٹر 28460
lt 28446
ائی@@ 28406
چھ@@ 28281
مہ 28213
جن 28066
ند@@ 27907
وب@@ 27882
علی 27838
ك@@ 27837
3@@ 27678
اک@@ 27542
تر@@ 27358
رہ@@ 27251
سن 26987
مس@@ 26795
قی@@ 26595
سٹ@@ 26421
یت 26206
طرح 26087
بہ@@ 26044
جنگ 25742
اح@@ 25724
‘ 25626
نو@@ 25527
حکومت 25507
َ@@ 25488
گی@@ 25468
رہائشی 25380
شاہ 25186
وری 24813
اق@@ 24784
ائے 24679
حی@@ 24566
مان@@ 24465
کم 24172
دور 24059
لیا 23996
کار 23926
ض@@ 23868
طرف 23825
4@@ 23777
گھ@@ 23765
سو 23760
حضرت 23747
شہ@@ 23582
جو@@ 23517
صوبہ 23446
مق@@ 23324
مار@@ 23187
سمندر 23033
ہم 22819
ي 22779
کہ@@ 22690
کوئی 22640
خلاف 22556
کن@@ 22498
گا 22428
کل 22370
جا 22362
قہ 22336
ما 22139
استعمال 21898
مہ@@ 21864
مطابق 21850
اج@@ 21788
اع@@ 21750
تع@@ 21749
بو@@ 21744
زبان 21700
الی@@ 21612
عام 21548
من 21500
فلم 21493
’ 21464
انہیں 21455
تو@@ 21442
مج@@ 21420
تعلیم 20971
از 20887
بھارت 20887
ستان 20876
ڈی 20872
ہوں 20799
مان 20562
سر 20538
تمام 20482
نک@@ 20472
5@@ 20394
شروع 20374
ڑ 20373
نس@@ 20290
جائے 20287
پیدا 20274
6@@ 20270
آر@@ 20153
اتی 20092
غیر 20071
انا 19964
تص@@ 19939
رہا 19934
والی 19870
زندگی 19860
اور@@ 19825
مد@@ 19801
لائ@@ 19703
سل@@ 19608
را 19604
ٹھ@@ 19599
ِ@@ 19566
تر 19564
عل@@ 19505
مب@@ 19503
نظ@@ 19498
کس 19472
از@@ 19464
پھر 19272
وال@@ 19240
پو@@ 19219
بار 19106
ٹر@@ 19078
مص@@ 19076
ارت 19052
گو@@ 18941
تھیں 18860
لئے 18852
ٹن 18827
سٹ 18762
مت 18669
سم@@ 18665
است@@ 18654
دوران 18653
بر 18569
9@@ 18550
سک@@ 18547
پرو@@ 18502
2@@ 18468
ائل 18447
پور 18438
پی 18434
تج@@ 18367
خ 18340
7@@ 18269
- 18227
ء 18220
مقام 18220
صرف 18188
بح@@ 18187
وار 18159
نڈ 18158
نام@@ 18134
بے 18119
اط@@ 18109
جی 18087
رات 18050
اسلام 18029
ملک 17979
شر@@ 17965
کرکٹ 17964
مشہور 17863
تا@@ 17840
کتاب 17797
ہر@@ 17783
فل@@ 17776
یہاں 17747
قی 17740
زی 17701
دو@@ 17631
کیے 17616
ابی 17593
8@@ 17577
لکھ@@ 17510
ست 17504
جاتی 17498
کئی 17493
رین 17485
تین 17455
کھی@@ 17396
ہوتی 17331
پیش 17327
برا@@ 17316
خود 17307
وج@@ 17299
جہاں 17283
ؤ 17226
دا@@ 17187
ند 17079
اے 17076
ٰ 17068
کرنا 17033
ض 17032
کرتا 17000
بات 16992
لوگوں 16959
آئ@@ 16919
انوں 16911
لینڈ 16894
مختلف 16865
سپ@@ 16861
چو@@ 16842
وم@@ 16777
بد@@ 16739
عبد 16732
ظ@@ 16681
توں 16670
موجود 16670
تاریخ 16655
نڈ@@ 16625
فی 16560
ُ@@ 16537
ث 16487
رب@@ 16437
201@@ 16391
حصہ 16385
2 16321
&#124; 16312
یم 16270
ندی 16260
ٹا 16260
امام 16255
مط@@ 16157
الی 16150
اپ@@ 16144
وا 16089
دنیا 16065
عمر 16058
دن 15963
وف@@ 15936
ں 15867
نس 15841
ارے 15826
فرانسیسی 15818
انڈ@@ 15791
بار@@ 15742
قائم 15672
دوسرے 15657
اہم 15653
رت 15637
ئی 15590
پہلی 15584
ابن 15443
آف 15367
سینٹ 15319
ہوائی 15294
احمد 15277
دونوں 15222
ریاست 15195
جر@@ 15101
لو 15091
زہ 14955
1 14929
وفات 14927
&#93; 14925
عی@@ 14921
الدین 14827
وق@@ 14823
شی 14822
خو@@ 14806
دریا 14798
جانے 14744
بین 14722
پور@@ 14719
انگ@@ 14718
اگ@@ 14697
عہ 14679
اردو 14655
جنوبی 14650
گے 14646
یل 14635
&#91; 14592
الح@@ 14582
ط 14568
3 14541
جھ@@ 14534
ئر 14469
علاوہ 14452
مت@@ 14352
یعنی 14316
ہزار 14291
5 14255
رے 14249
اسٹ@@ 14217
بال@@ 14197
بڑے 14197
نٹ 14174
فہرست 14170
کھ 14162
of 14146
سائ@@ 14127
الم@@ 14109
ابو 14097
؛ 14095
عت 14080
تہ 14036
کن 14032
بہ 13949
جان@@ 13945
الب@@ 13938
صح@@ 13886
&apos; 13867
پھ@@ 13845
دار@@ 13842
پاس 13789
فوج 13749
لڑ@@ 13748
دیگر 13745
غ 13709
وت@@ 13615
رہی 13587
ڈا 13564
اروں 13532
پار@@ 13490
فار@@ 13482
ے@@ 13454
علیہ 13438
ڑی 13408
سلطنت 13397
یونیورسٹی 13397
سید 13389
نق@@ 13370
اگر 13365
جیسے 13360
ئے 13354
خط@@ 13351
اسٹیشن 13346
علم 13334
بڑا 13297
لوگ 13266
200@@ 13261
ایا 13251
4 13198
بڑی 13198
ہندوستان 13189
ایران 13140
تم@@ 13066
الع@@ 13055
نش@@ 13025
کت 12997
ہوتے 12981
جبکہ 12979
مست@@ 12956
هٔ 12955
عم@@ 12906
مز@@ 12893
, 12890
مض@@ 12844
پری@@ 12839
خاندان 12767
20@@ 12765
روں 12758
ري@@ 12725
صدی 12718
خواتین 12702
عمل 12680
جہ@@ 12660
اڈا 12651
17@@ 12630
سا@@ 12587
جہ 12546
8ء 12518
زر@@ 12492
6 12465
نج@@ 12431
وم 12430
ریلوے 12410
اض@@ 12403
دوسری 12383
.@@ 12377
قومی 12377
شمالی 12361
تح@@ 12315
دست@@ 12230
فہ 12220
خی@@ 12214
خت 12174
مگر 12173
نٹ@@ 12157
دان 12147
داد 12127
بچ@@ 12100
مل 12095
خاص 12078
جاری 12073
صدر 12062
اپنا 12052
مغربی 11996
ارہ 11993
بیان 11973
یات 11972
بارے 11936
جاتے 11933
کری@@ 11930
1,@@ 11892
دین 11886
ؤ@@ 11869
عدد 11853
کل@@ 11847
گن 11847
پنجاب 11836
واق@@ 11821
پڑ@@ 11783
ابتدائی 11773
عات 11757
نیا 11749
درمیان 11738
ٹو@@ 11727
آئی 11719
ائر 11714
تش@@ 11687
0ء 11668
سکتا 11654
بت 11619
تب@@ 11599
بنا 11593
ود 11586
عبد@@ 11582
تعلق 11578
پہنچ@@ 11528
چار 11522
ٹیسٹ 11512
ۃ 11481
فو@@ 11461
اء 11459
جسے 11452
یون@@ 11451
آغاز 11439
روا@@ 11433
فرانس 11407
والا 11386
کرتی 11350
تق@@ 11347
تاہم 11339
مک@@ 11333
والد 11333
13@@ 11330
کا@@ 11328
7 11324
نوں 11300
نیو 11282
یو@@ 11273
علاقے 11259
8 11214
ص 11203
لگ@@ 11179
زا 11173
سا 11157
حسین 11144
7ء 11134
نظر 11127
قبل 11126
وار@@ 11126
ریہ 11113
زمین 11102
طر@@ 11087
شا@@ 11083
15@@ 11039
1ء 11022
16@@ 11007
صی@@ 10990
تخ@@ 10966
عد@@ 10966
اخت@@ 10958
کردار 10954
کالج 10935
ایت 10902
فور@@ 10902
رکھ@@ 10858
9 10856
ؓ 10840
شہ 10832
الاقوامی 10827
چاہ@@ 10785
گھر 10755
تعمیر 10752
امریکی 10745
ادہ 10744
ادت 10743
خوا@@ 10738
عث@@ 10736
قرار 10662
گاؤں 10646
سیاسی 10633
ين@@ 10630
ٹیم 10629
سال@@ 10623
لوں 10572
ْ@@ 10554
موں 10553
مین 10542
قب@@ 10522
انی@@ 10512
منٹ 10494
مخ@@ 10487
19@@ 10486
فت@@ 10485
کور@@ 10476
ه@@ 10474
گن@@ 10449
گا@@ 10416
جان 10402
ٹس 10383
کس@@ 10382
عرب 10379
تعداد 10373
1@@ 10369
ك 10355
شت 10332
– 10328
ویں 10319
20 10318
انگریزی 10302
چین 10297
صاحب 10293
جگہ 10270
0@@ 10229
ممالک 10217
وال 10199
6ء 10185
5ء 10179
شادی 10178
وز@@ 10160
مسجد 10156
آب@@ 10150
2ء 10142
ٰ@@ 10137
پیدائش 10111
ادا 10055
کیونکہ 10055
مي@@ 10047
رام 10040
مسی@@ 10027
شیخ 10015
گور@@ 10003
مسلم 9997
مرا@@ 9936
مکمل 9927
اخ@@ 9909
دا 9889
14@@ 9885
دع@@ 9871
نم@@ 9860
مول@@ 9837
کہتے 9836
اسلامی 9834
عب@@ 9819
3ء 9803
“ 9803
در 9791
ادی 9776
قریب 9759
پولی@@ 9753
18@@ 9750
لاہور 9743
ملا@@ 9736
قبول 9694
اتے 9685
رس@@ 9684
ذریعہ 9667
گری@@ 9658
وزیر 9652
بھی@@ 9645
4ء 9630
دس 9604
حیثیت 9588
ّ@@ 9586
تن@@ 9570
مخت@@ 9564
بنگ@@ 9556
یونین 9541
رض@@ 9509
روس 9502
کلا@@ 9502
اٹھ@@ 9492
عربی 9458
ستہ 9453
اسک@@ 9438
سلطان 9409
مشرقی 9404
کٹ 9401
جائ@@ 9398
ولی@@ 9368
فری@@ 9361
ڑے 9312
امی 9306
وان 9302
مولانا 9290
مال@@ 9258
جا@@ 9246
شو@@ 9235
مدد 9233
قدیم 9228
آئے 9215
ۂ 9203
کش@@ 9158
جے 9151
سع@@ 9151
آخر 9118
ہار@@ 9107
الینوائے 9104
معاش@@ 9097
رکھا 9092
زیر 9076
کلی@@ 9070
تف@@ 9064
مون@@ 9062
متا@@ 9053
10@@ 9049
ایس 9046
قتل 9037
ھی 9031
کٹ@@ 9030
نظام 9026
عظیم 9023
شائع 8997
بول@@ 8981
فرمایا 8979
ذی@@ 8970
حملہ 8960
نو 8924
کان@@ 8915
مال 8904
مپ@@ 8884
ولی 8866
ہائی 8856
وہاں 8837
زب@@ 8835
” 8832
10 8820
سام@@ 8820
ترا@@ 8808
ویل 8803
صورت 8793
9ء 8763
بلکہ 8759
علاقوں 8754
واپس 8752
آیا 8736
ذکر 8720
گرا@@ 8705
انتظ@@ 8702
اختیار 8701
کون@@ 8694
کرو@@ 8678
بعض 8668
ختم 8655
دور@@ 8653
پہ@@ 8653
ندر 8647
خات@@ 8605
تحریک 8576
فتح 8568
بنایا 8551
میچ 8529
شخص 8525
فوجی 8516
لب 8501
افت 8498
قرآن 8493
وو@@ 8493
199@@ 8477
بور@@ 8461
گرو@@ 8452
وس 8449
میت 8419
تھ 8411
انت@@ 8406
با 8406
لات 8399
اؤ@@ 8380
12@@ 8364
لم 8355
دینے 8327
ڈھ@@ 8323
پہلا 8312
شاہ@@ 8309
اعظم 8291
حص@@ 8284
کوشش 8257
شیا 8247
ڑا 8236
ائن 8233
تقسیم 8229
تبدی@@ 8218
جانب 8218
خص@@ 8205
منظ@@ 8199
حکم 8192
کول@@ 8177
صر 8162
مزید 8162
برطانوی 8150
000 8139
تہ@@ 8136
پاکستانی 8130
ایم 8127
رسول 8114
انھوں 8111
طری@@ 8108
کمی@@ 8107
فائ@@ 8106
نوا@@ 8105
ونی 8103
زار 8090
تقری@@ 8088
رنز 8083
قابل 8072
حر@@ 8066
دیکھ@@ 8063
خلی@@ 8057
ٹھ 8045
فر 8041
ادی@@ 8040
وغیرہ 8038
لکھا 8033
خدمات 8031
اہل 8020
آخری 8014
سان 8012
قو@@ 8012
مث@@ 8003
موسی@@ 7997
دوں 7983
دگی 7983
حسن 7978
کتاب@@ 7978
وے 7969
گئیں 7969
اسکول 7947
بری@@ 7939
رو 7936
اون@@ 7923
نر 7922
خان@@ 7917
تیار 7914
کاونٹی 7903
بھائی 7899
حد 7895
مارچ 7894
ترکی 7886
پانی 7886
پہا@@ 7886
دہ@@ 7876
گز@@ 7875
پانچ 7869
پڑھ@@ 7866
كاونٹي 7862
كاؤنٹي 7861
نز 7852
اُ@@ 7847
مف@@ 7846
ذ 7829
جمہوریہ 7818
بولا 7805
مذ@@ 7798
چی 7794
ئر@@ 7793
ترین 7781
آج 7776
سکتے 7773
حکمر@@ 7762
چند 7752
دل 7736
انس@@ 7721
عمر@@ 7688
این 7686
بنیاد 7686
بڑھ@@ 7684
انجام 7662
لین 7643
ایسے 7639
چھو@@ 7636
بخ@@ 7615
ثر 7604
قسم 7602
اف 7600
سما@@ 7599
رانی 7589
صف@@ 7573
دت 7563
معاہ@@ 7559
کبھی 7552
ٹرو@@ 7551
12 7547
خیال 7544
کراچی 7542
چل@@ 7541
مسلمانوں 7540
خدا 7532
مانی 7530
15 7526
اظ 7522
پورٹ 7521
نار@@ 7519
گو 7493
قر@@ 7487
بیت 7483
ترقی 7468
ولا@@ 7467
موجودہ 7452
ٹری@@ 7447
کٹر 7443
مرکزی 7425
گاہ 7425
ارک 7415
شمار 7414
198@@ 7413
متعلق 7404
الہ 7400
کنساس 7397
حق 7379
عہ@@ 7377
امات 7372
خت@@ 7369
عالم 7365
ہج@@ 7353
الف@@ 7349
تم 7336
دیتے 7336
سرب@@ 7333
197@@ 7322
کونسل 7313
آزاد 7301
ٹو 7301
تحت 7280
مینیسوٹا 7260
چھ 7259
لفظ 7256
سندھ 7254
حدیث 7252
بلو@@ 7245
بادشاہ 7234
عالمی 7229
ایسا 7214
آزادی 7210
کرکے 7210
سہ 7209
مور@@ 7208
لال 7206
بنیادی 7200
ستی 7195
اہ 7187
جات 7182
ذیل 7181
انگری@@ 7176
اگست 7169
موت 7169
ژ@@ 7166
تحری@@ 7149
مقامی 7138
قیام 7136
یو 7135
سب@@ 7123
سلسلہ 7120
متعدد 7113
اول 7105
گروپ 7104
پارٹی 7096
سرکاری 7093
ادب 7088
انڈیانا 7084
مار 7073
نف@@ 7067
رکھنے 7064
ازی 7053
طاق@@ 7042
امی@@ 7038
قانون 7036
طی@@ 7029
رکھتے 7028
مغ@@ 7026
جنوری 7017
سور@@ 7016
مے 7010
سفر 7003
ظاہر 6992
سنگھ 6990
سری 6989
قت 6978
کان 6974
ید 6957
مشی 6953
اصل 6936
پھی@@ 6929
کرا@@ 6927
نیشنل 6917
ہار 6917
عی 6916
آن@@ 6912
پوری 6904
جاپ@@ 6900
ہند 6896
ریاست@@ 6892
اکتوبر 6887
میر 6882
مسلمان 6878
دسمبر 6874
قبضہ 6870
اکی@@ 6862
لیم 6853
لاح@@ 6852
ایڈ@@ 6851
قبی@@ 6851
سین 6850
دوبارہ 6826
حقی@@ 6800
جون 6795
رح@@ 6789
راہ 6788
ہا 6782
انتخابات 6774
قط@@ 6769
فق@@ 6761
مئی 6757
تس@@ 6756
يا 6752
صل 6743
افری@@ 6742
ذریعے 6741
11 6738
لز 6736
دف@@ 6735
نما 6734
بیٹے 6731
ہا@@ 6725
کافی 6723
اسٹی@@ 6717
ہاتھ 6715
فن 6714
الق@@ 6710
ماری 6706
اعلان 6699
کیں 6692
صوب@@ 6691
بنائے 6673
داری 6673
نہ@@ 6672
جدید 6669
وسط 6665
ستمبر 6661
ادر 6658
شہر@@ 6650
شمال 6647
رکن 6642
تیں 6636
حک@@ 6636
شری@@ 6629
قوم 6613
َ 6611
بھارتی 6604
سمجھ@@ 6594
جولائی 6592
لڈ 6591
الن@@ 6585
درجہ 6567
14 6565
ڈر 6565
جانا 6560
کال@@ 6550
دم 6538
19 6529
راج 6515
نومبر 6507
30 6502
دہلی 6500
لاطینی 6497
تحقی@@ 6493
ود@@ 6491
منتخب 6488
وي@@ 6484
آسٹریلیا 6482
جزی@@ 6480
عرص@@ 6478
ملا 6477
بہترین 6475
سامنے 6469
ڈرا@@ 6442
فرم@@ 6440
لن@@ 6439
مذہبی 6437
عوامی 6434
کیریئر 6432
نز@@ 6427
شام 6419
نک 6413
زوں 6407
اکثر 6404
ہد@@ 6403
میری 6400
جرمنی 6398
لندن 6397
آنے 6380
بنانے 6372
ﷺ 6363
چے 6353
شعب@@ 6352
اداک@@ 6340
2,@@ 6338
بند@@ 6333
مد 6332
اسمبلی 6315
لي@@ 6301
رس 6295
194@@ 6290
بل 6288
شکست 6285
جنوب 6283
حض@@ 6282
ایسی 6279
چکے 6279
ڈاکٹر 6275
پہن@@ 6267
ائد 6252
دیں 6250
روسی 6228
وائ@@ 6221
اپریل 6218
زن 6210
یے 6182
فارسی 6179
انتقال 6172
ریت 6172
18 6171
16 6169
گر 6169
اموں 6168
جنگ@@ 6166
نامہ 6163
اثر 6162
اول@@ 6161
دل@@ 6155
سان@@ 6144
برطانیہ 6140
پس 6139
بطور 6136
انق@@ 6133
؟ 6131
ؤں 6123
ائیں 6120
لح@@ 6120
خلا@@ 6117
فا@@ 6106
کریں 6103
فرو@@ 6090
13 6082
آ 6082
سوویت 6080
تھی@@ 6078
فروری 6078
مقرر 6078
تقریباً 6070
ڑھ 6068
جامعہ 6064
کرے 6058
کوں 6052
ني@@ 6051
تحصیل 6043
خط 6037
کیوں 6031
یور@@ 6027
لہ@@ 6021
جنرل 6020
سین@@ 6017
لاع 6010
T@@ 6008
قات 5998
سکے 5995
فرا@@ 5985
اوی@@ 5982
25 5981
جار@@ 5977
کامیاب 5977
رائے 5964
مز 5956
نئی 5948
بند 5944
ریف 5944
196@@ 5940
مر 5925
تاریخی 5917
ڈے 5915
کاری 5914
ين 5911
17 5908
دہائی 5908
دیکھا 5903
كي@@ 5902
پسند 5902
شخصی@@ 5888
سند@@ 5882
عہد 5879
چر@@ 5859
وب 5853
اعز@@ 5850
ہلا@@ 5846
دری@@ 5841
ٹاون 5841
اٹ@@ 5836
بچوں 5835
رائ@@ 5834
195@@ 5830
اک 5828
امیر 5819
لق@@ 5818
ریا 5812
پش@@ 5809
شاعری 5808
روایت 5804
وت 5804
G@@ 5792
راہ@@ 5790
ڈو 5781
ہوئیں 5769
نیو@@ 5765
چنانچہ 5764
السلام 5763
غز@@ 5757
خانہ 5755
حالات 5751
فض@@ 5751
مرکز 5749
شاہی 5745
امل 5740
,@@ 5735
شریف 5735
الا 5733
سیع 5719
شاعر 5717
صن@@ 5709
مذہب 5703
انگ 5680
ڈو@@ 5679
آئیووا 5676
ترک 5674
شع@@ 5674
صلی 5672
کامی@@ 5667
اندر 5662
ارف 5658
جماعت 5647
الت@@ 5645
ظ 5638
اِ@@ 5637
شکل 5634
دائ@@ 5633
جر 5632
بھر 5627
سیاست 5615
غلام 5614
چھوٹا 5606
نتیجے 5599
بنی 5588
ملی 5579
موقع 5572
مشرق 5565
الو@@ 5564
روز 5563
رنگ 5553
فیصد 5552
اسرائیل 5551
اي@@ 5547
رون 5546
انداز 5543
فٹ 5542
ائیوں 5538
تد@@ 5538
سکتی 5538
کمیون@@ 5538
_ 5534
صوبے 5530
اظ@@ 5525
افغانستان 5522
معلوم 5521
قصبہ 5520
حال 5512
جل@@ 5510
نئے 5500
او 5499
یاں 5499
کنی@@ 5498
یار 5497
کردہ 5492
الر@@ 5487
الگ 5487
شدہ 5487
حصے 5479
اِس 5470
اچھ@@ 5469
ڈن 5445
تاکہ 5435
اگرچہ 5432
یہی 5432
مدر@@ 5431
ہسپان@@ 5430
اث@@ 5427
انٹر@@ 5408
پنسلو@@ 5403
موض@@ 5402
چان@@ 5402
لان@@ 5400
حال@@ 5386
کلومیٹر 5380
اضی 5353
درج 5353
مند@@ 5348
نل 5347
سفی@@ 5345
روز@@ 5341
قید 5340
دریائے 5337
بلی@@ 5336
انسان 5335
جز@@ 5325
روف 5324
داخل 5323
h 5315
لیگ 5310
ٹری 5304
وص@@ 5294
دیوں 5292
معام@@ 5290
اُس 5289
فیصلہ 5288
پڑا 5288
پا 5286
جام@@ 5279
نمبر 5277
انسانی 5276
ہندو 5274
فوج@@ 5263
تلا@@ 5257
ڑوں 5255
لس 5252
سين@@ 5250
اوہائیو 5246
پائی 5246
ضر@@ 5242
زل 5240
پن 5238
چکی 5232
ترجمہ 5227
کت@@ 5227
سات 5216
اؤن@@ 5210
اق 5210
اضاف@@ 5208
نمائند@@ 5207
کشن 5206
علامت 5195
گرد 5194
خار@@ 5193
وٹ 5190
حقوق 5187
کردیا 5185
انیا 5175
آر 5174
الحکومت 5174
امن 5163
چار@@ 5161
رار 5148
مصر 5147
خواجہ 5140
جواب 5137
تنا@@ 5134
برو@@ 5131
یز 5123
فراہم 5119
S@@ 5109
دیے 5109
باب@@ 5108
کث@@ 5107
L@@ 5106
قل@@ 5106
نتی@@ 5106
ایل 5105
اج 5104
مری@@ 5100
وع 5099
اون 5094
دکھ@@ 5092
امین 5091
والوں 5088
جمع 5087
فت 5081
کتب 5078
رکھی 5077
داخ@@ 5069
ہندوستانی 5066
باہر 5063
ارا 5053
مقصد 5051
ویژن 5043
اُن 5040
معروف 5038
کمپنی 5038
درا@@ 5036
الز@@ 5034
چر 5033
اداکارہ 5032
میل 5023
زمانے 5019
ئی@@ 5013
تان 5008
وسلم 4999
لر 4996
ٹے 4996
حد@@ 4994
فتار 4994
مراد 4993
24 4978
ظم 4972
دش@@ 4967
تب 4965
سي@@ 4956
الت 4955
ى 4954
مجموع@@ 4952
21 4949
ادارہ 4946
لام 4945
گرام 4945
سابق 4936
یہو@@ 4931
ماؤ@@ 4927
لگا 4925
اجازت 4922
نائ@@ 4921
محل 4920
دوسرا 4918
سہ@@ 4918
باوجود 4916
طل@@ 4914
زم 4910
سیریز 4903
گری 4895
مقاب@@ 4886
وسطی 4884
ثابت 4873
جارج@@ 4871
قلعہ 4869
ڈیا 4869
22 4868
حی 4865
مرتبہ 4862
تشکیل 4858
باب 4848
حمایت 4848
پال 4847
ڈیو 4846
امت 4845
عوام 4841
2.@@ 4834
ئن 4834
اتحاد 4828
تبا@@ 4828
باقی 4820
تنظیم 4819
واشنگٹن 4819
عر@@ 4816
وص 4813
دید 4812
حملے 4810
چھوڑ 4809
قص@@ 4805
پردیش 4805
ضرورت 4801
بي@@ 4800
برائے 4799
مارے 4795
قری@@ 4793
لاب 4793
ہونا 4777
بغیر 4775
تعلیمی 4774
مات 4773
ونا 4771
عط@@ 4769
مغرب 4764
1.@@ 4761
سلی@@ 4755
میہ 4754
فیلڈ 4752
تیس 4751
بتا@@ 4748
زمانہ 4746
ظاہ@@ 4745
مم@@ 4738
یہودی 4738
23 4736
0 4729
مدینہ 4728
50 4714
وف 4704
منتقل 4701
مقابلہ 4700
لف@@ 4697
کیلیفورنیا 4694
لن 4693
an 4682
3,@@ 4675
D@@ 4673
ذا 4670
ﺎ@@ 4660
سمجھا 4656
لار@@ 4649
علامہ 4648
کشمیر 4647
کم@@ 4647
دیتا 4644
ورا@@ 4638
ضی 4636
باع@@ 4633
باد@@ 4630
انگلینڈ 4629
ہری 4624
مسل@@ 4619
ممل@@ 4619
کمیون 4619
or 4615
خدمت 4609
مانے 4607
ماب@@ 4605
دوس@@ 4590
سٹی@@ 4590
پنج@@ 4590
شن@@ 4586
راج@@ 4579
الفاظ 4578
ﺍ@@ 4576
کھیل 4574
زند@@ 4573
کھلاڑی 4567
بش@@ 4565
بع@@ 4565
قبال 4564
ء@@ 4563
ایہ 4563
25@@ 4561
حالت 4558
وسی 4553
193@@ 4543
Saint 4543
پن@@ 4543
کینی@@ 4542
چا 4539
ه 4537
ارات 4528
عمل@@ 4528
خلافت 4522
باز 4518
ریس 4509
پاک 4509
جڑواں 4508
روش@@ 4503
نف 4503
بغاوت 4499
ندھ@@ 4496
چلے 4494
ورت 4493
اعلیٰ 4492
ماں 4489
26 4488
نماز 4486
واں 4481
فلموں 4479
بری 4478
! 4473
علا@@ 4469
میرے 4468
e 4467
چکا 4467
ٹل 4464
قل 4463
R@@ 4462
امری@@ 4457
رک 4452
نسی 4452
اتا 4439
آگے 4430
جاسک@@ 4423
یورپ 4423
چھوٹے 4416
لت 4415
قین 4412
انص@@ 4408
واز 4405
گول@@ 4403
ناول 4399
ران 4397
انھ@@ 4395
علوم 4390
ٹیلی 4390
d 4385
بیر 4383
افواج 4379
آسٹ@@ 4378
اولاد 4377
حلقہ 4373
جلد 4372
تعلقات 4366
اتح@@ 4360
عمو@@ 4356
الخ@@ 4354
وسف 4354
ایوارڈ 4349
جنا@@ 4349
28 4347
24@@ 4317
حوال@@ 4317
خصوص@@ 4309
سط@@ 4303
رج@@ 4302
27 4301
نسل 4298
M@@ 4292
بلا@@ 4288
= 4279
الج@@ 4273
روم 4262
الش@@ 4254
بڑ@@ 4254
نت@@ 4247
حم@@ 4242
3.@@ 4239
A@@ 4234
قبر@@ 4234
بق@@ 4233
ماس@@ 4228
نور 4222
رف 4218
سام 4216
غل@@ 4216
w@@ 4212
كي 4208
نقل 4194
اند@@ 4193
وطن 4186
40 4182
سعو@@ 4182
رن 4176
آد@@ 4174
الف 4171
افی 4155
اؤں 4142
دول@@ 4139
the 4119
وام 4111
موا@@ 4109
دد 4107
in 4103
شار 4101
ً 4100
ونکہ 4099
لاس 4097
بان@@ 4083
P@@ 4080
ﮐ@@ 4066
َّ@@ 4057
مثال 4056
علی@@ 4050
اعت 4039
ثق@@ 4037
مالک 4033
مجھ@@ 4025
26@@ 4022
اندا@@ 4022
ولا 4017
خر@@ 4015
Canton 4008
عراق 4001
رش@@ 3994
ساح@@ 3987
سلسل@@ 3975
وز 3971
محمود 3968
اسم 3967
آن 3963
راب 3962
شک@@ 3960
خال@@ 3959
فلسط@@ 3955
انات 3951
قدر 3940
بغ@@ 3937
وات 3937
دیش 3932
افظ 3928
B@@ 3919
29 3914
قان@@ 3901
بت@@ 3868
جع@@ 3865
دي@@ 3850
مون 3850
قدر@@ 3831
سلا@@ 3812
بوط 3792
ریلو@@ 3789
واضح 3789
پان@@ 3786
28@@ 3775
ُ 3772
شل 3771
ؒ 3769
وض@@ 3767
e@@ 3765
27@@ 3757
اك@@ 3751
حل 3750
سلو@@ 3750
ریل 3749
29@@ 3747
عباس 3746
ير@@ 3740
رم 3730
0.@@ 3720
آل 3718
رق@@ 3710
انتخاب 3704
ائع 3695
ابت@@ 3688
ادات 3687
مظ@@ 3686
زید 3681
60 3677
في@@ 3661
بلا 3657
دان@@ 3640
طلا@@ 3637
نت 3629
خد@@ 3613
رب 3613
مس 3598
192@@ 3577
یرہ 3571
نور@@ 3554
متع@@ 3553
H@@ 3547
County 3545
ﮯ 3545
سوس 3538
-@@ 3535
لائی 3533
سم 3531
سنگ@@ 3529
K@@ 3528
us@@ 3526
جذ@@ 3525
اما 3524
ثقاف@@ 3522
ذر@@ 3518
30@@ 3515
موسم 3498
جد@@ 3494
2018 3492
نص@@ 3487
جسم 3485
يك@@ 3483
بط@@ 3480
رد 3468
تعل@@ 3466
مبار@@ 3464
واحد 3463
الم 3449
N@@ 3439
تال 3431
عن@@ 3427
تل@@ 3420
الس@@ 3419
کوش@@ 3416
جوا@@ 3404
بات@@ 3398
اسلا@@ 3396
نواب 3387
بز@@ 3383
بال 3376
معلومات 3375
31 3374
مرح@@ 3373
حات 3363
قاع@@ 3363
عے 3349
ابل 3335
باش@@ 3323
4.@@ 3301
ساب@@ 3299
ْ 3294
C@@ 3293
سل 3277
ارتی 3273
دود 3256
وجود 3256
مؤ@@ 3251
مبر 3250
نصف 3247
يو@@ 3242
80 3240
District 3238
منی 3235
طالب 3232
عام@@ 3225
amp 3200
قائد 3199
لان 3190
ہاں 3181
وَ@@ 3172
متح@@ 3162
سٹی 3159
الل@@ 3147
ﯿ@@ 3142
فن@@ 3141
تار@@ 3135
ماء 3133
est@@ 3130
مقد@@ 3130
فظ 3129
ـ@@ 3127
جگ@@ 3120
كو@@ 3116
70 3104
4,@@ 3099
ئ 3097
الرحمن 3093
بج@@ 3090
نات 3087
لاً 3072
حس@@ 3068
جد 3062
مشتر@@ 3034
انج@@ 3031
I@@ 3030
مینی@@ 3024
100 3022
اسب 3001
صاح@@ 2998
فضل 2987
لش@@ 2977
ہند@@ 2972
سبب 2957
2019 2952
انڈی@@ 2946
بول 2941
مالی 2938
چہ 2936
لاح 2935
5.@@ 2934
علاق@@ 2932
صد@@ 2930
العلوم 2929
ثار 2919
الوج@@ 2917
درس 2913
O@@ 2910
35 2907
قد@@ 2900
y 2898
ﻣ@@ 2898
يل 2889
فاق 2888
ﻮ@@ 2884
6.@@ 2882
قائ@@ 2876
ائي 2872
سون@@ 2872
وق 2872
% 2868
الد@@ 2864
tim@@ 2846
أ@@ 2846
فرد 2846
نوب@@ 2844
2013 2842
ns 2841
and 2833
عقد 2830
تاب@@ 2822
اح 2819
x 2814
ment 2812
s 2812
جمع@@ 2806
مَ@@ 2804
ذات 2802
enti@@ 2801
الص@@ 2793
5,@@ 2788
model 2788
لَ@@ 2782
وط@@ 2774
7.@@ 2768
contribut@@ 2767
format 2767
عق@@ 2762
ame 2761
عش@@ 2761
ern@@ 2759
عظ@@ 2747
لاف 2745
طلب 2743
com@@ 2740
نان@@ 2736
‌ 2736
زي@@ 2725
8.@@ 2716
الب 2712
DNA 2709
افغ@@ 2708
عز@@ 2705
ab@@ 2704
ناصر 2697
آز@@ 2688
جون@@ 2683
185@@ 2682
ائم 2681
9.@@ 2677
190@@ 2676
E@@ 2674
بط 2671
br 2669
وع@@ 2658
i 2648
al 2639
فات 2629
par@@ 2621
90 2620
a 2607
y@@ 2604
لغ@@ 2597
باد 2592
اتھ 2579
سند 2574
جم 2562
ں@@ 2557
mt@@ 2553
خر 2551
ad 2549
فاع 2544
سف@@ 2525
2015 2515
نما@@ 2512
ير 2510
كا 2505
يو 2505
ویت 2504
گوں 2502
2014 2496
جم@@ 2480
J@@ 2474
لم@@ 2474
کمپ@@ 2469
ﯽ 2469
32 2468
اعتب@@ 2462
6,@@ 2457
وان@@ 2451
قاد@@ 2448
تفصی@@ 2445
شار@@ 2440
مجلس 2440
ناف@@ 2440
وش@@ 2439
رہائ@@ 2435
ar@@ 2422
وح@@ 2421
mina 2409
غرا@@ 2399
Q@@ 2391
۱@@ 2390
خل@@ 2385
de 2370
formula 2369
بد 2364
بو 2360
33 2359
رل 2359
t 2348
عص@@ 2344
مع 2344
نوان 2342
الغ@@ 2322
بلغ@@ 2317
2008 2315
Ch@@ 2315
اغ@@ 2312
ـ 2312
34 2309
75 2306
45 2298
راء 2297
سج@@ 2296
36 2294
موجو@@ 2287
ًا 2287
بص@@ 2285
مسلسل 2271
F@@ 2270
رقم 2269
سوم 2266
2012 2257
محافظ@@ 2257
بس 2252
منص@@ 2243
s@@ 2242
مُ@@ 2239
نان 2238
2010 2232
ّ 2231
ity 2229
on 2227
اض 2219
لف 2219
عدم 2208
طب@@ 2200
39 2198
رئ@@ 2198
200 2195
قدم 2185
فران@@ 2181
38 2180
2017 2168
لي 2164
ar 2163
سي 2163
7,@@ 2158
2016 2155
37 2148
٪ 2136
اسرائی@@ 2125
سك@@ 2125
قا 2121
ہائے 2121
المع@@ 2117
ﺮ@@ 2114
الات 2113
صبح 2108
جما@@ 2095
تاج 2090
2011 2086
it@@ 2079
ومن@@ 2070
آغ@@ 2061
دون@@ 2046
اً 2040
W@@ 2039
عالم@@ 2034
تنظ@@ 2029
a@@ 2027
حمل@@ 2022
8,@@ 2005
c 2002
I 2001
اذ 1995
h@@ 1993
رض 1985
کھلا@@ 1978
علاج 1962
ﻧ@@ 1958
لين@@ 1957
500 1956
کیل 1950
فس@@ 1949
65 1947
عل 1943
كر@@ 1940
نگٹن 1939
مرک@@ 1935
55 1923
2020 1921
o@@ 1917
ﻭ@@ 1917
سلط@@ 1913
سين 1911
p@@ 1910
حول 1908
يني@@ 1907
ادل 1906
فا 1905
9,@@ 1898
الجزائر 1896
42 1891
2009 1886
V@@ 1877
189@@ 1866
2007 1861
an@@ 1860
عرض 1855
d@@ 1852
ؑ 1850
ﺎ 1840
اذ@@ 1839
ضد 1834
52 1829
44 1823
عائ@@ 1822
فیص@@ 1822
وك@@ 1822
ہندو@@ 1821
ur@@ 1820
ہسپ@@ 1819
ژن 1818
اني 1812
خف@@ 1812
n@@ 1807
ري 1804
48 1801
41 1796
قبض@@ 1796
ﮨ@@ 1795
47 1792
85 1790
as@@ 1786
تون@@ 1786
ﺳ@@ 1784
ﺭ@@ 1781
بس@@ 1777
لل@@ 1777
خی 1774
La 1770
58 1769
بع 1769
184@@ 1766
شر 1763
اقتص@@ 1759
56 1757
188@@ 1751
z@@ 1747
يم 1744
ik@@ 1743
مدی@@ 1743
معر@@ 1742
43 1741
جب@@ 1741
ٔ 1740
57 1739
صف 1738
کاؤن@@ 1738
r@@ 1737
انتخ@@ 1736
بلی 1731
53 1730
j@@ 1725
الط@@ 1725
سلام 1725
86 1713
ﺑ@@ 1713
to@@ 1712
95 1711
al@@ 1709
46 1703
23@@ 1701
تاب 1698
54 1694
2006 1690
72 1688
61 1686
2021 1685
رف@@ 1685
نط@@ 1683
00@@ 1676
87 1675
ریز 1668
99 1661
قع 1659
51 1651
49 1647
er 1646
ship 1645
k@@ 1642
62 1639
شاع@@ 1635
es 1630
الله 1618
​ 1618
ing 1616
64 1613
68 1613
مالي 1613
آخ@@ 1612
ed 1611
88 1610
عد 1609
Z 1607
يم@@ 1605
63 1604
عرا@@ 1599
فع@@ 1599
2000 1598
اوہ@@ 1597
ﯾ@@ 1596
جرا@@ 1592
فل 1587
وري 1586
لوب 1585
سوٹا 1579
تز@@ 1577
راً 1577
b@@ 1576
66 1571
ural 1569
59 1568
ہور 1563
78 1562
حي@@ 1556
is 1548
96 1547
74 1545
83 1545
حزب 1544
ترج@@ 1543
الرح@@ 1533
73 1532
یع@@ 1530
ﺗ@@ 1529
84 1528
ation 1523
ؔ 1523
اط 1523
عب 1523
92 1518
ڈاک@@ 1518
c@@ 1517
77 1516
توا@@ 1513
00 1511
98 1509
89 1506
93 1505
76 1504
97 1504
67 1501
iki 1501
ag@@ 1499
طان 1499
يون@@ 1498
81 1497
دث 1496
300 1491
A 1490
94 1488
كون@@ 1485
ترو@@ 1481
t@@ 1480
+ 1479
69 1479
Z@@ 1478
تمل 1477
نمائ@@ 1469
نشر 1467
قدی@@ 1465
u 1459
03 1456
82 1455
دي 1454
text 1452
C 1446
71 1444
مي 1444
وط 1443
180@@ 1442
187@@ 1442
نساس 1436
am@@ 1435
ision 1430
0,@@ 1427
v@@ 1426
تور@@ 1425
U@@ 1424
2005 1422
جات@@ 1421
91 1420
دخ@@ 1411
تض@@ 1408
05 1407
en 1398
اع 1397
2004 1392
rev@@ 1392
09 1391
درمی@@ 1391
79 1389
ext 1389
ye 1388
in@@ 1387
ارب 1384
186@@ 1383
1990 1374
دُ@@ 1360
wn@@ 1359
وري@@ 1355
سون 1347
نوع 1345
ٹي 1344
‎ 1344
باء 1343
02 1340
04 1338
ﮧ 1337
06 1334
07 1331
تعلی@@ 1331
سیم 1331
g@@ 1327
01 1326
q 1323
ربی 1323
i@@ 1321
قد 1321
Y@@ 1310
جمہو@@ 1309
توب@@ 1304
* 1302
سلم 1300
ad@@ 1299
القر@@ 1296
08 1290
البر@@ 1288
تي@@ 1288
f@@ 1287
m@@ 1284
تي 1283
آسٹری@@ 1276
ﻟ@@ 1275
ﻨ@@ 1275
راض@@ 1271
اص 1270
The 1266
باً 1264
ia 1263
Sh@@ 1261
l@@ 1256
on@@ 1256
جنوب@@ 1256
Bo@@ 1253
ارد 1248
تون 1241
الث@@ 1238
الح 1238
شب@@ 1238
است 1236
o 1229
la 1224
at 1223
en@@ 1222
2003 1218
p 1217
اجتماع@@ 1215
تاری@@ 1212
l 1208
جي@@ 1208
في 1207
تغ@@ 1198
re@@ 1197
k 1195
تش 1186
ﮟ 1184
ضل@@ 1183
انيا 1179
بنی@@ 1177
ﺟ@@ 1177
179@@ 1176
ul@@ 1175
دف 1175
دیث 1175
غم 1173
0,000 1168
ﻠ@@ 1168
om@@ 1167
ﺩ@@ 1167
400 1165
ch@@ 1165
ينا 1165
es@@ 1162
ترا 1162
2002 1159
المن@@ 1159
ثیت 1157
وي 1154
شي@@ 1152
q@@ 1151
et 1150
ﺮ 1150
شنل 1149
er@@ 1147
1980 1145
كل@@ 1145
is@@ 1134
n 1134
ﺭ 1134
طلاق 1133
طف@@ 1129
to 1123
or@@ 1122
ایوار@@ 1121
إ@@ 1120
بي 1120
ظر 1120
منصب 1120
ah@@ 1117
صد 1115
١@@ 1115
ﭘ@@ 1113
الي@@ 1108
un@@ 1104
الذ@@ 1103
كول@@ 1103
ﻤ@@ 1103
us 1099
حسب 1098
يس 1098
بنا@@ 1096
ائز 1093
ﮭ@@ 1089
وث@@ 1086
le 1083
صول 1079
راض 1077
لوس 1077
ربي 1072
el@@ 1070
المق@@ 1069
1945 1062
2001 1060
33@@ 1055
غر@@ 1052
ادي 1050
قوم@@ 1045
مایا 1042
قبہ 1041
الان@@ 1040
g 1039
ref 1033
th@@ 1033
وما 1032
b 1031
اء@@ 1026
11@@ 1024
العل@@ 1023
لت@@ 1022
كار@@ 1021
min@@ 1013
دات 1011
Kh@@ 1010
۲@@ 1008
os@@ 1005
... 1000
یونیور@@ 1000
ني 999
as 998
رائی@@ 992
پاک@@ 986
كو 984
اسم@@ 978
جل 978
m 977
w 977
تل 977
at@@ 975
نفس 974
Munici@@ 963
u@@ 963
— 962
pal@@ 961
Ar@@ 957
Mar@@ 956
ِّ@@ 955
اگر@@ 954
1970 953
D 948
1992 945
1991 943
1999 942
ak@@ 941
علي 941
150 938
صیل 932
التر@@ 931
te 928
ah 927
يات 926
1960 923
10.@@ 921
1950 919
حق@@ 916
داء 916
x@@ 914
ندا 910
1947 909
ويل 909
ة 906
ستر@@ 901
Re@@ 897
T 891
کیری@@ 890
كس 888
ﻋ@@ 887
جور@@ 885
st@@ 884
1998 877
عرف 875
ic 874
ستانی 866
» 864
لاد 864
htt@@ 861
ﺘ@@ 859
av@@ 858
Air@@ 856
600 855
district 855
يد 855
ناء 853
um 852
ٍ 849
la@@ 847
قي@@ 845
E 844
le@@ 844
وسط@@ 844
il@@ 843
B 838
ol@@ 836
وظ@@ 835
United 834
مشر@@ 834
1989 833
ot@@ 833
قض@@ 832
1997 830
el 829
عن 829
L 825
800 824
co@@ 823
,000 815
ay 815
وامی 814
ac@@ 813
and@@ 812
1940 811
ة@@ 810
ﷲ 808
ce 806
municipal@@ 806
1996 804
Al@@ 804
الدين 803
طینی 802
كري@@ 801
ty 798
ئیں 798
aj@@ 797
1918 796
يت 795
تُ@@ 792
ate 788
tr@@ 780
am 778
1993 776
ولد 776
sur 774
رر 773
1920 770
ومن 770
۰@@ 768
esh@@ 766
States 765
12.@@ 763
O 763
انتق@@ 763
Ohio 762
ra@@ 762
sh@@ 762
f 760
250 758
az@@ 758
الك@@ 757
يلي 757
ir@@ 756
دوب@@ 754
ضم 752
700 749
N 749
ay@@ 747
10,@@ 746
1941 746
40@@ 746
11.@@ 745
} 743
ow@@ 742
ist 739
r 738
ti@@ 736
1988 735
im@@ 733
ph@@ 731
كر 728
ic@@ 727
An@@ 725
R 725
de@@ 724
ent 723
ضاء 723
واج 723
ﺪ@@ 721
پیدائ@@ 718
em@@ 716
ۃ@@ 715
ya 714
كور@@ 714
ومات 713
لك@@ 712
1939 711
رين 711
ٌ 711
1971 710
واس@@ 710
1944 709
name 708
۹@@ 708
كان@@ 707
بين@@ 704
ou@@ 702
« 702
ريك@@ 702
po@@ 701
F 700
ؐ 700
1995 699
ak 699
# 698
by 695
1948 694
ﮩ@@ 688
120 685
راد 684
ﻮ 684
مين 683
P 682
اه@@ 682
1994 681
ang@@ 680
port 679
z 674
1000 673
اري 673
ۓ 673
ابت 672
دري@@ 671
ومت 671
2022 670
village 669
11,@@ 668
1930 668
اوت 667
جڑ@@ 665
S 664
بري@@ 664
ﺣ@@ 663
الاح@@ 660
يني 659
ﮞ 659
th 658
In@@ 650
1984 648
المر@@ 648
1986 647
kh@@ 645
ur 645
جه@@ 644
جوم 643
طق 643
35@@ 642
ﮔ@@ 642
ine 641
التح@@ 641
1979 640
۳@@ 640
فري@@ 639
oc@@ 637
ap@@ 634
مود 633
ﺴ@@ 633
X@@ 631
نوم@@ 631
هم 630
دون 629
li@@ 626
1985 625
Reg@@ 625
De@@ 624
{ 624
50@@ 621
ed@@ 619
New 618
أت 618
تبر 615
12,@@ 614
ban 614
زمان@@ 614
ﺷ@@ 614
.com 612
وغ@@ 612
1987 609
ﺋ@@ 609
ﻥ 607
الي 605
1975 604
1919 603
ka 596
1974 595
1942 594
tion 594
ً@@ 594
du 593
station 590
1982 589
٭ 589
II 588
lu 588
ó@@ 588
شخص@@ 588
1978 587
1983 585
النس@@ 582
اتب 580
فق 574
ain 572
for 572
كن 572
ang 570
w.@@ 570
جي 569
id@@ 568
ww@@ 568
مه@@ 568
1973 567
um@@ 567
et@@ 565
مثل 565
1917 563
ﻗ@@ 563
af@@ 562
M 561
ps 561
j 560
qu@@ 558
٫ 558
G 557
ec@@ 553
ated 552
di@@ 552
si@@ 552
المص@@ 552
1956 551
1967 549
1969 549
Is@@ 549
Ol@@ 548
1972 545
Par@@ 544
مك@@ 542
Th@@ 540
اجتم@@ 540
۵@@ 540
۸@@ 540
… 537
ﺖ 537
1914 536
X 536
لول 536
مسي@@ 535
زي 533
1981 532
ary 532
ers 531
iv@@ 529
ﻌ@@ 528
au@@ 526
International 525
be 525
me@@ 525
ne 523
se@@ 521
130 520
ٸ@@ 520
۰ 520
اؤن 519
Se@@ 517
الاق@@ 517
1949 516
og@@ 515
1976 513
1977 513
80@@ 513
° 513
1946 512
eh@@ 511
it 511
؁ 510
عم 509
ﮑ@@ 509
ثم 508
110 507
1965 507
900 507
Provin@@ 507
1958 506
way 503
124@@ 502
land 502
ve 500
٢@@ 500
1936 499
br@@ 499
ut@@ 498
يل@@ 498
1962 497
ol 497
۷@@ 497
ci@@ 496
ent@@ 496
ge@@ 496
لند@@ 496
وخ@@ 496
Lo@@ 495
افظ@@ 494
بح 492
Tr@@ 491
age 491
ائیو 491
public 490
● 489
ional 487
é 487
مانوں 487
ضمن 486
فرانسی@@ 486
ir 484
Sof@@ 483
قي 483
III 482
V 482
ash@@ 482
ﺒ@@ 482
ﺧ@@ 482
H 481
180 480
em 480
ro@@ 478
ﻓ@@ 478
are 476
eg@@ 475
ish 475
ard 474
town 473
140 471
ical 471
wa 471
ni@@ 470
1957 469
1968 469
ho@@ 469
् 469
od@@ 468
ri@@ 467
فورنیا 465
ولوج@@ 464
1964 463
Com@@ 462
iz@@ 462
به@@ 462
۴@@ 462
ous 461
كلي@@ 461
1963 460
160 458
ٗ 457
ach@@ 456
be@@ 456
city 456
1935 455
dice 455
Ab@@ 454
لد 454
Bar@@ 453
حز@@ 453
1943 450
Mor@@ 450
aw@@ 450
ana 448
ab 447
lo@@ 447
ma@@ 447
واع 447
• 447
والم@@ 446
ev@@ 445
ory 445
ﺪ 444
Br@@ 443
1953 442
ﻦ 442
واح@@ 439
ﯼ 439
101 438
120@@ 438
Maz@@ 438
Sain@@ 438
ice 438
é@@ 438
يخ 437
Mon@@ 436
Central 435
ig@@ 435
ﺕ 435
المؤ@@ 434
قال 434
۶@@ 433
one 432
ابات 432
ﻡ 432
Mo@@ 431
الأ@@ 431
ans 430
ea 430
dis@@ 429
ill@@ 428
ov@@ 428
ﺁ@@ 428
بين 427
1937 426
les 426
المح@@ 426
كل 426
Co@@ 425
tri@@ 425
المسل@@ 425
1951 424
Con@@ 424
U 424
ł@@ 423
1952 422
ها 422
inn@@ 421
un 419
حل@@ 419
٣@@ 419
لاء 418
350 417
ﮦ 417
1912 416
1959 416
1938 415
1961 413
بلغ 413
Be@@ 412
est 411
ota 411
الث 411
يس@@ 411
As@@ 410
IC@@ 410
ey@@ 410
ina 410
1933 409
Dar@@ 409
NA 409
الفر@@ 409
ولي@@ 409
ani 408
vi@@ 408
1954 406
ﺍ 406
1921 405
حت@@ 405
il 404
طن 404
Car@@ 403
ۡ@@ 402
ie 401
نوف@@ 401
يز 401
؍ 400
ne@@ 399
\ 398
se 398
‏ 397
نح@@ 396
K 394
bi@@ 394
ence 393
har@@ 393
ong@@ 393
coun@@ 392
ub@@ 392
۲ 392
os 391
علیٰ 391
1966 390
$ 389
الرا@@ 389
ﻞ 389
id 388
ing@@ 388
re 388
ولي 388
برطان@@ 386
no@@ 385
elle 384
Per@@ 383
ology 383
1955 382
ver@@ 382
Ro@@ 381
ژ 380
ton 379
ha@@ 378
ère 377
اله@@ 377
des 376
رة 376
1934 375
ter 375
mad 373
tu@@ 373
St@@ 371
ob@@ 371
with 371
موج@@ 371
ى@@ 371
1932 370
يش@@ 370
ﺱ 370
.. 369
yn@@ 369
ai 368
نحو 368
Gu@@ 367
Am@@ 366
ari@@ 366
di 364
يُ@@ 363
ﭼ@@ 363
Region 361
do@@ 361
طي@@ 361
ﺯ@@ 361
na 360
1913 359
واض@@ 359
کیلی@@ 359
istan 357
ie@@ 356
۱ 356
1922 355
ari 355
ter@@ 355
Qu@@ 354
ﻲ 354
od 353
۳ 353
ati@@ 352
ﻴ@@ 352
امي 350
v 349
كن@@ 349
اك 347
1931 346
Ger@@ 346
gen@@ 346
ly 346
ons 346
eb@@ 345
ﻢ 345
W 343
والح@@ 343
كام@@ 341
ok@@ 340
Kar@@ 339
رية 339
ative 338
op@@ 338
برت 338
ali 337
ليس 337
ٓ@@ 337
1929 336
bor@@ 336
hi@@ 336
partment 335
ts 335
تط@@ 335
ﻝ 335
California 334
٠@@ 334
Ne@@ 333
gh@@ 333
فقط 333
ﺤ@@ 332
ch 331
gu@@ 331
territ@@ 331
المج@@ 331
ant 330
ough 330
ac 329
ber@@ 329
· 329
South 328
da 328
1924 327
Ma@@ 327
pr@@ 326
فرنس@@ 326
‍ 326
1500 325
eng@@ 325
per@@ 325
عي@@ 325
كتاب 325
te@@ 324
Man@@ 322
Pr@@ 322
ta 322
هر 322
٩@@ 321
ﻼ@@ 321
👈 321
sp@@ 320
يون 320
lands 319
٢ 319
ism 318
طان@@ 317
۵ 317
ali@@ 316
Sal@@ 315
Pe@@ 313
ندي 313
يت@@ 313
ep@@ 312
به 312
على 312
فہر@@ 312
commune 311
ex@@ 311
الض@@ 311
شخ@@ 311
وني 311
man 310
pp@@ 309
ra 309
ba@@ 308
he@@ 307
Tow@@ 306
كت@@ 305
Y 304
خي@@ 304
3000 303
Me@@ 303
ong 303
Sa@@ 302
۴ 302
Pak@@ 300
man@@ 300
ran@@ 300
1915 299
Nor@@ 299
ru@@ 299
É@@ 299
orial 298
rail@@ 296
that 296
Moh@@ 294
Ph@@ 294
العظ@@ 293
عض@@ 293
all@@ 292
المغ@@ 292
تبع 292
Mal@@ 291
ai@@ 291
ge 291
we@@ 291
البل@@ 291
واست@@ 291
Ad@@ 290
Le@@ 290
Pol@@ 290
ath@@ 290
pl@@ 290
نوائے 290
-- 289
ance 289
ian 289
י@@ 289
ﷺ@@ 289
Sp@@ 288
مة 288
--@@ 287
res@@ 287
1916 286
Es@@ 285
au 285
واش@@ 285
البح@@ 284
زيد 284
شري@@ 284
1923 283
الآ@@ 283
all 282
ﺠ@@ 282
Ali 281
co 281
den 280
يز@@ 280
ﺅ@@ 280
1926 279
gr@@ 279
الحک@@ 279
ign@@ 278
so@@ 278
was 277
yr@@ 277
ā@@ 277
الجام@@ 277
يران 277
ﺩ 277
1900 276
En@@ 276
lu@@ 276
ﮏ 275
Martin 274
ﮕ@@ 274
Col@@ 273
ement 273
mon@@ 273
uc@@ 273
۷ 273
Bel@@ 272
Li@@ 272
ties 272
son 271
ﺻ@@ 271
able 270
lam@@ 270
Ho@@ 269
Sar@@ 269
ys@@ 269
Ver@@ 268
ez@@ 268
onom@@ 268
For@@ 267
تاريخ 266
عمال 266
واء 265
Ah@@ 264
anc@@ 264
community 264
dom@@ 264
ure 264
ده 264
ﻘ@@ 264
Bol@@ 263
North 263
ect 263
ville 263
que 262
داً 262
City 261
tic 261
هد 261
ٖ@@ 261
ڪ@@ 261
۶ 261
ala 260
region 260
كوم@@ 260
يع@@ 260
IS@@ 259
ates 259
المد@@ 259
المش@@ 259
عضو 259
ell@@ 258
ابتد@@ 258
ابع 258
Cor@@ 257
ire 257
iy@@ 257
ﻻ@@ 257
Ex@@ 256
end@@ 256
ha 256
كان 256
1878 255
1905 255
Pal@@ 255
ki 255
ته@@ 255
1910 254
no 254
1925 253
ics 253
ze@@ 253
Di@@ 252
ace 252
ann@@ 252
arr@@ 252
from 252
top 252
النا@@ 252
مذہ@@ 252
No@@ 251
ard@@ 251
mar@@ 251
۸ 251
Kor@@ 250
Or@@ 250
gi@@ 250
ile 250
ille 250
ley 250
á@@ 250
1927 249
Val@@ 249
ו@@ 249
1928 248
ast 248
level 248
وّ@@ 248
المث@@ 247
Has@@ 246
India 246
des@@ 246
hi 246
؎ 246
Po@@ 245
البا@@ 245
مرتب@@ 245
1908 244
Tol@@ 244
bl@@ 244
bot 244
ta@@ 244
لين 244
1870 243
1911 243
Mont@@ 243
du@@ 243
ot 243
su@@ 243
Gr@@ 242
Char@@ 241
ass@@ 241
pe@@ 241
1848 240
1890 240
cr@@ 240
incorpor@@ 240
ish@@ 240
li 240
أ 240
دين 240
ية 240
Jean 239
ess 239
ou 239
ﺸ@@ 239
1907 238
Aut@@ 238
١ 238
Air 237
Bur@@ 237
ica 237
st 237
له 237
ﻔ@@ 237
1880 236
Her@@ 236
ell 236
ind@@ 236
ania 235
ations 235
Ag@@ 234
che 234
ey 234
ib@@ 234
٣ 234
ذری@@ 233
Bal@@ 232
Bor@@ 232
China 231
der 231
iss@@ 231
روع 231
Ser@@ 230
con@@ 230
lin@@ 230
So@@ 229
ick@@ 229
ô@@ 229
المس@@ 229
Ur@@ 228
West 228
mo@@ 228
our 227
zy@@ 227
الحر@@ 227
المت@@ 227
1860 226
Chap@@ 226
elec@@ 226
الوط@@ 226
معظم 226
۹ 226
ﻭ 226
1909 225
World 225
amp@@ 225
bo@@ 225
متر 225
٤@@ 225
Har@@ 224
Jersey 224
ca 224
ek@@ 224
ion 224
lines 224
Pierre 223
Pro@@ 223
Vo@@ 223
كم 222
Gar@@ 221
ite 221
المست@@ 221
٠ 221
Cr@@ 220
تمث@@ 220
ﺐ 220
He@@ 219
oh@@ 219
oph@@ 219
str@@ 218
يار 218
1897 217
ale 217
ins 217
tro@@ 217
London 216
area 216
ly@@ 216
ue 216
1895 215
ek 215
ès 215
dom 214
pi@@ 214
ist@@ 213
ore 213
Su@@ 212
ages 212
cons@@ 212
hum@@ 212
ؒ@@ 212
٦@@ 212
ji 211
ﻬ@@ 211
1876 210
King@@ 209
University 209
بوا@@ 209
زوج@@ 209
া@@ 209
1901 208
? 208
Go@@ 208
Inter@@ 208
ant@@ 208
ents 208
ug@@ 208
za 208
المنا@@ 208
ﺰ@@ 208
Rus@@ 207
ess@@ 207
mi@@ 207
ud@@ 207
کاون@@ 207
ency 206
its 206
pol@@ 206
Japan 205
air@@ 205
ff@@ 205
inc@@ 205
ost 205
uy@@ 205
1906 204
Ac@@ 204
Ber@@ 204
sa@@ 204
inter@@ 203
ورة 203
ﭖ 203
ais 202
1896 201
Gre@@ 201
adi@@ 201
der@@ 201
ome 201
العالم 201
Kal@@ 200
Mah@@ 200
cor@@ 200
غير 200
ليل 200
ma 199
الشر@@ 199
ٴ 199
1877 198
1904 198
Bi@@ 198
ecture 198
أُ@@ 198
1898 197
Rom@@ 197
Tur@@ 197
hu@@ 197
me 197
syl@@ 197
ولم 197
Mas@@ 196
â@@ 196
اسي 196
﴾ 195
She@@ 194
1800 193
National 193
je@@ 193
tions 193
ديد 193
Mus@@ 192
az 192
ford 192
الات@@ 192
Bas@@ 191
Mos@@ 191
Park 191
amb@@ 191
ara 191
enne 191
ight 191
1899 190
Penn@@ 190
administr@@ 190
the@@ 190
und@@ 190
yp@@ 190
ola 189
und 189
AC@@ 187
San 187
uz@@ 187
الرو@@ 187
vania 186
البي@@ 186
ثلا@@ 186
Em@@ 185
Mac@@ 185
Mi@@ 185
als 185
بير 185
وادي 185
﴿ 185
Pre@@ 184
include 184
الفت@@ 184
ﺌ@@ 184
ﻳ@@ 184
1830 183
ash 183
الجز@@ 183
الجن@@ 183
Un@@ 182
ain@@ 182
ﮢ@@ 182
CO@@ 181
Gen@@ 181
يوم 181
ٖ 181
ﮬ@@ 181
Pl@@ 180
hip 180
بناء 180
٥ 180
ﻃ@@ 180
1882 179
ahr@@ 179
وتع@@ 179
1892 178
Cap@@ 178
ane 178
ebr@@ 178
ens 178
ji@@ 178
language 178
trans@@ 178
ؓ@@ 178
٧ 178
Ham@@ 177
ama 177
car@@ 177
Gol@@ 176
col@@ 176
wer 176
è@@ 176
السل@@ 176
Cl@@ 175
sub@@ 175
uk@@ 175
ze 175
وير 175
BC 174
Ta@@ 174
تت@@ 174
٦ 174
ﮍ@@ 174
ﺏ 174
1881 173
1894 173
Q 173
om 173
Cro@@ 172
old 172
section 172
المط@@ 172
٨@@ 172
1871 171
1902 171
go@@ 171
im 171
main 171
ָ@@ 171
٤ 171
Tar@@ 170
ens@@ 170
ings 170
أبو 170
نى 170
aux 169
fac@@ 169
٧@@ 169
1903 168
At@@ 168
In 168
العمل 168
شه@@ 168
1887 167
Au@@ 167
mer@@ 167
sett@@ 167
ve@@ 167
AR@@ 166
Mad@@ 166
Mir@@ 166
Ru@@ 166
Si@@ 166
han 166
mu@@ 166
unc@@ 166
تها 166
يش 166
٥@@ 166
ast@@ 165
ich@@ 165
تين 165
ﻄ@@ 165
1884 164
Cas@@ 164
ographi@@ 164
ti 164
الوقت 164
Fre@@ 163
Laur@@ 163
aire 163
era 163
fi@@ 163
England 162
ano 162
hal@@ 162
ku@@ 162
تك@@ 162
AS@@ 161
Arab@@ 161
Arch@@ 161
amm@@ 161
dr@@ 161
province 161
tor 161
ר@@ 161
ﮮ 161
ada 160
do 160
local 160
ويك@@ 160
1879 159
East 159
ges 159
ise 159
sc@@ 159
نه@@ 159
Az@@ 158
Le 158
River 158
UN@@ 158
cul@@ 158
ople 158
ther@@ 158
ٌ@@ 158
CA@@ 157
arch@@ 157
has 157
ont 157
عة 157
وه@@ 157
Cal@@ 156
El@@ 156
Gal@@ 156
Sy@@ 156
aci@@ 156
lar@@ 156
sion 156
ּ@@ 156
1886 155
1891 155
Pi@@ 155
sk@@ 155
type 155
מ@@ 155
ﺼ@@ 155
Min@@ 154
Ou@@ 154
Ri@@ 154
Str@@ 154
dan 154
her@@ 154
بيل 154
وجد 154
் 154
IN@@ 153
end 153
sia 153
tics 153
were 153
wor@@ 153
وسي@@ 153
1864 152
Sau@@ 152
Sol@@ 152
net@@ 152
ten@@ 152
1885 151
Ang@@ 151
Lu@@ 151
Shu@@ 151
bar@@ 151
del 151
ks 151
أن 151
نفس@@ 151
Cy@@ 150
IV 150
ok 150
sch@@ 150
عي 150
ﻀ@@ 150
Lan@@ 149
bu@@ 149
ré@@ 149
tan@@ 149
va 149
ę@@ 149
عشر 149
Bu@@ 148
J 148
Lang@@ 148
ao 148
ata 148
ja 148
pa@@ 148
up@@ 148
بني 148
ٔ@@ 148
٨ 148
Al 147
Hu@@ 147
country 147
this 147
ä@@ 147
العالم@@ 147
ماني 147
٬ 147
ۡ 147
1850 146
Fo@@ 146
uch@@ 146
الثق@@ 146
Chi@@ 145
ba 145
ni 145
ڙ@@ 145
ham 144
men@@ 144
tern 144
́ 144
ؔ@@ 144
1889 143
ality 143
fl@@ 143
state 143
time 143
ym@@ 143
وأ@@ 143
← 143
1893 142
York 142
ese 142
ix 142
not 142
ular 142
ٍ@@ 142
Juli@@ 141
ack@@ 141
ase 141
chi 141
onne 141
si 141
ws 141
كتب 141
1867 140
Far@@ 140
Geor@@ 140
State 140
ail@@ 140
sian 140
1888 139
Ku@@ 139
Lab@@ 139
Mol@@ 139
mad@@ 139
obj@@ 139
א@@ 139
ةً 139
Ir@@ 138
government 138
style 138
try 138
المه@@ 138
دير 138
٩ 138
Lin@@ 137
Soci@@ 137
bas@@ 137
comp@@ 137
ili@@ 137
pre@@ 137
AT@@ 136
Cat@@ 136
U.S. 136
cu@@ 136
ديم 136
Tal@@ 135
^ 135
ade 135
if@@ 135
lah 135
nam@@ 135
sa 135
ايا 135
سيا 135
فة 135
ﭽ@@ 135
ﻑ 135
ﻫ@@ 135
Mag@@ 134
Mid@@ 134
Sw@@ 134
ans@@ 134
ator 134
gar@@ 134
ér@@ 134
ə@@ 134
پنس@@ 134
র@@ 134
Indian 133
Maur@@ 133
he 133
reg@@ 133
uri 133
world 133
ﭩ@@ 133
Hy@@ 132
ette 132
for@@ 132
lem@@ 132
use 132
يف@@ 132
Santa 131
field 131
mont 131
ש@@ 131
عليه 131
Ali@@ 130
ets 130
isi@@ 130
دة 130
كث@@ 130
College 129
John 129
Sub@@ 129
Ter@@ 129
ine@@ 129
oy@@ 129
tic@@ 129
í@@ 129
كاون@@ 129
ٗ@@ 129
CE@@ 128
Hau@@ 128
Kur@@ 128
Res@@ 128
cas@@ 128
ental 128
fre@@ 128
ita 128
ital 128
uv@@ 128
yc@@ 128
ś@@ 128
AN@@ 127
Av@@ 127
ES@@ 127
La@@ 127
Pu@@ 127
ave 127
ign 127
ל@@ 127
Mat@@ 126
anti@@ 126
cur@@ 126
ting 126
ְ@@ 126
ٽ@@ 126
1873 125
Ab 125
TC 125
ul 125
ver 125
ؑ@@ 125
اه 125
ਰ@@ 125
ﮫ 125
Sav@@ 124
acc@@ 124
tel@@ 124
tes 124
til@@ 124
ב@@ 124
الإ@@ 124
1861 123
AM@@ 123
Ban@@ 123
Ben@@ 123
Fer@@ 123
Que@@ 123
Sel@@ 123
Time 123
ean 123
ino 123
lar 123
ה@@ 123
عين 123
alis@@ 122
division 122
ere 122
igh@@ 122
nor@@ 122
ted 122
val@@ 122
ה 122
ازت 122
السع@@ 122
1875 121
Ba@@ 121
Fi@@ 121
Vi@@ 121
ally 121
ax@@ 121
cre@@ 121
iki@@ 121
rec@@ 121
اضي 121
Dev@@ 120
Ha@@ 120
dia 120
ograph@@ 120
ères 120
كاؤن@@ 120
يق@@ 120
Mari@@ 119
Sur@@ 119
arg@@ 119
ds 119
tical 119
يول@@ 119
﻿ 119
Hil@@ 118
Kr@@ 118
San@@ 118
ach 118
line 118
ut 118
× 118
ō@@ 118
مارس 118
ٴ@@ 118
Fr@@ 117
Ge@@ 117
Nic@@ 117
Ra@@ 117
ban@@ 117
ng@@ 117
ura 117
غي@@ 117
ﺨ@@ 117
1872 116
Af@@ 116
Lar@@ 116
The@@ 116
aba 116
ick 116
io 116
ors 116
other 116
ﺲ 116
￼ 116
eli@@ 115
ler@@ 115
polit@@ 115
ִ@@ 115
أن@@ 115
بالم@@ 115
ﺿ@@ 115
1865 114
It 114
Trans@@ 114
Tri@@ 114
bot@@ 114
hy@@ 114
system 114
النظ@@ 114
ݨ 114
ਾ@@ 114
་ 114
ﻏ@@ 114
ﻱ 114
Gro@@ 113
Lam@@ 113
Mur@@ 113
Wo@@ 113
enc@@ 113
sk 113
ć 113
جمي@@ 113
يخ@@ 113
يه@@ 113
ﺅ 113
Can@@ 112
To@@ 112
agne 112
ush@@ 112
্ 112
Mich@@ 111
Pri@@ 111
alm@@ 111
art 111
ences 111
hir 111
oma 111
pos@@ 111
rit@@ 111
thern 111
− 111
1862 110
1883 110
Bah@@ 110
Bon@@ 110
Dr@@ 110
Kam@@ 110
Tom@@ 110
cell@@ 110
emb@@ 110
onn@@ 110
ye@@ 110
خرج 110
كون 110
مه 110
IM@@ 109
Lake 109
Sul@@ 109
people 109
á 109
ته 109
Hum@@ 108
Lag@@ 108
Nord 108
RA@@ 108
Vil@@ 108
ke@@ 108
ko 108
langu@@ 108
ole 108
ols 108
ort 108
oth@@ 108
wi@@ 108
ą@@ 108
الثاني 108
Beau@@ 107
Bro@@ 107
Den@@ 107
OS 107
RE@@ 107
Sch@@ 107
arm@@ 107
burg 107
iti@@ 107
ner 107
pe 107
their 107
ux 107
yg@@ 107
ˈ@@ 107
ַ@@ 107
العلا@@ 107
وَّ@@ 107
ﻒ 107
1863 106
Jan@@ 106
Ko@@ 106
Ni@@ 106
Pan@@ 106
Sam@@ 106
ble 106
have 106
tar@@ 106
ë@@ 106
يف 106
1866 105
Du@@ 105
bar 105
bel@@ 105
ij@@ 105
ira 105
lat@@ 105
ri 105
sy@@ 105
yl@@ 105
zi@@ 105
Elec@@ 104
Empire 104
Gi@@ 104
Muh@@ 104
Paul 104
Sou@@ 104
ath 104
bi 104
int@@ 104
more 104
over 104
ser@@ 104
yan 104
لة 104
وة 104
1869 103
Im@@ 103
Mer@@ 103
Por@@ 103
St. 103
Wi@@ 103
action 103
dec@@ 103
ena 103
eti@@ 103
sol@@ 103
Andr@@ 102
Lou@@ 102
Mis@@ 102
We@@ 102
adi 102
apo@@ 102
nes 102
ust 102
اة 102
الاست@@ 102
صي@@ 102
ضي@@ 102
ﭨ@@ 102
Land@@ 101
aki 101
eo 101
ih@@ 101
lan@@ 101
medi@@ 101
oli 101
oni@@ 101
ord@@ 101
work 101
الصح@@ 101
″ 101
 101
Stadi@@ 100
Tor@@ 100
Wil@@ 100
ass 100
astr@@ 100
esh 100
loc@@ 100
mag@@ 100
mas@@ 100
tor@@ 100
yn 100
English 99
Il@@ 99
Sab@@ 99
Union 99
alist 99
appe@@ 99
fa@@ 99
ju@@ 99
ke 99
ki@@ 99
mat@@ 99
mis@@ 99
ological 99
onal 99
ry 99
ways 99
النف@@ 99
Bl@@ 98
US@@ 98
ene 98
non 98
ora 98
ron@@ 98
إل@@ 98
تمع 98
لك 98
Ash@@ 97
Do@@ 97
SA@@ 97
Sec@@ 97
agu@@ 97
eu@@ 97
fer@@ 97
ik 97
ko@@ 97
ond@@ 97
tries 97
ée 97
COVID 96
Del@@ 96
Des@@ 96
Mil@@ 96
ange 96
ani@@ 96
form 96
fr@@ 96
ier@@ 96
isti@@ 96
king 96
population 96
ts@@ 96
wid@@ 96
أم@@ 96
ٕ@@ 96
ۖ 96
1874 95
Bak@@ 95
Er@@ 95
Hol@@ 95
Sci@@ 95
TV 95
also 95
ars 95
fe@@ 95
mir 95
net 95
ren@@ 95
tw@@ 95
ung@@ 95
which 95
الحدي@@ 95
1868 94
Council 94
Oc@@ 94
act 94
ational 94
aya 94
emati@@ 94
ies 94
ines 94
kar@@ 94
ler 94
low 94
single 94
van 94
تج 94
هـ 94
Fin@@ 93
Island 93
Ju@@ 93
Pres@@ 93
ater 93
berg 93
ich 93
log@@ 93
sel@@ 93
tur@@ 93
ven@@ 93
wo 93
š@@ 93
المُ@@ 93
₹ 93
ﮪ 93
Dis@@ 92
Hung@@ 92
SA 92
Western 92
ault 92
aza 92
bec 92
bur@@ 92
onia 92
ous@@ 92
out 92
per 92
prot@@ 92
حدث 92
ি@@ 92
Bad@@ 91
Bos@@ 91
Feder@@ 91
Games 91
Gir@@ 91
Pas@@ 91
SE@@ 91
Tak@@ 91
ap 91
aye 91
can 91
cel@@ 91
ham@@ 91
mer 91
nuc@@ 91
ny 91
التص@@ 91
ڊ@@ 91
Eg@@ 90
ack 90
ating 90
chi@@ 90
cri@@ 90
ington 90
ography 90
ros@@ 90
var 90
أس@@ 90
السي@@ 90
هو 90
ਸ@@ 90
Ak@@ 89
Bab@@ 89
Chin@@ 89
Great 89
History 89
US 89
Vill@@ 89
aus@@ 89
awa 89
cl@@ 89
ights 89
ison 89
oper@@ 89
ski 89
ture 89
wh@@ 89
طلق 89
️ 89
Bay@@ 88
Ind@@ 88
System 88
Wal@@ 88
Wor@@ 88
ability 88
beg@@ 88
ide 88
most 88
olog@@ 88
pres@@ 88
pro@@ 88
ran 88
إن 88
نه 88
Bus@@ 87
Ed@@ 87
Hor@@ 87
Sil@@ 87
ador 87
att@@ 87
ebo@@ 87
lam 87
life 87
number 87
pedi@@ 87
por@@ 87
ung 87
war 87
رًا 87
نين 87
ਦ@@ 87
Sing@@ 86
ae 86
constitu@@ 86
ering 86
ger@@ 86
progr@@ 86
ster@@ 86
נ@@ 86
़ 86
ক@@ 86
ﭙ@@ 86
ﯽ@@ 86
Ci@@ 85
Gor@@ 85
Hal@@ 85
Je@@ 85
Mu@@ 85
Te@@ 85
Tw@@ 85
VI 85
alth 85
aur@@ 85
dar@@ 85
lement 85
ories 85
sci@@ 85
ual 85
ç@@ 85
A. 84
Meh@@ 84
ains 84
ert 84
mus@@ 84
pen@@ 84
war@@ 84
ö@@ 84
بالت@@ 84
سرائ@@ 84
ੀ 84
ﻊ 84
Cre@@ 83
House 83
Ji@@ 83
Las 83
Ti@@ 83
ales 83
bers 83
ef@@ 83
fication 83
gan 83
las 83
ome@@ 83
rati@@ 83
sive 83
vol@@ 83
Ś@@ 83
إلى 83
بة 83
مى 83
AC 82
Lat@@ 82
Portu@@ 82
RO@@ 82
Ram@@ 82
atis@@ 82
cal 82
don 82
gl@@ 82
gre@@ 82
tion@@ 82
will 82
ón 82
Ł@@ 82
ע@@ 82
هي@@ 82
AB@@ 81
Azer@@ 81
CA 81
CI@@ 81
Nar@@ 81
ST@@ 81
Ste@@ 81
Var@@ 81
atr@@ 81
dro@@ 81
duc@@ 81
edi@@ 81
fic 81
ip 81
ond 81
ost@@ 81
priv@@ 81
qui@@ 81
well 81
الإم@@ 81
تأ@@ 81
قوق 81
ﮈ@@ 81
ﺀ 81
ﺯ 81
ﻈ@@ 81
Ay@@ 80
Christ@@ 80
El 80
Gl@@ 80
Jam@@ 80
My@@ 80
NE@@ 80
Road 80
Som@@ 80
ae@@ 80
cer@@ 80
class 80
ente 80
had 80
his 80
ids 80
ila 80
institu@@ 80
mor@@ 80
ness 80
ope 80
sur@@ 80
tem@@ 80
two 80
uh@@ 80
vel@@ 80
ég@@ 80
č@@ 80
مؤس@@ 80
ﷲ@@ 80
Cam@@ 79
Camp@@ 79
Commun@@ 79
Gh@@ 79
VII 79
Wh@@ 79
ami 79
ask@@ 79
cal@@ 79
del@@ 79
direc@@ 79
eter 79
hol@@ 79
ini 79
ori@@ 79
rel@@ 79
row 79
une 79
ution 79
wood 79
أه@@ 79
يه 79
ਿ@@ 79
ﭦ 79
Colomb@@ 78
Est@@ 78
Gran@@ 78
Kas@@ 78
Mot@@ 78
Rah@@ 78
edr@@ 78
elop@@ 78
grap@@ 78
hr@@ 78
ici@@ 78
mp@@ 78
pu@@ 78
they 78
ابق 78
المف@@ 78
تست@@ 78
طبي@@ 78
ব@@ 78
․ 78
🔹 78
AI@@ 77
ER@@ 77
Phil@@ 77
ature 77
dev@@ 77
fin@@ 77
ill 77
ning 77
sec@@ 77
ת 77
الملك 77
عند 77
ينا@@ 77
ন 77
ﮌ@@ 77
ﺫ@@ 77
Dav@@ 76
Hill 76
Mé@@ 76
Nov@@ 76
Sim@@ 76
Sor@@ 76
Vir@@ 76
ago 76
artic@@ 76
ati 76
ber 76
ection 76
histori@@ 76
inf@@ 76
very 76
án 76
دًا 76
American 75
Fl@@ 75
Fran@@ 75
Les 75
Lim@@ 75
Loc@@ 75
Na@@ 75
enn@@ 75
ky 75
leg@@ 75
ock 75
tain 75
tive 75
tra 75
أخ@@ 75
ਤ@@ 75
Bri@@ 74
British 74
Kan@@ 74
Rh@@ 74
Sc@@ 74
Vol@@ 74
cap@@ 74
ney 74
ona 74
proc@@ 74
rom@@ 74
set 74
sho@@ 74
£ 74
ī@@ 74
التع@@ 74
وى 74
ۂ@@ 74
Bat@@ 73
CH@@ 73
Ca@@ 73
Dur@@ 73
Fal@@ 73
Indi@@ 73
Ox@@ 73
Sum@@ 73
anz@@ 73
cant@@ 73
chan@@ 73
cin@@ 73
ding 73
gal 73
hab@@ 73
och@@ 73
oll@@ 73
oug@@ 73
oz@@ 73
site 73
we 73
ֹ@@ 73
۞ 73
ﮯ@@ 73
Anti@@ 72
Cer@@ 72
Mak@@ 72
PS 72
Seine 72
`@@ 72
app@@ 72
day 72
div@@ 72
eff@@ 72
ein 72
ft 72
national 72
ther 72
zi 72
ń@@ 72
ם 72
التار@@ 72
٘ 72
CO 71
Der@@ 71
George 71
Nag@@ 71
Sz@@ 71
This 71
Vis@@ 71
aliz@@ 71
char@@ 71
ee 71
eth@@ 71
ever 71
ez 71
ins@@ 71
many 71
place 71
ple@@ 71
son@@ 71
tig@@ 71
ão 71
ā 71
ولاية 71
ڏ@@ 71
ڙ 71
0s 70
App@@ 70
Dom@@ 70
European 70
Hel@@ 70
High@@ 70
Kol@@ 70
Liv@@ 70
MS 70
Rec@@ 70
Ros@@ 70
Sud 70
Tro@@ 70
bil@@ 70
book 70
bu 70
ga 70
ht 70
inal 70
red 70
ro 70
shire 70
ters 70
thu@@ 70
ud 70
vir@@ 70
vo@@ 70
إن@@ 70
نة 70
وفي 70
ٶ 70
Bou@@ 69
CC@@ 69
Carol@@ 69
Company 69
Division 69
How@@ 69
Pow@@ 69
Tu@@ 69
ag 69
cir@@ 69
fo@@ 69
him 69
ima 69
inde@@ 69
land@@ 69
lo 69
nia 69
onde 69
ote 69
out@@ 69
so 69
ves 69
ş@@ 69
حي 69
عاب 69
ﮎ 69
ﻖ 69
Ap@@ 68
Kon@@ 68
Uni@@ 68
aff@@ 68
aine 68
azi 68
bridge 68
ems 68
esia 68
ground 68
kl@@ 68
men 68
met@@ 68
mun@@ 68
sen@@ 68
sous 68
tural 68
í 68
مقاط@@ 68
ې 68
ー@@ 68
AM 67
AP@@ 67
Bre@@ 67
IX 67
Kus@@ 67
Mel@@ 67
School 67
ams 67
independ@@ 67
my 67
off@@ 67
op 67
our@@ 67
ov 67
raine 67
rol@@ 67
tier 67
unt 67
urg 67
wan@@ 67
who 67
ys 67
ورك 67
਼ 67
ﺝ 67
CD 66
Cir@@ 66
Dam@@ 66
Mem@@ 66
Sult@@ 66
War 66
William 66
any 66
blo@@ 66
cop@@ 66
cy 66
ely 66
eng 66
go 66
group 66
ker 66
oa 66
of@@ 66
ority 66
ow 66
tis@@ 66
uf@@ 66
up 66
view 66
ן 66
البط@@ 66
مركز 66
ۓ@@ 66
ﻐ@@ 66
@ 65
Don@@ 65
Maj@@ 65
Med@@ 65
bert 65
bro@@ 65
change 65
comm@@ 65
din 65
eas@@ 65
ehr@@ 65
elles 65
soci@@ 65
than 65
uk 65
uni@@ 65
ute 65
أح@@ 65
ٱ@@ 65
ﺬ@@ 65
Bank 64
Bul@@ 64
Ear@@ 64
Louis 64
Mand@@ 64
ame@@ 64
bal@@ 64
bon 64
bus@@ 64
ches 64
cle 64
conom@@ 64
dar 64
dem@@ 64
ider 64
int 64
ket 64
org@@ 64
osh@@ 64
pap@@ 64
peri@@ 64
put@@ 64
rent 64
sar@@ 64
stat@@ 64
una 64
ד@@ 64
الموس@@ 64
موال@@ 64
ناك 64
ম@@ 64
ਹ@@ 64
ி@@ 64
ﭔ@@ 64
Govern@@ 63
Grand 63
Jo@@ 63
Pen@@ 63
War@@ 63
Washington 63
ais@@ 63
ces 63
dou@@ 63
ech 63
hor@@ 63
idge 63
ingen 63
ium 63
mission 63
mut@@ 63
pa 63
ports 63
press 63
tice 63
would 63
ż@@ 63
هذا 63
هما 63
। 63
স@@ 63
AS 62
Dec@@ 62
James 62
On@@ 62
Women 62
ait 62
anim@@ 62
crip@@ 62
ho 62
ida 62
itz@@ 62
les@@ 62
low@@ 62
own 62
ques 62
res 62
speci@@ 62
sti@@ 62
ə 62
الموا@@ 62
جري@@ 62
ذي 62
ريق 62
◼ 62
ﺛ@@ 62
ﺦ 62
Bay 61
Bil@@ 61
But@@ 61
Cur@@ 61
Pot@@ 61
amo@@ 61
bas 61
but 61
econom@@ 61
eri 61
mal@@ 61
nh@@ 61
serv@@ 61
stand@@ 61
tre 61
ua 61
via 61
vis@@ 61
xi@@ 61
za@@ 61
å@@ 61
él@@ 61
جة 61
ু@@ 61
ਮ@@ 61
Bang@@ 60
Bud@@ 60
Chile 60
Dor@@ 60
Marie 60
Nav@@ 60
New@@ 60
Organ@@ 60
Ori@@ 60
Party 60
Prot@@ 60
Tre@@ 60
anga 60
back@@ 60
court 60
dic@@ 60
eld 60
emp@@ 60
face 60
first 60
following 60
ng 60
ret@@ 60
sil 60
sw@@ 60
tom@@ 60
wn 60
­ 60
أص@@ 60
دى 60
هي 60
া 60
ਾ 60
AD@@ 59
Ari@@ 59
Leg@@ 59
Medi@@ 59
Mes@@ 59
Pap@@ 59
Plan@@ 59
Sem@@ 59
agn@@ 59
cy@@ 59
hai 59
ier 59
kan 59
kin@@ 59
lan 59
million 59
only 59
ony 59
ross 59
tel 59
tiv@@ 59
ת@@ 59
وقد 59
আ@@ 59
ল@@ 59
Cou@@ 58
General 58
Mul@@ 58
Pon@@ 58
Sak@@ 58
Sen@@ 58
St 58
acy 58
aga 58
air 58
atom@@ 58
icro@@ 58
illa 58
ists 58
let 58
lier 58
mal 58
ree 58
ste@@ 58
team 58
techn@@ 58
ارة 58
العرا@@ 58
ذكر 58
هذ@@ 58
يح@@ 58
ো@@ 58
ਕ@@ 58
ਲ@@ 58
Blo@@ 57
Green 57
King 57
M. 57
Mexico 57
Nigeria 57
Off@@ 57
Pom@@ 57
Ul@@ 57
ann 57
ear@@ 57
ense 57
ew@@ 57
igu@@ 57
iness 57
kr@@ 57
light 57
ms 57
ouv@@ 57
ox@@ 57
ret 57
su 57
tin 57
tors 57
~ 57
ū@@ 57
כ@@ 57
أحمد 57
أو 57
୍ 57
్ 57
Asia 56
France 56
French 56
Fu@@ 56
Ki@@ 56
Life 56
Sir 56
Street 56
ana@@ 56
aro@@ 56
aul@@ 56
auth@@ 56
ava 56
been 56
eas 56
equ@@ 56
istr@@ 56
mot@@ 56
organiz@@ 56
regi@@ 56
san 56
semb@@ 56
under 56
verse 56
web 56
ֶ@@ 56
بالق@@ 56
قة 56
يين 56
್ 56
A.@@ 55
Chr@@ 55
Cru@@ 55
Do 55
Ke@@ 55
May@@ 55
Mc@@ 55
Met@@ 55
Rem@@ 55
bol@@ 55
dle 55
eter@@ 55
formation 55
fort 55
ites 55
med 55
mir@@ 55
ori 55
side 55
ח@@ 55
פ@@ 55
اليا 55
دية 55
سنة 55
म@@ 55
ਨ@@ 55
市 55
ﺡ 55
As 54
Beh@@ 54
DC 54
Wat@@ 54
White 54
about 54
ake 54
ants 54
ark@@ 54
bat@@ 54
educ@@ 54
ella 54
energ@@ 54
ff 54
flu@@ 54
ful 54
lab@@ 54
lim 54
mov@@ 54
phot@@ 54
tional 54
tle 54
ées 54
ü@@ 54
ская 54
اره 54
حة 54
Baz@@ 53
Cel@@ 53
Church 53
FI@@ 53
Fir@@ 53
Guinea 53
Ker@@ 53
Op@@ 53
Rich@@ 53
aa 53
bury 53
data 53
date 53
ected 53
ef 53
els 53
enz@@ 53
her 53
ico 53
known 53
mil@@ 53
parti@@ 53
plic@@ 53
second 53
stein 53
ten 53
teri@@ 53
universit@@ 53
urs 53
wat@@ 53
years 53
р@@ 53
محافظة 53
ੰ@@ 53
ﺶ 53
Day 52
Haw@@ 52
Henry 52
Hon@@ 52
R. 52
Rad@@ 52
Rel@@ 52
SS 52
Shi@@ 52
ands 52
arak 52
asi@@ 52
aum 52
ays 52
cont@@ 52
dy 52
eli 52
eri@@ 52
esc@@ 52
ex 52
hat@@ 52
ide@@ 52
ili 52
illed 52
ities 52
lig@@ 52
lim@@ 52
mit@@ 52
now 52
oks 52
ongo 52
oni 52
pel@@ 52
prop@@ 52
sky 52
spec@@ 52
tan 52
tis 52
ula 52
ures 52
ń 52
Рес@@ 52
لأ@@ 52
ﻩ 52
America 51
Chil@@ 51
Clar@@ 51
Cum@@ 51
De 51
Florida 51
For 51
Gil@@ 51
Tun@@ 51
ado 51
af 51
alan 51
bre@@ 51
car 51
civil 51
den@@ 51
ece 51
gro@@ 51
ked 51
lobal 51
nin 51
organ@@ 51
pes 51
pul@@ 51
self 51
tal@@ 51
title 51
ór@@ 51
خلال 51
عه 51
هار@@ 51
ন@@ 51
র 51
ﺜ@@ 51
CD@@ 50
D. 50
Dem@@ 50
Neu@@ 50
Os@@ 50
Rev@@ 50
Ré@@ 50
Stand@@ 50
Town 50
ail 50
amar@@ 50
cad@@ 50
cial 50
din@@ 50
doc@@ 50
during 50
has@@ 50
into 50
ior 50
je 50
new 50
ont@@ 50
outh 50
power 50
right 50
them 50
thi 50
tin@@ 50
tre@@ 50
ulation 50
vi 50
water 50
ying 50
ː 50
ֵ@@ 50
الأح@@ 50
يع 50
க@@ 50
ﭧ 50
An 49
Bir@@ 49
Centre 49
First 49
Hab@@ 49
Hat@@ 49
Hin@@ 49
Ireland 49
Juan 49
My 49
Nu@@ 49
Red 49
Roc@@ 49
West@@ 49
against 49
ato 49
capital 49
come 49
ech@@ 49
estim@@ 49
eu 49
even 49
fol@@ 49
iri 49
ited 49
ith 49
jus@@ 49
last 49
law 49
mittee 49
olas 49
others 49
oto 49
pot@@ 49
school 49
sea 49
see 49
struc@@ 49
sup@@ 49
thi@@ 49
total 49
tro 49
ui 49
ury 49
én@@ 49
ê@@ 49
î@@ 49
الشرق@@ 49
وفي@@ 49
ত@@ 49
ਸ 49
ା@@ 49
Dou@@ 48
Group 48
Institute 48
Sus@@ 48
abl@@ 48
agr@@ 48
body 48
eau 48
ein@@ 48
ello 48
erg@@ 48
esti@@ 48
eux 48
han@@ 48
hin@@ 48
municip@@ 48
nom@@ 48
ods 48
ords 48
ough@@ 48
sal@@ 48
ster 48
tar 48
ty@@ 48
½ 48
û@@ 48
الة 48
الذي 48
الري@@ 48
رير 48
وله 48
ݙ@@ 48
ह@@ 48
ে@@ 48
ਪ@@ 48
﷤ 48
ﻪ 48
Austr@@ 47
Center 47
Coun@@ 47
Educ@@ 47
Kaz@@ 47
One 47
Royal 47
Sho@@ 47
Sin@@ 47
Ty@@ 47
Ze@@ 47
ats 47
augh@@ 47
bin@@ 47
bir@@ 47
chem@@ 47
das 47
dig@@ 47
entr@@ 47
gu 47
ld 47
mi 47
not@@ 47
osa 47
tab@@ 47
tol@@ 47
van@@ 47
¿ 47
ó 47
ος 47
і@@ 47
النق@@ 47
ٶ@@ 47
′ 47
ﺹ 47
All 46
Fe@@ 46
Pat@@ 46
Sah@@ 46
Tel@@ 46
Vel@@ 46
XVI 46
Ye@@ 46
abr@@ 46
after 46
atia 46
century 46
down 46
ease 46
eph@@ 46
ike 46
mond 46
munici@@ 46
ones 46
order 46
partic@@ 46
prim@@ 46
refer@@ 46
sey 46
urt 46
uss@@ 46
à 46
Ż@@ 46
י 46
؂ 46
فقد 46
ٲ@@ 46
ې@@ 46
ۚ 46
न@@ 46
ल@@ 46
ਵ@@ 46
Africa 45
All@@ 45
Association 45
B. 45
Blan@@ 45
Bot@@ 45
Cant@@ 45
Cath@@ 45
Dan@@ 45
Div@@ 45
E. 45
Jer@@ 45
Tam@@ 45
Tran@@ 45
aft 45
anne 45
art@@ 45
asa 45
can@@ 45
depend@@ 45
differ@@ 45
dol@@ 45
ect@@ 45
ects 45
eth 45
history 45
mes 45
ple 45
point 45
sin@@ 45
some 45
tal 45
âte@@ 45
ē@@ 45
А@@ 45
Со@@ 45
أس 45
قيق 45
قًا 45
كز 45
न 45
र 45
ﻪ@@ 45
Gaz@@ 44
Jac@@ 44
Kat@@ 44
Mach@@ 44
Men@@ 44
Nam@@ 44
Olympi@@ 44
Ren@@ 44
SP@@ 44
Techn@@ 44
You 44
aja 44
alia 44
aria 44
ave@@ 44
ce@@ 44
colspan 44
comple@@ 44
da@@ 44
eci@@ 44
ero 44
fu@@ 44
gen 44
ides 44
ip@@ 44
mes@@ 44
military 44
ner@@ 44
otte 44
ovi@@ 44
pur@@ 44
sit@@ 44
ust@@ 44
uti@@ 44
wa@@ 44
year 44
yo 44
yst@@ 44
ō 44
ž@@ 44
м@@ 44
ׁ@@ 44
ק@@ 44
म 44
स 44
ੇ 44
ﮉ@@ 44
ﹰ 44
ﺰ 44
ﻇ@@ 44
ﻉ 44
� 44
Ann@@ 43
Hi@@ 43
Man 43
Num@@ 43
Pa@@ 43
Paris 43
Sat@@ 43
Zi@@ 43
abri@@ 43
ami@@ 43
any@@ 43
asti@@ 43
attle 43
atur@@ 43
aut 43
between 43
err@@ 43
eum 43
ize 43
ken@@ 43
ks@@ 43
let@@ 43
los@@ 43
mac@@ 43
na@@ 43
ode 43
ois 43
plas@@ 43
tak@@ 43
uni 43
wal@@ 43
writ@@ 43
yth@@ 43
± 43
ür@@ 43
إذا 43
الحرب 43
انستان 43
بعة 43
مما 43
وروب@@ 43
ٸ 43
है 43
ੁ@@ 43
県 43
ﮓ 43
AP 42
Astr@@ 42
Atlan@@ 42
BA 42
C. 42
Cup 42
Dig@@ 42
H. 42
I. 42
Joseph 42
Law@@ 42
Ob@@ 42
Spr@@ 42
Victoria 42
ado@@ 42
ados 42
ament 42
development 42
earch 42
ican 42
ime 42
ito 42
iz 42
lin 42
list@@ 42
ments 42
mul@@ 42
plat@@ 42
port@@ 42
produc@@ 42
sexu@@ 42
small 42
âteau 42
ém@@ 42
н 42
ר 42
عبر 42
ਗ@@ 42
් 42
 42
Alli@@ 41
Blue 41
Braz@@ 41
Cast@@ 41
Fac@@ 41
GC 41
Land 41
Luc@@ 41
No 41
Robert 41
S.@@ 41
Sto@@ 41
Super@@ 41
Ven@@ 41
back 41
bes 41
bs 41
death 41
ders 41
eme 41
ements 41
gener@@ 41
ling 41
lis 41
mur@@ 41
neg@@ 41
omb@@ 41
prof@@ 41
ston 41
sych@@ 41
yd@@ 41
án@@ 41
æ@@ 41
ï@@ 41
ț 41
ؐ@@ 41
إلا 41
قام 41
یووا 41
ਰ 41
ு@@ 41
ﻼ 41
Corpor@@ 40
FA 40
Hay@@ 40
High 40
J. 40
Jah@@ 40
Joh@@ 40
MP@@ 40
On 40
Oper@@ 40
Rock 40
S. 40
Sk@@ 40
Syn@@ 40
VI@@ 40
Way@@ 40
aka 40
align 40
amu 40
aug@@ 40
cha 40
con 40
dens@@ 40
ester 40
mel@@ 40
mit 40
nam 40
pan@@ 40
play 40
radi@@ 40
sequ@@ 40
sour@@ 40
vers 40
wo@@ 40
э@@ 40
ؕ 40
الفل@@ 40
ம@@ 40
ர@@ 40
⇽ 40
ﭜ@@ 40
Arm@@ 39
Award 39
German 39
Harr@@ 39
Jus@@ 39
Kab@@ 39
Ot@@ 39
Progr@@ 39
Publi@@ 39
Rud@@ 39
Stu@@ 39
Tan@@ 39
Tem@@ 39
Win@@ 39
aut@@ 39
cat@@ 39
center 39
cep@@ 39
chen@@ 39
cher 39
contr@@ 39
ei 39
idi 39
ken 39
kno@@ 39
lege 39
mol@@ 39
new@@ 39
ny@@ 39
played 39
tain@@ 39
there 39
tho@@ 39
tu 39
ule 39
ult@@ 39
when 39
ár@@ 39
Ş@@ 39
Š@@ 39
а@@ 39
ג@@ 39
ז@@ 39
ל 39
الأر@@ 39
الإسلا@@ 39
سة 39
ضع 39
مية 39
وتح@@ 39
܂ 39
த@@ 39
Bern@@ 38
Bru@@ 38
Chem@@ 38
Democ@@ 38
Kin@@ 38
Kos@@ 38
Lit@@ 38
Not@@ 38
Plat@@ 38
Rou@@ 38
assi@@ 38
ax 38
bit 38
control 38
force 38
ger 38
hav@@ 38
iro 38
key 38
lit@@ 38
mod@@ 38
nay 38
prob@@ 38
put 38
sam 38
sin 38
syn@@ 38
té 38
vo 38
Ç@@ 38
är@@ 38
публика 38
ա@@ 38
كات 38
ਂ 38
☆ 38
Black 37
Canada 37
David 37
Dre@@ 37
FC 37
Han@@ 37
Hom@@ 37
KK 37
L. 37
MA 37
Radi@@ 37
SC 37
Society 37
Sun@@ 37
Tay@@ 37
V. 37
Venez@@ 37
W. 37
aland 37
alb@@ 37
atin 37
bri@@ 37
cine 37
ck 37
dan@@ 37
dh@@ 37
dir 37
dra@@ 37
ett 37
four@@ 37
gel@@ 37
imb@@ 37
inh 37
ister 37
lad@@ 37
mar 37
mb@@ 37
min 37
ples 37
polis 37
popul@@ 37
sign@@ 37
sim@@ 37
uz 37
ved 37
vili@@ 37
vor@@ 37
zor@@ 37
ɛ@@ 37
الأم@@ 37
بما 37
جماعة 37
حتى 37
ظه@@ 37
قلي@@ 37
ज 37
ੋ@@ 37
ா@@ 37
ﭺ 37
ﻻ 37
African 36
Barr@@ 36
Bau@@ 36
Charles 36
Din@@ 36
Domin@@ 36
Indonesia 36
Internet 36
Lib@@ 36
Ly@@ 36
Nak@@ 36
Pau@@ 36
Rail@@ 36
Ran@@ 36
SS@@ 36
Sand@@ 36
Tim@@ 36
Virginia 36
aceae 36
alls 36
anistan 36
aun@@ 36
aves 36
bac@@ 36
bei 36
curr@@ 36
dé@@ 36
eck@@ 36
engine 36
ennes 36
gs 36
house 36
if 36
ince 36
kam@@ 36
lem 36
len@@ 36
may 36
och 36
oo 36
pas 36
sil@@ 36
test 36
uba 36
vet@@ 36
wer@@ 36
xim@@ 36
yan@@ 36
ú@@ 36
у@@ 36
أر@@ 36
أي@@ 36
ڄ@@ 36
ۤ 36
শ@@ 36
ﻢ@@ 36
Army 35
Eng@@ 35
Flor@@ 35
Haz@@ 35
It@@ 35
Kom@@ 35
Net@@ 35
P. 35
Peter 35
Revol@@ 35
Richard 35
Station 35
USA 35
Uz@@ 35
Vic@@ 35
agement 35
ande 35
audi@@ 35
avi@@ 35
dium 35
dul@@ 35
eine 35
enberg 35
erre 35
ety 35
fil@@ 35
identi@@ 35
ived 35
liter@@ 35
loy@@ 35
multi@@ 35
nik 35
offici@@ 35
philos@@ 35
political 35
positi@@ 35
sen 35
sou@@ 35
squ@@ 35
techni@@ 35
these 35
three 35
ton@@ 35
vention 35
vice 35
ward 35
ène 35
ë 35
ğ@@ 35
ский 35
ادة 35
وهو 35
ښ@@ 35
ڪ 35
क@@ 35
द@@ 35
হ@@ 35
ମ@@ 35
ର@@ 35
ང 35
ﻕ 35
ﻦ@@ 35
Ale@@ 34
Boy@@ 34
Cop@@ 34
Ev@@ 34
He 34
Kn@@ 34
Liber@@ 34
Pad@@ 34
Red@@ 34
They 34
Thomas 34
Tour@@ 34
UK 34
WW@@ 34
ades 34
amba 34
around 34
asse 34
aud@@ 34
band 34
based 34
dal@@ 34
det@@ 34
ective 34
ells 34
ema 34
form@@ 34
fran@@ 34
gar 34
gi 34
head 34
hom@@ 34
indi@@ 34
ingu@@ 34
ion@@ 34
jer@@ 34
lag 34
long 34
met 34
mine 34
nav@@ 34
omo 34
original 34
proj@@ 34
rea 34
ref@@ 34
ser 34
sion@@ 34
spir@@ 34
thr@@ 34
ube 34
udi@@ 34
used 34
vill@@ 34
wes@@ 34
yi 34
yon 34
ö 34
ī 34
х@@ 34
آيت 34
امة 34
بها 34
حصل 34
ٓ 34
ړ@@ 34
ݨ@@ 34
त 34
জ@@ 34
ਬ@@ 34
ப@@ 34
Alb@@ 33
BS 33
Columb@@ 33
Constitu@@ 33
Dal@@ 33
Dol@@ 33
Grande 33
Hak@@ 33
Id@@ 33
Kad@@ 33
Kit@@ 33
Mary 33
Mill@@ 33
Museum 33
Nob@@ 33
Philipp@@ 33
Produc@@ 33
Rob@@ 33
Seg@@ 33
Sm@@ 33
TA 33
alg@@ 33
alt@@ 33
aly@@ 33
commun@@ 33
cus 33
expres@@ 33
fri@@ 33
get 33
ii 33
lead@@ 33
like 33
mill@@ 33
pil@@ 33
prin@@ 33
publi@@ 33
sburg 33
sta 33
tag@@ 33
tt@@ 33
uela 33
uerto 33
uli 33
under@@ 33
var@@ 33
vari@@ 33
win 33
women 33
ín 33
ă@@ 33
р 33
التق@@ 33
الفي@@ 33
ذلك 33
سمبر 33
ڳ@@ 33
वा@@ 33
ारा 33
প@@ 33
ੂ@@ 33
ﺚ 33
Australia 32
Bes@@ 32
Cu@@ 32
Edward 32
Fam@@ 32
Jor@@ 32
Kul@@ 32
Lor@@ 32
Mass@@ 32
Math@@ 32
Pin@@ 32
Scot@@ 32
To 32
Vid@@ 32
abor@@ 32
act@@ 32
afa 32
aqu@@ 32
arti@@ 32
cens@@ 32
ces@@ 32
conn@@ 32
cos@@ 32
eb 32
egr@@ 32
ela 32
esi 32
hel@@ 32
inv@@ 32
jan@@ 32
jo@@ 32
kin 32
nati@@ 32
neu@@ 32
num@@ 32
part 32
po 32
position 32
post 32
resp@@ 32
stor@@ 32
tica 32
ustri@@ 32
vil@@ 32
wala 32
west 32
yo@@ 32
ñ@@ 32
ø@@ 32
и 32
о 32
с@@ 32
التي 32
العام 32
سياسي 32
طي 32
كبير 32
ۀ 32
क 32
द 32
ो 32
গ@@ 32
ੱ@@ 32
☃ 32
ﮅ@@ 32
🐢 32
----@@ 31
Brit@@ 31
Dé@@ 31
Europe 31
Hen@@ 31
Ig@@ 31
K. 31
Ka@@ 31
Kir@@ 31
May 31
Milit@@ 31
Name 31
PC 31
Prin@@ 31
Son@@ 31
Squ@@ 31
aco 31
acter@@ 31
active 31
andes 31
andi@@ 31
avi 31
bet@@ 31
bin 31
defin@@ 31
dern 31
dur@@ 31
eds 31
ev 31
extr@@ 31
fal@@ 31
fe 31
feder@@ 31
grav@@ 31
idi@@ 31
international 31
ister@@ 31
kel@@ 31
lov@@ 31
mand@@ 31
ministr@@ 31
modern 31
ordin@@ 31
period 31
ram@@ 31
sep@@ 31
social 31
sor@@ 31
support 31
third 31
tron@@ 31
uj@@ 31
ules 31
vic@@ 31
vil 31
Ö@@ 31
ève 31
ía 31
ı 31
К@@ 31
أي 31
للا@@ 31
ٻ@@ 31
ফ@@ 31
ਜ@@ 31
ੇ@@ 31
ರ@@ 31
ﻆ 31
Academy 30
Amer@@ 30
Francisco 30
Ky@@ 30
Kö@@ 30
Les@@ 30
Prof@@ 30
Studi@@ 30
Tit@@ 30
Tour 30
agua 30
aise 30
ald 30
amer@@ 30
ando 30
annel 30
anth@@ 30
arc@@ 30
being 30
ben@@ 30
bia 30
chia 30
coll@@ 30
die 30
dri@@ 30
ej@@ 30
ep 30
eral 30
esa 30
eti 30
ett@@ 30
former 30
heim 30
him@@ 30
home 30
hur@@ 30
ily 30
kan@@ 30
km 30
kö@@ 30
may@@ 30
ned 30
ought 30
pas@@ 30
plac@@ 30
published 30
ses 30
such 30
sum@@ 30
using 30
wr@@ 30
к 30
л@@ 30
на 30
ы@@ 30
الدي@@ 30
القان@@ 30
اللا@@ 30
المي@@ 30
فيه 30
مجمو@@ 30
ۤ@@ 30
य@@ 30
ம 30
് 30
ﮠ 30
ﮧ@@ 30
ﺢ 30
Band 29
Cab@@ 29
Club 29
DS 29
Eu@@ 29
Fol@@ 29
Gel@@ 29
January 29
Kre@@ 29
Lon@@ 29
Lord 29
Los 29
March 29
Orig@@ 29
Rot@@ 29
There 29
XX@@ 29
ady 29
aille 29
anci@@ 29
anda 29
angi 29
asi 29
asp@@ 29
aud 29
ayan 29
bach 29
chester 29
cou@@ 29
dat@@ 29
eer 29
ele 29
els@@ 29
family 29
fer 29
jo 29
ker@@ 29
lock 29
mach@@ 29
mid@@ 29
nov@@ 29
off 29
opo@@ 29
part@@ 29
play@@ 29
qu 29
ras@@ 29
rem@@ 29
sem@@ 29
spe@@ 29
stadt 29
sul@@ 29
syst@@ 29
tus 29
ues 29
ulu 29
vec@@ 29
vid@@ 29
won 29
ú 29
Ка@@ 29
ס@@ 29
ابة 29
الأس@@ 29
وإ@@ 29
ە@@ 29
ट@@ 29
ன 29
ར@@ 29
： 29
Acc@@ 28
Argentina 28
August 28
Gem@@ 28
Hav@@ 28
Lee 28
Lev@@ 28
Lud@@ 28
Maria 28
Mit@@ 28
Pic@@ 28
President 28
Um@@ 28
Wah@@ 28
Yar@@ 28
aca 28
acu@@ 28
ahl@@ 28
anti 28
ator@@ 28
before 28
chil@@ 28
cli@@ 28
color 28
dition 28
dorf 28
eto 28
fus@@ 28
ict 28
ific@@ 28
illo 28
ils 28
inger 28
iran 28
isa 28
isation 28
itation 28
ius 28
just 28
kal@@ 28
lers 28
lev@@ 28
lic@@ 28
lie 28
mann 28
mark 28
odi@@ 28
og 28
oro 28
rat 28
recog@@ 28
respon@@ 28
san@@ 28
tia 28
uli@@ 28
umb@@ 28
ump@@ 28
uses 28
vent@@ 28
versi@@ 28
works 28
yal@@ 28
² 28
Á@@ 28
â 28
éli@@ 28
й 28
צ@@ 28
الدرا@@ 28
څ@@ 28
۽ 28
۾ 28
रा@@ 28
ਨ 28
ਲ 28
క@@ 28
ོ@@ 28
ﭤ@@ 28
ﮂ@@ 28
Big 27
Def@@ 27
Dr. 27
Ken@@ 27
Kil@@ 27
Pier@@ 27
Rap@@ 27
Sig@@ 27
Smith 27
Span@@ 27
Stan@@ 27
Thi@@ 27
Wa@@ 27
aining 27
ards 27
ares 27
ativ@@ 27
bom@@ 27
bour@@ 27
bul@@ 27
cil 27
design@@ 27
don@@ 27
dru@@ 27
eni 27
ento 27
ered 27
fa 27
fied 27
gian 27
haz@@ 27
hist@@ 27
iliz@@ 27
ills 27
ista 27
itz 27
los 27
lot 27
make 27
mo 27
natural 27
ova 27
pin@@ 27
production 27
rac@@ 27
sig@@ 27
since 27
star@@ 27
ume 27
urn@@ 27
where 27
win@@ 27
yer 27
ás@@ 27
êt 27
но@@ 27
т@@ 27
جامعة 27
هذه 27
يست@@ 27
ۙ 27
र@@ 27
व@@ 27
দ@@ 27
ল 27
ী 27
ਜ 27
੍ 27
ა@@ 27
Bec@@ 26
Bib@@ 26
Brown 26
By 26
Comp@@ 26
Cul@@ 26
F. 26
Micro@@ 26
Mun@@ 26
Nat@@ 26
Natur@@ 26
Ny@@ 26
Rein@@ 26
Sup@@ 26
Tanzania 26
Web@@ 26
ace@@ 26
bo 26
ded 26
deg@@ 26
exp@@ 26
fab@@ 26
ference 26
gan@@ 26
hap@@ 26
hosp@@ 26
ices 26
ident 26
ien 26
ina@@ 26
ished 26
jur@@ 26
khi 26
member 26
oi 26
olan 26
ons@@ 26
ony@@ 26
phy@@ 26
pression 26
pri@@ 26
prov@@ 26
religi@@ 26
resul@@ 26
sac@@ 26
sions 26
stre@@ 26
stud@@ 26
unds 26
union 26
yon@@ 26
ör@@ 26
ς 26
ци@@ 26
أد@@ 26
بريل 26
تصني@@ 26
ظهر 26
فإن 26
كة 26
ڌ@@ 26
ल 26
ನ@@ 26
‬ 26
√ 26
 26
ﮒ 26
Anth@@ 25
BM@@ 25
Bet@@ 25
Doc@@ 25
Fel@@ 25
Fil@@ 25
Hit@@ 25
Ing@@ 25
Israel 25
Ital@@ 25
Leb@@ 25
Lig@@ 25
Luis 25
Ok@@ 25
Phili@@ 25
Roy@@ 25
Tab@@ 25
XVIII 25
Yun@@ 25
aji 25
base 25
bec@@ 25
board 25
both 25
building 25
cip@@ 25
dies 25
edi 25
elli 25
enci@@ 25
esp@@ 25
eta 25
evi@@ 25
fic@@ 25
ges@@ 25
haus@@ 25
ika 25
iti 25
ité 25
later 25
lieu 25
lob@@ 25
lor@@ 25
mak@@ 25
ogr@@ 25
oman 25
oy 25
pat@@ 25
plan@@ 25
record@@ 25
rey 25
separ@@ 25
sing 25
sing@@ 25
sm@@ 25
sus 25
times 25
tres 25
tric@@ 25
urg@@ 25
wing 25
zer@@ 25
å 25
és 25
ð@@ 25
ô 25
öl@@ 25
ź@@ 25
ɔ@@ 25
в@@ 25
к@@ 25
ка@@ 25
א 25
الاتحاد 25
ّة 25
अ@@ 25
मा@@ 25
य 25
हम@@ 25
१ 25
ঙ 25
় 25
ా@@ 25
ಿ@@ 25
€ 25
↑ 25
﷫ 25
ﺵ 25
.S. 24
Anton@@ 24
Argent@@ 24
Art 24
Aug@@ 24
Ben 24
Conn@@ 24
FIFA 24
Gö@@ 24
Kay@@ 24
Tok@@ 24
Van 24
Viet@@ 24
alar@@ 24
alif@@ 24
apa 24
atus 24
bek@@ 24
cla@@ 24
construction 24
contin@@ 24
def@@ 24
distr@@ 24
domin@@ 24
eck 24
enburg 24
erry 24
eus 24
general 24
gia 24
grou@@ 24
iller 24
included 24
lang 24
led 24
less 24
liz@@ 24
mah@@ 24
major 24
mos@@ 24
ogen 24
ord 24
orig@@ 24
pay@@ 24
pon 24
several 24
shu@@ 24
trac@@ 24
trop@@ 24
tures 24
usa 24
usi@@ 24
various 24
vor 24
wi 24
zam@@ 24
à@@ 24
š 24
α 24
г@@ 24
ка 24
القي@@ 24
تخب 24
كما 24
مج 24
ٕ 24
दूर 24
श 24
हि@@ 24
ੀ@@ 24
♦ 24
Abr@@ 23
Alexander 23
Force 23
Fri@@ 23
Got@@ 23
Leon@@ 23
Love 23
Prim@@ 23
Rog@@ 23
Sant@@ 23
Sur 23
Tang@@ 23
Texas 23
Vit@@ 23
Was@@ 23
Wol@@ 23
You@@ 23
aban 23
abeth 23
alar 23
alli@@ 23
ander 23
anus 23
appro@@ 23
asc@@ 23
azar@@ 23
azine 23
chu@@ 23
commer@@ 23
cour@@ 23
docum@@ 23
etes 23
fam@@ 23
far@@ 23
ierra 23
inclu@@ 23
including 23
ird 23
itu@@ 23
kil@@ 23
kir@@ 23
kon@@ 23
liv@@ 23
made 23
media 23
nd@@ 23
ockey 23
oire 23
oka 23
oti@@ 23
over@@ 23
plant@@ 23
quar@@ 23
rich@@ 23
rière 23
run@@ 23
sab@@ 23
series 23
stan@@ 23
tas@@ 23
then 23
tory 23
tour@@ 23
trol@@ 23
uld 23
video 23
while 23
zo 23
zone 23
Ü@@ 23
ül@@ 23
İ@@ 23
ș@@ 23
π 23
М@@ 23
ла@@ 23
т 23
ֲ@@ 23
القرن 23
المك@@ 23
الولا@@ 23
شارك 23
وكان 23
ٽ 23
का 23
स@@ 23
য 23
வ@@ 23
大@@ 23
 23
ﻛ@@ 23
.C. 22
Alt@@ 22
Anne 22
Arthur 22
Cle@@ 22
Fut@@ 22
Gold@@ 22
Gra@@ 22
Hall 22
Jacques 22
June 22
League 22
Liter@@ 22
Pop@@ 22
Sach@@ 22
Sher@@ 22
Star@@ 22
` 22
activ@@ 22
adel@@ 22
aer@@ 22
aill@@ 22
aus 22
aver@@ 22
ayo 22
bus 22
central 22
class@@ 22
com 22
dam 22
different 22
dit 22
dos 22
dre@@ 22
edo 22
este 22
hiv@@ 22
icul@@ 22
influ@@ 22
inst@@ 22
kg 22
ku 22
larg@@ 22
lay@@ 22
lia 22
liber@@ 22
lit 22
live 22
located 22
mem@@ 22
nu@@ 22
onal@@ 22
pain@@ 22
park 22
popular 22
rap@@ 22
rif@@ 22
rup@@ 22
sam@@ 22
sav@@ 22
sey@@ 22
sist@@ 22
tains 22
tam@@ 22
tern@@ 22
through 22
tigen 22
tradi@@ 22
uma 22
uta 22
what 22
Î@@ 22
ét@@ 22
ź 22
ʃ@@ 22
али@@ 22
г 22
ный 22
إ 22
اته 22
سمي 22
لها 22
نامج 22
ڤ@@ 22
ڻ 22
का@@ 22
छ@@ 22
श@@ 22
ਆ@@ 22
ਭ@@ 22
ತ@@ 22
ි@@ 22
ე@@ 22
山@@ 22
ﭻ 22
ﮄ@@ 22
Biz@@ 21
DR 21
Distr@@ 21
EP 21
Gener@@ 21
Google 21
Kap@@ 21
Kis@@ 21
Kut@@ 21
Lis@@ 21
Michael 21
Mut@@ 21
Pil@@ 21
Proj@@ 21
Say@@ 21
Whit@@ 21
alian 21
alla 21
alle 21
alog@@ 21
ample 21
ango 21
annes 21
ardo 21
born 21
bos@@ 21
carr@@ 21
ck@@ 21
cription 21
edit@@ 21
elected 21
ement@@ 21
emi 21
emple 21
encia 21
ently 21
fig@@ 21
film 21
game 21
hay@@ 21
histor@@ 21
icia 21
igan 21
igh 21
kad@@ 21
lav@@ 21
law@@ 21
mara 21
otr@@ 21
pass@@ 21
pha 21
pun@@ 21
record 21
rez 21
termin@@ 21
tha 21
trav@@ 21
ven 21
version 21
vie@@ 21
vin@@ 21
ì 21
ío 21
ım 21
Ō@@ 21
ʁ@@ 21
д@@ 21
ро@@ 21
افة 21
المسي@@ 21
بسبب 21
رئيس 21
لدي@@ 21
ګ@@ 21
ण 21
प 21
ब@@ 21
ला 21
ে 21
ਅ@@ 21
ਤ 21
ସ@@ 21
ା 21
ୁ@@ 21
ನ 21
ი 21
რ@@ 21
ﺾ 21
Andre@@ 20
Arg@@ 20
Ath@@ 20
Christian 20
Distribu@@ 20
Eliz@@ 20
Emp@@ 20
Fak@@ 20
Film 20
Kun@@ 20
Me 20
Open 20
Spe@@ 20
Tex@@ 20
These 20
XX 20
ables 20
aden 20
afr@@ 20
ague 20
ambi@@ 20
apar@@ 20
arri@@ 20
ason 20
bara 20
cer 20
charac@@ 20
cle@@ 20
conduc@@ 20
culture 20
design 20
develop@@ 20
ectiv@@ 20
emen 20
erie 20
ers@@ 20
fem@@ 20
flo@@ 20
hat 20
high@@ 20
hon@@ 20
imi 20
irs 20
isi 20
isl@@ 20
len 20
ley@@ 20
ligh@@ 20
lor 20
ment@@ 20
mom@@ 20
numer@@ 20
ose 20
pi 20
poli@@ 20
prac@@ 20
represent@@ 20
secre@@ 20
super@@ 20
sus@@ 20
test@@ 20
tif@@ 20
took 20
traf@@ 20
ui@@ 20
voc@@ 20
wel@@ 20
ya@@ 20
yar@@ 20
zar@@ 20
zer 20
zu@@ 20
éc@@ 20
ê 20
õ@@ 20
ın 20
ǎ@@ 20
ɪ@@ 20
α@@ 20
δ@@ 20
И@@ 20
ба@@ 20
за@@ 20
ш@@ 20
؀ 20
أش@@ 20
العربية 20
العص@@ 20
تقل 20
تلك 20
ثة 20
فيها 20
لعب 20
چنان@@ 20
ग 20
ज@@ 20
त@@ 20
দ 20
ੈ@@ 20
ି@@ 20
ག 20
◾ 20
 20
ﻡ@@ 20
Aires 19
BBC 19
Clau@@ 19
Deb@@ 19
Esp@@ 19
February 19
Form@@ 19
From 19
Hug@@ 19
Music 19
Parti@@ 19
Paulo 19
Person@@ 19
Real 19
Star 19
Univers@@ 19
Wes@@ 19
Windows 19
adan 19
adr@@ 19
agen 19
aha 19
alis 19
alle@@ 19
ames 19
anger 19
became 19
because 19
bed 19
bit@@ 19
box 19
bun@@ 19
ca@@ 19
called 19
chang@@ 19
cho@@ 19
ci 19
cit@@ 19
const@@ 19
cut 19
edy 19
ehr 19
embr@@ 19
eva 19
event@@ 19
financi@@ 19
follow@@ 19
gal@@ 19
gir@@ 19
given 19
hut@@ 19
idae 19
idence 19
ition 19
kara 19
med@@ 19
near 19
nec@@ 19
oj@@ 19
ores 19
oria 19
pic@@ 19
pose 19
princip@@ 19
rain 19
rant 19
say@@ 19
scienti@@ 19
sed 19
sel 19
toral 19
trong 19
typ@@ 19
umin@@ 19
uru 19
yu 19
§ 19
ège 19
én 19
év@@ 19
ña 19
ön@@ 19
ć@@ 19
Č@@ 19
ƒ 19
Φ 19
β@@ 19
κ@@ 19
ν@@ 19
публи@@ 19
с 19
ы 19
باسم 19
كانت 19
आ@@ 19
ता@@ 19
व 19
ি 19
ਟ 19
ச@@ 19
ட@@ 19
ి@@ 19
ཁ@@ 19
⁄ 19
ﮌ 19
ﮟ@@ 19
ﺕ@@ 19
Alexand@@ 18
Arth@@ 18
Buenos 18
CN 18
Die 18
Ein@@ 18
Fern@@ 18
Hir@@ 18
Hist@@ 18
Journ@@ 18
Luf@@ 18
Meg@@ 18
Mik@@ 18
Patr@@ 18
Rod@@ 18
Roman 18
Seb@@ 18
Ukr@@ 18
Yer@@ 18
ache 18
aissance 18
amii 18
ances 18
ante 18
ats@@ 18
aume 18
ayn@@ 18
bourg 18
cam@@ 18
capit@@ 18
case 18
charg@@ 18
chen 18
clus@@ 18
craft 18
dor@@ 18
eller 18
elo 18
eno 18
envir@@ 18
erk@@ 18
esse 18
essor 18
fu 18
full 18
geb@@ 18
get@@ 18
gradu@@ 18
high 18
ief 18
iger 18
igi@@ 18
jam@@ 18
kur@@ 18
lake 18
lik@@ 18
lip@@ 18
lui 18
lum 18
lé@@ 18
par 18
que@@ 18
som@@ 18
stant@@ 18
tario 18
temp@@ 18
tie 18
top@@ 18
tos 18
tran@@ 18
tru@@ 18
until 18
usal@@ 18
verg@@ 18
von 18
wil@@ 18
yle 18
zon 18
ý@@ 18
ın@@ 18
Σ@@ 18
θ@@ 18
ον 18
ός 18
С@@ 18
У@@ 18
а 18
б@@ 18
в 18
н@@ 18
ная 18
أل@@ 18
توي 18
لية 18
ڻ@@ 18
की 18
ख 18
ফ 18
ম 18
ী@@ 18
ਿ 18
ବ@@ 18
ய@@ 18
ு 18
ಗ@@ 18
ྫ@@ 18
თ@@ 18
ი@@ 18
∗ 18
中@@ 18
 18
ﺖ@@ 18
ﻚ@@ 18
ﻞ@@ 18
Afr@@ 17
Albert 17
Australian 17
Centr@@ 17
December 17
Direc@@ 17
Eur@@ 17
Hand@@ 17
Institu@@ 17
Juni@@ 17
Long 17
Madrid 17
Nam 17
Nis@@ 17
Scott 17
Soh@@ 17
Song 17
Tek@@ 17
Wak@@ 17
Yah@@ 17
adem@@ 17
alo 17
anan 17
ander@@ 17
ape 17
ately 17
atur 17
añ@@ 17
beau@@ 17
become 17
ben 17
bon@@ 17
compos@@ 17
cum@@ 17
did 17
dil@@ 17
ego 17
ei@@ 17
eil 17
ept@@ 17
established 17
ete 17
fon@@ 17
gemein@@ 17
gio 17
hil 17
ically 17
indi 17
ische 17
ised 17
ishi 17
ism@@ 17
issu@@ 17
ket@@ 17
kor@@ 17
left 17
lik 17
mm 17
nation@@ 17
ograp@@ 17
ops 17
osp@@ 17
ots 17
sch 17
service 17
sons 17
stati@@ 17
suff@@ 17
tari@@ 17
temper@@ 17
tempor@@ 17
tific@@ 17
tit@@ 17
tribu@@ 17
umi 17
unda 17
uro 17
vers@@ 17
än@@ 17
éri@@ 17
ʻ@@ 17
σ@@ 17
φ@@ 17
й@@ 17
ль@@ 17
та@@ 17
ь@@ 17
ט@@ 17
أث@@ 17
أحد 17
الخار@@ 17
انية 17
زيرة 17
عبة 17
غة 17
مدينة 17
والأ@@ 17
ټ@@ 17
ڊ 17
ڌ 17
ۍ 17
ग@@ 17
दु@@ 17
फ 17
ब 17
बा@@ 17
या 17
री 17
रु@@ 17
ु 17
ु@@ 17
ਚ@@ 17
ੜ@@ 17
ર@@ 17
க 17
த 17
ந@@ 17
ತ 17
ು 17
ს@@ 17
ḥ@@ 17
ン@@ 17
海@@ 17
 17
ﺽ 17
ﻥ@@ 17
Ant@@ 16
At 16
Augus@@ 16
Beg@@ 16
Famil@@ 16
Hosp@@ 16
However 16
Isra@@ 16
Jes@@ 16
July 16
Mex@@ 16
Nig@@ 16
Nik@@ 16
Play@@ 16
Roma 16
Steph@@ 16
Su 16
Tari@@ 16
UE@@ 16
aborat@@ 16
aces 16
acha 16
alt 16
anes 16
anta 16
anya 16
aro 16
ayr@@ 16
bab@@ 16
cent@@ 16
cho 16
conver@@ 16
could 16
course 16
cro@@ 16
dist@@ 16
due 16
eca 16
ends 16
eron 16
estr@@ 16
etz@@ 16
ext@@ 16
father 16
final 16
football 16
found@@ 16
gol@@ 16
hand@@ 16
hara 16
held 16
hips 16
hui 16
hus@@ 16
ided 16
iga 16
illes 16
important 16
inas 16
isch 16
iter@@ 16
kas@@ 16
mas 16
nas@@ 16
née 16
olo 16
onald 16
pend@@ 16
pia 16
prom@@ 16
promot@@ 16
près 16
ric@@ 16
road 16
rod@@ 16
rot@@ 16
rou@@ 16
sat@@ 16
some@@ 16
sta@@ 16
strat@@ 16
tot@@ 16
tun@@ 16
uka 16
ular@@ 16
vin 16
wen@@ 16
yal 16
ün@@ 16
ě@@ 16
ı@@ 16
ʿ@@ 16
ία 16
β 16
π@@ 16
ρ 16
е 16
ми 16
на@@ 16
ра 16
ра@@ 16
я 16
ד 16
أما 16
التعل@@ 16
الذين 16
النه@@ 16
ضة 16
هة 16
ܐ 16
ख@@ 16
जी 16
ना@@ 16
ली 16
सु@@ 16
ા@@ 16
ର 16
ఖ@@ 16
మ@@ 16
ದ@@ 16
ಮ@@ 16
བ@@ 16
⭐ 16
の 16
ス@@ 16
天@@ 16
ﭖ@@ 16
ﭴ@@ 16
ﮀ@@ 16
ﺙ 16
🌺 16
AG 15
Arts 15
Best 15
Burundi 15
Christi@@ 15
Eri@@ 15
Franc@@ 15
François 15
Media 15
Nach@@ 15
Ng@@ 15
Ober@@ 15
Olymp@@ 15
Pedro 15
Rum@@ 15
Tod@@ 15
Wan@@ 15
Willi@@ 15
Young 15
aged 15
agre@@ 15
alan@@ 15
alit@@ 15
anza 15
apon 15
aç@@ 15
best 15
bio 15
c. 15
camp@@ 15
cia 15
cole 15
compl@@ 15
dam@@ 15
destr@@ 15
diff@@ 15
dio 15
early 15
eaux 15
ectu@@ 15
eder@@ 15
election 15
empl@@ 15
ended 15
endi 15
entes 15
eur@@ 15
feld 15
five 15
fle@@ 15
found 15
ging 15
gol 15
govern@@ 15
half 15
hari@@ 15
head@@ 15
ig 15
isse 15
kab@@ 15
kul@@ 15
leng@@ 15
long@@ 15
mani@@ 15
nch@@ 15
nit@@ 15
né 15
oci@@ 15
police 15
pre 15
pris@@ 15
program 15
quan 15
r. 15
retur@@ 15
rich 15
rid 15
rie 15
ris@@ 15
saf@@ 15
said 15
short 15
sun@@ 15
terior 15
tex@@ 15
tou@@ 15
tras@@ 15
uel 15
uer@@ 15
unk@@ 15
vier 15
vit@@ 15
wani 15
ween 15
zen@@ 15
äl@@ 15
ède 15
œ@@ 15
ɑ 15
Χ@@ 15
Д@@ 15
вет@@ 15
з@@ 15
м 15
ни 15
ч@@ 15
э 15
я@@ 15
і 15
أف@@ 15
أنه 15
اعة 15
الأص@@ 15
التاريخ 15
الرئ@@ 15
طة 15
مرة 15
يؤ@@ 15
ः 15
ता 15
ना 15
प@@ 15
सं@@ 15
ृ@@ 15
ং@@ 15
ই@@ 15
ক 15
ੈ 15
ପ@@ 15
ି 15
ெ@@ 15
ை@@ 15
ర@@ 15
ల@@ 15
ಾ@@ 15
ೆ 15
න 15
ර@@ 15
ས@@ 15
ლ@@ 15
ო@@ 15
ṭ@@ 15
ッ@@ 15
ン 15
ー 15
国 15
 15
ﮭ 15
﷾ 15
0.000 14
Bed@@ 14
Berlin 14
Bez@@ 14
Buc@@ 14
Buch@@ 14
Daniel 14
Don 14
Et@@ 14
Gas@@ 14
Ges@@ 14
Henri 14
Hot@@ 14
John@@ 14
Jose@@ 14
Mark 14
Mek@@ 14
Microsoft 14
Mod@@ 14
October 14
Sa 14
She 14
Super 14
Vik@@ 14
Yor@@ 14
adol@@ 14
alter@@ 14
anni@@ 14
ağ@@ 14
aş@@ 14
baz@@ 14
bol 14
bt 14
conf@@ 14
cos 14
cus@@ 14
cá@@ 14
dez 14
dial 14
eda 14
enant 14
ender 14
enf@@ 14
exist@@ 14
fall 14
four 14
fut@@ 14
gö@@ 14
habitants 14
hadi 14
hr 14
ias 14
ift 14
ilg@@ 14
imp@@ 14
information 14
inga 14
ingo 14
integr@@ 14
inus 14
ishing 14
jun@@ 14
kap@@ 14
kazi 14
kes@@ 14
km@@ 14
kn@@ 14
kol@@ 14
late 14
ls 14
lus@@ 14
main@@ 14
nant 14
nes@@ 14
next 14
north 14
ogo 14
ologi@@ 14
polic@@ 14
publ@@ 14
red@@ 14
relig@@ 14
rol 14
ses@@ 14
sie 14
sis 14
stanbul 14
stell@@ 14
take 14
though 14
tique 14
tín 14
uss 14
viol@@ 14
zu 14
ä 14
éch@@ 14
ő@@ 14
ɡ@@ 14
ɪ 14
ʊ 14
ː@@ 14
Β@@ 14
Λ@@ 14
ο 14
Са@@ 14
Т@@ 14
Х@@ 14
де@@ 14
о@@ 14
қ@@ 14
ү@@ 14
ו 14
أغ@@ 14
الطبي@@ 14
طاني 14
طريق 14
فية 14
كبي@@ 14
مانيا 14
कु@@ 14
ति@@ 14
तु@@ 14
भ@@ 14
ভ@@ 14
ਖ@@ 14
ਟ@@ 14
କ@@ 14
ා@@ 14
ු@@ 14
უ@@ 14
Ἰ@@ 14
‑ 14
新@@ 14
本@@ 14
ﮁ@@ 14
ﮝ@@ 14
ﮡ 14
ﯼ@@ 14
🌹 14
Ankara 13
Cin@@ 13
Deutsch@@ 13
Frank@@ 13
Franç@@ 13
Fried@@ 13
Friedrich 13
His 13
Il 13
Jap@@ 13
Live 13
Mec@@ 13
Par 13
September 13
Sov@@ 13
Tou@@ 13
Universit@@ 13
Vor@@ 13
When 13
XV@@ 13
Yo@@ 13
ager 13
alim@@ 13
amin@@ 13
angel@@ 13
anos 13
archit@@ 13
atre 13
auf 13
autom@@ 13
away 13
bak@@ 13
bau@@ 13
bay 13
ble@@ 13
boy@@ 13
bres 13
burg@@ 13
capac@@ 13
chin@@ 13
cht 13
cm 13
conqu@@ 13
dav@@ 13
dis 13
distribu@@ 13
east 13
elen 13
elt 13
eran 13
eur 13
exper@@ 13
explo@@ 13
fen@@ 13
fici@@ 13
hak@@ 13
hard 13
idad 13
ife 13
igo 13
ilia 13
incre@@ 13
inos 13
invol@@ 13
jaw@@ 13
jum@@ 13
kat@@ 13
kho@@ 13
lag@@ 13
large 13
libr@@ 13
ling@@ 13
lis@@ 13
mab@@ 13
mari@@ 13
material 13
members 13
mili@@ 13
occ@@ 13
oko 13
olo@@ 13
onder@@ 13
orient@@ 13
present 13
present@@ 13
provid@@ 13
provin@@ 13
rique 13
scor@@ 13
south 13
started 13
tad@@ 13
tes@@ 13
ths 13
tn@@ 13
tribut@@ 13
ungs@@ 13
uzi 13
ving 13
visi@@ 13
who@@ 13
xe 13
yat@@ 13
zw@@ 13
¥ 13
¼ 13
ál@@ 13
ç 13
î 13
ē 13
ır 13
ū 13
ż 13
ɾ@@ 13
ʼ@@ 13
ή 13
αν@@ 13
ει@@ 13
μ@@ 13
ω@@ 13
Г@@ 13
Ко@@ 13
Ре@@ 13
ж@@ 13
з 13
л 13
окру@@ 13
рай@@ 13
ск 13
ц@@ 13
ш 13
ї@@ 13
ј@@ 13
ի@@ 13
ע 13
أك@@ 13
تمبر 13
دولة 13
سية 13
وية 13
ينة 13
ۢ 13
जि@@ 13
চ@@ 13
ਗ 13
ੁ 13
ੌ@@ 13
ହ@@ 13
େ@@ 13
ல@@ 13
ම@@ 13
ව@@ 13
タ@@ 13
モ@@ 13
日@@ 13
 13
Academ@@ 12
After 12
Am 12
Berg@@ 12
Blu@@ 12
Boston 12
Canadi@@ 12
Elle 12
Entertainment 12
Histori@@ 12
Jackson 12
Johnson 12
José 12
Kenn@@ 12
Kid@@ 12
Kl@@ 12
Migu@@ 12
Partido 12
Radio 12
Riv@@ 12
Rol@@ 12
Si 12
Stre@@ 12
Syst@@ 12
Sü@@ 12
Tom 12
Wer@@ 12
Williams 12
With 12
abab@@ 12
abe 12
ained 12
allas 12
amo 12
ario 12
aster@@ 12
atos 12
aup@@ 12
bah@@ 12
bay@@ 12
bre 12
carri@@ 12
ched 12
concentr@@ 12
condi@@ 12
defe@@ 12
each 12
ende 12
ending 12
ensis 12
ests 12
fi 12
forces 12
frag@@ 12
fund@@ 12
gun 12
habit@@ 12
haf@@ 12
hin 12
hud@@ 12
iden 12
interpre@@ 12
ique 12
iş@@ 12
jap@@ 12
kom@@ 12
lara 12
lie@@ 12
march@@ 12
match 12
office 12
olf 12
open@@ 12
para 12
party 12
person@@ 12
plan 12
ppe 12
propor@@ 12
public@@ 12
reci@@ 12
requ@@ 12
rest@@ 12
rier 12
run 12
sche 12
seg@@ 12
song 12
spor@@ 12
tas 12
terr@@ 12
those 12
tico 12
tiz@@ 12
tra@@ 12
trol 12
ually 12
ums 12
unci@@ 12
unga 12
unter 12
ustr@@ 12
verdi 12
versit@@ 12
voir 12
wak@@ 12
wards 12
was@@ 12
yak@@ 12
yas@@ 12
yet 12
zel@@ 12
zon@@ 12
© 12
ás 12
éré 12
ì@@ 12
ño 12
ɔ 12
̃ 12
Κ@@ 12
ε@@ 12
η 12
λ@@ 12
ν 12
στ@@ 12
τ@@ 12
Н@@ 12
Р@@ 12
авто@@ 12
ар@@ 12
ва 12
ви@@ 12
д 12
до@@ 12
е@@ 12
коно@@ 12
ла 12
льный 12
ни@@ 12
ре@@ 12
ри@@ 12
ство 12
у 12
ե@@ 12
ո@@ 12
ֱ@@ 12
ב 12
ך@@ 12
؏ 12
الأولى 12
المدينة 12
اية 12
حين 12
خرى 12
زية 12
عية 12
مايو 12
منها 12
يرة 12
َّة 12
ٿ@@ 12
ं 12
ंग@@ 12
ऐ 12
कर 12
जहाँ 12
ट 12
टी 12
ड 12
तान 12
ध@@ 12
ने 12
पा@@ 12
मु@@ 12
या@@ 12
वि@@ 12
सि@@ 12
গ 12
ত 12
ਕ 12
ਬ 12
ତ@@ 12
ు 12
ು@@ 12
ക@@ 12
ල@@ 12
ད@@ 12
ა 12
ṣ@@ 12
ῖ@@ 12
の@@ 12
ケ@@ 12
地方 12
 12
ﭠ@@ 12
ﮍ 12
ﮘ@@ 12
ﺞ 12
ﺺ 12
🐱 12
🔸 12
.000 11
Ander@@ 11
Angeles 11
Antonio 11
Aus@@ 11
Bow@@ 11
Bun@@ 11
DVD 11
Das 11
Football 11
Form 11
Hamb@@ 11
Inn@@ 11
Jack 11
Jones 11
Jos@@ 11
Kamp@@ 11
Karl 11
Kenya 11
María 11
Max 11
Nati@@ 11
Santiago 11
Thom@@ 11
Times 11
acio 11
agric@@ 11
aifa 11
angu 11
anl@@ 11
another 11
anı 11
aten 11
ater@@ 11
atri@@ 11
atu 11
auto@@ 11
ball 11
bir 11
bli@@ 11
but@@ 11
came 11
caus@@ 11
chr@@ 11
ción 11
clos@@ 11
clu@@ 11
combin@@ 11
cover@@ 11
dings 11
ega 11
eki 11
eles 11
ener 11
enta 11
enth@@ 11
esses 11
few 11
fo 11
foc@@ 11
ful@@ 11
fur@@ 11
gang 11
gres@@ 11
hem 11
ible 11
ido 11
iev@@ 11
iler 11
imin@@ 11
inde 11
introduc@@ 11
ises 11
isha 11
isis 11
isto 11
its@@ 11
jah@@ 11
journ@@ 11
kit@@ 11
kus@@ 11
leb@@ 11
lies 11
mak 11
map@@ 11
mig@@ 11
model@@ 11
modi@@ 11
mé@@ 11
named 11
ob 11
obr@@ 11
observ@@ 11
oir 11
ously 11
performan@@ 11
perior 11
pon@@ 11
possible 11
produced 11
real 11
reduc@@ 11
species 11
ste 11
suc@@ 11
teh@@ 11
tera 11
tim 11
topl@@ 11
trad@@ 11
uch 11
unter@@ 11
vez 11
vot@@ 11
zen 11
zis@@ 11
çe 11
èg@@ 11
ól@@ 11
ü 11
Ā@@ 11
Đ@@ 11
ık@@ 11
ır@@ 11
ŋ 11
ś 11
Ž@@ 11
ʃ 11
̞ 11
Α@@ 11
Θ@@ 11
Μ@@ 11
Ν@@ 11
Π@@ 11
ά 11
αγ@@ 11
γ@@ 11
κα@@ 11
Ал@@ 11
В@@ 11
Ма@@ 11
О@@ 11
Ч@@ 11
ан@@ 11
ли@@ 11
но 11
ское 11
сп@@ 11
ха@@ 11
ческий 11
ь 11
Қ@@ 11
ն 11
ր@@ 11
ַ 11
ئة 11
بية 11
تكون 11
توبر 11
جميع 11
دها 11
سياس@@ 11
نية 11
ينات 11
ڳ 11
ۗ 11
ۭ 11
को 11
जा@@ 11
ड@@ 11
मंदिर 11
राज 11
लाई 11
लों 11
ष 11
हम 11
ि@@ 11
ব 11
ৰ@@ 11
ਯ@@ 11
ੲ@@ 11
ગ@@ 11
ଗ@@ 11
ଦ@@ 11
ட 11
ப 11
ள@@ 11
ద@@ 11
ా 11
ಂ@@ 11
ವ@@ 11
ಸ@@ 11
ೇ@@ 11
ල 11
ḥ 11
→ 11
⋅ 11
✅ 11
ア@@ 11
ポ@@ 11
国@@ 11
西@@ 11
ﺱ@@ 11
ﻝ@@ 11
ﻩ@@ 11
Alfre@@ 10
Archit@@ 10
Awards 10
Barcelona 10
Bir 10
Carl 10
DV@@ 10
Dez@@ 10
Enter@@ 10
Es 10
Estado 10
Frank 10
Gran 10
Her 10
Johann 10
Kem@@ 10
Kim 10
Mann@@ 10
Nord@@ 10
Oli@@ 10
Ost@@ 10
Schw@@ 10
Simon 10
Son 10
Von 10
XIX 10
Zw@@ 10
ako 10
antas@@ 10
apo 10
apos@@ 10
bes@@ 10
bez@@ 10
categ@@ 10
centre 10
chap@@ 10
church 10
clim@@ 10
clo@@ 10
colon@@ 10
company 10
concep@@ 10
conserv@@ 10
continu@@ 10
dad 10
dem 10
dir@@ 10
eg 10
eing 10
enas 10
ener@@ 10
enes 10
enh@@ 10
enin 10
erh@@ 10
eria 10
establ@@ 10
etti 10
etts 10
experi@@ 10
figur@@ 10
fore 10
formed 10
gel 10
gli@@ 10
hib@@ 10
icas 10
iken 10
ilk 10
imi@@ 10
inda 10
ingt 10
inn 10
irat@@ 10
jed@@ 10
jia 10
jou@@ 10
kun@@ 10
lesia 10
moved 10
nat@@ 10
neo 10
ogle 10
omin@@ 10
onto 10
opp@@ 10
plus 10
points 10
prepar@@ 10
princi@@ 10
prise 10
probl@@ 10
propos@@ 10
publique 10
qua 10
role 10
sal 10
sein 10
still 10
strum@@ 10
tei 10
tek 10
television 10
tish 10
tut@@ 10
uke 10
uno 10
wig 10
with@@ 10
within 10
written 10
wrote 10
yol@@ 10
Å@@ 10
üm@@ 10
ř@@ 10
ʊ@@ 10
άν@@ 10
ε 10
η@@ 10
ρ@@ 10
ρι@@ 10
υ@@ 10
ό@@ 10
ав@@ 10
ал@@ 10
край 10
стиче@@ 10
сы 10
та 10
чи@@ 10
ҳ@@ 10
ә@@ 10
ּ 10
ח 10
الأول 10
البري@@ 10
الحي@@ 10
المملكة 10
الية 10
جنة 10
ٙ@@ 10
ڀ@@ 10
ܝ@@ 10
आज 10
उ@@ 10
के@@ 10
च 10
चो@@ 10
दुनिया 10
नि@@ 10
नी 10
महा@@ 10
मा 10
मे@@ 10
लय 10
सा@@ 10
ह 10
हिं@@ 10
ा@@ 10
ान 10
ी 10
१@@ 10
२ 10
খ@@ 10
জ 10
ਵ 10
ତ 10
ନ 10
ை 10
త@@ 10
న@@ 10
ర 10
ಕ@@ 10
ග@@ 10
ბ@@ 10
მ@@ 10
ṇ@@ 10
↵ 10
█ 10
ト@@ 10
中国@@ 10
 10
ﭝ@@ 10
ﭡ@@ 10
ﮃ@@ 10
ﻂ 10
ﻅ 10
ﻰ 10
ﻲ@@ 10
Alg@@ 9
April 9
Bundes@@ 9
Cao 9
Champi@@ 9
During 9
Ent@@ 9
Entre 9
Hot 9
Jack@@ 9
König@@ 9
NGC 9
Paşa 9
So 9
Tür@@ 9
Wit@@ 9
abil@@ 9
abu 9
ached 9
ación 9
actor 9
adop@@ 9
adu@@ 9
agon@@ 9
ainer 9
ambo 9
ansas 9
aras@@ 9
assist@@ 9
ası 9
athol@@ 9
atives 9
bed@@ 9
bran@@ 9
built 9
classi@@ 9
compar@@ 9
complet@@ 9
conv@@ 9
days 9
declar@@ 9
ember 9
endel@@ 9
esta 9
eurs 9
excep@@ 9
eye 9
fes@@ 9
foot@@ 9
fron@@ 9
front 9
fs 9
hay 9
hen 9
hiz@@ 9
idea 9
ige 9
ilo 9
industri@@ 9
initi@@ 9
instrum@@ 9
inten@@ 9
ires 9
isch@@ 9
iss 9
joined 9
kid@@ 9
lı 9
mati@@ 9
much 9
music 9
nak@@ 9
nationale 9
nis 9
oles 9
ongo@@ 9
organis@@ 9
pos 9
prec@@ 9
quali@@ 9
ques@@ 9
qui 9
quot@@ 9
race 9
rech@@ 9
reich 9
relati@@ 9
resid@@ 9
serve 9
sir@@ 9
situ@@ 9
six 9
stand 9
tag 9
tent@@ 9
titu@@ 9
uo 9
usi 9
vas@@ 9
yap@@ 9
yaz@@ 9
yen 9
yer@@ 9
ác@@ 9
æ 9
ça 9
ên 9
ð 9
ò@@ 9
ún 9
üs@@ 9
ý 9
ık 9
ş 9
ɛ 9
ʼ 9
ί@@ 9
ι 9
Б@@ 9
Ба@@ 9
Та@@ 9
Укра@@ 9
бли@@ 9
ва@@ 9
га@@ 9
да 9
къ@@ 9
ло@@ 9
ме@@ 9
не@@ 9
ст@@ 9
те@@ 9
то@@ 9
фе@@ 9
ъ@@ 9
ש 9
أة 9
الأرض 9
بإ@@ 9
بحت 9
ديدة 9
سكان@@ 9
قية 9
كرة 9
لإ@@ 9
لكن 9
مقرا@@ 9
مكن 9
منذ 9
يكون 9
يها 9
څ 9
ډ@@ 9
ܕ@@ 9
ܘ@@ 9
और 9
के 9
गु@@ 9
दा@@ 9
रा 9
ि 9
े@@ 9
॥ 9
ড 9
য@@ 9
ূ@@ 9
ਇ@@ 9
ਘ 9
ਦ 9
ଜ@@ 9
ୀ 9
େ 9
எ@@ 9
ற@@ 9
ள 9
ழ@@ 9
ி 9
ே@@ 9
ோ@@ 9
ల 9
ు@@ 9
ಯ@@ 9
ಲ@@ 9
ೋ@@ 9
മ@@ 9
ി@@ 9
ක@@ 9
න@@ 9
හ@@ 9
ུ@@ 9
ვ@@ 9
Ἑ@@ 9
₨ 9
┈ 9
ⴰ@@ 9
ス 9
东 9
人民@@ 9
國 9
島@@ 9
省 9
 9
 9
 9
 9
ﮈ 9
ﮣ@@ 9
ﺥ 9
🐰 9
💥 9
According 8
Alman@@ 8
Anna 8
Arti@@ 8
Ba 8
Carlos 8
Carr@@ 8
Chic@@ 8
Chicago 8
Da 8
Der 8
Disney 8
Festival 8
Greg@@ 8
Illinois 8
Jug@@ 8
Kik@@ 8
Kle@@ 8
Ord@@ 8
Professor 8
Sek@@ 8
Tenn@@ 8
Zu@@ 8
ael 8
aines 8
aller 8
along 8
amen 8
anas 8
anlar 8
announced 8
appear@@ 8
associ@@ 8
aten@@ 8
ball@@ 8
centr@@ 8
children 8
club 8
comb@@ 8
construc@@ 8
corresp@@ 8
denomin@@ 8
diz@@ 8
dows 8
dur 8
eler 8
enz 8
erra 8
esto 8
event 8
eza 8
famili@@ 8
fan@@ 8
feh@@ 8
fel@@ 8
gether 8
hasa 8
having 8
however 8
hô@@ 8
icos 8
idente 8
iller@@ 8
inform@@ 8
inning 8
ismo 8
jud@@ 8
kam 8
kana 8
kw@@ 8
lug@@ 8
materi@@ 8
milli@@ 8
msh@@ 8
muj@@ 8
national@@ 8
ngu@@ 8
nier 8
né@@ 8
oca 8
ort@@ 8
orum 8
pad@@ 8
patr@@ 8
phe 8
rar 8
rece@@ 8
rem 8
retr@@ 8
round 8
sad@@ 8
same 8
sang 8
sei 8
sent 8
she 8
sible 8
signific@@ 8
sociation 8
sten 8
students 8
studi@@ 8
tah@@ 8
tant 8
tham 8
tik 8
tish@@ 8
undi 8
univers@@ 8
vat@@ 8
without 8
zeh@@ 8
zur 8
´ 8
Æ@@ 8
ßen 8
éd@@ 8
ême 8
ís 8
óng 8
ös@@ 8
üd@@ 8
üst@@ 8
č 8
ɐ 8
ɦ 8
ʒ 8
Κα@@ 8
ά@@ 8
θ 8
λε@@ 8
ρο@@ 8
το 8
ω 8
Авто@@ 8
З@@ 8
На@@ 8
Но@@ 8
П@@ 8
Ц@@ 8
аль@@ 8
бе@@ 8
во 8
го@@ 8
да@@ 8
кру@@ 8
ма@@ 8
ре 8
ч 8
ө@@ 8
յ@@ 8
ն@@ 8
ׁ 8
ק 8
؃ 8
ؕ@@ 8
أو@@ 8
أول 8
الأك@@ 8
الاقتص@@ 8
اليوم 8
تمي 8
تهم 8
حيث 8
زة 8
شكل 8
فيما 8
مانية 8
مشيخ@@ 8
ولة 8
ولدت 8
ځ@@ 8
ڄ 8
ڇ@@ 8
ڠ 8
ۆ@@ 8
ܢ@@ 8
को@@ 8
ञ 8
ति 8
ती 8
ने@@ 8
पि@@ 8
फिर 8
मह@@ 8
मी@@ 8
रि@@ 8
ला@@ 8
वी 8
शे@@ 8
सी 8
से 8
ा 8
ार 8
ारी 8
অ@@ 8
স 8
ਂ@@ 8
ਐ@@ 8
ਡ@@ 8
ં@@ 8
କ 8
ଭ@@ 8
ୋ@@ 8
அ@@ 8
ர 8
ா 8
జ@@ 8
స@@ 8
ാ@@ 8
ു@@ 8
ද 8
ය@@ 8
ර 8
ස@@ 8
ා 8
མ 8
ས 8
ქ@@ 8
ἀ@@ 8
✔ 8
ウ@@ 8
チ@@ 8
人 8
劇@@ 8
南@@ 8
和@@ 8
國@@ 8
場@@ 8
字 8
安@@ 8
岡@@ 8
朝 8
清@@ 8
湾 8
版@@ 8
百@@ 8
高@@ 8
이 8
 8
 8
ﭕ@@ 8
ﮙ@@ 8
ﺏ@@ 8
ﻎ 8
ﻜ@@ 8
🔘 8
BK 7
Bill@@ 7
Championship 7
Guin@@ 7
Gü@@ 7
Hö@@ 7
Italia 7
Kais@@ 7
Oy@@ 7
Rep@@ 7
República 7
Schwar@@ 7
Top 7
Türk@@ 7
UEFA 7
Uganda 7
Un 7
WWE 7
Wag@@ 7
Yeni 7
aber 7
actual 7
again 7
alien 7
aller@@ 7
allow@@ 7
antes 7
arded 7
aña 7
band@@ 7
best@@ 7
cher@@ 7
cian 7
conc@@ 7
deb@@ 7
ded@@ 7
desc@@ 7
dest@@ 7
dose 7
dren 7
ede 7
egem@@ 7
ehir 7
elimin@@ 7
endi@@ 7
eshi 7
estra 7
exten@@ 7
fas@@ 7
fen 7
firm@@ 7
forc@@ 7
française 7
hid@@ 7
huri 7
iles 7
ilik 7
imo 7
indic@@ 7
irk 7
isco 7
isp@@ 7
itali@@ 7
iwa 7
iye 7
izi@@ 7
kav@@ 7
kay@@ 7
kia 7
kilom@@ 7
lang@@ 7
ları 7
lec@@ 7
lek@@ 7
limit@@ 7
maj@@ 7
marri@@ 7
maz@@ 7
mez 7
nah@@ 7
ngh@@ 7
often 7
ometr@@ 7
onc@@ 7
once 7
optera 7
ording 7
oğlu 7
personal 7
peti@@ 7
pointed 7
ported 7
professi@@ 7
quier 7
radio 7
received 7
remain@@ 7
sak@@ 7
senti@@ 7
show 7
sos@@ 7
span 7
succ@@ 7
tien 7
tir@@ 7
tly 7
tras 7
tul@@ 7
una@@ 7
unas 7
vu 7
wah@@ 7
wana 7
went 7
zin@@ 7
zur@@ 7
Í@@ 7
Öster@@ 7
Ú@@ 7
ã 7
ã@@ 7
ème 7
éro@@ 7
ï 7
ör 7
ø 7
üh@@ 7
üz@@ 7
ğ 7
ıl@@ 7
ım@@ 7
ǐ 7
ɣ@@ 7
ʈ 7
Ι@@ 7
αι@@ 7
αλ@@ 7
ας 7
ευ@@ 7
ηθ@@ 7
ης 7
ισ@@ 7
ου@@ 7
σα 7
τος 7
χ@@ 7
Во@@ 7
Мо@@ 7
По@@ 7
При@@ 7
Росси@@ 7
Федера@@ 7
Э@@ 7
бо@@ 7
ве@@ 7
вер@@ 7
ен@@ 7
ин@@ 7
ле@@ 7
мо 7
п@@ 7
па@@ 7
род@@ 7
са@@ 7
ской 7
стан 7
ти 7
ти@@ 7
ё@@ 7
ә 7
ָ 7
ֻ@@ 7
ׂ@@ 7
ט 7
ס 7
أخرى 7
إي@@ 7
الإي@@ 7
الجنوب@@ 7
المتح@@ 7
داية 7
ربة 7
صة 7
عدة 7
علومات 7
عليها 7
مهورية 7
ودية 7
ولكن 7
ٝ 7
ۈ@@ 7
ݜ@@ 7
ݢ@@ 7
ं@@ 7
कल 7
कि 7
गो@@ 7
च@@ 7
छ 7
ण@@ 7
तर@@ 7
था@@ 7
मन 7
मस 7
मी 7
मो@@ 7
रे 7
वे@@ 7
शा@@ 7
सर 7
ार@@ 7
ारे 7
ी@@ 7
ै@@ 7
উ@@ 7
ণ@@ 7
ਏ 7
ਫ@@ 7
ਮ 7
ੋ 7
દ@@ 7
ય@@ 7
ા 7
ુ@@ 7
ଣ@@ 7
ଦ 7
ନ@@ 7
ଲ@@ 7
ଶ@@ 7
ங 7
ன@@ 7
ం@@ 7
అ@@ 7
క 7
ಪ@@ 7
ಲ 7
ಿ 7
ೆ@@ 7
ද@@ 7
า@@ 7
མ@@ 7
ნ@@ 7
ḍ@@ 7
Ḥ@@ 7
ṯ 7
ἡ 7
ῆ@@ 7
ⵉ@@ 7
シ@@ 7
ド@@ 7
ニ 7
ラ@@ 7
京@@ 7
北@@ 7
南 7
台@@ 7
四@@ 7
子 7
民@@ 7
神@@ 7
禮 7
 7
 7
ﮉ 7
ﺆ@@ 7
ﺔ@@ 7
ﻖ@@ 7
Apr@@ 6
Barcel@@ 6
Brand@@ 6
Bu 6
Ern@@ 6
Geb@@ 6
Grund@@ 6
Jul@@ 6
Kim@@ 6
Kri@@ 6
Krieg@@ 6
Lond@@ 6
Mai 6
Milli@@ 6
Mitte 6
México 6
Osman@@ 6
Para 6
Ped@@ 6
Pf@@ 6
Profes@@ 6
Reich@@ 6
Sport@@ 6
Stra@@ 6
Walter 6
Wir@@ 6
adas 6
aison 6
aje 6
among 6
anah@@ 6
aret 6
bang 6
bind@@ 6
bis@@ 6
bles 6
cast 6
chs 6
cio 6
compr@@ 6
conse@@ 6
dah@@ 6
dans 6
died 6
eil@@ 6
emba 6
endant 6
enter 6
eon@@ 6
epis@@ 6
ern 6
esch@@ 6
especi@@ 6
estig@@ 6
europ@@ 6
français 6
fun@@ 6
grand 6
gri@@ 6
icht 6
ikan@@ 6
iko 6
ime@@ 6
itung 6
iç@@ 6
joint 6
kata 6
kaz@@ 6
kel 6
khi@@ 6
kop@@ 6
lib@@ 6
making 6
merc@@ 6
mez@@ 6
mik@@ 6
milit@@ 6
moder@@ 6
mus 6
mw@@ 6
nac@@ 6
nou@@ 6
onz@@ 6
ool 6
opo 6
orio 6
ouvern@@ 6
pendi@@ 6
por 6
pour 6
profes@@ 6
pré@@ 6
quel@@ 6
quit@@ 6
rek@@ 6
result@@ 6
riv@@ 6
rock 6
sah@@ 6
sana 6
services 6
similar 6
spr@@ 6
sti 6
tek@@ 6
til 6
toria 6
ubic@@ 6
uda 6
uel@@ 6
ulia 6
umu 6
vern@@ 6
zul@@ 6
³ 6
àn 6
àng 6
ân 6
äre 6
ät@@ 6
ép@@ 6
ête 6
ù@@ 6
ún@@ 6
û 6
ük@@ 6
ünde 6
üsü 6
ą 6
ıs@@ 6
ł 6
ŋ@@ 6
ǒ@@ 6
ț@@ 6
ȝ 6
ɫ@@ 6
ʁ 6
ʒ@@ 6
ʾ 6
ˌ@@ 6
̄ 6
Ε@@ 6
Σ 6
λι@@ 6
μ 6
μα@@ 6
ο@@ 6
οι 6
σία 6
το@@ 6
Ар@@ 6
Бе@@ 6
Га@@ 6
Ми@@ 6
Му@@ 6
Пет@@ 6
ССР 6
Ха@@ 6
ан 6
би@@ 6
вич 6
во@@ 6
ди@@ 6
ев 6
ер@@ 6
зах@@ 6
каз@@ 6
кий 6
кло@@ 6
му@@ 6
об@@ 6
пе@@ 6
ров@@ 6
ры@@ 6
ста@@ 6
сти@@ 6
сы@@ 6
х 6
ъ 6
լ@@ 6
կ@@ 6
մ@@ 6
տ@@ 6
ְ 6
ارية 6
الرغم 6
القدي@@ 6
ثلاثة 6
جية 6
حية 6
زب 6
غيرة 6
قيقة 6
للإ@@ 6
نادي 6
واحدة 6
ودة 6
وهي 6
يًا 6
ٺ@@ 6
ځ 6
ڠ@@ 6
ۗ@@ 6
۟ 6
ܐ@@ 6
ܪ@@ 6
ަ@@ 6
ँ@@ 6
अक 6
ई 6
कि@@ 6
गर 6
चार 6
जा 6
जी@@ 6
तब 6
दा 6
दास 6
दी@@ 6
धी 6
पुरा@@ 6
रो@@ 6
लि@@ 6
वारा 6
शि@@ 6
सा 6
सिंह 6
हा@@ 6
हिन 6
ू 6
ू@@ 6
े 6
ै 6
ों 6
२@@ 6
ধ@@ 6
ਆ 6
ਇ 6
ਣ 6
ਥ@@ 6
ਧ@@ 6
ੜ 6
ન@@ 6
સ@@ 6
ી@@ 6
ો 6
ଙ 6
ଚ@@ 6
ଵ@@ 6
ୂ@@ 6
ந 6
ய 6
ூ@@ 6
ం 6
ద 6
ప@@ 6
ದ 6
ಶ 6
ೀ@@ 6
ം 6
ന 6
മ 6
ല@@ 6
ජ@@ 6
ප@@ 6
ෙ@@ 6
ේ@@ 6
ག@@ 6
ད 6
ར 6
ལ@@ 6
ྱ@@ 6
် 6
ḇ@@ 6
ḏ 6
ṃ@@ 6
Ἄ@@ 6
ῶ@@ 6
† 6
⁦ 6
⁩ 6
⃣ 6
≈ 6
≥ 6
─ 6
▪ 6
✨ 6
❤ 6
ィ@@ 6
マ 6
ュ@@ 6
三@@ 6
上@@ 6
之@@ 6
区 6
和 6
寺 6
州 6
帝 6
師 6
李@@ 6
江@@ 6
田 6
福@@ 6
科 6
語 6
軍 6
 6
 6
 6
 6
 6
 6
 6
ﭗ 6
ﭰ@@ 6
ﮞ@@ 6
ﺐ@@ 6
ﻙ@@ 6
💙 6
📌 6
Ban 5
Baş@@ 5
Bras@@ 5
Brasil 5
Como 5
Compan@@ 5
Cumhuriyeti 5
Dani@@ 5
Eisen@@ 5
En 5
Ere@@ 5
Europa 5
Fes@@ 5
Franz 5
Haus@@ 5
Joe 5
Kongo 5
Mw@@ 5
Nh@@ 5
Ni 5
Nieder@@ 5
Nueva 5
Prix 5
Süd@@ 5
Tây 5
Türk 5
Türkiye 5
Yes@@ 5
acht 5
aina 5
ainst 5
aiss@@ 5
aki@@ 5
alc@@ 5
alen 5
aliy@@ 5
alternati@@ 5
alı 5
ambu@@ 5
anyika 5
arte 5
atura 5
auc@@ 5
auf@@ 5
aî@@ 5
ağı 5
berto 5
bish@@ 5
biy@@ 5
cab@@ 5
celle 5
cet 5
compet@@ 5
consider@@ 5
consist@@ 5
cu 5
dad@@ 5
dae 5
diplom@@ 5
egen 5
eka 5
emu 5
enden 5
ensemble 5
enst@@ 5
eras 5
erc@@ 5
erst@@ 5
esen 5
esha 5
eş@@ 5
fast 5
films 5
fir@@ 5
furt 5
gaz@@ 5
gem@@ 5
grande 5
gul@@ 5
heit 5
hie 5
hizi 5
iche 5
ident@@ 5
iker 5
imiento 5
inae 5
inci 5
ismus 5
isons 5
itt 5
izi 5
izo 5
jas 5
jug@@ 5
kale 5
kis@@ 5
kle@@ 5
lich@@ 5
mann@@ 5
metal 5
mix@@ 5
monum@@ 5
má@@ 5
namo 5
nie 5
ning@@ 5
nomin@@ 5
nos 5
occu@@ 5
odo 5
ologie 5
omen 5
onship 5
oppos@@ 5
origin@@ 5
ortho@@ 5
oso 5
oyn@@ 5
pio 5
program@@ 5
proxim@@ 5
puis 5
rad@@ 5
raz@@ 5
released 5
rement 5
rio 5
rom 5
scher 5
season 5
seh@@ 5
sever@@ 5
siz 5
sol 5
tainment 5
tam 5
tard 5
tent 5
tir 5
tof@@ 5
trag@@ 5
vel 5
verl@@ 5
visit@@ 5
weg@@ 5
xa 5
zaman 5
zas 5
zh 5
 5
µ@@ 5
Ét@@ 5
État 5
Þ@@ 5
ài 5
át 5
äd@@ 5
äs@@ 5
éré@@ 5
ét 5
ís@@ 5
ă 5
ġ@@ 5
İstanbul 5
ıca 5
ız@@ 5
ış@@ 5
ķ@@ 5
ő 5
ɑ@@ 5
ɖ 5
ɦ@@ 5
ɲ@@ 5
ʹ 5
ʹ@@ 5
ʾ@@ 5
̥ 5
Γ@@ 5
Τ@@ 5
Υ@@ 5
άλασ@@ 5
άρ@@ 5
έλ@@ 5
ή@@ 5
ίας 5
αρ@@ 5
γκ@@ 5
δία 5
εί@@ 5
ζ@@ 5
ια 5
ιο 5
κω@@ 5
λ 5
ου 5
ού@@ 5
πολι@@ 5
ρος 5
σι@@ 5
τι@@ 5
ων 5
ύ@@ 5
Александ@@ 5
Бо@@ 5
Ж@@ 5
Ра@@ 5
Су@@ 5
Ф@@ 5
Ш@@ 5
Я@@ 5
ата@@ 5
ге@@ 5
гу@@ 5
дар@@ 5
евич 5
за 5
и@@ 5
йн 5
йской 5
ки 5
ко@@ 5
ку@@ 5
ма 5
ми@@ 5
мир 5
мо@@ 5
мы@@ 5
ний 5
ния 5
обла@@ 5
ор@@ 5
ос@@ 5
ру@@ 5
си@@ 5
ск@@ 5
сла@@ 5
ст 5
сто 5
сто@@ 5
сть 5
тия 5
ты 5
ур@@ 5
хан@@ 5
ху@@ 5
ции 5
ша 5
ше@@ 5
ши 5
ғ@@ 5
ւ@@ 5
ך 5
أكثر 5
إص@@ 5
اتها 5
اصة 5
اعدة 5
الأد@@ 5
العالمية 5
العسك@@ 5
القدم 5
بأن 5
ربية 5
سنوات 5
مالية 5
هناك 5
والإ@@ 5
والذي 5
وبعد 5
ورية 5
ينية 5
ٻ 5
ڃ@@ 5
ډ 5
ڍ@@ 5
ڤ 5
ڬ@@ 5
ڭ 5
ۙ@@ 5
ܠ@@ 5
ܫ@@ 5
ܬ@@ 5
ܵ@@ 5
ݙ 5
އ@@ 5
މ@@ 5
ި@@ 5
ު@@ 5
अत 5
अधि@@ 5
अम@@ 5
इस 5
घ@@ 5
चित 5
जन 5
जन@@ 5
झ@@ 5
ञा@@ 5
ठ@@ 5
तम 5
थ 5
दर 5
दि@@ 5
दी 5
देव 5
धर 5
पर 5
पुर 5
भारत 5
में 5
रम 5
राम 5
राम@@ 5
री@@ 5
रू 5
रे@@ 5
लक 5
ले 5
विष 5
शन 5
सी@@ 5
हे@@ 5
ौ@@ 5
ও@@ 5
ঞ 5
ট 5
শ 5
হ 5
ু 5
ਣ@@ 5
ે 5
્ 5
ଁ 5
ଂ@@ 5
ଓ 5
ଡ 5
ଥ@@ 5
ଧ@@ 5
ପ 5
ଯ@@ 5
ଳ@@ 5
ଷ 5
ସ 5
଼ 5
ୀ@@ 5
ୁ 5
ୟ@@ 5
ஜ@@ 5
ண@@ 5
ற 5
గ@@ 5
త 5
య@@ 5
వ@@ 5
హ 5
హ@@ 5
ి 5
ీ 5
ಬ@@ 5
ರ 5
ಹ@@ 5
ത@@ 5
യ@@ 5
വ@@ 5
ත 5
ལ 5
ོ 5
ྒ@@ 5
კ@@ 5
ტ@@ 5
ჭ@@ 5
ხ@@ 5
ṛ@@ 5
Ἀ@@ 5
Ἡ@@ 5
ῦ 5
‛ 5
⅛ 5
↓ 5
↔ 5
┄ 5
■ 5
♥ 5
ⵔ@@ 5
《 5
イ@@ 5
ジ@@ 5
デ@@ 5
ト 5
バ@@ 5
マ@@ 5
ミ@@ 5
ル@@ 5
レ@@ 5
下 5
会@@ 5
信@@ 5
北 5
华@@ 5
回@@ 5
基@@ 5
大 5
央@@ 5
富@@ 5
帝@@ 5
東@@ 5
水 5
江 5
王 5
理 5
白@@ 5
级 5
西 5
都@@ 5
金@@ 5
의 5
 5
 5
 5
 5
 5
 5
ﺀ@@ 5
ﺓ@@ 5
ﺬ 5
ﻍ 5
🏆 5
👉 5
1,5 4
7. 4
Ago@@ 4
Alem@@ 4
Alex@@ 4
Alman 4
Amér@@ 4
Anc@@ 4
Auch 4
Ağ@@ 4
Bắc 4
Bộ 4
Europ@@ 4
Famili@@ 4
Ferr@@ 4
Geschichte 4
Gru@@ 4
Hans 4
Indon@@ 4
Institut 4
Jahr@@ 4
Leben 4
Londres 4
National@@ 4
Osmanlı 4
Phi 4
Pub@@ 4
Savaşı 4
Show 4
Sin 4
Staats@@ 4
Unter@@ 4
Việt 4
Wilhel@@ 4
Wilhelm 4
Yıl@@ 4
absol@@ 4
achen 4
actu@@ 4
adap@@ 4
ahl 4
alik@@ 4
alled 4
ampi@@ 4
anno@@ 4
ansa 4
anst@@ 4
aron 4
asser 4
ativa 4
atta@@ 4
auer 4
ause 4
azu 4
azz 4
aşa 4
bao 4
bern@@ 4
blan@@ 4
bul 4
büt@@ 4
cas 4
celebr@@ 4
chev@@ 4
chn@@ 4
concer@@ 4
consid@@ 4
continued 4
cost@@ 4
coul@@ 4
created 4
cula 4
culp@@ 4
cultur@@ 4
có@@ 4
day@@ 4
dej@@ 4
described 4
det 4
determin@@ 4
did@@ 4
disput@@ 4
ebe 4
echo 4
edad 4
egos 4
eig@@ 4
einer 4
elek@@ 4
enda 4
ensa 4
entos 4
entre@@ 4
erne@@ 4
eros 4
erte 4
expl@@ 4
fav@@ 4
fest@@ 4
fond@@ 4
formes 4
für 4
gesch@@ 4
gru@@ 4
gü@@ 4
hac@@ 4
iler@@ 4
ilit@@ 4
ilç@@ 4
import@@ 4
individ@@ 4
inin 4
kim 4
kiye 4
kri@@ 4
kum@@ 4
kup@@ 4
köy 4
leri 4
lerin 4
liga 4
lil@@ 4
loi 4
lon@@ 4
mam@@ 4
manif@@ 4
mant@@ 4
married 4
mau@@ 4
mess@@ 4
mich@@ 4
minut@@ 4
mont@@ 4
mé 4
nea 4
neh@@ 4
nen 4
neur 4
nicht 4
nun 4
odes 4
oku@@ 4
onen 4
partamento 4
particip@@ 4
pen 4
pis@@ 4
placed 4
pro 4
reco@@ 4
registr@@ 4
riff@@ 4
route 4
rég@@ 4
rés@@ 4
rí@@ 4
sans 4
sche@@ 4
seud@@ 4
sev@@ 4
sinh 4
tec@@ 4
toire 4
tour 4
tura 4
udi 4
umo 4
urch 4
usu 4
util@@ 4
utz 4
uu 4
viv@@ 4
wali@@ 4
west@@ 4
xu@@ 4
zig 4
zil@@ 4
zt 4
zus@@ 4
¤ 4
Ó 4
Über@@ 4
áng 4
áo 4
érie 4
ín@@ 4
ôle 4
ög@@ 4
ù 4
üm 4
þ@@ 4
Đại 4
Ğ@@ 4
ğr@@ 4
İ 4
İz@@ 4
ıdır 4
ıl 4
ılar 4
ŏ 4
ș 4
ɐ@@ 4
ɒ@@ 4
ɣ 4
ɽ@@ 4
ʌ@@ 4
ʰ 4
ʱ 4
˚ 4
̔ 4
̕ 4
̪ 4
Αρ@@ 4
Δ 4
Δ@@ 4
άκ@@ 4
αί@@ 4
αμ@@ 4
ατ@@ 4
γ 4
δρόμ@@ 4
εία 4
ερ@@ 4
ην@@ 4
ι@@ 4
κι 4
μα 4
νη 4
ξ 4
οπ@@ 4
πτ@@ 4
ρα 4
ρα@@ 4
ριστ@@ 4
τε@@ 4
της 4
του 4
φ 4
ων@@ 4
ώ@@ 4
І@@ 4
Ј@@ 4
Ад@@ 4
Бал@@ 4
Да@@ 4
Ин@@ 4
Ки@@ 4
Крас@@ 4
Л@@ 4
Мар@@ 4
Пер@@ 4
С 4
Си@@ 4
Че@@ 4
Чер@@ 4
Ю@@ 4
ат@@ 4
ба 4
би 4
бу@@ 4
вет 4
воен@@ 4
ди 4
до 4
ду@@ 4
дя@@ 4
ев@@ 4
зо@@ 4
из@@ 4
ите@@ 4
ке@@ 4
ки@@ 4
лия 4
ман@@ 4
мен@@ 4
по 4
по@@ 4
рат 4
рия 4
су@@ 4
сь@@ 4
ть 4
цар@@ 4
ция 4
эн@@ 4
ї 4
љ@@ 4
ѣ@@ 4
һ@@ 4
Հ@@ 4
ֹ 4
ֿ@@ 4
ג 4
ז 4
ץ 4
أكتوبر 4
ائية 4
ادية 4
الإن@@ 4
الحزب 4
الحياة 4
العامة 4
العمل@@ 4
اللغة 4
الوطني 4
بدأ 4
سطس 4
سمة 4
سمى 4
طفال 4
كية 4
وذلك 4
ومع 4
ٱ 4
ڏ 4
ړ 4
ږ@@ 4
ښ 4
ڱ 4
ۇ@@ 4
ۋ@@ 4
ۖ@@ 4
ܛ@@ 4
ܳ@@ 4
ު 4
ई@@ 4
ऋ@@ 4
कर@@ 4
गढ 4
गा@@ 4
ङ 4
जय 4
टूबर 4
टे@@ 4
ढ@@ 4
णा 4
तक 4
ते@@ 4
दुर 4
देव@@ 4
दो@@ 4
दोलन 4
ध 4
नव@@ 4
नाग@@ 4
नौ@@ 4
पण 4
पु@@ 4
पू@@ 4
पूर 4
पो@@ 4
बि@@ 4
भारतीय 4
भो@@ 4
मान 4
योग 4
रति@@ 4
रवा@@ 4
राज@@ 4
रो 4
लाल 4
लो 4
विश 4
ष@@ 4
हार 4
ही 4
हु@@ 4
हो@@ 4
िया 4
० 4
॰ 4
ঙ@@ 4
ছ@@ 4
ট@@ 4
থ@@ 4
প 4
ਖ 4
ਘ@@ 4
ਠ@@ 4
ਹ 4
ੂ 4
ડ@@ 4
ણ 4
મ@@ 4
હ@@ 4
ଇ@@ 4
ଏ@@ 4
ଜ 4
ଞ 4
ବ 4
ଶ 4
ୃ@@ 4
ஆ@@ 4
இ@@ 4
ல 4
ழ 4
ீ 4
డ@@ 4
బ@@ 4
శ 4
స 4
ూ@@ 4
ె 4
ే@@ 4
ಕ 4
ಗ 4
ಶ@@ 4
ಾ 4
ട@@ 4
ണ@@ 4
ං@@ 4
ඩ@@ 4
ම 4
ය 4
ේ 4
ො@@ 4
ง 4
ย@@ 4
่ 4
้ 4
ཀ@@ 4
ན 4
ི@@ 4
ུ 4
ེ 4
ྲ@@ 4
န 4
დ@@ 4
პ@@ 4
ს 4
ც@@ 4
አ@@ 4
ገ@@ 4
រ@@ 4
ḏ@@ 4
ṯ@@ 4
Ἐ@@ 4
‫ 4
№ 4
∛ 4
✿ 4
ⲁ@@ 4
ⵍ@@ 4
ⵎ@@ 4
ⵏ@@ 4
》 4
ア 4
ェ@@ 4
ク 4
ク@@ 4
コ@@ 4
ル 4
・ 4
中华@@ 4
主 4
仁 4
体@@ 4
兵 4
军 4
动 4
历 4
原 4
发@@ 4
周@@ 4
夏 4
宮@@ 4
尾 4
山 4
島 4
川@@ 4
工@@ 4
广@@ 4
文@@ 4
时@@ 4
星@@ 4
曆 4
月@@ 4
木@@ 4
治@@ 4
洋 4
海 4
漫@@ 4
熊 4
特@@ 4
球 4
球@@ 4
琉@@ 4
田@@ 4
祖 4
老@@ 4
者 4
行政@@ 4
豆@@ 4
运@@ 4
道 4
部 4
長@@ 4
青@@ 4
馬@@ 4
龍 4
가@@ 4
강@@ 4
국@@ 4
민@@ 4
아@@ 4
원 4
조@@ 4
 4
 4
 4
 4
 4
 4
 4
 4
 4
 4
 4
 4
 4
ﭥ@@ 4
ﭹ@@ 4
ﮰ 4
ﮱ 4
ﺁ 4
ﺊ 4
ﻵ@@ 4
2. 3
Au 3
Ayn@@ 3
Best@@ 3
Bü@@ 3
Büyük 3
Daha 3
Dok@@ 3
Ein 3
Eurov@@ 3
Flug@@ 3
Grou@@ 3
Hein@@ 3
Heinrich 3
Herr@@ 3
Historia 3
Hoch@@ 3
Kup@@ 3
Lan 3
Lebens@@ 3
Minh 3
Minister@@ 3
Nacional 3
Politi@@ 3
Premi@@ 3
Schwe@@ 3
Team 3
Trung 3
Vier@@ 3
Volks@@ 3
Zeit 3
Zeit@@ 3
aband@@ 3
adil@@ 3
ajes 3
aliye@@ 3
alre@@ 3
ancak 3
ancia 3
appar@@ 3
aque 3
arse 3
arı 3
ased 3
ateur 3
ations@@ 3
atro 3
auen 3
awala 3
ayı 3
azo 3
año 3
aş 3
aşı 3
baş@@ 3
began 3
bey@@ 3
bou@@ 3
brit@@ 3
buil@@ 3
cause 3
champ@@ 3
chte 3
competi@@ 3
conoc@@ 3
contribu@@ 3
cru@@ 3
dak@@ 3
deutscher 3
dres 3
département 3
dér@@ 3
dül@@ 3
dır@@ 3
ecu@@ 3
eder 3
elem@@ 3
elik 3
eln 3
emas 3
embre 3
enen 3
enten 3
entre 3
equi@@ 3
erin 3
esper@@ 3
estas 3
estruc@@ 3
etti@@ 3
eure 3
ezi 3
featur@@ 3
franç@@ 3
games 3
geh@@ 3
gibi 3
graf@@ 3
gun@@ 3
gén@@ 3
hio 3
histoire 3
ibu 3
ici 3
ien@@ 3
ient 3
ifa 3
ifu 3
ihe 3
imbo 3
iment 3
incia 3
inden 3
inger@@ 3
ingi 3
interpret@@ 3
inté@@ 3
isen 3
issen 3
iter 3
jina 3
junto 3
kamp@@ 3
khai 3
khu 3
kim@@ 3
kiş@@ 3
kreis 3
kut@@ 3
kuz@@ 3
kwa 3
ký 3
lande 3
leh@@ 3
leur 3
liche 3
luk 3
maf@@ 3
mang 3
mec@@ 3
mehr 3
meil@@ 3
mf@@ 3
mis 3
monde 3
mt 3
mula 3
muz@@ 3
mış 3
naci@@ 3
ney@@ 3
nord@@ 3
novel@@ 3
nt 3
oblig@@ 3
occas@@ 3
occup@@ 3
ograf@@ 3
onio 3
ono 3
onu 3
orden 3
organisation 3
osu 3
partam@@ 3
partido 3
perman@@ 3
perten@@ 3
poin@@ 3
politi@@ 3
pop 3
previ@@ 3
primer 3
provincia 3
quy@@ 3
quốc 3
rir 3
roy@@ 3
rue 3
rus@@ 3
rá@@ 3
régi@@ 3
sahi@@ 3
schaf@@ 3
schaft 3
schen 3
schule 3
sent@@ 3
served 3
signed 3
sik@@ 3
siy@@ 3
spi@@ 3
stad@@ 3
success@@ 3
suite 3
tay 3
tay@@ 3
tee 3
tend@@ 3
tima 3
tiy@@ 3
tung 3
tí@@ 3
uki 3
utz@@ 3
uwe@@ 3
voy@@ 3
wie 3
worked 3
yao 3
yay@@ 3
yaş@@ 3
ydi 3
yen@@ 3
yok@@ 3
yük@@ 3
zentr@@ 3
zona 3
Â@@ 3
È@@ 3
Ó@@ 3
Ö 3
Öz@@ 3
Ü 3
Üniversitesi 3
ào 3
äch@@ 3
è 3
ète 3
és@@ 3
éti@@ 3
été 3
être 3
ías 3
ò 3
ón@@ 3
öh@@ 3
öster@@ 3
úa 3
üb@@ 3
ür 3
üş@@ 3
Ć@@ 3
Đông 3
đa 3
Ē@@ 3
ě 3
ği 3
ĩ@@ 3
Ī@@ 3
İs@@ 3
ısı 3
ıt 3
ıy@@ 3
ız 3
ış 3
ň@@ 3
Ş 3
ŭ 3
ų 3
ž 3
Ə@@ 3
ǐ@@ 3
ɓ 3
ʋ@@ 3
ʎ@@ 3
ʘ 3
Α 3
Δημοκρατ@@ 3
Δι@@ 3
Ζ@@ 3
Θε@@ 3
Λε@@ 3
Ο@@ 3
Παρ@@ 3
Φ@@ 3
Φιλ@@ 3
άδ@@ 3
άπ@@ 3
ίκ@@ 3
ίου 3
αβ@@ 3
αντ@@ 3
αστ@@ 3
αφ@@ 3
βρα@@ 3
δο@@ 3
εια 3
εν@@ 3
εχ@@ 3
ιά 3
ικ@@ 3
ις 3
μά@@ 3
μένη 3
με@@ 3
μεν@@ 3
να@@ 3
νης 3
ξ@@ 3
ον@@ 3
ορ@@ 3
ούς 3
ρε@@ 3
τ 3
τα@@ 3
τερ@@ 3
τη 3
τη@@ 3
τρ@@ 3
τρι@@ 3
υζ@@ 3
Бу@@ 3
Бур@@ 3
Ви@@ 3
Г 3
Е@@ 3
За 3
За@@ 3
Кар@@ 3
Кра@@ 3
Ла@@ 3
Ле@@ 3
Май@@ 3
О 3
П 3
Пре@@ 3
Рос@@ 3
России 3
Ру@@ 3
Север@@ 3
Ту@@ 3
У 3
Цент@@ 3
б 3
бар@@ 3
вание 3
ват@@ 3
вина 3
вой@@ 3
ге 3
го 3
года 3
де 3
дия 3
жи@@ 3
зи@@ 3
зиден@@ 3
исто@@ 3
ита 3
йский 3
кан@@ 3
ко 3
кра@@ 3
лен@@ 3
ли 3
лы@@ 3
ль 3
ля@@ 3
му 3
не 3
ной 3
ные 3
област 3
оло@@ 3
он 3
от 3
пад@@ 3
пре@@ 3
при@@ 3
пу@@ 3
рал 3
револю@@ 3
ред 3
ри 3
рий 3
рус@@ 3
се@@ 3
си 3
сия 3
ска 3
ски 3
ско 3
стро@@ 3
тив@@ 3
ты@@ 3
ф 3
ф@@ 3
хан 3
хар@@ 3
хи@@ 3
це@@ 3
цы 3
чат@@ 3
че 3
чи 3
чка 3
чный 3
чо@@ 3
ю 3
ю@@ 3
ѝ 3
ў@@ 3
қ 3
ҡ@@ 3
ң@@ 3
ұ@@ 3
Ӏ@@ 3
Ө@@ 3
Տ@@ 3
գ@@ 3
զ@@ 3
ղ@@ 3
պ@@ 3
ր 3
ֿ 3
؜ 3
أكبر 3
أيض@@ 3
أيضا 3
الدولة 3
الكث@@ 3
المتحدة 3
المنطقة 3
تقع 3
درجة 3
رته 3
ريقة 3
شركة 3
لاعب 3
ملكة 3
منطقة 3
مها 3
نسبة 3
نهاية 3
وكانت 3
ټ 3
ڇ 3
ڦ 3
ګ 3
ۜ@@ 3
ܓ@@ 3
ܡ@@ 3
ܣ@@ 3
ކ@@ 3
ވ@@ 3
ލ@@ 3
ސ@@ 3
ंग 3
ंच@@ 3
ंड@@ 3
ंत 3
ंब@@ 3
अव@@ 3
आन 3
इ@@ 3
ऊ@@ 3
ऐ@@ 3
ओ 3
करण 3
कार 3
कृष 3
घा@@ 3
चन 3
चल 3
चा@@ 3
जर 3
जु@@ 3
टी@@ 3
ठी 3
णु 3
ती@@ 3
ते 3
थ@@ 3
थी 3
दान 3
दार 3
दे@@ 3
देवी 3
देश 3
निर 3
नी@@ 3
नो 3
पद 3
पी@@ 3
पै@@ 3
बाद 3
भा@@ 3
मण 3
मर 3
मि@@ 3
मू@@ 3
मै@@ 3
यु@@ 3
यू@@ 3
ये@@ 3
यो@@ 3
रत 3
रह 3
राजा 3
रात 3
राष 3
रिया@@ 3
लम 3
लिए 3
ले@@ 3
ळ@@ 3
वंश 3
वन 3
वस 3
वा 3
वै@@ 3
शक 3
शी 3
शु@@ 3
षा 3
षेत 3
सत 3
सद 3
सो@@ 3
हो 3
ित 3
ीन 3
ूर 3
ो@@ 3
ঁ@@ 3
খ 3
থ 3
ষ@@ 3
ো 3
৭@@ 3
ਈ 3
ਉ 3
ਏ@@ 3
ં 3
ક@@ 3
ણ@@ 3
દ 3
ન 3
પ@@ 3
લ@@ 3
ી 3
ો@@ 3
ଅ@@ 3
ଆ@@ 3
ଇ 3
ଲ 3
ଳ 3
ୟ 3
உ@@ 3
ஸ@@ 3
ீ@@ 3
ொ@@ 3
ఆ@@ 3
చ@@ 3
ట@@ 3
ణ 3
ధ 3
న 3
ప 3
ష 3
ీ@@ 3
ో@@ 3
ಅ@@ 3
ಎ@@ 3
ಜ@@ 3
ಟ@@ 3
ಡ@@ 3
ಧ@@ 3
ಷ@@ 3
ക 3
ത 3
ന@@ 3
പ 3
ര@@ 3
ല 3
ള@@ 3
ി 3
අ@@ 3
ක 3
ච@@ 3
ත@@ 3
ධ@@ 3
ව 3
ස 3
ී 3
ෝ@@ 3
ก 3
ป@@ 3
། 3
ང@@ 3
ཐ@@ 3
ཕ@@ 3
ཤ@@ 3
ི 3
ྐ@@ 3
ྗ@@ 3
ྩ@@ 3
မ@@ 3
ာ 3
გ@@ 3
ფ@@ 3
ል 3
መ@@ 3
ማ@@ 3
ሥ@@ 3
ን@@ 3
የ@@ 3
ግ@@ 3
ᱷ@@ 3
ḵ 3
ḵ@@ 3
ṭ 3
ả@@ 3
ỉ@@ 3
ἄ@@ 3
ἔ@@ 3
Ἠ@@ 3
ὐ@@ 3
ὶ 3
ᾶ@@ 3
ῦ@@ 3
‐ 3
‒ 3
∆ 3
╌ 3
ⲟ@@ 3
ⲱ@@ 3
ⴳ@@ 3
ⴷ@@ 3
ⴻ@@ 3
ⵏ 3
ⵔ 3
ⵜ@@ 3
と 3
と@@ 3
ん 3
ィ 3
イ 3
エ 3
エ@@ 3
オ 3
カ@@ 3
キ@@ 3
グ 3
タ 3
テ@@ 3
ド 3
ナ@@ 3
ネ@@ 3
プ 3
ョ@@ 3
リ 3
リ@@ 3
一 3
一@@ 3
中国 3
主@@ 3
九@@ 3
井@@ 3
仑 3
会 3
佐@@ 3
保 3
元 3
共和@@ 3
兵@@ 3
农@@ 3
分@@ 3
加@@ 3
取@@ 3
口 3
古 3
台 3
吉 3
吉@@ 3
喀@@ 3
喇@@ 3
地@@ 3
壇 3
大学 3
天 3
太@@ 3
奈@@ 3
宁@@ 3
官@@ 3
峡 3
崎@@ 3
式@@ 3
徳@@ 3
志 3
忠 3
总@@ 3
愛 3
政@@ 3
方@@ 3
昆@@ 3
明 3
明@@ 3
星 3
時 3
時@@ 3
有@@ 3
朱 3
朱@@ 3
東 3
松@@ 3
毛@@ 3
水@@ 3
汗 3
沖@@ 3
津 3
湖@@ 3
的@@ 3
皇 3
直@@ 3
真 3
真@@ 3
知@@ 3
神 3
紅@@ 3
維@@ 3
編@@ 3
縄@@ 3
红@@ 3
聖@@ 3
記 3
話 3
賀@@ 3
贵@@ 3
越@@ 3
農@@ 3
野@@ 3
门 3
限@@ 3
陰@@ 3
雀@@ 3
麻@@ 3
黑@@ 3
龙@@ 3
국 3
기@@ 3
나@@ 3
도 3
로 3
로@@ 3
리 3
선 3
어 3
인@@ 3
정@@ 3
한 3
한@@ 3
 3
 3
 3
 3
 3
 3
 3
 3
 3
 3
 3
 3
 3
 3
 3
 3
 3
 3
 3
 3
ﮦ@@ 3
ﺃ@@ 3
ﺄ 3
ﺉ 3
ﺔ 3
ﺝ@@ 3
ﻊ@@ 3
ﻑ@@ 3
ﻱ@@ 3
𐭠@@ 3
🇰 3
🇵 3
🌲 3
🏏 3
👇 3
1. 2
3. 2
9. 2
Bev@@ 2
Cumhuriy@@ 2
Des 2
Deutschland 2
Dies@@ 2
Eis@@ 2
España 2
Estados 2
Este 2
Fahr@@ 2
Film@@ 2
Francia 2
Fren@@ 2
Gemein@@ 2
Groß@@ 2
Hindi 2
Histoire 2
Hà 2
Kant@@ 2
Kasım 2
Kig@@ 2
Kuzey 2
Kır@@ 2
Mart 2
Meter 2
Mär@@ 2
NBA 2
Nach 2
Nga 2
November 2
Schi@@ 2
Spi@@ 2
Sta@@ 2
Stad@@ 2
Stein@@ 2
Tanz@@ 2
Trần 2
Ulus@@ 2
Una 2
Unidos 2
Universidad 2
Wasser@@ 2
Woh@@ 2
Zentr@@ 2
Zu 2
a. 2
abaj@@ 2
acak 2
adhi 2
adores 2
aide 2
aires 2
akt@@ 2
aları 2
album 2
alem@@ 2
aliza 2
allen 2
americ@@ 2
arias 2
avant 2
awali 2
aç 2
benz@@ 2
bü@@ 2
candid@@ 2
career 2
chez 2
cht@@ 2
cier@@ 2
commen@@ 2
communes 2
coup 2
cours 2
culo 2
cá 2
dağ@@ 2
derni@@ 2
descri@@ 2
deu@@ 2
deut@@ 2
deutsch@@ 2
deutsche 2
deux 2
dik@@ 2
dipl@@ 2
director 2
doğ@@ 2
dün@@ 2
ede@@ 2
eden@@ 2
eines 2
ekt 2
eleg@@ 2
eler@@ 2
ellen 2
elt@@ 2
endo 2
enga 2
enos 2
enst 2
entras 2
entro 2
erek 2
esab@@ 2
escu@@ 2
eser@@ 2
eski 2
españ@@ 2
español 2
espè@@ 2
essen 2
ewa 2
eyal@@ 2
eño 2
fak@@ 2
famil@@ 2
fang@@ 2
fin 2
forma 2
forman@@ 2
fäl@@ 2
fé@@ 2
för@@ 2
fútbol 2
gil@@ 2
git@@ 2
guerre 2
gut 2
hacer 2
hali 2
hau@@ 2
his@@ 2
hoa 2
huy@@ 2
icio 2
idas 2
idos 2
ierung 2
iff 2
igen 2
ihrer 2
ilen 2
imba 2
inaug@@ 2
inen 2
ingia 2
innen 2
inner@@ 2
inspir@@ 2
investig@@ 2
iques 2
ischen 2
ischer 2
isho 2
isine 2
isme 2
iyi 2
izaji 2
japon@@ 2
jeu 2
jini 2
join@@ 2
jour 2
jour@@ 2
kati@@ 2
kend@@ 2
kez 2
kio 2
kre@@ 2
kt 2
kt@@ 2
kuj@@ 2
kül@@ 2
kı@@ 2
kır@@ 2
lau@@ 2
leo 2
lerine 2
leurs 2
lich 2
licher 2
liği 2
logr@@ 2
loss 2
luk@@ 2
matr@@ 2
mek 2
mesi 2
mev@@ 2
much@@ 2
muda 2
musical 2
muz 2
nach@@ 2
naf@@ 2
nig 2
noch 2
oldu@@ 2
onge@@ 2
onnat 2
opened 2
opsis 2
ordu 2
orie 2
oyun@@ 2
padre 2
pens@@ 2
pero 2
personn@@ 2
peu 2
phi 2
phil@@ 2
player 2
pobl@@ 2
prak@@ 2
prises 2
produ@@ 2
präs@@ 2
quay 2
quel 2
qué 2
realiz@@ 2
reich@@ 2
respectiv@@ 2
returned 2
région 2
rö@@ 2
scheid@@ 2
seau 2
seine 2
selb@@ 2
studio 2
sé@@ 2
só@@ 2
taş@@ 2
teil 2
teilung 2
tena 2
tere 2
tet 2
thuộc 2
thé@@ 2
tif 2
track 2
tur 2
tés 2
tỉnh 2
umba 2
unden 2
unia 2
unos 2
uso 2
uş@@ 2
vida 2
vie 2
vy@@ 2
wake 2
wam@@ 2
wegen 2
wich@@ 2
wir@@ 2
wür@@ 2
yü@@ 2
yıl 2
zun@@ 2
¡ 2
¢ 2
® 2
¾ 2
À@@ 2
Á 2
Ä@@ 2
É 2
Ông 2
Ø@@ 2
ái 2
âce 2
äh@@ 2
änd@@ 2
äng@@ 2
ät 2
çek@@ 2
çi 2
çı@@ 2
èse 2
économ@@ 2
éo 2
équ@@ 2
êu 2
ìn 2
ñ 2
óm@@ 2
ôn 2
öff@@ 2
örd@@ 2
öz@@ 2
÷ 2
út@@ 2
über 2
üc@@ 2
ück 2
ük 2
ün 2
Đế 2
ĕ@@ 2
ė 2
ĝ@@ 2
ğu 2
ĭ@@ 2
ıp 2
ıs 2
ığ@@ 2
Ř@@ 2
ŝ@@ 2
şehir 2
şir@@ 2
Š 2
ũ@@ 2
Ū@@ 2
ǎ 2
ǔ 2
ǔ@@ 2
Ǧ@@ 2
ǧ@@ 2
ɒ 2
ɕ@@ 2
ɠ 2
ɡ 2
ɨ@@ 2
ɫ 2
ɯ 2
ɯ@@ 2
ɹ@@ 2
ɽ 2
ʂ 2
ʑ 2
ʔ 2
ʰ@@ 2
ʱ@@ 2
ʲ@@ 2
ʿ 2
̌ 2
͘ 2
͡ 2
Ά@@ 2
Β 2
Βασιλ@@ 2
Ιωάν@@ 2
Κωνσταντ@@ 2
Λ 2
Μά@@ 2
Μεγάλ@@ 2
Ξ@@ 2
Παλ@@ 2
Στρ@@ 2
άβ@@ 2
έ@@ 2
έα 2
έκ@@ 2
ήλ 2
ής 2
ί 2
ίγ@@ 2
ίδ@@ 2
ίν@@ 2
ίνη 2
αθ@@ 2
ακ@@ 2
αλλ@@ 2
αρχ@@ 2
ασ@@ 2
αυ@@ 2
αϊ@@ 2
βί@@ 2
γράφ@@ 2
δ 2
δι@@ 2
δρ@@ 2
ει 2
ελ@@ 2
επ@@ 2
εφ@@ 2
εύ@@ 2
ζωή 2
ησ@@ 2
ησι@@ 2
θε@@ 2
ιγ@@ 2
ιλ@@ 2
ιχ@@ 2
και 2
κας 2
κλη@@ 2
λάβ@@ 2
λα@@ 2
λις 2
λλην@@ 2
λογ@@ 2
λόγ@@ 2
μή@@ 2
μβ@@ 2
μεγάλη 2
μν@@ 2
μος 2
νω@@ 2
ξης 2
οί 2
οδος 2
ομ@@ 2
παί@@ 2
παλαι@@ 2
πατ@@ 2
περι@@ 2
πο@@ 2
πος 2
ρά@@ 2
ρή@@ 2
ρί@@ 2
ραγ@@ 2
ραν@@ 2
ρη@@ 2
ρου 2
ρυ@@ 2
ρό@@ 2
ρύ@@ 2
σ 2
σκ@@ 2
σο@@ 2
στον 2
τέ@@ 2
τή@@ 2
τικό 2
του@@ 2
τυ@@ 2
υ 2
υπ@@ 2
φερ@@ 2
ψ@@ 2
ωβ@@ 2
ό 2
όν@@ 2
όπο@@ 2
ύρ@@ 2
ώ 2
ώς 2
Ў@@ 2
А 2
Ав@@ 2
Алек@@ 2
България 2
В 2
Ва@@ 2
Вла@@ 2
Вы@@ 2
Ге@@ 2
Глав@@ 2
Гор@@ 2
Дж@@ 2
Ев@@ 2
Кара@@ 2
Кон@@ 2
Ку@@ 2
Лю@@ 2
Ме@@ 2
Москов@@ 2
Ор@@ 2
Петер@@ 2
Пол@@ 2
Ри@@ 2
Сте@@ 2
Тур@@ 2
Ф 2
Фе@@ 2
Хо@@ 2
Юж@@ 2
ак@@ 2
берг 2
българ@@ 2
вал 2
ван 2
вин@@ 2
восто@@ 2
вых 2
га 2
дж@@ 2
джа@@ 2
дри@@ 2
ду 2
ек@@ 2
ене@@ 2
жа 2
зан@@ 2
зе@@ 2
зи 2
зия 2
зна@@ 2
зы@@ 2
из 2
им 2
истории 2
кая 2
ке 2
кла@@ 2
ков 2
ков@@ 2
кова 2
кого 2
коло@@ 2
куль@@ 2
ло 2
лы 2
льная 2
май@@ 2
мал@@ 2
мени@@ 2
мия 2
мов 2
мор@@ 2
море 2
нен@@ 2
ник 2
нин 2
ное 2
ны 2
ны@@ 2
нь 2
области 2
обо@@ 2
обра@@ 2
ологи@@ 2
он@@ 2
она@@ 2
оп@@ 2
офи@@ 2
п 2
права 2
публики 2
ран@@ 2
река 2
рен@@ 2
риа@@ 2
ро 2
са 2
сво@@ 2
ска@@ 2
ские 2
ского 2
сло@@ 2
со@@ 2
сон 2
стан@@ 2
ствен@@ 2
ститу@@ 2
тина 2
ту@@ 2
тура 2
туры 2
тя@@ 2
ун@@ 2
фа 2
федера@@ 2
ха 2
хе@@ 2
хо@@ 2
ц 2
цер@@ 2
цо@@ 2
ча@@ 2
че@@ 2
чения 2
чина 2
чни 2
чно 2
ше 2
шие 2
щи@@ 2
ье 2
января 2
яр@@ 2
ѐ@@ 2
ћ 2
ҧ@@ 2
ӈ@@ 2
ӣ 2
ӯ@@ 2
Կ@@ 2
Մ@@ 2
Ս@@ 2
ա 2
բ@@ 2
թ@@ 2
ի 2
ծ 2
հ@@ 2
ճ 2
յ 2
ռ@@ 2
ս@@ 2
վ@@ 2
և 2
ף 2
؈ 2
اسية 2
اقة 2
الأخرى 2
الأل@@ 2
الأول@@ 2
الفرنس@@ 2
المغربية 2
الها 2
الوطنية 2
بالإ@@ 2
بـ 2
حالة 2
حصاء 2
دارة 2
سبة 2
سكان 2
ضافة 2
لسنة 2
نجلي@@ 2
نوفمبر 2
والسك@@ 2
ولية 2
ونية 2
يتم 2
يقع 2
يمية 2
يونيو 2
ٛ@@ 2
ٺ 2
ڀ 2
ڃ 2
ڎ 2
ږ 2
ڟ 2
ڦ@@ 2
ڼ 2
ڼ@@ 2
ۄ@@ 2
ە 2
ۜ 2
ܚ@@ 2
ܠ 2
ܥ@@ 2
ݜ 2
ݢ 2
ݰ@@ 2
ރ@@ 2
ބ@@ 2
ދ@@ 2
ީ@@ 2
ެ@@ 2
ް@@ 2
ࠉ@@ 2
ࠓ@@ 2
ࠜ@@ 2
ंगा 2
ंट 2
ंद@@ 2
अगस 2
अन 2
अस 2
आग@@ 2
आगे 2
उ 2
उद 2
ए@@ 2
ओ@@ 2
कन 2
कारी 2
किस 2
किसी 2
कॉ@@ 2
खण 2
खा 2
खु@@ 2
गण@@ 2
गल 2
गा 2
गां@@ 2
चंद 2
चक 2
ची 2
चौ@@ 2
छो@@ 2
जय@@ 2
जिन 2
जिला 2
जुलाई 2
जून 2
जै@@ 2
टो@@ 2
ठ 2
ठा@@ 2
डल 2
डो@@ 2
ढ 2
णि@@ 2
तन 2
तर 2
तार 2
तिक 2
तित 2
तो@@ 2
थि@@ 2
दन 2
दृ@@ 2
दे 2
देश@@ 2
धा@@ 2
धि 2
धि@@ 2
नदी 2
नाथ 2
नै@@ 2
नो@@ 2
पं@@ 2
पत 2
पति 2
पह@@ 2
पात 2
पानी 2
पी 2
फ@@ 2
बंध 2
बढ 2
बना@@ 2
बर 2
बा 2
बो@@ 2
भ 2
भाई 2
भाषा 2
मं@@ 2
मत 2
मद 2
मध 2
मान@@ 2
मानव 2
मूर 2
यत 2
यालय 2
यास 2
यि@@ 2
युग 2
रखा 2
रदेश 2
रस 2
रह@@ 2
रानी 2
रिस 2
रूप 2
ऱ 2
लता 2
लिक 2
लित 2
लिया 2
लु@@ 2
लो@@ 2
लोक 2
लोक@@ 2
वत 2
वरी 2
वविद 2
वार 2
वाल 2
वाला 2
विकास 2
विद 2
शब 2
शा 2
शी@@ 2
शुरू 2
संग 2
संघ 2
संस 2
सभी 2
सम 2
सम@@ 2
सह@@ 2
सार 2
सिद 2
सै@@ 2
हत 2
हल 2
हा 2
हिंदी 2
हुआ 2
ौर 2
ॐ 2
३ 2
४ 2
८ 2
ও 2
ঘ@@ 2
চ 2
ঝ@@ 2
ঠ@@ 2
ঢ@@ 2
ণ 2
ধ 2
ষ 2
৬ 2
৷ 2
ਉ@@ 2
ਛ@@ 2
ਡ 2
ਧ 2
ਪ 2
ਫ 2
੧ 2
ੰ 2
ઓ@@ 2
છ@@ 2
જ@@ 2
ટ@@ 2
ઢ@@ 2
ત@@ 2
ફ@@ 2
બ@@ 2
મ 2
ય 2
શ@@ 2
સ 2
હ 2
િ@@ 2
ે@@ 2
ଂ 2
ଅ 2
ଆ 2
ଉ@@ 2
ଖ 2
ଖ@@ 2
ଗ 2
ଟ@@ 2
ଡ@@ 2
ଢ@@ 2
ମ 2
ଷ@@ 2
ୋ 2
ஃ@@ 2
ண 2
ஹ@@ 2
ே 2
ః 2
ఖ 2
గ 2
ఝ@@ 2
ట 2
ఠ@@ 2
బ 2
శ@@ 2
ష@@ 2
ూ 2
ృ 2
ౄ 2
ె@@ 2
ే 2
ై 2
ొ 2
ో 2
ౌ 2
ಟ 2
ಣ 2
ಭ@@ 2
ಮ 2
ಯ 2
ಳ@@ 2
ಷ 2
ೂ@@ 2
ೊ@@ 2
ೌ@@ 2
ഗ@@ 2
ണ 2
ധ@@ 2
പ@@ 2
ബ@@ 2
ര 2
സ 2
ീ@@ 2
ൂ@@ 2
ൃ@@ 2
െ@@ 2
േ@@ 2
ോ@@ 2
ർ 2
ർ@@ 2
ණ@@ 2
ශ 2
ෂ 2
ෂ@@ 2
ී@@ 2
ก@@ 2
ช@@ 2
ด 2
ท@@ 2
น 2
น@@ 2
นา@@ 2
ส 2
อ 2
ะ@@ 2
ำ@@ 2
ิ@@ 2
ุ@@ 2
์ 2
ແ@@ 2
ཁ 2
པ@@ 2
ཚ@@ 2
ཞ@@ 2
འ@@ 2
ཡ@@ 2
ཧ@@ 2
ཱ 2
ཱ@@ 2
ྤ@@ 2
ྲ 2
တ@@ 2
ိ@@ 2
ေ@@ 2
့ 2
ြ@@ 2
ზ@@ 2
ო 2
შ@@ 2
ჩ@@ 2
ሀ@@ 2
ለ@@ 2
ሌ 2
ም 2
ር@@ 2
ሳ@@ 2
ተ 2
ኩ@@ 2
ወ@@ 2
ደ@@ 2
ទ@@ 2
ន 2
ព 2
ភ@@ 2
ស@@ 2
ា@@ 2
ិ@@ 2
្ 2
ḗ@@ 2
Ḫ@@ 2
Ḵ@@ 2
ḻ@@ 2
ṃ 2
Ṣ@@ 2
Ṭ@@ 2
Ṯ@@ 2
ẓ@@ 2
ạ 2
ạo 2
ần 2
ẫu 2
ẽ@@ 2
ịnh 2
ồ 2
ổ 2
ἐ@@ 2
ἡ@@ 2
ἱ@@ 2
ὁ 2
ὁ@@ 2
Ὀ@@ 2
ὰ 2
ὲ@@ 2
― 2
‚ 2
‮ 2
ⁿ 2
↺ 2
∞ 2
≠ 2
≤ 2
┅ 2
♂ 2
♠ 2
♣ 2
⚦ 2
✍ 2
✦ 2
❀ 2
❂ 2
⬇ 2
ⲓ@@ 2
ⲩ@@ 2
ⴱ 2
ⴼ 2
ⴽ@@ 2
ⵖ@@ 2
ⵜ 2
、 2
い 2
い@@ 2
え@@ 2
お 2
ぎ 2
ぐ 2
さ 2
さ@@ 2
た@@ 2
ち 2
な 2
ば 2
み 2
ら@@ 2
り 2
ウ 2
オ@@ 2
ギ@@ 2
ゴ@@ 2
サ 2
ザ@@ 2
ズ 2
ソ@@ 2
チ 2
ッ 2
ツ@@ 2
ニ@@ 2
ネ 2
ハ 2
ビ@@ 2
ブ@@ 2
ム 2
ヤ 2
ロ@@ 2
世@@ 2
中 2
中心 2
乳 2
争 2
事 2
二 2
云 2
云@@ 2
五@@ 2
亦@@ 2
代 2
代@@ 2
伊@@ 2
传@@ 2
体 2
余@@ 2
佛@@ 2
你 2
俗 2
備 2
僧 2
光@@ 2
児@@ 2
党 2
全@@ 2
八@@ 2
公 2
公@@ 2
公司 2
兰 2
兰@@ 2
兴 2
出@@ 2
函 2
刘@@ 2
別@@ 2
副 2
力 2
动@@ 2
務@@ 2
勝 2
北部 2
千@@ 2
卜 2
口@@ 2
可@@ 2
史 2
合 2
合@@ 2
吗 2
君 2
周 2
哈@@ 2
員@@ 2
哨@@ 2
唐 2
團@@ 2
在@@ 2
地 2
坡 2
埃@@ 2
城 2
城@@ 2
基 2
報 2
士@@ 2
夜@@ 2
夫@@ 2
头 2
妈 2
妈@@ 2
委@@ 2
婆@@ 2
子@@ 2
孫@@ 2
安 2
定@@ 2
宜@@ 2
小@@ 2
尔@@ 2
局 2
岐@@ 2
川 2
工程 2
巴 2
席 2
年 2
庁 2
府 2
府@@ 2
座 2
廣@@ 2
強@@ 2
形@@ 2
徵@@ 2
德 2
忍@@ 2
快@@ 2
愛@@ 2
懷@@ 2
成@@ 2
战@@ 2
戸@@ 2
手@@ 2
拉 2
拉@@ 2
指@@ 2
搜@@ 2
放@@ 2
政 2
文 2
斯 2
族 2
旺@@ 2
景@@ 2
暨 2
會@@ 2
李 2
林 2
枢@@ 2
标 2
株@@ 2
森 2
森@@ 2
楊 2
榔@@ 2
樂@@ 2
標@@ 2
歌@@ 2
正 2
正@@ 2
気 2
汉@@ 2
沙@@ 2
河 2
河@@ 2
法 2
法@@ 2
波 2
津@@ 2
洲 2
涂 2
消@@ 2
準@@ 2
满@@ 2
潟@@ 2
灣 2
火 2
灭@@ 2
炮 2
熊@@ 2
爆@@ 2
片@@ 2
玄@@ 2
王@@ 2
甘@@ 2
甲@@ 2
电@@ 2
画 2
疆 2
的 2
皇@@ 2
相 2
盼@@ 2
省@@ 2
石@@ 2
社@@ 2
秋@@ 2
立@@ 2
紀@@ 2
繁@@ 2
绍@@ 2
维@@ 2
署 2
義 2
義@@ 2
羽 2
耶@@ 2
肃 2
肥 2
胡@@ 2
舶 2
船 2
良@@ 2
花 2
花@@ 2
范@@ 2
茨@@ 2
華@@ 2
萨 2
葉@@ 2
蒲 2
藏@@ 2
虎@@ 2
融@@ 2
表@@ 2
覽 2
觀 2
記@@ 2
語@@ 2
諸@@ 2
诸@@ 2
豊@@ 2
走@@ 2
車 2
転 2
近@@ 2
通@@ 2
逸@@ 2
運@@ 2
部@@ 2
鄭 2
里 2
錄 2
长@@ 2
関@@ 2
閩@@ 2
问 2
间 2
阗 2
阜@@ 2
阴 2
陕@@ 2
陛@@ 2
院@@ 2
隸@@ 2
雄 2
集@@ 2
雷@@ 2
静@@ 2
頭 2
顶@@ 2
風@@ 2
香港 2
馬 2
騎@@ 2
马 2
马@@ 2
骂 2
體@@ 2
魏 2
鳥@@ 2
鹿@@ 2
麻 2
黃@@ 2
黒@@ 2
黨 2
龍@@ 2
ꦝ@@ 2
ꦧ@@ 2
ꦸ@@ 2
게@@ 2
고@@ 2
금@@ 2
길@@ 2
내@@ 2
년 2
는 2
다 2
대@@ 2
라 2
려 2
마@@ 2
만@@ 2
빛@@ 2
산 2
삼@@ 2
서@@ 2
성 2
세 2
신@@ 2
에 2
오@@ 2
우@@ 2
은 2
은@@ 2
임 2
자 2
자@@ 2
트@@ 2
하@@ 2
화 2
 2
 2
 2
 2
 2
 2
 2
 2
 2
 2
 2
 2
 2
 2
 2
 2
 2
 2
 2
 2
ﭞ 2
ﭣ 2
ﭳ 2
ﭵ@@ 2
ﮅ 2
ﮋ@@ 2
ﮏ@@ 2
ﮖ 2
ﮜ@@ 2
﷜ 2
﷟ 2
﷽ 2
﷿ 2
ﺗ 2
ﺡ@@ 2
ﺫ 2
ﺲ@@ 2
ﺽ@@ 2
ﺿ 2
ﻁ 2
ﻉ@@ 2
ﻎ@@ 2
（ 2
🌴 2
🐑 2
👩 2
💢 2
🕋 2
😃 2
😓 2
😔 2
😸 2
🚗 2
🤓 2
🦋 2
0er 1
14. 1
4. 1
8. 1
Afrika 1
Akadem@@ 1
Allem@@ 1
Arbeit@@ 1
Ayr@@ 1
Bere@@ 1
Birliği 1
Bình 1
Böl@@ 1
Califor@@ 1
Châu 1
Con 1
Conse@@ 1
Copa 1
Cumhur@@ 1
Công 1
Cộng 1
Danh 1
Dans 1
Durante 1
Dân 1
Dương 1
Eine 1
Eins@@ 1
Ende 1
Entw@@ 1
Er 1
Feb@@ 1
Forsch@@ 1
Fuß@@ 1
Geometr@@ 1
Gesch@@ 1
Grenz@@ 1
Guerra 1
Guerre 1
Haup@@ 1
Hồng 1
Hội 1
Im 1
Juni 1
Kati 1
Kib@@ 1
Kif@@ 1
Kỳ 1
Landes@@ 1
Machi 1
Magharibi 1
Manuel 1
Meister@@ 1
Mittel@@ 1
Mp@@ 1
Mün@@ 1
Mỹ 1
Nguyên 1
Nguyễn 1
Nội 1
Ort@@ 1
Papa 1
Parti 1
Pháp 1
Premier 1
Rech@@ 1
Rus 1
Santi@@ 1
Se 1
Seit 1
Spiel@@ 1
Stadt 1
Teil 1
Teil@@ 1
Theo 1
Tod 1
Trường 1
Une 1
Universität 1
Văn 1
Vương 1
Wash@@ 1
Welt@@ 1
Weltkri@@ 1
Wirt@@ 1
Zwe@@ 1
abril 1
acces@@ 1
aciones 1
adamu 1
adlı 1
adora 1
afin 1
afu 1
aient 1
ainsi 1
aliste 1
alité 1
alten 1
altung 1
altı 1
altında 1
amér@@ 1
améric@@ 1
ancien 1
anderen 1
angla@@ 1
anh 1
anlığı 1
announc@@ 1
antigu@@ 1
anın 1
artist@@ 1
asili 1
asının 1
atao 1
atif 1
ativo 1
atz 1
autres 1
awa@@ 1
ayar@@ 1
años 1
aştır@@ 1
bahn 1
bajo 1
banda 1
bağ@@ 1
başkanı 1
beit@@ 1
beledi@@ 1
bere@@ 1
beri 1
bier@@ 1
bierno 1
bis 1
bö@@ 1
büyü@@ 1
cargo 1
cette 1
chini 1
chiến 1
chter 1
chống 1
chủ 1
chữ 1
ciudad 1
clas@@ 1
constr@@ 1
constru@@ 1
contempor@@ 1
contra 1
crit@@ 1
dado 1
debut 1
depuis 1
dessen 1
destin@@ 1
deuxième 1
değ@@ 1
dici@@ 1
dieses 1
différ@@ 1
dire@@ 1
direction 1
dispar@@ 1
distrito 1
diğ@@ 1
dok@@ 1
donn@@ 1
drei 1
droit 1
dung 1
dunia 1
durch 1
duy@@ 1
dài 1
dès 1
dön@@ 1
dü 1
eben 1
ección 1
ecek@@ 1
ecke 1
eden 1
ehe 1
ehem@@ 1
eint 1
ekana 1
elde 1
eleri 1
ellschaft 1
emper@@ 1
endre 1
enero 1
engo 1
enton@@ 1
entw@@ 1
enzi 1
eren 1
erung 1
esine 1
eso 1
etc. 1
etwa 1
europé@@ 1
eñ@@ 1
faire 1
fall@@ 1
fass@@ 1
favor@@ 1
faz@@ 1
febr@@ 1
fica 1
film@@ 1
fils 1
fot@@ 1
founded 1
franc@@ 1
fte 1
fü@@ 1
führ@@ 1
fün@@ 1
geg@@ 1
gegen 1
gegen@@ 1
gek@@ 1
gesi 1
gest@@ 1
gez@@ 1
geç@@ 1
gin@@ 1
gique 1
gouvernement 1
gé@@ 1
génér@@ 1
gün@@ 1
haben 1
hakk@@ 1
hata 1
herr@@ 1
hier 1
historia 1
hizo 1
huo 1
huy 1
huyện 1
hòa 1
icht@@ 1
ichte 1
ickl@@ 1
icklung 1
idades 1
idir 1
igt 1
igten 1
ihr@@ 1
iku@@ 1
ilde 1
ildi 1
ileri 1
ilio 1
ilir 1
imani 1
immer 1
imu 1
inah@@ 1
inay@@ 1
incor@@ 1
install@@ 1
intro@@ 1
iriki 1
isches 1
ishia 1
isim@@ 1
isième 1
isión 1
issen@@ 1
iste 1
isten 1
istes 1
itig 1
itos 1
ités 1
iß@@ 1
ió 1
ión 1
juli@@ 1
kama 1
kann 1
kari@@ 1
karne 1
kez@@ 1
kik@@ 1
kip@@ 1
koa 1
kommen 1
kua 1
kush@@ 1
lama 1
landa 1
lanz@@ 1
lararası 1
larda 1
ların 1
laya 1
layan 1
leich@@ 1
lere 1
lichen 1
lichkeit 1
lili@@ 1
lise 1
liste 1
lors@@ 1
luğu 1
là 1
lük 1
lık 1
lık@@ 1
lığı 1
mals 1
marzo 1
mash@@ 1
mch@@ 1
medio 1
meng@@ 1
merkezi 1
mim@@ 1
mittel@@ 1
miş 1
miş@@ 1
mois 1
municipio 1
mà 1
müc@@ 1
nach 1
nacional 1
natur@@ 1
neces@@ 1
neue 1
ngo@@ 1
ngữ 1
nh 1
nom 1
nord 1
nouvelle 1
novi@@ 1
nung 1
nur 1
nú@@ 1
nın 1
ober@@ 1
oder 1
ografía 1
oloj@@ 1
onales 1
orta@@ 1
otra 1
ouvent 1
ouver@@ 1
oğ@@ 1
parte 1
partement 1
parti 1
pek@@ 1
pes@@ 1
pf@@ 1
phố 1
platz 1
premier 1
preu@@ 1
principal 1
prés@@ 1
puer@@ 1
quy 1
rağ@@ 1
recher@@ 1
región 1
releas@@ 1
reste 1
riere 1
sao 1
schafts@@ 1
schluss 1
schnit@@ 1
schrift 1
sebe@@ 1
segu@@ 1
sehr 1
seinen 1
seiner 1
selbst 1
simil@@ 1
soft 1
soit 1
solo 1
sonra 1
sort 1
statt 1
stil@@ 1
stitu@@ 1
stän@@ 1
sud 1
sông 1
sö@@ 1
sü@@ 1
tech@@ 1
telev@@ 1
temps 1
teur 1
teurs 1
theo 1
thu 1
thành 1
thị 1
ticas 1
tiem@@ 1
tiene 1
tige 1
tiki 1
tionn@@ 1
tischen 1
tiva 1
tival 1
tober 1
toujours 1
tourn@@ 1
tous 1
toute 1
transfer@@ 1
trat 1
trat@@ 1
trieb@@ 1
tros 1
trực 1
tuy@@ 1
tä@@ 1
tü@@ 1
tür 1
tür@@ 1
tướng 1
udur 1
ufu 1
ulus@@ 1
umia 1
uncu 1
undo 1
unge 1
ungu 1
unu 1
ustos 1
utsch@@ 1
uvent 1
uyền 1
uza 1
uzun 1
uç@@ 1
vai 1
vard@@ 1
vement 1
verk@@ 1
vient 1
vier@@ 1
vita 1
voll@@ 1
vur@@ 1
vô 1
wach@@ 1
wais@@ 1
waka 1
wann 1
wanza 1
wao 1
waz@@ 1
wenda 1
wezi 1
wieder 1
woh@@ 1
wur@@ 1
xã 1
yana@@ 1
yaşam@@ 1
yeri 1
yön@@ 1
yük 1
yüksel@@ 1
yüz@@ 1
yıld@@ 1
zaman@@ 1
zial@@ 1
zwei 1
 1
¦ 1
¨ 1
¬ 1
¯ 1
¶ 1
¹ 1
À 1
Ã 1
Ç 1
États 1
Ì@@ 1
Í 1
Ñ@@ 1
Þ 1
ß 1
ß@@ 1
ám 1
ánh 1
äf@@ 1
ähr@@ 1
ämp@@ 1
änge 1
çok 1
çı 1
édi@@ 1
église 1
était 1
étr@@ 1
études 1
ích 1
òn 1
óg@@ 1
óm 1
ôi 1
öch@@ 1
öst@@ 1
öğ@@ 1
ús@@ 1
über@@ 1
üne 1
üre@@ 1
üt@@ 1
ütz@@ 1
üç@@ 1
üçük 1
ÿ 1
ĉ 1
ċ@@ 1
Đồng 1
Độ 1
Đức 1
đo@@ 1
đạo 1
đảo 1
Ĕ@@ 1
ė@@ 1
Ğ 1
ğin 1
İk@@ 1
ıc@@ 1
ıcı 1
ımı 1
ına 1
ından 1
ını 1
ĵ 1
Ķ@@ 1
ļ@@ 1
ľ@@ 1
ň 1
Ő@@ 1
œ 1
ř 1
Şark@@ 1
ŭ@@ 1
ů 1
ư 1
Ǎ@@ 1
ǰ@@ 1
Ș@@ 1
ɕ 1
ɖ@@ 1
ɗ 1
ɤ@@ 1
ɨ 1
ɭ@@ 1
ɳ 1
ɳ@@ 1
ɴ 1
ɴ@@ 1
ɹ 1
ʀ 1
ʀ@@ 1
ʂ@@ 1
ʄ 1
ʈ@@ 1
ʋ 1
ʏ 1
ʏ@@ 1
ʑ@@ 1
ʖ 1
ʡ@@ 1
ʧ 1
ʲ 1
ʷ 1
ˀ@@ 1
ˁ@@ 1
ˈ 1
ˌ 1
ˮ 1
̀ 1
̈ 1
̯ 1
΄ 1
Ί@@ 1
Ό@@ 1
ΐ@@ 1
Αγ@@ 1
Αγίου 1
Ανατολ@@ 1
Βασίλ@@ 1
Γ 1
Δημ@@ 1
Ελλην@@ 1
Ευρωπαϊκ@@ 1
Η@@ 1
Θεσσαλ@@ 1
Ιν@@ 1
Κά@@ 1
Καλλ@@ 1
Κο@@ 1
Κορ@@ 1
Κωνστ@@ 1
Κύ@@ 1
Λι@@ 1
Λου@@ 1
Μέ@@ 1
Μα@@ 1
Μακεδ@@ 1
Μαρ@@ 1
Με@@ 1
Μον@@ 1
Παν@@ 1
Πανεπιστήμιο 1
Περ@@ 1
Περι@@ 1
Πλ@@ 1
Προ@@ 1
Πρω@@ 1
Ρ@@ 1
Σο@@ 1
Συ@@ 1
Ω 1
Ω@@ 1
άγ@@ 1
άδες 1
άζ@@ 1
άλ@@ 1
άλογ@@ 1
άλυ@@ 1
άνθρω@@ 1
άνω 1
άρχ@@ 1
άς 1
άσ@@ 1
άφ@@ 1
έ 1
έγ@@ 1
έδ@@ 1
έν@@ 1
έπ@@ 1
έρ@@ 1
έρα 1
έσ@@ 1
ήγ@@ 1
ήρ@@ 1
ήσ@@ 1
ίδας 1
ίδι@@ 1
ίλ@@ 1
ίλι@@ 1
ίων 1
αία 1
αίνει 1
αδ@@ 1
ακή 1
ακόμα 1
ανα@@ 1
ανδρ@@ 1
αντι 1
αντιν@@ 1
απ@@ 1
αχ@@ 1
βι@@ 1
γέν@@ 1
γεω@@ 1
γιος 1
γρ@@ 1
δη 1
δη@@ 1
διά 1
δια@@ 1
διαί@@ 1
δική 1
είου 1
εγ@@ 1
εδ@@ 1
εθν@@ 1
ειες 1
ειο 1
εκκλη@@ 1
εμ@@ 1
εν 1
ερ 1
ετα@@ 1
ηγ@@ 1
ημερ@@ 1
ην 1
θέ@@ 1
θή@@ 1
θερ@@ 1
θη@@ 1
θλ@@ 1
θμ@@ 1
θν@@ 1
θος 1
θρ@@ 1
θυ@@ 1
ιάς 1
ιακ@@ 1
ιδ@@ 1
ική 1
ικό 1
ικός 1
ιν@@ 1
ιπ@@ 1
ιτ@@ 1
κα 1
κατα@@ 1
κε@@ 1
κερ@@ 1
κι@@ 1
κλ@@ 1
κλει@@ 1
κο@@ 1
κον@@ 1
λά@@ 1
λί@@ 1
λαμβ@@ 1
λει@@ 1
λειτουργ@@ 1
λευθερ@@ 1
λεύθερ@@ 1
λη 1
λλ@@ 1
λο 1
λυ@@ 1
λυμπ@@ 1
μένα 1
μακ@@ 1
μαχ@@ 1
με 1
μερ@@ 1
μεσ@@ 1
μετ@@ 1
μη 1
μι@@ 1
μμ@@ 1
μο 1
μονα@@ 1
μφ@@ 1
να 1
νες 1
νησ@@ 1
νησι@@ 1
νι@@ 1
νο@@ 1
νόμ@@ 1
ξη 1
ολ@@ 1
ολόγ@@ 1
οντας 1
ορο@@ 1
οσ@@ 1
ουν 1
ους 1
οφ@@ 1
ού 1
ούλ@@ 1
παι@@ 1
παρ@@ 1
περ@@ 1
περισσ@@ 1
πλ@@ 1
ποι@@ 1
πολλ@@ 1
πολυ@@ 1
προ@@ 1
προσ@@ 1
πόλε@@ 1
ράς 1
ρέ@@ 1
ρίσ@@ 1
ραβ@@ 1
ρακ@@ 1
ραφ@@ 1
ργ@@ 1
ρν@@ 1
ροι 1
ρον@@ 1
ροφή 1
ρω@@ 1
ς@@ 1
σε@@ 1
σεις 1
σημαν@@ 1
σμ@@ 1
σσ@@ 1
στήρι@@ 1
στα@@ 1
στο@@ 1
συ@@ 1
σφ@@ 1
σχ@@ 1
τί@@ 1
τα 1
την 1
τι 1
τικ@@ 1
τική 1
τικός 1
τις 1
τολ@@ 1
τον 1
τουργ@@ 1
τούν 1
τραγ@@ 1
τρια 1
τρο 1
τυχ@@ 1
των 1
τός 1
υγ@@ 1
υρ@@ 1
υσ@@ 1
φάν@@ 1
φέρ@@ 1
φαν@@ 1
φιλ@@ 1
φορά 1
φύ@@ 1
χαρ@@ 1
χει@@ 1
χο 1
χρόν@@ 1
χωρι@@ 1
χώ@@ 1
χώρ@@ 1
ωγ@@ 1
ωλ@@ 1
ωνα 1
όδ@@ 1
όκ@@ 1
όλ@@ 1
όμ@@ 1
όν 1
όνομ@@ 1
όπ@@ 1
όρ@@ 1
όρος 1
ότητα 1
όφ@@ 1
ύγ@@ 1
ύλ@@ 1
ύν@@ 1
ώδ@@ 1
ών@@ 1
ώνα 1
ώρ@@ 1
Ϩ@@ 1
Є 1
Ак@@ 1
Ан@@ 1
Бело@@ 1
Би@@ 1
Бы@@ 1
Вар@@ 1
Велико@@ 1
Влади@@ 1
Во 1
Вто@@ 1
Въ@@ 1
Го@@ 1
Гра@@ 1
Ду@@ 1
Жи@@ 1
З 1
Запад@@ 1
К 1
Ке@@ 1
Кита@@ 1
Кор@@ 1
Кри@@ 1
Македо@@ 1
Мал@@ 1
Ман@@ 1
Мария 1
Мини@@ 1
Мон@@ 1
Моск@@ 1
Национа@@ 1
Не@@ 1
Ни@@ 1
Нико@@ 1
Но 1
Па@@ 1
Пе@@ 1
Пи@@ 1
Пра@@ 1
При 1
Про@@ 1
Пу@@ 1
Пър@@ 1
Рабо@@ 1
СССР 1
Сан@@ 1
Се@@ 1
Ста@@ 1
Т 1
Те 1
Ти@@ 1
То@@ 1
Ху@@ 1
Центра@@ 1
Ч 1
Ш 1
Ши@@ 1
Шу@@ 1
Ы@@ 1
Э 1
Ю 1
Я 1
аб@@ 1
ана 1
анд@@ 1
апреля 1
ара 1
армия 1
архите@@ 1
архитек@@ 1
ата 1
ати 1
ати@@ 1
ать 1
бай@@ 1
бал@@ 1
бан@@ 1
бит@@ 1
бло@@ 1
боль@@ 1
бра@@ 1
бре@@ 1
бу 1
бур@@ 1
бург@@ 1
бъ@@ 1
бы@@ 1
был 1
вался 1
вари@@ 1
вая 1
ве 1
вен@@ 1
вени 1
версите@@ 1
вета 1
ви 1
висо@@ 1
вия 1
вну@@ 1
вобо@@ 1
вого 1
вод@@ 1
воз@@ 1
вой 1
война 1
вра@@ 1
вро@@ 1
встре@@ 1
вя@@ 1
ган@@ 1
гат 1
ген@@ 1
ги 1
ги@@ 1
годиш@@ 1
госу@@ 1
государствен@@ 1
гра@@ 1
графи@@ 1
гро@@ 1
група 1
гу 1
губер@@ 1
дан 1
дан@@ 1
дей 1
декабря 1
дение 1
держ@@ 1
джи@@ 1
дии 1
дин 1
доб@@ 1
догово@@ 1
дом 1
дор 1
душ@@ 1
дь 1
ева 1
ед@@ 1
ем@@ 1
емы@@ 1
ено 1
ж 1
же 1
жение 1
жество 1
жиз@@ 1
закон@@ 1
зви@@ 1
зе 1
зем@@ 1
зии 1
зо 1
зу@@ 1
изда@@ 1
ил 1
им@@ 1
има 1
ино@@ 1
ис@@ 1
использо@@ 1
ит@@ 1
ита@@ 1
ительно 1
ити 1
йн@@ 1
каза@@ 1
как@@ 1
кар 1
кар@@ 1
ках 1
кия 1
кня@@ 1
ком@@ 1
коман@@ 1
коми@@ 1
кон@@ 1
кор@@ 1
кос@@ 1
крат@@ 1
кре@@ 1
кри@@ 1
кси@@ 1
кт 1
ктор 1
ку 1
лат@@ 1
ле 1
лев@@ 1
лек@@ 1
лем 1
лен 1
лена 1
ление 1
лет 1
лка 1
лли@@ 1
лов@@ 1
лова 1
лу 1
лъ@@ 1
льно 1
льного 1
льные 1
лю@@ 1
ля 1
ман 1
мар@@ 1
мат@@ 1
материа@@ 1
ме 1
мет@@ 1
мир@@ 1
мит@@ 1
мите 1
миче@@ 1
много 1
мпи@@ 1
музи@@ 1
народ@@ 1
нер@@ 1
нет 1
нии 1
ник@@ 1
ники 1
нина 1
них 1
нов 1
нов@@ 1
нович 1
ного 1
нос@@ 1
ности 1
ня@@ 1
общ@@ 1
объ@@ 1
ография 1
она 1
ора 1
остров 1
още 1
па 1
памя@@ 1
пан@@ 1
пара@@ 1
пат@@ 1
пер@@ 1
писа@@ 1
полу@@ 1
поль@@ 1
поэ@@ 1
пр@@ 1
пра@@ 1
прав@@ 1
предо@@ 1
провин@@ 1
проце@@ 1
пут@@ 1
ран 1
распо@@ 1
реда@@ 1
рез@@ 1
рес@@ 1
рина 1
рите@@ 1
рова@@ 1
род 1
рода 1
ру 1
ръ@@ 1
само@@ 1
сан@@ 1
свобо@@ 1
се 1
себя 1
семей@@ 1
сер@@ 1
ских 1
ския 1
ском 1
скус@@ 1
слав@@ 1
сни@@ 1
соб@@ 1
сов@@ 1
совет@@ 1
спе@@ 1
сс 1
ста 1
став@@ 1
станов@@ 1
стат@@ 1
ства 1
ственной 1
ството 1
сте@@ 1
сти 1
стра@@ 1
сту@@ 1
сты 1
сты@@ 1
сть@@ 1
су 1
със 1
сь 1
ся 1
ся@@ 1
тар@@ 1
те 1
тече@@ 1
тин 1
то 1
тов 1
том 1
том@@ 1
тор 1
трен@@ 1
тру@@ 1
ть@@ 1
тё@@ 1
управ@@ 1
управление 1
фа@@ 1
фло@@ 1
фо@@ 1
фрон@@ 1
хи 1
ца@@ 1
цен@@ 1
ци 1
цией 1
ците 1
чен@@ 1
чер@@ 1
чески 1
ческие 1
чин 1
чо 1
чу@@ 1
ша@@ 1
шей 1
шел 1
шин@@ 1
шки 1
щ 1
ще 1
щения 1
ый 1
ьо@@ 1
ья 1
эк@@ 1
этой 1
ям 1
ян 1
ян@@ 1
ят 1
ёт 1
њ@@ 1
ћ@@ 1
ќ 1
ў 1
Ғ@@ 1
ғ 1
ҙ@@ 1
ҟ@@ 1
ң 1
Ү@@ 1
ҷ@@ 1
ҹ@@ 1
ӏ@@ 1
ӑ@@ 1
ӕ 1
Ә@@ 1
ө 1
Ա@@ 1
Ե@@ 1
Թ@@ 1
Լ@@ 1
Խ@@ 1
Ղ@@ 1
Վ@@ 1
դ@@ 1
զ 1
թ 1
ժ@@ 1
ճ@@ 1
մ 1
շ@@ 1
ս 1
ց@@ 1
ւ 1
ք 1
ք@@ 1
օ@@ 1
֔ 1
֜ 1
֣ 1
֨ 1
֫ 1
ֳ@@ 1
־ 1
ן@@ 1
؊ 1
ؙ@@ 1
ؚ@@ 1
ؠ@@ 1
أجل 1
أغسطس 1
أنها 1
أيضًا 1
إحدى 1
استخدام 1
الاجتماع@@ 1
التالي 1
الثانية 1
الخاصة 1
السياس@@ 1
العديد 1
بشكل 1
حدى 1
سبتمبر 1
ستخد@@ 1
عضاء 1
عملية 1
عندما 1
فيلم 1
كومة 1
لفة 1
لندا 1
لومیٹر 1
مجموعة 1
مواليد 1
ندما 1
ندية 1
والتي 1
يبلغ 1
يمكن 1
ٚ 1
ٛ 1
ٮ@@ 1
ٷ 1
ٷ@@ 1
ٿ 1
ڋ 1
ڍ 1
ڨ@@ 1
ڮ 1
ڱ@@ 1
ڹ 1
ۀ@@ 1
ۆ 1
ۇ 1
ۉ@@ 1
ۍ@@ 1
ێ@@ 1
ۏ 1
ۑ 1
ۘ 1
ۛ 1
۝ 1
ۢ@@ 1
ۦ 1
ۨ 1
ۨ@@ 1
ۯ 1
ۿ 1
ܖ 1
ܗ@@ 1
ܘ 1
ܙ@@ 1
ܚ 1
ܟ@@ 1
ܡ 1
ܢ 1
ܣ 1
ܥ 1
ܦ@@ 1
ܩ@@ 1
ܪ 1
ܶ@@ 1
ܸ@@ 1
ܹ@@ 1
ܼ@@ 1
ܽ@@ 1
ݒ 1
ݘ 1
ހ@@ 1
ޔ@@ 1
ޖ@@ 1
ޤ@@ 1
ާ 1
ާ@@ 1
ި 1
ީ 1
ޫ@@ 1
ް 1
ࠂ@@ 1
ࠄ@@ 1
ࠆ@@ 1
ࠌ 1
ࠝ@@ 1
ࠟ@@ 1
ࣿ 1
ࣿ@@ 1
ँ 1
ंगे 1
ंड 1
ंडर 1
ंद 1
अं@@ 1
अंग 1
अंतर@@ 1
अथ@@ 1
अन@@ 1
अनु@@ 1
अप@@ 1
अपने 1
अफ 1
अब 1
अभ@@ 1
अभि@@ 1
अर@@ 1
अल 1
आं@@ 1
आत 1
आध@@ 1
आर 1
इं@@ 1
इंड@@ 1
इन 1
उत 1
उदाहरण 1
उप@@ 1
उपा@@ 1
ऊ 1
एं 1
एवं 1
एस 1
एस@@ 1
ऑ@@ 1
ओं 1
करा@@ 1
कहा 1
कहानी 1
कार@@ 1
काल 1
काल@@ 1
काव 1
कुमा@@ 1
कुमार 1
कृ@@ 1
कै@@ 1
कों 1
कौ@@ 1
खा@@ 1
खो@@ 1
गं@@ 1
गए 1
गठन 1
गया 1
गाँव 1
गि@@ 1
गे@@ 1
गौ@@ 1
घ 1
चर 1
चि@@ 1
चे@@ 1
चै@@ 1
छा@@ 1
छोड 1
जग@@ 1
जल@@ 1
जीत 1
जीवन 1
जो 1
झ 1
ञ@@ 1
टक 1
टर 1
टा 1
टा@@ 1
टि 1
टू@@ 1
टे 1
टेड 1
डा 1
डि@@ 1
डिया 1
डी 1
डे@@ 1
णा@@ 1
णी 1
तः 1
तथा 1
तिम 1
तु 1
तृ@@ 1
तो 1
थन 1
था 1
थान 1
दि 1
दित 1
दिन 1
दिया 1
दू 1
दू@@ 1
देते 1
दो 1
दों 1
दौ@@ 1
धा 1
धान 1
नगर 1
नर 1
नाइ@@ 1
नाम 1
निया 1
निष 1
निस 1
नु@@ 1
पक 1
पढ 1
पन 1
पर@@ 1
पश 1
पा 1
पार 1
पाल 1
पुत 1
पुस 1
पृ@@ 1
पृथ 1
फा@@ 1
फि@@ 1
बं@@ 1
बंध@@ 1
बच 1
बड 1
बद@@ 1
बन 1
बन@@ 1
बहु@@ 1
बाहर 1
बिहार 1
बु@@ 1
बे@@ 1
बै@@ 1
भगवान 1
भर 1
भव 1
भार@@ 1
भी 1
भूमि@@ 1
मनो@@ 1
मल 1
महि@@ 1
माता 1
मार 1
माल 1
मिक 1
मिला 1
मुख 1
मृत 1
मे 1
मौ@@ 1
यद 1
यन 1
यान 1
येक 1
रंग 1
रक 1
रख@@ 1
रत@@ 1
रता 1
रति 1
रथ@@ 1
रदर 1
रमण 1
रल 1
रव 1
रहने 1
रां@@ 1
राइ@@ 1
राजस 1
रान 1
राय@@ 1
रिक 1
रीय 1
रु 1
रू@@ 1
रेज 1
रेन 1
ऱ@@ 1
लग 1
लर 1
लिय@@ 1
ली@@ 1
लू 1
लौ@@ 1
वन@@ 1
वय@@ 1
वर 1
वह 1
वि 1
विक 1
विध@@ 1
विभाग 1
विशे@@ 1
वी@@ 1
शं@@ 1
शर 1
शरीर 1
शिक 1
षक 1
षि 1
षि@@ 1
संख 1
संगीत 1
संयुक 1
सक 1
सन 1
सब@@ 1
सभा 1
समुद 1
सर@@ 1
सरकार 1
सागर 1
साम@@ 1
सामान 1
सिं@@ 1
हन 1
हर 1
हित 1
हुए 1
होता 1
ऽ@@ 1
िया@@ 1
ियो@@ 1
िल 1
ृत 1
ौ 1
॒ 1
०० 1
३@@ 1
५ 1
५@@ 1
७ 1
९@@ 1
ং 1
ই 1
এ@@ 1
ঐ@@ 1
ঞ@@ 1
ৃ@@ 1
ৈ@@ 1
ৌ@@ 1
ৎ@@ 1
৬@@ 1
ৰ 1
ৱ@@ 1
ਈ@@ 1
ਊ 1
ਐ 1
ਝ@@ 1
ਢ@@ 1
ਥ 1
ਭ 1
੨ 1
੩ 1
੪ 1
ੴ 1
આ@@ 1
ઇ@@ 1
ક 1
ખ 1
ખ@@ 1
ચ@@ 1
જ 1
ઠ@@ 1
ત 1
થ@@ 1
ધ@@ 1
પ 1
ભ@@ 1
ર 1
લ 1
ળ@@ 1
વ@@ 1
શ 1
ૂ@@ 1
ଏ 1
ଓ@@ 1
ଚ 1
ଛ@@ 1
ଝ@@ 1
ଠ 1
ଠ@@ 1
ଣ 1
ଧ 1
ଵ 1
ହ 1
ୌ@@ 1
ୱ@@ 1
ஈ@@ 1
ச 1
ஶ 1
ஸ 1
ோ 1
ఇ@@ 1
ఘ@@ 1
జ 1
ణ@@ 1
థ 1
ృ@@ 1
ై@@ 1
ొ@@ 1
ಝ@@ 1
ಞ@@ 1
ಣ@@ 1
ಧ 1
ಪ 1
ಭ 1
ಸ 1
ೀ 1
ೂ 1
ೃ@@ 1
೯@@ 1
ം@@ 1
അ@@ 1
ആ@@ 1
ഇ@@ 1
എ@@ 1
ഗ 1
ഘ@@ 1
ച 1
ച@@ 1
ജ@@ 1
ദ 1
റ@@ 1
ശ 1
ശ@@ 1
ഷ 1
ഷ@@ 1
സ@@ 1
ഹ@@ 1
െ 1
ൊ@@ 1
ൻ 1
ජ 1
ට 1
ට@@ 1
ප 1
බ 1
බ@@ 1
භ@@ 1
ශ@@ 1
ළ@@ 1
ි 1
ු 1
กา@@ 1
ค@@ 1
คุ@@ 1
ง@@ 1
งค@@ 1
จ@@ 1
จักร@@ 1
จุ@@ 1
ช 1
ซิ 1
ฌ@@ 1
ญ@@ 1
ณ 1
ตร 1
ตา@@ 1
ตำ@@ 1
ถ 1
ถ@@ 1
ท 1
ทร@@ 1
บ@@ 1
บาง@@ 1
ป 1
ปริ@@ 1
ผ@@ 1
พร@@ 1
พิ@@ 1
ภ@@ 1
มนตรี 1
มพ@@ 1
มั@@ 1
มา 1
ย 1
รัก 1
ราช@@ 1
ล 1
ลักษ@@ 1
ลา@@ 1
ลิ@@ 1
ว 1
วั@@ 1
วี 1
ษ 1
ษ@@ 1
ส@@ 1
สม@@ 1
ห@@ 1
ฬ@@ 1
อง@@ 1
อา 1
อาณา@@ 1
ฮ@@ 1
ัก@@ 1
ัน@@ 1
ิ 1
ิน 1
ิม 1
ี 1
ี@@ 1
ุ 1
ู 1
เ@@ 1
เกา@@ 1
เต@@ 1
เท@@ 1
แ@@ 1
แด@@ 1
แส@@ 1
โ@@ 1
ไทย 1
ກ@@ 1
ຂ@@ 1
ງ 1
ທ@@ 1
ນ 1
ນ@@ 1
ວ@@ 1
ສ@@ 1
າ 1
າ@@ 1
ເ 1
້ 1
ໍ 1
ཆ@@ 1
པ 1
བ 1
ཙ@@ 1
འ 1
ྔ@@ 1
ྟ@@ 1
ྡ@@ 1
ྣ@@ 1
ྦ@@ 1
ྭ@@ 1
ྷ 1
ྷ@@ 1
က@@ 1
ခ@@ 1
င@@ 1
စ@@ 1
ပ@@ 1
သ@@ 1
ု 1
ု@@ 1
ံ@@ 1
ျ@@ 1
ე 1
ჰ@@ 1
ჶ@@ 1
ሃ@@ 1
ል@@ 1
ሎ@@ 1
ሠ 1
ሪ@@ 1
ራ 1
ሰ@@ 1
ስ@@ 1
ሶ@@ 1
ሼ 1
ሽ 1
በ@@ 1
ባ 1
ብ@@ 1
ቦ@@ 1
ት 1
ት@@ 1
ኃ@@ 1
ነ@@ 1
ኛ 1
ኝ 1
ኢ@@ 1
ኤ@@ 1
ክ@@ 1
ኵ@@ 1
ዐ@@ 1
ዕ@@ 1
ዛ 1
ዝ 1
ያ 1
ያ@@ 1
ይ@@ 1
ዮ@@ 1
ዳ@@ 1
ጀ@@ 1
ጉ@@ 1
ጵ@@ 1
ጽ@@ 1
ፈ 1
ፋ@@ 1
គ@@ 1
ង 1
ច@@ 1
ជ 1
ឌ@@ 1
ណ 1
ត 1
ត@@ 1
ន@@ 1
ប@@ 1
វ@@ 1
ហ@@ 1
ឥ@@ 1
ឰ@@ 1
ា 1
ុ@@ 1
ូ@@ 1
េ@@ 1
ែ@@ 1
ះ@@ 1
ᠠ@@ 1
ᠡ@@ 1
ᠢ@@ 1
ᠦ 1
ᠦ@@ 1
ᠨ 1
ᠬ@@ 1
ᠯ@@ 1
ᠲ@@ 1
ᠵ@@ 1
ᠺ@@ 1
ᱜ@@ 1
ᱝ@@ 1
ᵻ@@ 1
Ḍ@@ 1
ḗ 1
ḡ@@ 1
ḫ@@ 1
Ḳ@@ 1
ḳ@@ 1
ḷ 1
ṁ 1
ṅ@@ 1
ṇ 1
ṉ 1
ṓ@@ 1
Ṛ@@ 1
Ṣ 1
ṣ 1
ṳ 1
ẑ 1
Ẓ@@ 1
ẓ 1
ẖ 1
ạm 1
ập 1
ật 1
ắc 1
ẹ@@ 1
ế 1
ết 1
ọ@@ 1
ọng 1
ộc 1
ờ 1
ức 1
ỳ@@ 1
ἑ@@ 1
ἕ@@ 1
ἶ@@ 1
Ἱ@@ 1
ὄ@@ 1
Ὄ@@ 1
ὔ@@ 1
Ὑ@@ 1
Ὠ@@ 1
ὴ 1
ᾰ 1
ᾱ 1
Ᾰ@@ 1
Ᾱ@@ 1
᾿ 1
ῃ@@ 1
ῑ@@ 1
Ῥ@@ 1
ῳ@@ 1
ῴ@@ 1
„ 1
‡ 1
‿ 1
⁰ 1
₦ 1
₩ 1
₪ 1
₴ 1
₺ 1
₽ 1
℃ 1
℅ 1
⅔ 1
⅞ 1
⇩ 1
∕ 1
∫ 1
≋ 1
≡ 1
⊰ 1
⊱ 1
⎘ 1
○ 1
◦ 1
☀ 1
☜ 1
☞ 1
☠ 1
♀ 1
♙ 1
♟ 1
♯ 1
⚢ 1
⚣ 1
⚧ 1
✂ 1
✕ 1
➀ 1
➁ 1
➂ 1
➃ 1
➄ 1
➅ 1
➆ 1
➇ 1
➈ 1
➉ 1
ⲁ 1
ⲉ 1
ⲏ@@ 1
Ⲑ@@ 1
ⲑ@@ 1
ⲓ 1
Ⲕ@@ 1
ⲕ 1
ⲕ@@ 1
Ⲙ@@ 1
ⲙ@@ 1
Ⲡ@@ 1
ⲡ@@ 1
ⲣ 1
ⲣ@@ 1
ⲧ 1
Ⲭ@@ 1
ⴰ 1
ⴼ@@ 1
ⵓ@@ 1
ⵙ@@ 1
。 1
あ@@ 1
う@@ 1
か 1
か@@ 1
が 1
ぐ@@ 1
こ@@ 1
し 1
し@@ 1
そ 1
つ 1
で@@ 1
な@@ 1
ぬ 1
は 1
び 1
ふ 1
ふ@@ 1
ま@@ 1
も@@ 1
や 1
ら 1
り@@ 1
る 1
を@@ 1
ェ 1
グ@@ 1
ケ 1
サ@@ 1
ザ 1
ジ 1
ズ@@ 1
セ@@ 1
ダ@@ 1
ツ 1
デ 1
ノ@@ 1
ハ@@ 1
バ 1
パ@@ 1
ピ 1
ピ@@ 1
フ 1
プ@@ 1
ベ@@ 1
ペ@@ 1
ホ 1
ポ 1
メ 1
ャ 1
ュ 1
ヨ@@ 1
ラ 1
ロ 1
ㇽ 1
七 1
七@@ 1
万 1
三 1
上 1
下@@ 1
不@@ 1
世纪 1
业@@ 1
东@@ 1
中國 1
丸 1
丹@@ 1
丽 1
之 1
乌@@ 1
习@@ 1
乡 1
乡@@ 1
书@@ 1
乱 1
亂 1
了@@ 1
事@@ 1
二@@ 1
于 1
于@@ 1
互@@ 1
亥 1
亦 1
产@@ 1
京 1
亮 1
人@@ 1
仁@@ 1
仍 1
仏@@ 1
仕 1
仙 1
仙@@ 1
代表 1
令@@ 1
份@@ 1
位@@ 1
佩@@ 1
使 1
例@@ 1
供@@ 1
価@@ 1
侯 1
俠@@ 1
俥 1
修 1
俺 1
倍@@ 1
借@@ 1
倫 1
倭 1
偉 1
傌 1
備@@ 1
儀 1
儒 1
儒@@ 1
元@@ 1
党@@ 1
共@@ 1
具 1
典 1
养@@ 1
兼@@ 1
内@@ 1
冒 1
冰 1
冰@@ 1
冷@@ 1
准 1
函@@ 1
列@@ 1
初 1
利 1
利@@ 1
别@@ 1
券@@ 1
前@@ 1
劉 1
劉@@ 1
力@@ 1
办@@ 1
功 1
务@@ 1
勇@@ 1
勒 1
動 1
勲 1
包@@ 1
化@@ 1
医 1
医@@ 1
十@@ 1
半@@ 1
卍 1
华 1
卐 1
卒 1
博@@ 1
卷@@ 1
厂@@ 1
历@@ 1
原@@ 1
厥 1
厦 1
厳@@ 1
县@@ 1
叉 1
受@@ 1
古@@ 1
可 1
叶@@ 1
号 1
司@@ 1
各@@ 1
名 1
名@@ 1
后 1
后@@ 1
向@@ 1
吳 1
吳@@ 1
吴@@ 1
吾 1
告 1
呦 1
呦@@ 1
呼@@ 1
命 1
命@@ 1
咨 1
哀 1
品@@ 1
哥 1
哭 1
唐@@ 1
問@@ 1
善 1
喜@@ 1
器 1
嚴 1
园 1
围@@ 1
国家 1
圆 1
園 1
圖 1
坑@@ 1
坤 1
垂 1
域 1
執@@ 1
培@@ 1
埼@@ 1
堂 1
堅 1
塔@@ 1
塚 1
墓 1
士 1
変 1
夏@@ 1
多@@ 1
夫 1
女 1
女@@ 1
奶 1
好@@ 1
妃 1
妻@@ 1
委员@@ 1
姫 1
娥 1
婚 1
婷 1
婷@@ 1
媒@@ 1
媛@@ 1
嫁 1
嬴@@ 1
孔 1
孛 1
学 1
学@@ 1
孩@@ 1
學 1
宇@@ 1
官 1
客@@ 1
宮 1
宰@@ 1
家 1
家@@ 1
宿@@ 1
察@@ 1
寧 1
寶 1
寿 1
将 1
將 1
導@@ 1
小 1
尚@@ 1
尼 1
尼@@ 1
屋@@ 1
展@@ 1
属 1
屠@@ 1
屿 1
岛 1
岡 1
岩@@ 1
岸@@ 1
峡@@ 1
嶺@@ 1
嶼 1
州@@ 1
巨@@ 1
巴@@ 1
帅 1
师@@ 1
帥 1
带 1
幌@@ 1
干 1
年@@ 1
幻@@ 1
広@@ 1
庄 1
度@@ 1
庫@@ 1
康 1
廊 1
建@@ 1
引@@ 1
弘 1
弘@@ 1
張 1
強 1
强 1
彩@@ 1
從@@ 1
御@@ 1
徽 1
忍 1
忠@@ 1
念 1
恋 1
息 1
息@@ 1
惠@@ 1
惹 1
感@@ 1
慈@@ 1
慕@@ 1
慶 1
戦 1
戰@@ 1
戸 1
所 1
所@@ 1
扇@@ 1
手 1
打@@ 1
托 1
技@@ 1
报 1
报@@ 1
抳 1
拳@@ 1
捏 1
揆@@ 1
揚@@ 1
摩@@ 1
撃@@ 1
撒@@ 1
播@@ 1
攻@@ 1
敏 1
教 1
斯@@ 1
新 1
方 1
旅 1
日本 1
旧@@ 1
春@@ 1
昭@@ 1
显@@ 1
晋@@ 1
晶@@ 1
智 1
暫@@ 1
曆@@ 1
書 1
書@@ 1
曼 1
月 1
朗 1
朝@@ 1
木 1
末 1
札@@ 1
来 1
来@@ 1
松 1
板 1
林@@ 1
枚 1
柔@@ 1
栃@@ 1
标@@ 1
校 1
核@@ 1
根@@ 1
格 1
桃 1
桥 1
梦 1
梨@@ 1
棋 1
楊@@ 1
業@@ 1
楽 1
槎 1
槟@@ 1
樓 1
樹@@ 1
橋 1
橋@@ 1
檳@@ 1
次 1
次@@ 1
歓 1
步@@ 1
歼 1
殊 1
殖@@ 1
殲 1
氏 1
汗@@ 1
汤@@ 1
汪@@ 1
沈@@ 1
沒 1
沙 1
没 1
沢@@ 1
泉 1
波@@ 1
泥 1
泽@@ 1
洋@@ 1
洪 1
流 1
浙@@ 1
浩@@ 1
浪@@ 1
涯 1
淸@@ 1
渤@@ 1
温@@ 1
港@@ 1
湯@@ 1
源 1
溝 1
滋@@ 1
滝 1
滿 1
演@@ 1
漢@@ 1
漿 1
澤@@ 1
濟 1
瀛 1
灣@@ 1
炮@@ 1
為 1
烏@@ 1
焚@@ 1
然 1
熙@@ 1
熱@@ 1
熹 1
燈 1
燕@@ 1
爭 1
版 1
物 1
物@@ 1
犬@@ 1
独 1
猪 1
猿@@ 1
玉@@ 1
环@@ 1
班 1
瑕 1
瑞 1
瑞@@ 1
環@@ 1
生 1
町@@ 1
畦 1
番 1
畫 1
畵 1
畿@@ 1
疆@@ 1
痛 1
痴 1
發@@ 1
白 1
百 1
皆 1
盘@@ 1
盛@@ 1
監 1
目@@ 1
直 1
県@@ 1
着@@ 1
砲 1
確 1
磐 1
礼 1
社 1
祁@@ 1
禧@@ 1
禹@@ 1
秋 1
种 1
科@@ 1
秦@@ 1
稹 1
稿 1
空 1
空@@ 1
突@@ 1
立 1
章 1
競@@ 1
第@@ 1
第一@@ 1
等@@ 1
简 1
简@@ 1
簡 1
簡@@ 1
类@@ 1
経 1
結@@ 1
統@@ 1
絵 1
継 1
緑@@ 1
編 1
總@@ 1
红 1
纽@@ 1
细@@ 1
统@@ 1
综@@ 1
罗 1
羅 1
群@@ 1
習@@ 1
聘@@ 1
聞 1
聞@@ 1
肉@@ 1
股@@ 1
腕 1
自@@ 1
興 1
舊@@ 1
航 1
船@@ 1
良 1
色@@ 1
艾@@ 1
节 1
芬 1
苏 1
苦@@ 1
英 1
英@@ 1
茂@@ 1
茅 1
菅 1
菱@@ 1
菽 1
萝@@ 1
萬@@ 1
蒙@@ 1
蔔 1
蔡@@ 1
薄@@ 1
薩@@ 1
藤 1
蘇 1
蘇@@ 1
蘭 1
蘭@@ 1
蘿@@ 1
蜀 1
螽 1
行 1
行@@ 1
術 1
街 1
衡 1
衣 1
袁 1
袁@@ 1
被@@ 1
裂@@ 1
裕@@ 1
裸@@ 1
襲 1
覇@@ 1
解@@ 1
計@@ 1
訪@@ 1
訶 1
証@@ 1
詞 1
詩 1
誕 1
誠 1
談 1
護@@ 1
计 1
记 1
话 1
谷 1
象 1
貢 1
貧@@ 1
賤@@ 1
贅 1
贝@@ 1
赤@@ 1
越 1
路@@ 1
蹦 1
蹦@@ 1
軸@@ 1
轮@@ 1
辖@@ 1
辛@@ 1
辞 1
达@@ 1
远@@ 1
逆@@ 1
透@@ 1
通 1
進 1
進@@ 1
遇 1
道@@ 1
達 1
遠 1
遥 1
遭@@ 1
遷 1
那@@ 1
邦 1
邵@@ 1
郎 1
鄭@@ 1
里@@ 1
重 1
重@@ 1
量 1
金 1
鈴@@ 1
鉄 1
鐵@@ 1
铁@@ 1
锐 1
锦@@ 1
镇 1
镕@@ 1
門 1
間 1
阪@@ 1
阳 1
阴@@ 1
阿@@ 1
际@@ 1
陈@@ 1
陳@@ 1
陸@@ 1
険 1
陽 1
陽@@ 1
隆 1
隆@@ 1
隊 1
隧@@ 1
集 1
雜@@ 1
雲 1
霊 1
青 1
面@@ 1
革@@ 1
靴 1
韓@@ 1
音 1
預@@ 1
願@@ 1
類 1
顯 1
额@@ 1
風 1
风@@ 1
食@@ 1
館 1
香@@ 1
鬆 1
鬼@@ 1
魔@@ 1
魯@@ 1
鯀@@ 1
鲁@@ 1
鸦@@ 1
鹏@@ 1
黄 1
黙 1
齊 1
齐 1
齐@@ 1
ꜣ 1
ꦂ 1
ꦕ@@ 1
ꦤ 1
ꦫ@@ 1
ꦶ@@ 1
꧀ 1
계 1
고 1
과 1
광 1
구@@ 1
근@@ 1
금 1
기 1
깃@@ 1
난 1
내 1
노@@ 1
다@@ 1
데@@ 1
도@@ 1
두 1
두@@ 1
드@@ 1
득@@ 1
들@@ 1
뜻 1
뜻@@ 1
라@@ 1
락@@ 1
란@@ 1
랙@@ 1
랜 1
럭@@ 1
력@@ 1
론 1
름@@ 1
리@@ 1
림 1
만 1
맘 1
몸@@ 1
문@@ 1
뭉@@ 1
밀@@ 1
바@@ 1
반@@ 1
받@@ 1
백@@ 1
법 1
법@@ 1
보@@ 1
부@@ 1
블@@ 1
사@@ 1
상@@ 1
서 1
선@@ 1
설@@ 1
성@@ 1
세@@ 1
센 1
솟@@ 1
수@@ 1
스 1
스@@ 1
슬@@ 1
시@@ 1
안 1
안@@ 1
앞@@ 1
어@@ 1
억@@ 1
업 1
없@@ 1
여@@ 1
영@@ 1
온 1
왕@@ 1
운 1
울 1
원@@ 1
유 1
으@@ 1
을 1
의@@ 1
이@@ 1
인 1
재@@ 1
전@@ 1
제@@ 1
주 1
진 1
진@@ 1
징@@ 1
찬@@ 1
천@@ 1
철@@ 1
쳐 1
쳐@@ 1
침@@ 1
키@@ 1
타@@ 1
펜@@ 1
표@@ 1
하 1
합@@ 1
호 1
화@@ 1
후 1
힘 1
 1
 1
 1
 1
 1
 1
 1
 1
 1
 1
 1
 1
 1
 1
 1
 1
 1
 1
 1
 1
 1
 1
 1
 1
 1
 1
 1
 1
 1
 1
 1
 1
 1
 1
 1
 1
 1
 1
 1
 1
 1
 1
 1
 1
 1
 1
 1
 1
 1
 1
 1
 1
 1
 1
 1
 1
 1
 1
ﭘ 1
ﭪ 1
ﭻ@@ 1
ﮓ@@ 1
ﮮ@@ 1
﷞ 1
﷢ 1
﷭ 1
﷯ 1
ﷻ 1
ﹶ@@ 1
ﹺ@@ 1
ﺂ@@ 1
ﺄ@@ 1
ﺇ@@ 1
ﺓ 1
ﺢ@@ 1
ﺦ@@ 1
ﺵ@@ 1
ﺸ 1
ﺹ@@ 1
ﺾ@@ 1
ﻁ@@ 1
ﻍ@@ 1
ﻒ@@ 1
ﻕ@@ 1
ﻯ@@ 1
！ 1
） 1
， 1
－ 1
５@@ 1
＜ 1
＞ 1
･ 1
𐀅@@ 1
𐀍@@ 1
𐀒@@ 1
𐀙 1
𐀪@@ 1
𐒆@@ 1
𐒈@@ 1
𐒐@@ 1
𐒑@@ 1
𐒖 1
𐒘@@ 1
𐒛@@ 1
𐒝@@ 1
𐡀 1
𐣠 1
𐣠@@ 1
𐣡@@ 1
𐣣@@ 1
𐣩@@ 1
𐤀 1
𐤓@@ 1
𐤔 1
𐤔@@ 1
𐤕@@ 1
𐩩 1
𐩫@@ 1
𐩬@@ 1
𐩵@@ 1
𐭠 1
𐭥@@ 1
𐭧@@ 1
𐭩 1
𐭩@@ 1
𐭪 1
𐭫@@ 1
𐭬@@ 1
𐭭@@ 1
𐭲@@ 1
𒂟 1
𒈥@@ 1
𒋾@@ 1
𒌅 1
🌃 1
🌍 1
🌷 1
🍁 1
🍞 1
🎉 1
🎞 1
🏁 1
🏻 1
🐅 1
🐊 1
🐍 1
🐘 1
📃 1
📅 1
📖 1
📚 1
📞 1
🔪 1
🖍 1
🗞 1
😊 1
😜 1
😡 1
😼 1
🚫 1
🤲 1
🥛 1
🧘 1
