. 5625852
, 4136577
&apos; 3258545
ve 2269762
&quot; 1949936
bir 1396432
de 1005410
k@@ 977476
y@@ 970467
da 922863
ı 851315
) 821379
( 819642
i 803256
ç@@ 787189
an 707959
in 689323
ın 677376
ş@@ 670225
ar@@ 655057
@-@ 608661
olarak 580375
en 579158
al@@ 571020
t@@ 564717
ile 550432
d@@ 531171
K@@ 514409
an@@ 512900
k 490441
ak@@ 488828
et@@ 486427
S@@ 477055
ler 474816
lar 473723
l@@ 463665
ya 457815
a 450727
ol@@ 447896
leri 441478
il@@ 432898
ay@@ 430837
ad@@ 417052
at@@ 415827
am@@ 405927
er@@ 404452
ları 401368
z@@ 400986
s@@ 400115
için 398144
u 395754
Y@@ 392960
g@@ 391563
n@@ 389862
m@@ 381365
ü@@ 380470
im@@ 375753
h@@ 374193
r@@ 374101
e 371654
ıl@@ 365508
ında 362594
inde 359865
bu 359732
esi 357965
H@@ 357530
ı@@ 356522
T@@ 356495
un 355073
D@@ 354733
olan 347365
ine 339668
M@@ 338986
ik@@ 336307
ğ@@ 333750
dir 332796
ır 332633
ini 331116
ar 330118
’ 324206
li 317311
c@@ 316233
as@@ 314278
ek@@ 308869
el@@ 305531
B@@ 302268
or@@ 301264
ır@@ 300267
el 299929
en@@ 297939
ü 297527
ta 295791
ın@@ 294932
ına 294519
ası 292719
al 292239
E@@ 291191
A@@ 288480
ak 286521
yılında 283605
İ@@ 283221
tarafından 282312
at 281037
den 277760
iş@@ 276395
G@@ 275440
ma 275328
yap@@ 271644
la 270383
ül@@ 266557
er 265810
ti@@ 264817
inin 264374
ver@@ 263321
in@@ 263150
ağ@@ 259564
N@@ 258510
Bu 258258
sonra 257762
te 256699
em@@ 255749
; 254264
ir@@ 253026
ul@@ 250702
ış@@ 249059
ö@@ 247551
ye 246363
lı 246023
p@@ 243265
: 242391
b@@ 241645
v@@ 240155
ının 239339
Ç@@ 237169
nin 236260
es@@ 234611
isi 234429
is@@ 234039
nın 232854
ç 231865
ını 230511
f@@ 229773
z 229475
C@@ 226209
P@@ 226141
ik 224197
bir@@ 223481
un@@ 219632
gel@@ 219031
iy@@ 218766
di 218588
baş@@ 216785
L@@ 215007
aş@@ 211109
ör@@ 209779
y 209300
et 209278
F@@ 208597
dan 207489
iz@@ 204311
daha 203117
kar@@ 202572
ir 201688
O@@ 201604
ların 199741
ilk 199028
di@@ 198569
um@@ 198090
kon@@ 197946
R@@ 197406
ab@@ 196145
ac@@ 195931
u@@ 189395
kal@@ 188897
ıyla 186208
ise 185376
p 184809
ev@@ 182015
i@@ 181369
ek 180122
ş 179388
az@@ 179021
yaz@@ 177983
Ş@@ 177593
on@@ 176708
ah@@ 176589
aç@@ 175537
say@@ 175211
a@@ 175136
ür@@ 174977
on 174435
ından 174040
lan@@ 173198
re@@ 172437
yıl@@ 171544
inden 170478
ık 170251
ması 169607
yer 169269
me@@ 168616
üm@@ 168001
m 167681
ım@@ 165502
ün@@ 164918
im 164867
e@@ 164803
le@@ 164670
le 163560
me 163479
l 163354
ay 161259
us 160031
ey@@ 158794
Ar@@ 158360
te@@ 158147
ur@@ 158114
ım 157733
dı 157485
ap@@ 157107
ıs@@ 156817
V@@ 156468
id@@ 156335
gibi 156186
mektedir 156175
it@@ 155603
ık@@ 155554
se@@ 154979
çok 154880
miştir 154706
ku@@ 153260
kur@@ 152840
am 152694
lık 152500
ok@@ 152402
du 151961
pl@@ 150792
li@@ 149058
alı 148292
av@@ 148281
geç@@ 148094
eri 146620
ği 146186
de@@ 146004
1 145963
adı 145557
t 145547
unda 145101
d 144852
ed@@ 144707
bi@@ 144406
lam@@ 144054
arasında 143980
mıştır 143228
uy@@ 142857
len@@ 142792
si@@ 142521
ti 140983
â@@ 140648
us@@ 140433
kay@@ 139068
alar@@ 138896
ne@@ 138837
and@@ 138759
yaş@@ 138557
son@@ 138338
ada 137813
oy@@ 137455
kadar 137424
ısı 137362
2 137188
bil@@ 136185
ist@@ 135740
ken 135583
ış 135511
bağlı 135507
lerin 134975
o 134916
anı 134541
veya 134110
iki 133398
= 133270
maktadır 132598
ıdır 132329
man@@ 130878
lik 130836
öl@@ 130520
yan@@ 130286
ne 129804
um 128961
j@@ 128084
çalış@@ 128059
ün 128036
ana 127804
büyük 126823
af@@ 126704
aya 126391
çık@@ 126328
doğ@@ 125653
yer@@ 125591
il 125498
arak 125287
ur 124616
ot@@ 124535
yas@@ 124010
der@@ 123221
larında 123084
lem@@ 122968
eler@@ 122578
deki 122477
göre 121592
öz@@ 121519
ılar 121323
ığı 120470
sür@@ 120158
tem@@ 119902
o@@ 119692
eş@@ 118887
hal@@ 118632
iler 118501
az 118418
oldu 117996
mas@@ 117936
ki 117930
s 117822
unu 117472
ut@@ 117197
An@@ 116954
tan@@ 115898
iler@@ 114880
den@@ 114876
ler@@ 114800
daki 114401
ük@@ 114327
Kar@@ 114041
kö@@ 113548
tar@@ 113299
bulunan 112355
h 111828
tı 111820
miş 111812
os@@ 111779
&#124; 111493
unun 111389
ec@@ 110950
men@@ 110439
ser@@ 110321
ön@@ 110170
gen@@ 110049
göster@@ 110047
mak 110032
n 110013
it 110008
una 109929
ter@@ 109894
larda 109638
gü@@ 109185
ımı 109135
Z@@ 109129
eti 108347
tür@@ 108140
mesi 107717
ıy@@ 107591
kad@@ 106947
arı 106739
ıt@@ 106336
seç@@ 106181
yi 106130
or 105243
mak@@ 104807
bulun@@ 104806
yar@@ 104689
mek 104529
3 104476
tr@@ 104384
4 104066
edil@@ 104063
kurul@@ 103899
Türkiye 103564
olduğu 103110
ız@@ 102992
ayr@@ 102930
- 102898
ama 102717
ür 102393
lara 102146
.@@ 102117
na 101938
Al@@ 101892
kullan@@ 101624
ca 101359
gir@@ 100841
ten 100602
Ö@@ 100541
res@@ 100331
ıldı 100314
f 99926
maya 99756
kap@@ 98706
mi 98566
mış 98539
Er@@ 98473
üt@@ 98305
topl@@ 98241
yon@@ 98226
kat@@ 98020
aki 97915
diği 97874
par@@ 97696
J@@ 97159
ildi 96405
tek@@ 96402
larını 96078
uk@@ 95867
lu 95674
lerini 95007
om@@ 95002
lar@@ 94959
tarihinde 94785
son 94575
çek@@ 94359
ünde 94333
U@@ 93906
yet@@ 93880
ke@@ 93666
gör@@ 93252
alan 93118
sağ@@ 93107
şark@@ 93091
böl@@ 93087
üre@@ 92863
dönem@@ 92766
iyle 92554
iç@@ 92194
uz@@ 92155
liği 91762
ins@@ 91695
ındaki 91395
yon 91394
ma@@ 91124
gi@@ 90860
gün@@ 90621
birlikte 90539
ez@@ 90326
ayı 90092
nde 90089
belir@@ 90001
ilen 89894
! 89884
I@@ 89838
be@@ 89753
liğ@@ 89309
5 89055
su@@ 88939
is 88767
istan 88283
yüz@@ 88144
leş@@ 87958
tak@@ 87812
yön@@ 87811
idir 87544
ili 87276
yak@@ 87205
kil@@ 87015
km 86448
indeki 86031
esinde 85810
mes@@ 85596
dü 85468
to@@ 85402
takım@@ 85229
diğer 85047
yıl 85018
Ad@@ 84997
etti 84711
tir 84400
İs@@ 84392
tan 84286
yle 84036
man 84023
alt@@ 83958
mad@@ 83207
kul@@ 83195
/ 82949
all@@ 82901
ali@@ 82489
Or@@ 82478
kan@@ 82430
sa 82249
if@@ 82064
kom@@ 82028
usu 81993
ığ@@ 81781
Be@@ 81673
larının 81664
iş 81568
nda 81496
as 81445
vi@@ 81242
abil@@ 81095
bo@@ 81032
po@@ 80971
kullanıl@@ 80457
ordu 80408
aynı 80345
üy@@ 79991
bas@@ 79979
Türk 79929
iz 79850
ğu 79725
gö@@ 79718
dur@@ 79122
kend@@ 79054
taş@@ 78893
tur@@ 78775
yayın@@ 78681
ılan 78671
st@@ 78503
W@@ 78301
ra 78039
dığı 77848
tal@@ 77826
ız 77767
sel 77719
uç@@ 77664
tarih@@ 77575
laş@@ 77215
ağı 76848
kl@@ 76442
ri@@ 76413
eli 76182
ant@@ 76146
lerinin 75815
mek@@ 75592
kez 75444
uş@@ 75439
ça 75429
Ü@@ 75401
yol@@ 75318
bak@@ 75127
kor@@ 74965
eler 74944
ce 74667
ünü 74627
dir@@ 74464
edi@@ 74416
alan@@ 74413
uk 74324
ığını 74193
üc@@ 74021
enin 74018
adlı 73670
kiş@@ 73588
nun 73578
yeni 73572
maç@@ 73524
align 73485
ic@@ 73288
yapıl@@ 73271
center 73235
her 73133
aları 73005
6 72967
ans@@ 72845
ümü 72675
üm 72596
ard@@ 72435
aldı 72336
ka 72264
lerde 72195
aş 72091
erek 72069
lerinde 71648
r 71410
ko@@ 71326
imi 71261
î 71091
pi@@ 70918
larına 70886
asında 70849
ancak 70533
tin 70406
ol 70149
g 70116
sezon@@ 69943
Mar@@ 69760
si 69757
ere 69683
art@@ 69681
düzen@@ 69603
üz@@ 68797
lü 68693
Kon@@ 68665
İstanbul 68631
yay@@ 68565
var@@ 68544
oyn@@ 68344
karşı 68290
abilir 68144
hi@@ 67920
dol@@ 67873
Avrupa 67833
eb@@ 67735
re 67606
lığı 67567
üs@@ 67381
ye@@ 67086
düş@@ 66891
önemli 66818
ni@@ 66810
eden 66798
Kr@@ 66723
Dünya 66609
&amp; 66450
% 66375
ileri 66360
ag@@ 66292
landır@@ 66249
dev@@ 66145
od@@ 65760
oluştur@@ 65679
ıc@@ 65635
do@@ 64994
uc@@ 64840
görev@@ 64822
san@@ 64721
til@@ 64573
ren@@ 64421
Kö@@ 64394
eski 64354
ro@@ 64253
ru@@ 64163
uv@@ 64015
başladı 63970
ayan 63906
ilir 63785
ğr@@ 63729
değiş@@ 63471
değ@@ 63454
v 63342
isti@@ 63296
eleri 63199
so@@ 63183
önce 63050
ilçesine 62982
lere 62982
ask@@ 62754
tel@@ 62752
landı 62696
ıp 62645
yen 62632
met@@ 62560
hay@@ 62161
end@@ 62055
mu@@ 61947
pr@@ 61900
çev@@ 61788
ati@@ 61779
gerek@@ 61774
ra@@ 61472
os 61355
çe 60925
min@@ 60887
ıştır 60735
meye 60446
bol 60338
ci@@ 60082
lanan 60074
ımc@@ 60039
7 59811
bul@@ 59768
es 59632
ili@@ 59545
tu@@ 59301
yöne@@ 59246
yal@@ 59164
ğ 59147
oluş@@ 59098
dik@@ 58992
har@@ 58956
sonr@@ 58857
Bun@@ 58797
şekilde 58779
lardan 58715
dün@@ 58710
tir@@ 58697
fil@@ 58606
olduğunu 58528
inci 58504
sistem@@ 58472
10 58415
ilç@@ 58394
ih@@ 58296
olmuştur 58279
yapılan 58260
çal@@ 58233
The 58115
lik@@ 58108
3@@ 58044
eg@@ 57976
bu@@ 57933
met 57915
içer@@ 57801
üzere 57704
Öz@@ 57526
lerine 57518
kit@@ 57058
ist 57034
Bel@@ 56793
başl@@ 56781
içinde 56729
öğ@@ 56726
Üniversitesi 56703
malar@@ 56548
açık@@ 56424
anın 56395
üzerine 56391
itibar@@ 56101
ia 56081
eng@@ 56029
alın@@ 55992
vardır 55979
As@@ 55942
dön@@ 55893
sin@@ 55841
ken@@ 55838
üst@@ 55805
iyi 55787
inc@@ 55779
ans 55579
lendir@@ 55450
diğ@@ 55433
sız 55338
Bir 55311
ele 55288
ber@@ 55280
birçok 55212
karşıl@@ 55191
dur 55127
se 54957
att@@ 54882
kazan@@ 54876
Kur@@ 54722
dış@@ 54663
çi 54649
pe@@ 54628
muştur 54508
tim@@ 54498
etti@@ 54465
tic@@ 54405
katıl@@ 54246
kr@@ 54209
eğ@@ 54193
Mart 54079
yen@@ 54057
8 54038
ıcı 54020
du@@ 54014
kabul 53945
ap 53930
lık@@ 53852
masına 53732
ladı 53705
Ayrıca 53633
sor@@ 53609
4@@ 53600
endi 53505
kes@@ 53401
üş@@ 53197
tut@@ 53185
getir@@ 53061
sahip 53061
Mayıs 53004
başar@@ 52960
sat@@ 52953
iliş@@ 52833
çoc@@ 52814
söy@@ 52736
ta@@ 52691
sa@@ 52632
sil@@ 52516
kol@@ 52351
üğ@@ 52169
miş@@ 51958
ılı 51837
Mer@@ 51748
luğu 51696
devam 51624
gr@@ 51622
ali 51621
Ocak 51593
ıştı 51572
ret@@ 51553
form@@ 51372
üç 51289
anlam@@ 51185
ikinci 51159
op@@ 51127
larından 51035
üd@@ 50711
ger@@ 50693
ib@@ 50693
hük@@ 50659
ve@@ 50292
yan 50265
Kasım 50126
gelen 50040
anc@@ 49967
2010 49941
mi@@ 49884
fazla 49819
ıları 49778
Baş@@ 49768
tüm 49767
yl@@ 49703
ede 49591
tim 49572
“ 49558
gün 49538
yaptı 49477
şehr@@ 49473
uygul@@ 49376
ör 49338
yd@@ 49330
Dev@@ 49320
dem@@ 49255
day@@ 49186
harek@@ 49157
Eylül 49119
eğiti@@ 49094
şek@@ 49060
muş 49004
yerine 48985
Ekim 48872
has@@ 48853
kari@@ 48811
no@@ 48781
lerinden 48775
A 48770
dır@@ 48648
yat@@ 48585
” 48582
oyun@@ 48495
ara 48462
üne 48447
bat@@ 48401
ah 48344
ardından 48289
ge 48278
ent@@ 48212
mil@@ 48186
aj@@ 48082
kt@@ 48036
söz@@ 48021
oc@@ 48013
ilinin 47977
sır@@ 47929
üğü 47871
ilmiştir 47827
üç@@ 47824
he@@ 47810
yüksek 47783
Haziran 47778
kendi 47763
tır@@ 47759
Ak@@ 47634
ece 47633
oloj@@ 47627
Nisan 47560
ABD 47528
Osmanlı 47505
duğu 47434
Temmuz 47242
Av@@ 47149
geçir@@ 47075
Ch@@ 46995
Daha 46970
bazı 46964
isinde 46947
olmak 46940
dır 46925
Kom@@ 46895
Ağustos 46862
Amerika 46846
tek 46817
tamam@@ 46765
cul@@ 46677
20 46676
tik 46630
onu 46627
biri 46594
15 46567
mem@@ 46514
Aralık 46444
9 46424
alar 46422
Türk@@ 46411
sti@@ 46360
hem 46344
iti@@ 46322
br@@ 46285
12 46251
su 46171
grub@@ 46165
ph@@ 46154
ünün 46101
por 46098
dil@@ 46002
sırasında 46000
anya 45895
bölüm@@ 45768
üzerinde 45675
lığ@@ 45609
farklı 45601
û@@ 45596
bi 45581
edi 45566
lo@@ 45537
tür 45530
Di@@ 45526
adan 45487
Bur@@ 45434
list@@ 45406
yard@@ 45395
Bak@@ 45382
oğlu 45300
olup 45268
yü@@ 45255
müz@@ 45238
of 45229
ov@@ 45220
Se@@ 45212
Fran@@ 45208
mal@@ 45025
Ancak 44987
cu@@ 44968
düşün@@ 44953
esine 44904
bur@@ 44816
görev 44758
Ulus@@ 44703
ari 44685
bağ@@ 44569
ızı 44515
enc@@ 44502
ina 44448
men 44403
siy@@ 44391
sun@@ 44371
ıda 44341
luk 44316
parç@@ 44296
zaman 44257
yerleş@@ 44202
5@@ 44140
bah@@ 44087
diz@@ 43960
çıkar@@ 43940
nüf@@ 43913
atı 43905
sah@@ 43850
şir@@ 43841
O 43800
yarış@@ 43775
Kat@@ 43757
Tr@@ 43755
isim@@ 43718
6@@ 43699
anlar 43632
ord@@ 43623
yeri 43551
ortaya 43538
onya 43537
eh@@ 43532
tah@@ 43426
akt@@ 43209
sen@@ 43138
ran@@ 43111
sı@@ 43104
ısında 43093
görül@@ 43060
ucu 42991
ulaş@@ 42986
acak 42863
eye 42841
ip 42822
Böl@@ 42782
ad 42777
ail@@ 42775
&#93; 42771
yılları 42744
İlk 42676
Şubat 42669
Birleşik 42654
ecek 42639
kel@@ 42624
ef@@ 42608
&#91; 42508
En@@ 42500
kır@@ 42460
yılı 42450
colspan 42379
geliş@@ 42318
çeşitli 42308
Savaşı 42167
dağ@@ 42053
hav@@ 41992
sın@@ 41911
bulunmaktadır 41883
luğ@@ 41865
esinin 41850
geri 41835
eme 41775
Son@@ 41742
eği 41679
küçük 41647
per@@ 41502
gi 41449
ılmıştır 41440
nedeniyle 41430
edildi 41395
ep@@ 41360
lararası 41290
ani 41261
boyunca 41178
alb@@ 41176
ade 41103
eti@@ 41033
film@@ 41021
Bir@@ 40940
bölges@@ 40930
ıl 40921
Yun@@ 40883
ing 40863
kent@@ 40853
edilmiştir 40846
siz 40844
alm@@ 40807
ale 40789
ebilir 40769
masını 40715
yüzyıl@@ 40637
duy@@ 40617
bel@@ 40545
Bo@@ 40527
idi 40525
B 40508
elde 40497
– 40488
yeniden 40446
yo@@ 40432
em 40392
haf@@ 40327
lerden 40244
amı 40132
görün@@ 40124
bar@@ 40050
mez@@ 40038
lenen 40030
zamanda 40019
th@@ 39966
bilin@@ 39945
kab@@ 39931
30 39885
anda 39885
kül@@ 39878
sav@@ 39810
ey 39800
albüm@@ 39791
x 39789
ent 39755
2012 39580
ob@@ 39566
2@@ 39534
11 39421
Har@@ 39402
2020 39389
hiz@@ 39370
Gö@@ 39308
almıştır 39273
asyon@@ 39239
eli@@ 39211
sadece 39210
anl@@ 39170
yet 39120
ke 39108
ışt@@ 39099
ölç@@ 39095
saldır@@ 39070
üş 39034
17@@ 38996
En 38994
umu 38982
P 38948
geliştir@@ 38876
leştir@@ 38815
futbol@@ 38649
mah@@ 38640
II 38632
St@@ 38567
edilen 38540
yaklaşık 38516
göz@@ 38505
ki@@ 38501
0 38497
mam@@ 38473
ük 38452
larla 38407
ilik 38383
Bar@@ 38381
fa@@ 38378
güç@@ 38363
ven@@ 38349
2011 38316
2009 38231
lay@@ 38227
und@@ 38178
asyon 38132
tanım@@ 38108
yük@@ 38063
At@@ 38016
İn@@ 38002
üsü 37994
git@@ 37942
up 37906
etkil@@ 37883
fer@@ 37836
eni 37828
kan 37827
durum@@ 37822
Ödül@@ 37815
müştür 37788
nik 37727
ulus@@ 37697
ton 37659
ilerin 37640
7@@ 37638
elek@@ 37575
Ab@@ 37573
16 37570
can@@ 37549
iye 37492
let@@ 37490
ona 37458
ılır 37331
lu@@ 37260
ley@@ 37219
anan 37183
sınır@@ 37129
ehr@@ 37081
Bil@@ 37016
To@@ 36928
mar@@ 36885
c 36828
Mill@@ 36818
kas@@ 36668
Fak@@ 36657
ener@@ 36634
oğ@@ 36629
süre 36593
genel 36552
18@@ 36542
ok 36517
vet@@ 36489
nüfusu 36483
zor@@ 36470
w@@ 36367
tab@@ 36341
kıs@@ 36284
film 36258
tam@@ 36230
tri@@ 36174
gerçek@@ 36172
ğin 36167
sü@@ 36158
ğini 36147
lat@@ 36112
İl@@ 36106
süre@@ 36003
aktadır 35983
mer@@ 35943
Hal@@ 35912
uzun 35863
bab@@ 35843
inş@@ 35843
ıf@@ 35838
büyü@@ 35837
ter 35799
ünden 35732
kaz@@ 35674
ince 35665
rol@@ 35636
2008 35610
isi@@ 35547
sız@@ 35544
b 35540
acı 35494
yayım@@ 35427
beledi@@ 35399
lad@@ 35305
M 35300
T 35296
karş@@ 35288
undan 35279
def@@ 35249
kim@@ 35238
15@@ 35168
ge@@ 35140
Man@@ 35102
lardır 35092
köy 35053
2014 34998
tü 34961
zi 34954
Tarihçe 34886
boy@@ 34843
onun 34841
merkezine 34838
ılık 34756
anlaş@@ 34743
Es@@ 34723
lama 34698
land@@ 34668
cin@@ 34659
14 34652
ılmış 34634
mev@@ 34633
Ma@@ 34619
El@@ 34603
Oy@@ 34573
araştır@@ 34569
başlam@@ 34563
ari@@ 34561
Almanya 34479
ast@@ 34477
Li@@ 34433
ümüz@@ 34426
lanmıştır 34341
yüksel@@ 34331
San@@ 34296
rağmen 34281
Gen@@ 34257
19 34233
Fransa 34223
düz@@ 34223
18 34193
Sov@@ 34190
ıkları 34169
Bat@@ 34093
kem@@ 34076
Mo@@ 34055
tiy@@ 34041
ika 34018
bırak@@ 34015
sk@@ 34004
benz@@ 33963
ens@@ 33937
tasar@@ 33916
13 33901
Re@@ 33890
sanat@@ 33890
sal 33876
Pol@@ 33874
Dem@@ 33860
Par@@ 33846
ede@@ 33845
2015 33817
tur 33781
2013 33754
maları 33754
Br@@ 33718
ch@@ 33621
yıld@@ 33583
şu 33570
adığı 33565
usunda 33501
ülk@@ 33436
ait 33370
Genel 33334
fin@@ 33309
ydi 33263
Coğrafya 33174
Şampiyon@@ 33145
yı 33131
Den@@ 33130
fer 33122
plan@@ 33084
yaptığı 33080
10@@ 33070
bağl@@ 33035
Ser@@ 33006
bulunur 33000
ba@@ 32986
kişi 32969
17 32948
ular 32926
gaz@@ 32921
altında 32917
dav@@ 32917
rom@@ 32891
da@@ 32869
2007 32868
2016 32809
ed 32783
hak@@ 32743
ilgili 32733
bilg@@ 32691
kısa 32689
16@@ 32686
dahil 32650
İngiltere 32610
ket@@ 32609
ni 32597
za 32586
25 32544
aç 32496
öldür@@ 32496
Alman 32495
asına 32467
the 32446
Gü@@ 32429
İmparator@@ 32425
De@@ 32387
zey@@ 32298
üzer@@ 32284
beri 32283
isinin 32216
ova 32159
st 32151
Güney 32126
ici 32122
2006 32095
ney@@ 32095
program@@ 32095
hazır@@ 32082
yaşam@@ 32039
Ankara 32026
ort@@ 32020
ig@@ 32008
savaş@@ 32002
gönder@@ 31978
Sav@@ 31972
üf@@ 31970
ang@@ 31961
üler 31923
New 31898
deş@@ 31873
Do@@ 31863
genellikle 31860
Yeni 31841
şehir@@ 31819
asının 31814
gerçekleştir@@ 31814
önc@@ 31811
ayrıca 31775
olduk@@ 31747
merkez@@ 31687
udur 31645
Mah@@ 31625
ann@@ 31602
elik 31585
9@@ 31584
del@@ 31584
dür@@ 31572
la@@ 31561
ci 31557
asını 31543
tü@@ 31529
D 31528
lerle 31486
andı 31470
yo 31459
Hay@@ 31389
ks@@ 31384
van 31372
özel 31348
Hol@@ 31331
eder@@ 31295
bü@@ 31277
bin@@ 31269
8@@ 31242
ıktan 31208
Şark@@ 31205
bit@@ 31200
şehir 31196
mayı 31168
Yar@@ 31145
Le@@ 31120
ığında 31110
ud@@ 31107
Pr@@ 31032
başkan@@ 31028
esini 31000
and 30999
İngiliz 30994
doğru 30927
Kuzey 30875
Amerikan 30870
yür@@ 30857
uzaklıktadır 30814
aret 30686
takım 30672
bay@@ 30637
kazandı 30608
ilg@@ 30592
hız@@ 30589
og@@ 30556
Devlet@@ 30534
Rusya 30438
başka 30404
j 30359
eser@@ 30314
değer@@ 30311
eder 30294
kaynak@@ 30246
dar@@ 30228
imleri 30187
kı 30106
isini 30062
Müz@@ 30038
dört 30012
yönet@@ 29992
oloji 29952
eyalet@@ 29917
Kul@@ 29856
C 29838
kav@@ 29822
tre 29784
Sh@@ 29735
çoğ@@ 29730
Her@@ 29705
zaman@@ 29687
ımına 29665
bun@@ 29627
kaç@@ 29603
merkezi 29595
zon 29591
nam@@ 29495
famil@@ 29474
mesine 29464
her@@ 29446
2018 29444
adıyla 29422
asi 29410
2017 29396
kü 29375
osu 29339
İsp@@ 29312
kıy@@ 29297
eyi 29282
yal 29266
21 29256
Roma 29197
tarihi 29153
isine 29150
ılar@@ 29124
Cumhuriyeti 29120
ilmiş 29096
özellikle 29061
Başkan@@ 29035
ses@@ 29009
müzik 29006
arasındaki 28944
Ge@@ 28929
kuv@@ 28885
Yah@@ 28870
sal@@ 28850
ji 28841
konuş@@ 28812
let 28782
der 28691
Kad@@ 28671
prak@@ 28567
taraf@@ 28547
karakter@@ 28542
van@@ 28542
Tek@@ 28540
det@@ 28534
Gru@@ 28487
ıt 28462
İk@@ 28453
K 28437
Mus@@ 28432
1.@@ 28404
can 28352
luk@@ 28342
İz@@ 28307
bey@@ 28290
önem 28287
hayat@@ 28253
bilinen 28242
Tur@@ 28214
I 28204
ellik@@ 28182
üdür 28138
_ 28123
mesini 28117
ıya 28102
24 28021
enek@@ 28015
fak@@ 28012
ev 27988
tekrar 27982
iden 27980
biy@@ 27955
est@@ 27947
sahi@@ 27946
destek@@ 27923
Birliği 27909
22 27905
Gür@@ 27905
iv@@ 27872
ug@@ 27834
millî 27830
anlat@@ 27822
Doğu 27820
kin 27787
sahiptir 27787
müc@@ 27779
Kal@@ 27763
to 27753
eştir@@ 27728
birkaç 27725
malar 27710
Sar@@ 27684
dönüş@@ 27683
oluşan 27664
tor@@ 27642
bölge@@ 27609
lük 27585
üz 27582
ğer 27582
keş@@ 27581
çı 27571
2005 27529
sonunda 27524
kullanılan 27504
kısm@@ 27500
Gal@@ 27456
Bal@@ 27453
sö@@ 27442
2019 27433
üncü 27429
üb@@ 27397
ice 27395
Büyük 27391
26 27362
siyon@@ 27350
anlığı 27341
alg@@ 27239
14@@ 27233
sebe@@ 27198
ind@@ 27196
tesi 27188
Kupası 27184
ledi 27164
değiştir@@ 27158
sos@@ 27132
eki 27128
2000 27072
ular@@ 27058
savun@@ 27050
vek@@ 27039
sırada 26990
Bul@@ 26982
mahalle@@ 26971
X@@ 26935
hakkında 26935
İtalya 26934
bağım@@ 26933
devlet 26918
id 26908
tu 26871
ell@@ 26848
any@@ 26841
altı 26838
ulu 26818
emen 26784
yapan 26775
Yıl@@ 26772
köy@@ 26754
ecek@@ 26753
1@@ 26732
ut 26730
eceğ@@ 26706
tanın@@ 26657
Parti@@ 26649
verdi 26603
ekonom@@ 26595
hat@@ 26589
Sel@@ 26554
asyonu 26536
kin@@ 26494
olması 26472
olmayan 26470
layan 26457
büt@@ 26453
lt 26412
rel@@ 26408
23 26390
ıyor 26381
Tak@@ 26380
Mu@@ 26372
eviz@@ 26367
sey@@ 26348
cu 26343
olmad@@ 26334
ödül@@ 26334
Sü@@ 26332
ce@@ 26311
din@@ 26293
başkanı 26205
işlem@@ 26125
gem@@ 26073
gar@@ 26054
cel@@ 26041
Aynı 26032
Rus 25989
uz 25965
çıkan 25958
lim@@ 25948
med@@ 25919
Per@@ 25881
S 25871
Paşa 25845
spor 25803
oyuncu 25788
bal@@ 25784
Ah@@ 25736
baz@@ 25664
Amerik@@ 25628
uma 25622
ho@@ 25617
ill@@ 25598
bö@@ 25574
gt 25555
bek@@ 25369
gesi 25355
mel@@ 25291
2004 25289
rol 25270
ane 25248
ampiyon@@ 25231
sil 25223
bet@@ 25195
ov 25183
ebil@@ 25088
Kan@@ 25041
Sam@@ 24999
I. 24962
ore 24954
iliz@@ 24928
Am@@ 24917
oz@@ 24830
fut@@ 24797
angi 24779
x@@ 24717
elerin 24674
tes@@ 24667
Film 24663
tiv@@ 24597
Bre@@ 24552
28 24474
Der@@ 24410
L 24389
27 24368
Kır@@ 24363
ran 24296
12@@ 24223
Kor@@ 24192
İng@@ 24191
politi@@ 24183
Gr@@ 24181
Th@@ 24152
adi@@ 24140
ül 24079
min 24074
13@@ 23986
sam@@ 23897
cü 23889
yok@@ 23881
far@@ 23869
sik@@ 23773
bin 23683
mat@@ 23676
ark@@ 23656
Em@@ 23641
Alt@@ 23626
Por@@ 23612
num@@ 23607
gal@@ 23604
mo@@ 23565
sek@@ 23562
mik@@ 23553
Car@@ 23542
Tan@@ 23494
dest@@ 23448
Gün@@ 23442
F 23400
50 23387
Nor@@ 23378
tam 23375
rec@@ 23373
aba 23350
hu@@ 23250
Ev@@ 23245
pu@@ 23227
w 23175
gru@@ 23147
asa 23115
Sal@@ 23106
trans@@ 23060
mot@@ 23052
por@@ 23040
adol@@ 23023
vur@@ 23015
Muh@@ 22985
Azer@@ 22984
lü@@ 22971
elem@@ 22966
Mal@@ 22960
aşı 22957
Meh@@ 22928
ie 22903
arg@@ 22895
ing@@ 22894
Sur@@ 22889
ene 22872
ze 22833
ime 22825
sar@@ 22796
neden@@ 22774
E 22737
lili@@ 22737
zam@@ 22721
profes@@ 22709
may@@ 22702
din 22675
sel@@ 22656
lis@@ 22644
Mac@@ 22643
ri 22584
Rom@@ 22547
Su@@ 22511
aştır@@ 22472
Fil@@ 22448
hi 22443
0@@ 22441
Ligi 22365
ori@@ 22358
ip@@ 22279
ers 22276
aber 22265
om 22167
anti@@ 22157
Kol@@ 22142
29 22108
of@@ 22068
Ne@@ 22050
kı@@ 22017
31 21978
olduğ@@ 21950
ass@@ 21905
ayn@@ 21883
trol 21856
mir 21782
ço@@ 21759
York 21748
2.@@ 21744
ard 21725
don@@ 21640
tad@@ 21623
sak@@ 21586
landa 21557
Ro@@ 21483
pat@@ 21409
fik@@ 21399
2002 21346
des@@ 21325
oku@@ 21325
Kaz@@ 21295
co@@ 21214
tay@@ 21102
2021 21084
tığı 21056
pol@@ 21047
tron@@ 21034
tas@@ 21023
azi 20969
ö 20968
1990 20963
pe 20944
ata 20915
lin@@ 20892
inal 20877
Ber@@ 20870
prot@@ 20855
vard@@ 20848
ete 20800
lider@@ 20792
Ger@@ 20789
var 20774
unc@@ 20771
bes@@ 20714
sim@@ 20702
Fut@@ 20699
Baz@@ 20657
önem@@ 20561
atr@@ 20542
dad@@ 20510
Ali 20506
fi@@ 20491
alt 20451
Her 20443
str@@ 20431
100 20412
2003 20405
one 20375
Ay@@ 20369
tekn@@ 20332
per 20287
2001 20264
ünya 20255
John 20243
Tari@@ 20229
esp@@ 20222
lam 20214
Han@@ 20211
Me@@ 20198
Mon@@ 20112
yu 20079
dak@@ 20020
emi 19998
000 19952
Mek@@ 19937
Yer@@ 19928
R 19907
Has@@ 19857
Ö 19853
be 19778
Te@@ 19770
amp 19744
era 19706
arası 19697
NGC 19696
Kay@@ 19609
model@@ 19608
haz@@ 19536
Co@@ 19515
Ir@@ 19513
are 19492
zil@@ 19488
dire@@ 19475
ks 19475
mac@@ 19464
dia 19463
40 19442
î@@ 19433
kop@@ 19418
Parti 19406
mal 19356
aca 19256
Jap@@ 19251
Biz@@ 19241
Gaz@@ 19203
elli 19169
mill@@ 19111
kam@@ 19097
ano 19080
erin 19078
Afrika 19038
ub@@ 19026
Gu@@ 18961
ket 18951
Hav@@ 18943
dal@@ 18923
For@@ 18871
ot 18870
ong@@ 18863
In@@ 18859
lig@@ 18854
erk@@ 18832
gul@@ 18795
ces@@ 18785
art 18783
han 18777
üh@@ 18768
ez 18743
Paris 18737
aliy@@ 18732
ff@@ 18715
eri@@ 18676
red@@ 18674
sol@@ 18648
sp@@ 18643
ney 18615
proj@@ 18602
County 18599
tedir 18561
Bab@@ 18542
lang@@ 18542
afa 18453
inde@@ 18438
ehir 18437
Mec@@ 18409
gil@@ 18395
avi 18279
ema 18259
gun 18245
formula 18243
sh@@ 18202
amm@@ 18173
gol 18147
if 18146
au@@ 18136
sahip@@ 18034
mon@@ 18024
Mak@@ 17959
ahr@@ 17950
tif 17946
1999 17943
nes@@ 17848
fa 17837
İtal@@ 17826
Mad@@ 17812
TV 17802
Po@@ 17758
Rus@@ 17727
ai 17727
Bay@@ 17718
ograf@@ 17715
sek 17713
Ver@@ 17704
ley 17676
1980 17627
enti@@ 17624
ban@@ 17561
han@@ 17550
cut 17538
birlik@@ 17520
rad@@ 17496
Sin@@ 17482
Kil@@ 17481
ize 17359
teh@@ 17313
lis 17279
Bü@@ 17258
va 17167
60 17157
hab@@ 17142
fiz@@ 17122
lek@@ 17115
idae 17086
Ter@@ 17066
val@@ 17036
ire 17000
N 16990
Fin@@ 16987
udi 16987
iller 16981
ence 16956
hakk@@ 16946
mez 16940
dr@@ 16900
forma 16898
fel@@ 16891
tul@@ 16872
Pl@@ 16862
mut@@ 16849
ben@@ 16837
sev@@ 16811
mim@@ 16791
ha@@ 16781
Mor@@ 16778
He@@ 16768
eren 16760
3.@@ 16753
lem 16743
Ol@@ 16722
best 16722
sit@@ 16696
ite 16691
bol@@ 16678
Gir@@ 16674
Sch@@ 16659
doğr@@ 16650
Uz@@ 16645
iken 16615
fi 16594
iri 16593
zis@@ 16576
1998 16572
1992 16541
ate 16504
Ağ@@ 16497
vat@@ 16456
yn@@ 16449
nit@@ 16446
parti@@ 16432
niversit@@ 16402
ver 16349
fe@@ 16324
Tar@@ 16322
atro 16316
G 16219
best@@ 16206
U 16182
air@@ 16147
tari@@ 16143
Ham@@ 16116
Sa@@ 16100
kez@@ 16084
ul 16044
lim 16010
iliy@@ 15972
ach@@ 15913
amen 15903
Val@@ 15894
Hak@@ 15881
muş@@ 15854
tor 15851
Kit@@ 15846
land 15824
Lis@@ 15817
amb@@ 15798
V 15791
sab@@ 15790
Sult@@ 15770
ava 15699
aras@@ 15671
organiz@@ 15670
Sp@@ 15668
dar 15655
ou@@ 15644
1996 15627
net 15597
Kem@@ 15588
dok@@ 15576
fot@@ 15560
zar@@ 15560
Pe@@ 15551
ch 15510
1991 15506
ino 15497
pay@@ 15496
1994 15493
1995 15484
Sil@@ 15457
1993 15434
1997 15430
ick 15427
Mur@@ 15408
tif@@ 15374
do 15365
ten@@ 15344
Mil@@ 15329
ze@@ 15312
azar@@ 15307
Gel@@ 15284
aka 15276
alık 15266
tro@@ 15256
kh@@ 15255
ng@@ 15246
ys@@ 15228
pos@@ 15217
çı@@ 15213
lev@@ 15201
ges@@ 15141
sem@@ 15118
ts@@ 15067
izi 15066
1970 15031
Feder@@ 14975
ham@@ 14964
uncu 14942
ıs 14928
fon@@ 14926
medi@@ 14920
Cumhuriy@@ 14897
ift 14868
Bor@@ 14857
Ko@@ 14838
Os@@ 14829
On@@ 14822
,@@ 14804
ustr@@ 14791
kir@@ 14786
Son 14771
ha 14766
amp@@ 14765
alifor@@ 14692
aliz@@ 14691
ide 14668
ellikle 14663
X 14652
trol@@ 14647
ram@@ 14636
ision 14621
Ukr@@ 14604
br 14593
1960 14537
ang 14509
ori 14507
hur@@ 14486
Kas@@ 14480
traf@@ 14477
ena 14451
emati@@ 14449
cm 14420
ba 14351
Lond@@ 14341
oper@@ 14295
Kap@@ 14197
Hu@@ 14186
Ord@@ 14172
Ku@@ 14166
bor@@ 14108
III 14106
ong 14096
² 14095
Mat@@ 14089
zi@@ 14087
gu@@ 14077
Ste@@ 14062
pi 14007
serv@@ 13963
dis@@ 13955
Sen@@ 13950
-@@ 13949
Con@@ 13949
yaklaş@@ 13946
ala 13928
Japon 13913
ner@@ 13862
versi@@ 13848
gol@@ 13832
od 13832
Bah@@ 13799
Far@@ 13771
ette 13758
hap@@ 13746
Bu@@ 13694
Af@@ 13570
uzak@@ 13570
1,@@ 13569
ell 13565
+ 13532
Mos@@ 13510
mer 13494
kis@@ 13485
Cor@@ 13479
0.000 13477
FC 13449
Profes@@ 13446
mec@@ 13440
nas@@ 13440
fe 13437
80 13423
sur@@ 13368
abr@@ 13306
nor@@ 13299
bl@@ 13276
1989 13258
ep 13245
lan 13241
0,@@ 13238
rir 13234
ens 13213
aşa 13211
lo 13210
gez@@ 13196
20@@ 13191
ya@@ 13191
ation 13184
So@@ 13156
Mes@@ 13149
adel@@ 13124
ner 13101
video 13089
oh@@ 13081
El 13062
polis 13056
H 13052
ıca 13035
Bas@@ 13020
Brit@@ 13009
90 12995
Eurov@@ 12986
kale 12979
modern 12970
lah 12966
fes@@ 12965
alle 12955
nav@@ 12938
Ok@@ 12889
for@@ 12863
ath@@ 12834
Mel@@ 12833
Bol@@ 12831
fl@@ 12828
ku 12773
Alb@@ 12766
35 12711
ant 12711
Alman@@ 12679
Si@@ 12660
anim@@ 12649
eo 12647
anistan 12641
ila 12636
ko 12631
med 12613
fre@@ 12598
ome@@ 12563
pro@@ 12533
kri@@ 12532
Col@@ 12490
Pro@@ 12490
1. 12489
Dar@@ 12445
5.@@ 12444
ica 12438
Ale@@ 12435
é 12396
Pal@@ 12392
Tem@@ 12392
io 12377
ham 12365
Tor@@ 12364
cum@@ 12322
ros@@ 12308
ly@@ 12306
70 12299
spor@@ 12265
enen 12239
ker@@ 12192
Ed@@ 12180
ish 12168
1988 12148
Sol@@ 12130
ses 12113
Akadem@@ 12108
4.@@ 12093
Ven@@ 12079
Mas@@ 12073
Vol@@ 12038
Mc@@ 12013
performan@@ 12008
Res@@ 11997
Ben@@ 11995
Ang@@ 11960
Cam@@ 11930
olo@@ 11929
Gi@@ 11926
stand@@ 11919
af 11916
ster@@ 11899
Fer@@ 11898
dan@@ 11896
öne@@ 11895
? 11894
kum@@ 11893
qu@@ 11849
Str@@ 11839
imi@@ 11839
gan@@ 11831
1987 11823
Ni@@ 11741
Say@@ 11701
orum 11699
200 11690
Kanada 11688
Tel@@ 11677
1928 11617
arm@@ 11569
ator 11569
para 11554
alim@@ 11536
ons@@ 11531
Sak@@ 11530
San 11527
kamp@@ 11504
Fre@@ 11486
oy 11478
2. 11467
Dr@@ 11457
aci@@ 11457
pot@@ 11453
vil 11440
urt 11433
1986 11426
adem@@ 11418
Az@@ 11414
müş@@ 11414
Qu@@ 11383
ora 11369
stat@@ 11351
ai@@ 11332
Tay@@ 11310
ker 11286
1950 11270
aw@@ 11267
Kut@@ 11263
gen 11255
eşit@@ 11249
Mir@@ 11243
parator@@ 11237
Ph@@ 11227
ati 11215
ehir@@ 11195
Cr@@ 11186
og 11179
Fes@@ 11118
dül@@ 11108
á@@ 11091
mit@@ 11062
Com@@ 11052
fir@@ 11043
Ho@@ 11031
William 11027
1984 11016
elen 11013
Ban@@ 11010
all 11007
sin 10958
duk@@ 10953
len 10948
kut@@ 10942
organ@@ 10931
Go@@ 10930
ital 10917
graf@@ 10901
vol@@ 10895
Windows 10890
san 10877
single 10846
tar 10844
â 10826
UEFA 10814
Min@@ 10811
1985 10801
zey 10798
ro 10776
32 10757
aha 10741
1982 10718
sen 10718
maz@@ 10706
inter@@ 10692
uf@@ 10688
Wil@@ 10684
ej@@ 10661
final 10639
kara 10620
é@@ 10616
kre@@ 10612
cam@@ 10594
sch@@ 10557
Osman@@ 10551
Hat@@ 10536
Tok@@ 10523
und 10516
ski 10501
ish@@ 10500
enn@@ 10483
hid@@ 10459
Dav@@ 10454
Can@@ 10435
ae 10428
James 10427
... 10426
Cumhur@@ 10422
iss@@ 10421
Don@@ 10400
shire 10399
endi@@ 10371
zul@@ 10363
car@@ 10360
est 10358
45 10330
zu 10327
1983 10324
0.@@ 10312
dam@@ 10306
Lo@@ 10290
uda 10285
ayar@@ 10270
sul@@ 10259
Ant@@ 10256
ow@@ 10247
Üniversit@@ 10247
Bask@@ 10246
vir@@ 10235
Tun@@ 10185
David 10183
semb@@ 10179
500 10175
cil 10161
sist@@ 10144
Berlin 10114
Mag@@ 10114
00 10075
port@@ 10065
ira 10057
dah@@ 10052
‘ 10037
ic 10031
th 10007
Gre@@ 10005
ess@@ 9999
19. 9977
gal 9974
Lit@@ 9973
top@@ 9940
Bro@@ 9924
Var@@ 9922
ich@@ 9911
Bi@@ 9856
zur@@ 9856
mis@@ 9854
berg 9850
ampiy@@ 9841
ism@@ 9831
Dur@@ 9817
pan@@ 9807
Sim@@ 9797
ung 9789
1979 9787
by 9770
Lu@@ 9752
Sab@@ 9730
hir 9713
Is@@ 9705
25@@ 9698
göre@@ 9657
Ac@@ 9651
Michael 9651
atin 9625
Hor@@ 9621
int 9608
1981 9593
yg@@ 9593
.000 9578
ć 9577
La 9572
ight 9572
tis@@ 9566
2,@@ 9539
ford 9534
ats@@ 9514
ita 9499
him 9448
We@@ 9439
BM@@ 9424
ond@@ 9423
3. 9400
ie@@ 9398
1974 9392
Dok@@ 9377
Mem@@ 9334
1978 9313
rest@@ 9308
ura 9292
plat@@ 9282
gu 9277
eller 9258
ide@@ 9256
1945 9252
aller 9244
fark@@ 9244
6.@@ 9232
his@@ 9232
ich 9220
rati@@ 9210
7.@@ 9209
Nik@@ 9205
Met@@ 9195
Q@@ 9193
dini 9191
ga 9169
Pas@@ 9168
ras@@ 9155
les 9151
pre@@ 9147
parti 9136
Jo@@ 9124
Robert 9118
İm@@ 9091
isa 9089
1973 9088
1968 9078
des 9073
aceae 9049
Mi@@ 9043
co 9026
vel@@ 9019
Un@@ 9017
Med@@ 9015
leb@@ 9009
ser 9001
Na@@ 8999
Kir@@ 8983
1972 8980
FIFA 8979
eter@@ 8974
ust@@ 8968
tec@@ 8964
1975 8955
zun@@ 8935
Hel@@ 8933
feder@@ 8931
Char@@ 8899
ima 8892
faz@@ 8881
W 8875
Rad@@ 8861
üçük 8859
1977 8843
Bl@@ 8836
1920 8820
ret 8801
° 8790
Ur@@ 8785
indi@@ 8783
ese 8780
George 8764
km@@ 8763
Fo@@ 8757
ris@@ 8744
Mis@@ 8742
34 8741
7,@@ 8729
3,@@ 8726
bay 8723
AT@@ 8720
Gar@@ 8720
pal@@ 8720
Dol@@ 8718
pil@@ 8696
Ros@@ 8691
tal 8688
1976 8668
enz@@ 8657
Sek@@ 8656
Stad@@ 8649
mm 8649
Tab@@ 8645
ult@@ 8645
Del@@ 8639
ven 8630
enf@@ 8629
gar 8628
erg@@ 8624
amu 8614
Hit@@ 8588
sol 8588
mayan 8584
no 8581
jan@@ 8564
33 8563
au 8561
37 8560
adi 8556
Rum@@ 8550
Dr. 8540
Mich@@ 8540
1969 8520
IV 8517
ace 8515
nak@@ 8509
185@@ 8501
Haz@@ 8493
1971 8491
Ke@@ 8468
ike 8465
eyal@@ 8454
na@@ 8450
part@@ 8448
2022 8417
Kab@@ 8411
je@@ 8385
City 8380
Ra@@ 8379
ea 8368
rev@@ 8368
bis@@ 8366
Sah@@ 8362
Sul@@ 8341
Ti@@ 8331
Ex@@ 8326
age 8319
ack@@ 8301
tro 8296
air 8293
19@@ 8285
yr@@ 8275
aly@@ 8272
fr@@ 8271
emb@@ 8266
lav@@ 8265
ly 8264
pas@@ 8263
Los 8259
Fr@@ 8256
anz@@ 8254
Ari@@ 8245
1967 8232
75 8225
eten 8223
mol@@ 8204
abl@@ 8192
Et@@ 8177
stein 8161
uh@@ 8155
mant@@ 8154
Charles 8140
36 8138
pen@@ 8131
The@@ 8124
grup@@ 8102
illa 8102
OS 8101
ato 8076
Paul 8028
eph@@ 8016
rat 8005
1930 7990
ber 7977
les@@ 7977
rit@@ 7972
Van 7967
8.@@ 7966
Bos@@ 7961
metal 7960
Kam@@ 7912
ins 7911
1961 7909
fü@@ 7895
Tür@@ 7843
ast 7829
ami@@ 7813
del 7803
çu 7789
Eur@@ 7786
Harr@@ 7781
arr@@ 7771
civil 7770
1965 7750
Ag@@ 7749
tom@@ 7728
1966 7713
ota 7704
1940 7701
Pan@@ 7699
atif 7689
mod@@ 7685
38 7670
Cas@@ 7636
evi@@ 7610
1964 7605
sub@@ 7601
ty 7589
Cel@@ 7584
dam 7579
ony@@ 7577
Kl@@ 7566
4. 7553
Fl@@ 7542
20. 7541
oll@@ 7540
Est@@ 7531
ost 7526
oto 7493
Pi@@ 7479
kus@@ 7472
rö@@ 7471
General 7465
League 7461
Cal@@ 7442
üng@@ 7438
ó@@ 7408
Ba@@ 7406
ton@@ 7405
Eri@@ 7394
ill 7383
diplom@@ 7379
MS 7374
aza 7364
elle 7363
ezi 7345
1944 7336
Cl@@ 7332
vid@@ 7330
oni 7325
1963 7323
çeşit@@ 7314
Mol@@ 7312
Peter 7296
omb@@ 7296
vil@@ 7294
AS@@ 7284
uru 7265
las 7259
fol@@ 7248
amii 7243
ain 7242
tre@@ 7239
ola 7235
ue 7233
Boy@@ 7228
burg 7227
Tom@@ 7219
ein@@ 7211
plas@@ 7211
Microsoft 7206
ilim@@ 7191
lin 7191
65 7187
gan 7182
Hi@@ 7178
lov@@ 7178
ebe 7174
Tim@@ 7158
dul@@ 7145
pa 7137
ster 7134
fu@@ 7131
26@@ 7129
det 7125
bon@@ 7124
Parlam@@ 7119
zer@@ 7114
85 7102
Grand 7100
1941 7099
Du@@ 7094
rock 7094
ento 7089
Jean 7078
Lat@@ 7068
Ul@@ 7035
Angeles 7029
1962 7028
Je@@ 7026
von 7022
ick@@ 7010
ky 7008
48 7007
Andre@@ 7000
24@@ 6999
oj@@ 6998
Pat@@ 6996
1959 6993
1956 6989
4,@@ 6988
64 6984
Sem@@ 6980
55 6975
ao 6971
World 6964
ão 6959
ts 6939
Kim@@ 6929
9.@@ 6928
SS@@ 6926
NBA 6925
rek@@ 6917
39 6911
Fi@@ 6907
Fu@@ 6907
Mot@@ 6881
Prot@@ 6862
Wal@@ 6859
mann 6859
Dan@@ 6850
kg 6846
Ker@@ 6845
line 6841
yeye 6832
No@@ 6829
Afr@@ 6819
Ren@@ 6816
.. 6814
eza 6809
42 6797
pp@@ 6784
aur@@ 6779
1946 6773
ja 6773
iro 6769
strat@@ 6767
Lin@@ 6762
egem@@ 6759
ame 6746
1958 6745
ister 6735
for 6727
uri 6725
Din@@ 6716
sy@@ 6712
Park 6709
bon 6699
fig@@ 6699
amer@@ 6691
up@@ 6671
Ta@@ 6668
184@@ 6667
ici@@ 6661
tiz@@ 6650
pres@@ 6647
atom@@ 6644
Tri@@ 6634
we@@ 6626
St 6625
1918 6610
elt@@ 6610
ami 6607
oca 6606
model 6578
Oper@@ 6577
ain@@ 6574
Tu@@ 6559
1957 6555
kun@@ 6554
stant@@ 6548
Pak@@ 6545
On 6542
wood 6542
Vil@@ 6530
Ann@@ 6519
hat 6515
emp@@ 6512
kel 6512
not@@ 6512
ES@@ 6510
web 6507
ym@@ 6496
Mik@@ 6492
ars 6491
vin 6489
Sor@@ 6484
ji@@ 6484
ole 6483
dit 6469
1954 6462
1955 6457
ger 6450
Hab@@ 6449
oma 6448
1943 6433
5. 6425
Wh@@ 6416
Men@@ 6411
300 6403
1948 6400
off 6397
top 6395
ac 6392
ella 6383
onom@@ 6382
finale 6373
ple@@ 6371
Henry 6358
Ru@@ 6354
yük 6337
Thomas 6328
1939 6320
Kos@@ 6317
ates 6313
Lev@@ 6311
pel@@ 6308
95 6290
ung@@ 6289
ometr@@ 6271
ider 6263
ance 6253
ban 6252
Tarih@@ 6251
iki@@ 6250
op 6250
inn@@ 6247
Ben 6232
Ali@@ 6222
Lig@@ 6216
anay@@ 6216
pop 6212
sad@@ 6212
00@@ 6185
Ri@@ 6176
mir@@ 6174
CA@@ 6169
Geor@@ 6166
30@@ 6162
ân 6161
Richard 6157
sc@@ 6156
Juli@@ 6153
Ram@@ 6150
27@@ 6148
Pap@@ 6145
Chr@@ 6137
ida 6133
Birleş@@ 6123
aus@@ 6115
ary 6113
sta 6108
ani@@ 6097
test@@ 6097
J 6096
Jan@@ 6095
ille 6087
estr@@ 6084
Arab@@ 6078
Washington 6076
kuz@@ 6062
uzaklık@@ 6053
mor@@ 6040
1942 6033
AR@@ 6030
ack 6025
Fe@@ 6024
ff 6021
Bud@@ 6015
72 6014
rağ@@ 6000
App@@ 5998
ave 5992
Akad@@ 5990
ach 5989
probl@@ 5985
United 5979
haber 5977
1953 5973
ab 5971
ela 5968
1919 5962
int@@ 5959
Progr@@ 5956
You 5956
hac@@ 5950
bran@@ 5919
DNA 5915
Gl@@ 5903
Saint 5897
sk 5897
astr@@ 5895
iti 5894
cas@@ 5893
ons 5884
ters 5879
1952 5875
š@@ 5871
47 5858
Lim@@ 5856
blo@@ 5855
ake 5853
oph@@ 5850
ius 5840
our 5839
olog@@ 5836
New@@ 5835
í@@ 5833
bom@@ 5814
5,@@ 5813
78 5812
usa 5809
aga 5806
ō@@ 5790
53 5789
86 5786
Dor@@ 5775
form 5763
vas@@ 5763
28@@ 5761
alis@@ 5759
Wo@@ 5755
mit 5752
eden@@ 5747
41 5742
stad@@ 5735
Billboard 5733
Nov@@ 5732
fab@@ 5723
Rob@@ 5722
port 5713
Vid@@ 5712
44 5710
IS@@ 5709
57 5708
88 5699
May@@ 5693
ovi@@ 5693
1949 5684
Louis 5680
leh@@ 5680
1947 5676
52 5675
saf@@ 5668
87 5658
apo@@ 5651
400 5640
zy@@ 5640
ory 5636
1938 5632
dern 5631
51 5592
ded@@ 5592
6. 5588
UN@@ 5588
Love 5587
pek@@ 5584
plan 5583
gin@@ 5571
end 5570
field 5561
ost@@ 5546
43 5541
Martin 5540
ony 5538
ion 5535
84 5533
Records 5528
56 5526
anah@@ 5516
bed@@ 5515
ders 5512
Plat@@ 5510
oni@@ 5495
orta@@ 5489
Plan@@ 5487
Su 5486
gön@@ 5474
play@@ 5473
dro@@ 5471
1925 5469
Cer@@ 5469
oth@@ 5469
milli@@ 5464
q@@ 5458
cal@@ 5455
anne 5453
anus 5452
Tal@@ 5451
ash@@ 5450
Mari@@ 5449
ps 5444
kiye 5437
ville 5435
92 5433
alist 5432
asi@@ 5429
War@@ 5424
Mut@@ 5418
awa 5416
68 5411
1936 5408
Mit@@ 5384
urg 5369
chester 5366
Vik@@ 5365
1951 5358
$ 5353
Lee 5350
Ty@@ 5348
aborat@@ 5347
gun@@ 5345
99 5344
1933 5343
1921 5338
old 5337
Fel@@ 5333
ando 5331
go 5327
sur 5318
1922 5317
Christ@@ 5308
Yor@@ 5305
Ken@@ 5301
Hy@@ 5300
Sto@@ 5299
1935 5295
54 5291
180@@ 5274
89 5274
Div@@ 5274
mos@@ 5273
77 5265
Tro@@ 5262
Joseph 5260
ou 5260
Al 5254
test 5251
ordin@@ 5241
SS 5240
bert 5237
Google 5229
kup@@ 5225
93 5220
poli@@ 5204
67 5201
71 5201
Rec@@ 5200
he 5200
cer@@ 5197
Sing@@ 5196
Buc@@ 5192
ure 5186
1923 5182
yn 5182
66 5179
person@@ 5176
46 5170
96 5161
ein 5158
58 5151
ity 5150
76 5149
Tam@@ 5147
ahl@@ 5143
CD 5137
my 5137
ple 5137
29@@ 5136
Eng@@ 5136
lie 5135
Luc@@ 5126
q 5125
ero 5124
Madrid 5121
lil@@ 5116
time 5114
ison 5109
cell@@ 5107
16. 5106
Lor@@ 5102
adr@@ 5099
62 5086
ington 5085
61 5081
ax@@ 5073
Il@@ 5066
Sand@@ 5062
1924 5060
tion 5060
fal@@ 5051
ä@@ 5049
merc@@ 5043
sey 5042
Sw@@ 5040
alternati@@ 5039
eta 5036
aban 5034
sam 5033
pap@@ 5029
bec@@ 5027
ry 5015
1937 5007
bre@@ 5005
org@@ 5005
con@@ 5003
mag@@ 4997
Hil@@ 4993
ess 4990
7. 4988
uta 4988
stan@@ 4987
á 4987
63 4981
za@@ 4968
Me 4963
Ot@@ 4960
Net@@ 4958
Nic@@ 4946
unca 4945
isp@@ 4941
04 4940
Cap@@ 4940
1914 4939
ern@@ 4938
ender 4932
general 4932
the@@ 4919
81 4918
bas 4918
1934 4917
hel@@ 4916
6,@@ 4915
1912 4908
Kup@@ 4908
dem 4907
ii 4907
ings 4900
Rod@@ 4897
dom@@ 4897
stati@@ 4895
Wat@@ 4894
74 4893
ales 4893
lise 4884
so 4883
edit@@ 4878
18. 4877
hr@@ 4875
ō 4860
Mass@@ 4858
05 4857
Jackson 4853
dans 4853
83 4852
kisi@@ 4852
ado 4850
tra 4848
NA 4838
fo@@ 4837
zo 4836
fen@@ 4830
Star 4829
cor@@ 4828
dy 4827
ste 4827
SC 4826
RA@@ 4825
Sun@@ 4821
A. 4819
Vi@@ 4819
V. 4816
1917 4815
One 4813
Sat@@ 4813
edr@@ 4802
rey 4801
Ap@@ 4798
49 4793
Ori@@ 4792
08 4785
ilde 4784
Phil@@ 4777
neg@@ 4767
179@@ 4756
tin@@ 4754
Dal@@ 4741
tel 4739
01 4730
may 4728
tol@@ 4727
82 4710
agr@@ 4710
Patr@@ 4704
hip 4701
refer@@ 4700
69 4699
WWE 4685
anti 4685
Maria 4680
73 4677
ello 4675
Cup 4668
1926 4667
Z 4667
ling 4659
dae 4658
ex@@ 4656
ört 4653
Edward 4650
ail 4649
Oc@@ 4648
way 4648
Bon@@ 4646
rem@@ 4642
Des@@ 4640
key 4638
CH@@ 4632
ā@@ 4630
Ka@@ 4628
Y 4627
irse 4622
mp@@ 4614
94 4613
eci@@ 4612
59 4601
1927 4600
De 4595
hor@@ 4590
Bri@@ 4589
My 4585
Lib@@ 4584
Dam@@ 4575
— 4573
09 4567
Mid@@ 4562
Sy@@ 4562
Pot@@ 4549
Le 4542
West 4542
zona 4542
ith 4537
Pa@@ 4535
ef 4535
Nob@@ 4534
Proj@@ 4534
Dis@@ 4532
alif@@ 4532
urg@@ 4530
‎ 4530
bot@@ 4526
je 4526
day 4519
Hen@@ 4518
Som@@ 4518
bac@@ 4513
Bus@@ 4507
Pre@@ 4507
Wol@@ 4506
asti@@ 4502
aten 4493
cad@@ 4485
kaç 4483
Sof@@ 4482
98 4479
US@@ 4476
ont@@ 4473
own 4468
him@@ 4467
91 4466
Mont@@ 4465
La@@ 4462
aff@@ 4462
Music 4460
Reg@@ 4460
97 4455
kt 4454
well 4453
Sm@@ 4452
Papa 4450
İ 4450
Santa 4448
1929 4443
Rock 4443
Prix 4438
low 4436
č@@ 4424
17. 4422
Black 4422
Gor@@ 4418
Hir@@ 4417
Avru@@ 4413
Milli@@ 4412
err@@ 4409
Blo@@ 4407
hil 4407
sig@@ 4407
My@@ 4402
deb@@ 4398
Um@@ 4397
igh@@ 4380
ico 4379
hari@@ 4378
Wor@@ 4372
Show 4370
ა@@ 4370
Inter@@ 4358
Pu@@ 4354
fas@@ 4350
ud 4347
1932 4345
Hon@@ 4343
79 4334
wa 4333
Ha@@ 4331
ble 4331
udi@@ 4331
mine 4325
8. 4324
ito 4323
Roc@@ 4311
Play@@ 4307
ort 4304
ende 4303
BC 4301
play 4301
Vir@@ 4300
ath 4293
Steph@@ 4285
aire 4280
Tol@@ 4266
A.@@ 4265
Smith 4261
COVID 4259
mara 4256
07 4254
All 4246
Jack 4237
Pin@@ 4237
Sk@@ 4237
pin@@ 4234
Don 4230
ome 4229
bar 4226
1931 4224
ding 4224
Flor@@ 4223
uke 4221
Kim 4219
Entertainment 4216
pis@@ 4211
kte 4210
esc@@ 4208
nam 4208
ogr@@ 4206
Andr@@ 4205
tic 4199
win 4181
M. 4173
Chi@@ 4172
Nar@@ 4171
uel 4163
9,@@ 4162
onn@@ 4157
FI@@ 4152
ase 4151
inen 4149
CO@@ 4148
­ 4145
Laur@@ 4143
Film@@ 4142
1915 4139
solo 4139
Dre@@ 4132
ei 4131
Nak@@ 4125
ian 4123
Frank 4121
J. 4120
sent@@ 4117
sky 4112
tis 4112
sburg 4110
Air@@ 4109
9. 4107
Hot 4104
* 4102
TC 4095
Kh@@ 4093
Gol@@ 4090
sep@@ 4085
10.@@ 4082
150 4080
Karl 4080
EP 4049
tle 4047
liste 4037
ube 4035
600 4022
Bern@@ 4022
Ly@@ 4020
03 4007
Pic@@ 4004
Sus@@ 4003
1000 4002
02 3992
CO 3955
Vic@@ 3951
Op@@ 3948
Ca@@ 3939
É@@ 3939
abeth 3935
ign@@ 3933
pul@@ 3918
Cur@@ 3915
Liber@@ 3913
06 3910
ock 3904
que 3903
iko 3902
Maz@@ 3901
ash 3901
uki 3901
Gil@@ 3898
ier 3896
Cre@@ 3895
ente 3895
King 3890
arc@@ 3889
Ki@@ 3888
Club 3883
po 3883
che 3881
ck 3876
Ox@@ 3875
Prof@@ 3872
ener 3872
Daniel 3871
Man 3866
log@@ 3862
ł@@ 3860
ame@@ 3854
itz 3851
​ 3851
Hug@@ 3847
Alexander 3844
die 3841
verg@@ 3841
program 3839
Viet@@ 3834
Dom@@ 3832
indi 3829
1916 3818
Ü 3815
.com 3813
Live 3813
Chicago 3812
Clar@@ 3809
Sum@@ 3804
Mary 3783
Ze@@ 3783
1908 3774
ous 3769
kim 3756
iten 3755
ester 3753
dor@@ 3748
liber@@ 3748
ə@@ 3746
Red 3745
uch@@ 3745
Phili@@ 3742
ets 3741
Conn@@ 3740
odi@@ 3739
Haw@@ 3737
Q 3736
800 3735
ansa 3735
reg@@ 3729
Seb@@ 3723
annes 3718
Mark 3713
Leon@@ 3712
cus 3712
ics 3712
bit 3711
Vel@@ 3704
hum@@ 3700
Hum@@ 3698
neh@@ 3698
entr@@ 3697
los@@ 3696
Stu@@ 3695
ept@@ 3691
Tw@@ 3690
rot@@ 3689
ula 3688
Uni@@ 3681
Real 3677
1913 3672
Albert 3672
Tour 3672
erry 3672
• 3670
ais 3666
Pri@@ 3663
Williams 3663
Pop@@ 3662
Tom 3662
Roman 3653
8,@@ 3652
International 3651
Rol@@ 3648
esto 3643
nh@@ 3642
yp@@ 3638
Â@@ 3637
Organ@@ 3625
ier@@ 3617
Kn@@ 3607
oti@@ 3605
Anne 3602
Que@@ 3600
tt@@ 3598
Big 3596
Not@@ 3591
els 3583
Hom@@ 3582
No 3580
ors 3580
go@@ 3578
Max 3570
onal 3567
13. 3562
Jer@@ 3561
don 3561
eth 3559
idi@@ 3558
thi@@ 3551
Wi@@ 3547
ux 3547
AN@@ 3545
DVD 3540
ben 3540
Oli@@ 3539
aki@@ 3535
Eliz@@ 3533
Sou@@ 3532
kub@@ 3530
1910 3524
cr@@ 3514
ough 3507
It 3505
Clau@@ 3503
CE@@ 3490
etts 3489
Stand@@ 3488
Got@@ 3485
FA 3484
Anna 3482
Cy@@ 3482
Cum@@ 3478
ste@@ 3478
Company 3476
AC 3474
Atlan@@ 3472
uni 3472
eld 3471
Ky@@ 3465
Joh@@ 3464
ass 3462
set 3460
ams 3446
Lar@@ 3444
You@@ 3444
In 3443
liga 3443
abe 3441
Cat@@ 3437
SA@@ 3436
mond 3426
Meg@@ 3425
Bes@@ 3422
olf 3419
war@@ 3419
15. 3418
National 3418
iter 3416
Au@@ 3414
BBC 3413
ardo 3413
Gem@@ 3409
ett 3403
Royal 3401
11.@@ 3394
ina@@ 3394
Sig@@ 3386
Bru@@ 3377
Arthur 3375
yc@@ 3373
mati@@ 3369
wig 3366
kati@@ 3358
bro@@ 3355
use 3353
osa 3352
Pierre 3351
zon@@ 3349
Jones 3345
ange 3343
Pen@@ 3341
Jac@@ 3339
vin@@ 3338
Liga 3332
ws 3332
Nam@@ 3328
Win@@ 3324
inger 3324
ft 3323
Fri@@ 3321
Stan@@ 3319
1900 3316
prop@@ 3316
Premier 3313
lit 3312
ys 3308
Virginia 3305
ady 3305
American 3298
1911 3288
ston 3286
KK 3284
Florida 3282
She@@ 3282
mo 3281
Maur@@ 3275
vi 3273
Francisco 3272
All@@ 3269
anta 3269
enden 3269
Life 3264
örd@@ 3264
imb@@ 3262
án 3244
ón 3243
Sc@@ 3242
mus@@ 3242
14. 3241
Rot@@ 3241
bez@@ 3236
Friedrich 3231
Frank@@ 3230
mula 3229
trop@@ 3222
hy@@ 3221
Bot@@ 3220
Def@@ 3218
ë@@ 3218
ny@@ 3217
Mod@@ 3211
fan@@ 3203
Astr@@ 3194
lit@@ 3192
50@@ 3190
Pres@@ 3190
TA 3189
Time 3189
AP 3185
Camp@@ 3184
Dig@@ 3177
Scott 3169
une 3166
hom@@ 3165
luy@@ 3164
sus 3162
park 3161
tw@@ 3149
elec@@ 3144
Jersey 3143
eva 3143
ther 3143
Cro@@ 3137
ario 3133
Trans@@ 3132
zin@@ 3129
sis 3121
tes 3121
120 3116
Super@@ 3115
ment 3114
his 3112
Hot@@ 3109
Anti@@ 3106
col@@ 3106
Gro@@ 3102
ont 3101
vit@@ 3097
PS 3092
abri@@ 3090
âm 3087
Rog@@ 3081
Gran@@ 3079
ny 3077
Ayr@@ 3074
Ath@@ 3070
Times 3067
amo@@ 3065
oa 3064
Lou@@ 3059
ua 3059
ho 3056
H. 3054
Rem@@ 3054
ú@@ 3048
Fern@@ 3041
Jam@@ 3040
rar 3040
Ci@@ 3028
Fac@@ 3026
Nat@@ 3026
North 3024
Pil@@ 3024
ason 3022
Kenn@@ 3020
Liv@@ 3019
unt 3013
Bundes@@ 3012
reti@@ 3012
wor@@ 3010
Brown 3009
estra 3007
mur@@ 3007
BA 3006
oks 3003
onald 3001
Tre@@ 3000
with 2999
dis 2997
Carl 2993
ø@@ 2991
eus 2990
ihr@@ 2984
lor 2981
Lam@@ 2979
AM@@ 2978
Zi@@ 2976
nat@@ 2976
ax 2972
Kamp@@ 2971
Red@@ 2969
Young 2969
ania 2968
name 2968
phe 2967
uli@@ 2966
Ern@@ 2965
1909 2963
Ash@@ 2963
berto 2963
CD@@ 2961
anga 2960
Marie 2959
Johnson 2958
Fir@@ 2957
Star@@ 2953
ting 2952
Kre@@ 2950
Bay 2946
Sec@@ 2946
Vit@@ 2946
avi@@ 2944
Tit@@ 2940
12.@@ 2939
vel 2938
Fal@@ 2932
gener@@ 2932
Num@@ 2928
nur 2926
riv@@ 2924
# 2920
Pau@@ 2916
ae@@ 2916
ush@@ 2915
Ein@@ 2911
gl@@ 2909
inus 2909
Ort@@ 2906
Berg@@ 2905
But@@ 2905
out 2903
Jor@@ 2902
700 2901
ement 2898
section 2897
urs 2897
com@@ 2895
gia 2894
ies 2893
lia 2893
250 2890
ix 2888
1907 2884
chi 2881
ebr@@ 2880
VI 2879
agu@@ 2877
fem@@ 2875
lip@@ 2869
Politi@@ 2865
aro 2860
ér@@ 2858
Hall 2851
1905 2848
Im@@ 2847
mand@@ 2846
ador 2844
igan 2842
Eu@@ 2840
D. 2839
inos 2839
Ob@@ 2838
Aug@@ 2835
ი@@ 2835
Medi@@ 2834
» 2832
ingen 2829
ago 2826
ST@@ 2825
mar 2825
vis@@ 2825
bridge 2823
ect 2822
ault 2819
Joe 2817
ister@@ 2817
ego 2816
Sant@@ 2814
Sho@@ 2814
Cin@@ 2807
AP@@ 2802
College 2802
stil@@ 2795
ido 2794
ls 2793
Ander@@ 2790
1878 2788
Columb@@ 2788
not 2785
burg@@ 2784
ond 2782
Pom@@ 2779
oug@@ 2777
Şub@@ 2776
Nav@@ 2771
BS 2770
Rich@@ 2768
Whit@@ 2766
itz@@ 2765
nu@@ 2764
Anth@@ 2762
Nag@@ 2762
Greg@@ 2760
apa 2760
Top 2759
hin@@ 2758
1902 2755
vo@@ 2755
Tran@@ 2753
hol@@ 2750
som@@ 2746
idea 2742
net@@ 2740
kle@@ 2737
Hö@@ 2734
anos 2729
ense 2729
esti@@ 2724
ige 2724
Franc@@ 2722
rap@@ 2721
« 2721
José 2720
aus 2713
SE@@ 2712
pos 2712
Kin@@ 2708
Aus@@ 2701
Shi@@ 2701
amba 2701
sea 2701
tit@@ 2701
Antonio 2698
Ferr@@ 2697
Spe@@ 2695
Sci@@ 2692
Carlos 2689
PC 2689
1886 2685
ensis 2682
off@@ 2682
ides 2681
atur@@ 2679
esia 2679
West@@ 2678
ment@@ 2675
SA 2672
ee 2672
Law@@ 2670
transfer@@ 2670
Rah@@ 2668
Paulo 2666
Wilhelm 2666
jer@@ 2666
sir@@ 2665
Group 2663
loy@@ 2662
cher 2660
eter 2658
R. 2657
Abr@@ 2655
DC 2654
Kri@@ 2653
Spr@@ 2650
bury 2645
sever@@ 2644
Boston 2643
ald 2643
AC@@ 2641
Alfre@@ 2640
School 2636
amo 2626
Venez@@ 2624
opo@@ 2624
vo 2624
eto 2623
ust 2622
Leg@@ 2620
Sir 2620
Loc@@ 2619
Yo@@ 2617
zu@@ 2615
dio 2610
ds 2610
izi@@ 2605
ime@@ 2597
nd@@ 2596
Disney 2583
esab@@ 2582
Cle@@ 2579
inae 2578
hali 2577
eral 2575
200@@ 2573
Ere@@ 2573
ever 2573
Simon 2572
Day 2569
box 2566
gre@@ 2566
Super 2564
Doc@@ 2562
ope 2557
iga 2554
like 2554
wer@@ 2554
hasta 2553
ote 2545
Team 2543
Air 2542
Rh@@ 2542
ER@@ 2541
mun@@ 2539
egen 2535
Victoria 2532
Hill 2526
termin@@ 2526
wal@@ 2526
ი 2525
1906 2520
Bed@@ 2520
mas 2517
ert 2516
E. 2513
Juan 2513
gio 2513
Ju@@ 2512
app@@ 2510
а@@ 2510
osh@@ 2506
öh@@ 2503
Arm@@ 2501
verse 2501
Lud@@ 2499
iller@@ 2498
Bet@@ 2496
DS 2495
Sub@@ 2494
als 2494
France 2492
aye 2487
ô@@ 2486
C. 2484
Jose@@ 2481
Prim@@ 2481
ann 2480
Christian 2478
antas@@ 2478
aa 2475
1890 2471
elt 2470
Station 2469
Cru@@ 2467
mont 2466
este 2463
able 2462
ine@@ 2460
Domin@@ 2458
Mul@@ 2457
François 2453
ew@@ 2453
Beh@@ 2449
agon@@ 2442
Kle@@ 2438
White 2438
mom@@ 2437
ett@@ 2434
zen 2431
Corpor@@ 2430
chi@@ 2430
1876 2429
Walter 2429
Jos@@ 2427
IC@@ 2423
ū@@ 2423
eka 2420
res 2419
has 2417
1877 2416
ais@@ 2416
bo 2415
ng 2410
rem 2410
work 2409
ning 2406
Bang@@ 2405
low@@ 2403
1896 2402
CI@@ 2401
University 2400
did@@ 2400
1904 2398
Lord 2398
ges 2395
vers 2393
1,5 2392
B. 2391
Bec@@ 2390
AD@@ 2384
-- 2381
Hamb@@ 2377
Indi@@ 2377
Barcelona 2376
aliye@@ 2376
ju@@ 2365
htt@@ 2362
House 2359
ern 2357
Off@@ 2351
olas 2350
bır@@ 2347
ater 2345
ref@@ 2344
Elec@@ 2343
AS 2342
Buenos 2341
anth@@ 2341
1901 2339
cl@@ 2339
sus@@ 2339
ikan@@ 2338
afya 2337
S. 2336
Web@@ 2336
gut 2332
Aires 2331
oi 2329
ig 2325
ž@@ 2323
kam 2320
ebo@@ 2317
Kant@@ 2316
ther@@ 2315
Vo@@ 2314
unk@@ 2313
hai 2312
jo 2308
tran@@ 2308
umi 2308
Hans 2307
bot 2307
Ş 2307
patr@@ 2306
ear@@ 2305
ე@@ 2303
Championship 2300
Mand@@ 2300
ana@@ 2299
Ye@@ 2297
furt 2295
Jacques 2294
Bank 2290
ante 2290
Blu@@ 2288
RO@@ 2288
Les@@ 2287
uss@@ 2286
ista 2282
aller@@ 2281
Studi@@ 2280
East 2278
Grande 2276
23@@ 2275
Nu@@ 2275
Hin@@ 2273
attle 2273
aux 2273
mes 2268
ega 2267
otte 2265
80@@ 2260
eno 2260
omo 2260
Moh@@ 2257
í 2256
40@@ 2253
Thom@@ 2252
IM@@ 2250
SP@@ 2248
Art 2245
teri@@ 2245
130 2242
hata 2235
Rap@@ 2225
How@@ 2224
lus@@ 2224
1903 2220
tura 2218
umb@@ 2217
0,000 2213
Cu@@ 2212
trav@@ 2212
alis 2210
nes 2205
denen 2203
Jus@@ 2200
Maj@@ 2198
Sher@@ 2195
jam@@ 2193
Ear@@ 2191
× 2189
row 2188
oria 2186
Green 2182
Lan@@ 2182
aft 2176
1880 2171
Pow@@ 2167
cal 2164
bâ@@ 2162
Football 2161
cre@@ 2158
ty@@ 2157
NE@@ 2154
olo 2153
Ohio 2149
edy 2149
och@@ 2148
elo 2143
Island 2140
AI@@ 2137
dat@@ 2133
რ@@ 2133
110 2129
Heinrich 2128
cht 2123
cia 2123
uno 2118
Illinois 2116
Center 2112
inf@@ 2111
ical 2107
Ig@@ 2106
Rud@@ 2104
see 2104
W. 2102
iran 2102
milit@@ 2098
eck 2097
Bau@@ 2096
Coğr@@ 2088
Radi@@ 2081
try 2081
fri@@ 2080
Blue 2078
thi 2071
Cab@@ 2070
1870 2062
hus@@ 2060
F. 2056
liv@@ 2055
Juni@@ 2054
rom 2053
beg@@ 2051
bach 2048
ref 2047
1897 2046
ager 2046
raz@@ 2046
tha 2043
1500 2042
tra@@ 2042
Lag@@ 2041
P. 2038
aer@@ 2038
mb@@ 2038
ator@@ 2035
enburg 2034
Lang@@ 2032
1899 2031
igo 2030
Š@@ 2027
endo 2026
11@@ 2025
Arg@@ 2023
tig@@ 2021
Pon@@ 2017
Street 2012
ife 2010
iste 2010
agen 2009
enne 2006
ansas 2002
Land@@ 2001
ium 2000
uela 1999
ía 1999
VII 1998
Gold@@ 1996
onal@@ 1995
ays 1991
Carol@@ 1987
án@@ 1986
matr@@ 1985
nati@@ 1985
1864 1983
king 1982
atus 1980
California 1979
enberg 1978
11,@@ 1977
ob 1976
pes 1976
John@@ 1974
bara 1974
Mach@@ 1970
MA 1965
Mun@@ 1964
Wer@@ 1964
onia 1963
IN@@ 1961
Seg@@ 1959
û 1955
1895 1954
Chil@@ 1954
ones 1952
AB@@ 1951
1885 1950
Serie 1950
aja 1950
ations 1949
igu@@ 1947
aco 1943
Bad@@ 1938
outh 1938
include 1937
Fol@@ 1936
adap@@ 1936
ech@@ 1936
pa@@ 1936
€ 1936
900 1935
South 1935
m. 1931
L. 1928
aden 1926
enter 1926
dorf 1924
ech 1920
180 1917
heim 1916
aver@@ 1913
1898 1911
eron 1910
1889 1906
mid@@ 1906
esh@@ 1905
istr@@ 1905
cur@@ 1904
Radio 1901
ander@@ 1901
pon 1901
aul@@ 1899
etz@@ 1899
uli 1896
ré@@ 1892
S.@@ 1889
Gra@@ 1886
Tenn@@ 1884
Alexand@@ 1882
idge 1881
muz@@ 1881
lock 1879
Barr@@ 1878
lib@@ 1878
omen 1878
eth@@ 1875
sche 1875
right 1873
wan@@ 1873
MP@@ 1872
das 1871
Society 1867
Tanz@@ 1867
ango 1867
imo 1867
sion 1867
Cir@@ 1862
Henri 1861
Vis@@ 1858
forman@@ 1857
Association 1856
ater@@ 1853
lum 1853
cy 1852
Luis 1850
Wit@@ 1848
Franz 1847
Bill@@ 1845
− 1845
obj@@ 1844
å@@ 1844
Famil@@ 1842
XX@@ 1840
³ 1840
ns 1838
Die 1833
Mün@@ 1833
alc@@ 1833
tures 1832
aria 1830
fen 1827
dre@@ 1825
Cath@@ 1824
Wes@@ 1824
polit@@ 1824
Media 1822
ms 1821
120@@ 1818
Anton@@ 1816
over 1816
aun@@ 1815
ental 1815
leg@@ 1815
Town 1813
.C. 1812
onto 1812
tia 1810
tern 1809
bus 1803
1860 1802
under@@ 1802
car 1800
eles 1800
eff@@ 1798
open@@ 1797
ves 1797
Enter@@ 1796
cio 1796
tus 1795
dou@@ 1794
los 1794
onne 1793
3000 1792
Augus@@ 1791
Chap@@ 1791
uba 1791
Beau@@ 1790
tions 1790
hard 1789
Ing@@ 1787
hara 1787
1894 1783
Gener@@ 1782
Sz@@ 1782
agn@@ 1780
Bow@@ 1779
its 1777
King@@ 1775
Brand@@ 1774
oka 1774
sten 1770
Á@@ 1769
à 1769
ck@@ 1767
oman 1767
akter@@ 1765
Gh@@ 1764
Arti@@ 1761
Johann 1760
Deb@@ 1758
Dou@@ 1751
… 1743
eer 1740
Rev@@ 1739
1893 1735
Kun@@ 1735
amin@@ 1735
eing 1733
dez 1727
Pad@@ 1726
ó 1726
Lake 1724
ander 1724
Tow@@ 1723
Dec@@ 1722
Eg@@ 1720
Cast@@ 1719
Festival 1719
1800 1715
Song 1715
plant@@ 1714
ée 1712
Cul@@ 1710
IX 1708
dig@@ 1707
.S. 1703
Way@@ 1703
yth@@ 1703
1882 1702
allas 1702
xim@@ 1701
iss 1698
ლ@@ 1696
1892 1695
tain 1695
from 1690
1881 1689
rez 1689
High 1688
Alg@@ 1685
liter@@ 1685
Aut@@ 1681
ag 1681
edo 1680
alia 1679
Best 1675
ated 1672
ա@@ 1672
cap@@ 1669
Bou@@ 1668
fin 1666
apar@@ 1664
sw@@ 1661
,000 1658
Kongo 1657
ij@@ 1657
ñ@@ 1657
bour@@ 1656
dic@@ 1652
side 1650
K. 1648
tico 1648
́ 1648
Vill@@ 1647
River 1646
we 1645
Games 1643
iger 1640
1891 1639
ael 1637
tere 1636
Cop@@ 1634
acc@@ 1631
101 1630
lob@@ 1630
eria 1627
Reich@@ 1626
Vor@@ 1618
ron@@ 1618
ă@@ 1618
London 1617
Tou@@ 1617
ei@@ 1617
Univers@@ 1616
о@@ 1616
It@@ 1615
ow 1614
tay 1613
tica 1613
aide 1612
ods 1610
Produc@@ 1608
maye 1608
onz@@ 1608
ca@@ 1607
Kus@@ 1606
ric@@ 1604
160 1603
Tod@@ 1603
esa 1603
kana 1602
isse 1599
tics 1599
140 1597
British 1596
AM 1595
cir@@ 1595
Hand@@ 1593
Ind@@ 1593
Blan@@ 1590
put@@ 1589
lobal 1587
isl@@ 1586
prim@@ 1586
more 1584
esse 1571
oli 1570
chen 1569
1848 1568
lor@@ 1568
nom@@ 1568
peri@@ 1566
isten 1565
wen@@ 1565
cha 1564
derni@@ 1564
America 1562
Gas@@ 1560
tadır 1560
Long 1559
ross 1559
ww@@ 1559
Ran@@ 1558
eda 1558
ology 1558
oldu@@ 1557
ury 1557
II. 1555
til 1553
1867 1552
1888 1552
bos@@ 1552
eng 1550
1884 1549
ally 1547
Manuel 1546
This 1543
dec@@ 1542
eau 1541
ree 1539
Las 1538
non 1538
site 1536
ehr 1533
{ 1533
ex 1531
ás 1531
alle@@ 1530
ère 1530
gres@@ 1526
itt 1526
oo 1524
w.@@ 1524
Sau@@ 1523
RE@@ 1522
ნ@@ 1522
Coun@@ 1520
rün@@ 1520
tras@@ 1520
1865 1518
Rou@@ 1518
CA 1516
ld 1516
´ 1515
moder@@ 1514
ball 1511
Squ@@ 1509
ord 1508
Ober@@ 1506
ace@@ 1505
geb@@ 1505
Pedro 1504
house 1504
pun@@ 1504
aster@@ 1503
ign 1502
seg@@ 1502
ór@@ 1496
1887 1495
Kis@@ 1495
1871 1494
ako 1492
VI@@ 1487
augh@@ 1485
ppe 1485
vor 1483
bes 1482
First 1479
ights 1476
Lab@@ 1474
Les 1474
con 1473
ado@@ 1471
1850 1468
elop@@ 1468
prof@@ 1468
uti@@ 1462
gh@@ 1460
ias 1458
To 1453
š 1451
back 1449
urn@@ 1447
thr@@ 1446
div@@ 1445
arti@@ 1444
dos 1442
1883 1441
egr@@ 1440
ém@@ 1440
aron 1437
ilit@@ 1437
annel 1436
nov@@ 1435
ports 1435
State 1434
integr@@ 1434
Penn@@ 1433
US 1433
ī@@ 1432
350 1427
Arts 1427
Do 1426
lé@@ 1426
Arch@@ 1425
Great 1424
vic@@ 1424
ems 1422
osp@@ 1419
yst@@ 1418
Techn@@ 1417
1863 1413
ín 1413
ო@@ 1412
cho 1410
Alem@@ 1409
Migu@@ 1409
anger 1407
inn 1407
prob@@ 1406
35@@ 1405
Ji@@ 1405
Soci@@ 1401
eck@@ 1401
£ 1401
ouv@@ 1400
ár@@ 1400
atri@@ 1399
ean 1398
unter 1398
mus 1397
10,@@ 1392
ness 1392
zen@@ 1391
bec 1390
ores 1388
Hein@@ 1387
ū 1387
1875 1386
ogo 1384
ents 1382
illo 1382
lines 1382
An 1381
wi@@ 1380
1873 1379
ers@@ 1375
wn 1375
sho@@ 1374
1830 1373
Division 1372
prom@@ 1368
Cou@@ 1367
maf@@ 1366
ê@@ 1366
ë 1364
AG 1362
loc@@ 1362
aud 1360
band@@ 1360
pha 1360
ful 1359
light 1357
esta 1356
Form@@ 1355
aqu@@ 1354
dice 1353
Esp@@ 1352
acy 1350
wo 1349
track 1348
ills 1347
ave@@ 1346
inay@@ 1346
1868 1343
prin@@ 1341
tun@@ 1341
Para 1340
act@@ 1340
Olympi@@ 1338
Alex@@ 1337
Geb@@ 1337
Riv@@ 1337
124@@ 1336
cons@@ 1335
hin 1329
1861 1328
1879 1325
sum@@ 1324
nen 1322
ines 1321
ely 1320
nch@@ 1320
ague 1319
icia 1317
1872 1315
zig 1314
rich@@ 1313
ui 1313
} 1311
alit@@ 1308
gs 1308
ien 1308
Journ@@ 1303
12,@@ 1302
other 1302
now 1301
enci@@ 1299
very 1297
sm@@ 1295
1874 1294
pes@@ 1294
dri@@ 1293
jo@@ 1292
Santiago 1290
fran@@ 1290
ishi 1290
ambi@@ 1289
arch@@ 1289
für 1289
ades 1287
alla 1283
par 1281
ture 1281
had 1279
ique 1278
tern@@ 1278
33@@ 1276
UK 1275
esen 1274
Pier@@ 1272
Road 1271
ats 1271
ule 1269
c. 1267
assi@@ 1266
Thi@@ 1261
trat 1261
Volks@@ 1259
wo@@ 1258
red 1257
agre@@ 1256
War 1255
rod@@ 1255
ê 1253
1866 1252
ande 1251
spir@@ 1249
bri@@ 1248
tive 1248
Union 1247
è@@ 1247
ends 1246
hay 1246
Copa 1245
fu 1245
usi 1245
Wa@@ 1243
Math@@ 1242
prov@@ 1242
that 1242
ვ@@ 1240
ion@@ 1238
Nis@@ 1237
Willi@@ 1237
liz@@ 1235
inda 1233
Dani@@ 1232
oro 1232
occ@@ 1230
sch 1230
‭ 1228
ember 1227
ces 1226
Hau@@ 1224
Schwar@@ 1223
1869 1222
ierra 1222
otr@@ 1222
ს@@ 1220
bli@@ 1218
ē@@ 1218
asp@@ 1217
isto 1217
ș@@ 1216
α 1216
alog@@ 1215
æ@@ 1215
Č@@ 1214
fac@@ 1213
ards 1212
cada 1212
aine 1210
erc@@ 1209
fün@@ 1209
tiva 1206
eur@@ 1205
Wag@@ 1203
modi@@ 1202
feld 1200
pon@@ 1200
ump@@ 1199
nia 1197
sup@@ 1195
eum 1193
Kenya 1191
gri@@ 1190
är@@ 1190
Internet 1189
ains 1189
ids 1188
muz 1187
crip@@ 1186
Ny@@ 1181
`@@ 1181
э@@ 1180
encia 1178
oko 1178
sing@@ 1173
At 1170
azine 1170
press 1170
dom 1169
ń@@ 1169
eds 1168
ume 1168
iness 1165
Person@@ 1164
GC 1161
Scot@@ 1160
‬ 1160
qui@@ 1159
lab@@ 1157
Best@@ 1154
Sport@@ 1154
zer 1154
lag@@ 1151
Rel@@ 1150
face 1149
tario 1149
tho@@ 1147
wer 1147
\ 1146
neo 1146
მ@@ 1146
Bez@@ 1144
For 1144
Stein@@ 1142
ache 1142
tival 1142
Museum 1141
1862 1140
eran 1140
she 1138
Central 1136
vent@@ 1136
cole 1135
sons 1135
limit@@ 1134
Dans 1132
May 1132
tos 1131
wil@@ 1131
trong 1130
Deutsch@@ 1129
rie 1129
ы@@ 1129
alli@@ 1128
ution 1124
ual 1120
aut 1118
ship 1118
ward 1118
azz 1116
others 1116
თ@@ 1116
eu@@ 1114
lier 1114
stadt 1113
atre 1112
ways 1111
Open 1109
Comp@@ 1108
Bib@@ 1107
Jack@@ 1107
Rein@@ 1107
zur 1103
els@@ 1102
mab@@ 1098
habit@@ 1097
ape 1095
pas 1095
Lon@@ 1094
alo 1094
ted 1094
bourg 1093
igh 1093
Il 1092
А@@ 1092
any 1091
antes 1089
Der 1087
bre 1084
afir@@ 1083
bus@@ 1083
eros 1083
′ 1083
Texas 1081
wat@@ 1081
~ 1080
Institute 1079
System 1078
vec@@ 1078
syl@@ 1077
ʿ@@ 1075
WW@@ 1074
Stre@@ 1070
én 1070
Luf@@ 1069
Ng@@ 1067
Academy 1066
enes 1066
е@@ 1066
our@@ 1065
XV@@ 1060
cop@@ 1060
ر@@ 1060
lands 1059
CC@@ 1057
andi@@ 1056
act 1054
riff@@ 1053
vier 1053
Beg@@ 1051
Mexico 1050
formes 1050
ingo 1047
Jes@@ 1046
via 1046
ous@@ 1045
sta@@ 1045
Da 1043
rece@@ 1043
én@@ 1043
Chem@@ 1041
emper@@ 1040
main 1040
fo 1039
uka 1037
aug@@ 1033
fahr@@ 1033
ells 1032
tot@@ 1032
Id@@ 1031
sec@@ 1030
mul@@ 1029
uel@@ 1028
eb 1027
kati 1025
umia 1025
ühr@@ 1025
BK 1024
view 1024
ა 1024
enos 1023
r. 1023
bs 1021
él@@ 1021
ople 1020
ál@@ 1020
Roy@@ 1015
ection 1015
enta 1015
mad 1015
უ@@ 1014
ð@@ 1012
ú 1012
nis 1010
High@@ 1009
Liste 1009
lot 1008
Ž@@ 1008
atis@@ 1006
ifa 1001
י@@ 999
August 996
Women 995
Awards 994
difer@@ 994
hist@@ 994
iles 994
Alli@@ 993
Micro@@ 993
pedi@@ 993
Syn@@ 992
won 992
Fahr@@ 991
Cant@@ 989
über@@ 988
alls 987
less 986
ï@@ 983
Ped@@ 981
^ 981
ayo 981
lon@@ 980
mark 980
under 979
post 978
Carr@@ 977
Italia 976
lers 973
Direc@@ 972
bau@@ 972
char@@ 972
dist@@ 972
ily 971
vania 971
town 969
Commun@@ 968
у@@ 967
even 966
ña 965
Nord@@ 964
iliz 962
och 962
uni@@ 962
ī 962
Jul@@ 958
nos 958
sia 954
ode 953
ough@@ 953
dh@@ 952
ground 952
Sur 951
but@@ 950
wh@@ 950
amar@@ 949
än@@ 947
So 946
aland 943
uer@@ 941
grav@@ 939
hie 939
tn@@ 939
uro 938
eu 936
As 934
down 933
Shu@@ 931
direc@@ 931
partamento 930
stre@@ 930
etes 928
és 927
Band 926
Nig@@ 926
ality 926
Stadi@@ 924
̣ 923
ature 922
Kid@@ 921
ants 919
head 919
201@@ 917
ennes 917
ism 917
tice 916
ος 916
vill@@ 915
ative 914
auer 914
р 913
Sup@@ 912
ops 912
Kib@@ 911
dition 910
isha 910
into 907
Ğ@@ 906
aut@@ 905
cat@@ 905
ène 903
cle 902
its@@ 902
ège 902
ilo 901
com 899
seud@@ 899
kn@@ 898
inst@@ 897
dé@@ 896
hut@@ 896
style 896
iter@@ 893
Christi@@ 891
chin@@ 891
ect@@ 891
р@@ 890
Leb@@ 888
ados 887
pur@@ 887
→ 887
Yes@@ 886
frag@@ 885
ited 884
Prin@@ 883
ხ@@ 882
ბ@@ 881
aro@@ 879
win@@ 879
ו@@ 876
esh 874
rup@@ 874
ling@@ 872
ilia 869
nete 869
Champi@@ 867
ares 867
ˈ@@ 866
eg 865
ischer 864
gang 863
mix@@ 862
ots 862
Force 861
DR 859
band 859
н 859
Fried@@ 858
eine 857
დ@@ 857
agua 856
kip@@ 856
rio 856
bul 855
ekt 855
rif@@ 855
vers@@ 855
Von 854
dle 854
ā 853
ès 852
ä 850
Western 849
Å@@ 849
rid 844
coun@@ 843
ques 843
„ 843
voy@@ 841
Ayn@@ 839
María 838
uld 837
anes 836
Kais@@ 835
ř@@ 835
atu 834
hib@@ 834
Acc@@ 833
uza 833
put 830
Mé@@ 829
auf 829
Syst@@ 827
ose 827
them 827
board 825
uo 825
CN 824
gel 824
eca 823
на 823
fte 822
get 822
adil@@ 820
õ@@ 817
maj@@ 816
· 816
isch 814
chen@@ 813
ures 813
acht 810
England 808
afr@@ 808
alem@@ 807
cos 805
European 804
Nacional 804
abor@@ 803
ě@@ 802
hen 801
was 800
ه 800
Amer@@ 799
Tour@@ 797
XVI 796
tors 795
uj@@ 795
cip@@ 791
vy@@ 791
č 791
Land 790
Orig@@ 789
Publi@@ 786
syn@@ 785
х@@ 783
aben 782
rique 781
cli@@ 780
cus@@ 779
xi@@ 779
à@@ 779
ands 778
fur@@ 776
Ç 776
Japan 775
aves 775
back@@ 775
earch 775
sera 775
sian 774
tham 774
fun@@ 773
ös@@ 773
opp@@ 772
out@@ 772
Uganda 771
Nati@@ 770
ois 768
tru@@ 767
radi@@ 766
phi 765
star@@ 765
Party 763
enh@@ 763
а 762
Soh@@ 761
vice 761
Inn@@ 760
ering 760
ui@@ 760
oso 756
ites 755
ahl 753
fast 753
Ō@@ 752
β 752
rich 751
tivo 751
angel@@ 750
cast 750
pri@@ 750
ying 750
Was@@ 748
lake 748
usi@@ 748
rea 747
Si 746
ames 746
fic 746
isch@@ 745
ols 745
thern 744
idad 743
laya 742
й 742
vari@@ 740
س@@ 738
С@@ 736
Austr@@ 735
tory 735
zus@@ 735
USA 734
ische 734
л@@ 734
District 733
inga 733
opsis 731
კ@@ 731
gro@@ 729
Natur@@ 728
fav@@ 728
sou@@ 728
cep@@ 725
She 724
away 724
ć@@ 724
ican 722
trat@@ 722
ute 721
Empire 720
asse 720
pio 718
ío 717
Er 715
alth 715
ums 714
Europe 713
Revol@@ 713
essen 713
rail@@ 713
ə 713
к@@ 713
show 712
gli@@ 711
manif@@ 709
sei 709
erre 708
irk 707
kw@@ 704
sive 704
fort 702
führ@@ 702
і@@ 702
rí@@ 700
tier 698
Award 697
With 697
alen 697
tas 697
tical 697
tag@@ 696
és@@ 696
ono 695
ural 693
History 692
Seine 692
When 692
XX 692
ś@@ 692
bers 691
rech@@ 687
ă 686
tín 685
vor@@ 685
éri@@ 685
Hosp@@ 683
lies 682
Tang@@ 681
idas 681
isme 681
ences 678
wes@@ 678
English 677
oir 676
wa@@ 676
Schw@@ 675
roy@@ 673
Centr@@ 671
spr@@ 671
è 671
ė 671
chil@@ 670
country 670
Neu@@ 669
Premi@@ 669
soci@@ 669
unge 669
wards 669
й@@ 668
dipl@@ 667
mont@@ 667
Am 666
Đ@@ 666
atos 665
duc@@ 665
domin@@ 663
sana 663
ving 663
aud@@ 661
active 660
haus@@ 660
than 659
lag 658
О@@ 658
depend@@ 657
ior 657
get@@ 656
bia 653
born 651
deren 651
Spiel@@ 649
dren 649
Sa 648
Ent@@ 647
programa 646
He 644
cer 644
ستان 644
Amér@@ 642
elles 641
Buch@@ 640
haus 639
tempor@@ 639
umin@@ 639
auf@@ 638
court 638
გ@@ 638
China 636
icro@@ 635
apo 634
Ł@@ 634
Ré@@ 633
bei 633
ilio 633
Ba 632
life 632
м@@ 631
ás@@ 629
к 629
erie 628
progr@@ 628
г@@ 628
ingi 627
Mann@@ 626
Wak@@ 626
tie 626
rac@@ 625
From 624
ه@@ 624
ustri@@ 623
enton@@ 622
vern@@ 622
xe 622
water 621
hon@@ 620
rus@@ 620
naf@@ 618
Ou@@ 617
Sach@@ 617
tion@@ 616
Canada 615
ext 615
dete 614
Universit@@ 611
ating 611
ր@@ 611
Un 609
ę@@ 609
iker 607
ories 607
ò 607
ox@@ 606
orial 605
Sain@@ 604
fle@@ 604
zum 604
einer 602
ongo 602
vie 602
К@@ 602
вич 602
--@@ 601
round 601
ulia 601
After 600
icul@@ 600
aise 599
change 599
rain 599
public 598
enten 597
Rep@@ 596
deg@@ 596
itali@@ 596
شه@@ 596
dra@@ 595
т 595
bis 594
doc@@ 591
éli@@ 590
last 589
ո@@ 589
ages 588
dad 588
nier 588
َ@@ 588
Fam@@ 587
ís 587
azu 585
inv@@ 585
ches 584
μ@@ 583
imin@@ 582
ს 582
ety 581
inas 581
lec@@ 581
anza 580
body 580
endel@@ 580
э 580
enth@@ 579
enz 577
Olymp@@ 574
aume 573
self 572
sing 572
chan@@ 571
с@@ 571
Eisen@@ 570
dium 570
ense@@ 570
pen 570
erh@@ 569
cit@@ 567
kata 567
Zu@@ 565
nec@@ 565
ball@@ 564
dej@@ 563
qua 563
spi@@ 563
law 562
ш@@ 561
sions 560
ț@@ 560
199@@ 559
enst@@ 559
ologi@@ 559
ils 558
asc@@ 556
Haus@@ 555
cy@@ 555
phy@@ 555
ь@@ 554
bao 553
eas 552
conom@@ 551
tag 551
Chin@@ 549
eur 548
odes 548
rant 548
н@@ 548
Ges@@ 547
Bür@@ 546
Das 546
pic@@ 546
wn@@ 545
ان 545
firm@@ 544
real 544
Sin 543
Wan@@ 543
cine 543
iku@@ 543
reci@@ 543
lau@@ 542
ofu 542
Tex@@ 541
Bras@@ 540
nde@@ 540
color 539
tera 539
craft 538
د@@ 538
ustos 536
lug@@ 535
ʻ@@ 535
aji 533
ingu@@ 533
äl@@ 533
א@@ 533
ش 533
Centre 532
Liter@@ 532
orio 531
text 531
Franç@@ 530
abu 530
death 527
Ost@@ 526
bio 526
onde 526
ش@@ 526
agement 525
añ@@ 525
kid@@ 525
Т@@ 525
isco 524
sych@@ 523
wid@@ 523
ר@@ 523
cho@@ 522
cou@@ 522
ité 522
ambo 521
Europa 520
uss 520
works 519
utz 518
± 518
multi@@ 517
left 516
prise 516
Rail@@ 515
States 515
mis 515
ß 515
т@@ 515
world 514
ý 514
ტ@@ 514
Î@@ 513
Dé@@ 512
ause 512
unga 512
raine 511
unds 511
ires 509
rier 509
ules 508
ب@@ 508
anci@@ 507
imp@@ 506
tend@@ 506
wak@@ 506
There 505
flu@@ 505
role 505
Emp@@ 504
but 504
eon@@ 504
toria 504
zel@@ 503
ла@@ 501
anst@@ 500
arios 500
viv@@ 500
Council 498
defin@@ 498
ق@@ 498
ν 497
Church 496
kik@@ 496
ool 496
España 495
plic@@ 495
retr@@ 493
ե@@ 493
Gran 492
Ago@@ 490
ą@@ 490
Eis@@ 489
live 489
onder@@ 489
ords 487
И@@ 487
з@@ 487
engo 486
má@@ 486
в 486
ро@@ 486
ographi@@ 485
ties 485
Kik@@ 484
format 484
α@@ 483
ქ@@ 483
azo 482
л 482
asili 481
Nord 480
wing 480
agne 479
chu@@ 479
phil@@ 479
war 479
д@@ 479
ful@@ 478
ő@@ 478
aup@@ 477
quit@@ 477
đ@@ 476
ext@@ 475
ég@@ 474
₺ 474
éc@@ 472
Д@@ 472
new 471
● 471
aum 470
в@@ 470
ն 470
vie@@ 469
eben 467
ird 467
Herr@@ 466
Theo 466
drei 466
ác@@ 466
omin@@ 465
pro 465
station 465
б@@ 465
quel@@ 464
Pf@@ 463
forme 463
mari@@ 462
tí@@ 462
sie 461
obr@@ 458
entes 457
qui 457
mig@@ 456
XVIII 455
ble@@ 454
и 454
que@@ 453
Fren@@ 451
е 450
cab@@ 448
ference 448
wie 448
מ@@ 448
ación 447
struc@@ 447
ń 447
comp@@ 446
onen 446
sac@@ 446
ς 446
French 445
Name 444
Wir@@ 444
book 444
tig 444
év@@ 444
Educ@@ 443
cher@@ 443
ishing 443
allen 442
lie@@ 442
ك@@ 442
Indian 441
favor@@ 441
igen 441
у 441
ز@@ 440
stand 438
wel@@ 438
π 438
Hist@@ 436
м 436
India 435
Schul@@ 435
Braz@@ 434
enda 434
kho@@ 434
huy@@ 432
this 432
ב@@ 431
stanbul 430
ι 428
198@@ 427
ე 427
შ@@ 427
cri@@ 426
later 426
onc@@ 425
optera 425
ì 424
erra 422
fund@@ 422
о 422
seau 421
ativ@@ 420
vez 420
Spi@@ 419
asser 419
lich 419
----@@ 418
DV@@ 418
erst@@ 417
icio 417
west 416
ţ@@ 415
Burundi 414
Klo@@ 414
cover@@ 414
embr@@ 414
serve 412
بن 412
onio 411
Canadi@@ 410
iff 410
خ@@ 409
chia 408
four 408
mente 408
ى 408
ي@@ 408
tres 407
umba 407
igi@@ 405
ː@@ 405
ский 405
ה@@ 405
Asia 404
М@@ 404
п@@ 404
ә@@ 403
Stra@@ 402
adu@@ 402
θ 402
acio 401
ción 401
ident 401
nationale 401
ects 399
determin@@ 398
edad 398
ã@@ 398
د 398
ø 396
с 396
ück 395
uerto 394
ł 394
Α@@ 394
emple 393
flo@@ 393
ל@@ 393
chem@@ 392
terr@@ 392
Es 391
engine 391
power 391
ль@@ 391
His 390
König@@ 390
Por 390
jur@@ 390
División 389
cos@@ 389
tuy@@ 389
ε 389
بخ@@ 389
Milit@@ 388
fore 388
ã 388
ög@@ 388
μ 388
ра@@ 388
ė@@ 387
Ś@@ 387
Chic@@ 386
atia 386
ndi@@ 386
Ital@@ 385
ective 385
spe@@ 385
ño 385
ש@@ 385
enga 384
istre 384
ω 384
come 383
ehem@@ 383
ths 383
ungs@@ 383
rent 382
akini 381
cent@@ 381
same 381
ères 381
muda 380
where 380
Hung@@ 379
anas 379
idos 379
Archit@@ 378
adém@@ 378
z. 378
ées 378
Como 376
Oly@@ 375
XIX 375
dru@@ 375
eux 375
xa 375
ն@@ 375
andere 374
stell@@ 374
δ@@ 374
У@@ 374
lima 373
ج@@ 373
sti 372
tour@@ 372
ская 372
scher 371
neur 370
point 370
յ@@ 370
Israel 368
cla@@ 368
grap@@ 368
perior 368
ù 368
ement@@ 367
ien@@ 367
и@@ 367
ament 366
data 366
ning@@ 366
П@@ 366
Album 365
Ø@@ 365
Army 364
deter@@ 364
icht 364
uso 364
ы 364
ح@@ 364
achen 363
ved 363
Ó@@ 363
Σ@@ 363
ж@@ 363
after 362
esch@@ 362
ned 362
ween 362
γ@@ 362
Б@@ 362
U.S. 361
hand@@ 360
ues 360
érie 360
peti@@ 359
Ú@@ 357
ε@@ 357
λ 357
aces 356
alian 356
media 356
run@@ 355
ín@@ 355
ḥ@@ 355
jas 354
ż@@ 354
ل@@ 354
voc@@ 353
By 352
aten@@ 352
eas@@ 352
─ 352
@ 351
unde 351
ý@@ 351
я@@ 351
super@@ 350
Е@@ 350
March 349
fic@@ 349
tain@@ 349
té 349
195@@ 348
first 348
π@@ 348
Sta@@ 347
dings 347
proc@@ 347
atz 346
lich@@ 346
Con 345
eshi 345
irat@@ 344
vot@@ 344
ș 344
Κ@@ 344
music 343
ority 343
gian 342
long@@ 342
seh@@ 342
ː 342
Portu@@ 341
adas 341
pad@@ 341
ри@@ 341
ի@@ 341
atura 340
cro@@ 340
ency 340
‚ 340
Institut 339
mission 339
å 339
Π@@ 339
ن@@ 339
Arth@@ 338
Musik@@ 338
σ@@ 338
ւ@@ 338
ع@@ 338
Zw@@ 337
eil 337
mina 337
ón@@ 337
я 336
tural 335
ּ@@ 335
Schi@@ 333
jed@@ 333
were 333
German 332
Jug@@ 332
chr@@ 332
state 332
ва 332
Historia 331
mayo 331
uch 331
ъ@@ 331
fied 330
ј@@ 330
arte 329
ма@@ 329
auto@@ 328
terior 328
ρ 328
itung 327
quar@@ 327
eaux 326
ikali 326
tique 326
η 326
נ@@ 326
June 325
Unter@@ 325
ка 325
aina 324
cant@@ 324
Universidad 323
kuna 323
schule 323
Н@@ 323
trac@@ 322
usal@@ 322
В@@ 322
action 321
realiz@@ 321
Wilhel@@ 320
acter@@ 320
eure 320
namo 320
zt 319
Δ@@ 319
hio 318
stor@@ 318
bt 317
utz@@ 317
chez 316
ellen 316
pre 316
tien 316
naci@@ 314
Grou@@ 313
bou@@ 313
debut 313
ded 313
formation 313
found@@ 313
tou@@ 313
евич 312
ה 312
ational 311
have 311
toral 311
Ban 310
Colomb@@ 310
Heim@@ 310
Æ@@ 310
Öster@@ 310
ʼ@@ 310
Г@@ 310
‌ 310
Deutschland 309
Se 309
½ 309
् 309
contin@@ 308
ional 308
nea 308
pris@@ 308
immer 307
Academ@@ 306
enas 306
series 306
été 306
ло@@ 306
ч@@ 306
ָ@@ 306
Jah@@ 305
Nam 305
equ@@ 305
ministr@@ 305
ording 305
д 305
fs 304
ì@@ 304
ezo 303
kama 303
lic@@ 303
techni@@ 303
vida 303
They 302
ól@@ 302
ְ@@ 302
spec@@ 301
uko 301
ү@@ 301
ا@@ 301
Х@@ 300
Nach@@ 299
cas 299
illes 299
rou@@ 299
ises 298
pendi@@ 298
span 298
Dez@@ 297
andes 297
esper@@ 297
θ@@ 297
† 297
acha 296
anni@@ 296
orie 296
ле@@ 296
Institu@@ 295
blan@@ 295
part 295
tros 295
Schwe@@ 294
grand 294
teur 294
tric@@ 294
г 294
geh@@ 293
foot@@ 292
mili@@ 292
ables 291
bahn 291
epis@@ 291
inger@@ 291
mach@@ 291
tei 291
tish 291
för@@ 290
ists 290
americ@@ 289
mt@@ 289
ġ@@ 289
Elle 288
itos 288
led 288
ο 288
Zwe@@ 287
strum@@ 287
ß@@ 287
Μ@@ 287
alter@@ 286
ни@@ 286
წ@@ 286
fass@@ 285
nig 285
primer 285
ყ@@ 285
Africa 284
assen 284
ended 284
ismo 284
senti@@ 284
γ 284
ices 283
run 283
will 283
م@@ 283
192@@ 282
emba 282
iwa 282
aines 281
fus@@ 281
odo 281
then 281
ifu 280
Τ@@ 280
ка@@ 280
ي 280
gether 279
tional 279
κ@@ 279
ός 279
غ@@ 279
Süd@@ 278
auth@@ 278
union 278
Hoch@@ 277
hips 277
pour 277
retur@@ 277
ー@@ 277
ainer 276
pili 276
schen 276
trag@@ 276
β@@ 276
ზ@@ 276
Geometr@@ 275
destr@@ 275
ǎ@@ 275
ك 275
ease 274
squ@@ 274
ц@@ 274
ت@@ 274
ecture 273
ht 273
undo 273
èle 273
σ 273
Р@@ 273
197@@ 272
arias 272
class 272
imba 272
type 272
λ@@ 272
ف@@ 272
م 272
ى@@ 272
inning 271
ди@@ 271
ко@@ 271
къ@@ 271
nie 270
Schl@@ 269
vention 269
ης 269
Democ@@ 268
ainst 268
undi 268
µ@@ 268
ē 268
ον 268
ь 268
konn@@ 267
pia 267
ungen 267
ías 267
ι@@ 267
jini 266
ligh@@ 266
orient@@ 266
ли@@ 266
ogen 265
ological 265
ples 265
trad@@ 265
zeh@@ 265
го@@ 265
Argent@@ 264
elimin@@ 264
φ@@ 264
з 264
و 264
ც@@ 264
ви@@ 263
ד@@ 263
ق 263
brit@@ 262
kön@@ 262
lande 262
resp@@ 262
wi 262
zog 262
ample 261
itu@@ 261
jug@@ 261
libr@@ 261
uzo 261
Ni 260
event@@ 260
nay 260
opo 260
tof@@ 260
ћ 260
ძ@@ 260
ჭ@@ 260
album 258
lí@@ 258
Dies@@ 257
dedic@@ 257
nah@@ 257
ν@@ 257
φ 257
193@@ 256
two 256
ò@@ 256
на@@ 256
esha 255
Ə@@ 255
ر 255
team 254
ät@@ 254
ла 254
meister 253
oles 253
schaft 252
shu@@ 252
ფ@@ 252
ancia 251
ography 251
ө@@ 251
kreis 250
ockey 250
ρ@@ 250
ْ@@ 250
Krieg@@ 249
pf@@ 249
veau 249
و@@ 249
ِ@@ 249
Australia 248
Eyl@@ 248
Minh 248
kia 248
place 248
plus 248
ω@@ 248
ע@@ 248
ی 248
Europ@@ 247
itation 247
Des 246
ected 246
ities 246
road 246
takri@@ 246
uu 246
چ@@ 246
destin@@ 245
umo 245
version 245
χ@@ 245
ар@@ 245
да@@ 245
Ab 244
® 244
ñ 244
ź 244
ɛ@@ 244
мо@@ 244
atur 243
fall 243
heit 243
pero 243
Partido 242
hud@@ 242
ار@@ 242
Philipp@@ 241
hr 241
many 241
times 241
loss 240
Una 239
oci@@ 239
Govern@@ 237
Groß@@ 237
bles 237
mé 237
sci@@ 237
ét@@ 237
ъ 237
inh 236
isis 236
nac@@ 236
tima 236
З@@ 236
ص@@ 236
Apr@@ 235
once 235
titu@@ 235
was@@ 235
which 235
Þ@@ 235
ط@@ 235
Span@@ 234
mich@@ 234
publi@@ 234
Ż@@ 234
ִ@@ 234
194@@ 233
These 233
dens@@ 233
eras 233
ш 233
ת 233
chn@@ 232
sed 232
ô 232
Λ@@ 232
י 232
大@@ 232
hui 231
long 231
ŋ@@ 231
ַ@@ 231
ო 231
Mex@@ 230
UE@@ 230
leur 230
mittee 230
they 230
Ε@@ 230
ار 230
ჯ@@ 230
apon 229
ked 229
sang 229
éd@@ 229
ù@@ 229
та@@ 229
hii 228
ischen 228
popul@@ 228
но@@ 228
area 227
atika 227
mann@@ 227
sion@@ 227
used 227
ία 227
δ 227
ο@@ 227
за@@ 227
ре@@ 227
ا 227
bed 226
date 226
oire 226
afin 225
force 225
unter@@ 225
ба@@ 225
ال@@ 225
April 224
camp@@ 224
regi@@ 224
verl@@ 224
га@@ 224
ت 224
190@@ 223
196@@ 223
eleg@@ 223
ging 223
nom 223
ought 223
tras 223
ן 223
liche 222
premi@@ 222
tet 222
ő 222
ە@@ 222
pend@@ 221
ی@@ 221
Australian 220
abab@@ 220
dres 220
nacional 220
ан@@ 220
・ 220
mw@@ 219
soft 219
total 219
τ@@ 219
≤ 219
cle@@ 218
comm@@ 218
″ 218
also 217
endre 217
gest@@ 217
mé@@ 217
oder 217
محمد 217
‟ 217
auc@@ 216
Ч@@ 216
гъ@@ 216
influ@@ 215
natur@@ 215
partment 215
vya 215
weg@@ 215
ð 215
տ@@ 215
ṭ@@ 215
dér@@ 214
game 214
syst@@ 214
süd@@ 214
new@@ 213
tard 213
thu@@ 213
aille 212
logr@@ 212
over@@ 212
priv@@ 212
sein 212
Í@@ 212
arri@@ 211
estruc@@ 211
head@@ 211
Ш@@ 211
aî@@ 210
ief 210
jos 210
Ка@@ 210
leit@@ 209
τ 209
Са@@ 209
گ@@ 209
Ireland 208
Со@@ 208
cont@@ 207
Anc@@ 206
ements 206
ismus 206
major 206
آ@@ 206
ჩ@@ 206
isen 205
map@@ 205
vier@@ 205
âteau 205
ŏ@@ 205
Haupt@@ 204
group 204
äd@@ 204
Ν@@ 204
ί@@ 204
ם 204
ک@@ 204
irs 203
match 203
pass@@ 203
ʾ@@ 203
Ф@@ 203
ко 203
ор@@ 203
fication 202
law@@ 202
lub 202
Wah@@ 201
city 201
ellschaft 201
player 201
ный 201
ン@@ 201
са@@ 200
Im 199
aill@@ 199
church 199
system 199
Ба@@ 199
را@@ 199
の@@ 199
ampi@@ 198
œ@@ 198
Mai 197
ihe 197
lang 197
national 197
ologie 197
àn 197
до@@ 197
կ@@ 197
Munici@@ 196
histori@@ 196
mort 196
sequ@@ 196
нович 196
პ@@ 196
cet 195
club 195
uzi 195
wah@@ 195
ח@@ 195
case 194
their 194
ž 194
Ко@@ 194
ва@@ 194
ная 194
ان@@ 194
estig@@ 193
iche 193
ished 193
thé@@ 193
ɑ@@ 193
ɪ@@ 193
כ@@ 193
Ä@@ 192
İngil@@ 192
Э@@ 192
ал@@ 192
پ@@ 192
Eins@@ 191
Histori@@ 191
kno@@ 191
late 191
platz 191
sour@@ 191
wann 191
zone 191
ème 191
ων 191
eil@@ 190
jum@@ 190
mov@@ 190
sche@@ 190
visi@@ 190
year 190
ρι@@ 190
ӏ@@ 190
izo 189
lieb 189
song 189
ún 189
only 188
uses 188
öst@@ 188
פ@@ 188
اب@@ 188
suc@@ 187
éro@@ 187
ï 187
αν@@ 187
υ@@ 187
ances 186
due 186
icos 186
mani@@ 186
telev@@ 186
Л@@ 186
Ա@@ 186
با@@ 186
Ein 185
eig@@ 185
erte 185
ments 185
pens@@ 185
sible 185
Ć@@ 185
Ма@@ 185
бе@@ 185
Cao 184
apos@@ 184
ר 184
ة 184
cour@@ 183
ident@@ 183
kio 183
éo 183
Ми@@ 183
ُ@@ 183
cru@@ 182
ensa 182
hiv@@ 182
pression 182
ское 182
ە 182
ン 182
Form 181
jia 181
leng@@ 181
position 181
մ@@ 181
aining 180
jou@@ 180
На@@ 180
і 180
س 180
Ἀ@@ 180
contr@@ 179
sans 179
viol@@ 179
voir 179
ս@@ 179
이@@ 179
athol@@ 178
cial 178
commun@@ 178
wana 178
Ω 178
issen@@ 177
jus@@ 177
ques@@ 177
رو@@ 177
ل 177
ℓ 177
ability 176
educ@@ 176
éré@@ 176
ё@@ 176
jud@@ 175
ň 175
ας 175
Бе@@ 175
dies 174
ible 174
issen 174
natural 174
þ@@ 174
Brasil 173
mano 173
nuc@@ 173
pios 173
writ@@ 173
Ι@@ 173
ат@@ 173
ру@@ 173
│ 173
Virgin@@ 172
empres@@ 172
wr@@ 172
útbol 172
би@@ 172
Ӏ@@ 172
adora 171
aje 171
conn@@ 171
iment 171
ober@@ 171
ograph@@ 171
ś 171
about 170
bau 170
ф@@ 170
mess@@ 169
née 169
sent 169
werk 169
ל 169
Guerra 168
aque 168
artist@@ 168
aña 168
reich 168
zw@@ 168
äs@@ 168
Ц@@ 168
де@@ 168
Chile 167
Nieder@@ 167
icas 167
ition 167
tung 167
қ@@ 167
ersch@@ 166
father 166
full 166
initi@@ 166
promot@@ 166
straße 166
vita 166
Ж@@ 166
ṣ@@ 166
most 165
ство 165
Ḥ@@ 165
African 164
Grün@@ 164
Mp@@ 164
front 164
iß@@ 164
ά@@ 164
со@@ 164
ק@@ 164
Wash@@ 163
fam@@ 163
grande 163
phot@@ 163
plac@@ 163
ύ@@ 163
ми@@ 163
ת@@ 163
ب 163
مرکزی 163
Bev@@ 162
centr@@ 162
champ@@ 162
gesch@@ 162
jun@@ 162
ό@@ 162
ի 162
region 161
ɔ@@ 161
х 161
∞ 161
egos 160
reich@@ 160
ز 160
distr@@ 159
се@@ 159
Au 158
Entre 158
cht@@ 158
cian 158
fron@@ 158
porte 158
prepar@@ 158
unia 158
wam@@ 158
щ@@ 158
Compan@@ 157
December 157
jina 157
mt 157
nant 157
onnat 157
ου 157
Ле@@ 157
Rech@@ 156
hau@@ 156
rá@@ 156
umbo 156
υ 156
186@@ 155
ched 155
inform@@ 155
nach 155
Я@@ 155
أ@@ 155
Nueva 154
Professor 154
ép@@ 154
στ@@ 154
ти@@ 154
Pia 153
europ@@ 153
ungu 153
while 153
âte@@ 153
ή 153
по@@ 153
اد@@ 153
feh@@ 152
publique 152
small 152
tific@@ 152
Σ 152
η@@ 152
ֹ@@ 152
ג@@ 152
ღ@@ 152
Isra@@ 151
Sud 151
Zeit@@ 151
known 151
stud@@ 151
ève 151
Grund@@ 150
ký 150
people 150
yali@@ 150
ņ@@ 150
Φ@@ 150
της 150
ме@@ 150
نا@@ 150
189@@ 149
appe@@ 149
française 149
jeun@@ 149
æ 149
ве@@ 149
не@@ 149
су@@ 149
الع@@ 149
yanay@@ 148
zas 148
ха@@ 148
been 147
quan 147
quel 147
sign@@ 147
title 147
who 147
ζ@@ 147
Бо@@ 147
ев@@ 147
National@@ 146
a. 146
did 146
idente 146
leo 146
Δ 146
ен@@ 146
то@@ 146
ج 146
Histoire 145
enst 145
τος 145
бо@@ 145
ס@@ 145
Nga 144
anderen 144
bern@@ 144
eñ@@ 144
fall@@ 144
mau@@ 144
produc@@ 144
through 144
ßen 144
Χ@@ 144
άν@@ 144
ρος 144
ку@@ 144
ра 144
acu@@ 143
base 143
coll@@ 143
given 143
nt 143
tent@@ 143
ên 143
ʃ@@ 143
σι@@ 143
187@@ 142
eurs 142
eño 142
identi@@ 142
ihr 142
isation 142
orig@@ 142
possible 142
äng@@ 142
Ку@@ 142
ду@@ 142
آباد 142
هر 142
ativa 141
imbo 141
isches 141
septi@@ 141
tena 141
uten 141
Ο@@ 141
нов 141
ور 141
Santi@@ 140
Universität 140
ει@@ 140
да 140
Հ@@ 140
bere@@ 139
cá@@ 139
otra 139
tains 139
ís@@ 139
ты@@ 139
July 138
esses 138
extr@@ 138
ikia 138
illed 138
inner@@ 138
noch 138
zial@@ 138
ų 138
Γ@@ 138
Ан@@ 138
Ра@@ 138
му@@ 138
ч 138
Constitu@@ 137
ingia 137
order 137
prises 137
reib@@ 137
éch@@ 137
Александ@@ 137
ги@@ 137
≥ 137
Stadt 136
home 136
èse 136
του 136
ев 136
ков 136
ր 136
الله 136
≈ 136
Geg@@ 135
diff@@ 135
äh@@ 135
κ 135
га 135
0s 134
188@@ 134
Famili@@ 134
October 134
waf@@ 134
ück@@ 134
Ρ@@ 134
во 134
վ@@ 134
Mw@@ 133
number 133
É 133
الم@@ 133
enant 132
entos 132
jour 132
played 132
season 132
Ā@@ 132
А 132
ن 132
⟩ 132
Hindi 131
Pour 131
Provin@@ 131
ibu 131
ücke 131
ки@@ 131
ур@@ 131
ام@@ 131
ري@@ 131
イ@@ 131
Region 130
anno@@ 130
chini 130
deutsche 130
former 130
teilung 130
versit@@ 130
Ğ 130
Auf@@ 129
before 129
ufu 129
ラ@@ 129
Phi 128
President 128
aciones 128
atique 128
dial 128
histor@@ 128
libre 128
Алек@@ 128
ски 128
ور@@ 128
ecke 127
pose 127
сы@@ 127
ル@@ 127
Argentina 126
adop@@ 126
elten 126
japon@@ 126
obra 126
qu 126
toda 126
wir@@ 126
yana@@ 126
Ș@@ 126
αλ@@ 126
гу@@ 126
п 126
ورة 126
November 125
Une 125
risto 125
sé@@ 125
ulation 125
chev@@ 124
essor 124
iev@@ 124
isión 124
stitu@@ 124
una@@ 124
º 124
Во@@ 124
ای@@ 124
⟨ 124
Guin@@ 123
alled 123
brach@@ 123
bres 123
high 123
some 123
three 123
tly 123
ин@@ 123
الح@@ 123
عبد 123
ول@@ 123
January 122
ichte 122
riff 122
social 122
vu 122
ια 122
ер@@ 122
сь@@ 122
الش@@ 122
中@@ 122
Vier@@ 121
khi 121
philos@@ 121
school 121
when 121
ль 121
ט@@ 121
اس@@ 121
homme 120
lement 120
lui 120
ngh@@ 120
radio 120
resul@@ 120
ů@@ 120
̇ 120
ικ@@ 120
па@@ 120
գ@@ 120
Este 119
eso 119
orden@@ 119
oren 119
ße 119
Рес@@ 119
лы 119
лы@@ 119
си@@ 119
сть 119
че@@ 119
او@@ 119
ون 119
actor 118
istes 118
tent 118
tribu@@ 118
ême 118
во@@ 118
ды@@ 118
Kig@@ 117
mf@@ 117
αρ@@ 117
ры@@ 117
ス@@ 117
Nh@@ 116
aifa 116
ellas 116
featur@@ 116
guit@@ 116
hadi 116
ific@@ 116
monde 116
ät 116
úa 116
έ@@ 116
те@@ 116
Arbeit@@ 115
Naili 115
ambu@@ 115
nou@@ 115
äf@@ 115
ŋ 115
Та@@ 115
publ@@ 114
such 114
sud 114
techn@@ 114
ète 114
Β@@ 114
По@@ 114
са 114
ғ@@ 114
լ@@ 114
ذ@@ 114
aires 113
audi@@ 113
bang 113
cao 113
nomin@@ 113
éta@@ 113
Ва@@ 113
Canton 112
aison 112
alik@@ 112
angu 112
artic@@ 112
chs 112
ectiv@@ 112
gew@@ 112
incia 112
lung 112
ň@@ 112
ŭ@@ 112
Мо@@ 112
не 112
Stadt@@ 111
aissance 111
chang@@ 111
each 111
kuf@@ 111
main@@ 111
there 111
ή@@ 111
ζ 111
το@@ 111
но 111
ча@@ 111
لا@@ 111
مان 111
می@@ 111
ἀ@@ 111
⁄ 111
← 111
bind@@ 110
bora 110
indic@@ 110
vili@@ 110
οι 110
та 110
Estado 109
auch 109
ongo@@ 109
plu@@ 109
positi@@ 109
schaf@@ 109
using 109
ав@@ 109
ю@@ 109
ー 109
民@@ 109
México 108
Par 108
Zeit 108
based 108
ending 108
made 108
rég@@ 108
seur 108
tant 108
xu@@ 108
ě 108
лу@@ 108
ֵ@@ 108
Distribu@@ 107
September 107
mash@@ 107
neu@@ 107
ously 107
ɾ@@ 107
ֶ@@ 107
بر@@ 107
└ 107
リ@@ 107
子 107
aband@@ 106
cription 106
kua 106
ngu@@ 106
offici@@ 106
ograp@@ 106
tex@@ 106
Å 106
ǔ@@ 106
αυ@@ 106
ελ@@ 106
За@@ 106
Ю@@ 106
թ@@ 106
հ@@ 106
ح 106
№ 106
Landes@@ 105
estos 105
four@@ 105
imani 105
level 105
lieg@@ 105
meng@@ 105
take 105
tech@@ 105
wur@@ 105
ǔ 105
ше@@ 105
ң@@ 105
ұ@@ 105
א 105
أبو 105
ف 105
் 105
ッ@@ 105
山 105
auen 104
contempor@@ 104
emas 104
ered 104
ewa 104
lage 104
some@@ 104
temps 104
unas 104
ού@@ 104
за 104
乡 104
February 103
clo@@ 103
leich@@ 103
Қ@@ 103
צ@@ 103
া@@ 103
Nguy@@ 102
emu 102
hasa 102
onge@@ 102
restaur@@ 102
rière 102
scor@@ 102
sich@@ 102
utsch@@ 102
και 102
λε@@ 102
ки 102
сель@@ 102
Francia 101
Mei 101
Mittel@@ 101
ativo 101
enzi 101
tés 101
wach@@ 101
ús@@ 101
Ар@@ 101
ска 101
чи@@ 101
اش@@ 101
الق@@ 101
activ@@ 100
explo@@ 100
ised 100
äch@@ 100
ʼ 100
ξ@@ 100
Ру@@ 100
То@@ 100
жа@@ 100
хо@@ 100
إ@@ 100
َ 100
་ 100
∈ 100
clus@@ 99
second 99
service 99
universit@@ 99
what 99
ου@@ 99
Ха@@ 99
ц 99
ئ@@ 99
新@@ 99
Gesch@@ 98
Platz 98
Zentr@@ 98
karne 98
roi 98
ubic@@ 98
日@@ 98
Pub@@ 97
cens@@ 97
exp@@ 97
figur@@ 97
jour@@ 97
ρο@@ 97
Ал@@ 97
ти 97
ղ@@ 97
ア@@ 97
ク@@ 97
avant 96
docum@@ 96
expres@@ 96
held 96
inco 96
nach@@ 96
teil 96
âce 96
ête 96
ǐ@@ 96
В 96
Ви@@ 96
Влади@@ 96
Пет@@ 96
ров 96
ров@@ 96
ск@@ 96
ст@@ 96
Conse@@ 95
Staats@@ 95
aged 95
fond@@ 95
lado 95
èg@@ 95
ερ@@ 95
ρα@@ 95
ψ 95
пе@@ 95
Distr@@ 94
Kif@@ 94
Lebens@@ 94
adores 94
control 94
days 94
orden 94
quali@@ 94
Ó 94
über 94
С 94
Մ@@ 94
ז@@ 94
マ@@ 94
Adem@@ 93
during 93
released 93
schrift 93
would 93
͡ 93
ба 93
ли 93
شا@@ 93
ين 93
ῖ@@ 93
` 92
clu@@ 92
entro 92
khi@@ 92
original 92
tish@@ 92
élé@@ 92
αγ@@ 92
κα@@ 92
ан 92
ний 92
цы 92
بي@@ 92
ع 92
ھ@@ 92
ト@@ 92
東@@ 92
chter 91
deutscher 91
icht@@ 91
quier 91
unci@@ 91
ét 91
ων@@ 91
ту@@ 91
ال 91
天@@ 91
김@@ 91
Califor@@ 90
class@@ 90
comple@@ 90
deutsch@@ 90
ispi@@ 90
jah@@ 90
language 90
trou@@ 90
ún@@ 90
Да@@ 90
ма 90
ша@@ 90
ң 90
ـ@@ 90
ما@@ 90
ند@@ 90
differ@@ 89
loi 89
msh@@ 89
né 89
without 89
ź@@ 89
ον@@ 89
Се@@ 89
ге@@ 89
ди 89
ник 89
ны@@ 89
пу@@ 89
مو@@ 89
classi@@ 88
ently 88
faire 88
following 88
ict 88
make 88
né@@ 88
temper@@ 88
went 88
éré 88
ομ@@ 88
τι@@ 88
обще@@ 88
сто@@ 88
ِ 88
ک 88
ḫ@@ 88
モ@@ 88
本@@ 88
镇 88
Leben 87
Mär@@ 87
Tod 87
coul@@ 87
ided 87
schluss 87
still 87
tiki 87
wake 87
§ 87
Θ@@ 87
О 87
зы@@ 87
нов@@ 87
archit@@ 86
ateur 86
huri 86
mundo 86
sort 86
sous 86
territ@@ 86
tige 86
weit@@ 86
ισ@@ 86
ώ@@ 86
мир 86
ца 86
ци@@ 86
≠ 86
├ 86
avec 85
einen 85
erste 85
ʒ@@ 85
Го@@ 85
ста@@ 85
ד 85
الدين 85
در@@ 85
imu 84
kirche 84
million 84
poin@@ 84
ατ@@ 84
ке@@ 84
ׁ@@ 84
لي@@ 84
abaj@@ 83
anh 83
culp@@ 83
ehen 83
inclu@@ 83
public@@ 83
tries 83
ħ@@ 83
Те@@ 83
مه@@ 83
ܝ@@ 83
阿@@ 83
Campeonato 82
Mitte 82
Zu 82
cula 82
history 82
idadi 82
information 82
local 82
pain@@ 82
reste 82
Ј@@ 82
Га@@ 82
Ре@@ 82
кий 82
դ@@ 82
بن@@ 82
من@@ 82
وال@@ 82
ية 82
ۇ@@ 82
‐ 82
사@@ 82
ained 81
among 81
eln 81
enso 81
found 81
international 81
linois 81
six 81
temp@@ 81
État 81
τα 81
ши@@ 81
َّ@@ 81
‏ 81
可@@ 81
山@@ 81
allem@@ 80
gek@@ 80
jap@@ 80
just 80
near 80
novel@@ 80
speci@@ 80
west@@ 80
À 80
ƒ 80
Ту@@ 80
б 80
ни 80
сы 80
ха 80
Ս@@ 80
غ 80
ἐ@@ 80
ὐ@@ 80
‑ 80
フ@@ 80
awa@@ 79
banda 79
casa 79
condi@@ 79
football 79
present 79
said 79
statt 79
áng 79
ération 79
ą 79
να 79
К 79
Су@@ 79
ак@@ 79
ث@@ 79
ض@@ 79
ّ@@ 79
민@@ 79
baada 78
cual 78
ickl@@ 78
ión 78
studi@@ 78
Â 78
äus@@ 78
ɡ@@ 78
ʁ@@ 78
αι@@ 78
μα 78
Е 78
Но@@ 78
У 78
зи@@ 78
զ@@ 78
وا@@ 78
Bei 77
Geschichte 77
Nguyễn 77
Straße 77
century 77
estas 77
util@@ 77
¡ 77
ütz@@ 77
άκ@@ 77
ασ@@ 77
μα@@ 77
ξ 77
И 77
Па@@ 77
ит@@ 77
мар@@ 77
он@@ 77
ḳ@@ 77
™ 77
República 76
Woh@@ 76
aliste 76
between 76
bán 76
present@@ 76
respon@@ 76
short 76
vom 76
До@@ 76
Ива@@ 76
Ки@@ 76
рий 76
ск 76
ю 76
الج@@ 76
الس@@ 76
مر@@ 76
ون@@ 76
يد 76
三@@ 76
國@@ 76
cion@@ 75
clos@@ 75
curr@@ 75
formed 75
schw@@ 75
ακ@@ 75
εν@@ 75
όν@@ 75
Ме@@ 75
Ро@@ 75
تر@@ 75
្ 75
☉ 75
国@@ 75
Ce 74
Flug@@ 74
insi 74
kung 74
lead@@ 74
office 74
riere 74
tout 74
tribut@@ 74
êt 74
να@@ 74
ге 74
гор@@ 74
лов@@ 74
շ@@ 74
الك@@ 74
مي@@ 74
ْ 74
ệm 74
海@@ 74
Feb@@ 73
Für 73
autom@@ 73
design 73
dân 73
issu@@ 73
march@@ 73
these 73
ę 73
Α 73
Му@@ 73
ад@@ 73
об@@ 73
пор@@ 73
բ@@ 73
ست@@ 73
من 73
♯ 73
于 73
한@@ 73
Frau 72
Mit 72
bish@@ 72
ecto 72
grou@@ 72
imeh@@ 72
pré@@ 72
tee 72
ĝ@@ 72
ʊ@@ 72
̂ 72
̃ 72
ευ@@ 72
θε@@ 72
ρί@@ 72
το 72
Ни@@ 72
нова 72
обла@@ 72
сла@@ 72
ї@@ 72
الأ@@ 72
ط 72
مح@@ 72
ود 72
ル 72
县 72
Lehr@@ 71
Welt@@ 71
event 71
journ@@ 71
relati@@ 71
wani 71
ˌ@@ 71
ρά@@ 71
Нико@@ 71
си 71
ф 71
北@@ 71
汗 71
compl@@ 70
foc@@ 70
schi@@ 70
vile 70
¹ 70
óm@@ 70
̡ 70
Γ 70
τα@@ 70
Миха@@ 70
Не@@ 70
ри 70
ция 70
ք 70
سی@@ 70
シ@@ 70
ジ@@ 70
ド@@ 70
克@@ 70
being 69
ehe 69
geg@@ 69
high@@ 69
icha 69
isho 69
là 69
ào 69
édi@@ 69
ί 69
ля@@ 69
ס 69
اد 69
علي 69
ნ 69
ロ@@ 69
五@@ 69
contribut@@ 68
igt 68
qué 68
étr@@ 68
ʲ@@ 68
ά 68
ις 68
Ла@@ 68
вет@@ 68
мы@@ 68
ос@@ 68
ро 68
أحمد 68
في 68
ῦ@@ 68
レ@@ 68
스@@ 68
both 67
conf@@ 67
gemein@@ 67
génér@@ 67
lieu 67
menos 67
nation@@ 67
rue 67
Ñ@@ 67
ói 67
ɑ 67
Ά@@ 67
Γι@@ 67
Υ@@ 67
λι@@ 67
ψ@@ 67
Де@@ 67
Серге@@ 67
Си@@ 67
лов 67
мен@@ 67
قل@@ 67
لو@@ 67
် 67
인@@ 67
Bình 66
appro@@ 66
econom@@ 66
fonc@@ 66
fé@@ 66
herr@@ 66
istas 66
ogle 66
typ@@ 66
village 66
Мар@@ 66
Я 66
ло 66
ско 66
ты 66
Գ@@ 66
պ@@ 66
زي@@ 66
ス 66
單@@ 66
縣 66
高@@ 66
Fuß@@ 65
Haup@@ 65
building 65
continu@@ 65
cost@@ 65
dici@@ 65
grab@@ 65
histoire 65
idence 65
ived 65
large 65
nouveau 65
pata 65
ǐ 65
ɛ 65
λλ@@ 65
хи@@ 65
ա 65
خ 65
ܐ 65
대@@ 65
Bürger@@ 64
comb@@ 64
fico 64
numer@@ 64
umani 64
µ 64
Û@@ 64
δι@@ 64
Бу@@ 64
Васи@@ 64
бу@@ 64
дар@@ 64
ние 64
ные 64
ские 64
қ 64
الص@@ 64
دی@@ 64
ῆ@@ 64
バ@@ 64
市 64
金@@ 64
Indonesia 63
capit@@ 63
carr@@ 63
ciones 63
conc@@ 63
course 63
princip@@ 63
those 63
tour 63
written 63
years 63
Ø 63
̅ 63
άρ@@ 63
ιν@@ 63
Ша@@ 63
ны 63
он 63
ре 63
ב 63
اب 63
است@@ 63
سر@@ 63
شت 63
وي@@ 63
ᴀ 63
⋅ 63
タ@@ 63
아@@ 63
Lan 62
adhi 62
against 62
alien 62
bier@@ 62
conten@@ 62
develop@@ 62
eines 62
fils 62
ités 62
recog@@ 62
schaften 62
suff@@ 62
zeit 62
át 62
Θε@@ 62
дж@@ 62
род@@ 62
ша 62
կ 62
، 62
الب@@ 62
لا 62
南@@ 62
Wasser@@ 61
ased 61
famili@@ 61
fica 61
schafts@@ 61
signed 61
wala 61
¨ 61
ман 61
سع@@ 61
ُ 61
カ@@ 61
Barcel@@ 60
Deutschen 60
ations@@ 60
forc@@ 60
premier 60
verw@@ 60
ác 60
ähr@@ 60
ľ@@ 60
Η@@ 60
νης 60
بی@@ 60
ܘ@@ 60
♭ 60
Wirt@@ 59
beau@@ 59
chap@@ 59
crit@@ 59
deven@@ 59
elected 59
half 59
ically 59
kuh@@ 59
next 59
partic@@ 59
prac@@ 59
ài 59
ÿ@@ 59
ʙ 59
ʰ@@ 59
Φ 59
ίν@@ 59
αμ@@ 59
ορ@@ 59
σκ@@ 59
І@@ 59
али@@ 59
зо@@ 59
الن@@ 59
سي@@ 59
نج@@ 59
ین 59
ὁ 59
≡ 59
ィ@@ 59
神@@ 59
정@@ 59
compos@@ 58
division 58
ennen 58
family 58
gé@@ 58
ingine 58
osas 58
tores 58
ρα 58
СССР 58
лъ@@ 58
пи@@ 58
се 58
ք@@ 58
از@@ 58
به@@ 58
مش@@ 58
ᐊ@@ 58
ḥ 58
‰ 58
小@@ 58
auspi@@ 57
buil@@ 57
erne@@ 57
lesia 57
nicht 57
nord@@ 57
separ@@ 57
ám 57
ļ@@ 57
ʃ 57
ική 57
же@@ 57
публика 57
الف@@ 57
دي@@ 57
مع@@ 57
ḗ@@ 57
지@@ 57
Eine 56
scheid@@ 56
sexu@@ 56
tér@@ 56
univers@@ 56
wissen@@ 56
zwe@@ 56
études 56
Ω@@ 56
των 56
Кар@@ 56
Ор@@ 56
бы@@ 56
район 56
њ@@ 56
رة 56
عل@@ 56
وب@@ 56
√ 56
ト 56
会@@ 56
太@@ 56
西@@ 56
Entw@@ 55
around 55
ests 55
retir@@ 55
though 55
zh 55
¿ 55
À@@ 55
ôn 55
ίδ@@ 55
μέ@@ 55
ολ@@ 55
Сер@@ 55
Сте@@ 55
ет 55
ж 55
лу 55
сти@@ 55
الد@@ 55
نا 55
ير 55
ῶ@@ 55
ⴰ@@ 55
ウ@@ 55
武@@ 55
리 55
의 55
이 55
조@@ 55
early 54
entre 54
envir@@ 54
fici@@ 54
français 54
imiento 54
innen 54
kwa 54
lanz@@ 54
nhi@@ 54
produ@@ 54
tainment 54
vai 54
äu@@ 54
ķ@@ 54
ţ 54
Ζ@@ 54
άλ@@ 54
Пе@@ 54
зе@@ 54
الخ@@ 54
دا@@ 54
和@@ 54
anyika 53
appear@@ 53
chte 53
company 53
département 53
energ@@ 53
kea 53
licher 53
nung 53
particip@@ 53
sett@@ 53
Über@@ 53
đ 53
М 53
Ти@@ 53
ков@@ 53
лю@@ 53
اف@@ 53
وی@@ 53
兵@@ 53
李@@ 53
生@@ 53
自@@ 53
caus@@ 52
charac@@ 52
dado 52
deu@@ 52
echo 52
einem 52
isons 52
leurs 52
osto 52
tradi@@ 52
zeug@@ 52
éti@@ 52
έν@@ 52
ής 52
Ста@@ 52
Ча@@ 52
зы 52
ное 52
стан 52
сь 52
ו 52
بو@@ 52
جو@@ 52
دي 52
مل@@ 52
რ 52
∥ 52
コ@@ 52
田 52
amente 51
associ@@ 51
competi@@ 51
exper@@ 51
five 51
gique 51
hier 51
inici@@ 51
lichen 51
sociation 51
sân 51
unden 51
ède 51
öster@@ 51
úl@@ 51
ǒ@@ 51
ț 51
ȟ@@ 51
άσ@@ 51
ίας 51
πο@@ 51
Би@@ 51
ед@@ 51
ми 51
слав 51
Ә@@ 51
ս 51
ات@@ 51
سل@@ 51
فر@@ 51
كي@@ 51
يا 51
کو@@ 51
፡ 51
ブ@@ 51
島 51
afu 50
appar@@ 50
could 50
edrich 50
mpi@@ 50
muj@@ 50
party 50
third 50
ες 50
ώργ@@ 50
Ад@@ 50
Об@@ 50
лий 50
миро@@ 50
про@@ 50
рина 50
тина 50
эк@@ 50
اس 50
ام 50
انی 50
حي@@ 50
شی@@ 50
قر@@ 50
وم@@ 50
治@@ 50
社@@ 50
리@@ 50
스 50
Kristo 49
actu@@ 49
again 49
construc@@ 49
deux 49
dung 49
election 49
eneo 49
fest@@ 49
jaw@@ 49
novi@@ 49
points 49
quay 49
ticos 49
toire 49
öch@@ 49
ünst@@ 49
ħ 49
ż 49
̌ 49
αν 49
οφ@@ 49
τρ@@ 49
υπ@@ 49
Ду@@ 49
аль@@ 49
ле 49
льный 49
ной 49
публи@@ 49
ской 49
ў@@ 49
ә 49
ע 49
ק 49
ات 49
الت@@ 49
دان 49
دو@@ 49
سن@@ 49
مَ@@ 49
ា@@ 49
式@@ 49
Engl@@ 48
ately 48
ateurs 48
años 48
equi@@ 48
huy 48
ieder 48
ographie 48
requ@@ 48
él 48
être 48
ű@@ 48
ǎ 48
ʔ@@ 48
̀ 48
΄ 48
Η 48
άς 48
έρ@@ 48
ην 48
Николай 48
ева 48
от@@ 48
һ@@ 48
Կ@@ 48
بي 48
وس@@ 48
ين@@ 48
یا 48
ۍ 48
キ@@ 48
一@@ 48
人@@ 48
特@@ 48
development 47
making 47
member 47
oría 47
prec@@ 47
record 47
resid@@ 47
since 47
đi@@ 47
νη 47
σα 47
ата@@ 47
вер@@ 47
ви 47
мит@@ 47
ст 47
хан 47
جان 47
جب@@ 47
خان 47
در 47
مه 47
ند 47
ول 47
ḍ@@ 47
ャ@@ 47
郎 47
국 47
국@@ 47
동@@ 47
주@@ 47
Auf 46
Unternehmen 46
ammen 46
comun@@ 46
ellos 46
films 46
haa 46
hili 46
ient 46
national@@ 46
nú@@ 46
television 46
teurs 46
tigen 46
trag 46
änd@@ 46
απ@@ 46
ει 46
εύ@@ 46
ργ@@ 46
ό 46
Гри@@ 46
Кара@@ 46
При@@ 46
Росси@@ 46
Укра@@ 46
Че@@ 46
Ы@@ 46
авто@@ 46
ги 46
ем@@ 46
жи@@ 46
из@@ 46
љ@@ 46
ӧ@@ 46
‍ 46
サ@@ 46
ニ@@ 46
古@@ 46
建@@ 46
月@@ 46
王@@ 46
Minister@@ 45
Thanh 45
ached 45
allow@@ 45
atta@@ 45
carri@@ 45
celle 45
commer@@ 45
industri@@ 45
iques 45
production 45
propri@@ 45
scienti@@ 45
sich 45
tionn@@ 45
unos 45
who@@ 45
¥ 45
Ê@@ 45
ái 45
érieur 45
óg@@ 45
Ελλην@@ 45
Ν 45
ην@@ 45
ως 45
όν 45
Ве@@ 45
Вла@@ 45
Констан@@ 45
лен@@ 45
ры 45
фи@@ 45
ү 45
اء 45
اج@@ 45
اق@@ 45
اك@@ 45
اي@@ 45
وا 45
کر@@ 45
ܪ@@ 45
ா@@ 45
រ@@ 45
ἄ@@ 45
か@@ 45
デ@@ 45
伊@@ 45
史@@ 45
木@@ 45
那@@ 45
소@@ 45
～ 45
Allem@@ 44
Ngo@@ 44
Sept@@ 44
Việt 44
bien 44
concer@@ 44
hoa 44
huyện 44
invol@@ 44
lege 44
ouver@@ 44
species 44
studio 44
tous 44
until 44
zentr@@ 44
öff@@ 44
ř 44
Ț@@ 44
ʿ 44
ιος 44
Д 44
ния 44
от 44
ун@@ 44
ут@@ 44
ча 44
чу@@ 44
шка 44
щи@@ 44
Ө@@ 44
մ 44
اه@@ 44
تا@@ 44
رب@@ 44
يم 44
্ 44
田@@ 44
道 44
하@@ 44
Kati 43
different 43
expl@@ 43
including 43
quot@@ 43
thuộc 43
thành 43
wap@@ 43
wech@@ 43
équ@@ 43
Š 43
̈ 43
εις 43
κλ@@ 43
λα@@ 43
σσ@@ 43
τερ@@ 43
τες 43
вет 43
па 43
ран@@ 43
ского 43
те 43
то 43
щ 43
ց@@ 43
ابن 43
ران 43
ض 43
لی 43
وم 43
پی@@ 43
گا@@ 43
් 43
パ@@ 43
主@@ 43
軍@@ 43
라@@ 43
Gruppe 42
Sơn 42
absol@@ 42
ingt 42
phố 42
trực 42
tỉnh 42
waka 42
within 42
women 42
zeu@@ 42
õ 42
ɒ@@ 42
Παν@@ 42
εκ@@ 42
τον 42
Андре@@ 42
Ев@@ 42
Т 42
ве 42
го 42
ды 42
ман@@ 42
нови@@ 42
чи 42
بل@@ 42
لل@@ 42
لَ@@ 42
مة 42
مد@@ 42
ব@@ 42
ி@@ 42
ᐃ@@ 42
Ἐ@@ 42
‡ 42
中国@@ 42
人 42
子@@ 42
尔@@ 42
文@@ 42
疆@@ 42
전@@ 42
트 42
Proz@@ 41
ajes 41
atives 41
compar@@ 41
conver@@ 41
defe@@ 41
died 41
duy 41
empl@@ 41
huo 41
included 41
provid@@ 41
race 41
reduc@@ 41
simil@@ 41
sind 41
tä@@ 41
ände 41
ť@@ 41
ɔ 41
ɣ@@ 41
ɪ 41
̯ 41
Κα@@ 41
Ο 41
εια 41
εν 41
με@@ 41
μος 41
μπ@@ 41
τη 41
όβ@@ 41
ών 41
Гор@@ 41
Никола@@ 41
Пре@@ 41
Ю 41
доро@@ 41
ке 41
ска@@ 41
ья 41
ян@@ 41
ө 41
الر@@ 41
عة 41
علی 41
لی@@ 41
نو@@ 41
يخ 41
க@@ 41
Ḫ@@ 41
エ@@ 41
ガ@@ 41
ソ@@ 41
ド 41
川 41
株@@ 41
白@@ 41
기 41
다 41
선@@ 41
Guerre 40
Kön@@ 40
arse 40
called 40
combin@@ 40
community 40
dies@@ 40
ganda 40
greso 40
grund 40
ouvern@@ 40
represent@@ 40
took 40
ually 40
¼ 40
Ľ@@ 40
˚ 40
Αν@@ 40
Ι 40
ίκ@@ 40
οδ@@ 40
χ 40
Вели@@ 40
З 40
России 40
ет@@ 40
кин 40
ля 40
ного 40
Ե@@ 40
ּ 40
ث 40
سو@@ 40
عبد@@ 40
محافظة 40
مس@@ 40
ા@@ 40
國 40
신@@ 40
자 40
Grenz@@ 39
Sein 39
alipo@@ 39
became 39
champi@@ 39
deut@@ 39
durch 39
fand 39
members 39
minut@@ 39
observ@@ 39
often 39
ortho@@ 39
recher@@ 39
relig@@ 39
zeit@@ 39
àng 39
Ε 39
δρ@@ 39
ικό 39
τη@@ 39
Ай@@ 39
Михаил 39
Х 39
ем 39
йский 39
ктор 39
лек@@ 39
лин@@ 39
фа@@ 39
ху@@ 39
це@@ 39
Վ@@ 39
تو 39
حسن 39
ری@@ 39
لي 39
می 39
ܕ@@ 39
ṇ@@ 39
グ@@ 39
上@@ 39
八@@ 39
公@@ 39
居 39
우@@ 39
Bere@@ 38
Forsch@@ 38
Verein 38
Verein@@ 38
another 38
assist@@ 38
año 38
director 38
disput@@ 38
dose 38
drit@@ 38
follow@@ 38
gab 38
instrum@@ 38
kila 38
onales 38
partement 38
polic@@ 38
wanza 38
with@@ 38
ämp@@ 38
Đồng 38
Ē@@ 38
ġ 38
ǧ@@ 38
Υ 38
θη@@ 38
ικός 38
λος 38
ους 38
πος 38
Г 38
Тур@@ 38
льная 38
по 38
рен@@ 38
ских 38
стиче@@ 38
الإ@@ 38
ایران 38
دة 38
ده 38
رب 38
في@@ 38
ولا@@ 38
ير@@ 38
್ 38
ᖅ 38
オ@@ 38
十@@ 38
学@@ 38
家@@ 38
平@@ 38
華@@ 38
隊 38
기@@ 38
﻿ 38
Als 37
alité 37
announced 37
bila 37
chef 37
concep@@ 37
conqu@@ 37
dows 37
emble 37
introduc@@ 37
jeres 37
much 37
propor@@ 37
sehen 37
thu 37
zeich@@ 37
¢ 37
áo 37
Ħ@@ 37
ɐ 37
ɕ@@ 37
Δι@@ 37
Μαρ@@ 37
ανδ@@ 37
γι@@ 37
προ@@ 37
στο@@ 37
τά@@ 37
όλ@@ 37
Ком@@ 37
Про@@ 37
Ф 37
вя@@ 37
мя@@ 37
ну@@ 37
ок@@ 37
рия 37
ян 37
ֲ@@ 37
بر 37
سلطان 37
وسف 37
وق@@ 37
يل 37
ۆ@@ 37
ảng 37
ἰ@@ 37
い 37
な@@ 37
之@@ 37
京@@ 37
地@@ 37
安@@ 37
박@@ 37
수@@ 37
최@@ 37
According 36
Jahr@@ 36
alista 36
altung 36
arbeit@@ 36
excep@@ 36
games 36
pays 36
period 36
puis 36
punto 36
schaft@@ 36
tiem@@ 36
º@@ 36
ɐ@@ 36
̨ 36
Νικ@@ 36
Ψ 36
αδ@@ 36
θος 36
οπ@@ 36
Н 36
Р 36
Хо@@ 36
Чер@@ 36
ато@@ 36
йн 36
народ@@ 36
стро@@ 36
тин 36
اط@@ 36
خی@@ 36
ري 36
ص 36
نی 36
وج@@ 36
وی 36
گ 36
Ḳ@@ 36
ṣ 36
ἔ@@ 36
› 36
∂ 36
テ@@ 36
斯@@ 36
正@@ 36
나@@ 36
에@@ 36
Nigeria 35
Teil@@ 35
azini 35
beit 35
conv@@ 35
deutschen 35
district 35
ecu@@ 35
kuj@@ 35
peu 35
population 35
previ@@ 35
provin@@ 35
province 35
só@@ 35
titre 35
ÿ 35
đa 35
ť 35
ιχ@@ 35
μεν@@ 35
Македо@@ 35
тан@@ 35
тур@@ 35
ёт@@ 35
ռ@@ 35
دی 35
ری 35
زی@@ 35
سين 35
كة 35
مص@@ 35
مي 35
ّ 35
ۀ 35
ܡ@@ 35
ি@@ 35
Ἰ@@ 35
⊙ 35
チ@@ 35
島@@ 35
拟@@ 35
有@@ 35
石@@ 35
Quốc 34
ases@@ 34
donn@@ 34
ería 34
fait 34
few 34
franc@@ 34
frances@@ 34
kazi 34
keit 34
khu 34
letz@@ 34
ológ@@ 34
published 34
received 34
seinen 34
tions@@ 34
verk@@ 34
ños 34
ĭ@@ 34
į@@ 34
ɨ@@ 34
ˁ@@ 34
Θ 34
Κύ@@ 34
Λ 34
άδ@@ 34
εί@@ 34
κο@@ 34
υλ@@ 34
Авто@@ 34
Б 34
Ге@@ 34
Й 34
Кур@@ 34
П 34
дан@@ 34
ду 34
зер@@ 34
им@@ 34
мия 34
окру@@ 34
пар@@ 34
пол@@ 34
тар@@ 34
эн@@ 34
ש 34
ائ@@ 34
الط@@ 34
اني 34
خر@@ 34
زر@@ 34
صر 34
ظ@@ 34
نی@@ 34
ަ@@ 34
ლ 34
ḵ@@ 34
ὶ 34
₂ 34
い@@ 34
も@@ 34
人民@@ 34
烏@@ 34
野@@ 34
공@@ 34
로@@ 34
미@@ 34
Ende 33
Hoa 33
Verw@@ 33
administr@@ 33
aría 33
eht 33
erung 33
exist@@ 33
guerra 33
haup@@ 33
koa 33
larg@@ 33
mita 33
origin@@ 33
placed 33
police 33
popular 33
remain@@ 33
serie 33
signific@@ 33
tische 33
 33
États 33
èmes 33
út 33
Ġ@@ 33
Ī@@ 33
ŭ 33
Δημ@@ 33
Παπ@@ 33
Φιλ@@ 33
έλ@@ 33
δε@@ 33
τε@@ 33
υμ@@ 33
рай@@ 33
тов 33
ци 33
чен@@ 33
чер@@ 33
язы@@ 33
آل 33
از 33
الز@@ 33
مُ@@ 33
پر@@ 33
ڭ 33
گر@@ 33
ܐ@@ 33
ܬ@@ 33
र 33
ን@@ 33
ん 33
ナ@@ 33
ミ@@ 33
沙@@ 33
清@@ 33
虚@@ 33
語 33
陸@@ 33
가@@ 33
그@@ 33
당 33
보@@ 33
성@@ 33
아 33
원@@ 33
－ 33
Anf@@ 32
Gemein@@ 32
Hà 32
along 32
cier@@ 32
design@@ 32
dió 32
dont 32
encore 32
exten@@ 32
incre@@ 32
inten@@ 32
mej@@ 32
munici@@ 32
wich@@ 32
zug@@ 32
Ý@@ 32
était 32
óng 32
ĕ@@ 32
ɾ 32
ʉ@@ 32
Αγ@@ 32
Κωνσταντ@@ 32
αί@@ 32
τολ@@ 32
ώ 32
Геор@@ 32
Ин@@ 32
Ке@@ 32
ССР 32
дан 32
др 32
жи 32
кон@@ 32
ско@@ 32
Բ@@ 32
ח 32
ך 32
آخ@@ 32
المن@@ 32
دار@@ 32
قي@@ 32
كو@@ 32
لان 32
مان@@ 32
یت 32
़ 32
র@@ 32
ી 32
ர@@ 32
ር@@ 32
ḳ 32
Ḵ@@ 32
ḷ@@ 32
∇ 32
区 32
城 32
河 32
社 32
都@@ 32
韓@@ 32
라 32
유@@ 32
Hòa 31
categ@@ 31
central 31
consist@@ 31
escu@@ 31
fang@@ 31
gegen 31
guerre 31
ieron 31
liko 31
linal@@ 31
nh 31
octu@@ 31
pour@@ 31
soit 31
south 31
uwe@@ 31
ʷ@@ 31
κά@@ 31
πι@@ 31
τί@@ 31
τυ@@ 31
τω 31
υσ@@ 31
όπουλ@@ 31
Бал@@ 31
Все@@ 31
Л 31
Сою@@ 31
Ь 31
ван 31
ган@@ 31
де 31
ден 31
ку 31
нин@@ 31
ных 31
ря@@ 31
ть 31
це 31
Պ@@ 31
ך@@ 31
اخ@@ 31
اپ@@ 31
به 31
خو@@ 31
دار 31
قو@@ 31
كر@@ 31
مار@@ 31
া 31
ક@@ 31
ப@@ 31
თ 31
ế 31
ℳ 31
♦ 31
ュ@@ 31
党 31
利@@ 31
回@@ 31
日 31
松@@ 31
鳥 31
黄@@ 31
원 31
Nha 30
arded 30
candid@@ 30
conserv@@ 30
déc@@ 30
ectu@@ 30
franç@@ 30
independ@@ 30
juli@@ 30
mais 30
origine 30
support 30
wao 30
waz@@ 30
xã 30
Õ@@ 30
ísticas 30
ít 30
út@@ 30
ĩnh 30
ǫ 30
ʔ 30
̗ 30
κύ@@ 30
λέ@@ 30
μβ@@ 30
παρ@@ 30
πλ@@ 30
πολι@@ 30
πρ@@ 30
σία 30
τσ@@ 30
Лу@@ 30
Моск@@ 30
Шу@@ 30
бра@@ 30
вая 30
вы@@ 30
ген@@ 30
до 30
кова 30
ком@@ 30
лё@@ 30
нин 30
ница 30
публики 30
рав@@ 30
ћ@@ 30
ҡ@@ 30
Ү@@ 30
Ն@@ 30
Շ@@ 30
Տ@@ 30
اق 30
بد@@ 30
برا@@ 30
تو@@ 30
تون@@ 30
خان@@ 30
سف@@ 30
شر@@ 30
فر 30
لة 30
مر 30
نگ@@ 30
ها 30
وَ@@ 30
چ 30
ܢ@@ 30
އ@@ 30
ম@@ 30
ু@@ 30
ம@@ 30
์ 30
Ṣ@@ 30
Ṭ@@ 30
∆ 30
と@@ 30
ク 30
ダ@@ 30
吉@@ 30
川@@ 30
戦@@ 30
族@@ 30
部 30
마@@ 30
시@@ 30
안@@ 30
Anh 29
Bắc 29
However 29
Juli 29
Mundial 29
Nguyên 29
because 29
beit@@ 29
came 29
children 29
como 29
consider@@ 29
cré@@ 29
experi@@ 29
fuat@@ 29
fäl@@ 29
klär@@ 29
mehr 29
north 29
record@@ 29
route 29
sau 29
several 29
stellung 29
thị 29
Í 29
ército 29
÷ 29
Č 29
į 29
˥ 29
Ξ@@ 29
άγ@@ 29
επ@@ 29
οι@@ 29
τέ@@ 29
Ди@@ 29
Кон@@ 29
Крас@@ 29
Чи@@ 29
ате@@ 29
вый 29
гра@@ 29
дин 29
ников 29
ня 29
она@@ 29
ран 29
стан@@ 29
сты@@ 29
фо@@ 29
ции 29
шо@@ 29
չ@@ 29
ץ 29
الل@@ 29
الي@@ 29
بار 29
بار@@ 29
را 29
عه 29
مال 29
وان 29
ولاية 29
र@@ 29
ᐅ@@ 29
ᕐ@@ 29
ស@@ 29
ḏ@@ 29
ḗ 29
ṯ@@ 29
Ἄ@@ 29
イ 29
ョ@@ 29
合@@ 29
女@@ 29
寺 29
後 29
拉@@ 29
校 29
군 29
비@@ 29
여@@ 29
재@@ 29
𐰇@@ 29
Guinea 28
Produk@@ 28
Văn 28
alten 28
cito 28
contra 28
cours 28
droit 28
endant 28
erten 28
langu@@ 28
llev@@ 28
monum@@ 28
occas@@ 28
osos 28
puer@@ 28
religi@@ 28
rement 28
situ@@ 28
suite 28
zili@@ 28
zuri 28
Î 28
ây 28
ông 28
ʊ 28
ʾ 28
Β 28
Παρ@@ 28
Τζ@@ 28
ίου 28
αστ@@ 28
ιστ@@ 28
μαν@@ 28
ξι@@ 28
ογ@@ 28
οκ@@ 28
πα@@ 28
τικός 28
Гу@@ 28
Иван 28
Мак@@ 28
анд@@ 28
бе 28
ву@@ 28
кая 28
кра@@ 28
кто@@ 28
лена 28
мм 28
од@@ 28
стра@@ 28
Լ@@ 28
է@@ 28
ց 28
احمد 28
تور@@ 28
جن@@ 28
رض@@ 28
سان 28
طف@@ 28
فة 28
فی@@ 28
مج@@ 28
وت@@ 28
یر 28
त 28
த@@ 28
ு@@ 28
አ@@ 28
ử 28
ὀ@@ 28
ῦ 28
₩ 28
↔ 28
∧ 28
あ@@ 28
り@@ 28
ェ@@ 28
メ@@ 28
六@@ 28
宗@@ 28
居@@ 28
州 28
徳@@ 28
村 28
法 28
神 28
突@@ 28
經 28
若@@ 28
長@@ 28
지 28
， 28
Mais 27
Meister@@ 27
alre@@ 27
built 27
charg@@ 27
comme 27
const@@ 27
distribu@@ 27
empe@@ 27
fut 27
ghi 27
gradu@@ 27
gén@@ 27
maji 27
military 27
onship 27
seph 27
succ@@ 27
woh@@ 27
zwei 27
Ţ@@ 27
ɲ@@ 27
ʕ@@ 27
Επ@@ 27
Καρ@@ 27
Χρ@@ 27
ηλ@@ 27
ησ@@ 27
ιά 27
κας 27
οσ@@ 27
ρε@@ 27
ρκ@@ 27
ρυ@@ 27
Ри@@ 27
Ше@@ 27
ати@@ 27
бай@@ 27
вин@@ 27
года 27
град 27
дия 27
жа 27
зи 27
зя@@ 27
ите@@ 27
лин 27
нато@@ 27
образ@@ 27
пер@@ 27
рат 27
сп@@ 27
ђ@@ 27
ј 27
Դ@@ 27
ջ@@ 27
փ@@ 27
և@@ 27
باش@@ 27
سي 27
لو 27
مسجد 27
والی 27
وری 27
کی@@ 27
ᑦ 27
ḡ@@ 27
ṓ@@ 27
ṭ 27
₹ 27
↑ 27
⊕ 27
し@@ 27
ま@@ 27
ら@@ 27
不@@ 27
九@@ 27
会 27
元@@ 27
城@@ 27
年@@ 27
方@@ 27
木 27
江@@ 27
法@@ 27
湖 27
王 27
百@@ 27
空@@ 27
英@@ 27
道@@ 27
部@@ 27
長 27
남@@ 27
도@@ 27
사 27
시 27
은 27
ammen@@ 26
become 26
conduc@@ 26
contre 26
declar@@ 26
enfants 26
ensemble 26
etc. 26
incorpor@@ 26
khai 26
marqu@@ 26
material 26
produced 26
proxim@@ 26
père 26
trä@@ 26
¾ 26
Ä 26
Ét@@ 26
ʁ 26
ʒ 26
Π 26
Ψ@@ 26
εία 26
καν@@ 26
μά@@ 26
μι@@ 26
μφ@@ 26
οπο@@ 26
οχ@@ 26
ση 26
τε 26
Ак@@ 26
Пер@@ 26
Пу@@ 26
Ы 26
ара 26
бан@@ 26
государствен@@ 26
дов 26
ек@@ 26
лова 26
мат@@ 26
мов 26
раз@@ 26
сло@@ 26
тро@@ 26
уни@@ 26
ҳ@@ 26
բ 26
տ 26
ז 26
ט 26
ף 26
آب@@ 26
الو@@ 26
دا 26
عث@@ 26
نق@@ 26
نه 26
وار@@ 26
র 26
স@@ 26
። 26
き@@ 26
ケ@@ 26
ビ@@ 26
一 26
四@@ 26
教 26
明@@ 26
馬@@ 26
고@@ 26
바@@ 26
수 26
에 26
연 26
자@@ 26
주 26
화@@ 26
Sohn 25
ationen 25
autre 25
capac@@ 25
clas@@ 25
connu 25
construction 25
cultur@@ 25
có 25
estim@@ 25
familia 25
government 25
gran 25
historia 25
hô@@ 25
important 25
kuli@@ 25
lichkeit 25
mbal@@ 25
präs@@ 25
sont 25
tanto 25
trai 25
trois 25
voll@@ 25
wegen 25
wirt@@ 25
yao 25
ŝ@@ 25
ɕ 25
̆ 25
Μά@@ 25
αβ@@ 25
αθ@@ 25
ετ@@ 25
θέ@@ 25
ιλ@@ 25
λογ@@ 25
μου 25
οί 25
την 25
όπ@@ 25
ών@@ 25
Бер@@ 25
Гра@@ 25
Зе@@ 25
Фе@@ 25
Ц 25
Ч 25
Ш 25
Э 25
вар@@ 25
джа@@ 25
имени 25
каз@@ 25
нь 25
рис 25
рус@@ 25
тя@@ 25
цо@@ 25
խ@@ 25
تم@@ 25
تی@@ 25
سر 25
سی 25
فار@@ 25
مد 25
منطقة 25
ني@@ 25
द 25
प 25
स 25
ল@@ 25
ન@@ 25
่ 25
ᒃ 25
ラ 25
博@@ 25
台@@ 25
團 25
後@@ 25
漢@@ 25
產@@ 25
真@@ 25
草@@ 25
軍 25
通@@ 25
里@@ 25
강@@ 25
대 25
랑 25
선 25
제@@ 25
화 25
𐱅@@ 25
Sie 24
aliza 24
canción 24
europé@@ 24
fér@@ 24
institu@@ 24
joint 24
kundi 24
mehr@@ 24
mise 24
municip@@ 24
nouvelle 24
parte 24
pein@@ 24
perman@@ 24
provincia 24
similar 24
soll 24
änder@@ 24
ǵ@@ 24
ʹ@@ 24
̄ 24
Κυ@@ 24
Με@@ 24
Παλ@@ 24
ημ@@ 24
ιμ@@ 24
τας 24
υγ@@ 24
όσ@@ 24
ύρ@@ 24
Й@@ 24
Кра@@ 24
Лю@@ 24
бер@@ 24
гар@@ 24
ден@@ 24
дор 24
ис@@ 24
лина 24
обо@@ 24
осу@@ 24
пра@@ 24
сан@@ 24
сов 24
сте@@ 24
юр@@ 24
ён@@ 24
џ@@ 24
Խ@@ 24
اور@@ 24
تح@@ 24
جه@@ 24
حر@@ 24
زا 24
زی 24
عد@@ 24
كي 24
له 24
وار 24
ې@@ 24
म@@ 24
ಾ@@ 24
ገ@@ 24
ុ@@ 24
ọ 24
■ 24
う@@ 24
た@@ 24
セ@@ 24
ハ@@ 24
三 24
世@@ 24
产@@ 24
国 24
奴 24
張@@ 24
我@@ 24
朝@@ 24
鮮@@ 24
는 24
니@@ 24
다@@ 24
레@@ 24
세@@ 24
엔@@ 24
터@@ 24
현 24
（ 24
Menschen 23
Trần 23
Tây 23
appel@@ 23
cuer@@ 23
etwa 23
icklung 23
jeu 23
kommen 23
ported 23
professi@@ 23
sinh 23
teil@@ 23
wür@@ 23
¬ 23
änge 23
ôle 23
ĭ 23
Œ@@ 23
ǫ@@ 23
ʋ@@ 23
ʽ@@ 23
Ιωάν@@ 23
άμ@@ 23
έα 23
ίλ@@ 23
απο@@ 23
βι@@ 23
γκ@@ 23
ιρ@@ 23
κυ@@ 23
πε@@ 23
ροι 23
ται 23
τζ@@ 23
τός 23
υρ@@ 23
Вер@@ 23
Дж@@ 23
Из@@ 23
Ли@@ 23
Ши@@ 23
Щ@@ 23
бал@@ 23
боль@@ 23
вой 23
зу@@ 23
кан@@ 23
мо 23
мы 23
ня@@ 23
санд@@ 23
фе@@ 23
хи 23
че 23
ёр@@ 23
Զ@@ 23
լ 23
ձ@@ 23
ؤ@@ 23
اری 23
الدین 23
الغ@@ 23
المست@@ 23
تب@@ 23
ربي 23
رين 23
عمر 23
كور@@ 23
ما 23
مط@@ 23
ܠ@@ 23
म 23
ර@@ 23
ි@@ 23
น@@ 23
မ@@ 23
ᑐ@@ 23
Ṫ@@ 23
ẓ@@ 23
ᾶ@@ 23
― 23
∩ 23
► 23
さ@@ 23
ん@@ 23
ム 23
勒@@ 23
朱@@ 23
水@@ 23
火@@ 23
立@@ 23
組@@ 23
門 23
鞮@@ 23
가 23
니 23
무@@ 23
서@@ 23
의@@ 23
진 23
해@@ 23
ﺎ@@ 23
Thái 22
Weit@@ 22
adamente 22
après 22
auté 22
created 22
east 22
embre 22
kilom@@ 22
kush@@ 22
lý 22
medio 22
otros 22
pueblo 22
río 22
secre@@ 22
seine 22
toba 22
trieb@@ 22
È@@ 22
écn@@ 22
ình 22
ũ@@ 22
ʂ@@ 22
˩ 22
̑ 22
̲ 22
Περ@@ 22
έκ@@ 22
ήλ 22
ήσ@@ 22
γεν@@ 22
εσ@@ 22
ιδ@@ 22
με 22
ού 22
ριστ@@ 22
ρύ@@ 22
τή@@ 22
τι 22
τρι@@ 22
υν@@ 22
χος 22
Бело@@ 22
Дже@@ 22
Кри@@ 22
На 22
Ху@@ 22
аб@@ 22
ван@@ 22
ме 22
нал 22
национа@@ 22
рал 22
рин 22
ственный 22
съ@@ 22
тия 22
чо@@ 22
шен@@ 22
ё 22
ї 22
Ք@@ 22
ը 22
յ 22
ׂ@@ 22
ء 22
أم@@ 22
اص@@ 22
افغانستان 22
الرحمن 22
اله@@ 22
تق@@ 22
خوا@@ 22
سور@@ 22
سید 22
شو@@ 22
كر 22
مال@@ 22
وس 22
ٱ@@ 22
گن@@ 22
یم 22
জ@@ 22
ર@@ 22
ச@@ 22
ා@@ 22
ჟ@@ 22
ក@@ 22
ịnh 22
く@@ 22
れ@@ 22
を@@ 22
ベ@@ 22
东@@ 22
原@@ 22
央@@ 22
學@@ 22
摩 22
玉@@ 22
第@@ 22
米@@ 22
美@@ 22
設@@ 22
龍 22
龍@@ 22
부 22
상@@ 22
어@@ 22
오@@ 22
일@@ 22
호 22
During 21
Dương 21
Esta 21
Hoàng 21
amerikan@@ 21
autor@@ 21
besch@@ 21
cause 21
compet@@ 21
complet@@ 21
constitu@@ 21
elte 21
entre@@ 21
govern@@ 21
iert 21
inah@@ 21
kehr@@ 21
lagen 21
ohne 21
partam@@ 21
started 21
weng@@ 21
 21
äre 21
öß@@ 21
ʌ@@ 21
̪ 21
ίνα 21
αρχ@@ 21
δα 21
ιο 21
κος 21
σε@@ 21
ύλ@@ 21
ϕ 21
Ђ@@ 21
Ж 21
Пар@@ 21
Сто@@ 21
ал 21
вы 21
гу 21
дин@@ 21
дра@@ 21
дро@@ 21
ита@@ 21
кру@@ 21
лет 21
уч@@ 21
хан@@ 21
чка 21
є@@ 21
ў 21
ѣ@@ 21
ҙ@@ 21
ҧ@@ 21
Ӏ 21
դ 21
ծ@@ 21
ֹ 21
اسلامی 21
رم 21
سن 21
على 21
فرو@@ 21
لم 21
محمود 21
وك@@ 21
چر@@ 21
ێ@@ 21
ज 21
ক@@ 21
ী 21
્ 21
வ@@ 21
დ 21
ብ@@ 21
ት 21
ᑦ@@ 21
ᓂ@@ 21
ព@@ 21
ṛ@@ 21
ị 21
ὁ@@ 21
※ 21
⅓ 21
∗ 21
∠ 21
ⵉ@@ 21
つ@@ 21
は@@ 21
ナ 21
乌@@ 21
別@@ 21
土@@ 21
大 21
宮@@ 21
家 21
府 21
廣@@ 21
朝 21
氏 21
江 21
的@@ 21
皇 21
羅@@ 21
茶 21
趙@@ 21
連@@ 21
風@@ 21
랑@@ 21
영@@ 21
요 21
위@@ 21
장@@ 21
테@@ 21
한 21
𐰼@@ 21
Durante 20
Jahre 20
Machi 20
centre 20
constr@@ 20
cuar@@ 20
culture 20
español 20
however 20
interpre@@ 20
joined 20
meil@@ 20
moja 20
más 20
named 20
nje 20
oppos@@ 20
political 20
politique 20
services 20
Ô@@ 20
ánh 20
áp 20
ď@@ 20
ĕ 20
Ž 20
̧ 20
̩ 20
Ό@@ 20
ΐ@@ 20
Τ 20
ές 20
αλλ@@ 20
αφ@@ 20
εγ@@ 20
κα 20
μη 20
οβ@@ 20
ούν@@ 20
προς 20
τικ@@ 20
όδ@@ 20
Вар@@ 20
Вол@@ 20
Кор@@ 20
вина 20
вой@@ 20
гре@@ 20
же 20
зов 20
лия 20
мен 20
мет@@ 20
най 20
ол@@ 20
пре@@ 20
при@@ 20
росси@@ 20
ста 20
университет 20
ьо@@ 20
Ө 20
Թ@@ 20
اح@@ 20
ادر 20
ارة 20
اسم 20
المع@@ 20
بی 20
تن@@ 20
تی 20
دن 20
دير 20
ذ 20
راء 20
رش@@ 20
رية 20
رین 20
سا 20
ندر 20
پار@@ 20
کور@@ 20
ۈ@@ 20
ۋ@@ 20
ܒ@@ 20
ܟ@@ 20
ܣ@@ 20
މ@@ 20
ް@@ 20
श 20
ন 20
ন@@ 20
হ@@ 20
় 20
ে@@ 20
າ@@ 20
བ@@ 20
ོ@@ 20
ል@@ 20
ነ@@ 20
ṅ@@ 20
ṯ 20
ủ 20
ἱ@@ 20
ὄ@@ 20
ℓ@@ 20
∕ 20
う 20
ア 20
二@@ 20
代@@ 20
匈@@ 20
哈@@ 20
唐@@ 20
团 20
堂 20
塔@@ 20
夜@@ 20
帝@@ 20
族 20
林@@ 20
無@@ 20
記 20
逐@@ 20
院 20
로 20
트@@ 20
️ 20
） 20
： 20
Sau 19
aiss@@ 19
baad@@ 19
began 19
dass 19
haben 19
having 19
idades 19
inclus@@ 19
lte 19
materi@@ 19
meister@@ 19
otball 19
où 19
personal 19
princi@@ 19
quien 19
reco@@ 19
success@@ 19
thay 19
tipo 19
tischen 19
tlich 19
ución 19
various 19
wango 19
wenn 19
wird 19
économ@@ 19
úc 19
Ď@@ 19
ģ@@ 19
ĥ@@ 19
ũng 19
ưng 19
̠ 19
̹ 19
Έ@@ 19
Πολ@@ 19
άπ@@ 19
ανα@@ 19
αντ@@ 19
θλ@@ 19
κτ@@ 19
λόγ@@ 19
τους 19
όκ@@ 19
όρ@@ 19
Ло@@ 19
Национа@@ 19
Фа@@ 19
Хе@@ 19
Ь@@ 19
бли@@ 19
бо 19
город 19
дри@@ 19
дь@@ 19
заво@@ 19
кам@@ 19
кт 19
нау@@ 19
оло@@ 19
пан@@ 19
сен 19
спе@@ 19
сти 19
тин@@ 19
ца@@ 19
цион@@ 19
ще 19
ҫ@@ 19
Һ@@ 19
ָ 19
ג 19
أي@@ 19
اک@@ 19
تُ@@ 19
جا@@ 19
جر@@ 19
جع@@ 19
خل@@ 19
دان@@ 19
رج@@ 19
عب@@ 19
كتاب 19
مس 19
پ 19
ܥ@@ 19
ނ@@ 19
ު@@ 19
ެ@@ 19
क 19
ர 19
ல@@ 19
ᑕ@@ 19
ᔪ@@ 19
ជ@@ 19
ḫ 19
ới 19
ὸ@@ 19
ⵍ@@ 19
〖 19
〗 19
が@@ 19
て@@ 19
ァ@@ 19
ピ@@ 19
プ@@ 19
主 19
公 19
公司 19
区@@ 19
华@@ 19
合 19
周@@ 19
愛@@ 19
明 19
柳@@ 19
河@@ 19
泰@@ 19
爾@@ 19
青@@ 19
구@@ 19
도 19
먼@@ 19
성 19
연@@ 19
진@@ 19
학@@ 19
Tanzania 18
abei 18
auti 18
bildung 18
déf@@ 18
encias 18
ersten 18
hizi 18
jours 18
lég@@ 18
lés 18
organis@@ 18
rés@@ 18
uvo 18
wali@@ 18
werden 18
wieder 18
wrote 18
zös@@ 18
 18
Ê 18
Ô 18
élec@@ 18
ĉ@@ 18
Ķ@@ 18
Ř@@ 18
ǃ 18
ɬ@@ 18
̓ 18
Κ 18
Καλ@@ 18
Το 18
ίων 18
γιος 18
δο@@ 18
δυ@@ 18
λά@@ 18
λις 18
μο@@ 18
ουν@@ 18
ρου 18
σπ@@ 18
στι@@ 18
συν@@ 18
όχ@@ 18
За 18
Мон@@ 18
Под@@ 18
Роди@@ 18
Щ 18
атов 18
бар@@ 18
ера 18
зан@@ 18
коми@@ 18
мир@@ 18
ром 18
ститу@@ 18
сто 18
сту@@ 18
су 18
тат@@ 18
фрон@@ 18
ър 18
ый 18
Ң 18
ӱ@@ 18
Ի@@ 18
Յ@@ 18
Ռ@@ 18
ճ@@ 18
آر@@ 18
اع@@ 18
الث@@ 18
العرا@@ 18
المه@@ 18
او 18
اِ@@ 18
بير 18
ة@@ 18
جی 18
حزب 18
دول@@ 18
رو 18
رير 18
سا@@ 18
سب@@ 18
ظ 18
عي@@ 18
قة 18
كل@@ 18
ندی 18
وات 18
وري 18
وي 18
يه 18
يون@@ 18
کن@@ 18
व@@ 18
দ 18
য 18
ਰ@@ 18
ม@@ 18
ང 18
ာ@@ 18
ု@@ 18
ေ@@ 18
ြ@@ 18
ሀ@@ 18
ម 18
ម@@ 18
ấn 18
ὑ@@ 18
ὰ 18
ῥ@@ 18
⁠ 18
₤ 18
∅ 18
☆ 18
ⵎ@@ 18
ど@@ 18
に@@ 18
る@@ 18
ギ@@ 18
グ 18
ム@@ 18
下@@ 18
事@@ 18
光@@ 18
勒 18
原 18
富@@ 18
少@@ 18
布@@ 18
所 18
手@@ 18
拓@@ 18
物@@ 18
福@@ 18
義@@ 18
花@@ 18
衛@@ 18
見@@ 18
상 18
영 18
윤@@ 18
을 18
인 18
정 18
태@@ 18
𐰆@@ 18
Kirche 17
Mỹ 17
Rück@@ 17
Zus@@ 17
acces@@ 17
bajo 17
caso 17
crit 17
desc@@ 17
described 17
día 17
forces 17
général 17
import@@ 17
incor@@ 17
itig 17
jiji 17
mayor 17
pobl@@ 17
poco 17
releas@@ 17
saison 17
setz@@ 17
señ@@ 17
sitz@@ 17
ticas 17
toujours 17
unzi 17
uyên 17
yote 17
Æ 17
épo@@ 17
êu 17
óa 17
Đại 17
ŏ 17
ů 17
ương 17
ɣ 17
Απ@@ 17
Σύ@@ 17
έας 17
αζ@@ 17
για 17
ησι@@ 17
ικά 17
κρά@@ 17
μον@@ 17
ναι 17
οτ@@ 17
περ@@ 17
ρω@@ 17
σμ@@ 17
συ@@ 17
του@@ 17
τρο@@ 17
όρος 17
Ги@@ 17
Жи@@ 17
Йо@@ 17
От@@ 17
Пи@@ 17
Ско@@ 17
Федера@@ 17
Центра@@ 17
ать 17
бор@@ 17
бы 17
им 17
клуб 17
кре@@ 17
лан@@ 17
ности 17
поселе@@ 17
рии 17
слав@@ 17
ствен@@ 17
тер@@ 17
тра@@ 17
три@@ 17
ше 17
Ғ@@ 17
ғ 17
Ү 17
ժ@@ 17
ابو 17
العربية 17
المج@@ 17
بة 17
بلا@@ 17
جي@@ 17
حم@@ 17
خات@@ 17
شي@@ 17
طر@@ 17
قی@@ 17
كان 17
لات 17
لال 17
لب 17
مز@@ 17
نة 17
نش@@ 17
نص@@ 17
ني 17
هي@@ 17
وادي 17
ود@@ 17
يون 17
ڤ@@ 17
کی 17
یل 17
ܓ@@ 17
ܦ@@ 17
ः 17
अ@@ 17
न 17
य 17
स@@ 17
ਸ@@ 17
ਾ@@ 17
ย@@ 17
้ 17
ག@@ 17
მ 17
ჰ@@ 17
ራ 17
እ@@ 17
ᑎ@@ 17
ᓀ@@ 17
ᓗ@@ 17
ᖅ@@ 17
ន@@ 17
ិ@@ 17
ᠠ 17
ḍ 17
ạng 17
ết 17
Ἑ@@ 17
ⵏ 17
み@@ 17
ゴ@@ 17
ズ 17
中 17
信@@ 17
全@@ 17
共@@ 17
刀 17
劉@@ 17
區 17
士 17
夏 17
委员会 17
孜@@ 17
官@@ 17
巴@@ 17
市@@ 17
手 17
春@@ 17
會 17
派 17
生 17
羅 17
胡@@ 17
藤@@ 17
術 17
设@@ 17
都 17
門@@ 17
陳@@ 17
雄 17
黨 17
고 17
씨 17
우 17
현@@ 17
𐰃@@ 17
Febru@@ 16
Lý 16
Meter 16
acto 16
agric@@ 16
allem 16
coup 16
différ@@ 16
direction 16
está 16
huko 16
ición 16
inspir@@ 16
inté@@ 16
jimbo 16
kann 16
kij@@ 16
ngo@@ 16
nuevo 16
ográ@@ 16
registr@@ 16
selb@@ 16
uvu 16
vì 16
wohl 16
© 16
È 16
Ñ 16
ßen@@ 16
àu 16
ìn 16
ĩ 16
ǝ@@ 16
̥ 16
Βασιλ@@ 16
Ευ@@ 16
άρι@@ 16
έ 16
ίσ@@ 16
ακή 16
βασ@@ 16
γλ@@ 16
γραφ@@ 16
εδ@@ 16
εργ@@ 16
ητ@@ 16
ιζ@@ 16
κλη@@ 16
λί@@ 16
λεγ@@ 16
λη@@ 16
ωνία 16
ϊ@@ 16
όμ@@ 16
Є@@ 16
Аль@@ 16
Бра@@ 16
Ман@@ 16
Мария 16
ана 16
ари 16
вра@@ 16
дь 16
ене@@ 16
зем@@ 16
ита 16
кар@@ 16
кате@@ 16
лна 16
ради@@ 16
сс 16
стов 16
тру@@ 16
ческий 16
Ҡ@@ 16
Ո@@ 16
ׁ 16
أس@@ 16
ابل 16
الأم@@ 16
المق@@ 16
با 16
برو@@ 16
ترا@@ 16
جز@@ 16
جی@@ 16
دين 16
راب 16
روز 16
ست 16
عم@@ 16
فت@@ 16
قاد@@ 16
قب@@ 16
قي 16
لك@@ 16
نام@@ 16
نس@@ 16
نظ@@ 16
هار@@ 16
هد 16
هم 16
وب 16
وز 16
وغ@@ 16
ولي 16
يران 16
يم@@ 16
ڭ@@ 16
ہ 16
ܝ 16
ܫ@@ 16
ਿ@@ 16
ત@@ 16
ස@@ 16
ວ@@ 16
ར@@ 16
ም@@ 16
ር 16
ት@@ 16
ᓇ@@ 16
ᓕ@@ 16
Ḍ@@ 16
ất 16
ἑ@@ 16
ἶ@@ 16
ℵ@@ 16
∨ 16
お@@ 16
こ@@ 16
ち@@ 16
て 16
る 16
ポ@@ 16
ワ@@ 16
什@@ 16
代 16
光 16
千@@ 16
台 16
和 16
基@@ 16
多@@ 16
夫 16
工@@ 16
帝 16
師 16
康@@ 16
念@@ 16
憲@@ 16
戦 16
書@@ 16
格@@ 16
楊@@ 16
港@@ 16
行 16
記@@ 16
赤@@ 16
達@@ 16
限@@ 16
馬 16
노@@ 16
데@@ 16
동 16
드 16
러@@ 16
면 16
문@@ 16
반@@ 16
빈 16
어 16
프@@ 16
피@@ 16
﴾ 16
﴿ 16
Auch 15
Besch@@ 15
Estados 15
Hồ 15
Januar 15
Juni 15
autres 15
chung 15
ciudad 15
cô@@ 15
ekani 15
emente 15
entras 15
grandes 15
hilo 15
interpret@@ 15
lleg@@ 15
mejor 15
okea 15
phong 15
respectiv@@ 15
result@@ 15
tarde 15
tete 15
todo 15
äuf@@ 15
òng 15
ď 15
ũ 15
ʷ 15
Ί@@ 15
Αλ@@ 15
Αρ@@ 15
Καλλ@@ 15
Μον@@ 15
Πλ@@ 15
άζ@@ 15
έσ@@ 15
ήν@@ 15
αγγ@@ 15
εβ@@ 15
εμ@@ 15
καθ@@ 15
κη 15
λύ@@ 15
μέν@@ 15
νομ@@ 15
ολόγ@@ 15
περι@@ 15
ποι@@ 15
ρέ@@ 15
ρον@@ 15
ρό@@ 15
σης 15
τική 15
φιλ@@ 15
Ё 15
І 15
Бар@@ 15
Боль@@ 15
Международ@@ 15
СР 15
Хри@@ 15
Ъ 15
акаде@@ 15
армия 15
арти@@ 15
би 15
война 15
град@@ 15
дж 15
ент@@ 15
ер 15
жен@@ 15
зах@@ 15
зе 15
ил 15
лен 15
лица 15
мор@@ 15
нина 15
партия 15
рас@@ 15
сен@@ 15
сер@@ 15
сия 15
спо@@ 15
ства 15
сты 15
тов@@ 15
хай@@ 15
чь 15
шу@@ 15
ӷ@@ 15
الح 15
الملك 15
اول@@ 15
بور@@ 15
تخ@@ 15
تر 15
تف@@ 15
جة 15
حد@@ 15
دش@@ 15
رق@@ 15
رون 15
زم 15
زيد 15
سك@@ 15
صل 15
ضاء 15
عر@@ 15
فرا@@ 15
كن 15
لق@@ 15
مب@@ 15
مین 15
نه@@ 15
وت 15
وز@@ 15
وق 15
يو@@ 15
ِّ@@ 15
ّة 15
گو@@ 15
ܢ 15
ި@@ 15
ग@@ 15
ં@@ 15
ய@@ 15
ರ@@ 15
င 15
ტ 15
ᒥ@@ 15
ᕕ@@ 15
ប@@ 15
ắ@@ 15
ằng 15
ị@@ 15
ọc 15
Ἁ@@ 15
Ἱ@@ 15
∪ 15
◆ 15
☃ 15
♀ 15
ⵣ@@ 15
き 15
け@@ 15
だ@@ 15
り 15
タ 15
ボ@@ 15
丹 15
井@@ 15
共和@@ 15
化 15
化@@ 15
同@@ 15
君@@ 15
場 15
奇@@ 15
宗 15
寺@@ 15
屍@@ 15
彦 15
思@@ 15
支@@ 15
教@@ 15
永@@ 15
汗@@ 15
海 15
科@@ 15
車@@ 15
郡 15
際@@ 15
나 15
단 15
만@@ 15
승@@ 15
임@@ 15
홍@@ 15
ﺍ@@ 15
Cuando 14
Teil 14
Thiên 14
ambazo 14
biet 14
culo 14
dispar@@ 14
ekana 14
fue 14
heute 14
hijo 14
ihre 14
individ@@ 14
individu@@ 14
moved 14
much@@ 14
muerte 14
música 14
neue 14
otro 14
perten@@ 14
peut 14
pueb@@ 14
rund 14
sasa 14
signi@@ 14
tatu 14
tener 14
tourn@@ 14
tâm 14
worked 14
Ë 14
Û 14
ätz@@ 14
étu@@ 14
óc 14
ăng 14
ĝ 14
ĩ@@ 14
Ň 14
Ő@@ 14
Ū@@ 14
ǩ@@ 14
ʲ 14
˹ 14
˺ 14
Κου@@ 14
Τσ@@ 14
έγ@@ 14
αυτ@@ 14
δοκ@@ 14
εξ@@ 14
εφ@@ 14
ημα 14
ηφ@@ 14
ιν 14
καλ@@ 14
κατ@@ 14
κι@@ 14
ματ@@ 14
μπο@@ 14
νη@@ 14
νησ@@ 14
πά@@ 14
ρη@@ 14
ρο 14
όφ@@ 14
Бур@@ 14
Българ@@ 14
Бы@@ 14
Вы@@ 14
Сан@@ 14
София 14
Цент@@ 14
ата 14
бу 14
вица 14
воен@@ 14
гла@@ 14
горо@@ 14
джи@@ 14
дру@@ 14
ез@@ 14
жда 14
иг@@ 14
из 14
йна 14
кло@@ 14
комите@@ 14
му 14
нен@@ 14
парти@@ 14
револю@@ 14
рез@@ 14
рё@@ 14
сси@@ 14
той 14
ул 14
фа 14
цев 14
чев 14
ши 14
шта@@ 14
ща@@ 14
ще@@ 14
щен@@ 14
ён 14
є 14
ґ 14
җ@@ 14
Է@@ 14
գ 14
ե 14
اغ@@ 14
الدي@@ 14
بال@@ 14
بش@@ 14
بع@@ 14
بغ@@ 14
جام@@ 14
حة 14
خال@@ 14
خت@@ 14
دس 14
دم 14
رس@@ 14
سط@@ 14
سلام 14
عش@@ 14
فری@@ 14
قط@@ 14
لح@@ 14
مك@@ 14
مل 14
مهورية 14
ناصر 14
نور 14
ينا 14
پن@@ 14
کان 14
ܩ@@ 14
ܪ 14
ާ@@ 14
य@@ 14
व 14
ह@@ 14
দ@@ 14
ી@@ 14
ವ@@ 14
න 14
ු@@ 14
ก@@ 14
ག 14
མ@@ 14
འ@@ 14
ས 14
ས@@ 14
ྱ@@ 14
း@@ 14
ᑯ@@ 14
ᓄ@@ 14
ᔭ@@ 14
ត@@ 14
ṃ@@ 14
ẕ@@ 14
ạm 14
Ἡ@@ 14
ὅ@@ 14
ὕ@@ 14
ὴ 14
ὸ 14
⇒ 14
▪ 14
。 14
《 14
》 14
え@@ 14
の 14
め@@ 14
よ@@ 14
ィ 14
ズ@@ 14
ツ@@ 14
ノ@@ 14
ホ@@ 14
ヤ@@ 14
七@@ 14
名@@ 14
喀@@ 14
域@@ 14
師@@ 14
德@@ 14
成@@ 14
政@@ 14
時@@ 14
武 14
沖@@ 14
波@@ 14
流 14
理@@ 14
甲 14
総@@ 14
老@@ 14
蘇@@ 14
语 14
谷@@ 14
賀@@ 14
达@@ 14
里 14
黃@@ 14
ꞑ@@ 14
교 14
구 14
모@@ 14
백@@ 14
브@@ 14
산@@ 14
애@@ 14
양@@ 14
예@@ 14
종@@ 14
청 14
청@@ 14
치@@ 14
키@@ 14
해 14
회@@ 14
𐰴@@ 14
😂 14
Après 13
Saison 13
actual 13
ailleurs 13
aliwa 13
amiento 13
armée 13
career 13
chí 13
clim@@ 13
conoc@@ 13
conse@@ 13
ennent 13
gibt 13
ihn 13
ingana 13
investig@@ 13
juu 13
kuu 13
mittel@@ 13
nord 13
obras 13
occu@@ 13
oeste 13
organisation 13
partie 13
política 13
propi@@ 13
quy 13
sao 13
timm@@ 13
tionen 13
visit@@ 13
weit 13
ách 13
äß@@ 13
ĉ 13
ĥ 13
Ť@@ 13
ǒ 13
ǘ 13
ɯ 13
ɯ@@ 13
ʉ 13
Βασίλ@@ 13
Λου@@ 13
Προ@@ 13
έφ@@ 13
ίγ@@ 13
βά@@ 13
δία 13
καρ@@ 13
κι 13
κω@@ 13
ματα 13
ουλ@@ 13
ουσα 13
τρα 13
φύ@@ 13
όρι@@ 13
ότ@@ 13
ώς 13
Мини@@ 13
Ново@@ 13
Ст@@ 13
Ъ@@ 13
бри@@ 13
вен@@ 13
волю@@ 13
вре@@ 13
ген 13
дер 13
ей 13
жение 13
жо@@ 13
зар@@ 13
зия 13
ках 13
край 13
куль@@ 13
ление 13
мат 13
ники 13
под@@ 13
при 13
пут@@ 13
пы@@ 13
рин@@ 13
сов@@ 13
ственной 13
стер@@ 13
хра@@ 13
ър@@ 13
ӑ@@ 13
آغ@@ 13
إي@@ 13
التر@@ 13
المغ@@ 13
الوطني 13
انا 13
انی@@ 13
باب@@ 13
بان@@ 13
تار@@ 13
تش@@ 13
ته 13
حسین 13
روم 13
ریز 13
سام@@ 13
سة 13
سم 13
سم@@ 13
شن@@ 13
صف@@ 13
عين 13
لاح 13
لك 13
مق@@ 13
مقرا@@ 13
ملی 13
مون 13
نان 13
نز@@ 13
نور@@ 13
وف 13
وه@@ 13
يت 13
ژ 13
ژ@@ 13
کش@@ 13
ۇ 13
ވ@@ 13
ण 13
पा@@ 13
रु@@ 13
ल 13
প@@ 13
ী@@ 13
ன 13
ி 13
ප@@ 13
ම@@ 13
ོ 13
န 13
ိ@@ 13
ზ 13
უ 13
መ@@ 13
ተ@@ 13
ክ@@ 13
ᐣ 13
ᐦ@@ 13
ំ@@ 13
ᠠ@@ 13
ến 13
ἡ@@ 13
Ὀ@@ 13
⁰ 13
℃ 13
♥ 13
ⵏ@@ 13
ⵜ@@ 13
」 13
〜 13
っ@@ 13
カ 13
ヴ@@ 13
仁 13
伽@@ 13
俊@@ 13
動@@ 13
半@@ 13
厥 13
員@@ 13
在@@ 13
士@@ 13
女 13
字 13
安 13
察@@ 13
星 13
昭@@ 13
普@@ 13
智@@ 13
村@@ 13
水 13
汉@@ 13
治 13
洋@@ 13
玄@@ 13
甘@@ 13
皇@@ 13
空 13
節@@ 13
航@@ 13
艾@@ 13
葉@@ 13
護@@ 13
車 13
重@@ 13
野 13
関@@ 13
陽@@ 13
面@@ 13
音@@ 13
館 13
马@@ 13
광@@ 13
부@@ 13
석 13
야 13
음@@ 13
전 13
차@@ 13
처@@ 13
혁 13
ﻮ@@ 13
𐰣 13
Châu 12
Titel 12
Unis 12
amér@@ 12
avoir 12
awala 12
compr@@ 12
có@@ 12
descri@@ 12
emein@@ 12
españ@@ 12
famille 12
financi@@ 12
gebiet 12
gleich@@ 12
icios 12
ihm 12
ió 12
mch@@ 12
momento 12
musical 12
même 12
padre 12
propos@@ 12
qued@@ 12
régi@@ 12
schnit@@ 12
segu@@ 12
¸ 12
Ð@@ 12
ĵ 12
ľ 12
ŝ 12
ų@@ 12
ŵ@@ 12
ƣ 12
ƣ@@ 12
ǁ@@ 12
ɡ 12
ɵ@@ 12
ʏ@@ 12
̞ 12
̱ 12
Δημοκρατ@@ 12
Κατ@@ 12
Λε@@ 12
Μπ@@ 12
Συ@@ 12
Του@@ 12
αργ@@ 12
βαν@@ 12
βλ@@ 12
γέν@@ 12
δος 12
είο 12
ειν@@ 12
ηγ@@ 12
θη 12
θν@@ 12
κου@@ 12
λη 12
μν@@ 12
μόν@@ 12
νι@@ 12
ουρ@@ 12
ουσ@@ 12
παν@@ 12
πρω@@ 12
πυ@@ 12
ραν@@ 12
ρού@@ 12
υχ@@ 12
φυ@@ 12
χή 12
όγ@@ 12
ύγ@@ 12
Май@@ 12
Пра@@ 12
версите@@ 12
воз@@ 12
город@@ 12
дер@@ 12
дии 12
ени 12
институ@@ 12
итель@@ 12
кла@@ 12
лах 12
лей@@ 12
май@@ 12
мира 12
мя 12
ниче@@ 12
пера@@ 12
поли@@ 12
раб@@ 12
рабо@@ 12
риа@@ 12
соци@@ 12
тен 12
тече@@ 12
тон 12
хе@@ 12
хов@@ 12
чки 12
Қ 12
Ղ@@ 12
վ 12
ְ 12
ئ 12
اج 12
الأح@@ 12
الأس@@ 12
الة 12
السع@@ 12
العل@@ 12
انية 12
باب 12
بد 12
بيل 12
تع@@ 12
تي@@ 12
جامعة 12
خار@@ 12
دوس@@ 12
دية 12
رام 12
زة 12
سلط@@ 12
صح@@ 12
طي@@ 12
عباس 12
علا@@ 12
علم 12
عمر@@ 12
غز@@ 12
فو@@ 12
قص@@ 12
لف@@ 12
لية 12
ماء 12
مانی 12
مرا@@ 12
نف@@ 12
واز 12
ولی@@ 12
ٌ 12
چل@@ 12
چی@@ 12
کا@@ 12
کری@@ 12
ګ@@ 12
گی@@ 12
ހ@@ 12
ދ@@ 12
ް 12
क@@ 12
री 12
শ@@ 12
મ@@ 12
ட@@ 12
్ 12
ท@@ 12
พระ@@ 12
ไทย 12
ພ@@ 12
ະ@@ 12
ັ@@ 12
ད 12
က@@ 12
ပ@@ 12
သ@@ 12
ჲ 12
ስ@@ 12
በ@@ 12
ን 12
ᑲ@@ 12
ᒡ@@ 12
ᓴ@@ 12
វ@@ 12
ា 12
Ṡ@@ 12
ận 12
ừa 12
ἴ@@ 12
ἵ@@ 12
‛ 12
‹ 12
⅔ 12
⇌ 12
∀ 12
⊞ 12
┘ 12
ⴻ@@ 12
、 12
〈 12
〉 12
「 12
に 12
ザ@@ 12
プ 12
争 12
事件 12
剛@@ 12
口@@ 12
名 12
呼@@ 12
址 12
天 12
孔@@ 12
孫@@ 12
平 12
心@@ 12
志@@ 12
忠@@ 12
提@@ 12
旗 12
書 12
本 12
根@@ 12
梅@@ 12
樂@@ 12
正 12
波 12
津@@ 12
猫@@ 12
球@@ 12
画 12
番@@ 12
系 12
維@@ 12
美 12
義 12
者@@ 12
香@@ 12
魏 12
黑@@ 12
黒@@ 12
디@@ 12
래 12
민 12
중@@ 12
즈 12
차 12
천@@ 12
타@@ 12
혜@@ 12
호@@ 12
회 12
･ 12
Bahari 11
Durch@@ 11
Familie 11
Hải 11
Londres 11
Unidos 11
arriv@@ 11
aße 11
capital 11
cerca 11
consid@@ 11
continued 11
dieser 11
dort 11
développ@@ 11
embar@@ 11
etzt 11
große 11
hosp@@ 11
hệ 11
ierung 11
intro@@ 11
letzten 11
mà 11
médi@@ 11
ología 11
prä@@ 11
respons@@ 11
vuel@@ 11
waren 11
weise 11
zäh@@ 11
Á 11
Ë@@ 11
Ì@@ 11
ãi 11
ôt 11
Đông 11
Đức 11
ű 11
Ż 11
Ə 11
Ƣ 11
ʂ 11
ˀ@@ 11
ˤ@@ 11
͵ 11
Άν@@ 11
Κά@@ 11
Λι@@ 11
Μεγάλ@@ 11
Ξ 11
Ρω@@ 11
έλλ@@ 11
αχ@@ 11
βαρ@@ 11
δί@@ 11
δια@@ 11
δύ@@ 11
ειας 11
ελλ@@ 11
εχ@@ 11
ηθ@@ 11
θρω@@ 11
ισμός 11
λευ@@ 11
λεύ@@ 11
νε@@ 11
νω@@ 11
ουν 11
πατ@@ 11
που 11
στρα@@ 11
σύν@@ 11
τις 11
χαρ@@ 11
ωγ@@ 11
Љ 11
Џ@@ 11
Бел@@ 11
Гер@@ 11
Димит@@ 11
Дру@@ 11
Москов@@ 11
Петер@@ 11
Пло@@ 11
Север@@ 11
Фили@@ 11
вез@@ 11
вен 11
вые 11
гер@@ 11
губер@@ 11
ези@@ 11
йской 11
кой 11
кол@@ 11
кры@@ 11
лев@@ 11
мини@@ 11
миче@@ 11
мон@@ 11
мыш@@ 11
нар@@ 11
ново 11
ном 11
они 11
ору@@ 11
пас@@ 11
пла@@ 11
прав@@ 11
рев@@ 11
ру 11
ски@@ 11
ском 11
соб@@ 11
сою@@ 11
телевизи@@ 11
тер 11
тор 11
туры 11
укра@@ 11
фло@@ 11
ход 11
шки 11
ье 11
ят 11
Ҳ@@ 11
թ 11
ծ 11
ղ 11
ո 11
ւ 11
ء@@ 11
آن@@ 11
أ 11
أر@@ 11
أن@@ 11
ارا 11
ارت 11
اسلام 11
اض 11
الإسلا@@ 11
الا 11
الت 11
الجام@@ 11
السلام 11
المر@@ 11
الي 11
الی 11
امل 11
تص@@ 11
حی@@ 11
داد 11
دون 11
رات 11
رت 11
رح@@ 11
روز@@ 11
زي 11
سما@@ 11
سين@@ 11
سپ@@ 11
شی 11
عی@@ 11
فل@@ 11
فی 11
كت@@ 11
كري@@ 11
لر 11
ملا@@ 11
مند@@ 11
هة 11
وان@@ 11
ध@@ 11
न@@ 11
ने@@ 11
या@@ 11
यान 11
रा@@ 11
ष 11
ਤ@@ 11
પ@@ 11
ા 11
િ@@ 11
ે 11
ජ@@ 11
න@@ 11
ල@@ 11
ง@@ 11
ต@@ 11
า@@ 11
ງ 11
ရ@@ 11
ბ 11
ል 11
ቢ@@ 11
ደ@@ 11
ግ@@ 11
ᓱ@@ 11
ក 11
ន 11
ប 11
ហ@@ 11
េ@@ 11
ṗ@@ 11
ảo 11
ần 11
ἡ 11
Ῥ@@ 11
∑ 11
★ 11
⦁ 11
し 11
ひ@@ 11
み 11
ウ 11
ヒ@@ 11
ペ@@ 11
二 11
佐@@ 11
侯@@ 11
保@@ 11
元 11
先@@ 11
分@@ 11
加@@ 11
南 11
地 11
塔 11
夢@@ 11
契@@ 11
学 11
寶@@ 11
尾@@ 11
岡@@ 11
州@@ 11
张@@ 11
御@@ 11
文 11
曹@@ 11
月 11
条@@ 11
林 11
沢@@ 11
浦@@ 11
湖@@ 11
玉 11
由@@ 11
町 11
直@@ 11
臺@@ 11
花 11
萨@@ 11
薩@@ 11
言 11
話 11
雅@@ 11
骨@@ 11
龙@@ 11
거@@ 11
게 11
너 11
녀@@ 11
디 11
래@@ 11
서 11
식@@ 11
엑@@ 11
크@@ 11
ﬁ@@ 11
ﺭ@@ 11
𐭥@@ 11
𐰉@@ 11
COVI@@ 10
Chuo 10
Fue 10
Irel@@ 10
Janu@@ 10
atao 10
aujour@@ 10
celebr@@ 10
denomin@@ 10
dernier 10
divers@@ 10
fois 10
frü@@ 10
fuer@@ 10
hombres 10
häng@@ 10
join@@ 10
located 10
nouv@@ 10
preu@@ 10
principal 10
punkt 10
quy@@ 10
tiene 10
unid@@ 10
urch 10
wezi 10
àm 10
òn 10
Đi@@ 10
Ģ@@ 10
Ĳ@@ 10
ļ 10
œuvre 10
ơ 10
ǀ@@ 10
ǃ@@ 10
ǚ 10
ɨ 10
Αλεξ@@ 10
Πρ@@ 10
άν 10
έργ@@ 10
ίζ@@ 10
ίκη 10
ίνου 10
αίν@@ 10
απε@@ 10
ασία 10
βρα@@ 10
γε@@ 10
είου 10
ερα 10
λυ@@ 10
μή 10
μακ@@ 10
μαχ@@ 10
μη@@ 10
μο 10
μυ@@ 10
ρία 10
σίας 10
στά@@ 10
σχ@@ 10
σύ@@ 10
τοκ@@ 10
φω@@ 10
ώρα 10
Кла@@ 10
Рос@@ 10
Сре@@ 10
Це@@ 10
ани 10
бат@@ 10
бург@@ 10
воло@@ 10
дел@@ 10
дже@@ 10
еди@@ 10
зии 10
зна@@ 10
или 10
ить 10
каде@@ 10
кня@@ 10
компания 10
кор@@ 10
лат@@ 10
лей 10
лер 10
над@@ 10
нан@@ 10
нат 10
ным 10
опера@@ 10
ора 10
пере@@ 10
побе@@ 10
пове@@ 10
реб@@ 10
регион 10
рий@@ 10
рода 10
рой 10
рю@@ 10
стре@@ 10
ся@@ 10
там 10
теле@@ 10
тен@@ 10
тех@@ 10
тиче@@ 10
уби@@ 10
уез@@ 10
ули@@ 10
ус 10
фон 10
фу@@ 10
ход@@ 10
чна 10
шин@@ 10
Җ@@ 10
ҥ@@ 10
Ұ@@ 10
Օ@@ 10
զ 10
ادة 10
ادي 10
اذ@@ 10
اسلا@@ 10
افظ@@ 10
البي@@ 10
الحزب 10
النا@@ 10
الی@@ 10
امام 10
امی@@ 10
اون@@ 10
باد 10
باد@@ 10
بند 10
بند@@ 10
بین 10
ته@@ 10
جان@@ 10
جم 10
دری@@ 10
دل 10
دى 10
رانی 10
زن 10
شار@@ 10
شاہ 10
عز@@ 10
عط@@ 10
عن@@ 10
عي 10
فت 10
قد 10
قية 10
كم 10
لام 10
ليل 10
مت 10
مدر@@ 10
مست@@ 10
ندي 10
نگ 10
وش@@ 10
پو@@ 10
چو@@ 10
چی 10
کار@@ 10
کو 10
ہ@@ 10
۲ 10
ܬ 10
ގ@@ 10
ं 10
ं@@ 10
ग 10
ज@@ 10
ट 10
द@@ 10
बा@@ 10
महा@@ 10
वा@@ 10
ु 10
ত@@ 10
ਹ@@ 10
જ@@ 10
க 10
ங 10
ஜ@@ 10
ீ@@ 10
ು@@ 10
് 10
ර 10
ว@@ 10
ນ 10
ེ@@ 10
ྲ@@ 10
လ@@ 10
ျ@@ 10
Ⴄ 10
ተ 10
ኤ@@ 10
ጉ@@ 10
ᐏ@@ 10
ᑭ@@ 10
ᒃ@@ 10
ង 10
ត 10
Ḩ@@ 10
ḵ 10
ṟ@@ 10
ạc 10
ạn 10
ện 10
ọng 10
ổi 10
Ἕ@@ 10
₨ 10
ℤ 10
┐ 10
♠ 10
ⴷ@@ 10
ⵜ 10
ば@@ 10
キ 10
ゼ@@ 10
ヨ@@ 10
リ 10
レ 10
丁@@ 10
万@@ 10
之 10
乙@@ 10
也 10
兵 10
古 10
右@@ 10
吐@@ 10
吴@@ 10
団 10
外@@ 10
大学 10
太 10
密@@ 10
尼@@ 10
屋 10
崎 10
拉 10
摩@@ 10
支 10
方 10
桐 10
梁@@ 10
機@@ 10
澳@@ 10
爆@@ 10
片@@ 10
現@@ 10
盟 10
研究@@ 10
粵@@ 10
約 10
紅@@ 10
組 10
群 10
茶@@ 10
菜@@ 10
藤 10
蘭@@ 10
見 10
遗@@ 10
鈴@@ 10
개@@ 10
건 10
군@@ 10
금@@ 10
녀 10
드@@ 10
림 10
무 10
방@@ 10
불@@ 10
블@@ 10
송@@ 10
왕 10
왕@@ 10
운 10
울 10
장 10
제 10
파@@ 10
평@@ 10
플@@ 10
희 10
︎ 10
𐰀 10
𐰖@@ 10
𐰺@@ 10
􀁾 10
Agosti 9
Gemeinde 9
Kỳ 9
Maji 9
Nach 9
St. 9
Tân 9
aussi 9
casi 9
chaque 9
coi 9
command@@ 9
corresp@@ 9
doit 9
ehemal@@ 9
eint 9
fútbol 9
huu 9
llam@@ 9
nte 9
oblig@@ 9
ografía 9
particu@@ 9
partido 9
permet@@ 9
personn@@ 9
pointed 9
quatre 9
quelques 9
siglo 9
sobre 9
spéci@@ 9
tiempo 9
todos 9
travail 9
très 9
umri 9
vient 9
xico 9
xième 9
Ï@@ 9
êm 9
ían 9
ích 9
ċ 9
ĵ@@ 9
Ō 9
ŷ@@ 9
ư 9
ɦ@@ 9
ɹ@@ 9
ʑ@@ 9
ʕ 9
Εθν@@ 9
Κορ@@ 9
Μέ@@ 9
Πέ@@ 9
Πρω@@ 9
Στρ@@ 9
Χ 9
άρκ@@ 9
άφ@@ 9
έπ@@ 9
ήμ@@ 9
ίδα 9
αία 9
ιάς 9
ιγ@@ 9
ιερ@@ 9
ικών 9
κιν@@ 9
κρί@@ 9
κρι@@ 9
λεξ@@ 9
μένης 9
μή@@ 9
μερ@@ 9
ορι@@ 9
οσφ@@ 9
ούλ@@ 9
ούς 9
παι@@ 9
ρατ@@ 9
ριν@@ 9
τικό 9
България 9
Кали@@ 9
Кро@@ 9
Пол@@ 9
Пос@@ 9
СС@@ 9
Съ@@ 9
Хар@@ 9
Хи@@ 9
авиа@@ 9
вета 9
вое 9
гле@@ 9
гори@@ 9
гро@@ 9
дви@@ 9
еле@@ 9
ен 9
жения 9
исто@@ 9
итель 9
ити@@ 9
йн@@ 9
кого 9
кс 9
кул@@ 9
лни 9
лок 9
льное 9
мая 9
мин 9
мокра@@ 9
музе@@ 9
ней 9
ность 9
обра@@ 9
оз@@ 9
остров 9
рал@@ 9
рам@@ 9
рес@@ 9
рова@@ 9
род 9
ръ@@ 9
ря 9
син@@ 9
ске 9
служ@@ 9
спа@@ 9
спор@@ 9
сс@@ 9
став@@ 9
стран@@ 9
техниче@@ 9
тив@@ 9
тий 9
ть@@ 9
хар@@ 9
цар@@ 9
цент@@ 9
шен 9
щи 9
яр@@ 9
Ґ 9
ҕ@@ 9
ҷ@@ 9
Ә 9
է 9
ջ 9
ֱ@@ 9
ַ 9
إل@@ 9
ائی 9
اح 9
ادل 9
اري 9
البح@@ 9
الث 9
الجزائر 9
الري@@ 9
السي@@ 9
الم 9
الوطنية 9
انات 9
اور 9
اُ@@ 9
بني 9
تل 9
جر 9
جي 9
داء 9
دري@@ 9
دل@@ 9
دو 9
رئيس 9
رف@@ 9
رل 9
زار 9
سج@@ 9
شع@@ 9
غي@@ 9
فضل 9
فق@@ 9
قد@@ 9
كا 9
كان@@ 9
كس 9
كل 9
كون@@ 9
لار@@ 9
لم@@ 9
مز 9
منص@@ 9
مى 9
مين 9
نس 9
نط@@ 9
ودية 9
وف@@ 9
ولد 9
يش@@ 9
ٰ@@ 9
پور@@ 9
چار@@ 9
گرد 9
ڵ 9
ڵ@@ 9
ۆ 9
ܛ@@ 9
ܵ@@ 9
ރ@@ 9
ކ@@ 9
ख@@ 9
ता@@ 9
धर 9
ल@@ 9
वि@@ 9
सु@@ 9
ং@@ 9
আ@@ 9
গ@@ 9
ਮ@@ 9
ੰ@@ 9
વ@@ 9
ે@@ 9
ો 9
୍ 9
த 9
ப 9
ல 9
ா 9
ా@@ 9
ನ 9
ನ@@ 9
ಶ 9
ಿ@@ 9
ං@@ 9
ේ@@ 9
น 9
พ@@ 9
ว 9
ນ@@ 9
ລ@@ 9
ຫ@@ 9
ອ@@ 9
ལ@@ 9
ི@@ 9
ུ@@ 9
ྒ@@ 9
န@@ 9
Ⴄ@@ 9
გ 9
ሓ@@ 9
ሕ@@ 9
ረ@@ 9
ቱ 9
ዓ@@ 9
ዝ@@ 9
ይ 9
ᓀ 9
យ@@ 9
ស 9
ី@@ 9
ᠨ 9
Ḽ@@ 9
ṃ 9
ức 9
ὺ@@ 9
⁻ 9
ℜ 9
∙ 9
⊆ 9
┌ 9
♂ 9
➣ 9
す@@ 9
せ@@ 9
ち 9
な 9
や@@ 9
ら 9
ォ@@ 9
ザ 9
ブ 9
ユ@@ 9
ロ 9
久@@ 9
事 9
井 9
以@@ 9
份@@ 9
伯@@ 9
体@@ 9
佛@@ 9
作@@ 9
健@@ 9
党@@ 9
出@@ 9
刘@@ 9
力@@ 9
友@@ 9
口 9
叶@@ 9
司 9
坂@@ 9
姫 9
宇@@ 9
守@@ 9
宋@@ 9
小 9
岡 9
希@@ 9
常@@ 9
德 9
忠 9
性@@ 9
恩@@ 9
才 9
托@@ 9
政 9
故@@ 9
於@@ 9
日本 9
春 9
最@@ 9
會@@ 9
朴@@ 9
歌@@ 9
民 9
流@@ 9
源@@ 9
漢 9
相@@ 9
県 9
知@@ 9
竹@@ 9
紀@@ 9
股@@ 9
胡 9
臣 9
苏@@ 9
落@@ 9
蒙@@ 9
虎@@ 9
裕@@ 9
親@@ 9
詩 9
警@@ 9
議@@ 9
跋@@ 9
路 9
那 9
開@@ 9
院@@ 9
陵 9
電@@ 9
面 9
鹿@@ 9
ꜣ 9
경 9
과 9
관@@ 9
너@@ 9
더 9
들 9
메@@ 9
물 9
미 9
밀@@ 9
베@@ 9
북@@ 9
브 9
생@@ 9
알@@ 9
오 9
용@@ 9
위 9
유 9
은@@ 9
일 9
크 9
티 9
합@@ 9
환 9
ﺗ@@ 9
ﻛ@@ 9
ﻴ@@ 9
𐰍@@ 9
𐰰 9
Durch 8
Jahren 8
améric@@ 8
angla@@ 8
année 8
aît 8
colon@@ 8
communes 8
dann 8
deci@@ 8
durante 8
días 8
endung 8
estudio 8
großen 8
hizo 8
kuwa 8
leich 8
lors 8
lors@@ 8
lugar 8
minh 8
mois 8
mondi@@ 8
nahme 8
país 8
pendant 8
pou@@ 8
presidente 8
proces@@ 8
singi 8
stän@@ 8
también 8
tragen 8
unkt 8
usawa 8
zwischen 8
ª 8
þ 8
Ă 8
Ć 8
Į@@ 8
ước 8
ǩ 8
ɤ 8
ɬ 8
ʰ 8
Ένω@@ 8
Ή@@ 8
Αντι@@ 8
Γεω@@ 8
Εθνική 8
Εκ@@ 8
Κωνστ@@ 8
Κόμ@@ 8
Μα@@ 8
Μουσ@@ 8
Ολυμπιακ@@ 8
Στα@@ 8
άβ@@ 8
άλασ@@ 8
άρχ@@ 8
ήγ@@ 8
ήρ@@ 8
ίμ@@ 8
ανδρ@@ 8
ασκ@@ 8
βασιλ@@ 8
γνω@@ 8
δρο@@ 8
εθν@@ 8
εισ@@ 8
ηση 8
θαν@@ 8
κόσ@@ 8
λευθερ@@ 8
λλογ@@ 8
μία 8
ματος 8
οικ@@ 8
ολογία 8
ονομ@@ 8
ούδ@@ 8
πέ@@ 8
πολη 8
πτ@@ 8
ραβ@@ 8
ρη 8
ριο 8
ροφ@@ 8
σφ@@ 8
ταρ@@ 8
τού@@ 8
τρα@@ 8
φαν@@ 8
ωρ@@ 8
ύ 8
ϛ 8
ϵ 8
Ѓ@@ 8
Ав@@ 8
Пор@@ 8
Пред@@ 8
Свети 8
бит@@ 8
вана 8
вед@@ 8
визи@@ 8
вод@@ 8
вол@@ 8
вро@@ 8
гия 8
для 8
дой 8
его 8
един@@ 8
зиден@@ 8
ква@@ 8
комму@@ 8
комплек@@ 8
крат@@ 8
кри@@ 8
кро@@ 8
лет@@ 8
лиза@@ 8
любо@@ 8
мей@@ 8
море 8
най@@ 8
нер@@ 8
ника 8
ну 8
об 8
обе@@ 8
оп@@ 8
остро@@ 8
пе 8
рак@@ 8
рах 8
рец 8
спи@@ 8
ступ@@ 8
това 8
том@@ 8
ту 8
уз@@ 8
университе@@ 8
футбо@@ 8
ща 8
ём 8
ёт 8
ѣ 8
ҥ 8
һ 8
ӈ@@ 8
ӏ 8
Ժ@@ 8
Փ@@ 8
Ֆ@@ 8
շ 8
آز@@ 8
أن 8
ائل 8
ابة 8
ادی 8
ادی@@ 8
اسی 8
اضي 8
الأك@@ 8
التح@@ 8
الثاني 8
الرو@@ 8
القر@@ 8
المح@@ 8
المسل@@ 8
امة 8
انق@@ 8
بری 8
بو 8
تا 8
تاب 8
تي 8
جمع@@ 8
جوا@@ 8
دُ@@ 8
راج@@ 8
رار 8
زند@@ 8
سلسل@@ 8
سية 8
شام 8
شري@@ 8
شیخ 8
صد@@ 8
عد 8
قات 8
كار@@ 8
كام@@ 8
كن@@ 8
لاد 8
لس 8
مار 8
مانية 8
مبار@@ 8
مخ@@ 8
مراد 8
مور@@ 8
مية 8
نظام 8
نوب@@ 8
هي 8
واء 8
وة 8
ورا@@ 8
ورية 8
ولا 8
وى 8
وية 8
يات 8
يز 8
يني 8
پور 8
ڕ@@ 8
یو@@ 8
۱@@ 8
ܙ@@ 8
ܚ@@ 8
ܣ 8
ބ@@ 8
ު 8
ެ 8
का 8
थ@@ 8
ना@@ 8
प@@ 8
मा@@ 8
री@@ 8
ी 8
ो 8
উ@@ 8
ক 8
ভ@@ 8
য@@ 8
ਜ@@ 8
ਨ@@ 8
ય@@ 8
સ@@ 8
હ@@ 8
ன@@ 8
ம 8
ಕ 8
ಸ@@ 8
ು 8
ග@@ 8
ත 8
ය@@ 8
ල 8
รั@@ 8
ล@@ 8
ศ@@ 8
ะ@@ 8
ำ@@ 8
็ 8
ད@@ 8
ན 8
အ@@ 8
့ 8
ွ@@ 8
ማ@@ 8
ስ 8
ብ 8
ወ@@ 8
ው@@ 8
ይ@@ 8
ᐍ@@ 8
ᒪ@@ 8
ᓯ@@ 8
ᖃ@@ 8
ᖏ@@ 8
ង@@ 8
់ 8
᠊ 8
ḏ 8
ạo 8
ầu 8
ẽ@@ 8
ệ 8
Ὄ@@ 8
⁴ 8
▶ 8
Ⱨ 8
ⴰ 8
ⴳ@@ 8
ⵔ@@ 8
か 8
け 8
こ 8
た 8
ょ@@ 8
ゥ@@ 8
ゲ@@ 8
チ 8
ツ 8
ネ@@ 8
中华@@ 8
丸 8
乃@@ 8
书 8
交@@ 8
京 8
今@@ 8
仮@@ 8
信 8
克 8
兰@@ 8
内@@ 8
军 8
勇 8
勝@@ 8
北 8
厥@@ 8
吉 8
命 8
咄@@ 8
善@@ 8
喜@@ 8
園 8
地区 8
场 8
始@@ 8
室@@ 8
宿 8
尊 8
屋@@ 8
屠@@ 8
岳 8
差@@ 8
干@@ 8
庁 8
库@@ 8
府@@ 8
律@@ 8
心 8
志 8
战@@ 8
戰 8
戸@@ 8
斎 8
料@@ 8
時 8
柯@@ 8
楚@@ 8
業@@ 8
橋 8
死 8
比 8
比@@ 8
池@@ 8
洲@@ 8
犁@@ 8
独@@ 8
獨@@ 8
珠@@ 8
略@@ 8
病@@ 8
白 8
盛@@ 8
目 8
省 8
石 8
立 8
系@@ 8
紀 8
縄@@ 8
羌@@ 8
耶@@ 8
聯@@ 8
般@@ 8
色@@ 8
英 8
華 8
萬@@ 8
葛@@ 8
蒲@@ 8
蜜@@ 8
行@@ 8
角 8
語@@ 8
豆@@ 8
路@@ 8
造 8
遺@@ 8
郭@@ 8
鉄@@ 8
阪@@ 8
陽 8
隆@@ 8
集@@ 8
雨@@ 8
雲@@ 8
霍@@ 8
革@@ 8
音 8
頭@@ 8
鬼@@ 8
鲁@@ 8
간 8
경@@ 8
계 8
궁@@ 8
권@@ 8
내 8
단@@ 8
더@@ 8
두@@ 8
룹 8
배@@ 8
범 8
병@@ 8
비 8
석@@ 8
슈@@ 8
씨@@ 8
울@@ 8
채@@ 8
치 8
카@@ 8
타 8
투@@ 8
특@@ 8
퍼@@ 8
허@@ 8
황@@ 8
ﮒ 8
ﻪ 8
𐰚@@ 8
𐱃@@ 8
𒀭@@ 8
Anfang 7
Biographie 7
Hàn 7
Indon@@ 7
Jahr 7
Jahrhundert 7
Jahrhunderts 7
Ort 7
Weltkri@@ 7
anischen 7
ayant 7
bierno 7
cambi@@ 7
celui 7
cette 7
cinq 7
commen@@ 7
commune 7
cual@@ 7
depuis 7
durant 7
durch@@ 7
endet 7
entw@@ 7
folg@@ 7
hatte 7
hunder@@ 7
ieren 7
install@@ 7
isant 7
itwa 7
ligne 7
married 7
neuen 7
occup@@ 7
quốc 7
returned 7
réalis@@ 7
région 7
schon 7
seiner 7
seit 7
sión 7
stieg 7
students 7
toute 7
trieb 7
vertr@@ 7
weiter 7
wenda 7
 7
¤ 7
Ý 7
âu 7
éx@@ 7
òa 7
último 7
Ă@@ 7
ăn 7
Ģ 7
ķ 7
ĺ@@ 7
Ņ 7
Ǝ@@ 7
ǝ 7
ǯ@@ 7
Ț 7
ɜ@@ 7
ɫ 7
ɮ 7
ɲ 7
ʐ@@ 7
ʝ@@ 7
ʹ 7
ʻ 7
͂ 7
Ανα@@ 7
Απο@@ 7
Αρχ@@ 7
Γεν@@ 7
Ελ@@ 7
Εν@@ 7
Επι@@ 7
Ζ 7
Θεσσαλον@@ 7
Μ 7
Μακεδ@@ 7
Τα 7
άντα 7
άρι 7
ίκης 7
ανου@@ 7
αυτο@@ 7
βο@@ 7
βολ@@ 7
γαρ@@ 7
γράφ@@ 7
δημ@@ 7
διά@@ 7
δικα@@ 7
είας 7
ειδ@@ 7
ειρ@@ 7
εκ 7
ελ 7
επι@@ 7
ζω@@ 7
ηδ@@ 7
ηλε@@ 7
θρ@@ 7
ικής 7
ιτ@@ 7
ιώ@@ 7
κοιν@@ 7
κρατ@@ 7
κόμ@@ 7
λει@@ 7
λλην@@ 7
μέρα 7
μαρ@@ 7
μελ@@ 7
νο@@ 7
πολ@@ 7
προσ@@ 7
πρό@@ 7
ρά 7
ρή@@ 7
ραγ@@ 7
ρακ@@ 7
σο@@ 7
στα@@ 7
σταση 7
στερ@@ 7
στον 7
ταλ@@ 7
ταξ@@ 7
τηγ@@ 7
τύ@@ 7
φορ@@ 7
ώδ@@ 7
ϑ@@ 7
ϖ 7
Є 7
Љ@@ 7
История 7
Йор@@ 7
Кли@@ 7
Мал@@ 7
Меж@@ 7
Рабо@@ 7
Раз@@ 7
Три@@ 7
Фи@@ 7
ане 7
бро@@ 7
вания 7
вари@@ 7
ват 7
ват@@ 7
вла@@ 7
времен@@ 7
гат@@ 7
гим@@ 7
дне@@ 7
душ@@ 7
ется 7
жан@@ 7
инди@@ 7
ины 7
иту@@ 7
кия 7
коман@@ 7
корпу@@ 7
кур@@ 7
литера@@ 7
лич@@ 7
май 7
мер@@ 7
нах 7
нем 7
нии 7
нима@@ 7
них 7
нию 7
нски 7
няя 7
око@@ 7
памя@@ 7
поль@@ 7
поч@@ 7
противо@@ 7
раз 7
рио@@ 7
ристи@@ 7
рон@@ 7
све@@ 7
сков@@ 7
сле@@ 7
слу@@ 7
смо@@ 7
стар@@ 7
сть@@ 7
ся 7
тво@@ 7
теат@@ 7
тель@@ 7
тор@@ 7
тура 7
удо@@ 7
ху 7
худож@@ 7
цией 7
чен 7
чие 7
шко@@ 7
ѕ@@ 7
Ғ 7
ҵ@@ 7
Һ 7
ӄ@@ 7
Ӧ 7
Ӱ 7
ӽ 7
Ա 7
Ճ@@ 7
Ջ@@ 7
հ 7
ռ 7
օ@@ 7
ֆ@@ 7
և 7
פ 7
ارد 7
اص 7
اف 7
الأر@@ 7
الان@@ 7
البر@@ 7
البل@@ 7
الحر@@ 7
الرا@@ 7
الشر@@ 7
الصح@@ 7
الض@@ 7
الفل@@ 7
المؤ@@ 7
المس@@ 7
المص@@ 7
انس@@ 7
انگ@@ 7
اه 7
بت 7
بح@@ 7
بلو@@ 7
بين 7
تاب@@ 7
تز@@ 7
جزی@@ 7
جو 7
جون 7
حز@@ 7
حص@@ 7
خط@@ 7
خلی@@ 7
دور@@ 7
دین 7
ذي 7
راد 7
رف 7
صی@@ 7
ضة 7
طة 7
ظم 7
عام@@ 7
عب 7
فا@@ 7
فاق 7
لاب 7
مجلس 7
مری@@ 7
مع 7
نت 7
نم@@ 7
نوا@@ 7
وسط 7
يت@@ 7
يس 7
يف 7
يل@@ 7
َّة 7
پرو@@ 7
پش@@ 7
ڠ@@ 7
ڤ 7
کار 7
کت@@ 7
کل@@ 7
کلا@@ 7
گرا@@ 7
ید 7
۹@@ 7
ܗ@@ 7
ܼ@@ 7
ި 7
ड 7
त@@ 7
दी 7
ध 7
नि@@ 7
ब 7
मा 7
मि@@ 7
मु@@ 7
राज 7
ष@@ 7
सा@@ 7
हिन 7
॥ 7
অ@@ 7
ই@@ 7
ো@@ 7
ਕ@@ 7
ਦ@@ 7
ં 7
ગ@@ 7
ડ@@ 7
ை 7
వ@@ 7
ാ@@ 7
ක@@ 7
ව@@ 7
ข@@ 7
แ@@ 7
ງ@@ 7
ດ@@ 7
ສ@@ 7
ິ@@ 7
စ@@ 7
ည 7
တ@@ 7
ူ@@ 7
း 7
Ⴕ@@ 7
Ⴢ 7
ለ@@ 7
ረ 7
ቀ@@ 7
በ 7
ኑ 7
ᑊ@@ 7
ᓪ@@ 7
គ@@ 7
ទ@@ 7
ḷ 7
Ṫ 7
ạ 7
ật 7
ột 7
ἦ@@ 7
ὔ@@ 7
ῆ 7
ῳ 7
ῳ@@ 7
⁺ 7
∼ 7
█ 7
○ 7
♫ 7
Ⱪ@@ 7
ⲙ@@ 7
ⵓ@@ 7
ⵙ@@ 7
え 7
さ 7
じ 7
す 7
っ 7
び 7
び@@ 7
も 7
ゃ@@ 7
わ@@ 7
コ 7
シ 7
ジ 7
ノ 7
メ 7
上 7
中國 7
乐@@ 7
九 7
仁@@ 7
体 7
使@@ 7
依@@ 7
修@@ 7
備@@ 7
冒@@ 7
切@@ 7
列@@ 7
劇@@ 7
助 7
動 7
卑 7
参@@ 7
史 7
吳@@ 7
呂@@ 7
周 7
唐 7
商@@ 7
善 7
园 7
圖@@ 7
地區 7
場@@ 7
墓@@ 7
失@@ 7
奘 7
委@@ 7
孫 7
宋 7
宏@@ 7
定 7
定@@ 7
宿@@ 7
寧@@ 7
尹@@ 7
峰 7
崎@@ 7
嶺@@ 7
左@@ 7
巻@@ 7
幕@@ 7
広@@ 7
度@@ 7
座 7
康 7
延@@ 7
恋@@ 7
成 7
戰@@ 7
承@@ 7
技@@ 7
护@@ 7
拳 7
攻@@ 7
放@@ 7
星@@ 7
晉 7
松 7
桜@@ 7
條@@ 7
棋@@ 7
次@@ 7
氏@@ 7
洛@@ 7
洞 7
津 7
深@@ 7
渡@@ 7
準@@ 7
焉@@ 7
燕@@ 7
物 7
理 7
瓦@@ 7
申@@ 7
留@@ 7
疆 7
的 7
省@@ 7
秀@@ 7
秋@@ 7
科 7
章 7
章@@ 7
節 7
紫@@ 7
级@@ 7
芝@@ 7
草 7
莫@@ 7
菜 7
蔵 7
行政@@ 7
諸@@ 7
记 7
话 7
谷 7
越@@ 7
跋 7
身@@ 7
輪@@ 7
车 7
迎@@ 7
近@@ 7
邪@@ 7
郎@@ 7
鄭@@ 7
酒@@ 7
銀@@ 7
鎮 7
锡@@ 7
陵@@ 7
雨 7
雪@@ 7
雲 7
震 7
霊@@ 7
靼 7
須@@ 7
飛@@ 7
餅 7
高 7
鮨 7
麗@@ 7
간@@ 7
개 7
골@@ 7
달@@ 7
를 7
림@@ 7
마 7
명@@ 7
별 7
별@@ 7
본@@ 7
션 7
손@@ 7
솔@@ 7
신 7
심@@ 7
악@@ 7
야@@ 7
요@@ 7
육@@ 7
으@@ 7
점 7
준@@ 7
직@@ 7
찬@@ 7
첫 7
케@@ 7
터 7
포@@ 7
훈 7
ﻟ@@ 7
ﻠ@@ 7
ﻧ@@ 7
／ 7
𐰀@@ 7
𐰃 7
𐰠@@ 7
𐰢 7
𐰢@@ 7
Ces 6
Chính 6
Công 6
Cộng 6
Desde 6
Dân 6
Hội 6
Namen 6
Nhà 6
Oktober 6
abril 6
así 6
beim 6
chữ 6
constru@@ 6
contribu@@ 6
culos 6
depor@@ 6
diese 6
dieses 6
especi@@ 6
están 6
gegen@@ 6
hacer 6
hatten 6
hecho 6
huwa 6
iriki 6
ishia 6
jewe@@ 6
junto 6
kodi 6
liegt 6
luss 6
mang 6
marri@@ 6
migu@@ 6
mismo 6
municipal@@ 6
neces@@ 6
ngay 6
norte 6
ofici@@ 6
opened 6
partici@@ 6
polí@@ 6
premiers 6
puede 6
públ@@ 6
quelle 6
recu@@ 6
served 6
tranh 6
utiliz@@ 6
veces 6
zake 6
zamani 6
 6
époque 6
úbl@@ 6
ública 6
Ĉ@@ 6
Ď 6
Ĝ@@ 6
Ĥ@@ 6
Ļ 6
Ļ@@ 6
ņ 6
œ 6
œuv@@ 6
ŕ@@ 6
Ť 6
Ŭ@@ 6
Ơ 6
ǰ@@ 6
Ș 6
ɒ 6
ʀ@@ 6
ʽ 6
ˈ 6
ˋ 6
˦ 6
˨ 6
Από 6
Αργ@@ 6
Βι@@ 6
Γκ@@ 6
Ιερ@@ 6
Ομ@@ 6
Πο@@ 6
Πολιτ@@ 6
Σου@@ 6
Σχολ@@ 6
άρα 6
ένα 6
αγγελ@@ 6
αγι@@ 6
αμπ@@ 6
αντιν@@ 6
αρι@@ 6
ατρ@@ 6
βί@@ 6
γαλ@@ 6
γρα@@ 6
δέ@@ 6
δεκα@@ 6
δού@@ 6
εω@@ 6
θα 6
θυ@@ 6
ιακ@@ 6
ιου@@ 6
ισσ@@ 6
κίν@@ 6
κε 6
κλει@@ 6
κολ@@ 6
λα 6
λαβ@@ 6
μένη 6
μετ@@ 6
μορφ@@ 6
νά@@ 6
νες 6
νόμ@@ 6
ξη 6
ολογ@@ 6
ορο@@ 6
πέντε 6
πί@@ 6
πει@@ 6
πολλ@@ 6
πρι@@ 6
ρίας 6
ρίζ@@ 6
ραση 6
σε 6
σμα 6
σμός 6
στη 6
στις 6
τά 6
ταυ@@ 6
τελ@@ 6
τια 6
τορ@@ 6
τροπ@@ 6
υζ@@ 6
υφ@@ 6
χλ@@ 6
χορ@@ 6
χρ@@ 6
χω@@ 6
ψε 6
ωπ@@ 6
ώρ@@ 6
ώσ@@ 6
ϵ@@ 6
Ј 6
Ћ 6
Вто@@ 6
Гла@@ 6
Евро@@ 6
Од@@ 6
Ос@@ 6
По 6
Тре@@ 6
Уи@@ 6
автомоби@@ 6
ати 6
ато 6
бере@@ 6
бре@@ 6
бъ@@ 6
българ@@ 6
бя 6
вал 6
век 6
вена 6
вз@@ 6
вобо@@ 6
вого 6
вод 6
вода 6
войны 6
вос@@ 6
въ@@ 6
вым 6
гда 6
гна@@ 6
год 6
грани@@ 6
графи@@ 6
дат 6
дат@@ 6
дво@@ 6
дивизи@@ 6
ел 6
жур@@ 6
зда@@ 6
име@@ 6
искус@@ 6
истории 6
ите 6
канди@@ 6
кари@@ 6
кономиче@@ 6
лаго@@ 6
ления 6
логи@@ 6
льно 6
мето@@ 6
мии 6
мина@@ 6
мона@@ 6
мост 6
над 6
ната 6
нер 6
низ@@ 6
ному 6
ност 6
ологи@@ 6
она 6
пло@@ 6
полк 6
пя@@ 6
река 6
рен 6
рим@@ 6
руп@@ 6
свя@@ 6
ским 6
ску@@ 6
следовате@@ 6
со 6
совет@@ 6
сра@@ 6
строитель@@ 6
тат 6
том 6
тре@@ 6
учи@@ 6
хоро@@ 6
хот@@ 6
цен@@ 6
част@@ 6
чин 6
шая 6
шения 6
ъл@@ 6
ью 6
ям 6
ѓ@@ 6
љ 6
ҡ 6
ӣ 6
ӧ 6
ӱ 6
Կ 6
Չ@@ 6
Ր@@ 6
խ 6
չ 6
ֻ@@ 6
־ 6
נ 6
أس 6
أص@@ 6
أه@@ 6
إلى 6
اء@@ 6
اة 6
اث@@ 6
اط 6
اع 6
افظ 6
اك 6
الأرض 6
الجز@@ 6
الذ@@ 6
الفت@@ 6
الفر@@ 6
الفي@@ 6
انت@@ 6
اوی@@ 6
اک 6
بال 6
بط@@ 6
بعة 6
بول@@ 6
تد@@ 6
جا 6
جنوبی 6
حل@@ 6
خت 6
خي@@ 6
درا@@ 6
دست@@ 6
دع@@ 6
دولة 6
رد 6
ریت 6
زيرة 6
سفی@@ 6
سلا@@ 6
سلی@@ 6
شب@@ 6
شک@@ 6
صة 6
صن@@ 6
صي@@ 6
طل@@ 6
طي 6
فري@@ 6
قدر 6
كوم@@ 6
لان@@ 6
لش@@ 6
لول 6
مت@@ 6
مض@@ 6
معر@@ 6
ملک 6
منظ@@ 6
هما 6
وص@@ 6
وط 6
يش 6
يك@@ 6
ينة 6
ينية 6
يوم 6
ٍ 6
ٹ 6
ښ@@ 6
کلی@@ 6
کے 6
ڶ 6
۱ 6
۲@@ 6
۳@@ 6
ލ@@ 6
ީ@@ 6
आर 6
का@@ 6
ख 6
फ 6
ब@@ 6
भ 6
या 6
ला 6
श@@ 6
शा@@ 6
हि@@ 6
ा 6
॒ 6
চ@@ 6
ম 6
৳ 6
ਰ 6
ਾ 6
ਿ 6
થ@@ 6
ધ@@ 6
લ@@ 6
ૂ@@ 6
அ@@ 6
ட 6
ழ@@ 6
ே@@ 6
ை@@ 6
ಕ@@ 6
ಗ@@ 6
ಡ@@ 6
ಬ@@ 6
ಮ@@ 6
ಯ 6
ಹ@@ 6
ೇ@@ 6
ക@@ 6
ත@@ 6
ය 6
จ@@ 6
ญ 6
ณ@@ 6
ห@@ 6
ວ 6
ང@@ 6
ཕ@@ 6
མ 6
ེ 6
ྗ@@ 6
ာ 6
Ⴀ 6
Ⴇ@@ 6
Ⴐ@@ 6
Ⴑ@@ 6
ላ@@ 6
ማ 6
ም 6
ሥ 6
ሥ@@ 6
ሪ 6
ሮ@@ 6
ባ@@ 6
ከ@@ 6
የ 6
ያ@@ 6
ድ@@ 6
ፍ@@ 6
ᐘ@@ 6
ᐧ@@ 6
ᑑ@@ 6
ដ 6
ឋ@@ 6
ណ@@ 6
ល@@ 6
អ@@ 6
ᠯ@@ 6
ḋ@@ 6
Ẓ@@ 6
ẖ@@ 6
ạch 6
ạnh 6
ậu 6
ẵ@@ 6
ời 6
ở 6
ỳ@@ 6
ἁ@@ 6
ἕ@@ 6
ἠ@@ 6
Ἴ@@ 6
Ἶ@@ 6
‒ 6
⁹ 6
₮ 6
ℰ 6
↨ 6
⋆ 6
⋯ 6
ⴱ@@ 6
ぎ@@ 6
で@@ 6
ば 6
れ 6
バ 6
フ 6
ヘ@@ 6
ミ 6
下 6
久 6
云@@ 6
亜@@ 6
介 6
仙@@ 6
任@@ 6
伝@@ 6
佛 6
倉@@ 6
共和国 6
内 6
写@@ 6
初@@ 6
前@@ 6
務@@ 6
单@@ 6
变 6
号 6
后@@ 6
吾@@ 6
命@@ 6
品@@ 6
問@@ 6
噺 6
图@@ 6
圖 6
報@@ 6
変@@ 6
夜 6
奴@@ 6
字@@ 6
孙@@ 6
客@@ 6
宣@@ 6
寿@@ 6
将@@ 6
尔 6
就@@ 6
尾 6
岩@@ 6
崔@@ 6
巻 6
师@@ 6
年 6
幸@@ 6
幼@@ 6
弘@@ 6
弥@@ 6
徐@@ 6
得@@ 6
愚 6
愛 6
慶@@ 6
战 6
拔@@ 6
持@@ 6
振@@ 6
敏@@ 6
新 6
昌@@ 6
易@@ 6
景@@ 6
曲 6
望@@ 6
未@@ 6
末@@ 6
机@@ 6
果 6
枝 6
查@@ 6
梨@@ 6
森 6
樹 6
檀@@ 6
欽@@ 6
歌 6
毗@@ 6
泽@@ 6
洞@@ 6
洪@@ 6
活@@ 6
清 6
渠@@ 6
湾@@ 6
源 6
演@@ 6
漫@@ 6
澤@@ 6
灣@@ 6
焼@@ 6
熊 6
熊@@ 6
琉@@ 6
産@@ 6
用@@ 6
甲@@ 6
男 6
男@@ 6
画@@ 6
盧@@ 6
目@@ 6
眉@@ 6
眞@@ 6
真 6
礼@@ 6
等@@ 6
精@@ 6
素@@ 6
缽@@ 6
羯 6
者 6
而@@ 6
育@@ 6
良@@ 6
芝 6
苏 6
蕨@@ 6
藏@@ 6
衛 6
袁@@ 6
解@@ 6
詰@@ 6
超@@ 6
足@@ 6
车@@ 6
遊@@ 6
過@@ 6
鄯@@ 6
金 6
錫@@ 6
鏡 6
铁@@ 6
閣@@ 6
阳@@ 6
陀@@ 6
雄@@ 6
集 6
零 6
霊 6
韃@@ 6
頓@@ 6
飞@@ 6
館@@ 6
鬼 6
魯@@ 6
鴨@@ 6
鶻 6
麵 6
麻@@ 6
黨@@ 6
건@@ 6
계@@ 6
공 6
관 6
귀@@ 6
극@@ 6
근 6
근@@ 6
년@@ 6
누@@ 6
들@@ 6
람 6
럼 6
루@@ 6
만 6
말@@ 6
매@@ 6
뮤@@ 6
밥 6
벌 6
법 6
산 6
삼@@ 6
설@@ 6
소 6
슬@@ 6
식 6
애 6
엔 6
을@@ 6
준 6
찬 6
첩 6
체@@ 6
초@@ 6
친@@ 6
투 6
티@@ 6
하 6
했@@ 6
행 6
형@@ 6
희@@ 6
ﬂ@@ 6
ﺒ@@ 6
ﻣ@@ 6
ﻤ@@ 6
￼ 6
𐭫@@ 6
𐰛 6
𐰜@@ 6
𐰞@@ 6
Cette 5
Diese 5
Ils 5
Một 5
Nhân 5
Tuy 5
Zusammen@@ 5
acción 5
années 5
avait 5
concentr@@ 5
dentro 5
diesen 5
dirig@@ 5
dài 5
dès 5
ectos 5
erreich@@ 5
erst 5
escri@@ 5
established 5
founded 5
grün@@ 5
habitants 5
ierte 5
ität 5
karibu 5
ngữ 5
nungen 5
oliki 5
partir 5
población 5
posición 5
première 5
présent@@ 5
quement 5
tinh 5
titul@@ 5
trabaj@@ 5
trang 5
tế 5
vement 5
worden 5
¯ 5
Ò@@ 5
Ù@@ 5
Ú 5
äude 5
ép 5
évol@@ 5
Đảng 5
đo@@ 5
đá 5
Ĕ@@ 5
Ě 5
ĸ@@ 5
ŕ 5
Ř 5
ượng 5
Ƶ@@ 5
ƶ 5
ƶ@@ 5
ǖ 5
ǖ@@ 5
Ǧ@@ 5
ǧ 5
ɟ@@ 5
ɫ@@ 5
ʎ@@ 5
ʏ 5
ˀ 5
˘ 5
̕ 5
̦ 5
Αθηνών 5
Ανατολ@@ 5
Βουλ@@ 5
Κο@@ 5
Περι@@ 5
Πόλε@@ 5
Ρ 5
άδες 5
άνω 5
ίδας 5
ίλι@@ 5
ίνη 5
ακό 5
ανά 5
αξ@@ 5
γεω@@ 5
γλώσσα 5
γραφή 5
δελφ@@ 5
δεν 5
δευ@@ 5
δη 5
διδ@@ 5
δικ@@ 5
δρα@@ 5
είδ@@ 5
είς 5
είων 5
ερ 5
ερν@@ 5
εφαλ@@ 5
ημερ@@ 5
θε 5
θεια 5
ικοί 5
ιπ@@ 5
ιω@@ 5
καρι@@ 5
κον@@ 5
λο 5
μάν@@ 5
μέρος 5
μας 5
μην@@ 5
μια 5
νέ@@ 5
οξ@@ 5
οσπον@@ 5
ούσ@@ 5
παλ@@ 5
παρα@@ 5
περί@@ 5
πν@@ 5
πο 5
ποδ@@ 5
πως 5
ράς 5
ρι 5
σας 5
σει 5
στη@@ 5
σω@@ 5
τήρ@@ 5
τής 5
ταγ@@ 5
ταμ@@ 5
τρί@@ 5
τρία 5
υπο@@ 5
υψ@@ 5
χεί@@ 5
ωβ@@ 5
ωματ@@ 5
ϊκ@@ 5
Ё@@ 5
Њ 5
Ў@@ 5
Георги 5
Глав@@ 5
Запад@@ 5
Олимпи@@ 5
Фран@@ 5
армии 5
без@@ 5
бор 5
вер 5
вид 5
виде@@ 5
вил 5
води@@ 5
вор@@ 5
восто@@ 5
вс@@ 5
все@@ 5
годов 5
гон@@ 5
государ@@ 5
дей@@ 5
диа@@ 5
дина@@ 5
дна 5
дон@@ 5
дре@@ 5
емы@@ 5
жен 5
жиз@@ 5
зат@@ 5
изи@@ 5
ино@@ 5
инте@@ 5
ителей 5
коро@@ 5
лка 5
лли@@ 5
лод@@ 5
лом 5
льной 5
мати@@ 5
мент 5
нам 5
науч@@ 5
нет 5
ник@@ 5
нова@@ 5
област 5
обы@@ 5
окон@@ 5
отно@@ 5
пи 5
пле@@ 5
площа@@ 5
поле@@ 5
пред@@ 5
прия@@ 5
рата 5
рей@@ 5
само@@ 5
свобо@@ 5
свои 5
ската 5
среди 5
сса 5
стве 5
ствие 5
ство@@ 5
стей 5
стин@@ 5
сторо@@ 5
стър 5
так@@ 5
террито@@ 5
уда@@ 5
уче@@ 5
фор@@ 5
ця@@ 5
чей 5
ческих 5
чил 5
чни 5
чной 5
чный 5
ющий 5
Ұ 5
Ҳ 5
ӕ@@ 5
ӯ@@ 5
Բ 5
Ն 5
ճ 5
պ 5
ם@@ 5
צ 5
آ 5
آن 5
أد@@ 5
ئة 5
اتحاد 5
ادية 5
ارف 5
ارک 5
است 5
اعظم 5
افت 5
الب 5
الحرب 5
العالم 5
العامة 5
العظ@@ 5
القي@@ 5
المدينة 5
الموس@@ 5
النق@@ 5
امي 5
اول 5
بز@@ 5
بنا@@ 5
بول 5
بية 5
تاريخ 5
تب 5
ترو@@ 5
ترک 5
تك@@ 5
تين 5
جار@@ 5
جد 5
حية 5
خد@@ 5
خر 5
خود 5
دائ@@ 5
دخ@@ 5
دور 5
ديد 5
رئ@@ 5
راج 5
رسول 5
زب@@ 5
زل 5
ستانی 5
سفر 5
سلطنت 5
سلو@@ 5
شخ@@ 5
ضي@@ 5
طالب 5
طب@@ 5
طور 5
عات 5
عالم@@ 5
عرب 5
عص@@ 5
عق@@ 5
علوم 5
علی@@ 5
غم 5
فا 5
فن@@ 5
قا 5
قان@@ 5
قانون 5
كون 5
كية 5
لاء 5
لت@@ 5
لغ@@ 5
للا@@ 5
لن@@ 5
مؤ@@ 5
ماس@@ 5
مغ@@ 5
مف@@ 5
موت 5
مود 5
نائ@@ 5
ناف@@ 5
نو 5
نين 5
هذا 5
هو 5
هٔ 5
واح@@ 5
وح@@ 5
وسط@@ 5
وع@@ 5
ونی 5
يز@@ 5
يس@@ 5
يُ@@ 5
١@@ 5
ٯ 5
کا 5
کر 5
ۋ 5
۶ 5
ܨ@@ 5
ތ@@ 5
ޔ@@ 5
ާ 5
कि@@ 5
कु@@ 5
गण@@ 5
च@@ 5
चन 5
छ@@ 5
ण@@ 5
ति 5
बो@@ 5
भ@@ 5
रत 5
लक 5
ि@@ 5
ु@@ 5
ू 5
े@@ 5
॑ 5
ট@@ 5
ষ 5
ৰ@@ 5
ਗ@@ 5
ੀ 5
ੁ 5
ੁ@@ 5
અ@@ 5
છ@@ 5
ટ@@ 5
દ@@ 5
ર 5
સ 5
ુ@@ 5
ந 5
ந@@ 5
ய 5
ள 5
ு 5
ூ@@ 5
ெ@@ 5
ோ@@ 5
ి 5
ి@@ 5
ಚ@@ 5
ದ@@ 5
ಪ@@ 5
ಮ 5
ಯ@@ 5
ರ 5
ಳ@@ 5
ಸ 5
ೆ 5
ೆ@@ 5
ര@@ 5
ස 5
ා 5
ෙ@@ 5
ก 5
ช@@ 5
ณ 5
ติ@@ 5
ธ@@ 5
บ@@ 5
มหา@@ 5
ร 5
ร@@ 5
วั@@ 5
ศ 5
ส@@ 5
ิน@@ 5
ี@@ 5
ุ@@ 5
ให@@ 5
ไ@@ 5
ຂ@@ 5
ປ@@ 5
། 5
ཆ@@ 5
ཇ@@ 5
པ@@ 5
ལ 5
ထ@@ 5
ယ 5
ီ 5
ီ@@ 5
ူ 5
ံ@@ 5
Ⴀ@@ 5
Ⴁ@@ 5
Ⴈ 5
Ⴊ 5
Ⴋ@@ 5
Ⴜ@@ 5
ყ 5
ለ 5
ሐ@@ 5
ራ@@ 5
ሰ@@ 5
ቲ 5
ኖ@@ 5
ኢ@@ 5
ዮ@@ 5
ደ 5
ጽ@@ 5
ᐠ 5
ᐤ 5
ᑋ@@ 5
ᑖ@@ 5
ᒋ@@ 5
ᒧ@@ 5
ᓐ@@ 5
ᔑ@@ 5
ᖁ@@ 5
ᛅ@@ 5
ខ 5
គ 5
ទ 5
ព 5
ល 5
ᠥ 5
ᠦ@@ 5
Ḩ 5
ḩ@@ 5
Ḽ 5
ṇ 5
ẓ 5
ạ@@ 5
ẹ 5
ền 5
ốc 5
ữa 5
Ἔ@@ 5
ἷ@@ 5
Ὑ@@ 5
Ὠ@@ 5
ὰ@@ 5
ῷ@@ 5
‖ 5
‪ 5
‼ 5
₁ 5
₃ 5
₄ 5
₦ 5
₰ 5
₴ 5
⇔ 5
∃ 5
∫ 5
≪ 5
⊂ 5
ⲉ@@ 5
ⲛ 5
ⲣ@@ 5
ⲧ@@ 5
ⵓ 5
ⵡ@@ 5
ⵢ@@ 5
お 5
く 5
じ@@ 5
づ@@ 5
と 5
ふ@@ 5
ぶ@@ 5
ま 5
ろ@@ 5
ァ 5
ガ 5
ダ 5
ッ 5
マ 5
ュ 5
且@@ 5
世界 5
中国 5
中心 5
乃 5
亮 5
仏@@ 5
仲@@ 5
保 5
傳@@ 5
八 5
凱@@ 5
刀@@ 5
利 5
别@@ 5
制@@ 5
剣 5
劇 5
力 5
功@@ 5
动 5
助@@ 5
努@@ 5
勝 5
勤@@ 5
區@@ 5
午@@ 5
华 5
卓@@ 5
協@@ 5
县@@ 5
参 5
哲@@ 5
嘉@@ 5
回 5
団@@ 5
土 5
基 5
墨@@ 5
壮@@ 5
夏@@ 5
大學 5
夷@@ 5
好@@ 5
姓 5
威 5
宁@@ 5
宇 5
宫 5
寇 5
寿 5
将 5
將 5
將@@ 5
局 5
岛 5
工程 5
希 5
帕@@ 5
序 5
店 5
庭@@ 5
役 5
徐 5
恩 5
恵@@ 5
情@@ 5
慶 5
懐@@ 5
所@@ 5
扎@@ 5
指@@ 5
推@@ 5
撃 5
撒@@ 5
敦@@ 5
斯 5
时@@ 5
昌 5
是@@ 5
杨@@ 5
柔@@ 5
桦 5
梵@@ 5
棠 5
植@@ 5
極 5
楽 5
樂 5
機 5
殺@@ 5
毛@@ 5
氣 5
求@@ 5
池 5
沁@@ 5
沈@@ 5
沙 5
泉@@ 5
泥@@ 5
浪@@ 5
涼@@ 5
淸 5
温@@ 5
湾 5
溫@@ 5
满@@ 5
火 5
無 5
然 5
照@@ 5
熟@@ 5
父@@ 5
爾 5
版@@ 5
琴 5
瓊@@ 5
界@@ 5
監@@ 5
県@@ 5
禅 5
禪 5
秋 5
種 5
種@@ 5
竜 5
米 5
納@@ 5
紫 5
結@@ 5
綾@@ 5
緑@@ 5
線 5
編 5
總@@ 5
红@@ 5
经 5
罗@@ 5
羽 5
翼@@ 5
能 5
臨@@ 5
興@@ 5
舱 5
船 5
艦@@ 5
葉 5
蓮@@ 5
蓼 5
蔣@@ 5
藩 5
虎 5
術@@ 5
言@@ 5
貞@@ 5
賢 5
越 5
通 5
造@@ 5
達 5
遠 5
邦 5
郁@@ 5
郡@@ 5
鄂@@ 5
重 5
錦@@ 5
鐘@@ 5
钦@@ 5
钵@@ 5
锦 5
間 5
閭 5
门 5
门@@ 5
防@@ 5
陀 5
陈@@ 5
陰@@ 5
雅 5
難@@ 5
雷@@ 5
静@@ 5
風 5
首@@ 5
體@@ 5
齊 5
齐@@ 5
龙 5
걸@@ 5
교@@ 5
규@@ 5
김 5
난 5
냉@@ 5
당@@ 5
덕@@ 5
려@@ 5
맹 5
몰@@ 5
문 5
버@@ 5
병 5
복@@ 5
빅@@ 5
살@@ 5
새@@ 5
쇼 5
숙 5
앙@@ 5
앤@@ 5
역@@ 5
올@@ 5
외@@ 5
용 5
워@@ 5
재 5
저@@ 5
족@@ 5
짓@@ 5
총@@ 5
추@@ 5
충@@ 5
코@@ 5
탕 5
토@@ 5
틴 5
함@@ 5
행@@ 5
환@@ 5
후@@ 5
ﮊ 5
ﺑ@@ 5
ﺧ@@ 5
ﺮ@@ 5
ﻘ@@ 5
｜ 5
� 5
👍 5
Bộ 4
Có 4
Kilom@@ 4
Kwa 4
Mungu 4
März 4
Seit 4
Thành 4
Trung 4
agosto 4
aient 4
ainsi 4
alidad 4
angaza 4
annt 4
annten 4
antigu@@ 4
bà 4
carrera 4
compte 4
conocido 4
cuando 4
cuatro 4
cá 4
dedor 4
desde 4
einz@@ 4
eshim@@ 4
espec@@ 4
establ@@ 4
estado 4
gehört 4
geord@@ 4
giai 4
gouvernement 4
había 4
halten 4
hiyo 4
hàng 4
hòa 4
iendo 4
ikuwa 4
irika 4
isième 4
keiten 4
không 4
lamu 4
mals 4
mito 4
municipio 4
muy 4
nchi 4
nombre 4
ocup@@ 4
ouest 4
película 4
près 4
prés@@ 4
péri@@ 4
sehr 4
shule 4
sistema 4
société 4
sprech@@ 4
standen 4
territoire 4
trabajo 4
ubwa 4
wieder@@ 4
wili 4
zinaz@@ 4
 4
 4
¶ 4
équi@@ 4
óm 4
ċ@@ 4
đồng 4
Ē 4
Ę 4
Ĝ 4
ĩa 4
Ĭ@@ 4
Ĳ 4
Ĵ 4
Ņ@@ 4
Ŋ 4
Ţ 4
ŧ@@ 4
Ÿ 4
Ÿ@@ 4
Ź@@ 4
ſ@@ 4
Ɔ@@ 4
Ɵ 4
ơn 4
ướng 4
ười 4
Ʋ@@ 4
Ƶ 4
ǂ@@ 4
Ƀ@@ 4
Ɍ@@ 4
ɟ 4
ʎ 4
ʙ@@ 4
ˁ 4
ˉ 4
ˌ 4
ˑ@@ 4
ˠ@@ 4
̍ 4
̝ 4
̰ 4
͜ 4
Ͱ 4
Ύ@@ 4
Αγίου 4
Βαλ@@ 4
Δήμ@@ 4
Ελλ@@ 4
Ελλάδας 4
Ευρωπαϊκ@@ 4
Ιω@@ 4
Κλ@@ 4
Μάρ@@ 4
Μεγ@@ 4
Νο@@ 4
Οικ@@ 4
Ου@@ 4
Σο@@ 4
Συν@@ 4
έδ@@ 4
έλευ@@ 4
έμ@@ 4
έξ@@ 4
έρα 4
έρας 4
έχ@@ 4
ήθ@@ 4
ίδι 4
αγωγ@@ 4
αντι@@ 4
από 4
αρκ@@ 4
αϊ@@ 4
γραμ@@ 4
δηλ@@ 4
δημο@@ 4
ειο 4
ελλην@@ 4
εμπ@@ 4
εται 4
ηρε@@ 4
ητής 4
ητική 4
θάνα@@ 4
θή@@ 4
θεν@@ 4
θερ@@ 4
ικές 4
ικού 4
καν 4
καταστ@@ 4
κε@@ 4
κο 4
κορ@@ 4
μάτων 4
μένος 4
μέσ@@ 4
μεγ@@ 4
μεσ@@ 4
μετα@@ 4
μικρ@@ 4
μισ@@ 4
μορφή 4
μυθ@@ 4
ναν 4
ντ@@ 4
νύ@@ 4
ξεις 4
οίκ@@ 4
οκρατ@@ 4
οργ@@ 4
πίσ@@ 4
παλαι@@ 4
πιστ@@ 4
πλη@@ 4
ποι 4
πους 4
πυρ@@ 4
ρίσ@@ 4
ροφή 4
ς@@ 4
σαν 4
στή@@ 4
στην 4
στο 4
συμβ@@ 4
σχολ@@ 4
ταν@@ 4
τελε@@ 4
τεύ@@ 4
τηγορ@@ 4
τρου 4
υνα@@ 4
φή 4
χο 4
χρόν@@ 4
ωση 4
ότητα 4
ύν@@ 4
ϐ@@ 4
Ϝ 4
ϝ@@ 4
Ћ@@ 4
Ў 4
Амери@@ 4
Во 4
До 4
Исто@@ 4
Све@@ 4
Спи@@ 4
Так@@ 4
Фор@@ 4
ави@@ 4
арх@@ 4
без 4
бур@@ 4
вание 4
вели@@ 4
вия 4
всех 4
вто@@ 4
вши@@ 4
гов@@ 4
гово@@ 4
граф@@ 4
груп@@ 4
дате@@ 4
дей 4
дения 4
дент@@ 4
дет@@ 4
догово@@ 4
дом 4
жав@@ 4
жава 4
звез@@ 4
зо 4
изда@@ 4
йска 4
йся 4
как 4
ката 4
кин@@ 4
коло@@ 4
кос@@ 4
кси@@ 4
лага@@ 4
лез@@ 4
лись 4
лите 4
лько 4
льного 4
мал@@ 4
маши@@ 4
меда@@ 4
мер 4
мили@@ 4
мин@@ 4
мно@@ 4
моби@@ 4
мой 4
музы@@ 4
муниципа@@ 4
наи@@ 4
наре@@ 4
насти@@ 4
ника@@ 4
ним 4
нк@@ 4
обре@@ 4
община 4
освобо@@ 4
оста@@ 4
пат@@ 4
плат@@ 4
пол 4
полити@@ 4
право@@ 4
президен@@ 4
проек@@ 4
пы 4
рази@@ 4
рая 4
ред@@ 4
рито@@ 4
рок 4
сам 4
сед@@ 4
сил 4
сим@@ 4
систе@@ 4
скую 4
сме@@ 4
смер@@ 4
современ@@ 4
сон 4
стал 4
стви@@ 4
ству@@ 4
тел 4
тие 4
тно 4
того 4
ток 4
треб@@ 4
трен@@ 4
треш@@ 4
труд@@ 4
тё@@ 4
управление 4
уча@@ 4
федера@@ 4
филь@@ 4
фон@@ 4
форма 4
форма@@ 4
хся 4
цер@@ 4
чат 4
человека 4
ший 4
ься 4
это 4
ённых 4
Ѡ 4
ѧ 4
Ѯ 4
Ҟ@@ 4
ҟ@@ 4
ұ 4
ӡ@@ 4
Ӷ 4
Ց@@ 4
ը@@ 4
כ 4
מ 4
׳ 4
״ 4
أك@@ 4
إن 4
ئی 4
ئی@@ 4
ائی@@ 4
اردو 4
اض@@ 4
الأد@@ 4
الاتحاد 4
الرح@@ 4
السل@@ 4
الطبي@@ 4
العام 4
القدم 4
اللا@@ 4
الية 4
امن 4
امی 4
انہ 4
باء 4
بات 4
بات@@ 4
بل 4
بلغ@@ 4
بوا@@ 4
بیر 4
تبا@@ 4
تت@@ 4
تج@@ 4
تط@@ 4
تعل@@ 4
تغ@@ 4
توب@@ 4
ثر 4
جب 4
جد@@ 4
جماعة 4
جن 4
جنوب 4
جور@@ 4
حس@@ 4
خلا@@ 4
دارة 4
ذا 4
ربية 4
روا@@ 4
ریس 4
سان@@ 4
سعو@@ 4
سند@@ 4
سو 4
سین 4
شادی 4
شر 4
شعب@@ 4
عائ@@ 4
عت 4
عن 4
غر@@ 4
غرا@@ 4
فتح 4
فض@@ 4
فقط 4
فل 4
فلسط@@ 4
فية 4
فيها 4
قائ@@ 4
قائد 4
قال 4
قلعہ 4
قین 4
لت 4
لف 4
لكرة 4
لند@@ 4
لگ@@ 4
مات 4
متح@@ 4
مجموعة 4
مسلم 4
مصر 4
معروف 4
مقام 4
ملا 4
مول@@ 4
مون@@ 4
مک@@ 4
میر 4
نح@@ 4
ندا 4
نية 4
واش@@ 4
والم@@ 4
وث@@ 4
وخ@@ 4
وري@@ 4
وط@@ 4
وله 4
ولی 4
ومت 4
ونا 4
وني 4
ويل 4
وہ 4
ویل 4
يخ@@ 4
يو 4
ٌ@@ 4
ٷ@@ 4
ٹ@@ 4
ټ@@ 4
پاکستان 4
پیش 4
ڠ 4
گر 4
گری 4
گز@@ 4
یع@@ 4
یہ 4
ے 4
۴ 4
۵ 4
۵@@ 4
۶@@ 4
ޙ@@ 4
आ@@ 4
ई 4
गि@@ 4
गु@@ 4
जय 4
ड@@ 4
दु@@ 4
दे@@ 4
देव 4
ना 4
नाथ 4
पी@@ 4
भा@@ 4
मन 4
मो@@ 4
राज@@ 4
राम 4
राष 4
रि@@ 4
ला@@ 4
ली 4
ली@@ 4
वी@@ 4
सि@@ 4
सू@@ 4
ा@@ 4
ार@@ 4
ত 4
ফ@@ 4
ষ@@ 4
স 4
ি 4
ু 4
ਬ 4
ੱ@@ 4
ક 4
ગ 4
ણ@@ 4
બ@@ 4
ો@@ 4
૧@@ 4
ର 4
இ@@ 4
ற@@ 4
ழ 4
ே 4
గ@@ 4
జ@@ 4
ద@@ 4
ర@@ 4
ಂ@@ 4
ಥ@@ 4
ಲ@@ 4
ೀ 4
ത@@ 4
യ@@ 4
ി@@ 4
ක 4
ී@@ 4
ේ 4
ตร 4
ประ@@ 4
ม 4
ย 4
รา@@ 4
รี@@ 4
ล 4
ลา@@ 4
วิ@@ 4
สุ@@ 4
อ@@ 4
อง@@ 4
าน 4
ิ@@ 4
ກ@@ 4
ຈ@@ 4
ຕ@@ 4
ທ@@ 4
ບ@@ 4
ມ@@ 4
ົ@@ 4
ແ@@ 4
ໄ@@ 4
່ 4
້ 4
ར 4
ခ@@ 4
ဝ@@ 4
ု 4
ှ@@ 4
Ⴂ@@ 4
Ⴃ@@ 4
Ⴌ@@ 4
ვ 4
კ 4
შ 4
ჶ@@ 4
ህ@@ 4
ሖ@@ 4
ሱ 4
ሲ@@ 4
ቡ@@ 4
ቤ@@ 4
ኣ@@ 4
ዕ@@ 4
ዘ@@ 4
ዛ@@ 4
ዲ@@ 4
ጊ@@ 4
ፋ@@ 4
Ꭶ@@ 4
ᐱ@@ 4
ᐹ@@ 4
ᑌ@@ 4
ᑰ@@ 4
ᒥ 4
ᒼ@@ 4
ᓐ 4
ᓵ@@ 4
ᕗ@@ 4
ᕲ@@ 4
ᖕ@@ 4
ច@@ 4
ដ@@ 4
ូ@@ 4
ែ@@ 4
ះ@@ 4
ᠢ 4
ᠬ@@ 4
ᠰ 4
ᠳ@@ 4
ᶇ@@ 4
ḇ 4
ḇ@@ 4
Ḋ@@ 4
ḡ 4
ḱ@@ 4
ḽ 4
ṛ 4
Ṡ 4
Ṯ@@ 4
ẞ 4
ồ 4
ổ 4
ỗ 4
ội 4
ữu 4
ὴ@@ 4
ὼ@@ 4
᾿ 4
ῇ 4
₀ 4
₇ 4
⅛ 4
↹ 4
∝ 4
⊥ 4
Ⱨ@@ 4
Ⱪ 4
ⲏ@@ 4
ⲟ@@ 4
ⴼ@@ 4
ⴽ@@ 4
ⵃ@@ 4
ⵖ@@ 4
ぐ@@ 4
げ@@ 4
ず 4
ず@@ 4
そ@@ 4
へ@@ 4
ゆ@@ 4
ェ 4
ケ 4
ニ 4
ヌ 4
ヌ@@ 4
ビ 4
ボ 4
ヶ@@ 4
ㅋ@@ 4
万 4
丹@@ 4
义 4
乙 4
书@@ 4
争@@ 4
五 4
今 4
仏 4
伏@@ 4
伐 4
伝 4
住@@ 4
何@@ 4
你 4
俊 4
俠 4
健 4
傅@@ 4
兒@@ 4
典 4
円@@ 4
军@@ 4
农@@ 4
冬@@ 4
分 4
加 4
勞@@ 4
勢 4
卓 4
卡@@ 4
參@@ 4
及@@ 4
向 4
启@@ 4
味@@ 4
問 4
噶@@ 4
团@@ 4
図@@ 4
图 4
圏 4
圓 4
在 4
圭 4
坂 4
坐@@ 4
堅 4
墟 4
夢 4
夫@@ 4
夷 4
奈@@ 4
好 4
妃 4
媛 4
孔 4
存 4
孝@@ 4
孟@@ 4
宝@@ 4
宮 4
容 4
寶 4
封@@ 4
射@@ 4
尉@@ 4
尚 4
尚@@ 4
局@@ 4
屯@@ 4
峨@@ 4
嵩@@ 4
席 4
幕 4
幣 4
干 4
幻@@ 4
庫@@ 4
彌@@ 4
征@@ 4
復@@ 4
徹 4
怛@@ 4
急@@ 4
恰@@ 4
悅@@ 4
悟@@ 4
惑@@ 4
意@@ 4
慕@@ 4
我 4
打@@ 4
技 4
抗@@ 4
摘@@ 4
撃@@ 4
敏 4
敕@@ 4
敬 4
敬@@ 4
斤@@ 4
施@@ 4
旅@@ 4
旦 4
昆@@ 4
昭 4
晶@@ 4
曷@@ 4
来 4
来@@ 4
果@@ 4
柱 4
校@@ 4
梁 4
梅 4
條 4
棋 4
森@@ 4
楢@@ 4
榮 4
標@@ 4
歡@@ 4
死@@ 4
段 4
殿 4
殿@@ 4
气 4
気 4
決@@ 4
沟@@ 4
泉 4
泰 4
渡 4
港 4
渾@@ 4
湯 4
滿@@ 4
澤 4
点@@ 4
烈 4
然@@ 4
爱 4
爱@@ 4
狐 4
猫 4
率 4
玛 4
玛@@ 4
珍@@ 4
瑪@@ 4
璠 4
瓶@@ 4
用 4
由 4
町@@ 4
疏@@ 4
盆@@ 4
盛 4
盟@@ 4
督 4
瞳 4
破@@ 4
硫@@ 4
祁@@ 4
祖@@ 4
祭 4
秀 4
程@@ 4
端@@ 4
管@@ 4
経 4
統@@ 4
絵 4
絵@@ 4
纳@@ 4
维@@ 4
習@@ 4
老 4
考 4
耶 4
能@@ 4
舒@@ 4
舞@@ 4
舟 4
芸@@ 4
苦@@ 4
莫 4
获@@ 4
菊@@ 4
菌 4
董 4
董@@ 4
蔘 4
蕃@@ 4
薛@@ 4
號 4
蜜 4
融@@ 4
蠕 4
衡@@ 4
裁@@ 4
裏@@ 4
襲@@ 4
角@@ 4
訪@@ 4
設 4
訶@@ 4
誘@@ 4
読 4
論 4
謙@@ 4
讀@@ 4
语@@ 4
豊@@ 4
賀 4
贝@@ 4
质@@ 4
贺@@ 4
起 4
趙 4
載@@ 4
輔 4
輪 4
辛@@ 4
辰 4
農@@ 4
逢@@ 4
連 4
進@@ 4
遠@@ 4
遼 4
郅@@ 4
鄧@@ 4
醢@@ 4
銃 4
鐵@@ 4
长@@ 4
間@@ 4
関 4
閩@@ 4
閭@@ 4
间@@ 4
阳 4
附@@ 4
际@@ 4
陆@@ 4
隊@@ 4
雜@@ 4
非@@ 4
韓 4
順@@ 4
頭 4
额@@ 4
风@@ 4
飲@@ 4
香 4
香港 4
骨 4
鮓 4
鮮 4
鶻@@ 4
鹿 4
麟 4
麴@@ 4
點@@ 4
鼻@@ 4
감@@ 4
강 4
검@@ 4
결@@ 4
규 4
길 4
내@@ 4
네@@ 4
녕 4
님 4
덤 4
독 4
독@@ 4
든 4
람@@ 4
랜@@ 4
렉@@ 4
려 4
룡 4
루 4
른@@ 4
린 4
말 4
맨@@ 4
명 4
모 4
목@@ 4
물@@ 4
밤 4
백 4
법@@ 4
봐 4
분 4
빨@@ 4
삼 4
세 4
슬 4
승 4
억 4
엘@@ 4
엠 4
열@@ 4
온 4
온@@ 4
와 4
운@@ 4
월@@ 4
윤 4
음 4
저 4
절 4
좋@@ 4
줄@@ 4
직 4
질@@ 4
찌@@ 4
채 4
철 4
쳐 4
클@@ 4
키 4
태 4
텔@@ 4
파 4
팔@@ 4
형 4
효@@ 4
히@@ 4
 4
ﭗ 4
ﺏ 4
ﺘ@@ 4
ﺩ 4
ﺮ 4
ﺳ@@ 4
ﺴ@@ 4
ﻄ@@ 4
ﻦ 4
ﻰ 4
𐭧@@ 4
𐭪@@ 4
𐭲@@ 4
𐰆 4
𐰏@@ 4
𐰑@@ 4
𐰔@@ 4
𐰤 4
𐰭@@ 4
𐰺 4
Hán 3
Người 3
Präs@@ 3
Thế 3
Tras 3
Trường 3
Tổng 3
Wilaya 3
almente 3
amoja 3
arabu 3
arufu 3
atifu 3
bahari 3
bió 3
bản 3
caract@@ 3
cargo 3
centro 3
ciud@@ 3
condu@@ 3
cáo 3
cây 3
damit 3
descu@@ 3
deuxième 3
diesem 3
distrito 3
ección 3
encontr@@ 3
encuentr@@ 3
espè@@ 3
estudi@@ 3
fahren 3
frente 3
gesam@@ 3
gestellt 3
hace 3
hayo 3
himu 3
igten 3
ihrer 3
importante 3
jähr@@ 3
kuto@@ 3
können 3
largo 3
ließ@@ 3
millones 3
mög@@ 3
mús@@ 3
nahm 3
nahmen 3
neben 3
nó 3
nói 3
nước 3
okana 3
pequ@@ 3
pesar 3
poder 3
préc@@ 3
président 3
représent@@ 3
secu@@ 3
segundo 3
siku 3
sowie 3
suiv@@ 3
série 3
thanh 3
tiếng 3
tuvo 3
tài 3
uyền 3
văn 3
wany@@ 3
weitere 3
yake 3
zao 3
 3
 3
Õ 3
Þ 3
ßer@@ 3
ày 3
ính 3
öffent@@ 3
úp 3
Ĉ 3
Ċ@@ 3
Đ 3
đi 3
ģ 3
Ĥ 3
Ł 3
Ň@@ 3
Ŏ@@ 3
Œ 3
Ś 3
Ŝ 3
Ŭ 3
Ź 3
Ƣ@@ 3
ường 3
ƴ 3
Ʒ 3
ǘ@@ 3
ǚ@@ 3
ǜ 3
ǜ@@ 3
Ƞ@@ 3
ȳ@@ 3
Ʌ 3
ɓ 3
ɓ@@ 3
ɗ@@ 3
ɘ 3
ɘ@@ 3
ɧ@@ 3
ɮ@@ 3
ɳ@@ 3
ɵ 3
ʈ@@ 3
ʋ 3
ʣ 3
ʱ@@ 3
ˆ 3
ˇ 3
˧ 3
̊ 3
̘ 3
̚ 3
̶ 3
̺ 3
Ͷ 3
Έχ@@ 3
Αθήνα 3
Βεν@@ 3
Για 3
Ελλάδ@@ 3
Εξ@@ 3
Ευρ@@ 3
Κοιν@@ 3
Μια 3
Οι 3
Ολυμπ@@ 3
Ορ@@ 3
Σε 3
άδα 3
άμεις 3
άνα@@ 3
άνδρ@@ 3
άνθρω@@ 3
άχ@@ 3
έβ@@ 3
έμβ@@ 3
έρνηση 3
ήλ@@ 3
ήφ@@ 3
αερ@@ 3
αιν@@ 3
ανο@@ 3
αύ@@ 3
βάλλ@@ 3
βιβλ@@ 3
γον@@ 3
διά 3
διο 3
δρά@@ 3
δρόμ@@ 3
δυνα@@ 3
δό@@ 3
δύνα@@ 3
δύο 3
εί 3
ειες 3
εικ@@ 3
ερι@@ 3
ζει 3
ητή 3
ιλι@@ 3
ισμ@@ 3
ιών 3
κατά 3
κατα@@ 3
κατο@@ 3
κομ@@ 3
κυκλ@@ 3
κόρ@@ 3
λάβ@@ 3
λίου 3
λαμβ@@ 3
λεπ@@ 3
λευτα@@ 3
λεύθερ@@ 3
μένων 3
μμ@@ 3
μορ@@ 3
μουσ@@ 3
μπου@@ 3
μό@@ 3
νησι@@ 3
ντ 3
οί@@ 3
ογραφ@@ 3
οκα@@ 3
οντας 3
ουμε 3
ουσία 3
οχή 3
πλο@@ 3
πορ@@ 3
που@@ 3
προστ@@ 3
πόλε@@ 3
ρίου 3
ρίς 3
ραφ@@ 3
ρν@@ 3
ρου@@ 3
στα 3
στασ@@ 3
στατ@@ 3
τέσσ@@ 3
τεχν@@ 3
τικά 3
τον@@ 3
τοπ@@ 3
τοπο@@ 3
φά@@ 3
φάν@@ 3
φέρ@@ 3
φθ@@ 3
φορά 3
χε 3
χει@@ 3
χν@@ 3
χολ@@ 3
χώρ@@ 3
ψη 3
ωμα 3
ωνστ@@ 3
ϊ 3
όνο 3
όπο@@ 3
ώνα 3
ϒ 3
Ϸ 3
ϸ@@ 3
Ѐ 3
Ђ 3
Ѓ 3
Ї 3
Ќ 3
Џ 3
Бри@@ 3
Кита@@ 3
Но 3
Нор@@ 3
Основ@@ 3
Пари@@ 3
Рай@@ 3
СА@@ 3
Софи@@ 3
Сред@@ 3
Шве@@ 3
Это 3
Юж@@ 3
административ@@ 3
ални 3
аре@@ 3
била 3
бле@@ 3
бло@@ 3
буду@@ 3
бю@@ 3
вате@@ 3
вну@@ 3
вом 3
гат 3
год@@ 3
годы 3
города 3
града 3
дале@@ 3
дах 3
два 3
дву@@ 3
дет 3
доб@@ 3
дол@@ 3
древ@@ 3
дя@@ 3
едно 3
жд@@ 3
ждан@@ 3
жена 3
живо@@ 3
жизни 3
жина 3
зву@@ 3
зма 3
зон 3
иде@@ 3
извест@@ 3
изо@@ 3
ито 3
их 3
каза@@ 3
кар 3
ката@@ 3
ким 3
кино@@ 3
кита@@ 3
ких 3
кой@@ 3
коно@@ 3
кономи@@ 3
кти@@ 3
ландия 3
лии 3
лимпи@@ 3
логия 3
лся 3
луч@@ 3
льных 3
мате@@ 3
меди@@ 3
медици@@ 3
между 3
международ@@ 3
мени 3
мери@@ 3
меха@@ 3
мъ@@ 3
назва@@ 3
нами 3
нд 3
нем@@ 3
нес 3
ните@@ 3
ници 3
нове@@ 3
нор@@ 3
ност@@ 3
ную 3
оба@@ 3
области 3
песни 3
печат@@ 3
пис@@ 3
писание 3
пита@@ 3
план@@ 3
пли@@ 3
под 3
пози@@ 3
поло@@ 3
полу@@ 3
пора@@ 3
поэ@@ 3
права 3
правитель@@ 3
пробле@@ 3
продол@@ 3
пти@@ 3
развити@@ 3
реки 3
рих 3
рован@@ 3
роден 3
роди@@ 3
ряд 3
ряд@@ 3
сво@@ 3
селе@@ 3
сили 3
сли 3
сни 3
сни@@ 3
сно 3
собо@@ 3
ссо@@ 3
станов@@ 3
ств 3
сч@@ 3
так 3
тем@@ 3
тол@@ 3
тора 3
точ@@ 3
тран@@ 3
три 3
тся 3
училище 3
ферен@@ 3
филосо@@ 3
фильм 3
хия 3
художе@@ 3
цио@@ 3
цу 3
чело@@ 3
чем 3
чемпио@@ 3
чения 3
чно 3
чо 3
шего 3
ших 3
шла 3
щая 3
ют 3
ѐ 3
ёл 3
ђ 3
њ 3
ќ 3
ѡ 3
Ѱ 3
ѳ@@ 3
Ѵ 3
ѵ 3
Ҕ@@ 3
Ҙ 3
Ҥ@@ 3
Ҫ 3
Ҫ@@ 3
ҫ 3
ҭ@@ 3
ҳ 3
ҹ@@ 3
ӕ 3
ӛ 3
ӣ@@ 3
Ӱ@@ 3
ԓ@@ 3
Ԛ 3
ԛ 3
Ԝ 3
Ժ 3
Ծ@@ 3
Հ 3
Ձ@@ 3
օ 3
ֿ@@ 3
ן@@ 3
װ@@ 3
ײ@@ 3
؛ 3
أف@@ 3
إلا 3
ئر@@ 3
ئن 3
اتی 3
اخت@@ 3
ادات 3
اذ 3
ارب 3
افغ@@ 3
الأل@@ 3
البا@@ 3
الثق@@ 3
الحدي@@ 3
الشرق@@ 3
العالم@@ 3
العلا@@ 3
الف 3
اللغة 3
اللہ 3
المث@@ 3
المد@@ 3
المسي@@ 3
المط@@ 3
المملكة 3
المنا@@ 3
المي@@ 3
النس@@ 3
الوط@@ 3
امیر 3
اون 3
اً 3
اگ@@ 3
ایا 3
ایل 3
باع@@ 3
بج@@ 3
بنی 3
بچ@@ 3
بہ@@ 3
بیان 3
تاج 3
تان 3
تس@@ 3
تل@@ 3
ثة 3
ثم 3
جات 3
جات@@ 3
جل 3
جما@@ 3
جمي@@ 3
جنا@@ 3
جنة 3
جنگ@@ 3
حال 3
حل 3
خی 3
داخ@@ 3
دون@@ 3
ديدة 3
رائ@@ 3
ربی 3
روس 3
روف 3
ريق 3
رًا 3
ریا 3
ریاست 3
ریل 3
زية 3
زید 3
سام 3
ستی 3
سرائ@@ 3
سل 3
سنگ@@ 3
سوم 3
سک@@ 3
شریف 3
شن 3
شہ@@ 3
صاحب 3
طان 3
طاني 3
طلا@@ 3
ظر 3
ظهر 3
عراق 3
عل 3
عليه 3
عم 3
عی 3
غل@@ 3
فارسی 3
قبال 3
قض@@ 3
قل 3
قوم 3
كتب 3
كرة 3
كول@@ 3
كومة 3
لوب 3
ليس 3
ماني 3
محافظ@@ 3
مخت@@ 3
مدی@@ 3
مذ@@ 3
مرح@@ 3
مسلمان 3
مسي@@ 3
مظ@@ 3
منی 3
نادي 3
نار@@ 3
نان@@ 3
نى 3
واحد 3
واست@@ 3
وال 3
والا 3
وسی 3
وض@@ 3
وقت 3
وما 3
وير 3
يع@@ 3
يف@@ 3
يه@@ 3
ً@@ 3
ًا 3
١ 3
پال 3
پر 3
پنج@@ 3
پنس@@ 3
ڈ@@ 3
ډ@@ 3
ڏ 3
ڑ@@ 3
ژن 3
ڨ 3
کت 3
کرا@@ 3
کس@@ 3
کشمیر 3
کل 3
کم@@ 3
کن 3
کون@@ 3
کیا 3
ګ 3
ڬ@@ 3
گرو@@ 3
گور@@ 3
گی 3
ۀ@@ 3
یار 3
یز 3
ێ 3
ې 3
ۚ 3
۪ 3
۷ 3
ܚ 3
ܠ 3
ܡ 3
ܰ@@ 3
ܸ@@ 3
ܹ@@ 3
ܼ 3
ݢ@@ 3
ސ@@ 3
आज 3
इ@@ 3
कृष 3
गढ 3
घ@@ 3
ङ 3
चा@@ 3
जी 3
जु@@ 3
झ@@ 3
ञा@@ 3
ट@@ 3
ठी 3
तन 3
दर 3
दा@@ 3
दि@@ 3
दिल 3
देव@@ 3
देश@@ 3
नी 3
पार@@ 3
पाल 3
पूर 3
पे@@ 3
भारत 3
भी@@ 3
मण 3
मद 3
मह@@ 3
मान 3
मी@@ 3
मे@@ 3
रच@@ 3
रम 3
रह 3
राम@@ 3
रिय 3
विष 3
वे@@ 3
वै@@ 3
शि@@ 3
शी@@ 3
शु@@ 3
सी 3
ह 3
हम 3
ही@@ 3
ीन 3
ू@@ 3
ो@@ 3
। 3
ঁ@@ 3
খ@@ 3
ঙ 3
চ 3
জ 3
ট 3
ল 3
হ 3
ৈ@@ 3
ਅ@@ 3
ਉ 3
ਘ 3
ਨ 3
ਪ@@ 3
ਬ@@ 3
ਭ@@ 3
ਲ@@ 3
ੂ 3
ੂ@@ 3
ੋ@@ 3
ઠ@@ 3
ત 3
પ 3
શ 3
શ@@ 3
ુ 3
ૂ 3
૩@@ 3
૪ 3
૯@@ 3
ା@@ 3
ୋ@@ 3
ச 3
ள@@ 3
ஸ 3
ொ@@ 3
క@@ 3
త@@ 3
న@@ 3
బ@@ 3
మ@@ 3
య@@ 3
ర 3
ష 3
స@@ 3
ు 3
ృ@@ 3
ಜ 3
ಣ@@ 3
ತ@@ 3
ಲ 3
ಳ 3
ಶ@@ 3
ಿ 3
ೀ@@ 3
ೊ@@ 3
ം 3
ന@@ 3
പ@@ 3
വ@@ 3
ി 3
ു@@ 3
ൻ 3
ව 3
ශ 3
ෂ 3
හ 3
හ@@ 3
ී 3
ො@@ 3
กรุง@@ 3
กิ@@ 3
คร@@ 3
ง 3
จักร@@ 3
ช 3
ด 3
ด@@ 3
ตา@@ 3
ทั@@ 3
บาล 3
บุ@@ 3
ป 3
ปร@@ 3
มุ@@ 3
ยา 3
วง@@ 3
ห 3
อด@@ 3
อน@@ 3
อย@@ 3
อร 3
อาณา@@ 3
าน@@ 3
ิ 3
เ@@ 3
เข@@ 3
เม@@ 3
โน@@ 3
ຄ@@ 3
ຊ@@ 3
ະ 3
ຽ@@ 3
ྐ@@ 3
ྟ@@ 3
က 3
ဇ@@ 3
တ 3
ဒ@@ 3
ပ 3
ဖ@@ 3
Ⴈ@@ 3
Ⴊ@@ 3
Ⴔ@@ 3
Ⴘ@@ 3
ქ 3
ჳ@@ 3
ჶ 3
ሕ 3
ሩ 3
ሳ 3
ሴ 3
ቴ@@ 3
ች 3
ነ 3
ና@@ 3
ኛ 3
እ 3
ኰ@@ 3
ዊ 3
ዋ@@ 3
የ@@ 3
ዳ@@ 3
ጅ 3
ጣ@@ 3
ጸ@@ 3
ፈ@@ 3
Ꮃ@@ 3
Ꮿ 3
ᐸ@@ 3
ᑕ 3
ᒌ@@ 3
ᒑ@@ 3
ᒻ 3
ᒻ@@ 3
ᓂ 3
ᓃ@@ 3
ᔅ@@ 3
ᔨ@@ 3
ᔮ@@ 3
ᕙ@@ 3
ᖓ@@ 3
ᖚ 3
ᖫ 3
ᖬ@@ 3
ᖽ@@ 3
ᖿ 3
ᛋ@@ 3
ញ 3
ធ@@ 3
ភ 3
រ 3
ៀ@@ 3
៉ 3
៊ 3
᠋ 3
ᠤ@@ 3
ᠥ@@ 3
ᠨ@@ 3
ᠯ 3
ᠷ@@ 3
ᵽ 3
ᶄ 3
Ḋ 3
Ḏ@@ 3
Ḑ 3
Ḡ@@ 3
ḣ 3
ḩ 3
ḻ 3
ḻ@@ 3
ṁ 3
ṉ@@ 3
Ṛ@@ 3
ṡ 3
ṡ@@ 3
ṫ@@ 3
Ṭ 3
ải 3
ấu 3
ắc 3
ặng 3
Ẹ@@ 3
ẻ 3
ếm 3
ếu 3
ỉ 3
ỉ@@ 3
ống 3
ục 3
ἀ 3
ἅ@@ 3
ἤ@@ 3
ἱ 3
Ὕ@@ 3
ὶ@@ 3
ᾱ 3
Ὲ@@ 3
ῑ 3
ῖ 3
῾ 3
․ 3
‴ 3
⁸ 3
ⁿ 3
₆ 3
₫ 3
₸ 3
Ⅲ 3
↵ 3
∉ 3
∘ 3
≝ 3
⌘ 3
☺ 3
♪ 3
❤ 3
Ᵽ@@ 3
ⱨ@@ 3
ⱪ@@ 3
ⲓ 3
ⲗ@@ 3
ⲱ@@ 3
ⵔ 3
ⵛ@@ 3
々 3
々@@ 3
あ 3
げ 3
ざ@@ 3
つ 3
ぬ@@ 3
は 3
べ@@ 3
む@@ 3
め 3
ゆ 3
エ 3
オ 3
ゾ@@ 3
デ 3
ネ 3
ワ 3
ヴ 3
丁 3
世 3
丘@@ 3
东 3
丸@@ 3
为 3
丽@@ 3
乎@@ 3
乐 3
乡@@ 3
于@@ 3
亚 3
亚@@ 3
亞@@ 3
介@@ 3
仙 3
伊 3
休@@ 3
传 3
传@@ 3
伯 3
佗@@ 3
使 3
來@@ 3
侨@@ 3
俟@@ 3
倖@@ 3
倭 3
倭@@ 3
備 3
働@@ 3
像 3
僕@@ 3
僚@@ 3
儀 3
儉 3
充@@ 3
全 3
关 3
兴@@ 3
其@@ 3
具@@ 3
冷@@ 3
净@@ 3
准@@ 3
出 3
刃@@ 3
刑@@ 3
判@@ 3
刺@@ 3
則@@ 3
剛 3
劉 3
努 3
勃@@ 3
勉 3
勤 3
包@@ 3
匐 3
匡@@ 3
医@@ 3
协@@ 3
卐 3
卫@@ 3
又@@ 3
友 3
反@@ 3
叶 3
司@@ 3
君 3
吹@@ 3
吾 3
咥@@ 3
哀@@ 3
商 3
啟@@ 3
喬@@ 3
四 3
园@@ 3
図 3
園@@ 3
圭@@ 3
地方 3
圳@@ 3
坊@@ 3
坤@@ 3
坪@@ 3
塚@@ 3
增@@ 3
壁@@ 3
壇 3
壤@@ 3
変 3
多 3
央 3
头@@ 3
奇 3
奈 3
奚 3
奥@@ 3
奸@@ 3
如 3
如@@ 3
妖@@ 3
姫@@ 3
威@@ 3
娘 3
嬌 3
孙 3
季@@ 3
孤@@ 3
学院 3
學 3
完@@ 3
宏 3
実 3
室 3
容@@ 3
密 3
富 3
寒@@ 3
寛@@ 3
察 3
対@@ 3
對@@ 3
導@@ 3
岳@@ 3
巨@@ 3
巩@@ 3
币 3
帶 3
幹@@ 3
庙 3
度 3
庫 3
庭 3
庵 3
开@@ 3
弁@@ 3
弘 3
弟@@ 3
弼 3
录 3
彦@@ 3
彩@@ 3
彭@@ 3
微@@ 3
忍@@ 3
怨@@ 3
怪 3
息@@ 3
悉@@ 3
悠@@ 3
惠@@ 3
懷@@ 3
戛@@ 3
戲 3
戸 3
房 3
房@@ 3
抖@@ 3
报 3
拘@@ 3
招@@ 3
拜@@ 3
拠@@ 3
改@@ 3
攻 3
数@@ 3
斎@@ 3
施 3
旗@@ 3
早 3
早@@ 3
時間 3
晃 3
晨 3
曲@@ 3
曼@@ 3
曾@@ 3
有 3
朗 3
望 3
末 3
杏 3
杜@@ 3
杯@@ 3
東 3
柏 3
柏@@ 3
柳 3
桂 3
桃@@ 3
案 3
桑@@ 3
梨 3
棒 3
楼 3
楽@@ 3
様 3
様@@ 3
櫻@@ 3
權@@ 3
欢@@ 3
欧@@ 3
欲@@ 3
步@@ 3
歲 3
歲@@ 3
歳@@ 3
殊 3
段@@ 3
殺 3
气@@ 3
氣@@ 3
永 3
沢 3
沮@@ 3
沼@@ 3
洙 3
浅@@ 3
浜@@ 3
浩@@ 3
消@@ 3
淑@@ 3
淡@@ 3
淳@@ 3
渠 3
游@@ 3
湯@@ 3
溪@@ 3
滿 3
潘@@ 3
潤@@ 3
潮@@ 3
澳 3
濤 3
灣 3
炎@@ 3
烧@@ 3
熱@@ 3
燒@@ 3
燕 3
版 3
牙@@ 3
牛@@ 3
牧 3
特 3
狂@@ 3
狐@@ 3
狗 3
獣@@ 3
玄 3
玲@@ 3
琦 3
琳 3
産 3
甫 3
畫@@ 3
疫@@ 3
登@@ 3
相 3
盾 3
督@@ 3
知 3
短@@ 3
砲 3
碇 3
碩@@ 3
磨@@ 3
示@@ 3
祈@@ 3
祐@@ 3
祭@@ 3
祿 3
禅@@ 3
福 3
禪@@ 3
禹 3
秦@@ 3
稲@@ 3
穆 3
穆@@ 3
窟 3
童 3
童@@ 3
競@@ 3
笑@@ 3
笠@@ 3
第一@@ 3
等 3
粤@@ 3
糸@@ 3
紅 3
紇 3
級 3
素 3
紳@@ 3
終@@ 3
經@@ 3
継 3
織@@ 3
组 3
羊@@ 3
群@@ 3
耆@@ 3
耿@@ 3
聖@@ 3
聞 3
聲@@ 3
肥@@ 3
胤 3
腐 3
腹 3
至@@ 3
致@@ 3
舊@@ 3
般 3
艦 3
色 3
节 3
苾 3
茂 3
范@@ 3
茹 3
荒@@ 3
莊@@ 3
莎@@ 3
菓 3
菩@@ 3
菱 3
菱@@ 3
蔡@@ 3
薩 3
藏 3
藥 3
蘇 3
蘭 3
處 3
虞@@ 3
蝶 3
衆@@ 3
街 3
表@@ 3
装@@ 3
製@@ 3
詩@@ 3
誠 3
說@@ 3
誰@@ 3
謙 3
貝@@ 3
貞 3
貴 3
貴@@ 3
貿@@ 3
賛@@ 3
賞 3
赛@@ 3
赤 3
走@@ 3
跡 3
軾 3
輝 3
轄@@ 3
辉 3
辛 3
辺 3
迅 3
还@@ 3
进@@ 3
迪@@ 3
追@@ 3
速@@ 3
週@@ 3
進 3
逸@@ 3
選@@ 3
邏@@ 3
郷 3
酢 3
醋@@ 3
鈴 3
鋼@@ 3
録 3
鎮@@ 3
鏡@@ 3
锦@@ 3
閥 3
關 3
闽@@ 3
阪 3
陶@@ 3
隆 3
雍@@ 3
雙@@ 3
離@@ 3
雷 3
電 3
露@@ 3
靈@@ 3
靑@@ 3
靜@@ 3
鞑@@ 3
順 3
頡@@ 3
額@@ 3
類@@ 3
风 3
食 3
食@@ 3
馆 3
騰@@ 3
驅@@ 3
鬪 3
魏@@ 3
魔@@ 3
魚 3
魚@@ 3
鶴@@ 3
鹘 3
麗 3
麦@@ 3
麻 3
黒 3
默@@ 3
黠@@ 3
齊@@ 3
ꜣ@@ 3
ꜥ@@ 3
ꞑ 3
감 3
같@@ 3
게@@ 3
겠@@ 3
겨@@ 3
과@@ 3
그 3
글 3
금 3
급 3
길@@ 3
까@@ 3
꽃@@ 3
난@@ 3
날 3
넘 3
년 3
놀@@ 3
놈 3
뉴 3
늘 3
닝@@ 3
담@@ 3
덕 3
때@@ 3
떠@@ 3
랙@@ 3
량@@ 3
련@@ 3
령 3
령@@ 3
롯@@ 3
룡@@ 3
르@@ 3
름@@ 3
릉 3
립 3
릿 3
막 3
맨 3
머@@ 3
멜@@ 3
몽 3
바 3
박 3
반 3
발@@ 3
번@@ 3
벳 3
변 3
변@@ 3
복 3
본 3
분@@ 3
새 3
생 3
설 3
숙@@ 3
순@@ 3
술@@ 3
쉽@@ 3
싱@@ 3
싶@@ 3
싸@@ 3
쌍@@ 3
안 3
약 3
양 3
와@@ 3
완 3
왜@@ 3
욱 3
웅 3
응@@ 3
익@@ 3
임 3
입@@ 3
있@@ 3
작@@ 3
쟁 3
적 3
족 3
중 3
즈@@ 3
집 3
집@@ 3
창@@ 3
천 3
축@@ 3
츠 3
탐@@ 3
탑 3
택 3
텐@@ 3
톨@@ 3
통@@ 3
팝 3
패@@ 3
페@@ 3
필 3
할@@ 3
함 3
향@@ 3
헌 3
헌@@ 3
헬@@ 3
혁@@ 3
혜 3
혼@@ 3
ﬁ 3
ﷺ 3
ﺋ@@ 3
ﺑ 3
ﺖ 3
ﺟ@@ 3
ﺠ@@ 3
ﺤ@@ 3
ﺪ@@ 3
ﺫ 3
ﺯ@@ 3
ﺸ@@ 3
ﻋ@@ 3
ﻔ@@ 3
ﻕ 3
ﻚ 3
ﻢ 3
ﻳ@@ 3
； 3
＝ 3
𐊕@@ 3
𐊗@@ 3
𐌑 3
𐌕@@ 3
𐎠@@ 3
𐎼@@ 3
𐩽 3
𐭠@@ 3
𐭩 3
𐭩@@ 3
𐭬@@ 3
𐰕 3
𐰲@@ 3
𐰾 3
𒋫@@ 3
Chiến 2
Después 2
Dezember 2
Gebiet 2
Gebäude 2
Hồng 2
Khi 2
Kilometer 2
Liên 2
Mitgli@@ 2
Nhật 2
Nội 2
Pháp 2
Quân 2
También 2
Từ 2
Vương 2
Zweiten 2
acional 2
alement 2
ambaye 2
américain 2
anisha 2
announc@@ 2
annte 2
atikana 2
ausge@@ 2
bekannt 2
besonder@@ 2
besondere 2
blieb 2
bunge 2
chiến 2
chủ 2
comer@@ 2
condado 2
construcción 2
crí@@ 2
cái 2
công 2
donde 2
découver@@ 2
dù 2
effet 2
einige 2
encu@@ 2
enero 2
estudios 2
febr@@ 2
folgenden 2
französ@@ 2
groupe 2
hacia 2
halb 2
hariki 2
hiệu 2
ihren 2
julio 2
jumla 2
junio 2
jwa 2
keine 2
kinh 2
kwanza 2
línea 2
moins 2
mtu 2
mujeres 2
mwan@@ 2
mật 2
mẹ 2
namba 2
nghĩa 2
nombr@@ 2
nombre@@ 2
nuev@@ 2
nueva 2
ommen 2
otras 2
ouvent 2
pequeñ@@ 2
phim 2
pháp 2
phía 2
pitia 2
primera 2
proy@@ 2
proyecto 2
quân 2
quận 2
sechs 2
según 2
seines 2
sido 2
sprüng@@ 2
stamm@@ 2
steht 2
ständi@@ 2
système 2
sông 2
tement 2
tenía 2
timu 2
troisième 2
trung 2
tịch 2
tục 2
tự 2
verschied@@ 2
vieron 2
và 2
wever 2
weza 2
wurden 2
wäh@@ 2
während 2
zahl 2
zote 2
zurück 2
zwa 2
 2
 2
 2
Ð 2
Ò 2
Ù 2
áu 2
äche 2
ächst 2
èrement 2
época 2
étaient 2
ùng 2
Ā 2
ăm 2
Ą 2
Ą@@ 2
đình 2
Ė@@ 2
Ę@@ 2
Ħ 2
ĳ@@ 2
ĸ 2
ĺ 2
Ľ 2
Ń 2
Ŏ 2
ŧ 2
Ů 2
Ų 2
ŷ 2
ſ 2
Ǝ 2
ƞ 2
Ʃ 2
ườ@@ 2
ƿ@@ 2
Ǩ 2
Ǯ 2
ȋ 2
ȝ@@ 2
ȣ@@ 2
ɖ@@ 2
ɗ 2
ɢ 2
ɥ@@ 2
ɰ 2
ɱ@@ 2
ɸ 2
ɹ 2
ɺ 2
ɽ 2
ɽ@@ 2
ʀ 2
ʈ 2
ʌ 2
ʑ 2
ʝ 2
ʦ 2
ˊ@@ 2
ˑ 2
˙ 2
ˤ 2
̛ 2
̟ 2
̮ 2
̼ 2
͈ 2
ͳ@@ 2
Αθη@@ 2
Αυ@@ 2
Αυτοκ@@ 2
Αφ@@ 2
Δεκ@@ 2
Ευρώπη 2
Θεσσαλ@@ 2
Ιν@@ 2
Μακ@@ 2
Μπο@@ 2
Σεπτε@@ 2
Σεπτεμβρίου 2
Σερ@@ 2
Στην 2
Την 2
Τον 2
Υπ@@ 2
Χ. 2
Ϊ 2
άλλ@@ 2
άλογ@@ 2
άλυ@@ 2
άμε@@ 2
άρια 2
έρον@@ 2
έως 2
ήματα 2
ήσεων 2
ίδες 2
ίες 2
αδελφ@@ 2
αιτ@@ 2
ανά@@ 2
αντι 2
αξι@@ 2
αυξ@@ 2
γνώ@@ 2
γραμμα 2
δη@@ 2
διακ@@ 2
διασ@@ 2
δομ@@ 2
είν@@ 2
είναι 2
εκδ@@ 2
ενός 2
επί@@ 2
επίσ@@ 2
επο@@ 2
ετα@@ 2
εων 2
ζωή 2
ησε 2
θερμ@@ 2
θεωρ@@ 2
θυν@@ 2
θω@@ 2
ιστο@@ 2
ισχ@@ 2
κέν@@ 2
καδημ@@ 2
κατά@@ 2
κατηγορία 2
κει@@ 2
κερ@@ 2
μάχη 2
μέλος 2
μένα 2
μένοι 2
μαζ@@ 2
μεγάλ@@ 2
μεσα 2
μετά 2
μητ@@ 2
μηχαν@@ 2
μικ@@ 2
νας 2
νερ@@ 2
νώ@@ 2
νών 2
ξε 2
ξης 2
ογέν@@ 2
ογράφ@@ 2
ογραφία 2
οδος 2
οιν@@ 2
ολο@@ 2
ονται 2
ορά 2
ούλιο 2
παί@@ 2
παρά@@ 2
πελλο 2
ποδοσφ@@ 2
πολεμ@@ 2
πολυ@@ 2
ποταμ@@ 2
πού@@ 2
πρόεδρος 2
πρώτος 2
ράφ@@ 2
ριβ@@ 2
ριστιαν@@ 2
σημ@@ 2
σιο 2
σκοπ@@ 2
σμού 2
σον 2
στολ@@ 2
στρατ@@ 2
συμπ@@ 2
συμφ@@ 2
τάθλημα 2
τές 2
ταγων@@ 2
τησε 2
τραγ@@ 2
τρο 2
τσι 2
τών 2
υζαντιν@@ 2
φαλ@@ 2
φερ@@ 2
φυλ@@ 2
φυσ@@ 2
φόρ@@ 2
χαμ@@ 2
χώ@@ 2
χώρα 2
ωλ@@ 2
ωσης 2
ϋ@@ 2
όλε@@ 2
όλο 2
όλων 2
όμα 2
όρε@@ 2
ύτερ@@ 2
ώνεται 2
ώπ@@ 2
ϑ 2
ϕ@@ 2
Ϙ 2
Ϛ 2
ϡ 2
ϰ@@ 2
Ϻ 2
Ѕ 2
Ѕ@@ 2
Администра@@ 2
Афри@@ 2
Велико@@ 2
Герма@@ 2
Дей@@ 2
Его 2
Има 2
Ита@@ 2
От 2
При 2
Пър@@ 2
Северна 2
Спо@@ 2
Той 2
администра@@ 2
американ@@ 2
андар@@ 2
берг 2
благо@@ 2
боле@@ 2
брат 2
бург 2
был 2
бя@@ 2
в. 2
вала 2
ване 2
вдо@@ 2
веро@@ 2
верх@@ 2
вест@@ 2
вете 2
вли@@ 2
времени 2
время 2
вых 2
гате@@ 2
где 2
гене@@ 2
геро@@ 2
гии 2
глав@@ 2
гли 2
гли@@ 2
гло@@ 2
году 2
городе 2
госу@@ 2
граф 2
гри@@ 2
гру@@ 2
двух 2
дек@@ 2
деятель@@ 2
дней 2
дни 2
дъ@@ 2
евре@@ 2
европей@@ 2
едо@@ 2
език 2
ено 2
ждения 2
желез@@ 2
жет 2
зави@@ 2
зада@@ 2
защит@@ 2
изслед@@ 2
империя 2
инжен@@ 2
интер@@ 2
исследо@@ 2
ител 2
ители 2
ится 2
йски 2
йского 2
как@@ 2
кие 2
кило@@ 2
ките 2
кли@@ 2
когда 2
коле@@ 2
ком 2
контра@@ 2
кораб@@ 2
креп@@ 2
лата 2
лд 2
лем 2
лист 2
литератур@@ 2
лище 2
лно 2
лосо@@ 2
лото 2
льные 2
ляр@@ 2
мана 2
меж@@ 2
мину@@ 2
мл@@ 2
мла@@ 2
начи@@ 2
нее 2
независи@@ 2
ней@@ 2
нения 2
ните 2
нитель@@ 2
ниях 2
нове 2
нос@@ 2
ными 2
образо@@ 2
образование 2
объ@@ 2
обя@@ 2
один 2
отли@@ 2
офи@@ 2
пара@@ 2
пен 2
период 2
писате@@ 2
помо@@ 2
помощ@@ 2
пон@@ 2
посе@@ 2
послед@@ 2
посё@@ 2
предло@@ 2
прове@@ 2
против@@ 2
профе@@ 2
пру@@ 2
пъ@@ 2
пъл@@ 2
път 2
рана 2
рани 2
резу@@ 2
рели@@ 2
своих 2
связи 2
северо@@ 2
седате@@ 2
село 2
син 2
система 2
скому 2
сом 2
соответ@@ 2
состоя@@ 2
спек@@ 2
специ@@ 2
става 2
стату@@ 2
стве@@ 2
стен@@ 2
стите 2
стоя@@ 2
стра 2
страна 2
стри@@ 2
строй@@ 2
стру@@ 2
суще@@ 2
съю@@ 2
сю@@ 2
тео@@ 2
терито@@ 2
технологи@@ 2
тил 2
тна 2
тных 2
тому 2
транспор@@ 2
тта 2
турни@@ 2
ться 2
убий@@ 2
уме@@ 2
университета 2
управ@@ 2
функ@@ 2
фут@@ 2
центра@@ 2
циона@@ 2
ците 2
църква 2
чего 2
чески 2
ческие 2
чет@@ 2
чина 2
чис@@ 2
чле@@ 2
чных 2
что 2
чтобы 2
шей 2
шие 2
щение 2
ък 2
ът 2
ющих 2
ява 2
ята 2
ѐ@@ 2
ѓ 2
ќ@@ 2
џ 2
Ѣ 2
Ѣ@@ 2
ѯ 2
ѱ 2
Ґ@@ 2
ґ@@ 2
ҕ 2
ҟ 2
Ҡ 2
Ҥ 2
ҧ 2
ҭ 2
Ҷ 2
ҷ 2
Ӂ 2
ӂ 2
ӄ 2
ӈ 2
ӗ@@ 2
Ӡ 2
ӷ 2
Ӽ 2
Ԁ 2
ԓ 2
Ԙ 2
ԙ 2
ԝ 2
Ե 2
Ի 2
Ծ 2
Ձ 2
Յ 2
Պ 2
Ս 2
Ց 2
Ւ@@ 2
Ֆ 2
ձ 2
փ 2
֤ 2
ֳ@@ 2
ֺ@@ 2
װ 2
ײ 2
آبادی 2
آزاد 2
آزادی 2
آيت 2
أة 2
أث@@ 2
أح@@ 2
أخ@@ 2
أغ@@ 2
أو 2
ئر 2
اؤ@@ 2
ائم 2
ائية 2
ابت@@ 2
ابی 2
اتا 2
ادت 2
ادہ 2
ارية 2
ازت 2
ازی 2
اسم@@ 2
اضی 2
اعة 2
الأول 2
الأولى 2
الإم@@ 2
الإي@@ 2
الات@@ 2
الاح@@ 2
الاست@@ 2
البري@@ 2
البط@@ 2
التع@@ 2
الجن@@ 2
الجنوب@@ 2
الدولة 2
العسك@@ 2
القان@@ 2
المت@@ 2
المغربية 2
المُ@@ 2
النظ@@ 2
النه@@ 2
امات 2
امت 2
انتق@@ 2
انج@@ 2
اند@@ 2
اندر 2
انص@@ 2
انيا 2
اکی@@ 2
اہ@@ 2
باز 2
بت@@ 2
بري@@ 2
بريل 2
بص@@ 2
بع 2
بعد 2
بق@@ 2
بنا 2
بها 2
بیت 2
تأ@@ 2
تال 2
ترج@@ 2
تض@@ 2
تلا@@ 2
تون 2
ثابت 2
ثار 2
ثلا@@ 2
جائ@@ 2
جدید 2
جري@@ 2
جل@@ 2
جم@@ 2
جمع 2
جنگ 2
جہ@@ 2
جہاں 2
جے 2
حال@@ 2
حت@@ 2
حض@@ 2
حضرت 2
حق 2
حين 2
خدا 2
داری 2
دت 2
درمیان 2
دریا 2
دف@@ 2
دها 2
دود 2
دہ 2
ذات 2
ذر@@ 2
ذی@@ 2
ربة 2
رر 2
رض 2
رن 2
رنگ 2
رک 2
رہ 2
رہ@@ 2
زب 2
ساح@@ 2
سال 2
سنة 2
سند 2
سندھ 2
سون 2
سيا 2
سین@@ 2
شاع@@ 2
شاہ@@ 2
شاہی 2
شمال 2
شکل 2
شہر 2
صدر 2
صلی 2
ضر@@ 2
طان@@ 2
طق 2
طلب 2
ظه@@ 2
عالم 2
عام 2
عرا@@ 2
عظ@@ 2
غة 2
غلام 2
غیر 2
ـ 2
فاع 2
فرنسا 2
قائم 2
قاع@@ 2
قت 2
قری@@ 2
قریب 2
قلي@@ 2
قومی 2
قی 2
كات 2
كلي@@ 2
للأ@@ 2
لن 2
لہ 2
مؤس@@ 2
مجموع@@ 2
محل 2
مسل@@ 2
مقد@@ 2
منتخب 2
مولانا 2
میل 2
ناء 2
ندھ@@ 2
نز 2
نسبة 2
نفس 2
نماز 2
نواب 2
نیا 2
نے 2
واس@@ 2
واق@@ 2
والأ@@ 2
ودة 2
ورت 2
ولي@@ 2
وو@@ 2
ویت 2
يار 2
يح@@ 2
يرة 2
يع 2
يق@@ 2
يلي 2
ينا@@ 2
يني@@ 2
يول@@ 2
يين 2
ً 2
ٍ@@ 2
ٓ 2
٣ 2
٥ 2
٧ 2
٨ 2
ٲ@@ 2
ٻ@@ 2
ٽ@@ 2
پان@@ 2
پنجاب 2
ڀ@@ 2
چا 2
چار 2
چان@@ 2
چھ@@ 2
چین 2
ڈیا 2
ړ 2
ڕ 2
ڙ@@ 2
ڞ 2
کامی@@ 2
کتاب 2
کم 2
کمی@@ 2
کچھ 2
ڪ@@ 2
گری@@ 2
ڻ@@ 2
ھی 2
ہم 2
ہی 2
ۃ 2
ۖ 2
ۙ 2
ۜ 2
۞ 2
ۡ@@ 2
۴@@ 2
۹ 2
ۼ 2
ܒ 2
ܖ 2
ܗ 2
ܘ 2
ܛ 2
ܦ 2
ܲ@@ 2
ܳ@@ 2
ݘ 2
ݝ 2
ݣ 2
ރ 2
ފ@@ 2
ޖ@@ 2
ީ 2
ޫ@@ 2
ޮ 2
ँ@@ 2
ंग@@ 2
ंड@@ 2
ंब@@ 2
ः@@ 2
अस 2
आत 2
इन 2
इस 2
उत 2
उप@@ 2
ए 2
और 2
कभी 2
कर@@ 2
कश 2
की 2
कुछ 2
कुमार 2
कृ@@ 2
कृत 2
के@@ 2
को 2
को@@ 2
गर 2
गा@@ 2
गो@@ 2
च 2
जग@@ 2
जा@@ 2
जो@@ 2
ञ 2
ञ@@ 2
टा 2
टी@@ 2
टो@@ 2
ठ@@ 2
डिया 2
डॉ@@ 2
णा 2
णी 2
णु 2
तम 2
तराखण 2
ता 2
तार 2
ती 2
तीस@@ 2
तु@@ 2
था 2
था@@ 2
दा 2
दुर 2
देवी 2
धि 2
धि@@ 2
धी 2
नि 2
नु@@ 2
ने 2
पु@@ 2
पुर 2
बा 2
बि@@ 2
बे@@ 2
भक 2
भा 2
भु@@ 2
मत 2
मि 2
यु@@ 2
रण@@ 2
रमण 2
रा 2
रू 2
रे@@ 2
लाल 2
लि@@ 2
ले 2
ळ 2
वत 2
वन 2
वर 2
वस 2
वाद 2
विक 2
विद 2
वे 2
शी 2
शो@@ 2
सं@@ 2
संघ 2
संस 2
सत 2
सर 2
सा 2
सार 2
सिंह 2
हा@@ 2
हु@@ 2
ान 2
ार 2
ारी 2
ि 2
ी@@ 2
ूर 2
ृ@@ 2
े 2
ोड 2
ौ@@ 2
ॐ 2
খ 2
গ 2
ঙ@@ 2
ড 2
ঢ@@ 2
ণ@@ 2
থ 2
থ@@ 2
ব 2
ূ@@ 2
ে 2
ৰ 2
ਏ@@ 2
ਕ 2
ਖ@@ 2
ਪ 2
ਮ 2
ਲ 2
ਸ 2
ੇ 2
ੇ@@ 2
ੈ@@ 2
੍ 2
ੴ 2
ઃ 2
અ 2
આ 2
આ@@ 2
એ 2
એ@@ 2
ખ@@ 2
ચ 2
ચ@@ 2
ઝ@@ 2
દ 2
ન 2
બ 2
વ 2
િ 2
ૃ 2
ૅ 2
ૈ 2
ૉ 2
ૌ 2
૦ 2
ଦ@@ 2
ନ 2
ଷ 2
ସ 2
ସ@@ 2
ା 2
ି@@ 2
ஈ@@ 2
ண 2
ం 2
ం@@ 2
ణ 2
ల@@ 2
హ@@ 2
ా 2
ూ@@ 2
ಜ@@ 2
ಟ@@ 2
ಡ 2
ಫ@@ 2
ಷ@@ 2
೦@@ 2
ം@@ 2
അ@@ 2
ജ@@ 2
ത 2
ല@@ 2
ള@@ 2
െ@@ 2
േ@@ 2
ට@@ 2
ඩ@@ 2
ද@@ 2
ධ@@ 2
භ@@ 2
ළ@@ 2
ි 2
ෝ@@ 2
กร 2
กร@@ 2
กา@@ 2
การ@@ 2
ข 2
ขา@@ 2
ค 2
คริ@@ 2
ความ@@ 2
จ 2
ชน@@ 2
ชา 2
ชา@@ 2
ชุ@@ 2
ญ@@ 2
ดี 2
ต 2
ตร@@ 2
ถ@@ 2
นา 2
นี 2
บน 2
บา@@ 2
บุรี 2
พั@@ 2
พุทธ@@ 2
ภาษา@@ 2
มว@@ 2
มิ@@ 2
ยู@@ 2
ราช@@ 2
ริ@@ 2
ลง@@ 2
ละ@@ 2
ลิ@@ 2
วัฒ@@ 2
ษา 2
สั@@ 2
สา@@ 2
สิ@@ 2
หร@@ 2
หา@@ 2
อน 2
อล@@ 2
อุ@@ 2
ฯ 2
ั 2
ักษ@@ 2
ัน@@ 2
ันท@@ 2
า 2
ี 2
ื 2
ื@@ 2
ือน 2
ุ 2
ู 2
ู@@ 2
฿ 2
เก 2
เช@@ 2
เด@@ 2
เต 2
เท@@ 2
เพ@@ 2
เร@@ 2
เอ 2
โ@@ 2
โก@@ 2
โบ@@ 2
ກ 2
ຣ@@ 2
ຫ 2
ຮ@@ 2
ຳ 2
ຳ@@ 2
ື 2
ົ 2
ຼ@@ 2
ເ@@ 2
ໂ@@ 2
ཐ@@ 2
ཚ@@ 2
ཛ@@ 2
ི 2
ྤ 2
ྫ@@ 2
ླ@@ 2
င@@ 2
စ 2
ဆ@@ 2
ဇ 2
ဘ@@ 2
ယ@@ 2
ါ@@ 2
ိ 2
ေ 2
္ 2
ွ 2
Ⴌ 2
Ⴍ 2
Ⴖ@@ 2
Ⴙ@@ 2
ც 2
წ 2
ხ 2
ჲ@@ 2
ჷ@@ 2
ላ 2
ሎ@@ 2
ሔ@@ 2
ሙ 2
ሠ 2
ሪ@@ 2
ሲ 2
ሳ@@ 2
ሸ@@ 2
ቃ@@ 2
ባ 2
ቦ@@ 2
ታ 2
ቶ 2
ኀ@@ 2
ኃ@@ 2
ኒ@@ 2
ና 2
አ 2
ኪ@@ 2
ክ 2
ኮ@@ 2
ዎ@@ 2
ዐ@@ 2
ዝ 2
ያ 2
ዳ 2
ጋ@@ 2
ጨ@@ 2
ጵ@@ 2
ጸ 2
ፋ 2
ፌ 2
፭ 2
፼ 2
Ꭹ 2
Ꮙ@@ 2
Ꮝ@@ 2
Ꮟ@@ 2
Ꮳ@@ 2
Ᏹ 2
ᐎ@@ 2
ᐱ 2
ᐳ@@ 2
ᑐ 2
ᒐ 2
ᒣ@@ 2
ᓅ@@ 2
ᔫ 2
ᕈ@@ 2
ᕿ@@ 2
ᙵ@@ 2
ᚨ@@ 2
ᚱ@@ 2
ᚾ@@ 2
ᛋ 2
ᛏ@@ 2
ᛖ@@ 2
ᛘ@@ 2
ᛚ@@ 2
ញ@@ 2
ថ 2
ថ@@ 2
ឥ@@ 2
ិ 2
ី 2
ុ 2
ួ@@ 2
ោ@@ 2
ំ 2
៍ 2
័ 2
ᠡ 2
ᠦ 2
ᠮ@@ 2
ᠰ@@ 2
ᡟ@@ 2
ᡠ 2
ᡥ@@ 2
ᡩ@@ 2
ᡳ@@ 2
ᡴ@@ 2
Ჲ 2
ᵊ 2
ᵛ@@ 2
ᵽ@@ 2
ᶇ 2
ḃ 2
ḉ 2
ḉ@@ 2
ḋ 2
ḑ@@ 2
ḕ 2
Ḥ 2
ḭ@@ 2
ḱ 2
ḿ 2
Ṃ@@ 2
ṉ 2
ṕ@@ 2
ṫ 2
ṳ 2
ẍ 2
ẑ 2
ẖ 2
ản 2
ầm 2
ẹ@@ 2
ẽ 2
ế@@ 2
ệu 2
ỏ 2
ỏi 2
ỗi 2
ộ@@ 2
ộc 2
ộng 2
Ở 2
ụ 2
ử@@ 2
Ἂ@@ 2
Ἅ@@ 2
ἔ 2
ἥ@@ 2
ἧ@@ 2
Ἡ 2
ἵ 2
ὐ 2
ὖ 2
ὣ@@ 2
ᾍ@@ 2
ᾰ 2
ᾰ@@ 2
ᾶ 2
ῑ@@ 2
⁃ 2
⁡ 2
⁵ 2
ⁿ@@ 2
₅ 2
₣ 2
₱ 2
₼ 2
₽ 2
ℋ 2
ℏ 2
ℛ@@ 2
ℝ@@ 2
Ⅱ 2
ↄ 2
↓ 2
↘ 2
↦ 2
∴ 2
⊖ 2
② 2
◌ 2
☭ 2
☻ 2
☼ 2
♔ 2
♙ 2
♡ 2
❗ 2
Ɑ@@ 2
ⲁ@@ 2
Ⲉ 2
ⲉ 2
Ⲏ@@ 2
ⲙ 2
ⲥ@@ 2
ⴀ 2
ⴱ 2
ⴷ 2
ⴾ@@ 2
ⵄ@@ 2
ⵉ 2
ⵊ 2
ⵊ@@ 2
ⵍ 2
ⵕ@@ 2
ⵙ 2
ⵛ 2
ⵟ@@ 2
〇@@ 2
『 2
』 2
が 2
ぐ 2
そ 2
で 2
ど 2
ね 2
ぷ@@ 2
へ 2
ほ 2
ほ@@ 2
ぼ 2
ぽ@@ 2
よ 2
ろ 2
を 2
ギ 2
ゲ 2
サ 2
セ 2
ゼ 2
ゾ 2
パ 2
ピ 2
モ 2
ャ 2
ヲ@@ 2
ㄓ@@ 2
ㅋ 2
䍃 2
不 2
与@@ 2
业@@ 2
両 2
为@@ 2
义@@ 2
乗 2
乘 2
乘@@ 2
也@@ 2
买@@ 2
乾@@ 2
亀 2
亂 2
云 2
亥 2
亭 2
亮@@ 2
亲 2
付@@ 2
令 2
令@@ 2
仪 2
伎 2
伦 2
伸 2
位 2
位@@ 2
佑 2
余@@ 2
佳@@ 2
例@@ 2
侍 2
侠 2
侨 2
侯 2
俞@@ 2
俟 2
俠@@ 2
俣 2
修 2
俱@@ 2
倍@@ 2
倫 2
倫@@ 2
倾@@ 2
偶 2
傳 2
像@@ 2
僑 2
億@@ 2
優@@ 2
兀@@ 2
允@@ 2
免@@ 2
児@@ 2
兔@@ 2
入@@ 2
兩 2
关@@ 2
兼@@ 2
冀@@ 2
再@@ 2
冠@@ 2
冤@@ 2
冥@@ 2
冲 2
凉 2
凡 2
函@@ 2
刚 2
判 2
别 2
制 2
刹@@ 2
剌@@ 2
前 2
剣@@ 2
創@@ 2
劍@@ 2
功 2
労@@ 2
勳 2
匮@@ 2
十 2
卍 2
卒 2
卖 2
卜@@ 2
印 2
印@@ 2
卷 2
卷@@ 2
卿 2
厚@@ 2
厦 2
厨 2
厨@@ 2
厩@@ 2
參 2
又 2
受@@ 2
句 2
句@@ 2
台灣 2
各 2
同 2
后 2
向@@ 2
吳 2
呂 2
哈 2
哩 2
唄 2
啓@@ 2
喇@@ 2
喜 2
営@@ 2
嗣@@ 2
嘗@@ 2
嘛 2
嚳 2
嚴@@ 2
因@@ 2
围@@ 2
固@@ 2
圆@@ 2
圳 2
均 2
坦@@ 2
垒@@ 2
執@@ 2
堂@@ 2
堤@@ 2
堯 2
堰 2
塞@@ 2
塩@@ 2
塾 2
境 2
壁 2
壇@@ 2
壱@@ 2
壺@@ 2
壽 2
壽@@ 2
夕@@ 2
奄 2
奉 2
奉@@ 2
奎 2
奖 2
奖@@ 2
奸 2
妓 2
妙@@ 2
妮 2
妹 2
姊@@ 2
姑@@ 2
姓@@ 2
委员@@ 2
姙@@ 2
娑@@ 2
婆 2
婆@@ 2
婷 2
媽 2
嫦@@ 2
官 2
宛 2
宜 2
实@@ 2
実@@ 2
客 2
宣 2
宴 2
寄@@ 2
寐 2
實@@ 2
寧 2
导@@ 2
封 2
尊@@ 2
尋@@ 2
尕@@ 2
尹 2
尼 2
屈@@ 2
展@@ 2
岭 2
岷@@ 2
岸 2
峪@@ 2
崇@@ 2
嵐 2
嶋 2
巢 2
工作 2
币@@ 2
帰@@ 2
幸 2
广@@ 2
庁@@ 2
底@@ 2
廊 2
廖@@ 2
廟 2
廬@@ 2
廷@@ 2
建 2
弓 2
弩 2
張 2
強@@ 2
强 2
彌 2
归@@ 2
形 2
很@@ 2
徒 2
徒@@ 2
循@@ 2
徹@@ 2
忘@@ 2
快@@ 2
忽@@ 2
怒@@ 2
怛 2
思 2
性 2
怪@@ 2
恆@@ 2
恐@@ 2
恒@@ 2
恭@@ 2
悟 2
悦 2
悦@@ 2
情 2
惠 2
想 2
想@@ 2
慈@@ 2
態 2
慧 2
慧@@ 2
慰@@ 2
憶 2
應@@ 2
戈@@ 2
戎 2
戔@@ 2
戲@@ 2
户@@ 2
扎 2
承 2
投@@ 2
括@@ 2
拳@@ 2
拾@@ 2
捕@@ 2
提 2
揚@@ 2
握@@ 2
播@@ 2
收 2
放 2
政府 2
敎@@ 2
散@@ 2
敷 2
敷@@ 2
文化 2
斌 2
斗 2
斗@@ 2
斜@@ 2
旋 2
无@@ 2
昇@@ 2
昊 2
易 2
映 2
映@@ 2
显 2
晉@@ 2
景 2
晴@@ 2
晶 2
智 2
暁@@ 2
暎 2
暗@@ 2
曜@@ 2
曺@@ 2
服 2
服@@ 2
朗@@ 2
期 2
朱 2
杉 2
杉@@ 2
李 2
杏@@ 2
杖@@ 2
条 2
杰@@ 2
枚 2
枝@@ 2
架@@ 2
染@@ 2
柴@@ 2
査@@ 2
柿@@ 2
栗@@ 2
格 2
桂@@ 2
桓 2
桓@@ 2
梶@@ 2
棍 2
棺@@ 2
椿 2
楊 2
楞@@ 2
楠@@ 2
業 2
極@@ 2
槍@@ 2
槐 2
樓 2
樓@@ 2
模@@ 2
樣@@ 2
権 2
橋@@ 2
橫@@ 2
檢 2
權 2
歩@@ 2
歳 2
歸@@ 2
毅 2
母@@ 2
毕@@ 2
毘@@ 2
毛 2
汉 2
汤@@ 2
注 2
注@@ 2
洛 2
洱@@ 2
洲 2
浄@@ 2
浦 2
浮@@ 2
涙@@ 2
涛 2
涼 2
淮@@ 2
淵 2
混@@ 2
済@@ 2
渓@@ 2
温 2
満 2
満@@ 2
溌@@ 2
溝@@ 2
溥@@ 2
溫 2
滕@@ 2
滩@@ 2
濕@@ 2
濟 2
濠@@ 2
濤@@ 2
瀬@@ 2
灘@@ 2
炒@@ 2
炮 2
為@@ 2
烤@@ 2
热@@ 2
煌 2
煤@@ 2
煥 2
熙@@ 2
燒 2
營 2
爭 2
爭@@ 2
爺 2
爺@@ 2
片 2
牙 2
牟@@ 2
牧@@ 2
犁 2
犬 2
狸 2
狼 2
猿@@ 2
獎 2
獯@@ 2
玫@@ 2
现@@ 2
玷@@ 2
珂 2
珍 2
珪 2
琼@@ 2
瑞@@ 2
璽 2
瓜 2
甜@@ 2
甫@@ 2
申 2
电@@ 2
畑 2
留 2
畢@@ 2
番 2
畲@@ 2
病 2
瘋@@ 2
皮@@ 2
盖@@ 2
盡@@ 2
盤 2
盧 2
直 2
眉 2
眞 2
眠@@ 2
着@@ 2
睒 2
瞳@@ 2
矩 2
砲@@ 2
碁 2
碁@@ 2
碎@@ 2
碧@@ 2
磨 2
祖 2
祝@@ 2
祥 2
祥@@ 2
祿@@ 2
禄 2
禄@@ 2
禎 2
禮@@ 2
禺 2
禾@@ 2
秦 2
稲 2
穂 2
穢@@ 2
穴@@ 2
站 2
竜@@ 2
竹 2
第二@@ 2
筋 2
策 2
策@@ 2
箏 2
範@@ 2
籍@@ 2
粉 2
紋 2
紗 2
紙 2
級@@ 2
累@@ 2
細@@ 2
統 2
綠@@ 2
維 2
綱 2
綱@@ 2
総 2
緣@@ 2
縣@@ 2
織 2
纪@@ 2
综@@ 2
网 2
网@@ 2
罕@@ 2
置@@ 2
羌 2
羽@@ 2
翁 2
翊 2
翔 2
翟@@ 2
耀@@ 2
考@@ 2
耆 2
耕@@ 2
耳@@ 2
联@@ 2
聖 2
聞@@ 2
聰 2
肃 2
肅 2
肖@@ 2
肝@@ 2
股 2
背@@ 2
脈 2
腾 2
腾@@ 2
膽 2
臂@@ 2
臣@@ 2
與@@ 2
舞 2
舰 2
船@@ 2
艤@@ 2
良 2
芙 2
芥@@ 2
芦@@ 2
芭 2
芮 2
芮@@ 2
芳@@ 2
芻@@ 2
若 2
苾@@ 2
茂@@ 2
茜 2
茹@@ 2
荊 2
荔@@ 2
药@@ 2
莱@@ 2
著@@ 2
葛 2
葵 2
蒙 2
蒼@@ 2
蓋@@ 2
蓝@@ 2
蓬@@ 2
蔚@@ 2
蔵@@ 2
蕭@@ 2
蕴@@ 2
藍 2
藝@@ 2
藥@@ 2
虐@@ 2
蛮 2
蛮@@ 2
蛯@@ 2
蜀@@ 2
蜂 2
蝚@@ 2
蝶@@ 2
螢@@ 2
蠕@@ 2
血@@ 2
衍@@ 2
衮 2
袱@@ 2
裔 2
補@@ 2
裝@@ 2
西 2
要@@ 2
親 2
観@@ 2
视@@ 2
解 2
計@@ 2
訓 2
許@@ 2
詠@@ 2
話@@ 2
詳@@ 2
誠@@ 2
誡 2
説 2
談@@ 2
論@@ 2
謀 2
講@@ 2
謝@@ 2
議 2
變 2
讓@@ 2
论@@ 2
诺@@ 2
豆 2
豊 2
豚@@ 2
豪 2
豪@@ 2
貓@@ 2
貝 2
財@@ 2
貨 2
貫@@ 2
資@@ 2
賣 2
賴@@ 2
賽@@ 2
货@@ 2
赛 2
赫@@ 2
赭@@ 2
走 2
赵 2
跌 2
跌@@ 2
跡@@ 2
跳@@ 2
踊@@ 2
転@@ 2
軽@@ 2
輔@@ 2
轨@@ 2
辦@@ 2
辺@@ 2
辽@@ 2
达 2
迎 2
运@@ 2
返@@ 2
迦@@ 2
迷 2
逻@@ 2
運@@ 2
遣@@ 2
邊 2
邑 2
邑@@ 2
邦@@ 2
邸 2
郞 2
郭 2
郷@@ 2
酒 2
酸@@ 2
醢 2
釜 2
釜@@ 2
鉉 2
鉢@@ 2
銅@@ 2
錄 2
錫 2
鎭 2
错@@ 2
闕@@ 2
闞@@ 2
阔@@ 2
阙@@ 2
队 2
阮 2
阮@@ 2
降@@ 2
除@@ 2
陳 2
険@@ 2
隋@@ 2
隠@@ 2
隱@@ 2
隸 2
雁@@ 2
雞 2
離 2
雪 2
零@@ 2
震@@ 2
霉@@ 2
霞 2
霞@@ 2
霧@@ 2
霸 2
霸@@ 2
青 2
静 2
非 2
鞘 2
鞬@@ 2
頁@@ 2
須 2
頓 2
題 2
顯 2
顶 2
颉@@ 2
飯 2
餐@@ 2
饅@@ 2
首 2
駁@@ 2
駄 2
騎@@ 2
騫 2
鬱@@ 2
鬻 2
魂@@ 2
魍@@ 2
魎 2
魯 2
鮓@@ 2
鳥@@ 2
鳳@@ 2
鳴@@ 2
鴉@@ 2
鴨 2
鵬 2
黎 2
鼎 2
鼓 2
齡 2
ꆈ@@ 2
ꜥ 2
Ꞑ@@ 2
Ɡ@@ 2
ꨌ@@ 2
갈@@ 2
검 2
것@@ 2
곡@@ 2
곤 2
골 2
광 2
굳@@ 2
굿 2
굿@@ 2
권 2
글@@ 2
깨@@ 2
꼬@@ 2
남 2
냥 2
널 2
네 2
념@@ 2
노 2
농@@ 2
늑@@ 2
닥@@ 2
달 2
데 2
돌 2
돌@@ 2
된 2
등 2
등@@ 2
떴@@ 2
또 2
란 2
랩 2
러 2
런 2
런@@ 2
렌@@ 2
렐@@ 2
력@@ 2
례 2
록@@ 2
류 2
류@@ 2
륙@@ 2
르 2
릭@@ 2
린@@ 2
릿@@ 2
막@@ 2
맑@@ 2
맞@@ 2
맥 2
맹@@ 2
먹@@ 2
면@@ 2
뭐 2
뭐@@ 2
발 2
방 2
배 2
뱅@@ 2
버 2
번 2
벨@@ 2
보 2
봄 2
봉@@ 2
블 2
빔@@ 2
빠 2
뻐 2
뿐 2
쁜 2
삐@@ 2
살 2
색@@ 2
샤@@ 2
센@@ 2
셔@@ 2
속@@ 2
솔 2
송 2
쇠 2
순 2
숨@@ 2
쉬@@ 2
쉽 2
슨 2
실 2
실@@ 2
심 2
쌀@@ 2
쌰 2
쌰@@ 2
써@@ 2
암@@ 2
앙 2
앞@@ 2
억@@ 2
얼@@ 2
업 2
여 2
역 2
옥@@ 2
옹@@ 2
웅@@ 2
윙@@ 2
읍 2
익 2
잇 2
작 2
잔@@ 2
잖@@ 2
잠 2
잡@@ 2
절@@ 2
점@@ 2
젓 2
젝@@ 2
조 2
죠 2
죽@@ 2
짐@@ 2
짜@@ 2
참 2
처 2
철@@ 2
쳐@@ 2
춘 2
춘@@ 2
침@@ 2
캔@@ 2
코 2
콘 2
콘@@ 2
콤 2
퀸@@ 2
큐@@ 2
탄@@ 2
틸@@ 2
팅 2
판@@ 2
팬@@ 2
퍼 2
펫 2
표 2
품@@ 2
프 2
픽@@ 2
필@@ 2
핑@@ 2
학 2
할 2
합 2
햄 2
험@@ 2
홍 2
후 2
휘 2
휘@@ 2
휴@@ 2
 2
 2
 2
ﯘ@@ 2
ﺁ@@ 2
ﺍ 2
ﺎ 2
ﺕ 2
ﺙ 2
ﺛ@@ 2
ﺝ 2
ﺣ@@ 2
ﺨ@@ 2
ﺪ 2
ﺭ 2
ﺯ 2
ﺱ 2
ﺵ 2
ﺼ@@ 2
ﻒ 2
ﻙ 2
ﻞ 2
ﻧ 2
ﻨ@@ 2
ﻪ@@ 2
ﻬ@@ 2
ﻱ 2
ﻻ@@ 2
！ 2
￥ 2
𐊀 2
𐊀@@ 2
𐌀@@ 2
𐌌@@ 2
𐌓@@ 2
𐌖@@ 2
𐤁@@ 2
𐤍@@ 2
𐤏@@ 2
𐤨@@ 2
𐩿 2
𐭣@@ 2
𐭦@@ 2
𐭭 2
𐭯@@ 2
𐭲 2
𐰋@@ 2
𐰏 2
𐰖 2
𐰚 2
𐰜 2
𐰣@@ 2
𐰴 2
𐰶 2
𐰸 2
𐰸@@ 2
𐱁@@ 2
𐱃 2
𐴙 2
𐴝 2
𒁺 2
𒄖 2
𒄖@@ 2
𒈪@@ 2
𒊩@@ 2
𒊭 2
𒌆@@ 2
𒌷@@ 2
📖 2
🖤 2
🜨 2
0er 1
Beispi@@ 1
Bevöl@@ 1
Einwoh@@ 1
Februar 1
Giáo 1
Giải 1
Jahrhunder@@ 1
Japani 1
Kanisa 1
Katika 1
Magharibi 1
Maisha 1
Makala 1
Mannschaft 1
Mashariki 1
Mã 1
Nó 1
Personen 1
Selon 1
Trong 1
acuerdo 1
adamu 1
además 1
aduni 1
ajili 1
alcanz@@ 1
alors 1
ancien 1
ashara 1
beiden 1
binh 1
britanni@@ 1
bzw@@ 1
bàn 1
báo 1
bằng 1
caractér@@ 1
carrière 1
chake 1
chứng 1
cinco 1
cional 1
compañ@@ 1
cuenta 1
cung 1
cách 1
cổ 1
dabei 1
después 1
dessen 1
devient 1
donc 1
duniani 1
década 1
dòng 1
dương 1
dịch 1
económ@@ 1
ellement 1
embargo 1
encuentra 1
entonces 1
environ 1
errich@@ 1
estaba 1
establec@@ 1
estadounidense 1
exemple 1
falme 1
folgen@@ 1
führt 1
fünf 1
geführt 1
gegrün@@ 1
geleg@@ 1
gesetzt 1
gewäh@@ 1
giao 1
giáo 1
gouvern@@ 1
größ@@ 1
haribi 1
heirat@@ 1
hivi 1
humo 1
hát 1
học 1
hội 1
ierten 1
ihrem 1
ikuu 1
imbali 1
inaug@@ 1
inglés 1
ishwa 1
izaji 1
jedoch 1
kupata 1
kwamba 1
kỳ 1
lakini 1
lassen 1
lossen 1
luego 1
làng 1
lại 1
lực 1
manera 1
marzo 1
membre 1
membres 1
mji 1
mkoa 1
muziki 1
máy 1
mäß@@ 1
mét 1
mắt 1
mặt 1
ndani 1
nehmen 1
người 1
nhau 1
nhà 1
nhân 1
nörd@@ 1
obten@@ 1
ongozi 1
onóm@@ 1
partidos 1
pelí@@ 1
phá 1
phóng 1
phủ 1
plusieurs 1
poste 1
projet 1
quyết 1
schied@@ 1
schließ@@ 1
segunda 1
selbst 1
selon 1
siguiente 1
sollte 1
souvent 1
spä@@ 1
stütz@@ 1
superficie 1
sách 1
sản 1
sắc 1
số 1
taifa 1
tangu 1
theo 1
thuật 1
thân 1
thương 1
thần 1
thờ 1
tient 1
tober 1
toàn 1
través 1
tritt 1
trouve 1
trí 1
trận 1
tuần 1
tây 1
tích 1
tạo 1
tấn 1
tộc 1
umika 1
usieurs 1
uyết 1
varios 1
versión 1
vàng 1
wais@@ 1
wanja 1
wechsel@@ 1
weiten 1
weiter@@ 1
wilaya 1
yaani 1
yenye 1
zeichnet 1
zunächst 1
zusammen 1
zweiten 1
 1
 1
 1
 1
 1
¦ 1
Ã 1
Ã@@ 1
Ì 1
Ï 1
Ông 1
ành 1
ãn 1
ãng 1
ält 1
èrent 1
ètres 1
église 1
équipe 1
étant 1
íses 1
últim@@ 1
úng 1
Ċ 1
Độ 1
đại 1
đồ 1
Ĕ 1
Ė 1
Ě@@ 1
Ġ 1
Ĭ 1
ĳ 1
Ĵ@@ 1
Ķ 1
Ń@@ 1
Ő 1
Ŗ@@ 1
ŗ 1
Ŝ@@ 1
Ŧ 1
Ŧ@@ 1
Ū 1
Ů@@ 1
Ų@@ 1
Ŵ@@ 1
ŵ 1
Ŷ 1
Ŷ@@ 1
ƀ 1
Ɓ 1
ƅ 1
ƅ@@ 1
Ɖ 1
Ɗ 1
Ɛ@@ 1
Ƒ 1
Ɨ 1
ƛ 1
Ɲ 1
ơi 1
ưỡ@@ 1
ược 1
Ʊ 1
Ʊ@@ 1
Ƴ 1
Ʒ@@ 1
Ƹ 1
ǂ 1
Ǎ 1
ǟ@@ 1
Ǫ@@ 1
ǯ 1
ǰ 1
Ǵ 1
Ǵ@@ 1
Ǹ@@ 1
ǽ@@ 1
ǿ@@ 1
ȃ@@ 1
ȓ 1
Ȟ 1
Ȟ@@ 1
Ȣ 1
ȥ@@ 1
ȧ 1
ȧ@@ 1
ȫ@@ 1
ȯ@@ 1
ȷ 1
Ɋ 1
ɍ 1
ɚ 1
ɜ 1
ɝ@@ 1
ɢ@@ 1
ɤ@@ 1
ɭ 1
ɳ 1
ɴ 1
ɶ@@ 1
ɺ@@ 1
ɻ@@ 1
ʐ 1
ʘ 1
ʜ@@ 1
ʟ@@ 1
ʤ 1
ʧ 1
ʺ@@ 1
˂ 1
˃ 1
ˆ@@ 1
ˊ 1
˛ 1
˜ 1
ˠ 1
ˡ@@ 1
ˣ 1
̋ 1
̜ 1
̤ 1
̴ 1
̵ 1
͗ 1
ͭ 1
Ͱ@@ 1
ͱ 1
Ͳ 1
ͷ@@ 1
Έλλην@@ 1
Έτσι 1
Αγγλ@@ 1
Αν 1
Αυγ@@ 1
Αυγούστου 1
Αυτοκρα@@ 1
Εί@@ 1
Ελλάδα 1
Επίσ@@ 1
Ερ@@ 1
Ισ@@ 1
Ιστο@@ 1
Μαρτίου 1
Ντ@@ 1
Οκτωβρίου 1
Πανεπιστήμιο 1
Πρό@@ 1
Στη 1
Στο 1
Φρ@@ 1
Ϊ@@ 1
άλι 1
άλληλ@@ 1
άτων 1
έδρα 1
έζ@@ 1
ένας 1
έρν@@ 1
έρχ@@ 1
έστ@@ 1
ήσεις 1
ίδιος 1
ΰ@@ 1
αγων@@ 1
αισ@@ 1
ακόμα 1
αναγ@@ 1
αναπ@@ 1
αντ 1
απλ@@ 1
από@@ 1
αριθμ@@ 1
αρμ@@ 1
ασίας 1
αση 1
ατιν@@ 1
ατο@@ 1
βασιλι@@ 1
βιβ@@ 1
βουλευ@@ 1
βρίσκ@@ 1
βραβ@@ 1
γαλλ@@ 1
γκ 1
γμα 1
γνωστ@@ 1
γρ@@ 1
γράμ@@ 1
γυνα@@ 1
γύρ@@ 1
δήμ@@ 1
δίας 1
δίν@@ 1
δίσ@@ 1
δεύτερ@@ 1
διαφορ@@ 1
διεξ@@ 1
δρομ@@ 1
δυν@@ 1
είτε 1
είχ@@ 1
εγκ@@ 1
εδρ@@ 1
ειλ@@ 1
εκκλη@@ 1
εμφ@@ 1
εντρ@@ 1
επίπεδ@@ 1
επαρχ@@ 1
επικ@@ 1
επισ@@ 1
επισκ@@ 1
επιστ@@ 1
επιστήμ@@ 1
ευρ@@ 1
ηλικ@@ 1
ημάτων 1
ηματ@@ 1
ημι@@ 1
ησαν 1
ησης 1
ηχ@@ 1
θμ@@ 1
θωμαν@@ 1
ιδι@@ 1
ιού 1
ισε 1
ιστική 1
ιστορία 1
καλλ@@ 1
καλύ@@ 1
καλύτερ@@ 1
κατέ@@ 1
καταγ@@ 1
κοπ@@ 1
κοσμ@@ 1
κυρι@@ 1
λίγ@@ 1
λαδ@@ 1
λλο 1
μάχ@@ 1
μένες 1
μένου 1
μές 1
ματική 1
ματο@@ 1
μεγαλ@@ 1
μει@@ 1
μενα 1
μετά@@ 1
μετρ@@ 1
μιας 1
μονα@@ 1
μόνο 1
νέα 1
ξε@@ 1
οθέ@@ 1
οθε@@ 1
ολο 1
οποί@@ 1
ουλίου 1
ουσι@@ 1
οφορ@@ 1
ούμεν@@ 1
ούργ@@ 1
π.@@ 1
πεδ@@ 1
περιοδ@@ 1
περισσ@@ 1
πολύ 1
πον@@ 1
πουδ@@ 1
πρωτεύ@@ 1
πρόσ@@ 1
πρώτα 1
πόλ@@ 1
ρίσκ@@ 1
ρική 1
ρισης 1
ροφορ@@ 1
σσαλ@@ 1
στε 1
στική 1
στρ@@ 1
συγκ@@ 1
συλλογ@@ 1
συμ@@ 1
συμμε@@ 1
συστ@@ 1
σχε@@ 1
σύστημα 1
τέλε@@ 1
ταθλ@@ 1
ταινία 1
ταν 1
ταχ@@ 1
τεκ@@ 1
τερ 1
τευ@@ 1
τηρ@@ 1
τικές 1
τικής 1
τικών 1
τιμ@@ 1
τοιχ@@ 1
τορα 1
τουργ@@ 1
τούς 1
τραγούδ@@ 1
τρια 1
τροφ@@ 1
τς 1
τυχ@@ 1
τό 1
τό@@ 1
υπήρ@@ 1
υπερ@@ 1
υργ@@ 1
χαρακ@@ 1
χιλι@@ 1
ωνίας 1
ωνα 1
όδου 1
όλα 1
όλη 1
όλου 1
όμε@@ 1
όμεν@@ 1
όνα 1
όπο 1
όταν 1
ότερ@@ 1
ότητες 1
ώνει 1
ώνες 1
ώσει 1
Ϙ@@ 1
ϙ@@ 1
ϛ@@ 1
Ϝ@@ 1
ϝ 1
Ϟ 1
ϟ@@ 1
Ϡ 1
ϩ 1
ϩ@@ 1
ϯ@@ 1
ϱ 1
ϱ@@ 1
ϴ 1
Ϸ@@ 1
ϸ 1
Ϲ@@ 1
Ϻ@@ 1
Ї@@ 1
Њ@@ 1
Ќ@@ 1
Ѝ 1
Бълга@@ 1
Въ@@ 1
Германия 1
Гър@@ 1
Европа 1
Испа@@ 1
Карл 1
Лон@@ 1
Македония 1
Най 1
Роб@@ 1
Русия 1
Сле@@ 1
Те 1
Франция 1
Фридрих 1
Япо@@ 1
авгу@@ 1
августа 1
актив@@ 1
анали@@ 1
анти@@ 1
апре@@ 1
архи@@ 1
архите@@ 1
били 1
блиоте@@ 1
бое@@ 1
большо@@ 1
бре 1
брига@@ 1
български 1
бър@@ 1
была 1
были 1
вает 1
вается 1
вали 1
ването 1
вани 1
вать 1
века 1
верну@@ 1
вероя@@ 1
вида 1
владе@@ 1
вместе 1
вно 1
води 1
водо@@ 1
времето 1
ври 1
вси@@ 1
вую 1
вший 1
възра@@ 1
върху 1
выпу@@ 1
высту@@ 1
вят 1
генерал 1
гимна@@ 1
гласно 1
гов 1
голе@@ 1
готов@@ 1
граждан@@ 1
группы 1
дата 1
две 1
действи@@ 1
дека@@ 1
дела@@ 1
дение 1
дерев@@ 1
деся@@ 1
дея@@ 1
дис@@ 1
дите 1
дости@@ 1
души 1
дър@@ 1
евро@@ 1
ему 1
ена 1
еписко@@ 1
ец 1
жде@@ 1
ждение 1
жество 1
зависи@@ 1
зако@@ 1
закон@@ 1
запа@@ 1
защ@@ 1
зва@@ 1
изве@@ 1
известен 1
има 1
имен@@ 1
имо@@ 1
импера@@ 1
информа@@ 1
истори@@ 1
история 1
ител@@ 1
ителем 1
ителите 1
ительно 1
ити 1
йни 1
йских 1
ками 1
като@@ 1
каче@@ 1
квар@@ 1
клу@@ 1
клю@@ 1
км 1
ког@@ 1
команд@@ 1
компа@@ 1
консу@@ 1
контро@@ 1
кото@@ 1
которая 1
края 1
крепо@@ 1
към 1
кът 1
лага 1
лед@@ 1
лени 1
лены 1
лиш@@ 1
лния 1
лож@@ 1
лями 1
манасти@@ 1
марта 1
мата 1
мене@@ 1
мени@@ 1
мента@@ 1
менти 1
меня@@ 1
мерикан@@ 1
мест@@ 1
мета@@ 1
мето 1
моде@@ 1
мож@@ 1
мощ@@ 1
мпи@@ 1
музи@@ 1
муници@@ 1
назна@@ 1
напа@@ 1
нари@@ 1
нару@@ 1
началь@@ 1
него@@ 1
недо@@ 1
немец@@ 1
нен 1
нение 1
ният 1
нията 1
ново@@ 1
нологи@@ 1
ностью 1
няма 1
оби@@ 1
общи@@ 1
ографи@@ 1
озна@@ 1
окръг 1
октября 1
оне 1
опреде@@ 1
орга@@ 1
организа@@ 1
ори@@ 1
осно@@ 1
особ@@ 1
остава 1
ответ@@ 1
отде@@ 1
оте@@ 1
откри@@ 1
откры@@ 1
отноше@@ 1
ото 1
парла@@ 1
пей@@ 1
пен@@ 1
первый 1
переписи 1
пет 1
пит@@ 1
пода@@ 1
политиче@@ 1
пос@@ 1
после 1
поя@@ 1
прави@@ 1
практи@@ 1
пред 1
предо@@ 1
представ@@ 1
прин@@ 1
програм@@ 1
производ@@ 1
простра@@ 1
простран@@ 1
пря@@ 1
птем@@ 1
птември 1
работа@@ 1
работи 1
рами 1
ране 1
распо@@ 1
раст@@ 1
рите@@ 1
сбор@@ 1
света 1
светов@@ 1
свой 1
свою 1
север 1
сезона 1
секре@@ 1
села 1
сем@@ 1
скими 1
ските 1
ското 1
скус@@ 1
сна@@ 1
сня@@ 1
совер@@ 1
совета 1
соеди@@ 1
способ@@ 1
ссе@@ 1
стала 1
стали 1
стат@@ 1
стати@@ 1
ства@@ 1
ственно 1
ству 1
ствует 1
стен 1
стой@@ 1
стрел@@ 1
струк@@ 1
съпру@@ 1
също 1
тами 1
твор@@ 1
тек@@ 1
темпера@@ 1
типа 1
тога@@ 1
только 1
тон@@ 1
тъ@@ 1
тър@@ 1
тя 1
установ@@ 1
устрой@@ 1
участ@@ 1
фак@@ 1
фер@@ 1
физи@@ 1
фил@@ 1
фли@@ 1
форми@@ 1
француз@@ 1
фри@@ 1
хода 1
хозяй@@ 1
христи@@ 1
цата 1
ций 1
цию 1
църк@@ 1
чат@@ 1
чва 1
человек 1
чемпи@@ 1
через 1
ческой 1
четы@@ 1
числе@@ 1
член 1
шампи@@ 1
шел 1
шение 1
шли 1
шно 1
щите 1
що 1
электро@@ 1
эта@@ 1
эти@@ 1
этой 1
этот 1
юг 1
юго@@ 1
юж@@ 1
ются 1
ющего 1
ющи@@ 1
яв@@ 1
ях 1
ѝ 1
Ѡ@@ 1
Ѥ 1
ѥ 1
ѥ@@ 1
Ѧ 1
Ѧ@@ 1
ѩ@@ 1
ѫ@@ 1
Ѯ@@ 1
Ѱ@@ 1
Ѳ 1
Ѵ@@ 1
ѷ@@ 1
Ѹ@@ 1
ѹ 1
ѹ@@ 1
҃ 1
Ҍ 1
Җ 1
җ 1
ҙ 1
Ҝ@@ 1
ҝ 1
Ҟ 1
Ң@@ 1
Ҧ 1
Ҧ@@ 1
Ҭ 1
Ҵ 1
Ҵ@@ 1
ҵ 1
Ҷ@@ 1
Ҹ@@ 1
ҹ 1
Ҽ 1
ҽ 1
ҽ@@ 1
Ҿ 1
Ҿ@@ 1
ҿ 1
Ӆ 1
ӆ 1
Ӈ 1
Ӌ 1
Ӑ 1
Ӓ 1
Ӓ@@ 1
ӓ 1
Ӛ 1
ӝ 1
ӝ@@ 1
ӟ 1
ӡ 1
ӥ 1
Ӯ 1
ӯ 1
ӵ 1
Ӷ@@ 1
Ӹ 1
ӹ 1
Ӻ 1
ӽ@@ 1
Ӿ 1
ԁ 1
Ԑ 1
Ԓ 1
Ԝ@@ 1
ԥ 1
ԥ@@ 1
Ԯ 1
ԯ 1
Գ 1
Դ 1
Զ 1
Է 1
Թ 1
Լ 1
Ճ 1
Մ 1
Շ 1
Ո 1
Ջ 1
Ռ 1
Վ 1
Ր 1
Փ 1
Ք 1
՞ 1
ժ 1
ֆ 1
։ 1
֗ 1
֣ 1
֫ 1
ֽ@@ 1
ׂ 1
׃ 1
ױ@@ 1
؟ 1
آئ@@ 1
آخر 1
آیا 1
أبريل 1
أجل 1
أش@@ 1
أغسطس 1
أكبر 1
أل@@ 1
أو@@ 1
أول 1
ؤ 1
إ 1
إذا 1
إص@@ 1
إقليم 1
إن@@ 1
إنتاج 1
ائر 1
ائع 1
ائن 1
ائي 1
ائے 1
اتب 1
اتح@@ 1
اثر 1
ادا 1
ارات 1
اسب 1
اسي 1
اسية 1
اسک@@ 1
اظ 1
اظ@@ 1
اعت 1
اعدة 1
افة 1
افی 1
اقة 1
الأص@@ 1
الأمريكية 1
الأول@@ 1
الإنس@@ 1
التاريخ 1
الثانية 1
الحكومة 1
الحي@@ 1
الحياة 1
الخار@@ 1
الذي 1
السياس@@ 1
العلوم 1
الفرنس@@ 1
المتح@@ 1
المتحدة 1
المش@@ 1
النف@@ 1
الولا@@ 1
الولايات 1
الہ 1
امری@@ 1
امین 1
انتخاب 1
انتظ@@ 1
انداز 1
انستان 1
انیا 1
اولاد 1
اں 1
ایت 1
ایم 1
این 1
ایک 1
اے 1
بالق@@ 1
بری@@ 1
بس@@ 1
بط 1
بلا 1
بلی 1
بناء 1
بھ@@ 1
بھی@@ 1
بے 1
ةً 1
تاریخ 1
تاریخی 1
تج 1
تحت 1
تحصیل 1
تحقی@@ 1
ترا 1
ترکی 1
تش 1
تشکیل 1
تعلی@@ 1
تم 1
تمام 1
تمع 1
تمل 1
تنظ@@ 1
تها 1
تک 1
تھ@@ 1
تھا 1
تھے 1
تیار 1
تے 1
ثلاثة 1
جرا@@ 1
جس 1
جماعت 1
جون@@ 1
جية 1
جگ@@ 1
حات 1
حد 1
حدیث 1
حصاء 1
حصل 1
حقی@@ 1
حمل@@ 1
حول 1
حي 1
حک@@ 1
حکومت 1
خاص 1
خصوص@@ 1
خط 1
خف@@ 1
خلاف 1
خواجہ 1
دات 1
داخل 1
دث 1
درس 1
دف 1
دوب@@ 1
دہ@@ 1
دیا 1
دید 1
ذلك 1
راض@@ 1
رس 1
روسی 1
روع 1
ريقة 1
ریلو@@ 1
ریلوے 1
زبان 1
زمین 1
زندگی 1
زیر 1
سائ@@ 1
ساب@@ 1
سال@@ 1
ستر@@ 1
سلم 1
سون@@ 1
سیاسی 1
شار 1
شركة 1
شری@@ 1
شمالی 1
شہ 1
شیا 1
صاح@@ 1
صد 1
صف 1
ضافة 1
ضلع 1
ضی 1
طاق@@ 1
طبي@@ 1
طرف 1
طريق 1
عادة 1
عبر 1
عدة 1
عشر 1
عض@@ 1
عضو 1
عقد 1
عمل@@ 1
عمو@@ 1
عند 1
عية 1
غير 1
غيرة 1
فات 1
فرد 1
فرم@@ 1
فظ 1
فق 1
فور@@ 1
فيلم 1
قابل 1
قدم 1
قوق 1
قوم@@ 1
قيق 1
قيقة 1
قہ 1
كبير 1
كز 1
كما 1
لأ@@ 1
لإ@@ 1
لائ@@ 1
لاس 1
لاً 1
لد 1
لز 1
للإ@@ 1
لیم 1
لیگ 1
مئی 1
مالي 1
مالية 1
مانيا 1
متا@@ 1
متع@@ 1
مث@@ 1
مثل 1
مدينة 1
مربع 1
مرک@@ 1
مرکز 1
مسی@@ 1
مشرق 1
مشيخ@@ 1
معظم 1
معلوم 1
مغرب 1
ملكة 1
مم@@ 1
ممل@@ 1
مواليد 1
موج@@ 1
موض@@ 1
مہ@@ 1
میت 1
میری 1
میں 1
نئی 1
نات 1
نت@@ 1
نجلي@@ 1
نسمة 1
نظر 1
نف 1
نما@@ 1
نوف@@ 1
نوفمبر 1
نہ 1
نہ@@ 1
نیو@@ 1
هذ@@ 1
هذه 1
هـ 1
وأ@@ 1
وائ@@ 1
واج 1
واض@@ 1
واضح 1
واقع 1
والے 1
وام 1
وجود 1
وص 1
وطن 1
وع 1
وفي@@ 1
وكان 1
ولة 1
ولم 1
ولية 1
ومن 1
ومن@@ 1
ويك@@ 1
وَّ@@ 1
يست@@ 1
يمية 1
يناير 1
يها 1
ٔ 1
ٖ@@ 1
٢ 1
٣@@ 1
٤ 1
٩ 1
٫ 1
٬ 1
ٯ@@ 1
ٰ 1
ٳ@@ 1
ٸ 1
ٸ@@ 1
ٹری 1
ٹل 1
ٹو 1
ٹی 1
ٹی@@ 1
ټ 1
پا 1
پارٹی 1
پاک 1
پاک@@ 1
پری@@ 1
پوری 1
پیدا 1
ٿ@@ 1
ځ@@ 1
څ 1
څ@@ 1
چند 1
ڈاکٹر 1
ڈو@@ 1
ډ 1
ڌ@@ 1
ڑ 1
ڑا 1
ڑے 1
ړ@@ 1
ږ 1
ڨ@@ 1
کان@@ 1
کراچی 1
کس 1
کسی 1
کھ@@ 1
کہ 1
کیل 1
گاہ 1
گرام 1
گن 1
گو 1
گھ@@ 1
ڼ@@ 1
ہج@@ 1
ہر@@ 1
ہری 1
ہند 1
ہندوستانی 1
ہو 1
ہوتا 1
ہور 1
ہیں 1
ہے 1
ۈ 1
ۊ@@ 1
یون@@ 1
یں 1
ۛ 1
۝ 1
ۤ@@ 1
۰ 1
۰@@ 1
۳ 1
۷@@ 1
۸ 1
ۻ 1
ܤ 1
ܥ 1
ܩ 1
ܫ 1
ܲ 1
ܶ@@ 1
ܽ@@ 1
ܿ@@ 1
݂ 1
ހ 1
ށ 1
ށ@@ 1
ނ 1
ބ 1
ޅ 1
ކ 1
އ 1
ވ 1
މ 1
ފ 1
ދ 1
ތ 1
ލ 1
ގ 1
ޏ 1
ސ 1
ޑ 1
ޒ 1
ޓ 1
ޔ 1
ޕ 1
ޖ 1
ޗ 1
ޘ 1
ޙ 1
ޚ 1
ޚ@@ 1
ޛ 1
ޜ 1
ޝ 1
ޝ@@ 1
ޞ 1
ޞ@@ 1
ޟ 1
ޠ 1
ޡ 1
ޢ@@ 1
ޤ@@ 1
ަ 1
ޮ@@ 1
ࠉ@@ 1
ࠌ 1
ࠌ@@ 1
ࠓ@@ 1
ࠔ@@ 1
ࠝ@@ 1
ࠠ@@ 1
ࠩ@@ 1
ंगा 1
ंगे 1
ंच@@ 1
ंड 1
ंद 1
अ 1
अक 1
अनु@@ 1
अव@@ 1
आप 1
इं@@ 1
इला@@ 1
उ@@ 1
उच 1
उद 1
ऋ@@ 1
एक 1
एल 1
ऐ@@ 1
ऑफ 1
औ@@ 1
कन 1
कल 1
कि 1
कै@@ 1
कॉ@@ 1
कौ@@ 1
खण 1
खा 1
गम 1
गया 1
गा 1
गी@@ 1
गे@@ 1
घा@@ 1
चंद 1
चल 1
चि@@ 1
चिकित 1
चीन 1
चे 1
चे@@ 1
चै@@ 1
छ 1
जन 1
जय@@ 1
जल@@ 1
जी@@ 1
जे 1
जै@@ 1
टल 1
टा@@ 1
टि@@ 1
टी 1
टे@@ 1
ठ 1
डर 1
डल 1
डि@@ 1
डी 1
डे@@ 1
डो@@ 1
णा@@ 1
तंत 1
तक 1
तत 1
तान 1
ति@@ 1
तिक 1
ती@@ 1
तु 1
ते@@ 1
तो@@ 1
थ 1
थल 1
थान 1
थाप@@ 1
थिक 1
दक 1
दान 1
दास 1
दिन 1
दिर 1
दू@@ 1
दे 1
दो@@ 1
दौ@@ 1
धन 1
धा 1
धी@@ 1
नई 1
नगर 1
नदी 1
नर 1
नव@@ 1
नाग@@ 1
नाम 1
निम 1
निर 1
नी@@ 1
नो@@ 1
पण 1
पत 1
पति 1
पन 1
पर@@ 1
पश 1
पा 1
पात 1
पार 1
पुरु@@ 1
पू@@ 1
पोर 1
फिर 1
बच 1
बन 1
बना 1
बर 1
बल 1
बाद 1
बार 1
बी 1
बी@@ 1
बै@@ 1
भर 1
भार@@ 1
भारतीय 1
भि@@ 1
भो@@ 1
मंत 1
मंदिर 1
मल 1
मस 1
मात 1
मार 1
मार@@ 1
मी 1
मुक 1
मुख 1
मू@@ 1
मृत 1
मौ@@ 1
यन 1
यर 1
यार 1
यि@@ 1
यी 1
ये@@ 1
यो@@ 1
रक 1
रति 1
रति@@ 1
रदेश 1
रभा@@ 1
रमुख 1
रव 1
रवा@@ 1
रसा@@ 1
रह@@ 1
रां@@ 1
राजस 1
राय 1
राय@@ 1
रिकेट 1
रिय@@ 1
रिया 1
रिया@@ 1
रीय 1
रेलवे 1
रो@@ 1
लिय@@ 1
लिया 1
लु@@ 1
लै@@ 1
ळ@@ 1
वंश 1
वक 1
वरण 1
वरी 1
वल 1
वा 1
वार 1
वारा 1
वाले 1
वि 1
विवा@@ 1
शक 1
शन 1
शर 1
शिष 1
शे@@ 1
षे@@ 1
संक 1
सद 1
सम 1
समाज 1
समु@@ 1
सर@@ 1
सिक 1
सूर 1
से 1
से@@ 1
सै@@ 1
सो@@ 1
हर 1
हार 1
हिं@@ 1
ही 1
है 1
हो 1
होता 1
िक 1
ित 1
िय@@ 1
िया 1
ीय 1
ृत 1
ेक 1
ोर 1
ौर 1
१८@@ 1
५ 1
६ 1
६@@ 1
॰ 1
ঃ 1
অ 1
এ@@ 1
ও@@ 1
ঘ@@ 1
ছ 1
ছ@@ 1
ঠ@@ 1
ড@@ 1
ধ@@ 1
প 1
ভ 1
শ 1
ৌ@@ 1
ৎ 1
০ 1
৫@@ 1
ৱ@@ 1
৲ 1
ਆ@@ 1
ਇ 1
ਇ@@ 1
ਈ 1
ਓ@@ 1
ਗ 1
ਚ@@ 1
ਟ@@ 1
ਥ 1
ਧ@@ 1
ਵ 1
ਵ@@ 1
ਹ 1
਼ 1
ੀ@@ 1
ੈ 1
ੰ 1
ઇ 1
ઈ 1
ઈ@@ 1
ઉ 1
ઊ 1
ઋ 1
ઍ 1
ઐ 1
ઑ 1
ઓ 1
ઔ 1
જ 1
ઝ 1
ઠ 1
ડ 1
ધ 1
ફ 1
ભ@@ 1
મ 1
લ 1
ળ@@ 1
ષ 1
હ 1
ૃ@@ 1
ૉ@@ 1
૦@@ 1
૪@@ 1
૫ 1
ଓ@@ 1
କ 1
କ@@ 1
ଚ@@ 1
ଜ 1
ଡ@@ 1
ଣ@@ 1
ତ 1
ଦ 1
ନ@@ 1
ବ@@ 1
ଭ@@ 1
ମ@@ 1
ଯ 1
ଶ@@ 1
ୁ@@ 1
ୂ@@ 1
ୟ 1
ୟ@@ 1
ஃ 1
ஆ@@ 1
எ@@ 1
ஏ@@ 1
ஜ 1
ண@@ 1
ற 1
ஷ 1
ஹ@@ 1
ீ 1
అ@@ 1
ఖ@@ 1
జ 1
ట 1
డ 1
డ@@ 1
ణ@@ 1
త 1
ద 1
ప@@ 1
మ 1
య 1
ల 1
శ@@ 1
ీ@@ 1
ు@@ 1
ె@@ 1
ే 1
ే@@ 1
ై@@ 1
ో@@ 1
ಗ 1
ಣ 1
ಥ 1
ಧ@@ 1
ಪ 1
ಭ@@ 1
ವ 1
ಷ 1
ೂ@@ 1
ೈ@@ 1
ೋ@@ 1
೧@@ 1
೮ 1
೯@@ 1
ഉ@@ 1
എ@@ 1
ട 1
ട@@ 1
ഥ 1
ദ 1
ന 1
ബ 1
മ 1
മ@@ 1
യ 1
ഴ@@ 1
ഷ 1
ൂ@@ 1
ോ@@ 1
ർ 1
ർ@@ 1
අ@@ 1
ඈ@@ 1
ග 1
ච@@ 1
ඨ@@ 1
ඩ 1
ණ 1
ණ@@ 1
ද 1
බ 1
බ@@ 1
ම 1
ශ@@ 1
ෛ@@ 1
กระ@@ 1
กา 1
กุ@@ 1
กุล 1
ค@@ 1
ควา@@ 1
จน 1
จัก@@ 1
จา@@ 1
จิ@@ 1
จุ@@ 1
ฉ 1
ฉ@@ 1
ชาติ 1
ชิ@@ 1
ซ@@ 1
ญา@@ 1
ฎ@@ 1
ฐ 1
ดิ 1
ตะ@@ 1
ติ 1
ตุ@@ 1
ถ 1
ท 1
ทร 1
ทร@@ 1
ทอง 1
ทิ@@ 1
ที 1
ธ 1
นคร 1
นิ@@ 1
บ 1
บว@@ 1
บั@@ 1
บาท 1
ป@@ 1
ปฏิ@@ 1
ประวั@@ 1
ปรา@@ 1
ปล@@ 1
ปา@@ 1
ผ 1
พล@@ 1
พันธ@@ 1
ฟ 1
ฟุต@@ 1
ฟุตบอล 1
ภา 1
ภาพ 1
ภู@@ 1
ภูมิ@@ 1
มา 1
มา@@ 1
มาร@@ 1
มี 1
ยา@@ 1
ยุ@@ 1
รถ@@ 1
รว@@ 1
รัช@@ 1
ริ 1
รี 1
ฤ@@ 1
ลักษ@@ 1
ลา 1
ลำ@@ 1
ลีก 1
วะ 1
วัน 1
วา@@ 1
วุ@@ 1
ศัก@@ 1
ศาสต@@ 1
ษ 1
ษ@@ 1
ษา@@ 1
สกุล 1
สม@@ 1
สร 1
สร@@ 1
สว@@ 1
สอน 1
สะ@@ 1
สาร 1
สิง@@ 1
สิน@@ 1
สี@@ 1
สู@@ 1
สโม@@ 1
สโมสร 1
หม@@ 1
หัว 1
ฬ@@ 1
อ 1
อง 1
อั@@ 1
อัลบ@@ 1
อา@@ 1
อี@@ 1
ัก@@ 1
ัง@@ 1
ัย 1
ำ 1
ีน 1
ีย@@ 1
ียง 1
ียง@@ 1
ียว 1
เก@@ 1
เกา@@ 1
เจ@@ 1
เด 1
เดิน@@ 1
เดีย@@ 1
เทศ@@ 1
เบ@@ 1
เล 1
เห@@ 1
เหตุ@@ 1
เหน@@ 1
แท@@ 1
แม@@ 1
แล@@ 1
แห@@ 1
โดย@@ 1
โลก 1
โอ@@ 1
ใจ 1
ไท@@ 1
ไฟ@@ 1
๊ 1
ຊ 1
ດ 1
ທ 1
ບ 1
ມ 1
ລ 1
ີ 1
ີ@@ 1
ູ@@ 1
ໍ@@ 1
༌ 1
ཀ@@ 1
ཁ 1
ཁ@@ 1
ཏ 1
ཏ@@ 1
ན@@ 1
པ 1
བ 1
ཙ@@ 1
ཡ@@ 1
ཤ@@ 1
ཨ 1
ཨ@@ 1
ུ 1
ྔ@@ 1
ྡ@@ 1
ྣ@@ 1
ྭ 1
ྱ 1
ྲ 1
ླ 1
ྷ 1
ဂ@@ 1
ဃ@@ 1
ဗ@@ 1
မ 1
ဟ 1
ဦ@@ 1
ဲ 1
ံ 1
ြ 1
ၟ@@ 1
ၠ@@ 1
ၣ 1
ၤ 1
ၶ@@ 1
Ⴅ@@ 1
Ⴆ@@ 1
Ⴇ 1
Ⴉ 1
Ⴉ@@ 1
Ⴍ@@ 1
Ⴑ 1
Ⴒ 1
Ⴒ@@ 1
Ⴓ 1
Ⴛ@@ 1
Ⴡ 1
Ⴣ@@ 1
Ⴤ@@ 1
ფ 1
ჩ 1
ძ 1
ჭ 1
ჳ 1
ჴ@@ 1
ሁ 1
ሃ 1
ሃ@@ 1
ሄ@@ 1
ህ 1
ሉ 1
ሊ 1
ሊ@@ 1
ሌ 1
ሌ@@ 1
መ 1
ሙ@@ 1
ሚ@@ 1
ሞ 1
ሞ@@ 1
ሣ 1
ሬ 1
ሰ 1
ሱ@@ 1
ሶ 1
ሻ@@ 1
ሾ@@ 1
ቂ 1
ቂ@@ 1
ቅ 1
ቅ@@ 1
ቕ@@ 1
ቢ 1
ታ@@ 1
ቴ 1
ች@@ 1
ኆ 1
ኔ 1
ኦ 1
ኦ@@ 1
ከ 1
ኪ 1
ካ@@ 1
ኺ@@ 1
ኻ@@ 1
ዉ@@ 1
ዑ@@ 1
ዛ 1
ዬ 1
ዴ 1
ድ 1
ዶ@@ 1
ጃ 1
ጆ@@ 1
ግ 1
ጹ 1
ጹ@@ 1
ጻ 1
ፀ 1
ፊ 1
ፐ@@ 1
፩ 1
፬ 1
፴ 1
፹ 1
፺ 1
Ꭰ@@ 1
Ꭳ@@ 1
Ꭸ@@ 1
Ꭹ@@ 1
Ꭻ@@ 1
Ꭿ@@ 1
Ꮀ@@ 1
Ꮉ 1
Ꮒ 1
Ꮕ@@ 1
Ꮞ@@ 1
Ꮵ@@ 1
Ꮹ@@ 1
Ᏻ 1
ᐁ 1
ᐊ 1
ᐋ@@ 1
ᐙ@@ 1
ᐚ@@ 1
ᐠ@@ 1
ᐢ@@ 1
ᐦ 1
ᐯ@@ 1
ᑎ 1
ᑭ 1
ᑮ@@ 1
ᑳ@@ 1
ᒍ@@ 1
ᒡ 1
ᒪ 1
ᓇ 1
ᓈ@@ 1
ᓗ 1
ᓘ@@ 1
ᓚ@@ 1
ᓛ@@ 1
ᕄ@@ 1
ᕇ@@ 1
ᕌ@@ 1
ᕠ@@ 1
ᕱ 1
ᖌ@@ 1
ᖕ 1
ᖠ@@ 1
ᖨ 1
ᖩ 1
ᖪ 1
ᖬ 1
ᖭ 1
ᗰ@@ 1
ᗱ@@ 1
ᚠ 1
ᚢ@@ 1
ᚱ 1
ᚲ@@ 1
ᚴ 1
ᚴ@@ 1
ᚺ 1
ᚾ 1
ᛁ@@ 1
ᛇ@@ 1
ᛗ@@ 1
ᛟ@@ 1
ខ@@ 1
ឃ@@ 1
ច 1
ជ 1
ផ@@ 1
ភ@@ 1
ឿ@@ 1
ែ 1
ៃ@@ 1
ោ 1
ៈ 1
ៈ@@ 1
៛ 1
᠎ 1
ᠡ@@ 1
ᠢ@@ 1
ᠤ 1
ᠩ@@ 1
ᠭ 1
ᠭ@@ 1
ᠲ@@ 1
ᡤ@@ 1
ᡥ 1
ᥑ@@ 1
ᥒ@@ 1
ᥨ@@ 1
ᥰ 1
Ჶ 1
ᴇ@@ 1
ᴉ@@ 1
ᴧ 1
ᵃ 1
ᵻ@@ 1
Ḃ@@ 1
ḃ@@ 1
Ḉ@@ 1
Ḍ 1
Ḑ@@ 1
ḑ 1
ḓ@@ 1
Ḟ 1
ḟ 1
ḯ@@ 1
Ḱ 1
ḿ@@ 1
ṁ@@ 1
ṅ 1
ṑ@@ 1
ṕ 1
ṗ 1
ṙ 1
ṙ@@ 1
ṟ 1
ṻ@@ 1
ẃ 1
ẋ 1
Ẍ@@ 1
ẏ@@ 1
Ẓ 1
Ẕ@@ 1
ẕ 1
ẞ@@ 1
Ạ 1
ạt 1
Ả 1
ả 1
ảy 1
ấ 1
ấp 1
ấy 1
ầy 1
ẩn 1
ẫu 1
ậ 1
ập 1
ắng 1
ặc 1
ặt 1
ều 1
ể 1
ển 1
ễ@@ 1
ễn 1
ệp 1
ệt 1
ỉnh 1
Ọ@@ 1
ọ@@ 1
ố 1
ố@@ 1
ồ@@ 1
ồn 1
ởi 1
ợi 1
ụ@@ 1
ụng 1
ụy 1
ủy 1
ứ 1
ứ@@ 1
ứng 1
ữ 1
ữ@@ 1
ự 1
ực 1
ỹ 1
ἂ@@ 1
ἇ@@ 1
Ἀ 1
Ἃ@@ 1
Ἆ@@ 1
Ἠ@@ 1
Ἤ@@ 1
Ἥ@@ 1
ἰ 1
Ἵ@@ 1
ὃ@@ 1
Ὁ 1
Ὁ@@ 1
Ὃ 1
Ὅ@@ 1
ὖ@@ 1
ὠ@@ 1
ὡ@@ 1
ὤ@@ 1
ὦ@@ 1
Ὡ@@ 1
ὲ 1
ὲ@@ 1
ὼ 1
ᾀ@@ 1
ᾆ@@ 1
ᾎ@@ 1
ᾠ@@ 1
ᾱ@@ 1
ᾳ 1
ᾴ@@ 1
᾽ 1
ῂ 1
ῃ 1
ῠ@@ 1
ῤ@@ 1
ῴ@@ 1
ῷ 1
⁇ 1
ⁱ@@ 1
⁷ 1
₉ 1
ₐ@@ 1
₡ 1
₥ 1
₧ 1
₪ 1
₲ 1
₵ 1
₷ 1
₾ 1
⃝ 1
ℂ 1
℅ 1
ℝ 1
ℰ@@ 1
ℳ@@ 1
⅝ 1
⅞ 1
↠ 1
⇧ 1
∏ 1
∬ 1
∶ 1
≫ 1
≲ 1
⊓ 1
⊗ 1
⊛ 1
⌊ 1
⌋ 1
⌐ 1
⌒ 1
⌠ 1
⌡ 1
⌥ 1
⑨ 1
┤ 1
┬ 1
┴ 1
┼ 1
═ 1
║ 1
╒ 1
╓ 1
╔ 1
╕ 1
╖ 1
╗ 1
╙ 1
╚ 1
╛ 1
╜ 1
╝ 1
╞ 1
╟ 1
╠ 1
╡ 1
╢ 1
╣ 1
╤ 1
╥ 1
╦ 1
╧ 1
╨ 1
╩ 1
╪ 1
╫ 1
╬ 1
▀ 1
▄ 1
▌ 1
▐ 1
░ 1
▒ 1
▓ 1
□ 1
◦ 1
☀ 1
☂ 1
☪ 1
♌ 1
♏ 1
♕ 1
♖ 1
♗ 1
♘ 1
♚ 1
♛ 1
♜ 1
♝ 1
♞ 1
♟ 1
♣ 1
♨ 1
⚰ 1
✡ 1
⟹ 1
⠀ 1
⠺ 1
⠾ 1
⨯ 1
⫸ 1
Ᵽ 1
ⱨ 1
ⱪ 1
Ⱬ 1
ⱬ@@ 1
ⲁ 1
ⲃ 1
Ⲅ@@ 1
ⲏ 1
Ⲑ@@ 1
ⲓ@@ 1
ⲕ@@ 1
Ⲡ@@ 1
ⲡ 1
Ⲥ@@ 1
ⲥ 1
ⲧ 1
ⲩ@@ 1
ⲭ@@ 1
ⴍ 1
ⴢ 1
ⴹ 1
ⵀ@@ 1
ⵅ@@ 1
ⵇ@@ 1
ⵎ 1
ⵖ 1
ⵗ@@ 1
ⵝ 1
ⵣ 1
⸮ 1
⸸ 1
⺩ 1
【 1
】 1
ぁ@@ 1
ぃ 1
ぅ@@ 1
ぇ 1
ぎ 1
ご@@ 1
ぜ 1
ぞ 1
ぬ 1
ね@@ 1
ひ 1
ぶ 1
ぺ 1
ぼ@@ 1
ぽ 1
む 1
や 1
ゅ@@ 1
ょ 1
わ 1
ゑ@@ 1
ゥ 1
ゴ 1
ヅ 1
テ 1
ハ 1
ヘ 1
ベ 1
ホ 1
ポ 1
ユ 1
ョ 1
ヰ 1
ヱ 1
ヱ@@ 1
ヶ 1
ㄊ@@ 1
ㄋ 1
ㄐ 1
ㄢ@@ 1
ㄤ@@ 1
ㄥ 1
ㄥ@@ 1
ㄨ@@ 1
ㅇ 1
ㅡ 1
ㅣ 1
ㇰ 1
ㇼ 1
ㇽ 1
㈜ 1
㎭ 1
䷿ 1
丈 1
丈@@ 1
丌@@ 1
与 1
丑 1
丘 1
丝@@ 1
丢@@ 1
两 1
两@@ 1
个 1
个@@ 1
中央 1
丰@@ 1
串 1
串@@ 1
乔@@ 1
乞@@ 1
习@@ 1
乱@@ 1
乸 1
亀@@ 1
亂@@ 1
互@@ 1
亞 1
亡@@ 1
亦@@ 1
亨 1
亭@@ 1
亲@@ 1
亳@@ 1
人口 1
什 1
仇 1
仑 1
仑@@ 1
仔 1
仔@@ 1
仕 1
仕@@ 1
付 1
仝 1
代表 1
们 1
价@@ 1
企@@ 1
伍@@ 1
伐@@ 1
伙 1
伦@@ 1
伸@@ 1
但@@ 1
低@@ 1
佐 1
佑@@ 1
何 1
你@@ 1
佩 1
佽 1
例 1
侑@@ 1
侖 1
便@@ 1
係 1
促@@ 1
俄@@ 1
俗 1
俗@@ 1
俥 1
俬 1
俳@@ 1
倉 1
個@@ 1
倒@@ 1
候 1
倚@@ 1
倶@@ 1
倻 1
假@@ 1
偉@@ 1
停@@ 1
傅 1
傌 1
傘@@ 1
傢@@ 1
傷@@ 1
働 1
僕 1
僧@@ 1
儀@@ 1
儒 1
儒@@ 1
優 1
儺 1
儿 1
儿@@ 1
允 1
兄@@ 1
兆@@ 1
先 1
免 1
児 1
兒 1
兔 1
兜 1
入 1
內@@ 1
六 1
兰 1
共 1
其 1
具 1
典@@ 1
兹 1
兹@@ 1
养 1
冀 1
冊@@ 1
冬 1
冯@@ 1
冰@@ 1
冶 1
冼@@ 1
准 1
凈 1
凌@@ 1
几@@ 1
凰 1
刁@@ 1
刊 1
刊@@ 1
刍@@ 1
刘 1
则@@ 1
別 1
到@@ 1
剌 1
剑 1
剑@@ 1
副@@ 1
剱@@ 1
創 1
劃 1
务@@ 1
劫 1
励@@ 1
劳@@ 1
勁@@ 1
勃 1
勇@@ 1
勋@@ 1
勘@@ 1
勾@@ 1
包 1
匈 1
匕@@ 1
匪 1
匱@@ 1
南部 1
博 1
卜 1
占@@ 1
卢 1
卢@@ 1
卦 1
卦@@ 1
卯@@ 1
危@@ 1
厂@@ 1
历史 1
厳@@ 1
去@@ 1
发@@ 1
叔@@ 1
取 1
取@@ 1
叟 1
叡@@ 1
只@@ 1
叮@@ 1
右 1
号@@ 1
吏@@ 1
吒@@ 1
吕@@ 1
吗 1
含@@ 1
吸@@ 1
吻 1
呈@@ 1
呉 1
呉@@ 1
呑@@ 1
员 1
呪 1
呪@@ 1
呴@@ 1
咋 1
咪 1
咫@@ 1
咲 1
咸@@ 1
哇@@ 1
哉 1
哥@@ 1
哭 1
哲 1
唱@@ 1
唵 1
啅@@ 1
啜 1
啟 1
啤 1
喃 1
喆 1
喫@@ 1
喵 1
嗚@@ 1
嗢@@ 1
嘉 1
嘘 1
嘿 1
噌 1
噌@@ 1
噜@@ 1
噠 1
器@@ 1
噹 1
噺@@ 1
因 1
囲@@ 1
圆 1
圍 1
圍@@ 1
圓@@ 1
團@@ 1
圜@@ 1
圧 1
圻 1
均@@ 1
坊 1
坎@@ 1
坐 1
坝 1
坝@@ 1
坡@@ 1
坤 1
坦 1
垂 1
垂@@ 1
型 1
型@@ 1
垒 1
垕 1
垠 1
垠@@ 1
埔@@ 1
域 1
埼@@ 1
堀@@ 1
堡 1
堡@@ 1
報 1
堿@@ 1
塗@@ 1
塞 1
塤 1
塩 1
境@@ 1
増@@ 1
墨 1
墩 1
墳 1
墾@@ 1
壘 1
壘@@ 1
壩 1
壬@@ 1
壮 1
声 1
声@@ 1
处 1
处@@ 1
夕 1
外 1
夤 1
失 1
头 1
夾 1
奎@@ 1
契 1
奔@@ 1
奕@@ 1
奨@@ 1
奶@@ 1
妙 1
妮@@ 1
妳 1
妹@@ 1
姉@@ 1
姚@@ 1
姜@@ 1
姥 1
姻@@ 1
娃 1
娑 1
娘@@ 1
娛@@ 1
娜 1
娟 1
娥 1
娥@@ 1
娩 1
娱@@ 1
婉@@ 1
媒@@ 1
媧 1
媽@@ 1
嫁@@ 1
嫌@@ 1
存@@ 1
孛@@ 1
孜 1
孝 1
孩 1
孰 1
宁 1
宅 1
宅@@ 1
守 1
完 1
宙 1
宙@@ 1
宛@@ 1
宜@@ 1
宝 1
宪@@ 1
宫@@ 1
宰 1
宴@@ 1
宸@@ 1
宾 1
寂@@ 1
寅 1
寅@@ 1
寇@@ 1
寓@@ 1
寨@@ 1
寬 1
寸 1
寸@@ 1
専 1
専@@ 1
少 1
尙@@ 1
尝@@ 1
尤@@ 1
尧 1
尭@@ 1
尸@@ 1
尺 1
尺@@ 1
尽 1
屁@@ 1
屈 1
属@@ 1
履 1
屬@@ 1
屯 1
岁 1
岐 1
岐@@ 1
岛@@ 1
岩 1
岬 1
岭@@ 1
岱@@ 1
岸@@ 1
峯 1
峯@@ 1
峰@@ 1
峽 1
崂@@ 1
崑@@ 1
崙 1
嶺 1
嶽 1
嶽@@ 1
巖@@ 1
巡@@ 1
巢@@ 1
巣@@ 1
工 1
左 1
巧@@ 1
巫@@ 1
差 1
己 1
巴 1
布 1
帆 1
帥 1
帯 1
帰 1
帽 1
幌@@ 1
幣@@ 1
幹 1
幻 1
幽@@ 1
幾@@ 1
庆@@ 1
庐 1
庐@@ 1
库 1
庖@@ 1
店@@ 1
座@@ 1
庶 1
庸@@ 1
廃@@ 1
廈 1
廉 1
廠 1
廣 1
廩@@ 1
廳 1
廷 1
廻 1
廻@@ 1
廿 1
开 1
弁 1
异 1
弄@@ 1
弊@@ 1
式 1
弓@@ 1
引@@ 1
弗 1
弗@@ 1
弟 1
弥 1
弩@@ 1
弴 1
强@@ 1
弾@@ 1
归 1
当@@ 1
彩 1
彬 1
彬@@ 1
彭 1
彰 1
影 1
役@@ 1
彼@@ 1
待@@ 1
律 1
御 1
微 1
徳 1
徽 1
徽@@ 1
必@@ 1
忍 1
忙@@ 1
念 1
怡 1
总@@ 1
恆 1
恋 1
恒 1
恢 1
息 1
悅 1
悒@@ 1
患@@ 1
悪@@ 1
悲@@ 1
悼@@ 1
惜@@ 1
惣@@ 1
愍@@ 1
意 1
感@@ 1
愷@@ 1
愿 1
愿@@ 1
慈 1
慊@@ 1
態@@ 1
慮@@ 1
憂@@ 1
憐 1
憑@@ 1
憲 1
憶@@ 1
憾@@ 1
懨@@ 1
懿@@ 1
戀 1
戈 1
戍@@ 1
戏@@ 1
或@@ 1
戚@@ 1
截 1
戯@@ 1
戻@@ 1
戾@@ 1
扇@@ 1
才@@ 1
打 1
扣 1
抄 1
抗 1
折@@ 1
抜@@ 1
抱@@ 1
抵@@ 1
抹@@ 1
拏 1
拓 1
拙 1
拜 1
拝 1
拭 1
拿 1
持 1
挙 1
挙@@ 1
挡@@ 1
捍 1
捍@@ 1
捧@@ 1
捷 1
捷@@ 1
捺@@ 1
掃@@ 1
掌@@ 1
排@@ 1
掖@@ 1
掛@@ 1
探@@ 1
控 1
揚 1
揭@@ 1
援@@ 1
揵@@ 1
搖 1
搜@@ 1
搞 1
摄@@ 1
摇 1
撞@@ 1
撰@@ 1
撲 1
擊 1
擎@@ 1
攘@@ 1
攝@@ 1
攤 1
政治 1
敎 1
救@@ 1
敖@@ 1
整 1
整@@ 1
斉@@ 1
斐 1
斑@@ 1
料 1
斛@@ 1
斡@@ 1
斤 1
斧 1
斩 1
斬@@ 1
於 1
旋@@ 1
旦@@ 1
旧@@ 1
旺 1
昀 1
昆 1
昇 1
昔 1
昔@@ 1
昧@@ 1
昱@@ 1
昴 1
昺 1
晋 1
晏@@ 1
晓@@ 1
晚@@ 1
晦@@ 1
晩@@ 1
晴 1
暁 1
暈@@ 1
暗 1
暦 1
暦@@ 1
暨@@ 1
暴 1
暾@@ 1
曆 1
曉@@ 1
曌 1
曙 1
曳@@ 1
更@@ 1
曷 1
曹 1
曽 1
曽@@ 1
朋 1
朋@@ 1
朐@@ 1
期@@ 1
朧@@ 1
未 1
札@@ 1
朮 1
朴 1
朵 1
朵@@ 1
朽@@ 1
杀 1
杀@@ 1
杂@@ 1
权 1
权@@ 1
杆@@ 1
杖 1
杞@@ 1
杨 1
杭@@ 1
杵 1
杵@@ 1
板@@ 1
极 1
枕@@ 1
枭@@ 1
枯@@ 1
柄@@ 1
柚@@ 1
柱@@ 1
柿 1
栄@@ 1
标@@ 1
树 1
栖@@ 1
栞 1
样 1
样@@ 1
核@@ 1
根 1
桃 1
案@@ 1
桔 1
桜 1
桥 1
桿@@ 1
梦 1
梦@@ 1
梧@@ 1
械 1
械@@ 1
检@@ 1
棉@@ 1
棣 1
棧 1
棲@@ 1
棵@@ 1
椅 1
植 1
楓 1
楓@@ 1
楚 1
楠 1
楼@@ 1
榆@@ 1
榊 1
榎@@ 1
榜 1
榜@@ 1
槃 1
槇 1
構 1
槙@@ 1
樋@@ 1
樘 1
樞 1
樞@@ 1
模 1
横 1
横@@ 1
樸 1
樹@@ 1
橘@@ 1
櫛 1
欒@@ 1
欠@@ 1
次 1
欢 1
欣@@ 1
欲 1
欽 1
歐@@ 1
歓@@ 1
歡 1
歷@@ 1
歷史 1
歸 1
殊@@ 1
殘@@ 1
殷@@ 1
毀@@ 1
母 1
每@@ 1
毒 1
毒@@ 1
毫 1
毬 1
毽@@ 1
氐 1
気@@ 1
氢@@ 1
汁 1
汁@@ 1
汇@@ 1
汎 1
汕@@ 1
汝 1
汤 1
汪@@ 1
汴 1
汶@@ 1
決 1
汽@@ 1
沌 1
沔 1
沖 1
沛@@ 1
没@@ 1
沧@@ 1
沪 1
沪@@ 1
油@@ 1
沼 1
泊 1
泊@@ 1
泌 1
泣@@ 1
泫@@ 1
泳@@ 1
泽 1
洁@@ 1
洋 1
洗@@ 1
洪 1
派@@ 1
济@@ 1
浒@@ 1
浜 1
浩 1
涙 1
涛@@ 1
淄@@ 1
淆 1
淇 1
淚@@ 1
淨@@ 1
淫@@ 1
深 1
淳 1
渃 1
渎 1
渓 1
渕 1
渤@@ 1
渥@@ 1
渾 1
湊 1
湘 1
湘@@ 1
溝 1
溯@@ 1
溶 1
滄 1
滇@@ 1
滋@@ 1
滑 1
滓 1
滓@@ 1
滚@@ 1
滨@@ 1
漁@@ 1
漂@@ 1
演 1
漕 1
漠 1
漣@@ 1
漫 1
漬@@ 1
潔@@ 1
潜 1
潜@@ 1
潟 1
潟@@ 1
潽@@ 1
澄 1
澜@@ 1
激@@ 1
濟@@ 1
濬 1
瀚@@ 1
瀛@@ 1
瀷 1
瀾@@ 1
灑 1
灭@@ 1
灵 1
災 1
炅 1
炆 1
炎 1
炯 1
炽@@ 1
烈@@ 1
烋@@ 1
烟@@ 1
焰@@ 1
煉 1
煎 1
煕 1
煦 1
照 1
煮@@ 1
熙 1
熜 1
熱 1
熾 1
熾@@ 1
燁 1
燈@@ 1
燉@@ 1
燎 1
燐 1
燮@@ 1
燾 1
爆 1
爪 1
爰 1
爵@@ 1
父 1
爽@@ 1
牛 1
牢 1
牲@@ 1
牺 1
犍@@ 1
犠@@ 1
犬@@ 1
犭 1
犯@@ 1
狁 1
狂 1
狄 1
狩@@ 1
狱 1
狼@@ 1
猃@@ 1
猗@@ 1
猛@@ 1
猪@@ 1
献 1
猴 1
猺 1
獄 1
獄@@ 1
獅 1
獣 1
獻@@ 1
玆 1
玲 1
珊@@ 1
珑 1
珥 1
班 1
班@@ 1
現 1
球 1
琪 1
琬 1
琰 1
琴@@ 1
琶 1
琼 1
瑚@@ 1
瑛 1
瑜 1
瑜@@ 1
瑞 1
瑟@@ 1
瑤 1
瑩 1
瑩@@ 1
瑰 1
瑰@@ 1
瑶 1
璃@@ 1
環@@ 1
璽@@ 1
瓊 1
瓦 1
甕@@ 1
甚@@ 1
甜 1
生活 1
甸@@ 1
界 1
畑@@ 1
畖 1
畠 1
畢 1
略 1
異@@ 1
畵 1
當@@ 1
畿@@ 1
疃@@ 1
疇 1
疑 1
疗 1
疫 1
疵 1
疾@@ 1
痒 1
痴 1
瘟@@ 1
発@@ 1
發 1
皆 1
皋@@ 1
皮 1
皿@@ 1
益@@ 1
盐@@ 1
盜 1
盤@@ 1
盾@@ 1
眘 1
眜 1
眠 1
眷 1
眼 1
眼@@ 1
睦@@ 1
瞻@@ 1
矛@@ 1
短 1
矿 1
砂@@ 1
研 1
研@@ 1
破 1
硅@@ 1
硕@@ 1
碑 1
碑@@ 1
碓@@ 1
碕@@ 1
碣 1
碩 1
碱@@ 1
碾@@ 1
磊 1
磐@@ 1
磯 1
磯@@ 1
礁@@ 1
礦 1
祇@@ 1
祈 1
祐 1
祓 1
祜@@ 1
禁 1
禎@@ 1
禛 1
禥 1
禦@@ 1
禧@@ 1
禮 1
禱 1
禿@@ 1
种@@ 1
称 1
称@@ 1
稗@@ 1
稚 1
稚@@ 1
稱@@ 1
稽@@ 1
稿 1
穂@@ 1
穌@@ 1
積@@ 1
穷@@ 1
穹@@ 1
突 1
窓@@ 1
窟@@ 1
窩@@ 1
窮 1
窮@@ 1
竈 1
竟 1
端 1
笃@@ 1
笑 1
笔@@ 1
笛 1
笠 1
第一 1
第二 1
笹@@ 1
筆 1
筆@@ 1
筋@@ 1
筑@@ 1
简@@ 1
箋 1
箍@@ 1
箕@@ 1
算 1
箭 1
箭@@ 1
箱 1
箱@@ 1
箸 1
範 1
篇 1
篠@@ 1
篤 1
篤@@ 1
篭@@ 1
簡 1
簡@@ 1
簪 1
簿 1
籍 1
粋@@ 1
粛@@ 1
粟@@ 1
粮@@ 1
精 1
糖@@ 1
納 1
純@@ 1
紘@@ 1
紙@@ 1
索@@ 1
紮 1
紺 1
終 1
絃@@ 1
経@@ 1
絕@@ 1
給 1
給@@ 1
絲@@ 1
絶@@ 1
綏@@ 1
継@@ 1
綾 1
綿 1
綿@@ 1
緋@@ 1
緒@@ 1
線@@ 1
緯@@ 1
緹 1
縄 1
繭@@ 1
繼@@ 1
纥 1
约@@ 1
纪 1
纯 1
纲@@ 1
线@@ 1
绍@@ 1
绒 1
结@@ 1
绛@@ 1
统@@ 1
继@@ 1
维 1
绸@@ 1
缽 1
罗 1
罘 1
罘@@ 1
罪 1
罪@@ 1
罵 1
羊 1
羯@@ 1
羲 1
羿 1
翁@@ 1
翟 1
翠@@ 1
翦 1
翰 1
翰@@ 1
翼 1
耀 1
耐@@ 1
聯 1
聲 1
聶@@ 1
聿@@ 1
肆@@ 1
肉 1
肉@@ 1
肌@@ 1
肘 1
肥 1
育 1
胜 1
胞 1
胤@@ 1
胭@@ 1
胯 1
胸@@ 1
脂@@ 1
脇@@ 1
脉 1
脑@@ 1
脚 1
脚@@ 1
脩 1
脫 1
脳 1
腕@@ 1
腥 1
腦 1
腦@@ 1
腹@@ 1
膝@@ 1
膳@@ 1
膽@@ 1
臂 1
臥@@ 1
自 1
臭@@ 1
臼 1
舆@@ 1
與 1
舉@@ 1
舌@@ 1
舍@@ 1
舎 1
舜 1
舜@@ 1
航 1
艮@@ 1
艷@@ 1
节@@ 1
芦 1
芬 1
芭@@ 1
芸 1
芹 1
芹@@ 1
芽@@ 1
苗@@ 1
苯@@ 1
苹@@ 1
苺 1
苻@@ 1
范 1
茜@@ 1
茱@@ 1
荞@@ 1
荣 1
荣@@ 1
药 1
荷 1
莉 1
莎 1
菏@@ 1
菖 1
菲@@ 1
萎@@ 1
营@@ 1
萧@@ 1
萨 1
萩@@ 1
萬 1
萸 1
葅 1
葆 1
葫@@ 1
蒋@@ 1
蒸@@ 1
蒿 1
蓉 1
蓝 1
蓮 1
蔑 1
蔘@@ 1
蔡 1
蔭 1
蕉 1
蕖@@ 1
蕙@@ 1
薇@@ 1
薑@@ 1
薙@@ 1
薫 1
薫@@ 1
藝 1
藩@@ 1
藻 1
蘊@@ 1
虔 1
處@@ 1
虚 1
虛@@ 1
號@@ 1
虫 1
虹 1
虹@@ 1
蚊@@ 1
蛇 1
蛇@@ 1
蛋 1
蛋@@ 1
蛍 1
蛟@@ 1
蛭 1
蛭@@ 1
蝦@@ 1
蝴@@ 1
螂 1
螳@@ 1
蟠@@ 1
蟲 1
蟲@@ 1
蟹 1
蠻 1
衍 1
衡 1
衢 1
衿@@ 1
袈 1
袋 1
袋@@ 1
被@@ 1
裂@@ 1
装 1
裝 1
裴@@ 1
裸@@ 1
褌 1
褘 1
襄 1
襟 1
襲 1
要 1
要求 1
覇@@ 1
観 1
覺@@ 1
觀 1
觀@@ 1
视 1
觉@@ 1
訊 1
訊@@ 1
討@@ 1
訓@@ 1
訴 1
訴@@ 1
訾@@ 1
評@@ 1
詝 1
詞 1
詢@@ 1
試 1
詰 1
誌@@ 1
誓 1
誕@@ 1
誤@@ 1
說 1
読@@ 1
誼@@ 1
調 1
調@@ 1
諏@@ 1
諝 1
諦@@ 1
諧@@ 1
諫@@ 1
諮@@ 1
諱 1
諾 1
謹 1
謾@@ 1
識@@ 1
譚 1
譜@@ 1
譟 1
警 1
譯 1
譲 1
譲@@ 1
護 1
譽 1
讀 1
讃@@ 1
讐 1
议@@ 1
记@@ 1
许@@ 1
论 1
识@@ 1
话@@ 1
说 1
说@@ 1
豐@@ 1
象 1
象@@ 1
豫 1
豹 1
貢 1
貨@@ 1
賈@@ 1
賞@@ 1
賢@@ 1
賣@@ 1
質@@ 1
賭@@ 1
賴 1
贊 1
贛@@ 1
贝 1
贞 1
贤@@ 1
质 1
贴@@ 1
贵@@ 1
贺 1
贻@@ 1
贾@@ 1
资@@ 1
赐 1
赖@@ 1
赞 1
赫 1
赳 1
赵@@ 1
趾@@ 1
跂 1
跖 1
距@@ 1
跨@@ 1
跪@@ 1
蹄@@ 1
蹈@@ 1
蹟 1
身 1
車站 1
軌 1
軒 1
輝@@ 1
輩 1
輸@@ 1
輿 1
輿@@ 1
轉@@ 1
轫 1
轮 1
轮@@ 1
轴@@ 1
辈 1
辖@@ 1
辣 1
辭 1
農 1
边 1
边@@ 1
辻@@ 1
迁@@ 1
过@@ 1
近 1
这@@ 1
进 1
远@@ 1
连@@ 1
迷@@ 1
迹 1
追 1
适 1
逆@@ 1
逊@@ 1
透 1
逑 1
递 1
速 1
逮@@ 1
遇 1
遊 1
運 1
遏@@ 1
遜 1
遜@@ 1
適@@ 1
遭@@ 1
遮 1
遮@@ 1
遷 1
遷@@ 1
遼@@ 1
邀@@ 1
邈@@ 1
邊@@ 1
邢@@ 1
邪 1
邱 1
邱@@ 1
邵@@ 1
邸@@ 1
郁 1
郑@@ 1
鄉 1
鄒 1
鄰 1
酌 1
酌@@ 1
配@@ 1
酎 1
醉@@ 1
醋 1
醍@@ 1
醐@@ 1
醫 1
醸@@ 1
釈 1
釋@@ 1
量 1
量@@ 1
釵 1
鈺 1
鉅@@ 1
鉤 1
銀 1
銑 1
銘 1
銘@@ 1
銳@@ 1
鋼 1
錛 1
錢 1
錢@@ 1
錨 1
錯 1
録@@ 1
鍋 1
鍔 1
鍾@@ 1
鎌@@ 1
鎬 1
鎬@@ 1
鏞@@ 1
鏤@@ 1
鐸 1
鑊 1
鑑@@ 1
鑣 1
鑴 1
钜@@ 1
钟 1
钦 1
钱 1
钱@@ 1
铁 1
锵 1
镇@@ 1
镛@@ 1
閃@@ 1
閏@@ 1
閣 1
閤 1
闇@@ 1
闐 1
闘 1
關@@ 1
问 1
闻@@ 1
闾 1
闾@@ 1
阀 1
阁 1
阗 1
阜@@ 1
阴@@ 1
阿 1
陆 1
陈 1
限 1
陛@@ 1
陣 1
陪@@ 1
陰 1
陸 1
険 1
隅 1
隅@@ 1
隈 1
隋 1
階 1
階@@ 1
随@@ 1
隞@@ 1
隠 1
隧@@ 1
險 1
險@@ 1
隱 1
隴@@ 1
隶 1
隼 1
雀 1
雀@@ 1
雑@@ 1
雕 1
雛@@ 1
霏 1
霏@@ 1
霑 1
靖@@ 1
靼@@ 1
鞅 1
鞍@@ 1
鞏@@ 1
鞞 1
韋 1
韦 1
韩@@ 1
韬 1
韬@@ 1
韵@@ 1
韶@@ 1
項 1
頊 1
頌@@ 1
領 1
領@@ 1
頤 1
頫 1
頼@@ 1
顏 1
顒 1
顕@@ 1
顶@@ 1
项 1
顺 1
领@@ 1
频 1
频@@ 1
飞 1
飯@@ 1
飼 1
飾@@ 1
養@@ 1
饢 1
饨 1
饮@@ 1
馀@@ 1
馄@@ 1
馍 1
馍@@ 1
馕 1
馨@@ 1
馮@@ 1
駒 1
駙 1
駮@@ 1
駿 1
騨@@ 1
騰 1
驗@@ 1
驯@@ 1
驻@@ 1
验@@ 1
骑@@ 1
體 1
髙 1
髙@@ 1
鬥 1
鬱 1
鬲@@ 1
魂 1
魄 1
魅@@ 1
鮎 1
鮑@@ 1
鮨@@ 1
鯉 1
鯤 1
鯰 1
鰯 1
鰲 1
鱀@@ 1
鲁 1
鲜@@ 1
鳄@@ 1
鳩 1
鳩@@ 1
鳴 1
鴃@@ 1
鴎 1
鴻@@ 1
鶏 1
鶚 1
鶯@@ 1
鷄 1
鷄@@ 1
鷗@@ 1
鷲 1
鷹@@ 1
鸟@@ 1
鸣 1
鸿 1
鹰 1
麓 1
麥@@ 1
麹 1
麹@@ 1
黄 1
黎@@ 1
黑 1
黙@@ 1
黛@@ 1
鼓@@ 1
鼠 1
鼠@@ 1
鼴@@ 1
齋 1
齋@@ 1
齐 1
龄 1
龐@@ 1
龜 1
龜@@ 1
ꅉ@@ 1
ꆃ@@ 1
ꊨ@@ 1
ꌠ 1
ꌠ@@ 1
ꍏ 1
ꎭ@@ 1
ꏦ@@ 1
ꏱ@@ 1
ꙑ 1
Ꞑ 1
Ɦ@@ 1
ꟼ 1
ꠈ@@ 1
ꠔ@@ 1
ꠘ 1
ꠣ@@ 1
ꠥ@@ 1
ꨂ@@ 1
ꨛ@@ 1
ꨣ@@ 1
ꨩ 1
ꩃ 1
ꩌ 1
ꩌ@@ 1
각 1
갈 1
갑 1
갓@@ 1
객@@ 1
걷@@ 1
걸 1
격 1
견@@ 1
겸 1
곁@@ 1
곡 1
곰@@ 1
곱@@ 1
곳@@ 1
곶@@ 1
곽@@ 1
괄@@ 1
괘 1
괴@@ 1
궁 1
궤 1
균@@ 1
극 1
급@@ 1
긴 1
까 1
깨 1
깻@@ 1
꼭 1
꼰@@ 1
꼼 1
꽃 1
꽐@@ 1
꿀 1
꿀@@ 1
끔 1
끝@@ 1
끼 1
낙@@ 1
낮@@ 1
낯@@ 1
냄@@ 1
넌 1
넘@@ 1
녹@@ 1
논@@ 1
눈 1
눈@@ 1
뉴@@ 1
는@@ 1
늘@@ 1
능@@ 1
닉@@ 1
닝 1
담 1
답@@ 1
댄@@ 1
던@@ 1
덤@@ 1
델 1
두 1
둑 1
둘@@ 1
둥 1
듀@@ 1
든@@ 1
딕@@ 1
따@@ 1
떡 1
뜨@@ 1
랍@@ 1
랏@@ 1
랭@@ 1
략@@ 1
량 1
렁 1
레 1
련 1
렸@@ 1
례@@ 1
록 1
론 1
롭@@ 1
료@@ 1
륜@@ 1
률 1
를@@ 1
릅 1
릉@@ 1
릴 1
릴@@ 1
립@@ 1
많 1
망 1
망@@ 1
매 1
맥@@ 1
맵@@ 1
멈@@ 1
멜 1
몬 1
몬@@ 1
몸 1
몸@@ 1
못@@ 1
몽@@ 1
묘 1
묵 1
묵@@ 1
뮌@@ 1
뮤 1
믿@@ 1
밀 1
밉@@ 1
및 1
밤@@ 1
밥@@ 1
밴@@ 1
범@@ 1
벨 1
벼 1
볶@@ 1
볼@@ 1
봐@@ 1
북 1
붉@@ 1
붐 1
붐@@ 1
븐 1
븐@@ 1
빈@@ 1
빔 1
빗@@ 1
빛 1
빛@@ 1
빠@@ 1
빵@@ 1
빼@@ 1
삭 1
색 1
샵 1
섬@@ 1
섭 1
션@@ 1
셨@@ 1
손 1
솜 1
솟@@ 1
쇼@@ 1
숭@@ 1
쉬 1
쉴 1
슴 1
습 1
습@@ 1
싫@@ 1
십 1
싼 1
쌈 1
썸 1
쎈@@ 1
쏘 1
쑤 1
쓰 1
쓰@@ 1
쓴 1
쓸@@ 1
압@@ 1
액@@ 1
앨@@ 1
앳@@ 1
약@@ 1
얌 1
얌@@ 1
언 1
언@@ 1
엄@@ 1
업@@ 1
없@@ 1
엘 1
열 1
염@@ 1
엽 1
엿 1
였@@ 1
옆@@ 1
옥 1
옷 1
완@@ 1
왜 1
욕@@ 1
웃@@ 1
월 1
웨@@ 1
웬@@ 1
윙 1
육 1
율 1
융@@ 1
응 1
잇@@ 1
잉 1
잊@@ 1
잎@@ 1
잘 1
잘@@ 1
잤 1
잭@@ 1
적@@ 1
젓@@ 1
젤@@ 1
종 1
죠@@ 1
죤 1
줘 1
줘@@ 1
쥬@@ 1
즙 1
짜 1
짝 1
짝@@ 1
짱 1
째@@ 1
쩐@@ 1
쩔@@ 1
쪽 1
쯔@@ 1
쯤@@ 1
찢@@ 1
참@@ 1
책 1
척 1
첨@@ 1
첫@@ 1
첸@@ 1
초 1
최 1
춰@@ 1
츄 1
칙 1
친 1
칠@@ 1
침 1
캅 1
캐@@ 1
캬@@ 1
커 1
컨@@ 1
컬 1
컴@@ 1
켄 1
켓@@ 1
콜 1
콜@@ 1
쿤 1
쿨 1
큰 1
큼 1
킥 1
킬@@ 1
킴 1
킹@@ 1
탈@@ 1
탑@@ 1
택@@ 1
턴 1
털 1
텐 1
텔 1
톤 1
톱 1
통 1
튀@@ 1
특 1
틀 1
틋@@ 1
틴@@ 1
판 1
팔 1
팜 1
팩@@ 1
팬 1
펀@@ 1
펑@@ 1
펜@@ 1
펫@@ 1
편 1
편@@ 1
폐 1
폐@@ 1
포 1
폭@@ 1
폴@@ 1
표@@ 1
푼 1
풍@@ 1
픈 1
픈@@ 1
플 1
피 1
픽 1
혹@@ 1
혼 1
홀@@ 1
홉 1
확@@ 1
활 1
활@@ 1
황 1
획 1
획@@ 1
효 1
훈@@ 1
훗@@ 1
휴 1
흑@@ 1
흥@@ 1
히 1
힘@@ 1
 1
 1
 1
 1
 1
 1
 1
﨑 1
ﭖ 1
ﭺ 1
ﭽ@@ 1
ﯩ@@ 1
ﯼ 1
ﯾ@@ 1
ﷲ 1
︠ 1
︡ 1
ﺇ 1
ﺐ 1
ﺨ 1
ﺩ@@ 1
ﺫ@@ 1
ﺲ 1
ﺷ@@ 1
ﺻ@@ 1
ﺿ@@ 1
ﻀ@@ 1
ﻆ@@ 1
ﻊ 1
ﻌ 1
ﻌ@@ 1
ﻑ 1
ﻓ 1
ﻓ@@ 1
ﻖ 1
ﻜ@@ 1
ﻝ 1
ﻥ 1
ﻩ 1
ﻫ 1
ﻫ@@ 1
ﻭ@@ 1
ﻹ@@ 1
ﻻ 1
ﻼ@@ 1
＃ 1
＆ 1
５@@ 1
６ 1
６@@ 1
ｊ@@ 1
𐊆@@ 1
𐊎@@ 1
𐊏@@ 1
𐊐@@ 1
𐊑@@ 1
𐊓@@ 1
𐊖 1
𐌉@@ 1
𐎀@@ 1
𐎗@@ 1
𐎘@@ 1
𐎚 1
𐎡@@ 1
𐎢@@ 1
𐎭@@ 1
𐎱@@ 1
𐎴 1
𐎷@@ 1
𐎹@@ 1
𐎺@@ 1
𐎿 1
𐏁 1
𐤇@@ 1
𐤊@@ 1
𐤋 1
𐤍 1
𐤒 1
𐤓@@ 1
𐤟 1
𐤠@@ 1
𐤮 1
𐤰@@ 1
𐦣@@ 1
𐦥@@ 1
𐦯 1
𐩣@@ 1
𐩫 1
𐩭 1
𐩴@@ 1
𐩺@@ 1
𐭡@@ 1
𐭢@@ 1
𐭣 1
𐭤 1
𐭥 1
𐭫 1
𐭭@@ 1
𐭮@@ 1
𐭯 1
𐭰@@ 1
𐭱@@ 1
𐰇 1
𐰑 1
𐰓@@ 1
𐰔 1
𐰕@@ 1
𐰘@@ 1
𐰠 1
𐰡@@ 1
𐰨@@ 1
𐰯@@ 1
𐰰@@ 1
𐰼 1
𐰾@@ 1
𐱀 1
𐱅 1
𐴌 1
𐴒 1
𐴗 1
𐴚 1
𐴥 1
𑪞 1
𑪟 1
𑪠 1
𒀉@@ 1
𒀏 1
𒀯@@ 1
𒀳 1
𒁀@@ 1
𒁈 1
𒁍@@ 1
𒁱 1
𒁲 1
𒂗 1
𒂠 1
𒂷 1
𒂷@@ 1
𒃲 1
𒃾@@ 1
𒄿@@ 1
𒅗@@ 1
𒅴@@ 1
𒆤 1
𒆳@@ 1
𒇻 1
𒇻@@ 1
𒈗@@ 1
𒈥@@ 1
𒈹 1
𒉌 1
𒉌@@ 1
𒉺@@ 1
𒊌@@ 1
𒊒@@ 1
𒋼 1
𒋾 1
𒌅 1
𒌉@@ 1
𒌑 1
𒍑 1
𒍝@@ 1
𒍣@@ 1
𝐿@@ 1
𝑄 1
𝑏 1
𝑚 1
𝛿@@ 1
🇷 1
🇹 1
🏆 1
🏠 1
🏼 1
💀 1
🕷 1
😀 1
🚲 1
🧚 1
𠳨 1
𡦂 1
𡨸@@ 1
𣛠 1
