. 0.8525728783199423
، 1
في 1
من 1
ي@@ 1
ب@@ 1
ل@@ 1
ك@@ 1
أ@@ 1
ية 1
ت@@ 1
و@@ 1
الم@@ 1
ه@@ 1
ي 1
ة 1
على 1
ال@@ 1
ف@@ 1
ه 1
وال@@ 1
( 1
) 1
ج@@ 1
ق@@ 1
ع@@ 1
ح@@ 1
الأ@@ 1
م@@ 1
الت@@ 1
لل@@ 1
ش@@ 1
ط@@ 1
إلى 1
ين 1
إ@@ 1
غ@@ 1
ر@@ 1
د@@ 1
د 1
ها 1
ن@@ 1
&quot; 0.3895533543621543
س@@ 1
ص@@ 1
ر 1
ات 1
ب 1
و 1
ل 1
م 1
ت 1
ا 1
وي@@ 1
ري@@ 1
ز@@ 1
الع@@ 1
ع 1
الح@@ 1
خ@@ 1
الس@@ 1
ق 1
ف 1
ى 1
أن 1
س 1
عام 1
الق@@ 1
ض@@ 1
الك@@ 1
الج@@ 1
سي@@ 1
را@@ 1
ك 1
ث@@ 1
ان@@ 1
رو@@ 1
ان 1
ار@@ 1
بي@@ 1
وا@@ 1
الن@@ 1
ون 1
لي@@ 1
هو 1
ًا 1
الش@@ 1
مة 1
في@@ 1
رة 1
ين@@ 1
وم@@ 1
لة 1
وت@@ 1
هم 1
الد@@ 1
الب@@ 1
مع 1
التي 1
ذ@@ 1
دي@@ 1
مي@@ 1
الإ@@ 1
ار 1
ح 1
لا@@ 1
: 1
ول@@ 1
من@@ 1
ست@@ 1
ال 1
ما 1
كان 1
ير 1
دة 1
عن 1
أو 1
اء 1
اب@@ 1
ون@@ 1
يا 1
عة 1
ز 1
الص@@ 1
الف@@ 1
وب@@ 1
ج 1
ور@@ 1
ائ@@ 1
ام@@ 1
ور 1
مع@@ 1
تق@@ 1
مو@@ 1
تش@@ 1
تم@@ 1
تح@@ 1
تر@@ 1
ام 1
ا@@ 1
لو@@ 1
ذلك 1
ن 1
ط 1
ات@@ 1
بر@@ 1
زي@@ 1
ث 1
اد@@ 1
الخ@@ 1
حي@@ 1
ير@@ 1
الط@@ 1
هي 1
ول 1
ما@@ 1
تع@@ 1
ض 1
اع@@ 1
وأ@@ 1
اً 1
هذا 1
رية 1
بعد 1
الر@@ 1
المتحدة 1
يات 1
بين 1
هذه 1
نا@@ 1
أن@@ 1
قة 1
الي@@ 1
لا 1
با@@ 1
اله@@ 1
ني@@ 1
« 1
» 1
ُ@@ 1
سة 1
قي@@ 1
وس@@ 1
اس@@ 1
اف@@ 1
وج@@ 1
كي@@ 1
وق@@ 1
الذي 1
تم 1
دي 1
وف@@ 1
كل 1
ّ@@ 1
تو@@ 1
- 1
يل 1
مح@@ 1
وك@@ 1
مر@@ 1
َ@@ 1
است@@ 1
كة 1
مس@@ 1
والم@@ 1
مت@@ 1
بع@@ 1
ته 1
حيث 1
تي@@ 1
الغ@@ 1
بن@@ 1
الث@@ 1
ارة 1
رات 1
مل@@ 1
فر@@ 1
المر@@ 1
كانت 1
ظ@@ 1
لية 1
ند@@ 1
ولد 1
ود 1
أس@@ 1
فة 1
قبل 1
عل@@ 1
در@@ 1
@-@ 0.14980011859635164
لم 1
مثل 1
غ 1
سي 1
قد 1
خلال 1
حة 1
تص@@ 1
ص 1
ئ@@ 1
آ@@ 1
بة 1
تف@@ 1
الو@@ 1
يد 1
وقد 1
اد 1
غير 1
تج@@ 1
الولايات 1
المح@@ 1
اس 1
ش 1
بن 1
يع@@ 1
لات 1
ادة 1
بل@@ 1
تب@@ 1
مج@@ 1
ء 1
كما 1
رب 1
طة 1
دا@@ 1
مار@@ 1
كرة 1
ؤ@@ 1
سم@@ 1
المج@@ 1
المع@@ 1
اني 1
لي 1
سك@@ 1
كت@@ 1
اه@@ 1
بد@@ 1
وفي 1
بي 1
تا@@ 1
سب@@ 1
سنة 1
سل@@ 1
اب 1
دو@@ 1
نية 1
لف@@ 1
اح@@ 1
بو@@ 1
وا 1
مش@@ 1
له 1
اك@@ 1
يم 1
شر@@ 1
حتى 1
بعض 1
تها 1
يق@@ 1
مق@@ 1
انية 1
بح@@ 1
سر@@ 1
ري 1
الل@@ 1
الية 1
ِ@@ 1
وم 1
عدد 1
عم@@ 1
وص@@ 1
أنه 1
ني 1
يو@@ 1
مل 1
إل@@ 1
يك@@ 1
رين 1
يس 1
وهو 1
وع@@ 1
مست@@ 1
مد@@ 1
برا@@ 1
أم@@ 1
سية 1
مان 1
مية 1
جن@@ 1
نة 1
المن@@ 1
/ 1
بار@@ 1
رب@@ 1
اص@@ 1
نظ@@ 1
الز@@ 1
ترا@@ 1
اج@@ 1
لك@@ 1
ائية 1
جي@@ 1
مص@@ 1
تك@@ 1
اط@@ 1
ورة 1
يين 1
بية 1
أص@@ 1
هر 1
سو@@ 1
او@@ 1
لاعب 1
تي 1
أل@@ 1
المست@@ 1
يم@@ 1
أكثر 1
ثم 1
اة 1
هي@@ 1
مه@@ 1
ذ 1
عية 1
كان@@ 1
الة 1
وية 1
وح@@ 1
وات 1
دية 1
نج@@ 1
عمل 1
المملكة 1
إي@@ 1
زة 1
أي 1
الي 1
ديد 1
اي@@ 1
راء 1
تد@@ 1
ئة 1
اش@@ 1
فا@@ 1
أمريكي 1
لها 1
يمكن 1
يت@@ 1
مي 1
لت 1
شي@@ 1
المص@@ 1
وري 1
اض@@ 1
الأس@@ 1
مدينة 1
وز@@ 1
به 1
نش@@ 1
از 1
بات 1
قدم 1
لعب 1
عد@@ 1
البي@@ 1
وهي 1
رت 1
لق@@ 1
عات 1
وي 1
ء@@ 1
تن@@ 1
خط@@ 1
1 0.7236854195386607
ّ 1
طر@@ 1
اق@@ 1
جو@@ 1
يه 1
عام@@ 1
– 0.6112678211848575
نس@@ 1
الأم@@ 1
كم 1
مر 1
بشكل 1
قو@@ 1
فو@@ 1
% 0.9436886498156383
نق@@ 1
أول 1
بال@@ 1
تخ@@ 1
خ 1
ود@@ 1
سط@@ 1
اخت@@ 1
حية 1
عبد 1
ابة 1
2 0.7038224975196274
نا 1
إن@@ 1
عي 1
جز@@ 1
الذ@@ 1
الاست@@ 1
ائي 1
خت@@ 1
.@@ 1
المق@@ 1
حد@@ 1
عب@@ 1
؛ 1
شا@@ 1
صل 1
الشر@@ 1
قص@@ 1
اته 1
3 0.8215876116273635
رج@@ 1
كن 1
حر@@ 1
هناك 1
وكان 1
از@@ 1
العديد 1
فية 1
تكون 1
أك@@ 1
بها 1
مك@@ 1
هد 1
ولا@@ 1
السي@@ 1
ائل 1
, 0.014565171795514741
علا@@ 1
يتم 1
عر@@ 1
يُ@@ 1
أر@@ 1
وض@@ 1
5 0.8723048965778617
الفي@@ 1
فري@@ 1
البح@@ 1
درا@@ 1
طل@@ 1
اع 1
بري@@ 1
لاح@@ 1
حص@@ 1
لف 1
المت@@ 1
المؤ@@ 1
ولة 1
أخرى 1
المس@@ 1
تين 1
ده 1
المي@@ 1
مات 1
البر@@ 1
4 0.8641748988280324
شار@@ 1
نادي 1
نو@@ 1
مركز 1
قل 1
غي@@ 1
صر 1
والتي 1
منها 1
علم 1
جه@@ 1
العل@@ 1
وغ@@ 1
أنها 1
مجلس 1
القرن 1
دار@@ 1
ريق 1
يون 1
فيها 1
عب 1
منذ 1
خص@@ 1
دا 1
حسب 1
تحت 1
استخدام 1
ومن 1
مارس 1
تعل@@ 1
ديدة 1
بط@@ 1
قر@@ 1
َّ@@ 1
كل@@ 1
الأول 1
سم 1
عندما 1
وسط 1
عشر 1
افة 1
كي 1
جامعة 1
اسم 1
ولكن 1
جميع 1
وإ@@ 1
مث@@ 1
الض@@ 1
ارات 1
ثر 1
ينية 1
الات 1
يش@@ 1
مرة 1
3@@ 1
وار@@ 1
بسبب 1
ـ@@ 1
العالم 1
أث@@ 1
سن@@ 1
هما 1
دت 1
محمد 1
دع@@ 1
قي 1
تس@@ 1
الذين 1
حول 1
سون 1
قية 1
الأل@@ 1
ٍ 1
سات 1
مؤ@@ 1
در 1
الفر@@ 1
ست 1
يو 1
أه@@ 1
يكون 1
لب 1
الله 1
قب@@ 1
لح@@ 1
6 0.889500320353883
سياسي 1
الأولى 1
وير 1
لت@@ 1
أحد 1
منطقة 1
مرا@@ 1
وتوفي 1
العام 1
بق@@ 1
مان@@ 1
تبر 1
المنا@@ 1
عند 1
داد 1
الرو@@ 1
كار@@ 1
ورية 1
فل@@ 1
مانية 1
ثة 1
الرا@@ 1
قط@@ 1
أيضًا 1
أخ@@ 1
أد@@ 1
انات 1
أ 1
التع@@ 1
المه@@ 1
نسمة 1
ادي 1
أش@@ 1
وس 1
وجد 1
شركة 1
لفة 1
أس 1
مت 1
كن@@ 1
تلك 1
دور@@ 1
سع@@ 1
2004 1
امل 1
اية 1
دون 1
صي@@ 1
عادة 1
كية 1
تُ@@ 1
مجموعة 1
كث@@ 1
وى 1
كو@@ 1
الحر@@ 1
الآ@@ 1
بدأ 1
الجن@@ 1
تط@@ 1
جا@@ 1
طي@@ 1
الأر@@ 1
الحرب 1
مب@@ 1
بت@@ 1
الأمريكية 1
لإ@@ 1
8 0.9380200867725031
بر 1
جر@@ 1
ً 1
أف@@ 1
خلا@@ 1
يح@@ 1
عمال 1
يني 1
4@@ 1
أي@@ 1
ماء 1
التح@@ 1
لال 1
7 0.8964909560948132
كس 1
مايو 1
كات 1
سكان@@ 1
بلغ 1
يت 1
اث@@ 1
علي 1
الأك@@ 1
يوم 1
النظ@@ 1
يناير 1
اف 1
وت 1
تا 1
زية 1
درجة 1
المش@@ 1
بعة 1
فبراير 1
رون 1
ندي 1
ْ@@ 1
اه 1
العمل 1
انت@@ 1
ربي 1
لاد 1
نت 1
يخ@@ 1
مال 1
مين 1
إن 1
ظه@@ 1
وفي@@ 1
أبريل 1
ولا 1
آخر 1
جنوب 1
وه@@ 1
أكتوبر 1
خي@@ 1
ولي 1
بات@@ 1
اق 1
أغ@@ 1
قائ@@ 1
فقد 1
إلا 1
دار 1
اص 1
ظهر 1
دها 1
الان@@ 1
كر 1
لم@@ 1
جب 1
جية 1
9 0.9504636803305981
&#93; 1
الثاني 1
سر 1
تز@@ 1
عمل@@ 1
عدة 1
كون@@ 1
ستخدم 1
شع@@ 1
ّة 1
&#91; 1
دات 1
فور@@ 1
ةً 1
2@@ 0.9825437460880329
ئ 1
بـ 1
قلي@@ 1
10 0.8983702644104057
دان 1
5@@ 1
فت@@ 1
عل 1
يونيو 1
الري@@ 1
جل 1
برو@@ 1
يوليو 1
ديسمبر 1
دخ@@ 1
سيا 1
عضو 1
ليل 1
فق@@ 1
سبتمبر 1
يقع 1
بور@@ 1
التر@@ 1
لكرة 1
عن@@ 1
َ 1
يًا 1
الرئي@@ 1
دف@@ 1
باب 1
العربية 1
بش@@ 1
مما 1
دائ@@ 1
فيه 1
زل 1
تأ@@ 1
عت 1
موا@@ 1
قات 1
رض 1
دو 1
وجود 1
كر@@ 1
كز 1
جهة 1
عليه 1
الدي@@ 1
المدينة 1
أمريك@@ 1
ادية 1
ستر@@ 1
دارة 1
رس@@ 1
قع 1
نوفمبر 1
ينة 1
القدم 1
وسي@@ 1
فإن 1
دم 1
بما 1
العلا@@ 1
لان@@ 1
رئيس 1
وط@@ 1
ولاية 1
سلط@@ 1
النا@@ 1
البل@@ 1
سن 1
أغسطس 1
والأ@@ 1
انتق@@ 1
تاريخ 1
أة 1
دد 1
مط@@ 1
المث@@ 1
ضد 1
سبة 1
يز 1
بين@@ 1
الرغم 1
6@@ 1
بل 1
وع 1
جي 1
نظام 1
طريق 1
لين 1
سين 1
المغ@@ 1
يخ 1
شارك 1
فقط 1
الأخرى 1
ذات 1
فر 1
اسي 1
ضي@@ 1
20 0.9878646583221307
إذا 1
الوقت 1
بإ@@ 1
البري@@ 1
زي 1
ندا 1
ربية 1
هة 1
وار 1
واء 1
ضة 1
أح@@ 1
دف 1
مدر@@ 1
شه@@ 1
التص@@ 1
داء 1
عش@@ 1
واحد 1
مخت@@ 1
جة 1
كوم@@ 1
دين 1
أما 1
ضمن 1
ة@@ 1
إحدى 1
ند 1
بار 1
رف 1
نف@@ 1
وة 1
أت 1
دير 1
انتخب 1
أكبر 1
7@@ 1
را 1
اري 1
باسم 1
نفس 1
بيل 1
الأح@@ 1
فضل 1
المنطقة 1
17@@ 0.6873889089672218
ُ 1
فض@@ 1
وش@@ 1
لاً 1
ماني 1
آن 1
حالة 1
الحزب 1
قام 1
15 1
اللا@@ 1
ولي@@ 1
تض@@ 1
خار@@ 1
روس 1
الحدي@@ 1
ريك@@ 1
مسي@@ 1
مون 1
الدرا@@ 1
صة 1
نفس@@ 1
الموا@@ 1
لام 1
ينا 1
وكانت 1
عليها 1
12 0.9368342597930779
التق@@ 1
وذلك 1
صول 1
خل@@ 1
الاح@@ 1
اغ@@ 1
18@@ 0.7383215624079286
حين 1
بناء 1
القدي@@ 1
عبر 1
وان@@ 1
لكن 1
والذي 1
كبير 1
سا@@ 1
مون@@ 1
تار@@ 1
أيضا 1
اتها 1
الأمريك@@ 1
جون 1
عد 1
حي 1
حوالي 1
داخل 1
روا@@ 1
دى 1
كري@@ 1
نجلي@@ 1
الرسمي 1
خد@@ 1
راد 1
عملية 1
ولوج@@ 1
فت 1
طور 1
الثانية 1
ذا 1
ضاء 1
القي@@ 1
سين@@ 1
كتب 1
عي@@ 1
باش@@ 1
اليا 1
يست@@ 1
رئ@@ 1
وب 1
مف@@ 1
طفال 1
مبار@@ 1
الأص@@ 1
مقاطعة 1
تبع 1
النس@@ 1
ولية 1
الحكومة 1
مال@@ 1
نين 1
مُ@@ 1
ثلا@@ 1
حصل 1
واحدة 1
الاجتماع@@ 1
جر 1
ارية 1
8@@ 1
9@@ 1
للأ@@ 1
ساب@@ 1
انا 1
بالت@@ 1
بالإضافة 1
لأ@@ 1
ـ 1
مواليد 1
وني 1
ِ 1
طبي@@ 1
المد@@ 1
ونادي 1
طي 1
اعة 1
الجز@@ 1
راً 1
ناء 1
الرئ@@ 1
رار 1
الإن@@ 1
دري@@ 1
المسل@@ 1
النه@@ 1
نوع 1
30 1
اسية 1
دن 1
19 1
فترة 1
11 1
جار@@ 1
ريقة 1
داية 1
قد@@ 1
تغ@@ 1
وّ@@ 1
نامج 1
بير 1
اصة 1
كون 1
العامة 1
جب@@ 1
المسي@@ 1
اللغة 1
ويل 1
يز@@ 1
فيلم 1
قًا 1
يقدر 1
السياس@@ 1
سمى 1
مغ@@ 1
دور 1
سان@@ 1
مثلة 1
الوطني 1
بول@@ 1
تر 1
أثناء 1
تل 1
انيا 1
مض@@ 1
كور@@ 1
رير 1
الموس@@ 1
; 0.16428039188788968
غرا@@ 1
شر 1
ادر 1
امة 1
بت 1
الفرنس@@ 1
ظ 1
القان@@ 1
ينتمي 1
الإم@@ 1
ته@@ 1
المغربية 1
رض@@ 1
تت@@ 1
خر@@ 1
نز@@ 1
للسكان 1
ودية 1
14 1
مس 1
الطبي@@ 1
بوا@@ 1
والإ@@ 1
ابن 1
D@@ 0.11959959815401494
مز@@ 1
تقع 1
جم 1
اتب 1
الجام@@ 1
16 1
تضم 1
بغ@@ 1
فق 1
أو@@ 1
منظ@@ 1
بينما 1
سل 1
عرف 1
طلق 1
الأد@@ 1
تون 1
طان@@ 1
القر@@ 1
ينات 1
25 1
الدولة 1
نم@@ 1
قال 1
قيق 1
التالي 1
18 0.9556676071881715
العالمية 1
لس 1
ارد 1
يف 1
عدم 1
المط@@ 1
لندا 1
زيرة 1
منتخب 1
دل 1
لسنة 1
L@@ 0.10895953910815051
بع 1
سرائ@@ 1
ورا@@ 1
مانيا 1
الاتحاد 1
ودة 1
13@@ 1
شخص@@ 1
17 1
سان 1
كبيرة 1
سبب 1
وتع@@ 1
تل@@ 1
تمع 1
قت 1
عين 1
لدي@@ 1
عرض 1
البط@@ 1
السل@@ 1
اليوم 1
فرنسا 1
فات 1
نسبة 1
اره 1
S@@ 0.08408115109803586
ويك@@ 1
واست@@ 1
نحو 1
عاب 1
1@@ 0.8875313197464151
13 1
وروب@@ 1
نشط 1
أجل 1
لو 1
2010 0.796849736752938
ملا@@ 1
ابات 1
بأن 1
وخ@@ 1
وقت 1
التعليم 1
ومع 1
الملك 1
مهورية 1
ندية 1
حزب 1
الحيو@@ 1
تيجة 1
يس@@ 1
ايا 1
نه@@ 1
فار@@ 1
داخ@@ 1
إقليم 1
للا@@ 1
إص@@ 1
سنوات 1
َّة 1
بلا@@ 1
الخاصة 1
يون@@ 1
الإحصاء 1
واق@@ 1
عائ@@ 1
جماعة 1
شكل 1
روف 1
الإنس@@ 1
عق@@ 1
مصر 1
يار 1
نى 1
الفل@@ 1
هـ 1
أصبح 1
مالية 1
مه 1
جائ@@ 1
قل@@ 1
غة 1
غر@@ 1
طلب 1
حد 1
استخد@@ 1
ونية 1
الث 1
زيد 1
فن 1
خدمة 1
مها 1
C@@ 0.11602457641116037
مشيخ@@ 1
العسك@@ 1
ماس@@ 1
الاقتص@@ 1
موسم 1
21 1
نط@@ 1
محافظة 1
الكث@@ 1
ضر@@ 1
شري@@ 1
رق@@ 1
صف 1
النق@@ 1
ذكر 1
معظم 1
نت@@ 1
يرة 1
ولم 1
صح@@ 1
جور@@ 1
السع@@ 1
الكويك@@ 1
بحت 1
الحياة 1
والسكنى 1
حدث 1
16@@ 0.6261359651728863
باء 1
النف@@ 1
جمع@@ 1
الفترة 1
غيرة 1
اضي 1
طق 1
الجيش 1
ولدت 1
العرا@@ 1
بطولة 1
حزبياً 1
هار@@ 1
وق 1
الوطنية 1
P@@ 0.11027502411092117
جوم 1
تمث@@ 1
الإسلا@@ 1
ربة 1
مقرا@@ 1
الات@@ 1
دًا 1
إنتاج 1
نص@@ 1
المك@@ 1
اقة 1
واقع 1
الياب@@ 1
رته 1
يف@@ 1
24 1
الثق@@ 1
شخ@@ 1
عض@@ 1
داً 1
الأول@@ 1
2013 0.9285422526167635
ادات 1
ثلاثة 1
دُ@@ 1
ضم 1
جنة 1
أُ@@ 1
وظ@@ 1
برت 1
رف@@ 1
عم 1
توي 1
عمر 1
سلسل@@ 1
الشرق@@ 1
بص@@ 1
فيما 1
نه 1
الإي@@ 1
كام@@ 1
اعدة 1
بني 1
جري@@ 1
بالق@@ 1
با 1
للإ@@ 1
راض@@ 1
قيقة 1
الخار@@ 1
مج 1
بالإ@@ 1
يؤ@@ 1
يمية 1
عه 1
نهاية 1
حض@@ 1
ضع 1
وف 1
اط 1
المُ@@ 1
المف@@ 1
ورك 1
ابع 1
عضاء 1
جانب 1
الدين 1
وله 1
سياس@@ 1
يلي 1
يبلغ 1
تصني@@ 1
وري@@ 1
الأرض 1
الأوروب@@ 1
لك 1
أبو 1
مكن 1
10@@ 0.8511591575734
كول@@ 1
ائر 1
M@@ 0.1086159376458711
خرج 1
التاريخ 1
يع 1
الجنوب@@ 1
العمل@@ 1
15@@ 0.6785056053560999
وبعد 1
راض 1
يران 1
&amp; 0.43045068647122703
R@@ 0.10340282128719037
14@@ 0.94026769878719
يش 1
الها 1
22 1
23 1
رًا 1
آيت 1
دث 1
كا 1
بريطاني 1
2009 0.8617101162757048
جرا@@ 1
وتح@@ 1
خو@@ 1
ديم 1
زوج@@ 1
يه@@ 1
تهم 1
دولة 1
تست@@ 1
معر@@ 1
الصح@@ 1
العظ@@ 1
يل@@ 1
فل 1
عبة 1
مى 1
تو 1
وَّ@@ 1
مؤس@@ 1
العص@@ 1
2007 0.9090470491783811
تج 1
جد 1
شمال 1
2008 0.8493809442037922
أحمد 1
فاع 1
بالم@@ 1
وث@@ 1
يني@@ 1
ابل 1
لول 1
حل 1
فن@@ 1
طف@@ 1
وادي 1
الح 1
صف@@ 1
لان 1
امي 1
والح@@ 1
G@@ 0.10642995217770705
آخ@@ 1
فران@@ 1
لز 1
صن@@ 1
كلي@@ 1
واس@@ 1
وسط@@ 1
البا@@ 1
H@@ 0.10448682994733963
تاج 1
ليس 1
كتاب 1
واع 1
سلا@@ 1
عط@@ 1
2016 0.8235599107343196
ائد 1
متر 1
ظر 1
وما 1
مخ@@ 1
سب 1
قا 1
جان@@ 1
لد 1
قاع@@ 1
27 1
2006 0.8737317210816619
لاء 1
دون@@ 1
اك 1
T@@ 0.0996670241869052
26 1
0@@ 1
28 1
O@@ 0.16447305590238936
جون@@ 1
لين@@ 1
انتخابات 1
طن 1
قض@@ 1
يها 1
أيض@@ 1
مور@@ 1
صبح 1
امت 1
لاف 1
به@@ 1
2011 0.7010773321373063
B@@ 0.0877734893739872
كو 1
اذ 1
وال 1
تب 1
A@@ 0.11041866449658562
ِّ@@ 1
سكان 1
قانون 1
مالي 1
بان@@ 1
ومن@@ 1
روع 1
بلو@@ 1
N@@ 0.10510824789007904
كومة 1
حق@@ 1
عرا@@ 1
نقل 1
E@@ 0.11684822940376684
سلام 1
خر 1
جات 1
تاب 1
ائز 1
2012 0.7152574202848553
ارت 1
خدمات 1
شخص 1
حم@@ 1
ضافة 1
منصب 1
حات 1
ادل 1
رح@@ 1
حال@@ 1
علومات 1
اح 1
نان@@ 1
لوس 1
29 1
طان 1
ابق 1
نشر 1
عالم 1
2000 0.8887730323459642
ظم 1
جام@@ 1
لاح 1
واج 1
باً 1
عمر@@ 1
000 0.9571866129012161
_ 0.7316638590165618
فع@@ 1
تون@@ 1
اخ@@ 1
طلاق 1
شب@@ 1
تاب@@ 1
اسم@@ 1
سام 1
2015 0.6785559006242758
موقع 1
نات 1
فس@@ 1
ترا 1
2014 0.6606387467147121
تبا@@ 1
F@@ 0.08561408802789748
اض 1
2005 0.8749017376613377
تش 1
I@@ 0.15337436270537386
دس 1
12@@ 0.7762127684239865
عص@@ 1
نوا@@ 1
شو@@ 1
دود 1
بس@@ 1
لغ@@ 1
-@@ 1
اء@@ 1
جو 1
ستخد@@ 1
تور@@ 1
لند@@ 1
لاب 1
سج@@ 1
طلا@@ 1
بول 1
ثار 1
وز 1
50 0.8266846781820383
بط 1
زم 1
المتح@@ 1
مار 1
y 0.031363483564495184
دول@@ 1
توا@@ 1
طاق@@ 1
وان 1
سور@@ 1
زا 1
نوان 1
حت@@ 1
نائ@@ 1
اما 1
دل@@ 1
حق 1
عز@@ 1
ٌ 1
باد@@ 1
اذ@@ 1
لوب 1
رام 1
وط 1
&apos; 0.12734845886716878
31 1
ملكة 1
قدر@@ 1
ارب 1
غم 1
رقم 1
الولا@@ 1
تنا@@ 1
ستان 1
= 0.8787003871169626
رد 1
رو 1
ترو@@ 1
2003 0.9409675152170385
2020 0.6936239098234865
موض@@ 1
جد@@ 1
ناصر 1
جمع 1
زن 1
حالات 1
قسم 1
2017 0.6178127418041116
سام@@ 1
٪ 1
مد 1
تنظ@@ 1
0 0.6357960037904979
طب@@ 1
راج 1
الت 1
امن 1
لندن 1
شن@@ 1
جان 1
فا 1
علوم 1
خط 1
ثق@@ 1
مز 1
اج 1
an 0.03582452888500038
ترج@@ 1
ونا 1
واح@@ 1
بد 1
فرا@@ 1
نان 1
سما@@ 1
اقتص@@ 1
خف@@ 1
ادت 1
مرح@@ 1
جن 1
دان@@ 1
مجموع@@ 1
40 0.7789846131213649
1.@@ 0.9817967468250614
100 0.7696969247940435
اعتب@@ 1
مذ@@ 1
2002 0.8289779360767643
اون 1
متح@@ 1
تعداد 1
2018 0.5434744270138717
.. 1
متع@@ 1
... 1
الا 1
s 0.040854662449912094
علاج 1
باب@@ 1
حس@@ 1
بس 1
ران 1
لائ@@ 1
مَ@@ 1
جل@@ 1
فاق 1
العالم@@ 1
قوق 1
قرار 1
2019 0.5668280405469353
2001 0.7956260906621789
تعلق 1
سلطان 1
وص 1
باع@@ 1
فلسط@@ 1
اول 1
الجزائر 1
العلوم 1
عقد 1
حمل@@ 1
راب 1
2.@@ 1
ذي 1
انس@@ 1
حل@@ 1
درس 1
سطح 1
الب 1
افظ@@ 1
W@@ 0.07672962435455516
ارا 1
حقوق 1
بح 1
زر@@ 1
وَ@@ 1
سوم 1
سا 1
مختلف 1
ورت 1
واض@@ 1
er 0.028118582818815137
اجتماع@@ 1
فرنس@@ 1
صد 1
كبي@@ 1
ساح@@ 1
اور@@ 1
التار@@ 1
وائ@@ 1
بلغ@@ 1
J@@ 0.10850352495439874
K@@ 0.07331054589590848
اتحاد 1
نف 1
مول@@ 1
آل 1
الم 1
طاني 1
ْ 1
20@@ 0.7127874226308474
الرح@@ 1
سو 1
1999 0.7903675428750372
امات 1
صدر 1
0.@@ 1
قاد@@ 1
A 0.1340310466629883
60 0.8431963768592226
تان 1
جمي@@ 1
متا@@ 1
رش@@ 1
تمل 1
منص@@ 1
نور@@ 1
ائم 1
حسن 1
1998 0.8359830224339165
مسلسل 1
1990 0.7858901712119386
حز@@ 1
ناف@@ 1
بج@@ 1
سلو@@ 1
b@@ 0.056002550478754486
ابت@@ 1
ندر 1
رائ@@ 1
1996 0.8749095928392605
خاص 1
ائع 1
1992 0.8958767041393509
185@@ 0.7311324387632736
تال 1
1997 0.8544216403613629
جما@@ 1
on 0.02537018779510204
سف@@ 1
بو 1
راج@@ 1
200@@ 1
نصف 1
5.@@ 1
بنا@@ 1
تقل 1
غز@@ 1
تمام 1
سابق 1
انتخ@@ 1
V@@ 0.08076762740520277
25@@ 0.8085023573661101
شعب@@ 1
اول@@ 1
formula 0.49185243435788145
is 0.024595828095787645
لر 1
gt 0.3534582333830369
1991 0.8643515682216746
تلا@@ 1
1994 0.8498945750429577
جذ@@ 1
80 0.8532670710765251
lt 0.4733069666169189
شل 1
بخ@@ 1
d 0.05386710372018835
1995 0.8283761578764756
وو@@ 1
جوا@@ 1
in 0.008166245208441749
اسب 1
1980 0.8776334039624574
1993 0.8693162069544682
طرف 1
سون@@ 1
عالم@@ 1
قتل 1
1989 0.9239362013166758
علاق@@ 1
of 0.008452567226093506
؟ 1
التعل@@ 1
ً@@ 1
لن@@ 1
s@@ 0.027086784775195816
خان 1
ضل@@ 1
اند@@ 1
1988 0.9612162392842125
3.@@ 1
قليم 1
سوس 1
فرد 1
لن 1
آر@@ 1
1984 1
us 0.07409052160875192
19@@ 0.7438039693388936
قان@@ 1
cian 1
t 0.02970555683484972
1986 1
رس 1
لَ@@ 1
وسف 1
politi@@ 0.8419572350627283
عمو@@ 1
son 0.07938314965775763
نح@@ 1
1982 1
جا 1
اجتم@@ 1
زب@@ 1
شن 1
70 0.8440543778180501
1979 1
y@@ 0.06006323326820647
1987 0.9728358946792274
مرتب@@ 1
نوب@@ 1
1948 1
1985 0.9917965287271295
1945 0.8181827445693308
سال 1
قائد 1
السلام 1
مسل@@ 1
مقاط@@ 1
184@@ 0.7801286527590623
P 0.2957991020921238
p@@ 0.03762026767689895
موت 1
35 0.8164913594358861
1970 0.8553881088159687
a 0.008766923227964294
C 0.23781360171837548
افظ 1
معلومات 1
فتح 1
1967 1
S 0.3024451314618073
1983 1
بال 1
فائ@@ 1
نظر 1
24@@ 0.9555617420647075
عظ@@ 1
غل@@ 1
90 0.8149340059692204
x 0.1361030485736759
شروع 1
الف 1
رر 1
1981 1
! 0.4961388947694677
صد@@ 1
i 0.07129928823179385
تخب 1
خال@@ 1
نر 1
+ 0.8353033623043934
نز 1
شار 1
مثال 1
مم@@ 1
شاعر 1
1974 0.9995510741068447
فرو@@ 1
200 0.7921372100959382
1975 0.9486594791505687
1978 0.9990607548054874
1976 0.9944171882564592
خصوص@@ 1
انتقال 1
آن@@ 1
اون@@ 1
دست@@ 1
نار@@ 1
1973 1
انق@@ 1
32 0.8152575982818103
الرحمن 1
سمي 1
نام@@ 1
اؤ@@ 1
حال 1
T 0.2887614731340816
او 1
1972 0.9166035824830525
يول@@ 1
الوج@@ 1
D 0.24856044672745045
500 0.8301737270578609
e 0.03551113941553504
طالب 1
عث@@ 1
ثقاف@@ 1
1968 0.9305974819210813
مسجد 1
مشتر@@ 1
موجو@@ 1
ick@@ 0.29316119319974276
لش@@ 1
1960 0.8104733374565565
1977 0.9786604480319996
p 0.10913977274927689
ومات 1
t@@ 0.030089063516422758
1971 0.9349865997368224
جم@@ 1
U@@ 0.09708181499026083
صاحب 1
r@@ 0.030469532787716497
1969 0.9745192885110221
l 0.05637023160892007
1964 1
سلم 1
” 0.3069437651906507
حصاء 1
ندما 1
the 0.003540716733004255
نو 1
e@@ 0.03540594962531444
o 0.03495236631208699
لاع 1
cr@@ 0.16929288755355712
1963 1
فظ 1
نواب 1
مود 1
1950 0.8415052017628739
نس 1
en 0.00879584223473455
اتح@@ 1
مقد@@ 1
c@@ 0.031179410003904527
00 0.7994942164052906
الاق@@ 1
E 0.2744913988213169
الفت@@ 1
1962 1
33 0.8278994417697052
ادا 1
ذر@@ 1
n 0.056010783521289985
1965 0.966999754556845
&#124; 0.680938637407627
1956 1
لار@@ 1
1,@@ 0.4527538648342838
M 0.2623180589366282
eter 0.6287699343048553
* 0.40951777643113485
d@@ 0.03087134741263446
انج@@ 1
es 0.01363059563363367
اور 0.7795567882850761
روز 1
مربع 1
جع@@ 1
1958 1
37 0.8435758765958572
and 0.006424975408319203
• 1
1966 0.9376081697192117
on@@ 0.04046281107637248
4.@@ 0.9933723323689041
1961 1
65 0.7917859372068884
al 0.019502599198538955
n@@ 0.027339954775738366
75 0.8259691651947063
c 0.056548148418903064
The 0.017974460798516806
الوط@@ 1
34 0.7938942036351222
w@@ 0.03252002237056264
1944 0.76637339770513
محمود 1
1949 1
1947 1
ing 0.014160058365107808
36 0.7505751437746757
ائن 1
L 0.19758232116941438
ازت 1
1946 0.935150314791666
بز@@ 1
38 0.7850435664959569
ابتد@@ 1
aller 0.6029780164195754
لاس 1
1940 0.8305322207399513
180@@ 0.6496401556541849
1941 0.8012017715195281
R 0.24047219953089627
26@@ 0.797604926863531
45 0.694502029325956
o@@ 0.038838420551501295
1939 0.8481869416949271
I 0.12005122755768871
O 0.25042701412534674
1959 0.9809489926205871
1957 1
“ 0.07988871921604068
1955 1
foot@@ 1
رم 1
h@@ 0.028738216281352383
1954 1
de 0.0038576021713346066
30@@ 0.7000532078009719
28@@ 0.832703264170609
1952 0.9954829846320395
نام 1
m@@ 0.028650985615690024
B 0.2037497025470575
a@@ 0.055711921954895764
واضح 1
زار 1
خلاف 1
in@@ 0.023906322101136104
1943 0.8035334713812278
0,000 0.9365245956802302
قدر 1
جنوب@@ 1
John 0.23427855964527386
1953 0.991084606184012
39 0.7937716321224216
خرى 1
1942 0.7886328466822822
1951 1
مقاب@@ 1
هذ@@ 1
,@@ 0.45732655343815914
خت 1
27@@ 0.7922314114179404
معروف 1
1936 0.918374940197377
00@@ 0.9524070862079927
h 0.06656636757118943
F 0.22407660103786514
قبول 1
ؤ 1
179@@ 0.6416695633038818
300 0.9277255070992378
عبد@@ 1
7.@@ 0.9905747497881696
or@@ 0.03178674777437793
MP@@ 1
el 0.01293704441447626
en@@ 0.02158219032780948
ارف 1
روز@@ 1
6.@@ 0.9477930887089334
1920 0.776471385540006
g@@ 0.023461729862774255
k 0.04490217763976054
29@@ 0.8110794053274849
سائ@@ 1
موج@@ 1
جنا@@ 1
er@@ 0.02153730073512213
روم 1
201@@ 1
Y@@ 0.09447031659735278
سفر 1
جسم 1
صرف 1
بلا 1
i@@ 0.034558690814265665
55 0.81845496573895
Mar@@ 0.07260327488507169
محل 1
ed 0.008284986832375253
f@@ 0.02050799383576123
قوم 1
g 0.06023127223957838
l@@ 0.025051264262649503
ac@@ 0.028964661946835196
نما@@ 1
1930 0.7424687488526218
x@@ 0.0736520357676506
الحي@@ 1
N 0.2497093713099399
سال@@ 1
al@@ 0.02529370095046926
1938 0.7801962167731787
1933 0.8424795307054159
والد 1
48 0.7883946031404631
ph@@ 0.058111932759299184
199@@ 1
1937 0.8586283649851798
Al@@ 0.05913772329624248
ia 0.05429308146544362
انتظ@@ 1
8.@@ 0.9868452129820521
H 0.36872309196694303
ar@@ 0.024482985570721254
42 0.7893978571879073
مظ@@ 1
um 0.049647428170745744
85 0.8400776429514188
b 0.11549034718233947
1918 0.7772509895196796
آر 1
as@@ 0.033695510967933884
ic@@ 0.0436367483718645
k@@ 0.024849860620891874
1935 0.8867209216092913
Ch@@ 0.052485677165262125
واش@@ 1
قبال 1
an@@ 0.026773618396839824
9.@@ 1
2,@@ 0.3899312080180911
el@@ 0.03059833025283304
v@@ 0.025626068619528087
am@@ 0.03755687890686421
1931 0.9714892343544712
استعمال 1
or 0.0221033653724422
1929 0.8841631902878727
1934 0.8721226901105935
64 0.6476295053961713
X@@ 0.1658458236794392
ar 0.02722369579999377
درج 1
اصل 1
طرح 1
ol@@ 0.03988310203672572
اظ 1
1922 0.944892188546039
400 0.8210740172793367
توب@@ 1
Z@@ 0.051778811561992315
عوام 1
49 0.8485663633004871
ch@@ 0.0203718710575185
47 0.7797005166697364
ation 0.017569211911697073
95 0.8785046113897818
اتا 1
41 0.775613294101335
1928 0.8326551495312552
مجمو@@ 1
1919 0.7665721972500052
باد 1
انتخاب 1
نوف@@ 1
56 0.8169559282310923
os@@ 0.05268747184713428
om@@ 0.04997177260038375
1924 0.8668019908822231
آب@@ 1
v 0.16555044466425725
1932 0.8475286022956703
44 0.6510757639273618
قوم@@ 1
بوط 1
فلم 1
th@@ 0.029009620140129894
1921 0.8870246560375601
54 0.7802024467631278
53 0.7890526663066063
72 0.8010355043652976
1923 0.9047701068649193
84 0.8900719533278614
زب 1
ay 0.07904484716762902
عرب 1
خوا@@ 1
1917 0.7997802848894129
اثر 1
52 0.715104597074482
86 0.8306928553142883
1000 1
88 0.818733248250122
ot@@ 0.04012236825559245
سمة 1
z 0.05098901706087727
عراق 1
1925 0.8546391696392188
198@@ 0.8719643050330486
خان@@ 1
Re@@ 0.062857348226644
46 0.7530482050900049
51 0.7264190773475789
ad@@ 0.02451027754474104
1927 0.8419457388237271
43 0.7370529501958436
3,@@ 0.4421611916396985
جات@@ 1
ton 0.09813162602414346
born 0.14507170760694843
66 0.7901416549918377
{ 1
li@@ 0.032445035098862235
تمي 1
رسول 1
1914 0.7465845424986222
اردو 1
87 0.8556925449187357
رن 1
83 0.8437912401283685
m 0.03765756268241833
76 0.7833625270225988
Br@@ 0.06987908177156434
1926 0.8058179026007511
57 0.7716618032490699
le@@ 0.025230942930572653
عباس 1
89 0.7969894766879023
62 0.7610145565621378
j@@ 0.03227350081271407
58 0.7561464398506492
67 0.8019710241547109
81 0.8345217020772426
,000 0.7835918569915844
1912 0.8147279106436506
99 0.8542928642244255
ٌ@@ 1
as 0.008783319704729299
at@@ 0.025695757216830067
ur@@ 0.027504834006462534
78 0.7735983217066719
63 0.7664027872933862
77 0.7869264983127838
G 0.214881426148097
71 0.8066703235849325
196@@ 0.8929042329539831
شاع@@ 1
59 0.7780138520623081
متعدد 1
amp 0.11017749998593306
w 0.05146258233520798
197@@ 0.8220168441327398
William 0.29797904176160184
An@@ 0.04820587108160558
u 0.044254409825255164
r 0.0882719010093874
وام 1
05 0.8613715128349183
69 0.825043215912132
68 0.7510766938294464
96 0.8834909447054111
150 0.9176188453101626
am 0.03833836418667718
di@@ 0.02475130268321193
f 0.05583893896796852
man 0.0695426714214145
مند@@ 1
61 0.7420952603106725
79 0.8271061947234822
01 0.7349193003588859
ثابت 1
ine 0.03643580147158096
et@@ 0.033738344233761965
htt@@ 1
74 0.7602146847676198
} 1
82 0.7559450773683332
X 0.2899995972249559
سند@@ 1
et 0.009183493982609611
tr@@ 0.01967216282005066
1910 0.7735093667108348
73 0.7850492531171027
it@@ 0.02343344333497385
James 0.3015071044994088
ter 0.028347653221857626
1915 0.8421371480105064
صاح@@ 1
em@@ 0.03118393459212131
محافظ@@ 1
ie 0.03169555531838504
us@@ 0.030832920246979135
نور 1
co@@ 0.03662357862348745
5,@@ 0.4949659449979932
ick 0.12919482401820803
آد@@ 1
شام 1
ul@@ 0.02756062026808721
im@@ 0.022713943156502263
بند@@ 1
ag@@ 0.02714453343238437
In@@ 0.047532243477747156
04 0.8230673408791759
92 0.8003350905515436
انستان 1
2021 0.17974091984763246
ڤ@@ 1
1916 0.8256162337127633
195@@ 1
1913 0.7704951135066658
98 0.8139455783526545
Ro@@ 0.10137232691955235
اظ@@ 1
at 0.011515036230709883
93 0.8483260898270869
ard 0.05961913549208026
id@@ 0.03597315094752235
V 0.1732962749951038
av@@ 0.0353208329591797
1908 0.8266925361815959
ٍ@@ 1
600 0.8879438271710548
Co@@ 0.07152244366326459
ab@@ 0.023990522548094934
ناول 1
شت 1
un@@ 0.020004345436191107
ابت 1
ينا@@ 1
Car@@ 0.07600807833395141
le 0.008449079297377588
is@@ 0.02332871715438837
03 0.8183780198758266
1911 0.7565083506993725
z@@ 0.019560192632974188
° 0.2943700310055827
to 0.004025476509071646
97 0.7972512684036097
1905 0.7549062867958907
ئر 1
id 0.10402485427201061
u@@ 0.025779490963508
ti@@ 0.023447760345868887
12.@@ 1
09 0.737960904376708
91 0.801945816111941
07 0.7423678778215169
il@@ 0.028551628133161335
ro@@ 0.03031090581340728
1909 0.8276721769528427
4,@@ 0.45215340050416025
Le@@ 0.0638915680191147
Sh@@ 0.08056208606548823
08 0.7170105054736645
قابل 1
250 0.9995123644996646
02 0.7578052664365289
all 0.04024430473186868
طقة 1
94 0.7692945066472977
es@@ 0.02409492958650707
Ar@@ 0.04300688394246443
1906 0.7795397162190502
eb@@ 0.04564427641358636
George 0.250423047584062
800 0.8257626984653783
سعو@@ 1
دوب@@ 1
ap@@ 0.027354058670879512
op@@ 0.03495557524627551
50@@ 1
1907 0.7517754708842562
معام@@ 1
— 0.021534931066792766
1900 0.608039248321001
06 0.7222664722612677
Bo@@ 0.07085103306751749
st@@ 0.012700488849565072
ers 0.016992390940675676
Ad@@ 0.07579932889986953
194@@ 1
1904 0.7725584759508871
od@@ 0.06213941040262248
St@@ 0.037829627753537196
David 0.25207691926609477
ww@@ 1
re@@ 0.008140439686569207
oc@@ 0.03581371445222188
Mor@@ 0.11988537524299464
موجود 1
افت 1
11@@ 0.7962506367694511
one 0.024331805444458805
قبر@@ 1
w.@@ 1
Mc@@ 0.15207723994562766
Con@@ 0.04447253108347642
ath@@ 0.06777297356581598
\ 1
1901 0.7945134672117745
Robert 0.24092596056659044
مسلم 1
ell 0.08133747604927437
Ste@@ 0.13277040543875535
ley 0.08843688826054019
120 0.9247265419880532
ent 0.014662067768294497
1903 0.771416703727715
W 0.22551993109326202
ir@@ 0.03480665808832351
‌ 1
lo@@ 0.02844155702958592
شائع 1
1898 0.8281492758755591
ob@@ 0.046042737610951276
ev@@ 0.03659282991938064
193@@ 1
1902 0.7563670162172395
U 0.1304609740122041
os 0.015663338017369507
Q@@ 0.18836765710334805
فوج@@ 1
.com 0.9834483504464141
ter@@ 0.025543159921027882
K 0.17722513142718993
ate 0.022047273832849962
la 0.003259717321231576
10.@@ 0.9976858023613216
ic 0.0386402699408648
23@@ 0.5801241264530994
× 0.7761667933887628
ec@@ 0.02555575389772345
وطن 1
6,@@ 0.45284721943234935
ice 0.05389798753010211
ى@@ 1
ri@@ 0.0336889554684683
دش@@ 1
ی@@ 0.9489693111387195
700 0.9279561445278559
NGC 1
ve 0.01768357881091154
1890 0.7670853680976943
1899 0.7989428472907171
Fre@@ 0.09249150385075275
ig@@ 0.02321624298032818
² 0.22573292317211194
لفظ 1
Pr@@ 0.061519616973823105
ad 0.033906846354687714
ey 0.106334691452059
1896 0.7926002887195764
Charles 0.2087182500991296
IS@@ 0.3906061121482832
40@@ 1
Tr@@ 0.03809915860412139
اعت 1
Th@@ 0.03646762316145129
1897 0.7774805381036516
ay@@ 0.05031947381414842
De@@ 0.056953969115406795
11.@@ 1
حاصل 1
Gr@@ 0.055885460301379225
80@@ 1
7,@@ 0.42784380274420825
Thomas 0.2204549081538054
and@@ 0.03547758140712832
Col@@ 0.07763721828078944
ابو 1
1895 0.7634877072909059
ref 1
دوس@@ 1
Bar@@ 0.07666979363378981
1892 0.8384360657035692
بياً 1
رل 1
ed@@ 0.025817233067980505
حدى 1
باز 1
po@@ 0.023755809792638166
0.000 0.590931249466816
og@@ 0.05063668445598843
· 0.11849069264999078
ch 0.03393057024558116
احمد 1
8,@@ 0.4631535924164971
3000 1
Mo@@ 0.06490173618631141
ut@@ 0.029210823088475373
1889 0.7917746353977984
ana 0.04590597303639781
اوت 1
35@@ 1
ner 0.04533867694972332
bas@@ 0.06828314058794238
American 0.06731366484588291
است 1
1885 0.7901336612199971
1894 0.796698754223297
ah@@ 0.04672706437526541
’ 0.019262677552316892
im 0.014310482139599555
ne 0.025781634497257476
1891 0.8037523784154403
El@@ 0.07352528200853163
1893 0.771986213285018
th 0.02274515290425642
Di@@ 0.049527003291750915
ent@@ 0.014105009764635024
um@@ 0.02303646083018915
سند 1
1888 0.8104740069536325
C. 0.28116782270686974
1880 0.7271907567780498
qu@@ 0.01696564344127791
1884 0.8521367627263989
ce 0.022980904334604833
بريل 1
ence 0.02766286108359395
امام 1
ماب@@ 1
sh@@ 0.02953916275200052
192@@ 1
ak@@ 0.024956040239200762
Wil@@ 0.12941528938661476
Her@@ 0.06217407413724579
ler 0.05200458033067074
دوران 1
1886 0.8066129982417912
1870 0.6733850482982465
AT@@ 0.3393701372185974
1887 0.8144390372828243
1500 1
actor 0.3745443358815558
CO@@ 0.418490792228801
1878 0.8070830105044696
ps 0.0728184593049966
Ne@@ 0.06592101370925266
1882 0.843013435105972
New 0.041962696840491455
Ed@@ 0.1374319155677903
اُ@@ 1
1881 0.8210402590446857
ڭ@@ 1
وسلم 1
ina 0.04436430942591808
صوب@@ 1
مراد 1
0,@@ 0.18326875998959294
اِ@@ 1
E. 0.463697757546572
der@@ 0.030296311989940473
1861 0.8003726317400688
age 0.015539844508039911
1883 0.8288435837643204
Par@@ 0.04029441091696276
1876 0.808785282827173
W. 0.49305153120746953
Com@@ 0.03488656845332357
Henry 0.2404027343370489
bi@@ 0.027806962973191185
1860 0.7074591326886893
ell@@ 0.03536200471854122
ov@@ 0.04843050040429784
1871 0.7291413877558541
tri@@ 0.03295231723806194
Cor@@ 0.0646582222275115
ker 0.08779291743036913
1879 0.7916168655750063
Per@@ 0.06241011849244953
Cl@@ 0.10946208629029715
Har@@ 0.08767618735712165
for 0.006041021415005117
by 0.006646822511484052
enn@@ 0.06128989235936984
ver@@ 0.011219738058431844
si@@ 0.01674627865812108
جلد 1
خات@@ 1
ber@@ 0.03288627643600891
# 0.2776281422213452
9,@@ 0.4205102997886706
Michael 0.19174501935468766
af@@ 0.02516858322677411
ary 0.026332957127757198
ill 0.12283789420809722
Richard 0.2237958367796479
پ@@ 0.6258881785734774
eg@@ 0.020930773980095893
se 0.007251959874708186
it 0.008486473063625705
ist 0.011444594557341968
$ 0.08616697122083257
ati@@ 0.031239013255860162
der 0.0031467522048380767
180 0.9482312888714265
end@@ 0.025759294921360948
te 0.008012635536182585
1867 0.7567721143421915
AS@@ 0.2231761829529676
vi@@ 0.018688149352433913
Sp@@ 0.04828830324866662
جس 1
ne@@ 0.024885961161366363
Harr@@ 0.2399241266140672
For@@ 0.05140165110992483
all@@ 0.029782950917642975
33@@ 1
واز 1
Se@@ 0.04316740960989653
il 0.014143025458436594
مقام 1
ae 0.14735754774726484
1877 0.7589845437918951
L. 0.5160037211391997
He@@ 0.05288764601134977
ale 0.02119382264315849
ra@@ 0.03134381732720986
Ph@@ 0.06915748718522396
Paul 0.13486152202229304
1873 0.7541009199842642
Mat@@ 0.11265074464738169
شامل 1
آباد 1
1848 0.6799562430209197
Gu@@ 0.05266993584183214
900 0.9393226844778741
tion 0.012730833111543702
Bur@@ 0.07801274760138399
ard@@ 0.05078918027251593
par@@ 0.016184662901472007
Y 0.2639919476825814
ep@@ 0.030665261328476873
arr@@ 0.040911811621540166
au@@ 0.01765115162181667
160 0.9905449844060153
Sch@@ 0.0199112806783777
de@@ 0.015811371178922597
1875 0.7360109268397778
1866 0.6163676805644147
1865 0.7006450757814676
1864 0.6840993025075089
190@@ 1
روش@@ 1
1868 0.7324552111577032
ff@@ 0.03465757370599529
130 0.8910799510692862
Ser@@ 0.058869995886448805
per@@ 0.016469331325329746
110 0.8246836275530463
Smith 0.25027714856120625
da 0.028484768262195276
نوم@@ 1
football 0.11006784989213464
ess 0.0343970309070154
مشر@@ 1
II 0.061586106208009285
ni@@ 0.02836742621661527
bo@@ 0.02992699051020709
CA@@ 0.1770365085713403
uc@@ 0.04598675716053307
1872 0.7270215482012066
est@@ 0.01889305235471757
1869 0.7601774433349758
والسك@@ 1
á@@ 0.03234340024008683
1874 0.7089000888503441
br@@ 0.016577239110311785
ea 0.07874598003010898
S. 0.33895775048999904
ata 0.08416734538821126
od 0.040895991253269794
oph@@ 0.0942075016014983
NA 0.5087850333034298
خدمت 1
ou@@ 0.02838166157822813
قائم 1
az@@ 0.03825948117528882
ly@@ 0.08748592857964543
ta 0.030003774479479325
ans 0.022643171280094476
ins 0.04021410053799659
yl@@ 0.09298013531459016
AR@@ 0.25105256239719104
ts 0.013439607426704284
1863 0.6592949136241216
Qu@@ 0.042749305579440615
se@@ 0.014073505847165272
124@@ 1
R. 0.3965312829127691
ok@@ 0.03811718139790426
ach@@ 0.01834373459496481
ight 0.03606304017024403
lin@@ 0.03608313852651732
بنا 1
gr@@ 0.016797178450379997
B. 0.19579358699190214
Cr@@ 0.0742855655232851
Dav@@ 0.21365618006297185
ez 0.10239051179002083
to@@ 0.019993209720356748
are 0.010518608158789973
Ma@@ 0.05274328323042018
Nor@@ 0.04278152887154435
la@@ 0.032797152687446235
1850 0.6344796845181887
AC@@ 0.32409615731674946
ST@@ 0.5462193243526863
En@@ 0.04660380692835505
ory 0.03928293204439163
1862 0.6241647779087821
فوج 1
350 0.9448820648704991
CD@@ 0.33926649223831146
est 0.005570870615033214
^ 1
Wal@@ 0.10315478020491319
ica 0.03303069490479414
ore 0.052182922273884685
yn@@ 0.10261483461676127
Be@@ 0.02645600885217761
ann@@ 0.03241491725318352
ختم 1
D. 0.2616333472414301
na 0.04297617727298287
onald 0.35406875215460243
é@@ 0.009650077816942678
140 0.8654109060466592
Man@@ 0.04246847290036233
series 0.06379255072055168
י@@ 1
Mon@@ 0.0393367915122022
pl@@ 0.014361028003108522
ly 0.011673402272875397
Am@@ 0.041978311438806135
ik@@ 0.0343448710666926
do@@ 0.02642703136831855
sen 0.06786649462610367
ens 0.02629018905460455
yr@@ 0.07560575785839556
قبض@@ 1
Jo@@ 0.10461264080827011
ge 0.01875549603641827
Joseph 0.16628654953424973
ma 0.04672374292881018
Fo@@ 0.08452971981307682
Gar@@ 0.10064438869439324
Edward 0.2751637163195571
گ@@ 0.5990211066234096
Andre@@ 0.18070136459926947
Ex@@ 0.04479386768227233
Z 0.2510767542428207
Ber@@ 0.046374197728924066
? 0.14459628835568797
und 0.0033596310926700505
tor 0.03581120593693012
ver 0.03518119884636238
Li@@ 0.051212110198963066
Chr@@ 0.10738565926473857
ace 0.043266277728879365
Australian 0.17072141411444333
ity 0.02123540988990164
ib@@ 0.042836500501706155
aw@@ 0.03636246888216114
ah 0.07685960675317688
com@@ 0.015930770401162173
120@@ 0.8767942901535247
ho@@ 0.017750777108251136
ک@@ 0.38435989623049194
2022 0.20324424988743112
ue 0.021304689647262308
Frank 0.29098951171666887
Ros@@ 0.10855663635054827
ase 0.04910071389283457
1830 0.6811400614427158
ing@@ 0.025686740831926864
bert 0.13897284049786962
name 0.0476147852426811
me@@ 0.018024937625646463
re 0.015103102494886824
Peter 0.1395797513341512
Rob@@ 0.2026881711461419
Hol@@ 0.060645787652958145
آغ@@ 1
Ac@@ 0.05219733172713118
ass@@ 0.017501339135911703
gen@@ 0.019134295008220704
ill@@ 0.028508125189364387
ex@@ 0.010829640792028111
Or@@ 0.031938988637289424
101 0.7798690939903652
Clar@@ 0.2110200963726157
نساس 1
1800 0.6870763753819874
ci@@ 0.01830764627987701
ess@@ 0.030219468527581558
no@@ 0.031373102186515775
ang@@ 0.01596178237570144
AD@@ 0.40041363922824263
ھ@@ 1
land 0.022595110804842257
J 0.16669790413089677
st 0.021246309667809275
ang 0.039384578323235206
ens@@ 0.023504774054678827
art 0.035339434338856016
Lo@@ 0.06615679625778334
ike 0.10542391454961406
ol 0.04810684725570724
Er@@ 0.024086900760619607
ممل@@ 1
Bro@@ 0.08277994092210045
ball 0.0900354785354102
AM@@ 0.37878677920354215
ow@@ 0.032491163267514576
Ger@@ 0.049943774680128256
ma@@ 0.02239410458329034
Sam@@ 0.12540956732163458
188@@ 1
حوال@@ 1
Pol@@ 0.03864104450911491
Ab@@ 0.02897049254156619
ו@@ 1
idae 0.07981304599982676
IC@@ 0.3094758656329919
per 0.046715055923313105
ra 0.03213463101220698
hi@@ 0.023292783016965413
ty 0.02794198136367524
Po@@ 0.04788523168481457
ici@@ 0.039512335587644595
Gre@@ 0.06511988462610428
ks 0.02432792661976241
mo@@ 0.01898750968394767
RA@@ 0.2355979608411876
Mur@@ 0.13383867792962448
سطس 1
انص@@ 1
su@@ 0.01483650236217277
des 0.003338381219887244
189@@ 1
ensis 0.2220022421329712
man@@ 0.018583057395915648
sc@@ 0.04195558855746166
.000 0.3793736432036599
Brown 0.24952683727672306
ack@@ 0.0426049293799424
As@@ 0.04310935497003923
US@@ 0.14931399333747236
ant 0.009359814161086149
pr@@ 0.013785849727510593
چ@@ 0.6455263678891426
unc@@ 0.056856552393910735
ford 0.0716665814646752
ony 0.09434900939431105
ord@@ 0.04296222944130338
the@@ 0.03511972336650296
− 0.37355140246881
tin 0.0827969620950162
ab 0.048977695324214435
ance 0.01697087385632968
ys@@ 0.052665056962137205
TV 0.08594254484712355
How@@ 0.28104204586179043
Martin 0.14622172854639284
ment 0.02093248537054814
BC 0.14035832855591399
ot 0.05023525089040829
str@@ 0.0204763599416645
ir 0.024651642163176127
ke 0.039367816326515544
un 0.004312970629568849
وفات 1
len 0.05863262243959933
ome 0.049590287984083214
enti@@ 0.0242063618418548
جواب 1
dice 0.2695669853500765
Scott 0.27924317319084674
SP@@ 0.274235283799188
hy@@ 0.07568096389144101
inc@@ 0.02489357536659931
كاون@@ 1
ai 0.04481572189073126
ene 0.035714876807552795
SS 0.25090501357710104
AC 0.2531464276945306
Cal@@ 0.09165376898971508
my 0.13412364698751333
مدد 1
Ben@@ 0.0897349789392535
Lee 0.21338463951320444
Bl@@ 0.06586510635624362
آ 1
Steph@@ 0.2295639963288925
con@@ 0.009362018403735486
موال@@ 1
anc@@ 0.027137384319976584
mar@@ 0.016217536135776086
187@@ 1
ich@@ 0.024485493364875315
les 0.004751288783566398
Fl@@ 0.050498140759737443
Mark 0.20022296650779814
ame 0.060194198021654384
Me@@ 0.04034919110299319
Ver@@ 0.0137067317303877
iz@@ 0.02073011452171819
ud@@ 0.04382232260532896
Q 0.2786967715840841
ket@@ 0.1193087112265759
Go@@ 0.06853756616543144
dis@@ 0.01105982207901846
Char@@ 0.06252956483127237
Tom 0.26661072252801465
ari@@ 0.030314731746906454
Joe 0.29048514876834153
sp@@ 0.01567869857634279
ane 0.06155958727560841
ney 0.07168300437982876
Str@@ 0.043118659686218336
آز@@ 1
MS 0.22791581245232284
dy 0.13368471849071803
Pe@@ 0.05111947977987164
mus@@ 0.029707756188272608
ry 0.07271382170035202
AN@@ 0.32482056668125636
ws 0.037682209604218635
Bri@@ 0.13497834372212184
gu@@ 0.02126612069626296
car@@ 0.019185791387698346
Jack 0.24261216742687813
اسلا@@ 1
Alexander 0.1947163300703631
La 0.010375475885658087
den 0.004499146058189701
pe@@ 0.02612048240881763
ya 0.026885255876415725
Daniel 0.22257679208892148
he@@ 0.0165569263617521
co 0.03150728704146936
be@@ 0.009457736510831562
te@@ 0.013657113643246814
é 0.0060233184436723815
be 0.00892275195679926
Pro@@ 0.043994854564705164
dr@@ 0.024947398815243337
yan 0.1688854706405998
und@@ 0.019049814834034815
Hug@@ 0.20415263149239782
ella 0.08343304031154503
ison 0.05065025957016826
ons 0.012960229168038972
We@@ 0.042952500068909924
era 0.019906119620368163
ok 0.06377718129349384
‘ 0.17944049799161532
Ir@@ 0.053865345332138784
Williams 0.23181888389466163
Na@@ 0.24767188583926217
gi@@ 0.019350073709743433
ish@@ 0.04116227196327417
Ho@@ 0.06250109544270563
ist@@ 0.0197695448966816
ano 0.02815773501493918
ER@@ 0.30226237158002645
old 0.029265359484639177
do 0.02158107831493127
ملا 1
Mas@@ 0.06410757865089707
Fr@@ 0.03819044390293731
Ale@@ 0.15377966059834633
OS 0.24518667748834386
erry 0.1729787107027616
186@@ 1
uel 0.1563675807281782
AP@@ 0.29258775515549185
Rus@@ 0.04496984328281369
if@@ 0.0259343827557847
ó@@ 0.024487431566251987
ology 0.05073637056168997
ak 0.035340713278186026
CH@@ 0.3857724745222664
lor 0.24913178647420975
ave 0.044526166045079085
ES@@ 0.18271872061518257
IM@@ 0.3997435886625184
Mil@@ 0.079582651633415
Pl@@ 0.0357712404852156
our 0.027828582376828545
so@@ 0.015104643486127325
iv@@ 0.02255928684751642
José 0.14261818981080376
ies 0.02756649165312702
ith 0.11744068245985972
Johnson 0.2230689331194386
q@@ 0.12821515564173167
ناك 1
ant@@ 0.02146899004515229
sel@@ 0.024281933620501583
ous 0.016922899136197933
ain 0.02451993865668283
Mac@@ 0.08996432678691575
ite 0.012762556629846555
Lu@@ 0.05700719784478536
Thom@@ 0.298347603165318
ail@@ 0.033083022557624825
onn@@ 0.028041870502192968
Canadi@@ 0.12723149098080921
Jones 0.20521852517992087
So@@ 0.039169792797736615
Arthur 0.23278463059837018
DNA 0.41963093911017746
SA 0.2588202303734816
Christ@@ 0.08921888111341528
Sal@@ 0.04801642554980253
ub@@ 0.04413543331035401
University 0.027513704745859773
ect 0.02613703395185127
om 0.045326836923113276
حضرت 1
Ander@@ 0.22148620328668203
har@@ 0.04684769060992257
lie 0.11147844493561461
Wo@@ 0.08056270576917128
Mal@@ 0.04770990664870363
Walter 0.23732983895042659
SA@@ 0.2594142725614034
cor@@ 0.0188082864239924
ran@@ 0.02103399202023217
Tay@@ 0.22750822514226476
انسان 1
Fran@@ 0.05625919038691417
Tur@@ 0.04579993975025489
res@@ 0.010835365007405614
du@@ 0.027159034946625124
MA 0.3160290719393169
di 0.051165066885653185
PS 0.26555427525347947
… 0.12025802992572035
ek@@ 0.01778300914185716
Franc@@ 0.16665026226567967
ind@@ 0.027828495496532962
pi@@ 0.016074049657648592
Hy@@ 0.11085358150473527
ack 0.034683407672543715
Un@@ 0.03175125019036864
hi 0.09083465775635234
ve@@ 0.0315293296721934
Is@@ 0.04450738858019073
Sim@@ 0.10611786881043427
ara 0.057401906079632574
ی 0.36679094727375433
ical 0.02195965507988911
III 0.06726284418813391
ire 0.021377403315851504
ru@@ 0.020481125709007023
Rog@@ 0.17853126012579526
World 0.031774927194899695
ics 0.03331880147666701
van 0.09634782282316405
val@@ 0.03539479443633442
tic@@ 0.031211012717868202
زمان@@ 1
Ram@@ 0.12479803876613273
Rod@@ 0.16632128778092303
بند 1
Ham@@ 0.10038423027284016
lu@@ 0.026220597112084625
tis 0.15670063865491582
Ge@@ 0.025797163054906428
mond 0.1591820906093642
oy@@ 0.03878692395587483
ure 0.016625261907793162
ile 0.01835980675170826
j 0.09596818523498157
mon@@ 0.013360190076615387
oh@@ 0.04416630740252272
ca 0.0367903659968498
able 0.012045133974322641
min@@ 0.014633394220082557
اندر 1
Tom@@ 0.13151097301129347
eh@@ 0.01524511232319381
ira 0.10319128594108276
we@@ 0.012169065984928373
SE@@ 0.205049775133681
ns 0.04451222194220232
Mag@@ 0.054594406940186906
ef@@ 0.02473584010169941
bel@@ 0.02268954180072073
mi@@ 0.021388464725429008
ations 0.009763579913529405
ili@@ 0.02393016088383742
win 0.06355385878903512
Ag@@ 0.08181540964354514
Dr@@ 0.05773937134748336
sa 0.018651517314760287
Hor@@ 0.08032814593132495
NE@@ 0.3470400563743204
Cam@@ 0.08176588564711665
IN@@ 0.17872280847947236
Patr@@ 0.12012253749607928
White 0.1281342652404768
ish 0.018440011630386003
ti 0.04872180437819118
COVID 0.29604440261567333
Cas@@ 0.061529175106259486
mer 0.026604337794738038
قرآن 1
ضلع 1
q 0.12310254442663665
with 0.00312757646036295
í@@ 0.01771109480641408
sch@@ 0.007259819233821732
Juli@@ 0.10941096234778021
Kenn@@ 0.16402307613446954
ha@@ 0.05167545001703434
lar@@ 0.026729792702637954
pe 0.025366411663094265
right 0.07128757061746152
iller 0.09619290602571957
col@@ 0.0174799496114796
RO@@ 0.33899041315393935
فرانس 1
نسل 1
Conn@@ 0.15205390544408234
mer@@ 0.021481511066362563
Des@@ 0.047945552044674954
ales 0.011877277885791983
day 0.029947227127469063
rez 0.20404991379145707
ta@@ 0.021021901391936677
Wat@@ 0.1120479093154117
tic 0.03611844603887362
tim@@ 0.03097006520191261
بتا@@ 1
→ 0.7566513857837757
ali@@ 0.021582467168173736
end 0.015720584241300874
ake 0.0697166739984434
Lin@@ 0.07387499539296931
Mer@@ 0.05491982439295014
ach 0.018910954610014834
include 0.048803071005900485
Kr@@ 0.04112585327354303
CI@@ 0.25648201953088007
My@@ 0.14885350645980408
Rich@@ 0.08353668284148119
cher 0.05330005744148205
~ 0.6593812810074766
WWE 0.5526545902769329
ug@@ 0.026787233015434432
α 0.07171459700831113
افراد 0.8533903884433697
Reg@@ 0.02363139354911481
ora 0.05117845801962242
Val@@ 0.043512075462862336
war@@ 0.03535515513576633
yp@@ 0.04369252946272632
Bi@@ 0.0416066979977721
bl@@ 0.016356399603363898
section 0.09462038677882756
AB@@ 0.3364033110420073
pp@@ 0.029801614395517165
AS 0.2625043324687976
Law@@ 0.19384383609271133
UN@@ 0.175836990063223
die 0.0023570739340442446
tu@@ 0.023809674206067215
Ang@@ 0.036708421846188805
ett 0.09771744948506272
ise 0.016682888767709275
IV 0.09772474049061904
Te@@ 0.041970487456199565
va 0.04434357989297822
Ke@@ 0.11248677742783034
ern@@ 0.04468182087161917
ung 0.0061958035546101796
والا 1
Albert 0.18195383028613496
amp@@ 0.03092113135505776
ro 0.05725631936339791
بولا 1
AP 0.2701757041023166
occ@@ 0.07526225797101208
Eri@@ 0.18079082316810083
ockey 0.11666922826164679
At@@ 0.052846825500524296
vin 0.23468963911477095
Ap@@ 0.09800294006497393
CD 0.13193709834298425
ams 0.036797836326520804
dez 0.2017642659059529
Wi@@ 0.06622365058112226
Em@@ 0.0547137674749839
Al 0.07358969384998891
No@@ 0.05696937203008148
ich 0.024730700190138958
0s 0.031112495072847236
John@@ 0.23754159575277958
ym@@ 0.04106842155767441
Sol@@ 0.05932014433142874
em 0.02877223984699426
ino 0.029347800688543008
Fern@@ 0.08008525214108685
Don 0.16409335891605734
ald 0.16204258206689753
א@@ 1
sa@@ 0.02349377274821681
‍ 1
aj@@ 0.02931658223981173
ator 0.04552167525485056
ism 0.04809900925154968
ka 0.033056718540364995
International 0.04915982266466382
ion 0.017615436306133225
lo 0.015781727804377286
yc@@ 0.06354785208487049
Res@@ 0.042041638753690054
ge@@ 0.011708940649882468
ר@@ 1
٬ 1
ur 0.01756908630226491
11,@@ 0.4459093267612298
ong 0.02936462386651515
eli@@ 0.06357790100198833
eo 0.044821796023429776
ade 0.021563815493548355
eng@@ 0.014387207786049195
lis 0.13580295029451606
za 0.034026164436671155
go@@ 0.017835330876807193
las 0.007541241564635223
Camp@@ 0.0886306607839022
Ern@@ 0.12324349373916561
ori@@ 0.03222271536938739
BS 0.18919567069523843
مبر 1
Bru@@ 0.0812193923239051
ger 0.026085018539073034
oth@@ 0.048970143150157734
King 0.06835451782721838
Rec@@ 0.061388271025056056
ans@@ 0.051061767074570365
Je@@ 0.04253830965366564
زند@@ 1
مغرب 1
Gil@@ 0.14827152751958636
Wh@@ 0.04441727730181663
نما 1
Sil@@ 0.0681695265031626
from 0.0036444004088138325
† 0.07484627727485986
kh@@ 0.029510977202011547
port 0.01988106547249326
ada 0.010372677034430433
ە@@ 1
Stu@@ 0.0658535407536198
ated 0.005843537975681827
ds 0.027168482339745923
A. 0.08030177071011692
Jac@@ 0.12866871143272365
Su@@ 0.03273321585188822
mann 0.04822471618291341
Young 0.15768177402124312
io 0.027886315168172866
All@@ 0.09990242090981476
aci@@ 0.025053931272391996
Fi@@ 0.06053975437885842
ini 0.03759456728297827
اضاف@@ 1
Kar@@ 0.03804701183849911
ac 0.06723198459530398
CC@@ 0.2945433734510186
Alfre@@ 0.19567915484575404
Hall 0.08351061468592062
au 0.0053860850943502365
aur@@ 0.04768088962796294
public 0.029499578069294364
berg 0.03379535469721216
Si@@ 0.03398757535161225
ret@@ 0.04024520731821513
CA 0.2071510725388712
Ear@@ 0.04406845169393035
tro@@ 0.02322533342245821
SS@@ 0.27098546450714933
מ@@ 1
Ev@@ 0.08449387124619998
Por@@ 0.05198743843984878
ster 0.035921063636695644
ando 0.019197582027035906
ide 0.046189030727016724
Phil@@ 0.06347821720101696
RE@@ 0.25856211647185445
text 0.12291360043375928
ie@@ 0.018943546661874606
kin@@ 0.09406203283802371
tions 0.010028164769753043
Oli@@ 0.1537650031764085
Vi@@ 0.04126067638321407
10,@@ 0.39439166296538664
ates 0.01708531101940853
To@@ 0.03470144225818692
dro@@ 0.03982437869016715
ero 0.040107334751068154
cu@@ 0.013600175441358069
well 0.019945011530285706
án 0.03222883958996294
Bak@@ 0.1360039182087727
Hum@@ 0.09690872901330641
oug@@ 0.11007196289723224
York 0.026013664519750856
fl@@ 0.015139335850126789
CE@@ 0.15337450079989387
PC 0.22546122172933544
Jackson 0.17612835110787037
ig 0.059218271060463866
British 0.03627543827223334
fr@@ 0.015017739678733622
inter@@ 0.008290991004640934
rey 0.0939375546388258
Cur@@ 0.08585564240821639
K. 0.2584540507989453
Mit@@ 0.05185857903137634
enc@@ 0.02076846612174196
eth 0.12388189165844331
Min@@ 0.025691533411788016
vol@@ 0.019085613428930122
als 0.004315243576998127
The@@ 0.030652801915511084
Ze@@ 0.0466027001580419
cas@@ 0.022482021180143606
amb@@ 0.01953276116702533
Du@@ 0.06301100419578527
New@@ 0.08100724867963353
ement 0.007329559436835404
ings 0.016104048179436926
Tor@@ 0.04136944162988114
You 0.09765019540548672
Inter@@ 0.03451208414503617
ox@@ 0.09329199082634636
tor@@ 0.017766934544306452
Bern@@ 0.10107100003763209
Carlos 0.13185008057701014
ys 0.06926470126492697
زبان 1
Willi@@ 0.29165539247378686
ú@@ 0.0534198002627291
AI@@ 0.21636684547307522
Im@@ 0.05583545814859436
J. 0.09288397909693487
ita 0.03779243639014995
ura 0.04855125621376466
Ri@@ 0.05692415159347649
ear@@ 0.028454332648192388
-- 0.6460161501875137
up@@ 0.02433012647321611
Jean 0.04797248571648688
Mus@@ 0.03045508673953975
National 0.02334324493219919
か@@ 1
Green 0.12932091906042345
ardo 0.1422563574300351
ey@@ 0.04062839590528683
field 0.03486825689821676
Gal@@ 0.04598510091105043
class 0.07394189489464036
igh@@ 0.02447864353364364
Mel@@ 0.06298325119944066
ten@@ 0.01013078323905097
Gi@@ 0.039090747449202004
kl@@ 0.034127884468277594
Arch@@ 0.09277989974087372
Dis@@ 0.05654180071428067
Boy@@ 0.1419469139640475
English 0.04779262449158436
ama 0.02799793856456525
Mich@@ 0.0517238992568869
ative 0.017802707039961993
int 0.08483591297507728
Bill@@ 0.2133377892550402
In 0.003240119994255578
dia 0.06884320585758774
rel@@ 0.010368390765788693
Vic@@ 0.07483924022925728
elle 0.008262575257154483
ian 0.030663017919379434
vir@@ 0.054751557502411605
Anth@@ 0.1536713419887447
Leon@@ 0.1746693716458428
ler@@ 0.018179191308945727
ב@@ 1
Net@@ 0.10559356626562943
Wor@@ 0.051068054310157616
jam@@ 0.12018171221567515
oma 0.0658649406294139
12,@@ 0.3611981109983869
wor@@ 0.014672092711634055
Pres@@ 0.051455395032467065
Black 0.08413148806164085
atus 0.11247491554501751
án@@ 0.04431650319835898
adi@@ 0.026318966418729987
del 0.0038098956269286893
ov 0.06375875274263143
rest@@ 0.039985930077742364
Ty@@ 0.075069048447249
Juan 0.08312583643419354
Es@@ 0.04069055807342698
air@@ 0.01868370033896449
ier 0.04432105802884061
edi@@ 0.023365078551970248
net 0.060496032422475234
me 0.011492280201062898
Sa@@ 0.060205879198436466
bu@@ 0.022851481170085026
Pow@@ 0.11568164957240323
que 0.0018085473882902773
Love 0.10958874902492392
amm@@ 0.024730736383024917
ason 0.08359959824017028
ida 0.03016625042181112
Hill 0.10001901253673609
ong@@ 0.017822279635450043
pol@@ 0.024510769262462335
Bor@@ 0.03723394491912578
ax@@ 0.03753609377908673
Fe@@ 0.06959771872912708
ost 0.022230730037244167
tive 0.03851277653347267
Bu@@ 0.043156204952577125
FC 0.04818563331585776
Ni@@ 0.0691674300705573
ki@@ 0.041603663482707935
صورت 1
cl@@ 0.018645557146189765
Jer@@ 0.10664038137039271
Pat@@ 0.1098876443581926
معاش@@ 1
Do@@ 0.05534545736191034
Far@@ 0.06470044932381157
Rom@@ 0.04365810422393357
Sci@@ 0.05838932671771971
osa 0.05594475173034098
Tel@@ 0.06527129347917064
iki 0.12013905743950656
Bus@@ 0.06751055137040174
ning 0.024368282073964687
Can@@ 0.04636049091655807
so 0.013090839325467686
Á@@ 0.0798108352146523
anth@@ 0.0973693588071704
ock 0.053677847774810376
ה@@ 1
Laur@@ 0.09352825750095534
tw@@ 0.02876558911794402
ón 0.016812613922604247
Sar@@ 0.06139982621724018
ents 0.008261541899176472
style 0.05073480972566218
ל@@ 1
De 0.0333378680407216
سرب@@ 1
ain@@ 0.019436399171917768
loy@@ 0.0499717136844555
ha 0.024264082523901723
ling 0.03887187329905422
no 0.008863430305176459
Ca@@ 0.12395657059968819
Dar@@ 0.044508121589934564
Louis 0.05715294631240469
Pal@@ 0.032041675094623925
Sand@@ 0.09910494247753125
lan@@ 0.020621773241395802
ny 0.09766873277579617
ole 0.03850268768920599
sy@@ 0.03361954382174669
wood 0.050138209186468025
chi@@ 0.03810664794076361
ky 0.04809681615693849
op 0.034248781434414725
ou 0.011472121984824788
sw@@ 0.04735787891372764
ومت 1
Barr@@ 0.14566805189392612
Sy@@ 0.03928435835438341
way 0.013164729045967659
But@@ 0.13684284104176037
Medi@@ 0.04919267859750521
ena 0.02772798195764044
می@@ 0.29663155065632085
--@@ 1
ass 0.03190127226291575
ola 0.05415286142680729
uz@@ 0.038583805260870054
ision 0.030831418722019974
unt 0.052433819962861394
ā@@ 0.07204392781899113
dan 0.059975888526253095
sk@@ 0.029839642166876176
Cy@@ 0.09753017520927358
Phili@@ 0.08199477308517868
School 0.023986538051946706
Sec@@ 0.02932151389465608
Sw@@ 0.04268701862973554
ath 0.045735638876578895
ser@@ 0.013196674135532802
FI@@ 0.13721153405395825
ast 0.015632538402360202
ba@@ 0.01861062247872362
ä@@ 0.007120771342967695
Bel@@ 0.024634267331810518
Hu@@ 0.061312070620004
cus 0.1340722817024376
ek 0.020260436888389126
model 0.0949139100634558
off@@ 0.01307564539965279
Luis 0.13148737061395044
ng@@ 0.027225914193171847
ani 0.04584286754457595
back@@ 0.07736709756345128
Luc@@ 0.08032630120209501
Nic@@ 0.07131240062557107
On@@ 0.04538149643655486
fol@@ 0.01995519336266941
let@@ 0.025756807707873558
oks 0.05570785936357542
sol@@ 0.010389024227674919
اولاد 1
vo@@ 0.01642975064695549
DS 0.1859404039982902
gar@@ 0.025979578633798885
ham 0.05085828918865394
fil@@ 0.030062324753613198
gan 0.13678084055806
سی@@ 0.3944246491498773
● 1
Group 0.059938183301368825
Hay@@ 0.13421551524475042
Ru@@ 0.0645242027312122
mp@@ 0.04051565559014445
oto 0.06623875117237296
Kn@@ 0.08496828789172292
aus@@ 0.009335366993462239
onz@@ 0.1135624913454597
tel@@ 0.019806952928926057
ש@@ 1
Carl 0.13202742713690077
Fin@@ 0.031193731781164583
Ig@@ 0.09957994195441958
Ly@@ 0.11275951093949539
ros@@ 0.04014831558574832
β 0.4111816327061554
Aus@@ 0.015008832158118495
Bal@@ 0.03707604591837396
Le 0.00725995073929439
ai@@ 0.025773934352439052
aland 0.08591798884616096
format 0.14124096176555156
out 0.00964481178328351
uke 0.09915706381488093
Jor@@ 0.10933251419109828
May 0.023086568004077594
int@@ 0.013738973524970378
ture 0.01597080914902983
Maur@@ 0.10235788276294393
arg@@ 0.034292767861884496
ars 0.021906282022331608
bor@@ 0.021621382309913832
du 0.002612184427059418
ground 0.038566861950265485
tes 0.010664570831516383
ut 0.024235663690220653
work 0.014429726203871814
Stan@@ 0.11062497799050851
Sul@@ 0.13011661110146863
mat@@ 0.016661933115665425
over@@ 0.03252628617374785
Sing@@ 0.04696321126009506
ko 0.05919708120669613
line 0.019904000262970904
por@@ 0.013069260450978766
thi@@ 0.05506315366578735
ust@@ 0.058913976112892716
AM 0.18392853392215244
Mari@@ 0.060417661875756576
Simon 0.1497734998219141
her@@ 0.011504619977171818
ides 0.036884269474484574
tle 0.03436174779126718
Web@@ 0.11897912359804971
Gl@@ 0.04411042364047627
Pi@@ 0.04052640928671542
align 0.179723574933671
ors 0.011778133464047085
pu@@ 0.016184564151002074
Cap@@ 0.038295417062372626
for@@ 0.007927250237698545
BA 0.15312737188257833
Mu@@ 0.0728698431771465
War@@ 0.04558262721851747
fo@@ 0.0267536185530695
ital 0.02637894816247521
lem@@ 0.040303165973900226
low 0.017769254332242315
ters 0.0164901871223275
time 0.00859623172423851
tur@@ 0.010038558432720328
Gran@@ 0.08381152509582097
ally 0.006326280276954163
its 0.004415227206380225
Bas@@ 0.0347553375514013
Cer@@ 0.05967519361750617
Dev@@ 0.0506786160411744
Os@@ 0.06273806073771032
von 0.0024905385043672004
Eu@@ 0.13416850348880305
Lam@@ 0.1216214686917967
ado 0.004700454744600406
ium 0.08108202545825631
wer@@ 0.013399710851122838
Hel@@ 0.057526668084166815
P. 0.12385795541142976
Sc@@ 0.07165955241720805
ala 0.03424277739538418
ez@@ 0.026091341335816743
ér@@ 0.011696268096814096
ö@@ 0.01127872421046998
Moh@@ 0.11235625624379604
err@@ 0.032670622709156806
إ 1
Met@@ 0.05199829917449328
TC 0.1736085825422053
Tod@@ 0.10864661937308803
pos@@ 0.00815891769987861
sion 0.013050881725884148
ther 0.012843753108861301
ven@@ 0.013122041047477672
Mul@@ 0.09834715352245116
berto 0.12871405267228953
cap@@ 0.01623697472810347
mag@@ 0.023776540058938415
til@@ 0.02350152543078252
BM@@ 0.19959082837711173
Hal@@ 0.05453100267762696
Manuel 0.14216311243686502
My 0.10769551182142482
Way@@ 0.23678446990613333
fi@@ 0.010951317628243931
ía 0.009116388540253553
Tre@@ 0.052755927383760504
film 0.012710473775389607
lam@@ 0.025133250076850314
si 0.03244795643749498
١@@ 1
Kir@@ 0.0414214537872952
isti@@ 0.016040386517262764
ki 0.03875825046601348
ting 0.009550894935602471
Vol@@ 0.050935865774461506
Win@@ 0.05327250451468422
ash 0.0693861049730835
cul@@ 0.013879609434646906
fre@@ 0.01441075314887939
mb@@ 0.03628852123349032
son@@ 0.021808701069237775
وی@@ 0.3783842305094914
ま@@ 1
of@@ 0.022944716096710262
ce@@ 0.022189532765257286
ao 0.04122666337775327
nch@@ 0.09987130648414483
CN 0.3021347001655041
Journ@@ 0.08630306439105993
Sher@@ 0.1308426170873244
ima 0.04791379642002882
い@@ 1
ten 0.0036481505016554136
uk@@ 0.023051564921285825
Dou@@ 0.1188372571308217
oni@@ 0.03018648953078998
rit@@ 0.025319037057524366
Tri@@ 0.03239482690664038
bur@@ 0.020945387533886542
cre@@ 0.00953588544612517
enz@@ 0.028511000504973513
hu@@ 0.025101164771706496
illa 0.03300968263876908
ross 0.030461595251765235
Antonio 0.09448887003414233
Christian 0.056790118899080845
Jan@@ 0.06555618334111106
Tak@@ 0.10244318940013135
Ter@@ 0.04142363319503529
beg@@ 0.020190057087922573
ese 0.013499699555066783
ope 0.05581023337764621
uch@@ 0.021764698306322983
נ@@ 1
غلام 1
M. 0.08021563887533462
Prot@@ 0.05817728099867356
Sur@@ 0.0553917752190355
ff 0.055854073237170246
lock 0.06310210504218765
type 0.05116342202513874
ری@@ 0.2633131356777494
Blo@@ 0.09964856872624604
Whit@@ 0.10961709421390609
ger@@ 0.013811844880358611
rec@@ 0.008193525740396796
اعلان 1
Dre@@ 0.04741840801144476
Lit@@ 0.06268532203484543
West 0.028790125058448225
Hir@@ 0.12505485834530236
Ul@@ 0.06473242526706616
La@@ 0.04867830727637358
San@@ 0.04770681559911743
alis 0.14483881538997712
ington 0.05150632202963785
iss@@ 0.016899676831000673
Jam@@ 0.11218448443687083
Mill@@ 0.11485759219384711
ston 0.09733491279640934
し@@ 1
FA 0.12880085295930552
king 0.016853285829404138
wards 0.04439288161712708
Ben 0.14562086382183229
Del@@ 0.04217174294721173
Mos@@ 0.04134965250122919
eron 0.04046383181196935
fer 0.021052275530611047
ash@@ 0.03413803458179469
cer@@ 0.012953478252293876
ection 0.016945845800181956
ela 0.03935879717914924
tics 0.026077961007753305
た@@ 1
Migu@@ 0.15949936253882868
Trans@@ 0.04385837351560431
alm@@ 0.03036429579849194
pro@@ 0.00865811172044464
syn@@ 0.053879073726706896
± 0.7729969515433748
さ@@ 1
Tim@@ 0.11100000739128352
aceae 0.08202348122307442
ba 0.044422962185084416
row 0.057954107976521854
تمبر 1
El 0.00722474932352468
Mah@@ 0.06059773697556437
ange 0.027795802957590997
ble 0.020615692883769687
cal@@ 0.02270718028762603
London 0.029387910506082054
Ol@@ 0.06142633201153819
ber 0.030164270060123254
ette 0.02816280229160018
ماؤ@@ 1
ady 0.03905996152684406
inn@@ 0.018117380111201696
prot@@ 0.013877315532331786
ther@@ 0.026421834858653154
Bul@@ 0.048517290150890104
Wol@@ 0.05020524662234503
loc@@ 0.01420028888751643
nes 0.026223295803203924
ven 0.025214480593724338
Gol@@ 0.05609458234139248
contribut@@ 0.10352076841060669
ince 0.03508079070803389
ods 0.044270728255732965
tar@@ 0.016170419466273813
One 0.03394164144379212
TA 0.12527896347987685
ari 0.046164777185939455
erg@@ 0.03604351133064849
mes 0.02407622224856266
Bre@@ 0.03496599399002374
DC 0.12824901289958146
Den@@ 0.03939636256809716
Jus@@ 0.05678375715001926
arch@@ 0.028636845124552935
bar@@ 0.014189366905985632
isa 0.0848729350584794
ko@@ 0.03659043743649569
serv@@ 0.016305922234835627
sta 0.04516990305861242
ñ@@ 0.03928297987027257
لی@@ 0.29073686604952126
Day 0.07994250321193387
Eng@@ 0.05332398165964452
Gir@@ 0.06187907642154675
South 0.019905891100314363
ani@@ 0.04095438797513282
ere 0.013782230022060079
ja 0.025845659904652714
Nov@@ 0.06989536938352196
cy 0.05736239946991884
cy@@ 0.05907304303088616
new 0.011400791464486415
riff@@ 0.08544644083513579
ye 0.030723909289706065
علی 0.96147212888597
٢@@ 1
cin@@ 0.03456857899937014
ele 0.02600879167271388
reg@@ 0.009401884595215014
Pre@@ 0.030771164937433912
田@@ 0.2512737887066724
Arm@@ 0.06982792662118839
ems 0.025022997059099952
ine@@ 0.04326773806062139
Kh@@ 0.034000169403855855
Sm@@ 0.10370614938695673
pha 0.17779241587496958
ung@@ 0.017157216458115448
Mad@@ 0.03734262775517899
ein 0.004293492061716476
ni 0.029780701774983053
sing@@ 0.03195294288056283
Ren@@ 0.046229235550707654
anti@@ 0.019008759521246636
li 0.03481026468611672
ond 0.02958912701254803
pen@@ 0.022314821309399133
ה 1
اندا@@ 1
app@@ 0.018848969072428685
pre@@ 0.00877393945388279
ux 0.022160120354906884
ves 0.01587925735802929
we 0.03896379995606041
ō@@ 0.07766292509238543
Me 0.09743582055010079
yle 0.07483682440267599
حالت 1
CO 0.14883351784723473
Gen@@ 0.03923254971865734
US 0.020329414597386526
act 0.01899577565950548
earch 0.030049136567993046
متعلق 1
Clau@@ 0.10057934179372631
Francisco 0.05807446977368278
Joh@@ 0.06268456901277762
Man 0.06498141962363203
comp@@ 0.009830548320779004
iti@@ 0.017527388378266617
ito 0.029337620525679238
Chil@@ 0.08010627032453949
Haw@@ 0.07183088407894027
Red 0.05923651008252993
ester 0.04697386382458131
proc@@ 0.021334670559232025
ین 0.39429434045389555
ental 0.017366061706307837
ular 0.017253162674378087
دی@@ 0.384841513959237
Bir@@ 0.05196581073149391
Geor@@ 0.03306756413765952
Lar@@ 0.09147781514491105
SC 0.10363446619725979
United 0.011379108316879978
rom@@ 0.02362890116109024
was 0.0008009339840757322
wid@@ 0.04185932414124807
fa@@ 0.011734123951447843
ico 0.013626708711820831
iro 0.07655363130336573
Park 0.030335608686642458
Ra@@ 0.06784297917571352
can@@ 0.014778965444158175
ms 0.027619047193983275
ć 0.05660415544048639
A.@@ 0.1254530968789244
Mi@@ 0.03238900040059579
cur@@ 0.012805046112186956
ila 0.061495754322610084
teri@@ 0.0623268675704306
ئن 1
جانا 1
All 0.029742886985645717
As 0.01722413205489677
bre@@ 0.012708872185219442
elec@@ 0.015686101890596472
trong 0.010163935899800807
ος 0.03436449594087561
بی@@ 0.23492789507169592
Greg@@ 0.13147813631071503
Max 0.10208935006558338
ime 0.028697405277649742
Gro@@ 0.047740286325576066
Mol@@ 0.06349126056553664
abri@@ 0.05193522898154978
alis@@ 0.01785304393817224
az 0.040081533306098066
len@@ 0.030016271552791005
Au@@ 0.021341291349734358
Les 0.010591452785893352
Mir@@ 0.06931205905476454
tra 0.03627222727862302
if 0.026889053542256975
ple@@ 0.04112908949459004
unter 0.012622150461812703
رنز 1
Brand@@ 0.10967686033782711
alth 0.032160224397698375
aria 0.04112948164519658
ast@@ 0.017886813890684323
char@@ 0.020699670273242217
Ba@@ 0.0848970006740424
Cre@@ 0.03502486602621187
ku@@ 0.03069939057807569
ré@@ 0.004954448148866801
ski 0.04004699093287937
Lev@@ 0.08599556401629932
che 0.009742881566081196
ids 0.04959222860439396
rol@@ 0.0465364848994009
Ash@@ 0.09319560924660945
Off@@ 0.035438225057838134
pres@@ 0.00773298862316037
Ot@@ 0.044328537402860003
use 0.009650367532411948
や@@ 1
Maria 0.05977738259399238
ario 0.0205475947338921
ature 0.017564601264793974
des@@ 0.00696552902993883
ech@@ 0.020846871201764056
immer 0.06386360826420531
ins@@ 0.013016785743583687
trans@@ 0.00970867253685182
uf@@ 0.017544522880243746
É@@ 0.01715000495616032
α@@ 0.05110984142547443
Elec@@ 0.06362149089576913
Han@@ 0.048643760885588
eck 0.0638594727505001
fer@@ 0.008301406681886876
ڨ@@ 1
ひ@@ 1
fac@@ 0.010676807505064185
gl@@ 0.02294514808407794
nam@@ 0.013867966984606876
ob 0.07746869709924427
var@@ 0.05676272754046117
ٱ@@ 1
Chap@@ 0.08692393243554232
her 0.004505522339282166
ō 0.07179653496192913
Andr@@ 0.09195152043337465
Liv@@ 0.09711290721034788
eter@@ 0.032015583584324894
try 0.019042076356962225
ן 1
き 1
Jos@@ 0.13683997200360148
Ur@@ 0.02902302209273597
£ 0.09254450213293619
ד@@ 1
augh@@ 0.022061245254197174
colspan 0.1666058475574226
ister 0.017311968921210636
iy@@ 0.044271379353810626
lin 0.06786173746403569
oa 0.08313127267762994
Ban@@ 0.05216331168747424
Fac@@ 0.05782295904406091
Scot@@ 0.03939545696329061
arm@@ 0.01323852703425171
aron 0.016950746031080006
that 0.001669426314037181
ão 0.06919161343068835
् 0.0027072949550947184
し 1
Hi@@ 0.0454374513889311
Op@@ 0.051805681420804994
anz@@ 0.018363508329196202
ای@@ 0.19928167022552146
مقرر 1
Men@@ 0.06005406488710531
ille 0.019294199140418473
isi@@ 0.011221806567436645
tical 0.023637402742966145
ע@@ 1
نگ@@ 0.543118608159387
Ker@@ 0.07571469069392646
Mary 0.05393937919726264
Soci@@ 0.03789157664616839
ae@@ 0.07453690553605244
ards 0.0214160571295163
zo 0.05010902792327458
Con 0.08586997231237654
Life 0.05798504356904622
Med@@ 0.043383951869827575
Nav@@ 0.030809956294750016
cel@@ 0.026513023385164314
fe@@ 0.010598283356947607
ts@@ 0.009833198802773592
yn 0.08132987027095741
ze 0.01185844892773949
ڤ 1
Ak@@ 0.039425169863516164
Cul@@ 0.050671600936876074
Pas@@ 0.044867141681780597
Son@@ 0.04480666323518262
Vir@@ 0.06607163641603994
WW@@ 0.27941179388640924
edy 0.05418681978233152
ji 0.05905046177860261
Award 0.037699077819282584
Music 0.035561592693571946
Syst@@ 0.09152721711495004
System 0.0823585278128359
Tro@@ 0.039141212020301255
ii 0.18981995129006338
iness 0.029508873540713677
key 0.04266777458728626
lat@@ 0.014929387904218725
mu@@ 0.018773559128468738
net@@ 0.03898207458360778
yer 0.04339872534636297
May@@ 0.0542977713865748
She@@ 0.0746282083258821
eb 0.07417254660689875
Micro@@ 0.27847395138941805
Vo@@ 0.05621027831299264
ap 0.03629713456658215
center 0.04804763376606675
don 0.05472808752988776
mas@@ 0.014153069206066926
ond@@ 0.014750594664645381
ø@@ 0.07925609961713855
House 0.027007411172958202
Il@@ 0.06602967484216547
It 0.004525579043241991
Mont@@ 0.04036668461210298
Time 0.09196846328176343
ei 0.034463570131759574
res 0.016841813298779682
up 0.00824105851241249
ust 0.03950999239315358
Lor@@ 0.048798203783618155
Pic@@ 0.07146117484605122
Pot@@ 0.07510263942967277
Sant@@ 0.08922941775304441
dium 0.13472419085680246
olas 0.08002717027235694
struc@@ 0.018117636588129864
Fer@@ 0.041539490478948414
Hon@@ 0.039136640199136645
onia 0.04409499691257048
sec@@ 0.008405550934685016
فی 1
Cle@@ 0.08246860556701814
Mis@@ 0.030520230264268967
Pan@@ 0.03964376924923634
Pu@@ 0.03806972498004803
ages 0.011261064354760418
cal 0.030634154041258587
ease 0.028050858626137123
men@@ 0.008387652382974203
sen@@ 0.015112360659095653
Les@@ 0.09692741666215544
Pedro 0.09653919499914604
aka 0.06006819831696956
att@@ 0.006386889997223025
ein@@ 0.004241499467284522
pal@@ 0.026104339767470626
معلوم 1
← 1
AG 0.1104194313157577
Dor@@ 0.029459938215065134
Google 0.1858555022627108
Sou@@ 0.02845164484949898
ax 0.11180722080257789
back 0.01731579712573817
Bet@@ 0.05053731469376409
Ko@@ 0.03931885726614355
Long 0.08431749626521229
On 0.007395240870341042
Pa@@ 0.043834079686667866
Sk@@ 0.06335067490098348
artic@@ 0.038019912965571584
dic@@ 0.015409272448775988
eri 0.06200436920812041
olog@@ 0.018291352247090425
ster@@ 0.02096571332257857
ula 0.1028352671041151
Blue 0.08369298769281523
ato 0.02624544930938964
eri@@ 0.041034913467870145
sin@@ 0.023252207090000872
Dec@@ 0.0588576558068958
Sub@@ 0.05272155550255366
don@@ 0.02892382368583139
ello 0.04605667031296618
inal 0.025321674936335546
sti@@ 0.013513483869778499
ת 1
ادب 1
H. 0.07884976652908635
Windows 0.10768912775105395
ding 0.022384657066794243
fin@@ 0.0051493318017841435
log@@ 0.030110286057435973
ome@@ 0.06508573453333617
ona 0.029160730347561625
sub@@ 0.007760182656029218
な@@ 1
Blan@@ 0.0838148510752556
Rot@@ 0.05821264567571733
anus 0.14465418316346387
inae 0.17406938147791226
tí@@ 0.08465261368748205
Blu@@ 0.0894719290137924
Mid@@ 0.03944687261064233
Pierre 0.049656259526548494
Rol@@ 0.04182585272912326
Ta@@ 0.046898285614538196
ells 0.050127806303641775
ley@@ 0.09237118554063212
rí@@ 0.1254229059750778
vel@@ 0.016585920118065277
の@@ 1
Bow@@ 0.06779931883963508
Mem@@ 0.048064074547344876
Mes@@ 0.08632279191773894
Techn@@ 0.047662558224067016
over 0.007790306144422741
tan@@ 0.019592489097658948
ον 0.20052989698188042
٠@@ 1
あ@@ 1
Ah@@ 0.07034377596923744
Don@@ 0.05913130876567637
VI@@ 0.16949953619307903
awa 0.06573605931810389
view 0.024348649543350007
eld 0.031872301266169294
met@@ 0.018553903190318927
́ 0.0247035838688124
Cu@@ 0.052047368374353135
Lab@@ 0.05014796650850227
Ob@@ 0.03325724331178329
Washington 0.0346282295139581
ami@@ 0.0484616673873036
ema 0.03892382328313222
Cro@@ 0.033859201289102046
Educ@@ 0.04457047026716326
Pri@@ 0.024424264517650816
eta 0.034764959384862786
tia 0.09303636188934564
DR 0.08914451334098945
March 0.015065525131644962
Que@@ 0.030841523172909606
bro@@ 0.015555240069860402
bus@@ 0.01618201215842366
writ@@ 0.019764528322852984
ա@@ 1
EP 0.08568516281102682
del@@ 0.016345362534666955
els 0.012781997171151334
itz@@ 0.01984755886686037
kin 0.07107253891907837
tom@@ 0.018492758076988823
vice 0.032138350741622364
براير 1
Av@@ 0.04420866562117101
ech 0.04356195544153038
ines 0.014731764558575982
una 0.0030674604846425103
ution 0.01945919282934942
Art 0.0306107164523473
Die 0.0032616741779323906
Karl 0.05803422483270958
esc@@ 0.02641318126406924
ide@@ 0.03337958926182578
ota 0.02873011461775805
out@@ 0.01740077985094205
tion@@ 0.017353359078834944
yg@@ 0.11171125355954097
י 1
Az@@ 0.07285421361870083
Cat@@ 0.03189340258816243
College 0.019776165194573873
Ha@@ 0.049273122857755716
Star 0.057832585331676775
ort 0.021905899180658748
ual 0.013726683475751301
Air@@ 0.03499449556609934
Sus@@ 0.07219248005468738
atr@@ 0.023191578015896996
ext 0.24636844130293575
City 0.015034161214068687
Rel@@ 0.03710954791386813
Tal@@ 0.055999882977486565
aki 0.057350446614455285
emb@@ 0.01591476015899244
eph@@ 0.09146298919942521
put@@ 0.023866205253933258
une 0.0022282297482394873
Association 0.02978105439543203
DVD 0.08884532329747015
Sum@@ 0.03327775151530205
ders 0.031247675294274357
mac@@ 0.0788110320748917
pa 0.054299625268558985
ties 0.008595869731213292
vor 0.01287274440288045
wal@@ 0.022340883640047708
à 0.0011327220638263568
ָ@@ 1
∈ 1
ael 0.13266802876669764
ete 0.02169574842034531
ets 0.009778591156397867
ider 0.04161524309933467
ks@@ 0.03729270490404274
very 0.011560191033776224
ּ@@ 1
Kur@@ 0.02784419236294959
Society 0.038947366419630265
ense 0.026130765764932184
och@@ 0.05660706315772803
tern 0.012053605150445242
ega 0.052343147642908816
esp@@ 0.01622325729638584
jo 0.021641458728324545
Center 0.03735449679977491
Reich@@ 0.047508733033610036
esse 0.028600643254773017
lig@@ 0.024094804964334287
mad 0.08739245595666824
′ 0.4267250354925047
‹ 1
Fu@@ 0.05575395589555768
tin@@ 0.038215936985616546
App@@ 0.07435634824771611
anda 0.044208293623917545
crip@@ 0.028675755983692625
ree 0.023023495433857465
system 0.018125706739273044
Gold@@ 0.07839537762790844
Lang@@ 0.04727874191124917
Live 0.08214597537367506
North 0.01740404154105413
act@@ 0.042565755998875375
agement 0.029366839208649378
arti@@ 0.016853626015032697
ban@@ 0.014465542675116008
bul@@ 0.03651532233093198
tro 0.029804947594391243
Club 0.02332029158424236
ces 0.00924476773864168
cons@@ 0.009507986199132241
ign@@ 0.009080700198212896
iki@@ 0.22710518661709064
مولانا 1
Cru@@ 0.06779232279345894
Leg@@ 0.02914527267898132
Media 0.07486164404331054
Ti@@ 0.026417875309671473
cia 0.0825916580849574
hil 0.16096669483655623
ng 0.05739121494195142
BBC 0.06995389430146264
Mach@@ 0.08074452303912089
aga 0.04999782783939446
alist 0.030925970911168003
ating 0.008973868959404725
ier@@ 0.010820968565605228
mid@@ 0.03361671427523385
ness 0.029171606303182405
sey 0.07579995946141845
پس 1
Nik@@ 0.06556016115898446
Uni@@ 0.04243624894218997
XX 0.08727836093838875
ights 0.024442988835113488
mil@@ 0.0226846494166673
﴾ 1
Arab@@ 0.06928141457591244
Fil@@ 0.03533731207140816
Super@@ 0.05039684771124547
air 0.022090083771729618
dae 0.10292551742192928
dec@@ 0.006366702384111724
ign 0.016010024522249835
non 0.01659517506678302
﴿ 1
Sho@@ 0.06478579383704967
data 0.050759765110962196
gen 0.013885762917416075
ning@@ 0.09797568129033377
port@@ 0.008579254775544306
top 0.02248683434663729
@ 0.5091877891200668
ges@@ 0.011565515661235896
inde@@ 0.06532186284721102
itz 0.02014615902639717
sho@@ 0.008089024871381453
فی@@ 0.44198675779668806
Eg@@ 0.05328844102397297
Ye@@ 0.04148172035966143
aff@@ 0.012857698784657569
br 0.03356090489855625
ont 0.008202826398835407
Sel@@ 0.03902062358400553
Super 0.05848184906957707
acy 0.03241320819969024
ali 0.038179465895622065
bit 0.07274544278134489
bot@@ 0.033106678896458776
firm@@ 0.039654964472611215
form@@ 0.006182411681250909
igu@@ 0.021923658645391118
leg@@ 0.009021735670956642
los@@ 0.025104871918145696
oll@@ 0.014681352149587821
ote 0.014863604732243761
wat@@ 0.034692151110331124
› 1
Abr@@ 0.09220301773945083
Commun@@ 0.0325840980197554
Microsoft 0.13530859992714409
cop@@ 0.025491014094093312
eti@@ 0.022302120326839713
ip@@ 0.039364586458934474
soci@@ 0.014225031021490026
آف 1
Air 0.031379952689697205
Entertainment 0.087504430862162
Fol@@ 0.020047815650006434
History 0.018385713812535922
Rh@@ 0.03680884688056677
Star@@ 0.06028979257929592
acc@@ 0.007215906351029864
icro@@ 0.0765575885953786
mot@@ 0.013293377942643332
oo 0.09636591616100604
sych@@ 0.0424395874290955
ם 1
Hen@@ 0.07625590877795868
Ox@@ 0.05608566709073287
Rap@@ 0.07904615120392637
This 0.007359079048566903
ego 0.0335867369075043
off 0.013926027966297492
ores 0.012835975763878142
tha 0.09432592137532685
this 0.004589236981672353
Jes@@ 0.05113422103892799
Mot@@ 0.026461159043483715
S.@@ 0.08590569758919614
St. 0.020755914260331805
ering 0.022771597115980643
go 0.01572820173935315
ik 0.019326816907065406
uno 0.026004884417500988
wer 0.026074696696477637
Company 0.029586275537187418
No 0.03960546630522063
Plat@@ 0.04359455566669927
ava 0.05062943462854352
dom@@ 0.021411663200348145
ih@@ 0.019068449291039263
ח@@ 1
ק@@ 1
Bau@@ 0.02052892107870751
Gra@@ 0.04934323732537673
Proj@@ 0.04383716229145439
aus 0.003711701344210544
dri@@ 0.025156722432321067
low@@ 0.011264346907251052
men 0.007935425267600403
America 0.028684882094607726
Kon@@ 0.012205582003907678
State 0.014686130845707367
ater 0.0115539521401352
gar 0.04240932247090494
retur@@ 0.026045574120232205
tis@@ 0.0169049838949412
ás 0.04169898969367249
Chi@@ 0.02513078973202291
Royal 0.02568525273282121
Rud@@ 0.07636005370349677
Van 0.0666017822702919
action 0.017774587628622232
aya 0.03290939794827628
ck 0.03382681281368414
eno 0.05639538877303979
ever 0.01646759198930792
lum 0.09821463223724793
mor@@ 0.014850515253592008
plic@@ 0.02044603201484949
ty@@ 0.041289395356266315
wa 0.018412499644669657
ör@@ 0.009575059861785369
ə@@ 0.37909526292503526
Ari@@ 0.04919031337827319
Red@@ 0.049788681099423415
Tam@@ 0.059614890498753945
ences 0.012629526492300222
hr@@ 0.02105327514355995
rev@@ 0.03334535621078094
sal@@ 0.016569644021849073
tel 0.025835757425276655
گ 0.4330620301839977
----@@ 1
Institute 0.03454282820776632
Kin@@ 0.023492056419250135
Oc@@ 0.030715532928302806
Pau@@ 0.07284060017637688
Sav@@ 0.04982018213019943
ika 0.04214871320041235
org@@ 0.04130853649774919
uki 0.15562891350503802
High 0.025079923908890724
Penn@@ 0.049686841921009604
Show 0.0690629850465354
color 0.04932718389602223
face 0.01795326359018683
own 0.013556932156728822
vic@@ 0.01174283174221824
Aut@@ 0.023092319613412245
Carol@@ 0.039103647454643814
Wes@@ 0.06790778132098212
ex 0.04788951321846892
ges 0.02047494864073684
inger 0.034045887135276016
ste@@ 0.009656999510654294
én@@ 0.01028806874509284
Buc@@ 0.06561160195256495
Lou@@ 0.040449422198095566
Oper@@ 0.03224792785642397
den@@ 0.011613159945886525
eria 0.0934467172970071
gio 0.08282965257429566
hal@@ 0.014450036591360751
red 0.005378511282120799
under@@ 0.014298774712060648
中@@ 0.014383323984394177
Ci@@ 0.023592797238866363
Kor@@ 0.02216406177975406
apo@@ 0.020777610507635342
bers 0.03418277513872275
mis@@ 0.008275339574727933
ough@@ 0.020615878309421735
Best 0.03858038317019523
Deutsch@@ 0.050615043663889595
ality 0.020146093874304584
ania 0.029254843587119047
eller 0.04263973097681262
ency 0.0226004683979621
ep 0.024956175900873633
erek 0.147065758735106
hin@@ 0.014424672598903615
iss 0.058581336458651864
ken 0.00831400129254933
other 0.003882278876201726
produc@@ 0.010844788667947495
sian 0.019668639765707468
tica 0.01866909742668403
ville 0.010563961026656528
yon 0.054754008152183
ç@@ 0.011631458057802958
š@@ 0.0429199458691259
ー@@ 1
F. 0.07175423713201452
Hil@@ 0.039710225780083416
Pap@@ 0.04044644180315235
ean 0.028670686931416306
lan 0.0855320289048957
pan@@ 0.01711232629998671
tre@@ 0.009773428504495677
Dem@@ 0.02603278543861528
Dig@@ 0.08012814549024325
Est@@ 0.014712455934890933
July 0.01259167574371243
Kim 0.0844442073500839
Ran@@ 0.06675703544877741
ail 0.03384146289281305
elop@@ 0.05331222599109098
nh@@ 0.011549267048694009
vers 0.010139014665172578
大@@ 0.008861201665217543
Big 0.049423446903028696
Eur@@ 0.03894012639417513
War 0.013868990930216417
ache 0.030064133257643264
chi 0.04007101541524704
ee 0.02662170952448453
hor@@ 0.017121484029027627
ke@@ 0.01284404626370606
mel@@ 0.03070387710208375
sive 0.01441019600700512
sur@@ 0.005721988117807612
ted 0.00323828970991895
ée 0.002566791770551828
ר 1
IX 0.12778807947164955
Organ@@ 0.03493129139822402
Produc@@ 0.04399900432051957
Studi@@ 0.02489178637822398
entr@@ 0.008645009404515241
hom@@ 0.015014482585875406
uh@@ 0.03390084366706726
Anna 0.06996968949941
Deb@@ 0.047119056273504246
Spe@@ 0.03664380522856711
ati 0.04563844455933959
ft 0.016192195572640827
ga 0.03099306859155853
he 0.0015706734623939277
lia 0.06631406445768061
lor@@ 0.09028136801283922
more 0.005873703165080584
ports 0.01529536960226743
yo 0.028030064534547112
Stand@@ 0.042441313714793844
XX@@ 0.1280029967584004
abr@@ 0.03311682679654346
emati@@ 0.02933172902340228
rique 0.058914816064668
thern 0.01288404917479838
web 0.08766944243749829
ִ@@ 1
Corpor@@ 0.05419769238803408
ays 0.015926835776110773
ς 0.06737985212920697
نی@@ 0.22791688991795356
Roc@@ 0.0421618227188358
San 0.011315795496927008
ago 0.03875476305482303
def@@ 0.013429340341539812
ix 0.026679934721604903
oz@@ 0.04820243223897934
і@@ 0.28884167937723515
山@@ 0.03902459562912328
Anne 0.07080837717161027
Nat@@ 0.0826972681741001
Not@@ 0.025987963621684058
Vid@@ 0.06707760770447431
ace@@ 0.05814374238940944
anne 0.05644843594807231
into 0.00502852906562449
medi@@ 0.00749251949520872
ple 0.012944963865280278
ְ@@ 1
子 0.018013957909393415
Times 0.04651237596795294
ente 0.005399637153654382
grap@@ 0.021454084884806435
idea 0.04818691370545854
not@@ 0.008276007076928212
onal 0.009616206845498472
tal@@ 0.018785399440088342
uk 0.0786146278431478
wh@@ 0.008833792111255519
پ 0.5190150136730329
ゆ@@ 1
ら 1
aba 0.012229530008459357
can 0.006972511131781318
elli 0.05756485633002644
eme 0.02619327082428216
mit@@ 0.008984043616140974
ost@@ 0.03987688524860111
ül@@ 0.02183657918102467
ל 1
お@@ 1
An 0.021296184624180096
Ann@@ 0.05619377646365283
Der@@ 0.041177670356171564
ful 0.013355842275164792
hand@@ 0.014483680314316611
inf@@ 0.01700026425746178
kr@@ 0.0207475966342589
lobal 0.05044409898410917
ri 0.038012387323800724
sia 0.03234684760423405
via 0.02589277376811789
wi@@ 0.012745027565979151
Ali 0.0759130857249833
Bud@@ 0.0404198554039664
V. 0.0535544557129771
ants 0.007383077484327527
asi@@ 0.016766416351474123
bil@@ 0.007842134353003002
gia 0.020915435118901062
ischer 0.012423312019854896
kar@@ 0.02289281632383402
ul 0.031094100395254544
yth@@ 0.041463452584548734
つ@@ 1
Aug@@ 0.06188206434248133
Cab@@ 0.05796519176017429
María 0.05601699875684638
Sto@@ 0.03180527648784942
Sun@@ 0.06737941885404859
c. 0.08184536164265836
cell@@ 0.03238588839748295
prin@@ 0.02263826513814103
tín 0.09009114807017025
uli@@ 0.055508378856124654
ze@@ 0.0121235856844076
い 1
States 0.009430295683578204
abeth 0.042851939570434025
asp@@ 0.0379911260795344
ius 0.06988014698220903
nor@@ 0.008474346077647386
not 0.003318075008310519
peri@@ 0.017719265087090295
Κ@@ 0.026559524745901193
Ay@@ 0.05858340219443893
bara 0.09918731190373506
ew@@ 0.027702931066986028
med 0.07335009061486113
our@@ 0.020312254932936036
prop@@ 0.011121054841684732
uri 0.04163012670120834
ô@@ 0.017564741305530474
み@@ 1
Dom@@ 0.03839448329766873
Rem@@ 0.05982463592496233
Shi@@ 0.05484242216480097
cont@@ 0.008824946841507897
eff@@ 0.009831759666034237
gs 0.018425808348319563
rac@@ 0.019279460856479563
sch 0.020579913248111165
と@@ 1
も@@ 1
Sof@@ 0.06012983985374929
duc@@ 0.02528260089613985
istr@@ 0.02351912356614225
olf 0.05339883259385169
ough 0.015994164862065157
April 0.008218329165430463
August 0.007905539803462924
Bat@@ 0.03125504345731327
Beau@@ 0.059286637103885084
Ferr@@ 0.07419719580439668
Jack@@ 0.119027522747475
azine 0.02767635693276668
bri@@ 0.01757510294166532
flu@@ 0.03518715250286778
inst@@ 0.016444833805457606
oni 0.049919801961267024
set 0.012955665008357518
ship 0.007931904659363725
tho@@ 0.018551991812967936
uti@@ 0.013088845406850977
π 0.21526109444105468
פ@@ 1
Dur@@ 0.037493053112328194
For 0.016455020128343732
Ind@@ 0.03138992304306508
bet@@ 0.019946457213726995
form 0.009082717750943655
gre@@ 0.008297832022835334
oper@@ 0.007267954196920696
ques 0.0050520968240838435
Σ@@ 0.0211264927915892
Bab@@ 0.05082807215619562
Cel@@ 0.0457512378756858
Great 0.03440444920588087
Mass@@ 0.03353695885054671
Nak@@ 0.11799823500409687
Rock 0.04606790176535484
Tar@@ 0.03965170746267802
U.S. 0.018489666088438838
Women 0.03399462343859593
ame@@ 0.03355545162586934
ami 0.03409080466812804
eci@@ 0.024130421915996222
mayor 0.028603175228801746
ova 0.058070388701165356
sim@@ 0.013077447739253685
win@@ 0.017799967018619405
zi@@ 0.010103005812450017
δ@@ 0.022015412600823347
ک 0.11102757742209687
だ 1
Ing@@ 0.036159476135686985
To 0.03480935075981611
Virginia 0.03813768339137124
ais@@ 0.014830374939330343
ban 0.023071902383982032
eth@@ 0.026998632768278425
sil@@ 0.020705671000777224
β@@ 0.019067400130919218
Bol@@ 0.029087485044059846
Enter@@ 0.14609195989128118
King@@ 0.028407117348545622
Lim@@ 0.03910971061303478
Nag@@ 0.06831729485934725
Paris 0.013186831527100661
West@@ 0.018544227100887118
agen 0.01621950661075372
bus 0.03759775877617384
eder@@ 0.015131973216753889
eus 0.10694192471575154
mo 0.02438289990144477
press 0.03840822890315514
σ@@ 0.021040418136516036
توبر 1
حی@@ 0.577831088039377
Af@@ 0.025662177797620072
ais 0.011911934069785787
has 0.0024892530167229835
journ@@ 0.020186913707526045
mal@@ 0.014188211313335267
pedi@@ 0.06649650768143013
rati@@ 0.01632620913080479
tig@@ 0.009873051611927483
γ 0.5296990591693502
Alexand@@ 0.05401436220850135
Brit@@ 0.031624446540258665
Ju@@ 0.021823198692262763
Pop@@ 0.04021516282753172
Tan@@ 0.05141767554907827
Wer@@ 0.014587199387376548
ann 0.0399454679519592
bes 0.026628596799441667
cha 0.01684160238279225
fri@@ 0.013607852865820141
ket 0.01911889557814242
stein 0.020965864207180943
syl@@ 0.038162737136553465
tiv@@ 0.011244237540255197
tures 0.01905896433651236
Feder@@ 0.02268027366110691
Open 0.04016605915210829
Pier@@ 0.12156675696425369
aa 0.13096975467946131
lag 0.024203928888711874
land@@ 0.011721214454788307
side 0.0074269431505129746
ungs@@ 0.004727264952621703
â@@ 0.010973425329401586
ü@@ 0.005345876344195452
ַ@@ 1
Pin@@ 0.05103812676029089
Play@@ 0.029942863709588503
dem@@ 0.006515053279849174
light 0.018145163640130312
pes 0.019969597196230083
tory 0.023528215079138663
vil 0.027796358083941694
Ν@@ 0.03499362498225733
כ@@ 1
ס@@ 1
Bay@@ 0.030697148999969757
DV@@ 0.2336811851868488
Kle@@ 0.03636732923031676
Liber@@ 0.02967607689182681
Union 0.01750021275793277
agn@@ 0.01954038042663987
aqu@@ 0.02397152504312553
ect@@ 0.018849011306902422
his 0.001223425637749768
ische 0.004799911642323899
new@@ 0.02398303357808907
orum 0.1259306576718502
ren@@ 0.00621445506766703
Μ@@ 0.027392628077989558
ھ 0.35182343111543696
Awards 0.030250720380272943
Cath@@ 0.046808842129444035
Domin@@ 0.05770265590745189
France 0.008789117189470506
Gor@@ 0.053055000905607747
Publi@@ 0.03904623021765287
Sem@@ 0.040415194906496324
art@@ 0.019544221118690988
bs 0.01976649972328271
cat@@ 0.014827546339139411
ety 0.017783054835358626
lands 0.01528014333607217
ological 0.023788355876557574
sons 0.030598187851267413
٩@@ 1
き@@ 1
こ 1
Bon@@ 0.0352372685435561
Marie 0.03573698692187098
Nu@@ 0.05134686937859085
Syn@@ 0.04331176828693144
asti@@ 0.03845861067990853
iko 0.06999038843994944
צ@@ 1
French 0.015524448897684175
Grand 0.020721217272751086
Land@@ 0.011103766770457364
Pil@@ 0.05424704488520808
Sat@@ 0.060438937055163115
Sin@@ 0.03624994068325298
ats 0.008011378242672125
dio 0.0206971818893319
eau 0.013615664507167335
für 0.002444563382493167
ker@@ 0.027935953592281116
pur@@ 0.01188184653634187
vari@@ 0.010737301363623969
کان 1
す@@ 1
Dam@@ 0.03862195832022792
Maj@@ 0.031888607274285774
Pen@@ 0.033861350992945405
Saint 0.009452388530462666
Street 0.01914773238896458
bal@@ 0.017052980419596128
gro@@ 0.009689005263429647
hum@@ 0.009582039491171868
ista 0.009920582644519458
left 0.013498960463875484
ones 0.006846326714541894
self 0.010542098054035647
tish 0.053820211721705195
ui@@ 0.11693217633716917
اعظم 1
Ali@@ 0.05946726746754667
Mann@@ 0.05300114581759702
ability 0.022207991199851465
dom 0.02473538371497379
enberg 0.05214246078731256
inn 0.0393375489792888
plas@@ 0.06337615534170568
tain 0.008833500666472547
ó 0.001622514224517538
اسلام 0.7292055044071168
ٰ@@ 1
€ 0.12555438535116215
本@@ 0.029145237461008115
USA 0.03249633839322342
dle 0.025129475935096696
mi 0.020771952001232618
mun@@ 0.020697674789948585
rie 0.06007332923120128
urs 0.008280671466702541
è@@ 0.006324902218436319
ür@@ 0.007326982872843585
κ@@ 0.017509018143320017
ת@@ 1
ری 0.20726757713526403
Bot@@ 0.02365313804457851
Bou@@ 0.055946103016126826
Coun@@ 0.03319535104762583
Island 0.024915181242415166
Ken@@ 0.08247075712452366
Mak@@ 0.049714527141787146
VI 0.06680856930989558
Wag@@ 0.08391210846100641
ational 0.023311286147695884
attle 0.01693707832645373
ert 0.006352869219573155
Δ@@ 0.057417978491236664
う@@ 1
Direc@@ 0.026107512633716235
Japan 0.02374229317238506
Mun@@ 0.039180082515521845
Seb@@ 0.07214354163233651
atur@@ 0.018308573597640956
compos@@ 0.010116676774706693
els@@ 0.0225545406073989
eng 0.058799623347151615
icia 0.057714574803305864
mez 0.15836910536514334
ont@@ 0.022766137737847476
ories 0.020024743636697578
sor@@ 0.010731807107870969
tron@@ 0.024323706172117675
urt 0.017419443362566782
yo@@ 0.01537148688876456
μ@@ 0.018089080543660447
Academy 0.027537244060041995
Cir@@ 0.04505241934110703
Kat@@ 0.027486129939031406
Math@@ 0.05565469675869142
Plan@@ 0.03641370827606517
Squ@@ 0.03547769833467616
UK 0.02688644685799098
ited 0.010363212414359281
language 0.02326186665455025
qui@@ 0.008656334994448013
tem@@ 0.009323479734361914
uld 0.023886728868737644
vis@@ 0.007272020478403203
ár@@ 0.03290506597112953
Π@@ 0.025642525184492514
European 0.018296224803112278
Ku@@ 0.04894697881421704
Lake 0.027848204744502954
Lord 0.03955970907478364
abe 0.026038791836733525
aliz@@ 0.0112986121321739
cle 0.03255566402111809
cli@@ 0.02215718869238091
ely 0.006783099433731218
group 0.010534444444876005
les@@ 0.01659936058850592
ner@@ 0.013946106539787399
ny@@ 0.061134314443095
ops 0.02131017816982354
pel@@ 0.017000293039761017
shire 0.02232467862319982
sky 0.0370703320809127
su 0.002310970132115126
tre 0.006638422543721954
verse 0.024640275483906546
ín 0.026708921321149673
γ@@ 0.02416566320980243
مطابق 0.5799869768353544
Anti@@ 0.04158549608760828
Fel@@ 0.027024423997594155
First 0.023712134633259607
Force 0.03332031065022325
India 0.018220762307440998
Tw@@ 0.049658066573516804
ager 0.01665452482795262
cho@@ 0.01647765477098916
ci 0.021437077738759712
dition 0.01071622630806798
gol@@ 0.026053648994676357
inus 0.10855597053129197
ior 0.013978357662944986
je@@ 0.010431906189849115
now 0.010290473526010539
site 0.011735950483832108
yst@@ 0.037183672249626556
کر@@ 0.1650106630874451
お 1
は@@ 1
Buch@@ 0.04270979546042607
Der 0.004040293770668482
Fal@@ 0.04470483271083702
Hot@@ 0.04133704234541433
Rad@@ 0.0399874471010719
enne 0.00967605375348986
obj@@ 0.015882705867385567
tus 0.07719017092277157
گو@@ 0.6548446223613863
ん@@ 1
Kal@@ 0.029488432634976053
Kap@@ 0.02969663331397083
Meg@@ 0.07796790723667571
Thi@@ 0.05492719149931481
ands 0.014414056059586103
bridge 0.02432012100290564
ces@@ 0.011652005858036411
com 0.12071840617778483
din@@ 0.02372642666532009
essor 0.025482462389853622
hol@@ 0.012005507697624892
ique 0.010615818516683008
jud@@ 0.032351947345815646
wen@@ 0.015037157276174114
■ 1
Dol@@ 0.03497630065198233
Gener@@ 0.028797839036009704
alb@@ 0.015219318161523906
ask@@ 0.02069342570771369
bot 0.05752993205193494
chin@@ 0.03924181251037446
mar 0.037765832150165136
nia 0.06391527441554261
oy 0.0757697583723896
phy@@ 0.038297038352531884
tra@@ 0.009860000511638864
uv@@ 0.014877012503037178
yi 0.05836423162938004
π@@ 0.019475379458245925
″ 0.5126733847742675
East 0.01719411447646339
Got@@ 0.02911553982175252
Kam@@ 0.03542178018053798
Kaz@@ 0.06369156082260377
Loc@@ 0.027539586570748533
Radio 0.030998726903731018
Spr@@ 0.017105566815874464
Tun@@ 0.04130797427796399
ador 0.008810465231231157
ault 0.03266704089053941
auth@@ 0.013016311236145262
band 0.00826022890598875
ography 0.01721007975219765
po 0.01885447933565956
spec@@ 0.012796275040919314
ume 0.020160196231409914
GC 0.17207302601460386
Hans 0.04199134962437777
Sab@@ 0.039767336192863635
Tem@@ 0.04007484631548114
`@@ 0.44938961092334406
bir@@ 0.014114484004242768
det@@ 0.010799365882234176
main 0.01047635112013688
tice 0.016174597543929036
unk@@ 0.010281894902186128
wn 0.010791889149334759
ł@@ 0.02856670963702236
井@@ 0.48025521815481936
Kan@@ 0.02692517821249387
Seg@@ 0.028685782712941893
book 0.014655248095749262
burg 0.013645643882721324
ow 0.017020174313776962
tern@@ 0.03575575459329841
tional 0.010571123831271751
ush@@ 0.02734757413791595
ye@@ 0.022844958770444727
½ 0.25960433558710844
är@@ 0.008450300819161797
الی@@ 0.5506075890598334
کو@@ 0.24518483727776405
よ@@ 1
Championship 0.021084493357786865
General 0.013189568406813623
Sig@@ 0.0536461498777969
Som@@ 0.020650551758629454
aft 0.018156244431560498
ares 0.01533539546029521
ark@@ 0.02626189581486103
aul@@ 0.047207729212668234
chem@@ 0.025330416568536424
chr@@ 0.05568400760834788
doc@@ 0.019460168820189375
ender 0.01927847130535948
gi 0.08009952964657473
olan 0.028781090900757735
sour@@ 0.016463878185139617
ving 0.01841335798744003
vo 0.03181825524313788
which 0.0015807749850354886
wing 0.014326831960482466
wo 0.01169472246835894
yan@@ 0.037173045278112764
§ 0.16382919888463282
دی 0.16504612037144012
مقصد 1
Ant@@ 0.05545245080465098
Cin@@ 0.05408077661401393
Famil@@ 0.04660672777850075
af 0.04747118638723209
eer 0.01721459661863482
him 0.005238729005229087
icul@@ 0.020897711331545304
idge 0.026198460379016037
ua 0.0232268936692272
uer@@ 0.0174945411562072
ū@@ 0.06724650991126077
Rev@@ 0.04537444540712104
Team 0.025587977684915678
Wilhelm 0.041270497413223015
je 0.025709656525411174
lam 0.052676205739402696
lav@@ 0.03758947867560174
ld 0.03640663214413797
nis 0.01819775121998485
pat@@ 0.018661277879410822
ser 0.010255736820662163
sit@@ 0.011144611326222702
tam@@ 0.02565193193743471
ui 0.059533800597711115
ג@@ 1
آزاد 1
خدا 1
فرم@@ 1
African 0.027329360245816274
Bec@@ 0.03654880615047308
Dan@@ 0.01981740387627971
Film 0.01585883626530285
Kas@@ 0.04283166792360178
alt@@ 0.00967672257154026
assi@@ 0.033059652958074476
director 0.017483412327996654
dou@@ 0.013141115162519475
ebo@@ 0.057277330507217734
fon@@ 0.017654688354198304
igo 0.0500489030328385
nd@@ 0.05995531465638671
onom@@ 0.0192826128297994
pa@@ 0.012434416302882863
ures 0.01193340862559058
world 0.012613149727476063
á 0.0090548631497706
Bos@@ 0.03406963713839226
Cup 0.012965249272656453
German 0.014091010847316133
Ges@@ 0.012552886178971497
Hand@@ 0.020595433964657496
Ori@@ 0.0364683606344493
dra@@ 0.017058943956366226
ects 0.010332959023577275
sci@@ 0.0239701173994386
sig@@ 0.008059727625635789
stati@@ 0.04430996363662501
sum@@ 0.01391810529429857
title 0.015942104505923132
ⴰ@@ 1
Doc@@ 0.035865024120132316
June 0.008489250834325595
Lud@@ 0.03662262363753046
Progr@@ 0.02682574697224324
Tit@@ 0.03489471632312896
Ven@@ 0.027931729310130736
ante 0.004676202398464502
hel@@ 0.010319675746727581
omo 0.07103134376835468
ots 0.018323974338787945
phot@@ 0.021334305683390047
radi@@ 0.031078755208104613
ury 0.02069262185401335
ī@@ 0.09172782356733483
Fut@@ 0.05751692434288396
Hom@@ 0.03487166229409625
League 0.008185545948828645
` 1
anan 0.13542544017749888
educ@@ 0.010608694254846174
imb@@ 0.03831813904211822
mak@@ 0.017512208396945613
ori 0.04781819938665638
osh@@ 0.07848975687955896
super@@ 0.01705674913178057
vid@@ 0.012493207212460495
الی 0.6881959468596583
Herr@@ 0.030690678161561485
coun@@ 0.006397031132577107
equ@@ 0.015648359671025756
gal@@ 0.01990666928633611
ho 0.07796277840534237
less 0.014405151548928692
nom@@ 0.013366281645188131
ols 0.01255256267601087
otte 0.03309155819462522
were 0.0013265868777731953
と 1
む@@ 1
Acc@@ 0.07610683113425476
Bundes@@ 0.015666655617025977
Ireland 0.0292648605978286
Sen@@ 0.012185453126947113
camp@@ 0.007259264287061856
first 0.0019954372761178574
spe@@ 0.012731733083538588
squ@@ 0.018056980144065305
thr@@ 0.015259715627368792
uni@@ 0.008583755730600218
ˈ@@ 0.7163077731596247
ν 0.03711488216498555
村@@ 0.13689806962200254
Texas 0.023643566939406505
Tran@@ 0.05183323164538652
aud 0.04392812667395465
cine 0.035450882078628405
dé@@ 0.001897119149061029
estr@@ 0.010075351864516607
iger 0.013403579103413893
igh 0.06855409326219879
ju@@ 0.009570771104316794
pos 0.016411027060762383
rich@@ 0.01090295192216412
trol 0.08243712308505396
ulation 0.02909710490473714
う 1
Canada 0.014719461185253678
François 0.04066662425596223
Israel 0.035791695893045664
Var@@ 0.04684168310481593
agr@@ 0.02804599164085907
agu@@ 0.018483260012425937
aire 0.004700017136454639
con 0.0016557769149812464
egr@@ 0.03360232094588724
ento 0.011830336235100145
esti@@ 0.0110643411402238
fic 0.015336141461134968
sus 0.005427086461446172
wo@@ 0.016737055061046904
ère 0.0040903395293568675
け@@ 1
ろ@@ 1
Berg@@ 0.03557547548520851
Chem@@ 0.045234536302940394
England 0.01360630337817483
It@@ 0.015330843837583395
River 0.01204668374323222
Tow@@ 0.023244172137831722
ado@@ 0.050940865278755826
ag 0.04589580236052519
asc@@ 0.033710899928204766
astr@@ 0.01930319439451237
ement@@ 0.023626768698738365
fic@@ 0.007429007227245943
service 0.010142161632369823
water 0.01203931584089906
® 1
٠ 1
یا 0.08112238209194242
《 0.00868989886381289
Astr@@ 0.05334315227547052
Bil@@ 0.01520790150426477
California 0.015327938457688059
Central 0.017965791230543385
Christi@@ 0.05031424693150971
Kim@@ 0.11785643398388625
Vit@@ 0.06738279775299141
bol@@ 0.03526778987555419
ca@@ 0.028430712253263102
dat@@ 0.039677126338002015
ebr@@ 0.02721900814808032
ehr@@ 0.01377192240432607
ji@@ 0.052794484126014264
mem@@ 0.014920826767058143
pun@@ 0.021123336389503183
sul@@ 0.05544110737645359
ías 0.02268913583340373
ט@@ 1
I. 0.026180815839752916
Ki@@ 0.028975625581137456
aux 0.002556236995729139
contr@@ 0.0045415931133999205
down 0.011192088477276999
eda 0.06043263746822325
mod@@ 0.01604815188783489
odi@@ 0.02906447073861062
sm@@ 0.02556100510158746
vin@@ 0.02999969499697411
θ@@ 0.01632121153039378
نل 1
Eliz@@ 0.04039393608774225
Kom@@ 0.010172401879158653
Radi@@ 0.05541413904601715
aly@@ 0.019640048916067885
ham@@ 0.03801572351503407
mal 0.011840087303594196
mus 0.04818616291082943
put 0.020325688609090502
ric@@ 0.015769021907247206
seud@@ 0.05969223405592625
state 0.007419288462560565
vania 0.03386517507465241
var 0.07201319321718684
ð@@ 0.1369517611444993
öl@@ 0.011645814200921924
А@@ 0.0033300002217385057
ٰ 0.6029922647741608
み 1
川@@ 0.16100909468719155
Friedrich 0.028810390533337893
Lib@@ 0.040146266019858205
Mand@@ 0.04552236442746184
Sor@@ 0.04220050227962433
Vel@@ 0.050725991638202406
archit@@ 0.016911712682841012
conn@@ 0.008442191340730853
conom@@ 0.033550256567563955
ements 0.007450651739726261
emp@@ 0.0062404803469803165
ev 0.04386506316185662
ists 0.009547383674452679
let 0.02538150858703574
ous@@ 0.03647125563479022
ovi@@ 0.030213931307385943
patr@@ 0.0191530598846604
rid 0.08738294013209925
sem@@ 0.009365788643603407
tural 0.013120404982513966
ump@@ 0.02168117345324379
zi 0.04331696593304162
Ö@@ 0.021593340544418527
ε@@ 0.018633711317718526
ν@@ 0.017292393989159365
藤@@ 0.3930250300151834
Indi@@ 0.014655827381060261
cep@@ 0.017854556301877166
chan@@ 0.012579280389113016
fur@@ 0.01075967837940624
have 0.002510410423522905
min 0.05936853712069712
ode 0.013404324460599054
play@@ 0.008307704799480817
ret 0.029499386717860673
udi@@ 0.027930884687830445
wan@@ 0.02237014050592429
æ@@ 0.09076034084816947
ە 1
Ath@@ 0.02089801751227541
Bank 0.0303689958788701
Billboard 0.040069248986588944
Gas@@ 0.04668585144376717
Jacques 0.04032671157051693
Road 0.01896081315609319
Schwar@@ 0.04664147656633255
Tol@@ 0.04360149601273828
Tu@@ 0.03741638733113761
aine 0.010159140561819276
alia 0.05306070882689168
ben@@ 0.009880247526402312
dig@@ 0.009493605352798333
esh 0.03426944919883248
formation 0.015987958005769753
fu@@ 0.008366021925142039
ony@@ 0.02523184250124152
pil@@ 0.017178153970426824
pon@@ 0.012146544453417231
rap@@ 0.009660915953776597
van@@ 0.051493990537876
és 0.002557847122332647
ē@@ 0.256768590431759
انی@@ 0.943752264219153
Dal@@ 0.05278722762343557
Flor@@ 0.040912641834651216
Has@@ 0.04685524506311791
Internet 0.048269730962780415
Nob@@ 0.06752634784567325
body 0.01842347095811209
edo 0.03688200104823449
idi@@ 0.01719777117444435
ité 0.00398770451491958
lab@@ 0.014151563576284658
rot@@ 0.020275903785563817
ules 0.02204572327110575
usa 0.04725475038519626
vier 0.014137806444425765
ward 0.014840396277093862
zy@@ 0.03727567854434012
î@@ 0.013862660753526745
Fried@@ 0.03573812832814201
Mik@@ 0.04497559403038112
Nam@@ 0.03625938073370822
Ober@@ 0.011782043300174686
October 0.007427607766788519
ahl 0.026360889008325162
anger 0.02965106379516608
eum 0.026261189981612712
ference 0.01795779062682061
mission 0.007835144254903595
mul@@ 0.024147629211592372
onal@@ 0.02217452703044866
ons@@ 0.008575091355487603
pin@@ 0.02485039746456015
prof@@ 0.01201719830633875
sin 0.015135433988692
ute 0.013069813308596571
vi 0.0701648126701961
és@@ 0.049663382532037156
İ@@ 0.031891103440566386
》 0.007994250321193387
Berlin 0.013401121005860496
Nig@@ 0.10026382814264247
Paulo 0.09203570962817764
Revol@@ 0.02785541835383433
alg@@ 0.017410762490565942
asa 0.025623676418885633
enth@@ 0.023375166843871198
list@@ 0.011213944321166888
ment@@ 0.015305827591362826
ron@@ 0.020300477918313277
two 0.0024007765122555725
ā 0.11927702001672634
ρι@@ 0.025597753854623977
市 0.01647983328736011
amin@@ 0.03614942929853231
bia 0.0556559894906611
cip@@ 0.020030275359057895
ingo 0.06434646954150901
ites 0.015264564965945677
ived 0.037021869317294426
mes@@ 0.014147728013509102
oi 0.0486977889693201
ths 0.013950715538009528
Juni@@ 0.02954903860651397
Ok@@ 0.05212083494798631
Rou@@ 0.01647292792744158
any 0.008469727667896212
any@@ 0.021679014145049372
atom@@ 0.05006081103226448
aves 0.015097194825550091
dir@@ 0.026919542355400772
eral 0.029388513727322978
führ@@ 0.011447778220658091
ident 0.0077269166492337175
lier 0.013679958822797692
team 0.004691622832798184
trol@@ 0.028694254832978317
éc@@ 0.017381162650727804
í 0.00925926494861986
ί@@ 0.015654535415641085
λ 0.04891548470082509
ός 0.024606068837176247
تی@@ 0.2088198032765614
مشرق 1
یر 0.32425293298380325
か 1
り@@ 1
わ@@ 1
Games 0.02653026971853121
Lat@@ 0.02513927738619393
Sup@@ 0.05213498425075171
acter@@ 0.024243557349251908
aer@@ 0.04265242323738541
fication 0.01582558327778957
get 0.01329254896579974
govern@@ 0.022350367816591075
kom@@ 0.008913107819924838
ls 0.017819097627063758
mir 0.037919631559670354
mir@@ 0.021482060094867486
mos@@ 0.02062390475273852
ologi@@ 0.018457741374775957
oman 0.021323688289051186
original 0.009945071434510826
play 0.008303380854813303
ses 0.003268699332904562
tric@@ 0.02190141840801833
vent@@ 0.013865672529747306
vie@@ 0.009502478000609783
xi@@ 0.052890892089722384
ying 0.008471868368761869
جاتا 0.16561667975656752
Id@@ 0.050501345897089676
Nar@@ 0.041100547051668546
Sz@@ 0.04203992312025453
Vis@@ 0.03802243368873548
bo 0.03680092158713596
eine 0.001661844871770417
fal@@ 0.016758875431518105
hard 0.026871917005096495
iles 0.027537059907131678
nov@@ 0.011436077088207446
olo@@ 0.05550552313957174
ople 0.02713708486208503
opo@@ 0.05977718975252869
span 0.09579616829792871
tour@@ 0.00852077320945926
ular@@ 0.015619344230042274
umb@@ 0.024889725195194955
å@@ 0.062387976276449784
él@@ 0.005809328618700716
ë@@ 0.03299040517073667
č@@ 0.029456134704257342
٫ 1
Frank@@ 0.032593216212002396
Name 0.026665675781452472
Records 0.01840369465104961
aca 0.0381719072124029
bar 0.013328336306783154
bin@@ 0.022641423118086763
chn@@ 0.11678397656069696
da@@ 0.03261201798185015
date 0.018381938080490892
depend@@ 0.01933366197001287
ef 0.013315953249289348
history 0.011354283268216425
oria 0.031355691243702036
phil@@ 0.0643103223779438
pri@@ 0.009544438746049455
stre@@ 0.011060214829313832
ton@@ 0.02578061059224754
vers@@ 0.008362208594135206
ş@@ 0.012617563194832771
ֹ@@ 1
پر@@ 0.20846838317952693
野@@ 0.1374397174176568
Africa 0.022563399794484695
Fri@@ 0.028645741094038467
Jose@@ 0.04118861527953014
Prim@@ 0.02104461106674892
Tour@@ 0.022384459371024592
Univers@@ 0.05870563714558329
amo@@ 0.01947306968090753
bi 0.03332280338513562
box 0.03459520663914337
elen 0.011831038781483465
house 0.010438952825757332
igan 0.026961319846879946
ij@@ 0.031802590750597375
itt 0.05893650286970192
kat@@ 0.026671045878370082
og 0.03800653153552022
r. 0.021073026492201812
see 0.010788088215438772
én 0.036358865857510934
ι@@ 0.01253021432838154
ま 1
Cop@@ 0.03806977846860552
FIFA 0.06712222610815993
Prin@@ 0.03109599194798445
Real 0.03357396110066275
Western 0.018929597251717403
adi 0.05585179063747523
based 0.007089741743110203
bit@@ 0.021565581158385402
comm@@ 0.005247402354884201
cos 0.022394744183566614
cri@@ 0.006140063474354816
ilia 0.08297110018792163
ird 0.05855537573500241
long@@ 0.011899970994067715
med@@ 0.010764909704013543
mont 0.025161583583653755
nu@@ 0.015198713815715796
pul@@ 0.011710845175373213
rent 0.013579692951300112
sing 0.017224411030891836
tario 0.0307072306708932
under 0.003981582902106721
yd@@ 0.045123186943734184
جی@@ 0.175845691959281
じ@@ 1
1,5 0.07546662331007636
Bah@@ 0.012143153401817547
Comp@@ 0.039341235695137776
Def@@ 0.03100407867189093
Gh@@ 0.032583358358287566
Hit@@ 0.03636112349671471
Ka@@ 0.05206796020552425
bac@@ 0.033083379952125916
cos@@ 0.03755710839130894
istan 0.020423521230199398
mit 0.0010502561714992751
och 0.04587207641703584
ud 0.021191498393833084
uses 0.007545612217630811
vie 0.020297547675194757
η 0.006386143597291048
زی@@ 0.22991163450564145
ン@@ 1
小@@ 0.015496522141384623
木@@ 0.08410760948672469
Alex@@ 0.07742502953804717
Da 0.029549570015728895
Mod@@ 0.027028281576664377
ayo 0.05025268532423815
ches 0.005914653427452239
ected 0.005640708230452143
general 0.009192768898534506
iller@@ 0.054815633946481535
national 0.008012114227615923
rea 0.020792164017729525
ία 0.01263484496141625
پرو@@ 0.4702961752196353
ず@@ 1
Kun@@ 0.016851539373265202
Song 0.03638588754492148
about 0.004195357742176104
aja 0.031453847238522875
atis@@ 0.017689463129827124
dit 0.017485857753804377
ecture 0.017418065457103837
eg 0.01627221446053414
fe 0.012621745562964835
ido 0.004670012443519203
lit@@ 0.010042921812980395
los 0.000910447054317151
mark 0.023138631082463525
má@@ 0.021473277723283366
priv@@ 0.008783659004494683
progr@@ 0.009282848158636592
than 0.004403732913202312
ís 0.042156849779034826
ά@@ 0.014380181035602159
ո@@ 1
‚ 0.11319125506038803
た 1
Bay 0.021825829771802953
Das 0.003977888930323238
Parti@@ 0.034728281525594505
Party 0.01275211697842303
chen 0.005096728718970273
clus@@ 0.02349317929630757
ister@@ 0.009920875614906215
san@@ 0.01810823649991135
stand@@ 0.007057106098641417
top@@ 0.03301353393511506
uy@@ 0.013959208678996634
éri@@ 0.006098086905477232
ка 0.0024481763598696617
ܐ 1
Australia 0.01204547189102006
Il 0.002413046822690841
Roman 0.018739776762005795
Sau@@ 0.02951777512755372
bury 0.026246678709671633
cht 0.009103192303876842
get@@ 0.0191737013567361
hie 0.021559579622276143
identi@@ 0.006641850122767239
lob@@ 0.02847224570260118
que@@ 0.023105153453984832
their 0.0017372245967090312
tol@@ 0.023773066431387973
version 0.009552670008203298
ρ@@ 0.01587162901122241
τ@@ 0.012672344096047653
چ 0.250363930607523
Dani@@ 0.09106091661949153
ades 0.009278698503624689
ends 0.011765577221941388
esi 0.018670833424621756
jas 0.038651536493056984
number 0.0056659532365280485
stat@@ 0.007981963080163202
test 0.02586973005339142
umi 0.08943533655386585
vention 0.019005628030205415
works 0.010896438404634059
▪ 1
Arts 0.01945085061026437
Beh@@ 0.03339710970562538
China 0.012300701959746967
Kit@@ 0.04593292859676005
Kl@@ 0.012919803155621067
Los 0.0053716197060163515
Natur@@ 0.02040494483448887
Num@@ 0.038078927222846455
Wa@@ 0.050186930246358084
alo 0.04345840362306796
atri@@ 0.029826722389421693
einer 0.0028142112122473903
etz@@ 0.008896528230795904
eur 0.005166469046534935
isha 0.0856092076549549
lus@@ 0.0219226513226381
ograp@@ 0.03665947937241685
prim@@ 0.005655627386243985
sten 0.005066427316485305
tors 0.0108708663770712
wig 0.02650442606881525
ï@@ 0.00945996509733644
δ 0.4626229814398985
سپ@@ 0.4832906433678435
شی@@ 0.23016230235557866
County 0.005944619902658354
Hist@@ 0.03053804829238578
Kais@@ 0.028629690334957
Tex@@ 0.03039275297480258
bon 0.02255003006001734
cir@@ 0.008332174065023604
coll@@ 0.004849731665681562
dren 0.06471796237690514
dur@@ 0.011107617627992549
etes 0.04089009381422503
iz 0.023804338631154037
lad@@ 0.013684372471524637
lar 0.009062609036219091
osp@@ 0.027613250468884562
outh 0.012765610116798217
xim@@ 0.008608438513959002
на 0.0005106347783201236
Ἀ@@ 1
Div@@ 0.041060706939957975
Europe 0.010649212918564719
Kid@@ 0.148717192340517
Kil@@ 0.03617286847360205
Kol@@ 0.019602611221707433
Maz@@ 0.04716605565106359
ains 0.00620900677092987
antas@@ 0.03466025652060999
chen@@ 0.019219999980363237
flo@@ 0.01207716791113649
gri@@ 0.0248519077858257
icio 0.01471331535113312
ift 0.06015670356134523
imi@@ 0.026931356722515856
mol@@ 0.017906237320455303
multi@@ 0.015630881943261146
nati@@ 0.013156256641277387
nav@@ 0.012204298519715736
ord 0.02767183770338044
tan 0.019038891878238436
θ 0.23055178627254583
в@@ 0.001384506629547713
вич 0.01319219854160785
н 0.0018750507455568947
ր@@ 1
こ@@ 1
わ 1
Meh@@ 0.07239724141026364
Sir 0.02290154175699384
Tab@@ 0.0352281955875914
ait 0.003919363893141911
annel 0.020705388108177594
avi@@ 0.01975699503787834
bon@@ 0.02868645026336166
cent@@ 0.015305323546231714
fied 0.00884004608724223
law@@ 0.01564838715872869
lers 0.015842645559419347
live 0.015047300683478466
order 0.010096903635608246
plan@@ 0.010674917233789348
sis 0.07427228376906034
uta 0.03331309366690174
vor@@ 0.0045899202609960815
ác@@ 0.021388919535523136
ρ 0.035607029332089014
э@@ 0.0023175066321813723
اپ@@ 0.484239407935886
ܝ@@ 1
↑ 1
Form@@ 0.025999019161964773
Hat@@ 0.06167751257632246
Vill@@ 0.02319197237989341
With 0.014231248476299757
ames 0.03844033069115989
blo@@ 0.018144941456580646
eas@@ 0.01166429407882819
enz 0.02231412703480987
far@@ 0.015068731232278507
ien 0.004506889145320685
ills 0.01713913157604542
lem 0.021078997835320145
mm 0.016123952780737194
ords 0.011705973160435609
stell@@ 0.006216067157717261
ult@@ 0.007409564470068168
μ 0.07301330576157007
р@@ 0.0028862787801686362
ち 1
Cast@@ 0.022571128804598734
Kem@@ 0.10068182822845494
Mé@@ 0.029078572795994483
Vil@@ 0.024485855606791236
anim@@ 0.008707674437470999
atos 0.02414755646924433
bio 0.029480503946995685
chil@@ 0.013660200730025465
cio 0.023973977527120015
ective 0.012981218242155364
head 0.010162096414108819
idi 0.04398711117682682
inv@@ 0.005565271737924081
ishing 0.014459308162936044
like 0.00686611879135773
media 0.014932383955391343
part@@ 0.009310910287160292
player 0.01159971151808023
syst@@ 0.013749068115834668
tu 0.04011344893728466
ór@@ 0.01533922288975844
ω 0.0891251445475028
Alg@@ 0.03322143238416932
Franz 0.03551898034731984
Heinrich 0.03026628253271401
Land 0.019307309228387616
Lis@@ 0.043882947785693655
Ohio 0.02709940433701544
Pom@@ 0.035213777622160304
Santiago 0.042173254335136884
Top 0.0267495645067396
VII 0.05324445377994603
also 0.0011977914067146083
cer 0.024516090228542484
commun@@ 0.00682649429124298
edit@@ 0.014988813257094464
esia 0.06054056227360452
eu@@ 0.028450708737897932
full 0.013586589033875614
gh@@ 0.018744609561607097
han 0.013364805694954619
isch@@ 0.007309144176852331
mine 0.01830390479268093
nuc@@ 0.02599212746599317
omb@@ 0.017394438458260233
tun@@ 0.022752262588694682
ube 0.03261947800200615
wil@@ 0.022081163201550773
will 0.0057348363507716445
wr@@ 0.02437737180566218
ä 0.11332142177205444
λ@@ 0.015223084193659154
قی@@ 0.28319532205232467
٢ 1
Alli@@ 0.0278202172626041
Lag@@ 0.03187212094790186
Milit@@ 0.018305429833150765
Victoria 0.02666105812643531
Wit@@ 0.031609529225821005
Zi@@ 0.018762949240962945
atre 0.01630269671910348
aut@@ 0.008726004631195283
bau@@ 0.011823029763816306
bu 0.01350719249780541
esa 0.01333956987984485
fa 0.04224898973823738
ican 0.012680568519936888
kg 0.038805510132138565
ose 0.022322787111524477
point 0.008584034315674598
ppe 0.032657816440685786
round 0.010450702709757844
yal@@ 0.04360373708848111
yon@@ 0.022424520486793588
φ@@ 0.011941629763145126
ω@@ 0.017191448014002658
ב 1
کان@@ 0.833934276360199
り 1
三@@ 0.010223853151944804
Amer@@ 0.023152272485869013
Army 0.011581007593949514
Augus@@ 0.03746861532844814
Barcelona 0.03544779870565493
Din@@ 0.04004908047533531
Do 0.050598007831299384
Empire 0.01933711342271813
Pad@@ 0.0348848734519226
Rein@@ 0.022894030356813866
Se 0.009440152893171502
abil@@ 0.01393366774681502
activ@@ 0.0060856096995580925
andi@@ 0.04168063059033558
anti 0.01881123621241263
but@@ 0.011577905510646821
cho 0.004782115135348791
class@@ 0.010225301885703064
ellschaft 0.022788593024812436
ett@@ 0.011988783164400356
gener@@ 0.006284462633242637
iter 0.013899956282546132
lim@@ 0.012676933555700395
mov@@ 0.006469425889776223
pass@@ 0.004912809590545522
pot@@ 0.010798199364709769
tn@@ 0.031361293236930904
umin@@ 0.027499242500412118
ז@@ 1
اعز@@ 1
Fir@@ 0.02911363819261309
Hot 0.0367248442175908
Museum 0.013987606395450413
You@@ 0.04236411102518735
alog@@ 0.019417887663706584
annes 0.02669863800570515
ator@@ 0.030695726757214173
bach 0.01352858081632614
craft 0.01462307544253883
law 0.009907908596144165
lip@@ 0.033110593495443354
olo 0.03655097203844815
refer@@ 0.008308381041447441
sac@@ 0.018915495843404434
tal 0.019366476650749153
used 0.002711922480428506
Ç@@ 0.02394859326276436
Ó@@ 0.10118421196905633
١ 1
じ 1
Alb@@ 0.02524996116141875
Centre 0.020792462539224805
Council 0.01121610559104578
Liter@@ 0.02402206670609225
Nord@@ 0.013774110819606427
Yo@@ 0.05788483385209046
aining 0.008151054630595424
aye 0.030722647056765286
bec 0.024225398858886853
dh@@ 0.020385181865508115
eva 0.03688855598179228
even 0.008571175947458853
hav@@ 0.020768737629414887
histori@@ 0.008175749418604378
ion@@ 0.02135784583895156
jo@@ 0.009264528733581372
run@@ 0.007404500649235248
uss@@ 0.009651530874650467
ás@@ 0.021595604869066105
Λ@@ 0.023172469561367495
р 0.0018926009522901948
تی 0.08964654640738559
ら@@ 1
Esp@@ 0.015418422235182304
February 0.0063504051066769936
Jul@@ 0.06814520770614042
Sach@@ 0.031051206817723696
andes 0.03670671388517294
anga 0.027194961010090998
been 0.001858640162287136
change 0.009986948766323086
dor@@ 0.01563967741422907
elt 0.004866857596319426
etti 0.03098877857245725
fo 0.04322743545631187
later 0.0032662970000251084
life 0.004570428471207268
mas 0.024731312674021996
oko 0.09100350710851476
others 0.009286148220301087
pap@@ 0.009818063152980772
quar@@ 0.009962162794877905
rain 0.022024626454436154
tain@@ 0.008971483070710525
ı 0.007974436732126782
т 0.0014868101406388685
گر@@ 0.21045497703443514
の 0.5641808370540238
高@@ 0.012124883975874712
Division 0.00926234079887578
Ky@@ 0.035420784862288314
Mut@@ 0.022394061076494994
Person@@ 0.014263313169274297
Sak@@ 0.042291562309013785
ander@@ 0.013024240908202499
bin 0.037331446435308814
ck@@ 0.01688478960317454
ej@@ 0.009312358269075987
elo 0.023711164756734703
enter 0.026068395732870737
ept@@ 0.01980275113196023
erra 0.021760950973692947
had 0.001133877671051729
ils 0.005816202065081496
nik 0.022696804580391604
tak@@ 0.004873074997502826
ğ@@ 0.018905893380077272
л@@ 0.0017732709853715187
א 1
اک@@ 0.24983114234409468
ふ@@ 1
ろ 1
He 0.0010012032596114536
Luf@@ 0.02485704510299986
but 0.0014937562457575408
dal@@ 0.029764299206658226
dev@@ 0.005875255208264343
eck@@ 0.015887128330621524
eti 0.03695382142129549
following 0.0051975338050015895
hon@@ 0.007823808825789673
illo 0.017700823164780645
inda 0.0936643219887947
information 0.01464732921961315
kal@@ 0.015499038194752
ked 0.008095924174216442
ments 0.008736990876402426
met 0.009253092434608158
ran 0.016774330077617174
rech@@ 0.008056410247306248
rou@@ 0.012185842117486648
termin@@ 0.009310021396667027
trav@@ 0.006458953400766702
ustri@@ 0.026475358654694397
war 0.0011901682201285052
ê@@ 0.00545721677031961
Η@@ 0.0926684349518224
ι 0.016903505794413846
া@@ 0.9126376611993351
く@@ 1
Am 0.0067962809310913395
Florida 0.01953711581978392
From 0.010347952486616678
Haz@@ 0.0736816720305907
Kab@@ 0.033313230020484405
Lon@@ 0.06205450300367602
Portu@@ 0.016819048094363565
aber 0.005626562210295612
alan@@ 0.04409838796590905
bish@@ 0.016337520903788916
cit@@ 0.01636166567104282
cle@@ 0.013116720815704355
ece 0.0093072112938448
eni 0.04468492924528404
gel@@ 0.003240868848511189
ices 0.011630976678955872
ili 0.024287949747658435
ilo 0.05899496712842114
kan 0.03789437068544193
map@@ 0.05491462636380737
polis 0.028374701397974326
tex@@ 0.010574546771951777
tt@@ 0.03101290907838617
à@@ 0.1296967783399145
ă@@ 0.04371052418574254
ο@@ 0.012751713727249885
а@@ 0.0023032787051354454
ئر@@ 0.8576102066656572
◊ 1
え@@ 1
上@@ 0.014212867570847226
Chin@@ 0.012485729759128004
Hin@@ 0.019519163369383023
Rum@@ 0.042425198643274965
ación 0.0012041060021104142
active 0.013347115707744635
bat@@ 0.00658580402519402
bos@@ 0.031171058359791136
cam@@ 0.010154708150806274
das 0.0009915785306059365
itung 0.01417208730798292
kan@@ 0.013867960024814411
kel@@ 0.018873282032409972
kre@@ 0.01165763185107789
mut@@ 0.012450976998595552
naci@@ 0.0184607827086277
sam@@ 0.023775985738762117
sea 0.013378866929791027
techn@@ 0.009387414767509884
test@@ 0.014250237927995993
ues 0.010075508025432564
yat@@ 0.0629459662670935
τος 0.05487069924087293
м@@ 0.001610873726726945
ד 1
کی@@ 0.0800896559880427
け 1
ん 0.9555124804130593
Atlan@@ 0.021592121894477546
Columb@@ 0.018753764792077812
Democ@@ 0.013933277064624985
Henri 0.03209106409996217
Ny@@ 0.06260273335996071
Tour 0.01331467714559233
abl@@ 0.009846481228249762
aro 0.032167180821612705
case 0.01136380750490344
cm 0.018332330091443094
comple@@ 0.007721756854576215
gin@@ 0.05011995766225893
hab@@ 0.006901858068404545
km 0.003984646725267801
lay@@ 0.024045283488597694
ligh@@ 0.011886729794259913
mach@@ 0.011116336169239292
mati@@ 0.024054454348928906
ogr@@ 0.03406591693706627
only 0.0027893847955754573
orient@@ 0.021998224972360546
par 0.0009887502182360848
pour 0.0012453833862612743
pression 0.018763027435208576
second 0.0033968336259309214
sup@@ 0.004301194154385809
uma 0.031586281532626555
urg 0.012380853863075159
³ 0.0774211359445456
éli@@ 0.016857918723434236
ña 0.018942208566913574
ı@@ 0.016609303300750278
Τ@@ 0.016240975425301743
ό@@ 0.013430624987208518
ύ@@ 0.015061284856085383
И@@ 0.0029070907747633964
О@@ 0.0022803495287066766
С@@ 0.001764667582100369
خود 0.3747172261515368
٣@@ 1
イ@@ 1
Anton@@ 0.062095281102739014
Ji@@ 0.0481202887808158
Kre@@ 0.008247864878277528
Orig@@ 0.017572927835073346
So 0.016033213705286382
St 0.01342390532823763
There 0.005679562553696384
dul@@ 0.038282423298434724
ended 0.004484398678228928
etts 0.02394096603646388
formes 0.03745196254262312
hat@@ 0.03733903149454106
ilio 0.05241204178024825
many 0.0029891250048403642
music 0.005753295676902145
na@@ 0.03718410136042787
ongo 0.04075184750257885
publ@@ 0.012322630736880783
ris@@ 0.013173192698160268
show 0.007101580477860196
spr@@ 0.00614203142287846
who 0.0014102487566799156
ın 0.00925548073606898
ş 0.03073624564288835
Ε@@ 0.01905638063069444
Ι 0.5066691321443061
ά 0.013969585139883438
έ@@ 0.010125016718359494
Б@@ 0.003795327374956918
る 1
Arg@@ 0.03547515438381512
Tok@@ 0.027929034117806822
aborat@@ 0.026257416840643102
ander 0.018488275522463744
arc@@ 0.028570634192213572
auf@@ 0.002003937323886953
bec@@ 0.009333450713745537
buil@@ 0.01017390877871637
burg@@ 0.017887198533237624
centr@@ 0.010926978566214872
control 0.010266873566545008
econom@@ 0.009836403628870028
esto 0.022824768662653656
eu 0.0114969167991097
iga 0.03421707838464614
ingu@@ 0.013857429613266215
iri 0.04258494824139842
itu@@ 0.017676547179428407
ken@@ 0.009601037588063702
schaft 0.003481273880147586
sequ@@ 0.008077826312936184
sk 0.026120965907319174
stor@@ 0.011822514913605996
ule 0.009099245655568062
ways 0.009761233871458873
Α@@ 0.012062515513930581
έα 0.11279866106029672
φ 0.08777746602934686
χ@@ 0.010002532855711113
ро@@ 0.0012564254474510587
بین 0.4255985245804137
نی 0.0986715928573998
་ 0.6881830250143096
„ 0.001581678285922166
リ@@ 1
Asia 0.022701642952717416
By 0.010076574325722468
Pon@@ 0.028182628585394727
Rah@@ 0.02007526695969243
Tenn@@ 0.02123176475277728
adem@@ 0.013443708166822544
anci@@ 0.007790369225177239
anta 0.01720458374777708
atin 0.015765042704520383
aun@@ 0.019779100843119794
din 0.038838346588084625
eli 0.020778991671369002
erie 0.018110539512534635
ern 0.0035150579285138815
esh@@ 0.026390839377593314
ext@@ 0.009135413657511632
family 0.0038128587230728036
four 0.004254232187383392
game 0.004788090514458533
hip 0.016179872039045362
ige 0.0043969890551045455
ize 0.017133902403359446
mad@@ 0.013608661459544829
ministr@@ 0.01328062098603363
opsis 0.03410310304605584
ouv@@ 0.004706177239107538
uz 0.03654976336920949
vil@@ 0.017087213566846622
vit@@ 0.025179133132317667
won 0.004234728024287912
ა@@ 0.4067042609659215
ⵉ@@ 1
ー 0.39905786350235495
松@@ 0.10500701469355248
이@@ 1
1. 0.0055179486052222655
Dr. 0.01720883559008727
Gaz@@ 0.056712112078388666
Indian 0.011497057048855341
Johann 0.01876297989650667
Vik@@ 0.035099596416087966
allas 0.02820296521952447
aro@@ 0.046786115553932056
arri@@ 0.009200698760126249
aut 0.007380861955412058
cast 0.010390080849604093
edr@@ 0.012378509968265682
ener 0.010733191413265834
fle@@ 0.011225898939753577
ias 0.021268904951307652
ingen 0.006669491386641571
nier 0.02381673730793294
nit@@ 0.021583584736764777
pas@@ 0.00461330306820044
plat@@ 0.008002948247163761
plus 0.002075085165358428
tier 0.01900697389553033
än@@ 0.003926793773279364
ène 0.011043175210304058
Φ@@ 0.025138420843334324
Χ@@ 0.022859805617289692
у@@ 0.0010411305390095659
2. 0.012248465349540459
Austr@@ 0.012000995711867826
Disney 0.03374525843602803
Gru@@ 0.014808232926537913
Hein@@ 0.03967633441627506
Leb@@ 0.026375959403572097
Muh@@ 0.037063515267627425
Nati@@ 0.019086183733836404
Pak@@ 0.017623282841374887
When 0.007770618100911
ables 0.00870346379185562
alt 0.014161054681836337
aud@@ 0.024905224812831975
ayn@@ 0.07667404822776142
between 0.0026319467669082617
han@@ 0.03120783905882474
iter@@ 0.024625701661664917
neg@@ 0.007783833575808394
oso 0.016378426588047883
people 0.0037964307249231974
pi 0.07425856127092922
rich 0.02767281871467973
small 0.00685462198063835
tie 0.020432069773147005
uo 0.04839470252219084
urn@@ 0.016655395177085
using 0.006142525716061634
н@@ 0.0015183909551629519
石@@ 0.033570496198075124
Braz@@ 0.0193885882115907
Bun@@ 0.030970153604635405
Centr@@ 0.0278029553417061
Ein@@ 0.003745087694517388
Festival 0.011224354169252194
Olymp@@ 0.011478303810299576
Station 0.014426446773438071
aug@@ 0.018878766768786005
dar@@ 0.004361448433069575
dings 0.010384571888053957
diplom@@ 0.024878466593109876
dos 0.004203127040259844
erst@@ 0.010072411303150383
esta 0.005194565381092171
gil@@ 0.023515273890170378
hai 0.013138545686646996
imi 0.039911534278794014
lah 0.044422733333453604
lang 0.014465174963549843
lib@@ 0.026703218672282817
num@@ 0.010303317829785262
ordin@@ 0.010254792238993659
part 0.0022350239886499384
person@@ 0.005967123408684734
ples 0.008137896937232342
rat 0.0180998741969767
rup@@ 0.011059841819866571
sat@@ 0.012137409137379023
sel 0.011008146231843858
trac@@ 0.00841454472449852
trop@@ 0.013009616250901475
ved 0.0029661152650910846
¤ 1
Ş@@ 0.027177526239668223
ε 0.020889997111120114
й 0.0011952512254284106
ский 0.002199337619512574
ἀ@@ 0.8302108277839628
や 1
郎 0.09896655103688318
Beg@@ 0.00948229809159148
Hab@@ 0.0204084207529497
Kos@@ 0.030115021172022142
asse 0.010545448512661667
dru@@ 0.014744484854429672
eds 0.011501034943080572
enf@@ 0.008713915523768385
eur@@ 0.0147816265240712
fast 0.015616183568522006
fel@@ 0.010983021163200228
ograph@@ 0.012850486214480006
orial 0.01012554976973497
pic@@ 0.011834865484392405
poli@@ 0.015252443387744404
proj@@ 0.0058118485601111915
sche 0.008600276947145866
usi@@ 0.01097633382436523
ustr@@ 0.00904109698348048
utz 0.0244040518195943
wn@@ 0.012129115228296398
ön@@ 0.009700341891042207
αν@@ 0.0089431666818419
ь@@ 0.002294397701440385
ׁ@@ 1
.C. 0.019221720154455762
December 0.004596052887263282
Guerra 0.02641823659620804
Stre@@ 0.019197725775876487
UE@@ 0.1904941299346405
agon@@ 0.015511320091992159
americ@@ 0.023749544823054886
dol@@ 0.012837972854993149
enes 0.012819893872630037
lis@@ 0.04449047449853749
liv@@ 0.006204169978986697
most 0.0026628074487897208
nationale 0.0101158534993816
ois 0.019696776067985786
oli 0.044746193233020155
optera 0.07471539773680155
parti@@ 0.005275824186104746
raine 0.020775071226828215
sions 0.006494262529465564
´ 0.13851356080871363
ż@@ 0.1085497072050439
ρος 0.06712514361630587
στ@@ 0.009413255885351909
ו 1
٥ 1
ڭ 1
ス@@ 1
Arti@@ 0.020929279632721943
Chicago 0.012540183310746016
Ort@@ 0.017307612535332362
Stein@@ 0.022230212836925254
Venez@@ 0.025475133611235264
Volks@@ 0.017517413059923718
alls 0.008264395188418781
asi 0.02855787307896584
ats@@ 0.01776775094328363
away 0.010516668886247086
each 0.0050308494001692185
fan@@ 0.011524181195030988
fig@@ 0.010260544981586694
inas 0.018568037288396656
itation 0.01567067796925738
lon@@ 0.028155813120578535
lov@@ 0.01789741531083984
mand@@ 0.011000860513528967
public@@ 0.0048160911311142095
rio 0.033069129201778756
some 0.003099342464819482
ums 0.005969554431889468
year 0.0023313840086719826
÷ 1
К@@ 0.002290726479402151
ֵ@@ 1
یل 0.3752054454056688
一 0.01582083796991131
人 0.0026591582502357835
Et@@ 0.021480550075545772
Govern@@ 0.008791776289388297
Nacional 0.013757269809265976
Neu@@ 0.015611816911336604
Ré@@ 0.008843267956537353
Tou@@ 0.025252887472746524
Un 0.00854927096743641
ave@@ 0.02637780543689415
dam@@ 0.006333851627965448
did@@ 0.014631446725604848
ehr 0.011736763339119927
enta 0.011026288432290293
extr@@ 0.007130964681914297
found@@ 0.015391532111676829
fran@@ 0.011469233482248814
kel 0.015575507132659022
kor@@ 0.016946067394237912
lang@@ 0.0061185042974139575
libr@@ 0.010946439968016374
lines 0.011961255952700547
mt@@ 0.06520474177793201
onne 0.009929527820763931
place 0.0029832412708911595
positi@@ 0.005996568182436655
sar@@ 0.028688502029163395
spir@@ 0.013318726977152286
tique 0.007887197684668376
tos 0.005802023288210174
where 0.002148810538725917
zen 0.006632000129010637
ì 0.0337536435039779
ś@@ 0.06330765545694216
σ 0.25463752457457306
к 0.0009771724855616492
к@@ 0.0017071958955769111
с@@ 0.0008015510100258107
ы@@ 0.0030503090719954957
ն 1
ֶ@@ 1
ولی@@ 0.5775376182104496
正@@ 0.020261151547989867
Archit@@ 0.015922628740733264
January 0.003962837339874618
NBA 0.02818314810465128
November 0.0030952059148889903
Si 0.02248555917366206
Span@@ 0.010978611216731967
UEFA 0.034535191460425545
aller@@ 0.03250397003076544
ana@@ 0.04808393178937365
arte 0.03166336844503833
come 0.007668137534666982
direc@@ 0.0029242516223378714
energ@@ 0.014804897887314187
entes 0.0039889623295482944
liga 0.012714112594460054
mittee 0.009805408785747984
mix@@ 0.012899348220530422
nes@@ 0.04490702072648346
ogen 0.013766984480635494
ority 0.007900409147177592
then 0.002413669310259736
union 0.014386723824160034
ü 0.014969932763437563
в 0.00019854577764903854
д@@ 0.0011659404224622137
ш@@ 0.0016370132249834662
ն@@ 1
سی 0.10560840862690396
٨ 1
ܕ@@ 1
真@@ 0.04093129538896648
Jersey 0.021055469263078212
Say@@ 0.06188319850418834
adr@@ 0.008661291493646455
alli@@ 0.011528748975347414
ape 0.016380309600170367
bes@@ 0.0031769548583713532
bis 0.001496830872873707
dans 0.0007486430691128024
dern 0.008710070234817856
dist@@ 0.003907646196628271
imin@@ 0.017363074762068303
long 0.004338567163588428
make 0.007798042257841747
pon 0.009079037751141666
pop 0.020401833473310683
power 0.007712077826782191
qui 0.0011218679537544373
ram@@ 0.01936466512834008
seg@@ 0.012799751145435058
through 0.0029689234845198895
è 0.06475450396441816
ö 0.060050830273760285
ɪ@@ 1
В@@ 0.0023253679988291883
ло@@ 0.0014707695030215348
с 0.0005835547531448792
٣ 1
≤ 0.5305721349739373
≥ 0.6609470484444171
だ@@ 1
和@@ 0.03241788295334837
Bed@@ 0.02221669371651741
Bes@@ 0.006374663807173781
Church 0.007829617976729455
Hav@@ 0.01876749387917669
Illinois 0.019880149889654742
Universit@@ 0.0163558695045179
amo 0.03131314805063265
avi 0.05614766630467351
ben 0.00424908524330468
dem 0.0006914695137861444
dre@@ 0.009102195097433485
encia 0.0028911926514236983
fus@@ 0.01639174442552382
guit@@ 0.012321911895714003
home 0.004922961799782802
hur@@ 0.01999563268806711
icht 0.00522371125188541
iment 0.009449456586334181
initi@@ 0.005625363619271228
isch 0.004581917640827374
ishi 0.05591978580671337
isi 0.013780277079374877
iti 0.035445126966712495
lev@@ 0.010826741377736189
nec@@ 0.014416326938025914
partment 0.007397783625134738
prise 0.011204156535565264
rem@@ 0.004198763243414775
represent@@ 0.004514704203542987
sei 0.015599667785782659
sion@@ 0.00785847042495169
sist@@ 0.00760084688130001
stant@@ 0.023079140981906113
viv@@ 0.008487629809460634
wa@@ 0.02134715725450492
was@@ 0.017300939021168818
ét@@ 0.003139648401718975
ī 0.0663768801503373
Ρ@@ 0.020805165553668504
αλ@@ 0.015707957532965017
ια 0.013049063483788434
й@@ 0.001256988877806693
ль@@ 0.0009792330246433491
ע 1
تعلقات 1
مدی@@ 1
ژ@@ 0.694805428894587
گا@@ 0.47714772149514384
原@@ 0.01216983479801984
西@@ 0.005406048274999472
Bad@@ 0.0229543230143833
Cou@@ 0.015846631122444305
Football 0.010723515493951306
Grou@@ 0.05526810509138798
Kri@@ 0.013459226233566594
Kul@@ 0.0156622163252807
September 0.0026822365161971876
adap@@ 0.010110719042348826
after 0.0014443321662590501
ample 0.008690531818268486
dan@@ 0.012387888627796521
diff@@ 0.006426393477151898
dis 0.01845796182163124
ectiv@@ 0.010704068104128722
eros 0.011926774372792924
fem@@ 0.00423192085829588
hist@@ 0.020957388123144696
ict 0.019345300037051424
ific@@ 0.008212782794153767
ires 0.0057245352303294805
isp@@ 0.046673661699083144
kil@@ 0.009819855431490773
kon@@ 0.004784857036470868
leri 0.010868821528539676
opp@@ 0.010922567575033942
saf@@ 0.01637095446164756
san 0.03345581148674705
sep@@ 0.01306473161097625
som@@ 0.009996065900203466
stan@@ 0.024310729018701203
tries 0.00915773974945939
unds 0.009039305730550931
viol@@ 0.007678638751468977
wel@@ 0.007214854877065674
when 0.001976474385306756
ì@@ 0.19649772822260828
ē 0.45283544135404674
ž@@ 0.032854527472603305
ρο@@ 0.015299514081701127
υ@@ 0.011360121775167282
ла@@ 0.002182786312808338
о@@ 0.0008946269785450108
ская 0.0035390901760471586
٤ 1
٧ 1
کل 0.22331638483408192
۔ 0.0045186001568010056
্ 1
≈ 0.5857448956449711
ⵎ@@ 1
Franç@@ 0.03745811012704798
aco 0.021811439921079825
afa 0.06304710132942613
ango 0.029112813795984224
appro@@ 0.004406317215289744
azz 0.015982697312218862
board 0.010978258891831079
cla@@ 0.005891489255027536
eleg@@ 0.011008975210170236
emi 0.04663382447875294
fas@@ 0.011125335782001415
ful@@ 0.009857266489044619
gesch@@ 0.0034365797959497067
iler 0.014628652092439099
ished 0.004940672681295366
kul@@ 0.011737313084344442
lot 0.0084690998343679
match 0.00609780585668968
may 0.0033941063512276286
orie 0.01318967142571184
position 0.0035945638129207444
ras@@ 0.015812449083909236
ste 0.005044736812170608
sur 0.001118520950720629
tar 0.018511074555975306
tera 0.018019255298500625
times 0.004908990880070589
vel 0.041358059589982614
while 0.002770342395815942
Å 0.40622744225848584
Ω 0.5892814538909035
ւ@@ 1
ぐ@@ 1
天@@ 0.010268039301828787
美@@ 0.012485718466945031
Emp@@ 0.02901604727080223
Es 0.0036833663857147123
Kis@@ 0.05196715666591355
Ou@@ 0.019194303311212822
alar@@ 0.01688566829492248
amba 0.05304982973303389
azar@@ 0.047746802426134924
dens@@ 0.009092157244965343
engine 0.018255525830183132
exp@@ 0.004355344812982488
fi 0.06611668325635522
film@@ 0.013861034903057524
has@@ 0.025440374364834546
last 0.0055837957003613044
lich@@ 0.004719629575127153
liter@@ 0.007785845243563601
mess@@ 0.015312950970292102
ned 0.0033595500687051303
ologie 0.006518691908437326
onder@@ 0.025606079150546263
orio 0.01335437278382797
otr@@ 0.04388665524157593
post 0.010207535873118137
stud@@ 0.005961853369889045
tari@@ 0.02414135249868459
uela 0.020631948539007815
uni 0.04626125416646282
ò@@ 0.08221736097421181
ή@@ 0.012719309383287991
η@@ 0.01164388362224073
и 0.000237286608032023
ра@@ 0.0013587714072140224
у 0.0012596843507693247
ե@@ 0.9310672856234473
انی 0.07319917087896198
صی@@ 0.434233718657474
ٳ@@ 1
پار@@ 0.35190213828050254
کن 0.34054884302898547
ۡ@@ 1
太@@ 0.014700461115690308
Afr@@ 0.03439558035684274
Band 0.011522426380791536
Cum@@ 0.03854774681638657
Rech@@ 0.01211034356636984
Santa 0.009617473259906828
Um@@ 0.008113895797712671
antes 0.00345973282653356
añ@@ 0.009621738985471397
champ@@ 0.013628222323085899
eca 0.02493154792683253
enda 0.019101099877350328
geb@@ 0.002602475288290961
gem@@ 0.008271843647908849
gir@@ 0.008677095959535279
hir 0.058970159604483895
ief 0.00879945523382664
iliz@@ 0.022676593712555104
imp@@ 0.0068460992088550205
isco 0.11506015892379644
may@@ 0.019310570418350242
pain@@ 0.007856972634734944
park 0.011213910110884068
polit@@ 0.01484548433622917
sal 0.022327257579933226
scienti@@ 0.011489314011682962
seau 0.016103922135543503
tab@@ 0.009870824309121042
they 0.0014968607143376847
ural 0.008468155544694942
versi@@ 0.00627309032686442
za@@ 0.03547818185407075
Δ 0.13439195525763456
Ба@@ 0.00822859907069146
ва 0.0022599138575214485
г@@ 0.0014621108283756573
ре@@ 0.0009469719298228705
ק 1
علی@@ 1
٥@@ 1
یم 0.28538339192476314
美 0.04134060834285613
Alt@@ 0.020366646822488486
District 0.005422611546598611
High@@ 0.011676581146799455
Jap@@ 0.007191308186022116
Roy@@ 0.02017178244631973
ague 0.006246152100623206
boy@@ 0.018879707870728103
car 0.0056189394399504865
chia 0.04640893985995367
condi@@ 0.009039312943868677
enh@@ 0.010337765272082104
fun@@ 0.005140306680647575
ities 0.006890464260391993
kir@@ 0.018286583437513434
kri@@ 0.012314654269913187
kur@@ 0.00592567122286599
lec@@ 0.015039366875288158
production 0.005346216851778783
sun@@ 0.022916019461538983
tas@@ 0.017677437741693423
tot@@ 0.012636434770274155
tres 0.0037214909843414543
tura 0.005922996287691497
zer 0.020149946997986813
ño 0.02035804504842082
Т@@ 0.00256270266159345
т@@ 0.0009314389420544811
я 0.0012166342099880676
ի@@ 1
چو@@ 0.27025593159357225
ܪ@@ 1
べ 1
日@@ 0.009335604104538917
金@@ 0.012058502975435125
Dé@@ 0.010319652385988334
Gö@@ 0.02029430652439184
Yor@@ 0.023400368830172238
administr@@ 0.004621460172006137
amer@@ 0.011751212758803555
aver@@ 0.0062220101381089245
aza 0.010299240111335142
capit@@ 0.010553554637033145
cro@@ 0.005899110261803621
culture 0.01067896211594134
eing 0.016126463740541084
force 0.009104575974543656
igi@@ 0.01964831640373702
imo 0.021507405669450627
indic@@ 0.009495380662085953
ku 0.04042993336132742
liber@@ 0.009652824479140993
lim 0.024157947002783176
onen 0.006304902563039243
peti@@ 0.006338857344672495
sou@@ 0.0029473743468524413
these 0.0035508144815436645
thu@@ 0.01827159943719455
tung 0.00475970980023549
tur 0.011819655450988313
xa 0.04541296677663002
Ü@@ 0.01616966399805609
ă 0.10142689232686951
Γ@@ 0.02070178009224638
ζ@@ 0.011057739902865576
б@@ 0.0014540168679747965
دید 0.9275659680278497
گا 0.19931921113325718
ܘ@@ 1
ი@@ 0.38778594571096686
オ@@ 1
ジ@@ 1
ッ@@ 1
也 0.005270385385093408
佐@@ 0.11679652951639356
東@@ 0.014889323823162243
Academ@@ 0.025936508739532346
Boston 0.014704476751374368
Chile 0.017020811742959087
KK 0.10465806205180118
Lan@@ 0.01636990319822098
Premi@@ 0.011739480303229112
Was@@ 0.04355688923544117
Yah@@ 0.05842595028487634
aden 0.011664679974831407
ances 0.0049681509923707665
area 0.0030192511674186234
associ@@ 0.0071796810434804886
aume 0.014509892164336303
dies 0.010121046754038803
eto 0.010995982347765772
high 0.003944895162868883
ht 0.016760701143702567
ily 0.006206668179263333
inden 0.015449172528170766
kno@@ 0.010409763803629382
lies 0.008092579148227814
nt 0.00964844406746726
offici@@ 0.003810026746219052
ographi@@ 0.01370283328910043
organ@@ 0.008979558882815503
plac@@ 0.004055964621084606
speci@@ 0.0065136691700641985
tec@@ 0.017773610835955245
tif@@ 0.00877545913122117
tribut@@ 0.010936545051984915
ulu 0.03157071359898116
voc@@ 0.006335480875920626
within 0.004723863985341314
ya@@ 0.09082121041578978
zaman 0.09465875408097589
zon 0.0599164245627826
çal@@ 0.06437018562198281
ès 0.004930723579768942
ég@@ 0.004661528177742741
ː@@ 0.616960532816037
Β@@ 0.012132358824226468
ώ@@ 0.015199415485945262
Г@@ 0.002186910228070363
з@@ 0.0012832997263473773
ь 0.0022244223687573716
عی@@ 0.29088805401326406
் 0.3238562298426861
ἐ@@ 0.6113455181656531
™ 1
∆ 1
∞ 0.6261622961048464
⟩ 1
が@@ 1
ク@@ 1
一@@ 0.0019617826079728357
Cant@@ 0.031217150589189818
Champi@@ 0.006857844319949346
Colomb@@ 0.0215587881978465
Hosp@@ 0.014269087035590836
Kamp@@ 0.020725113891297817
Kö@@ 0.011002663748751524
Mex@@ 0.013530446289848667
President 0.0075189021787595445
Profes@@ 0.017655181592910536
Schw@@ 0.010431811362679467
aha 0.03184563839990353
aise 0.011979415176124887
alc@@ 0.061084624415973274
band@@ 0.014206176679910676
ble@@ 0.012971853852507275
bran@@ 0.009353649760210924
clo@@ 0.006648348163471926
cus@@ 0.007869862626642236
ded 0.004853559592694937
ei@@ 0.00773271519272698
endo 0.004324425362647744
ener@@ 0.01763917083993282
fall 0.008771856420218315
final 0.0033176704801323852
fs 0.011524948685500653
gang 0.009369367932448166
ierra 0.020669702374969172
ilit@@ 0.014533438475217918
ises 0.007539036012006387
issu@@ 0.004502702088334422
lag@@ 0.010091029286282922
lu 0.025035770947585582
ought 0.003879908737847571
quit@@ 0.007894306636164642
star@@ 0.004085748758515282
ät@@ 0.00469738714672072
ém@@ 0.006272601588049949
üt@@ 0.007836447778887923
š 0.04673787081168625
ή 0.005201632245825183
ης 0.009367369373508268
σι@@ 0.018383198113438675
Бе@@ 0.008708641681910248
ко@@ 0.001082701472755256
ц@@ 0.0026398944247356666
ائی@@ 0.14975869370158545
نگ 0.1343087490114736
ܢ@@ 1
⟨ 1
・ 0.21950614674059038
海@@ 0.006776706863268924
Grande 0.019056205758999658
Jug@@ 0.014667321919024373
Riv@@ 0.03909523200252932
Sult@@ 0.03871657245119181
abor@@ 0.004021389555801093
ahl@@ 0.007518773887966681
apa 0.01701165669247156
apar@@ 0.006576654600232615
ayan 0.02610739599175713
chester 0.010936177002869358
contin@@ 0.006420988240301751
development 0.006295940207310775
enburg 0.01698577530256755
fes@@ 0.006290266599860207
forman@@ 0.04658765523513106
gres@@ 0.008395257202775546
grup@@ 0.013231228321891254
indi@@ 0.006381357747767037
inning 0.005035375141464428
integr@@ 0.010675125242397531
international 0.00560329037668787
isation 0.007298645052406758
its@@ 0.013393755567957156
kw@@ 0.02467116663829242
lead@@ 0.0032557472977283995
level 0.006831014043724978
oti@@ 0.009339930368530569
present@@ 0.004164390951132882
real 0.009748938727188157
resp@@ 0.005996319656840428
resul@@ 0.004002276988548645
semb@@ 0.006336301507559025
temp@@ 0.005358580551485683
uel@@ 0.021695882967960607
utz@@ 0.004651018087355972
vat@@ 0.025556844972965967
äl@@ 0.0041945381041924735
ça 0.024063657349367298
ń@@ 0.03508991953832966
Ž@@ 0.058009426176835285
όν 0.05287993374870067
М@@ 0.0023358729717994557
г 0.001811763374139626
ש 1
سک@@ 0.22338870893699975
ざ@@ 1
マ@@ 1
ル@@ 1
ン 0.3193082860426462
島@@ 0.06668555219981534
雄 0.06883067412258367
After 0.0023755583931998007
At 0.0034907136863645003
Carr@@ 0.021733581829372503
En 0.0007131392757999439
Gel@@ 0.011869284512265984
Gem@@ 0.018009806403581272
Hau@@ 0.0183577671248401
Provin@@ 0.0065413640719408726
Sain@@ 0.01539361115874052
XV@@ 0.03020886591767258
adel@@ 0.010951545731597455
atz 0.009977586565213376
cial 0.0045698873204771204
city 0.0030748600152768544
exten@@ 0.0074773226856937255
head@@ 0.006279297006427874
heim 0.011494194233134702
quel@@ 0.024808724171860256
red@@ 0.014677238424558247
school 0.0028397982821669007
schule 0.010106211620404227
species 0.004112403999314558
sta@@ 0.01019740770098226
uru 0.04521507787112292
women 0.005062417162325756
ê 0.01833281750068181
ío 0.01202600139514265
î 0.04602187475936247
ón@@ 0.008695113867417628
λε@@ 0.02029361350717367
ρα@@ 0.014193344005476723
Д@@ 0.0018356617952157803
Ми@@ 0.007478732195034756
П@@ 0.0022149417218423097
ч@@ 0.001159617777971028
٨@@ 1
٩ 1
پان@@ 1
کت@@ 0.7684674267879799
ۚ 1
ܬ@@ 1
ⵜ@@ 1
福@@ 0.019168006202470167
谷@@ 0.15115603875188638
auer 0.009616924840011384
auto@@ 0.01391407052765614
cole 0.011089098386484293
cum@@ 0.016941217204856328
docum@@ 0.005767176451505888
enci@@ 0.006020833269473309
gether 0.006210898413288416
hio 0.22433705661434206
hiz@@ 0.043800089621768616
ici 0.026194505244372893
irk 0.016407683886845575
known 0.001890510141819495
mari@@ 0.01182862239239146
modi@@ 0.01063749571389238
mur@@ 0.0072729448572626055
mé@@ 0.0033009205638798076
oir 0.0105351059922524
open@@ 0.0097978542163452
por 0.0005870471054386237
pre 0.007496710532335177
prob@@ 0.0048926858632599365
rock 0.007719559313071077
scor@@ 0.0038772621836761184
tico 0.004741543768433123
undo 0.059977107622599606
unga 0.08399607892505445
vy@@ 0.1406079314268388
west 0.004074418515244267
what 0.005114864156445354
ß 0.005595142570835446
été 0.0016931673373899263
αι@@ 0.015075568309596483
а 0.0014475022702539998
евич 0.011407310227912233
افغ@@ 1
٭ 1
کار@@ 0.1030132303888707
ید 0.5571629047474977
ῖ@@ 0.8936847499147889
∙ 1
國@@ 0.006564828571433363
崎@@ 0.23563306197669565
� 1
Ba 0.04290052655748519
Bib@@ 0.014142133385775493
Indonesia 0.03020875316394508
Las 0.0053155158550317605
Vor@@ 0.002420460569609348
Yıl@@ 0.11088892069774411
aten 0.0038437756909580527
develop@@ 0.004610442390895805
ember 0.022635429268956172
eye 0.02464522978749474
iden 0.00905566877746361
km@@ 0.010211249731074077
kun@@ 0.011424152090931353
led 0.0022119129069029957
liche 0.0023354528678889504
lik@@ 0.005626360492818545
nam 0.010383550655534328
nat@@ 0.011599536036074875
natur@@ 0.007464026102896835
nie 0.016870020000981756
once 0.00535361706460502
oro 0.01610966789205395
para 0.000973118452722808
rad@@ 0.017481259856197508
raz@@ 0.01931785049296879
ref@@ 0.005264942506788415
rif@@ 0.006850469779915672
rol 0.03689254554387739
sign@@ 0.0076474736346960415
station 0.003053647363364403
suff@@ 0.005976275267511939
tag@@ 0.012969119998116103
tes@@ 0.014105917402360356
tit@@ 0.005813223332094659
tribu@@ 0.013531659320209471
tés 0.017557475923533267
uda 0.02502341704545554
zone 0.011369537762260249
­ 0.0492594266238771
ühr@@ 0.012343444128397498
üm@@ 0.011247158421319604
ħ@@ 0.8940677834149037
ερ@@ 0.010137643170108514
μα 0.013940194735862069
ών 0.007455201180933234
Р@@ 0.0030240516560217034
جھ@@ 0.2628024852812659
غیر 0.1908674029315497
پر 0.01166415455591354
گو 0.5108278021696345
∪ 1
☆ 0.8572814524336108
シ@@ 1
ト@@ 1
ラ@@ 0.9095522313838925
口@@ 0.045247883288677966
林@@ 0.01529430658838098
동@@ 1
Institut 0.017295832725564658
Nach@@ 0.004445672072404127
Ng@@ 0.012055532459584085
They 0.0029473945460865105
aces 0.009613202299037227
adu@@ 0.019130879475398602
alla 0.010324874163617931
ament 0.0072967534987273385
aster@@ 0.013335536972196358
chang@@ 0.003665732595117669
construc@@ 0.008323847872830773
grou@@ 0.0053419171155328765
incre@@ 0.004357233745947211
isches 0.01473665809307862
iste 0.004226666842273945
jum@@ 0.021256896433250693
leng@@ 0.007113855935626659
ling@@ 0.016591745449248636
mam@@ 0.031780674177334
member 0.00333889858184719
nas@@ 0.023632341367824484
neu@@ 0.007323794123687745
population 0.002674962912916697
radio 0.007299182691967972
three 0.0016795190299560526
tific@@ 0.014812911570849683
tran@@ 0.010114020075142553
universit@@ 0.005914929632485026
érie 0.02899808805533053
ú 0.009047933953134529
ün@@ 0.0037219096982264634
ū 0.03464970947468541
ə 0.29659180776572847
αμ@@ 0.02919890363719759
ψ@@ 0.021002959745029467
ный 0.0011991115724380322
сь@@ 0.027275229764162846
ס 1
ادی@@ 0.46146703580437165
اگ@@ 0.25324563447424303
٤@@ 1
ٲ@@ 1
ば@@ 1
대@@ 1
Argent@@ 0.019036075839356868
Baş@@ 0.06668586711913792
Groß@@ 0.008618555537546266
Sport@@ 0.013138031680911164
Stadi@@ 0.012068729825376608
anos 0.006169050001364247
aç@@ 0.012225659743993868
blan@@ 0.008898616441465333
bun@@ 0.00882089822596811
caus@@ 0.004608514048629404
conduc@@ 0.006842406728123092
eshi 0.10214906734471342
fir@@ 0.00420520223164853
gan@@ 0.0053227134746059715
hii 0.12512616515536207
inen 0.009626317927702998
japon@@ 0.016529600092677
mah@@ 0.039708020410162984
metal 0.014480033597280225
oca 0.024102512521971934
ool 0.08093651290014109
princip@@ 0.0051246144498740525
rier 0.012635182633838674
teur 0.003182389023550532
tut@@ 0.01004130986361363
uss 0.008265686809239862
vec@@ 0.01780913797206587
zur 0.0018389439618621323
ɛ@@ 0.6209528110273902
αγ@@ 0.013554815387411366
λι@@ 0.013489770615369498
л 0.0005955092175765718
ли@@ 0.000792335997761958
ни@@ 0.0007931792093786952
х@@ 0.0016799865263795147
յ@@ 1
حک@@ 0.5439050384708897
٦ 1
پا 0.6823927329628179
پی@@ 0.04383558930617455
ܡ@@ 1
რ@@ 0.46301481343998874
ⵔ@@ 1
せ@@ 1
北@@ 0.006064768300286946
新@@ 0.005938910953631821
武@@ 0.015334798047988108
Argentina 0.011955171485463812
Politi@@ 0.008928154794774412
Prof@@ 0.01914138888651994
Son 0.007117490798049864
Spi@@ 0.004701249107395665
Su 0.006088479308819988
Town 0.01214040292261552
ations@@ 0.008564882014485319
aup@@ 0.027748424246806225
ause 0.010483948479470876
ağ@@ 0.012761250291442641
ball@@ 0.007254933296744036
building 0.0037174523577157537
cab@@ 0.005222421668498748
carri@@ 0.006863336895594488
cou@@ 0.004091293990692897
country 0.004672191704015734
dorf 0.008633709627039752
ebe 0.023643389156196064
election 0.004101072020904584
eler 0.00529186878606925
ers@@ 0.01394556521432347
feld 0.010576045508880921
ically 0.005691919927584505
ife 0.005437195588720992
ischen 0.0007663746943981977
jun@@ 0.023742905630612744
late 0.00452489513878043
lic@@ 0.00593218947384242
lieb 0.13190760581073172
next 0.005395680783784034
perior 0.01573343257646494
program 0.0064820861159294784
regi@@ 0.0046839050472678055
separ@@ 0.0058159218902204945
stadt 0.006686013644934458
town 0.0030113558872756144
unter@@ 0.001969505070765072
urg@@ 0.009903627564505125
vas@@ 0.016086543749271105
would 0.0013850971870714346
Öz@@ 0.04688022669863152
ères 0.003580354292116227
öh@@ 0.005465192034601052
Ο@@ 0.01583823420138952
άν@@ 0.007936661842741867
ελ@@ 0.014555028138603404
ικ@@ 0.010301523805364084
ξ@@ 0.015376830868495846
το@@ 0.011359260039594261
е 0.00048221067372884984
э 0.01887258236092129
خی@@ 0.28485713171836874
دین 0.29413143907009665
ি@@ 1
え 1
カ@@ 1
彦 0.7242956376771464
明@@ 0.012524349719915874
橋@@ 0.18815089592084347
水@@ 0.009892504184439318
Fak@@ 0.02158454169227657
Hak@@ 0.03841536965717478
His 0.0027725212360924533
Hung@@ 0.012683873685356131
Institu@@ 0.01433404009791461
acht 0.004042756489415362
ahr@@ 0.006346684968373221
base 0.004813948072985436
bis@@ 0.02072448369194941
classi@@ 0.007652209413425243
cour@@ 0.00313512702918969
during 0.0014216512479092412
echo 0.01921775850510823
ende 0.002749478613104172
endi 0.037049239257646416
eux 0.005108615816579619
eza 0.010475126265418008
frag@@ 0.012165374468689776
inin 0.012071687260599926
ional 0.007488082767154808
isis 0.012562860686348903
isten 0.004213560922884239
jur@@ 0.005717958701497226
lara 0.015030097458743256
leb@@ 0.007893406991745499
organiz@@ 0.002939992172405945
record 0.004288997972314009
respon@@ 0.004241392262114252
say@@ 0.005831480697285519
sein 0.0028509881836611176
soft 0.047475467078828604
tad@@ 0.009888225455395241
tag 0.013868699187354271
techni@@ 0.008455233927531372
teilung 0.014096451788301526
third 0.0038685793861863607
total 0.003266634484220658
wak@@ 0.018045046714138372
zial@@ 0.01163238641479233
ǎ@@ 0.3493018682778103
ː 0.3441168360010418
ί 0.016345331013052695
ει@@ 0.012024703781305922
κα@@ 0.009616987187614306
τ 0.01488026507950744
της 0.0016267080307539013
е@@ 0.0011885648749377664
ри@@ 0.0008789746278166567
گور@@ 0.33911722827329255
ۡ 1
ὐ@@ 0.9024865007728594
≠ 1
に@@ 1
タ@@ 1
健@@ 0.07180793195773684
吉@@ 0.01928922627141484
由@@ 0.01717375914387097
英@@ 0.007198935782105307
3. 0.011809067306110832
Lig@@ 0.01045597267256549
Milli@@ 0.009122600025497663
Pf@@ 0.006210369164689132
Stra@@ 0.011739776604436319
acio 0.013850156570482719
ados 0.0013488583003648331
aines 0.008990064757056118
ansas 0.011162340263081423
bek@@ 0.005754012493206167
bour@@ 0.007296358158828266
chap@@ 0.007114953253333276
drei 0.004365453484945255
eil@@ 0.006708191591690634
entos 0.003887728337750006
envir@@ 0.007134064799054179
fin 0.004193394083826228
ging 0.006086313602047
ident@@ 0.014162876165628264
inga 0.04582968625686648
jug@@ 0.005429628577957977
limit@@ 0.005689113104859387
major 0.003740204927912753
mont@@ 0.013749497589897335
pis@@ 0.007847876603315068
plant@@ 0.008813137686810895
political 0.005174412103728377
prec@@ 0.0088494959638737
prov@@ 0.004685998932333932
region 0.005412093116760445
same 0.0024113276378899665
sav@@ 0.009139622487457663
social 0.004947147170558823
there 0.0017933890223711464
ungen 0.0010266461313824925
video 0.005022013067058817
who@@ 0.004988659967098525
xu@@ 0.11318210435501645
ви@@ 0.0009471648194141702
ка@@ 0.0008811566326728283
ла 0.0008299702861110009
ף 1
ادی 0.3352249817046222
یات 0.2756823064573795
ব@@ 1
ὁ 1
ⵓ@@ 1
ち@@ 1
ゅ@@ 1
フ@@ 1
之 0.008411394290719043
사@@ 1
️ 1
.S. 0.04042722917439732
Arbeit@@ 0.007066973871007957
Gün@@ 0.033189991613537806
Olympi@@ 0.009711530573413753
Ost@@ 0.011565774095898412
Shu@@ 0.0399041019801644
Wak@@ 0.042933388154434336
Wasser@@ 0.011198044909694786
athol@@ 0.00413176719023203
atia 0.030414811480621116
autom@@ 0.006696266653118039
cription 0.004896166061163601
emple 0.01958787630202097
ensa 0.01367837019401763
etti@@ 0.026793715144929193
featur@@ 0.003130290064790652
figur@@ 0.009886559674994962
fort 0.00524348374786378
front 0.006569233547597347
fut@@ 0.005643310475014082
iff 0.011597009683779233
industri@@ 0.006950949179293205
isto 0.036159112351856426
ition 0.005412662199719985
jan@@ 0.017144095587528427
kap@@ 0.012543343813867722
loss 0.004560693400697669
lung 0.004490304435818294
main@@ 0.004448315192369759
mom@@ 0.008959666979089795
oku@@ 0.09206657481732292
ort@@ 0.007684412575642445
oğlu 0.05196236704025377
requ@@ 0.005734629456703869
sie 0.0010162625474797109
spi@@ 0.002380276391959996
studi@@ 0.004057741892251611
toral 0.009662947072009057
tru@@ 0.00658430224279118
uli 0.04619970807403868
years 0.0012625994927695095
Öster@@ 0.01222086210317388
æ 0.1724682688801513
û@@ 0.00682173398658613
ý 0.014151383611443719
ƒ 1
έρ@@ 0.013508163379558166
τα 0.0042282499159405264
ων 0.005726252438039587
д 0.0012985517559725584
и@@ 0.0010547664736943847
կ@@ 1
ֲ@@ 1
ایا 0.24084449398687693
بھ@@ 0.08084627407788857
史 0.025363020988194332
山 0.007802343565503257
李@@ 0.013340970433977618
神@@ 0.016096018886841874
Angeles 0.007447737941187866
Historia 0.01056782271117184
Ital@@ 0.006378707832849797
National@@ 0.006945513767395164
Sah@@ 0.02591036987083634
Wir@@ 0.010632548615100032
alle@@ 0.014808907499830852
amu 0.06527538057247051
asser 0.011744941226572268
bas 0.01799367723948614
bol 0.011719180671526623
children 0.0036648784832678774
commer@@ 0.004874186292161086
company 0.0028839735142155262
dam 0.009716979748808231
days 0.005078853829225363
dir 0.0062271823318238596
dows 0.03240413830865554
due 0.0029401740180912345
elles 0.0030124346149968005
elt@@ 0.009040743110034645
embr@@ 0.018405907453079313
emen 0.01169278022438475
former 0.0024808562642142746
haus@@ 0.009033920047402057
high@@ 0.003822689510124194
idad 0.0016487080480430357
kle@@ 0.004979946441330591
lek@@ 0.01405949560978205
liz@@ 0.01621287138433328
lug@@ 0.013451525365632024
mé 0.020835557272789816
onde 0.0077030549876402395
sed 0.004165790524913637
sexu@@ 0.006593357356355239
single 0.0029083954623441177
such 0.0014509851926190974
tei 0.010593523797524509
them 0.001906751872693033
titu@@ 0.005240105887139821
transfer@@ 0.008973181371018258
zen@@ 0.014975506273007628
zu 0.0005353838621213617
ç 0.012163532765567116
ù 0.024965714423733854
Š@@ 0.021720508676396254
о 0.0011903235774761208
ћ 0.614099981237766
سید 0.2273657369980656
لی 0.05132468267042353
کا@@ 0.2705719997936503
کن@@ 0.13665083210817366
ܐ@@ 1
ަ@@ 1
ი 0.4027003267237873
♦ 1
ア@@ 0.9254746196118444
ニ@@ 1
二 0.034629672302897756
平@@ 0.007478741250395876
森@@ 0.04264029720469887
Auf@@ 0.0021761438405941834
Bang@@ 0.01205382677535534
Bez@@ 0.00538773572541721
Film@@ 0.011650993242449156
Her 0.006481615588475677
Philipp@@ 0.010973530142471617
Tek@@ 0.047258390366323184
ained 0.002989840129461001
anza 0.011049776724933676
benz@@ 0.043447063259365704
bez@@ 0.00855211722045731
brach@@ 0.01371902055474618
ched 0.004264006381467051
ción 0.0013992498385993156
court 0.005440881759425018
dar 0.009960035134691018
edi 0.02670585378538635
ending 0.005101480579219038
enst@@ 0.008789330114172648
ered 0.0023738130387512173
esses 0.006025744167990703
isl@@ 0.005325031695996385
isme 0.006490334415601987
kad@@ 0.01584984451388955
kol@@ 0.015100016703989584
kum@@ 0.022397772091591134
langu@@ 0.015541944992877614
lé@@ 0.007092316178364308
maj@@ 0.005516843693726889
mig@@ 0.005179928356484393
nos 0.01078683432232104
née 0.009487616012706708
oci@@ 0.007711345582650022
published 0.0031434583118663175
reduc@@ 0.0073960541978146
sburg 0.010977852958915282
song 0.002731110389260931
strum@@ 0.023892560144177753
suc@@ 0.005231291796001248
tou@@ 0.004526653649409354
tras@@ 0.010275531550638307
typ@@ 0.004458362711536433
unda 0.007865573714784153
zon@@ 0.021457929912374895
Ø@@ 0.09682161894189457
ð 0.22214224827188614
ας 0.007920101885466237
Н@@ 0.002630468925158021
Ф@@ 0.002292612516466027
Х@@ 0.0034721770786650826
ан@@ 0.0013688400215178848
го@@ 0.0009734747294060874
ј@@ 0.3834146069890096
آئ@@ 0.17563853440263458
رین 0.1699621180206069
می 0.06260898245818519
مین 0.28066786507469194
٦@@ 1
٧@@ 1
چل@@ 0.3939510369340108
یع@@ 1
ℓ 1
介 0.07126539515196882
伊@@ 0.01137949807488161
安@@ 0.006360392053398023
宮@@ 0.09226770425947728
島 0.01941121779116043
民@@ 0.005134713463793083
渡@@ 0.11205619686409347
김@@ 1
Amér@@ 0.013762328427930952
Deutschland 0.006227118155728372
Ere@@ 0.020812441127020066
Schwe@@ 0.0068375392168323265
Sin 0.00945531013713541
agre@@ 0.005193467965693228
alian 0.007042610964331224
alit@@ 0.007506976114725941
bab@@ 0.01857047264770643
before 0.0017337499443527567
categ@@ 0.007492422404035631
course 0.006564032653175563
cut 0.007628285410415038
design 0.005585578953685351
dil@@ 0.017342529321951856
eas 0.004170657224092719
estig@@ 0.018193058884889302
europ@@ 0.0099923614482691
fore 0.0066674133135358376
gaz@@ 0.034163323885061665
gli@@ 0.012630894085723769
gun 0.01308588380791769
hips 0.0031125209911563754
ilde 0.04056834459425377
ismo 0.006031924695316667
ismus 0.012627676730181512
lie@@ 0.003575443978709316
local 0.002544404389745234
mis 0.008021296574696635
pend@@ 0.006865374906491722
phi 0.0455937141865776
philos@@ 0.008650004336437951
points 0.004042126175371139
qua 0.010707199241316336
run 0.005020931870462817
schi@@ 0.005404638994496965
ses@@ 0.005884119346173254
since 0.0023321502137732563
terior 0.009020335021528204
til 0.00866264360742081
vern@@ 0.015011757413475811
vet@@ 0.015134866783147332
µ@@ 0.09837223276411543
Æ@@ 0.10525375179231021
ß@@ 0.0025866260692475425
àn 0.015040497517744913
ě@@ 0.03152177764520134
Ō@@ 0.046133587771753845
œ@@ 0.007245416977984791
Θ@@ 0.035384658825020364
Л@@ 0.0025937543899111366
п@@ 0.0010865060448173533
са@@ 0.001542330482779773
я@@ 0.0009761049089904742
بطور 0.468598760016677
تھ@@ 0.06858578802715289
نیا 0.2445209619408394
کتاب 0.16138987379110517
کر 0.02085153190081098
ۆ@@ 1
ܒ@@ 1
ল@@ 1
⁄ 1
て@@ 1
で@@ 1
内@@ 0.014133166170032834
南@@ 0.004564075606695868
夫 0.010785153756422843
田 0.028146934936099714
長@@ 0.613860373924494
한@@ 1
Eis@@ 0.019034590132000116
Italia 0.01713468850172739
Madrid 0.008189910566115313
Papa 0.0631057658941365
Schul@@ 0.00717731471549772
She 0.0013987514950094127
These 0.00417244237012282
abu 0.062066050623638395
agne 0.0033735963305709304
atur 0.009608683346246804
auc@@ 0.010232900995898206
azi 0.012486261936284703
bah@@ 0.007342347427688736
bay 0.010200480341478012
bed 0.00869921166366977
being 0.0015018629810279111
bom@@ 0.01139590390617299
clu@@ 0.0037115764175924505
compar@@ 0.004972957906614556
continu@@ 0.003816583917487119
dad 0.008961509356508687
determin@@ 0.008221109530637725
dér@@ 0.010859854817897445
endi@@ 0.007352700762856425
eurs 0.003549643711615108
fici@@ 0.007828692802673435
fund@@ 0.0031352588241894508
hak@@ 0.0357965660108228
ichte 0.008748743485024892
igen 0.0013865461068248094
iku@@ 0.11971759704129768
inform@@ 0.005549878000098482
isse 0.004085511228652484
iwa 0.08382768950563525
million 0.0033174601998400867
nen 0.0033233653220000638
omin@@ 0.02428392271789029
pas 0.0018591676163654028
pen 0.0074655645609661685
some@@ 0.003950553788601801
straße 0.007438028932933066
tent 0.01134514732137614
tig 0.008472236589755372
tiz@@ 0.007766852601232373
uba 0.013312443912009985
unge 0.018830060488232235
wi 0.06587900222158825
éo 0.013123529895304496
ük@@ 0.022324941820705126
ý@@ 0.060737240537239404
Č@@ 0.02890791059156965
ę@@ 0.026056620281672965
ř@@ 0.02063518098353803
ǔ 0.6956855739625961
Γ 0.07597905121483817
αρ@@ 0.0076211185609290485
οχ@@ 0.03518832555182793
ού@@ 0.01026587094519759
υ 0.06445431780741964
Ко@@ 0.002151535761974541
ва@@ 0.0007635289587790537
да@@ 0.001041317392946634
де@@ 0.0007728342371330437
за@@ 0.0005479850228679921
ле@@ 0.0006750701527306395
м 0.00043714690140458245
ор@@ 0.0022163643166236272
ра 0.0012252879801371277
ח 1
پور 0.1488777602092232
کث@@ 0.5416331346578898
کلا@@ 0.2905076680695764
ल@@ 0.011418509045351619
ე@@ 0.31378383775738133
ῦ@@ 1
₹ 0.43384966850064755
ⵏ 1
ⵏ@@ 1
る@@ 1
ャ@@ 1
ロ@@ 1
下@@ 0.008216840028403515
会@@ 0.01600432695223336
国@@ 0.005217825346314568
岡@@ 0.1185946196244114
江@@ 0.012914854561857227
清@@ 0.012021607167262789
部@@ 0.008681346285731275
Hoch@@ 0.0058438111630396625
Mün@@ 0.005727053105771367
Von 0.003924918735928292
Yer@@ 0.04870986657299038
alifor@@ 0.030167420310927062
angel@@ 0.007833139178947734
appe@@ 0.004366481025386915
azu 0.008804804586652695
bre 0.0039876329701877865
compl@@ 0.00373939235821725
eles 0.01325131614137571
ennes 0.006020195591654951
famili@@ 0.0039701385008424454
française 0.007665697808208737
haus 0.009738481095312931
hen 0.01182245974466318
histor@@ 0.005383904067106173
irat@@ 0.03188883644691375
kt@@ 0.0114415047306511
lich 0.0007387915749735852
lieg@@ 0.006528227417751343
lı 0.010074871534237518
mill@@ 0.015890648720491913
minut@@ 0.006589106764442943
nak@@ 0.03501782471299963
nung 0.0034443286698180964
onto 0.006202511857793366
polic@@ 0.0074877872669640464
ported 0.0032765669756736732
prac@@ 0.004208919473492735
pro 0.010139370909838505
prom@@ 0.0020053442832135213
rece@@ 0.006224219445735322
reib@@ 0.006388771329690453
sir@@ 0.01672772908059297
tains 0.005274185847626391
tempor@@ 0.006885842290301639
traf@@ 0.008919015940582897
té 0.0027036139551471217
umbo 0.07107331154809085
yal 0.012580913524338476
yu 0.030689388909406635
Å@@ 0.060379996309616844
év@@ 0.003131197570251882
ɔ@@ 0.5189737187680186
άλ@@ 0.015090464374549726
τα@@ 0.009163592478952327
ψ 0.6872315893856312
З@@ 0.002674974431468625
до@@ 0.000648196253907054
но@@ 0.0006034721750438177
по@@ 0.0004100295789825055
ъ@@ 0.008339577865248934
الدین 0.1769111022180833
تین 0.15245577376624495
ۃ 0.229788984747103
្ 1
ト 0.45997497879750093
中国@@ 0.021252945080426407
文@@ 0.0048146714649622765
明 0.00935998416976612
智@@ 0.046489866367715
樹 0.11393568610775602
男 0.05579310065970777
輔 0.3186898703950126
鈴@@ 0.3182707922629929
￼ 1
4. 0.010599259209355536
Europ@@ 0.005975320515809484
Geb@@ 0.007185244513570827
Inn@@ 0.008365135811572284
König@@ 0.007246482913824281
Nam 0.006939998344150566
Unter@@ 0.0025157334320810693
XVIII 0.019506817659408943
acu@@ 0.010918807786278609
against 0.0014764119179632215
alled 0.010510125340546421
amar@@ 0.016221593128808044
anya 0.027365351886985002
assen 0.007686880876613527
bau 0.005901028750106755
both 0.0016132064970225395
capac@@ 0.005888656423522764
capital 0.005093266289474735
eil 0.010361926765462718
erc@@ 0.009619602358336329
ests 0.004601099525979528
fam@@ 0.005624651782985779
fen@@ 0.008771898568433412
gal 0.010212786633802332
half 0.003946654740816801
hiv@@ 0.07691368553080763
hr 0.007631747677454308
ible 0.004779436250021015
icht@@ 0.007656209433024203
idence 0.005716283403386901
influ@@ 0.0029512230207207365
inos 0.006740586779057361
kab@@ 0.020179078859517266
model@@ 0.005942657179036509
nant 0.009856431836351267
oka 0.03502880557793896
pad@@ 0.01893160032435141
pf@@ 0.004223931424935857
quot@@ 0.012417366782890267
schrift 0.011541550665345377
services 0.004369057381084944
stand 0.002688294016375562
support 0.0036235702176669023
sus@@ 0.003323150596655239
tee 0.033832939785138766
tesi 0.09054278624729835
tradi@@ 0.0024079775036025216
weg@@ 0.004676078748483726
wes@@ 0.003508251311473677
yen@@ 0.008881666945326196
º 0.01513227809466393
Î@@ 0.029567471109644007
äd@@ 0.005426922621622271
ë 0.03847073529695855
άκ@@ 0.019925483512814673
δι@@ 0.0059706582618812894
ευ@@ 0.007926688387391995
ου@@ 0.006748453436983439
ж@@ 0.0007041963083029879
на@@ 0.0005146721390258074
не@@ 0.0005020609680768339
ы 0.000724031624290651
ץ 1
تاریخ 0.15316364656251802
طی@@ 0.3624279311101443
فری@@ 0.27103306152584705
لیم 0.3715426326775313
کور@@ 0.24159578128261064
व@@ 0.009528723162228494
ু@@ 1
ょ@@ 1
ス 0.33883624157347714
久@@ 0.11735349511863437
四@@ 0.005978185686525182
有@@ 0.004461352226343399
直@@ 0.009072952939800063
青@@ 0.014275654314456604
국 1
서@@ 1
5. 0.011090702446026167
6. 0.01169039587576027
BK 0.0663312669419255
However 0.0023545155406661305
Region 0.006586270461450765
Sü@@ 0.005403884249107108
Uz@@ 0.0344566133937897
ambo 0.05961515754995717
ater@@ 0.011303623951125542
bay@@ 0.01735932275737642
bli@@ 0.006923013592777632
chu@@ 0.02347288269154694
conf@@ 0.003745461606599792
cu 0.03553591334326003
culp@@ 0.007636458867812151
death 0.0029065311859993006
det 0.00375415881879225
deutsche 0.009351513298325979
differ@@ 0.007461565344442977
early 0.0018765573732680632
eki 0.04088379841591621
este 0.0018472765883244743
estra 0.006282958042010929
feder@@ 0.004660933201709477
given 0.0037241911232678516
hid@@ 0.013227065797034948
ina@@ 0.05236335648831752
inde 0.005655766290279285
independ@@ 0.0044855013159705096
irs 0.006257132763393292
kes@@ 0.017565859830874945
kho@@ 0.02617132743268483
lik 0.015209092881477478
nig 0.009143863257640108
omen 0.0611236864418432
partic@@ 0.0032073597233047745
province 0.005989856995318208
quali@@ 0.005226346863779122
reich@@ 0.003139566320920254
stanbul 0.03471839945424514
television 0.004319008097380822
thi 0.015355357079433647
track 0.0042788983064987384
wie 0.0018182298669128787
z. 0.01063902548006733
àng 0.014949088553260626
å 0.08688405388590473
üh@@ 0.002572312623435634
ą@@ 0.03512466641471815
εν@@ 0.0054088484989158235
μα@@ 0.017639485244408167
ο 0.0014304401339350608
οι 0.0038879039148077125
τι@@ 0.0086977538310395
ма@@ 0.0008912691202971374
та@@ 0.0009315902875452951
տ@@ 1
ג 1
شیخ 0.24357083960794956
نمائ@@ 1
ڨ 1
म@@ 0.008189226006197184
र 0.0055594230350666865
ლ@@ 0.34014003098146656
坂@@ 0.2842130846017104
大 0.004183580565766372
志 0.02582556634294448
永@@ 0.021887942907291433
義@@ 0.01757127847553743
삼@@ 1
🏣 1
Grund@@ 0.005620244101152289
Kay@@ 0.032927001756866796
Krieg@@ 0.006333598144425637
Landes@@ 0.007463270522895606
Parti 0.01444361190334784
Pub@@ 0.02885857996657399
Rep@@ 0.02939850370805896
Stad@@ 0.01691323368133829
Viet@@ 0.009531937654120765
ainst 0.049936162926153486
aires 0.002393083383134963
anes 0.0123872754555307
bak@@ 0.014727804497233057
cad@@ 0.005312427623627239
century 0.0021450904839308248
combin@@ 0.0048101780800110525
dial 0.010731780294106284
division 0.00431518245530543
erk@@ 0.005683754460207236
evi@@ 0.022079492564379823
eño 0.007435463153638756
forc@@ 0.004231806361660934
geh@@ 0.0025676586019218006
gian 0.0077806244678306
ism@@ 0.01294888634897471
iç@@ 0.02213519038581997
kam@@ 0.016108406427303778
kio 0.0371917159730505
mec@@ 0.022154656794386222
national@@ 0.0052976403486898515
odes 0.006948277521260859
ogo 0.02527269835934482
oles 0.007485685754290535
ono 0.024254412298838894
onship 0.004435469588754344
ording 0.003985911416449483
oren 0.004793555319592887
party 0.004021226380065193
pay@@ 0.0066870123387906205
pays 0.005152823684675929
period 0.003348413736930078
plan 0.004314292473011155
present 0.0033633053389947112
probl@@ 0.004109125622863697
rant 0.008020948728504522
rod@@ 0.023151198205560813
season 0.0010071800762917757
sociation 0.008631430061953937
temper@@ 0.00717718279209494
tir@@ 0.004929482689998491
uka 0.0376410615983796
univers@@ 0.011245559845664423
usal@@ 0.014963435071445359
versit@@ 0.018319870478444418
ween 0.01247546529500654
without 0.004054167859527007
yak@@ 0.01713916249199935
yas@@ 0.015243831533237533
zer@@ 0.010728635075633286
zin@@ 0.01219881157582342
ème 0.0040840906818506335
éd@@ 0.004797049429265949
ín@@ 0.006275005707599154
ț@@ 0.04070212393819327
Σ 0.08759646137763939
ρά@@ 0.013683701521515889
Бо@@ 0.003204189030144687
Ру@@ 0.005220509328659191
У@@ 0.0012720546316982969
ер@@ 0.0018681549221365287
ль 0.0012791868148822607
не 0.0005335136923178251
со@@ 0.0005254389314934453
ז 1
انجام 0.30565622387558294
انگ@@ 0.15846161352765256
تھا 0.01625650478084863
شنل 1
وی 0.06393905780269481
ٓ@@ 1
र@@ 0.00535136637545561
ო@@ 0.42520053648028
Ἐ@@ 1
ῆ@@ 0.5740884479309833
ῦ 0.7461321515943767
ほ@@ 1
め 1
サ@@ 1
十@@ 0.003669954566825102
城 0.0096830994284276
治 0.012500560004302332
王 0.01004008980504111
生 0.0032951917264981085
白@@ 0.012244651876042496
雅@@ 0.03474344840072877
📺 1
Ab 0.007161857262906378
Chic@@ 0.042252102796484836
Gü@@ 0.013364657206037897
Haupt@@ 0.004107244089748142
Histoire 0.0070065183575414285
Ni 0.07763257364234892
Premier 0.008011067344829096
Prix 0.008556829238944672
Stadt@@ 0.0044876670290369845
Tari@@ 0.03833061752562639
adas 0.0015611958592520077
adol@@ 0.014485801862349776
again 0.0030430372506536785
aged 0.00260980051430799
ako 0.04355813074899976
alif@@ 0.004843062392889788
amen 0.004791953452959551
ande 0.004613518454009761
anl@@ 0.007749940390952284
atives 0.004645981022106694
aş@@ 0.009906758404167366
best 0.0029442429330703065
called 0.0015809993672183332
cas 0.005373401993111686
cher@@ 0.008020347261168377
club 0.0015438909488597321
colon@@ 0.007256155212864114
community 0.0034409797342982917
construction 0.003185863589749824
conver@@ 0.005056141108000221
cover@@ 0.003124457288637456
deg@@ 0.004921072138197158
div@@ 0.0048706768817791775
enant 0.005933362736003124
entre@@ 0.006527864597650073
eon@@ 0.04391566940764955
esch@@ 0.007113109252274636
exper@@ 0.0043937066769519865
expl@@ 0.0037715535730622825
fahr@@ 0.004696797933648809
hap@@ 0.007973933975786641
hat 0.002022416205756756
icas 0.004044016869495114
ime@@ 0.05697881599315003
inger@@ 0.02043533708208584
ised 0.003029068872971889
kop@@ 0.014663896640931266
kt 0.002262134042056293
lau@@ 0.009272506028290443
made 0.0010148345868848596
named 0.001904007516817131
office 0.0041578646400944955
popul@@ 0.003360004009890796
pris@@ 0.004907476435227056
publi@@ 0.0031926995920046166
quel 0.008848361968146083
riv@@ 0.007836736116800162
rus@@ 0.009028872982014395
rö@@ 0.009706556721290406
scher 0.0060279449511053814
senti@@ 0.011000302749213701
sev@@ 0.01923619491918961
stitu@@ 0.012486245848353185
take 0.003611875835054962
tek@@ 0.017826858316249198
though 0.0016317827693174804
tien 0.010361488685356086
werk 0.006261126117539925
wir@@ 0.004229229441940036
Þ@@ 0.12387755768654216
ò 0.01612873168260633
ù@@ 0.028736880945171617
ğ 0.030938541709301444
ır@@ 0.007180160625032574
αυ@@ 0.017633444107353798
ισ@@ 0.00857257353709126
να@@ 0.011267610599289317
ορ@@ 0.007100214143254921
πο@@ 0.01101824194293289
ρί@@ 0.00979472742086932
σα 0.032304758965651346
τί@@ 0.019899641836905783
Со@@ 0.001874503620924616
Э@@ 0.0014079964219724916
во@@ 0.0007214353432345227
ди@@ 0.0008699209841569065
ко 0.00207509742743914
ная 0.0011034698659397966
ски 0.003870041530314426
طری@@ 0.2756855952804667
کل@@ 0.18780328761464105
کون@@ 0.2567579275447928
یز 0.4329000288260058
द@@ 0.013156073987511667
ਾ@@ 1
ர@@ 0.75757505044551
ு@@ 0.6689684561517037
ნ@@ 0.4410969524487467
ἔ@@ 1
ἰ@@ 0.7034795687056137
ῶ@@ 0.44337064807992577
ド@@ 1
信@@ 0.011405178158816143
辺@@ 1
阿@@ 0.004550611361900582
성@@ 1
조@@ 1
8. 0.01070958210847994
Deutschen 0.007445191059009232
Ein 0.00436836888098011
España 0.005897036740602777
Fam@@ 0.021678267888975443
Hamb@@ 0.006593896527692824
Kus@@ 0.028279843612395415
Lan 0.01745335765884316
Mexico 0.00644857665901857
Nieder@@ 0.0050772072721168935
Ord@@ 0.012237948849239524
Partido 0.013483420960889
Rail@@ 0.0044708028879899
Sta@@ 0.00466346147003146
Theo 0.020950896535746097
XIX 0.00987082846785965
adan 0.027135880719896394
aji 0.027970112699269165
arias 0.011428231850919134
bind@@ 0.0051351326099274485
bt 0.005836278530547681
champi@@ 0.0027348356709159163
concep@@ 0.0043093454686833794
cost@@ 0.005922420228191209
cual 0.004431860897172273
curr@@ 0.0032672301711704284
destin@@ 0.007611211479074835
ently 0.0013695641763001526
esper@@ 0.01342951992373041
found 0.0016838592821761143
government 0.001883219161768769
grav@@ 0.007839591807391567
heit 0.00360690153366133
him@@ 0.003812656551147266
itali@@ 0.004171108568778491
kn@@ 0.005824181260354144
kreis 0.006556426131973786
lit 0.005167914585398277
noch 0.001761138561254164
sab@@ 0.008061849729263859
sera 0.008772831954131099
she 0.0007433386423646013
tech@@ 0.032209239056104226
temps 0.003516810141298573
tiva 0.012944221790326775
trad@@ 0.006726125959476366
trat@@ 0.008469165722901757
uj@@ 0.02823822528105997
unia 0.15923057280382388
unos 0.007171925197994256
xe 0.00617541031857217
yer@@ 0.012608589418926773
zar@@ 0.01814785144956586
zil@@ 0.06038924102821027
zona 0.005228402395453581
ération 0.007640261800357816
ös@@ 0.007235196285783991
üb@@ 0.008406555710985832
þ@@ 0.2149861857094931
Παλ@@ 0.07103348925506764
ατ@@ 0.006896571388219889
ιν@@ 0.0069686429014381435
κλ@@ 0.011659840813195313
να 0.0020432036171969233
ον@@ 0.006384190631816065
πολι@@ 0.02824234415127096
ρα 0.02432744879296343
Е@@ 0.0018670819575453176
Ц@@ 0.0038069593770927476
ар@@ 0.0013383553935755895
во 0.0015051178176164442
обла@@ 0.004613779248024289
сть 0.002521213408268847
ц 0.0024475138291069334
ї@@ 0.3487013984649555
آج 0.2735158779791894
اری 0.05757800929480004
سین 0.30952886816217823
لین 0.27848694323011874
پنجاب 0.17953874583359591
پو@@ 0.11041307111580861
ম@@ 0.8721818762587831
ে@@ 1
ា@@ 1
ṣ@@ 0.10790698864241302
な 0.4560745485704386
ブ@@ 1
ル 0.3006589697662264
京@@ 0.014224630449432304
光@@ 0.012671978568298745
八@@ 0.01195104896206821
尾@@ 0.050397958917771664
昌@@ 0.0659483571285592
池@@ 0.14081772838505444
澤@@ 0.07577175074972245
社 0.01807086373745523
裕@@ 0.24467181410958624
민@@ 1
주@@ 1
Akadem@@ 0.014188566643288157
Conse@@ 0.007548610069662487
Constitu@@ 0.007069768221399474
Flug@@ 0.006739168650293434
Mai 0.0034468817455278063
Professor 0.006142252677388829
Sa 0.007762535476360881
Süd@@ 0.004547348923003236
alle 0.0031827579864608414
apo 0.02949009990574172
ativ@@ 0.004505208496484787
atu 0.034384820031145395
auch 0.000570630020390746
audi@@ 0.005766769083338323
bles 0.004075448779772661
concer@@ 0.0024740532168140276
const@@ 0.00839700011094085
cula 0.03173473132785569
defin@@ 0.003373117638375987
design@@ 0.002059806532879796
deutsch@@ 0.014958929593919586
east 0.0035122850529570302
ede 0.01002251172576567
five 0.0021402540060004344
fron@@ 0.005087089870527624
held 0.0017252380692275987
ilk 0.007854898540854022
iye 0.0454742046237274
izi@@ 0.007573190461466415
jer@@ 0.011265755410418202
jus@@ 0.0032893823426091216
kid@@ 0.02189207178504464
maya 0.01730829870090119
meister 0.006368681630347304
members 0.0021392877636294875
nin 0.007293148790645559
obr@@ 0.03354234263436419
oj@@ 0.02200588093937541
provid@@ 0.002439355607046842
publique 0.006920099232646527
reco@@ 0.008465719702824804
role 0.002841403411205036
schw@@ 0.004910066890566193
signed 0.0034863410618237107
still 0.002506326260930168
tas 0.007197087319155543
tend@@ 0.005955165685799577
tima 0.009746741177450087
uro 0.011681425382233152
yet 0.008601467185008888
¯ 1
¾ 0.479359093753317
ées 0.0008447235367166465
ıl@@ 0.005399481592946351
ń 0.03319837787511897
ŋ@@ 0.4825601561489985
Πολ@@ 0.0259853432144036
έν@@ 0.007571150147925338
πος 0.0650665573763627
τσ@@ 0.016255400603601963
υσ@@ 0.029500849063711067
όν@@ 0.008420518183089466
Рес@@ 0.009391301704011803
ایران 0.15107703537166808
بچ@@ 0.1669037973053494
زی 0.11298719760625145
ہ 0.01010520216516299
ۖ 1
द 0.005125737773801896
ா@@ 0.5557195096766687
∗ 1
⛪ 1
ⴰ 1
ⵜ 1
ⵣ@@ 1
っ@@ 1
ど@@ 1
ナ@@ 1
バ@@ 1
パ@@ 1
五@@ 0.006987780503223008
保@@ 0.005313344541195743
司 0.02908359423801226
和 0.0009032402753291221
子@@ 0.012563721194995008
幸 0.14750854667440044
式@@ 0.12410296459352005
星@@ 0.012883962245028531
株@@ 0.2246197529676677
沢@@ 1
河@@ 0.008905541868685193
行 0.0028250467166593147
정@@ 0.9947761724349807
7. 0.00973327711163015
Alman@@ 0.06498343371216873
Kad@@ 0.012381594577091362
Liga 0.005257101990915521
Roma 0.012435007834095914
Tod 0.0074225801651173415
Ukr@@ 0.012120040261267551
Universität 0.003745379196992478
Virgin@@ 0.053292594390768534
Yes@@ 0.05611807856553526
Zentr@@ 0.007289104178058147
aide 0.007836704078206537
aras@@ 0.04877684744246809
beau@@ 0.0064673200547969885
bei 0.0005913898329078539
civil 0.00568831146588153
concentr@@ 0.0063318787971049055
could 0.0018969219152493002
cru@@ 0.004941434645394807
deux 0.001194337187583329
different 0.0025580792368278833
esen 0.003385364373309515
estim@@ 0.0038982871034188966
eure 0.007795622987496761
event 0.0033544458830535805
gul@@ 0.01836110812978624
his@@ 0.02003136380171749
iche 0.007224953555566437
idas 0.005347083546425303
just 0.002758880673746198
lege 0.004312424528217091
lí@@ 0.004640977080922038
m. 0.009944961206758807
making 0.003378842111125405
orig@@ 0.00719199087397874
phe 0.012875171798078703
ques@@ 0.00520098797116774
road 0.0025996616672519365
sak@@ 0.029505007505872947
short 0.0034246290695965466
sible 0.004756576560664506
sil 0.010641241541946149
strat@@ 0.005704443693451397
those 0.002362521371409076
ually 0.0018869115120949494
unde 0.0055348725128824515
yar@@ 0.011695717574813011
ál@@ 0.009118930814767938
ège 0.004415647904894263
ım 0.011564406496507256
ın@@ 0.006101977543974055
ˉ 1
Ά@@ 0.014044115522320707
ακ@@ 0.006570760286572653
λα@@ 0.016672012660394808
νη 0.02288813525542153
οφ@@ 0.01772854618439526
ργ@@ 0.015493330485370977
ρυ@@ 0.05429797262673295
ρύ@@ 0.05634737433909149
ών@@ 0.011596729045897054
би@@ 0.0012814679884864996
ми@@ 0.0008283846828116839
па@@ 0.0009413513710310785
ру@@ 0.0008113907037912762
се@@ 0.0006760122217462838
ст@@ 0.0007813522541967383
те@@ 0.0007396274345229275
че@@ 0.0007897585124270256
і 0.1371944837991378
Ա@@ 1
Հ@@ 1
ׁ 1
مک@@ 0.16845780188430912
کا 0.0037792656446867245
گر 0.3078338409573717
گرا@@ 0.21942322889669796
އ@@ 1
़ 0.0029115563097370073
‰ 0.11839178109082535
❪ 1
❫ 1
ぎ@@ 1
ず 1
め@@ 1
ボ@@ 1
ム@@ 1
ュ@@ 1
之@@ 0.0025351046144425973
俊@@ 0.11820925799466905
公@@ 0.0022407897228724958
台 0.004913429918774856
國 0.0029046297051876736
多@@ 0.003476623073440825
太 0.04829389619171504
州 0.00302634572202873
康@@ 0.02277419629128959
王@@ 0.00556519499026409
秀@@ 0.04574568235309055
貴@@ 0.07572714919770684
香@@ 0.029190938030388983
국@@ 1
수@@ 1
신@@ 1
영@@ 1
이 0.8523260683154974
장@@ 1
Au 0.003695498827390549
Bask@@ 0.008958901411592394
Famili@@ 0.006032092922806941
Kut@@ 0.030740290366433297
Mittel@@ 0.0047818590328724785
Staats@@ 0.007080955608989541
Zeit 0.002248211341907436
Zeit@@ 0.004912177474895892
Zw@@ 0.0045046179124707784
adém@@ 0.009314899207376005
afr@@ 0.012333855108598848
ainer 0.007206958282445685
alim@@ 0.007730192617968445
arbeit@@ 0.0028380968454499163
assist@@ 0.0037570360236048113
atura 0.008449648647180737
bed@@ 0.005391091776476518
clim@@ 0.004771700445044573
clos@@ 0.0030520712051586756
died 0.0018984772656778061
eka 0.025584544036267944
enin 0.01569813935010064
established 0.002440342923511448
event@@ 0.0032459061408893954
foc@@ 0.0035664516495743947
fu 0.041147985556977885
histoire 0.005576275170410665
including 0.0009688866295270255
institu@@ 0.0031160504529359574
ip 0.029710148856164045
kara 0.04184997157933276
large 0.001797255375521421
located 0.0015147078583527492
mann@@ 0.005676941256405905
mez@@ 0.012215925347339429
milit@@ 0.0026176238522159813
moder@@ 0.0032436264224560566
mundo 0.006916265865992084
mw@@ 0.011337173706839397
nea 0.01635562630930224
neur 0.004193945612127765
ngh@@ 0.020201164058005712
pendi@@ 0.006644820244926081
performan@@ 0.0026698500198357672
pes@@ 0.008987945431281058
pia 0.042011183267592324
police 0.003925445357042184
popular 0.0030542750191068176
reci@@ 0.0028112312115679207
relati@@ 0.003037665560170402
resid@@ 0.0031299388332676754
secre@@ 0.006196266336328202
stad@@ 0.032842100002727595
tout 0.0027691680517958352
uko 0.09613359816006563
util@@ 0.0074780989068220175
various 0.0028160019171936173
vida 0.005660097734727595
zu@@ 0.002240171553628679
ã@@ 0.02720138112163408
ø 0.05141978870002147
ŏ@@ 0.10588302260792817
Ś@@ 0.03543180194833851
ș@@ 0.016258827464798255
Α 0.017990717591850818
Μακεδ@@ 0.09258401966607119
Φ 0.33769593742778514
θος 0.06776925659019076
οδ@@ 0.012087948831194621
τρ@@ 0.008416142144449353
τω 0.07882218393200784
ων@@ 0.010294015514763095
Ка@@ 0.0012777284742182514
Ле@@ 0.002474525936701735
Са@@ 0.002197614121622628
ков@@ 0.0024908510701490143
мо@@ 0.0004862766204383008
ска 0.0029292406972855414
сто@@ 0.0008041904539283642
то@@ 0.000645371793724322
ф@@ 0.0008877344431152096
ս@@ 1
افواج 0.4132362292970454
بیر 0.4108914935429768
حسین 0.16016879771302805
سمندر 0.07858609717195625
قری@@ 0.37622359113681547
پور@@ 0.12257196483076209
ڠ@@ 1
کری@@ 0.1507274931771173
کم@@ 0.3885786478966207
ত@@ 1
দ@@ 1
় 1
া 0.6912515924209073
์ 0.0034384094791457785
ག@@ 1
် 0.49804344444301407
ს@@ 0.3547693357927407
ṇ@@ 0.12743825992892835
√ 1
ⴻ@@ 1
ⵍ@@ 1
ⵙ@@ 1
げ@@ 1
ァ@@ 1
エ@@ 1
ダ@@ 1
レ@@ 0.7793318642059217
京 0.0105063919759412
区 0.0032436264224560566
城@@ 0.008004191000753188
奈@@ 0.056562249525115
岩@@ 0.05501862697311521
州@@ 0.013067901864125512
戦 1
政@@ 0.005249159649136557
法 0.0032008838921309714
理@@ 0.005956967403451524
皇@@ 0.012335872119750582
華 0.019874934630420314
谷 0.031430891518088096
道 0.0025753636324909327
기 1
다 1
Album 0.005984372632651827
Arth@@ 0.07144810942046119
Des 0.006089752618716993
Histori@@ 0.004354323066459053
Mec@@ 0.023183184530785727
Mw@@ 0.10682724222314474
Schl@@ 0.0059782206445901775
Sud 0.007201856847720998
Türk 0.02000862530189951
Việt 0.007204140580168609
Wan@@ 0.032952878980779365
Wilhel@@ 0.02367473723387418
actu@@ 0.001913391779383902
agric@@ 0.0038383610117752134
aissance 0.004958428434329228
allen 0.006703680223545217
arded 0.0028902739203788097
ately 0.0017804558975078957
bou@@ 0.007448816873922537
charac@@ 0.002411545725906273
cion@@ 0.0025981170314662407
crit@@ 0.007725310634109352
dad@@ 0.009431341854497925
dav@@ 0.004457399672107504
domin@@ 0.002717912235763429
ede@@ 0.022895345580671567
engo 0.046595233905577516
enst 0.007636536246478006
eren 0.0015600686632562394
erre 0.004594862586385956
erung 0.0017441923331236475
financi@@ 0.003800833186761304
four@@ 0.0031878586580962563
fé@@ 0.004563078322855524
gel 0.007414103827633862
habit@@ 0.0034633198981655028
hib@@ 0.00533911934629077
however 0.0028267504681832503
ided 0.003010260098792038
inclu@@ 0.002062683947305281
introduc@@ 0.002745148589494579
issen@@ 0.007122560407395375
kit@@ 0.011566805242443834
kut@@ 0.037265588729067614
leur 0.0014456310760854218
lichen 0.0007928346913914685
matr@@ 0.009320729039145976
monde 0.003528900906012672
natural 0.004331762667400092
observ@@ 0.0029498384127002535
oder 0.0009351524455745772
ograf@@ 0.005505349027971614
platz 0.007100033808333716
previ@@ 0.00218218325769819
race 0.003325768913962182
reich 0.00482207456413037
relig@@ 0.005020624474287327
shu@@ 0.01752743474081819
sos@@ 0.020262507443830593
sous 0.0014309158373384315
sé@@ 0.0025684077048848874
tent@@ 0.006438342679556084
tik 0.0061769998131528895
tly 0.00301872382540484
trag@@ 0.004169957107131359
tras 0.003933528744838444
uch 0.005244317576197076
undi 0.044845229989713346
wam@@ 0.09039228188112247
wissen@@ 0.004638151466413945
zel@@ 0.007930402285526857
zeug@@ 0.00476000042870357
zog 0.005758793395428366
À@@ 0.3292549784462142
Ä@@ 0.004435631240489508
äf@@ 0.002658774911500005
ète 0.005510351997009086
üs@@ 0.002647447422166844
Đ@@ 0.0021751548661369186
ʲ@@ 1
Ι@@ 0.009322717945478193
Με@@ 0.02585732841840413
άδ@@ 0.01960888569359402
μος 0.05727184005442367
ολ@@ 0.008939494727046051
τερ@@ 0.013890406657529398
όρ@@ 0.008686425668647193
Ан@@ 0.0024521336804418123
Ар@@ 0.0029247842983244248
На@@ 0.0015750404539236636
Я@@ 0.0027026168366626304
бе@@ 0.0009958477552933452
но 0.00039849882780748196
чи@@ 0.0008269116787439281
ի 0.907775446701736
ׂ@@ 1
بی 0.04885578946723129
جارج@@ 0.34980384181054375
ربی 1
نمبر 0.3224019893016383
ڵ@@ 1
ݒ@@ 1
त 0.0035008845488411
त@@ 0.007081443779078353
न 0.0036867187977159075
प 0.001772108277380361
श 0.008237064800606984
स 0.002039566342030546
র 0.6692437209187583
র@@ 0.5712016471535899
ம@@ 0.6568598741168691
მ@@ 0.4028119417161131
⋅ 0.5428144356352846
▄ 1
☉ 1
ⵢ@@ 1
々@@ 1
さ 0.49632814257476215
ガ@@ 1
世@@ 0.00739290477340107
主@@ 0.0019174354664913693
區 0.003588853883024678
土@@ 0.011669071713481615
学@@ 0.0032863517568010063
家@@ 0.004739754968035713
文 0.005696586227914862
社@@ 0.00628597231440351
章 0.015290204451476249
華@@ 0.008605962490323544
경@@ 1
공@@ 1
라@@ 1
의 0.8071504090284977
자 1
지@@ 1
🚿 1
Bir 0.025112026321987724
Copa 0.007481902307088275
Europa 0.004690774697813071
Form 0.0069737235063649745
Geschichte 0.0022649658020289696
Heim@@ 0.006213465116353457
Jah@@ 0.00532300248044933
Munici@@ 0.005693129709348934
Nguy@@ 0.09215421174385377
Nord 0.004585173562413777
Schi@@ 0.006404437101799613
Türkiye 0.014953298881994656
achen 0.005574170213307515
aille 0.003538943205845126
album 0.0008096535463591268
altung 0.004652236142520026
apos@@ 0.01648402685455969
aret 0.02201459608285389
ased 0.0023130727564237333
auf 0.00025859777201482577
azo 0.0118946290758322
bahn 0.004395686062178968
bern@@ 0.0077630040499777
bourg 0.006046730612803438
cant@@ 0.002983097732832281
chs 0.007178330688164621
consider@@ 0.001501576500417329
deb@@ 0.004988744902008305
ded@@ 0.03599452683404226
deut@@ 0.002968115369505323
deutschen 0.0038318559237754363
diz@@ 0.011997274488857889
ectu@@ 0.004479607358418709
enas 0.008641981294121257
erte 0.0012732617656415334
exist@@ 0.002055211885029619
expres@@ 0.002692005565285322
fall@@ 0.003590641739367246
films 0.0033693905536646075
follow@@ 0.002279282721850309
gu 0.03925686531095233
gun@@ 0.00531033245692617
gut 0.00775230451271729
haf@@ 0.00532911128062706
hara 0.0387605820238756
homme 0.005998141705222221
iler@@ 0.010344924076624925
illed 0.0027977362878229394
incia 0.028039830545875145
ingia 0.0696490563055575
leit@@ 0.005007526979209909
mf@@ 0.03309715536151088
mich@@ 0.06610117960638753
modern 0.0035314090616768348
nou@@ 0.009666747997651765
placed 0.0019996934319216663
played 0.000988561744758882
pose 0.002545622622732042
possible 0.0031383002549458766
rég@@ 0.004657268285080253
sek@@ 0.011641592437911024
sent@@ 0.005461592477982902
six 0.0017438305583528499
tard 0.004396835476244502
territ@@ 0.0024058549957045277
tim 0.012575485978098494
tivo 0.004630778994146916
tour 0.002747730047609561
trou@@ 0.0038946373956317898
verw@@ 0.003012935405772672
vill@@ 0.00499364183717363
¼ 0.2293468925151416
Í@@ 0.03715145490075961
ân 0.0061240180123138185
éch@@ 0.004512853193568782
éro@@ 0.0032149664825142517
đ@@ 0.0012159270858097748
ız@@ 0.014477474522308574
ɛ 0.38724875305889966
ʊ@@ 1
˚ 0.7131254939142684
Η 0.003088985911356494
Κά@@ 0.028559699391546185
Λ 0.19048427216407834
Παρ@@ 0.01747091944142052
άρ@@ 0.006877789956590648
άς 0.019220786282523477
αβ@@ 0.026040054550860087
εια 0.021157630547920015
ικός 0.01385394227702628
μη 0.01814568686804754
К 0.00253080502226448
Ма@@ 0.001681827147337138
Росси@@ 0.00506424975150498
ат@@ 0.0012006373026852805
б 0.0030505071247223076
ве@@ 0.0005115210989876094
гъ@@ 0.04458029432819718
з 0.001711723709476476
ме@@ 0.0006515550007109266
ний 0.0010502791754833957
ник 0.0015389116897746942
публика 0.025938152250839674
ха@@ 0.0020902536545626764
؜ 1
برطان@@ 1
دری@@ 0.27083775964190593
فتار 0.3197360100816576
لگ@@ 0.14258690586164074
مشتمل 0.027638131847119423
وری 0.06379906966882185
گن@@ 0.15190196903461023
ێ@@ 1
ܝ 1
ܟ@@ 1
ܥ@@ 1
ް@@ 1
रा@@ 0.005962164899497099
য 1
ி@@ 0.3690852833567378
ტ@@ 0.700614520336825
უ@@ 0.4099053390731232
↔ 0.4726038776236572
≡ 0.5268473305962933
ぶ@@ 1
仁@@ 0.03627653872843624
会 0.002771307611406456
元@@ 0.007224528765887988
功 0.04786794241610863
平 0.00945722586477823
成@@ 0.003662797900480289
江 0.011316164566473469
生@@ 0.002958577547067838
菊@@ 0.14827820536229103
隆@@ 0.031576056185494104
香 0.06555322990676138
麻@@ 0.045770805340056196
龍@@ 0.019112927077640514
리@@ 1
보@@ 1
성 1
스@@ 1
연 1
Bras@@ 0.013958241576571582
Bü@@ 0.008456411895730489
Ce 0.0030421720928761912
Distr@@ 0.00865192111975188
Distribu@@ 0.006593377465601595
Forsch@@ 0.006441986982477937
Grün@@ 0.004576410838191189
Haus@@ 0.005549174083182333
Mek@@ 0.027652929598011015
Nis@@ 0.04342365291771317
Oy@@ 0.023100522145595968
República 0.008241156924861886
Unternehmen 0.006123100835260581
Wah@@ 0.016565457042441348
Zu@@ 0.003837916377350937
aill@@ 0.0048767256836400865
alan 0.008679017709999032
alen 0.0038099450559050487
anst@@ 0.0060423750284781825
appar@@ 0.0020921672873066817
ası 0.005020195497628691
ayr@@ 0.010841151656644806
became 0.0007452753561905742
chev@@ 0.006502676683459078
competi@@ 0.0020941862006592865
conc@@ 0.005559769164964065
conserv@@ 0.002607261435283562
declar@@ 0.003371515374647538
distribu@@ 0.0035416260639830766
eder 0.009436363574247219
essen 0.005705011228114183
eten 0.0013936712557622328
fav@@ 0.004675435975416421
games 0.00201732994963367
haz@@ 0.015289636033645061
hem 0.014498762027392432
ikan@@ 0.0072996043931394345
iker 0.0054935580241007986
inci 0.017694343622363946
ingt 0.005524233281867328
inh 0.006267873370511693
invol@@ 0.0019868914342176464
iten 0.002072561807837248
kamp@@ 0.011954805466007792
kim@@ 0.022801634895493895
kis@@ 0.02147755880082348
kö@@ 0.007114331179385599
leo 0.012714546301183386
much 0.0021726602370936775
ober@@ 0.005687144576381684
ographie 0.004048849086920576
ometr@@ 0.01960095840654147
prepar@@ 0.003974397270469716
program@@ 0.0030901754923689365
recog@@ 0.0029222883841680245
rement 0.0035460315744231426
retr@@ 0.006247648916867868
rom 0.026218371569098106
several 0.001134370510381741
sol 0.009382088599060876
started 0.0020778651147590013
terr@@ 0.004992173753391988
tige 0.004290184334755131
topl@@ 0.012736487034433901
voir 0.0033153974259643574
vot@@ 0.0021895618538509357
wah@@ 0.004304030910330787
zeich@@ 0.002748181496785781
¥ 0.19294780629956823
áng 0.017700225561571914
ör 0.020535635862822327
ünde 0.0093916037220818
ür 0.005177266190035017
č 0.028904203084018608
ħ 1
İn@@ 0.0341543961164841
ţ@@ 0.09672425712188684
ʁ@@ 1
Θε@@ 0.029917480019199014
Λι@@ 0.04794069581905411
Μαρ@@ 0.024123158683527986
Ξ@@ 0.06379852365427548
Ψ 1
Ω@@ 0.07990287256963202
ής 0.0034845445838428742
ην@@ 0.028501389777800874
ιά 0.025844329830757937
ου 0.0023534194559440757
τά@@ 0.0069105727614650935
τας 0.029546913321246236
τη 0.002042378482980172
υμ@@ 0.02182561410154829
υρ@@ 0.0195040318582536
Алек@@ 0.007723589745156339
Влади@@ 0.005470498206757139
Во@@ 0.0019210425803051485
До@@ 0.0033198786405174165
Ш@@ 0.00204600530714865
ал@@ 0.0016708686020618336
га@@ 0.0007656096726863593
ки 0.0004953701781571633
льный 0.0030128294650669262
нов 0.001679619689917787
нович 0.006969561555541466
рий 0.004949465515183828
си@@ 0.000664443265589541
та 0.0005033943913047379
ти@@ 0.0004921601719982688
ү@@ 0.2839283373217985
ө@@ 0.31823003186270304
ּ 1
ئی@@ 0.296462059907887
قی 0.08367894141981051
کش@@ 0.16137111151388286
کم 0.061602665039119237
ۆ 1
یت 0.056677730441998246
ܢ 1
ܩ@@ 1
ܫ@@ 1
ݣ@@ 1
ރ@@ 1
ާ@@ 1
ު@@ 1
म 0.004283294402863647
ক@@ 0.6148072986708304
่ 0.011931843422088192
้ 0.010040120537908776
ོ@@ 1
ა 0.3866461875717748
ბ@@ 0.3941072427377118
გ@@ 0.5911608641065678
ვ@@ 0.322847054845553
ẟ@@ 1
ἄ@@ 0.6655837943199838
⇌ 1
ⴳ@@ 1
ⴷ@@ 1
ⵉ 1
ⵔ 1
〜 0.30765738738686826
ご@@ 1
ア 0.31918383628275826
ウ@@ 0.9662395977166324
デ@@ 1
メ@@ 1
东@@ 0.0041926538224880865
前@@ 0.006234898772919225
千@@ 0.00939622047681532
園 0.012780925146606233
年@@ 0.003367943370042116
弘 0.20403827826423482
後@@ 0.004333656074402708
志@@ 0.024800101456772024
方@@ 0.004586180620193252
朝@@ 0.011815159362185693
村 0.007116776293494567
沙@@ 0.00996709318088796
玉@@ 0.024243584228121107
电@@ 0.0045320613774451814
町 0.034899524795804396
章@@ 0.06679993276028334
紀 0.017958632352555
良@@ 0.03456776488005481
视@@ 0.014620325562900357
路 0.003166404091469854
道@@ 0.008371512071090744
里 0.0037021225805634324
나@@ 1
미@@ 1
아@@ 0.9965960556662858
우@@ 1
인@@ 1
🕰 1
Francia 0.007455995283154527
Ped@@ 0.019811309275694997
Sek@@ 0.006796572745187936
Straße 0.005710738222798853
Sur 0.004772213251978002
XVI 0.01086812441366247
Yar@@ 0.01688289523524794
Yeni 0.039550174042554176
alar 0.016255862714122944
alternati@@ 0.0053295899760762485
ancia 0.003891329183221602
ateur 0.002131691557987396
awa@@ 0.034185601209609756
chez 0.004727528905397695
church 0.002269234022071804
complet@@ 0.0017339011398310534
consid@@ 0.0026609279557648674
constitu@@ 0.0015270313887366233
day@@ 0.013980875888040702
defe@@ 0.0020921641255671882
desc@@ 0.0031655766352160276
eler@@ 0.005883038598800654
emas 0.007644896417171387
enden 0.0010747281512254883
eran 0.002025516640675779
fak@@ 0.016603275193513782
fica 0.004260968686898877
formed 0.0012849835500650805
för@@ 0.0046768225102209555
gemein@@ 0.002054408150154801
git@@ 0.01729955629652321
génér@@ 0.0034152205468282156
hus@@ 0.00436565376026226
icos 0.0021168543724817373
iev@@ 0.0020593557992573757
kav@@ 0.03085183277662662
ları 0.0034257844088963724
mant@@ 0.005521864635883638
mula 0.012353672352523682
near 0.0018174248497667411
numer@@ 0.0029789070686677176
ogle 0.2641507903426
particip@@ 0.0011594905230681845
pens@@ 0.005192189638926642
pio 0.007407483879555076
qu 0.0032704965986278564
registr@@ 0.004061664526478195
releas@@ 0.011875841029608371
rue 0.005564142486980291
signific@@ 0.0021237126424111753
tul@@ 0.009919779108673385
umba 0.023811735331709088
until 0.0008629037447077672
uso 0.003202809235825486
yok@@ 0.03112372231257315
zig 0.005512168899749822
zis@@ 0.019513084120561065
¬ 0.5967302983558476
¶ 1
È@@ 0.12405145987325865
ám 0.01213376711002635
äng@@ 0.0014888160272827414
ät 0.004051300014296945
élé@@ 0.0042561741932461645
ís@@ 0.003718714773936941
ük 0.031320881703707296
ün 0.007567214317572473
Ā@@ 0.08777671139903413
ır 0.0040568916987122824
ız 0.016922931927409225
ɡ@@ 0.8739989218343223
ɣ@@ 0.8270097324883908
ɾ@@ 0.9211006601367706
ʃ@@ 0.485078588712532
ˌ@@ 1
Ϊ@@ 1
αί@@ 0.008963801302635672
απ@@ 0.004198744672573377
δε@@ 0.009925326327836126
εί@@ 0.006608592858676511
ζ 0.026178320327236337
λλ@@ 0.006941507682438661
ξ 0.048666442583947915
σία 0.011470733461364695
ση 0.004049273724408779
υν@@ 0.022816129541433597
Ж@@ 0.0024167092179040736
Мо@@ 0.002691412786966819
С 0.0009682058389577602
Ха@@ 0.00346541948611385
кий 0.0040033031600019845
ци@@ 0.0010845910319142288
ё@@ 0.0006319385359780232
ә@@ 0.19905309736672414
امی@@ 0.19411305274615342
اوی@@ 0.23085114093472842
ریف 0.23271378251564404
مپ@@ 0.15574466106261295
ولی 0.15520339598492897
پن@@ 0.3006328538948027
کتب 0.27252249846172566
کس 0.07101017091637087
کی 0.0016968335972838765
یو@@ 0.12227647873039801
۰@@ 1
ܚ@@ 1
ܪ 1
ނ@@ 1
अ@@ 0.0062613432178628544
का@@ 0.008752255637228732
ज 0.004410156546152832
ता 0.007017047194708206
ल 0.004221869363053128
ন@@ 0.7395375492444264
ਸ@@ 1
த@@ 0.3982779896966532
ས 0.9180466128551501
រ@@ 0.8177284655555619
ὶ 0.23150740671999437
℅ 1
∧ 1
ⵖ@@ 1
ご 1
む 1
キ@@ 0.8225872205499503
ク 0.27821830630738875
グ@@ 1
ゲ@@ 1
ナ 0.6466204073729875
モ@@ 1
博 0.045749125679441074
博@@ 0.007441927291903769
原 0.008363019766736536
堀@@ 0.3696700379667734
士 0.0030243696757543182
士@@ 0.009128287192477788
大学 0.007252039246650426
孝@@ 0.04934643707665537
宏 0.1450407849330085
市@@ 0.004782434277393408
忠@@ 0.04048113372278623
月@@ 0.00885328216626634
浩@@ 0.0818889324609941
的@@ 0.015385800090970953
秋@@ 0.041421006258731005
者 0.0020546612191678832
花 0.013965784908407896
花@@ 0.010900899938469025
馬@@ 0.011862205608746328
마@@ 1
원 1
주 1
창@@ 1
︎ 1
📻 1
Baz@@ 0.01551063096364084
Compan@@ 0.025195104297911497
Gran 0.007808818064627585
Guinea 0.012613343385425345
Minister@@ 0.006065753828564772
Mp@@ 0.08531986146978027
Wirt@@ 0.004882014070447351
aina 0.028710226350663184
amii 0.09089699730381741
another 0.0016227834682913736
appear@@ 0.0010589352029870523
aque 0.005133181303677276
around 0.0012407348217516503
atique 0.0037344814655221993
atro 0.005782839944314632
auen 0.0038355845579481325
cens@@ 0.0026788716286040054
cours 0.002004952893389473
district 0.0014428355450590762
egen 0.0026260464972461157
elimin@@ 0.0039038722978807466
enen 0.0008040287512146864
erin 0.004020161461612219
ezi 0.06516679679216568
français 0.002497280541490779
gest@@ 0.001475035822151803
gradu@@ 0.0016646747757426614
habitants 0.0036661604635322654
ilg@@ 0.018776938568491126
instrum@@ 0.00300661799258032
issen 0.00574511718019731
jah@@ 0.004566661610488853
jaw@@ 0.06758982837543602
lagen 0.003970794783253174
liste 0.005689611520148032
manif@@ 0.005354813492176247
material 0.003582098727111184
neo 0.004202111330272098
novel@@ 0.004650164057953688
personal 0.0033621976270949098
prises 0.004885261443016545
rá@@ 0.005858394503836473
sam 0.00446622474083238
sans 0.0023680725607052935
schaft@@ 0.0020685226549535425
schafts@@ 0.002547816149318385
sett@@ 0.002164368170461098
spor@@ 0.007801286163119053
students 0.0021525742121383208
tant 0.0018065524591335772
tay@@ 0.03846378777673877
trieb@@ 0.0038042417393854755
uerto 0.005013086161748212
usi 0.038881579855002554
veau 0.014562703099544962
with@@ 0.005448766000214762
yet@@ 0.012340980628814486
zentr@@ 0.003536009444038409
zey@@ 0.03626130427031295
zw@@ 0.004248054134777259
¨ 0.2780506712563901
Ö 0.021089543445735933
Üniversitesi 0.022001633612147596
äs@@ 0.002375604645718105
èse 0.005425010443555465
étr@@ 0.003926277532788195
études 0.005172323865375134
ête 0.0028477155252318513
ông 0.0017848306332412028
õ@@ 0.017676721236815903
ög@@ 0.006594461367864557
öz@@ 0.007267355639625855
úl@@ 0.006185453531659425
útbol 0.014966748865061007
ġ@@ 0.3309818402212818
ık@@ 0.007624598819214038
ź@@ 0.10374418615801015
ǒ@@ 0.4930250328296176
ɑ@@ 0.5412625519247645
ʹ 1
ʻ@@ 0.030620618323054797
ʿ@@ 0.027860837296031414
Δημ@@ 0.027576463285090284
Δι@@ 0.010473044460697991
ίας 0.0024368131929651616
ίκ@@ 0.009226865596349235
ίν@@ 0.006712086627489581
αθ@@ 0.01116595209260423
ις 0.049977351783119635
του 0.00044641231877153167
όβ@@ 0.04508293533812069
Александ@@ 0.003119802168602713
Ду@@ 0.005991836368170824
Пе@@ 0.0028857525440327365
Ра@@ 0.002093720064903391
То@@ 0.0025361259272304484
ба@@ 0.0008404830676863376
лий 0.007468504599985792
лу@@ 0.0012606574420824914
ни 0.0008915256462700938
пе@@ 0.0007997972751975953
ское 0.0014885924418322342
ство 0.0009498205672625852
стро@@ 0.0015665306615193946
фе@@ 0.0018253300725240376
х 0.00034751693164733737
хи@@ 0.0017791873498552322
љ@@ 0.8451857705650587
հ@@ 1
մ@@ 0.7352824425168981
շ@@ 1
ր 0.9018496013368871
ט 1
بیان 0.10658222561254119
مرک@@ 0.6594019014934824
ڠ 1
کلی@@ 0.14035374904935408
ܠ@@ 1
ދ@@ 1
न@@ 0.004154408188053449
य@@ 0.005378341723004014
ট@@ 1
ল 1
ੰ@@ 1
வ@@ 0.5055066792303675
า@@ 0.008862941077173178
བ@@ 1
ḥ@@ 0.062095281102739014
ṭ@@ 0.0732165053909917
ẟ 1
∉ 1
が 0.3796556402538232
そ@@ 1
ズ 0.6655837943199838
ド 0.37630179184168694
ハ@@ 1
ム 0.5424112415510904
ロ 0.42036871220209504
上 0.001135642988876025
人@@ 0.0018052687800464043
信 0.010969183827558295
加@@ 0.0025309022593253457
勝@@ 0.024210383546043667
南 0.0033497534321223206
地 0.0015617865170791181
塚@@ 1
央 0.5222398386164155
央@@ 0.01855743846614828
宗@@ 0.010554351545212825
弘@@ 0.06471468502022429
愛@@ 0.01042613454539377
教 0.004642561941329965
教@@ 0.0030427194860256457
日 0.000899719988886129
昭 0.14857817522315647
次 0.0021025248067126504
治@@ 0.005767389598624266
法@@ 0.0026032468961679563
洋@@ 0.024158664670857873
清 0.019727394450275073
瀬@@ 1
竹@@ 0.03748447979274812
達@@ 0.012718288250225111
遠@@ 0.0343730401069011
館 0.012447725909961417
라 1
명@@ 1
무@@ 1
선 1
선@@ 1
스 1
시@@ 0.9968181631001318
인 1
자@@ 1
장 1
🛫 1
9. 0.006058397349982269
According 0.0019682696267922556
Alem@@ 0.006614534684008219
Azer@@ 0.008586163641984076
Ban 0.012075202585306527
Bürger@@ 0.004422851029620293
Cumhuriyeti 0.039839051761772944
Este 0.004127811430334408
Hö@@ 0.004743043825778699
Im 0.0005353550325131992
Klo@@ 0.004797353932735302
Lehr@@ 0.004061491205636068
Mart 0.017330603435313886
Pia 0.08526914237903417
Zwe@@ 0.004816605996575625
a. 0.0046997527732993045
aciones 0.0008386250122620592
agua 0.003808938074515998
ambi@@ 0.004766395454262441
anas 0.004115181191608134
anni@@ 0.005878033800175481
anno@@ 0.01972432190609819
avant 0.0017068240441822642
aña 0.006670961315728108
because 0.0012959902886018496
besch@@ 0.0017685928557457107
bres 0.003415330075725519
central 0.002050990766036312
conse@@ 0.0026021024201232194
destr@@ 0.0024004317110270378
eben 0.0007650553323074305
eden 0.0077529202025425825
eig@@ 0.001610548305008712
estruc@@ 0.0059410547889092
eş@@ 0.008998313742986193
fen 0.002398068075373748
hosp@@ 0.0030177740973248517
hui 0.0043641424404319016
hut@@ 0.019716686213508347
idos 0.002267207316678063
imbo 0.04343124269624691
isen 0.003738041604452012
itos 0.005931338433822983
joint 0.0034342540127503926
jou@@ 0.0014386688486536855
kas@@ 0.010264244902636287
march@@ 0.004713273133296203
materi@@ 0.004334350151344126
mina 0.004734513274849838
mt 0.002452901949048453
nacional 0.0024917891962672354
north 0.0015532321267844335
ohne 0.003583705986377622
organis@@ 0.0023561341279514777
origin@@ 0.001309098859569833
promot@@ 0.0019245754302890437
propor@@ 0.004537778338187765
proxim@@ 0.0039848538218293416
präs@@ 0.004345492604983331
qué 0.00477784589219783
rek@@ 0.006674534223724248
religi@@ 0.002418291129499965
schen 0.0015137655592210007
sti 0.05957521629472469
stil@@ 0.013099259485425785
succ@@ 0.001537197466325446
teil 0.0019193125732229431
tet 0.001231100132526882
tham 0.006069981283729845
tions@@ 0.004584089809124025
tir 0.003339074516005665
waf@@ 0.061447098090808415
zeu@@ 0.004061941870596418
ßen 0.0019029932826646666
â 0.04130271059880021
âteau 0.004096387255838707
ã 0.013150433637593276
äch@@ 0.0014304209202433533
çe 0.015355330825335198
èle 0.004527973429618496
ï 0.011232727741743186
ô 0.004119073662679802
üc@@ 0.0025881208129680754
ül 0.0330668852820858
ć@@ 0.022379830693754113
ık 0.0064600898788591795
ʒ 0.94546204842871
ʰ@@ 0.46411548256860996
̈ 1
΄ 0.006705865221814855
Αν@@ 0.009698451612395343
Κύ@@ 0.02379789285720729
Λου@@ 0.033037974955669444
Παν@@ 0.0223163049227153
Προ@@ 0.021409230901439643
έλ@@ 0.009129523957253971
ίσ@@ 0.006895211478033854
ανδ@@ 0.023062773964978866
γι@@ 0.012911279502729795
ησ@@ 0.06272368162364379
θε@@ 0.005557135433631274
κ 0.008363097843259285
κος 0.03181929860119982
μπ@@ 0.004674994823876362
ομ@@ 0.004704320202734705
πι@@ 0.01685871019649092
ρε@@ 0.008665686329362121
ρό@@ 0.05871522620435926
τε@@ 0.007941342810678405
υλ@@ 0.012099273668152322
υπ@@ 0.008013212378687377
ό 0.0022557079356215403
Гри@@ 0.007724597445437632
Па@@ 0.00206402935808179
Пет@@ 0.004187947253277174
По@@ 0.0007475906676549035
аль@@ 0.0008406386795258056
бо@@ 0.00048632799342852834
ги@@ 0.0007243374378590509
да 0.0004708483906973937
ев 0.0022482227634473186
ев@@ 0.0024398791919535688
ло 0.0006201608854651926
ми 0.0004398100526202218
ные 0.00040570434426748133
ров 0.001000872755268831
си 0.0017972715958322989
сла@@ 0.0025910059609061706
хо@@ 0.0006865931547454475
ция 0.0011276650526403065
щ@@ 0.0014301135713583215
ъ 0.026525088377220105
Ս@@ 1
թ@@ 1
פ 1
بری 0.259509853345851
تحقی@@ 0.18024734236085113
دھ@@ 0.040014602152115164
شک@@ 0.29271051424367106
مرکز 0.2031611997924335
چر@@ 0.19851338383378606
گرو@@ 0.13828679943373529
ލ@@ 1
ް 1
स@@ 0.003923144731652919
জ@@ 0.9910553959417694
ਰ@@ 1
ச@@ 0.5631862875015248
ా@@ 0.9304427942836947
్ 0.6511547959995395
್ 0.39468580795255104
თ@@ 0.30214791797863594
ር@@ 1
ን@@ 1
ὸ@@ 0.37557790253387996
‡ 0.3099834554123238
⁬ 1
ⴼ@@ 1
ぶ 1
れ@@ 1
イ 0.17802849209774643
カ 0.3711747395447312
キ 0.5140094243102991
コ@@ 0.7428202143330194
テ@@ 0.6577358102207589
ビ@@ 1
ョ@@ 1
リ 0.27569486420408834
ワ@@ 1
今@@ 0.01381384037927821
克@@ 0.002212544910932087
古@@ 0.004569658855712999
哲@@ 0.02858743875840524
喜@@ 0.017484253168005066
地@@ 0.0016875200462179657
外@@ 0.0039682368217017275
宏@@ 0.06749798202265465
少@@ 0.008099869854747666
帝 0.008035253577182799
広@@ 1
慎@@ 0.29132740064739404
拳 0.10670682073266273
早@@ 0.009042560001877106
武 0.025000052884375262
波@@ 0.005348641995503354
港@@ 0.011059131811517423
火@@ 0.007859977576059444
界@@ 0.013922692219962103
賢@@ 0.11597143629375029
陵 0.030214012483639096
도 0.9424195317805081
사 0.7572252605062518
전@@ 1
현@@ 1
Afrika 0.015209432873146536
Ago@@ 0.041003159976589175
Amerika 0.013340023436201606
Biz@@ 0.017539595344093387
Bình 0.012977188843946944
During 0.0011158701978324311
Ent@@ 0.002316010541027403
Gemein@@ 0.0019103601223279746
Gesch@@ 0.0021199805525269626
Kenya 0.012257387356406742
Kik@@ 0.04344896250150853
Kup@@ 0.011265090559079
Leben 0.0015666946741028818
Phi 0.014622791971548657
Seine 0.002812523956560253
Tang@@ 0.01731121593887826
Verein 0.004626869092390932
Verw@@ 0.0024644063789542267
Woh@@ 0.0033461344912365885
aban 0.0016534394771267405
aben 0.002333161138109725
acha 0.017493783505740847
adhi 0.09859587731802372
aje 0.0018894372515626066
alité 0.0022050104892775485
allow@@ 0.001678547109271472
among 0.0015739446098474053
angi 0.017317972304359424
anı 0.007817579049881255
arse 0.0020297062002538222
ativa 0.005479155133550322
aum 0.0021625661418893144
avec 0.00031626187715924435
centre 0.0017873269347744292
comb@@ 0.0021653715741537733
deci@@ 0.0043028508491564435
described 0.0016231029414457547
dies@@ 0.008196592399494891
ehem@@ 0.020864695746707955
einen 0.0004752549000751414
elected 0.0016755759396188486
elek@@ 0.005057003176431359
emba 0.06320083506895989
enga 0.026381303314885283
enos 0.017640120439158094
epis@@ 0.0014526470107202084
equi@@ 0.0023230684527667475
eras 0.0034608029914627403
feh@@ 0.004367508934105893
forces 0.0020684235517943457
furt 0.0049477736934605155
grand 0.002146737202763262
hau@@ 0.0034560633193631823
idente 0.0049609346276598505
ien@@ 0.004432921667347842
illes 0.005078708501816879
important 0.00163513260888427
innen 0.003421156168299096
investig@@ 0.0019680146786245113
iran 0.061503555929077344
istes 0.0026395623530787483
kik@@ 0.08541338393583367
klär@@ 0.003982133773995146
kus@@ 0.009062111823273405
lil@@ 0.0361497019896118
lima 0.015920676796411633
mara 0.00806884377987721
maz@@ 0.02189150332837179
military 0.0018251017080101633
mondi@@ 0.03150785736003947
nation@@ 0.0024419044615369913
nicht 0.000502457272404364
oire 0.0037282255380424174
pek@@ 0.07202800614893298
poin@@ 0.014770236767156367
produced 0.0015692364505534282
professi@@ 0.0012320321237985197
pré@@ 0.0009644429710956878
rail@@ 0.002015306053884812
record@@ 0.0015631417290914637
sad@@ 0.01767349427296824
said 0.0011446669951243563
tah@@ 0.01766294153307195
tainment 0.013090286417365973
thé@@ 0.002634234480954355
tigen 0.0017440894976579835
ubic@@ 0.005389478837581792
udi 0.021613810779403178
ulia 0.030490281756577264
usu 0.01109502798320509
uu 0.07259264287061855
verl@@ 0.0015540448102079692
visi@@ 0.0035928707326940237
voy@@ 0.002652302841780899
west@@ 0.0016205219026134993
yaz@@ 0.005492266878352807
yen 0.0035579278912441967
© 0.6323836525605547
¹ 0.22485938997296753
Ü 0.09826834648998561
äh@@ 0.0017677073340525897
ép@@ 0.00479136722552303
étu@@ 0.0027399511432915262
ól@@ 0.005207068707794336
õ 0.01473325038270049
ück 0.004124278481211002
üd@@ 0.005040869406948661
Ā 1
ě 0.06295424869425242
İs@@ 0.012033969205957173
İz@@ 0.028743935623416934
ő 0.07098613990881043
Ə@@ 0.3261666373390426
ʒ@@ 0.701537596121195
͂ 1
Θ 0.19706403976905515
Κο@@ 0.05696967158358606
Πέ@@ 0.0369601940412999
Περ@@ 0.033488492795974024
Πλ@@ 0.05093428691945543
Υ@@ 0.0139753293383548
ίδ@@ 0.012287370004407275
ίλ@@ 0.011695760391332237
δα 0.047478112836022025
ετ@@ 0.010474005851171137
ιλ@@ 0.008388213797788006
ιος 0.026441566006504633
κι@@ 0.040453336027045546
λά@@ 0.02069923166910228
λέ@@ 0.012929449048891812
λος 0.04015739925758793
λόγ@@ 0.02877500259158513
μέ@@ 0.009914387186951059
οπ@@ 0.009336203663805498
πα@@ 0.018831725391900516
πλ@@ 0.004909996592352721
πολη 0.03812322155480683
σκ@@ 0.005353902663100399
σσ@@ 0.017664113437366874
τη@@ 0.004891907736638174
τρι@@ 0.015638487318266208
ως 0.002263130306810158
όκ@@ 0.01849197018374992
Ва@@ 0.002477726006826323
Ку@@ 0.001639707191618921
Москов@@ 0.005162866130044283
Н 0.0030484957559219596
Ор@@ 0.004721687280414533
Ре@@ 0.0018895009473142124
Укра@@ 0.003443413202546583
Фе@@ 0.0053396748408626946
Ч@@ 0.0013969114813713588
Ю@@ 0.0019158590252656715
га 0.0008502501574153782
гор@@ 0.002933088584516669
гу@@ 0.0011647063073155458
ин@@ 0.0005343508895169792
кая 0.005518565140781219
ма 0.0006407576395746635
мир 0.005188422382787861
об@@ 0.0005848352287626999
он@@ 0.001189651149131137
пор@@ 0.0024504959303417195
ту@@ 0.0010637490544652998
ты@@ 0.0013220553223308026
ха 0.0025685943273049414
ч 0.0020000677452901103
Մ@@ 1
դ@@ 1
լ@@ 0.8867061373122183
ղ@@ 1
վ@@ 0.9188387151958362
ֱ@@ 1
ִ 1
ָ 1
ֹ 1
׃ 1
دیث 0.9024865007728594
ریا 0.18294692851949393
سمبر 1
ندی 0.06518940199020411
[...]
