. 1
, 1
là 1
và 1
&quot; 1
của 1
một 1
được 1
trong 1
năm 1
có 1
các 1
) 1
( 1
đ@@ 1
t@@ 1
này 1
c@@ 1
h@@ 1
đã 1
người 1
ở 1
ch@@ 1
T@@ 1
họ 1
l@@ 1
với 1
th@@ 1
b@@ 1
tr@@ 1
loài 1
cho 1
m@@ 1
C@@ 1
đầu 1
học 1
vào 1
L@@ 1
H@@ 1
s@@ 1
@-@ 0.494652418911679
Đ@@ 1
d@@ 1
thành 1
ông 1
tháng 1
v@@ 1
n@@ 1
Th@@ 1
số 1
B@@ 1
S@@ 1
ph@@ 1
kh@@ 1
từ 1
không 1
M@@ 1
ng@@ 1
x@@ 1
đến 1
i 1
những 1
y 0.6623755403678209
r@@ 1
tại 1
khi 1
tả 1
ra 1
tiên 1
ngày 1
khoa 1
thể 1
Loài 1
V@@ 1
đó 1
vật 1
N@@ 1
: 1
công 1
thực 1
về 1
để 1
thuộc 1
us 1
sự 1
Ch@@ 1
như 1
bị 1
trên 1
Ph@@ 1
chính 1
a 0.2753604637831243
D@@ 1
g@@ 1
k@@ 1
sau 1
u 1
K@@ 1
dân 1
gia 1
quân 1
ia 1
m 1
idae 1
nhà 1
động 1
; 1
lại 1
cũng 1
làm 1
P@@ 1
thời 1
nh@@ 1
hiện 1
y@@ 1
G@@ 1
nước 1
n 1
nhất 1
Tr@@ 1
an 0.5205995984623517
mô 1
Nam 1
sử 1
phát 1
hành 1
bộ 1
hoa 1
nhiều 1
R@@ 0.8700842258943584
ôn 1
t 0.6144158561782374
theo 1
hai 1
ai 1
gi@@ 1
khác 1
việc 1
A@@ 0.98413957657835
ương 1
u@@ 1
2 1
quốc 1
quan 1
1 1
con 1
ối 1
sinh 1
thế 1
p 1
chỉ 1
cùng 1
án 1
xã 1
nhân 1
hình 1
do 1
hơn 1
dụng 1
chiến 1
định 1
thứ 1
o 0.779708082688249
Quốc 1
đồng 1
xuất 1
viên 1
o@@ 0.9944994680296453
ô 1
còn 1
um 1
độ 1
miêu 1
p@@ 0.6429473837794025
Trung 1
thị 1
3 1
on 0.3515252863510049
cách 1
tỉnh 1
ân 1
ng 1
nó 1
vị 1
tên 1
.@@ 1
cuộc 1
bản 1
hi@@ 1
âm 1
Việt 1
/ 1
qu@@ 1
ang 1
ổ 1
Ng@@ 1
giới 1
trở 1
bởi 1
hợp 1
is 0.324095553024818
anh 1
Các 1
lập 1
nhưng 1
rằng 1
khu 1
phía 1
lớn 1
E@@ 0.7731121728006041
cao 1
điểm 1
bằng 1
inh 1
tự 1
phần 1
đội 1
đại 1
nhận 1
5 1
kết 1
chức 1
trước 1
Kh@@ 1
hội 1
ện 1
trường 1
ăn 1
giải 1
hoặc 1
Năm 1
tiếng 1
Anh 1
vùng 1
cả 1
Trong 1
phải 1
trình 1
gồm 1
4 1
thường 1
Hoa 1
á 1
tiếp 1
điều 1
lượng 1
ên 1
ạn 1
- 1
chủ 1
ến 1
qua 1
phân 1
lý 1
in 0.09713006235259125
sản 1
Kỳ 1
Qu@@ 1
mà 1
thống 1
ải 1
ếu 1
loại 1
sẽ 1
tế 1
huyện 1
cơ 1
ê 1
ốc 1
F@@ 0.5404559706404419
ôi 1
ic@@ 1
ánh 1
an@@ 0.6715890803529928
trung 1
à 0.4858865694645816
í 1
in@@ 0.4702774317289654
àn 1
tính 1
diễn 1
hệ 1
ho@@ 1
ái 1
lên 1
ước 1
đối 1
ảng 1
phố 1
bao 1
I@@ 0.924832089958214
ập 1
tích 1
vụ 1
6 1
gọi 1
thông 1
sống 1
tác 1
đi 1
hàng 1
bắt 1
phim 1
O@@ 0.812271279897871
tạo 1
ăng 1
vì 1
c 0.920762578867535
lực 1
X@@ 1
ti@@ 0.8502679624587536
Gi@@ 1
ta 1
mình 1
nhiên 1
al@@ 0.5313521920489755
Ti@@ 1
úc 1
ao 1
ận 1
ào 1
quyền 1
ài 1
vực 1
en@@ 0.4124697610804961
cánh 1
địa 1
Đại 1
trị 1
&amp; 1
đường 1
àng 1
lần 1
nghiệp 1
el@@ 0.6651014461686776
ại 1
10 1
giáo 1
on@@ 0.6050458363803551
i@@ 0.6628583304475136
ạch 1
đánh 1
chi 1
diện 1
7 1
cấp 1
ều 1
đấu 1
ung 0.8761424327276821
J@@ 0.8260364950803604
chúng 1
thủ 1
ắn 1
ần 1
ý 1
8 1
ồi 1
Pháp 1
cầu 1
khoảng 1
êu 1
li@@ 0.7952595310188325
e@@ 0.4574705635219961
sĩ 1
ú 1
mới 1
Sau 1
thức 1
e 0.43116011022141876
ệt 1
ol@@ 0.8433046778091077
om@@ 1
os@@ 1
ật 1
đoàn 1
or@@ 0.5491334735768563
hóa 1
trận 1
ụ 1
ư 1
ứ 1
en 0.11185037379490725
Đức 1
tranh 1
cô 1
ar@@ 0.4616384739615012
ành 1
hay 1
9 1
đêm 1
pháp 1
đề 1
ảnh 1
Tây 1
ờ 1
ết 1
ạm 1
ó 0.8177524355455444
W@@ 0.5119217238843571
thi@@ 1
% 1
ac@@ 0.5091774706166142
– 0.7114497481322516
ị@@ 1
a@@ 0.8492324325561734
liên 1
tập 1
tham 1
nhạc 1
tàu 1
chuyển 1
Y@@ 1
hiệu 1
biển 1
ường 1
bay 1
ốn 1
ủ 1
thấy 1
máy 1
bố 1
lo@@ 1
ì 1
truyền 1
Mỹ 1
ata 1
thì 1
ỏ 1
ỗ 1
năng 1
ống 1
ban 1
km 1
12 1
mặt 1
am 0.9154417112260775
toàn 1
ấu 1
gian 1
nên 1
rất 1
as@@ 0.5885406470756552
ùng 1
thu@@ 1
aceae 1
ời 1
ot@@ 0.8211064300334429
át 1
văn 1
phương 1
er@@ 0.3335278509589787
tới 1
hoạt 1
am@@ 0.6616894931240507
nam 1
Nh@@ 1
ục 1
đô 1
ag@@ 0.6786435885682925
ị 1
đây 1
ứng 1
bang 1
trí 1
giữa 1
ất 1
đạo 1
triển 1
đặc 1
ba 1
tổ 1
ền 1
nhau 1
bướm 1
Bắc 1
nghĩa 1
đá 1
danh 1
s 0.22265583366327957
ầm 1
cứng 1
ọc 1
su@@ 1
áp 1
Một 1
ơ 1
h 0.949410709279963
Ông 1
ác 1
ấn 1
biệt 1
ách 1
tử 1
bóng 1
thiết 1
chế 1
at@@ 0.5151627666334142
đất 1
đang 1
nằm 1
di@@ 0.5193239002793701
kinh 1
ưng 1
er 0.15895680716884364
bình 1
đổi 1
thuật 1
kỳ 1
tâm 1
op@@ 0.9449480050398775
nơi 1
dài 1
đơn 1
dưới 1
chất 1
ur@@ 0.5342815921924922
Nó 1
ắc 1
U@@ 0.9343619200951933
ỉ 1
cuối 1
phủ 1
11 1
Công 1
bọ 1
kế 1
Liên 1
dịch 1
Đông 1
ạt 1
Lan 1
tin 1
ểu 1
bu@@ 1
nữ 1
ũ 1
&apos; 0.5371850293458211
nhiệm 1
ám 1
ki@@ 1
ảo 1
ul@@ 0.5865816721616854
tiểu 1
điện 1
sách 1
Nhật 1
oc@@ 0.9538804319704337
nói 1
Vào 1
biết 1
phẩm 1
sáng 1
thay 1
tăng 1
ử 1
áo 1
châu 1
bảo 1
ển 1
z@@ 0.4420069535214307
biến 1
ong 1
ca 1
trưởng 1
nguyên 1
is@@ 0.5168454099200884
Thái 1
báo 1
đều 1
ộc 1
3@@ 1
mục 1
vẫn 1
ensis 1
âu 1
cứu 1
thi 1
gần 1
trọng 1
đảo 1
amp 1
út 1
tình 1
ò 1
ana 1
chơi 1
thu 1
ích 1
tiến 1
le@@ 0.420569635412306
cá 1
giá 1
bài 1
Bộ 1
đặt 1
tiêu 1
la 0.08598528057606834
thân 1
ù 1
tương 1
nay 1
tư 1
chi@@ 1
id@@ 0.7188754872821135
nhóm 1
Ngày 1
dự 1
nhỏ 1
ưu 1
tìm 1
tổng 1
Ar@@ 0.9636126033317434
phòng 1
ồng 1
Hi@@ 1
il@@ 0.6088748853261783
dùng 1
ấp 1
ả 1
ảy 1
em 1
ẻ 1
bắc 1
ừng 1
ngoài 1
ay 1
lịch 1
đông 1
de 0.03805213651435535
hòa 1
bà 1
bên 1
tài 1
hậu 1
nổi 1
ửa 1
màu 1
to@@ 0.8835211653296748
al 0.17434774991337265
ro@@ 0.6238429527758288
ạc 1
ỏ@@ 1
dẫn 1
Vi@@ 1
ệ 1
óng 1
quả 1
phong 1
ề 1
k 0.4941499401503811
tuổi 1
tinh 1
Dân 1
phục 1
kỷ 1
ố 1
l 0.43933145918585087
biểu 1
đưa 1
sát 1
đời 1
Tuy 1
đình 1
viết 1
ực 1
ính 1
ap@@ 0.5667851654663891
ấy 1
ni@@ 1
tục 1
Thành 1
giao 1
d 0.29594827078660263
ea 1
&#93; 1
ức 1
Hà 1
ậu 1
4@@ 1
ắt 1
miền 1
mang 1
Bản 1
ar 0.3352805525607292
quận 1
em@@ 0.5186851246104496
yếu 1
mùa 1
hát 1
ru@@ 1
Đi@@ 1
giữ 1
Hoàng 1
rộng 1
tướng 1
trang 1
vô 1
di 1
im@@ 0.3803266581631533
thương 1
liệu 1
ốt 1
sông 1
ad@@ 0.3323712461420947
&#91; 1
² 1
bán 1
ạp 1
nhập 1
êm 1
ộ 1
quyết 1
so@@ 0.9406000905274375
từng 1
5@@ 1
dựng 1
Z@@ 0.6263979559991643
bất 1
đóng 1
tấn 1
sở 1
ủng 1
bỏ 1
thần 1
Dương 1
quá 1
ượng 1
phụ 1
ab@@ 0.40319016585046696
es@@ 0.44898403635451184
Xã 1
es 0.10272203404972839
ược 1
ĩnh 1
chiếc 1
chương 1
viện 1
ach@@ 0.6852639289781876
ản 1
Di@@ 1
ội 1
dù 1
ẳng 1
Al@@ 0.6149867336542926
òng 1
thắng 1
câu 1
nghệ 1
vận 1
Hải 1
ắng 1
Văn 1
hoàn 1
w@@ 0.2528319012389367
nhiệt 1
Cộng 1
tra 1
2010 1
Theo 1
Độ 1
ak@@ 0.6691290837263435
vai 1
ầu 1
j@@ 0.4305344172560612
binh 1
ủy 1
lạc 1
xây 1
khí 1
ột 1
av@@ 0.5629973094955684
ữ 1
cung 1
cử 1
it@@ 0.342360565628477
ngh@@ 1
áng 1
cổ 1
ịnh 1
20 1
ồ 1
tho@@ 1
vệ 1
nào 1
è@@ 1
Ấn 1
ig@@ 0.5042685086431777
um@@ 0.583679751687114
giống 1
ọ 1
hạng 1
xác 1
Tổng 1
x 0.7744510066124608
ty 1
tiền 1
Nguyễn 1
ợ 1
ỉnh 1
et@@ 0.4672332046690025
yl@@ 1
hoàng 1
trò 1
vua 1
f@@ 0.19129712739547153
Bình 1
ơi 1
mở 1
ặng 1
ế 1
2@@ 1
nh 1
Mar@@ 0.6703955546170989
Minh 1
Những 1
úng 1
ạnh 1
tây 1
sân 1
ừa 1
ngữ 1
chống 1
hướng 1
ấm 1
chung 1
cái 1
trợ 1
làng 1
chiếm 1
chưa 1
Từ 1
el 0.11042274985426065
hộ 1
ghi 1
ma 1
ạ 1
tượng 1
ã 1
Ban 1
cộng 1
giả 1
minh 1
ựa 1
ter@@ 0.48202613012539675
ổi 1
us@@ 0.4231003898495992
ina 1
po@@ 0.514083092534098
đạt 1
mất 1
triệu 1
bi@@ 0.7292175818117038
dạng 1
An@@ 0.5917415570655107
un@@ 0.2905045387785537
ưởng 1
A 0.4930033303207664
kiến 1
phản 1
quản 1
bệnh 1
ụ@@ 1
mạnh 1
ãi 1
sang 1
chết 1
uyện 1
ký 1
hạn 1
lúc 1
6@@ 1
Quân 1
18@@ 0.934944935738353
Ho@@ 1
giờ 1
tộc 1
xe 1
cảnh 1
lãnh 1
õ 1
ít 1
chuy@@ 1
gây 1
ượt 1
ec@@ 0.47060765098521795
nguồn 1
chứng 1
da 0.8292883280628099
kể 1
kích 1
ứa 1
nghiên 1
od@@ 1
chia 1
trấn 1
kiện 1
Br@@ 0.7803550983271033
Tri@@ 1
lệ 1
tất 1
amb@@ 1
Chúng 1
đoạn 1
uyên 1
ồn 1
ngôi 1
ir@@ 0.598829712167036
ù@@ 1
hữu 1
thư 1
lưu 1
yêu 1
Khi 1
vương 1
tay 1
cây 1
7@@ 1
ĩ 1
chân 1
Vương 1
ặc 1
vòng 1
lu@@ 1
thuyết 1
giúp 1
phép 1
thêm 1
Nga 1
D 1
Chính 1
đi@@ 1
ắp 1
15 1
17@@ 0.7632301440603525
Ba 1
ỡ 1
ềm 1
mi@@ 1
hi 1
Châu 1
ạng 1
độc 1
thích 1
phá 1
trực 1
mỗi 1
Sơn 1
Âu 1
si@@ 0.39950649062352434
g 0.4702862042108232
hưởng 1
vi@@ 0.4645468321096036
vậy 1
chọn 1
ăm 1
ệu 1
The 0.1071747708206987
ây 1
khỏi 1
Sự 1
sắc 1
sư 1
òn 1
Hội 1
so 1
cảm 1
og@@ 0.9651490742860057
ọa 1
vấn 1
yr@@ 1
Chiến 1
ẹ@@ 1
ệp 1
vi 1
cần 1
hết 1
Giải 1
cu@@ 0.8956019689955018
Nhà 1
tốt 1
địch 1
luật 1
st@@ 0.17967677310313243
cư 1
La 0.41643839326855675
ó@@ 1
yc@@ 1
xem 1
ẫu 1
ep@@ 0.7579393561440749
ẽ 1
á@@ 0.8381080651211327
nội 1
xếp 1
ae 1
tỷ 1
sao 1
ạo 1
lấy 1
ớ@@ 1
An 1
gốc 1
khả 1
quy 1
30 1
2011 1
ri@@ 0.5335371591216079
I 0.7083333416688257
ự 1
ể 1
dương 1
chí 1
mạng 1
as 0.0850090840565017
Hu@@ 1
òa 1
9@@ 1
and@@ 0.5998877751690671
giành 1
tu@@ 1
Thanh 1
Thi@@ 1
hu@@ 1
ĩa 1
Sh@@ 1
ing 0.07903913279953961
St@@ 0.5165315700039886
núi 1
trai 1
mu@@ 1
mật 1
Cu@@ 1
Người 1
mắt 1
8@@ 1
18 1
bàn 1
triều 1
Đây 1
úa 1
ẩm 1
cố 1
et 0.09310172736052835
niên 1
19 1
giảm 1
huy 1
or 0.1662275054981194
ọng 1
khai 1
Nhĩ 1
Quận 1
ầy 1
lời 1
tuyến 1
at 0.12462131705980532
ine 0.3604677725289081
ìn 1
lệnh 1
au@@ 0.39776133361318805
ếm 1
kho@@ 1
é@@ 0.2537700615287399
P 1
z 0.43798334284460944
ễ 1
Đảng 1
ang@@ 0.4741769382672498
khiến 1
lin@@ 0.8960823355581861
khách 1
oph@@ 1
Nha 1
cáo 1
Thổ 1
trẻ 1
bầu 1
ob@@ 0.644222487318711
ne@@ 0.5286108330245786
duy 1
Mã 1
16 1
àm 1
thảo 1
ed@@ 0.4105825662737741
Q@@ 1
vũ 1
sức 1
Thế 1
Tân 1
ão 1
os 0.21449368629931714
bại 1
Lo@@ 1
tuần 1
chuyên 1
ut@@ 0.474868226193939
ngoại 1
Hy@@ 1
óc 1
đa 1
Tháng 1
... 1
14 1
ay@@ 0.756762601192523
ua 1
eg@@ 0.42054937255314784
éo 1
óa 1
all@@ 0.6139332029292969
ọ@@ 1
chu@@ 1
đồ 1
dục 1
môi 1
album 1
ica 0.81313456138778
ặt 1
Nhân 1
Nội 1
ov@@ 0.9221649355497076
ch 0.5279416787721057
ỗi 1
Lý 1
quay 1
riêng 1
chuẩn 1
ơn 1
ễn 1
T 1
phổ 1
Tại 1
thiên 1
đới 1
bo@@ 0.6460845355574323
thúc 1
uyền 1
gặp 1
đế 1
of 0.026571688865843067
13 1
the 0.01501972986594281
hầu 1
Xô 1
nghiệm 1
ày 1
Do 1
lớp 1
ởi 1
nghị 1
thanh 1
lợi 1
hạt 1
Long 1
im 0.2237504731446978
au 0.2754086366977042
Phi 1
chữ 1
17 1
ẩn 1
ưỡ@@ 1
doanh 1
lễ 1
nền 1
ịch 1
son 0.2580669548061323
xuống 1
Le@@ 0.6868859655801771
ặ@@ 1
chạy 1
ụy 1
C 0.8259259070204025
Ki@@ 1
ệm 1
é 0.19931820266111053
phiên 1
ét 1
era 0.6688672842056
ưa 1
ép 1
to 0.04078617763500885
Danh 1
ậm 1
25 1
biên 1
du 0.1783749379371203
ran@@ 0.7818522928732763
ùa 1
thái 1
ys@@ 1
ã@@ 1
ộ@@ 1
Lịch 1
gái 1
ụng 1
atus 1
bổ 1
ón 1
kiểm 1
w 0.42243109213898555
vây 1
16@@ 0.7103488136226257
cha 1
Hòa 1
Bi@@ 1
ảm 1
dòng 1
co@@ 0.32896897559772764
tồn 1
ới 1
luận 1
Hán 1
tưởng 1
Hồ 1
rồi 1
ế@@ 1
muốn 1
v 1
tuyên 1
thấp 1
Car@@ 0.7390929644782913
vàng 1
Đế 1
ắm 1
ình 1
10@@ 1
and 0.027363780091376837
ah@@ 0.6810606586045461
New 0.6652116898920047
tiết 1
mọi 1
khẩu 1
cực 1
Á 1
Giáo 1
tức 1
Li@@ 1
đứng 1
per@@ 0.3115889819034821
B 0.9819201397507196
cửa 1
tịch 1
II 1
Cr@@ 1
nhanh 1
na 0.9408998619644967
2007 1
br@@ 0.3239633250797391
ũng 1
ê@@ 1
Lu@@ 1
ok@@ 0.7799875292663024
giám 1
Ngoài 1
Trường 1
mức 1
ne 0.3625608247401547
mẹ 1
thờ 1
uy@@ 1
ô@@ 1
coi 1
ãn 1
Cer@@ 1
yp@@ 1
trúc 1
Trần 1
thất 1
đáng 1
ens 0.5745598258698037
dụ 1
15@@ 0.7779617738316427
Có 1
nữa 1
kỹ 1
dựa 1
cận 1
S 0.952350669567731
phi 1
giáp 1
giai 1
ngay 1
mét 1
Hồng 1
â@@ 1
mặc 1
le 0.07606871220170058
hạ 1
ou@@ 0.5435645756609484
đôi 1
tri@@ 0.5286463789479589
Nguyên 1
bảng 1
tối 1
Chi@@ 1
quần 1
Bo@@ 0.7218308148112981
ya 0.7834222759751782
sa 0.6658096708053047
Ne@@ 0.9835586484246659
ói 1
gr@@ 0.3300760188394577
áu 1
quanh 1
luy@@ 1
phái 1
lâu 1
dung 1
thủy 1
1.@@ 1
tuyển 1
nhện 1
Par@@ 0.6215640032118028
re@@ 0.08295265705225695
phóng 1
má@@ 1
Thiên 1
ãng 1
Hàn 1
21 1
lục 1
vài 1
nhằm 1
un 0.11010298839633723
ella 1
2006 1
2008 0.955857301511875
El@@ 0.9880455091837724
Đồng 1
ent@@ 0.1870047629374954
uc@@ 0.814455492519166
optera 1
Ý 1
24 1
ỹ 1
ber@@ 0.5107133268248388
ik@@ 0.6906730459357314
ợi 1
Kar@@ 1
ợ@@ 1
Co@@ 0.5855638619279467
az@@ 0.6860971063058002
ton 0.6374455775070048
Gr@@ 0.6557414847325463
Sch@@ 0.329334554968427
Ở 1
dae 1
osa 1
eb@@ 0.4097384178406698
xa 1
ỏi 1
it 0.12903713070596903
sh@@ 0.38571819683105185
ễ@@ 1
eo 1
alis 1
kim 1
ell@@ 0.5106349441249183
ự@@ 1
ử@@ 1
car@@ 0.4971718872174736
1@@ 0.7700969057464795
14@@ 0.9559879322933809
50 1
2016 0.8984507039755476
ie 0.2328092913649192
Geometr@@ 1
ữa 1
M 0.9200298246536944
ú@@ 1
men@@ 0.6763163621916669
Kim 1
ểm 1
Ủ@@ 1
anth@@ 1
ad 0.36103651513982654
ath@@ 0.6395089017848832
end@@ 0.3821548084144847
23 1
Cao 1
ides 1
ọn 1
2009 0.8490191708708091
ati@@ 0.45270105618473316
ass@@ 0.34908671135842023
nu@@ 1
ra@@ 0.46702740147034216
000 1
ẫn 1
pl@@ 0.25534290810850996
ev@@ 0.3489293113691018
2004 1
13@@ 0.9273427925305179
ườ@@ 1
22 1
man 0.45174186433627517
2015 0.8290800675535711
ora 1
Bar@@ 0.8304315877415025
gh@@ 1
Á@@ 1
è 1
ich@@ 0.5651839733321399
2000 1
ari@@ 0.7024770284055233
no@@ 0.6121462291402441
As@@ 0.914666927675233
2014 0.7920092108219405
par@@ 0.23527631326127593
ur 0.6029287473948118
la@@ 0.5429010672067984
2005 1
r 0.5426846516395029
31 1
0 0.9111120633896438
Pr@@ 0.6048372602714943
nhi@@ 1
2012 0.7710057037273973
ci@@ 0.34903360118669036
ka 1
b 0.5268089323138605
ưới 1
O 0.887791660694482
In@@ 0.3191772800502583
one 0.20497391410618443
đo@@ 1
se@@ 0.21739036227626016
land 0.4291534528709001
Am@@ 0.708838555879182
2017 0.8521377512813009
Per@@ 0.8061912872347655
octu@@ 1
hy@@ 1
100 1
2013 0.7823114501482599
40 1
do@@ 0.44263261637519397
1999 1
F 0.8816823605121591
ệc 1
Mal@@ 1
Mi@@ 1
2018 0.8071932466408235
Con@@ 0.36802180231040543
28 1
ếp 1
ò@@ 1
27 1
ằng 1
26 1
Or@@ 0.5757087151374786
2019 0.8514418106767753
ena 1
Chr@@ 1
Cal@@ 1
hiệ@@ 1
To@@ 1
12@@ 0.8608977337769872
khi@@ 1
ter 0.16991100675547977
0@@ 1
ướng 1
man@@ 0.3508987184434383
Pol@@ 0.7164340468520373
E 0.7872940127357994
ầ@@ 1
Ú@@ 1
ổ@@ 1
ẩ@@ 1
aria 1
Mo@@ 0.6398656321173743
tic@@ 0.7999865644552097
gt 0.6647240688626557
oni@@ 1
Ro@@ 0.6250667272580683
de@@ 0.20236524266112962
te 0.09661889265381053
mm 1
,@@ 1
ver@@ 0.1295155624408891
V 1
lt 0.8930270691705352
ỷ 1
_ 0.7317011742130212
Man@@ 0.6318995188891772
U 1
Mon@@ 0.5827614062757764
song 1
aw@@ 0.5698914566721446
onia 1
mar@@ 0.31069620716109264
te@@ 0.279384686095802
pi@@ 0.37970904321247806
tia 1
fl@@ 0.4914846886108684
ura 1
ist@@ 0.41269232448163734
va 1
af@@ 0.29002787158483706
ly 0.1680660957825415
29 1
Cor@@ 0.7135040179978149
ừ 1
CN 1
ẵ@@ 1
Gu@@ 0.6376685896998431
Tu@@ 1
gu@@ 0.416942942607319
Se@@ 0.5081302075413301
fol@@ 0.804936092444244
ổng 1
2001 1
ing@@ 0.39553639191017825
re 0.23265819962048606
f 0.2876857543993377
tuy@@ 1
L 0.5650738518661986
aka 1
ten@@ 0.33793596911134804
ed 0.02898735698727269
ín 1
ill@@ 0.4411889354330143
ỵ 1
ũ@@ 1
if@@ 0.5232708648463098
tín 1
inc@@ 0.4349250527944988
2020 0.7685717661692146
2.@@ 1
Col@@ 0.6400656882766012
ard 0.33076903610553365
Be@@ 0.35261342203485996
he 0.12536637290115893
N 0.8802009377908288
der@@ 0.29858065249261645
ậy 1
àu 1
US@@ 1
ươ@@ 1
õ@@ 1
ong@@ 0.6060703595465642
ol 0.7419808897365958
rich@@ 1
G 1
60 1
ẹ 1
ama 0.8898959540916628
Ad@@ 0.4846189906526774
ma@@ 0.339573262886133
Ere@@ 1
ha 0.8459728635905732
ota 1
ượ@@ 1
con@@ 0.15723340772205366
= 0.9148652531245792
il 0.14954534242596726
Ma@@ 0.6545974091507861
ạy 1
dia 1
2002 0.9591670555317309
20@@ 0.9548907000549484
ium 1
ly@@ 1
ano 0.5110961842906724
ax@@ 1
ara 1
ười 1
Re@@ 0.25576401032896406
ex 1
2003 0.9514202636927568
sch@@ 0.15564054143601105
ug@@ 0.6116510243048358
ox@@ 1
ic 0.26201020637753425
pr@@ 0.20816569404639543
Con 1
League 0.8772337288084514
ặp 1
Dr@@ 1
mo@@ 0.2771612201653948
Sal@@ 0.9242304182038165
óm 1
R 0.6084467057806037
ak 0.6357793264795238
ớ 1
ba@@ 0.6259994959203106
oma 1
só@@ 1
lo 0.3756152667459273
ộng 1
ệnh 1
ice 0.359933978222754
ley 0.5531166825145762
0,@@ 1
1,@@ 1
ngu@@ 1
Mor@@ 0.7183070476183057
ib@@ 0.5429070990256263
est@@ 0.19721772414870603
Ser@@ 0.6027188137175393
ow@@ 0.44837447278288317
San 0.8156113860290106
sp@@ 0.2470871480858427
amp@@ 0.6841152530560847
ali@@ 0.45514962946182863
H 1
che 0.44500405068989113
ala 1
pha 1
ell 0.492520974805884
185@@ 0.9967945758074045
iz@@ 0.31901227319036357
1990 1
oth@@ 1
úp 1
tru@@ 1
pu@@ 0.5643175985872129
ers 0.09491424177474404
ov 1
Er@@ 0.31967469603298926
Her@@ 0.4907848287788444
cm 1
hiên 1
aur@@ 1
eli@@ 1
enn@@ 0.5392369245923259
III 1
ate 0.1344402208682456
tu 1
ila 1
ii 1
Su@@ 0.774942286473602
0.000 1
Du@@ 1
2,@@ 1
ant@@ 0.3608393341875287
ki 1
Pl@@ 0.5913584909128797
ans 0.22880780278478055
! 0.8344887329557804
huy@@ 1
iv@@ 0.3711947958541768
ex@@ 0.13193870292029344
se 0.06282658450011804
80 1
Pal@@ 0.9475831754743654
lum 1
ff@@ 0.3246617998931493
ga 1
Sp@@ 0.42885324706199973
aj@@ 0.6258420871929538
&#124; 1
ứ@@ 1
John 0.569815248672218
ub@@ 0.743479134084015
ướ@@ 1
och@@ 1
anus 1
Com@@ 0.2779902935601861
Eu@@ 1
oh@@ 0.7890556578576378
uch@@ 0.7589636872930055
ola 1
ino 0.6032705493484277
ah 0.8778370048075205
3.@@ 1
lar@@ 0.4924864663810401
ary 0.22002228715254643
Hol@@ 0.7115314120088303
eri 1
Kr@@ 0.7905120079699118
ili@@ 0.425908431805761
ania 1
nat@@ 1
né@@ 1
Har@@ 0.7116903346055697
En@@ 0.4704947827146705
1998 0.9639416531752277
uyết 1
ae@@ 1
K 1
ann@@ 0.3287895890502701
Ber@@ 0.5002144060307162
lis 1
Ac@@ 0.595896706641159
? 1
1945 1
ler 0.36692914187239134
lan@@ 0.5650411388986073
des 0.04065685875874024
bia 1
Nor@@ 0.41945799184147864
C. 1
ita 0.9073427491210027
70 1
formula 0.6121743778784198
ậ@@ 1
iss@@ 0.5715149709523197
tan 1
ation 0.0524266939528953
Po@@ 0.5741085114339479
í@@ 0.30744466149491445
ta@@ 0.37667171348745704
pol@@ 0.6270336502409789
cr@@ 0.29946564405224996
ula 1
Mac@@ 1
Si@@ 0.7267231105270185
ve 0.09821897743556739
ich 0.4713759949316263
du@@ 0.42704800227361794
cor@@ 0.29216454806814895
De@@ 0.32990219370513085
X 1
1997 0.9873037200272826
ym@@ 0.7795077489785588
ok 0.8885645599409736
quy@@ 1
ố@@ 1
ek@@ 0.27673201260892494
yn@@ 0.9852072997434533
Mel@@ 1
pe@@ 0.3483304426736694
video 1
ima 1
mon@@ 0.2142203752429423
ai@@ 0.7273219401061249
Cas@@ 1
184@@ 1
id 0.43699496861430714
2021 0.6955523932889583
90 1
+ 1
inae 1
Canada 1
York 0.551543479706684
ost@@ 1
atr@@ 1
Ver@@ 0.17077093800653123
Te@@ 0.7485663577244311
Y 1
dr@@ 0.33301248911136766
ys 1
ey 0.5840074826296837
lan 1
1980 1
ei 1
1991 1
Ste@@ 0.646693698451536
ind@@ 0.4205407613473351
co 0.4111389813059141
gen@@ 0.19758172907340343
Paris 0.8324395779979818
° 1
35 1
he@@ 0.21283614715573704
ore 0.47446231299274055
He@@ 0.4047199770051358
êng 1
no 0.2160995965873801
sil 1
ani 1
Bur@@ 0.6058851398152101
ona 1
apo@@ 1
ick 0.4683190277819615
​ 1
ense 1
Â@@ 1
teh@@ 1
ệ@@ 1
Tor@@ 0.8674752564184691
inn@@ 0.5631515660074924
ằ@@ 1
ía 0.2532754648277655
ce 0.13858198687355092
ti 0.7488470614354584
1996 0.9004467826100121
Tran@@ 1
ale 0.15578693456766277
Camp@@ 1
ey@@ 0.8601924008529066
Me@@ 0.4723172639416574
him 0.3790472596868147
sc@@ 0.44808502388820376
ard@@ 0.3779191713343826
Saint 0.5996375584683609
ud@@ 0.5097255887445564
Bel@@ 0.599743877841154
io 0.5137124310570924
und@@ 0.2340700033260876
3,@@ 1
ida 0.6686716051259712
uk@@ 0.6428525363848027
1995 0.9141027776369867
ori@@ 0.5632171562980779
ines 0.5961940464841752
1975 1
str@@ 0.22121546027177832
ini 0.690387571439032
son@@ 0.5932810862437897
Bal@@ 0.9397514384879772
awa 1
be@@ 0.11262919306243745
sub@@ 0.29340712440779576
World 0.4471840850546452
1992 0.8890821779091288
min@@ 0.20837593963728193
ợp 1
los@@ 1
Ni@@ 1
ie@@ 0.3477924988175925
200 1
Mc@@ 0.6520293629889075
dium 1
har@@ 0.618373197112034
wa 0.8596908554485403
25@@ 0.8318360940074461
tis 1
mer@@ 0.3178555518950908
unc@@ 0.5852211968214852
Pi@@ 1
li 1
For@@ 0.3509819876898584
ent 0.0630005799972845
Bor@@ 0.7973854356550654
ỗ@@ 1
Pe@@ 0.5774080423092849
Lim@@ 1
Pro@@ 0.5141657982433468
za 0.5649950187572855
eng@@ 0.23713080701027942
pes 1
1993 0.9233639557419996
Do@@ 1
ł@@ 1
tus 1
32 1
Bul@@ 1
pa 1
ion 0.2802421962407739
mac@@ 1
Cy@@ 1
1994 0.851458402353031
.000 1
vir@@ 1
Sy@@ 0.861980188564975
Ir@@ 0.6184961041395576
ada 0.17155471192041272
opsis 1
dro@@ 0.7062705275642963
Sc@@ 1
eri@@ 1
ens@@ 0.21290481857333118
vo@@ 0.3700934911706667
5.@@ 1
bar@@ 0.39295590993081714
1970 0.9817879607386168
Brasil 1
lia 1
der 0.019691573205951184
ser@@ 0.2847049947112626
Mas@@ 0.7334485216527906
hô@@ 1
A.@@ 1
So@@ 0.47068025277036285
ừ@@ 1
me@@ 0.15308284847485443
Ab@@ 0.2659140927443455
Rh@@ 1
ire 0.2728419789958634
Mer@@ 0.7807810355157244
ke 0.38523928478394087
Rom@@ 0.887663401739496
sia 1
olo@@ 1
Str@@ 0.451515839835122
sa@@ 0.35450030388633996
Cup 0.8537844153768939
ons 0.14161383720866397
lã@@ 1
-@@ 0.6820012951815903
45 1
38 1
A. 1
4.@@ 1
les 0.04759548287847021
act@@ 1
Ả 1
ner 0.22225050217895326
ord@@ 0.40336842152493463
all 0.13912733304101674
Hal@@ 1
ơ@@ 1
aus@@ 0.20192302953920543
1960 1
Philipp@@ 1
500 1
Ag@@ 1
can 0.3230337637924733
aci@@ 0.3969358030689861
19@@ 0.7533506150144763
eh@@ 0.1915055456579556
Mil@@ 0.893904063558941
1989 0.8938614101879228
game 0.5557751507307804
su 0.12915845748200583
lui 0.6977417250478615
ẫ@@ 1
can@@ 0.41055563872769224
Sam@@ 1
Bl@@ 0.6355246482553849
36 1
anc@@ 0.26090038438351487
odes 1
eus 1
ìm 1
Lin@@ 0.9952917573280506
od 0.2700167273834482
by 0.03741051251946212
oa 1
Wil@@ 0.651181840281695
gar@@ 0.5405049328272091
“ 0.12121519602375179
cal@@ 0.5658256048065511
Val@@ 0.5838131736295168
Mad@@ 0.9892596865809457
California 1
Tur@@ 0.5271085186855242
st 0.17396686353098254
pp@@ 0.3981831508194248
” 0.38575849827318354
Is@@ 0.5199501099370172
Cl@@ 0.6065357116482711
ile 0.21855503124092168
Fre@@ 0.3767801913764039
yan@@ 1
TV 0.7722340408002675
sk@@ 0.5878208530506032
Sing@@ 1
th 0.1065353209349076
33 1
ha@@ 0.6435422795855477
me 0.2042703568088391
ữu 1
Mos@@ 0.9974269853179136
Char@@ 0.5926496165258615
aya 1
ko@@ 0.9164138101540473
37 1
cel@@ 0.7836270066369114
ster@@ 0.650803675536892
Ale@@ 1
Ex@@ 0.3278031171743554
ō@@ 1
oy@@ 0.45454169386756293
FC 0.8781597467643492
IV 1
1988 0.8924666977700182
Meg@@ 1
bl@@ 0.20943593597250834
34 1
ō 1
Ben@@ 0.8149328048626361
9,@@ 1
up@@ 0.39503237275028497
elle 0.1384417093930327
Sar@@ 1
pal@@ 0.7878782196148023
ema 1
ater@@ 1
ts 0.0851409549648785
War@@ 0.9604026204593124
col@@ 0.21025083319049448
At@@ 0.6975298252005512
24@@ 0.9873353657691292
Gal@@ 0.7522259632243472
48 1
75 1
xu@@ 1
ash@@ 0.7913334456694905
.. 1
com@@ 0.11528287870990035
duy@@ 1
cus 1
Mag@@ 0.624260716246959
Cam@@ 0.9493326468471255
Phil@@ 0.9353115324550563
ì@@ 1
age 0.07663261649372935
eta 1
ane 0.556809010200355
mer 0.3065430631432929
ess@@ 0.22721208837990645
ui 1
por@@ 0.25809579695929447
Ang@@ 0.45655315289215
Ger@@ 0.3892986482238199
eter@@ 0.8673291045205224
65 1
ung@@ 0.41042794291227735
Hung@@ 1
Gre@@ 0.5165310555884606
ler@@ 0.2939940939562966
ir 0.20421118881426
ko 1
kia 1
berg 0.4759368037325421
ani@@ 0.9589513963968853
ek 0.36859052227451133
Fran@@ 0.5859360863261673
are 0.06552535090574174
Go@@ 0.5990686464621953
ge 0.12464456713883651
illa 0.7029136609290896
1986 0.8932685428252453
ro 0.7009473481364927
seud@@ 1
res@@ 0.11060975132676105
Bol@@ 1
fer@@ 0.21193417509862228
uz@@ 0.683183480415067
nia 1
den 0.03969677261846409
ene 0.29391736392880274
web 1
26@@ 1
adi@@ 0.41532451119765124
ski 1
san 1
ick@@ 0.315937227622076
ira 1
est 0.03416035177654474
On@@ 0.8141909949977515
phe 1
ales 0.13267723300584494
ez@@ 0.505060541415378
sen 0.43506868379565705
Mat@@ 0.5929771010464581
Can@@ 0.7678149385089399
Gar@@ 0.6562614069747083
eph@@ 1
q 1
mel@@ 1
ford 0.5554140816325139
inus 1
1950 0.9503156749278265
ri 1
4,@@ 1
Ru@@ 1
ime 0.6837902842353836
1987 0.8551183357836017
fr@@ 0.20871206974868142
asi@@ 0.6565948268181493
Mu@@ 1
Bu@@ 0.6924240552645184
ight 0.20903084539313393
be 0.07740282520013325
ish@@ 0.36490682723714163
yo 1
1985 0.8747445322334994
Ngo@@ 1
ros@@ 0.7200017796855249
1942 1
United 0.2596327403986594
39 1
cul@@ 0.2665189132428757
én 1
tic 0.39562265059824336
Min@@ 0.3552946372795511
kg 1
gen 0.43511187524886497
30@@ 0.9172319785447052
ni 0.6555550231493099
ge@@ 0.14003175747856894
We@@ 0.3701205581142053
tar@@ 0.33963725217605323
cer@@ 0.26423977334668947
alb@@ 0.7277899525135095
Jo@@ 0.6503073625582781
anga 1
Fr@@ 0.33366793460487143
Ap@@ 1
iy@@ 1
Sa@@ 0.9253167102364794
van 0.9658607039582741
dis@@ 0.08809960623097803
ack@@ 0.31053833893046534
ide 0.6014986401844169
Por@@ 0.6762734595896975
1981 0.9114997621452298
ence 0.11212394484693093
ier@@ 0.32757824035203986
ein 0.091957910476518
tor@@ 0.24504236101490517
ji 1
S.@@ 1
00 0.8706696633837796
ari 0.9660049225829147
5,@@ 1
01 1
1944 0.9194661907577865
tel@@ 0.3372045730396836
Sm@@ 1
1979 0.9069712732024447
Sa 1
1940 1
1984 0.8338415502301806
ỳ@@ 1
180@@ 0.7958047070073502
Ze@@ 0.6267013591624144
Sol@@ 0.6773225522571598
53 1
ant 0.06651775115472514
ver 0.21543549642392018
lor@@ 1
ali 1
Oc@@ 1
Ri@@ 0.7861642234320009
j 0.9435658299598395
Lat@@ 1
abr@@ 1
ot 0.3654889109562702
Indonesia 1
pe 0.25508297981085204
1982 0.8664928384135898
Grand 0.8638850391884695
George 0.6777216343248724
Mich@@ 0.725529263288836
tro@@ 0.28644000849887385
arg@@ 0.5796946684316242
tan@@ 0.5087808934138092
6.@@ 1
’ 0.07133986887497497
Pan@@ 0.9914265445602439
prot@@ 0.2726726778367068
des@@ 0.1568238774861432
55 1
sky 1
47 1
Ç@@ 1
ins@@ 0.29207156075938884
1941 0.948921337411388
von 0.042628010383716296
1983 0.8479165459108258
bon 1
Album 1
ham 0.8206284429003244
ius 1
uri 1
tes 0.17548046079126847
ky 0.7326155632945447
1972 0.8526194951168059
1943 1
Met@@ 0.9072064247021728
52 1
om 0.3941036955116442
Wal@@ 0.5661523591282476
28@@ 1
Ge@@ 0.2386098007661358
ven 0.48524336525883655
27@@ 1
istan 1
bre@@ 0.2653057605450201
rom@@ 0.4868363702442447
aga 1
tim 1
William 0.5876096010896901
1978 0.8731231943886524
Israel 1
ze 0.2702835041109335
7,@@ 1
syl@@ 1
6,@@ 1
James 0.6335812292576517
oto 1
Os@@ 1
Hel@@ 0.9791733020012834
AS@@ 1
ansas 1
1930 1
1976 0.862730130149229
Mis@@ 0.7228656650066895
bor@@ 0.3458096601450058
Sel@@ 1
si 0.5530159455158942
— 0.05576328583137208
oni 1
non 0.46268980956241873
sti@@ 0.32406577874564796
und 0.01893124170411861
300 1
Tok@@ 1
Eri@@ 1
del 0.050716759999368255
Sil@@ 0.764842896580171
Cap@@ 0.6276227863496293
Cro@@ 0.850233348305573
64 1
we@@ 0.1101328427516027
Bro@@ 0.5199660600725706
L. 1
yi 1
ein@@ 0.09824906952649275
7.@@ 1
ker 0.3612603256087549
ủ@@ 1
ce@@ 0.3757631823625652
ame 0.42522859336213686
Tak@@ 1
nis 0.8124237182672334
ip@@ 1
Penn@@ 1
Scot@@ 0.8586565064785937
ace 0.24072046314272183
len@@ 0.608425552139797
ỳ 1
Ros@@ 0.6232795027508691
Ot@@ 0.9298800860664237
Pom@@ 1
ans@@ 0.5482999392944504
Bay@@ 1
Kit@@ 1
iti@@ 0.33819714890121155
burg 0.5779554212830967
ain@@ 0.2700648828431385
yth@@ 1
tom@@ 0.44980004715909344
Mur@@ 0.8445568540200549
Hor@@ 0.7187968986427993
ava 1
Ko@@ 0.9069869839071304
Ur@@ 0.614249099584199
ney 0.5038365468878769
51 1
cl@@ 0.24908842939263978
1968 0.8231955703480156
ite 0.10059601608709445
tha 1
men 0.22297669073825882
Fo@@ 0.4531856199145618
29@@ 1
44 1
Q 1
ze@@ 0.39588235614180367
kar@@ 0.7474140766795763
42 1
aina 1
go@@ 0.18448823051389976
air@@ 0.24063913100932263
1946 0.9847815395784484
Cre@@ 0.7063460551116094
W 0.6064494676190655
ö@@ 0.17687886365988215
km@@ 1
Ox@@ 1
per 0.282789385644454
8.@@ 1
cin@@ 0.6314565571934903
int@@ 0.20440695375299922
ül@@ 0.6945788789444683
sy@@ 0.46111397172839425
isti@@ 0.25516439304257543
Ed@@ 0.49731586870024486
1973 0.8237223053109067
ere 0.24611423704247162
ville 0.3079022833297729
pan@@ 0.5040099211640354
enti@@ 0.1550100170040448
eti@@ 0.600113409644217
Mus@@ 0.3635135994253633
ax 1
Mit@@ 0.5948399924362351
1954 1
00@@ 1
Charles 0.6128256042413064
que 0.022842376200872233
tor 0.18760915598878258
Del@@ 0.7164879697790568
yg@@ 1
Mai 0.8270910587376528
vania 1
Ấ@@ 1
Tar@@ 1
q@@ 0.9742399565473523
aki 1
1974 0.7845813451604404
49 1
sim@@ 0.43087266531065843
1965 0.8892143720036051
ững 1
amm@@ 0.3089424489794115
Pot@@ 1
arr@@ 0.17044798218253682
72 1
Henry 0.8934037829452314
Ath@@ 0.9959991406085417
City 0.3514965250429083
Windows 1
46 1
gl@@ 0.44856131887323397
Ireland 1
ja 0.4457949441619043
opo@@ 1
Ak@@ 0.8113928015876407
ku@@ 0.5852101515369685
M. 1
ih@@ 0.5031424647872252
Al 0.6947003900962753
Kur@@ 0.6611177220055324
ome 0.3042593094703118
Ty@@ 0.9132801398382524
Af@@ 0.850939513258407
ve@@ 0.24727180521124972
… 0.9444653309779685
ops 0.7859482511151374
ance 0.10150523561364304
ou 0.1486917594722044
art 0.19420159684181454
1977 0.802205654309656
ven@@ 0.19353790067273272
05 1
for@@ 0.11388760528882949
43 1
8,@@ 1
85 1
1967 0.8278698735021229
West 0.455542543012009
sen@@ 0.31037110376313565
ẩu 1
Rob@@ 1
58 1
41 1
Ukr@@ 1
nch@@ 1
David 0.589783660082729
1964 0.837318976531323
54 1
San@@ 0.7568938059492201
of@@ 0.34142639976141137
ez 0.4628640401280022
Cat@@ 0.7160335656996438
ase 0.25110115823144125
lang 1
than 0.2296540236525625
AT@@ 1
Robert 0.5842038666343624
1963 0.8945952019917109
entr@@ 0.2379760338058489
Wo@@ 0.5917806196883149
ign@@ 0.21185003528231833
Washington 0.7461286721892852
Tro@@ 0.7727701930114816
esc@@ 0.581568140300345
bur@@ 0.3154735115833063
Andr@@ 1
don@@ 0.5985369392909917
Air@@ 0.7797746760317958
lam 1
Ly@@ 1
sel@@ 0.17072505908662902
form@@ 0.15005970836236285
zi@@ 0.31074923208169414
Đ 1
the@@ 0.2001578707140114
top 0.5377871856355824
1939 0.817583245698349
ue 0.10567731379146096
Haw@@ 1
No@@ 0.5057657894914271
tam 1
ach 0.1568625565699032
ks 0.13258511316718843
ami 1
cur@@ 0.22105516482030788
Es@@ 0.4681771189531654
Mexico 1
Em@@ 0.4825407616108328
may 0.3041051667972376
sk 1
Paul 0.514388677413277
57 1
aland 1
Hau@@ 1
Eur@@ 1
Harr@@ 0.9011087672405208
02 1
56 1
1971 0.7232033745517458
ory 0.17115579332349318
Anth@@ 1
ac 0.6456889939029837
J. 0.98831137034491
ail@@ 0.22656387087237637
New@@ 0.8416835688959582
ke@@ 0.33663326270757876
ast@@ 0.3095215317282811
Des@@ 0.38165212621097877
mag@@ 0.32923736029312733
1920 0.8485600204340525
1969 0.7582232681432072
06 1
ry 0.441603780210748
07 1
phil@@ 1
Dar@@ 0.530708731346355
uba 1
1962 0.8476465171793818
Un@@ 0.2281705225510646
ain 0.16492333079983826
ust@@ 0.7802621009645944
cas@@ 0.2263465487430117
ı@@ 1
Ham@@ 0.7401409633740996
ise 0.1361422870274428
Mes@@ 1
1956 0.8662732765040893
isa 1
mat@@ 0.2153873019778532
04 1
Sen@@ 0.4680352856704661
her@@ 0.14903267090301586
Illinois 1
Je@@ 0.37944793662729176
cap@@ 0.21926124199948918
Mol@@ 1
Louis 0.6708386479538696
88 1
war@@ 0.2826199824726387
My@@ 1
Lee 1
62 1
H. 1
Fl@@ 0.2887643764056633
oz@@ 1
1955 0.9452318528217525
orum 1
Bre@@ 0.5299057909278676
Lit@@ 0.9045899369573501
1966 0.7838091063730618
enz@@ 0.39908858685466925
Na@@ 1
til@@ 0.31335400857960677
Mari@@ 0.7800608171220798
Han@@ 0.8376546158618997
Bak@@ 1
Bang@@ 1
zy@@ 1
Ca@@ 1
ye 0.4662681351434963
67 1
68 1
ill 0.41801474947019346
76 1
86 1
Song 1
Lib@@ 1
sol@@ 0.12393559750242594
Gen@@ 0.6144270072990402
ake 0.5370325383982865
ack 0.2380996006344557
77 1
oi 1
iro 1
uli@@ 1
Gir@@ 0.9319667176957097
br 0.7448430227528324
Sw@@ 0.49772483890278824
Dav@@ 0.8635985698146589
long 0.33533944154266593
09 1
stein 0.604890516244632
S. 1
att@@ 0.11552791768456942
London 0.42273303187019795
ts@@ 0.1704115838893213
Luc@@ 0.9546611138793287
03 1
den@@ 0.27430488478419174
Texas 0.8817849301633726
Ke@@ 0.888600327469109
rec@@ 0.11174594115155771
63 1
ist 0.037918160759584055
sin@@ 0.4259985002382628
dan 0.690348523568349
95 1
1958 0.825770474219022
Vid@@ 1
Nov@@ 1
don 0.9706109732163237
Wat@@ 0.8378792406738381
1947 0.8600521734664122
1936 0.8940322281216587
Juli@@ 0.790158076179478
inter@@ 0.0760306491691123
bas@@ 0.18073350449333214
Plat@@ 0.9802149343111601
hal@@ 0.33650824910560095
J 0.7859476480764978
esia 1
mp@@ 0.4762827313476117
400 0.9945504678442698
Maria 0.9808807939826826
Cop@@ 1
ese 0.17969149464606018
Ter@@ 0.5548000377410156
66 1
Kun@@ 0.7706933635932748
imb@@ 1
ấ@@ 1
179@@ 0.6220928633635707
tig@@ 0.2713669032199546
pop 1
sus 0.19583540391105536
59 1
Tom@@ 0.9080971026334858
61 1
ker@@ 0.8166032640984096
0.@@ 0.4710989450191636
Entertainment 1
ela 0.5376458925450447
otr@@ 1
08 1
ut 0.28697316416328417
chester 1
alia 1
Bas@@ 0.4257534469542797
Dor@@ 0.5162103634442071
pin@@ 0.9878189741110384
Hir@@ 1
× 1
Mah@@ 0.8344922743842667
71 1
Som@@ 0.6734719228940368
tur@@ 0.12033626047855309
1961 0.7902810784768981
Michael 0.6034764705200367
1949 0.8156357039457043
1959 0.8163671810937384
č@@ 1
ure 0.10921233566036068
tung 0.40453441958447783
ian 0.2949478608209366
Thomas 0.5253781835171341
Sem@@ 1
9.@@ 1
gan 1
Austr@@ 0.7693542044712922
yo@@ 0.45274017827350566
hr@@ 0.4597358007950353
ẻ@@ 1
tin@@ 0.7469640711369706
usa 1
Argentina 1
mann 0.39698515088533465
wood 0.5290491424127387
Ohio 1
atia 1
ato 0.45253614163913963
Ol@@ 0.8316239661297732
Vo@@ 0.9414325079153559
edi@@ 0.22860957681442573
err@@ 0.3925323783477377
$ 0.2689524012230173
IN@@ 1
ect@@ 0.51523525901043
ç@@ 0.25904690111611905
87 1
82 1
Billboard 1
ev 1
81 1
Ư@@ 1
Mont@@ 0.6685814092462192
sych@@ 0.8793123051504523
P. 1
1957 0.8156250397997956
ty@@ 0.8849020197292005
Hit@@ 1
ā@@ 0.7664414321193984
Fi@@ 0.49418677773836306
bi 1
pos@@ 0.09625924243380853
1953 0.8618785818346518
mi 0.5870321917192841
igh@@ 0.221543481665145
Astr@@ 1
México 1
Venez@@ 1
UEFA 1
You 0.8690312370169476
Ram@@ 0.7979156156600505
onn@@ 0.16313017376389558
69 1
sil@@ 0.5280514223017614
bert 0.5791020750756116
Gl@@ 0.5037174983406834
ess 0.11306767599064238
ps 0.19404785533023952
79 1
84 1
78 1
89 1
ille 0.3001164923276138
chil@@ 0.6503941015658495
ten 0.04376394070302536
xi@@ 1
our 0.15539132219017823
ý@@ 1
1938 0.7643942465531679
loc@@ 0.1837725764185781
lam@@ 0.29427005014248325
Bru@@ 0.6215449535843846
bel@@ 0.14381125805555156
reg@@ 0.12474496496015292
E. 1
ins 0.1386455774042404
Ky@@ 1
Pas@@ 0.7054294003508301
1948 0.7173179838908422
ade 0.16083838945992074
1937 0.8406305540189444
Sum@@ 0.5967093988712315
73 1
74 1
kl@@ 0.30123475696190805
lov@@ 1
Kon@@ 0.2464501181103007
ito 0.4002083452922996
Ta@@ 0.7860671296833716
ger 0.19494783982937108
ye@@ 0.6854094798553548
83 1
ates 0.13755818891600735
Nic@@ 0.7453807705485807
Pak@@ 1
icul@@ 0.635892169778581
ison 0.2644357901781549
lon@@ 1
Park 0.4203669075953156
sea 0.7221539607047505
1951 0.8687968379378984
tro 0.5479287281647581
ami@@ 0.8223739877487237
củ@@ 1
Ha@@ 0.8600370101422532
Au@@ 0.29916871668014994
Music 0.5474489319112917
ster 0.282734510851338
ab 0.22213332052425086
Sim@@ 0.6348988461854039
anti@@ 0.24990110749977332
ador 0.2526967235617201
Vol@@ 0.5841463228354736
France 0.22425546255568482
idi@@ 0.608025201550578
South 0.2536471768690571
ici@@ 0.1697002017753502
tica 0.38903392195787784
MS 1
aer@@ 1
ech@@ 0.2981869967371933
ES@@ 0.9930753255634234
99 1
ouv@@ 0.26354639330435153
ine@@ 0.5608324843861062
for 0.016729769440995752
1952 0.770517496366388
ush@@ 0.7993156429722018
ern 0.19569002283120113
pul@@ 0.45104241088143054
mor@@ 0.29075847718289155
Kan@@ 0.7793582981137096
estr@@ 0.31706611647498
aine 0.3469947568199288
CA@@ 0.5550010037667487
eria 1
ngo@@ 1
ico 0.1806596634692861
ais 0.28643762627764996
ube 1
uta 1
ref 1
1934 0.8785996794004591
1929 0.8895530522144183
alm@@ 0.36468516584550986
Phili@@ 0.8075745803694053
CD 0.9028495417854033
ike 0.43079313253594975
Nag@@ 1
ger@@ 0.15978654127272657
Sz@@ 1
wan@@ 0.7550651025238605
1935 0.8574733510663214
phy@@ 1
Kal@@ 0.8150166899571946
OS 1
az 0.5391685238342663
Richard 0.6262470400516117
Colomb@@ 1
die 0.015213901495015792
use 0.13210250524181685
Jan@@ 0.7527446790778051
Internet 1
isi@@ 0.16023551598737618
tal@@ 0.4003891771630366
del@@ 0.2631687802003163
Wi@@ 0.44103997807669765
rot@@ 0.6859487115005967
Dol@@ 0.9620372487360833
agn@@ 0.4738905112978313
ul 0.6775773890237147
Berlin 0.4591209580491569
ette 0.3327993344779969
ric@@ 0.5070561419039505
ă@@ 1
Martin 0.6359152549180497
ft 0.33081878836469714
uv@@ 0.40236664189230137
long@@ 0.4408191816649581
ny@@ 1
The@@ 0.23967530889860533
UN@@ 1
98 1
ous 0.08796038639253265
rad@@ 1
yd@@ 1
ept@@ 0.9532942898019329
Ku@@ 1
field 0.2810870824586342
Ô 1
thr@@ 0.4578640227440288
B. 0.6368890035338667
sal@@ 0.312733721380245
eur@@ 0.8507288425120112
din@@ 0.6325728150267579
ré@@ 0.06523440548842743
Kaz@@ 1
š@@ 0.8482649080326308
King 0.4745749858798112
ero 0.300513849990196
pur@@ 0.2888673532143189
92 1
Que@@ 0.48577808786354676
Steph@@ 1
fe@@ 0.14860840278368473
lat@@ 0.21114268757568902
D. 0.8857980950342094
1931 0.9252276084641314
fas@@ 0.7419793002332858
96 1
mil@@ 0.38972954187448194
Pap@@ 0.7939154818877625
Kor@@ 0.42611914237424137
1914 0.8426971420460648
yst@@ 0.966421979911538
Christ@@ 0.4641460380569637
1918 0.7032143892306718
Olympi@@ 0.9882403741637005
var@@ 0.7627252104796127
vit@@ 1
1900 0.9807853596676971
Dre@@ 0.522760730936979
gin@@ 1
eci@@ 0.5329210358665328
Spr@@ 0.4497741863948702
Mak@@ 1
ator 0.29526781731193913
Geor@@ 0.40862969013587946
Ba@@ 1
ova 1
len 0.24391064445548596
ür@@ 0.1768285110317988
itz 0.3445521309669574
Fu@@ 0.9172821666784036
Kir@@ 0.4284402127300069
Mik@@ 1
ace@@ 1
Hon@@ 0.5558877722576384
Edward 0.9469088607630727
Jac@@ 0.8982211877178745
Bos@@ 0.9575699731332457
Fer@@ 0.5896543588730416
Gh@@ 1
m. 1
emb@@ 0.24886874286624827
rock 0.6212795951468925
El 0.0805109055749016
Clar@@ 0.7833015768119276
1912 0.9288913667558008
ern@@ 0.27418046994721784
Los 0.20509788148331123
ego 0.5885517500973293
La@@ 0.5305046299389813
IS@@ 0.7460709825504335
lad@@ 0.5316563078197943
da@@ 1
jeun@@ 1
One 0.38548722733896545
dic@@ 0.2192189541009253
cy@@ 0.6839398491556606
Cle@@ 1
Pic@@ 1
mas@@ 0.19399303857855596
osh@@ 1
Alexand@@ 1
old 0.13653269388488573
Love 0.9128539888945498
Kam@@ 0.9180550498901333
1891 1
Av@@ 0.6716725813941655
did@@ 0.8431908559331509
esh 1
ello 0.6601637283554995
CO@@ 0.950936980822634
eli 1
K. 1
93 1
ć 0.6853033138631501
Pu@@ 0.5264488952522692
Jean 0.3602978148603525
wal@@ 0.34167185347148915
ity 0.07140110042276732
tí@@ 1
atin 0.7880170998128301
ef@@ 0.13240612597207535
tem@@ 0.2220651559628229
hin@@ 0.26277612656810606
sur 0.06926250908270523
Tim@@ 1
una 0.04522734275156608
600 1
Braz@@ 1
Nik@@ 1
97 1
1933 0.6941913754760874
1922 0.8781704111610339
1917 0.8088801588543794
chr@@ 1
Nob@@ 1
ish 0.09871268365802577
mal@@ 0.30268585595089026
fi@@ 0.10663195419431806
1913 0.9853944095246303
ij@@ 1
elec@@ 0.18573047782933322
Ban@@ 0.6714010397449867
Friedrich 0.8569855020147937
Rus@@ 0.2053757650049592
astr@@ 0.5471999257446875
Bus@@ 0.5512913582957936
ado 0.044514251074077985
1932 0.8178574855178231
1924 0.8317328647381308
Andre@@ 0.5879431849035414
Bab@@ 1
Not@@ 0.4944927767032906
Ul@@ 0.6722034993462945
Joseph 0.5348036799541469
oll@@ 0.23870537741059533
ington 0.5338132042156235
les@@ 0.39033498745094364
Pa@@ 0.5978596099260787
ear@@ 0.20567928328936885
1925 0.8634449300434186
ple@@ 0.49111256207148085
via 0.4986364225204105
Nav@@ 0.3953801816595207
1908 1
cons@@ 0.14592165379194297
uela 1
Mot@@ 0.4371063193416368
150 1
Sin@@ 0.8033724151403772
lem@@ 0.374122263332993
91 1
Smith 0.6655015119091752
ond@@ 0.19034278721575576
94 1
ast 0.13152809530561446
ẳ@@ 1
Der@@ 0.7894890608468137
Jackson 1
1919 0.7034253716721388
val@@ 0.17736302581994798
ren@@ 0.13150089631358297
I. 0.7385924721935802
tion 0.032365576908793346
go 0.25536619581871184
1910 0.8936603862264161
1916 1
ci 0.49723318936589567
Lan@@ 1
Le 0.06340730268552221
1905 1
Nguy@@ 1
1911 0.9983639499211967
Son@@ 0.5661224723622441
Nar@@ 1
You@@ 1
hor@@ 0.30128709021079314
ề@@ 1
ony 0.34991175351004644
tim@@ 0.16630186923995452
ular@@ 0.4873117675451707
St. 0.33411865313755745
anz@@ 0.2250646871714647
aul@@ 1
ọi 1
tre 0.14999422960162276
nú@@ 1
Ra@@ 0.768704312715839
ars 0.19091818355638757
Nak@@ 1
way 0.10577898263019365
Top 1
mb@@ 0.3395717262012584
ori 1
Micro@@ 1
cho@@ 0.37428011715313764
Sav@@ 0.8316126244734959
Sou@@ 0.3680105018351264
win 0.32002020751569427
Peter 0.4548763258759459
Ven@@ 0.7104005606325151
F. 1
arm@@ 0.15945487687346216
Lor@@ 0.6214769936475085
sis 1
las 0.04462608449733412
Sak@@ 1
Gor@@ 1
ings 0.10868806930535878
AP@@ 1
CH@@ 1
bul@@ 0.5384036706002887
ber 0.30406705480208635
vel@@ 0.2183866838331361
ör@@ 0.1542381076592848
ther@@ 0.2669344618993738
ck 0.5486172784273748
Ari@@ 0.8066221629915039
Mir@@ 0.787490588735812
800 1
Far@@ 0.4930525721109979
Champi@@ 0.4543097259931965
fal@@ 0.5107674736198908
uma 1
dom@@ 0.33801560270474174
mina 1
uki 1
nam@@ 0.1610069268143213
Ok@@ 1
1927 0.8092694909806714
port 0.11970670825306703
Alb@@ 1
ret@@ 0.2505872916480878
Il@@ 0.8262854961761922
lin 0.8102647440259254
cia 1
ik 0.3013539356909686
anistan 1
ắ@@ 1
1923 0.832359410137649
Tel@@ 0.4940053446658821
Wol@@ 0.505376682966874
Men@@ 0.72279461921179
Thom@@ 1
ago 0.6836574297611001
uti@@ 0.246984373615245
Carol@@ 0.6415921518640828
sta 0.45910786732209247
fus@@ 0.9006136229087532
2022 0.637652884326678
Oli@@ 0.9794091380502725
R. 1
ock 0.4065917324217081
leo 1
DNA 1
Me 1
1906 1
Man 0.6913985780152353
oria 0.9559679285719009
1928 0.7169375545121567
ér@@ 0.10232768557260204
rit@@ 0.2326645746622954
Schl@@ 0.9760354351618452
pic@@ 0.566332811871894
ằm 1
Bon@@ 0.718549100147546
Sur@@ 0.5186040479031512
dec@@ 0.09227891704517524
dy 0.5142096583788378
App@@ 1
off 0.2100479367883997
Kat@@ 0.5882695117765385
Shi@@ 1
ony@@ 0.6899704690933861
eck@@ 0.6371964365866208
Australia 0.38925061254434085
ap 0.4352199970038311
Bri@@ 0.522359461965201
ling 0.29210880138042467
abeth 0.7733799780546129
hip 0.7134492348612406
ho 1
Bat@@ 0.5768675666940054
cat@@ 0.29294222325587216
ista 0.2001702227630853
osp@@ 0.9305661109545713
urg@@ 0.7641981806088849
ny 0.7357927391111593
sul@@ 1
not@@ 0.14098742811629775
ther 0.10995735082244736
De 0.24523688658869852
ath 0.35026163456187936
ilia 1
ı 0.30232247607876617
Super 0.8601616591690303
CO 1
Tam@@ 0.9249004481563933
Simon 1
Z 0.7277353111481333
well 0.12114796777729175
Microsoft 1
eum 0.7154860216124243
oug@@ 0.676311641118569
Kol@@ 0.6531517833460627
Mary 0.6176465342416019
É@@ 0.1859937508932244
icro@@ 1
My 0.929657492425733
BS 1
Wor@@ 0.3431731036199145
iki 0.8652755035248129
sem@@ 0.24077818506445653
Guinea 1
end 0.07723577749563545
pro@@ 0.07992566255176978
Angeles 0.6377100710465556
Op@@ 0.5826594182509404
Columb@@ 0.7634971448251623
ff 0.49986910806834806
uf@@ 0.18781187349782227
amer@@ 0.6899890768611038
1926 0.7442349874686356
eth@@ 0.49049028171650433
Net@@ 0.7061080854437065
andi@@ 1
cit@@ 0.6373287700411936
AR@@ 0.6302859454002626
ń@@ 1
ın@@ 0.834767185705288
igan 0.7798607803547924
lig@@ 0.31861976923000623
let@@ 0.1944632346465717
1909 1
ş@@ 0.35648129768596326
1921 0.7517045779545951
kil@@ 0.5086965032854953
Hot 1
ost 0.15226887655484017
Lam@@ 1
endo 0.2609392547719964
vic@@ 0.17570582255323067
.C. 0.88563194323996
quit@@ 0.4777059791398565
Santa 0.5292694688300268
Les@@ 1
1895 1
net 0.40536329380175934
uke 0.7751534319098274
Dis@@ 0.3603106005809553
Kas@@ 0.9648078323954973
ks@@ 0.4797317951592241
pel@@ 0.34202045748256615
esi 0.5756439746777077
Az@@ 0.9231655099920482
ğ@@ 0.7005811110411019
Chile 1
mar 0.7910956732956799
Francisco 0.5680786485996667
Ứ@@ 1
1915 0.8578076930823054
pen@@ 0.2130132082335511
Florida 0.7454937473421931
char@@ 0.2110427016897719
asa 0.6749758689443011
Reg@@ 0.11396431745737917
Hab@@ 0.9085350866912741
Division 0.33717815377854715
chin@@ 0.8143197854728227
fin@@ 0.05957623672870756
ban@@ 0.18817779127007406
Bah@@ 0.3454079712076374
tol@@ 0.7159303663357739
Ay@@ 0.9934840845249691
ỉ@@ 1
Dem@@ 0.3957322141384436
ele 0.2403702051704809
iger 0.3087359667125717
Prot@@ 0.49858834251143097
BC 0.46045614399919704
Vil@@ 0.8063185157613235
Virginia 0.667477521297835
rol@@ 0.4739772606724026
Jer@@ 0.7213922982418625
bol@@ 0.8434948704742397
Football 0.5353024060016983
SE@@ 0.9062677789236543
NA 1
aca 1
lı 0.9523845583040594
bil@@ 0.12641497871131327
FA 1
Mass@@ 0.577447108697253
Gro@@ 0.4723881409224422
Cur@@ 0.5012662026429702
Pen@@ 0.6342827382535706
Mark 0.684928275325072
els 0.1523924410600631
zo 0.5357820707158398
Win@@ 0.43119218571137186
pil@@ 0.42444304904616026
Pres@@ 0.3256669267639429
yan 0.6161278405029837
anda 0.5648768894999574
vis@@ 0.13960897304522338
ä@@ 0.050214018831922703
asc@@ 0.7868869280670641
tle 0.261588909664525
Got@@ 0.5931558085863444
Mid@@ 0.4542151889539604
mad@@ 0.5441223097010064
enc@@ 0.11955420887540852
tric@@ 0.577312727440566
Eliz@@ 0.9731038915884346
ole 0.26284366518240115
urg 0.46904522625901585
Sho@@ 0.8618564138112851
cá@@ 0.8449384136339231
Roma 1
Tay@@ 0.9282349189301796
Vir@@ 0.708440646857696
ebr@@ 0.6358868191307031
Google 1
ř@@ 1
Arg@@ 1
Rad@@ 0.7916586023388754
Lev@@ 0.8617596660980829
agu@@ 0.4198106730564501
neo 0.81002199181825
Vic@@ 0.4637598212944867
Dev@@ 0.3910590099777258
dor@@ 0.5426756958244952
ü@@ 0.09255974054413968
Fri@@ 0.7752567965820036
Pri@@ 0.2836578675756547
wig 0.7921321433979701
vil@@ 0.6758316107433857
ux 0.202854770534113
FIFA 1
Wh@@ 0.2295167871712952
Pin@@ 0.9030020544067262
elli 0.9061756581589737
met@@ 0.21221462423815984
Rich@@ 0.3832229526056198
Sul@@ 0.9796632635085576
une 0.02648419090851478
Disney 1
ass 0.2178365943117597
Est@@ 0.21349277094625774
She@@ 0.7922204441952702
Pre@@ 0.27323951796338675
Karl 0.6838487125108383
# 0.5449166754895847
Don@@ 0.6711665116714505
Don 0.7975423079975043
ws 0.1270372628937554
eni 1
1903 1
eng 1
COVID 1
tis@@ 0.22748520181125412
cop@@ 0.3315131808170354
Pat@@ 0.7051731004847471
eu@@ 0.8997589067354756
Hil@@ 0.567231522594918
aba 0.18513361483634827
North 0.2125526189753463
ati 0.6697151956344922
Buc@@ 0.9251066895083396
Alexander 0.6643373761994592
1904 0.9337875021023733
Mun@@ 0.7206630165658964
Sab@@ 0.7838422865617233
fer 0.17253465814667618
Black 0.5089512457575186
je@@ 0.19397832264373405
fo@@ 0.1966180558392601
ingen 0.2559232906581645
Indi@@ 0.3379324296278006
Ash@@ 0.8971098947068172
lie 0.42318610449924954
aha 1
Nam@@ 0.87048178276053
Van 0.897208183560058
1907 0.8756544933842596
Eng@@ 0.454901352480602
VI 1
bon@@ 0.8525191860982471
Victoria 0.8366663123477834
wo 0.22837321189347948
Med@@ 0.4348178873482425
cre@@ 0.0740460823121471
1898 1
dem@@ 0.10802781718013942
Gol@@ 0.4671504643882023
Jam@@ 0.9069735831097198
Ka@@ 1
low 0.12800728063381522
ort 0.24683733284358902
1000 0.8820321980481403
ee 0.3728196969136557
nom@@ 0.2764700313611104
Ah@@ 0.7679183107445565
SS 0.7754382359866042
antes 0.16828871346385244
International 0.2298305368845643
arc@@ 1
guit@@ 0.5512411181760966
ste@@ 0.12840544388104266
Bir@@ 0.4596593248759231
ies 0.09758677303326854
1897 1
700 1
gi 1
bro@@ 0.1690193243874689
Nigeria 1
It 0.045086112742698185
mir 0.9272532164265099
kin 0.7855587338966331
wor@@ 0.08446620880672989
Tan@@ 0.8357895814301227
lor 0.8768925957688279
W. 0.8739429426341162
ave 0.15476221877823065
1899 1
Joh@@ 0.5449477176159467
1902 0.9629860198731847
app@@ 0.16044425870612852
ash 0.5139246901560548
Den@@ 0.32322401398579803
Madrid 0.6712865733354495
120 1
Serie 0.881515045292094
bit 0.9018813197835238
Ren@@ 0.39160950868619376
tam@@ 0.4974212879964856
Stu@@ 0.320588185657482
ton@@ 0.6344338490042708
Ran@@ 0.9162823916381857
Tun@@ 0.7683237013199975
ith 0.41217748604897864
amo@@ 0.4825991166301634
Gil@@ 0.7135658505099856
Maur@@ 0.7018091264071433
Hom@@ 0.7016414346834519
my 0.40273212788802787
ope 0.4239634880249595
uh@@ 0.46428798665240856
Sor@@ 0.9295004894015328
isch@@ 0.2144272053684462
shire 0.3922090195869135
aux 0.054088290138763304
DS 1
sburg 0.8248238039002146
Dom@@ 0.5734689967725578
ū@@ 1
umb@@ 0.5981251383636688
uss@@ 0.29928038724281625
kin@@ 0.47208110220723676
alt@@ 0.18557524532891104
Premier 0.8004812640750423
ongo 1
RA@@ 0.652513530662992
aly@@ 0.4208406695868506
c. 1
Air 0.3829866865704161
sé@@ 0.33279066696540816
Lou@@ 0.5292302275000698
1896 1
Tour 0.45258862466179933
ful@@ 0.4441661856522132
vol@@ 0.09864761823147326
adel@@ 0.597950993563105
hum@@ 0.15747662773981677
bal@@ 0.2809295284703461
bus 0.5810523191077228
itz@@ 0.21008035810227552
ca@@ 0.5940561314906381
Carl 0.8756873258016263
DC 1
Ob@@ 0.34668490750116904
Laur@@ 0.5636796704687921
* 0.1739716880224116
sur@@ 0.07581196590395804
onom@@ 0.36639273100873077
we 0.3219087358160172
fur@@ 0.23151998735850166
lip@@ 1
Roc@@ 0.5823980375243752
ange 0.2143781751254583
bach 0.4058688884891424
istr@@ 0.3446947598667947
ika 0.531848593149955
Ả@@ 1
stant@@ 0.9925778098964335
ène 0.3949033624245323
onne 0.39601967941433647
1901 0.9270160075899794
trop@@ 0.4817974706409669
Sto@@ 0.45237120320655505
abil@@ 0.40988758650867646
fa 1
ogr@@ 1
Anti@@ 0.7177331099059859
Cir@@ 0.7653653025081931
acc@@ 0.08526558581454777
ep 0.3206800851351293
Gran@@ 0.5718263264149498
Hay@@ 0.8684875271121731
Records 0.43250811302064823
ett 0.40837907308402455
adr@@ 0.35639067032880983
~ 1
Ş@@ 1
ū 1
Rod@@ 0.61800204888344
Johnson 0.7542640253593362
10.@@ 1
uk 1
Inter@@ 0.1763814929529655
ics 0.12121181291362089
adi 1
Ô@@ 1
Red 0.485537089562924
In 0.017249390261321003
ken@@ 0.3241912163026656
May@@ 0.5067062478303673
1,5 1
chen 0.12608074282518827
eld 0.3197514057654119
po 0.3284151825292991
1894 1
mes@@ 0.31163683635265593
Bern@@ 0.5162315153107527
with 0.011785295429815813
avi@@ 0.5285973222923197
DVD 0.9425349389102786
Ker@@ 0.6887313138832394
Rol@@ 0.4102197796582556
line 0.1282576977992101
Town 0.7298054124298108
ovi@@ 0.6228075559863766
odi@@ 0.5861722161515166
Brit@@ 0.47192827839135054
Stan@@ 0.7165844727004661
Play@@ 0.4526238621037731
ham@@ 0.7749299296928821
name 0.11233007560217763
own 0.164213251245195
van@@ 1
ère 0.07871688021708698
West@@ 0.2698886110393848
Dur@@ 0.5364597803937207
Lud@@ 0.6793389311142858
rel@@ 0.05398608028291773
Italia 1
AC 0.7083045045947596
Star@@ 0.6933461752626436
Frank 0.682339612983905
So 0.52011922813084
iri 1
Dan@@ 0.35539780591440473
Moh@@ 0.7483647522185987
Ci@@ 0.28832763660192545
esti@@ 0.21034143346949447
ester 0.3704689685526887
occ@@ 0.3036796700494056
Pil@@ 0.8363930657000659
wer@@ 0.08686259589918813
Arthur 0.7687976275499383
250 0.9773380171927353
mont 0.5776835733021303
Rog@@ 0.6290924576526111
ais@@ 0.2101122236007568
ier 0.23548349412724412
any@@ 0.4676076703889306
bin 1
Mand@@ 0.9176686651961219
50@@ 1
Jor@@ 0.679769769303715
Dal@@ 1
icia 0.9202828892359148
vari@@ 0.16179106744062907
Fac@@ 0.49971201614895
land@@ 0.16967061928273527
mé@@ 0.16914878835405003
Maz@@ 1
Sk@@ 0.5876231223647558
Bud@@ 0.5321496275273212
ater 0.13155509822441416
san@@ 0.42766260083024077
Í@@ 1
bridge 0.39517723869930477
wi@@ 0.16486981823202104
Tw@@ 0.7978857278539226
zi 0.8566250211771578
té 0.20247103329032196
200@@ 0.8415737949375095
1889 1
Web@@ 0.7430083009541646
hab@@ 0.21107967549855242
Kos@@ 1
1890 0.9034494491891051
eda 1
V. 0.6985522042559524
IC@@ 0.7611518911061234
dal@@ 0.8758248999484637
yon 0.6521134401355612
ẽ@@ 1
Cel@@ 0.62787257310048
nov@@ 0.24333475098576668
ega 0.5258990611140614
ors 0.07222171541587362
inger 0.3939005082080622
Times 0.5879691048446268
Real 0.7442552110422801
ston 0.6680486857443407
Fe@@ 0.3639333201144776
American 0.08839700031397243
hol@@ 0.18966045429910883
Jack 0.6839140021721346
ams 0.1428235411834078
umi 1
rap@@ 0.187624206392618
out 0.05658262417345347
Beg@@ 0.320651770163413
Star 0.5554611462891238
omb@@ 0.4485721278421456
anes 1
Yo@@ 1
kr@@ 0.2603576432786088
Conn@@ 0.5472082199961379
ites 0.30872957149408453
udi@@ 0.5375023324461152
Dig@@ 0.9528358223014538
Tre@@ 0.3318574380305094
Alg@@ 0.8598676672492066
23@@ 0.6426404852104248
iko 1
polis 0.8261319534138979
PC 1
ont@@ 0.34131059263691044
Wit@@ 0.826680669906991
pres@@ 0.06051339624235686
Jones 0.634204869690796
onald 0.7091051030964857
ett@@ 0.31352239705957563
Sand@@ 0.5325979107855444
Chil@@ 0.5953457383104097
idea 0.5944584708434201
Abr@@ 0.983687472099198
jo 0.20998511876610523
rey 0.42108847206431615
tw@@ 0.1504845757424019
yn 0.6778910620841967
ect 0.08042721177552455
Fal@@ 0.6901768390195864
Leg@@ 0.29163811697787173
Aug@@ 0.7809716096105891
1885 1
Albert 0.6810513179205075
bo 0.7623367401775617
igu@@ 0.2265612985030164
• 1
han 0.3349874638682241
low@@ 0.12017243774761195
Tom 0.705996201161204
Fern@@ 0.3055102567284415
Sec@@ 0.15855411333676217
mot@@ 0.1382290190501027
Hen@@ 0.8083467387254124
tt@@ 0.8836824785018733
Sau@@ 0.6673191413390025
− 0.9168772460756349
Beau@@ 0.7683524348903673
op 0.18104126930706885
Sci@@ 0.29668943965980926
TC 1
ble 0.13752202017110188
series 0.1241569648245724
sor@@ 0.1562339900035265
ote 0.15197977607978977
Wilhelm 0.6725788560946324
Var@@ 0.825683479071789
sey 0.7568220249112411
uni@@ 0.1462306361673189
Vel@@ 0.9401998744742817
Leon@@ 0.8371584511226435
ital 0.15440613663137429
Syn@@ 0.6003830719908673
ew@@ 0.343945966623082
Club 0.2260644641711226
12,@@ 1
plat@@ 0.24494128755622616
Franc@@ 0.5240717499061711
cher 0.18725507599809382
Big 0.5625334805856398
10,@@ 1
1878 1
NGC 1
11.@@ 1
Sant@@ 0.7421610153002857
mad 0.8350071440878887
ui@@ 1
Res@@ 0.15969649632902796
Williams 0.6415397590443225
pat@@ 0.2973499705496639
AI@@ 0.9859607451142651
ame@@ 0.429583434323809
ges 0.22172361861499174
Mul@@ 0.5895055364723899
gro@@ 0.13372289796512654
vin@@ 0.5321762413659058
aus 0.038410086349485485
ando 0.07910305114131051
mond 0.5088480742131855
ds 0.10787449526986301
ough 0.19777716460958228
xim@@ 0.1946889163423835
Tal@@ 0.5121661349627891
ady 0.25606291415730725
agr@@ 0.47905053849778567
dur@@ 0.25093998450696686
Ober@@ 0.21967919580263515
ę@@ 1
ağ@@ 0.6682520730454492
Awards 0.40583020359229094
tera 0.6763218166744723
Vit@@ 1
Tit@@ 0.5662155768464612
bet@@ 0.24874867022574051
pre@@ 0.06012789541614603
erry 0.4781470337603869
ume 0.30187030394881226
1870 0.8906864373419326
Ander@@ 0.6573535985763848
rup@@ 0.3426249164441881
ji@@ 0.9188711910580755
ome@@ 0.5480141337528918
Sun@@ 0.8090411020690078
Boy@@ 0.6443230589260213
able 0.03772398754849065
ond 0.19964914583013865
Plan@@ 0.5127168825382945
Hug@@ 0.5425736360927677
iki@@ 1
outh 0.2821693414090323
tiế@@ 1
ix 0.30064932803596267
Sher@@ 0.7834229452750395
aff@@ 0.12429802327075012
White 0.4077052949938688
ée 0.027761852285797636
Rock 0.570483555461914
ech 0.37847349834583366
How@@ 0.6581541707573352
Kom@@ 0.1748575550176896
ken 0.0879713881071207
érie 1
leri 0.3857320871092829
Marie 0.4697431326500448
liv@@ 0.1943079367158371
ident@@ 0.7675149157410293
dol@@ 0.40334000786588875
nor@@ 0.09872421366753832
Young 0.6147801475938118
Lab@@ 0.42313167658756906
mir@@ 0.4056213598979088
Im@@ 0.23922551845322712
fa@@ 0.08025782473783426
mos@@ 0.3886666161430364
Fin@@ 0.16441774708632345
nes 0.16576981705459135
car 0.2158169437730256
lar 0.19664758574691374
eth 0.5143081645586772
Aus@@ 0.07925377034726408
Pau@@ 0.7485304711313385
mol@@ 0.3944432678437737
Time 0.7202982516393737
Mach@@ 0.7519873727499223
ider 0.3658077334072266
ment 0.04760246749069611
Brown 0.5544072971040237
sit@@ 0.16730543063901418
r. 0.40764393523401293
abri@@ 0.3607046513506304
play 0.15374466578425
bus@@ 0.134970629501953
Lar@@ 0.6201829201379656
mid@@ 0.30785989851611084
AC@@ 0.5680429432357404
Greg@@ 0.9138616828533088
Stand@@ 0.4588959416101452
AN@@ 0.8072031656433004
dig@@ 0.16380932269144388
kan@@ 0.3636666684657441
Ye@@ 0.389545540818148
Rap@@ 0.7653547636332535
time 0.04644424688605086
1893 0.9200965707474444
yu 1
Kenn@@ 0.5136932896298865
Pierre 0.3999059733931498
bat@@ 0.17093790407571618
iti 1
wo@@ 0.2667698693177814
lit@@ 0.1992644001504387
Blo@@ 0.5866738007206947
Ing@@ 0.4305377933136643
Hum@@ 0.38200723969860084
ente 0.058507311788810044
CD@@ 0.5879600481420404
Scott 0.632880945192109
ado@@ 0.8224932788319083
Cath@@ 0.5863755463279287
kan 0.9725605067199969
CI@@ 0.8324409403277283
din 1
Chicago 0.3841858045423947
brach@@ 0.7873403742195071
Dam@@ 0.49312807490424687
agne 0.20587574035542805
1882 1
eto 0.4262509696067762
dam 0.5334802616903399
ays 0.16766733832732955
aud@@ 0.709300634629601
Gru@@ 0.4190400617649247
1886 0.98790630987271
VII 1
Arch@@ 0.38766313131428826
Kn@@ 0.4277866647630741
Rot@@ 0.4559726817292392
gal@@ 0.3017099946775599
11,@@ 1
Boston 0.5676518689222594
XX 0.7833256337046307
aro 0.8386694295487053
asp@@ 0.4216877096205891
set 0.14713008251167312
ario 0.14109092998885786
bu 0.30309026580309556
wat@@ 0.31658295195234926
mo 0.2853606005889816
Law@@ 0.6297588314831912
unt 0.24939954505988876
bin@@ 0.4131053489172033
Daniel 0.5375901943152067
Bou@@ 0.7235451659667512
enburg 0.6869011111162121
int 0.3559390220617092
jo@@ 0.21577632795492302
sam@@ 0.6031850401035721
ś@@ 1
Bot@@ 0.3027329020062935
iller 0.29187181947277807
ting 0.051450669407547486
Kenya 1
Walter 0.6461704702334242
én@@ 0.09966846627156488
1880 0.8458528031135553
vin 0.7798010475055369
Liber@@ 0.35781596986913
sum@@ 0.2016680130805658
asti@@ 0.47120305731053186
sw@@ 0.21935325125854224
1875 1
1888 0.9339919294854626
Dec@@ 0.44787737919246084
gel@@ 0.0791962196650137
lines 0.36326697583445205
All@@ 0.361971921976923
solo 0.29243252593083197
Show 0.667861110889579
Bec@@ 0.5249882827948132
All 0.19238501782541664
ls 0.31256917627519193
etes 0.8388330793207505
Spe@@ 0.3720226364015795
eing 0.5954913455622212
eti 0.8999077567226272
mis@@ 0.08022331764710218
tre@@ 0.09593809560247499
1860 0.920385913202246
Rud@@ 0.7220394854749362
ets 0.07993533901268897
But@@ 0.6367488145051838
Live 0.7020648395345517
als 0.0165749261336847
onal@@ 0.3703044199438596
XIX 0.7637000310030799
isp@@ 1
yon@@ 0.49220903136952204
National 0.09276040705885087
1871 0.9470226989112726
Bet@@ 0.37524912777510205
lé@@ 0.3874801994582076
Vill@@ 0.4868273256912136
enne 0.12568705795325152
aden 0.43477742627446786
bot 0.7696807599984488
ters 0.08389710381836789
Uganda 1
uel 0.38551167817473747
EP 0.6772490822642905
esa 0.2892264502808635
Nu@@ 0.6165114684296611
Lis@@ 0.9484380376492847
Ig@@ 0.48453033029813863
eil@@ 0.32749585644704776
Anne 0.7297201329977782
Ju@@ 0.24946694281082002
Arm@@ 0.4193437077643234
Patr@@ 0.3435714738965839
assi@@ 0.4634510400127302
Vor@@ 0.10097072828797832
ations 0.027543323022923286
cam@@ 0.24651242805946894
BBC 0.5954609160932306
Seg@@ 0.3863653392384181
Hill 0.42580038924643987
1879 1
raine 0.5927896091021352
iga 0.8821356189014424
lu 0.9529893883094203
nit@@ 0.5712135650380399
à@@ 1
Tol@@ 0.7007079911027871
Sat@@ 0.7235990688947779
annes 0.5907887700645247
ık@@ 0.9639010950086094
log@@ 0.22134540359522994
öl@@ 0.17903047933237431
11@@ 0.6646296277618606
ust 0.2781076154048488
Whit@@ 0.600409701160303
Barcelona 0.7742014338517842
Chap@@ 0.5794923804792121
ning 0.10459575219111829
Group 0.28351120459579987
Station 0.39190078387814825
Media 0.6265746892323935
ebo@@ 0.7976063764482377
bar 0.23028099258677814
ron@@ 0.3318874452657728
aqu@@ 0.27595488205858487
fre@@ 0.07415975276791119
SA@@ 0.6752383880663563
eron 0.22346745009109067
Cru@@ 0.5635341490196316
bit@@ 0.3806736325956643
dio 0.24276909358456253
lob@@ 0.5356796028929677
eon@@ 1
Ev@@ 0.2981349842281306
lí@@ 0.38102036790568666
pa@@ 0.16915283468373754
ves 0.09391461815941625
Centr@@ 0.7501590872653952
ical 0.058269604781709734
nik 0.5155977560120308
12.@@ 1
Lag@@ 0.6737468992848568
unda 0.41283320241523663
40@@ 1
AS 0.7996685972643967
fic@@ 0.1083325018153858
bos@@ 0.7428529342710055
1887 0.9249631824816907
1883 1
ket@@ 0.25670670876246215
1892 0.838811882724397
Viet@@ 0.6367695275494886
him@@ 0.2778613816642806
ult@@ 0.14752300937073995
Ann@@ 0.5677968410043924
Anna 0.6757087580938032
Maj@@ 0.3721672173810599
eva 0.8100378961105705
1869 1
TA 0.7082427567704468
1873 1
alar@@ 0.5474350534044286
han@@ 0.8176358136474612
1884 0.9338978904171173
tak@@ 0.10822425057502343
town 0.1317595872866952
180 1
fu@@ 0.12825922175134233
Nat@@ 0.8162014080069245
Games 0.4369075508686332
trans@@ 0.06122001128741955
ide@@ 0.2506941171674895
Hin@@ 0.45591519663426644
eff@@ 0.1008393648714475
Blue 0.5913404443751846
anta 0.4284173022552985
Kin@@ 0.20824376977487039
etts 0.5775836692964958
Kl@@ 0.24100166541966767
Pon@@ 0.7048297753669296
ean 0.26407114111612834
lav@@ 0.49781755916242176
Pow@@ 0.4680088961924387
elt 0.10538933991530489
ık 0.8529474666002033
Elec@@ 0.4020659075122879
ở@@ 1
130 1
row 0.31285921873228184
IM@@ 0.9533818605616803
illo 0.39640553749105323
‘ 0.40486838995770374
Liv@@ 0.6233857204777253
ail 0.31183505096493214
Alli@@ 0.5699667332459022
ø@@ 0.5319626975977622
1866 0.8343728376770666
Muh@@ 0.9543070302021961
gol@@ 0.313659806187986
ow 0.21537681038216708
ont 0.06694873044277581
from 0.011698832130785047
Max 0.6126246866303761
olog@@ 0.12486557625595883
ois 0.526843838505873
1864 0.9227887133236036
bes@@ 0.09103759289785349
Dou@@ 0.5987884998183463
Bil@@ 0.21585546984341494
Sach@@ 0.6672515134654725
900 1
CE@@ 0.5339572601041421
1877 0.9863359625331901
AM@@ 0.6902389699481478
Sof@@ 0.6109119604517107
ás 0.3549989933720853
dis 0.5539792368569337
obr@@ 1
Christian 0.2883092066878299
ồm 1
1876 0.942185402683497
tel 0.2214206203454518
art@@ 0.21287696720793509
esta 0.13137960628081624
olo 0.7576428804842622
esp@@ 0.12187169612305232
ST@@ 0.8231649856843175
ém@@ 0.21820560289647303
110 1
top@@ 0.5778277576499087
John@@ 0.7117974588094742
1861 0.9143755542468197
won 0.1009608352096674
.com 0.8201735939663745
site 0.13732570798618868
Hot@@ 0.49004011704091766
It@@ 0.21141578109536777
Lig@@ 0.4677331431319872
US 0.11339327147228699
bury 0.4588318729896492
ns 0.11420802442213855
1867 0.9411272273730797
see 0.17400971728667988
erg@@ 0.19058075220167892
flu@@ 0.350174522484513
our@@ 0.1971534335651137
under@@ 0.12288311013410881
Ant@@ 0.6967064675640451
Island 0.27962473351625744
ido 0.07861310507518651
dice 0.5217811211240577
ision 0.12780302805062507
Life 0.3657411954731306
Championship 0.25915268246843215
alis@@ 0.10286271348304289
1868 0.9587964828433325
Bay 0.37265377963088075
ardo 0.5089372439569143
unk@@ 0.12347273740365064
1881 0.8897482657119661
ès 0.16329073383225245
eca 0.778989085688808
hat@@ 0.856878259849206
hom@@ 0.1329331904368774
gan@@ 0.2123818033681752
1874 0.9638993118739095
bir@@ 0.16917242159156834
Cin@@ 0.672457543698427
Juan 0.31243471891105706
1863 0.9262749788864157
verg@@ 0.7115708545807253
Gö@@ 0.658806969944224
MA 0.7619527611743081
ě@@ 1
Tanzania 1
heim 0.40878258251759325
olas 0.5133951363368968
off@@ 0.053920579365709306
ram@@ 0.5351571356574548
ason 0.31699972247491576
ann 0.40819662110130306
mes 0.12464223742255373
chn@@ 1
Bau@@ 0.16570463867264507
ald 0.4702498588679013
eleg@@ 0.32157981405969954
Jus@@ 0.2964058818634868
Red@@ 0.41067499392088924
inal 0.16593493820963462
sec@@ 0.05324787193815066
mand@@ 0.2825553780146131
Lang@@ 0.3489142191480427
ento 0.15586096990934156
SA 0.5958171668140062
olf 0.5131011159629362
IX 1
Hat@@ 1
atur@@ 0.19988082159627335
work 0.06204804784516533
Rem@@ 0.5680207457066279
101 1
pap@@ 0.19618722823510354
tour 0.24136158562917234
Blan@@ 0.5481076704794874
bour@@ 0.30943882837211
1850 0.8982810490700426
Rec@@ 0.18140840410098638
Ken@@ 0.8979131496393892
agen 0.1582338888423606
NE@@ 0.8675294681485067
ju@@ 0.12249434888187323
rem@@ 0.11402901934409698
Loc@@ 0.31601224086977026
ark@@ 0.3094554308113625
neu@@ 0.27343736957144993
ü 0.39221364317863944
Sus@@ 0.49828977599762686
umin@@ 0.5231542981760077
enes 0.31604058503545074
Da 0.4715607838706221
eno 0.4496616048928306
aco 0.6221210599519446
Cab@@ 0.5302556930302693
sar@@ 0.7391165017630741
sin 0.21361563584168392
evi@@ 1
José 0.3084884740770512
Ali@@ 0.6259066417818474
Vis@@ 0.5698206525619905
Green 0.439631295716612
Royal 0.2024764952086488
gio 0.6798492667188267
otte 0.41222729318998697
sho@@ 0.05974425688469295
anah@@ 1
esh@@ 0.5904023424352498
king 0.08040999145827522
ishi 1
1862 0.8716204030237865
enta 0.27803250854345646
80@@ 1
PS 0.6101427759153031
ket 0.18568807236375112
bec@@ 0.20283355172695025
Mill@@ 0.5486083591455925
tiv@@ 0.1088861058433055
dev@@ 0.1173323203625202
has@@ 0.7313233127531298
1865 0.8548472979800322
jam@@ 0.4191236732155117
Super@@ 0.3670662351695453
urn@@ 0.3813685836610296
köy 1
cy 0.2871642411255281
SC 0.5493522339987936
kal@@ 0.30920761174000255
ą@@ 1
ault 0.36475777421579714
mit@@ 0.07783386875642845
Š@@ 0.9651881882611698
ku 1
ander@@ 0.25397314513332747
Cast@@ 0.39841630687159235
Hav@@ 0.4978269218595627
mul@@ 0.33299253860072286
rac@@ 0.17411715209212875
Kad@@ 0.8828333740843544
Kab@@ 0.6750518708866267
Kus@@ 1
sch 0.18571521896055512
East 0.19044399633800763
ion@@ 0.40421822926972834
hel@@ 0.1226716365718712
Sah@@ 1
iss 0.47302970706925357
oti@@ 0.30231582546382285
ili 0.48804812975825623
Wes@@ 0.5368979742301658
Ind@@ 0.28819199279591634
Ori@@ 0.42968546890536324
dorf 0.32898136304284653
1848 0.7973509083761628
Ali 0.6670801123198244
uerto 0.5266545315829805
lah 1
sig@@ 0.09391001696082414
Su 0.23054910406988904
cos@@ 0.5690144352244708
idge 0.2967418542375737
Day 0.38952310457074435
emp@@ 0.08057249278489281
ges@@ 0.08229920866350593
medi@@ 0.06265812369355503
enin 1
aja 0.4844050297582932
mus 0.6209743965142556
res 0.09815176266205199
ift 1
CA 0.6146766485496714
ons@@ 0.11492711781659719
box 0.50508188573533
Lake 0.28877390807835257
Uni@@ 0.29554036769613784
wer 0.19091779153767527
ờ@@ 1
Prim@@ 0.3051026556555008
Has@@ 0.6245628321829131
teri@@ 0.3205569969161013
Liga 0.359372639958177
show 0.14480721356543982
edy 0.30765082618845346
aun@@ 0.4190576138983407
mod@@ 0.20021722678294862
urt 0.17585818828800878
lock 0.28061796925887067
Azer@@ 0.968586167796519
over 0.04733546444552444
aza 0.2993065990858408
burg@@ 0.37058549279488817
oy 0.8126131981736805
eau 0.1311778407985363
was 0.004007060728710814
Company 0.21511528984143205
alan@@ 0.8613932229794543
leg@@ 0.06335516277802013
cli@@ 0.22558341759963718
nea 1
Brand@@ 0.57329331783897
kor@@ 0.40297581506938707
proc@@ 0.1053565912029608
Ny@@ 1
1830 1
Domin@@ 0.5472287221630493
Bow@@ 0.4101084800469413
viol@@ 0.19677779925208808
mus@@ 0.053914972380441635
ya@@ 1
RO@@ 0.8055934325516488
och 0.6705698565068089
ces@@ 0.12043294396548652
Yor@@ 0.67573022489934
imp@@ 0.1866908880711358
Clau@@ 0.4952569193385254
amin@@ 0.484388524662582
roi 0.43977003562589384
Studi@@ 0.19457362260939054
WWE 1
kon@@ 0.12145392974141384
oka 1
cula 1
ated 0.01604773481355871
College 0.12306231992178267
prop@@ 0.0936234675335881
Tem@@ 0.4237176857916987
Kim@@ 1
Aut@@ 0.1712132368229744
idi 0.7328850800349318
CC@@ 0.8328683669541114
Ear@@ 0.12404695253940579
Vik@@ 0.7377625912212429
ras@@ 0.4090169085375536
ld 0.3970995836210862
oo 0.6771314665584872
160 1
Corpor@@ 0.4290083045618322
dan@@ 0.3121703088398066
Hall 0.2330138888210453
Joe 0.5107462317484608
chen@@ 0.3028809227006957
Bank 0.3821741299088558
Ern@@ 0.32546549909420336
Flor@@ 0.5217185220387651
enberg 0.4980174506925283
140 1
FI@@ 0.49789764948071874
mis 0.3504888423891011
na@@ 0.7370387737669192
yle 0.3568772036312411
uno 0.1816514032788237
its 0.017380752297279433
· 0.09619051266580424
eck 0.3303486732282126
ret 0.36475710818565726
Medi@@ 0.17323534716267
uka 1
isi 0.3368306544267565
Land@@ 0.10279756021738244
King@@ 0.24793622058437173
America 0.2028983818579979
ats@@ 0.40053304545306967
usi@@ 0.23744887711696955
sep@@ 0.3250881209925803
emen 0.47287554379509106
AD@@ 0.5893729432391983
mari@@ 0.37343925268103845
35@@ 1
Seine 0.3276283179916187
SP@@ 0.45169975580614735
ž@@ 0.8212122166811234
multi@@ 0.24130050956449617
plic@@ 0.14392616994661991
Din@@ 0.6774415458058205
day 0.06829080743565616
enf@@ 0.18620365612076192
sun@@ 0.6197110424829474
1872 0.8226307848164847
ș@@ 1
bis@@ 0.7544409050080982
amar@@ 0.7876571953366411
pot@@ 0.17994226932965962
side 0.06500348752510778
wh@@ 0.06882824060092245
Alt@@ 0.5476553165859899
Off@@ 0.1767100476320173
Carlos 0.3910404230148054
Kis@@ 1
Wer@@ 0.126387863242605
antas@@ 0.5331037620013825
nung 0.15769295424316027
sian 0.14327025792140075
Henri 0.6066950746100337
ms 0.1313140156537092
equ@@ 0.171796557814818
Alfre@@ 0.5305846458372523
Gold@@ 0.4967742406636443
Barr@@ 0.500882806604408
comp@@ 0.04553431318972276
Pad@@ 0.579824700024764
Bes@@ 0.15083020044136342
Id@@ 0.6655798112110758
zon@@ 0.8830503481229246
Jersey 0.4908045781074759
neg@@ 0.15764252792605424
eros 0.28849662477337923
Gel@@ 0.3552096914007237
wil@@ 0.35363156692587083
right 0.1562897347111369
ứu 1
dri@@ 0.17143937816525257
pi 1
Schwar@@ 0.5642498815665448
ily 0.17069095304698811
zam@@ 1
Bad@@ 0.5543229584308359
arch@@ 0.1252487487131484
phot@@ 0.22648262810758685
Fir@@ 0.48330456933863214
Street 0.17177441617127895
大@@ 0.06393959938357613
ades 0.13319406901386058
edo 0.4464251627507905
Juni@@ 0.3730309853997677
attle 0.15508483741342532
Sig@@ 0.5436193278539473
British 0.10023652863364521
Fel@@ 0.2550766881711014
ander 0.3494807199142671
zona 0.29122271037428765
ń 1
eller 0.30240161229752804
ode 0.15659197374996245
imi@@ 0.40041516081947365
Uz@@ 1
pon 0.2055378949994858
centr@@ 0.20528003975720052
tain 0.0787456193890206
cir@@ 0.12125312217251871
dar@@ 0.08736783041746303
Kil@@ 0.5357623776880419
igo 0.5144769430648998
radio 0.23020304897744653
ury 0.21530252830859314
ag 0.5084812045677789
Fil@@ 0.2210038408510695
cio 0.3677141514488104
ñ@@ 0.16791614248645054
Team 0.2579147341491505
王 0.5037389393393509
Kö@@ 0.30217940275053906
kel@@ 0.3346224703226201
los 0.012266934211013419
simil@@ 0.573702899880576
dre@@ 0.20756932657790064
vu 0.9341663950182045
Mec@@ 1
Tenn@@ 0.40185962025546856
Best 0.2688390692550965
atri@@ 0.42507829354890597
anne 0.41804703449470154
bs 0.16840710032252842
ig 0.1601595319682977
fil@@ 0.10355010989936672
350 1
try 0.09248032475376691
ogen 0.3007881031962576
St 0.24401406172411516
ever 0.10914876253184125
og 0.4897611637234689
Mem@@ 0.2618094106456121
ask@@ 0.1957250774134419
Pedro 0.5074816665471789
bau@@ 0.18353459175252523
ids 0.23336211065226145
Open 0.33390737157701833
oli 0.9312523359377196
sei 0.3541622893912783
ual 0.07785194196784355
som@@ 0.23079704318013786
County 0.08458152884972024
iden 0.27278504785262864
vo 0.311044362421737
Schw@@ 0.28253113153996373
lim@@ 0.1985909363939443
oro 0.4861142918347492
Antonio 0.37055285679357325
je 0.2548253235783162
dul@@ 0.6949643365998615
Grande 0.5293540890251104
ulu 0.8393343258113635
atis@@ 0.23490934148925316
ete 0.12449390768647303
single 0.10737652034569908
School 0.07840856096954166
cip@@ 0.23873379792706212
ben@@ 0.11240511423794165
án@@ 0.12942882008819087
120@@ 1
qui@@ 0.07677281851698109
yer@@ 0.679713368996613
Gra@@ 0.31750000809321394
ck@@ 0.27730741202249815
Paulo 1
ding 0.11715861266038345
AB@@ 0.7404571602554534
Mün@@ 0.2435038469701897
ưở@@ 1
Seb@@ 0.6374644106771394
sta@@ 0.2845560627929045
Ố@@ 1
asi 0.5850733660204602
Ō@@ 1
key 0.20960238712322452
Great 0.26742956715050065
ones 0.057628850166600805
Squ@@ 0.31232835261612235
tra@@ 0.09016348411246276
any 0.09997540282734801
dh@@ 0.320999998240612
Hand@@ 0.20238542259859965
omo 0.7108387896166996
aut@@ 0.1305588112027402
vers 0.06835992270842581
tron@@ 0.21043758947680827
ehr@@ 0.1453143648869832
Si 0.47128547695241413
dam@@ 0.12910414413513527
elles 0.10775827908022748
ball@@ 0.22845842073871864
plan@@ 0.14964592345371885
etz@@ 0.11953035624214146
sion 0.04612460419294771
ental 0.07366908618099315
ég@@ 0.11722841031803861
Alex@@ 0.9900603663261165
bri@@ 0.13117131055804568
AM 0.630736377448557
XVI 0.8746316713575306
kat@@ 0.32436806999182555
Centre 0.3205315698732955
serv@@ 0.0651729564473473
ş 0.530332743027321
ierra 0.5343826552842297
Ji@@ 0.8334456414348939
berto 0.45560028322807217
ores 0.07768104789967775
org@@ 0.26176683645733134
pos 0.16486007325817292
aug@@ 0.35269120195860065
ante 0.04499522332084063
Ł@@ 1
Sult@@ 1
ince 0.13779777205480975
rain 0.3423630659564898
cal 0.14967584819269178
hut@@ 1
rez 0.4128221385265064
Bed@@ 0.4731683087454684
Feder@@ 0.17585834294778355
not 0.023650615973107178
bara 0.7209160710599278
ğ 1
House 0.12860038283738517
anl@@ 0.37443532359699055
kir@@ 0.4319742433085459
esch@@ 0.3432908680970149
fon@@ 0.16502136672298534
pun@@ 0.2155291337669646
ord 0.3737904065288525
air 0.12626591523480843
ë@@ 0.38356876530491496
camp@@ 0.07079579208799139
Ben 0.5503051942680952
fri@@ 0.10335374384664306
inf@@ 0.1173216721478675
Union 0.1357462892815447
Les 0.0449931569276126
ias 0.3748105432888747
ology 0.0825910149238539
Coun@@ 0.2723228416375258
ait 0.052771890174364296
rier 0.37281727037088164
wa@@ 0.4468378377930931
ennes 0.24069886787952674
Trans@@ 0.1642612494130272
mur@@ 0.19602929375692624
ogo 1
azz 0.346849543617593
ner@@ 0.11636089329820666
Pop@@ 0.303515540213427
egr@@ 0.3316683898111713
annel 0.27853018596513585
usal@@ 0.6830227111687286
General 0.11777889734696158
more 0.03823911408128432
uni 1
court 0.1925964945157987
alg@@ 0.18951595785836275
Way@@ 0.8173711467241747
Atlan@@ 0.35121755826247114
Ẩ@@ 1
ous@@ 0.37628066461779647
syn@@ 0.1996455724202828
On 0.03522679329723341
bak@@ 0.6652721061521022
enh@@ 0.23651862217127506
ún 0.2765300150692233
abe 0.21447030665307582
hii 1
ext 1
Chin@@ 0.19672394196023887
Tow@@ 0.2271913315025297
yak@@ 0.7704557769451975
ej@@ 0.13965982048872122
peri@@ 0.12158442104049372
Ein@@ 0.06615796227967674
ister@@ 0.12056951337058645
bot@@ 0.18728590808113754
chan@@ 0.12870106747414223
ud 0.24867608027806382
light 0.13549658413552662
min 0.6124236776955579
Afr@@ 0.7677780739592315
mun@@ 0.16308254240885753
ally 0.020518078701324487
Ś@@ 1
aro@@ 0.8030846843126908
ön@@ 0.17313854174772492
oko 1
ob 0.3310053570514051
Center 0.19518550625500322
Buch@@ 0.35182117881208164
hat 0.09229135941798022
lus@@ 0.273742804127603
MP@@ 0.6474440850134663
ree 0.12111765194547361
Rou@@ 0.17735705382852798
oper@@ 0.05069942110587549
uro 0.5944810989162986
ées 0.04248357165013887
tions 0.023068334421454
ump@@ 0.2164859718334228
but@@ 0.1605897573888482
eki 1
mut@@ 0.1923285978569927
Gas@@ 0.47822835659574053
apar@@ 0.16132740214328067
tures 0.1380457077146021
Radio 0.26052145501401164
aire 0.044386845969367525
loy@@ 0.14083990916922573
section 0.1849739796160388
Berg@@ 0.34111400239353523
up 0.036970655217193324
ague 0.13826921800033254
anger 0.30770471277810013
wen@@ 0.12328623752204881
formes 0.5993834315023472
gu 1
mati@@ 0.3767230286018609
grap@@ 0.1385882637979317
Jos@@ 0.5861084107203703
feld 0.30448063393625086
Sir 0.2937879921949658
eter 0.12262350721891553
Esp@@ 0.22123216496267575
Lon@@ 0.9470373020771699
aş@@ 0.44773081371858564
elop@@ 0.3248426458657802
urs 0.06316260288779169
ór@@ 0.20027801639248116
bek@@ 0.17424687665992256
eder@@ 0.10574555186750229
kt 0.10082676803508123
crip@@ 0.14752032871616083
augh@@ 0.09285289388016157
cell@@ 0.21203987252766654
Europa 0.29324186213317655
ppe 0.43874452927750235
Cul@@ 0.2193305109083354
ement 0.017367878092861232
amo 0.6138167540308527
eme 0.16719620365110494
Asia 0.3644691519570377
aft 0.15147670290983356
Augus@@ 0.5061790124739655
amba 1
vid@@ 0.1098868602649124
Willi@@ 0.7021337456744697
color 0.2835270165178605
Kay@@ 1
bes 0.18624412711478633
33@@ 1
af 0.39981410813702983
Nord@@ 0.18930133354408765
Div@@ 0.5067364724292862
ER@@ 0.4443863602481613
z. 0.42652077712954906
onto 0.2276885459452815
nuc@@ 0.3363771042678316
ize 0.2709490954581701
ères 0.09915393692036749
ple 0.0798188070091541
dé@@ 0.016943625105008863
Shu@@ 1
els@@ 0.17009932323678884
River 0.10974623050328312
UK 0.20440848057196248
ert 0.04735442923592886
No 0.2158781200088622
media 0.18862705810108155
Kle@@ 0.2566102287297585
fran@@ 0.20441852409156314
University 0.042942057057182674
gar 0.2336009251706848
yer 0.18308039274688973
üt@@ 0.17730253607418806
Ferr@@ 0.4893424242866824
nati@@ 0.15853032589248292
AP 0.5143419151275673
pia 1
kur@@ 0.12421769202888895
ango 0.575666756825135
aut 0.11658738269665235
cost@@ 0.2674942679008595
Bun@@ 0.509480811182919
ados 0.03896220631701152
Tod@@ 0.3348186181690822
pas@@ 0.07241849802828755
etti 0.42300986060078144
include 0.08777037923378994
liga 0.22794512621438193
ces 0.045815840834458534
sing@@ 0.11382777493122921
Tab@@ 0.42641953027139734
ana@@ 0.8690996171939701
ei@@ 0.17208873783259027
indi@@ 0.14557431349731514
vel 0.8111863787334094
Mé@@ 0.3607404873655295
皇@@ 0.6520099514069102
rest@@ 0.09745792229029329
other 0.021898828655737355
bac@@ 0.3552810011044444
fe 0.13819931206021344
Bill@@ 0.5112755292024057
Oper@@ 0.17983078886029838
Č@@ 1
Ö@@ 0.19934737660201435
quar@@ 0.13353250285508705
SS@@ 0.5759463386970763
eu 0.17227704120142825
vers@@ 0.0857219434976483
pis@@ 0.22374264366153773
uru 1
his@@ 0.9949525188305559
aa 0.8887018646554774
then 0.04216522442733754
Bundes@@ 0.13303743390102382
win@@ 0.11414385764560926
thern 0.0743150337571391
Nieder@@ 0.22160727066892538
gre@@ 0.052625518190389034
0,000 0.2004639558131315
elo 0.3185780585282207
ports 0.08740497723948147
view 0.10625911985241066
High 0.13530041354160244
aster@@ 0.3318849906578326
Frank@@ 0.32988293240430966
Franz 0.43621524999382366
stan@@ 0.4512164393695705
ár@@ 0.23772657547237155
dist@@ 0.06886936358574927
stre@@ 0.11110247134752947
tern 0.05588821952460697
First 0.1736399252155922
aç@@ 0.3116725727935942
encia 0.051919957163948136
Cant@@ 0.6803554853558701
ıl@@ 0.2453685766484167
ism 0.09004733129076183
test@@ 0.19803090534734977
ız@@ 0.8427692134560394
Wa@@ 0.5649875937298665
spi@@ 0.06800460917968092
sam 0.32025728683080346
alli@@ 0.20171785501325432
ister 0.06662477451973407
species 0.09233603142721294
lev@@ 0.19256237104261076
Rein@@ 0.2836446176993082
agua 0.2958445892891232
Am 0.09161920003150993
sev@@ 0.7896562795420177
tari@@ 0.4589476239613313
{ 0.4553781960266964
eza 0.27827735969718975
fle@@ 0.16701888745978719
Tou@@ 0.42196337541386636
cro@@ 0.11893329382470277
lands 0.10103613454148684
this 0.022946675156784006
Î@@ 1
dez 0.36343230155267214
1800 0.7278963615108187
mont@@ 0.375511108276679
alc@@ 1
dav@@ 0.23456153194542684
apa 0.3677089154065815
Sain@@ 0.3411239721264189
RE@@ 0.5239912311067207
Um@@ 0.15443083015656456
allas 0.41663672270733887
Japan 0.16407690648591142
Il 0.025443596682292846
gang 0.19572292006653788
ture 0.04297511402579215
cep@@ 0.15632618824119743
Anton@@ 0.872461957950257
Ni 1
uer@@ 0.13166578666223222
ents 0.019978931400214554
japon@@ 0.40401726865858
This 0.03588402635738087
ır@@ 0.28297706238725207
α 0.12013894377818461
hiz@@ 0.9928697721431246
VI@@ 0.708857957515839
opp@@ 0.19154734044418534
tag@@ 0.2976088037102102
auc@@ 0.3248210746276038
ople 0.2570141970584045
Hamb@@ 0.2716551008460757
ako 1
María 0.32246161824664543
doc@@ 0.1438094162220621
mak@@ 0.13679087979094887
orient@@ 0.2967903475855613
Jose@@ 0.3991844776189245
ż@@ 1
blo@@ 0.20351035186880842
3000 0.7988477842446442
amen 0.1865873740926314
pon@@ 0.1052997162659431
BA 0.4203707209531808
ael 0.5825317601231305
onz@@ 0.29470728701487703
Gener@@ 0.20370729720912148
zu 0.014960558794352844
ely 0.046121564368371115
htt@@ 0.8451502730326873
Ped@@ 1
tab@@ 0.1818554602433585
esper@@ 0.5483337407111049
unter 0.043570871204050045
Heinrich 0.3463571678982952
tir@@ 0.181254706052853
agon@@ 0.23649858131251716
rea 0.20474881062668462
Johann 0.2660195757969679
XX@@ 0.6898932314060799
kam@@ 0.5949858464103982
poli@@ 0.22771219867389692
Kap@@ 0.20604387134641877
May 0.05994622378695685
vil 0.17177989904613936
İ@@ 0.2789758357350216
王@@ 0.24845319209433167
wn@@ 0.18012254497424876
å@@ 0.5794515448255548
esse 0.1243451134743274
hid@@ 0.46350397049514874
let 0.21156606158181848
Pier@@ 0.7501576223924856
ches 0.057474087739915185
enth@@ 0.2049657601342232
lier 0.12244055640732117
ross 0.08742442601303065
Wak@@ 1
ướm 1
ager 0.11172875616865363
iz 0.2486663197606492
dom 0.15797087409738317
plas@@ 0.4067835813136973
Rum@@ 0.5460618372643793
Cou@@ 0.26736783403319503
ève 0.34155317727804324
François 0.3192249553873533
ose 0.2525101032469641
Award 0.13825103864222865
Ou@@ 0.3376348482051065
igh 0.5340201479695033
ina@@ 1
eer 0.12310242023765325
inga 1
Baz@@ 1
Land 0.21408974096130104
Las 0.11594958616526382
ways 0.12995495605717636
Comp@@ 0.3737677668785692
squ@@ 0.1374125161385669
Kul@@ 0.26176620704755404
trac@@ 0.119817424766993
Road 0.15800027484405
anti 0.21380742808278516
imi 0.5724579408782416
nd@@ 0.4365762195054346
Deb@@ 0.24225672437752147
bec 0.28271663989203666
Jacques 0.33540266042858535
Jes@@ 0.2374323378822049
ï@@ 0.09552756949971886
oca 0.5563339023339917
Gaz@@ 0.7839681407272062
ache 0.15161254952524555
XVIII 0.6375821180641564
gun 0.3780953431497584
ques 0.028553385585298907
prin@@ 0.12274056913237759
ī@@ 0.6781963361992565
cher@@ 0.2967725998748402
ef 0.11978280660273799
ights 0.10679081196862904
azi 0.3731456175849609
fes@@ 0.12437618792746984
ave@@ 0.4009349799912706
Produc@@ 0.22190180269849347
tern@@ 0.24649159355394315
Stein@@ 0.3303457756730807
Mut@@ 0.2657027874716419
ats 0.048784831961937246
ling@@ 0.36599607615149143
tics 0.07492709716376171
ers@@ 0.32543958132117135
gem@@ 0.14421728178075396
ustr@@ 0.1281028005001646
este 0.061262802534144636
lich@@ 0.08003012891468092
mark 0.21847080743477212
metal 0.3263123024443775
Enter@@ 0.8431480577574626
Blu@@ 0.34015057074842053
Hans 0.2829320174473479
Hak@@ 0.9262375871021515
com 0.7996980299946015
far@@ 0.15659602922904645
net@@ 0.13738109436589976
ien 0.0465956858413218
sac@@ 0.2101781768945654
Doc@@ 0.2555659852269184
ants 0.03855536880234821
arti@@ 0.06998153966168862
zu@@ 0.09905697953539261
Kre@@ 0.10327812786751324
³ 0.9691763086919639
él@@ 0.050024369608794854
furt 0.37262375817538695
ingo 0.5397761659529157
fac@@ 0.03523641375377264
super@@ 0.12138143648134062
gir@@ 0.14719373176498135
Santiago 0.4452994518968894
tad@@ 0.2306534869969381
eş@@ 0.6149744615266224
radi@@ 0.2182406762947462
house 0.09112762294052701
pri@@ 0.08233503978385213
李@@ 0.33110337426056374
aron 0.05670090289848734
tario 0.2714693692583661
Mod@@ 0.2444959686049585
za@@ 0.6026914588619686
ayo 0.4562995107542359
now 0.06437009783253288
wak@@ 0.4186721299372512
isha 0.8312989910582618
Proj@@ 0.19472798269354125
Aires 0.3935011916020302
zen@@ 0.38175543872973183
alan 0.458540140040273
may@@ 0.3234537868543095
peti@@ 0.11073473360936838
ful 0.06747341849984437
üm@@ 0.22953474288927922
lik@@ 0.11440876006186601
Son 0.15775341253567066
alt 0.18505535463643497
Buenos 0.39069008748038775
Fut@@ 0.40235247815144415
ran 0.19160006833798665
kab@@ 0.6192112719074554
tul@@ 0.5596313142841315
War 0.06530603088368513
beg@@ 0.053029310903512886
benz@@ 1
soci@@ 0.06024473592537464
azine 0.14531836014772068
Tour@@ 0.19078700839493087
anos 0.13130053137508604
lag@@ 0.18275578635730727
Reich@@ 0.18688643711641745
tes@@ 0.2842974185021073
mas 0.27128851190332137
rie 0.3541098245788411
her 0.014410966596356828
yar@@ 0.47223563409359526
ā 0.9605122278778558
main 0.06667282299066597
「 0.0821551375181424
」 0.08196310793765689
model 0.20987547521303504
ection 0.04542673546724416
hin 0.22838052015721694
ahl@@ 0.138195226035907
sou@@ 0.05017911279086016
124@@ 0.7890632259898152
Univers@@ 0.49718541650973314
XV@@ 0.5733714761323692
Lord 0.23772951372004808
vier 0.10830145026628041
zen 0.0926173328676816
tico 0.0912150872048603
fel@@ 0.14484140666050033
Sub@@ 0.18401673234994934
das 0.011322942853599124
hard 0.21947992804159255
med 0.3707040210113909
ser 0.0666475062189411
} 0.4506384588348979
tit@@ 0.11436572435276567
ted 0.01482467297368324
High@@ 0.192047102902947
idad 0.039980494002306396
ben 0.06224282172592889
ique 0.06434642892096819
lers 0.15080601822522596
Rev@@ 0.29387691538438276
China 0.11223060766095308
BM@@ 0.4862905408589285
kom@@ 0.07083282267146174
zar@@ 0.6423989512675871
Sek@@ 0.36776227354287166
dies@@ 0.5791961322194673
itt 0.48816100372840804
that 0.005265838825022264
eb 0.2425456310700266
Luis 0.2839154793406293
press 0.20033795073721525
polit@@ 0.23591019542299524
Association 0.11037612063465319
ç 0.2930933196696281
dil@@ 0.44978010140698693
leb@@ 0.17170967667784048
mix@@ 0.17961060414671576
cht 0.08000321576944959
ign 0.06312956444063463
1500 0.5452298910318192
aver@@ 0.10258710010014888
ın 0.10682838798265491
ayan 0.46655658132695066
Roy@@ 0.32577279053930563
yat@@ 0.7101672649170275
ahr@@ 0.13701679954043247
wi 1
concer@@ 0.08941636800916618
his 0.006500876366389493
Manuel 0.33778756692571316
out@@ 0.062149467816642844
wn 0.06545960815893928
put@@ 0.08636208194281411
ilio 0.6032021706455596
area 0.05020665913036989
Eg@@ 0.21037117191280155
fort 0.11918877708384996
iler 0.21716591131457502
tot@@ 0.2002267287618644
jan@@ 0.39045772177281496
rod@@ 0.7241394035206616
Cum@@ 0.6007992057410033
fic 0.10303974513060031
eles 0.3610204302286787
Techn@@ 0.16146092601365236
Festival 0.13815615344862353
track 0.12591825831801304
Soci@@ 0.1175105087113451
zur@@ 0.7251166513756157
uli 1
ır 0.2107974460264264
Fol@@ 0.0793180297536359
ering 0.09101207973628027
act 0.05163928181674126
cum@@ 0.3075079573470969
ŏ@@ 1
dos 0.0510129021359791
Kamp@@ 0.34690924922080546
acy 0.12555789076247797
hil 0.6046456067653062
Neu@@ 0.20420227069350888
plus 0.024161941545550524
Kais@@ 0.2510268254370877
Stre@@ 0.24118713034739359
ating 0.03335600772175345
cut 0.18755841899421066
aye 0.3049176035564505
Yah@@ 0.9601322697279076
base 0.09954970009868533
lem 0.19105518282238934
.S. 0.9046583169517497
bourg 0.2668491438432595
into 0.022372630093845786
fen@@ 0.24164956728498943
ship 0.0378094341860025
gs 0.08660294831394873
lec@@ 0.23087002744899193
ener 0.12393273477589528
lab@@ 0.10009557173746211
Kır@@ 1
conf@@ 0.10707634060647307
ono 0.7341523968697578
System 0.25131511692261793
frag@@ 0.24940493522789556
edr@@ 0.14195029844924487
alo 0.3701414732617501
æ@@ 0.6297836679444734
hon@@ 0.07953730204028821
ape 0.2172631378835654
ác@@ 0.18772358195275646
Wag@@ 0.4486736868155055
nes@@ 0.5874565290951285
tier 0.21627589114757698
ough@@ 0.08421561568375684
very 0.039864809906855585
rati@@ 0.07911681961913787
aud 0.2785162446082505
eler 0.10335045264503315
onu 1
aban 0.10635880694431515
Hein@@ 0.45876579627374703
illes 0.32803263749025807
ble@@ 0.208766534802657
ills 0.15084470347296053
speci@@ 0.1019738385479731
forme 0.12174367038134697
vor@@ 0.03970589898724191
bas 0.39971267744316824
oks 0.11141140234476797
ells 0.1596723324331571
German 0.08414859006543175
Ital@@ 0.14053939924114378
State 0.05676270004693211
zur 0.03448031512385051
‎ 1
ems 0.06319945950499169
ris@@ 0.1397006879290988
cru@@ 0.1747056550738664
cri@@ 0.04629315893548087
tif@@ 0.1358134210554505
Leb@@ 0.299674538588823
ior 0.0750136152140635
inda 0.942865080403333
rio 0.4049633669677601
hav@@ 0.19612357248008064
back 0.05261831314889869
ward 0.10034382688668995
Zi@@ 0.16856216592191203
lara 0.29578870272272956
zon 0.9325810556031285
sign@@ 0.13285649886155396
š 0.739597572877999
ought 0.06036083944785092
ative 0.02961544343736898
nas@@ 0.42222629911506343
que@@ 0.1819428013702406
后 0.10231897433105677
atu 1
cens@@ 0.1386746574502284
To 0.1600871641321154
ator@@ 0.280809913218397
cle@@ 0.1291138461962197
kale 1
lobal 0.2157682092157187
audi@@ 0.18807978677163462
duc@@ 0.11250680090150722
hur@@ 0.25850041314670574
太@@ 0.20233709774101385
Ü@@ 0.2384726510314577
uel@@ 0.34487957809397274
ums 0.07075855323868141
ses 0.022855296023241004
tran@@ 0.17839755829103
天@@ 0.1376825194778618
Art 0.09809692299285941
ares 0.08499509212441542
ards 0.060359044490757116
August 0.03513318344046495
eran 0.09568698258342052
ehr 0.14135899905493066
fun@@ 0.07327313218818887
kel 0.18764252325564115
Tek@@ 1
Ré@@ 0.1061308801943584
haus@@ 0.1907477021812318
± 1
ë 0.9984233308953608
zh 0.6462439410050462
Et@@ 0.25751479829097107
uz 0.38630522377347
sos@@ 0.7825322183106533
Arab@@ 0.2397921509692281
He 0.00948814416365479
Kem@@ 0.8630600969282979
elen 0.08454877200724557
tal 0.1733208412374788
Ž@@ 0.9195037111272396
isch 0.05787201748899716
unga 1
Yar@@ 0.7993705570245043
unge 0.442371019811346
vent@@ 0.09552752964587084
def@@ 0.05455619674789188
down 0.0691030195750614
riv@@ 0.22658169354480165
gil@@ 0.2593699354419726
nom 0.07740159435658946
avi 0.715371345980087
är@@ 0.04546743044817098
adu@@ 0.3309274751593992
riff@@ 0.20218079998622956
Roman 0.14262176340546265
cab@@ 0.09499482552204243
ayn@@ 0.8338926838481832
var 0.4481268038288512
Ges@@ 0.07022610216804265
ley@@ 0.27611627918833886
şehir 1
né 0.07586602964108427
red 0.02019915184631042
Women 0.14953004958191146
nier 0.2505279870165932
craft 0.12851493581833712
Central 0.10832193640671124
star@@ 0.0607385030587667
oj@@ 0.6960725483673582
bun@@ 0.15390310981720565
alla 0.17494643670411567
wel@@ 0.09080728995650024
dir@@ 0.17910288041537217
inst@@ 0.07040341041953344
文@@ 0.11390100442897322
sat@@ 0.13045855625793043
igi@@ 0.2772153173926877
ties 0.02695015448057379
vice 0.09777401603177278
rom 1
fem@@ 0.053026888767353154
stadt 0.11948863423653912
aum 0.12747282662463108
Meh@@ 0.5811225890239919
oman 0.14253910584996368
→ 0.8949293540006611
Gem@@ 0.2794223536679899
prim@@ 0.04299217785239298
Ă@@ 1
iter 0.11766001081432516
kul@@ 0.1491354077037763
cus@@ 0.11482799418936947
Migu@@ 0.3509928456989839
spr@@ 0.0596301381397268
Kut@@ 1
Math@@ 0.271076733263876
vern@@ 0.32547363568854354
ingu@@ 0.13683189111143804
ww@@ 0.7773935905612945
201@@ 0.6526265173190147
Olymp@@ 0.12136399093066011
wid@@ 0.10044014092426384
vec@@ 0.30534912303207673
inos 0.16311858108054678
trat 0.13797082247628084
nav@@ 0.09400971701796622
üz@@ 0.8123476778874479
Was@@ 0.6201176261771498
part@@ 0.07462504545529097
Say@@ 0.7383780531616977
kun@@ 0.18314002472529653
aş 0.773668940823988
cos 0.15328393822005948
namo 1
tei 0.2099904558994613
rev@@ 0.11716085323387081
kim@@ 0.9482488782423656
w.@@ 0.7925739802255858
lis@@ 0.4834301759915182
olan 0.14815476143564696
gul@@ 0.5880230977362084
ness 0.09345994041653004
has 0.010624548680972977
wards 0.09381417413669976
dou@@ 0.06910027693994769
nin 0.2185413710792466
Riv@@ 0.5740773666481499
qui 0.01295815921751732
ular 0.04020236422405759
ège 0.13921858277179577
lake 0.34417802801421
sik@@ 1
Nord 0.17320651433922638
hap@@ 0.21534545824264764
« 0.005673923218678422
aup@@ 0.47914607631551087
ods 0.0962107616018041
less 0.07819595342027312
rech@@ 0.07105914017975389
ders 0.09356290934196643
ıy@@ 0.5325216210694725
kw@@ 0.35761104059797777
live 0.11435764415822679
baş@@ 0.27099603932395444
Anc@@ 1
England 0.07610524210637792
azar@@ 0.5981629157086851
USA 0.1472920536772646
etti@@ 0.5013834399158298
zig 0.23672460697957276
others 0.07821865470469669
£ 0.23129519639964954
rid 0.5100020210368934
Engl@@ 0.6968805804057733
Mann@@ 0.23797560356170197
parti@@ 0.05522765377295251
Film 0.08137974015591604
ña 0.1724308290323473
form 0.036680133034830954
mec@@ 0.5634690610871388
ural 0.10664349254849921
eds 0.11767243252827649
tas@@ 0.2276631043753863
Direc@@ 0.11910374157076735
war 0.010243493229568893
Jack@@ 0.47904188703470785
ingia 1
major 0.0662776215598632
Num@@ 0.27236003036950485
dition 0.049788047044286965
Society 0.1147474296607829
imo 0.28168144217318786
lot 0.10089063964171514
iken 0.416302471789144
ț@@ 1
Journ@@ 0.16683444091179767
ences 0.04226955166297449
stanbul 0.8375554101836137
prise 0.127476920264255
sel 0.10926329022367325
és 0.01482561872777736
ains 0.045026027244772955
Prin@@ 0.20133413549038773
sab@@ 0.2193615325458692
Copa 0.2715332820868263
Haz@@ 0.6413743997106296
,000 0.1616733155092557
pend@@ 0.13780153945861945
stell@@ 0.04605575304294907
viv@@ 0.09566387836909754
Ż@@ 1
ited 0.04663354496945116
med@@ 0.06917990180114195
vat@@ 0.3558999291563435
Dani@@ 0.636476783785087
atom@@ 0.30459018111201086
eg 0.1083581334293378
Amer@@ 0.18096858722648407
β 0.7164224479708531
board 0.12837795518347409
ilo 0.507636067935854
americ@@ 0.24141063289620943
ature 0.04132575897112171
sche 0.08552432902927362
zer@@ 0.26266474085622576
AG 0.2864979709430439
cont@@ 0.03370265903091406
emati@@ 0.10391271279079042
ends 0.08066385763363522
versi@@ 0.07623771344236484
Gün@@ 0.5976639241463187
Commun@@ 0.10159581834770055
ük@@ 0.4614285076850045
公 0.6370779048771761
ution 0.053576746010171206
Ð@@ 1
ạ@@ 1
hara 1
» 0.005332307323228164
ying 0.05086814853227247
éc@@ 0.10329908642062607
dar 0.18835914055233682
sak@@ 0.8808368666717584
trad@@ 0.1777546084822824
bis 0.016076934638606624
nen 0.06723473612418572
Arts 0.13282357949159818
aves 0.0890391486308117
tory 0.09492565947125847
Rel@@ 0.10290192684801981
Spi@@ 0.07451542024593384
eine 0.009977487612587104
endi@@ 0.14815068317939856
tec@@ 0.2274709161067829
onde 0.1386648131972017
rus@@ 0.22449003163730794
Syst@@ 0.2219081187483236
reich 0.1570066449693676
Carr@@ 0.29832452205913035
alls 0.08252265681667298
ige 0.03932792432233741
auer 0.13499800724175176
enda 0.22589959592339134
kum@@ 0.41761875844876095
mit 0.006548940352946174
ause 0.1648378242479351
wr@@ 0.1781736015506279
diff@@ 0.07074283180648158
ground 0.06496858189656694
Prix 0.21110271873317626
kö@@ 0.2635757492693636
yaz@@ 0.2850092643945255
eka 0.7886689937839481
under 0.024417908096121734
anya 0.5940302840797484
ư@@ 1
子 0.06269303810592994
Orig@@ 0.15102009240347045
Tang@@ 0.9057133610789955
­ 0.7127346955433247
č 1
ilg@@ 0.8164075638325539
Rech@@ 0.14142183549404005
ograp@@ 0.2451229212729177
Yer@@ 1
public 0.0357152989656965
县 0.1779342478209193
studio 0.12892990785723804
ingi 1
ots 0.08759325945435067
Western 0.11395988124619158
onal 0.0329973359043842
tun@@ 0.16179879103469386
\ 0.49221262353548173
Empire 0.14119714429429073
if 0.05778641915380549
kol@@ 0.27249283300173355
minut@@ 0.1327830403844893
water 0.06055564212032982
év@@ 0.06300611733931678
DV@@ 0.9255448673833809
iness 0.06897662485900481
ể@@ 1
ment@@ 0.08449556412847142
Form@@ 0.17911277398863018
rif@@ 0.09554348906517102
ism@@ 0.29654120005369006
cu 0.7858101472889443
tn@@ 0.22782392115082517
kas@@ 0.4694492972636809
kus@@ 0.4557858865356465
deg@@ 0.11680252188647759
vet@@ 0.2803650165945757
eshi 1
Wah@@ 0.594270575015888
uda 0.34722243427986577
ás@@ 0.16036600220873184
inn 0.1576635944088158
aji 0.7020948872298154
cad@@ 0.11974030468925234
estra 0.13550362507879823
alifor@@ 0.6034526348993388
cast 0.09016874011668649
contr@@ 0.022891961717461457
kara 1
mek@@ 0.6012101630117781
bei 0.016199260489382406
met 0.07130256608748028
ols 0.05945539386566778
lang@@ 0.059048458396034925
， 0.002453535664916456
depend@@ 0.11046757599512452
esses 0.10575030008708988
orio 0.14581598105949542
par 0.007941466853890931
ahl 0.1406312023337213
capit@@ 0.12329915185306695
yal@@ 0.3067800930642004
tos 0.05569530595732498
verse 0.10136274835232952
hen 0.23177130897319895
tiva 0.31779069634579643
mach@@ 0.08888157504044196
公@@ 0.0604691517411307
Academy 0.11136479375146134
Eisen@@ 0.22480795420533334
schi@@ 0.09704644466613577
uj@@ 0.6932284351806434
but 0.01128484028709549
Schul@@ 0.1335791389969389
toria 0.22983823595317615
beri 1
sus@@ 0.06684773463621374
Christi@@ 0.24532103164152974
modi@@ 0.13788342740557863
Arti@@ 0.19289308353096435
By 0.08307307943576397
muda 1
ebe 0.3422918059278839
Rah@@ 0.16458235739808888
unds 0.09131492789647251
cole 0.14232321920899385
Sup@@ 0.28182303170984957
erre 0.13586668662625287
aç 1
emi 0.4821554342775478
Die 0.007992914553782428
Mek@@ 0.9481384057942748
éri@@ 0.035885690849025924
spir@@ 0.12282985763705537
vie@@ 0.05071086331342588
ort@@ 0.12036517642513517
Def@@ 0.17489062118941617
abl@@ 0.0753569644391737
born 0.024817360437663225
Haus@@ 0.18514820209163002
ener@@ 0.20586376704595172
hie 0.1270613912134324
Nig@@ 0.5164550410340779
lit 0.12019435186443994
Fried@@ 0.18071068332782259
dad 0.16016176038951135
ío 0.14687440004687077
Party 0.07379102940761992
jug@@ 0.08109955993177312
ndi@@ 1
tex@@ 0.0775648925669222
ň@@ 1
stat@@ 0.047081894072517824
zel@@ 0.2289430786193839
For 0.05516225827817431
ime@@ 1
tar 0.18480939499623245
enter 0.18399363513089173
As 0.033064750102928545
sons 0.10938457692820451
Jul@@ 0.4755940874996584
安@@ 0.10385615499152405
dit 0.09858302854464135
dle 0.0932819041187637
ī 0.6386144304301801
Inn@@ 0.15909114710262037
ayr@@ 0.35494566904657293
Wan@@ 0.9551625745401194
elt@@ 0.14197161736414865
ischer 0.03920011411345748
sie 0.015385751910298897
́ 0.056705131683127
coll@@ 0.02896261329284884
lies 0.08961536000553579
liz@@ 0.25447570403929803
inin 0.17091869716582972
plac@@ 0.04470177154081151
ün@@ 0.048055737064998036
Force 0.12767011480292326
öz@@ 0.2742271266244056
Von 0.07064305698142787
Hoch@@ 0.10495360705176643
Zu@@ 0.12301796153616344
edi 0.4303520417443313
fi 0.666061435317433
gri@@ 0.14831803953428152
Gü@@ 0.2854634126648104
sal 0.22730637182460692
eur 0.029903450839270075
pes@@ 0.23644988537580694
ulia 1
Fam@@ 0.48637389279200266
rat 0.1465934262634384
tive 0.04862468805463643
spec@@ 0.04985027229730442
found@@ 0.13414117764314296
away 0.08954768155364379
angel@@ 0.1387476644029974
Ankara 0.8354659882787588
had 0.007673120386455885
ño 0.20912571272175456
の@@ 1
vie 0.10767722266428668
aise 0.13181613705346867
comm@@ 0.027434742929306807
hem 0.4590477199236703
domin@@ 0.07460699822520385
fan@@ 0.09737549567235873
tur 0.12359952412058164
öster@@ 0.21177901247297334
Radi@@ 0.2510005810935294
ires 0.053310041048308436
Luf@@ 0.1702281181731637
hak@@ 0.6091122885951281
aber 0.03900104628863408
get@@ 0.10612814945346916
ē@@ 1
ő@@ 1
face 0.048603955123043906
mich@@ 1
€ 0.4446807498742265
earch 0.0531880766653895
coun@@ 0.02672062033228738
oso 0.12719226749817117
國@@ 0.0770842802591968
Acc@@ 0.3215501534552916
prom@@ 0.0346800337031627
fica 0.141893796089649
map@@ 0.3787303747125667
ış@@ 0.18259090324502902
lau@@ 0.1907704647092759
angi 0.7565777207500085
lim 0.24778419416383854
fall@@ 0.10260898814998534
isl@@ 0.08139977740645328
′ 1
world 0.04989913309103264
yas@@ 0.2976363625711037
Ost@@ 0.16479914150585856
NBA 0.2410629388231875
book 0.05574370303901579
head 0.06013554418751543
ref@@ 0.06231780179267445
sol 0.28693935078363114
bah@@ 0.12023709674167478
alı 0.29759021020970905
üş@@ 0.8026994438129986
三@@ 0.06204279330044731
indic@@ 0.09601060790620519
acu@@ 0.19341462208899846
ensa 0.1936360981396454
kn@@ 0.12349508026356674
Famil@@ 0.17946274243649316
sein 0.03759764116833261
suff@@ 0.07010311091496303
Burundi 1
zog 0.15210722412987213
hio 1
union 0.1213837076863197
ük 1
lik 0.27962998004696227
ute 0.059790049424015314
text 0.12427055381014428
even 0.05372561350713944
zer 0.19739121024604667
ages 0.022565722652811766
English 0.053141337519887095
ball 0.04828309075287442
mine 0.10749280928766526
âteau 0.155457684597835
hay@@ 0.4478231731411028
eas@@ 0.06636133663066271
hist@@ 0.18565431384865919
氏 0.31287329657497875
İz@@ 1
WW@@ 0.5402864673286378
ağı 0.5486457458719294
tou@@ 0.06700839105555233
dra@@ 0.06586515452011903
Publi@@ 0.12603165934908717
abor@@ 0.04253803009623546
ext@@ 0.06500657146543529
tion@@ 0.037277272677559294
eux 0.06582326684869978
format 0.18811468522991928
ả@@ 1
ー@@ 1
中@@ 0.03715455307838287
baz@@ 0.9670444655560078
fu 1
istes 0.10825008761385031
sav@@ 0.12093610012965594
Deutsch@@ 0.132083005860295
区 0.0781147857424228
play@@ 0.03572969386018512
Kid@@ 0.8220565755565722
bay@@ 0.3095267316057776
onder@@ 0.23295437970905808
yen@@ 0.15109886815283383
Institute 0.08664128670036224
Stadi@@ 0.14444453236945048
andes 0.22666966104472197
chem@@ 0.09264741517252605
apo 0.6355051681407339
sci@@ 0.09065616896420364
tice 0.05788801772585334
山@@ 0.10578288337189543
Bü@@ 0.24424087287623786
enst@@ 0.12660462234711017
jap@@ 0.3961736123933818
lung 0.06021873698206157
Band 0.10534127316701809
uld 0.0800190754800304
European 0.06171852328319783
vas@@ 0.19604545556292102
hir 0.5416457919229718
妃 1
auf@@ 0.013563473828789504
aten 0.04261784131858604
drei 0.056225055503370314
ande 0.08768002393838582
帝 0.29250769978111546
ures 0.043958614658364835
stor@@ 0.07969424494285246
hac@@ 0.23304367843410986
umo 0.7490228225958504
Schi@@ 0.16959364283258535
azu 0.13980065915633583
南@@ 0.06699609366255171
子@@ 0.2631718972913768
ality 0.0507763117336456
Dr. 0.11951777855784058
port@@ 0.019366792122760334
was@@ 0.14275881167059357
iller@@ 0.2647950410914594
agement 0.0639343900853428
ğr@@ 0.6440278388663832
luk 0.7415870185702542
cla@@ 0.05029898696742061
seg@@ 0.10269837064934881
termin@@ 0.057073518621889585
人 0.020048521448486362
武@@ 0.1774077803371488
Sur 0.14414557686677498
engo 1
new 0.017487142155149828
aide 0.17067282149996113
eyi 1
ál@@ 0.1982752726472521
blan@@ 0.10199334764741648
ede 0.2060280743804373
ses@@ 0.08489792403716045
ames 0.20538251459471382
law 0.05666140707674598
mem@@ 0.0585445514440229
tima 0.1998883718427359
Gür@@ 0.9164253006113857
pedi@@ 0.194474764475532
ands 0.048149714675922606
fo 0.2548651158007964
ș 1
vor 0.026490866311284087
ican 0.07007300347728951
Nach@@ 0.04900525130113184
ː 1
ische 0.014328518543921368
mah@@ 0.45388632534814854
º@@ 1
Ê@@ 1
quel@@ 0.25152427911590675
iter@@ 0.16892508339705142
ılar 0.32978057654991944
ˈ@@ 1
bio 0.15652962368780163
invol@@ 0.054148590787364614
also 0.006422799102735708
District 0.04799812126874611
asse 0.07436754383955535
tical 0.040974364938260475
rich 0.18797352728545963
州 0.06379809712337334
市 0.06863869267732992
ici 0.2685470055491963
over@@ 0.040250447506803025
patr@@ 0.07536833880321743
have 0.009958555013674339
rí@@ 0.2360399917381201
conn@@ 0.03311737739432689
cle 0.10304209168459938
ł 1
tain@@ 0.05109313977989576
rou@@ 0.07151513862073679
tas 0.14250007809611634
元@@ 0.1813409149863533
anza 0.1483017541638088
kle@@ 0.06441862684740872
DR 0.17155795080176828
孝@@ 1
States 0.024832937327289202
Arth@@ 1
bey@@ 0.8707611700745107
chap@@ 0.08583904806818811
Chem@@ 0.16922816917479447
dah@@ 0.16500222879668278
König@@ 0.11272967615198823
wing 0.04811839150020669
ainer 0.15825259017657053
ilen 0.11243002010169191
lic@@ 0.06697205316889569
Nis@@ 1
cant@@ 0.07384677712862604
einer 0.013553542063553983
Emp@@ 0.23995691249764559
kay@@ 0.2331556411185722
rol 0.3825159205345852
date 0.07918143350703777
ning@@ 0.20782515211667424
anni@@ 0.1982602378224685
band 0.026782888706145237
left 0.03992668385210189
Herr@@ 0.10899627745653745
Bez@@ 0.07094507680654925
Rep@@ 0.497142709350958
There 0.034873537964707435
alth 0.05085555781886526
明@@ 0.14013234996867227
fron@@ 0.0986604308447162
nec@@ 0.1106919322283835
tura 0.050525521136593816
ference 0.0714540764827208
GC 0.5605538701503574
ories 0.060351682378992015
red@@ 0.1411080334510028
ety 0.050594856922055884
geh@@ 0.042502084053543415
ident 0.0316073399970956
bab@@ 0.2512698858766122
dur 0.45260610821523956
bol 0.1471338534924233
geri 0.7987874436653198
endi 0.4234651108879144
music 0.034787799713172085
rique 0.1418083020755206
afa 0.5008157501502049
Kri@@ 0.10366887315209936
adol@@ 0.25051133902639394
uo 0.31417642428023523
ustri@@ 0.14988924872891646
style 0.05371993650480822
öh@@ 0.05982979959380511
bou@@ 0.1683792715559085
building 0.040582871041388725
action 0.03899182756663193
Nati@@ 0.12254278295913754
leich@@ 0.15324448509684624
arı 0.3479753728406212
½ 0.8435090462237939
ə@@ 0.8402021875719607
eras 0.12415550003578349
pio 0.20476670013640375
tie 0.13089036536202558
ule 0.055041873248801804
real 0.08917144358597734
jer@@ 0.2118175579578405
Bras@@ 0.356846555746237
endel@@ 0.7451061801715358
Ent@@ 0.08231084690749234
cas 0.09095270312774212
adan 0.48572342260963386
jur@@ 0.06339961668724364
yeri 0.819468408089325
ß@@ 0.033970385091061116
mara 0.2873266130407001
ö 0.43760718907589746
erk@@ 0.09116271626467988
municip@@ 0.09345194920145371
ỷ@@ 1
Africa 0.09354300352725911
ils 0.03149449268486754
sten 0.023154951900397867
isto 0.4272370284338049
ça 0.21747866653132772
Natur@@ 0.09292586746493424
之@@ 0.04934885163322257
With 0.06824464819120968
-- 0.5913756615762847
alen 0.09521371512008316
Kant@@ 0.1800460279480618
kea 1
añ@@ 0.07618914877252285
erst@@ 0.06378875975918083
ife 0.057384272156711276
sey@@ 0.8203155404708544
劉@@ 0.5073496470597751
高@@ 0.06390879865535447
ehir 1
lie@@ 0.04593864094056223
iwa 1
金@@ 0.09726247172497907
Progr@@ 0.0875245526221901
colspan 0.26018183330703715
kit@@ 0.25094473453984245
gener@@ 0.03142781416668651
por 0.005465129656578596
lima 0.5534586234162555
After 0.02145948948414969
type 0.06381436648720533
cer 0.11845708670996191
reduc@@ 0.09057684817693297
back@@ 0.0822173547241146
dem 0.004918458870988649
lay@@ 0.13493628557823836
Ế@@ 1
德@@ 0.06501853547022382
Indian 0.06878099948137321
conom@@ 0.11927997423422157
conc@@ 0.13545261184214452
sm@@ 0.08885661029637651
sti 1
és@@ 0.18424118460689617
group 0.030085535251268673
kop@@ 0.2383794201571621
Sport@@ 0.13144307068745623
aki@@ 1
uş@@ 0.4576645368013647
་ 1
Name 0.10513100772526639
alim@@ 0.1539735747061683
maj@@ 0.06659211117004751
two 0.00890571010590763
主 0.1502776629921031
nak@@ 0.47627217325919186
enci@@ 0.05477244464345542
kap@@ 0.14062605435682235
its@@ 0.11529488157981355
Jap@@ 0.056003837524210516
det@@ 0.0319857627375645
rent 0.05406097545999871
life 0.023113690351089962
epis@@ 0.04845138034191177
pen 0.09586457479035876
four 0.02441956997864408
self 0.028078297106277055
éli@@ 0.09213115956706658
Süd@@ 0.0796720763168069
team 0.017524568906209577
ǎ@@ 1
ź 0.910152243803058
get 0.050051435885214726
iç@@ 0.3349885911972642
Milli@@ 0.09735925772526342
acha 0.5848470367549186
bran@@ 0.07722938243656628
debut 0.057176467312929274
run 0.06139744680847331
sive 0.03087112628106023
mim@@ 0.6975867213684472
Nacional 0.08887446916086576
acht 0.041530305415720885
alter@@ 0.10088855915949203
chev@@ 0.15305346570266118
ste 0.03604643696983669
inas 0.11740472616704273
alog@@ 0.09371678904390522
para 0.008856493331840291
Å@@ 0.8045672471803392
ambo 0.8634053474252624
cent@@ 0.06775392048268244
Beh@@ 0.1421004985804419
essen 0.13351742997590543
commune 0.03488409061610075
amii 1
dens@@ 0.06583964387143902
lug@@ 0.15102132958182066
oci@@ 0.08943385903628347
Sü@@ 0.07617522021009052
asser 0.13145699108662443
ird 0.2266330868008669
test 0.10758346904712378
eas 0.049986728965850914
Premi@@ 0.09261259686601243
amu 0.7378715302427646
haz@@ 0.35476746897089806
् 0.003949728916638327
iye 0.7833970941219615
umani 1
iles 0.10183504217578196
yap@@ 0.11899199253410613
ender 0.05575237944763793
num@@ 0.06014593203023571
works 0.04483683087561997
ð@@ 0.4566646303997448
kad@@ 0.18147740832644121
isse 0.05010291953147531
Revol@@ 0.09741574073857649
trol 0.25761935266478675
mal 0.03869666574189044
which 0.0045057208860375154
ă 0.7761470905745085
deb@@ 0.10530810514464613
lich 0.009338031363388923
oğlu 0.5535324305956159
India 0.048693395821454946
ß 0.04769106081568223
üh@@ 0.03526293547064183
come 0.04830025280654083
When 0.04363715905184865
sous 0.02803928037767675
hand@@ 0.03127248359846914
open@@ 0.08300189053716292
Klo@@ 0.13648743498259358
shu@@ 0.3433774568133308
vill@@ 0.10382407349479116
compos@@ 0.025993597965301797
Mart 0.4940830890195082
schw@@ 0.08021815248022364
Pf@@ 0.06207443927578242
Zw@@ 0.08202668793501228
clo@@ 0.051416480277891585
nos 0.1193461343332854
umba 0.572955779714524
Biz@@ 0.5476145877077129
active 0.06652004741195383
ité 0.013235243973753981
一@@ 0.014770041404121203
orial 0.0578502397895761
山 0.08027960293454471
agre@@ 0.05926506779898659
div@@ 0.07148117775720338
law@@ 0.065064712240752
scor@@ 0.03217794352231233
Baş@@ 0.6085991894861943
times 0.032723437952436416
Öz@@ 0.43928988692687365
cou@@ 0.037967501012145285
compl@@ 0.045749696461735725
anci@@ 0.04101873034047171
ency 0.043957937879809436
Spiel@@ 0.0722632570874875
apos@@ 0.33677639953408917
ỡ@@ 1
平@@ 0.07848573983320728
contribut@@ 0.12100588288087842
first 0.005870328495694096
stand@@ 0.026740818821831346
ween 0.1724343152571131
mom@@ 0.09052817373015179
阮@@ 1
aşa 1
iku@@ 1
Dé@@ 0.07423844911708437
data 0.0876306665094444
film 0.013270635614228046
History 0.03259845711631641
Eis@@ 0.22125242613740692
ece 0.04448064226089387
mez 0.3965339499843719
fir@@ 0.03718162397964559
irk 0.13338256492872866
Osman@@ 0.8679655802693726
üc@@ 0.07047857081028283
bers 0.06468518632788951
leh@@ 0.17552272442750022
west 0.03286342835716433
0s 0.019842882086846647
anan 0.3868344243262442
bom@@ 0.13088507616306227
œ@@ 0.08004827708725865
dren 0.2537301848974406
inger@@ 0.29030026955899413
tek 0.4847250670831689
trag@@ 0.07740325272510434
İn@@ 0.7325105541253267
ň 1
tique 0.04569673479491186
trol@@ 0.09535010563863343
arak 0.21191270198390366
struc@@ 0.025246891941303678
Chic@@ 0.5979381221385661
西@@ 0.03302748338760325
iş@@ 0.1107237066646475
point 0.035856083292897724
gel 0.13558495561158937
î@@ 0.0433964276218039
aliz@@ 0.027592107641081644
ät@@ 0.034134362433412904
陳@@ 1
French 0.035757443595987336
pendi@@ 0.11363864395317938
produc@@ 0.0200407015824774
sad@@ 0.5182825262928876
jun@@ 0.20863794177076397
mani@@ 0.10655522951897861
prob@@ 0.03821112183149538
tour@@ 0.02829407498885823
uko 1
199@@ 0.09633120132328092
mann@@ 0.09647316264758349
uss 0.07019119254199352
張@@ 0.30923277037281904
Franç@@ 0.23518152009622892
body 0.05691799804496003
dern 0.05099373431383708
allen 0.12019623235123135
ney@@ 0.46790636616832415
Amér@@ 0.14607813985435214
deci@@ 0.12326421209652579
umia 1
^ 1
teur 0.02671728470962975
dest@@ 0.1247577995298049
lib@@ 0.13868245296164614
race 0.059194316882428405
tras@@ 0.10460541733672714
侯 1
aller 0.038626175680743606
Ê 1
unia 1
bern@@ 0.1467607198853112
gli@@ 0.13261372968536642
utz@@ 0.033736616351483846
fast 0.08176062258909507
pas 0.020192180822337875
fen 0.06152197422490427
were 0.0035951847034590353
idas 0.08374095502166252
和@@ 0.186871578488723
anim@@ 0.03400270332778941
mam@@ 0.25647216255647814
ede@@ 0.4048865348654364
Ó@@ 0.4208627440356684
oir 0.07988591497477342
alle 0.04682315038924341
tay@@ 0.912500428319656
ø 0.8600114656287022
tag 0.12113843251017409
Canadi@@ 0.060242698191509375
äl@@ 0.029958650117819476
Wilhel@@ 0.4148913021446054
ip 0.49003677846369564
abu 0.6707049886539711
new@@ 0.051560327341945676
ä 0.44536376646656023
kır@@ 0.6692594040248101
like 0.0263134229802256
enas 0.1591791161046863
μ@@ 0.04119497294254134
Mex@@ 0.09302706105915436
hib@@ 0.0917758509723845
℃ 1
sir@@ 0.1840837814659534
。 0.002356527979785011
Church 0.04460355538574138
Sin 0.09586479655676097
hiv@@ 0.8918796820150022
qué 0.11896615965607767
wes@@ 0.039969017091320384
ン@@ 1
jas 0.1355149916748346
enga 0.7296855762577431
ambi@@ 0.1181164141701769
mittee 0.05337986413116079
onen 0.040851392769639366
Ỷ 1
usi 0.8964390301044693
U.S. 0.0368722619674784
dings 0.051227609591505144
omin@@ 0.2544962097774899
refer@@ 0.03313777688216511
Person@@ 0.05945042027915356
engine 0.11002475719308202
uza 1
Educ@@ 0.0614952454085519
suc@@ 0.050531038801088946
gun@@ 0.0956905740663787
inv@@ 0.020825220748429102
Hindi 0.5658522279198435
boy@@ 0.11834004695539374
embr@@ 0.17126341183441943
inci 0.34231184867490444
sing 0.055103947782556194
Tex@@ 0.10740262330512897
bere@@ 0.06641365096653225
ů@@ 1
band@@ 0.0952197167518706
cour@@ 0.026188312736404658
igen 0.014228375556071027
trat@@ 0.11321661010326538
Europe 0.03783837522191422
wana 1
Guin@@ 0.7442080608218593
alle@@ 0.13614666236725292
cine 0.09240741624289374
än@@ 0.01829246612188678
Yes@@ 0.8408535627446425
bir 0.018411262073735588
kes@@ 0.20325053672629362
aume 0.09380894172743116
extr@@ 0.03695954784680064
mess@@ 0.09004559478002895
From 0.043351030614693406
zin@@ 0.1464311471718169
gö@@ 0.2586267709223764
ologi@@ 0.055186921167814554
pad@@ 0.20823631175769702
align 0.15747717545742734
ibu 1
alternati@@ 0.10764912294470244
ving 0.04349221180238351
海@@ 0.04442387415183442
They 0.022035154708365555
been 0.007366532946388104
sion@@ 0.04285675016625561
Organ@@ 0.0596728450359998
Se 0.03574880940959473
thé@@ 0.06888530392005297
Argent@@ 0.1456621265555786
üç@@ 0.5585639183458037
י@@ 1
erra 0.08684082088587014
lil@@ 0.953629921191626
erc@@ 0.10367246811131191
atre 0.060077751743873566
・ 1
Kik@@ 1
maf@@ 0.7016215335705647
ansa 1
conv@@ 0.07273336106319314
loi 0.10405005313552612
üs@@ 0.04245815508688586
esha 1
ís 0.13331158545382674
福@@ 0.12922105728870428
isco 0.6760982415938905
仁@@ 0.625054053396791
Oy@@ 0.42322637160082255
Rus 0.6825078749387776
She 0.013679907374235065
ography 0.03840280713173691
main@@ 0.03765878316625173
isis 0.09966513485717052
ords 0.04065707544590659
izi@@ 0.10102355348033984
retr@@ 0.11313723077437454
sup@@ 0.01783959247586392
Ağ@@ 1
erie 0.07882494494315777
put 0.05286641399320269
ĩ@@ 1
Stra@@ 0.09547664483753389
grav@@ 0.09883483309936351
Australian 0.05042544121642964
inden 0.0948317138653056
《 0.02183663238677593
mission 0.0213639857555941
round 0.037463808740199986
》 0.021797991363046654
@ 0.7408091146485076
a. 0.10682584382536782
hips 0.028774818056775446
ː@@ 1
geb@@ 0.014733822847769498
doğ@@ 0.1945099635175582
đ 1
宗 0.23947036809932157
ación 0.004820128514108402
erek 0.23332249342669867
prof@@ 0.03243528519700433
zey@@ 0.7607336623821559
イ@@ 1
陵 0.6904900390340549
ien@@ 0.1098855981761489
東@@ 0.08782654081602047
dru@@ 0.06749726373251497
kaz@@ 0.49740458269495874
place 0.01444493667894776
Besch@@ 0.1002148194096039
osu 0.715534029167525
west@@ 0.03990038764424176
Wir@@ 0.0902063098142763
cô@@ 0.06563443122637218
С@@ 0.007105299416016478
ease 0.032917122158071195
ıca 1
Como 0.14303635520000124
dır@@ 0.5030951408677149
ו@@ 1
flo@@ 0.03929626724521194
vez 0.048783311558814525
high 0.023390633634903523
ists 0.02417620293956475
year 0.010877200964219656
class 0.04700543280888975
contin@@ 0.03982468576596589
adem@@ 0.055982699259121464
liber@@ 0.05541155395424401
sich@@ 0.05157436744130389
progr@@ 0.027564559418740232
det 0.0391299387290728
known 0.012242083272218398
kreis 0.07865441397533114
ishing 0.048061444732459754
wah@@ 0.07362270492717217
edil@@ 0.2225192550091605
ín@@ 0.06817290196165122
、 0.005301861538162486
聖@@ 0.2894055153335195
Yun@@ 0.32337145080974256
enz 0.07292404461954576
郡@@ 1
198@@ 0.07445256721601648
Apr@@ 1
change 0.03600949137780321
ende 0.020441415686582438
iste 0.02873511078834854
Jug@@ 0.0894356066631747
brit@@ 0.15629886416480968
lek@@ 0.1153567055364844
seau 0.08703114392142029
commun@@ 0.022791678068312275
imin@@ 0.08410138550767447
Soh@@ 0.45102838087329944
ück 0.09774880915535789
lag 0.043650836607478205
Der 0.008138741465992637
mill@@ 0.15025329127300566
undi 0.6698333033075512
nig 0.0936963433598477
lü 0.35467503828230157
Bib@@ 0.09206619923821671
force 0.05066711405067954
spe@@ 0.028876564547669008
Ø@@ 0.8210769457713509
trav@@ 0.023531466704721008
Army 0.03907373735675705
enos 0.41398990713170675
later 0.011515242381451681
上@@ 0.052534570978606365
ě 1
Ort@@ 0.07711399076304822
А@@ 0.007942841418426615
dir 0.049632689009083374
tah@@ 0.4114263999619558
† 0.03955379094406785
Lond@@ 1
eren 0.022482682146859456
voc@@ 0.03563894817315298
yol@@ 0.28314386384862833
dır 0.5094050332381337
say@@ 0.04195712016992464
tors 0.03249678313073648
yok@@ 0.5562038887429944
北@@ 0.04099080560068317
長@@ 1
anas 0.08589383142248173
tres 0.01984231857012284
bed@@ 0.07265152540083268
terr@@ 0.08170820125195265
人@@ 0.03443749227959557
exp@@ 0.022107207604256
Bask@@ 0.12039722458538281
alist 0.03961525284492333
194@@ 0.22588429642496372
artic@@ 0.042002321681481346
yük@@ 0.5754972214931597
Groß@@ 0.05750423756841399
system 0.022573520969217237
case 0.042004132432222535
mig@@ 0.0417144180368456
国@@ 0.04525535014781401
190@@ 0.45985928014572486
Jah@@ 0.0797769283868659
chang@@ 0.023516917410860913
sions 0.027514894355016997
March 0.017309966410939657
Profes@@ 0.09906488133872052
emple 0.14669475870143164
sche@@ 0.07760533574714426
their 0.004926208685066323
zor@@ 0.3929678615876844
forman@@ 0.2685053118915264
ises 0.04209109942818946
only 0.01020542959347592
culp@@ 0.07405579315084267
на 0.0014963585341228197
mé 0.16022038971831667
partment 0.034279805180845044
ules 0.05263671927686118
kata 0.5166317299402666
esto 0.08562818041506083
sour@@ 0.03279433740052797
ecu@@ 0.11218942301656905
empl@@ 0.08279561225957169
gether 0.03704889977801024
ifu 1
ungs@@ 0.007959624556056876
where 0.00929405001686651
Unter@@ 0.02308386197853492
libr@@ 0.04719529379988213
scher 0.06314173435229069
aces 0.060293569390565835
inen 0.06215409464452072
ned 0.01637383512665054
after 0.006725304397255378
dat@@ 0.0878329448924663
Volks@@ 0.07367470624925122
ilk 0.0904558057423364
kut@@ 0.5141560552471621
match 0.028966240683072592
ths 0.033872297160069044
成@@ 0.05338737270443062
新@@ 0.03817612803553998
appro@@ 0.02088650413751587
Sud 0.09811352102228162
cil 0.07643162417158426
many 0.010817525647134112
çe 0.30501523243163486
aines 0.06278735245733306
atos 0.07261773251986625
ezi 1
oles 0.0736866689631553
ational 0.04126179986566559
mov@@ 0.020240842949304644
ographi@@ 0.07222701842296296
小@@ 0.040320033594603025
Eurov@@ 0.2477807974249254
bli@@ 0.0649127033449543
chs 0.10328933140842228
hui 0.08560007976339586
onc@@ 0.1081032912638443
auth@@ 0.024550953570976187
宗@@ 0.18980317490679785
Milit@@ 0.056152746723667456
alar 0.26975864405024585
aret 0.31691840866514265
ht 0.08784209829790969
iche 0.08625431675637592
ét@@ 0.014034374529646166
entes 0.017084168510788894
pay@@ 0.06515626529185091
run@@ 0.02366863155835476
ć@@ 0.4396081584642534
En 0.004009664578541741
fut@@ 0.04022090734332589
ober@@ 0.08694530113960436
ος 0.030857922642520165
ortho@@ 0.28297057152467164
indi 0.9144563377066293
日@@ 0.046237740999656295
н 0.005309290537738273
athol@@ 0.02920331768261812
ects 0.020471552769523192
iran 1
school 0.015841655949178298
uso 0.052266912627408534
195@@ 0.09629755953782548
kana 1
Yıl@@ 0.6573518686250329
eaux 0.08183172539741894
identi@@ 0.0177132872414555
้ 0.15152919592054337
BK 0.6126094648351377
ables 0.0326204618709346
undo 0.3423541146149804
ー 1
constr@@ 0.1766260206939977
kno@@ 0.0532029652588786
sequ@@ 0.028674725390596376
昭@@ 0.6128616506680247
Universit@@ 0.07127892879113758
champ@@ 0.06478360879718478
Т@@ 0.012426847190585098
gal 0.08868551579113523
і@@ 0.40573111845978854
sera 0.09123415181478056
江@@ 0.10333823402141673
part 0.008419926164541597
ías 0.0475179121767501
ikan@@ 0.1080373159315668
unter@@ 0.012341397812511383
่ 0.17685255681745632
center 0.04656303240778821
proj@@ 0.02221322805736758
state 0.01578390244820569
Kib@@ 0.8447873014589843
riff 0.08484465522214851
sist@@ 0.0325522706895506
神@@ 0.11047353513430752
through 0.012424499952134726
maz@@ 0.45216125851680855
zw@@ 0.07253234838464415
Rail@@ 0.045677985261484186
tiz@@ 0.060930465822730547
р@@ 0.008055618003879534
т 0.004589527612506906
ṇ@@ 1
--@@ 0.6897689945626992
ción 0.01013916728858906
person@@ 0.022017142455574835
Ổ 1
Geb@@ 0.06067697438842052
about 0.010486145877910856
organ@@ 0.044371441841159154
yal 0.10207850092189368
yay@@ 0.28749680944236455
rö@@ 0.0935432101702261
世@@ 0.09351271026472553
Schwe@@ 0.05109574148283167
acio 0.0902156970860531
irat@@ 0.25846276861146744
jed@@ 0.8042678013379768
白@@ 0.11220074589205661
fall 0.044049586633325984
ılı 0.40711611880749
道@@ 0.12031149665640332
alian 0.052291382344218144
gemein@@ 0.03153202965051856
в 0.0007918016593083501
ラ@@ 1
utz 0.09007348578829155
197@@ 0.0643295941287622
ques@@ 0.05730903593888793
ective 0.035662308057552404
syst@@ 0.03777322437741187
ues 0.03214255317604248
196@@ 0.06880914013218993
Ord@@ 0.12099399264262474
curr@@ 0.03224291330699054
ligh@@ 0.038462780197091206
rant 0.07201842615384611
α@@ 0.04423564792212953
й 0.00428672324359049
ampi@@ 1
aras@@ 0.5393251851526397
mula 0.18776510025099652
朱@@ 0.2781072161064825
erh@@ 0.04163432741772735
fied 0.02341752199267583
icha 0.6258598070587447
kiş@@ 0.27129677991478396
Her 0.04510019285003213
Hosp@@ 0.06953255267222683
gres@@ 0.04193579526956029
µ@@ 0.7196287289546579
正@@ 0.07744549214870812
ool 0.46667291157498547
Ơ@@ 1
十@@ 0.03242043927676243
bre 0.03092961485867983
haus 0.07560469280905847
pro 0.0787220345011169
이@@ 1
eski 0.26536186463132416
inde@@ 0.07265811531543223
в@@ 0.003569578855258962
isme 0.044759985515183204
nie 0.09056989953975308
hasa 1
oire 0.07187494979001456
roy@@ 0.09448851823875354
titu@@ 0.03480658578990005
Provin@@ 0.03308321127847517
ро@@ 0.004090301821700465
林@@ 0.08172851491996444
親@@ 0.3957343270320707
1. 0.01855733826850851
acter@@ 0.052841350041015284
mak 0.167319893918665
reich@@ 0.026171964877496658
馬@@ 0.1755047933967163
oku@@ 0.5938290003865613
alit@@ 0.05309718030009762
ezo 1
last 0.02368194268691937
ological 0.03547250703455686
post 0.04330870356595645
不@@ 0.019084129476208633
Dok@@ 0.12157461521315768
Un 0.03192576418546781
К@@ 0.008386012023898408
永@@ 0.18181013375834892
eil 0.08212816905246376
Ớ@@ 1
ices 0.034922818269240215
ities 0.030310245570579875
五@@ 0.06962508916987134
р 0.005328260172097882
城@@ 0.08896809083115272
Council 0.03151975791672443
eig@@ 0.027567571334346015
most 0.009455967532482372
pass@@ 0.013401426105315955
esen 0.03525485568730554
span 0.2069935029930511
tena 0.8129401494995624
üb@@ 0.07867950661170921
γ 0.7527360263209192
Gran 0.12164126730439206
juli@@ 1
auto@@ 0.06988776737068975
nur 0.016761001596315387
uu 1
fig@@ 0.03655989671156188
led 0.011378850923862335
opo 0.7193131972071438
hau@@ 0.06377857395630222
kis@@ 0.28441561678577193
priv@@ 0.019991642282818706
zun@@ 0.12658876145337475
周@@ 0.11154517162002561
aill@@ 0.06413168752812691
kri@@ 0.0525855213426
yen 0.06535303356868992
恭@@ 1
egen 0.040080393341872765
elem@@ 0.07874006121722169
imba 0.8509641033613693
nac@@ 0.11302001943454243
û@@ 0.0415485235835463
ım@@ 0.1150119604748091
day@@ 0.19668811148639215
list@@ 0.022452925660885883
positi@@ 0.021423976974430176
ɪ@@ 1
fication 0.03269494022241302
kav@@ 0.4351746911384691
gest@@ 0.022292167223972138
jah@@ 0.0690840268724308
м@@ 0.004710143539936372
atur 0.06692284164356076
formation 0.03077384518636439
ól@@ 0.09435259004253094
192@@ 1
feder@@ 0.03658684802235211
who 0.004240647585643927
itu@@ 0.053975443633687635
they 0.006123414091546694
tish 0.07758210786471145
光@@ 0.11430220810668998
adas 0.013351446127564965
itation 0.054162968952401795
öğ@@ 0.33272251694557153
Museum 0.0368681106419233
aten@@ 0.06378479894816648
she 0.006657969401230576
KK 0.4602212539477359
haf@@ 0.06356520594794435
kre@@ 0.03361755258306303
ority 0.02824825635860971
isten 0.023481784530147137
ṣ@@ 0.9812533403560364
mili@@ 0.06894908580466992
ź@@ 1
к 0.0034072467612202796
有@@ 0.03307682620634163
iler@@ 0.12265074001815632
odo 0.08242289846422123
ル@@ 1
宮 0.3983220174194286
惠@@ 0.4943195519067486
Kup@@ 0.2001876004374704
ón@@ 0.0405228437112653
aben 0.04122161124265741
stud@@ 0.0233973086999457
fore 0.04352259128995056
О@@ 0.006583574600074607
Elle 0.015568131407092699
Ago@@ 0.7296141379980678
eben 0.012190326967986468
и 0.0009239992523792861
event@@ 0.0333980717868494
zone 0.05526471778361895
regi@@ 0.024760956531737415
second 0.00971137702648065
193@@ 0.10466590328209242
eden@@ 0.09397961827072446
tivo 0.053756838053290075
yük 1
楊@@ 0.4239288880102509
aborat@@ 0.07732610216239791
Ư 1
ŭ@@ 1
nah@@ 0.06180303546879039
plu@@ 0.08020396197596201
ordin@@ 0.03204684228800437
At 0.0157446408152155
ples 0.025364337657276147
tech@@ 0.2775244083502185
Ổ@@ 1
Portu@@ 0.04566630343377605
orig@@ 0.06838569775197238
2. 0.03721933210361079
actu@@ 0.020344247858757835
front 0.03716955735181806
pre 0.03439006008368764
separ@@ 0.029911149573891134
ün 0.09893850510478923
э@@ 0.0053125088786815785
limit@@ 0.03106821579788437
mau@@ 0.15104787721381194
tional 0.01597254435649841
阿@@ 0.036689484498047535
aşı 0.7548695654809569
ected 0.011610751835925803
fam@@ 0.0395812193065375
kub@@ 0.5819494104920546
park 0.04304463880423074
四@@ 0.042071209088388545
Vier@@ 0.0794557519896701
found 0.01417570195473603
с@@ 0.0026456015359016794
い@@ 1
Alem@@ 0.10091156424100253
atz 0.044007396851691735
elek@@ 0.08483641657690691
small 0.020505486424722597
Fak@@ 0.11291679696851877
eder 0.11284730882715648
reti@@ 0.03460698228001207
sek@@ 0.1299834946563791
çal@@ 0.26357849800342137
Hist@@ 0.06701937618135133
bles 0.035760814619939296
icht 0.018136453771689813
iff 0.06448382127193907
pf@@ 0.029337961223181688
til 0.053508290318061195
có@@ 0.11737312562974594
été 0.007605030235130246
л@@ 0.004533516420377773
`@@ 0.6658409125761571
aller@@ 0.10795956172334689
saf@@ 0.05779143045542453
uch 0.05438379549095228
arte 0.10488752426903471
vy@@ 0.6360329144459528
wur@@ 0.13707315589859087
ン 1
Sov@@ 0.3852192039270058
Sta@@ 0.03847363630834328
full 0.03156714697082516
version 0.019942867290311996
êt 0.06414620119975109
ös@@ 0.05971661511555596
His 0.014251163372520822
ecture 0.035381818435397075
Govern@@ 0.02828775704864056
Nueva 0.07753424523119173
rem 0.8521465985321012
д@@ 0.0038247094028607247
八@@ 0.09820077300464389
ilde 0.24700292931453663
popul@@ 0.02618607927690388
tet 0.01831407573163574
district 0.019571903089795575
tut@@ 0.048099794289739636
Archit@@ 0.05172890658121393
Democ@@ 0.037092142106422414
milit@@ 0.025000503861625348
ved 0.008753079879663249
定@@ 0.09358026510302911
ember 0.10196819637129362
eral 0.0534910718856058
hus@@ 0.05441396356415293
will 0.013075888433913165
女@@ 0.053219538571478375
慈@@ 0.6384097414933007
orie 0.04632426808605398
zt 0.07523689185866597
ž 1
Das 0.00800586061722068
Mw@@ 1
sah@@ 0.20186823832236303
éd@@ 0.035127697518594646
城 0.07095910633092857
夫@@ 0.1470654611939729
Dies@@ 0.04495649704126104
自@@ 0.030514962933561016
typ@@ 0.025508866973576832
ɛ@@ 1
ка 0.004900496119476289
anderen 0.034023595066628325
ement@@ 0.037650181305951325
¥ 1
清@@ 0.07374624364775219
icos 0.025876668576614976
у@@ 0.0029012050453244907
์ 0.032145724417081974
189@@ 0.3767132552103005
deu@@ 0.33426648095736733
ellen 0.02370335471872668
Parti@@ 0.06865277731894635
azo 0.12558981172881453
icio 0.031005614830709117
nationale 0.030166752143892746
retur@@ 0.024942363044920323
ồ@@ 1
Ụ@@ 1
州@@ 0.1217336333980958
dik@@ 0.1610738654608697
foc@@ 0.03307160166909898
sek 0.5233719734036469
ṭ@@ 0.9810049257634349
liter@@ 0.02719549002320437
pré@@ 0.015156338623593717
tural 0.021478497549125126
UE@@ 0.5690590075517369
für 0.0030397176336255565
jou@@ 0.020499330430093148
ofu 1
once 0.02330917466597191
й@@ 0.004103057216067544
し@@ 1
家@@ 0.046455704391870016
eler@@ 0.07080902119329718
kuz@@ 1
nach 0.004995425574082652
schen 0.021510407829711236
semb@@ 0.02539633050068887
strat@@ 0.04956456406338549
voir 0.037027931709055446
inning 0.02012431530403394
otra 0.08237262001359405
″ 0.7018152799821609
寺 0.17891412296162615
水@@ 0.0467495875096522
African 0.039341005337296085
April 0.00925418068073352
power 0.024465528169357507
half 0.025492602155336046
plant@@ 0.04408804749710661
ッ@@ 1
üm 0.19683745914457448
dak@@ 0.5096272467371492
黎@@ 0.36107007444758377
н@@ 0.004166351063838132
花@@ 0.12918754089122933
趙@@ 1
Deutschland 0.03536204855102981
city 0.012400860849232169
proxim@@ 0.055569139892669143
soft 0.22834074016716163
春@@ 0.24020351357503342
lieu 0.03540292433268703
ubic@@ 0.0824866904278777
ő 1
リ@@ 1
古@@ 0.06355547203420743
reci@@ 0.02520728733260065
tés 0.07441189185854642
188@@ 0.33047344514499105
fin 0.02055894729015958
sana 0.8215018777555692
three 0.007291194715166078
used 0.006059465584406099
weg@@ 0.029617680513534427
ский 0.006058452564003115
mondi@@ 0.48078943744424685
敬@@ 0.7992613796118178
erin 0.05051559228859105
straße 0.04312846958005939
umbo 0.43195830593541107
Ó 0.9634675770864012
June 0.012030921675380078
bez@@ 0.04591670760620515
jaw@@ 0.8612788538245613
lü@@ 0.3409607468264571
ʻ@@ 0.38636672289424434
Geg@@ 0.04005376255780054
jus@@ 0.02594173260654424
kuh@@ 1
stil@@ 0.17901749332525582
186@@ 0.429947155869601
石@@ 0.0896669696445254
zis@@ 0.22455142325774952
home 0.015231567607993223
ль@@ 0.0030290398887913134
aifa 0.6158290701336945
ific@@ 0.025805124921467748
iker 0.05799013153780122
made 0.007134153455040076
師@@ 0.2887777086539884
comple@@ 0.018636413804919653
integr@@ 0.040315969190512786
jum@@ 0.08954098492114276
level 0.025790979237360435
onnat 0.05494042541075242
porte 0.021862959832254565
ativ@@ 0.0348199252717067
kio 0.24933168712252576
mano 0.07295434642719756
pris@@ 0.034316190708742526
tien 0.07251055760430329
ête 0.03484888849214791
ional 0.034260250326648596
loss 0.022252460694111048
貴@@ 0.6215815880054535
direc@@ 0.008507857408266676
gü@@ 0.09326364723316917
א@@ 1
head@@ 0.023974230721743744
them 0.009536629178231917
beau@@ 0.05200420949686775
cial 0.017393600676225345
mt@@ 0.18548731887017963
izi 0.43672556237028953
ス@@ 1
Des 0.054763768950703035
four@@ 0.02865220609299238
的@@ 0.17070464138236094
europ@@ 0.05308601603010962
msh@@ 0.6701076489129788
oğ@@ 0.3941105111981596
ный 0.004894834484780829
漢@@ 0.19294171151897724
club 0.010473239353255661
ending 0.02596293013111273
ked 0.01802248829501382
ministr@@ 0.03263138478643195
法@@ 0.030917657894144638
行@@ 0.04232426208194962
assen 0.0455208624012241
β@@ 0.020060533381357305
„ 0.0038068754379415527
ép@@ 0.06792540275505274
И@@ 0.006747324630394655
ла@@ 0.006575329795945505
君 0.49144502750243413
Hö@@ 0.06093198614755862
ded 0.017130391076837014
distr@@ 0.05448213630363298
В@@ 0.006698449362819067
地@@ 0.021661017888649797
道 0.021389767320941895
meister@@ 0.03757333160456172
う@@ 1
陽@@ 0.3311302424440562
eso 0.11093545861968615
fab@@ 0.06449720371178996
ief 0.02806679463540005
anno@@ 0.2520730449671178
there 0.008091034700241083
âte@@ 0.3299811490953138
Şark@@ 0.4692078668322646
187@@ 0.35968787083846615
Mp@@ 1
educ@@ 0.014087764985919458
б@@ 0.004826579451617627
景@@ 0.19803320413236472
Zwe@@ 0.0609308346588085
based 0.011731837464596937
tains 0.029336209678409816
宣@@ 0.07446512711801523
本@@ 0.032678997457298756
Institut 0.06855392508847305
season 0.006343404610915271
tempor@@ 0.038188430974330397
ül 0.4201456027997416
ē 1
π 0.216687712782219
ア@@ 1
due 0.014006268871089548
kid@@ 0.15965297741500764
≤ 1
都@@ 0.17112522561758464
Grou@@ 0.16238685119996235
concep@@ 0.02968328213636053
chez 0.0499628992613184
family 0.009023949547139466
franc@@ 0.07810709677550026
軍 0.055227040408948505
Este 0.05139632571185388
kem@@ 0.32022647974182894
verl@@ 0.02127132368765645
康@@ 0.1737210516486643
atro 0.06581455814156141
ograph@@ 0.03247463902146469
ָ@@ 1
玉@@ 0.237340019695039
黃@@ 0.6182539803012903
afin 0.05622438557970661
cian 0.043634507248886685
ging 0.02670593236794628
вич 0.023923007182328888
臣 0.19556753804085247
順@@ 0.37547810909780727
ances 0.016426786579760527
tek@@ 0.11531287602805129
vention 0.033039156610228486
Г@@ 0.007229582935338347
מ@@ 1
姬@@ 1
mik@@ 0.28821268587861815
éch@@ 0.04067683686054255
之 0.03668089306045488
美@@ 0.03669211970003653
ended 0.010066105657093682
iß@@ 0.04802598234077155
å 0.5139478933085678
İm@@ 1
二@@ 0.03151963715292698
朝@@ 0.11391216096129622
afr@@ 0.09757940597564371
fak@@ 0.17204530381974986
immer 0.037605461636263444
tent@@ 0.05407244110170907
Æ@@ 0.5287494274824331
θ 0.4154448810579271
ς 0.060335279290541666
achen 0.049770851049943
nou@@ 0.08637815804612574
éro@@ 0.0286933939211359
П@@ 0.0077997767216355885
義@@ 0.10242581250556786
정@@ 1
Д@@ 0.0064431471742907994
年@@ 0.0321041993880591
Span@@ 0.029203594734053314
dini 0.5684586488757742
ʼ@@ 0.48907672250659556
λ 0.0731434300201166
División 0.07905231344705058
Oly@@ 1
ר@@ 0.9582589905886483
河@@ 0.06218320275528321
dipl@@ 0.11936687069707007
enzi 1
neur 0.032496805461894804
omen 0.3523106168219834
ト@@ 1
ability 0.023505515072844343
champi@@ 0.01794776334579883
原@@ 0.033285793385499196
Mittel@@ 0.03681254014648235
const@@ 0.057863201139586144
usu 0.14553783310978777
zil@@ 0.3980596595859942
ル 1
iliz@@ 0.06725921459941674
meister 0.0437287450027094
strum@@ 0.11146621338135529
awa@@ 0.34406702621812196
bish@@ 0.033708620883648746
lub 0.19175559700617442
ıc@@ 0.20816104267471852
я 0.0036759106237633367
ements 0.010050460632876733
itos 0.06991886252994997
resp@@ 0.019915087374642936
氏@@ 0.49563727392771045
position 0.01008596126401841
г@@ 0.004288549941342943
essor 0.0282644054536554
following 0.010446918994473073
udi 0.2796215986688806
田@@ 0.12779161007275402
aliy@@ 0.41646051226622166
divers@@ 0.07102548282245748
grande 0.03190089217398528
唐@@ 0.14564831495734515
ская 0.00962141751085682
羅@@ 0.07533434800282766
division 0.024985844687264752
kt@@ 0.05833732097353978
anyika 1
leng@@ 0.025803356174225637
rá@@ 0.06202740555078665
國 0.02048445326932427
emba 0.812874647487171
some 0.007538232626815072
Kig@@ 1
mant@@ 0.05359026732731876
а@@ 0.004607868191295099
無@@ 0.06693531459599414
華@@ 0.06788053546225559
lık 0.08691027650102562
number 0.009124552702748926
order 0.017141442001367264
ür 0.046490102684609874
buil@@ 0.021591032486657717
hr 0.03983207720561
isen 0.042570953127946815
ishia 1
ments 0.01709160524982564
prov@@ 0.01892671704981558
ď@@ 1
л 0.0021923150423928364
懿@@ 1
生@@ 0.024699494290366244
ış 0.09658921836503306
ε 0.04741472624552094
schaft 0.0073351818308093125
廣@@ 0.07504015760908248
edad 0.025832173117058526
mez@@ 0.08917197916369735
ühr@@ 0.04250538669106975
Heim@@ 0.05118512713059553
Mei 0.9238937032029112
aliwa 1
ockey 0.030369137312510737
serie 0.02755977769869954
tific@@ 0.05229365088065107
arri@@ 0.019861774072330793
estig@@ 0.08301823035253511
ests 0.023592635607674484
mw@@ 0.0821688737321724
ə 1
ま@@ 1
（ 0.004073787184957369
grup@@ 0.04161693665623014
iment 0.024140738756717777
izo 0.22437877810227583
mab@@ 0.6835944182298976
uten 0.055326964536364306
À@@ 1
ло@@ 0.0036793639734102592
ь 0.006650933634071189
鄭@@ 0.3580152335737766
京@@ 0.08702379987398194
龍@@ 0.15613287063299683
Academ@@ 0.07710384899066501
Im 0.005924193183675183
games 0.017544162179139136
gru@@ 0.060926454838738764
wam@@ 0.6974446417901835
while 0.007330942283170158
who@@ 0.019593552352316853
ん@@ 1
嬪 1
真@@ 0.09981295606694161
莊@@ 0.7968835673549812
と@@ 1
death 0.015276179692939675
kamp@@ 0.10341342453721006
late 0.01657554665840337
tend@@ 0.03790610217155359
ulation 0.0344898951584752
方@@ 0.03961993537966339
hud@@ 1
ре@@ 0.0025917097812575003
ḥ@@ 0.6312915341614769
宋@@ 0.20358520564904556
Francia 0.06891352190454023
liche 0.007784926922239164
ütz@@ 0.05069777979338544
Б@@ 0.007590600541003928
九@@ 0.07781314339149073
） 0.003978779006212088
raz@@ 0.06423043921959354
tik 0.0461982580278643
umu 0.21870545651917878
ữ@@ 1
忠@@ 0.37517314690882436
bü@@ 0.05662908805288754
ekt 0.04360535356756529
leur 0.010765135378507975
service 0.012039618288716507
yü@@ 0.2604594573705867
帝@@ 0.1346713179615346
殿 0.24813649038595603
英@@ 0.026714750348803672
ileri 0.18800929252872725
か@@ 1
族@@ 0.2003502251224071
ible 0.02347510024004966
philos@@ 0.0377758146025834
topl@@ 0.10742945020255912
Ș@@ 0.899537770034318
穆@@ 0.1898829066480335
Bev@@ 0.32842143271352753
gaz@@ 0.1489732987484734
unde 0.03612432675576073
adap@@ 0.025172545969066307
ample 0.021635345730395713
located 0.010423622171549633
luk@@ 0.3544197632921004
pour 0.002388015367746782
èle 0.04819414337504721
ジ@@ 1
明 0.043828567169862546
coul@@ 0.052277620310731285
ко@@ 0.0031543871755608456
治@@ 0.056071851330441645
Grund@@ 0.029676951914766107
Institu@@ 0.05205724521720245
abei 0.06023484345740256
git@@ 0.15499315492122917
生 0.017395555323029287
adora 0.06541257432707179
iten 0.017129501796730763
kend@@ 0.11780306486549628
阳@@ 0.206294454388392
kam 0.02038034117310228
oyun@@ 0.23903620590575048
ği 0.08319805680597771
徐@@ 0.22842878794920846
iş 0.1480386225081704
pour@@ 0.029344221310729605
ω 0.14243179140067525
erte 0.00971037433862718
player 0.018431661991026558
sed 0.01643465861112352
ク@@ 1
院 0.029124714447451457
best 0.015979910506906943
meng@@ 0.42374693505809796
tries 0.022209763745000576
trou@@ 0.029601965053826215
äd@@ 0.025777737500719405
jos 0.04068304593272598
rière 0.04945072281343557
unci@@ 0.04191077476086537
ıl 0.2795502275352807
М@@ 0.006799425014064037
ּ@@ 1
ל@@ 1
aille 0.026693065411859323
ered 0.00958843636794279
former 0.009675274595052083
jia 0.9539028273382057
national 0.01105053769642994
such 0.005658364596526675
dans 0.0017211136687832636
oyn@@ 0.1437520335024799
signi@@ 0.05620812750163734
èse 0.0509795811339071
ה@@ 1
司@@ 0.08722855623182656
adém@@ 0.061563461623743036
between 0.005274467649035616
tant 0.01689943065766466
util@@ 0.04941159607542882
vida 0.03739000619273104
ôt 0.04929175455580783
ṃ@@ 1
ording 0.020260818288087283
perior 0.05334897239695086
road 0.016149651958523303
uses 0.010163856368330665
ɔ@@ 1
т@@ 0.002421485594927086
Krieg@@ 0.03207759535095951
ativa 0.06108926710820634
inah@@ 1
inde 0.027396567998445732
tribut@@ 0.029718660169455
δ 0.6759131843465149
В 0.0019467254163884464
主@@ 0.013347990078878935
全@@ 0.021512682606174047
思@@ 0.13362279034273028
青@@ 0.06632077508613071
carri@@ 0.02307924732204867
edit@@ 0.02342498360889879
eure 0.04808513964673623
führ@@ 0.014270183809325545
ieron 0.057186713577139836
sever@@ 0.05775374916705631
tir 0.03369366819834586
ţ@@ 0.7786077918159445
ț 0.9904627544557851
Δ@@ 0.05223450536899736
宮@@ 0.36812075572300224
대@@ 1
atura 0.05497832748381732
people 0.0074913454495993586
techni@@ 0.0292101751749665
çı 0.4059863609517677
У@@ 0.006389330268405994
น@@ 0.015131301448283568
aining 0.013392127455326839
pens@@ 0.0439965712805511
when 0.00462856422505102
ıs@@ 0.0738758808222464
Canton 0.2154460021782532
Wash@@ 0.5164737444714654
för@@ 0.039470450579098995
station 0.00930042136561663
İs@@ 0.13228750730915587
通@@ 0.03757127668760582
ilit@@ 0.03970285511597496
tras 0.026859483348533712
Prof@@ 0.06316194684699761
gol 0.13500930559461335
said 0.012452879713151762
sexu@@ 0.024739623146441025
some@@ 0.01653112250420952
≥ 1
吳@@ 0.23294882096019545
少@@ 0.08022086082033687
越@@ 0.11569374933287266
prak@@ 0.10713078980021837
μ 0.10853170608890567
្ 1
President 0.02028955732975958
Türk@@ 0.18345798754475678
conver@@ 0.025992132895153452
tee 0.15256215905958487
unca 0.10533068231635122
云@@ 0.2012350986670885
縣 0.046347522532947
Historia 0.039191423914892595
东@@ 0.03220509064582947
延@@ 0.11551062836709654
承@@ 0.10744756074239943
秦@@ 0.31112034898342233
church 0.018690978758241238
ition 0.019318744094889782
Ị@@ 1
な@@ 1
政@@ 0.03307201282661065
木@@ 0.10863465624172872
Santi@@ 0.6958831582863837
iev@@ 0.016893253262964703
transfer@@ 0.03300636378890158
君@@ 0.2528539766645299
梁@@ 0.23332931547187474
ancia 0.03180177463814776
each 0.010273696644891264
foot@@ 0.026275407604094917
bora 0.979447999583625
clu@@ 0.015099263523393577
fund@@ 0.01275413339254637
herr@@ 0.049864116279703746
о 0.004340566246570529
actor 0.030489035814678492
düz@@ 0.32418198400524295
enso 0.02460422099462792
eye 0.07219022564967734
zus@@ 0.017167126489512553
ız 0.13747611496858606
カ@@ 1
ainst 0.2391808604193467
naci@@ 0.031243641378510916
ometr@@ 0.14727944534300988
ב@@ 0.937136219008375
シ@@ 1
region 0.01824090132017149
tif 0.03325866198295104
ße 0.03187065682596869
女 0.06553054680299436
建@@ 0.02195904526442127
Film@@ 0.04331722920075352
prises 0.04238196368609603
temp@@ 0.01429527485548483
章@@ 0.5013971240752619
3. 0.039488174809592096
irs 0.028195298872625767
visi@@ 0.037244922438769104
≈ 1
า@@ 0.07630550897471214
慶@@ 0.33731318160042867
ası 0.0368616144315031
eñ@@ 0.03864994850478575
tros 0.10523105832945971
üş 0.27269728711831276
ν 0.03703082232166335
き@@ 1
河 0.04930621828135112
anay@@ 0.6501741004493515
milli@@ 0.03649423047958174
下@@ 0.03234662437805206
民@@ 0.018764628358142237
郎 0.18462427550259208
itung 0.023291286226480412
§ 0.15059497393226068
何@@ 0.19632323003009666
Munici@@ 0.03852524819826122
anlar 0.24266120028436358
apon 0.15160279434434645
cht@@ 0.04460312473512268
estim@@ 0.0219754605445239
刘@@ 0.15286223532539814
fs 0.02911387321968119
ispi@@ 0.06308031477792682
kilom@@ 0.04978789175638136
ungen 0.003344871706623246
克@@ 0.020322415965462224
德 0.025197809397044586
文 0.03598357452347602
enden 0.008315004346333374
enen 0.006738818414565902
rek@@ 0.061095749737776664
孫@@ 0.32372565801475717
府@@ 0.5672830009951363
alif@@ 0.02310278600871103
bul 0.45702067530647267
ently 0.006857671752798432
gut 0.05180387681696586
language 0.019414086449092708
nacional 0.022692791132150274
pose 0.016998792263014068
tig 0.03264853185872464
wani 0.7153153817837673
レ@@ 1
Tari@@ 0.18263398871082426
icas 0.01920647672232031
pek@@ 0.7290060628752442
yet@@ 0.10274885127274277
ıt 0.3585695474405625
ви@@ 0.003046336503755844
六@@ 0.05635091155979182
月@@ 0.06799170247328011
黄@@ 0.11245651294025183
moder@@ 0.018947530852194014
ême 0.07520779023469877
но@@ 0.0023963065094060043
事@@ 0.0345072048414542
士 0.023104809683127652
lead@@ 0.00825207872098154
onge@@ 0.3465924692651452
plan 0.01938943129744773
traf@@ 0.03528469983487575
wir@@ 0.0199124825364684
ßen 0.017104523918212686
ıs 0.6657802585011026
на@@ 0.0021195806049761467
祖@@ 0.12461751703915333
魏@@ 0.3024169666315346
Pia 0.7750431188601706
carr@@ 0.05050171326044369
dej@@ 0.045854499355058816
kwa 0.08292796386800641
offici@@ 0.00914591154463519
к@@ 0.003294194980542742
ц@@ 0.006495149109439658
Ạ@@ 1
张@@ 0.11598240246708319
我@@ 0.11860112281976015
elte 0.025757083147742246
erst 0.036467399436469525
з@@ 0.0030666976019860332
် 1
七@@ 0.07335786644898123
弘@@ 0.5341693586715546
興@@ 0.1362453434873306
büt@@ 0.21093805980499636
title 0.014535157207437067
о@@ 0.0018567078598429544
百@@ 0.06621471755880314
陽 0.21409002281657166
Au 0.02111874996528702
fav@@ 0.032451977658711766
ľ@@ 0.9330089967973365
Ế 1
ש@@ 0.9323953653292987
い 1
た@@ 1
化@@ 0.04963940109720121
曹@@ 0.2795641682452037
淑@@ 1
innen 0.03294975190933934
韓@@ 0.13685405409552903
4. 0.04234977517222411
Stad@@ 0.07376690209001453
design@@ 0.010389452740421122
ict 0.03946404012660794
population 0.007323827257813636
θ@@ 0.015960284479533418
σ@@ 0.015046517853196098
е 0.0014001166670730594
נ@@ 1
マ@@ 1
史@@ 0.07658681991829848
尔@@ 0.026442927786662386
祖 0.18850845091071144
commer@@ 0.016036335431005404
una@@ 0.6336633396356472
σ 0.48006159716240965
ְ@@ 1
ス 1
貞@@ 1
aje 0.017947092707549253
anı 0.0743433439290646
フ@@ 1
左@@ 0.09648347586710046
昌@@ 0.3150442808394773
asili 1
candid@@ 0.01682807986185432
diz@@ 0.0757143974582212
schaf@@ 0.04111687632007377
stad@@ 0.18327262556513418
zul@@ 0.05974169604354223
zum 0.0035731283703329545
À 0.014056432890310602
х@@ 0.004670736696071146
ь@@ 0.0040162871341256155
蕭@@ 0.6142490474942516
郭@@ 0.2618548163706634
along 0.010425421470431644
control 0.016376936100082926
country 0.013324384189515398
kup@@ 0.22086445895059598
ís@@ 0.026929130571419803
ï 0.09626957191345827
ɑ@@ 1
ός 0.026021438500670648
с 0.001120539940497179
崇@@ 0.24423490663626415
經 0.05484376803407156
사@@ 1
arias 0.05357290542196019
dad@@ 0.05526800627399216
during 0.004161150791599065
same 0.007286020334852693
ж@@ 0.0027481626925375184
こ@@ 1
士@@ 0.06585175393981944
等@@ 0.08685990061673467
aissance 0.02890731563284458
princip@@ 0.014054811473520184
äs@@ 0.018462414946658477
安 0.051917190581107026
appel@@ 0.03033187152237492
chiế@@ 1
escu@@ 0.036996266454811785
laya 0.47828521151667625
pata 0.9057608391517917
étr@@ 0.03037989508954257
φ 0.1383547652770224
ん 1
江 0.07010343822153679
門 0.06001731403064712
陈@@ 0.13920256314564294
Liter@@ 0.03313152602993352
fot@@ 0.06493835974390443
ifa 1
using 0.010132591193951782
Ơ 1
端@@ 0.46424168870583304
Form 0.04277654902113467
enst 0.043915391864040344
platz 0.04082759516602202
tly 0.017350488816161278
ım 0.05913148284071781
ǔ 1
ни@@ 0.0021446980021462307
お@@ 1
同@@ 0.026460047628645504
心@@ 0.078324425259816
萬@@ 0.08706645703629357
pero 0.010921094652678287
во 0.006886719598060742
alem@@ 0.04701628634939713
ambu@@ 0.5499604383012247
cription 0.014866712199352776
final 0.007554238036337758
initi@@ 0.010674482697176068
schule 0.02422992279556925
éta@@ 0.05821514247041398
м 0.0015311802035095242
爾@@ 0.027471071164740832
胡@@ 0.12282482293122667
famili@@ 0.01439732739533302
publi@@ 0.013783273174521089
ш@@ 0.0029675630212408722
김@@ 1
Bu 0.03602315339128142
Campeonato 0.05762045057033746
bahn 0.026447870575352604
natural 0.024433248318562275
south 0.013326690171448528
succ@@ 0.012608784568123988
ロ@@ 1
洪@@ 0.17848528754984522
cover@@ 0.01336008496603017
eño 0.030358634257197724
ongo@@ 0.12547566089691836
with@@ 0.0407962689764234
Öster@@ 0.03659458620828462
δ@@ 0.014533690204164104
ง@@ 0.02257102604701872
タ@@ 1
常@@ 0.05044756408449921
Bir 0.1500205613910901
besch@@ 0.014368491291846827
ellschaft 0.029519009831841615
equi@@ 0.02076328833936001
firm@@ 0.020599158602426965
itali@@ 0.01863923262393115
writ@@ 0.009055329492791302
ная 0.004694923249985834
嘉@@ 0.0975600535562755
These 0.014271812966354568
ament 0.018541777660481592
eurs 0.012141042362410695
nant 0.03653909073353007
ą 1
杜@@ 0.1263166642607127
kip@@ 0.5890734473141868
leit@@ 0.029554373419247885
π@@ 0.014985844415977329
caus@@ 0.011936671873434732
orden@@ 0.05250399084596911
го@@ 0.0030612505887433216
奉@@ 0.2735120822979159
Papa 0.21351302310623338
lanz@@ 0.021263521371575937
senti@@ 0.045935395172851695
мо@@ 0.002506278410399799
千@@ 0.05887296725634009
ayar@@ 0.39293818775113126
figur@@ 0.02874641147641522
short 0.016592518095226036
γ@@ 0.0177071627060665
特@@ 0.01538694395538503
門@@ 0.1498393128075874
～ 0.3287889900199635
altı 0.33687213403034444
aque 0.03713713159318939
various 0.014374127954716934
vier@@ 0.039499674642017084
я@@ 0.0031364007785503775
仲@@ 0.40149419398731706
吉@@ 0.05234240082747305
多@@ 0.016761096925955524
川@@ 0.1442302687407017
differ@@ 0.02801840775138334
isches 0.03636817260291424
named 0.007827492478654708
stand 0.009670591367889255
御@@ 0.25875188051321857
central 0.01601932382878262
hari@@ 0.7450075108395405
ildi 0.09401327190717387
obj@@ 0.011660420563151343
tent 0.0375037711448495
部 0.01101611168590962
Universidad 0.024657710301326505
continu@@ 0.012547197803451914
heit 0.015416206657476414
techn@@ 0.012941380320845549
İk@@ 0.31220608302313896
ρ 0.04114240879785473
Со@@ 0.007629107329028412
dér@@ 0.03553737805598324
eten 0.008465447894847183
just 0.013035138409222116
ème 0.015788778695481287
κ@@ 0.01210439191845579
ра@@ 0.002567414194890799
外@@ 0.030691771664172713
平 0.05366412418658602
长@@ 0.05086787724510487
kik@@ 0.7334775216552963
雲@@ 0.19822146502454177
appe@@ 0.014703624183103281
enant 0.023789968186024774
social 0.013434193597584328
‰ 0.5596733373569869
り@@ 1
ド@@ 1
事 0.020335872666502063
恩@@ 0.10402888775387137
立@@ 0.04126868326035808
Fren@@ 0.3077571093051884
quali@@ 0.01903302089488674
テ@@ 1
學@@ 0.017692496568109433
nomin@@ 0.015146035496295163
ʿ@@ 0.19416211682455975
г 0.0038699064189086666
ַ@@ 1
☆ 1
壽@@ 0.5502223440865688
Akadem@@ 0.06195700810084811
auf 0.001428644921250956
dağ@@ 0.20830219603040478
dies 0.02046312471844197
high@@ 0.010925391202992225
ished 0.008901650599307313
lili@@ 0.2911873072932125
would 0.003478338643893284
çi 0.15129997830861192
ığ@@ 0.10640400471240592
ле@@ 0.002151649235482945
♭ 1
る@@ 1
against 0.005071642992745334
ède 0.028090954709875254
üst@@ 0.0368750123422406
Ω 1
ва 0.004234288805907877
ע@@ 1
ら@@ 1
以@@ 0.016775994401401387
伯@@ 0.05776678426713695
藤@@ 0.338725949696822
before 0.005266184766219519
muj@@ 0.07232430611418256
đị@@ 1
ы@@ 0.004904991794919637
ト 1
巴@@ 0.019946183897777095
時@@ 0.027698196996222366
玄@@ 0.4163431867345398
avant 0.012660405929416082
derni@@ 0.02281596450345098
march@@ 0.03497679274126836
village 0.007200990969554503
Kongo 0.3809573295426262
ecto 0.030661838916319552
stati@@ 0.03361161563982358
tard 0.02379527708417787
Р@@ 0.006816693014532008
く@@ 1
さ@@ 1
合@@ 0.02100067357873568
ched 0.012293549292202253
clus@@ 0.02370820555638386
near 0.011285765939289026
pain@@ 0.01441535784190121
uzo 1
保@@ 0.022580041225482957
学@@ 0.01658273034632173
왕@@ 1
donn@@ 0.01773309953663158
ense@@ 0.02054413796690118
ė 0.3062493267280932
ка@@ 0.002281914886028967
仁 0.22981048267781506
伯 0.14503265680913938
區 0.01801280637250154
海 0.03859605935771303
田 0.08381734355227922
clos@@ 0.014338958175442383
did 0.008202181070499652
grou@@ 0.012189090811334964
incia 0.1497031260951629
partic@@ 0.011136810017877018
寧@@ 0.31702724950893546
語 0.04946358350637074
chter 0.029542027528263758
comb@@ 0.017202083206293364
forma 0.015624441382276824
puis 0.009495245388575869
record@@ 0.012416643805562138
sent@@ 0.02893170183210836
® 0.8955867587147723
ř 1
е@@ 0.0029497884413234193
евич 0.02449409085853191
夏@@ 0.0618741870672851
destr@@ 0.017241615845538003
ectiv@@ 0.017993081061324967
ikia 0.9268389714609401
İsp@@ 0.28418635895557093
Ф@@ 0.006467740488016609
по@@ 0.0012954299846274595
イ 1
式@@ 0.5211315778195806
是@@ 0.10057231282293896
范@@ 0.11432891117193426
香@@ 0.12840926484699752
5. 0.03790465077155291
Haupt@@ 0.015367674392001318
graf@@ 0.041481625174664374
ม@@ 0.011063529639017836
ク 1
重@@ 0.021976989647354304
eleri 0.12991347793330169
spor 0.20220551924886745
Ä@@ 0.02166594909781913
λ@@ 0.016753138463177355
元 0.02862213997721313
物@@ 0.028382118347037667
里@@ 0.031864452801400746
consider@@ 0.0077780939202815045
gew@@ 0.008966960041795069
idos 0.01601733423760313
north 0.01097212185438722
née 0.026336543363484077
vot@@ 0.012153033237460656
what 0.010741442768801462
内@@ 0.04069603022451126
皇 0.19350198518071202
知@@ 0.057769550844224166
make 0.012297137339400448
onio 0.048336243184020605
qu 0.01944333829593603
wich@@ 0.02753999430892651
ög@@ 0.04249155706985734
ǐ 1
ה 0.9558749018085024
に@@ 1
ア 1
天 0.03465287080114304
如@@ 0.03381510595916884
將@@ 0.042193227719849735
書 0.0794109753565609
Es 0.00628888880774646
â 0.2901668091268032
ť 1
ż 1
バ@@ 1
和 0.0036523940871217996
being 0.004413091297432065
fest@@ 0.031753177494475704
ilim@@ 0.44098498952703025
large 0.008077560760042629
lieb 0.3070152874479075
не@@ 0.0015981172724256654
容@@ 0.10869663682853205
지@@ 1
habit@@ 0.016447642729720022
lande 0.0385341929549417
É 0.4131846455337159
可@@ 0.03115702281414427
台@@ 0.041869149298719446
고@@ 1
bau 0.018577320889868115
expres@@ 0.01355866623353881
temper@@ 0.024651882424569012
会@@ 0.04653218224258068
堂 0.04884418240720167
理@@ 0.02647995869579404
Distr@@ 0.04645305729629803
charac@@ 0.011321370496260563
econom@@ 0.012522437778030339
Н@@ 0.007055981617780459
□ 1
ィ@@ 1
信@@ 0.040817663436880335
尚@@ 0.09886765727763584
府 0.044083238508113756
軍@@ 0.025825821922219556
風@@ 0.06475002264709473
Region 0.021389968447188202
called 0.005621889220553292
endre 0.019142666921821573
entre 0.003096408039796773
general 0.008371384850281945
ised 0.010772152333478384
isión 0.011459490773040064
issen@@ 0.033260171585709514
nt 0.01757613329056676
Ét@@ 0.10393771013375339
楚@@ 0.3342908728097369
襄@@ 0.7034184979345719
马@@ 0.02840998242349419
한@@ 1
Constitu@@ 0.02763690221262459
condi@@ 0.015609289191874655
distribu@@ 0.018786386707786283
echo 0.04461709853608849
marqu@@ 0.02250331082887661
onya 0.166462710916107
ве@@ 0.002531626792083243
キ@@ 1
中 0.005642435245566149
書@@ 0.08000688800846917
齊@@ 0.3398160507271681
Ein 0.016124900767480025
Tür@@ 0.06663714873526877
ained 0.007881800357191054
aña 0.04479864175182127
д 0.003194744407871615
光 0.056362856377649075
동 1
España 0.021642641834786723
acı 0.20872329133286263
langu@@ 0.040756316236924335
ück@@ 0.028042365292985462
后@@ 0.045912942679282844
estruc@@ 0.039426010519448315
nord@@ 0.03444502527420501
quier 0.04244935002601388
yet 0.03304150104434185
Ö 0.1285216968547958
éré@@ 0.024332739125222883
Ā@@ 0.4974125457550045
до@@ 0.0018912352238338638
ли@@ 0.0016998363569322278
杨@@ 0.16905552733606435
衛@@ 0.1065747532313011
appar@@ 0.010837986999936258
avec 0.0022932616765232077
fici@@ 0.021841210114909658
placed 0.00966811351118057
program 0.01424608079062796
ち@@ 1
慕@@ 0.29340852749076973
空@@ 0.037365207463596395
dispar@@ 0.03750926102914972
elik 0.2022201470463689
imani 0.9457454560669076
isation 0.013491769634196715
maya 0.06574224541719362
million 0.009198125449607089
あ@@ 1
宇@@ 0.1644281425299163
愛@@ 0.06270255135392212
egos 0.03307930242447815
wie 0.0056643783273211375
ś 0.7934388545032716
ри@@ 0.0019680066798465723
代@@ 0.03131344200390493
善@@ 0.26715599372889315
寶@@ 0.14667438242345843
師 0.05895809429717763
星@@ 0.048628149477711526
龙@@ 0.10055495841772707
aged 0.008851605665926944
ichte 0.023973098678552136
orden 0.03827874120285231
quel 0.030022865998550655
werk 0.02124072487625378
years 0.002997288725709606
º 0.044938319902155716
üd@@ 0.035924046935732916
не 0.0017270228531600857
ск 0.018128100760544955
ա@@ 0.46352581922669134
博@@ 0.04079980809012356
富@@ 0.08688487057762384
Böl@@ 0.14709592990071685
Mär@@ 0.12016809080351896
bed 0.023692770423207932
biy@@ 0.2308592028370443
exper@@ 0.014813400108543661
polic@@ 0.021208221957898402
possible 0.01481328366312537
Ко@@ 0.005857910762476848
во@@ 0.002431751047051549
陵@@ 0.3881853863339342
의 1
both 0.00472913310964109
emu 0.6848726332659998
present 0.010757125739170497
З@@ 0.007528432502556704
га@@ 0.0038474884091380386
າ@@ 1
も@@ 1
先@@ 0.04733420777315919
旗@@ 0.143678379366296
武 0.16040727406694724
agric@@ 0.016778797020865068
aires 0.007606579047454883
exten@@ 0.01376113217988724
journ@@ 0.010612760408442489
local 0.006589711182507472
municipal@@ 0.018747663771360824
original 0.007902262724688306
tigen 0.012197449133354096
Ка@@ 0.0052556474137797175
ย@@ 0.011299273468152031
Ệ@@ 1
ブ@@ 1
烈@@ 0.4184477710891991
燕@@ 0.3722371463661055
靖@@ 0.8479512172601307
Grün@@ 0.022724585093158712
larg@@ 0.012174868982159696
pression 0.021379695774925444
sud 0.01638051475866219
tlich 0.023527140974754536
и@@ 0.0024431876850494806
у 0.001945205315905887
ч@@ 0.002120555095141353
น 0.013980456453535395
佳@@ 0.27890462619575024
龍 0.07163918080649065
Flug@@ 0.024504949835688374
activ@@ 0.006090947108091723
football 0.007330244096769323
geç@@ 0.04957486480848107
hata 0.652581013904524
since 0.005965360569780553
wala 0.4641463926843021
Å 0.6156496815144481
Δ 0.2116240416025923
бо@@ 0.0030532371679835263
樂@@ 0.04596841719292705
시@@ 1
Histoire 0.022905776141781
Kön@@ 0.2594700283740287
entos 0.008607438310960178
veau 0.0834186396953921
រ@@ 1
ṅ@@ 1
妃@@ 1
憲@@ 0.2774056084556073
良@@ 0.17001217515771824
around 0.007051694465194529
atif 0.04289231018391899
defin@@ 0.012109124103520939
inco 0.24507327391397665
jud@@ 0.019020608471567235
take 0.011731237242370273
ǒ@@ 1
С 0.005079285021181576
ャ@@ 1
佛@@ 0.06792195116416432
月 0.0033682751149321016
dok@@ 0.25422050928601
imu 0.6360554566843009
lesia 0.028983841923794995
these 0.005729214791756365
ɾ@@ 1
ִ@@ 1
ា@@ 1
ḍ@@ 0.9882291366863042
中国@@ 0.05766519219801812
水 0.03568591640415109
義 0.08055424376069874
인@@ 1
Conse@@ 0.026763143677695896
Europ@@ 0.01676817186944799
Professor 0.021774913477043478
hali 0.4504389407933051
oppos@@ 0.017559196203997252
ת 1
は@@ 1
一 0.020490705161902698
announced 0.00970286513201231
bier@@ 0.04684397208750718
française 0.020520270650283768
kush@@ 1
rail@@ 0.013485560562832954
waka 0.9553607299198428
© 1
ы 0.002018232605163476
ם 1
み@@ 1
れ@@ 1
ウ@@ 1
オ@@ 1
名@@ 0.019843309025461792
後@@ 0.02071635022641686
記 0.14272227267834497
7. 0.03596536097394225
mek 0.06508894917032998
public@@ 0.006156412477517786
six 0.00772817165631795
் 0.529445947077321
右@@ 0.13373444303430582
獻@@ 0.4939746574413221
行 0.00988443226076636
bağ@@ 0.15570022738716133
combin@@ 0.0144418834905585
ersch@@ 0.014414087297725094
excep@@ 0.015035933336485988
ė@@ 0.3053893590107761
Ř@@ 1
ʃ@@ 1
со@@ 0.0015771785659525624
ก@@ 0.011632817056248725
布@@ 0.02305450625339281
松@@ 0.1197459518772118
沈@@ 0.19367652014489908
� 1
Distribu@@ 0.03091474915660214
Por 0.02180501215185451
best@@ 0.008330338846247634
elde 0.1154082542893463
ically 0.011317467399656207
illed 0.012238844958447122
logr@@ 0.026138374782177343
studi@@ 0.008874648504795498
though 0.005098063716618038
tof@@ 0.43969026832434877
unu 0.055118253833574576
τ@@ 0.010524423591929007
ა@@ 0.462879392659218
サ@@ 1
吴@@ 0.17239330471081007
懷@@ 0.27226183450528363
林 0.029426149347161007
裕@@ 0.8149117780713377
隆@@ 0.13847297774925826
신@@ 1
아@@ 1
Meister@@ 0.029495438065745918
gesch@@ 0.0048691667580148725
idence 0.015526727899053478
kuj@@ 0.6934728793834948
tival 0.02595767114687946
zey 0.38894174943230303
за@@ 0.0013735995536711676
が@@ 1
星 0.032872208824320744
集 0.03883932451855716
국@@ 1
성@@ 1
Afrika 0.09866216091379908
Bür@@ 0.060334075561477324
December 0.005614509498247033
again 0.009382802627628946
autom@@ 0.014454034911871836
colon@@ 0.02237883384890741
reib@@ 0.016549161490591487
şehr@@ 0.13910204144895288
ν@@ 0.011662507240666448
Х@@ 0.008029230095934618
土@@ 0.04725888020848381
川 0.05733794477989398
火@@ 0.046302263833862455
野@@ 0.10356177492541085
construc@@ 0.015297837647093134
lama 0.07103731532388247
record 0.008620514691505037
の 0.5534022128322335
伊@@ 0.026147432100731498
島 0.044616998825990205
花 0.06918016813106875
達@@ 0.06825010846703164
Ab 0.021793242903708758
Virgin@@ 0.18980413201437893
adil@@ 0.11844457326641232
complet@@ 0.008521052490358718
event 0.011906549429409915
father 0.00821998408211214
natur@@ 0.013246592707710168
probl@@ 0.011933327170994181
Л@@ 0.006136932059402063
ナ@@ 1
成 0.011058981024682656
靈@@ 0.19271319302122858
hosp@@ 0.01741167969984477
publ@@ 0.013032252956910578
sort 0.027341341205790702
но 0.001580210033634113
п@@ 0.002553186383539326
正 0.049909717526595135
都 0.012974119061543974
顯@@ 0.11707146158039512
Fes@@ 0.0968698640768005
November 0.0039009801733474016
angu 0.6987157532478342
desc@@ 0.015348697954012456
ismo 0.01408090416667653
tish@@ 0.4954933245360851
üng@@ 0.03935918831970931
ан@@ 0.003080691098473442
崔@@ 0.3120566450052176
者@@ 0.611376284091855
蔡@@ 0.19781464181210978
音@@ 0.029296181257824287
cion@@ 0.010164108035285939
class@@ 0.009275089136074412
industri@@ 0.014503627803895134
promot@@ 0.010951736464448391
äch@@ 0.008139305448374932
óm@@ 0.06205426542074002
ла 0.0016755539224472898
조@@ 1
crit@@ 0.03002532255353612
scienti@@ 0.01623257900071879
èg@@ 0.026441802837810814
ди@@ 0.002574665968963023
う 1
原 0.040013190945601955
家 0.010497573925262177
志 0.06987407123152284
镇 0.03618330664247213
Isra@@ 0.03290452324483227
banda 0.027053665442466682
five 0.0069531537203131304
grand 0.013252825564053392
observ@@ 0.011381169401321412
oder 0.0036074959285247025
ouver@@ 0.015425585636097921
played 0.00406780467136468
÷ 1
ünde 0.04143600935938413
ه@@ 0.009686041665441788
て@@ 1
其@@ 0.020442020647311425
国 0.012433185665236896
戦@@ 1
會@@ 0.031097788545107263
沙@@ 0.04397727598181053
Histori@@ 0.016684222830757694
appear@@ 0.005408793228999151
bres 0.019035809683398318
classi@@ 0.014659177645522138
temps 0.010778836286607908
went 0.00860037438006993
コ@@ 1
法 0.011542036568222521
año 0.006212398051262806
days 0.01065967433961837
mbal@@ 1
points 0.009111962615929396
ported 0.007976957309765597
prac@@ 0.010247229909261713
province 0.01585295332050153
ρ@@ 0.012227605955287687
ม 0.011737234986306829
南 0.016993181419296805
真 0.1690444117044731
那@@ 0.04861342443563413
6. 0.030729048643410597
Pour 0.019432529565363517
alik@@ 1
ancak 0.09039268276035768
early 0.0049303538185656946
idente 0.029993816900718867
ously 0.00875463741010773
received 0.0062101050652925175
tribu@@ 0.022720252229687876
öch@@ 0.018762719790812163
а 0.0023639544669952074
前@@ 0.026923741783281052
至@@ 0.04359637062392069
興 0.18061283619105797
8. 0.03214359022340588
administr@@ 0.0066018455961319965
eden 0.04231872805608682
feh@@ 0.026215342584153017
icht@@ 0.019144503532827085
imbo 0.23799476301755546
monde 0.013234941836403644
resul@@ 0.00615710126871423
sans 0.011841531843073662
without 0.01105754947625142
üler 0.04857205843826368
üre@@ 0.06696783457487693
φ@@ 0.010235415511324892
да@@ 0.002402813926015967
де@@ 0.0017832761962516014
та@@ 0.002430010702706656
ド 1
內@@ 0.0340265951119972
华@@ 0.05673476265634693
社 0.05425996805282063
bilin@@ 0.15434782016614823
duk@@ 0.15448691628486486
isim@@ 0.12071578177697687
rue 0.025505234822798702
until 0.003953748450612623
χ@@ 0.010098777247083851
ด@@ 0.010532994767200718
儀 0.32990582138290314
華 0.06972528055918231
Entre 0.02338525471422891
ewa 0.36963940272216805
recog@@ 0.012345180047469
wann 0.2709586137687565
ŋ@@ 1
ǐ@@ 1
то@@ 0.0022447982419565647
ֹ@@ 1
ן 0.9335518495733331
哈@@ 0.03142182092143622
工@@ 0.018751715238497235
！ 0.1662962425821242
Ayr@@ 0.3066093652247299
bt 0.01713405276255844
next 0.009598801508015942
ungu 0.5599610435220433
ω@@ 0.01441771854614446
ар@@ 0.003928159669624582
сь@@ 0.04577596339030684
ỵ@@ 1
っ@@ 1
ガ@@ 1
丁@@ 0.0865815991029499
神 0.05652627554720499
老@@ 0.052971019268984953
auch 0.0017499518527984968
leş@@ 0.07019892558322216
muz 1
requ@@ 0.01113978591154252
uzi 0.4443803646996352
ρος 0.07386589643462069
ма@@ 0.0022579254613281606
ти@@ 0.0020483617360468635
ว@@ 0.01454469450244957
← 0.9615501367272596
〜 1
智@@ 0.10855858481552577
9. 0.031873028601561035
aî@@ 0.011967830695024209
century 0.005639613999466563
esab@@ 0.907191182171961
ided 0.010883197067675737
sible 0.015287234252793498
tradi@@ 0.0058032075271794515
utsch@@ 0.11327167777693789
ен@@ 0.003012691688339889
グ@@ 1
宁@@ 0.1033341320050576
村 0.02941616326808477
泰 0.17465179604598013
동@@ 1
주@@ 1
ately 0.006388414495444455
ecke 0.016999707555312354
eln 0.015123524473480787
inclu@@ 0.00740121417927438
ismus 0.026859050938205228
lege 0.013755935342910303
prec@@ 0.016390958605994634
respon@@ 0.007609249213900487
statt 0.015555631770116802
ť@@ 0.9072363964425469
ον 0.05751803121246794
та 0.002064080051333872
广@@ 0.028654270697400244
政 0.0598892813750221
罗@@ 0.023695659471853727
英 0.08803477691220774
達 0.029128469371443526
나@@ 1
Eins@@ 0.018797355116509328
zeug@@ 0.016954258806730058
äf@@ 0.009468719408769406
ד@@ 0.8161147084603603
Ộ@@ 1
ỹ@@ 1
利@@ 0.013386663951295017
木 0.09279875099719047
adop@@ 0.01250432933933401
ateur 0.009272745348497912
issen 0.027083104963447485
iyi 0.0945677589746777
still 0.007459207064165108
çu 0.0378814843351039
Σ@@ 0.008718694688387383
Ми@@ 0.011129289485846336
∈ 1
夫 0.022593339660478037
母 0.053916172485616656
紅@@ 0.09336095401226129
而@@ 0.023271228046514183
院@@ 0.08308657245585929
集@@ 0.027646183444337204
given 0.009086471054615783
ischen 0.00130303734854925
puer@@ 0.03749418015576802
Ć@@ 0.7542378881119909
ʊ@@ 1
Е@@ 0.005238364659066111
ө@@ 1
ร@@ 0.010725949570919102
∞ 0.8679652163891911
入@@ 0.0343217447850146
大 0.010207517680783094
熊@@ 0.3320407085092077
相@@ 0.012555944299824307
禪@@ 0.914178786662055
featur@@ 0.0058099484111744405
influ@@ 0.006847156679159266
numer@@ 0.0127611212813133
present@@ 0.005945561822650903
publique 0.020285651318722835
waz@@ 0.8941502719179051
within 0.006415369824289473
ǔ@@ 1
Во@@ 0.007640822875245985
Ц@@ 0.010599849207640953
са@@ 0.003180564880698922
チ@@ 1
園 0.05087793002237617
魯@@ 0.08668923829355404
Indon@@ 0.06669480055041453
atta@@ 0.026351225959768996
auti 1
nach@@ 0.011486328931722332
seinen 0.009061076176350102
several 0.0044766345479360405
Π@@ 0.011805206674302633
η 0.004250713027064333
х 0.0015999098102625156
ћ 1
כ@@ 1
แ@@ 0.01358660254947811
メ@@ 1
兵@@ 0.07189564037874183
孟@@ 0.16882312777066305
守@@ 0.10128864481090966
원@@ 1
Wasser@@ 0.020466777207871246
unas 0.035215322791897194
äh@@ 0.0096911551481959
ר 1
ṛ@@ 1
‑ 0.4366536699593434
ュ@@ 1
万@@ 0.043225609152965805
京 0.033897122930590655
出@@ 0.007729939163620657
尹@@ 0.5920067200828096
lement 0.013985187440336298
member 0.00518821830299683
ually 0.005701286370978749
wach@@ 0.03053348041567866
weit@@ 0.010280522906129623
叔@@ 0.4133046077277291
蘭@@ 0.04671359218120832
赵@@ 0.1746870223057716
風 0.10089592256665633
Compan@@ 0.11352478001393805
noch 0.004751036428694601
ль 0.003137060103736877
作@@ 0.013741161492409525
年 0.0011206104243312097
會 0.006657854132948648
泰@@ 0.045074666501481835
長 0.01064014265279414
Stadt@@ 0.01143904841601867
andere 0.02186228128477705
conqu@@ 0.022412423396763616
cual 0.01186175398699587
eser@@ 0.10295536193091775
expl@@ 0.009613360451528904
hizo 0.024258327461287522
nation@@ 0.013071968812437358
æ 0.3092403673581016
デ@@ 1
ニ@@ 1
将@@ 0.10836613181240495
晉@@ 0.2007431922232332
歌 0.0697751003343472
部@@ 0.01787499755493258
이 1
September 0.0030296964717502917
enton@@ 0.5790574489269948
isho 0.5674902503387123
äus@@ 0.0205777959228124
ко 0.005246171974582921
プ@@ 1
佐@@ 0.14793891960732325
侍@@ 0.20299238326298927
大学 0.029631206425254207
拉@@ 0.011456039591948323
昌 0.1221867786347854
開@@ 0.024692240617571592
associ@@ 0.009221808151450997
contempor@@ 0.018330208582744176
model@@ 0.01304083336978108
tiy@@ 0.1394696126685409
universit@@ 0.008899763002097721
¼ 0.8176400958499107
éré 0.02601813202302679
се@@ 0.0019775838688141385
ё@@ 0.0025597057002878566
พ@@ 0.013781636474621535
ァ@@ 1
パ@@ 1
也 0.006608014142982195
侯@@ 0.23019728959886235
信 0.048177056450573394
在@@ 0.04006842529092634
官@@ 0.03276963315512192
志@@ 0.09344224661865198
慧@@ 0.4561067006132006
睿@@ 1
純@@ 0.42735887335863787
선@@ 1
주 1
： 0.005979064310181096
October 0.004216316089347354
Una 0.025710505253147695
clas@@ 0.014708454367255892
could 0.005504066808723039
distrito 0.03279599519273437
much 0.008105764533181643
poin@@ 0.07725365932021733
released 0.003698690345216318
rir 0.04321054878056894
ıt@@ 0.052009367543585344
ŋ 1
̣ 1
س@@ 0.008814586779900758
本 0.015277979426131134
源@@ 0.08795947428793277
繼@@ 0.06318495854033407
者 0.008255226012200268
도 1
Califor@@ 0.07331549780360713
muş 0.11089678464396424
trieb@@ 0.016424224221491673
yana@@ 0.8011986612823302
çek@@ 0.057858230976193116
ي@@ 0.004920486088402308
Ậ@@ 1
セ@@ 1
ラ 1
台 0.014141132029330027
呂@@ 0.3085049549316233
拳 0.507447933045134
若@@ 0.12210430782084485
July 0.004172189030567378
competi@@ 0.007683788205101835
deutsche 0.020889947016820454
dial 0.025064911291866197
information 0.011755845667517088
ologie 0.007440733161194654
près 0.013845196477706389
ücke 0.020714624631616416
да 0.0021985245951169703
ส@@ 0.0075532394099527
เ@@ 0.015673686060671706
下 0.008188091409384398
普@@ 0.019840857436234885
歌@@ 0.02829431674865369
第@@ 0.012857467401354976
美 0.04828761168309068
雄 0.09076484380570858
서@@ 1
According 0.009114421486627883
ennen 0.016025788257949133
inclus@@ 0.0252862782534743
ogle 1
versit@@ 0.042440937406654944
Ü 0.5055016675548919
İstanbul 0.07286553352316794
Бо@@ 0.007418422915946534
于@@ 0.10488961632267267
教@@ 0.012916635645296081
Dez@@ 0.27557473068878097
design 0.010448244744680975
docum@@ 0.007871823378571733
east 0.009336261573023127
politi@@ 0.006373833753304957
ète 0.01739659317104541
Ḥ@@ 0.5713520287569988
口@@ 0.06352930753199608
司 0.0774051112613659
리 1
Barcel@@ 0.11906481158858638
emas 0.029458487063299076
mash@@ 0.20586930257646574
territ@@ 0.008031179924359859
vili@@ 0.04454845128404099
Ба@@ 0.009364039549195267
エ@@ 1
寶 0.3867965175656783
方 0.014177043281823766
章 0.047887074360951964
蘇@@ 0.05139191855071435
－ 0.06363813795804857
años 0.004718976915609524
homme 0.019854708588476072
including 0.0028289271834098574
kung 0.0223133927507778
ζ 0.1001409780150382
К 0.008375508612321591
Са@@ 0.006416957045704495
ת@@ 1
བ@@ 1
ひ@@ 1
春 0.12460550936112937
段@@ 0.25752209995565145
溫@@ 0.10804442062896805
Para 0.02198137763322489
history 0.006496183884328836
kü 0.1743827671665785
television 0.009240763088745302
unid@@ 1
ähr@@ 0.012560147387147554
Ч@@ 0.006874009019480853
би@@ 0.003503039945829378
ミ@@ 1
共@@ 0.013117233708985312
母@@ 0.05902201075814343
郡 0.0508528961242108
compar@@ 0.009329639311858701
koa 1
sö@@ 0.12068588145738633
ʼ 1
ά@@ 0.008658806920952188
ία 0.007515036547754511
А 0.00731486757948151
Ж@@ 0.009068018927105532
ное 0.0035636132840126938
פ@@ 0.9691578482027655
ร 0.02019078850422428
じ@@ 1
ょ@@ 1
り 1
季@@ 0.09154182368370382
拓@@ 0.2379055887736989
為@@ 0.03302735625906089
肅@@ 1
路 0.011032785576552078
里 0.012899862670120613
馮@@ 0.4915499629489514
장@@ 1
aband@@ 0.011805883527125373
ached 0.007966366977902735
alled 0.02117624598188768
kön@@ 0.024149722330564165
´ 0.1265146553609835
öff@@ 0.016790026001588597
ру@@ 0.0021790637419130186
ү@@ 0.998982109835641
ח@@ 0.886321420795981
つ@@ 1
よ@@ 1
乡 0.05172271378316277
令@@ 0.05804014761010517
修@@ 0.033288852178189575
從@@ 0.11671854734226052
拔@@ 0.0660230965124993
梅@@ 0.05632733134897754
福 0.0894965978543274
艦 0.10437670698884927
金 0.029596534326733346
錄 0.04496719729540224
Guerra 0.02388613927490072
January 0.0037971350750210216
Stadt 0.006535121254926831
archit@@ 0.008439704144171445
casi 0.032941357323309085
celle 0.01443655725747323
kua 0.6177252349494484
naf@@ 0.6318792067683298
spor@@ 0.031163598530618133
third 0.005792160301821613
those 0.006288587531582878
Α@@ 0.009795561127682501
Κ@@ 0.008960008000490861
Ле@@ 0.0069742735845114735
ش@@ 0.007968040200173509
ས 1
⁄ 1
虎@@ 0.22634395365783028
가@@ 1
Famili@@ 0.016850915129042243
abab@@ 0.9321221642536748
fang@@ 0.017893008606740295
kent@@ 0.08624165220578486
toral 0.015295484470787343
ε@@ 0.009215289981339017
Бе@@ 0.010337663231388478
ки 0.001679907887362633
ダ@@ 1
忠 0.18156398114314196
最@@ 0.007887411261953092
桓@@ 0.6688491359851741
毛@@ 0.05754351326426892
汉@@ 0.05202381711731405
港@@ 0.04777538973694242
綿@@ 1
馬 0.01916452101842195
공@@ 1
원 1
하@@ 1
chef 0.017017736691598482
ingana 1
tige 0.014420166087762018
ης 0.011018618924757724
ان 0.009622038931630581
ไ@@ 0.016500401890436986
Ἀ@@ 1
兴@@ 0.09591753024786752
哲@@ 0.12255359774887763
學 0.02065524835341756
居@@ 0.0318539924869425
徽@@ 0.22050477651304437
潘@@ 0.1948000825249385
科@@ 0.011608795393380193
羅 0.036013460634862576
賢@@ 0.5008366012572596
자@@ 1
Universität 0.009700643189470589
Verw@@ 0.011489779425964996
cier@@ 0.021949910570738525
eviz@@ 0.18402559597541357
histori@@ 0.005688189251412398
kari@@ 0.0844072578319782
provid@@ 0.005985066502336446
ί@@ 0.008199071435741301
Э@@ 0.003125409368245397
ник 0.004782579699128064
丹@@ 0.06919590205669049
奇@@ 0.07419113733751036
字 0.024243624821567687
欽@@ 0.8165662815990797
洋@@ 0.09401159875458429
湖@@ 0.041526803244579455
石 0.038671453368552794
董@@ 0.09890624105046636
諸@@ 0.16506189691220713
飛@@ 0.05942307327276957
경@@ 1
Partido 0.031150874611592983
arded 0.008343474659344258
because 0.005441467961921732
company 0.004592887321979468
determin@@ 0.014605701958651088
election 0.005739602925742892
explo@@ 0.011528206284807682
religi@@ 0.010154600964481708
stitu@@ 0.027471479886634134
ð 0.3685509839107646
ний 0.0032337068966617364
си@@ 0.0021918395300840926
乐@@ 0.04661735354236409
娘 0.35559973458461624
裴@@ 0.6411086337251001
기@@ 1
afu 0.5511915638386332
chini 0.21985479389754872
dici@@ 0.04227793358703957
inform@@ 0.009767034200320516
international 0.006573561869922984
lieg@@ 0.011948805931185415
liği 0.051786075880586306
seh@@ 0.021654216777499798
verw@@ 0.009190858595275669
Þ@@ 0.2711477199894078
ɔ 1
га 0.0038901198681647615
ги@@ 0.0030127058691519185
те@@ 0.0018799150611648646
ر@@ 0.008285458614680007
で@@ 1
傳 0.06943112772936695
功@@ 0.05205164833779933
彥@@ 1
柳@@ 0.19253041820864175
秋@@ 0.14617408439152954
論 0.03955911749043643
雄@@ 0.10588733634934427
雪@@ 0.12377374708525175
리@@ 1
Alman@@ 0.1640889509446845
ayı 0.05203873382540372
cito 0.30847044654740274
lage 0.01118916268555968
По@@ 0.00308009171067817
ל 0.8800182597071693
ح@@ 0.00740781353176569
し 0.7399601558163319
る 0.8951994316887621
令 0.028927944998975694
军 0.012042891420371807
分@@ 0.007338715648360682
卿 0.17998807057151817
官 0.028203537619564248
治 0.025761169102922095
禮@@ 0.15996619497610515
도@@ 1
adores 0.008712891897106285
allem@@ 0.015482220083559421
atique 0.01397256978073432
bila 0.822163405520907
development 0.007246849310873255
energ@@ 0.013292634745353344
held 0.004076029858430929
origin@@ 0.0053423870117850205
pueb@@ 0.0731869312341885
î 0.05440229943320496
ʰ@@ 1
ва@@ 0.0013181716132979711
Ồ 1
保 0.09727625795597293
口 0.0212845281157123
回@@ 0.022302120260616957
日 0.0033656170760736773
次@@ 0.04482845390320316
湖 0.05360131467064246
exist@@ 0.006091564554816524
party 0.008126631332666697
period 0.006766764258891369
tiki 0.8088323839335367
ör 0.0652870689425611
ɡ@@ 1
ба@@ 0.0031137808934298124
د 0.008994659065180488
จ@@ 0.011132029551160657
仙@@ 0.1480793225887704
公司 0.01338109031675002
姜@@ 0.38611010057605333
得@@ 0.027059244157933787
盛@@ 0.08527905072979285
總@@ 0.020924920850960434
虎 0.1673121026033925
鄧@@ 0.29875652802997543
鎮@@ 0.0819913047188727
靜@@ 0.3181516090835343
igt 0.0111209963222706
rece@@ 0.010962266483563915
role 0.006584263450976063
На@@ 0.0043339464102002245
О 0.011346633250464519
Я@@ 0.007437055477497406
ля@@ 0.0022879537144890136
сть 0.005550077538605473
ј@@ 0.6086114301736243
ช@@ 0.013609306336006233
ズ 1
史 0.03723962671380343
孔@@ 0.13213455035590269
恭 0.8220469659174868
族 0.01759083654132088
輔@@ 0.21541762838889067
수@@ 1
arios 0.010485570451056796
described 0.007076276373232886
deş@@ 0.14280090285750782
empe@@ 0.020747785405987516
formed 0.004309115874997437
mita 0.12666917021643376
previ@@ 0.0059458917612251316
wake 0.06957900042105375
нович 0.02170963732914869
ст@@ 0.0018922893286053115
د@@ 0.008440557816394412
勒 0.03479628026453688
姬 0.40195443329222136
尊@@ 0.16420840997848832
局 0.017440365137435902
心 0.031026619280250935
手@@ 0.028868150131785286
敦@@ 0.21011006382238906
藏@@ 0.0845738080506452
覺@@ 0.38279638410916667
許@@ 0.0483292739434673
스@@ 1
département 0.014662078288469615
entro 0.1005295199815464
signific@@ 0.007051596821642783
taş@@ 0.05798975073564266
univers@@ 0.022069786771966988
üz 0.15687257768375376
þ@@ 0.46771238969739504
τ 0.020075518478402336
ύ@@ 0.010657333779045014
ра 0.00203402438928119
ц 0.00528216781214487
⟩ 1
リ 1
上 0.004084808027718105
会 0.007975072361555348
來@@ 0.08709561232388958
慎@@ 1
通 0.022680643149269434
麻@@ 0.13201808569743792
전@@ 1
Politi@@ 0.011561998305232189
anst@@ 0.01844767250481737
aussi 0.005507534086780384
inner@@ 0.018593764918215336
jina 0.2649343555761711
often 0.0059507430269204005
seur 0.012860382164385571
vita 0.3831464766773946
พระ@@ 0.023313799773641664
≠ 1
ろ@@ 1
ビ@@ 1
周 0.0892677997571408
字@@ 0.030973871434936205
濟@@ 0.19759629828994
瑞@@ 0.03901237659916954
후 1
centre 0.007560862361218416
children 0.005345647632689431
onship 0.008528695348492094
yote 0.35632350767227083
zwe@@ 0.008518549858887694
ι 0.011172146460150098
Ма@@ 0.004742760967450523
ه 0.007479878277819307
ى 0.013256710226459868
完@@ 0.03265181668939373
市@@ 0.015564543357793097
情@@ 0.023947755627606097
手 0.016933722289836934
未@@ 0.029754039135477826
莫@@ 0.04360012642156226
薛@@ 0.2940901972110979
다 1
alın@@ 0.07947100470498418
enten 0.008560216435939573
isons 0.01891339989712337
lichen 0.0020745689527535195
lık@@ 0.08226295970089328
peu 0.010776367588037147
published 0.004700349036171098
της 0.002128246612356689
ми@@ 0.0019267404940316055
ي 0.006490677954332137
ง 0.011894063974510486
บ@@ 0.009026133730044667
ອ@@ 1
ར@@ 1
加@@ 0.00883112610272048
姚@@ 0.29223409569674963
威@@ 0.02433237293806344
於@@ 0.12652391985553857
无@@ 0.028668124386391103
機@@ 0.019079571035860884
派 0.02415361933422334
清 0.06891401619855957
貝@@ 0.06862971220020339
起@@ 0.025597538978868992
유@@ 1
` 0.7425717380366963
cet 0.020437060062130846
partamento 0.02377272969308131
teil 0.007230392145235164
tı 0.039279646649343455
ק@@ 0.8572685578811055
วั@@ 0.040826467184333706
င 1
Ọ@@ 1
ム 1
代 0.012532162210086968
友@@ 0.11097767216011593
曲@@ 0.06324424537982212
朝 0.02077089520036741
秀@@ 0.10549578642950506
赤@@ 0.09340505233840786
达@@ 0.037326147883141585
오@@ 1
Auf@@ 0.003186775849044483
Ce 0.00891103690186814
course 0.009969539677876966
ehe 0.01474352850305239
films 0.00921157939224848
haup@@ 0.019548794411142986
llev@@ 0.012424662581107151
nghiệ@@ 1
И 0.009883337417163851
пе@@ 0.002732888724064488
י 0.6583834696740781
ი@@ 0.38031523132814965
☉ 1
孙@@ 0.12869224471332744
度@@ 0.0674670370506109
敏@@ 0.2220504053538693
格@@ 0.015022153314061894
省 0.007559044958665336
程@@ 0.03094059870805747
葉@@ 0.11073237905453658
誠@@ 0.4637704907996268
雅@@ 0.06482184042278037
顺@@ 0.12442010517121121
February 0.0039036731242515768
Tanz@@ 0.08036377809830403
fuer@@ 0.013528507425343731
lớ@@ 1
propri@@ 0.018159582516205044
secre@@ 0.014791103894743605
tür@@ 0.02111000559135224
uç@@ 0.05395420693270047
Λ@@ 0.014032678133137556
Μ@@ 0.00861427327281938
ι@@ 0.005980671476111466
ма 0.0025996848648318217
خ@@ 0.009867886645767113
ن@@ 0.007387660903636556
ล@@ 0.007508319269999171
ག@@ 1
傳@@ 0.028938539115607974
初@@ 0.03550625877781184
固@@ 0.09502984942686353
牛@@ 0.08337071271550545
管@@ 0.03447413962483581
草@@ 0.0707491292243425
見@@ 0.24777410531300817
민@@ 1
Güney 0.1284397529389231
envir@@ 0.009238332827898136
esine 0.09194198829466693
inten@@ 0.009305688548368007
ived 0.0165112869098947
resid@@ 0.0073910144964801664
ρι@@ 0.011290750690226583
Ру@@ 0.00952618401679346
ат@@ 0.003212965723259663
ин@@ 0.0021448883054893605
лу@@ 0.004217068030705368
ب@@ 0.003741629518130409
ج@@ 0.0064141434270699
ာ@@ 1
⁰ 1
─ 0.04787986533528267
ハ@@ 1
人民@@ 0.021881894809680204
今@@ 0.05045473834449605
宜@@ 0.1436122489520011
蒙@@ 0.03566758713812654
门@@ 0.08333284551423871
階@@ 0.10011417879443883
黑@@ 0.029816371217964287
huri 0.45210230741706375
ilç@@ 0.07149279547681664
muz@@ 0.27303628083371845
rég@@ 0.012331117660030786
siz 0.092206827040969
zeu@@ 0.014666549482403653
érieur 0.011907312425614505
ę 1
İl@@ 0.10824023143582136
ق@@ 0.006652621836567672
จ 0.03457237718623975
ເ@@ 1
ἀ@@ 0.6025239215263318
₫ 1
塔@@ 0.029408172374914263
希@@ 0.02186385291399157
所 0.010106026029831142
竹@@ 0.12432414680912024
紀@@ 0.044283649934250706
經@@ 0.014492325898195182
臨@@ 0.1251113344361145
郎@@ 0.27810015661110143
Best@@ 0.01776769434727077
Estado 0.022139152263307066
abaj@@ 0.043415379027343666
develop@@ 0.005030224014817164
fahr@@ 0.00878546867461547
organiz@@ 0.0036085838688866066
útbol 0.04903054668233086
ο@@ 0.007950045589343998
ные 0.0014485967518356986
မ@@ 1
Ỉ 1
♯ 1
ノ@@ 1
交@@ 0.011549222103372177
任@@ 0.012838653269208584
地 0.005112117845244027
簡@@ 0.04902939717416196
魔@@ 0.08706392141415975
소@@ 1
absol@@ 0.011153652835878242
bind@@ 0.009975038674783507
culture 0.009877547985493035
matr@@ 0.022637338018861787
ograf@@ 0.013368674337480839
pou@@ 0.016579115084209083
production 0.004829715673677092
septi@@ 0.11193280355559777
waf@@ 0.21788721033450992
ʒ@@ 1
υ@@ 0.009389600926570586
ца 0.0050644892072933346
ֵ@@ 1
ầ 1
Ờ@@ 1
命@@ 0.029146916533029914
問@@ 0.04864629075664641
定 0.007463762218819268
所@@ 0.015763657624434275
烏@@ 0.05230361986901517
珠@@ 0.15886737415318652
直@@ 0.014687869277395302
良 0.08386223671493069
言 0.023458294231536433
기 1
보@@ 1
auen 0.012280549843184614
dado 0.029969277709387284
kez@@ 0.21723986147982516
konn@@ 0.0212525475338098
manif@@ 0.017146297938002396
provin@@ 0.01644135912502405
teilung 0.016925026549044476
öst@@ 0.011634782362395284
ɛ 1
ха@@ 0.0053532423268839585
া@@ 0.5495937917056439
ต@@ 0.007164408661940939
ე@@ 0.4669132053036307
使@@ 0.03417741621269558
宝@@ 0.12214836488593593
寿@@ 0.3072655743758062
来@@ 0.027732121566490003
洲@@ 0.1325758091610795
碩@@ 0.3659206182722165
色@@ 0.04887189629353423
郑@@ 0.1302083839974888
陸@@ 0.0765762479953782
영@@ 1
의@@ 1
태@@ 1
dres 0.1389823549972354
fass@@ 0.010124519377433203
follow@@ 0.005771809109411676
issu@@ 0.004275580020898216
modern 0.008943070248457873
terior 0.012691174101988225
total 0.003877337974825932
wap@@ 0.40495239238381514
ération 0.01451255824388698
Ľ@@ 1
Мо@@ 0.007864299912561068
бе@@ 0.0023640193270253757
нов 0.004556998750669856
про@@ 0.0010448786096845537
че@@ 0.0016664570183764459
ع@@ 0.006258774996757461
ท@@ 0.008543880521778765
№ 0.013950197613023374
≡ 1
わ@@ 1
姜 1
應@@ 0.04760669132685435
曲 0.016372574755927384
爱@@ 0.0657540722969428
紫@@ 0.13225637614052532
語@@ 0.052083037100228505
화@@ 1
Sept@@ 0.3087801079995353
another 0.005078284809723476
atı 0.09017256508273723
ebil@@ 0.11155848673680342
gesi 0.1511568155512959
landa 0.06486871824203855
toire 0.01669283727799246
ucu 0.08894702372528655
ún@@ 0.011543231590780842
αν@@ 0.006218937831800876
ว 0.011724474568968093
ງ@@ 1
ན 1
を@@ 1
康 0.05953462166265643
格 0.014442526812561786
流@@ 0.01765603016007728
省@@ 0.024219734578191425
禮 0.10595115123059756
統@@ 0.04746628679645765
翼@@ 0.3449536230671137
野 0.08310200753551648
사 1
안@@ 1
천@@ 1
Woh@@ 0.012422890993388749
conserv@@ 0.00691332209672714
ellas 0.021816407270360296
kirche 0.016286125196980788
mf@@ 0.08201897167759674
¾ 0.9515503856664467
За@@ 0.005404725106697923
Но@@ 0.009426885684784152
кий 0.011432530628233002
чи@@ 0.0019183571135580992
ย 0.013914963888625165
า 0.014051989384979485
ོ@@ 1
亮 0.12437040784275437
察@@ 0.05385278140108747
昭 0.46355579946738823
玉 0.1893528288411219
紹@@ 0.3816491553595075
連@@ 0.027514550341489762
進@@ 0.01871801935881206
마@@ 1
Tod 0.015131818150392768
alipo@@ 0.7734662849975956
community 0.006011759844523797
inay@@ 0.3308305703719922
national@@ 0.008835226683860619
office 0.0072643835438943845
̃ 1
ψ 1
ни 0.0027256541421710307
об@@ 0.0021455935154708196
ֶ@@ 1
ນ@@ 1
型@@ 0.135779314132098
夜@@ 0.117137749026231
故@@ 0.027314206049897267
桂@@ 0.16402629127226703
翁@@ 0.4892646469033007
航@@ 0.023010420392635636
路@@ 0.015892000689585434
音 0.021477024851009354
선 1
Fuß@@ 0.011480785967222126
However 0.003711552320851913
República 0.021349348092165966
disput@@ 0.01254151014961293
eines 0.003915317326167545
udur 0.11570415095262805
¹ 0.8281458835236579
éti@@ 0.012552274729377796
öne@@ 0.20268879194599398
ʁ@@ 1
ˌ@@ 1
ге@@ 0.0038361077390401356
ле 0.0028388666852849796
хо@@ 0.002262985447851728
ل@@ 0.0035656119633200958
อง@@ 0.035081106629357345
ສ@@ 1
Ầ@@ 1
‡ 1
√ 1
典 0.0417837241232391
利 0.009573940849984483
古 0.039947190929841205
哀@@ 0.5134063974717146
洛@@ 0.02077528215041834
漢 0.14081319239139592
祥 0.16889698188841565
處@@ 0.06203011052179903
面@@ 0.036654825442065275
頭@@ 0.0687369340013405
高 0.013913953931437063
제@@ 1
학@@ 1
National@@ 0.008580534178265407
Pub@@ 0.04702555394218323
aison 0.020882713008822693
among 0.00563886250619224
came 0.0054707600882406855
deki 0.03106482750789256
licher 0.007094815681075794
oren 0.007806286219181342
vard@@ 0.16175602155918123
zeh@@ 0.012440174046657265
ων 0.006838261334563724
ду@@ 0.00252066929631435
นา@@ 0.018511609685857026
อ@@ 0.008123572490916222
ေ@@ 1
ワ@@ 1
名 0.003940622934013711
善 0.06268966217691371
威 0.05643191687181743
室@@ 0.24573911443260307
宫 0.10926743655520094
容 0.03142125041143012
尉 0.17662996631409067
度 0.0065299361744094245
廷@@ 0.2133348625686014
校 0.014636431000693407
甲@@ 0.042132598653160123
雲 0.16406562929862936
행@@ 1
clim@@ 0.009935497595577976
deter@@ 0.033883162362595004
estas 0.012091718478229043
performan@@ 0.005558665463040477
qued@@ 0.016694093407731005
situ@@ 0.004107215585326246
support 0.005343823610362079
written 0.0058874769444792465
zial@@ 0.012867196468217443
ƒ 1
ξ 0.1328103430797155
Рес@@ 0.017498070541746177
ор@@ 0.0030170202895559326
ր@@ 0.5891655332055912
محمد 0.049122084273915505
ก 0.008013156317193524
ศ@@ 0.016475382021761624
ុ@@ 1
‒ 1
だ@@ 1
め@@ 1
ィ 1
ム@@ 1
ョ@@ 1
你@@ 0.4320637298998243
勤@@ 0.326282738803235
同 0.014541487896212572
圖 0.04459382739263769
場 0.01052422096727364
宫@@ 0.19674733325935306
寧 0.18394708945854688
橋 0.06926709518141859
維@@ 0.022548367101510453
红@@ 0.05076153805428054
能@@ 0.020537241729102075
鮮@@ 0.23626453835983996
Wirt@@ 0.01422637994046667
cada 0.010137206999462509
ehir@@ 0.12794892323540585
gek@@ 0.012951032899585352
merc@@ 0.021520447523804758
üğ@@ 0.07118140452335674
за 0.0011715527345181262
ز@@ 0.007559432553444153
ข@@ 0.009762091584935743
ະ@@ 1
☃ 1
⟨ 1
え@@ 1
き 0.946587800503586
三 0.02373091591321195
书@@ 0.02697501571855467
园 0.043569537255179806
彭@@ 0.12998602770086953
斯@@ 0.005009728744759539
机@@ 0.015393358028970506
東 0.02068076047184244
步@@ 0.06641329038979261
賀@@ 0.25464636247473355
부 1
Straße 0.01517176270793808
capital 0.0073282572323479355
faire 0.007630067591838726
novi@@ 0.178372354848406
registr@@ 0.010789794422372781
Τ@@ 0.009193269684558424
Алек@@ 0.019054904324807043
ро 0.007980206056599931
ское 0.004283473270105871
ป@@ 0.009036761097213106
ိ@@ 1
モ@@ 1
央@@ 0.053448182612763157
好@@ 0.052992934062275406
曾@@ 0.0250640254312798
甘@@ 0.0753338057088865
电@@ 0.011179489767028702
節@@ 0.03694368197053161
西 0.01104871369501148
要@@ 0.07952779761749845
詩@@ 0.13420080013303556
谷@@ 0.1375595855909106
越 0.04467924374940813
遠@@ 0.09908293513460094
강@@ 1
Lebens@@ 0.013362057946233451
defe@@ 0.005487820754101091
değ@@ 0.05710026146107058
lük 0.12957233794773856
municipio 0.011055611761098916
̀ 0.1851986956191716
στ@@ 0.006056016188784426
М 0.01172691801927939
ав@@ 0.005972677430370101
ى@@ 1
ု@@ 1
ស@@ 1
ῖ@@ 0.8314645354498461
吉 0.08288264115386058
喜 0.20289481595381526
悼@@ 0.7678167955824653
盧@@ 0.10392116846907494
苏@@ 0.024068869781116657
順 0.23970198219629507
박@@ 1
Zeit@@ 0.009729011722906768
assist@@ 0.007440859953246469
ickl@@ 0.03719542174815234
neh@@ 0.009021996113854232
route 0.007412904147813613
similar 0.006269093011880381
tions@@ 0.014032854603283747
zas 0.022439480047406597
¡ 0.10060738423342636
ús@@ 0.032008745645380574
über 0.0015883996966675978
ɑ 1
Σ 0.13432160096567683
і 0.25769433077730847
ມ@@ 1
း 1
Ề@@ 1
カ 1
キ 1
僧@@ 0.255308612004979
兒 0.05692171620104022
喜@@ 0.05356247429889911
封@@ 0.04504898819786023
戦 1
摩@@ 0.04490228741841805
教 0.013027237059310146
殿@@ 0.26139580968092707
汝@@ 0.23630897961729053
理 0.009153341579599697
苻@@ 1
超@@ 0.01938322373847788
남@@ 1
산@@ 1
----@@ 0.25699523877992536
Landes@@ 0.011275879709422112
Parti 0.02182570324904011
conse@@ 0.007862546200534419
died 0.003711518586780158
ehem@@ 0.06943051092222062
forc@@ 0.006393138117216912
government 0.0031293964915474217
histor@@ 0.007157655791699316
imiento 0.005782151442217969
maji 0.5201471830156308
schluss 0.012462739180268379
signed 0.006098562904286907
tener 0.019282239026911438
È@@ 0.3189511024908392
û 0.0551447759861378
Ủ 1
ソ@@ 1
ッ 1
ツ@@ 1
傅@@ 0.2464884686751882
向@@ 0.0459221383113181
始@@ 0.04592869384912729
榮@@ 0.11393971324935939
男@@ 0.019404348103683133
衣@@ 0.15022843336609015
麗@@ 0.08725545939936764
종 1
지 1
alien 0.012118787596110146
bajo 0.008408867734456376
bien 0.0053954871862758646
built 0.00325870747331719
einen 0.0015589424976961595
incre@@ 0.004083704712177966
lerin 0.01518001736843546
élé@@ 0.010741152110497523
ɐ@@ 1
ʊ 1
Ан@@ 0.0050275032839611706
Се@@ 0.004346654492844739
сто@@ 0.0015517154184081395
รั@@ 0.024272775095043386
ວ@@ 1
く 1
す@@ 1
ナ 1
伏@@ 0.19279828550076106
儀@@ 0.1407380876995483
孤@@ 0.19867588082714077
思 0.07109951835340503
景 0.03763123443795087
济@@ 0.07246383853755398
牛 0.12666325827481287
空 0.022272149203017056
立 0.010967752006979149
謝@@ 0.12531819389763899
陰@@ 0.15081250914009106
라@@ 1
무@@ 1
산 1
아 1
일@@ 1
aciones 0.002467933180672981
aiss@@ 0.020259638553075398
arse 0.00657090755241947
dire@@ 0.011853640659424455
erne@@ 0.01384639612530367
mort 0.006753834718195976
wao 0.6088232497646107
xico 0.4312720180366853
ǎ 1
τος 0.028650624933859937
Бу@@ 0.009746487636258632
ев 0.006616653243619215
ер@@ 0.002748824000490592
з 0.003694100468270149
ג@@ 0.8838864718377503
ס@@ 0.7990628744013041
ط@@ 0.006479326572047926
ད@@ 1
ུ@@ 1
რ@@ 0.4431362951751158
久@@ 0.15865046208427955
僖@@ 1
商@@ 0.016976219800092715
场 0.013600345773776739
夏 0.11182629079891085
指@@ 0.012025330673371148
支@@ 0.023046192170984824
男 0.0723159612353618
童@@ 0.12828540955555157
護@@ 0.075150582955466
韋@@ 0.1183654582346333
미@@ 1
어@@ 1
왕 1
우@@ 1
II. 0.01139871824103056
allow@@ 0.005361498333209846
depor@@ 0.021692402314095506
deutsch@@ 0.02515546638585031
different 0.00453923610631915
director 0.005169979576076365
français 0.006647334561286751
gradu@@ 0.004430901115714874
général 0.008994444295378646
instrum@@ 0.0080033017164148
layan 0.12601686341725318
making 0.005995799379884926
obra 0.012695432159785535
osas 0.014680129414389512
¢ 0.9519157972660686
ünden 0.021012152764176138
丁 0.058093414583696226
乃@@ 0.12943620442332318
乌@@ 0.04984750767428279
二 0.03815736788314107
別@@ 0.116671073807343
又@@ 0.06896178312310752
开@@ 0.01451201361786084
律@@ 0.05865343077242986
房@@ 0.060199209607810104
源 0.020966300154304982
阿 0.08758517610361453
隆 0.05024144561253324
館 0.033149727036107475
교 1
법@@ 1
장 1
최@@ 1
Lehr@@ 0.011635529933299232
elected 0.0052796743463353266
few 0.0056333002249740185
geg@@ 0.006280244242597314
habitants 0.009627337579290468
independ@@ 0.00614501417942946
ingt 0.01243480260277401
mois 0.012052102585171018
represent@@ 0.002963450123516589
suite 0.00655823631289723
verdi 0.10086073008766008
wali@@ 0.13617569897707293
women 0.0041975252548316355
yeni 0.045120870444132
Í 0.8696819717719285
ät 0.009820357158399993
út@@ 1
ɐ 1
˚ 1
Го@@ 0.006873055085289816
Ш@@ 0.004604832675841062
ал@@ 0.003760477101457574
ме@@ 0.0013685796138206334
ี 0.014899168045152223
ང 1
ក@@ 1
け@@ 1
ジ 1
世 0.013124014484682934
勒@@ 0.03641767298111514
妙@@ 0.6027003856827915
布 0.013216863811140393
愛 0.12601814261393804
旗 0.07063797231722983
熙@@ 0.43254261274927164
社@@ 0.012380659642576546
茂@@ 0.20547694574659195
關@@ 0.03237610652105121
隊 0.010442939902319696
akt@@ 0.05606368188389275
ased 0.004792294364642942
became 0.0016542872478146034
relati@@ 0.005553166842405566
risto 0.26207895387348834
yüz@@ 0.03749754626540216
équ@@ 0.013258297077566254
ɪ 1
До@@ 0.007369870743987638
Про@@ 0.006187496168068733
па@@ 0.0016251759115319293
ч 0.006215912391851298
ше@@ 0.0020672555481873714
ї@@ 0.5464450050463238
オ 1
ケ@@ 1
慶 0.14497813679841132
提@@ 0.013371710180337788
易@@ 0.047775577844580204
祥@@ 0.2627239560622846
秀 0.06467967615042876
竇@@ 1
蘭 0.01875812530785145
비@@ 1
수 1
Janu@@ 0.7538250991048681
conoc@@ 0.009319479249557271
dès 0.014954969107713129
introduc@@ 0.005257990735380325
jeres 0.16514720921179019
jour 0.011998694181845829
être 0.0030738375099138822
Васи@@ 0.016225519107929385
Пет@@ 0.01166909414499694
Та@@ 0.004680451182659406
ан 0.012458658402499033
ного 0.0009392595357696433
ров 0.0027883282841356096
ז@@ 1
み 1
ブ 1
勇@@ 0.13834614439651408
戰 0.0199524857479791
敏 0.16722054081603763
毅@@ 0.7226104636902069
满@@ 0.08732896740593486
貞 0.563805952664992
雙@@ 0.039136380965244404
상@@ 1
해@@ 1
Arbeit@@ 0.00711747266802219
Platz 0.007025725660437463
Staats@@ 0.012586591492308457
ciones 0.0030865895637982267
grab@@ 0.012832839104188913
ieder 0.047522883819875794
tionn@@ 0.005342663733233385
zug@@ 0.0063407114892846455
Ý@@ 1
ʔ 1
ας 0.008546658230257836
Ар@@ 0.005523180881398158
ев@@ 0.006701995920262574
мир 0.015679689059463386
ной 0.0007524019562422428
пи@@ 0.0020619523677463955
ци@@ 0.00252067700538664
ห@@ 0.012060060490557321
ะ@@ 0.018512202567892305
็ 1
ັ@@ 1
ほ@@ 1
マ 1
亲@@ 0.08593340698422572
关@@ 0.019960584157889448
力@@ 0.02792011695757685
圣@@ 0.032340343748637077
壽 0.3061515612797993
望@@ 0.1805368249531121
溪@@ 0.10874190548177952
禧@@ 0.9418462404828486
車 0.011456767586537561
鄂@@ 0.3020132129437164
구@@ 1
진@@ 1
alık 0.20214065019783595
conduc@@ 0.005993560512223505
egem@@ 0.10049702636352784
fand 0.007539498903930829
investig@@ 0.005861407123312759
jour@@ 0.022017541505799456
Ì@@ 1
äng@@ 0.003410751178673128
él 0.011393145761243029
ʔ@@ 1
ξ@@ 0.013878659219606527
ό@@ 0.006556918272693878
ли 0.0008373290623431777
са 0.001826348437773961
ур@@ 0.005416661105974766
ян@@ 0.007288126829173441
م 0.006733272174967087
க@@ 0.7411508906178659
™ 0.8190559558248574
ゅ@@ 1
乾@@ 0.0805594701387926
命 0.016784875126116598
幽@@ 0.23012732464653132
性@@ 0.025644136048272793
果@@ 0.10226644290586721
梅 0.09209236173167952
泉@@ 0.14731441197295836
津@@ 0.07643916847727947
深@@ 0.023969530878125058
辛@@ 0.07112003635077699
限@@ 0.02464283230728587
静@@ 0.2280587272367214
인 1
진 1
declar@@ 0.007068644936070286
deux 0.0019473947782097513
greso 0.01801770145055046
having 0.00476217132420484
included 0.003531423230367134
incor@@ 0.06932289152530298
ión 0.004329883606877953
novel@@ 0.011375265924741534
nun 0.010113981504168937
ıf@@ 0.08471357305844542
ɣ@@ 1
Б 0.018818210942699733
При@@ 0.007036672575362784
ния 0.0012434143019135985
ш 0.009482413833709399
ո@@ 0.50183406622002
و@@ 0.0035603191031923316
य@@ 0.01315695946696591
Ẳ@@ 1
Ồ@@ 1
休@@ 0.07804776038002958
允@@ 0.0944464693707931
榮 0.12914435620091258
觀@@ 0.03133130064376651
運@@ 0.013330358674302479
領 0.05820262136014237
鬼@@ 0.26001851617456617
부@@ 1
성 1
에@@ 1
ammen 0.022191110959737134
auté 0.010961196502775383
haber 0.014671572981865628
ihr 0.006461513618520771
juu 0.2416589867286135
siy@@ 0.06536883542173941
Ο@@ 0.013880697347252773
μα 0.011198689625151725
лы@@ 0.005589141495180739
пу@@ 0.0022242594142258525
ю@@ 0.0016489968903908871
ต 0.013063451425068073
ລ@@ 1
པ 1
‌ 0.22641426864809366
● 0.5261336866363783
ロ 1
你 0.04985365821406382
使 0.011911331935244851
叶@@ 0.09296484431344067
夷 0.22308464705032757
庆@@ 0.09683228941207227
影@@ 0.009962635086533922
恩 0.03305206040445124
朴@@ 0.2613255658420504
比@@ 0.007481718734985889
汗 0.09908811596250473
温@@ 0.06758686802630912
献@@ 0.27727899044504967
略 0.04364685868813564
節 0.03808479640706822
紀 0.03711713795871468
艦@@ 0.10201280246075203
色 0.009360346721428377
袁@@ 0.13523012769553494
贵@@ 0.08182220395054526
銀@@ 0.04362954390471681
陶@@ 0.08021517238558797
麗 0.1115180874876049
문@@ 1
현@@ 1
Sein 0.010942843125492523
concentr@@ 0.01002189843418171
dass 0.0018279592475728586
ectu@@ 0.008508085620380036
encore 0.007742743159140855
gör@@ 0.031963525328983285
iques 0.013311882057351308
popular 0.005118187199627392
schaften 0.003851616348265989
Β@@ 0.008429709416900997
при@@ 0.0008037690579209937
ша@@ 0.004173790441274743
ъ 0.06877433507180464
ю 0.0011256641816868454
र@@ 0.006929576575682071
း@@ 1
せ@@ 1
ェ@@ 1
乡@@ 0.05106985591250962
书 0.030296204571619915
亭@@ 0.8054961155993517
勝@@ 0.0575288900312376
扶@@ 0.1879607392866447
民 0.009887253539978158
波 0.03795146277848593
考@@ 0.023898233502033805
臣@@ 0.3977836836280041
言@@ 0.05358023123052068
豐@@ 0.08270621002636891
雨@@ 0.08973519808747697
雷@@ 0.019672109954716566
首@@ 0.007373329536713923
는 1
영 1
전 1
Allem@@ 0.012836754026337459
Feb@@ 0.3159742226136008
adhi 0.27801379813992144
bâ@@ 0.01112224934686327
forces 0.00580331756302782
fé@@ 0.008001757753405817
produced 0.004402648888499899
quot@@ 0.01451761420697904
remain@@ 0.0039550686814147735
ʲ@@ 1
Ε@@ 0.008910172459510568
Λ 0.35838966828354074
Г 0.015825072303475362
фрон@@ 0.016097073061297963
ด 0.0060558454157788495
ῆ@@ 0.7398554420038622
ノ 1
叔 0.27325860009252684
图 0.04071766170762138
夷@@ 0.33440074712464696
密@@ 0.031145475227910134
殷@@ 0.3902215614957675
甲 0.03883649578571089
界@@ 0.03553037765581556
與@@ 0.10141336348184242
豫@@ 0.3425680856337112
구 1
어 1
자 1
Deutschen 0.010284181597935989
Une 0.00699400639175442
afir@@ 0.02403129077231535
ería 0.013334908692409666
fils 0.008599384269431905
hier 0.008803260186493429
leurs 0.005438949362145632
ydi 0.08666472742549151
κα@@ 0.008302050350887286
Ве@@ 0.008699664852572371
П 0.00876143866336263
ки@@ 0.002321288697645889
ос@@ 0.004499202626917497
ס 1
त 0.006044462984687403
म@@ 0.009836297172327422
ุ@@ 0.014676390034755614
ネ@@ 1
レ 1
仮@@ 1
佘@@ 1
列@@ 0.009886614094921312
基@@ 0.006750399135025307
巨@@ 0.04363900156179674
微@@ 0.04225246237774218
戴@@ 0.07159030831307729
新 0.007734207071897608
村@@ 0.03669491134658175
由@@ 0.014826632215425725
祿@@ 0.9724212159590192
話 0.039437633108221605
语 0.01679536706373133
賢 0.221387384531951
電@@ 0.008262779185220441
categ@@ 0.007546001547295142
huu 0.4050940237465682
ilik 0.07130468816618163
kati@@ 0.2743875752620553
kij@@ 0.48044003347278413
ű@@ 0.9995209118883224
ɒ@@ 1
Ι@@ 0.015847177290735436
ή 0.0035359776306514465
ή@@ 0.007685806113743058
η@@ 0.00703593785807776
ных 0.0008166239306082575
стро@@ 0.003549788383845894
عبد 0.04250377362153172
ล 0.008615892982404293
Ắ@@ 1
そ@@ 1
也@@ 0.1363731965214746
井@@ 0.11533086715818178
仲 0.4939631664518031
制@@ 0.012936368672193667
堂@@ 0.14627258444839716
島@@ 0.04651062662416226
放@@ 0.018072725513297153
校@@ 0.02372655158299645
株@@ 0.32302678288046294
留@@ 0.03222717954079543
芳@@ 0.2589066596692123
葛@@ 0.10543300618047152
解@@ 0.013828732284293354
鄉@@ 0.06507432145404117
雅 0.09698268686540744
鹿@@ 0.13966199207738725
다@@ 1
Er 0.001817596743235099
construction 0.004059775766294745
dose 0.017407758003695217
faz@@ 0.22047582090560205
guerre 0.007155951055330852
génér@@ 0.0070306697848965295
istas 0.0064067888494802145
kez 0.03717451974020177
military 0.004884212774222084
reco@@ 0.011924968029648302
rés@@ 0.006582956561484065
Ò@@ 1
Ø 0.8011385957843425
ʌ@@ 1
вет@@ 0.006782394039340115
мен@@ 0.002107760458886157
ров@@ 0.0034752083371401583
ча@@ 0.001408469144660088
ши@@ 0.002422139875108399
צ@@ 0.906089025502355
ས@@ 1
た 0.4987136830950134
ゃ@@ 1
ヒ@@ 1
佛 0.07139832594720653
军@@ 0.01280908516258257
夢@@ 0.19023030608844504
姑@@ 0.3361229046007203
寺@@ 0.14691946716874132
尼@@ 0.007642024997063243
总@@ 0.008589751274167013
恪@@ 1
情 0.018072934740478244
战 0.02173563163269827
晋@@ 0.07989150201028643
極@@ 0.03771323811496548
歸@@ 0.0878464189773084
波@@ 0.01301429915193392
渠@@ 0.44770620348859497
獨@@ 0.03425142413525453
甫 0.20536537800554244
申@@ 0.056925827227969135
益@@ 0.15657417501125862
統 0.025472870163626593
经@@ 0.012298506239366557
臺@@ 1
衡 0.11346858267121553
豆@@ 0.22526877353398472
국 1
세@@ 1
양@@ 1
여@@ 1
연@@ 1
ations@@ 0.006833513018193071
atives 0.005825070304768495
cours 0.004399094176308686
dows 0.02942762861504024
famille 0.005736903586515024
govern@@ 0.006686224911749043
migu@@ 0.46806141714012417
soll 0.011672791909194154
État 0.008078092760512467
Пе@@ 0.006331882428581884
Ро@@ 0.0057164805246318106
ф@@ 0.0013748346305992346
ر 0.005394352785826403
َ@@ 0.018612212727745134
न@@ 0.009115994396711322
ค@@ 0.005220961942081362
สุ@@ 0.03008248807585133
โ@@ 0.008444232611706815
Ở@@ 1
ら 0.7862276748932541
制 0.008430039685339731
卫@@ 0.03610161971477761
嗣 0.3114862669336011
嗣@@ 0.3585737164176166
室 0.016676309680172634
峰@@ 0.2235261013050581
恋@@ 0.5808344496932554
桃@@ 0.09779169475651706
業 0.009759799660490147
父 0.03467979329172297
育@@ 0.03281277884802322
草 0.04675930434738733
蒲@@ 0.25998589472082195
중@@ 1
Bahari 0.24314281362491455
During 0.002889780072087986
Weit@@ 0.008502812842848142
become 0.004197125934111326
consist@@ 0.006160505828564939
fond@@ 0.00718966595788434
gé@@ 0.011636415695675284
members 0.002915833973513581
occas@@ 0.0066875358711970395
professi@@ 0.003190623161430324
sent 0.005573403837368519
tesi 0.09781944495366703
wanza 0.7895006562077815
ει@@ 0.009731856090191941
Александ@@ 0.00673325502025007
же@@ 0.0016994548583690642
му@@ 0.0025918840887172103
ста@@ 0.0016553741032051188
ك@@ 0.00297456247270668
্ 0.5740478334999544
ი 0.3610533899101572
ក 1
ង 1
コ 1
丘@@ 0.12408773362732994
兰@@ 0.028630279605217718
岳@@ 0.18056215492265965
峰 0.036281091858094736
时@@ 0.008920810367458062
朗 0.038373163834550146
死@@ 0.025432532459064867
永 0.19784244150468333
浪@@ 0.12675119695425752
滿@@ 0.08128889586245484
演@@ 0.00998315145683715
硕@@ 0.20857100227906375
聖 0.08100713192532329
角 0.01885070230382712
謙 0.6194352632825204
近@@ 0.029190932679881668
進 0.024782309100934423
雨 0.08764701856514685
鳳@@ 0.13688701440155768
그@@ 1
시 1
은 1
황@@ 1
Zeit 0.003367751092066365
Zentr@@ 0.01031331985334268
erste 0.0046318197115419865
kama 0.06049128233059443
зо@@ 0.001679878294600392
ف@@ 0.0038621080168486583
ท 0.018152851327765288
མ 1
ḥ 0.5074408113020618
‐ 0.36404399189128983
乙@@ 0.07136220251574257
俊 0.21300476754365077
双@@ 0.039953496907433265
嚴@@ 0.055417891721296825
園@@ 0.1310347279825184
将 0.009173388413184233
房 0.0309357240137605
才@@ 0.08646929930800096
揚@@ 0.2727858058141251
敬 0.1706585082188935
曰@@ 1
根 0.04041075472167823
樂 0.022906505064858577
淑 0.9531682585582488
班@@ 0.02082447930884824
眼@@ 0.07235614748914611
索@@ 0.030894136160205726
錢@@ 0.29806151853134955
门 0.02014473751317261
霍@@ 0.040821985813398035
韩@@ 0.053935393126182785
香 0.11148510506488316
鶴@@ 0.44755961307116976
고 1
려 1
Akad@@ 0.19726221689082837
alre@@ 0.0060103793834115045
autor@@ 0.005559312644024555
constitu@@ 0.0029405683011192365
frances@@ 0.017361695913658243
huo 0.20137495082812015
personal 0.007014547451873768
premi@@ 0.005065665871218102
propi@@ 0.01194061319595375
recher@@ 0.010701689672312255
ulus@@ 0.06750061021099067
Ú 1
Не@@ 0.004343316316773935
Си@@ 0.005453377108968578
У 0.008497553819920867
гу@@ 0.002915710020641892
ке 0.0015951698533918162
ку@@ 0.0017017586993808194
ми 0.0010008874240972213
ть 0.0019696518045619047
र 0.006051199772694606
ุ 0.016554689182529062
ོ 1
ရ@@ 1
ლ@@ 0.37200692144329545
ត 1
ấ 1
ね@@ 1
シ 0.834889320094787
业@@ 0.028865661805512113
亭 0.12095288561990267
传 0.06226762587738613
則@@ 0.032249030389202606
嘉 0.13835383013611452
圓@@ 0.09093023157426253
塔 0.02352911436267767
头@@ 0.07052571758677888
学 0.009004930444951846
学院 0.02270390405960563
弼 0.616655470521086
愍@@ 1
感@@ 0.022140657617024946
業@@ 0.034196672427203575
此@@ 0.0073023856392053195
浦@@ 0.10440612536962578
熙 0.09468642463105259
用@@ 0.010613746338314075
登@@ 0.020749897636566865
礼 0.10637251502584313
米@@ 0.01950867270457935
間@@ 0.16231134918793563
阳 0.02970451059750685
büyük 0.02064426261210909
civil 0.007775227268760641
hayat@@ 0.09219592843915722
mais 0.0019353934242288366
nde 0.01864680993698908
sebe@@ 0.09094770195539441
tér@@ 0.012141308943535246
ufu 0.5161228334371734
uzak@@ 0.1725053995211096
úl@@ 0.012683434528781986
Мар@@ 0.006308093400480341
ня 0.005460137517459112
сь 0.003981047083365637
ция 0.002522078688407057
ט@@ 0.7869749181517248
ال@@ 0.003678630205548461
س 0.0062043572946565645
ص@@ 0.005432702940531259
མ@@ 1
ྲ@@ 1
ὐ@@ 0.6984376173092753
ど@@ 1
や@@ 1
ボ@@ 1
与@@ 0.10713337296667588
刀 0.11438349207680283
力 0.005396123415104905
勝 0.0663889185172341
基 0.017190435118713734
弘 0.36066072446683534
機 0.014694424204248697
溪 0.056508336623249465
象@@ 0.06135455509431128
陀@@ 0.3019987899166676
우 1
Adem@@ 0.6557649442016634
Musik@@ 0.008051594616972746
dont 0.0026312841318971284
established 0.0034696838527882527
mev@@ 0.07082961572942373
musical 0.006240444091520032
perten@@ 0.010081539039394016
ρο@@ 0.0078678643446849
Де@@ 0.00469008676525586
гор@@ 0.007089985417159818
ков@@ 0.003541500277928177
ля 0.00229645015242725
ׁ@@ 1
ا@@ 0.009273395925101435
รา@@ 0.014081524673885727
ห 0.11247989363245767
ิ@@ 0.011193058607591675
က@@ 1
တ@@ 1
ន@@ 1
倫@@ 0.03350792050917188
半@@ 0.01935915734759036
华 0.038528215043657346
宿 0.1392414068699772
尚 0.0900114497636485
橋@@ 0.1379725224332098
淳@@ 0.6630286980915839
莊 0.18672935330756882
身@@ 0.015396581999327212
載@@ 0.243553880203589
风@@ 0.027251505108487423
鲁@@ 0.02864287517378539
Ayn@@ 0.6906872430207557
Par 0.011350449271292754
lagen 0.007855865244574722
pios 0.013138716382656965
scheid@@ 0.011028625256118587
Ñ@@ 0.18610876164735077
ŏ 1
Ț@@ 0.5025676559554604
ɨ@@ 1
Χ@@ 0.009519939856126466
Ку@@ 0.0038925678557606936
Росси@@ 0.008015280621762995
ா@@ 0.701224773774193
້ 1
ེ@@ 1
ს@@ 0.4990948291127277
∆ 1
ゴ@@ 1
ホ@@ 1
奕@@ 0.8872991609182048
將 0.010958679493213306
庄@@ 0.08420770517841325
才 0.019429958413699544
白 0.032939153162498735
秋 0.10574396843704366
羊@@ 0.17160513946479977
舒@@ 0.11752279448888729
遠 0.06884113475820282
명@@ 1
비 1
스 1
[...]
