ใน 1227153
ที่ 1091014
และ 1003417
ของ 861906
เป็น 853037
การ 787468
น@@ 775650
ม@@ 754789
ส@@ 723297
มี 662244
ย@@ 657908
ก@@ 603498
ด@@ 601249
ได้ 580290
ล@@ 574557
ต@@ 570335
ร@@ 556237
ม 550977
ค@@ 536607
น 527929
์ 523705
" 505397
บ@@ 493106
ด 492771
ท@@ 472637
ก 469422
อ@@ 468903
) 440433
แ@@ 432059
ว@@ 425610
จ@@ 424638
ง@@ 422046
( 418103
การ@@ 417859
ป@@ 406419
พ@@ 406062
ข@@ 380901
. 380795
ง 373914
เ@@ 348277
ช@@ 343832
กับ 343732
ว 340355
ว่า 338224
ล 335466
โ@@ 331669
โดย 315240
ประ@@ 310753
อ 309307
ไ@@ 302989
ะ 301342
มา 296367
ส 296132
จาก 288487
จะ 287366
ความ@@ 284025
ย 283142
า 280128
ปี 278022
ห@@ 266191
ไป 263716
ซ@@ 262632
บ 259525
เล@@ 257817
ให้ 257527
ร 256019
ซึ่ง 249279
ถ@@ 240024
อา@@ 235941
ต 235124
ไม่ 234823
นี้ 232835
ฟ@@ 232706
วิ@@ 230665
, 229918
ิ@@ 229553
ศ@@ 228207
พ.ศ. 227057
ี 224647
25@@ 215372
เส@@ 211131
เป็น@@ 208370
นา@@ 205628
ั@@ 205287
เมื่อ 200893
ุ@@ 200034
ธ@@ 198183
ร์ 196427
ู 195747
พระ@@ 194436
สา@@ 194001
เก@@ 193058
็@@ 192694
้@@ 191950
ผู้@@ 184288
ที่@@ 184119
รา@@ 182452
กัน 182440
อยู่ 182358
ี@@ 181624
ย์ 179573
่ง 175544
นิ@@ 174466
เช@@ 174262
ะ@@ 173237
เขา 172280
่า 170171
ขึ้น 170124
ด้วย 170037
ีย@@ 169581
์@@ 168576
ๆ 166773
ทาง 163707
พระ 163628
หรือ 162154
ใช้ 161506
ค.ศ. 160906
ุ 160550
คน 158129
ู@@ 157688
คม 156958
ฮ@@ 156869
ิ 155912
- 153933
อน 153610
เพ@@ 153220
นั้น 152967
กร@@ 152708
มี@@ 151959
ิน 150651
คือ 150556
ท 148816
แต่ 148675
ถึง 147335
ก็ 147234
้ 145007
เว@@ 143729
รั@@ 143517
า@@ 142496
มา@@ 142193
่า@@ 142043
นัก@@ 141608
ประเทศ 138445
เบ@@ 137378
ัน 137117
ณ@@ 136771
อง 136573
วันที่ 136491
เอ@@ 135024
หน@@ 133814
ติ@@ 132811
ราช@@ 132131
ีย 132079
ตร@@ 130878
ผ@@ 130459
ถูก 130040
เท@@ 129539
ตัว 129015
เมือง 128928
แห่ง 128359
เร@@ 127919
อย่าง 127889
เด@@ 127765
ติ 124779
สิ@@ 123840
ลา@@ 123687
พิ@@ 123243
สม@@ 123236
ริ@@ 122641
คร@@ 122565
เม@@ 122158
จ 121793
ส์ 121334
หนึ่ง 121127
่ 121019
ษ@@ 119281
ื@@ 118443
ญ@@ 117963
ยัง 117125
ภ@@ 117019
ค 116951
นา 116856
เซ@@ 116740
ยา 116004
งาน 115495
พ 114986
อน@@ 114581
เพื่อ 113537
ได้รับ 113401
2 112624
้น 112469
กระ@@ 112018
เข้า@@ 111841
กล@@ 111687
เน@@ 111655
้า 111149
ไทย 110400
หล@@ 109977
อง@@ 109369
วา@@ 107963
ชื่อ 107530
เป@@ 107530
วั@@ 107466
ภา@@ 106560
้น@@ 105985
จึง 105574
ทาง@@ 105251
ัน@@ 104599
ัย 103540
่@@ 101621
สร้าง 101550
1 100931
ร์@@ 100420
หา@@ 100091
เจ@@ 99897
ยา@@ 99729
ณ 98643
าน 97724
สามารถ 97715
อร์@@ 97663
ช 95405
เจ้า@@ 94998
ออก@@ 94167
ฉ@@ 93833
ดี 93793
ตาม 93505
ัง 93341
บั@@ 93301
ผู้ 93028
สุ@@ 92846
ป 92658
ออก 92547
อร์ 92278
ใหญ่ 92169
หม@@ 91945
ญ 91908
แบบ 91619
อุ@@ 91523
ึ@@ 90767
เกิด 90420
ฝ@@ 89432
ับ 89354
อก 88100
รร@@ 88020
กา@@ 87951
สั@@ 87846
ทำ@@ 87743
ลิ@@ 87528
มาก 87418
เหล@@ 87296
ต่อ 87214
้า@@ 87089
ยน 86198
อย@@ 86167
ภาพ 86129
ใ@@ 85958
รี 85768
บา@@ 85340
แล้ว 85067
่ง@@ 85038
3 84966
ยุ@@ 84868
ตัว@@ 84734
ธิ@@ 84130
รับ@@ 83865
มิ@@ 82863
หา 82662
อิ@@ 82124
คล@@ 82103
แม@@ 81586
เรื่อง 81450
ทั้ง 80402
ศาสตร์ 79945
ครั้ง 79652
สู@@ 79281
ณ์ 79255
ตั้ง 78125
ทำให้ 78025
ส่วน 78013
ดา@@ 77947
ตา@@ 77849
ือ 77835
สอง 77565
ใจ 76889
อบ 76598
จำ@@ 76478
เธอ 75795
่น 75692
เพลง 75595
ตร 75567
้อง@@ 75119
ระ@@ 74974
ิง 74589
คุ@@ 74528
ดา 74514
รัฐ 74489
ทรง 74144
รว@@ 73610
ชา@@ 73138
กา 73045
ฟ 73005
ัก 72721
ริ 72593
จังหวัด 72130
นำ 72059
โร@@ 71838
รา 71725
ความ 71352
วัด 70794
กิ@@ 70633
ทำ 70339
ชาติ 69776
ำ 69741
ส่วน@@ 69078
อั@@ 69053
น้ำ 69021
แน@@ 68942
ต้อง 68847
ใหม่ 68768
ลง 68757
ชาว 68532
สัง@@ 68264
หลัง 68232
โลก 68123
() 68085
ลา 67960
เค@@ 67928
แรก 67416
อร 67397
ิน@@ 66973
อด@@ 66836
ื่@@ 66660
ใต้ 66462
ระหว่าง 66459
บุ@@ 66125
สห@@ 65822
ต่อ@@ 65714
ต่อมา 65419
มิ 64988
เช่น 64888
กร 64607
ราช 64607
โอ 64298
ิด@@ 64014
เวลา 63851
กรรม 63618
โดย@@ 63513
แสดง 63302
ชน 63296
นั@@ 63077
มั@@ 63050
หลาย 62595
ก่อ@@ 62429
4 62202
(@@ 62152
มัน 61895
พบ 61794
มหา@@ 61788
แก@@ 61718
ซ 61435
ทีม 61326
อบ@@ 61259
พระราช@@ 61146
"@@ 61052
ดิ@@ 60640
้าง 60530
ที่สุด 60432
อีก 60323
วัน 60319
ชา 60317
้อง 60296
จิ@@ 60277
นี@@ 60024
่าย 59915
กลุ่ม 59796
ื่อ@@ 59716
บริ@@ 59629
ปล@@ 59579
ี่ 59529
ศ 59304
5 58706
เดือน 58706
ปัจจุบัน 58648
โล@@ 58597
่น@@ 58555
ทั@@ 58417
้าย 58315
ใน@@ 57991
สน@@ 57986
; 57836
อด 57569
ทิ@@ 57259
ือ@@ 57167
ประชา@@ 57097
สำหรับ 56907
ัง@@ 56845
เข@@ 56583
ชีวิต 56381
กุ@@ 56309
พล@@ 56306
รับ 56267
กว่า 56061
: 55906
แผ@@ 55858
ับ@@ 55759
พระองค์ 55698
ิด 55596
รุ@@ 55406
สว@@ 55296
คว@@ 55200
ชน@@ 55000
จัด@@ 54989
ด้าน 54974
ต่าง 54895
ู่ 54886
้ง 54604
ปฏิ@@ 54393
24@@ 54326
สถา@@ 54296
ลี 53754
่อ 53615
ธ 53528
วง@@ 53441
ทุ@@ 53358
น์ 53263
ฐาน 53236
จุ@@ 53016
ชาย 53011
วงศ์ 52668
เล่น 52514
ช่วง 52502
เข้า 52466
ต้น 52412
บ้าน 52257
ดิ 52246
เต@@ 52160
บน 52076
ผล 51948
คา@@ 51549
จัด 51468
เริ่ม 51459
่ว@@ 51414
แพ@@ 51400
อำเภอ 51290
ซี 51280
วง 51211
กั@@ 51162
ที่จะ 51149
หน้า 51148
พันธ์ 51033
แต@@ 50953
เอ 50918
เรียก 50901
สำ@@ 50802
นาม 50723
กอง@@ 50711
ตา 50639
แส@@ 50209
รวม@@ 50134
สี 49752
ภาพยนตร์ 49552
ชี@@ 49460
ข 49459
เขต 49409
ัก@@ 49390
พฤ@@ 49389
ู่@@ 49330
กลาง 49007
ตั้งแต่ 48881
่าง 48844
ปั@@ 48655
ี่ย@@ 48533
ึก 48492
น้ำ@@ 48478
ไว้ 48415
ตุ@@ 48293
เอง 48187
ให้@@ 48128
ภาษา 47954
จน 47923
ชั@@ 47827
ข้อ@@ 47723
ลาย 47417
ตำแหน่ง 47199
อก@@ 47168
รี@@ 47167
้อ@@ 46891
ต์ 46833
สูง 46667
ร่วม 46481
พระเจ้า 46346
การแข่งขัน 46345
งค@@ 46301
โอ@@ 46253
คั@@ 45998
อม@@ 45875
ปา@@ 45684
พื@@ 45569
เรีย@@ 45538
ยก@@ 45448
โรงเรียน 45445
ียง@@ 45418
เสียง 45369
สมัย 45331
ิล 45241
๊@@ 45161
แท@@ 45155
พร@@ 45066
ศึกษา 44948
ขา@@ 44907
จำนวน 44889
กำ@@ 44878
นัก 44849
อา 44837
ตั@@ 44654
นว@@ 44588
พา@@ 44567
ห์ 44439
พว@@ 44187
หมาย 44134
ราย@@ 44098
เหนือ 44075
ต่าง@@ 44071
ณฑ@@ 44004
ฤดู@@ 43983
คน@@ 43957
รอบ 43787
คา 43751
เด 43576
ละ 43428
อื่น 43269
่อ@@ 43132
รวม 43078
หาร 43043
ก็@@ 42986
ร่วม@@ 42981
สำคัญ 42919
มาจาก 42698
หญิง 42612
าย 42591
ก่อน 42589
ทั้ง@@ 42527
ลิ 42397
คำ@@ 42360
ำ@@ 42325
– 42204
กาล 42100
ชิ@@ 42037
เดิม 41755
ที 41688
เห@@ 41652
อย่าง@@ 41595
ลำ@@ 41448
6 41429
ซา 41382
ซ์ 41297
ธรรม 41282
ระบบ 41255
รัฐ@@ 41196
เย@@ 41129
เจ้า 41127
ียน 41008
เมตร 40991
แข@@ 40773
)@@ 40729
ทร@@ 40497
สาร 40416
ข้า@@ 40393
กัด 40386
ตรี 40357
ฆ@@ 40282
กีฬา 40224
ประมาณ 40147
การศึกษา 40089
จาร@@ 40058
โต 39954
ภาค 39950
นต@@ 39937
ระดับ 39922
พื้นที่ 39902
ทั้งหมด 39871
โก 39657
ชื่อ@@ 39656
อม 39642
จีน 39571
บรร@@ 39378
เฉ@@ 39181
แบ@@ 39121
ผ่าน 39100
ุน 39076
นาย 39050
กฎ@@ 38980
ฤ@@ 38672
อาจ 38608
.@@ 38520
โร 38493
ฮ 38460
อิน@@ 38193
เครื่อง@@ 38186
ทธ@@ 38060
ไม@@ 37993
ด์ 37910
้ว@@ 37857
ื่อ 37773
อังกฤษ 37755
มุ@@ 37646
สมเด็จ 37615
อย 37582
สู่ 37539
เรียน 37493
หลวง 37479
คำ 37467
ญี่ปุ่น 37359
กิจ 37303
ลง@@ 37250
ละ@@ 37173
ื้อ 37115
เขียน 37001
โปร@@ 36973
ท์ 36863
ภาย@@ 36856
ในประเทศ 36843
ผล@@ 36812
ักษ@@ 36764
ชนะ 36730
เร 36632
โด@@ 36625
เคย 36487
ดิน 36399
นิยม 36368
ซิ@@ 36360
ยัง@@ 36348
ล์ 36197
นที่ 36164
วา 36144
ียง 36071
เห็น 36033
7 36020
คณะ@@ 36001
สี@@ 35944
กลา@@ 35843
ไร@@ 35840
ได้แก่ 35819
ตำบล 35806
ฟ้า 35794
สุด 35701
จา@@ 35680
รส 35570
รถ@@ 35535
ชุ@@ 35503
รู้@@ 35499
หมาย@@ 35420
ยก 35326
ขณะ@@ 35296
การณ์ 35250
เคร@@ 35228
รูป 35227
ติด@@ 35211
้าน@@ 35155
หร@@ 35119
ชนิด 35081
พยา@@ 35071
ทะ@@ 35061
เฟ@@ 35015
ดัง@@ 34965
อันดับ 34822
สต@@ 34818
บว@@ 34768
ฟุตบอล 34653
ดี@@ 34555
โย@@ 34371
ทัพ 34258
สัม@@ 34234
ษฎ@@ 34225
อากาศ 34179
แต่@@ 34162
มหาวิทยาลัย 34118
แก่ 34118
แล@@ 34092
เนื่องจาก 34041
ิร์@@ 33981
วี 33905
เอ็@@ 33835
เสีย@@ 33766
ส่ง 33540
่าย@@ 33511
เพราะ 33510
สร@@ 33463
อะ 33453
วิ 33448
ษา@@ 33443
่อง 33440
อล@@ 33414
เล 33368
ศา@@ 33364
พัฒนา 33343
เพียง 33322
นาง 33299
บร@@ 33255
จากนั้น 33193
ลักษณะ 33180
กำลัง 33154
ปร@@ 32999
บท@@ 32963
กรา@@ 32949
เต 32920
นับ@@ 32802
บาง@@ 32737
8 32723
นคร 32550
บาท 32542
ศาส@@ 32542
ปรา@@ 32539
เซ 32451
ือน 32417
อนุ@@ 32357
ศัก@@ 32315
ิ่ม@@ 32229
โม@@ 32212
ชุด 32184
เลือก 32164
หลัก 32136
ธี 32106
บู@@ 32102
บริษัท 32095
ลูก@@ 32093
บาง 32062
เซีย 32019
เผ@@ 31973
ถ 31947
สถ@@ 31889
รางวัล 31873
ไป@@ 31857
อีก@@ 31830
บริเวณ 31805
แลนด์ 31798
ฏ 31792
แทน 31750
นำ@@ 31710
พล 31693
ันท@@ 31673
่อย 31649
เท 31640
สถาน@@ 31617
สาย 31585
เท่า@@ 31486
แม่@@ 31481
ครั้งแรก 31413
-@@ 31375
องค์@@ 31372
อัน 31322
โน@@ 31298
10 31291
โน 31284
ศิลป@@ 31214
นิ 31124
ทหาร 31099
ยิ@@ 31096
ช่ว@@ 31043
เม 31006
เดียว 30915
กระท@@ 30889
สะ@@ 30807
ซิ 30803
ใช้@@ 30767
ตี 30759
เตอร์ 30692
กัน@@ 30352
โบ@@ 30324
เด็@@ 30271
ภู@@ 30270
ประวัติ 30244
ตาม@@ 30241
สัตว@@ 30191
ยาม 30171
ตั้ง@@ 30127
ได้@@ 30099
ผลิต 29954
ชิ 29950
แร@@ 29899
ฝ่าย 29885
ืน 29862
หลังจาก 29859
บิน 29857
ปริ@@ 29854
ฯ 29746
& 29711
โต@@ 29583
ูก 29539
แค@@ 29442
สาม 29414
ี่@@ 29258
ทาน 29256
ไฟ 29185
ประกอบ 29155
แป@@ 29144
ระ 29099
งาน@@ 29087
หน้าที่ 29079
็ก@@ 29064
ธรรม@@ 29051
พร้อ@@ 29013
ตั้งอยู่ 28976
น้อย 28933
กลับ 28883
S@@ 28795
พุทธ@@ 28792
รัก 28789
เลือกตั้ง 28739
โทร@@ 28709
รัฐบาล 28683
กว@@ 28607
เกล@@ 28569
หัว@@ 28546
เกม 28528
เรือ 28518
ตะวัน@@ 28504
โค 28444
ดู 28384
ภูมิ@@ 28364
ปราก@@ 28340
ออ@@ 28337
เล็ก 28324
สิง@@ 28312
/ 28307
คิด 28152
อดีต 28113
ที@@ 28103
สงคราม 28025
นาน 28023
เดียวกัน 28010
รายการ 27976
เปิด 27957
ษ 27952
ปี@@ 27820
โรง@@ 27781
สิทธิ@@ 27756
อาณาจักร 27676
โจ@@ 27617
รณ@@ 27610
9 27576
จำ 27551
สม 27542
ยู@@ 27541
ย์@@ 27520
ละคร 27504
เหตุ@@ 27472
มว@@ 27464
ยาว 27464
กาย 27448
่าน 27412
เหม@@ 27387
มือ 27371
วัง 27355
สง@@ 27355
อายุ 27303
ดับ 27242
ชั้น 27179
ษฐ@@ 27117
หลัง@@ 27111
เดิน@@ 27059
สมาชิก 27046
รุ่น 27027
กรุ@@ 27015
อัลบั้ม 26941
โซ@@ 26898
ครั้ง@@ 26872
คริสต@@ 26846
เก 26821
ื่อง 26818
มูล 26812
ไม้ 26806
เกาะ 26788
ช่วย 26783
ราว 26764
เปลี่ยน 26764
ขา 26753
หลัก@@ 26746
คาร 26726
วะ 26692
่าง@@ 26583
ดำเนิ@@ 26581
แบ่ง 26572
ดิน@@ 26540
วิท@@ 26528
โครง@@ 26483
อาหาร 26451
ญญา 26434
ยู 26357
ระย@@ 26270
ภายใน 26141
รรษ 26121
ปก@@ 26033
บท 26014
ยุค 26009
ตำ@@ 25955
เที@@ 25947
ตน 25945
ธา@@ 25941
ฐาน@@ 25938
องค์ 25932
ราย 25922
จริง 25917
หัว 25911
ทำงาน 25760
ประกาศ 25723
ฝรั่งเศส 25678
สโมสร 25660
แต่ง@@ 25655
้าง@@ 25621
เกี่ยวกับ 25619
มาก@@ 25582
อเมริกา 25555
โก@@ 25553
20 25456
ตล@@ 25408
ทอง 25378
ทร 25364
” 25332
ดู@@ 25326
ซี@@ 25299
แชมป@@ 25244
ขนา@@ 25232
ปลา 25215
ทัศน์ 25163
ถุ@@ 25159
ไห@@ 25154
มน@@ 25124
ร้อน 25064
็ก 25050
ัย@@ 25037
เร็@@ 24996
เป็นการ 24987
นี 24976
กรุง@@ 24913
ทุก@@ 24909
อี 24888
ไฟ@@ 24863
เนื้อ@@ 24820
ตู 24796
สาธา@@ 24771
วัฒ@@ 24732
จิ 24718
คณะ 24689
ขนาด@@ 24682
่อง@@ 24681
โอลิมปิก 24673
่วย 24636
สภา 24614
ภาษา@@ 24605
คง 24551
ผลงาน 24550
รู้ 24538
บา 24527
ฮา 24526
พรรค 24498
ญญา@@ 24455
็น 24450
เทศ@@ 24444
เช่น@@ 24396
ูล 24356
รัฐมนตรี 24338
ีน 24337
พรร@@ 24331
โด 24293
็บ 24279
เศ@@ 24260
ต้น@@ 24214
เภ@@ 24199
การเมือง 24127
หลา@@ 24125
สิน@@ 24073
ั้น@@ 24070
พันธุ์ 24062
ถน@@ 24039
ิ่น 24038
“ 24038
กำหน@@ 24011
บุรี 23971
เกิด@@ 23966
ดำ@@ 23965
เคล@@ 23946
ใกล@@ 23901
ทั่วไป 23871
รูปแบบ 23835
บุค@@ 23792
ตะวันต@@ 23772
ัด@@ 23747
น้@@ 23729
นอ 23727
ดังกล่าว 23715
เงิน 23693
แดน 23681
โค@@ 23667
ร้อง 23627
นการ 23590
เต็@@ 23589
นาคม 23571
ชัน 23555
รัช@@ 23485
  23469
เค 23437
ียว 23388
ล้าน 23384
หนังส@@ 23367
บาล 23363
เศษ 23328
วน 23313
วิทยา@@ 23181
เฉพาะ 23179
P@@ 23170
แห่งชาติ 23152
กรรมการ 23137
of 23123
แอ@@ 23101
ี้ย@@ 23092
ประกอบ@@ 23085
สกุล 23009
สุดท้าย 22974
12 22964
รักษา 22961
ระบ@@ 22930
ลีก 22914
อำนา@@ 22914
้าน 22896
มากกว่า 22834
บัติ 22823
ศูน@@ 22809
โป@@ 22799
ตริ@@ 22786
กล่าว@@ 22774
15 22752
แข่งขัน 22741
เอก 22683
โรค 22675
ถือ@@ 22659
บี 22656
ยาย 22629
แรง 22624
วาง 22547
ตรา 22518
แดง 22514
มนุษ@@ 22510
ครั@@ 22498
เยอร@@ 22452
จนถึง 22440
C@@ 22427
ร็@@ 22417
จัก 22362
T@@ 22355
นอกจากนี้ 22320
วี@@ 22288
การปกครอง 22239
ห 22228
ค้า 22213
พิมพ์ 22196
ไล@@ 22190
ดง@@ 22188
M@@ 22171
แปลง 22106
๋@@ 22104
กษั@@ 22050
ศัย 22002
สำเร็จ 21970
ส่ง@@ 21969
ียม 21939
ญา@@ 21934
สอน 21928
วุ@@ 21924
กล 21922
ทา@@ 21916
้อน 21892
ั้น 21872
บดี 21858
จักรพรร@@ 21851
เหตุ 21845
ท่าน 21792
ซา@@ 21760
30 21712
ชาว@@ 21698
หน้า@@ 21596
ทธิ@@ 21383
าน@@ 21341
D@@ 21335
ั้@@ 21274
เปลี่ย@@ 21149
อล 21134
16 21025
ื้อ@@ 20934
ภาพ@@ 20926
้ว 20792
คร 20638
L@@ 20595
่อน 20559
จน@@ 20474
A@@ 20415
่ม 20341
จั@@ 20163
G@@ 19714
11 19652
ณะ 19582
ม่ 19470
สงค@@ 19454
R@@ 19411
E@@ 19293
ิก 19245
' 19212
ขึ@@ 19183
18 19118
19 19075
B@@ 19063
ฏ@@ 19008
ลักษ@@ 18992
ศึ@@ 18768
14 18721
ประวั@@ 18677
N@@ 18486
H@@ 18407
ิ่ม 18407
พุ@@ 18405
ื่น 18373
50 18221
ผู@@ 18198
มาร@@ 17923
สมา@@ 17905
หั@@ 17869
ตะ@@ 17864
s 17601
ตว@@ 17598
ด้ว@@ 17597
ยุ 17493
บัน 17387
เกา@@ 17227
เง@@ 17217
นอก@@ 17170
13 17168
F@@ 17127
O@@ 17117
25 17110
2@@ 17021
สมเด็@@ 17016
17 16754
อัน@@ 16499
่ม@@ 16446
y 16344
ครอง 16298
The 15817
มพ@@ 15606
ตุ 15388
24 15356
ือง 15281
I@@ 15269
้อย 15076
21 14930
จำนว@@ 14929
ไท@@ 14913
อเมริ@@ 14899
3@@ 14799
ื่อง@@ 14758
นิด 14700
ี้@@ 14362
​ 14339
ิล@@ 14327
W@@ 14274
A 14217
ทั่ว@@ 13927
60 13906
0 13858
พันธ@@ 13836
จาก@@ 13731
ฐ@@ 13712
22 13696
สมาชิ@@ 13665
ึ 13621
พั@@ 13594
ปกครอง 13580
the 13510
23 13508
อี@@ 13456
% 13449
ญญ@@ 13412
บอล 13333
ึง 13310
จัก@@ 13301
ุ่ม 13225
gt 13159
lt 13051
ยนต@@ 12901
วิทยาล@@ 12871
ไว@@ 12843
4@@ 12840
ึ่ง 12726
เกี่ยว@@ 12718
ราม 12669
40 12587
al 12519
มป@@ 12467
ีก 12416
มหาวิทยาล@@ 12406
in 12347
แห@@ 12298
26 12253
28 12226
us 12129
y@@ 12103
K@@ 11846
ยม 11701
27 11661
กี@@ 11637
ฬ@@ 11609
on 11567
รู@@ 11504
29 11498
ใช@@ 11440
10@@ 11309
ังก@@ 11263
ing 11260
000 11209
หว@@ 11079
กุล 10857
5@@ 10833
[ 10809
V@@ 10753
a 10751
an 10698
จักร 10687
16@@ 10677
31 10582
15@@ 10579
17@@ 10577
กล่าว 10488
ื้@@ 10355
] 10308
ษา 10250
ฌ@@ 10176
ฐ 10158
and 10151
กษา 10096
6@@ 10089
54 10002
ูก@@ 9971
1,@@ 9957
er 9938
ประก@@ 9938
23@@ 9906
รูป@@ 9899
= 9885
i 9861
นด์ 9829
55 9788
T 9773
7@@ 9715
ิม 9672
d 9643
p@@ 9628
เทศ 9627
เปล@@ 9585
c 9570
อัล@@ 9562
ราง@@ 9559
ฒ@@ 9539
เธ@@ 9533
57 9460
53 9459
100 9414
e 9408
t 9398
C 9390
อาณา@@ 9315
โคร@@ 9209
ฎ 9206
x 9178
49 9170
51 9129
00 9116
s@@ 9076
ฎ@@ 9056
ation 9048
กาศ 8999
13@@ 8980
14@@ 8934
กรรม@@ 8892
9@@ 8877
on@@ 8815
J@@ 8813
E 8802
48 8789
o@@ 8775
องค@@ 8773
แด@@ 8772
35 8741
e@@ 8740
59 8728
61 8717
]@@ 8700
คริ@@ 8691
62 8685
1@@ 8601
0,000 8558
52 8538
ภา 8433
56 8298
18@@ 8268
เฉพา@@ 8255
[@@ 8207
58 8187
in@@ 8174
8@@ 8168
สำเร็@@ 8156
S 8142
ณา@@ 8128
c@@ 8126
P 8105
12@@ 8095
B 8074
เหน@@ 8053
D 8029
n 7985
ฺ@@ 7929
2016 7888
45 7864
จักร@@ 7861
63 7804
1.@@ 7727
2012 7723
_ 7697
U@@ 7680
2014 7674
แช@@ 7567
64 7532
2010 7528
2018 7523
สุด@@ 7517
r@@ 7417
n@@ 7404
47 7395
2020 7320
t@@ 7255
I 7219
is 7210
M 7199
อำ@@ 7184
o 7164
เดียว@@ 7142
an@@ 7141
หมด 7135
th@@ 7092
l 7013
F 6981
N 6976
80 6947
39 6922
32 6867
20@@ 6845
ระหว@@ 6832
es 6787
จริ@@ 6783
i@@ 6738
2015 6732
42 6680
ศาสต@@ 6660
p 6611
44 6603
O 6570
อร@@ 6556
Ch@@ 6551
2017 6514
or@@ 6487
R 6486
! 6465
k 6459
g@@ 6445
en@@ 6412
al@@ 6408
d@@ 6381
h 6368
46 6350
ฺ 6344
2008 6312
Y@@ 6272
38 6263
36 6255
/@@ 6254
43 6244
ed 6230
2013 6223
มาณ 6222
ar@@ 6205
ia 6191
2.@@ 6184
formula 6184
m@@ 6171
h@@ 6168
as@@ 6155
L 6145
ph@@ 6129
f@@ 6113
ทั้@@ 6083
or 6059
พัฒ@@ 6050
ุ่น 6024
os@@ 6014
 @@ 6013
34 6002
33 5989
กำล@@ 5987
ar 5957
0@@ 5952
2019 5945
37 5940
,@@ 5936
2011 5933
2,@@ 5918
ic@@ 5901
er@@ 5871
ฑ@@ 5860
ac@@ 5837
um 5830
de 5821
ch@@ 5809
ur@@ 5747
90 5726
m 5714
u 5706
ot@@ 5701
เนื่อง@@ 5655
ราะ 5651
a@@ 5643
w@@ 5576
70 5566
๋ 5493
k@@ 5463
2009 5448
H 5434
ท้าย 5421
en 5419
41 5387
ปัจ@@ 5380
el@@ 5377
ผลิ@@ 5369
,000 5352
ใต@@ 5347
หญ@@ 5294
am@@ 5283
พัน@@ 5280
2007 5270
le@@ 5249
ำเ@@ 5243
ศ. 5231
b@@ 5185
br 5172
2006 5167
at@@ 5157
ol@@ 5135
Th@@ 5105
ine 5058
65 5050
;@@ 5043
om@@ 5024
to 4994
v@@ 4989
200 4987
ic 4949
ag@@ 4930
X@@ 4871
ฆ 4853
l@@ 4846
g 4837
ได@@ 4790
G 4762
ul@@ 4731
500 4678
In@@ 4672
w 4664
75 4652
tr@@ 4637
idae 4621
Z@@ 4614
ภ 4597
ad@@ 4576
๒@@ 4553
0.@@ 4551
... 4527
V 4510
ี่ยว@@ 4498
oc@@ 4473
เลื@@ 4429
เดีย@@ 4410
at 4405
ate 4396
it@@ 4370
หรับ 4359
+ 4349
x@@ 4336
3,@@ 4304
r 4274
et 4263
li@@ 4231
et@@ 4220
le 4206
2000 4197
el 4147
ap@@ 4139
2004 4112
X 4103
ฟุ@@ 4099
3.@@ 4092
มนตรี 4080
พันธุ@@ 4073
2021 4065
2005 4063
มนุ@@ 4042
b 4023
em@@ 3963
u@@ 3899
ro@@ 3896
id@@ 3894
st@@ 3863
ฯ@@ 3860
ti@@ 3823
lo@@ 3818
amp 3808
ศ์ 3768
ve 3731
un@@ 3730
am 3728
Con@@ 3721
ศิล@@ 3720
| 3702
im@@ 3681
re@@ 3671
An@@ 3661
W 3635
j@@ 3605
5,@@ 3590
co@@ 3590
!@@ 3564
K 3564
ter 3527
99 3525
is@@ 3517
19@@ 3515
St@@ 3488
aceae 3484
สร 3484
es@@ 3460
one 3446
ส่ว@@ 3438
Sh@@ 3414
op@@ 3411
1990 3407
f 3390
WWE 3381
tion 3365
หมา@@ 3344
av@@ 3331
é 3312
z@@ 3295
00@@ 3271
Re@@ 3244
po@@ 3243
ay 3233
us@@ 3232
บล 3211
ent 3198
ดง 3189
ep@@ 3155
2002 3154
ชีวิ@@ 3147
Com@@ 3130
2003 3112
95 3108
01 3078
ณะ@@ 3068
300 3064
4,@@ 3062
ฬ 3059
z 3039
U 3038
1980 3027
Al@@ 3025
ทัศ@@ 3025
ab@@ 3014
ec@@ 3014
od@@ 3008
:@@ 3005
๑@@ 3003
Tr@@ 3001
il@@ 2998
ir@@ 2970
di@@ 2947
85 2933
ch 2906
05 2902
Co@@ 2899
as 2876
for 2873
88 2852
98 2850
Mar@@ 2844
section 2839
Bo@@ 2817
ity 2810
ak@@ 2806
๕@@ 2801
4.@@ 2799
89 2799
72 2791
ang@@ 2790
จัง@@ 2780
2001 2777
ut@@ 2769
World 2757
He@@ 2752
Br@@ 2742
ฉ 2739
th 2732
84 2729
it 2727
ary 2715
ig@@ 2695
76 2682
ers 2646
ory 2642
ั้ม 2637
Ar@@ 2635
03 2631
ed@@ 2624
77 2620
04 2615
08 2612
Mo@@ 2608
่งข@@ 2608
“@@ 2605
ai 2596
ter@@ 2591
um@@ 2586
๑ 2584
per@@ 2580
to@@ 2577
ent@@ 2573
Sp@@ 2568
93 2561
92 2558
68 2550
94 2547
ight 2540
09 2532
02 2531
78 2531
91 2529
96 2526
Pr@@ 2525
age 2525
07 2523
66 2516
81 2516
qu@@ 2511
06 2509
1992 2509
de@@ 2504
ne@@ 2503
82 2499
1996 2498
เมริ@@ 2479
ad 2476
97 2474
si@@ 2467
1998 2466
5.@@ 2462
bi@@ 2450
ูน@@ 2449
67 2448
83 2444
Ex@@ 2433
te@@ 2419
1999 2416
J 2410
7.@@ 2406
วัล 2405
30@@ 2403
ri@@ 2401
1970 2397
’ 2395
° 2393
og@@ 2389
​@@ 2386
มปิก 2369
69 2358
ฬา 2357
6,@@ 2351
86 2351
v 2346
79 2327
1997 2313
73 2311
6.@@ 2310
id 2307
ร่ว@@ 2306
end 2304
1960 2299
87 2285
71 2283
400 2242
ati@@ 2242
ess 2235
ance 2217
— 2213
74 2204
od 2199
๊ 2189
8.@@ 2182
Ro@@ 2181
os 2179
ีต 2169
ov@@ 2163
๒ 2155
De@@ 2135
ฒ 2130
sh@@ 2102
1991 2097
hi@@ 2088
1994 2087
26@@ 2073
TV 2062
ence 2061
๐ 2060
ang 2055
ell 2053
ver@@ 2053
Se@@ 2052
tri@@ 2050
ob@@ 2046
la 2024
Y 2021
7,@@ 2019
se 2009
tor 2008
ous 2007
2022 2004
cor@@ 1997
ly@@ 1996
University 1992
1993 1989
Car@@ 1989
9.@@ 1988
ๆ@@ 1979
ie 1968
ard 1967
=@@ 1966
Ac@@ 1964
1995 1963
ce 1956
ath@@ 1950
hy@@ 1950
ty 1947
ure 1943
Ph@@ 1941
Love 1938
ach@@ 1936
Di@@ 1921
ace 1916
ana 1914
ant 1914
da 1911
Par@@ 1908
แห่ง@@ 1903
Ad@@ 1897
8,@@ 1896
eg@@ 1887
and@@ 1886
ist 1882
yl@@ 1882
1988 1880
pl@@ 1879
ควา@@ 1873
International 1868
ical 1866
par@@ 1863
der 1859
บริษั@@ 1854
Ne@@ 1852
1989 1847
ev@@ 1837
ok@@ 1837
150 1836
En@@ 1830
ni@@ 1830
II 1816
Or@@ 1811
1945 1809
dis@@ 1806
iz@@ 1806
๓ 1804
se@@ 1797
Mon@@ 1794
ae 1790
'@@ 1787
do@@ 1787
ice 1787
ol 1783
%@@ 1778
az@@ 1768
man 1762
gen@@ 1761
เป็@@ 1759
Le@@ 1756
ใหญ@@ 1755
all 1752
600 1746
ํ@@ 1746
est 1745
ay@@ 1743
Ser@@ 1742
te 1737
son 1736
ly 1735
You 1722
ong 1719
๔@@ 1719
AS@@ 1715
IS@@ 1715
New 1713
ect 1712
ment 1700
AR@@ 1699
are 1698
au@@ 1694
Q@@ 1692
tic 1690
ให@@ 1684
br@@ 1680
ite 1677
800 1675
Be@@ 1670
1984 1666
ea 1664
28@@ 1663
ho@@ 1656
end@@ 1651
1950 1649
no@@ 1648
ok 1645
ase 1644
ฝรั@@ 1644
ail@@ 1640
For@@ 1635
su@@ 1633
185@@ 1632
our 1632
all@@ 1630
ism 1628
Po@@ 1619
á 1618
bo@@ 1617
Man@@ 1611
ong@@ 1605
ge 1603
ome 1601
27@@ 1600
ata 1599
mo@@ 1596
ou@@ 1595
9,@@ 1593
ue 1593
Best 1585
un 1574
๔ 1573
ex@@ 1571
ass@@ 1568
oph@@ 1563
1986 1558
๕ 1557
me@@ 1553
29@@ 1543
Cr@@ 1542
Gr@@ 1542
ci@@ 1533
Pl@@ 1529
pi@@ 1529
”@@ 1528
Music 1526
af@@ 1523
1940 1518
AT@@ 1517
? 1516
ari@@ 1515
eb@@ 1515
ik@@ 1511
Gu@@ 1506
we@@ 1500
Col@@ 1499
ion 1495
car@@ 1491
beg@@ 1488
ปัจจุ@@ 1484
und@@ 1480
ain 1476
est@@ 1476
School 1475
Un@@ 1474
re 1466
yr@@ 1466
Per@@ 1462
gr@@ 1459
1987 1458
Cl@@ 1456
sp@@ 1447
ell@@ 1446
uc@@ 1445
Z 1441
ina 1441
0,@@ 1434
Ma@@ 1431
180@@ 1423
na 1423
pr@@ 1423
dr@@ 1419
179@@ 1418
by 1413
120 1411
enti@@ 1408
1985 1406
ot 1403
ys@@ 1402
BC 1399
ast 1398
j 1393
ale 1385
il 1378
ing@@ 1377
700 1375
1972 1369
As@@ 1369
Gir@@ 1368
ta 1366
ill@@ 1365
rec@@ 1364
aw@@ 1357
no 1357
ology 1355
Go@@ 1351
ah@@ 1349
ya 1340
ame 1338
und 1333
๐@@ 1321
str@@ 1320
dae 1319
Cor@@ 1316
st 1316
ma 1315
ff@@ 1314
ber@@ 1311
com 1309
gi@@ 1309
ฑ 1308
Pol@@ 1307
art 1303
ma@@ 1303
Me@@ 1298
inal 1296
lin@@ 1291
.ศ. 1290
National 1290
mon@@ 1290
ular 1289
ons 1285
den 1284
1983 1283
NA 1278
Pe@@ 1275
๓@@ 1274
ton 1273
Mas@@ 1271
ran@@ 1268
Pro@@ 1267
184@@ 1266
rest@@ 1266
ts 1263
sc@@ 1261
he@@ 1258
vi@@ 1258
ES@@ 1253
ated 1252
.. 1248
anc@@ 1248
In 1240
Str@@ 1240
1930 1237
My 1235
1979 1234
con@@ 1234
om 1234
1968 1233
ative 1229
ist@@ 1227
ver 1222
1920 1218
CO@@ 1217
res@@ 1217
so@@ 1217
1982 1216
# 1215
1981 1213
Wh@@ 1213
Award 1212
Her@@ 1212
ra@@ 1207
Am@@ 1204
ack@@ 1204
1976 1203
ib@@ 1203
ฤ 1202
pe@@ 1201
* 1200
1964 1200
ics 1200
sion 1197
Char@@ 1189
Qu@@ 1186
1941 1182
ah 1181
1975 1179
Si@@ 1176
ฟุต@@ 1175
John 1170
tic@@ 1169
Mag@@ 1167
ey 1162
la@@ 1162
ra 1157
yc@@ 1157
IN@@ 1156
able 1155
ak 1155
๖ 1153
1939 1148
CA@@ 1148
Li@@ 1148
ile 1145
port 1145
1944 1142
ish 1141
mar@@ 1141
ore 1136
So@@ 1132
1978 1130
Fre@@ 1130
be 1130
Q 1127
รรม@@ 1127
Fo@@ 1126
der@@ 1125
๙ 1125
inc@@ 1124
Lo@@ 1123
ō 1123
250 1121
aci@@ 1121
Awards 1119
− 1119
1974 1117
Res@@ 1116
Championship 1114
with 1112
Hy@@ 1111
tu@@ 1110
eng@@ 1108
ack 1106
yp@@ 1104
com@@ 1097
amb@@ 1093
ick 1088
ā 1088
‘ 1088
III 1085
lu@@ 1083
ans 1081
?@@ 1080
Dr@@ 1077
El@@ 1077
CD 1075
the@@ 1074
cer@@ 1070
ensis 1070
min@@ 1069
Min@@ 1067
ling 1067
ens@@ 1065
ng 1065
Hol@@ 1063
Bar@@ 1062
if@@ 1061
ann@@ 1060
include 1060
• 1059
yn@@ 1056
ant@@ 1047
Te@@ 1043
× 1036
Sci@@ 1032
๗ 1032
man@@ 1031
Me 1028
ars 1028
10.@@ 1025
Ab@@ 1025
Ste@@ 1025
ich@@ 1024
1969 1020
ฌ 1019
1948 1018
Sch@@ 1016
be@@ 1016
ass 1015
1967 1012
ost 1011
ting 1011
We@@ 1010
1977 1008
ica 1004
1971 1001
1956 999
ne 997
ner 996
ek@@ 995
land 994
ung 991
bl@@ 988
pol@@ 986
ๅ@@ 984
Man 983
AC@@ 982
ps 982
1942 981
King 980
ital 975
1973 973
101 970
igh@@ 970
๘ 968
180 966
unc@@ 964
ess@@ 963
ire 963
AN@@ 961
ese 961
ations 959
cr@@ 959
Fr@@ 958
htt@@ 958
ade 952
ü 952
mi@@ 951
It 949
les 947
1918 942
To@@ 942
Ver@@ 940
Entertainment 934
ard@@ 933
ler 931
ํ 928
1936 925
ka 923
Su@@ 922
tro@@ 922
tive 921
Tri@@ 919
Ho@@ 917
ies 917
Har@@ 916
IC@@ 913
hi 911
ley 911
ali@@ 910
cu@@ 910
ou 910
1962 906
ens 904
Ang@@ 903
ings 903
me 902
ble 901
ks 899
ox@@ 899
AC 897
Sing@@ 897
$ 896
act 896
Team 894
ake 894
ish@@ 894
RA@@ 893
SE@@ 892
ise 892
ain@@ 891
ator 890
ement 889
mp@@ 889
900 886
Inter@@ 886
fer@@ 886
sub@@ 886
1943 884
1963 883
em 882
ษั@@ 880
1000 877
eo 877
1949 876
Wor@@ 874
ud@@ 874
130 870
1952 869
anti@@ 869
ster@@ 869
1947 868
Star 867
aj@@ 867
dro@@ 867
oy@@ 867
ww@@ 867
Mor@@ 866
Dis@@ 865
ST@@ 865
Sec@@ 864
CO 863
amp@@ 863
pre@@ 863
attle 861
ow@@ 861
One 858
anth@@ 858
ene 856
1938 855
1946 853
1965 851
ai@@ 851
Ta@@ 849
ru@@ 847
ö 846
ind@@ 845
ug@@ 845
1958 843
Fi@@ 842
ave 841
ax@@ 841
pe 841
cul@@ 839
ー@@ 839
way 838
Cy@@ 837
Mat@@ 832
ams 831
mer@@ 831
1966 830
BS 830
OS 830
cre@@ 830
ó 829
United 828
Ye@@ 828
work 828
ER@@ 826
iv@@ 826
Mis@@ 824
1954 822
inter@@ 822
ta@@ 822
1961 821
fr@@ 821
50@@ 820
All 820
fl@@ 820
Is@@ 818
era 817
ture 816
Bur@@ 815
ini 815
li 815
ym@@ 815
Group 813
On@@ 812
ama 812
up@@ 812
พิมพ@@ 812
Jo@@ 811
AB@@ 809
trans@@ 809
Net@@ 807
mag@@ 805
American 804
Black 804
UN@@ 802
RO@@ 799
line 799
ปฏ@@ 799
ili@@ 797
Des@@ 796
king 796
ir 795
Mus@@ 794
pos@@ 793
Do@@ 791
ors 791
ane 790
ung@@ 790
Em@@ 788
ella 787
ection 786
ope 785
lar@@ 783
ut 780
|@@ 780
12.@@ 779
ida 779
low@@ 779
Im@@ 777
Time 777
ath 777
Bro@@ 776
syn@@ 775
old 774
pp@@ 773
Mal@@ 772
fac@@ 772
col@@ 771
oh@@ 771
1959 770
row 769
Dre@@ 768
No 768
Ag@@ 767
im 767
ian 766
Air@@ 765
AM@@ 764
Pal@@ 762
ha@@ 762
ur 762
College 761
ide 760
arr@@ 759
~ 758
por@@ 756
ten@@ 756
prot@@ 755
+@@ 754
Gre@@ 753
BA 752
Royal 752
ici@@ 752
oth@@ 752
110 751
als 751
1919 748
City 748
q 748
ser@@ 748
Nor@@ 746
1900 745
des 745
1957 743
ike 743
per 743
Wil@@ 742
の@@ 742
160 740
FC 740
Sy@@ 740
11.@@ 739
do 739
1912 738
หนัง@@ 736
uk@@ 735
Live 734
ao 732
ge@@ 732
iss@@ 732
Mer@@ 731
US@@ 731
ub@@ 731
gu@@ 730
Center 729
ena 729
ura 728
bu@@ 727
ere 727
CE@@ 726
IM@@ 725
Fl@@ 724
200@@ 723
RE@@ 723
ental 722
My@@ 721
จากนี้ 720
ori@@ 719
for@@ 717
Sol@@ 716
The@@ 715
ara 715
Bi@@ 713
ick@@ 712
ision 712
1953 711
cl@@ 710
au 708
sch@@ 705
140 704
del 704
1933 701
ine@@ 701
Mc@@ 700
di 699
ual 699
1955 698
Pi@@ 698
AP@@ 695
mer 695
tle 694
Day 692
1917 691
wor@@ 691
eli@@ 689
elec@@ 688
low 688
out 688
í 687
MS 685
NE@@ 685
eh@@ 685
ws 685
atus 684
fin@@ 684
Medi@@ 683
Gal@@ 682
Gi@@ 682
War 681
adi@@ 681
ン@@ 681
Pre@@ 680
La 679
ie@@ 679
ky 679
sel@@ 679
IV 678
No@@ 678
Stu@@ 678
app@@ 678
du@@ 678
System 677
ast@@ 677
ca 677
ตั้@@ 677
Ge@@ 675
mat@@ 674
1937 673
form 673
ode 673
ning 670
Life 669
ac 669
acc@@ 669
ler@@ 669
onal 669
Chr@@ 667
system 666
หวัด 666
Er@@ 663
ther@@ 662
Leg@@ 661
MA 661
co 661
ker 659
order 659
Ap@@ 658
Tur@@ 658
TC 657
que 657
tim@@ 657
Lin@@ 656
ony 656
Sal@@ 655
Sw@@ 655
→ 655
40@@ 654
SA@@ 654
kh@@ 653
sol@@ 653
Association 652
tions 652
Tre@@ 650
from 650
air@@ 649
To 648
colspan 645
1934 644
At@@ 644
Super 644
mus@@ 644
sur@@ 644
har@@ 643
350 641
ino 641
Show 640
Bre@@ 638
fi@@ 638
tical 638
1932 637
ein 637
ano 636
her@@ 635
ign 635
sy@@ 635
Bl@@ 634
Mac@@ 634
of@@ 634
Institute 633
1924 631
Cap@@ 630
Reg@@ 630
è 630
Lu@@ 629
Sur@@ 629
Val@@ 629
ales 629
chi@@ 629
Ber@@ 628
ba@@ 628
Ed@@ 627
ins 625
Trans@@ 623
medi@@ 623
ill 622
nuc@@ 622
ora 622
ry 622
eph@@ 621
tics 621
1935 620
ents 620
High 619
Tel@@ 619
ys 619
Sc@@ 617
enc@@ 617
lam@@ 617
1928 616
Kar@@ 615
amm@@ 615
ha 615
๖@@ 614
120@@ 612
Bas@@ 612
dia 612
tor@@ 612
yo 612
Ir@@ 611
War@@ 611
Super@@ 609
eci@@ 609
WW@@ 608
alis@@ 608
sian 608
tin 608
lock 607
Sho@@ 606
cle 605
ted 605
Cal@@ 603
Fac@@ 603
1951 602
Park 602
Sub@@ 602
ach 602
Fe@@ 601
Academy 600
Prot@@ 600
ides 600
time 600
Great 599
大@@ 599
Grand 598
Top 598
On 597
ality 597
สามาร@@ 597
EP 596
Progr@@ 596
Sm@@ 596
nam@@ 596
rom@@ 595
ek 594
go@@ 594
ters 594
DC 593
Ear@@ 593
House 593
rel@@ 593
sa 593
try 593
Elec@@ 592
Film 591
王@@ 591
Gar@@ 590
St 590
Techn@@ 590
Ty@@ 590
ree 590
ตำแหน@@ 590
Proj@@ 589
ani 589
mot@@ 589
Gol@@ 588
Mot@@ 588
eral 588
style 588
Mi@@ 587
ep 587
film 587
vir@@ 587
Asia 585
Bus@@ 585
William 585
ates 584
Vi@@ 583
can@@ 583
à 583
Hon@@ 582
Je@@ 582
ness 582
James 580
Art 578
bas@@ 578
ello 578
ng@@ 578
Gener@@ 577
ner@@ 577
ls 576
ap 575
oni@@ 575
ala 574
ref 574
int@@ 572
aur@@ 571
cap@@ 571
PC 570
iti@@ 570
ros@@ 570
oma 569
pro@@ 569
Dev@@ 567
Eng@@ 566
Sou@@ 566
los@@ 565
80@@ 564
ange 564
ple 564
Cro@@ 563
SS@@ 563
io 563
tern 563
Red 562
Sil@@ 562
sive 562
ince 561
ich 560
ni 560
ve@@ 560
1911 558
Bor@@ 558
La@@ 558
Ran@@ 557
ki@@ 557
ze 557
Coun@@ 556
Hor@@ 556
ey@@ 556
was 556
ji 555
เ 555
Kh@@ 554
Dar@@ 553
tre@@ 553
Mel@@ 552
Party 552
ash@@ 552
vol@@ 552
ater 551
fe@@ 551
1910 550
dice 550
Pri@@ 549
Song 549
och@@ 549
โอลิ@@ 549
Big 548
Can@@ 547
11,@@ 545
1914 545
ature 545
ock 545
uti@@ 545
ye 545
lat@@ 544
pres@@ 544
CI@@ 543
eff@@ 543
្@@ 543
1922 542
Bu@@ 542
Japan 542
dom 542
tis 542
su 540
ds 538
ever 537
1908 535
Produc@@ 535
q@@ 535
Ben@@ 534
King@@ 534
Sam@@ 533
own 533
Pres@@ 532
dy 532
ti 532
ครั้@@ 532
Young 531
its 530
prin@@ 530
ason 529
op 529
loc@@ 528
10,@@ 527
Michael 527
ution 527
Que@@ 526
ash 526
iness 526
Kor@@ 525
Records 524
Off@@ 523
Sum@@ 523
Ter@@ 523
FI@@ 522
Op@@ 522
Win@@ 522
duc@@ 522
ease 522
CD@@ 521
Rec@@ 521
Rom@@ 521
ster 521
Rock 520
Uni@@ 520
enn@@ 520
entr@@ 520
edr@@ 519
ab 518
bit@@ 518
val@@ 518
Robert 517
cas@@ 517
Cre@@ 516
1929 515
PS 515
day 514
Mah@@ 513
bul@@ 513
ding 513
had 513
isti@@ 513
First 512
mas@@ 512
ost@@ 511
side 511
11@@ 510
1904 510
Mad@@ 510
ke 510
att@@ 509
Wal@@ 508
ole 508
Sim@@ 507
met@@ 507
Bal@@ 506
uch@@ 506
ids 505
annel 504
awa 503
cal@@ 503
uz@@ 503
ful 502
ä 502
Beau@@ 501
SA 501
ari 501
ship 500
Ni@@ 499
bre@@ 499
ee 499
ond@@ 499
public 499
Mid@@ 498
ber 498
use 498
1921 497
ady 497
-- 496
Club 495
Hall 495
ond 495
Met@@ 493
Bel@@ 492
Play@@ 492
earch 492
Bang@@ 491
Lit@@ 491
124@@ 490
AI@@ 490
inae 490
1925 489
cy@@ 489
ita 489
ki 489
Ob@@ 488
State 488
Blo@@ 487
Windows 487
emb@@ 487
ern@@ 487
1926 486
Hum@@ 486
ei 486
ign@@ 486
Pan@@ 485
ear@@ 485
ground 485
ft 484
Chi@@ 483
David 483
ney 483
ple@@ 483
tra 483
tw@@ 483
eti@@ 482
–@@ 482
Gl@@ 481
Kn@@ 481
US 481
uke 481
Ger@@ 480
Ra@@ 479
SP@@ 479
League 478
White 478
ating 478
1931 476
Festival 476
Rus@@ 476
Ul@@ 476
verse 476
App@@ 475
alth 475
edi@@ 475
pen@@ 475
1906 474
Paul 474
ust 474
red 473
Cas@@ 472
Kr@@ 471
1923 470
ke@@ 470
DS 469
Feder@@ 469
sa@@ 467
til@@ 467
Ros@@ 466
Vo@@ 466
ome@@ 466
เลือก@@ 466
ket 465
ns 465
CH@@ 464
Gen@@ 464
Ru@@ 464
ister 464
Charles 463
action 463
formes 463
illa 463
ont@@ 463
General 461
els 461
osa 461
tar@@ 461
ef@@ 460
my 460
nor@@ 460
sych@@ 460
za 460
Company 459
Cup 459
Hal@@ 459
States 459
world 459
hor@@ 457
ean 456
not 456
tel@@ 456
George 455
Mul@@ 455
vil 455
๙@@ 455
1927 454
Blue 454
ect@@ 453
tur@@ 453
Soci@@ 452
๘@@ 452
Por@@ 451
up 451
yth@@ 451
war@@ 450
Chil@@ 449
Dec@@ 449
Lim@@ 449
proc@@ 449
van 449
DNA 448
ada 448
cur@@ 448
AD@@ 447
iy@@ 447
ov 447
Mil@@ 446
Tok@@ 446
group 446
York 445
Don 444
Fin@@ 444
light 444
1896 443
Vol@@ 443
lan@@ 443
sk@@ 443
tional 443
Wi@@ 442
ord@@ 442
son@@ 442
ties 442
ans@@ 441
assi@@ 441
del@@ 441
ae@@ 440
Cam@@ 439
Oc@@ 439
Sa@@ 439
aus@@ 439
Arts 438
River 438
form@@ 438
fre@@ 438
model 438
tain 438
ผ 438
1890 437
Sar@@ 437
peri@@ 437
sen@@ 437
cal 436
Media 435
Pic@@ 435
Society 435
des@@ 435
ency 435
1905 434
1915 434
Dig@@ 434
ū 434
AP 432
Wo@@ 432
ays 432
go 432
pu@@ 432
other 431
sti@@ 431
reg@@ 430
wn 429
ium 428
ets 427
ima 426
inn@@ 426
SS 425
*@@ 424
ota 424
agement 423
cop@@ 423
ering 423
hu@@ 423
ko 423
bor@@ 422
von 422
Aut@@ 421
MP@@ 421
fication 421
‍ 421
Mem@@ 420
Pow@@ 420
Vir@@ 420
ins@@ 420
1907 419
eter@@ 419
ez@@ 419
gre@@ 419
name 419
net 418
tra@@ 418
Christ@@ 417
Plat@@ 417
Pu@@ 417
wh@@ 417
1913 416
12,@@ 415
Bab@@ 415
ein@@ 415
eme 415
iki 415
CC@@ 414
South 414
ny 414
une 414
Cer@@ 412
asi@@ 412
Hu@@ 411
Tak@@ 411
ette 411
ort 411
1916 410
ace@@ 410
back@@ 410
elle 410
ven@@ 410
act@@ 409
ero 409
ime 409
Council 408
aka 408
Wat@@ 407
int 407
nch@@ 407
Boy@@ 406
Oper@@ 406
down 406
field 406
ights 406
rit@@ 406
Tom@@ 405
dition 405
udi@@ 405
CA 404
China 404
Del@@ 404
ford 404
sec@@ 404
ī 404
comp@@ 403
cy 403
Av@@ 402
atr@@ 402
cus 402
TA 401
aya 401
hin@@ 401
ote 401
tion@@ 401
wa 401
… 401
East 400
yo@@ 400
English 399
oto 399
Mir@@ 398
ross 398
British 397
aki 397
back 397
vis@@ 397
्@@ 397
Fri@@ 396
mac@@ 396
ople 396
ste@@ 396
alis 395
ger 394
AS 393
Air 393
Studi@@ 393
Tor@@ 393
Ur@@ 393
fol@@ 393
key 393
tory 393
Lee 392
London 392
ax 392
ms 391
serv@@ 391
air 390
enth@@ 390
istr@@ 390
Es@@ 389
elop@@ 389
oll@@ 389
top 389
Shi@@ 388
acy 388
Bir@@ 387
Commun@@ 387
ences 387
ense 387
Hel@@ 386
ective 386
ku@@ 386
language 386
lobal 386
ret@@ 385
Fran@@ 384
Women 384
arch@@ 384
ema 384
ide@@ 384
over 384
1800 383
Direc@@ 383
men@@ 383
1870 382
Au@@ 382
Mur@@ 382
bar@@ 382
du 382
yst@@ 382
Organ@@ 381
hom@@ 381
រ@@ 381
Chin@@ 380
Open 380
that 380
イ@@ 380
1860 379
song 379
face 378
isi@@ 378
this 378
1889 377
Corpor@@ 377
ff 377
1871 376
Doc@@ 376
Luc@@ 376
Thomas 376
Cat@@ 375
Ko@@ 375
Vid@@ 375
ational 375
ato 375
emati@@ 375
pis@@ 375
tan@@ 375
33@@ 373
Hi@@ 373
dec@@ 373
๗@@ 373
Educ@@ 372
Sun@@ 372
dic@@ 372
spec@@ 372
Ci@@ 371
gl@@ 371
hal@@ 371
hum@@ 370
log@@ 370
ography 370
Peter 369
err@@ 369
icul@@ 369
mission 369
ports 369
rati@@ 369
ury 369
ú 369
ally 368
arm@@ 368
esti@@ 368
ited 368
their 368
1901 367
Cur@@ 367
Ham@@ 367
West 367
eng 367
put@@ 367
Dou@@ 366
Le 365
fic 365
lands 365
berg 364
bur@@ 364
grap@@ 364
ja 364
ola 364
set 364
{ 364
£ 364
Tro@@ 362
mor@@ 362
ั 362
Green 361
Richard 361
SC 361
ines 361
1880 360
Ke@@ 360
Rel@@ 360
fer 360
alm@@ 359
yg@@ 359
Chem@@ 358
New@@ 358
Tour 358
ye@@ 358
Fu@@ 357
dio 357
eri@@ 357
series 357
state 357
Ca@@ 356
sin@@ 356
α 356
Tal@@ 355
erg@@ 355
kl@@ 355
pan@@ 355
1898 354
tes 354
ison 353
ological 353
35@@ 352
Anti@@ 352
Orig@@ 352
Roc@@ 352
aliz@@ 352
antas@@ 352
cin@@ 352
plic@@ 352
Island 351
Phil@@ 351
Son@@ 351
bit 351
ona 351
tom@@ 351
Cir@@ 350
Du@@ 350
For 350
Street 350
self 350
Olympi@@ 349
tis@@ 349
ฤษ 349
1909 348
Lang@@ 348
AM 347
FA 347
Hot 347
Pas@@ 347
apo@@ 347
coun@@ 347
gar@@ 347
­@@ 347
ith 346
pul@@ 346
America 345
Union 344
1500 343
Champi@@ 343
atur@@ 343
ce@@ 343
char@@ 343
team 343
if 342
ko@@ 342
1903 341
eth@@ 341
onn@@ 341
terior 341
ther 341
1902 340
ute 340
Bud@@ 339
Cul@@ 339
Han@@ 339
Squ@@ 339
ico 339
É 339
This 338
center 338
conom@@ 338
eus 338
formation 338
gener@@ 338
our@@ 338
ron@@ 338
ty@@ 338
BM@@ 337
len 337
lo 336
prim@@ 336
sw@@ 336
ๅ 336
天@@ 336
Spe@@ 335
tro 335
arg@@ 334
ough 334
pot@@ 334
ret 334
Google 333
Univers@@ 333
ext 333
gro@@ 333
tem@@ 333
wer@@ 333
1895 332
Pop@@ 332
แหน@@ 332
European 331
Ti@@ 331
cle@@ 331
thi@@ 331
Kur@@ 330
Stand@@ 330
ebr@@ 330
her 330
Mich@@ 329
You@@ 329
vice 329
Plan@@ 328
body 328
test 328
yan@@ 328
ル@@ 328
San 327
cip@@ 327
off 327
put 327
ç 327
Cin@@ 326
Bul@@ 325
Cel@@ 325
Mu@@ 325
Rem@@ 325
ami@@ 325
ces 325
hr@@ 325
onia 325
ro 325
very 325
Fut@@ 324
Lor@@ 324
idge 324
len@@ 324
occ@@ 324
win@@ 324
子@@ 324
DVD 323
Os@@ 323
lia 323
mem@@ 323
wood 323
1888 322
Ind@@ 322
Star@@ 322
eld 322
olog@@ 322
qui@@ 322
they 322
wo 322
1899 321
Bank 321
Got@@ 321
bel@@ 321
ス@@ 321
1868 320
Central 320
Sel@@ 320
ail 320
dor@@ 320
ket@@ 320
member 320
tin@@ 320
Pat@@ 319
ami 318
enz@@ 318
fo@@ 318
omo 318
sho@@ 317
1893 316
Sem@@ 316
Sup@@ 316
seud@@ 316
unt 316
ward 316
1830 315
1867 315
Billboard 315
VI@@ 315
inf@@ 315
ref@@ 315
ς@@ 315
mel@@ 314
oz@@ 314
ulation 314
…@@ 314
ラ@@ 314
Gro@@ 313
Maj@@ 313
Stadi@@ 313
ld 313
ō@@ 313
press 312
va 312
Hot@@ 311
Lab@@ 311
Station 311
ham 311
icro@@ 311
ren@@ 311
1848 310
Andre@@ 310
ira 310
let 310
mal 310
vel 310
1897 309
Dem@@ 309
Journ@@ 309
ba 309
cep@@ 309
tiv@@ 309
Empire 308
eter 308
ons@@ 308
pal@@ 308
ush@@ 308
Fer@@ 307
Rob@@ 307
ken 307
lig@@ 307
mis@@ 307
net@@ 307
ten 307
tex@@ 307
Cast@@ 306
Pap@@ 306
Pin@@ 306
did@@ 306
pa 306
sia 306
ula 306
ume 306
Henry 305
band 305
ems 305
Il@@ 304
North 304
ait 304
crip@@ 304
kin@@ 304
â 304
ា@@ 304
bil@@ 303
dom@@ 303
ih@@ 303
lar 303
multi@@ 303
sen 303
High@@ 302
Times 302
ely 302
ger@@ 302
ior 302
ety 301
port@@ 301
Ev@@ 300
Mak@@ 300
clu@@ 300
hab@@ 300
Games 299
Ox@@ 299
Sk@@ 299
Vic@@ 299
Vis@@ 299
dle 299
thern 299
Pen@@ 298
Ri@@ 298
bert 298
ones 298
so 298
Road 297
mann 297
now 297
odi@@ 297
ts@@ 297
é@@ 297
But@@ 296
Famil@@ 296
Tow@@ 296
align 296
oper@@ 296
opsis 296
uy@@ 296
vo@@ 296
Lev@@ 295
Meg@@ 295
tron@@ 295
帝@@ 295
Arti@@ 294
ban@@ 294
emp@@ 294
si 294
· 294
Not@@ 293
Radio 293
atom@@ 293
mal@@ 293
pat@@ 293
wid@@ 293
皇@@ 293
Album 292
Mark 292
Tw@@ 292
ider 292
Dol@@ 291
dem@@ 291
una 291
view 291
Nic@@ 290
Nov@@ 290
aria 290
dium 290
ez 290
ube 290
urs 290
ying 290
Blu@@ 289
Martin 289
Publi@@ 289
San@@ 289
cir@@ 289
lor@@ 289
Band 288
Camp@@ 288
gen 288
plas@@ 288
right 288
super@@ 288
1878 287
Mos@@ 287
Sof@@ 287
ders 287
sem@@ 287
็ 287
1885 286
Arch@@ 286
Bat@@ 286
Pa@@ 286
Pot@@ 286
comple@@ 286
ecture 286
less 286
soci@@ 286
tors 286
Fal@@ 285
Mit@@ 285
ania 285
ebo@@ 285
osp@@ 285
Force 284
Ha@@ 284
Nav@@ 284
ants 284
fa@@ 284
ilia 284
中@@ 284
Louis 283
erry 283
BBC 282
oo 282
1892 281
ards 281
bro@@ 281
cine 281
ix 281
ori 281
wal@@ 281
All@@ 280
Cath@@ 280
Sen@@ 280
Syn@@ 280
Ze@@ 280
Rap@@ 279
Rol@@ 279
Saint 279
ability 279
cho@@ 279
ects 279
ust@@ 279
1850 278
ech@@ 278
jo 278
vent@@ 278
1894 277
Jac@@ 277
Kam@@ 277
cell@@ 277
struc@@ 277
yan 277
Kim 276
Web@@ 276
ani@@ 276
cat@@ 276
not@@ 276
well 276
Bri@@ 275
Jus@@ 275
even 275
pin@@ 275
Harr@@ 274
Ven@@ 274
ci 274
flu@@ 274
Do 273
aga 273
cel@@ 273
nh@@ 273
prop@@ 273
win 273
—@@ 273
As 272
change 272
ck 272
equ@@ 272
sal 272
Revol@@ 271
ages 271
ef 271
mun@@ 271
ories 271
Bet@@ 270
Spr@@ 270
ri 270
sul@@ 270
sum@@ 270
vention 270
ē 270
Hay@@ 269
can 269
ga 269
iller 269
kin 269
lem@@ 269
phy@@ 269
Long 268
azine 268
bri@@ 268
1884 267
Eu@@ 267
Wol@@ 267
chan@@ 267
ference 267
first 267
format 267
get 267
left 267
lie 267
lob@@ 267
pha 267
い@@ 267
UK 266
art@@ 266
die 266
type 266
1886 265
Joseph 265
mb@@ 265
region 265
ton@@ 265
² 265
人@@ 265
1861 264
Ka@@ 264
Kis@@ 264
aff@@ 264
agn@@ 264
ends 264
rol@@ 264
vel@@ 264
Div@@ 263
Ram@@ 263
urt 263
zo 263
太@@ 263
李@@ 263
1862 262
Bot@@ 262
She@@ 262
ila 262
ont 262
1891 261
Alli@@ 261
Fel@@ 261
ille 261
phot@@ 261
po 261
pur@@ 261
Juli@@ 260
Steph@@ 260
class 260
esc@@ 260
teri@@ 260
text 260
Cop@@ 259
Mach@@ 259
din@@ 259
gh@@ 259
outh 259
radi@@ 259
1866 258
De 258
depend@@ 258
point 258
’@@ 258
山@@ 258
Acc@@ 257
Ba@@ 257
Den@@ 257
Govern@@ 257
Maria 257
Sor@@ 257
inde@@ 257
let@@ 257
more 257
off@@ 257
oman 257
Dor@@ 256
ban 256
ous@@ 256
play 256
sal@@ 256
tice 256
_@@ 255
pa@@ 255
Ban@@ 254
Jan@@ 254
ado@@ 254
onom@@ 254
・@@ 254
France 253
Prim@@ 253
lum 253
mit@@ 253
rac@@ 253
ves 253
amin@@ 252
anus 252
bin@@ 252
box 252
chi 252
ech 252
music 252
~@@ 252
Clar@@ 251
Liv@@ 251
active 251
ority 251
ural 251
vari@@ 251
vers@@ 251
Fil@@ 250
Men@@ 249
Tan@@ 249
mod@@ 249
next 249
ua 249
umin@@ 249
） 249
Yo@@ 248
retur@@ 248
1864 247
Ash@@ 247
Ol@@ 247
anda 247
ik 247
uri 247
Ann@@ 246
Som@@ 246
ip@@ 246
pop 246
yle 246
າ@@ 246
Geor@@ 245
mil@@ 245
opo@@ 245
yon@@ 245
--@@ 244
1863 244
Far@@ 244
Liber@@ 244
astr@@ 244
contr@@ 244
contribut@@ 244
fied 244
uf@@ 244
َ@@ 244
Cru@@ 243
Tim@@ 243
ais@@ 243
based 243
eta 243
men 243
pon 243
1887 242
Sain@@ 242
ali 242
lis 242
ト@@ 242
國@@ 242
1879 241
Internet 241
Ly@@ 241
Na@@ 241
Tar@@ 241
agr@@ 241
ati 241
dri@@ 241
estr@@ 241
xi@@ 241
County 240
Democ@@ 240
Med@@ 240
Museum 240
Tun@@ 240
ats 240
eth 240
hips 240
uki 240
Ale@@ 239
Nar@@ 239
kar@@ 239
ord 239
1882 238
Gh@@ 238
Kan@@ 238
Mol@@ 238
Sav@@ 238
dig@@ 238
tho@@ 238
uli@@ 238
1875 237
1877 237
1881 237
Astr@@ 237
Az@@ 237
Ig@@ 237
Max 237
mu@@ 237
pel@@ 237
tural 237
1865 236
Juni@@ 236
Lord 236
ault 236
ava 236
don 236
game 236
lab@@ 236
out@@ 236
tus 236
unter 236
Al 235
Football 235
When 235
iger 235
ister@@ 235
sim@@ 235
tern@@ 235
ul 235
ク@@ 235
Edward 234
ii 234
land@@ 234
Ali@@ 233
So 233
Tour@@ 233
sing@@ 233
Jean 232
Microsoft 232
^ 232
ier 232
mittee 232
plat@@ 232
som@@ 232
tures 232
ums 232
Mari@@ 231
Sak@@ 231
uni@@ 231
California 230
bot@@ 230
bus 230
mas 230
sor@@ 230
Ak@@ 229
Bec@@ 229
den@@ 229
dren 229
head 229
wan@@ 229
Ju@@ 228
Mary 228
Ren@@ 228
alb@@ 228
bir@@ 228
ius 228
lem 228
tia 228
Eri@@ 227
Loc@@ 227
ball 227
ment@@ 227
trol 227
umi 227
USA 226
bon 226
cha 226
pression 226
An 225
Enter@@ 225
With 225
blo@@ 225
fa 225
hol@@ 225
ô 225
ッ@@ 225
Land 224
chin@@ 224
Eur@@ 223
Johnson 223
Micro@@ 223
fri@@ 223
leg@@ 223
ods 223
tol@@ 223
シ@@ 223
Nak@@ 222
alist 222
ito 222
ski 222
tel 222
1883 221
Alexander 221
new 221
others 221
リ@@ 221
南@@ 221
Los 220
Roman 220
lam 220
mi 220
­ 220
ì 220
Brit@@ 219
Kir@@ 219
Ku@@ 219
Scott 219
coll@@ 219
tal@@ 219
Chap@@ 218
ame@@ 218
che 218
dan 218
ier@@ 218
Centre 217
Paris 217
any@@ 217
文@@ 217
Ji@@ 216
abeth 216
aly@@ 216
color 216
cont@@ 216
sil@@ 216
squ@@ 216
ways 216
1872 215
3000 215
DR 215
Ori@@ 215
esia 215
lip@@ 215
ule 215
version 215
vic@@ 215
} 215
公@@ 215
Cle@@ 214
Franc@@ 214
Sto@@ 214
emple 214
inger 214
number 214
ose 214
stand@@ 214
uv@@ 214
wer 214
ស@@ 214
Hom@@ 213
Kin@@ 213
bat@@ 213
rent 213
CN 212
Haw@@ 212
Land@@ 212
Natur@@ 212
edy 212
1873 211
Alb@@ 211
Dav@@ 211
England 211
Tit@@ 211
\ 211
area 211
bal@@ 211
chem@@ 211
control 211
ika 211
mid@@ 211
rich@@ 211
thr@@ 211
်@@ 211
Bow@@ 210
Ky@@ 210
Num@@ 210
burg@@ 210
partment 210
ville 210
ā@@ 210
后@@ 210
Nag@@ 209
forman@@ 209
identi@@ 209
mol@@ 209
stein 209
them 209
we 209
wi@@ 209
ê 209
India 208
Jap@@ 208
Prin@@ 208
Tran@@ 208
atre 208
dou@@ 208
eil@@ 208
esp@@ 208
iro 208
itz 208
neg@@ 208
nu@@ 208
Law@@ 207
Rh@@ 207
Rog@@ 207
cher 207
eri 207
ists 207
ux 207
xim@@ 207
ื 207
Conn@@ 206
Laur@@ 206
life 206
sig@@ 206
1874 205
1876 205
Archit@@ 205
May@@ 205
Ot@@ 205
Sus@@ 205
ament 205
augh@@ 205
ept@@ 205
ops 205
rea 205
tempor@@ 205
ures 205
yu 205
Lake 204
Phili@@ 204
eum 204
have 204
ny@@ 204
ow 204
unk@@ 204
wat@@ 204
Est@@ 203
It@@ 203
ado 203
gal@@ 203
ze@@ 203
ម@@ 203
国@@ 203
宗@@ 203
Aus@@ 202
Comp@@ 202
Hosp@@ 202
Jack 202
ega 202
mark 202
orial 202
sky 202
Def@@ 201
las 201
stre@@ 201
（@@ 201
1869 200
Dom@@ 200
Kat@@ 200
Sin@@ 200
aining 200
comm@@ 200
dern 200
elli 200
long@@ 200
Austr@@ 199
XX 199
bet@@ 199
gia 199
ump@@ 199
zi@@ 199
三@@ 199
Af@@ 198
Brown 198
Mod@@ 198
Nik@@ 198
con 198
ham@@ 198
ogr@@ 198
usi@@ 198
Bru@@ 197
History 197
ji@@ 197
ked 197
lim@@ 197
wo@@ 197
Bern@@ 196
anga 196
eer 196
hai 196
he 196
otr@@ 196
umb@@ 196
š 196
District 195
bac@@ 195
data 195
kr@@ 195
mul@@ 195
oa 195
sion@@ 195
ន@@ 195
、@@ 195
Jer@@ 194
activ@@ 194
alg@@ 194
ces@@ 194
chil@@ 194
ex 194
extr@@ 194
ishi 194
under@@ 194
β 194
日@@ 194
Christian 193
Division 193
Smith 193
！@@ 193
Army 192
Church 192
hav@@ 192
itz@@ 192
lay@@ 192
omb@@ 192
only 192
tig@@ 192
will 192
Der@@ 191
Kal@@ 191
law 191
ministr@@ 191
mm 191
prise 191
sign@@ 191
‌ 191
Anth@@ 190
El 190
Kon@@ 190
Mand@@ 190
aer@@ 190
def@@ 190
idi@@ 190
lin 190
perior 190
ric@@ 190
versi@@ 190
æ 190
ฅ@@ 190
From 189
Hen@@ 189
Hir@@ 189
az 189
eck 189
ites 189
tain@@ 189
would 189
yn 189
Bak@@ 188
IX 188
Jackson 188
ago 188
rap@@ 188
sey 188
station 188
Cu@@ 187
Lou@@ 187
dh@@ 187
sus 187
trac@@ 187
Patr@@ 186
Rot@@ 186
anger 186
ario 186
ark@@ 186
fu@@ 186
fus@@ 186
rot@@ 186
Ah@@ 185
Ath@@ 185
DV@@ 185
Sab@@ 185
aft 185
album 185
book 185
bot 185
bridge 185
olo@@ 185
round 185
รรม 185
武@@ 185
Arm@@ 184
Radi@@ 184
ett 184
fil@@ 184
lit@@ 184
ols 184
oni 184
ots 184
site 184
trop@@ 184
ア@@ 184
元@@ 184
Die 183
Real 183
Tem@@ 183
amo@@ 183
isa 183
ony@@ 183
polit@@ 183
แ 183
Bay@@ 182
John@@ 182
azz 182
ident 182
ities 182
med@@ 182
vers 182
zen 182
‘@@ 182
Dan@@ 181
Hill 181
atin 181
bers 181
bon@@ 181
sin 181
single 181
top@@ 181
tric@@ 181
uel 181
Bil@@ 180
Nam@@ 180
Tom 180
don@@ 180
les@@ 180
mati@@ 180
produc@@ 180
°@@ 180
Gor@@ 179
Indi@@ 179
Rod@@ 179
Sat@@ 179
ager 179
atis@@ 179
bo 179
itation 179
sing 179
yi 179
Ki@@ 178
ando 178
into 178
lag 178
mut@@ 178
ords 178
神@@ 178
Arthur 177
Bos@@ 177
Cou@@ 177
Gran@@ 177
Hab@@ 177
Indian 177
Jor@@ 177
Lam@@ 177
Sir 177
Tu@@ 177
bus@@ 177
case 177
ela 177
spe@@ 177
burg 176
gir@@ 176
match 176
nov@@ 176
oli 176
osh@@ 176
な@@ 176
海@@ 176
Jones 175
Mont@@ 175
Person@@ 175
Scot@@ 175
aire 175
iss 175
ker@@ 175
position 175
water 175
ภาพยนต@@ 175
金@@ 175
Don@@ 174
Eliz@@ 174
German 174
Gil@@ 174
Red@@ 174
Syst@@ 174
Var@@ 174
Wit@@ 174
ador 174
ald 174
bar 174
iri 174
ku 174
like 174
take 174
ダ@@ 174
平@@ 174
French 173
Mik@@ 173
af 173
ais 173
come 173
lus@@ 173
ois 173
org@@ 173
ទ@@ 173
Bay 172
Rev@@ 172
aba 172
ert 172
ges 172
mond 172
nom@@ 172
span 172
Hug@@ 171
Kenn@@ 171
abil@@ 171
idea 171
var 171
ven 171
video 171
zone 171
‎ 171
May 170
VI 170
andi@@ 170
rev@@ 170
sea 170
termin@@ 170
α@@ 170
−@@ 170
Ben 169
agon@@ 169
anz@@ 169
inus 169
national 169
second 169
semb@@ 169
which 169
新@@ 169
After 168
Sand@@ 168
egr@@ 168
eria 168
has@@ 168
power 168
}@@ 168
ñ 168
，@@ 168
How@@ 167
Lar@@ 167
ben@@ 167
ew@@ 167
media 167
mir@@ 167
uk 167
vin@@ 167
where 167
ø 167
カ@@ 167
COVI@@ 166
Joe 166
Vel@@ 166
abri@@ 166
aun@@ 166
ected 166
house 166
oi 166
trav@@ 166
朝@@ 166
Moh@@ 165
Santa 165
Sul@@ 165
direc@@ 165
ington 165
mes@@ 165
over@@ 165
sequ@@ 165
ser 165
tre 165
Rich@@ 164
cos@@ 164
ester 164
sk 164
then 164
明@@ 164
西@@ 164
Bon@@ 163
Tou@@ 163
aud@@ 163
fas@@ 163
ij@@ 163
pas@@ 163
pes 163
tas@@ 163
ī@@ 163
Ari@@ 162
Dur@@ 162
Joh@@ 162
estra 162
ev 162
jo@@ 162
syst@@ 162
trol@@ 162
were 162
Ay@@ 161
Hit@@ 161
Math@@ 161
any 161
dist@@ 161
fic@@ 161
play@@ 161
pri@@ 161
ْ@@ 161
一@@ 161
安@@ 161
Buc@@ 160
March 160
Mun@@ 160
conn@@ 160
cons@@ 160
lot 160
major 160
people 160
plac@@ 160
ston 160
ã 160
Disney 159
Les@@ 159
Marie 159
Rum@@ 159
Town 159
asa 159
gether 159
mov@@ 159
zi 159
Fol@@ 158
Her 158
Mes@@ 158
ills 158
ished 158
olas 158
peti@@ 158
tal 158
ustri@@ 158
マ@@ 158
Daniel 157
Ern@@ 157
His 157
Ker@@ 157
Pon@@ 157
West@@ 157
eau 157
hip 157
ista 157
rock 157
sour@@ 157
track 157
ules 157
វ@@ 157
ん@@ 157
江@@ 157
高@@ 157
Columb@@ 156
Frank 156
Karl 156
Kas@@ 156
alia 156
fle@@ 156
kg 156
orum 156
sci@@ 156
sis 156
war 156
ド@@ 156
@ 155
Bol@@ 155
Les 155
Oli@@ 155
Whit@@ 155
ece 155
lines 155
mad 155
many 155
pap@@ 155
viv@@ 155
± 155
か@@ 155
ジ@@ 155
学@@ 155
이@@ 155
GC 154
Gra@@ 154
Maz@@ 154
ades 154
iko 154
ishing 154
sexu@@ 154
レ@@ 154
城@@ 154
州@@ 154
Leon@@ 153
ag 153
ander@@ 153
ges@@ 153
ju@@ 153
kat@@ 153
mes 153
sit@@ 153
speci@@ 153
ingu@@ 152
og 152
Beg@@ 151
Vit@@ 151
alt@@ 151
board 151
ks@@ 151
san@@ 151
stat@@ 151
 @@ 151
‎@@ 151
′ 151
Angeles 150
Rail@@ 150
cial 150
ometr@@ 150
positi@@ 150
Pierre 149
VII 149
ordin@@ 149
tha 149
under 149
uss@@ 149
wil@@ 149
ក@@ 149
之@@ 149
Am 148
FIFA 148
Kit@@ 148
adap@@ 148
aja 148
combin@@ 148
eing 148
ele 148
hiz@@ 148
lic@@ 148
stud@@ 148
vid@@ 148
Ali 147
Jam@@ 147
Mass@@ 147
Rou@@ 147
mach@@ 147
otte 147
plan@@ 147
rey 147
uma 147
By 146
Lon@@ 146
Stre@@ 146
but 146
conver@@ 146
ional 146
ob 146
oug@@ 146
ui 146
μ 146
ာ@@ 146
☆ 146
し@@ 146
Lat@@ 145
Ok@@ 145
Seg@@ 145
bury 145
cou@@ 145
doc@@ 145
family 145
ize 145
onder@@ 145
opp@@ 145
spir@@ 145
through 145
ular@@ 145
Name 144
adr@@ 144
bs 144
cli@@ 144
ho 144
iki@@ 144
nes 144
oks 144
oria 144
sam@@ 144
social 144
オ@@ 144
道@@ 144
aha 143
ains 143
ands 143
aster@@ 143
centr@@ 143
eller 143
hel@@ 143
mo 143
oy 143
usa 143
zu 143
ə 143
π@@ 143
ロ@@ 143
AG 142
African 142
Hung@@ 142
Sher@@ 142
ble@@ 142
dra@@ 142
eu@@ 142
je@@ 142
mos@@ 142
organ@@ 142
polis 142
ses 142
test@@ 142
unds 142
ł 142
ウ@@ 142
漢@@ 142
Aug@@ 141
Cab@@ 141
Chicago 141
aro 141
asc@@ 141
kel@@ 141
wa@@ 141
地@@ 141
Hand@@ 140
Ing@@ 140
Kaz@@ 140
Maur@@ 140
Washington 140
aqu@@ 140
bu 140
fal@@ 140
ific@@ 140
nia 140
pain@@ 140
two 140
ត@@ 140
ャ@@ 140
Has@@ 139
Hil@@ 139
Nat@@ 139
Tam@@ 139
Van 139
XX@@ 139
bi 139
dol@@ 139
eck@@ 139
ird 139
isch@@ 139
nati@@ 139
pic@@ 139
rain 139
ǎ 139
　@@ 139
Albert 138
Din@@ 138
Mill@@ 138
Provin@@ 138
She 138
cho 138
cri@@ 138
his 138
level 138
tu 138
東@@ 138
Pil@@ 137
abor@@ 137
bin 137
but@@ 137
ift 137
imi 137
min 137
onald 137
tak@@ 137
tica 137
wn@@ 137
ِ@@ 137
劉@@ 137
왕@@ 137
Sig@@ 136
flo@@ 136
football 136
uh@@ 136
vec@@ 136
မ@@ 136
バ@@ 136
北@@ 136
Barr@@ 135
Eg@@ 135
Hat@@ 135
Wa@@ 135
eki 135
endo 135
ete 135
gi 135
han 135
reduc@@ 135
school 135
sions 135
uld 135
vas@@ 135
works 135
Gold@@ 134
Jack@@ 134
Wan@@ 134
ause 134
cm 134
sac@@ 134
wing 134
ò 134
Beh@@ 133
Shu@@ 133
Si 133
Western 133
aborat@@ 133
ache 133
cast 133
craft 133
ido 133
part 133
progr@@ 133
proj@@ 133
sup@@ 133
urn@@ 133
ο@@ 133
ฝ 133
agu@@ 132
ante 132
eas@@ 132
ember 132
gio 132
gs 132
hil 132
ion@@ 132
person@@ 132
species 132
sta 132
tag@@ 132
「@@ 132
軍@@ 132
Carol@@ 131
Thi@@ 131
ending 131
mit 131
ographi@@ 131
wel@@ 131
グ@@ 131
家@@ 131
Gas@@ 130
anim@@ 130
arc@@ 130
ett@@ 130
itu@@ 130
present@@ 130
syl@@ 130
zy@@ 130
ˈ 130
ເ@@ 130
女@@ 130
archit@@ 129
avi@@ 129
lad@@ 129
obj@@ 129
parti@@ 129
sist@@ 129
tam@@ 129
vo 129
who 129
ガ@@ 129
世@@ 129
Milit@@ 128
aus 128
cro@@ 128
da@@ 128
dens@@ 128
esh@@ 128
lor 128
nis 128
show 128
town 128
た@@ 128
タ@@ 128
光@@ 128
Africa 127
Form@@ 127
Tex@@ 127
Tod@@ 127
amen 127
car 127
kan@@ 127
lers 127
nit@@ 127
olf 127
≤ 127
대@@ 127
Carl 126
He 126
Ken@@ 126
Kom@@ 126
Lag@@ 126
aves 126
bes 126
chr@@ 126
ements 126
has 126
nam 126
orient@@ 126
sed 126
ǐ 126
ฃ 126
ฦ@@ 126
ົ@@ 126
At 125
Pom@@ 125
Stan@@ 125
Vill@@ 125
adi 125
alli@@ 125
aut@@ 125
bran@@ 125
ligh@@ 125
戦@@ 125
----@@ 124
Australian 124
Da 124
Deb@@ 124
Mut@@ 124
abr@@ 124
also 124
high@@ 124
imb@@ 124
inv@@ 124
rup@@ 124
tun@@ 124
宋@@ 124
Clau@@ 123
Nu@@ 123
Tay@@ 123
anne 123
arti@@ 123
aza 123
ition 123
main 123
ples 123
@@ 123
city 122
dit 122
igu@@ 122
ingen 122
nec@@ 122
pi 122
pil@@ 122
rem@@ 122
stor@@ 122
year 122
る@@ 122
小@@ 122
Australia 121
Bill@@ 121
Nati@@ 121
Nob@@ 121
Premi@@ 121
Simon 121
atri@@ 121
chen 121
hur@@ 121
ili 121
integr@@ 121
kno@@ 121
quar@@ 121
titu@@ 121
tos 121
zh 121
້@@ 121
う@@ 121
Bau@@ 120
Centr@@ 120
Florida 120
Jos@@ 120
There 120
alog@@ 120
ann 120
base 120
bun@@ 120
ging 120
hist@@ 120
mar 120
ogen 120
sm@@ 120
tour@@ 120
不@@ 120
Id@@ 119
Pau@@ 119
They 119
anci@@ 119
ego 119
last 119
lev@@ 119
respon@@ 119
tran@@ 119
ć 119
€ 119
上@@ 119
河@@ 119
白@@ 119
Anne 118
Walter 118
agen 118
central 118
ches 118
hat@@ 118
prob@@ 118
uno 118
เวณ 118
ニ@@ 118
生@@ 118
Alexand@@ 117
Domin@@ 117
alls 117
ca@@ 117
camp@@ 117
differ@@ 117
educ@@ 117
eur@@ 117
jam@@ 117
mir 117
nd@@ 117
see 117
unter@@ 117
ฃ@@ 117
馬@@ 117
Bun@@ 116
Williams 116
ape 116
je 116
most 116
สโม@@ 116
อัลบ@@ 116
ប@@ 116
京@@ 116
Arab@@ 115
Canada 115
Europe 115
Jes@@ 115
Reich@@ 115
bau@@ 115
date 115
gar 115
ican 115
ils 115
pon@@ 115
que@@ 115
sep@@ 115
ı 115
に@@ 115
Dal@@ 114
Ferr@@ 114
Greg@@ 114
Pad@@ 114
aland 114
aul@@ 114
commun@@ 114
conduc@@ 114
contin@@ 114
eron 114
fir@@ 114
ful@@ 114
gres@@ 114
hon@@ 114
jug@@ 114
shire 114
β@@ 114
อังก@@ 114
Amer@@ 113
Johann 113
Texas 113
abl@@ 113
aine 113
aller 113
din 113
ement@@ 113
gan 113
ige 113
jus@@ 113
ley@@ 113
mak@@ 113
sort 113
uo 113
་@@ 113
本@@ 113
華@@ 113
Sant@@ 112
eine 112
eye 112
kan 112
kil@@ 112
lah 112
lav@@ 112
ned 112
sar@@ 112
service 112
yon 112
ß 112
フ@@ 112
的@@ 112
Ander@@ 111
Antonio 111
Lud@@ 111
Thom@@ 111
culture 111
kal@@ 111
long 111
yd@@ 111
ภอ 111
ນ@@ 111
德@@ 111
Deutsch@@ 110
aca 110
ask@@ 110
cit@@ 110
det@@ 110
dru@@ 110
esa 110
foot@@ 110
led 110
ras@@ 110
rece@@ 110
tan 110
web 110
wen@@ 110
と@@ 110
Academ@@ 109
Inn@@ 109
Jose@@ 109
icia 109
ken@@ 109
mus 109
ova 109
than 109
uli 109
vin 109
θ@@ 109
ຈ@@ 109
り@@ 109
仁@@ 109
Franz 108
Ges@@ 108
acter@@ 108
chen@@ 108
each 108
force 108
lit 108
neu@@ 108
ought 108
raine 108
used 108
voc@@ 108
vor 108
デ@@ 108
田@@ 108
長@@ 108
Alfre@@ 107
Bah@@ 107
NBA 107
Son 107
bos@@ 107
ched 107
ig 107
loy@@ 107
nav@@ 107
nh 107
ologi@@ 107
park 107
res 107
star@@ 107
キ@@ 107
Bad@@ 106
Victoria 106
aux 106
dies 106
energ@@ 106
eur 106
fe 106
iden 106
local 106
odes 106
ปุ่น 106
ງ@@ 106
ុ@@ 106
福@@ 106
Prix 105
adu@@ 105
ardo 105
between 105
das 105
diff@@ 105
elt 105
enberg 105
epis@@ 105
fore 105
fur@@ 105
run@@ 105
urg 105
uru 105
モ@@ 105
和@@ 105
陽@@ 105
Anna 104
Flor@@ 104
Milli@@ 104
actor 104
appro@@ 104
boy@@ 104
cut 104
ext@@ 104
feder@@ 104
general 104
hat 104
nas@@ 104
optera 104
trong 104
ù 104
င@@ 104
Atlan@@ 103
Lan@@ 103
President 103
Sah@@ 103
bec@@ 103
bol@@ 103
brach@@ 103
cio 103
dar@@ 103
represent@@ 103
while 103
zer 103
Francisco 102
Hav@@ 102
dre@@ 102
fel@@ 102
hand@@ 102
high 102
mess@@ 102
Đ@@ 102
張@@ 102
Profes@@ 101
Rud@@ 101
Tol@@ 101
ango 101
anta 101
born 101
ck@@ 101
eds 101
essor 101
oko 101
resp@@ 101
rier 101
scor@@ 101
var@@ 101
ن@@ 101
ه@@ 101
ễ 101
年@@ 101
Abr@@ 100
Constitu@@ 100
Institu@@ 100
Ny@@ 100
Tab@@ 100
Um@@ 100
aut 100
ente 100
gu 100
igan 100
iment 100
live 100
los 100
ough@@ 100
period 100
sburg 100
spr@@ 100
there 100
Ö 100
å 100
ィ@@ 100
司@@ 100
Blan@@ 99
Hans 99
Kun@@ 99
Professor 99
aco 99
ats@@ 99
clus@@ 99
ices 99
imin@@ 99
oti@@ 99
uta 99
vil@@ 99
ya@@ 99
yer 99
ေ@@ 99
ិ@@ 99
。@@ 99
く@@ 99
ム@@ 99
法@@ 99
花@@ 99
Sz@@ 98
alian 98
ana@@ 98
artic@@ 98
away 98
benz@@ 98
ded 98
dur@@ 98
exp@@ 98
grav@@ 98
part@@ 98
ques 98
road 98
stant@@ 98
tari@@ 98
ths 98
van@@ 98
Dam@@ 97
Roy@@ 97
abe 97
ayo 97
cam@@ 97
enne 97
enta 97
fem@@ 97
hard 97
mad@@ 97
onal@@ 97
stati@@ 97
sun@@ 97
ult@@ 97
unda 97
ë 97
ū@@ 97
យ@@ 97
ら@@ 97
サ@@ 97
君@@ 97
四@@ 97
Alex@@ 96
Vil@@ 96
bour@@ 96
course 96
ento 96
fon@@ 96
heim 96
indi@@ 96
poli@@ 96
refer@@ 96
wak@@ 96
á@@ 96
ă 96
五@@ 96
宮@@ 96
院@@ 96
Brand@@ 95
Emp@@ 95
Fir@@ 95
Philipp@@ 95
chester 95
cription 95
ectiv@@ 95
engine 95
ief 95
ily 95
istan 95
modi@@ 95
seg@@ 95
tit@@ 95
成@@ 95
Ant@@ 94
Lib@@ 94
Was@@ 94
ances 94
ayan 94
bia 94
head@@ 94
iga 94
isi 94
langu@@ 94
place 94
rat 94
season 94
three 94
tot@@ 94
won 94
wr@@ 94
อำเ@@ 94
ង@@ 94
《@@ 94
コ@@ 94
テ@@ 94
정@@ 94
Form 93
Rad@@ 93
Vik@@ 93
allas 93
angel@@ 93
asp@@ 93
berto 93
imp@@ 93
vie@@ 93
č 93
ě 93
َ 93
ナ@@ 93
パ@@ 93
方@@ 93
Kab@@ 92
Rein@@ 92
Rep@@ 92
Say@@ 92
asi 92
cia 92
etes 92
expres@@ 92
ilk 92
limit@@ 92
liv@@ 92
oka 92
ses@@ 92
wig 92
ိ@@ 92
十@@ 92
真@@ 92
Hin@@ 91
Kim@@ 91
Tenn@@ 91
UEFA 91
Yor@@ 91
alo 91
amer@@ 91
auto@@ 91
cole 91
dev@@ 91
ells 91
ender 91
eros 91
him@@ 91
imo 91
oro 91
program 91
urg@@ 91
士@@ 91
市@@ 91
水@@ 91
Fam@@ 90
Sau@@ 90
Span@@ 90
design 90
dis 90
ended 90
gun 90
isation 90
iter 90
tific@@ 90
ved 90
vi 90
း@@ 90
主@@ 90
寺@@ 90
川@@ 90
春@@ 90
民@@ 90
August 89
Way@@ 89
Wilhelm 89
auth@@ 89
carri@@ 89
cum@@ 89
dal@@ 89
fort 89
inst@@ 89
iti 89
lan 89
metal 89
new@@ 89
pun@@ 89
transfer@@ 89
ving 89
×@@ 89
त@@ 89
エ@@ 89
夜@@ 89
@@ 89
Hist@@ 88
Penn@@ 88
aa 88
ator@@ 88
eleg@@ 88
iliz@@ 88
indic@@ 88
ique 88
lim 88
ram@@ 88
sch 88
tab@@ 88
tains 88
ព@@ 88
័@@ 88
林@@ 88
Ein@@ 87
Hak@@ 87
Wes@@ 87
asti@@ 87
dat@@ 87
ej@@ 87
ered 87
etti 87
kor@@ 87
ments 87
na@@ 87
och 87
race 87
rie 87
sons 87
tif@@ 87
tribu@@ 87
tt@@ 87
vit@@ 87
θ 87
م@@ 87
र@@ 87
√ 87
」 87
は@@ 87
メ@@ 87
月@@ 87
美@@ 87
Gran 86
Indonesia 86
Juan 86
Premier 86
ample 86
ativ@@ 86
ave@@ 86
cla@@ 86
deg@@ 86
esh 86
mur@@ 86
ograph@@ 86
princip@@ 86
small 86
sou@@ 86
strum@@ 86
tera 86
tier 86
{@@ 86
Bou@@ 85
Kap@@ 85
Muh@@ 85
dam@@ 85
eli 85
elo 85
esta 85
han@@ 85
idence 85
irat@@ 85
partic@@ 85
pass@@ 85
ر@@ 85
ជ@@ 85
が@@ 85
ま@@ 85
八@@ 85
正@@ 85
Berlin 84
Kol@@ 84
Liter@@ 84
charac@@ 84
classi@@ 84
eva 84
four 84
ible 84
lies 84
pose 84
prov@@ 84
suff@@ 84
tent 84
ud 84
via 84
ǔ 84
φ@@ 84
原@@ 84
少@@ 84
時@@ 84
趙@@ 84
Esp@@ 83
Il 83
Pier@@ 83
Yah@@ 83
ague 83
death 83
eti 83
exper@@ 83
gian 83
kam@@ 83
km 83
liz@@ 83
ograp@@ 83
® 83
ו@@ 83
　 83
お@@ 83
BK 82
Fern@@ 82
aissance 82
bom@@ 82
fall@@ 82
fran@@ 82
joint 82
made 82
mix@@ 82
ool 82
techni@@ 82
tradi@@ 82
← 82
み@@ 82
忠@@ 82
～@@ 82
Bed@@ 81
associ@@ 81
aver@@ 81
clo@@ 81
esse 81
event@@ 81
far@@ 81
ien 81
using 81
yal@@ 81
ï 81
Δ 81
周@@ 81
後@@ 81
氏@@ 81
清@@ 81
秦@@ 81
#@@ 80
April 80
NGC 80
Olymp@@ 80
Region 80
best 80
class@@ 80
hap@@ 80
inning 80
med 80
nik 80
ording 80
ores 80
pia 80
professi@@ 80
real 80
ု@@ 80
代@@ 80
Henri 79
Kos@@ 79
dam 79
eni 79
fes@@ 79
gel@@ 79
gli@@ 79
him 79
inin 79
isis 79
natural 79
ono 79
organiz@@ 79
plus 79
·@@ 79
Á 79
γ 79
μ@@ 79
ُ@@ 79
さ@@ 79
会@@ 79
有@@ 79
Bib@@ 78
June 78
Wer@@ 78
\@@ 78
about 78
curr@@ 78
div@@ 78
els@@ 78
kel 78
make 78
uka 78
µ 78
í@@ 78
δ@@ 78
も@@ 78
ブ@@ 78
我@@ 78
陳@@ 78
龍@@ 78
Augus@@ 77
Canadi@@ 77
Der 77
Ireland 77
Jacques 77
Kle@@ 77
aug@@ 77
aye 77
dul@@ 77
econom@@ 77
fun@@ 77
ime@@ 77
ling@@ 77
mand@@ 77
production 77
sociation 77
tend@@ 77
toral 77
ος 77
π 77
ل@@ 77
म@@ 77
星@@ 77
義@@ 77
門@@ 77
Boston 76
Friedrich 76
Gru@@ 76
Kil@@ 76
aro@@ 76
continu@@ 76
domin@@ 76
igo 76
kon@@ 76
liber@@ 76
prec@@ 76
some 76
tou@@ 76
vot@@ 76
ó@@ 76
ກ@@ 76
き@@ 76
下@@ 76
無@@ 76
青@@ 76
Kamp@@ 75
Kl@@ 75
Mai 75
Portu@@ 75
Wir@@ 75
aces 75
ares 75
aron 75
bol 75
concep@@ 75
eder@@ 75
eno 75
isha 75
known 75
law@@ 75
lu 75
open@@ 75
ues 75
when 75
ð 75
ω@@ 75
י@@ 75
  75
心@@ 75
都@@ 75
音@@ 75
黃@@ 75
Carlos 74
Sek@@ 74
annes 74
bach 74
company 74
development 74
ised 74
kn@@ 74
mont 74
player 74
pris@@ 74
σ@@ 74
ະ@@ 74
》 74
れ@@ 74
チ@@ 74
ュ@@ 74
～ 74
Alg@@ 73
Arg@@ 73
Haz@@ 73
Viet@@ 73
ables 73
aise 73
apon 73
concer@@ 73
edo 73
endi@@ 73
enh@@ 73
gan@@ 73
gol@@ 73
igh 73
nat@@ 73
non 73
phil@@ 73
points 73
priv@@ 73
prof@@ 73
red@@ 73
resul@@ 73
rich 73
rou@@ 73
san 73
sat@@ 73
sus@@ 73
visi@@ 73
Р@@ 73
あ@@ 73
つ@@ 73
を@@ 73
唐@@ 73
校@@ 73
行@@ 73
Christi@@ 72
Kais@@ 72
Neu@@ 72
Seb@@ 72
Stra@@ 72
Virginia 72
ander 72
athol@@ 72
being 72
chia 72
condi@@ 72
dial 72
ei@@ 72
election 72
enter 72
ern 72
eu 72
foc@@ 72
ict 72
inger@@ 72
iz 72
oir 72
ppe 72
tar 72
tish 72
traf@@ 72
union 72
½ 72
î 72
ν@@ 72
ب@@ 72
คัญ 72
김@@ 72
December 71
Kid@@ 71
October 71
adem@@ 71
apa 71
been 71
cus@@ 71
event 71
grou@@ 71
ias 71
ingo 71
lec@@ 71
libr@@ 71
lov@@ 71
num@@ 71
ulu 71
uses 71
ì@@ 71
ရ@@ 71
ី 71
ズ@@ 71
Bask@@ 70
alt 70
atia 70
bis@@ 70
clim@@ 70
eda 70
edi 70
enes 70
father 70
inga 70
initi@@ 70
itt 70
kom@@ 70
maj@@ 70
nak@@ 70
olo 70
omin@@ 70
post 70
regi@@ 70
temper@@ 70
tiz@@ 70
writ@@ 70
ə@@ 70
ε@@ 70
တ@@ 70
。 70
ョ@@ 70
字@@ 70
祖@@ 70
魔@@ 70
Las 69
bak@@ 69
cer 69
compl@@ 69
cos 69
cover@@ 69
dings 69
district 69
five 69
get@@ 69
ises 69
ismo 69
map@@ 69
nen 69
pos 69
tec@@ 69
ween 69
years 69
ē@@ 69
ư@@ 69
ː 69
인@@ 69
Ere@@ 68
Es 68
Kad@@ 68
atives 68
cher@@ 68
distribu@@ 68
ehr@@ 68
esi 68
fast 68
gin@@ 68
history 68
lik@@ 68
liter@@ 68
west 68
ơ 68
р@@ 68
ة@@ 68
ມ@@ 68
ວ@@ 68
ອ@@ 68
† 68
⊕ 68
」@@ 68
史@@ 68
孝@@ 68
阮@@ 68
Anton@@ 67
Chic@@ 67
Ni 67
Wak@@ 67
ako 67
bind@@ 67
country 67
ener@@ 67
final 67
gang 67
imi@@ 67
information 67
lich@@ 67
techn@@ 67
tly 67
vier 67
ɪ 67
γ@@ 67
न@@ 67
န@@ 67
ノ@@ 67
治@@ 67
군@@ 67
Andr@@ 66
September 66
Volks@@ 66
acu@@ 66
eon@@ 66
esses 66
following 66
geb@@ 66
ht 66
kul@@ 66
political 66
public@@ 66
stan@@ 66
stell@@ 66
tries 66
was@@ 66
yat@@ 66
क@@ 66
へ@@ 66
九@@ 66
二@@ 66
古@@ 66
朱@@ 66
Ital@@ 65
July 65
Ober@@ 65
aud 65
ball@@ 65
enci@@ 65
illo 65
jum@@ 65
sang 65
sei 65
wes@@ 65
÷ 65
ć@@ 65
ع@@ 65
ي@@ 65
ី@@ 65
េ@@ 65
書@@ 65
藏@@ 65
重@@ 65
（ 65
Sult@@ 64
These 64
cru@@ 64
defin@@ 64
dem 64
enburg 64
erie 64
full 64
ically 64
iter@@ 64
mig@@ 64
nos 64
publ@@ 64
tras@@ 64
ສ@@ 64
  64
プ@@ 64
昌@@ 64
空@@ 64
사@@ 64
원@@ 64
Braz@@ 63
aji 63
alan@@ 63
court 63
eb 63
fici@@ 63
iker 63
isp@@ 63
lag@@ 63
nationale 63
offici@@ 63
once 63
onne 63
rid 63
rif@@ 63
ris@@ 63
she 63
sil 63
ste 63
Ō 63
ال@@ 63
ฅ 63
ザ@@ 63
セ@@ 63
侯@@ 63
最@@ 63
縣@@ 63
藤@@ 63
조@@ 63
Ng@@ 62
Rah@@ 62
Yun@@ 62
after 62
apar@@ 62
eto 62
front 62
lier 62
mah@@ 62
may@@ 62
ort@@ 62
rod@@ 62
tes@@ 62
ui@@ 62
uni 62
vor@@ 62
wi 62
à@@ 62
ː@@ 62
ר@@ 62
ល@@ 62
ハ@@ 62
情@@ 62
昭@@ 62
經@@ 62
英@@ 62
風@@ 62
Frank@@ 61
Wag@@ 61
Willi@@ 61
adel@@ 61
agne 61
anti 61
bis 61
cour@@ 61
dil@@ 61
distr@@ 61
eil 61
estig@@ 61
fall 61
fund@@ 61
international 61
strat@@ 61
trag@@ 61
û 61
ý 61
ž 61
ັ@@ 61
က@@ 61
こ@@ 61
ち@@ 61
て@@ 61
ビ@@ 61
康@@ 61
愛@@ 61
梁@@ 61
章@@ 61
親@@ 61
越@@ 61
성@@ 61
아@@ 61
bab@@ 60
chang@@ 60
division 60
fan@@ 60
forc@@ 60
illed 60
ip 60
lang 60
lead@@ 60
mom@@ 60
onz@@ 60
ouv@@ 60
suc@@ 60
tut@@ 60
verl@@ 60
with@@ 60
ś 60
ق@@ 60
‌@@ 60
え@@ 60
っ@@ 60
ー 60
信@@ 60
如@@ 60
妃@@ 60
赤@@ 60
魏@@ 60
한@@ 60
Baz@@ 59
Cant@@ 59
Lis@@ 59
Manuel 59
Schwar@@ 59
Sport@@ 59
ainst 59
anni@@ 59
avi 59
club 59
eca 59
ener 59
fen@@ 59
hara 59
hid@@ 59
inclu@@ 59
jur@@ 59
kir@@ 59
kw@@ 59
lon@@ 59
main@@ 59
onto 59
ran 59
soft 59
tique 59
what 59
ú@@ 59
ş 59
λ@@ 59
א@@ 59
و@@ 59
स@@ 59
ạ 59
ミ@@ 59
將@@ 59
政@@ 59
永@@ 59
玉@@ 59
陵@@ 59
경@@ 59
신@@ 59
Con 58
Gaz@@ 58
Grande 58
KK 58
Ou@@ 58
Tang@@ 58
alan 58
amba 58
ames 58
bli@@ 58
chu@@ 58
church 58
elen 58
enant 58
hin 58
igi@@ 58
iles 58
independ@@ 58
ires 58
large 58
moder@@ 58
nes@@ 58
prom@@ 58
sak@@ 58
tru@@ 58
uer@@ 58
yak@@ 58
« 58
Š 58
ɪ@@ 58
́@@ 58
ό@@ 58
َّ@@ 58
ა@@ 58
ゴ@@ 58
園@@ 58
界@@ 58
野@@ 58
Leb@@ 57
ained 57
amo 57
both 57
conf@@ 57
eas 57
edit@@ 57
etts 57
kle@@ 57
kur@@ 57
ovi@@ 57
qua 57
retr@@ 57
saf@@ 57
tah@@ 57
tie 57
tour 57
universit@@ 57
uz 57
without 57
А@@ 57
ລ@@ 57
•@@ 57
事@@ 57
石@@ 57
黄@@ 57
Historia 56
Mei 56
Papa 56
Yar@@ 56
cad@@ 56
capac@@ 56
early 56
fam@@ 56
featur@@ 56
govern@@ 56
ided 56
idi 56
late 56
modern 56
original 56
perten@@ 56
xe 56
yok@@ 56
य@@ 56
သ@@ 56
動@@ 56
千@@ 56
定@@ 56
島@@ 56
機@@ 56
省@@ 56
者@@ 56
通@@ 56
Gel@@ 55
Meh@@ 55
Pak@@ 55
Zi@@ 55
amu 55
autom@@ 55
cht 55
dir 55
etz@@ 55
home 55
ife 55
lug@@ 55
met 55
mine 55
office 55
uss 55
vania 55
ő 55
С@@ 55
ດ@@ 55
គ@@ 55
よ@@ 55
ン 55
娘@@ 55
￼@@ 55
Kre@@ 54
Ohio 54
Parti@@ 54
band@@ 54
cian 54
exten@@ 54
iler 54
inn 54
isch 54
loss 54
may 54
mis 54
onship 54
propri@@ 54
ques@@ 54
sav@@ 54
sir@@ 54
times 54
title 54
total 54
uba 54
ungs@@ 54
ustr@@ 54
wards 54
yal 54
§ 54
ל@@ 54
ِ 54
ی@@ 54
ພ@@ 54
™ 54
ギ@@ 54
化@@ 54
族@@ 54
物@@ 54
秋@@ 54
羅@@ 54
見@@ 54
記@@ 54
郎@@ 54
面@@ 54
나@@ 54
자@@ 54
201@@ 53
Ba 53
against 53
bay 53
before 53
cent@@ 53
const@@ 53
einer 53
enf@@ 53
erc@@ 53
government 53
half 53
haus@@ 53
ierra 53
inda 53
ischer 53
plant@@ 53
rant 53
short 53
tir@@ 53
vern@@ 53
xa 53
²@@ 53
ŋ@@ 53
ί@@ 53
К@@ 53
დ@@ 53
რ@@ 53
≈ 53
♥ 53
夏@@ 53
式@@ 53
景@@ 53
楊@@ 53
良@@ 53
部@@ 53
리@@ 53
의@@ 53
Bundes@@ 52
Fried@@ 52
Kem@@ 52
Kus@@ 52
Nord@@ 52
Sin 52
antes 52
azi 52
building 52
children 52
community 52
hen 52
irs 52
kab@@ 52
lement 52
mt@@ 52
nation@@ 52
ongo 52
possible 52
quot@@ 52
recog@@ 52
tribut@@ 52
univers@@ 52
ệ 52
ん 52
孫@@ 52
慶@@ 52
會@@ 52
洪@@ 52
秀@@ 52
電@@ 52
수@@ 52
종@@ 52
190@@ 51
Dani@@ 51
Mexico 51
Ped@@ 51
Sa 51
anza 51
bish@@ 51
chn@@ 51
dez 51
esch@@ 51
ests 51
eux 51
fo 51
fu 51
gul@@ 51
ism@@ 51
ogo 51
pay@@ 51
qu 51
run 51
tay@@ 51
thi 51
trad@@ 51
š@@ 51
מ@@ 51
ຄ@@ 51
七@@ 51
东@@ 51
全@@ 51
区@@ 51
台@@ 51
建@@ 51
 51
^@@ 50
absol@@ 50
aller@@ 50
alter@@ 50
ased 50
auer 50
beau@@ 50
dan@@ 50
during 50
eg 50
eler 50
four@@ 50
gal 50
haz@@ 50
hie 50
iev@@ 50
ische 50
japon@@ 50
members 50
milli@@ 50
nea 50
ockey 50
pad@@ 50
propor@@ 50
sol 50
third 50
uj@@ 50
uro 50
ש@@ 50
អ@@ 50
› 50
御@@ 50
思@@ 50
惠@@ 50
松@@ 50
語@@ 50
Lig@@ 49
Luis 49
Mex@@ 49
aber 49
alla 49
bed 49
due 49
embr@@ 49
kia 49
list@@ 49
pour 49
senti@@ 49
tn@@ 49
uu 49
» 49
κ@@ 49
ν 49
ฝรั่ง@@ 49
စ@@ 49
ṭ 49
†@@ 49
仙@@ 49
何@@ 49
聖@@ 49
順@@ 49
구@@ 49
장@@ 49
지@@ 49
후@@ 49
Arth@@ 48
Bes@@ 48
Carr@@ 48
Jersey 48
Stein@@ 48
ede 48
inten@@ 48
jer@@ 48
leng@@ 48
party 48
philos@@ 48
studi@@ 48
ان@@ 48
ຣ@@ 48
ả 48
同@@ 48
宣@@ 48
怪@@ 48
木@@ 48
源@@ 48
火@@ 48
黒@@ 48
공@@ 48
주@@ 48
Hau@@ 47
Histori@@ 47
Illinois 47
Nam 47
Un 47
ael 47
buil@@ 47
cil 47
compos@@ 47
cost@@ 47
culp@@ 47
determin@@ 47
ehr 47
erk@@ 47
este 47
fi 47
formed 47
gem@@ 47
isto 47
lang@@ 47
lich 47
obr@@ 47
observ@@ 47
relati@@ 47
tad@@ 47
unga 47
versit@@ 47
χ@@ 47
ה@@ 47
ຊ@@ 47
利@@ 47
名@@ 47
奇@@ 47
師@@ 47
慈@@ 47
自@@ 47
Barcelona 46
Berg@@ 46
Gem@@ 46
Heinrich 46
Nacional 46
November 46
Vor@@ 46
Yes@@ 46
amar@@ 46
bay@@ 46
complet@@ 46
different 46
dos 46
experi@@ 46
fut@@ 46
inform@@ 46
instrum@@ 46
quali@@ 46
radio 46
sible 46
television 46
typ@@ 46
zu@@ 46
λ 46
τ@@ 46
व@@ 46
ທ@@ 46
ァ@@ 46
夫@@ 46
府@@ 46
廣@@ 46
戰@@ 46
曹@@ 46
楚@@ 46
汉@@ 46
泰@@ 46
立@@ 46
香@@ 46
국@@ 46
서@@ 46
씨@@ 46
；@@ 46
･@@ 46
$@@ 45
Cum@@ 45
Dok@@ 45
UE@@ 45
administr@@ 45
again 45
alit@@ 45
alle@@ 45
around 45
ater@@ 45
bes@@ 45
called 45
capital 45
conv@@ 45
envir@@ 45
figur@@ 45
hak@@ 45
iff 45
ilo 45
influ@@ 45
isl@@ 45
isten 45
mula 45
personal 45
present 45
promot@@ 45
qui 45
rez 45
riff@@ 45
territ@@ 45
yar@@ 45
è@@ 45
ρ@@ 45
м@@ 45
ف@@ 45
ီ@@ 45
ボ@@ 45
吳@@ 45
园@@ 45
湖@@ 45
色@@ 45
소@@ 45
199@@ 44
Afr@@ 44
Das 44
Distribu@@ 44
Italia 44
Jul@@ 44
Kay@@ 44
Mann@@ 44
Riv@@ 44
Su 44
afa 44
ayn@@ 44
bles 44
could 44
dar 44
design@@ 44
ede@@ 44
ers@@ 44
feld 44
games 44
orig@@ 44
pen 44
phi 44
publi@@ 44
rio 44
same 44
sur 44
these 44
tul@@ 44
®@@ 44
Å 44
ń 44
ʰ@@ 44
Δ@@ 44
Π@@ 44
δ 44
ω 44
س@@ 44
ك@@ 44
เศส 44
္@@ 44
ြ@@ 44
ភ@@ 44
℃ 44
≥ 44
○@@ 44
ケ@@ 44
嘉@@ 44
多@@ 44
宇@@ 44
徳@@ 44
敬@@ 44
是@@ 44
犬@@ 44
鉄@@ 44
동@@ 44
시@@ 44
Institut 43
aden 43
ambo 43
ansas 43
atu 43
constitu@@ 43
found 43
found@@ 43
hii 43
hir 43
leo 43
par 43
sel 43
tag 43
uda 43
until 43
yas@@ 43
zon@@ 43
ς 43
л@@ 43
ح@@ 43
ຳ@@ 43
ပ@@ 43
ះ@@ 43
ố 43
す@@ 43
仮@@ 43
合@@ 43
里@@ 43
Bu 42
En 42
Et@@ 42
Hamb@@ 42
capit@@ 42
conqu@@ 42
emi 42
ently 42
fin 42
former 42
iche 42
ived 42
kho@@ 42
material 42
nin 42
nomin@@ 42
performan@@ 42
popular 42
por 42
separ@@ 42
sten 42
tigen 42
tres 42
zen@@ 42
Ø 42
أ@@ 42
द@@ 42
ใ 42
ไ 42
∞ 42
≠ 42
め@@ 42
华@@ 42
子 42
特@@ 42
相@@ 42
知@@ 42
郭@@ 42
鄭@@ 42
間@@ 42
릉@@ 42
Hein@@ 41
January 41
Mart 41
Migu@@ 41
Santiago 41
Se 41
ached 41
ainer 41
alled 41
allen 41
aume 41
bara 41
director 41
diz@@ 41
docum@@ 41
ina@@ 41
mill@@ 41
oca 41
particip@@ 41
prac@@ 41
scienti@@ 41
support 41
zona 41
Б@@ 41
ت@@ 41
ल@@ 41
ហ@@ 41
⊙ 41
ツ@@ 41
ベ@@ 41
歌@@ 41
死@@ 41
衛@@ 41
隆@@ 41
다@@ 41
Grou@@ 40
Munici@@ 40
Ord@@ 40
caus@@ 40
cens@@ 40
construc@@ 40
did 40
dose 40
eles 40
explo@@ 40
fig@@ 40
films 40
fs 40
kum@@ 40
lis@@ 40
placed 40
population 40
resid@@ 40
sche 40
shu@@ 40
tura 40
unge 40
Ç 40
ë@@ 40
Σ@@ 40
Ω 40
ធ@@ 40
♣ 40
け@@ 40
ル 40
前@@ 40
条@@ 40
理@@ 40
社@@ 40
视@@ 40
起@@ 40
郡@@ 40
雲@@ 40
도@@ 40
라@@ 40
민@@ 40
192@@ 39
198@@ 39
Alt@@ 39
Conse@@ 39
February 39
Israel 39
Kul@@ 39
acht 39
alar@@ 39
ben 39
jan@@ 39
larg@@ 39
natur@@ 39
oci@@ 39
oj@@ 39
pend@@ 39
quit@@ 39
thu@@ 39
uch 39
za@@ 39
zer@@ 39
ğ 39
̍ 39
ב@@ 39
بن 39
د@@ 39
ច@@ 39
ោ@@ 39
ំ@@ 39
‹ 39
せ@@ 39
ヒ@@ 39
仲@@ 39
恭@@ 39
沙@@ 39
虎@@ 39
韓@@ 39
고@@ 39
기@@ 39
선@@ 39
제@@ 39
Prof@@ 38
` 38
assen 38
blan@@ 38
bora 38
coup 38
develop@@ 38
eka 38
elles 38
enda 38
fron@@ 38
given 38
hib@@ 38
ilio 38
lau@@ 38
neo 38
olan 38
oso 38
pas 38
pedi@@ 38
pio 38
played 38
province 38
rad@@ 38
reco@@ 38
solo 38
stadt 38
within 38
İ 38
ʻ 38
ε 38
Г@@ 38
н 38
э@@ 38
я@@ 38
ا@@ 38
ج@@ 38
श@@ 38
ូ@@ 38
ḥ 38
ネ@@ 38
ペ@@ 38
ヤ@@ 38
使@@ 38
六@@ 38
力@@ 38
場@@ 38
夢@@ 38
寧@@ 38
度@@ 38
殿@@ 38
玄@@ 38
胡@@ 38
興@@ 38
貞@@ 38
超@@ 38
龙@@ 38
영@@ 38
 38
187@@ 37
Nig@@ 37
Sach@@ 37
anos 37
appar@@ 37
aret 37
categ@@ 37
compar@@ 37
concentr@@ 37
eder 37
elt@@ 37
gradu@@ 37
isco 37
later 37
mam@@ 37
phe 37
record 37
tent@@ 37
ually 37
vat@@ 37
viol@@ 37
weg@@ 37
ǐ@@ 37
ǔ@@ 37
ή@@ 37
η@@ 37
το@@ 37
ј@@ 37
प@@ 37
》@@ 37
ひ@@ 37
む@@ 37
や@@ 37
ェ@@ 37
佛@@ 37
可@@ 37
命@@ 37
臣@@ 37
葉@@ 37
阳@@ 37
阿@@ 37
雄@@ 37
문@@ 37
세@@ 37
우@@ 37
Buch@@ 36
Compan@@ 36
Luf@@ 36
Von 36
auf@@ 36
commer@@ 36
ebe 36
erre 36
geh@@ 36
issu@@ 36
lake 36
making 36
nt 36
previ@@ 36
quel@@ 36
received 36
rech@@ 36
reci@@ 36
secre@@ 36
stitu@@ 36
utz@@ 36
vie 36
zar@@ 36
Ā 36
ά@@ 36
Т@@ 36
к@@ 36
н@@ 36
с@@ 36
ע@@ 36
ْ 36
ग@@ 36
လ@@ 36
ầ 36
█@@ 36
ど@@ 36
内@@ 36
出@@ 36
劇@@ 36
县@@ 36
基@@ 36
工@@ 36
志@@ 36
村@@ 36
洋@@ 36
紅@@ 36
車@@ 36
集@@ 36
飛@@ 36
상@@ 36
하@@ 36
186@@ 35
Europa 35
Jah@@ 35
Nis@@ 35
anas 35
appe@@ 35
audi@@ 35
clos@@ 35
dir@@ 35
esto 35
gest@@ 35
ident@@ 35
institu@@ 35
iwa 35
mani@@ 35
model@@ 35
ously 35
patr@@ 35
sie 35
tainment 35
tham 35
usal@@ 35
uso 35
«@@ 35
Ü 35
е@@ 35
ष@@ 35
უ@@ 35
′@@ 35
ォ@@ 35
交@@ 35
作@@ 35
保@@ 35
傳@@ 35
宝@@ 35
将@@ 35
常@@ 35
普@@ 35
电@@ 35
百@@ 35
盛@@ 35
線@@ 35
草@@ 35
路@@ 35
长@@ 35
陈@@ 35
부@@ 35
스@@ 35
연@@ 35
윤@@ 35
Cao 34
Guinea 34
Mek@@ 34
ahl@@ 34
alif@@ 34
among 34
asse 34
azu 34
firm@@ 34
iku@@ 34
ilg@@ 34
kit@@ 34
leb@@ 34
prises 34
pro 34
rom 34
schule 34
some@@ 34
trat@@ 34
voir 34
Æ 34
æ@@ 34
Č 34
ę 34
Ś 34
ˈ@@ 34
μα@@ 34
ον@@ 34
ا 34
ག@@ 34
ែ@@ 34
ṇ 34
ῖ@@ 34
ピ@@ 34
喜@@ 34
在@@ 34
徐@@ 34
波@@ 34
蘭@@ 34
貴@@ 34
195@@ 33
Jug@@ 33
Ost@@ 33
Pedro 33
Schw@@ 33
XVI 33
anan 33
bourg 33
days 33
desc@@ 33
ectu@@ 33
eig@@ 33
enin 33
erin 33
frag@@ 33
histor@@ 33
hui 33
inh 33
kap@@ 33
kol@@ 33
ogle 33
orio 33
para 33
rement 33
requ@@ 33
sam 33
say@@ 33
stand 33
vill@@ 33
ö@@ 33
ŏ 33
ɑ@@ 33
ʔ 33
і@@ 33
்@@ 33
ູ@@ 33
ར@@ 33
ნ@@ 33
ខ@@ 33
ế 33
♠ 33
で@@ 33
土@@ 33
堂@@ 33
梅@@ 33
業@@ 33
萬@@ 33
言@@ 33
進@@ 33
齊@@ 33
무@@ 33
박@@ 33
비@@ 33
안@@ 33
화@@ 33
）@@ 33
Lan 32
Paulo 32
Ukr@@ 32
ambi@@ 32
anes 32
another 32
aup@@ 32
bec 32
cant@@ 32
declar@@ 32
dorf 32
encia 32
endi 32
illes 32
ingi 32
isse 32
journ@@ 32
just 32
kara 32
kt 32
million 32
poin@@ 32
popul@@ 32
releas@@ 32
those 32
tico 32
til 32
unci@@ 32
wir@@ 32
³ 32
ñ@@ 32
œ 32
ʃ@@ 32
ι@@ 32
λε@@ 32
ρο@@ 32
О@@ 32
в@@ 32
но@@ 32
ण@@ 32
ដ@@ 32
ណ@@ 32
▪ 32
今@@ 32
吉@@ 32
外@@ 32
寶@@ 32
尹@@ 32
株@@ 32
殺@@ 32
老@@ 32
許@@ 32
顯@@ 32
마@@ 32
유@@ 32
， 32
Argentina 31
Ban 31
Canton 31
Eisen@@ 31
Indon@@ 31
Tek@@ 31
Wilhel@@ 31
Zu@@ 31
abu 31
ados 31
aged 31
agre@@ 31
ahr@@ 31
bed@@ 31
bou@@ 31
evi@@ 31
heit 31
inclus@@ 31
its@@ 31
lib@@ 31
military 31
national@@ 31
onen 31
plan 31
rus@@ 31
sein 31
tival 31
topl@@ 31
uerto 31
vet@@ 31
wake 31
ü@@ 31
И@@ 31
Ф@@ 31
ּ@@ 31
โ 31
ບ@@ 31
ས@@ 31
ἀ@@ 31
″ 31
だ@@ 31
ソ@@ 31
伝@@ 31
典@@ 31
別@@ 31
吴@@ 31
商@@ 31
始@@ 31
崔@@ 31
懿@@ 31
教@@ 31
来@@ 31
流@@ 31
烈@@ 31
蕭@@ 31
189@@ 30
Herr@@ 30
XV@@ 30
alc@@ 30
alternati@@ 30
anya 30
appear@@ 30
bas 30
bt 30
champi@@ 30
conserv@@ 30
crit@@ 30
cu 30
derni@@ 30
estruc@@ 30
gel 30
his@@ 30
inci 30
industri@@ 30
irk 30
izi@@ 30
jud@@ 30
lub 30
mant@@ 30
materi@@ 30
pf@@ 30
prepar@@ 30
provid@@ 30
religi@@ 30
sever@@ 30
sta@@ 30
studio 30
such 30
yol@@ 30
zin@@ 30
ός 30
В@@ 30
г@@ 30
ز@@ 30
ش@@ 30
া@@ 30
ဝ@@ 30
ị 30
ゆ@@ 30
中国@@ 30
乐@@ 30
勝@@ 30
善@@ 30
學@@ 30
官@@ 30
弘@@ 30
急@@ 30
手@@ 30
斗@@ 30
樂@@ 30
港@@ 30
苏@@ 30
賢@@ 30
道 30
남@@ 30
전@@ 30
．@@ 30
188@@ 29
196@@ 29
197@@ 29
Pf@@ 29
Spi@@ 29
Uz@@ 29
cab@@ 29
compet@@ 29
day@@ 29
deb@@ 29
direction 29
emen 29
emper@@ 29
equi@@ 29
eran 29
famili@@ 29
gun@@ 29
held 29
histori@@ 29
icas 29
inas 29
kes@@ 29
mari@@ 29
ologie 29
proxim@@ 29
released 29
relig@@ 29
spi@@ 29
tei 29
took 29
umbo 29
written 29
õ 29
ș 29
й 29
у@@ 29
الل@@ 29
ط@@ 29
ຫ@@ 29
ོ@@ 29
ဒ@@ 29
ჷ@@ 29
ṣ 29
そ@@ 29
・ 29
万@@ 29
令@@ 29
伊@@ 29
你@@ 29
姫@@ 29
张@@ 29
溪@@ 29
茶@@ 29
董@@ 29
蘇@@ 29
話@@ 29
阪@@ 29
鬼@@ 29
방@@ 29
현@@ 29
． 29
： 29
Ab 28
Pub@@ 28
Sur 28
ande 28
aten 28
atos 28
awa@@ 28
bek@@ 28
chap@@ 28
construction 28
eras 28
etti@@ 28
grand 28
ilit@@ 28
iller@@ 28
inen 28
iste 28
kis@@ 28
lek@@ 28
leri 28
musical 28
oire 28
onde 28
reich 28
tim 28
toria 28
verg@@ 28
women 28
Ó 28
ä@@ 28
ç@@ 28
ą 28
ǒ 28
υ@@ 28
ων@@ 28
، 28
ه 28
ປ@@ 28
ິ@@ 28
ო@@ 28
、 28
わ@@ 28
ポ@@ 28
ム 28
ヨ@@ 28
丹@@ 28
人民@@ 28
撃@@ 28
曲@@ 28
節@@ 28
紀@@ 28
羽@@ 28
身@@ 28
风@@ 28
魚@@ 28
광@@ 28
루@@ 28
의 28
최@@ 28
치@@ 28
Ent@@ 27
Madrid 27
Nach@@ 27
Universit@@ 27
Yer@@ 27
aten@@ 27
centre 27
champ@@ 27
civil 27
competi@@ 27
elimin@@ 27
furt 27
guit@@ 27
ici 27
icio 27
immer 27
incre@@ 27
kana 27
kre@@ 27
mec@@ 27
minut@@ 27
ney@@ 27
nier 27
omen 27
rique 27
riv@@ 27
role 27
route 27
still 27
tard 27
tish@@ 27
tiva 27
utz 27
yer@@ 27
zon 27
ù@@ 27
ı@@ 27
ʰ 27
͡@@ 27
Κ@@ 27
П@@ 27
Х@@ 27
з@@ 27
ְ@@ 27
ד@@ 27
خ@@ 27
या@@ 27
रा@@ 27
ह@@ 27
່@@ 27
თ@@ 27
១ 27
ồ 27
ず@@ 27
ょ@@ 27
ワ@@ 27
団@@ 27
守@@ 27
承@@ 27
演@@ 27
球@@ 27
蔡@@ 27
袁@@ 27
議@@ 27
銀@@ 27
鳥@@ 27
해@@ 27
194@@ 26
National@@ 26
actu@@ 26
aque 26
arded 26
ativa 26
charg@@ 26
created 26
dur 26
eler@@ 26
ende 26
ennes 26
erra 26
fen 26
follow@@ 26
hoa 26
hut@@ 26
iyi 26
liga 26
lil@@ 26
lung 26
mann@@ 26
ning@@ 26
pendi@@ 26
pens@@ 26
polic@@ 26
rem 26
sab@@ 26
services 26
terr@@ 26
teur 26
tir 26
umo 26
й@@ 26
р 26
ָ@@ 26
اد@@ 26
ص@@ 26
ज@@ 26
ຍ@@ 26
ີ@@ 26
ຸ@@ 26
ს@@ 26
い 26
じ@@ 26
ふ@@ 26
ゃ@@ 26
人 26
來@@ 26
先@@ 26
嚴@@ 26
密@@ 26
左@@ 26
影@@ 26
拉@@ 26
未@@ 26
爾@@ 26
若@@ 26
近@@ 26
遊@@ 26
食@@ 26
黎@@ 26
포@@ 26
Colomb@@ 25
Este 25
Nueva 25
Oy@@ 25
Schul@@ 25
alle 25
apo 25
arak 25
asser 25
ately 25
aum 25
bao 25
bei 25
cas 25
destin@@ 25
edil@@ 25
elek@@ 25
endel@@ 25
entes 25
enz 25
exist@@ 25
habit@@ 25
igen 25
inos 25
kt@@ 25
lege 25
lie@@ 25
marri@@ 25
nie 25
perman@@ 25
sev@@ 25
temp@@ 25
thu 25
xu@@ 25
yet 25
zur@@ 25
¼ 25
ɛ 25
ʿ 25
Ω@@ 25
ви@@ 25
на@@ 25
བ@@ 25
ည@@ 25
အ@@ 25
ზ@@ 25
ḥ@@ 25
∞@@ 25
ね@@ 25
ば@@ 25
伯@@ 25
党@@ 25
區@@ 25
呂@@ 25
宙@@ 25
屋@@ 25
山 25
恩@@ 25
拳@@ 25
智@@ 25
泉@@ 25
角@@ 25
郡 25
開@@ 25
陸@@ 25
非@@ 25
騎@@ 25
보@@ 25
순@@ 25
어@@ 25
진@@ 25
충@@ 25
태@@ 25
@@ 25
！ 25
0.000 24
193@@ 24
Elle 24
Engl@@ 24
Minister@@ 24
Venez@@ 24
Zu 24
aban 24
ahl 24
ations@@ 24
bah@@ 24
cause 24
dispar@@ 24
echo 24
erek 24
expl@@ 24
eza 24
itung 24
kas@@ 24
lage 24
mili@@ 24
ngh@@ 24
rail@@ 24
schaft 24
signific@@ 24
success@@ 24
tee 24
tivo 24
uko 24
½@@ 24
Î 24
ŭ 24
η 24
ρ 24
ρα@@ 24
σ 24
СС@@ 24
У@@ 24
ка@@ 24
ш@@ 24
ات@@ 24
غ@@ 24
ُ 24
च@@ 24
ना@@ 24
ക@@ 24
ື@@ 24
ọ 24
Ἀ@@ 24
⁄ 24
∈ 24
█ 24
☆@@ 24
井@@ 24
儀@@ 24
初@@ 24
包@@ 24
回@@ 24
广@@ 24
徽@@ 24
悪@@ 24
橋@@ 24
比@@ 24
気@@ 24
王 24
紫@@ 24
能@@ 24
臺@@ 24
術@@ 24
赵@@ 24
雪@@ 24
鳳@@ 24
가@@ 24
양@@ 24
중@@ 24
천@@ 24
 24
：@@ 24
🇭 24
🇹@@ 24
Azer@@ 23
Kut@@ 23
Liga 23
Nord 23
Para 23
anistan 23
apos@@ 23
assist@@ 23
atura 23
auc@@ 23
disput@@ 23
ellschaft 23
erst@@ 23
hac@@ 23
hio 23
idad 23
iken 23
included 23
isen 23
join@@ 23
much 23
neur 23
oku@@ 23
orie 23
sad@@ 23
sera 23
since 23
tant 23
tech@@ 23
Μ@@ 23
αν@@ 23
ψ@@ 23
ύ@@ 23
Д@@ 23
и 23
на 23
ни@@ 23
т@@ 23
ө@@ 23
ק@@ 23
إ@@ 23
ث@@ 23
مَ@@ 23
ّ@@ 23
ड@@ 23
ब@@ 23
ຕ@@ 23
ི@@ 23
ი@@ 23
់@@ 23
ṃ 23
ṅ 23
ṣ@@ 23
ṭ@@ 23
ス 23
ゼ@@ 23
ホ@@ 23
ヴ@@ 23
了@@ 23
云@@ 23
体@@ 23
侍@@ 23
共@@ 23
兵@@ 23
友@@ 23
反@@ 23
央@@ 23
妖@@ 23
季@@ 23
所@@ 23
摩@@ 23
期@@ 23
森@@ 23
爱@@ 23
狄@@ 23
男@@ 23
直@@ 23
科@@ 23
紋@@ 23
統@@ 23
鎮@@ 23
隊@@ 23
館@@ 23
麗@@ 23
강@@ 23
교@@ 23
명@@ 23
여@@ 23
예@@ 23
요@@ 23
홍@@ 23
Anc@@ 22
Best@@ 22
Biz@@ 22
Eis@@ 22
Film@@ 22
Im 22
Kant@@ 22
Soh@@ 22
Zw@@ 22
acha 22
aide 22
americ@@ 22
angi 22
candid@@ 22
colon@@ 22
consider@@ 22
egen 22
eshi 22
gaz@@ 22
iye 22
kim@@ 22
mim@@ 22
numer@@ 22
rol 22
roy@@ 22
uel@@ 22
usu 22
zel@@ 22
zig 22
À 22
â@@ 22
Đ 22
ŋ 22
λι@@ 22
ρι@@ 22
ро@@ 22
ци@@ 22
ч@@ 22
נ@@ 22
ת@@ 22
ار@@ 22
ى@@ 22
ம@@ 22
ແ@@ 22
ད@@ 22
ན@@ 22
ུ@@ 22
ထ@@ 22
ჽ@@ 22
‍@@ 22
「 22
〜 22
ご@@ 22
ろ@@ 22
ゲ@@ 22
丁@@ 22
丘@@ 22
以@@ 22
余@@ 22
分@@ 22
勇@@ 22
印@@ 22
叉@@ 22
号@@ 22
塔@@ 22
封@@ 22
戸@@ 22
柳@@ 22
母@@ 22
涼@@ 22
潮@@ 22
濟@@ 22
炎@@ 22
獣@@ 22
目@@ 22
端@@ 22
经@@ 22
辛@@ 22
门@@ 22
陰@@ 22
韋@@ 22
Au 21
Haus@@ 21
Kri@@ 21
Minh 21
Rech@@ 21
Tari@@ 21
adol@@ 21
alar 21
ateur 21
azar@@ 21
bre 21
deu@@ 21
enga 21
enst@@ 21
eren 21
hosp@@ 21
icht 21
ient 21
ifu 21
jun@@ 21
kad@@ 21
kri@@ 21
kus@@ 21
mab@@ 21
nac@@ 21
near 21
nom 21
odo 21
onc@@ 21
opo 21
pes@@ 21
politi@@ 21
restaur@@ 21
though 21
umu 21
util@@ 21
went 21
zur 21
ß@@ 21
đ 21
ʊ@@ 21
Α@@ 21
κ 21
σι@@ 21
στ@@ 21
φ 21
Л@@ 21
Н@@ 21
а@@ 21
к 21
ла@@ 21
ми@@ 21
ре@@ 21
х@@ 21
آ@@ 21
را@@ 21
ي 21
ين@@ 21
ِّ@@ 21
ܐ@@ 21
का@@ 21
க@@ 21
క@@ 21
ဇ@@ 21
့@@ 21
ွ@@ 21
ှ@@ 21
ấ 21
★ 21
】@@ 21
う 21
イ 21
也@@ 21
姬@@ 21
富@@ 21
尚@@ 21
尾@@ 21
局@@ 21
师@@ 21
恋@@ 21
战@@ 21
日 21
桂@@ 21
楽@@ 21
毛@@ 21
燕@@ 21
爆@@ 21
獻@@ 21
甲@@ 21
神 21
秘@@ 21
精@@ 21
糖@@ 21
衣@@ 21
觀@@ 21
解@@ 21
谷@@ 21
走@@ 21
関@@ 21
雨@@ 21
雷@@ 21
革@@ 21
黨@@ 21
로@@ 21
리 21
에@@ 21
@@@ 20
Apr@@ 20
Bez@@ 20
Histoire 20
Kib@@ 20
Mec@@ 20
Sov@@ 20
XIX 20
achen 20
alifor@@ 20
atro 20
conc@@ 20
consist@@ 20
dav@@ 20
destr@@ 20
essen 20
eure 20
forme 20
haf@@ 20
haus 20
ingia 20
inner@@ 20
invol@@ 20
istes 20
kay@@ 20
kio 20
kun@@ 20
kut@@ 20
lara 20
monum@@ 20
oblig@@ 20
organisation 20
published 20
remain@@ 20
serve 20
succ@@ 20
tam 20
tik 20
various 20
Ú 20
č@@ 20
ʼ 20
̤ 20
αγ@@ 20
ξ@@ 20
ва@@ 20
го@@ 20
ру@@ 20
ская 20
ы@@ 20
я 20
ת 20
ري@@ 20
لَ@@ 20
و 20
ية 20
मा@@ 20
़@@ 20
ி@@ 20
ང@@ 20
ယ@@ 20
း 20
ျ@@ 20
べ@@ 20
久@@ 20
乱@@ 20
代 20
任@@ 20
修@@ 20
入@@ 20
剣@@ 20
剧@@ 20
口@@ 20
哲@@ 20
女 20
岳@@ 20
易@@ 20
獄@@ 20
甘@@ 20
祥@@ 20
程@@ 20
等@@ 20
肉@@ 20
臨@@ 20
莊@@ 20
語 20
護@@ 20
變@@ 20
達@@ 20
那@@ 20
鐵@@ 20
關@@ 20
麻@@ 20
齐@@ 20
산@@ 20
임@@ 20
헌@@ 20
호@@ 20
Chile 19
Des 19
Dies@@ 19
Europ@@ 19
Fak@@ 19
Krieg@@ 19
Parti 19
Sta@@ 19
alen 19
anl@@ 19
conse@@ 19
dad 19
erh@@ 19
esen 19
esha 19
esper@@ 19
fav@@ 19
hay@@ 19
hiv@@ 19
ibu 19
ismus 19
jap@@ 19
jia 19
kaz@@ 19
manif@@ 19
mich@@ 19
mont@@ 19
nant 19
oppos@@ 19
premi@@ 19
principal 19
raz@@ 19
simil@@ 19
tas 19
tien 19
tur 19
uten 19
village 19
yen@@ 19
zam@@ 19
¡ 19
ħ 19
ħ@@ 19
ś@@ 19
Ž 19
ɕ@@ 19
ɛ@@ 19
ˋ@@ 19
ˌ 19
̚@@ 19
̤@@ 19
Ε@@ 19
Λ@@ 19
έ@@ 19
ελ@@ 19
τερ@@ 19
Ц@@ 19
б@@ 19
и@@ 19
ь 19
ү@@ 19
ام@@ 19
ذ@@ 19
ست@@ 19
ى 19
ܝ@@ 19
अ@@ 19
ध@@ 19
वि@@ 19
ப@@ 19
ຽ@@ 19
დ 19
ჷ 19
ន 19
ួ@@ 19
ḍ 19
ṇ@@ 19
ậ 19
● 19
〜@@ 19
え 19
か 19
ぎ@@ 19
び@@ 19
る 19
ト 19
ㄧ@@ 19
位@@ 19
傑@@ 19
刘@@ 19
原 19
孙@@ 19
客@@ 19
寿@@ 19
尉@@ 19
尊@@ 19
巴@@ 19
念@@ 19
晉@@ 19
池@@ 19
浦@@ 19
画@@ 19
穆@@ 19
組@@ 19
縣 19
舞@@ 19
范@@ 19
蓮@@ 19
處@@ 19
蜀@@ 19
論@@ 19
諸@@ 19
豆@@ 19
運@@ 19
遠@@ 19
雙@@ 19
계@@ 19
반@@ 19
오@@ 19
용@@ 19
일@@ 19
Bras@@ 18
Ce 18
Kik@@ 18
Serie 18
Wah@@ 18
adan 18
agric@@ 18
anno@@ 18
chev@@ 18
constr@@ 18
contempor@@ 18
cula 18
dies@@ 18
dows 18
droit 18
encore 18
endre 18
excep@@ 18
gut 18
imba 18
isches 18
isine 18
kid@@ 18
leur 18
mina 18
mw@@ 18
nay 18
nig 18
novi@@ 18
pek@@ 18
ported 18
probl@@ 18
publique 18
reti@@ 18
sans 18
six 18
stanbul 18
tek@@ 18
umba 18
undi 18
uza 18
veau 18
wana 18
ɔ@@ 18
ʒ@@ 18
Χ@@ 18
ία 18
ιν@@ 18
κα@@ 18
ξ 18
όν@@ 18
З@@ 18
М@@ 18
Я 18
д@@ 18
الله 18
وَ@@ 18
ک@@ 18
ट@@ 18
ता@@ 18
ဟ@@ 18
ộ 18
ờ 18
ἄ@@ 18
≡ 18
♪ 18
ク 18
ヘ@@ 18
丸@@ 18
伏@@ 18
內@@ 18
刀@@ 18
則@@ 18
双@@ 18
城 18
変@@ 18
威@@ 18
孔@@ 18
宁@@ 18
居@@ 18
川 18
州 18
延@@ 18
憲@@ 18
月 18
桃@@ 18
梨@@ 18
派@@ 18
游@@ 18
為@@ 18
父@@ 18
破@@ 18
社 18
罗@@ 18
聞@@ 18
胤@@ 18
血@@ 18
遼@@ 18
闘@@ 18
靖@@ 18
頭@@ 18
頼@@ 18
니@@ 18
랑@@ 18
북@@ 18
아 18
야@@ 18
트@@ 18
 18
Alem@@ 17
Distr@@ 17
Er 17
Klo@@ 17
Kup@@ 17
Stadt@@ 17
Theo 17
adop@@ 17
aill@@ 17
aille 17
aina 17
aines 17
along 17
arri@@ 17
best@@ 17
chs 17
comb@@ 17
eln 17
eyi 17
gew@@ 17
gri@@ 17
grup@@ 17
hus@@ 17
including 17
inde 17
introduc@@ 17
izi 17
kuh@@ 17
maf@@ 17
matr@@ 17
oder 17
scher 17
sent@@ 17
tario 17
tet 17
vai 17
wah@@ 17
yap@@ 17
yen 17
zt 17
zw@@ 17
ô@@ 17
Ł 17
ł@@ 17
ɔ 17
ʔ@@ 17
̍@@ 17
Λ 17
Ν@@ 17
Τ@@ 17
ζ@@ 17
κλ@@ 17
ον 17
ра@@ 17
та@@ 17
ъ 17
ь@@ 17
د 17
سي@@ 17
ं@@ 17
थ@@ 17
य 17
ຼ@@ 17
ྱ@@ 17
ဗ@@ 17
် 17
ლ@@ 17
៉@@ 17
Ḥ 17
‡ 17
Ⅲ@@ 17
【 17
ほ@@ 17
り 17
チ 17
亂@@ 17
于@@ 17
俊@@ 17
博@@ 17
字 17
宜@@ 17
形@@ 17
房@@ 17
无@@ 17
曾@@ 17
桓@@ 17
注@@ 17
洛@@ 17
洞@@ 17
版@@ 17
禧@@ 17
落@@ 17
虫@@ 17
贵@@ 17
農@@ 17
追@@ 17
鄉@@ 17
際@@ 17
고 17
노@@ 17
학@@ 17
황@@ 17
Akadem@@ 16
Argent@@ 16
Deutschland 16
Dez@@ 16
Fes@@ 16
Fren@@ 16
Geb@@ 16
Heim@@ 16
Lehr@@ 16
Nieder@@ 16
Rus 16
Schi@@ 16
Schl@@ 16
Thanh 16
Virgin@@ 16
Zentr@@ 16
acio 16
adas 16
aires 16
alien 16
announced 16
arte 16
began 16
brit@@ 16
century 16
eaux 16
elem@@ 16
gil@@ 16
hr 16
idas 16
ien@@ 16
iten 16
kata 16
kub@@ 16
lik 16
mara 16
maz@@ 16
municip@@ 16
named 16
nde 16
plu@@ 16
said 16
sent 16
tima 16
tung 16
undo 16
usi 16
verw@@ 16
who@@ 16
»@@ 16
Ä 16
ð@@ 16
ò@@ 16
Ş 16
ư 16
ʃ 16
Θ 16
ει@@ 16
τη@@ 16
ών@@ 16
И 16
ба@@ 16
о@@ 16
ћ@@ 16
ա@@ 16
ֵ@@ 16
ה 16
י 16
الس@@ 16
ت 16
لا@@ 16
ܐ 16
ं 16
ா@@ 16
མ@@ 16
ခ@@ 16
ဘ@@ 16
ါ@@ 16
ံ@@ 16
ნ 16
ថ@@ 16
៊@@ 16
ṃ@@ 16
‹@@ 16
※ 16
♦ 16
ⴰ@@ 16
『@@ 16
の 16
ら 16
ィ 16
乾@@ 16
传@@ 16
佐@@ 16
佳@@ 16
傅@@ 16
功@@ 16
加@@ 16
医@@ 16
去@@ 16
婆@@ 16
崇@@ 16
布@@ 16
当@@ 16
彭@@ 16
復@@ 16
探@@ 16
放@@ 16
早@@ 16
机@@ 16
果@@ 16
極@@ 16
榮@@ 16
欢@@ 16
步@@ 16
洲@@ 16
淑@@ 16
灣@@ 16
然@@ 16
照@@ 16
瑞@@ 16
用@@ 16
留@@ 16
發@@ 16
督@@ 16
祝@@ 16
竜@@ 16
竹@@ 16
第@@ 16
総@@ 16
總@@ 16
红@@ 16
船@@ 16
菜@@ 16
說@@ 16
説@@ 16
謎@@ 16
豊@@ 16
逆@@ 16
造@@ 16
遷@@ 16
鍾@@ 16
限@@ 16
隋@@ 16
靈@@ 16
는 16
다 16
만@@ 16
심@@ 16
크@@ 16
파@@ 16
.000 15
Haupt@@ 15
However 15
Politi@@ 15
Unter@@ 15
XVIII 15
aben 15
allow@@ 15
andes 15
anh 15
azo 15
cht@@ 15
clas@@ 15
continued 15
dah@@ 15
debut 15
diplom@@ 15
enos 15
eurs 15
fab@@ 15
gek@@ 15
hau@@ 15
having 15
icos 15
ikia 15
incorpor@@ 15
interpret@@ 15
issen 15
izo 15
mash@@ 15
often 15
organis@@ 15
pre 15
seau 15
sich@@ 15
similar 15
tras 15
wann 15
yaz@@ 15
zog 15
º 15
¾ 15
Í 15
þ 15
ă@@ 15
ő@@ 15
ř 15
Β@@ 15
Ρ@@ 15
ακ@@ 15
ερ@@ 15
πο@@ 15
мо@@ 15
ри@@ 15
א 15
الج@@ 15
ب 15
ق 15
م 15
ون@@ 15
र 15
ी@@ 15
া 15
ి@@ 15
ు@@ 15
฿@@ 15
ာ 15
მ@@ 15
ხ@@ 15
ჽ 15
២ 15
ᡳ@@ 15
ṛ 15
ἰ@@ 15
《 15
き 15
ぐ@@ 15
ざ@@ 15
づ@@ 15
ア 15
ㄨ@@ 15
书@@ 15
亮@@ 15
倉@@ 15
倫@@ 15
共和@@ 15
半@@ 15
及@@ 15
哈@@ 15
嗣@@ 15
头@@ 15
夷@@ 15
奈@@ 15
尔@@ 15
尼@@ 15
幻@@ 15
提@@ 15
支@@ 15
改@@ 15
故@@ 15
望@@ 15
杜@@ 15
格@@ 15
樹@@ 15
毒@@ 15
浪@@ 15
潘@@ 15
牙@@ 15
珠@@ 15
璋@@ 15
田 15
系@@ 15
芳@@ 15
菩@@ 15
蒙@@ 15
蜜@@ 15
街@@ 15
语@@ 15
軍 15
連@@ 15
铁@@ 15
雍@@ 15
鹿@@ 15
黑@@ 15
거@@ 15
미@@ 15
애@@ 15
은@@ 15
이 15
재@@ 15
후 15
희@@ 15
􀂃 15
Copa 14
During 14
Famili@@ 14
Francia 14
Hoch@@ 14
Mundial 14
Roma 14
Seine 14
Spiel@@ 14
Stadt 14
Zwe@@ 14
ansa 14
auch 14
bahn 14
because 14
bio 14
dest@@ 14
det 14
enas 14
estim@@ 14
forces 14
forma 14
gru@@ 14
idos 14
ifa 14
indi 14
individ@@ 14
isho 14
itos 14
jah@@ 14
jou@@ 14
jour@@ 14
kop@@ 14
meister 14
oles 14
ortho@@ 14
osu 14
pero 14
police 14
provin@@ 14
registr@@ 14
schw@@ 14
sek 14
temps 14
tif 14
ungen 14
voy@@ 14
vu 14
wur@@ 14
zis@@ 14
ż 14
ɡ@@ 14
Θ@@ 14
άν@@ 14
αρ@@ 14
χ 14
Рес@@ 14
ар@@ 14
е 14
ма@@ 14
т 14
ִ@@ 14
ח@@ 14
ט@@ 14
ל 14
اب@@ 14
الر@@ 14
الع@@ 14
عبد 14
مو@@ 14
مي@@ 14
ܠ@@ 14
ނ@@ 14
महा@@ 14
ਕ@@ 14
ਾ@@ 14
ਿ@@ 14
ໍ@@ 14
ჶ@@ 14
រ 14
‑ 14
→@@ 14
⊕@@ 14
ⲁ@@ 14
こ 14
し 14
ぞ@@ 14
と 14
に 14
ぶ@@ 14
与@@ 14
义@@ 14
亭@@ 14
仔@@ 14
克@@ 14
兒@@ 14
列@@ 14
到@@ 14
刺@@ 14
匡@@ 14
受@@ 14
右@@ 14
圣@@ 14
堯@@ 14
壽@@ 14
奉@@ 14
奖@@ 14
奴@@ 14
好@@ 14
嬪@@ 14
宗 14
岡@@ 14
崎@@ 14
干@@ 14
开@@ 14
強@@ 14
征@@ 14
律@@ 14
恵@@ 14
慧@@ 14
手 14
指@@ 14
本 14
村 14
柴@@ 14
梦@@ 14
次@@ 14
浙@@ 14
渡@@ 14
湘@@ 14
烏@@ 14
牛@@ 14
由@@ 14
私@@ 14
編@@ 14
节@@ 14
薛@@ 14
要@@ 14
观@@ 14
計@@ 14
足@@ 14
載@@ 14
輝@@ 14
陆@@ 14
震@@ 14
霸@@ 14
韩@@ 14
魯@@ 14
鴻@@ 14
가 14
백@@ 14
삼@@ 14
을 14
Bev@@ 13
Ein 13
Machi 13
Nh@@ 13
Ort@@ 13
Partido 13
aje 13
anst@@ 13
artist@@ 13
atz 13
ayr@@ 13
bang 13
cet 13
chef 13
corresp@@ 13
dans 13
defe@@ 13
drei 13
ecke 13
egem@@ 13
eski 13
europ@@ 13
fest@@ 13
hay 13
ickl@@ 13
imbo 13
iran 13
isme 13
jas 13
kea 13
lama 13
meng@@ 13
occup@@ 13
roi 13
seh@@ 13
sey@@ 13
tionn@@ 13
trou@@ 13
ulia 13
unde 13
yet@@ 13
³@@ 13
´ 13
¹ 13
î@@ 13
ɴ 13
ˇ@@ 13
ˑ@@ 13
Ι@@ 13
Φιλ@@ 13
έν@@ 13
ειν@@ 13
ικ@@ 13
κο@@ 13
μα 13
ώ@@ 13
Во@@ 13
Е@@ 13
Со@@ 13
Ш@@ 13
в 13
да@@ 13
не 13
с 13
са@@ 13
ַ@@ 13
ג@@ 13
ן@@ 13
פ@@ 13
الح@@ 13
الم@@ 13
اه@@ 13
سی@@ 13
ن 13
ّ 13
ܘ@@ 13
ܪ@@ 13
ܫ@@ 13
ख@@ 13
ङ@@ 13
नि@@ 13
वा@@ 13
ল@@ 13
ฦ 13
฿ 13
ໂ@@ 13
ໄ@@ 13
འ@@ 13
ེ@@ 13
ူ@@ 13
გ@@ 13
ឋ@@ 13
ឹ@@ 13
ៅ@@ 13
ḍ@@ 13
↑@@ 13
↔ 13
⟨@@ 13
』@@ 13
す 13
下 13
为@@ 13
亚@@ 13
便@@ 13
兴@@ 13
军@@ 13
刑@@ 13
劍@@ 13
品@@ 13
孟@@ 13
宏@@ 13
室@@ 13
容@@ 13
幸@@ 13
店@@ 13
待@@ 13
得@@ 13
必@@ 13
忍@@ 13
恐@@ 13
拓@@ 13
斯@@ 13
旗@@ 13
映@@ 13
暗@@ 13
杨@@ 13
根@@ 13
桥@@ 13
殊@@ 13
段@@ 13
沖@@ 13
活@@ 13
淮@@ 13
深@@ 13
温@@ 13
熙@@ 13
生 13
申@@ 13
番@@ 13
登@@ 13
砂@@ 13
礼@@ 13
禮@@ 13
童@@ 13
純@@ 13
結@@ 13
襲@@ 13
象@@ 13
資@@ 13
邦@@ 13
郷@@ 13
鄧@@ 13
镇@@ 13
际@@ 13
隠@@ 13
顔@@ 13
马@@ 13
麟@@ 13
궁@@ 13
단@@ 13
말@@ 13
별@@ 13
송@@ 13
숙@@ 13
승@@ 13
평@@ 13
￼ 13
Afrika 12
Ago@@ 12
Amerika 12
Grund@@ 12
Guerra 12
Janu@@ 12
Kenya 12
Meter 12
Santi@@ 12
Vier@@ 12
acces@@ 12
adores 12
agua 12
aki@@ 12
bey@@ 12
bez@@ 12
bien 12
built 12
dad@@ 12
deutsche 12
eden@@ 12
ellen 12
emu 12
endant 12
engo 12
ense@@ 12
few 12
financi@@ 12
hem 12
huo 12
iler@@ 12
inden 12
individu@@ 12
install@@ 12
investig@@ 12
ischen 12
kem@@ 12
libre 12
lichen 12
lima 12
mano 12
mek@@ 12
monde 12
namo 12
nou@@ 12
otra 12
produced 12
quel 12
reich@@ 12
sett@@ 12
sos@@ 12
tek 12
tige 12
unia 12
vita 12
vy@@ 12
wam@@ 12
±@@ 12
É@@ 12
Ô 12
Ø@@ 12
÷@@ 12
đ@@ 12
ė 12
ţ 12
ʌ@@ 12
ʾ 12
ʾ@@ 12
˚ 12
˥@@ 12
̀@@ 12
̪@@ 12
Γ 12
άρ@@ 12
αι@@ 12
ι 12
τ 12
τος 12
Г 12
То@@ 12
Ч@@ 12
бе@@ 12
во@@ 12
д 12
ди@@ 12
ен@@ 12
л 12
ли@@ 12
ло@@ 12
ный 12
ский 12
то@@ 12
ן 12
الأ@@ 12
ك 12
ما 12
محمد 12
ور@@ 12
ی 12
ंग@@ 12
आ@@ 12
नी@@ 12
राज@@ 12
ै 12
ਰ@@ 12
ੰ@@ 12
พื้@@ 12
ც@@ 12
ញ@@ 12
ឧ@@ 12
ắ 12
ῆ@@ 12
∆ 12
○ 12
♡@@ 12
⟩ 12
く 12
ぼ@@ 12
ズ 12
丞@@ 12
中华@@ 12
亥@@ 12
優@@ 12
兄@@ 12
其@@ 12
切@@ 12
制@@ 12
卓@@ 12
危@@ 12
叉 12
君 12
咲@@ 12
員@@ 12
團@@ 12
声@@ 12
夕@@ 12
奥@@ 12
完@@ 12
宫@@ 12
寒@@ 12
巨@@ 12
帥@@ 12
平 12
年 12
庄@@ 12
庆@@ 12
府 12
彩@@ 12
想@@ 12
懷@@ 12
料@@ 12
於@@ 12
施@@ 12
旅@@ 12
时@@ 12
暴@@ 12
杭@@ 12
浮@@ 12
湯@@ 12
熹@@ 12
珍@@ 12
病@@ 12
皇 12
睿@@ 12
祐@@ 12
笑@@ 12
粉@@ 12
絵@@ 12
綱@@ 12
織@@ 12
肅@@ 12
般@@ 12
茂@@ 12
藩@@ 12
蛇@@ 12
衡@@ 12
記 12
誠@@ 12
速@@ 12
邪@@ 12
钱@@ 12
频@@ 12
飯@@ 12
骨@@ 12
걸@@ 12
금@@ 12
덕@@ 12
래@@ 12
바@@ 12
석@@ 12
운@@ 12
은 12
타@@ 12
﻿ 12
Brasil 11
Flug@@ 11
Nguy@@ 11
Osman@@ 11
Par 11
aras@@ 11
arias 11
became 11
become 11
bir 11
came 11
chez 11
commune 11
conoc@@ 11
dedic@@ 11
deutsch@@ 11
died 11
dik@@ 11
duk@@ 11
elde 11
established 11
favor@@ 11
fica 11
grande 11
however 11
icht@@ 11
ilde 11
inay@@ 11
istre 11
jed@@ 11
liche 11
lieb 11
located 11
loi 11
mak 11
mch@@ 11
onio 11
oren 11
partement 11
primer 11
sana 11
schi@@ 11
sti 11
uela 11
visit@@ 11
werk 11
west@@ 11
zil@@ 11
¥ 11
Þ 11
ê@@ 11
ø@@ 11
ĩ 11
ş@@ 11
ɑ 11
ʊ 11
ˊ@@ 11
Ο@@ 11
έρ@@ 11
νη@@ 11
ο 11
οπ@@ 11
της 11
τι@@ 11
όν 11
Бе@@ 11
Ж@@ 11
а 11
ве@@ 11
вич 11
ко@@ 11
ле@@ 11
м 11
си@@ 11
ска 11
ха@@ 11
ъ@@ 11
ֶ@@ 11
ֹ@@ 11
ـ@@ 11
في 11
وي@@ 11
چ@@ 11
ڠ 11
ܬ@@ 11
ः 11
कु@@ 11
ति@@ 11
देवी 11
ने@@ 11
वे@@ 11
ार@@ 11
ॐ 11
ন@@ 11
ু@@ 11
্@@ 11
ਸ@@ 11
ச@@ 11
๎ 11
ဆ@@ 11
ữ 11
ỳ 11
ἐ@@ 11
ῦ@@ 11
  11
⅓ 11
ⵍ@@ 11
々@@ 11
』 11
お 11
け 11
た 11
て 11
ぬ@@ 11
゚ 11
ヶ@@ 11
乙@@ 11
井 11
亞@@ 11
他@@ 11
休@@ 11
俠@@ 11
偉@@ 11
兰@@ 11
再@@ 11
冬@@ 11
勢@@ 11
卿@@ 11
味@@ 11
圆@@ 11
國 11
坂@@ 11
坊@@ 11
坡@@ 11
奕@@ 11
姓@@ 11
姜@@ 11
峰@@ 11
幕@@ 11
庚@@ 11
徒@@ 11
悟@@ 11
意@@ 11
戒@@ 11
挑@@ 11
揚@@ 11
攻@@ 11
敏@@ 11
晋@@ 11
案@@ 11
桐@@ 11
欽@@ 11
歲@@ 11
殷@@ 11
水 11
汗@@ 11
決@@ 11
津@@ 11
消@@ 11
淵@@ 11
溫@@ 11
滅@@ 11
灯@@ 11
狐@@ 11
狼@@ 11
略@@ 11
碧@@ 11
禹@@ 11
種@@ 11
突@@ 11
素@@ 11
終@@ 11
育@@ 11
航@@ 11
莉@@ 11
莫@@ 11
蔣@@ 11
蔵@@ 11
表@@ 11
襄@@ 11
豹@@ 11
軌@@ 11
辭@@ 11
运@@ 11
錢@@ 11
锡@@ 11
雀@@ 11
雅@@ 11
静@@ 11
音 11
項@@ 11
類@@ 11
顺@@ 11
首@@ 11
鱼@@ 11
관@@ 11
국 11
나 11
는@@ 11
돈@@ 11
랑 11
복@@ 11
봉@@ 11
저@@ 11
직@@ 11
창@@ 11
？@@ 11
Califor@@ 10
Durch@@ 10
Gesch@@ 10
Isra@@ 10
Phi 10
Pia 10
Pour 10
Uganda 10
abaj@@ 10
afr@@ 10
bul 10
command@@ 10
coul@@ 10
denomin@@ 10
enten 10
ersch@@ 10
eten 10
faire 10
herr@@ 10
huy@@ 10
idente 10
itali@@ 10
kav@@ 10
kip@@ 10
km@@ 10
kup@@ 10
luk 10
mik@@ 10
milit@@ 10
naci@@ 10
porte 10
princi@@ 10
produ@@ 10
rue 10
situ@@ 10
tout 10
ubic@@ 10
wala 10
wie 10
xico 10
zum 10
¬ 10
Å@@ 10
Ł@@ 10
Š@@ 10
ʼ@@ 10
Γ@@ 10
Σ 10
Φ@@ 10
Ψ@@ 10
ή 10
αλ@@ 10
κύ@@ 10
να@@ 10
ομ@@ 10
σκ@@ 10
τα@@ 10
Ј@@ 10
Ан@@ 10
О 10
Са@@ 10
ан@@ 10
бо@@ 10
г 10
до@@ 10
ки@@ 10
п@@ 10
публи@@ 10
сти@@ 10
х 10
ц@@ 10
ца@@ 10
ای@@ 10
بي@@ 10
دي@@ 10
ر 10
رة 10
زي@@ 10
لا 10
ما@@ 10
من 10
نا 10
يد 10
يُ@@ 10
پ@@ 10
ڤ@@ 10
पा@@ 10
पु@@ 10
म 10
े@@ 10
् 10
ব@@ 10
ட@@ 10
ர@@ 10
ு@@ 10
మ@@ 10
ల@@ 10
ර@@ 10
ལ@@ 10
ྲ@@ 10
ဲ@@ 10
ბ@@ 10
ე@@ 10
ក 10
ង 10
ផ@@ 10
ៃ@@ 10
ៈ@@ 10
៌@@ 10
ḗ 10
ḷ 10
ṓ 10
ề 10
ủ 10
ứ 10
↑ 10
↗@@ 10
∈@@ 10
∑ 10
♡ 10
♪@@ 10
⟩@@ 10
ⲓ@@ 10
ⲛ@@ 10
ⲟ@@ 10
ち 10
つ 10
ま 10
ユ@@ 10
上 10
事 10
亜@@ 10
什@@ 10
介@@ 10
件@@ 10
众@@ 10
允@@ 10
元 10
光 10
典 10
協@@ 10
卷@@ 10
参@@ 10
史 10
圓@@ 10
场@@ 10
垣@@ 10
壇@@ 10
夫 10
妙@@ 10
安 10
実@@ 10
就@@ 10
屠@@ 10
島 10
己@@ 10
市 10
庭@@ 10
彼@@ 10
性@@ 10
感@@ 10
才@@ 10
敵@@ 10
服@@ 10
朗@@ 10
朴@@ 10
東 10
歌 10
此@@ 10
气@@ 10
氣@@ 10
沈@@ 10
油@@ 10
泥@@ 10
淳@@ 10
滿@@ 10
澤@@ 10
焼@@ 10
煎@@ 10
爭@@ 10
班@@ 10
琪@@ 10
町@@ 10
異@@ 10
禁@@ 10
篇@@ 10
約@@ 10
維@@ 10
线@@ 10
翼@@ 10
胜@@ 10
获@@ 10
葛@@ 10
薩@@ 10
藝@@ 10
藩 10
號@@ 10
蝶@@ 10
蟲@@ 10
衝@@ 10
被@@ 10
裕@@ 10
裴@@ 10
視@@ 10
詩@@ 10
誕@@ 10
謙@@ 10
謝@@ 10
论@@ 10
话@@ 10
谢@@ 10
賊@@ 10
迎@@ 10
部 10
里 10
錦@@ 10
鑑@@ 10
門 10
陽 10
隸@@ 10
霍@@ 10
頃@@ 10
飞@@ 10
馮@@ 10
高 10
魂@@ 10
鮮@@ 10
鼎@@ 10
齋@@ 10
각@@ 10
간@@ 10
빈 10
생@@ 10
서 10
즈@@ 10
지 10
철@@ 10
청@@ 10
티@@ 10
혜@@ 10
회@@ 10
효@@ 10
Bir 9
COVID 9
Eurov@@ 9
Nga 9
Tanz@@ 9
Tod 9
Wash@@ 9
Yeni 9
adil@@ 9
anah@@ 9
arriv@@ 9
auf 9
bau 9
baz@@ 9
bern@@ 9
carr@@ 9
celebr@@ 9
cito 9
cultur@@ 9
east 9
entre 9
fahr@@ 9
film@@ 9
hier 9
homme 9
hud@@ 9
huu 9
icha 9
isons 9
kik@@ 9
kim 9
kirche 9
kuj@@ 9
lande 9
march@@ 9
ndi@@ 9
occu@@ 9
origin@@ 9
parte 9
program@@ 9
quan 9
record@@ 9
riff 9
served 9
sik@@ 9
spor@@ 9
tions@@ 9
waz@@ 9
´@@ 9
Â 9
Ñ 9
Ö@@ 9
ń@@ 9
ź 9
Ż 9
ž@@ 9
ɣ@@ 9
ɯ@@ 9
ʈ@@ 9
̄@@ 9
̅@@ 9
̥ 9
ί 9
δο@@ 9
θε@@ 9
θη@@ 9
κτ@@ 9
λόγ@@ 9
ου@@ 9
οφ@@ 9
πα@@ 9
ρί@@ 9
στο@@ 9
υμ@@ 9
ωρ@@ 9
В 9
Ко@@ 9
У 9
Ш 9
Я@@ 9
ва 9
евич 9
ж@@ 9
ль@@ 9
о 9
со@@ 9
ти@@ 9
э 9
ѣ@@ 9
ר 9
اس@@ 9
الق@@ 9
بن@@ 9
ة 9
من@@ 9
وا 9
وا@@ 9
ول@@ 9
ܟ@@ 9
ँ@@ 9
कर@@ 9
रि@@ 9
री@@ 9
व 9
सं@@ 9
ম@@ 9
ర@@ 9
ా@@ 9
ຂ@@ 9
ນ 9
ໃ@@ 9
།@@ 9
ვ@@ 9
მ 9
ქ@@ 9
ឌ@@ 9
ឝ@@ 9
ឥ@@ 9
ᠠ@@ 9
ṯ@@ 9
ế@@ 9
ớ 9
ử 9
ὑ@@ 9
∘ 9
∨ 9
☉ 9
♭ 9
⟨ 9
『 9
さ 9
ず 9
せ 9
は 9
カ 9
ド 9
业@@ 9
亀@@ 9
令 9
健@@ 9
備@@ 9
像@@ 9
儿@@ 9
兩@@ 9
剛@@ 9
務@@ 9
匈@@ 9
区 9
卒@@ 9
发@@ 9
句@@ 9
向@@ 9
啟@@ 9
团@@ 9
天 9
奖 9
姐@@ 9
嬪 9
対@@ 9
庸@@ 9
廷@@ 9
怖@@ 9
慎@@ 9
技@@ 9
掌@@ 9
收@@ 9
文 9
斎@@ 9
断@@ 9
昆@@ 9
晏@@ 9
术@@ 9
条 9
板@@ 9
棒@@ 9
森 9
沢@@ 9
漫@@ 9
漳@@ 9
熱@@ 9
片@@ 9
状@@ 9
玲@@ 9
現@@ 9
琳@@ 9
甫@@ 9
盧@@ 9
省 9
砕@@ 9
祿@@ 9
穎@@ 9
竇@@ 9
米@@ 9
翁@@ 9
耀@@ 9
而@@ 9
耳@@ 9
脱@@ 9
舊@@ 9
舜@@ 9
舟@@ 9
艺@@ 9
芙@@ 9
芝@@ 9
芸@@ 9
葉 9
葵@@ 9
虚@@ 9
虹@@ 9
覺@@ 9
談@@ 9
警@@ 9
记@@ 9
豐@@ 9
豪@@ 9
豫@@ 9
貢@@ 9
賜@@ 9
転@@ 9
进@@ 9
逢@@ 9
逸@@ 9
選@@ 9
邑@@ 9
金 9
闇@@ 9
防@@ 9
陛@@ 9
雄 9
集 9
靜@@ 9
願@@ 9
香 9
體@@ 9
鼠@@ 9
龐@@ 9
개@@ 9
그@@ 9
려@@ 9
메@@ 9
물@@ 9
식@@ 9
악@@ 9
어 9
엔@@ 9
위@@ 9
음@@ 9
자 9
주 9
준@@ 9
차@@ 9
프@@ 9
형@@ 9
 9
－@@ 9
Arbeit@@ 8
Auf@@ 8
Como 8
Kig@@ 8
Schwe@@ 8
Sein 8
actual 8
adora 8
aifa 8
ampi@@ 8
atif 8
atur 8
avec 8
bere@@ 8
cier@@ 8
comme 8
como 8
deci@@ 8
einen 8
ekt 8
ellas 8
emble 8
enden 8
ensa 8
establ@@ 8
estas 8
fak@@ 8
faz@@ 8
fot@@ 8
franc@@ 8
git@@ 8
gol 8
haa 8
hari@@ 8
interpre@@ 8
intro@@ 8
jaw@@ 8
kehr@@ 8
laya 8
leich@@ 8
lieu 8
llam@@ 8
logr@@ 8
mez 8
mittel@@ 8
moved 8
municipal@@ 8
nach 8
nach@@ 8
nacional 8
nicht 8
onge@@ 8
ongo@@ 8
oyn@@ 8
personn@@ 8
respectiv@@ 8
rir 8
sah@@ 8
schen 8
several 8
signed 8
siy@@ 8
sud 8
teilung 8
tere 8
trois 8
ungu 8
uvo 8
vier@@ 8
vile 8
vom 8
wach@@ 8
zial@@ 8
¿ 8
Ä@@ 8
È 8
ã@@ 8
û@@ 8
Ī 8
ů 8
ɒ 8
ʒ 8
ʿ@@ 8
̃@@ 8
̪ 8
Ψ 8
ατ@@ 8
δι@@ 8
θος 8
οδ@@ 8
ορ@@ 8
υ 8
ων 8
Бо@@ 8
Ка@@ 8
Ма@@ 8
На@@ 8
Р 8
С 8
Ю@@ 8
ат@@ 8
ев@@ 8
им@@ 8
ная 8
не@@ 8
сто@@ 8
сь@@ 8
че@@ 8
эн@@ 8
ё@@ 8
ө 8
ׁ@@ 8
כ@@ 8
ء@@ 8
ئ@@ 8
الد@@ 8
الص@@ 8
الن@@ 8
ان 8
تا@@ 8
ج 8
ح 8
رو@@ 8
س 8
ض@@ 8
ع 8
ف 8
فر@@ 8
ل 8
لو@@ 8
مان 8
مت 8
مع@@ 8
مل@@ 8
مُ@@ 8
ܒ@@ 8
ܡ@@ 8
ܩ@@ 8
ंद@@ 8
गो@@ 8
घ@@ 8
छ@@ 8
भाषा@@ 8
यु@@ 8
रह@@ 8
ल 8
लि@@ 8
ु 8
ु@@ 8
র@@ 8
ੁ@@ 8
ି@@ 8
ங@@ 8
ன@@ 8
ல@@ 8
್@@ 8
്@@ 8
්@@ 8
๎@@ 8
๚@@ 8
ཁ@@ 8
པ@@ 8
ဂ@@ 8
ဃ@@ 8
უ 8
ჲ 8
ប 8
ម 8
យ 8
ៀ@@ 8
ំ 8
ṛ@@ 8
ằ 8
ợ 8
Ἰ@@ 8
‏@@ 8
⁠@@ 8
⌋ 8
ⲙ@@ 8
【@@ 8
あ 8
ぜ@@ 8
へ 8
ぽ@@ 8
を 8
ブ 8
ヲ@@ 8
世 8
中 8
二 8
们@@ 8
份@@ 8
侠@@ 8
倭@@ 8
僕@@ 8
儂@@ 8
儒@@ 8
儼@@ 8
关@@ 8
冠@@ 8
冰@@ 8
午@@ 8
卫@@ 8
历@@ 8
叔@@ 8
口 8
叶@@ 8
后 8
员@@ 8
咸@@ 8
哀@@ 8
執@@ 8
報@@ 8
塞@@ 8
境@@ 8
娥@@ 8
媧@@ 8
宵@@ 8
家 8
寄@@ 8
察@@ 8
射@@ 8
将 8
岛@@ 8
差@@ 8
希@@ 8
帝 8
広@@ 8
座@@ 8
廟@@ 8
弥@@ 8
從@@ 8
忘@@ 8
怒@@ 8
悲@@ 8
惑@@ 8
懐@@ 8
所 8
打@@ 8
护@@ 8
报@@ 8
拔@@ 8
拜@@ 8
敖@@ 8
末@@ 8
樓@@ 8
権@@ 8
横@@ 8
權@@ 8
歐@@ 8
武 8
汤@@ 8
汪@@ 8
浩@@ 8
溥@@ 8
瀬@@ 8
点@@ 8
独@@ 8
猿@@ 8
環@@ 8
皮@@ 8
監@@ 8
看@@ 8
県@@ 8
眼@@ 8
空 8
第 8
管@@ 8
範@@ 8
級@@ 8
索@@ 8
紹@@ 8
絕@@ 8
绪@@ 8
网@@ 8
罪@@ 8
羊@@ 8
群@@ 8
羲@@ 8
耶@@ 8
聯@@ 8
腳@@ 8
至@@ 8
色 8
苦@@ 8
萨@@ 8
蟲 8
裏@@ 8
製@@ 8
角 8
誰@@ 8
讓@@ 8
財@@ 8
賀@@ 8
贝@@ 8
輔@@ 8
輪@@ 8
辰@@ 8
迪@@ 8
送@@ 8
邵@@ 8
郎 8
醫@@ 8
閃@@ 8
閣@@ 8
閩@@ 8
院 8
陶@@ 8
険@@ 8
青 8
響@@ 8
餅@@ 8
龍 8
건@@ 8
근@@ 8
기 8
내@@ 8
돌@@ 8
드@@ 8
들@@ 8
량@@ 8
목@@ 8
빠@@ 8
상 8
설@@ 8
암@@ 8
야 8
요 8
좋@@ 8
초@@ 8
화 8
@@ 8
－ 8
According 7
Allem@@ 7
Ankara 7
Bahari 7
Dezember 7
Eine 7
Estado 7
Mittel@@ 7
Mw@@ 7
Por 7
Staats@@ 7
Sud 7
Trung 7
Verein 7
Wasser@@ 7
Zeit@@ 7
afu 7
aliy@@ 7
angu 7
awali 7
biy@@ 7
bres 7
chini 7
chung 7
dici@@ 7
dipl@@ 7
dont 7
ellos 7
entro 7
erung 7
escu@@ 7
eso 7
fte 7
hali 7
ichte 7
ikan@@ 7
important 7
incia 7
inco 7
issen@@ 7
jos 7
juli@@ 7
kamp@@ 7
khi@@ 7
kung 7
lagen 7
leh@@ 7
licher 7
mev@@ 7
mez@@ 7
mise 7
msh@@ 7
muda 7
nete 7
ngu@@ 7
north 7
occas@@ 7
onales 7
prak@@ 7
realiz@@ 7
tig 7
tous 7
ufu 7
yote 7
zas 7
zey@@ 7
§@@ 7
å@@ 7
þ@@ 7
ğ@@ 7
ľ 7
ũ@@ 7
ț 7
ɲ 7
ʁ 7
ʻ@@ 7
ˤ@@ 7
̀ 7
̰ 7
άκ@@ 7
απ@@ 7
δε@@ 7
δελφ@@ 7
ει 7
εν@@ 7
ις 7
λλ@@ 7
λογ@@ 7
νε@@ 7
οι@@ 7
πλ@@ 7
ρά@@ 7
ρον@@ 7
τί@@ 7
των 7
υπ@@ 7
φύ@@ 7
Є 7
І@@ 7
А 7
Ар@@ 7
Го@@ 7
К 7
М 7
Росси@@ 7
Т 7
Э@@ 7
али@@ 7
га@@ 7
ду@@ 7
ер@@ 7
з 7
ка 7
лы@@ 7
льная 7
ор@@ 7
ос@@ 7
ров@@ 7
ски 7
ст@@ 7
ф 7
ф@@ 7
хо@@ 7
ы 7
ё 7
ђ@@ 7
ә@@ 7
Ө@@ 7
ե@@ 7
ր@@ 7
ם@@ 7
اء@@ 7
ار 7
اف@@ 7
الإسلا@@ 7
الش@@ 7
الك@@ 7
الي@@ 7
ام 7
اور@@ 7
تح@@ 7
تُ@@ 7
عبد@@ 7
عل@@ 7
لی@@ 7
ملا@@ 7
ند@@ 7
وال@@ 7
ٍ 7
ڠ@@ 7
گ@@ 7
ܕ@@ 7
ަ@@ 7
ः@@ 7
को@@ 7
गु@@ 7
ञ@@ 7
त 7
ता 7
ती@@ 7
दि@@ 7
बा@@ 7
बु@@ 7
मु@@ 7
रे@@ 7
शा@@ 7
सा@@ 7
ि@@ 7
ृ@@ 7
ਹ@@ 7
ం@@ 7
్@@ 7
ಮ@@ 7
ි@@ 7
๏ 7
ວ 7
ຮ@@ 7
་ 7
ྒ@@ 7
ဖ@@ 7
ု 7
ႈ@@ 7
ឆ@@ 7
វ 7
ឡ@@ 7
ា 7
៍@@ 7
᩠@@ 7
ḇ 7
Ṣ 7
ṯ 7
ể 7
ệ@@ 7
ụ 7
Ἐ@@ 7
ἱ@@ 7
ἶ@@ 7
ὄ@@ 7
ὐ@@ 7
ὕ@@ 7
ῶ@@ 7
ⁿ@@ 7
ℰ@@ 7
↘@@ 7
∀ 7
∅ 7
∧ 7
∨@@ 7
≤@@ 7
⋯ 7
★@@ 7
ⲕ@@ 7
ⵎ@@ 7
げ@@ 7
そ 7
わ 7
ゥ 7
ウ 7
キ 7
グ 7
ゾ@@ 7
ヌ@@ 7
ロ 7
ㄣ@@ 7
ㄥ@@ 7
㋮@@ 7
个@@ 7
丽@@ 7
乡@@ 7
亡@@ 7
产@@ 7
京 7
仙 7
体 7
依@@ 7
倩@@ 7
偵@@ 7
児@@ 7
具@@ 7
凌@@ 7
凤@@ 7
凰@@ 7
刀 7
刻@@ 7
动@@ 7
努@@ 7
勝 7
勳@@ 7
协@@ 7
占@@ 7
名 7
吾@@ 7
员 7
呪@@ 7
喀@@ 7
団 7
型@@ 7
堀@@ 7
塘@@ 7
夢 7
大学 7
嬰@@ 7
存@@ 7
宛@@ 7
宮 7
宿@@ 7
寺 7
専@@ 7
尉 7
導@@ 7
展@@ 7
嵐@@ 7
巾@@ 7
幽@@ 7
弟@@ 7
微@@ 7
恆@@ 7
情 7
惟@@ 7
應@@ 7
戚@@ 7
拯@@ 7
持@@ 7
操@@ 7
散@@ 7
方 7
星 7
晴@@ 7
書 7
杰@@ 7
极@@ 7
械@@ 7
欣@@ 7
歷@@ 7
求@@ 7
汴@@ 7
沒@@ 7
沛 7
流 7
浄@@ 7
涙@@ 7
潤@@ 7
激@@ 7
灵@@ 7
牌@@ 7
牡@@ 7
獅@@ 7
琴@@ 7
瓊@@ 7
発@@ 7
盤@@ 7
目 7
祁@@ 7
祭@@ 7
禅@@ 7
節 7
経@@ 7
緒@@ 7
編 7
縄@@ 7
罠@@ 7
耿@@ 7
聚@@ 7
職@@ 7
股@@ 7
致@@ 7
苗@@ 7
茶 7
药@@ 7
莽@@ 7
蓉@@ 7
薇@@ 7
虫 7
融@@ 7
観@@ 7
訓@@ 7
説 7
譚@@ 7
貫@@ 7
賭@@ 7
車 7
退@@ 7
邓@@ 7
酒@@ 7
野 7
錄@@ 7
鐘@@ 7
閻@@ 7
陆 7
隊 7
零@@ 7
露@@ 7
顏@@ 7
顧@@ 7
飯 7
饶@@ 7
鲁@@ 7
鲜@@ 7
鶴@@ 7
겸@@ 7
과@@ 7
귀@@ 7
까@@ 7
난@@ 7
내 7
녀@@ 7
누@@ 7
대 7
더@@ 7
디@@ 7
령@@ 7
로 7
를 7
모@@ 7
몰@@ 7
버@@ 7
베@@ 7
불@@ 7
브@@ 7
비 7
송 7
울@@ 7
원 7
을@@ 7
키@@ 7
항@@ 7
행@@ 7
ａ@@ 7
Aires 6
Ayr@@ 6
Bei 6
Buenos 6
Frau 6
Guerre 6
Hindi 6
Musik@@ 6
Oly@@ 6
Stad@@ 6
Tanzania 6
Unternehmen 6
abab@@ 6
aband@@ 6
alim@@ 6
ancia 6
atique 6
autor@@ 6
autre 6
autres 6
ded@@ 6
dej@@ 6
descri@@ 6
eben 6
ecto 6
ecu@@ 6
elected 6
emas 6
emba 6
enen 6
enso 6
erte 6
eser@@ 6
especi@@ 6
ezi 6
gemein@@ 6
geri 6
ghi 6
gique 6
graf@@ 6
inaug@@ 6
joined 6
jour 6
kale 6
kam 6
khi 6
kiye 6
kreis 6
lieg@@ 6
maya 6
mbal@@ 6
muz@@ 6
ober@@ 6
onya 6
opened 6
origine 6
ouvern@@ 6
pein@@ 6
pili 6
pios 6
platz 6
poco 6
pour@@ 6
result@@ 6
scheid@@ 6
schrift 6
sehen 6
sek@@ 6
sind 6
south 6
stad@@ 6
started 6
suite 6
teil 6
tiy@@ 6
tof@@ 6
toire 6
unu 6
uzo 6
vez 6
yay@@ 6
zeit 6
 6
¬@@ 6
Þ@@ 6
ý@@ 6
ě@@ 6
ġ 6
Ħ 6
ň@@ 6
ũ 6
ŭ@@ 6
ű 6
ǒ@@ 6
ɓ@@ 6
ɨ@@ 6
ʂ@@ 6
ʌ 6
ʲ@@ 6
ˌ@@ 6
˧@@ 6
Α 6
Η@@ 6
Θε@@ 6
έλ@@ 6
έπ@@ 6
ήν@@ 6
ίλ@@ 6
ίν@@ 6
αί@@ 6
αβ@@ 6
αθ@@ 6
αμ@@ 6
ας 6
ασ@@ 6
βι@@ 6
γκ@@ 6
γράφ@@ 6
δρο@@ 6
λέ@@ 6
λα@@ 6
ού@@ 6
παρ@@ 6
πολι@@ 6
ργ@@ 6
ρος 6
τικός 6
υσ@@ 6
όσ@@ 6
Ё 6
Ал@@ 6
Влади@@ 6
Й 6
Кара@@ 6
Л 6
Ф 6
Ы@@ 6
Ь 6
ате@@ 6
де@@ 6
ды@@ 6
же@@ 6
ко 6
ме@@ 6
миро@@ 6
мя@@ 6
от@@ 6
по@@ 6
ской 6
стан@@ 6
ур@@ 6
це@@ 6
ч 6
ң@@ 6
ӣ 6
ո@@ 6
أبو 6
اء 6
اد 6
الحدي@@ 6
العربية 6
الف@@ 6
انی@@ 6
با@@ 6
بر@@ 6
بی@@ 6
خ 6
دی@@ 6
سل@@ 6
ش 6
شا@@ 6
شه@@ 6
علم 6
لي@@ 6
نا@@ 6
نی@@ 6
وق@@ 6
يم@@ 6
کی@@ 6
ۇ@@ 6
एक 6
कि@@ 6
च 6
जय@@ 6
टा@@ 6
ठ@@ 6
दे@@ 6
पर@@ 6
मं@@ 6
मो@@ 6
ली 6
वी@@ 6
सु@@ 6
हि@@ 6
़ 6
ং@@ 6
ক@@ 6
ਜ@@ 6
ਮ@@ 6
ਲ@@ 6
த@@ 6
ள@@ 6
் 6
య@@ 6
ీ@@ 6
ಕ@@ 6
ಾ@@ 6
ා@@ 6
ຖ@@ 6
ໝ@@ 6
ཀ@@ 6
ត 6
ទ 6
ᠨ@@ 6
ᠩ@@ 6
ḇ@@ 6
ḫ 6
ẓ 6
ổ@@ 6
ộ@@ 6
ὀ@@ 6
  6
‪ 6
‬ 6
♥@@ 6
♯ 6
ⲣ@@ 6
ⵉ@@ 6
な 6
ゅ@@ 6
ゥ@@ 6
シ 6
タ 6
ヂ@@ 6
ヅ@@ 6
リ 6
ㄕ@@ 6
专@@ 6
丰@@ 6
乘@@ 6
乞@@ 6
也 6
争@@ 6
优@@ 6
伟@@ 6
倒@@ 6
候@@ 6
兆@@ 6
兵 6
円@@ 6
凡@@ 6
剑@@ 6
副@@ 6
勒@@ 6
单@@ 6
取@@ 6
变@@ 6
启@@ 6
呼@@ 6
和 6
哥@@ 6
唱@@ 6
問@@ 6
喜 6
單@@ 6
嘴@@ 6
器@@ 6
因@@ 6
垂@@ 6
場 6
壬@@ 6
夜 6
契@@ 6
妹@@ 6
姑@@ 6
委@@ 6
姚@@ 6
姿@@ 6
娱@@ 6
媚@@ 6
媛@@ 6
孤@@ 6
学 6
宇 6
宪@@ 6
宰@@ 6
寇@@ 6
寝@@ 6
岐@@ 6
岑@@ 6
岩@@ 6
席@@ 6
强@@ 6
弾@@ 6
彥@@ 6
怀@@ 6
恒@@ 6
愛 6
憂@@ 6
戊@@ 6
戌@@ 6
戦 6
扶@@ 6
折@@ 6
招@@ 6
排@@ 6
推@@ 6
救@@ 6
敢@@ 6
敦@@ 6
旦@@ 6
旭@@ 6
暎@@ 6
暹@@ 6
木 6
朵@@ 6
柏@@ 6
梵@@ 6
検@@ 6
楼@@ 6
様@@ 6
檜@@ 6
歩@@ 6
毅@@ 6
氏 6
沛@@ 6
沩@@ 6
法 6
洗@@ 6
海 6
涛@@ 6
湛@@ 6
滷@@ 6
演 6
澳@@ 6
炳@@ 6
熊@@ 6
熟@@ 6
燈@@ 6
牧@@ 6
狸@@ 6
猛@@ 6
猪@@ 6
猫@@ 6
猿 6
率@@ 6
甜@@ 6
産@@ 6
皆@@ 6
益@@ 6
盟@@ 6
盡@@ 6
眠@@ 6
着@@ 6
石 6
砲@@ 6
碩@@ 6
章 6
符@@ 6
第一@@ 6
籠@@ 6
粹@@ 6
粿@@ 6
納@@ 6
綏@@ 6
緣 6
组@@ 6
缺@@ 6
考@@ 6
芒@@ 6
芬@@ 6
芭@@ 6
花 6
荊@@ 6
荒@@ 6
莆@@ 6
莲@@ 6
蒲@@ 6
蓝@@ 6
蓬@@ 6
藍@@ 6
虎 6
衍@@ 6
覇@@ 6
见@@ 6
許 6
該@@ 6
语 6
说@@ 6
请@@ 6
豆 6
質@@ 6
贊@@ 6
轉@@ 6
过@@ 6
迷@@ 6
這@@ 6
過@@ 6
適@@ 6
邯@@ 6
郑@@ 6
都 6
酉@@ 6
配@@ 6
鈴@@ 6
鋼@@ 6
钟@@ 6
锋@@ 6
陀@@ 6
陵 6
雞@@ 6
難@@ 6
雯@@ 6
零 6
霊@@ 6
霧@@ 6
鞍@@ 6
頊@@ 6
食 6
饼@@ 6
馬 6
験@@ 6
驚@@ 6
鳴@@ 6
鴨@@ 6
鸡@@ 6
麵@@ 6
麺 6
麺@@ 6
감@@ 6
난 6
너@@ 6
눈@@ 6
도 6
드 6
등@@ 6
라 6
레@@ 6
렬@@ 6
룡@@ 6
림@@ 6
묘@@ 6
민 6
밀@@ 6
발@@ 6
배@@ 6
선 6
성 6
속@@ 6
열@@ 6
옥@@ 6
육@@ 6
인 6
일 6
적@@ 6
제 6
천 6
춘@@ 6
통@@ 6
환@@ 6
훈@@ 6
@@ 6
@@ 6
️@@ 6
／@@ 6
ｔ@@ 6
Anh 5
Grenz@@ 5
Guin@@ 5
Hoa 5
Juli 5
Kongo 5
Lond@@ 5
Mp@@ 5
Platz 5
Sept@@ 5
aliye@@ 5
altung 5
ambu@@ 5
angla@@ 5
arios 5
auen 5
ayar@@ 5
cao 5
chter 5
cion@@ 5
ciones 5
contribu@@ 5
cual 5
deter@@ 5
dini 5
dung 5
eden 5
egos 5
ehem@@ 5
eht 5
eint 5
elik 5
empl@@ 5
empres@@ 5
enst 5
entre@@ 5
erne@@ 5
ewa 5
fang@@ 5
feh@@ 5
fond@@ 5
frances@@ 5
guerre 5
hasa 5
import@@ 5
istas 5
jeu 5
lichkeit 5
malar@@ 5
married 5
mau@@ 5
mji 5
muz 5
naf@@ 5
nah@@ 5
ngo@@ 5
noch 5
novel@@ 5
ohne 5
partir 5
pays 5
phong 5
premier 5
propos@@ 5
quatre 5
reib@@ 5
rek@@ 5
schaften 5
schafts@@ 5
sche@@ 5
serie 5
soit 5
students 5
teurs 5
tros 5
umia 5
unas 5
undan 5
uzi 5
vard@@ 5
vek@@ 5
zeu@@ 5
zeug@@ 5
zor@@ 5
zus@@ 5
¥@@ 5
© 5
Â@@ 5
Æ@@ 5
Í@@ 5
ą@@ 5
ĩ@@ 5
ĭ 5
ň 5
Ő 5
Ş@@ 5
ƒ 5
ǎ@@ 5
ǫ 5
ɒ@@ 5
ɕ 5
ɗ@@ 5
ɡ 5
ɲ@@ 5
ɴ@@ 5
ɹ@@ 5
ɾ 5
ʏ@@ 5
̄ 5
͡ 5
Β 5
άγ@@ 5
ίκ@@ 5
αδ@@ 5
αυ@@ 5
βασ@@ 5
γαλ@@ 5
εί@@ 5
εδ@@ 5
ειδ@@ 5
ζ 5
ηλε@@ 5
ιγ@@ 5
ική 5
ιχ@@ 5
κά@@ 5
κερ@@ 5
κος 5
κου@@ 5
λευ@@ 5
μά@@ 5
μέ@@ 5
με@@ 5
μο@@ 5
μπ@@ 5
ολ@@ 5
πι@@ 5
πος 5
ριστ@@ 5
ρκ@@ 5
τέ@@ 5
τρα 5
τρο@@ 5
τό@@ 5
φυ@@ 5
Б 5
Ба@@ 5
Васи@@ 5
Д 5
До@@ 5
Е 5
З 5
Н 5
Ор@@ 5
П 5
По@@ 5
Про@@ 5
Та@@ 5
ав@@ 5
б 5
би@@ 5
гу@@ 5
жа@@ 5
за@@ 5
йн 5
ке@@ 5
ку@@ 5
ла 5
мен@@ 5
нин@@ 5
нов 5
об@@ 5
п 5
пу@@ 5
се@@ 5
ски@@ 5
ство 5
ство@@ 5
у 5
ш 5
ша@@ 5
ї@@ 5
ҷ@@ 5
ә 5
ի@@ 5
լ@@ 5
ն@@ 5
ד 5
ם 5
צ@@ 5
ש 5
ائ@@ 5
اج@@ 5
افغ@@ 5
الإ@@ 5
به@@ 5
تق@@ 5
ث 5
حر@@ 5
در@@ 5
دُ@@ 5
ری@@ 5
سط@@ 5
سع@@ 5
سلط@@ 5
سو@@ 5
علی 5
في@@ 5
كة 5
مار@@ 5
مدينة 5
مط@@ 5
مه@@ 5
ول 5
ولي@@ 5
وم 5
وم@@ 5
ً 5
ً@@ 5
ٌ 5
یا 5
ە@@ 5
۱@@ 5
ܢ@@ 5
इ@@ 5
की 5
कै@@ 5
जन@@ 5
जि@@ 5
ढ@@ 5
ण 5
दा@@ 5
दी@@ 5
न 5
नी 5
भ@@ 5
भी@@ 5
मी@@ 5
मे@@ 5
यो@@ 5
री 5
रु@@ 5
ला@@ 5
ले@@ 5
वै@@ 5
शि@@ 5
हा@@ 5
ू@@ 5
। 5
গ@@ 5
ঙ@@ 5
ਨ@@ 5
ਬ@@ 5
ழ@@ 5
ூ@@ 5
ை 5
న@@ 5
వ@@ 5
ಬ@@ 5
ರ@@ 5
ಿ@@ 5
ත@@ 5
ම@@ 5
ල@@ 5
ස@@ 5
ດ 5
ཆ@@ 5
ཙ@@ 5
ྐ@@ 5
ံ 5
ឃ@@ 5
ស 5
ៈ 5
៕@@ 5
៣ 5
ᠵ@@ 5
ᡠ@@ 5
ᡤ@@ 5
ᡵ@@ 5
ḷ@@ 5
ṁ 5
Ṭ 5
ἡ 5
ὁ 5
ῥ@@ 5
 @@ 5
 @@ 5
‒ 5
― 5
„ 5
‡@@ 5
 @@ 5
‰ 5
›@@ 5
⁠ 5
€@@ 5
ℓ@@ 5
℞ 5
⅔ 5
∃ 5
∆@@ 5
∇ 5
∉ 5
√@@ 5
∫@@ 5
⌊@@ 5
◌@@ 5
●@@ 5
ⲥ@@ 5
ⵏ 5
ⵓ@@ 5
ⵜ@@ 5
が 5
み 5
も 5
ろ 5
゚@@ 5
ェ 5
エ 5
ケ 5
コ 5
ジ 5
ソ 5
ッ 5
ツ 5
ビ 5
ㄓ@@ 5
不 5
之 5
乱 5
会 5
伤@@ 5
伶@@ 5
似@@ 5
住@@ 5
佬@@ 5
個@@ 5
假@@ 5
傳 5
僧@@ 5
冀@@ 5
冒@@ 5
农@@ 5
冥@@ 5
冯@@ 5
凱@@ 5
刃 5
刃@@ 5
勤@@ 5
千 5
卍@@ 5
卑@@ 5
卜@@ 5
司 5
告@@ 5
哦@@ 5
営@@ 5
図@@ 5
图@@ 5
圍@@ 5
堂 5
堅@@ 5
墓@@ 5
壁@@ 5
复@@ 5
大學 5
失@@ 5
妮@@ 5
妻 5
妻@@ 5
姫 5
娘 5
娟@@ 5
嬌@@ 5
孩@@ 5
定 5
实@@ 5
害@@ 5
寅@@ 5
實@@ 5
將 5
專@@ 5
尾 5
嶽@@ 5
巳@@ 5
巻@@ 5
带@@ 5
師 5
帯@@ 5
帰@@ 5
廢@@ 5
廬@@ 5
弁@@ 5
式 5
弹@@ 5
彰@@ 5
很@@ 5
従@@ 5
徹@@ 5
心 5
快@@ 5
恨@@ 5
悼@@ 5
愍@@ 5
戟@@ 5
戯@@ 5
扇@@ 5
扬@@ 5
振@@ 5
換@@ 5
撫@@ 5
教 5
斬@@ 5
日本 5
昇@@ 5
明 5
易 5
是 5
晶@@ 5
暮@@ 5
曆@@ 5
更@@ 5
朧@@ 5
杉@@ 5
柔@@ 5
树@@ 5
棚@@ 5
樂 5
樊@@ 5
標@@ 5
橫@@ 5
檀@@ 5
欲@@ 5
止@@ 5
歳@@ 5
汝@@ 5
江 5
沉@@ 5
泉 5
泽@@ 5
浅@@ 5
济@@ 5
浜@@ 5
浴@@ 5
涯@@ 5
淀@@ 5
滑@@ 5
漁@@ 5
潭@@ 5
澄@@ 5
濃@@ 5
灃@@ 5
火 5
焦@@ 5
燃@@ 5
營@@ 5
爺@@ 5
版 5
牟@@ 5
玫@@ 5
现@@ 5
珪 5
珪@@ 5
琰@@ 5
瑩@@ 5
瑰@@ 5
瓜@@ 5
瓦@@ 5
甄@@ 5
甲 5
畅@@ 5
留 5
疾@@ 5
癸@@ 5
盂@@ 5
盈@@ 5
盒@@ 5
盛 5
盟 5
眉@@ 5
瞿@@ 5
矢@@ 5
研究@@ 5
硬@@ 5
示@@ 5
祺@@ 5
禄@@ 5
禑@@ 5
禪@@ 5
禵@@ 5
秋 5
穀@@ 5
笛@@ 5
策@@ 5
算@@ 5
篇 5
篠@@ 5
粵@@ 5
紀 5
紂@@ 5
紙@@ 5
細@@ 5
絲@@ 5
網@@ 5
線 5
繭@@ 5
繼@@ 5
纘@@ 5
纪@@ 5
绝@@ 5
统@@ 5
翠@@ 5
翰@@ 5
聲@@ 5
肃@@ 5
脩@@ 5
與@@ 5
興 5
舍@@ 5
菜 5
萧@@ 5
著@@ 5
蓉 5
蕃@@ 5
薄@@ 5
薊@@ 5
薔@@ 5
蚝@@ 5
衆@@ 5
衣 5
袖@@ 5
裂@@ 5
装@@ 5
訢@@ 5
詠@@ 5
詮@@ 5
誅@@ 5
調@@ 5
记 5
设@@ 5
谭@@ 5
豚@@ 5
豬@@ 5
贤@@ 5
赖@@ 5
路 5
轨@@ 5
达@@ 5
迦@@ 5
遲@@ 5
遺@@ 5
邳@@ 5
郷 5
鄚@@ 5
醉@@ 5
采@@ 5
釋@@ 5
針@@ 5
銅@@ 5
閔@@ 5
閭@@ 5
阁@@ 5
队@@ 5
阴@@ 5
離@@ 5
霖@@ 5
霞@@ 5
領@@ 5
頡@@ 5
领@@ 5
颜@@ 5
飄@@ 5
鬼 5
鷹@@ 5
鹤@@ 5
麦@@ 5
齡@@ 5
게@@ 5
곤@@ 5
날@@ 5
녕@@ 5
늘@@ 5
담@@ 5
당@@ 5
데@@ 5
머@@ 5
먼@@ 5
번@@ 5
변@@ 5
빈@@ 5
술@@ 5
슈@@ 5
썸@@ 5
알@@ 5
없@@ 5
에 5
와 5
와@@ 5
월@@ 5
종 5
총@@ 5
친@@ 5
칠@@ 5
터@@ 5
테@@ 5
트 5
팔@@ 5
퍼@@ 5
풍@@ 5
피@@ 5
해 5
허@@ 5
Ｅ@@ 5
ｉ@@ 5
ｏ@@ 5
ｕ@@ 5
Bere@@ 4
Besch@@ 4
Chuo 4
Dans 4
Deutschen 4
Fahr@@ 4
Geg@@ 4
Gemein@@ 4
Irel@@ 4
Leben 4
Lebens@@ 4
Mitte 4
Nigeria 4
Produk@@ 4
Tuy 4
Une 4
Universidad 4
Zeit 4
abei 4
aciones 4
adhi 4
aison 4
alem@@ 4
aliza 4
alre@@ 4
andere 4
arse 4
asili 4
atta@@ 4
cambi@@ 4
career 4
celle 4
cours 4
dado 4
dak@@ 4
deutscher 4
deux 4
dok@@ 4
dres 4
ehir 4
eines 4
embre 4
entos 4
enzi 4
existe 4
fait 4
fand 4
febr@@ 4
fils 4
founded 4
hata 4
histoire 4
ilik 4
ilim@@ 4
imu 4
incor@@ 4
ingt 4
inspir@@ 4
iques 4
isim@@ 4
kama 4
koa 4
lado 4
landa 4
lanz@@ 4
lere 4
leurs 4
lui 4
mais 4
mpi@@ 4
nde@@ 4
nun 4
ofu 4
ograf@@ 4
orden 4
otro 4
ouver@@ 4
pendant 4
pointed 4
quier 4
quy 4
returned 4
schluss 4
sich 4
signi@@ 4
statt 4
stil@@ 4
tena 4
tische 4
trang 4
udi 4
umani 4
umika 4
unca 4
unden 4
urch 4
utiliz@@ 4
vement 4
vili@@ 4
wali@@ 4
wenn 4
zentr@@ 4
zwe@@ 4
 4
 4
 4
¢@@ 4
£@@ 4
µ@@ 4
Ç@@ 4
Ê 4
Ë 4
ï@@ 4
Č@@ 4
Độ 4
Ē@@ 4
Ĕ 4
ĕ 4
ĭ@@ 4
ņ 4
ņ@@ 4
Œ 4
œ@@ 4
ř@@ 4
Ś@@ 4
Ŝ@@ 4
Ţ 4
ơ@@ 4
ǚ 4
ɚ@@ 4
ɣ 4
ɦ@@ 4
ɽ 4
ɾ@@ 4
ʂ 4
ʕ 4
́ 4
̂ 4
̌ 4
Αν@@ 4
Ελλην@@ 4
Μ 4
ά 4
άλ@@ 4
άλλ@@ 4
έγ@@ 4
ήρ@@ 4
ίδ@@ 4
αχ@@ 4
βί@@ 4
βλ@@ 4
γραφ@@ 4
δια@@ 4
δρ@@ 4
ευ@@ 4
εφ@@ 4
ημ@@ 4
θέ@@ 4
ιμ@@ 4
ιπ@@ 4
καν@@ 4
κορ@@ 4
κυ@@ 4
λί@@ 4
μή@@ 4
μακ@@ 4
μβ@@ 4
μι@@ 4
μος 4
μπο@@ 4
οσ@@ 4
πρ@@ 4
ρή@@ 4
ρύ@@ 4
σπ@@ 4
σσ@@ 4
στή@@ 4
στερ@@ 4
σφ@@ 4
τα 4
τε@@ 4
τικ@@ 4
τον@@ 4
τρ@@ 4
υγ@@ 4
υρ@@ 4
φω@@ 4
χαρ@@ 4
ών 4
І 4
Ћ@@ 4
Ў 4
Би@@ 4
Вели@@ 4
Да@@ 4
Де@@ 4
Ди@@ 4
Ж 4
Й@@ 4
Ман@@ 4
Ми@@ 4
Ни@@ 4
Никола@@ 4
Но@@ 4
Ново@@ 4
При@@ 4
Ра@@ 4
Су@@ 4
Те@@ 4
Ту@@ 4
Ц 4
Ч 4
Ше@@ 4
Ы 4
ал@@ 4
аль@@ 4
бал@@ 4
город@@ 4
гра@@ 4
дар@@ 4
зе@@ 4
зо@@ 4
исто@@ 4
кий 4
кино@@ 4
ков@@ 4
комите@@ 4
кра@@ 4
къ@@ 4
лет 4
лю@@ 4
му@@ 4
мы@@ 4
нал 4
ник@@ 4
нов@@ 4
ное 4
ной 4
ны@@ 4
ным 4
осу@@ 4
пи@@ 4
по 4
ради@@ 4
рё@@ 4
ска@@ 4
слав 4
сы@@ 4
телевизи@@ 4
ты 4
фи@@ 4
цар@@ 4
ча@@ 4
чи@@ 4
щ@@ 4
ю 4
язы@@ 4
њ@@ 4
ў@@ 4
Ґ 4
Ғ 4
ғ@@ 4
Қ@@ 4
қ@@ 4
Ү@@ 4
ү 4
ӑ@@ 4
յ@@ 4
ס@@ 4
ء 4
أم@@ 4
ؤ@@ 4
ادی@@ 4
اض@@ 4
اع@@ 4
الب@@ 4
البح@@ 4
التح@@ 4
الث@@ 4
الخ@@ 4
الرا@@ 4
المق@@ 4
اله@@ 4
اني 4
اي@@ 4
بل@@ 4
بو@@ 4
تي@@ 4
جا@@ 4
جه@@ 4
حي@@ 4
حی@@ 4
خان@@ 4
درا@@ 4
دش@@ 4
رس@@ 4
رية 4
رير 4
ز 4
سلطان 4
شی@@ 4
على 4
علي 4
كل 4
لل@@ 4
لی 4
مر@@ 4
مهورية 4
می@@ 4
ني@@ 4
نگ@@ 4
هة 4
هم 4
وس@@ 4
وف@@ 4
ون 4
وه@@ 4
يه 4
ٰ@@ 4
ڬ@@ 4
ँ 4
अम@@ 4
ओ@@ 4
के@@ 4
गा 4
गा@@ 4
जा@@ 4
जी@@ 4
डा@@ 4
णि@@ 4
ति 4
ते 4
था@@ 4
द 4
दु@@ 4
धि@@ 4
नाथ 4
नु@@ 4
पार@@ 4
पाल 4
पि@@ 4
फ@@ 4
बि@@ 4
बो@@ 4
मा 4
मार@@ 4
मि@@ 4
मी 4
मै@@ 4
रिया@@ 4
रू@@ 4
ली@@ 4
स 4
सू@@ 4
से@@ 4
ही@@ 4
ा@@ 4
ौ@@ 4
ট@@ 4
ত@@ 4
য@@ 4
শ@@ 4
স@@ 4
ি@@ 4
ী@@ 4
ে@@ 4
ਗ@@ 4
ਤ@@ 4
ਦ@@ 4
ਰ 4
ਾ 4
ੀ@@ 4
ଡ@@ 4
ଶ@@ 4
ய@@ 4
ற@@ 4
ொ@@ 4
చ@@ 4
త@@ 4
ప@@ 4
ై@@ 4
ಂ@@ 4
ೂ@@ 4
മ@@ 4
ാ@@ 4
ി@@ 4
ං@@ 4
ක@@ 4
න@@ 4
ා 4
ງ 4
ຜ@@ 4
ຣ 4
ີ 4
໌@@ 4
ໜ@@ 4
ཕ@@ 4
ྣ@@ 4
တ 4
ဓ@@ 4
ၼ@@ 4
ႆ@@ 4
ი 4
რ 4
ხ 4
ჲ@@ 4
ት@@ 4
ይ@@ 4
ើ@@ 4
់ 4
ᠣ@@ 4
ḏ 4
ḏ@@ 4
ḵ@@ 4
ṟ 4
ẽ 4
ổ 4
ỗ 4
ứ@@ 4
ự 4
ỹ 4
ἔ@@ 4
Ἡ@@ 4
ἵ@@ 4
ὅ@@ 4
₂ 4
₩ 4
₹ 4
℃@@ 4
℉@@ 4
ℓ 4
№ 4
™@@ 4
↓ 4
↓@@ 4
↦ 4
⇌ 4
∂@@ 4
∃@@ 4
∗ 4
∩ 4
≠@@ 4
≪ 4
⋅ 4
⌊ 4
☃@@ 4
♠@@ 4
♣@@ 4
ⲏ@@ 4
ⲧ@@ 4
ⴰ 4
ⵢ@@ 4
々 4
〈 4
〉 4
】 4
〖@@ 4
〗@@ 4
ぁ 4
ぁ@@ 4
で 4
ね 4
ふ 4
よ 4
ゐ 4
ゼ 4
マ 4
ヶ 4
ㄇ@@ 4
ㄉ@@ 4
ㄢ@@ 4
ㅇ@@ 4
ㅊ 4
丈@@ 4
乃@@ 4
乌@@ 4
九 4
云 4
互@@ 4
亦@@ 4
仇@@ 4
仔 4
付@@ 4
仰@@ 4
伝 4
伽@@ 4
佑@@ 4
佗@@ 4
佛 4
供@@ 4
係@@ 4
俠 4
偏@@ 4
側@@ 4
偷@@ 4
催@@ 4
傷@@ 4
公 4
写@@ 4
凉@@ 4
刊@@ 4
劇 4
劍 4
助@@ 4
動 4
化 4
升@@ 4
南 4
卦@@ 4
去 4
召@@ 4
台 4
号 4
吧@@ 4
含@@ 4
吸@@ 4
吹@@ 4
唯@@ 4
喇@@ 4
喰@@ 4
嚳@@ 4
团 4
围@@ 4
国 4
均@@ 4
坑@@ 4
坛@@ 4
坤@@ 4
埔@@ 4
墨@@ 4
士 4
壮@@ 4
处@@ 4
夏 4
太 4
奘@@ 4
奪@@ 4
妃 4
妠@@ 4
妲@@ 4
妹 4
姆@@ 4
娃@@ 4
婉@@ 4
婚@@ 4
媒@@ 4
媽@@ 4
孫 4
守 4
宝 4
宣 4
寧 4
尊 4
尖@@ 4
尧@@ 4
尸@@ 4
尽@@ 4
屈@@ 4
屍@@ 4
属@@ 4
嶺@@ 4
巡@@ 4
巧@@ 4
己 4
帖 4
幹@@ 4
庁 4
应@@ 4
底@@ 4
廉@@ 4
廖@@ 4
弓@@ 4
弱@@ 4
弾 4
彡@@ 4
彦@@ 4
彬@@ 4
徵@@ 4
德 4
志 4
応@@ 4
忽@@ 4
总@@ 4
息@@ 4
悅@@ 4
悠@@ 4
惇@@ 4
戎@@ 4
成 4
戴@@ 4
扁@@ 4
才 4
抱@@ 4
拳 4
拼@@ 4
拿@@ 4
捷@@ 4
掌 4
支 4
散 4
旋@@ 4
旻@@ 4
昊@@ 4
晓@@ 4
暠@@ 4
朝 4
朱 4
杏@@ 4
束@@ 4
枕@@ 4
柱@@ 4
桜 4
條 4
棟@@ 4
棠@@ 4
楂@@ 4
榜@@ 4
構@@ 4
槍@@ 4
橋 4
橘@@ 4
檢@@ 4
欧@@ 4
歸@@ 4
殿 4
母 4
汕@@ 4
汾@@ 4
沢 4
津 4
液@@ 4
淨@@ 4
清 4
渠@@ 4
湖 4
満@@ 4
满@@ 4
滨@@ 4
滴@@ 4
潁@@ 4
濬@@ 4
瀋@@ 4
瀛@@ 4
灘@@ 4
灰@@ 4
煙@@ 4
煬@@ 4
燈 4
燒@@ 4
爱 4
爵@@ 4
牙 4
犯@@ 4
狂@@ 4
珊@@ 4
球 4
瑛@@ 4
瑾@@ 4
璃@@ 4
璧@@ 4
瓘@@ 4
瓶@@ 4
男 4
町 4
畢@@ 4
畫@@ 4
當@@ 4
畿@@ 4
疑@@ 4
疫@@ 4
相 4
真 4
磨@@ 4
礽@@ 4
票@@ 4
禍@@ 4
稲@@ 4
稽@@ 4
穴@@ 4
窮@@ 4
筆@@ 4
簡@@ 4
簾@@ 4
籍@@ 4
給@@ 4
經 4
継@@ 4
綠@@ 4
綿@@ 4
續@@ 4
约@@ 4
纳@@ 4
绍@@ 4
羌@@ 4
美 4
義 4
習@@ 4
聡@@ 4
肥@@ 4
背@@ 4
能 4
脫@@ 4
腐@@ 4
腰@@ 4
腹@@ 4
膽@@ 4
臘@@ 4
至 4
舎@@ 4
艦@@ 4
艾 4
艾@@ 4
苑@@ 4
茨@@ 4
菊@@ 4
菱@@ 4
萃@@ 4
萝@@ 4
蒼@@ 4
蕉 4
薬@@ 4
虚 4
虞@@ 4
行 4
行政@@ 4
補@@ 4
裳@@ 4
褚@@ 4
訶@@ 4
試@@ 4
誌@@ 4
誘@@ 4
謀@@ 4
議 4
變 4
许@@ 4
话 4
谷 4
貓@@ 4
負@@ 4
賈@@ 4
賞@@ 4
贞@@ 4
趣@@ 4
跡@@ 4
跳@@ 4
蹟@@ 4
身 4
车@@ 4
转@@ 4
辺@@ 4
选@@ 4
透@@ 4
造 4
遂@@ 4
遇@@ 4
遍@@ 4
達 4
遙@@ 4
遜@@ 4
還@@ 4
郢@@ 4
郾@@ 4
鄂@@ 4
醇@@ 4
重 4
量@@ 4
鈿@@ 4
錫@@ 4
鎧@@ 4
银@@ 4
锦@@ 4
間 4
间@@ 4
阖@@ 4
阜@@ 4
阳 4
陪@@ 4
隐@@ 4
隱@@ 4
雁@@ 4
雜@@ 4
霆@@ 4
震 4
霜@@ 4
鞠@@ 4
須@@ 4
頌@@ 4
題@@ 4
顓@@ 4
顕@@ 4
须@@ 4
飲@@ 4
養@@ 4
骄 4
鳌@@ 4
鶯@@ 4
鸣@@ 4
麼@@ 4
默@@ 4
黛@@ 4
龜@@ 4
갑@@ 4
게 4
교 4
군 4
권@@ 4
김 4
꽃@@ 4
네@@ 4
달@@ 4
두@@ 4
떡@@ 4
러@@ 4
런@@ 4
론@@ 4
류@@ 4
르@@ 4
맨@@ 4
면@@ 4
물 4
법@@ 4
병@@ 4
본@@ 4
봄@@ 4
빅@@ 4
빛@@ 4
삐@@ 4
새@@ 4
수 4
숨@@ 4
스 4
실@@ 4
싶@@ 4
안 4
엄@@ 4
엘@@ 4
엠@@ 4
역@@ 4
온@@ 4
워@@ 4
익@@ 4
있@@ 4
진 4
차 4
채@@ 4
처@@ 4
커@@ 4
탕@@ 4
투@@ 4
특@@ 4
틴@@ 4
플@@ 4
한 4
할@@ 4
향@@ 4
흥@@ 4
 4
 4
@@ 4
＆@@ 4
１ 4
； 4
＜@@ 4
＞@@ 4
Ｃ@@ 4
］@@ 4
ｅ@@ 4
1,5 3
Akad@@ 3
Alman@@ 3
Auf 3
Ayn@@ 3
Burundi 3
Entre 3
Mungu 3
Ngo@@ 3
Parlam@@ 3
Sie 3
Sohn 3
Teil 3
Una 3
`@@ 3
acto 3
afin 3
alik@@ 3
aliste 3
amii 3
anay@@ 3
announc@@ 3
appel@@ 3
awala 3
beri 3
chaque 3
chuy@@ 3
coi 3
consid@@ 3
contre 3
culo 3
deut@@ 3
deutschen 3
dire@@ 3
drit@@ 3
durch 3
ehe 3
ehen 3
einem 3
ekonom@@ 3
elte 3
ennen 3
erst 3
erste 3
ezo 3
famille 3
fass@@ 3
fico 3
finale 3
fonc@@ 3
fut 3
gouvernement 3
gran 3
greso 3
guerra 3
hasta 3
huri 3
icklung 3
igt 3
ihe 3
ihr 3
ilen 3
imani 3
inici@@ 3
ishia 3
isinin 3
ispi@@ 3
jeun@@ 3
jina 3
jours 3
juu 3
kati@@ 3
keit 3
kend@@ 3
kuu 3
kwa 3
leit@@ 3
linal@@ 3
luy@@ 3
mayor 3
merc@@ 3
mf@@ 3
mita 3
munici@@ 3
neces@@ 3
octu@@ 3
okea 3
osas 3
otros 3
politique 3
poste 3
proces@@ 3
propi@@ 3
quay 3
sau 3
schaf@@ 3
seine 3
sistema 3
sous 3
tay 3
teh@@ 3
teil@@ 3
tener 3
travail 3
tuy@@ 3
umri 3
unos 3
verdi 3
wani 3
wanza 3
wich@@ 3
worked 3
wrote 3
yake 3
yana@@ 3
yard@@ 3
yeri 3
zeich@@ 3
zey 3
¢ 3
¹@@ 3
¼@@ 3
¿@@ 3
Á@@ 3
Ð@@ 3
Ñ@@ 3
Û 3
Ü@@ 3
Ý 3
Ă@@ 3
Ē 3
ė@@ 3
Ĥ@@ 3
Ĵ@@ 3
Ņ 3
ŏ@@ 3
ţ@@ 3
Ū 3
Ŭ@@ 3
Ű 3
ſ 3
ƴ 3
ǀ@@ 3
ǃ 3
ǣ 3
ǰ 3
ɟ 3
ɟ@@ 3
ɨ 3
ɯ 3
ɰ@@ 3
ɳ 3
ɹ 3
ɻ 3
ʑ 3
ʱ@@ 3
ˠ 3
˨@@ 3
˩ 3
̈@@ 3
̊ 3
̎@@ 3
̏ 3
̯@@ 3
͘ 3
Ά@@ 3
Ί@@ 3
Δι@@ 3
Κυ@@ 3
Κωνστ@@ 3
Μακεδ@@ 3
Χρ@@ 3
άνω 3
άπ@@ 3
έκ@@ 3
έρας 3
ίγ@@ 3
αίν@@ 3
αλλ@@ 3
ανή@@ 3
αντιν@@ 3
αξ@@ 3
αργ@@ 3
αρχι@@ 3
βο@@ 3
γέν@@ 3
γλ@@ 3
δος 3
δό@@ 3
εία 3
εβ@@ 3
εύ@@ 3
ητ@@ 3
θαν@@ 3
θυ@@ 3
ιά 3
ια 3
ιν 3
κέν@@ 3
κίν@@ 3
καθ@@ 3
κοσμ@@ 3
λη@@ 3
λος 3
μεν@@ 3
μη@@ 3
μον@@ 3
νά@@ 3
νέ@@ 3
νη 3
νω@@ 3
ξι@@ 3
ογ@@ 3
ολόγ@@ 3
οπο@@ 3
ουσ@@ 3
πί@@ 3
παι@@ 3
πατ@@ 3
πολυ@@ 3
ρία 3
ρη@@ 3
στά@@ 3
σύν@@ 3
τήρ@@ 3
τη 3
τηρ@@ 3
τοκ@@ 3
τρι@@ 3
τυ@@ 3
τω 3
υν@@ 3
φέρ@@ 3
φιλ@@ 3
ψ 3
ό 3
όδ@@ 3
όκ@@ 3
όρ@@ 3
Ѓ@@ 3
Ў@@ 3
Андре@@ 3
Гор@@ 3
Ки@@ 3
Македо@@ 3
Пе@@ 3
Пет@@ 3
Ре@@ 3
Роди@@ 3
Серге@@ 3
Федера@@ 3
Х 3
Щ 3
Щ@@ 3
Ъ 3
Ь@@ 3
Э 3
авиа@@ 3
ак@@ 3
ба 3
бю@@ 3
виде@@ 3
вы@@ 3
ге 3
ге@@ 3
глав@@ 3
гор@@ 3
град@@ 3
дж@@ 3
дра@@ 3
дь@@ 3
ене@@ 3
ж 3
жи@@ 3
зах@@ 3
зи@@ 3
ин@@ 3
ит@@ 3
ита@@ 3
кан@@ 3
лей@@ 3
лен@@ 3
лий 3
ло 3
лу@@ 3
мат@@ 3
мет@@ 3
мир 3
национа@@ 3
ными 3
он@@ 3
опера@@ 3
пе@@ 3
пре@@ 3
про@@ 3
публика 3
публики 3
пы@@ 3
рев@@ 3
рен@@ 3
рий 3
рус@@ 3
ск@@ 3
сло@@ 3
спо@@ 3
стан 3
ствен@@ 3
тер@@ 3
ху@@ 3
ц 3
ция 3
чка 3
ша 3
ше@@ 3
ю@@ 3
ѓ@@ 3
і 3
ў 3
ѣ 3
ғ 3
һ@@ 3
Ө 3
բ@@ 3
գ@@ 3
ը@@ 3
թ@@ 3
կ@@ 3
ք@@ 3
ׂ@@ 3
ב 3
ז@@ 3
ח 3
כ 3
ס 3
أحمد 3
إل@@ 3
اری 3
از@@ 3
اس 3
اش@@ 3
اص@@ 3
اط@@ 3
اق 3
اك@@ 3
الت@@ 3
الجز@@ 3
الدي@@ 3
الدين 3
الرحمن 3
الري@@ 3
الز@@ 3
السي@@ 3
الفل@@ 3
الملك 3
الوطنية 3
اه 3
بار@@ 3
بان@@ 3
بر 3
بلا@@ 3
به 3
بور@@ 3
جب@@ 3
جمع@@ 3
جن@@ 3
جي@@ 3
جی@@ 3
خال@@ 3
دا@@ 3
دو@@ 3
راً 3
رب@@ 3
رين 3
زر@@ 3
سين@@ 3
شری@@ 3
شع@@ 3
صل 3
ض 3
ط 3
ظ@@ 3
عد@@ 3
عط@@ 3
عم@@ 3
عمر 3
عن 3
عی@@ 3
غ 3
فل@@ 3
فی@@ 3
قر@@ 3
قو@@ 3
قی@@ 3
كري@@ 3
لاب 3
لكرة 3
لي 3
مان@@ 3
مس@@ 3
مست@@ 3
مص@@ 3
می 3
هار@@ 3
هد 3
هي@@ 3
واح@@ 3
وب@@ 3
ود@@ 3
وری 3
يا 3
ير@@ 3
يش@@ 3
يو 3
يو@@ 3
ًا 3
٨ 3
ک 3
گ 3
گا@@ 3
گر@@ 3
ھ@@ 3
یر 3
یع@@ 3
ތ@@ 3
ލ@@ 3
ް@@ 3
ߌ@@ 3
ࡀ@@ 3
ऋ@@ 3
क 3
का 3
कार@@ 3
ग 3
ङ 3
चार 3
चार@@ 3
चि@@ 3
ज 3
जु@@ 3
ट 3
टी@@ 3
डि@@ 3
णा 3
ती 3
तु@@ 3
धा@@ 3
नव@@ 3
ना 3
प 3
भो@@ 3
या 3
रम@@ 3
राम@@ 3
लो@@ 3
ळ@@ 3
वं@@ 3
वन@@ 3
वी 3
शी@@ 3
शु@@ 3
सि@@ 3
सिंह 3
हू@@ 3
ा 3
िया 3
ी 3
ो@@ 3
०० 3
१ 3
१@@ 3
५ 3
আ@@ 3
চ@@ 3
র 3
ਖ@@ 3
ਘ 3
ਪ@@ 3
਼@@ 3
ੇ@@ 3
જ@@ 3
ી 3
ଦ@@ 3
ନ@@ 3
ମ@@ 3
଼@@ 3
ା 3
ା@@ 3
ி 3
ோ@@ 3
జ@@ 3
ద@@ 3
ె@@ 3
ో@@ 3
ಯ@@ 3
ಲ@@ 3
ಶ@@ 3
ೊ@@ 3
ന@@ 3
പ@@ 3
ප@@ 3
ශ@@ 3
ී 3
๛@@ 3
ະ 3
າ 3
ຶ@@ 3
ཅ@@ 3
ཇ@@ 3
ཉ@@ 3
ྤ@@ 3
ྫ@@ 3
ླ@@ 3
ဏ@@ 3
ရ 3
ီ 3
ၵ@@ 3
ა 3
ლ 3
ს 3
ላ@@ 3
ሥ@@ 3
ኀ@@ 3
ዳ@@ 3
ថ 3
ឦ@@ 3
ិ 3
ឺ@@ 3
ែ 3
្ 3
៚ 3
ᠪ@@ 3
ᠮ@@ 3
ᠰ@@ 3
ᡥ@@ 3
ᨦ@@ 3
ᩣ 3
ᩨ@@ 3
ᩮ@@ 3
ᴇ@@ 3
ḗ@@ 3
Ḥ@@ 3
ẩ 3
Ẽ 3
ỉ 3
ị@@ 3
ọ@@ 3
ừ 3
ữ@@ 3
ỳ@@ 3
ἀ 3
ἁ@@ 3
Ἁ@@ 3
Ἄ@@ 3
ἑ@@ 3
ἴ@@ 3
Ἴ@@ 3
ὔ@@ 3
‐ 3
―@@ 3
‖@@ 3
  3
⁣ 3
ⁿ 3
₩@@ 3
ℝ@@ 3
℞@@ 3
K@@ 3
ℰ 3
ℵ 3
ℵ@@ 3
Ⅰ 3
Ⅱ@@ 3
←@@ 3
⇒ 3
∅@@ 3
∝ 3
≈@@ 3
≥@@ 3
⌈@@ 3
⌉ 3
▉@@ 3
♂@@ 3
♦@@ 3
⠁@@ 3
⠅@@ 3
⠊@@ 3
ⲉ@@ 3
ⲓ 3
ⲩ@@ 3
ⲭ@@ 3
ⵛ@@ 3
〃 3
ぃ@@ 3
づ 3
ぬ 3
ば 3
ぱ@@ 3
む 3
め 3
や 3
れ 3
ゑ 3
ゖ@@ 3
ォ 3
オ 3
ガ 3
ヂ 3
ナ 3
プ 3
メ 3
ラ 3
ヽ@@ 3
ㄅ@@ 3
ㄈ@@ 3
ㄒ@@ 3
ㄙ@@ 3
ㄛ@@ 3
万 3
丕@@ 3
两@@ 3
临@@ 3
丸 3
主 3
久 3
乐 3
乳@@ 3
亨@@ 3
亩@@ 3
亲@@ 3
仁 3
介 3
仏@@ 3
仕@@ 3
仲 3
伍@@ 3
伐@@ 3
伴@@ 3
但@@ 3
低@@ 3
佘@@ 3
佩@@ 3
例@@ 3
侑@@ 3
侵@@ 3
信 3
倚@@ 3
借@@ 3
偏 3
做@@ 3
傘@@ 3
傲@@ 3
働 3
充@@ 3
兆 3
兎@@ 3
公司 3
兮@@ 3
养@@ 3
兼@@ 3
円 3
准@@ 3
凝@@ 3
则@@ 3
利 3
别@@ 3
劈@@ 3
办@@ 3
加 3
务@@ 3
勉@@ 3
勋@@ 3
勸@@ 3
北 3
匠@@ 3
區 3
十 3
卒 3
協 3
博 3
卢@@ 3
厚@@ 3
厥@@ 3
厦@@ 3
厲@@ 3
参 3
又@@ 3
只@@ 3
可以 3
吃@@ 3
吉 3
吻@@ 3
呉@@ 3
品 3
哭@@ 3
唄 3
喬@@ 3
嗓@@ 3
嘏@@ 3
嘗@@ 3
嘘@@ 3
嘛@@ 3
噴@@ 3
噶@@ 3
困@@ 3
圆 3
圉@@ 3
圏 3
園 3
圖@@ 3
圭@@ 3
坂 3
均 3
坪@@ 3
垓@@ 3
域@@ 3
塾@@ 3
增@@ 3
壯@@ 3
大 3
奇 3
奐@@ 3
奔@@ 3
套@@ 3
奢@@ 3
奮@@ 3
妤@@ 3
姉@@ 3
婁@@ 3
婦@@ 3
嫔@@ 3
嫦@@ 3
嬢@@ 3
孺@@ 3
宴@@ 3
宸@@ 3
宾@@ 3
寂@@ 3
寸 3
对@@ 3
导@@ 3
寿 3
對@@ 3
小 3
尚 3
届 3
屋 3
層@@ 3
履@@ 3
岁@@ 3
岷@@ 3
岸@@ 3
峰 3
峽@@ 3
崎 3
崖@@ 3
嶋 3
嶺 3
巣@@ 3
已@@ 3
帕@@ 3
帚@@ 3
帳@@ 3
庁@@ 3
序@@ 3
庙@@ 3
庶@@ 3
康 3
廈@@ 3
廊@@ 3
廌@@ 3
廓@@ 3
异@@ 3
引@@ 3
弗@@ 3
彌@@ 3
役@@ 3
往@@ 3
復 3
微 3
必 3
忠 3
忻@@ 3
怡@@ 3
恕@@ 3
悝@@ 3
愼@@ 3
戀 3
戀@@ 3
戏@@ 3
我 3
戶@@ 3
房 3
抄@@ 3
把@@ 3
抜@@ 3
抹@@ 3
押@@ 3
拍@@ 3
括@@ 3
拾 3
拾@@ 3
掃@@ 3
接@@ 3
搖@@ 3
搜@@ 3
搭@@ 3
摘@@ 3
撞@@ 3
撮@@ 3
撰@@ 3
操 3
擎@@ 3
攝@@ 3
整@@ 3
敷@@ 3
文化 3
斉@@ 3
斋@@ 3
斌@@ 3
斷@@ 3
旧@@ 3
旽@@ 3
昌 3
昏@@ 3
春 3
昧@@ 3
昱@@ 3
昼@@ 3
晃 3
曉@@ 3
曙@@ 3
曲 3
札@@ 3
来 3
杯@@ 3
松 3
林 3
果 3
架@@ 3
染@@ 3
査@@ 3
格 3
桀@@ 3
桐 3
桜@@ 3
桶@@ 3
條@@ 3
梧@@ 3
梶@@ 3
棉@@ 3
棋@@ 3
棣@@ 3
楊 3
楞@@ 3
榎@@ 3
槐@@ 3
樞@@ 3
樣@@ 3
橙@@ 3
檔@@ 3
欠@@ 3
歇@@ 3
死 3
氐@@ 3
永 3
汜 3
汜@@ 3
沔@@ 3
沟@@ 3
沧@@ 3
治 3
沼@@ 3
泗@@ 3
泳@@ 3
洁@@ 3
洪 3
浸@@ 3
涵@@ 3
淄@@ 3
淇@@ 3
淍@@ 3
淚@@ 3
淡@@ 3
淸@@ 3
渊@@ 3
渚@@ 3
渤@@ 3
渭@@ 3
湾 3
湾@@ 3
溝@@ 3
溧@@ 3
滇@@ 3
滋@@ 3
漠@@ 3
漫 3
潜@@ 3
澪@@ 3
濮@@ 3
灘 3
灼@@ 3
災@@ 3
炭@@ 3
烙@@ 3
烤@@ 3
热@@ 3
煖@@ 3
煲@@ 3
燧@@ 3
爪@@ 3
爷@@ 3
物 3
状 3
狗@@ 3
狙@@ 3
狩@@ 3
狮@@ 3
猴@@ 3
獣 3
獸@@ 3
玖@@ 3
环@@ 3
玺@@ 3
珍 3
琅@@ 3
理 3
瑞 3
瑟@@ 3
界 3
疆@@ 3
的 3
皖@@ 3
皮 3
盆@@ 3
盗@@ 3
盘@@ 3
眞@@ 3
眾@@ 3
睢@@ 3
知 3
短@@ 3
研@@ 3
碓@@ 3
碣@@ 3
磐@@ 3
示 3
祚@@ 3
福 3
禛@@ 3
禥@@ 3
离@@ 3
秉@@ 3
稿@@ 3
穹@@ 3
窦@@ 3
立 3
笙@@ 3
第二@@ 3
筑@@ 3
策 3
筠@@ 3
简@@ 3
米 3
粿 3
糕@@ 3
紅 3
経 3
絶@@ 3
続@@ 3
綺@@ 3
綾@@ 3
緋@@ 3
緯@@ 3
練@@ 3
纥@@ 3
纲@@ 3
经 3
继@@ 3
缅@@ 3
缘 3
罕@@ 3
羅 3
羡@@ 3
群 3
羯@@ 3
羽 3
翅@@ 3
翔@@ 3
翡@@ 3
耆@@ 3
聊@@ 3
联@@ 3
聖 3
聞 3
聶@@ 3
聿@@ 3
肇@@ 3
脳@@ 3
腊@@ 3
腐 3
腕@@ 3
腾@@ 3
膜@@ 3
臣 3
臥@@ 3
臭@@ 3
舒@@ 3
良 3
苍@@ 3
茂 3
茅@@ 3
茉@@ 3
茜@@ 3
茫@@ 3
荀@@ 3
莒@@ 3
莱@@ 3
菅@@ 3
菓@@ 3
萊@@ 3
萍@@ 3
落 3
葬@@ 3
蓋@@ 3
薯 3
薯@@ 3
藤 3
虜@@ 3
虹 3
蛭@@ 3
蛮@@ 3
蝦@@ 3
蝴@@ 3
街 3
衙@@ 3
衞@@ 3
衮@@ 3
袈@@ 3
袞@@ 3
裁@@ 3
西 3
覃@@ 3
解 3
訂@@ 3
訊@@ 3
討@@ 3
詔@@ 3
講@@ 3
譜@@ 3
讓 3
计@@ 3
讯@@ 3
词@@ 3
谐@@ 3
貂@@ 3
貌@@ 3
貝@@ 3
貨@@ 3
賀 3
賁@@ 3
賦@@ 3
货 3
赢@@ 3
超 3
趾@@ 3
跋@@ 3
跨@@ 3
踏@@ 3
蹇@@ 3
蹴@@ 3
軾@@ 3
轍@@ 3
轟@@ 3
载@@ 3
辅@@ 3
辦@@ 3
辯@@ 3
辰 3
边@@ 3
连@@ 3
逃@@ 3
途@@ 3
速 3
遥@@ 3
遭@@ 3
遮@@ 3
邰@@ 3
郝@@ 3
郸@@ 3
鄒@@ 3
酷@@ 3
醯@@ 3
釵@@ 3
鉴@@ 3
銭@@ 3
録 3
録@@ 3
鏡@@ 3
铜@@ 3
長 3
閑@@ 3
闔@@ 3
闽@@ 3
闾@@ 3
附@@ 3
降@@ 3
陕@@ 3
除@@ 3
隅@@ 3
隆 3
階@@ 3
障@@ 3
雀 3
雉@@ 3
雑@@ 3
雛@@ 3
雨 3
雪 3
雲 3
雷 3
霊 3
霓@@ 3
静 3
面 3
鞋 3
韶@@ 3
響 3
頂@@ 3
順 3
頤@@ 3
顒@@ 3
類 3
顶@@ 3
飛 3
餅 3
館 3
饭@@ 3
驃@@ 3
骨 3
體 3
髪@@ 3
魁@@ 3
魄@@ 3
魚 3
鯀@@ 3
鯰@@ 3
鳥 3
鴉@@ 3
鵜@@ 3
鵬@@ 3
鵰@@ 3
鷹 3
鸠@@ 3
鹵@@ 3
麟 3
黍@@ 3
鼓@@ 3
鼻@@ 3
齊 3
龄@@ 3
龔@@ 3
龙 3
龟@@ 3
간 3
개 3
검@@ 3
것@@ 3
구 3
규@@ 3
급@@ 3
길@@ 3
꺼@@ 3
남 3
너 3
널 3
넘 3
넘@@ 3
놀@@ 3
뉴@@ 3
당 3
덤@@ 3
디 3
따@@ 3
란@@ 3
람@@ 3
례@@ 3
를@@ 3
름@@ 3
린@@ 3
마 3
막@@ 3
매@@ 3
먹@@ 3
면 3
몽@@ 3
무 3
문 3
뮤@@ 3
뱅@@ 3
봐 3
봐@@ 3
붐@@ 3
사 3
손@@ 3
솔@@ 3
쇼@@ 3
습@@ 3
시 3
쌍@@ 3
앤@@ 3
억@@ 3
언@@ 3
왕 3
욱@@ 3
율@@ 3
으@@ 3
입 3
잉@@ 3
작@@ 3
잘@@ 3
장 3
저 3
조 3
족@@ 3
좌@@ 3
짝@@ 3
찬@@ 3
추@@ 3
축@@ 3
침@@ 3
캠@@ 3
터 3
페@@ 3
품@@ 3
피 3
필@@ 3
했@@ 3
혁@@ 3
호 3
혼@@ 3
히 3
히@@ 3
@@ 3
@@ 3
１@@ 3
５ 3
？ 3
Ｈ@@ 3
Ｉ@@ 3
Ｏ@@ 3
Ｓ@@ 3
Ｔ@@ 3
［@@ 3
ｃ@@ 3
ｌ@@ 3
ｍ@@ 3
𐩽@@ 3
𐩿@@ 3
𐬀@@ 3
𐭥@@ 3
𑁆@@ 3
𑂲@@ 3
𝐏@@ 3
𝐨@@ 3
𝐫@@ 3
Anf@@ 2
Campeonato 2
Ces 2
Eins@@ 2
Entw@@ 2
Estados 2
Eyl@@ 2
Febru@@ 2
Geschichte 2
Jahre 2
Japon 2
Juni 2
Kanada 2
Khi 2
Mais 2
Meister@@ 2
Mit 2
Nach 2
Sau 2
Trong 2
Unidos 2
Weit@@ 2
Wirt@@ 2
Woh@@ 2
acional 2
ailleurs 2
akini 2
akt@@ 2
alement 2
alista 2
amente 2
annte 2
antigu@@ 2
anyika 2
arbeit@@ 2
asyon 2
ativo 2
aujour@@ 2
auti 2
avant 2
banda 2
beit 2
beit@@ 2
bierno 2
bildung 2
casa 2
chte 2
compr@@ 2
compte 2
comun@@ 2
condu@@ 2
conten@@ 2
deren 2
described 2
dessen 2
donn@@ 2
ectos 2
edad 2
empe@@ 2
enek@@ 2
enfants 2
ensemble 2
enton@@ 2
estos 2
etzt 2
famil@@ 2
ficie 2
fik@@ 2
fois 2
fuer@@ 2
gab 2
geord@@ 2
gesch@@ 2
gleich@@ 2
grab@@ 2
hariki 2
haup@@ 2
historia 2
idades 2
ieder 2
ieron 2
ierte 2
ierung 2
ikali 2
ildi 2
ileri 2
innen 2
jini 2
kann 2
kari@@ 2
keine 2
kendi 2
khai 2
kij@@ 2
kodi 2
kte 2
kua 2
kuf@@ 2
kush@@ 2
kuz@@ 2
lesia 2
liko 2
lili@@ 2
lise 2
luk@@ 2
maji 2
mang 2
mayo 2
meil@@ 2
meister@@ 2
mek 2
mito 2
mort 2
mt 2
nda 2
neh@@ 2
nord@@ 2
nung 2
onu 2
orden@@ 2
osos 2
parti 2
particu@@ 2
pobl@@ 2
pou@@ 2
premiers 2
preu@@ 2
profes@@ 2
puis 2
rar 2
recher@@ 2
sanat@@ 2
sao 2
sasa 2
seinen 2
seiner 2
septi@@ 2
setz@@ 2
sinh 2
siz 2
sobre 2
sont 2
sprech@@ 2
tanto 2
territoire 2
tete 2
theo 2
ticas 2
ticos 2
tiem@@ 2
todo 2
tourn@@ 2
tragen 2
trat 2
una@@ 2
uzak@@ 2
varias 2
vertr@@ 2
vida 2
vient 2
vur@@ 2
waf@@ 2
waka 2
wango 2
wanja 2
wao 2
wap@@ 2
wech@@ 2
weise 2
weng@@ 2
wezi 2
wirt@@ 2
yeni 2
zeh@@ 2
zeit@@ 2
zug@@ 2
 2
¡@@ 2
¨ 2
À@@ 2
È@@ 2
Ê@@ 2
Ò@@ 2
Ó@@ 2
Ô@@ 2
çı 2
öğ@@ 2
üç@@ 2
ÿ 2
Ā@@ 2
Ć 2
Ĉ 2
ę@@ 2
Ĝ 2
ĝ 2
ġ@@ 2
ģ 2
Ĥ 2
Ħ@@ 2
ĵ 2
Ķ 2
Ń 2
ŕ 2
Ţ@@ 2
ť 2
Ŧ@@ 2
Ŭ 2
ů@@ 2
Ű@@ 2
ű@@ 2
ŵ 2
ź@@ 2
Ž@@ 2
Ơ@@ 2
Ƣ 2
ƣ 2
Ư@@ 2
ǫ@@ 2
ǰ@@ 2
Ț@@ 2
ɐ 2
ɓ 2
ɜ@@ 2
ɦ 2
ɭ 2
ɵ 2
ɸ@@ 2
ʀ 2
ʁ@@ 2
ʋ@@ 2
ʏ 2
ʑ@@ 2
ʕ@@ 2
ʦ@@ 2
ʲ 2
ʹ 2
ʽ 2
ˁ 2
ˑ 2
˚@@ 2
˝ 2
˥ 2
˩@@ 2
̃ 2
̌@@ 2
̥@@ 2
̧ 2
̩ 2
̩@@ 2
̯ 2
̰@@ 2
͜ 2
Απ@@ 2
Δημ@@ 2
Ε 2
Εθν@@ 2
Επ@@ 2
Ζ@@ 2
Κ 2
Καλ@@ 2
Κύ@@ 2
Λε@@ 2
Ξ@@ 2
Παλ@@ 2
Πο@@ 2
Τ 2
Υ 2
Υ@@ 2
Υπ@@ 2
άνα@@ 2
άσ@@ 2
άφ@@ 2
έφ@@ 2
ήλ 2
ήμ@@ 2
ής 2
ίδα 2
ίνη 2
αν 2
ανα@@ 2
ανο@@ 2
αρι@@ 2
αρκ@@ 2
αρχ@@ 2
ατρ@@ 2
αύ@@ 2
βαρ@@ 2
βολ@@ 2
γνω@@ 2
δί@@ 2
διασ@@ 2
δρόμ@@ 2
δυ@@ 2
δύνα@@ 2
είχ@@ 2
εγκ@@ 2
εικ@@ 2
ειρ@@ 2
εκ@@ 2
επ@@ 2
επι@@ 2
ες 2
εσ@@ 2
ηδ@@ 2
ηλ@@ 2
ημι@@ 2
ης 2
ησι@@ 2
θα 2
θερ@@ 2
θεωρ@@ 2
θλ@@ 2
ικό 2
ιλ@@ 2
ισ@@ 2
ιστ@@ 2
και 2
κατα@@ 2
κι@@ 2
κρατ@@ 2
λευθερ@@ 2
λεύ@@ 2
λις 2
λύ@@ 2
μέν@@ 2
μία 2
μαν@@ 2
μαχ@@ 2
μει@@ 2
μετα@@ 2
μν@@ 2
μονα@@ 2
μορ@@ 2
μορφ@@ 2
μυ@@ 2
μό@@ 2
ναι 2
νο@@ 2
νομ@@ 2
ντ@@ 2
νύ@@ 2
νώ@@ 2
οβ@@ 2
οι 2
ολογ@@ 2
ορι@@ 2
ορο@@ 2
οτ@@ 2
ου 2
οχ@@ 2
πέ@@ 2
παί@@ 2
παλαι@@ 2
παν@@ 2
περί@@ 2
πιστ@@ 2
πλη@@ 2
πολ@@ 2
πτ@@ 2
πυ@@ 2
ρά 2
ρα 2
ριν@@ 2
ροφ@@ 2
ρυ@@ 2
ρό@@ 2
σία 2
σμός 2
σο@@ 2
στη@@ 2
στις 2
στρα@@ 2
συ@@ 2
συν@@ 2
σω@@ 2
τά@@ 2
τή@@ 2
ταμ@@ 2
ταυ@@ 2
ταχ@@ 2
τεκ@@ 2
τες 2
το 2
τολ@@ 2
τοπ@@ 2
του@@ 2
τού@@ 2
υπο@@ 2
φαλ@@ 2
ωμα 2
ως 2
όμ@@ 2
όπο@@ 2
όρος 2
όχ@@ 2
ύγ@@ 2
ώπ@@ 2
ϑ 2
Ϝ 2
ϩ@@ 2
ϫ@@ 2
Ё@@ 2
Ђ@@ 2
Ѕ@@ 2
Џ@@ 2
Авто@@ 2
Ад@@ 2
Ай@@ 2
Алек@@ 2
Бу@@ 2
Българ@@ 2
Вар@@ 2
Ве@@ 2
Ви@@ 2
Вла@@ 2
Все@@ 2
Ду@@ 2
За@@ 2
Ива@@ 2
Иван 2
Ком@@ 2
Ле@@ 2
Ли@@ 2
Лу@@ 2
Лю@@ 2
Мак@@ 2
Мария 2
Ме@@ 2
Международ@@ 2
Мини@@ 2
Миха@@ 2
Мо@@ 2
Мон@@ 2
Му@@ 2
Национа@@ 2
Пер@@ 2
Пи@@ 2
Под@@ 2
Ро@@ 2
ССР 2
Се@@ 2
Сер@@ 2
Си@@ 2
Сою@@ 2
Три@@ 2
Це@@ 2
Чер@@ 2
Ъ@@ 2
Ю 2
авто@@ 2
ад@@ 2
актив@@ 2
ари 2
ата@@ 2
ать 2
бар@@ 2
бит@@ 2
буду@@ 2
бы@@ 2
быть 2
вание 2
вар@@ 2
вен@@ 2
вет@@ 2
визи@@ 2
вод@@ 2
вой 2
вой@@ 2
вра@@ 2
въ@@ 2
вых 2
гар@@ 2
ги@@ 2
гим@@ 2
гори@@ 2
государствен@@ 2
граждан@@ 2
да 2
дер@@ 2
джи@@ 2
дин 2
дол@@ 2
дор 2
ев 2
ед@@ 2
ей 2
ем@@ 2
ер 2
ет@@ 2
жур@@ 2
зем@@ 2
зна@@ 2
ите@@ 2
итель@@ 2
иту@@ 2
кни@@ 2
ком@@ 2
кор@@ 2
край@@ 2
крат@@ 2
лаго@@ 2
лимпи@@ 2
лич@@ 2
лов 2
лов@@ 2
лы 2
ль 2
ля@@ 2
мер@@ 2
мон@@ 2
мпи@@ 2
нан@@ 2
нар@@ 2
нари@@ 2
нато@@ 2
ни 2
ните@@ 2
нию 2
нович 2
ного 2
ну@@ 2
ные 2
ных 2
обо@@ 2
окру@@ 2
он 2
они 2
оп@@ 2
ору@@ 2
пар@@ 2
пла@@ 2
пло@@ 2
под@@ 2
при@@ 2
простран@@ 2
ра 2
рал@@ 2
рат 2
рез@@ 2
ря@@ 2
ско@@ 2
ское 2
сла@@ 2
слав@@ 2
следо@@ 2
сна@@ 2
ста@@ 2
ств 2
стви@@ 2
сте@@ 2
стер@@ 2
стиче@@ 2
стра@@ 2
стре@@ 2
ступ@@ 2
су@@ 2
сь 2
та 2
тво@@ 2
те@@ 2
теле@@ 2
тов@@ 2
ту 2
ты@@ 2
тя@@ 2
ул 2
футбо@@ 2
хот@@ 2
храни@@ 2
ца 2
цент@@ 2
ции 2
чна 2
чь 2
ши@@ 2
шин@@ 2
щ 2
ща@@ 2
ще@@ 2
щи@@ 2
ям 2
ян 2
ёт 2
љ@@ 2
ќ@@ 2
Ѡ@@ 2
ѡ@@ 2
Ѳ@@ 2
Ѵ@@ 2
ѹ@@ 2
Ҁ 2
Ґ@@ 2
ґ@@ 2
Ғ@@ 2
Җ@@ 2
қ 2
Ң 2
Ң@@ 2
ң 2
Ҫ 2
Ү 2
ұ@@ 2
ҳ@@ 2
Һ 2
Һ@@ 2
Ә 2
Ә@@ 2
Ա@@ 2
դ@@ 2
զ@@ 2
է@@ 2
ժ@@ 2
խ@@ 2
ղ@@ 2
ջ@@ 2
տ@@ 2
ֲ@@ 2
ּ 2
ך@@ 2
ץ 2
آل 2
أش@@ 2
أل@@ 2
أن 2
أي@@ 2
إلى 2
ئ 2
ابن 2
ابو 2
اتح@@ 2
احمد 2
ادي 2
ادية 2
اسلا@@ 2
ال 2
الآ@@ 2
الأر@@ 2
الأول 2
الاتحاد 2
الاح@@ 2
الة 2
السع@@ 2
الض@@ 2
الط@@ 2
العظ@@ 2
الغ@@ 2
اللغة 2
المج@@ 2
المح@@ 2
المع@@ 2
المن@@ 2
الو@@ 2
الوطني 2
الی 2
انق@@ 2
انی 2
او@@ 2
اً 2
اک@@ 2
بح@@ 2
برو@@ 2
بری@@ 2
بل 2
بند@@ 2
بول@@ 2
ةً 2
تر@@ 2
ترا@@ 2
تع@@ 2
تف@@ 2
ته 2
ته@@ 2
تون@@ 2
تی 2
جر@@ 2
جنوب 2
حة 2
حزب 2
خت@@ 2
خلا@@ 2
خی@@ 2
دار 2
دار@@ 2
دان 2
دة 2
ده 2
دولة 2
دھ@@ 2
راج 2
رام 2
رسول 2
رق@@ 2
روا@@ 2
ري 2
زبان 2
زية 2
زيرة 2
سا@@ 2
سام@@ 2
سب@@ 2
سر@@ 2
سك@@ 2
سلام 2
سن@@ 2
سين 2
سی 2
سید 2
شاع@@ 2
شر@@ 2
شري@@ 2
ص 2
صر 2
صف@@ 2
صی@@ 2
ضل@@ 2
ضي@@ 2
طل@@ 2
طي@@ 2
ظ 2
عب 2
عب@@ 2
عباس 2
عث@@ 2
علوم 2
علی@@ 2
عي@@ 2
غي@@ 2
فة 2
فو@@ 2
قال 2
قد@@ 2
قص@@ 2
قل@@ 2
كام@@ 2
كر@@ 2
كو@@ 2
كي@@ 2
لام 2
لة 2
لش@@ 2
مت@@ 2
مح@@ 2
مد@@ 2
مر 2
مراد 2
مس 2
مسجد 2
مسلم 2
مك@@ 2
نت@@ 2
ندر 2
ندي 2
نط@@ 2
نق@@ 2
نية 2
وار@@ 2
والح@@ 2
وت@@ 2
وج@@ 2
وري 2
وز@@ 2
وطن 2
وو@@ 2
وی@@ 2
ير 2
يس@@ 2
يق@@ 2
ين 2
يني@@ 2
ٌ@@ 2
ٖ@@ 2
١@@ 2
ٰ 2
پر@@ 2
پنج@@ 2
پی@@ 2
چ 2
ڑ@@ 2
ڤ 2
کر@@ 2
کور@@ 2
کھ@@ 2
کی 2
ڪ@@ 2
ڽ 2
ہ@@ 2
ۆ@@ 2
ۋ@@ 2
ۗ 2
۳@@ 2
۵ 2
۷ 2
۷@@ 2
ܗ 2
ܗ@@ 2
ܛ@@ 2
ܝ 2
ܣ@@ 2
ܥ@@ 2
ܦ@@ 2
݂@@ 2
ݢ 2
މ@@ 2
ދ@@ 2
ަ 2
ި@@ 2
ު 2
ߊ@@ 2
ߞ@@ 2
ߣ@@ 2
ࡉ@@ 2
ंच 2
ंच@@ 2
अन@@ 2
अर@@ 2
आदि 2
ई@@ 2
करा@@ 2
काल@@ 2
कृ@@ 2
कौ@@ 2
ख 2
खा 2
खो@@ 2
गण@@ 2
गां@@ 2
गौ@@ 2
चे@@ 2
जन 2
ठ 2
डो@@ 2
तक 2
तीन 2
तु 2
ते@@ 2
थ 2
दा 2
देव 2
देव@@ 2
ध 2
धार@@ 2
धी 2
धी@@ 2
नाइ@@ 2
नो@@ 2
पान 2
पू@@ 2
पृ@@ 2
बं@@ 2
बहुत 2
बा 2
भग@@ 2
भार@@ 2
भारतीय 2
भि@@ 2
भु@@ 2
मन 2
मह@@ 2
मान 2
माल 2
मू@@ 2
यी 2
ये@@ 2
यौ@@ 2
रत@@ 2
रव 2
रा 2
राम 2
रीय 2
रो@@ 2
ला 2
वय@@ 2
विक@@ 2
विष@@ 2
श 2
ष 2
सम@@ 2
समा@@ 2
सर@@ 2
सा 2
साम@@ 2
सी 2
सौ@@ 2
हो@@ 2
िया@@ 2
ो 2
॥ 2
অ@@ 2
ই@@ 2
উ@@ 2
ছ@@ 2
জ@@ 2
দ@@ 2
ধ@@ 2
ন 2
ফ@@ 2
ম 2
ল 2
ষ@@ 2
হ@@ 2
৳ 2
ਆ@@ 2
ਇ@@ 2
ਓ 2
ਯ@@ 2
ੀ 2
ੂ 2
ੋ@@ 2
੍@@ 2
ੱ@@ 2
ગ@@ 2
ત@@ 2
ય 2
ર@@ 2
લ@@ 2
વ@@ 2
ા@@ 2
ଓ@@ 2
ଗ@@ 2
ଛ@@ 2
ର@@ 2
ଲ@@ 2
ହ@@ 2
ୀ@@ 2
୍@@ 2
இ@@ 2
க 2
ந@@ 2
வ@@ 2
ு 2
ெ@@ 2
ே 2
ே@@ 2
ை@@ 2
క 2
గ@@ 2
ట@@ 2
డ@@ 2
త 2
బ@@ 2
మ 2
ళ@@ 2
స@@ 2
హ@@ 2
ా 2
ి 2
ే 2
ో 2
ಗ@@ 2
ಟ@@ 2
ದ@@ 2
ನ@@ 2
ಭ@@ 2
ರ 2
ವ@@ 2
ಹ@@ 2
ಾ 2
ು@@ 2
ೆ@@ 2
ം@@ 2
ഐ@@ 2
ക 2
ട@@ 2
ര@@ 2
വ@@ 2
ശ@@ 2
ീ@@ 2
ව@@ 2
හ@@ 2
ේ@@ 2
ี่ปุ่น 2
๏@@ 2
ກ 2
໌ 2
ཏ@@ 2
ཐ@@ 2
ཛ@@ 2
ཞ@@ 2
ཤ@@ 2
ྗ@@ 2
ྟ@@ 2
ྩ@@ 2
ྭ@@ 2
ဉ@@ 2
ဦ@@ 2
ိ 2
ူ 2
္ 2
ၾ@@ 2
ႊ@@ 2
თ 2
კ@@ 2
ღ@@ 2
ყ@@ 2
შ@@ 2
ძ@@ 2
ም@@ 2
ሪ 2
ራ@@ 2
ር@@ 2
ስ@@ 2
ቀ@@ 2
ተ 2
ን@@ 2
ኢ@@ 2
ኤ@@ 2
እ@@ 2
ው@@ 2
የ@@ 2
ያ 2
ዮ@@ 2
ግ@@ 2
ጵ@@ 2
ᓄ@@ 2
ច 2
ធ 2
ឯ@@ 2
ូ 2
៚@@ 2
៤ 2
៦ 2
៩ 2
ᠨ 2
ᥑ@@ 2
ᥣ@@ 2
ᥫ@@ 2
ᨶ@@ 2
ᨾ@@ 2
ᨿ@@ 2
ᩁ@@ 2
ᩃ@@ 2
ᩐ@@ 2
ᩩ@@ 2
ᮧ@@ 2
ᵑ@@ 2
ᵻ 2
Ḍ@@ 2
ḵ 2
Ṣ@@ 2
Ṭ@@ 2
ṳ@@ 2
ṵ 2
ề@@ 2
ồ@@ 2
ở 2
ụ@@ 2
ừ@@ 2
ử@@ 2
ỹ@@ 2
Ἔ@@ 2
ἠ@@ 2
ἡ@@ 2
ἤ@@ 2
ἧ@@ 2
ἷ@@ 2
ὖ@@ 2
ὴ@@ 2
ὸ@@ 2
ᾱ 2
ᾱ@@ 2
ᾶ@@ 2
ῃ@@ 2
ῑ@@ 2
Ῥ@@ 2
ῳ@@ 2
‏ 2
‐@@ 2
‧@@ 2
″@@ 2
‿@@ 2
⁄@@ 2
₱@@ 2
ℏ@@ 2
ℑ 2
ℙ@@ 2
ℜ 2
ℜ@@ 2
ℝ 2
Ⅱ 2
↔@@ 2
↘ 2
∀@@ 2
∂ 2
∎ 2
∝@@ 2
∥@@ 2
∧@@ 2
∪ 2
∫ 2
∴ 2
⊿@@ 2
① 2
▢@@ 2
▼@@ 2
◇@@ 2
◦ 2
☃ 2
☮@@ 2
♀ 2
♇@@ 2
♯@@ 2
⚡@@ 2
⚪@@ 2
⚫@@ 2
⠃@@ 2
⠉@@ 2
⠋@@ 2
⠑@@ 2
⠓@@ 2
⠕@@ 2
⠙@@ 2
⠚@@ 2
ⲁ 2
ⲉ 2
ⲙ 2
Ⲡ@@ 2
ⲫ@@ 2
ⲱ@@ 2
ⴱ@@ 2
ⴳ@@ 2
ⵄ@@ 2
ⵏ@@ 2
ⵙ@@ 2
ⵜ 2
〉@@ 2
ぅ@@ 2
ぇ 2
ぉ@@ 2
ぐ 2
ご 2
じ 2
だ 2
び 2
ぴ@@ 2
ぶ 2
ゕ@@ 2
ゝ 2
ゞ@@ 2
ァ 2
サ 2
セ 2
テ 2
ノ 2
モ 2
ワ 2
ヵ 2
ㄍ@@ 2
ㄐ@@ 2
ㄑ@@ 2
ㄔ@@ 2
ㄗ@@ 2
ㄜ@@ 2
ㄝ@@ 2
ㄟ@@ 2
ㅅ 2
ㅇ 2
ㅈ 2
ㅍ 2
ㅣ 2
ㇰ 2
㔻 2
㬎@@ 2
一 2
丑@@ 2
且@@ 2
丕 2
世界 2
並@@ 2
丹 2
丼 2
丼@@ 2
举@@ 2
乎@@ 2
乡 2
买@@ 2
乳 2
事件 2
于 2
五 2
亥 2
享@@ 2
亶@@ 2
以 2
仪 2
企@@ 2
休 2
伦@@ 2
似 2
余 2
你 2
佮@@ 2
佰@@ 2
佶@@ 2
使 2
侣@@ 2
保 2
修 2
俺@@ 2
倉 2
個 2
倍@@ 2
倎@@ 2
倪@@ 2
值@@ 2
偃@@ 2
停@@ 2
傕@@ 2
傾@@ 2
像 2
僮@@ 2
僵@@ 2
儉@@ 2
優 2
允 2
兄 2
兖@@ 2
兜@@ 2
入 2
八 2
兽@@ 2
内 2
冈@@ 2
册@@ 2
军 2
冤@@ 2
冷@@ 2
净@@ 2
凈@@ 2
凑@@ 2
几@@ 2
凪@@ 2
凯@@ 2
凰 2
凱 2
分 2
刈@@ 2
创@@ 2
判@@ 2
制 2
刷@@ 2
刹@@ 2
刻 2
剌@@ 2
前 2
剑 2
割@@ 2
創@@ 2
劉 2
功 2
労 2
勐@@ 2
勖@@ 2
勘@@ 2
勢 2
勣@@ 2
勳 2
匪 2
単 2
単@@ 2
卯@@ 2
即@@ 2
卵@@ 2
卷 2
厂@@ 2
厳@@ 2
叁@@ 2
參@@ 2
友 2
叮@@ 2
可 2
台灣 2
叻@@ 2
各 2
吒@@ 2
吕@@ 2
吗@@ 2
吞@@ 2
吹 2
吻 2
呣@@ 2
周 2
咕@@ 2
咖@@ 2
咫@@ 2
咱@@ 2
員 2
哪@@ 2
哮@@ 2
唄@@ 2
唇@@ 2
唔@@ 2
啓@@ 2
善 2
喋@@ 2
喪@@ 2
嗯@@ 2
嘉 2
噠@@ 2
嚕@@ 2
囊@@ 2
囍 2
园 2
固 2
固@@ 2
圃@@ 2
團 2
圧@@ 2
在 2
地方 2
圳@@ 2
址@@ 2
坊 2
坐@@ 2
坚@@ 2
型 2
垢@@ 2
埃@@ 2
域 2
堆@@ 2
堪@@ 2
報 2
堺@@ 2
塀 2
塚 2
塚@@ 2
塵@@ 2
境 2
墓 2
墙@@ 2
墩@@ 2
墮@@ 2
墳@@ 2
売@@ 2
壹@@ 2
备@@ 2
夔@@ 2
央 2
失 2
夺@@ 2
奄@@ 2
奈 2
奏 2
奸@@ 2
好 2
如 2
妝@@ 2
妾@@ 2
姊@@ 2
委员@@ 2
姬 2
姻@@ 2
娑@@ 2
娛@@ 2
娡@@ 2
婕@@ 2
婦 2
嫻@@ 2
嬴@@ 2
孚@@ 2
孝 2
季 2
宅@@ 2
宕@@ 2
官 2
宙 2
实 2
実 2
害 2
宴 2
宵 2
寓@@ 2
寛@@ 2
審@@ 2
寬@@ 2
寵@@ 2
对 2
寻@@ 2
尋@@ 2
尘@@ 2
尙@@ 2
尺@@ 2
尼 2
层@@ 2
居 2
届@@ 2
屏@@ 2
屑@@ 2
岡 2
岩 2
岳 2
峇@@ 2
峨@@ 2
峪@@ 2
峯@@ 2
嵩@@ 2
嶋@@ 2
嶲@@ 2
巅@@ 2
巛 2
巢@@ 2
左 2
巫@@ 2
巷 2
巻 2
布 2
希 2
帛@@ 2
帶@@ 2
常 2
幕 2
幢@@ 2
幣 2
幣@@ 2
干 2
并@@ 2
幼@@ 2
幾 2
序 2
庐@@ 2
库@@ 2
庞@@ 2
座 2
廕@@ 2
廠@@ 2
廩@@ 2
延 2
弐 2
弐@@ 2
弔@@ 2
強 2
弼@@ 2
归@@ 2
当 2
彗@@ 2
彝@@ 2
彪@@ 2
影 2
律 2
後 2
徒 2
従 2
忙@@ 2
怦@@ 2
性 2
惊@@ 2
惡@@ 2
惲 2
想 2
惶@@ 2
愉@@ 2
愕 2
愿@@ 2
慄@@ 2
慕@@ 2
慰@@ 2
憐@@ 2
懷 2
戈@@ 2
戒 2
战 2
戲 2
戲@@ 2
戸 2
扌 2
扎@@ 2
扣@@ 2
找@@ 2
抄 2
报 2
拂@@ 2
拐@@ 2
拡@@ 2
挙 2
授@@ 2
採@@ 2
探 2
掲@@ 2
掾@@ 2
揆@@ 2
描@@ 2
插@@ 2
揭@@ 2
援@@ 2
摂@@ 2
摄@@ 2
撒 2
據@@ 2
擲@@ 2
攕@@ 2
攸@@ 2
改 2
攻 2
效@@ 2
敎@@ 2
敕@@ 2
数@@ 2
斈@@ 2
斑@@ 2
斛@@ 2
斩@@ 2
於 2
旁 2
旬@@ 2
旻 2
旼@@ 2
昉@@ 2
昩@@ 2
昭 2
昺@@ 2
晁@@ 2
晃@@ 2
晚@@ 2
晟@@ 2
晴 2
暉@@ 2
暑@@ 2
暖@@ 2
暢@@ 2
曖@@ 2
曜@@ 2
更 2
曼@@ 2
曽 2
朂@@ 2
會 2
朋@@ 2
朗 2
望 2
末 2
权@@ 2
枫@@ 2
染 2
查@@ 2
柿@@ 2
栄@@ 2
栏@@ 2
栗@@ 2
案 2
桑@@ 2
梅 2
梨 2
棧@@ 2
棲@@ 2
植@@ 2
楓@@ 2
楨@@ 2
業 2
楷 2
楷@@ 2
楼 2
楽 2
榔@@ 2
榴@@ 2
様 2
槻@@ 2
樓 2
機 2
檸@@ 2
櫃@@ 2
歙@@ 2
止 2
歯@@ 2
歳 2
残@@ 2
殤@@ 2
毕@@ 2
毗@@ 2
毘@@ 2
民 2
氷@@ 2
汀@@ 2
汇@@ 2
池 2
汶@@ 2
汽@@ 2
沁@@ 2
沂@@ 2
沐@@ 2
没@@ 2
沱@@ 2
沼 2
況@@ 2
泊@@ 2
泡@@ 2
泪@@ 2
洵@@ 2
洼@@ 2
浒@@ 2
润@@ 2
涩@@ 2
涪@@ 2
液 2
涿@@ 2
淞@@ 2
淩@@ 2
混@@ 2
淹@@ 2
済@@ 2
渉@@ 2
減 2
渡 2
游 2
源 2
準@@ 2
滕@@ 2
滝@@ 2
滩@@ 2
滸@@ 2
漪@@ 2
潔 2
潔@@ 2
潘 2
潛@@ 2
潟@@ 2
潮 2
澂@@ 2
澤 2
澮@@ 2
濛@@ 2
濟 2
濤@@ 2
濱@@ 2
濶@@ 2
瀬 2
灯 2
灰 2
灾@@ 2
炎 2
炮@@ 2
炸@@ 2
烟@@ 2
焉@@ 2
焕@@ 2
焢@@ 2
然 2
煌@@ 2
煮@@ 2
熙 2
熾@@ 2
爌@@ 2
爸@@ 2
爹@@ 2
牆@@ 2
片 2
牖@@ 2
牧 2
犀@@ 2
犛@@ 2
献@@ 2
獨@@ 2
玖 2
玛@@ 2
玩@@ 2
珈@@ 2
珉@@ 2
班 2
琉@@ 2
琦@@ 2
琴 2
瑀@@ 2
瑋@@ 2
瑜@@ 2
瑠@@ 2
瑰 2
璆@@ 2
璇@@ 2
璋 2
璠@@ 2
璽 2
瓏@@ 2
瓚@@ 2
甌@@ 2
產@@ 2
甦@@ 2
畝@@ 2
症@@ 2
痴@@ 2
療@@ 2
白 2
百 2
皋@@ 2
盐@@ 2
监@@ 2
監 2
直 2
盼@@ 2
盾@@ 2
眉 2
県 2
眼 2
睡@@ 2
督 2
瞞@@ 2
瞻@@ 2
矣@@ 2
研 2
破 2
硕@@ 2
碎@@ 2
碗@@ 2
確@@ 2
祀@@ 2
祇@@ 2
祖 2
祜@@ 2
祠@@ 2
禕 2
禕@@ 2
禺@@ 2
私 2
秒@@ 2
秘 2
积@@ 2
移@@ 2
稜@@ 2
種 2
穰@@ 2
穷@@ 2
穿@@ 2
竜 2
竺@@ 2
笔@@ 2
笠@@ 2
笼@@ 2
筋@@ 2
筒@@ 2
答@@ 2
箕@@ 2
箱@@ 2
篆@@ 2
築@@ 2
篤@@ 2
簡 2
簿 2
簿@@ 2
粄@@ 2
粉 2
粗@@ 2
粥 2
粧@@ 2
精 2
糋@@ 2
約 2
紗@@ 2
紘@@ 2
素 2
組 2
絳@@ 2
綫@@ 2
網 2
緑@@ 2
緣@@ 2
縁@@ 2
繁@@ 2
繊@@ 2
纒@@ 2
级@@ 2
纯@@ 2
结@@ 2
络@@ 2
绣@@ 2
续@@ 2
绿@@ 2
编@@ 2
羋@@ 2
羌 2
羚@@ 2
羿@@ 2
翔 2
翟@@ 2
者 2
耦@@ 2
耳 2
耽@@ 2
聂@@ 2
聯 2
聰@@ 2
聽@@ 2
肆@@ 2
肉 2
肖@@ 2
肝@@ 2
肯@@ 2
肺@@ 2
胡 2
胤 2
胸@@ 2
腸@@ 2
腺 2
膏@@ 2
臺 2
舉@@ 2
舌 2
舒 2
舟 2
艸@@ 2
芝 2
芦@@ 2
芸 2
苗 2
苟@@ 2
若 2
英 2
茗@@ 2
茲@@ 2
草 2
荐@@ 2
荘@@ 2
荧@@ 2
荷@@ 2
荼@@ 2
莘@@ 2
菊 2
菠@@ 2
華 2
营@@ 2
萬 2
葛 2
葫@@ 2
葺@@ 2
蒋@@ 2
蒸@@ 2
蓬 2
蓮 2
蔚@@ 2
蔵 2
蕉@@ 2
薪@@ 2
藥@@ 2
藻@@ 2
蘇 2
蘋@@ 2
蘭 2
虐@@ 2
虔@@ 2
虛@@ 2
號 2
蛇 2
蛍@@ 2
蛛@@ 2
蛟@@ 2
蛤@@ 2
蜘@@ 2
蜜 2
螢@@ 2
螺@@ 2
蟒@@ 2
蠡@@ 2
蠻@@ 2
血 2
衎@@ 2
術 2
衛 2
表 2
袍@@ 2
裁 2
裟@@ 2
裸@@ 2
覆@@ 2
見 2
視 2
覚@@ 2
覧@@ 2
规@@ 2
觉@@ 2
言 2
訟@@ 2
詞 2
詠 2
詩 2
誅 2
誉@@ 2
誌 2
誠 2
誡@@ 2
說 2
読@@ 2
諦@@ 2
諶@@ 2
謎 2
謐@@ 2
譞@@ 2
警 2
譬@@ 2
譲@@ 2
護 2
讀@@ 2
让@@ 2
训@@ 2
议@@ 2
证@@ 2
诗@@ 2
诛@@ 2
诸@@ 2
调@@ 2
豈@@ 2
豌@@ 2
象 2
貨 2
貴 2
賓@@ 2
賞 2
賣@@ 2
賤@@ 2
賽@@ 2
贡@@ 2
财@@ 2
贺@@ 2
贾@@ 2
资@@ 2
赞@@ 2
赫@@ 2
赴@@ 2
起 2
足 2
跃@@ 2
跑@@ 2
距@@ 2
跟@@ 2
踊@@ 2
踋 2
踐@@ 2
蹤@@ 2
転 2
軫 2
輔 2
輩@@ 2
輯@@ 2
輸 2
轩@@ 2
轼@@ 2
辉@@ 2
辖@@ 2
辜@@ 2
辞@@ 2
辟@@ 2
辣@@ 2
辯 2
辺 2
辻@@ 2
辽@@ 2
迅@@ 2
返@@ 2
远@@ 2
迫@@ 2
迷 2
逆 2
逍@@ 2
連 2
週@@ 2
違@@ 2
遣@@ 2
避@@ 2
邇@@ 2
邈 2
邈@@ 2
邊@@ 2
邑 2
邕 2
邕@@ 2
那 2
邱@@ 2
郿@@ 2
鄱@@ 2
酒 2
酢@@ 2
酥@@ 2
酱@@ 2
酸@@ 2
醋@@ 2
醒@@ 2
釈@@ 2
释@@ 2
量 2
針 2
釣@@ 2
鈺@@ 2
鉤 2
銃 2
銃@@ 2
銅 2
銘@@ 2
錄 2
錕@@ 2
錯@@ 2
鍵@@ 2
鎌@@ 2
鎖@@ 2
鎬@@ 2
鎭@@ 2
鎮 2
钟 2
钦@@ 2
销@@ 2
错@@ 2
镇 2
閃 2
開 2
閏@@ 2
閒@@ 2
関 2
閥@@ 2
闕@@ 2
闭@@ 2
问@@ 2
阝 2
队 2
阪 2
阿 2
陝@@ 2
陞@@ 2
陣@@ 2
陰 2
随@@ 2
隕@@ 2
隗@@ 2
隻@@ 2
雌@@ 2
雎@@ 2
雛 2
雞 2
雾@@ 2
靑@@ 2
非 2
革 2
鞅@@ 2
鞏@@ 2
鞘@@ 2
韦@@ 2
韭@@ 2
預@@ 2
頓@@ 2
頻@@ 2
顥@@ 2
项@@ 2
颍@@ 2
颐@@ 2
颛@@ 2
额@@ 2
風 2
飢@@ 2
飩@@ 2
飼 2
飼@@ 2
餓@@ 2
餜@@ 2
饉@@ 2
饌@@ 2
馍@@ 2
馭@@ 2
駅 2
駐@@ 2
駒@@ 2
駕@@ 2
駙@@ 2
駿@@ 2
騰@@ 2
驍@@ 2
驕 2
驪@@ 2
骜@@ 2
髻@@ 2
鬥@@ 2
鬱 2
鬱@@ 2
鬻@@ 2
魂 2
魔 2
魠@@ 2
鮑@@ 2
鮒@@ 2
鯉@@ 2
鰻@@ 2
鳩@@ 2
鴛@@ 2
鷲@@ 2
鸟@@ 2
鸭@@ 2
鹗@@ 2
麒@@ 2
麗 2
麥@@ 2
麵 2
麻 2
麿@@ 2
黑 2
鼎 2
齒@@ 2
齮 2
ꜣ@@ 2
ꤢ@@ 2
ꨌ@@ 2
ꩌ@@ 2
갈 2
감 2
값 2
같@@ 2
걷@@ 2
견@@ 2
결@@ 2
경 2
곁@@ 2
곡 2
골@@ 2
관 2
균@@ 2
그 2
극@@ 2
글@@ 2
금 2
까 2
깽@@ 2
께@@ 2
끄@@ 2
끼@@ 2
넌 2
녀 2
년@@ 2
농@@ 2
높@@ 2
느@@ 2
능@@ 2
단 2
더 2
돌 2
된@@ 2
듯@@ 2
땀 2
때@@ 2
뛰@@ 2
띠@@ 2
락@@ 2
랄@@ 2
럼@@ 2
려 2
력 2
렴@@ 2
록@@ 2
릉 2
립@@ 2
말 2
맘@@ 2
맙@@ 2
망@@ 2
멀@@ 2
멋@@ 2
멜@@ 2
몬@@ 2
묵@@ 2
미 2
박 2
받@@ 2
발 2
밥@@ 2
벽@@ 2
별 2
보 2
복 2
붉@@ 2
블 2
빌@@ 2
빼@@ 2
쁘@@ 2
산 2
삼 2
생 2
석 2
션@@ 2
숙 2
술 2
숭@@ 2
쉬@@ 2
슬 2
슬@@ 2
앉@@ 2
않@@ 2
앙@@ 2
애 2
양 2
얼@@ 2
업@@ 2
영 2
왔@@ 2
왜@@ 2
외@@ 2
운 2
월 2
웬@@ 2
윙@@ 2
유 2
윤 2
융@@ 2
입@@ 2
잘 2
잠 2
쟁@@ 2
전 2
절@@ 2
점@@ 2
젓@@ 2
젝@@ 2
죽@@ 2
준 2
줘@@ 2
증@@ 2
집@@ 2
짠@@ 2
창 2
첫@@ 2
체@@ 2
카@@ 2
케@@ 2
콘@@ 2
쿠@@ 2
쿵@@ 2
킬 2
킹@@ 2
탐@@ 2
토@@ 2
톨@@ 2
틸@@ 2
팩@@ 2
편@@ 2
폐@@ 2
표@@ 2
핑@@ 2
하 2
함@@ 2
합@@ 2
항 2
헤@@ 2
협@@ 2
회 2
훈 2
훤@@ 2
흥 2
 2
 2
 2
@@ 2
@@ 2
ﭺ 2
＃ 2
０ 2
２ 2
２@@ 2
６ 2
７ 2
Ａ@@ 2
Ｋ@@ 2
Ｒ@@ 2
Ｗ@@ 2
Ｙ@@ 2
Ｚ@@ 2
［ 2
ｈ@@ 2
ｋ@@ 2
ｎ@@ 2
ｒ@@ 2
ｓ@@ 2
ｗ@@ 2
ｙ@@ 2
｜@@ 2
｡@@ 2
� 2
𐩬@@ 2
𐬁@@ 2
𐬎@@ 2
𐭲@@ 2
𑀓@@ 2
𑀭@@ 2
𑀸@@ 2
𑂏@@ 2
𑂡@@ 2
𑂧@@ 2
𑄢@@ 2
𑄨@@ 2
𑄳@@ 2
𑄴@@ 2
𑱵@@ 2
𑲆@@ 2
𑵵@@ 2
𑵶@@ 2
𑶋@@ 2
𑶕@@ 2
𒀭@@ 2
𒆠 2
𖬤@@ 2
𖬲@@ 2
𝐄@@ 2
𝐑@@ 2
𝐜@@ 2
𝐞@@ 2
𝐣@@ 2
𝐭 2
𝜃@@ 2
𞤭@@ 2
🟢 2
ABD 1
Adem@@ 1
Alman 1
Almanya 1
Als 1
Amerik@@ 1
Auch 1
Cette 1
Cumhur@@ 1
Devlet@@ 1
Diese 1
Durch 1
Ende 1
Familie 1
Feb@@ 1
Forsch@@ 1
Fue 1
Genel 1
Geometr@@ 1
Haup@@ 1
Ils 1
Kif@@ 1
Kilometer 1
Landes@@ 1
Liste 1
Londres 1
Maji 1
Menschen 1
Mji 1
Ort 1
Seit 1
Teil@@ 1
Titel 1
Verein@@ 1
Wilaya 1
Zusammen@@ 1
abril 1
adhim@@ 1
afir@@ 1
ajes 1
akter@@ 1
aliwa 1
alten 1
ammen 1
ancak 1
ancien 1
anderen 1
anisha 1
ateurs 1
aussi 1
avait 1
avoir 1
bahari 1
bajo 1
besch@@ 1
binh 1
biri 1
cada 1
cargo 1
centro 1
cette 1
ciud@@ 1
communes 1
connu 1
contra 1
cual@@ 1
cuer@@ 1
culos 1
cung 1
daha 1
damit 1
diese 1
diesen 1
difer@@ 1
donde 1
dort 1
edrich 1
einz@@ 1
ellement 1
emaji 1
embar@@ 1
embargo 1
emein@@ 1
emente 1
ennent 1
entras 1
entw@@ 1
esab@@ 1
escri@@ 1
espec@@ 1
etwa 1
eviz@@ 1
eyal@@ 1
fahren 1
familia 1
fue 1
futbol@@ 1
gebiet 1
geg@@ 1
gegen@@ 1
gez@@ 1
giao 1
gibt 1
gouvern@@ 1
groupe 1
grub@@ 1
haben 1
haber 1
hadi 1
halten 1
hatte 1
hatten 1
hayo 1
hizo 1
icios 1
ieren 1
iert 1
ihre 1
ihrer 1
iliy@@ 1
irse 1
isant 1
itwa 1
jeres 1
jiji 1
jimbo 1
kati 1
kazi 1
keiten 1
kent@@ 1
kez@@ 1
khu 1
kuna 1
kundi 1
kuto@@ 1
kuwa 1
layan 1
leich 1
letz@@ 1
llev@@ 1
lors 1
lugar 1
luss 1
marqu@@ 1
medio 1
mehr 1
mehr@@ 1
mej@@ 1
membres 1
menos 1
mesi 1
moins 1
moja 1
momento 1
mtu 1
muerte 1
mundo 1
nahmen 1
neuen 1
ngay 1
nhau 1
nhi@@ 1
niversit@@ 1
nombre 1
nouveau 1
nouvelle 1
nungen 1
nur 1
obra 1
obten@@ 1
ographie 1
onnat 1
orta@@ 1
osto 1
otball 1
otras 1
ouest 1
oyun@@ 1
partie 1
peu 1
peut 1
provincia 1
pueblo 1
punkt 1
punto 1
qued@@ 1
quelle 1
quement 1
quy@@ 1
recu@@ 1
reste 1
riere 1
risto 1
rund 1
sahi@@ 1
schaft@@ 1
schnit@@ 1
schon 1
schri@@ 1
secu@@ 1
segu@@ 1
seinem 1
selbst 1
seur 1
singi 1
sitz@@ 1
soll 1
sowie 1
spor 1
stellung 1
suiv@@ 1
superficie 1
tarde 1
tatu 1
telev@@ 1
tement 1
thanh 1
tiene 1
tiki 1
timm@@ 1
tinh 1
tionen 1
tischen 1
titre 1
titul@@ 1
tlich 1
tober 1
toda 1
tores 1
toujours 1
trabaj@@ 1
trai 1
tranh 1
trieb@@ 1
trouve 1
ucu 1
ulus@@ 1
uwe@@ 1
verk@@ 1
voll@@ 1
vuel@@ 1
vya 1
waren 1
wegen 1
weit@@ 1
weiter 1
werden 1
wieder@@ 1
wird 1
wissen@@ 1
woh@@ 1
yao 1
yeye 1
zaman 1
zul@@ 1
zuri 1
zwischen 1
@@ 1
 1
 1
@@ 1
 1
@@ 1
@@ 1
 1
 1
 1
¦ 1
¦@@ 1
ª 1
¯ 1
¶ 1
¸ 1
º@@ 1
¾@@ 1
Ã 1
Ã@@ 1
Ë@@ 1
Ì 1
Î@@ 1
Ï 1
Ð 1
Ò 1
Ù 1
Ú@@ 1
õ@@ 1
üş 1
üş@@ 1
Ă 1
Ĉ@@ 1
ĉ 1
ĉ@@ 1
Ċ@@ 1
Ď 1
Ď@@ 1
ď 1
ď@@ 1
đá 1
đó 1
đồ 1
độ 1
ĕ@@ 1
Ė 1
Ĝ@@ 1
ĝ@@ 1
Ğ 1
Ġ 1
ĥ@@ 1
Ĩ 1
Ī@@ 1
Ĭ 1
į@@ 1
İ@@ 1
ığı 1
ış 1
Ĳ 1
ĳ 1
ĵ@@ 1
ķ 1
ķ@@ 1
ĸ 1
ĺ 1
Ļ 1
ļ 1
Ľ 1
ľ@@ 1
Ň@@ 1
Œ@@ 1
ŗ 1
Ř@@ 1
Ŝ 1
ŝ@@ 1
Ť 1
ť@@ 1
Ŧ 1
ŧ 1
Ũ 1
Ů 1
Ų 1
ų 1
ų@@ 1
ż@@ 1
ſ@@ 1
Ƅ 1
ƅ@@ 1
Ɔ 1
Ǝ 1
Ǝ@@ 1
Ə 1
Ɛ@@ 1
Ɵ 1
ƭ@@ 1
Ư 1
ƴ@@ 1
Ƶ 1
ƶ 1
ǃ@@ 1
ǈ 1
Ǎ 1
Ǒ 1
Ǔ 1
ǘ 1
ǘ@@ 1
ǜ 1
ǝ 1
ǝ@@ 1
Ǧ 1
ǧ@@ 1
ǵ 1
Ț 1
Ȟ@@ 1
ȟ 1
ȟ@@ 1
Ȩ 1
ȩ@@ 1
ȯ 1
Ȳ 1
ȳ@@ 1
ȵ@@ 1
ɐ@@ 1
ɖ 1
ɖ@@ 1
ɗ 1
ɜ 1
ɤ 1
ɤ@@ 1
ɫ 1
ɬ@@ 1
ɭ@@ 1
ɮ@@ 1
ɰ 1
ɳ@@ 1
ɵ@@ 1
ɷ 1
ɻ@@ 1
ʀ@@ 1
ʅ 1
ʅ@@ 1
ʈ 1
ʉ@@ 1
ʋ 1
ʍ 1
ʐ 1
ʙ 1
ʤ 1
ʨ@@ 1
ʱ 1
ʷ 1
ʷ@@ 1
ʹ@@ 1
ʽ@@ 1
ˁ@@ 1
ˆ 1
ˆ@@ 1
ˉ@@ 1
˛ 1
ˤ 1
ˮ 1
̆@@ 1
̇ 1
̎ 1
̑ 1
̒ 1
̚ 1
̞ 1
̞@@ 1
̠ 1
̠@@ 1
̡ 1
̣@@ 1
̧@@ 1
̹@@ 1
΄ 1
Ένω@@ 1
Ό@@ 1
ΐ@@ 1
Αγ@@ 1
Αλεξ@@ 1
Αργ@@ 1
Βασ@@ 1
Βασιλ@@ 1
Βεν@@ 1
Γι@@ 1
Δήμ@@ 1
Εκ@@ 1
Ελλ@@ 1
Ελλάδ@@ 1
Ευ@@ 1
Η 1
Ιερ@@ 1
Ισ@@ 1
Ιω@@ 1
Κα@@ 1
Καλλ@@ 1
Καρ@@ 1
Κατά 1
Κοιν@@ 1
Κορ@@ 1
Μαρ@@ 1
Μεγ@@ 1
Μεγάλ@@ 1
Ξ 1
Ο 1
Οικ@@ 1
Π 1
Παν@@ 1
Παπ@@ 1
Παρ@@ 1
Περ@@ 1
Στρ@@ 1
Συν@@ 1
Σύ@@ 1
Τα 1
Φ 1
Φρ@@ 1
άβ@@ 1
άζ@@ 1
άλασ@@ 1
άν 1
άνδρ@@ 1
άρι@@ 1
άρκ@@ 1
άς 1
έ 1
έα 1
έας 1
έβ@@ 1
έδ@@ 1
έμ@@ 1
έρα 1
ές 1
έχ@@ 1
ήγ@@ 1
ήλ@@ 1
ήχ@@ 1
ίας 1
ίζ@@ 1
ίκη 1
ίλι@@ 1
ίου 1
ίσ@@ 1
ίων 1
αγων@@ 1
ανατολ@@ 1
ανδ@@ 1
αντ@@ 1
αντι@@ 1
αξι@@ 1
από 1
αστ@@ 1
αφ@@ 1
αϊ@@ 1
βά@@ 1
βιβλ@@ 1
γεν@@ 1
γεω@@ 1
γι@@ 1
γλώσ@@ 1
γρα@@ 1
γραφή 1
δέ@@ 1
δέχ@@ 1
δήμ@@ 1
δία 1
δίν@@ 1
δίσ@@ 1
δη@@ 1
δημ@@ 1
διακ@@ 1
δικ@@ 1
δοκ@@ 1
δού@@ 1
δρά@@ 1
δυνα@@ 1
δύ@@ 1
είδ@@ 1
είς 1
εια 1
ειλ@@ 1
ειο@@ 1
εκδ@@ 1
ελλ@@ 1
εμφ@@ 1
εν 1
εξ@@ 1
επί@@ 1
επίσ@@ 1
επισκ@@ 1
επιστήμ@@ 1
εργ@@ 1
ερι@@ 1
εφαλ@@ 1
εχ@@ 1
ζω@@ 1
ηγ@@ 1
ημα 1
ην@@ 1
ηρε@@ 1
ησ@@ 1
ητική 1
θάνα@@ 1
θεν@@ 1
θερμ@@ 1
θν@@ 1
θρ@@ 1
θρω@@ 1
θω@@ 1
ιακ@@ 1
ιζ@@ 1
ικής 1
ικός 1
ιλι@@ 1
ιος 1
ιρ@@ 1
ισμός 1
ισσ@@ 1
ιστική 1
ιστο@@ 1
ισχ@@ 1
ιτ@@ 1
καλλ@@ 1
καρ@@ 1
καρι@@ 1
κας 1
κατ@@ 1
κλει@@ 1
κοιν@@ 1
κολ@@ 1
κοπ@@ 1
κρά@@ 1
κρί@@ 1
κυκλ@@ 1
κόρ@@ 1
κόσ@@ 1
λά@@ 1
λει@@ 1
λεπ@@ 1
μένη 1
μέσ@@ 1
μαζ@@ 1
μαρ@@ 1
ματ@@ 1
ματο@@ 1
μεγ@@ 1
μελ@@ 1
μερ@@ 1
μεσ@@ 1
μη 1
μηχαν@@ 1
μικρ@@ 1
μο 1
μορφή 1
μου 1
μφ@@ 1
να 1
νερ@@ 1
νης 1
νι@@ 1
νό@@ 1
νόμ@@ 1
ξε@@ 1
οί@@ 1
ολογία 1
οξ@@ 1
ουλ@@ 1
ουν@@ 1
ους 1
ουσα 1
ούδ@@ 1
πέντε 1
παιδιά 1
παρά@@ 1
παρα@@ 1
περι@@ 1
πλευ@@ 1
πν@@ 1
ποδ@@ 1
πον@@ 1
πορ@@ 1
ποταμ@@ 1
που@@ 1
πού@@ 1
προ@@ 1
πρόσ@@ 1
πρώ@@ 1
πως 1
πόλε@@ 1
ρέ@@ 1
ρίζ@@ 1
ρίς 1
ρίσκ@@ 1
ραβ@@ 1
ραγ@@ 1
ρακ@@ 1
ραν@@ 1
ρατ@@ 1
ραφ@@ 1
ρε@@ 1
ρισκ@@ 1
ρου@@ 1
ρού@@ 1
ρυθμ@@ 1
ρω@@ 1
σε@@ 1
σκοπ@@ 1
σμ@@ 1
σσαλ@@ 1
στήρι@@ 1
συμ@@ 1
σχ@@ 1
σωτερ@@ 1
σύ@@ 1
τά 1
τέλε@@ 1
ταγ@@ 1
ται 1
τηγ@@ 1
τική 1
τιν@@ 1
τον 1
του 1
τρα@@ 1
τραγ@@ 1
τρια 1
τύ@@ 1
υζ@@ 1
υφ@@ 1
φή 1
φθ@@ 1
φυλ@@ 1
φυσ@@ 1
χή 1
χεί@@ 1
χος 1
χρ@@ 1
ωλ@@ 1
ωνίας 1
ϊ@@ 1
όγ@@ 1
όλ@@ 1
όλε@@ 1
όμα 1
όμεν@@ 1
όνα 1
όπ@@ 1
όρι@@ 1
ότ@@ 1
ύ 1
ύρια 1
ώρ@@ 1
ώς 1
ϐ@@ 1
ϒ@@ 1
Ϙ@@ 1
ϙ@@ 1
Ϝ@@ 1
ϟ 1
Ϡ 1
ϣ@@ 1
ϥ@@ 1
Ϩ@@ 1
ϩ 1
Ϯ@@ 1
ϯ 1
ϱ 1
ϲ@@ 1
ϵ 1
Ϸ 1
Ϸ@@ 1
ϸ 1
Ϲ@@ 1
Ϻ 1
Є@@ 1
Ї@@ 1
Љ@@ 1
Њ@@ 1
Ћ 1
Ќ@@ 1
Џ 1
Бал@@ 1
Бар@@ 1
Бел@@ 1
Бело@@ 1
Бер@@ 1
Боль@@ 1
Бри@@ 1
Бур@@ 1
Ва@@ 1
Ге@@ 1
Ги@@ 1
Гу@@ 1
Дж@@ 1
Джо@@ 1
Евро@@ 1
Жи@@ 1
Зе@@ 1
Из@@ 1
Ин@@ 1
Йо@@ 1
Констан@@ 1
Крас@@ 1
Ку@@ 1
Мал@@ 1
Мар@@ 1
Моск@@ 1
Не@@ 1
Николай 1
Об@@ 1
Олимпи@@ 1
Па@@ 1
Пло@@ 1
Пра@@ 1
Пре@@ 1
Пър@@ 1
России 1
Ру@@ 1
Сан@@ 1
Ско@@ 1
Ста@@ 1
Укра@@ 1
Ха@@ 1
Хар@@ 1
Хи@@ 1
Ху@@ 1
Центра@@ 1
Ша@@ 1
анд@@ 1
бан@@ 1
би 1
благо@@ 1
бра@@ 1
бри@@ 1
бу@@ 1
ван 1
ват@@ 1
вата 1
вед@@ 1
вет 1
вид@@ 1
вил 1
вин@@ 1
води@@ 1
вое 1
воен@@ 1
воло@@ 1
вом 1
вре@@ 1
вто@@ 1
ган@@ 1
гер@@ 1
ги 1
гово@@ 1
гро@@ 1
гу 1
дан 1
дате@@ 1
де 1
дей 1
дела@@ 1
держа@@ 1
джа@@ 1
ди 1
дина@@ 1
дия 1
до 1
дов 1
дой 1
др 1
дро@@ 1
душ@@ 1
дь 1
еди@@ 1
ек@@ 1
ент@@ 1
ера 1
жав@@ 1
жава 1
жан@@ 1
жда 1
жда@@ 1
жде@@ 1
ждения 1
жо@@ 1
за 1
зан@@ 1
зар@@ 1
зер@@ 1
зу@@ 1
зы@@ 1
извест@@ 1
им 1
име@@ 1
использо@@ 1
ита 1
йский 1
йской 1
кате@@ 1
кин@@ 1
кой 1
кой@@ 1
кол@@ 1
коло@@ 1
компа@@ 1
комплек@@ 1
кон@@ 1
кораб@@ 1
кре@@ 1
кру@@ 1
ку 1
лага 1
ле 1
лев@@ 1
лей 1
лена 1
ления 1
ли 1
лин@@ 1
лица 1
лна 1
лова 1
лод@@ 1
лом 1
льный 1
любо@@ 1
лё@@ 1
ма 1
мал@@ 1
ман 1
мар@@ 1
меда@@ 1
мей@@ 1
ми 1
мили@@ 1
мит@@ 1
моде@@ 1
мы 1
мя 1
над@@ 1
най 1
недо@@ 1
ней 1
нем 1
немец@@ 1
нение 1
нер@@ 1
ние 1
нии 1
ники 1
нин 1
ница 1
ници@@ 1
нови@@ 1
ному 1
нос@@ 1
ност 1
ност@@ 1
ну 1
ны 1
ня@@ 1
оба@@ 1
обла@@ 1
образ@@ 1
объ@@ 1
од@@ 1
одно@@ 1
ок@@ 1
ол@@ 1
освобо@@ 1
от 1
па 1
па@@ 1
парти@@ 1
пей@@ 1
пера@@ 1
площа@@ 1
побе@@ 1
поз@@ 1
пол@@ 1
поле@@ 1
поли@@ 1
полу@@ 1
пон@@ 1
пор@@ 1
послед@@ 1
прие@@ 1
програ@@ 1
производ@@ 1
пут@@ 1
пя@@ 1
рав@@ 1
разме@@ 1
ран 1
рах 1
ред@@ 1
рес@@ 1
рий@@ 1
рин@@ 1
рина 1
рите@@ 1
рих 1
рода 1
рон@@ 1
росси@@ 1
ры@@ 1
сан@@ 1
сбор@@ 1
север@@ 1
сек@@ 1
сельского 1
си 1
систе@@ 1
ск 1
ско 1
смо@@ 1
собо@@ 1
сов@@ 1
спек@@ 1
сс@@ 1
сси@@ 1
ста 1
става 1
ственной 1
ственный 1
ствует 1
сти 1
стой@@ 1
стран@@ 1
стри@@ 1
строй@@ 1
сты@@ 1
сть@@ 1
ся@@ 1
тан@@ 1
тар@@ 1
те 1
тен@@ 1
тече@@ 1
тив@@ 1
тин@@ 1
тина 1
тиче@@ 1
том@@ 1
тон 1
тру@@ 1
ту@@ 1
тё@@ 1
укра@@ 1
уни@@ 1
университе@@ 1
управ@@ 1
ут@@ 1
уч@@ 1
уча@@ 1
уче@@ 1
фа 1
фе@@ 1
фло@@ 1
фо@@ 1
фор@@ 1
фрон@@ 1
хай@@ 1
хан 1
хи@@ 1
ходи@@ 1
хра@@ 1
це 1
цион@@ 1
ця@@ 1
част@@ 1
чети@@ 1
чо@@ 1
шим 1
шка 1
шко@@ 1
шо@@ 1
ър@@ 1
юр@@ 1
яр@@ 1
ён 1
ён@@ 1
ёр@@ 1
є@@ 1
ѕ@@ 1
ї 1
љ 1
ћ 1
ќ 1
џ@@ 1
Ѡ 1
Ѥ@@ 1
ѥ@@ 1
Ѯ@@ 1
ѯ@@ 1
Ѱ@@ 1
ѱ@@ 1
ѳ@@ 1
ѵ@@ 1
Ѹ@@ 1
Ѻ@@ 1
ѻ@@ 1
Ѿ@@ 1
ѿ@@ 1
Ҁ@@ 1
ҁ@@ 1
Ҍ@@ 1
ҍ 1
Ҏ@@ 1
ҏ@@ 1
Ҕ@@ 1
ҕ@@ 1
Җ 1
Ҙ 1
ҙ 1
Қ 1
Ҡ 1
ҡ 1
Ҥ@@ 1
ҥ 1
ҥ@@ 1
Ҫ@@ 1
ҫ 1
Ұ@@ 1
Ҳ 1
Ҳ@@ 1
ҳ 1
Ҷ 1
ҷ 1
һ 1
Ӂ@@ 1
ӈ@@ 1
Ӌ 1
Ӑ@@ 1
Ӕ 1
ӕ 1
Ӗ@@ 1
ӗ@@ 1
Ӣ 1
ӣ@@ 1
ӧ 1
ӧ@@ 1
Ӭ@@ 1
ӭ@@ 1
Ӯ 1
ӯ 1
Ӳ 1
Ӷ 1
ӷ 1
ԝ 1
ԝ@@ 1
Ա 1
Բ 1
Գ 1
Դ 1
Ե 1
Զ 1
Է 1
Ը 1
Թ 1
Ժ 1
Ի 1
Ի@@ 1
Լ 1
Խ 1
Կ@@ 1
Մ@@ 1
Տ@@ 1
Ց@@ 1
ա 1
ի 1
հ@@ 1
մ@@ 1
ն 1
ո 1
պ@@ 1
ս@@ 1
ր 1
ց@@ 1
ւ 1
ւ@@ 1
ֱ@@ 1
ֺ@@ 1
ג 1
ו 1
ט 1
ף 1
ף@@ 1
ץ@@ 1
؄@@ 1
ؔ 1
آب@@ 1
آد@@ 1
آز@@ 1
آزاد 1
آن 1
آن@@ 1
آپ 1
أجل 1
أح@@ 1
أر@@ 1
أس 1
أغ@@ 1
أف@@ 1
أن@@ 1
أه@@ 1
أُ@@ 1
إ 1
إن 1
إن@@ 1
إي@@ 1
ئة 1
ائر 1
ائی 1
اب 1
ابت@@ 1
ابی 1
اتها 1
اح@@ 1
اخ@@ 1
اخت@@ 1
ادر 1
اذ@@ 1
ارب 1
اردو 1
اري 1
ارية 1
ارہ 1
ازی 1
است@@ 1
اسرائی@@ 1
اسم 1
اسم@@ 1
اصل 1
اظ@@ 1
اعظم 1
اغ@@ 1
اقتص@@ 1
الأد@@ 1
الأس@@ 1
الأول@@ 1
الأولى 1
الاست@@ 1
البي@@ 1
التار@@ 1
التعل@@ 1
الثاني 1
الجام@@ 1
الجزائر 1
الجن@@ 1
الحر@@ 1
الدین 1
الذين 1
الرح@@ 1
الرو@@ 1
الصح@@ 1
العالم 1
العرا@@ 1
الفت@@ 1
القدم 1
القر@@ 1
الم 1
المر@@ 1
المس@@ 1
المست@@ 1
المملكة 1
المي@@ 1
الوط@@ 1
امری@@ 1
امي 1
امی 1
امی@@ 1
امیر 1
انس@@ 1
انية 1
انڈ@@ 1
اول 1
اون@@ 1
اية 1
ایران 1
ایک 1
بات 1
باد@@ 1
بار 1
باع@@ 1
بال 1
باً 1
بة 1
بخ@@ 1
بد@@ 1
بري@@ 1
بز@@ 1
بص@@ 1
بط 1
بطولة 1
بع@@ 1
بعد 1
بق@@ 1
بني 1
بوا@@ 1
بي 1
بين 1
بچ@@ 1
بی 1
تاب 1
تاج 1
تار@@ 1
تاريخ 1
تب@@ 1
تخ@@ 1
تخب 1
تش 1
تش@@ 1
تض@@ 1
تعل@@ 1
تم@@ 1
تنظ@@ 1
تها 1
تو@@ 1
تي 1
جا 1
جائ@@ 1
جان@@ 1
جة 1
جد@@ 1
جذ@@ 1
جر 1
جز@@ 1
جم 1
جو@@ 1
جي 1
حد@@ 1
حدث 1
حز@@ 1
حسن 1
حسین 1
حص@@ 1
حض@@ 1
حق@@ 1
حم@@ 1
حمل@@ 1
حي 1
خان 1
خت 1
خد@@ 1
خي@@ 1
دا 1
دائ@@ 1
دان@@ 1
در 1
دل 1
دو 1
دول@@ 1
دي 1
ديم 1
دی 1
را 1
رار 1
رب 1
ربي 1
رض 1
رض@@ 1
رف 1
رف@@ 1
ری 1
زا 1
زة 1
زند@@ 1
ساح@@ 1
ست 1
ستان 1
سج@@ 1
سری 1
سلا@@ 1
سلو@@ 1
سم@@ 1
سند 1
سپ@@ 1
سین 1
سین@@ 1
شاہ 1
شو@@ 1
شي@@ 1
شک@@ 1
شیخ 1
صد@@ 1
صدر 1
صلی 1
صي@@ 1
ضع 1
طان@@ 1
طاني 1
طر@@ 1
عاب 1
عام@@ 1
عة 1
عد 1
عر@@ 1
عق@@ 1
عل 1
عمر@@ 1
عن@@ 1
عه 1
عي 1
غرا@@ 1
غز@@ 1
غیر 1
فا@@ 1
فار@@ 1
فاع 1
فتح 1
فرا@@ 1
فري@@ 1
فس@@ 1
فلسط@@ 1
فيلم 1
فی 1
قاد@@ 1
قان@@ 1
قبال 1
قط@@ 1
قي 1
قي@@ 1
قین 1
كر 1
كم 1
كن 1
كو 1
كوم@@ 1
لائ@@ 1
لال 1
لان@@ 1
لاً 1
لف 1
لق@@ 1
لك@@ 1
للأ@@ 1
لم 1
لن@@ 1
له 1
لو 1
لوب 1
لية 1
مؤس@@ 1
ماء 1
ماؤ@@ 1
مال 1
مب@@ 1
مة 1
مج@@ 1
مذ@@ 1
مرا@@ 1
مز@@ 1
مسلمان 1
مش@@ 1
مشر@@ 1
مصر 1
مع 1
معر@@ 1
مق@@ 1
مقرا@@ 1
مل 1
ممل@@ 1
منتخب 1
موا@@ 1
موسم 1
مون@@ 1
مى 1
مي 1
مية 1
مک@@ 1
نار@@ 1
ناصر 1
نة 1
نج@@ 1
نح@@ 1
ند 1
ندا 1
ندية 1
ندی 1
نش@@ 1
نص@@ 1
نظ@@ 1
نف@@ 1
نقل 1
نم@@ 1
نه 1
نه@@ 1
نو@@ 1
نور 1
نور@@ 1
ني 1
نگ 1
نی 1
نیا 1
ها 1
هذ@@ 1
هذا 1
هر 1
هي 1
وات 1
واج 1
والم@@ 1
وان 1
وان@@ 1
وخ@@ 1
ور 1
ورة 1
وري@@ 1
وز 1
وزیر 1
وس 1
وسف 1
وش@@ 1
وط@@ 1
وفي@@ 1
وق 1
ولا 1
وي 1
وَّ@@ 1
ویت 1
يخ@@ 1
يران 1
يز@@ 1
يع@@ 1
يل 1
يم 1
ينة 1
يني 1
يه@@ 1
ّة 1
ٚ@@ 1
٠ 1
١ 1
٢ 1
٣ 1
٣@@ 1
٤ 1
٤@@ 1
٥ 1
٦ 1
٧ 1
٩ 1
٫ 1
ٮ@@ 1
ٱ@@ 1
ٲ 1
ٹ@@ 1
ٹھ 1
ٺ 1
ٻ 1
ټ@@ 1
ٽ 1
پاک@@ 1
پور@@ 1
پہ@@ 1
ٿ 1
ڀ 1
ڃ 1
ڄ 1
چا 1
چار 1
ڇ 1
ڇ@@ 1
ڊ 1
ڌ 1
ڍ 1
ڏ 1
ژ 1
ژ@@ 1
ڙ 1
ڦ 1
کا@@ 1
کافی 1
کام 1
کت@@ 1
کتب 1
کث@@ 1
کر 1
کری@@ 1
کس@@ 1
کش@@ 1
کم@@ 1
کن@@ 1
کنی@@ 1
کو@@ 1
ڭ@@ 1
ڮ@@ 1
گری 1
گو@@ 1
گی@@ 1
ڱ 1
ڳ 1
ں@@ 1
ڻ 1
ہ 1
ہی@@ 1
ۈ@@ 1
ۉ@@ 1
ۊ@@ 1
یار 1
یم 1
ین 1
ۏ 1
ۏ@@ 1
ے@@ 1
ە 1
ۚ 1
۝@@ 1
۞ 1
۞@@ 1
۰ 1
۱ 1
۲@@ 1
۶@@ 1
۹ 1
۹@@ 1
ܒ 1
ܓ 1
ܓ@@ 1
ܘ 1
ܙ 1
ܚ@@ 1
ܛ 1
ܢ 1
ܣ 1
ܪ 1
ܲ@@ 1
ܵ@@ 1
ܹ@@ 1
ހ@@ 1
ބ@@ 1
ޅ@@ 1
ކ@@ 1
އ@@ 1
ޑ@@ 1
ޝ@@ 1
ާ 1
ާ@@ 1
ި 1
ީ 1
ީ@@ 1
ު@@ 1
ޫ 1
ެ 1
ޭ 1
ޮ 1
ޮ@@ 1
ޯ 1
ް 1
ޱ@@ 1
ߍ@@ 1
ߏ@@ 1
ߐ@@ 1
ߓ@@ 1
ߖ@@ 1
ߙ@@ 1
ߛ@@ 1
ߥ@@ 1
߫ 1
߫@@ 1
ߺ 1
ࡃ@@ 1
ࡌ@@ 1
ࡍ@@ 1
ंग 1
ंस 1
अंत 1
अग@@ 1
अथ@@ 1
अनु@@ 1
अभि@@ 1
अव@@ 1
आग@@ 1
इन 1
इन@@ 1
उप@@ 1
ऊ@@ 1
ऌ@@ 1
ए@@ 1
एं 1
एक@@ 1
एन@@ 1
एम@@ 1
ऑ 1
औ@@ 1
कं@@ 1
कन 1
कर 1
कवि@@ 1
कह@@ 1
कहा@@ 1
काम 1
कि 1
की@@ 1
कू@@ 1
के 1
को 1
खा@@ 1
खि@@ 1
खु@@ 1
गठ@@ 1
गति 1
गति@@ 1
गल 1
गि@@ 1
गी@@ 1
घ 1
घा@@ 1
चौ@@ 1
छ 1
छा@@ 1
छो@@ 1
जल@@ 1
जा 1
जार 1
जो 1
झ 1
झ@@ 1
टर 1
टी 1
टे@@ 1
ठा@@ 1
ठी 1
डर 1
डी@@ 1
णा@@ 1
णी 1
तम 1
तर@@ 1
तिक 1
तीस@@ 1
तृ@@ 1
तो 1
था 1
दर 1
दस 1
दिर 1
दू@@ 1
देश@@ 1
दो 1
नाग@@ 1
नि 1
नो 1
पट@@ 1
पति 1
पर 1
परि@@ 1
पह@@ 1
पा 1
पार 1
पि 1
फा@@ 1
फि@@ 1
फु@@ 1
ब 1
बंध@@ 1
बल 1
बी 1
भ 1
भगवान 1
भा@@ 1
भाई 1
भारत 1
भाषा 1
भू@@ 1
भूमि@@ 1
मनो@@ 1
मल 1
मान@@ 1
यन 1
यान 1
यू@@ 1
रं@@ 1
रख@@ 1
रखा 1
रण@@ 1
रणा@@ 1
रत 1
रति@@ 1
रथ@@ 1
राज 1
रानी 1
राय@@ 1
रिक 1
रिटिश 1
रिय 1
लं@@ 1
ळ 1
वक 1
वन 1
वर 1
वार 1
वाला 1
विध@@ 1
शी 1
शीर 1
शे@@ 1
शै@@ 1
शो@@ 1
षण 1
षा@@ 1
षि@@ 1
षित 1
षे@@ 1
संघ 1
सद 1
सन 1
सम 1
सै@@ 1
हम@@ 1
हरा@@ 1
हित 1
ही 1
हु@@ 1
हे@@ 1
है 1
है@@ 1
ान 1
ारा 1
ारी 1
िक 1
िल 1
ीन 1
ीय 1
ुक 1
ू 1
ृ 1
ॄ 1
ॅ@@ 1
े 1
ें 1
ै@@ 1
ॉ 1
ौर 1
ॠ@@ 1
ॡ@@ 1
ॢ 1
ॣ 1
० 1
०@@ 1
२ 1
३ 1
४ 1
५@@ 1
६ 1
७ 1
८ 1
९ 1
ॲ@@ 1
ॳ 1
ॴ 1
ঁ@@ 1
ঊ@@ 1
ক 1
খ@@ 1
ঠ 1
ড@@ 1
ণ 1
ণ@@ 1
ত 1
দ 1
ভ@@ 1
হ 1
়@@ 1
ি 1
ী 1
ো@@ 1
০ 1
১ 1
২ 1
৩ 1
৪ 1
৫ 1
৬ 1
৭ 1
৮ 1
৯ 1
ৰ@@ 1
ਅ 1
ਅ@@ 1
ਆ 1
ਇ 1
ਈ 1
ਉ 1
ਊ 1
ਏ 1
ਐ 1
ਓ@@ 1
ਔ 1
ਕ 1
ਗ 1
ਘ@@ 1
ਝ@@ 1
ਟ@@ 1
ਡ@@ 1
ਤ 1
ਥ 1
ਨ 1
ਯ 1
ਲ 1
ਵ@@ 1
਼ 1
ੁ 1
ੂ@@ 1
ੇ 1
ੈ 1
ੈ@@ 1
ੋ 1
ੌ 1
ੜ@@ 1
੧ 1
ੳ 1
ੴ 1
ੴ@@ 1
ં@@ 1
આ@@ 1
બ@@ 1
ય@@ 1
િ@@ 1
ુ@@ 1
ૐ 1
૦ 1
૧ 1
૨ 1
૩ 1
૪ 1
૫ 1
૬ 1
૭ 1
૮ 1
૯ 1
ଆ 1
ଇ@@ 1
କ@@ 1
ଙ@@ 1
ଜ 1
ଜ@@ 1
ତ@@ 1
ଵ@@ 1
ି 1
ୁ@@ 1
େ@@ 1
ୟ@@ 1
ஃ@@ 1
அ@@ 1
ஆ@@ 1
ஏ@@ 1
ங 1
ஜ@@ 1
ஞ 1
ஞ@@ 1
ண@@ 1
ன 1
ர 1
ஷ@@ 1
ீ@@ 1
ோ 1
ௌ@@ 1
ௐ@@ 1
௧ 1
௨ 1
௩ 1
௪ 1
௫ 1
௬ 1
௭ 1
௮ 1
௯ 1
௰ 1
௱ 1
௲ 1
అ 1
ఆ 1
ఇ 1
ఈ 1
ఉ 1
ఊ 1
ఊ@@ 1
ఋ 1
ఌ 1
ఎ 1
ఏ 1
ఐ@@ 1
ఒ 1
ఓ 1
ఓ@@ 1
ఔ 1
గ 1
ణ@@ 1
ధ@@ 1
భ@@ 1
య 1
శ@@ 1
ు 1
ూ 1
ూ@@ 1
ృ 1
ౄ@@ 1
ె 1
ే@@ 1
ొ 1
ౌ 1
్ 1
ౠ 1
ౡ 1
ಂ 1
ಃ@@ 1
ಓ@@ 1
ಗ 1
ಚ@@ 1
ಜ@@ 1
ಡ@@ 1
ತ@@ 1
ಮ 1
ಱ 1
ಳ 1
ಷ@@ 1
ಸ@@ 1
ೀ 1
ೆ 1
ೇ@@ 1
ೋ@@ 1
್ 1
ೞ 1
അ 1
ആ 1
ഇ 1
ഈ 1
ഉ 1
ഊ 1
ഋ 1
ഌ 1
എ 1
ഏ 1
ഒ 1
ഓ 1
ഓ@@ 1
ഔ 1
ഔ@@ 1
ങ@@ 1
ച@@ 1
ജ@@ 1
ട 1
ദ@@ 1
യ@@ 1
ല 1
ള@@ 1
ാ 1
ി 1
ു 1
ു@@ 1
ൂ 1
ൂ@@ 1
ൃ 1
ൄ 1
െ 1
േ 1
ൈ 1
ൊ 1
ോ 1
ൌ 1
ൠ 1
ൡ 1
ආ@@ 1
ඇ@@ 1
ජ@@ 1
ද 1
බ@@ 1
ය@@ 1
ල 1
ව 1
ළ 1
ැ@@ 1
ු@@ 1
ෙ@@ 1
ේ 1
ෝ@@ 1
෶ 1
๚ 1
ຊ 1
ຍ 1
ທ 1
ຝ@@ 1
ຟ@@ 1
ມ 1
ຢ@@ 1
ຯ@@ 1
ຳ 1
ິ 1
ື 1
ຼ 1
້ 1
ང 1
པ 1
མ 1
ཚ@@ 1
ཟ@@ 1
ཡ@@ 1
ཿ 1
ྃ 1
ྡ@@ 1
ྦ@@ 1
ྷ@@ 1
ဈ@@ 1
ဍ@@ 1
ပ 1
ယ 1
လ 1
ဥ@@ 1
ဧ@@ 1
ါ 1
့ 1
ျ 1
ြ 1
ှ 1
ဿ@@ 1
၄ 1
၈@@ 1
ၚ@@ 1
ၢ@@ 1
ၣ@@ 1
ၤ@@ 1
ၸ@@ 1
ၿ@@ 1
ႁ@@ 1
ႂ 1
ႄ@@ 1
ႈ 1
႘ 1
Ⴀ@@ 1
Ⴁ@@ 1
Ⴂ@@ 1
Ⴃ@@ 1
Ⴄ@@ 1
Ⴅ@@ 1
Ⴆ@@ 1
Ⴇ@@ 1
Ⴈ@@ 1
Ⴉ@@ 1
Ⴊ@@ 1
Ⴕ 1
წ@@ 1
ჭ@@ 1
ჯ@@ 1
ჶ 1
ሁ@@ 1
ለ 1
ለ@@ 1
ሉ 1
ል 1
ሕ 1
ሕ@@ 1
መ@@ 1
ማ@@ 1
ሣ 1
ረ 1
ሬ@@ 1
ር 1
ሰ@@ 1
ሳ@@ 1
ሴ 1
ስ 1
ሽ@@ 1
ቐ@@ 1
ባ 1
ባ@@ 1
ቤ@@ 1
ብ@@ 1
ቱ 1
ታ 1
ታ@@ 1
ነ@@ 1
አ@@ 1
ካ@@ 1
ክ@@ 1
ኳ@@ 1
ዊ 1
ዊ@@ 1
ዘ@@ 1
ደ@@ 1
ዲ@@ 1
ዴ@@ 1
ድ@@ 1
ገ@@ 1
ጌ@@ 1
ጠ@@ 1
ፌ@@ 1
ᐅ@@ 1
ᑦ 1
ᑦ@@ 1
ᒥ@@ 1
ᒪ@@ 1
ᓇ@@ 1
ᓈ@@ 1
ᖅ@@ 1
ᖕ@@ 1
ᚦ 1
ᚦ@@ 1
ᚨ@@ 1
ᚱ@@ 1
ᚾ@@ 1
ᛟ@@ 1
គ 1
ជ 1
ញ 1
ឋ 1
ឌ 1
ណ 1
ព 1
ល 1
ហ 1
ឪ@@ 1
ឫ@@ 1
ឮ@@ 1
ឿ@@ 1
៌ 1
៑@@ 1
២@@ 1
៥ 1
៧ 1
ᠣ 1
ᠳ@@ 1
ᠴ@@ 1
ᠶ@@ 1
ᠷ@@ 1
ᠸ@@ 1
ᡝ@@ 1
ᡠ 1
ᡧ@@ 1
ᡳ 1
ᡴ@@ 1
ᥒ@@ 1
ᥓ@@ 1
ᥔ@@ 1
ᥖ@@ 1
ᥘ@@ 1
ᥜ@@ 1
ᥝ@@ 1
ᥢ@@ 1
ᥨ@@ 1
ᥭ@@ 1
ᥰ 1
ᥰ@@ 1
ᥱ 1
ᥲ 1
ᥳ@@ 1
ᥴ 1
ᥴ@@ 1
ᦅ@@ 1
ᦑ@@ 1
ᦟ@@ 1
ᦹ@@ 1
ᦺ@@ 1
ᧄ@@ 1
ᧉ@@ 1
ᨠ@@ 1
ᨦ 1
ᨧ@@ 1
ᨩ@@ 1
ᨲ@@ 1
ᨴ@@ 1
ᨿ 1
ᩢ 1
ᩢ@@ 1
ᩣ@@ 1
ᩫ@@ 1
ᩱ@@ 1
᩵@@ 1
᩶ 1
ᬅ@@ 1
ᬓ@@ 1
ᬩ@@ 1
ᬭ@@ 1
ᬮ@@ 1
ᬱ@@ 1
ᬶ@@ 1
᭄@@ 1
ᮁ@@ 1
ᮌ@@ 1
ᮘ@@ 1
Ḕ 1
ḛ 1
ḛ@@ 1
ḩ@@ 1
Ḫ 1
Ḫ@@ 1
ḫ@@ 1
ḭ 1
ḳ 1
ḳ@@ 1
Ḵ 1
ḻ@@ 1
ṁ@@ 1
Ṃ 1
ṅ@@ 1
Ṇ 1
ṉ 1
ṉ@@ 1
ṙ 1
ṳ 1
ẁ 1
ẑ@@ 1
Ẓ@@ 1
ẓ@@ 1
ẖ@@ 1
ẚ 1
ẞ@@ 1
Ạ 1
ạ@@ 1
ả@@ 1
Ẩ 1
ẫ 1
ặ 1
ẹ 1
ẽ@@ 1
Ế@@ 1
Ề@@ 1
Ể@@ 1
ể@@ 1
Ễ@@ 1
ễ@@ 1
Ệ@@ 1
Ọ 1
ỏ 1
Ố@@ 1
ố@@ 1
Ồ@@ 1
Ổ@@ 1
Ỗ@@ 1
ỗ@@ 1
Ộ@@ 1
Ụ 1
Ủ 1
ự@@ 1
ἅ@@ 1
Ἀ 1
ἕ@@ 1
Ἑ@@ 1
ἥ@@ 1
Ἥ@@ 1
Ἱ@@ 1
Ἶ@@ 1
ὁ@@ 1
Ὂ@@ 1
ὗ 1
Ὑ@@ 1
Ὕ@@ 1
ὥ@@ 1
ὰ@@ 1
ὴ 1
ὸ 1
ὺ@@ 1
ᾰ 1
Ᾰ@@ 1
Ᾱ@@ 1
ῖ 1
ῳ 1
ῷ@@ 1
  1
‑@@ 1
‚ 1
‚@@ 1
„@@ 1
‟ 1
‣ 1
 @@ 1
‬@@ 1
  1
⁂ 1
⁚@@ 1
⁡ 1
⁰ 1
⁴ 1
⁵@@ 1
⁷ 1
⁸ 1
⁼ 1
₀ 1
₁@@ 1
₄@@ 1
₆@@ 1
₤ 1
₦@@ 1
₨ 1
₫ 1
₮@@ 1
₱ 1
₴@@ 1
₸ 1
₸@@ 1
₹@@ 1
₽ 1
₽@@ 1
₿ 1
₿@@ 1
℅ 1
℉ 1
ℍ 1
ℎ 1
ℎ@@ 1
ℏ 1
ℑ@@ 1
℔ 1
℘@@ 1
⅛ 1
Ⅰ@@ 1
Ⅳ@@ 1
Ⅴ@@ 1
↊@@ 1
↋@@ 1
↚ 1
↛@@ 1
↵ 1
⇒@@ 1
∄ 1
∇@@ 1
∉@@ 1
∗@@ 1
∩@@ 1
∪@@ 1
≡@@ 1
≦@@ 1
≧@@ 1
≫ 1
⊂ 1
⊂@@ 1
⊃ 1
⊃@@ 1
⊢ 1
⊥@@ 1
⊿ 1
⋃@@ 1
⋅@@ 1
⋕@@ 1
⋯@@ 1
⌀ 1
⌉@@ 1
⌓@@ 1
⌘@@ 1
⌜ 1
⌝@@ 1
② 1
③ 1
④ 1
⑨ 1
⑮ 1
┓ 1
┼ 1
■ 1
■@@ 1
□ 1
▲@@ 1
► 1
◆@@ 1
◦@@ 1
◯ 1
☄ 1
☄@@ 1
☉@@ 1
☊ 1
☋ 1
☌ 1
☠@@ 1
☣@@ 1
☫@@ 1
☬@@ 1
☭ 1
☾ 1
♀@@ 1
♃ 1
♄@@ 1
♆@@ 1
♈@@ 1
♉@@ 1
♊@@ 1
♋@@ 1
♌@@ 1
♍@@ 1
♎@@ 1
♏@@ 1
♐@@ 1
♑@@ 1
♒@@ 1
♓@@ 1
♭@@ 1
⚳ 1
⛄@@ 1
✔ 1
❥ 1
❰ 1
❱@@ 1
➢ 1
⠂@@ 1
⠆@@ 1
⠇@@ 1
⠍@@ 1
⠎@@ 1
⠏@@ 1
⠒@@ 1
⠔@@ 1
⠖@@ 1
⠗@@ 1
⠛@@ 1
⠝@@ 1
⠞ 1
⠟@@ 1
⠠ 1
⠢@@ 1
⠤ 1
⠥@@ 1
⠦@@ 1
⠧@@ 1
⠪ 1
⠭@@ 1
⠮@@ 1
⠯@@ 1
⠰@@ 1
⠲@@ 1
⠳ 1
⠴ 1
⠴@@ 1
⠵@@ 1
⠶@@ 1
⠷@@ 1
⠸@@ 1
⠼@@ 1
⠽@@ 1
⠾@@ 1
⠿@@ 1
⭐ 1
ⲇ@@ 1
ⲑ@@ 1
Ⲓ@@ 1
ⲗ@@ 1
ⲛ 1
ⲝ@@ 1
ⲡ 1
ⲥ 1
ⴀ@@ 1
ⴁ@@ 1
ⴂ@@ 1
ⴃ@@ 1
ⴄ@@ 1
ⴅ@@ 1
ⴆ@@ 1
ⴇ@@ 1
ⴈ@@ 1
ⴉ@@ 1
ⴊ@@ 1
ⴱ 1
ⴷ@@ 1
ⴻ@@ 1
ⴼ@@ 1
ⴽ@@ 1
ⵃ@@ 1
ⵆ 1
ⵊ@@ 1
ⵌ@@ 1
ⵔ@@ 1
ⵖ@@ 1
ⵟ@@ 1
ⵡ@@ 1
ⵣ@@ 1
⸰@@ 1
⺗ 1
〇 1
〇@@ 1
〈@@ 1
〓@@ 1
〱 1
〲 1
〳 1
〴 1
〵 1
〻@@ 1
ぇ@@ 1
ぜ 1
ぢ 1
ど 1
べ 1
ぼ 1
ゆ 1
ゎ 1
ゔ@@ 1
゛@@ 1
ゝ@@ 1
ゞ 1
ギ 1
ゴ 1
ザ 1
ダ 1
デ 1
ニ 1
ヌ 1
ネ 1
バ 1
ヒ 1
フ 1
ヘ 1
ャ 1
ヤ 1
ヰ 1
ヱ 1
ヲ 1
ヴ 1
ヵ@@ 1
ヽ 1
ヾ@@ 1
ㄆ@@ 1
ㄉ 1
ㄊ@@ 1
ㄌ@@ 1
ㄔ 1
ㄖ@@ 1
ㄘ@@ 1
ㄚ@@ 1
ㄢ 1
ㄤ@@ 1
ㄦ@@ 1
ㄩ@@ 1
ㄪ 1
ㄫ 1
ㄬ 1
ㄭ 1
ㄱ 1
ㄱ@@ 1
ㄲ 1
ㄴ 1
ㄴ@@ 1
ㄷ 1
ㄷ@@ 1
ㄸ 1
ㄹ 1
ㄹ@@ 1
ㄺ 1
ㄼ 1
ㅁ 1
ㅁ@@ 1
ㅂ 1
ㅂ@@ 1
ㅃ 1
ㅅ@@ 1
ㅆ 1
ㅉ 1
ㅋ 1
ㅌ 1
ㅎ 1
ㅏ 1
ㅐ 1
ㅑ 1
ㅒ 1
ㅓ 1
ㅔ 1
ㅕ 1
ㅖ 1
ㅗ 1
ㅘ 1
ㅙ 1
ㅚ 1
ㅛ 1
ㅜ 1
ㅝ 1
ㅞ 1
ㅟ 1
ㅠ 1
ㅡ 1
ㅡ@@ 1
ㅢ 1
ㇱ 1
ㇲ 1
ㇳ 1
ㇺ@@ 1
㦤@@ 1
㫻@@ 1
䜣@@ 1
䳍@@ 1
一个 1
七 1
三 1
上海 1
丐 1
丙@@ 1
両@@ 1
並 1
中国 1
中心 1
串@@ 1
为 1
义 1
乎 1
乖 1
乖@@ 1
乗@@ 1
乘 1
乙 1
习@@ 1
乽@@ 1
了 1
予@@ 1
争 1
些@@ 1
亞 1
亡 1
交 1
亨 1
亳@@ 1
亻 1
亿 1
仃 1
仃@@ 1
仆@@ 1
从 1
从@@ 1
仏 1
仓@@ 1
他 1
付 1
仞 1
仟 1
仪@@ 1
仫@@ 1
仮 1
件 1
价@@ 1
任 1
伉@@ 1
伊 1
众 1
伙@@ 1
传 1
伪@@ 1
伯 1
伸@@ 1
位 1
低 1
佐 1
何 1
作 1
佟@@ 1
佳 1
併@@ 1
佾@@ 1
侃@@ 1
來 1
例 1
供 1
侠 1
価 1
侦 1
侶@@ 1
便 1
俄@@ 1
俊 1
俎@@ 1
俞@@ 1
俳 1
俳@@ 1
俵 1
倎 1
們@@ 1
倕@@ 1
倘@@ 1
候 1
借 1
値 1
倶@@ 1
倾@@ 1
偁@@ 1
偕@@ 1
停 1
健 1
側 1
偵 1
偶@@ 1
傍@@ 1
傑 1
傕 1
備 1
傣@@ 1
储@@ 1
傷 1
僑@@ 1
僕 1
僖@@ 1
僧 1
價@@ 1
僻@@ 1
儁 1
儁@@ 1
億 1
儉 1
儲@@ 1
儷@@ 1
兀@@ 1
先 1
児 1
兒 1
党 1
兜 1
全 1
六 1
兰 1
共 1
共和国 1
兴 1
其 1
兹@@ 1
兾@@ 1
冊 1
再 1
冏@@ 1
冑 1
冕@@ 1
冢@@ 1
冬 1
冲@@ 1
决@@ 1
冴@@ 1
冶@@ 1
冷 1
冼@@ 1
减@@ 1
処 1
処@@ 1
凶@@ 1
凸@@ 1
函 1
刁@@ 1
刊 1
划@@ 1
列 1
刚 1
初 1
删@@ 1
判 1
別 1
刷 1
券 1
則 1
剉 1
削@@ 1
剣 1
剩@@ 1
剮@@ 1
副 1
剱@@ 1
割 1
創 1
劃@@ 1
劑@@ 1
努 1
励@@ 1
劳@@ 1
効 1
势@@ 1
勃@@ 1
勇 1
勗 1
務 1
募@@ 1
勤 1
勲@@ 1
勵@@ 1
勻@@ 1
勾@@ 1
勿@@ 1
包 1
匕 1
匕@@ 1
匡 1
匣@@ 1
匪@@ 1
匯@@ 1
半 1
华 1
卡@@ 1
卧@@ 1
卫 1
印 1
危 1
却@@ 1
卵 1
卻@@ 1
卿 1
厅@@ 1
厌@@ 1
厓@@ 1
厚 1
厡@@ 1
厦 1
厩@@ 1
厳 1
双 1
反 1
収 1
収@@ 1
叔 1
取 1
叠@@ 1
叡@@ 1
叢@@ 1
古 1
句 1
另@@ 1
叩@@ 1
只 1
叫@@ 1
叹@@ 1
吃 1
各@@ 1
合 1
同 1
吐@@ 1
向 1
吔 1
吕 1
吞 1
吟 1
吠@@ 1
否 1
听@@ 1
吳 1
吸 1
吼@@ 1
呀@@ 1
呂 1
呆@@ 1
告 1
呐@@ 1
呒@@ 1
呢@@ 1
呼 1
命 1
咀 1
咁@@ 1
咆@@ 1
咏@@ 1
哙@@ 1
哥 1
唏@@ 1
唐 1
唔 1
唱 1
唸@@ 1
商 1
問 1
啜@@ 1
啡@@ 1
啸@@ 1
啼@@ 1
喊@@ 1
営 1
喾@@ 1
嗎@@ 1
嗟@@ 1
嗨@@ 1
嘎@@ 1
嘴 1
器 1
噺@@ 1
嚀@@ 1
嚐@@ 1
囂@@ 1
囚@@ 1
因 1
囧@@ 1
困 1
囲 1
囲@@ 1
圈@@ 1
圏@@ 1
圓 1
土 1
圣 1
圧 1
地 1
场 1
圻@@ 1
坎@@ 1
块@@ 1
坝@@ 1
坤 1
坦@@ 1
垂 1
垕@@ 1
垣 1
埙 1
培@@ 1
基 1
堀 1
堅 1
堡@@ 1
堰@@ 1
塁@@ 1
塑@@ 1
塩 1
塩@@ 1
填@@ 1
増 1
増@@ 1
墟@@ 1
墾@@ 1
壇 1
壊 1
壊@@ 1
壕@@ 1
壞@@ 1
壤@@ 1
壩@@ 1
壱 1
壱@@ 1
壺 1
変 1
复 1
外 1
夙@@ 1
多 1
夠@@ 1
夤@@ 1
夥@@ 1
夭@@ 1
夷 1
夹@@ 1
奎@@ 1
奏@@ 1
奚@@ 1
奥 1
奨@@ 1
奭@@ 1
奮 1
奴 1
妈 1
妍@@ 1
妓@@ 1
妞@@ 1
妨@@ 1
妫@@ 1
妺@@ 1
姣@@ 1
姦@@ 1
姶@@ 1
姿 1
娜@@ 1
娴@@ 1
婆 1
婢@@ 1
婴@@ 1
婿 1
婿@@ 1
媪@@ 1
嫁@@ 1
嫂@@ 1
嫗@@ 1
嫘@@ 1
嫡@@ 1
嫩@@ 1
嫪@@ 1
嬙@@ 1
嬛@@ 1
孖 1
存 1
孜 1
孽@@ 1
宀 1
宁 1
宅 1
完 1
宏 1
宛 1
室 1
宥@@ 1
宦@@ 1
宰 1
容 1
宽@@ 1
寄 1
寅 1
密 1
富 1
寔@@ 1
寗@@ 1
寞@@ 1
察 1
寥@@ 1
寨@@ 1
寮@@ 1
寰@@ 1
寳@@ 1
寶 1
寸@@ 1
専 1
射 1
尋 1
導 1
少 1
尤@@ 1
就 1
尺 1
尻@@ 1
局 1
屁@@ 1
屍 1
展 1
属 1
屡 1
層 1
屯@@ 1
屹 1
岚@@ 1
岬@@ 1
岱 1
岽@@ 1
峠 1
峡@@ 1
峻@@ 1
崆@@ 1
崑@@ 1
崗@@ 1
崘 1
崙@@ 1
崚@@ 1
崩@@ 1
嵋@@ 1
嵬@@ 1
嵯@@ 1
嶝@@ 1
巅 1
巒@@ 1
巣 1
工程 1
差 1
巴 1
巷@@ 1
币 1
师 1
帖@@ 1
帘@@ 1
帜@@ 1
席 1
帮@@ 1
帯 1
幂@@ 1
幇@@ 1
幌@@ 1
幐@@ 1
幡@@ 1
幹 1
幼 1
幽 1
幾@@ 1
庐 1
底 1
店 1
废@@ 1
度 1
庫 1
庫@@ 1
庵@@ 1
庸 1
廂@@ 1
廃@@ 1
廉 1
廊 1
廟 1
廳@@ 1
建 1
廻@@ 1
廿@@ 1
弁 1
弄 1
弄@@ 1
弋@@ 1
弓 1
弘 1
弦@@ 1
弧@@ 1
弯@@ 1
弱 1
張 1
彈@@ 1
录 1
录@@ 1
彙@@ 1
彟@@ 1
彠@@ 1
彤 1
彤@@ 1
彦 1
彰 1
彳 1
役 1
彼 1
往 1
径 1
径@@ 1
待 1
徊@@ 1
得 1
徘@@ 1
循@@ 1
徳 1
徴@@ 1
徹 1
忄 1
忍 1
忘 1
応 1
忧@@ 1
快 1
忱@@ 1
念 1
态@@ 1
怎@@ 1
怕 1
怛@@ 1
怜@@ 1
思 1
怡 1
怪 1
恐 1
恙 1
恢@@ 1
恩 1
恪@@ 1
恬@@ 1
恶@@ 1
悄@@ 1
悔 1
悠 1
悦@@ 1
惣@@ 1
惲@@ 1
惹@@ 1
愁@@ 1
愈 1
意 1
愚@@ 1
慈 1
態 1
慢@@ 1
慣 1
慧 1
慨@@ 1
慰 1
慶 1
憎@@ 1
憤@@ 1
憨@@ 1
憲 1
憶@@ 1
懋@@ 1
懒@@ 1
懺@@ 1
懿 1
戏 1
成功 1
戡@@ 1
戩@@ 1
戰 1
戶 1
户@@ 1
扃@@ 1
扆@@ 1
扈@@ 1
扉@@ 1
托@@ 1
扭@@ 1
扯@@ 1
批 1
承 1
技 1
抒@@ 1
折 1
択@@ 1
抢@@ 1
抬@@ 1
担 1
拆@@ 1
拇@@ 1
拍 1
拗@@ 1
拙@@ 1
招 1
拝 1
拡 1
拥@@ 1
拨@@ 1
择@@ 1
拱 1
拱@@ 1
拿 1
持 1
挂@@ 1
按@@ 1
挨@@ 1
振 1
挺@@ 1
挿@@ 1
捒@@ 1
捕@@ 1
捜@@ 1
换@@ 1
捨 1
捨@@ 1
授 1
掛@@ 1
掠@@ 1
採 1
接 1
控@@ 1
推 1
掩@@ 1
揃@@ 1
提 1
揖@@ 1
揚 1
握@@ 1
揮 1
揮@@ 1
揺@@ 1
損 1
搔@@ 1
摇@@ 1
摠@@ 1
摩 1
摺@@ 1
撈@@ 1
撒@@ 1
撝@@ 1
播@@ 1
撼@@ 1
擂@@ 1
擊 1
擒@@ 1
擘@@ 1
擥@@ 1
擦@@ 1
擬@@ 1
擴@@ 1
攘@@ 1
攬@@ 1
政 1
政治 1
故 1
敎 1
救 1
敗 1
敗@@ 1
敘@@ 1
教育 1
敬 1
敵 1
數@@ 1
斄@@ 1
斐@@ 1
料 1
斟@@ 1
斡@@ 1
斧 1
斧@@ 1
斫@@ 1
断 1
斯 1
旃@@ 1
旌@@ 1
族 1
旗 1
既@@ 1
旦 1
旧 1
旬 1
旲@@ 1
旺 1
旺@@ 1
昂@@ 1
昔@@ 1
昕@@ 1
昚@@ 1
映 1
昧 1
昨 1
昨@@ 1
昰@@ 1
昴@@ 1
显@@ 1
時 1
晋 1
晖@@ 1
晚 1
晢@@ 1
晦@@ 1
晩 1
晩@@ 1
景 1
暁@@ 1
暄@@ 1
暇@@ 1
暐@@ 1
暖 1
暦@@ 1
暨@@ 1
暮 1
暴 1
暹 1
曄@@ 1
曇@@ 1
曌 1
曌@@ 1
曦@@ 1
曷@@ 1
曹 1
曽@@ 1
替 1
替@@ 1
最 1
服 1
朓@@ 1
朕@@ 1
期 1
未 1
札 1
机 1
朽@@ 1
杀@@ 1
杂@@ 1
杌 1
材 1
杖@@ 1
杞@@ 1
束 1
杯 1
杷 1
杼@@ 1
枇@@ 1
枌@@ 1
析@@ 1
枚 1
枚@@ 1
枝 1
枝@@ 1
枠@@ 1
枫 1
枳@@ 1
枸@@ 1
柄@@ 1
柊 1
某@@ 1
柔 1
柞@@ 1
柯@@ 1
柴 1
査 1
栀@@ 1
栁@@ 1
栄 1
标@@ 1
栈@@ 1
栋@@ 1
栎@@ 1
树 1
栖 1
栗 1
栢@@ 1
株 1
样 1
档@@ 1
桥 1
桦@@ 1
桧@@ 1
梓@@ 1
梟 1
梟@@ 1
梭@@ 1
械 1
检@@ 1
棄@@ 1
棒 1
棗@@ 1
棺@@ 1
椅 1
椅@@ 1
椎@@ 1
椒@@ 1
検 1
椰@@ 1
楠 1
楣@@ 1
楫@@ 1
極 1
榆@@ 1
榊@@ 1
榭@@ 1
榮 1
槃@@ 1
構 1
槌@@ 1
槜@@ 1
槤@@ 1
樋@@ 1
樑 1
樑@@ 1
標 1
樟@@ 1
模 1
権 1
樫@@ 1
樵@@ 1
樹 1
樺@@ 1
樽@@ 1
橘 1
橫 1
橱@@ 1
檗@@ 1
檣@@ 1
檬@@ 1
檮@@ 1
檳@@ 1
檻 1
櫟@@ 1
櫻@@ 1
欒@@ 1
欠 1
次 1
欣 1
欲 1
欸@@ 1
欽 1
歆@@ 1
歡 1
歡@@ 1
歩 1
歲 1
歴 1
歴@@ 1
歼 1
歼@@ 1
殉@@ 1
残 1
殖@@ 1
殭@@ 1
殲 1
殴@@ 1
段 1
殺 1
毀@@ 1
毋@@ 1
每@@ 1
毐@@ 1
毒 1
毓@@ 1
比 1
毫 1
气 1
気 1
氣 1
氨@@ 1
氾@@ 1
汁@@ 1
求 1
汉 1
污@@ 1
汨@@ 1
汲@@ 1
沅@@ 1
沆@@ 1
沙 1
沣@@ 1
沤@@ 1
沮 1
沮@@ 1
河 1
沸@@ 1
油 1
沾@@ 1
沿 1
沿@@ 1
泌@@ 1
泚@@ 1
泠@@ 1
波 1
泣 1
泣@@ 1
注 1
泩@@ 1
泫@@ 1
泰 1
泼@@ 1
洋 1
洗 1
洙@@ 1
洮@@ 1
洹@@ 1
派 1
浅 1
浏@@ 1
浜 1
浞@@ 1
浣@@ 1
浦 1
浪 1
浴 1
涅@@ 1
涇@@ 1
涉@@ 1
涌@@ 1
涟@@ 1
涼 1
淚 1
淦@@ 1
淯@@ 1
混 1
添@@ 1
済 1
渋@@ 1
渔@@ 1
減@@ 1
渝@@ 1
渥@@ 1
測 1
港 1
渴@@ 1
渺@@ 1
渾@@ 1
湉@@ 1
湣@@ 1
満 1
準 1
溜 1
溜@@ 1
溢@@ 1
溶@@ 1
滁@@ 1
滅 1
滉@@ 1
滩 1
漁 1
漆@@ 1
漏@@ 1
漢 1
漬@@ 1
漸@@ 1
漿@@ 1
潞@@ 1
潢@@ 1
潭 1
潼 1
澎@@ 1
澜@@ 1
澪 1
激 1
濁@@ 1
濠@@ 1
濡@@ 1
濯@@ 1
濳@@ 1
瀑 1
瀕@@ 1
瀰@@ 1
瀾@@ 1
灌@@ 1
灑@@ 1
灞@@ 1
灣 1
灵 1
灼 1
災 1
炆@@ 1
炊@@ 1
炒@@ 1
炕@@ 1
炬@@ 1
炯@@ 1
炳 1
炸 1
為 1
烂@@ 1
烈 1
烎 1
烏 1
烧@@ 1
烫@@ 1
烹@@ 1
無 1
焰@@ 1
焼 1
煒@@ 1
煕@@ 1
煚@@ 1
煜@@ 1
煦@@ 1
照 1
煨 1
煨@@ 1
熊 1
熟 1
熱 1
熾 1
燁 1
燁@@ 1
燃 1
燉@@ 1
燎@@ 1
燕 1
燥@@ 1
燮@@ 1
燼@@ 1
燾@@ 1
爪 1
爬@@ 1
爲@@ 1
父 1
爸 1
爽@@ 1
牍@@ 1
牛 1
特 1
犁@@ 1
犢 1
犢@@ 1
犯 1
狀@@ 1
狂 1
狐 1
独 1
狭@@ 1
狱@@ 1
狼 1
猜@@ 1
猶@@ 1
獄 1
獞@@ 1
獬@@ 1
獯@@ 1
獲@@ 1
獵@@ 1
玄 1
率 1
玕@@ 1
玩 1
玻@@ 1
珅@@ 1
珞@@ 1
珠 1
珥@@ 1
珮@@ 1
珲@@ 1
珹@@ 1
現 1
琊@@ 1
琍@@ 1
琛@@ 1
琨@@ 1
琪 1
琬@@ 1
琮@@ 1
琲 1
琲@@ 1
琵@@ 1
琶@@ 1
琿@@ 1
瑕 1
瑗@@ 1
瑚@@ 1
瑢@@ 1
瑤 1
瑤@@ 1
瑭@@ 1
瑷@@ 1
璇 1
璙@@ 1
璜 1
璜@@ 1
璞@@ 1
璟@@ 1
璥@@ 1
璦@@ 1
璻@@ 1
璽@@ 1
瓌@@ 1
瓒@@ 1
瓜 1
瓮@@ 1
甁@@ 1
甌 1
産 1
用 1
申 1
画 1
畏@@ 1
畑 1
畑@@ 1
畠@@ 1
略 1
異 1
疊@@ 1
疏@@ 1
疑 1
痛 1
瘋@@ 1
癖@@ 1
癫@@ 1
發 1
皓@@ 1
皿@@ 1
盃@@ 1
盆 1
益 1
盏@@ 1
盖@@ 1
盜@@ 1
眇@@ 1
看 1
眛@@ 1
眠 1
眸@@ 1
睇@@ 1
瞎@@ 1
瞳@@ 1
瞽@@ 1
瞾 1
瞾@@ 1
矛@@ 1
矢 1
矩@@ 1
矯@@ 1
矸@@ 1
矿 1
码@@ 1
砂 1
砌@@ 1
砚@@ 1
硃@@ 1
碇 1
碑@@ 1
碛@@ 1
碩 1
確 1
碼@@ 1
磁 1
磁@@ 1
磯@@ 1
磾 1
礁@@ 1
礅@@ 1
礙@@ 1
礦 1
祀 1
祝 1
祥 1
票 1
祩@@ 1
祭 1
祯@@ 1
祹@@ 1
祾@@ 1
祿 1
禁 1
禦@@ 1
禧 1
禩@@ 1
禺 1
禾@@ 1
秀 1
科 1
租@@ 1
秤@@ 1
秩@@ 1
称@@ 1
移 1
程 1
税 1
稚@@ 1
稠 1
稱@@ 1
稷 1
稷@@ 1
稻@@ 1
稼@@ 1
穀 1
穂 1
穆 1
穌@@ 1
積 1
積@@ 1
穴 1
究@@ 1
穹 1
窅@@ 1
窋@@ 1
窓 1
窓@@ 1
窝@@ 1
窩@@ 1
窫@@ 1
窳@@ 1
窺@@ 1
站@@ 1
竟@@ 1
童 1
竩@@ 1
竭@@ 1
競 1
笑 1
笹@@ 1
筆 1
筈@@ 1
筋 1
筑 1
筷@@ 1
筸 1
签@@ 1
简 1
箇@@ 1
箍@@ 1
箏@@ 1
箔@@ 1
算 1
管 1
箫@@ 1
箭@@ 1
築 1
篋@@ 1
篤 1
簫@@ 1
籁@@ 1
类@@ 1
籾@@ 1
粂@@ 1
粒@@ 1
粗 1
粘@@ 1
粛@@ 1
粟@@ 1
粤@@ 1
粥@@ 1
粱@@ 1
粵 1
粽@@ 1
糖 1
糜@@ 1
糧@@ 1
糸@@ 1
系 1
糾@@ 1
紆@@ 1
納 1
紐@@ 1
純 1
索 1
紮@@ 1
累 1
紳@@ 1
結 1
絛@@ 1
絡@@ 1
絢@@ 1
給 1
絮 1
絮@@ 1
統 1
絲 1
絶 1
絹 1
綉@@ 1
綎@@ 1
綖@@ 1
続 1
綜@@ 1
綬@@ 1
綽@@ 1
綿 1
緇@@ 1
総 1
緒 1
緝@@ 1
緩 1
緲@@ 1
縈@@ 1
縦 1
縦@@ 1
縮 1
縯 1
縱@@ 1
縹@@ 1
績 1
織 1
繕@@ 1
繚@@ 1
繰@@ 1
繶@@ 1
繹@@ 1
纣@@ 1
纪 1
纬@@ 1
纸@@ 1
纽@@ 1
绀@@ 1
练@@ 1
终@@ 1
给@@ 1
绮@@ 1
缘@@ 1
网 1
罪 1
置 1
置@@ 1
罰@@ 1
署 1
罷@@ 1
羁 1
羁@@ 1
羑@@ 1
羔@@ 1
羞@@ 1
羣@@ 1
翅 1
翊@@ 1
翌 1
翎@@ 1
習 1
翹@@ 1
翻@@ 1
翼 1
翽@@ 1
耀 1
老 1
耉@@ 1
耒 1
耕 1
耕@@ 1
耜 1
耦 1
聃@@ 1
聆@@ 1
聪@@ 1
聲 1
職 1
聿 1
肅 1
肥 1
肩@@ 1
肺 1
胃 1
胄@@ 1
背 1
胎@@ 1
胝@@ 1
胞@@ 1
胠@@ 1
胥@@ 1
胸 1
脂@@ 1
脈 1
脈@@ 1
脚@@ 1
脛@@ 1
脞@@ 1
脩 1
脯@@ 1
脳 1
腸 1
腹 1
腿 1
腿@@ 1
膚@@ 1
膠@@ 1
膳 1
臓 1
臓@@ 1
臙@@ 1
臧@@ 1
臨 1
自 1
臯@@ 1
臼 1
舅@@ 1
舎 1
舗@@ 1
舛 1
舞 1
航 1
舰@@ 1
船 1
艮 1
艮@@ 1
艳@@ 1
艹 1
芈@@ 1
芋@@ 1
芍@@ 1
芎@@ 1
芜@@ 1
芥@@ 1
芩@@ 1
芮@@ 1
芳 1
芹@@ 1
芽 1
芽@@ 1
苏 1
苓 1
苕@@ 1
苯@@ 1
苴@@ 1
苻@@ 1
茎@@ 1
茯@@ 1
茵 1
茵@@ 1
茹@@ 1
茼@@ 1
荃@@ 1
荆@@ 1
荡@@ 1
荣@@ 1
荫@@ 1
药 1
荷 1
获 1
莺 1
莺@@ 1
莽 1
菖@@ 1
菻 1
萇@@ 1
萌@@ 1
萍 1
萩@@ 1
萱@@ 1
著 1
葱@@ 1
葵 1
蒗@@ 1
蒟 1
蒸 1
蒿@@ 1
蓝 1
蓣@@ 1
蔗@@ 1
蔞 1
蔞@@ 1
蔡 1
蔺@@ 1
蔽@@ 1
蕀@@ 1
蕙 1
蕙@@ 1
蕞@@ 1
蕨@@ 1
蕩@@ 1
蕭 1
蕲@@ 1
薙@@ 1
薦@@ 1
薩 1
薫@@ 1
藏 1
藕@@ 1
藺@@ 1
藻 1
蘅@@ 1
蘆@@ 1
蘊@@ 1
蘧@@ 1
虍 1
處 1
蚌 1
蚌@@ 1
蚕 1
蚩@@ 1
蛉@@ 1
蛋@@ 1
蛾@@ 1
蜀 1
蜃 1
蜃@@ 1
蜉@@ 1
蜻@@ 1
蝉@@ 1
蝕@@ 1
蝗 1
蝙@@ 1
蝠@@ 1
蝣@@ 1
蝮@@ 1
蟠@@ 1
蟬 1
蟬@@ 1
蟹 1
蠔@@ 1
蠢@@ 1
蠱@@ 1
衆 1
衍 1
衞 1
衢@@ 1
衤 1
补@@ 1
衲@@ 1
衷@@ 1
衾@@ 1
衿@@ 1
袂@@ 1
袄@@ 1
袴@@ 1
装 1
裏 1
裔@@ 1
裙@@ 1
補 1
裟 1
裡@@ 1
裳 1
裵@@ 1
裹@@ 1
製 1
複 1
褒@@ 1
襖@@ 1
襟@@ 1
襾@@ 1
覀 1
要 1
規 1
規@@ 1
覓@@ 1
覚 1
覧 1
観 1
覺 1
覽 1
触@@ 1
觸@@ 1
訁@@ 1
計 1
討 1
訓 1
訟 1
訣 1
訥 1
訪 1
設 1
訳 1
訳@@ 1
訴@@ 1
註@@ 1
証 1
証@@ 1
詒@@ 1
評 1
評@@ 1
詞@@ 1
詡 1
詡@@ 1
詢@@ 1
試 1
詰@@ 1
話 1
誇@@ 1
認 1
認@@ 1
誑@@ 1
誒@@ 1
誓@@ 1
誕 1
誤 1
誦 1
課 1
課@@ 1
誴@@ 1
誼@@ 1
諒@@ 1
論 1
諝 1
諝@@ 1
諧@@ 1
諫@@ 1
諶 1
諷 1
諸 1
諾 1
謙 1
講 1
謝 1
謡@@ 1
謫@@ 1
謳 1
謳@@ 1
謹@@ 1
謾@@ 1
證@@ 1
識 1
識@@ 1
讃@@ 1
讐@@ 1
讖@@ 1
讚@@ 1
讠@@ 1
计 1
认@@ 1
讨@@ 1
讯 1
讲@@ 1
论 1
证 1
评@@ 1
识@@ 1
诏@@ 1
译@@ 1
试@@ 1
诚@@ 1
诱@@ 1
谁@@ 1
谋@@ 1
谜@@ 1
谦@@ 1
谱 1
豇@@ 1
豊 1
豎@@ 1
豐 1
豕 1
豚 1
豨@@ 1
豳@@ 1
豸 1
豸@@ 1
貅@@ 1
貍@@ 1
貔@@ 1
貞 1
財 1
貢 1
貧 1
責 1
貯 1
貸 1
貺@@ 1
費 1
貿 1
貿@@ 1
賂@@ 1
賃 1
資 1
賛 1
賢 1
賦 1
賧@@ 1
質 1
賴@@ 1
賾@@ 1
贏@@ 1
贛@@ 1
贝 1
负@@ 1
贤 1
货@@ 1
质@@ 1
购@@ 1
贰@@ 1
贵 1
贸@@ 1
费@@ 1
贼 1
赋@@ 1
赐@@ 1
赚@@ 1
赛 1
赛@@ 1
赟@@ 1
赣@@ 1
赤 1
走 1
赳 1
赳@@ 1
赵 1
越 1
趕@@ 1
趙 1
足球 1
趴@@ 1
跃 1
跖@@ 1
跡 1
践@@ 1
踩@@ 1
踪@@ 1
蹄@@ 1
躇@@ 1
躊@@ 1
躬@@ 1
躺@@ 1
軒@@ 1
軽@@ 1
軾 1
載 1
輛@@ 1
輝 1
輦@@ 1
輪 1
輾@@ 1
輿 1
轄@@ 1
车 1
轮@@ 1
载 1
辅 1
辑@@ 1
辙@@ 1
辛 1
辞 1
辟 1
辣 1
辨@@ 1
辩@@ 1
辵@@ 1
辶 1
辻 1
辿@@ 1
近 1
还@@ 1
这@@ 1
进 1
迟 1
迤@@ 1
述 1
迴@@ 1
迹 1
退 1
逊@@ 1
透 1
通 1
逮@@ 1
進 1
逵@@ 1
逼@@ 1
逾@@ 1
遅@@ 1
遊 1
運 1
過 1
遏@@ 1
遐@@ 1
遠 1
適 1
遵@@ 1
選 1
遹@@ 1
遺 1
邀@@ 1
還 1
邆@@ 1
邏@@ 1
邐@@ 1
邛@@ 1
邠@@ 1
邢@@ 1
邨@@ 1
邪 1
邳 1
邹@@ 1
邻@@ 1
郁@@ 1
郅@@ 1
郊 1
郑 1
郕@@ 1
郗@@ 1
郵 1
鄙@@ 1
鄩@@ 1
鄰 1
鄰@@ 1
鄲@@ 1
酉 1
酸 1
酿@@ 1
醂@@ 1
醋 1
醍@@ 1
醐@@ 1
醜@@ 1
醫 1
醬@@ 1
醮 1
醮@@ 1
釀@@ 1
釆 1
釒@@ 1
釗@@ 1
鈀 1
鈕@@ 1
鈞 1
鈞@@ 1
鉄 1
鉅@@ 1
鉉@@ 1
鉋 1
鉤@@ 1
鉱 1
銓@@ 1
銖@@ 1
銭 1
銹@@ 1
鋒 1
鋒@@ 1
鋪@@ 1
鋼 1
錦 1
錫 1
鍋@@ 1
鍔@@ 1
鍠@@ 1
鍬@@ 1
鍼@@ 1
鏐@@ 1
鏞@@ 1
鏡 1
鐙 1
鐸@@ 1
鑒@@ 1
鑛 1
鑲@@ 1
鑽@@ 1
鑿@@ 1
钅@@ 1
针 1
针@@ 1
钓@@ 1
钧@@ 1
钩@@ 1
钰@@ 1
钱 1
铅@@ 1
铨@@ 1
铭 1
铭@@ 1
铺@@ 1
锅 1
锷 1
锺@@ 1
镈@@ 1
镐@@ 1
镠@@ 1
閉 1
閣 1
閨@@ 1
閬@@ 1
闌@@ 1
闍@@ 1
關 1
闥@@ 1
门 1
闪@@ 1
问 1
间 1
闵@@ 1
闻 1
闻@@ 1
阊@@ 1
阎@@ 1
阏@@ 1
阔@@ 1
阙@@ 1
防 1
阵@@ 1
阶@@ 1
陂@@ 1
陇@@ 1
降 1
限 1
陑@@ 1
陛 1
陣 1
除 1
险@@ 1
陬@@ 1
陳 1
陷@@ 1
陸 1
険 1
隃@@ 1
隍 1
際 1
障 1
隣@@ 1
隧@@ 1
險@@ 1
隴@@ 1
隶 1
隷@@ 1
隸 1
隹 1
难@@ 1
雅 1
雑 1
雒@@ 1
雕@@ 1
雖@@ 1
雙 1
難 1
電 1
需 1
需@@ 1
霄 1
霑@@ 1
霛@@ 1
霧 1
霸 1
靄 1
靄@@ 1
靜 1
靳@@ 1
鞞@@ 1
鞬@@ 1
鞭 1
韃@@ 1
韩 1
韭 1
韵@@ 1
韻@@ 1
頁 1
頁@@ 1
頂 1
須 1
預 1
頑@@ 1
頒@@ 1
領 1
頠@@ 1
額 1
顒 1
顗@@ 1
願 1
页@@ 1
顶 1
顼@@ 1
顾@@ 1
顿@@ 1
颇@@ 1
频 1
颱@@ 1
颺@@ 1
飘@@ 1
飠@@ 1
餃@@ 1
養 1
餘@@ 1
餛@@ 1
餡@@ 1
饂@@ 1
饅@@ 1
饣@@ 1
饭 1
饮@@ 1
馆 1
馆@@ 1
首 1
香港 1
馨 1
馨@@ 1
馳@@ 1
馹@@ 1
駄@@ 1
駅@@ 1
駆@@ 1
駐 1
駝 1
駢@@ 1
駰@@ 1
駱@@ 1
駼 1
騊@@ 1
騒@@ 1
験 1
騙@@ 1
騷@@ 1
驁@@ 1
驅@@ 1
驕@@ 1
马 1
驰@@ 1
驻@@ 1
驼@@ 1
骄@@ 1
骆@@ 1
验@@ 1
骸@@ 1
髀@@ 1
髟 1
髦@@ 1
髮@@ 1
鬍@@ 1
鬘@@ 1
鬚@@ 1
鬢@@ 1
鬣@@ 1
鬥 1
鬧@@ 1
鬯 1
鬲 1
魅@@ 1
魏 1
鮀@@ 1
鮫@@ 1
鯉 1
鯱 1
鰲 1
鰲@@ 1
鱀@@ 1
鱒@@ 1
鱗@@ 1
鱘@@ 1
鱲@@ 1
鱷@@ 1
鲁 1
鲟@@ 1
鲤@@ 1
鲥@@ 1
鲮@@ 1
鳄@@ 1
鳖@@ 1
鳯@@ 1
鴆@@ 1
鴟@@ 1
鴦 1
鴦@@ 1
鴬@@ 1
鵄@@ 1
鵬 1
鵲@@ 1
鶚@@ 1
鶴 1
鷄@@ 1
鷺@@ 1
鸕@@ 1
鸞@@ 1
鸟 1
鸣 1
鸿@@ 1
鹅 1
鹉@@ 1
鹏@@ 1
鹦@@ 1
鹬 1
鹵 1
鹹@@ 1
鹿 1
麊@@ 1
麓@@ 1
麩@@ 1
麼 1
黃 1
黄 1
黍 1
黒 1
點@@ 1
黹 1
黽 1
黾@@ 1
鼇@@ 1
鼋@@ 1
鼓 1
鼠 1
鼻 1
齋 1
齐 1
齮@@ 1
齿@@ 1
龁@@ 1
龑@@ 1
龠 1
ꓕ@@ 1
ꓘ@@ 1
ꓡ@@ 1
ꓢ@@ 1
ꓥ@@ 1
ꓲ@@ 1
ꓳ@@ 1
ꓴ 1
ꓽ 1
ꘓ 1
ꘘ 1
ꜣ 1
ꜥ 1
Ꝛ@@ 1
Ꞓ@@ 1
ꞵ@@ 1
ꠍ@@ 1
ꠐ@@ 1
ꠟ@@ 1
ꠤ@@ 1
ꤊ@@ 1
ꤛ@@ 1
ꤜ@@ 1
ꤟ@@ 1
ꤤ@@ 1
꤬@@ 1
꤭ 1
ꤰ@@ 1
ꥆ@@ 1
ꨀ@@ 1
ꨇ@@ 1
ꩉ 1
ꪉ@@ 1
ꪎ@@ 1
ꪕ@@ 1
ꪡ@@ 1
ꪣ@@ 1
ꪱ 1
ꪳ 1
ꪹ@@ 1
ꪼ@@ 1
꫁@@ 1
ꭓ@@ 1
강 1
갭@@ 1
갸@@ 1
겟@@ 1
겨@@ 1
격 1
격@@ 1
곰 1
곳@@ 1
굴@@ 1
균 1
귤@@ 1
긴@@ 1
깨@@ 1
꼭@@ 1
꼼@@ 1
꽃 1
꾸 1
꾸@@ 1
꿈@@ 1
끔@@ 1
낀@@ 1
낌 1
날 1
널@@ 1
네 1
넷@@ 1
넹@@ 1
녹@@ 1
논@@ 1
놈 1
눈 1
눌@@ 1
늘 1
니 1
님 1
님@@ 1
닝@@ 1
답@@ 1
덟 1
덟@@ 1
덤 1
덴@@ 1
독@@ 1
될 1
두 1
둥@@ 1
득@@ 1
들 1
딩 1
딩@@ 1
딱 1
딸@@ 1
때 1
떠@@ 1
떤 1
떴@@ 1
떼@@ 1
또@@ 1
뚫@@ 1
뚱@@ 1
뜨@@ 1
랏@@ 1
랐@@ 1
래 1
랜@@ 1
램@@ 1
랫@@ 1
러 1
럿@@ 1
렁 1
렌@@ 1
렘@@ 1
렛@@ 1
력@@ 1
련@@ 1
록 1
루 1
륨@@ 1
른@@ 1
린 1
릴 1
막 1
만 1
많 1
많@@ 1
맵@@ 1
먕@@ 1
멈@@ 1
며 1
며@@ 1
멸@@ 1
명 1
뭔@@ 1
뭘@@ 1
믿@@ 1
밤@@ 1
밭 1
배 1
백 1
밴@@ 1
버 1
벌 1
벌@@ 1
범@@ 1
법 1
벚@@ 1
벤@@ 1
본 1
볼@@ 1
분 1
분@@ 1
불 1
블@@ 1
빙@@ 1
빠 1
빤 1
빵 1
뺏 1
뻐@@ 1
뼛@@ 1
뽐 1
뽐@@ 1
쁜 1
쁜@@ 1
살@@ 1
새 1
샷@@ 1
섬@@ 1
섭 1
섯@@ 1
센@@ 1
속 1
솜@@ 1
쇼 1
쉴 1
식 1
실 1
싱 1
싸@@ 1
쎈@@ 1
쏘@@ 1
씨 1
씽@@ 1
약@@ 1
얀@@ 1
업 1
었 1
엑@@ 1
엔 1
엠 1
역 1
연 1
열 1
오 1
온 1
옹@@ 1
완 1
완@@ 1
용 1
우 1
울 1
움 1
움@@ 1
웃@@ 1
웅@@ 1
웠@@ 1
웨@@ 1
위 1
윈@@ 1
율 1
윷@@ 1
음 1
잇@@ 1
잊@@ 1
잔@@ 1
잖@@ 1
잼@@ 1
적 1
젊@@ 1
정 1
져@@ 1
존@@ 1
졸@@ 1
죠@@ 1
줄@@ 1
쥐@@ 1
쥬@@ 1
즈 1
질@@ 1
짐@@ 1
집 1
짓@@ 1
짜@@ 1
째 1
쩌@@ 1
쪽@@ 1
찰@@ 1
참@@ 1
책@@ 1
척@@ 1
철 1
청 1
첸@@ 1
쳐@@ 1
촌@@ 1
출 1
춰@@ 1
취@@ 1
츠 1
츠@@ 1
칙@@ 1
침 1
캐@@ 1
캔@@ 1
캬@@ 1
켓@@ 1
코@@ 1
콩@@ 1
쾌@@ 1
쿄 1
퀸@@ 1
큰@@ 1
키 1
킥 1
타 1
탁 1
탁@@ 1
탄@@ 1
탈@@ 1
탑@@ 1
텔@@ 1
톱 1
톱@@ 1
퇴@@ 1
투 1
튼 1
티 1
틱 1
틴 1
팀@@ 1
팁@@ 1
파 1
판@@ 1
팝 1
팝@@ 1
패@@ 1
팽@@ 1
펙@@ 1
편 1
포 1
퐁@@ 1
플 1
할 1
합 1
핫@@ 1
했 1
헬@@ 1
현 1
혈@@ 1
형 1
혼 1
홀@@ 1
확@@ 1
휴@@ 1
희 1
 1
 1
@@ 1
 1
 1
 1
 1
@@ 1
 1
ﬁ 1
﴾ 1
﴿@@ 1
ﷲ 1
ﺣ@@ 1
ﺩ@@ 1
ﺫ@@ 1
ﺮ@@ 1
ﺯ@@ 1
ﻀ@@ 1
ﻡ@@ 1
ﻥ@@ 1
﻿@@ 1
％ 1
％@@ 1
３ 1
４ 1
＝ 1
＝@@ 1
Ｂ@@ 1
Ｆ@@ 1
Ｉ 1
Ｍ 1
Ｍ@@ 1
Ｎ@@ 1
Ｔ 1
Ｖ@@ 1
Ｘ@@ 1
］ 1
ｄ@@ 1
ｆ@@ 1
ｎ 1
ｐ@@ 1
￥ 1
�@@ 1
𐒈@@ 1
𐒍 1
𐒐@@ 1
𐒑@@ 1
𐒖@@ 1
𐒘@@ 1
𐒛@@ 1
𐒝@@ 1
𐤊@@ 1
𐤍 1
𐤍@@ 1
𐤏@@ 1
𐨁@@ 1
𐨐 1
𐨐@@ 1
𐨞@@ 1
𐨮@@ 1
𐨿@@ 1
𐩣@@ 1
𐩥@@ 1
𐩭@@ 1
𐩮@@ 1
𐩯@@ 1
𐩲@@ 1
𐩵 1
𐬙@@ 1
𐬚@@ 1
𐬥 1
𐬭 1
𐬭@@ 1
𐭠@@ 1
𐭩 1
𐭩@@ 1
𐭭 1
𐭮@@ 1
𐭯@@ 1
𑀅@@ 1
𑀢@@ 1
𑀧@@ 1
𑀩@@ 1
𑀫@@ 1
𑀲@@ 1
𑀳@@ 1
𑀻@@ 1
𑀾@@ 1
𑁄@@ 1
𑂌@@ 1
𑂯@@ 1
𑄋@@ 1
𑄌@@ 1
𑄖@@ 1
𑄘@@ 1
𑄝@@ 1
𑄟@@ 1
𑄠@@ 1
𑄦@@ 1
𑄧@@ 1
𑄴 1
𑜑@@ 1
𑜒@@ 1
𑜨@@ 1
𑜪@@ 1
𑲲@@ 1
𑶀@@ 1
𑶂@@ 1
𑶅@@ 1
𑶊 1
𑶋 1
𑶍@@ 1
𑶓@@ 1
𒀫@@ 1
𒂍@@ 1
𒄴@@ 1
𒆠@@ 1
𒆳@@ 1
𒈥@@ 1
𒈾 1
𒈾@@ 1
𒋼@@ 1
𒌅 1
𒌓 1
𒌵@@ 1
𓄤@@ 1
𓈉 1
𓈎@@ 1
𓋾@@ 1
𖬌@@ 1
𖬖@@ 1
𖬘@@ 1
𖬞 1
𖬵 1
𛆁@@ 1
𛈬 1
𝄪@@ 1
𝄫@@ 1
𝐀@@ 1
𝐂@@ 1
𝐄 1
𝐆@@ 1
𝐈@@ 1
𝐉@@ 1
𝐋@@ 1
𝐎@@ 1
𝐓 1
𝐔@@ 1
𝐖@@ 1
𝐠 1
𝐢@@ 1
𝐧@@ 1
𝐰@@ 1
𝐴 1
𝐵 1
𝑟 1
𝑠 1
𝑡 1
𝑤 1
𝛼 1
𞤑@@ 1
𞤢@@ 1
𞤪@@ 1
𞤮@@ 1
𞤲@@ 1
𞤳@@ 1
𞥄@@ 1
🍫@@ 1
🎂@@ 1
🎨 1
👌 1
🔰@@ 1
🔴@@ 1
🔺 1
🖌@@ 1
🜨 1
🟡 1
🟡@@ 1
𠐤@@ 1
𠮾@@ 1
𣴓 1
𧾷 1
