. 7858425
, 7734839
là 3280710
và 2801032
&quot; 2741386
của 2651967
một 2635602
được 2354748
trong 2099410
năm 1909549
có 1781505
các 1474183
) 1435615
( 1434603
đ@@ 1286037
t@@ 1237250
này 1228827
c@@ 1102462
h@@ 1066215
đã 1065442
người 1059885
ở 1052975
ch@@ 1046907
T@@ 1045983
họ 1039642
l@@ 1027268
với 1012926
th@@ 1004447
b@@ 990658
tr@@ 945795
loài 934119
cho 927456
m@@ 907461
C@@ 897329
đầu 884578
học 864240
vào 809905
L@@ 805494
H@@ 805074
s@@ 768536
@-@ 745506
Đ@@ 743352
d@@ 739900
thành 722925
ông 710684
tháng 705008
v@@ 690116
n@@ 683120
Th@@ 677118
số 670753
B@@ 668158
S@@ 661476
ph@@ 657331
kh@@ 655501
từ 646669
không 633153
M@@ 625669
ng@@ 622915
x@@ 621004
đến 620635
i 597459
những 597290
y 589014
r@@ 582311
tại 571373
khi 570579
tả 558234
ra 553677
tiên 544067
ngày 536033
khoa 528275
thể 526746
Loài 525263
V@@ 517873
đó 507575
vật 505204
N@@ 504925
: 500195
công 495477
thực 493175
về 489671
để 484104
thuộc 480258
us 479627
sự 475697
Ch@@ 465997
như 463004
bị 458696
trên 457515
Ph@@ 452751
chính 450756
a 448188
D@@ 444152
g@@ 429502
k@@ 426954
sau 415649
u 414628
K@@ 410908
dân 409322
gia 404077
quân 398193
ia 393337
m 390758
idae 387585
nhà 384483
động 383733
; 379591
lại 375030
cũng 373974
làm 371508
P@@ 370705
thời 367469
nh@@ 365539
hiện 361776
y@@ 358422
G@@ 356707
nước 356271
n 355157
nhất 354938
Tr@@ 352211
an 347664
mô 339302
Nam 332801
sử 332207
phát 329546
hành 328800
bộ 328052
hoa 324466
nhiều 320160
R@@ 319830
ôn 314968
t 314527
theo 309280
hai 309092
ai 305879
gi@@ 305473
khác 301598
việc 297481
A@@ 296803
ương 296502
u@@ 295553
2 291131
quốc 287917
quan 285535
1 284736
con 281826
ối 279855
sinh 278178
thế 277134
p 276656
chỉ 275470
cùng 275104
án 274104
xã 273613
nhân 273315
hình 270148
do 270116
hơn 268905
dụng 267932
chiến 266076
định 265403
thứ 264737
o 258578
Quốc 258233
đồng 256960
xuất 256512
viên 253975
o@@ 251661
ô 250256
còn 249259
um 247923
độ 246082
miêu 244012
p@@ 244005
Trung 243893
thị 243040
3 242309
on 241302
cách 241071
tỉnh 240721
ân 239819
ng 236579
nó 236368
vị 236093
tên 235641
.@@ 235630
cuộc 233667
bản 232965
hi@@ 232710
âm 229485
Việt 228967
/ 228454
qu@@ 226995
ang 225959
ổ 225288
Ng@@ 224984
giới 224640
trở 224510
bởi 223678
hợp 223374
is 223001
anh 222965
Các 222807
lập 221775
nhưng 221325
rằng 221254
khu 218864
phía 218531
lớn 218237
E@@ 217339
cao 216631
điểm 216613
bằng 216511
inh 216318
tự 216270
phần 216121
đội 215829
đại 214180
nhận 214091
5 213830
kết 213579
chức 212963
trước 211554
Kh@@ 211521
hội 211459
ện 211322
trường 209309
ăn 208877
giải 208682
hoặc 207554
Năm 207342
tiếng 207257
Anh 206723
vùng 205856
cả 205615
Trong 204392
phải 203343
trình 203108
gồm 202867
4 202211
thường 201854
Hoa 201837
á 201569
tiếp 200688
điều 200497
lượng 200030
ên 199341
ạn 198946
- 198211
chủ 198200
ến 197863
qua 196500
phân 195140
lý 194899
in 194607
sản 193960
Kỳ 193698
Qu@@ 193199
mà 192731
thống 191830
ải 191481
ếu 191085
loại 190796
sẽ 190772
tế 189983
huyện 189020
cơ 188473
ê 187958
ốc 187771
F@@ 187477
ôi 186663
ic@@ 186228
ánh 186094
an@@ 186042
trung 185086
à 184897
í 183948
in@@ 182721
àn 181841
tính 181638
diễn 181232
hệ 181150
ho@@ 180339
ái 180092
lên 180087
ước 179249
đối 179020
ảng 177963
phố 177458
bao 177440
I@@ 177298
ập 176024
tích 175817
vụ 175782
6 175684
gọi 175443
thông 174869
sống 174559
tác 172750
đi 172652
hàng 172217
bắt 172032
phim 171071
O@@ 171049
tạo 170670
ăng 169870
vì 169587
c 169227
lực 169197
X@@ 168715
ti@@ 167745
Gi@@ 167440
ta 167290
mình 167272
nhiên 167184
al@@ 167151
Ti@@ 166878
úc 166785
ao 166209
ận 166152
ào 165780
quyền 165702
ài 165179
vực 164844
en@@ 162899
cánh 162888
địa 162885
Đại 162799
trị 162781
&amp; 162255
đường 161356
àng 161233
lần 161144
nghiệp 160663
el@@ 160647
ại 159557
10 159474
giáo 159085
on@@ 158935
i@@ 157809
ạch 157103
đánh 156946
chi 156555
diện 156434
7 156217
cấp 156103
ều 155563
đấu 154688
ung 154657
J@@ 154114
chúng 153830
thủ 153407
ắn 153189
ần 153001
ý 152966
8 152952
ồi 152884
Pháp 152824
cầu 152563
khoảng 152291
êu 151938
li@@ 151501
e@@ 150869
sĩ 150793
ú 150547
mới 150500
Sau 150182
thức 150142
e 149825
ệt 149802
ol@@ 149048
om@@ 148785
os@@ 148666
ật 148413
đoàn 148403
or@@ 147820
hóa 147784
trận 147657
ụ 147360
ư 147350
ứ 147031
en 146560
Đức 146152
tranh 146083
cô 146080
ar@@ 145884
ành 145726
hay 145682
9 144835
đêm 144769
pháp 143883
đề 143565
ảnh 143492
Tây 143338
ờ 143298
ết 143142
ạm 142289
ó 142274
W@@ 142251
thi@@ 141932
% 141874
ac@@ 141800
– 141777
ị@@ 141754
a@@ 141559
liên 141153
tập 141053
tham 141007
nhạc 140905
tàu 140789
chuyển 140441
Y@@ 140079
hiệu 139526
biển 139083
ường 138691
bay 138428
ốn 138135
ủ 138103
thấy 138070
máy 137905
bố 137182
lo@@ 136517
ì 136391
truyền 136364
Mỹ 136105
ata 136058
thì 136022
ỏ 135988
ỗ 135837
năng 135451
ống 135355
ban 135315
km 135078
12 134696
mặt 134539
am 134249
toàn 134023
ấu 133892
gian 133832
nên 133823
rất 132952
as@@ 132502
ùng 132368
thu@@ 132162
aceae 131570
ời 130836
ot@@ 130254
át 130024
văn 129737
phương 129725
er@@ 129585
tới 129444
hoạt 129436
am@@ 129303
nam 129291
Nh@@ 129018
ục 129008
đô 128967
ag@@ 128815
ị 128776
đây 128770
ứng 128664
bang 128163
trí 127814
giữa 127188
ất 127097
đạo 127045
triển 127037
đặc 126776
ba 126116
tổ 126064
ền 125815
nhau 125716
bướm 125448
Bắc 125376
nghĩa 125327
đá 124739
danh 124471
s 124155
ầm 123971
cứng 123829
ọc 123800
su@@ 123630
áp 123548
Một 123473
ơ 123179
h 123176
Ông 122780
ác 122344
ấn 121491
biệt 121140
ách 120280
tử 119828
bóng 119593
thiết 119370
chế 119299
at@@ 119236
đất 119121
đang 119118
nằm 118930
di@@ 118715
kinh 118668
ưng 118611
er 118500
bình 118452
đổi 118245
thuật 117925
kỳ 117483
tâm 117366
op@@ 117015
nơi 116982
dài 116951
đơn 116433
dưới 116091
chất 115959
ur@@ 115482
Nó 114721
ắc 114619
U@@ 114452
ỉ 114369
cuối 114249
phủ 114045
11 113795
Công 113791
bọ 113094
kế 112145
Liên 111990
dịch 111975
Đông 111905
ạt 111513
Lan 111201
tin 111166
ểu 111033
bu@@ 110748
nữ 110676
ũ 110589
&apos; 110505
nhiệm 110396
ám 110183
ki@@ 110154
ảo 110062
ul@@ 110023
tiểu 109871
điện 109676
sách 109610
Nhật 109455
oc@@ 109343
nói 109213
Vào 109048
biết 108769
phẩm 108684
sáng 108448
thay 108387
tăng 108056
ử 108035
áo 107732
châu 107676
bảo 107650
ển 107616
z@@ 107523
biến 107485
ong 107212
ca 107020
trưởng 106355
nguyên 106294
is@@ 106166
Thái 106084
báo 105810
đều 105734
ộc 105728
3@@ 105663
mục 105397
vẫn 105355
ensis 105087
âu 105057
cứu 104702
thi 104669
gần 104312
trọng 104232
đảo 104116
amp 103702
út 103513
tình 103381
ò 102746
ana 102188
chơi 101901
thu 101689
ích 101646
tiến 101513
le@@ 101366
cá 101139
giá 100980
bài 100924
Bộ 100841
đặt 100813
tiêu 100727
la 100720
thân 100677
ù 100613
tương 100469
nay 100409
tư 100334
chi@@ 100269
id@@ 100238
nhóm 99658
Ngày 99453
dự 99450
nhỏ 99298
ưu 99016
tìm 98982
tổng 98891
Ar@@ 98889
phòng 98848
ồng 98776
Hi@@ 98467
il@@ 98287
dùng 98198
ấp 98125
ả 97905
ảy 97570
em 97445
ẻ 97434
bắc 97308
ừng 97025
ngoài 97005
ay 96806
lịch 96746
đông 96741
de 96167
hòa 95839
bà 95804
bên 95754
tài 95657
hậu 95655
nổi 95255
ửa 94967
màu 94744
to@@ 94650
al 94649
ro@@ 94547
ạc 94374
ỏ@@ 94310
dẫn 94274
Vi@@ 94033
ệ 93884
óng 93748
quả 93618
phong 93560
ề 93438
k 93254
tuổi 93129
tinh 92918
Dân 92734
phục 92496
kỷ 92440
ố 92423
l 92345
biểu 92032
đưa 91937
sát 91758
đời 91632
Tuy 91403
đình 91336
viết 91323
ực 91228
ính 90854
ap@@ 90840
ấy 90192
ni@@ 90162
tục 90033
Thành 89995
giao 89995
d 89936
ea 89574
&#93; 89430
ức 89256
Hà 89119
ậu 89066
4@@ 89056
ắt 88954
miền 88800
mang 88668
Bản 88505
ar 88380
quận 88059
em@@ 87904
yếu 87847
mùa 87841
hát 87709
ru@@ 87626
Đi@@ 87613
giữ 87565
Hoàng 87557
rộng 87505
tướng 87426
trang 87382
vô 87097
di 86982
im@@ 86901
thương 86832
liệu 86649
ốt 86343
sông 85968
ad@@ 85678
&#91; 85596
² 85583
bán 85577
ạp 85511
nhập 85486
êm 85442
ộ 85377
quyết 85172
so@@ 85129
từng 85082
5@@ 84996
dựng 84473
Z@@ 84438
bất 84189
đóng 84123
tấn 84033
sở 83783
ủng 83782
bỏ 83774
thần 83567
Dương 83557
quá 83519
ượng 83465
phụ 83352
ab@@ 83320
es@@ 83181
Xã 83167
es 82853
ược 82851
ĩnh 82826
chiếc 82821
chương 82527
viện 82390
ach@@ 82057
ản 82045
Di@@ 81722
ội 81684
dù 81669
ẳng 81611
Al@@ 81528
òng 81493
thắng 81459
câu 81387
nghệ 81387
vận 81353
Hải 81327
ắng 81301
Văn 81280
hoàn 81237
w@@ 81091
nhiệt 81020
Cộng 81002
tra 80952
2010 80879
Theo 80786
Độ 80756
ak@@ 80723
vai 80667
ầu 80597
j@@ 80530
binh 80442
ủy 80372
lạc 80313
xây 80313
khí 80255
ột 80203
av@@ 80001
ữ 79955
cung 79751
cử 79483
it@@ 79483
ngh@@ 79450
áng 79408
cổ 79326
ịnh 79236
20 79124
ồ 79082
tho@@ 79081
vệ 78920
nào 78831
è@@ 78700
Ấn 78566
ig@@ 78520
um@@ 78508
giống 78453
ọ 78432
hạng 78180
xác 78173
Tổng 77861
x 77854
ty 77768
tiền 77652
Nguyễn 77281
ợ 77113
ỉnh 77101
et@@ 77053
yl@@ 76894
hoàng 76868
trò 76867
vua 76765
f@@ 76314
Bình 76072
ơi 76037
mở 75709
ặng 75572
ế 75563
2@@ 75551
nh 75344
Mar@@ 75141
Minh 75111
Những 75110
úng 74976
ạnh 74976
tây 74939
sân 74856
ừa 74802
ngữ 74793
chống 74789
hướng 74719
ấm 74619
chung 74573
cái 74558
trợ 74378
làng 73939
chiếm 73894
chưa 73583
Từ 73433
el 73302
hộ 73262
ghi 73050
ma 72912
ạ 72879
tượng 72827
ã 72797
Ban 72707
cộng 72447
giả 72285
minh 72181
ựa 72071
ter@@ 72062
ổi 72015
us@@ 71914
ina 71891
po@@ 71816
đạt 71739
mất 71525
triệu 71356
bi@@ 71255
dạng 71080
An@@ 70794
un@@ 70764
ưởng 70673
A 70471
kiến 70419
phản 70303
quản 70294
bệnh 70153
ụ@@ 70122
mạnh 70096
ãi 70064
sang 70061
chết 70022
uyện 69975
ký 69807
hạn 69743
lúc 69617
6@@ 69537
Quân 69492
18@@ 69468
Ho@@ 69404
giờ 69304
tộc 69269
xe 69269
cảnh 69260
lãnh 69248
õ 69173
ít 69169
chuy@@ 69134
gây 69101
ượt 69043
ec@@ 69028
nguồn 68903
chứng 68813
da 68796
kể 68618
kích 68594
ứa 68552
nghiên 68317
od@@ 68308
chia 68191
trấn 68084
kiện 67928
Br@@ 67670
Tri@@ 67656
lệ 67647
tất 67619
amb@@ 67576
Chúng 67536
đoạn 67384
uyên 67321
ồn 67244
ngôi 67229
ir@@ 67192
ù@@ 67049
hữu 67014
thư 66989
lưu 66984
yêu 66961
Khi 66726
vương 66721
tay 66484
cây 66385
7@@ 66344
ĩ 66310
chân 66166
Vương 66046
ặc 65914
vòng 65297
lu@@ 65067
thuyết 65065
giúp 65012
phép 65010
thêm 64996
Nga 64982
D 64973
Chính 64952
đi@@ 64877
ắp 64819
15 64780
17@@ 64496
Ba 64406
ỡ 64307
ềm 64299
mi@@ 64290
hi 64199
Châu 64137
ạng 64066
độc 64020
thích 64004
phá 63988
trực 63875
mỗi 63792
Sơn 63609
Âu 63536
si@@ 63412
g 63304
hưởng 63293
vi@@ 63188
vậy 63138
chọn 63109
ăm 63052
ệu 62846
The 62779
ây 62741
khỏi 62696
Sự 62656
sắc 62652
sư 62630
òn 62623
Hội 62588
so 62525
cảm 62496
og@@ 62402
ọa 62152
vấn 62108
yr@@ 61832
Chiến 61548
ẹ@@ 61535
ệp 61447
vi 61264
cần 61238
hết 61119
Giải 61088
cu@@ 61070
Nhà 60956
tốt 60840
địch 60642
luật 60575
st@@ 60510
cư 60250
La 60095
ó@@ 60074
yc@@ 60030
xem 59991
ẫu 59971
ep@@ 59849
ẽ 59819
á@@ 59749
nội 59730
xếp 59581
ae 59455
tỷ 59340
sao 59298
ạo 59173
lấy 59108
ớ@@ 58957
An 58953
gốc 58908
khả 58422
quy 58414
30 58384
2011 58366
ri@@ 58346
I 58281
ự 58272
ể 58219
dương 58214
chí 58198
mạng 58196
as 58157
Hu@@ 58130
òa 58076
9@@ 57900
and@@ 57874
giành 57854
tu@@ 57820
Thanh 57781
Thi@@ 57748
hu@@ 57702
ĩa 57639
Sh@@ 57584
ing 57577
St@@ 57522
núi 57512
trai 57446
mu@@ 57292
mật 57280
Cu@@ 57128
Người 57039
mắt 56849
8@@ 56837
18 56633
bàn 56541
triều 56528
Đây 56333
úa 56177
ẩm 56083
cố 55869
et 55867
niên 55804
19 55788
giảm 55659
huy 55630
or 55622
ọng 55545
khai 55544
Nhĩ 55543
Quận 55471
ầy 55443
lời 55331
tuyến 55267
at 55223
ine 55196
ìn 55029
lệnh 55016
au@@ 54931
ếm 54928
kho@@ 54919
é@@ 54844
P 54828
z 54793
ễ 54537
Đảng 54402
ang@@ 54306
khiến 54218
lin@@ 54200
khách 54143
oph@@ 54127
Nha 54108
cáo 53938
Thổ 53936
trẻ 53908
bầu 53870
ob@@ 53862
ne@@ 53729
duy 53685
Mã 53673
16 53640
àm 53621
thảo 53157
ed@@ 53152
Q@@ 53120
vũ 53083
sức 53044
Thế 52984
Tân 52972
ão 52966
os 52875
bại 52871
Lo@@ 52778
tuần 52666
chuyên 52636
ut@@ 52618
ngoại 52576
Hy@@ 52567
óc 52555
đa 52541
Tháng 52505
... 52361
14 52276
ay@@ 52269
ua 52222
eg@@ 52139
éo 51910
óa 51788
all@@ 51718
ọ@@ 51702
chu@@ 51659
đồ 51626
dục 51586
môi 51586
album 51473
ica 51467
ặt 51449
Nhân 51429
Nội 51362
ov@@ 51361
ch 51269
ỗi 51259
Lý 51225
quay 51186
riêng 51185
chuẩn 51053
ơn 51028
ễn 51017
T 51010
phổ 50969
Tại 50882
thiên 50876
đới 50828
bo@@ 50772
thúc 50743
uyền 50669
gặp 50665
đế 50654
of 50502
13 50501
the 50416
hầu 50345
Xô 50324
nghiệm 50299
ày 50276
Do 50271
lớp 50212
ởi 50179
nghị 50165
thanh 50140
lợi 50133
hạt 50051
Long 50004
im 49902
au 49819
Phi 49767
chữ 49676
17 49621
ẩn 49459
ưỡ@@ 49438
doanh 49431
lễ 49344
nền 49310
ịch 49306
son 49270
xuống 49236
Le@@ 49213
ặ@@ 49161
chạy 49142
ụy 49093
C 49056
Ki@@ 48970
ệm 48957
é 48937
phiên 48900
ét 48668
era 48660
ưa 48643
ép 48540
to 48530
Danh 48508
ậm 48500
25 48402
biên 48392
du 48386
ran@@ 48364
ùa 48327
thái 48235
ys@@ 48223
ã@@ 48109
ộ@@ 48037
Lịch 48033
gái 47913
ụng 47890
atus 47796
bổ 47748
ón 47745
kiểm 47634
w 47552
vây 47546
16@@ 47426
cha 47387
Hòa 47280
Bi@@ 47267
ảm 47245
dòng 47053
co@@ 46986
tồn 46934
ới 46925
luận 46898
Hán 46891
tưởng 46816
Hồ 46804
rồi 46797
ế@@ 46796
muốn 46726
v 46701
tuyên 46638
thấp 46565
Car@@ 46531
vàng 46477
Đế 46462
ắm 46410
ình 46298
10@@ 46278
and 46256
ah@@ 46143
New 46072
tiết 46017
mọi 45956
khẩu 45877
cực 45831
Á 45770
Giáo 45650
tức 45619
Li@@ 45610
đứng 45538
per@@ 45507
B 45435
cửa 45299
tịch 45298
II 45264
Cr@@ 45242
nhanh 45228
na 45204
2007 45164
br@@ 45105
ũng 45083
ê@@ 45069
Lu@@ 45060
ok@@ 45052
giám 45042
Ngoài 45030
Trường 44991
mức 44910
ne 44753
mẹ 44725
thờ 44704
uy@@ 44639
ô@@ 44590
coi 44536
ãn 44507
Cer@@ 44401
yp@@ 44379
trúc 44327
Trần 44319
thất 44299
đáng 44227
ens 44221
dụ 44134
15@@ 44131
Có 44092
nữa 44092
kỹ 44019
dựa 43973
cận 43968
S 43861
phi 43841
giáp 43802
giai 43783
ngay 43756
mét 43703
Hồng 43691
â@@ 43644
mặc 43582
le 43571
hạ 43494
ou@@ 43473
đôi 43457
tri@@ 43413
Nguyên 43379
bảng 43373
tối 43318
Chi@@ 43290
quần 43269
Bo@@ 43256
ya 43227
sa 43218
Ne@@ 43180
ói 43143
gr@@ 43133
áu 43087
quanh 43082
luy@@ 43075
phái 43023
lâu 42942
dung 42938
thủy 42938
1.@@ 42909
tuyển 42899
nhện 42802
Par@@ 42756
re@@ 42732
phóng 42711
má@@ 42709
Thiên 42623
ãng 42618
Hàn 42553
21 42486
lục 42468
vài 42373
nhằm 42334
un 42251
ella 42085
2006 41993
2008 41885
El@@ 41818
Đồng 41776
ent@@ 41430
uc@@ 41387
optera 41336
Ý 41221
24 41145
ỹ 41110
ber@@ 41044
ik@@ 41006
ợi 41000
Kar@@ 40783
ợ@@ 40675
Co@@ 40467
az@@ 40462
ton 40430
Gr@@ 40308
Sch@@ 40303
Ở 40117
dae 40028
osa 39966
eb@@ 39887
xa 39869
ỏi 39662
it 39596
sh@@ 39585
ễ@@ 39535
eo 39532
alis 39495
kim 39374
ell@@ 39291
ự@@ 39176
ử@@ 39109
car@@ 39032
1@@ 38976
14@@ 38828
50 38818
2016 38775
ie 38737
Geometr@@ 38730
ữa 38630
M 38511
ú@@ 38485
men@@ 38483
Kim 38478
ểm 38325
Ủ@@ 38224
anth@@ 38204
ad 38101
ath@@ 38040
end@@ 38020
23 37880
Cao 37736
ides 37702
ọn 37592
2009 37455
ati@@ 37383
ass@@ 37250
nu@@ 37225
ra@@ 37092
000 37007
ẫn 37006
pl@@ 36959
ev@@ 36872
2004 36866
13@@ 36799
ườ@@ 36696
22 36675
man 36644
2015 36627
ora 36569
Bar@@ 36361
gh@@ 36351
Á@@ 36342
è 36285
ich@@ 36251
2000 35747
ari@@ 35706
no@@ 35702
As@@ 35635
2014 35631
par@@ 35627
ur 35559
la@@ 35453
2005 35452
r 35394
31 35239
0 35228
Pr@@ 35185
nhi@@ 35171
2012 35132
ci@@ 35122
ka 34945
b 34938
ưới 34938
O 34918
In@@ 34827
one 34791
đo@@ 34708
se@@ 34593
land 34582
Am@@ 34575
2017 34474
Per@@ 34464
octu@@ 34442
hy@@ 34429
100 34409
2013 34332
40 34286
do@@ 34141
1999 34089
F 34063
ệc 34060
Mal@@ 34026
Mi@@ 33862
2018 33825
Con@@ 33796
28 33663
ếp 33580
ò@@ 33544
27 33425
ằng 33336
26 33232
Or@@ 33173
2019 33061
ena 33013
Chr@@ 32865
Cal@@ 32850
hiệ@@ 32810
To@@ 32692
12@@ 32643
khi@@ 32616
ter 32552
0@@ 32515
ướng 32479
man@@ 32440
Pol@@ 32413
E 32248
ầ@@ 32235
Ú@@ 32200
ổ@@ 32136
ẩ@@ 32121
aria 31981
Mo@@ 31831
tic@@ 31822
gt 31675
oni@@ 31455
Ro@@ 31377
de@@ 31271
te 31061
mm 30957
,@@ 30940
ver@@ 30915
V 30875
lt 30871
ỷ 30840
_ 30768
Man@@ 30755
U 30745
Mon@@ 30619
song 30385
aw@@ 30319
onia 30296
mar@@ 30295
te@@ 30250
pi@@ 30241
tia 30235
fl@@ 30220
ura 30200
ist@@ 30110
va 30102
af@@ 30068
ly 29850
29 29770
Cor@@ 29727
ừ 29714
CN 29704
ẵ@@ 29704
Gu@@ 29702
Tu@@ 29688
gu@@ 29673
Se@@ 29496
fol@@ 29490
ổng 29481
2001 29285
ing@@ 29261
re 29231
f 29222
tuy@@ 29204
L 29177
aka 29169
ten@@ 29158
ed 28795
ín 28788
ill@@ 28705
ỵ 28662
ũ@@ 28531
if@@ 28434
tín 28364
inc@@ 28238
2020 28191
2.@@ 28187
Col@@ 28148
ard 28094
Be@@ 28079
he 28034
N 27961
der@@ 27936
ậy 27727
àu 27720
US@@ 27686
ươ@@ 27658
õ@@ 27594
ong@@ 27534
ol 27479
rich@@ 27306
G 27288
60 27216
ẹ 27142
ama 27099
Ad@@ 27021
ma@@ 26895
Ere@@ 26857
ha 26817
ota 26790
ượ@@ 26763
con@@ 26761
= 26731
il 26670
Ma@@ 26636
ạy 26570
dia 26497
2002 26465
20@@ 26335
ium 26322
ly@@ 26242
ano 26086
ax@@ 26041
ara 26032
ười 25945
Re@@ 25873
ex 25716
2003 25695
sch@@ 25695
ug@@ 25694
ox@@ 25678
ic 25676
pr@@ 25672
Con 25625
League 25586
ặp 25576
Dr@@ 25556
mo@@ 25420
Sal@@ 25412
óm 25278
R 25179
ak 25170
ớ 25126
ba@@ 25070
oma 25045
só@@ 25021
lo 25001
ộng 24905
ệnh 24891
ice 24884
ley 24864
0,@@ 24768
1,@@ 24730
ngu@@ 24715
Mor@@ 24659
ib@@ 24650
est@@ 24617
Ser@@ 24552
ow@@ 24453
San 24452
sp@@ 24410
amp@@ 24252
ali@@ 24245
H 24232
che 24214
ala 24213
pha 24172
ell 24144
185@@ 24095
iz@@ 24048
1990 24032
oth@@ 24030
úp 23976
tru@@ 23952
pu@@ 23946
ers 23910
ov 23863
Er@@ 23825
Her@@ 23702
cm 23676
hiên 23653
aur@@ 23490
eli@@ 23458
enn@@ 23386
III 23281
ate 23263
tu 23261
ila 23257
ii 23255
Su@@ 23203
0.000 23146
Du@@ 23139
2,@@ 23052
ant@@ 22995
ki 22979
Pl@@ 22887
ans 22766
! 22738
huy@@ 22722
iv@@ 22696
ex@@ 22689
se 22653
80 22636
Pal@@ 22632
lum 22628
ff@@ 22616
ga 22607
Sp@@ 22538
aj@@ 22502
&#124; 22414
ứ@@ 22379
John 22348
ub@@ 22325
ướ@@ 22317
och@@ 22299
anus 22252
Com@@ 22121
Eu@@ 21969
oh@@ 21944
uch@@ 21942
ola 21930
ino 21913
ah 21906
3.@@ 21894
lar@@ 21842
ary 21835
Hol@@ 21803
eri 21737
Kr@@ 21725
ili@@ 21701
ania 21662
nat@@ 21653
né@@ 21626
Har@@ 21613
En@@ 21543
1998 21457
uyết 21449
ae@@ 21444
K 21391
ann@@ 21381
Ber@@ 21370
lis 21292
Ac@@ 21240
? 21196
1945 21192
ler 21143
lan@@ 21139
des 21117
bia 21108
Nor@@ 21102
C. 21084
ita 21064
70 21035
formula 21031
ậ@@ 21015
iss@@ 20977
tan 20925
ation 20832
Po@@ 20806
í@@ 20779
ta@@ 20758
pol@@ 20705
cr@@ 20678
ula 20596
Mac@@ 20552
Si@@ 20539
ve 20473
ich 20463
du@@ 20436
cor@@ 20425
De@@ 20292
X 20279
1997 20217
ym@@ 20203
ok 20090
quy@@ 20062
ố@@ 20052
ek@@ 20038
yn@@ 20012
Mel@@ 20008
pe@@ 19999
video 19979
ima 19971
mon@@ 19971
ai@@ 19958
Cas@@ 19859
184@@ 19855
id 19833
2021 19827
90 19821
+ 19753
inae 19733
Canada 19716
York 19713
ost@@ 19645
atr@@ 19641
Ver@@ 19617
Te@@ 19607
Y 19599
dr@@ 19595
ys 19588
ey 19559
lan 19517
1980 19474
ei 19374
1991 19363
Ste@@ 19355
ind@@ 19331
co 19304
gen@@ 19300
Paris 19253
° 19219
35 19189
he@@ 19155
ore 19151
He@@ 19132
êng 19020
no 19006
sil 19004
ani 18999
Bur@@ 18929
ona 18899
apo@@ 18889
ick 18871
​ 18871
ense 18816
Â@@ 18788
teh@@ 18726
ệ@@ 18675
Tor@@ 18652
inn@@ 18644
ằ@@ 18620
ía 18567
ce 18545
ti 18510
1996 18508
Tran@@ 18494
ale 18471
Camp@@ 18414
ey@@ 18402
Me@@ 18316
him 18291
sc@@ 18289
ard@@ 18203
Saint 18138
ud@@ 18106
Bel@@ 18101
io 18071
und@@ 18018
3,@@ 17998
ida 17976
uk@@ 17974
1995 17940
ori@@ 17889
ines 17868
1975 17867
str@@ 17865
ini 17864
son@@ 17863
Bal@@ 17847
awa 17818
be@@ 17700
sub@@ 17672
World 17670
1992 17668
min@@ 17607
ợp 17577
los@@ 17546
Ni@@ 17537
ie@@ 17524
200 17519
Mc@@ 17519
dium 17505
har@@ 17420
wa 17419
25@@ 17416
tis 17347
mer@@ 17300
unc@@ 17294
Pi@@ 17287
li 17272
For@@ 17248
ent 17232
Bor@@ 17223
ỗ@@ 17201
Pe@@ 17196
Lim@@ 17131
Pro@@ 17092
za 17070
eng@@ 17061
pes 17047
1993 17038
Do@@ 16972
ł@@ 16958
tus 16886
32 16873
Bul@@ 16871
pa 16865
ion 16746
mac@@ 16727
Cy@@ 16689
1994 16664
.000 16651
vir@@ 16651
Sy@@ 16624
Ir@@ 16599
ada 16571
opsis 16564
dro@@ 16558
Sc@@ 16546
eri@@ 16540
ens@@ 16507
vo@@ 16467
5.@@ 16362
bar@@ 16353
1970 16286
Brasil 16252
lia 16250
der 16247
ser@@ 16247
Mas@@ 16239
hô@@ 16222
A.@@ 16215
So@@ 16211
ừ@@ 16208
me@@ 16183
Ab@@ 16159
Rh@@ 16146
ire 16113
Mer@@ 16106
ke 16105
Rom@@ 16090
sia 16090
olo@@ 16082
Str@@ 16056
sa@@ 16032
Cup 16030
ons 16029
lã@@ 16016
-@@ 16001
45 15980
38 15943
A. 15931
4.@@ 15867
les 15860
act@@ 15805
Ả 15795
ner 15786
ord@@ 15727
all 15714
Hal@@ 15706
ơ@@ 15699
aus@@ 15669
1960 15643
Philipp@@ 15637
500 15619
Ag@@ 15586
can 15564
aci@@ 15544
19@@ 15538
eh@@ 15509
Mil@@ 15482
1989 15432
game 15413
su 15367
lui 15320
ẫ@@ 15317
can@@ 15313
Sam@@ 15302
Bl@@ 15269
36 15254
anc@@ 15243
odes 15236
eus 15223
ìm 15212
Lin@@ 15196
od 15184
by 15155
oa 15134
Wil@@ 15112
gar@@ 15107
“ 15106
cal@@ 15060
Val@@ 15048
Mad@@ 15027
California 14992
Tur@@ 14981
st 14953
pp@@ 14951
” 14871
Is@@ 14834
Cl@@ 14828
ile 14826
Fre@@ 14814
yan@@ 14804
TV 14795
sk@@ 14786
Sing@@ 14773
th 14750
33 14731
ha@@ 14719
me 14680
ữu 14672
Mos@@ 14666
Char@@ 14643
aya 14634
ko@@ 14627
37 14618
cel@@ 14615
ster@@ 14612
Ale@@ 14596
Ex@@ 14569
ō@@ 14554
oy@@ 14551
FC 14550
IV 14491
1988 14488
Meg@@ 14464
bl@@ 14444
34 14404
ō 14373
Ben@@ 14340
9,@@ 14338
up@@ 14326
elle 14322
Sar@@ 14310
pal@@ 14304
ema 14301
ater@@ 14288
ts 14272
War@@ 14256
col@@ 14234
At@@ 14226
24@@ 14219
Gal@@ 14214
48 14199
75 14182
xu@@ 14166
ash@@ 14102
.. 14064
com@@ 14051
duy@@ 13999
cus 13949
Mag@@ 13939
Cam@@ 13927
Phil@@ 13927
ì@@ 13909
age 13907
eta 13905
ane 13902
mer 13900
ess@@ 13872
ui 13840
por@@ 13834
Ang@@ 13815
Ger@@ 13814
eter@@ 13804
65 13803
ung@@ 13791
Hung@@ 13756
Gre@@ 13748
ler@@ 13741
ir 13685
ko 13649
kia 13643
berg 13633
ani@@ 13610
ek 13593
Fran@@ 13565
are 13564
Go@@ 13543
ge 13470
illa 13465
1986 13399
ro 13390
seud@@ 13386
res@@ 13380
Bol@@ 13371
fer@@ 13367
uz@@ 13345
nia 13333
den 13318
ene 13286
web 13244
26@@ 13239
adi@@ 13193
ski 13185
san 13181
ick@@ 13160
ira 13152
est 13133
On@@ 13117
phe 13102
ales 13086
ez@@ 13046
sen 13045
Mat@@ 13030
Can@@ 13027
Gar@@ 13016
eph@@ 13012
q 13002
mel@@ 12998
ford 12996
inus 12984
1950 12945
ri 12944
4,@@ 12933
Ru@@ 12918
ime 12896
1987 12893
fr@@ 12888
asi@@ 12884
Mu@@ 12878
Bu@@ 12860
ight 12852
be 12843
ish@@ 12823
yo 12807
1985 12796
Ngo@@ 12779
ros@@ 12769
1942 12760
United 12723
39 12704
cul@@ 12697
én 12664
tic 12661
Min@@ 12658
kg 12636
gen 12588
30@@ 12586
ni 12575
ge@@ 12571
We@@ 12562
tar@@ 12562
cer@@ 12549
alb@@ 12545
Jo@@ 12496
anga 12494
Fr@@ 12485
Ap@@ 12484
iy@@ 12482
Sa@@ 12469
van 12455
dis@@ 12454
ack@@ 12435
ide 12425
Por@@ 12422
1981 12416
ence 12407
ier@@ 12398
ein 12382
tor@@ 12367
ji 12362
S.@@ 12345
00 12315
ari 12304
5,@@ 12302
01 12301
1944 12300
tel@@ 12298
Sm@@ 12293
1979 12283
Sa 12267
1940 12241
1984 12225
ỳ@@ 12223
180@@ 12188
Ze@@ 12178
Sol@@ 12156
53 12154
ant 12152
ver 12149
lor@@ 12140
ali 12131
Oc@@ 12128
Ri@@ 12119
j 12065
Lat@@ 12058
abr@@ 12016
ot 11997
Indonesia 11963
pe 11959
1982 11956
Grand 11949
George 11948
Mich@@ 11940
tro@@ 11930
arg@@ 11917
tan@@ 11904
6.@@ 11898
’ 11877
Pan@@ 11859
prot@@ 11859
des@@ 11854
55 11831
sky 11811
47 11808
Ç@@ 11801
ins@@ 11780
1941 11762
von 11728
1983 11689
bon 11673
Album 11662
ham 11649
ius 11644
uri 11638
tes 11623
ky 11608
1972 11593
1943 11588
Met@@ 11581
52 11576
om 11570
Wal@@ 11568
28@@ 11559
Ge@@ 11537
ven 11519
27@@ 11518
istan 11457
bre@@ 11447
rom@@ 11434
aga 11429
tim 11425
William 11405
1978 11399
Israel 11395
ze 11394
7,@@ 11393
syl@@ 11383
6,@@ 11376
James 11376
oto 11362
Os@@ 11361
Hel@@ 11359
AS@@ 11352
ansas 11346
1930 11316
1976 11302
Mis@@ 11295
bor@@ 11294
Sel@@ 11284
si 11280
— 11268
oni 11267
non 11258
sti@@ 11257
und 11250
300 11245
Tok@@ 11224
Eri@@ 11216
del 11215
Sil@@ 11207
Cap@@ 11205
Cro@@ 11200
64 11194
we@@ 11193
Bro@@ 11176
L. 11174
yi 11144
ein@@ 11140
7.@@ 11122
ker 11115
ủ@@ 11112
ce@@ 11094
ame 11083
Tak@@ 11082
nis 11081
ip@@ 11059
Penn@@ 11048
Scot@@ 10960
ace 10956
len@@ 10942
ỳ 10922
Ros@@ 10918
Ot@@ 10914
Pom@@ 10900
ans@@ 10897
Bay@@ 10885
Kit@@ 10876
iti@@ 10875
burg 10856
ain@@ 10852
yth@@ 10840
tom@@ 10829
Mur@@ 10810
Hor@@ 10807
ava 10807
Ko@@ 10801
Ur@@ 10794
ney 10784
51 10777
cl@@ 10777
1968 10773
ite 10771
tha 10771
men 10756
Fo@@ 10747
29@@ 10736
44 10734
Q 10733
ze@@ 10728
kar@@ 10721
42 10714
aina 10714
go@@ 10696
air@@ 10689
1946 10680
Cre@@ 10680
W 10655
ö@@ 10643
km@@ 10641
Ox@@ 10631
per 10627
8.@@ 10614
cin@@ 10608
int@@ 10606
ül@@ 10602
sy@@ 10575
isti@@ 10558
Ed@@ 10556
1973 10552
ere 10537
ville 10533
pan@@ 10532
enti@@ 10531
eti@@ 10526
Mus@@ 10512
ax 10509
Mit@@ 10500
1954 10465
00@@ 10457
Charles 10433
que 10413
tor 10400
Del@@ 10392
yg@@ 10389
Mai 10377
vania 10368
Ấ@@ 10359
Tar@@ 10324
q@@ 10322
aki 10309
1974 10308
49 10307
sim@@ 10287
1965 10261
ững 10219
amm@@ 10209
Pot@@ 10208
arr@@ 10208
72 10169
Henry 10167
Ath@@ 10162
City 10162
Windows 10160
46 10141
gl@@ 10140
Ireland 10135
ja 10135
opo@@ 10134
Ak@@ 10125
ku@@ 10121
M. 10112
ih@@ 10101
Al 10091
Kur@@ 10090
ome 10088
Ty@@ 10040
Af@@ 10035
ve@@ 10034
… 10032
ops 10000
ance 9999
ou 9999
art 9969
1977 9954
ven@@ 9938
05 9937
for@@ 9929
43 9927
8,@@ 9926
85 9924
1967 9917
West 9913
sen@@ 9880
ẩu 9852
Rob@@ 9841
58 9840
41 9837
Ukr@@ 9828
nch@@ 9824
David 9818
1964 9813
54 9806
San@@ 9805
of@@ 9790
ez 9788
Cat@@ 9786
ase 9774
lang 9746
than 9739
AT@@ 9736
Robert 9725
1963 9713
entr@@ 9709
Wo@@ 9686
ign@@ 9686
Washington 9681
Tro@@ 9676
esc@@ 9675
bur@@ 9672
Andr@@ 9665
don@@ 9658
Air@@ 9649
lam 9647
Ly@@ 9645
sel@@ 9643
form@@ 9642
zi@@ 9628
Đ 9603
the@@ 9588
top 9587
1939 9575
ue 9565
Haw@@ 9564
No@@ 9527
tam 9524
ach 9521
ks 9521
ami 9519
cur@@ 9515
Es@@ 9504
Mexico 9496
Em@@ 9489
may 9487
sk 9478
Paul 9477
57 9458
aland 9437
Hau@@ 9432
Eur@@ 9430
Harr@@ 9418
02 9409
56 9350
1971 9348
ory 9347
Anth@@ 9341
ac 9332
J. 9324
ail@@ 9303
New@@ 9298
ke@@ 9285
ast@@ 9281
Des@@ 9278
mag@@ 9272
1920 9271
1969 9242
06 9226
ry 9219
07 9218
phil@@ 9218
Dar@@ 9208
uba 9208
1962 9203
Un@@ 9198
ain 9195
ust@@ 9178
cas@@ 9171
ı@@ 9168
Ham@@ 9121
ise 9107
Mes@@ 9102
1956 9097
isa 9095
mat@@ 9094
04 9085
Sen@@ 9075
her@@ 9066
Illinois 9064
Je@@ 9064
cap@@ 9063
Mol@@ 9052
Louis 9038
88 9024
war@@ 9023
My@@ 9017
Lee 9010
62 9004
H. 9001
Fl@@ 8997
oz@@ 8991
1955 8965
orum 8960
Bre@@ 8959
Lit@@ 8957
1966 8949
enz@@ 8941
Na@@ 8939
til@@ 8931
Mari@@ 8918
Han@@ 8899
Bak@@ 8893
Bang@@ 8891
zy@@ 8891
Ca@@ 8889
ye 8879
67 8878
68 8875
ill 8863
76 8848
86 8848
Song 8835
Lib@@ 8828
sol@@ 8822
Gen@@ 8812
ake 8809
ack 8801
77 8800
oi 8777
iro 8773
uli@@ 8771
Gir@@ 8761
br 8757
Sw@@ 8743
Dav@@ 8732
long 8712
09 8711
stein 8711
S. 8697
att@@ 8696
London 8688
ts@@ 8682
Luc@@ 8666
03 8661
den@@ 8651
Texas 8650
Ke@@ 8646
rec@@ 8638
63 8634
ist 8630
sin@@ 8624
dan 8623
95 8602
1958 8600
Vid@@ 8599
Nov@@ 8582
don 8576
Wat@@ 8568
1947 8559
1936 8556
Juli@@ 8530
inter@@ 8528
bas@@ 8527
Plat@@ 8522
hal@@ 8518
J 8509
esia 8503
mp@@ 8495
400 8493
Maria 8492
Cop@@ 8480
ese 8480
Ter@@ 8466
66 8448
Kun@@ 8443
imb@@ 8442
ấ@@ 8439
179@@ 8437
tig@@ 8421
pop 8419
sus 8409
59 8407
Tom@@ 8404
61 8396
ker@@ 8387
0.@@ 8384
Entertainment 8372
ela 8356
otr@@ 8354
08 8348
ut 8345
chester 8343
alia 8340
Bas@@ 8327
Dor@@ 8313
pin@@ 8297
Hir@@ 8294
× 8279
Mah@@ 8278
71 8273
Som@@ 8268
tur@@ 8256
1961 8255
Michael 8249
1949 8239
1959 8239
č@@ 8218
ure 8216
tung 8199
ian 8196
Thomas 8195
Sem@@ 8194
9.@@ 8192
gan 8185
Austr@@ 8182
yo@@ 8178
hr@@ 8167
ẻ@@ 8166
tin@@ 8158
usa 8158
Argentina 8155
mann 8135
wood 8125
Ohio 8119
atia 8117
ato 8112
Ol@@ 8108
Vo@@ 8104
edi@@ 8100
err@@ 8090
$ 8088
IN@@ 8086
ect@@ 8081
ç@@ 8057
87 8055
82 8047
Billboard 8044
ev 8043
81 8042
Ư@@ 8030
Mont@@ 8022
sych@@ 8011
P. 8007
1957 8003
ty@@ 7993
Hit@@ 7989
ā@@ 7982
Fi@@ 7976
bi 7976
pos@@ 7966
1953 7965
mi 7954
igh@@ 7953
Astr@@ 7948
México 7943
Venez@@ 7939
UEFA 7921
You 7920
Ram@@ 7916
onn@@ 7913
69 7889
sil@@ 7888
bert 7886
Gl@@ 7881
ess 7866
ps 7863
79 7860
84 7860
78 7855
89 7855
ille 7843
chil@@ 7833
ten 7831
xi@@ 7812
our 7803
ý@@ 7800
1938 7796
loc@@ 7796
lam@@ 7792
Bru@@ 7791
bel@@ 7790
reg@@ 7788
E. 7778
ins 7776
Ky@@ 7760
Pas@@ 7753
1948 7741
ade 7734
1937 7716
Sum@@ 7713
73 7710
74 7705
kl@@ 7703
lov@@ 7692
Kon@@ 7679
ito 7679
Ta@@ 7678
ger 7675
ye@@ 7673
83 7664
ates 7664
Nic@@ 7655
Pak@@ 7653
icul@@ 7651
ison 7641
lon@@ 7640
Park 7638
sea 7635
1951 7631
tro 7621
ami@@ 7613
củ@@ 7603
Ha@@ 7586
Au@@ 7585
Music 7581
ster 7579
ab 7575
Sim@@ 7569
anti@@ 7545
ador 7535
Vol@@ 7534
France 7531
idi@@ 7520
South 7518
ici@@ 7518
tica 7518
MS 7517
aer@@ 7514
ech@@ 7509
ES@@ 7495
99 7485
ouv@@ 7483
ine@@ 7480
for 7473
1952 7463
ush@@ 7457
ern 7450
pul@@ 7424
mor@@ 7394
Kan@@ 7388
estr@@ 7387
aine 7384
CA@@ 7383
eria 7383
ngo@@ 7380
ico 7375
ais 7365
ube 7364
uta 7361
ref 7360
1934 7357
1929 7351
alm@@ 7346
Phili@@ 7339
CD 7333
ike 7333
Nag@@ 7321
ger@@ 7320
Sz@@ 7311
wan@@ 7311
1935 7310
phy@@ 7307
Kal@@ 7301
OS 7287
az 7273
Richard 7256
Colomb@@ 7255
die 7251
use 7243
Jan@@ 7229
Internet 7221
isi@@ 7221
tal@@ 7198
del@@ 7197
Wi@@ 7188
rot@@ 7184
Dol@@ 7181
agn@@ 7176
ul 7167
Berlin 7153
ette 7151
ric@@ 7149
ă@@ 7148
Martin 7146
ft 7145
uv@@ 7145
long@@ 7142
ny@@ 7142
The@@ 7139
UN@@ 7139
98 7138
ous 7129
rad@@ 7117
yd@@ 7114
ept@@ 7104
Ku@@ 7098
field 7094
Ô 7092
thr@@ 7091
B. 7090
sal@@ 7081
eur@@ 7071
din@@ 7070
ré@@ 7068
Kaz@@ 7062
š@@ 7062
King 7058
ero 7057
pur@@ 7054
92 7053
Que@@ 7044
Steph@@ 7039
fe@@ 7028
lat@@ 7014
D. 7013
1931 6996
fas@@ 6996
96 6990
mil@@ 6988
Pap@@ 6977
Kor@@ 6975
1914 6962
yst@@ 6962
Christ@@ 6939
1918 6936
Olympi@@ 6925
var@@ 6925
vit@@ 6905
1900 6904
Dre@@ 6898
gin@@ 6896
eci@@ 6881
Spr@@ 6879
Mak@@ 6874
ator 6872
Geor@@ 6870
Ba@@ 6869
ova 6867
len 6859
ür@@ 6852
itz 6845
Fu@@ 6843
Kir@@ 6841
Mik@@ 6840
ace@@ 6840
Hon@@ 6831
Edward 6830
Jac@@ 6830
Bos@@ 6828
Fer@@ 6822
Gh@@ 6819
m. 6813
emb@@ 6812
rock 6808
El 6805
Clar@@ 6804
1912 6802
ern@@ 6801
Los 6782
ego 6777
La@@ 6768
IS@@ 6766
lad@@ 6764
da@@ 6762
jeun@@ 6762
One 6761
dic@@ 6759
cy@@ 6744
Cle@@ 6743
Pic@@ 6740
mas@@ 6737
osh@@ 6736
Alexand@@ 6728
old 6727
Love 6725
Kam@@ 6714
1891 6704
Av@@ 6699
did@@ 6688
esh 6685
ello 6682
CO@@ 6675
eli 6666
K. 6651
93 6648
ć 6637
Pu@@ 6623
Jean 6616
wal@@ 6614
ity 6613
tí@@ 6613
atin 6605
ef@@ 6593
tem@@ 6591
hin@@ 6590
sur 6590
Tim@@ 6587
una 6587
600 6581
Braz@@ 6579
Nik@@ 6577
97 6563
1933 6557
1922 6553
1917 6552
chr@@ 6552
Nob@@ 6536
ish 6536
mal@@ 6532
fi@@ 6528
1913 6519
ij@@ 6507
elec@@ 6504
Ban@@ 6499
Friedrich 6497
Rus@@ 6492
astr@@ 6492
Bus@@ 6473
ado 6467
1932 6459
1924 6457
Andre@@ 6457
Bab@@ 6457
Not@@ 6457
Ul@@ 6454
Joseph 6448
oll@@ 6447
ington 6436
les@@ 6430
Pa@@ 6429
ear@@ 6421
1925 6418
ple@@ 6408
via 6402
Nav@@ 6399
1908 6393
cons@@ 6381
uela 6381
Mot@@ 6371
150 6362
Sin@@ 6361
lem@@ 6360
91 6352
Smith 6343
ond@@ 6343
94 6342
ast 6338
ẳ@@ 6336
Der@@ 6335
Jackson 6322
1919 6319
val@@ 6317
ren@@ 6307
I. 6306
tion 6305
go 6286
1910 6279
1916 6279
ci 6275
Lan@@ 6266
Le 6265
1905 6259
Nguy@@ 6258
1911 6254
Son@@ 6249
Nar@@ 6242
You@@ 6239
hor@@ 6239
ề@@ 6234
ony 6231
tim@@ 6225
ular@@ 6224
St. 6222
anz@@ 6218
aul@@ 6216
ọi 6215
tre 6210
nú@@ 6202
Ra@@ 6201
ars 6195
Nak@@ 6188
way 6186
Top 6181
mb@@ 6179
ori 6179
Micro@@ 6168
cho@@ 6161
Sav@@ 6157
Sou@@ 6156
win 6156
Peter 6154
Ven@@ 6153
F. 6150
arm@@ 6147
Lor@@ 6146
sis 6138
las 6137
Sak@@ 6134
Gor@@ 6133
ings 6132
AP@@ 6122
CH@@ 6117
bul@@ 6114
ber 6104
vel@@ 6104
ör@@ 6101
ther@@ 6099
ck 6092
Ari@@ 6089
Mir@@ 6086
800 6084
Far@@ 6083
Champi@@ 6080
fal@@ 6077
uma 6067
dom@@ 6065
mina 6061
uki 6060
nam@@ 6059
Ok@@ 6057
1927 6055
port 6054
Alb@@ 6051
ret@@ 6043
Il@@ 6042
lin 6039
cia 6036
ik 6031
anistan 6029
ắ@@ 6028
1923 6026
Tel@@ 6024
Wol@@ 6024
Men@@ 6016
Thom@@ 6009
ago 6003
uti@@ 6002
Carol@@ 6001
sta 5995
fus@@ 5994
2022 5991
Oli@@ 5991
R. 5972
ock 5970
leo 5967
DNA 5966
Me 5963
1906 5960
Man 5954
oria 5953
1928 5949
ér@@ 5947
rit@@ 5933
Schl@@ 5927
pic@@ 5915
ằm 5915
Bon@@ 5910
Sur@@ 5902
dec@@ 5899
dy 5886
App@@ 5884
off 5880
Kat@@ 5877
Shi@@ 5876
ony@@ 5869
eck@@ 5867
Australia 5866
ap 5864
Bri@@ 5850
ling 5850
abeth 5842
hip 5836
ho 5835
Bat@@ 5830
cat@@ 5823
ista 5819
osp@@ 5818
urg@@ 5804
ny 5795
sul@@ 5795
not@@ 5785
ther 5779
De 5766
ath 5761
ilia 5760
ı 5760
Super 5757
CO 5750
Tam@@ 5747
Simon 5737
Z 5732
well 5728
Microsoft 5725
eum 5720
oug@@ 5716
Kol@@ 5710
Mary 5710
É@@ 5707
icro@@ 5695
My 5691
BS 5690
Wor@@ 5690
iki 5690
sem@@ 5689
Guinea 5683
end 5683
pro@@ 5680
Angeles 5675
Op@@ 5664
Columb@@ 5661
ff 5644
uf@@ 5633
amer@@ 5630
1926 5629
eth@@ 5624
Net@@ 5621
andi@@ 5619
cit@@ 5609
AR@@ 5608
ń@@ 5608
ın@@ 5604
igan 5603
lig@@ 5600
let@@ 5593
1909 5592
ş@@ 5587
1921 5583
kil@@ 5580
Hot 5578
ost 5569
Lam@@ 5564
endo 5561
vic@@ 5561
.C. 5552
quit@@ 5551
Santa 5547
Les@@ 5546
1895 5537
net 5528
uke 5527
Dis@@ 5526
Kas@@ 5523
ks@@ 5518
pel@@ 5507
esi 5504
Az@@ 5501
ğ@@ 5498
Chile 5491
mar 5489
Francisco 5488
Ứ@@ 5488
1915 5483
pen@@ 5483
Florida 5482
char@@ 5480
asa 5475
Reg@@ 5474
Hab@@ 5463
Division 5443
chin@@ 5435
fin@@ 5435
ban@@ 5434
Bah@@ 5430
tol@@ 5429
Ay@@ 5426
ỉ@@ 5417
Dem@@ 5414
ele 5412
iger 5408
Prot@@ 5405
BC 5403
Vil@@ 5400
Virginia 5398
rol@@ 5398
Jer@@ 5391
bol@@ 5389
Football 5374
SE@@ 5373
NA 5371
aca 5369
lı 5365
bil@@ 5364
FA 5361
Mass@@ 5360
Gro@@ 5358
Cur@@ 5357
Pen@@ 5353
Mark 5344
els 5342
zo 5341
Win@@ 5335
pil@@ 5333
Pres@@ 5332
yan 5330
anda 5325
vis@@ 5322
ä@@ 5321
asc@@ 5319
tle 5316
Got@@ 5314
Mid@@ 5312
mad@@ 5311
enc@@ 5309
tric@@ 5309
Eliz@@ 5304
ole 5302
urg 5301
Sho@@ 5298
cá@@ 5295
Roma 5293
Tay@@ 5293
Vir@@ 5288
ebr@@ 5287
Google 5284
ř@@ 5279
Arg@@ 5278
Rad@@ 5278
Lev@@ 5269
agu@@ 5268
neo 5267
Vic@@ 5263
Dev@@ 5250
dor@@ 5245
ü@@ 5245
Fri@@ 5243
Pri@@ 5243
wig 5243
vil@@ 5239
ux 5238
FIFA 5233
Wh@@ 5232
Pin@@ 5229
elli 5225
met@@ 5224
Rich@@ 5222
Sul@@ 5216
une 5202
Disney 5200
ass 5198
Est@@ 5188
She@@ 5178
Pre@@ 5176
Karl 5168
# 5164
Don@@ 5161
Don 5144
ws 5143
eni 5140
1903 5132
eng 5130
COVID 5129
tis@@ 5120
cop@@ 5117
Pat@@ 5116
eu@@ 5104
Hil@@ 5102
aba 5101
North 5099
ati 5096
Buc@@ 5095
Alexander 5090
1904 5087
Mun@@ 5079
Sab@@ 5076
fer 5071
Black 5064
je@@ 5063
fo@@ 5054
ingen 5040
Indi@@ 5039
Ash@@ 5036
lie 5034
aha 5025
Nam@@ 5024
Van 5024
1907 5022
Eng@@ 5013
VI 5005
bon@@ 5004
Victoria 5000
wo 4998
Med@@ 4994
cre@@ 4994
1898 4992
dem@@ 4983
Gol@@ 4969
Jam@@ 4965
Ka@@ 4964
low 4961
ort 4961
1000 4958
ee 4958
nom@@ 4955
Ah@@ 4954
SS 4941
antes 4941
International 4928
arc@@ 4917
guit@@ 4917
ste@@ 4916
Bir@@ 4913
ies 4904
1897 4897
700 4894
gi 4893
bro@@ 4892
Nigeria 4891
It 4889
mir 4889
kin 4888
wor@@ 4887
Tan@@ 4885
lor 4885
W. 4883
ave 4882
1899 4880
Joh@@ 4880
1902 4877
app@@ 4875
ash 4874
Den@@ 4872
Madrid 4867
120 4862
Serie 4861
bit 4849
Ren@@ 4848
tam@@ 4846
Stu@@ 4842
ton@@ 4838
Ran@@ 4836
Tun@@ 4834
ith 4833
amo@@ 4831
Gil@@ 4827
Maur@@ 4824
Hom@@ 4823
my 4820
ope 4816
uh@@ 4808
Sor@@ 4804
isch@@ 4804
shire 4804
aux 4799
DS 4798
sburg 4789
Dom@@ 4787
ū@@ 4785
umb@@ 4783
uss@@ 4783
kin@@ 4781
alt@@ 4780
Premier 4779
ongo 4776
RA@@ 4775
aly@@ 4773
c. 4772
Air 4769
sé@@ 4769
Lou@@ 4767
1896 4765
Tour 4758
ful@@ 4757
vol@@ 4757
adel@@ 4746
hum@@ 4744
bal@@ 4743
bus 4740
itz@@ 4737
ca@@ 4733
Carl 4726
DC 4725
Ob@@ 4724
Laur@@ 4722
* 4721
sur@@ 4720
onom@@ 4718
we 4716
fur@@ 4713
lip@@ 4712
Roc@@ 4711
ange 4697
bach 4686
istr@@ 4686
ika 4684
Ả@@ 4684
stant@@ 4683
ène 4683
onne 4673
1901 4672
trop@@ 4671
Sto@@ 4668
abil@@ 4662
fa 4659
ogr@@ 4651
Anti@@ 4648
Cir@@ 4648
acc@@ 4646
ep 4643
Gran@@ 4641
Hay@@ 4641
Records 4640
ett 4640
adr@@ 4636
~ 4635
Ş@@ 4633
ū 4633
Rod@@ 4620
Johnson 4619
10.@@ 4611
uk 4606
Inter@@ 4602
ics 4600
adi 4594
Ô@@ 4591
Red 4588
In 4587
ken@@ 4584
May@@ 4579
1,5 4577
chen 4573
eld 4572
po 4569
1894 4563
mes@@ 4563
Bern@@ 4545
with 4539
avi@@ 4536
DVD 4532
Ker@@ 4530
Rol@@ 4529
line 4527
Town 4525
ovi@@ 4525
odi@@ 4523
Brit@@ 4519
Stan@@ 4512
Play@@ 4510
ham@@ 4507
name 4506
own 4503
van@@ 4499
ère 4496
West@@ 4493
Dur@@ 4491
Lud@@ 4491
rel@@ 4483
Italia 4479
AC 4467
Star@@ 4465
Frank 4461
So 4460
iri 4458
Dan@@ 4454
Moh@@ 4454
Ci@@ 4447
esti@@ 4429
ester 4425
occ@@ 4424
Pil@@ 4423
wer@@ 4423
Arthur 4420
250 4418
mont 4414
Rog@@ 4413
ais@@ 4412
ier 4411
any@@ 4404
bin 4403
Mand@@ 4398
50@@ 4397
Jor@@ 4391
Dal@@ 4385
icia 4385
vari@@ 4384
Fac@@ 4380
land@@ 4378
mé@@ 4377
Maz@@ 4374
Sk@@ 4374
Bud@@ 4344
ater 4341
san@@ 4338
Í@@ 4333
bridge 4331
wi@@ 4331
Tw@@ 4320
zi 4320
té 4319
200@@ 4316
1889 4308
Web@@ 4305
hab@@ 4303
Kos@@ 4298
1890 4294
eda 4291
V. 4289
IC@@ 4284
dal@@ 4283
yon 4274
ẽ@@ 4273
Cel@@ 4268
nov@@ 4267
ega 4260
ors 4256
inger 4254
Times 4253
Real 4247
ston 4236
Fe@@ 4234
American 4233
hol@@ 4229
Jack 4225
ams 4224
umi 4218
rap@@ 4213
out 4209
Beg@@ 4202
Star 4202
omb@@ 4202
anes 4196
Yo@@ 4194
kr@@ 4193
Conn@@ 4192
ites 4190
udi@@ 4188
Dig@@ 4187
Tre@@ 4184
Alg@@ 4181
23@@ 4179
iko 4178
polis 4176
PC 4175
ont@@ 4173
Wit@@ 4168
pres@@ 4165
Jones 4161
onald 4154
ett@@ 4153
Sand@@ 4152
Chil@@ 4151
idea 4150
Abr@@ 4142
jo 4141
rey 4141
tw@@ 4133
yn 4133
ect 4129
Fal@@ 4125
Leg@@ 4125
Aug@@ 4114
1885 4109
Albert 4109
bo 4109
igu@@ 4099
• 4095
han 4094
low@@ 4093
Tom 4089
Fern@@ 4086
Sec@@ 4084
mot@@ 4084
Hen@@ 4082
tt@@ 4082
Sau@@ 4080
− 4079
Beau@@ 4078
op 4076
Sci@@ 4073
TC 4073
ble 4069
series 4068
sor@@ 4068
ote 4062
Wilhelm 4058
Var@@ 4054
sey 4054
uni@@ 4053
Vel@@ 4042
Leon@@ 4031
ital 4029
Syn@@ 4028
ew@@ 4027
Club 4024
12,@@ 4023
plat@@ 4021
Franc@@ 4019
cher 4015
Big 4014
10,@@ 4011
1878 4011
NGC 4010
11.@@ 4007
Sant@@ 4005
mad 4004
ui@@ 4002
Res@@ 4001
Williams 3999
pat@@ 3999
AI@@ 3998
ame@@ 3998
ges 3996
Mul@@ 3994
gro@@ 3986
vin@@ 3983
aus 3977
ando 3975
mond 3969
ds 3966
ough 3966
xim@@ 3966
Tal@@ 3963
ady 3959
agr@@ 3957
dur@@ 3957
Ober@@ 3956
ę@@ 3952
ağ@@ 3947
Awards 3945
tera 3943
Vit@@ 3942
Tit@@ 3938
bet@@ 3938
pre@@ 3933
erry 3930
ume 3930
1870 3927
Ander@@ 3920
rup@@ 3919
ji@@ 3916
ome@@ 3916
Sun@@ 3912
Boy@@ 3905
able 3894
ond 3877
Plan@@ 3873
Hug@@ 3872
iki@@ 3871
outh 3869
tiế@@ 3868
ix 3866
Sher@@ 3865
aff@@ 3865
White 3863
ée 3857
Rock 3856
ech 3855
How@@ 3851
Kom@@ 3849
ken 3842
érie 3841
leri 3833
Marie 3830
liv@@ 3830
ident@@ 3829
dol@@ 3825
nor@@ 3825
Young 3821
Lab@@ 3818
mir@@ 3817
Im@@ 3814
fa@@ 3813
mos@@ 3811
Fin@@ 3810
nes 3810
car 3809
lar 3805
eth 3800
Aus@@ 3799
Pau@@ 3798
mol@@ 3796
Time 3791
Mach@@ 3782
ider 3780
ment 3780
Brown 3778
sit@@ 3778
r. 3777
abri@@ 3770
play 3763
bus@@ 3758
Lar@@ 3754
mid@@ 3753
AC@@ 3750
Greg@@ 3747
Stand@@ 3747
AN@@ 3746
dig@@ 3745
kan@@ 3738
Ye@@ 3734
Rap@@ 3732
time 3727
1893 3725
yu 3724
Kenn@@ 3723
Pierre 3720
bat@@ 3715
iti 3712
wo@@ 3709
lit@@ 3708
Blo@@ 3694
Ing@@ 3691
Hum@@ 3690
ente 3686
CD@@ 3683
Scott 3677
ado@@ 3677
Cath@@ 3670
kan 3670
CI@@ 3665
din 3663
Chicago 3661
brach@@ 3661
Dam@@ 3660
agne 3660
1882 3652
eto 3649
dam 3647
ays 3646
aud@@ 3640
Gru@@ 3639
1886 3636
VII 3633
Arch@@ 3632
Kn@@ 3632
Rot@@ 3632
gal@@ 3629
11,@@ 3624
Boston 3623
XX 3622
aro 3620
asp@@ 3620
set 3620
ario 3617
bu 3616
wat@@ 3613
mo 3612
Law@@ 3608
unt 3608
bin@@ 3604
Daniel 3603
Bou@@ 3601
enburg 3601
int 3601
jo@@ 3599
sam@@ 3598
ś@@ 3596
Bot@@ 3595
iller 3594
ting 3591
Kenya 3586
Walter 3585
én@@ 3584
1880 3581
vin 3581
Liber@@ 3577
sum@@ 3577
asti@@ 3570
sw@@ 3569
1875 3566
1888 3565
Dec@@ 3564
gel@@ 3561
lines 3561
All@@ 3560
solo 3560
Show 3558
Bec@@ 3555
All 3553
ls 3553
etes 3549
Spe@@ 3548
eing 3548
eti 3543
mis@@ 3543
tre@@ 3541
1860 3540
Rud@@ 3540
ets 3536
But@@ 3535
Live 3533
als 3532
onal@@ 3532
XIX 3527
isp@@ 3527
yon@@ 3523
National 3520
1871 3518
Bet@@ 3517
lé@@ 3515
Vill@@ 3514
enne 3512
aden 3508
bot 3508
ters 3507
Uganda 3506
uel 3506
EP 3504
esa 3495
Nu@@ 3488
Lis@@ 3485
Ig@@ 3484
eil@@ 3482
Anne 3481
Ju@@ 3478
Arm@@ 3477
Patr@@ 3477
assi@@ 3474
Vor@@ 3472
ations 3469
cam@@ 3469
BBC 3468
Seg@@ 3467
Hill 3463
1879 3460
raine 3460
iga 3459
lu 3457
nit@@ 3453
à@@ 3453
Tol@@ 3449
Sat@@ 3443
annes 3443
ık@@ 3443
log@@ 3442
öl@@ 3442
11@@ 3438
ust 3438
Whit@@ 3436
Barcelona 3435
Chap@@ 3435
ning 3434
Group 3433
Station 3433
Media 3427
ebo@@ 3427
bar 3426
ron@@ 3423
aqu@@ 3421
fre@@ 3417
SA@@ 3414
eron 3414
Cru@@ 3408
bit@@ 3408
dio 3407
lob@@ 3405
eon@@ 3402
Ev@@ 3398
lí@@ 3396
pa@@ 3392
ves 3392
Centr@@ 3384
ical 3384
nik 3384
12.@@ 3380
Lag@@ 3380
unda 3375
40@@ 3374
AS 3373
fic@@ 3371
bos@@ 3370
1887 3366
1883 3365
ket@@ 3365
1892 3359
Viet@@ 3359
him@@ 3357
ult@@ 3357
Ann@@ 3355
Anna 3354
Maj@@ 3354
eva 3351
1869 3349
TA 3345
1873 3343
alar@@ 3341
han@@ 3341
1884 3339
tak@@ 3337
town 3336
180 3332
fu@@ 3330
Nat@@ 3328
Games 3327
trans@@ 3327
ide@@ 3324
Hin@@ 3323
eff@@ 3320
Blue 3316
anta 3316
Kin@@ 3313
etts 3313
Kl@@ 3311
Pon@@ 3311
ean 3311
lav@@ 3310
Pow@@ 3307
elt 3304
ık 3304
Elec@@ 3297
ở@@ 3297
130 3296
row 3294
IM@@ 3293
illo 3293
‘ 3291
Liv@@ 3290
ail 3288
Alli@@ 3283
ø@@ 3277
1866 3275
Muh@@ 3274
gol@@ 3270
ow 3269
ont 3267
from 3257
Max 3255
olog@@ 3250
ois 3248
1864 3247
bes@@ 3247
Dou@@ 3242
Bil@@ 3241
Sach@@ 3240
900 3234
CE@@ 3234
1877 3233
AM@@ 3231
Sof@@ 3231
ás 3231
dis 3230
obr@@ 3229
Christian 3228
ồm 3227
1876 3222
tel 3222
art@@ 3216
esta 3214
olo 3214
esp@@ 3212
ST@@ 3210
ém@@ 3209
110 3208
top@@ 3205
John@@ 3200
1861 3198
won 3197
.com 3192
site 3190
Hot@@ 3181
It@@ 3181
Lig@@ 3181
US 3172
bury 3169
ns 3168
1867 3165
see 3165
erg@@ 3161
flu@@ 3159
our@@ 3158
under@@ 3158
Ant@@ 3156
Island 3154
ido 3154
dice 3152
ision 3152
Life 3148
Championship 3144
alis@@ 3144
1868 3141
Bay 3140
ardo 3136
unk@@ 3136
1881 3135
ès 3135
eca 3133
hat@@ 3133
hom@@ 3130
gan@@ 3129
1874 3128
bir@@ 3127
Cin@@ 3125
Juan 3125
1863 3124
verg@@ 3121
Gö@@ 3115
MA 3114
ě@@ 3110
Tanzania 3105
heim 3104
olas 3104
off@@ 3102
ram@@ 3102
ason 3100
ann 3099
mes 3099
chn@@ 3095
Bau@@ 3094
ald 3093
eleg@@ 3092
Jus@@ 3090
Red@@ 3089
inal 3087
sec@@ 3079
mand@@ 3076
Lang@@ 3073
ento 3073
SA 3072
olf 3062
IX 3059
Hat@@ 3054
atur@@ 3048
work 3045
Rem@@ 3044
101 3043
pap@@ 3043
tour 3037
Blan@@ 3027
bour@@ 3026
1850 3023
Rec@@ 3023
Ken@@ 3021
agen 3019
NE@@ 3017
ju@@ 3017
rem@@ 3013
Loc@@ 3011
ark@@ 3011
neu@@ 3010
ü 3010
Sus@@ 3008
umin@@ 3008
enes 3007
Da 3002
eno 3002
aco 3000
Cab@@ 2998
sar@@ 2997
sin 2995
evi@@ 2994
José 2986
Ali@@ 2985
Vis@@ 2985
Green 2984
Royal 2983
gio 2982
otte 2976
sho@@ 2974
anah@@ 2973
esh@@ 2969
king 2969
ishi 2965
1862 2964
enta 2962
80@@ 2960
PS 2960
ket 2959
bec@@ 2958
Mill@@ 2956
tiv@@ 2955
dev@@ 2954
has@@ 2951
1865 2950
jam@@ 2950
Super@@ 2948
urn@@ 2947
köy 2946
cy 2941
SC 2940
kal@@ 2939
ą@@ 2929
ault 2927
mit@@ 2926
Š@@ 2925
ku 2924
ander@@ 2921
Cast@@ 2920
Hav@@ 2919
mul@@ 2919
rac@@ 2919
Kad@@ 2918
Kab@@ 2916
Kus@@ 2916
sch 2916
East 2914
ion@@ 2913
hel@@ 2912
Sah@@ 2911
iss 2909
oti@@ 2906
ili 2903
Wes@@ 2899
Ind@@ 2897
Ori@@ 2895
dorf 2893
1848 2892
Ali 2892
uerto 2888
lah 2887
sig@@ 2883
Su 2881
cos@@ 2879
idge 2869
Day 2868
emp@@ 2867
ges@@ 2864
medi@@ 2864
enin 2863
aja 2861
mus 2859
res 2857
ift 2856
CA 2855
ons@@ 2850
box 2845
Lake 2842
Uni@@ 2839
wer 2839
ờ@@ 2838
Prim@@ 2837
Has@@ 2835
teri@@ 2830
Liga 2829
show 2826
edy 2824
aun@@ 2822
mod@@ 2821
urt 2820
lock 2818
Azer@@ 2816
over 2813
aza 2810
burg@@ 2810
oy 2810
eau 2805
was 2805
Company 2801
alan@@ 2800
leg@@ 2795
cli@@ 2794
nea 2792
Brand@@ 2790
kor@@ 2786
proc@@ 2786
Ny@@ 2785
1830 2782
Domin@@ 2781
Bow@@ 2780
viol@@ 2779
mus@@ 2777
ya@@ 2777
RO@@ 2774
och 2772
ces@@ 2771
Yor@@ 2770
imp@@ 2769
Clau@@ 2768
amin@@ 2766
roi 2763
Studi@@ 2760
WWE 2757
kon@@ 2757
oka 2754
cula 2752
ated 2748
College 2747
prop@@ 2745
Tem@@ 2744
Kim@@ 2743
Aut@@ 2739
idi 2737
CC@@ 2736
Ear@@ 2733
Vik@@ 2733
ras@@ 2733
ld 2732
oo 2730
160 2729
Corpor@@ 2727
dan@@ 2726
Hall 2723
Joe 2723
chen@@ 2721
Bank 2719
Ern@@ 2719
Flor@@ 2718
enberg 2716
140 2715
FI@@ 2715
mis 2713
na@@ 2713
yle 2710
uno 2709
its 2708
· 2704
eck 2703
ret 2701
Medi@@ 2700
uka 2700
isi 2699
Land@@ 2697
King@@ 2696
America 2693
ats@@ 2693
usi@@ 2693
sep@@ 2691
emen 2690
AD@@ 2687
mari@@ 2685
35@@ 2680
Seine 2680
SP@@ 2675
ž@@ 2675
multi@@ 2669
plic@@ 2667
Din@@ 2666
day 2665
enf@@ 2663
sun@@ 2659
1872 2658
ș@@ 2657
bis@@ 2656
amar@@ 2655
pot@@ 2654
side 2653
wh@@ 2650
Alt@@ 2648
Off@@ 2648
Carlos 2647
Kis@@ 2645
Wer@@ 2643
antas@@ 2643
nung 2643
sian 2642
Henri 2638
ms 2637
equ@@ 2636
Alfre@@ 2632
Gold@@ 2631
Barr@@ 2628
comp@@ 2627
Pad@@ 2625
Bes@@ 2623
Id@@ 2620
zon@@ 2620
Jersey 2619
neg@@ 2619
eros 2618
Gel@@ 2615
wil@@ 2615
right 2614
ứu 2613
dri@@ 2612
pi 2606
Schwar@@ 2604
ily 2603
zam@@ 2602
Bad@@ 2599
arch@@ 2598
phot@@ 2595
Fir@@ 2589
Street 2589
大@@ 2588
ades 2587
edo 2584
Juni@@ 2583
attle 2580
Sig@@ 2577
British 2569
Fel@@ 2567
ander 2565
zona 2565
ń 2565
eller 2564
ode 2563
imi@@ 2562
Uz@@ 2561
pon 2559
centr@@ 2557
tain 2557
cir@@ 2556
dar@@ 2548
Kil@@ 2545
igo 2545
radio 2545
ury 2544
ag 2540
Fil@@ 2539
cio 2539
ñ@@ 2537
Team 2532
王 2530
Kö@@ 2529
kel@@ 2529
los 2528
simil@@ 2526
dre@@ 2525
vu 2525
Mec@@ 2522
Tenn@@ 2522
Best 2521
atri@@ 2520
anne 2518
bs 2518
ig 2518
fil@@ 2517
350 2516
try 2516
ogen 2515
St 2514
ever 2513
og 2512
Mem@@ 2511
ask@@ 2510
Pedro 2508
bau@@ 2508
ids 2507
Open 2506
oli 2506
sei 2506
ual 2506
som@@ 2502
County 2501
iden 2498
vo 2498
Schw@@ 2495
lim@@ 2494
oro 2491
Antonio 2490
je 2490
dul@@ 2487
Grande 2482
ulu 2481
atis@@ 2480
ete 2480
single 2475
School 2473
cip@@ 2473
ben@@ 2472
án@@ 2464
120@@ 2463
qui@@ 2462
yer@@ 2462
Gra@@ 2459
ck@@ 2459
Paulo 2457
ding 2456
AB@@ 2452
Mün@@ 2450
ưở@@ 2447
Seb@@ 2445
sta@@ 2442
Ố@@ 2440
asi 2438
Ō@@ 2438
key 2437
Great 2436
ones 2435
Squ@@ 2432
tra@@ 2432
any 2429
dh@@ 2428
Hand@@ 2426
omo 2422
aut@@ 2420
vers 2418
tron@@ 2415
ehr@@ 2413
Si 2404
dam@@ 2402
elles 2398
ball@@ 2396
plan@@ 2396
etz@@ 2391
sion 2389
ental 2385
ég@@ 2383
Alex@@ 2380
bri@@ 2380
AM 2379
XVI 2379
kat@@ 2379
Centre 2377
serv@@ 2377
ş 2372
ierra 2369
Ji@@ 2366
berto 2366
ores 2366
org@@ 2366
pos 2366
aug@@ 2363
ante 2361
Ł@@ 2361
Sult@@ 2360
ince 2360
rain 2360
cal 2359
hut@@ 2347
rez 2346
Bed@@ 2345
Feder@@ 2345
not 2344
bara 2340
ğ 2336
House 2333
anl@@ 2332
kir@@ 2332
esch@@ 2331
fon@@ 2331
pun@@ 2330
ord 2329
air 2325
ë@@ 2325
camp@@ 2324
Ben 2322
fri@@ 2318
inf@@ 2313
Union 2312
Les 2311
ias 2309
ology 2309
Coun@@ 2306
ait 2306
rier 2306
wa@@ 2306
ennes 2304
Trans@@ 2301
mur@@ 2301
ogo 2299
azz 2296
ner@@ 2295
Pop@@ 2294
egr@@ 2294
annel 2293
usal@@ 2293
General 2291
more 2291
uni 2291
court 2287
alg@@ 2286
Way@@ 2284
Atlan@@ 2282
Ẩ@@ 2278
ous@@ 2277
syn@@ 2275
On 2272
bak@@ 2270
enh@@ 2268
ún 2265
abe 2261
hii 2259
ext 2257
Chin@@ 2254
Tow@@ 2254
yak@@ 2254
ej@@ 2252
peri@@ 2252
Ein@@ 2248
ister@@ 2247
bot@@ 2246
chan@@ 2246
ud 2245
light 2243
min 2242
Afr@@ 2239
mun@@ 2238
ally 2231
Ś@@ 2230
aro@@ 2229
ön@@ 2225
oko 2224
ob 2223
Center 2219
Buch@@ 2217
hat 2216
lus@@ 2215
MP@@ 2214
ree 2213
Rou@@ 2212
oper@@ 2212
uro 2212
ées 2212
tions 2211
ump@@ 2211
but@@ 2210
eki 2210
mut@@ 2210
Gas@@ 2209
apar@@ 2209
tures 2209
Radio 2208
aire 2208
loy@@ 2208
section 2208
Berg@@ 2206
up 2202
ague 2199
anger 2198
wen@@ 2198
formes 2197
gu 2196
mati@@ 2196
grap@@ 2194
Jos@@ 2188
feld 2187
Sir 2186
eter 2185
Esp@@ 2184
Lon@@ 2184
aş@@ 2178
elop@@ 2174
urs 2171
ór@@ 2169
bek@@ 2167
eder@@ 2165
kt 2164
crip@@ 2163
augh@@ 2161
cell@@ 2160
Europa 2159
ppe 2159
Cul@@ 2157
ement 2157
amo 2152
eme 2152
Asia 2141
aft 2139
Augus@@ 2137
amba 2135
vid@@ 2135
Willi@@ 2132
color 2132
Kay@@ 2131
bes 2131
33@@ 2129
af 2129
Nord@@ 2125
Div@@ 2122
ER@@ 2118
z. 2117
onto 2116
nuc@@ 2114
ize 2113
ères 2113
ple 2111
dé@@ 2110
Shu@@ 2108
els@@ 2107
River 2106
UK 2105
ert 2105
No 2100
media 2099
Kle@@ 2098
fran@@ 2097
University 2096
gar 2096
yer 2094
üt@@ 2089
Ferr@@ 2088
nati@@ 2087
AP 2086
pia 2085
kur@@ 2083
ango 2082
aut 2081
cost@@ 2081
Bun@@ 2074
ados 2073
Tod@@ 2072
pas@@ 2070
etti 2069
include 2068
liga 2067
ces 2065
sing@@ 2059
Tab@@ 2057
ana@@ 2056
ei@@ 2055
indi@@ 2055
vel 2055
Mé@@ 2054
皇@@ 2053
rest@@ 2052
other 2051
bac@@ 2050
fe 2049
Bill@@ 2047
Oper@@ 2047
Č@@ 2047
Ö@@ 2045
quar@@ 2044
SS@@ 2043
eu 2041
vers@@ 2039
pis@@ 2038
uru 2035
his@@ 2028
aa 2023
then 2022
Bundes@@ 2021
win@@ 2016
thern 2015
Nieder@@ 2013
gre@@ 2011
0,000 2010
elo 2010
ports 2009
view 2008
High 2007
aster@@ 2004
Frank@@ 2003
Franz 2002
stan@@ 2002
ár@@ 1999
dist@@ 1998
stre@@ 1997
tern 1996
First 1995
aç@@ 1995
encia 1995
Cant@@ 1991
ıl@@ 1990
ism 1988
test@@ 1988
ız@@ 1987
Wa@@ 1985
spi@@ 1983
sam 1980
alli@@ 1978
ister 1977
species 1973
lev@@ 1970
Rein@@ 1969
agua 1967
Am 1964
sev@@ 1964
tari@@ 1963
{ 1962
eza 1958
fle@@ 1958
Tou@@ 1957
cro@@ 1957
lands 1957
this 1957
Î@@ 1955
dez 1954
1800 1948
mont@@ 1946
alc@@ 1945
dav@@ 1941
apa 1938
Sain@@ 1937
RE@@ 1936
Um@@ 1934
allas 1934
Japan 1931
Il 1929
gang 1928
ture 1925
cep@@ 1921
Anton@@ 1918
Ni 1918
uer@@ 1913
ents 1910
japon@@ 1909
This 1908
ır@@ 1906
α 1906
hiz@@ 1903
VI@@ 1902
opp@@ 1902
tag@@ 1902
auc@@ 1899
ople 1899
Hamb@@ 1898
ako 1898
María 1895
doc@@ 1895
mak@@ 1895
orient@@ 1895
Jose@@ 1893
ż@@ 1892
blo@@ 1889
3000 1888
amen 1887
pon@@ 1884
BA 1881
ael 1881
onz@@ 1878
Gener@@ 1877
zu 1877
ely 1873
htt@@ 1873
Ped@@ 1871
tab@@ 1871
esper@@ 1870
unter 1870
Heinrich 1869
tir@@ 1867
agon@@ 1863
rea 1863
Johann 1862
XX@@ 1860
kam@@ 1859
poli@@ 1859
Kap@@ 1857
May 1857
vil 1855
İ@@ 1854
王@@ 1852
wn@@ 1851
å@@ 1850
esse 1849
hid@@ 1849
let 1846
Pier@@ 1845
ches 1844
enth@@ 1841
lier 1841
ross 1839
Wak@@ 1837
ướm 1836
ager 1830
iz 1830
dom 1829
plas@@ 1829
Rum@@ 1828
Cou@@ 1827
ève 1826
François 1825
ose 1825
Award 1822
Ou@@ 1821
igh 1821
ina@@ 1820
eer 1818
inga 1818
Baz@@ 1817
Land 1816
Las 1815
ways 1815
Comp@@ 1813
squ@@ 1811
Kul@@ 1810
trac@@ 1810
Road 1809
anti 1809
imi 1806
nd@@ 1806
Deb@@ 1802
bec 1801
Jacques 1799
Jes@@ 1799
ï@@ 1798
oca 1797
Gaz@@ 1796
ache 1794
XVIII 1793
gun 1793
ques 1793
prin@@ 1792
ī@@ 1791
cher@@ 1789
ef 1788
ights 1788
azi 1786
fes@@ 1782
ave@@ 1781
Produc@@ 1780
tern@@ 1780
Stein@@ 1778
Mut@@ 1777
ats 1776
ling@@ 1775
tics 1775
ers@@ 1772
gem@@ 1772
ustr@@ 1768
este 1765
lich@@ 1765
mark 1764
metal 1763
Enter@@ 1762
Blu@@ 1759
Hans 1754
Hak@@ 1753
com 1752
far@@ 1752
net@@ 1751
ien 1747
sac@@ 1743
Doc@@ 1741
ants 1741
arti@@ 1739
zu@@ 1738
Kre@@ 1737
³ 1734
él@@ 1734
furt 1731
ingo 1730
fac@@ 1727
super@@ 1727
gir@@ 1724
Santiago 1721
tad@@ 1721
eş@@ 1719
radi@@ 1717
house 1716
pri@@ 1716
李@@ 1713
aron 1711
tario 1711
Mod@@ 1710
za@@ 1710
ayo 1709
now 1708
wak@@ 1705
isha 1703
Proj@@ 1702
Aires 1700
zen@@ 1699
alan 1697
may@@ 1696
peti@@ 1696
ful 1695
üm@@ 1694
lik@@ 1692
Son 1689
alt 1689
Buenos 1688
Fut@@ 1688
ran 1687
kab@@ 1684
tul@@ 1679
War 1678
beg@@ 1678
benz@@ 1677
soci@@ 1676
azine 1674
Tour@@ 1672
anos 1672
lag@@ 1672
Reich@@ 1671
tes@@ 1671
mas 1668
rie 1668
her 1667
yar@@ 1667
ā 1665
main 1664
「 1664
」 1660
model 1659
ection 1657
hin 1657
ahl@@ 1656
sou@@ 1655
124@@ 1651
Univers@@ 1651
XV@@ 1651
Lord 1649
vier 1647
zen 1647
tico 1646
fel@@ 1645
Sub@@ 1644
das 1640
hard 1639
med 1639
ser 1639
} 1638
tit@@ 1637
ted 1633
High@@ 1632
idad 1628
ben 1627
ique 1627
lers 1627
Rev@@ 1626
China 1624
BM@@ 1623
kom@@ 1618
zar@@ 1618
Sek@@ 1617
dies@@ 1617
itt 1615
that 1615
eb 1614
Luis 1613
press 1613
polit@@ 1612
Association 1611
ç 1609
dil@@ 1607
leb@@ 1607
mix@@ 1607
cht 1606
ign 1606
1500 1601
aver@@ 1601
ın 1601
ayan 1599
Roy@@ 1598
yat@@ 1597
ahr@@ 1596
wi 1596
concer@@ 1588
his 1588
Manuel 1587
out@@ 1587
wn 1586
put@@ 1582
ilio 1580
area 1578
Eg@@ 1576
fort 1576
iler 1575
tot@@ 1572
jan@@ 1570
rod@@ 1570
Cum@@ 1569
fic 1569
eles 1566
Techn@@ 1565
Festival 1564
track 1564
Soci@@ 1563
zur@@ 1563
uli 1559
ır 1558
Fol@@ 1556
ering 1553
act 1548
cum@@ 1546
ŏ@@ 1546
dos 1545
Kamp@@ 1540
acy 1540
hil 1540
Neu@@ 1539
plus 1537
Kais@@ 1536
Stre@@ 1535
ating 1532
cut 1532
aye 1531
Yah@@ 1530
base 1530
lem 1527
.S. 1526
bourg 1525
into 1525
fen@@ 1524
ship 1523
gs 1522
lec@@ 1522
ener 1521
lab@@ 1521
Kır@@ 1520
conf@@ 1520
ono 1519
System 1513
frag@@ 1512
edr@@ 1510
alo 1508
æ@@ 1508
hon@@ 1505
ape 1499
ác@@ 1499
Wag@@ 1498
nes@@ 1497
tier 1496
ough@@ 1493
very 1493
rati@@ 1491
aud 1490
eler 1490
onu 1489
aban 1487
Hein@@ 1486
illes 1486
ble@@ 1485
ills 1484
speci@@ 1484
forme 1482
vor@@ 1482
bas 1480
oks 1480
ells 1479
German 1478
Ital@@ 1476
State 1476
zur 1476
‎ 1476
ems 1473
ris@@ 1470
cru@@ 1469
cri@@ 1466
tif@@ 1466
Leb@@ 1465
ior 1465
inda 1464
rio 1463
hav@@ 1460
back 1456
ward 1454
Zi@@ 1452
lara 1450
zon 1450
sign@@ 1445
š 1444
ought 1440
ative 1437
nas@@ 1436
que@@ 1436
后 1436
atu 1435
cens@@ 1435
To 1434
ator@@ 1433
cle@@ 1433
kale 1432
lobal 1431
audi@@ 1430
duc@@ 1430
hur@@ 1430
太@@ 1429
Ü@@ 1428
uel@@ 1426
ums 1426
ses 1425
tran@@ 1425
天@@ 1425
Art 1423
ares 1423
ards 1422
August 1420
eran 1420
ehr 1419
fun@@ 1418
kel 1418
Tek@@ 1416
Ré@@ 1415
haus@@ 1413
± 1413
ë 1413
zh 1411
Et@@ 1409
uz 1409
sos@@ 1408
Arab@@ 1405
He 1405
Kem@@ 1405
elen 1405
tal 1405
Ž@@ 1405
isch 1403
unga 1403
Yar@@ 1402
unge 1402
vent@@ 1402
def@@ 1401
down 1400
riv@@ 1400
gil@@ 1398
nom 1398
avi 1396
är@@ 1395
adu@@ 1393
riff@@ 1393
Roman 1389
cab@@ 1388
ayn@@ 1387
var 1386
Ges@@ 1385
ley@@ 1385
şehir 1385
né 1384
red 1383
Women 1382
nier 1382
craft 1381
Central 1380
star@@ 1376
oj@@ 1372
bun@@ 1370
alla 1369
wel@@ 1368
dir@@ 1367
inst@@ 1367
文@@ 1367
sat@@ 1366
igi@@ 1365
ties 1365
vice 1365
rom 1364
fem@@ 1363
stadt 1363
aum 1362
Meh@@ 1360
oman 1359
→ 1359
Gem@@ 1358
prim@@ 1355
Ă@@ 1354
iter 1350
kul@@ 1350
cus@@ 1349
Migu@@ 1348
spr@@ 1348
Kut@@ 1347
Math@@ 1347
vern@@ 1347
ingu@@ 1346
ww@@ 1346
201@@ 1344
Olymp@@ 1344
wid@@ 1343
vec@@ 1342
inos 1341
trat 1340
nav@@ 1336
üz@@ 1336
Was@@ 1335
part@@ 1335
Say@@ 1334
kun@@ 1332
aş 1331
cos 1328
namo 1328
tei 1326
rev@@ 1324
kim@@ 1322
w.@@ 1322
lis@@ 1321
olan 1320
gul@@ 1319
ness 1319
has 1315
wards 1315
dou@@ 1314
nin 1313
Riv@@ 1311
qui 1311
ular 1311
ège 1311
lake 1309
sik@@ 1309
Nord 1308
hap@@ 1308
« 1308
aup@@ 1307
ods 1307
less 1306
rech@@ 1306
ders 1302
ıy@@ 1302
kw@@ 1300
live 1300
baş@@ 1299
Anc@@ 1297
England 1294
azar@@ 1290
USA 1288
etti@@ 1287
zig 1287
others 1286
£ 1286
rid 1285
Engl@@ 1284
Mann@@ 1284
parti@@ 1284
Film 1282
ña 1282
form 1281
mec@@ 1281
ural 1281
eds 1277
tas@@ 1277
Direc@@ 1276
war 1276
Jack@@ 1275
ingia 1271
major 1271
Num@@ 1269
dition 1269
Society 1267
imo 1267
lot 1267
iken 1265
ț@@ 1265
Journ@@ 1264
ences 1263
stanbul 1263
prise 1262
sel 1262
és 1262
ains 1259
Prin@@ 1255
sab@@ 1255
Copa 1254
Haz@@ 1254
,000 1252
pend@@ 1252
stell@@ 1252
viv@@ 1251
Ż@@ 1251
ited 1250
med@@ 1249
vat@@ 1249
Dani@@ 1247
atom@@ 1247
eg 1247
Amer@@ 1245
β 1245
board 1243
ilo 1243
americ@@ 1242
ature 1242
sche 1242
zer@@ 1241
AG 1238
cont@@ 1238
emati@@ 1237
ends 1237
versi@@ 1237
Gün@@ 1236
Commun@@ 1233
ük@@ 1233
公 1233
ution 1230
Ð@@ 1230
ạ@@ 1230
hara 1228
» 1228
ying 1223
éc@@ 1223
dar 1222
sak@@ 1222
trad@@ 1220
bis 1219
nen 1217
Arts 1215
aves 1214
tory 1213
Rel@@ 1212
Spi@@ 1210
eine 1210
endi@@ 1210
tec@@ 1210
onde 1206
rus@@ 1204
Syst@@ 1203
reich 1203
Carr@@ 1201
alls 1201
ige 1201
auer 1200
enda 1200
kum@@ 1199
mit 1199
ause 1198
wr@@ 1198
diff@@ 1197
ground 1197
Prix 1195
kö@@ 1195
yaz@@ 1195
eka 1194
under 1193
anya 1192
ư@@ 1192
子 1192
Orig@@ 1191
Tang@@ 1189
­ 1189
č 1189
ilg@@ 1188
Rech@@ 1187
ograp@@ 1187
Yer@@ 1186
public 1186
县 1186
studio 1184
ingi 1179
ots 1172
Western 1169
onal 1168
tun@@ 1166
\ 1165
Empire 1164
if 1164
kol@@ 1164
minut@@ 1164
water 1164
év@@ 1164
DV@@ 1163
iness 1163
ể@@ 1163
ment@@ 1162
Form@@ 1161
rif@@ 1161
ism@@ 1160
cu 1159
tn@@ 1156
kas@@ 1154
kus@@ 1154
deg@@ 1152
vet@@ 1152
eshi 1151
Wah@@ 1149
uda 1149
ás@@ 1149
inn 1148
aji 1146
cad@@ 1146
estra 1146
alifor@@ 1144
cast 1144
contr@@ 1144
kara 1144
mek@@ 1144
bei 1142
met 1141
ols 1140
lang@@ 1139
， 1139
depend@@ 1136
esses 1136
orio 1135
par 1135
ahl 1134
capit@@ 1134
yal@@ 1134
tos 1133
verse 1132
hen 1130
tiva 1130
mach@@ 1128
公@@ 1124
Academy 1122
Eisen@@ 1121
schi@@ 1121
uj@@ 1121
but 1120
Schul@@ 1118
toria 1118
beri 1117
sus@@ 1117
Christi@@ 1113
modi@@ 1108
Arti@@ 1106
By 1106
muda 1102
ebe 1099
Rah@@ 1098
unds 1098
cole 1097
Sup@@ 1096
erre 1093
aç 1091
emi 1091
Die 1090
Mek@@ 1090
éri@@ 1090
spir@@ 1087
vie@@ 1087
ort@@ 1086
Def@@ 1081
abl@@ 1080
born 1079
Haus@@ 1078
ener@@ 1077
hie 1076
Nig@@ 1075
lit 1075
Fried@@ 1074
dad 1073
ío 1072
Party 1071
jug@@ 1071
ndi@@ 1071
tex@@ 1069
ň@@ 1066
stat@@ 1065
zel@@ 1065
For 1063
ime@@ 1063
tar 1060
enter 1059
As 1058
sons 1058
Jul@@ 1057
安@@ 1057
dit 1056
dle 1056
ī 1056
Inn@@ 1054
ayr@@ 1054
Wan@@ 1053
elt@@ 1052
ischer 1052
sie 1052
́ 1052
coll@@ 1051
lies 1050
liz@@ 1049
inin 1046
plac@@ 1046
ün@@ 1046
Force 1045
öz@@ 1043
Von 1041
Hoch@@ 1038
Zu@@ 1037
edi 1036
fi 1036
gri@@ 1034
Gü@@ 1033
sal 1033
eur 1032
pes@@ 1031
ulia 1031
Fam@@ 1029
rat 1029
tive 1029
spec@@ 1028
found@@ 1027
away 1024
angel@@ 1023
Ankara 1020
had 1019
ño 1019
の@@ 1019
vie 1018
aise 1017
comm@@ 1017
hem 1017
domin@@ 1016
fan@@ 1016
tur 1015
öster@@ 1015
Radi@@ 1013
ires 1013
Luf@@ 1012
hak@@ 1012
aber 1011
get@@ 1011
ē@@ 1011
ő@@ 1010
face 1009
mich@@ 1009
€ 1009
earch 1008
coun@@ 1006
oso 1005
國@@ 1005
Acc@@ 1002
prom@@ 1001
fica 1000
map@@ 999
ış@@ 999
lau@@ 997
angi 996
lim 993
fall@@ 991
isl@@ 990
′ 990
world 989
yas@@ 989
Ost@@ 987
NBA 986
book 986
head 986
ref@@ 986
sol 986
bah@@ 984
alı 983
üş@@ 983
三@@ 983
indic@@ 982
acu@@ 981
ensa 980
kn@@ 980
Famil@@ 978
sein 977
suff@@ 977
Burundi 976
zog 976
hio 975
union 975
ük 975
lik 974
ute 974
text 973
even 972
zer 972
ages 970
English 968
ball 964
mine 964
âteau 964
hay@@ 963
eas@@ 961
hist@@ 961
氏 961
İz@@ 960
WW@@ 959
ağı 959
tou@@ 959
dra@@ 956
Publi@@ 955
abor@@ 955
ext@@ 955
tion@@ 955
eux 954
format 954
ả@@ 952
ー@@ 951
中@@ 951
baz@@ 950
fu 949
istes 948
sav@@ 948
Deutsch@@ 947
区 947
play@@ 946
Kid@@ 945
bay@@ 944
onder@@ 944
yen@@ 943
Institute 940
Stadi@@ 940
andes 940
chem@@ 939
apo 936
sci@@ 936
tice 936
山@@ 934
Bü@@ 932
enst@@ 932
jap@@ 931
lung 931
Band 930
uld 930
European 929
vas@@ 928
hir 926
妃 926
auf@@ 925
aten 924
drei 924
ande 923
帝 922
ures 921
stor@@ 920
hac@@ 919
umo 918
Schi@@ 917
azu 917
南@@ 917
子@@ 917
ality 916
Dr. 915
port@@ 915
was@@ 915
iller@@ 913
agement 912
ğr@@ 911
luk 910
cla@@ 909
seg@@ 909
termin@@ 908
人 908
武@@ 908
Sur 907
engo 906
new 906
aide 905
eyi 904
ál@@ 903
blan@@ 901
ede 901
ses@@ 901
ames 900
law 900
mem@@ 899
tima 899
Gür@@ 898
pedi@@ 898
ands 897
fo 897
ș 897
vor 896
ican 895
Nach@@ 893
ː 893
ische 892
mah@@ 892
º@@ 891
Ê@@ 891
quel@@ 888
iter@@ 887
ılar 885
ˈ@@ 885
bio 883
invol@@ 883
also 882
District 881
asse 881
tical 879
rich 878
州 878
市 877
ici 874
over@@ 874
patr@@ 874
have 873
rí@@ 873
conn@@ 872
cle 871
ł 871
tain@@ 870
rou@@ 869
tas 869
元@@ 869
anza 868
kle@@ 868
DR 867
孝@@ 867
States 866
Arth@@ 865
bey@@ 865
chap@@ 865
Chem@@ 864
dah@@ 864
König@@ 863
wing 863
ainer 862
ilen 862
lic@@ 862
Nis@@ 859
cant@@ 859
einer 859
Emp@@ 858
kay@@ 858
rol 858
date 857
ning@@ 857
anni@@ 856
band 856
left 856
Herr@@ 854
Bez@@ 853
Rep@@ 853
There 853
alth 853
明@@ 853
fron@@ 852
nec@@ 852
tura 849
ference 847
GC 844
ories 844
red@@ 844
ety 843
geh@@ 843
ident 843
bab@@ 842
dur 842
bol 841
geri 841
endi 840
music 840
rique 840
afa 838
Kri@@ 837
adol@@ 837
uo 837
ustri@@ 837
style 836
öh@@ 836
bou@@ 835
building 834
action 833
Nati@@ 831
leich@@ 831
arı 830
½ 830
ə@@ 830
eras 829
pio 829
tie 829
ule 826
real 825
jer@@ 824
Bras@@ 823
endel@@ 823
Ent@@ 822
cas 822
adan 821
jur@@ 821
yeri 821
ß@@ 821
mara 820
ö 820
erk@@ 816
municip@@ 816
ỷ@@ 816
Africa 815
ils 815
sten 815
isto 814
ça 813
Natur@@ 811
之@@ 811
With 810
-- 809
alen 809
Kant@@ 808
kea 808
añ@@ 806
erst@@ 806
ife 806
sey@@ 806
劉@@ 805
高@@ 805
ehir 803
lie@@ 803
iwa 802
金@@ 802
Progr@@ 800
colspan 800
kit@@ 800
gener@@ 799
por 798
lima 796
After 795
type 794
cer 793
reduc@@ 793
back@@ 792
dem 791
lay@@ 791
Ế@@ 791
德@@ 790
Indian 789
conom@@ 789
conc@@ 788
sm@@ 788
sti 788
és@@ 788
group 787
kop@@ 787
Sport@@ 786
aki@@ 786
uş@@ 786
་ 786
Name 784
alim@@ 782
maj@@ 782
two 782
主 782
nak@@ 780
enci@@ 779
kap@@ 777
its@@ 776
Jap@@ 775
det@@ 775
rent 774
life 773
epis@@ 772
pen 772
four 771
self 771
éli@@ 771
Süd@@ 770
team 770
ǎ@@ 770
ź 769
get 767
iç@@ 766
Milli@@ 765
acha 765
bran@@ 764
debut 764
run 764
sive 764
mim@@ 763
Nacional 762
acht 761
alter@@ 761
chev@@ 761
ste 761
inas 760
alog@@ 759
para 759
Å@@ 759
ambo 758
cent@@ 758
Beh@@ 757
essen 757
commune 756
amii 754
dens@@ 754
lug@@ 752
oci@@ 751
Sü@@ 750
asser 750
ird 750
test 750
eas 749
Premi@@ 748
amu 748
haz@@ 747
् 747
iye 746
umani 745
iles 744
yap@@ 744
ender 743
num@@ 743
works 743
ð@@ 743
kad@@ 740
isse 738
Revol@@ 736
trol 735
mal 734
which 733
ă 733
deb@@ 732
lich 732
oğlu 732
India 730
ß 730
üh@@ 730
come 729
When 728
sous 726
hand@@ 725
open@@ 725
Klo@@ 723
shu@@ 721
vill@@ 721
compos@@ 720
Mart 719
schw@@ 718
Pf@@ 717
Zw@@ 716
clo@@ 716
nos 716
umba 716
Biz@@ 715
active 715
ité 715
一@@ 715
orial 714
山 714
agre@@ 713
div@@ 713
law@@ 712
scor@@ 711
Baş@@ 710
times 710
Öz@@ 710
cou@@ 709
compl@@ 708
anci@@ 707
ency 707
Spiel@@ 705
apos@@ 705
ỡ@@ 704
平@@ 704
contribut@@ 703
first 702
stand@@ 702
ween 702
mom@@ 701
阮@@ 701
aşa 700
iku@@ 700
Dé@@ 699
data 699
film 699
History 698
Eis@@ 697
ece 697
mez 697
fir@@ 696
irk 695
Osman@@ 693
üc@@ 693
bers 692
leh@@ 692
west 691
0s 690
anan 690
bom@@ 690
œ@@ 690
dren 687
inger@@ 687
tek 687
trag@@ 687
İn@@ 685
ň 685
tique 684
trol@@ 684
arak 683
struc@@ 681
Chic@@ 680
西@@ 679
iş@@ 678
point 677
gel 676
î@@ 674
aliz@@ 673
ät@@ 673
陳@@ 673
French 672
pendi@@ 672
produc@@ 672
sad@@ 672
jun@@ 669
mani@@ 669
prob@@ 669
tour@@ 669
uko 669
199@@ 668
mann@@ 668
uss 668
張@@ 667
Franç@@ 666
body 665
dern 664
allen 663
ney@@ 663
Amér@@ 662
deci@@ 662
umia 662
^ 661
teur 661
dest@@ 660
lib@@ 660
race 659
tras@@ 659
侯 659
aller 658
Ê 658
unia 657
bern@@ 655
gli@@ 655
utz@@ 655
fast 654
pas 654
fen 653
were 653
idas 652
和@@ 652
anim@@ 651
mam@@ 651
ede@@ 650
Ó@@ 650
oir 649
alle 647
tay@@ 647
ø 647
tag 646
Canadi@@ 645
äl@@ 645
Wilhel@@ 644
ip 643
abu 642
new@@ 642
ä 641
kır@@ 639
like 639
enas 638
μ@@ 638
Mex@@ 636
hib@@ 636
℃ 636
sir@@ 635
。 635
Church 633
Sin 633
hiv@@ 633
qué 633
wes@@ 633
ン@@ 633
jas 632
enga 631
ambi@@ 630
mittee 630
onen 630
Ỷ 630
usi 629
U.S. 628
dings 628
omin@@ 628
refer@@ 628
Person@@ 627
engine 627
uza 627
Educ@@ 626
suc@@ 626
gun@@ 625
inv@@ 624
Hindi 623
boy@@ 623
embr@@ 623
inci 623
sing 622
Tex@@ 621
bere@@ 621
ů@@ 621
band@@ 620
cour@@ 619
igen 618
trat@@ 618
Europe 617
wana 617
Guin@@ 616
alle@@ 616
cine 615
än@@ 615
Yes@@ 614
bir 614
kes@@ 614
aume 613
extr@@ 612
mess@@ 612
From 611
zin@@ 610
gö@@ 609
ologi@@ 609
pad@@ 609
align 608
ibu 608
alternati@@ 607
ving 607
海@@ 607
They 606
been 606
sion@@ 606
Organ@@ 605
Se 605
thé@@ 605
Argent@@ 601
üç@@ 601
י@@ 601
erra 600
lil@@ 599
erc@@ 598
atre 597
・ 597
Kik@@ 596
maf@@ 596
ansa 594
conv@@ 594
loi 594
üs@@ 594
esha 592
ís 592
福@@ 592
isco 591
仁@@ 591
Oy@@ 589
Rus 589
She 589
ography 589
main@@ 588
isis 587
ords 587
izi@@ 586
retr@@ 586
sup@@ 586
Ağ@@ 585
erie 584
put 584
ĩ@@ 584
Stra@@ 583
grav@@ 583
Australian 582
inden 582
《 582
mission 581
round 581
》 581
@ 580
a. 578
hips 578
ː@@ 578
geb@@ 577
doğ@@ 576
đ 576
宗 576
ación 575
erek 575
prof@@ 575
zey@@ 574
イ@@ 574
陵 574
ien@@ 573
東@@ 573
dru@@ 572
kaz@@ 572
place 572
Besch@@ 571
osu 571
west@@ 570
Wir@@ 569
cô@@ 569
С@@ 569
ease 568
ıca 568
Como 567
dır@@ 566
ו@@ 566
flo@@ 565
vez 564
high 563
ists 563
year 562
class 561
contin@@ 560
adem@@ 559
liber@@ 558
sich@@ 558
progr@@ 557
det 555
known 555
kreis 555
ishing 554
wah@@ 554
edil@@ 553
ín@@ 553
、 553
聖@@ 553
Yun@@ 552
enz 552
郡@@ 552
198@@ 551
Apr@@ 551
change 551
ende 551
iste 551
Jug@@ 550
brit@@ 550
lek@@ 550
seau 550
commun@@ 549
imin@@ 549
Soh@@ 548
ück 548
lag 547
Der 546
mill@@ 546
undi 546
nig 545
lü 543
Bib@@ 542
force 541
spe@@ 541
Ø@@ 541
trav@@ 540
Army 539
enos 539
later 539
上@@ 539
ě 538
Ort@@ 536
А@@ 536
dir 535
tah@@ 535
† 535
Lond@@ 534
eren 534
voc@@ 534
yol@@ 534
dır 533
say@@ 533
tors 533
yok@@ 532
北@@ 532
長@@ 532
anas 531
tres 531
bed@@ 530
terr@@ 530
人@@ 530
exp@@ 529
Bask@@ 528
alist 528
194@@ 527
artic@@ 527
yük@@ 526
Groß@@ 525
system 525
case 522
mig@@ 522
国@@ 522
190@@ 521
Jah@@ 520
chang@@ 520
sions 520
March 519
Profes@@ 519
emple 519
sche@@ 519
their 519
zor@@ 519
forman@@ 518
ises 517
only 517
culp@@ 516
на 516
mé 515
partment 515
ules 514
kata 513
esto 512
sour@@ 512
ecu@@ 511
empl@@ 511
gether 511
ifu 511
ungs@@ 511
where 511
Unter@@ 510
libr@@ 509
scher 509
aces 508
inen 508
ned 508
after 507
dat@@ 507
Volks@@ 506
ilk 506
kut@@ 506
match 506
ths 506
成@@ 506
新@@ 506
appro@@ 505
Sud 504
cil 504
many 503
çe 503
aines 501
atos 501
ezi 501
oles 501
ational 500
mov@@ 500
ographi@@ 500
小@@ 500
Eurov@@ 499
bli@@ 499
chs 499
hui 499
onc@@ 499
auth@@ 498
宗@@ 498
Milit@@ 497
alar 497
aret 497
ht 497
iche 497
ét@@ 497
entes 496
pay@@ 496
run@@ 496
ć@@ 496
En 495
fut@@ 495
ober@@ 495
ος 495
ortho@@ 494
indi 493
日@@ 493
н 492
athol@@ 491
ects 491
iran 491
school 491
uso 491
195@@ 489
kana 489
Yıl@@ 488
eaux 488
identi@@ 488
้ 488
BK 486
ables 486
undo 486
ー 486
constr@@ 485
kno@@ 485
sequ@@ 485
昭@@ 485
Universit@@ 484
champ@@ 484
Т@@ 483
gal 482
і@@ 482
sera 481
江@@ 481
part 480
ías 480
ikan@@ 479
unter@@ 479
่ 479
center 478
proj@@ 478
state 478
Kib@@ 477
riff 476
sist@@ 476
神@@ 476
through 475
maz@@ 474
zw@@ 474
Rail@@ 473
tiz@@ 472
р@@ 472
т 472
ṇ@@ 471
--@@ 470
ción 470
person@@ 470
Ổ 470
Geb@@ 469
about 469
organ@@ 469
yal 469
yay@@ 469
rö@@ 468
世@@ 468
Schwe@@ 467
acio 467
irat@@ 467
jed@@ 467
白@@ 466
fall 465
ılı 465
道@@ 465
alian 464
gemein@@ 462
в 462
ラ@@ 462
utz 461
197@@ 460
ques@@ 459
ective 458
syst@@ 458
ues 458
196@@ 457
Ord@@ 457
curr@@ 457
ligh@@ 457
rant 457
α@@ 457
й 457
ampi@@ 456
aras@@ 456
mula 456
朱@@ 456
erh@@ 454
fied 454
icha 454
kiş@@ 454
Her 451
Hosp@@ 451
gres@@ 451
µ@@ 451
正@@ 451
ool 450
Ơ@@ 450
十@@ 450
bre 449
haus 449
pro 449
이@@ 449
eski 448
inde@@ 448
в@@ 448
isme 447
nie 447
hasa 446
oire 446
roy@@ 446
titu@@ 446
Provin@@ 445
ро@@ 445
林@@ 445
親@@ 445
1. 444
acter@@ 444
mak 444
reich@@ 444
馬@@ 444
oku@@ 443
alit@@ 442
ezo 442
last 442
ological 442
post 442
不@@ 442
Dok@@ 441
Un 441
К@@ 441
永@@ 441
eil 440
Ớ@@ 440
ices 438
ities 438
五@@ 438
р 437
城@@ 437
Council 436
eig@@ 436
most 436
pass@@ 436
esen 434
span 434
tena 433
üb@@ 433
γ 433
Gran 432
juli@@ 432
auto@@ 430
nur 430
uu 430
fig@@ 429
led 429
opo 428
hau@@ 427
kis@@ 427
priv@@ 427
zun@@ 427
周@@ 427
aill@@ 426
kri@@ 425
yen 425
恭@@ 425
egen 424
elem@@ 424
imba 424
nac@@ 424
û@@ 423
ım@@ 423
day@@ 422
list@@ 422
positi@@ 422
ɪ@@ 422
fication 421
kav@@ 421
gest@@ 420
jah@@ 420
м@@ 420
atur 419
formation 419
ól@@ 419
192@@ 418
feder@@ 418
who 418
itu@@ 417
they 417
tish 417
光@@ 417
adas 416
itation 416
öğ@@ 416
Museum 415
aten@@ 415
she 415
KK 414
haf@@ 414
kre@@ 414
ority 414
isten 413
ṣ@@ 413
mili@@ 412
ź@@ 412
к 412
有@@ 412
iler@@ 411
odo 411
ル@@ 411
宮 411
惠@@ 411
Kup@@ 410
ón@@ 410
aben 409
stud@@ 409
fore 408
О@@ 408
Elle 407
Ago@@ 406
eben 406
и 406
event@@ 405
zone 405
regi@@ 404
second 404
193@@ 403
eden@@ 403
tivo 403
yük 403
楊@@ 403
aborat@@ 402
Ư 401
ŭ@@ 400
nah@@ 399
plu@@ 399
ordin@@ 398
At 397
ples 397
tech@@ 397
Ổ@@ 397
Portu@@ 396
orig@@ 396
2. 394
actu@@ 394
front 393
pre 393
separ@@ 393
ün 393
э@@ 393
limit@@ 392
mau@@ 392
tional 392
阿@@ 392
aşı 391
ected 391
fam@@ 391
kub@@ 391
park 391
四@@ 391
Vier@@ 390
found 390
с@@ 390
い@@ 390
Alem@@ 388
atz 388
elek@@ 388
small 388
Fak@@ 387
eder 387
reti@@ 387
sek@@ 387
çal@@ 387
Hist@@ 386
bles 386
icht 386
iff 386
pf@@ 386
til 386
có@@ 385
été 385
л@@ 385
`@@ 384
aller@@ 384
saf@@ 384
uch 384
arte 383
vy@@ 383
wur@@ 383
ン 383
Sov@@ 382
Sta@@ 382
full 382
version 382
êt 382
ös@@ 382
His 381
ecture 381
Govern@@ 380
Nueva 380
rem 380
д@@ 380
八@@ 380
ilde 379
popul@@ 379
tet 379
district 377
tut@@ 377
Archit@@ 376
Democ@@ 376
milit@@ 376
ved 376
定@@ 376
ember 375
eral 375
hus@@ 375
will 375
女@@ 375
慈@@ 375
orie 374
zt 374
ž 374
Das 373
Mw@@ 373
sah@@ 373
éd@@ 373
城 373
夫@@ 373
Dies@@ 372
自@@ 372
typ@@ 371
ɛ@@ 371
ка 371
anderen 369
ement@@ 369
¥ 369
清@@ 369
icos 368
у@@ 368
์ 368
189@@ 367
deu@@ 367
ellen 367
Parti@@ 366
azo 366
icio 366
nationale 366
retur@@ 366
ồ@@ 366
Ụ@@ 366
州@@ 366
dik@@ 365
foc@@ 365
sek 365
ṭ@@ 365
liter@@ 364
pré@@ 364
tural 364
UE@@ 363
für 363
jou@@ 363
ofu 363
once 363
й@@ 363
し@@ 363
家@@ 363
eler@@ 362
kuz@@ 362
nach 362
schen 362
semb@@ 362
strat@@ 362
voir 362
inning 361
otra 361
″ 361
寺 361
水@@ 361
African 360
April 360
power 360
half 359
plant@@ 359
ッ@@ 359
üm 358
dak@@ 357
黎@@ 357
н@@ 356
花@@ 356
趙@@ 356
Deutschland 355
city 355
proxim@@ 355
soft 355
春@@ 355
lieu 354
ubic@@ 354
ő 354
リ@@ 354
古@@ 354
reci@@ 353
tés 353
188@@ 352
fin 352
sana 352
three 352
used 352
weg@@ 352
ский 351
mondi@@ 350
敬@@ 350
erin 349
straße 349
umbo 349
Ó 349
June 348
bez@@ 348
jaw@@ 348
lü@@ 348
ʻ@@ 348
Geg@@ 347
jus@@ 347
kuh@@ 347
stil@@ 347
186@@ 346
石@@ 346
zis@@ 345
home 344
ль@@ 344
aifa 342
ific@@ 342
iker 342
made 342
師@@ 342
comple@@ 341
integr@@ 341
jum@@ 341
level 341
onnat 341
porte 341
ativ@@ 340
kio 340
mano 340
pris@@ 340
tien 340
ête 340
ional 339
loss 339
貴@@ 338
direc@@ 337
gü@@ 337
א@@ 337
head@@ 336
them 336
beau@@ 335
cial 335
mt@@ 335
izi 334
ス@@ 334
Des 333
four@@ 333
的@@ 333
europ@@ 332
msh@@ 331
oğ@@ 331
ный 331
漢@@ 331
club 330
ending 330
ked 330
ministr@@ 330
法@@ 330
行@@ 330
assen 329
β@@ 329
„ 329
ép@@ 328
И@@ 328
ла@@ 328
君 328
Hö@@ 327
ded 327
distr@@ 327
В@@ 327
地@@ 327
道 327
meister@@ 326
う@@ 326
陽@@ 326
eso 325
fab@@ 325
ief 325
anno@@ 324
there 324
âte@@ 324
Şark@@ 324
187@@ 323
Mp@@ 323
educ@@ 323
б@@ 323
景@@ 323
Zwe@@ 322
based 322
tains 322
宣@@ 322
本@@ 322
Institut 321
season 321
tempor@@ 321
ül 321
ē 321
π 321
ア@@ 321
due 320
kid@@ 320
≤ 320
都@@ 320
Grou@@ 319
concep@@ 319
chez 318
family 318
franc@@ 318
軍 318
Este 317
kem@@ 317
verl@@ 317
康@@ 317
atro 316
ograph@@ 316
ָ@@ 316
玉@@ 316
黃@@ 316
afin 315
cian 315
ging 315
вич 315
臣 315
順@@ 315
ances 314
tek@@ 314
vention 314
Г@@ 314
מ@@ 314
姬@@ 314
mik@@ 313
éch@@ 313
之 313
美@@ 313
ended 312
iß@@ 312
å 312
İm@@ 312
二@@ 312
朝@@ 312
afr@@ 311
fak@@ 311
immer 311
tent@@ 311
Æ@@ 311
θ 311
ς 311
achen 310
nou@@ 310
éro@@ 310
П@@ 310
義@@ 310
정@@ 310
Д@@ 309
年@@ 309
Span@@ 308
dini 308
ʼ@@ 308
λ 308
División 307
Oly@@ 307
ר@@ 307
河@@ 307
dipl@@ 306
enzi 305
neur 305
omen 305
ト@@ 305
ability 304
champi@@ 304
原@@ 304
Mittel@@ 303
const@@ 303
usu 303
zil@@ 303
ル 303
iliz@@ 302
meister 302
strum@@ 302
awa@@ 301
bish@@ 301
lub 301
ıc@@ 301
я 301
ements 300
itos 300
resp@@ 300
氏@@ 300
position 299
г@@ 299
essor 298
following 298
udi 298
田@@ 298
aliy@@ 297
divers@@ 297
grande 297
唐@@ 297
ская 296
羅@@ 296
division 295
kt@@ 295
anyika 294
leng@@ 294
rá@@ 294
國 294
emba 293
some 293
Kig@@ 292
mant@@ 292
а@@ 292
無@@ 292
華@@ 292
lık 291
number 291
order 291
ür 291
buil@@ 290
hr 290
isen 290
ishia 290
ments 290
prov@@ 290
ď@@ 290
л 290
懿@@ 290
生@@ 290
ış 289
ε 289
schaft 288
廣@@ 288
edad 287
mez@@ 287
ühr@@ 287
Heim@@ 286
Mei 286
aliwa 286
ockey 286
serie 286
tific@@ 286
arri@@ 285
estig@@ 285
ests 285
mw@@ 285
ə 285
ま@@ 285
（ 285
grup@@ 284
iment 284
izo 284
mab@@ 284
uten 284
À@@ 284
ло@@ 284
ь 284
鄭@@ 284
京@@ 283
龍@@ 283
Academ@@ 282
Im 282
games 282
gru@@ 282
wam@@ 282
while 282
who@@ 282
ん@@ 282
嬪 282
真@@ 282
莊@@ 282
と@@ 281
death 280
kamp@@ 280
late 280
tend@@ 280
ulation 280
方@@ 280
hud@@ 279
ре@@ 279
ḥ@@ 279
宋@@ 279
Francia 278
liche 278
ütz@@ 278
Б@@ 278
九@@ 278
） 278
raz@@ 277
tik 277
umu 277
ữ@@ 277
忠@@ 277
bü@@ 276
ekt 276
leur 276
service 275
yü@@ 275
帝@@ 275
殿 275
英@@ 275
ileri 274
か@@ 274
族@@ 274
ible 273
philos@@ 273
topl@@ 273
Ș@@ 273
穆@@ 273
Bev@@ 272
gaz@@ 272
unde 272
adap@@ 271
ample 271
located 271
luk@@ 271
pour 271
èle 271
ジ@@ 271
明 271
coul@@ 270
ко@@ 270
治@@ 270
Grund@@ 269
Institu@@ 269
abei 269
git@@ 269
生 269
adora 268
iten 268
kend@@ 268
阳@@ 268
kam 267
oyun@@ 267
ği 267
徐@@ 267
iş 266
pour@@ 266
ω 266
erte 265
player 265
sed 265
ク@@ 265
院 265
best 264
meng@@ 264
tries 264
trou@@ 264
äd@@ 264
jos 263
rière 263
unci@@ 263
ıl 263
М@@ 263
ּ@@ 263
ל@@ 263
aille 262
ered 262
former 262
jia 262
national 262
such 262
dans 261
oyn@@ 261
signi@@ 261
èse 261
ה@@ 261
司@@ 261
adém@@ 260
between 260
tant 260
util@@ 260
vida 260
ôt 260
ṃ@@ 260
ording 259
perior 259
road 259
uses 259
ɔ@@ 259
т@@ 259
Krieg@@ 258
ativa 258
inah@@ 258
inde 258
tribut@@ 258
δ 258
В 258
主@@ 258
全@@ 258
思@@ 258
青@@ 258
carri@@ 257
edit@@ 257
eure 257
führ@@ 257
ieron 257
sever@@ 257
tir 257
ţ@@ 257
ț 257
Δ@@ 257
宮@@ 257
대@@ 257
atura 256
people 256
techni@@ 256
çı 256
У@@ 256
น@@ 256
aining 255
pens@@ 255
when 255
ıs@@ 255
Canton 254
Wash@@ 254
för@@ 254
station 254
İs@@ 254
通@@ 254
ilit@@ 253
tras 253
Prof@@ 252
gol 252
said 252
sexu@@ 252
some@@ 252
≥ 252
吳@@ 252
少@@ 252
越@@ 252
prak@@ 251
μ 251
្ 251
President 250
Türk@@ 250
conver@@ 250
tee 250
unca 250
云@@ 250
縣 250
Historia 249
东@@ 249
延@@ 249
承@@ 249
秦@@ 249
church 248
ition 248
Ị@@ 248
な@@ 248
政@@ 248
木@@ 248
Santi@@ 247
iev@@ 247
transfer@@ 247
君@@ 247
梁@@ 247
ancia 246
each 246
foot@@ 246
bora 245
clu@@ 245
fund@@ 245
herr@@ 245
о 245
actor 244
düz@@ 244
enso 244
eye 244
zus@@ 244
ız 244
カ@@ 244
ainst 243
naci@@ 243
ometr@@ 243
ב@@ 243
シ@@ 243
region 242
tif 242
ße 242
女 242
建@@ 242
Film@@ 241
prises 241
temp@@ 241
章@@ 241
3. 240
irs 240
visi@@ 240
≈ 240
า@@ 239
慶@@ 239
ası 238
eñ@@ 238
tros 238
üş 238
ν 238
き@@ 238
河 238
anay@@ 237
milli@@ 237
下@@ 237
民@@ 237
郎 237
itung 236
§ 236
何@@ 236
Munici@@ 235
anlar 235
apon 235
cht@@ 235
estim@@ 235
刘@@ 235
fs 234
ispi@@ 234
kilom@@ 234
ungen 234
克@@ 234
德 234
文 234
enden 233
enen 233
rek@@ 233
孫@@ 233
府@@ 233
alif@@ 232
bul 232
ently 232
gut 232
language 232
nacional 232
pose 232
tig 232
wani 232
レ@@ 232
Tari@@ 231
icas 231
pek@@ 231
yet@@ 231
ıt 231
ви@@ 231
六@@ 231
月@@ 231
黄@@ 231
moder@@ 230
ême 230
но@@ 230
事@@ 230
士 230
lead@@ 229
onge@@ 229
plan 229
traf@@ 229
wir@@ 229
ßen 229
ıs 229
на@@ 229
祖@@ 229
魏@@ 229
Pia 228
carr@@ 228
dej@@ 228
kwa 228
offici@@ 228
к@@ 228
ц@@ 228
Ạ@@ 228
张@@ 228
我@@ 228
elte 227
erst 227
з@@ 227
် 227
七@@ 227
弘@@ 227
興@@ 227
büt@@ 226
title 226
о@@ 226
百@@ 226
陽 226
Au 225
fav@@ 225
ľ@@ 225
Ế 225
ש@@ 224
い 224
た@@ 224
化@@ 224
曹@@ 224
淑@@ 224
innen 223
韓@@ 223
4. 222
Stad@@ 222
design@@ 222
ict 222
population 222
θ@@ 222
σ@@ 222
е 222
נ@@ 222
マ@@ 222
史@@ 222
尔@@ 222
祖 222
commer@@ 221
una@@ 221
σ 221
ְ@@ 221
ス 221
貞@@ 221
aje 220
anı 220
フ@@ 220
左@@ 220
昌@@ 220
asili 219
candid@@ 219
diz@@ 219
schaf@@ 219
stad@@ 219
zul@@ 219
zum 219
À 219
х@@ 219
ь@@ 219
蕭@@ 219
郭@@ 219
along 218
control 218
country 218
kup@@ 218
ís@@ 218
ï 218
ɑ@@ 218
ός 218
с 218
崇@@ 218
經 218
사@@ 218
arias 217
dad@@ 217
during 217
same 217
ж@@ 217
こ@@ 217
士@@ 217
等@@ 217
aissance 216
princip@@ 216
äs@@ 216
安 216
appel@@ 215
chiế@@ 215
escu@@ 215
laya 215
pata 215
étr@@ 215
φ 215
ん 215
江 215
門 215
陈@@ 215
Liter@@ 214
fot@@ 214
ifa 214
using 214
Ơ 214
端@@ 214
Form 213
enst 213
platz 213
tly 213
ım 213
ǔ 213
ни@@ 213
お@@ 213
同@@ 213
心@@ 213
萬@@ 213
pero 212
во 212
alem@@ 211
ambu@@ 211
cription 211
final 211
initi@@ 211
schule 211
éta@@ 211
м 211
爾@@ 211
胡@@ 211
famili@@ 210
publi@@ 210
ш@@ 210
김@@ 210
Bu 209
Campeonato 209
bahn 209
natural 209
south 209
succ@@ 209
ロ@@ 209
洪@@ 209
cover@@ 208
eño 208
ongo@@ 208
with@@ 208
Öster@@ 208
δ@@ 208
ง@@ 208
タ@@ 208
常@@ 208
Bir 207
besch@@ 207
ellschaft 207
equi@@ 207
firm@@ 207
itali@@ 207
writ@@ 207
ная 207
嘉@@ 207
These 206
ament 206
eurs 206
nant 206
ą 206
杜@@ 206
kip@@ 205
leit@@ 205
π@@ 205
caus@@ 204
orden@@ 204
го@@ 204
奉@@ 204
Papa 203
lanz@@ 203
senti@@ 203
мо@@ 203
千@@ 203
ayar@@ 202
figur@@ 202
short 202
γ@@ 202
特@@ 202
門@@ 202
～ 202
altı 201
aque 201
various 201
vier@@ 201
я@@ 201
仲@@ 201
吉@@ 201
多@@ 201
川@@ 201
differ@@ 200
isches 200
named 200
stand 200
御@@ 200
central 199
hari@@ 199
ildi 199
obj@@ 199
tent 199
部 199
Universidad 198
continu@@ 198
heit 198
techn@@ 198
İk@@ 198
ρ 198
Со@@ 198
dér@@ 197
eten 197
just 197
ème 197
κ@@ 197
ра@@ 197
外@@ 197
平 197
长@@ 197
kik@@ 196
雲@@ 196
appe@@ 195
enant 195
social 195
‰ 195
り@@ 195
ド@@ 195
事 195
恩@@ 195
立@@ 195
Fren@@ 194
quali@@ 194
テ@@ 194
學@@ 194
nomin@@ 193
ʿ@@ 193
г 193
ַ@@ 193
☆ 193
壽@@ 193
Akadem@@ 192
auf 192
dağ@@ 192
dies 192
high@@ 192
ished 192
lili@@ 192
would 192
çi 192
ığ@@ 192
ле@@ 192
♭ 192
る@@ 192
against 191
ède 191
üst@@ 191
Ω 191
ва 191
ע@@ 191
ら@@ 191
以@@ 191
伯@@ 191
藤@@ 191
before 190
muj@@ 190
đị@@ 190
ы@@ 190
ト 190
巴@@ 190
時@@ 190
玄@@ 190
avant 189
derni@@ 189
march@@ 189
village 189
Kongo 188
ecto 188
stati@@ 188
tard 188
Р@@ 188
く@@ 188
さ@@ 188
合@@ 188
ched 187
clus@@ 187
near 187
pain@@ 187
uzo 187
保@@ 187
学@@ 187
왕@@ 187
donn@@ 186
ense@@ 186
ė 186
ка@@ 186
仁 186
伯 186
區 186
海 186
田 186
clos@@ 185
did 185
grou@@ 185
incia 185
partic@@ 185
寧@@ 185
語 185
chter 184
comb@@ 184
forma 184
puis 184
record@@ 184
sent@@ 184
® 184
ř 184
е@@ 184
евич 184
夏@@ 184
destr@@ 183
ectiv@@ 183
ikia 183
İsp@@ 183
Ф@@ 183
по@@ 183
イ 183
式@@ 183
是@@ 183
范@@ 183
香@@ 183
5. 182
Haupt@@ 182
graf@@ 182
ม@@ 182
ク 182
重@@ 182
eleri 181
spor 181
Ä@@ 181
λ@@ 181
元 181
物@@ 181
里@@ 181
consider@@ 180
gew@@ 180
idos 180
north 180
née 180
vot@@ 180
what 180
内@@ 180
皇 180
知@@ 180
make 179
onio 179
qu 179
wich@@ 179
ög@@ 179
ǐ 179
ה 179
に@@ 179
ア 179
天 179
如@@ 179
將@@ 179
書 179
Es 178
â 178
ť 178
ż 178
バ@@ 178
和 178
being 177
fest@@ 177
ilim@@ 177
large 177
lieb 177
не@@ 177
容@@ 177
지@@ 177
habit@@ 176
lande 176
É 176
可@@ 176
台@@ 176
고@@ 176
bau 175
expres@@ 175
temper@@ 175
会@@ 175
堂 175
理@@ 175
Distr@@ 174
charac@@ 174
econom@@ 174
Н@@ 174
□ 174
ィ@@ 174
信@@ 174
尚@@ 174
府 174
軍@@ 174
風@@ 174
Region 173
called 173
endre 173
entre 173
general 173
ised 173
isión 173
issen@@ 173
nt 173
Ét@@ 173
楚@@ 173
襄@@ 173
马@@ 173
한@@ 173
Constitu@@ 172
condi@@ 172
distribu@@ 172
echo 172
marqu@@ 172
onya 172
ве@@ 172
キ@@ 172
中 172
書@@ 172
齊@@ 172
Ein 171
Tür@@ 171
ained 171
aña 171
д 171
光 171
동 171
España 170
acı 170
langu@@ 170
ück@@ 170
后@@ 170
estruc@@ 169
nord@@ 169
quier 169
yet 169
Ö 169
éré@@ 169
Ā@@ 169
до@@ 169
ли@@ 169
杨@@ 169
衛@@ 169
appar@@ 168
avec 168
fici@@ 168
placed 168
program 168
ち@@ 168
慕@@ 168
空@@ 168
dispar@@ 167
elik 167
imani 167
isation 167
maya 167
million 167
あ@@ 167
宇@@ 167
愛@@ 167
egos 166
wie 166
ś 166
ри@@ 166
代@@ 166
善@@ 166
寶@@ 166
師 166
星@@ 166
龙@@ 166
aged 165
ichte 165
orden 165
quel 165
werk 165
years 165
º 165
üd@@ 165
не 165
ск 165
ա@@ 165
博@@ 165
富@@ 165
Böl@@ 164
Mär@@ 164
bed 164
biy@@ 164
exper@@ 164
polic@@ 164
possible 164
Ко@@ 164
во@@ 164
陵@@ 164
의 164
both 163
emu 163
present 163
З@@ 163
га@@ 163
າ@@ 163
も@@ 163
先@@ 163
旗@@ 163
武 163
agric@@ 162
aires 162
exten@@ 162
journ@@ 162
local 162
municipal@@ 162
original 162
tigen 162
Ка@@ 162
ย@@ 162
Ệ@@ 162
ブ@@ 162
烈@@ 162
燕@@ 162
靖@@ 162
Grün@@ 161
larg@@ 161
pression 161
sud 161
tlich 161
и@@ 161
у 161
ч@@ 161
น 161
佳@@ 161
龍 161
Flug@@ 160
activ@@ 160
football 160
geç@@ 160
hata 160
since 160
wala 160
Å 160
Δ 160
бо@@ 160
樂@@ 160
시@@ 160
Histoire 159
Kön@@ 159
entos 159
veau 159
រ@@ 159
ṅ@@ 159
妃@@ 159
憲@@ 159
良@@ 159
around 158
atif 158
defin@@ 158
inco 158
jud@@ 158
take 158
ǒ@@ 158
С 158
ャ@@ 158
佛@@ 158
月 158
dok@@ 157
imu 157
lesia 157
these 157
ɾ@@ 157
ִ@@ 157
ា@@ 157
ḍ@@ 157
中国@@ 157
水 157
義 157
인@@ 157
Conse@@ 156
Europ@@ 156
Professor 156
hali 156
oppos@@ 156
ת 156
は@@ 156
一 156
announced 155
bier@@ 155
française 155
kush@@ 155
rail@@ 155
waka 155
© 155
ы 155
ם 155
み@@ 155
れ@@ 155
ウ@@ 155
オ@@ 155
名@@ 155
後@@ 155
記 155
7. 154
mek 154
public@@ 154
six 154
் 154
右@@ 154
獻@@ 154
行 154
bağ@@ 153
combin@@ 153
ersch@@ 153
excep@@ 153
ė@@ 153
Ř@@ 153
ʃ@@ 153
со@@ 153
ก@@ 153
布@@ 153
松@@ 153
沈@@ 153
� 153
Distribu@@ 152
Por 152
best@@ 152
elde 152
ically 152
illed 152
logr@@ 152
studi@@ 152
though 152
tof@@ 152
unu 152
τ@@ 152
ა@@ 152
サ@@ 152
吴@@ 152
懷@@ 152
林 152
裕@@ 152
隆@@ 152
신@@ 152
아@@ 152
Meister@@ 151
gesch@@ 151
idence 151
kuj@@ 151
tival 151
zey 151
за@@ 151
が@@ 151
星 151
集 151
국@@ 151
성@@ 151
Afrika 150
Bür@@ 150
December 150
again 150
autom@@ 150
colon@@ 150
reib@@ 150
şehr@@ 150
ν@@ 150
Х@@ 150
土@@ 150
川 150
火@@ 150
野@@ 150
construc@@ 149
lama 149
record 149
の 149
伊@@ 149
島 149
花 149
達@@ 149
Ab 148
Virgin@@ 148
adil@@ 148
complet@@ 148
event 148
father 148
natur@@ 148
probl@@ 148
Л@@ 148
ナ@@ 148
成 148
靈@@ 148
hosp@@ 147
publ@@ 147
sort 147
но 147
п@@ 147
正 147
都 147
顯@@ 147
Fes@@ 146
November 146
angu 146
desc@@ 146
ismo 146
tish@@ 146
üng@@ 146
ан@@ 146
崔@@ 146
者@@ 146
蔡@@ 146
音@@ 146
cion@@ 145
class@@ 145
industri@@ 145
promot@@ 145
äch@@ 145
óm@@ 145
ла 145
조@@ 145
crit@@ 144
scienti@@ 144
èg@@ 144
ди@@ 144
う 144
原 144
家 144
志 144
镇 144
Isra@@ 143
banda 143
five 143
grand 143
observ@@ 143
oder 143
ouver@@ 143
played 143
÷ 143
ünde 143
ه@@ 143
て@@ 143
其@@ 143
国 143
戦@@ 143
會@@ 143
沙@@ 143
Histori@@ 142
appear@@ 142
bres 142
classi@@ 142
temps 142
went 142
コ@@ 142
法 142
año 141
days 141
mbal@@ 141
points 141
ported 141
prac@@ 141
province 141
ρ@@ 141
ม 141
南 141
真 141
那@@ 141
6. 140
Pour 140
alik@@ 140
ancak 140
early 140
idente 140
ously 140
received 140
tribu@@ 140
öch@@ 140
а 140
前@@ 140
至@@ 140
興 140
8. 139
administr@@ 139
eden 139
feh@@ 139
icht@@ 139
imbo 139
monde 139
resul@@ 139
sans 139
without 139
üler 139
üre@@ 139
φ@@ 139
да@@ 139
де@@ 139
та@@ 139
ド 139
內@@ 139
华@@ 139
社 139
bilin@@ 138
duk@@ 138
isim@@ 138
rue 138
until 138
χ@@ 138
ด@@ 138
儀 138
華 138
Entre 137
ewa 137
recog@@ 137
wann 137
ŋ@@ 137
ǐ@@ 137
то@@ 137
ֹ@@ 137
ן 137
哈@@ 137
工@@ 137
！ 137
Ayr@@ 136
bt 136
next 136
ungu 136
ω@@ 136
ар@@ 136
сь@@ 136
ỵ@@ 136
っ@@ 136
ガ@@ 136
丁@@ 136
神 136
老@@ 136
auch 135
leş@@ 135
muz 135
requ@@ 135
uzi 135
ρος 135
ма@@ 135
ти@@ 135
ว@@ 135
← 135
〜 135
智@@ 135
9. 134
aî@@ 134
century 134
esab@@ 134
ided 134
sible 134
tradi@@ 134
utsch@@ 134
ен@@ 134
グ@@ 134
宁@@ 134
村 134
泰 134
동@@ 134
주@@ 134
ately 133
ecke 133
eln 133
inclu@@ 133
ismus 133
lege 133
prec@@ 133
respon@@ 133
statt 133
ť@@ 133
ον 133
та 133
广@@ 133
政 133
罗@@ 133
英 133
達 133
나@@ 133
Eins@@ 132
zeug@@ 132
äf@@ 132
ד@@ 132
Ộ@@ 132
ỹ@@ 132
利@@ 132
木 132
adop@@ 131
ateur 131
issen 131
iyi 131
still 131
çu 131
Σ@@ 131
Ми@@ 131
∈ 131
夫 131
母 131
紅@@ 131
而@@ 131
院@@ 131
集@@ 131
given 130
ischen 130
puer@@ 130
Ć@@ 130
ʊ@@ 130
Е@@ 130
ө@@ 130
ร@@ 130
∞ 130
入@@ 130
大 130
熊@@ 130
相@@ 130
禪@@ 130
featur@@ 129
influ@@ 129
numer@@ 129
present@@ 129
publique 129
waz@@ 129
within 129
ǔ@@ 129
Во@@ 129
Ц@@ 129
са@@ 129
チ@@ 129
園 129
魯@@ 129
Indon@@ 128
atta@@ 128
auti 128
nach@@ 128
seinen 128
several 128
Π@@ 128
η 128
х 128
ћ 128
כ@@ 128
แ@@ 128
メ@@ 128
兵@@ 128
孟@@ 128
守@@ 128
원@@ 128
Wasser@@ 127
unas 127
äh@@ 127
ר 127
ṛ@@ 127
‑ 127
ュ@@ 127
万@@ 127
京 127
出@@ 127
尹@@ 127
lement 126
member 126
ually 126
wach@@ 126
weit@@ 126
叔@@ 126
蘭@@ 126
赵@@ 126
風 126
Compan@@ 125
noch 125
ль 125
作@@ 125
年 125
會 125
泰@@ 125
長 125
Stadt@@ 124
andere 124
conqu@@ 124
cual 124
eser@@ 124
expl@@ 124
hizo 124
nation@@ 124
æ 124
デ@@ 124
ニ@@ 124
将@@ 124
晉@@ 124
歌 124
部@@ 124
이 124
September 123
enton@@ 123
isho 123
äus@@ 123
ко 123
プ@@ 123
佐@@ 123
侍@@ 123
大学 123
拉@@ 123
昌 123
開@@ 123
associ@@ 122
contempor@@ 122
model@@ 122
tiy@@ 122
universit@@ 122
¼ 122
éré 122
се@@ 122
ё@@ 122
พ@@ 122
ァ@@ 122
パ@@ 122
也 122
侯@@ 122
信 122
在@@ 122
官@@ 122
志@@ 122
慧@@ 122
睿@@ 122
純@@ 122
선@@ 122
주 122
： 122
October 121
Una 121
clas@@ 121
could 121
distrito 121
much 121
poin@@ 121
released 121
rir 121
ıt@@ 121
ŋ 121
̣ 121
س@@ 121
本 121
源@@ 121
繼@@ 121
者 121
도 121
Califor@@ 120
muş 120
trieb@@ 120
yana@@ 120
çek@@ 120
ي@@ 120
Ậ@@ 120
セ@@ 120
ラ 120
台 120
呂@@ 120
拳 120
若@@ 120
July 119
competi@@ 119
deutsche 119
dial 119
information 119
ologie 119
près 119
ücke 119
да 119
ส@@ 119
เ@@ 119
下 119
普@@ 119
歌@@ 119
第@@ 119
美 119
雄 119
서@@ 119
According 118
ennen 118
inclus@@ 118
ogle 118
versit@@ 118
Ü 118
İstanbul 118
Бо@@ 118
于@@ 118
教@@ 118
Dez@@ 117
design 117
docum@@ 117
east 117
politi@@ 117
ète 117
Ḥ@@ 117
口@@ 117
司 117
리 117
Barcel@@ 116
emas 116
mash@@ 116
territ@@ 116
vili@@ 116
Ба@@ 116
エ@@ 116
寶 116
方 116
章 116
蘇@@ 116
－ 116
años 115
homme 115
including 115
kung 115
ζ 115
К 115
Са@@ 115
ת@@ 115
བ@@ 115
ひ@@ 115
春 115
段@@ 115
溫@@ 115
Para 114
history 114
kü 114
television 114
unid@@ 114
ähr@@ 114
Ч@@ 114
би@@ 114
ミ@@ 114
共@@ 114
母@@ 114
郡 114
compar@@ 113
koa 113
sö@@ 113
ʼ 113
ά@@ 113
ία 113
А 113
Ж@@ 113
ное 113
פ@@ 113
ร 113
じ@@ 113
ょ@@ 113
り 113
季@@ 113
拓@@ 113
為@@ 113
肅@@ 113
路 113
里 113
馮@@ 113
장@@ 113
aband@@ 112
ached 112
alled 112
kön@@ 112
´ 112
öff@@ 112
ру@@ 112
ү@@ 112
ח@@ 112
つ@@ 112
よ@@ 112
乡 112
令@@ 112
修@@ 112
從@@ 112
拔@@ 112
梅@@ 112
福 112
艦 112
金 112
錄 112
Guerra 111
January 111
Stadt 111
archit@@ 111
casi 111
celle 111
kua 111
naf@@ 111
spor@@ 111
third 111
those 111
Α@@ 111
Κ@@ 111
Ле@@ 111
ش@@ 111
ས 111
⁄ 111
虎@@ 111
가@@ 111
Famili@@ 110
abab@@ 110
fang@@ 110
kent@@ 110
toral 110
ε@@ 110
Бе@@ 110
ки 110
ダ@@ 110
忠 110
最@@ 110
桓@@ 110
毛@@ 110
汉@@ 110
港@@ 110
綿@@ 110
馬 110
공@@ 110
원 110
하@@ 110
chef 109
ingana 109
tige 109
ης 109
ان 109
ไ@@ 109
Ἀ@@ 109
兴@@ 109
哲@@ 109
學 109
居@@ 109
徽@@ 109
潘@@ 109
科@@ 109
羅 109
賢@@ 109
자@@ 109
Universität 108
Verw@@ 108
cier@@ 108
eviz@@ 108
histori@@ 108
kari@@ 108
provid@@ 108
ί@@ 108
Э@@ 108
ник 108
丹@@ 108
奇@@ 108
字 108
欽@@ 108
洋@@ 108
湖@@ 108
石 108
董@@ 108
諸@@ 108
飛@@ 108
경@@ 108
Partido 107
arded 107
because 107
company 107
determin@@ 107
election 107
explo@@ 107
religi@@ 107
stitu@@ 107
ð 107
ний 107
си@@ 107
乐@@ 107
娘 107
裴@@ 107
기@@ 107
afu 106
chini 106
dici@@ 106
inform@@ 106
international 106
lieg@@ 106
liği 106
seh@@ 106
verw@@ 106
Þ@@ 106
ɔ 106
га 106
ги@@ 106
те@@ 106
ر@@ 106
で@@ 106
傳 106
功@@ 106
彥@@ 106
柳@@ 106
秋@@ 106
論 106
雄@@ 106
雪@@ 106
리@@ 106
Alman@@ 105
ayı 105
cito 105
lage 105
По@@ 105
ל 105
ح@@ 105
し 105
る 105
令 105
军 105
分@@ 105
卿 105
官 105
治 105
禮@@ 105
도@@ 105
adores 104
allem@@ 104
atique 104
bila 104
development 104
energ@@ 104
held 104
origin@@ 104
pueb@@ 104
î 104
ʰ@@ 104
ва@@ 104
Ồ 104
保 104
口 104
回@@ 104
日 104
次@@ 104
湖 104
exist@@ 103
party 103
period 103
tiki 103
ör 103
ɡ@@ 103
ба@@ 103
د 103
จ@@ 103
仙@@ 103
公司 103
姜@@ 103
得@@ 103
盛@@ 103
總@@ 103
虎 103
鄧@@ 103
鎮@@ 103
靜@@ 103
igt 102
rece@@ 102
role 102
На@@ 102
О 102
Я@@ 102
ля@@ 102
сть 102
ј@@ 102
ช@@ 102
ズ 102
史 102
孔@@ 102
恭 102
族 102
輔@@ 102
수@@ 102
arios 101
described 101
deş@@ 101
empe@@ 101
formed 101
mita 101
previ@@ 101
wake 101
нович 101
ст@@ 101
د@@ 101
勒 101
姬 101
尊@@ 101
局 101
心 101
手@@ 101
敦@@ 101
藏@@ 101
覺@@ 101
許@@ 101
스@@ 101
département 100
entro 100
signific@@ 100
taş@@ 100
univers@@ 100
üz 100
þ@@ 100
τ 100
ύ@@ 100
ра 100
ц 100
⟩ 100
リ 100
上 100
会 100
來@@ 100
慎@@ 100
通 100
麻@@ 100
전@@ 100
Politi@@ 99
anst@@ 99
aussi 99
inner@@ 99
jina 99
often 99
seur 99
vita 99
พระ@@ 99
≠ 99
ろ@@ 99
ビ@@ 99
周 99
字@@ 99
濟@@ 99
瑞@@ 99
후 99
centre 98
children 98
onship 98
yote 98
zwe@@ 98
ι 98
Ма@@ 98
ه 98
ى 98
完@@ 98
市@@ 98
情@@ 98
手 98
未@@ 98
莫@@ 98
薛@@ 98
다 98
alın@@ 97
enten 97
isons 97
lichen 97
lık@@ 97
peu 97
published 97
της 97
ми@@ 97
ي 97
ง 97
บ@@ 97
ອ@@ 97
ར@@ 97
加@@ 97
姚@@ 97
威@@ 97
於@@ 97
无@@ 97
機@@ 97
派 97
清 97
貝@@ 97
起@@ 97
유@@ 97
` 96
cet 96
partamento 96
teil 96
tı 96
ק@@ 96
วั@@ 96
င 96
Ọ@@ 96
ム 96
代 96
友@@ 96
曲@@ 96
朝 96
秀@@ 96
赤@@ 96
达@@ 96
오@@ 96
Auf@@ 95
Ce 95
course 95
ehe 95
films 95
haup@@ 95
llev@@ 95
nghiệ@@ 95
И 95
пе@@ 95
י 95
ი@@ 95
☉ 95
孙@@ 95
度@@ 95
敏@@ 95
格@@ 95
省 95
程@@ 95
葉@@ 95
誠@@ 95
雅@@ 95
顺@@ 95
February 94
Tanz@@ 94
fuer@@ 94
lớ@@ 94
propri@@ 94
secre@@ 94
tür@@ 94
uç@@ 94
Λ@@ 94
Μ@@ 94
ι@@ 94
ма 94
خ@@ 94
ن@@ 94
ล@@ 94
ག@@ 94
傳@@ 94
初@@ 94
固@@ 94
牛@@ 94
管@@ 94
草@@ 94
見@@ 94
민@@ 94
Güney 93
envir@@ 93
esine 93
inten@@ 93
ived 93
resid@@ 93
ρι@@ 93
Ру@@ 93
ат@@ 93
ин@@ 93
лу@@ 93
ب@@ 93
ج@@ 93
ာ@@ 93
⁰ 93
─ 93
ハ@@ 93
人民@@ 93
今@@ 93
宜@@ 93
蒙@@ 93
门@@ 93
階@@ 93
黑@@ 93
huri 92
ilç@@ 92
muz@@ 92
rég@@ 92
siz 92
zeu@@ 92
érieur 92
ę 92
İl@@ 92
ق@@ 92
จ 92
ເ@@ 92
ἀ@@ 92
₫ 92
塔@@ 92
希@@ 92
所 92
竹@@ 92
紀@@ 92
經@@ 92
臨@@ 92
郎@@ 92
Best@@ 91
Estado 91
abaj@@ 91
develop@@ 91
fahr@@ 91
organiz@@ 91
útbol 91
ο@@ 91
ные 91
မ@@ 91
Ỉ 91
♯ 91
ノ@@ 91
交@@ 91
任@@ 91
地 91
簡@@ 91
魔@@ 91
소@@ 91
absol@@ 90
bind@@ 90
culture 90
matr@@ 90
ograf@@ 90
pou@@ 90
production 90
septi@@ 90
waf@@ 90
ʒ@@ 90
υ@@ 90
ца 90
ֵ@@ 90
ầ 90
Ờ@@ 90
命@@ 90
問@@ 90
定 90
所@@ 90
烏@@ 90
珠@@ 90
直@@ 90
良 90
言 90
기 90
보@@ 90
auen 89
dado 89
kez@@ 89
konn@@ 89
manif@@ 89
provin@@ 89
teilung 89
öst@@ 89
ɛ 89
ха@@ 89
া@@ 89
ต@@ 89
ე@@ 89
使@@ 89
宝@@ 89
寿@@ 89
来@@ 89
洲@@ 89
碩@@ 89
色@@ 89
郑@@ 89
陸@@ 89
영@@ 89
의@@ 89
태@@ 89
dres 88
fass@@ 88
follow@@ 88
issu@@ 88
modern 88
terior 88
total 88
wap@@ 88
ération 88
Ľ@@ 88
Мо@@ 88
бе@@ 88
нов 88
про@@ 88
че@@ 88
ع@@ 88
ท@@ 88
№ 88
≡ 88
わ@@ 88
姜 88
應@@ 88
曲 88
爱@@ 88
紫@@ 88
語@@ 88
화@@ 88
Sept@@ 87
another 87
atı 87
ebil@@ 87
gesi 87
landa 87
toire 87
ucu 87
ún@@ 87
αν@@ 87
ว 87
ງ@@ 87
ན 87
を@@ 87
康 87
格 87
流@@ 87
省@@ 87
禮 87
統@@ 87
翼@@ 87
野 87
사 87
안@@ 87
천@@ 87
Woh@@ 86
conserv@@ 86
ellas 86
kirche 86
mf@@ 86
¾ 86
За@@ 86
Но@@ 86
кий 86
чи@@ 86
ย 86
า 86
ོ@@ 86
亮 86
察@@ 86
昭 86
玉 86
紹@@ 86
連@@ 86
進@@ 86
마@@ 86
Tod 85
alipo@@ 85
community 85
inay@@ 85
national@@ 85
office 85
̃ 85
ψ 85
ни 85
об@@ 85
ֶ@@ 85
ນ@@ 85
型@@ 85
夜@@ 85
故@@ 85
桂@@ 85
翁@@ 85
航@@ 85
路@@ 85
音 85
선 85
Fuß@@ 84
However 84
República 84
disput@@ 84
eines 84
udur 84
¹ 84
éti@@ 84
öne@@ 84
ʁ@@ 84
ˌ@@ 84
ге@@ 84
ле 84
хо@@ 84
ل@@ 84
อง@@ 84
ສ@@ 84
Ầ@@ 84
‡ 84
√ 84
典 84
利 84
古 84
哀@@ 84
洛@@ 84
漢 84
祥 84
處@@ 84
面@@ 84
頭@@ 84
高 84
제@@ 84
학@@ 84
National@@ 83
Pub@@ 83
aison 83
among 83
came 83
deki 83
licher 83
oren 83
vard@@ 83
zeh@@ 83
ων 83
ду@@ 83
นา@@ 83
อ@@ 83
ေ@@ 83
ワ@@ 83
名 83
善 83
威 83
室@@ 83
宫 83
容 83
尉 83
度 83
廷@@ 83
校 83
甲@@ 83
雲 83
행@@ 83
clim@@ 82
deter@@ 82
estas 82
performan@@ 82
qued@@ 82
situ@@ 82
support 82
written 82
zial@@ 82
ƒ 82
ξ 82
Рес@@ 82
ор@@ 82
ր@@ 82
محمد 82
ก 82
ศ@@ 82
ុ@@ 82
‒ 82
だ@@ 82
め@@ 82
ィ 82
ム@@ 82
ョ@@ 82
你@@ 82
勤@@ 82
同 82
圖 82
場 82
宫@@ 82
寧 82
橋 82
維@@ 82
红@@ 82
能@@ 82
鮮@@ 82
Wirt@@ 81
cada 81
ehir@@ 81
gek@@ 81
merc@@ 81
üğ@@ 81
за 81
ز@@ 81
ข@@ 81
ະ@@ 81
☃ 81
⟨ 81
え@@ 81
き 81
三 81
书@@ 81
园 81
彭@@ 81
斯@@ 81
机@@ 81
東 81
步@@ 81
賀@@ 81
부 81
Straße 80
capital 80
faire 80
novi@@ 80
registr@@ 80
Τ@@ 80
Алек@@ 80
ро 80
ское 80
ป@@ 80
ိ@@ 80
モ@@ 80
央@@ 80
好@@ 80
曾@@ 80
甘@@ 80
电@@ 80
節@@ 80
西 80
要@@ 80
詩@@ 80
谷@@ 80
越 80
遠@@ 80
강@@ 80
Lebens@@ 79
defe@@ 79
değ@@ 79
lük 79
municipio 79
̀ 79
στ@@ 79
М 79
ав@@ 79
ى@@ 79
ု@@ 79
ស@@ 79
ῖ@@ 79
吉 79
喜 79
悼@@ 79
盧@@ 79
苏@@ 79
順 79
박@@ 79
Zeit@@ 78
assist@@ 78
ickl@@ 78
neh@@ 78
route 78
similar 78
tions@@ 78
zas 78
¡ 78
ús@@ 78
über 78
ɑ 78
Σ 78
і 78
ມ@@ 78
း 78
Ề@@ 78
カ 78
キ 78
僧@@ 78
兒 78
喜@@ 78
封@@ 78
戦 78
摩@@ 78
教 78
殿@@ 78
汝@@ 78
理 78
苻@@ 78
超@@ 78
남@@ 78
산@@ 78
----@@ 77
Landes@@ 77
Parti 77
conse@@ 77
died 77
ehem@@ 77
forc@@ 77
government 77
histor@@ 77
imiento 77
maji 77
schluss 77
signed 77
tener 77
È@@ 77
û 77
Ủ 77
ソ@@ 77
ッ 77
ツ@@ 77
傅@@ 77
向@@ 77
始@@ 77
榮@@ 77
男@@ 77
衣@@ 77
麗@@ 77
종 77
지 77
alien 76
bajo 76
bien 76
built 76
einen 76
incre@@ 76
lerin 76
élé@@ 76
ɐ@@ 76
ʊ 76
Ан@@ 76
Се@@ 76
сто@@ 76
รั@@ 76
ວ@@ 76
く 76
す@@ 76
ナ 76
伏@@ 76
儀@@ 76
孤@@ 76
思 76
景 76
济@@ 76
牛 76
空 76
立 76
謝@@ 76
陰@@ 76
라@@ 76
무@@ 76
산 76
아 76
일@@ 76
aciones 75
aiss@@ 75
arse 75
dire@@ 75
erne@@ 75
mort 75
wao 75
xico 75
ǎ 75
τος 75
Бу@@ 75
ев 75
ер@@ 75
з 75
ג@@ 75
ס@@ 75
ط@@ 75
ད@@ 75
ུ@@ 75
რ@@ 75
久@@ 75
僖@@ 75
商@@ 75
场 75
夏 75
指@@ 75
支@@ 75
男 75
童@@ 75
護@@ 75
韋@@ 75
미@@ 75
어@@ 75
왕 75
우@@ 75
II. 74
allow@@ 74
depor@@ 74
deutsch@@ 74
different 74
director 74
français 74
gradu@@ 74
général 74
instrum@@ 74
layan 74
making 74
obra 74
osas 74
¢ 74
ünden 74
丁 74
乃@@ 74
乌@@ 74
二 74
別@@ 74
又@@ 74
开@@ 74
律@@ 74
房@@ 74
源 74
阿 74
隆 74
館 74
교 74
법@@ 74
장 74
최@@ 74
Lehr@@ 73
elected 73
few 73
geg@@ 73
habitants 73
independ@@ 73
ingt 73
mois 73
represent@@ 73
suite 73
verdi 73
wali@@ 73
women 73
yeni 73
Í 73
ät 73
út@@ 73
ɐ 73
˚ 73
Го@@ 73
Ш@@ 73
ал@@ 73
ме@@ 73
ี 73
ང 73
ក@@ 73
け@@ 73
ジ 73
世 73
勒@@ 73
妙@@ 73
布 73
愛 73
旗 73
熙@@ 73
社@@ 73
茂@@ 73
關@@ 73
隊 73
akt@@ 72
ased 72
became 72
relati@@ 72
risto 72
yüz@@ 72
équ@@ 72
ɪ 72
До@@ 72
Про@@ 72
па@@ 72
ч 72
ше@@ 72
ї@@ 72
オ 72
ケ@@ 72
慶 72
提@@ 72
易@@ 72
祥@@ 72
秀 72
竇@@ 72
蘭 72
비@@ 72
수 72
Janu@@ 71
conoc@@ 71
dès 71
introduc@@ 71
jeres 71
jour 71
être 71
Васи@@ 71
Пет@@ 71
Та@@ 71
ан 71
ного 71
ров 71
ז@@ 71
み 71
ブ 71
勇@@ 71
戰 71
敏 71
毅@@ 71
满@@ 71
貞 71
雙@@ 71
상@@ 71
해@@ 71
Arbeit@@ 70
Platz 70
Staats@@ 70
ciones 70
grab@@ 70
ieder 70
tionn@@ 70
zug@@ 70
Ý@@ 70
ʔ 70
ας 70
Ар@@ 70
ев@@ 70
мир 70
ной 70
пи@@ 70
ци@@ 70
ห@@ 70
ะ@@ 70
็ 70
ັ@@ 70
ほ@@ 70
マ 70
亲@@ 70
关@@ 70
力@@ 70
圣@@ 70
壽 70
望@@ 70
溪@@ 70
禧@@ 70
車 70
鄂@@ 70
구@@ 70
진@@ 70
alık 69
conduc@@ 69
egem@@ 69
fand 69
investig@@ 69
jour@@ 69
Ì@@ 69
äng@@ 69
él 69
ʔ@@ 69
ξ@@ 69
ό@@ 69
ли 69
са 69
ур@@ 69
ян@@ 69
م 69
க@@ 69
™ 69
ゅ@@ 69
乾@@ 69
命 69
幽@@ 69
性@@ 69
果@@ 69
梅 69
泉@@ 69
津@@ 69
深@@ 69
辛@@ 69
限@@ 69
静@@ 69
인 69
진 69
declar@@ 68
deux 68
greso 68
having 68
included 68
incor@@ 68
ión 68
novel@@ 68
nun 68
ıf@@ 68
ɣ@@ 68
Б 68
При@@ 68
ния 68
ш 68
ո@@ 68
و@@ 68
य@@ 68
Ẳ@@ 68
Ồ@@ 68
休@@ 68
允@@ 68
榮 68
觀@@ 68
運@@ 68
領 68
鬼@@ 68
부@@ 68
성 68
에@@ 68
ammen 67
auté 67
haber 67
ihr 67
juu 67
siy@@ 67
Ο@@ 67
μα 67
лы@@ 67
пу@@ 67
ю@@ 67
ต 67
ລ@@ 67
པ 67
‌ 67
● 67
ロ 67
你 67
使 67
叶@@ 67
夷 67
庆@@ 67
影@@ 67
恩 67
朴@@ 67
比@@ 67
汗 67
温@@ 67
献@@ 67
略 67
節 67
紀 67
艦@@ 67
色 67
袁@@ 67
贵@@ 67
銀@@ 67
陶@@ 67
麗 67
문@@ 67
현@@ 67
Sein 66
concentr@@ 66
dass 66
ectu@@ 66
encore 66
gör@@ 66
iques 66
popular 66
schaften 66
Β@@ 66
при@@ 66
ша@@ 66
ъ 66
ю 66
र@@ 66
း@@ 66
せ@@ 66
ェ@@ 66
乡@@ 66
书 66
亭@@ 66
勝@@ 66
扶@@ 66
民 66
波 66
考@@ 66
臣@@ 66
言@@ 66
豐@@ 66
雨@@ 66
雷@@ 66
首@@ 66
는 66
영 66
전 66
Allem@@ 65
Feb@@ 65
adhi 65
bâ@@ 65
forces 65
fé@@ 65
produced 65
quot@@ 65
remain@@ 65
ʲ@@ 65
Ε@@ 65
Λ 65
Г 65
фрон@@ 65
ด 65
ῆ@@ 65
ノ 65
叔 65
图 65
夷@@ 65
密@@ 65
殷@@ 65
甲 65
界@@ 65
與@@ 65
豫@@ 65
구 65
어 65
자 65
Deutschen 64
Une 64
afir@@ 64
ería 64
fils 64
hier 64
leurs 64
ydi 64
κα@@ 64
Ве@@ 64
П 64
ки@@ 64
ос@@ 64
ס 64
त 64
म@@ 64
ุ@@ 64
ネ@@ 64
レ 64
仮@@ 64
佘@@ 64
列@@ 64
基@@ 64
巨@@ 64
微@@ 64
戴@@ 64
新 64
村@@ 64
由@@ 64
祿@@ 64
話 64
语 64
賢 64
電@@ 64
categ@@ 63
huu 63
ilik 63
kati@@ 63
kij@@ 63
ű@@ 63
ɒ@@ 63
Ι@@ 63
ή 63
ή@@ 63
η@@ 63
ных 63
стро@@ 63
عبد 63
ล 63
Ắ@@ 63
そ@@ 63
也@@ 63
井@@ 63
仲 63
制@@ 63
堂@@ 63
島@@ 63
放@@ 63
校@@ 63
株@@ 63
留@@ 63
芳@@ 63
葛@@ 63
解@@ 63
鄉@@ 63
雅 63
鹿@@ 63
다@@ 63
Er 62
construction 62
dose 62
faz@@ 62
guerre 62
génér@@ 62
istas 62
kez 62
military 62
reco@@ 62
rés@@ 62
Ò@@ 62
Ø 62
ʌ@@ 62
вет@@ 62
мен@@ 62
ров@@ 62
ча@@ 62
ши@@ 62
צ@@ 62
ས@@ 62
た 62
ゃ@@ 62
ヒ@@ 62
佛 62
军@@ 62
夢@@ 62
姑@@ 62
寺@@ 62
尼@@ 62
总@@ 62
恪@@ 62
情 62
战 62
晋@@ 62
極@@ 62
歸@@ 62
波@@ 62
渠@@ 62
獨@@ 62
甫 62
申@@ 62
益@@ 62
統 62
经@@ 62
臺@@ 62
衡 62
豆@@ 62
국 62
세@@ 62
양@@ 62
여@@ 62
연@@ 62
ations@@ 61
atives 61
cours 61
dows 61
famille 61
govern@@ 61
migu@@ 61
soll 61
État 61
Пе@@ 61
Ро@@ 61
ф@@ 61
ر 61
َ@@ 61
न@@ 61
ค@@ 61
สุ@@ 61
โ@@ 61
Ở@@ 61
ら 61
制 61
卫@@ 61
嗣 61
嗣@@ 61
室 61
峰@@ 61
恋@@ 61
桃@@ 61
業 61
父 61
育@@ 61
草 61
蒲@@ 61
중@@ 61
Bahari 60
During 60
Weit@@ 60
become 60
consist@@ 60
fond@@ 60
gé@@ 60
members 60
occas@@ 60
professi@@ 60
sent 60
tesi 60
wanza 60
ει@@ 60
Александ@@ 60
же@@ 60
му@@ 60
ста@@ 60
ك@@ 60
্ 60
ი 60
ក 60
ង 60
コ 60
丘@@ 60
兰@@ 60
岳@@ 60
峰 60
时@@ 60
朗 60
死@@ 60
永 60
浪@@ 60
滿@@ 60
演@@ 60
硕@@ 60
聖 60
角 60
謙 60
近@@ 60
進 60
雨 60
鳳@@ 60
그@@ 60
시 60
은 60
황@@ 60
Zeit 59
Zentr@@ 59
erste 59
kama 59
зо@@ 59
ف@@ 59
ท 59
མ 59
ḥ 59
‐ 59
乙@@ 59
俊 59
双@@ 59
嚴@@ 59
園@@ 59
将 59
房 59
才@@ 59
揚@@ 59
敬 59
曰@@ 59
根 59
樂 59
淑 59
班@@ 59
眼@@ 59
索@@ 59
錢@@ 59
门 59
霍@@ 59
韩@@ 59
香 59
鶴@@ 59
고 59
려 59
Akad@@ 58
alre@@ 58
autor@@ 58
constitu@@ 58
frances@@ 58
huo 58
personal 58
premi@@ 58
propi@@ 58
recher@@ 58
ulus@@ 58
Ú 58
Не@@ 58
Си@@ 58
У 58
гу@@ 58
ке 58
ку@@ 58
ми 58
ть 58
र 58
ุ 58
ོ 58
ရ@@ 58
ლ@@ 58
ត 58
ấ 58
ね@@ 58
シ 58
业@@ 58
亭 58
传 58
則@@ 58
嘉 58
圓@@ 58
塔 58
头@@ 58
学 58
学院 58
弼 58
愍@@ 58
感@@ 58
業@@ 58
此@@ 58
浦@@ 58
熙 58
用@@ 58
登@@ 58
礼 58
米@@ 58
間@@ 58
阳 58
büyük 57
civil 57
hayat@@ 57
mais 57
nde 57
sebe@@ 57
tér@@ 57
ufu 57
uzak@@ 57
úl@@ 57
Мар@@ 57
ня 57
сь 57
ция 57
ט@@ 57
ال@@ 57
س 57
ص@@ 57
མ@@ 57
ྲ@@ 57
ὐ@@ 57
ど@@ 57
や@@ 57
ボ@@ 57
与@@ 57
刀 57
力 57
勝 57
基 57
弘 57
機 57
溪 57
象@@ 57
陀@@ 57
우 57
Adem@@ 56
Musik@@ 56
dont 56
established 56
mev@@ 56
musical 56
perten@@ 56
ρο@@ 56
Де@@ 56
гор@@ 56
ков@@ 56
ля 56
ׁ@@ 56
ا@@ 56
รา@@ 56
ห 56
ิ@@ 56
က@@ 56
တ@@ 56
ន@@ 56
倫@@ 56
半@@ 56
华 56
宿 56
尚 56
橋@@ 56
淳@@ 56
莊 56
身@@ 56
載@@ 56
风@@ 56
鲁@@ 56
Ayn@@ 55
Par 55
lagen 55
pios 55
scheid@@ 55
Ñ@@ 55
ŏ 55
Ț@@ 55
ɨ@@ 55
Χ@@ 55
Ку@@ 55
Росси@@ 55
ா@@ 55
້ 55
ེ@@ 55
ს@@ 55
∆ 55
ゴ@@ 55
ホ@@ 55
奕@@ 55
將 55
庄@@ 55
才 55
白 55
秋 55
羊@@ 55
舒@@ 55
遠 55
명@@ 55
비 55
스 55
acces@@ 54
cuer@@ 54
elimin@@ 54
eğ@@ 54
irse 54
libre 54
tatu 54
took 54
vur@@ 54
âce 54
έ@@ 54
κ 54
ло 54
ство 54
ե@@ 54
الله 54
لي@@ 54
स 54
ウ 54
ズ@@ 54
丸 54
为@@ 54
克 54
副@@ 54
厚@@ 54
喇@@ 54
尾@@ 54
建 54
惟@@ 54
惠 54
李 54
森@@ 54
濟 54
照@@ 54
珍@@ 54
珠 54
用 54
血@@ 54
街 54
記@@ 54
记 54
體@@ 54
齐@@ 54
라 54
방@@ 54
위@@ 54
Gesch@@ 53
fik@@ 53
joint 53
lado 53
ticos 53
uvo 53
études 53
ů 53
ǒ 53
σι@@ 53
Крас@@ 53
Ре@@ 53
Т 53
бу@@ 53
ян 53
الم@@ 53
ين 53
สา@@ 53
ນ 53
འ@@ 53
临@@ 53
全 53
吾@@ 53
图@@ 53
場@@ 53
干@@ 53
廟 53
徽 53
懿 53
洞@@ 53
珍 53
素@@ 53
茶 53
赫@@ 53
逐@@ 53
頭 53
군 53
니@@ 53
백@@ 53
화 53
Aralık 52
acak 52
emper@@ 52
jini 52
services 52
teil@@ 52
voy@@ 52
ĕ@@ 52
ʃ 52
Ν@@ 52
χ 52
льный 52
ски 52
ского 52
न 52
ி@@ 52
ម 52
ピ@@ 52
乞@@ 52
了@@ 52
务@@ 52
動@@ 52
咸@@ 52
奇 52
復@@ 52
施@@ 52
沮@@ 52
泉 52
玄 52
直 52
相 52
纳@@ 52
聞@@ 52
舞@@ 52
菩@@ 52
谷 52
超 52
鬼 52
鴻@@ 52
龙 52
광@@ 52
대 52
로 52
서 52
began 51
más 51
sociation 51
tere 51
verk@@ 51
édi@@ 51
Φ@@ 51
Да@@ 51
То@@ 51
аль@@ 51
го 51
он@@ 51
су@@ 51
ты 51
ت@@ 51
م@@ 51
प 51
ธ@@ 51
ลา@@ 51
าน@@ 51
ກ@@ 51
ພ@@ 51
ြ@@ 51
ន 51
ម@@ 51
ῦ@@ 51
ῶ@@ 51
⋅ 51
っ 51
れ 51
グ 51
ヴ@@ 51
典@@ 51
務@@ 51
化 51
合 51
太 51
宇 51
尼 51
意@@ 51
振@@ 51
智 51
權 51
池@@ 51
澤 51
符@@ 51
舍@@ 51
茶@@ 51
薩@@ 51
街@@ 51
衣 51
那 51
鐵@@ 51
隊@@ 51
雍@@ 51
非@@ 51
만@@ 51
청@@ 51
한 51
casa 50
como 50
important 50
mayor 50
political 50
visit@@ 50
étu@@ 50
ʾ@@ 50
Θ@@ 50
άν@@ 50
Па@@ 50
Укра@@ 50
лю@@ 50
ние 50
ны 50
ры@@ 50
الع@@ 50
ة 50
ู 50
ប@@ 50
Ị 50
Ụ 50
Ứ 50
ἐ@@ 50
す 50
と 50
ギ@@ 50
ミ 50
ヤ@@ 50
丹 50
义 50
兩@@ 50
圖@@ 50
宸@@ 50
岛 50
幸@@ 50
怀@@ 50
戰@@ 50
涼@@ 50
湘@@ 50
琴 50
精@@ 50
約 50
胡 50
說@@ 50
运@@ 50
额@@ 50
가 50
정 50
ativo 49
awala 49
condu@@ 49
created 49
import@@ 49
lider@@ 49
particip@@ 49
riere 49
schafts@@ 49
sett@@ 49
tainment 49
vom 49
αρ@@ 49
λε@@ 49
Ме@@ 49
Ста@@ 49
Ю@@ 49
дар@@ 49
ков 49
род@@ 49
ские 49
ской 49
ци 49
шко@@ 49
щи@@ 49
э 49
ار 49
ི 49
な 49
ヨ@@ 49
亦@@ 49
包@@ 49
匡@@ 49
密 49
徳@@ 49
斗@@ 49
条@@ 49
桥 49
流 49
縣@@ 49
荣@@ 49
訓 49
誠 49
論@@ 49
足@@ 49
铁@@ 49
镇@@ 49
關 49
革@@ 49
領@@ 49
食@@ 49
齊 49
금 49
랑@@ 49
Entw@@ 48
cause 48
experi@@ 48
however 48
mej@@ 48
mundo 48
serve 48
αγ@@ 48
ερ@@ 48
Влади@@ 48
Су@@ 48
вой 48
вой@@ 48
вый 48
ди 48
пор@@ 48
ն@@ 48
الح@@ 48
را@@ 48
ق 48
و 48
या@@ 48
บ 48
วง@@ 48
ี@@ 48
ྱ@@ 48
ἄ@@ 48
♀ 48
に 48
ザ@@ 48
ポ@@ 48
仙 48
住@@ 48
到@@ 48
受@@ 48
如 48
存@@ 48
尉@@ 48
庶@@ 48
技@@ 48
毅 48
牙@@ 48
碧@@ 48
秘@@ 48
範 48
肃@@ 48
虞@@ 48
謙@@ 48
顏@@ 48
거@@ 48
Forsch@@ 47
ded@@ 47
erten 47
isinin 47
köy@@ 47
meil@@ 47
propos@@ 47
schrift 47
Ù@@ 47
ños 47
ŭ 47
͡ 47
Ω@@ 47
λι@@ 47
Ра@@ 47
Ха@@ 47
вая 47
цы 47
الج@@ 47
ب 47
بن 47
غ@@ 47
န 47
ო@@ 47
ṃ 47
ẫ 47
♦ 47
什@@ 47
位 47
共和@@ 47
切@@ 47
友 47
型 47
姫 47
望 47
松 47
柔@@ 47
根@@ 47
澤@@ 47
琵@@ 47
瑞 47
祐 47
裕 47
議@@ 47
邦@@ 47
陀 47
駆@@ 47
삼@@ 47
예@@ 47
트 47
호@@ 47
Leben 46
Machi 46
bö@@ 46
capac@@ 46
compr@@ 46
dự@@ 46
institu@@ 46
mt 46
perman@@ 46
unden 46
óg@@ 46
ǃ@@ 46
ɕ@@ 46
αυ@@ 46
Ва@@ 46
Глав@@ 46
Миха@@ 46
Серге@@ 46
ба 46
им@@ 46
ри 46
сте@@ 46
วิ@@ 46
ვ@@ 46
Ễ@@ 46
お 46
か 46
て 46
タ 46
傑 46
先 46
八 46
凤@@ 46
北 46
卓@@ 46
县@@ 46
嬪@@ 46
干 46
沙 46
洪 46
父@@ 46
的 46
知 46
祐@@ 46
綏@@ 46
羽@@ 46
耶@@ 46
能 46
荀@@ 46
詩 46
贝@@ 46
起 46
防@@ 46
魚@@ 46
송@@ 46
씨 46
현 46
； 46
Cumhuriy@@ 45
Zus@@ 45
especi@@ 45
film@@ 45
fü@@ 45
inici@@ 45
relig@@ 45
success@@ 45
tores 45
Ви@@ 45
Ки@@ 45
Ли@@ 45
б 45
по 45
ст 45
сти 45
стре@@ 45
ту@@ 45
ค 45
ณ@@ 45
ิ 45
უ@@ 45
ᠠ@@ 45
Ộ 45
₹ 45
ℓ 45
♂ 45
こ 45
云 45
他@@ 45
協@@ 45
句@@ 45
吕@@ 45
媛 45
存 45
宣 45
彌@@ 45
录 45
慎 45
我 45
斗 45
洞 45
甄@@ 45
盛 45
穆 45
編 45
群@@ 45
羽 45
蓮@@ 45
青 45
齋 45
궁 45
노@@ 45
천 45
홍@@ 45
19. 44
aliste 44
deren 44
difer@@ 44
favor@@ 44
isine 44
jeu 44
ouvent 44
usawa 44
ɲ@@ 44
̯ 44
ζ@@ 44
λλ@@ 44
Я 44
ет@@ 44
зи@@ 44
ит@@ 44
ня@@ 44
ا 44
ی 44
त@@ 44
य 44
მ@@ 44
ស 44
Ệ 44
フ 44
丰@@ 44
伦@@ 44
勳 44
即@@ 44
回 44
奴 44
姓 44
嫡@@ 44
宏 44
射@@ 44
屋@@ 44
延 44
想@@ 44
柴@@ 44
案 44
樓 44
港 44
烈 44
翰 44
譚@@ 44
邵@@ 44
顯 44
ꞌ@@ 44
레@@ 44
호 44
Ende 43
akini 43
corresp@@ 43
histoire 43
insi 43
joined 43
material 43
ographie 43
ouvern@@ 43
tout 43
Â 43
Über@@ 43
ÿ 43
ʰ 43
αλ@@ 43
ικ@@ 43
οι 43
Гор@@ 43
Д 43
Ду@@ 43
Чер@@ 43
ек@@ 43
жи@@ 43
кая 43
ман@@ 43
окру@@ 43
от@@ 43
публика 43
ран@@ 43
ска 43
сы 43
управление 43
ի@@ 43
إ@@ 43
द 43
ยา@@ 43
ริ@@ 43
ำ@@ 43
ື@@ 43
ལ@@ 43
ི@@ 43
ំ@@ 43
ậ 43
Ợ@@ 43
は 43
ま 43
ゲ@@ 43
井 43
亞@@ 43
任 43
余@@ 43
侍 43
依@@ 43
反@@ 43
垂@@ 43
娘@@ 43
婉@@ 43
孫 43
常 43
式 43
彝@@ 43
殺@@ 43
洲 43
火 43
物 43
球@@ 43
琶 43
画 43
異@@ 43
第一@@ 43
藤 43
觉@@ 43
角@@ 43
貴 43
車@@ 43
速@@ 43
際@@ 43
랑 43
바@@ 43
요 43
Geschichte 42
career 42
dül@@ 42
fait 42
ient 42
materi@@ 42
much@@ 42
onales 42
osto 42
reste 42
çık@@ 42
üf@@ 42
ļ@@ 42
Š 42
μα@@ 42
ρα@@ 42
СССР 42
ве 42
воен@@ 42
зе@@ 42
п 42
си 42
ска@@ 42
ти 42
це@@ 42
ּ 42
، 42
ு@@ 42
් 42
ญ 42
ราช@@ 42
เพ@@ 42
ງ 42
པ@@ 42
ბ@@ 42
ნ@@ 42
Ỹ 42
∩ 42
⊆ 42
佟@@ 42
再@@ 42
品@@ 42
团 42
婆@@ 42
客@@ 42
师@@ 42
念@@ 42
打@@ 42
掌@@ 42
暉 42
汪@@ 42
然@@ 42
璋 42
目@@ 42
破@@ 42
科 42
納@@ 42
聲@@ 42
胤@@ 42
船@@ 42
蔣@@ 42
连@@ 42
鍾@@ 42
鎮 42
长 42
面 42
게 42
나 42
순@@ 42
Als 41
Chuo 41
Minister@@ 41
Mitte 41
ammen@@ 41
celebr@@ 41
occup@@ 41
änd@@ 41
évol@@ 41
örd@@ 41
Вели@@ 41
ге 41
ет 41
лий 41
от 41
ря@@ 41
ъ@@ 41
ья 41
ل 41
ர@@ 41
สม@@ 41
ལ 41
់ 41
』 41
ず@@ 41
义@@ 41
介 41
倫 41
備@@ 41
兄@@ 41
六 41
冠@@ 41
分 41
区@@ 41
呼@@ 41
壮@@ 41
好 41
居 41
工 41
巫@@ 41
必@@ 41
战@@ 41
扎@@ 41
晉 41
毓@@ 41
渡@@ 41
灵@@ 41
琴@@ 41
研究@@ 41
習@@ 41
葉 41
藍@@ 41
藏 41
觀 41
輪@@ 41
邪@@ 41
酒@@ 41
鈴@@ 41
陆@@ 41
？ 41
Meter 40
arası 40
chte 40
hasta 40
iliy@@ 40
incorpor@@ 40
lere 40
nouv@@ 40
¿ 40
çev@@ 40
ο 40
το@@ 40
Ива@@ 40
ды 40
лов 40
рий 40
эн@@ 40
қ@@ 40
א 40
بي 40
ं 40
महा@@ 40
ญ@@ 40
นี 40
ศ 40
ບ@@ 40
ა 40
თ@@ 40
ជ@@ 40
› 40
ベ@@ 40
來 40
倉@@ 40
健@@ 40
儿 40
兵 40
因@@ 40
實@@ 40
封 40
岭 40
廢@@ 40
彦@@ 40
徒@@ 40
支 40
文化 40
果 40
淨@@ 40
私@@ 40
終@@ 40
苗@@ 40
落@@ 40
衞@@ 40
表@@ 40
载@@ 40
閔@@ 40
閻@@ 40
養@@ 40
黒@@ 40
윤@@ 40
을 40
평@@ 40
해 40
희 40
﻿ 40
Frau 39
Gemein@@ 39
Kati 39
atika 39
beit@@ 39
embre 39
fér@@ 39
moved 39
nouveau 39
program@@ 39
served 39
tous 39
yali@@ 39
ände 39
πος 39
ψ@@ 39
ато@@ 39
доро@@ 39
йн 39
ново 39
ப@@ 39
ช 39
່ 39
သ@@ 39
ល@@ 39
Ự 39
⁠ 39
『 39
ち 39
テ 39
事件 39
传@@ 39
則 39
劍@@ 39
十 39
去@@ 39
发@@ 39
园@@ 39
坡@@ 39
大學 39
姓@@ 39
尔 39
尾 39
己 39
廣 39
楚 39
淮@@ 39
游@@ 39
溥@@ 39
老 39
芳 39
術 39
計@@ 39
诗@@ 39
贞@@ 39
远@@ 39
過@@ 39
郁@@ 39
関@@ 39
隱@@ 39
雪 39
颜@@ 39
개@@ 39
덕@@ 39
드@@ 39
제 39
Eyl@@ 38
Haup@@ 38
Türk 38
Verein@@ 38
altung 38
amér@@ 38
consid@@ 38
conten@@ 38
fico 38
gique 38
groupe 38
huko 38
maç@@ 38
police 38
propor@@ 38
unos 38
unun 38
Ă 38
Γ@@ 38
έρ@@ 38
ής 38
ού@@ 38
Авто@@ 38
Гу@@ 38
Ни@@ 38
Нико@@ 38
Пу@@ 38
тан@@ 38
ха 38
ב 38
ד 38
ט 38
ان@@ 38
ري@@ 38
ن 38
ون 38
ณ 38
อย@@ 38
เก@@ 38
เส@@ 38
ཆ@@ 38
ར 38
္ 38
ត@@ 38
Ể@@ 38
バ 38
ペ@@ 38
俊@@ 38
兒@@ 38
動 38
勤 38
印@@ 38
參@@ 38
号@@ 38
哲 38
固 38
宝 38
實 38
尊 38
岩@@ 38
当@@ 38
戸@@ 38
服 38
柏@@ 38
桥@@ 38
洋 38
澄 38
灣@@ 38
營 38
班 38
目 38
督 38
砂@@ 38
翰@@ 38
菊@@ 38
视@@ 38
譜 38
變 38
许@@ 38
谢@@ 38
賈@@ 38
身 38
錦@@ 38
锦@@ 38
騎@@ 38
용@@ 38
조 38
종@@ 38
20. 37
Amerika 37
Yeni 37
Zu 37
adı 37
artist@@ 37
aría 37
contra 37
contre 37
direction 37
establ@@ 37
fois 37
individ@@ 37
kuf@@ 37
princi@@ 37
rar 37
segu@@ 37
ħ@@ 37
ľ 37
ις 37
Ге@@ 37
Ла@@ 37
Ор@@ 37
Ти@@ 37
вер@@ 37
кра@@ 37
мар@@ 37
ница 37
ну@@ 37
публи@@ 37
рав@@ 37
ско@@ 37
сти@@ 37
ча 37
шка 37
ще 37
ն 37
ך@@ 37
حي@@ 37
ور 37
ە@@ 37
த@@ 37
ั 37
ົ@@ 37
ទ@@ 37
Ṣ@@ 37
Ử 37
♥ 37
エ 37
チ 37
デ 37
丽@@ 37
位@@ 37
俱@@ 37
关 37
冬@@ 37
厲@@ 37
及@@ 37
噶@@ 37
執@@ 37
季 37
悪@@ 37
森 37
樊@@ 37
泽@@ 37
浮@@ 37
淵 37
燕 37
球 37
琳 37
督@@ 37
笑@@ 37
纪@@ 37
荊@@ 37
跋@@ 37
迎@@ 37
造@@ 37
遊@@ 37
邊@@ 37
鎭@@ 37
钟@@ 37
麟 37
너@@ 37
로@@ 37
민 37
신 37
야 37
은@@ 37
일 37
Guerre 36
Nisan 36
Paşa 36
Welt@@ 36
déc@@ 36
encias 36
idades 36
married 36
pobl@@ 36
teurs 36
uvu 36
wrote 36
Ã 36
Č 36
ņ@@ 36
али@@ 36
ед@@ 36
ера 36
рус@@ 36
ң@@ 36
مي@@ 36
ۇ@@ 36
म 36
ภ@@ 36
ຫ@@ 36
ཀ@@ 36
ེ 36
ḫ@@ 36
ὀ@@ 36
ὁ 36
け 36
じ 36
ツ 36
乘@@ 36
亂 36
亨 36
優@@ 36
剛@@ 36
卜@@ 36
取@@ 36
四 36
坂@@ 36
失@@ 36
奚@@ 36
嫔 36
宏@@ 36
宿@@ 36
寒@@ 36
對@@ 36
岸 36
崇 36
持@@ 36
曰 36
服@@ 36
末@@ 36
梁 36
楽@@ 36
池 36
犬 36
独@@ 36
當@@ 36
稱@@ 36
答@@ 36
簡 36
翊@@ 36
蒙 36
融 36
衛 36
观@@ 36
輝@@ 36
送@@ 36
重 36
間 36
骑@@ 36
Teil@@ 35
alité 35
cü 35
deutscher 35
gün 35
join@@ 35
kehr@@ 35
kuli@@ 35
lég@@ 35
monum@@ 35
nda 35
produ@@ 35
rement 35
région 35
sont 35
toba 35
trois 35
vek@@ 35
vile 35
voll@@ 35
zeich@@ 35
zeit 35
Ð 35
ıcı 35
Φιλ@@ 35
άρ@@ 35
ατ@@ 35
ια 35
μέ@@ 35
όν@@ 35
Пре@@ 35
Сер@@ 35
ать 35
из@@ 35
обла@@ 35
ствен@@ 35
ции 35
ша 35
ָ 35
ال 35
ج 35
∀ 35
ⴰ@@ 35
ご@@ 35
ゆ@@ 35
プ 35
乐 35
体@@ 35
修 35
健 35
前 35
剣 35
唐 35
声@@ 35
寂@@ 35
寨 35
岳 35
形@@ 35
征@@ 35
散@@ 35
来 35
樓@@ 35
浩 35
溫 35
瓜@@ 35
町 35
界 35
皆@@ 35
秉@@ 35
等 35
策@@ 35
翠@@ 35
般@@ 35
蒼@@ 35
見 35
親 35
警@@ 35
辅@@ 35
農@@ 35
鏡@@ 35
離@@ 35
難@@ 35
飞@@ 35
餅 35
黨 35
Bere@@ 34
Kwa 34
armée 34
continued 34
drit@@ 34
estos 34
famil@@ 34
grund 34
ları 34
lors 34
père 34
sobre 34
¬ 34
économ@@ 34
ôle 34
ħ 34
ılık 34
̍ 34
πλ@@ 34
Пер@@ 34
Че@@ 34
государствен@@ 34
зна@@ 34
ить 34
лен@@ 34
од@@ 34
осу@@ 34
пол@@ 34
сла@@ 34
то 34
أ@@ 34
الب@@ 34
بي@@ 34
ـ@@ 34
वा@@ 34
র@@ 34
ส 34
เม@@ 34
ຊ@@ 34
ິ@@ 34
ད 34
ာ 34
⅓ 34
↑ 34
⇔ 34
∗ 34
⊕ 34
ば@@ 34
ふ@@ 34
乱 34
儿@@ 34
冷@@ 34
凌@@ 34
劍 34
功 34
多 34
头 34
委@@ 34
应@@ 34
彥 34
忽@@ 34
戎 34
改@@ 34
旦 34
時 34
棋 34
權@@ 34
沖@@ 34
活@@ 34
漫@@ 34
特 34
狐@@ 34
紹 34
绍@@ 34
肅 34
至 34
致@@ 34
茂 34
號 34
視@@ 34
謂@@ 34
话 34
足 34
輝 34
迷@@ 34
遺@@ 34
邑 34
邑@@ 34
閣 34
館@@ 34
髮@@ 34
鳥@@ 34
계@@ 34
울@@ 34
Fahr@@ 33
antigu@@ 33
awali 33
mito 33
nchi 33
principal 33
proces@@ 33
señ@@ 33
ticas 33
wirt@@ 33
çı@@ 33
ġ@@ 33
Ō 33
ŵ@@ 33
ǁ@@ 33
ǂ@@ 33
ʁ 33
ί 33
θος 33
ον@@ 33
Вы@@ 33
Кон@@ 33
Москов@@ 33
Никола@@ 33
бра@@ 33
де 33
нь 33
он 33
се 33
յ@@ 33
ֲ@@ 33
أحمد 33
ئ@@ 33
بر@@ 33
يد 33
پ@@ 33
क 33
ใ@@ 33
ུ 33
ྒ@@ 33
န@@ 33
ិ@@ 33
ូ@@ 33
ោ@@ 33
ḗ@@ 33
Ề 33
‍ 33
₩ 33
⅔ 33
で 33
び@@ 33
メ 33
丘 33
中华@@ 33
伽@@ 33
倉 33
儼 33
党 33
升 33
博 33
吾 33
团@@ 33
在 33
坤@@ 33
報 33
宁 33
小 33
嶺@@ 33
师 33
庙 33
彰@@ 33
後 33
怪@@ 33
拉 33
曹 33
死 33
益 33
聽@@ 33
营@@ 33
藩@@ 33
處 33
蜀@@ 33
追@@ 33
遗@@ 33
际@@ 33
魚 33
내 33
두@@ 33
드 33
불@@ 33
혜@@ 33
comer@@ 32
deut@@ 32
droit 32
endant 32
financi@@ 32
grub@@ 32
occu@@ 32
opened 32
origine 32
trä@@ 32
ución 32
wango 32
zentr@@ 32
ţ 32
Ρ@@ 32
αι@@ 32
ρί@@ 32
τί@@ 32
Ал@@ 32
Ком@@ 32
Ту@@ 32
ата@@ 32
вет 32
вя@@ 32
ден@@ 32
ке@@ 32
кто@@ 32
мы 32
нов@@ 32
ном 32
те 32
хи@@ 32
Ө@@ 32
الخ@@ 32
الش@@ 32
ت 32
व@@ 32
ம@@ 32
มหา@@ 32
สิ@@ 32
อ 32
ัน@@ 32
ีย@@ 32
ທ@@ 32
ျ@@ 32
ွ@@ 32
Ừ 32
Å 32
が 32
ぎ@@ 32
む@@ 32
ネ 32
ュ 32
亚@@ 32
兼@@ 32
刀@@ 32
判@@ 32
勇 32
厚 32
奈@@ 32
媯@@ 32
寨@@ 32
就@@ 32
已@@ 32
引@@ 32
斡@@ 32
次 32
毘@@ 32
津 32
深 32
潭@@ 32
照 32
片@@ 32
畿@@ 32
盟 32
監@@ 32
眾@@ 32
策 32
级@@ 32
翁 32
耳 32
股@@ 32
芒@@ 32
营 32
襄 32
豊@@ 32
資@@ 32
赋 32
軒 32
輔 32
遼@@ 32
雷 32
震 32
骨@@ 32
鱼@@ 32
黎 32
龐@@ 32
꫁ 32
관 32
반@@ 32
복@@ 32
승@@ 32
재@@ 32
피@@ 32
Anf@@ 31
charg@@ 31
ellik@@ 31
hadi 31
icios 31
kundi 31
nde@@ 31
releas@@ 31
wany@@ 31
élec@@ 31
Ţ@@ 31
̄ 31
ελ@@ 31
όν 31
Ј@@ 31
Ев@@ 31
Ин@@ 31
Му@@ 31
Ново@@ 31
От@@ 31
России 31
жа@@ 31
лов@@ 31
ман 31
му 31
раз@@ 31
рал 31
сло@@ 31
сси@@ 31
фе@@ 31
Қ@@ 31
ְ 31
ע 31
اب@@ 31
الس@@ 31
ک@@ 31
ব@@ 31
นิ@@ 31
ป 31
ผ@@ 31
พิ@@ 31
ษ 31
หน@@ 31
เข@@ 31
ไทย 31
ດ 31
ပ@@ 31
့ 31
დ@@ 31
េ@@ 31
ែ@@ 31
Ố 31
Ử@@ 31
― 31
つ 31
ぶ@@ 31
ぼ@@ 31
乙 31
九 31
佑@@ 31
充@@ 31
农@@ 31
午@@ 31
印 31
召@@ 31
喀@@ 31
土 31
垣 31
岐@@ 31
嶺 31
巴 31
幕@@ 31
幼@@ 31
庄 31
庫@@ 31
弟 31
役 31
性 31
提 31
摩 31
斌 31
早@@ 31
昆@@ 31
曾 31
有 31
朱 31
某@@ 31
柱 31
桐@@ 31
殊@@ 31
然 31
熊 31
狼@@ 31
祭@@ 31
竹 31
篇 31
綱 31
翼 31
考 31
耳@@ 31
臧 31
苑@@ 31
菜 31
萨@@ 31
行政@@ 31
褚@@ 31
见@@ 31
赤 31
走@@ 31
連 31
酒 31
銅@@ 31
閣@@ 31
雀@@ 31
須@@ 31
黃 31
齡 31
궁@@ 31
내@@ 31
당 31
들 31
면 31
배@@ 31
생@@ 31
연 31
처@@ 31
파@@ 31
Grenz@@ 30
Mundial 30
amı 30
angla@@ 30
büyü@@ 30
communes 30
diplom@@ 30
göz@@ 30
keit 30
muş@@ 30
partement 30
sahi@@ 30
sich 30
sind 30
started 30
tü 30
umri 30
veya 30
wezi 30
Ù 30
ıdır 30
ısı 30
ʹ 30
̌ 30
Θ 30
Φ 30
να@@ 30
οφ@@ 30
І@@ 30
Би@@ 30
Об@@ 30
Те@@ 30
года 30
дан@@ 30
ене@@ 30
жен@@ 30
ис@@ 30
каз@@ 30
лин@@ 30
мер@@ 30
ности 30
пера@@ 30
це 30
اس@@ 30
رة 30
سي@@ 30
لة 30
ية 30
া 30
ฟ 30
ื@@ 30
ໄ@@ 30
လ@@ 30
ព@@ 30
K 30
∇ 30
あ 30
げ@@ 30
ォ@@ 30
ザ 30
ャ 30
ユ@@ 30
五 30
佐 30
充 30
党@@ 30
劇@@ 30
句 30
号 30
員@@ 30
坊 30
塘@@ 30
外 30
寬@@ 30
專@@ 30
屈@@ 30
岡@@ 30
庆 30
庭@@ 30
廉 30
悲@@ 30
意 30
憲 30
戀@@ 30
朗@@ 30
期@@ 30
杰 30
桑@@ 30
樹 30
樹@@ 30
求@@ 30
油@@ 30
浦 30
浩@@ 30
牙 30
皮@@ 30
監 30
端 30
经 30
联@@ 30
舊@@ 30
舍 30
船 30
茅@@ 30
蓝@@ 30
讓@@ 30
豐 30
贊@@ 30
遲@@ 30
鑲@@ 30
阜@@ 30
雁@@ 30
雍 30
靖 30
靜 30
韶@@ 30
馆 30
麟@@ 30
래 30
운@@ 30
창@@ 30
타@@ 30
회 30
comun@@ 29
cré@@ 29
cual@@ 29
dedic@@ 29
ehen 29
entre@@ 29
interpre@@ 29
kiye 29
medio 29
mesi 29
nicht 29
organis@@ 29
urch 29
ď 29
ʕ@@ 29
Α 29
λος 29
ου@@ 29
ρά 29
Вол@@ 29
Иван 29
Р 29
Ф 29
бю@@ 29
вы@@ 29
же 29
кин 29
нин@@ 29
ре 29
рия 29
ск@@ 29
уча@@ 29
хан 29
آ@@ 29
الد@@ 29
क@@ 29
ச@@ 29
ຈ@@ 29
ှ@@ 29
ს 29
Ỳ 29
ὶ 29
↔ 29
ぃ@@ 29
え 29
ァ 29
东 29
仪@@ 29
倭@@ 29
僕@@ 29
刺@@ 29
務 29
变 29
呂 29
哈 29
單@@ 29
圓 29
塞@@ 29
处@@ 29
奖 29
娥 29
尋@@ 29
尹 29
巡@@ 29
并@@ 29
幻@@ 29
庵 29
弟@@ 29
怡@@ 29
應 29
敦 29
旧@@ 29
昇 29
暘@@ 29
枝@@ 29
楊 29
渭@@ 29
潮@@ 29
焦@@ 29
營@@ 29
爾 29
猛@@ 29
磨@@ 29
礼@@ 29
禄 29
窦@@ 29
粉 29
線 29
若 29
荒@@ 29
衍@@ 29
诸@@ 29
還@@ 29
霸@@ 29
领@@ 29
餘@@ 29
骨 29
금@@ 29
달@@ 29
모@@ 29
상 29
요@@ 29
청 29
희@@ 29
Sohn 28
atao 28
autre 28
beledi@@ 28
cultur@@ 28
dete 28
dön@@ 28
familia 28
gez@@ 28
ió 28
jimbo 28
kuna 28
marri@@ 28
nying@@ 28
okea 28
oldu@@ 28
wech@@ 28
épo@@ 28
ülk@@ 28
ɨ 28
έν@@ 28
Андре@@ 28
Констан@@ 28
Николай 28
вар@@ 28
кова 28
кон@@ 28
мор@@ 28
пере@@ 28
ско 28
стру@@ 28
ще@@ 28
ә@@ 28
Ա@@ 28
ति 28
ना@@ 28
ম@@ 28
ติ@@ 28
ียง@@ 28
ཁ@@ 28
စ@@ 28
វ@@ 28
ា 28
ḷ@@ 28
Ặ@@ 28
Ờ 28
Ự@@ 28
ὄ@@ 28
★ 28
よ 28
个@@ 28
们@@ 28
偉@@ 28
儒 28
冀@@ 28
动@@ 28
医@@ 28
只@@ 28
吐@@ 28
哥 28
団 28
團 28
壬@@ 28
壯@@ 28
婦@@ 28
孝 28
屋 28
庚 28
庚@@ 28
庾@@ 28
強 28
強@@ 28
待@@ 28
快@@ 28
息@@ 28
慈 28
慧 28
托@@ 28
扬@@ 28
折@@ 28
拳@@ 28
振 28
撃@@ 28
攻@@ 28
旅@@ 28
期 28
查@@ 28
桑 28
榜 28
横@@ 28
橘@@ 28
殷 28
猫@@ 28
獄 28
瓦@@ 28
發@@ 28
短@@ 28
祝@@ 28
祺 28
突@@ 28
简@@ 28
級@@ 28
罕 28
舉 28
落 28
蛇@@ 28
表 28
規 28
識@@ 28
讓 28
谱 28
象 28
豪@@ 28
辰 28
辰@@ 28
辽@@ 28
银@@ 28
陳 28
雜@@ 28
韓 28
鹿 28
鼎 28
鼎@@ 28
강 28
관@@ 28
방 28
빈 28
석 28
에 28
치@@ 28
Eine 27
Kif@@ 27
Verein 27
actual 27
cerca 27
compet@@ 27
destin@@ 27
día 27
grandes 27
hakk@@ 27
okana 27
respectiv@@ 27
tische 27
tourn@@ 27
weng@@ 27
wissen@@ 27
worked 27
yao 27
yıld@@ 27
ätz@@ 27
ñ 27
Ə@@ 27
ǀ@@ 27
ɯ@@ 27
ʷ@@ 27
˧ 27
̉ 27
άκ@@ 27
ακ@@ 27
ες 27
ιν@@ 27
κλ@@ 27
Михаил 27
Моск@@ 27
Ху@@ 27
ви 27
дия 27
ем 27
ж 27
ите@@ 27
мы@@ 27
фи@@ 27
чения 27
ёт 27
ւ@@ 27
ש 27
ار@@ 27
ش 27
علي 27
وي@@ 27
گ@@ 27
रा@@ 27
स@@ 27
ह@@ 27
ন@@ 27
ু@@ 27
ข 27
บุ@@ 27
รี 27
วา@@ 27
ิน@@ 27
ื 27
เท@@ 27
ປ@@ 27
គ@@ 27
Ữ@@ 27
Ἰ@@ 27
₂ 27
⇒ 27
└ 27
ゼ@@ 27
ビ 27
中心 27
佑 27
冒@@ 27
刑@@ 27
初 27
助 27
坪@@ 27
客 27
審@@ 27
屠@@ 27
己@@ 27
弦@@ 27
徹 27
恆@@ 27
恪 27
惇@@ 27
戊@@ 27
显@@ 27
曇@@ 27
极@@ 27
柳 27
楽 27
檀@@ 27
淳 27
淵@@ 27
湾 27
爽 27
番@@ 27
登 27
祚 27
禁@@ 27
積@@ 27
純 27
結@@ 27
翟@@ 27
耿@@ 27
肇@@ 27
芝@@ 27
萬 27
藝@@ 27
要 27
賦 27
贾@@ 27
赣@@ 27
軌 27
达 27
迦@@ 27
逸@@ 27
遂@@ 27
鏡 27
難 27
零@@ 27
霞@@ 27
霸 27
马 27
鳴@@ 27
날 27
만 27
Auch 26
Bürger@@ 26
Büyük 26
Jahr@@ 26
Maji 26
ateurs 26
command@@ 26
contribu@@ 26
eshim@@ 26
founded 26
huwa 26
ieren 26
individu@@ 26
inspir@@ 26
mayo 26
mente 26
mji 26
otros 26
pointed 26
premier 26
prepar@@ 26
tü@@ 26
xième 26
zahl@@ 26
öß@@ 26
ğu 26
ų 26
ʒ 26
ά 26
ολ@@ 26
ρα 26
σα 26
Га@@ 26
Гри@@ 26
Н 26
Сою@@ 26
Хо@@ 26
Щ@@ 26
до 26
как 26
лет 26
нова 26
рии 26
ром 26
стан 26
ства 26
ственный 26
тов 26
ты@@ 26
университет 26
ща@@ 26
ър@@ 26
њ@@ 26
ғ@@ 26
տ@@ 26
رو@@ 26
ك 26
ول@@ 26
يل 26
چ@@ 26
ی@@ 26
ते 26
ल@@ 26
। 26
র 26
ি@@ 26
กร@@ 26
ประ@@ 26
มา@@ 26
ยา 26
ษ@@ 26
ั@@ 26
အ@@ 26
យ@@ 26
ី 26
ẓ@@ 26
Ἐ@@ 26
█ 26
ぬ@@ 26
め 26
ェ 26
ガ 26
休 26
假@@ 26
偉 26
内 26
冯@@ 26
切 26
剌@@ 26
剛 26
历@@ 26
唱@@ 26
堅 26
墨@@ 26
屯@@ 26
崎@@ 26
彩 26
彪 26
影 26
忍@@ 26
恆 26
恒@@ 26
承 26
播@@ 26
斯 26
暗@@ 26
杞@@ 26
栗@@ 26
梦@@ 26
楼 26
歐@@ 26
油 26
洛 26
爲@@ 26
獻 26
珪 26
現@@ 26
瑾 26
略@@ 26
祿 26
禿@@ 26
秦 26
種@@ 26
童 26
総@@ 26
纯@@ 26
羊 26
羋@@ 26
耀@@ 26
聚@@ 26
著@@ 26
蜜@@ 26
覺 26
语@@ 26
質 26
贊 26
走 26
趙 26
阮 26
霜 26
顺 26
食 26
魯 26
ꪙ 26
문 26
북@@ 26
오 26
임@@ 26
있@@ 26
차 26
충@@ 26
효@@ 26
️ 26
14. 25
ABD 25
Auf 25
Ces 25
Dans 25
Durch@@ 25
acto 25
aliza 25
einz@@ 25
eneo 25
franç@@ 25
mise 25
ohne 25
ológ@@ 25
wana@@ 25
ßer@@ 25
était 25
Œ@@ 25
Ŭ@@ 25
ɜ@@ 25
Η@@ 25
Υ 25
αί@@ 25
ικός 25
τερ@@ 25
τρ@@ 25
υ 25
Бело@@ 25
Е 25
Л 25
Лу@@ 25
Север@@ 25
ды@@ 25
клю@@ 25
лек@@ 25
мо 25
нин 25
она@@ 25
рон@@ 25
стра@@ 25
цион@@ 25
цо@@ 25
чи 25
чу@@ 25
ի 25
վ@@ 25
ו 25
ח 25
ات 25
ث@@ 25
ذ@@ 25
شا@@ 25
مر@@ 25
अ@@ 25
ङ 25
द@@ 25
พ 25
พร@@ 25
หม@@ 25
อุ@@ 25
เช@@ 25
เด 25
ให@@ 25
ດ@@ 25
ຣ@@ 25
ວ 25
អ@@ 25
Ṭ@@ 25
ắ 25
∧ 25
ぐ@@ 25
两@@ 25
了 25
佘 25
兆@@ 25
兴 25
占@@ 25
厂 25
向 25
哥@@ 25
坂 25
复@@ 25
夕@@ 25
夜 25
奥 25
嬴@@ 25
守 25
帥 25
报 25
探@@ 25
攝@@ 25
斛@@ 25
日本 25
柔 25
柱@@ 25
梨@@ 25
極 25
湾@@ 25
澄@@ 25
犬@@ 25
瓊@@ 25
申 25
病@@ 25
県 25
碩 25
禪 25
第二@@ 25
肇 25
胤 25
膺@@ 25
臺 25
萧@@ 25
術@@ 25
裁 25
補@@ 25
調@@ 25
護 25
诗 25
賀 25
辯 25
边@@ 25
運 25
邓@@ 25
鄴@@ 25
銃 25
钱@@ 25
陶 25
震@@ 25
類@@ 25
顧@@ 25
首 25
鸡@@ 25
간@@ 25
경 25
단 25
를 25
봉 25
야@@ 25
와 25
월 25
13. 24
Bei 24
Cuando 24
Irel@@ 24
Jahre 24
alista 24
dı 24
einem 24
enfants 24
entw@@ 24
haa 24
jours 24
linal@@ 24
nje 24
pequ@@ 24
primer 24
rün@@ 24
setz@@ 24
stellung 24
tiene 24
uwe@@ 24
Ő@@ 24
œuvre 24
ɾ 24
ʹ@@ 24
άλ@@ 24
έλ@@ 24
κος 24
λα@@ 24
πι@@ 24
πο@@ 24
σκ@@ 24
τα 24
όβ@@ 24
бе 24
бы@@ 24
вод@@ 24
гра@@ 24
град 24
итель 24
йский 24
ком@@ 24
лё@@ 24
ники 24
пер@@ 24
слав 24
ф 24
хот@@ 24
чен@@ 24
љ@@ 24
ׂ@@ 24
اد@@ 24
الأ@@ 24
حسن 24
لو@@ 24
مو@@ 24
ند@@ 24
श 24
़ 24
ল@@ 24
คร@@ 24
ซ@@ 24
ตา@@ 24
บาง@@ 24
บุรี 24
าน 24
เว@@ 24
ប 24
៉ 24
ṓ@@ 24
ṯ@@ 24
ặ 24
Ọ 24
ἰ@@ 24
∂ 24
♠ 24
び 24
へ@@ 24
ゾ@@ 24
ニ 24
丈@@ 24
从@@ 24
伝 24
别@@ 24
动 24
勉 24
匿@@ 24
卷@@ 24
吳 24
商 24
啟@@ 24
嚴 24
增@@ 24
姐 24
委员会 24
寿 24
巖 24
序 24
店 24
庭 24
廉@@ 24
彩@@ 24
忘@@ 24
恋 24
悟@@ 24
拜@@ 24
札@@ 24
术@@ 24
条 24
楼@@ 24
欽 24
渡 24
炎 24
版 24
琪 24
環 24
環@@ 24
盤@@ 24
祜@@ 24
稽 24
約@@ 24
聞 24
聯@@ 24
舞 24
艺@@ 24
苍@@ 24
虞 24
解 24
詞 24
贤@@ 24
輿@@ 24
车@@ 24
远 24
述@@ 24
退@@ 24
逢@@ 24
逸 24
郝@@ 24
醉@@ 24
錫 24
阴@@ 24
隱 24
韶 24
頃@@ 24
鳥 24
鶴 24
麽@@ 24
鼓@@ 24
齋@@ 24
건 24
루 24
소 24
실@@ 24
양 24
하 24
헌@@ 24
환@@ 24
회@@ 24
Esta 23
Mit 23
Osmanlı 23
ajes 23
avoir 23
coup 23
deutschen 23
diğ@@ 23
ecek 23
emein@@ 23
fäl@@ 23
kila 23
orta@@ 23
parte 23
pays 23
schnit@@ 23
sır@@ 23
tä@@ 23
undan 23
woh@@ 23
äß@@ 23
èmes 23
üçük 23
Ĩ 23
ɴ 23
̩ 23
Ά@@ 23
Β 23
εύ@@ 23
θη@@ 23
νη 23
ώ@@ 23
Бер@@ 23
Вер@@ 23
Жи@@ 23
Кра@@ 23
Ча@@ 23
ак@@ 23
вен@@ 23
воз@@ 23
гар@@ 23
генерал 23
имени 23
кру@@ 23
мит@@ 23
над@@ 23
рис 23
ры 23
тин 23
тре@@ 23
тя@@ 23
фо@@ 23
щ@@ 23
ёр@@ 23
ַ 23
اد 23
الق@@ 23
الن@@ 23
ای@@ 23
वि@@ 23
ে@@ 23
ங 23
வ@@ 23
กา@@ 23
ชา@@ 23
ตร@@ 23
ทร@@ 23
ะ 23
ู@@ 23
เจ@@ 23
ไท@@ 23
ီ@@ 23
ច@@ 23
Ỏ 23
Ỏ@@ 23
ῥ@@ 23
₱ 23
↓ 23
々@@ 23
ざ@@ 23
ず 23
や 23
ろ 23
ㅇ 23
ㅡ@@ 23
丞 23
乘 23
亮@@ 23
仰@@ 23
伍@@ 23
伟@@ 23
体 23
俗@@ 23
俞@@ 23
傅 23
冰@@ 23
冲@@ 23
剣@@ 23
勃@@ 23
勢@@ 23
吹@@ 23
員 23
喬 23
器 23
器@@ 23
址 23
均 23
報@@ 23
塘 23
壁@@ 23
奉 23
奥@@ 23
妻 23
姑 23
宪@@ 23
屏@@ 23
岭@@ 23
岸@@ 23
帖@@ 23
廖@@ 23
張 23
形 23
按@@ 23
旨 23
旺@@ 23
昊 23
晟 23
曼 23
桐 23
歲@@ 23
滑@@ 23
滨@@ 23
版@@ 23
牟@@ 23
牧@@ 23
璠 23
画@@ 23
留 23
畢@@ 23
異 23
筆@@ 23
算@@ 23
絶@@ 23
緣@@ 23
继@@ 23
舟@@ 23
荣 23
藥@@ 23
虛@@ 23
蠻 23
譚 23
诺@@ 23
遂 23
錫@@ 23
魏 23
黄 23
ꪱ 23
등@@ 23
디@@ 23
무 23
별@@ 23
열@@ 23
유 23
채@@ 23
15. 22
arriv@@ 22
edrich 22
fue 22
gran 22
historia 22
imeh@@ 22
laş@@ 22
lichkeit 22
ließ 22
lise 22
llam@@ 22
lte 22
ografía 22
osos 22
pili 22
politique 22
respons@@ 22
Ã@@ 22
änge 22
şir@@ 22
̥ 22
Γ 22
Ζ@@ 22
Π 22
ασ@@ 22
θε@@ 22
μος 22
οπ@@ 22
οχ@@ 22
παρ@@ 22
авиа@@ 22
ван@@ 22
вы 22
вых 22
ган@@ 22
им 22
лин 22
мия 22
народ@@ 22
нови@@ 22
обо@@ 22
прав@@ 22
ских 22
стиче@@ 22
тра@@ 22
че 22
чка 22
կ@@ 22
السلام 22
الك@@ 22
لل@@ 22
مط@@ 22
ور@@ 22
ِ@@ 22
ग@@ 22
ন 22
ன 22
ทร 22
รร@@ 22
ระ@@ 22
รัก 22
ลำ@@ 22
อก@@ 22
ำ 22
ຂ@@ 22
າ 22
ག 22
བ 22
ქ@@ 22
រ 22
ល 22
ី@@ 22
ṭ 22
※ 22
♪ 22
ゃ 22
を 22
ゥ 22
サ 22
专@@ 22
于 22
产@@ 22
住 22
何 22
佩@@ 22
個@@ 22
偃 22
儒@@ 22
加 22
勐@@ 22
升@@ 22
卓 22
参 22
启@@ 22
塞 22
墓 22
婕@@ 22
寅 22
寬 22
尙@@ 22
履@@ 22
岩 22
嵩 22
帥@@ 22
幹 22
座 22
庵@@ 22
庸 22
律 22
得 22
御 22
悟 22
想 22
抚@@ 22
护@@ 22
播 22
救@@ 22
昇@@ 22
易 22
晋 22
晓@@ 22
普 22
暴@@ 22
杂@@ 22
杉@@ 22
杭@@ 22
柯@@ 22
桂 22
梵@@ 22
楷 22
様 22
欢@@ 22
歷@@ 22
歸 22
汉 22
淸@@ 22
為 22
狂@@ 22
狄@@ 22
瑛 22
畫 22
碑 22
祁@@ 22
禧 22
稱 22
站 22
系 22
織@@ 22
约 22
结@@ 22
聲 22
胜@@ 22
舒 22
节@@ 22
薄@@ 22
藩 22
装@@ 22
裏@@ 22
詠@@ 22
變@@ 22
質@@ 22
贺@@ 22
農 22
過 22
鄭 22
釋@@ 22
鉄@@ 22
鐘@@ 22
降@@ 22
雞@@ 22
項@@ 22
领 22
鮑@@ 22
鮮 22
鳳 22
간 22
니 22
단@@ 22
데@@ 22
말 22
목@@ 22
보 22
속@@ 22
애@@ 22
월@@ 22
준 22
통@@ 22
💰 22
Japon 21
allem 21
alten 21
année 21
après 21
dür@@ 21
enek@@ 21
istre 21
klär@@ 21
mch@@ 21
menos 21
munici@@ 21
nord 21
ología 21
pein@@ 21
personn@@ 21
quatre 21
spéci@@ 21
uncu 21
zuri 21
États 21
ämp@@ 21
ĝ@@ 21
ĭ 21
ĭ@@ 21
œ 21
ǫ@@ 21
ʋ@@ 21
ʲ 21
ˤ@@ 21
̱ 21
Θε@@ 21
ίλ@@ 21
κύ@@ 21
ς@@ 21
χος 21
Боль@@ 21
Лю@@ 21
Пи@@ 21
ева 21
кан@@ 21
коми@@ 21
нам 21
пар@@ 21
публики 21
рас@@ 21
ста 21
тар@@ 21
тив@@ 21
ход@@ 21
шо@@ 21
ье 21
ён@@ 21
ֹ 21
با@@ 21
ح 21
ز 21
ف 21
لا@@ 21
مح@@ 21
ْ@@ 21
ु 21
ல@@ 21
ி 21
್ 21
് 21
ර@@ 21
หล@@ 21
อน@@ 21
ัน 21
เด@@ 21
ခ@@ 21
გ@@ 21
ἔ@@ 21
さ 21
ダ 21
ハ 21
モ 21
且@@ 21
世界 21
争 21
伐 21
似@@ 21
佳 21
依 21
允 21
兆 21
兗@@ 21
兰 21
冰 21
千 21
午 21
叡 21
唱 21
啟 21
垣@@ 21
境@@ 21
夢 21
奴@@ 21
奶@@ 21
妖@@ 21
妹 21
察 21
屯 21
岡 21
岱 21
崎 21
巖@@ 21
弓@@ 21
弥@@ 21
徒 21
怪 21
断@@ 21
更@@ 21
朕@@ 21
案@@ 21
條@@ 21
槍 21
歡@@ 21
歲 21
段 21
気@@ 21
汾@@ 21
沖 21
洵 21
瀬@@ 21
炳@@ 21
狄 21
獅@@ 21
琮 21
瑜 21
瑜@@ 21
瑶@@ 21
瓊 21
疆@@ 21
瞿@@ 21
竜@@ 21
符 21
素 21
絵 21
綠@@ 21
羌 21
群 21
羲 21
育 21
芝 21
苦@@ 21
蓋@@ 21
蓮 21
號@@ 21
衍 21
調 21
證@@ 21
識 21
議 21
讀@@ 21
调@@ 21
載 21
辉 21
辣@@ 21
进@@ 21
逆@@ 21
遇 21
錢 21
閱@@ 21
隨@@ 21
雞 21
露 21
顾@@ 21
飛 21
駒 21
駱@@ 21
군@@ 21
래@@ 21
미 21
버@@ 21
손@@ 21
여 21
초@@ 21
터@@ 21
프@@ 21
＼ 21
Gruppe 20
Rück@@ 20
biri 20
böl@@ 20
deven@@ 20
diği 20
dü 20
ennent 20
gleich@@ 20
gün@@ 20
ités 20
keş@@ 20
kte 20
kı@@ 20
malar@@ 20
mış 20
provincia 20
restaur@@ 20
río 20
ustos 20
zeit@@ 20
ßen@@ 20
ército 20
üy@@ 20
Ġ@@ 20
Ī@@ 20
Ń@@ 20
ɡ 20
ɲ 20
ʿ 20
άσ@@ 20
ίδ@@ 20
αθ@@ 20
ιος 20
ισ@@ 20
λογ@@ 20
ομ@@ 20
σία 20
τι@@ 20
του 20
υπ@@ 20
χρ@@ 20
ων@@ 20
На 20
Сте@@ 20
Фе@@ 20
Х 20
Ша@@ 20
бал@@ 20
бъ@@ 20
дру@@ 20
ду 20
из 20
или 20
институ@@ 20
лы 20
миро@@ 20
нии 20
ников 20
поэ@@ 20
пре@@ 20
сп@@ 20
спо@@ 20
ся 20
тро@@ 20
тру@@ 20
ческий 20
ך 20
ק 20
خال@@ 20
دي 20
ست@@ 20
ستان 20
لي 20
مان 20
نا 20
وا@@ 20
ध@@ 20
मे@@ 20
ल 20
व 20
ক@@ 20
ம 20
ய@@ 20
ා@@ 20
ි@@ 20
ු@@ 20
บา@@ 20
ลง@@ 20
อา@@ 20
ึ 20
ຄ@@ 20
ົ 20
ဆ@@ 20
Ẓ@@ 20
∅ 20
∪ 20
├ 20
△ 20
ぞ@@ 20
ケ 20
七 20
予@@ 20
倍@@ 20
偏@@ 20
像@@ 20
冊@@ 20
写@@ 20
冠 20
匹@@ 20
协@@ 20
危@@ 20
坤 20
堅@@ 20
堪 20
奈 20
娥@@ 20
婆 20
实@@ 20
対@@ 20
局@@ 20
峨@@ 20
巻@@ 20
席@@ 20
廷 20
從 20
循 20
怒@@ 20
戒@@ 20
戲@@ 20
撒@@ 20
敖 20
數@@ 20
昶 20
晏 20
曜@@ 20
曼@@ 20
朔@@ 20
树@@ 20
榆@@ 20
歡 20
止 20
潜@@ 20
燈@@ 20
璘 20
由 20
百 20
睦@@ 20
祭 20
禄@@ 20
程 20
穎 20
籍 20
糖@@ 20
組 20
级 20
罗 20
肉 20
肥@@ 20
艾@@ 20
芙@@ 20
荷@@ 20
莲@@ 20
菜@@ 20
蔵 20
融@@ 20
裔 20
製@@ 20
誨 20
諒 20
軽@@ 20
辛 20
还@@ 20
造 20
遷 20
邢@@ 20
鄉 20
闘@@ 20
陰 20
韜 20
頌 20
額@@ 20
願@@ 20
风 20
魔 20
님 20
러@@ 20
마 20
말@@ 20
석@@ 20
육@@ 20
좋@@ 20
추@@ 20
카@@ 20
학 20
17. 19
amente 19
beit 19
cargo 19
ellos 19
entras 19
erung 19
fiz@@ 19
fte 19
ganda 19
interpret@@ 19
nuevo 19
oblig@@ 19
parti 19
régi@@ 19
sü@@ 19
utiliz@@ 19
wenda 19
wilaya 19
äre 19
äu@@ 19
œuv@@ 19
άς 19
ίν@@ 19
εί@@ 19
εν@@ 19
ευ@@ 19
μβ@@ 19
ογ@@ 19
οδ@@ 19
ορ@@ 19
ργ@@ 19
ών 19
Бал@@ 19
Кур@@ 19
Сто@@ 19
бо 19
дан 19
дви@@ 19
дра@@ 19
кре@@ 19
лан@@ 19
лина 19
мя@@ 19
нем@@ 19
нина 19
образ@@ 19
река 19
сан@@ 19
тов@@ 19
хан@@ 19
чный 19
чь 19
шен@@ 19
щен@@ 19
ђ@@ 19
ս@@ 19
است@@ 19
ام 19
في 19
ما@@ 19
وب@@ 19
ود 19
ير 19
ः 19
आ@@ 19
मा@@ 19
वा 19
सु@@ 19
กระ@@ 19
ธิ@@ 19
รี@@ 19
ลิ@@ 19
อย 19
ัย@@ 19
๊ 19
က 19
ူ@@ 19
ფ@@ 19
ხ@@ 19
ង@@ 19
ំ 19
ẩ 19
Ỉ@@ 19
ギ 19
ョ 19
乾 19
份@@ 19
伝@@ 19
便@@ 19
俠@@ 19
偵@@ 19
入 19
凝@@ 19
出 19
创@@ 19
剑@@ 19
剧 19
劇 19
勿@@ 19
卦 19
参@@ 19
呼 19
咸 19
品 19
坝 19
城市 19
堯@@ 19
奎 19
奏@@ 19
婁@@ 19
婦 19
宋 19
宜 19
実@@ 19
宪 19
宰 19
宰@@ 19
展@@ 19
岑@@ 19
峻 19
嵩@@ 19
嶼 19
左 19
差@@ 19
希 19
帛@@ 19
広@@ 19
廟@@ 19
彝 19
往@@ 19
復 19
懋@@ 19
操 19
敢@@ 19
料@@ 19
施 19
染@@ 19
條 19
棠 19
楨 19
欲@@ 19
止@@ 19
毗@@ 19
毛 19
氣@@ 19
沛@@ 19
注 19
灘 19
焼@@ 19
爭@@ 19
爱 19
牒@@ 19
璽 19
监@@ 19
眞@@ 19
眼 19
砲 19
离@@ 19
称@@ 19
稽@@ 19
粉@@ 19
系@@ 19
緒 19
翎 19
肉@@ 19
與 19
芸@@ 19
虔 19
訓@@ 19
說 19
誰@@ 19
諒@@ 19
謀@@ 19
貢@@ 19
費@@ 19
质@@ 19
述 19
遵@@ 19
酉@@ 19
醫@@ 19
量@@ 19
釐@@ 19
铜@@ 19
開 19
閭@@ 19
隋@@ 19
階 19
離 19
霜@@ 19
靑@@ 19
餘 19
鹤@@ 19
麦@@ 19
麻 19
鼓 19
龜@@ 19
네@@ 19
백 19
운 19
춘@@ 19
허@@ 19
／ 19
Amerik@@ 18
Gemeinde 18
Proz@@ 18
Sie 18
aldı 18
arbeit@@ 18
cette 18
comme 18
crit 18
cuar@@ 18
culo 18
daha 18
elten 18
emaji 18
emble 18
fut 18
gén@@ 18
inté@@ 18
kazi 18
kendi 18
kıy@@ 18
leich 18
oeste 18
ográ@@ 18
partie 18
seph 18
sión 18
tanto 18
tiem@@ 18
¤ 18
µ 18
Ì 18
änder@@ 18
þ 18
Ĩ@@ 18
ű 18
Νικ@@ 18
ίγ@@ 18
δι@@ 18
ην@@ 18
με@@ 18
ρά@@ 18
ως 18
όλ@@ 18
Вла@@ 18
Геор@@ 18
Ди@@ 18
Кара@@ 18
Кор@@ 18
ад@@ 18
арти@@ 18
вин@@ 18
вол@@ 18
гате@@ 18
ги 18
город 18
для 18
зар@@ 18
зем@@ 18
ление 18
лия 18
мат@@ 18
ника 18
оло@@ 18
тор@@ 18
три@@ 18
хи 18
є@@ 18
اة 18
اني 18
بل@@ 18
سع@@ 18
ع 18
عبد@@ 18
مث@@ 18
مل@@ 18
من@@ 18
وال@@ 18
يم 18
ُ@@ 18
ܐ 18
ट 18
निर 18
सं@@ 18
सत 18
ட@@ 18
ක@@ 18
ම@@ 18
มิ@@ 18
มี@@ 18
ฤ@@ 18
อง 18
อน 18
อม@@ 18
ัย 18
ມ 18
ີ@@ 18
ູ@@ 18
ຽ@@ 18
ტ@@ 18
ះ@@ 18
ṛ 18
だ 18
も 18
业 18
侃 18
俠 18
創@@ 18
卡@@ 18
卢@@ 18
及 18
坊@@ 18
奧@@ 18
娄@@ 18
孚 18
寇@@ 18
岐 18
巢@@ 18
巾@@ 18
库@@ 18
弼@@ 18
彦 18
彬 18
循@@ 18
微 18
念 18
恵@@ 18
戶@@ 18
推@@ 18
揚 18
旺 18
是 18
昱 18
板@@ 18
樞 18
檢@@ 18
欧@@ 18
步 18
毒 18
求 18
沉@@ 18
沐@@ 18
湯 18
湯@@ 18
演 18
澳@@ 18
灣 18
炎@@ 18
炮 18
爆@@ 18
爪 18
牡@@ 18
犀@@ 18
狼 18
玛@@ 18
环@@ 18
琅@@ 18
琦 18
番 18
病 18
盖@@ 18
矩 18
示@@ 18
禁 18
穿@@ 18
竜 18
筠 18
範@@ 18
精 18
維 18
统@@ 18
習 18
腾@@ 18
苑 18
蕃 18
虚@@ 18
虹@@ 18
訶@@ 18
話@@ 18
談 18
請@@ 18
论 18
说@@ 18
豆 18
豪 18
迪@@ 18
選@@ 18
配@@ 18
采@@ 18
銀 18
鐸 18
铁路 18
锡@@ 18
阪@@ 18
隴@@ 18
雒@@ 18
露@@ 18
靈 18
颜 18
麵 18
齐 18
ꪉ 18
계 18
권 18
남 18
녀 18
당@@ 18
럼 18
명 18
빈@@ 18
식 18
씨@@ 18
점 18
토@@ 18
포@@ 18
향@@ 18
형 18
후@@ 18
Juni 17
Kirche 17
Unidos 17
Unternehmen 17
denomin@@ 17
durch 17
déf@@ 17
gelen 17
linois 17
mejor 17
mittel@@ 17
miş 17
même 17
nouvelle 17
ordu 17
oyuncu 17
première 17
schaft@@ 17
tete 17
très 17
unzi 17
yake 17
Õ@@ 17
écn@@ 17
ünst@@ 17
Ď@@ 17
Ē@@ 17
ɣ 17
ɦ@@ 17
ʤ@@ 17
ʾ 17
̂ 17
Υ@@ 17
άγ@@ 17
ίας 17
εια 17
και 17
λόγ@@ 17
σπ@@ 17
τα@@ 17
τός 17
Ад@@ 17
Из@@ 17
Кар@@ 17
Кри@@ 17
Тур@@ 17
Ю 17
авто@@ 17
бар@@ 17
бер@@ 17
дин 17
ец 17
льная 17
най@@ 17
нау@@ 17
побе@@ 17
рина 17
рова@@ 17
рё@@ 17
стан@@ 17
сы@@ 17
техниче@@ 17
тран@@ 17
тур@@ 17
уч@@ 17
фло@@ 17
ят 17
ј 17
Ң@@ 17
մ@@ 17
ז 17
اب 17
الف@@ 17
بة 17
سيا 17
فة 17
مع 17
ک 17
ܝ@@ 17
का@@ 17
ता@@ 17
पा@@ 17
ली 17
হ@@ 17
ை 17
จิ@@ 17
ดา@@ 17
ดี 17
ที 17
ผ 17
ဖ@@ 17
မ 17
ဟ@@ 17
ံ@@ 17
კ@@ 17
ო 17
ខ@@ 17
Ẹ@@ 17
ὑ@@ 17
ὰ 17
ὸ@@ 17
○ 17
♣ 17
〈 17
〉 17
ば 17
べ@@ 17
ヤ 17
丕 17
丕@@ 17
久 17
亜@@ 17
仇@@ 17
仔 17
作 17
像 17
儉 17
养@@ 17
凰@@ 17
去 17
各@@ 17
坝@@ 17
坡 17
堯 17
声 17
央 17
契@@ 17
奔@@ 17
妤 17
始 17
娣 17
媽@@ 17
宾@@ 17
寄@@ 17
導@@ 17
岗@@ 17
席 17
库 17
店@@ 17
庫 17
弗 17
弦 17
强 17
徵 17
忌 17
怡 17
恵 17
戒 17
投@@ 17
撫@@ 17
攘@@ 17
攸 17
攸@@ 17
敕@@ 17
斷@@ 17
既@@ 17
昀 17
昂@@ 17
昔@@ 17
映@@ 17
晏@@ 17
晚@@ 17
曆 17
术 17
枝 17
汤@@ 17
沒@@ 17
泗@@ 17
泥@@ 17
派@@ 17
济 17
涅@@ 17
混@@ 17
潭 17
潮 17
瀛@@ 17
熱@@ 17
猫 17
珊 17
琛 17
琰 17
璧 17
甜@@ 17
町@@ 17
盐@@ 17
礁 17
祜 17
祠 17
祺@@ 17
簾@@ 17
紅 17
續@@ 17
绵@@ 17
罪@@ 17
耀 17
范 17
荆@@ 17
著 17
葛 17
蔵@@ 17
藻 17
蘇 17
計 17
豫 17
賞 17
过@@ 17
遇@@ 17
選 17
邊 17
郢@@ 17
量 17
陛@@ 17
雀 17
霖 17
革 17
願 17
顥 17
魂 17
麥@@ 17
귀@@ 17
녀@@ 17
들@@ 17
벌 17
별 17
병@@ 17
봉@@ 17
생 17
설@@ 17
숙@@ 17
십@@ 17
역 17
을@@ 17
음@@ 17
치 17
트@@ 17
amoja 16
aße 16
biet 16
ensemble 16
eği 16
gab 16
gegen@@ 16
guerra 16
icklung 16
iert 16
ihe 16
ihr@@ 16
install@@ 16
lés 16
oría 16
où 16
result@@ 16
returned 16
sız 16
trag 16
umika 16
vuel@@ 16
Æ 16
Õ 16
über@@ 16
ÿ@@ 16
Ž 16
ƣ@@ 16
ˁ@@ 16
Δι@@ 16
κά@@ 16
μι@@ 16
ου 16
ρε@@ 16
τέ@@ 16
φαν@@ 16
Бар@@ 16
З 16
Ман@@ 16
Под@@ 16
Це@@ 16
ати@@ 16
бро@@ 16
вица 16
все 16
все@@ 16
ген@@ 16
дор 16
ем@@ 16
итель@@ 16
ку 16
къ@@ 16
ность 16
под@@ 16
рен@@ 16
тер@@ 16
тия 16
ун@@ 16
фа@@ 16
ца@@ 16
чо@@ 16
ёт@@ 16
ћ@@ 16
ў@@ 16
الإ@@ 16
بن@@ 16
تا@@ 16
جن@@ 16
سل@@ 16
عمر 16
فر@@ 16
می@@ 16
ولي 16
وم@@ 16
ّ@@ 16
ھ@@ 16
ަ@@ 16
कु@@ 16
ग 16
ज 16
ण 16
ा 16
ు@@ 16
กล@@ 16
คุ@@ 16
ดิ 16
ทิ@@ 16
ภา@@ 16
ภู@@ 16
มหาวิทยาล@@ 16
วง 16
อร 16
าย 16
ิน 16
เบ@@ 16
แส@@ 16
ຍ 16
ຕ@@ 16
ຳ@@ 16
ླ@@ 16
ည 16
ဘ@@ 16
ဝ@@ 16
ខ 16
ញ 16
ធ@@ 16
Ẻ@@ 16
Ể 16
Ừ@@ 16
Ἄ@@ 16
♡ 16
ⵉ@@ 16
ヒ 16
万 16
不 16
乂 16
亡@@ 16
仕@@ 16
仪 16
伊 16
伐@@ 16
伟 16
伦 16
伽 16
候@@ 16
倭 16
冥@@ 16
助@@ 16
吏@@ 16
啓@@ 16
喬@@ 16
均@@ 16
坐@@ 16
塵@@ 16
墨 16
変@@ 16
姫@@ 16
嬌 16
寅@@ 16
富 16
寒 16
屬@@ 16
峡 16
巻 16
座@@ 16
开 16
惡@@ 16
或@@ 16
授@@ 16
排@@ 16
改 16
政府 16
旨@@ 16
杏@@ 16
梧@@ 16
残@@ 16
氣 16
沃@@ 16
泥 16
泽 16
消@@ 16
済@@ 16
渾@@ 16
滅@@ 16
滿 16
濬 16
烧@@ 16
燃@@ 16
片 16
琉@@ 16
瑪@@ 16
瓘 16
發 16
盆@@ 16
盘@@ 16
眉@@ 16
磁@@ 16
磨 16
禹 16
禹@@ 16
稜 16
笑 16
米 16
納 16
紫 16
編@@ 16
羌@@ 16
翔 16
背@@ 16
胜 16
脩 16
臧@@ 16
芬 16
荘@@ 16
蒋@@ 16
蜀 16
裂 16
计@@ 16
財@@ 16
賊@@ 16
賜 16
贈@@ 16
贡@@ 16
赞@@ 16
跨@@ 16
輪 16
遜 16
邦 16
鈕@@ 16
闵@@ 16
靳@@ 16
響@@ 16
頂@@ 16
頤 16
馨 16
魂@@ 16
默@@ 16
감 16
개 16
과 16
교@@ 16
길@@ 16
너 16
령 16
루@@ 16
릉 16
막@@ 16
밥 16
숭@@ 16
악@@ 16
역@@ 16
온@@ 16
용 16
재 16
직@@ 16
차@@ 16
친@@ 16
코@@ 16
크@@ 16
터 16
티@@ 16
풍@@ 16
합@@ 16
헌 16
훈 16
ailleurs 15
britanni@@ 15
ekana 15
environ 15
escrit@@ 15
europé@@ 15
fonc@@ 15
ikali 15
nete 15
otras 15
pitia 15
preu@@ 15
pueblo 15
selb@@ 15
también 15
toda 15
todo 15
wird 15
wür@@ 15
église 15
üncü 15
ǚ 15
ʎ@@ 15
ʷ 15
˩ 15
̆ 15
΄ 15
Αν@@ 15
άμ@@ 15
ανδ@@ 15
αστ@@ 15
δρ@@ 15
κυ@@ 15
μφ@@ 15
υρ@@ 15
ό 15
Мак@@ 15
Мон@@ 15
Пар@@ 15
Федера@@ 15
Ц 15
бли@@ 15
бри@@ 15
ван 15
вина 15
гим@@ 15
горо@@ 15
град@@ 15
гре@@ 15
два 15
зер@@ 15
зу@@ 15
йна 15
кой 15
кт 15
ктор 15
лена 15
ме 15
нен@@ 15
нер@@ 15
ок@@ 15
поли@@ 15
при 15
риа@@ 15
соб@@ 15
уни@@ 15
фа 15
чат 15
ён 15
Հ@@ 15
գ@@ 15
أبو 15
اس 15
الص@@ 15
العربية 15
برا@@ 15
خان 15
سر@@ 15
سلطان 15
مج@@ 15
مه@@ 15
مي 15
نا@@ 15
ني 15
ध 15
ने@@ 15
वर 15
ष 15
ो 15
॥ 15
দ@@ 15
স@@ 15
ਾ@@ 15
க 15
ண@@ 15
ர 15
ా@@ 15
్ 15
ಾ@@ 15
ಿ 15
ත@@ 15
จุ@@ 15
ตร 15
ถ 15
ถ@@ 15
นา 15
วัฒ@@ 15
ศัก@@ 15
อม 15
ันท@@ 15
เล 15
เล@@ 15
ຸ@@ 15
ແ@@ 15
ཏ@@ 15
ྐ@@ 15
ု 15
ე 15
አ@@ 15
ព 15
ᠨ 15
ḗ 15
ṣ 15
ẳ 15
Ẹ 15
ᾶ@@ 15
へ 15
ベ 15
ワ 15
ヶ@@ 15
ㅡ 15
中國 15
什 15
介@@ 15
仔@@ 15
余 15
例 15
偶@@ 15
具@@ 15
冊 15
册@@ 15
凰 15
则@@ 15
勃 15
单@@ 15
卯 15
叉 15
吏 15
吧 15
哉 15
唯@@ 15
圆@@ 15
坦@@ 15
处 15
妻@@ 15
孟 15
宅@@ 15
宙@@ 15
宴 15
射 15
尤@@ 15
峡@@ 15
崖 15
巾 15
帶@@ 15
帽 15
弋@@ 15
弓 15
弾 15
归@@ 15
急@@ 15
恒 15
懷 15
戸 15
押@@ 15
拂@@ 15
招@@ 15
拜 15
拾@@ 15
斑@@ 15
昏@@ 15
晴@@ 15
曆@@ 15
机 15
杉 15
桃 15
汗@@ 15
沂@@ 15
沟 15
沟@@ 15
游 15
渾 15
準 15
準@@ 15
潤 15
灰@@ 15
無 15
爭 15
牢@@ 15
猶@@ 15
琬 15
瑀 15
瓌 15
產@@ 15
甥 15
盟@@ 15
盧 15
秩@@ 15
移@@ 15
種 15
竺@@ 15
箏 15
篤@@ 15
粹@@ 15
索 15
結 15
纪 15
绥@@ 15
肖@@ 15
脂@@ 15
腐 15
臥@@ 15
芈@@ 15
芦@@ 15
苗 15
茹@@ 15
莽@@ 15
菊 15
蓉@@ 15
蔻 15
蛮 15
衙@@ 15
衡@@ 15
詔@@ 15
説 15
謨 15
謹 15
诚 15
谦 15
谭@@ 15
貫 15
賊 15
赫 15
逵 15
遵 15
録 15
钦@@ 15
间@@ 15
阁 15
阎@@ 15
静 15
鞍@@ 15
飞 15
馆@@ 15
鸿@@ 15
黔@@ 15
點@@ 15
龄 15
龔@@ 15
ꞗ 15
권@@ 15
극@@ 15
년 15
더@@ 15
돌 15
두 15
람 15
르@@ 15
매@@ 15
번@@ 15
복 15
브@@ 15
식@@ 15
심@@ 15
없@@ 15
울 15
철@@ 15
총@@ 15
투@@ 15
･ 15
16. 14
cambi@@ 14
descri@@ 14
endung 14
español 14
finale 14
hili 14
ihm 14
inaug@@ 14
jiji 14
moja 14
mpi@@ 14
ocup@@ 14
realiz@@ 14
sehen 14
seine 14
singi 14
soit 14
todos 14
travail 14
wegen 14
 14
äuf@@ 14
équi@@ 14
Ś 14
şek@@ 14
̦ 14
Ε 14
αμ@@ 14
γι@@ 14
ει 14
ιλ@@ 14
λί@@ 14
μαν@@ 14
μν@@ 14
ριστ@@ 14
τη 14
τη@@ 14
φέρ@@ 14
ώ 14
Вар@@ 14
Все@@ 14
Петер@@ 14
Раз@@ 14
Роди@@ 14
актив@@ 14
ари 14
ате@@ 14
вед@@ 14
вез@@ 14
дат 14
дов 14
др 14
жение 14
ите 14
лет@@ 14
льное 14
любо@@ 14
май@@ 14
мм 14
мя 14
нан@@ 14
нато@@ 14
ну 14
па 14
пове@@ 14
рев@@ 14
рес@@ 14
ря 14
санд@@ 14
сен@@ 14
смер@@ 14
совет@@ 14
сть@@ 14
чев 14
чер@@ 14
ше 14
шта@@ 14
ър 14
ё 14
Ս@@ 14
ր 14
ג 14
ף 14
اء 14
ارة 14
افغانستان 14
الر@@ 14
الز@@ 14
بی@@ 14
تر@@ 14
تي@@ 14
دة 14
در@@ 14
رب 14
زي@@ 14
مار@@ 14
مة 14
نة 14
ज@@ 14
श@@ 14
सि@@ 14
ह 14
গ@@ 14
ద@@ 14
ප@@ 14
ල@@ 14
กุล 14
ฟ@@ 14
ราม 14
หลวง 14
ัก@@ 14
เทศ@@ 14
ກ 14
ན@@ 14
ྟ@@ 14
စ 14
တ 14
ზ@@ 14
ដ@@ 14
ណ 14
ᠡ@@ 14
Ἑ@@ 14
ἱ@@ 14
Ὑ@@ 14
ὴ@@ 14
∑ 14
⊂ 14
⊙ 14
ぽ@@ 14
ゅ 14
中国 14
丽 14
乃 14
乳@@ 14
亥 14
兀@@ 14
兄 14
免 14
內 14
凡@@ 14
刊 14
刚 14
劉 14
勍 14
卫 14
卿@@ 14
反 14
取 14
可 14
含@@ 14
告@@ 14
味@@ 14
喇 14
圍@@ 14
團@@ 14
堤 14
壁 14
壇 14
壹@@ 14
备@@ 14
奎@@ 14
妄@@ 14
姐@@ 14
娜 14
娱@@ 14
嫁 14
嫁@@ 14
孙 14
孛@@ 14
宛@@ 14
審 14
導 14
岁@@ 14
峪 14
幸 14
广 14
惑@@ 14
憶 14
戏@@ 14
户@@ 14
抱@@ 14
拔 14
掌 14
接@@ 14
控@@ 14
揮@@ 14
收@@ 14
放 14
敷@@ 14
斋 14
昂 14
晶@@ 14
曜 14
权@@ 14
杏 14
杰@@ 14
桓 14
档 14
楞@@ 14
槃@@ 14
橫@@ 14
檀 14
比 14
汴@@ 14
沈 14
没@@ 14
沢 14
注@@ 14
洗@@ 14
浚 14
淡@@ 14
渠 14
湘 14
湣@@ 14
溝 14
滄@@ 14
漫 14
漳@@ 14
潤@@ 14
瀬 14
焉@@ 14
熟@@ 14
燮 14
牧 14
猛 14
獣@@ 14
率@@ 14
琳@@ 14
瑗 14
瑚@@ 14
瑤 14
瑱 14
瓦 14
產 14
甫@@ 14
甸@@ 14
癸@@ 14
皓 14
矢@@ 14
破 14
类@@ 14
粵@@ 14
級 14
細@@ 14
綬 14
终@@ 14
苟@@ 14
荔@@ 14
莲 14
葬 14
蓉 14
蕃@@ 14
薩 14
藝 14
蛇 14
褒@@ 14
規@@ 14
視 14
詔 14
誌 14
誘@@ 14
誼@@ 14
训@@ 14
记@@ 14
评@@ 14
贵 14
轉@@ 14
辟@@ 14
选@@ 14
遙@@ 14
邪 14
鄰 14
鈞 14
鋒@@ 14
錦 14
陝@@ 14
陸 14
霊@@ 14
頼@@ 14
飲@@ 14
騰 14
驚@@ 14
驪@@ 14
鱼 14
鹽@@ 14
공 14
농@@ 14
량@@ 14
록 14
류 14
름 14
몰@@ 14
세 14
악 14
앙@@ 14
쟁 14
준@@ 14
철 14
케@@ 14
키@@ 14
환 14
ﾟ 14
𐭥@@ 14
Après 13
COVI@@ 13
Estados 13
Ulus@@ 13
así 13
ationen 13
azini 13
ección 13
eint 13
embar@@ 13
ersten 13
ición 13
kisi@@ 13
kuto@@ 13
kuu 13
liste 13
muerte 13
namba 13
organisation 13
padre 13
pendant 13
poco 13
recu@@ 13
vya 13
worden 13
¦ 13
Û@@ 13
éx@@ 13
ían 13
üne 13
Ğ@@ 13
ǧ@@ 13
ɯ 13
ʂ@@ 13
Περ@@ 13
Ψ 13
κο@@ 13
κτ@@ 13
λέ@@ 13
λύ@@ 13
ούς 13
πέ@@ 13
πολι@@ 13
τικός 13
τρο@@ 13
υγ@@ 13
υλ@@ 13
υσ@@ 13
όφ@@ 13
ύρ@@ 13
Бра@@ 13
Бур@@ 13
Гла@@ 13
Кали@@ 13
Мал@@ 13
анд@@ 13
армии 13
армия 13
бы 13
вод 13
война 13
вра@@ 13
гро@@ 13
дро@@ 13
дь@@ 13
жа 13
исто@@ 13
йской 13
кла@@ 13
кня@@ 13
ком 13
край 13
лась 13
лен 13
льного 13
мат 13
мати@@ 13
мен 13
ниче@@ 13
пат@@ 13
реб@@ 13
свя@@ 13
сер@@ 13
слав@@ 13
сли 13
спе@@ 13
сс@@ 13
стов 13
строитель@@ 13
сту@@ 13
сты@@ 13
тор 13
хов@@ 13
ху@@ 13
цар@@ 13
част@@ 13
ший 13
шу@@ 13
Մ@@ 13
ֱ@@ 13
ץ 13
اف@@ 13
الجن@@ 13
جب@@ 13
دي@@ 13
زيرة 13
لال 13
وم 13
يا 13
ܕ@@ 13
ܪ@@ 13
ं@@ 13
च 13
ड@@ 13
ण@@ 13
ना 13
नि@@ 13
प@@ 13
री 13
ला@@ 13
ष@@ 13
हो@@ 13
ु@@ 13
ী 13
න@@ 13
กุ@@ 13
คล@@ 13
ตุ@@ 13
ธ 13
ปา@@ 13
วา 13
อั@@ 13
เอ@@ 13
แล@@ 13
ໂ@@ 13
འ 13
ྫ@@ 13
ྱ 13
ထ@@ 13
ပ 13
ီ 13
យ 13
ḍ 13
Ữ 13
ἴ@@ 13
ⁿ 13
せ 13
ぶ 13
む 13
ゼ 13
ゾ 13
パ 13
ボ 13
ヨ 13
ヴ 13
丙 13
丞@@ 13
乂@@ 13
亂@@ 13
僊@@ 13
僧 13
冉@@ 13
准@@ 13
凝 13
剌 13
剧@@ 13
包 13
卍 13
卞@@ 13
卯@@ 13
卷 13
又 13
发 13
只 13
吟 13
含 13
呪@@ 13
嘗@@ 13
因 13
圭@@ 13
域 13
堡 13
壇@@ 13
奕 13
妙 13
委员@@ 13
婚@@ 13
嫻@@ 13
孩@@ 13
孺@@ 13
宅 13
完 13
宙 13
寳@@ 13
少 13
尖@@ 13
尧 13
崑@@ 13
帆 13
带 13
廬@@ 13
弁@@ 13
弗@@ 13
弱 13
彌 13
徳 13
徵@@ 13
愚 13
戊 13
戏 13
戴 13
指 13
換@@ 13
敎@@ 13
斋@@ 13
斤 13
旭 13
昆 13
昊@@ 13
晃 13
晶 13
暠 13
暢 13
曇 13
朔 13
未 13
朴 13
杜 13
枯@@ 13
树 13
棟 13
植 13
欣 13
毋@@ 13
沁@@ 13
浪 13
涉@@ 13
温 13
湛@@ 13
滕@@ 13
激@@ 13
灵 13
热@@ 13
煦 13
爵 13
爷 13
狗 13
獄@@ 13
獅 13
玲@@ 13
瑤@@ 13
璟 13
瓚 13
瓷 13
當 13
疏 13
疏@@ 13
皮 13
碑@@ 13
禍 13
禎 13
稚@@ 13
穎@@ 13
窯 13
筑@@ 13
箭 13
紙 13
絕@@ 13
給@@ 13
綱@@ 13
緣 13
練@@ 13
縄@@ 13
繁@@ 13
罕@@ 13
聰@@ 13
脩@@ 13
腰@@ 13
腾 13
节 13
苏 13
萍 13
蓋 13
蔡 13
薇 13
被@@ 13
襲 13
覽 13
观 13
詢 13
試@@ 13
説@@ 13
談@@ 13
諾@@ 13
講@@ 13
謹@@ 13
论@@ 13
賜@@ 13
贤 13
资@@ 13
踊@@ 13
軒@@ 13
这@@ 13
送 13
遣 13
邕 13
邱@@ 13
邽 13
鄒@@ 13
鄴 13
鑑@@ 13
附@@ 13
隐@@ 13
非 13
韦@@ 13
頂 13
顒 13
顶@@ 13
项@@ 13
额 13
駕@@ 13
鴻 13
鷹 13
黨@@ 13
龜 13
ꪱ@@ 13
ꪹ@@ 13
겸 13
글 13
꽃@@ 13
령@@ 13
림 13
모 13
밀@@ 13
버 13
블@@ 13
실 13
심 13
애 13
욱 13
줘 13
찬@@ 13
타 13
특@@ 13
페@@ 13
함@@ 13
항 13
항@@ 13
혁 13
흥@@ 13
＝ 13
18. 12
Cette 12
Kilometer 12
Menschen 12
Nach 12
aliye@@ 12
ambazo 12
announc@@ 12
ases@@ 12
daki 12
dogo 12
estado 12
haben 12
igten 12
ikuwa 12
kati 12
kommen 12
kı 12
miş@@ 12
muy 12
médi@@ 12
peut 12
poder 12
präs@@ 12
sitz@@ 12
sız@@ 12
taifa 12
weit 12
werden 12
Ä 12
önem@@ 12
Ā 12
Ħ@@ 12
İ 12
ılar@@ 12
ızı 12
ığı 12
ſ@@ 12
ɕ 12
ɵ@@ 12
ˁ 12
̪ 12
Μαρ@@ 12
αν 12
γκ@@ 12
εφαλ@@ 12
ιστ@@ 12
λυ@@ 12
νης 12
οί 12
πρ@@ 12
ρό@@ 12
ρύ@@ 12
στο@@ 12
τυ@@ 12
Гра@@ 12
Дру@@ 12
За 12
Ло@@ 12
Пра@@ 12
Пред@@ 12
Сан@@ 12
Центра@@ 12
ата 12
времен@@ 12
ву@@ 12
вые 12
гри@@ 12
дин@@ 12
дне@@ 12
его 12
еди@@ 12
ез@@ 12
жи 12
зан@@ 12
кро@@ 12
кры@@ 12
лова 12
мов 12
нал 12
нах 12
опера@@ 12
пас@@ 12
под 12
пут@@ 12
рин@@ 12
собо@@ 12
ственной 12
ступ@@ 12
тер 12
тий 12
той 12
том@@ 12
ут@@ 12
хоро@@ 12
что 12
шая 12
ый 12
ў 12
ң 12
ұ@@ 12
դ@@ 12
ղ@@ 12
ײ@@ 12
الي@@ 12
ام@@ 12
بو@@ 12
دار 12
رب@@ 12
ري 12
سما@@ 12
علم 12
لی 12
مش@@ 12
ولاية 12
ڤ@@ 12
ۆ@@ 12
ता 12
थ@@ 12
ब@@ 12
मह@@ 12
ला 12
वे@@ 12
ि 12
ং@@ 12
জ@@ 12
ত@@ 12
দ 12
য@@ 12
় 12
ী@@ 12
ப 12
ழ@@ 12
ை@@ 12
ව@@ 12
ชา 12
ดิน@@ 12
ธา@@ 12
นี@@ 12
บั@@ 12
บู@@ 12
พระ 12
มพ@@ 12
มา 12
สะ@@ 12
หัว@@ 12
ัง@@ 12
฿ 12
เป@@ 12
เร@@ 12
ຊ 12
ང@@ 12
ཐ@@ 12
ཕ@@ 12
ཡ@@ 12
ဗ@@ 12
៊ 12
ᠭ@@ 12
ẵ 12
ἑ@@ 12
ἕ@@ 12
‹ 12
∨ 12
│ 12
ね 12
ょ 12
ゥ@@ 12
ヌ@@ 12
ピ 12
ㅜ 12
丙@@ 12
丸@@ 12
乱@@ 12
亞 12
佗 12
係 12
俄@@ 12
候 12
傑@@ 12
優 12
兔 12
凡 12
则 12
劳@@ 12
勋 12
區@@ 12
占 12
厦 12
变@@ 12
叟 12
右 12
咎 12
問 12
喀 12
坦 12
域@@ 12
境 12
墓@@ 12
壬 12
婉 12
嫻 12
嬰 12
孤 12
寂 12
对@@ 12
尸@@ 12
尽@@ 12
岑 12
嶽@@ 12
巢 12
帳 12
幡@@ 12
强@@ 12
彭 12
彼@@ 12
悅 12
悉@@ 12
感 12
愼@@ 12
执@@ 12
揆 12
揭@@ 12
摄@@ 12
敖@@ 12
整@@ 12
敷 12
斬@@ 12
曉@@ 12
札 12
柏 12
栋 12
桜 12
梦 12
棋@@ 12
棒@@ 12
植@@ 12
椒@@ 12
楠 12
欣@@ 12
殤@@ 12
毕@@ 12
气@@ 12
決@@ 12
浙@@ 12
润@@ 12
滇@@ 12
潔 12
潞@@ 12
濱@@ 12
灼@@ 12
点@@ 12
焉 12
燒@@ 12
牌@@ 12
狸@@ 12
玲 12
珣 12
甌@@ 12
疾 12
皂@@ 12
盤 12
硬@@ 12
禺 12
穂 12
突 12
笙 12
简 12
箐 12
箕@@ 12
簿 12
終 12
経@@ 12
線@@ 12
繆@@ 12
线 12
维@@ 12
绿@@ 12
罪 12
翻@@ 12
耑@@ 12
肃 12
臼 12
舜@@ 12
舟 12
艷 12
艾 12
药@@ 12
荷 12
菴@@ 12
萊@@ 12
葵 12
薑 12
蘆@@ 12
虔@@ 12
蝶 12
袍 12
覆@@ 12
設@@ 12
誕 12
设@@ 12
词 12
買 12
賭@@ 12
賴 12
贞 12
跡 12
跳@@ 12
车 12
运 12
逊@@ 12
逰@@ 12
遮@@ 12
邾 12
郁 12
郊@@ 12
醇@@ 12
醴@@ 12
銘 12
鍾 12
鑑 12
闻@@ 12
險@@ 12
雁 12
霞 12
頓 12
題@@ 12
飯@@ 12
饒@@ 12
馨@@ 12
騎 12
體 12
鷹@@ 12
鸟@@ 12
麴@@ 12
黑 12
黒 12
鼻@@ 12
齡@@ 12
龚@@ 12
ꪚ@@ 12
각@@ 12
건@@ 12
그 12
근 12
까 12
께 12
돌@@ 12
떡 12
룹 12
림@@ 12
립@@ 12
먼@@ 12
뮤@@ 12
엔@@ 12
웅@@ 12
음 12
적 12
적@@ 12
죽@@ 12
즈 12
집@@ 12
체@@ 12
초 12
춘 12
택@@ 12
형@@ 12
 12
 12
￼ 12
🇳 12
Durante 11
Febru@@ 11
Für 11
Kilom@@ 11
Liste 11
Londres 11
almente 11
ausge@@ 11
autres 11
culos 11
différ@@ 11
début 11
isant 11
isième 11
ität 11
mehr@@ 11
nuev@@ 11
otball 11
otro 11
partam@@ 11
proy@@ 11
punkt 11
réalis@@ 11
située 11
stamm@@ 11
students 11
yard@@ 11
yeye 11
 11
Ą@@ 11
Ę@@ 11
ʏ@@ 11
Κα@@ 11
Μακεδ@@ 11
Ρω@@ 11
ανδρ@@ 11
βί@@ 11
βασ@@ 11
εφ@@ 11
ημ@@ 11
καν@@ 11
λεύ@@ 11
μή@@ 11
μη@@ 11
μπο@@ 11
οβ@@ 11
οι@@ 11
οσ@@ 11
πά@@ 11
πί@@ 11
πολ@@ 11
πτ@@ 11
των 11
φιλ@@ 11
ωνία 11
ωρ@@ 11
όδ@@ 11
όκ@@ 11
όσ@@ 11
ών@@ 11
Гер@@ 11
Запад@@ 11
Зе@@ 11
Кро@@ 11
Рос@@ 11
ССР 11
Ш 11
Ши@@ 11
Шу@@ 11
акаде@@ 11
бит@@ 11
боль@@ 11
бор@@ 11
бург@@ 11
бя 11
вари@@ 11
версите@@ 11
вое 11
вом 11
государ@@ 11
гу 11
дь 11
ей 11
жизни 11
зе 11
зы 11
зя@@ 11
ити@@ 11
их 11
каза@@ 11
лез@@ 11
лей@@ 11
ления 11
ним 11
нове@@ 11
ную 11
ным 11
ран 11
рения 11
рий@@ 11
рован@@ 11
род 11
само@@ 11
сек@@ 11
спи@@ 11
тин@@ 11
том 11
ул 11
хозяй@@ 11
хра@@ 11
чин 11
ём 11
ѣ@@ 11
қ 11
Ү@@ 11
ҳ@@ 11
ө 11
զ@@ 11
اسم 11
الت@@ 11
الدین 11
دا@@ 11
دى 11
سين 11
ط 11
كة 11
كري@@ 11
مال 11
مع@@ 11
هر 11
وری 11
وس@@ 11
ڠ 11
अप 11
ख@@ 11
ड 11
पुर 11
मन 11
रा 11
য 11
ા@@ 11
இ@@ 11
ட 11
ந@@ 11
ర@@ 11
ి 11
ා 11
กร 11
ทอง 11
นคร 11
บร@@ 11
ปี 11
ยุ@@ 11
สว@@ 11
สั@@ 11
หาร 11
เง@@ 11
เธอ 11
โล@@ 11
ใจ 11
ຍ@@ 11
ະ 11
ཞ@@ 11
ཟ@@ 11
ဒ@@ 11
შ@@ 11
ც@@ 11
ል@@ 11
ር@@ 11
ណ@@ 11
ភ@@ 11
ហ@@ 11
ិ 11
ឹ@@ 11
ៀ@@ 11
ᠬ@@ 11
Ḫ@@ 11
Ἱ@@ 11
ὅ@@ 11
ὕ@@ 11
‬ 11
₽ 11
∃ 11
ご 11
そ 11
ぱ@@ 11
ゆ 11
ォ 11
ソ 11
ヌ 11
ヘ@@ 11
ㅁ 11
ㅂ 11
ㅏ 11
ㅣ 11
㎢ 11
严@@ 11
丰 11
习@@ 11
乳 11
他 11
以 11
企@@ 11
伤@@ 11
佶 11
侗@@ 11
供@@ 11
倒@@ 11
倚@@ 11
偃@@ 11
做@@ 11
備 11
傾@@ 11
儷@@ 11
冈@@ 11
冑 11
决@@ 11
办@@ 11
努@@ 11
勉@@ 11
勾@@ 11
卑@@ 11
卒 11
卒@@ 11
參 11
呈@@ 11
哪@@ 11
団@@ 11
圆 11
坪 11
堆 11
墉 11
夕 11
奠@@ 11
妍 11
妾 11
媒@@ 11
媚@@ 11
嫔@@ 11
孩 11
実 11
寝 11
导@@ 11
尺@@ 11
岛@@ 11
嶋 11
巧@@ 11
巳 11
巽@@ 11
帽@@ 11
幕 11
庁 11
底@@ 11
庶 11
弁 11
彙 11
彤@@ 11
征 11
恕 11
息 11
愉@@ 11
愷 11
扈@@ 11
打 11
把 11
把@@ 11
挑 11
授 11
掖 11
探 11
握@@ 11
敕 11
敗 11
料 11
旅 11
旋@@ 11
显 11
晟@@ 11
晦 11
曉 11
朵 11
朵@@ 11
杲 11
板 11
栄@@ 11
梓@@ 11
椿 11
槍@@ 11
橘 11
殺 11
気 11
汕@@ 11
決 11
沢@@ 11
沧@@ 11
沿@@ 11
泡@@ 11
泪 11
洁 11
浅@@ 11
涂@@ 11
涛 11
湛 11
潛 11
煥 11
狗@@ 11
猿@@ 11
獣 11
獲@@ 11
玫@@ 11
珉 11
瑭 11
璧@@ 11
疾@@ 11
発@@ 11
盈@@ 11
眉 11
瞻 11
瞻@@ 11
矢 11
砂 11
硕 11
磯@@ 11
祀@@ 11
祗@@ 11
祚@@ 11
禅 11
稷 11
第 11
管 11
粲 11
綏 11
網@@ 11
緯 11
縱@@ 11
纲 11
络@@ 11
续@@ 11
网@@ 11
耶 11
聊@@ 11
肖 11
胎@@ 11
脚 11
脱@@ 11
腐@@ 11
腹 11
腹@@ 11
舜 11
航 11
荒 11
葡@@ 11
蒲 11
蕩@@ 11
薛 11
藍 11
虫 11
蝴@@ 11
蝶@@ 11
裂@@ 11
裳 11
訥@@ 11
詳 11
譙@@ 11
议@@ 11
说 11
读@@ 11
谋@@ 11
豹@@ 11
賁 11
賓 11
贇 11
费@@ 11
跑@@ 11
輸@@ 11
返@@ 11
逢 11
遣@@ 11
遺 11
邱 11
郤@@ 11
鄱@@ 11
針 11
鉄 11
鋒 11
鍔 11
鎌@@ 11
鎬 11
鐵 11
镶@@ 11
閭 11
闞@@ 11
问@@ 11
间 11
阁@@ 11
阜 11
除@@ 11
随@@ 11
雕@@ 11
雯 11
霧 11
韋 11
額 11
顏 11
飯 11
鲁 11
鵰@@ 11
鸞 11
點 11
갈@@ 11
규@@ 11
근@@ 11
낙@@ 11
날@@ 11
네 11
노 11
늘 11
달 11
더 11
돈 11
랜@@ 11
린 11
맹 11
몽 11
묘@@ 11
물 11
물@@ 11
박 11
반 11
본@@ 11
분@@ 11
순 11
안 11
언 11
예 11
으@@ 11
임 11
입@@ 11
작@@ 11
저@@ 11
족 11
창 11
크 11
티 11
팔@@ 11
협@@ 11
휘@@ 11
🜨 11
Desde 10
Kaskazini 10
Mungu 10
aient 10
auspi@@ 10
ayant 10
caso 10
días 10
ectos 10
escri@@ 10
espec@@ 10
gebiet 10
hilo 10
ierung 10
intro@@ 10
isini 10
junto 10
kül@@ 10
liko 10
neue 10
spé@@ 10
stän@@ 10
système 10
territoire 10
timm@@ 10
tionen 10
uygul@@ 10
wenn 10
yapan 10
zao 10
È 10
ètres 10
ölç@@ 10
ública 10
ɫ@@ 10
ɴ@@ 10
ʐ@@ 10
ʑ@@ 10
˥ 10
̲ 10
Η 10
Κύ@@ 10
Παλ@@ 10
ίκ@@ 10
βαρ@@ 10
για 10
γλ@@ 10
γραφ@@ 10
ηγ@@ 10
κερ@@ 10
κη 10
κρά@@ 10
μά@@ 10
μόν@@ 10
να 10
τά@@ 10
τή@@ 10
τε@@ 10
τρι@@ 10
υμ@@ 10
φύ@@ 10
χλ@@ 10
Бел@@ 10
Ги@@ 10
Й 10
Пол@@ 10
Рабо@@ 10
СР 10
Фили@@ 10
Чи@@ 10
Ше@@ 10
ал 10
бере@@ 10
вода 10
гда 10
гла@@ 10
дет 10
дней 10
дом 10
жиз@@ 10
зов 10
зы@@ 10
ил 10
кого 10
комите@@ 10
кор@@ 10
лаго@@ 10
над 10
национа@@ 10
нет 10
ны@@ 10
об 10
отде@@ 10
памя@@ 10
профе@@ 10
рез@@ 10
рин 10
рок 10
ряд 10
сво@@ 10
секре@@ 10
сен 10
спек@@ 10
сс 10
тече@@ 10
тиче@@ 10
тно 10
тура 10
фильм 10
шей 10
это 10
ї 10
ү 10
հ@@ 10
շ@@ 10
ս 10
ֿ@@ 10
ادي 10
از@@ 10
البح@@ 10
الرحمن 10
الغ@@ 10
الم 10
المتح@@ 10
اله@@ 10
او@@ 10
بر 10
داد 10
دی 10
سلط@@ 10
سو@@ 10
عة 10
عل@@ 10
عي@@ 10
نج@@ 10
وري 10
وسف 10
پی@@ 10
ދ@@ 10
उ@@ 10
ख 10
जय 10
था@@ 10
थि@@ 10
भू@@ 10
यास 10
ये@@ 10
रस 10
रू@@ 10
ू 10
ট@@ 10
শ@@ 10
ਰ@@ 10
ெ@@ 10
ං@@ 10
න 10
กรุง@@ 10
จำ@@ 10
ชั@@ 10
ตะ@@ 10
ทธ@@ 10
พล@@ 10
ราช 10
อล@@ 10
ือ@@ 10
เก 10
เน@@ 10
เมือง 10
แก@@ 10
ບ 10
ີ 10
ཚ@@ 10
ྡ@@ 10
ማ@@ 10
ስ 10
ᠨ@@ 10
ᠪ@@ 10
ᡳ@@ 10
ḏ@@ 10
ḫ 10
ḳ@@ 10
Ợ 10
ὁ@@ 10
₤ 10
℉ 10
ℝ 10
↵ 10
⇌ 10
∫ 10
■ 10
ぎ 10
ぷ@@ 10
セ 10
ㄱ 10
ㄷ 10
ㅅ 10
ㅇ@@ 10
ㅐ 10
予 10
争@@ 10
亶 10
仮 10
件 10
例@@ 10
俳@@ 10
借@@ 10
倪@@ 10
倶@@ 10
傣@@ 10
僚@@ 10
儲@@ 10
具 10
冉 10
冲 10
净@@ 10
凉@@ 10
凯 10
凶 10
函@@ 10
刑 10
刻@@ 10
勢 10
協 10
単@@ 10
受 10
吟@@ 10
吠@@ 10
启 10
圏 10
地方 10
坎 10
坐 10
培@@ 10
夔 10
夺@@ 10
委 10
姿@@ 10
娜@@ 10
娟 10
嬴 10
孚@@ 10
宦@@ 10
宴@@ 10
宽@@ 10
尧@@ 10
届@@ 10
属@@ 10
履 10
岌 10
岱@@ 10
峪@@ 10
峯 10
巫 10
已 10
巳@@ 10
幹@@ 10
幼 10
床 10
庞@@ 10
废@@ 10
彤 10
彧 10
徐 10
悅@@ 10
惲 10
愁 10
愔 10
戀 10
戌@@ 10
户 10
托 10
招 10
持 10
挥@@ 10
挽@@ 10
捷 10
捷@@ 10
擊@@ 10
操@@ 10
教育 10
数@@ 10
斜@@ 10
斬 10
旦@@ 10
晴 10
暖@@ 10
曄 10
曦 10
更 10
束 10
枚@@ 10
枪 10
柑 10
梨 10
棲@@ 10
榜@@ 10
標@@ 10
模@@ 10
横 10
橫 10
歩@@ 10
歳@@ 10
汪 10
浄@@ 10
浑@@ 10
浮 10
涪@@ 10
涼 10
涿@@ 10
渤@@ 10
満 10
満@@ 10
溥 10
滎@@ 10
滩@@ 10
潁@@ 10
潼@@ 10
澳 10
澹@@ 10
瀛 10
灌@@ 10
灯@@ 10
炮@@ 10
点 10
煬@@ 10
熹@@ 10
牟 10
犯@@ 10
状 10
猴@@ 10
猿 10
玠 10
珊@@ 10
琅 10
琼 10
璇 10
産@@ 10
畫@@ 10
疆 10
疑@@ 10
皋@@ 10
盗@@ 10
盡@@ 10
看@@ 10
眠 10
眷 10
研@@ 10
砕@@ 10
礮 10
祠@@ 10
禅@@ 10
禾 10
秉 10
穴@@ 10
竟@@ 10
笔@@ 10
篆 10
篠@@ 10
籍@@ 10
粹 10
組@@ 10
経 10
綰 10
綸 10
綽 10
綿 10
繁 10
繪@@ 10
纘 10
红 10
细@@ 10
绪 10
网 10
署 10
翔@@ 10
耆 10
而 10
聚 10
聰 10
職 10
胥@@ 10
脉 10
脫@@ 10
臂@@ 10
艇 10
莆@@ 10
萧 10
蓬@@ 10
虢@@ 10
蛋 10
蛮@@ 10
袞 10
视 10
討@@ 10
訢 10
詠 10
諴@@ 10
諸 10
譯@@ 10
训 10
议 10
试@@ 10
请@@ 10
豚 10
貝 10
貢 10
賴@@ 10
财@@ 10
赛@@ 10
趾 10
輕@@ 10
輿 10
轩 10
辉@@ 10
辭@@ 10
迁 10
近 10
迪 10
迷 10
逃@@ 10
這@@ 10
速 10
遍@@ 10
邕@@ 10
邸 10
郊 10
鄚@@ 10
酉 10
配 10
釋 10
釗 10
錯 10
鐘 10
鑒 10
钦 10
钧 10
铁 10
関 10
阪 10
陇@@ 10
隔@@ 10
隘 10
隨 10
養 10
駐@@ 10
騰@@ 10
驛 10
鬥@@ 10
鲍@@ 10
鲜@@ 10
鴨@@ 10
鸣@@ 10
ꪼ@@ 10
갑@@ 10
같@@ 10
게@@ 10
곡 10
누@@ 10
담@@ 10
독 10
레 10
려@@ 10
머@@ 10
발@@ 10
빛@@ 10
새 10
새@@ 10
술@@ 10
알@@ 10
암@@ 10
열 10
온 10
옹@@ 10
외@@ 10
중 10
추 10
탐@@ 10
폐@@ 10
혼@@ 10
흥 10
｡ 10
ﾟ@@ 10
𒀭@@ 10
Fue 9
Kanada 9
Produk@@ 9
acción 9
ainsi 9
alidad 9
ampiy@@ 9
canción 9
chaque 9
connu 9
desde 9
dirig@@ 9
durum@@ 9
développ@@ 9
ekonom@@ 9
empres@@ 9
febr@@ 9
hariki 9
ilir 9
jwa 9
kaç@@ 9
lors@@ 9
ması 9
mehr 9
mwan@@ 9
nombre 9
nte 9
poste 9
profes@@ 9
puede 9
telev@@ 9
unkt 9
zaman 9
zwei 9
ünü 9
üç 9
ŕ 9
Ū 9
Ū@@ 9
ǵ@@ 9
ȳ@@ 9
ɸ 9
ɹ@@ 9
ʂ 9
ʕ 9
̏ 9
Έ@@ 9
Ελλην@@ 9
Κ 9
Καρ@@ 9
Ο 9
έρας 9
έφ@@ 9
ήλ 9
ίζ@@ 9
αρχ@@ 9
αύ@@ 9
βι@@ 9
δία 9
δρο@@ 9
ελλ@@ 9
θρω@@ 9
ικά 9
ική 9
ιχ@@ 9
κατ@@ 9
λευ@@ 9
μακ@@ 9
μεν@@ 9
μπ@@ 9
νά@@ 9
πε@@ 9
ρατ@@ 9
σφ@@ 9
τρα 9
χή 9
όρ@@ 9
ύγ@@ 9
ώς 9
Димит@@ 9
Национа@@ 9
Ос@@ 9
Пос@@ 9
СС@@ 9
Хар@@ 9
Юж@@ 9
вания 9
виде@@ 9
вну@@ 9
вши@@ 9
высо@@ 9
дат@@ 9
дей 9
дей@@ 9
дер@@ 9
джи@@ 9
жд@@ 9
заво@@ 9
кло@@ 9
комплек@@ 9
контро@@ 9
крепо@@ 9
кур@@ 9
лев@@ 9
лна 9
лся 9
мет@@ 9
мир@@ 9
мира 9
нар@@ 9
нение 9
них 9
област 9
обще@@ 9
она 9
пла@@ 9
пло@@ 9
полу@@ 9
пра@@ 9
проек@@ 9
раб@@ 9
рак@@ 9
рат 9
роди@@ 9
рой 9
росси@@ 9
руп@@ 9
сия 9
ском 9
следовате@@ 9
сов 9
спа@@ 9
став@@ 9
ство@@ 9
сто 9
тя 9
уче@@ 9
ций 9
чной 9
шки 9
шно 9
Ե@@ 9
ա 9
ֻ@@ 9
ات@@ 9
اج@@ 9
احمد 9
اه@@ 9
ایران 9
به@@ 9
خ 9
ربي 9
ظ@@ 9
عباس 9
محمود 9
مد@@ 9
مدينة 9
مس@@ 9
من 9
می 9
ورة 9
وية 9
يخ 9
ين@@ 9
َّ@@ 9
ڭ@@ 9
گ 9
یر 9
ܬ@@ 9
गु@@ 9
ती 9
धर 9
नगर 9
नी 9
पूर 9
बा@@ 9
बो@@ 9
भ@@ 9
भग@@ 9
मो@@ 9
या 9
राज 9
ान 9
ी 9
ू@@ 9
চ@@ 9
ত 9
প@@ 9
ল 9
દ@@ 9
ு 9
ூ@@ 9
న@@ 9
ల@@ 9
ಕ@@ 9
ര@@ 9
ක 9
ළ@@ 9
กัน@@ 9
การ@@ 9
คน@@ 9
งค@@ 9
ชิ@@ 9
ชุ@@ 9
ซ 9
ณฑ@@ 9
ดา 9
ทั@@ 9
บว@@ 9
ปรา@@ 9
พันธ@@ 9
มาร@@ 9
ลิ 9
ลูก@@ 9
ศา@@ 9
ษฎ@@ 9
สร@@ 9
สุด@@ 9
อด@@ 9
เกา@@ 9
เอ 9
แดง 9
๋ 9
ຜ@@ 9
ຳ 9
ໍ@@ 9
། 9
ཤ@@ 9
ძ@@ 9
წ@@ 9
ួ@@ 9
ᠠ 9
ᠤ@@ 9
ằ 9
ἁ@@ 9
ἡ@@ 9
ἵ@@ 9
ὴ 9
ℍ 9
⅛ 9
∘ 9
∝ 9
▪ 9
ⵎ@@ 9
ⵏ 9
〖 9
〗 9
げ 9
ゴ 9
ㅓ 9
ㅗ 9
丑 9
乔@@ 9
亚 9
亲 9
今 9
仓@@ 9
仗 9
佩 9
佬@@ 9
侠@@ 9
侵@@ 9
係@@ 9
俺@@ 9
們@@ 9
偏 9
偓 9
傷@@ 9
儂@@ 9
儉@@ 9
其 9
准 9
努 9
劫@@ 9
勸@@ 9
厦@@ 9
叉@@ 9
叢@@ 9
叫@@ 9
告 9
员 9
味 9
嘎@@ 9
囊@@ 9
囧 9
圈 9
地区 9
坑 9
坛 9
培 9
堀@@ 9
塚@@ 9
填@@ 9
壤@@ 9
壺 9
夹@@ 9
奪@@ 9
妇@@ 9
孔 9
孜 9
宛 9
宠 9
害 9
寔 9
寸 9
寻@@ 9
尻@@ 9
崩@@ 9
嵬@@ 9
带@@ 9
帶 9
底 9
庙@@ 9
廊 9
廓 9
廠 9
弾@@ 9
彈 9
当 9
忍 9
応@@ 9
怛@@ 9
恨@@ 9
恬@@ 9
愉 9
愨@@ 9
態 9
懸@@ 9
戌 9
戚@@ 9
戶 9
戾@@ 9
扎 9
扳@@ 9
抗@@ 9
报@@ 9
拼@@ 9
挺 9
損 9
摇@@ 9
效@@ 9
散 9
整 9
斎@@ 9
昕 9
昧@@ 9
末 9
核@@ 9
桀 9
桜@@ 9
档@@ 9
棄@@ 9
棒 9
棟@@ 9
楠@@ 9
標 9
歆 9
每@@ 9
毒@@ 9
汇@@ 9
沱@@ 9
泊@@ 9
泛@@ 9
洽 9
浑 9
涙 9
淨 9
混 9
渊@@ 9
渚 9
滅 9
漏@@ 9
潛@@ 9
潜 9
濤 9
灌 9
炫 9
烽@@ 9
爪@@ 9
爵@@ 9
爸@@ 9
狐 9
狸 9
獎 9
琚 9
瑠@@ 9
璋@@ 9
璜 9
璩 9
疑 9
痴 9
皋 9
皎 9
盈 9
睿 9
砲@@ 9
硃@@ 9
示 9
禾@@ 9
稲@@ 9
積 9
筆 9
箭@@ 9
粟@@ 9
粤@@ 9
粥 9
絲 9
綺@@ 9
綾@@ 9
緋@@ 9
緑@@ 9
績 9
繼 9
纂 9
约@@ 9
舌@@ 9
般 9
芬@@ 9
芭@@ 9
莉 9
莪@@ 9
莱@@ 9
萌@@ 9
萱 9
董 9
葵@@ 9
蒼 9
蕉@@ 9
蕙@@ 9
虜@@ 9
蜂@@ 9
蟾@@ 9
衝@@ 9
裡@@ 9
裴 9
褂 9
訥 9
詮 9
誕@@ 9
誼 9
让@@ 9
讷@@ 9
诚@@ 9
诰@@ 9
调 9
豈@@ 9
豨 9
豹 9
貓 9
費 9
賈 9
賓@@ 9
趾@@ 9
蹇@@ 9
蹴@@ 9
轮 9
辦@@ 9
辭 9
迟@@ 9
退 9
选 9
還 9
邯@@ 9
邸@@ 9
郗@@ 9
郢 9
鈔 9
銖 9
鋼 9
錄@@ 9
闻 9
闽@@ 9
阅@@ 9
防 9
降 9
陕@@ 9
陣 9
陪@@ 9
雉 9
雙 9
零 9
霊 9
鞅 9
韻@@ 9
頓@@ 9
類 9
颈@@ 9
颍@@ 9
香港 9
驍@@ 9
髻 9
鳩@@ 9
鶯@@ 9
鹃 9
ꪥ 9
ꪫ 9
ꪮ@@ 9
각 9
감@@ 9
규 9
균@@ 9
난@@ 9
눈@@ 9
람@@ 9
메@@ 9
밤 9
병 9
브 9
섭 9
송 9
술 9
슬@@ 9
습@@ 9
승 9
않@@ 9
약@@ 9
언@@ 9
와@@ 9
완 9
웅 9
테@@ 9
품@@ 9
했@@ 9
향 9
︎ 9
％ 9
Durch 8
Juli 8
Mais 8
Ocak 8
Türkiye 8
amiento 8
américain 8
avait 8
bierno 8
bildung 8
caract@@ 8
ciudad 8
eht 8
ekani 8
elerin 8
emente 8
españ@@ 8
fark@@ 8
gegen 8
geord@@ 8
gerek@@ 8
halten 8
hombres 8
ishwa 8
kadar 8
kuv@@ 8
lerine 8
malar 8
oliki 8
ouest 8
puesto 8
punto 8
sanat@@ 8
seiner 8
tiempo 8
tipo 8
toute 8
ubwa 8
vient 8
waren 8
watu 8
zwischen 8
 8
ª 8
¸ 8
Ç 8
Ñ 8
Þ 8
äude 8
ço@@ 8
ımc@@ 8
ıp 8
ĺ 8
Ş 8
şu 8
Ɔ@@ 8
ɬ 8
ɳ@@ 8
ʀ@@ 8
ʝ@@ 8
ʽ@@ 8
ˀ@@ 8
˘ 8
̈ 8
Δημ@@ 8
Καλλ@@ 8
Παρ@@ 8
Πολ@@ 8
Ψ@@ 8
απ@@ 8
γον@@ 8
γράφ@@ 8
εία 8
εκ@@ 8
ηλ@@ 8
ιπ@@ 8
καλ@@ 8
κας 8
κόσ@@ 8
λευθερ@@ 8
νε@@ 8
νομ@@ 8
ξι@@ 8
οπο@@ 8
ρέ@@ 8
ρω@@ 8
σσ@@ 8
τες 8
τις 8
τον 8
χαρ@@ 8
όπο@@ 8
ύ 8
ϕ 8
Международ@@ 8
По 8
Э 8
атов 8
без 8
блиоте@@ 8
бор 8
был 8
было 8
вест@@ 8
вета 8
вор@@ 8
всех 8
гат 8
глав@@ 8
гов 8
гов@@ 8
гон@@ 8
гори@@ 8
губер@@ 8
два@@ 8
ден 8
един@@ 8
ется 8
жде@@ 8
ждение 8
ита@@ 8
капита@@ 8
кате@@ 8
коло@@ 8
лка 8
лу 8
мена 8
мыш@@ 8
най 8
нами 8
нем 8
нер 8
нию 8
няя 8
образо@@ 8
ору@@ 8
остров 8
пан@@ 8
производ@@ 8
рал@@ 8
ру 8
рю@@ 8
свобо@@ 8
селе@@ 8
служ@@ 8
смо@@ 8
спор@@ 8
сра@@ 8
ссо@@ 8
ститу@@ 8
стра 8
сты 8
тат@@ 8
тон 8
ть@@ 8
ули@@ 8
управ@@ 8
федера@@ 8
шин@@ 8
яр@@ 8
ք 8
ք@@ 8
ֵ 8
מ 8
آباد 8
ائ@@ 8
اسلامی 8
اش@@ 8
اط@@ 8
اق 8
الدين 8
الط@@ 8
باب@@ 8
دار@@ 8
ده 8
راء 8
رق@@ 8
سلام 8
سن 8
ض@@ 8
غ 8
فو@@ 8
قر@@ 8
لف@@ 8
مص@@ 8
ني@@ 8
وف@@ 8
ون@@ 8
وی@@ 8
ُ 8
ِ 8
کر@@ 8
کی@@ 8
ܘ@@ 8
ܡ@@ 8
एव@@ 8
का 8
च@@ 8
जु@@ 8
णा 8
तन 8
तो 8
दा@@ 8
धि@@ 8
पश 8
बु@@ 8
मि@@ 8
मु@@ 8
सा@@ 8
हि@@ 8
ार@@ 8
ਿ@@ 8
ર@@ 8
ன@@ 8
ற@@ 8
ல 8
మ@@ 8
ನ@@ 8
ാ@@ 8
ග@@ 8
ය 8
ල 8
ි 8
ෙ@@ 8
กล 8
กั@@ 8
กิ@@ 8
ขา@@ 8
คา@@ 8
ตน 8
ที@@ 8
ปล@@ 8
มี 8
ยน 8
รุ@@ 8
สัง@@ 8
สิง@@ 8
ฮ@@ 8
ัง 8
ีย 8
ึ@@ 8
ือ 8
เอก 8
แม@@ 8
ຖ@@ 8
ໃ@@ 8
ཙ@@ 8
ྗ@@ 8
ဲ@@ 8
ღ@@ 8
ჭ@@ 8
ት 8
ት@@ 8
ይ@@ 8
ជ 8
ភ 8
ៃ 8
ᠲ@@ 8
ᥰ 8
ḷ 8
ṅ 8
ṯ 8
Ạ 8
Ẻ 8
ἅ@@ 8
Ἡ@@ 8
ὤ@@ 8
ῦ 8
‿ 8
⁶ 8
⁺ 8
Ⅱ 8
⊃ 8
━ 8
┬ 8
ⵔ@@ 8
ⵜ@@ 8
々 8
〇@@ 8
ぁ 8
ざ 8
ぢ 8
づ 8
ど 8
わ 8
ㄹ 8
ㅔ 8
ㅠ 8
丑@@ 8
乎@@ 8
交 8
亶@@ 8
仏@@ 8
付@@ 8
伴@@ 8
伸 8
但@@ 8
俭 8
值@@ 8
倾@@ 8
側 8
储@@ 8
僚 8
億 8
儔 8
兩 8
冬 8
冶@@ 8
凤 8
凯@@ 8
刊@@ 8
到 8
务 8
勛 8
勣 8
勾 8
匈@@ 8
匡 8
卑 8
厳@@ 8
叩@@ 8
员@@ 8
哩@@ 8
哭@@ 8
唇@@ 8
唯 8
啊 8
囗 8
圃 8
圻 8
址@@ 8
坎@@ 8
垂 8
堆@@ 8
堡@@ 8
塵 8
增 8
壹 8
変 8
夔@@ 8
奏 8
奖@@ 8
奘 8
奭 8
妮 8
姆 8
姒 8
婚 8
媼 8
宠@@ 8
宽 8
寇 8
寛@@ 8
寡@@ 8
岚 8
峯@@ 8
崱 8
嵬 8
巧 8
差 8
帘@@ 8
幽 8
幾@@ 8
序@@ 8
庐@@ 8
廊@@ 8
廓@@ 8
异 8
弥 8
彈@@ 8
彊 8
怨@@ 8
恽 8
惇 8
愈 8
愍 8
戲 8
拙@@ 8
捨@@ 8
撰 8
敗@@ 8
敘 8
敵 8
敵@@ 8
斐 8
旬 8
杞 8
杨 8
杯 8
杵@@ 8
枕@@ 8
枚 8
枹@@ 8
栖@@ 8
桀@@ 8
棃@@ 8
棍 8
棠@@ 8
棱 8
楓 8
檔 8
檔@@ 8
櫻@@ 8
此 8
歩 8
歷 8
汤 8
汶@@ 8
沪@@ 8
沸@@ 8
沼 8
泣@@ 8
洙 8
活 8
浴@@ 8
淄@@ 8
淺@@ 8
渊 8
渔@@ 8
湄@@ 8
滋 8
满 8
滩 8
漆@@ 8
漠@@ 8
潔@@ 8
潘 8
濂 8
濮@@ 8
烟@@ 8
焦 8
煌 8
煙@@ 8
熾 8
爺@@ 8
猷 8
率 8
玩@@ 8
玫 8
现@@ 8
琨 8
琼@@ 8
瑕 8
瑩 8
瑰 8
瑶 8
璉 8
璝 8
甸 8
畏@@ 8
瘦@@ 8
盘 8
盾@@ 8
着 8
睦 8
矛 8
矣 8
矿@@ 8
研究 8
碗 8
碧 8
禛 8
禦@@ 8
禽@@ 8
积@@ 8
稿 8
穗@@ 8
穴 8
窓@@ 8
窮@@ 8
笠 8
笠@@ 8
第一 8
箇@@ 8
篤 8
粤 8
糖 8
紗@@ 8
紙@@ 8
緒@@ 8
總 8
绝@@ 8
翅@@ 8
耐@@ 8
肱 8
胄 8
脈 8
膺 8
自 8
舉@@ 8
芙 8
苦 8
茲@@ 8
荼@@ 8
莉@@ 8
菲 8
蕭 8
虫@@ 8
螉@@ 8
螺@@ 8
蟹 8
蠻@@ 8
补@@ 8
衰 8
袌 8
袌@@ 8
袭@@ 8
補 8
裳@@ 8
製 8
襲@@ 8
覃@@ 8
覚@@ 8
観@@ 8
訟 8
詞@@ 8
詰@@ 8
該 8
該@@ 8
詹@@ 8
認@@ 8
誓@@ 8
読@@ 8
諧 8
諷 8
講 8
譽 8
诏@@ 8
貨@@ 8
買@@ 8
貽@@ 8
赖 8
赖@@ 8
跪@@ 8
輩 8
轸 8
轻@@ 8
辺@@ 8
迎 8
迭@@ 8
迹 8
适 8
途@@ 8
逝 8
適 8
邛@@ 8
邵 8
鄂 8
鄯@@ 8
鈐@@ 8
銮@@ 8
銳@@ 8
錬@@ 8
钮@@ 8
锋@@ 8
错@@ 8
閃@@ 8
閑@@ 8
闍@@ 8
队 8
隈@@ 8
难@@ 8
雒 8
霄@@ 8
霧@@ 8
鞠 8
韵 8
韵@@ 8
須 8
頡@@ 8
題 8
顗 8
顶 8
颐@@ 8
饶@@ 8
駒@@ 8
驅@@ 8
魁 8
鳴 8
鹏 8
麒@@ 8
黁 8
鼠 8
鼠@@ 8
龄@@ 8
ꞗ@@ 8
ꪵ@@ 8
ꪸ@@ 8
꪿ 8
걸@@ 8
검@@ 8
과@@ 8
광 8
까@@ 8
널 8
년@@ 8
녕@@ 8
늘@@ 8
능@@ 8
님@@ 8
락 8
란 8
량 8
룡@@ 8
망@@ 8
면@@ 8
밤@@ 8
번 8
베@@ 8
살 8
살@@ 8
슈@@ 8
쌍@@ 8
엄@@ 8
업@@ 8
옥@@ 8
올@@ 8
왜@@ 8
위 8
잘@@ 8
존@@ 8
줄@@ 8
촌 8
투 8
판@@ 8
퍼@@ 8
포 8
표 8
플@@ 8
혜 8
혼 8
 8
［ 8
］ 8
𝄆 8
𝄇 8
🇵 8
🇻 8
Devlet@@ 7
Ils 7
Jahr 7
Magharibi 7
Ort 7
Saison 7
abril 7
akter@@ 7
andı 7
annten 7
années 7
commen@@ 7
cuatro 7
dernier 7
découver@@ 7
encontr@@ 7
esini 7
está 7
etwa 7
fün@@ 7
halb 7
hijo 7
iendo 7
kodi 7
largo 7
letz@@ 7
ligne 7
liğ@@ 7
música 7
neben 7
neces@@ 7
país 7
premiers 7
prä@@ 7
prés@@ 7
quien 7
représent@@ 7
saison 7
schied@@ 7
según 7
siku 7
sistem@@ 7
standen 7
tient 7
tischen 7
vement 7
wieder 7
wieder@@ 7
zwa 7
zäh@@ 7
úbl@@ 7
ümü 7
ĝ 7
ŷ@@ 7
ǃ 7
ʈ@@ 7
̞ 7
Ό@@ 7
Ζ 7
Κωνσταντ@@ 7
Μεγ@@ 7
Ν 7
Ξ@@ 7
Πλ@@ 7
Ρ 7
άρι@@ 7
έγ@@ 7
έχ@@ 7
αντ@@ 7
δα 7
δε@@ 7
εγ@@ 7
ειν@@ 7
εις 7
επ@@ 7
επί@@ 7
ηφ@@ 7
ιγ@@ 7
ικό 7
ιο 7
κέν@@ 7
καθ@@ 7
καρ@@ 7
λεξ@@ 7
μορφή 7
νέ@@ 7
οκ@@ 7
ολόγ@@ 7
ουλ@@ 7
περ@@ 7
προς 7
ρυ@@ 7
στη 7
στις 7
στρ@@ 7
σύ@@ 7
ταρ@@ 7
τολ@@ 7
όρος 7
ύλ@@ 7
Ђ@@ 7
І 7
Ак@@ 7
Бри@@ 7
Ж 7
Й@@ 7
Македо@@ 7
Од@@ 7
Сре@@ 7
Тре@@ 7
Три@@ 7
Хи@@ 7
Цент@@ 7
бай@@ 7
би 7
бло@@ 7
бу 7
вал 7
вание 7
вате@@ 7
вид 7
войны 7
волю@@ 7
восто@@ 7
вро@@ 7
вс@@ 7
гат@@ 7
граф 7
гъ@@ 7
дво@@ 7
дер 7
дет@@ 7
дж@@ 7
доб@@ 7
ени 7
ент@@ 7
зах@@ 7
звез@@ 7
зыва@@ 7
изи@@ 7
ины 7
ита 7
ких 7
кри@@ 7
лат@@ 7
лед@@ 7
лич@@ 7
лли@@ 7
логи@@ 7
лъ@@ 7
мин 7
много 7
мой 7
мон@@ 7
наб@@ 7
нат 7
ней@@ 7
нения 7
объ@@ 7
оке@@ 7
офи@@ 7
пис@@ 7
поле@@ 7
поль@@ 7
пред@@ 7
прия@@ 7
противо@@ 7
пы@@ 7
рай@@ 7
рей@@ 7
рен 7
село 7
ске 7
сме@@ 7
сов@@ 7
стер@@ 7
сторо@@ 7
тель@@ 7
тина 7
трен@@ 7
ться 7
уда@@ 7
ус 7
филь@@ 7
ход 7
цев 7
цен@@ 7
цио@@ 7
чно 7
ши 7
ших 7
ьо@@ 7
ью 7
ют 7
ях 7
є 7
ғ 7
Ӏ@@ 7
Ә@@ 7
Կ@@ 7
Վ@@ 7
Տ@@ 7
պ@@ 7
ׁ 7
װ@@ 7
أم@@ 7
ؤ@@ 7
الأح@@ 7
المج@@ 7
اي@@ 7
باد@@ 7
بح@@ 7
بيل 7
تون@@ 7
ث 7
حة 7
در 7
رض 7
رية 7
زر@@ 7
سان 7
سك@@ 7
سن@@ 7
سي 7
شه@@ 7
طي@@ 7
عب@@ 7
عم@@ 7
في@@ 7
قل@@ 7
قو@@ 7
كي@@ 7
لان 7
مد 7
معر@@ 7
ملی 7
منص@@ 7
وط 7
وق@@ 7
ول 7
يك@@ 7
يه 7
ّ 7
پر@@ 7
کور@@ 7
ܐ@@ 7
ܢ 7
ܢ@@ 7
ܥ@@ 7
ܬ 7
ހ@@ 7
ނ@@ 7
ް@@ 7
ँ@@ 7
इ@@ 7
इन 7
को@@ 7
गा@@ 7
चल 7
ञ 7
तत 7
ते@@ 7
थ 7
पि 7
पु@@ 7
भ 7
मा 7
मी 7
यान 7
यु@@ 7
राज@@ 7
लि@@ 7
ळ@@ 7
वन 7
ार 7
ृ@@ 7
ব 7
স 7
ি 7
ো@@ 7
ਹ@@ 7
ી 7
ந 7
ய 7
ள 7
ா 7
ே@@ 7
ொ@@ 7
ோ@@ 7
ఁ@@ 7
గ@@ 7
ಯ@@ 7
ക@@ 7
മ@@ 7
ත 7
ස@@ 7
හ@@ 7
กลา@@ 7
คว@@ 7
คำ@@ 7
ฆ@@ 7
จน 7
จักร@@ 7
จา@@ 7
ฉ@@ 7
ฐ 7
ตำ@@ 7
ติ 7
ทะ@@ 7
นต@@ 7
ปร@@ 7
ปริ@@ 7
พรร@@ 7
ฟุต@@ 7
มน@@ 7
มิ 7
ยก 7
รว@@ 7
วน 7
สโม@@ 7
หา@@ 7
อก 7
อิ@@ 7
อิน@@ 7
เต 7
เหล@@ 7
โก@@ 7
โน@@ 7
ຕ 7
ອ 7
ຸ 7
ໜ@@ 7
ཅ@@ 7
ཨ@@ 7
ཱ 7
ူ 7
პ@@ 7
መ@@ 7
ቀ@@ 7
ብ@@ 7
ን 7
ዳ@@ 7
ដ 7
ឋ@@ 7
ᠢ@@ 7
ᠷ@@ 7
ḏ 7
ḱ@@ 7
ἡ 7
ἶ@@ 7
ὀ 7
Ῥ@@ 7
ῷ@@ 7
‏ 7
⁹ 7
⁻ 7
ℂ 7
∠ 7
∼ 7
⊇ 7
⊗ 7
♮ 7
ⵏ@@ 7
ⵣ@@ 7
ほ 7
ぽ 7
ゲ 7
ペ 7
ユ 7
ㄴ 7
ㅈ 7
ㅑ 7
ㅕ 7
ㅛ 7
严 7
为 7
亀@@ 7
亜 7
亨@@ 7
亹 7
仇 7
仕 7
们 7
供 7
侶 7
俗 7
偈@@ 7
側@@ 7
催@@ 7
僖 7
億@@ 7
兔@@ 7
兜 7
兜@@ 7
兼 7
円@@ 7
冼@@ 7
凌 7
几 7
刃@@ 7
列 7
刚@@ 7
别 7
剑 7
副 7
劃 7
勞@@ 7
勰 7
却@@ 7
厅 7
厥 7
吃@@ 7
吧@@ 7
吴 7
呉@@ 7
哀 7
啓 7
喃 7
喝 7
喫@@ 7
圣 7
圭 7
场@@ 7
埔@@ 7
塗@@ 7
塚 7
増@@ 7
壮 7
奐 7
契 7
奔 7
妓 7
妲@@ 7
姚 7
娃 7
婷 7
媒 7
媯 7
媽 7
嫡 7
宀 7
宕@@ 7
宾 7
寄 7
寛 7
寸@@ 7
就 7
展 7
屠 7
岚@@ 7
峻@@ 7
崖@@ 7
崗 7
崗@@ 7
嵐 7
嶋@@ 7
帖 7
幣 7
幾 7
廈@@ 7
廳 7
异@@ 7
彰 7
役@@ 7
往 7
徇 7
很@@ 7
従@@ 7
徹@@ 7
忻@@ 7
怕@@ 7
怨 7
恐@@ 7
悌 7
悠@@ 7
惊@@ 7
惑 7
愈@@ 7
愚@@ 7
愿 7
愿@@ 7
態@@ 7
憐 7
懋 7
懌 7
戈 7
戩 7
扁@@ 7
扇@@ 7
技 7
抄 7
折 7
抱 7
括 7
拱@@ 7
捏 7
接 7
揞 7
搜@@ 7
撃 7
據 7
效 7
敞 7
數 7
於 7
旋 7
旭@@ 7
旻 7
晨@@ 7
暮 7
曙 7
朋@@ 7
材 7
束@@ 7
枣@@ 7
架 7
柘@@ 7
柴 7
样@@ 7
梓 7
梯 7
椎 7
榔 7
様@@ 7
樺@@ 7
欒@@ 7
欲 7
款 7
歳 7
氐 7
沁 7
沅@@ 7
沆 7
沛 7
泊 7
泳@@ 7
泸@@ 7
洮@@ 7
洺@@ 7
浜 7
浜@@ 7
涉 7
涵 7
涵@@ 7
淚@@ 7
測@@ 7
渴@@ 7
溝@@ 7
漁@@ 7
漬@@ 7
漴 7
澎@@ 7
濁@@ 7
濛 7
濠 7
瀋@@ 7
炯 7
炳 7
炸@@ 7
烂@@ 7
烫 7
煩 7
煮@@ 7
熹 7
牌 7
犭 7
状@@ 7
猪 7
猴 7
獨 7
现 7
珂 7
珙 7
珽 7
現 7
琇 7
琶@@ 7
瑾@@ 7
璃@@ 7
璵 7
璿 7
瓶 7
甘 7
甚@@ 7
産 7
畏 7
畿 7
盆 7
盜@@ 7
盲@@ 7
磊 7
磐@@ 7
祝 7
穀@@ 7
窟 7
筒 7
筵@@ 7
紇 7
絲@@ 7
絵@@ 7
継 7
続@@ 7
綰@@ 7
網 7
緡 7
縁 7
縱 7
繇 7
纳 7
纸 7
织@@ 7
绪@@ 7
编 7
缘@@ 7
置@@ 7
署@@ 7
羯@@ 7
翹 7
耕 7
耕@@ 7
聂@@ 7
肆@@ 7
肥 7
膳@@ 7
臨 7
艷@@ 7
艺 7
芈 7
苞@@ 7
茜@@ 7
莫 7
菅@@ 7
葦@@ 7
蓝 7
蔚 7
蔚@@ 7
蔽@@ 7
薄 7
薨 7
蘊 7
虢 7
虹 7
蛋@@ 7
蝦@@ 7
蟒 7
血 7
衆 7
裁@@ 7
覧 7
见 7
許 7
評 7
評@@ 7
誓 7
誥 7
諦 7
諶 7
謀 7
謎 7
謐 7
謨@@ 7
讯@@ 7
谏@@ 7
谕@@ 7
豬@@ 7
貌@@ 7
貓@@ 7
貳@@ 7
貼@@ 7
赏 7
赛 7
赴@@ 7
赵 7
蹤 7
転@@ 7
軫 7
軫@@ 7
輯 7
轄@@ 7
辞@@ 7
辨@@ 7
辯@@ 7
辺 7
迦 7
迴@@ 7
週@@ 7
遊 7
避@@ 7
郭 7
郷 7
郷@@ 7
鄄@@ 7
鄩 7
酱 7
酸@@ 7
释@@ 7
釜@@ 7
鉤@@ 7
鉴 7
銅 7
銑 7
鋼@@ 7
錡 7
鎭 7
锐@@ 7
镜@@ 7
閉@@ 7
閩@@ 7
闇@@ 7
闊@@ 7
闕@@ 7
闪@@ 7
闯@@ 7
限 7
陷@@ 7
険 7
障@@ 7
隠@@ 7
電 7
頊 7
頗 7
頤@@ 7
頼 7
顔@@ 7
颂 7
颖@@ 7
饭 7
馗 7
驕@@ 7
骊@@ 7
骏 7
髪 7
鸿 7
鹰@@ 7
麥 7
默 7
ꪀ@@ 7
ꪙ@@ 7
ꪺ@@ 7
거 7
골@@ 7
균 7
급 7
김 7
꽃 7
난 7
뉴@@ 7
담 7
덕 7
독@@ 7
떴@@ 7
력@@ 7
며 7
못 7
못@@ 7
몽@@ 7
범@@ 7
봄 7
봐 7
분 7
섯 7
션 7
슬 7
싶@@ 7
웃@@ 7
작 7
증@@ 7
째 7
찬 7
파 7
표@@ 7
효 7
１@@ 7
｜ 7
𐭧@@ 7
𑐵@@ 7
🇯 7
𠎣@@ 7
Daha 6
Genel 6
Maisha 6
Parlam@@ 6
Teil 6
acional 6
améric@@ 6
aujour@@ 6
centro 6
dentro 6
deuxième 6
diesen 6
dort 6
düş@@ 6
ellement 6
encu@@ 6
espè@@ 6
existe 6
fahren 6
futbol@@ 6
fútbol 6
genannt 6
gouvernement 6
größ@@ 6
hace 6
hecho 6
hiyo 6
inş@@ 6
irika 6
kann 6
ließ@@ 6
mals 6
moins 6
müş@@ 6
nueva 6
obras 6
parator@@ 6
partici@@ 6
partido 6
présent@@ 6
quelle 6
retir@@ 6
secu@@ 6
suiv@@ 6
tekn@@ 6
titul@@ 6
todas 6
tır@@ 6
weza 6
wohl 6
wäh@@ 6
yaş@@ 6
yür@@ 6
ziwa 6
¨ 6
Ò 6
äche 6
último 6
ĕ 6
ğin 6
ķ@@ 6
ų@@ 6
ƒ@@ 6
ɓ 6
ʉ@@ 6
ʏ 6
ˊ 6
˨ 6
̤ 6
̵ 6
Ελλ@@ 6
Ι 6
Καλ@@ 6
Μ 6
Μεγάλ@@ 6
Παν@@ 6
Τ 6
άρχ@@ 6
έα 6
έρα 6
ές 6
ήρ@@ 6
ίκη 6
ίσ@@ 6
αδ@@ 6
διά@@ 6
δο@@ 6
είας 6
είου 6
εβ@@ 6
ειδ@@ 6
ετ@@ 6
ηθ@@ 6
ησι@@ 6
θέ@@ 6
θα 6
ιζ@@ 6
ικής 6
ιμ@@ 6
ιτ@@ 6
κλη@@ 6
κολ@@ 6
μον@@ 6
νύ@@ 6
οί@@ 6
πατ@@ 6
πει@@ 6
ποδ@@ 6
πους 6
πού@@ 6
ρν@@ 6
στά@@ 6
σύν@@ 6
ται 6
το 6
ϊκ@@ 6
Ай@@ 6
Българ@@ 6
Дж@@ 6
Ке@@ 6
Кли@@ 6
Ри@@ 6
Све@@ 6
Ско@@ 6
Сред@@ 6
Фран@@ 6
Хри@@ 6
Ч 6
Ы@@ 6
ане 6
ани 6
берг 6
вана 6
ват@@ 6
век 6
века 6
вз@@ 6
вия 6
вне@@ 6
вре@@ 6
время 6
гово@@ 6
год@@ 6
дате@@ 6
дивизи@@ 6
душ@@ 6
еле@@ 6
жда 6
ждения 6
желез@@ 6
жо@@ 6
зи 6
инжен@@ 6
кар@@ 6
ким 6
кни@@ 6
когда 6
коман@@ 6
компания 6
кономиче@@ 6
лей 6
лиза@@ 6
лись 6
лица 6
лно 6
лось 6
луч@@ 6
льно 6
маши@@ 6
мей@@ 6
мета@@ 6
мина@@ 6
мона@@ 6
науч@@ 6
него 6
нова@@ 6
ному 6
ными 6
обе@@ 6
области 6
обре@@ 6
освобо@@ 6
особ@@ 6
песни 6
пи 6
пон@@ 6
пора@@ 6
пти@@ 6
пя@@ 6
син@@ 6
со 6
сон 6
сою@@ 6
специ@@ 6
ствие 6
су 6
так 6
так@@ 6
тво@@ 6
теле@@ 6
тем@@ 6
тен@@ 6
тео@@ 6
того 6
тора 6
транспор@@ 6
убе@@ 6
уби@@ 6
фер@@ 6
фу@@ 6
хар@@ 6
хе@@ 6
худож@@ 6
цент@@ 6
ця@@ 6
ща 6
ёл 6
ҁ@@ 6
ӑ@@ 6
Գ@@ 6
բ@@ 6
դ 6
փ@@ 6
ء 6
أس@@ 6
از 6
اق@@ 6
الث@@ 6
الح 6
الذ@@ 6
السع@@ 6
العرا@@ 6
الفر@@ 6
الملك 6
الو@@ 6
الي 6
اور@@ 6
اپ@@ 6
باب 6
بط@@ 6
بغ@@ 6
تق@@ 6
تم@@ 6
تی@@ 6
جد 6
خت 6
دو@@ 6
رين 6
زة 6
شی@@ 6
صر 6
صف@@ 6
عر@@ 6
علی 6
عين 6
كر@@ 6
لكرة 6
ليل 6
محافظة 6
مر 6
مض@@ 6
مغ@@ 6
ند 6
نگ@@ 6
نی 6
وادي 6
وت@@ 6
وج@@ 6
ولا@@ 6
ويل 6
يران 6
ّة 6
ْ 6
گا@@ 6
ۋ@@ 6
ې@@ 6
ܠ@@ 6
ރ@@ 6
އ@@ 6
މ@@ 6
ߊ@@ 6
उप@@ 6
कर@@ 6
चि@@ 6
छ@@ 6
ढ@@ 6
तम 6
तु 6
देव@@ 6
पर@@ 6
पा 6
भा@@ 6
भारत 6
मस 6
री@@ 6
रु@@ 6
शा@@ 6
सम 6
ि@@ 6
ট 6
ਲ@@ 6
ਸ@@ 6
ਾ 6
ੰ@@ 6
ન@@ 6
ள@@ 6
ீ@@ 6
చ@@ 6
ದ@@ 6
ന 6
പ@@ 6
വ@@ 6
ി 6
ජ@@ 6
ය@@ 6
ර 6
ු 6
ො@@ 6
กัน 6
ชาติ 6
ฑ@@ 6
ดิ@@ 6
ทา@@ 6
บดี 6
ประชา@@ 6
พล 6
ภาษา@@ 6
ยม 6
รัฐมนตรี 6
หลา@@ 6
อาณา@@ 6
อำเภอ 6
เขต 6
เค@@ 6
เที@@ 6
เห@@ 6
แพ@@ 6
ใน 6
ຮ@@ 6
ື 6
ູ 6
ཉ@@ 6
ཧ@@ 6
ྙ@@ 6
ྤ@@ 6
ླ 6
ྷ@@ 6
ယ 6
ါ@@ 6
ေ 6
ჩ@@ 6
ል 6
ባ@@ 6
ኢ@@ 6
ዊ 6
ይ 6
ደ@@ 6
ግ@@ 6
ᑐ@@ 6
គ 6
ឃ@@ 6
ញ@@ 6
ទ 6
វ 6
ឡ@@ 6
ះ 6
ៈ 6
ᠣ@@ 6
ᠦ@@ 6
ᠯ@@ 6
ᠳ@@ 6
ᠴ@@ 6
ᠶ@@ 6
ᡠ@@ 6
ᥒ@@ 6
ṁ@@ 6
ṟ@@ 6
ẓ 6
Ẩ 6
Ẫ@@ 6
Ễ 6
Ἔ@@ 6
Ὀ@@ 6
Ὄ@@ 6
῾ 6
℅ 6
ℓ@@ 6
ℳ 6
∉ 6
∶ 6
◕ 6
☑ 6
ⲁ@@ 6
ⲛ@@ 6
ⵍ@@ 6
ぜ@@ 6
ぞ 6
づ@@ 6
ぱ 6
ふ 6
べ 6
ホ 6
ㅊ 6
ㅚ 6
㡬@@ 6
㱕@@ 6
䟦@@ 6
丈 6
中央 6
丿 6
乍@@ 6
乗@@ 6
乞 6
些@@ 6
仆@@ 6
仝 6
件@@ 6
伎 6
伏 6
众@@ 6
优@@ 6
伸@@ 6
佤@@ 6
便 6
俨 6
俶 6
們 6
偕 6
偽@@ 6
傲@@ 6
儁 6
儲 6
共 6
兽 6
农 6
冫 6
决 6
几@@ 6
凭@@ 6
凱@@ 6
划 6
刻 6
割@@ 6
劫 6
勅@@ 6
勳@@ 6
半 6
卧@@ 6
厶 6
叅@@ 6
双 6
叠@@ 6
叢 6
召 6
台灣 6
吐 6
听@@ 6
咲@@ 6
响@@ 6
啄@@ 6
喚@@ 6
嘎 6
嚣 6
地區 6
坑@@ 6
堤@@ 6
墙 6
墳 6
壯 6
売@@ 6
壺@@ 6
失 6
奮 6
奶 6
妈@@ 6
妤@@ 6
妮@@ 6
姉@@ 6
娃@@ 6
婁 6
媛@@ 6
嫄 6
嫣 6
孺 6
孽@@ 6
实 6
寢 6
寮 6
尋 6
對 6
尘 6
尤 6
尺 6
屏 6
岔@@ 6
岗 6
峙@@ 6
嵐@@ 6
巒 6
巨 6
巽 6
帕@@ 6
庠 6
廈 6
廬 6
弃@@ 6
弄@@ 6
张 6
弩 6
录@@ 6
彘 6
彬@@ 6
忒@@ 6
忽 6
恁@@ 6
恕@@ 6
恢 6
恨 6
恶@@ 6
悔@@ 6
悦 6
悦@@ 6
悲 6
憑@@ 6
懐@@ 6
懶@@ 6
扣 6
拟@@ 6
挑@@ 6
捜@@ 6
掃 6
掃@@ 6
掾 6
揀@@ 6
揆@@ 6
插@@ 6
援@@ 6
撲@@ 6
故 6
斂@@ 6
斟@@ 6
斤@@ 6
无 6
旡@@ 6
旵 6
时 6
昉 6
晁 6
晁@@ 6
晖 6
晛 6
晞 6
晸 6
最 6
朋 6
朕 6
杭 6
查 6
柯 6
栗 6
检@@ 6
棘@@ 6
椒 6
椿@@ 6
楞 6
榄 6
槐 6
樊 6
樛 6
樣@@ 6
権@@ 6
樱@@ 6
欢 6
殉@@ 6
毫 6
气 6
氷 6
汲@@ 6
涇@@ 6
涓 6
涧@@ 6
涯@@ 6
渋@@ 6
渟@@ 6
湝 6
滋@@ 6
滴@@ 6
滸 6
滸@@ 6
滾@@ 6
漕@@ 6
漪 6
澂 6
澹 6
濠@@ 6
濯 6
瀕 6
炒@@ 6
焚@@ 6
焜 6
煉@@ 6
燦 6
燭@@ 6
爸 6
爺 6
牽@@ 6
犁@@ 6
狀@@ 6
狂 6
猗@@ 6
猪@@ 6
玖 6
玛 6
环 6
珐@@ 6
珦 6
珲 6
珲@@ 6
瑄 6
瑟@@ 6
瑰@@ 6
璐 6
甯 6
甯@@ 6
畅 6
畜 6
畳 6
痛@@ 6
盗 6
盾 6
眞 6
眠@@ 6
着@@ 6
睢@@ 6
瞿 6
矣@@ 6
矩@@ 6
硐 6
碌@@ 6
碎@@ 6
碣@@ 6
碼@@ 6
磁 6
祀 6
祁 6
票@@ 6
禍@@ 6
禕 6
禽 6
稠 6
稹 6
稻@@ 6
穰@@ 6
究@@ 6
窟@@ 6
竦 6
答 6
筝 6
筠@@ 6
箜@@ 6
箱 6
篌 6
粋 6
粵 6
糕 6
糯@@ 6
紳 6
絃 6
綂 6
継@@ 6
綜@@ 6
綠 6
綦@@ 6
緝@@ 6
緬@@ 6
縄 6
續 6
纥@@ 6
练@@ 6
组@@ 6
绍 6
绮@@ 6
维 6
罔@@ 6
罷@@ 6
翟 6
翠 6
耆@@ 6
聃 6
职 6
聶@@ 6
聿@@ 6
肋 6
肯 6
胆@@ 6
胶@@ 6
腳 6
膠@@ 6
臭 6
臻 6
舎 6
艮 6
芷@@ 6
芸 6
苔@@ 6
茄@@ 6
荀 6
药 6
荼 6
菻 6
萄@@ 6
萇 6
葆@@ 6
蒸@@ 6
薊@@ 6
薙@@ 6
藥 6
蚕 6
蛙 6
螳@@ 6
蟲 6
衆@@ 6
衫 6
袖@@ 6
袿 6
裙 6
裵@@ 6
覆 6
観 6
规@@ 6
討 6
詒@@ 6
詡 6
詳@@ 6
誦 6
誰 6
諭@@ 6
警 6
讲@@ 6
译@@ 6
话@@ 6
谁@@ 6
谙@@ 6
谨@@ 6
谿 6
豁@@ 6
貫@@ 6
貳 6
貿@@ 6
資 6
賤@@ 6
贄 6
贛@@ 6
贝 6
贲@@ 6
跌@@ 6
距@@ 6
辅 6
辑 6
辟 6
过 6
进 6
迥 6
逍@@ 6
逝@@ 6
遍 6
違@@ 6
遲 6
邁@@ 6
邈 6
邙@@ 6
邴@@ 6
郅@@ 6
郑 6
郞@@ 6
郯 6
酱@@ 6
酷@@ 6
醜@@ 6
醬@@ 6
釣@@ 6
鉉 6
鉞 6
鉢@@ 6
鍋 6
鑾@@ 6
钢@@ 6
铎 6
铭 6
锁@@ 6
锦 6
閑 6
閤@@ 6
閥 6
閨@@ 6
问 6
阯 6
陆 6
陌 6
険@@ 6
隐 6
隶@@ 6
雋 6
雌@@ 6
鞠@@ 6
頒@@ 6
頵 6
顔 6
颁@@ 6
饮@@ 6
馱 6
馱@@ 6
駅 6
駱 6
駿 6
験 6
驗 6
驸@@ 6
髮 6
鬬@@ 6
鬱@@ 6
魁@@ 6
鲜 6
鸞@@ 6
鸡 6
鸣 6
鸦@@ 6
麺 6
龕 6
ꜣ 6
ꜥ@@ 6
ꪀ 6
ꪒ 6
것@@ 6
겠@@ 6
격@@ 6
골 6
괜@@ 6
널@@ 6
녕 6
놀@@ 6
되@@ 6
든 6
또@@ 6
락@@ 6
련 6
례@@ 6
롯@@ 6
류@@ 6
릉@@ 6
맥 6
맨 6
먹@@ 6
목 6
빵 6
센@@ 6
솔 6
앤@@ 6
엽 6
완@@ 6
윤 6
융@@ 6
응 6
잔@@ 6
잡@@ 6
좌@@ 6
직 6
집 6
찌@@ 6
찮@@ 6
참@@ 6
채 6
처 6
첩 6
칠@@ 6
클@@ 6
탑 6
태 6
택 6
패@@ 6
편 6
피 6
합 6
험 6
홍 6
 6
 6
ﬁ@@ 6
＆ 6
𐤕 6
𒆠 6
𝗜@@ 6
Alman 5
Avru@@ 5
Familie 5
Jahrhunderts 5
Kusini 5
Mannschaft 5
También 5
Zusammen@@ 5
ancien 5
bır@@ 5
cinco 5
cional 5
ciud@@ 5
compte 5
cuando 5
depuis 5
dió 5
donde 5
durant 5
ehemal@@ 5
gibi 5
große 5
gön@@ 5
hacia 5
hunder@@ 5
ierte 5
ihrer 5
ikuu 5
itwa 5
jähr@@ 5
keiten 5
ledi 5
liegt 5
membre 5
mismo 5
mondiale 5
mäß@@ 5
nungen 5
obten@@ 5
ommen 5
partir 5
política 5
primera 5
péri@@ 5
période 5
quement 5
sasa 5
sensa 5
siglo 5
sistema 5
stieg 5
sür@@ 5
trieb 5
trouve 5
vertr@@ 5
weiter 5
wurde 5
zake 5
¯ 5
Üniversitesi 5
époque 5
önc@@ 5
üsü 5
Ą 5
ĉ@@ 5
Ď 5
Ĝ@@ 5
ılan 5
Ľ 5
Ŋ 5
Ũ 5
ƅ 5
ǰ@@ 5
ȁ@@ 5
ɗ@@ 5
ɚ 5
ɟ@@ 5
ɥ 5
ɥ@@ 5
ɫ 5
ɬ@@ 5
ʧ@@ 5
ˀ 5
ˋ 5
ˌ 5
ˠ@@ 5
˦ 5
̰ 5
͘ 5
Ί@@ 5
Βασ@@ 5
Βασιλ@@ 5
Κά@@ 5
Κο@@ 5
Κυ@@ 5
Με@@ 5
Παπ@@ 5
Προ@@ 5
άβ@@ 5
άδ@@ 5
άδες 5
άλασ@@ 5
άλλ@@ 5
άνα@@ 5
έας 5
έλευ@@ 5
έλλ@@ 5
ήν@@ 5
ίλι@@ 5
ίνη 5
ίων 5
αβ@@ 5
αγγ@@ 5
ανή@@ 5
απο@@ 5
βιβλ@@ 5
γεν@@ 5
γράμ@@ 5
δελφ@@ 5
δος 5
δό@@ 5
εν 5
ησ@@ 5
ητ@@ 5
θερμ@@ 5
θυ@@ 5
ιά 5
ισμός 5
κιν@@ 5
κλει@@ 5
κοσμ@@ 5
λά@@ 5
λεπ@@ 5
λις 5
μαχ@@ 5
μμ@@ 5
μυ@@ 5
ναι 5
νησ@@ 5
νι@@ 5
νο@@ 5
νόμ@@ 5
οδος 5
ους 5
ούν@@ 5
πα@@ 5
ποι@@ 5
προ@@ 5
ρία 5
ραν@@ 5
ρη@@ 5
ρκ@@ 5
ρου 5
στι@@ 5
συν@@ 5
σω@@ 5
τας 5
τεχν@@ 5
τοκ@@ 5
τρί@@ 5
υζ@@ 5
υν@@ 5
υφ@@ 5
φυ@@ 5
φυλ@@ 5
χν@@ 5
όγ@@ 5
όμ@@ 5
όπ@@ 5
ώργ@@ 5
ϛ 5
Є@@ 5
Ав@@ 5
България 5
Бы@@ 5
Евро@@ 5
Карл 5
Май@@ 5
СА@@ 5
Съ@@ 5
Щ 5
бан@@ 5
были 5
важ@@ 5
вать 5
вен 5
вла@@ 5
вобо@@ 5
вше@@ 5
гер@@ 5
геро@@ 5
гия 5
город@@ 5
грани@@ 5
деятель@@ 5
дина@@ 5
дон@@ 5
ер 5
жав@@ 5
жава 5
зада@@ 5
зиден@@ 5
зия 5
иг@@ 5
име@@ 5
импе@@ 5
ител@@ 5
ители 5
йн@@ 5
кам@@ 5
ками 5
ката@@ 5
кие 5
клуб 5
комму@@ 5
корпу@@ 5
кос@@ 5
куль@@ 5
лектро@@ 5
лер 5
льных 5
между 5
мест@@ 5
мии 5
мили@@ 5
мини@@ 5
миче@@ 5
мла@@ 5
моде@@ 5
мокра@@ 5
море 5
нд 5
немец@@ 5
нима@@ 5
нологи@@ 5
оби@@ 5
общи@@ 5
они 5
остро@@ 5
пад@@ 5
пей@@ 5
пита@@ 5
политиче@@ 5
поселе@@ 5
простран@@ 5
против@@ 5
пси@@ 5
ради@@ 5
револю@@ 5
рио@@ 5
ряд@@ 5
связи 5
седате@@ 5
син 5
систе@@ 5
ски@@ 5
ским 5
ску@@ 5
скую 5
сле@@ 5
слу@@ 5
сни 5
совер@@ 5
соеди@@ 5
ся@@ 5
там 5
тех@@ 5
тё@@ 5
укра@@ 5
учи@@ 5
функ@@ 5
человека 5
чем 5
ческие 5
шего 5
шения 5
щ 5
ъл@@ 5
юр@@ 5
ята 5
Ґ 5
ҷ@@ 5
һ@@ 5
Բ@@ 5
Խ@@ 5
Ն@@ 5
ը 5
թ@@ 5
լ 5
լ@@ 5
ճ@@ 5
ց@@ 5
נ 5
ױ@@ 5
أس 5
أل@@ 5
أن@@ 5
اج 5
ادة 5
ادية 5
اعظم 5
الأس@@ 5
الاتحاد 5
الحر@@ 5
القدم 5
المغ@@ 5
المن@@ 5
الوطني 5
امل 5
اند@@ 5
با 5
بار 5
بد@@ 5
بلا@@ 5
بية 5
تح@@ 5
تو@@ 5
تي 5
جا@@ 5
جامعة 5
جمع@@ 5
جي@@ 5
حر@@ 5
خات@@ 5
را 5
راج 5
رض@@ 5
ری 5
ری@@ 5
زا 5
زی 5
سة 5
سم@@ 5
طن 5
ظم 5
على 5
عي 5
فار@@ 5
فر 5
فرا@@ 5
قبال 5
قة 5
قي@@ 5
كل@@ 5
لية 5
ما 5
مبار@@ 5
مهورية 5
مية 5
مُ@@ 5
نان 5
نان@@ 5
ندر 5
نية 5
ها 5
وت 5
ود@@ 5
وع@@ 5
يع@@ 5
ينة 5
يو 5
َ 5
پار@@ 5
ڠ@@ 5
ڪ@@ 5
ۇ 5
ۈ@@ 5
یم 5
ین 5
ܒ@@ 5
ܓ@@ 5
ܫ@@ 5
ާ@@ 5
ި@@ 5
ު 5
ެ@@ 5
अनु@@ 5
कश 5
कि@@ 5
की 5
को 5
चो@@ 5
जा@@ 5
झ@@ 5
ञ@@ 5
ठ@@ 5
णी 5
तु@@ 5
दि@@ 5
धा@@ 5
धि 5
धी 5
नदी 5
नि 5
नु@@ 5
ब 5
भाषा 5
मान 5
मान@@ 5
यक 5
रत 5
राष 5
रि@@ 5
विकास 5
विद 5
वै@@ 5
षेत 5
सर 5
सू@@ 5
हिन 5
ा@@ 5
े@@ 5
আ@@ 5
ও@@ 5
খ@@ 5
শ 5
ਪ@@ 5
ਰ 5
મ@@ 5
ા 5
િ@@ 5
્ 5
அ@@ 5
த 5
ఉ@@ 5
క@@ 5
త@@ 5
ి@@ 5
ు 5
ಗ@@ 5
ವ@@ 5
ು@@ 5
ക 5
ന@@ 5
ു@@ 5
ශ 5
ී 5
ී@@ 5
คณะ@@ 5
คน 5
คม 5
คร 5
ความ@@ 5
จักร 5
ชน@@ 5
ชาว@@ 5
ญา@@ 5
ฏ 5
ฒ@@ 5
ตรา 5
ตำบล 5
ทัศ@@ 5
ทาง 5
นั@@ 5
พฤ@@ 5
พา@@ 5
พุทธ@@ 5
ภ 5
มป@@ 5
มว@@ 5
ยัง@@ 5
ยาม 5
ยู@@ 5
ระ 5
รัฐ@@ 5
รา 5
ราย 5
ราย@@ 5
ลักษ@@ 5
สถา@@ 5
สร 5
หมา@@ 5
หร@@ 5
หา 5
องค@@ 5
อด 5
อำเ@@ 5
อี@@ 5
ักษ@@ 5
ับ 5
ึก 5
เซ@@ 5
เธ@@ 5
เหน@@ 5
แข@@ 5
โด@@ 5
โต 5
โย@@ 5
ใน@@ 5
ທ 5
ລ 5
ຫ 5
ຼ@@ 5
ໝ@@ 5
ཇ@@ 5
ྔ 5
ྷ 5
ဂ@@ 5
င@@ 5
ိ 5
ဲ 5
ံ 5
ለ@@ 5
ም 5
ረ@@ 5
ራ@@ 5
ን@@ 5
የ@@ 5
ያ 5
ያ@@ 5
ថ@@ 5
េ 5
ᠩ@@ 5
ᠮ@@ 5
ᠵ@@ 5
ᠷ 5
ᡤ@@ 5
ᥛ@@ 5
ḡ@@ 5
Ṃ 5
Ἁ@@ 5
ἥ@@ 5
ὖ 5
Ὠ@@ 5
ὸ 5
ᾰ 5
ᾱ@@ 5
ῆ 5
ῡ@@ 5
‖ 5
‚ 5
⁸ 5
₣ 5
℘ 5
∓ 5
≙ 5
④ 5
▼ 5
✿ 5
ⲟ@@ 5
ⵓ@@ 5
ⵔ 5
ⵖ@@ 5
ⵜ 5
ⵢ@@ 5
ぇ@@ 5
ぬ 5
ぴ@@ 5
ぼ 5
゜ 5
ポ 5
ヲ@@ 5
ㅍ 5
ㅜ@@ 5
ㅟ 5
㫒 5
㵮 5
上海 5
丝@@ 5
並@@ 5
丫@@ 5
么@@ 5
乔 5
习 5
亢@@ 5
亥@@ 5
享 5
亳 5
亻 5
付 5
代表 5
价@@ 5
伍 5
伎@@ 5
众 5
低@@ 5
佥@@ 5
侠 5
侧@@ 5
侨 5
倍 5
倩@@ 5
假 5
傷 5
僑@@ 5
僕 5
儋@@ 5
兎 5
兪@@ 5
兮@@ 5
冀 5
円 5
冕 5
冶 5
凵 5
凶@@ 5
刁@@ 5
划@@ 5
別 5
刹@@ 5
剎 5
劲@@ 5
势@@ 5
勖 5
勗 5
募@@ 5
匚 5
匪 5
单 5
卜 5
卞 5
危 5
卵 5
厥@@ 5
厲 5
叡@@ 5
叶 5
吃 5
吗 5
否 5
吻@@ 5
咱@@ 5
哇@@ 5
哨@@ 5
哭 5
唔 5
啜 5
啦 5
啸@@ 5
喝@@ 5
喻@@ 5
嗚@@ 5
嘅@@ 5
嘛 5
囊 5
困@@ 5
圈@@ 5
圉 5
圳@@ 5
坟 5
堕@@ 5
堰@@ 5
塩 5
墅 5
墳@@ 5
売 5
壳@@ 5
复 5
夙@@ 5
夸@@ 5
奄 5
奢 5
奢@@ 5
奮@@ 5
她@@ 5
妈 5
妹@@ 5
妺@@ 5
姆@@ 5
姊 5
姞 5
姦 5
娛@@ 5
婴 5
媚 5
嫦@@ 5
孰 5
宦 5
害@@ 5
寀 5
寔@@ 5
寤@@ 5
寫 5
寰@@ 5
尒@@ 5
屈 5
岁 5
岷@@ 5
峴@@ 5
崙 5
嵊@@ 5
嵋@@ 5
嵯@@ 5
嶼@@ 5
嶽 5
工程 5
帅 5
帰@@ 5
幣@@ 5
広 5
应 5
庖@@ 5
廖 5
引 5
彪@@ 5
待 5
必 5
忆@@ 5
忸@@ 5
怒 5
怜@@ 5
急 5
恂@@ 5
恬 5
恰@@ 5
悔 5
悠 5
您 5
悫@@ 5
惕@@ 5
惜 5
惜@@ 5
惡 5
愁@@ 5
慕 5
慢 5
憂 5
憂@@ 5
成功 5
戾 5
所有 5
扆 5
扑@@ 5
扣@@ 5
抜@@ 5
披@@ 5
抵@@ 5
拂 5
拍@@ 5
拐@@ 5
择 5
拿@@ 5
挞@@ 5
换@@ 5
捨 5
掖@@ 5
掛@@ 5
推 5
援 5
損@@ 5
摂@@ 5
撒 5
撥 5
撫 5
撮 5
擇 5
收 5
敎 5
数 5
断 5
旃@@ 5
旌@@ 5
旬@@ 5
旱@@ 5
旿 5
映 5
晦@@ 5
晨 5
晷 5
暎 5
暑 5
暨@@ 5
暭 5
暮@@ 5
暴 5
曠 5
曺@@ 5
替 5
杀@@ 5
权 5
杖 5
杯@@ 5
枣 5
枪@@ 5
柄@@ 5
染 5
査@@ 5
标@@ 5
桢 5
桩 5
梆@@ 5
梟 5
梟@@ 5
梭@@ 5
梵 5
棣 5
棱@@ 5
棹@@ 5
椅 5
検@@ 5
楷@@ 5
榭 5
榴@@ 5
構 5
槐@@ 5
槱 5
槻@@ 5
模 5
権 5
樵@@ 5
橙 5
歇@@ 5
歧@@ 5
殊 5
毗 5
氹@@ 5
汽@@ 5
汾 5
沂 5
沸 5
沽@@ 5
況 5
泾@@ 5
洱@@ 5
洸 5
浣@@ 5
涯 5
淀@@ 5
淇 5
淝 5
淹 5
添@@ 5
渚@@ 5
渭 5
湊 5
溜 5
溜@@ 5
溺@@ 5
滔 5
滔@@ 5
滦@@ 5
漆 5
漸@@ 5
潼 5
澈 5
澍 5
濃@@ 5
濞 5
濬@@ 5
濰@@ 5
灭@@ 5
灯 5
炅 5
炊@@ 5
烜 5
煒 5
煚 5
煩@@ 5
熜 5
熟 5
熱 5
熲 5
燁 5
燃 5
燈 5
燾 5
爆 5
爛@@ 5
爰 5
牢 5
犍@@ 5
狭@@ 5
狮@@ 5
猊 5
猎@@ 5
献 5
獲 5
獵@@ 5
玅@@ 5
玢 5
琢 5
琪@@ 5
瑋 5
瑋@@ 5
瑟 5
瑩@@ 5
璆 5
璇@@ 5
瓜 5
瓯@@ 5
甄 5
生活 5
畅@@ 5
痴@@ 5
瘦 5
癡 5
発 5
皖@@ 5
皿 5
盂@@ 5
眷@@ 5
眾 5
睡@@ 5
睢 5
砕 5
碗@@ 5
磐 5
礽 5
祇@@ 5
票 5
禑@@ 5
离 5
私 5
种 5
种@@ 5
秘 5
稔 5
稗@@ 5
稷@@ 5
穹@@ 5
窮 5
站@@ 5
竞@@ 5
竟 5
笮@@ 5
筋@@ 5
箏@@ 5
算 5
箱@@ 5
篇@@ 5
籠@@ 5
紘@@ 5
絡@@ 5
絳 5
絳@@ 5
緩 5
緯@@ 5
縁@@ 5
繒 5
繩 5
繹@@ 5
纯 5
纵@@ 5
组 5
绣@@ 5
缘 5
缙 5
羨 5
翊 5
职@@ 5
肝 5
胆 5
胎 5
胭@@ 5
脆@@ 5
腳@@ 5
腸@@ 5
臘@@ 5
自己 5
致 5
舅 5
舅@@ 5
艳@@ 5
芒 5
芜@@ 5
芦 5
芷 5
芻 5
苞 5
苴 5
苹 5
茨@@ 5
茫@@ 5
茵 5
荥@@ 5
莒@@ 5
菁 5
萃@@ 5
萌 5
萱@@ 5
葫@@ 5
蒜 5
蒯@@ 5
蔣 5
蔭@@ 5
蕙 5
蕩 5
蕴@@ 5
薪@@ 5
薬@@ 5
藻@@ 5
蘆 5
蘊@@ 5
虐@@ 5
蚌@@ 5
蛟@@ 5
蜂 5
蜍 5
蝉 5
行星 5
衢@@ 5
衮@@ 5
衷 5
袖 5
袴 5
裒 5
裤 5
裸@@ 5
裾 5
褒 5
褘 5
褚 5
覚 5
覽@@ 5
託 5
設 5
証 5
誉@@ 5
諡@@ 5
諫 5
謎@@ 5
謝 5
證 5
譜@@ 5
计 5
认@@ 5
诏 5
谈@@ 5
谊@@ 5
谏 5
谭 5
貔@@ 5
負 5
負@@ 5
貧@@ 5
賣 5
賣@@ 5
賽 5
賽@@ 5
责@@ 5
贺 5
赐@@ 5
趣@@ 5
跋 5
跡@@ 5
践@@ 5
踏 5
蹟 5
蹤@@ 5
躍 5
躍@@ 5
轮@@ 5
辶 5
迹@@ 5
逄 5
逊 5
透@@ 5
遜@@ 5
遭@@ 5
遼 5
邠@@ 5
邳@@ 5
邹@@ 5
邾@@ 5
郝 5
鄆@@ 5
鄞@@ 5
鄧 5
酈@@ 5
醉 5
采 5
釘 5
鈴 5
鈺 5
鉗 5
鉢 5
銓 5
銘@@ 5
録@@ 5
鎖@@ 5
钩@@ 5
钺 5
锋 5
閼@@ 5
闐@@ 5
阝 5
陈 5
陣@@ 5
隅@@ 5
隍@@ 5
随 5
險 5
隶 5
隸 5
隻 5
难 5
雑@@ 5
雛@@ 5
霹@@ 5
靺@@ 5
鞭 5
鞮 5
響 5
預 5
頡 5
颐 5
颖 5
颢 5
飄@@ 5
餃 5
餓@@ 5
饒 5
饼 5
馥 5
駿@@ 5
騫 5
騷@@ 5
驕 5
骆@@ 5
髙@@ 5
髯@@ 5
鬘@@ 5
鬧@@ 5
魅@@ 5
鯨 5
鳖@@ 5
鴛@@ 5
鵬@@ 5
鵲 5
鸟 5
鹰 5
麒 5
麦 5
鼐 5
齿 5
龔 5
ꪒ@@ 5
ꪕ@@ 5
ꪣ 5
ꪨ@@ 5
ꪷ 5
것 5
견@@ 5
결 5
결@@ 5
굴 5
귀 5
글@@ 5
길 5
던 5
따@@ 5
료@@ 5
룡 5
름@@ 5
맛 5
맞@@ 5
매 5
벌@@ 5
법 5
빅@@ 5
빛 5
빠 5
삐@@ 5
삼 5
설 5
섬 5
속 5
솔@@ 5
쇼@@ 5
숙 5
쓰@@ 5
엑@@ 5
엠 5
옥 5
옹 5
워 5
워@@ 5
율@@ 5
읍 5
응@@ 5
잖@@ 5
저 5
절@@ 5
징@@ 5
짝 5
쩔@@ 5
책 5
첫 5
촌@@ 5
축@@ 5
출@@ 5
친 5
커@@ 5
코 5
탈@@ 5
통 5
패 5
편@@ 5
평 5
필@@ 5
핑@@ 5
할@@ 5
행 5
훈@@ 5
흑@@ 5
 5
＜ 5
＞ 5
｀ 5
𑑂 5
𒂊@@ 5
𒂗@@ 5
🍆 5
Cumhuriyeti 4
Después 4
Diese 4
Jahren 4
Mashariki 4
alement 4
ambao 4
anischen 4
aît 4
bağl@@ 4
besondere 4
bién 4
caracter@@ 4
celui 4
conocido 4
dann 4
dessen 4
estudi@@ 4
etzt 4
eyal@@ 4
führt 4
großen 4
güç@@ 4
häng@@ 4
idadi 4
ihre 4
iriki 4
kazan@@ 4
kaç 4
kıs@@ 4
lamu 4
larda 4
ların 4
lerini 4
luğ@@ 4
manera 4
maye 4
misma 4
mög@@ 4
nahme 4
ofici@@ 4
oldu 4
oloj@@ 4
onóm@@ 4
película 4
principales 4
président 4
quelques 4
rund 4
sağ@@ 4
selbst 4
selon 4
siguientes 4
société 4
tasar@@ 4
tienen 4
toujours 4
ungum@@ 4
utilis@@ 4
verschied@@ 4
weise 4
zili@@ 4
zös@@ 4
 4
 4
Ë@@ 4
ält 4
çoc@@ 4
èrent 4
üğü 4
ġ 4
ģ@@ 4
Ī 4
ılmış 4
Ķ@@ 4
Ł 4
Ň 4
Ŏ@@ 4
Œ 4
ŕ@@ 4
ŗ@@ 4
Ŝ@@ 4
Ť 4
Ũ@@ 4
Ż 4
ǜ@@ 4
Ǧ@@ 4
Ǽ@@ 4
Ș 4
ɒ 4
ɓ@@ 4
ɖ@@ 4
ɗ 4
ɤ 4
ɵ 4
ʀ 4
ʉ 4
ʌ 4
ʑ 4
ʘ 4
ʤ 4
ˇ 4
˝ 4
̊ 4
̋ 4
̑ 4
̓ 4
͜ 4
Άν@@ 4
Αγ@@ 4
Απ@@ 4
Ελ@@ 4
Ιωάν@@ 4
Κορ@@ 4
Λε@@ 4
Λι@@ 4
Μά@@ 4
Μον@@ 4
Ξ 4
Πέ@@ 4
Στρ@@ 4
Χρ@@ 4
έκ@@ 4
έμ@@ 4
έξ@@ 4
έσ@@ 4
ήγ@@ 4
ήσ@@ 4
ίου 4
αία 4
αζ@@ 4
αλλ@@ 4
ανα@@ 4
αντι@@ 4
αχ@@ 4
βλ@@ 4
βολ@@ 4
βρα@@ 4
γιος 4
δί@@ 4
δημ@@ 4
δομ@@ 4
δρα@@ 4
δύ@@ 4
εί 4
ειρ@@ 4
ελ 4
ενός 4
εργ@@ 4
εσ@@ 4
ζω@@ 4
ημα 4
ην 4
θή@@ 4
θερ@@ 4
θμ@@ 4
θν@@ 4
θρ@@ 4
ιρ@@ 4
κίν@@ 4
κι@@ 4
κον@@ 4
κου@@ 4
λίγ@@ 4
λη 4
μέν@@ 4
μέρος 4
μαρ@@ 4
ματα 4
μελ@@ 4
μετ@@ 4
μη 4
ολογία 4
οξ@@ 4
παν@@ 4
πν@@ 4
πόλ@@ 4
ρακ@@ 4
σε@@ 4
ση 4
σης 4
σμ@@ 4
σμός 4
στασ@@ 4
συμφ@@ 4
σχ@@ 4
ταν@@ 4
τε 4
τηγ@@ 4
τι 4
τικ@@ 4
τού@@ 4
τύ@@ 4
φορ@@ 4
χεί@@ 4
χει@@ 4
ϋ@@ 4
όμα 4
όχ@@ 4
ύν@@ 4
ώδ@@ 4
ϭ@@ 4
Ё@@ 4
Велико@@ 4
История 4
Кита@@ 4
Мини@@ 4
Он 4
Пор@@ 4
София 4
Фа@@ 4
Фи@@ 4
Ъ 4
Ы 4
Ь 4
Ь@@ 4
андар@@ 4
ара 4
бое@@ 4
бър@@ 4
быть 4
вели@@ 4
вероя@@ 4
вого 4
води@@ 4
воло@@ 4
времени 4
гле@@ 4
гли@@ 4
гна@@ 4
год 4
году 4
города 4
груп@@ 4
дава 4
дах 4
дел@@ 4
дела@@ 4
дни 4
догово@@ 4
дри@@ 4
друго@@ 4
ему 4
емы@@ 4
ен 4
еся 4
жан@@ 4
жда@@ 4
жения 4
жество 4
жур@@ 4
зда@@ 4
извест@@ 4
истории 4
ительно 4
йска 4
йся 4
каде@@ 4
каче@@ 4
ква@@ 4
ките 4
коле@@ 4
команди@@ 4
кораб@@ 4
коро@@ 4
которые 4
кти@@ 4
лага@@ 4
лод@@ 4
лок 4
лото 4
лько 4
льные 4
мал@@ 4
мате@@ 4
мент 4
мента@@ 4
меня@@ 4
мер 4
мно@@ 4
много@@ 4
настоя@@ 4
нее 4
независи@@ 4
ней 4
неме@@ 4
нием 4
низ@@ 4
нос@@ 4
обра@@ 4
община 4
обы@@ 4
ора 4
орга@@ 4
организа@@ 4
оте@@ 4
пле@@ 4
подготов@@ 4
помощ@@ 4
право@@ 4
пы 4
рам@@ 4
рая 4
рец 4
ръ@@ 4
све@@ 4
свет@@ 4
сем@@ 4
скими 4
сни@@ 4
сом 4
сре@@ 4
сса 4
ссе@@ 4
станов@@ 4
стар@@ 4
ств 4
ству 4
стин@@ 4
съ@@ 4
тен 4
только 4
тот 4
ту 4
фика@@ 4
фор@@ 4
форма@@ 4
хай@@ 4
хода 4
ходи@@ 4
цер@@ 4
циона@@ 4
чело@@ 4
ческой 4
чна 4
чных 4
шёл 4
щение 4
щи 4
эк@@ 4
юще@@ 4
яв@@ 4
язы@@ 4
Ғ@@ 4
җ@@ 4
ҙ@@ 4
ҥ 4
ҧ@@ 4
Ҳ@@ 4
ԓ@@ 4
Թ@@ 4
Ղ@@ 4
ե 4
յ 4
ֽ@@ 4
־ 4
آل 4
أي@@ 4
ائی 4
ادر 4
ادل 4
ارت 4
اص@@ 4
اك@@ 4
الأر@@ 4
الأول 4
الإسلا@@ 4
البر@@ 4
الة 4
الجزائر 4
الل@@ 4
اللہ 4
المس@@ 4
المص@@ 4
المملكة 4
انی 4
اون 4
بار@@ 4
بش@@ 4
بور@@ 4
بیت 4
ة@@ 4
تن@@ 4
جب 4
جر 4
جز@@ 4
حل@@ 4
خان@@ 4
دا 4
دان 4
دن 4
ديم 4
ذ 4
رانی 4
ربية 4
رج@@ 4
رير 4
سا 4
سط@@ 4
سوم 4
سين@@ 4
شار@@ 4
شر@@ 4
شري@@ 4
شو@@ 4
شي@@ 4
ص 4
ض 4
طرف 4
طف@@ 4
عب 4
عل 4
عن@@ 4
فا@@ 4
فارسی 4
فق@@ 4
قط@@ 4
لأ@@ 4
لا 4
لاب 4
لاح@@ 4
لام 4
لف 4
لك@@ 4
له 4
مار 4
مجلس 4
مز 4
مز@@ 4
مسجد 4
مصر 4
ملا@@ 4
مون@@ 4
ناصر 4
ندی 4
نس@@ 4
نو@@ 4
وا 4
واء 4
ودية 4
وق 4
وه@@ 4
وي 4
يس 4
يس@@ 4
ِّ@@ 4
کا@@ 4
ہ 4
ێ@@ 4
ܙ@@ 4
ܚ@@ 4
ܝ 4
ܥ 4
ܩ@@ 4
ݢ@@ 4
ީ@@ 4
ު@@ 4
ߊ 4
ߞ@@ 4
ंस 4
अम@@ 4
आर 4
ई 4
कर 4
खा 4
खु@@ 4
गण@@ 4
गि@@ 4
घ@@ 4
चा@@ 4
चित 4
ची@@ 4
जन 4
जि@@ 4
डी 4
ति@@ 4
था 4
दा 4
दी 4
धार@@ 4
धु@@ 4
नै@@ 4
पाल 4
फ 4
बा 4
मल 4
यम 4
यार 4
रानी 4
राप 4
रे@@ 4
लक 4
लय 4
लु@@ 4
ळ 4
वो 4
शि@@ 4
संस 4
सन 4
सम@@ 4
सी 4
सी@@ 4
हे@@ 4
े 4
ौ@@ 4
ক 4
ঢ@@ 4
প 4
ভ@@ 4
ਕ@@ 4
ਜ@@ 4
ਬ 4
ਬ@@ 4
ੁ@@ 4
ં@@ 4
ગ@@ 4
પ@@ 4
ે@@ 4
ச 4
ண 4
ஸ 4
ల 4
ా 4
ಂ@@ 4
ಡ 4
ನ 4
ರ 4
ರ@@ 4
ಲ 4
ಲ@@ 4
ಸ@@ 4
ം 4
ല@@ 4
ට 4
බ@@ 4
ම 4
กรรม 4
กรุ@@ 4
คริ@@ 4
จังหวัด 4
จีน 4
ชาย 4
ฏ@@ 4
ดี@@ 4
ทำ@@ 4
ธรรม@@ 4
นาง 4
บล 4
พัน@@ 4
ภาพ@@ 4
ภูมิ@@ 4
มนตรี 4
มั@@ 4
มุ@@ 4
รถ@@ 4
วัง 4
ศาสต@@ 4
ษฐ@@ 4
ษา@@ 4
สง@@ 4
สต@@ 4
สภา 4
สี@@ 4
อนุ@@ 4
อบ@@ 4
อำ@@ 4
ฮ 4
ัด@@ 4
ิง 4
ียง 4
ูล 4
ฺ@@ 4
เฉ@@ 4
เซ 4
เรีย@@ 4
เศ@@ 4
เศษ 4
แต@@ 4
โค@@ 4
โทร@@ 4
โร@@ 4
ๆ 4
ັ 4
ໍ 4
ཛ@@ 4
ྣ@@ 4
ྭ@@ 4
ྲ 4
ႃ 4
ႇ 4
ყ@@ 4
ჯ@@ 4
ሕ@@ 4
ም@@ 4
ር 4
ሰ@@ 4
በ@@ 4
ቤ@@ 4
ች 4
ና@@ 4
ካ@@ 4
ወ@@ 4
ዮ@@ 4
ድ@@ 4
ጵ@@ 4
ᐃ@@ 4
ᕐ@@ 4
ឃ 4
ច 4
ឌ 4
អ 4
ឧ@@ 4
ឿ@@ 4
៍ 4
័ 4
ᠭ 4
ᠰ@@ 4
ᡳ 4
Ḏ@@ 4
Ẵ@@ 4
Ẽ 4
Ỗ 4
Ớ 4
Ỡ 4
ἀ 4
Ἅ@@ 4
Ἠ@@ 4
Ἥ@@ 4
ὐ 4
ὔ@@ 4
᾿ 4
ῐ 4
ῑ@@ 4
ῶ 4
‧ 4
‪ 4
⁴ 4
⁾ 4
₁ 4
₮ 4
₴ 4
℥ 4
Ⅲ 4
⋯ 4
⌊ 4
⌋ 4
① 4
⑧ 4
▲ 4
◎ 4
◾ 4
☀ 4
⚬ 4
✈ 4
✧ 4
❛ 4
➝ 4
ⲓ 4
ⲣ@@ 4
ⲥ@@ 4
ⲩ@@ 4
ⴷ@@ 4
ⴼ@@ 4
ⴽ@@ 4
ⵙ 4
〃 4
【 4
】 4
〔 4
〕 4
ぃ 4
ㄧ@@ 4
ㅋ 4
ㅌ 4
ㅎ 4
ㆍ@@ 4
丨 4
临 4
乎 4
互@@ 4
些 4
亡 4
人口@@ 4
人物 4
仆 4
仑@@ 4
仰 4
价 4
仸@@ 4
份 4
仿 4
伤 4
佗@@ 4
佬 4
佰@@ 4
俞 4
俺 4
個 4
倓 4
倣 4
偕@@ 4
偶 4
偽 4
傉@@ 4
傘 4
傘@@ 4
傚 4
債 4
兀 4
児 4
兖@@ 4
兗 4
册 4
冢 4
冤@@ 4
冷 4
凉 4
凛@@ 4
凱 4
凹@@ 4
刃 4
刘 4
判 4
券 4
券@@ 4
割 4
劃@@ 4
勁 4
勐 4
勔 4
勘 4
勱 4
勿 4
匠@@ 4
医 4
卦@@ 4
卩 4
卬 4
卻@@ 4
卽@@ 4
厂@@ 4
厭 4
叙 4
叫 4
叭@@ 4
吁@@ 4
吊@@ 4
吒 4
吝@@ 4
吸@@ 4
吹 4
吻 4
吼@@ 4
呢@@ 4
咖@@ 4
咢 4
唄 4
唧@@ 4
唬 4
啼@@ 4
喉 4
喋@@ 4
嗎 4
嘗 4
嘛@@ 4
嘴 4
囂 4
困 4
図 4
図@@ 4
坏@@ 4
坚 4
垢@@ 4
埋@@ 4
堀 4
墟 4
墾@@ 4
壤 4
壶@@ 4
夭@@ 4
奄@@ 4
奋 4
奋@@ 4
套 4
妞 4
妞@@ 4
姉 4
姒@@ 4
娇@@ 4
娑@@ 4
娶@@ 4
婕 4
婺@@ 4
婿 4
嫂 4
嫗 4
嫩 4
嬛 4
嬛@@ 4
嬢@@ 4
孜@@ 4
孰@@ 4
宓 4
宥 4
宸 4
宻@@ 4
寝@@ 4
寰 4
寳 4
寵@@ 4
对 4
対 4
层 4
屍 4
属 4
岬 4
峒@@ 4
峤 4
崧 4
崩 4
嶚 4
嶹 4
巷 4
帔 4
帮 4
帯 4
幔 4
幗@@ 4
幫@@ 4
幺 4
幻 4
庇 4
庇@@ 4
庐 4
廂@@ 4
廋 4
廡 4
廻@@ 4
弃 4
弄 4
弱@@ 4
彊@@ 4
従 4
恂 4
恺 4
悊@@ 4
悪 4
惕 4
惺@@ 4
愨 4
慰@@ 4
憑 4
憤@@ 4
憫@@ 4
懒 4
懸 4
截@@ 4
批@@ 4
抑@@ 4
抖@@ 4
抗 4
护 4
抹 4
抹@@ 4
拑 4
挚 4
挹@@ 4
挾@@ 4
捕 4
损 4
据 4
掘@@ 4
採 4
掩@@ 4
措 4
揜 4
携@@ 4
摆@@ 4
摭@@ 4
摶 4
摸 4
撂@@ 4
撝 4
撤@@ 4
撰@@ 4
擁@@ 4
擎@@ 4
擒@@ 4
擢 4
攀@@ 4
斎 4
斐@@ 4
斷 4
早 4
昏 4
昑 4
昙@@ 4
昧 4
昪 4
昱@@ 4
昺 4
晃@@ 4
晓 4
晭 4
暁@@ 4
暂@@ 4
暢@@ 4
暫@@ 4
曙@@ 4
曦@@ 4
朽@@ 4
杖@@ 4
枋@@ 4
析 4
枢 4
枢@@ 4
架@@ 4
某 4
柞@@ 4
栄 4
标 4
栴@@ 4
栾@@ 4
桦@@ 4
梗@@ 4
梧 4
械@@ 4
梳@@ 4
棄 4
棍@@ 4
棗 4
棘 4
椎@@ 4
楙 4
概 4
槃 4
構@@ 4
樑 4
樛@@ 4
樟@@ 4
樵 4
樽@@ 4
櫃@@ 4
櫻 4
欠 4
歓@@ 4
歯@@ 4
歴@@ 4
殯@@ 4
毫@@ 4
氐@@ 4
汀 4
汀@@ 4
汁 4
汝 4
汭 4
沅 4
沌@@ 4
沐 4
沘@@ 4
没 4
沫@@ 4
沭@@ 4
沼@@ 4
沾@@ 4
泠@@ 4
泡 4
泳 4
洵@@ 4
浔@@ 4
浟 4
涙@@ 4
润 4
淀 4
淇@@ 4
淓 4
淞@@ 4
淩@@ 4
淮 4
渙 4
渦@@ 4
溶 4
滕 4
滝 4
漂 4
漏 4
漠 4
漸 4
潇@@ 4
潏 4
濃 4
濕@@ 4
濤@@ 4
瀚 4
灼 4
災 4
灿@@ 4
炬 4
炭 4
烏 4
烤@@ 4
焼 4
煃 4
煊 4
煌@@ 4
煎@@ 4
煙 4
煜@@ 4
煥@@ 4
燎@@ 4
燦@@ 4
爐 4
爕 4
爬@@ 4
爷@@ 4
牲@@ 4
犀 4
犓 4
犛 4
犨 4
狙@@ 4
猓 4
猶 4
獎@@ 4
獞 4
獸@@ 4
珀 4
珈@@ 4
珣@@ 4
珥@@ 4
珩 4
琥@@ 4
琦@@ 4
琵 4
瑁 4
瑨@@ 4
瑫 4
瑷@@ 4
璃 4
璞 4
璣 4
璥 4
璨 4
璷@@ 4
瓠 4
瓶@@ 4
甪@@ 4
畑 4
畑@@ 4
畔 4
畜@@ 4
畝 4
畢 4
疊@@ 4
疫@@ 4
痕 4
痛 4
痤 4
皓@@ 4
监 4
盒 4
盖 4
盲 4
看 4
睺 4
瞬@@ 4
瞳@@ 4
矯@@ 4
矿 4
碭@@ 4
碽@@ 4
磬 4
礽@@ 4
祈 4
祉 4
祕 4
祸 4
禋 4
禟 4
禩@@ 4
禱 4
禺@@ 4
称 4
移 4
税@@ 4
稔@@ 4
稚 4
穀 4
穢@@ 4
穩@@ 4
窈@@ 4
窑@@ 4
窗 4
窗@@ 4
窝@@ 4
窞 4
竣 4
競@@ 4
竺 4
笏@@ 4
筒@@ 4
箋 4
箐@@ 4
箝 4
箸@@ 4
篡@@ 4
簫 4
籠 4
类 4
粱 4
糊@@ 4
糸 4
糾 4
紛@@ 4
紳@@ 4
絞@@ 4
綜 4
綽@@ 4
綾 4
総 4
締 4
縛 4
織 4
繡 4
繦 4
纏@@ 4
纥 4
绒@@ 4
结 4
绕@@ 4
继 4
编@@ 4
缶 4
缺 4
缽 4
羆 4
羚 4
羞@@ 4
羡 4
羨@@ 4
羲@@ 4
羹 4
翌 4
翎@@ 4
翡@@ 4
翳 4
翳@@ 4
聃@@ 4
聪 4
聶 4
職@@ 4
肘 4
肯@@ 4
肺 4
脇@@ 4
脚@@ 4
脫 4
脱 4
腊@@ 4
腕@@ 4
腸 4
膽 4
臏 4
臓 4
舊 4
舌 4
芍@@ 4
芮@@ 4
芹 4
芽@@ 4
茗@@ 4
茲 4
茸 4
荃 4
荃@@ 4
荘 4
荫 4
莎@@ 4
莒 4
莘 4
获@@ 4
菇 4
菓 4
菻@@ 4
萃 4
萍@@ 4
萩@@ 4
葬@@ 4
蓟@@ 4
蔑 4
蔑@@ 4
蕡 4
薇@@ 4
薑@@ 4
薔@@ 4
薰 4
薰@@ 4
藹 4
蘅 4
蛟 4
蛭@@ 4
蜜 4
螂@@ 4
蟾 4
衙 4
衝 4
袋 4
袞@@ 4
袭 4
装 4
裏 4
裝@@ 4
裨@@ 4
複@@ 4
褐@@ 4
襟 4
览 4
觚 4
託@@ 4
訣 4
訶 4
詭 4
誅 4
誅@@ 4
誇 4
誉 4
誌@@ 4
認 4
誦@@ 4
請 4
諝 4
諤 4
諧@@ 4
諮 4
謁@@ 4
謂 4
謠 4
譙 4
譯 4
讃@@ 4
讖 4
讚 4
讚@@ 4
讷 4
许 4
试 4
诞@@ 4
详 4
诫 4
读 4
谋 4
谜 4
谥@@ 4
谦@@ 4
豸 4
貊 4
貌 4
貍@@ 4
財 4
貸@@ 4
质 4
赞 4
赧@@ 4
足球 4
跃@@ 4
跟@@ 4
踊 4
踏@@ 4
蹄@@ 4
軌@@ 4
軻@@ 4
軽 4
輯@@ 4
轟@@ 4
轩@@ 4
转@@ 4
载 4
辑@@ 4
辖@@ 4
辨 4
辵 4
辻 4
迁@@ 4
返 4
追 4
适@@ 4
遁 4
遐@@ 4
遥@@ 4
適@@ 4
遫 4
遷@@ 4
邀@@ 4
邁 4
邃 4
邇@@ 4
邈@@ 4
邗@@ 4
邢 4
郕@@ 4
郞 4
郸@@ 4
鄀 4
鄕 4
鄫 4
酆@@ 4
醇 4
醜 4
醫 4
醬 4
釐 4
針@@ 4
鈕 4
鉴@@ 4
鋆 4
錚 4
鍵 4
鎌 4
鎔 4
鏘 4
鏞 4
鐐 4
鑠 4
钟 4
钱 4
铜 4
银 4
锅 4
锐 4
镜 4
閎 4
閏 4
閒@@ 4
閩 4
闇 4
闍 4
闐 4
闕 4
阏@@ 4
阔@@ 4
阙 4
际 4
陌@@ 4
陟 4
隋 4
隸@@ 4
霄 4
霆@@ 4
霑@@ 4
霽 4
靑 4
靚@@ 4
靡 4
靴 4
鞏 4
鞭@@ 4
韦 4
韻 4
頁 4
頃 4
預@@ 4
頸 4
頻@@ 4
顕@@ 4
顧 4
顷@@ 4
须@@ 4
颂@@ 4
颇@@ 4
颉@@ 4
频 4
颓 4
颛@@ 4
颱@@ 4
颺 4
餅@@ 4
饅@@ 4
馥@@ 4
駅@@ 4
駟@@ 4
験@@ 4
騷 4
驤 4
驤@@ 4
驷@@ 4
驸 4
驹 4
骥 4
髆 4
髪@@ 4
鮑 4
鯉@@ 4
鯰 4
鲸@@ 4
鴦@@ 4
鴨 4
鵬 4
鵲@@ 4
鶏 4
鷂@@ 4
鸳@@ 4
鹅@@ 4
鹤 4
鹦@@ 4
鹹@@ 4
麵@@ 4
黍 4
鼻 4
齿@@ 4
龚 4
龟 4
꞉ 4
ꪕ 4
ꪚ 4
ꪣ@@ 4
ꪬ 4
ꪶ@@ 4
ꪸ 4
걸 4
겨@@ 4
곡@@ 4
괘 4
꾸@@ 4
넌 4
넘@@ 4
느 4
늑@@ 4
닥@@ 4
답 4
돼 4
둥 4
디 4
딩 4
땅@@ 4
뛰@@ 4
란@@ 4
랙@@ 4
런@@ 4
렌@@ 4
록@@ 4
론 4
릴 4
맨@@ 4
맹@@ 4
묵 4
밀 4
발 4
볶@@ 4
봐@@ 4
빌@@ 4
셋 4
션@@ 4
솥 4
쉬@@ 4
압@@ 4
앙 4
약 4
얼@@ 4
엠@@ 4
염@@ 4
웨@@ 4
육 4
읍@@ 4
익@@ 4
점@@ 4
젓 4
젝@@ 4
좀 4
즈@@ 4
짓@@ 4
찾@@ 4
책@@ 4
총 4
침 4
콜@@ 4
콤 4
쿵 4
키 4
킥 4
탄@@ 4
탕 4
탕@@ 4
텔 4
텔@@ 4
토 4
폭@@ 4
프 4
픽@@ 4
할 4
함 4
헤@@ 4
홉 4
휘 4
흘 4
흠@@ 4
 4
ﬂ@@ 4
＊ 4
ｈ@@ 4
ｕ 4
𐭩 4
𐭩@@ 4
𐭯@@ 4
𐭱@@ 4
𒀀@@ 4
𒊭 4
𒌷@@ 4
𝗛@@ 4
😈 4
Başkan@@ 3
Biographie 3
Einwohner 3
Ekim 3
Gebiet 3
Jahrhunder@@ 3
Jahrhundert 3
Ligi 3
Präs@@ 3
Titel 3
Tras 3
Unis 3
Weltkri@@ 3
adamu 3
aduni 3
akiwa 3
alcanz@@ 3
ambayo 3
ashara 3
asyon 3
baad@@ 3
beim 3
bilg@@ 3
constru@@ 3
denen 3
después 3
diese 3
dieser 3
donc 3
década 3
ecek@@ 3
encuentr@@ 3
erreich@@ 3
espèce 3
están 3
etc. 3
folg@@ 3
gestellt 3
gouvern@@ 3
grün@@ 3
hacer 3
hatte 3
hatten 3
ilgili 3
iliz 3
juego 3
julio 3
kurul@@ 3
kuwa 3
letzten 3
lığı 3
mujeres 3
neuen 3
niveau 3
norte 3
olewa 3
onun 3
particu@@ 3
permet@@ 3
posición 3
presidente 3
públ@@ 3
schon 3
schri@@ 3
seinem 3
seç@@ 3
série 3
sı@@ 3
tamam@@ 3
tamente 3
tement 3
tigt 3
tober 3
trabaj@@ 3
trabajo 3
través 3
troisième 3
tığı 3
uzun 3
yanay@@ 3
yıl 3
yıl@@ 3
 3
 3
également 3
Ě@@ 3
Ğ 3
Į 3
į 3
ına 3
ını 3
ĺ@@ 3
ŝ@@ 3
ŧ@@ 3
Ź@@ 3
ſ 3
ǜ 3
ǝ 3
ǝ@@ 3
ǧ 3
ǫ 3
ȝ@@ 3
ɟ 3
ɢ@@ 3
ɤ@@ 3
ɳ 3
ɹ 3
ɽ@@ 3
ʍ 3
ʎ 3
ʢ@@ 3
ʻ 3
ˠ 3
ˡ@@ 3
̚ 3
̝ 3
̠ 3
̻ 3
Ή@@ 3
Ύ@@ 3
Αλεξ@@ 3
Αρ@@ 3
Αργ@@ 3
Αφ@@ 3
Γεω@@ 3
Γι@@ 3
Δημοκρατ@@ 3
Ερ@@ 3
Ιερ@@ 3
Κατ@@ 3
Μα@@ 3
Μακ@@ 3
Σο@@ 3
Στα@@ 3
Συ@@ 3
Σύ@@ 3
Το 3
Χ 3
άντα 3
άνω 3
άπ@@ 3
άφ@@ 3
έ 3
ήθ@@ 3
ίδας 3
ίμ@@ 3
ίνα 3
ακή 3
ασία 3
αφ@@ 3
βο@@ 3
γέν@@ 3
γρ@@ 3
γρα@@ 3
γυνα@@ 3
δη 3
δικ@@ 3
δρά@@ 3
δυ@@ 3
εδ@@ 3
εξ@@ 3
ερν@@ 3
ηδ@@ 3
ητής 3
θάνα@@ 3
θαν@@ 3
θη 3
ιλι@@ 3
ισσ@@ 3
κα 3
καλύ@@ 3
κοιν@@ 3
κορ@@ 3
λαβ@@ 3
μέσ@@ 3
ματ@@ 3
μερ@@ 3
μεσ@@ 3
μετά 3
μηχαν@@ 3
νω@@ 3
ξε@@ 3
οτ@@ 3
ουσα 3
π.@@ 3
πίσ@@ 3
παι@@ 3
παλαι@@ 3
παρα@@ 3
περι@@ 3
πιστ@@ 3
πολη 3
προσ@@ 3
πρω@@ 3
πρώ@@ 3
πυ@@ 3
ρή@@ 3
ρίζ@@ 3
ρίς 3
ραγ@@ 3
ρο 3
ρού@@ 3
σημαν@@ 3
σκοπ@@ 3
σμα 3
στή@@ 3
συ@@ 3
συμβ@@ 3
την 3
του@@ 3
τρα@@ 3
τω 3
φυσ@@ 3
ωγ@@ 3
ωπ@@ 3
όπουλ@@ 3
ότ@@ 3
ϝ@@ 3
ϵ@@ 3
Ϲ 3
Ј 3
Вто@@ 3
Георги 3
Дже@@ 3
До 3
Исто@@ 3
Мария 3
Но 3
Пари@@ 3
Сле@@ 3
Фор@@ 3
аб@@ 3
августа 3
ални 3
ано 3
анти@@ 3
аре@@ 3
арх@@ 3
архи@@ 3
ато 3
без@@ 3
бия 3
бур@@ 3
бя@@ 3
вали 3
вдо@@ 3
верх@@ 3
вид@@ 3
вли@@ 3
водо@@ 3
вос@@ 3
вся@@ 3
вто@@ 3
где 3
гене@@ 3
града 3
графи@@ 3
гру@@ 3
дена 3
дж 3
дже@@ 3
дой 3
ено 3
есть 3
жет 3
запа@@ 3
защит@@ 3
зма 3
зон 3
имо@@ 3
ито 3
йки 3
йских 3
кар 3
като@@ 3
ках 3
кия 3
кол@@ 3
коно@@ 3
конце 3
которая 3
крат@@ 3
края 3
креп@@ 3
круп@@ 3
кс 3
ктора 3
лд 3
личе@@ 3
лище 3
лни 3
лния 3
лож@@ 3
льной 3
ляр@@ 3
международ@@ 3
мери@@ 3
меся@@ 3
моби@@ 3
мом 3
мост 3
музе@@ 3
назна@@ 3
направ@@ 3
насти@@ 3
нача@@ 3
ник@@ 3
ните 3
нитель@@ 3
нк@@ 3
ност@@ 3
ол@@ 3
ори@@ 3
партия 3
пе 3
пит@@ 3
позво@@ 3
полити@@ 3
помо@@ 3
попу@@ 3
после 3
послед@@ 3
праз@@ 3
представ@@ 3
приня@@ 3
програм@@ 3
пру@@ 3
пря@@ 3
рабо@@ 3
район 3
реди@@ 3
реки 3
ристи@@ 3
рито@@ 3
света 3
своих 3
себя 3
север@@ 3
сед@@ 3
сел@@ 3
сель@@ 3
сил 3
сим@@ 3
сите@@ 3
сков@@ 3
современ@@ 3
специали@@ 3
ссии 3
стве 3
стви@@ 3
ством 3
стен@@ 3
стоя@@ 3
стри@@ 3
строй@@ 3
сч@@ 3
счита@@ 3
тами 3
тие 3
тных 3
тому 3
треш@@ 3
труд@@ 3
тся 3
тъ@@ 3
удо@@ 3
уез@@ 3
уз@@ 3
фак@@ 3
фон@@ 3
форми@@ 3
футбо@@ 3
характе@@ 3
хся 3
цел 3
цу 3
части 3
чат@@ 3
чен 3
чение 3
чень 3
ческих 3
четы@@ 3
что@@ 3
шение 3
шие 3
ься 3
эта@@ 3
этого 3
юг 3
ются 3
ющи@@ 3
ющий 3
ява 3
ѧ@@ 3
ӈ 3
ӕ 3
ә 3
ӣ 3
Փ@@ 3
կ 3
չ 3
չ@@ 3
ջ@@ 3
ռ@@ 3
տ 3
ց 3
צ 3
أر@@ 3
أه@@ 3
إل@@ 3
إي@@ 3
ئ 3
ائر 3
ائي 3
ابن 3
ابو 3
اتحاد 3
اردو 3
اسلا@@ 3
اض 3
اط 3
التع@@ 3
الثاني 3
الرا@@ 3
السي@@ 3
الشر@@ 3
العالم 3
العالمية 3
الفي@@ 3
المر@@ 3
المط@@ 3
المع@@ 3
المق@@ 3
الوط@@ 3
انق@@ 3
انية 3
او 3
اک@@ 3
اں 3
باء 3
بات@@ 3
باد 3
باش@@ 3
بال 3
بري@@ 3
بع@@ 3
بق@@ 3
بی 3
تا 3
تاب 3
تب@@ 3
ترا@@ 3
تش@@ 3
ثم 3
جا 3
جام@@ 3
جان 3
جس 3
جع@@ 3
جور@@ 3
جي 3
جی@@ 3
حزب 3
حم@@ 3
حي 3
خار@@ 3
خت@@ 3
خو@@ 3
خی@@ 3
دس 3
دش@@ 3
دل 3
دون 3
رئ@@ 3
رات 3
راد 3
رام 3
ران 3
رش@@ 3
ریز 3
زار 3
زي 3
زيد 3
زی@@ 3
سا@@ 3
ست 3
سر 3
سند@@ 3
سور@@ 3
سی 3
سی@@ 3
شاہ 3
شن 3
صاحب 3
صد@@ 3
صدر 3
صل 3
طر@@ 3
طلا@@ 3
عد@@ 3
علا@@ 3
عمر@@ 3
غر@@ 3
غز@@ 3
فا 3
فت 3
فرو@@ 3
فض@@ 3
فع@@ 3
فی@@ 3
قات 3
قاد@@ 3
قب@@ 3
قي 3
قية 3
كت@@ 3
كتب 3
كر 3
كرة 3
كن 3
لب 3
لس 3
للإ@@ 3
لن 3
لَ@@ 3
مان@@ 3
مراد 3
مركز 3
مسل@@ 3
مشرق 3
مف@@ 3
منطقة 3
مه 3
مَ@@ 3
نار@@ 3
نت 3
نح@@ 3
نز@@ 3
نم@@ 3
نه 3
نوا@@ 3
نور 3
نين 3
نی@@ 3
هة 3
هد 3
هم 3
هي@@ 3
وات 3
وار@@ 3
واز 3
والإ@@ 3
وب 3
وة 3
ورية 3
وز@@ 3
وزیر 3
وط@@ 3
يات 3
يت 3
يح@@ 3
ير@@ 3
يز 3
يم@@ 3
يني 3
يون 3
يون@@ 3
١@@ 3
٧ 3
ٱ@@ 3
ٴ@@ 3
پ 3
چی@@ 3
ڑ 3
کاری 3
کش@@ 3
کی 3
ڬ@@ 3
گر@@ 3
ہ@@ 3
ۋ 3
ە 3
ܟ 3
ܠ 3
ܡ 3
ܣ@@ 3
ܦ 3
ܶ@@ 3
ސ@@ 3
ޖ@@ 3
ާ 3
ި 3
ߟ@@ 3
ँ 3
ंगा 3
ंद 3
ः@@ 3
अन@@ 3
अप@@ 3
अर 3
अव@@ 3
ए@@ 3
एवं 3
और 3
कार 3
कृष 3
के 3
के@@ 3
कै@@ 3
गा 3
गो@@ 3
चक 3
चन 3
चार 3
चीन 3
जी 3
टा 3
ठ 3
डो@@ 3
णा@@ 3
णि@@ 3
दास 3
दि 3
दिल 3
दु@@ 3
दुर 3
दे@@ 3
धार 3
नर 3
नव@@ 3
नाग@@ 3
नाम 3
पद 3
पर 3
बर 3
बाद 3
भि@@ 3
भूमि@@ 3
भो@@ 3
मध 3
मर 3
मी@@ 3
यात 3
रपति 3
रह 3
राजा 3
राम 3
रिया@@ 3
रू 3
रो@@ 3
ले@@ 3
वास 3
वी@@ 3
शी@@ 3
शे@@ 3
संख 3
सभा 3
सर@@ 3
से 3
से@@ 3
सो@@ 3
सौ@@ 3
हन 3
हम 3
ूर 3
ै@@ 3
ो@@ 3
ॐ 3
॰ 3
ঁ@@ 3
ই@@ 3
গ 3
ঙ 3
ছ@@ 3
ণ 3
ণ@@ 3
ধ 3
ধ@@ 3
ম 3
ে 3
ਆ@@ 3
ਨ@@ 3
ੀ@@ 3
ੱ@@ 3
ક@@ 3
જ@@ 3
ટ@@ 3
ય@@ 3
ર 3
લ@@ 3
વ@@ 3
ુ@@ 3
ો@@ 3
ஜ@@ 3
ழ 3
అ@@ 3
ప@@ 3
బ@@ 3
య 3
ర 3
౼ 3
ಕ 3
ತ@@ 3
ಪ@@ 3
ಬ@@ 3
ಮ@@ 3
ಹ@@ 3
ಿ@@ 3
ೆ@@ 3
ത@@ 3
യ@@ 3
ര 3
ി@@ 3
ീ@@ 3
െ@@ 3
ൊ@@ 3
ോ@@ 3
ට@@ 3
ණ 3
ධ@@ 3
ව 3
ස 3
ේ@@ 3
กรรม@@ 3
กระท@@ 3
กา 3
กำ@@ 3
ฃ 3
คริสต@@ 3
ควา@@ 3
จน@@ 3
จัก@@ 3
จัง@@ 3
จิ 3
ฉ 3
ชน 3
ชีวิต 3
ซา@@ 3
ซิ 3
ซิ@@ 3
ซี 3
ญญา@@ 3
ฎ@@ 3
ฐ@@ 3
ดิน 3
ตรี 3
ตะวัน@@ 3
ตั@@ 3
ถน@@ 3
ทธิ@@ 3
ทาง@@ 3
นว@@ 3
นาม 3
บรร@@ 3
บาง 3
บาล 3
บี 3
ปก@@ 3
ปลา 3
ปั@@ 3
ฝ 3
ฝ@@ 3
พระราช@@ 3
พุ@@ 3
มาก 3
ยก@@ 3
รัช@@ 3
ริ 3
ละ@@ 3
ลา 3
ลี 3
วัด 3
วัน 3
วิท@@ 3
วิทยา@@ 3
วี@@ 3
ษา 3
สน@@ 3
สอง 3
สอน 3
สาม 3
สิทธิ@@ 3
หัว 3
ฬ@@ 3
อะ 3
ฯ 3
ิด@@ 3
ีน 3
ียว 3
ึง 3
ือง 3
เกาะ 3
เดียว 3
เต@@ 3
เท 3
เย@@ 3
เร 3
เลือก@@ 3
เหม@@ 3
แร@@ 3
โจ@@ 3
โอ 3
โอ@@ 3
ไป@@ 3
ไฟ@@ 3
ไว@@ 3
ไห@@ 3
ํ@@ 3
ຢ@@ 3
ໝ 3
ཁ 3
ཱ@@ 3
ཾ 3
ྃ 3
ྨ@@ 3
ည@@ 3
ဦ@@ 3
ბ 3
თ 3
ლ 3
რ 3
ለ 3
ላ@@ 3
ሥ@@ 3
ሪ 3
ስ@@ 3
ቅ@@ 3
ኃ@@ 3
ና 3
ኣ@@ 3
እ@@ 3
ዑ@@ 3
ዓ@@ 3
ዝ@@ 3
ገ@@ 3
ጉ@@ 3
ᑦ@@ 3
ᕗ@@ 3
ᕙ 3
ᛋ 3
ឌ@@ 3
ហ 3
ឯ@@ 3
ើ 3
ើ@@ 3
ៅ 3
᠋ 3
᠎ 3
ᠦ 3
ᡥ@@ 3
ᡴ@@ 3
ᥫ@@ 3
ᧂ 3
ᮘ@@ 3
ᮥ@@ 3
ᴗ 3
ᴥ 3
ᵒ@@ 3
ᵻ@@ 3
ḩ@@ 3
ḱ 3
Ḳ@@ 3
ḵ@@ 3
ṁ 3
ṇ 3
ṓ 3
ṳ 3
Ấ 3
Ằ@@ 3
Ỗ@@ 3
Ỡ@@ 3
Ỳ@@ 3
Ỷ@@ 3
ἱ 3
ὡ@@ 3
ὺ@@ 3
ῠ 3
ῳ 3
ⁿ@@ 3
₨ 3
₭ 3
ℝ@@ 3
⅞ 3
∏ 3
∙ 3
∬ 3
≃ 3
≅ 3
≪ 3
≫ 3
⊥ 3
⌒ 3
② 3
┃ 3
◇ 3
◦ 3
☊ 3
☲ 3
❤ 3
ⲉ@@ 3
ⲏ@@ 3
ⴱ@@ 3
ⴲ 3
ⵉ 3
ⵟ@@ 3
ぇ 3
ぐ 3
ひ 3
ゐ 3
ゑ 3
ㄨ@@ 3
ㄴ@@ 3
ㄷ@@ 3
ㅅ@@ 3
ㅆ 3
ㅉ 3
ㅋ@@ 3
ㅒ 3
ㅖ 3
ㅘ 3
ㅙ 3
ㅝ 3
ㅞ 3
ㅠ@@ 3
ㅢ 3
㝏 3
㫕 3
䘳@@ 3
与 3
両 3
両@@ 3
並 3
丫 3
丶 3
丼 3
举 3
之一 3
乖@@ 3
买@@ 3
亠 3
产 3
人民 3
亿@@ 3
仄 3
仍@@ 3
仗@@ 3
伋 3
伴 3
佃 3
佃@@ 3
佈@@ 3
低 3
佞 3
併 3
佺@@ 3
侑 3
侗 3
侧 3
俏@@ 3
俟 3
俟@@ 3
俣@@ 3
俵 3
俸 3
倒 3
倡 3
倧 3
倩 3
停@@ 3
偲 3
傣 3
傲 3
僩 3
僮 3
價 3
儂 3
免@@ 3
兎@@ 3
児@@ 3
共和国 3
养 3
再 3
冕@@ 3
写 3
冯 3
净 3
凄@@ 3
凍 3
凜 3
凪@@ 3
击 3
击@@ 3
创 3
剔@@ 3
办 3
勞 3
勵@@ 3
匕 3
匠 3
匪@@ 3
匹 3
卋@@ 3
单位 3
卖 3
単 3
卡 3
卢 3
厄@@ 3
历 3
厘 3
厨@@ 3
叟@@ 3
可能 3
叱@@ 3
吁 3
否@@ 3
吼 3
呉 3
咄@@ 3
咏 3
咏@@ 3
咒 3
咒@@ 3
咕@@ 3
咪@@ 3
咽 3
唏 3
喙@@ 3
單 3
嘏 3
嘴@@ 3
嚇@@ 3
囚@@ 3
囧@@ 3
囯 3
围@@ 3
国家 3
圃@@ 3
圍 3
圜 3
圜@@ 3
圧 3
圩@@ 3
坏 3
坛@@ 3
坠@@ 3
垍 3
垓@@ 3
執 3
堃 3
堪@@ 3
堵@@ 3
塊 3
塗 3
塩@@ 3
填 3
塲@@ 3
塾 3
墉@@ 3
墙@@ 3
墩@@ 3
壊 3
壌@@ 3
壞 3
壞@@ 3
壱@@ 3
夂 3
夙 3
夾@@ 3
套@@ 3
奠 3
奣 3
奸 3
她 3
妆 3
妇 3
妊 3
妍@@ 3
妝 3
妝@@ 3
妣 3
妾@@ 3
姁 3
姝@@ 3
姞@@ 3
姨@@ 3
姮@@ 3
姻 3
姻@@ 3
姿 3
娇 3
娴@@ 3
婢 3
婢@@ 3
媧 3
媧@@ 3
媳 3
嫘@@ 3
嫩@@ 3
嫮@@ 3
嫱 3
嬖@@ 3
孖 3
宓@@ 3
审@@ 3
宵 3
寃@@ 3
寓 3
寕@@ 3
寫@@ 3
寮@@ 3
寵 3
専@@ 3
尙 3
屍@@ 3
屢@@ 3
屬 3
屮 3
屿 3
屿@@ 3
岔 3
岫@@ 3
峒 3
峩 3
峽 3
峽@@ 3
崃@@ 3
崙@@ 3
崴 3
嶠 3
巍@@ 3
巡 3
巿 3
币 3
帆@@ 3
帘 3
帳@@ 3
幡 3
幫 3
床@@ 3
庸@@ 3
廃@@ 3
廌 3
廕@@ 3
廚@@ 3
廞 3
廩@@ 3
廾 3
弈 3
弐 3
弹@@ 3
彗@@ 3
彛 3
彳 3
徑@@ 3
徧@@ 3
徴@@ 3
忌@@ 3
忘 3
快 3
忱 3
怀 3
怖@@ 3
怜 3
恶 3
悌@@ 3
悍@@ 3
悝 3
惟 3
惱 3
惱@@ 3
愃 3
愷@@ 3
慤 3
慮 3
慮@@ 3
憐@@ 3
憶@@ 3
懟 3
戈@@ 3
戎@@ 3
戚 3
戬 3
扁 3
扇 3
扈 3
扉@@ 3
扱@@ 3
扶 3
抄@@ 3
投 3
抽 3
拈@@ 3
拍 3
拓 3
拖@@ 3
拘@@ 3
拥@@ 3
括@@ 3
拯 3
挂 3
挺@@ 3
捞 3
排 3
掘 3
採@@ 3
措@@ 3
搖@@ 3
摎 3
摘 3
摠@@ 3
摭 3
撲 3
擇@@ 3
救 3
敘@@ 3
敢 3
斉 3
斉@@ 3
斌@@ 3
斧@@ 3
旁@@ 3
旧 3
旷@@ 3
旻@@ 3
旼 3
昔 3
昞 3
昨@@ 3
晖@@ 3
晩 3
晩@@ 3
晫 3
暀 3
暁 3
暉@@ 3
暊 3
暑@@ 3
暘 3
暨 3
暹 3
曌 3
曔 3
曖 3
曠@@ 3
曷@@ 3
曽 3
替@@ 3
朦@@ 3
朽 3
杓 3
极 3
构@@ 3
枫 3
枸@@ 3
柄 3
柿 3
栉@@ 3
栎@@ 3
栏 3
样 3
梢 3
梢@@ 3
梯@@ 3
棉 3
棉@@ 3
棚 3
棣@@ 3
椅@@ 3
楓@@ 3
楝@@ 3
楣 3
楨@@ 3
榕@@ 3
榴 3
槻 3
槽 3
槿 3
樣 3
橚 3
檗@@ 3
檢 3
檳@@ 3
櫟@@ 3
欎@@ 3
欧 3
歧 3
歼 3
殇@@ 3
殘@@ 3
殭@@ 3
毓 3
氵 3
氷@@ 3
氾@@ 3
汚@@ 3
污@@ 3
汰 3
汶 3
汽 3
沃 3
沉 3
沣 3
泄 3
洱 3
洺 3
洽@@ 3
浄 3
测@@ 3
浒 3
浓@@ 3
浚@@ 3
浴 3
浹 3
消 3
涛@@ 3
淚 3
淡 3
淩 3
淫 3
淹@@ 3
渉@@ 3
渎 3
渝@@ 3
渺@@ 3
湓@@ 3
湜 3
湟@@ 3
湫@@ 3
溅@@ 3
溆 3
溟@@ 3
溱 3
滂 3
滑 3
滨 3
滬@@ 3
滹@@ 3
漣@@ 3
漬 3
漯@@ 3
潋@@ 3
潯 3
澗@@ 3
澥 3
澧@@ 3
澮 3
濊@@ 3
濡@@ 3
瀅 3
瀇@@ 3
瀏@@ 3
瀕@@ 3
瀚@@ 3
瀠 3
瀾 3
灃 3
灘@@ 3
灶 3
灶@@ 3
炉@@ 3
炊 3
炕 3
炟 3
炫@@ 3
炯@@ 3
炽 3
烟 3
烦 3
烬@@ 3
煇 3
煜 3
燐 3
燧@@ 3
燭 3
燼@@ 3
爰@@ 3
爽@@ 3
牆 3
牲 3
犍 3
犢@@ 3
狀 3
独 3
狮 3
狱@@ 3
狻@@ 3
猕@@ 3
猗 3
猷@@ 3
獠 3
獸 3
玕 3
玘 3
玜 3
玟@@ 3
玥 3
玩 3
玻@@ 3
珈 3
珉@@ 3
珪@@ 3
琊@@ 3
琏 3
琥 3
琰@@ 3
琲 3
璣@@ 3
瓛 3
瓣 3
瓣@@ 3
瓷@@ 3
甚 3
甬@@ 3
畲@@ 3
畵 3
畹@@ 3
疋 3
疵 3
瘋@@ 3
瘴@@ 3
瘾 3
療@@ 3
癖 3
癸 3
皆 3
皐@@ 3
皖 3
皚 3
皞 3
盎 3
盡 3
盱@@ 3
県@@ 3
眙 3
睛 3
睡 3
睹 3
瞳 3
瞽@@ 3
矛@@ 3
矫 3
矮@@ 3
研 3
碎 3
確 3
碾@@ 3
礁@@ 3
礦@@ 3
祈@@ 3
祗 3
祘 3
祸@@ 3
祹 3
禑 3
禔 3
禖@@ 3
禩 3
禰 3
租 3
租@@ 3
秤 3
秩 3
秪@@ 3
稍@@ 3
税 3
稜@@ 3
穂@@ 3
穌@@ 3
穗 3
究 3
穹 3
窕@@ 3
窩@@ 3
竿@@ 3
笈@@ 3
笔 3
笙@@ 3
笛 3
笛@@ 3
笼 3
笼@@ 3
筑 3
筭@@ 3
筱@@ 3
筹 3
箔 3
管理 3
箴@@ 3
箸 3
篆@@ 3
篾@@ 3
簋 3
簪 3
簽 3
簿@@ 3
籌 3
籙 3
粘 3
粘@@ 3
粥@@ 3
粽@@ 3
糜@@ 3
糸@@ 3
系列 3
紋@@ 3
紗 3
紘 3
紮@@ 3
細 3
紺@@ 3
絆 3
絕 3
絡 3
絶 3
綫@@ 3
綯 3
緜@@ 3
縉 3
縝 3
縻@@ 3
繄@@ 3
繞@@ 3
繩@@ 3
繻@@ 3
纂@@ 3
纣@@ 3
纱@@ 3
纸@@ 3
线@@ 3
绅 3
终 3
绛@@ 3
统 3
绣 3
绩 3
绰 3
绸@@ 3
绾 3
缯 3
罃 3
罟 3
罠 3
罢@@ 3
罷 3
美國 3
羕 3
羖@@ 3
羝 3
羣@@ 3
羯 3
羿 3
翅 3
翱 3
翻 3
耒 3
耽@@ 3
联 3
聯 3
肌 3
肌@@ 3
肚 3
肝@@ 3
肠 3
肩@@ 3
胃@@ 3
胄@@ 3
胞 3
胸 3
胸@@ 3
脈@@ 3
腊 3
腕 3
腿 3
腿@@ 3
膚 3
臂 3
臉@@ 3
臘 3
臚@@ 3
臭@@ 3
臼@@ 3
舆@@ 3
舎@@ 3
舫 3
舶@@ 3
艮@@ 3
艶@@ 3
艹 3
芗@@ 3
芥 3
芹@@ 3
芽 3
苇@@ 3
苌@@ 3
苓@@ 3
苔 3
苕@@ 3
苴@@ 3
苾 3
茅 3
茉@@ 3
茜 3
茨 3
茭@@ 3
茱 3
荆 3
荐@@ 3
荡@@ 3
荫@@ 3
荻@@ 3
莓@@ 3
莞 3
莽 3
菁@@ 3
菅 3
菓@@ 3
菱 3
菱@@ 3
萨 3
萩 3
萼@@ 3
葆 3
蒞@@ 3
蓬 3
蔎 3
蕤@@ 3
蕪@@ 3
蕫@@ 3
蕲@@ 3
蕾@@ 3
薊 3
薬 3
薷 3
藹@@ 3
虏@@ 3
虚 3
虜 3
蚕@@ 3
蚤@@ 3
蚩@@ 3
蛍 3
蜆@@ 3
蜈@@ 3
蜥@@ 3
蜻@@ 3
蝦 3
螺 3
蟜@@ 3
蟠 3
蟬 3
蟲@@ 3
蟻@@ 3
蠱@@ 3
衎 3
衞 3
衮 3
衰@@ 3
衱@@ 3
袁 3
裔@@ 3
裝 3
裤@@ 3
裹@@ 3
襖 3
襟@@ 3
覇@@ 3
览@@ 3
觉 3
觜@@ 3
觸@@ 3
訣@@ 3
訳 3
証@@ 3
詒 3
詣@@ 3
詥 3
詮@@ 3
詵 3
誘 3
課 3
諠 3
諫@@ 3
諱 3
諱@@ 3
諺@@ 3
諾 3
謡 3
譴 3
讀 3
讨@@ 3
证@@ 3
词@@ 3
译 3
诔 3
诛@@ 3
诩 3
诰 3
诸 3
谅@@ 3
谎@@ 3
谓@@ 3
谟 3
谣 3
豉@@ 3
豊 3
豕 3
豬 3
豺 3
貂@@ 3
貅 3
貊@@ 3
責@@ 3
賚@@ 3
購 3
贈 3
贡 3
财 3
货@@ 3
贴@@ 3
贼 3
赉 3
赠@@ 3
赣 3
赭@@ 3
趣 3
趺@@ 3
踈@@ 3
踐@@ 3
軻 3
軾 3
較@@ 3
輅 3
輋@@ 3
輦@@ 3
輩@@ 3
轅@@ 3
轉 3
轍 3
轨 3
转 3
软@@ 3
辇@@ 3
输@@ 3
辞 3
边 3
迂@@ 3
迈 3
迈@@ 3
还 3
迫 3
迴 3
逌 3
逐 3
递@@ 3
途 3
逞 3
週 3
逾 3
遙 3
避 3
邂@@ 3
邯 3
邳 3
邺@@ 3
邻 3
邻@@ 3
郃@@ 3
郏 3
郓@@ 3
郚 3
郧@@ 3
郫@@ 3
郵@@ 3
郾@@ 3
郿@@ 3
鄀@@ 3
鄙@@ 3
鄜@@ 3
鄰@@ 3
鄲@@ 3
酢 3
酥@@ 3
醒@@ 3
醤@@ 3
釜 3
鈞@@ 3
鉉@@ 3
銃@@ 3
銳 3
鋋 3
鋌 3
鋪 3
鋪@@ 3
鋸 3
錤 3
鍋@@ 3
鍠 3
鎧 3
鎧@@ 3
鎬@@ 3
鎰 3
鏦 3
鐮@@ 3
鑒@@ 3
鑛@@ 3
鑫 3
鑰 3
针 3
钓@@ 3
钞 3
钰 3
钵@@ 3
铃 3
铸 3
错 3
锺@@ 3
镐 3
镐@@ 3
镛 3
閉 3
開始 3
閒 3
閤 3
閫@@ 3
閬 3
闘 3
闡 3
闡@@ 3
闭@@ 3
阙@@ 3
阡@@ 3
阵@@ 3
陂 3
陂@@ 3
陞 3
除 3
隅 3
隈 3
隔 3
隗@@ 3
際 3
隣 3
隣@@ 3
隼 3
隼@@ 3
雕 3
雜 3
雫 3
雫@@ 3
雳@@ 3
需 3
需@@ 3
霑 3
霓@@ 3
靠@@ 3
靣@@ 3
鞋 3
鞨 3
韩 3
項 3
頌@@ 3
頠 3
頲 3
頻 3
顓 3
顰 3
顼 3
顿 3
题 3
题@@ 3
颙 3
颱 3
飒 3
飴@@ 3
餃@@ 3
馭@@ 3
馮 3
駝@@ 3
騅@@ 3
驛@@ 3
驢@@ 3
驥 3
驩 3
骐 3
骓@@ 3
骠@@ 3
鬥 3
鬪 3
鬲 3
鯉 3
鰹 3
鲵 3
鳌@@ 3
鴉 3
鵝 3
鶏@@ 3
鶯 3
鷄@@ 3
鸚@@ 3
鸭 3
鸯@@ 3
麓 3
麼@@ 3
黏@@ 3
黛 3
黛@@ 3
黯 3
齒 3
龐 3
龟@@ 3
Ꞗ 3
ꪄ@@ 3
ꪎ@@ 3
ꪝ@@ 3
ꪠ@@ 3
ꪭ 3
ꪾ 3
갓 3
갓@@ 3
격 3
겸@@ 3
급@@ 3
꺼 3
께@@ 3
꼬 3
꼬@@ 3
꿈 3
꿈@@ 3
끝 3
끝@@ 3
났@@ 3
녹@@ 3
느@@ 3
는@@ 3
닐@@ 3
닭 3
댄@@ 3
댓@@ 3
덟@@ 3
돼@@ 3
된 3
둘 3
듀@@ 3
든@@ 3
등 3
떡@@ 3
또 3
뚜@@ 3
력 3
련@@ 3
례 3
롱 3
륜@@ 3
륭 3
르 3
륵 3
른@@ 3
린@@ 3
막 3
망 3
맥@@ 3
멈@@ 3
묘 3
뭐@@ 3
및 3
바 3
배 3
뱅@@ 3
범 3
변 3
변@@ 3
볼@@ 3
봄@@ 3
북 3
불 3
붕@@ 3
뷰 3
빅 3
빠@@ 3
뽐 3
뽑@@ 3
쁘@@ 3
색 3
샤@@ 3
손 3
쇠@@ 3
쇼 3
슨 3
싫@@ 3
싸@@ 3
쌈 3
쌍 3
써@@ 3
알 3
암 3
았@@ 3
액@@ 3
억 3
업 3
엔 3
옷 3
외 3
잠@@ 3
잭@@ 3
젠 3
젯@@ 3
족@@ 3
쥬@@ 3
즐@@ 3
증 3
질@@ 3
짜@@ 3
찜 3
착@@ 3
찰@@ 3
참 3
첨@@ 3
체 3
춤 3
츄 3
츠 3
침@@ 3
캠@@ 3
콤@@ 3
큼 3
킹@@ 3
탁 3
탁@@ 3
톨@@ 3
틀 3
틱@@ 3
틴 3
팀 3
팝 3
팝@@ 3
팥@@ 3
페 3
푸@@ 3
품 3
픈 3
픽 3
필 3
햇@@ 3
험@@ 3
헬@@ 3
혁@@ 3
혈@@ 3
황 3
히 3
히@@ 3
 3
 3
 3
 3
﨑 3
ﺑ@@ 3
ﺮ@@ 3
ﻴ@@ 3
２@@ 3
５@@ 3
＠ 3
Ｃ@@ 3
Ｄ 3
Ｅ@@ 3
Ｆ@@ 3
Ｉ@@ 3
Ｎ@@ 3
Ｔ@@ 3
｢ 3
｣ 3
ｪ 3
𐎠 3
𐎠@@ 3
𐎼@@ 3
𐤀@@ 3
𐤓@@ 3
𐭓@@ 3
𐭣@@ 3
𐭮@@ 3
𑐫@@ 3
𑐮@@ 3
𒆠@@ 3
𒊑@@ 3
𖬰 3
𝗙@@ 3
𝗚@@ 3
𝗢@@ 3
🇨 3
🍑 3
𧁶 3
𨛦@@ 3
Agosti 2
Beispi@@ 2
Biografía 2
Cumhur@@ 2
Dezember 2
Doğu 2
Haziran 2
Januari 2
Kristo 2
Kuzey 2
Mayıs 2
Mji 2
März 2
Namen 2
Savaşı 2
Seit 2
Selon 2
ambaye 2
amerikan@@ 2
amment 2
anisha 2
anlam@@ 2
anlığı 2
annt 2
annte 2
asının 2
aunque 2
bahari 2
beiden 2
bulun@@ 2
bunge 2
cinq 2
compañ@@ 2
convir@@ 2
crí@@ 2
cuenta 2
desarrollo 2
devient 2
doit 2
durch@@ 2
einige 2
ejempl@@ 2
elekea 2
enero 2
errich@@ 2
estadounidense 2
falme 2
frente 2
fuat@@ 2
fuata 2
género 2
göre@@ 2
görül@@ 2
görün@@ 2
harek@@ 2
hayo 2
heirat@@ 2
hielt 2
himu 2
hizi 2
ieurs 2
ihren 2
imleri 2
itig 2
junio 2
lararası 2
lassen 2
lleg@@ 2
lugar 2
maana 2
mashariki 2
momento 2
müz@@ 2
noviembre 2
nın 2
ongozi 2
personas 2
plusieurs 2
población 2
polí@@ 2
primeros 2
projet 2
préc@@ 2
présente 2
rağ@@ 2
refu 2
rôle 2
sechs 2
seit 2
siendo 2
sowie 2
später 2
süre 2
tarde 2
titre 2
tragen 2
tüm 2
upande 2
uvent 2
veces 2
vieron 2
wais@@ 2
weiter@@ 2
wili 2
wurden 2
während 2
yön@@ 2
yılı 2
zurück 2
zweiten 2
 2
 2
¶ 2
çok 2
èrement 2
équipe 2
ísticas 2
öffent@@ 2
önce 2
ört 2
últim@@ 2
üdür 2
üzer@@ 2
Ć 2
ċ@@ 2
Ē 2
Ĕ@@ 2
Ė@@ 2
Ę 2
Ĥ@@ 2
į@@ 2
ışt@@ 2
ĳ 2
ĵ@@ 2
ķ 2
Ĺ 2
Ń 2
Ŏ 2
Ŕ 2
şehir@@ 2
Ű 2
Ǝ@@ 2
Ɛ@@ 2
ƶ@@ 2
ǂ 2
Ǎ@@ 2
Ǒ@@ 2
ǯ@@ 2
Ǻ 2
Ȟ@@ 2
ȟ@@ 2
ȯ@@ 2
Ȳ@@ 2
ɘ 2
ɞ 2
ɠ@@ 2
ɢ 2
ɭ@@ 2
ɰ 2
ɰ@@ 2
ʇ 2
ʐ 2
ʖ 2
ʘ@@ 2
ʝ 2
˙ 2
˞ 2
ˤ 2
̅ 2
̒ 2
̕ 2
̟ 2
͂ 2
Ή 2
Αγίου 2
Αθήνα 2
Αθηνών 2
Αλ@@ 2
Ανατολ@@ 2
Αντι@@ 2
Βαλ@@ 2
Ελλάδα 2
Ελλάδας 2
Ευ@@ 2
Ευρώπη 2
Κοιν@@ 2
Κωνστ@@ 2
Μέ@@ 2
Ολυμπιακ@@ 2
Ομ@@ 2
Πρ@@ 2
άδα 2
άλι 2
άλογ@@ 2
άλυ@@ 2
άμε@@ 2
άν 2
άνθρω@@ 2
άρι 2
άτων 2
άχ@@ 2
έδ@@ 2
έπ@@ 2
έργ@@ 2
έστ@@ 2
ήλ@@ 2
ήμ@@ 2
ήματα 2
ίδα 2
αίν@@ 2
αγι@@ 2
αδελφ@@ 2
αιν@@ 2
αλλαγ@@ 2
ανου@@ 2
αντιν@@ 2
αξ@@ 2
βά@@ 2
βαν@@ 2
γε@@ 2
γμα 2
δευ@@ 2
δη@@ 2
δηλ@@ 2
διασ@@ 2
διο 2
διπλ@@ 2
δοκ@@ 2
δρόμ@@ 2
είς 2
είων 2
εγκ@@ 2
ειο 2
εμ@@ 2
επισκ@@ 2
εταιρ@@ 2
ευρ@@ 2
εχ@@ 2
ζυγ@@ 2
ζωή 2
ηλε@@ 2
θεια 2
θεν@@ 2
ιακ@@ 2
ισμ@@ 2
ισχ@@ 2
ιών 2
καδημ@@ 2
κατά 2
κατά@@ 2
κατα@@ 2
κε@@ 2
κομ@@ 2
κρί@@ 2
κυβ@@ 2
κω@@ 2
λαδ@@ 2
λει@@ 2
λεύθερ@@ 2
λη@@ 2
μ. 2
μάν@@ 2
μένη 2
μένης 2
μέρα 2
μές 2
μή 2
μία 2
ματος 2
μετα@@ 2
μικρ@@ 2
μο 2
μο@@ 2
μονα@@ 2
μου 2
νησι@@ 2
ντ@@ 2
νό@@ 2
ξεις 2
ξη 2
ονομ@@ 2
ορο@@ 2
οσπον@@ 2
οσφ@@ 2
ουρ@@ 2
ουσ@@ 2
ούσ@@ 2
περί@@ 2
πλευ@@ 2
πλο@@ 2
πολί@@ 2
πολλ@@ 2
πολύ 2
πον@@ 2
πορ@@ 2
πραγ@@ 2
πρι@@ 2
πρόσ@@ 2
πυρ@@ 2
πόλε@@ 2
ρίσ@@ 2
ραση 2
ρική 2
ριν@@ 2
ροι 2
σίας 2
στα@@ 2
στρα@@ 2
σώ@@ 2
τέλος 2
τή 2
ταγ@@ 2
ταγων@@ 2
ταινία 2
τελ@@ 2
τευ@@ 2
τεύ@@ 2
τική 2
τικής 2
τον@@ 2
τροφ@@ 2
τσι 2
τό@@ 2
υνα@@ 2
υπο@@ 2
υργ@@ 2
φά@@ 2
φάν@@ 2
φαλ@@ 2
φθ@@ 2
χολ@@ 2
χω@@ 2
ωβ@@ 2
ωλ@@ 2
ωμα 2
ωνα 2
ωση 2
όρι@@ 2
ώπ@@ 2
ώρ@@ 2
ώρα 2
ώσ@@ 2
ϑ 2
ϝ 2
ϡ 2
ϫ@@ 2
Ϭ 2
ϵ 2
ϸ 2
Є 2
Ї 2
Љ@@ 2
Ў 2
Администра@@ 2
Аль@@ 2
Афри@@ 2
Бълга@@ 2
Во 2
Герма@@ 2
Джо@@ 2
Ита@@ 2
Йо@@ 2
Йор@@ 2
Кла@@ 2
Меж@@ 2
Олимпи@@ 2
От 2
Пло@@ 2
После 2
Пър@@ 2
Это 2
ави@@ 2
автомоби@@ 2
административ@@ 2
ана 2
ати 2
бат@@ 2
бил 2
благо@@ 2
более 2
бря 2
бург 2
българ@@ 2
вается 2
вала 2
ване 2
ват 2
вени 2
вер 2
вмест@@ 2
води 2
връ@@ 2
встре@@ 2
вър@@ 2
ген 2
генера@@ 2
гло@@ 2
година 2
годы 2
голе@@ 2
городе 2
госу@@ 2
граф@@ 2
группы 2
дека@@ 2
дете@@ 2
дии 2
дис@@ 2
дли@@ 2
доби@@ 2
дол@@ 2
другие 2
евре@@ 2
ези@@ 2
ел 2
жена 2
живе@@ 2
зако@@ 2
запад@@ 2
зва@@ 2
зву@@ 2
зии 2
игра@@ 2
иде@@ 2
изда@@ 2
има 2
импера@@ 2
инте@@ 2
интер@@ 2
информа@@ 2
испол@@ 2
ителя 2
ити 2
ится 2
иту@@ 2
ию@@ 2
йского 2
кило@@ 2
кино@@ 2
кли@@ 2
ковод@@ 2
кой@@ 2
кономи@@ 2
концер@@ 2
который 2
кси@@ 2
лата 2
лах 2
литератур@@ 2
лиш@@ 2
лом 2
меда@@ 2
мене@@ 2
мени@@ 2
мента 2
мерикан@@ 2
мето@@ 2
метра 2
мите 2
мс 2
музы@@ 2
наи@@ 2
нари@@ 2
начи@@ 2
нес 2
несколько 2
ником 2
один 2
одно@@ 2
око@@ 2
окон@@ 2
октя@@ 2
ологи@@ 2
органи@@ 2
оста@@ 2
парла@@ 2
парти@@ 2
партии 2
пен@@ 2
периода 2
печат@@ 2
плат@@ 2
пли@@ 2
поз@@ 2
пол 2
полк 2
поло@@ 2
попа@@ 2
популяр@@ 2
пос@@ 2
посо@@ 2
постро@@ 2
поч@@ 2
поя@@ 2
пр@@ 2
права 2
преда@@ 2
препода@@ 2
прин@@ 2
произ@@ 2
проис@@ 2
работ@@ 2
разв@@ 2
разли@@ 2
рами 2
распо@@ 2
реги@@ 2
рез 2
рих 2
рията 2
рода 2
руковод@@ 2
сам 2
своей 2
свою 2
сезон 2
сили 2
ската 2
скоро@@ 2
скус@@ 2
следу@@ 2
сно 2
сня@@ 2
совета 2
состоя@@ 2
соци@@ 2
сред@@ 2
среди 2
става 2
стала 2
ства@@ 2
ствует 2
стей 2
стой@@ 2
стояние 2
страна 2
стрел@@ 2
струк@@ 2
суще@@ 2
также 2
тах 2
теат@@ 2
типа 2
тите 2
това 2
ток 2
тол@@ 2
тон@@ 2
точ@@ 2
убий@@ 2
уров@@ 2
усло@@ 2
участ@@ 2
участие 2
училище 2
февраля 2
фек@@ 2
физи@@ 2
финан@@ 2
фон 2
цата 2
часть 2
чего 2
чей 2
чет@@ 2
чина 2
чки 2
чле@@ 2
шим 2
шла 2
щая 2
що 2
ърк@@ 2
эти@@ 2
этом 2
этот 2
ющего 2
ющие 2
ѓ@@ 2
љ 2
њ 2
џ@@ 2
ѳ@@ 2
ѵ 2
ҕ@@ 2
ҡ@@ 2
Ү 2
Ұ@@ 2
Ҷ@@ 2
ҹ@@ 2
Һ@@ 2
һ 2
ӏ 2
ӕ@@ 2
ӗ@@ 2
Ә 2
ӯ@@ 2
ӱ 2
ӷ@@ 2
ԥ@@ 2
Ե 2
Լ@@ 2
Ռ@@ 2
Վ 2
Ք@@ 2
բ 2
գ 2
ժ@@ 2
ծ 2
վ 2
֜ 2
֨ 2
֫ 2
ִ 2
ׂ 2
ן@@ 2
״ 2
؋ 2
آب@@ 2
أد@@ 2
أف@@ 2
أكبر 2
إن@@ 2
ئر@@ 2
ائد 2
اتا 2
اتی 2
اح 2
اح@@ 2
ادات 2
ارا 2
اری 2
ازی 2
اسلام 2
اسي 2
اض@@ 2
افة 2
الآ@@ 2
الا 2
الاست@@ 2
الاق@@ 2
البا@@ 2
الجام@@ 2
الجيش 2
الحرب 2
الذين 2
الرو@@ 2
الشرق@@ 2
العالم@@ 2
العل@@ 2
الفت@@ 2
الفل@@ 2
المؤ@@ 2
المح@@ 2
المه@@ 2
النا@@ 2
النس@@ 2
امة 2
امی 2
امی@@ 2
انی@@ 2
اه 2
اور 2
اول 2
اول@@ 2
ايا 2
باز 2
باع@@ 2
بان@@ 2
بت 2
بت@@ 2
برو@@ 2
بعة 2
بند 2
به 2
بير 2
بھ@@ 2
بین 2
تأ@@ 2
تار@@ 2
تخ@@ 2
تد@@ 2
ترا 2
تش 2
تض@@ 2
تف@@ 2
تك@@ 2
ته 2
جار@@ 2
جن 2
جو@@ 2
حد@@ 2
حز@@ 2
حس@@ 2
حسین 2
حل 2
حی@@ 2
خوا@@ 2
داً 2
دري@@ 2
دم 2
دور@@ 2
دوس@@ 2
دون@@ 2
ديد 2
دير 2
دين 2
دُ@@ 2
دی@@ 2
دین 2
ذر@@ 2
رح@@ 2
رس@@ 2
روز@@ 2
روش@@ 2
زبان 2
زم 2
زية 2
ساح@@ 2
سان@@ 2
ستی 2
سرائ@@ 2
سف@@ 2
سلا@@ 2
سلم 2
سم 2
سية 2
سک@@ 2
سہ 2
سید 2
شاہی 2
شع@@ 2
شن@@ 2
ضاء 2
طل@@ 2
ظ 2
عام 2
عملية 2
عن 2
عه 2
عی@@ 2
فاق 2
فری@@ 2
فل@@ 2
قائد 2
قلعہ 2
قی 2
كار@@ 2
كان 2
كو@@ 2
كور@@ 2
كي 2
كية 2
لاح 2
لاد 2
للا@@ 2
لم 2
لو 2
ليس 2
لی@@ 2
ماری 2
مال@@ 2
مانی 2
محل 2
مدر@@ 2
مك@@ 2
مل 2
منظ@@ 2
موا@@ 2
مور@@ 2
مى 2
مہ@@ 2
ناء 2
نام@@ 2
نت@@ 2
ندي 2
نس 2
نظ@@ 2
نه@@ 2
نواب 2
نور@@ 2
هار@@ 2
هي 2
وار 2
والم@@ 2
وح@@ 2
ودة 2
وس 2
وص@@ 2
وطن 2
وغ@@ 2
وف 2
ولد 2
ولي@@ 2
وني 2
وی 2
يرة 2
يف@@ 2
يل@@ 2
ينا 2
ينية 2
ًا 2
َّة 2
ٓ 2
ٓ@@ 2
٢@@ 2
ٹو 2
پاک 2
پاکستان 2
پرو@@ 2
پن@@ 2
پہ@@ 2
چ 2
چل@@ 2
ڇ@@ 2
ڌ@@ 2
ړ@@ 2
ڕ@@ 2
ژ@@ 2
کان 2
کت 2
کر 2
کری@@ 2
کشمیر 2
کل@@ 2
کو 2
کو@@ 2
گی@@ 2
ڻ 2
ۀ 2
ہم 2
ہندوستانی 2
یت 2
ید 2
۱@@ 2
ܓ 2
ܕ 2
ܟ@@ 2
ܪ 2
ܹ@@ 2
ܺ@@ 2
ވ@@ 2
ލ@@ 2
ޚ@@ 2
ަ 2
ߌ 2
ߎ 2
ߖ@@ 2
ߛ@@ 2
ߡ@@ 2
߬ 2
ंग 2
ंग@@ 2
ंब@@ 2
अ 2
अक 2
अग 2
अन 2
अर@@ 2
अस 2
आत 2
इतिहास 2
उच 2
उत 2
ओ@@ 2
ओं 2
कट 2
कार@@ 2
काल@@ 2
कुमार 2
कृ@@ 2
केन 2
खण 2
गर 2
गे@@ 2
घ 2
घा@@ 2
घो@@ 2
ङ@@ 2
चंद 2
ची 2
चु@@ 2
चै@@ 2
छ 2
छा@@ 2
जग@@ 2
जय@@ 2
जा 2
ञा@@ 2
टी 2
डे@@ 2
ढ 2
तक 2
तर@@ 2
तरा@@ 2
तरी 2
तव 2
तार 2
ती@@ 2
दक 2
दर 2
दान 2
दार 2
दी@@ 2
दृ@@ 2
देव 2
देवी 2
दो@@ 2
नक 2
नन 2
नो@@ 2
पत 2
पन 2
पह@@ 2
पी 2
पू@@ 2
फ@@ 2
बि@@ 2
बै@@ 2
भाग 2
भारतीय 2
भिक 2
मण 2
मार 2
मित 2
मुक 2
मे 2
मै@@ 2
यु 2
यो@@ 2
रति@@ 2
रदेश 2
रम 2
रु 2
रो 2
लाल 2
लू 2
लोक 2
लोक@@ 2
विष 2
वो@@ 2
शक 2
शीर 2
षा@@ 2
षिण 2
सप 2
समा@@ 2
सा 2
सिद 2
सूर 2
हा@@ 2
ही 2
हू@@ 2
ारा 2
ारी 2
ारे 2
ीन 2
ोर 2
ौ 2
१ 2
२ 2
४ 2
এ@@ 2
ঞ 2
ঠ@@ 2
থ 2
ফ@@ 2
ষ@@ 2
ূ@@ 2
ৰ 2
ৰ@@ 2
ਂ@@ 2
ਕ 2
ਖ 2
ਗ 2
ਗ@@ 2
ਘ 2
ਤ 2
ਦ@@ 2
ਮ@@ 2
ਵ@@ 2
਼ 2
ੀ 2
ੂ 2
੍ 2
ੜ@@ 2
અ@@ 2
ચ 2
ડ@@ 2
ણ 2
ત 2
ત@@ 2
ભ@@ 2
વ 2
સ 2
સ@@ 2
હ@@ 2
ે 2
ର@@ 2
ହ@@ 2
ା 2
ା@@ 2
ି@@ 2
ற 2
ே 2
ం 2
జ 2
జ@@ 2
ట@@ 2
ద 2
వ@@ 2
శ@@ 2
ూ@@ 2
ె@@ 2
ే@@ 2
౦@@ 2
ಜ@@ 2
ಠ 2
ೆ 2
ೊ@@ 2
ച@@ 2
ട@@ 2
ദ@@ 2
മ 2
ല 2
ള@@ 2
ശ@@ 2
ഷ@@ 2
ൂ@@ 2
േ@@ 2
අ@@ 2
උ@@ 2
ද 2
ද@@ 2
හ 2
ැ@@ 2
ේ 2
ෝ@@ 2
กรา@@ 2
กษั@@ 2
กัด 2
กาย 2
ครั@@ 2
คั@@ 2
ฅ 2
งาน 2
จั@@ 2
จาก@@ 2
จาร@@ 2
ชนะ 2
ชัน 2
ชุด 2
ซี@@ 2
ฌ@@ 2
ญญา 2
ฐาน 2
ณะ 2
ณะ@@ 2
ณา@@ 2
ดง@@ 2
ดำ@@ 2
ดู@@ 2
ตริ@@ 2
ตล@@ 2
ตว@@ 2
ตา 2
ตาม@@ 2
ตี 2
ตุ 2
ทุ@@ 2
ทุก@@ 2
นัก@@ 2
นิ 2
บริ@@ 2
บา 2
ปี@@ 2
ผล@@ 2
พว@@ 2
พั@@ 2
พื@@ 2
ฟุตบอล 2
ยู 2
รณ@@ 2
ราง@@ 2
ลาย 2
วิทยาล@@ 2
วี 2
วุ@@ 2
ศาส@@ 2
ศึ@@ 2
สัม@@ 2
สาร 2
สำ@@ 2
สี 2
สู@@ 2
สูง 2
หลัก@@ 2
หลัง@@ 2
หว@@ 2
อบ 2
อร@@ 2
อล 2
ออก@@ 2
อัล@@ 2
อัลบ@@ 2
ัก 2
ำเ@@ 2
ิม 2
ิล@@ 2
ืน 2
ุน 2
ูก 2
เกิด@@ 2
เดิม 2
เปล@@ 2
แด@@ 2
แน@@ 2
แผ@@ 2
แรก 2
โน 2
โบ@@ 2
โม@@ 2
ไล@@ 2
๏ 2
ປ 2
ຟ 2
ຶ 2
໌ 2
༎ 2
ཆ 2
ཕ 2
ཡ 2
ཨ 2
ྰ@@ 2
ဇ@@ 2
ဉ 2
ဏ 2
ဒ 2
ယ@@ 2
ရ 2
လ 2
ဠ@@ 2
ၩ 2
პ 2
ჟ@@ 2
ღ 2
ᄂ@@ 2
ᆷ@@ 2
ᇰ 2
ህ@@ 2
ሐ@@ 2
ሕ 2
ሞ@@ 2
ረ 2
ሪ@@ 2
ሲ@@ 2
ሳ 2
ሳ@@ 2
ሴ 2
ሽ 2
ቅ 2
ቢ@@ 2
ባ 2
ቱ 2
ቱ@@ 2
ቸ@@ 2
ኒ@@ 2
ክ 2
ክ@@ 2
ው 2
ዕ@@ 2
ዝ 2
ዱ@@ 2
ዲ@@ 2
ድ 2
ፍ@@ 2
ᐟ@@ 2
ᐥ 2
ᑐ 2
ᑦ 2
ᒃ@@ 2
ᓇ@@ 2
ᓗ@@ 2
ᔕ 2
ᖃ@@ 2
ᚢ@@ 2
ᚴ@@ 2
ᛅ@@ 2
ᛋ@@ 2
ឆ 2
ឆ@@ 2
ថ 2
ផ 2
ុ 2
ូ 2
ៃ@@ 2
ៈ@@ 2
ᠡ 2
ᠢ 2
ᠥ@@ 2
ᠪ 2
ᠮ 2
ᠸ@@ 2
ᡝ@@ 2
ᡧ@@ 2
ᡵ@@ 2
ᡶ@@ 2
ᥖ@@ 2
ᥝ@@ 2
ᥣ@@ 2
ᥨ@@ 2
ᦉ@@ 2
ᦟ@@ 2
ᦲ@@ 2
ᦸ@@ 2
ᦹ@@ 2
ᧉ 2
ᮔ 2
ᮧ@@ 2
᮪ 2
ᰛ@@ 2
ᰵ 2
ᴗ@@ 2
ᴥ@@ 2
ᵍ 2
ᵒ 2
ḃ 2
ḃ@@ 2
Ḑ@@ 2
ḑ@@ 2
ḕ 2
Ḥ 2
Ḩ@@ 2
ḳ 2
Ḵ@@ 2
ḵ 2
ḿ 2
ṉ 2
ṙ@@ 2
Ṛ@@ 2
ṝ 2
ṿ@@ 2
Ẽ@@ 2
Ἕ@@ 2
ἠ@@ 2
ἦ@@ 2
Ἴ@@ 2
ὖ@@ 2
ὠ@@ 2
ὥ@@ 2
ὲ 2
ᾶ 2
Ᾱ@@ 2
ῃ 2
ῖ 2
ῳ@@ 2
ῷ 2
⁷ 2
⁽ 2
₃ 2
₍ 2
ₙ 2
₪ 2
₰ 2
₵ 2
⃣ 2
ℛ@@ 2
ℰ 2
⅒ 2
⅙ 2
Ⅰ 2
Ⅳ 2
⇨ 2
∥ 2
∭ 2
∵ 2
≦ 2
≧ 2
≲ 2
⊢ 2
⍝ 2
⎇ 2
③ 2
▒ 2
◆ 2
◉ 2
◌ 2
☯ 2
☵ 2
♊ 2
♍ 2
♒ 2
♗ 2
♝ 2
⛧ 2
✔ 2
✡ 2
✷ 2
ⱨ@@ 2
ⱪ@@ 2
ⱬ 2
ⲃ@@ 2
ⲣ 2
ⲥ 2
ⴰ 2
ⴱ 2
ⴳ@@ 2
ⴻ@@ 2
ⵃ@@ 2
ⵛ@@ 2
ⵡ@@ 2
〇 2
〒 2
ぁ@@ 2
ぅ 2
ぉ 2
ぉ@@ 2
ぴ 2
ぺ@@ 2
ゐ@@ 2
゛ 2
ゝ@@ 2
ヅ 2
ㄇ@@ 2
ㄊ@@ 2
ㄍ@@ 2
ㄦ 2
ㄲ 2
ㄸ 2
ㅁ@@ 2
ㅂ@@ 2
ㅃ 2
ㅓ@@ 2
㈜ 2
㕑@@ 2
㝭 2
㦕 2
㬎 2
㯶 2
㶞 2
䄄 2
䄉 2
䄔 2
䓤@@ 2
䳍@@ 2
丐 2
丛@@ 2
个 2
串 2
串@@ 2
举@@ 2
乗 2
乩 2
亀 2
亅 2
享@@ 2
亳@@ 2
亻@@ 2
亿 2
仍 2
仏 2
仑 2
仓 2
仡@@ 2
仫@@ 2
伉 2
优 2
伷 2
伺 2
佚 2
佟 2
佺 2
侂@@ 2
侈 2
侖@@ 2
侘@@ 2
価@@ 2
侣 2
侨@@ 2
侬 2
侬@@ 2
俅 2
俍 2
俎 2
俑 2
俘@@ 2
俪@@ 2
借 2
倡@@ 2
倢 2
値 2
倪 2
倬@@ 2
倻 2
偈 2
偵 2
傍 2
傕 2
储 2
催 2
傭 2
傻@@ 2
傾 2
僅 2
僊 2
働 2
僑 2
價@@ 2
儇 2
儋 2
儚@@ 2
儼@@ 2
兌 2
兕 2
兢 2
兪 2
兮 2
冂 2
冇 2
冏 2
冒 2
冖 2
冢@@ 2
冥 2
冦@@ 2
况 2
凍@@ 2
凑 2
凛 2
凢@@ 2
処@@ 2
凪 2
凸 2
凹 2
凼 2
刂 2
刈 2
刳@@ 2
刷@@ 2
刹 2
刺 2
刽@@ 2
削@@ 2
剎@@ 2
剔 2
剡 2
剩@@ 2
剪@@ 2
創 2
劈 2
劝@@ 2
劭 2
励 2
劳 2
労 2
労@@ 2
劾@@ 2
勅 2
勑 2
勑@@ 2
募 2
勲 2
勸 2
勹 2
勺 2
匀@@ 2
匂 2
匄 2
匆@@ 2
匈 2
匏 2
匕@@ 2
匙@@ 2
匸 2
匽@@ 2
卅@@ 2
卉 2
卍@@ 2
协 2
卐 2
卖@@ 2
却 2
卵@@ 2
卸@@ 2
厉 2
厌@@ 2
厓@@ 2
厖@@ 2
厘@@ 2
厩@@ 2
厮@@ 2
厳 2
収 2
叙@@ 2
叛 2
叮@@ 2
叹 2
各 2
吞 2
吞@@ 2
听 2
吽 2
呀 2
呈 2
呐@@ 2
呪 2
呵 2
咄 2
咚@@ 2
咥 2
咨@@ 2
咬@@ 2
咯@@ 2
咲 2
哇 2
哉@@ 2
唃@@ 2
唔@@ 2
唳@@ 2
唵@@ 2
唾@@ 2
啊@@ 2
啡 2
啤@@ 2
啧@@ 2
啰@@ 2
啼 2
喊 2
喚 2
喧 2
喩 2
喪 2
喪@@ 2
営@@ 2
喻 2
嗶@@ 2
嘀 2
嘅 2
嘆 2
嘈 2
嘏@@ 2
嘯@@ 2
嘲 2
噉 2
噜@@ 2
噲 2
噴@@ 2
囉 2
囉@@ 2
囍 2
囮@@ 2
囲 2
圉@@ 2
國家 2
圳 2
坞@@ 2
垒 2
垠 2
埃@@ 2
埔 2
埠@@ 2
埼@@ 2
堃@@ 2
堵 2
塹 2
塽 2
塾@@ 2
墡 2
墮@@ 2
壟 2
壩 2
壩@@ 2
壱 2
壶 2
壼 2
夊 2
大利 2
夬 2
夭 2
奚 2
奨 2
妄 2
妒@@ 2
妓@@ 2
妖 2
妣@@ 2
妫 2
妳@@ 2
妸@@ 2
姊@@ 2
姍@@ 2
姝 2
姦@@ 2
姨 2
姮 2
姸 2
娄 2
娎 2
娑 2
娛 2
婷@@ 2
婿@@ 2
媖 2
媪@@ 2
媭 2
媳@@ 2
媵 2
媵@@ 2
嫲 2
嬉 2
嬉@@ 2
嬋 2
嬖 2
嬭 2
孀 2
孳@@ 2
孽 2
它 2
宥@@ 2
宵@@ 2
寊 2
寐@@ 2
寓@@ 2
寘 2
尕 2
尕@@ 2
尖 2
尝@@ 2
尢 2
尸 2
尻 2
尽 2
尿 2
屁@@ 2
届 2
屑 2
層@@ 2
屭 2
岫 2
岬@@ 2
岹 2
峁 2
峘 2
峙 2
峨 2
峩@@ 2
峴 2
峼 2
崂@@ 2
崆@@ 2
崐 2
崑 2
崛@@ 2
崧@@ 2
崮 2
嵒 2
嶙 2
嶷@@ 2
巅 2
巌 2
巘 2
巣 2
工作 2
巩@@ 2
巷@@ 2
帮@@ 2
帰 2
幞@@ 2
幟 2
幬 2
年代 2
并 2
庞 2
廌@@ 2
廕 2
廛 2
廝@@ 2
廴 2
弋 2
弌 2
弔@@ 2
弧 2
弯@@ 2
弹 2
彔@@ 2
彠 2
彡 2
彻@@ 2
彼 2
彿@@ 2
徃@@ 2
径 2
徴 2
徼 2
忙 2
忙@@ 2
忧 2
忧@@ 2
忿@@ 2
怎 2
怠@@ 2
怦 2
恁 2
恍@@ 2
恐 2
恢@@ 2
恤 2
恥 2
恥@@ 2
悄@@ 2
悉 2
悯@@ 2
悼 2
惚@@ 2
愧@@ 2
慄 2
慆 2
慘 2
慘@@ 2
慣 2
慣@@ 2
慵@@ 2
憍@@ 2
憤 2
憨@@ 2
憺 2
憻 2
懂@@ 2
懃 2
懲@@ 2
懺 2
懽@@ 2
戍 2
戛@@ 2
戟 2
戡 2
戢 2
戮@@ 2
戯 2
戯@@ 2
戳@@ 2
扉 2
払@@ 2
扞 2
扬 2
批 2
抑 2
抒@@ 2
抓@@ 2
抜 2
抽@@ 2
拏 2
拏@@ 2
拐 2
拒 2
拒@@ 2
拡 2
拦@@ 2
拨@@ 2
拭 2
拭@@ 2
拼 2
拾 2
挐 2
挖@@ 2
挙@@ 2
挚@@ 2
挡@@ 2
挪@@ 2
捏@@ 2
捕@@ 2
捜 2
捩@@ 2
据@@ 2
掉 2
掛 2
掟@@ 2
控 2
掸@@ 2
揄@@ 2
描@@ 2
握 2
揮 2
揺 2
搏@@ 2
搖 2
搭@@ 2
摘@@ 2
摳 2
摸@@ 2
撇 2
撓@@ 2
撥@@ 2
撮@@ 2
撻 2
撻@@ 2
撼@@ 2
擂 2
擅@@ 2
擧 2
擬 2
擬@@ 2
擴 2
攜 2
攴 2
攻 2
政治 2
敌@@ 2
敫 2
敲@@ 2
斈 2
斛 2
斜 2
斩@@ 2
斫@@ 2
既 2
旲 2
旽 2
昈 2
昐 2
昚 2
昛 2
昰 2
昴 2
昴@@ 2
昶@@ 2
昻 2
晄 2
晈 2
晊 2
晍 2
晔 2
晗 2
晗@@ 2
晙 2
晚 2
晝 2
晥 2
晪 2
晰 2
暄 2
暈 2
暎@@ 2
暐 2
暕 2
暖 2
暲 2
暹@@ 2
暻 2
曁@@ 2
曕 2
曖@@ 2
曧 2
曩@@ 2
曳 2
曽@@ 2
朐 2
朧 2
朧@@ 2
朮 2
杀 2
杼 2
枕 2
枫@@ 2
柑@@ 2
柚 2
柬@@ 2
柰 2
柵@@ 2
査 2
柿@@ 2
栋@@ 2
栩@@ 2
栽 2
桅@@ 2
桔 2
桔@@ 2
桢@@ 2
桧@@ 2
桱 2
桶 2
桶@@ 2
梃@@ 2
梗 2
械 2
梶 2
梶@@ 2
梹 2
棂@@ 2
棕 2
棚@@ 2
棡 2
棧 2
棺@@ 2
棻 2
椰@@ 2
楂@@ 2
楝 2
楹 2
榆 2
榊@@ 2
榕 2
榛@@ 2
槊@@ 2
槑 2
槛@@ 2
槜@@ 2
槢 2
樁 2
樋@@ 2
樘 2
樟 2
樽 2
樾 2
橿@@ 2
檄@@ 2
檜 2
檜@@ 2
檡 2
櫛@@ 2
欖@@ 2
欠@@ 2
歇 2
歐 2
歙 2
歙@@ 2
歴 2
歹 2
殄 2
残 2
殖@@ 2
殡@@ 2
殲 2
殲@@ 2
殳 2
殻 2
毀 2
毬@@ 2
氫@@ 2
氵@@ 2
氹 2
汁@@ 2
汇 2
汐@@ 2
汕 2
汜 2
沓@@ 2
沣@@ 2
沫 2
沱 2
況@@ 2
泌 2
泌@@ 2
泓 2
泗 2
泚 2
泣 2
泮 2
泱@@ 2
洁@@ 2
洄@@ 2
洊 2
洊@@ 2
洒@@ 2
洗 2
洙@@ 2
洼 2
洼@@ 2
浅 2
浓 2
浞 2
浣 2
涅 2
涌 2
涌@@ 2
涞@@ 2
涟@@ 2
涣 2
涨@@ 2
涪 2
液 2
涿 2
淄 2
淋 2
淋@@ 2
淖@@ 2
淜@@ 2
淤@@ 2
淦 2
淸 2
添 2
済 2
渕 2
渙@@ 2
減 2
渝 2
渣@@ 2
渥@@ 2
渦 2
測 2
湉 2
湮@@ 2
湿@@ 2
溏@@ 2
溧@@ 2
滁@@ 2
滇 2
滉 2
滉@@ 2
滚@@ 2
滝@@ 2
滯@@ 2
滴 2
漁 2
漂@@ 2
漓@@ 2
漣 2
漱@@ 2
漵@@ 2
漼 2
漾@@ 2
潍@@ 2
潙@@ 2
潟 2
潟@@ 2
潢 2
潯@@ 2
澀@@ 2
澅@@ 2
澎 2
澞 2
澡@@ 2
澯@@ 2
濁 2
濉@@ 2
濛@@ 2
濩 2
濮 2
濱 2
濴 2
瀆 2
瀍 2
瀍@@ 2
瀑@@ 2
瀘@@ 2
瀧@@ 2
瀲@@ 2
瀷 2
瀾@@ 2
灃@@ 2
灝 2
灰 2
灸 2
灾 2
灾@@ 2
炀@@ 2
炉 2
炤 2
炭@@ 2
烇 2
烊@@ 2
烤 2
烦@@ 2
烹 2
焕@@ 2
焘 2
焜@@ 2
焯 2
焰 2
煓 2
煤@@ 2
煦@@ 2
煮 2
熏@@ 2
燊 2
燒 2
燥 2
爐@@ 2
爨@@ 2
爻 2
爻@@ 2
牆@@ 2
牒 2
牝@@ 2
牯@@ 2
牵@@ 2
犁 2
犂@@ 2
犧@@ 2
犯 2
犹@@ 2
狎@@ 2
狩 2
狩@@ 2
狭 2
猓@@ 2
猖@@ 2
猝@@ 2
獒 2
獬@@ 2
獺 2
玆@@ 2
玖@@ 2
玝 2
玦 2
玭 2
玶 2
玺 2
珅 2
珑@@ 2
珮@@ 2
珵 2
珹 2
琊 2
琐@@ 2
琢@@ 2
琿 2
瑈 2
瑕@@ 2
瑚 2
瑛@@ 2
瑢 2
瑪 2
瑳 2
璉@@ 2
璘@@ 2
璙 2
璛 2
璞@@ 2
璫 2
璻 2
璽@@ 2
璿@@ 2
瓏 2
瓠@@ 2
瓢@@ 2
甌 2
甜 2
甦@@ 2
畋 2
畠 2
畬 2
畬@@ 2
畴 2
畴@@ 2
疇 2
疋@@ 2
疣@@ 2
疽@@ 2
症 2
痘@@ 2
痣@@ 2
瘤@@ 2
療 2
皂 2
皈 2
皙@@ 2
皛 2
盅@@ 2
盜 2
盼 2
眜 2
眭@@ 2
瞀@@ 2
瞱 2
矉@@ 2
矜@@ 2
矧 2
矯 2
码@@ 2
砒@@ 2
砚 2
砚@@ 2
砺 2
硐@@ 2
硫@@ 2
硬 2
硭@@ 2
碉@@ 2
碓@@ 2
碣 2
碳@@ 2
碻@@ 2
磝 2
磾 2
礙@@ 2
祉@@ 2
祎 2
祓@@ 2
祧 2
祯@@ 2
禀 2
禌 2
禎@@ 2
禥 2
禦 2
禵 2
禼 2
秃 2
秒 2
秒@@ 2
秣@@ 2
积 2
稏 2
稗 2
稲 2
稳@@ 2
稻 2
稼 2
稼@@ 2
穨 2
窑 2
窒 2
窯@@ 2
窴 2
竇 2
竊@@ 2
竭 2
笃@@ 2
笋 2
笏 2
笹@@ 2
笺 2
筮 2
筵 2
筷@@ 2
箇 2
箋@@ 2
箍 2
箍@@ 2
箴 2
篠 2
篡 2
篢 2
篦@@ 2
篪@@ 2
簪@@ 2
簾 2
籃@@ 2
籬@@ 2
粒 2
粒@@ 2
粗 2
粿@@ 2
糊 2
糕@@ 2
糟 2
糟@@ 2
糠@@ 2
系统 2
紂@@ 2
紇@@ 2
紊@@ 2
紋 2
紓 2
紛 2
累 2
累@@ 2
絆@@ 2
絜 2
絞 2
絢 2
絨@@ 2
絹 2
絹@@ 2
綫 2
綸@@ 2
綺 2
緄 2
緈 2
緋 2
緑 2
緘 2
緝 2
緡@@ 2
練 2
縈@@ 2
縛@@ 2
縦@@ 2
縯 2
縯@@ 2
縻 2
績@@ 2
繕@@ 2
繚@@ 2
繪 2
繫@@ 2
繭 2
繹 2
繻 2
纔@@ 2
纛@@ 2
纜 2
纠 2
纬 2
纱 2
纲@@ 2
纵 2
纶@@ 2
纹@@ 2
纽 2
绅@@ 2
细 2
绎@@ 2
给@@ 2
绚 2
绫 2
绫@@ 2
续 2
绮 2
绰@@ 2
综@@ 2
缊@@ 2
缎 2
缗 2
缮 2
缽@@ 2
罐@@ 2
罰 2
罰@@ 2
罽@@ 2
羆@@ 2
羈@@ 2
羋 2
羡@@ 2
羹@@ 2
翕 2
翦@@ 2
翬@@ 2
耐 2
耒@@ 2
耗@@ 2
耨 2
耻@@ 2
耿 2
聂 2
聘 2
聡@@ 2
聪@@ 2
聾@@ 2
肆 2
股 2
肤@@ 2
肩 2
肰@@ 2
肸 2
肸@@ 2
肺@@ 2
背 2
胥 2
胴 2
胴@@ 2
脅@@ 2
脊@@ 2
脖@@ 2
脳 2
脳@@ 2
脷 2
脸 2
脾 2
腑@@ 2
腰 2
腺@@ 2
膀 2
膚@@ 2
膜 2
膝 2
膠 2
臀 2
臈 2
臉 2
臚 2
舂 2
舂@@ 2
舆 2
舗 2
舘@@ 2
舰@@ 2
舵@@ 2
舶 2
艘@@ 2
艳 2
艸 2
芊@@ 2
芡@@ 2
芮 2
芻@@ 2
苍 2
苒 2
苟 2
苫@@ 2
苾@@ 2
茎 2
茱@@ 2
荇@@ 2
荊 2
荽 2
莎 2
莘@@ 2
莞@@ 2
莹 2
莺@@ 2
菉 2
菏@@ 2
菟@@ 2
菩 2
菫 2
菰 2
菲@@ 2
菴 2
菽@@ 2
萊 2
萝 2
萝@@ 2
萸 2
萾 2
葱@@ 2
葺@@ 2
蒂 2
蒌 2
蒞 2
蒸 2
蒿@@ 2
蓁 2
蓥@@ 2
蓼 2
蔓@@ 2
蔗@@ 2
蔞 2
蔥 2
蔭 2
蔷@@ 2
蔽 2
蔿@@ 2
蕉 2
蕊@@ 2
蕎@@ 2
蕘 2
蕤 2
薈@@ 2
薡@@ 2
薫 2
藁@@ 2
藎@@ 2
藜 2
藪@@ 2
藺@@ 2
蘋 2
蘘@@ 2
虍 2
虏 2
虐 2
虒@@ 2
虛 2
虧 2
虨 2
虯@@ 2
虽@@ 2
虾@@ 2
蚁@@ 2
蚡 2
蚣 2
蚣@@ 2
蛉 2
蜓 2
蜚@@ 2
蜩 2
蝉@@ 2
蝙@@ 2
蝠 2
螂 2
螈 2
螞@@ 2
蟅 2
蟅@@ 2
蟒@@ 2
蟜 2
蟠@@ 2
蟬@@ 2
蠍 2
蠚 2
蠡 2
蠡@@ 2
蠢@@ 2
衔@@ 2
衢 2
补 2
衹@@ 2
袅 2
袅@@ 2
袋@@ 2
袍@@ 2
被 2
裀 2
裘 2
裘@@ 2
褆 2
褔@@ 2
褱@@ 2
褲 2
褻@@ 2
襖@@ 2
襴@@ 2
覔 2
覩@@ 2
觚@@ 2
觞@@ 2
触@@ 2
訂@@ 2
訊@@ 2
訪@@ 2
訴@@ 2
註 2
試 2
詧 2
読 2
諜@@ 2
諦@@ 2
諭 2
諮@@ 2
諲 2
諺 2
謖 2
謚@@ 2
謫@@ 2
謾@@ 2
譓 2
譬@@ 2
譲 2
譲@@ 2
讌@@ 2
讜 2
讬@@ 2
讼 2
诀 2
证 2
评 2
识@@ 2
诒@@ 2
诞 2
询 2
诣@@ 2
该 2
误 2
诺 2
谈 2
谊 2
谒@@ 2
谕 2
谟@@ 2
谨 2
谯@@ 2
谱@@ 2
谿@@ 2
豁 2
豈 2
豔@@ 2
豕@@ 2
豳@@ 2
豺@@ 2
貉 2
貧 2
貨 2
販@@ 2
貯 2
貯@@ 2
貸 2
貽 2
賁@@ 2
賚 2
賞@@ 2
賡 2
賺@@ 2
購@@ 2
贅@@ 2
贔@@ 2
败@@ 2
贸@@ 2
贻@@ 2
贾 2
资 2
赉@@ 2
赋@@ 2
赌@@ 2
赓 2
跃 2
跌 2
跏@@ 2
跖 2
跳 2
践 2
踐 2
踩@@ 2
踰@@ 2
蹈 2
蹉@@ 2
蹟@@ 2
蹠 2
蹦 2
蹺 2
蹻@@ 2
躬 2
軟 2
軟@@ 2
転 2
軿@@ 2
輦 2
輶@@ 2
輸 2
轅 2
轎@@ 2
轟 2
轢@@ 2
轧@@ 2
轨@@ 2
轲 2
轶 2
轼 2
较@@ 2
辻@@ 2
込 2
込@@ 2
迓@@ 2
违@@ 2
迢 2
迫@@ 2
迭 2
逃 2
逅@@ 2
逆 2
逋 2
透 2
逑 2
逗@@ 2
逞@@ 2
逻@@ 2
逾@@ 2
遅 2
遏@@ 2
遐 2
遘 2
遭 2
遮 2
遯 2
遹 2
邉@@ 2
邠 2
邨 2
邮@@ 2
邰 2
郃 2
郏@@ 2
郛 2
郧 2
郱 2
郵 2
鄑 2
鄒 2
鄔@@ 2
鄕@@ 2
鄚 2
鄢 2
鄢@@ 2
鄱 2
鄶 2
鄺@@ 2
酋 2
酋@@ 2
酌 2
酎 2
酷 2
酸 2
醒 2
醤 2
醮 2
醯 2
醯@@ 2
醸 2
釈 2
釘@@ 2
釵 2
鈍 2
鉅 2
鉑 2
鉛@@ 2
鉤 2
銜 2
銭 2
銮 2
鋭 2
錕 2
錠 2
錠@@ 2
錯@@ 2
鍊 2
鍊@@ 2
鍛@@ 2
鍵@@ 2
鍼 2
鎖 2
鎗@@ 2
鎰@@ 2
鏊 2
鏑@@ 2
鏜 2
鏟 2
[...]
