. 1
, 0.8189223591831418
&apos; 1
ve 1
&quot; 1
bir 1
de 0.5716288323884212
k@@ 1
y@@ 1
da 1
ı 1
) 0.9015349600024064
( 0.9012112625689214
i 1
ç@@ 1
an 1
in 0.49313114786685563
ın 1
ş@@ 1
ar@@ 1
@-@ 0.5746089929372805
olarak 1
en 0.6346801239202858
al@@ 1
t@@ 1
ile 1
d@@ 1
K@@ 1
an@@ 1
k 1
ak@@ 1
et@@ 1
S@@ 1
ler 1
lar 1
l@@ 1
ya 1
a 0.3947978041307285
ol@@ 1
leri 1
il@@ 1
ay@@ 1
ad@@ 1
at@@ 1
am@@ 1
er@@ 1
ları 1
z@@ 1
s@@ 0.9905637344154543
için 1
u 1
Y@@ 1
g@@ 1
n@@ 1
m@@ 1
ü@@ 1
im@@ 1
h@@ 1
r@@ 1
e 1
ıl@@ 1
ında 1
inde 1
bu 1
esi 1
H@@ 1
ı@@ 1
T@@ 1
un 1
D@@ 1
olan 1
ine 1
M@@ 1
ik@@ 1
ğ@@ 1
dir 1
ır 1
ini 1
ar 1
’ 1
li 1
c@@ 1
as@@ 1
ek@@ 1
el@@ 1
B@@ 1
or@@ 1
ır@@ 1
el 0.6489393325526324
en@@ 1
ü 1
ta 1
ın@@ 1
ına 1
ası 1
al 0.7735642178124849
E@@ 1
A@@ 1
ak 1
yılında 1
İ@@ 1
tarafından 1
at 0.914287777356712
den 1
iş@@ 1
G@@ 1
ma 1
yap@@ 1
la 0.33011374229308604
ül@@ 1
er 0.510514777374611
ti@@ 1
inin 1
ver@@ 1
in@@ 0.9699168258559145
ağ@@ 1
N@@ 1
Bu 1
sonra 1
te 1
em@@ 1
; 1
ir@@ 1
ul@@ 1
ış@@ 1
ö@@ 1
ye 1
lı 1
p@@ 0.9137827734718789
: 0.8598197793974717
b@@ 1
v@@ 1
ının 1
Ç@@ 1
nin 1
es@@ 1
isi 1
is@@ 1
nın 1
ç 1
ını 1
f@@ 0.8280534672793486
z 1
C@@ 0.8759953545186367
P@@ 0.8630668852055922
ik 1
bir@@ 1
un@@ 1
gel@@ 1
iy@@ 1
di 1
baş@@ 1
L@@ 0.7239622111818875
aş@@ 1
ör@@ 1
y 0.3324580089837573
et 0.4999809571930495
F@@ 0.8584225395162121
dan 1
iz@@ 1
daha 1
kar@@ 1
ir 1
O@@ 1
ların 1
ilk 1
di@@ 1
um@@ 1
kon@@ 1
R@@ 0.7601019955274826
ab@@ 1
ac@@ 1
u@@ 1
kal@@ 1
ıyla 1
ise 1
p 1
ev@@ 1
i@@ 1
ek 1
ş 1
az@@ 1
yaz@@ 1
Ş@@ 1
on@@ 0.9604389858609196
ah@@ 1
aç@@ 1
say@@ 1
a@@ 1
ür@@ 1
on 0.3615054708608356
ından 1
lan@@ 1
re@@ 0.479842007404205
yıl@@ 1
inden 1
ık 1
ması 1
yer 1
me@@ 1
üm@@ 1
m 1
ım@@ 1
ün@@ 1
im 1
e@@ 0.7130709160412915
le@@ 0.9796118516303736
le 0.40895415103186855
me 1
l 1
ay 1
us 1
ey@@ 1
Ar@@ 1
te@@ 1
ur@@ 1
ım 1
dı 1
ap@@ 1
ıs@@ 1
V@@ 1
id@@ 1
gibi 1
mektedir 1
it@@ 0.9623691399895395
ık@@ 1
se@@ 1
çok 1
miştir 1
ku@@ 1
kur@@ 1
am 1
lık 1
ok@@ 1
du 0.8053307321452661
pl@@ 1
li@@ 1
alı 1
av@@ 1
geç@@ 1
eri 1
ği 1
de@@ 1
1 1
adı 1
t 0.40244346326798164
unda 1
d 0.6822172140036411
ed@@ 1
bi@@ 1
lam@@ 1
arasında 1
mıştır 1
uy@@ 1
len@@ 1
si@@ 1
ti 1
â@@ 1
us@@ 1
kay@@ 1
alar@@ 1
ne@@ 1
and@@ 1
yaş@@ 1
son@@ 1
ada 1
oy@@ 1
kadar 1
ısı 1
2 1
bil@@ 1
ist@@ 1
ken 1
ış 1
bağlı 1
lerin 1
o 0.5753071830929962
anı 1
veya 1
iki 1
= 1
maktadır 1
ıdır 1
man@@ 1
lik 1
öl@@ 1
yan@@ 1
ne 1
um 1
j@@ 0.9816553769756481
çalış@@ 1
ün 1
ana 1
büyük 1
af@@ 1
aya 1
çık@@ 1
doğ@@ 1
yer@@ 1
il 1
arak 1
ur 1
ot@@ 1
yas@@ 1
der@@ 1
larında 1
lem@@ 1
eler@@ 1
deki 1
göre 1
öz@@ 1
ılar 1
ığı 1
sür@@ 1
tem@@ 1
o@@ 0.6667435951143819
eş@@ 1
hal@@ 1
iler 1
az 1
oldu 1
mas@@ 1
ki 1
s 0.3011577236985687
unu 1
ut@@ 1
An@@ 1
tan@@ 1
iler@@ 1
den@@ 1
ler@@ 1
daki 1
ük@@ 1
Kar@@ 1
kö@@ 1
tar@@ 1
bulunan 1
h 1
tı 1
miş 1
os@@ 1
&#124; 1
unun 1
ec@@ 1
men@@ 1
ser@@ 1
ön@@ 1
gen@@ 1
göster@@ 1
mak 1
n 0.7853386587729743
it 0.5136488394167469
una 1
ter@@ 1
larda 1
gü@@ 1
ımı 1
Z@@ 1
eti 1
tür@@ 1
mesi 1
ıy@@ 1
kad@@ 1
arı 1
ıt@@ 1
seç@@ 1
yi 1
or 0.44983997398105524
mak@@ 1
bulun@@ 1
yar@@ 1
mek 1
3 1
tr@@ 0.536018533812472
4 1
edil@@ 1
kurul@@ 1
Türkiye 1
olduğu 1
ız@@ 1
ayr@@ 1
- 1
ama 1
ür 1
lara 1
.@@ 1
na 1
Al@@ 1
kullan@@ 1
ca 1
gir@@ 1
ten 0.8106578171198561
Ö@@ 1
res@@ 1
ıldı 1
f 1
maya 1
kap@@ 1
mi 1
mış 1
Er@@ 1
üt@@ 1
topl@@ 1
yon@@ 1
kat@@ 1
aki 1
diği 1
par@@ 0.9280497498791985
J@@ 0.7375139686788799
ildi 1
tek@@ 1
larını 1
uk@@ 1
lu 1
lerini 1
om@@ 1
lar@@ 1
tarihinde 1
son 0.7098707449893528
çek@@ 1
ünde 1
U@@ 1
yet@@ 1
ke@@ 1
gör@@ 1
alan 1
sağ@@ 1
şark@@ 1
böl@@ 1
üre@@ 1
dönem@@ 1
iyle 1
iç@@ 1
uz@@ 1
liği 1
ins@@ 1
ındaki 1
yon 1
ma@@ 1
gi@@ 1
gün@@ 1
birlikte 1
ez@@ 1
ayı 1
nde 1
belir@@ 1
ilen 1
! 1
I@@ 0.6615073661612573
be@@ 0.8224050039741683
liğ@@ 1
5 1
su@@ 1
is 0.18314007420623235
istan 1
yüz@@ 1
leş@@ 1
tak@@ 1
yön@@ 1
idir 1
ili 1
yak@@ 1
kil@@ 1
km 1
indeki 1
esinde 1
mes@@ 1
dü 1
to@@ 1
takım@@ 1
diğer 1
yıl 1
Ad@@ 1
etti 1
tir 1
İs@@ 1
tan 1
yle 1
man 1
alt@@ 1
mad@@ 1
kul@@ 1
/ 0.827758253579019
all@@ 1
ali@@ 1
Or@@ 1
kan@@ 1
sa 1
if@@ 1
kom@@ 1
usu 1
ığ@@ 1
Be@@ 1
larının 1
iş 1
nda 1
as 0.1698457129399539
vi@@ 0.8539580316299727
abil@@ 1
bo@@ 1
po@@ 0.8274968352221904
kullanıl@@ 1
ordu 1
aynı 1
üy@@ 1
bas@@ 1
Türk 1
iz 1
ğu 1
gö@@ 1
dur@@ 1
kend@@ 1
taş@@ 1
tur@@ 1
yayın@@ 1
ılan 1
st@@ 0.33270645470978993
W@@ 0.39971592454841726
ra 1
dığı 1
tal@@ 1
ız 1
sel 1
uç@@ 1
tarih@@ 1
laş@@ 1
ağı 1
kl@@ 1
ri@@ 0.9997462353474613
eli 1
ant@@ 1
lerinin 1
mek@@ 1
kez 1
uş@@ 1
ça 1
Ü@@ 1
yol@@ 1
bak@@ 1
kor@@ 1
eler 1
ce 0.8027764994034176
ünü 1
dir@@ 1
edi@@ 1
alan@@ 1
uk 1
ığını 1
üc@@ 1
enin 1
adlı 1
kiş@@ 1
nun 1
yeni 1
maç@@ 1
align 1
ic@@ 0.6018799336836856
yapıl@@ 1
center 1
her 0.9135940032847213
aları 1
6 1
ans@@ 1
ümü 1
üm 1
ard@@ 1
aldı 1
ka 1
lerde 1
aş 1
erek 1
lerinde 1
r 1
ko@@ 1
imi 1
î 1
pi@@ 1
larına 1
asında 1
ancak 1
tin 1
ol 1
g 0.7434156760617123
sezon@@ 1
Mar@@ 0.8863643660477768
si 1
ere 1
art@@ 1
düzen@@ 1
üz@@ 1
lü 1
Kon@@ 1
İstanbul 1
yay@@ 1
var@@ 1
oyn@@ 1
karşı 1
abilir 1
hi@@ 1
dol@@ 1
Avrupa 1
eb@@ 0.9981711129478656
re 0.7722549346079361
lığı 1
üs@@ 1
ye@@ 1
düş@@ 1
önemli 1
ni@@ 1
eden 1
Kr@@ 1
Dünya 1
&amp; 1
% 0.7428213429858002
ileri 1
ag@@ 0.4943563966170397
landır@@ 1
dev@@ 1
od@@ 1
oluştur@@ 1
ıc@@ 1
do@@ 1
uc@@ 1
görev@@ 1
san@@ 1
til@@ 1
ren@@ 1
Kö@@ 1
eski 1
ro@@ 0.6017849948773338
ru@@ 1
uv@@ 1
başladı 1
ayan 1
ilir 1
ğr@@ 1
değiş@@ 1
değ@@ 1
v 1
isti@@ 1
eleri 1
so@@ 0.9900282359979088
önce 1
ilçesine 1
lere 1
ask@@ 1
tel@@ 1
landı 1
ıp 1
yen 1
met@@ 1
hay@@ 1
end@@ 0.8939182561784482
mu@@ 1
pr@@ 0.720161338695682
çev@@ 1
ati@@ 1
gerek@@ 1
ra@@ 1
os 0.35509480158693535
çe 1
min@@ 1
ıştır 1
meye 1
bol 1
ci@@ 0.8558301120328278
lanan 1
ımc@@ 1
7 1
bul@@ 1
es 0.10533382479180704
ili@@ 1
tu@@ 1
yöne@@ 1
yal@@ 1
ğ 1
oluş@@ 1
dik@@ 1
har@@ 1
sonr@@ 1
Bun@@ 1
şekilde 1
lardan 1
dün@@ 1
tir@@ 1
fil@@ 1
olduğunu 1
inci 1
sistem@@ 1
10 1
ilç@@ 1
ih@@ 1
olmuştur 1
yapılan 1
çal@@ 1
The 0.14141524727507213
lik@@ 1
3@@ 0.9619963946421124
eg@@ 0.6673484981719933
bu@@ 1
met 1
içer@@ 1
üzere 1
Öz@@ 1
lerine 1
kit@@ 1
ist 0.3589133251047732
Bel@@ 1
başl@@ 1
içinde 1
öğ@@ 1
Üniversitesi 1
malar@@ 1
açık@@ 1
anın 1
üzerine 1
itibar@@ 1
ia 0.5529423268236492
eng@@ 1
alın@@ 1
vardır 1
As@@ 1
dön@@ 1
sin@@ 1
ken@@ 1
üst@@ 1
iyi 1
inc@@ 1
ans 0.8020976373547312
lendir@@ 1
diğ@@ 1
sız 1
Bir 1
ele 1
ber@@ 0.9844136338657538
birçok 1
karşıl@@ 1
dur 1
se 0.21771742258893198
att@@ 1
kazan@@ 1
Kur@@ 1
dış@@ 1
çi 1
pe@@ 1
muştur 1
tim@@ 1
etti@@ 1
tic@@ 1
katıl@@ 1
kr@@ 1
eğ@@ 1
Mart 1
yen@@ 1
8 0.9504703763803801
ıcı 1
du@@ 1
kabul 1
ap 1
lık@@ 1
masına 1
ladı 1
Ayrıca 1
sor@@ 1
4@@ 1
endi 1
kes@@ 1
üş@@ 1
tut@@ 1
getir@@ 1
sahip 1
Mayıs 1
başar@@ 1
sat@@ 1
iliş@@ 1
çoc@@ 1
söy@@ 1
ta@@ 1
sa@@ 1
sil@@ 1
kol@@ 1
üğ@@ 1
miş@@ 1
ılı 1
Mer@@ 1
luğu 1
devam 1
gr@@ 0.5639731752484431
ali 1
Ocak 1
ıştı 1
ret@@ 1
form@@ 1
üç 1
anlam@@ 1
ikinci 1
op@@ 0.5818661037723031
larından 1
üd@@ 1
ger@@ 1
ib@@ 1
hük@@ 1
ve@@ 1
yan 1
Kasım 1
gelen 1
anc@@ 1
2010 1
mi@@ 1
fazla 1
ıları 1
Baş@@ 1
tüm 1
yl@@ 1
ede 1
tim 1
“ 0.5703566389769772
gün 1
yaptı 1
şehr@@ 1
uygul@@ 1
ör 1
yd@@ 1
Dev@@ 1
dem@@ 1
day@@ 1
harek@@ 1
Eylül 1
eğiti@@ 1
şek@@ 1
muş 1
yerine 1
Ekim 1
has@@ 1
kari@@ 1
no@@ 1
lerinden 1
A 0.48480275815535356
dır@@ 1
yat@@ 1
” 1
oyun@@ 1
ara 1
üne 1
bat@@ 1
ah 1
ardından 1
ge 0.6413783093081666
ent@@ 0.3104468712369108
mil@@ 1
aj@@ 1
kt@@ 1
söz@@ 1
oc@@ 0.5902562473442596
ilinin 1
sır@@ 1
üğü 1
ilmiştir 1
üç@@ 1
he@@ 0.7626161277471271
yüksek 1
Haziran 1
kendi 1
tır@@ 1
Ak@@ 1
ece 1
oloj@@ 1
Nisan 1
ABD 1
Osmanlı 1
duğu 1
Temmuz 1
Av@@ 1
geçir@@ 1
Ch@@ 0.4639090379904148
Daha 1
bazı 1
isinde 1
olmak 1
dır 1
Kom@@ 1
Ağustos 1
Amerika 1
tek 1
tamam@@ 1
cul@@ 1
20 1
tik 1
onu 1
biri 1
15 1
mem@@ 1
Aralık 1
9 0.9109013091085632
alar 1
Türk@@ 1
sti@@ 1
hem 1
iti@@ 1
br@@ 0.4740198980194472
12 1
su 0.5563670447204747
grub@@ 1
ph@@ 0.4824392488931304
ünün 1
por 0.45313341485101866
dil@@ 1
sırasında 1
anya 1
bölüm@@ 1
üzerinde 1
lığ@@ 1
farklı 1
û@@ 1
bi 1
edi 1
lo@@ 0.47510757314559016
tür 1
Di@@ 1
adan 1
Bur@@ 1
list@@ 1
yard@@ 1
Bak@@ 1
oğlu 1
olup 1
yü@@ 1
müz@@ 1
of 0.03392394935900335
ov@@ 1
Se@@ 1
Fran@@ 1
mal@@ 1
Ancak 1
cu@@ 0.9353414737823373
düşün@@ 1
esine 1
bur@@ 1
görev 1
Ulus@@ 1
ari 1
bağ@@ 1
ızı 1
enc@@ 1
ina 0.9945087707550917
men 1
siy@@ 1
sun@@ 1
ıda 1
luk 1
parç@@ 1
zaman 1
yerleş@@ 1
5@@ 0.9878268472990814
bah@@ 1
diz@@ 1
çıkar@@ 1
nüf@@ 1
atı 1
sah@@ 1
şir@@ 1
O 1
yarış@@ 1
Kat@@ 1
Tr@@ 0.6753011471604246
isim@@ 1
6@@ 1
anlar 1
ord@@ 1
yeri 1
ortaya 1
onya 1
eh@@ 0.7721349637130506
tah@@ 1
akt@@ 1
sen@@ 1
ran@@ 0.9917312226431886
sı@@ 1
ısında 1
görül@@ 1
ucu 1
ulaş@@ 1
acak 1
eye 1
ip 1
Böl@@ 1
ad 0.5784275976618309
ail@@ 1
&#93; 1
yılları 1
İlk 1
Şubat 1
Birleşik 1
ecek 1
kel@@ 1
ef@@ 1
&#91; 1
En@@ 1
kır@@ 1
yılı 1
colspan 1
geliş@@ 1
çeşitli 1
Savaşı 1
dağ@@ 1
hav@@ 1
sın@@ 1
bulunmaktadır 1
luğ@@ 1
esinin 1
geri 1
eme 1
Son@@ 1
eği 1
küçük 1
per@@ 0.40487310597799736
gi 1
ılmıştır 1
nedeniyle 1
edildi 1
ep@@ 0.7429443776781472
lararası 1
ani 1
boyunca 1
alb@@ 1
ade 1
eti@@ 1
film@@ 1
Bir@@ 1
bölges@@ 1
ıl 1
Yun@@ 1
ing 0.07993034551786231
kent@@ 1
edilmiştir 1
siz 1
alm@@ 1
ale 0.4924600400111671
ebilir 1
masını 1
yüzyıl@@ 1
duy@@ 1
bel@@ 1
Bo@@ 0.9631822690050054
idi 1
B 1
elde 1
– 0.28647946033647953
yeniden 1
yo@@ 1
em 1
haf@@ 1
lerden 1
amı 1
görün@@ 1
bar@@ 1
mez@@ 1
lenen 1
zamanda 1
th@@ 0.24909078876244664
bilin@@ 1
kab@@ 1
30 1
anda 1
kül@@ 1
sav@@ 1
ey 1
albüm@@ 1
x 0.559651785309742
ent 0.20757949108852114
2012 1
ob@@ 0.6721526791780125
2@@ 0.8096763344421414
11 1
Har@@ 1
2020 1
hiz@@ 1
Gö@@ 1
almıştır 1
asyon@@ 1
eli@@ 1
sadece 1
anl@@ 1
yet 1
ke 1
ışt@@ 1
ölç@@ 1
saldır@@ 1
üş 1
17@@ 0.6535906630306829
En 0.4533800795235787
umu 1
P 1
geliştir@@ 1
leştir@@ 1
futbol@@ 1
mah@@ 1
II 1
St@@ 0.4919018545307651
edilen 1
yaklaşık 1
göz@@ 1
ki@@ 1
0 1
mam@@ 1
ük 1
larla 1
ilik 1
Bar@@ 1
fa@@ 1
güç@@ 1
ven@@ 1
2011 1
2009 1
lay@@ 1
und@@ 0.7111138477088449
asyon 1
tanım@@ 1
yük@@ 1
At@@ 1
İn@@ 1
üsü 1
git@@ 1
up 0.9192938207786048
etkil@@ 1
fer@@ 0.862499131768584
eni 1
kan 1
durum@@ 1
Ödül@@ 1
müştür 1
nik 1
ulus@@ 1
ton 0.8456693391032848
ilerin 1
7@@ 1
elek@@ 1
Ab@@ 0.8882809758740662
16 1
can@@ 1
iye 1
let@@ 1
ona 1
ılır 1
lu@@ 1
ley@@ 1
anan 1
sınır@@ 1
ehr@@ 1
Bil@@ 1
To@@ 1
mar@@ 0.5400810200793483
c 0.2812594480125373
Mill@@ 1
kas@@ 1
Fak@@ 1
ener@@ 1
oğ@@ 1
süre 1
genel 1
18@@ 0.6944347611233057
ok 1
vet@@ 1
nüfusu 1
zor@@ 1
w@@ 0.16115958384777698
tab@@ 1
kıs@@ 1
film 0.9959778933460636
tam@@ 1
tri@@ 0.6267796959404937
gerçek@@ 1
ğin 1
sü@@ 1
ğini 1
lat@@ 1
İl@@ 1
süre@@ 1
aktadır 1
mer@@ 0.94853149986815
Hal@@ 1
uzun 1
bab@@ 1
inş@@ 1
ıf@@ 1
büyü@@ 1
ter 0.26648941231664336
ünden 1
kaz@@ 1
ince 1
rol@@ 1
2008 1
isi@@ 1
sız@@ 1
b 0.7641231292074658
acı 1
yayım@@ 1
beledi@@ 1
lad@@ 1
M 1
T 1
karş@@ 1
undan 1
def@@ 1
kim@@ 1
15@@ 0.8807989735733539
ge@@ 0.5611068056942411
Man@@ 1
lardır 1
köy 1
2014 1
tü 1
zi 1
Tarihçe 1
boy@@ 1
onun 1
merkezine 1
ılık 1
anlaş@@ 1
Es@@ 1
lama 1
land@@ 1
cin@@ 1
14 1
ılmış 1
mev@@ 1
Ma@@ 1
El@@ 1
Oy@@ 1
araştır@@ 1
başlam@@ 1
ari@@ 0.9688788572342955
Almanya 1
ast@@ 1
Li@@ 1
ümüz@@ 1
lanmıştır 1
yüksel@@ 1
San@@ 1
rağmen 1
Gen@@ 1
19 1
Fransa 1
düz@@ 1
18 0.9943274624768441
Sov@@ 1
ıkları 1
Bat@@ 1
kem@@ 1
Mo@@ 0.9768931825673329
tiy@@ 1
ika 1
bırak@@ 1
sk@@ 1
benz@@ 1
ens@@ 0.627083353777535
tasar@@ 1
13 1
Re@@ 0.47843038467560756
sanat@@ 1
sal 1
Pol@@ 1
Dem@@ 1
Par@@ 0.6994859537175985
ede@@ 1
2015 1
tur 1
2013 1
maları 1
Br@@ 0.5496409724660081
ch@@ 0.13958522082490846
yıld@@ 1
şu 1
adığı 1
usunda 1
ülk@@ 1
ait 1
Genel 1
fin@@ 0.5240067427506676
ydi 1
Coğrafya 1
Şampiyon@@ 1
yı 1
Den@@ 1
fer 1
plan@@ 1
yaptığı 1
10@@ 1
bağl@@ 1
Ser@@ 1
bulunur 1
ba@@ 1
kişi 1
17 1
ular 1
gaz@@ 1
altında 1
dav@@ 1
rom@@ 1
da@@ 1
2007 1
2016 1
ed 0.0470525559330707
hak@@ 1
ilgili 1
bilg@@ 1
kısa 1
16@@ 0.6946097537841682
dahil 1
İngiltere 1
ket@@ 1
ni 1
za 1
25 1
aç 1
öldür@@ 1
Alman 1
asına 1
the 0.013778735746838681
Gü@@ 1
İmparator@@ 1
De@@ 0.7538729009393869
zey@@ 1
üzer@@ 1
beri 1
isinin 1
ova 1
st 0.5355900139265817
Güney 1
ici 1
2006 1
ney@@ 1
program@@ 1
hazır@@ 1
yaşam@@ 1
Ankara 1
ort@@ 1
ig@@ 0.2911600597296618
savaş@@ 1
gönder@@ 1
Sav@@ 1
üf@@ 1
ang@@ 0.39616706407245994
üler 1
New 0.6536749762069478
deş@@ 1
Do@@ 1
genellikle 1
Yeni 1
şehir@@ 1
asının 1
gerçekleştir@@ 1
önc@@ 1
ayrıca 1
olduk@@ 1
merkez@@ 1
udur 1
Mah@@ 1
ann@@ 0.6951801348700827
elik 1
9@@ 0.9342822332861822
del@@ 1
dür@@ 1
la@@ 0.688114528543241
ci 1
asını 1
tü@@ 1
D 0.9026197802823352
lerle 1
andı 1
yo 1
Hay@@ 1
ks@@ 1
van 1
özel 1
Hol@@ 1
eder@@ 1
bü@@ 1
bin@@ 1
8@@ 0.9871156715350782
ıktan 1
Şark@@ 1
bit@@ 1
şehir 1
mayı 1
Yar@@ 1
Le@@ 0.6158427238090282
ığında 1
ud@@ 1
Pr@@ 0.7593146085686131
başkan@@ 1
esini 1
and 0.0261381882088905
İngiliz 1
doğru 1
Kuzey 1
Amerikan 1
yür@@ 1
uzaklıktadır 1
aret 1
takım 1
bay@@ 1
kazandı 1
ilg@@ 1
hız@@ 1
og@@ 0.6666042992990625
Devlet@@ 1
Rusya 1
başka 1
j 1
eser@@ 1
değer@@ 1
eder 1
kaynak@@ 1
dar@@ 1
imleri 1
kı 1
isini 1
Müz@@ 1
dört 1
yönet@@ 1
oloji 1
eyalet@@ 1
Kul@@ 1
C 0.7111760216612897
kav@@ 1
tre 1
Sh@@ 0.7481901753453214
çoğ@@ 1
Her@@ 0.8792590624267043
zaman@@ 1
ımına 1
bun@@ 1
kaç@@ 1
merkezi 1
zon 1
nam@@ 1
famil@@ 1
mesine 1
her@@ 0.6951432554277613
2018 0.9994356450911143
adıyla 1
asi 1
2017 1
kü 1
osu 1
İsp@@ 1
kıy@@ 1
eyi 1
yal 1
21 1
Roma 1
tarihi 1
isine 1
ılar@@ 1
Cumhuriyeti 1
ilmiş 1
özellikle 1
Başkan@@ 1
ses@@ 1
müzik 1
arasındaki 1
Ge@@ 0.8596982843766866
kuv@@ 1
Yah@@ 1
sal@@ 1
ji 1
konuş@@ 1
let 1
der 0.04959073083907969
Kad@@ 1
prak@@ 1
taraf@@ 1
karakter@@ 1
van@@ 1
Tek@@ 1
det@@ 1
Gru@@ 1
ıt 1
İk@@ 1
K 1
Mus@@ 1
1.@@ 1
can 0.8437827440716291
luk@@ 1
İz@@ 1
bey@@ 1
önem 1
hayat@@ 1
bilinen 1
Tur@@ 1
I 0.4848261702793951
ellik@@ 1
üdür 1
_ 0.9521540936316385
mesini 1
ıya 1
24 1
enek@@ 1
fak@@ 1
ev 1
tekrar 1
iden 1
biy@@ 1
est@@ 0.31937669314773864
sahi@@ 1
destek@@ 1
Birliği 1
22 1
Gür@@ 1
iv@@ 0.6510680335605614
ug@@ 0.9456584152440293
millî 1
anlat@@ 1
Doğu 1
kin 1
sahiptir 1
müc@@ 1
Kal@@ 1
to 0.03323936674277167
eştir@@ 1
birkaç 1
malar 1
Sar@@ 1
dönüş@@ 1
oluşan 1
tor@@ 0.7859965264518882
bölge@@ 1
lük 1
üz 1
ğer 1
keş@@ 1
çı 1
2005 1
sonunda 1
kullanılan 1
kısm@@ 1
Gal@@ 1
Bal@@ 1
sö@@ 1
2019 1
üncü 1
üb@@ 1
ice 0.5653564321883546
Büyük 1
26 1
siyon@@ 1
anlığı 1
alg@@ 1
14@@ 0.9499894115784895
sebe@@ 1
ind@@ 0.8466104153361157
tesi 1
Kupası 1
ledi 1
değiştir@@ 1
sos@@ 1
eki 1
2000 1
ular@@ 1
savun@@ 1
vek@@ 1
sırada 1
Bul@@ 1
mahalle@@ 1
X@@ 0.8835067187355242
hakkında 1
İtalya 1
bağım@@ 1
devlet 1
id 0.8481057125488978
tu 1
ell@@ 0.4956888055700095
any@@ 1
altı 1
ulu 1
emen 1
yapan 1
Yıl@@ 1
köy@@ 1
ecek@@ 1
1@@ 0.7490394989862114
ut 1
eceğ@@ 1
tanın@@ 1
Parti@@ 1
verdi 1
ekonom@@ 1
hat@@ 1
Sel@@ 1
asyonu 1
kin@@ 1
olması 1
olmayan 1
layan 1
büt@@ 1
lt 1
rel@@ 0.45599032061487665
23 1
ıyor 1
Tak@@ 1
Mu@@ 1
eviz@@ 1
sey@@ 1
cu 1
olmad@@ 1
ödül@@ 1
Sü@@ 1
ce@@ 1
din@@ 1
başkanı 1
işlem@@ 1
gem@@ 1
gar@@ 1
cel@@ 1
Aynı 1
Rus 1
uz 1
çıkan 1
lim@@ 1
med@@ 1
Per@@ 0.8593409974653194
S 0.7940746158739669
Paşa 1
spor 1
oyuncu 1
bal@@ 1
Ah@@ 1
baz@@ 1
Amerik@@ 1
uma 1
ho@@ 0.33512667664118373
ill@@ 0.560308433477156
bö@@ 1
gt 0.7624192515386535
bek@@ 1
gesi 1
mel@@ 1
2004 1
rol 1
ane 1
ampiyon@@ 1
sil 1
bet@@ 1
ov 1
ebil@@ 1
Kan@@ 1
Sam@@ 1
I. 1
ore 0.8841299051832759
iliz@@ 1
Am@@ 0.7251352892815195
oz@@ 1
fut@@ 1
angi 1
x@@ 0.3208276175607183
elerin 1
tes@@ 1
Film 1
tiv@@ 1
Bre@@ 1
28 1
Der@@ 1
L 0.6720294515037115
27 1
Kır@@ 1
ran 1
12@@ 0.906361148546881
Kor@@ 1
İng@@ 1
politi@@ 1
Gr@@ 0.5576333666582994
Th@@ 0.3564732591161266
adi@@ 1
ül 1
min 1
13@@ 0.8557104829345829
sam@@ 1
cü 1
yok@@ 1
far@@ 1
sik@@ 1
bin 1
mat@@ 0.8054790090783477
ark@@ 1
Em@@ 1
Alt@@ 1
Por@@ 1
num@@ 1
gal@@ 1
mo@@ 0.36613255609538703
sek@@ 1
mik@@ 1
Car@@ 0.5288936956484814
Tan@@ 1
dest@@ 1
Gün@@ 1
F 0.8583216251535947
50 0.9760535876364903
Nor@@ 0.6631395940133893
tam 1
rec@@ 0.4328555396022768
aba 1
hu@@ 1
Ev@@ 1
pu@@ 0.7800612681926885
w 0.2921261753329668
gru@@ 1
asa 1
Sal@@ 1
trans@@ 0.609746850622086
mot@@ 1
por@@ 0.6151012612891114
adol@@ 1
vur@@ 1
Muh@@ 1
Azer@@ 1
lü@@ 1
elem@@ 1
Mal@@ 1
aşı 1
Meh@@ 1
ie 0.19582741724544364
arg@@ 1
ing@@ 0.4403637285819456
Sur@@ 1
ene 0.7246839155244592
ze 0.776753004901032
ime 1
sar@@ 1
neden@@ 1
E 0.7873790610764985
lili@@ 1
zam@@ 1
profes@@ 1
may@@ 1
din 1
sel@@ 0.5747193401270985
lis@@ 1
Mac@@ 1
ri 1
Rom@@ 1
Su@@ 1
aştır@@ 1
Fil@@ 1
hi 1
0@@ 1
Ligi 1
ori@@ 1
ip@@ 1
ers 0.12604707853222674
aber 1
om 1
anti@@ 1
Kol@@ 1
29 1
of@@ 1
Ne@@ 0.7086097364328088
kı@@ 1
31 1
olduğ@@ 1
ass@@ 0.291741803601343
ayn@@ 1
trol 1
mir 1
ço@@ 1
York 0.8685398247309818
2.@@ 1
ard 0.36405595696067933
don@@ 1
tad@@ 1
sak@@ 1
landa 1
Ro@@ 0.6075143421151157
pat@@ 1
fik@@ 1
2002 1
des@@ 0.4032987810923032
oku@@ 1
Kaz@@ 1
co@@ 0.2109174176239561
tay@@ 1
2021 1
tığı 1
pol@@ 0.9088845983741035
tron@@ 1
tas@@ 1
azi 1
ö 1
1990 1
pe 0.6395374232112749
ata 1
lin@@ 0.48658788450280654
inal 1
Ber@@ 0.6962554416873534
prot@@ 0.686700994713088
vard@@ 1
ete 1
lider@@ 1
Ger@@ 0.8388096599816651
var 1
unc@@ 1
bes@@ 0.8368734267216877
sim@@ 1
Fut@@ 1
Baz@@ 1
önem@@ 1
atr@@ 1
dad@@ 1
Ali 1
fi@@ 0.4795522243870393
alt 1
Her 1
str@@ 0.36091710592288606
100 0.9706711316412098
2003 1
one 0.17081758004469477
Ay@@ 1
tekn@@ 1
per 0.7739466935849613
2001 1
ünya 1
John 0.7349680911826768
Tari@@ 1
esp@@ 1
lam 1
Han@@ 1
Me@@ 0.743319320033976
Mon@@ 0.5433436837642682
yu 1
dak@@ 1
emi 1
000 0.8762852339435273
Mek@@ 1
Yer@@ 1
R 0.6839003573514153
Has@@ 1
Ö 1
be 0.1700876838919304
Te@@ 1
amp 0.5340688115090476
era 0.3828484895227456
arası 1
NGC 1
Kay@@ 1
model@@ 1
haz@@ 1
Co@@ 0.39993696501813175
Ir@@ 1
are 0.1343240280612671
zil@@ 1
dire@@ 1
ks 0.3877988041995631
mac@@ 1
dia 1
40 0.9338915172327735
î@@ 1
kop@@ 1
Parti 1
mal 1
aca 1
Jap@@ 1
Biz@@ 1
Gaz@@ 1
elli 1
mill@@ 1
kam@@ 1
ano 0.5313534157008225
erin 1
Afrika 1
ub@@ 0.9011414991873997
Gu@@ 0.5774337511822066
ket 1
Hav@@ 1
dal@@ 1
For@@ 0.5478456709802265
ot 0.8233064231790244
ong@@ 0.5894810196211046
In@@ 0.2456173501120581
lig@@ 1
erk@@ 1
gul@@ 1
ces@@ 1
art 0.5235964025145273
han 1
üh@@ 1
ez 1
Paris 1
aliy@@ 1
ff@@ 0.38254405543088654
eri@@ 1
red@@ 1
sol@@ 0.37460418662254386
sp@@ 0.26869030124415666
ney 1
proj@@ 1
County 0.9074681713605784
tedir 1
Bab@@ 1
lang@@ 1
afa 1
inde@@ 1
ehir 1
Mec@@ 1
gil@@ 1
avi 1
ema 1
gun 1
formula 0.755701692840641
sh@@ 0.2517093408152945
amm@@ 0.7881507620435839
gol 1
if 1
au@@ 0.1861406972237043
sahip@@ 1
mon@@ 0.2754989215827996
Mak@@ 1
ahr@@ 1
tif 1
1999 1
nes@@ 1
fa 1
İtal@@ 1
Mad@@ 1
TV 1
Po@@ 0.6972853169975074
Rus@@ 0.8057167673510657
ai 0.7045172682630664
Bay@@ 1
ograf@@ 1
sek 1
Ver@@ 0.2196344698139852
ley 0.5586329139572624
1980 1
enti@@ 0.3706699064151931
ban@@ 0.8749624302613148
han@@ 1
cut 1
birlik@@ 1
rad@@ 1
Sin@@ 1
Kil@@ 1
ize 1
teh@@ 1
lis 1
Bü@@ 1
va 0.9859747567227549
60 1
hab@@ 1
fiz@@ 1
lek@@ 1
idae 1
Ter@@ 1
val@@ 0.6864011397057856
ire 0.4105165799244916
N 0.7567918359064245
Fin@@ 1
udi 1
iller 1
ence 0.21864959120545896
hakk@@ 1
mez 1
dr@@ 0.4090481720069874
forma 1
fel@@ 1
tul@@ 1
Pl@@ 0.6190241931439359
mut@@ 1
ben@@ 1
sev@@ 1
mim@@ 1
ha@@ 1
Mor@@ 0.693291867512878
He@@ 0.5051359978703628
eren 1
3.@@ 1
lem 1
Ol@@ 1
best 1
sit@@ 1
ite 0.22250251009536035
bol@@ 1
Gir@@ 1
Sch@@ 0.193255621559961
doğr@@ 1
Uz@@ 1
iken 1
fi 1
iri 1
zis@@ 1
1998 1
1992 1
ate 0.13585913144667938
Ağ@@ 1
vat@@ 1
yn@@ 1
nit@@ 1
parti@@ 1
niversit@@ 1
ver 0.4139780222835215
fe@@ 0.4942020926944691
Tar@@ 1
atro 1
G 0.8457673427536437
best@@ 1
U 0.7842872706286408
air@@ 0.5196233607495289
tari@@ 1
Ham@@ 1
Sa@@ 1
kez@@ 1
ul 1
lim 1
iliy@@ 1
ach@@ 0.1872022691220744
amen 1
Val@@ 0.879718278664278
Hak@@ 1
muş@@ 1
tor 0.40851926889001355
Kit@@ 1
land 0.27854145231557775
Lis@@ 1
amb@@ 0.48537480046774206
V 0.7759741028700705
sab@@ 1
Sult@@ 1
ava 1
aras@@ 1
organiz@@ 0.8979381993559236
Sp@@ 0.42381712970504304
dar 1
ou@@ 0.2767635653204644
1996 1
net 1
Kem@@ 1
dok@@ 1
fot@@ 1
zar@@ 1
Pe@@ 0.7435277099857874
ch 0.22588242684828608
1991 1
ino 0.6058947099019646
pay@@ 1
1994 1
1995 1
Sil@@ 1
1993 1
1997 1
ick 0.5447867992272506
Mur@@ 1
tif@@ 1
do 0.32906933790049303
ten@@ 0.25264468338463425
Mil@@ 1
ze@@ 0.80851051278994
azar@@ 1
Gel@@ 1
aka 1
alık 1
tro@@ 0.5231114128437768
kh@@ 0.6413592648082826
ng@@ 0.7976630500864691
ys@@ 0.6893498436499438
pos@@ 0.26264245830335203
çı@@ 1
lev@@ 1
ges@@ 0.6250699343537222
sem@@ 0.9201695213664511
ts@@ 0.4227630186084946
izi 1
1970 1
Feder@@ 1
ham@@ 1
uncu 1
ıs 1
fon@@ 1
medi@@ 0.4680342987651025
Cumhuriy@@ 1
ift 1
Bor@@ 0.9782770433158912
Ko@@ 1
Os@@ 1
On@@ 1
,@@ 1
ustr@@ 1
kir@@ 1
Son 1
ha 0.658622841155594
amp@@ 0.5903354522707035
alifor@@ 1
aliz@@ 0.8695428101292063
ide 1
ellikle 1
X 1
trol@@ 1
ram@@ 1
ision 0.8537947805483638
Ukr@@ 1
br 1
1960 1
ang 0.4479370338189404
ori 1
hur@@ 1
Kas@@ 1
traf@@ 1
ena 0.7509239651791842
emati@@ 1
cm 1
ba 1
Lond@@ 1
oper@@ 0.4699285673675138
Kap@@ 1
Hu@@ 1
Ord@@ 1
Ku@@ 1
bor@@ 0.6169851970668982
III 1
ong 0.5681905824108782
² 1
Mat@@ 0.9150279263653299
zi@@ 0.6502188414037278
gu@@ 0.28064969616611635
Ste@@ 0.6672517914520409
pi 1
serv@@ 0.5495839956087135
dis@@ 0.14076683372473447
Sen@@ 1
-@@ 0.8459809223641782
Con@@ 0.21553559916500684
yaklaş@@ 1
ala 1
Japon 1
ner@@ 1
versi@@ 1
gol@@ 1
od 0.35048334905509543
Bah@@ 1
Far@@ 1
ette 0.918948519068403
hap@@ 1
Bu@@ 1
Af@@ 1
uzak@@ 1
1,@@ 0.7885108501758551
ell 0.39265036326419483
+ 1
Mos@@ 1
mer 0.42416795679886926
kis@@ 1
Cor@@ 0.45733946385499163
0.000 1
FC 1
Profes@@ 1
mec@@ 1
nas@@ 1
fe 1
80 0.9835237272656107
sur@@ 0.30703064699679306
abr@@ 1
nor@@ 0.4919636033309116
bl@@ 0.274331717924227
1989 1
ep 1
lan 1
0,@@ 1
rir 1
ens 0.24261795105425377
aşa 1
lo 0.28185326980000497
gez@@ 1
20@@ 0.6748744516562056
ya@@ 1
ation 0.04728157383860435
So@@ 0.5435102861762638
Mes@@ 1
adel@@ 1
ner 0.2627381331208552
video 1
oh@@ 0.6659427789183349
El 0.22066901798887772
polis 1
H 0.8853760143691705
ıca 1
Bas@@ 0.9540230384712102
Brit@@ 1
90 1
Eurov@@ 1
kale 1
modern 1
lah 1
fes@@ 1
alle 1
nav@@ 1
Ok@@ 1
for@@ 0.21049238163017006
ath@@ 0.3047807375317335
Mel@@ 1
Bol@@ 1
fl@@ 0.29560721674381973
ku 1
Alb@@ 1
35 1
ant 0.09919812955969462
Alman@@ 1
Si@@ 0.6347492754320404
anim@@ 0.9548955335320415
eo 0.7822647343296462
anistan 1
ila 1
ko 1
med 1
fre@@ 0.39148652439774734
ome@@ 1
pro@@ 0.2519475490740378
kri@@ 1
Col@@ 0.40178446174195676
Pro@@ 0.5340373809013792
1. 0.7523996360178438
Dar@@ 1
5.@@ 1
ica 0.27644035453254323
Ale@@ 1
é 0.07174509661031178
Pal@@ 0.7328388569566747
Tem@@ 1
io 0.4998406296203607
ham 1
Tor@@ 0.8145939668409304
cum@@ 1
ros@@ 0.9888346467076545
ly@@ 0.6824239391835069
70 0.9996625910653927
spor@@ 1
enen 0.5084781690194158
ker@@ 1
Ed@@ 0.8194242687650745
ish 0.2624760254671132
1988 1
Sol@@ 0.9635117407515671
ses 0.27800432596941904
Akadem@@ 1
4.@@ 1
Ven@@ 1
Mas@@ 0.7742056063676761
Vol@@ 1
Mc@@ 0.6345741106769275
performan@@ 1
Res@@ 0.6874335758774202
Ben@@ 0.9689928269504932
Ang@@ 0.5627270899767569
Cam@@ 1
olo@@ 1
Gi@@ 0.7654134100220513
stand@@ 0.6533392037684687
af 1
ster@@ 0.7535561016114172
Fer@@ 1
dan@@ 1
öne@@ 1
? 1
kum@@ 1
qu@@ 0.09228342806383319
Str@@ 0.47340911774518485
imi@@ 1
gan@@ 1
1987 1
Ni@@ 1
Say@@ 1
orum 1
200 1
Kanada 1
Tel@@ 1
1928 1
arm@@ 0.42914740069252433
ator 0.7117786892003299
para 0.1927299882294328
alim@@ 1
ons@@ 0.6679901927301313
Sak@@ 1
San 0.5430446939010286
kamp@@ 1
Fre@@ 0.415710045835226
oy 1
2. 1
Dr@@ 0.7766605630358419
aci@@ 0.4161485757059348
pot@@ 1
vil 1
urt 1
1986 1
adem@@ 1
Az@@ 1
müş@@ 1
Qu@@ 0.309686434849581
ora 0.7369854437186718
stat@@ 0.7225395005504865
ai@@ 0.5847376783164198
Tay@@ 1
ker 0.5230081072224162
1950 1
aw@@ 0.2995849237476015
Kut@@ 1
gen 0.5540635791326791
eşit@@ 1
Mir@@ 1
parator@@ 1
Ph@@ 0.44340731116720344
ati 1
ehir@@ 1
Cr@@ 0.542844553096289
og 1
Fes@@ 1
dül@@ 1
á@@ 0.21854623082893207
mit@@ 0.4214856730486693
Com@@ 0.19740512390830717
fir@@ 0.8512671566812393
Ho@@ 0.6821313077120392
William 0.8096028699202846
1984 1
elen 0.9568404870351822
Ban@@ 1
all 0.13880532568537887
sin 1
duk@@ 1
len 0.5567829444424214
kut@@ 1
organ@@ 1
Go@@ 0.6875371039802913
ital 0.5998975966616805
graf@@ 1
vol@@ 0.322990783778885
Windows 1
san 1
single 0.6761670451908658
tar 1
â 1
UEFA 1
Min@@ 0.43212052499947357
1985 1
zey 1
ro 0.8018190836337454
32 0.9734030607084916
aha 1
1982 1
sen 0.5087446365849706
maz@@ 1
inter@@ 0.13595270335971357
uf@@ 0.5098944144749822
Wil@@ 0.6536121214167168
ej@@ 0.9533707387546821
final 0.547464793144372
kara 1
é@@ 0.06971846253130627
kre@@ 1
cam@@ 1
sch@@ 0.09098171777256339
Osman@@ 1
Hat@@ 1
Tok@@ 1
und 0.025227286444253143
ski 1
ish@@ 0.4253657458126299
enn@@ 0.3423829512949219
hid@@ 1
Dav@@ 1
Can@@ 0.8739135962413177
ae 0.8778253152525731
James 0.8269476475346428
... 0.7842249079493119
Cumhur@@ 1
iss@@ 0.40224407780489646
Don@@ 1
shire 1
endi@@ 1
zul@@ 1
car@@ 0.18664370135965344
est 0.03840353058972153
45 1
zu 0.11751671212785564
1983 1
0.@@ 0.8280063752713522
dam@@ 0.7970677450674
Lo@@ 0.5397069845669075
uda 1
ayar@@ 1
sul@@ 1
Ant@@ 1
ow@@ 0.2663521255587488
Üniversit@@ 1
Bask@@ 1
vir@@ 0.9448419861896332
Tun@@ 1
David 0.872484530045298
semb@@ 1
500 0.9735517954174226
cil 1
sist@@ 1
Berlin 0.9293224635912404
Mag@@ 0.6433491925002313
00 1
port@@ 0.3049925694621539
ira 1
dah@@ 1
‘ 1
ic 0.14542337548258963
th 0.10296437201941529
Gre@@ 0.5342595390725104
ess@@ 0.23316050023154863
19. 1
gal 1
Lit@@ 1
top@@ 1
Bro@@ 0.6574010037779945
Var@@ 1
ich@@ 0.21833796927956592
Bi@@ 0.5198759420219431
zur@@ 1
mis@@ 0.3190798834833816
berg 0.48882457568744286
ampiy@@ 1
ism@@ 1
Dur@@ 1
pan@@ 0.6685621045979391
Sim@@ 1
ung 0.07767160626582632
1979 1
by 0.03437254963895598
Lu@@ 0.5846269244098216
Sab@@ 1
hir 1
Is@@ 0.48306835851133184
25@@ 0.6550995045763873
göre@@ 1
Ac@@ 0.3832944013985426
Michael 1
atin 1
Hor@@ 0.9107130996856838
int 1
1981 0.9994947021662713
yg@@ 1
.000 1
ć 1
La 0.09384789721450418
ight 0.22168873131371872
tis@@ 0.608540072437497
2,@@ 0.71253895936134
ford 0.5790173713933617
ats@@ 1
ita 0.577074145505399
him 0.2780178772153852
We@@ 0.39568253910897766
BM@@ 1
ond@@ 0.4039337713700574
3. 1
ie@@ 0.2649758274783371
1974 1
Dok@@ 1
Mem@@ 1
1978 1
rest@@ 0.6349942138250341
ura 0.726770108960956
plat@@ 0.8117332222938309
gu 1
eller 1
ide@@ 1
1945 0.7399634623480189
aller 0.7821851594792306
fark@@ 1
6.@@ 1
his@@ 1
ich 0.3010882640359049
rati@@ 0.7029807599777138
7.@@ 1
Nik@@ 1
Met@@ 1
Q@@ 0.6423604250146195
dini 1
ga 1
Pas@@ 1
ras@@ 1
les 0.03913325419446765
pre@@ 0.19970532203760866
parti 1
Jo@@ 0.6743463450851446
Robert 0.7802522843861823
İm@@ 1
isa 1
1973 1
1968 0.9861420773053241
des 0.024890780434332824
aceae 1
Mi@@ 0.762583586723757
co 0.2727584664777724
vel@@ 0.4610644519692894
Un@@ 0.31885323803398014
Med@@ 1
leb@@ 1
ser 0.5252169186227053
Na@@ 1
Kir@@ 0.8043897363710334
1972 0.9376240424946547
FIFA 1
eter@@ 0.7985681166113024
ust@@ 1
tec@@ 1
1975 0.923854854240756
zun@@ 1
Hel@@ 1
feder@@ 1
Char@@ 0.5108848951624655
ima 0.9391629465642236
faz@@ 1
W 0.718552226705659
Rad@@ 1
üçük 1
1977 1
Bl@@ 0.521266613443253
1920 1
ret 1
° 0.7760846434295414
Ur@@ 0.7109352041702207
indi@@ 0.8962884558867705
ese 0.26527193786540204
George 0.7059279435517105
km@@ 1
Fo@@ 0.5254810799990149
ris@@ 1
Mis@@ 0.7947784808918423
34 0.9501985765124745
7,@@ 1
3,@@ 0.8762934409514288
bay 1
AT@@ 1
Gar@@ 0.6238483065190291
pal@@ 0.6801842526589533
Dol@@ 1
pil@@ 0.9924505571470408
Ros@@ 0.7053666732070101
tal 1
1976 0.9391779984968426
enz@@ 0.5507264316543617
Sek@@ 1
Stad@@ 1
mm 1
Tab@@ 1
ult@@ 0.544351971704179
Del@@ 0.8469109832072121
ven 0.5169068086179293
enf@@ 0.8680450566172231
gar 1
erg@@ 0.7466065007532598
amu 1
Hit@@ 1
sol 1
mayan 1
no 0.1387355032936795
jan@@ 1
33 0.8963350323881701
au 0.06713705575230589
37 0.9533697013475555
adi 1
Rum@@ 1
Dr. 1
Mich@@ 0.7364881310487625
1969 0.9952139520841253
IV 1
ace 0.2664061311748748
nak@@ 1
185@@ 0.4944251203082554
Haz@@ 1
1971 0.9351464007819696
Ke@@ 1
ike 0.7099829697341905
eyal@@ 1
na@@ 1
part@@ 0.6791029891123678
2022 1
Kab@@ 1
je@@ 0.45925900855306345
City 0.41267569468172494
Ra@@ 1
ea 0.40684756062071487
rev@@ 1
bis@@ 1
Sah@@ 1
Sul@@ 1
Ti@@ 0.7651711112314912
Ex@@ 0.2662560866450852
age 0.06530787054746275
ack@@ 0.2948699418852941
tro 0.8512256733310845
air 0.646626121501107
19@@ 0.5683154251325798
yr@@ 0.4385642331112325
aly@@ 1
fr@@ 0.1906422678342004
emb@@ 0.43102096164674913
lav@@ 1
ly 0.06615828765498695
pas@@ 0.4140702569628358
Los 0.35641680154767635
Fr@@ 0.3137863391605983
anz@@ 0.4266021647032057
Ari@@ 1
1967 0.9767087645047288
75 0.9181409305568046
eten 0.507563308764896
mol@@ 1
abl@@ 0.8237759088667871
Et@@ 1
stein 0.8072284672640709
uh@@ 1
mant@@ 1
Charles 0.6796515996116389
36 0.8483703915483163
pen@@ 0.45134688217522223
The@@ 0.38911096003740037
grup@@ 1
illa 0.5993155746112866
OS 1
ato 0.6422553283173761
Paul 0.6201409752922684
eph@@ 1
rat 1
1930 1
ber 0.5676517692708459
les@@ 0.6917663372551963
rit@@ 0.4464619551644955
Van 1
8.@@ 1
Bos@@ 1
metal 1
Kam@@ 1
ins 0.20109855590318454
1961 1
fü@@ 0.9230095558950407
Tür@@ 1
ast 0.23177687797716187
ami@@ 1
del 0.05028901306109245
çu 1
Eur@@ 1
Harr@@ 1
arr@@ 0.18481994659527473
civil 1
1965 0.9529547439842911
Ag@@ 0.7437990712983531
tom@@ 0.45633936873787606
1966 0.9608209670682685
ota 0.71687431971889
1940 0.9086686917218133
Pan@@ 0.9107056804354039
atif 1
mod@@ 0.7834684932664273
38 0.8429639559860265
Cas@@ 0.5549859004723603
evi@@ 1
1964 0.9213334312612329
sub@@ 0.17926011071438314
ty 0.17230931704076108
Cel@@ 1
dam 1
ony@@ 1
Kl@@ 0.7904394984887364
4. 1
Fl@@ 0.34474378215299084
20. 1
oll@@ 0.3983487814406459
Est@@ 0.44274423032384597
ost 0.29370347878228514
oto 0.983420062495612
Pi@@ 0.6273583005660929
kus@@ 1
rö@@ 1
General 0.5502979736489477
League 0.3598176844542005
Cal@@ 0.606307891249567
üng@@ 1
ó@@ 0.18224868689729168
Ba@@ 1
ton@@ 1
Eri@@ 1
ill 0.49566666818595745
diplom@@ 1
MS 1
aza 1
elle 0.1013183216527189
ezi 1
1944 0.7755375414147315
Cl@@ 0.4247307142387637
vid@@ 0.5409919257544306
oni 1
1963 0.9569566529095302
çeşit@@ 1
Mol@@ 1
Peter 0.7702364331858285
omb@@ 1
vil@@ 1
AS@@ 0.9109038628998034
uru 1
las 0.07526474757300204
fol@@ 0.2783626418712176
amii 1
ain 0.18503891466658348
tre@@ 0.2802183294108274
ola 0.7383697453679018
ue 0.11386150718163311
Boy@@ 1
burg 0.5462178426268653
Tom@@ 1
ein@@ 0.09059756069353606
plas@@ 1
Microsoft 1
ilim@@ 1
lin 1
65 0.7618495133238964
gan 1
Hi@@ 0.9246499198514696
lov@@ 1
ebe 1
Tim@@ 1
dul@@ 1
pa 1
ster 0.37926978248577936
fu@@ 0.39281258920058737
26@@ 0.8106030650446914
det 0.723444478339657
bon@@ 1
Parlam@@ 1
zer@@ 1
85 1
Grand 0.7262528073272713
1941 0.8098620876122784
Du@@ 0.706969978688991
rock 0.9234437906621655
ento 0.514865482989416
Jean 0.5498187468912487
Lat@@ 1
Ul@@ 1
Angeles 1
1962 0.9188262067335914
Je@@ 0.418543002887693
von 0.03637268739581402
ick@@ 0.23915260953841513
ky 0.6265897595173376
48 0.9933952866730387
Andre@@ 0.9096516353507046
24@@ 0.6853701475105309
oj@@ 1
Pat@@ 1
1959 0.9851777688339249
1956 0.944678843578221
4,@@ 0.9804680826132859
64 0.8903664971110749
Sem@@ 1
55 0.9866810682389006
ao 0.628367835793447
World 0.2497819174396436
ão 1
ts 0.05895796245135276
Kim@@ 1
9.@@ 1
SS@@ 1
NBA 1
rek@@ 1
39 0.8525414620781671
Fi@@ 0.6092213147742594
Fu@@ 1
Mot@@ 0.6735453490941957
Prot@@ 0.9050529973935647
Wal@@ 0.47617730082215115
mann 0.47653476361778363
Dan@@ 0.7824748971689285
kg 1
Ker@@ 1
line 0.276705316087211
yeye 1
No@@ 0.515233598609074
Afr@@ 1
Ren@@ 0.7876439858227114
.. 1
eza 1
42 0.9885670958187484
pp@@ 0.2563617052989413
aur@@ 0.47335115906915476
1946 0.8834134198636939
ja 0.4233528089994555
iro 1
strat@@ 1
Lin@@ 0.6238969124223053
egem@@ 1
ame 0.36766055934632974
1958 0.9197464913018994
ister 0.32470537243909164
for 0.021468696429166625
uri 1
Din@@ 1
sy@@ 0.4157154879939301
Park 0.5258100307322193
bon 1
fig@@ 0.8234575418018649
amer@@ 1
up@@ 0.2610440420728674
Ta@@ 0.9710379862061683
184@@ 0.5104735062949785
ici@@ 0.2142603333829266
tiz@@ 1
pres@@ 0.13778696314286265
atom@@ 1
Tri@@ 0.47725308777122094
we@@ 0.09285438818669703
St 0.9247563616755694
1918 0.9547133239105634
elt@@ 1
ami 1
oca 1
model 1
Oper@@ 0.830913532449883
ain@@ 0.23269565859250252
Tu@@ 1
1957 0.9493433358443276
kun@@ 1
stant@@ 1
Pak@@ 1
On 0.14481261648134397
wood 0.6059201233057598
Vil@@ 1
Ann@@ 1
hat 0.388334380744812
emp@@ 0.2614854673640445
kel 1
not@@ 0.22634135871806116
ES@@ 1
web 1
ym@@ 0.3532538637417094
Mik@@ 1
ars 0.2852389634919497
vin 1
Sor@@ 1
ji@@ 1
ole 0.45876727602396955
dit 0.8705259995934966
1954 0.9595670113574768
1955 0.9650113818619473
ger 0.23340540138476631
Hab@@ 1
oma 0.7174214333324964
1943 0.7896077307623314
5. 1
Wh@@ 0.40170494952829083
Men@@ 1
300 0.9735911510112816
1948 0.8431932132262321
off 0.32590951647344135
top 0.5094302273915735
ac 0.6277295812793537
ella 0.5197114291356596
onom@@ 0.7085549183014188
finale 1
ple@@ 0.6960563587944361
Henry 0.7907320758707759
Ru@@ 0.8102438328694325
yük 1
Thomas 0.5768529250050993
1939 0.764710469212588
Kos@@ 1
ates 0.16145174107978114
Lev@@ 1
pel@@ 0.5591187557259437
95 1
ung@@ 0.2655359369992675
ometr@@ 1
ider 0.8686103665989109
ance 0.09042035007458804
ban 0.66394968684595
Tarih@@ 1
iki@@ 1
op 0.39659007925394857
inn@@ 0.2668325810623572
Ben 1
Ali@@ 1
Lig@@ 1
anay@@ 1
pop 1
sad@@ 1
00@@ 0.9563829004562071
Ri@@ 0.5664103925732967
mir@@ 0.9404668790936885
CA@@ 0.6598105691261149
Geor@@ 0.5223796718604775
30@@ 0.633748476558732
ân 1
Richard 0.7560095650595612
sc@@ 0.21363596321993933
Juli@@ 0.8086886294185143
Ram@@ 0.8803443798780836
27@@ 0.7751564572213666
Pap@@ 0.9948070200272986
Chr@@ 0.47555433205645176
ida 0.3221477110862922
Birleş@@ 1
aus@@ 0.11204288505819694
ary 0.08751420614995006
sta 0.6669778423352538
ani@@ 0.6054613004154517
test@@ 0.8736203204882803
J 0.7988480955125223
Jan@@ 0.9024723688809659
ille 0.33157482544970096
estr@@ 0.37183293668175077
Arab@@ 1
Washington 0.6635885831019387
kuz@@ 1
uzaklık@@ 1
mor@@ 0.33821442074024194
1942 0.7446056074922144
AR@@ 0.9671645477983465
ack 0.23199557559378617
Fe@@ 0.7406571751512299
ff 0.7607791219772189
Bud@@ 1
72 1
rağ@@ 1
App@@ 1
ave 0.27100458918429565
Akad@@ 1
ach 0.14049038139292905
probl@@ 0.6950867924396293
United 0.17342236134591052
haber 1
1953 0.9171194518335977
ab 0.24936699789057407
ela 0.5456100452327335
1919 0.9453472179595248
int@@ 0.1634094059272615
Progr@@ 0.9405085716943816
You 0.9273388056694533
hac@@ 1
bran@@ 0.8627690238877308
DNA 1
Gl@@ 0.536402266146717
Saint 0.27550437352083873
sk 1
astr@@ 0.7075891558893073
iti 1
cas@@ 0.20698310508396683
ons 0.07396578952048322
ters 0.2007503116392794
1952 0.8616592545687682
š@@ 1
47 0.9370242579502
Lim@@ 1
blo@@ 0.9077007415497438
ake 0.5067083960395601
oph@@ 0.34158790399680256
ius 1
our 0.16563010461677294
olog@@ 0.32034615563288166
New@@ 0.747916648399178
í@@ 0.12244887772562907
bom@@ 1
5,@@ 0.7862874593129217
78 1
usa 1
aga 1
ō@@ 1
53 0.9905762431950249
86 1
Dor@@ 0.509494330757663
form 0.2359118734122166
vas@@ 1
28@@ 0.7050006451576528
alis@@ 0.26911427481798583
Wo@@ 0.49865847201079133
mit 0.04481370267105045
eden@@ 1
41 0.9170589478528164
stad@@ 1
Billboard 1
Nov@@ 0.9805334239174491
fab@@ 1
Rob@@ 0.8835426287850102
port 0.16102067522954955
Vid@@ 1
44 0.7887931784430633
IS@@ 0.8951861234684936
57 1
88 1
May@@ 0.9005300902225641
ovi@@ 1
1949 0.7978061970047005
Louis 0.5977923896440847
leh@@ 1
1947 0.8080169089922664
52 0.8934467522324763
saf@@ 1
87 1
apo@@ 0.46036453950085304
400 0.9347693035172819
zy@@ 1
ory 0.1469108208459693
1938 0.7836335431237055
dern 0.621668285586399
51 0.9166789423125005
ded@@ 1
6. 1
UN@@ 1
Love 1
pek@@ 1
plan 0.6806235498267327
gin@@ 1
end 0.10791619017703372
field 0.3137141288040064
ost@@ 0.9451207019752039
43 0.9222732475809092
Martin 0.7006525926988241
ony 0.4429872425025
ion 0.13151520402362246
84 1
Records 0.735922687481873
56 0.9489361473873819
anah@@ 1
bed@@ 1
ders 0.5684275057670436
Plat@@ 0.8967577977571498
oni@@ 0.3664403887879004
orta@@ 1
Plan@@ 1
Su 0.6287171021711325
gön@@ 1
play@@ 0.2957925767051491
dro@@ 0.32929816173833437
1925 1
Cer@@ 0.6851194235228373
oth@@ 0.37308224984624444
milli@@ 1
q@@ 0.7271504598376222
cal@@ 0.28990844538942695
anne 1
anus 1
Tal@@ 1
ash@@ 0.4314365041652727
Mari@@ 0.6750332019184824
ps 0.19128460904685715
kiye 1
ville 0.2257665351360277
92 1
alist 0.5857118158107619
asi@@ 0.3911979051902955
War@@ 0.5142737478936978
Mut@@ 1
awa 1
68 1
1936 0.7998840879663042
Mit@@ 0.4321066808687461
urg 0.677348588640014
chester 0.9390066693214282
Vik@@ 1
1951 0.8647810488687853
$ 0.2532666861827625
Lee 1
Ty@@ 0.6871515113920951
aborat@@ 1
gun@@ 1
99 1
1933 0.8041767445305422
1921 1
old 0.15433022809522132
Fel@@ 0.7600223997735528
ando 0.15132995056285892
go 0.30825406648132114
sur 0.07965992390698061
1922 1
Christ@@ 0.5049682795886634
Yor@@ 1
Ken@@ 1
Hy@@ 0.6560055019265213
Sto@@ 0.7330629367085961
1935 0.8809405786723463
54 0.8933471686612758
180@@ 0.48615457117276767
89 0.9893022984000294
Div@@ 1
mos@@ 0.769152176565042
77 0.999282868122204
Tro@@ 0.5945551356703285
Joseph 0.6206262043829304
ou 0.11134116255878247
Al 0.5119450286650559
test 1
ordin@@ 0.6067667807655799
SS 1
bert 0.5459486210009229
Google 1
kup@@ 1
93 1
poli@@ 0.9169342228263754
67 0.989170137696391
71 1
Rec@@ 0.44613246560142394
he 0.03307810366026808
cer@@ 0.15548429092278016
Sing@@ 0.497426011764241
Buc@@ 1
ure 0.09819026322249515
1923 1
yn 1
66 0.933330121344956
person@@ 0.3473365423634159
46 0.8775141348304818
96 1
ein 0.054547900227608664
58 0.9188828271049801
ity 0.07924455552428547
76 0.9398346964907004
Tam@@ 1
ahl@@ 0.6157616324792685
CD 0.8963983307817223
my 0.6122576252999516
ple 0.2775965586659616
29@@ 0.6966943819461547
Eng@@ 0.6645919406593105
lie 0.6155224883851009
Luc@@ 0.7982609989535531
q 0.7542381260440397
ero 0.3105141950371096
Madrid 1
lil@@ 1
time 0.09088697695462714
ison 0.2515844547697097
cell@@ 0.7192450685706996
16. 1
Lor@@ 0.7338066476534757
adr@@ 0.5592544030127441
62 0.9119501523109249
ington 0.5998073433544447
61 0.9580524204565048
ax@@ 0.33348249765464294
Il@@ 0.984827747959627
Sand@@ 0.9280549516852953
1924 0.9255750382442816
tion 0.03702486199769125
fal@@ 0.6040909850230557
ä@@ 0.06792316170777513
merc@@ 1
sey 1
Sw@@ 0.40717122911425685
alternati@@ 1
eta 0.554075224105759
aban 0.5161603208829506
sam 1
pap@@ 0.46351843300896034
bec@@ 0.49294469736516533
ry 0.34097795503138534
1937 0.7727086662525974
bre@@ 0.16483735467164773
org@@ 0.7944684263674385
con@@ 0.04178994320493246
mag@@ 0.2521262712812911
Hil@@ 0.7911740456505135
ess 0.10216442043858205
7. 1
uta 1
stan@@ 1
á 0.25825639706600306
63 0.9176284396279875
za@@ 1
Me 1
Ot@@ 0.59588529510736
Net@@ 0.886304434742441
Nic@@ 0.6826637314653151
unca 1
isp@@ 1
04 1
Cap@@ 0.3914854337201424
1914 0.8477620395096074
ern@@ 0.283341887577885
ender 0.5312305063172699
general 0.34194854361288585
the@@ 0.14608529862365766
81 0.9739102893867403
bas 1
1934 0.8318611991727576
hel@@ 0.29577954857110156
6,@@ 0.8522038074290939
1912 0.9501688865767852
Kup@@ 1
dem 0.04352267408527772
ii 1
ings 0.12375836836497159
Rod@@ 0.9346163079552987
dom@@ 0.38853169538789567
stati@@ 1
Wat@@ 0.6770009881285078
74 0.9607597124856058
ales 0.07059688896155061
lise 1
so 0.11452041873252759
edit@@ 0.6397219011148128
18. 1
hr@@ 0.38965293124583006
ō 0.9676387938466281
Mass@@ 0.7452453397471696
05 1
Jackson 1
dans 0.045653135497708094
83 0.9496159717442227
kisi@@ 1
ado 0.047581468952188184
tra 0.4635158439868682
NA 1
fo@@ 0.26821900052122066
zo 0.6908416811230312
fen@@ 1
Star 0.911682802908091
cor@@ 0.09797939817731487
dy 0.5999692942078152
ste 0.3273283996558069
SC 1
RA@@ 0.9401195483199791
Sun@@ 1
A. 0.5580219476208449
Vi@@ 0.29673526636873165
V. 1
1917 0.8435097253705052
One 0.3902759256828419
Sat@@ 1
edr@@ 0.6479188845578182
rey 0.6970107905921992
Ap@@ 0.6195094114844442
49 0.8253436711330785
Ori@@ 1
08 1
ilde 1
Phil@@ 0.4513267932998129
neg@@ 0.4102149625442304
179@@ 0.49700072837535453
tin@@ 0.6163751928979478
Dal@@ 1
tel 0.4653400887407861
01 0.8863472991325833
may 0.21534677482887357
tol@@ 0.8868859007743739
82 0.9226013584045201
agr@@ 0.8145232373953222
Patr@@ 0.6644034979199303
hip 0.8168343574066412
refer@@ 0.3552234912166195
69 0.9576043882499302
WWE 1
anti 0.7952847864112653
Maria 0.7633372795463378
73 0.961355273209268
ello 0.6556352361300847
Cup 0.34984026187016437
1926 0.8772462729517536
Z 0.8422371194613287
ling 0.3312264199413523
dae 1
ex@@ 0.038511031937645275
ört 1
Edward 0.913059391378199
ail 0.6303461255115496
Oc@@ 0.5466054102052657
way 0.1132432206296412
Bon@@ 0.8026080978974125
rem@@ 0.2507895138080936
Des@@ 0.2709800774328623
key 0.5710431404301148
CH@@ 1
ā@@ 0.629394029880031
Ka@@ 1
Y 0.7136363105946836
irse 1
mp@@ 0.367056498438236
94 1
eci@@ 0.5072807206688242
59 0.8737028620630067
1927 0.8727870344647116
De 0.2783116458431607
hor@@ 0.3154506960604755
Bri@@ 0.582738997099634
My 1
Lib@@ 1
Dam@@ 0.8811325578324698
— 0.032239984160291425
09 1
Mid@@ 0.5553392587818013
Sy@@ 0.3326995661590285
Pot@@ 1
Le 0.06550970517438393
West 0.2959716213639384
zona 0.7387818082380053
ith 0.5513188470034439
Pa@@ 0.5989313667719086
ef 0.43486222943757996
Nob@@ 1
Proj@@ 0.744779660224452
Dis@@ 0.4206773629452946
alif@@ 0.6494359453970657
urg@@ 0.8472268777878122
‎ 1
bot@@ 0.5402753166332845
je 0.6633399208962257
day 0.1652576495939251
Hen@@ 1
Som@@ 0.521187030808597
bac@@ 1
Bus@@ 0.5452415321571634
Pre@@ 0.3389286487529068
Wol@@ 0.5374335914934122
asti@@ 0.8494040850868655
aten 0.2964962271913594
cad@@ 0.6731817666759302
kaç 1
Sof@@ 1
98 1
US@@ 0.5604262910796519
ont@@ 0.5218398566155122
own 0.23228031749345862
him@@ 0.5281616381019058
91 1
Mont@@ 0.5271157312550903
La@@ 0.49665962690469745
aff@@ 0.2046589759376798
Music 0.4569120862095023
Reg@@ 0.13231363020078185
97 1
kt 0.29653994970130565
well 0.13418876098849067
Sm@@ 1
Papa 1
İ 1
Santa 0.6036689016645269
1929 0.7606666327454348
Rock 0.938877308742277
Prix 1
low 0.1631300821988464
č@@ 0.9345096911851548
17. 1
Black 0.632698819794289
Gor@@ 1
Hir@@ 1
Avru@@ 1
Milli@@ 0.8086569847571616
err@@ 0.30379999139979014
Blo@@ 1
hil 1
sig@@ 0.2048729889371232
My@@ 0.8235767137042092
deb@@ 0.9124797401725132
Um@@ 0.5026913225333716
igh@@ 0.17356721868316952
ico 0.1526814437434458
hari@@ 1
Wor@@ 0.3752629831171743
Show 1
ა@@ 1
Inter@@ 0.2380730981707874
Pu@@ 0.49146667818978557
fas@@ 0.6537214135226146
ud 0.6899506293991947
1932 0.7798035561282698
Hon@@ 0.5016361433243636
79 0.9120817428666769
wa 0.3006441591236606
Ha@@ 0.6944237427787888
ble 0.20871875203464718
udi@@ 0.792757520124133
mine 0.6931852319878092
8. 1
ito 0.31997954920920607
Roc@@ 0.7589669674288165
Play@@ 0.6159541245900944
ort 0.30507748901199166
ende 0.22827219334229695
BC 0.521484382530641
play 0.25063867310080984
Vir@@ 0.818910859960197
ath 0.3713796564016166
Steph@@ 0.887141659676687
aire 0.12277156592016868
Tol@@ 1
A.@@ 1
Smith 0.6343249088319634
COVID 1
mara 1
07 0.9694125388648513
All 0.3280316830732468
Jack 0.9778149090775236
Pin@@ 1
Sk@@ 0.811166002517557
pin@@ 0.7111567152609828
Don 0.9320972856400562
ome 0.18114026982978806
bar 0.40542793887235395
1931 0.7900916987491622
ding 0.2877878597757186
Flor@@ 1
uke 0.8406037804667549
Kim 1
Entertainment 1
pis@@ 0.6625138052026059
kte 1
esc@@ 0.35804392714605376
nam 0.7553297504007481
ogr@@ 1
Andr@@ 1
tic 0.18598279812163895
win 0.3091683041299651
M. 0.7570398722091038
Chi@@ 0.3956404411399694
Nar@@ 1
uel 0.6536123401243743
9,@@ 0.9503809102689571
onn@@ 0.12196835806337754
FI@@ 1
ase 0.1515553670792357
inen 0.7307761510759264
CO@@ 0.8359029672019489
­ 1
Laur@@ 0.7040018207943599
Film@@ 1
1915 0.9189457977808833
solo 0.48520559083333903
Dre@@ 0.4443947776417852
ei 0.4156881997961913
Nak@@ 1
ian 0.21085257907873659
Frank 0.8976042736061077
J. 0.6151948885014009
sent@@ 0.9354598061835862
sky 0.7974755126961528
tis 0.7386462479194134
sburg 1
Air@@ 0.46883291068803495
9. 1
Hot 1
* 0.21539211681834283
TC 1
Kh@@ 0.34281424916906
Gol@@ 0.5471873047887534
sep@@ 0.7061202653992915
10.@@ 1
150 0.9348229928767755
Karl 0.7672634688431677
EP 1
tle 0.2835195268979465
liste 1
ube 1
600 1
Bern@@ 0.650424372935305
Ly@@ 0.9053293610741742
03 0.9770013103075914
Pic@@ 0.8445679283439144
Sus@@ 0.9487570784557968
1000 1
02 0.9532772389592021
CO 1
Vic@@ 0.4950861923140692
Op@@ 0.5767783225492022
Ca@@ 0.9027028449737042
É@@ 0.1827836758735823
abeth 0.7385880223671619
ign@@ 0.12229980162160928
pul@@ 0.33778539409757397
Cur@@ 0.5207274902876697
Liber@@ 0.5584359722449536
06 0.9351238229757816
ock 0.377895372285011
que 0.012202086536202925
iko 1
Maz@@ 1
ash 0.5850953195363264
uki 1
Gil@@ 0.8190453218984679
ier 0.29633824713653095
Cre@@ 0.36369657260701194
ente 0.08814520185173673
King 0.3711673195160788
arc@@ 1
Ki@@ 0.7148407255145115
Club 0.3109366611333283
po 0.39747410772960273
che 0.1008624505246959
ck 0.4954693899392797
Ox@@ 0.8005048184857623
Prof@@ 1
ener 0.45165941556179856
Daniel 0.8241254098630546
Man 0.6366511484630698
log@@ 0.3542682628881878
ł@@ 0.605803179625046
ame@@ 0.5901675457247686
itz 0.27544720150883695
​ 1
Hug@@ 0.7684532977884183
Alexander 0.7127306001029868
die 0.011487471734614002
verg@@ 1
program 0.46726225371897956
Viet@@ 1
Dom@@ 0.6528259241393742
indi 1
1916 0.8729855474349474
Ü 1
.com 1
Live 1
Chicago 0.5704916400578194
Clar@@ 0.620490190366822
Sum@@ 0.41680886411706364
Mary 0.5807379195459649
Ze@@ 0.2749558533279367
1908 0.8819222912356419
ous 0.06623661895165547
kim 1
iten 0.34382384873626914
ester 0.44739476244657406
dor@@ 0.5509833146860281
liber@@ 0.5342867053083853
ə@@ 1
Red 0.5639151034485929
uch@@ 0.1821774387101166
Phili@@ 0.5820102184425884
ets 0.12057662349028192
Conn@@ 0.695105684644977
odi@@ 0.6892871126028007
Haw@@ 0.6835032296219103
Q 0.9561984533616531
800 0.9914909399500942
ansa 1
reg@@ 0.0850316537201862
Seb@@ 1
annes 0.9104492686929018
Mark 0.6753639886822924
Leon@@ 1
cus 0.9547322915942857
ics 0.13937314334812873
bit 0.9794851017309278
Vel@@ 1
hum@@ 0.17496487405640446
Hum@@ 0.5457892958144659
neh@@ 0.6153958078097808
entr@@ 0.12877247970497782
los@@ 0.33353882271478774
Stu@@ 0.3481971698657934
ept@@ 0.6991445556211215
Tw@@ 0.9691484218439241
rot@@ 0.49853675504380435
ula 1
Uni@@ 0.5473325836663421
Real 0.916633002980266
1913 0.7839519461499446
Albert 0.8662984995107321
Tour 0.49683469973426525
erry 0.6364732298478438
• 1
ais 0.20262714182220737
Pri@@ 0.2820005703829433
Williams 0.8367681041754282
Pop@@ 0.6934649780910899
Tom 0.8999379846646592
Roman 0.5374529152668363
8,@@ 0.7369034096597663
International 0.24243288938517527
Rol@@ 0.47024134174841975
esto 0.8785919200362781
nh@@ 0.16738082734962695
yp@@ 0.20012540228599218
Â@@ 1
Organ@@ 0.5130482011098273
ier@@ 0.13555958538320245
Kn@@ 0.6056263695344852
oti@@ 0.5355046547057286
Anne 1
Que@@ 0.35211755947470985
tt@@ 1
Big 0.717534155592554
Not@@ 0.39019405763279413
els 0.1455584824821808
Hom@@ 0.7399903230706406
No 0.5264018287275096
ors 0.08658564218760967
go@@ 0.08774737296632129
Max 0.9591296708982198
onal 0.1438749116879355
13. 1
Jer@@ 0.6757273164977802
don 0.567554010809224
eth 0.6862222052619698
idi@@ 0.40728489623622766
thi@@ 0.397947182321089
Wi@@ 0.30876659573630766
ux 0.1955544115421452
AN@@ 1
DVD 1
ben 0.19337579013083211
Oli@@ 0.817672177708838
aki@@ 1
Eliz@@ 0.9175823313467488
Sou@@ 0.2999906112292217
kub@@ 1
1910 0.7089795249898531
cr@@ 0.07216104917167587
ough 0.24919999431216006
It 0.04606756417270463
Clau@@ 0.8960949968364831
CE@@ 0.8222360787467962
etts 0.8677398012639023
Stand@@ 0.6085726601831448
Got@@ 0.5521159415454996
FA 1
Anna 1
Cy@@ 0.6446986638664576
Cum@@ 1
ste@@ 0.1294051115560723
Company 0.38100712785383467
AC 0.7826249428778226
Atlan@@ 0.7648554897152413
uni 1
eld 0.34549275265118445
Ky@@ 1
Joh@@ 0.5495742891678819
ass 0.20650938525906046
set 0.2004530268534681
ams 0.16601514934346445
Lar@@ 0.8102332870594864
You@@ 1
In 0.018456376327391943
liga 0.5430853612691805
abe 0.4664609100306373
Cat@@ 0.3549320856701522
SA@@ 0.9689311846786703
mond 0.6252333716872427
Meg@@ 1
Bes@@ 0.28080796700996336
olf 0.8178385139028375
war@@ 0.1520899961007361
15. 0.9793701433876348
National 0.12840197298990946
iter 0.4261110401802624
Au@@ 0.19128347767556614
BBC 0.8352688619908193
ardo 0.7904137712841606
Gem@@ 1
ett 0.4259758636123556
Royal 0.329307195956536
11.@@ 1
ina@@ 1
Sig@@ 1
Bru@@ 0.38115428293071496
Arthur 0.8335938613943559
yc@@ 0.2896942989397816
mati@@ 0.827563766144101
wig 0.7205524484058529
kati@@ 1
bro@@ 0.16506158342835725
use 0.08704850247267612
osa 0.33307358646256646
Pierre 0.513120980107501
zon@@ 1
Jones 0.7248688449544566
ange 0.21722904806914814
Pen@@ 0.561461947800819
Jac@@ 0.6198227516012852
vin@@ 0.6346335317579626
Liga 0.6042633993076231
ws 0.11722012231304262
Nam@@ 0.8168280082880663
Win@@ 0.3816536691576705
inger 0.4379678189751284
ft 0.21850150676853217
Fri@@ 0.6957649640433526
Stan@@ 0.7483831476849273
1900 0.6642063381269514
prop@@ 0.1613043231586031
Premier 0.7869127251298957
lit 0.5308120469010207
ys 0.36513959907561894
Virginia 0.5793509168975028
ady 0.30446557360661536
American 0.09814326647924153
1911 0.7406565360579827
ston 0.7363959878175743
KK 1
Florida 0.632165592568111
She@@ 0.7113695275881726
mo 0.36932655178498847
Maur@@ 0.6759334220814625
vi 1
Francisco 0.48045271931209554
All@@ 0.47354948938508024
anta 0.6020257701231987
enden 0.16670609938700454
Life 0.5407813728920224
örd@@ 1
imb@@ 0.7404662065476193
án 0.15800181227233584
ón 0.09822459056963634
Sc@@ 0.48951070066006946
mus@@ 0.08975050159264783
14. 1
Rot@@ 0.5794466968250735
bez@@ 0.6137911996449771
Friedrich 0.601936878673959
Frank@@ 0.7617283716509123
mula 1
trop@@ 0.4722536169316399
hy@@ 0.2129882771106574
Bot@@ 0.38629881219625545
Def@@ 0.7478441896411757
ë@@ 0.7592864701888965
ny@@ 1
Mod@@ 0.6575875375623488
fan@@ 0.4396459345189441
Astr@@ 1
lit@@ 0.244397068593455
50@@ 1
Pres@@ 0.2769777045692328
TA 0.9619081487442697
Time 0.8616655032933918
AP 1
Camp@@ 0.3904365839267378
Dig@@ 1
Scott 0.7761225190124613
une 0.022973882377919887
hom@@ 0.1916381213020413
luy@@ 1
sus 0.10470337439389237
park 0.499416493916295
tw@@ 0.16332997377709751
elec@@ 0.12772754281647844
Jersey 0.8414947443944555
eva 1
ther 0.08516229385503817
Cro@@ 0.3350381159483125
ario 0.17415569417563276
Trans@@ 0.319158348534068
zin@@ 1
sis 1
tes 0.06698817808627412
120 1
Super@@ 0.5531928872209266
ment 0.05589617438653644
his 0.018164565160760142
Hot@@ 0.6826356241355108
Anti@@ 0.6802354515164869
col@@ 0.06517287710293301
Gro@@ 0.3882109459653778
ont 0.09058741978328336
vit@@ 0.8376257807555226
PS 0.9091624190371568
abri@@ 0.4208812736691252
âm 0.8634475458823867
Rog@@ 0.6235722867351319
Gran@@ 0.5385829455219675
ny 0.5528227412131425
Ayr@@ 1
Ath@@ 0.4225755593405163
Times 0.6023257585460575
amo@@ 0.43483175352250647
oa 0.7130898976812677
Lou@@ 0.4821653298729552
ua 0.3997670185220874
ho 1
H. 0.7375565261762311
Rem@@ 0.8124773611305067
ú@@ 0.25976998002290513
Fern@@ 0.32360203322823083
Jam@@ 0.7856768787503015
rar 1
Ci@@ 0.27932615524447735
Fac@@ 0.4905264801103319
Nat@@ 1
North 0.17937080309395714
Pil@@ 0.8105648126592633
ason 0.4404750793591874
Kenn@@ 0.5927987519194078
Liv@@ 0.8145996075509032
unt 0.29665034828379133
Bundes@@ 0.28306385013020857
reti@@ 0.38595484390998674
wor@@ 0.0741149429582796
Brown 0.627956032236084
estra 0.5093179420267269
mur@@ 0.3656886924079136
BA 0.9629857391015004
oks 0.3230821570192145
onald 0.7272092163274777
Tre@@ 0.3385320115974591
with 0.011100026874453647
dis 0.7321588676974388
Carl 0.7851334995228273
ø@@ 0.6914929220706629
eus 1
ihr@@ 1
lor 0.7572361317915253
Lam@@ 0.7636197621602461
AM@@ 0.9059033438404542
Zi@@ 0.49443181788278295
nat@@ 0.5952969954937272
ax 1
Kamp@@ 0.9608586870552233
Red@@ 0.562528956151005
Young 0.6789920461244496
ania 0.3419680664728155
name 0.10539297995352964
phe 1
uli@@ 0.7157606327631911
Ern@@ 0.5062952215725743
1909 0.7557753418662859
Ash@@ 0.746485249135269
berto 0.8154429021733137
CD@@ 0.6722051299887362
anga 0.7589423963824125
Marie 0.5161827104024606
Johnson 0.684578571517991
Fir@@ 0.7881245010606436
Star@@ 0.650405613677601
ting 0.060285175730174057
Kre@@ 0.25044803270866933
Bay 0.4981913488769996
Sec@@ 0.16289671011470508
Vit@@ 1
avi@@ 0.48713048714582297
Tit@@ 0.6007651310892004
12.@@ 1
vel 1
Fal@@ 0.6963433723378926
gener@@ 0.16471376840810062
Num@@ 0.9028911923288053
nur 0.16294129699897902
riv@@ 0.6782910284556201
# 0.4370187544844595
Pau@@ 0.8162208552783113
ae@@ 0.6188179923727197
ush@@ 0.44077979649970445
Ein@@ 0.12218488347366942
gl@@ 0.18218835162613448
inus 1
Ort@@ 0.6004859949021533
Berg@@ 0.641900535486339
But@@ 0.7441474023851871
out 0.0556148008511649
Jor@@ 0.6372769586875683
700 1
ement 0.03327027819804455
section 0.34642630628655235
urs 0.12021353610036885
com@@ 0.03379459073828156
gia 0.2596074072217581
ies 0.08200040950998795
lia 0.7854110694907249
250 0.9047731914355566
ix 0.3196557842272683
1907 0.7111285466073417
chi 0.46434251612547883
ebr@@ 0.49072837264148295
VI 0.9840048781925567
agu@@ 0.3255037043364706
fem@@ 0.15966119400680268
lip@@ 0.8707003313675051
Politi@@ 0.48038619024010315
aro 0.9410068559592324
ér@@ 0.07002619959657436
Hall 0.34788839962063456
1905 0.6432823443235889
Im@@ 0.2542415952726031
mand@@ 0.3725268760633306
ador 0.13550865473572682
igan 0.5592545225798099
Eu@@ 0.8034804120396805
D. 0.505414986440097
inos 0.494276859880649
Ob@@ 0.2960306148410119
Aug@@ 0.7632045351593129
ი@@ 1
Medi@@ 0.25927395499471206
» 0.017533996877095375
ingen 0.20429499327237333
ago 0.455241668518471
ST@@ 1
mar 0.5756340300749101
vis@@ 0.10549781842043199
bridge 0.3661183314976
ect 0.07832126673069778
ault 0.5006737374390507
Joe 0.7535569170497897
ister@@ 0.21563310176275716
ego 0.34605615630518355
Sant@@ 0.7398511331123087
Sho@@ 0.6469200245783928
Cin@@ 0.8598371582017738
AP@@ 0.8255958950882375
College 0.17896285756399932
stil@@ 1
ido 0.09926129575967242
ls 0.34978053198409625
Ander@@ 0.664255882699453
1878 1
Columb@@ 0.5315769496200197
not 0.04006426213869054
burg@@ 0.5233882645648973
ond 0.20398646608039814
Pom@@ 0.8588890881240339
oug@@ 0.4649028002710257
Şub@@ 1
Nav@@ 0.24290215915278224
BS 0.7297556006643575
Rich@@ 0.2884612269479516
Whit@@ 0.6873009282542384
itz@@ 0.17448442682016732
nu@@ 0.3091219203530126
Anth@@ 0.7144233666055363
Nag@@ 0.877466187359384
Greg@@ 0.9546458336283266
apa 0.7491015935819326
Top 0.6457166504014739
hin@@ 0.1562638035445731
1902 0.7685156488678193
vo@@ 0.08768421107532673
Tran@@ 0.8718171685939381
hol@@ 0.17557009924591768
som@@ 0.36129441616183317
idea 0.5574993562917272
net@@ 0.30699426356574827
kle@@ 0.2904585849765871
Hö@@ 0.7334321309184364
anos 0.3060721559721051
ense 0.236692392083119
esti@@ 0.18410554203945068
ige 0.12730388908272555
Franc@@ 0.504162774849543
rap@@ 0.17250576592135128
« 0.016829345505421194
José 0.4003718256347245
aus 0.03734471973866638
SE@@ 0.6458237379307455
pos 0.2695400788400262
Kin@@ 0.24246280002297696
Aus@@ 0.08029044974353185
Shi@@ 0.6572128054972814
amba 1
sea 0.36054790640693857
tit@@ 0.269450996563733
Antonio 0.5727833671553467
Ferr@@ 0.903897273847132
Spe@@ 0.4020733402851607
Sci@@ 0.2789448170505778
Carlos 0.5663986379810689
PC 0.9321940125589323
1886 1
ensis 0.49242929507380023
off@@ 0.06645193103444472
ides 0.20135372024739318
atur@@ 0.2503256445831672
esia 1
West@@ 0.22878882890678517
ment@@ 0.277969683210359
SA 0.7375659715890275
ee 0.285372824364096
Law@@ 0.6620332239139141
transfer@@ 0.5122562757332084
Rah@@ 0.5730614217340849
Paulo 1
Wilhelm 0.626789666261581
jer@@ 0.987182124164445
sir@@ 1
Group 0.313092166455336
loy@@ 0.24222194695036275
cher 0.1766192418332332
eter 0.21278118267225118
R. 0.6733697096435449
Abr@@ 0.892056751936639
DC 0.8209220773873558
Kri@@ 0.47075588279976255
Spr@@ 0.24553604810621726
bury 0.5450618423256478
sever@@ 0.8570613792654393
Boston 0.5883930268397596
ald 0.5720117968078452
AC@@ 0.568249320228182
Alfre@@ 0.7587400568476694
School 0.11916224106561477
amo 1
Venez@@ 0.8004392431163445
opo@@ 1
vo 0.4659583050740934
eto 0.4356762377602934
ust 0.30194058292356424
Leg@@ 0.2634646994704225
Sir 0.5026222545913877
Loc@@ 0.39151204898060893
Yo@@ 1
zu@@ 0.21270838726381813
dio 0.26480765729142985
ds 0.1011261007422391
izi@@ 0.6451180388090779
ime@@ 1
nd@@ 0.8983805041715572
Disney 0.9715969127591673
esab@@ 1
Cle@@ 0.6316935820789277
inae 1
hali 1
eral 0.5272392227875663
200@@ 0.70999621932769
Ere@@ 1
ever 0.1593293530481706
Simon 0.7905760465395953
Day 0.4969808879544476
box 0.648744152573938
gre@@ 0.09575981013404769
Super 0.5405331489514473
Doc@@ 0.5375621887664517
ope 0.31952345588895104
iga 0.9239221740998601
like 0.15019248453848477
wer@@ 0.07144883068773072
hasta 0.1837263538508229
ote 0.13558222060410965
Team 0.3692958723135924
Air 0.289901414279488
Rh@@ 0.3402989138678974
ER@@ 0.7615245410320892
mun@@ 0.2638897047618598
egen 0.343114280936319
Victoria 0.5986406986852775
Hill 0.4416769157981407
termin@@ 0.22685546116874244
wal@@ 0.18517934155760296
ი 1
1906 0.6247363270698474
Bed@@ 0.7254578399060246
mas 0.5853698379739336
ert 0.080707068005414
E. 0.5850937233794746
Juan 0.3577083165831588
gio 0.8148794812932529
Ju@@ 0.25648023627020844
app@@ 0.11756917969923593
а@@ 0.05651019677588762
osh@@ 1
öh@@ 0.2560388798877879
Arm@@ 0.42891710344705686
verse 0.3201183284886789
Lud@@ 0.5353981369197176
iller@@ 1
Bet@@ 0.37876412620364186
DS 0.9113992735419335
Sub@@ 0.39880163898583765
als 0.016683470018518456
France 0.10544548055055743
aye 0.7090730180416124
ô@@ 0.19107280772175908
C. 0.3192664162115149
Jose@@ 0.7478733324496666
Prim@@ 0.3800641098372799
ann 0.4648735477311482
Christian 0.3150640489141538
antas@@ 0.7120435899567724
aa 1
1890 0.735039111195779
elt 0.11225543037971698
Station 0.400857378365612
Cru@@ 0.5795982651510633
mont 0.4575657444852088
este 0.12194123831264406
able 0.033992545230669885
ine@@ 0.26081329871466824
Domin@@ 0.6885804441418705
Mul@@ 0.5144601479810023
François 0.6131627517146974
ew@@ 0.2978123972056866
Beh@@ 0.6599409946540475
agon@@ 0.4426510153800657
Kle@@ 0.4255007775937775
White 0.3656298386144963
mom@@ 0.45086847313543504
ett@@ 0.2612208145719933
zen 0.19507672888815716
Corpor@@ 0.5444407484457924
chi@@ 0.17045797352477157
1876 1
Walter 0.621335504597235
Jos@@ 0.928134313235613
IC@@ 0.6093505691537955
ū@@ 0.9236720314221135
eka 1
res 0.11843678937013201
has 0.027845215311299337
1877 1
ais@@ 0.1636893980889486
bo 0.6344148393626725
ng 0.47865053528924834
rem 1
work 0.06996168162862616
ning 0.10440436849061477
Bang@@ 0.6432168696019719
low@@ 0.10047392162240834
1896 0.7578645225721684
CI@@ 0.7726313851811145
University 0.07010786090925795
did@@ 0.4263512256695834
1904 0.6208710150835621
Lord 0.49401277689875545
ges 0.18908560739232053
vers 0.0964464708604489
1,5 1
B. 0.30341138188446315
Bec@@ 0.5012915338731715
AD@@ 0.744399891423412
-- 1
Hamb@@ 0.4857403443671395
Indi@@ 0.22637901162180896
Barcelona 0.7595025538679911
aliye@@ 1
ju@@ 0.13681284696521442
htt@@ 1
House 0.18538477310546897
ern 0.08800651332021792
Off@@ 0.22357009413968063
olas 0.5526194522705214
bır@@ 1
ater 0.10117998545918168
ref@@ 0.21159705915943866
Elec@@ 0.40631022015382134
AS 0.7873759845292826
Buenos 0.7749913723225191
anth@@ 0.4110844028493738
1901 0.6550395256726235
cl@@ 0.07674534443505478
sus@@ 0.19987586902194013
ikan@@ 0.7586961896156301
afya 1
S. 0.48927303455944404
Web@@ 0.5705571317037065
gut 0.7500002220758285
Aires 0.7716613647424717
oi 0.7843092443337474
ig 0.21077014629316215
ž@@ 1
kam 0.2533240832693432
ebo@@ 0.7644892019278512
Kant@@ 0.7411439378373746
ther@@ 0.1439262441385244
Vo@@ 0.37770147163331824
unk@@ 0.12973872791733734
hai 0.3415536595676841
jo 0.16651246827652494
tran@@ 0.4129150230248986
umi 1
Hans 0.5315557833505041
bot 0.7174983783133337
Ş 1
patr@@ 0.2842564059511734
ear@@ 0.10495903983912878
ე@@ 1
Championship 0.2698666406460127
Mand@@ 0.6777144715103998
ana@@ 1
Ye@@ 0.340514609629416
furt 0.7061710834486096
Jacques 0.6109514516161827
Bank 0.4582718966207564
ante 0.06221543982147713
Blu@@ 0.6321703358434259
RO@@ 0.9443630009255897
Les@@ 0.6617601968195549
uss@@ 0.20322884009351175
ista 0.11161528307247072
aller@@ 0.9249731519107521
Studi@@ 0.22897873858549236
East 0.21205276375318954
Grande 0.6913641619292343
23@@ 0.49559205520616245
Nu@@ 0.5705976600704551
Hin@@ 0.4431993636106094
attle 0.19470620293320204
aux 0.03649959658169371
mes 0.12994993499350743
ega 0.3968540128574729
otte 0.44632116565296814
80@@ 1
eno 0.4814372609997534
omo 0.9446293746614389
Moh@@ 0.5363220434642222
í 0.14471986294225755
40@@ 1
Thom@@ 0.7062558744939103
IM@@ 0.9226113242719678
SP@@ 0.5403145516143106
Art 0.22090607007126203
teri@@ 0.3620049867676222
130 1
hata 1
Rap@@ 0.6461684596454703
How@@ 0.5386100738821195
lus@@ 0.39184952795713884
1903 0.6103374724409976
tura 0.18851252628773285
umb@@ 0.39250114821627924
0,000 0.31478791517101795
Cu@@ 0.36139016237666594
trav@@ 0.13763675219163388
alis 0.7339002849795385
nes 0.13656354719215139
denen 0.4014195232946971
Jus@@ 0.30029640856439077
Maj@@ 0.34673481140802814
Sher@@ 0.6296505368789763
jam@@ 0.44314800494912704
Ear@@ 0.14169727913566163
× 0.6409720322976825
row 0.2955876515143799
oria 0.49395115041060356
Green 0.4571245445310376
Lan@@ 0.5403800855423748
aft 0.21969681604405616
1880 0.7258045988578096
Pow@@ 0.4356744703271775
cal 0.19569025784020935
bâ@@ 0.5315496122726092
Football 0.3047528179961666
cre@@ 0.04557355421026627
ty@@ 0.3357206781179204
NE@@ 0.8782561392315587
olo 0.7196326620936807
Ohio 0.5084714695376279
edy 0.33322730676302237
och@@ 0.4044977218235552
elo 0.484446986994778
Island 0.26995048001079075
AI@@ 0.7438944789850871
dat@@ 0.5300480679450393
რ@@ 1
110 1
Heinrich 0.5627886312162582
cht 0.15085523040378726
cia 0.6078393059818594
uno 0.20229561377115446
Illinois 0.5436048222709243
Center 0.2647892246951699
inf@@ 0.15261565866921833
ical 0.051697981317053006
Ig@@ 0.4158140712709237
Rud@@ 0.6079245739788257
see 0.1647023281047706
W. 0.5305866637071053
iran 1
milit@@ 0.19936764681607813
eck 0.36477977674240436
Bau@@ 0.15984753306243554
Coğr@@ 1
Radi@@ 0.73935005249609
try 0.10900961049649355
fri@@ 0.13218461518095811
Blue 0.5257661065844296
thi 0.8617999448648976
Cab@@ 0.5200929477971434
1870 0.660661496411533
hus@@ 0.42841809792941565
F. 0.586687633687083
liv@@ 0.1483401065034337
Juni@@ 0.42218686841161224
rom 1
beg@@ 0.09242854965012819
bach 0.25163142776128944
ref 0.8971480240651973
1897 0.6438426300980801
ager 0.17813497008290333
raz@@ 0.6824410034744365
tha 0.708567977835218
1500 0.9946505683435867
tra@@ 0.10789251267937358
Lag@@ 0.5766515079804021
P. 0.5319485113757783
aer@@ 0.6132237833213294
mb@@ 0.15888304223112362
ator@@ 0.5699697639623776
enburg 0.5495558750004438
Lang@@ 0.32807222070711933
1899 0.6288392312221452
igo 0.5837093062018116
Š@@ 0.9474449585473327
endo 0.13504126857863255
11@@ 0.5547923601440794
Arg@@ 0.756820879671145
tig@@ 0.09243153831392495
Pon@@ 0.6084725130426504
Street 0.1901506786366005
ife 0.20439472015970417
iste 0.14968626021426737
agen 0.1499413679849908
enne 0.10222640006874534
ansas 0.44652293894860007
Land@@ 0.10866843426127432
ium 0.33972700563708563
uela 0.5687110722228553
ía 0.03868467331371632
VII 0.9346033548554932
Gold@@ 0.535885953306612
onal@@ 0.29714346282972753
ays 0.13031354912179582
Carol@@ 0.30005584533456486
án@@ 0.14864058412303366
matr@@ 0.719243093554833
nati@@ 0.21492268812195567
1864 0.7971988048320227
king 0.07648143262669627
atus 0.3771763539410686
California 0.18904499451726228
enberg 0.5155482932156485
11,@@ 1
ob 0.41912172723754104
pes 0.18726345315784315
John@@ 0.6222851931742776
bara 0.864882089375891
Mach@@ 0.5540758824361728
MA 0.6812846659891734
Mun@@ 0.3934994827833364
Wer@@ 0.1337975155161984
onia 0.2544932089063195
IN@@ 0.4102876630688386
Seg@@ 0.3100978660520926
û 1
1895 0.6203797694830829
Chil@@ 0.3968066396792255
ones 0.06584425033835332
AB@@ 0.8371717880880623
1885 0.6845709755852633
Serie 0.4984070200460387
aja 0.46911081083684
ations 0.02205539845081073
igu@@ 0.15302287111092283
aco 0.5716961514603827
Bad@@ 0.5874695144031828
outh 0.20088211072106385
include 0.11718703946715055
Fol@@ 0.14075239846392157
adap@@ 0.25723619719634455
ech@@ 0.10907642518280766
pa@@ 0.137419483983998
€ 1
900 1
South 0.09269099339403894
m. 0.6630203422280722
L. 0.5642069402902511
aden 0.3388597675455663
enter 0.4786233251958579
dorf 0.311166644769469
ech 0.26762459574591224
180 1
heim 0.35850515828278035
aver@@ 0.17482775885537036
1898 0.5788484597149683
eron 0.17785249341127438
1889 0.6616970950859777
mid@@ 0.22216377591281666
esh@@ 0.5375801945949726
istr@@ 0.19888580244442708
cur@@ 0.06281976420141568
Radio 0.3195136840809898
ander@@ 0.23518316165503714
pon 0.2174251083770128
aul@@ 0.5005062542939628
etz@@ 0.13526838722913884
uli 1
ré@@ 0.024868820697791325
S.@@ 0.5992810803801127
Gra@@ 0.3466038962757545
Tenn@@ 0.4270273765809896
Alexand@@ 0.47705375240175013
idge 0.27674360628248484
muz@@ 1
lock 0.2662095820489288
Barr@@ 0.5087012545750229
lib@@ 0.5657222687809002
omen 1
eth@@ 0.2314796839098836
sche 0.18424107863526823
right 0.1594958092112509
wan@@ 0.27244310688414763
MP@@ 0.7787383605575385
das 0.018416596756083932
Society 0.24134009619926014
Tanz@@ 1
ango 0.7349849544481142
imo 0.5934624581861401
sion 0.05137722643189459
Cir@@ 0.43278687297851304
Henri 0.6078016552359545
Vis@@ 0.5032879369322636
forman@@ 1
Association 0.1813515409452773
ater@@ 0.5651071423050394
lum 0.6893418416228112
cy 0.2572040511939847
Luis 0.4646498901634722
Wit@@ 0.5173575409627271
Franz 0.5733102659731847
Bill@@ 0.6562391250912972
− 0.5848436353511871
obj@@ 0.15436144702263296
å@@ 0.8233672907780353
Famil@@ 0.483538200778001
XX@@ 0.972795892120191
³ 1
ns 0.09436461923219973
Die 0.01916450806735235
Mün@@ 0.25937505506230024
alc@@ 1
tures 0.16313049638641877
aria 0.19928826994245
fen 0.24598412008327242
dre@@ 0.21361233404929317
Cath@@ 0.41282087388172595
Wes@@ 0.47950848212077124
polit@@ 0.38080690790601973
Media 0.4718980529245017
ms 0.12916122972372443
120@@ 1
Anton@@ 1
over 0.04354911291661639
aun@@ 0.3829902698768895
ental 0.07989364797959206
leg@@ 0.05862353915857867
Town 0.4129314130497545
.C. 0.40678617060020594
onto 0.2777664500569312
tia 0.5324674241758746
tern 0.07220277441632425
bus 0.31264321145130536
1860 0.6614205109873941
under@@ 0.09984851902627688
car 0.14503669119648957
eles 0.592280739935271
eff@@ 0.07777681779385316
open@@ 0.29407920528154413
ves 0.07086200066121257
Enter@@ 1
cio 0.36995035797321973
tus 0.7363106715121408
dou@@ 0.134570694207464
los 0.012409457791161227
onne 0.2154796327658816
3000 1
Augus@@ 0.6037074712722432
Chap@@ 0.4281627330560926
uba 0.5690669582956865
Beau@@ 0.476339888170664
tions 0.026622208391074043
hard 0.34168120458528173
Ing@@ 0.2957354241589353
hara 1
1894 0.6315093778976517
Gener@@ 0.2756497849463115
Sz@@ 0.5339316255205914
agn@@ 0.16629016165200305
Bow@@ 0.37294249889439074
its 0.01625758127812977
King@@ 0.23228647083301318
Brand@@ 0.5173246334722585
oka 1
sten 0.07173333865491814
Á@@ 0.25331667867385266
à 0.00655864848444449
ck@@ 0.28360102364011236
oman 0.2644604403975317
akter@@ 1
Gh@@ 0.42874401993833294
Arti@@ 0.4389415514689169
Johann 0.35835541253398745
Deb@@ 0.33689075191590806
Dou@@ 0.45830786798324435
… 0.23003246949276498
eer 0.16794887987394233
Rev@@ 0.4482730069021698
1893 0.6044936829166273
Kun@@ 0.2228136423174855
amin@@ 0.43146296402523593
eing 0.4119329617879282
dez 0.45750684698694266
Pad@@ 0.5411790189393367
ó 0.013898735027915624
Lake 0.24911743294376143
ander 0.33403870750091696
Tow@@ 0.24729921789878465
Dec@@ 0.30695724460480817
Eg@@ 0.32745013777550863
Cast@@ 0.33318814713304035
Festival 0.2165428303666206
1800 0.9118594248326911
Song 0.4773071970527167
plant@@ 0.3011740128498079
ée 0.01756150590296249
Cul@@ 0.2476400047658635
IX 0.8885830550751901
dig@@ 0.10623897369763365
.S. 1
Way@@ 0.8649334477027405
yth@@ 0.30299420510668706
1882 0.6959096386731934
allas 0.5221480869235788
xim@@ 0.11875408149875165
iss 0.3919500482277759
ლ@@ 1
1892 0.5980267201409198
tain 0.07437374828897579
from 0.008652932757145845
1881 0.6773353551767458
rez 0.42264782530986533
High 0.1621534128568037
Alg@@ 0.4885768256961597
liter@@ 0.1798597724694538
Aut@@ 0.14958691821078668
ag 0.4779606206162188
edo 0.41237967897858
alia 0.588087770558984
Best 0.25414863270299654
ated 0.013918068451920434
ա@@ 1
cap@@ 0.057340872904490955
Bou@@ 0.47379350769987605
fin 0.13895175413876018
apar@@ 0.1730991246766411
sw@@ 0.14516622150870753
,000 0.3055760168377121
Kongo 1
ij@@ 0.38357782605580804
ñ@@ 0.15615271585709212
bour@@ 0.24068527377882742
dic@@ 0.07611117931073562
side 0.05760447937619187
K. 0.6601821054407958
tico 0.1301967535685488
́ 0.12672798976495675
Vill@@ 0.3234705074990224
River 0.12221927030125174
we 0.15935060057818112
Games 0.30612216572166845
iger 0.1328530762312594
1891 0.5877633541063353
ael 0.7215577923723485
tere 0.6917094937703586
Cop@@ 0.4586797521853169
acc@@ 0.042621729362409926
101 0.9814401327678621
lob@@ 0.36337082237024115
eria 0.5931567087448262
Reich@@ 0.25922648865477615
Vor@@ 0.06700237268173842
ron@@ 0.22280091948293693
ă@@ 0.697795926733171
London 0.11133266187998403
Tou@@ 0.4962572382657495
ei@@ 0.19288979811563706
Univers@@ 0.6936144593549112
о@@ 0.01893169345588913
It@@ 0.1526753697819012
ow 0.1512389028942792
tay 1
tica 0.11820799267042739
aide 0.43465788622719775
ods 0.16904012287104975
Produc@@ 0.28564680249631325
maye 1
onz@@ 0.3594067388756655
ca@@ 0.28511514438083535
Kus@@ 1
ric@@ 0.1608124976871427
160 0.926987760787284
Tod@@ 0.36867433779701914
esa 0.18847444838478358
kana 1
isse 0.15495759419067975
tics 0.09621081050358984
140 0.9465748955572085
British 0.08870360688899821
AM 0.6001496401018493
cir@@ 0.10776240392835114
Hand@@ 0.18917037783682478
Ind@@ 0.22528394324468273
Blan@@ 0.40813508649508007
put@@ 0.12366567892629003
lobal 0.34131244088839185
isl@@ 0.18610564517646294
prim@@ 0.07175094860862333
more 0.03768178569509263
esse 0.1505554334955119
oli 0.8254994532782667
chen 0.06155930009507927
1848 0.6114580966073719
lor@@ 0.5775987750934067
nom@@ 0.1242148429037029
peri@@ 0.12043605953765618
isten 0.12703394367159193
wen@@ 0.12504632984677294
cha 0.12299122553594737
derni@@ 0.27014074707255664
America 0.16746493521728423
Gas@@ 0.4800027006022432
tadır 1
Long 0.3946781638154642
ross 0.10562737156043886
ww@@ 1
Ran@@ 0.41522761319029444
eda 0.5961867722026736
ology 0.0794013025836617
oldu@@ 1
ury 0.18751547786874503
II. 0.34317899018301046
til 0.3079935058826646
1867 0.6511227066534776
1888 0.5730935129911867
bos@@ 0.4835033742215021
eng 0.4664920439862877
1884 0.6109903904660116
ally 0.020280238255405408
Manuel 0.46902806096447186
This 0.04136460847413289
dec@@ 0.034337603573595485
eau 0.1026070301737906
ree 0.11998343415080413
Las 0.14001894053721994
non 0.08933707212726495
site 0.09412070278874217
ehr 0.2177687686554696
{ 0.5061516038367699
ex 0.2830443576090252
ás 0.2388411043493929
alle@@ 0.4842122400351019
ère 0.038145881371504646
gres@@ 0.202727869390893
itt 0.6571976845300439
oo 0.5354058009966924
w.@@ 1
Sau@@ 0.3519204502561849
RE@@ 0.5858425163618707
ნ@@ 1
Coun@@ 0.2553860838028352
rün@@ 1
tras@@ 0.34499334260531944
1865 0.6214983391801117
Rou@@ 0.17330644063150571
CA 0.46241229561821573
ld 0.3129364248643956
´ 1
moder@@ 0.17821996261858222
ball 0.10795592905450184
Squ@@ 0.2755646687297461
ord 0.34405018082839517
Ober@@ 0.11887185469086213
ace@@ 0.3656280487216739
geb@@ 0.054815723610157324
Pedro 0.43194688267209036
house 0.1138359098967325
pun@@ 0.198007476790462
aster@@ 0.3542180136465766
ign 0.08416346597121059
seg@@ 0.24227475875640986
ór@@ 0.1966634215105732
1887 0.5791958324447546
Kis@@ 1
1871 0.5666334795734794
ako 1
VI@@ 0.7874187306496795
augh@@ 0.09090710248325003
ppe 0.42894172890932586
vor 0.06253143204786417
bes 0.18442371672911312
First 0.18333938023527083
ights 0.12562663964527793
Lab@@ 0.23157648479761764
Les 0.04089734436455613
con 0.014861310069656453
ado@@ 0.46410762082901424
1850 0.6156883665316011
elop@@ 0.3119959549277831
prof@@ 0.11818360236141207
uti@@ 0.0854209130881428
gh@@ 0.23798584879217252
ias 0.33639313698151957
To 0.23125869517681627
š 1
back 0.0746528848977718
urn@@ 0.2658324852360069
thr@@ 0.13206017009906057
div@@ 0.20685644039627338
arti@@ 0.0828216730428011
dos 0.0678718564725885
1883 0.6072328103884963
egr@@ 0.29601457536776155
ém@@ 0.1392286490849962
aron 0.06787596202274464
ilit@@ 0.3227916158036415
annel 0.24811052430335695
nov@@ 0.11625592767622238
ports 0.08895641631019577
State 0.07861684871586336
integr@@ 0.24238161981955356
Penn@@ 0.2731163683551354
US 0.07293203672647618
ī@@ 0.7707708957129722
350 0.8992643939070413
Arts 0.22250868736906737
Do 0.6494761722515767
lé@@ 0.22298633865589323
Arch@@ 0.21572894247308108
Great 0.22233030828544761
vic@@ 0.06396095672280365
ems 0.0869750309838659
osp@@ 0.31868602421476744
yst@@ 0.275995814830024
Techn@@ 0.20834531902195874
1863 0.5907568523259457
ín 0.1956679741595369
ო@@ 1
cho 0.060179891085642444
Alem@@ 0.525462399049458
Migu@@ 0.5232081797106894
anger 0.2801305942811823
inn 0.27569248046593464
prob@@ 0.11459138863453673
35@@ 0.8149546790184111
Ji@@ 0.7004174580603462
Soci@@ 0.1501225207556469
eck@@ 0.21465516438082985
£ 0.35938861531588917
ouv@@ 0.0699672466764727
ár@@ 0.23698750894697843
atri@@ 0.33504882039737477
ean 0.1584290141206619
unter 0.04642618090089331
mus 0.42960648816469316
10,@@ 0.8271697090494077
ness 0.14062867062005285
zen@@ 0.44490840078253335
bec 0.3106335162250391
ores 0.06492194994600924
Hein@@ 0.6100494448482731
ū 0.8556245278174729
1875 0.594532394695835
ogo 0.9928307339165335
ents 0.020606289744283093
illo 0.23598958294083677
lines 0.20001922266146988
An 0.12501167790191578
wi@@ 0.07470969155028061
1873 0.592507171610381
ers@@ 0.35943967469432986
wn 0.08089015918263706
sho@@ 0.0393227046931622
1830 0.6987493835189654
Division 0.12050466731876698
prom@@ 0.06758599994201067
Cou@@ 0.28477939468397917
maf@@ 1
ê@@ 0.07174259555068342
ë 1
AG 0.44962898550015157
loc@@ 0.04562052735249882
aud 0.3622252114053098
band@@ 0.2985068881767725
pha 0.5971397927704148
ful 0.07710120365206402
light 0.11672893970934117
esta 0.07889141942633082
Form@@ 0.29820957395142017
aqu@@ 0.15514440109364333
dice 0.3172488972938133
Esp@@ 0.19488650221090767
acy 0.15686128358956491
wo 0.08755748994043211
track 0.1546616419508231
ills 0.19513593371294036
ave@@ 0.4310581140418447
inay@@ 1
1868 0.5775429407318505
prin@@ 0.13085555766578927
tun@@ 0.2654239268499436
Para 0.37025367102265333
act@@ 0.1943934854051127
Olympi@@ 0.26756846065344037
Alex@@ 0.7854900635543377
Geb@@ 0.24720083375643728
Riv@@ 0.8348564103670698
124@@ 0.9073107209685553
cons@@ 0.0434138541111217
hin 0.2608793056607905
1861 0.5350893807757922
1879 0.5511973447235375
sum@@ 0.10612373971633164
nen 0.10413445565881053
ines 0.06209172320994496
ely 0.04632512359176942
nch@@ 0.28659378975910826
ague 0.11809393742433741
icia 0.3885981841370011
1872 0.5750041667963932
zig 0.344597565477007
rich@@ 0.08646075680224151
ui 0.4439909381336445
} 0.5131837285725204
alit@@ 0.2245153800480566
gs 0.10607566919212039
ien 0.0497227314659561
Journ@@ 0.2452091929980767
12,@@ 0.7953195108192728
other 0.01981507428140707
now 0.06987691802549233
enci@@ 0.13031202139859352
very 0.04936571960735874
sm@@ 0.20843895373716537
1874 0.5615607279736309
pes@@ 0.42363328551156193
dri@@ 0.1207601748599367
jo@@ 0.11009929712413997
Santiago 0.47469383537501586
fran@@ 0.1789673842636773
ishi 0.9374267485486983
ambi@@ 0.3454591509408926
arch@@ 0.08847006332282258
für 0.015390681987174661
ades 0.09432788202042179
alla 0.2336842976265426
par 0.012778171197575204
ture 0.04075722994868453
had 0.013730676216396082
ique 0.07203480803345767
tern@@ 0.2519194259309364
33@@ 0.9478781391613487
UK 0.17619806968426807
esen 0.14775729272051186
Pier@@ 0.7335884762323095
Road 0.15809790088208858
ats 0.04975782654889955
ule 0.1206309805854409
c. 0.4488986484006593
assi@@ 0.23924253903540027
Thi@@ 0.3692694167144439
trat 0.1850656186183542
Volks@@ 0.2619605466952341
wo@@ 0.12849998651043537
red 0.02617181833966107
agre@@ 0.14898091372583572
War 0.06960726737414959
rod@@ 0.8226226060889444
ê 0.37400372382385366
1866 0.4496921804572468
ande 0.16953361994305471
spir@@ 0.20128661773791728
bri@@ 0.09792474006408992
tive 0.08409281451535587
Union 0.1042368311094303
è@@ 0.03947599576533498
ends 0.11583450037036194
hay 0.2298813668656663
Copa 0.3843098574196966
fu 1
usi 1
Wa@@ 0.5020692053623489
Math@@ 0.35616536112610214
prov@@ 0.11571546916588948
that 0.005773114800166705
ვ@@ 1
ion@@ 0.24367469403742428
Nis@@ 1
Willi@@ 0.5770735858191748
liz@@ 0.42753277062276496
inda 1
Dani@@ 0.8963126770849951
oro 0.34092988627418386
occ@@ 0.11979647086735949
sch 0.11141834597662924
‭ 1
ember 0.47805479804206424
ces 0.03876281198436406
Hau@@ 0.36579918929300564
Schwar@@ 0.37535623398450235
1869 0.5611546324071244
ierra 0.3907739941542019
otr@@ 0.7412760326813362
ს@@ 1
bli@@ 0.22634253194889886
ē@@ 1
asp@@ 0.2008820156749272
isto 0.9148362467037849
ș@@ 0.723365681395928
α 0.10916634780939813
alog@@ 0.2141358090394484
æ@@ 0.7214673737968185
Č@@ 0.8409391507551571
fac@@ 0.03527492796288026
ards 0.07332738805010847
cada 0.2169104583287176
aine 0.08055431381337251
erc@@ 0.29949919361239
fün@@ 0.6167760583119005
tiva 0.483745682292616
eur@@ 0.20355626223028708
Wag@@ 0.5126906383580249
modi@@ 0.21330074711831803
feld 0.2374656064825443
pon@@ 0.09553698248237007
ump@@ 0.16700519513497536
nia 0.41166363606971096
sup@@ 0.05188424358388192
eum 0.2101516205005157
Kenya 0.9106171473904472
gri@@ 0.24346522721528646
är@@ 0.055285989792136156
Internet 0.38175262972071927
ains 0.060617937277796144
ids 0.15723127101104264
muz 1
crip@@ 0.11514787743445619
Ny@@ 0.7538909346388479
`@@ 1
э@@ 0.022745459487799203
encia 0.04368586183898795
oko 1
sing@@ 0.09234904197986239
At 0.06619465679815498
azine 0.14465809377967184
press 0.20691891360380665
dom 0.1437621579272443
ń@@ 0.6534022575423426
eds 0.15340405329224283
ume 0.1273138678921375
iness 0.09850410403996854
Person@@ 0.15751677127746
GC 1
Scot@@ 0.1274316131423251
‬ 1
qui@@ 0.05147829674948997
lab@@ 0.10849201542045253
Best@@ 0.3226755960657747
Sport@@ 0.2754913070642411
zer 0.334365748261997
lag@@ 0.1791337762515114
Rel@@ 0.1391791068944827
face 0.07891676148483234
tario 0.25939056852810455
tho@@ 0.0949971481594042
wer 0.10969218004529786
\ 0.6901454813259278
neo 0.24784236284793573
მ@@ 1
Bez@@ 0.1357166285727711
For 0.08464076310027469
Stein@@ 0.3017123173609361
ache 0.13742429990573685
tival 0.28091351534388187
Museum 0.14471159884159698
1862 0.47241119799125403
eran 0.10947026648334468
she 0.02603458321385455
Central 0.12706904896649335
vent@@ 0.11030436429673525
cole 0.20995036446996526
sons 0.1673195037275555
limit@@ 0.12829341997217197
Dans 0.12868013765422334
May 0.05206913000431376
tos 0.07926024565795792
wil@@ 0.2170975186033405
trong 0.029703043028857273
Deutsch@@ 0.22461351493450457
rie 0.3408482327956672
ы@@ 0.041573136657170565
alli@@ 0.1636868941263533
ution 0.0697909261198997
ual 0.04955697615772853
aut 0.08919013890239955
ship 0.03955962255030644
ward 0.10993957717649917
azz 0.23941832434667543
others 0.09674776281818047
თ@@ 1
eu@@ 0.27574642051295567
lier 0.10551279396205528
stadt 0.1390349294256817
atre 0.15971259249962752
ways 0.11328158035980586
Open 0.2098100341010545
Comp@@ 0.32462180199515794
Bib@@ 0.26863425902097393
Jack@@ 0.5921339498123765
Rein@@ 0.2267304013117811
zur 0.03672680162077009
els@@ 0.12660729774293317
mab@@ 1
habit@@ 0.1464254982757838
ape 0.22596993115943448
pas 0.0482117977589806
Lon@@ 0.6694121111783402
alo 0.3819703623162726
ted 0.014157125443255975
bourg 0.2722121462313808
igh 0.4548417435073722
Il 0.02052908829721885
А@@ 0.023073668746974047
any 0.06394040769538467
antes 0.05272725378260342
Der 0.023103374258397643
bre 0.10655553746318207
afir@@ 0.5846031657895517
bus@@ 0.055336177334171587
eros 0.1695154231140506
′ 1
Texas 0.1545066325503147
wat@@ 0.13438753407111492
~ 0.8917168656331914
Institute 0.1418223292999892
System 0.25487151389523266
vec@@ 0.34922132787493976
syl@@ 0.19207863982124163
ʿ@@ 1
WW@@ 0.8638283280169586
Stre@@ 0.2393011348509221
én 0.28273463437253027
Luf@@ 0.25640361884142604
Ng@@ 0.22689085802408726
Academy 0.1508220368362848
enes 0.1590187523056641
е@@ 0.024370752080786644
our@@ 0.09451788104966162
XV@@ 0.5224742316260715
cop@@ 0.09734638214658135
ر@@ 0.11831145080021371
lands 0.07786621390439152
CC@@ 0.4536673712590152
andi@@ 0.39470219799711403
act 0.050107094257294135
riff@@ 0.21764875319066984
vier 0.09862912552119363
Beg@@ 0.11374158470616968
Mexico 0.2089593481228457
formes 0.40562269432600057
ingo 0.4635647370966283
Jes@@ 0.19638459113759069
via 0.11510151992528947
ous@@ 0.24510418946050247
sta@@ 0.17298485421778778
Da 0.23201623256454185
rece@@ 0.16015709934323752
én@@ 0.04128686936386612
Chem@@ 0.2908991149888641
emper@@ 0.2769766105607358
main 0.059374194849233154
fo 0.42123064141237776
uka 1
aug@@ 0.21885909706749662
fahr@@ 0.14245873936249315
ells 0.15866842020622707
tot@@ 0.1871133807016463
Id@@ 0.37013911906178293
sec@@ 0.025374655143012147
mul@@ 0.166566760120911
uel@@ 0.35370202470326806
eb 0.21960018865208072
kati 1
umia 1
ühr@@ 0.21693268537499374
BK 1
view 0.07716418536847693
ა 1
enos 1
r. 0.1563922323979238
bs 0.09713829002386153
él@@ 0.04197290332283529
ople 0.19629748053690554
ál@@ 0.319469089828376
Roy@@ 0.2942304049034959
ection 0.039654624453085444
enta 0.13528765501693715
mad 0.29772610736612265
უ@@ 1
ð@@ 0.8899368217862231
ú 0.16135234315141023
nis 0.10389834828788504
High@@ 0.16900192593624522
Liste 0.17164234108598891
lot 0.11437866262055434
Ž@@ 0.9351788092307483
atis@@ 0.13543608160712906
ifa 1
י@@ 1
August 0.03512322925228314
Women 0.15333916526806476
Awards 0.1448204035457321
difer@@ 0.3453128488074053
hist@@ 0.2737999339610626
iles 0.19410610852359308
Alli@@ 0.24366460678463855
Micro@@ 0.8065200324054393
pedi@@ 0.30671545698700287
Syn@@ 0.2087376249621387
won 0.04459329427306953
Fahr@@ 0.16036846186349918
Cant@@ 0.4782364242831595
über@@ 0.046474837870664816
alls 0.09665258696214069
less 0.08412829134757653
ï@@ 0.07438556335439185
Ped@@ 0.93277959568905
^ 1
ayo 0.3718341171394084
lon@@ 0.32804012659845955
mark 0.17266704353307122
under 0.02856369398200753
post 0.13677079093762287
Carr@@ 0.34555734832169455
Italia 0.39810313689060184
lers 0.12840342397126794
Direc@@ 0.12926412470365053
bau@@ 0.10115815779180864
char@@ 0.053164747658117004
dist@@ 0.047727409965720086
ily 0.09056295510976722
vania 0.20918433277321205
town 0.054450584938810755
Commun@@ 0.11365456802584246
у@@ 0.010869429672855627
even 0.07611919123574505
ña 0.18486579798369138
Nord@@ 0.12215202240188716
iliz 1
och 0.3286345650207372
uni@@ 0.04936161942765622
ī 0.8283581088033216
Jul@@ 0.6139193531682712
nos 0.22784904570982523
sia 0.13116897220045023
ode 0.08283051823326619
ough@@ 0.07658488362382576
dh@@ 0.17867278063286443
ground 0.07364200566192172
Sur 0.21549921050093654
but@@ 0.09821774516600801
wh@@ 0.03514248306418085
amar@@ 0.39699755386772784
än@@ 0.04016478945498333
So 0.15588676060305645
aland 0.16107654956757944
uer@@ 0.092197887814365
grav@@ 0.2272389445028339
hie 0.15802257831178423
tn@@ 0.26357743374534154
uro 0.35672830403338224
eu 0.11240480596163689
As 0.04160972940080851
down 0.06562025826834994
Shu@@ 0.770625354412985
direc@@ 0.03351866838500664
partamento 0.3298007761150908
stre@@ 0.07366702087544796
etes 0.30853760459729784
és 0.015523908546285912
Band 0.14952966966898787
Nig@@ 0.6332340172506763
ality 0.07317908186889889
Stadi@@ 0.2024077083549077
̣ 1
ature 0.0437254835441046
Kid@@ 1
ants 0.02900244984633631
head 0.07989806954523011
201@@ 0.6319533888494301
ennes 0.13614414266442762
ism 0.0591521745281784
tice 0.08076099659232261
ος 0.08145356031459466
vill@@ 0.1879546152636512
ative 0.026847934918380844
auer 0.1464850998981459
р 0.015872109844584467
Sup@@ 0.3339788677635266
ops 0.10062285494195866
Kib@@ 1
dition 0.050883484799040965
isha 0.6279813322383393
into 0.018965918481369224
Ğ@@ 1
aut@@ 0.06948208411177954
cat@@ 0.06455907236691735
ène 0.10780972975573552
cle 0.15213977055851668
its@@ 0.19113350494485426
ège 0.13642561074580428
ilo 0.5229900641380503
com 0.5800870921881899
seud@@ 0.3419836518869452
kn@@ 0.16128996360131562
inst@@ 0.06582547749955349
dé@@ 0.010255216597328663
hut@@ 1
style 0.08208781745314328
iter@@ 0.2424587334541913
Christi@@ 0.2796792622048418
chin@@ 0.18753930713870606
ect@@ 0.08018867383463034
р@@ 0.021658049400301325
Leb@@ 0.2582952496690182
ados 0.023755399462172398
pur@@ 0.0515005577311385
→ 0.8271245505968764
Yes@@ 1
frag@@ 0.20764688729735062
ited 0.04700204313345937
Prin@@ 0.2016860743811593
ხ@@ 1
ბ@@ 1
aro@@ 0.4467591569232959
win@@ 0.07085134320218978
ו@@ 1
esh 0.19657762772135723
rup@@ 0.10830586464134025
ling@@ 0.25529588969214845
ilia 0.5320141620221044
nete 0.20727278724155507
Champi@@ 0.09158144637109869
ares 0.07377333505748424
ˈ@@ 1
eg 0.10707860092509032
ischer 0.04589064899345609
gang 0.12460346939763013
mix@@ 0.13710154284644796
ots 0.0917986994828771
Force 0.1498886698573393
DR 0.24231205059097966
band 0.03831622868659456
н 0.013216213013922886
Fried@@ 0.2056499510100577
eine 0.010073820304535859
დ@@ 1
agua 0.18287824322805216
kip@@ 1
rio 0.33656233583871914
bul 1
ekt 0.19295992353113028
rif@@ 0.10025410560574734
vers@@ 0.05118890826990529
Von 0.08259652746374846
dle 0.10750479542806969
ā 0.6944467779770616
ès 0.06310248879753573
ä 0.8446078415667706
Western 0.11791133559013224
Å@@ 1
rid 0.4757355186658155
coun@@ 0.031918338548532404
ques 0.019132292953817125
„ 0.013907901267709282
voy@@ 0.13753114142711378
Ayn@@ 1
María 0.20249843738683862
uld 0.10265154481101268
anes 0.29088057257622696
Kais@@ 0.19406145610972061
ř@@ 0.4102323949824647
atu 0.9417125637576693
hib@@ 0.17167713867621343
Acc@@ 0.38064392790848156
uza 1
put 0.1071668887481429
Mé@@ 0.2065978894940546
auf 0.008794829939735259
Syst@@ 0.217151714088162
ose 0.16263860828611135
them 0.03347325010279769
board 0.1213586102422976
uo 0.44143277794968805
CN 0.5442336637304457
gel 0.23576408589742828
eca 0.28812596778772254
на 0.0034025088590044026
fte 0.16779373003072476
get 0.07647719718843321
adil@@ 0.9466381473594505
õ@@ 0.7488377313562757
maj@@ 0.09906918761282561
· 0.0413225021122432
isch 0.04784217368884972
chen@@ 0.12842121954764318
ures 0.05531351561393793
acht 0.06302252643798564
England 0.06770593014529994
afr@@ 0.362652070948141
alem@@ 0.25709944335640217
cos 0.13229074936922075
European 0.07613466721062473
Nacional 0.13369939442582088
abor@@ 0.05098361579580155
ě@@ 0.581044099331036
hen 0.2338738409093286
was 0.0016291498642223387
ه 0.08715053755122747
Amer@@ 0.1653383285677558
Tour@@ 0.129369977803702
XVI 0.41198769647397354
tors 0.0691251855413033
uj@@ 0.6978180535466351
cip@@ 0.10847752486288324
vy@@ 1
č 1
Land 0.13242523411729093
Orig@@ 0.14247007142705442
Publi@@ 0.14780638439385715
syn@@ 0.09793078350110293
х@@ 0.023813419395881396
aben 0.11245242505348822
rique 0.1879249113283286
cli@@ 0.08946366096086025
cus@@ 0.09443220464925602
xi@@ 0.28921103316095426
à@@ 1
ands 0.05952858675836536
fur@@ 0.054117064217866176
Ç 1
Japan 0.09367955196536532
aves 0.08097760696385353
back@@ 0.11469075179050364
earch 0.05828332983692127
sera 0.20981974659758826
sian 0.05970533468394772
tham 0.2638385399010142
fun@@ 0.05690340553477225
ös@@ 0.17250206835834997
opp@@ 0.11056406554766161
out@@ 0.043070644080451
Uganda 0.7709491288572433
Nati@@ 0.16184433634179823
ois 0.17605471452555144
tru@@ 0.1037352093583017
radi@@ 0.13843903309597014
phi 0.8042611014150403
star@@ 0.04811243882981651
Party 0.0749105904316696
enh@@ 0.11305021719902382
а 0.018347223351130988
Soh@@ 0.8963397871941687
vice 0.07763756473352142
Inn@@ 0.1633822749584154
ering 0.06343184284947304
ui@@ 0.43989500578635454
oso 0.13630878009893663
ites 0.07887352407414021
ahl 0.13299105745939735
fast 0.13424046059205222
Ō@@ 0.7998986479807154
β 0.6131269021011378
rich 0.22908166257581722
tivo 0.14295933070682534
angel@@ 0.1448994187381693
cast 0.08421761907967465
pri@@ 0.05125025134354151
ying 0.04445288345253455
Was@@ 0.49241430560973576
lake 0.27948506793675576
usi@@ 0.09367484343814932
rea 0.1167284724007896
Si 0.20702987004323253
ames 0.24251181296253552
fic 0.06976142018651159
isch@@ 0.047220400971784156
ols 0.05536727166710008
thern 0.03907841292589749
idad 0.02600053647597475
laya 1
й 0.009923010843986817
vari@@ 0.038819676572277355
س@@ 0.0767189967339835
С@@ 0.01310305882627136
Austr@@ 0.09704933836910763
tory 0.08193357465593168
zus@@ 0.07377797216868721
USA 0.11949957249089387
ische 0.016807904376014798
л@@ 0.012322942177232305
District 0.05692213435971091
inga 0.6733245635007262
opsis 0.265449689990392
კ@@ 1
gro@@ 0.03478322442820844
Natur@@ 0.11889466013451752
fav@@ 0.1499274418210878
sou@@ 0.03144820909619462
cep@@ 0.0839322299461725
She 0.023974033620592177
away 0.09020906671476635
ć@@ 0.9188430307281628
ican 0.08056417848161852
trat@@ 0.18864443093749395
ute 0.06307591365910778
Empire 0.12436605887791104
asse 0.08661970162910775
pio 0.25268258392495013
ío 0.13989950879204632
Er 0.029894952324145983
alth 0.06076069772696845
ums 0.05046949789318475
Europe 0.06234441182893226
Revol@@ 0.13452938060187747
essen 0.17925172554869584
rail@@ 0.08853008079409307
ə 1
к@@ 0.014688425860889483
show 0.051889650403195715
gli@@ 0.20527165768098635
manif@@ 0.19523683571167208
sei 0.14206250277129637
erre 0.12533696135700867
irk 0.19344632753277474
kw@@ 0.2751052436472071
sive 0.04055215338954864
fort 0.07557831479979649
führ@@ 0.055599661551096795
і@@ 0.8458372769817687
rí@@ 0.2695458727947877
tier 0.14349879861267043
Award 0.07525788558583717
With 0.08370115720086282
alen 0.1169133989229868
tas 0.1628421144372773
tical 0.04631066651565868
tag@@ 0.15462159214614843
és@@ 0.2318844306191529
ono 0.47475709495612367
ural 0.08216015066418386
History 0.046073385263141094
Seine 0.11996855744113115
When 0.059131085052658884
XX 0.2104546051033638
ś@@ 0.5325144867624404
bers 0.09208331745037908
rech@@ 0.05325010161551636
ă 1
tín 0.2663873472422818
vor@@ 0.02615174875511348
éri@@ 0.032141376171092924
Hosp@@ 0.15023651311641464
lies 0.08292508224223603
Tang@@ 0.7333646352019655
idas 0.12470322220032751
isme 0.09726487636206035
ences 0.03233509052180921
wes@@ 0.06103533817823337
English 0.052966334878102525
oir 0.11863386268357659
wa@@ 0.18546764482975142
Schw@@ 0.10848296697965272
roy@@ 0.20347869926176415
Centr@@ 0.20931710464180572
spr@@ 0.0422883376887798
è 0.5498494013407781
ė 1
chil@@ 0.07829688491591412
country 0.058415975284734724
Neu@@ 0.12623033512055112
Premi@@ 0.11806120802187399
soci@@ 0.034255820250998145
unge 0.2994262874133456
wards 0.0679733423434855
й@@ 0.010765024951110319
dipl@@ 0.3720710951833438
mont@@ 0.1825093191321405
Am 0.044233624729255634
Đ@@ 0.05575542223176304
atos 0.13748531961417576
duc@@ 0.07449053655370512
domin@@ 0.06936806471885953
sana 1
ving 0.06772972322010133
aud@@ 0.18133629365338538
active 0.08752802936777081
haus@@ 0.12673795780560404
than 0.022051173197637577
lag 0.07487208004396535
О@@ 0.015138075425393747
depend@@ 0.09098860650415168
ior 0.04791617491816774
get@@ 0.09809262365308088
bia 0.24927969737384598
born 0.021341609986954998
deren 0.10385649874377637
Spiel@@ 0.0948252359181799
dren 0.3416115592267244
Sa 0.1632888138829752
Ent@@ 0.09232706689934664
programa 0.23820450715415048
He 0.006199366541257163
cer 0.13707824105079633
ستان 1
Amér@@ 0.20194152144810446
elles 0.040993892628210515
Buch@@ 0.1440068159872532
haus 0.15350083105796952
tempor@@ 0.10846517242886157
umin@@ 0.15702979754218735
auf@@ 0.013335680160706232
court 0.0763655990283718
გ@@ 1
China 0.06256663222249503
icro@@ 0.17629907961754124
apo 0.6109482007310255
Ł@@ 0.49681461892304934
Ré@@ 0.06759899365157501
bei 0.012798811161152723
ilio 0.34183124930985176
Ba 0.4665149091160107
life 0.02693841835905755
м@@ 0.010088849060637985
ás@@ 0.12495761910112962
к 0.007416158927108056
erie 0.12085695456432236
progr@@ 0.04430918470858418
г@@ 0.012842470349452118
ingi 1
Mann@@ 0.16496658875561554
Wak@@ 0.5556775186517677
tie 0.14080879691567472
rac@@ 0.05299092388868532
From 0.06311848635914842
ه@@ 0.06029869299039501
ustri@@ 0.1589191245650413
enton@@ 1
vern@@ 0.21344772360821052
xe 0.11837693095393324
water 0.04602899011179964
hon@@ 0.046664797411630494
rus@@ 0.16441432240035064
naf@@ 1
Ou@@ 0.1623017844813999
Sach@@ 0.17904423460794938
tion@@ 0.034269006184937806
Canada 0.05518657143509971
ext 0.49322149681751326
dete 0.06229459024201546
Universit@@ 0.12833314287161515
ating 0.01895710989050458
ր@@ 1
Un 0.06286949819824299
ę@@ 0.37760130107579354
iker 0.14687453994915525
ories 0.06185582111388483
ò 0.28806540507196504
ox@@ 0.0894667853325099
orial 0.06986890546772426
Sain@@ 0.1508731907130061
fle@@ 0.07326641313538322
zum 0.014050955388684169
einer 0.013540131283374625
ongo 0.25245185734457726
vie 0.09069055101034035
К@@ 0.016321022594453637
вич 0.06520978458167544
--@@ 1
round 0.05524939249411284
ulia 1
After 0.023086538868991854
icul@@ 0.07019711319842595
aise 0.110552324269007
change 0.05581191273118114
rain 0.12319683961486955
public 0.025663066970746738
enten 0.07518124800402019
Rep@@ 0.4935945487664788
deg@@ 0.08604362716246475
itali@@ 0.07656672921735805
شه@@ 1
dra@@ 0.058409689049685964
т 0.008248202396087943
bis 0.011166399448921359
doc@@ 0.06380233711634042
éli@@ 0.10046271337074318
last 0.04499764993111006
ո@@ 1
ages 0.01949736534661667
dad 0.12492748119551449
nier 0.15148605862719555
َ@@ 0.25666850771477606
Fam@@ 0.3937571406883181
ís 0.18844243308371117
azu 0.12700558181396687
inv@@ 0.027832591505293797
ches 0.025927351203678572
μ@@ 0.05366159746492943
imin@@ 0.12711787211657513
ს 1
ety 0.049694854998777904
inas 0.12787686201071452
lec@@ 0.1252527997217375
anza 0.14112206149355197
body 0.07076072607586
endel@@ 0.7450365081802595
э 0.20469402944176057
enth@@ 0.09161900250892019
enz 0.10867852760165338
Olymp@@ 0.07378210182082262
aume 0.12499297410575129
self 0.029692652573647164
sing 0.07223564565996742
chan@@ 0.04654870242610325
с@@ 0.0055222058417410255
Eisen@@ 0.16257101731865384
dium 0.2244171049095852
ense@@ 0.08983712379020531
pen 0.10085183595110261
erh@@ 0.07440680941739251
cit@@ 0.09071650609759926
kata 0.8150157176646109
Zu@@ 0.09543650352277364
nec@@ 0.10456291786691987
ball@@ 0.07637603119176105
dej@@ 0.16165816294630272
qua 0.1376481512820518
spi@@ 0.02749597908892778
law 0.050417951056415646
ш@@ 0.011303044598825085
sions 0.04224522100194457
ț@@ 0.6434915517475411
199@@ 0.11488382198279104
enst@@ 0.10813642439087774
ologi@@ 0.0722092649786522
ils 0.030734236575680716
asc@@ 0.11549273108520963
Haus@@ 0.135628462854188
cy@@ 0.07916037121011645
phy@@ 0.1138781666532734
ь@@ 0.014486167839788153
bao 0.16117976807669868
eas 0.05250405193340906
conom@@ 0.11866081866070237
tag 0.1472440616322305
Chin@@ 0.06808898955085096
eur 0.022630530092056733
odes 0.10665843669444464
rant 0.1231540119187938
н@@ 0.009143505037961797
Ges@@ 0.039503890059623174
Bür@@ 0.31417871915570444
Das 0.016708288925168877
pic@@ 0.07370285896895962
wn@@ 0.0753987277147229
ان 0.06864453916550138
firm@@ 0.07723249843721162
real 0.08377007610476725
Sin 0.11720106481774585
Wan@@ 0.6951914665371489
cine 0.1162878615045276
iku@@ 1
reci@@ 0.05529482772359856
lau@@ 0.1475701280266538
ofu 1
Tex@@ 0.13335057444052553
Bras@@ 0.3329067349258137
nde@@ 1
color 0.10171943201762715
tera 0.13014821514845737
craft 0.0712535692714364
د@@ 0.06414788157451051
ustos 1
lug@@ 0.15302687180390115
ʻ@@ 0.850639437203205
aji 0.4617525285103958
ingu@@ 0.07710708662326943
äl@@ 0.03528951074548131
א@@ 1
ش 0.21908696125640664
Centre 0.10172174879858249
Liter@@ 0.11754652685339374
orio 0.09709038918969393
text 0.09656547577283592
Franç@@ 0.26653628305860233
abu 0.7873597947001051
death 0.041001500159452774
Ost@@ 0.12499765990810868
bio 0.13274832941541762
onde 0.08607392622162696
ش@@ 0.05386428704628077
agement 0.052438199325162506
añ@@ 0.07070848363776724
kid@@ 0.37424749054160494
Т@@ 0.019256989569507735
isco 0.8531689296974713
sych@@ 0.08040177119327561
wid@@ 0.055687659014661176
ר@@ 1
cho@@ 0.044874145000574024
cou@@ 0.039842513024865585
ité 0.013774242051230151
ambo 0.8410948156523796
Europa 0.10020360109326669
uss 0.07786954496004012
works 0.044636568428252664
utz 0.1443231851000835
± 0.932620276656936
multi@@ 0.06635455752663638
left 0.03430002282150378
prise 0.07418490091550879
Rail@@ 0.07090819146796866
States 0.021048802305658462
mis 0.0942674679922963
ß 0.047950562443490274
т@@ 0.0068646282748125505
world 0.03695204597902176
ý 0.14950475482524708
ტ@@ 1
Î@@ 0.3910805911079298
Dé@@ 0.07748883073847214
ause 0.10022685439346105
unga 0.7224859328213639
raine 0.12345323413087954
unds 0.06052075845316092
ires 0.03816557947621267
rier 0.11657972463547504
ules 0.07416323309857012
ب@@ 0.02914770693844109
anci@@ 0.04192433519873232
imp@@ 0.04847484656918845
tend@@ 0.09772279093868366
wak@@ 0.17600788975430673
There 0.029424493546094676
flu@@ 0.07929765906548662
role 0.04649961293294827
Emp@@ 0.20051510570723402
but 0.007238596058798356
eon@@ 0.6547141587155297
toria 0.14730754628845577
zel@@ 0.15374850003228677
ла@@ 0.01431921623935532
anst@@ 0.13304178649200438
arios 0.07406914474866676
viv@@ 0.05444066569465059
Council 0.051330221061512867
defin@@ 0.0544422828178692
ق@@ 0.05137086762122373
ν 0.11033893450066165
Church 0.04981513275861915
kik@@ 1
ool 0.7340705486059546
España 0.0899213331613477
plic@@ 0.037985764485757446
retr@@ 0.1356407793208392
ե@@ 1
Gran 0.19757273512808668
Ago@@ 1
ą@@ 0.46353321125642494
Eis@@ 0.220976322307164
live 0.06122970667844851
onder@@ 0.1716141694448456
ords 0.04808023797424604
И@@ 0.014283106810412078
з@@ 0.009380204409841936
engo 0.8821816362538792
má@@ 0.07935418389515261
в 0.0011874522201107927
ро@@ 0.006368545100687338
ographi@@ 0.09987481820512638
ties 0.013646185178630943
Kik@@ 1
format 0.13578441329158134
α@@ 0.06665491180987401
ქ@@ 1
azo 0.23599439583421777
л 0.00519482321950468
asili 1
Nord 0.0903999052865754
wing 0.03813685373937509
agne 0.03826284128025639
chu@@ 0.30210526287925227
phil@@ 0.2210039641102916
war 0.005481223685827983
д@@ 0.006873292555421741
ful@@ 0.06307923431709708
ő@@ 0.9856435564937701
aup@@ 0.24765673527268375
quit@@ 0.05797041432741321
đ@@ 0.023749682808565663
ext@@ 0.046062121064873784
ég@@ 0.033174606143762865
₺ 1
éc@@ 0.05675682856337232
Д@@ 0.014031973026713152
new 0.012957979131052707
● 1
aum 0.06259725575005595
в@@ 0.005338798558558014
ն 1
vie@@ 0.031172886528329797
eben 0.01999072578355175
ird 0.20080600484864936
Herr@@ 0.08469876917374013
Theo 0.3016825654407249
drei 0.040400397432799454
ác@@ 0.08296358665745822
omin@@ 0.2682600325952525
pro 0.11623434770830483
station 0.024277274210299727
б@@ 0.009906380255945257
quel@@ 0.18687734999766448
Pf@@ 0.057117864296203455
forme 0.05412451121273115
mari@@ 0.09099363808361172
tí@@ 0.11924981573532552
sie 0.009610086575052416
obr@@ 0.501140567893386
entes 0.02243989038983935
qui 0.006438461778081971
mig@@ 0.05194404300099097
XVIII 0.22829673899382258
ble@@ 0.09070431370749225
и 0.001473016206995914
que@@ 0.08160343535403783
Fren@@ 1
е 0.0040461539795782235
cab@@ 0.043650185060140685
ference 0.05384045611472742
wie 0.02179807616223889
מ@@ 1
ación 0.005341868726147467
struc@@ 0.02362062707189147
ń 0.483964479971766
comp@@ 0.011011882555846944
onen 0.04121862574265519
sac@@ 0.07641081959515275
ς 0.12342365275296915
French 0.03374800750827399
Name 0.08479538175567487
Wir@@ 0.10030566605243026
book 0.03576164476874072
tig 0.08913447029922433
év@@ 0.03423337078991746
Educ@@ 0.062016343217008635
cher@@ 0.10425995683584977
ishing 0.054777834097918664
allen 0.11413694327872853
lie@@ 0.03603253531932295
ك@@ 0.03125202401385911
Indian 0.05477073449320071
favor@@ 0.08728047200724542
igen 0.014473447300438654
у 0.007596528679907342
ز@@ 0.05858394362748391
stand 0.030200278897495703
wel@@ 0.04139337707419348
π 0.4222360748076758
Hist@@ 0.10794105447559235
м 0.004510771436695754
India 0.04134810605341029
Schul@@ 0.07396406068959452
Braz@@ 0.09425417378554297
enda 0.11610972327957803
kho@@ 0.30519768116247964
huy@@ 0.5538380000520451
this 0.007218530832108434
ב@@ 1
stanbul 0.40169386145194785
ι 0.06961694931068343
198@@ 0.08222477937232026
ე 1
შ@@ 1
cri@@ 0.01916405007742066
later 0.012974067736734174
onc@@ 0.1312142195050665
optera 0.37046677462044403
ì 0.17306387329626946
erra 0.08702555688528171
fund@@ 0.03132488237532714
о 0.010659269454937314
seau 0.09493061957680504
ativ@@ 0.061331090053162625
vez 0.051776041605553484
Spi@@ 0.03674682539317028
asser 0.10456676006873253
lich 0.007619484622351454
----@@ 1
DV@@ 0.4682014173537586
erst@@ 0.04701748807506057
icio 0.05036643324871663
west 0.028197437408856822
ţ@@ 1
Burundi 1
Klo@@ 0.11127790338126962
cover@@ 0.0379206980590138
embr@@ 0.16204640276446516
serve 0.07083228378834676
بن 0.16763640496575402
onio 0.15843790875968533
Canadi@@ 0.05456652110848367
iff 0.09765404955557887
خ@@ 0.0612543915875386
chia 0.2719474696385778
four 0.018417904984333745
mente 0.20001098247301066
ى 0.07875376461212388
ي@@ 0.02385632694372265
tres 0.021679715533865756
umba 0.46182494499950255
igi@@ 0.11676329186206981
ː@@ 1
ский 0.009966059591414476
ה@@ 1
Asia 0.09741940310635121
М@@ 0.014891460883090209
п@@ 0.01000446302852856
ә@@ 1
Stra@@ 0.09379500380008733
adu@@ 0.13545466177214957
θ 0.7675987845960347
acio 0.11040638694324409
ción 0.012332178224563253
ident 0.02142659876787598
nationale 0.047122047793589306
ects 0.023714337680981138
determin@@ 0.07751794968477935
edad 0.05108125810286156
ã@@ 0.3940946774685303
د 0.04957686888683212
ø 0.7450047900917347
с 0.002901881893230097
ück 0.10038648994964151
uerto 0.10142700407176823
ł 0.9137369038510484
Α@@ 0.049595658544537104
emple 0.15823715300088964
flo@@ 0.038957173013327684
ל@@ 1
chem@@ 0.05507432347026692
terr@@ 0.08611522115361542
Es 0.019697306322369133
engine 0.09772677267923632
power 0.03788382428093794
ль@@ 0.004908313249794391
His 0.020796879954957083
König@@ 0.07252933650080896
Por 0.07981878877308243
jur@@ 0.04290409651761105
División 0.14286650617483004
cos@@ 0.10844533123865102
tuy@@ 0.4046466812665901
ε 0.09101754390230095
بخ@@ 1
Milit@@ 0.06247914031578009
fore 0.05900260722208045
ã 0.28661782624196774
ög@@ 0.13144844100550135
μ 0.2394858130098722
ра@@ 0.007209248779198038
ė@@ 1
Ś@@ 0.4999122670668561
Chic@@ 0.4811758060767355
atia 0.24160600917626712
ndi@@ 1
Ital@@ 0.05214312518580657
ective 0.04273227813037821
spe@@ 0.029291079027124203
ño 0.11232368202905169
ש@@ 1
enga 0.6291469936718932
istre 0.09772737261587947
ω 0.29353440565008954
come 0.036158395059723236
ehem@@ 0.49531156456019254
ths 0.03654434380170734
ungs@@ 0.008504654437272554
rent 0.038014799192062625
akini 1
cent@@ 0.04851510297499664
same 0.018239490745329805
ères 0.025443286358995607
muda 0.6329920940747668
where 0.009852586195479024
Hung@@ 0.09255173721387677
anas 0.08735332804361809
idos 0.048098258497576624
Archit@@ 0.07413868989804127
adém@@ 0.12767639894134078
z. 0.10775022038660242
ées 0.010341893282922083
Como 0.13508316596191605
Oly@@ 1
XIX 0.11406493220552166
dru@@ 0.06305316059518057
eux 0.03685446096252913
xa 0.2503311392033301
ն@@ 1
andere 0.09409512693635996
stell@@ 0.019599777462651936
δ@@ 0.03726480322255958
У@@ 0.013308216497577175
lima 0.36738022574419066
ج@@ 0.036690372024373134
sti 1
tour@@ 0.022423257462851284
ская 0.017239262654222206
scher 0.06558672740351727
neur 0.05620993116160737
point 0.027927196903923913
յ@@ 1
Israel 0.080311348719679
cla@@ 0.029011184176836156
grap@@ 0.0330562966822354
perior 0.10811634763344688
ù 0.1954644496027174
ement@@ 0.05338385051000915
ien@@ 0.1002499467224369
и@@ 0.007940203111552295
ament 0.04697928334970845
data 0.06535379225261413
ning@@ 0.12620594108946034
П@@ 0.013128645747452379
Album 0.08410200217070338
Ø@@ 0.7851775071337417
Army 0.03760821921132429
deter@@ 0.21497054701167212
icht 0.024381574004429418
uso 0.05522351797745543
ы 0.006757276221811143
ح@@ 0.0366251887861592
achen 0.08310084938578272
ved 0.012047081995363734
Ó@@ 0.33372325445254547
Σ@@ 0.03445385143425253
ж@@ 0.006554081780635857
after 0.006845409562200627
esch@@ 0.0755269960047237
ned 0.0166324360334806
ween 0.1265353272390336
γ@@ 0.045252625285925135
Б@@ 0.014091805424556954
U.S. 0.030206770114916008
hand@@ 0.022130090077716994
ues 0.03601284781454723
érie 0.18398629970790129
peti@@ 0.03335288869524218
Ú@@ 0.26578545489823857
ε@@ 0.04265649404528139
λ 0.12089486160483208
aces 0.06021322700173985
alian 0.05718106018971879
media 0.0454536832303941
run@@ 0.02414689580110334
ín@@ 0.06235761226659055
ḥ@@ 1
jas 0.10807262430616976
ż@@ 0.4487036546563018
ل@@ 0.021427495632843973
voc@@ 0.033577569213886695
By 0.037645935807231946
aten@@ 0.07711259653752549
eas@@ 0.03462121202874211
─ 0.2591071950521257
@ 0.6350903351855987
unde 0.06647252532091871
ý@@ 0.5081340064162271
я@@ 0.007808538982127053
super@@ 0.034996088509525916
Е@@ 0.020109869216315194
March 0.016592268863175233
fic@@ 0.015955624801646747
tain@@ 0.029200131322968077
té 0.023230319182405847
195@@ 0.09764014853905385
first 0.004148409496408399
π@@ 0.03627525237769233
Sta@@ 0.049819698398543937
dings 0.04033317786855126
proc@@ 0.018670007031320456
atz 0.055940983469703415
lich@@ 0.022334818296036476
Con 0.08404066092040482
eshi 0.6434043927798142
irat@@ 0.2710203160308531
vot@@ 0.0331192364579495
ș 0.7318815723089168
Κ@@ 0.03960287064333068
music 0.0202419527302329
ority 0.0333614336572076
gian 0.0745009518516743
long@@ 0.02982112110961369
seh@@ 0.09970652051252712
ː 1
Portu@@ 0.05605317002389185
adas 0.01560169077261187
pad@@ 0.16589510966109403
ри@@ 0.005763648899713512
ի@@ 1
atura 0.10413722968674782
cro@@ 0.02939469980878213
ency 0.03012217392698904
‚ 0.2933374145280326
Institut 0.10322107316656957
mission 0.017767520492584173
å 0.7968740908421981
Π@@ 0.044591521842663566
ن@@ 0.03799844550163328
Arth@@ 0.9413984785291813
Musik@@ 0.06934240666104406
σ@@ 0.03266473054759081
ւ@@ 1
ع@@ 0.034284392777396394
Zw@@ 0.054987887546887194
eil 0.0896381317569284
mina 0.0893649697468151
ón@@ 0.047476953489158966
я 0.005849878121139452
tural 0.02817968973490356
ּ@@ 1
Schi@@ 0.0875931531299654
jed@@ 0.8135007540128913
were 0.00261360929797374
German 0.02690911857495129
Jug@@ 0.07690526583867155
chr@@ 0.10258411477673993
state 0.01562730461752451
ва 0.010493485909498957
Historia 0.07429279761397664
mayo 0.07433226359392786
uch 0.06681906870074146
ъ@@ 0.06800341095030733
fied 0.024262952418186177
ј@@ 1
arte 0.12840629068974646
ма@@ 0.007845261869539833
auto@@ 0.07597225053338007
terior 0.06748778914205603
ρ 0.09722069908122055
itung 0.04601708932576483
quar@@ 0.03038087692717102
eaux 0.07788752981601983
ikali 1
tique 0.031033144697590574
η 0.015436065216854925
נ@@ 1
June 0.016017714816678002
Unter@@ 0.020967545467146666
ка 0.0061199632418442295
aina 0.48032749919670176
cant@@ 0.03966925797541929
Universidad 0.05736437237943089
kuna 1
schule 0.0528930602784703
Н@@ 0.018675526956564104
trac@@ 0.030323029385054916
usal@@ 0.13501424301408774
В@@ 0.009403434066955582
action 0.021409783695532536
realiz@@ 0.03518424160926045
Wilhel@@ 0.29257393823656663
acter@@ 0.05427583908614862
eure 0.08537764742701258
namo 0.49100544285312897
zt 0.09146405413379922
Δ@@ 0.09245686980653171
hio 1
stor@@ 0.039226435311585824
bt 0.056964072418347375
utz@@ 0.023268054449106214
chez 0.07077985672358812
ellen 0.02909408912692293
pre 0.039415665007747715
tien 0.09606520270672603
naci@@ 0.057567363378336275
Grou@@ 0.22713324728845985
bou@@ 0.0897755469343785
debut 0.03336987241708675
ded 0.023375557993932802
formation 0.03276752025824974
found@@ 0.05816486917984365
tou@@ 0.0311482516940199
евич 0.05923306200617146
ה 1
ational 0.03657600403567695
have 0.005056930139735962
toral 0.061687925412257164
Ban 0.2100323607009732
Colomb@@ 0.10294424539250302
Heim@@ 0.07910156729225412
Æ@@ 0.7513463905349553
Öster@@ 0.07778392471571988
ʼ@@ 0.7018156261656538
Г@@ 0.010175352743686954
‌ 1
Deutschland 0.04387622977454984
Se 0.02601983313041035
½ 0.4425891313477118
् 0.002329101090296458
contin@@ 0.031214098614214775
ional 0.04437281713256267
nea 0.18280766241612184
pris@@ 0.04431445466673478
immer 0.052921164805995756
Academ@@ 0.11929313153843762
enas 0.1086450410061041
series 0.013281070035826454
été 0.008616917816510472
ло@@ 0.005651758356823195
ч@@ 0.0057460342599576384
ָ@@ 1
Jah@@ 0.0666603056876118
Nam 0.0543077269491211
equ@@ 0.028244951723411505
ministr@@ 0.042993529544419276
ording 0.03401700811806068
д 0.008123974610780935
fs 0.053931818971966715
ì@@ 0.7899861832250652
ezo 1
kama 0.44530620014963035
lic@@ 0.03352925062134274
techni@@ 0.04929382903724047
vida 0.062128133348994
They 0.015651322523391832
ól@@ 0.09689534707955695
ְ@@ 1
spec@@ 0.020792800329107675
uko 1
ү@@ 1
ا@@ 0.07112230926029992
Х@@ 0.0228973291904096
Nach@@ 0.02337542442584326
cas 0.04710571256074292
illes 0.09356331861619922
rou@@ 0.035043819764816214
ises 0.034574237032554224
pendi@@ 0.07174322501351185
span 0.20233724562637317
Dez@@ 1
andes 0.10175703210270835
esper@@ 0.12292162580346495
θ@@ 0.030443887508805462
† 0.03129173212391829
acha 0.3201126309929198
anni@@ 0.09746188116434855
orie 0.05225675649253415
ле@@ 0.004729094826978073
Institu@@ 0.08139608520739297
blan@@ 0.04753641390568174
part 0.0073767226152292205
tros 0.18605110470071967
Schwe@@ 0.04583966050577276
grand 0.03885590958724718
teur 0.016935697987446544
tric@@ 0.04504309210407781
г 0.008404554055624689
geh@@ 0.021047154412119323
foot@@ 0.04446811172068343
mili@@ 0.06963530567738385
ables 0.027837371460940844
bahn 0.052509819780148674
epis@@ 0.02601966766302993
inger@@ 0.17466684514854686
mach@@ 0.032642089651671966
tei 0.06546483563988335
tish 0.07714399327380453
för@@ 0.0642531290804984
ists 0.017748922474159583
americ@@ 0.07976105950622225
mt@@ 0.22799835610658792
ġ@@ 1
Elle 0.015703505569499555
itos 0.0956850781024334
led 0.01088938418774114
ο 0.011022591651498603
Zwe@@ 0.07741152641539237
strum@@ 0.15099791325088138
ß@@ 0.016921370576974574
Μ@@ 0.03750981271023947
alter@@ 0.053980105873681516
ни@@ 0.004105486006939108
წ@@ 1
fass@@ 0.046768761841229585
nig 0.06978368481795538
primer 0.032440212554969546
ყ@@ 1
Africa 0.0464089343408134
assen 0.056011751003946064
ended 0.013062363004970432
ismo 0.03905951611274134
senti@@ 0.09165328527827449
γ 0.6999025155350165
ices 0.0321595455615439
run 0.03239540016997624
will 0.014066988012456327
م@@ 0.027769516485908596
192@@ 0.9954724022383105
emba 1
iwa 0.5637993144061609
aines 0.05017476838180858
fus@@ 0.05908769255997448
odo 0.08029179463541515
then 0.008347217404707084
ifu 1
Τ@@ 0.04589446591517979
ка@@ 0.004897342517949053
ي 0.02671758091278847
gether 0.028827352848616247
tional 0.01620517737590085
κ@@ 0.024441824309351858
ός 0.04748460945386775
غ@@ 0.03695882011899771
Süd@@ 0.040962316054833886
auth@@ 0.019533784962593753
union 0.049247760163923945
Hoch@@ 0.039861936065279616
hips 0.019652961477229804
pour 0.0034797909074654933
retur@@ 0.026908161618853697
ー@@ 1
ainer 0.07206797881675381
pili 1
schen 0.023377923139997567
trag@@ 0.04428730769594619
β@@ 0.023989996222388357
ზ@@ 1
Geometr@@ 0.29396205416010746
destr@@ 0.036944222666253065
ǎ@@ 1
ك 0.059922270871056484
ease 0.022629146687519166
squ@@ 0.029563979547588885
ц@@ 0.011128132234982813
ت@@ 0.021567478634719268
ecture 0.03613500480408365
ht 0.06872900904902858
undo 0.2732697317935956
èle 0.06921433269958162
σ 0.8475025651778446
Р@@ 0.014112784526641605
197@@ 0.05419741633478086
arias 0.09576079545049627
class 0.03247359774734578
imba 0.773118985245305
type 0.031136922153571497
λ@@ 0.035898074582632604
ف@@ 0.02539090193346091
م 0.037856308035616085
ى@@ 1
inning 0.021534800450788056
ди@@ 0.006908029791127871
ко@@ 0.004513627235949433
къ@@ 0.19893556301756946
nie 0.07793031690811128
Schl@@ 0.06189735337968903
vention 0.040347060606674784
ης 0.03878027237463784
Democ@@ 0.03768194046947358
ainst 0.37626391681054655
undi 0.46526808312707035
µ@@ 0.6057890596614123
ē 1
ον 0.1654414122462411
ь 0.00894747681378282
konn@@ 0.0909785728740985
pia 0.4083534903045134
ungen 0.005441070837474767
ías 0.037664588974990726
ι@@ 0.02422380856035051
jini 1
ligh@@ 0.03190504015004259
orient@@ 0.05906404664504947
ли@@ 0.003814312918210051
ogen 0.04491985438699378
ological 0.03031002814270113
ples 0.024132608456704507
trad@@ 0.05487811495940017
zeh@@ 0.056657462729036615
го@@ 0.005669285020805539
Argent@@ 0.0910563153033542
elimin@@ 0.05288529190623524
φ@@ 0.0277195796454634
з 0.01854147973292619
و 0.030362546874793794
ც@@ 1
ви@@ 0.004944594536043733
ד@@ 1
ق 0.04476705913453575
brit@@ 0.1059563101970851
kön@@ 0.08059464439872549
lande 0.08181216738168373
resp@@ 0.02479382157564751
wi 0.4107736990254951
zog 0.0580705853018544
ample 0.029705205858076927
itu@@ 0.048140985080869836
jug@@ 0.02813814182157139
libr@@ 0.03448333399272457
uzo 1
Ni 0.5963461163075825
event@@ 0.03055848382727778
nay 0.13204783749951568
opo 0.6191458006496225
tof@@ 1
ћ 1
ძ@@ 1
ჭ@@ 1
album 0.008569654751519626
lí@@ 0.04095351797259048
Dies@@ 0.04426458542732225
dedic@@ 0.05047853689292924
nah@@ 0.05672405985599487
ν@@ 0.028491640774608983
φ 0.23591159986591528
193@@ 0.0947075500673567
two 0.004155757735172201
ò@@ 0.28883389257662406
на@@ 0.0033780170334063776
esha 0.6302350810550417
Ə@@ 1
ر 0.03216006218625556
team 0.008239188456996324
ät@@ 0.018357550975309878
ла 0.004184475975310032
meister 0.05221780471483801
oles 0.05300688133294249
schaft 0.009149878501885152
shu@@ 0.17026942924492422
ფ@@ 1
ancia 0.04625952100811537
ography 0.023319448165881065
ө@@ 1
kreis 0.05046228871483607
ockey 0.03784211190852823
ρ@@ 0.030914107352215475
ْ@@ 0.3624393009975776
Krieg@@ 0.04413426785950835
pf@@ 0.026974204669897327
veau 0.18643041741897215
و@@ 0.018589767897244477
ِ@@ 0.16681469026591925
Australia 0.023272105092457626
Eyl@@ 1
Minh 0.1676445315735775
kia 0.5775972038988418
place 0.00892686655805635
plus 0.00555550152458591
ω@@ 0.03749096124845138
ע@@ 1
ی 0.1010190084326318
Europ@@ 0.037857816327433895
itation 0.04582508468195227
Des 0.057657271358180745
ected 0.010413172506729879
ities 0.024262188813150076
road 0.021867337351339
takri@@ 1
uu 1
چ@@ 0.13240244105856203
destin@@ 0.05741447206604877
umo 0.28162138982253465
version 0.018231726538444848
χ@@ 0.025564354925973327
ар@@ 0.010089069449908158
да@@ 0.006038009508777728
Ab 0.051237580892955055
® 1
ñ 1
ź 0.40621004164473223
ɛ@@ 1
мо@@ 0.004294701049953372
atur 0.055297581987852645
fall 0.0328020921502526
heit 0.026974708996224242
pero 0.017846650862093767
Partido 0.10052600276656215
hud@@ 1
ار@@ 0.043357518132146784
Philipp@@ 0.05816049573706338
hr 0.047183859758302034
many 0.0073880326709425525
times 0.015827724143786324
loss 0.022456043461069452
Una 0.07243778717592898
oci@@ 0.040521848244489234
Govern@@ 0.025145932348699114
Groß@@ 0.03698247555947276
bles 0.031292703425523594
mé 0.10491739549811684
sci@@ 0.03267651063063002
ét@@ 0.009539392214260032
ъ 0.35344580409799864
inh 0.06507165630085893
isis 0.057050501257327906
nac@@ 0.089584592585348
tima 0.07456829373561813
З@@ 0.015540531682690777
ص@@ 0.03207889460623872
Apr@@ 0.6576815846733124
once 0.021508767805299377
titu@@ 0.026136288545874704
was@@ 0.05214989312140165
which 0.0020592273730377863
Þ@@ 0.8631817333906757
ط@@ 0.028951572097296045
Span@@ 0.03162570493298031
mich@@ 0.6402795450623258
publi@@ 0.021896205723697198
Ż@@ 0.4871104065065767
ִ@@ 1
194@@ 0.14198658547010737
These 0.023013918752801912
dens@@ 0.02897660119202927
eras 0.049651206833584066
ш 0.04634345744181365
ת 1
chn@@ 0.19420671614428453
sed 0.020511079330969448
ô 0.05349517863571107
Λ@@ 0.04939698619286689
י 1
大@@ 0.00816110606564973
hui 0.056436032067595815
long 0.012586648679950492
ŋ@@ 1
ַ@@ 1
ო 1
Mex@@ 0.04789876415989434
UE@@ 0.511702959398768
leur 0.012788698555979246
mittee 0.027761931495784344
they 0.0048146477446646746
Ε@@ 0.044969640319316426
ار 0.052192092785597825
ჯ@@ 1
apon 0.210592697522368
ked 0.017827450176150506
sang 0.07270923809365498
éd@@ 0.03073641892849428
ù@@ 0.1933304672335373
та@@ 0.005707537709637697
hii 0.5197657240898659
ischen 0.003258087129517441
popul@@ 0.02245290814143434
но@@ 0.0033865246060777203
area 0.010286775650485957
atika 1
mann@@ 0.04667234047659265
sion@@ 0.022873063408986257
used 0.005570603388467074
ία 0.02152559715420388
δ 0.8463215664959468
ο@@ 0.028279479989593025
за@@ 0.002943883622026105
ре@@ 0.003006135216786518
ا 0.029968229805564985
bed 0.04655540768919476
date 0.029730725079438483
oire 0.05188255007381103
afin 0.057233456311142544
force 0.030021813598794418
unter@@ 0.008263320123615178
ба@@ 0.009697800540615285
ال@@ 0.020706243140501908
April 0.008208343331034842
camp@@ 0.009714497558801483
regi@@ 0.019567479852126007
verl@@ 0.021425420993034124
га@@ 0.00753800451746334
ت 0.02944450741777523
190@@ 0.27900942937448714
196@@ 0.047830735876224294
eleg@@ 0.03285102120021598
ging 0.02694842661160535
nom 0.01757674224765166
ought 0.013311314365204076
tras 0.03374869290998409
ן 1
liche 0.00886243279944151
premi@@ 0.027650433198860475
tet 0.015290868194885952
ő 0.9835346957013194
ە@@ 1
pend@@ 0.0345920378410872
ی@@ 0.07983589221250917
Australian 0.02715552465536212
abab@@ 1
dres 0.49759850868916167
nacional 0.03067726055152523
ан@@ 0.006618167993501402
・ 0.7497882449144395
mw@@ 0.08997707682511263
soft 0.20043725113315916
total 0.013757980756316502
τ@@ 0.021619604095512984
≤ 1
cle@@ 0.027935407333001226
comm@@ 0.008379881452834508
″ 0.6005625160406775
also 0.0022525517934859516
endre 0.034234747859984406
gest@@ 0.016415948960619056
mé@@ 0.01191353758988555
oder 0.007804628576615715
محمد 0.18564897202870823
‟ 1
auc@@ 0.052343939300235634
Ч@@ 0.018570439000725605
гъ@@ 0.39721955856782054
influ@@ 0.016270736195128255
natur@@ 0.027437380665769336
partment 0.02039322853091056
vya 0.72337896867683
weg@@ 0.02578356625428728
ð 1
տ@@ 1
ṭ@@ 0.8166370306058353
dér@@ 0.055038547166221224
game 0.010871333451150928
syst@@ 0.02515053922923537
süd@@ 0.029728754899851408
new@@ 0.02436912095774705
tard 0.03843682217263621
thu@@ 0.057054844502836086
aille 0.03078860010934639
logr@@ 0.051984444915724605
over@@ 0.013909522407901404
priv@@ 0.014147066944560444
sein 0.011623284492478177
Í@@ 0.32456148097979004
arri@@ 0.02096099817703408
estruc@@ 0.0701901597135995
head@@ 0.02145895876922091
Ш@@ 0.018978451066357715
aî@@ 0.02674232292334328
ief 0.02584877545532976
jos 0.046302517104911206
Ка@@ 0.009712930261403905
leit@@ 0.042956084129184405
τ 0.05984459399873606
Са@@ 0.016627700605130812
گ@@ 0.08826720823002748
Ireland 0.03637277307480248
Со@@ 0.011425640736334269
cont@@ 0.008028858319580327
Anc@@ 0.6292226052509096
ements 0.009838009355338507
ismus 0.05932675809196739
major 0.015295694532024114
آ@@ 0.06170383133647769
ჩ@@ 1
isen 0.04289003547889677
map@@ 0.11007496989694228
vier@@ 0.057433304336366627
âteau 0.04700446037923157
ŏ@@ 0.7943559226193828
Haupt@@ 0.024557804436717037
group 0.011112395585267706
äd@@ 0.028393618143543877
Ν@@ 0.03379396522556223
ί@@ 0.022082335622143096
ם 1
ک@@ 0.057483224140334105
irs 0.03399581694127637
match 0.016560705902532336
pass@@ 0.008894016944052459
ʾ@@ 1
Ф@@ 0.010228436825266035
ко 0.012344421603067252
ор@@ 0.010648968407212188
fication 0.022356005138792025
law@@ 0.026289467759707138
lub 0.18320716195287645
Wah@@ 0.14664150295164188
city 0.010008609950732885
ellschaft 0.04086245608633486
player 0.019928640626828073
ный 0.004237336595925273
ン@@ 1
са@@ 0.007030175060404556
Im 0.00595966377265655
aill@@ 0.042677445369095623
church 0.021379798118035698
system 0.012194547924122227
Ба@@ 0.022904810040280672
را@@ 0.03382160009701133
の@@ 1
ampi@@ 0.8363234652905636
œ@@ 0.032706505856297106
Mai 0.021996464510995815
ihe 0.0550493683688382
lang 0.03189052881926759
national 0.011844793539229286
ologie 0.017562491824042254
àn 0.06758233547661158
до@@ 0.0031429182451923224
կ@@ 1
Munici@@ 0.045801352212191074
histori@@ 0.014718217064496032
mort 0.025168263958256196
sequ@@ 0.016514188346637794
нович 0.06008766259318789
პ@@ 1
cet 0.05920877052472539
club 0.008821984126758303
uzi 0.9190327186942575
wah@@ 0.03690550113947687
ח@@ 1
case 0.02224226347804959
their 0.002624962383580394
ž 0.7895029632729341
Ко@@ 0.009879064311094326
ва@@ 0.0035055501000244367
ная 0.0062728102342757735
ان@@ 0.031214179243052108
estig@@ 0.08010097945457448
iche 0.047696727132970865
ished 0.012756517112713948
thé@@ 0.03129612292322577
ɑ@@ 1
ɪ@@ 1
כ@@ 1
Ä@@ 0.03276558060162207
İngil@@ 1
Э@@ 0.007921590836025139
ал@@ 0.014102116492522855
پ@@ 0.06505842430787694
Eins@@ 0.038782931408561115
Histori@@ 0.031997088436276036
kno@@ 0.029848869703761306
late 0.016117529343463353
platz 0.05218825474694971
sour@@ 0.017433038468497458
wann 0.5397978513095217
zone 0.03713261348800669
ème 0.021823087234384964
ων 0.022438308133073594
eil@@ 0.025305787967279534
jum@@ 0.07106432770472182
mov@@ 0.01096222429207135
sche@@ 0.04045929272872263
visi@@ 0.04202823728913623
year 0.0052416916083101684
ρι@@ 0.032893479282567376
ӏ@@ 1
izo 0.21253069898599214
lieb 0.46757395718167194
song 0.011344601290645465
ún 0.032715428750082584
only 0.0052898370033048
uses 0.010517083742621443
öst@@ 0.03504721128680439
פ@@ 1
اب@@ 0.044745912320161174
suc@@ 0.021502841123367318
éro@@ 0.024669441982589337
ï 0.11769279401039527
αν@@ 0.01905948544259072
υ@@ 0.027819346166824296
ances 0.013870039457046738
due 0.011604730601668127
icos 0.01864050331797369
mani@@ 0.04216385853413565
telev@@ 0.054983013705015814
Л@@ 0.010995689992725993
Ա@@ 1
با@@ 0.06628805818004933
Ein 0.024870825305074798
eig@@ 0.01667012543716387
erte 0.009663605285473229
ments 0.015541866301843886
pens@@ 0.04549265983336747
sible 0.030092334773610546
Ć@@ 1
Ма@@ 0.012765026757254936
бе@@ 0.00708548781849673
Cao 0.1586136458476295
apos@@ 0.1246321515880171
ר 1
ة 0.018240732453265532
cour@@ 0.011033130421736518
ident@@ 0.05147617988873356
kio 0.19083945970781693
éo 0.05687663119564217
Ми@@ 0.022166342127310282
ُ@@ 0.08063572264616937
cru@@ 0.030755142655361906
ensa 0.051091584461396965
hiv@@ 0.3605917723594736
pression 0.03445707733806566
ское 0.013894218490226692
ە 1
ン 0.9270437729689452
Form 0.05181423025122442
jia 0.933488108549686
leng@@ 0.02264220897543478
position 0.008703463796954632
մ@@ 1
aining 0.013475650412600656
jou@@ 0.014488151267112996
На@@ 0.010904160642922926
і 0.854050814103911
س 0.027939975938443887
Ἀ@@ 1
contr@@ 0.005104258365653683
sans 0.021741193014790678
viol@@ 0.01799739000926232
voir 0.026091685408053934
ս@@ 1
이@@ 1
athol@@ 0.01508689566821266
cial 0.013173243718921725
commun@@ 0.010531336865100407
wana 0.6518410769618014
Ω 1
issen@@ 0.048513652050198953
jus@@ 0.018859394784628003
ques@@ 0.03148155469766386
رو@@ 0.030179124472038223
ل 0.023383269246816996
ℓ 1
ability 0.019396367472828756
educ@@ 0.010942000240409441
éré@@ 0.03612697017195203
ё@@ 0.0052645182106557265
jud@@ 0.030035146841194564
ň 0.684504438934531
ας 0.030469305311769307
Бе@@ 0.0234493344860804
dies 0.02643667901324121
ible 0.02132645543030129
issen 0.051293870109335823
natural 0.02899683279801041
þ@@ 1
Brasil 0.09133720365431806
mano 0.05287920944686436
nuc@@ 0.03898199421700429
pios 0.058953261885199816
writ@@ 0.01078874716102815
Ι@@ 0.06207604694314012
ат@@ 0.008521193298319076
ру@@ 0.0047985970541253335
│ 0.0503576953347716
Virgin@@ 0.31467944525994723
empres@@ 0.04493305770198511
wr@@ 0.036348005521374585
útbol 0.13224261161157666
би@@ 0.007535127059401864
Ӏ@@ 1
adora 0.05947082462772753
aje 0.0198854224149835
conn@@ 0.00925313991596094
iment 0.020717751990259842
ober@@ 0.042766595249702326
ograph@@ 0.02504480384015687
ś 1
about 0.005417935918446638
bau 0.025727287167039693
ф@@ 0.0054625800832331355
mess@@ 0.035398703765783524
née 0.03525030019016362
sent 0.022384979548767232
werk 0.031015730442867515
ל 1
Guerra 0.051552915626255726
aque 0.04424549181296403
artist@@ 0.024712637730701387
aña 0.0627444975410388
reich 0.031166801981279812
zw@@ 0.03661217360815385
äs@@ 0.020469645758927013
Ц@@ 0.01968133681600305
де@@ 0.0030727106338135526
Chile 0.04267842818067786
Nieder@@ 0.026094305578983762
icas 0.019792787944559572
ition 0.018543389357290364
tung 0.011646289778668406
қ@@ 1
ersch@@ 0.022295665069666952
father 0.01314413011557658
full 0.019548637114031524
initi@@ 0.011971705194985631
promot@@ 0.01787487904760048
straße 0.029230626916803528
vita 0.921085297137142
Ж@@ 0.01899272613819589
ṣ@@ 0.5551804958091319
most 0.005100972109402429
ство 0.008036664159788001
Ḥ@@ 1
African 0.025538154780588164
Grün@@ 0.03300068765318723
Mp@@ 0.7248109349247949
front 0.02210238489408551
iß@@ 0.03597123559347597
ά@@ 0.01791700611102128
со@@ 0.0024101241190996703
ק@@ 1
Wash@@ 0.4706112467436114
fam@@ 0.02351186266231585
grande 0.024951867782233784
phot@@ 0.020187809738906246
plac@@ 0.009922686951604424
ύ@@ 0.024768783223091957
ми@@ 0.004615901541258118
ת@@ 1
ب 0.022714463056447913
مرکزی 1
Bev@@ 0.2780542112452198
centr@@ 0.01846388378012668
champ@@ 0.03088394607163538
gesch@@ 0.007447338965551058
jun@@ 0.07177873055751097
ό@@ 0.021950997604306056
ի 1
region 0.01729832975403786
ɔ@@ 1
х 0.0028689326907007564
∞ 1
egos 0.045452941474496585
reich@@ 0.01344064908220068
ز 0.034569798481875864
distr@@ 0.03774367204933961
се@@ 0.003674370330101935
Au 0.02113919347074218
Entre 0.03845187753480132
cht@@ 0.042738718127711746
cian 0.031187187803056123
fron@@ 0.02603795412341429
porte 0.01443796115407547
prepar@@ 0.02760890828169338
unia 0.7820591375662872
wam@@ 0.5533942090604292
щ@@ 0.012641396077871798
Compan@@ 0.2034042665840272
December 0.008377756701883204
jina 0.6010033409332103
mt 0.021547758977914215
nant 0.039692925165154526
onnat 0.03603813586150593
ου 0.01624243592429276
Ле@@ 0.01406397280374282
Rech@@ 0.02642629512056434
hau@@ 0.03318900840745939
rá@@ 0.04689115381096013
umbo 0.27383866026588644
υ 0.23867211895033646
186@@ 0.2731736957437333
ched 0.014526217917846052
inform@@ 0.020362742013465645
nach 0.0030491141562084415
Я@@ 0.016112915040338526
أ@@ 0.011943938238379859
Nueva 0.044750742420727886
Professor 0.030644671947946178
ép@@ 0.045430111867653125
στ@@ 0.016832167337021173
ти@@ 0.0033312051924740903
Pia 0.7373694823005854
europ@@ 0.034855247722246116
ungu 0.8994505186935905
while 0.005669901191669495
âte@@ 0.22130850952226844
ή 0.012243714025669887
по@@ 0.0015440356859363327
اد@@ 0.045630412830595254
feh@@ 0.04087074428886823
publique 0.03407862506761153
small 0.011449042216537164
tific@@ 0.03960045010858591
Σ 0.3742016383006466
η@@ 0.02420605507989902
ֹ@@ 1
ג@@ 1
ღ@@ 1
Isra@@ 0.04953577482945874
Sud 0.04184383618373507
Zeit@@ 0.02685605205151027
known 0.004747447299530621
stud@@ 0.012310768414606429
ève 0.03999347656656235
Grund@@ 0.023585185328490514
ký 0.1133056827749439
people 0.006257298356788576
yali@@ 1
ņ@@ 0.8967793295905575
Φ@@ 0.04071963315302956
της 0.004691994749003599
ме@@ 0.004009194813183758
نا@@ 0.05320173565751802
189@@ 0.2169835931984389
appe@@ 0.016015788752181785
française 0.02812128767404829
jeun@@ 0.05043380018991114
æ 0.5304632858442684
ве@@ 0.0031265066719154476
не@@ 0.0019178927284174694
су@@ 0.006507882090992555
الع@@ 0.02683238179719495
yanay@@ 1
zas 0.060726084721594346
ха@@ 0.01269191630156359
been 0.0025471832004664466
quan 0.0323580822690209
quel 0.03812937143290539
sign@@ 0.019218131331337308
title 0.013476765651584687
who 0.002125946405155674
ζ@@ 0.02381931837704913
Бо@@ 0.01317556346027174
ев@@ 0.02006772647931118
National@@ 0.021520665031049598
a. 0.03840189286570023
did 0.00922782172782391
idente 0.04459372551330134
leo 0.0816764799784638
Δ 0.275187054047794
ен@@ 0.004679617429873756
то@@ 0.0034104842600052366
ج 0.03927579902254956
Histoire 0.02977843618443222
enst 0.04260668656502953
τος 0.07901301546457508
бо@@ 0.003944672108548695
ס@@ 1
Nga 0.13885206749006695
anderen 0.018920185750276233
bern@@ 0.045883396359790364
eñ@@ 0.0333269287485563
fall@@ 0.021215409542934254
mau@@ 0.078939448955651
produc@@ 0.006120155173786651
through 0.005368723709431107
ßen 0.015331444262817715
Χ@@ 0.0355455015792805
άν@@ 0.02131461415519113
ρος 0.11233737804602775
ку@@ 0.006023672823127
ра 0.0041757275869162055
acu@@ 0.04005004623851828
base 0.013238467899810761
coll@@ 0.0056148706233933
given 0.014249563873240494
nt 0.020710449611810133
tent@@ 0.035422627004552606
ên 0.04507768886325318
ʃ@@ 1
σι@@ 0.04045501484297829
187@@ 0.22444829433174548
eurs 0.011930166712640765
eño 0.029540733911339764
identi@@ 0.007346053519324197
ihr 0.019526356302118547
isation 0.016354104196439886
orig@@ 0.0349260303503769
possible 0.018284458936914782
äng@@ 0.01000756554366135
Ку@@ 0.014329303627289668
ду@@ 0.006148201722990748
آباد 0.29838386433385206
هر 0.14445295972058791
ativa 0.04756721085915543
imbo 0.34419862026576853
isches 0.03654384901915504
septi@@ 0.25034492250843404
tena 0.37294551992789565
uten 0.0391362777676885
Ο@@ 0.041658682850299666
нов 0.010409894734843715
ور 0.03436353256406218
Santi@@ 0.5586416593888929
Universität 0.017928213870908812
ει@@ 0.032381737114221806
да 0.003687407397853671
Հ@@ 1
bere@@ 0.021168925072577012
cá@@ 0.031065152777317823
otra 0.04516657415982117
tains 0.01804722673830975
ís@@ 0.024473354021222922
ты@@ 0.011308790221417408
July 0.006897750006390552
esses 0.018277233385335833
extr@@ 0.011873779238136612
ikia 0.991491813171876
illed 0.01584055282860405
inner@@ 0.03695604600346374
noch 0.007477684830066445
zial@@ 0.03087715369292749
ų 1
Γ@@ 0.04187093539110437
Ан@@ 0.013015524276891368
Ра@@ 0.014817955332024832
му@@ 0.008499244140820119
ч 0.016986752985750156
Constitu@@ 0.031378588241100513
ingia 0.3934984727908981
order 0.011502553941479013
prises 0.03433340470041061
reib@@ 0.021547495756881772
éch@@ 0.02536952806957498
Александ@@ 0.021922046295959518
ги@@ 0.005551173670983467
≥ 1
Stadt 0.01141533185690607
home 0.008583078962356749
èse 0.03785027834805068
του 0.0031131124478056627
ев 0.017106924050729395
ков 0.008044562426533454
ր 1
الله 0.2208569229331584
≈ 1
Geg@@ 0.022203503298413294
diff@@ 0.01135885246831988
äh@@ 0.014686435967812847
κ 0.06320843824505891
га 0.007063273079905506
0s 0.005491796762287628
188@@ 0.17855587568089862
Famili@@ 0.029266810764785416
October 0.006656745049300277
waf@@ 0.4635608801400406
ück@@ 0.0315079004942495
Ρ@@ 0.035749415247661946
во 0.006205295257660946
վ@@ 1
Mw@@ 0.5504188690951657
number 0.005944679978160519
É 0.4441558510974853
الم@@ 0.011948975234061476
enant 0.02295438261483487
entos 0.010186898262466486
jour 0.03180914813315757
played 0.005353034984645069
season 0.0037184425558921346
Ā@@ 0.552562274198876
А 0.012182001031030867
ن 0.03579383166778406
⟩ 1
Hindi 0.1679922616581779
Pour 0.025921841286246132
Provin@@ 0.013877252014295209
ibu 0.6549967647223394
ücke 0.03251069053920894
ки@@ 0.006774051513820599
ур@@ 0.014662395015051045
ام@@ 0.03361437271326352
ري@@ 0.02320780773929406
イ@@ 1
Region 0.02291195848441957
anno@@ 0.14371628495111452
chini 0.3848124288641809
deutsche 0.03253546586814829
former 0.006843280746281403
teilung 0.03525018797987796
versit@@ 0.06666411999982397
Ğ 1
Auf@@ 0.006169265389064932
before 0.005097078009374897
ufu 1
ラ@@ 1
Phi 0.11535241266748282
President 0.014806555528635426
aciones 0.0060048703701656644
atique 0.024518191916604083
dial 0.03843723567230669
histor@@ 0.016964454754164693
libre 0.04553486890114667
Алек@@ 0.04347502616455615
ски 0.014516732910041935
ور@@ 0.031018401262754614
ecke 0.0231414910435855
pose 0.013263745118786443
сы@@ 0.01358121899543398
ル@@ 1
Argentina 0.0280951916884201
adop@@ 0.017145896482069333
elten 0.02797618944652372
japon@@ 0.03770670463445856
obra 0.03082305433888674
qu 0.019509179590167344
toda 0.05280766788370767
wir@@ 0.015616399309873435
yana@@ 1
Ș@@ 0.5857058186678851
αλ@@ 0.02537670887848021
гу@@ 0.009030758667699066
п 0.01425152718550304
ورة 0.1260070697935396
November 0.004761355979024648
Une 0.019477091779764668
risto 0.6513905315407792
sé@@ 0.012348309870093832
ulation 0.02194161253608122
chev@@ 0.03545490983498865
essor 0.01676078740515013
iev@@ 0.012088254568947188
isión 0.011708878171274058
stitu@@ 0.04539063516949441
una@@ 0.5038171927354752
º 0.04813424091969791
Во@@ 0.010470667356430497
ای@@ 0.06905482587471641
⟨ 1
Guin@@ 0.20913758701757423
alled 0.03315589596386481
brach@@ 0.03709729252808352
bres 0.023505479165817265
high 0.0072823418243736305
some 0.004510978480326162
three 0.003631795450033462
tly 0.014281473222281548
ин@@ 0.004044254113683342
الح@@ 0.02222002175508666
عبد 0.11840765126342459
ول@@ 0.03043585138780478
January 0.005949788225737011
ichte 0.025266558090400387
riff 0.03095897772206476
social 0.011981035569192125
vu 0.06312589243617539
ια 0.02041089970879273
ер@@ 0.0063748039391894485
сь@@ 0.05853544790870055
الش@@ 0.029403365215311162
中@@ 0.006790323771238852
Vier@@ 0.03510214256139071
khi 0.01369866483902076
philos@@ 0.02385848834742775
school 0.005564123036358809
when 0.003130931429852659
ль 0.004329146693930806
ט@@ 1
اس@@ 0.041790458771867794
homme 0.029536574979433634
lement 0.018987935759581572
lui 0.0076759069845436624
ngh@@ 0.08783959293805516
radio 0.015400750869834334
resul@@ 0.007577742511461123
ů@@ 0.38232817085724047
̇ 1
ικ@@ 0.023054818612393918
па@@ 0.0038615744977914847
գ@@ 1
Este 0.02748663634681652
eso 0.05781960644159974
orden@@ 0.0436422869668224
oren 0.015956968500209265
ße 0.02233441744003889
Рес@@ 0.03620786658819634
лы 0.018990393268130845
лы@@ 0.014153482330467686
си@@ 0.003475196094690676
сть 0.009231231336720718
че@@ 0.0032126913716650704
او@@ 0.07068721940640617
ون 0.02398148661977849
actor 0.02101319946502292
istes 0.019169569842919072
tent 0.03169309896275858
tribu@@ 0.027298478333095042
ême 0.054963723025402936
во@@ 0.0024943413128709763
ды@@ 0.038105505003018646
Kig@@ 0.6200070467289734
mf@@ 0.15917916890502382
αρ@@ 0.021106789933356344
ры@@ 0.008856762595993006
ス@@ 1
Nh@@ 0.054267454334513805
aifa 0.29516766170071096
ellas 0.041958479378947006
featur@@ 0.007448007008617157
guit@@ 0.018325178243863587
hadi 0.45711224780220155
ific@@ 0.012473312530080258
monde 0.01574525097662304
ät 0.022249595912554394
úa 0.04898378212716943
έ@@ 0.012045454476446688
те@@ 0.0029328988208595767
Arbeit@@ 0.016671470121255465
Naili 1
ambu@@ 0.42500495093661916
nou@@ 0.04562806336237568
äf@@ 0.011760036987608828
ŋ 1
Та@@ 0.010808356816283752
publ@@ 0.014407360674747157
such 0.003509694707068245
sud 0.016533560656129872
techn@@ 0.010621196434142678
ète 0.024164846236425154
Β@@ 0.02076043774146774
По@@ 0.004767456605969431
са 0.004301854395434683
ғ@@ 1
լ@@ 1
ذ@@ 0.027144597122518977
aires 0.007563731895771623
audi@@ 0.02110843000738013
bang 0.054295183194438386
cao 0.033829308579483706
nomin@@ 0.01264054621183999
éta@@ 0.04442031128647559
Ва@@ 0.017231297247867716
Canton 0.1350800447470045
aison 0.0401791599885027
alik@@ 1
angu 0.7614405220024908
artic@@ 0.012716668141390209
chs 0.03299299455595821
ectiv@@ 0.015696815942138734
gew@@ 0.007953600966579502
incia 0.12904001531614864
lung 0.01031584416664442
ň@@ 0.43976292851510107
ŭ@@ 1
Мо@@ 0.01426989371816686
не 0.001671213653760934
Stadt@@ 0.014597716133049518
aissance 0.021171385874498988
chang@@ 0.007153693699302218
each 0.006607944604032646
kuf@@ 0.665742707067392
main@@ 0.010128110291135315
there 0.00395127110962869
ή@@ 0.019307775616435513
ζ 0.13778727455596668
το@@ 0.023515312335389355
но 0.0017010687109796732
ча@@ 0.003594961127806606
لا@@ 0.02498579183672429
مان 0.080170620959759
می@@ 0.06090877863791962
ἀ@@ 1
⁄ 1
← 1
bind@@ 0.017381640513662554
bora 0.6196453231054425
indic@@ 0.015303847767313071
vili@@ 0.06022136404423628
οι 0.01144254196801503
та 0.0024337124392560766
Estado 0.037808768108572956
auch 0.0020142839799901792
ongo@@ 0.09361895034753909
plu@@ 0.031196366440615162
positi@@ 0.007886223350212947
schaf@@ 0.02916167404473253
using 0.007356840249987646
ав@@ 0.011748839001447192
ю@@ 0.003824602929269086
ー 0.4629668582364528
民@@ 0.012300631931216385
México 0.02731564845665267
Par 0.031782095937631955
Zeit 0.008789075849781296
based 0.005608740003269349
ending 0.012108868700018833
made 0.0032114342115685205
rég@@ 0.020637813710389113
seur 0.02000131439378482
tant 0.010005393929837344
xu@@ 0.24325960075848224
ě 0.4207792273555124
лу@@ 0.006981727514917164
ֵ@@ 1
Distribu@@ 0.031018764713006988
September 0.003757328073563193
mash@@ 0.2706272578575774
neu@@ 0.013778294696153034
ously 0.009538486320166545
ɾ@@ 1
ֶ@@ 1
بر@@ 0.02920809515589527
└ 0.3136694868162248
リ@@ 1
子 0.008012960792384075
aband@@ 0.015928886390821708
cription 0.010645682241092993
kua 0.840466564976707
ngu@@ 0.15775092990909415
offici@@ 0.0060611750856452385
ograp@@ 0.03105559864685383
tex@@ 0.010948097994472855
Å 0.578849545209393
ǔ@@ 1
αυ@@ 0.05480208058203808
ελ@@ 0.028775207428140888
За@@ 0.009497251842833399
Ю@@ 0.012497599113581332
թ@@ 1
հ@@ 1
ح 0.02652608145006896
№ 0.023957173038471245
Landes@@ 0.021922637744734515
estos 0.01982363827127125
four@@ 0.012874277266008908
imani 0.841292616363262
level 0.011317204912093386
lieg@@ 0.01687376242306661
meng@@ 0.23894182873580458
take 0.011113322107010761
tech@@ 0.10417908597112031
wur@@ 0.0534575299266426
ǔ 1
ше@@ 0.004297985793482488
ң@@ 1
ұ@@ 1
א 1
أبو 0.3879385969336767
ف 0.017885743370582907
் 0.5127508582962257
ッ@@ 1
山 0.016805631318195655
auen 0.02045906377770708
contempor@@ 0.022275138645068943
emas 0.03764974580119231
ered 0.0054253812062627985
ewa 0.3992598043279826
lage 0.015799584849679946
some@@ 0.009724078779710994
temps 0.011253682806399578
unas 0.041106082399987975
ού@@ 0.02527339408335005
за 0.0021444620236985234
乡 0.06846470894639024
February 0.006098055902194308
clo@@ 0.010534546768980104
leich@@ 0.02699973062012688
Қ@@ 1
צ@@ 1
া@@ 0.9084724275031978
Nguy@@ 0.3875176545238306
emu 0.6075924534156824
hasa 0.4038866925049859
onge@@ 0.21916763363084132
restaur@@ 0.01787614973714091
rière 0.027323490282667735
scor@@ 0.006577086572653822
sich@@ 0.013427862190869654
utsch@@ 0.12284747702550329
και 0.002464791750822858
λε@@ 0.033527218943808786
ки 0.002220735602908997
сель@@ 0.015067830399295941
Francia 0.03565920745311577
Mei 0.45916827247788494
Mittel@@ 0.01748428001094752
ativo 0.041510332504696455
enzi 0.6444631718009306
tés 0.030317432366227297
wach@@ 0.034887909997858416
ús@@ 0.059100298370442284
Ар@@ 0.011361633260239314
ска 0.01070948791050456
чи@@ 0.003211889494577567
اش@@ 0.07083218074346857
الق@@ 0.021350015198672658
activ@@ 0.00542685624650597
explo@@ 0.015359457944705692
ised 0.008876024435602627
äch@@ 0.008002036557214393
ʼ 1
ξ@@ 0.028678893870608447
Ру@@ 0.014603193741210753
То@@ 0.013006114809427979
жа@@ 0.005674438991902037
хо@@ 0.0038407107591280744
إ@@ 0.014981315012426394
َ 0.1753027886691371
་ 0.7209228336313133
∈ 1
clus@@ 0.01788924115120432
second 0.00339211391083596
service 0.006177993842452873
universit@@ 0.01029539481928742
what 0.008421407672059759
ου@@ 0.017131539154444694
Ха@@ 0.016241394660413053
ц 0.007455073745229212
ئ@@ 0.05001960827930307
新@@ 0.010641223347128479
Gesch@@ 0.012785455440338772
Platz 0.014023319609044366
Zentr@@ 0.024425419199683173
karne 1
roi 0.022033641171771277
ubic@@ 0.03251235795276879
日@@ 0.013092750995354336
Pub@@ 0.07836237169523426
cens@@ 0.013326065528247614
exp@@ 0.005776761692620196
figur@@ 0.019672877549542854
jour@@ 0.04413477863377628
ρο@@ 0.019431219503171098
Ал@@ 0.02718412723987852
ти 0.004936321172115342
ղ@@ 1
ア@@ 1
ク@@ 1
avant 0.009166493882532961
docum@@ 0.009207726614595083
expres@@ 0.010602233804276386
held 0.005363858860745682
inco 0.21183972955748656
nach@@ 0.01228062397037206
teil 0.010307821898953228
âce 0.028037069738588626
ête 0.01402006586031129
ǐ@@ 1
В 0.0010326418698553576
Ви@@ 0.010683298567061376
Влади@@ 0.023087820070470635
Пет@@ 0.022495409737473604
ров 0.005374909045877162
ров@@ 0.007671555843553351
ск@@ 0.00721559593367089
ст@@ 0.0025641390234097485
Conse@@ 0.023229631127108467
Staats@@ 0.024354613028307836
aged 0.007264927615154909
fond@@ 0.016230270284776686
lado 0.03153911836778448
èg@@ 0.024864070033078053
ερ@@ 0.01646296402423424
ρα@@ 0.021837038132917243
ψ 1
пе@@ 0.003896072256036407
Distr@@ 0.035759892109210385
Kif@@ 0.9786017757836838
Lebens@@ 0.022667474751246686
adores 0.01122674808802033
control 0.01006516867030726
days 0.01013034319799362
orden 0.03107785244857211
quali@@ 0.01314456473406527
Ó 0.36437053814378284
über 0.0027289851913081553
С 0.004307834043889162
Մ@@ 1
ז@@ 1
マ@@ 1
Adem@@ 1
during 0.002542255850507386
released 0.00405268191656525
schrift 0.027526650798334773
would 0.0024018268137215994
͡ 1
ба 0.010767030822296943
ли 0.0016089325164043915
شا@@ 0.10335823637901143
ين 0.013255333418385282
ῖ@@ 1
` 1
clu@@ 0.008081527839112689
entro 0.13182886249311157
khi@@ 0.16513546703424203
original 0.006397305170129071
tish@@ 0.44335296198315843
élé@@ 0.018537515334232306
αγ@@ 0.022572465014191433
κα@@ 0.01701502500510881
ан 0.02301657143325954
ний 0.003963742862778326
цы 0.008015155016207766
بي@@ 0.02104541676675129
ع 0.015961105747077604
ھ@@ 0.18454830014036447
ト@@ 1
東@@ 0.020070951776222933
chter 0.02082225959874934
deutscher 0.01892640683746419
icht@@ 0.017865422498677955
quier 0.03257209565961585
unci@@ 0.020661291941080948
ét 0.11268322525769628
ων@@ 0.033918936640250835
ту@@ 0.005956592387799658
ال 0.023569002643320337
天@@ 0.01249954520872858
김@@ 1
Califor@@ 0.0783590118309771
class@@ 0.008206621650068266
comple@@ 0.007010127717422321
deutsch@@ 0.04362140136094493
ispi@@ 0.034558820879775354
jah@@ 0.021079646665120712
language 0.010734066272026593
trou@@ 0.01438069462563922
ún@@ 0.017023916512862017
Да@@ 0.016097187864609366
ма 0.0035484555568450708
ша@@ 0.008114254205078485
ң 1
ـ@@ 0.13375415902443877
ما@@ 0.030342522041560575
ند@@ 0.04463263556087662
differ@@ 0.017768943543001
loi 0.02218277472218262
msh@@ 0.25415978187137744
né 0.006944421720594826
without 0.010092565336044823
ź@@ 0.47640684544063033
ον@@ 0.017483881417127888
Се@@ 0.007256774269262196
ге@@ 0.005794403414661991
ди 0.008472755874050913
ник 0.0056185670896279
ны@@ 0.030726289918273694
пу@@ 0.004212235038663828
مو@@ 0.025843989342072923
classi@@ 0.012949598944232605
ently 0.003707970045618382
faire 0.011965568407128506
following 0.004397340868956129
ict 0.02229006184550503
make 0.008617467440646464
né@@ 0.011130853163763077
temper@@ 0.017667861194337647
went 0.007597764640599272
éré 0.02675072149035966
ομ@@ 0.023163455047080776
τι@@ 0.02048067968079365
обще@@ 0.008166456377025275
сто@@ 0.002561465579693151
ِ 0.09332186700799518
ک 0.04418725396332403
ḫ@@ 0.8260990714455595
モ@@ 1
本@@ 0.012725540628909038
镇 0.031513783556535696
Leben 0.00838754729207313
Mär@@ 0.09076884979207145
Tod 0.022080040135956
coul@@ 0.02399615617764088
ided 0.010072561642986328
schluss 0.02007531559513477
still 0.0070619071208666276
tiki 0.9713148479027527
wake 0.08542598516965257
§ 0.07898148776398652
Θ@@ 0.07020587497803243
О 0.013796705242252953
зы@@ 0.01438797917851754
нов@@ 0.008283789072656943
archit@@ 0.009321585521819655
ateur 0.0086778161728696
huri 0.6021072941545577
mundo 0.021533660818729504
sort 0.022798107276190978
sous 0.004732604938928888
territ@@ 0.008487997562848992
tige 0.01621879257086755
weit@@ 0.010002701941906606
ισ@@ 0.02160631790311111
ώ@@ 0.019619669261649705
мир 0.027464821255860847
ца 0.00689913302487981
ци@@ 0.004414973578105735
≠ 1
├ 0.14340192808409266
avec 0.0016540841724315089
einen 0.0024856628874617387
erste 0.009513556498969584
ʒ@@ 1
Го@@ 0.011409368833259086
ста@@ 0.0033433004239417754
ד 1
الدين 0.30340455900439917
در@@ 0.03910135839401682
imu 0.48205226951261215
kirche 0.022677756041395443
million 0.006595139759389628
poin@@ 0.07641786040173
ατ@@ 0.017826032702094808
ке@@ 0.01044913766005252
ׁ@@ 1
لي@@ 0.019597211469397583
abaj@@ 0.05644809475168928
anh 0.023549717184824803
culp@@ 0.016959212611001032
ehen 0.0071468345617338004
inclu@@ 0.006584278425823866
public@@ 0.00473002369726225
tries 0.009951288133665111
ħ@@ 1
Те@@ 0.012954383482911263
مه@@ 0.08624539141036577
ܝ@@ 1
阿@@ 0.011067906990407128
Campeonato 0.0322046479297381
Mitte 0.022709313020276862
Zu 0.019226930684578463
cula 0.08435417389785081
history 0.006661240823443182
idadi 0.5284248092641134
information 0.011547588106869
local 0.00475487960251177
pain@@ 0.009010030319378448
reste 0.019282753120819056
Ј@@ 1
Га@@ 0.014758945042459608
Ре@@ 0.009534515150101865
кий 0.015540242952539285
դ@@ 1
بن@@ 0.03849504904531194
من@@ 0.017758303898010024
وال@@ 0.008892171448852454
ية 0.0067665122208463895
ۇ@@ 1
‐ 0.7235420765684764
사@@ 1
ained 0.005322065276911662
among 0.007845167160483045
eln 0.013129118782371368
enso 0.011640043038559101
found 0.0041962748489489
international 0.007160944589520605
linois 1
six 0.00579444037565751
temp@@ 0.006848191127798637
État 0.015293049719347635
τα 0.007024831158159335
ши@@ 0.004511330206708436
َّ@@ 0.11719437343774852
‏ 1
可@@ 0.02043499220042951
山@@ 0.013051087449679852
allem@@ 0.016977009051750678
gek@@ 0.018235300222637366
jap@@ 0.04815291158357911
just 0.007545209743904939
near 0.006882139313331887
novel@@ 0.019079485295038306
speci@@ 0.007820585320292004
west@@ 0.007977619498086253
À 0.007318831644958127
ƒ 1
Ту@@ 0.0272973989121605
б 0.010011677370861722
ни 0.003657171676453827
сы 0.013592498179446768
ха 0.012645645427811885
Ս@@ 1
غ 0.04706175973335732
ἐ@@ 0.7379943837674229
ὐ@@ 1
‑ 0.39075468564293736
フ@@ 1
awa@@ 0.1280316942828833
banda 0.02130138443500784
casa 0.025583306224522727
condi@@ 0.010218969054671978
football 0.005159356483521349
present 0.0074317040778240535
said 0.005564429261832528
statt 0.013170688682616135
áng 0.06150285663511697
ération 0.018572887343659198
ą 0.8682404279690129
να 0.0049661003202849455
К 0.008202018052936537
Су@@ 0.011937287250744874
ак@@ 0.006116854668247649
ث@@ 0.01617372570027856
ض@@ 0.015854508407584924
ّ@@ 0.03879466268624659
민@@ 1
baada 0.5820435890220368
cual 0.01063617091211556
ickl@@ 0.05302669276231019
ión 0.007080647637628571
studi@@ 0.00649181906369914
Â 1
äus@@ 0.018600399436639086
ɡ@@ 1
ʁ@@ 1
αι@@ 0.01955765884451798
μα 0.01858700583403645
Е 0.05570490196406
Но@@ 0.012188805868653023
У 0.016292708037777274
зи@@ 0.00441181146345722
զ@@ 1
وا@@ 0.015130076629008686
Bei 0.007771683246771433
Geschichte 0.007154535756163481
Nguyễn 0.05569181609198913
Straße 0.020817877936671444
century 0.004619741698496029
estas 0.016186874043875157
util@@ 0.020846004160002624
¡ 0.14158552206689365
ütz@@ 0.020002934107962694
άκ@@ 0.039350476760911225
ασ@@ 0.01608751962188161
μα@@ 0.036349620890576174
ξ 0.17776133878919617
И 0.011419789591169445
Па@@ 0.008890917496103382
ит@@ 0.004881701966801016
мар@@ 0.010750768323553832
он@@ 0.005636701320809291
ḳ@@ 1
™ 1
República 0.027536248133819587
Woh@@ 0.015650536162144256
aliste 0.019710959656850543
between 0.0021978024966888723
bán 0.05428248749187927
present@@ 0.0049934275649161875
respon@@ 0.006198377182561717
short 0.00889778265014938
vom 0.003986011313595684
До@@ 0.011090468422564111
Ива@@ 0.024803882066568736
Ки@@ 0.010215925349063116
рий 0.016535427217413117
ск 0.011901306075565636
ю 0.0018479285251250368
الج@@ 0.016654767471238053
الس@@ 0.014596121093695973
مر@@ 0.02973947687372353
ون@@ 0.019076693300024917
يد 0.0523723303378521
三@@ 0.006829924323786293
國@@ 0.008297469046175412
cion@@ 0.007494130056966352
clos@@ 0.008285746340312244
curr@@ 0.007539278812450819
formed 0.00456165708529268
schw@@ 0.011927138312787763
ακ@@ 0.01684889439560964
εν@@ 0.010853511737600194
όν@@ 0.020456431103528856
Ме@@ 0.010803738886850794
Ро@@ 0.010020228092064225
تر@@ 0.023982386482962473
្ 1
☉ 1
国@@ 0.009261892174987617
Ce 0.009895159482893564
Flug@@ 0.01615273880130154
insi 0.03976337971992836
kung 0.020465830880950792
lead@@ 0.0038011226216124617
office 0.00901587186888958
riere 0.08773614970881743
tout 0.007417407515893929
tribut@@ 0.01214635784019916
êt 0.017695218396561935
να@@ 0.02443669137708898
ге 0.0078554920750608
гор@@ 0.013357205959603278
лов@@ 0.01138187344003001
շ@@ 1
الك@@ 0.01636789781868588
مي@@ 0.02010726213697607
ْ 0.3784301919774842
ệm 0.09038897266809903
海@@ 0.00771429215737069
Feb@@ 0.506330197254023
Für 0.011989576201473236
autom@@ 0.010026645285926384
design 0.0092928358041279
dân 0.011677183623821502
issu@@ 0.005056306532043373
march@@ 0.019250556888628097
these 0.0037974704497601265
ę 1
Α 0.04756049211476992
Му@@ 0.013809005379655171
ад@@ 0.029935859895852266
об@@ 0.002626960690588876
пор@@ 0.011008343475174112
բ@@ 1
ست@@ 0.018905358117799302
من 0.003466509578471132
♯ 1
于 0.005458159078206343
한@@ 1
Frau 0.020043150029569103
Mit 0.008114566830714357
bish@@ 0.011488670770225461
ecto 0.016733977104473496
grou@@ 0.006761869587933554
imeh@@ 1
pré@@ 0.0042728298350653135
tee 0.0624912470641765
ĝ@@ 1
ʊ@@ 1
̂ 1
̃ 1
ευ@@ 0.014633892486700781
θε@@ 0.022387141718121274
ρί@@ 0.020667347274786238
το 0.0023197107536368296
Ни@@ 0.011417327418153406
нова 0.01920316796895926
обла@@ 0.010220929626738604
сла@@ 0.010436358421398433
ї@@ 0.7790252141859321
الأ@@ 0.009109418010604352
ط 0.026136108632913803
مح@@ 0.027790370676236898
ود 0.040808040006487425
ル 0.6709011230247447
县 0.015343910108368664
Lehr@@ 0.016133318146784623
Welt@@ 0.011122285971572419
event 0.008141962121907998
journ@@ 0.006630105233339776
relati@@ 0.007806761277006297
wani 0.30875046593849576
ˌ@@ 1
ρά@@ 0.027179767131096447
Нико@@ 0.05283827979103495
си 0.007138410486636543
ф 0.013429629668178105
北@@ 0.007792964970009522
汗 0.1497152610143932
compl@@ 0.006442711443498268
foc@@ 0.009036764587671883
schi@@ 0.00862220277651152
vile 0.06641078597881019
¹ 0.9809083285741027
óm@@ 0.042677950223893486
̡ 1
Γ 0.12601591692984518
τα@@ 0.015789676526176567
Миха@@ 0.02853382859034697
Не@@ 0.007473173255972628
ри 0.006317092758686352
ция 0.0044156262431179275
ք 1
سی@@ 0.05360518137570858
シ@@ 1
ジ@@ 1
ド@@ 1
克@@ 0.00866419087743135
being 0.0024524397552246964
ehe 0.01526489591929231
geg@@ 0.00846261467922448
high@@ 0.005596593754604826
icha 0.13405688987913641
isho 0.4513980299584419
là 0.001321796225657062
ào 0.026672345822721828
édi@@ 0.01798545899675693
ί 0.021689626615801174
ля@@ 0.002206450622845991
ס 1
اد 0.03695121341057042
علي 0.13416827906889886
ნ 1
ロ@@ 1
五@@ 0.015616794877063422
contribut@@ 0.01664690758996557
igt 0.010568721798413639
qué 0.018177389184630525
étr@@ 0.013691957826321446
ʲ@@ 1
ά 0.009741614285778324
ις 0.17463659135043522
Ла@@ 0.013795181219472563
вет@@ 0.010605020116042451
мы@@ 0.007618562168976403
ос@@ 0.006815099521585519
ро 0.009670006688141459
أحمد 0.2641184346007709
في 0.001855362844887787
ῦ@@ 1
レ@@ 1
스@@ 1
both 0.0027710698514760036
conf@@ 0.006713727357814268
gemein@@ 0.0065153109139760475
génér@@ 0.010831540431485508
lieu 0.009546509481736696
menos 0.021229186526785824
nation@@ 0.010067981303485726
rue 0.017648431858392377
Ñ@@ 0.32349519677004307
ói 0.08693200759126064
ɑ 1
Ά@@ 0.032176203013509534
Γι@@ 0.061959682666943114
Υ@@ 0.057655932382935676
λι@@ 0.016358218750433178
ψ@@ 0.024742737022443832
Де@@ 0.007999842041193656
Серге@@ 0.02968405714398127
Си@@ 0.008981014339184606
лов 0.00970431244444255
мен@@ 0.0032472148637114253
قل@@ 0.18202808339689253
لو@@ 0.019781435457395944
် 1
인@@ 1
Bình 0.05273551495033905
appro@@ 0.003890020040061656
econom@@ 0.006770413397047226
fonc@@ 0.011401574578019843
fé@@ 0.01158303037831552
herr@@ 0.019134932276511363
istas 0.009723029796658822
ogle 0.8335830067497116
typ@@ 0.00646648300629434
village 0.003584554373877921
Мар@@ 0.010413138871473987
Я 0.04003025565116078
ло 0.0022895515688441267
ско 0.011084698570316355
ты 0.0040827193519743215
Գ@@ 1
պ@@ 1
زي@@ 0.026029556701260385
ス 0.5765402798316897
單@@ 0.026973633046114866
縣 0.017430638798160068
高@@ 0.0074603594718776435
Fuß@@ 0.012664446342204537
Haup@@ 0.022822578543702936
building 0.004505486491453911
continu@@ 0.005871111586538202
cost@@ 0.011844564294387539
dici@@ 0.036946372791588626
grab@@ 0.0169876951410106
histoire 0.01312063966615042
idence 0.009526598361949905
ived 0.016450133106750434
large 0.0042284099349509455
nouveau 0.011012863876331982
pata 0.38509077420151483
ǐ 1
ɛ 1
λλ@@ 0.021360884118747137
хи@@ 0.005930181733799615
ա 1
خ 0.061027424597632246
ܐ 1
대@@ 1
Bürger@@ 0.015836480754970652
comb@@ 0.008527903085157447
fico 0.016180930077478718
numer@@ 0.009024505230003796
umani 1
µ 1
Û@@ 1
δι@@ 0.009797464380331158
Бу@@ 0.011856551547019601
Васи@@ 0.020850197069144698
бу@@ 0.004413216231741306
дар@@ 0.008766905867182902
ние 0.0024501746589597833
ные 0.0014524028132200631
ские 0.004855939090085901
қ 1
الص@@ 0.020373499581315152
دی@@ 0.06219897490908018
ῆ@@ 1
バ@@ 1
市 0.007131052244058142
金@@ 0.01104361080223002
Indonesia 0.03253459600235852
capit@@ 0.00974077932275875
carr@@ 0.019877953531907612
ciones 0.003960258459060846
conc@@ 0.015396811805450928
course 0.009424653109709122
princip@@ 0.005842824178287648
those 0.005088034415230443
tour 0.007101357480102965
written 0.0064483422605627755
years 0.0016314461068595923
Ø 1
̅ 1
άρ@@ 0.01777747703545222
ιν@@ 0.013508341519508804
Ша@@ 0.020636764799840297
ны 0.0022895122038988046
он 0.0024190579218242394
ре 0.0035565185262795966
ב 1
اب 0.03630846491434248
است@@ 0.03027054387976457
سر@@ 0.0317774882411859
شت 0.3288762436242235
وي@@ 0.011211111590830405
ᴀ 1
⋅ 1
タ@@ 1
아@@ 1
Lan 0.03330215537029678
adhi 0.3779449189340872
against 0.002346819488667186
alien 0.014093576962062987
bier@@ 0.026696434589272247
conten@@ 0.01635070929809188
develop@@ 0.004885708261473367
eines 0.00411978672959035
fils 0.011876311671945812
ités 0.007196521485993244
recog@@ 0.007963605724780802
schaften 0.005158145917156031
suff@@ 0.006333146679464082
zeit 0.006189012863336183
át 0.029798580927746794
Θε@@ 0.08159984601338738
дж@@ 0.019528107931946564
род@@ 0.006836410214611221
ша 0.01815631492593397
կ 1
، 0.0012459886923709567
الب@@ 0.015781411803913778
لا 0.023647544652769314
南@@ 0.0064489208493027335
Wasser@@ 0.014011355097377403
ased 0.00578813911973736
famili@@ 0.005960750748297309
fica 0.01230385355224053
schafts@@ 0.007969687029732764
signed 0.006887469641882643
wala 0.2507059685927212
¨ 0.8790422822242696
ман 0.01363918901111319
سع@@ 0.09016479262968088
ُ 0.13300297009429501
カ@@ 1
Barcel@@ 0.08768775690699239
Deutschen 0.013744849653449092
ations@@ 0.009582292793136991
forc@@ 0.007101765525739179
premier 0.004837709316312573
verw@@ 0.007415984918822724
ác 0.03129412227115342
ähr@@ 0.00942301701238673
ľ@@ 0.34949600683838594
Η@@ 0.05345171553356814
νης 0.05936998763100278
بی@@ 0.036381038837401944
ܘ@@ 1
♭ 1
Wirt@@ 0.014771681700544312
beau@@ 0.013045060652382805
chap@@ 0.008332412083161813
crit@@ 0.017531328217671442
deven@@ 0.012555025167417142
elected 0.006083195499353679
half 0.005970016623236468
ically 0.00626177279284772
kuh@@ 0.45126134055985223
next 0.0059358623290713996
partic@@ 0.005062610121637934
prac@@ 0.006112067288172009
ài 0.02296816683050092
ÿ@@ 0.6821873839026387
ʙ 1
ʰ@@ 1
Φ 0.7268200610220443
ίν@@ 0.02031036389156608
αμ@@ 0.030291050518904728
ορ@@ 0.012275486864114761
σκ@@ 0.01944068865163887
І@@ 0.2861975055208953
али@@ 0.011324593937424764
зо@@ 0.0023948751222392984
الن@@ 0.01352626702462905
سي@@ 0.01297244047936249
نج@@ 0.05311984259771158
ین 0.05849886367122013
ὁ 1
≡ 1
ィ@@ 1
神@@ 0.019480264566658707
정@@ 1
compos@@ 0.002983603995242087
division 0.0070002803998318345
ennen 0.011227768522172337
family 0.002346026299814996
gé@@ 0.01603604844120925
ingine 0.6553597565489746
osas 0.016402166688508583
tores 0.014774333007664302
ρα 0.04342754397371222
СССР 0.009175109372342848
лъ@@ 0.047671645215532965
пи@@ 0.002435624287486095
се 0.002404671130976751
ք@@ 1
از@@ 0.05708667520207147
به@@ 0.2419578040509011
مش@@ 0.034931718337324016
ᐊ@@ 1
ḥ 0.7110254870397574
‰ 0.23530624903891423
小@@ 0.006662654149709513
auspi@@ 0.01564706113557671
buil@@ 0.006047716710216855
erne@@ 0.015001130843975313
lesia 0.014995529541646272
nicht 0.0017622429653033533
nord@@ 0.016554042664309095
separ@@ 0.006181286785582187
ám 0.03274740076350045
ļ@@ 0.7255063232087711
ʃ 1
ική 0.0069810032557872815
же@@ 0.0023016404925564585
публика 0.06068775574604347
الف@@ 0.017922418468368676
دي@@ 0.015880582480659024
مع@@ 0.016237665160440642
ḗ@@ 1
지@@ 1
Eine 0.00860442270433085
scheid@@ 0.016008611533944426
sexu@@ 0.007834365726946653
tér@@ 0.01700519916363891
univers@@ 0.017615682401177155
wissen@@ 0.009989469476703202
zwe@@ 0.006939020649484503
études 0.01485429359591136
Ω@@ 0.19709845171241358
των 0.00456308486097657
Кар@@ 0.010105288615259637
Ор@@ 0.01627256424989469
бы@@ 0.005865145854993013
район 0.013824344271085691
њ@@ 1
رة 0.014263597891314081
عل@@ 0.030691741740523297
وب@@ 0.016121639480198253
√ 1
ト 0.637377431914192
会@@ 0.021213365373782357
太@@ 0.011256497736142523
西@@ 0.003880722121547351
Entw@@ 0.011659383681978852
around 0.0034991350843760474
ests 0.006488128988505356
retir@@ 0.015231856294088138
though 0.0026296543948353796
zh 0.03543302165178355
¿ 0.08504075697723473
À@@ 0.7016855917408982
ôn 0.01123564997001189
ίδ@@ 0.04160344938101743
μέ@@ 0.033565468288328494
ολ@@ 0.01891153207941297
Сер@@ 0.025603759718526894
Сте@@ 0.024807651847439657
ет 0.0015394704418426421
ж 0.009123758406218917
лу 0.01017759879123871
сти@@ 0.0027508659381986714
الد@@ 0.014537192319593934
نا 0.035324314355543444
ير 0.01642289817846826
ῶ@@ 0.7193327742876754
ⴰ@@ 1
ウ@@ 1
武@@ 0.01526450142392968
리 1
의 1
이 1
조@@ 1
early 0.0027109421384185948
entre 0.0013778145673385457
envir@@ 0.007646679091890924
fici@@ 0.010005210032638304
français 0.006915087120018652
imiento 0.0057807106482715915
innen 0.011368684507952202
kwa 0.02796194532074587
lanz@@ 0.008061029616220109
nhi@@ 0.09876161896984127
produ@@ 0.0031562439435180905
tainment 0.04351710785807848
vai 0.04213855735845971
äu@@ 0.006666577214869523
ķ@@ 1
ţ 1
Ζ@@ 0.03834468527187169
άλ@@ 0.020059029245745385
Пе@@ 0.007990886373934055
зе@@ 0.004825218222872635
الخ@@ 0.021628346013878638
دا@@ 0.03465250392063877
和@@ 0.021982545603174083
anyika 0.3564047461498105
appear@@ 0.0028778021146624827
chte 0.01377218462206191
company 0.00324310519194843
département 0.011076724343935702
energ@@ 0.00965599576948824
kea 0.44037634370831263
licher 0.006458322354663441
nung 0.004493019904007009
particip@@ 0.002908683269734999
sett@@ 0.005882176926436967
Über@@ 0.005734178696477492
đ 1
М 0.011215051045301086
Ти@@ 0.013465975868022851
ков@@ 0.004778354694458361
лю@@ 0.0037289213516812788
اف@@ 0.021120666596628007
وی@@ 0.042869936876404224
兵@@ 0.04240095534386298
李@@ 0.014503269352615382
生@@ 0.006432507439530998
自@@ 0.0061944627508713455
caus@@ 0.004336880493213929
charac@@ 0.004822621224471747
dado 0.024956113777347296
deu@@ 0.06710156308115726
echo 0.01921707323614677
einem 0.0015194229482627547
isons 0.014451847452304822
leurs 0.006299902135234185
osto 0.9525533044828077
tradi@@ 0.003210244766836135
zeug@@ 0.009519545072668863
éti@@ 0.011076597293773641
έν@@ 0.012751092454147421
ής 0.00796419837581956
Ста@@ 0.011959953702065013
Ча@@ 0.02043029674614455
зы 0.018814478103882423
ное 0.002337773042945036
стан 0.03361864382329729
сь 0.005177588799794256
ו 1
بو@@ 0.03348253461606874
جو@@ 0.04416038946738472
دي 0.026866656969098447
مل@@ 0.023562203820915877
რ 1
∥ 1
コ@@ 1
田 0.0333625431575263
amente 0.0025631306614507456
associ@@ 0.005495165473307801
competi@@ 0.004694206259093755
exper@@ 0.00656583103215221
five 0.003534913222066406
gique 0.01481170880516565
hier 0.010000504232375166
inici@@ 0.010378003048987757
lichen 0.001554970212298206
sociation 0.012312856456744386
sân 0.04456807049500878
unden 0.013207435326657682
ède 0.01068842832857699
öster@@ 0.015104129726760255
úl@@ 0.016177992533894195
ǒ@@ 1
ț 0.2754499253038455
ȟ@@ 1
άσ@@ 0.021389992279243764
ίας 0.00637273161230368
πο@@ 0.016466812656937568
Би@@ 0.01329069223892463
ед@@ 0.012587561798344337
ми 0.0012546752396938002
слав 0.04360673452757592
Ә@@ 1
ս 1
ات@@ 0.0166012165854575
سل@@ 0.03317902772849465
فر@@ 0.023068087486875735
كي@@ 0.024848189741657208
يا 0.015608400251220239
کو@@ 0.06860940919757434
፡ 1
ブ@@ 1
島 0.021757656708029517
afu 0.3683230823426086
appar@@ 0.004597719572366117
could 0.0032422228992246365
edrich 0.8729639801325614
mpi@@ 0.2885278571059008
muj@@ 0.027102070707180403
party 0.00562352825026949
third 0.0037193117010748487
ες 0.00533030363550468
ώργ@@ 0.13320731113793466
Ад@@ 0.07010086052373979
Об@@ 0.010219930616232506
лий 0.019151422326752224
миро@@ 0.014335494081725313
про@@ 0.0008463577227052331
рина 0.024108212965977933
тина 0.02746444645349571
эк@@ 0.006872492102101463
اس 0.007011706354253171
ام 0.015822248170562398
انی 0.050047107792760843
حي@@ 0.02058453014223111
شی@@ 0.09188965662863922
قر@@ 0.06808607447032364
وم@@ 0.012348235404181755
治@@ 0.01478851948161499
社@@ 0.012088130116841752
리@@ 1
스 1
Kristo 0.5393430440263318
actu@@ 0.0036056059180515085
again 0.004369007231203815
construc@@ 0.007170474757215239
deux 0.0020005116322368587
dung 0.007317805555947773
election 0.003746880204607707
eneo 0.27172555357893985
fest@@ 0.012525588459844082
jaw@@ 0.1701488681022127
novi@@ 0.15551993902101008
points 0.0045137528571491375
quay 0.04955256877316963
ticos 0.008821986737214387
toire 0.013401183472555568
öch@@ 0.009359521985904796
ünst@@ 0.010317089298910207
ħ 1
ż 0.5077825622471537
̌ 1
αν 0.012157172060161883
οφ@@ 0.029703210578749348
τρ@@ 0.014928184515725777
υπ@@ 0.021968738349826225
Ду@@ 0.015056786442922309
аль@@ 0.0023041288915488386
ле 0.0023607808275530897
льный 0.006488666825153397
ной 0.0007508460097931615
публи@@ 0.008543437218511356
ской 0.0010157042356548447
ў@@ 1
ә 1
ע 1
ק 1
ات 0.007161550169048311
الت@@ 0.006519391700654948
دان 0.07671578756304963
دو@@ 0.03258313095412733
سن@@ 0.043932967640304764
مَ@@ 0.24371558684444763
ា@@ 1
式@@ 0.1972907177761308
Engl@@ 0.03660553839852892
ately 0.003286617474521068
ateurs 0.010212831580119765
años 0.002807826873692699
equi@@ 0.006861536991747011
huy 0.05587962094234704
ieder 0.04644189514256608
ographie 0.008542147293126495
requ@@ 0.005645748641132751
él 0.011298169641281712
être 0.002962507372622012
ű@@ 1
ǎ 1
ʔ@@ 1
̀ 0.1601662405021135
΄ 0.018008499654967095
Η 0.006082411287558385
άς 0.03785957826951553
έρ@@ 0.013299383336955753
ην 0.160190713290211
Николай 0.028236041842013154
ева 0.02081814457826702
от@@ 0.0012125035379279329
һ@@ 1
Կ@@ 1
بي 0.037820881009379546
وس@@ 0.019550607710009094
ين@@ 0.011784042325422826
یا 0.0239492599750242
ۍ 1
キ@@ 1
一@@ 0.0014131614745531294
人@@ 0.004443304868757139
特@@ 0.005211184691679995
development 0.004668542053947708
making 0.005428722149855018
member 0.002758797809193055
oría 0.012010778869579937
prec@@ 0.008255730158970529
record 0.0038760920502276864
resid@@ 0.005324630499656373
since 0.0024979274550860765
đi@@ 0.046138607724444974
νη 0.03678479459623336
σα 0.04450311105896234
ата@@ 0.005733802616971795
вер@@ 0.002029673271121316
ви 0.010381108974554213
мит@@ 0.014172843986650526
ст 0.0036083730396534327
хан 0.0505732784036662
جان 0.14633688707014744
جب@@ 0.12944642042752522
خان 0.08585614129889191
در 0.06426534897834463
مه 0.16138237113615536
ند 0.07163165604612967
ول 0.01673082554227039
ḍ@@ 0.4154964636253714
ャ@@ 1
郎 0.052029190052393995
국 1
국@@ 1
동@@ 1
주@@ 1
Auf 0.007728710106982972
Unternehmen 0.012380564584474889
ammen 0.02171707900398803
comun@@ 0.007984400420771498
ellos 0.010834379143290293
films 0.006358116596898928
haa 0.9639063357986898
hili 0.4030670115060849
ient 0.011047707949090832
national@@ 0.0068159022571124
nú@@ 0.04812221780222723
television 0.005315128767140263
teurs 0.0073849072200341615
tigen 0.0049366730739689845
trag 0.0072452384332393534
änd@@ 0.010130559078417575
απ@@ 0.009142386474613887
ει 0.008090812513200003
εύ@@ 0.017890909000507514
ργ@@ 0.024367477359978195
ό 0.005804428252938678
Гри@@ 0.019880321817526764
Кара@@ 0.03135673829680936
При@@ 0.00678578046945073
Росси@@ 0.009556668797456222
Укра@@ 0.009747195824618174
Че@@ 0.00915368670540512
Ы@@ 0.34809274882116903
авто@@ 0.005093061837276877
ги 0.004305618211409381
ем@@ 0.0068863036601382295
жи@@ 0.0018977652279026371
из@@ 0.0015171658116636848
љ@@ 1
ӧ@@ 1
‍ 0.07277004133371566
サ@@ 1
ニ@@ 1
古@@ 0.011759541468833162
建@@ 0.005948301261919756
月@@ 0.019279359805823862
王@@ 0.008751513769928844
Minister@@ 0.013998008192426845
Thanh 0.045955712660044154
ached 0.0045626255285372026
allow@@ 0.004647850712707464
atta@@ 0.0132022209691583
carri@@ 0.005758723569540067
celle 0.008342133298516814
commer@@ 0.004653822013472066
industri@@ 0.006415517716682882
iques 0.012938176549775134
production 0.003442498862498719
propri@@ 0.012390993745666374
scienti@@ 0.007229981133591495
sich 0.0005952590679368859
tionn@@ 0.004896202136902138
unos 0.00992971980176244
who@@ 0.004455803942439778
¥ 0.3831354516234087
Ê@@ 0.5078557415938258
ái 0.013991697996079307
érieur 0.008302062797941673
óg@@ 0.03954946597402928
Ελλην@@ 0.08114622659255726
Ν 0.40276061135005503
ην@@ 0.05640143146758264
ως 0.00626666589240856
όν 0.03754517649065706
Ве@@ 0.008719984490908467
Вла@@ 0.05369994783539589
Констан@@ 0.022595408561900388
лен@@ 0.0028216016793032746
ры 0.004467909738562826
фи@@ 0.0032354385324747
ү 1
اء 0.013209614123000276
اج@@ 0.033477263740023085
اق@@ 0.03757100999851879
اك@@ 0.036088052721877865
اي@@ 0.045539088413624196
وا 0.03077399609344834
کر@@ 0.038681968799687154
ܪ@@ 1
ா@@ 0.815659871561204
រ@@ 1
ἄ@@ 1
か@@ 1
デ@@ 1
伊@@ 0.011253508114716804
史@@ 0.02210253238755193
木@@ 0.02804754573613135
那@@ 0.02210253238755193
소@@ 1
～ 0.10384259326267839
Allem@@ 0.01238683657142306
Ngo@@ 0.16090444019114875
Sept@@ 0.22189530973177887
Việt 0.012191256044048757
bien 0.004453006592578238
concer@@ 0.0035253606378781
hoa 0.008738477129527484
huyện 0.015226868625793552
invol@@ 0.0038423622286170877
lege 0.006486482418274558
ouver@@ 0.006764916771109532
species 0.002929878854530713
studio 0.006812214268470766
tous 0.007701907278914026
until 0.0017970585708635865
zentr@@ 0.007978210032224597
öff@@ 0.009401448358284646
ř 0.34006673264272264
Ț@@ 0.5719273476185287
ʿ 0.8142010051807408
ιος 0.07164547996682495
Д 0.013753605309244184
ния 0.0011469923712536386
от 0.0007893616379861946
ун@@ 0.010499678643440364
ут@@ 0.010407049580355349
ча 0.00661628470828859
чу@@ 0.008694363636581593
шка 0.02912619723339667
щи@@ 0.0029438617859152225
Ө@@ 1
մ 1
اه@@ 0.03468499024740746
تا@@ 0.02891442026802462
رب@@ 0.034247431333091834
يم 0.036485057887713425
্ 0.5981505724782163
田@@ 0.026835878393664973
道 0.0041014852815330575
하@@ 1
Kati 0.2304753442123724
different 0.0037601623380646328
expl@@ 0.004751904655325733
including 0.0015079283376253293
quot@@ 0.013690174302368957
thuộc 0.005865764006737421
thành 0.0038967882903825795
wap@@ 0.2808293713740908
wech@@ 0.04087983812364889
équ@@ 0.011286994231424445
Š 1
̈ 1
εις 0.03351964836951417
κλ@@ 0.015426518708505359
λα@@ 0.024510974963212608
σσ@@ 0.04676061875356821
τερ@@ 0.022974242359721567
τες 0.019549833356435883
вет 0.010475411973113082
па 0.006256436346711756
ран@@ 0.00372564148799788
ского 0.0009086350816790414
те 0.0019131344325472638
то 0.002363198382740305
щ 0.024246887627653785
ց@@ 1
ابن 0.07690899639678594
ران 0.19694960736727615
ض 0.017044724162732016
لی 0.046836016539716294
وم 0.03234412116581243
پی@@ 0.03411503914512959
گا@@ 0.26288123558464754
් 1
パ@@ 1
主@@ 0.003170768882682691
軍@@ 0.009094833029897716
라@@ 1
Gruppe 0.00971325250821487
Sơn 0.03939641266405415
absol@@ 0.007419467775206857
ingt 0.010198128663134558
phố 0.015491600796227929
trực 0.04305842861732175
tỉnh 0.011428390398316921
waka 0.363545099953435
within 0.0029774566739776786
women 0.0034427695997551844
zeu@@ 0.009543752277179577
õ 0.038090996507183526
ɒ@@ 1
Παν@@ 0.05245871040673076
εκ@@ 0.008315640893096185
τον 0.003092356414810194
Андре@@ 0.01781518547516784
Ев@@ 0.021876456940416875
Т 0.019249317376248548
ве 0.0033923156274314184
го 0.001423585166277153
ды 0.0030649288645741486
ман@@ 0.00473504472880098
нови@@ 0.015570660593779189
чи 0.00583460307764351
بل@@ 0.023419393985648174
لل@@ 0.005639314862323242
لَ@@ 0.2756170662641465
مة 0.010491302118999613
مد@@ 0.030360598010342573
ব@@ 0.9306852913924595
ி@@ 0.639859662089631
ᐃ@@ 1
Ἐ@@ 1
‡ 0.7342679846978395
中国@@ 0.021971995709829006
人 0.0013215092505132078
子@@ 0.017090633851971127
尔@@ 0.007128667657847913
文@@ 0.004977043701640853
疆@@ 0.18227820947459947
전@@ 1
트 1
Proz@@ 0.008538909574403255
ajes 0.01245999383286916
atives 0.005581387831108446
compar@@ 0.004825242617669224
conver@@ 0.006074150505100213
defe@@ 0.00406010060708365
died 0.0028173021660557237
duy 0.04854118222601414
empl@@ 0.009454887486094013
huo 0.2026791196000568
included 0.003035404114639535
provid@@ 0.003238911289661875
race 0.00524395913828601
reduc@@ 0.006663801885895455
simil@@ 0.013114211175215409
sind 0.001274634634942606
tä@@ 0.017029861430836516
ände 0.009836702770297618
ť@@ 0.3933399312296856
ɔ 0.8248424102851559
ɣ@@ 1
ɪ 1
̯ 1
Κα@@ 0.029669476192723775
Ο 0.005943452232017629
εια 0.03559519477301789
εν 0.04019257237771357
με@@ 0.018342847108095344
μος 0.09037582353154654
μπ@@ 0.010722757092789472
τη 0.0036803597603409953
όβ@@ 0.09487275242076323
ών 0.005224287981756887
Гор@@ 0.018048934672740633
Никола@@ 0.014575100803478439
Пре@@ 0.0074536296376515624
Ю 0.048935531253734184
доро@@ 0.005346877230938217
ке 0.0016075460871540202
ска@@ 0.003268441374891268
ья 0.005730332620837187
ян@@ 0.006173448039622845
ө 1
الر@@ 0.01833833955848074
عة 0.013046955870734213
علی 0.09440268923672614
لی@@ 0.028473288645696464
نو@@ 0.03921170770946758
يخ 0.09777666801203787
க@@ 0.6237547551192831
Ḫ@@ 0.7390678762857642
エ@@ 1
ガ@@ 1
ソ@@ 1
ド 0.7978947817935113
川 0.022322675969877213
株@@ 0.298966362152098
白@@ 0.014042127402015244
기 1
다 1
선@@ 1
Guerre 0.012265255853986122
Kön@@ 0.09266677464113995
arse 0.004995743883376161
called 0.0018529358708170012
combin@@ 0.00538141739545093
community 0.004032902017307255
dies@@ 0.02017789161893546
ganda 1
greso 0.015107250212978134
grund 0.00584684156107649
ouvern@@ 0.06929062163459003
represent@@ 0.0023148728924042494
took 0.0022923811003571115
ually 0.002580064648559205
¼ 0.3776638406268015
Ľ@@ 0.7715593329261121
˚ 1
Αν@@ 0.021704818426827675
Ι 0.20750431905233174
ίκ@@ 0.018927920835620216
οδ@@ 0.017503002129954273
χ 0.0769046405313812
Вели@@ 0.011598468224421081
З 0.030456053521462297
России 0.005089394073574249
ет@@ 0.0046148769400274365
кин 0.021001667112316626
ля 0.002338448670262836
ного 0.0007543769923235077
Ե@@ 1
ּ 1
ث 0.014645167539923799
سو@@ 0.024696005407990225
عبد@@ 0.16482122084957881
محافظة 0.13995018442706122
مس@@ 0.018215086794518092
ા@@ 1
國 0.003971685957876589
신@@ 1
자 1
Grenz@@ 0.011209299085439552
Sein 0.009217509658062516
alipo@@ 0.5013659755937321
became 0.0012774412096460367
champi@@ 0.00328139570529699
deut@@ 0.004748491400563124
durch 0.0011006417788326749
fand 0.006074801333127119
members 0.0027019142348741355
minut@@ 0.0063248226711941045
observ@@ 0.004424276969531254
often 0.0033417317599321737
ortho@@ 0.031668555005344295
recher@@ 0.010257957520878502
relig@@ 0.007530329145797488
zeit@@ 0.008303210137510243
àng 0.015598256592817264
Ε 0.07458590793302354
δρ@@ 0.03898850203834451
ικό 0.005338951368135576
τη@@ 0.011740399779482378
Ай@@ 0.025637175481061543
Михаил 0.02877351713827089
Х 0.049398097456144215
ем 0.003741460439349898
йский 0.009835586362766446
ктор 0.009412869826072992
лек@@ 0.005260588497969744
лин@@ 0.004977876083249414
фа@@ 0.0036165103488505013
ху@@ 0.013519105189768881
це@@ 0.0020019352803308846
Վ@@ 1
تو 0.03604675183165126
حسن 0.1549046722192673
ری@@ 0.022927992908423525
لي 0.030093294444066658
می 0.053669271817730804
ܕ@@ 1
ṇ@@ 0.18016514224487115
グ@@ 1
上@@ 0.005413346786793511
八@@ 0.014340658807955535
公@@ 0.0029873494643631636
居 0.02935895748720448
우@@ 1
Bere@@ 0.005758865639880338
Forsch@@ 0.010759760519128232
Verein 0.010819465536543778
Verein@@ 0.006717415541230862
another 0.003161982245790588
assist@@ 0.005167507603591409
año 0.0023866346088433276
director 0.0037846175027777392
disput@@ 0.008087127832603642
dose 0.015208141147617345
drit@@ 0.009810551931239716
follow@@ 0.0035529324572816995
gab 0.004931565784084117
instrum@@ 0.0058585390961448025
kila 0.3211579648203924
onales 0.007585122130383599
partement 0.02078550905947394
polic@@ 0.007003177388037774
wanza 0.7083748794459467
with@@ 0.010617708996079037
ämp@@ 0.010593045433187703
Đồng 0.055717015400937646
Ē@@ 1
ġ 1
ǧ@@ 1
Υ 0.4455068350782792
θη@@ 0.021745990875647395
ικός 0.02159904321003212
λος 0.09399183501009786
ους 0.0061725932512593455
πος 0.08011898131322809
Г 0.013187391168212308
Тур@@ 0.017376548060634524
льная 0.0097885298410307
по 0.0006391740589601488
рен@@ 0.004543831186521642
ских 0.0018939251411180693
стиче@@ 0.00895548294729981
الإ@@ 0.01079835072208731
ایران 0.18617748626084213
دة 0.011513523879611317
ده 0.056522693663227604
رب 0.02796991419258725
في@@ 0.009403514136790574
ولا@@ 0.04642547873981508
ير@@ 0.015653094243116252
್ 0.846629616202823
ᖅ 1
オ@@ 1
十@@ 0.0039004494264355304
学@@ 0.004802620292740537
家@@ 0.0069267297819347
平@@ 0.0060298392517302984
華@@ 0.01257747565895752
隊 0.0077489215075375005
기@@ 1
﻿ 1
Als 0.0035612963391347587
alité 0.0050201746509952756
announced 0.00330145425106081
bila 0.41224503059067374
chef 0.008233336700718774
concep@@ 0.0049054645434259
conqu@@ 0.00953071214567143
dows 0.02544033479090592
emble 0.04154308718284673
introduc@@ 0.00390610986947011
jeres 0.12248221809153037
much 0.00353315120433663
propor@@ 0.009392435515115805
sehen 0.00810612745885354
thu 0.021070309525249232
zeich@@ 0.004469095908642011
¢ 0.6715825553750007
áo 0.022144600660422835
Ħ@@ 1
ɐ 1
ɕ@@ 1
Δι@@ 0.019873052378406923
Μαρ@@ 0.0392420489293432
ανδ@@ 0.04775568824046629
γι@@ 0.026729138230309386
προ@@ 0.006634230037499323
στο@@ 0.04176422092857454
τά@@ 0.011238703063711072
όλ@@ 0.01605263244081436
Ком@@ 0.012339424079682366
Про@@ 0.004532739961343198
Ф 0.010552763643146452
вя@@ 0.0037530426741504493
мя@@ 0.005744469224471801
ну@@ 0.0028951983301752134
ок@@ 0.006717128043952435
рия 0.004447966420095644
ян 0.01866929274303873
ֲ@@ 1
بر 0.04678166534624406
سلطان 0.1255782153166763
وسف 0.2153119915545073
وق@@ 0.016936645277575012
يل 0.01959691728425039
ۆ@@ 1
ảng 0.013249896297349118
ἰ@@ 0.7664916297514235
い 0.26659479051063917
な@@ 1
之@@ 0.0032064035477410244
京@@ 0.016193629352657415
地@@ 0.0034926607911945663
安@@ 0.005171518458586378
박@@ 1
수@@ 1
최@@ 1
According 0.0039636455646824015
Jahr@@ 0.019344188256439503
alista 0.01510075122306512
altung 0.006870395171433072
arbeit@@ 0.003698076483658874
excep@@ 0.00504240685012078
games 0.003191879534408713
pays 0.005188246928594999
period 0.0033713961564479067
puis 0.002648035263031164
punto 0.014365333685866025
schaft@@ 0.003818392522386976
tiem@@ 0.042888099281013115
º@@ 0.10335122452484237
ɐ@@ 1
̨ 1
Νικ@@ 0.0818916281393856
Ψ 1
αδ@@ 0.027476859039662228
θος 0.08836442586832749
οπ@@ 0.020684926635230073
Н 0.006753090704556196
Р 0.011345827714926805
Хо@@ 0.008774842828597902
Чер@@ 0.012205586938808785
ато@@ 0.003095349340360204
йн 0.009642756955683743
народ@@ 0.014625681087739654
стро@@ 0.002891712379977226
тин 0.01569672641257263
اط@@ 0.02824880662668857
خی@@ 0.1912508795650237
ري 0.030303542413542845
ص 0.021997168381467067
نی 0.03703121426302987
وج@@ 0.016060625764635007
وی 0.06440123262408545
گ 0.058664221550733704
Ḳ@@ 1
ṣ 1
ἔ@@ 1
› 0.5423978727420101
∂ 1
テ@@ 1
斯@@ 0.003174025778985047
正@@ 0.008799425337706527
나@@ 1
에@@ 1
Nigeria 0.020159666598156226
Teil@@ 0.007736846148573321
azini 1
beit 0.005742467923665212
conv@@ 0.006100620797892793
deutschen 0.005501599294252309
district 0.0025893876467590394
ecu@@ 0.01092993972189193
kuj@@ 0.2265274271242841
peu 0.0055425380272038
population 0.001645886669431805
previ@@ 0.002937189802544374
provin@@ 0.009215662422721071
province 0.005608562577539599
só@@ 0.0128816050428921
titre 0.005528722067761915
ÿ 0.38963025351788183
đa 0.042013770421101604
ť 0.4090909154845259
ιχ@@ 0.08851951799468319
μεν@@ 0.02908809609353203
Македо@@ 0.08120688616572544
тан@@ 0.004652400631730005
тур@@ 0.004168781942032131
ёт@@ 0.011928883669988255
ռ@@ 1
دی 0.03198688469819173
ری 0.03623866117099237
زی@@ 0.05957872008433357
سين 0.07887479956686794
كة 0.019564777657259082
مص@@ 0.02698932216358434
مي 0.039022029099492136
ّ 0.04031437186362881
ۀ 1
ܡ@@ 1
ি@@ 0.7649645337579226
Ἰ@@ 1
⊙ 1
チ@@ 1
島@@ 0.036820481210664724
拟@@ 0.28684974011335235
有@@ 0.0040032601797362986
石@@ 0.012908286741448853
Quốc 0.008562288601715281
ases@@ 0.014375009651938974
donn@@ 0.004619753144391202
ería 0.010097991115380617
fait 0.0016426607983683558
few 0.003740206424382103
franc@@ 0.011887450554436517
frances@@ 0.014507087992091517
kazi 0.16717987361980355
keit 0.002956505174068862
khu 0.010062506756357283
letz@@ 0.007226791001078589
ológ@@ 0.00955600401422996
published 0.0023486240326063834
received 0.002149861373962508
seinen 0.0034307645334600745
tions@@ 0.008718878031995671
verk@@ 0.004321009412369108
ños 0.014263829461018146
ĭ@@ 1
į@@ 1
ɨ@@ 1
ˁ@@ 1
Θ 0.414096467631506
Κύ@@ 0.045280360071086
Λ 0.26626496902802704
άδ@@ 0.02564389469885241
εί@@ 0.010635802449359332
κο@@ 0.023852921293134852
υλ@@ 0.023016054505475513
Авто@@ 0.01885985300321269
Б 0.013411102859140149
Ге@@ 0.007201025916055771
Й 0.2675440129527443
Кур@@ 0.018258281531065106
П 0.006634995267183592
дан@@ 0.0035069056968629222
ду 0.002799341322994836
зер@@ 0.00661124942016073
им@@ 0.00384767593570653
мия 0.015847594561474346
окру@@ 0.004685166833556257
пар@@ 0.003693220090476344
пол@@ 0.0022526382908009297
тар@@ 0.00670805505295622
эн@@ 0.008825361659420614
ש 1
ائ@@ 0.008940430262644126
الط@@ 0.014236120669794636
اني 0.026215730526323557
خر@@ 0.08885410584523201
زر@@ 0.10198860079918981
صر 0.0437414394851469
ظ@@ 0.018356217059476643
نی@@ 0.03173424206739743
ަ@@ 1
ლ 1
ḵ@@ 1
ὶ 0.3738612176300557
₂ 1
い@@ 0.7158865667922565
も@@ 1
人民@@ 0.011401311121981873
烏@@ 0.028149183713958126
野@@ 0.03340689473154843
공@@ 1
로@@ 1
미@@ 1
Ende 0.0034563405830947687
Hoa 0.010485981860766946
Verw@@ 0.005004164098626374
administr@@ 0.0022341996946852504
aría 0.00885008336986396
eht 0.011731496929250976
erung 0.00221349247911845
exist@@ 0.002782092106425611
guerra 0.009010581600203155
haup@@ 0.009678205358980363
koa 0.5408490043793778
larg@@ 0.003556853381741539
mita 0.058892970898484366
origin@@ 0.0024164985527800244
placed 0.002706936385611948
police 0.004688686381820325
popular 0.0036481026035918166
remain@@ 0.002862472143283835
serie 0.004531044921459513
signific@@ 0.0033171249210092167
tische 0.008829773160528862
 1
États 0.0051862393226459694
èmes 0.009207096862755648
út 0.020165011232840802
Ġ@@ 1
Ī@@ 0.9372840570042271
ŭ 1
Δημ@@ 0.04668208807229603
Παπ@@ 0.10825102976264091
Φιλ@@ 0.1127908987277008
έλ@@ 0.01685489375250411
δε@@ 0.015504573395873831
τε@@ 0.014660950853688112
υμ@@ 0.03166323995121981
рай@@ 0.005810829681737384
тов 0.002294463971974631
ци 0.011303854459243829
чен@@ 0.004833337400410734
чер@@ 0.007267745980158617
язы@@ 0.0047884790252338575
آل 0.17206288847845566
از 0.028060139106005088
الز@@ 0.030128806580957686
مُ@@ 0.08549738323944298
پر@@ 0.04916026644330458
ڭ 1
گر@@ 0.06468185221384241
ܐ@@ 1
ܬ@@ 1
र 0.004908037205569091
ን@@ 1
ん 0.31161757018428476
ナ@@ 1
ミ@@ 1
沙@@ 0.014457451789927736
清@@ 0.009388549195918408
虚@@ 0.14933109941358785
語 0.01256750313565788
陸@@ 0.04043598540455824
가@@ 1
그@@ 1
당 1
보@@ 1
성@@ 1
아 1
원@@ 1
－ 0.025783889432869703
Anf@@ 0.028805220946807368
Gemein@@ 0.003761529955617749
Hà 0.022627144972428178
along 0.0021812634320947347
cier@@ 0.009268684630475248
design@@ 0.0021345715597678935
dió 0.007280595433841332
dont 0.002143503004128985
encore 0.00535141045163596
exten@@ 0.003874269724191582
incre@@ 0.0024511699965864904
inten@@ 0.0045641817130567894
mej@@ 0.011824157328160344
munici@@ 0.035294735442364694
wich@@ 0.007015396083965692
zug@@ 0.004132020445719672
Ý@@ 1
était 0.0020755443709786644
óng 0.021831552654616653
ĕ@@ 0.985796729271275
ɾ 1
ʉ@@ 1
Αγ@@ 0.032096339137276546
Κωνσταντ@@ 0.11744088961353209
αί@@ 0.013577957359252988
τολ@@ 0.062267317311872725
ώ 0.042027412622717565
Геор@@ 0.019011257780800078
Ин@@ 0.004704201547494323
Ке@@ 0.01207821177965566
ССР 0.01294826130792413
дан 0.02337844822843383
др 0.018153237030085295
жи 0.0076680209005068715
кон@@ 0.001396303349306641
ско@@ 0.002151248498909906
Բ@@ 1
ח 1
ך 1
آخ@@ 0.11983024592296274
المن@@ 0.030124556680075885
دار@@ 0.037660565470939045
قي@@ 0.016010916639890058
كو@@ 0.056544675129712584
لان 0.10809865665618405
مان@@ 0.03426574786181204
یت 0.07976526964507179
़ 0.0031848872694408524
র@@ 0.7067036208830476
ી 1
ர@@ 0.7129512557497457
ር@@ 1
ḳ 1
Ḵ@@ 1
ḷ@@ 1
∇ 1
区 0.0037568661388728665
城 0.00866646128699736
河 0.009442276294942008
社 0.017792020731098875
都@@ 0.024314551268147896
韓@@ 0.027925546289671734
라 1
유@@ 1
Hòa 0.04025335830548238
categ@@ 0.00529306068066305
central 0.003556559546324233
consist@@ 0.004537365202013184
escu@@ 0.007599536705019499
fang@@ 0.007186807742806176
gegen 0.002246939723069833
guerre 0.005100451389600685
ieron 0.009823219462096565
liko 1
linal@@ 0.4316330146220255
nh 0.02543787214861559
octu@@ 0.04320737187975947
pour@@ 0.004872622997438673
soit 0.005173128116425409
south 0.002817315794759799
uwe@@ 0.291806488552112
ʷ@@ 1
κά@@ 0.020855732954240955
πι@@ 0.029241560020316013
τί@@ 0.01807625535552675
τυ@@ 0.02949504801665871
τω 0.08849285382988811
υσ@@ 0.029621071335198715
όπουλ@@ 0.0750153248693128
Бал@@ 0.018740508417009586
Все@@ 0.010146584113307485
Л 0.01353905863368161
Сою@@ 0.012982813066837438
Ь 0.8022373486616319
ван 0.005406844493806635
ган@@ 0.006900614780579059
де 0.0016570730222841552
ден 0.006352149525953329
ку 0.0016500719461089474
нин@@ 0.007647403071405048
ных 0.0005728545691421563
ря@@ 0.0018623669115983936
ть 0.0015007886918474078
це 0.005415941125150984
Պ@@ 1
ך@@ 1
اخ@@ 0.08715257076463089
اپ@@ 0.12448764888222419
به 0.0358595633650146
خو@@ 0.06442937694075719
دار 0.03302171844669016
قو@@ 0.03360795775663885
كر@@ 0.06660758679207936
مار@@ 0.018829453607453413
া 0.7797562252634365
ક@@ 1
ப@@ 0.7717572062352781
თ 1
ế 0.025355631146924292
ℳ 1
♦ 1
ュ@@ 1
党 0.014064789068225423
利@@ 0.004480932527439654
回@@ 0.009473962672564782
日 0.0014301308964513666
松@@ 0.03451714530334509
鳥 0.10415675145171018
黄@@ 0.021469422132617978
원 1
Nha 0.03496016736256851
arded 0.003334515592467854
candid@@ 0.0032853341931525356
conserv@@ 0.003437732773585948
déc@@ 0.0018231549853669254
ectu@@ 0.005512776384651092
franç@@ 0.029171778444201258
independ@@ 0.0035999140932777497
juli@@ 0.15730956229693516
mais 0.0014521519143179983
origine 0.007090289746441769
support 0.0027869716537212287
wao 0.344443716569564
waz@@ 0.29208622443722165
xã 0.007158689307753243
Õ@@ 1
ísticas 0.012743363567462543
ít 0.027810651648380823
út@@ 1
ĩnh 0.022975797310126604
ǫ 1
ʔ 0.9868174148908142
̗ 1
κύ@@ 0.028073181149674414
λέ@@ 0.023872005470429315
μβ@@ 0.015853127821338436
παρ@@ 0.005843738972312898
πλ@@ 0.009064099351515425
πολι@@ 0.026069443139123946
πρ@@ 0.016827230933859235
σία 0.016289675410299666
τσ@@ 0.015793772369800677
Лу@@ 0.005870229555889526
Моск@@ 0.006171539636699146
Шу@@ 0.02090256893615157
бра@@ 0.003200884984893119
вая 0.003423584912052231
вы@@ 0.0006063787037521175
ген@@ 0.006395355078447806
до 0.0010556254335496427
кова 0.010293181256512641
ком@@ 0.004240942128005571
лё@@ 0.0036009296433811844
нин 0.018565036176027557
ница 0.008152606982732529
публики 0.009768138990570968
рав@@ 0.005233488877932584
ћ@@ 1
ҡ@@ 1
Ү@@ 1
Ն@@ 1
Շ@@ 1
Տ@@ 1
اق 0.05493963919682789
بد@@ 0.019872221620340906
برا@@ 0.022303488817991535
تو@@ 0.013662929302462585
تون@@ 0.12891790992015356
خان@@ 0.181074087183355
سف@@ 0.1938599891974854
شر@@ 0.020742658813760997
فر 0.05628784155033937
لة 0.007927682763934771
مر 0.03355249953850687
نگ@@ 0.045577099245594756
ها 0.004650020321008526
وَ@@ 0.15093214760922158
چ 0.05841377304357845
ܢ@@ 1
އ@@ 1
ম@@ 0.8082813694335945
ু@@ 0.93030775696285
ம@@ 0.7619148412645356
์ 0.003733557244290667
Ṣ@@ 0.6355448724418047
Ṭ@@ 0.8393425663802314
∆ 1
と@@ 0.9519323440496378
ク 0.3963985260057475
ダ@@ 1
吉@@ 0.011126621896544415
川@@ 0.03060756555902002
戦@@ 1
族@@ 0.031151790600337577
部 0.0023670812903170474
마@@ 1
시@@ 1
안@@ 1
Anh 0.009019782477565845
Bắc 0.014888704783540851
However 0.0018266544141995228
Juli 0.003763585723989645
Mundial 0.00932511318477211
Nguyên 0.04165951842925814
because 0.002102315397949426
beit@@ 0.03866234540100005
came 0.0027248274076693063
children 0.0022549750546339248
como 0.00048576315958544865
consider@@ 0.0017862493340995334
cré@@ 0.002236942580801855
experi@@ 0.003724072838741939
fuat@@ 1
fäl@@ 0.0075764662351777345
klär@@ 0.00710602714984818
mehr 0.0027589016956808513
north 0.002519615118247703
record@@ 0.0027892704743919007
route 0.003928735884751725
sau 0.004380355215981761
several 0.0014458126135984946
stellung 0.004252658984655802
thị 0.007810785117266666
Í 0.4869850369333039
ército 0.008895890630945535
÷ 0.7297294985075852
Č 0.8586604672904437
į 1
˥ 1
Ξ@@ 0.08136574523052803
άγ@@ 0.016402520644233025
επ@@ 0.0061932182637286495
οι@@ 0.019447304951476823
τέ@@ 0.011343148704423635
Ди@@ 0.005940735736391794
Кон@@ 0.006630617464159479
Крас@@ 0.006973191539593149
Чи@@ 0.015973567704385943
ате@@ 0.0024936820077817038
вый 0.003686610806196978
гра@@ 0.0018948550691232024
дин 0.01849358261911194
ников 0.0033597942167064524
ня 0.003960102563591514
она@@ 0.004120798594129508
ран 0.013192826791686351
стан@@ 0.0046203828503889235
сты@@ 0.005588688642760828
фо@@ 0.0034773505853432614
ции 0.0008184499086298988
шо@@ 0.007650160088062481
չ@@ 1
ץ 1
الل@@ 0.02403754002572676
الي@@ 0.014043319568355505
بار 0.04233426044008715
بار@@ 0.022682100053878818
را 0.04195570011953262
عه 0.10942160624863248
مال 0.04729610508783015
وان 0.08853860842949175
ولاية 0.06799354542933952
र@@ 0.004340393547055382
ᐅ@@ 1
ᕐ@@ 1
ស@@ 1
ḏ@@ 1
ḗ 1
ṯ@@ 1
Ἄ@@ 1
イ 0.2895787281490021
ョ@@ 1
合@@ 0.00461647655609537
女@@ 0.005861100324833908
寺 0.02041683890915271
後 0.0024126474583913175
拉@@ 0.003849902475031661
校 0.0072890374349862935
군 1
비@@ 1
여@@ 1
재@@ 1
𐰇@@ 1
Guinea 0.018111639184641523
Produk@@ 0.006658673476830452
Văn 0.020907682306557138
alten 0.004709044782641621
cito 0.11669577266028507
contra 0.004225821093888921
cours 0.0028785516293071823
droit 0.008504057780623249
endant 0.003235757952337284
erten 0.003589311514269676
langu@@ 0.009562854108107132
llev@@ 0.005219648923788829
monum@@ 0.005580910793094328
occas@@ 0.004448814107092632
osos 0.00844782846299597
puer@@ 0.011505505623690921
religi@@ 0.003787663016199894
rement 0.00436384401152392
situ@@ 0.001999268741278289
suite 0.0035858249818040066
zili@@ 0.2462011457011543
zuri 0.44124361177609467
Î 1
ây 0.029101753343141325
ông 0.0025625105629045212
ʊ 1
ʾ 0.4893814184489202
Β 0.02422002267646634
Παρ@@ 0.020069033108708275
Τζ@@ 0.02114819994196235
ίου 0.00977058392542751
αστ@@ 0.012384677794042214
ιστ@@ 0.010798715341261584
μαν@@ 0.03186057024858907
ξι@@ 0.03804676159771477
ογ@@ 0.016849185296632367
οκ@@ 0.01959114286073532
πα@@ 0.03245402493746907
τικός 0.040310474530144615
Гу@@ 0.008869111140054054
Иван 0.016297209356840224
Мак@@ 0.008694476005672509
анд@@ 0.009836746505704676
бе 0.005346022989629596
ву@@ 0.006351092633447343
кая 0.009508387643569753
кра@@ 0.0022818119989615093
кто@@ 0.0036745409309971236
лена 0.007621870509255804
мм 0.008357739330197712
од@@ 0.0018596229020122804
стра@@ 0.0017515852251715142
Լ@@ 1
է@@ 1
ց 1
احمد 0.10778984417866176
تور@@ 0.13046227247137893
جن@@ 0.01707499313874491
رض@@ 0.05965892556059577
سان 0.06547556967149644
طف@@ 0.10541777394650664
فة 0.01794652246153321
فی@@ 0.04361043350998341
مج@@ 0.016952091305068945
وت@@ 0.007049372894975474
یر 0.06263667808422388
त 0.0037697166539926727
த@@ 0.5301042871323323
ு@@ 0.5499673074835137
አ@@ 1
ử 0.016868239502831783
ὀ@@ 1
ῦ 0.5854151045835998
₩ 1
↔ 0.544903753419959
∧ 1
あ@@ 1
り@@ 1
ェ@@ 1
メ@@ 1
六@@ 0.009727122501617051
宗@@ 0.015154719303550203
居@@ 0.01165941736157274
州 0.002896630403109945
徳@@ 1
村 0.008758394379194961
法 0.003243916301285942
神 0.01657488809175996
突@@ 0.020640943880532385
經 0.010031882909380717
若@@ 0.04053490649474177
長@@ 0.3917768391554563
지 1
， 8.598231295509186e-05
Mais 0.007933730033751068
Meister@@ 0.007514808436761977
alre@@ 0.003988525356918622
built 0.0016503678336468506
charg@@ 0.0044393746349998915
comme 0.0010321055958996482
const@@ 0.007342279343184032
distribu@@ 0.0042027543660738504
empe@@ 0.0079045213786989
fut 0.0022739604728162608
ghi 0.02250246449951351
gradu@@ 0.002304637189123046
gén@@ 0.01001690802418922
maji 0.2581217189110376
military 0.00303211487947448
onship 0.0033493995907192143
seph 1
succ@@ 0.0023216247239852238
woh@@ 0.0060287891465285815
zwei 0.001651287455143386
Ţ@@ 0.8221032813272545
ɲ@@ 1
ʕ@@ 1
Επ@@ 0.03970479513030773
Καρ@@ 0.035321865182906774
Χρ@@ 0.06549556720776882
ηλ@@ 0.02206988674704039
ησ@@ 0.0948106249419213
ιά 0.03067475095650198
κας 0.04414748369057872
οσ@@ 0.014795576474954853
ρε@@ 0.013089034516707494
ρκ@@ 0.03145631843491077
ρυ@@ 0.05012654449527545
Ри@@ 0.005969189398232192
Ше@@ 0.015035620289943923
ати@@ 0.003339252940996192
бай@@ 0.01241267574610256
вин@@ 0.008423638543291489
года 0.00038090615742202044
град 0.010645699766624455
дия 0.008379035253129418
жа 0.0058404516810477225
зи 0.010402454615787735
зя@@ 0.010475629789774354
ите@@ 0.005796554049396323
лин 0.012277862099853232
нато@@ 0.014454326996709491
образ@@ 0.007039300438935139
пер@@ 0.0011659002991358729
рат 0.012317526014177065
сп@@ 0.005666481735132894
ђ@@ 1
ј 1
Դ@@ 1
ջ@@ 1
փ@@ 1
և@@ 1
باش@@ 0.06658009413729685
سي 0.01782966421518807
لو 0.0509846184846182
مسجد 0.11317593791045623
والی 0.08884032647465359
وری 0.07069312960186414
کی@@ 0.021450939817111266
ᑦ 1
ḡ@@ 1
ṓ@@ 1
ṭ 0.6973457869200834
₹ 0.2772553301075461
↑ 0.6160049656741824
⊕ 1
し@@ 0.7206379883569253
ま@@ 0.9326126839305492
ら@@ 1
不@@ 0.0016613059712338913
九@@ 0.010757556710018677
会 0.003069364344618277
元@@ 0.008001801305388842
城@@ 0.007822285278402315
年@@ 0.003996643635036702
方@@ 0.005442349315590455
木 0.02701718402358248
江@@ 0.008252093201251231
法@@ 0.0036040707737456236
湖 0.019821480717228748
王 0.007581762032253752
百@@ 0.011263266112891069
空@@ 0.008555210796329931
英@@ 0.003737314628270903
道@@ 0.00993467127929162
部@@ 0.005547036459687438
長 0.0032758758976634992
남@@ 1
도@@ 1
사 1
시 1
은 1
ammen@@ 0.010093440757093269
become 0.002592726336878032
conduc@@ 0.0032194294610809306
contre 0.001971437745547133
declar@@ 0.003852693008893139
enfants 0.008089312572731296
ensemble 0.0055144204111033475
etc. 0.00795410294451267
incorpor@@ 0.004292596950374048
khai 0.029881633751381295
marqu@@ 0.004847478823577537
material 0.004775610069764089
produced 0.0025104648064111393
proxim@@ 0.005795586348480215
père 0.005541631433475054
trä@@ 0.003559881030383419
¾ 0.40428134434444746
Ä 0.49538865515193414
Ét@@ 0.02222653374561314
ʁ 1
ʒ 1
Π 0.16802856150187412
Ψ@@ 0.13796903021278764
εία 0.0089226259463561
καν@@ 0.01854747896168336
μά@@ 0.013427081951336305
μι@@ 0.023345231104301437
μφ@@ 0.031018727765553623
οπο@@ 0.02408348414689919
οχ@@ 0.021651139784300912
ση 0.004983171195269383
τε 0.026317570134203074
Ак@@ 0.01543307381231374
Пер@@ 0.003148361888430481
Пу@@ 0.00810883346771968
Ы 0.4968333581415869
ара 0.016585618733498526
бан@@ 0.007489390370185171
государствен@@ 0.0059824967607920105
дов 0.002699218717676633
ек@@ 0.0033723389934845168
лова 0.017078086381445746
мат@@ 0.0022676459506117564
мов 0.005950484574270971
раз@@ 0.0010912035773050451
сло@@ 0.002006451185006279
тро@@ 0.0037383843996425443
уни@@ 0.00635881719431879
ҳ@@ 1
բ 1
տ 1
ז 1
ט 1
ף 1
آب@@ 0.12957420026372846
الو@@ 0.016941037807817007
دا 0.033322411005506036
عث@@ 0.10529956023657219
نق@@ 0.026147117457601784
نه 0.09639253055717448
وار@@ 0.03395940728103139
র 0.6717829594114755
স@@ 1
። 1
き@@ 1
ケ@@ 1
ビ@@ 1
一 0.004866866024663694
四@@ 0.0039848841592499675
教 0.006189478525066491
明@@ 0.006071359126835784
馬@@ 0.014599096662817616
고@@ 1
바@@ 1
수 1
에 1
연 1
자@@ 1
주 1
화@@ 1
Sohn 0.004481753911593595
ationen 0.003780508252179179
autre 0.0039045268511660345
capac@@ 0.0037742281211047965
clas@@ 0.004331282181453365
connu 0.0066136571912080635
construction 0.002333632840501954
cultur@@ 0.007449134901202561
có 0.0008470597070968772
estim@@ 0.0033314221568885184
familia 0.003634783390178246
government 0.001448421491271409
gran 0.003398061104143247
historia 0.005705458141082467
hô@@ 0.00807288192512543
important 0.0025152731421146926
kuli@@ 0.09966639746402724
lichkeit 0.00596129766775871
mbal@@ 0.26468200173190365
präs@@ 0.006077025470189278
sont 0.000622336371490348
tanto 0.005165622081044503
trai 0.026519190376046227
trois 0.0024959575515135445
voll@@ 0.006612055478850406
wegen 0.004515430502943232
wirt@@ 0.004198544989449926
yao 0.14476112660999926
ŝ@@ 1
ɕ 1
̆ 1
Μά@@ 0.03713287790363259
αβ@@ 0.026708137553701886
αθ@@ 0.01431482421216194
ετ@@ 0.016113840473728363
θέ@@ 0.01526527731542961
ιλ@@ 0.01290455336509679
λογ@@ 0.022617489454467968
μου 0.04949741377001818
οί 0.013602797664262003
την 0.001199713867950629
όπ@@ 0.0206057625187898
ών@@ 0.00991068261893635
Бер@@ 0.0066610426297397645
Гра@@ 0.011415369291633868
Зе@@ 0.016337547834469484
Фе@@ 0.008214282749325562
Ц 0.042419579685598355
Ч 0.07648318744601511
Ш 0.06760418095492352
Э 0.028847704652967363
вар@@ 0.00437218259557462
джа@@ 0.013438864166560713
имени 0.007939267045275561
каз@@ 0.005826487315378807
нь 0.006021094043360368
рис 0.017022933687194756
рус@@ 0.003167971557433762
тя@@ 0.0035381106125348854
цо@@ 0.0038687754681374325
խ@@ 1
تم@@ 0.00841990053465509
تی@@ 0.03604059026486737
سر 0.032387293317755424
سی 0.032473969326753456
فار@@ 0.04979986954212779
مد 0.09459042087531767
منطقة 0.04414814468990033
ني@@ 0.011866628819208018
द 0.004149841944152767
प 0.0017037132773222113
स 0.001960851495513887
ল@@ 0.7462947192340554
ન@@ 1
่ 0.013111123720145921
ᒃ 1
ラ 0.29794778259708105
博@@ 0.008806275279779544
台@@ 0.008472025221450338
團 0.011167582975210496
後@@ 0.004761704756768527
漢@@ 0.020694791408342406
產@@ 0.011233828752700258
真@@ 0.012589955720940656
草@@ 0.026794636690636475
軍 0.006182856474810816
通@@ 0.0052680191947990914
里@@ 0.0062706639949423
강@@ 1
대 1
랑 1
선 1
제@@ 1
화 1
𐱅@@ 1
Sie 0.0014663493561215693
aliza 0.014618022405581028
canción 0.007008361553960112
europé@@ 0.005827135005113502
fér@@ 0.00475537267346643
institu@@ 0.0027067877131438057
joint 0.004610517615307491
kundi 0.17755359968047887
mehr@@ 0.004304214824160218
mise 0.006231296241114243
municip@@ 0.0039107341363317635
nouvelle 0.0049206091258882445
parte 0.0017082067676540572
pein@@ 0.006457753910849217
perman@@ 0.0038828287368522455
provincia 0.006796284335407759
similar 0.002749700536042135
soll 0.006546275948873363
änder@@ 0.004709502101916937
ǵ@@ 1
ʹ@@ 1
̄ 0.5741483141182919
Κυ@@ 0.049789211092923905
Με@@ 0.023867657727810854
Παλ@@ 0.052454710886257555
ημ@@ 0.012880070702076264
ιμ@@ 0.025933676880720354
τας 0.031171920798628346
υγ@@ 0.01916533298035442
όσ@@ 0.013421228897432847
ύρ@@ 0.04515569495118594
Й@@ 0.021079759689686624
Кра@@ 0.01722935592140151
Лю@@ 0.006923144320361002
бер@@ 0.004332186137734783
гар@@ 0.007193991858891671
ден@@ 0.0018686321492465327
дор 0.01793190531562865
ис@@ 0.003252194678439372
лина 0.007305819376219508
обо@@ 0.002866304501921089
осу@@ 0.00526017431101612
пра@@ 0.003518859156261751
сан@@ 0.012771804047510774
сов 0.00356753817409473
сте@@ 0.0020107560924829643
юр@@ 0.009271649180015691
ён@@ 0.001772945738494287
џ@@ 1
Խ@@ 1
اور@@ 0.054524382233201635
تح@@ 0.008206013558670216
جه@@ 0.03669479728322759
حر@@ 0.028559872007881907
زا 0.06769369516465075
زی 0.08783959293805516
عد@@ 0.02367185333147685
كي 0.03573829585187377
له 0.02003353247687841
وار 0.03532644964439755
ې@@ 1
म@@ 0.005257870402750989
ಾ@@ 0.9174983852800476
ገ@@ 1
ុ@@ 1
ọ 0.019499940882002846
■ 1
う@@ 0.9032695188799549
た@@ 0.7513579705542291
セ@@ 1
ハ@@ 1
三 0.010020468161758157
世@@ 0.006823443640446227
产@@ 0.008597910556193421
国 0.0029741640817133237
奴 0.08830323052220795
張@@ 0.015760437682224085
我@@ 0.01775696384871617
朝@@ 0.012463481425706961
鮮@@ 0.09822562350843234
는 1
니@@ 1
다@@ 1
레@@ 1
세@@ 1
엔@@ 1
터@@ 1
현 1
（ 0.0004890288976178153
Menschen 0.005673431146460764
Trần 0.029998557984419194
Tây 0.010284412723037905
appel@@ 0.004623147697951278
cuer@@ 0.006280390208619841
etwa 0.002036803478251984
icklung 0.005404058262320849
jeu 0.006148962051226479
kommen 0.004621659049156214
ported 0.001854761065327555
professi@@ 0.001743566684700745
sinh 0.005395274982086669
teil@@ 0.0025163716382752715
wür@@ 0.005046452593335938
¬ 0.6524101974117972
änge 0.005575866703250105
ôle 0.009899092608666747
ĭ 1
Œ@@ 0.03431939416622074
ǫ@@ 0.5434791042269209
ʋ@@ 1
ʽ@@ 0.8386575158715923
Ιωάν@@ 0.044886598839054395
άμ@@ 0.03433268534766839
έα 0.02703842183108923
ίλ@@ 0.01655390549232482
απο@@ 0.005060483179000277
βι@@ 0.015611941574604035
γκ@@ 0.005644151827324603
ιρ@@ 0.031076761645968686
κυ@@ 0.02594813285160557
πε@@ 0.02398414214815156
ροι 0.07247956312322665
ται 0.013625672944453247
τζ@@ 0.02555217965448036
τός 0.048162971973450874
υρ@@ 0.019717756385038355
Вер@@ 0.0048624336761553056
Дж@@ 0.004488820318287627
Из@@ 0.004664313123313252
Ли@@ 0.003225026013090518
Ши@@ 0.012292457288449942
Щ@@ 0.01821427775856288
бал@@ 0.011003143501874549
боль@@ 0.0018362368895532327
вой 0.0011018686005808507
зу@@ 0.0041134001747400286
кан@@ 0.0029451479660849295
мо 0.0042725448314199456
мы 0.0018828506555590347
ня@@ 0.0017235152141960642
санд@@ 0.07604922823945358
фе@@ 0.0021526676541848747
хи 0.008691778972381634
че 0.003314640411773927
ёр@@ 0.003332192926916702
Զ@@ 1
լ 1
ձ@@ 1
ؤ@@ 0.015654104016923246
اری 0.040744770088170526
الدین 0.10013072593324374
الغ@@ 0.013314611455364491
المست@@ 0.023870556046903482
تب@@ 0.01530872625345372
ربي 0.04640557815067285
رين 0.02078398527149331
عمر 0.044527198369711384
كور@@ 0.0687499455326514
ما 0.006295291299859862
مط@@ 0.034495354803754985
ܠ@@ 1
म 0.004329832721441483
ර@@ 1
ි@@ 1
น@@ 0.001937488340907135
မ@@ 1
ᑐ@@ 1
Ṫ@@ 1
ẓ@@ 0.7869804470084864
ᾶ@@ 1
― 0.04190372740223138
∩ 1
► 1
さ@@ 0.9448699410791546
ん@@ 0.7808640186638608
ム 0.6426727317787853
勒@@ 0.016348826842781144
朱@@ 0.01988346930564353
水@@ 0.004242189614902033
火@@ 0.01011285056883913
立@@ 0.006933860086870662
組@@ 0.007954080339583638
門 0.009142497397636836
鞮@@ 1
가 1
니 1
무@@ 1
서@@ 1
의@@ 1
진 1
해@@ 1
ﺎ@@ 0.3122161914276469
Thái 0.01329701672037433
Weit@@ 0.004444145031345478
adamente 0.009408443392241783
après 0.0014761739198317543
auté 0.005130283179195128
created 0.0022731389351532114
east 0.002502322377148568
embre 0.0037049752358044464
kilom@@ 0.006666679984241396
kush@@ 0.22676464994061685
lý 0.00734978575704621
medio 0.007163373118757399
otros 0.00270731597686314
pueblo 0.00801004006108065
río 0.005519747893722652
secre@@ 0.004933935084394653
seine 0.0012628463347643425
toba 0.9521419284494725
trieb@@ 0.004291455686560392
È@@ 0.12927476277217304
écn@@ 0.00797993246278634
ình 0.029493276585561744
ũ@@ 0.04802261575296493
ʂ@@ 1
˩ 1
̑ 1
̲ 1
Περ@@ 0.045348649794655256
έκ@@ 0.014700620841041213
ήλ 0.06413413176458163
ήσ@@ 0.032312895177810934
γεν@@ 0.013855793305130782
εσ@@ 0.05181864479932785
ιδ@@ 0.024254107506898315
με 0.0012768270791533966
ού 0.0048173146806681595
ριστ@@ 0.026556065060378043
ρύ@@ 0.04237962309782453
τή@@ 0.06174424464267363
τι 0.015079373617085279
τρι@@ 0.02117269412752444
υν@@ 0.023761173595181997
χος 0.062084623785369795
Бело@@ 0.009579376409933955
Дже@@ 0.006505245466646666
Кри@@ 0.008361520630111608
На 0.0017364994701786335
Ху@@ 0.013959105633563812
аб@@ 0.011668254870107017
ван@@ 0.002773872837968507
ме 0.0015505212669178203
нал 0.008620430558248227
национа@@ 0.0040916423408451025
рал 0.01628273256757445
рин 0.01841474259309294
ственный 0.007362624007479884
съ@@ 0.0023825343522186765
тия 0.003898147872841416
чо@@ 0.012724361194037439
шен@@ 0.004837018886705057
ё 0.003185406300514205
ї 0.47891790022342234
Ք@@ 1
ը 1
յ 1
ׂ@@ 1
ء 0.013743770721562265
أم@@ 0.020539480218746457
اص@@ 0.01496929262380583
افغانستان 0.25450968920771566
الرحمن 0.1616441892433843
اله@@ 0.010892969310718103
تق@@ 0.007304424985166106
خوا@@ 0.10562301287166628
سور@@ 0.07571526233901472
سید 0.10607379541372343
شو@@ 0.06516037064017093
كر 0.04650438349804831
مال@@ 0.04477814679192686
وس 0.03286167004063422
ٱ@@ 1
گن@@ 0.13717222187387015
یم 0.08767975668587685
জ@@ 1
ર@@ 1
ச@@ 0.6967341129398267
ා@@ 1
ჟ@@ 1
ក@@ 1
ịnh 0.017209164573603865
く@@ 1
れ@@ 1
を@@ 1
ベ@@ 1
东@@ 0.004053923821887167
原@@ 0.0034317955498030053
央@@ 0.02093652970346247
學@@ 0.0028593474567589895
摩 0.06871361264466855
玉@@ 0.02344391484123179
第@@ 0.0033879515187689078
米@@ 0.010546614280287244
美@@ 0.00367395628510098
設@@ 0.005679547066826764
龍 0.013936972529777743
龍@@ 0.017249525902506897
부 1
상@@ 1
어@@ 1
오@@ 1
일@@ 1
호 1
During 0.0014418501997436467
Dương 0.015922450860029524
Esta 0.0057088373929036745
Hoàng 0.015251301811331382
amerikan@@ 0.0033773285177350386
autor@@ 0.0028693527637460225
besch@@ 0.002077510347138556
cause 0.003898377784424122
compet@@ 0.00284174460018618
complet@@ 0.0017234027778527529
constitu@@ 0.0015177837598445078
elte 0.003395270380170875
entre@@ 0.0040165511339418924
govern@@ 0.0032812103197557996
[...]
