ya 1
. 1
wa 1
na 1
, 0.8297267169552469
katika 1
kwa 1
ni 1
ku@@ 1
&quot; 0.7904186064075932
m@@ 1
la 1
) 1
( 1
za 1
i 1
M@@ 1
a 0.7343123896141388
u 1
ia 1
k@@ 1
u@@ 1
am@@ 1
w@@ 1
ak@@ 1
o 1
K@@ 1
U@@ 1
kuwa 1
cha 1
mwaka 1
kama 1
ali@@ 1
j@@ 1
yake 1
ki@@ 1
@-@ 0.5013633632603235
h@@ 1
in@@ 1
an@@ 1
ana 1
n@@ 1
W@@ 1
ani 1
z@@ 1
a@@ 1
ik@@ 1
hu@@ 1
y@@ 1
af@@ 1
o@@ 1
N@@ 1
p@@ 1
um@@ 1
ch@@ 1
at@@ 1
nchini 1
al@@ 1
: 1
H@@ 1
as@@ 1
it@@ 1
ili 1
ili@@ 1
im@@ 1
ini 1
ama 1
b@@ 1
ut@@ 1
isha 1
Ki@@ 1
ung@@ 1
B@@ 1
ali 1
au 1
aji 1
ano 1
v@@ 1
ah@@ 1
S@@ 0.8690465950599559
un@@ 1
ad@@ 1
T@@ 1
f@@ 1
uli@@ 1
ari 1
ika 1
ma@@ 1
mw@@ 1
ab@@ 1
aj@@ 1
kutoka 1
il@@ 1
wan@@ 1
i@@ 1
ot@@ 1
us@@ 1
ar@@ 1
D@@ 1
vi@@ 1
kwenye 1
ang@@ 1
t@@ 0.987503543171531
L@@ 0.9341966091239812
ek@@ 1
wake 1
J@@ 1
pia 1
wali@@ 1
lugha 1
A@@ 1
e 1
ina 1
zaidi 1
vya 1
watu 1
s@@ 0.6367487339979762
kati 1
sh@@ 1
iki 1
ea 1
alikuwa 1
el@@ 1
ny@@ 1
&#91; 1
&#93; 1
ish@@ 1
R@@ 0.9131190992831798
I@@ 1
wak@@ 1
aw@@ 1
d@@ 0.9474788883853256
az@@ 1
mji 1
amb@@ 1
om@@ 1
ua 1
oni 1
; 1
mi@@ 1
mak@@ 1
Mto 1
ir@@ 1
ishi 1
uk@@ 1
P@@ 0.8235724948472256
aka 1
zi 1
awa 1
on@@ 1
e@@ 0.8851618395818379
kum@@ 1
en@@ 0.7376313527369225
ilikuwa 1
zo 1
kwanza 1
mwa 1
iko 1
ap@@ 1
is@@ 1
ok@@ 1
l@@ 0.866946823904482
Kwa 1
mat@@ 1
nchi 1
hii 1
ig@@ 1
yo 1
ag@@ 1
ha 1
Tanzania 1
aa 1
ao 1
eo 1
kut@@ 1
ka 1
moja 1
pamoja 1
amu 1
ing@@ 1
hadi 1
wakazi 1
g@@ 0.7204821151243685
G@@ 0.7572818635861724
miaka 1
asi 1
up@@ 1
li@@ 1
Mwaka 1
azi 1
iwa 1
r@@ 0.648417617488501
ha@@ 1
jina 1
si 1
kus@@ 1
&apos; 1
Afrika 1
wakati 1
iri 1
po@@ 1
ur@@ 1
ach@@ 1
av@@ 1
Ali@@ 1
E@@ 0.8552990565408184
juu 1
V@@ 1
os@@ 1
Kenya 1
ati@@ 1
isi 1
and@@ 1
lakini 1
huko 1
ul@@ 1
da 1
abu 1
Z@@ 1
kata 1
ji 1
tarehe 1
ara 1
asa 1
uni 1
em@@ 1
O@@ 1
mara 1
ug@@ 1
F@@ 0.6231878869486
mto 1
an 0.3231440797269055
ji@@ 1
ich@@ 1
ima 1
ishwa 1
hiyo 1
kit@@ 1
C@@ 0.5651202892611129
aba 1
ndani 1
mnamo 1
mwan@@ 1
Y@@ 1
kazi 1
ba@@ 1
ati 1
ambayo 1
ala 1
eza 1
Ch@@ 1
Bahari 1
uz@@ 1
ti@@ 1
et@@ 1
hi@@ 1
we 1
wat@@ 1
anz@@ 1
ata 1
idadi 1
anya 1
mas@@ 1
kubwa 1
aki 1
imbo 1
eneo 1
Mkoa 1
uma 1
ita 1
ta@@ 1
Katika 1
uh@@ 1
anza 1
ub@@ 1
or@@ 0.6866695257716916
.@@ 1
bu@@ 1
ol@@ 1
mt@@ 1
Kati 1
sana 1
Mar@@ 1
Maji 1
sehemu 1
hatimaye 1
op@@ 1
eni 1
kim@@ 1
if@@ 1
any@@ 1
hi 1
nyingi 1
yao 1
kup@@ 1
maj@@ 1
baada 1
oto 1
wal@@ 1
mkoa 1
kwamba 1
idi 1
ari@@ 1
ema 1
th@@ 0.7342365249233935
chini 1
una 1
kundi 1
oma 1
of@@ 1
id@@ 1
Marekani 1
wana@@ 1
we@@ 1
ambao 1
Wilaya 1
Al@@ 1
ong@@ 1
mb@@ 1
apo 1
uch@@ 1
ja 1
iti 1
Wa@@ 1
wenye 1
be 0.9670430773552574
umu 1
eli 1
tu 1
huo 1
bu 1
ile 1
ai 1
di 1
unapatikana 1
esh@@ 1
au@@ 1
hasa 1
kuf@@ 1
adi 1
unga 1
hivyo 1
mp@@ 1
Kusini 1
2 0.9338463759844826
ogo 1
3@@ 1
ng@@ 1
y 0.16826739490226017
anga 1
iz@@ 1
de 0.05967010672641049
bi@@ 1
aweza 1
du@@ 1
oa 1
mkuu 1
1 0.8564751079961289
eng@@ 1
uf@@ 1
uo 1
timu 1
ib@@ 1
ar 0.5444089858948491
es@@ 0.7667631052001808
usi 1
har@@ 1
ale 1
yanaishia 1
oh@@ 1
itwa 1
di@@ 0.6099432540065618
ba 1
ezo 1
ada 1
fu@@ 1
er@@ 0.3577446115511537
imu 1
kawaida 1
sensa 1
sababu 1
kuj@@ 1
weza 1
fu 1
ko 1
eka 1
ye 1
mbalimbali 1
- 1
Baada 1
ri 1
4@@ 1
isiwa 1
yote 1
kur@@ 1
us 0.6354233586854355
Sh@@ 1
on 0.19162189570549887
ira 1
tu@@ 1
ote 1
yenye 1
Kik@@ 1
andi@@ 1
kik@@ 1
map@@ 1
od@@ 1
Uganda 1
al 0.23999652968870377
wen@@ 1
wah@@ 1
zin@@ 1
si@@ 0.8086892393546243
kin@@ 1
wasemaji 1
do@@ 1
Kis@@ 1
Kim@@ 1
ongo 1
was@@ 1
kil@@ 1
huu 1
und@@ 1
mab@@ 1
hut@@ 1
Wak@@ 1
5@@ 1
namba 1
zake 1
gen@@ 1
og@@ 1
me@@ 1
Mashariki 1
kaskazini 1
ta 1
yo@@ 1
endelea 1
3 0.9283231034414592
wengi 1
wilaya 1
ind@@ 1
Kil@@ 1
ambu@@ 1
kila 1
sa@@ 1
man@@ 1
kaunti 1
Kit@@ 1
An@@ 0.9993378179790655
mad@@ 1
irika 1
iliy@@ 1
wa@@ 1
KK 1
vile 1
maji 1
alizaliwa 1
ikia 1
uzi 1
in 0.05850066398842793
6@@ 1
ambo 1
po 1
5 0.9640496006075959
eti 1
ath@@ 1
eno 1
ob@@ 1
kuu 1
is 0.1659640828817913
ingine 1
bahari 1
chi 1
una@@ 1
lin@@ 1
yan@@ 1
ambaye 1
bar@@ 1
be@@ 0.7185549137209316
s 0.20188135387483636
hali 1
Kufuatana 1
aliwa 1
eb@@ 1
hal@@ 1
alit@@ 1
wapatao 1
lake 1
uainishaji 1
m 0.6791080981145321
Wakati 1
waf@@ 1
kabla 1
uliwa 1
mah@@ 1
ri@@ 0.9977582938628317
Mungu 1
adi@@ 1
iliyofanyika 1
2012 1
am 0.7295571860091254
Mak@@ 1
Mnamo 1
ume 1
siku 1
isi@@ 1
aina 1
iki@@ 1
vy@@ 1
ud@@ 1
ih@@ 1
magharibi 1
amba 1
kuto@@ 1
vit@@ 1
ev@@ 1
/ 0.7405443057840698
Kanisa 1
isho 1
umb@@ 1
umia 1
4 0.9147416711451717
Kristo 1
aifa 1
ania 1
kul@@ 1
kuna 1
Ma@@ 1
inayozungumzwa 1
eshi 1
upande 1
io 1
Ni 1
fa 1
apa 1
uta 1
karne 1
ay@@ 1
ki 1
mbili 1
ambapo 1
maz@@ 1
Uingereza 1
kusini 1
Kib@@ 1
indi 1
izi 1
dia 1
udi 1
iv@@ 1
ubwa 1
adil@@ 1
pe@@ 1
njia 1
oliki 1
akiwa 1
muziki 1
imehesabiwa 1
ej@@ 1
ne 0.8135117630265158
Ny@@ 1
kan@@ 1
atu 1
uka 1
dhidi 1
do 1
olewa 1
undi 1
ep@@ 1
Naili 1
eg@@ 0.8007330842399769
ikiwa 1
d 0.327058389219126
7@@ 1
kw@@ 1
iriki 1
mo@@ 1
wani 1
andishi 1
emb@@ 1
In@@ 0.907330127647023
Ku@@ 1
inayo@@ 1
afu 1
tena 1
h 0.7513477641727456
ge 0.9175908747925777
ona 1
ajili 1
karibu 1
cheza 1
ash@@ 1
maf@@ 1
yewe 1
aliy@@ 1
inahusu 1
tofauti 1
Kin@@ 1
taifa 1
er 0.1299302149218305
Papa 1
muda 1
ez@@ 1
jimbo 1
uru 1
hak@@ 1
inga 1
ov@@ 1
endo 1
iliyo@@ 1
end@@ 0.9561386403459369
umi 1
aja 1
filamu 1
fuata 1
Mat@@ 1
sasa 1
ush@@ 1
mtu 1
Makala 1
ilit@@ 1
umba 1
nyingine 1
zinaz@@ 1
ai@@ 1
ham@@ 1
olojia 1
ame@@ 1
ef@@ 1
hata 1
hin@@ 1
ota 1
inay@@ 1
le 0.16055617111977052
es 0.11377240162158654
tangu 1
ane 1
wote 1
wao 1
mil@@ 1
– 0.45127347839641074
mmoja 1
jiji 1
awala 1
serikali 1
kua 1
kis@@ 1
kadhaa 1
6 0.9196881865562516
pili 1
mashariki 1
hili 1
ezi 1
kutokana 1
ra@@ 1
humo 1
lil@@ 1
hivi 1
du 0.3259375472511287
elekea 1
hat@@ 1
nafasi 1
eh@@ 1
Kaskazini 1
lia 1
anda 1
pa 1
dh@@ 1
wanja 1
ifu 1
uu 1
ilia 1
Kir@@ 1
wengine 1
kuliko 1
ingi 1
7 1
de@@ 0.5602191508825047
mag@@ 1
mit@@ 1
hilo 1
umika 1
ziliz@@ 1
Tar@@ 1
okea 1
tatu 1
Tangu 1
Kongo 1
20 1
re@@ 0.16506661755674887
ras@@ 1
maisha 1
refu 1
onekana 1
huri 1
&amp; 0.9383300710169882
asili 1
Mw@@ 1
kij@@ 1
esha 1
&#124; 1
aliye@@ 1
jini 1
Chuo 1
cho 1
wezi 1
imb@@ 1
alipo@@ 1
ye@@ 1
ful@@ 1
um 0.5316894219745767
ro@@ 0.5393316286207348
Mji 1
kon@@ 1
ow@@ 1
unda 1
mich@@ 1
el 0.12324047317378675
kuhusu 1
aye 1
aya 1
Vi@@ 1
isa 1
ma 1
saf@@ 1
tam@@ 1
eta 1
onjwa 1
chake 1
Mas@@ 1
2@@ 1
baadaye 1
mu@@ 1
duniani 1
ziwa 1
leo 1
ataifa 1
ou@@ 0.9875053556937027
jum@@ 1
x 0.7782336027459421
Sikukuu 1
kuz@@ 1
k 0.4163720101104056
mujibu 1
t 0.15305518913410004
Ar@@ 0.757527830323289
falme 1
umo 1
ho@@ 0.7223982561157082
A 0.5474315276059519
10 1
maeneo 1
mik@@ 1
uri 1
9@@ 1
kea 1
Kig@@ 1
sim@@ 1
tar@@ 1
ndi@@ 1
9 1
linal@@ 1
uv@@ 1
000 1
kub@@ 1
Ulaya 1
uli 1
mash@@ 1
iy@@ 1
kush@@ 1
mkubwa 1
enga 1
ina@@ 1
yak@@ 1
usi@@ 1
mf@@ 1
muhimu 1
ele 1
pan@@ 1
Bar@@ 1
Kiingereza 1
10@@ 1
uza 1
ewa 1
Ufaransa 1
oka 1
“ 0.606956745527162
kam@@ 1
dio 1
nje 1
fa@@ 1
mar@@ 0.7683958799778734
endel@@ 1
shule 1
walio@@ 1
pata 1
Pia 1
mchezaji 1
oz@@ 1
mch@@ 1
ongozi 1
8 0.9098904288258434
san@@ 1
8@@ 1
oko 1
walikuwa 1
pos@@ 0.8953969618677319
kale 1
wany@@ 1
maarufu 1
asi@@ 1
uwe@@ 1
imba 1
imo 1
bila 1
thi 1
ed@@ 0.5658483357616848
ti 1
Hindi 1
kufanya 1
chang@@ 1
mwen@@ 1
se@@ 0.459061876248325
alia 1
yali@@ 1
ofu 1
wango 1
gi@@ 0.9639705853099336
kuli@@ 1
Ujerumani 1
anisha 1
mjini 1
anyika 1
bin@@ 1
of 0.03801728449444595
adhi 1
Eneo 1
19 1
watoto 1
hud@@ 1
wana 1
yaani 1
Magharibi 1
zote 1
hur@@ 1
familia 1
vin@@ 1
pekee 1
kupitia 1
” 1
singi 1
wili 1
hus@@ 1
ing 0.09734794047057173
inda 1
kodi 1
imani 1
to 0.059392724190731744
ungu 1
opo 1
fo 1
ula 1
15@@ 1
atia 1
Kat@@ 1
Mis@@ 1
ishaji 1
enda 1
ana@@ 1
wam@@ 1
aguzi 1
alis@@ 1
kar@@ 1
ino 1
wanawake 1
ababisha 1
umizi 1
Ba@@ 1
zamani 1
en 0.05248801513832741
I 0.8256565554743093
biashara 1
% 0.5346461081315407
and 0.04070095214372869
ke 1
ila 1
kabisa 1
iti@@ 1
Mp@@ 1
The 0.11691989490776959
usu 1
vita 1
12 1
alim@@ 1
julikana 1
Januari 1
Was@@ 1
aha 1
umiwa 1
unzi 1
kid@@ 1
msh@@ 1
ayo 1
ida 1
15 1
angi 1
zili@@ 1
bunge 1
lamu 1
Mei 1
azo 1
klabu 1
ime@@ 1
Kif@@ 1
kutumia 1
wimbo 1
habari 1
ilim@@ 1
tish@@ 1
oro 1
l 0.31229621142948505
wenda 1
ingia 1
lima 1
wala 1
Wakristo 1
waz@@ 1
far@@ 1
Mal@@ 1
ist@@ 0.8915067060315236
mwisho 1
onyesha 1
okana 1
historia 1
elimu 1
ango 1
kamp@@ 1
huwa 1
anzishwa 1
bora 1
apo@@ 1
maana 1
mtakatifu 1
Oktoba 1
chu@@ 1
Japani 1
so@@ 0.6947696890049192
awali 1
bo@@ 0.8025378988770251
alo 1
Italia 1
alif@@ 1
eria 1
alik@@ 1
ask@@ 1
ulikana 1
ako 1
eshimiwa 1
mita 1
mpya 1
kipindi 1
ko@@ 1
p 0.558597476321723
kat@@ 1
ezwa 1
mengine 1
Kikuu 1
iga 1
kun@@ 1
albamu 1
Jam@@ 1
16@@ 0.9194120419562234
ten@@ 0.7167630596216915
enzi 1
Julai 1
hizi 1
Roma 1
BK 1
arabu 1
fupi 1
Juni 1
zao 1
ent@@ 0.2773999551462835
ito 1
ezaji 1
n 0.3050382339413351
ezaliwa 1
kati@@ 1
ku 1
uj@@ 1
sit@@ 1
ambazo 1
uki 1
pen@@ 1
kupata 1
binadamu 1
kuanzia 1
mi 1
engo 1
ehe 1
Man@@ 1
mpira 1
oy@@ 1
air@@ 1
Novemba 1
le@@ 0.2489842433990456
izaji 1
Burundi 1
16 1
Id@@ 1
waishio 1
17@@ 0.7006050042022662
unia 1
mwanam@@ 1
onge@@ 1
aduni 1
opatikana 1
mis@@ 1
jamii 1
18 1
gh@@ 1
jumla 1
mito 1
11 1
umri 1
30 1
lili@@ 1
yanay@@ 1
Machi 1
hayo 1
uko 1
milioni 1
ike 1
Desemba 1
ais@@ 1
uzo 1
uvu 1
Agosti 1
Wan@@ 1
Septemba 1
amii 1
anay@@ 1
2000 1
ikuu 1
ip@@ 1
Maisha 1
ine 0.3765852067367706
1@@ 1
kab@@ 1
bel@@ 1
ado 0.39840941828415477
ongo@@ 1
Wat@@ 1
Aprili 1
huadhimishwa 1
km 1
Mi@@ 1
mfano 1
baad@@ 1
Historia 1
omo 1
New 0.8166614028378554
tr@@ 0.20465286252436163
13 1
wi 1
sa 0.8692752459750129
dogo 1
angaza 1
zuri 1
et 0.09468686354535902
iku@@ 1
migu@@ 1
takriban 1
dunia 1
ingana 1
usawa 1
he@@ 0.6249327549098663
17 1
2014 1
thi@@ 1
omb@@ 1
st@@ 0.16490456242348217
nde@@ 1
Nigeria 1
atifu 1
ant@@ 0.8593149671122859
2007 1
mau@@ 1
egem@@ 1
tiki 1
aki@@ 1
14 1
nd@@ 1
Yes@@ 1
14@@ 1
Febru@@ 1
akini 1
Kid@@ 1
dini 1
ie 0.3222642967760243
to@@ 0.49312111436671247
ais 1
jaw@@ 1
meng@@ 1
Am@@ 1
era 0.7255886367570169
ulia 1
18@@ 0.704796584000042
auti 1
Ab@@ 0.8720934948683601
As@@ 1
su@@ 0.45172274080249847
Sal@@ 1
wach@@ 1
,@@ 1
ony@@ 1
ora 1
elek@@ 1
25 1
aza 1
icha 1
sw@@ 1
isp@@ 1
ii 1
Mor@@ 1
0,000 1
g 0.3774245329883883
Hi@@ 1
Th@@ 0.5260866092152535
as 0.07441839946179037
zwa 1
1,@@ 1
ard@@ 1
isto 1
13@@ 1
hizo 1
the 0.015063865688507653
bi 1
Kar@@ 1
2008 1
2009 1
Mu@@ 1
afa 1
ang 1
ule 1
zi@@ 1
ache 1
gez@@ 1
II 1
21 1
os 0.19672889882438077
at 0.1094170516684259
ato 1
lik@@ 1
2006 1
or 0.14387753256224908
umbo 1
esi 1
kom@@ 1
ain@@ 1
Ur@@ 1
U 1
w 0.4192577348091198
ibu 1
2011 0.9569851711396351
unge 1
gu 1
kuv@@ 1
emu 1
ah 1
bio 1
aga 1
vu 1
’ 0.2795717233900479
sp@@ 0.4686349117414973
her@@ 0.7612714172017835
li 1
ra 0.8403206599897002
izo 1
kisi@@ 1
B 0.9666957792888641
c@@ 0.12394655189006681
2015 1
C 0.7544407146893984
c 0.24307646328122096
24 1
12@@ 1
amo 1
tur@@ 0.6592682263939713
tak@@ 1
aus@@ 0.5768990739488361
vili@@ 1
afr@@ 1
ae 1
M 1
kip@@ 1
ay 0.5335572364742185
X@@ 1
yeye 1
onde 1
Di@@ 0.6896020878902754
wap@@ 1
apatikana 1
amp@@ 1
Tang@@ 1
dok@@ 1
anah@@ 1
ad 0.40395791664530845
ansa 1
ic@@ 0.24487009702191626
ter@@ 0.2839792209869103
shu@@ 1
,000 1
ani@@ 1
vil@@ 1
te@@ 0.3914682839977214
zil@@ 1
Gh@@ 1
kio 1
22 1
ola 1
osa 1
Ser@@ 1
pu@@ 0.978874231283743
un 0.10920692627879194
ac@@ 0.14890952383652759
kilom@@ 1
ge@@ 0.4651294175222653
z 0.33142139638954954
nam@@ 1
undo 1
ortho@@ 1
fi@@ 0.6699323400419049
ed 0.0412074856303105
Kut@@ 1
Amerika 1
Kab@@ 1
x@@ 0.36778652892562347
Mil@@ 1
ate 0.23329293696683684
é 0.16417400596840576
2005 1
est@@ 0.32091357407447924
tab@@ 1
Atlan@@ 1
yana@@ 1
son 0.20888091219683336
23 1
insi 1
Ben@@ 1
aliz@@ 1
Do@@ 1
ikali 1
kor@@ 1
acha 1
pi@@ 0.4878032569508012
uy@@ 1
ke@@ 1
zu@@ 1
Mo@@ 0.7744490638727881
mam@@ 1
Wal@@ 1
0@@ 1
ass@@ 0.35847590790377803
mal@@ 1
Mad@@ 1
atikana 1
te 0.11917170625569443
eye 1
Ang@@ 1
ono 1
Ad@@ 0.678927896244799
2002 1
² 1
il 0.21302394826899876
ilo 1
2010 0.6661455970247335
men@@ 0.6569610891530697
27 1
Shu@@ 1
Br@@ 0.42887184403346607
Gu@@ 0.7999265613321132
Su@@ 1
War@@ 1
Guinea 1
pot@@ 1
ela 1
28 1
Ukr@@ 1
uso 1
ura 1
me 0.5142614178114335
pel@@ 1
b 0.5519205346943663
2,@@ 1
ong 1
Mah@@ 1
ire 0.6181805747427257
sel@@ 0.6467339362457691
Maj@@ 1
mon@@ 0.3894243139819666
Bo@@ 0.5987184471420516
50 1
26 1
bas@@ 0.7673951500634578
= 1
len@@ 1
Mag@@ 1
hab@@ 1
Ng@@ 1
ando 0.7116614153696422
hai 1
El@@ 0.8277660305956202
Wah@@ 1
tun@@ 1
29 1
40 1
lo@@ 0.25592276743197306
Bib@@ 1
St@@ 0.3102963927325394
endi 1
3,@@ 1
2016 0.7886209365745143
rod@@ 1
kana 1
kia 1
uti@@ 1
Tur@@ 1
one 0.20128134165709058
Kor@@ 1
are 0.1648566640559417
ayar@@ 1
Kom@@ 1
jo 1
2018 0.7925760273213418
ori 1
abil@@ 1
ond@@ 1
ph@@ 0.24408173600657385
Paulo 1
angu 1
ru@@ 0.5361376051226552
has@@ 1
Ag@@ 1
ij@@ 1
esia 1
ran@@ 0.5223506240264887
Tr@@ 0.351198542302019
gu@@ 0.45448001795539456
ami@@ 1
kuh@@ 1
Lu@@ 1
ton 0.5044522862199737
20@@ 1
man 0.39546915815153755
Le@@ 0.4449583638790024
2017 0.7845430012476695
Sab@@ 1
ere 0.7496347978932097
100 1
pas@@ 1
T 0.7294757461200242
2013 0.7188585415638443
31 1
bao 1
ulu 1
aliza 1
r 0.4848562296998431
Sp@@ 0.6021278602384521
ers 0.1264622937693828
eri 1
Ru@@ 1
ation 0.07973845761526367
Pe@@ 1
Australia 1
ui 1
2020 0.8426529496183378
ni@@ 0.37228846170288066
gt 0.6486945173913592
lim@@ 1
engine 1
ekana 1
haz@@ 1
tron@@ 1
2019 0.7823401292922942
uba 1
la@@ 0.4653717090419711
lt 0.8723607132752265
Be@@ 0.38191729697392807
ju@@ 1
! 1
afya 1
Kal@@ 1
Mon@@ 0.5715541563032237
K. 1
Way@@ 1
Asia 1
vir@@ 1
mati@@ 1
eme 1
2003 1
br@@ 0.2142320867618715
sal@@ 1
York 0.8276603905262068
2001 1
Gr@@ 0.4783764209978803
ber@@ 0.3667446837237919
John 0.7503556337839968
Kam@@ 1
f 0.2913436601811644
5,@@ 1
kuanz@@ 1
ee 1
jia 1
dal@@ 1
ho 1
udi@@ 1
Co@@ 0.4206612150354469
D 0.5825077575369402
Bur@@ 0.9280756722909285
kari@@ 1
Har@@ 0.9513211435698682
1990 1
say@@ 1
por@@ 0.5414324197829639
ingo 1
land 0.35849579004715204
2004 0.8925451780965622
Ak@@ 1
Car@@ 0.4549177216292019
ak 0.7242483659298781
par@@ 0.19074837815478493
yet@@ 1
ard 0.3380170339711736
no 0.32678216094484575
bia 1
emi 1
ena 1
ast@@ 0.9498808608991183
ikuwa 1
Ir@@ 1
Mus@@ 0.977609127286566
China 1
Pol@@ 0.6163994948791229
Ta@@ 1
Un@@ 0.6936983078854732
amer@@ 1
ashara 1
it 0.09120253551859414
wanza 1
.. 1
amin@@ 1
takatifu 1
yen@@ 1
Gal@@ 1
Re@@ 0.27397424585936897
kol@@ 1
Pr@@ 0.46988886066910934
ne@@ 0.26892283331253813
jerumani 1
Ro@@ 0.5384177438523924
esa 1
dan 1
ungum@@ 1
iger 1
abab@@ 1
O 0.6743947142140323
kr@@ 1
ze 0.6371145898772156
usal@@ 1
min@@ 0.3153348969002096
4,@@ 1
aume 1
met@@ 1
60 1
bara 1
Alb@@ 1
Af@@ 1
Nor@@ 0.5237780888052275
ech@@ 1
war@@ 0.8255518580312591
III 1
aria 1
vid@@ 1
kir@@ 1
fur@@ 1
haa 1
kad@@ 1
Mich@@ 1
lich@@ 1
Maria 1
Or@@ 0.44676984900973254
aur@@ 1
pa@@ 1
Ale@@ 1
ga 1
dar@@ 0.8890571529320968
Hu@@ 1
zen@@ 1
ole 1
pol@@ 0.7694201168373266
ene 0.5655360836321731
Ji@@ 1
San@@ 1
risto 1
Ing@@ 1
P 0.5219200679691187
sin@@ 1
ze@@ 0.9335660474558025
Tab@@ 1
amp 0.4792425385826548
ol 0.6767892786081355
Q@@ 1
80 1
jam@@ 1
id 0.5523134522162817
ou 0.3744214913244283
N 0.779332379185678
all@@ 0.29446545463021395
Tak@@ 1
ger@@ 0.5439009951491018
Kamp@@ 1
Fran@@ 1
prot@@ 0.5692269596629466
ur 0.41672111868607026
oli 1
oo 1
ver@@ 0.10323003863748562
Is@@ 0.8529473569212417
ograf@@ 1
ec@@ 0.1651415264013209
1.@@ 1
Con@@ 0.26416864981174953
R 0.5829107498454288
Wag@@ 1
ingereza 1
och@@ 1
ake 1
0 0.6147763338842173
ew@@ 1
osh@@ 1
Mer@@ 1
oj@@ 1
sam@@ 1
30@@ 1
cho@@ 1
ishia 1
je 1
vo@@ 0.5381853128659663
ley 0.5301550669035429
hay@@ 1
é@@ 0.110751773482629
70 1
Pi@@ 1
1999 0.9560478923226586
Mit@@ 1
Si@@ 0.829864021606347
tay@@ 1
tol@@ 1
Her@@ 0.485464188441204
sil@@ 1
hib@@ 1
Sher@@ 1
bur@@ 0.7665395552803707
ekani 1
Braz@@ 1
Kas@@ 1
Kon@@ 0.7495816880102005
ey 0.6922746168356706
ui@@ 1
se 0.06465212563367122
Kh@@ 1
yas@@ 1
nia 1
ks@@ 1
Indonesia 1
ins@@ 0.5724555272058234
25@@ 1
E 0.5533545185485601
dak@@ 1
kh@@ 0.6727855253120726
6,@@ 1
sum@@ 1
tw@@ 0.8310808030334923
Se@@ 0.38931601697500917
Hak@@ 1
bah@@ 1
-- 1
--@@ 1
Pap@@ 1
Bi@@ 0.8258516291607144
1991 1
anti 1
Par@@ 0.3213681264536731
8,@@ 1
bak@@ 1
90 1
En@@ 0.48010406410521533
tar 1
adu@@ 1
ok 0.9562580038131249
7,@@ 1
lu 1
Muh@@ 1
pl@@ 0.15018233679003326
----@@ 1
vua 1
ens@@ 0.27963584446767215
esabiwa 1
emba 1
200 1
ope 1
oc@@ 0.18544485322139917
Kan@@ 1
1995 1
jwa 1
mim@@ 1
De@@ 0.3473992589472942
Sam@@ 1
1994 1
Sing@@ 1
aro 1
Cap@@ 1
? 1
F 0.53801274809395
hau@@ 1
yat@@ 1
CC@@ 1
mach@@ 1
1993 1
amoja 1
progr@@ 1
Al 1
For@@ 0.42126901950645396
Li@@ 0.5365612157607824
tro 1
Nam@@ 1
1997 0.9930996950081732
ilio 1
Fil@@ 1
ei 1
re 0.16355871318364623
ame 0.7849227601729822
za@@ 1
kez@@ 1
fun@@ 1
Pas@@ 1
1998 0.8997740582997211
igi@@ 1
Cor@@ 0.4816610275177988
his@@ 1
Isra@@ 1
Tun@@ 1
AN@@ 1
ann@@ 0.3083381364371719
ve 0.09665407164369594
London 0.968529522513747
leng@@ 1
video 1
Ho@@ 0.8570857929823825
1996 0.9508565947309094
1980 1
lit@@ 1
yr@@ 0.7342202662544541
1970 1
lig@@ 1
Bot@@ 1
Maz@@ 1
Mos@@ 1
igo 1
Som@@ 1
Sah@@ 1
ous 0.24199290328721385
1992 0.9698535201996092
Nak@@ 1
ter 0.1020717762855647
Kr@@ 0.7018499825546318
chap@@ 1
dom@@ 1
Bu@@ 1
S 0.4150953031227355
Nob@@ 1
ren@@ 0.40485645754017713
telev@@ 1
Sa@@ 1
ng 1
edi@@ 0.5458327253641152
City 0.6665696716383221
awa@@ 1
L 0.37023712099467404
hol@@ 0.8629817628956327
adamu 1
ago 1
ic 0.19529957472957107
United 0.3902481256382454
naf@@ 1
tan@@ 0.8124909536051356
V 0.6525911623692765
ega 1
He@@ 0.4007537499073099
Per@@ 0.439369300038644
bor@@ 0.5802996355953713
500 1
Pal@@ 0.7818609442285851
ick 0.4680523010193207
California 1
ent 0.06931068233731315
hara 1
ome 0.5673000206254285
Oli@@ 1
Com@@ 0.23466581779627754
nam 1
2.@@ 0.9187706939652339
Sen@@ 0.9547408021166601
nak@@ 1
19@@ 0.8900811415406209
Sim@@ 1
• 1
ngo@@ 1
q@@ 1
qu@@ 0.10104759495469154
bo 1
tim@@ 0.4900461055916132
kal@@ 1
ch 0.18674605142480297
Sch@@ 0.1486571132047589
ufu 1
So@@ 0.5245001686390715
agua 1
Hab@@ 1
Viet@@ 1
aster@@ 1
Ligi 1
Yer@@ 1
hum@@ 0.5977898820480394
Bal@@ 0.9317380618649863
ory 0.3291986656918554
rel@@ 0.21702183905158362
Chi@@ 1
yon@@ 1
ice 0.25694207823360854
35 1
Me@@ 0.45603802837860485
idae 0.8044976161528542
gr@@ 0.1352432797810697
arufu 1
ir 0.26417926452915663
v 0.4336381816699833
Em@@ 0.8944836785269407
vis@@ 0.46463707267495713
ace 0.38740473716849405
32 1
Ste@@ 0.5834578880781887
1988 1
1960 1
onia 1
Ali 1
Mur@@ 1
Ne@@ 0.3916872868665639
Mik@@ 1
imi 1
ue 0.19312055406071835
Kanada 1
Yo@@ 1
eva 1
9,@@ 1
der@@ 0.18369469835792995
Col@@ 0.3866888938937224
pad@@ 1
Hal@@ 1
olo 1
ell@@ 0.22003103888560432
Ber@@ 0.3955281717692424
sen@@ 0.5318256009974588
Kais@@ 1
atom@@ 1
vi 1
0.@@ 0.9416916899745658
burg 0.8880063224574302
lu@@ 0.3515156012360378
ey@@ 0.7702792697208055
co@@ 0.11647473809225697
sar@@ 1
gaz@@ 1
Fre@@ 0.41977791757122623
kas@@ 1
Vik@@ 1
col@@ 0.2440311397803554
36 1
ff@@ 0.2360035078022244
ary 0.1658208241347814
sur@@ 0.26517119301157727
idi@@ 1
ore 0.4050738168794273
Ju@@ 1
TV 0.8452805913946576
yi 1
1989 0.9322518030861189
agon@@ 1
‘ 1
Ka@@ 1
band@@ 1
1987 1
tas@@ 1
ung 0.09045941161945507
tem@@ 0.5445341099501542
huy@@ 1
sk@@ 0.6367514519023115
lang@@ 0.839032096366247
co 0.3414695955147919
les 0.04847898602641563
ust@@ 1
by 0.03963827874855632
gir@@ 1
Vil@@ 1
son@@ 0.5259059341938872
ot 0.4835305898899116
Say@@ 1
hari@@ 1
Den@@ 1
India 1
Ver@@ 0.13695550761539466
Po@@ 0.42994004127042496
zis@@ 1
taraf@@ 1
yal@@ 1
At@@ 0.7593187470217476
24@@ 1
hosp@@ 1
ler 0.269493473214535
vol@@ 0.3239171315775928
Juli@@ 1
im 0.06973826100992347
iro 1
umani 1
2021 0.5383025668986172
Paris 0.6615970829369545
Rom@@ 0.843343966211884
34 1
La 0.10623257444499902
pe 0.32778214460835675
26@@ 1
Moh@@ 1
aunti 1
no@@ 0.26042921553929643
adhim@@ 1
age 0.08443287188822568
ford 0.6485009802518756
sc@@ 0.3725180929639675
To@@ 0.5586635721495126
ie@@ 0.301996155111366
IM@@ 1
tekn@@ 1
33 1
West 0.6942735815275958
may@@ 1
sia 1
39 1
ly 0.08519895667532093
ami 1
Mach@@ 1
Tam@@ 1
ce 0.11255506072386319
ast 0.31144068363517124
Austr@@ 1
ez 0.7039830047899849
Kol@@ 1
ab 0.4381124752044749
ell 0.30295025300368145
der 0.018154753677997588
fal@@ 1
fut@@ 1
ken@@ 1
ava 1
Michael 1
Bus@@ 1
Fo@@ 0.6219567239662095
all 0.131051184819081
Bas@@ 0.7516172772686759
Il@@ 1
em 0.3951040711944869
Kur@@ 0.9520475058653561
Lo@@ 0.536859246215043
ro 0.7587893658533466
Dar@@ 0.8374095281813203
lo 0.21887351307222275
Tor@@ 0.6670850519123261
ill@@ 0.22237140823622584
oria 1
King@@ 1
Vit@@ 1
bl@@ 0.21054585573375292
Ni@@ 1
ica 0.22614324017375845
sab@@ 1
amm@@ 0.4349544653682515
den 0.04307405914899286
FC 0.8561390625852132
istan 1
We@@ 0.4217409150169307
° 0.8836152668901731
The@@ 0.4812761991384449
eng 1
ail@@ 0.34868309638492445
ich 0.32806199629991345
James 0.7897071286167664
ben@@ 0.6519453308089039
uc@@ 0.27780081595016526
X 0.7493526071706978
br 1
37 1
Bab@@ 1
for 0.03205260378838203
per@@ 0.09714192476003279
fan@@ 1
Gi@@ 0.629713555853956
Sek@@ 1
chan@@ 0.8064846426273935
jer@@ 1
kem@@ 1
mad 1
sik@@ 1
studio 1
3.@@ 0.914444990844061
28@@ 1
Val@@ 0.533604357785571
inc@@ 0.2124443375507938
Du@@ 0.9623308027752526
him@@ 1
elem@@ 1
pr@@ 0.11189494094197143
1982 0.9826714671448122
Africa 1
Go@@ 0.6029756422647923
Ig@@ 1
fer@@ 0.21752906944861192
chen@@ 1
Far@@ 1
Jo@@ 0.7055952562929039
opo@@ 1
Kul@@ 1
ure 0.18197369947906375
1981 0.9857771908293957
27@@ 1
tri@@ 0.16447006518168428
1986 0.8928150235036688
38 1
tia 1
Fr@@ 0.3614980753915873
ens 0.174801456867379
African 1
fab@@ 1
fas@@ 1
win@@ 0.7686996954657097
G 0.4906266736970869
ess 0.19475003443040506
hand@@ 0.5856968346466553
Qu@@ 0.25760800787802784
K 0.6232279563156851
IV 1
om 0.45339906530754237
hip 1
ende 0.4956130864961052
J 1
med@@ 0.734908244500423
1985 0.8875323836806303
1984 0.8849720992259436
El 0.15565581158929692
FIFA 1
Hat@@ 1
Sar@@ 1
ac 0.897245736822245
ence 0.11844825536754806
Can@@ 0.7610441056129995
00 0.9082362045398338
75 1
William 0.6657210553568278
ram@@ 1
Wil@@ 0.5550942063124208
ngu@@ 1
ban 0.9594222905935895
imi@@ 1
zu 0.10324576983557131
Ed@@ 0.6033237385688636
Mc@@ 0.47497543360091
45 0.8863631288802647
George 0.7203069889231568
ans 0.12878576291145657
UN@@ 1
row 1
Gar@@ 0.6375062159562661
La@@ 0.994156308039526
ner 0.17959846181715244
gesi 1
300 1
Ath@@ 1
Bro@@ 0.5881099124848234
Paul 0.6851801445399168
bal@@ 0.7515307118140307
fuatana 1
Ko@@ 1
Pak@@ 1
yer@@ 1
chester 1
pin@@ 1
q 1
uke 1
va 0.5033474490155614
Ger@@ 0.35321489768547626
Joseph 1
j 0.9692762472026296
od 0.22342824619108642
185@@ 0.5110724861765827
juli@@ 1
nas@@ 1
Mari@@ 1
Er@@ 0.16678365596879094
Ah@@ 1
Cr@@ 0.4220103720826892
tag@@ 1
Ge@@ 0.25590536720659246
usa 1
* 0.45596185951819523
enn@@ 0.28300979552586586
400 1
Ph@@ 0.3411713029023831
Min@@ 0.3447814979406505
berg 0.4277475466538373
mir@@ 1
Sou@@ 0.7332292799316213
gun@@ 1
pek@@ 1
Ham@@ 0.9860248438496633
jo@@ 0.736587531788734
gar@@ 0.43493240168907965
Greg@@ 1
Bel@@ 0.40093421896706455
rie 1
Bon@@ 1
0,@@ 0.7808745673028283
National 0.3202501945856581
run@@ 0.5799863635080392
des 0.023339272115583443
Ram@@ 1
dis@@ 0.08552887895942679
29@@ 1
Nar@@ 1
gia 0.756005132297458
Que@@ 0.8218405829799491
anc@@ 0.2044867382758825
47 1
Hol@@ 0.3855525089736178
atimaye 1
Az@@ 1
Joh@@ 1
Saint 0.3902045920639594
chem@@ 1
49 1
Bor@@ 0.5433170890031505
Ter@@ 0.7719457166609229
th 0.08584459800568717
Te@@ 0.4461922861640581
da@@ 1
-@@ 0.4971782188157667
fuat@@ 1
inah@@ 1
onom@@ 0.9124449708872889
East 0.7693834346733225
Ha@@ 1
1964 0.9891757865011755
Na@@ 1
Robert 0.698775157147157
isim@@ 1
Awards 1
bun@@ 1
Mand@@ 1
Nik@@ 1
avi 1
ik 0.5807205582747825
lam@@ 0.4389111522257942
pat@@ 0.8630174574940642
ya@@ 1
Kl@@ 0.8443769757689068
sahi@@ 1
Charles 0.6746724605119999
Tu@@ 1
ris@@ 1
42 1
Med@@ 1
atur@@ 0.7587137628416676
bus@@ 0.41596259518007694
mark 1
tel@@ 0.31559520006290354
som@@ 1
afir@@ 1
tor@@ 0.22770065793169716
ut 0.39489999057631836
Gre@@ 0.4285866950024008
ek 0.30972910270994364
go 0.46524097783583623
pi 1
1950 0.8271506796340008
so 0.18872931239953603
Lag@@ 1
South 0.3850140339243433
haf@@ 1
She@@ 1
pend@@ 1
San 0.37408977734584475
David 0.6748198432050214
H 0.5340796950663069
ost@@ 1
Mass@@ 1
Uz@@ 1
48 1
Ri@@ 0.7231389930060089
+ 0.6975236102387434
Str@@ 0.3150419880897385
don@@ 0.6923735271586446
International 0.5232406642855725
ly@@ 0.4340316205763055
Eri@@ 1
Fl@@ 0.358925670329093
eto 1
he 0.0501702693497064
kop@@ 1
single 0.48540580397684185
Bak@@ 1
pp@@ 0.29551694476197504
55 1
Char@@ 0.4464885897284269
ser@@ 0.1945486027137187
# 1
ero 0.47190085296331796
ci@@ 0.10977049761248674
bul@@ 0.96613958349473
wi@@ 0.4207815255982892
Records 1
eso 1
stant@@ 1
Kap@@ 1
North 0.4544746795167376
Kus@@ 1
the@@ 0.2259346199582425
1979 0.7861180497094273
Pl@@ 0.2767933213977964
ant 0.05929323726859945
est 0.02819450906631816
ony 0.6049326210414779
ney 0.5006346881602556
ord@@ 0.2753602701144698
Cas@@ 0.5466497729439233
Ken@@ 1
wer@@ 0.21149077113208214
mig@@ 0.8604246267186945
1977 0.8520196728188689
Tol@@ 1
ein@@ 0.09458798021752128
toria 1
Peter 0.7857626160241487
Tek@@ 1
No@@ 0.5625407022033956
lad@@ 0.8326703517318045
00@@ 1
1978 0.8039841424276122
65 0.7861387030204735
Jackson 1
ista 0.36615877110560074
School 0.3377335952353083
ham 0.7388153978124881
1983 0.7589118176421239
oth@@ 0.5068294595284827
yap@@ 1
Um@@ 0.84644005288851
bei 0.15070386388475715
Sy@@ 0.5391111116521475
iss@@ 0.2849598851514575
kara 1
1975 0.753161006091391
les@@ 0.6352338226648828
Bah@@ 0.6650384713260684
World 0.26388941468503063
Andre@@ 0.9454799948909902
Jersey 1
mer@@ 0.19173627444721045
Ros@@ 0.5898299929068024
ES@@ 1
bil@@ 0.24555995116737508
ecture 0.9702916409474625
41 1
kav@@ 1
Famil@@ 1
takri@@ 1
Sol@@ 0.5694962058136112
fund@@ 0.5397463077155799
tir@@ 1
... 0.5396767534344581
54 1
44 0.9896355592566662
hom@@ 0.4374470073315435
bin 1
eli@@ 0.6270202225063444
ungumzwa 1
Geor@@ 0.6067449582023297
Sul@@ 1
ain 0.18384550442515146
lab@@ 0.6758501662165639
pré@@ 0.4282948919773237
1969 0.8291970100363348
4.@@ 0.9398297322213143
Pro@@ 0.3054676952999253
Rus@@ 0.32339194371650254
Bre@@ 0.5994245757340438
ange 0.46563970598678817
Es@@ 0.4988575027047014
1976 0.7652240670819402
52 1
Music 0.7273552959555418
Sult@@ 1
anti@@ 0.3356151924557671
ty 0.16180220799034245
Tri@@ 0.5094814451230255
1963 0.917372802293553
ori@@ 0.31561812453769916
sera 1
Sin@@ 1
sem@@ 0.4264468480744418
bek@@ 0.8100902696421148
Argentina 1
Lin@@ 0.6469142530532294
ult@@ 0.44192650127956074
Cal@@ 0.5701984674020815
51 1
85 1
46 1
che 0.18248239913090067
sak@@ 1
43 1
ity 0.10763686535317113
ven@@ 0.19364727674086102
yan 1
eki 1
ess@@ 0.1624166606263751
1972 0.7185247011041742
Bay@@ 1
visi@@ 1
Bul@@ 0.7948364096162869
Vid@@ 1
ap 0.7286738445325782
azz 1
Maur@@ 1
56 1
Bl@@ 0.40426475080466456
53 1
Cl@@ 0.3967321279963353
Ky@@ 1
Mir@@ 1
Sil@@ 0.6598668199711155
Por@@ 0.526230915462929
Ze@@ 0.4979420075363531
ight 0.1587396003084434
Dal@@ 1
des@@ 0.12899693285429167
let@@ 0.33882011158234576
1961 0.9197104070642081
1974 0.7311634941641378
Town 1
West@@ 0.5833615570964349
oi 1
ith 0.824216369037453
biri 1
rati@@ 0.5152923767974444
You 1
dr@@ 0.1637291092487307
184@@ 0.5162725352825325
Dis@@ 0.6268136469050222
ance 0.09808187753515848
fik@@ 1
und 0.016286367040372483
Ol@@ 0.9744296647579009
tis@@ 0.42737276176549943
ans@@ 0.47867797324715317
ver 0.16985683709806576
Vol@@ 0.73416995459918
iliz@@ 1
our 0.19020808416818097
11,@@ 1
1973 0.7338468558413205
67 1
ca 0.282189200387943
600 1
95 1
Sak@@ 1
1967 0.7797914040463563
res@@ 0.07836338645829159
Del@@ 0.6427422473280681
Kem@@ 1
data 1
72 1
New@@ 0.8382372549879517
gol@@ 0.8984097398896533
adhimishwa 1
Mel@@ 0.671144542256609
ade 0.19444579954946903
Mun@@ 1
Washington 0.71046345879845
ban@@ 0.32294894110138167
dest@@ 1
ese 0.19677476260224497
eti@@ 0.5248349965280725
lem@@ 0.544165920893551
ks 0.1288800185521858
99 1
astr@@ 0.7719928522146742
div@@ 0.9278680625429677
oug@@ 1
61 1
fin@@ 0.1011668321058613
1965 0.7845095097672531
uniani 1
Ke@@ 0.9265067846053355
indi@@ 0.6486980509302135
58 1
Ti@@ 0.5823999039318518
88 1
wood 0.5874299715070671
Pan@@ 0.7452715404061824
sek@@ 1
tro@@ 0.21717868777725546
itz@@ 0.40100552268036693
kel@@ 1
09 1
ise 0.13505014395901965
ster@@ 0.39803343841046707
ach 0.14844349734304005
ian 0.32333418120874363
Gen@@ 0.6196118753112421
inn@@ 0.26861079883050837
ons 0.07926843771439582
sea 0.8387728613201325
Os@@ 0.8216300903168315
ete 0.44974100049808924
1971 0.6828717743239695
64 0.7910912159730602
Lim@@ 1
elle 0.08634841652940496
pitia 1
Ac@@ 0.24763972849012814
Billboard 1
uno 0.5974195694805862
5.@@ 0.8297576465840929
62 1
arr@@ 0.14839462733006328
07 1
Anti@@ 1
800 1
ion@@ 1
01 1
87 1
97 1
Tel@@ 0.7192872154932537
igh@@ 0.2450921500042602
mar 1
yl@@ 0.3632316930703624
66 1
79 1
ario 0.34305765383796666
tin@@ 0.7951973248826831
1962 0.7963780464721938
Richard 0.7497550617043943
ille 0.3346064724454504
ville 0.2555508066286931
yu 1
Ok@@ 1
git@@ 1
ite 0.08181199249084269
ofanyika 1
tion 0.0449285037718174
6.@@ 0.9574866876289214
98 1
Im@@ 0.5455566279964026
Hot@@ 1
River 0.45344044087044594
yn@@ 0.42037367602920395
Ex@@ 0.19435603151607458
pap@@ 0.5587163443023639
tal@@ 0.47988697708917677
University 0.1776540402666171
ales 0.08773733394460528
kaz@@ 1
1945 0.4805268665406921
Sw@@ 0.487842468178962
On@@ 0.527113303867237
chi@@ 0.4240991107947117
69 1
ist 0.03783338512066078
iter@@ 1
AR@@ 0.9541764468611941
Black 0.8553967436917311
Bay 1
Patr@@ 0.8400486595611063
Sau@@ 1
Wash@@ 1
lav@@ 1
mol@@ 0.8824567970545152
.C. 1
ack@@ 0.211814348643475
etts 1
Bil@@ 0.5649402204686494
Tim@@ 1
05 1
89 1
57 1
von 0.030783444788730987
Thomas 0.5363435384994105
aland 1
lis@@ 1
04 1
Ash@@ 1
73 1
odi@@ 1
Cam@@ 0.5611047360033783
74 1
76 1
Liber@@ 0.8321890577691308
ikan@@ 1
1966 0.720187875210514
Sum@@ 0.6386353684018594
amar@@ 1
go@@ 0.14357875581817067
10,@@ 1
179@@ 0.6068532838725039
63 1
68 1
83 1
Fal@@ 1
Martin 0.7287577402131401
Park 0.4526677999534875
art 0.1609598675454086
1968 0.6216818505851246
IC@@ 1
Fi@@ 0.5063642984073519
96 1
Jer@@ 1
Kup@@ 1
May@@ 0.902305983662001
UEFA 1
jap@@ 1
Men@@ 0.970440162057298
59 1
92 1
Fel@@ 0.8086074621304176
dig@@ 0.3555959219227668
fr@@ 0.1314934304091809
del@@ 0.2958824801017961
profes@@ 0.6868585322652804
himu 1
sig@@ 0.2638809807404307
81 1
ts 0.04820581570685184
esh 1
ikukuu 1
mid@@ 0.6584651035261558
rio 1
tor 0.14473908469925695
AS@@ 0.6956817382774166
Sel@@ 0.787110374078626
Bun@@ 1
oph@@ 0.32668691597800786
71 1
84 1
Kay@@ 1
78 1
ars 0.24481226613445467
illa 0.4102128895361892
ker 0.2572431920197096
lan@@ 0.2106204225942865
… 0.7362464379442091
BC 0.6716715054222921
Bol@@ 0.745636999357577
Hung@@ 1
ings 0.1406815328571467
tend@@ 1
35@@ 1
W 0.4459404989597488
ins 0.14106748243425926
86 1
7.@@ 0.8949666541748569
fi 1
ill 0.36911936779250043
weng@@ 1
Hor@@ 0.5159554464210772
Mul@@ 1
malar@@ 1
na@@ 1
way 0.13435757738629084
91 1
XX@@ 1
edi 1
ler@@ 0.16657733652811382
82 1
Gir@@ 0.8154239757834774
eri@@ 0.6753025427637601
lar@@ 0.17435184804164613
eon@@ 1
ico 0.19021223420327485
zam@@ 1
Eliz@@ 1
77 1
bert 0.5626447740429421
03 1
Love 1
ick@@ 0.1844332026481055
Aug@@ 1
Berlin 0.48918463191041023
anta 0.985841677214849
mot@@ 0.2590098608346438
08 1
ish 0.11535334730423417
aro@@ 1
ther 0.14453159887327555
$ 0.2510915211122531
Chr@@ 0.40992533931747627
Hosp@@ 1
IS@@ 0.8246249448933812
Plat@@ 0.8559160334264634
1000 1
esab@@ 1
for@@ 0.08665628302899082
06 1
enti@@ 0.11081273728371617
mos@@ 0.7644521518622411
trop@@ 0.7716107931358619
Reg@@ 0.15646429029683132
hav@@ 1
93 1
King 0.50025400873089
Mac@@ 0.49342217002039795
Una 1
die 0.015757951609363174
8.@@ 0.9336628505287831
Dam@@ 0.9998724605413696
Han@@ 0.6931649935684933
Lit@@ 0.7426848939690857
Pa@@ 0.6883310176327894
1958 0.7053812134849391
Dr@@ 0.35129164780606165
ande 0.7090377964595271
1959 0.7261093492873535
Ker@@ 1
Party 0.5129255267198818
dy 0.6442981164295463
thern 0.27448890139495113
700 1
Ireland 0.912051444957525
á@@ 0.10239839079829456
Christ@@ 0.4911036442924717
Lib@@ 1
atr@@ 0.39056297569353615
own 0.2694214933628702
az 0.5419640400576838
hy@@ 0.3409563149363439
Madrid 1
Tan@@ 1
trol@@ 1
ā@@ 0.6948875115689824
ack 0.1973740899021592
1930 0.6631963040353909
180@@ 0.46823889972276134
Jean 0.3941747047145342
Rob@@ 0.7777745260185558
Central 0.5682130335703381
my 0.6010242892141351
ws 0.1786606492893416
del 0.032667275731945326
kl@@ 0.28103769520592625
tah@@ 1
Cat@@ 0.519846648368837
dem@@ 0.15599646856045762
liko 1
ts@@ 0.14065107741947389
Los 0.21595402808920122
Pre@@ 0.37648017712671095
mo 0.5633952475974214
olog@@ 0.2748529386499801
van 0.5449858544476996
yar@@ 1
Henry 0.616816592677137
My@@ 0.9277529257685215
oku@@ 1
sad@@ 1
Afr@@ 1
ates 0.12762721139346728
ambi@@ 1
ison 0.24405619005799528
tic 0.21973070438680437
9.@@ 0.9805295106275632
Ob@@ 0.5153096837649529
CO 1
Luc@@ 0.7615341145821696
94 1
Bos@@ 0.9641007133446465
Kaz@@ 1
Nat@@ 1
1957 0.7005335359368146
Louis 0.5116753183464543
tut@@ 0.8918009651600188
Hon@@ 0.5607854651591119
etwa 0.43316934160411463
ine@@ 0.516604927298101
200@@ 1
Don@@ 0.8916975565510935
Dor@@ 0.42698946601506477
str@@ 0.08565749815628289
car@@ 0.0873363791269128
uel 0.7563009130968101
Bern@@ 0.7745332190732921
Hil@@ 0.7572947391563326
VI 1
bom@@ 1
1940 0.5611564088408895
abeth 0.895268582401644
ganda 1
sir@@ 1
urg 0.6021135672907701
02 1
dur@@ 0.43223365405662595
lah 1
old 0.13863357480706803
Brit@@ 0.7065291492129178
Son@@ 0.6116057707168127
bir@@ 0.3682815984189734
ps 0.1678690135139464
Mek@@ 1
tra 0.4523627076299602
Me 1
wo 0.30788806232364374
AT@@ 0.7604095595347924
Leb@@ 1
inae 1
pal@@ 0.3656394664274467
12,@@ 1
Dav@@ 0.6537139788426573
Man 0.7704849681803702
Mol@@ 0.7815455205206137
ase 0.1719719717462724
ella 0.38145852589616397
pop 1
st 0.07800110899231406
1948 0.6125554119678783
ment 0.08441041974685169
1956 0.6256158152121674
Kad@@ 1
Eu@@ 1
Vir@@ 0.880730462083003
ener@@ 1
je@@ 0.254504698030563
mer 0.14612293652481897
1954 0.6830624704254211
Kun@@ 0.597301502709068
Rh@@ 0.6215446979727227
op 0.2942552973930262
33@@ 1
Harr@@ 0.6224648042416466
Mes@@ 1
sich@@ 0.61240166056625
rit@@ 0.2579300929102977
wo@@ 0.4728316864914918
1949 0.641327102427035
Bad@@ 1
Bang@@ 1
Lam@@ 1
MA 1
ve@@ 0.16152580132426242
Mary 0.7016266820675544
alm@@ 0.323635848216236
ifa 1
inde 0.6976140701121207
Gol@@ 0.6098487508307535
ost 0.17849286422096616
ov 0.49502573702203595
Jan@@ 0.6693207670382867
sen 0.21573903951706636
uss@@ 0.4060273129350224
Ay@@ 1
ky 0.40449009663787505
ć 0.6626157862355124
den@@ 0.20455191575235745
kt@@ 1
í@@ 0.09537095195891077
23@@ 0.9819849041153088
C. 0.58067932995878
Mexico 0.9009193620328222
P. 1
Pen@@ 0.7566006674072899
Ra@@ 0.7893015843526612
Tom@@ 0.6858821514484779
anistan 1
ax@@ 0.29683539985689505
dan@@ 0.7340032418708152
Award 0.4865373984389232
field 0.2532168882927772
ube 1
Sk@@ 0.8507762212821096
emp@@ 0.17980240009289045
wir@@ 0.5572837072835113
1920 0.5744207356286717
J. 0.663304274026204
Real 1
oni@@ 0.29723318851831265
viv@@ 0.4877148187249241
1947 0.6285312371750552
My 1
liv@@ 0.3218044329100559
Daniel 0.9341323398421213
Mot@@ 0.43023274577604886
tin 0.3108838248936933
uel@@ 1
Democ@@ 0.6221394122015302
St. 0.33638350785549215
abr@@ 0.5972361996761891
enz@@ 0.2791973299137954
tof@@ 1
Edward 0.854868165662285
Math@@ 1
Mut@@ 0.9356454642220886
ego 0.539437412922646
vur@@ 1
ond 0.3214525122748939
que 0.013741447119298665
sta 0.47545448312479444
ão 0.8470925769135488
150 0.9909689768623844
1918 0.6242521557800406
Abr@@ 1
Angeles 0.6929168498556864
Brown 0.9067096236737949
Je@@ 0.2594572613003023
Ot@@ 0.5220017272241192
ger 0.15803685905637613
wil@@ 0.8391263956891081
Des@@ 0.2541118884474998
imp@@ 0.4183308732041235
mir 1
ologi@@ 0.5639575393727144
1955 0.6416957996439004
aten@@ 0.9536641193175426
mann 0.3004023046750374
nah@@ 0.9611373868475778
Hel@@ 0.5224956414622579
isti@@ 0.14872243730568627
yon 0.9317098521117865
DNA 1
B. 0.5449295405266974
Bou@@ 1
gl@@ 0.2693617162264452
per 0.16259539097710765
— 0.030383124634238933
1952 0.6225341523847622
reg@@ 0.0978785734770927
Academy 0.6050397853415485
Cel@@ 0.8870885221051901
Domin@@ 1
eter@@ 0.3767320024307688
wel@@ 0.4047278941665686
a. 1
m. 1
Albert 0.9918607812840315
Bir@@ 0.562290471469408
One 0.3431325321260716
igu@@ 0.3337782258629699
ort 0.3003208429913879
uk 1
Ca@@ 0.9597343588002042
Haw@@ 0.7683431287268503
Smith 0.6257396100997228
Z 0.7562905562913921
ash 0.6309134773602597
atika 1
len 0.21392435830312806
Au@@ 0.2362093336302159
FA 1
State 0.23152217979694634
ds 0.16355654477349404
CA@@ 0.44632477356522793
Victoria 0.9881099290359344
leb@@ 0.639813311170735
CO@@ 0.8362536406558819
County 0.2021140373056358
Hum@@ 0.6150038258342936
ber 0.29632520981946386
ros@@ 0.3324455669527656
ry 0.2840977872903131
Wol@@ 0.4953272053877711
elo 0.9400266082358306
han@@ 1
sah@@ 1
ó@@ 0.1026782958848803
Barcelona 1
De 0.2516123285183371
Fu@@ 0.7820880031402547
Ly@@ 0.9273968425240193
fre@@ 0.12885379972525224
uda 1
wor@@ 0.10258999946366654
Lee 0.7865952886151875
Pres@@ 0.359525778853502
mand@@ 0.5413198126838915
Has@@ 1
It 0.05441162000797798
asti@@ 0.7722223748606087
elli 1
Ban@@ 0.5996650072669333
Gl@@ 0.3722515083310927
Ngo@@ 1
bury 0.8445081093595853
fiz@@ 1
1900 0.8165670472313113
900 1
Camp@@ 0.5018025835755535
cor@@ 0.0833791359222396
inus 1
Laur@@ 0.6898453559358024
S.@@ 1
Y 0.626004064334047
aden 0.7182423564081827
Fer@@ 0.49739716033188525
ations 0.04622675249730282
life 0.17352925350956125
1946 0.5225426747206686
CD 0.6990824490462424
Hot 1
Mex@@ 0.8452511226456916
ement 0.0465659766393146
raine 0.9795663476062701
Acc@@ 1
Boy@@ 0.9390352607474362
Progr@@ 0.6299608976556734
Sec@@ 0.22310268673152936
Times 0.7876126255381682
ime 0.30130044036447184
1953 0.6106140758361888
Texas 0.5749786556023967
ean 0.45580162966735005
ô@@ 0.3089308232287838
Jac@@ 0.7390457817488496
bol@@ 0.8807590367781704
Av@@ 0.5640951246147633
igan 0.7814423602287904
Sand@@ 0.7214163566563984
Fin@@ 0.24364550238808785
anus 1
ardo 0.9101322014269223
Pad@@ 1
hio 1
til@@ 0.19604526858384175
anth@@ 0.6865263353907137
use 0.10193423342602789
Stu@@ 0.3673189612087918
Tok@@ 1
gal@@ 0.46147140675916354
ington 0.45807897952830445
Biz@@ 1
Dur@@ 0.6574537103840186
Pau@@ 1
Van 0.9756810110594494
port 0.10974875781134635
Ven@@ 0.6307868896057657
You@@ 1
dul@@ 1
hid@@ 1
him 0.11355254785688097
AD@@ 1
ador 0.18293872468676353
amo@@ 0.5424412562068075
ebe 1
ido 0.13647078996701525
try 0.20120779988475118
ul 0.5111997784092791
1939 0.4586085518970221
ies 0.10850783694801969
Air@@ 0.4327879556709389
Dem@@ 0.39467224424774894
con@@ 0.031876116141311715
But@@ 0.9645893266296836
Met@@ 0.41682424120156764
Pu@@ 0.4264237908941618
Sur@@ 0.4714885393411633
abe 0.5123553694614141
ae@@ 0.7975118726360237
250 1
AC@@ 0.8062152903673926
Hay@@ 0.9897925863475062
Tro@@ 0.4230277409532695
1888 1
E. 0.8689779397617287
Hit@@ 1
bay@@ 1
IX 1
Pat@@ 0.7259344437681038
Union 0.3129031602117071
bro@@ 0.18396946059977873
pun@@ 0.49221312322891403
tis 0.6662338793278701
Inter@@ 0.20328542356010323
Wor@@ 0.31877772988522995
_ 0.12462391650109936
ff 0.4666149412920628
1886 1
All 0.2860370137651949
Ari@@ 0.6909062547257703
ex@@ 0.03075049652149818
ion 0.08821647241468837
open@@ 0.6064252561520139
Anth@@ 0.9491638116767568
bon@@ 0.8845016099451034
hor@@ 0.2535273108218729
Florida 0.7048096333052233
lat@@ 0.15773099286717243
tha 1
aje 0.42772567724379446
sburg 0.8879151830277885
Tay@@ 0.8986491818396984
duk@@ 1
vo 0.6463977563653555
Ap@@ 0.4670216338835064
CD@@ 0.82079214063725
Franc@@ 0.6712526483045732
Wo@@ 0.3139275580022572
lara 1
Dan@@ 0.41053847643610925
abri@@ 0.49225302291277745
anne 0.8534536279999866
bab@@ 1
ova 0.9555356983537823
11@@ 0.9848195196224575
Res@@ 0.20538654765882652
Sun@@ 1
ern@@ 0.2069345245448099
hel@@ 0.21694625558371197
ys@@ 0.1622474461383043
Ant@@ 1
Don 0.7843537964491683
Ul@@ 0.5281731321521058
ello 0.5011285069035627
M. 0.6448246578819443
hui 0.8778903349851145
ster 0.18995680636096962
Society 0.4611644637816286
att@@ 0.06761833487719651
fil@@ 0.20948070954980896
mm 0.48656888845048546
outh 0.36998365725446253
yn 0.8254285997599321
Liv@@ 0.9510418495728514
Nag@@ 1
Rod@@ 0.6712825005600803
Tal@@ 0.6500130417804518
ave 0.1605924510642332
but@@ 0.36815122784575155
dir@@ 0.6637421866676392
int@@ 0.09752255434882348
ker@@ 0.48643768865347387
tek@@ 1
waka 1
American 0.10551805052678782
Hy@@ 0.4353386879642648
las 0.036774842230327606
1951 0.5637217133590088
Chicago 0.525011615052481
Kenn@@ 0.6884987560704932
SA@@ 0.9838247857730084
lov@@ 0.7494436723493098
Alexander 0.6465533358733629
Les@@ 1
Phil@@ 0.3306488410455327
Dom@@ 0.5921898461609376
ling@@ 1
Carol@@ 0.5255760637010296
League 0.16763102141544298
out 0.06689209086454882
Cer@@ 0.43167578550539204
Eur@@ 0.5415872031074617
Group 0.4074141464508142
Mid@@ 0.4202901235445127
cel@@ 0.26164372057207064
fon@@ 0.35012637012530956
ics 0.13041374779963302
its 0.03183386890431167
lor@@ 1
A. 0.3981535185883395
Jones 0.7435098663242645
Nov@@ 0.5845641324374937
pon@@ 0.27563794157632016
1941 0.3891749767098555
1500 1
1914 0.5805612742867373
Est@@ 0.19998282990594848
Ev@@ 0.4257060841708931
yol@@ 1
1936 0.4985255442048814
College 0.2172423583968364
Leon@@ 0.9925663716514415
Lor@@ 0.4852492573937289
Sto@@ 0.46673159745963844
beg@@ 0.15347321168169117
ius 1
sta@@ 0.5633051954938927
1917 0.5876907723487197
Kim 1
Le 0.048930688461406566
bet@@ 0.30424461044803613
bot@@ 0.40221408198027125
imin@@ 0.7408393390759306
med 1
shire 0.39205548917402877
tom@@ 0.19917469729396708
1944 0.353449734490911
High 0.3241609254142649
Jor@@ 0.7360400373688218
Nic@@ 0.4621647103292932
ö@@ 0.07982047981721033
ür@@ 0.12395345144018458
1933 0.5009783499797706
Dev@@ 0.35472355891107865
Rog@@ 0.6756378544544567
Star 0.6274733853398299
ark@@ 0.4903694543171407
ette 0.22187400960865494
jus@@ 0.35884996196471625
50@@ 1
Grand 0.3393873815911511
Williams 0.757019197328915
alb@@ 0.27311125355850313
enne 0.17065895128815367
ensis 0.6115257715204826
lie 0.39840421091292666
vin 1
ym@@ 0.18065745679810086
Columb@@ 0.6293452994358076
Island 0.41793627899265684
Oc@@ 0.3879816264042506
agu@@ 0.3745146917758165
une 0.024121889308148892
Radio 0.5541661097149583
Vo@@ 0.5376833217134344
ck 0.4202848299336959
ech 0.4598915976954254
ns 0.1697864950250469
.com 1
Chil@@ 0.6660058564030734
Vic@@ 0.41023265529526226
ierra 1
lands 0.24220539736277347
uni@@ 0.16836008042067444
3000 1
House 0.2562384889816627
Jack 0.7439087491075685
Jose@@ 0.9752944114999951
Lou@@ 0.5117735289713894
Wh@@ 0.20346461368681168
avi@@ 0.5372149810341257
ski 0.3471912593150361
tad@@ 0.6218811139184348
yc@@ 0.27960438598296544
AM@@ 0.9776476477452617
Association 0.31726405720183715
Sav@@ 0.6160099333083008
ital 0.1772670011830441
jah@@ 0.7627258583507978
unu 1
£ 0.8311323247507184
Bri@@ 0.40808179017642904
Chile 0.8284060022183023
Sus@@ 0.7577519730676978
bes@@ 0.12929732926225837
ign@@ 0.10059672658102804
itu@@ 0.5976970827707493
log@@ 0.2957753014847031
ï@@ 0.24502037619568787
Stan@@ 0.719905236171133
Tw@@ 0.8358584085209344
r. 0.4923659122578794
Lab@@ 0.5032143585508818
com@@ 0.03748382502783429
hap@@ 0.7511172601701759
ross 0.21736250993580605
Cur@@ 0.42226219064462944
Hill 0.5558501692371276
Scot@@ 0.35081889911015096
Ty@@ 0.40687813684891005
département 0.6688352587993103
ier@@ 0.11964182583479717
vent@@ 0.31015039891422364
Johnson 0.7266951529743367
ento 0.2285158679215565
err@@ 0.21749049580957933
sch@@ 0.02728494546015993
well 0.09534964034139262
Club 0.25161216304722495
fe 0.30267196491967235
nit@@ 0.7357895152697498
urs 0.13074800937094758
win 0.23235097255770754
St 0.43269326464969565
Women 0.48335228676964365
nh@@ 0.14406123895496065
Pon@@ 0.9359022149359348
ome@@ 0.6171155423206869
ute 0.273469405957344
É@@ 0.14477028536322056
Eng@@ 0.3990653699214788
Win@@ 0.3556005531368077
aire 0.0891645061624232
ige 0.14526766472652772
ision 0.1795343303633133
mun@@ 0.3224592739478833
onald 0.7468961472099752
Der@@ 0.5417541076315819
sk 0.844986127247733
val@@ 0.12361812465609408
« 0.019167946265255226
ath 0.265514601074241
stein 0.30160476798259
» 0.019100349203797808
Pot@@ 0.6727261243716811
Star@@ 0.670377891571351
ebo@@ 1
Google 1
Pri@@ 0.23444162504614538
Young 0.6925951644747081
cu@@ 0.06270714259007157
gel@@ 0.09678584433614092
1934 0.5087232007202098
Gor@@ 0.7764576589226915
Lat@@ 0.5351455399265999
ology 0.15494500689924945
poli@@ 0.5291574943673458
1922 0.5682593236333714
1925 0.5706641008998972
1929 0.5129816821604181
BBC 0.7326365006773489
Cre@@ 0.281394357728458
Kos@@ 1
Profes@@ 0.8233124187865575
Santa 0.40756616203085233
White 0.4520214621759452
dor@@ 0.44184019582782286
ther@@ 0.18796617633519586
1942 0.36811984313794793
DC 0.9220570752448368
Media 0.776030329927899
Q 0.7612683634228513
Trans@@ 0.3058782441020311
US@@ 0.3744866705382997
aceae 0.5741701616042438
din@@ 0.3795497996740271
mond 0.5454028509220311
onn@@ 0.08831440530186825
ston 0.6687060084725671
ys 0.33110538976419873
Company 0.3271791046133829
XVI 1
dam 0.6191035539431375
ors 0.0724969580843008
1885 1
Mont@@ 0.34996287457249037
eth 0.570338876147056
eth@@ 0.3676254443301003
sol@@ 0.05966851595252219
su 0.03569352920984046
1943 0.360715223219386
Canada 0.2666350693749787
Hir@@ 0.840811524527241
Net@@ 0.5246713008491729
Sem@@ 0.5777273723103603
ret@@ 0.17483628184834643
sul@@ 1
Ox@@ 0.6042808989200089
Vis@@ 0.7960825894734276
apar@@ 0.3070974628940968
ign 0.16561898964557162
1926 0.5465476048377377
Cro@@ 0.3130220823835745
fig@@ 0.35763385123219626
ical 0.07220437503817809
Band 0.47242043376335985
Japan 0.3538906958381091
Si 0.8114948769177198
lor 0.7365557186863865
mus@@ 0.08103032846530744
onya 1
180 1
1890 0.8587838669693701
erry 0.5009587564623578
esse 0.2789599117133761
120@@ 1
AP@@ 0.8453625278030438
Hen@@ 0.8059739417044809
Pom@@ 0.8863260690159825
ep 0.28390710738800873
men 0.08537604452509183
pro@@ 0.05812991641578369
sho@@ 0.08302695361768353
tes 0.06224061251080972
var@@ 0.44853924293469816
Wit@@ 0.8030108655602299
able 0.03986205972339189
els 0.11709886820722941
lis 0.5371737218416056
nom@@ 0.22844568736264276
radi@@ 0.5212293888194425
rom@@ 0.1735266495951715
Bat@@ 0.4006185421832597
CH@@ 1
Gaz@@ 1
Hom@@ 0.5875522827211461
ams 0.13814824625883393
ä@@ 0.03863026023949729
All@@ 0.41155643387506535
It@@ 0.26985184585380567
bos@@ 0.885409100679504
toba 1
י@@ 1
120 0.9268199326957073
Ben 0.9512460078591234
adr@@ 0.30963293030729333
low 0.10441907905992913
AC 0.6309237463209292
AI@@ 0.9758333723990179
Rich@@ 0.29394405801943724
ass 0.16843725742177268
Arab@@ 0.6826081947351433
Ear@@ 0.18189185991831328
Fac@@ 0.4536433213969491
Scott 0.6825930544866963
abor@@ 0.17881672427838335
cre@@ 0.059474966708822595
tle 0.1966137441930991
Marie 0.48556660972283555
Sir 0.5341248234738373
Tran@@ 0.8771243192389557
area 0.12706174300311976
ling 0.19838350226719864
ople 0.5383173825189191
124@@ 1
1910 0.5556062822277201
1937 0.42572466386738583
Ci@@ 0.25633670119835883
Gran@@ 0.48428103446576737
Penn@@ 0.5298173443293831
Sm@@ 0.7090968846504447
ax 0.9271366872714547
berto 0.7589782598980305
estra 0.4691323772111943
ited 0.14825341612451687
Christian 0.3513682616936057
Dr. 0.5158389783072634
Pow@@ 0.5547137633799036
Zi@@ 0.45793836675686966
ald 0.5959313015130583
cy 0.38414841377901043
mes@@ 0.268520787602024
1938 0.37987328595482844
Dre@@ 0.29511055842766704
Hamb@@ 0.5605363751528231
Simon 0.8395212132303368
Venez@@ 0.8330208763509162
inayoz@@ 1
nying@@ 1
sy@@ 0.1700005711754709
1905 0.614977636559791
IN@@ 0.5716367348779753
Tow@@ 0.39304081401155927
han 0.3182973369003087
hr@@ 0.2183646946914602
yp@@ 0.1507083627879681
cas@@ 0.0957176942515722
cl@@ 0.08959299479341994
eld 0.27073613788850154
rey 0.3928399530972754
sou@@ 0.11804025384293132
Big 0.5370559826860747
Life 0.44708109295603576
Mark 0.4898509823165402
NA 0.851454752490573
erg@@ 0.2328338268127676
land@@ 0.14972011182486178
pha 1
Best 0.4090741935508054
eau 0.17988605819369796
ide 0.18433223638266913
sav@@ 0.49097604859147476
ø@@ 0.619328904726619
Cab@@ 0.6713405117125626
Cu@@ 0.437480143275117
Cy@@ 0.49369431098483296
D. 0.4756850580426546
Gro@@ 0.3349408788686699
Hug@@ 0.5316572858785362
Royal 0.2593519404176455
Shi@@ 0.6487872920436587
Thi@@ 0.7843438890882791
idge 0.39445187628379175
1919 0.4186447470003304
AB@@ 1
Blo@@ 0.5988918887159436
Roc@@ 0.4661577612543573
aut@@ 0.2053671150524409
ble 0.12862427448524053
ester 0.31708562882526775
ix 0.2949720926934705
rek@@ 1
ship 0.09468105372307
1923 0.5153628868699518
British 0.1478321645740591
In 0.014271589711497059
Rad@@ 0.560142956855397
arg@@ 0.18241413625995348
ci 0.2977123690995639
estr@@ 0.16186606004018134
gre@@ 0.0992470516705455
ting 0.054337404374153235
uro 1
1931 0.489838769811707
2022 0.39661343103026336
Bud@@ 0.45755086038995463
Law@@ 0.6507035516651832
Nis@@ 1
OS 0.6445658647489808
Rec@@ 0.22578460993681862
aci@@ 0.09561974144829463
Illinois 0.671821282097944
Ou@@ 0.6919065107492696
Pic@@ 0.5490287029950273
1912 0.5003901973976426
I. 0.4308884199587371
Israel 0.5716044467158916
apos@@ 1
iller 0.301607061010656
1927 0.48833962112930857
Bru@@ 0.2926017141752575
Entertainment 0.8256257575833258
Lev@@ 0.59698698118469
Sc@@ 0.39083104144589204
UK 0.35940340255999753
Astr@@ 0.8598981526248172
Conn@@ 0.4770405193285811
Ren@@ 0.2961316796327111
gio 0.8311100750396332
kap@@ 0.6673773383229856
ven 0.15409760909325199
with 0.009594294991133411
Ind@@ 0.36354874650426894
Rou@@ 0.2936985035703192
Sant@@ 0.6708528995219175
bon 0.4708829965228953
cia 0.7320498637353614
cr@@ 0.05289513946080191
oper@@ 0.08416888034987276
Carl 0.6652192605719264
Rail@@ 0.352836509781319
ogr@@ 0.8817311635174654
sion 0.07051917691558504
tic@@ 0.0903434915559564
tions 0.038125951022290286
َ@@ 1
Indi@@ 0.2421131142143197
Nu@@ 0.6345659467273976
Pierre 0.38764596166198423
ated 0.021225393311963433
dro@@ 0.1527610527915349
lip@@ 0.7644691538003148
stanbul 1
wig 0.5403201478119356
{ 0.8363443822599573
Arthur 0.6189717930003045
Steph@@ 0.5183638018673685
ait 0.08265671905880353
ny 0.45207608087809437
unt 0.2486509759665935
zw@@ 0.552742426709748
Rem@@ 0.6632418506728859
TA 0.7503649373626661
ante 0.06846245888405632
edo 0.6156339517125262
span 1
Bau@@ 0.190845966266631
Fe@@ 0.30502185499408585
Rock 0.5228010396631034
VII 1
htt@@ 1
Air 0.28325709221094075
ingen 0.1795755831226054
ism 0.1607589307576582
Francisco 0.361629653235213
May 0.11399136029337716
cus 0.629095534721577
emen 0.6155638821870504
ize 0.45090187177298097
1928 0.4173221406989844
Kilom@@ 1
day@@ 1
gan@@ 0.23756428065021545
ince 0.20468508589742967
sent@@ 0.5527167421506552
án 0.11982471252510406
1889 0.8434030390553583
Ern@@ 0.4156212740343483
Fern@@ 0.25968292658885483
Frank 0.5270930003511747
Frank@@ 0.5718905763571551
Joe 0.6488349803750942
Lis@@ 0.932921888656773
S. 0.5099803192362988
Sho@@ 0.5584552372611965
Wi@@ 0.21246791147303895
ef 0.2336025198250818
end 0.04742474688101928
inger 0.3209999489686013
Alexand@@ 0.6138308945313663
Fir@@ 0.642415388282635
Phili@@ 0.3759464279033914
Seb@@ 0.8945065836319627
Western 0.3380561840802651
dis 0.5892949611804976
ett 0.30325941652994415
ref 1
w.@@ 1
} 0.9477428088371402
Anna 0.6864853070624891
Cle@@ 0.5883153369131796
Gil@@ 0.5032143025994662
Lang@@ 0.38949787268610603
Lig@@ 0.5031808179092505
Mem@@ 0.3583360389512933
Whit@@ 0.5963327776277955
Zu@@ 0.40895120055011763
ste@@ 0.09000207474578706
ten 0.019290575109425674
á 0.1250280216465736
Carlos 0.5034345957669161
Jos@@ 0.9094378149397406
Oper@@ 0.3006835151819302
ady 0.2209887680714283
faransa 1
jan@@ 0.8478461610228781
mem@@ 0.2234585383982612
nes 0.148937786656166
olf 0.5695896679290744
Ç@@ 0.5222928244316754
α 0.21599648908899868
‎ 1
Tem@@ 0.5227856804403431
beri 1
bridge 0.3090307742640656
ente 0.05413753813095523
uela 0.6760975029085232
unc@@ 0.1141179988586276
1903 0.6490813775448444
1916 0.537625037548954
Coun@@ 0.39870821978513504
How@@ 0.5723437950175153
ally 0.031208037485328043
als 0.015925398177882924
ob 0.5021387503097373
A.@@ 0.7642574864612044
Karl 0.44021167016168167
ator 0.14409561092996379
dens@@ 0.29434994626554073
mek@@ 1
tou@@ 0.23551562311685054
市 0.2638010186502824
Num@@ 0.716293303881408
Pin@@ 0.5684941273204216
Tre@@ 0.2642396409369696
Uni@@ 0.34711174553024793
Virginia 0.4090465870605486
ag 0.6646817475280034
bs 0.2235937848907012
inf@@ 0.1697514739203127
ock 0.22651868353506832
via 0.25854846329558795
Bet@@ 0.35303023845357534
Not@@ 0.25271464271006266
dol@@ 0.3486897685706018
ect 0.06484241976872117
key 0.2855807032347618
Clar@@ 0.3753253584105319
Osman@@ 1
Prot@@ 0.3025580221365106
Seg@@ 0.3664265063529748
sat@@ 0.3157513000517488
see 0.1815723901553618
ww@@ 1
1935 0.3795069906233714
Bes@@ 0.1888520136150135
MS 0.48505500927081674
SC 0.6086889118726115
arm@@ 0.08516795321024645
aus 0.03179124203484868
rock 0.29671643154384225
ust 0.26495818904103957
1932 0.40752422740536326
Prim@@ 0.34993488406371437
dae 0.8263535296366701
eci@@ 0.25074486181716055
plat@@ 0.19843686106734426
polis 0.6367382849561767
tan 0.3588046089529222
vania 0.49347149226710296
1908 0.5266249962450238
1913 0.48181458261591514
Kri@@ 0.40231892848009476
R. 0.5729581672382643
ide@@ 0.24415880944680954
1896 0.7081086187437816
1906 0.5574165319944739
Super 0.4745720600121909
W. 0.5683697550189403
any 0.13284100525383202
entr@@ 0.078867968144254
neo 0.489016949059393
ough 0.1606134316907264
rec@@ 0.041737962943075
sey 0.5943526710790279
tern 0.0904528341934791
vel@@ 0.11517409840271439
ō@@ 0.4369942670191721
40@@ 1
agr@@ 0.38524332382260784
edy 0.34793770985354594
fer 0.10895534273187284
ld 0.4633854122613017
ls 0.2809191668184177
ons@@ 0.1292991449540876
tus 0.9153996147628868
€ 1
Medi@@ 0.20419912691638023
SA 0.6119342832595814
Sor@@ 0.6061154576307599
Walter 0.5680425309484856
fus@@ 0.47090637256579093
km@@ 0.3911242270515031
liz@@ 0.7711776793119396
ovi@@ 0.43392322014709966
Dou@@ 0.5790155089912763
Sof@@ 0.5926042308505804
Spr@@ 0.2055490738200927
aff@@ 0.10180487581154135
ater 0.09591810756013835
ays 0.14544462882417059
gen 0.10868814505960438
ias 0.5113049241765354
ont 0.06494870518582309
sur 0.0333083698574628
work 0.06458983633516534
1870 0.7022310266696224
Cop@@ 0.6170701712629527
No 0.3227955465216716
non 0.12833951994539752
én@@ 0.08752087164622017
Ander@@ 0.518365169992093
Green 0.457527295398617
Hall 0.2668762275465147
ever 0.13580209385538833
iz 0.4237095162767321
350 1
Boston 0.48212880483864173
Sig@@ 0.6495803851722218
WWE 1
annes 0.5277765764370338
aux 0.035051910610546834
bes 0.27109647130009673
dik@@ 1
ein 0.0230778100210332
elop@@ 0.4621954970289161
istr@@ 0.22737775072270155
mili@@ 0.5205693255532775
oks 0.23387293074669624
oll@@ 0.11469970031106282
ores 0.10206302574503018
syl@@ 0.38852887021914395
ér@@ 0.05345742371522098
160 1
1860 0.7891680600495593
AS 0.7214136533961596
Center 0.27103154770820215
Cru@@ 0.5056016553592624
burg@@ 0.4048810048378238
etti 0.6271171421692155
hir 1
lam 0.6453514620222267
â@@ 0.11184031683370636
ος 0.19275390094354616
1902 0.5947780301190407
Dol@@ 0.4034720850804666
Time 0.5752929157215366
kung 0.5964178861156788
Alli@@ 0.5238873153277489
Ann@@ 0.5107092950516579
Antonio 0.45096305759996264
Aus@@ 0.06359129976961214
Leg@@ 0.21455549684358108
Red 0.3198534529728403
Vill@@ 0.41875467866065924
ative 0.06288928844762626
aun@@ 0.44952285794838576
loy@@ 0.19420241444889474
mez@@ 0.947797863974192
1907 0.5192814394299836
Alfre@@ 0.6048771820589629
Flor@@ 0.5760424436556578
RE@@ 0.8124117903274303
Show 0.5615362754916772
fo@@ 0.1175136432244028
ux 0.11696634771528985
vers 0.08563254016766851
1924 0.38137895533510674
Chem@@ 0.5883727377846442
EP 0.5742682460982128
Lud@@ 0.4493613761557376
Rap@@ 0.6082021297932843
app@@ 0.09883157109595371
ft 0.1385324249996355
gi 0.9386678131998117
inter@@ 0.026819417970354885
itz 0.15056423785306577
line 0.0851365054895031
serv@@ 0.08250394423573744
Day 0.40326143994053176
Feder@@ 0.22365307108377996
Gas@@ 0.6417324575763467
Liga 0.377411489476849
Tom 0.5092283310691836
ister@@ 0.16020647937963992
izi@@ 0.5151358877060639
mont 0.3870109529148656
nor@@ 0.07709118424403864
ont@@ 0.24305840058015557
1800 1
Disney 0.773591137446833
bar 0.19887366991905792
din 0.8596846900835922
icia 0.6120871504559977
int 0.29169089220476696
sti@@ 0.08499289871681653
ón 0.06307116482195059
BS 0.5399774350103621
Dani@@ 1
awaida 1
ern 0.07724008066303573
eter 0.16530349647019632
furt 0.6309610897959972
ges 0.16308434830766164
ters 0.07051661772721077
was 0.004217900218836015
ו@@ 1
Clau@@ 0.5194320479575821
ental 0.09045207755617209
ights 0.17478949774144284
ë@@ 0.4800775474048264
Fri@@ 0.42373125796846595
Rah@@ 0.435234239261622
SP@@ 0.4873015121433209
ode 0.17738504156969653
sions 0.15405182325268788
ú@@ 0.1734690433718422
140 1
1911 0.4521634124294904
Mill@@ 0.5308096326410909
ear@@ 0.09225213551017988
eda 0.7700564375481801
ets 0.06528101496141445
ican 0.2261813242153638
lin 0.38153656079912013
nch@@ 0.4388165990468335
ric@@ 0.20296706364299766
tari@@ 0.6700807120203329
101 1
1880 0.6667177496660041
1921 0.380689633230426
America 0.21552043693587564
José 0.2948767204908999
US 0.10244481573350792
ansas 0.4465735433925305
cal 0.18170006680609616
fol@@ 0.07706207784811257
pro 0.5030384100272469
Studi@@ 0.20028322423769
Yor@@ 0.6862587956092947
ature 0.0948339125418854
gan 0.5324984933282592
mor@@ 0.11147482212317639
our@@ 0.17734822716210258
tario 0.45012701559591584
ˈ@@ 1
​ 1
110 0.9610351562982865
Migu@@ 0.7324698646607529
Nav@@ 0.17354230100289147
Ye@@ 0.29308755136998266
ici@@ 0.06370160276393073
oso 0.35760497532262997
tre@@ 0.07658373018792934
unde 0.37601692398058084
ç@@ 0.09056234902386028
Andr@@ 0.49807784808615463
Eg@@ 0.37382848398317314
Nach@@ 0.15418804540979997
ce@@ 0.09448963896602537
erre 0.3486781411456909
ier 0.14939088678112328
war 0.022571533645820784
1884 0.7660265587732515
1887 0.7527446792773766
1904 0.5026021767055285
CE@@ 0.45593319900836615
Kn@@ 0.3259476365022004
Sci@@ 0.2021272802736815
adel@@ 0.34739554209322043
eck 0.33893172209678596
nat@@ 0.38840711422967084
olo@@ 0.769070154022562
Chap@@ 0.46205936891578275
Institute 0.2550938503655463
Oy@@ 1
Techn@@ 0.28507890456938234
ents 0.028984422677921343
from 0.009954507465778632
olas 0.4536491362187321
onto 0.29690664776817727
others 0.16834916657779744
1899 0.5923760888329065
Blue 0.4847764016613343
Commun@@ 0.22630942109486676
fl@@ 0.044285275000461706
sein 0.10582860017592821
tics 0.11599253861731469
Great 0.2982726983370667
azar@@ 1
fes@@ 0.1901980476608403
otte 0.3752003248962712
tain 0.08399480945581243
11.@@ 0.9449609916713132
1891 0.6765717983761687
BA 0.6009353974053901
Dig@@ 0.6049840057103624
Juni@@ 0.388640717169166
ebr@@ 0.3218178504419195
imeh@@ 1
nav@@ 0.19046888490278546
ous@@ 0.4447055732620741
1898 0.5672476946375155
Arch@@ 0.2849847504756746
Road 0.23435040177747288
fel@@ 0.23631871344939673
liga 0.2954655541052826
zur@@ 1
Bec@@ 0.39024242213781446
Bundes@@ 0.17539136828180854
Sat@@ 0.5531087140606762
Spe@@ 0.27796417963011516
Stand@@ 0.32407219749763905
`@@ 1
art@@ 0.17606054662940757
elec@@ 0.07599069002362804
tho@@ 0.15500983392922207
ump@@ 0.26043309062670955
yok@@ 1
Beau@@ 0.49163188688977827
Tou@@ 0.5668619246352544
king 0.07169190637218799
media 0.2373669375492203
pil@@ 0.20914610611159642
solo 0.21648049889482776
Ago@@ 1
Anne 0.543325323397721
Hau@@ 0.5488955514743982
Op@@ 0.2673864768257244
aud@@ 0.5052527395567942
fe@@ 0.0554662561978346
onne 0.22115264337797894
ré@@ 0.02425318033747844
ud 0.2900038371557106
ա@@ 1
1915 0.401231326789796
eu 0.21964840227789906
fri@@ 0.11618687709402856
ien 0.06958419595418022
ig 0.16555006565818184
kt 0.12141970484707021
mang 1
oman 0.2731262269012047
partment 0.17372174186439754
1897 0.5667617481320262
1901 0.5042673530561432
Rud@@ 0.5206483871871063
Tit@@ 0.3681911025470816
ills 0.26260813692285606
ines 0.08536230674428276
num@@ 0.2095364340667036
over 0.04356140262524908
ports 0.11253705696328428
Film 0.16295526617362038
air 0.13927366043563455
alt@@ 0.09943074786922444
gar 0.2851986543937125
ı@@ 0.30220722839188596
Wilhelm 0.41691125019573105
alls 0.17500842663931984
lar 0.13130070831901627
lob@@ 0.39688784809634026
mes 0.10233899700960344
ture 0.05690267652731274
ũng 1
10.@@ 0.6568352230634075
1866 0.6337616292178961
France 0.07500740907857034
Hand@@ 0.2102671958758008
Street 0.16733138262374847
ides 0.1329474883099251
ken 0.05784597950260907
lobal 0.38000109708291846
low@@ 0.07412356496914181
orum 1
sing@@ 0.1395968649250067
thu@@ 0.4753853214296727
ty@@ 0.27499519143289286
ş@@ 0.16027670658230678
Anton@@ 1
Arts 0.27378284419119975
Lan@@ 0.4328206337534414
banda 0.47499572349559543
heim 0.32787716691019386
130 0.907368619379071
App@@ 0.43910726136444517
Bank 0.3473463070607163
Jus@@ 0.23746070670891814
ards 0.10560049263520346
encia 0.06475525855509864
ning 0.07570170057354848
not@@ 0.06052277281344146
pres@@ 0.03614311505311961
pri@@ 0.11931353738245597
res 0.08539748043273018
1892 0.6063343007526814
England 0.14509649370982544
Ré@@ 0.18492581037178782
alla 0.3146491827291762
atre 0.24837950413484042
cer@@ 0.05173097388767804
day 0.0632232577959724
fran@@ 0.23984698331038865
gul@@ 1
yth@@ 0.30703106310926037
ạc 1
201@@ 1
CI@@ 0.5470449211041357
Centre 0.32829136697433886
Rot@@ 0.30474085618658997
chin@@ 0.36092725929902764
ehem@@ 1
él@@ 0.07062768100864161
„ 0.028355137185172234
1895 0.5365311884953321
On 0.03765797160008871
Produc@@ 0.30164640570209983
Wer@@ 0.11592505073044027
dez 0.44874187649902414
elen 0.1460187584225596
form@@ 0.03770563526884822
isini 1
pre@@ 0.037111532885997854
tivo 0.3239519016043508
ves 0.06716292621684238
ía 0.03297519917343619
ł@@ 0.26520046959250493
Gold@@ 0.45048910083538063
L. 0.49083629362677544
Live 0.47203583399308285
Ran@@ 0.4480061890150244
adan 1
eski 1
onz@@ 0.3760099730011692
tico 0.133334199667898
Arm@@ 0.2857749734354212
Cath@@ 0.3772683406834105
Die 0.017525892536908862
Din@@ 0.5989736004554503
Fut@@ 0.5651757073851766
H. 0.40060576050997226
SS@@ 0.666020038900961
Soci@@ 0.17929239492143456
aco 0.48934318384616704
bis@@ 0.6685123558659257
cap@@ 0.057559742741539334
ه@@ 0.16190627516208914
Augus@@ 0.5556585217477767
Haz@@ 1
Red@@ 0.31244089039578293
Web@@ 0.4027626574887034
alar@@ 0.3839709468488858
atus 0.3150165880632275
eu@@ 0.410008116868769
ids 0.21957537064691965
iness 0.14039148964749365
tete 0.21009367804345647
trans@@ 0.04355989311129883
ward 0.1632524545384767
1861 0.6593389683439578
1871 0.6203066587519728
Da 0.3655724907667667
Lake 0.2373739674283011
af 0.43775838717828847
ayan 0.6793548747632293
bre@@ 0.05416122285590591
kin 0.37150941959997275
ways 0.1678327059387766
š@@ 0.2772679531346474
CA 0.4953175791972076
Div@@ 0.550698116857711
Hav@@ 0.39330581589498465
SS 0.35976205775813835
agen 0.12172529576625055
ail 0.21955310799556418
azine 0.20168273694779898
can@@ 0.061923933579735795
cul@@ 0.04863159435062415
grav@@ 0.39434271765384765
her 0.02013773451056582
mel@@ 0.20049266336314936
ones 0.05508108416746481
ord 0.37110372766403854
sun@@ 0.5361499800955191
1893 0.5597342574151795
Deb@@ 0.3090316472761471
Var@@ 0.46241757475300466
alg@@ 0.19076199663357135
cop@@ 0.14861193674250203
cur@@ 0.0534137275735412
dam@@ 0.12383028124708503
eff@@ 0.07001527393760613
enberg 0.4192288275190935
enc@@ 0.05188812524499522
tre 0.05561779345422032
Barr@@ 0.4319498376812676
Long 0.40439025937813305
Max 0.42551984539374266
Ori@@ 0.3368572802003715
Tenn@@ 0.36186406149600864
Wes@@ 0.41939542793287377
aul@@ 0.42033841274863043
lev@@ 0.22295693468244276
more 0.03819145144150183
ple@@ 0.17368046613323687
rap@@ 0.10157868306959114
right 0.13647133054464294
town 0.090194910914551
wer 0.15338382031700376
1894 0.5588829728663056
80@@ 0.8805891733352944
Kle@@ 0.27617263287007726
Luis 0.3972531054435407
Ohio 0.373976328233241
omin@@ 0.915702369052584
rique 0.3821769205807651
ton@@ 0.29370077617378343
ː 1
Ankara 1
Aut@@ 0.14013165212992362
Cup 0.11765665046382665
F. 0.44653688916177364
Gö@@ 0.46933160597482754
Microsoft 0.767990518802997
RA@@ 0.3032329172808533
Serie 0.4004808169727922
auf@@ 0.032980435049322375
eds 0.20682853672883636
mom@@ 0.29005971327201
ness 0.15911574226105518
ow 0.14755804658746627
rain 0.32407396153026363
ted 0.020417769356722813
ER@@ 0.4635736177804334
Gem@@ 0.4562348303631173
Lar@@ 0.36359708407716357
Rol@@ 0.2002139115175954
aca 0.4271815979736844
anger 0.31016964847727285
bez@@ 0.29399563526263583
nu@@ 0.17412829487168202
off@@ 0.03871386535597942
ose 0.3069202716230656
Chin@@ 0.19206721659378168
Hans 0.35437936229945494
Loc@@ 0.230377575289912
ainishaji 1
into 0.03240153334311028
out@@ 0.08642288433676455
tig@@ 0.0707920326389765
vel 0.8578841179214558
yd@@ 0.5123526889338448
à 0.005745861759440956
ָ@@ 1
Art 0.15064117543342379
Pop@@ 0.2878808103649065
^ 1
isl@@ 0.17974316463689732
leri 0.21855888464920115
onal@@ 0.22777635557060372
pul@@ 0.13174937356899163
time 0.027258064084168164
ğ@@ 0.2748915776220283
AP 0.5292965356709062
SE@@ 0.3589831829247578
Song 0.42064920086889096
ague 0.13602077845140262
aut 0.1212500171729074
cher 0.10078020112509414
esta 0.08843610176901746
kg 0.5191632278762256
nach@@ 0.1946703732521493
ometr@@ 1
poin@@ 1
put@@ 0.11822314424444777
ī@@ 0.8102609914787272
Educ@@ 0.2109071428396351
Mod@@ 0.3057882968995223
RO@@ 0.6138433953338422
ense 0.13030965802140151
illo 0.25659291684326385
plas@@ 0.47407979203593725
teri@@ 0.24183530966099032
Azer@@ 0.717817012967496
Cul@@ 0.215531330598659
Juan 0.2114921209868035
ape 0.30726174965369524
ats 0.05843005088452537
elt 0.0677675042166936
eus 0.7332580439733678
graf@@ 0.48511910781994855
lock 0.21079378140032934
off 0.07572236101214042
rem@@ 0.08039066091514604
ser 0.08646572303491805
sky 0.28626467476416256
up 0.03572194454401356
1881 0.587611308367535
Corpor@@ 0.32886028342818036
District 0.11480481902551788
Jack@@ 0.7849471924052634
Willi@@ 0.684670159470315
XV@@ 0.7240295402954802
bay 0.35724148262926436
ider 0.20254643755260998
12.@@ 0.7221934527846877
John@@ 0.4578283489960012
Organ@@ 0.20583054477030815
Rum@@ 0.6171370893553791
bec 0.3260490416397627
ei@@ 0.1743230096903737
och 0.4983676846020334
para 0.024372660344754722
pur@@ 0.08502314514508294
yle 0.2730699900506088
ê@@ 0.07688424851048296
COVID 0.5005092366396748
dom 0.1781213597722111
enburg 0.38901878687917846
hie 0.24371150251111823
ox@@ 0.21401846689823892
sub@@ 0.0341347270642771
öl@@ 0.10721046479784382
Buch@@ 0.32278873175588685
Copa 0.44126232245212954
NBA 0.49858374168711833
ason 0.20812871250275428
bat@@ 0.09393631233846401
ering 0.1198524162102409
1830 0.7171656283333396
1850 0.5916835998858758
Council 0.1465921674842624
Super@@ 0.25068214328301025
assi@@ 0.26803164011248615
bou@@ 0.40780166209695595
did@@ 0.2512440957742306
dir 0.18805154528708073
if 0.10060454561564787
wes@@ 0.12801050957574636
ü@@ 0.03573245767837218
1909 0.3554384343879603
Church 0.14142716025984023
Ferr@@ 0.4660408507097568
Fol@@ 0.1022311788448819
Play@@ 0.1996736221797282
agne 0.11250137239457836
egr@@ 0.28843332647295344
ept@@ 0.2641523958007847
ers@@ 0.36646842124972545
ien@@ 0.38446046218589375
lem 0.25035587569373113
net 0.1460337995803788
oy 0.5711585116285407
wh@@ 0.0520975398301892
ör@@ 0.050615240559249305
1869 0.6355630845820615
Aires 0.45663216471828383
Gel@@ 0.268134527147224
Pil@@ 0.3694810974330989
Proj@@ 0.22661898168497263
Thom@@ 0.4330053526633443
ensa 0.39144928578525634
æ@@ 0.8200157349727267
Buenos 0.45200616967054796
Henri 0.44705261621272263
Meg@@ 0.5709965984380273
Squ@@ 0.2511728164965687
depend@@ 0.1910080368579012
hist@@ 0.37892828004193446
iche 0.34112888617331466
itt 0.5891517434171768
lan 0.46569275149541633
ran 0.22270323375068413
senti@@ 0.44522017190619634
unk@@ 0.07730616336946315
Christi@@ 0.42738794183307344
Journ@@ 0.2563180261412961
USA 0.22216310295897343
Vel@@ 0.44435707109053224
Windows 0.44587917525135856
augh@@ 0.08355972865825544
bour@@ 0.1979604504668205
leh@@ 0.4926030335783954
ms 0.09676113909114724
qui@@ 0.06066199246334662
xim@@ 0.09525573184548802
1882 0.5475838479922822
Dec@@ 0.24005782358659852
anim@@ 0.10065877729610868
annel 0.23288787960449525
crip@@ 0.13111680538340395
loc@@ 0.04527830810045792
optera 1
peri@@ 0.1038494210346676
ree 0.10527509281823513
stadt 0.1686457894333956
è@@ 0.042796984458642065
Gra@@ 0.2447687620025164
alth 0.1136600849214334
ann 0.24921284385961362
bus 0.23106546166658343
ces 0.04229881447102702
ding 0.09080888480614466
ges@@ 0.05474151819179221
inal 0.10221851992430765
inh 0.3688608751310926
kan 0.4954902936596996
ket@@ 0.14479273756996902
sev@@ 0.7549164629567903
tera 0.3226857522981926
uerto 0.34418175883976126
ə@@ 1
Brand@@ 0.3833708495797463
Jes@@ 0.24799176878302825
NE@@ 0.5331979199733644
Nig@@ 0.8979313141557217
Tanz@@ 1
Yah@@ 1
ander@@ 0.16330125006720267
char@@ 0.07239088681877717
cio 0.2713714902658328
house 0.10008506236084963
igh 0.5476940712273024
name 0.046958745070408744
side 0.04620159796321516
yst@@ 0.25678294615699626
1883 0.5474471414337843
Alt@@ 0.3819702234395703
Hin@@ 0.2538581754976853
Plan@@ 0.24464260555473824
ST@@ 0.47086758736911205
alis 0.4305362457216374
ator@@ 0.363996220920677
bec@@ 0.12755397707006125
c. 0.4613422053932116
emaji 1
ister 0.06286867520613817
mas 0.3021526007557363
ning@@ 0.4512060398366628
other 0.019937121922772808
publ@@ 0.165600508698782
ū@@ 0.492852003012109
β 1
European 0.12262649591009044
For 0.09579493128191739
Friedrich 0.2393644982698533
cut 0.22538488597756887
ique 0.0729916632814928
itali@@ 0.1663678717722201
los@@ 0.1164042045967906
ron@@ 0.17793136101206294
sti 1
ē@@ 1
DS 0.4621835878411024
Got@@ 0.20148203386006758
Land@@ 0.0695228382203792
Publi@@ 0.24063755164502332
Top 0.29725514711768836
ado@@ 0.4018721469293485
ahr@@ 0.15648941717316026
ces@@ 0.07924516063986004
dev@@ 0.07242644295348398
hon@@ 0.09644772826882543
occ@@ 0.1246701252713181
union 0.22702845896668847
Festival 0.1592462468423757
Lon@@ 0.7687455697955978
Stadi@@ 0.277016171963436
chen 0.04971020252115936
conom@@ 0.2726826239273453
dé@@ 0.014512255933001888
ium 0.21434544249878468
mit 0.009873222270182875
tel 0.12365959305488419
1865 0.5088788459047345
Cast@@ 0.24189752068347808
Jap@@ 0.1290505084705788
allas 0.3818329399247637
dad 0.26600223047117666
eron 0.11646915122752931
ev 0.3525521622421035
idad 0.04386807441848248
jed@@ 1
ret 0.2395911015515874
tit@@ 0.12460581527261785
van@@ 0.42267486783157393
zona 0.20174439475450115
ς 0.3465101524698138
Cir@@ 0.286397647094028
Las 0.11265638102439618
Tour@@ 0.2009150509128058
XIX 0.37665354750550395
act@@ 0.1793800576210007
don 0.19596624678172436
dri@@ 0.11560572251162471
ection 0.04841581274397262
eller 0.20716670224112518
long@@ 0.10808128351428228
luk@@ 1
mej@@ 0.4583073198038203
og 0.3411350539257331
rea 0.19345217204123563
tion@@ 0.06894861690908416
tul@@ 0.5824701412200668
utz@@ 0.09098898466191177
Bill@@ 0.4318937903231825
Champi@@ 0.12932385430149873
Colomb@@ 0.4066172685558123
Europa 0.2359192033063661
Les 0.03399214861096236
Orig@@ 0.2209241902164464
Santiago 0.44805948173144916
Univers@@ 0.5209363462644475
ael 0.5347534401456344
aine 0.0815162470219281
dos 0.0576418547360077
ement@@ 0.17820092342791413
star@@ 0.07704587485193826
trong 0.03220896796253255
urn@@ 0.2243482377978185
ı 0.0911348693170773
ב@@ 1
1867 0.5036500094691885
Amer@@ 0.2501872320656162
Dé@@ 0.1832133915343516
Kre@@ 0.10249488860163797
To 0.19222416251142838
acc@@ 0.031646433392683644
ck@@ 0.19368763164870806
cons@@ 0.03938157978959506
jug@@ 0.13060056639056533
sei 0.24233816995677612
sis 0.7484133464931813
ution 0.0751659003424199
Inn@@ 0.25690129259806405
XVIII 0.599232338045395
atao 1
atin 0.20031566233609693
ex 0.22051935936263886
ext 0.9543208378035706
has 0.013792136821965617
lies 0.14546427179526816
oti@@ 0.17649880902121093
ots 0.12738456979925855
BM@@ 0.500544802226658
Beg@@ 0.12788497053645664
Football 0.16616973758419312
MP@@ 0.48683262336564476
adem@@ 0.16880831699173943
atis@@ 0.1590415080437913
attle 0.10109631632877338
law@@ 0.15400139909210478
rol@@ 0.14666923347163185
sian 0.09122535443684371
Á@@ 0.16886345103696532
án@@ 0.08839174062797427
ée 0.012137893960226387
ém@@ 0.11420734394910884
1864 0.4647350092770143
DVD 0.3399001799949739
FI@@ 0.3025750441431212
Jacques 0.308690096718485
Johann 0.2368857018136167
` 1
dic@@ 0.05382132429806044
ede 0.37969743027012753
tures 0.10388994125571525
were 0.009178638200890777
ר@@ 1
1863 0.47898783211001045
Heinrich 0.3030627798851101
High@@ 0.19306483733023524
alifor@@ 0.8584035465953831
aug@@ 0.2440402574663381
bit@@ 0.1825124656270909
eb 0.2462950156384049
eck@@ 0.17648036698971006
hariki 1
lim 0.4089943588340661
prop@@ 0.056068719610842865
rad@@ 0.3452821103250455
í 0.07395989413267196
ː@@ 1
א@@ 1
Blan@@ 0.29123852473448947
Buc@@ 0.289691790029296
Elec@@ 0.19674108132411694
Force 0.19827517466685599
PS 0.3311120621292892
ativ@@ 0.1665348628442998
deb@@ 0.2336003433060201
dle 0.14345881544681988
fen@@ 0.2567149974400904
geg@@ 0.1399803196746669
oca 0.49797003472084767
ple 0.061418490929981355
quel@@ 0.45858436856828294
set 0.06592387292622558
å@@ 0.503556274648159
ā 0.9203348130533091
1862 0.4640025569418817
Do 0.5086348399700141
Station 0.18193334815337314
ert 0.036115201806711676
née 0.23504975930779282
pes 0.10653284170677468
proj@@ 0.07464845475339728
sec@@ 0.02775968605959456
viol@@ 0.11331756829789148
ī 0.9595000002152
́ 0.08652141588931228
ְ@@ 1
Ere@@ 0.5281396078902448
Off@@ 0.10550553387528709
Sz@@ 0.3309427571275663
Vor@@ 0.04605038726957872
bas 0.42508369785385847
fac@@ 0.03235419795072804
ife 0.1128542478726566
iss 0.25548589808486144
leg@@ 0.035922598451858724
red 0.023167539309608996
tif@@ 0.14660377263032567
weg@@ 0.13345666354180627
won 0.050006880932368485
yg@@ 0.39824803368292117
ès 0.0823704468087354
ب@@ 0.06384419106116344
ح@@ 0.11195211093250314
1879 0.4536050317849793
AM 0.4099617513443671
Arg@@ 0.4066421292711866
Et@@ 0.28484926167519015
Franz 0.33830617027215015
Grande 0.33047837271303265
Lord 0.22477294892442382
This 0.02944517230739067
ager 0.09543786435480076
alle 0.11328797639211403
ating 0.03409044403766624
ayn@@ 0.9261401705460798
eder@@ 0.07635869074451439
ely 0.038544745967445344
ful 0.06228329913412763
nis 0.11289211669721198
ods 0.11510931077383546
ops 0.12108871610363116
org@@ 0.17239749411364438
ouv@@ 0.05487068728377041
press 0.19379721212170142
she 0.025133849027438263
ō 0.2156866235411059
ِ@@ 0.7350005229862981
1873 0.4622157184042317
As 0.04830615760718073
General 0.07931964268366085
aqu@@ 0.12403840350327226
das 0.010676429156148188
hard 0.206184692620876
iye 1
neg@@ 0.09279125265579101
tors 0.09424602696434015
vice 0.11056875974555637
wn 0.06375211983880016
yaz@@ 0.36676792216604476
ère 0.027034829845764954
ה@@ 1
An 0.09676202774271035
Carr@@ 0.3769197006109657
Doc@@ 0.22291349179327827
ades 0.0783797684663345
ages 0.03549902431738206
album 0.035565906070323165
car 0.0861025409186301
gun 0.3194100978055945
hoa 0.212694140206177
rez 0.2663252100496741
stan@@ 0.34085823257019443
ties 0.030124758810754035
tru@@ 0.14462459774993328
1878 0.4064456700497773
Rel@@ 0.12764174797973468
So 0.17375841031555278
Sub@@ 0.16798954998757937
azini 1
dipl@@ 0.586536191112949
enf@@ 0.10492852370529977
eshim@@ 1
had 0.01134262867614794
kno@@ 0.16510201805911823
osp@@ 0.23624499434680066
ury 0.1269244045099666
Ş@@ 0.3213273528637935
ּ@@ 1
Esp@@ 0.14987673866521714
V. 0.23853800146753223
cal@@ 0.05517257499751536
can 0.03063747370054635
ett@@ 0.11147055692207314
main 0.05947678301026313
rest@@ 0.07045414267642264
vic@@ 0.04678985490008193
× 0.302451908850871
ْ@@ 1
1876 0.42037852127924463
Berg@@ 0.2251299613945732
Jul@@ 0.6534955184770896
Nati@@ 0.21571306839568485
abl@@ 0.10215999794250365
acy 0.11924474491089264
ands 0.07863722543388074
court 0.12298968018375413
edr@@ 0.13744515621709796
fam@@ 0.1483381940451681
illes 0.32151818647102737
lus@@ 0.1801853429862
now 0.055189835867965636
ses 0.023507788993923744
wur@@ 0.5235416191729937
· 0.052057910536475176
ó 0.008281058642250868
1875 0.43146112051113206
Mann@@ 0.2667499404693765
PC 0.3468908772414879
auer 0.16225683063348295
cher@@ 0.23844307231346415
dad@@ 0.3680607723671236
diz@@ 0.4994691705981599
ehr@@ 0.08683112851512306
film 0.027450886041437965
hil 0.5608182831066059
ior 0.07394065770832237
let 0.16502574877339576
tica 0.07421878528417122
田 0.6510136414508917
1874 0.4306593940464357
Bow@@ 0.20858077406578385
Cou@@ 0.20755315243487604
Kant@@ 0.31666737693271124
She 0.033115729848469416
Tod@@ 0.22885236049910984
XX 0.30337336758333733
ency 0.08859812808628817
kay@@ 0.3857648787830044
tt@@ 0.303022766901509
199@@ 0.20239335752915577
Manuel 0.29719826052734544
Tour 0.13246640500346388
cin@@ 0.0825738687583544
diplom@@ 0.27452729069725784
enta 0.13121178963892702
eph@@ 0.2935254300588385
esp@@ 0.05321353819637296
inger@@ 0.5908183069239942
los 0.0068212835945443695
zy@@ 0.24322149264438328
ï 0.6200621919205488
ʿ@@ 1
ُ@@ 0.434271444771803
Baz@@ 0.7737430586980661
Cant@@ 0.4669534198157821
Jah@@ 0.21232031479731997
Meh@@ 0.5852188878131466
Mé@@ 0.24159260352004994
States 0.03972511653324347
With 0.11661782724191767
ants 0.030669538219238138
arak 0.42826325370443147
formes 0.37341711998187493
ment@@ 0.10061166103385313
odo 0.27754241149033415
sie 0.020264600118457585
sin 0.09841008445632403
sos@@ 0.7580450183463182
unter 0.03226481542349099
ḥ@@ 1
Blu@@ 0.26227517154922386
DV@@ 1
Sup@@ 0.349225592074899
U.S. 0.08014201655920122
bac@@ 0.23497150820990845
cat@@ 0.06828711781190096
enh@@ 0.14173938018914922
hayat@@ 1
orial 0.11054608459656433
polit@@ 0.1989218662520621
that 0.004453260228313112
yer 0.11896667632594587
éd@@ 0.1285583309561007
ég@@ 0.06702931521588769
1848 0.3648798293893337
1868 0.40260390820640923
1877 0.4021458683940563
First 0.11671335372900707
Rev@@ 0.24176155096603563
atri@@ 0.22499491682048856
chil@@ 0.11020325253358443
este 0.04665435595708038
lau@@ 0.25652775809656686
lier 0.08928010443235335
music 0.0556982919707451
prin@@ 0.09194576647840001
public 0.040499335450049426
san 0.41352852189625866
tes@@ 0.22762610707655018
urg@@ 0.1743394496169084
מ@@ 1
Championship 0.10867963285611776
Gener@@ 0.14326986489699794
Internet 0.2969460909269592
Tex@@ 0.22881419785685944
aron 0.04388245257690284
bach 0.11383728625890502
ball 0.06633747960244935
bau@@ 0.09664309212589518
ben 0.0506528089083589
cm 0.1719637039079396
ders 0.09508675037321158
face 0.06379948318306969
fem@@ 0.05152161706451206
format 0.2604285965350167
fort 0.10001546578055569
sons 0.13676284552984208
tical 0.06174917065121489
yay@@ 0.8083471198517772
ying 0.055084665824145
ğ 0.8435169726694262
ن@@ 0.104189517563028
Comp@@ 0.2670836865618696
ander 0.17658926985866638
anes 0.3173687150681926
radio 0.11752870614274558
riff@@ 0.18871502825764574
sep@@ 0.15665176421395446
ual 0.04049557549717942
water 0.06784172377570379
zon 0.823791561895448
ık@@ 0.3581668240364759
Bed@@ 0.25683089192823194
Def@@ 0.2072481500522696
Ein@@ 0.03778162811128828
François 0.22337515476137426
Sa 0.2267273163116814
There 0.052522337798098805
deg@@ 0.13003504117105857
dorf 0.1451762060810458
dren 0.47244193502240767
eaux 0.21524463990664525
fic 0.0842462713483959
gang 0.12997268672862128
hiv@@ 1
sup@@ 0.03912361190523495
tot@@ 0.16306476914803894
urt 0.07987195360461717
är@@ 0.04186183345277004
ül@@ 0.08297754923922558
נ@@ 1
1872 0.3849364865392842
adol@@ 0.3768607040614319
angel@@ 0.17115273207200224
box 0.2222797666018743
eer 0.08546998219855269
els@@ 0.10179910762979826
ilg@@ 0.8552804553287964
less 0.07564857933962227
lé@@ 0.1383584397625691
model 0.15939475250346785
mur@@ 0.10736651498135732
ords 0.08758254633678322
rat 0.1797475777459508
top 0.07017315908057202
under@@ 0.04911407129664351
vil 0.11676846466745253
′ 1
Cin@@ 0.26420716363729607
Kır@@ 1
Provin@@ 0.09253204417253738
When 0.07458672132083448
aban 0.08888202701443804
ace@@ 0.21110284499637988
ality 0.0689655292104375
ats@@ 0.18366805719661036
bot 0.26883046948907097
ems 0.05336449865878691
esti@@ 0.058881293781901656
eum 0.1534200909605564
fir@@ 0.06648331643951287
koa 1
ority 0.08493327967724945
ough@@ 0.07012683815328478
pon 0.09959651638547438
vention 0.13096712892177087
İz@@ 1
ία 0.08281978155283412
Land 0.14380733648293983
Nam 0.15293978967556843
asser 0.21420738239639778
ater@@ 0.2599529568570883
cle 0.14465838768042646
country 0.07487754725853804
elik 1
modi@@ 0.15205284229006155
orio 0.15694918848080114
plan@@ 0.0762875868960383
port@@ 0.025924921733042523
pos 0.08508194658693753
rac@@ 0.07282009036819743
spir@@ 0.13811216053532427
view 0.0646966326902538
vor 0.03620816900375549
č@@ 0.17903969732270042
ש@@ 1
ر@@ 0.0957699084791056
0s 0.034646354044789066
Deutsch@@ 0.1676496286954124
Olympi@@ 0.16840546380015883
Pedro 0.24127395310187177
Premier 0.19846407732310206
Sain@@ 0.21073826769999676
Stre@@ 0.18842321020981465
asp@@ 0.13914080352459093
ault 0.14903627555872972
ists 0.051730739413137036
ket 0.07533494704676093
lib@@ 0.2525579052436399
lines 0.12200155325671451
neu@@ 0.1088527891720084
pens@@ 0.2077944283195514
school 0.03887413552957474
seg@@ 0.13588368266851192
traf@@ 0.18560001227082565
world 0.06074731385499047
Rein@@ 0.16971121315366025
VI@@ 0.43519140974304277
aille 0.1206911918329157
aise 0.1531968151743183
athol@@ 0.07045012723062233
contribut@@ 0.20350673924957943
eur@@ 0.1400183489267474
hat 0.04926257077756089
prim@@ 0.03756951401801309
rup@@ 0.10285855330188182
sch 0.07518268885678445
sus@@ 0.07082872932360532
tice 0.0732106772772039
top@@ 0.21106566688255693
umin@@ 0.2038479238928264
ums 0.05872090704583248
ár@@ 0.14023751792413292
ór@@ 0.10897088358679671
ş 0.26202841160403867
م@@ 0.08154643253279577
− 0.2612617909922357
.S. 0.677849863123245
Pier@@ 0.4663309543412881
Prin@@ 0.18612845235980127
arch@@ 0.05601811815332691
aten 0.05368982666165026
domin@@ 0.08542233328230227
eca 0.2849415656285624
ennes 0.12109602530751876
ference 0.09814425881899827
idea 0.16478576897775143
light 0.07017839673385874
rot@@ 0.10962081898542676
sel 0.10064236564175785
tie 0.18346541140015935
tras@@ 0.18455170145373562
³ 0.6381768759848181
ın 0.07756635077446454
ś@@ 0.6242353786532309
μ@@ 0.07516568196264806
ִ@@ 1
ع@@ 0.08285835075952909
Arti@@ 0.1988991344877356
Nguy@@ 1
System 0.18918953491047708
agement 0.08016233162165136
aissance 0.15316150875100928
antes 0.03885686904964476
change 0.07477511367024973
cy@@ 0.11442894517533933
eg 0.09926947567248483
elles 0.05133401608853167
esc@@ 0.06797003613748477
even 0.06321703749534875
ift 0.396312382137716
influ@@ 0.060768859634643436
mut@@ 0.09923877523949642
ples 0.07311802499159833
rev@@ 0.10107251719282048
wing 0.06377823768932164
ío 0.15639970339871503
س@@ 0.0834006003187068
198@@ 0.1517771343611725
Army 0.08148455125829934
Son 0.10471770747492752
agn@@ 0.07353348216442894
dou@@ 0.05907035542520327
thu 0.44941303945964994
west 0.05346374367443766
ր@@ 1
ك@@ 0.05576732104449213
ل@@ 0.04774780084556617
AG 0.25415941991615726
Album 0.1783691407130298
Alex@@ 0.45011673143954056
He 0.007459389585076128
Seine 0.1341249060972514
Yun@@ 0.6431387350248736
autom@@ 0.10643778430712211
dar 0.169630363098466
gli@@ 0.22309268684654238
gs 0.06275010791038461
lug@@ 0.22119958365883244
mac@@ 0.1997852555155995
nik 0.1664940451289842
pio 0.27176063849404286
semb@@ 0.07747175815145715
tiv@@ 0.040615416899066496
ular 0.033850851269957356
uld 0.09490394261525201
zon@@ 0.36549022430714506
ַ@@ 1
ם 1
Au 0.10177699010964886
Enter@@ 0.5099864353786538
Museum 0.09629758585850783
band 0.03392049298174072
con 0.007674851140677662
cri@@ 0.03421978569715307
etti@@ 0.41820744328371756
etz@@ 0.05408933628739633
ily 0.07087210795791354
lek@@ 0.22699371200483445
min 0.2924966643170791
partement 0.4162416839448789
rö@@ 0.21642168019387503
sion@@ 0.07664669717244331
soci@@ 0.038941266750175806
thr@@ 0.06935411991823395
uz 0.29501150285321437
versi@@ 0.06674632092390034
very 0.028938933972401677
üt@@ 0.09171979839832113
ın@@ 0.15872324202474275
August 0.026321300843806315
Revol@@ 0.14063571397339397
War 0.041377268148218876
ames 0.24193353496793546
blo@@ 0.1142055478888922
com 0.47788453472346776
dice 0.17429272784043665
nov@@ 0.06039685978164779
ories 0.07603446011538177
struc@@ 0.03944922979870456
sus 0.024689347467957843
tham 0.2536085881908044
tural 0.06279525158324308
var 0.3410216119011677
én 0.19652162530060988
ق@@ 0.07697966514614807
ي@@ 0.04365142829862251
Am 0.048632676440052716
Ba 0.5373288060255147
English 0.05728057317348096
Indian 0.09093057871984515
Minh 0.4942885075443505
Nh@@ 0.34261244557271386
antas@@ 0.20831924915719727
bourg 0.18175753736013117
cht 0.05194648613054631
ences 0.03492742981541333
ischer 0.038890611397100844
kel 0.13768147268056508
mus 0.22390391784668187
zus@@ 0.07346919580628022
ê 0.21750808322052737
î@@ 0.0671956193552811
şehir 1
α@@ 0.10102085922882849
ṣ@@ 1
Eisen@@ 0.2044914608030983
Es 0.03619124132367174
Fak@@ 0.29827317070010906
Olymp@@ 0.09227428558870393
Roy@@ 0.20742456827910033
ains 0.0366034344953992
bish@@ 0.11465737269627366
cial 0.05317375628230968
earch 0.05399690058870752
inas 0.1578811457768842
iter 0.08906736946721613
kri@@ 0.126628709624924
live 0.08990355744571363
oir 0.1258990670352799
pes@@ 0.23380505125905263
super@@ 0.07181914995303769
text 0.13050768803285173
ène 0.0856610584252246
ön@@ 0.07942553585680363
ü 0.13237931702623243
ɛ@@ 1
ɪ@@ 1
ν 0.15929550583093624
大@@ 0.025275848628906566
Herr@@ 0.12790191920535277
König@@ 0.13089315768158657
Micro@@ 0.5655951430487581
Prix 0.17664878746906548
Sach@@ 0.20392606964418228
Syn@@ 0.14779645381748588
act 0.0334679495178419
aft 0.07089755388086286
aup@@ 0.36454536713248364
azu 0.15268083263442636
comp@@ 0.01739196482682481
coun@@ 0.026662476000492985
dit 0.09357148668743698
dre@@ 0.08220066808174267
eing 0.1664452014110712
mina 0.18660359758655992
otr@@ 0.4227744700554404
vier 0.06589330997897926
ž@@ 0.3030224587297808
بن 0.2860109811858189
Cum@@ 0.37218525143887315
Dok@@ 0.2707087305008316
Ober@@ 0.054400802189580606
alt 0.10742251789836649
anan 0.5475344875296096
back 0.035531473667728644
ball@@ 0.09339611319481994
cole 0.1273222056418853
enci@@ 0.06912860831668483
haribi 1
jou@@ 0.055562707100717104
mission 0.0361775547068909
nati@@ 0.0745156420336979
nes@@ 0.381536024505334
not 0.009926221603345654
part@@ 0.054934160226012746
quar@@ 0.06412010252762265
sist@@ 0.06726921595334294
tima 0.21795336158623307
under 0.020135605082048383
zen 0.05524185618839892
éli@@ 0.11739661377439685
ín 0.09533234887660068
ú 0.10982244563471844
ד@@ 1
ל@@ 1
ال@@ 0.06352201461085512
س 0.1071350511233357
َ 1
Bei 0.06825947367033572
Empire 0.11661614610344614
From 0.06835085632444028
Zw@@ 0.11027642270399113
ahl@@ 0.08022867587891429
also 0.007020392489433174
born 0.022165276689340357
ety 0.05780843408266238
formula 0.027697785120137725
head 0.058732316664510044
his 0.003946615935454113
icul@@ 0.07904932013938157
ography 0.06281704909124328
stati@@ 0.17228922560430526
ste 0.0456374854512382
tier 0.13876055073688173
tive 0.045516271097422956
verse 0.08615466116477973
ün@@ 0.04425308545699227
山@@ 0.1089643441174402
Il 0.012446046614323336
Radi@@ 0.2327175495394897
Sport@@ 0.15745941216128895
ados 0.01772981588335012
aly@@ 0.08249474766065282
asc@@ 0.13733911386821643
aç@@ 0.14652414737930003
body 0.08071385605355566
dition 0.03700243686161095
doc@@ 0.07142900836254988
igen 0.021730128099414055
iken 0.3080115822732116
inst@@ 0.04855153137980525
kle@@ 0.06997389216509467
zer 0.19094568486326838
ν@@ 0.0733913112315876
ה 1
ע@@ 1
Ἀ@@ 1
0.000 0.1619936942755446
Bez@@ 0.07673952451637751
Klo@@ 0.1739514507019347
Mai 0.07235182402826161
TC 0.23678217701924184
alan@@ 0.27911961956495474
ause 0.1267023023587165
aver@@ 0.059080010787388844
bit 0.16858417289030347
city 0.03227015992678589
ender 0.06925646229522207
ends 0.06015277634342579
erie 0.12452164214390087
imbali 1
lag 0.07367281362674037
ols 0.04813126062847034
prom@@ 0.03198987407682987
ques 0.014705985667379842
rich@@ 0.042626162852192805
stat@@ 0.04080923775933565
syn@@ 0.08074460590316908
zig 0.16911921582063474
è 0.5270046637115819
éré 0.19698936350049284
ę@@ 0.39974515572490404
ן 1
Nord@@ 0.08020136005810158
Yar@@ 0.506855883892913
agre@@ 0.07504456083337822
ahl 0.11177089175950722
akt@@ 0.7035335446679003
eine 0.007452111843697584
enes 0.09436524598787159
enin 0.3603430266773479
flu@@ 0.09945342634032524
gil@@ 0.16679434555987516
kn@@ 0.11361769782731974
lers 0.08351838253426593
ley@@ 0.17916765111657534
put 0.08174110549102578
sive 0.036502195103298295
stre@@ 0.050171260893182516
tran@@ 0.11274024109417034
wards 0.06436084475064936
ık 0.22915995094743039
196@@ 0.13289762281624845
Amér@@ 0.1944531858652583
Geb@@ 0.11421057013360375
Premi@@ 0.10922450570307674
Sud 0.17172260691279329
WW@@ 0.49242051297757633
anos 0.0692147003303899
arti@@ 0.03551520516154653
benz@@ 0.5920456905794813
bers 0.08250898256950073
bli@@ 0.11482717943538194
cell@@ 0.08637338128450806
ches 0.027514133613224103
ease 0.05118717254093719
ells 0.09509869643890619
eran 0.05943793756893072
grap@@ 0.05566509184165496
iden 0.09595725270076584
ilde 0.5732964769346324
ities 0.06112688325585657
kö@@ 0.19387409708739925
ments 0.05207416848686791
mul@@ 0.10011216766625786
onal 0.024952298359133016
onu 0.754433292335756
spr@@ 0.039048618564131096
stand@@ 0.0336492415099636
tal 0.10863390719277947
zor@@ 0.6640167226635574
ép@@ 0.1828005375544426
ö 0.4674654498695195
DR 0.170311538173864
Ges@@ 0.043731718494574336
aer@@ 0.18065061667631677
aide 0.16232024209619852
cir@@ 0.0408693129536334
dah@@ 0.164394514813758
dec@@ 0.013484958370296665
emati@@ 0.07240065903158832
ener 0.07019571747592929
fak@@ 0.4762928324623769
fied 0.044532292867315
form 0.024713666778140176
habit@@ 0.08069819286969575
ices 0.06882210105487578
lum 0.2231024202501
many 0.018571916507411485
mix@@ 0.0961740149939656
mod@@ 0.06104211475222418
ner@@ 0.04368547326864947
new 0.016665698419991153
opp@@ 0.08663441369262438
par 0.006042587065685429
spec@@ 0.041842108772100504
tains 0.07864991475569776
ures 0.041188769431266606
vie 0.09115761137290859
県 1
197@@ 0.11783438966961321
Como 0.2122192714738232
Games 0.10976164946231745
Gran 0.23699100533364895
Mün@@ 0.08341713462900524
Universit@@ 0.1240715608930103
aud 0.15677807541875177
book 0.047641561129263564
dem 0.0052454123137110975
high 0.03503484382392635
jur@@ 0.06506486112337362
language 0.07057483020687748
long 0.032240064455424176
mbal@@ 1
million 0.04646103529409288
nationale 0.06949703614887211
net@@ 0.06600043110504283
stil@@ 0.43376331473105034
techni@@ 0.09621318883677595
Î@@ 0.44868501768854324
ères 0.03950610652853328
ñ@@ 0.05563979039851831
ña 0.11306414495978262
Š@@ 0.27274694054129867
د@@ 0.07049758888613612
محمد 0.5051352215683838
∘ 1
Ost@@ 0.1370419393232516
Philipp@@ 0.1393130684577219
Schwar@@ 0.17632746123706733
duc@@ 0.06464233148160023
esto 0.13750190849052252
eur 0.023849320306547604
gin@@ 0.2920092446713356
icro@@ 0.15998719541168077
isis 0.13955189086079228
mal 0.04338484453479858
mano 0.17647049410026855
medi@@ 0.01799396313403444
ographi@@ 0.11879803788006384
ording 0.06440235535629019
than 0.019324569778305822
tific@@ 0.1504407508077352
vari@@ 0.030288503016963935
éri@@ 0.02709407005021065
ū 0.3519156074150264
θ@@ 0.059193000688030344
ش@@ 0.05911350381663508
Fried@@ 0.134685391137299
History 0.0375001604469155
Region 0.09930942401452882
action 0.037580258825445384
ares 0.04790610752066494
away 0.07013323060907689
dium 0.2211958498792074
ective 0.06251990537973545
ehir 1
eles 0.18382743065209278
feder@@ 0.07027777081591209
fic@@ 0.02576152025528592
formation 0.058977529421986266
found@@ 0.10465428705751798
haus@@ 0.10803167364334476
number 0.02518987493002247
ological 0.0644386823873469
seud@@ 0.21333492486400377
tempor@@ 0.0955196664156463
tory 0.06275352000401503
unds 0.0666945907926245
wn@@ 0.07788994967294585
xi@@ 0.20837205193352684
ð@@ 0.489245343493758
Π@@ 0.07409155667338663
β@@ 0.04897358319269847
ة 0.05586072482163814
☉ 1
1. 0.032730993658297715
German 0.04452309576255929
Neu@@ 0.10349796096744973
cip@@ 0.07524222410876207
ect@@ 0.04939792873331873
esper@@ 0.22706281882351007
ils 0.03025381470806139
inv@@ 0.026134065590084733
issen@@ 0.15052942960583843
kes@@ 0.25825867238008177
phy@@ 0.1125712911644686
pour 0.0069029527671336625
priv@@ 0.03666362276797292
this 0.00918127264642665
ʻ@@ 0.8633308706110667
γ@@ 0.06865133867295041
ا 0.07251904893603998
ج@@ 0.05402651083109131
د 0.06840393212707714
† 0.057872782566574237
Australian 0.06606736304960499
Her 0.07626357673568077
aining 0.04007809808148969
ainst 0.748037051083531
alog@@ 0.09406772200081694
ational 0.0629395225725508
aves 0.05587962253819211
ca@@ 0.09459400230493031
cli@@ 0.06133221986526631
ground 0.04137334427646553
kre@@ 0.061941644905567785
lag@@ 0.08311050245507622
mittee 0.06460536627259696
muj@@ 0.2901948413349272
nin 0.1264659779279807
né@@ 0.06771801100759275
oire 0.1228364455850003
ois 0.12242751514608692
olan 0.08540623520000362
sm@@ 0.08591530280950917
ths 0.0510626787229685
tos 0.03747880633020689
tries 0.06418976389296857
Ö@@ 0.07409312141055419
ır@@ 0.1126473709262529
π@@ 0.055784995496755
ח@@ 1
כ@@ 1
ز@@ 0.07123142651501874
ف@@ 0.049964874072505105
و@@ 0.0399641473743747
ّ@@ 0.262852305206811
At 0.029466657504596882
Nord 0.09806015249987547
Tari@@ 0.585660932059416
alan 0.19888466956894282
asse 0.06264095567541102
cast 0.05846955949007796
ingu@@ 0.0753373284369722
ites 0.05440087467916727
lic@@ 0.05766398130529219
met 0.046375822488679906
model@@ 0.07942974728628904
mov@@ 0.030074958286630826
má@@ 0.08502886326396604
por 0.005089461631613981
proc@@ 0.028042900207742746
spor@@ 0.2085700119984957
tim 0.26897341673158603
tura 0.044184531269812775
vat@@ 0.21020251332308765
ving 0.053205995949108575
zeit@@ 0.11099337441973428
än@@ 0.022098268028143637
ça 0.1979213356344389
és 0.00872852826889906
ɡ@@ 1
р@@ 0.01268265648001379
ر 0.06572233212284999
َّ@@ 0.7535610792632493
ܝ@@ 1
Alg@@ 0.14601404014169728
April 0.018585791821139917
Fam@@ 0.3383504113429759
Govern@@ 0.05380186146535854
María 0.12221212428696017
Roman 0.07402818824325037
acter@@ 0.08597192472279083
aines 0.09051247363901013
cam@@ 0.051116344097982165
cas 0.07986326928379953
chez 0.11350796726107873
entes 0.02489927892142992
ires 0.03801353913640466
ism@@ 0.1837150514183551
osu 0.8931603460472026
pedi@@ 0.15597351396069617
pic@@ 0.06839980646695386
quit@@ 0.06159595247860369
red@@ 0.12054771889196407
ref@@ 0.04564492803508881
sek 1
tres 0.027011421468797328
Κ@@ 0.058365001830566525
κ@@ 0.044422968194855576
ός 0.08627676833719988
ان 0.06382693817335469
ي 0.04838425363051691
Gru@@ 0.08023419550769711
Munici@@ 0.11517486587640424
Natur@@ 0.08040188867953242
Riv@@ 0.30416537462816956
alem@@ 0.1565255688912179
anl@@ 0.11198686218293293
auen 0.09699452823260098
board 0.07241555584631988
but 0.007082130708685456
down 0.03465154923252269
fot@@ 0.21309066675732294
gem@@ 0.05704396154059582
ici 0.21481749090741217
inn 0.09623596861541696
ip 0.5304581819483474
isation 0.056786031856327294
ische 0.011290058885570387
lang 0.07980066102231105
pis@@ 0.07681774241186401
ppe 0.14154334515892666
sam 0.11294348292683325
sche 0.04832515709340605
series 0.02140023117508012
show 0.03591357456163468
stad@@ 0.5863956932048684
tra@@ 0.026014654568554087
trav@@ 0.0306222557929761
tuy@@ 0.5101258358157309
vie@@ 0.03276406658049692
à@@ 0.6243391438790401
äl@@ 0.03263508292077078
év@@ 0.03800515503039394
İ@@ 0.10516423961176771
ń@@ 0.27300463882386095
ə 1
ե@@ 1
ո@@ 1
أ@@ 0.037996128027942146
ص@@ 0.06700560296635918
ى 0.09508652992389727
ἀ@@ 1
CN 0.31391294007920567
Centr@@ 0.1489919462617077
Haus@@ 0.11684508651355809
Hein@@ 0.2088131111232058
Ital@@ 0.06483611863588942
audi@@ 0.08946956754549742
bir 0.020471590601685304
bri@@ 0.03753553326115807
eig@@ 0.043159123282114166
eros 0.07479791690683081
left 0.03182937039418344
lich 0.008710855727547866
lit 0.07616893708380444
nier 0.12315329369040258
park 0.07512280770510653
play 0.02781181412820842
rif@@ 0.056091120104711456
ses@@ 0.06423943915399827
squ@@ 0.051669752161705954
system 0.029352241094734388
tional 0.027819602860812243
uer@@ 0.0468746881787508
ustr@@ 0.0493504961388897
year 0.013215542302326968
és@@ 0.15907378445701403
Σ@@ 0.04544853404012881
ն 1
ֹ@@ 1
ا@@ 0.11308813836175334
Bask@@ 0.1507832352325948
Beh@@ 0.12406611161740794
Das 0.014225448531592954
Franç@@ 0.23294730749312517
French 0.03524615555707231
Professor 0.09249225510946504
aş 0.37908935292190293
comm@@ 0.017871661123067626
cro@@ 0.0401832354200848
dil@@ 0.1837711037718399
fication 0.05144575581930711
have 0.007560095407312932
hiz@@ 0.3386622570620841
iff 0.11059674060132181
isch@@ 0.029451340062187855
like 0.027282017495583944
part 0.011625956320670637
seh@@ 0.13537281247621039
sor@@ 0.02537280564822603
tique 0.04424396410566208
ustri@@ 0.1183375072606184
~ 0.3789149115665718
ë 0.4586600523030294
ís 0.1488655127151494
ô 0.10714041015136437
üs@@ 0.047340372002842426
ɾ@@ 1
ρ@@ 0.057473753172611976
الله 0.7531744115082897
ṭ@@ 1
193@@ 0.1665951833283125
March 0.021431234136753432
Schi@@ 0.11845903195869459
alian 0.07236425994225944
camp@@ 0.019551669570741916
come 0.04254587929935365
eral 0.09159246284152847
flo@@ 0.04467087670006118
ishing 0.05570973992571747
isten 0.03652987375427814
ión 0.040927706967018994
kiş@@ 0.38201839231708323
nen 0.03546147007159264
rid 0.25238688530250786
sci@@ 0.06213935515117523
tern@@ 0.08854675596010941
trac@@ 0.0424426464261054
trol 0.22409949108071656
ular@@ 0.049802615207764786
éc@@ 0.05417417353215111
ées 0.01233423513101977
ă@@ 0.19244500004316223
Đ@@ 0.037716201140041296
ε@@ 0.05384263978915438
ск 0.07059957322809311
ֶ@@ 1
ُ 0.982153399375894
195@@ 0.12238790663798436
Esta 0.11874759470639397
Liter@@ 0.09634818071588683
Luf@@ 0.10437052015476106
Prof@@ 0.1558889613117746
September 0.0153375530026088
Sta@@ 0.06266852094012783
Von 0.04219442661750408
aber 0.024002225309322243
alist 0.04668311047648742
aras@@ 0.7285267402871047
aş@@ 0.12679207339230852
back@@ 0.06453212642423733
contin@@ 0.044247881624287014
dra@@ 0.042842967236968926
dur 0.3315828064196579
ede@@ 0.3846585156965728
eler 0.04309773106917133
equ@@ 0.040434425422477265
fast 0.07771674609777338
first 0.005206618476749906
get 0.040592992921155625
hips 0.03098211009335388
jun@@ 0.19336356555317802
lı 0.10831034940120565
ministr@@ 0.06153550439231668
orie 0.07705825905222725
plus 0.009784030489838773
program 0.05279099430775183
qui 0.006153250127096343
song 0.026214586024016634
tric@@ 0.066879390764577
ween 0.15241070525762665
wid@@ 0.04647170627773552
xe 0.08298703772549378
ás 0.06789911183290796
üz@@ 0.3722075755110111
ır 0.08387519786807567
ũ@@ 0.9537439274524042
γ 1
δ@@ 0.04349899237943422
ת 1
ت 0.05739401195754981
ه 0.047522974557112435
وَ@@ 1
藤 1
郎 0.48340401504753144
By 0.04518405769566543
Name 0.08063126730287946
Open 0.07972266426196194
Pf@@ 0.05210447860282691
Syst@@ 0.11063967400949953
akter@@ 0.3596256281805828
anh 0.11990738480645272
cine 0.09037430747237843
dat@@ 0.10421072156522047
dern 0.04623085784925143
dings 0.04910512337817371
ember 0.1635275755196257
gether 0.04365842439785208
isch 0.024826710639563626
its@@ 0.08931929890070567
law 0.037894017204541275
milli@@ 0.0927294802061385
otra 0.13727948727064263
pen 0.07468169046045611
rier 0.09665330143112125
self 0.021933327022976616
sing 0.053326132662840704
spe@@ 0.032146496756888146
teur 0.024344057902657795
tn@@ 0.11819326723853224
toral 0.08377385377713693
wais@@ 1
yen 0.09254358314832663
zer@@ 0.12684047256080214
ège 0.06380490770817746
ʁ@@ 1
י 1
פ@@ 1
الس@@ 0.08117144934474751
ب 0.05888843760423209
् 0.003186059681603017
.000 0.1282808383768694
2. 0.054987814594960216
Academ@@ 0.15903532264266015
Europe 0.03569657124278227
Form@@ 0.08952969257766122
Kö@@ 0.06915481148526743
Nacional 0.06781640584768014
Ped@@ 0.3832358831945645
anas 0.09406339100872342
auto@@ 0.09454468063654488
ayr@@ 0.19471152037339684
cep@@ 0.04724673102280256
cos 0.06701992181083069
ece 0.03714115728164256
evi@@ 0.2523433997484053
force 0.05449991602141586
geb@@ 0.014870556153942524
gri@@ 0.08329773743429379
ief 0.050279131561561746
iran 1
kam 0.04444760333328085
lama 0.27738297584568816
lay@@ 0.09909358030557806
mari@@ 0.08037461498410499
mez 0.3286935652369355
point 0.0308297350983408
prise 0.058683598341928885
real 0.06284625905101766
tain@@ 0.03417406865538744
tere 0.1709916896694089
tish 0.10820909075424784
zur 0.013598323441505338
élé@@ 0.08231790264746862
č 0.5192256863729018
ħ@@ 1
š 0.2937334533910946
σ@@ 0.03947109992865564
р 0.0071019361852346545
ط@@ 0.050321182820878926
ِ 0.4329133465407385
3. 0.09247113080171979
5. 0.11705715785855038
Archit@@ 0.07729886540361983
Institut 0.11995441865637463
Reich@@ 0.06265393007255898
Team 0.05697559272022353
company 0.024140696114030573
cos@@ 0.10981698055155853
erek 0.22713095571622602
feld 0.07779644666678098
haup@@ 0.11570335079980835
ident 0.021074221902855763
iler 0.07719338064008857
inci 0.3068566307293962
inde@@ 0.0910841420349733
kho@@ 0.2762345791566719
liber@@ 0.05578904436770805
nay 0.20001034325834613
onder@@ 0.13811728957833594
padre 0.13752726141690996
pass@@ 0.01728326789545051
power 0.03820487383457793
test@@ 0.05578988716435384
til 0.07788340254397276
trad@@ 0.08163998148037563
té 0.026252031630832423
will 0.019606742341418376
ál@@ 0.1229841096094557
ò 0.18644887743092667
üb@@ 0.10203724829602519
ıy@@ 0.2274627088059655
ʾ@@ 1
η 0.018676704819749174
ֵ@@ 1
ת@@ 1
ل 0.052104625630716356
Elle 0.020739119122452656
En 0.004392912723592512
arc@@ 0.11333585803894079
boy@@ 0.10276869088892746
cou@@ 0.029020599004497133
def@@ 0.02109532543390916
eas@@ 0.037399714291851946
ects 0.0226033121408968
educ@@ 0.023648475779921383
einer 0.008555022759766669
eleg@@ 0.056018719365945706
embr@@ 0.14856507183395362
eren 0.02282394764978599
father 0.030118359585642133
gal 0.09960952771598247
get@@ 0.056805457178287916
haus 0.09118366663407812
hen 0.1106966173963032
incia 0.4376614282369316
ité 0.010036704511743464
ked 0.029609428747331492
mine 0.06033951295386386
ool 0.5571347913213444
over@@ 0.024956082341136394
sal 0.11877093780357968
ulation 0.0667613366473773
vai 0.29677463174545116
zun@@ 0.16037392861429087
ĩ@@ 1
ış 0.18092131807328127
ɔ@@ 1
ο@@ 0.047376278998515514
τ@@ 0.03754555321979482
χ@@ 0.03968245286108992
ի@@ 1
ל 1
ר 1
إ@@ 0.056984658710137435
الع@@ 0.06848695523954863
يد 0.2620264042475525
ܐ 1
194@@ 0.2228159160181545
Volks@@ 0.07592820815622962
abaj@@ 0.24900290530775848
ables 0.03503138656744554
aret 0.33087011826855744
bis 0.0068856672002174995
cus@@ 0.04434740059854465
eux 0.03598500775834705
für 0.004373157175292606
group 0.019952776791733032
idas 0.06696168878408136
irs 0.06132295918308998
level 0.03948058025329121
loi 0.09128761876657632
new@@ 0.04189947300690133
nom 0.028868265917339434
ort@@ 0.057737434499606353
pas 0.01611823337951918
prof@@ 0.02944099515958707
retur@@ 0.035574004979969535
rí@@ 0.14051022939951557
test 0.07474793651506298
works 0.03148709419697657
ē 1
ί@@ 0.03964397829973962
ον 0.2256370864623526
ρος 0.2853922445385721
φ@@ 0.0384509605767555
ль@@ 0.004598489779313857
ская 0.016973037220623807
الج@@ 0.0802680002420411
木 0.36657240059226437
本 0.06592685474275313
田@@ 0.22339860663723188
野 0.4982383835360601
Bras@@ 0.21611569360471128
Bu 0.08649632821934873
Chic@@ 0.43611473202979256
Division 0.030883254313666862
Oly@@ 1
Schw@@ 0.056522671866402766
Schwe@@ 0.05488743084232637
Stein@@ 0.09264715970921748
Tod 0.08937850084097834
UE@@ 0.7782773777751212
ases@@ 0.1489226473664374
ateur 0.03554086061770404
centr@@ 0.04013851519395379
docum@@ 0.033782578114167156
ellen 0.03241879587440116
enst@@ 0.06803506543026899
erk@@ 0.05599570157297026
hay 0.06476672791082692
ht 0.08859731380576068
inos 0.060873252945707265
luk 0.402921745529838
matr@@ 0.12626709369181702
ockey 0.05329254016369343
people 0.014693247169061457
peti@@ 0.032710721751020404
qua 0.08595037737969997
rus@@ 0.09318803724343229
same 0.01685898907055869
sau 0.05320642356221363
syst@@ 0.0413850104669823
tec@@ 0.09395122069358894
tex@@ 0.03637760513523653
tiz@@ 0.06474547171250222
track 0.040322230575425465
ural 0.04171191609080074
vers@@ 0.021073528540404143
which 0.0030866044906190816
xa 0.23431200008808278
zar@@ 0.19667656972039818
ás@@ 0.06985126376265531
ė@@ 0.9968202199385346
Ł@@ 0.27403768616568047
Α@@ 0.04430945703539126
Μ@@ 0.046014302246306954
ης 0.050755397262003156
Со@@ 0.019346720048042703
н 0.0054185809638060715
ׁ@@ 1
الح@@ 0.06361782017920187
ذ@@ 0.0838484141047199
را@@ 0.059841414622621644
ῖ@@ 1
山 0.056368621524003515
190@@ 0.42149738072987825
Canadi@@ 0.044970738741584415
Stra@@ 0.07879478297578596
Wir@@ 0.0762855072934236
anci@@ 0.02794612259372357
atz 0.054630736110557
bahn 0.06097563052939848
bey@@ 0.4765288996531044
church 0.03632067406304811
cle@@ 0.0433173368228055
det@@ 0.01988361114274047
ellschaft 0.0687096840666494
enter 0.08343418571320337
four 0.015261357318958956
ict 0.08563457405148443
iller@@ 0.13904092081630542
join@@ 0.1102010111153812
kır@@ 0.4979464101433672
lon@@ 0.11264529124520073
ograph@@ 0.049511584158901216
rich 0.10280423920240933
sten 0.013690112134368312
tee 0.29331794216498813
tros 0.21271928753114933
vas@@ 0.10142407335089348
verg@@ 0.10825207535771018
version 0.02515826564091438
vet@@ 0.11663210553033533
voc@@ 0.032151049212942914
Å@@ 0.5025200096378124
été 0.009521510862564779
ín@@ 0.05934770183540782
ño 0.09850109714015683
ò@@ 0.38001847610910505
ük 0.5014283164736297
üm@@ 0.06500326306840797
ω@@ 0.051095009523410236
к 0.003986658905869559
اد 0.18102889114443263
الش@@ 0.08147205339141418
ج 0.09092486696582108
غ@@ 0.04477318978488392
ق 0.05752561043069912
و 0.03887579969712495
ْ 1
ܘ@@ 1
‏ 1
夫 0.08311278307059447
After 0.01246536555853983
Apr@@ 0.8988301552280477
Direc@@ 0.04301506989059826
Emp@@ 0.1285566713520643
GC 0.3032512055475641
Institu@@ 0.08931593025136753
Person@@ 0.04375182841438026
aller 0.027099006023793462
bol 0.08057792760371654
champ@@ 0.06175707780326202
cit@@ 0.05178110707008144
emple 0.13018896937772903
featur@@ 0.020805927417620957
forman@@ 0.23815244117380843
gro@@ 0.01545480988478332
heit 0.03596112146125306
high@@ 0.026284185961371997
led 0.012251492382368254
lik 0.13185670102929384
made 0.009636139736622255
nea 0.1918529712536038
nos 0.07681655941072302
phil@@ 0.14904481843761716
que@@ 0.05830982092923591
sang 0.10279343597702867
sour@@ 0.02957213421708556
style 0.02965415009588628
tí@@ 0.08350450820013933
vern@@ 0.1108626954780812
writ@@ 0.02020726249747836
xico 1
yal 0.1003447819773396
å 0.7532497044185246
édi@@ 0.08445736701811113
Č@@ 0.22169529793350276
ʼ@@ 0.7264749372994399
κα@@ 0.05992454683729153
ρι@@ 0.056080153854363976
א 1
ק@@ 1
الك@@ 0.07166894174059497
الم@@ 0.02911106476758654
خ@@ 0.048492603128261605
Ḥ@@ 1
″ 0.8855238706114523
川 0.1764176428527971
高@@ 0.03662926223041073
Portu@@ 0.05091406839029415
arri@@ 0.03078537807174738
ağ@@ 0.07375364937129375
been 0.005371157692894994
coll@@ 0.012170590205670625
dete 0.03142125048467126
edad 0.0397555890829645
eş@@ 0.15603668630393294
fore 0.04709883370524529
gres@@ 0.04105594471642221
identi@@ 0.01603481713746739
irat@@ 0.24327900647441708
ird 0.13290240546456908
kim 0.3517587851264319
lie@@ 0.025257193290593352
obr@@ 0.33673089405761863
oci@@ 0.052527528943598946
onio 0.11922406321460134
post 0.04326220986060821
pou@@ 0.08138511034625225
site 0.01896788464549911
state 0.014587763142172073
stor@@ 0.03821634937544556
studi@@ 0.02579766065051135
they 0.00648854373256779
title 0.028413962629091523
Ø@@ 0.6594035493151822
éré@@ 0.0635987848914133
ün 0.11102879375508669
üş@@ 0.35480649692657357
ɑ@@ 1
Τ@@ 0.05077635306535296
ι 0.050370139218780446
τος 0.1687431048397072
вич 0.0335459019426603
յ@@ 1
اء 0.0909855202004818
الن@@ 0.07105737150358077
ية 0.025577471858262858
一 0.058024377821517197
189@@ 0.42967782819955425
Film@@ 0.07575498717193227
Hist@@ 0.07314013483165206
October 0.014697922286072468
Thanh 0.30206513323541717
aller@@ 0.11833350204063894
andes 0.10123197427919471
artic@@ 0.033590994703378764
bul 0.823529399050609
class@@ 0.026978402422624944
classi@@ 0.04353557947624535
enso 0.04251561335320448
etes 0.09792690790274404
game 0.015029346258466632
icht 0.019812721319797225
icio 0.03571283015872006
initi@@ 0.021336080784504316
international 0.026156893502918093
ished 0.01955399452950795
ition 0.03284741788184511
main@@ 0.02699523072767794
ned 0.013591878559915544
order 0.02483963384607405
ously 0.026374297419409387
patr@@ 0.03631818225418235
phot@@ 0.03663709871853456
play@@ 0.01592022676290928
plic@@ 0.022693980541504587
rol 0.18654844169118737
seau 0.06662893103491009
television 0.03418793259493906
territ@@ 0.02920117333001257
tif 0.05793534428545364
yeni 0.26055061134275576
µ@@ 0.6631897602821442
½ 0.42116547500485474
æ 1
ón@@ 0.041657576654839025
С@@ 0.005266796543625355
ла@@ 0.008455253405217883
на 0.0012232450851273936
ւ@@ 1
ג@@ 1
ار@@ 0.052981313255330655
عبد 0.2844201478970849
→ 0.2725609784610522
井 0.6704133002022299
口 0.08630009811115581
村 0.09255246266724819
松@@ 0.3294089612601258
Akadem@@ 0.12948422393423384
Bir 0.29030433849230286
Bình 0.22504140976626305
Constitu@@ 0.06451816126534386
Cuando 0.12194381140342891
Eis@@ 0.1269349329007652
July 0.014084323772322117
June 0.013885588883572542
Milit@@ 0.04533748874644635
Nguyễn 0.20369211660130407
Nueva 0.08184049389530951
Ort@@ 0.05770577477879231
Parti@@ 0.07525164339974005
Se 0.02372091778737154
Su 0.03198998250936205
These 0.02782543494117949
\ 0.16796988796737422
cab@@ 0.027439645365661493
cant@@ 0.03448332755185809
cer 0.05986182334984995
econom@@ 0.028905913829275855
ense@@ 0.04435611963271314
enth@@ 0.04453155357779877
epis@@ 0.025188070962927304
esch@@ 0.05873104014981319
eñ@@ 0.06519125758315739
football 0.018403042694176655
ible 0.034529562224207055
ional 0.04057309106241261
iyi 0.28951235111541884
last 0.02151459845354539
list@@ 0.021365359898989664
mani@@ 0.06384469123446736
muz@@ 1
namo 0.42938093559067564
nuc@@ 0.06346528504798594
ogen 0.04773797832513726
perior 0.0826633796413302
phe 0.12402671785425455
produc@@ 0.011975998678296101
publi@@ 0.026361312611021606
sey@@ 0.4018869488996086
them 0.011400467471728296
tly 0.03271412937141265
uch 0.05683334745302822
ues 0.028175804114944795
uses 0.015762384699292524
using 0.019018302126393966
vek@@ 0.45969671763944975
vor@@ 0.010754461056209695
women 0.02309901406466866
wr@@ 0.0595231652492978
ç 0.07272357607535569
ıl@@ 0.04927521322896085
Ž@@ 0.2578384103070784
ʉ@@ 1
ά@@ 0.03077967727623621
ξ@@ 0.08078990253696634
σι@@ 0.07968057924709011
στ@@ 0.03079420400637964
в 0.0006885239550493901
в@@ 0.003200799901773564
ро@@ 0.0036924125182102893
Ա@@ 1
տ@@ 1
ح 0.07049711466989433
م 0.039199784639330805
Ἰ@@ 1
三 0.11765555271464247
小@@ 0.032369580563526464
雄 0.3059212007180605
9. 0.09072678727700491
Ban 0.18083814795866465
Des 0.06269556483139148
February 0.015848623479730387
Milli@@ 0.0484724569594724
Soh@@ 0.31117454927774546
Spi@@ 0.023466249562140027
Un 0.027611469780791025
abei 0.08535761211831222
about 0.008531460402635985
alc@@ 0.2514743228745104
allen 0.06901618155736061
atur 0.06087408947077152
aî@@ 0.034079168171835664
bed@@ 0.05223756023940498
chia 0.17773790836855308
club 0.01211014160365499
cont@@ 0.010382583989437597
contr@@ 0.007633429720179487
dav@@ 0.04588994076381287
direc@@ 0.009633627199360725
dès 0.08037094518230167
egen 0.03604789482361063
ext@@ 0.025943446368867504
fang@@ 0.062062065687013425
fle@@ 0.03243905900816873
iles 0.052127037737420084
ilk 0.0680988022486329
irk 0.07304079639595422
ismo 0.036799113193496734
iste 0.019891823058975605
köy 0.4030754335118186
lieu 0.03814124010461505
lot 0.03032575649356699
mt 0.036732228131406204
nig 0.06548591441596861
parti@@ 0.01639657490263509
pay@@ 0.05006776667114112
pios 0.09115581572472353
program@@ 0.03635901452639658
sous 0.0147315246420039
techn@@ 0.024939070422632097
teh@@ 0.3281916345450766
titu@@ 0.029763718659643935
utz 0.0744313973575571
years 0.0069325811573879735
yet 0.07457125128141247
Öz@@ 0.23396298686843095
çe 0.22996647701146233
équ@@ 0.07026489914575168
õ@@ 0.24266939928942055
Đồng 0.39236474157721984
ė 0.6246650119804268
ğr@@ 0.26616054237689996
ż@@ 0.3371486232257226
ɨ@@ 1
ή@@ 0.04655577312266276
της 0.00837354641456746
ύ@@ 0.040667024145964785
й 0.003579693245260026
й@@ 0.004313597264579999
ский 0.006586820633295075
ז@@ 1
ס@@ 1
رة 0.06817873414810544
ك 0.05828493777202931
አ@@ 1
ọ 0.2175031043190332
ῆ@@ 1
三@@ 0.024056845629196435
原 0.10597123773022066
和@@ 0.10895825279158702
福@@ 0.08308196432887503
7. 0.08438358685457713
Canton 0.3053596453471377
Der 0.005388706613084345
Jug@@ 0.05868477025088732
Rep@@ 0.20852212729120637
Theo 0.16346902459844656
acht 0.019714773431346866
acio 0.06971732290726336
aill@@ 0.05435974021139713
ativa 0.08550723672249605
auth@@ 0.017815982335514895
ave@@ 0.08069939581379909
añ@@ 0.03412314940870209
ble@@ 0.05060394323693998
capit@@ 0.03920994908107682
commer@@ 0.026228169709614772
deu@@ 0.32706030029771066
dies 0.038520314073225585
enas 0.08990844994144782
enz 0.047693575682610664
ered 0.013229895719126047
erra 0.05223622075207462
formed 0.01542508727584597
gian 0.05518961994542762
gut 0.08065239832045928
inin 0.05886645169752142
isco 0.40781810990741774
jour@@ 0.1153347767279289
journ@@ 0.023682007097691984
langu@@ 0.08661559619071266
later 0.0077227761690415245
may 0.011514115675235049
mé@@ 0.013921878372365047
noch 0.013741502183552518
novi@@ 0.8037622353805027
pain@@ 0.02786474220194982
prov@@ 0.023588692900402792
rom 0.29226689609270456
rou@@ 0.029710588521168847
sych@@ 0.03894385229775896
tam 0.36620144947725425
termin@@ 0.022699422875814966
tet 0.01746526930404896
tir 0.04737110225196406
zey 0.9244361116274836
â 0.586090212616021
üc@@ 0.03671723554213843
ων 0.029785938800516325
И@@ 0.007436897565138694
ва 0.008015030171641974
н@@ 0.0042311924393031415
с@@ 0.00245262004414313
ш@@ 0.005109157722440108
ь 0.008466418007964445
ت@@ 0.01995742531989508
ري@@ 0.04491789483867179
لا@@ 0.05707167870491667
مَ@@ 1
ܪ@@ 1
中@@ 0.014115020846248945
佐@@ 0.43369054460521606
岡@@ 0.7115644606605556
正@@ 0.061988608266324775
長@@ 1
6. 0.07490947619852716
Böl@@ 0.3054101514082272
División 0.08778936085455188
España 0.04345582963300802
Gün@@ 0.16303282495268775
His 0.01276930963476254
January 0.011680821600182932
Nha 0.2790727954876372
Span@@ 0.03235904289986167
adém@@ 0.08075641916821986
alar 0.18430405226655944
ampi@@ 1
comun@@ 0.041573517188000494
district 0.01772090321173428
ected 0.010137931783740901
erst@@ 0.026989211579269912
essen 0.06005943860643709
estig@@ 0.09930298371465758
française 0.04519074463386111
late 0.020208470627872295
lead@@ 0.012303435788732034
lí@@ 0.03800000748367621
mec@@ 0.1484122083213106
mek 0.14414860989337366
mula 0.14006061958237212
multi@@ 0.030712894036444158
orig@@ 0.05888745808562682
pendi@@ 0.05760791148140474
round 0.02200204258033162
said 0.016870588927474887
tig 0.048024249026287186
uss 0.035828694970666985
vez 0.029506388229692263
with@@ 0.06692278179252972
ä 0.23504452334701392
ät@@ 0.017307453119267496
èle 0.06066931226549443
ét@@ 0.009640050837840652
ì 0.09752288487026346
ück 0.060786560591703474
ɐ@@ 1
ʃ@@ 1
λογ@@ 0.2166816192589246
το@@ 0.050729602223135065
ω 0.18232155159979793
А@@ 0.005059517975017311
евич 0.045436429693054274
і@@ 0.28502248335700514
կ@@ 1
بي@@ 0.054779953269695945
دي 0.12372461189386634
لي@@ 0.05586979212044482
مل@@ 0.10851083765560866
ܕ@@ 1
ἰ@@ 1
安@@ 0.03347830641336502
川@@ 0.24433477732490938
187@@ 0.3552602920399493
4. 0.0612588358863787
Ab 0.04730622453144967
Arth@@ 0.6194262916518422
Gü@@ 0.08827636237406183
Janu@@ 1
Spiel@@ 0.032892991913321526
Sur 0.05092134398031387
aband@@ 0.03387089187674549
americ@@ 0.06214850520978221
arte 0.08782500611366971
commun@@ 0.013336341069170511
cover@@ 0.020638167839043726
cula 0.23167526431594263
dır 0.30390220135189955
elten 0.05003718626427953
eure 0.06007498435632075
fs 0.03996406770836323
ging 0.02723325160816391
head@@ 0.02292089014775165
ises 0.026143050153815486
lec@@ 0.04851113826951956
ligh@@ 0.02702810967681185
liter@@ 0.023998918337684264
local 0.013071848953614414
national 0.013552701033248652
nec@@ 0.04165748715007313
ologie 0.020093226805671466
onc@@ 0.06946924033499088
onship 0.02796603315565278
pero 0.016552998790146167
person@@ 0.015048872107995494
positi@@ 0.016309276435155878
sever@@ 0.07214020776246959
sign@@ 0.02946571866354391
some 0.008267540841230214
station 0.011765986350598676
tag 0.060114099812452214
versit@@ 0.11550431773146978
­ 0.18975539774063732
éro@@ 0.02973068673520293
ên 0.07102267984342174
öh@@ 0.022972003917774493
ös@@ 0.050180305059151886
ł 0.5159289677044263
Ō@@ 0.23697127233125004
ή 0.018037892810295577
λ@@ 0.029738228083096552
Б@@ 0.008774159372218001
л@@ 0.003784209540223827
ն@@ 1
الأ@@ 0.02851989297048429
الب@@ 0.057373755503777636
الق@@ 0.04764249035935875
من 0.010705040591769317
مي@@ 0.0612425818732251
نا 0.14473773726803707
ون 0.04541803061461945
وي@@ 0.04011339387959836
ين 0.03212711195346059
ّ 0.25958735815754286
ܬ@@ 1
186@@ 0.3710930977680555
192@@ 0.7355049825060312
Campeonato 0.08297329240598693
Ent@@ 0.03011864342717533
Feb@@ 1
Mec@@ 0.1884244920352399
Nieder@@ 0.033012610972574706
They 0.010950993355784958
Universität 0.02705894724054627
Wilhel@@ 0.1924195981160182
aces 0.035716409062696165
ación 0.0025255703013664517
alli@@ 0.03059451928415127
amen 0.029674121144138622
arias 0.07430662708106314
atives 0.028770199675099847
champi@@ 0.01778232750717589
chn@@ 0.17643386436505246
cla@@ 0.01665486894523758
dist@@ 0.010370465486708997
doğ@@ 0.1013318649252646
edit@@ 0.027450536898055825
enen 0.008713272678521539
esen 0.024457990169359147
essor 0.028561636123961974
family 0.00854872496853744
fin 0.017590788649491935
gener@@ 0.011843747864614085
grou@@ 0.019847545453459733
gü@@ 0.08322510135458747
ihe 0.059014285293780014
include 0.012764033625815274
inco 0.46511581244688704
issu@@ 0.01463834230798736
iç@@ 0.13083441960893777
khi@@ 0.3785693323384742
limit@@ 0.02386497877060974
nie 0.060934481355571085
only 0.005946482824843408
original 0.014695411263059666
ought 0.012613679231571362
oğlu 0.22519144225187912
qué 0.05648546269238732
road 0.018781605367799575
sequ@@ 0.017803610539098073
short 0.02474166137955158
sol 0.0871493956642233
tent@@ 0.052329021895439094
through 0.007879246302047163
tur 0.03659440524574785
type 0.024183536886268456
ules 0.030821669398060768
unter@@ 0.007761201073998307
ved 0.007013046040181869
vida 0.043297462633166056
Öster@@ 0.052971933259661264
çal@@ 0.20409135987393984
ð 1
ù 0.11194043871129088
ý 0.06133931859118438
ım 0.08354743795611765
ım@@ 0.08172759863090841
ız@@ 0.12551386493747393
ń 0.22720867757589683
αγ@@ 0.051841069535097935
ι@@ 0.019168478690184853
τι@@ 0.04917644058592782
υ@@ 0.0314299536240705
ό@@ 0.02862959728193363
О@@ 0.004861325768306048
а@@ 0.004754325796693956
и 0.0006857253771540692
м@@ 0.003378741619363777
ма@@ 0.005039296503779634
ի 1
צ@@ 1
دی 0.1931037733815701
ع 0.036660181054754215
مو@@ 0.061352905830155686
وس@@ 0.08606725198783187
ስ 1
ảng 0.07567745721595898
ὁ 1
⁄ 1
↑ 1
也 0.016318093549629556
司 0.19904884391816113
島 0.09014635097969134
森@@ 0.19117382857230106
樹 0.5924123418576405
治 0.07388915852895295
直@@ 0.04916020601334028
ﬁ@@ 1
188@@ 0.2622138278066091
8. 0.06499146941084866
@ 0.3536310477934664
Akad@@ 0.9533536235358453
Eurov@@ 0.13891440269862532
Ord@@ 0.07426609609006338
after 0.0037298556047811017
alled 0.05315030049837366
ament 0.025302923710682337
andere 0.04956103859992481
bles 0.026034209416414208
culp@@ 0.040297576103416
cum@@ 0.055568269346575945
division 0.02380658014019754
eil@@ 0.026263686848819235
ements 0.009419416647038454
enant 0.034292604340175614
ended 0.009071223644007495
enek@@ 0.42883674821336354
ersch@@ 0.026486332071537597
esses 0.026119646825160634
estos 0.037232738100159556
eyi 0.3746432981043735
history 0.01602320681597737
iker 0.04762693236314627
inden 0.04573059030695284
isons 0.05481441705426915
maya 0.11056282710102039
muz 1
offici@@ 0.0112787472615001
ograp@@ 0.05776971090894013
oles 0.041297592952716705
opsis 0.07134890940549234
rech@@ 0.015277871791964123
rem 0.619574749683587
rent 0.019619658606995664
roy@@ 0.059460706725085063
six 0.014110405027667177
tas 0.04597506759157792
team 0.006397994918408235
tei 0.04433503266378885
their 0.0026690086339714223
tik 0.04685774515546296
tiy@@ 0.32063027876612976
tín 0.0764085055206722
used 0.004840458547424106
when 0.005104046265660535
where 0.005113856310280117
who 0.0028527715532363335
ác@@ 0.035076264597458856
érie 0.10054426419536226
ù@@ 0.16607650654510517
ún 0.03412988703411516
ă 0.2929240907378641
ő@@ 0.40090469985108995
Ś@@ 0.25295644502522585
Χ@@ 0.0486692086297876
αν@@ 0.020100065822525378
ει@@ 0.04560618603647273
μ 0.12132924472134449
У@@ 0.007017915354305792
ка 0.0037142523396315255
о@@ 0.0023103006508056814
т@@ 0.002629119359596859
ј@@ 1
الل@@ 0.16347614590029963
بر@@ 0.05382648199713073
بع@@ 0.10853978156877375
ث@@ 0.04037751212958657
سع@@ 0.291267287736868
ی@@ 0.07117956522018708
ܡ@@ 1
ṯ@@ 1
ἐ@@ 1
Ἐ@@ 1
一@@ 0.00580749285401975
中 0.009224418211304458
人 0.0062066869983664
林 0.054411074652074856
男 0.27081163292545396
道 0.018387162452716828
Anc@@ 0.5545074400643067
Cao 0.1575458243990381
Dies@@ 0.03152861600344625
Distribu@@ 0.05307869407442817
Guin@@ 0.3105626190957104
Hoch@@ 0.02634431871401274
Hö@@ 0.04859708449481699
Irel@@ 1
Para 0.050330496667052124
ability 0.020181283013480048
achen 0.04188207422931571
administr@@ 0.012401069944249256
against 0.0069332328633075774
aged 0.01400638981393988
appe@@ 0.019684539856284506
appear@@ 0.009945594445620863
aque 0.048211356165814775
atos 0.037792206671532276
aum 0.024373297579572455
best@@ 0.014309097449050857
blan@@ 0.029496018903775303
bran@@ 0.02635345809332578
cent@@ 0.023307816595446375
crit@@ 0.054416713320873944
cá@@ 0.04091967495650368
dial 0.05497603754227493
dru@@ 0.030770350125216107
echo 0.06767814834554267
eden@@ 0.06077643918814237
ehr 0.025934910607044982
endi@@ 0.031871374772806
enos 0.19882242848231518
eurs 0.015386733218799374
fait 0.008849573378087755
film@@ 0.0347124441532141
hem 0.11671882545333528
home 0.011558802296090912
illed 0.021021138881246314
isse 0.017709527571653574
laya 0.5752918343570878
metal 0.04799504762667019
mill@@ 0.0716329372806928
named 0.010218535353311761
nda 0.14541208553661158
neur 0.027804308235188188
odes 0.03559468300204606
once 0.01675996472734269
organ@@ 0.02468245670645655
organiz@@ 0.01035455222622399
party 0.02060019727785154
porte 0.016734820316885134
pose 0.01912685760120846
public@@ 0.010438037870765405
refer@@ 0.013769632043319999
run 0.020958113749525338
rég@@ 0.034992881896108434
scor@@ 0.011810150580103063
sil 0.06662695840055023
stell@@ 0.009596530515635669
strat@@ 0.03571713181304472
strum@@ 0.09616005592385528
tiva 0.07294066533489671
ungs@@ 0.004066900335146908
uzak@@ 0.7880187473043083
± 0.32527476463296895
ày 0.2367927385758068
ân 0.04601337788176811
ôn 0.03741439534465083
ý@@ 0.26320863026736663
İn@@ 0.2749481946301954
ış@@ 0.04754219959197611
ţ@@ 0.7786126201876044
ũ 0.10616443062777009
Δ@@ 0.05301773339955703
Ε@@ 0.03579072882772746
αλ@@ 0.03687856551655965
ας 0.03187848548000255
εια 0.15896682922560887
ια 0.030636669466468047
ου@@ 0.03169002970418286
π 0.17548268232340958
ρ 0.05421588915074497
ών 0.023338862683475032
Влади@@ 0.04403920766792003
К@@ 0.004964838568446309
Са@@ 0.014569433079338237
к@@ 0.00377268235051645
л 0.00197401440262492
мо@@ 0.0032238605487596625
т 0.002538919644127293
ы@@ 0.006740725589203843
Մ@@ 1
ս@@ 1
ּ 1
آ@@ 0.05481785045920247
الد@@ 0.04840657533108523
رو@@ 0.03121822152911688
مة 0.04575011355349604
محافظة 0.6399527347476364
من@@ 0.039659632426707996
ون@@ 0.04596685486538873
া@@ 1
ር@@ 1
ụ@@ 0.17013698405545283
ῦ 1
ῶ@@ 1
宮@@ 0.3712208814855846
島@@ 0.19263186383860434
清@@ 0.05210830159764481
西 0.03605781820205887
西@@ 0.012693016739064875
谷 0.20836264674048088
Amerik@@ 0.3418829430502021
Ayr@@ 0.5401520478028788
Bü@@ 0.06283958465905976
Europ@@ 0.025901082777086464
Geg@@ 0.0278004387535032
Grou@@ 0.12228946491037064
Haupt@@ 0.02034717778752445
Im 0.005063251995645987
Musik@@ 0.034652704274357786
Sov@@ 0.2411216734675035
Sü@@ 0.024442622581971038
acu@@ 0.04732840352380868
alen 0.02831187270964794
alista 0.07091323689136071
atta@@ 0.04959847186339048
auf 0.0017935498358608427
based 0.008780242025971158
baz@@ 0.2403787948033163
being 0.006009437273872917
bre 0.016593838268949137
brit@@ 0.06827377554312367
ción 0.005198931712933043
class 0.02017686975613571
concer@@ 0.01354664838995757
condi@@ 0.02186857734097519
control 0.018102267963264387
culture 0.0264501895658144
development 0.016794162551117934
eas 0.016069835244788246
eil 0.04491467777663529
eler@@ 0.047080020110506576
elt@@ 0.032431322457041965
ently 0.00712410476698716
erh@@ 0.022085940451573957
europ@@ 0.03850010130586499
foot@@ 0.02573245875601524
hasta 0.012134120423289907
inning 0.013431766951754097
iques 0.04860664604284965
itation 0.031348403309645126
jos 0.03725581129903641
lande 0.052734821516896804
libr@@ 0.02232794364432846
most 0.005226796995036881
mundo 0.04232476955293471
perten@@ 0.043387737037340314
phố 0.06235505244057953
pression 0.03199571039829048
prises 0.04235324634819333
production 0.012934288293923811
provid@@ 0.013356663651700044
raz@@ 0.055819240393210685
region 0.01816227213671525
released 0.007367737641355439
reste 0.03975063560669665
scher 0.029862047860113122
segu@@ 0.06069420043105775
siy@@ 0.2349049837266739
small 0.012733671990994701
tard 0.030494780359706174
tigen 0.018144722438289355
times 0.011101962000091036
two 0.0027446184687108834
west@@ 0.01685917686213842
while 0.006265379846883755
zone 0.03285409718428577
´ 0.2716187857629471
Â@@ 0.12407116390974791
ß 0.015731645662119792
ève 0.04475754399371745
ías 0.023838646530805356
öz@@ 0.06300504226749193
ě@@ 0.12143829634870276
ŋ@@ 1
ʊ@@ 1
ʒ@@ 1
Λ@@ 0.03597494091063575
ε 0.039508380740826715
εύ@@ 0.0657483585399114
ζ 0.209493403658596
λι@@ 0.04127339484815409
μα@@ 0.07978179590892616
να@@ 0.05581783426783173
Ка@@ 0.007819306896808738
Рес@@ 0.051420728085087415
а 0.004069993171706901
до@@ 0.002697399503588808
ни@@ 0.002427003774111056
публика 0.1798898917400281
Հ@@ 1
الخ@@ 0.0677042676408732
الف@@ 0.053152777576472854
عب 0.2572397467432457
علي 0.328219779365571
فة 0.10835583100222843
لَ@@ 1
مان 0.12198785140534514
ن 0.0458264924966593
ور 0.04118777590341929
وم 0.1271365302145307
يل 0.08953570541611658
ა@@ 0.7273064171525536
ም 1
ን@@ 1
ḇ@@ 1
ὶ 1
ー 0.7136729356148447
二 0.12420747833454618
太 0.2790835470926709
本@@ 0.024446613707341337
良@@ 0.2568640140147651
野@@ 0.16607792913333605
Deutschland 0.021993779782435344
Hà 0.10956977995833095
November 0.005903387284905427
Stad@@ 0.07330963571696116
Universidad 0.02750312453224768
Vier@@ 0.0449413607670526
aborat@@ 0.04243307037682339
active 0.020527806386417304
adas 0.007089680158758416
around 0.009860271701345064
arı 0.09195016491573287
assen 0.030543127707921273
ağı 0.1249376132072506
aşa 0.5643053711606256
baş@@ 0.0458286121404748
case 0.01776428072999692
categ@@ 0.026462566482822917
caus@@ 0.012925902151190894
chr@@ 0.04781834593530451
contempor@@ 0.03318673212462512
date 0.02038069809610134
dej@@ 0.04439656818203897
det 0.015565690698381754
ectiv@@ 0.02171746597177226
fall 0.02091207690582955
full 0.018247225877168028
gest@@ 0.011722288319820329
hin 0.030304886189697986
ific@@ 0.016663199909393786
ived 0.039217048565738016
kiye 1
lege 0.0228472399091532
mak 0.08297360875813149
mann@@ 0.0318455597375349
nomin@@ 0.017334894172109292
nou@@ 0.06145683696182038
ordin@@ 0.017779612861893328
osas 0.04382223846721803
pf@@ 0.016783706079133792
present@@ 0.010182777943550244
pris@@ 0.022285427876584663
province 0.024835188015439828
rant 0.03476788586484144
resp@@ 0.014662032981228567
rir 0.07884022640824266
role 0.014261525946449123
sed 0.013698734993657372
social 0.015218494761652398
terr@@ 0.0340054771599647
thành 0.014045220183102785
tradi@@ 0.009568138279772435
tribut@@ 0.025436375934603954
trou@@ 0.024760711152233477
tés 0.046505191706098445
ually 0.009996952194408626
unci@@ 0.03518075262761853
uten 0.04299626491214206
yeri 0.21673574981385846
zel@@ 0.047266855151832016
Æ@@ 0.37154473420566986
Ú@@ 0.11493926712666401
û@@ 0.021684403762982453
üh@@ 0.010665519612582719
ĩnh 0.11867584094579997
ź 0.2565115115371231
ž 0.6236676347812441
ɛ 1
ʾ 1
Β@@ 0.028217385214698493
εία 0.053185670409938615
η@@ 0.024674084336604597
ο 0.005931033620416896
ού@@ 0.03765215853354606
τη@@ 0.046652168039146034
χ 0.2977368444672465
όν@@ 0.04226319612140616
з@@ 0.0029849151783276685
нович 0.047474774517472784
у@@ 0.0017418810010860002
ц@@ 0.006293762364840625
ד 1
اب@@ 0.0368659816711175
ار 0.03514447289116208
اس@@ 0.05349946670588305
الإ@@ 0.04403848787043944
الر@@ 0.0693101187138055
ة@@ 0.37790443420323655
رب 0.11404736453837526
ش 0.06350076135343632
هر 0.15734942231965943
ير 0.04627106073206724
ܩ@@ 1
ር 1
ới 0.21319598129099376
Ἄ@@ 1
‌ 0.7436335772701017
久@@ 0.46603357951439883
南@@ 0.016120169910727483
州 0.016033665292787047
幸 0.7399492724792552
忠@@ 0.29694464386356473
藤@@ 0.38915598592856565
金@@ 0.026741140350984984
Adem@@ 1
Argent@@ 0.048533611297222876
Distr@@ 0.05357637532030006
Grün@@ 0.02833939216682999
Hoa 0.04476756327586132
Hòa 0.1828843150579543
Schul@@ 0.023931478124348954
Süd@@ 0.020748886155505606
adora 0.048961376676163015
ained 0.009257228648648003
apon 0.1291789519815129
atro 0.04177869683316534
aç 0.2531962724075995
aña 0.05257655879244375
bajo 0.02222167128484435
best 0.01215477575438953
bier@@ 0.060649877334971514
bres 0.026917679937347543
bt 0.025298397234305096
chs 0.041487889047483135
cian 0.02779983883878349
clim@@ 0.024334091208068117
clo@@ 0.0144089496186049
compl@@ 0.012967336217856708
comple@@ 0.010973845808412118
deki 0.07513712097619314
dır@@ 0.17664878746906548
empl@@ 0.032489412632079655
erin 0.029044132619449815
eten 0.008630373216278119
event@@ 0.01655314347070151
exp@@ 0.008390640409065486
famili@@ 0.013767491857458129
former 0.007416446532439569
för@@ 0.031189041504331504
govern@@ 0.022015072172024752
histori@@ 0.010578480713719364
ically 0.014952973293022805
icos 0.01411706879837845
idence 0.020648466613894634
ident@@ 0.0396049558034228
information 0.019839328350310742
institu@@ 0.01589092656059124
issen 0.04150616745821626
iten 0.012834410742161713
itung 0.019814930445982648
known 0.004429661652441306
lung 0.012976011374516285
mayo 0.03160738538064131
né 0.010993145025481705
ober@@ 0.03521749813879686
où 0.009798718852360073
phi 0.14636021745170033
plac@@ 0.00857623531696902
plant@@ 0.02464582772189325
pre 0.01756489679347578
published 0.009732856639782066
religi@@ 0.019059604951797895
schule 0.023055434828494713
service 0.008792091470664813
signed 0.015907737980862067
suff@@ 0.014391610085796936
sé@@ 0.013916785939742795
then 0.004185032001022039
toire 0.03852947704131368
tour@@ 0.008490394962963136
typ@@ 0.013803987962703202
zog 0.031203377270984503
º 0.05465828100140135
Ó@@ 0.12889940631992164
âteau 0.03228536466470155
äs@@ 0.017162881298499095
éo 0.043756570569724394
ération 0.033117806137014295
ól@@ 0.04514318553993413
ø 0.26217659738948484
ć@@ 0.17638218090078536
İl@@ 0.23583705111552844
ız 0.11285354940802723
œ@@ 0.023263760071638415
ǎ@@ 0.9442164938710073
ɪ 1
ʿ 1
Ζ@@ 0.10000486213397503
Ν@@ 0.023329893887311354
Φ@@ 0.03822764166644187
άν@@ 0.020849722179223575
άρ@@ 0.039750920851936225
έ@@ 0.014628809494646365
ερ@@ 0.024412009817821684
θ 0.266006363866276
ικ@@ 0.027061828959801585
λα@@ 0.08029420508132182
λόγ@@ 0.2494676667046045
ξ 0.32451841395679115
ρα@@ 0.03237854865285859
ρο@@ 0.028218216285242275
ώ@@ 0.03213623979989386
На@@ 0.008534306090010416
Ро@@ 0.01882242262525934
ба@@ 0.006072199684747602
за@@ 0.0018272284948903596
ка@@ 0.0024642676745231995
ный 0.00297020859619362
о 0.0035584654325081138
си@@ 0.0041146034680010594
ци@@ 0.007233034385479879
լ@@ 1
վ@@ 1
ב 1
ח 1
الدين 0.5008978340424647
با@@ 0.05016762596623835
ز 0.030428380810268003
ست@@ 0.036481329233395136
عل@@ 0.07719393385621233
فر@@ 0.06371405516038472
ند@@ 0.06983351141436757
وا@@ 0.027325985897026665
ور@@ 0.03413003122634831
ک@@ 0.03967030265314055
ܣ@@ 1
ስ@@ 1
ብ@@ 1
Ọ@@ 1
℟ 1
ー@@ 0.8406983133373437
井@@ 0.36695345298373244
介 0.22056305399246776
健@@ 0.19445541980814063
加@@ 0.018284845744789283
原@@ 0.021978753096698167
吉@@ 0.052252809310491304
武@@ 0.03909794179305709
永@@ 0.08249460651260049
鈴@@ 1
20. 0.031140428617763307
Bắc 0.0650953715637036
Er 0.005299750928404957
Estado 0.043963820623818865
Gür@@ 0.18092394428905953
Krieg@@ 0.022462286615458495
México 0.03206129587012196
President 0.014666013593008497
Rus 0.20646773485808514
aben 0.018204769549582386
aires 0.008487324099678494
alle@@ 0.03984049974762489
along 0.008643845380989454
ample 0.014426508817001528
ances 0.009454455451467144
atif 0.04903482293067644
atura 0.03878063505471585
because 0.009192835826301086
bed 0.026105063711078277
before 0.005010249870128617
both 0.005244643974151767
century 0.007607801441817932
clos@@ 0.014008166206201605
conqu@@ 0.032661420437973945
cu 0.12052935870849488
ded 0.009467306521105726
design@@ 0.008458820560410005
diff@@ 0.010668163660920823
eras 0.027003301732659666
esini 0.2607082702486081
ests 0.014958225003354883
extr@@ 0.01090926682364169
front 0.017085043845805458
government 0.007346966302202277
grand 0.016750177372162986
gö@@ 0.07635183626941015
hac@@ 0.04561536006457859
held 0.0070848903278030425
hr 0.0248104540888882
iev@@ 0.012360238582339627
itos 0.042072374629689296
landa 0.1346266909052614
leur 0.0070497922122987645
lieb 0.31160631475900535
match 0.010342777040524024
moder@@ 0.014887339292412613
nac@@ 0.04807395101573463
ney@@ 0.1263194586403715
numer@@ 0.017879331134333678
orient@@ 0.02813343351638086
oyn@@ 0.09927234700919498
propi@@ 0.03721068135529877
publique 0.028417460916219977
qu 0.019629428192624844
ques@@ 0.022544683477666756
reich 0.02351509505706259
sac@@ 0.021701177315416292
second 0.004344842473980307
speci@@ 0.012395456089152886
such 0.0039039325428476025
tung 0.008842138967843843
vec@@ 0.040865045316171036
vot@@ 0.012203022067704825
zial@@ 0.028361301076399878
ã@@ 0.1248335259733431
èse 0.03527404013076547
ét 0.15678504829170228
úc 0.04899145665782448
ünde 0.05234069056126861
Ā@@ 0.5267047407050987
ıl 0.19104021127402315
ŏ@@ 0.48575318539481105
ʲ@@ 1
Γ@@ 0.038453287500294496
Θε@@ 0.16672272696811005
δ 0.4669979199327622
δι@@ 0.01941051945506617
ευ@@ 0.02576924791243181
ζ@@ 0.02054106953498987
ιος 0.20630881888379274
λε@@ 0.041663335603185116
λλ@@ 0.041662291116121
μα 0.030211000463069775
νη 0.09920478980603442
πος 0.2671197476247673
ρί@@ 0.03639080294025724
όρ@@ 0.04235912985304893
Г@@ 0.004161803215310545
али@@ 0.024336956331407995
ан@@ 0.0038144530887363245
б@@ 0.00270120097906981
вет@@ 0.01977428740921412
д@@ 0.0018194656424307494
да@@ 0.0031249883374114464
е 0.0011401522595338258
ен@@ 0.004064317537412819
ла 0.0020890067900660512
ло@@ 0.002341990034665986
пе@@ 0.005200430082296217
с 0.0009292337843721175
ё@@ 0.00379290615587733
թ@@ 1
մ@@ 1
آل 0.6599391620493715
أم@@ 0.11837106983722433
ئ@@ 0.06402698446087655
ات 0.018532390924743708
اس 0.017781764309252733
ال 0.03283358552419119
الص@@ 0.04035792893954848
الغ@@ 0.07340171187480578
ام 0.04012097181812037
بي 0.09987252237843769
حي@@ 0.05219372987207139
دي@@ 0.03532337445262668
سي@@ 0.027877643281331924
ف 0.02159576362029716
قي@@ 0.06343795751634668
لل@@ 0.017025776448263953
ما@@ 0.042735367881275264
مع@@ 0.036117472124433905
مي 0.1413217339211803
مُ@@ 0.32823598614906724
وا 0.08668969535386838
ين@@ 0.031127829705304307
ی 0.05157816518434794
ܐ@@ 1
์ 0.015781325533854175
ክ@@ 1
የ@@ 1
ድ@@ 1
ḥ 1
ọ@@ 0.15838087048954783
ἱ@@ 1
ὐ@@ 1
ᾶ@@ 1
二@@ 0.01825163474598998
俊@@ 0.512129059436896
前@@ 0.034748310483772867
北@@ 0.013917412965839374
史 0.06595515295087977
太@@ 0.025486599195658127
子 0.009495543788190971
宏 0.870174257970849
崎 0.7044162418924752
平 0.049192452901261216
幸@@ 0.3576043204236373
彦 1
昌@@ 0.2571979443886352
李@@ 0.03469520735118056
橋 0.15250888314667863
水@@ 0.023388607540057133
江@@ 0.038754589331385196
津@@ 0.19998782135222595
輝 0.47030190114125187
部 0.010005531794482206
隆@@ 0.16423152464400903
도 1
시 1
According 0.012410194757462403
Alem@@ 0.04170500108218183
Arbeit@@ 0.016337288461672088
Bev@@ 0.19269603708991825
Con 0.027424159203554673
Form 0.03224401202118405
Fren@@ 0.25330220863735264
Mundial 0.036242494181194664
Sơn 0.10568242644273872
actor 0.020067213947690128
adap@@ 0.014918970385731041
afin 0.028648934501328743
ainer 0.02940196848702302
anni@@ 0.03706139283893265
arios 0.016679815411147745
became 0.0036921242107071867
bilin@@ 0.17916842377393186
bind@@ 0.017807296231355157
brach@@ 0.0339792661403262
cht@@ 0.030472092569554337
compos@@ 0.0057983290457038475
conf@@ 0.011294224931657864
conserv@@ 0.012916381651449397
cour@@ 0.006794921684624355
cru@@ 0.01903961823436333
design 0.01434753465293285
déf@@ 0.026934131342967356
dér@@ 0.028967358366826026
each 0.006709798744945935
elde 0.12172315136466598
emble 0.12649926528835662
ending 0.012636075928379809
energ@@ 0.02053400102768591
erc@@ 0.027797683544869223
found 0.005839296933441827
geri 0.15004955106567053
guit@@ 0.01780261783785041
half 0.011405019821493032
iment 0.013652820018219498
industri@@ 0.016069077744372405
jas 0.03435734567724252
ledi 0.2691999526791036
luy@@ 0.1471615680744484
make 0.011037018648452893
manif@@ 0.030948863419511034
monde 0.015296820327839333
mpi@@ 0.6480687112096662
naci@@ 0.020648177992884067
nation@@ 0.01693618376477624
natural 0.01877693571401187
observ@@ 0.012786777547701848
ographie 0.02005789521300624
oloji 0.24553018754260242
onen 0.010411112883235133
orden 0.03725130172918844
played 0.004570877058945539
prec@@ 0.019797891832291265
quot@@ 0.035881731319137626
race 0.014416312444800352
riv@@ 0.025881236734119763
section 0.013408658944516778
septi@@ 0.19941787088008442
serve 0.019358898078422167
sible 0.01832736758672716
situ@@ 0.008048415662243548
soit 0.01880930809222921
south 0.010243932314479244
spi@@ 0.005502852812248786
suc@@ 0.012957599614145159
take 0.011928704486978896
tech@@ 0.11167617862131553
tent 0.030261722367402103
tionn@@ 0.012263850891318824
trag@@ 0.01807556923708229
ulus@@ 0.18678499612210925
ungen 0.0022969146379040427
universit@@ 0.011720653061391978
vill@@ 0.02308902043069444
wie 0.005482832723754262
zug@@ 0.014554545959403881
º@@ 0.3232119333824858
Ü@@ 0.02669852122082577
ß@@ 0.006644332288312268
ßen 0.011998620964590067
èg@@ 0.02949201452494616
î 0.08396947626398707
ą@@ 0.10589607016196259
ĩ 0.10895148545044497
İstanbul 0.09908560411119323
ǁ@@ 1
ɐ 1
ɑ 1
ɣ@@ 1
ɲ@@ 1
ʎ@@ 1
ˌ@@ 1
͡ 1
Ά@@ 0.05411017656891258
Θ@@ 0.0908737801330811
έλ@@ 0.05756177455213004
έν@@ 0.027636259589598727
αι@@ 0.028256129021318483
ακ@@ 0.02531728394783202
αρ@@ 0.020328846391295376
θος 0.2763925869721426
ισ@@ 0.02831125775395695
πι@@ 0.10629229653546751
σ 0.34559419341458764
Васи@@ 0.03671267292122458
Е@@ 0.006474670900388747
М@@ 0.004153994557911567
П@@ 0.004042597068424707
Та@@ 0.010592583655521376
Х@@ 0.00860047823070092
би@@ 0.0049376605945594875
ви@@ 0.002119092330268106
г@@ 0.002304685232917248
го@@ 0.0024113080482469846
ж@@ 0.0020350236857915173
и@@ 0.0024384889311665583
ко 0.00685334885518927
ли@@ 0.001616281046208536
ная 0.003644410404848415
ре@@ 0.0014926918110254423
ха@@ 0.00966479474086235
я 0.001962349733095963
ћ 1
ղ@@ 1
ր 1
ו 1
ע 1
ף 1
اب 0.06493278272034538
ابن 0.20141911921615943
ات@@ 0.036684592163746546
الت@@ 0.014996211581611903
ام@@ 0.02891021325046996
برا@@ 0.08378183604047922
بل@@ 0.06283584245741262
بن@@ 0.05288926754306497
زي@@ 0.0444404010905865
سل@@ 0.07330183106385905
سي 0.07442227922471224
ط 0.040903568114971124
لة 0.029784697624642885
مؤ@@ 0.17973521929373062
مار@@ 0.06845263300886531
ني 0.09901254878422144
وب@@ 0.03244414375173099
وط@@ 0.24150799796150038
يُ@@ 0.16043005064524785
ܠ@@ 1
ܢ@@ 1
ተ@@ 1
ṇ@@ 0.5195947310345808
Ṣ@@ 1
Ἁ@@ 1
℣ 1
≥ 0.9307004916401923
ン@@ 0.9726151042476385
之 0.018817838129886133
保 0.1500160272500572
古@@ 0.028812098605263722
名@@ 0.0205644161798627
孝@@ 0.26322306135625684
平@@ 0.01788534431807114
朝 0.034754887123239285
泰@@ 0.05789430075449189
海@@ 0.011749664901930057
渡@@ 0.27735783333295405
澤 0.5626172380908415
真@@ 0.056758926470887316
輔 0.882336531078314
都@@ 0.0856253083892484
青@@ 0.04125103518917273
대@@ 1
1,5 0.05514321001663392
Baş@@ 0.11896957483845694
Histoire 0.02024700800430297
However 0.006212465347694828
Indon@@ 0.07316552754921257
National@@ 0.01453388853295589
Phi 0.08873794060070707
Unter@@ 0.006361258527845089
Virgin@@ 0.17962157348386593
Yıl@@ 0.18677487468786474
Zeit@@ 0.01753518200229947
alien 0.022416172280260053
among 0.009551783114150052
base 0.009129206262182799
biy@@ 0.19698805821596854
cao 0.029513395016620373
cause 0.018308896709641444
cens@@ 0.013547620993433483
center 0.013683584261657784
ched 0.009241526359820248
children 0.007669149024680811
cil 0.021288780816562176
communes 0.022619688199602733
conc@@ 0.024099849026724
craft 0.013048880347179841
death 0.007668948814553684
debut 0.010510147377822566
defin@@ 0.010773731112749527
differ@@ 0.019686924539413227
drei 0.00854576256446163
due 0.006152659416081888
during 0.002696096896673213
early 0.004951372735167026
erte 0.005151344602385094
ería 0.02928988671577707
faz@@ 0.4979032522303155
fen 0.01323007175951601
films 0.013631689968254578
following 0.004928280347110683
fron@@ 0.016247989898278845
given 0.009826310721192113
gradu@@ 0.008418646190053728
idos 0.01250812235250644
inen 0.017180944847802786
ised 0.008753435819921463
isinin 0.1967421904456603
isión 0.009311832479323231
just 0.009301446016492873
liche 0.003936931584742188
lub 0.0892144533337405
mess@@ 0.02064859855761543
modern 0.01428716370313518
musical 0.015667355670180596
nacional 0.013747124055716735
natur@@ 0.01258180826254961
octu@@ 0.1374008039363359
office 0.0120153570685296
ouver@@ 0.015163059868165182
plan 0.011900681718317489
player 0.009776173980183028
possible 0.012696772585901055
prak@@ 0.05987940529926337
promot@@ 0.010617843787704207
reci@@ 0.010035472712400264
recog@@ 0.0126673570223553
regi@@ 0.00861342797884821
relati@@ 0.010843779617022929
retr@@ 0.027081503733414468
sche@@ 0.02099042590892097
secre@@ 0.022118884723152175
services 0.011047418844913018
since 0.005241826528071835
straße 0.017360382231136093
stud@@ 0.008039798785529989
tant 0.009136149448744385
tek 0.0981857770038816
thé@@ 0.015986306710736625
tival 0.02415876691581155
tour 0.011116645619416327
tér@@ 0.029944002955809904
udur 0.19323618519807134
web 0.03520686953983578
what 0.008389042625430299
zey@@ 0.18335700099155944
Ä@@ 0.016823726890876398
áng 0.07672053246693292
âm 0.027229608559514864
äng@@ 0.006950112179770655
ì@@ 0.2533233072259915
òn 0.09991781533911806
Ć@@ 0.8033292994343686
ıt 0.2166247976788059
ř@@ 0.04815821439764451
ʉ 1
ʊ 1
Ι@@ 0.03535884829026352
Κύ@@ 0.1312826889971052
ά 0.0141279409722864
άς 0.07775619873369141
ίας 0.012323491907277063
κλ@@ 0.03537762324255253
να 0.006199735630867421
ογ@@ 0.05934059511476904
ολ@@ 0.033905442542701905
παρ@@ 0.01921120611030536
πλ@@ 0.029796970934878306
πολι@@ 0.08568263637622463
ων@@ 0.03674583639767052
όκ@@ 0.1122167004783563
Алек@@ 0.03347898991892611
Д@@ 0.00293156750607471
Ки@@ 0.01325615030418475
Ко@@ 0.005021873201781838
Никола@@ 0.035056001507678056
Т@@ 0.003616745488542484
Я@@ 0.010250740263532754
га@@ 0.0033187516054859548
д 0.0026268234388715766
де@@ 0.0018038799686018658
м 0.0010203512180917637
миро@@ 0.0282732496027679
но@@ 0.0014649149239647945
ри@@ 0.001666942018490828
ру@@ 0.0027355989857879956
стро@@ 0.007922311698088304
сь@@ 0.0472833600177748
то@@ 0.0023038619098093307
ї@@ 1
ә 1
ә@@ 0.9284275555163762
Ե@@ 1
Ս@@ 1
ց@@ 1
ֲ@@ 1
أن@@ 0.04785156275368169
البح@@ 0.1433848249273289
الو@@ 0.06425388453152149
ان@@ 0.015862279045898556
اه@@ 0.077715992423544
بة 0.06766675615857663
تُ@@ 0.18442966194707766
جب@@ 0.2711923215118751
دا@@ 0.0632638730368211
در@@ 0.04534714361659226
طر@@ 0.09907838866071066
ظ@@ 0.05323808601701481
عة 0.031381117356330555
علی 0.22682802940999214
عي@@ 0.27250734584033964
لو@@ 0.029112558566934524
مد 0.37279558225366266
مر 0.1102676030361627
نة 0.09376137729151426
ول 0.035102651193842274
ول@@ 0.024395229555901763
ولی 0.7240403555847519
يا 0.030179618452767742
يم 0.08174737805091825
ٱ@@ 1
ܥ@@ 1
ი 0.8403047996293714
ი@@ 0.5586294592401673
ნ@@ 1
ት 1
ያ@@ 1
ደ@@ 1
ግ@@ 1
ḏ@@ 1
ṃ@@ 1
ẵ@@ 0.2106651090015482
ῦ@@ 1
ク@@ 1
仁 0.1728987991639556
光@@ 0.038448356320718045
内 0.028792331058038755
千@@ 0.040728924072331994
博@@ 0.03473961466363585
岡 0.6202288113195293
崎@@ 0.3857917988269756
州@@ 0.04664687228124388
弘 0.883618295590579
徳@@ 1
志 0.06813114564875387
戸@@ 1
明 0.022719802760179063
朗 0.0898619865953294
木@@ 0.06145258697071796
江 0.0457804773990713
石@@ 0.036370300707674406
神@@ 0.03255695876694271
茂@@ 0.39419238877398566
行 0.009023222993930092
谷@@ 0.2411216734675035
近@@ 0.06837116333191744
한@@ 1
𝄆 1
𝄇 1
Ağ@@ 0.2629731462730797
Brasil 0.044574409590286336
Califor@@ 0.07352414061349329
Conse@@ 0.02066533608736295
Geschichte 0.00785443576006265
Groß@@ 0.013184897787515708
Guerra 0.02592283942966042
Kirche 0.011128156077097
Lan 0.045388864249892864
Nisan 0.11302393957076685
Parti 0.03414761979646797
Partido 0.03506563861752687
Pub@@ 0.06822080451037468
Rech@@ 0.01431565688668072
Sin 0.018215125514990695
Thái 0.051089943706294785
Tuy 0.05873060427945446
Türk 0.06504237890102416
again 0.007537533474448345
alter@@ 0.015943569148133593
alı 0.0362537014394232
anst@@ 0.022449966874336067
appel@@ 0.01699242124614241
archit@@ 0.009162243925350188
ations@@ 0.013499852137842825
auc@@ 0.020471207890001977
avec 0.001645115796366784
beau@@ 0.01868892882503593
bere@@ 0.012871162026015025
bern@@ 0.02691966821966384
between 0.00244472286722501
cad@@ 0.012560436537746696
central 0.009698785668813346
charac@@ 0.007840062338380402
chev@@ 0.024160121623150437
community 0.008523205130116743
concentr@@ 0.018297553159048397
conduc@@ 0.01046784139351737
constitu@@ 0.006110143397884017
conten@@ 0.02229025393026833
contribu@@ 0.01470229132714694
conv@@ 0.014734671783212815
cost@@ 0.015402898788913488
coul@@ 0.023310004486683657
cré@@ 0.006520982899497023
curr@@ 0.008497487852840496
days 0.009109644588826458
director 0.008419479720465368
disput@@ 0.01799009916908046
donde 0.006466917652148828
east 0.009615602425702615
eln 0.013700549122725366
enst 0.024826020804729107
enten 0.010634330932872136
envir@@ 0.011970217397277353
erung 0.005670483471534032
exper@@ 0.010883012073001795
feh@@ 0.022718351861883753
follow@@ 0.007904083257104897
français 0.010825080611185221
games 0.007495391872143222
gel 0.0241029349176011
general 0.005831065087418066
homme 0.020799884825842205
ided 0.009786479953223055
inaug@@ 0.018704578710228036
incre@@ 0.006475573471555819
integr@@ 0.01423710475503783
introduc@@ 0.008924605368819588
ischen 0.0012080218871695484
isine 0.0497908366851444
isme 0.012056975849702521
istes 0.013730228467220445
iş@@ 0.01963578314526193
jour 0.020363146653736165
khu 0.0250172937760465
lement 0.013373495839722718
material 0.015527414455295815
member 0.004962197496333955
merc@@ 0.03200744973850132
nant 0.021361339347314857
novel@@ 0.020157083328757302
obj@@ 0.007060367866532956
ogle 1
ológ@@ 0.023758183443524164
omen 0.13818078091851693
onnat 0.01939549988355558
period 0.007916927122699109
platz 0.023081949241407804
police 0.012011017524224475
political 0.008682253198902283
position 0.004064674410438168
present 0.00795213574077054
prob@@ 0.006878267083506556
puer@@ 0.03473407568309313
quali@@ 0.011819654568433773
received 0.005345493266173589
record 0.006971749839211275
reti@@ 0.010769709516337569
served 0.005114881624050504
sett@@ 0.009382004204041084
sexu@@ 0.01182598805824351
simil@@ 0.027036601719178217
sociation 0.02040725634002124
some@@ 0.007903553229021951
stitu@@ 0.030926185797547048
teil 0.009076107045299889
teilung 0.022912014220893995
there 0.003009241615503814
three 0.002496096398170406
tien 0.02566391007714849
unun 0.049495437153702866
village 0.00459132061101449
voir 0.012318277354330496
wech@@ 0.08032960159864304
who@@ 0.008370587617190514
wich@@ 0.018532432258012193
woh@@ 0.01887570730709509
zh 0.05443826850215634
¥ 0.7161641016473722
ße 0.015861896219572565
àn 0.02897349445974709
àu 0.19136138338546446
áo 0.050583765489100964
äd@@ 0.011761858035140845
éch@@ 0.015649448906825392
éti@@ 0.01800553644559501
ête 0.01234410747470786
óa 0.10311280692147544
ông 0.00773681602445045
õ 0.07663456216701148
û 0.08621969721306828
über 0.0024542815017590917
üm 0.06598919932149745
ıt@@ 0.05174905485718686
ś 0.5666457985108864
ǐ 1
ǒ@@ 1
ș@@ 0.04974478332458468
ʁ 1
ʃ 1
ʋ@@ 1
ʌ@@ 1
ʔ@@ 1
̣ 1
͵ 1
Μαρ@@ 0.08961899511813927
άρι@@ 0.19169248135657915
άσ@@ 0.035447316117372736
ί 0.02656682953217509
αμ@@ 0.04338603795615934
απ@@ 0.016800300023784527
δρ@@ 0.08447366189734853
εν@@ 0.012232375990359947
ις 0.2165909182922437
κυ@@ 0.09534966222425297
λ 0.02857725452550724
με@@ 0.037813519319588415
μφ@@ 0.10082320452546138
οι 0.008792778081332846
ομ@@ 0.02224567628683468
πολ@@ 0.06677832685877022
ρά@@ 0.03235120583447171
σα 0.08000244542679913
τα@@ 0.019065469385077506
τε@@ 0.037552312146171066
υρ@@ 0.07246045502547352
ψ@@ 0.031209846733349624
Ба@@ 0.009727346572737277
Бе@@ 0.011324274492342024
Во@@ 0.007137639722461928
Ле@@ 0.0075715832736381605
Ма@@ 0.005832249951298075
Ми@@ 0.010236909089341113
Миха@@ 0.03444745276282359
Р@@ 0.004369447964241962
Ра@@ 0.009075765036072554
То@@ 0.01099346354532098
Ч@@ 0.007266357351833633
ав@@ 0.009110933105007369
бо@@ 0.002299777527953566
ве@@ 0.0017738675347110128
во 0.003914590598136966
г 0.0024164664011711804
кий 0.016018302107257788
мир 0.026988391697404336
на@@ 0.0011154959226050744
не@@ 0.0010881626769038129
нов 0.006240640301561672
ров@@ 0.00675511167153518
ь@@ 0.002210124637779037
э@@ 0.0016290361627476072
Қ@@ 1
қ@@ 1
բ@@ 1
գ@@ 1
կ 1
ս 1
ֱ@@ 1
ַ 1
ט@@ 1
ק 1
ש 1
، 0.0016989591384755315
أبو 0.31061620086589803
إل@@ 0.07694645691524649
اث@@ 0.14695660767323054
اد@@ 0.0251965146085904
است@@ 0.0406037523271623
اق 0.1547181690940237
الز@@ 0.07715651744167398
بر 0.1068272939204016
جه@@ 0.1292048636992682
خان 0.15425717262795313
دو@@ 0.05619209720073061
رب@@ 0.06577294918480237
رج@@ 0.10791991673957578
ري 0.0711363433100784
سك@@ 0.06544967185238812
سو@@ 0.05217898088092409
شن@@ 0.36444271883173845
ظ 0.20632931042321306
عر@@ 0.10958731777567163
عم@@ 0.06349612945877472
كة 0.04724625858217133
لية 0.053313404804796925
مح@@ 0.0326182767739457
وادي 0.33627932533493743
وي 0.09903157706424057
يوم 0.17200836287043703
چ@@ 0.04541230602823692
کل 0.246705679444305
ക@@ 1
ል 1
ሕ@@ 1
መ@@ 1
ማ@@ 1
ም@@ 1
ራ 1
ት@@ 1
ኢ@@ 1
ይ@@ 1
ዮ@@ 1
ፍ@@ 1
ḗ@@ 1
ắ@@ 0.7991242536414346
ế 0.06912660135572558
Ἅ@@ 1
Ἡ@@ 1
い@@ 1
久 0.06331614271622385
信@@ 0.028248780335558877
剛 0.353353915050228
友@@ 0.1390130072584613
周@@ 0.031409281416159715
四@@ 0.012956569179088157
富@@ 0.06334945023377732
岩@@ 0.16829290698269608
康@@ 0.06580498362151109
志@@ 0.0921335438876079
敏@@ 0.28043989906558114
橋@@ 0.2961523296574405
永 0.39587860546290465
河@@ 0.02437990698866029
生 0.007791092823487815
秀@@ 0.13216102412602707
秋@@ 0.16570533431775128
立@@ 0.025484801331590153
美 0.04885722007234327
蔵 1
裕@@ 0.6353399846590693
貴@@ 0.21873758445182329
賀@@ 0.37696694972728306
輝@@ 0.8693548848465826
那@@ 0.04151170389480629
重@@ 0.014546854110078163
隆 0.08174617171463772
雅@@ 0.0821291542682979
남@@ 1
안@@ 1
주@@ 1
 1
﻿ 1
December 0.0037589025882734705
Dương 0.05340684944392793
Ein 0.00946770780349389
Flug@@ 0.015374513125627728
Hải 0.055332435615564966
Hồ 0.09272047800701697
Mart 0.06828909360397867
Minister@@ 0.02191078832634195
República 0.025515697292906515
Schl@@ 0.016195862997794443
Việt 0.019516902672994434
Zentr@@ 0.017552908219776092
ached 0.007142696019507179
activ@@ 0.003822969945205716
allow@@ 0.007276105873238974
alternati@@ 0.017770758671335013
anlar 0.10317772152020191
arded 0.00783032550664309
aría 0.01889167170115346
assist@@ 0.009579757611958534
ası 0.015543482592184119
atique 0.013489910750186598
auté 0.016427789065406023
bang 0.03382406405773308
called 0.003263445670348915
capac@@ 0.010635425284670449
capital 0.0091989359650544
centre 0.007747636806698814
combin@@ 0.009477465541596649
competi@@ 0.0064841143565367585
consid@@ 0.008872622089392414
dans 0.0006622849478776226
defe@@ 0.006976153790466924
deut@@ 0.008577295002639096
distribu@@ 0.010965647539373631
dung 0.010520296261221827
eben 0.0030148614418719203
eder 0.029216002269139292
eines 0.004681065060031246
election 0.005386890700855543
entos 0.005436129788756446
exemple 0.021288752766014517
famil@@ 0.02882397216763461
fav@@ 0.014476071493415767
fest@@ 0.018005875895307492
fico 0.01780784578201867
final 0.0035952601140160495
financi@@ 0.010297150692909205
founded 0.007673162711802029
frag@@ 0.01647792581281873
fue 0.0015370724900144023
gesch@@ 0.003238359112769961
gique 0.02045658745617496
hijo 0.0235561463217925
histor@@ 0.009334877807597591
ichte 0.014585200940700132
inclu@@ 0.005588249924383167
independ@@ 0.00845352292540311
interpre@@ 0.02784561824657442
inté@@ 0.018888811575400805
jud@@ 0.01208607000532885
kent@@ 0.0786029804446756
khi 0.007974300024763348
lieg@@ 0.011318864646429973
located 0.003862286577457296
major 0.005229856944879445
mant@@ 0.018411850681969162
moved 0.004538520505239589
much@@ 0.03332713255364334
nach 0.0013858274658923447
national@@ 0.010437872660403458
nete 0.016751183648011474
north 0.006120813158615041
nt 0.010200178621854293
oloj@@ 0.09589269710293631
parti 0.02730376255262791
pays 0.010152552917333649
philos@@ 0.013886497383006157
plu@@ 0.020154267196406648
popular 0.007787881317003858
princi@@ 0.013031046934203205
produ@@ 0.004117603795654968
produced 0.006802273437103126
propos@@ 0.009103013002051515
propri@@ 0.019395785106701376
requ@@ 0.008285782253640706
respon@@ 0.005745300718661726
rière 0.018864728155385094
région 0.011077826798144896
scienti@@ 0.011317976611564327
sigui@@ 0.02786091157303008
species 0.0046910116359188125
started 0.006433580903512273
students 0.007775720910216235
tay 0.06271430331669593
temp@@ 0.005955730034828311
tiem@@ 0.08388345759804029
topl@@ 0.03943275593066666
tras 0.01065663804566512
trat@@ 0.01835496794646264
tribu@@ 0.01629183246997644
univers@@ 0.022156025776136432
until 0.002877303896243306
usunda 0.13772523535220937
uş@@ 0.05790828102582076
voy@@ 0.011497054773473054
went 0.006081943838294409
yük@@ 0.10854160448002244
zt 0.020172057237585937
® 0.47976246503173503
ài 0.02741711471346396
óc 0.08497670345584556
úa 0.029728329352631692
üd@@ 0.021850635166901066
ür 0.01602978821010884
þ@@ 0.4652564441176531
đ@@ 0.0035138390584866838
đa 0.08452238242521155
Ē@@ 1
ĩa 0.07930652897428796
ılar 0.037160890315360594
ŋ 1
ŕ@@ 1
ŭ 1
ź@@ 0.3745455933902924
ǀ 1
ʒ 1
ʕ@@ 1
̄ 1
̯ 1
Α 0.04586872585263813
Ο@@ 0.02080208746872822
Σ 0.17248718150190015
Υ@@ 0.06057625959288447
άκ@@ 0.035983400280112515
ής 0.010788914531765
ίδ@@ 0.053260198427848654
αρχ@@ 0.02637132710575527
ατ@@ 0.014946897111934317
βασιλ@@ 0.13396426009272916
βι@@ 0.04781177241598072
γιος 0.1223113358734395
γράφ@@ 0.06997429838164275
εκ@@ 0.013947122635944198
ελ@@ 0.019116907843990102
ες 0.0075099472228762456
θη@@ 0.04030483907429544
ιγ@@ 0.1271105663610803
ιδ@@ 0.07764708400954305
ικός 0.04003255867539093
ιλ@@ 0.036359783228986496
ιν@@ 0.01510308959740146
κος 0.12537069711673648
μέ@@ 0.04297486863035389
μος 0.15510632479454856
οβ@@ 0.04919722950097359
ολογία 0.1325601435370823
ον@@ 0.013836467350262277
ορ@@ 0.014655444315274452
οσ@@ 0.03859890329555632
ρα 0.05271826001867589
ρε@@ 0.0341475776969165
τ 0.020154795161282713
τα 0.0061093347607037414
τρο@@ 0.12822984551487093
των 0.005740235512904011
φάν@@ 0.25655946415469094
φύ@@ 0.1962117753447254
ψ 1
ώς 0.05230846606310811
Александ@@ 0.01126956845327375
З@@ 0.0046380966834308965
Ива@@ 0.022984721439025666
Ни@@ 0.011169874197661517
По@@ 0.0029460385212068045
Ру@@ 0.010285908159910859
Серге@@ 0.031199897528591588
Укра@@ 0.014926260503813323
Ф@@ 0.0035492275649528114
Ха@@ 0.011555072161179054
Че@@ 0.014017510031323002
Э@@ 0.002906342412092684
бе@@ 0.0026979821500373196
га 0.003685648254319644
ев 0.00885952733803028
ев@@ 0.009614774627616994
з 0.004946598385523866
зер@@ 0.013697899855003632
кин 0.03697930402402674
ков 0.004166763944231644
ку@@ 0.0029467757120804584
море 0.0705011521203359
нова 0.018784891751315817
ра@@ 0.00130887405204715
ры@@ 0.005332362766859711
се@@ 0.0016279795663100749
сия 0.028499215568285732
ское 0.005377246187210875
со@@ 0.0010353014190894452
стиче@@ 0.01660124300004083
ти@@ 0.001523863397378013
у 0.0012134267142866336
ч 0.008669808919710162
я@@ 0.0015671060498834769
ү@@ 0.8776187145504475
Գ@@ 1
Վ@@ 1
ա 1
դ@@ 1
շ@@ 1
պ@@ 1
ջ@@ 1
־ 1
ס 1
ץ 1
أر@@ 0.10111213314062761
أس@@ 0.04514208191329396
أل@@ 0.07327652367591597
از@@ 0.06928638127060538
اط@@ 0.05526156028653084
الإسلا@@ 0.25432617698944154
البي@@ 0.0831566378782511
المه@@ 0.12948876405428764
امة 0.21768718468996293
اني 0.05430272248600581
بلا@@ 0.1950758298907773
به 0.08145743746422958
ث 0.02578909860020533
جي@@ 0.06891607605600374
حسن 0.2792495577118961
دة 0.02134249260748216
راء 0.07584572881400095
رية 0.03228886491057687
سلطان 0.2387151948772031
ض 0.027919551224343205
عب@@ 0.08001723732532551
عبد@@ 0.28965767952157584
عن@@ 0.1422230093824436
كت@@ 0.05584383091231194
كر@@ 0.1512441661272313
لا 0.02686191861913364
مال 0.11482984101229705
مر@@ 0.02755639256293452
مس@@ 0.032073943822070745
می@@ 0.038624093764415016
نا@@ 0.024967815492189117
نج@@ 0.06338250272593578
ني@@ 0.03343575760904619
وال@@ 0.007638804072907445
وت 0.12244434997839193
ود 0.03990693349126313
وق@@ 0.03224150664582096
ولاية 0.16503787631959366
ولي 0.14855267702446834
وم@@ 0.017395943091724056
يخ 0.16779130701277092
ير@@ 0.029014377092420343
٢ 1
گ@@ 0.029714551530925202
ܝ 1
ܦ@@ 1
का@@ 0.02918257265836012
া 1
് 0.8885995069365455
ු@@ 1
น@@ 0.00593455210491211
่ 0.03694172132533634
ვ@@ 0.9976819620780968
ቀ@@ 1
ታ@@ 1
ን 1
ወ@@ 1
ዘ@@ 1
ያ 1
ዳ@@ 1
ገ@@ 1
ẖ@@ 1
ị@@ 0.0323810469801373
ịnh 0.05509798453785796
ἄ@@ 1
ἔ@@ 1
Ἑ@@ 1
ἡ 1
ἡ@@ 1
Ὀ@@ 1
ὸ@@ 1
ᾶ 1
‑ 0.3421997359922427
ⴰ@@ 1
上 0.004102293929779367
今@@ 0.054432705301866044
代 0.013107936527214826
倉 0.4192801488224663
八@@ 0.02590051359491533
内@@ 0.022688074422561665
勇@@ 0.19515830043693894
勝@@ 0.08744434540992507
南 0.01210019931255073
市@@ 0.015946396344344835
愛@@ 0.03766050808098938
慶@@ 0.14074007434559005
新@@ 0.0075713990650064285
日@@ 0.009410424725226949
明@@ 0.01645003434679626
智@@ 0.08058153575043822
杉@@ 0.1996917609782997
東@@ 0.015365301774211908
横@@ 0.23396049052431983
浦 0.23114888781409812
知@@ 0.032194960689997935
紀 0.055599008027838244
義 0.051445130371944835
英@@ 0.009751298452126958
辺 1
馬 0.017491387210885823
국@@ 1
라 1
부@@ 1
왕 1
원@@ 1
Alman@@ 0.1251362005566645
Anh 0.017527632338515894
Auch 0.009000800759515093
Barcel@@ 0.08226636855557425
Bere@@ 0.008540748267410461
Bür@@ 0.03227740725279275
COVI@@ 1
Ce 0.007535390542203029
Compan@@ 0.07279898186103181
Công 0.032070824222143635
During 0.003869633493086232
Este 0.013012937288856373
Fahr@@ 0.009098393071235342
Famili@@ 0.012304364147372663
Fes@@ 0.05320203919654661
Histori@@ 0.009437266786844329
II. 0.012373831648523
Juli 0.007314068665983291
Mit 0.00635124367257179
NGC 0.023455636187595084
Par 0.016578021559970027
Pour 0.011148199787567342
Sept@@ 0.2833591307318563
Teil 0.006794721654915859
Trung 0.014996911906617137
Türk@@ 0.05873216098901514
Welt@@ 0.008827604585712606
adores 0.006730256380457544
amér@@ 0.04080459146818721
artist@@ 0.008287559863621289
ased 0.005347490256163095
askazini 1
associ@@ 0.00607230751532996
ately 0.0038589102432764967
avant 0.005380845501966677
bau 0.008526196156486577
bildung 0.013884210697621625
cada 0.010053656105333562
carr@@ 0.017778064453342016
carri@@ 0.00721199913844755
celebr@@ 0.00852664892887174
clu@@ 0.00495029563661602
color 0.010619968053500094
commune 0.0037047562185285815
compar@@ 0.006632590128265825
continu@@ 0.005090344593454515
contra 0.008505616373693034
conver@@ 0.008349146553148452
could 0.0036545155747328972
cription 0.00565947915724056
daki 0.03209674645901914
develop@@ 0.004441015320193084
did 0.0035617512099843113
died 0.003872660660905717
direction 0.01073914328909831
dose 0.022551689388172078
dres 0.1265339392458125
ecke 0.010266344057834496
ectu@@ 0.010356050955057509
enden 0.002866890616885363
escu@@ 0.013815235025450436
expres@@ 0.006223511961328287
favor@@ 0.011139927214786443
few 0.006199711841384047
finale 0.009495283367859377
four@@ 0.006909207083963883
gew@@ 0.004001950087860689
gol 0.042923121769779436
gran 0.007660356466730174
ieder 0.05449583943258936
ihr@@ 0.026878458414872835
ihre 0.0059633313592840215
ildi 0.03788334035152725
immer 0.009707819447680528
including 0.0019764230255158357
inner@@ 0.015085001473887453
instrum@@ 0.008688558245330562
interpret@@ 0.0153035395238991
istas 0.008301830643615027
logr@@ 0.01380944912379185
loss 0.005271720645719242
making 0.006509438990554548
married 0.0054191324603703765
materi@@ 0.0136640343313179
members 0.003904519566718279
minh 0.050644810077184355
mis 0.010301769537352526
mise 0.014632194424613824
mé 0.0249110918921556
ngh@@ 0.041202480735775385
orden@@ 0.02065655127936975
organis@@ 0.007427798183041627
partic@@ 0.0048357953693259036
place 0.0020284573264537243
polic@@ 0.010385961872861322
politi@@ 0.004376616395488878
ported 0.004544924800326233
previ@@ 0.004729589490746783
proces@@ 0.013777558892235971
professi@@ 0.004272458983023959
provin@@ 0.014838197210081255
quan 0.012400339642021526
quel 0.01461077524461261
rece@@ 0.008633411689358455
recher@@ 0.014822177162121102
represent@@ 0.003261595294803451
rá@@ 0.01692935162177234
sans 0.006843309881569086
sao 0.06039378486693622
serie 0.007738107517487199
stand 0.0038843224305319833
still 0.004574407176849241
sı@@ 0.08548458486674575
tarihi 0.1266207073588522
temper@@ 0.01131269984232846
temps 0.006097704004233998
third 0.004192244616494271
though 0.0026946139023452304
tores 0.01435375244213942
total 0.003539955418488269
trä@@ 0.0077164739491051475
unca 0.03377679401869726
unid@@ 1
uyên 0.0535460794099999
vard@@ 0.1560672590469629
various 0.005744260515267058
verl@@ 0.005389129500152178
wann 0.15801042062417778
without 0.006390346441857816
would 0.001455526874223628
xu@@ 0.12649493237980075
z. 0.01603973015708812
zeh@@ 0.01203977228170337
zum 0.0013108504157671374
¢ 1
§ 0.0511073837645763
À 0.005155637946897466
État 0.010638721950935624
Ì@@ 1
Í@@ 0.08586820012156536
Ñ@@ 0.2708683842473436
ào 0.02177821806897451
âte@@ 0.08125634339211607
äch@@ 0.004509478709009243
äh@@ 0.00613006279559309
çi 0.06311343526042114
çı 0.12632618016105507
ème 0.006437510547539854
étu@@ 0.00950156184685993
ör 0.05086033177932108
öster@@ 0.01668821957490356
ück@@ 0.01324612464429083
ġ@@ 0.9545152625557723
Ī@@ 1
ıs 0.23032428282576298
Ľ@@ 1
ő 0.2460700660200082
ŭ@@ 0.645858613296307
ų 0.5143481268563068
ż 0.5799339746903711
ǐ@@ 1
ț@@ 0.06413830651501908
ɕ 1
ɫ@@ 1
ʂ@@ 1
ʹ 1
ʽ@@ 1
̃ 1
̈ 1
Δημ@@ 0.0796785162749635
Η@@ 0.05017144265335675
Κα@@ 0.04076855495753473
Κλ@@ 0.20064215749365877
Νικ@@ 0.12806531715602465
Περ@@ 0.11611078258279203
ασ@@ 0.01177264397210119
γέν@@ 0.1610562385882374
γεν@@ 0.03549035193046391
δό@@ 0.20271267706818988
εί@@ 0.017628114860561938
θρ@@ 0.10129239833314911
ική 0.006902027519802871
κ 0.026364022550495317
κά@@ 0.03790706045624014
κύ@@ 0.05272127042639737
λί@@ 0.08365278616504594
μά@@ 0.029101120941414177
μή@@ 0.05083652764578819
μι@@ 0.050590694961893244
ξι@@ 0.07654561105227962
οφ@@ 0.034150988096952814
πο@@ 0.01819346925811772
πρ@@ 0.031606141048639506
ρή@@ 0.14999470171107115
ραν@@ 0.07372179404376339
ρη@@ 0.10899328721861355
ριστ@@ 0.06801015728675869
σσ@@ 0.0612501998677859
τί@@ 0.03285633814205005
τυ@@ 0.053603593161017246
υν@@ 0.06085455543005443
φαν@@ 0.10393795701861144
φιλ@@ 0.07406480989186721
χρ@@ 0.03556999875585879
ως 0.00784807072115224
ώ 0.07398023900375174
Ан@@ 0.005314660716659831
Би@@ 0.014684966979192563
Бо@@ 0.0050506077666917166
Ви@@ 0.006271089548627064
Вол@@ 0.030667061531669888
Ж@@ 0.006446635392291805
Ме@@ 0.008117489879740196
Мо@@ 0.007179401565789999
Москов@@ 0.01790346602493908
Н@@ 0.003257803116842994
Но@@ 0.008805755902849356
Ново@@ 0.02595235102479468
Пре@@ 0.010245097473078765
Ре@@ 0.006552414694556332
Росси@@ 0.011707592461365731
Свети 0.1579698670043752
Су@@ 0.008514912086426667
Чер@@ 0.019105613444881056
ат@@ 0.002775721361162267
би 0.02004896607398634
гар@@ 0.016892568548007407
ги@@ 0.0022835222763302595
град 0.02221913103880225
да 0.0014843833293453688
ди@@ 0.0014365360374253128
зи@@ 0.003187655088420305
ке@@ 0.007009901791337005
ко@@ 0.000938649919702593
лен@@ 0.0035338073925637176
ний 0.00242811493070953
но 0.000863703603851046
п@@ 0.0013954796036708828
по@@ 0.0005687647322189243
пол@@ 0.0037340153048603447
рий 0.012259555799533532
рин@@ 0.014323967213020983
ров 0.003155313167940106
ск@@ 0.004235765072646809
ски 0.006390611839144121
ские 0.004276020775385955
ст 0.0043268158656436274
ст@@ 0.0015053267213555464
та@@ 0.001404600642099642
тин 0.02456919021780364
ха 0.008907341826968103
чи@@ 0.0017922372470975342
э 0.019829357553846023
қ 1
Կ@@ 1
տ 1
ך 1
أحمد 0.21808311980797704
أس 0.10471898006091655
أص@@ 0.05779463764422421
أه@@ 0.09806212296410736
إن@@ 0.07521271564384194
اج@@ 0.041909458242016855
ارة 0.033470970687708185
اش@@ 0.039485288528994036
افظ 0.36316447544776115
اق@@ 0.0470316541966364
الأح@@ 0.14483565577018914
الأر@@ 0.10977407855740691
الذ@@ 0.07428679723268125
الرحمن 0.4132743454373638
الفر@@ 0.09661520382032972
القي@@ 0.15877808808754817
اله@@ 0.027902380347008295
الي 0.06138050644597087
الي@@ 0.02728778411382251
او@@ 0.0334439936139633
اي@@ 0.05699983872246154
باب 0.10902868300744814
بح@@ 0.03926739059659198
بني 0.20897575547919212
بير 0.1667955174033821
تا@@ 0.03702238123756437
تب@@ 0.03750629215579586
تع@@ 0.021523977868993415
جنوب 0.09987882490407798
جو@@ 0.047833942760550266
حم@@ 0.19940710317647317
داد 0.07586473737809493
دار 0.06001006744927337
دري@@ 0.16190353138221322
دی@@ 0.05472599435150534
را 0.08149482634893378
رسول 0.340182346244315
زبان 0.16687088476925052
زة 0.061782008378557636
زي 0.13613313000694055
زی 0.20604918545044262
سب@@ 0.04187239419513457
سة 0.028292713119906554
سما@@ 0.2060261953042278
سين 0.12687736801553864
سين@@ 0.1295523591815156
صر 0.0724661424360952
عائ@@ 0.17577437176717198
عمر 0.1090512195726645
فار@@ 0.11219867995832548
فق@@ 0.1028123482970012
قال 0.17678408572658127
كي@@ 0.027450455281403087
لب 0.08019586429594536
لش@@ 0.4443532127094553
لي 0.043471325919370515
لی 0.0613488969687573
مج@@ 0.0341150237485523
مل 0.043742680582146296
مه@@ 0.058491234293583626
مية 0.05307587741920499
ند 0.08581233271745244
نه 0.2086923344726652
نوا@@ 0.17595023825948275
نی 0.057946079690395454
واح@@ 0.34156673611064403
ولی@@ 0.390754369995586
يم@@ 0.057240143073689256
يو@@ 0.04883912863452554
ِّ@@ 0.23268978330466153
ّة 0.12351649054578023
پ@@ 0.01907906196828069
کم 0.15252847971370737
کور@@ 0.3484309416764113
ܚ@@ 1
ܟ@@ 1
ܢ 1
गु@@ 0.05619409228424479
प 0.003840818071019172
ल@@ 0.015228444219688766
জ@@ 1
ব@@ 1
ম@@ 1
ল@@ 1
ে@@ 1
ੰ@@ 1
් 1
ง@@ 0.00871486415887324
ช@@ 0.010717514034059874
ณ 0.03730963449105688
ม 0.0066868367081097755
ม@@ 0.004883170210344495
་ 0.40207071865305205
ლ@@ 0.5114985527462996
რ@@ 0.4704483504239851
ს@@ 0.721856831670892
ለ@@ 1
ረ@@ 1
ሳ@@ 1
በ@@ 1
ባ@@ 1
ቤ@@ 1
ች 1
ዎ@@ 1
ዲ@@ 1
ጵ@@ 1
ḇ 1
ḍ 1
ṓ@@ 1
ạng 0.05623516545854766
ạt 0.03294838337715379
ận 0.02199299390671806
ến 0.018447756862690488
ọng 0.06549184328199265
ủ 0.02637550833704681
ὄ@@ 1
≤ 0.37378740392998816
々@@ 1
さ@@ 1
の@@ 0.37691565123783255
タ@@ 1
マ@@ 1
ャ@@ 1
ル 0.5201435987082089
ル@@ 0.8937607819042311
上@@ 0.007822503507352824
下@@ 0.010958775136585684
京@@ 0.02466172645080224
伊@@ 0.014092374782789623
保@@ 0.009697418895367382
分@@ 0.005614949325583665
取@@ 0.017884911233719554
合@@ 0.00897145704832192
和 0.0016485634632542744
哲@@ 0.09010881199561496
営@@ 1
地 0.004513308936778915
坂 0.5798429189556105
天@@ 0.007740167232896026
奈@@ 0.1153347767279289
宁 0.08320235098518187
宇@@ 0.07883655432559736
安 0.019291144564388532
宏@@ 0.2127070355274901
广@@ 0.017300432629521998
悟 0.7299900278371779
手@@ 0.022951837758328205
拓@@ 0.16832358937230096
昭@@ 0.10020674962903031
武 0.07880290950043281
水 0.0182494801462139
沢 1
洋 0.033323584010794535
洋@@ 0.06980473586292947
熊@@ 0.20379777886586187
相@@ 0.007758411836144141
章 0.033136408140299896
米@@ 0.02701530750198084
義@@ 0.02648958892814411
茂 0.4344217798880465
菊@@ 0.34245359336315684
謙@@ 0.9423372163379135
遠@@ 0.09931209462777076
酒@@ 0.06219927158062929
阪@@ 0.39667234702774257
阳 0.041125855262124804
静@@ 0.2643346611429592
香@@ 0.056226603596599985
鳥@@ 0.2200714826785223
鹿@@ 0.17761733122490783
龍@@ 0.044181216811363874
개@@ 1
김@@ 1
동@@ 1
산 1
신@@ 1
여 1
자@@ 1
전@@ 1
청@@ 1
￼ 1
Auf 0.007101323376418045
Best@@ 0.011761708196191822
Bürger@@ 0.010457229931819155
Châu 0.041692602518646045
Engl@@ 0.032219303714505876
Entre 0.010281311157177158
Francia 0.014916228636859747
Für 0.006941331152487218
Grenz@@ 0.012147398012925633
Heim@@ 0.010773144442884696
Lehr@@ 0.009602867455721515
Lond@@ 0.13089006488924024
Mitte 0.011702621116031469
Mär@@ 0.04404281680322497
Mỹ 0.019983583664890926
Nguyên 0.06068854845901997
Politi@@ 0.007036145650736731
Santi@@ 0.167276522715377
Sein 0.009989197273190656
Thiên 0.06304806772259253
Tây 0.018898632380960654
Văn 0.03155456056963911
Weit@@ 0.008538431332605435
Wirt@@ 0.010580909436227269
Zeit 0.0034395435364258896
Zwe@@ 0.011388179393954347
absol@@ 0.007466477957518904
aciones 0.001982863357023199
adop@@ 0.005750647081913638
ailleurs 0.010857436655473326
aison 0.015155201702348504
align 0.0155553196587716
aliste 0.010959902591509953
alité 0.005734882358916559
allem 0.00788125514138014
anderen 0.005552366397353106
anno@@ 0.04663060478671357
another 0.003517179342017245
appro@@ 0.002491272755591865
après 0.002836249180153183
ativo 0.01736224777544514
auch 0.0007811226004515138
beit 0.00693479651558512
beit@@ 0.05632464998721327
bien 0.004277708101341202
building 0.002929799078167982
bán 0.030167456276575348
came 0.003971575247844789
career 0.002100405377131552
charg@@ 0.0069497609107249
chef 0.009405069196362654
cion@@ 0.00422328380304897
ciones 0.0026570270072054838
concep@@ 0.005603850320217886
conn@@ 0.002287024174430724
cours 0.004345471873812483
created 0.004367453342522919
cual 0.0057631631074644765
có@@ 0.0183253365209417
described 0.004221449319437254
deutscher 0.008789081139698647
deş@@ 0.08494647191072847
dici@@ 0.024013912459868322
dies@@ 0.021317196536016905
different 0.0036961785514302388
dire@@ 0.009521952761330067
distr@@ 0.010028584484864286
dows 0.02905388183528314
düz@@ 0.07951097066517043
dı 0.01755860548180097
ecu@@ 0.013198405874128986
eden 0.018330308882823058
einem 0.0012351048693670698
embar@@ 0.02397130696370429
enton@@ 0.2802554551372268
entre 0.0010785154562532198
erste 0.0047304356181192995
established 0.0037334805237577537
estim@@ 0.005632590994656133
exist@@ 0.003563516606010391
experi@@ 0.00542795233798285
expl@@ 0.004670979392183476
febr@@ 0.7855259963474794
figur@@ 0.008570532387053412
foc@@ 0.005456266696454528
forma 0.005115457868909802
fuer@@ 0.008670443993004243
fäl@@ 0.011042353868226863
führ@@ 0.003345077925345541
grab@@ 0.011044643543204226
gru@@ 0.013002613245583489
gün 0.053437348802307695
habitants 0.007945827980071238
harek@@ 0.055909662154243284
hier 0.00828757226246372
hô@@ 0.01364832935734664
icht@@ 0.008296509068888479
ilgili 0.08443374780884076
ilik 0.06810505945858547
ilç@@ 0.04675892062330062
incorpor@@ 0.00697845982918003
indic@@ 0.005879593240061078
individu@@ 0.007250047543206134
ingt 0.01026234054273206
install@@ 0.010036906569554832
isches 0.01094954740576941
ités 0.004905954711039889
ió 0.012752667758430196
iş 0.033431479717573084
japon@@ 0.01264276659616491
jeun@@ 0.014297035374599766
jähr@@ 0.008303622615117513
kend@@ 0.026421992817960968
kez 0.036104603573241384
larg@@ 0.00455584120495167
ları 0.0068537155815790425
lichen 0.0012887841420115174
lés 0.083962794444077
meye 0.045769129868484575
mont@@ 0.01153439024166481
municipal@@ 0.006971100604098984
near 0.0036360308276561525
nh 0.034674069393104814
occas@@ 0.00671580205642532
oder 0.001520125628543696
often 0.003621800466455895
origin@@ 0.003095252086814349
oğ@@ 0.07114730704138741
particip@@ 0.002319745612939093
performan@@ 0.004084596170360142
popul@@ 0.004161298830862953
prepar@@ 0.007383302357582689
princip@@ 0.003919975690011439
quốc 0.009605531671890204
rar 0.09162910755330197
restaur@@ 0.0074062235295156735
riere 0.05005267114446414
rés@@ 0.0063975420798194965
schaft 0.0015345917296324992
schen 0.0035791639591775397
schi@@ 0.005205991840974848
schrift 0.012506387663776312
season 0.0011906964158803445
seinen 0.004265100297075174
sent 0.0055970897977222
separ@@ 0.004583563076711225
seur 0.007826073105466602
soft 0.0385712746747791
support 0.003926744626667005
these 0.0021987983087035454
tige 0.007969926547063142
tions@@ 0.01083844516971713
tế 0.014573413431416068
ucu 0.061495663035550895
unas 0.016697299046432156
unos 0.009326120957342714
uvo 0.014702603500903529
veau 0.0315599537740846
verk@@ 0.005371779399165291
vier@@ 0.011832404160580703
vom 0.002216856313191746
và 0.0009885838005251047
weit@@ 0.004915785027271991
written 0.0043261822853886195
yük 0.2888481242174588
zul@@ 0.016417992940974447
zwe@@ 0.005237265769614872
¼ 0.3969850455957019
É 0.1402341483024258
Ê@@ 0.4736259683859802
Ö 0.045702670832308306
Ü 0.2554190947179281
ái 0.013140423105963566
ánh 0.014466544777610009
áp 0.02210929997063454
ã 0.031090559375904596
ãi 0.03894111466983301
äf@@ 0.0043218822274739225
ähr@@ 0.006637696363386549
çek@@ 0.029019788180726
ète 0.008956972684154876
études 0.011210082091975864
ême 0.019673300729616247
êu 0.01804900795736431
ói 0.05477632083696653
öff@@ 0.009030712453729845
ög@@ 0.014292166314687674
önem@@ 0.12274605198853145
ús@@ 0.02471305141216496
ühr@@ 0.008916776112345513
ük@@ 0.022328348634962653
ül 0.07816686411698404
ăng 0.016127943676209625
ą 0.4587222032330594
Đi@@ 0.031078000775570977
ĕ@@ 1
ğu 0.034604755911059625
Ħ@@ 1
ĭ@@ 1
İs@@ 0.03129642222258745
ıs@@ 0.017430756654276642
ň 0.16365898505797757
œuvre 0.012311214216087779
Şark@@ 0.08639585336789084
Ż@@ 0.08735223486568729
ưng 0.02297320667790165
ương 0.009194453192675723
ǃ@@ 1
ǧ@@ 1
ɦ@@ 1
ɯ@@ 1
ʷ@@ 1
ˀ@@ 1
ˌ 1
ˤ 1
˧ 1
̀ 0.14072577294590044
̞ 1
΄ 0.01585485940136359
Ό@@ 0.03309948211186917
Β 0.03655200410580148
Δι@@ 0.022697593712324222
Ιω@@ 0.23373541460938502
Π 0.2725609784610522
Παν@@ 0.05275742215468976
Συ@@ 0.05814557915652802
άλασ@@ 0.14848896494511407
άπ@@ 0.08959000721701424
έγ@@ 0.03792587617753026
ήμ@@ 0.06850596480723238
ίλι@@ 0.14658717454994508
ίν@@ 0.01454708331471225
ίνα 0.10169125318945597
ίσ@@ 0.01630251482137054
αλλ@@ 0.053489980168811194
ανδ@@ 0.054521853174567675
βί@@ 0.12189256097879736
βιβλ@@ 0.09104179939917866
γεω@@ 0.10921784949216137
δί@@ 0.06359088674628553
δια@@ 0.015046608592621713
δο@@ 0.03431834097141811
εδ@@ 0.04196676711952018
ειδ@@ 0.03263191912158735
εσ@@ 0.09949582093258182
ετ@@ 0.027239746492670334
ηδ@@ 0.09931031420298359
θε@@ 0.013138989412590842
ιο 0.016855406439198008
καλ@@ 0.02736137532842577
κρά@@ 0.07665683225731243
λά@@ 0.05382887305648066
νομ@@ 0.04118486681617219
ντ@@ 0.11230900426247718
οπ@@ 0.02428084598430125
οπο@@ 0.039141978224487894
οτ@@ 0.053218650458664855
πά@@ 0.08080769818885553
πα@@ 0.04897297705184526
ποι@@ 0.050715286613711
πολη 0.0991290456004156
πους 0.10167632110132566
ρυ@@ 0.07842359881989955
ρω@@ 0.028020725597349565
ρό@@ 0.1387727172263747
σία 0.022947321589060675
σμα 0.12913257788806995
σμός 0.11813882120371988
στο@@ 0.0476855013966189
σχ@@ 0.05089795036791526
σω@@ 0.12423254824495233
σύ@@ 0.03658870096593411
τά@@ 0.012837605157360755
τέ@@ 0.016531269811582497
ταυ@@ 0.10059799742567872
τερ@@ 0.022577149194010535
τη 0.003794213761318488
τός 0.08845979569867499
υλ@@ 0.028605587994146326
φέρ@@ 0.049867033885840024
χαρ@@ 0.09448607024361098
χος 0.11919118095882658
όν 0.03524905077976014
όπο@@ 0.21869440687889558
όφ@@ 0.04431907103048535
ύρ@@ 0.07948359006862032
ώπ@@ 0.09313576996944121
Ал@@ 0.011841509784488493
Ар@@ 0.0047542752000075735
В@@ 0.0012342605763823612
Вели@@ 0.012254836705342201
Ду@@ 0.012986153161113304
Иван 0.024597828307856097
Крас@@ 0.01016319240565669
Ку@@ 0.004264634038861064
Кур@@ 0.02269387428918887
Л@@ 0.0024984797336423284
Моск@@ 0.008695077173392724
Не@@ 0.004512296095507868
Нико@@ 0.03143352054838804
Ти@@ 0.010737811018322559
Фе@@ 0.01388736074166418
Федера@@ 0.016466111783611036
Ц@@ 0.0049505699235746015
Ш@@ 0.003800951365811877
авто@@ 0.004679802761016149
ар@@ 0.001740431627976713
бург 0.01799565119984155
ва@@ 0.0007637822465161435
вета 0.011671307479209875
вя@@ 0.004287428660291032
ган@@ 0.009408551514060398
ге 0.004486727655366085
ге@@ 0.00275181731062134
город 0.011827907107259674
гу@@ 0.003029236986430941
дар@@ 0.005789605548295501
за 0.0008715839073440841
им@@ 0.004783373623793196
ки@@ 0.0021856031973445525
ле@@ 0.0006752945919718967
ли 0.0007312780640240061
лиза@@ 0.018913473157802382
ло 0.0014663241757690848
лу@@ 0.0027323236323866184
ль 0.0015122616419212772
ме@@ 0.0011297382835252674
мы@@ 0.0047353689680826325
нин 0.026151812966747668
ня 0.005771954385435127
он@@ 0.003094114497684481
ор@@ 0.0022170728015064667
полу@@ 0.006673761847225846
ран@@ 0.00366224691078592
ре 0.0023861627528157926
рен@@ 0.0050541582891063825
ры 0.004196644918705767
са@@ 0.0014856901204590542
сан@@ 0.02249080123686541
ско@@ 0.0028416178110924973
слав@@ 0.013551370728123745
ста@@ 0.00166254376590428
сти@@ 0.002114109531720224
сто@@ 0.0012303465043957363
сы@@ 0.004519445322500775
та 0.0009351878851212175
ты 0.002614675203429775
ур@@ 0.004730169025043356
ф@@ 0.0013581611892428478
фа@@ 0.003919592926474094
х 0.0007532060650806876
х@@ 0.0012851114212596888
хо@@ 0.0016233975869228681
це@@ 0.0021697573293275943
ции 0.0011929636998632552
ч@@ 0.000793682968386157
ш 0.00840170433534813
ъ 0.06270550051212814
ю@@ 0.0014831094092927711
і 0.19802421270617088
ғ@@ 1
ұ@@ 1
ӣ 1
Բ@@ 1
զ@@ 1
ծ@@ 1
հ@@ 1
ռ@@ 1
ց 1
ְ 1
ֹ 1
ׂ@@ 1
ז 1
ך@@ 1
ائ@@ 0.011113822689858728
ابو 0.1758804078690127
اة 0.044402909088480116
اح@@ 0.02608850748927372
ادة 0.03174551757752195
اسم 0.06336394269585496
اص@@ 0.028756160914473906
اع@@ 0.016445873416111274
اف@@ 0.01683982966081101
الأص@@ 0.1208765236589514
الأك@@ 0.08612720119161704
الأول 0.069176669325438
الجزائر 0.2421969799861151
الجنوب@@ 0.16419258184369034
الدین 0.18378108042739116
السلام 0.2271043508626773
الط@@ 0.01769557613335556
العربية 0.09535458612322142
المج@@ 0.032902882669532105
المملكة 0.046212808260969594
المن@@ 0.03977660969829266
اِ@@ 0.39326489608422727
بري@@ 0.06147928311997719
بش@@ 0.08277590816536302
بط@@ 0.06286204723272765
بلو@@ 0.1266931050736992
به@@ 0.1757241887527733
بو@@ 0.02720469751228944
بور@@ 0.07371885082298553
ةً 0.09297008133462717
تح@@ 0.014451448727544674
جز@@ 0.0512293245870087
خ 0.039651902066099934
خل@@ 0.1041656511139982
داء 0.10284670688504743
دان 0.06610732405177365
دن 0.0726248010677333
دية 0.04582289127506348
ربي 0.08523401843676799
ربية 0.10512637731511035
رق@@ 0.12429387287386522
رم 0.34347280048626144
ری@@ 0.024842721120091237
سا 0.13579274712561712
ستان 0.08346687147785718
سر@@ 0.02131161976779296
سلام 0.17015386798877088
شا@@ 0.04690700215284535
شر@@ 0.029218467884605862
شي@@ 0.047595364867876626
شی@@ 0.07758227117227003
ض@@ 0.00848130330162387
طان 0.1809357632036329
عد@@ 0.04167942731996888
عط@@ 0.1358860159506065
على 0.0042437444085390965
عي 0.05622745966547325
ـ@@ 0.06269698402157713
فو@@ 0.04340575548292947
في 0.0011533103081062587
في@@ 0.010458927899469504
فی 0.16420231581226064
قر@@ 0.05750456054314687
قل@@ 0.11453827901419288
كر 0.0892982771744918
لاد 0.08649297889395785
لال 0.0691680317431129
لف 0.059809213196312085
لو 0.07976513832280879
مار 0.14273458712296894
مت 0.0514243081844231
مد@@ 0.030543035851100662
مس 0.1125371632992529
نط@@ 0.1361532056786714
نق@@ 0.04249474007151402
نية 0.0343673105991986
هار@@ 0.15220159705029193
وار@@ 0.05518558802791816
وت@@ 0.010641153887698289
وج@@ 0.018853864438870934
وس 0.06311271619927111
وسف 0.24524213415275478
وف 0.12590411669263205
وف@@ 0.019794496113097013
وی@@ 0.034170157950124756
يل@@ 0.16275500429669834
ينة 0.09849102706497449
يني 0.082758595169153
يون 0.06601908430951071
يون@@ 0.13317456789697146
٠ 1
١ 1
٣ 1
٤ 1
٥ 1
٧ 1
٩ 1
کی 0.003394772908539514
کی@@ 0.03357331195676569
گ 0.0688259986363147
یر 0.09447962420252463
ܛ@@ 1
ܫ@@ 1
त 0.005690708693391051
म@@ 0.009259896437883925
मु@@ 0.030722593153062673
य 0.005781979281473157
ली 0.019481924324378477
ु 0.05615450213123859
ং@@ 1
ন@@ 1
র 1
র@@ 0.9244875377574141
স@@ 1
ু@@ 1
ਜ@@ 1
ਬ 1
ਰ@@ 1
ਸ@@ 1
ਾ@@ 1
ੀ 1
ા@@ 1
் 0.20486425023085889
ව@@ 1
ා@@ 1
จ@@ 0.0065114551708666665
ท@@ 0.005849753451270185
น 0.00523129118692635
ส@@ 0.0038243687710599263
า@@ 0.0192083321529114
แ@@ 0.006394676644567093
็ 1
้ 0.01865086032295808
ລ@@ 1
ຸ@@ 1
ა 0.7162567010915988
ე@@ 0.31307388528554453
თ@@ 0.7129381372255373
უ@@ 0.7085609268665163
ለ 1
ል@@ 1
ሐ@@ 1
ሙ@@ 1
ረ 1
ራ@@ 1
ሬ@@ 1
ሰ@@ 1
ቆ@@ 1
ቡ@@ 1
ባ 1
ብ 1
ቦ@@ 1
ቱ 1
ቴ@@ 1
ና 1
ና@@ 1
ኤ@@ 1
ዊ 1
ዋ@@ 1
ዝ@@ 1
ይ 1
ዱ@@ 1
ጣ@@ 1
ጾ@@ 1
ḍ@@ 0.3714813121138965
ṅ@@ 0.7542932089110056
ṗ@@ 1
ṛ@@ 0.6152298229944941
Ṭ@@ 1
ṭ 1
ṯ 1
ẓ 1
ẓ@@ 1
ạn 0.01385505809174735
ấn 0.022520609027882495
ằng 0.08023419550769711
ẹ 0.0984175341335754
ện 0.013024747538824627
ị 0.020779988469661732
ừa 0.03667688052015695
ἶ@@ 1
Ὑ@@ 1
Ὕ@@ 1
ὴ 1
‚ 0.03630811644649948
‡ 0.7313875529762905
ⴷ@@ 1
す@@ 1
ま@@ 1
み 0.8362816011839409
り@@ 1
ア@@ 0.8235993645914994
イ@@ 0.5307079254878736
キ@@ 1
グ@@ 1
シ@@ 0.9735552418703735
ジ@@ 1
ッ@@ 0.7033429820013236
ナ@@ 1
ニ@@ 1
フ 1
ュ@@ 1
リ@@ 0.7302305992937549
レ@@ 1
ワ@@ 1
ヶ@@ 1
下 0.004145752283158302
世 0.010830985754757876
主@@ 0.003116840429104099
之@@ 0.003662983089494429
亮@@ 0.16201243934962636
仲@@ 0.11934525435717049
会@@ 0.016007609537885267
伸@@ 0.267300199104537
佑@@ 1
信 0.023772763394740472
倉@@ 0.2834098703695091
健 0.17474855918745819
充 0.12456218128805596
克@@ 0.005231340589437483
児@@ 1
全@@ 0.005022466409395189
勝 0.07009223259239833
博 0.0914989482713228
口@@ 0.03267734763772504
台@@ 0.014323059826460158
名 0.002860842443141051
哉 0.7333239775274589
土@@ 0.018966963611296316
坂@@ 0.3206488380552457
城 0.011446632929104245
堀@@ 0.7376204162772869
塚 0.5090543398495152
好@@ 0.0398739568276811
子@@ 0.017196564511974745
孔@@ 0.07784829992751939
孝 0.34114603561044615
家@@ 0.007704427120555913
寛 1
寿@@ 0.20671428189575433
尔@@ 0.0071738648741390305
岐@@ 0.5020418095198862
廣@@ 0.01567628640304051
形@@ 0.01527741432956355
慎@@ 0.6874571017923089
成 0.0045018816264083186
成@@ 0.006350821350480966
指@@ 0.009659835605347233
文@@ 0.005008751888606765
斉@@ 1
新 0.007281304813223164
春 0.06512343145285115
昭 0.32169159850420587
晃 0.9849803211668609
月 0.0012845833483080612
有@@ 0.004834588332328885
望@@ 0.1548392588954166
朝@@ 0.021947943795186987
松 0.06335959426103654
柳@@ 0.10901151854223914
桑@@ 0.06619421798439912
森 0.025848931080345795
次 0.004556943040152568
歌@@ 0.014319727556294817
池@@ 0.18291934111221847
沢@@ 1
治@@ 0.012499727704463334
波 0.034624655138150516
浅@@ 0.4555533985396731
浜@@ 1
浦@@ 0.10824467184309881
浩 0.3718803253385087
淳@@ 0.7038792028262293
源@@ 0.04372507164134837
潟@@ 1
潤@@ 0.67129536188105
牟 1
特@@ 0.004588818010770908
玉@@ 0.04503096610394115
理@@ 0.00911331632185971
甘@@ 0.0566576251507837
祐@@ 1
神 0.025016841857737025
竹@@ 0.08122238829128801
笠@@ 1
篤@@ 1
聖@@ 0.031341042864172136
聡 1
肥 0.3382712094676615
航@@ 0.016305681942255394
良 0.056053359705365235
色@@ 0.03305721249264459
若@@ 0.06116025930446292
葉@@ 0.07007804531730626
語 0.016095235307469594
豊@@ 1
贵@@ 0.07346855870348043
道@@ 0.015551389430451939
達@@ 0.027563138515257667
邦@@ 0.095770017050628
都 0.00531720629657023
鎌@@ 1
长@@ 0.015543447701232989
関@@ 1
阜@@ 0.5657199066832541
陽@@ 0.06077643918814237
雄@@ 0.06006342245567968
韓@@ 0.03687414680513902
須@@ 0.3662740892781291
가@@ 1
강@@ 1
경@@ 1
광@@ 1
동 1
방@@ 1
북@@ 1
상@@ 1
성 1
소@@ 1
여@@ 1
원 1
주 1
창@@ 1
천 1
치@@ 1
 1
 1
ﻟ@@ 1
𐤔 1
14. 0.00906275810399241
16. 0.008287001954107089
17. 0.008317536668201824
19. 0.005710631260056229
Anf@@ 0.025356482593366588
Auf@@ 0.0013475665298897956
Cumhuriy@@ 0.11293637770117075
Cumhuriyeti 0.06277869565886314
Cộng 0.02261078522517776
Dez@@ 0.09407049648041885
Doğu 0.06505689234450697
Eine 0.00432937742033341
Einwohner 0.007813764574462652
Gemein@@ 0.0033123628160121655
Güney 0.05533276723544819
Hàn 0.042862343904692235
Khi 0.027558202128442205
Kỳ 0.009454735153170208
Mittel@@ 0.004877076082021451
Nội 0.03541785317759934
Platz 0.004031627916259048
Por 0.005760514170865154
Sie 0.0017217259644170513
Staats@@ 0.007221815027921629
Stadt@@ 0.0037052171256057773
Straße 0.007616546257596466
Thành 0.02011514292857219
Trần 0.03673988291478425
Tân 0.033319675473927994
Türkiye 0.017283106126172478
Verw@@ 0.004273002761676104
Woh@@ 0.005801781451409015
Zu 0.006605695125134212
Zusammen@@ 0.006831183086628272
acces@@ 0.00645533475763918
actu@@ 0.0020735092770258205
adı 0.01262380889995448
alre@@ 0.00416265907273206
ammen 0.013300030794930253
ancak 0.025889038408027334
año 0.0017698402938831246
aşı 0.07631467083047369
besch@@ 0.0027877778899571704
buil@@ 0.0029896795084001075
bulun@@ 0.01761567013999105
bö@@ 0.02762210018720013
büt@@ 0.037327358603827555
ciudad 0.0027760218162951418
clas@@ 0.004881988888779395
clus@@ 0.005090814733961583
comb@@ 0.003754518564921701
commen@@ 0.00777494168472659
complet@@ 0.002312617916480859
const@@ 0.007662470383200922
course 0.004215130962647589
dass 0.0011126475239364925
declar@@ 0.004175555042669224
ded@@ 0.04159555269900301
dedic@@ 0.005530807243219867
destr@@ 0.003783707451014191
deutsch@@ 0.013649640930330218
deutsche 0.007049334680000999
difer@@ 0.009738564698821473
dirig@@ 0.004460771929087368
donn@@ 0.0038287566309072054
durch 0.0007952820729399403
déc@@ 0.0017125284032569322
ehen 0.0024262532953169443
eint 0.006303823840085968
ellas 0.010186740896881607
emas 0.01019602197345206
encias 0.0044516308707795715
endant 0.0032564529548016626
endet 0.005281204489827026
entras 0.021959515447264637
entre@@ 0.005389601394646158
ersten 0.0022458895821367785
establ@@ 0.004170763868962457
estas 0.005922628636998004
event 0.003231208735878987
eyal@@ 0.18780612036352132
eño 0.005859852291928399
fica 0.005683019895586078
fici@@ 0.00522053874717386
fils 0.005397099860912932
five 0.0019531374058094995
forces 0.0035864238608365006
forme 0.0032915668870198
franç@@ 0.02739100433765211
fé@@ 0.004944820687033583
fér@@ 0.005583302417193219
gab 0.003656932936609818
ghi 0.023478750037053905
grande 0.004312199678225297
grup@@ 0.005881840690763478
gé@@ 0.007789569985168221
génér@@ 0.004555043269386624
histoire 0.00568727331235067
however 0.003063277159029348
hệ 0.010133965070051817
icas 0.003338932443102183
ient 0.006766920052237274
ieron 0.008928489178110167
igt 0.0043791749583527405
imiento 0.003016458151931555
included 0.0020862207071015203
inform@@ 0.003700991486490183
inspir@@ 0.0068475225390922
inten@@ 0.004019123166295138
investig@@ 0.0034123282533631383
isant 0.008308031168626006
isen 0.005892069521949212
istre 0.007161233654766148
kehr@@ 0.00587237557376333
keit 0.0024503493708801327
kte 0.006615801077060836
ký 0.02125038582410714
kı@@ 0.08321734983163467
large 0.0018330879057681076
leich@@ 0.0073840306453210386
lere 0.016287751176823632
lesia 0.007412040539870431
licher 0.0034335975235351116
lider@@ 0.021832550314677235
lui 0.0018023750183400488
là 0.0005398257994186172
lü 0.02604092310337538
lü@@ 0.03907378325780607
march@@ 0.007429217715016241
maç@@ 0.018011039449616583
meil@@ 0.0069645185791708305
minut@@ 0.004569731720957403
much 0.002690822653523468
munici@@ 0.03106614918762646
nde 0.0131374625615543
neh@@ 0.004645973826219462
next 0.0028349181699623724
nicht 0.0008712170908694392
nouvelle 0.005777293854838295
nun 0.005974097097293769
nur 0.00156540127589417
obra 0.006890501775938195
oren 0.003777862793443436
orta@@ 0.24238773633685243
otro 0.007808874011638783
ouest 0.005722683821964396
partam@@ 0.04924288696501525
pendant 0.004263856074350129
permet@@ 0.00657366551705848
pointed 0.0028725547251278235
premi@@ 0.0035084404963170437
premier 0.0022719786785977934
première 0.002435238399429923
principal 0.0036057601550754568
probl@@ 0.0032384738396435886
propor@@ 0.007152606631626794
provincia 0.007979317301670362
quier 0.010081843361875063
rail@@ 0.003494325229621543
reco@@ 0.007725174251288114
record@@ 0.0027103298400585683
reduc@@ 0.00457976228372833
reich@@ 0.00236678618082861
relig@@ 0.005440624218572986
resid@@ 0.003192306306632911
resul@@ 0.0017793276994654255
retir@@ 0.007802604553562141
returned 0.0028625040699804386
riff 0.0071477889987502236
roi 0.006333793345570284
rue 0.007421036710784627
régi@@ 0.007144387344128755
schaft@@ 0.0029888278085187883
schafts@@ 0.00368134967236688
schw@@ 0.004480688795581071
seine 0.0016175843810542069
seph 1
signific@@ 0.0028325263660775764
soll 0.007685816696070084
sát 0.020087570851844934
tainment 0.022695268930005057
tesi 0.06536317789076607
thuộc 0.0038438443140218735
ticos 0.005072954483528828
tober 1
todo 0.004607485659639592
transfer@@ 0.005364673168972921
trực 0.028872467326737053
tü 0.05156264207685185
tı 0.016424223715280642
tır@@ 0.038612947772195094
unden 0.007296438832789907
vement 0.006949054743186055
verdi 0.05538920045037471
vient 0.006256576826609681
vì 0.010837406169712599
wirt@@ 0.004732383466895638
within 0.0019976715867088103
ydi 0.05430272248600581
yü@@ 0.03783753971054162
zaman@@ 0.061899023680538415
zentr@@ 0.005109154580960625
zäh@@ 0.004666356105436956
¨ 0.40089226561314406
¾ 0.43570310887544633
Ét@@ 0.02408292065543466
Üniversitesi 0.03178540917862981
Þ@@ 0.10217517570906051
ám 0.016182265552631667
âce 0.008226710159428217
änge 0.006831208358758223
èmes 0.007861368911522885
église 0.006589194618100443
él 0.006631958852313152
érieur 0.005198375535006549
éta@@ 0.01107033522832493
étr@@ 0.005673032807296534
être 0.0017391863263984215
ình 0.03776325286651822
òng 0.022282005254182956
óg@@ 0.024752805375668804
öğ@@ 0.031902380363063955
ública 0.07873570592760283
ún@@ 0.005329094060001101
útbol 0.021623413535074378
üf@@ 0.009794041262658945
ünden 0.011402431613030391
ütz@@ 0.007318474941001243
üç@@ 0.036891090951873845
üçük 0.18025280900177096
üş 0.045762324049916765
ÿ 0.31196313151109
Ă@@ 1
ĉ 1
ď 1
Ĕ@@ 1
ĝ 1
Ġ@@ 1
ħ 1
İk@@ 0.06292417023050406
İm@@ 0.18199386708201673
ıc@@ 0.027658924137419737
ılı 0.034866121136973974
ından 0.010606029726675138
ĵ 1
ř 0.2167264994617537
Ś 1
ŝ 1
şu 0.05405948342694445
ů 0.43274192065013867
ů@@ 0.08927237359379915
ước 0.010203740939712548
ượng 0.021885857240892988
ǀ@@ 1
ǔ 0.46116627757595946
ǫ@@ 0.6608839568411387
Ș@@ 0.129853008116325
ș 0.05929703838837963
ɒ@@ 1
ɔ 0.5602274804047759
ɕ@@ 1
ɜ@@ 1
ɫ 1
ʂ 1
ʌ 1
ʤ@@ 1
ʰ@@ 0.7289813562629852
ˀ 1
ˁ@@ 1
̩ 1
̱ 0.9754409801448186
Ή@@ 0.14967251158418915
Ί@@ 0.0766791152948026
Ύ@@ 0.2613232062573084
ΐ@@ 0.055457405556647695
Αγ@@ 0.02825223806441662
Αν@@ 0.015286436208869162
Απο@@ 0.061431558168013226
Βι@@ 0.041114866634324364
Δ 0.05289646428939331
Θεσσαλον@@ 0.0889884229115249
Ιερ@@ 0.09351784124660124
Ισ@@ 0.07902211560808582
Μ 0.27913979976026326
Με@@ 0.02801562396319438
Μεγάλ@@ 0.0824629231606887
Ν 0.25074820415727067
Ξ 1
Ο 0.0040847377296237405
Παρ@@ 0.020192572315754186
Τ 0.13720536301189937
Χ 0.21675193983027838
Ψ 1
Ω 0.2209536646421134
άγ@@ 0.015935221921831454
άδ@@ 0.021246718085954592
άλ@@ 0.010464894900560741
άμ@@ 0.04204544425653259
άφ@@ 0.03568272735978476
έας 0.03895261529436633
έρ@@ 0.007806431025227096
έργ@@ 0.0594229830538116
ήγ@@ 0.033770616617545296
ίγ@@ 0.054988379255930364
ίδα 0.036880038655711066
ίκ@@ 0.013331238000246493
ίκη 0.05714448597821748
ίου 0.00983216335955305
αί@@ 0.011954924220581536
αβ@@ 0.030094525081313325
αφ@@ 0.012263871254369485
βά@@ 0.03520917121909354
βολ@@ 0.03506341907664239
για 0.0026417015750182645
γκ@@ 0.006914860506728113
γλ@@ 0.04960535609859611
γραφ@@ 0.01719106772503879
δε@@ 0.013237198556311681
δελφ@@ 0.2283306263650478
δημ@@ 0.0242933044167683
δοκ@@ 0.0990616832303724
δρο@@ 0.0489219419090224
δυ@@ 0.019813824808882014
είδ@@ 0.049463174718441555
είς 0.023741382629784785
εβ@@ 0.030860543761308645
ειν@@ 0.0675758380755404
εις 0.02195664314744871
εισ@@ 0.02594469342027148
εν 0.02760929688119231
εφ@@ 0.02029934672413418
ζω@@ 0.050103374814515156
ηλ@@ 0.023027545305525105
ηματ@@ 0.05456105473551817
ηφ@@ 0.12649926528835662
θέ@@ 0.01720356065156235
θεν@@ 0.08412345218287662
θμ@@ 0.10414019375185504
ιμ@@ 0.030439817599679227
καθ@@ 0.019882094639067777
καρι@@ 0.08944968151015559
κερ@@ 0.06972697588604114
κη 0.10523821813599347
κτ@@ 0.023767663475532778
λεύ@@ 0.19840010480435605
λη@@ 0.028990780390531795
λιο 0.05876300084059897
λις 0.08815572306951884
λος 0.06960869210291935
λύ@@ 0.09794249060701966
μένη 0.020027872657615124
μέρα 0.08460525889640969
μβ@@ 0.014888206211764898
μετα@@ 0.011721266863961289
μη 0.02097234113707924
μικρ@@ 0.02828122980830653
νε@@ 0.032653847623508196
νες 0.056516582254350564
νης 0.027860070844234006
νησι@@ 0.08570877160295867
οί 0.015330348161979788
οδος 0.08592014217179943
οι@@ 0.018892444856802283
ους 0.004577117200881811
οχ@@ 0.023459659197232138
ούν@@ 0.031114308890475204
παράδ@@ 0.13152715830288067
πατ@@ 0.04910146719709998
ποδ@@ 0.11321335226328275
πολλ@@ 0.04722048320924053
πορ@@ 0.06375189115502491
πυ@@ 0.054672522514778873
ρία 0.08237463309306485
ργ@@ 0.014922617569352762
ρη 0.07905594791343672
ρκ@@ 0.032816922448578055
στολ@@ 0.08632180708775379
σύν@@ 0.02235727591885486
ταν@@ 0.046423878703058245
τικ@@ 0.02777374669716235
τον 0.0020747580590009546
τρα 0.06480800840285489
υσ@@ 0.026915482703838575
φ 0.025775922713320513
φορά 0.029908804551720843
φυσ@@ 0.05857287154366825
φω@@ 0.0452154800777252
χολ@@ 0.3906303734745381
ωνία 0.044539287361043504
ϊ@@ 0.028607212967514235
όδ@@ 0.03371265930428214
όλ@@ 0.012223360796842012
όλων 0.10383567313806115
όπ@@ 0.023220404363805052
όρι@@ 0.07930380413219987
όρος 0.06872268321910535
ύλ@@ 0.04203682956367849
ώδ@@ 0.09548114046300954
ϛ 1
ϝ 1
Андре@@ 0.01195020467271654
Бал@@ 0.017031394929016782
Бел@@ 0.024087004636239782
Бело@@ 0.012268841860775405
Ва@@ 0.0042960970645566105
Вла@@ 0.033602230590590726
Га@@ 0.005070990122851443
Гор@@ 0.012402255266911655
Де@@ 0.003364355647612972
Ин@@ 0.004142413412272027
Кали@@ 0.017732054616303432
Кара@@ 0.01920087529546358
Карл 0.032994599660748726
Ке@@ 0.010634677997674041
Констан@@ 0.014145272871817171
Кри@@ 0.01070924693724781
Ла@@ 0.005715792949210168
Мак@@ 0.008749406642283797
Михаил 0.020782327241577286
Николай 0.01657028559621431
Ор@@ 0.008186734480818542
Пе@@ 0.004169624285113948
Пер@@ 0.00341223366685049
Пет@@ 0.0066012082503553214
Пи@@ 0.00883193242239105
Пу@@ 0.008787840222605744
России 0.003585260947781755
СР 0.022156876519884586
Се@@ 0.0022974883607157592
Сер@@ 0.013113670923627505
Си@@ 0.0037769355038528864
Сою@@ 0.011799764679584513
Ста@@ 0.006480323208713879
Сте@@ 0.012706071050501576
Те@@ 0.0043974569792479745
Ту@@ 0.009611731692333255
Ша@@ 0.009228165498458939
Ши@@ 0.015058552098433738
Ю@@ 0.003321897196082002
ал@@ 0.0020693660090239587
армия 0.025156123476392216
ата@@ 0.0034375990650936917
бъ@@ 0.020042220049865316
вая 0.003215773097042413
вер@@ 0.0012169202593012626
вина 0.024217156848889695
го 0.0009551507130430747
гор@@ 0.005085626949725522
джи@@ 0.01629997241787507
ди 0.0026824184135306214
дия 0.008744310310863637
дро@@ 0.009266185129089301
дру@@ 0.005729840239972884
е@@ 0.0006440168916781327
ек@@ 0.003654971299599453
ем@@ 0.004218241198997911
ене@@ 0.00797828300573855
ера 0.0034772754714760246
ет@@ 0.0032510062403744875
зан@@ 0.0034603264391042774
зиден@@ 0.022740548226137535
ин@@ 0.0009265176195041546
ит@@ 0.0017864700886739862
ита 0.011212578031686168
йн 0.0075471866305929875
йской 0.004246656107572511
кар 0.04800992629973588
км 0.0030029285520059936
ков@@ 0.0025404974690287157
кова 0.009667438602609078
кор@@ 0.005318487660581017
кос@@ 0.023933091071172106
лий 0.010790856458199265
лин 0.012812396529355197
лы 0.004495831122756702
ля 0.0016474030012768235
ля@@ 0.0009011096670836565
ма 0.0011110167120422032
мал@@ 0.01625935381552702
ман@@ 0.0031768128734032436
мар@@ 0.003933925266285047
международ@@ 0.009557701895557578
ми 0.0006932659789787931
ми@@ 0.0007979679368604532
мит@@ 0.00849602819301798
миче@@ 0.008105161445771168
мия 0.013132043548613847
му@@ 0.00173537138575616
мя@@ 0.004374806967939911
ник 0.001778876876567062
ников 0.003264680420886315
нин@@ 0.006951069007446589
ново 0.023726434634296713
ной 0.0004318140315348017
ня@@ 0.0021116580006016925
обла@@ 0.003999804560628488
окру@@ 0.0038829665063877597
ора 0.012417601599277352
ос@@ 0.0028240096525318707
остро@@ 0.0068402171351408655
осу@@ 0.006175948463510226
п 0.003186725370814723
пер@@ 0.0012168504895806397
пора@@ 0.014117910693422699
публи@@ 0.004912798685175856
ра 0.0008171261365313153
рон@@ 0.006039121708717814
са 0.0010633336819679611
се 0.001168312529960045
смо@@ 0.004402353095731043
сов 0.004188730696358084
сп@@ 0.005913732582889952
ста 0.004027486167057763
сто 0.006699573955844877
сть 0.0021857437649685564
сы 0.004787052537822159
те 0.0012537520873107527
те@@ 0.000712470217596143
ти 0.0014339907798058369
тия 0.004992968983495145
ты@@ 0.002292314518305076
укра@@ 0.010845490176053364
ф 0.005329247864023775
фа 0.011517722636831203
фе@@ 0.0026374415815340665
хан@@ 0.0160775774959873
хар@@ 0.014022491877509011
хи@@ 0.0025707703296028125
ц 0.0021218518853116015
ца 0.0022604668000383676
ция 0.001777512088668304
ча@@ 0.0009126295976168171
че@@ 0.0007607602929371584
чер@@ 0.0062056500032402345
чна 0.03261174785705201
шин@@ 0.006631434865447558
щ@@ 0.002254249387655766
ы 0.00052308525335553
ян 0.014215293584206916
ян@@ 0.0042427920604353785
яр@@ 0.013501826377699193
ёт@@ 0.0096029340431136
њ@@ 1
ҷ@@ 1
һ@@ 1
ө@@ 0.3931253513762277
Դ@@ 1
Է@@ 1
Ի@@ 1
Լ@@ 1
Ղ@@ 1
Ն@@ 1
Փ@@ 1
բ 1
դ 1
յ 1
շ 1
ք@@ 1
և@@ 1
֫ 1
ָ 1
ֽ@@ 1
ג 1
נ 1
״ 1
؛ 0.02998603055285311
آباد 0.05895060420183704
آزاد 0.2479202168923391
آيت 0.1107352189153908
أف@@ 0.05606697563047736
أك@@ 0.03993403350881597
أكبر 0.07242066813406055
أكتوبر 0.06033162698209964
ؤ@@ 0.01917575108951899
إلا 0.060780440270379904
ئر 0.11149748055154529
ابات 0.09276612787812819
احمد 0.10831875259072807
ادات 0.08608035874384139
اری 0.0498935333409209
از 0.02395233912407598
ازی 0.2597425482366214
اص 0.05845790278956981
اف 0.04684314100850203
اك@@ 0.02258755184056247
الأس@@ 0.032794774450122396
الأول@@ 0.10398185468037739
البر@@ 0.04155249505860168
الة 0.0302394211783591
التح@@ 0.055412471128474076
التع@@ 0.05194558684035619
الرا@@ 0.0506392544815199
الري@@ 0.062373658134513635
السع@@ 0.09948331315199298
السي@@ 0.03994612818635244
القر@@ 0.08445048138184962
المؤ@@ 0.04152446198196774
المدينة 0.0653423608554493
المر@@ 0.017280356511699308
المسي@@ 0.08495559123138448
المص@@ 0.032233739642387044
المغ@@ 0.06763028881127135
الملك 0.09408008230570854
النا@@ 0.06616891619774032
امل 0.04584185142537591
انية 0.024313136469039483
انی 0.02818625536801669
ای@@ 0.015677218065545468
ایران 0.13769647840523053
با 0.07133512750296085
باد 0.3271633195276651
بار 0.04111303576724204
بت@@ 0.049826216989507045
بد@@ 0.018661604448989275
بل 0.055200435724317404
بيل 0.07198868520133106
تاریخ 0.11050989140069074
تر@@ 0.009007892049359678
تق@@ 0.009355479882729776
تم@@ 0.009489915382236976
ته 0.016136729110751136
ته@@ 0.08639854835364691
تون@@ 0.1208765236589514
تی@@ 0.04060494283483544
جام@@ 0.09688895872673636
جد 0.09501439618267683
جر 0.06521773656674114
جمي@@ 0.2177231193743829
جن@@ 0.017180830662146002
جی@@ 0.03623947118745003
حد@@ 0.034920849810203713
حر@@ 0.033521099671673625
حس@@ 0.14339595988305828
حق 0.09655457934606472
خال@@ 0.18459559886175564
خلی@@ 0.2277673338367018
درجة 0.05834891535783801
دری@@ 0.31238534518933203
دولة 0.11135627640900625
دون 0.05264010990974804
دى 0.07821542593248652
ديد 0.03102699872992693
دين 0.0705447860712184
دُ@@ 0.09623252946707013
راب 0.13704243546193717
رام 0.0854074826741046
ران 0.1287035460663652
رف 0.06166749408590127
رير 0.0864875773027701
رين 0.025457863776183497
ری 0.02916247789592441
ریا 0.3167798551062174
زب@@ 0.12023896434291473
زر@@ 0.08440801679530725
زی@@ 0.047928925281995056
سر 0.03649084572574486
سم@@ 0.017942608980625597
سن 0.0337311346939122
سن@@ 0.02525003453368898
سنة 0.022836168829866083
سور@@ 0.09688387509387385
سی@@ 0.021563063017926987
شت 0.1463973499892287
شع@@ 0.05196751591281497
شعب@@ 0.13401870920410375
شه@@ 0.06807158355135816
صح@@ 0.05718873189464016
صن@@ 0.08553408261136472
ضاء 0.07691547362911406
طة 0.021754356449271227
طف@@ 0.10593859870419631
طور 0.023288053668989048
طي@@ 0.05432349078915424
ظهر 0.06089870965384194
عت 0.04321443926640318
عث@@ 0.11396098101673405
عد 0.07289525780325062
عشر 0.046269163461314565
عمر@@ 0.08674354185249879
غة 0.09812465593655764
فائ@@ 0.13032960018451026
فارسی 0.29572546050835063
فض@@ 0.05959366711034829
فلسط@@ 0.1365761668205726
[...]
