， 1
的 1
。 1
年 1
、 1
在 1
是 1
（ 1
） 1
和 1
一@@ 1
. 0.15433377478806032
月 1
人 1
了 1
大@@ 1
有 1
為 1
於 1
为 1
日 1
中 1
》 1
《 1
· 1
中@@ 1
上 1
- 1
不@@ 1
他 1
被 1
到 1
名 1
西@@ 1
： 1
「 1
」 1
斯 1
與 1
主@@ 1
于 1
子 1
由 1
會 1
公@@ 1
也 1
“ 1
” 1
部 1
而 1
地 1
以 1
後 1
位 1
出 1
出@@ 1
之@@ 1
及 1
1 1
斯@@ 1
等 1
三@@ 1
行 1
生 1
人@@ 1
道 1
地@@ 1
至 1
用 1
者 1
下 1
國 1
分@@ 1
后 1
最@@ 1
十@@ 1
家 1
州 1
海@@ 1
南@@ 1
2 1
成 1
任 1
次 1
新@@ 1
特@@ 1
國@@ 1
北@@ 1
" 1
大 1
市 1
度 1
民@@ 1
省 1
与 1
高@@ 1
会 1
； 1
有@@ 1
作 1
小@@ 1
3 1
法 1
站 1
自@@ 1
其 1
德@@ 1
定 1
性 1
多@@ 1
全@@ 1
区 1
文@@ 1
長 1
生@@ 1
來 1
期 1
) 0.2008261792539267
克@@ 1
但 1
( 0.19913665288558455
国 1
国@@ 1
以@@ 1
都 1
時 1
入 1
学@@ 1
建@@ 1
发@@ 1
加@@ 1
學@@ 1
5 1
, 0.033314364910059686
拉@@ 1
4 1
阿@@ 1
法@@ 1
多 1
日@@ 1
力 1
一个 1
個 1
尔 1
相@@ 1
區 1
前 1
英@@ 1
路 1
天@@ 1
上@@ 1
安@@ 1
克 1
士 1
时 1
二@@ 1
利@@ 1
特 1
物 1
米 1
本@@ 1
个 1
這@@ 1
年@@ 1
事 1
並@@ 1
量 1
巴@@ 1
基@@ 1
成@@ 1
科@@ 1
對 1
德 1
四@@ 1
第@@ 1
6 1
教@@ 1
原@@ 1
所 1
作@@ 1
院 1
式 1
改@@ 1
比@@ 1
首@@ 1
合@@ 1
發@@ 1
平@@ 1
面 1
山 1
利 1
里 1
军 1
山@@ 1
共@@ 1
或 1
能 1
8 1
7 1
这@@ 1
理 1
之 1
美@@ 1
台 1
尔@@ 1
10 1
向 1
南 1
新 1
保@@ 1
重@@ 1
方 1
型 1
金@@ 1
外 1
不 1
得 1
尼@@ 1
并 1
同@@ 1
化 1
此@@ 1
本 1
长 1
員 1
交@@ 1
賽 1
起 1
9 1
名@@ 1
場 1
行@@ 1
家@@ 1
電@@ 1
员 1
东@@ 1
爾@@ 1
水@@ 1
公司 1
代 1
間 1
一 1
線 1
可以 1
合 1
政@@ 1
後@@ 1
接@@ 1
政府 1
间 1
王@@ 1
12 1
下@@ 1
工@@ 1
对 1
制 1
西 1
总@@ 1
過 1
来 1
色 1
电@@ 1
分 1
球 1
動 1
任@@ 1
中国 1
方@@ 1
女@@ 1
其@@ 1
太@@ 1
隊 1
拉 1
日本 1
使用 1
第 1
立 1
部@@ 1
人口 1
時@@ 1
兩@@ 1
通@@ 1
时@@ 1
軍@@ 1
影@@ 1
民 1
事@@ 1
布@@ 1
种 1
理@@ 1
文 1
县 1
列@@ 1
香港 1
東@@ 1
将 1
学 1
外@@ 1
洲 1
就 1
; 0.49142751194569895
物@@ 1
目 1
經@@ 1
队 1
11 1
格@@ 1
元 1
曾 1
科 1
市@@ 1
此 1
然 1
業 1
五@@ 1
包括 1
體 1
指@@ 1
以及 1
卡@@ 1
稱 1
明 1
她 1
北 1
直@@ 1
車 1
其中 1
表@@ 1
马@@ 1
一個 1
明@@ 1
高 1
格 1
亞@@ 1
各@@ 1
演@@ 1
普@@ 1
教 1
因 1
反@@ 1
建 1
自 1
社@@ 1
戰@@ 1
业 1
當@@ 1
亚 1
/ 0.9429630101618413
族 1
正@@ 1
局 1
夫 1
手 1
因@@ 1
軍 1
馬 1
两@@ 1
球@@ 1
所@@ 1
加 1
伊@@ 1
: 0.31915832509893055
里@@ 1
校 1
同 1
可@@ 1
而@@ 1
使 1
部分 1
罗@@ 1
主要 1
世 1
選@@ 1
古@@ 1
动 1
設@@ 1
布 1
场 1
运@@ 1
用@@ 1
3@@ 1
可 1
林@@ 1
片 1
提@@ 1
縣 1
曲 1
路@@ 1
聯@@ 1
約 1
意@@ 1
系 1
如@@ 1
代@@ 1
學 1
机@@ 1
動@@ 1
联@@ 1
城 1
级 1
主 1
前@@ 1
体 1
当@@ 1
器 1
林 1
天 1
域 1
且 1
座 1
它 1
些 1
內 1
運@@ 1
开@@ 1
該 1
爾 1
機@@ 1
果 1
李@@ 1
武@@ 1
要 1
4@@ 1
经@@ 1
又 1
將 1
设@@ 1
開@@ 1
世@@ 1
清@@ 1
音@@ 1
王 1
總@@ 1
流@@ 1
战@@ 1
该 1
段 1
河@@ 1
内 1
口 1
制@@ 1
城@@ 1
赛 1
车 1
军@@ 1
期@@ 1
河 1
海 1
治@@ 1
动@@ 1
波@@ 1
元@@ 1
委@@ 1
近 1
集@@ 1
线 1
收@@ 1
5@@ 1
份 1
立@@ 1
号 1
演 1
M@@ 0.2955025560256212
回@@ 1
現@@ 1
推@@ 1
其他 1
S@@ 0.19487343518687364
广@@ 1
属 1
屬 1
朝 1
置 1
進@@ 1
會@@ 1
亦 1
亞 1
江@@ 1
星 1
世界 1
達 1
受 1
福@@ 1
根@@ 1
解@@ 1
號 1
现 1
T@@ 0.29004278047987725
平方公里 1
取@@ 1
化@@ 1
季 1
6@@ 1
已 1
空@@ 1
美國 1
字 1
臺 1
称 1
因此 1
村 1
内@@ 1
商@@ 1
通 1
水 1
每@@ 1
參@@ 1
位于 1
去 1
哈@@ 1
無@@ 1
關 1
最 1
從 1
由@@ 1
管 1
常 1
宣@@ 1
引@@ 1
結@@ 1
造 1
華@@ 1
小 1
神@@ 1
比 1
信@@ 1
人民@@ 1
將@@ 1
種 1
维@@ 1
程 1
希@@ 1
7@@ 1
歌@@ 1
只@@ 1
意 1
台@@ 1
% 0.7543347564492483
活@@ 1
即 1
20 1
身 1
安 1
第一@@ 1
大学 1
投@@ 1
組@@ 1
共 1
尼 1
中心 1
常@@ 1
白@@ 1
命 1
地区 1
件 1
情@@ 1
內@@ 1
六@@ 1
治 1
則 1
已@@ 1
更 1
洛@@ 1
並 1
博@@ 1
印@@ 1
超@@ 1
說 1
派 1
案 1
定@@ 1
均 1
能@@ 1
威@@ 1
製 1
产@@ 1
男@@ 1
A@@ 0.2938616761208626
經 1
P@@ 0.23804041213939947
从 1
2@@ 1
音 1
專@@ 1
自己 1
形@@ 1
流 1
镇 1
府 1
羅@@ 1
进@@ 1
東 1
H@@ 0.255073397611051
品 1
機 1
集 1
C@@ 0.23575262327733937
青@@ 1
长@@ 1
著 1
机 1
数@@ 1
現 1
D@@ 0.2167923530490976
兵 1
9@@ 1
奥@@ 1
蘭 1
八@@ 1
言 1
廣@@ 1
吉@@ 1
美国 1
道@@ 1
石@@ 1
语 1
得@@ 1
周@@ 1
代表 1
服@@ 1
非@@ 1
起@@ 1
入@@ 1
金 1
B@@ 0.2171551898074729
成立 1
研究 1
义 1
过 1
G@@ 0.24570282644479657
可能 1
政治 1
京 1
語 1
会@@ 1
發 1
版 1
官 1
亚@@ 1
官@@ 1
增@@ 1
工作 1
率 1
接 1
结@@ 1
工 1
后@@ 1
打@@ 1
对@@ 1
之一 1
女 1
更@@ 1
航@@ 1
數@@ 1
數 1
室 1
平 1
实@@ 1
E@@ 0.2907218344175906
身@@ 1
維@@ 1
车@@ 1
表 1
開始 1
令 1
& 1
市镇 1
光@@ 1
級 1
L@@ 0.19157445163940076
別 1
少 1
省@@ 1
原 1
约 1
門 1
戰 1
堂 1
8@@ 1
九@@ 1
該@@ 1
源 1
点 1
关@@ 1
表示 1
類 1
單@@ 1
展 1
手@@ 1
放@@ 1
樂@@ 1
O@@ 0.3703183828366511
现@@ 1
查 1
和@@ 1
資@@ 1
先@@ 1
情 1
千@@ 1
瓦@@ 1
為@@ 1
居@@ 1
子@@ 1
空 1
員@@ 1
三 1
不同 1
點 1
據 1
星@@ 1
百@@ 1
无@@ 1
如 1
月@@ 1
務 1
止 1
数 1
修@@ 1
警@@ 1
處 1
雷@@ 1
今 1
重 1
30 1
全 1
助 1
15 1
實@@ 1
島 1
基 1
視 1
经 1
目@@ 1
伯@@ 1
盟 1
例 1
席 1
未@@ 1
士@@ 1
兰 1
苏@@ 1
N@@ 0.23213864266834708
支@@ 1
心 1
傳@@ 1
帶 1
I@@ 0.37969790040560814
沙@@ 1
料 1
火@@ 1
至@@ 1
— 0.36323990593684785
为@@ 1
来@@ 1
京@@ 1
曾@@ 1
團 1
字@@ 1
角 1
说 1
游@@ 1
產@@ 1
計@@ 1
指 1
列 1
土@@ 1
角@@ 1
法国 1
_ 1
据 1
區@@ 1
議 1
好 1
党 1
帝 1
技@@ 1
选@@ 1
塔@@ 1
界 1
連@@ 1
少@@ 1
致 1
达 1
划 1
初 1
黑@@ 1
皇@@ 1
故@@ 1
副 1
知@@ 1
作品 1
塞@@ 1
形 1
R@@ 0.1879329864487705
年代 1
区@@ 1
體@@ 1
命@@ 1
像 1
务 1
七@@ 1
持 1
述 1
著@@ 1
则 1
程@@ 1
俄@@ 1
卡 1
发 1
埃@@ 1
开始 1
告 1
示 1
江 1
公里 1
氏 1
这 1
開 1
专@@ 1
在@@ 1
团 1
把 1
羅 1
光 1
中國 1
进行 1
台灣 1
东 1
義@@ 1
完@@ 1
书@@ 1
正式 1
国家 1
一些 1
放 1
車@@ 1
司@@ 1
米@@ 1
黨 1
夏@@ 1
议 1
州@@ 1
境 1
着 1
正 1
传@@ 1
計 1
该@@ 1
门 1
万@@ 1
及@@ 1
第二@@ 1
議@@ 1
排@@ 1
参@@ 1
防@@ 1
再 1
勒 1
知 1
那@@ 1
們 1
提供 1
落 1
半@@ 1
成为 1
造@@ 1
史@@ 1
深@@ 1
模@@ 1
整@@ 1
進行 1
行政 1
A 0.45444157299447085
战 1
非 1
所有 1
速 1
他們 1
班@@ 1
才 1
城市 1
计 1
早@@ 1
地區 1
未 1
16 1
師 1
18 1
播 1
續 1
附@@ 1
真@@ 1
登@@ 1
象 1
攻@@ 1
石 1
畫 1
限@@ 1
领@@ 1
播@@ 1
過@@ 1
創@@ 1
们 1
委 1
考@@ 1
泰@@ 1
回 1
16@@ 0.9542838222821727
成為 1
再@@ 1
面积 1
題 1
F@@ 0.17748330566359816
舉@@ 1
轉@@ 1
史 1
管@@ 1
花@@ 1
很@@ 1
朝@@ 1
师 1
21 1
文化 1
奧@@ 1
國家 1
我 1
编@@ 1
第一 1
病@@ 1
便 1
大學 1
或@@ 1
遊@@ 1
心@@ 1
往 1
息 1
受@@ 1
蘭@@ 1
素 1
处 1
性@@ 1
中国@@ 1
除 1
2010 1
堡 1
15@@ 1
配@@ 1
論 1
風@@ 1
校@@ 1
19 1
初@@ 1
容 1
牌 1
領@@ 1
愛@@ 1
14 1
術 1
設 1
感@@ 1
还 1
宗@@ 1
获得 1
蒙@@ 1
使@@ 1
17@@ 0.7032968045072737
停@@ 1
1@@ 1
鐵@@ 1
湖@@ 1
川 1
计@@ 1
樂 1
达@@ 1
以下 1
較 1
13 1
生活 1
失@@ 1
老@@ 1
学院 1
取 1
类 1
父@@ 1
視@@ 1
瑞@@ 1
术 1
位@@ 1
包@@ 1
导@@ 1
因為 1
夫@@ 1
formula 1
信 1
社 1
決@@ 1
園 1
人物 1
除@@ 1
負@@ 1
劇 1
何 1
17 1
見 1
還@@ 1
力@@ 1
版@@ 1
先 1
面積 1
没有 1
馬@@ 1
錄 1
等@@ 1
他们 1
影 1
望 1
應 1
步 1
易 1
事件 1
10@@ 1
精@@ 1
死 1
認為 1
塔 1
体@@ 1
隨@@ 1
客@@ 1
標@@ 1
美 1
施 1
消@@ 1
别 1
統 1
萬@@ 1
岛 1
持@@ 1
华@@ 1
母 1
D 1
進 1
對@@ 1
想 1
K@@ 0.19589357165922236
章 1
電影 1
頭 1
25 1
通过 1
洋 1
目前 1
历史 1
澳@@ 1
控@@ 1
導@@ 1
永@@ 1
依@@ 1
宗 1
神 1
展@@ 1
當時 1
移@@ 1
念 1
组@@ 1
E 1
奇 1
被@@ 1
死@@ 1
创@@ 1
2019 1
并@@ 1
但是 1
变@@ 1
權 1
2011 1
票 1
森 1
街@@ 1
管理 1
足球 1
客 1
2009 1
称@@ 1
姆 1
佛@@ 1
次@@ 1
承@@ 1
擊 1
弗@@ 1
直 1
陳 1
论 1
旅@@ 1
2016 1
馆 1
面@@ 1
店 1
托@@ 1
应 1
港@@ 1
乐@@ 1
规@@ 1
協@@ 1
中央 1
0@@ 1
歐@@ 1
北部 1
左@@ 1
田@@ 1
认为 1
加入 1
關@@ 1
蘇@@ 1
同年 1
木@@ 1
莫@@ 1
賽@@ 1
底 1
編@@ 1
街 1
歷史 1
灣@@ 1
龍 1
書 1
2018 1
讓 1
重要 1
方面 1
政 1
视@@ 1
館 1
关 1
0 1
拿@@ 1
必@@ 1
构 1
际 1
2012 1
役 1
决@@ 1
T 1
郡 1
亡 1
系列 1
律 1
马 1
港 1
值 1
田 1
下辖 1
萨@@ 1
V@@ 0.23373551554604832
2013 1
達@@ 1
時間 1
书 1
共和国 1
迪@@ 1
變@@ 1
岸 1
越@@ 1
友 1
觀@@ 1
需要 1
節@@ 1
圣@@ 1
解 1
24 1
支持 1
2017 1
中华@@ 1
輯 1
委员会 1
2014 1
000 1
教育 1
延@@ 1
乡 1
當 1
花 1
建立 1
生平 1
2015 1
群 1
只 1
氣@@ 1
行政@@ 1
南部 1
張@@ 1
艾@@ 1
樣 1
書@@ 1
地方 1
{ 1
相 1
图@@ 1
嘉@@ 1
規@@ 1
獲得 1
邦 1
汉@@ 1
U@@ 0.3858268458815519
獎 1
古 1
设 1
资@@ 1
兰@@ 1
莱@@ 1
許@@ 1
授 1
密@@ 1
升@@ 1
備 1
革@@ 1
铁路 1
要求 1
擔@@ 1
食@@ 1
zh 1
紀@@ 1
完成 1
C 0.7981774221741996
張 1
标@@ 1
批@@ 1
作为 1
开 1
欧@@ 1
舉 1
候 1
转@@ 1
網@@ 1
22 1
近@@ 1
2008 1
志 1
同時 1
风@@ 1
黃 1
仍 1
0.@@ 1
辦 1
看@@ 1
納@@ 1
.@@ 0.4242153584347124
行星 1
} 1
記@@ 1
高度 1
功@@ 1
由于 1
报@@ 1
車站 1
协@@ 1
速@@ 1
黄@@ 1
2020 1
曼 1
恩 1
单位 1
帝@@ 1
过@@ 1
题 1
選 1
景 1
醫@@ 1
唐@@ 1
唱 1
例如 1
14@@ 1
牙 1
效@@ 1
即@@ 1
抗@@ 1
勒@@ 1
典 1
籍 1
业@@ 1
纳 1
23 1
随@@ 1
退@@ 1
] 1
医@@ 1
劇@@ 1
工程 1
[ 1
住 1
寺 1
成功 1
梅@@ 1
庭 1
方式 1
華 1
束 1
戲 1
得到 1
響 1
受到 1
陸 1
甲@@ 1
署 1
灣 1
调@@ 1
第二 1
J@@ 0.23468904314159486
很 1
权 1
低 1
鲁@@ 1
记 1
留@@ 1
13@@ 1
交 1
阳 1
植@@ 1
職@@ 1
张@@ 1
上海 1
四 1
组 1
察 1
發展 1
分布 1
产 1
歲 1
湖 1
群@@ 1
统 1
冠@@ 1
一般 1
突@@ 1
義 1
二 1
统@@ 1
纳@@ 1
土 1
母@@ 1
構 1
令@@ 1
R 1
参加 1
公 1
繼@@ 1
思@@ 1
人民 1
復 1
索@@ 1
B 0.9485736674075753
劃 1
似 1
打 1
房 1
熱@@ 1
毛@@ 1
久 1
聖@@ 1
導 1
每 1
通常 1
存在 1
升 1
報@@ 1
系统 1
击 1
的@@ 1
居 1
前往 1
我@@ 1
款 1
富@@ 1
親 1
射 1
藝@@ 1
给 1
恩@@ 1
一種 1
首 1
1.@@ 1
具 1
號@@ 1
之后 1
存 1
带 1
層 1
簡@@ 1
巴 1
园 1
發現 1
商 1
系統 1
2001 1
問@@ 1
應@@ 1
育@@ 1
眾 1
议@@ 1
算 1
S 0.9183823140105969
蒂@@ 1
人口密度 1
28 1
护 1
今@@ 1
架 1
圖 1
都@@ 1
強@@ 1
報 1
統@@ 1
祖@@ 1
病 1
做 1
2007 1
口@@ 1
另 1
團@@ 1
質 1
務@@ 1
求 1
农@@ 1
界@@ 1
平方@@ 1
查@@ 1
－ 1
色@@ 1
18@@ 0.5519351724360555
争 1
样 1
雙@@ 1
康@@ 1
條 1
獨@@ 1
沿@@ 1
务@@ 1
举@@ 1
P 0.8610576391766099
飛@@ 1
是@@ 1
就是 1
背@@ 1
然而 1
同时 1
50 1
紀 1
提出 1
則@@ 1
届 1
射@@ 1
属于 1
瓦 1
菲@@ 1
越 1
一名 1
爭 1
龍@@ 1
采@@ 1
哥 1
冠 1
续 1
备 1
形成 1
沒有 1
连@@ 1
耶@@ 1
应@@ 1
另外 1
核@@ 1
准 1
气@@ 1
歌 1
h@@ 0.11732290527050908
兵@@ 1
选 1
网@@ 1
帕@@ 1
組 1
國際 1
項 1
担任 1
父 1
企@@ 1
陆 1
節 1
研究@@ 1
所以 1
赛@@ 1
哥@@ 1
離 1
支 1
最大 1
照 1
2006 1
降@@ 1
佳 1
端 1
12@@ 1
調@@ 1
尚@@ 1
26 1
世纪 1
具有 1
码 1
波 1
戏 1
组织 1
邊 1
班 1
摩@@ 1
封@@ 1
大利 1
党@@ 1
村@@ 1
圍 1
含 1
W@@ 0.1384848607449882
皮@@ 1
烏@@ 1
佈 1
遭@@ 1
責@@ 1
藏 1
售 1
胡@@ 1
逐@@ 1
守 1
报 1
預@@ 1
變 1
甚@@ 1
贝@@ 1
他@@ 1
薩@@ 1
拔@@ 1
漢@@ 1
環@@ 1
罗 1
策 1
几@@ 1
27 1
乐 1
卫@@ 1
業@@ 1
頓 1
屆 1
語@@ 1
五 1
萬 1
始@@ 1
倫@@ 1
址 1
甲 1
向@@ 1
当 1
单@@ 1
施@@ 1
敗 1
职@@ 1
白 1
办@@ 1
条 1
擊@@ 1
興@@ 1
还@@ 1
2021 1
試 1
評@@ 1
條@@ 1
產 1
峰 1
语@@ 1
反 1
係 1
船 1
極@@ 1
环@@ 1
足 1
处@@ 1
2.@@ 1
gt 0.7855717150601512
31 1
食 1
採@@ 1
龙@@ 1
卻 1
= 1
序 1
媒@@ 1
容@@ 1
杜@@ 1
许@@ 1
朱@@ 1
独@@ 1
終 1
早 1
話 1
韓@@ 1
景@@ 1
筑 1
給 1
头 1
破@@ 1
弟 1
2000 1
實 1
予 1
臣 1
红@@ 1
樓 1
概@@ 1
密 1
雷 1
图 1
质 1
范@@ 1
住@@ 1
察@@ 1
況 1
济 1
M 0.8704104141633233
记@@ 1
2005 1
透@@ 1
執@@ 1
爆@@ 1
衛@@ 1
寫 1
追@@ 1
森@@ 1
轄 1
约@@ 1
院@@ 1
29 1
朗 1
丁@@ 1
层 1
織 1
丹@@ 1
修 1
纪@@ 1
进 1
节@@ 1
曼@@ 1
营 1
劉@@ 1
40 1
個@@ 1
留 1
鎮 1
降 1
魚 1
托 1
问@@ 1
略 1
尺 1
联 1
境@@ 1
離@@ 1
雖@@ 1
观@@ 1
从@@ 1
攻 1
lt 1
陈@@ 1
映 1
刘@@ 1
稱@@ 1
銀@@ 1
沒 1
y 0.038057373053220066
傳 1
微@@ 1
曲@@ 1
干@@ 1
派@@ 1
强@@ 1
司 1
仍@@ 1
六 1
英 1
s 0.06054724613180708
易@@ 1
好@@ 1
撤@@ 1
殺 1
然@@ 1
載 1
注@@ 1
评@@ 1
央@@ 1
继@@ 1
魯@@ 1
索 1
沃@@ 1
幾@@ 1
低@@ 1
描@@ 1
复@@ 1
乌@@ 1
晚@@ 1
导 1
收 1
裝@@ 1
混@@ 1
剧 1
隆 1
威 1
响 1
烈 1
萊@@ 1
各 1
双@@ 1
镇@@ 1
巨@@ 1
互@@ 1
荷@@ 1
督@@ 1
牙@@ 1
类@@ 1
岁 1
根 1
雅@@ 1
康 1
伦@@ 1
春@@ 1
秘@@ 1
华 1
奇@@ 1
桥 1
喜@@ 1
足@@ 1
坦 1
改 1
霍@@ 1
赫@@ 1
确@@ 1
皆 1
穆@@ 1
艺@@ 1
姆@@ 1
革 1
离 1
濟 1
办 1
聯 1
失 1
' 1
短@@ 1
害 1
坡 1
节 1
野@@ 1
去@@ 1
圖@@ 1
納 1
貝@@ 1
無 1
100 1
见 1
木 1
L 0.6237054495415651
O 0.8198932153915733
態 1
職 1
落@@ 1
香@@ 1
乘@@ 1
局@@ 1
清 1
氣 1
營 1
度@@ 1
魚@@ 1
紅@@ 1
故 1
站@@ 1
历@@ 1
登 1
午 1
板 1
督 1
鄉 1
坦@@ 1
酸 1
飞@@ 1
装@@ 1
线@@ 1
顿 1
娜 1
縣@@ 1
走 1
批 1
团@@ 1
副@@ 1
视 1
股@@ 1
請 1
效 1
热@@ 1
送 1
兒 1
快 1
庄 1
源@@ 1
獲 1
宋@@ 1
占@@ 1
服 1
處@@ 1
裡 1
川@@ 1
个@@ 1
诺@@ 1
卢@@ 1
整 1
玩@@ 1
2004 0.9676664298185426
強 1
裝 1
模 1
复 1
你 1
判 1
距@@ 1
族@@ 1
项 1
島@@ 1
爱@@ 1
快@@ 1
唯@@ 1
廷 1
私@@ 1
领 1
它@@ 1
詞 1
人口@@ 1
善 1
什@@ 1
I 0.3620239060964274
品@@ 1
暴@@ 1
况 1
介@@ 1
門@@ 1
草@@ 1
终 1
佩@@ 1
60 1
十 1
血@@ 1
電 1
让 1
營@@ 1
標 1
玉@@ 1
奖 1
乎 1
楼 1
运 1
N 0.9446397462727435
草 1
那 1
银@@ 1
a 0.017870385231744883
右 1
雄 1
運 1
职 1
简@@ 1
志@@ 1
吸@@ 1
乡@@ 1
| 1
援 1
迪 1
酒@@ 1
告@@ 1
育 1
聚@@ 1
戶 1
G 1
00 1
伯 1
宁@@ 1
假@@ 1
录 1
屋 1
丁 1
20@@ 1
i 0.1509397741880239
散 1
遗@@ 1
廳 1
亲 1
t@@ 0.07055514846834807
獲@@ 1
3.@@ 1
铁@@ 1
律@@ 1
顯@@ 1
護 1
守@@ 1
变 1
阳@@ 1
探@@ 1
张 1
巡@@ 1
松@@ 1
鎮@@ 1
福 1
浙@@ 1
切 1
谷 1
風 1
毒 1
舞@@ 1
伊 1
条@@ 1
罪 1
围 1
郎 1
智@@ 1
云@@ 1
季@@ 1
of 0.01455778278197551
n 0.13763709475164987
us 0.13263504272668242
徒 1
房@@ 1
言@@ 1
場@@ 1
普 1
唱@@ 1
算@@ 1
漫@@ 1
k 0.14447223709191134
步@@ 1
頭@@ 1
感 1
负@@ 1
较 1
彈 1
往@@ 1
火 1
F 0.7096535002270672
盛@@ 1
尤@@ 1
涯 1
剧@@ 1
切@@ 1
众 1
抵@@ 1
諾@@ 1
益 1
勢 1
离@@ 1
on 0.03880640507151783
何@@ 1
丹 1
認@@ 1
2003 1
就@@ 1
總 1
藏@@ 1
但@@ 1
證@@ 1
末 1
某@@ 1
致@@ 1
限 1
這 1
婚 1
擁@@ 1
橋 1
權@@ 1
單 1
跟 1
類@@ 1
油 1
话 1
朗@@ 1
師@@ 1
種@@ 1
祖 1
領 1
逃@@ 1
費 1
执@@ 1
万 1
带@@ 1
洪@@ 1
技 1
船@@ 1
老 1
塞 1
排 1
陸@@ 1
徐@@ 1
廠 1
鐵 1
聲@@ 1
风 1
來@@ 1
击@@ 1
半 1
票@@ 1
右@@ 1
勝@@ 1
截@@ 1
将@@ 1
隊@@ 1
预@@ 1
調 1
洋@@ 1
写 1
諾 1
授@@ 1
旗@@ 1
词 1
激@@ 1
責 1
典@@ 1
冰@@ 1
助@@ 1
沙 1
毕@@ 1
寶@@ 1
兴@@ 1
X 1
80 1
牛@@ 1
厂 1
斷 1
于@@ 1
照@@ 1
项@@ 1
看 1
壤 1
親@@ 1
須 1
禁@@ 1
汽@@ 1
龙 1
優@@ 1
态 1
狀@@ 1
秀 1
征 1
識 1
供@@ 1
準 1
始 1
2002 0.9215378456784138
证@@ 1
门@@ 1
周 1
範@@ 1
想@@ 1
缺@@ 1
仅 1
侧 1
約@@ 1
标 1
耳@@ 1
K 1
殿 1
畢@@ 1
毫@@ 1
召@@ 1
到@@ 1
翰 1
敦 1
边 1
the 0.007349963626080214
考 1
農@@ 1
若 1
屬@@ 1
韩@@ 1
匹@@ 1
油@@ 1
隆@@ 1
董@@ 1
陆@@ 1
申@@ 1
俱@@ 1
獎@@ 1
湾 1
判@@ 1
免 1
兒@@ 1
责 1
号@@ 1
津 1
t 0.0468126309421863
走@@ 1
又@@ 1
艦 1
另@@ 1
o 0.0717610937846925
厅 1
铁 1
思 1
聲 1
吳@@ 1
記 1
保 1
柏@@ 1
气 1
良 1
… 1
八 1
溫@@ 1
嚴@@ 1
破 1
V 0.8438731651451598
拔 1
声@@ 1
做@@ 1
户 1
术@@ 1
兼@@ 1
败 1
甘@@ 1
配 1
築 1
+ 1
an 0.03514757544147136
实 1
努@@ 1
拥@@ 1
兄@@ 1
载 1
細@@ 1
济@@ 1
捕 1
羽@@ 1
拍 1
师@@ 1
控 1
確@@ 1
差@@ 1
儿@@ 1
梁@@ 1
篇 1
装 1
翻@@ 1
終@@ 1
危@@ 1
魔@@ 1
边@@ 1
野 1
陽 1
救@@ 1
男 1
试@@ 1
側 1
旗 1
监@@ 1
健@@ 1
刊 1
尾 1
X@@ 0.5360105661596061
画 1
引 1
示@@ 1
槍 1
er 0.030735262125109398
种@@ 1
葡@@ 1
严@@ 1
宮 1
底@@ 1
d 0.07510764266452297
練 1
赤@@ 1
细@@ 1
y@@ 0.09277842553043851
費@@ 1
c@@ 0.06219246019787641
待 1
爵 1
童 1
占 1
库 1
x 0.22408842128008769
畫@@ 1
聞 1
溪 1
奧 1
宇@@ 1
戈@@ 1
余@@ 1
爭@@ 1
舰 1
片@@ 1
酒 1
70 1
兼 1
要@@ 1
强 1
昌 1
200 1
武 1
极@@ 1
存@@ 1
偏@@ 1
权@@ 1
護@@ 1
率@@ 1
監@@ 1
显@@ 1
雄@@ 1
給@@ 1
in 0.011113304072703922
e 0.06371040017635173
遺@@ 1
防 1
杨@@ 1
胞 1
注 1
固@@ 1
温@@ 1
符@@ 1
1990 0.9716029971553384
歷 1
茨 1
黎@@ 1
七 1
按@@ 1
狀 1
認 1
讀 1
辑 1
游 1
雲@@ 1
临@@ 1
刻 1
操@@ 1
若@@ 1
決 1
驗 1
诺 1
麥@@ 1
觀 1
坑 1
辛@@ 1
充@@ 1
鄉@@ 1
恐@@ 1
宁 1
君@@ 1
封 1
併 1
析 1
4.@@ 1
從@@ 1
陽@@ 1
榜 1
返@@ 1
招@@ 1
资 1
盃 1
刺@@ 1
杀 1
九 1
w 0.1889669695606832
吉 1
松 1
墨@@ 1
呼@@ 1
裔 1
35 1
避@@ 1
黨@@ 1
具@@ 1
深 1
5.@@ 1
替 1
檢@@ 1
飾 1
資 1
c 0.11277642918608298
习 1
什 1
传 1
移 1
举 1
楊@@ 1
階@@ 1
泽@@ 1
艇 1
露 1
际@@ 1
币 1
座@@ 1
仁@@ 1
洛 1
象@@ 1
習 1
Y@@ 0.23574779264893442
1999 0.8604232261920947
良@@ 1
皇 1
! 0.7720369060782033
靠 1
卷 1
町 1
積@@ 1
結 1
培@@ 1
拜@@ 1
1998 0.9438525993607911
拍@@ 1
帶@@ 1
90 1
春 1
圈 1
簽@@ 1
瑪@@ 1
富 1
尾@@ 1
線@@ 1
县@@ 1
桑@@ 1
訊 1
库@@ 1
获 1
介 1
阻@@ 1
赫 1
競@@ 1
p@@ 0.052937029231108546
參 1
測 1
25@@ 0.992949101769293
姓 1
U 0.7014013669802941
質@@ 1
翼 1
氧@@ 1
涉@@ 1
秀@@ 1
s@@ 0.034600388090838916
際@@ 1
測@@ 1
检@@ 1
优@@ 1
500 1
验 1
单 1
戴@@ 1
抗 1
免@@ 1
案@@ 1
減@@ 1
争@@ 1
属@@ 1
财@@ 1
許 1
哲@@ 1
崇@@ 1
轉 1
津@@ 1
6.@@ 1
p 0.1783569646811382
〉 1
送@@ 1
幕 1
〈 1
增 1
暴 1
费@@ 1
麗@@ 1
彼@@ 1
財@@ 1
坐@@ 1
否 1
途 1
績 1
際 1
1980 1
療 1
雜@@ 1
佔 1
历 1
歷@@ 1
皮 1
吴@@ 1
休@@ 1
僅 1
證 1
扩@@ 1
末@@ 1
泛 1
佛 1
疑 1
價 1
枚 1
奏 1
状 1
默@@ 1
含@@ 1
函@@ 1
征@@ 1
断 1
肯@@ 1
汉 1
太 1
e@@ 0.0581529323051256
退 1
誌 1
蒂 1
友@@ 1
套 1
勝 1
啟@@ 1
夠 1
準@@ 1
股 1
乾@@ 1
紐@@ 1
状@@ 1
1997 0.9554378440219846
念@@ 1
邮@@ 1
调 1
研@@ 1
承 1
葉@@ 1
雪@@ 1
ing 0.02609601623705561
阿 1
輪 1
庫 1
奥 1
穿@@ 1
32 1
評 1
儿 1
染 1
需@@ 1
准@@ 1
旧 1
差 1
需 1
夜 1
材 1
价 1
維 1
滿 1
順@@ 1
拒@@ 1
H 0.9142340245763052
陶@@ 1
冬@@ 1
证 1
真 1
僅@@ 1
棲@@ 1
妻@@ 1
疫@@ 1
论@@ 1
郭@@ 1
轨@@ 1
黎 1
菌 1
营@@ 1
is 0.02674558269386124
斗 1
乙@@ 1
45 1
惠@@ 1
测@@ 1
殖@@ 1
項@@ 1
转 1
陵 1
價@@ 1
佐@@ 1
旋 1
尽@@ 1
險 1
头@@ 1
劳@@ 1
禮 1
– 0.09112997976270619
贵@@ 1
亲@@ 1
乘 1
兴 1
眼@@ 1
！ 1
7.@@ 1
满@@ 1
傷 1
艘 1
消 1
池 1
難 1
短 1
费 1
還 1
遇@@ 1
症 1
迫 1
勞@@ 1
遠@@ 1
终@@ 1
萄@@ 1
网 1
試@@ 1
48 1
i@@ 0.07463465250264875
护@@ 1
测 1
仁 1
鰭 1
豐@@ 1
遠 1
构@@ 1
问 1
The 0.03045317352951819
炮 1
換 1
电 1
邊@@ 1
犯 1
論@@ 1
週@@ 1
秦@@ 1
婚@@ 1
曹@@ 1
al 0.03263830442128999
便@@ 1
势 1
衛 1
絕 1
颗 1
震 1
1996 0.876630446349971
奖@@ 1
晚 1
m 0.10831917261216185
材@@ 1
沈@@ 1
质@@ 1
泉 1
鄭@@ 1
说@@ 1
卫 1
點@@ 1
骨 1
杰@@ 1
义@@ 1
昭@@ 1
妹 1
壓 1
试 1
興 1
虽@@ 1
晋@@ 1
徑 1
輛 1
决 1
r@@ 0.04394837749929407
繁@@ 1
30@@ 1
租@@ 1
孔@@ 1
漸 1
說@@ 1
侵@@ 1
签@@ 1
场@@ 1
於@@ 1
泰 1
靈@@ 1
l 0.08111542058590507
刑 1
付 1
顺@@ 1
舍 1
舊 1
岩 1
货@@ 1
宫 1
問 1
擴@@ 1
藍@@ 1
圣 1
辦@@ 1
廉 1
阶@@ 1
喬@@ 1
杯 1
李 1
？ 1
1994 0.8844689549455169
習@@ 1
凱@@ 1
御@@ 1
却 1
孟@@ 1
盧@@ 1
h 0.12850659637127063
救 1
輕@@ 1
舰@@ 1
伦 1
宣 1
骨@@ 1
梅 1
筑@@ 1
柯@@ 1
韦@@ 1
划@@ 1
系@@ 1
n@@ 0.04329393880282155
IN@@ 1
麻@@ 1
魏@@ 1
戲@@ 1
綱 1
倫 1
远@@ 1
and 0.009887517713978066
網 1
维 1
余 1
距 1
请 1
辖 1
频@@ 1
極 1
亿@@ 1
奉@@ 1
釋 1
聖 1
量@@ 1
1992 0.8510613700206101
驻 1
1995 0.8607232894813157
希 1
滿@@ 1
突 1
航 1
冲@@ 1
例@@ 1
br 1
玛@@ 1
识 1
纽@@ 1
孙@@ 1
候@@ 1
黑 1
融@@ 1
挑@@ 1
臨@@ 1
雨@@ 1
蔡@@ 1
轮 1
攝 1
竹@@ 1
傑@@ 1
複 1
Z@@ 0.11984099509868866
呈 1
36 1
捷@@ 1
構@@ 1
8.@@ 1
途@@ 1
功 1
19@@ 0.8031693496045649
拜 1
24@@ 1
忠@@ 1
硬@@ 1
百 1
頻@@ 1
找 1
允@@ 1
苏 1
刑@@ 1
壓@@ 1
錦@@ 1
叶 1
叶@@ 1
脈 1
宝@@ 1
赵@@ 1
乔@@ 1
33 1
鐘 1
毛 1
秋@@ 1
1993 0.8871923931779926
夜@@ 1
廟 1
输@@ 1
急 1
補@@ 1
適@@ 1
审@@ 1
伍 1
找@@ 1
观 1
蒙 1
綫 1
杂@@ 1
认 1
认@@ 1
38 1
1991 0.8374917642784638
岩@@ 1
享@@ 1
超 1
弟@@ 1
歸@@ 1
孫@@ 1
審@@ 1
幼@@ 1
宅 1
弱 1
術@@ 1
席@@ 1
m@@ 0.04728719277071943
裂 1
擇 1
连 1
拆@@ 1
炮@@ 1
洞 1
異 1
淡@@ 1
叫 1
促@@ 1
麦@@ 1
络 1
兹 1
慶@@ 1
够 1
昆@@ 1
求@@ 1
訓@@ 1
鼓@@ 1
37 1
犯@@ 1
衝@@ 1
琴 1
奈@@ 1
获@@ 1
庆 1
34 1
提 1
廢@@ 1
核 1
亮 1
1950 1
售@@ 1
連 1
銷@@ 1
滑@@ 1
庆@@ 1
弹 1
昂 1
仙@@ 1
萨 1
炸@@ 1
遇 1
碼 1
围@@ 1
餘@@ 1
雨 1
么 1
殊 1
才@@ 1
郑@@ 1
散@@ 1
宮@@ 1
9.@@ 1
疾@@ 1
貨@@ 1
昌@@ 1
榮@@ 1
o@@ 0.05877408385888482
柴@@ 1
零@@ 1
腦 1
芬@@ 1
汗 1
朋@@ 1
孩@@ 1
患@@ 1
写@@ 1
别@@ 1
果@@ 1
胜@@ 1
蛋@@ 1
26@@ 1
d@@ 0.04218529434602665
亂 1
亨@@ 1
裁@@ 1
1949 1
扎@@ 1
牧@@ 1
级@@ 1
夏 1
画@@ 1
燃@@ 1
暗@@ 1
供 1
归@@ 1
de 0.005916841182416626
洲@@ 1
討@@ 1
衣 1
搭@@ 1
隔@@ 1
练 1
彈@@ 1
陣 1
幣 1
編 1
跨@@ 1
匈@@ 1
凯@@ 1
启@@ 1
冷@@ 1
换 1
偶@@ 1
振@@ 1
隸@@ 1
幅 1
爲 1
1988 0.9320154566374887
00@@ 1
紫@@ 1
须 1
艦@@ 1
1970 0.9068889954030229
300 1
君 1
闻 1
輻@@ 1
01 1
队@@ 1
博 1
辆 1
据@@ 1
禮@@ 1
杀@@ 1
覺 1
眾@@ 1
罪@@ 1
諸@@ 1
许 1
竞@@ 1
藝 1
莱 1
按 1
雅 1
旋@@ 1
沃 1
急@@ 1
庄@@ 1
声 1
减@@ 1
毒@@ 1
器@@ 1
丽@@ 1
蓋 1
斗@@ 1
75 1
g 0.10686172661717744
』 1
異@@ 1
『 1
豪@@ 1
潮 1
了@@ 1
軟@@ 1
菜 1
1989 0.8490384588570031
柱 1
谢@@ 1
困@@ 1
逝@@ 1
宜@@ 1
压 1
圓@@ 1
掌@@ 1
磁@@ 1
估@@ 1
與@@ 1
径 1
较@@ 1
講@@ 1
似@@ 1
无 1
远 1
瑟@@ 1
墓 1
es 0.01768172556974069
众@@ 1
莉 1
旧@@ 1
確 1
攝@@ 1
销 1
難@@ 1
1945 0.8161694555981285
溪@@ 1
韋@@ 1
难 1
譯 1
辽@@ 1
齐@@ 1
盖 1
奉 1
別@@ 1
邦@@ 1
青 1
血 1
樹@@ 1
包 1
炎 1
型@@ 1
徵@@ 1
编 1
ic@@ 0.08002011656941768
尚 1
积@@ 1
井 1
a@@ 0.08243040533824421
奪@@ 1
詹@@ 1
f@@ 0.03482143446602795
临 1
投 1
桃@@ 1
丽 1
彭@@ 1
荣@@ 1
迷@@ 1
累@@ 1
莉@@ 1
幫@@ 1
ans 0.13947805431861493
障 1
竹 1
疆 1
鬥 1
诸@@ 1
休 1
綠@@ 1
架@@ 1
1960 0.9428447065607729
尊@@ 1
晉@@ 1
28@@ 1
藥@@ 1
熙 1
善@@ 1
養 1
岛@@ 1
祭@@ 1
眼 1
虎 1
碑 1
肉 1
锦@@ 1
2022 1
薩 1
鬥@@ 1
澤@@ 1
葬 1
Ch@@ 0.09426140283333209
千 1
压@@ 1
绝@@ 1
迎 1
雪 1
块 1
購 1
倍 1
39 1
b 0.20427265913911072
尋@@ 1
活 1
赴 1
訴 1
謝@@ 1
橫@@ 1
J 1
隔 1
忠 1
策@@ 1
诗@@ 1
億 1
麗 1
隧@@ 1
on@@ 0.050806722771251964
趣 1
額 1
覆@@ 1
紅 1
牛 1
畔 1
宋 1
絲 1
秒 1
总 1
埃 1
55 1
輸@@ 1
遍 1
氏@@ 1
漢 1
葛@@ 1
丰@@ 1
遂 1
兩 1
k@@ 0.04337022896664246
詩@@ 1
訂 1
陕@@ 1
侍@@ 1
邀@@ 1
沉@@ 1
芬 1
软@@ 1
归 1
1985 0.9230492764488502
迁@@ 1
梁 1
舊@@ 1
乱 1
哈 1
染@@ 1
宪@@ 1
r 0.20052981126719308
慈@@ 1
27@@ 1
課@@ 1
恢@@ 1
庙 1
孩 1
曆 1
炸 1
假 1
盤 1
环 1
～ 1
箭 1
童@@ 1
騎@@ 1
W 0.7555527272951328
1984 0.9059902807862458
孝@@ 1
干 1
65 0.9968824932207557
卿 1
寧@@ 1
茲 1
胜 1
灰@@ 1
伤 1
亦@@ 1
味 1
SE@@ 1
返 1
愛 1
擔 1
庫@@ 1
42 1
渡@@ 1
1986 0.8736002415781566
液 1
佳@@ 1
in@@ 0.032768290298316315
像@@ 1
傷@@ 1
賓 1
憲@@ 1
乃@@ 1
慕@@ 1
頂 1
迅@@ 1
um 0.08198538074959671
驻@@ 1
额 1
瑞 1
谷@@ 1
u 0.096904916884427
挥 1
妮 1
搜@@ 1
献 1
槍@@ 1
裁 1
葉 1
擎 1
耶 1
帮@@ 1
震@@ 1
堅@@ 1
坊 1
绝 1
否@@ 1
1987 0.8527810517819595
壞 1
珠@@ 1
渐 1
x@@ 0.11482454252648745
莎@@ 1
拿 1
侵 1
满 1
警 1
64 1
录@@ 1
俗 1
灵@@ 1
潮@@ 1
掉 1
间@@ 1
幕@@ 1
粉@@ 1
础 1
懷@@ 1
仰 1
潘@@ 1
械 1
遷 1
築@@ 1
殺@@ 1
异@@ 1
药@@ 1
均@@ 1
择 1
价@@ 1
借@@ 1
46 1
盟@@ 1
麼 1
w@@ 0.03843248564507164
犹@@ 1
輕 1
钟 1
隻 1
靈 1
杭@@ 1
塘 1
险 1
陣@@ 1
浦@@ 1
伐@@ 1
en 0.009369624512239829
29@@ 1
衡 1
an@@ 0.04375942613300176
v@@ 0.042075098356482626
牠 1
遊 1
ch@@ 0.03565910654936757
礼 1
舞 1
序@@ 1
娛@@ 1
1982 0.9032432812620309
乏 1
毁 1
玻@@ 1
随 1
温 1
駐 1
環 1
替@@ 1
遣 1
軌@@ 1
儀@@ 1
柳@@ 1
讲@@ 1
补@@ 1
47 1
云 1
遭 1
餘 1
屋@@ 1
貴@@ 1
适@@ 1
盛 1
訪 1
藤@@ 1
g@@ 0.0330087958648378
极 1
44 1
鲜 1
叛@@ 1
协 1
晨 1
l@@ 0.03677374322258306
壁 1
句 1
鱼 1
评 1
徽 1
迴 1
彩 1
轄@@ 1
恒@@ 1
1983 0.8813330405447625
購@@ 1
積 1
凌@@ 1
珠 1
渡 1
与@@ 1
鮮 1
墓@@ 1
鏡 1
莫 1
榮 1
井@@ 1
茨@@ 1
侯@@ 1
香 1
b@@ 0.03605013644564126
难@@ 1
or@@ 0.043133043032309415
迫@@ 1
综@@ 1
译 1
唐 1
闻@@ 1
ia 0.08048755523129283
溫 1
en@@ 0.02934466144459073
緒 1
ar 0.04403010182281578
验@@ 1
訊@@ 1
宜 1
秋 1
51 1
怀@@ 1
趙 1
礎 1
宇 1
錄@@ 1
IS@@ 1
侯 1
歸 1
1979 0.8662761799144105
讀@@ 1
彩@@ 1
楚@@ 1
綜@@ 1
52 1
徵 1
41 1
融 1
鲁 1
衣@@ 1
勇@@ 1
范 1
涅@@ 1
跑 1
圆@@ 1
塊 1
停 1
桂@@ 1
緣 1
厄@@ 1
坚@@ 1
43 1
el 0.017090955041406654
刺 1
雕@@ 1
露@@ 1
倒@@ 1
翰@@ 1
爱 1
ac@@ 0.040319662818719494
400 1
樹 1
穿 1
傑 1
齊@@ 1
略@@ 1
56 1
砲 1
读 1
点@@ 1
雲 1
杉@@ 1
靠@@ 1
陰@@ 1
邨 1
援@@ 1
岡@@ 1
喀@@ 1
幸@@ 1
禁 1
跳@@ 1
伸 1
頒@@ 1
amp 0.2125230812053627
1978 0.8725859036568127
轻@@ 1
濟@@ 1
印 1
爵@@ 1
藥 1
揮 1
ed 0.011213544040431452
涅 1
恆@@ 1
琳 1
聞@@ 1
珍@@ 1
祥 1
顶 1
素@@ 1
棄 1
慶 1
刻@@ 1
al@@ 0.03488619292147891
餐@@ 1
刀 1
骑@@ 1
徽@@ 1
剂 1
仲@@ 1
扎 1
ar@@ 0.034674573662503136
给@@ 1
措@@ 1
寬 1
圍@@ 1
袁@@ 1
倒 1
迎@@ 1
In@@ 0.10053582606652041
it@@ 0.04710382501731331
微 1
輸 1
疗 1
85 1
el@@ 0.044911419762185684
绿@@ 1
读@@ 1
貿@@ 1
旅 1
獻 1
185@@ 0.45168018377203717
肉@@ 1
黃@@ 1
礼@@ 1
紧@@ 1
热 1
儘 1
兹@@ 1
顯 1
培 1
充 1
孔 1
酸@@ 1
譽 1
am@@ 0.05489465760349833
讷 1
释 1
迷 1
颱 1
符 1
肯 1
貢@@ 1
树 1
撒@@ 1
53 1
虎@@ 1
co@@ 0.07522999780902548
潜@@ 1
袖 1
桥@@ 1
宽 1
丘@@ 1
瑟 1
1981 0.8015787203179175
買 1
敦@@ 1
or 0.032049122215246716
顧@@ 1
贸@@ 1
旁 1
妃 1
° 0.6754957778802321
见@@ 1
54 1
亭 1
62 1
創 1
靖 1
錢 1
er@@ 0.027325364774267454
輪@@ 1
训@@ 1
吕@@ 1
寫@@ 1
养 1
浮@@ 1
坏 1
57 1
輔@@ 1
谋@@ 1
閣 1
to 0.008902729699988652
as@@ 0.046543057987452806
拓@@ 1
賓@@ 1
％ 1
Q@@ 0.5245855431938387
58 1
飛 1
浪@@ 1
am 0.07073074880430633
树@@ 1
寄@@ 1
晶@@ 1
鱼@@ 1
菲 1
结 1
章@@ 1
毀 1
捐@@ 1
旺@@ 1
尖@@ 1
舒@@ 1
旦 1
损@@ 1
暫@@ 1
确 1
糖 1
尉 1
甸 1
衰@@ 1
宿@@ 1
賣 1
廣 1
ation 0.026175493981021775
仅@@ 1
宙 1
症@@ 1
药 1
废@@ 1
監 1
久@@ 1
齒 1
绕 1
吃 1
罕@@ 1
陷 1
魯 1
é 0.04201190866606266
th@@ 0.04509479174729692
卓@@ 1
妻 1
刊@@ 1
也@@ 1
崔@@ 1
76 1
麥 1
销@@ 1
陷@@ 1
絡 1
端@@ 1
溶@@ 1
害@@ 1
坎@@ 1
億@@ 1
72 1
摩 1
泉@@ 1
诊 1
仪@@ 1
责@@ 1
贏@@ 1
弹@@ 1
脱@@ 1
插@@ 1
隶@@ 1
f 0.10018071120677303
识@@ 1
88 1
魏 1
伐 1
逊 1
夺@@ 1
86 1
折@@ 1
依 1
咸@@ 1
诉 1
戈 1
誤 1
TV 0.5317643187697194
默 1
絕@@ 1
伴 1
冷 1
聽 1
z 0.08025262316029359
49 1
換@@ 1
姐 1
玉 1
枪 1
壇 1
／ 1
願 1
值@@ 1
埔@@ 1
植 1
惡@@ 1
1946 0.9418127924622643
贡@@ 1
Windows 1
損@@ 1
襲 1
鄰 1
鹿@@ 1
鲜@@ 1
扮@@ 1
玄@@ 1
段@@ 1
梯 1
输 1
戏@@ 1
59 1
杰 1
An@@ 0.08238464176195451
68 1
遜 1
園@@ 1
滨@@ 1
换@@ 1
樓@@ 1
Y 1
慢 1
芝@@ 1
寧 1
61 1
访@@ 1
棒@@ 1
泳 1
齐 1
賞 1
逢 1
1958 0.9690284578868337
味@@ 1
厚 1
蓝@@ 1
1948 0.9340354419050271
借 1
帕 1
佔@@ 1
仔 1
宝 1
墙 1
讨@@ 1
券 1
箱 1
齡 1
鼠 1
66 1
歡@@ 1
勤 1
屏@@ 1
宾 1
週 1
os@@ 0.07556494882694782
迹 1
左 1
阵@@ 1
腹@@ 1
浪 1
歡 1
頂@@ 1
卑@@ 1
et 0.016158872824372533
浦 1
獄 1
幹@@ 1
阮@@ 1
捕@@ 1
飾@@ 1
驱@@ 1
挪@@ 1
敵@@ 1
绩 1
惠 1
敬@@ 1
幻@@ 1
揭@@ 1
泊 1
燕@@ 1
緯 1
ot@@ 0.059758864468341645
鳳@@ 1
请@@ 1
77 1
螺@@ 1
63 1
敏@@ 1
1920 0.8933905030364248
棒 1
逐 1
at 0.021512232225968476
78 1
舍@@ 1
67 1
堂@@ 1
俗@@ 1
横@@ 1
凡 1
笑 1
翌@@ 1
裡@@ 1
1940 0.8028299376233452
楚 1
鳥 1
敏 1
答 1
寨 1
铜@@ 1
05 1
鬼 1
蛇 1
圳 1
购@@ 1
饰 1
at@@ 0.04033356866436455
慮 1
1976 0.7287275871225538
莎 1
95 1
蟲 1
嘉 1
1975 0.6887886441311941
板@@ 1
迈@@ 1
宫@@ 1
譯@@ 1
顏@@ 1
弘@@ 1
赞@@ 1
嶼 1
儀 1
填@@ 1
呈@@ 1
滅 1
稳@@ 1
潛@@ 1
鄰@@ 1
稿 1
緊@@ 1
奪 1
1972 0.6897168288259599
丘 1
蘇 1
汇@@ 1
87 1
71 1
* 0.344849692391984
st@@ 0.02737168671139255
盾 1
寺@@ 1
臨 1
ur@@ 0.04223744237173258
屯@@ 1
剩@@ 1
銷 1
1930 0.8659911769118827
两 1
息@@ 1
陵@@ 1
顾@@ 1
遷@@ 1
83 1
訪@@ 1
灌@@ 1
負 1
契@@ 1
智 1
1956 0.8875755899924516
茶 1
81 1
赢@@ 1
600 1
顶@@ 1
床 1
陳@@ 1
恢 1
残@@ 1
乳@@ 1
撞@@ 1
89 1
疑@@ 1
固 1
99 1
焦@@ 1
紹 1
阴@@ 1
呼 1
1937 1
82 1
坐 1
府@@ 1
宿 1
貌 1
牌@@ 1
艺 1
词@@ 1
冊 1
詞@@ 1
钢@@ 1
穩@@ 1
锡@@ 1
ad@@ 0.03460306857129039
频 1
红 1
廊 1
埔 1
ol@@ 0.04989370591010222
註 1
69 1
橋@@ 1
员@@ 1
le 0.01558728863840399
73 1
顆 1
弃 1
芳 1
异 1
1947 0.9140239554848407
廈 1
1000 1
衍@@ 1
污@@ 1
延 1
豪 1
1941 0.7222695931726012
番 1
800 1
齊 1
淘@@ 1
AS@@ 0.7904844750853144
誉 1
祀 1
户@@ 1
液@@ 1
歐 1
虛@@ 1
抽@@ 1
琴@@ 1
澳 1
勢@@ 1
違@@ 1
熱 1
湯@@ 1
操 1
广 1
駐@@ 1
狄@@ 1
虫 1
茲@@ 1
益@@ 1
續@@ 1
逮@@ 1
捷 1
殘@@ 1
伏@@ 1
麦 1
74 1
仔@@ 1
伍@@ 1
棋 1
凤@@ 1
冰 1
陨@@ 1
粒@@ 1
屠@@ 1
摄 1
茶@@ 1
1952 0.9219290132348351
戴 1
談@@ 1
肺@@ 1
廷@@ 1
ph@@ 0.06338584759235368
1968 0.6711372472786022
喜 1
苦 1
熊@@ 1
Al@@ 0.0647325958223712
84 1
1973 0.6846244672782421
脫@@ 1
u@@ 0.04701254166948888
缩@@ 1
卒 1
寸 1
摄@@ 1
奴 1
敌@@ 1
壘 1
俄 1
烈@@ 1
OS 1
脂 1
歧@@ 1
id 0.1891644098155262
猶@@ 1
呂@@ 1
望@@ 1
琉@@ 1
敵 1
苗 1
丙@@ 1
矿@@ 1
j@@ 0.04542247483153605
輝 1
遵@@ 1
孤@@ 1
桑 1
鋼@@ 1
奴@@ 1
旁@@ 1
07 1
轮@@ 1
藩 1
寻@@ 1
膜 1
184@@ 0.4618810152936805
觉 1
阁 1
籃@@ 1
孙 1
付@@ 1
1977 0.692274366128693
阵 1
臘 1
92 1
苑 1
養@@ 1
勃@@ 1
AR@@ 0.9740165776428673
廉@@ 1
li@@ 0.043491875482315236
腳 1
腊 1
盘 1
答@@ 1
ul@@ 0.04428996498409489
驅@@ 1
宏@@ 1
獸 1
岭 1
冒@@ 1
AT@@ 0.9834149322070966
精 1
om@@ 0.06160341045119158
幻 1
辖@@ 1
辰 1
79 1
隱@@ 1
挥@@ 1
觸 1
ant 0.045655548498003545
02 1
1955 0.8950146279305342
佐 1
98 1
ag@@ 0.04329681247369737
丈@@ 1
1964 0.719632944798821
粉 1
亮@@ 1
熟 1
1974 0.6385235356008361
塑@@ 1
1966 0.7372471846510253
盖@@ 1
1938 0.8271784300885828
叙@@ 1
嶺 1
見@@ 1
據@@ 1
显 1
夢 1
藉@@ 1
08 1
駕@@ 1
怒 1
粗@@ 1
z@@ 0.033496632654977564
旬 1
伴@@ 1
栽@@ 1
請@@ 1
150 1
御 1
习@@ 1
浩@@ 1
04 1
疫 1
袭@@ 1
ay 0.09835096251639769
un@@ 0.03329772139222878
估 1
03 1
伤@@ 1
側@@ 1
劑 1
ter 0.04233130616307712
06 1
备@@ 1
循@@ 1
弗 1
姓@@ 1
邀 1
劃@@ 1
詩 1
1939 0.6991567238608137
轻 1
尊 1
针@@ 1
迁 1
邓@@ 1
册 1
閉 1
1954 0.8594163433491252
as 0.011770613096507097
听@@ 1
銅@@ 1
缘 1
1944 0.606550935088905
郵@@ 1
鳥@@ 1
坪 1
酶 1
St@@ 0.07154377771862377
協 1
崎@@ 1
淮@@ 1
姻 1
颁@@ 1
1971 0.6267338021550192
绍 1
垂@@ 1
钱@@ 1
枝 1
响@@ 1
袭 1
享 1
較@@ 1
钱 1
洗@@ 1
鋒 1
谈@@ 1
96 1
揚 1
巡 1
厘@@ 1
09 1
雙 1
斤 1
1965 0.6916015378414125
蓋@@ 1
泽 1
莊@@ 1
沒@@ 1
共和@@ 1
瓜@@ 1
剛@@ 1
le@@ 0.03237364263501971
茂@@ 1
访 1
邻 1
針@@ 1
庭@@ 1
奈 1
劍 1
蕭@@ 1
魂 1
脉 1
瓜 1
1969 0.6496424856158982
扶@@ 1
某 1
間@@ 1
闭 1
碼@@ 1
柔@@ 1
級@@ 1
虑 1
障@@ 1
訓 1
跡 1
1959 0.7833968607784543
俊@@ 1
狱 1
仙 1
昂@@ 1
诗 1
壽@@ 1
荒@@ 1
敬 1
II 0.20054494355947589
宾@@ 1
胞@@ 1
─ 1
驗@@ 1
恶@@ 1
健 1
订 1
汪@@ 1
1942 0.676962708303599
91 1
93 1
啟 1
籌@@ 1
鮮@@ 1
練@@ 1
ap@@ 0.04725227016573017
鄧@@ 1
译@@ 1
1957 0.7914942843512536
串 1
1953 0.840038474640697
偉@@ 1
暗 1
剛 1
题@@ 1
錫@@ 1
1936 0.807685604723125
卜@@ 1
97 1
蒸@@ 1
痛 1
媒 1
牵@@ 1
糖@@ 1
跨 1
养@@ 1
勇 1
扬 1
敌 1
謂 1
1967 0.6389524142264691
苗@@ 1
翠@@ 1
翁 1
购 1
域@@ 1
双 1
叫@@ 1
et@@ 0.045467711243636605
买 1
歇@@ 1
辞@@ 1
襲@@ 1
託 1
逝 1
縮 1
背 1
湘@@ 1
样@@ 1
室@@ 1
eg@@ 0.0600604258972345
魔 1
譜 1
頁 1
賴@@ 1
繪@@ 1
絲@@ 1
孫 1
怪 1
ine 0.04840194387123934
醇 1
羽 1
积 1
1962 0.6911008852914757
凝@@ 1
1943 0.6478647052998141
奏@@ 1
駛 1
薛@@ 1
灵 1
偵@@ 1
94 1
吨 1
擬 1
欧 1
跟@@ 1
违@@ 1
藤 1
患 1
灭 1
姚@@ 1
疆@@ 1
lo@@ 0.05360896874887609
順 1
1961 0.713703572137327
1951 0.8523331211858363
狗 1
汝@@ 1
餐 1
岳@@ 1
课@@ 1
待@@ 1
熟@@ 1
1963 0.6816968792796283
煤@@ 1
tr@@ 0.02617048449979967
謀 1
寮 1
姐@@ 1
oc@@ 0.06257694562149856
吐@@ 1
殖 1
CD 0.9145617892891967
疏@@ 1
1935 0.8696249322006788
談 1
貴 1
脑 1
one 0.04266660142937959
暂@@ 1
涉 1
式@@ 1
讚 1
層@@ 1
re@@ 0.01401962126919473
伏 1
im@@ 0.03138832307532936
飲@@ 1
180@@ 0.4726994054175678
园@@ 1
慧 1
BS 1
粹 1
郎@@ 1
贊@@ 1
胎 1
靜@@ 1
徒@@ 1
池@@ 1
匯@@ 1
丝 1
險@@ 1
’ 0.043047702958087034
夢@@ 1
飓@@ 1
绪 1
飞 1
辅@@ 1
釋@@ 1
隋@@ 1
态@@ 1
硫@@ 1
羊@@ 1
轴 1
乃 1
彰@@ 1
滅@@ 1
置@@ 1
欢@@ 1
担@@ 1
頓@@ 1
断@@ 1
av@@ 0.04919373261632067
紙 1
璃 1
SA@@ 1
虚@@ 1
憑 1
筹@@ 1
NBA 1
・ 1
軌 1
錯@@ 1
Mar@@ 0.0621200234493853
婦 1
ve 0.03375012037430283
耳 1
裏 1
忙 1
敘@@ 1
戶@@ 1
滑 1
髮 1
欲 1
撞 1
萧@@ 1
洞@@ 1
棋@@ 1
恰@@ 1
Ar@@ 0.06680233006270778
互 1
獻@@ 1
隐@@ 1
蓮@@ 1
ch 0.07119922075930497
傾@@ 1
训 1
沿 1
篮@@ 1
179@@ 0.5175662214206291
肖@@ 1
傅@@ 1
Bo@@ 0.11473294376970829
× 1
怕 1
銜 1
厚@@ 1
賀@@ 1
抑@@ 1
萊 1
拘@@ 1
误 1
il@@ 0.04226737927606543
番@@ 1
裕 1
戀@@ 1
申 1
纵@@ 1
粵@@ 1
凡@@ 1
割 1
曰 1
吧 1
沖 1
豆 1
700 1
Co@@ 0.09831153499288435
榜@@ 1
圓 1
咖@@ 1
撰@@ 1
缺 1
讯 1
ro@@ 0.04458989294385639
没 1
错@@ 1
耀@@ 1
~ 1
衔 1
探 1
霸@@ 1
般@@ 1
僧@@ 1
碳 1
叔@@ 1
繼 1
握 1
態@@ 1
針 1
牆 1
翻 1
it 0.022006871804897483
载@@ 1
斑@@ 1
荷 1
永 1
甫 1
ri@@ 0.06113336794441492
揮@@ 1
荣 1
is@@ 0.03248350559869485
泛@@ 1
獨 1
尺@@ 1
醒 1
莊 1
纸 1
追 1
胸@@ 1
释@@ 1
静@@ 1
套@@ 1
吾@@ 1
拼@@ 1
娘 1
娃 1
肥@@ 1
押 1
漁@@ 1
農 1
幽@@ 1
弦 1
幸 1
税 1
勵 1
檔 1
聽@@ 1
添@@ 1
Z 0.862474064536907
夷 1
郊 1
妇@@ 1
珍 1
殿@@ 1
泥@@ 1
泥 1
燈 1
召 1
楼@@ 1
蒋@@ 1
鍵 1
Re@@ 0.06532456932631296
紋 1
峡 1
儒@@ 1
续@@ 1
宽@@ 1
碟 1
1933 0.7097485364179184
仿 1
掘 1
120 1
巧 1
em@@ 0.03848461054170564
氯@@ 1
汰 1
苦@@ 1
堪@@ 1
汇 1
1928 0.8082850491633019
願@@ 1
刚 1
怪@@ 1
筆@@ 1
颜@@ 1
辭@@ 1
催@@ 1
熊 1
戒 1
轟@@ 1
顧 1
敢 1
細 1
獵@@ 1
腳@@ 1
寶 1
son 0.0339170396372443
辛 1
镜 1
织@@ 1
予@@ 1
硕@@ 1
盡 1
悲@@ 1
驚@@ 1
艾 1
份@@ 1
蛋 1
規 1
坛 1
dice 1
摧@@ 1
玛 1
羊 1
1931 0.8651064187656944
50@@ 1
賢 1
俘 1
忽@@ 1
贾@@ 1
1932 0.8264804855807433
龄 1
1927 0.8707602641380537
祝 1
愿 1
愿@@ 1
郡@@ 1
寿@@ 1
鼻@@ 1
嫌 1
潭 1
純@@ 1
v 0.15590806823620468
Tr@@ 0.06825125236105653
逆@@ 1
id@@ 0.04492612429728575
補 1
繞 1
搬@@ 1
绍@@ 1
蛛 1
惡 1
蹈 1
賴 1
儲@@ 1
研 1
壁@@ 1
澤 1
规 1
Com@@ 0.07926183547398273
麻 1
掌 1
蔣@@ 1
邁@@ 1
偷@@ 1
顺 1
Th@@ 0.06500843869677829
汀 1
麟 1
CO@@ 0.9128136407140708
振 1
柱@@ 1
ory 0.1149798471505716
硬 1
缅@@ 1
矛@@ 1
讲 1
料@@ 1
脅 1
晉 1
殼 1
謝 1
针 1
跑@@ 1
既 1
腐@@ 1
完 1
10.@@ 1
隶 1
晶 1
盐@@ 1
盐 1
拟 1
繪 1
层@@ 1
赖@@ 1
1934 0.7493870666476193
折 1
键 1
40@@ 1
档 1
貝 1
杂 1
窗@@ 1
贝 1
俊 1
狂@@ 1
縮@@ 1
誕@@ 1
困 1
芒 1
蝶 1
ad 0.05761526212164832
祝@@ 1
祠 1
ab@@ 0.0293309683305736
駛@@ 1
礦@@ 1
储@@ 1
es@@ 0.03267106369866077
筆 1
纪 1
濱 1
Con@@ 0.06598610839076909
亡@@ 1
賈@@ 1
us@@ 0.03548920854961646
23@@ 0.9597203303623506
势@@ 1
丰 1
祥@@ 1
茵 1
慢@@ 1
冯@@ 1
謀@@ 1
邑 1
ate 0.03487624129575913
範 1
豆@@ 1
欣@@ 1
撰 1
ti@@ 0.030059020162124018
Sh@@ 0.10561363422549612
拳@@ 1
os 0.024333899109282794
AP@@ 1
廖@@ 1
枪@@ 1
谢 1
峰@@ 1
翔 1
堆 1
沟 1
蹟 1
Q 1
丸 1
夕 1
继 1
阪 1
ok 0.2626994667479679
仪 1
兄 1
礙 1
锡 1
妹@@ 1
1929 0.7321782453178767
沉 1
‘ 0.7524765435884081
雀 1
Ph@@ 0.16539863856874987
烟@@ 1
悉 1
锋 1
鍾 1
憶 1
la 0.005076078803741689
贈 1
袋 1
痛@@ 1
灭@@ 1
店@@ 1
Mo@@ 0.1183540045103397
80@@ 1
奎@@ 1
雌@@ 1
缓@@ 1
衡@@ 1
姜@@ 1
ー 1
旨 1
Br@@ 0.06719237908665096
祿 1
麵 1
秘 1
慧@@ 1
蹤 1
零 1
od@@ 0.08614023660477688
覺@@ 1
祭 1
螺 1
TC 1
聘 1
宛 1
杜 1
刷 1
斑 1
赞 1
ie 0.0349477314383077
1918 0.597679596585076
噴@@ 1
鲍@@ 1
雍@@ 1
欢 1
戒@@ 1
1912 0.8068296378151013
惟@@ 1
剑 1
緬@@ 1
彌@@ 1
贵 1
汤@@ 1
寬@@ 1
洪 1
滩 1
ic 0.058868815956141164
CA@@ 0.4381163554980179
屈@@ 1
for 0.012936504299630428
劍@@ 1
逃 1
避 1
拖@@ 1
擾 1
耐@@ 1
暨 1
岸@@ 1
邵@@ 1
の 1
矿 1
扬@@ 1
寒@@ 1
剪@@ 1
坑@@ 1
響@@ 1
濃@@ 1
課 1
猛@@ 1
敗@@ 1
腔 1
聚 1
巫@@ 1
腓@@ 1
漫 1
肌@@ 1
Pr@@ 0.09668625898817136
... 0.2995307938388772
鬼@@ 1
碧@@ 1
ec@@ 0.03825457868784828
崎 1
朴@@ 1
鹿 1
激 1
栖@@ 1
姊@@ 1
句@@ 1
驾@@ 1
披@@ 1
盆@@ 1
災 1
辭 1
討 1
戀 1
峽 1
勤@@ 1
刚@@ 1
补 1
脫 1
壮@@ 1
晋 1
蟹 1
→ 1
枢@@ 1
豐 1
监 1
珊@@ 1
薄@@ 1
郊@@ 1
泊@@ 1
粒 1
BC 0.48101354621113634
翼@@ 1
擅@@ 1
斷@@ 1
菌@@ 1
滨 1
瑪 1
op@@ 0.044156912280289035
覽 1
朱 1
忍@@ 1
斜@@ 1
兆@@ 1
銀 1
创 1
灾 1
额@@ 1
黄 1
姬 1
旺 1
You@@ 1
搖@@ 1
AC@@ 0.8591255153428139
燕 1
胺 1
1919 0.6223943695177663
獅@@ 1
鸟 1
氨@@ 1
呎 1
既@@ 1
谓 1
猪@@ 1
陀 1
怖 1
1924 0.7182350610917838
覽@@ 1
械@@ 1
ak@@ 0.04500030857558862
谱 1
佩 1
um@@ 0.040322110611796004
密度 1
ir@@ 0.04826333819251858
卷@@ 1
掩@@ 1
碩@@ 1
磯 1
ig@@ 0.03473798718528915
ers 0.021648476094311385
鐘@@ 1
钟@@ 1
覆 1
礁 1
th 0.03936047200089705
ent 0.01992350204912383
搬 1
冬 1
賣@@ 1
悬@@ 1
撒 1
触 1
必 1
頻 1
AM@@ 1
笼@@ 1
赖 1
丑 1
献@@ 1
繫 1
襄@@ 1
坝 1
災@@ 1
凱 1
ver 0.09563708585900876
觉@@ 1
芳@@ 1
霸 1
昇 1
菩@@ 1
晓@@ 1
龐@@ 1
鹽 1
Ma@@ 0.13020087076270012
倾@@ 1
盡@@ 1
罰 1
1925 0.7275076444503534
涵@@ 1
陪@@ 1
旨@@ 1
叔 1
玩 1
秦 1
檔@@ 1
隸 1
胁 1
稀@@ 1
備@@ 1
ensis 0.6991645587594313
1917 0.6621433986326163
喪@@ 1
錯 1
1926 0.7105262153363451
镜@@ 1
癌 1
罩 1
Google 1
1914 0.6455047191996711
嘗@@ 1
鎖 1
倉 1
誤@@ 1
DVD 1
耀 1
尖 1
km 0.1496073696909822
屯 1
碳@@ 1
12.@@ 1
毗@@ 1
着@@ 1
跳 1
詳@@ 1
胡 1
轨 1
優 1
冀@@ 1
鏡@@ 1
偶 1
稅 1
燒 1
矩@@ 1
勋@@ 1
貓 1
柏 1
耗@@ 1
励 1
斐@@ 1
噶@@ 1
租 1
ST@@ 1
抓@@ 1
茅@@ 1
匹 1
菊@@ 1
訴@@ 1
鄂@@ 1
绘@@ 1
览 1
喇@@ 1
农 1
樣@@ 1
褐@@ 1
蒲@@ 1
菜@@ 1
亨 1
附 1
1922 0.6971275011585618
Sp@@ 0.09730261300921018
載@@ 1
牧 1
崖 1
叉 1
訂@@ 1
ES@@ 0.683699105305445
Ex@@ 0.11484619963847469
毅 1
裂@@ 1
者@@ 1
俠 1
ed@@ 0.039046160316588134
縱@@ 1
卖 1
隨 1
織@@ 1
壽 1
拳 1
po@@ 0.035989973646584045
審 1
狼 1
馮@@ 1
豹 1
伸@@ 1
轰@@ 1
肃@@ 1
250 1
瘤 1
柄 1
塘@@ 1
Lin@@ 0.3270517717945252
话@@ 1
谋 1
烷 1
逼@@ 1
岡 1
犬 1
邱@@ 1
紹@@ 1
燒@@ 1
漸@@ 1
漠 1
窗 1
巧@@ 1
RA@@ 0.6933866010529739
懸@@ 1
穴 1
谈 1
碰@@ 1
帅 1
娱@@ 1
巷 1
胶@@ 1
肃 1
屏 1
稍@@ 1
藉 1
IC@@ 0.90186740561145
迦@@ 1
貼 1
鷹 1
叛 1
ut@@ 0.04429910779325999
笔@@ 1
館@@ 1
堡@@ 1
磨@@ 1
幼 1
AN@@ 1
奠@@ 1
阻 1
塑 1
夺 1
吻 1
码@@ 1
岳 1
泡 1
饰@@ 1
妙 1
彻@@ 1
柬@@ 1
吏@@ 1
爆 1
梵@@ 1
識@@ 1
芭@@ 1
1921 0.6675090659302376
喷@@ 1
仿@@ 1
银 1
De@@ 0.07914916032718805
脊@@ 1
$ 0.16255296023094204
di@@ 0.02112613024318341
珊 1
幫 1
险@@ 1
耕@@ 1
鼓 1
棘 1
映@@ 1
tion 0.0249537824058496
剑@@ 1
挖@@ 1
买@@ 1
貨 1
悠@@ 1
砂@@ 1
吞@@ 1
韓 1
101 1
圭 1
梦@@ 1
盜 1
杨 1
濱@@ 1
雇@@ 1
遣@@ 1
稻@@ 1
揚@@ 1
亥@@ 1
11.@@ 1
ン 1
纹 1
賢@@ 1
斜 1
緊 1
3000 1
奔@@ 1
韦 1
刀@@ 1
邻@@ 1
鯉 1
1913 0.7262300560957015
1911 0.7680506861560759
囊 1
蕨 1
偉 1
络@@ 1
婆 1
祈@@ 1
1923 0.6626826937133525
臘@@ 1
聘@@ 1
淑@@ 1
婦@@ 1
洗 1
篇@@ 1
ard 0.0552943250496294
崩@@ 1
Play@@ 0.47833557224853906
彰 1
尹@@ 1
℃ 1
碎@@ 1
橡@@ 1
踏@@ 1
臂 1
綱@@ 1
貫 1
勞 1
腦@@ 1
損 1
碎 1
藍 1
age 0.025776996813299143
疏 1
og@@ 0.07102671123907932
妇 1
靜 1
澎@@ 1
泳@@ 1
嚴 1
恨 1
蔡 1
α 0.2968922908256752
贡 1
卢 1
劫 1
娶 1
are 0.02247461439634373
鸟@@ 1
削@@ 1
税@@ 1
講 1
販@@ 1
倉@@ 1
sh@@ 0.044973809485475566
署@@ 1
件@@ 1
耗 1
棕@@ 1
雕 1
彥 1
劳 1
桃 1
沟@@ 1
鮑@@ 1
窄 1
1900 0.6621459186968859
韋 1
琪 1
秩@@ 1
厥 1
惜 1
35@@ 1
勃 1
ube 0.9521829992180396
薦 1
罕 1
適 1
扭@@ 1
努 1
燈@@ 1
担 1
损 1
ob@@ 0.05425853790813965
氢@@ 1
氧 1
筒 1
埋@@ 1
mm 0.4451136472900968
槽 1
11@@ 0.9072935427674741
藻 1
ana 0.06459702314788643
診@@ 1
午@@ 1
UN@@ 0.7379305003204314
買@@ 1
笔 1
賞@@ 1
ter@@ 0.030238982938487174
誠@@ 1
哪@@ 1
Or@@ 0.07837933637147795
遍@@ 1
卵@@ 1
赤 1
辨@@ 1
宏 1
纯@@ 1
de@@ 0.029323067546377642
Par@@ 0.06537673790984591
冕 1
DNA 1
廠@@ 1
乳 1
橄@@ 1
亩 1
腿 1
賜 1
铸@@ 1
man 0.055443923418836846
錦 1
没@@ 1
灾@@ 1
腊@@ 1
額@@ 1
Car@@ 0.0708918183417285
減 1
曉@@ 1
怎@@ 1
厝 1
ice 0.06494794200186574
妮@@ 1
US@@ 0.39892578379284427
串@@ 1
亿 1
歉 1
饮@@ 1
雜 1
坡@@ 1
哲 1
禄 1
伟@@ 1
丝@@ 1
# 0.47658303943691105
階 1
湿@@ 1
戊@@ 1
軸@@ 1
婆@@ 1
仇@@ 1
细 1
帥 1
藩@@ 1
链@@ 1
od 0.07898143346436341
薇 1
NA 1
顿@@ 1
蓮 1
暖 1
溯 1
閱@@ 1
冲 1
灰 1
軟 1
宰@@ 1
900 1
溝@@ 1
杆 1
侧@@ 1
练@@ 1
阪@@ 1
竣@@ 1
览@@ 1
诚 1
粮@@ 1
听 1
‧ 1
En@@ 0.09554199049315021
1909 0.8058336526071328
纽 1
蓬@@ 1
ER@@ 0.9524522608090137
媽@@ 1
陈 1
110 1
190@@ 1
苯@@ 1
欣 1
独 1
尿@@ 1
巢 1
題@@ 1
舟 1
仇 1
嗣 1
Le@@ 0.06021378093797281
拱@@ 1
囚@@ 1
梯@@ 1
Ad@@ 0.07766497649818825
忆 1
緩@@ 1
吹@@ 1
町@@ 1
si@@ 0.02718839744661572
缩 1
愈 1
Cat@@ 0.31732234242002777
丧@@ 1
株 1
玲 1
屍@@ 1
勳@@ 1
蔣 1
腾@@ 1
脂@@ 1
錢@@ 1
虹 1
奶@@ 1
寓 1
ata 0.15791183466213798
葬@@ 1
觸@@ 1
ang@@ 0.037258789539865944
Be@@ 0.053735349958770454
采 1
凯 1
恭@@ 1
厦 1
磷@@ 1
蛇@@ 1
私 1
庇@@ 1
讷@@ 1
贫@@ 1
NE@@ 1
Un@@ 0.10598452618157923
se 0.011841194767999524
扁 1
煙@@ 1
廟@@ 1
RO@@ 1
烧@@ 1
Station 0.49235166543847886
ep@@ 0.05314192226817336
琳@@ 1
辯@@ 1
己@@ 1
狂 1
1916 0.6918481833398314
诞@@ 1
逻@@ 1
辩@@ 1
癌@@ 1
膠 1
辟 1
订@@ 1
推 1
灘 1
夷@@ 1
涌 1
繁 1
貧@@ 1
循 1
履@@ 1
她@@ 1
棟 1
屿 1
斥 1
飯 1
Ro@@ 0.08327526518408108
吾 1
甜@@ 1
貞@@ 1
医 1
樞@@ 1
壳 1
圳@@ 1
圈@@ 1
碑@@ 1
岗@@ 1
芝 1
豫@@ 1
Pl@@ 0.10754895429611294
嘴 1
遮@@ 1
啡 1
罷@@ 1
齿 1
芒@@ 1
1910 0.5992370234401951
锁 1
靖@@ 1
鰭@@ 1
误@@ 1
Ser@@ 0.10150753451395499
棉@@ 1
堤 1
眠 1
滋@@ 1
ong 0.11724652399553326
1915 0.657444257105667
页 1
沼@@ 1
撫 1
般 1
脱 1
by 0.010206223766195515
陀@@ 1
ina 0.06410942573126417
肇@@ 1
踪 1
荐 1
蘋@@ 1
赠 1
铺 1
罚 1
吃@@ 1
鯉@@ 1
倡@@ 1
紙@@ 1
do@@ 0.05301496199487789
祐 1
償 1
贺@@ 1
Cl@@ 0.1673182520129487
弱@@ 1
桌@@ 1
椅 1
頗 1
鹽@@ 1
澄@@ 1
挂 1
灯 1
戌 1
專 1
滕@@ 1
а 0.06914193398156732
qu@@ 0.022285496948088047
朵 1
姑@@ 1
汗@@ 1
茂 1
寿 1
ay@@ 0.05815220644310551
昭 1
裕@@ 1
搭 1
浓@@ 1
逾 1
卸@@ 1
坂@@ 1
Po@@ 0.11110787658673399
魁@@ 1
湾@@ 1
脚@@ 1
框@@ 1
龜 1
审 1
遲 1
悉@@ 1
楊 1
der 0.004894594968920052
閉@@ 1
嫁@@ 1
肝@@ 1
紐 1
蝶@@ 1
漂@@ 1
憶@@ 1
铜 1
炭 1
侦@@ 1
per@@ 0.027333433345143605
仑 1
墨 1
be 0.02413670409782793
話@@ 1
轴@@ 1
pl@@ 0.027532676505371067
烯 1
肥 1
扣@@ 1
輔 1
and@@ 0.04092564236183886
III 0.21310646947764164
騎 1
碍 1
詢 1
僧 1
盘@@ 1
誠 1
ent@@ 0.017878737043796705
抢@@ 1
孕 1
兽 1
吸 1
摔@@ 1
懷 1
ton 0.06167596601597985
鈴@@ 1
熔@@ 1
析@@ 1
你@@ 1
馆@@ 1
霞 1
擬@@ 1
掛 1
鐸 1
惊@@ 1
1901 0.790887164517033
株@@ 1
睛 1
绘 1
乾 1
幹 1
鼎@@ 1
Col@@ 0.08825459481518635
赶@@ 1
割@@ 1
乙 1
拟@@ 1
PC 0.9787198774706567
冈@@ 1
醫 1
貫@@ 1
禦 1
错 1
ver@@ 0.016317823222552718
启 1
桂 1
ang 0.08414866859074643
珀 1
He@@ 0.08193758170999946
酮 1
孝 1
紛 1
汽 1
蕃 1
AC 0.6229343806153366
ce 0.02895209495564047
徙 1
to@@ 0.03557393822521571
哺@@ 1
1905 0.6245002114934539
慎 1
瓶 1
ai 0.107306527610261
贤 1
璋 1
乌 1
恋 1
躍@@ 1
扰 1
鴻@@ 1
誉@@ 1
純 1
180 1
渔@@ 1
趕@@ 1
缸 1
厦@@ 1
霖 1
潔 1
负 1
猜@@ 1
伙@@ 1
翁@@ 1
ou@@ 0.047543587129545546
勳 1
斌 1
涵 1
脊 1
閃@@ 1
丞 1
坎 1
课 1
ta 0.05066214328470995
盧 1
忌 1
攜@@ 1
欺@@ 1
猫 1
嫩 1
驶 1
讨 1
弄 1
au@@ 0.027383875646728145
陶 1
栗 1
un 0.00989469837211883
庞@@ 1
蝠 1
伽 1
鬆 1
ov@@ 0.06696246130735665
嗣@@ 1
仕 1
130 1
仰@@ 1
頒 1
． 1
跃 1
匯 1
吊@@ 1
紛@@ 1
箭@@ 1
酯 1
抱@@ 1
详@@ 1
Ne@@ 0.08456600365224173
te 0.011729986308069408
33@@ 1
庵 1
az@@ 0.06322068781701512
敲@@ 1
屆@@ 1
伽@@ 1
裸@@ 1
bi@@ 0.0380337346609323
弥@@ 1
凭@@ 1
霍 1
尝@@ 1
誓 1
John 0.09510033026247518
促 1
昔@@ 1
潘 1
稅@@ 1
Di@@ 0.05918647282333973
劫@@ 1
止@@ 1
透 1
庚@@ 1
軸 1
伟 1
af@@ 0.03596319656026925
ary 0.03762932220332873
竟 1
ell 0.07582900605277566
阅@@ 1
ux 0.14521085029819517
纸@@ 1
麓 1
柳 1
牲 1
抚@@ 1
吏 1
熙@@ 1
肢 1
鱸 1
ue 0.04120433476834944
捲 1
com 1
鑑 1
ore 0.09166172621320595
慈 1
募 1
俘@@ 1
危 1
傅 1
札@@ 1
ight 0.06021386423369268
á 0.13500758476132171
雖 1
圆 1
纲 1
润 1
160 1
把@@ 1
Gr@@ 0.05941171659794145
岗 1
闭@@ 1
殷@@ 1
FC 0.2202808507847963
摇@@ 1
い 1
穆 1
娅 1
氟@@ 1
磨 1
MS 0.5535967373241626
刘 1
珀@@ 1
疗@@ 1
冈 1
雞 1
攀@@ 1
裴@@ 1
嘴@@ 1
己 1
链 1
盤@@ 1
赏 1
廢 1
1903 0.7196539991152235
da 0.043186528137483235
臟 1
糕 1
叉@@ 1
纯 1
脑@@ 1
抵 1
稍 1
ach@@ 0.029937205764480907
哀@@ 1
RE@@ 1
怖@@ 1
塌 1
穌 1
灯@@ 1
厂@@ 1
暫 1
忍 1
赴@@ 1
奶 1
臣@@ 1
茄 1
抱 1
辐@@ 1
桓@@ 1
IM@@ 1
狹@@ 1
尤 1
瑜 1
1500 1
ity 0.038919156633111136
須@@ 1
all 0.031818138867016454
椎 1
蜂 1
狼@@ 1
睡@@ 1
薄 1
1908 0.5958435623219311
寒 1
莲@@ 1
崙 1
噸 1
夸@@ 1
闽@@ 1
触@@ 1
ni@@ 0.04245171357608619
Se@@ 0.06099406666462327
辱 1
鼠@@ 1
侍 1
储 1
秉@@ 1
浩 1
緩 1
抚 1
腺@@ 1
奔 1
舱 1
刷@@ 1
抄@@ 1
帽 1
о 0.06307143246734806
140 1
烧 1
漳@@ 1
嫁 1
遞 1
忘@@ 1
蝙@@ 1
葵@@ 1
佑 1
re 0.027999615736544557
甘 1
style 0.22888279591371996
ho@@ 0.03227238976301383
衝 1
脚 1
滾 1
詢@@ 1
姿@@ 1
舌@@ 1
矩 1
煌 1
Mon@@ 0.06629448863696666
蜜@@ 1
憲 1
Qu@@ 0.06694381824225466
牽@@ 1
床@@ 1
猎@@ 1
遼@@ 1
勘@@ 1
仓@@ 1
殊@@ 1
诉@@ 1
庸 1
酷 1
静 1
黛@@ 1
閩@@ 1
颶@@ 1
陝@@ 1
ace 0.0764211628618389
獵 1
厢 1
蕾@@ 1
ev@@ 0.0327285231661815
鼎 1
邪 1
盈@@ 1
禎 1
譚@@ 1
泡@@ 1
僚 1
浸@@ 1
粹@@ 1
媽 1
1906 0.6128800261709508
荒 1
逆 1
NGC 1
顾 1
1907 0.6082332857495623
累 1
align 0.929489432760522
丛 1
滕 1
沪 1
棚 1
Ac@@ 0.09606053346276587
廂 1
For@@ 0.06990256591497103
賀 1
mo@@ 0.03745521660616203
赐 1
綠 1
Ste@@ 0.11392820830846631
弘 1
硝@@ 1
键@@ 1
妖@@ 1
款@@ 1
鉴@@ 1
阶 1
软 1
扇 1
鯰@@ 1
堆@@ 1
炎@@ 1
罢@@ 1
矶 1
j 0.26533865225869724
賊 1
CH@@ 0.9683419116980744
尽 1
劣 1
匠 1
梦 1
矮@@ 1
迟 1
樑 1
幢 1
貓@@ 1
1904 0.6276206836539155
ok@@ 0.05791502313654699
垃@@ 1
坤 1
欄 1
蕾 1
ance 0.034373092144543545
鸡@@ 1
宴 1
翅@@ 1
colspan 1
ati@@ 0.04061625132946172
渠 1
霧 1
厄 1
廿@@ 1
鋼 1
逸@@ 1
El@@ 0.07826734336101199
il 0.01885716154193434
Per@@ 0.07770893056342264
駁 1
冯 1
辉 1
滾@@ 1
ly 0.01886106796254053
Cr@@ 0.11383544630558094
PS 0.7035443545770221
幅@@ 1
携@@ 1
蟲@@ 1
废 1
琼@@ 1
劾 1
焚@@ 1
br@@ 0.023879394894498897
艙 1
ground 0.18252618085568778
榴@@ 1
ame 0.12758458148372553
荆@@ 1
慣 1
薪@@ 1
蛙 1
蜀 1
採 1
Fac@@ 0.3818898535410538
钦@@ 1
籤 1
錫 1
Am@@ 0.06729121125207461
ath@@ 0.055207803737486794
毀@@ 1
臀@@ 1
括 1
歧 1
侶 1
ebo@@ 0.7830794251578922
ect 0.0645111691367882
Cor@@ 0.07845020504284204
Me@@ 0.08467084683247626
棠 1
櫻@@ 1
邪@@ 1
拯@@ 1
銘 1
淺@@ 1
壬@@ 1
漏@@ 1
酷@@ 1
ff@@ 0.04685587563041064
\ 1
翡@@ 1
ell@@ 0.04219047970738693
end@@ 0.03266307945069552
尸@@ 1
涛 1
贯@@ 1
Net@@ 0.4107343363552507
彗@@ 1
pe 0.0693448367283406
鞍@@ 1
募@@ 1
绥@@ 1
趨@@ 1
帆@@ 1
疾 1
肩@@ 1
纤@@ 1
潭@@ 1
膨@@ 1
喬 1
牟@@ 1
Li@@ 0.08375035755274833
卵 1
苯 1
埠 1
炳@@ 1
爐 1
概 1
椒 1
擋 1
輛@@ 1
ex@@ 0.0187538452261336
back@@ 0.3395468051848428
爺 1
診 1
貢 1
邸 1
嫌@@ 1
减 1
all@@ 0.03778675317298653
究 1
闊 1
? 0.23465187798755008
奎 1
腹 1
吴 1
諮 1
烏 1
截 1
par@@ 0.021071300203440328
躍 1
籲 1
AD@@ 0.7147623281005844
劉 1
庶 1
兆 1
拆 1
虹@@ 1
伙 1
執 1
涂@@ 1
询 1
Fre@@ 0.08077129265701358
na 0.0652511749795865
搶 1
SP@@ 0.5456957536027566
啤@@ 1
ber@@ 0.03922654595571297
暂 1
允 1
color 0.4280761565656334
签 1
徐 1
瓷 1
閘@@ 1
柯 1
嘛 1
eb@@ 0.03226400074629845
吹 1
骑 1
瞄@@ 1
凸@@ 1
慘@@ 1
礦 1
鄭 1
ma 0.07299763495887225
ey 0.09337691174359727
鸿@@ 1
韩 1
誰 1
ty 0.05017219774344748
魁 1
扫@@ 1
椎@@ 1
恒 1
ps 0.07753244400863003
函 1
禪@@ 1
ica 0.048901837737131346
鹰 1
姬@@ 1
拒 1
We@@ 0.09172323729050441
贴 1
淺 1
蓄@@ 1
档@@ 1
匣 1
卜 1
ile 0.04573199450668451
β 1
ley 0.06856381327018013
栋 1
鳳 1
货 1
鎖@@ 1
蜂@@ 1
軒 1
擺@@ 1
− 0.7040303182747703
愈@@ 1
禧 1
ol 0.08259670345939296
賭@@ 1
Bar@@ 0.06966772150060194
乒@@ 1
燃 1
勋 1
ge 0.028575809356837747
燥 1
Sch@@ 0.025083009527621665
擁 1
汶@@ 1
se@@ 0.01930719728630874
徹@@ 1
唇 1
贯 1
邏@@ 1
и 0.007012343726670784
ak 0.07698178038953715
仓 1
掠 1
煤 1
彬 1
盜@@ 1
夾@@ 1
皆@@ 1
彙 1
径@@ 1
卖@@ 1
钢 1
帖 1
豬 1
渠@@ 1
堅 1
逼 1
儒 1
焦 1
勾@@ 1
昏@@ 1
end 0.041596162609394305
no@@ 0.05189864174179574
枝@@ 1
DS 0.7999777313123192
350 1
欲@@ 1
est 0.007937496859030972
淡 1
贞@@ 1
糧@@ 1
輝@@ 1
dro@@ 0.12864211747138704
tu@@ 0.064664966102225
濕@@ 1
芙@@ 1
撤 1
伪@@ 1
ence 0.02741723331402882
ea 0.10335757392152105
宅@@ 1
掛@@ 1
坂 1
寓@@ 1
潤 1
黏@@ 1
bo@@ 0.03812023301598334
ing@@ 0.04071064978997221
插 1
頃 1
束@@ 1
齒@@ 1
ah@@ 0.04403598132112705
玫@@ 1
center 0.29720903880509286
纷 1
垣 1
int 0.29944749897656603
怡 1
煙 1
狭@@ 1
浮 1
适 1
粤@@ 1
掠@@ 1
ma@@ 0.03775173702048496
趋@@ 1
梨 1
吳 1
vi@@ 0.02185745034684549
趁@@ 1
蜜 1
惑 1
顷 1
腺 1
仕@@ 1
1898 0.6472195864371384
徹 1
縱 1
ts 0.017794126916330196
惟 1
磅 1
纖@@ 1
恶 1
欠@@ 1
焰 1
氢 1
躲@@ 1
倡 1
懼 1
ra@@ 0.03715683738980876
咒 1
帆 1
text 0.38484536135807523
鎊 1
迄@@ 1
穗 1
匪 1
盒 1
胎@@ 1
犬@@ 1
勁 1
壯@@ 1
阔 1
粘@@ 1
荃@@ 1
1902 0.584647619655066
递@@ 1
忘 1
MP@@ 0.8809672068360903
te@@ 0.02701516042538528
瓣 1
啦 1
墙@@ 1
毁@@ 1
豫 1
握@@ 1
跋 1
鞋 1
隙 1
欽@@ 1
挂@@ 1
寇 1
緣@@ 1
豬@@ 1
诊@@ 1
债@@ 1
ly@@ 0.11271292741116624
辅 1
ick 0.07174762357874967
浅@@ 1
卓 1
妥@@ 1
惨@@ 1
爪@@ 1
洁 1
Go@@ 0.127321818851133
em 0.07743114786185218
ah 0.1144558396801011
舌 1
梨@@ 1
孕@@ 1
昆 1
彎@@ 1
赵 1
uc@@ 0.05581396580153755
200@@ 0.5645552363004946
丞@@ 1
弓@@ 1
曝@@ 1
扁@@ 1
1895 0.6521265044300922
鶴@@ 1
崇 1
ne@@ 0.027930962220406794
桐@@ 1
败@@ 1
赋@@ 1
螢@@ 1
汁 1
ra 0.052168775453913074
契 1
í 0.1287943986242596
递 1
玄 1
咀 1
AM 0.770519845558333
措 1
墟 1
喻 1
爬@@ 1
驶@@ 1
詳 1
飯@@ 1
-- 1
艮@@ 1
薪 1
酋@@ 1
殉@@ 1
瀑@@ 1
鳴@@ 1
tic 0.08811631046228079
ale 0.023831559942200257
扣 1
葛 1
跌 1
纷@@ 1
腰 1
偽@@ 1
瑰 1
兔 1
峡@@ 1
逸 1
慰 1
賦@@ 1
鋪 1
偏 1
劝@@ 1
甚 1
仲 1
瓊@@ 1
aw@@ 0.05230295220244851
ü 0.3688683106662086
臉@@ 1
CE@@ 0.46789641207344024
怨 1
im 0.012537015462021905
厅@@ 1
押@@ 1
坚 1
夕@@ 1
盲@@ 1
Lo@@ 0.10266448424320394
鯨 1
偿 1
鸡 1
骸 1
膠@@ 1
DC 0.6148761672030598
st 0.03241144955411127
鱗@@ 1
帳@@ 1
癸@@ 1
One 0.15860566306705168
侠 1
禾 1
咨@@ 1
し 1
120@@ 1
Love 0.3761226873159255
塗@@ 1
鏈 1
竟@@ 1
夥@@ 1
捉 1
盗@@ 1
凹@@ 1
拓 1
雞@@ 1
怀 1
墅 1
曹 1
ス 1
籍@@ 1
イ 1
岭@@ 1
橙@@ 1
盗 1
恭 1
yl@@ 0.11332225492875504
桶 1
ass@@ 0.025543556633007794
倍@@ 1
繩@@ 1
苹@@ 1
貞 1
om 0.09294659538345758
債@@ 1
驅 1
hi@@ 0.036294296746912036
ā 1
墩 1
糾@@ 1
鴨 1
乔 1
拋@@ 1
稣 1
吁 1
删@@ 1
娘@@ 1
窟 1
ik@@ 0.045220609787799786
BBC 0.4701774102809777
呢 1
貪@@ 1
勸 1
嬰@@ 1
韻@@ 1
und@@ 0.035098775433674415
卯 1
彦@@ 1
冥@@ 1
郭 1
笑@@ 1
龜@@ 1
疊 1
Ty@@ 0.24355235498893316
钠 1
預 1
雀@@ 1
娥 1
胶 1
漏 1
卸 1
挺 1
蓝 1
ん 1
砂 1
吋 1
World 0.06760391520529405
gr@@ 0.020432488269209372
狩@@ 1
Tw@@ 0.49807263686521597
sil@@ 0.17903306049531958
尹 1
欖@@ 1
齋 1
est@@ 0.02137484509014267
Ver@@ 0.023236916592180377
寵@@ 1
Man@@ 0.054356058392404955
Str@@ 0.07473895962111507
堪 1
е 0.016867284362235047
鯰 1
肅 1
贤@@ 1
恆 1
誘@@ 1
ite 0.024823044367155257
ess 0.03820267870426167
偷 1
摘@@ 1
桐 1
ack@@ 0.06597340824002204
淨@@ 1
【 1
】 1
纵 1
闪@@ 1
ne 0.021276672047953624
Mag@@ 0.11741263164321465
帽@@ 1
潔@@ 1
菊 1
氮 1
慰@@ 1
穩 1
Microsoft 0.9364338206172073
ae 0.15465412170971307
幾 1
掃@@ 1
稻 1
ó 0.01489142841663055
册@@ 1
Pro@@ 0.07860985563610338
舖 1
弓 1
As@@ 0.06624123924773136
券@@ 1
凰 1
旱 1
ib@@ 0.057228264420038984
-@@ 0.11065868993627248
鳴 1
Ge@@ 0.053995000227451906
獅 1
塚 1
with 0.006788882928921437
棘@@ 1
蜘@@ 1
н 0.02822513561626764
※ 1
1896 0.5861051852027935
衍 1
俞@@ 1
晨@@ 1
棄@@ 1
妙@@ 1
1890 0.5511038268205047
岐@@ 1
糊 1
So@@ 0.07508148531937914
詔@@ 1
able 0.025222381325908337
梭 1
q 0.2684826762320473
溯@@ 1
贾 1
爪 1
荔@@ 1
栏 1
喊 1
牡@@ 1
mar@@ 0.02647492755540605
踢 1
蓬 1
诏 1
蔽 1
伺@@ 1
AI@@ 0.6432500425994719
瑚 1
荊@@ 1
餅 1
氯 1
罹@@ 1
乓@@ 1
札 1
怡@@ 1
憤@@ 1
绕@@ 1
仗 1
淨 1
tri@@ 0.03103941340454952
墳 1
韶@@ 1
la@@ 0.03899787269050619
section 0.21664813714345493
撥@@ 1
膚 1
鼻 1
圾 1
iz@@ 0.03382225530317188
斬 1
con@@ 0.015011573671444308
BA 0.5818814652947549
晴@@ 1
宪 1
摆@@ 1
纺@@ 1
瀨@@ 1
寅 1
董 1
New 0.036368341373153285
鄂 1
1897 0.570420340174475
Pe@@ 0.08472224811764736
钦 1
鴻 1
杏@@ 1
斋 1
CC@@ 0.7861523464701362
贏 1
纠@@ 1
訟 1
丈 1
埋 1
虐@@ 1
た 1
杉 1
搞 1
IV 0.22351059279808444
飲 1
宰 1
box 0.45320497218285855
TA 0.5400787716561142
ure 0.0335948769339159
pe@@ 0.04378640412988613
櫃 1
橫 1
Fr@@ 0.06718578074229523
AB@@ 0.7759436950006134
萄 1
鑑@@ 1
Live 0.5042941495697946
魅@@ 1
pr@@ 0.02035799353786829
诸 1
au 0.013849737791408485
穀 1
桿 1
蓉 1
gi@@ 0.03338688201849074
Vi@@ 0.10854561132908881
寡@@ 1
騷@@ 1
柔 1
ner 0.035152824391035474
斐 1
纂 1
齿@@ 1
猎 1
圭@@ 1
anc@@ 0.04254668387190354
Ap@@ 0.22602295747086482
冶@@ 1
猪 1
財 1
if@@ 0.045439553602551565
ル 1
Gu@@ 0.052886476638718705
侨 1
溝 1
ill@@ 0.037922155721931756
甸@@ 1
Te@@ 0.09369844830696365
猛 1
蝦 1
遙@@ 1
净@@ 1
彭 1
辞 1
撫@@ 1
刪@@ 1
紫 1
翅 1
迦 1
弦@@ 1
ot 0.07480182789640273
崛@@ 1
う 1
噪@@ 1
裹 1
炉 1
賠@@ 1
FI@@ 0.45572610163009886
垒 1
畢 1
萍 1
ion 0.04100581373178245
壩 1
帮 1
庶@@ 1
贈@@ 1
療@@ 1
睡 1
葵 1
蜀@@ 1
祇 1
tor 0.044058106313457655
剩 1
猴 1
Music 0.1759540444336808
滚@@ 1
繳@@ 1
蔬@@ 1
彪 1
剥@@ 1
悟 1
蜥 1
ist 0.010702611309567867
懲@@ 1
泄@@ 1
欽 1
矢@@ 1
Pol@@ 0.05293214578012781
綁 1
You 0.26408783639608496
辨 1
宦@@ 1
慣@@ 1
紋@@ 1
瓶@@ 1
峻 1
喝@@ 1
础@@ 1
铺@@ 1
且@@ 1
恐 1
蜥@@ 1
荡 1
湯 1
ens 0.030977527991573918
蘿@@ 1
ur 0.040368333884891826
閱 1
1899 0.5296638748011447
CD@@ 0.3856872466640788
湘 1
嵌 1
凉@@ 1
谭@@ 1
夹@@ 1
淮 1
郁@@ 1
僑 1
ain 0.04290183561902843
our 0.047653150979064064
奸 1
鉴 1
耿@@ 1
茎 1
浏@@ 1
ub@@ 0.07864896463924174
俯@@ 1
莲 1
+@@ 1
恰 1
乞@@ 1
彝@@ 1
旭@@ 1
淆 1
磁 1
亂@@ 1
参 1
棉 1
SS 0.3733504001662123
砖@@ 1
ung 0.013225984933261966
窮 1
狙@@ 1
car@@ 0.029990207509856887
渐@@ 1
坞 1
矮 1
廈@@ 1
酬 1
SS@@ 0.6794089537836736
辉@@ 1
韻 1
虞@@ 1
Met@@ 0.18315124403180955
aur@@ 0.11554547457442339
塢 1
倪@@ 1
纬 1
VI@@ 0.8992173139018986
ya 0.04206414647515139
簡 1
筋 1
汕@@ 1
ari@@ 0.04569207192743377
崩 1
脏 1
鬚 1
烟 1
惯@@ 1
豚 1
禅@@ 1
鱷 1
oph@@ 0.09584803446613253
銅 1
ome 0.07028359151861233
芽 1
р 0.028527195326011945
虏 1
晰 1
狮@@ 1
眉 1
do 0.034898364053343664
烯@@ 1
添 1
Mor@@ 0.06702923633834662
ong@@ 0.05071455950132589
戚 1
と 1
详 1
侄@@ 1
冒 1
鹏 1
则@@ 1
招 1
婉@@ 1
1889 0.5740912586595593
di 0.09141086381521463
阜@@ 1
烹@@ 1
Mc@@ 0.08548996486887968
暖@@ 1
宴@@ 1
巢@@ 1
醉 1
些@@ 1
ks 0.03218227945240194
掃 1
榆@@ 1
祯 1
ka 0.07211520416303775
ler 0.03988382832240258
蝕 1
禦@@ 1
Gir@@ 0.24328328216256637
ci@@ 0.02278163612725988
僱@@ 1
氫 1
鹤@@ 1
菱 1
驚 1
璃@@ 1
pi@@ 0.028705139163670276
悼@@ 1
Min@@ 0.06424933697656973
ini 0.08791892766486162
喉@@ 1
School 0.07299241851846168
挽@@ 1
sp@@ 0.02315743222869783
ラ 1
ö 1
ist@@ 0.031188516925521055
怒@@ 1
疊@@ 1
骼 1
Her@@ 0.04703122718829352
顛@@ 1
騙 1
擲 1
SA 0.4464276432269613
• 0.7530386215216717
ai@@ 0.08228761975614757
CA 0.4958943229693398
聰@@ 1
銘@@ 1
舟@@ 1
践 1
杖 1
鑽@@ 1
涌@@ 1
肆 1
und 0.003817623229601091
严 1
搶@@ 1
眉@@ 1
Fo@@ 0.09500894251274637
饭@@ 1
Fi@@ 0.13947637422504955
腰@@ 1
潰 1
囊@@ 1
狗@@ 1
か 1
繩 1
顆@@ 1
奮@@ 1
蔓@@ 1
Har@@ 0.0733260350000135
擦@@ 1
den 0.0067087070468926846
頸 1
旦@@ 1
騰 1
馮 1
淳 1
碗 1
浴@@ 1
恋@@ 1
描 1
禾@@ 1
鑼@@ 1
MA 0.5526490923265339
擦 1
ax@@ 0.10326761056937629
笛 1
str@@ 0.02761024498015889
娜@@ 1
瞬@@ 1
ess@@ 0.036515232693231994
孚 1
暢@@ 1
廚@@ 1
穎 1
舶 1
Wi@@ 0.13655078971480464
拨@@ 1
爛 1
Hol@@ 0.07185859565602838
port 0.04404386891099251
su@@ 0.01903925309924399
戎 1
渤@@ 1
弧@@ 1
猴@@ 1
盾@@ 1
pen@@ 0.08638945642300372
漆 1
莖 1
ack 0.060003101559532125
蝴@@ 1
彦 1
搞@@ 1
ow@@ 0.040413241766442815
EP 0.43112588468503377
纹@@ 1
嵌@@ 1
爸 1
痕 1
砖 1
硫 1
箱@@ 1
卧@@ 1
嗎 1
崗@@ 1
der@@ 0.02348462230427313
钻@@ 1
説 1
哭 1
辣@@ 1
瓷@@ 1
氛 1
杆@@ 1
简 1
郝@@ 1
遞@@ 1
be@@ 0.013976181039656638
跌@@ 1
姑 1
啡@@ 1
污 1
狐@@ 1
酰@@ 1
gen@@ 0.022397224760243896
丛@@ 1
庙@@ 1
墜@@ 1
咸 1
毅@@ 1
氟 1
檢 1
诱@@ 1
瑙@@ 1
淋@@ 1
辑@@ 1
楠 1
哇 1
Gal@@ 0.1141765714910297
疲@@ 1
慕 1
蚀 1
輯@@ 1
抓 1
禍 1
姊 1
腐 1
art 0.04223013087733665
賈 1
喙 1
に 1
1860 0.5669933057728861
cor@@ 0.030843764027127612
cm 0.28417882895426505
eo 0.09308271084111551
赣@@ 1
孢@@ 1
叠 1
譴@@ 1
No@@ 0.11381841360947385
1880 0.5114310970701698
谁 1
涼@@ 1
鵬 1
潛 1
沪@@ 1
湿 1
CI@@ 0.48990053862555255
妾 1
愉@@ 1
陇@@ 1
祁@@ 1
​ 1
汤 1
me@@ 0.020175492150770056
渦@@ 1
謙 1
凶@@ 1
な 1
邢@@ 1
凤 1
陰 1
ode 0.13057548694375673
誓@@ 1
骚@@ 1
凌 1
lin@@ 0.0345812368222318
Ab@@ 0.034882253191774244
鱂 1
畜@@ 1
敖@@ 1
誼 1
樊@@ 1
趾 1
峽@@ 1
ment 0.02672446127989099
役@@ 1
1800 0.8070699961361207
挝 1
傍@@ 1
雁@@ 1
ara 0.09514131431709372
嫡@@ 1
La 0.0145369303209371
1894 0.532572072709118
繞@@ 1
赔@@ 1
聊@@ 1
胃@@ 1
Wor@@ 0.12702635391274972
奋@@ 1
踐 1
ys 0.1635665295247488
Me 0.3642783283411868
′ 1
land 0.02593005437118207
煽@@ 1
ト 1
谴@@ 1
谱@@ 1
ard@@ 0.04340144449935906
1871 0.5685580757424219
る 1
蟻 1
赠@@ 1
1870 0.4768251342793689
醛 1
缀 1
ann@@ 0.032044616279401
脈@@ 1
Mac@@ 0.13822200234794874
ich@@ 0.03227869346792785
铭 1
辽 1
唇@@ 1
弼 1
叢@@ 1
ali@@ 0.03886043915109261
悅 1
渭@@ 1
绿 1
甄@@ 1
凰@@ 1
哩 1
輩 1
仆@@ 1
樟@@ 1
yr@@ 0.07709401917207717
atus 0.2797050956403021
拱 1
罵 1
Ed@@ 0.0972725388777173
栗@@ 1
we@@ 0.020397480610015107
David 0.12372301219906341
预 1
so@@ 0.022480390076153527
邯@@ 1
ran@@ 0.033002559883332144
碱@@ 1
衙@@ 1
ike 0.12122393511240995
贊 1
Mat@@ 0.09337572233581574
瘋@@ 1
峙 1
杯@@ 1
赏@@ 1
BM@@ 0.6298712011560869
漿 1
丟@@ 1
织 1
脹 1
Su@@ 0.06797395123661719
抽 1
紮 1
虽 1
贞 1
飼@@ 1
疼@@ 1
q@@ 0.19145365381360355
App@@ 0.36755773261732183
泌 1
茵@@ 1
Ber@@ 0.047558999852508874
削 1
憂@@ 1
ava 0.27081581242657743
诏@@ 1
Wil@@ 0.08725295432596386
ons 0.018027693757598523
讼 1
牺@@ 1
迅 1
enti@@ 0.02999911970303025
贪@@ 1
124@@ 1
胸 1
畜 1
萌@@ 1
he@@ 0.022555288058903732
兔@@ 1
匿@@ 1
婿 1
è 1
颇@@ 1
畏 1
婷 1
剿 1
挺@@ 1
棍@@ 1
International 0.09471048588555364
University 0.041666895302164726
巩@@ 1
巫 1
颇 1
Fl@@ 0.06491601085597988
In 0.00763146555190212
袍 1
蘆@@ 1
阅 1
ker 0.0655416371750764
衷 1
輿@@ 1
饶@@ 1
Pi@@ 0.11838109244826257
ill 0.09483787446910626
肿@@ 1
des 0.003885650714363608
闆 1
ase 0.051696775937040446
壯 1
抛@@ 1
扳@@ 1
Ho@@ 0.08688593987001665
您 1
薯 1
罰@@ 1
碱 1
遂@@ 1
寇@@ 1
尋 1
赐@@ 1
遥@@ 1
朔@@ 1
屍 1
溃 1
却@@ 1
藻@@ 1
虜 1
ire 0.033724397909536616
剝@@ 1
琦 1
man@@ 0.021484699629977455
撐 1
检 1
润@@ 1
粮 1
鍵@@ 1
Dr@@ 0.09405287136285137
究@@ 1
с 0.010223839162951364
駿 1
狐 1
懂 1
ili@@ 0.03863275998998438
胤 1
1885 0.4925315824234188
拾 1
ug@@ 0.04654948262226665
稚 1
犧@@ 1
騰@@ 1
疇 1
闖@@ 1
li 0.11972414557216565
衞 1
矣 1
磡 1
ame@@ 0.21194905944867623
幣@@ 1
銳 1
酉 1
笠 1
竭 1
斥@@ 1
捐 1
谊 1
鮋 1
帜 1
Sw@@ 0.11121642008413687
era 0.026642326825559195
廓 1
肖 1
ta@@ 0.03537964917899179
卑 1
頸@@ 1
貸@@ 1
簿 1
les 0.005873489489804669
肌 1
阜 1
Bl@@ 0.08063979146553063
轟 1
暑@@ 1
乱@@ 1
栏@@ 1
Jo@@ 0.10065578393049801
ass 0.08174696245088658
隱 1
惯 1
潤@@ 1
埼 1
畿 1
撲 1
粟@@ 1
芦@@ 1
讯@@ 1
聂@@ 1
res@@ 0.01606757580370983
Inter@@ 0.07454235563323272
宛@@ 1
Stu@@ 0.12851357881098788
Val@@ 0.07466339012314206
mi@@ 0.03374948298979944
缘@@ 1
喀 1
禄@@ 1
抄 1
Er@@ 0.025880566827568556
旱@@ 1
挖 1
ick@@ 0.04630527909800143
翠 1
喚 1
孟 1
愤@@ 1
坪@@ 1
账@@ 1
擾@@ 1
膀 1
ru@@ 0.031196359606668122
腸 1
横 1
謠 1
阎@@ 1
堵 1
ant@@ 0.03000118300840477
臭@@ 1
碧 1
蕉 1
弯@@ 1
誕 1
氫@@ 1
鯛 1
汶 1
鞭@@ 1
暹@@ 1
澄 1
韵@@ 1
Team 0.19585933885619938
阴 1
釜@@ 1
ous 0.023583128629954958
膽 1
蛤@@ 1
芙 1
郁 1
饼 1
垂 1
柴 1
薇@@ 1
ir 0.0283903074808637
爽 1
湛@@ 1
籌 1
AP 0.47431253107079746
To@@ 0.06952611232085643
勸@@ 1
颠 1
抬@@ 1
牆@@ 1
蛾 1
簧 1
詠 1
io 0.05336842028346184
醉@@ 1
ク 1
舆@@ 1
co 0.040028188877416035
int@@ 0.036378012192146036
ref 0.5890366156426504
屈 1
ア 1
Saint 0.061844932900967695
慾 1
Mas@@ 0.08431144984118694
sc@@ 0.04593808819395346
_@@ 1
幟 1
罚@@ 1
鸣 1
include 0.08009325866036
濤 1
Sol@@ 0.10387417868444708
淵 1
桿@@ 1
啊 1
〜 1
梓@@ 1
塾 1
缓 1
贺 1
瞭@@ 1
橘@@ 1
爬 1
ä 1
绵@@ 1
痕@@ 1
孜@@ 1
煮 1
慎@@ 1
堵@@ 1
宙@@ 1
line 0.05285320661650889
毓@@ 1
芯@@ 1
り 1
桓 1
述@@ 1
喝 1
ain@@ 0.04618422086169054
vir@@ 0.11945067262152599
宵 1
釣@@ 1
晴 1
旭 1
脉@@ 1
吞 1
贼 1
賦 1
Wh@@ 0.08132905010951351
侨@@ 1
贸 1
Dis@@ 0.12062285703553213
憂 1
eh@@ 0.022816086520557784
eng@@ 0.025659761598905387
謙@@ 1
min@@ 0.02184152232719037
僵@@ 1
晓 1
т 0.01800729168631254
リ 1
沛 1
鸣@@ 1
肤 1
砌 1
娃@@ 1
匙 1
趙@@ 1
遜@@ 1
Off@@ 0.12333661356585358
榄@@ 1
雯 1
Chr@@ 0.09988177638346632
1892 0.46090899136815994
臥@@ 1
廁@@ 1
蓄 1
淳@@ 1
贷@@ 1
迈 1
htt@@ 0.8438480448207744
My@@ 0.24041120423310036
鵝@@ 1
氰@@ 1
閩 1
惩@@ 1
濫@@ 1
肩 1
Si@@ 0.0640258738827433
ys@@ 0.057743758329227464
兇@@ 1
胚@@ 1
Res@@ 0.07310390829284795
ake 0.1109363349403612
牢@@ 1
My 0.2967853244723482
1893 0.4517721462695807
AS 0.4342867068038212
沈 1
混 1
迭@@ 1
阀 1
姿 1
框 1
舒 1
ek@@ 0.025068527507939656
pp@@ 0.04825312303712342
斩@@ 1
諸 1
懿 1
me 0.025277678749191727
締@@ 1
臉 1
泗@@ 1
铭@@ 1
滇@@ 1
蒼@@ 1
ical 0.031294733092916006
賜@@ 1
ti 0.07251306530862603
氮@@ 1
溉 1
悟@@ 1
ud@@ 0.05064281538981684
は 1
腾 1
lu@@ 0.037863469038716485
that 0.005905247776906666
扮 1
贫 1
闢 1
諭 1
淚 1
捍@@ 1
琛 1
胆@@ 1
Bur@@ 0.05722819249384222
Hy@@ 0.15639887380046075
ations 0.014339269143148089
饥@@ 1
届@@ 1
煉 1
遲@@ 1
擠 1
膜@@ 1
岑@@ 1
1884 0.505017711237264
褒@@ 1
瀏@@ 1
悔 1
邁 1
ella 0.10237397857855031
犁 1
潟 1
陞 1
瑙 1
1887 0.49455602122327386
侣 1
1886 0.48778741310123613
赋 1
ie@@ 0.035376083141361946
蕊 1
哉 1
鳞@@ 1
啓 1
愚@@ 1
爸@@ 1
ou 0.0265230884476616
unc@@ 0.059877898485276956
yn@@ 0.0863999068755877
Ang@@ 0.0585708768689624
ora 0.08051741501436539
镑 1
CO 0.4747927405663689
渊 1
錶 1
bl@@ 0.025762939347291677
刃 1
崗 1
堯 1
渴@@ 1
阔@@ 1
William 0.09096083303194519
硅@@ 1
巾 1
吐 1
駕 1
way 0.030381386176674675
稜 1
祠@@ 1
堤@@ 1
廳@@ 1
毕 1
ena 0.06412798254763401
趕 1
was 0.0025321788372536396
堀@@ 1
赦 1
醒@@ 1
1888 0.46410028895760264
拖 1
Win@@ 0.1425878893606369
奢@@ 1
页@@ 1
橢@@ 1
碘 1
inc@@ 0.02692676570833001
殼@@ 1
禪 1
傘 1
淵@@ 1
聰 1
iv@@ 0.028610290872314627
沧@@ 1
纲@@ 1
James 0.09695508853386946
吕 1
腸@@ 1
睹 1
伪 1
譜@@ 1
憾 1
盈 1
sa 0.02662028469063106
醜@@ 1
amb@@ 0.03747650074451116
浅 1
蛛@@ 1
Dre@@ 0.1317793175772053
Group 0.14442643557545543
苍@@ 1
涡@@ 1
冊@@ 1
滴 1
1861 0.49960343294834986
谐 1
債 1
缴@@ 1
肅@@ 1
棍 1
Bi@@ 0.06400230564189169
from 0.0062450918815444316
狄 1
茅 1
饭 1
緯@@ 1
弊 1
塵 1
ade 0.036016811881932086
倭@@ 1
枯@@ 1
勉@@ 1
嘲@@ 1
sch@@ 0.010470873302211166
л 0.013105864050037745
癒 1
穷 1
1876 0.5073783472304406
del 0.00782318419839874
墾 1
忧 1
Gi@@ 0.07723701283866041
Nor@@ 0.03412441363862872
淹@@ 1
韵 1
肺 1
if 0.08592158382278728
朴 1
檐 1
閣@@ 1
胆 1
哨 1
違 1
坠@@ 1
茱@@ 1
ings 0.03041122018078761
梧@@ 1
瑚@@ 1
肢@@ 1
亭@@ 1
禹 1
鑽 1
锋@@ 1
閒 1
盆 1
髓 1
辆@@ 1
捨 1
詮@@ 1
擒 1
閒@@ 1
抨@@ 1
ast 0.035392331297727814
劣@@ 1
锐 1
奕 1
в 0.0029253442034456374
畏@@ 1
踢@@ 1
魂@@ 1
祂 1
arr@@ 0.028272164488076304
ics 0.044683599878249526
紡@@ 1
胀 1
铎 1
Cre@@ 0.11094159825654497
抒@@ 1
霹@@ 1
诚@@ 1
CN 0.8058521663673949
淀@@ 1
祕 1
陪 1
ws 0.04168181875259385
阐@@ 1
1891 0.42857840957823284
衫 1
dis@@ 0.01191060172343435
馨 1
Char@@ 0.06751368914642128
綽@@ 1
霞@@ 1
犀@@ 1
к 0.013918726663333068
让@@ 1
擢 1
庐@@ 1
憑@@ 1
ind@@ 0.0362038015359073
ens@@ 0.021527938423459382
漲 1
獸@@ 1
寂 1
跃@@ 1
歼@@ 1
蒿 1
Do@@ 0.11534749356536238
ost 0.04562519679880758
勁@@ 1
儲 1
坝@@ 1
瑾 1
嚇 1
崑 1
鄒@@ 1
cr@@ 0.023995567454683283
叠@@ 1
襪 1
閘 1
ise 0.024835789547421785
〔 1
On@@ 0.10191368723776834
钾 1
〕 1
yc@@ 0.100126766605361
剌 1
肪 1
丑@@ 1
諜 1
酿@@ 1
稽 1
绑@@ 1
頌 1
per 0.0439370113908698
1850 0.4936620666148588
妓@@ 1
棱@@ 1
蹄@@ 1
駒 1
撕@@ 1
填 1
Bu@@ 0.08808363155375003
緻 1
Sy@@ 0.08440410033744267
捉@@ 1
Robert 0.09828344287368365
mon@@ 0.017622016208551153
禧@@ 1
烤 1
鑄@@ 1
弄@@ 1
浙 1
浆 1
鰍 1
滤@@ 1
yp@@ 0.06343194720642756
1883 0.4919144751512348
ek 0.044292590209355664
璧 1
醬 1
Paul 0.08842087708267135
掀@@ 1
腫@@ 1
菇 1
1862 0.48309669653177284
蜒 1
卦 1
縫 1
盔 1
Des@@ 0.06685781783897404
gu@@ 0.02277599125409048
贬@@ 1
岱 1
郑 1
ano 0.031658751093259545
oh@@ 0.05780584858172493
閥 1
Pal@@ 0.06706874199857064
The@@ 0.054572745940647226
ap 0.12048511000011466
荃 1
淪@@ 1
ca 0.04815169240910392
询@@ 1
漆@@ 1
1868 0.49677993544040755
鈞 1
ッ 1
莞 1
籃 1
鱸@@ 1
ated 0.009465284657523877
雾 1
慌 1
鸚@@ 1
擇@@ 1
檀@@ 1
sion 0.03121768908080979
桌 1
欠 1
歇 1
艰@@ 1
净 1
菱@@ 1
扑 1
崔 1
蜿@@ 1
膏 1
窑 1
US 0.05755591526744626
孚@@ 1
狮 1
hy@@ 0.07463092791405333
矢 1
驳 1
tic@@ 0.03975245751300102
ま 1
μ 0.7144861295052208
絡@@ 1
炼 1
羟@@ 1
貿 1
dr@@ 0.027104481594740555
滲@@ 1
ology 0.057399202811082455
颜 1
饱@@ 1
舜@@ 1
弃@@ 1
闸 1
Michael 0.11613512596865515
Super 0.2371430282378644
滚 1
@ 1
ish 0.024132450977462003
1867 0.47577597796930016
凉 1
Por@@ 0.08609572034788374
牲@@ 1
寄 1
嘎@@ 1
砍@@ 1
さ 1
喉 1
磷 1
婴@@ 1
帳 1
ital 0.06105512567685042
赦@@ 1
Sal@@ 0.05696315696097124
耕 1
闲 1
优 1
浴 1
Ag@@ 0.10640089472741378
idae 0.07199201762266155
瑛 1
侏@@ 1
撑 1
Sec@@ 0.06158002832299091
委员@@ 1
悦 1
凍 1
凭 1
work 0.03227708253422773
渝 1
ins 0.02813795480447098
茹 1
霆 1
缪@@ 1
罐 1
² 0.09782235773903643
ino 0.04298757288977715
惧 1
low 0.04068873131858449
椭@@ 1
Cal@@ 0.08967761711890868
湧@@ 1
貼@@ 1
1848 0.435206643871165
Uni@@ 0.16414832477325886
趁 1
ung@@ 0.04655455821131867
du@@ 0.032647032800139426
1873 0.480141584306412
淹 1
fo@@ 0.061120817708246414
ama 0.050790067160612795
猿 1
1878 0.43218719032851993
ki@@ 0.08070324608545844
专 1
dia 0.1261456457782471
膛 1
襄 1
ail@@ 0.038126890048018565
ا 0.14627382350557033
篡@@ 1
溶 1
禹@@ 1
鞋@@ 1
が 1
ator 0.06710506450971068
て 1
僑@@ 1
鞏@@ 1
朔 1
涼 1
汪 1
浸 1
擺 1
諡 1
笼 1
National 0.04114807819276369
1864 0.4433770533379328
1879 0.4608546429517164
悼 1
牢 1
翔@@ 1
锁@@ 1
钩 1
1877 0.4744614769412012
缝 1
莽 1
Is@@ 0.05403696267877588
Gre@@ 0.057899666936857705
up@@ 0.04257646407134226
き 1
ry 0.07394381955314965
苔 1
ten@@ 0.017875159295041503
穷@@ 1
羞@@ 1
袋@@ 1
剖@@ 1
甜 1
鴉@@ 1
out 0.020803774567224608
bu@@ 0.04282402145397809
彎 1
窩 1
狸 1
蕩 1
丢@@ 1
屡@@ 1
畅@@ 1
虞 1
the@@ 0.03210910485369531
岐 1
皖@@ 1
禽 1
芜@@ 1
颗@@ 1
择@@ 1
綴 1
泵 1
雇 1
ba@@ 0.03783461521759783
amp@@ 0.04268388059912423
匡@@ 1
Lim@@ 0.19448351635753927
掉@@ 1
琅 1
芯 1
蔚@@ 1
庚 1
溢@@ 1
1875 0.46435540546586396
net 0.11138987935092884
釐 1
1865 0.44130044920974865
涨 1
籠 1
1882 0.4396207725895047
杭 1
City 0.052263764994913746
肠 1
ky 0.09466942797581954
晤@@ 1
剪 1
畴 1
crip@@ 0.1035068388373562
go@@ 0.026066800138915873
酵 1
its 0.009718498564551755
1881 0.4291539273123679
za 0.04956680925552479
挡 1
Mer@@ 0.07231145460088374
茜 1
ese 0.03193154058664254
鹃 1
磚@@ 1
ng 0.21067544992728351
糧 1
aj@@ 0.041473501049128475
隕@@ 1
oy@@ 0.04674848794098663
綿@@ 1
霧@@ 1
beg@@ 0.047678062732628854
鬧 1
冤@@ 1
傲 1
ket 0.09450533533828663
鸿 1
滴@@ 1
Bro@@ 0.06943964830117008
tel 0.10338564412594789
胰@@ 1
鰓 1
ish@@ 0.04250873884566352
谥@@ 1
酵@@ 1
com@@ 0.012301770200965718
堊@@ 1
窦@@ 1
虐 1
樸 1
邹@@ 1
Lu@@ 0.06260459177177023
igh@@ 0.04160259960709575
蝠@@ 1
At@@ 0.07250780365520418
礁@@ 1
岁@@ 1
戚@@ 1
Wo@@ 0.0905664361514135
梓 1
Fe@@ 0.12817020392879253
岑 1
墮@@ 1
麾@@ 1
孵@@ 1
猶 1
糟@@ 1
name 0.03717670766967069
迟@@ 1
喻@@ 1
邱 1
汾@@ 1
IX 0.5495339173268484
呂 1
ab 0.043553918353239685
ke 0.03538980583947007
曉 1
Tri@@ 0.07482035092960937
棵 1
Cap@@ 0.08250120659300239
濕 1
鹤 1
姜 1
鍊 1
宠@@ 1
菸 1
俾@@ 1
鰕 1
Medi@@ 0.0952985764637651
逗@@ 1
挫@@ 1
敷 1
钧 1
鹅 1
Wal@@ 0.07183712141725515
扇@@ 1
贴@@ 1
顱 1
埗 1
辈 1
黜 1
趨 1
old 0.029883817789247123
奸@@ 1
莓 1
蚌@@ 1
鑒 1
ach 0.024209064754888238
蔭@@ 1
1874 0.4533090076746518
Entertainment 0.33151032866479685
彻 1
ey@@ 0.06762649562002639
裙 1
豁@@ 1
app@@ 0.048246707015970704
焊@@ 1
頜 1
kh@@ 0.0429376338766387
炼@@ 1
企 1
1863 0.4333798360909151
苻 1
詐 1
諧 1
fl@@ 0.023550805634135752
oth@@ 0.06977868031863313
Mal@@ 0.052437456348755594
岬 1
ら 1
虫@@ 1
蕨@@ 1
攔@@ 1
篤 1
叙 1
烃 1
シ 1
脆@@ 1
蕭 1
Mi@@ 0.08537801847084227
喪 1
偽 1
谦 1
阱 1
壟@@ 1
enn@@ 0.033145419308014255
1872 0.4500397779287724
Cy@@ 0.18819579760564073
袁 1
斬@@ 1
osa 0.10098579119682664
Trans@@ 0.10352721733424759
System 0.24181833101807457
箕 1
陡@@ 1
Tur@@ 0.05037252020081952
霜 1
ave 0.04567860751108257
har@@ 0.050635053873816394
Kar@@ 0.055828777178241765
艱@@ 1
鸭@@ 1
wid@@ 0.10807895221143861
ita 0.061030772663213925
屢@@ 1
昏 1
腎@@ 1
厭@@ 1
Sam@@ 0.10151861335082416
澀 1
貶@@ 1
紧 1
羌 1
骗 1
聶@@ 1
酚 1
ge@@ 0.015920369177786768
芹 1
鸦@@ 1
哀 1
mer@@ 0.02613414581279195
帛 1
illa 0.07374576986222217
巳 1
鹰@@ 1
祿@@ 1
哭@@ 1
fr@@ 0.023006895698154575
厲 1
碘@@ 1
Son@@ 0.12822255382528164
鰻 1
扶 1
鶴 1
ene 0.03132832701851187
ha 0.04411083775243544
ello 0.13923347692610336
屑 1
It 0.01308338147236549
ber 0.07045562620724687
汀@@ 1
讽@@ 1
稽@@ 1
楠@@ 1
沦@@ 1
铝 1
炒@@ 1
St 0.1373884036678977
ut 0.04844043932946488
咬@@ 1
闸@@ 1
agr@@ 0.17056632017152726
娟 1
孜 1
鋒@@ 1
盪 1
Sho@@ 0.2275716800881213
遺 1
盲 1
嵩 1
椰@@ 1
篷 1
All 0.07617716800399706
姦 1
禱 1
George 0.07895207993191303
梳@@ 1
闡@@ 1
饒 1
頌@@ 1
濒 1
萼 1
ash 0.14746942051021047
俠@@ 1
Hu@@ 0.11487664865027851
Bas@@ 0.07130444862061816
壹 1
く 1
轩 1
Gar@@ 0.06984005157360358
ani 0.0860861354289762
禅 1
簽 1
茹@@ 1
Mel@@ 0.10047405560109027
棣 1
衔@@ 1
媛 1
槟@@ 1
琼 1
駿@@ 1
齋@@ 1
玲@@ 1
ane 0.05538744466875114
亥 1
稣@@ 1
醚 1
鬱 1
鹹 1
ere 0.03236978193151312
ax 0.32859367621625324
夥 1
酪 1
孤 1
幌 1
绥 1
跤 1
浚 1
kg 0.3364060896359165
兽@@ 1
湛 1
钓@@ 1
皋 1
陛@@ 1
妨@@ 1
缮 1
鱷@@ 1
La@@ 0.1075977204596833
を 1
賺 1
傀@@ 1
ited 0.05158504694592007
幡 1
ement 0.011112759417788238
舅@@ 1
淫 1
趣@@ 1
濾@@ 1
括@@ 1
Club 0.07719028756857313
坏@@ 1
尉@@ 1
帖@@ 1
mer 0.03014293780619455
曙@@ 1
忆@@ 1
厌@@ 1
跋@@ 1
鵝 1
COVID 0.33633109242904036
淑 1
滙 1
衰 1
ao 0.08610702328734744
锅@@ 1
猩@@ 1
怨@@ 1
盎@@ 1
漠@@ 1
釀@@ 1
龟 1
ope 0.11976238646775816
Ros@@ 0.07715853642247429
my 0.11360991839236548
窮@@ 1
葫@@ 1
1869 0.4441252199203797
巨 1
粗 1
辯 1
徑@@ 1
ala 0.06866756929999968
ual 0.04231395765596251
妖 1
傘@@ 1
傲@@ 1
尸 1
甫@@ 1
驱 1
lar@@ 0.030366163606644427
磚 1
Time 0.25709781137372545
ls 0.11936399815266432
奕@@ 1
1866 0.34471745452098373
瑶@@ 1
Mark 0.17260447950882973
wer@@ 0.026609726250741702
麒@@ 1
カ 1
羌@@ 1
剿@@ 1
鯨@@ 1
戟 1
侮@@ 1
こ 1
渗@@ 1
龚@@ 1
閻@@ 1
塵@@ 1
丧 1
寻 1
尧 1
瘟@@ 1
蠻 1
溴@@ 1
壶 1
膽@@ 1
炬 1
辣 1
γ 1
闵@@ 1
掘@@ 1
恕 1
ars 0.041297310374269265
vo@@ 0.02997461961402925
剌@@ 1
On 0.02081310254588603
丙 1
峨@@ 1
ble 0.045300512913655444
妈 1
紳 1
鈴 1
僕 1
贿@@ 1
頜@@ 1
ich 0.030588899111070572
弧 1
崁 1
SC 0.24974234845169563
for@@ 0.01531659551519276
财 1
沫 1
sa@@ 0.029348733675898894
晃 1
錐@@ 1
Center 0.11756514967257
琵@@ 1
鎌 1
Mus@@ 0.04587215027931037
疯@@ 1
Show 0.24941331088706994
赌@@ 1
冕@@ 1
拦@@ 1
奮 1
碩 1
汞 1
諷@@ 1
譬@@ 1
als 0.006240315246742335
卻@@ 1
渊@@ 1
tions 0.013861388523641093
洽 1
隐 1
肾@@ 1
逢@@ 1
沁@@ 1
み 1
峇 1
鷹@@ 1
莆@@ 1
yth@@ 0.1656175491551338
瑜@@ 1
溴 1
Bor@@ 0.06034589889770453
ve@@ 0.032463343213619524
阮 1
por@@ 0.024544223012352227
Park 0.07227657329576324
濒@@ 1
酋 1
Del@@ 0.08997266639504592
dio 0.0939217215715484
桨 1
ha@@ 0.05699824767453753
袖@@ 1
姚 1
懋@@ 1
萱 1
Games 0.17238650336107678
Star 0.17308893703320838
勿 1
隅 1
tro@@ 0.03137769692090612
勉 1
タ 1
Reg@@ 0.027263723776079288
ides 0.0690755479288213
汐 1
ac 0.08972146483999184
歼 1
梭@@ 1
苷 1
敷@@ 1
耆 1
time 0.01625542991810192
ative 0.026895969158411626
敢@@ 1
Tun@@ 0.2056841048332267
Produc@@ 0.16274277173867358
Proj@@ 0.1493583931069163
肝 1
蟾 1
妥 1
巖 1
ies 0.02584222605663226
mac@@ 0.2374885546530904
Cas@@ 0.06588142167323402
Charles 0.07554598399085787
〇 1
201@@ 0.6387779912948003
瀕@@ 1
贩@@ 1
栓 1
飽 1
ense 0.07877557912407665
驟 1
Gen@@ 0.089389017962085
Thomas 0.08232033092899005
啶 1
睿 1
ting 0.018527667796391555
Es@@ 0.06323050168981234
air@@ 0.02898432725753811
糙 1
颂 1
ロ 1
咬 1
嵩@@ 1
詔 1
舷 1
哪 1
藓 1
彤 1
堰 1
沂@@ 1
驳@@ 1
匿 1
壮 1
滥@@ 1
聪@@ 1
鋸@@ 1
瓊 1
兀@@ 1
熹 1
膝@@ 1
腕 1
que 0.0028030753880561457
橘 1
Sil@@ 0.0861058455331417
跆@@ 1
Bel@@ 0.041837634225793244
adi@@ 0.03990564319335105
餓 1
硅 1
ium 0.15195709427743595
剖 1
沸@@ 1
鯊 1
鴨@@ 1
僕@@ 1
泣 1
Pres@@ 0.07737327704422692
阁@@ 1
戮 1
no 0.014358667254262207
撲@@ 1
棲 1
Sci@@ 0.09203791274908461
垄@@ 1
淫@@ 1
饮 1
狸@@ 1
婭 1
惹 1
Kr@@ 0.0452199950394661
炭@@ 1
烷@@ 1
砍 1
あ 1
埠@@ 1
苣 1
妍 1
蔚 1
梗 1
Air@@ 0.10034610767010613
眷@@ 1
匾 1
臟@@ 1
ff 0.11055477863625221
傣@@ 1
肋@@ 1
ero 0.053229392727357036
壞@@ 1
谍 1
荀@@ 1
Tel@@ 0.10218078580897204
楷 1
麟@@ 1
黔@@ 1
墳@@ 1
hu@@ 0.04891338567504885
mo 0.09879121691046669
ジ 1
吗 1
樱@@ 1
滇 1
eli@@ 0.07637256255823083
烂 1
1830 0.4504317208760675
嶽 1
蛤 1
霄 1
糊@@ 1
溜@@ 1
販 1
で 1
竺 1
倚@@ 1
硒 1
舅 1
ford 0.05273230988751524
ki 0.07257006225532715
烤@@ 1
畿@@ 1
祸 1
Street 0.08255634597615348
罐@@ 1
讓@@ 1
琪@@ 1
竊 1
lan@@ 0.03288040560305978
ning 0.037850362188267664
惊 1
Peter 0.09133906538795575
沛@@ 1
wor@@ 0.02145499979024356
倆 1
潜 1
ym@@ 0.04719944007035566
唯 1
埕 1
Media 0.22580886730087907
矛 1
蚤 1
ari 0.09563838688022137
謎 1
High 0.08352243396722442
扰@@ 1
舵 1
College 0.05540502903216893
棕 1
吊 1
鶯 1
戎@@ 1
aci@@ 0.03129975807573722
榕 1
op 0.05473071162479962
Life 0.1430905919139998
誅 1
魨 1
吡@@ 1
颈@@ 1
ection 0.033795665426815134
沼 1
Red 0.12966628537110364
駁@@ 1
枕@@ 1
酰 1
瘦@@ 1
虔@@ 1
颖 1
氛@@ 1
aus@@ 0.015756513207836626
慨 1
须@@ 1
Can@@ 0.07125342019610327
π 0.854350290088879
ze 0.02892004815878195
dy 0.10622436898338376
猩 1
悲 1
摺 1
霉@@ 1
骆@@ 1
謹 1
擢@@ 1
竖@@ 1
峯 1
晏@@ 1
炳 1
翟@@ 1
uk@@ 0.04303897287317003
塗 1
擴 1
巷@@ 1
焉 1
睦 1
House 0.06703484982015172
鑫 1
ath 0.07357564824688816
FA 0.2534773466594245
du 0.004458762701200136
咪 1
寂@@ 1
懿@@ 1
va 0.04826454668707924
肠@@ 1
褲 1
Techn@@ 0.12534395178153654
Im@@ 0.07587912646403396
笛@@ 1
窑@@ 1
雛@@ 1
脸 1
鑲@@ 1
罷 1
恪 1
抹 1
ド 1
撥 1
Sc@@ 0.1275066064956235
币@@ 1
镶@@ 1
お 1
マ 1
Man 0.1386559173130529
cul@@ 0.02515745569062287
煩 1
胃 1
Ger@@ 0.03368510449087111
cu@@ 0.017327231032592795
Big 0.1678094010682455
tra 0.08040666848435588
谦@@ 1
軒@@ 1
諷 1
倖@@ 1
lo 0.017899572293294804
逻 1
厨@@ 1
齡@@ 1
val@@ 0.03357674836374437
ote 0.0447721781942337
鈉 1
now 0.04516624522547019
retur@@ 0.08180742723641415
殷 1
Sur@@ 0.10442164970860608
侖 1
ony 0.06683980719904961
钥 1
妓 1
遼 1
鯛@@ 1
陌@@ 1
Tor@@ 0.054512264994756324
誦 1
ada 0.012284274276118851
れ 1
elle 0.011458750719370862
尿 1
ico 0.0290103978725347
詠@@ 1
Cam@@ 0.07951512857382947
ger 0.03003588343230912
Red@@ 0.15729439490862737
闲@@ 1
曦 1
ori@@ 0.03688503293557284
櫃@@ 1
瑩 1
King 0.07903878047842258
No 0.12174477463876152
娄@@ 1
拼 1
爷 1
Em@@ 0.05964073379106744
AG 0.27504219014880416
棺@@ 1
毯 1
腥 1
鵡 1
屢 1
皓 1
羚 1
ster 0.043782345228050114
衆 1
滯 1
鞘 1
虛 1
倖 1
炒 1
暨@@ 1
泾@@ 1
tw@@ 0.04272805679968228
莞@@ 1
諡@@ 1
Ben@@ 0.06575435862900404
吻@@ 1
梗@@ 1
煮@@ 1
Richard 0.10033553758691914
黔 1
□ 1
噬 1
Bre@@ 0.06872152603894309
窝 1
蛮 1
辰@@ 1
aria 0.08943485855377195
矽@@ 1
祷 1
ler@@ 0.02486365232365593
賄@@ 1
伞@@ 1
長@@ 1
毘 1
ven@@ 0.022630746398810974
铝@@ 1
渣@@ 1
铃@@ 1
凍@@ 1
樺 1
si 0.05654481714780917
丕 1
誼@@ 1
抹@@ 1
曜 1
债 1
涂 1
绳 1
ents 0.012159694085844315
盒@@ 1
レ 1
卤@@ 1
col@@ 0.017067767800817858
睿@@ 1
饶 1
腿@@ 1
谣 1
躲 1
ord@@ 0.029491429564706677
俱 1
渲@@ 1
San 0.0379817137386377
卉 1
磺@@ 1
沐@@ 1
顎 1
inter@@ 0.010276098423230781
忽 1
殘 1
笨@@ 1
ov 0.08748974086795001
央 1
嫩@@ 1
訥 1
纜 1
块@@ 1
Ul@@ 0.11883032171222899
匪@@ 1
稿@@ 1
鉤 1
披 1
祺@@ 1
fin@@ 0.012597330821019798
疹 1
钙 1
ww@@ 0.6723485181202645
λ 0.27589776327606447
綏@@ 1
鱗 1
崖@@ 1
Hor@@ 0.07547086450294903
叱@@ 1
淚@@ 1
key 0.09872839892498322
摸 1
Sof@@ 0.216193379285534
mp@@ 0.0638627464650436
諒 1
鹅@@ 1
毆 1
铸 1
禺 1
饲@@ 1
証 1
鏈@@ 1
tor@@ 0.02257329437079173
氦 1
鄧 1
Company 0.08768943467302162
帐@@ 1
berg 0.03951876480457167
晖 1
皈@@ 1
焚 1
穹@@ 1
鍋 1
隼 1
攬 1
Ir@@ 0.04196439227141122
anth@@ 0.14032130778261045
釘 1
ni 0.05868339121681198
ota 0.07376492773233045
禽@@ 1
虚 1
鄞@@ 1
骤 1
纬@@ 1
chi@@ 0.05592929786126208
靼 1
○ 1
ro 0.05864161112407124
籠@@ 1
妄@@ 1
湄@@ 1
肚 1
銳@@ 1
裸 1
XX 0.24349843071762223
sol@@ 0.015883571612626463
Dev@@ 0.08391138087934882
bit 0.20828765556385898
执 1
cre@@ 0.016753510772418292
苔@@ 1
ち 1
嬪 1
畝 1
pol@@ 0.03379428486695215
虾 1
皖 1
萝@@ 1
Astr@@ 0.2652595922583811
脏@@ 1
row 0.10681843233327085
儡 1
颈 1
溺@@ 1
辜 1
Op@@ 0.11471269000155855
缆 1
坤@@ 1
Vo@@ 0.1284034202218524
祚 1
鈾 1
軼@@ 1
崙@@ 1
憩 1
胖 1
乍@@ 1
氨 1
China 0.07738180986667523
藔 1
忒 1
毙 1
穗@@ 1
臻 1
篮 1
踏 1
劝 1
濁 1
蛙@@ 1
傭@@ 1
敕@@ 1
Hi@@ 0.0998482414616937
稠@@ 1
辩 1
ser@@ 0.01942996533076951
ο 0.029960388029099734
American 0.02324709521082165
坍@@ 1
ç 0.20331341742925166
拷@@ 1
ney 0.05151872277600831
庾@@ 1
肛@@ 1
Air 0.0888140946750491
犁@@ 1
Luc@@ 0.12046073532731048
ates 0.01988601714727061
壺 1
tle 0.05440799289215351
fol@@ 0.029770210037504054
諫 1
Christ@@ 0.07356725933962122
鸦 1
tin 0.05449436218078061
緝 1
eta 0.08487186491620777
斧 1
欄@@ 1
豎@@ 1
謹@@ 1
駱@@ 1
type 0.08890695591789212
沮@@ 1
諧@@ 1
趟 1
暉 1
滬@@ 1
猫@@ 1
Fin@@ 0.04739817658545865
Ke@@ 0.11135286563293624
溃@@ 1
汴@@ 1
揆 1
磊 1
Sim@@ 0.09113178666388712
lock 0.10910309283734324
忌@@ 1
雍 1
van 0.08359145408275934
丸@@ 1
ura 0.05960270869886564
匀 1
洩@@ 1
nam@@ 0.029034678127550343
硼@@ 1
Day 0.14837907333209158
勘 1
苓 1
Eng@@ 0.09864827552962349
ision 0.04428471838944653
們@@ 1
啸 1
窝@@ 1
筹 1
蜴 1
ock 0.0739344655789849
± 1
iss@@ 0.029400513806349955
mi 0.07979379635748761
窃 1
鍋@@ 1
锦 1
ign 0.04287422134224386
Direc@@ 0.101857991813036
Vol@@ 0.08369657415158284
ports 0.04737345243995032
霜@@ 1
夠@@ 1
淤@@ 1
蒲 1
ign@@ 0.02368379355748767
哨@@ 1
閃 1
嗜@@ 1
繹 1
舜 1
敛 1
囚 1
筒@@ 1
耦@@ 1
谕 1
ust 0.0875570041337217
濾 1
tar@@ 0.029137040415574654
斃 1
昊 1
绪@@ 1
菁@@ 1
楓 1
蔷@@ 1
龄@@ 1
Wat@@ 0.10447116442448451
姻@@ 1
溥@@ 1
珂 1
寨@@ 1
隍 1
ally 0.009948918277365526
攤@@ 1
湊 1
锌 1
ism 0.04898799098547493
Kh@@ 0.06331565352995586
not 0.010899841993031161
alis 0.2515156152960991
tro 0.07698305535232519
â 1
偿@@ 1
抑 1
漕@@ 1
茜@@ 1
饒@@ 1
ros@@ 0.05999833093045984
sel@@ 0.019028358209101186
淄@@ 1
of@@ 0.03735775006743854
伞 1
珪 1
逊@@ 1
ith 0.09139215701941493
缔@@ 1
鱈 1
Al 0.07320183482900039
咒@@ 1
冻@@ 1
淞@@ 1
狱@@ 1
Ni@@ 0.09143750851330448
肆@@ 1
剂@@ 1
Vis@@ 0.20357407715472253
肽 1
毋@@ 1
懂@@ 1
Oper@@ 0.09372013872786872
榕@@ 1
ola 0.07568338037696895
汰@@ 1
ye 0.05548003872758189
顏 1
奋 1
ef@@ 0.021309171433201497
von 0.003857645620984849
right 0.06343774530909203
弊@@ 1
Je@@ 0.044145615318609915
ista 0.03640333077361087
乞 1
Ri@@ 0.06778862460216155
ú 0.1187881251236642
淀 1
も 1
尧@@ 1
槳 1
捧 1
峭 1
繡 1
銜@@ 1
Road 0.09226995874627374
ast@@ 0.03502795573886645
蔗 1
郸 1
洁@@ 1
Andre@@ 0.0950505853126163
龔@@ 1
mag@@ 0.03714413653211198
冀 1
馳 1
Sk@@ 0.14032374235679076
愚 1
厘 1
鋁 1
绳@@ 1
fac@@ 0.021424312006343274
嘎 1
沫@@ 1
铅@@ 1
鴉 1
low@@ 0.030771292506662738
pre@@ 0.016033108902307875
ture 0.023429121898408987
侃 1
new 0.020255206349390823
樞 1
Pow@@ 0.14783339065029452
Pri@@ 0.05651280811129161
bre@@ 0.02418458329890319
厉 1
鳞 1
ce@@ 0.03524344893267408
尘 1
纏 1
坊@@ 1
浑@@ 1
圃 1
肚@@ 1
Sa@@ 0.07634275276880427
鹼 1
ange 0.04759365645218331
祺 1
莒@@ 1
匾@@ 1
靶@@ 1
hi 0.07388608706684975
濬 1
class 0.0875561483184799
唤 1
壹@@ 1
搖 1
椅@@ 1
潰@@ 1
邓 1
厲@@ 1
稳 1
膝 1
臧@@ 1
Mis@@ 0.06568941611104614
繆@@ 1
Bal@@ 0.05374331116686779
oo 0.2568654563285314
ters 0.02483882121102704
扯 1
琰 1
Force 0.12724411420418155
谥 1
ee 0.0776591690510536
龟@@ 1
Sing@@ 0.06932875645109508
オ 1
Ter@@ 0.06732038731217949
ady 0.0668711885079024
誇@@ 1
諱 1
謠@@ 1
艷@@ 1
绵 1
oma 0.08015605708195751
cap@@ 0.024927472831641498
匈 1
綿 1
敕 1
诞 1
锐@@ 1
忧@@ 1
铅 1
arg@@ 0.0496454329505852
拾@@ 1
筛@@ 1
form@@ 0.015992311116893067
rel@@ 0.012398353699506166
ville 0.029954308150719384
廊@@ 1
wood 0.06644868222609263
腎 1
妝@@ 1
ors 0.017434627487519606
sy@@ 0.044477499287593696
闯@@ 1
鲸 1
ds 0.027910166057644677
溥 1
笙 1
ever 0.044578247985703395
柜 1
鳩 1
劑@@ 1
Chi@@ 0.06802958966026895
妈@@ 1
amm@@ 0.03086203360949926
pa 0.12840907918771943
脸@@ 1
à 0.002663908115395939
琶 1
铀 1
フ 1
嶺@@ 1
锂 1
郵 1
Pas@@ 0.09194347653284489
Ti@@ 0.06522971366534634
king 0.02763384740771437
廂@@ 1
眷 1
蠟@@ 1
iki 0.15333519527219866
σ 1
沁 1
芽@@ 1
厭 1
蕴@@ 1
tel@@ 0.02774158714919662
瀛 1
猜 1
圻 1
颠@@ 1
Sm@@ 0.18254353914593094
檻 1
Mil@@ 0.05768741339221796
腔@@ 1
赶 1
War@@ 0.0671767117888401
摘 1
泌@@ 1
鸭 1
Bus@@ 0.08565949287761711
у 0.012251236941335328
兜@@ 1
蚊@@ 1
谊@@ 1
鼬 1
so 0.016640050714164925
勛 1
Hall 0.08649471705874216
field 0.039926406796303666
戍@@ 1
泸@@ 1
汲@@ 1
匡 1
潼@@ 1
鞭 1
挑 1
ε 0.16660369425575142
叡 1
嘆 1
del@@ 0.036730095546899315
д 0.01885754994751637
oni@@ 0.04696784472983441
ding 0.048022050836328045
鹼@@ 1
Rec@@ 0.06032998654559808
绒 1
儂 1
Pre@@ 0.052897245764740516
well 0.021233417555048244
Au@@ 0.03945760710597516
闊@@ 1
ales 0.010156352628496498
絮 1
穎@@ 1
ρ 0.21020347803231687
Sou@@ 0.05962251958789291
ل 0.09326722965020685
← 1
裘@@ 1
暢 1
Vid@@ 0.1975347231576003
垦 1
庇 1
悔@@ 1
侠@@ 1
衢@@ 1
赣 1
扑@@ 1
烘@@ 1
畸@@ 1
輩@@ 1
佑@@ 1
励@@ 1
紳@@ 1
鉛 1
肋 1
萎@@ 1
帥@@ 1
悚@@ 1
蘿 1
ash@@ 0.05512264822947979
瞿@@ 1
沂 1
鯊@@ 1
惹@@ 1
ko 0.08387289558826334
厉@@ 1
霰@@ 1
Ru@@ 0.08819696487466008
飢@@ 1
sub@@ 0.016391805377934568
悖@@ 1
pos@@ 0.011972892299903804
South 0.03333024074486799
昧 1
ex 0.1286767342392805
稷 1
晤 1
Hel@@ 0.08378004576623109
迹@@ 1
夹 1
edi@@ 0.027779512508131442
靴 1
逾@@ 1
Association 0.06759387541929494
Records 0.0914186302738736
inal 0.05293273491301069
ei 0.06933417737801166
騙@@ 1
恤 1
É 1
ν 0.15394854698888244
辜@@ 1
飘@@ 1
绎 1
Mot@@ 0.066940837543506
乏@@ 1
鈣 1
鑿 1
齣 1
Web@@ 0.16778598096283018
ja 0.042798273518192174
use 0.017847350157704778
Vir@@ 0.1300559334423344
吟 1
ici@@ 0.022041161095959085
Ob@@ 0.07150690282746544
劲 1
邑@@ 1
譚 1
苷@@ 1
頑@@ 1
靡 1
ette 0.045215934764870624
菁 1
擱@@ 1
燦@@ 1
搏@@ 1
day 0.024966967183430642
play 0.03975989263595844
芮@@ 1
遙 1
Rob@@ 0.10459511690970928
す 1
姪 1
岔 1
惱 1
簧@@ 1
馈 1
mann 0.04718421236807343
茉@@ 1
Pan@@ 0.07988532909030273
吟@@ 1
況@@ 1
遵 1
锥@@ 1
枫@@ 1
驰 1
public 0.02921897508342943
‰ 1
賃 1
敘 1
煉@@ 1
磐@@ 1
虧@@ 1
棺 1
馳@@ 1
濠 1
萧 1
遴@@ 1
甦 1
碉@@ 1
庸@@ 1
North 0.040024584249569437
殲@@ 1
annel 0.11680015366722456
颖@@ 1
嘻@@ 1
撃 1
骂 1
鬍 1
鲤@@ 1
Rus@@ 0.03030467926148945
聪 1
︰ 1
Roc@@ 0.1178609710779452
ez@@ 0.03683820474154252
濮@@ 1
Best 0.10223440887398828
Le 0.009706320721886737
Sar@@ 0.07480393173198048
楷@@ 1
濁@@ 1
瑤 1
暱 1
産 1
じ 1
咽@@ 1
陋 1
this 0.011238529619883017
薰 1
噸@@ 1
ny 0.12029511470710715
war@@ 0.029846890194662197
Black 0.09548218397348306
cl@@ 0.02199875434256963
櫻 1
Dig@@ 0.21506228318841508
朽 1
蒋 1
Sum@@ 0.07317502779012253
Na@@ 0.16266533099261626
坟@@ 1
ian 0.03414845318647495
Max 0.1784172594342084
ke@@ 0.034355147802625795
rec@@ 0.012299918097704548
傾 1
毫 1
try 0.034925439798454305
WWE 0.465313579509106
几 1
侬 1
礙@@ 1
纜@@ 1
臭 1
鈕 1
濃 1
绣 1
Mad@@ 0.06120632678561262
糯@@ 1
Dar@@ 0.054041002047047905
佣 1
僱 1
浜 1
anti@@ 0.031131761949935197
Du@@ 0.06542228839710329
Mir@@ 0.12063538879498027
trans@@ 0.017337831859836502
渥@@ 1
谨@@ 1
mat@@ 0.02223487585059651
楔@@ 1
潞@@ 1
铃 1
Lee 0.12560091734262174
憤 1
脆 1
酬@@ 1
蒸 1
薹 1
fe@@ 0.019836128658956384
煥 1
鑲 1
棱 1
Lit@@ 0.09336874216902724
len 0.03324049784051858
凸 1
cal 0.05946808592440143
紗@@ 1
驾 1
New@@ 0.08363463174899888
Tal@@ 0.12044446617732339
萌 1
雁 1
Ear@@ 0.042488069830443974
ira 0.07814351770910666
芷@@ 1
ison 0.03224907784036243
Don 0.14338153099085343
ep 0.06430600735937649
枣@@ 1
ez 0.04383130944192067
ã 0.49258090870140675
绒@@ 1
ô 0.15170342473360987
佣@@ 1
Fran@@ 0.03981854684533667
reg@@ 0.014896960774834767
キ 1
羧@@ 1
覓 1
go 0.03765392914286876
灌 1
瞻@@ 1
弈 1
汕 1
To 0.1038257727799445
Henry 0.08027704886866173
Jean 0.05025698339289749
嬰 1
loc@@ 0.02177509819953231
佬 1
Internet 0.20904932653359215
隘 1
猷 1
pha 0.2856035749501185
墊 1
斡@@ 1
羲 1
遏@@ 1
烦 1
裳 1
鳍 1
uz@@ 0.04666144392704438
尘@@ 1
tes 0.013884878566933267
搁@@ 1
皂 1
ted 0.008362669167686257
っ 1
夭@@ 1
膺 1
駝 1
哆 1
朋 1
閔@@ 1
滋 1
ech 0.08986119931652123
凹 1
詛@@ 1
other 0.009803250794226157
ula 0.19938111894178723
扔 1
ime 0.048048336681367015
橙 1
浑 1
跡@@ 1
胺@@ 1
Aut@@ 0.05723551063310969
tur@@ 0.013334699866896737
岔@@ 1
爺@@ 1
磺 1
bert 0.06660543169778663
ems 0.039283082497031906
tem@@ 0.030730054014297268
晟 1
檀 1
磐 1
绰@@ 1
奚@@ 1
栖 1
粵 1
苑@@ 1
逵 1
驕@@ 1
sen 0.030213858764810177
畅 1
缅 1
貸 1
eri 0.1190691783496276
滄@@ 1
苟@@ 1
つ 1
詹 1
ema 0.07791072921530383
蜡@@ 1
United 0.0184875079691335
up 0.015282128135778948
倦 1
茄@@ 1
м 0.00660421672858618
ミ 1
燮 1
ace@@ 0.15499335374984036
face 0.04379492708214354
cer@@ 0.019023528637994842
own 0.03303834382770086
卧 1
偕 1
冻 1
bor@@ 0.02756441167413364
ii 0.3499214625273978
芸 1
挫 1
锅 1
Gl@@ 0.0572946867204989
ida 0.033191492161070785
挤 1
ms 0.04495016712523429
兑@@ 1
钊 1
Chin@@ 0.07870324760641999
aga 0.10988689235681706
樵 1
ature 0.03002497549423901
ets 0.020362138703788744
tis 0.1128848868190348
歲@@ 1
贿 1
寅@@ 1
冶 1
滞@@ 1
煞@@ 1
Joseph 0.07403143484233943
滤 1
璽 1
瀋 1
肪@@ 1
δ 1
蹄 1
azine 0.0780242937872881
light 0.05425009211179272
汐@@ 1
Martin 0.07910201966221321
Prot@@ 0.08225075399422813
兇 1
渣 1
耐 1
コ 1
Tre@@ 0.07074644693035116
att@@ 0.011874521291869038
τ 0.18115826708254146
吨@@ 1
Ki@@ 0.11477305233759429
叢 1
稚@@ 1
镍 1
Cur@@ 0.08302071617437681
eci@@ 0.06862451079897644
els 0.025437099623755278
vol@@ 0.01850694734957358
甥 1
萃 1
侗@@ 1
濂 1
竿 1
躺 1
昨@@ 1
壕 1
蒐@@ 1
凶 1
靂 1
Pu@@ 0.07013658609553174
sur 0.009340730796372362
呆 1
Ca@@ 0.14188434309607395
ond@@ 0.026604849847364106
鬱@@ 1
her@@ 0.014571441885611337
inn@@ 0.02655034741221729
km@@ 0.10931299384780092
鰻@@ 1
勐@@ 1
壢 1
绑 1
谟 1
謨 1
寰 1
Lev@@ 0.14294499686551213
鲨@@ 1
洙 1
菅@@ 1
潑 1
瞻 1
顽@@ 1
ond 0.04535579327598154
佚 1
谐@@ 1
ster@@ 0.0388159525795423
噪 1
帐 1
DR 0.17519379793773338
潍@@ 1
rom@@ 0.03719376006997017
堇 1
Nav@@ 0.0540911467694854
槃 1
猿@@ 1
饋 1
ans@@ 0.04385970950244994
篩@@ 1
鋁@@ 1
Grand 0.06261227137970449
Tom@@ 0.09351440649514975
cur@@ 0.02033918024313142
ft 0.040474854968551244
懸 1
橇 1
斋@@ 1
☆ 1
冗@@ 1
夔 1
ku@@ 0.050150585126245324
窩@@ 1
can@@ 0.023300908508133607
撈 1
ns 0.03152617071587139
冉@@ 1
嫻 1
Hal@@ 0.07107565396512337
^ 1
柑@@ 1
San@@ 0.06645642325432542
兖@@ 1
澜 1
芋 1
River 0.04537326081520776
芥@@ 1
餉 1
砸 1
澈 1
蠕@@ 1
刮@@ 1
鲨 1
睦@@ 1
孛 1
枫 1
薛 1
劲@@ 1
爐@@ 1
Chil@@ 0.12337188143652246
搏 1
臂@@ 1
err@@ 0.04174573631109474
son@@ 0.028435371896853412
敞@@ 1
琮 1
濫 1
贷 1
Vic@@ 0.07572459876428737
ree 0.04732336814145481
緬 1
沽 1
僖@@ 1
妃@@ 1
eter@@ 0.05332524450040678
嘯 1
汙@@ 1
蔭 1
鞑@@ 1
Ur@@ 0.04849330366824824
咤 1
羰@@ 1
蒜 1
ba 0.06245440180169974
Star@@ 0.1324415063611309
泄 1
tim@@ 0.022921337703478418
祉 1
飄@@ 1
Japan 0.07302673525207987
廖 1
魄 1
Ale@@ 0.09217054905972293
bel@@ 0.015787799788624175
ort 0.042506138863078156
吵 1
炫@@ 1
芮 1
Ra@@ 0.10494904543869513
艏 1
苞 1
Mur@@ 0.06588432778507869
ille 0.03260085483120595
凝 1
Mul@@ 0.12540720347414855
埤 1
缝@@ 1
咎 1
緝@@ 1
荫 1
Rem@@ 0.15867174020677366
娛 1
朕 1
骗@@ 1
Super@@ 0.10596670012491821
錐 1
Squ@@ 0.1091879462825178
斛 1
俸 1
Radio 0.10027343712483441
fi@@ 0.013875206370411466
嚇@@ 1
笃@@ 1
餅@@ 1
醋 1
Rad@@ 0.1258001158630614
й 0.007955847950457359
Coun@@ 0.09992864165930883
堰@@ 1
elec@@ 0.024100371273584845
Ham@@ 0.06768405713636677
Mak@@ 0.14952600610325487
穴@@ 1
塌@@ 1
寵 1
渝@@ 1
fre@@ 0.01830299340198765
ς 0.16462290207111174
厝@@ 1
綁@@ 1
諮@@ 1
Que@@ 0.05767687330039593
rit@@ 0.032941044382439506
褚@@ 1
瞞 1
穫 1
铵 1
誘 1
唑 1
孀 1
篠 1
罢 1
鳚 1
Hot@@ 0.12885681549071962
舱@@ 1
Ta@@ 0.08487823000686048
act 0.02801083136626731
テ 1
ide 0.04016754348566842
勻 1
嫉@@ 1
堕@@ 1
ona 0.05203656167229768
ost@@ 0.09913654947782555
勾 1
熵 1
鰈 1
ther 0.015901317194201535
拨 1
枢 1
ple 0.03160489867254488
唔 1
ナ 1
ken 0.019102656506717018
灶 1
锥 1
驼 1
Smith 0.08660346441455219
纏@@ 1
腫 1
Juni@@ 0.1200656943683374
uch@@ 0.028387514878638935
淇 1
薑 1
Bab@@ 0.13497717235669768
This 0.01565028038724737
凿 1
婴 1
捞 1
虔 1
撼 1
谏 1
沌 1
澱 1
酗@@ 1
闽 1
乂 1
紗 1
Jan@@ 0.08512801675104395
pu@@ 0.019287926196111665
侄 1
诬@@ 1
press 0.10277280903979712
嫔 1
竭@@ 1
ī 0.5041741436721435
叹 1
炯@@ 1
isa 0.11830049584497775
lis 0.1082463934183787
戛@@ 1
焕 1
Blue 0.14634180287706675
蘚 1
very 0.02203993461647623
ix 0.06391001795729188
刁@@ 1
竇@@ 1
over 0.013849500987434829
忙@@ 1
鈔 1
--@@ 1
Bri@@ 0.0728859869485998
erry 0.09952289343274381
All@@ 0.08327144225405604
樁 1
Harr@@ 0.077391315190294
tics 0.034691234663386535
墾@@ 1
暮@@ 1
earch 0.04337556660708378
謬@@ 1
struc@@ 0.030458474409815056
ウ 1
鈍 1
Studi@@ 0.05774173453243765
妳 1
や 1
暑 1
薨 1
oll@@ 0.030224266934288133
癮 1
稀 1
豔 1
Nov@@ 0.09717720084704885
attle 0.0491393891124211
ブ 1
檳@@ 1
鑰@@ 1
渾@@ 1
昕 1
Ye@@ 0.08483272315938202
瑶 1
蹈@@ 1
筠 1
貶 1
ution 0.03553696002344552
ι 0.09333153955595937
帧 1
he 0.0036354089480450567
宸 1
酱 1
镁 1
left 0.03802345363624566
縛 1
Tom 0.1392778566325563
煩@@ 1
tical 0.037953340772551525
巔@@ 1
妝 1
幌@@ 1
擠@@ 1
轎@@ 1
ome@@ 0.11293478133873652
tive 0.0384220083137
傭 1
携 1
炀@@ 1
甬@@ 1
粟 1
ple@@ 0.06171090902664538
ful 0.03228624089901217
牽 1
Young 0.12943824383413804
斩 1
糞 1
躁 1
Juli@@ 0.07401642433549015
League 0.02728796896187856
Mem@@ 0.08430138959820488
Sun@@ 0.16585038422364806
樸@@ 1
汝 1
擒@@ 1
篤@@ 1
尬 1
win 0.041823739813569384
俩 1
殭 1
Art 0.055729476800093325
倭 1
荧@@ 1
棚@@ 1
喚@@ 1
摸@@ 1
ñ 1
だ 1
愁 1
釀 1
遮 1
Camp@@ 0.06910144213607984
« 0.003495079951045592
瀉 1
炔 1
fer@@ 0.012715003287344817
ten 0.004496506716125001
谣@@ 1
Eri@@ 0.13265997372806074
West 0.03665368615804907
set 0.03262906652122435
朵@@ 1
饑 1
cus 0.14383056295862773
pro@@ 0.011295560792187994
眶 1
粤 1
耍 1
裙@@ 1
楨 1
Cer@@ 0.06998258933146619
掙@@ 1
殆@@ 1
砌@@ 1
脾@@ 1
iti@@ 0.024778623930031576
form 0.02294850446962782
倾 1
溧@@ 1
訝 1
贖@@ 1
醣 1
gar@@ 0.028353100449015275
悄@@ 1
螈 1
sin@@ 0.039236625871307385
anus 0.24958567766040707
ng@@ 0.029036215689896595
sho@@ 0.016057507246457218
淋 1
綜 1
die 0.0016766511481681539
span 0.3860010143681053
轍 1
ater 0.024164935041926263
State 0.0307049325893133
サ 1
槟 1
泪 1
嘗 1
Clar@@ 0.09050443740260872
牒 1
琥@@ 1
繳 1
雉 1
Elec@@ 0.09662492201077202
Island 0.07035090574522991
勿@@ 1
圾@@ 1
誣@@ 1
aya 0.06903147819985665
洼@@ 1
昱 1
谨 1
氹 1
秃@@ 1
葆@@ 1
蟬 1
褒 1
wh@@ 0.020556781091367902
Cro@@ 0.05914462072418963
渚 1
绞@@ 1
unt 0.054509966237476275
阡@@ 1
輾@@ 1
Blo@@ 0.1244855592954488
pres@@ 0.011453938380854468
吓 1
Sir 0.10572403840550038
onn@@ 0.016199224320871404
耆@@ 1
邏 1
兌@@ 1
綸 1
靳@@ 1
los@@ 0.04964475615062105
妊@@ 1
Top 0.12850943782724553
ids 0.0730336356843901
仆 1
扫 1
粥 1
驿@@ 1
蜗@@ 1
﹐ 1
Not@@ 0.059563831635164155
胖@@ 1
lie 0.06546055255946817
淇@@ 1
鉛@@ 1
sk@@ 0.03078074230850569
嶋 1
蠅 1
彼 1
恥 1
锯@@ 1
駭@@ 1
渥 1
sur@@ 0.012540511907630603
tu 0.18944963976782667
颂@@ 1
ts@@ 0.015285761115786223
诛@@ 1
掷 1
Leg@@ 0.05490716412544667
idge 0.08035692429567498
ima 0.05705306547714413
婺@@ 1
盔@@ 1
壳@@ 1
Ha@@ 0.08693625845112635
Lam@@ 0.13907246537761797
戍 1
榔 1
欖 1
鍾@@ 1
锻@@ 1
ste@@ 0.020249069011032572
挤@@ 1
瞰 1
ua 0.07090036219855168
羚@@ 1
瑋 1
Mich@@ 0.04644046819933359
拌 1
Gol@@ 0.07228767736575673
Steph@@ 0.11148482293076835
ko@@ 0.04766046431475211
謊@@ 1
Institute 0.07140932642186315
ern@@ 0.031031718934249993
des@@ 0.010193343131822118
yan 0.0884936117885877
毗 1
蘆 1
蚁 1
﹑ 1
Dav@@ 0.07517221526468137
檸@@ 1
咪@@ 1
敖 1
闹@@ 1
Eu@@ 0.1521324955007118
self 0.028053259671385045
ω 0.4185535989255051
洽@@ 1
瑄 1
Gro@@ 0.06729552372695584
ム 1
檬@@ 1
韶 1
溢 1
ental 0.023689818789824808
膳 1
脖@@ 1
Sel@@ 0.07526229703984187
Bir@@ 0.07117121285719834
聊 1
豹@@ 1
til@@ 0.026704783845490774
zo 0.0761528075166709
譽@@ 1
Kir@@ 0.04756280633504315
谭 1
ling 0.03799277778051287
楓@@ 1
鲸@@ 1
ine@@ 0.05665628407783275
唸 1
燦 1
鋪@@ 1
Ci@@ 0.04923396736505395
Hum@@ 0.07855512254367658
po 0.0545473250424731
ski 0.05692524274481864
峪@@ 1
Corpor@@ 0.11939102790702912
Asia 0.12934515155765544
che 0.01386868007927557
ties 0.015035530923990079
垮@@ 1
vice 0.054524378217395225
エ 1
泼@@ 1
Bank 0.10651101771918446
プ 1
肤@@ 1
骏 1
Society 0.06886844724091239
put@@ 0.0414602095209687
叻 1
栈 1
sti@@ 0.021704393750689763
惜@@ 1
廬@@ 1
讳 1
盼 1
荡@@ 1
驛 1
eld 0.052702892580290144
ams 0.025530768299296725
top 0.0420269557749358
乎@@ 1
杏 1
硼 1
雳 1
ado 0.005197039640959813
膳@@ 1
饿 1
Eur@@ 0.08267611127579359
mb@@ 0.04126742119921609
碟@@ 1
ins@@ 0.018606548714322373
亏@@ 1
芸@@ 1
媚 1
Jack 0.12084466842871172
攸@@ 1
慷@@ 1
轿@@ 1
wa 0.03652208196250757
och@@ 0.0991759732179743
畑@@ 1
仑@@ 1
庞 1
汾 1
庐 1
摇 1
鋰 1
龕 1
萃@@ 1
蟾@@ 1
Nic@@ 0.0720623967447707
atr@@ 0.03955467628399206
寡 1
残 1
窯 1
隋 1
摆 1
垣@@ 1
縫@@ 1
which 0.004599705741840671
伎 1
桩 1
煥@@ 1
砷 1
诈@@ 1
Av@@ 0.07408370274177697
ole 0.036892954042209505
悍 1
赎@@ 1
Bul@@ 0.06000253213778267
ason 0.07604207806131909
tain 0.022965476089296208
羈@@ 1
瀛@@ 1
陂 1
謎@@ 1
ze@@ 0.02726360998780433
爽@@ 1
bar@@ 0.017735357443757625
ular 0.022811694661595116
ə 1
蛮@@ 1
飽@@ 1
拐@@ 1
偕@@ 1
ross 0.03525365867578185
チ 1
昵@@ 1
诵 1
Ly@@ 0.11595187034674621
Far@@ 0.05944888941065459
冢 1
gre@@ 0.019329950941223865
tus 0.21221345855977775
撾 1
璜 1
aceae 0.09899605205118164
enc@@ 0.016596861725354916
妒 1
Rock 0.1083481808715271
acc@@ 0.013525196706273172
惕 1
鉅 1
Ban@@ 0.07533355764542517
琦@@ 1
踪@@ 1
嬌 1
醇@@ 1
刹@@ 1
簇 1
can 0.015177932770497666
las 0.005343917108671803
་ 1
韌@@ 1
lin 0.09731857779234356
暱@@ 1
獄@@ 1
篆@@ 1
韃@@ 1
殴@@ 1
よ 1
Pic@@ 0.10765218501592727
more 0.01223885112071033
聆@@ 1
グ 1
弯 1
ty@@ 0.07978947041863348
鮨 1
fer 0.0248228321363767
赂 1
垫 1
筋@@ 1
ila 0.08137121291917014
柵@@ 1
Open 0.09698518569220739
eph@@ 0.15338069549897743
衷@@ 1
遥 1
Tour 0.06892832740010334
佥@@ 1
呀 1
舵@@ 1
栅@@ 1
red 0.010634002747461511
雌 1
isi@@ 0.01610047084334567
绅 1
Wol@@ 0.06045529596337266
涪@@ 1
瀾 1
ニ 1
丕@@ 1
Award 0.05495247773344743
ein@@ 0.00637902840608071
we 0.049225437228299446
閏 1
Billboard 0.13396381444736186
First 0.06296509376401828
side 0.017731601638540123
ham 0.05016117531273092
oto 0.06578150081548949
轶@@ 1
Church 0.05098714518378891
Mont@@ 0.05952229692868618
alm@@ 0.03562548804518276
ela 0.04602276949934789
White 0.0757506733503863
vic@@ 0.022738355318327
蟬@@ 1
iller 0.058309462927163075
傻@@ 1
襪@@ 1
apo@@ 0.04094261484689581
攤 1
eme 0.05585237793986868
嫡 1
淞 1
踩 1
Patr@@ 0.07071382251612679
皿 1
» 0.00311460608428687
岱@@ 1
苛@@ 1
慘 1
歪@@ 1
mas@@ 0.020543236301896257
け 1
苞@@ 1
Fri@@ 0.10442203748310598
廁 1
槐 1
デ 1
ャ 1
Commun@@ 0.05884013189183907
Ev@@ 0.062397851615736126
Mid@@ 0.060601919871038024
ache 0.06028788624369018
fa@@ 0.015008629029901056
訟@@ 1
辟@@ 1
蕙 1
蠢 1
嵐 1
葡 1
鷲 1
cal@@ 0.026469427687864644
梧 1
鹦@@ 1
ato 0.03939304786607146
蘊@@ 1
詭@@ 1
Do 0.22729902341450367
掣 1
暇 1
葱 1
鉉 1
Mary 0.07613089398034038
ali 0.06828521873619205
埤@@ 1
攏 1
瀚 1
褶@@ 1
Louis 0.05198065189241086
絨 1
lobal 0.10682003206104518
坳 1
窃@@ 1
Pin@@ 0.12053703816017951
Green 0.10371273855300665
贛@@ 1
晃@@ 1
湳 1
璟 1
For 0.03667545593614722
翎 1
跪 1
骄@@ 1
tre@@ 0.019103264126808742
氓 1
酮@@ 1
ear@@ 0.022519568401993602
isti@@ 0.01696831301696822
俸@@ 1
剃@@ 1
荫@@ 1
Rog@@ 0.09957801611140599
肿 1
Lab@@ 0.07762888870501099
芜 1
钮 1
麴 1
prin@@ 0.04815974357449213
懋 1
芦 1
ness 0.04982178450680445
岷@@ 1
澜@@ 1
玺 1
璞 1
邺 1
隴@@ 1
鉀 1
East 0.045752328732904204
兜 1
匝@@ 1
遗 1
ays 0.03216744605016348
バ 1
奄@@ 1
榆 1
瘦 1
冤 1
擂@@ 1
晏 1
Oc@@ 0.05741649024063086
long@@ 0.042880315431669515
ont 0.014334267321520783
兗@@ 1
嗜 1
鄱@@ 1
鷗 1
Ig@@ 0.09668923443333798
tan@@ 0.029611467612373703
擄 1
枕 1
滞 1
Dor@@ 0.0430104292028387
Sub@@ 0.07820790865130031
Ⅱ 1
丫@@ 1
艳 1
莹 1
诠@@ 1
ther@@ 0.030439650862378067
楞 1
Spe@@ 0.07279386895994874
吼 1
宠 1
gl@@ 0.030560012781241142
倩 1
Maria 0.07900346000911543
Ran@@ 0.1300644239002914
ili 0.1164006020127973
滩@@ 1
稟 1
钉 1
De 0.029447367578192295
une 0.003537647933998812
僚@@ 1
桢 1
謊 1
Arts 0.07597625227677123
Dec@@ 0.08678592615905567
eri@@ 0.06015035333933514
oa 0.11274208782710839
貧 1
lam@@ 0.026079114994329106
bus 0.08422652689639647
哇@@ 1
吠@@ 1
噬@@ 1
玟 1
Tro@@ 0.05449984042544821
竊@@ 1
贖 1
償@@ 1
绸@@ 1
Beau@@ 0.12882552161558944
ett 0.06046209251844189
椒@@ 1
VII 0.22568595069670885
曳 1
view 0.03650071492033451
挾@@ 1
闹 1
ail 0.0651161605704102
я 0.00841990612448992
煞 1
邮 1
ae@@ 0.10202767952669266
灼@@ 1
秒@@ 1
翊@@ 1
靶 1
Kor@@ 0.04173910481931091
Laur@@ 0.08145891183678014
mu@@ 0.02596389742976772
Phil@@ 0.045360021150538075
銓 1
蛺@@ 1
蝸@@ 1
衬@@ 1
谓@@ 1
plic@@ 0.037008481546220905
Cin@@ 0.14649938902516738
Spr@@ 0.04452622578121998
媛@@ 1
忻@@ 1
撓 1
VI 0.1631598563791527
ington 0.05637032998354833
璇 1
瘋 1
拇@@ 1
昔 1
Kin@@ 0.0429029144121937
General 0.03512117961679652
have 0.007801914945711844
š 0.35005789669398124
Az@@ 0.11298483941756117
dition 0.02681388716257421
│ 0.14028848702482613
倩@@ 1
愧 1
擅 1
椿 1
Ko@@ 0.05637312531261089
ops 0.05289141451210401
锈@@ 1
Jac@@ 0.08836487030247958
昼@@ 1
蔥 1
Sen@@ 0.03486706507638613
cas@@ 0.016759433299131817
icul@@ 0.05603867242294284
訶@@ 1
钞 1
ega 0.08347468189723128
孢 1
sen@@ 0.0212512153738485
妲 1
飪 1
Edward 0.09274087911144922
斂 1
斧@@ 1
査 1
螂 1
down 0.03353568554753879
ough 0.033787351500071075
毓 1
俭 1
僻 1
喊@@ 1
悅@@ 1
楞@@ 1
洩 1
矯@@ 1
詐@@ 1
κ 0.22465709640461057
赢 1
鼩 1
El 0.008004028667899572
oni 0.10621691947134657
vel@@ 0.024149349181031007
ュ 1
Rom@@ 0.03669975726565526
睞 1
肇 1
Sin@@ 0.08428339091889642
tom@@ 0.02786089610565486
黛 1
Cir@@ 0.11002304784273775
叭 1
dic@@ 0.021826063923462095
don 0.07511967768963297
姨@@ 1
迭 1
Dem@@ 0.04902442084668388
bur@@ 0.021888064451026326
湧 1
芥 1
Han@@ 0.06252814289917565
oper@@ 0.015453636662151488
迺@@ 1
雏@@ 1
况@@ 1
叮@@ 1
妆 1
襯@@ 1
鳅 1
敞 1
Syst@@ 0.12423479692140181
癱@@ 1
Tow@@ 0.06765862668368931
鄺@@ 1
饷 1
г 0.013482669139816297
绣@@ 1
鸞 1
len@@ 0.03688782188818395
匆@@ 1
焘 1
Ba@@ 0.10632421489141454
nh@@ 0.021583619133427226
弥 1
儉 1
喃 1
ィ 1
禍@@ 1
诈 1
ating 0.014567377779713122
攀 1
趋 1
彥@@ 1
洮@@ 1
厢@@ 1
Doc@@ 0.09788545367876915
昶 1
纂@@ 1
鏢 1
stein 0.04581783033194181
龛 1
yon@@ 0.09253172749902235
佟@@ 1
涿@@ 1
臼@@ 1
麒 1
ri 0.075486855549962
灑 1
熄@@ 1
鵰 1
鑄 1
Party 0.045748380091213056
パ 1
硕 1
Hill 0.08108924750718462
ن 0.1267889878824128
碁 1
Cu@@ 0.07572955566717439
men@@ 0.011475497970040204
歙@@ 1
ê 0.13861088943789307
伶 1
煎 1
蝽 1
嘱 1
墜 1
樟 1
Rel@@ 0.05611433632105764
廚 1
颍@@ 1
Fil@@ 0.05734276001602619
Liv@@ 0.12411206126069574
彌 1
艋 1
旌@@ 1
沅@@ 1
瘓 1
蕃@@ 1
Bet@@ 0.06988545877013957
zi@@ 0.021124306321381105
虧 1
agement 0.04614526587043503
cast 0.05186564150512381
una 0.0045131273361185735
僉 1
檗 1
ius 0.1403878595793282
ji 0.07778205734763168
mil@@ 0.036410212171245154
ر 0.05827173313089669
舺 1
黴@@ 1
air 0.03562967235349094
崧 1
碰 1
胥 1
蓼 1
As 0.02050060116411331
her 0.005669380515099931
iness 0.03890665017743484
ハ 1
杠 1
卿@@ 1
堯@@ 1
脅@@ 1
葺 1
Meg@@ 0.191442276093616
え 1
寝 1
秩 1
骁@@ 1
撿 1
歴 1
elop@@ 0.09736415361971928
Shi@@ 0.11087107634318587
纱@@ 1
骷@@ 1
let 0.07467508645275735
tory 0.05106577058831526
eus 0.2265768008158705
沾@@ 1
Pa@@ 0.059960086176361595
ip@@ 0.06488433065158566
わ 1
誡 1
鎂 1
Syn@@ 0.09618082728830801
締 1
鹏@@ 1
Conn@@ 0.0842209455692281
iy@@ 0.056099147793085724
咐 1
囑 1
鏽 1
賂 1
Phili@@ 0.07039793696017776
lat@@ 0.019463490549561212
web 0.16366442658255057
峨 1
蝦@@ 1
桅@@ 1
殯@@ 1
Royal 0.043875712414873425
绩@@ 1
缠@@ 1
Soci@@ 0.048661229035319935
has 0.005231477058534937
wal@@ 0.03325117019676354
頰 1
辱@@ 1
С 0.02080066549968384
istr@@ 0.04726562198750926
ship 0.016036189750595408
wan@@ 0.06583321498872846
屎 1
黯@@ 1
扼@@ 1
潟@@ 1
蓟@@ 1
199@@ 0.09320924039831469
Lang@@ 0.07292234940143089
Ol@@ 0.06517272572128797
eng 0.13602654293884922
煎@@ 1
Plan@@ 0.08470248760686917
prot@@ 0.014742323228897946
var 0.20829049735261665
伶@@ 1
僉@@ 1
剔@@ 1
Geor@@ 0.038035286669617606
Hon@@ 0.051904568387101134
ß 0.04211138873416565
钻 1
螨 1
mor@@ 0.02515714843930045
were 0.003540835482806568
赁 1
Boy@@ 0.10504712394916269
ih@@ 0.03168157152584016
倘@@ 1
mus@@ 0.012448896632866828
膚@@ 1
艳@@ 1
Il@@ 0.08645804187471176
η 0.02130864143674953
Alexander 0.08272337299616576
Mu@@ 0.06776642695838235
bas@@ 0.013533177038578276
first 0.005357650769073604
琉 1
薯@@ 1
Awards 0.06546439658681227
● 1
檎 1
诰 1
Scott 0.10912338437292693
Tar@@ 0.08074648503861385
匠@@ 1
沥@@ 1
籽 1
践@@ 1
辗@@ 1
垦@@ 1
壤@@ 1
钩@@ 1
驸@@ 1
Daniel 0.0943652304560523
捆@@ 1
滁@@ 1
ier 0.03386755728212466
Journ@@ 0.08397906141265259
our@@ 0.039617616566942425
沽@@ 1
笈 1
逍@@ 1
醮 1
鬧@@ 1
sim@@ 0.026389892080230404
缚 1
thi@@ 0.049625763607786276
瀝@@ 1
缴 1
凋@@ 1
world 0.03193589476140962
錘 1
髒 1
Vel@@ 0.1450484120526554
墘 1
櫛@@ 1
art@@ 0.041670971888771634
cher 0.029361193593011516
hor@@ 0.03032759472253088
唤@@ 1
謬 1
Dou@@ 0.11559676638224152
Mos@@ 0.0420343083563817
瑤@@ 1
驰@@ 1
ado@@ 0.1391479824333134
tin@@ 0.05684335664921121
ガ 1
垫@@ 1
Great 0.06884438979531583
Loc@@ 0.06573759768879593
dec@@ 0.009821454404065096
wo 0.028627309594753104
莘@@ 1
Rap@@ 0.12746415894691512
uf@@ 0.020883739010055392
宵@@ 1
醯 1
钴 1
Os@@ 0.057456480880260515
潢 1
艙@@ 1
貌@@ 1
lum 0.16278794810981187
咏@@ 1
遁 1
acy 0.05096476172252087
coun@@ 0.016613759641088563
锤 1
ality 0.0345456437161022
opsis 0.15914660718322626
窒@@ 1
窖 1
Mari@@ 0.053664064677415295
掖 1
兀 1
徘@@ 1
梵 1
榄 1
緒@@ 1
腕@@ 1
Progr@@ 0.06806680345799421
udi@@ 0.07911480839217597
yo 0.049518298928633214
刪 1
Cul@@ 0.06296773852747328
get 0.04051859881572512
Ind@@ 0.06145858625490112
con 0.0043875137262528565
堺 1
晦 1
槐@@ 1
皂@@ 1
yle 0.08117895847883255
ひ 1
洼 1
Tim@@ 0.11225487206698524
ik 0.030746096293740307
湊@@ 1
舷@@ 1
onal 0.0174608205786741
孺 1
綾@@ 1
蚕@@ 1
メ 1
拂@@ 1
lia 0.11662018913891874
sian 0.03335293727349304
憎@@ 1
焕@@ 1
苳 1
莺 1
п 0.04889439013650817
ダ 1
佗 1
proc@@ 0.02319348729989919
咳@@ 1
騷 1
奘 1
滯@@ 1
胥@@ 1
dan 0.0484235022857304
攜 1
蘑@@ 1
sec@@ 0.010578768928125414
孺@@ 1
win@@ 0.03459736594935322
his 0.002501799092177393
婢 1
Kn@@ 0.07148679175555235
彬@@ 1
柩 1
賭 1
鹃@@ 1
off 0.021718205634985565
res 0.020936759536327978
佃@@ 1
Dol@@ 0.08028746292521427
肘 1
膀@@ 1
姨 1
阙 1
ats 0.01671466776424992
Fer@@ 0.05202278950844442
hr@@ 0.033948483177030746
lem@@ 0.03554375989874545
砸@@ 1
彝 1
魮 1
Frank 0.091891338541892
ering 0.03557087095011499
侈 1
勵@@ 1
拙 1
Hot 0.14226464941745176
asi@@ 0.03052559366425988
fic 0.039825893538121895
Mol@@ 0.07051172058180795
She@@ 0.09147554114722029
let@@ 0.020991799507348627
歳 1
涧 1
誥 1
Brown 0.08810197118539985
釉 1
鬣@@ 1
鹘 1
May@@ 0.06638667922451531
ati 0.07860851192858063
eth 0.0811698186431579
yst@@ 0.08245325594563999
烽@@ 1
皓@@ 1
裴 1
But@@ 0.10778227386575127
瘫@@ 1
Union 0.03537215185962523
erg@@ 0.03628081526843396
鞍 1
餵 1
antas@@ 0.12083498637517319
坟 1
湍@@ 1
Bon@@ 0.07233281387157896
螯 1
″ 1
妆@@ 1
Lake 0.06088195162084172
yn 0.09761458352027381
嚮 1
曬 1
Sor@@ 0.11452465426996664
ret@@ 0.02480689202426587
War 0.0233554816364885
悦@@ 1
腭 1
谎@@ 1
off@@ 0.0104108821978109
刹 1
蝇 1
Mah@@ 0.059450035890751346
ein 0.004439594347386726
抬 1
歉@@ 1
栃 1
膛@@ 1
荼 1
esp@@ 0.022647860872924256
煜 1
睾@@ 1
闰 1
沱@@ 1
log@@ 0.03826562087705487
蠻@@ 1
char@@ 0.022886680792163328
system 0.025660354535485385
栓@@ 1
comp@@ 0.010323618374181515
ister 0.020071074342535165
徊 1
灶@@ 1
贬 1
滦@@ 1
堃 1
弼@@ 1
簷 1
账 1
act@@ 0.060472259154118545
蔔 1
inus 0.23807381373818282
θ 0.8146829210037962
筱@@ 1
谜 1
Pat@@ 0.0808529439033782
焰@@ 1
He 0.004004271668259167
cy 0.05768590094412801
ito 0.03065326313525578
嗓@@ 1
骚 1
Bay 0.06990727474603092
忱 1
桅 1
绸 1
謗 1
mel@@ 0.05099817297325195
冼@@ 1
娩 1
癖 1
ights 0.035271662344288315
喇 1
鑰 1
Cup 0.03092032493197678
檯 1
蔗@@ 1
Ku@@ 0.10509409475521676
Joe 0.10980143361694747
York 0.016296824946850804
ي 0.039478330603051254
槌 1
璐 1
繕 1
甯 1
痪 1
Sand@@ 0.07475307629425489
崴 1
挠 1
疣 1
Santa 0.05551425062434109
瀧@@ 1
Pen@@ 0.06870956914784429
抢 1
Kon@@ 0.018709483106790006
Lou@@ 0.06445632554757699
ier@@ 0.015373576265157448
凳 1
馴@@ 1
ë 0.41132524651596525
ō 0.08061083917401383
婁@@ 1
趾@@ 1
م 0.057040567846290365
膏@@ 1
鲷 1
筲@@ 1
198@@ 0.07880986872065032
ビ 1
钝 1
闖 1
entr@@ 0.014192680779711602
め 1
琅@@ 1
顛 1
驯@@ 1
ь 0.013616702408282829
佘@@ 1
惇 1
郴@@ 1
蔽@@ 1
蟹@@ 1
霉 1
tho@@ 0.03367954120423184
纶 1
蜱 1
Kur@@ 0.037475133586609595
emb@@ 0.021066542044405476
廓@@ 1
轎 1
鈔@@ 1
but 0.005831122358316312
tra@@ 0.021433706894704762
wn 0.023877033539521326
攔 1
笃 1
臼 1
韬 1
serv@@ 0.015842651710184792
tion@@ 0.022574755612844243
屠 1
炉@@ 1
tia 0.11887930461956102
垮 1
釜 1
Lis@@ 0.15497727914871093
櫚@@ 1
糸 1
镶 1
燭 1
衮 1
Stand@@ 0.07003456323509812
inae 0.2158350417658841
寞 1
揽 1
杞 1
inger 0.05293962129870157
Pop@@ 0.07573938937586165
ces 0.012736387535547093
胄 1
讽 1
ely 0.014124368429926
铉 1
髻 1
az 0.0420148894813903
僭 1
忒@@ 1
Les 0.01112788155887395
su 0.004793847087102678
賄 1
踝 1
An 0.036268094500093405
not@@ 0.013890491806784902
tal@@ 0.03155104038283294
喆 1
嬉@@ 1
磋@@ 1
φ 0.3722909656862593
薰@@ 1
鸠 1
Town 0.09091762697401651
mis@@ 0.012899601723075995
樽 1
莪 1
粲 1
艇@@ 1
cha 0.03139269998258793
鞠@@ 1
鵬@@ 1
Gh@@ 0.09668854110699315
沾 1
Christian 0.05051980234942983
羣 1
鈎 1
钛 1
Cel@@ 0.0826508287192873
Museum 0.050481278386779724
yg@@ 0.14324179539938198
Ath@@ 0.05451879053468126
uel 0.061935692940216176
捏@@ 1
犀 1
膦 1
Gil@@ 0.08268561551787615
Ram@@ 0.05621246700980056
Tou@@ 0.12156914741031068
arm@@ 0.014639573484686943
杞@@ 1
柠@@ 1
綢 1
賺@@ 1
郸@@ 1
鎚 1
饪 1
WW@@ 0.31904007184979805
alis@@ 0.018457855120623954
ger@@ 0.012296461214742743
pin@@ 0.06598306831723019
― 0.7446944658629203
ょ 1
纱 1
铬 1
瘾 1
onia 0.05116083241031981
urs 0.01638347973212616
瑰@@ 1
榴 1
咏 1
窄@@ 1
驹 1
泵@@ 1
綺@@ 1
Don@@ 0.07213994319216967
FIFA 0.19503642269744925
Micro@@ 0.3202239097198154
ろ 1
殲 1
泼 1
艉 1
鋅 1
钥@@ 1
kin 0.08884268452172676
sky 0.07552390620282716
吒 1
嗅@@ 1
痴@@ 1
羁@@ 1
謁 1
鈦 1
Council 0.04049715713952427
竄 1
祸@@ 1
DV@@ 0.44393261805309814
珉 1
耻 1
肄@@ 1
＋ 1
ven 0.023267563608299374
鎧@@ 1
bo 0.10213237799804875
ule 0.03714019125872643
缔 1
圩 1
妤 1
鱇 1
Land@@ 0.02116942015326093
Lor@@ 0.05562094713906794
nch@@ 0.08464234952567375
卅@@ 1
糟 1
ck 0.049555864696466397
么@@ 1
驿 1
back 0.020057030310574032
ume 0.04244267565801237
糕@@ 1
eti@@ 0.03125754611987601
闕 1
鴿 1
case 0.044599462790919406
莽@@ 1
蔑 1
釉@@ 1
禱@@ 1
跪@@ 1
闇 1
fri@@ 0.02459236481223545
荥@@ 1
疵 1
鮭 1
ust@@ 0.04617273844216772
浊 1
艷 1
kin@@ 0.05395429247879972
ves 0.015226959530078084
ying 0.02290387416689582
ban@@ 0.018992467277881002
ais 0.02126777567151609
data 0.06899709108676945
pan@@ 0.026052332247611314
two 0.006261121060184823
ul 0.05133411500514889
弩 1
耿 1
麽 1
yan@@ 0.07963894541907429
蟒 1
dium 0.1520487747822646
翹 1
Pap@@ 0.061494633142548244
men 0.011316512603076843
稠 1
絞@@ 1
鮟 1
non 0.02231034667766509
onald 0.09246312108614299
捧@@ 1
氾 1
渦 1
翊 1
峻@@ 1
Jus@@ 0.05223471306737623
London 0.026393482366349807
愷 1
itz 0.027327001535903582
宕 1
挡@@ 1
Maj@@ 0.060183237730531365
pop 0.09840166942974779
奬 1
聆 1
匣@@ 1
Bern@@ 0.06130574873393605
Den@@ 0.03591756429886479
б 0.047877232451372605
馏 1
嫂 1
尝 1
柚@@ 1
邵 1
Bat@@ 0.05322212482096685
倪 1
兮 1
Ash@@ 0.09525313087251222
ga 0.047860530111041036
羞 1
逕 1
ret 0.07290194818554507
噴 1
诱 1
琨 1
蝎@@ 1
ald 0.08177177418650204
yo@@ 0.0296911414622897
锰 1
Plat@@ 0.06102445573893796
ean 0.042935384110021846
拢 1
Bru@@ 0.042578027098782605
bro@@ 0.018600946342436645
tern 0.015109292234242622
廬 1
矚@@ 1
gen 0.018485613525568257
⋯ 1
履 1
佤@@ 1
呤 1
夾 1
扭 1
畠 1
裤 1
誹@@ 1
America 0.04046143610673796
Centre 0.0722685396777
under@@ 0.02089586161442409
厕@@ 1
拐 1
檬 1
Fal@@ 0.08894305684980419
剎@@ 1
＂ 1
ox@@ 0.05566792895641487
Tay@@ 0.09259690096649949
唾@@ 1
诫 1
谅 1
How@@ 0.09067101583376011
ズ 1
碇 1
荆 1
贩 1
驟@@ 1
Festival 0.04725942941231283
don@@ 0.03280693747536898
塚@@ 1
腈 1
Cast@@ 0.07260254568358004
Ox@@ 0.07684949883733325
摔 1
撇@@ 1
穹 1
膩 1
Enter@@ 0.253988431126924
楣 1
镀@@ 1
顱@@ 1
chin@@ 0.07889265283570898
qui@@ 0.016636730281711042
ы 0.006955169116551375
峪 1
缉@@ 1
蕉@@ 1
Mach@@ 0.1047622939995802
ines 0.017571385659014758
灘@@ 1
脇 1
鷺 1
Cle@@ 0.09090349516790537
cop@@ 0.03427482934454129
檐@@ 1
泪@@ 1
臥 1
麼@@ 1
Sem@@ 0.07264290104298216
吵@@ 1
茛@@ 1
蘊 1
alth 0.03167141700681632
璘 1
ef 0.03550804264350949
ext 0.3001845326931075
丐 1
颅@@ 1
action 0.024818915529253964
chil@@ 0.04348374357741347
槭 1
幽 1
曜@@ 1
蕈 1
鋸 1
閑 1
Chap@@ 0.08849485301010823
Tan@@ 0.0892604446082408
恺 1
鐮@@ 1
钓 1
Franc@@ 0.06835933874859147
main 0.021169430842320733
蔑@@ 1
oug@@ 0.06174889623067796
vil 0.048829116853739925
媳@@ 1
sw@@ 0.03232058566239501
緋@@ 1
婉 1
醬@@ 1
Sav@@ 0.07008562061155041
hin@@ 0.020899944251069235
vis@@ 0.013781770897249771
蚜 1
髓@@ 1
Central 0.04127828316699293
汛 1
鮭@@ 1
hal@@ 0.020634522650135833
less 0.03146410126300837
佬@@ 1
uy@@ 0.03961447566874665
³ 0.29117724381659044
谜@@ 1
Acc@@ 0.16845207892049455
fil@@ 0.021557561787416725
ket@@ 0.03987445297193557
seud@@ 0.14013999898988896
瀕 1
競 1
ani@@ 0.03623726231898621
厌 1
暈 1
aft 0.03702531934589106
ч 0.04529655298944814
ø 0.7039722245606904
贻@@ 1
GC 0.34827582446783345
ser 0.021244653445610006
モ 1
揭 1
褲@@ 1
А 0.0338506261811719
瑕@@ 1
竺@@ 1
诽@@ 1
狡@@ 1
涨@@ 1
玖 1
褐 1
迥@@ 1
bal@@ 0.030698538914248587
ci 0.04089676570545191
syn@@ 0.045593378629977074
巒 1
愤 1
暮 1
漱@@ 1
猝@@ 1
Form@@ 0.08023531920242326
Pierre 0.055582777767599914
anga 0.09287810532444667
滥 1
瞳@@ 1
荊 1
镰@@ 1
Kan@@ 0.054045026715017826
cin@@ 0.030561945822892466
ē 1
帅@@ 1
搜 1
赚@@ 1
elli 0.08866412042708223
kar@@ 0.0356783784395906
晷 1
宦 1
蔓 1
凑 1
喘 1
櫸 1
uti@@ 0.02121379514366365
峭@@ 1
邂@@ 1
鹉 1
梢 1
藜 1
aus 0.004988414473517297
焉@@ 1
绛 1
Prim@@ 0.0552970799268168
aux 0.005814069240120432
ide@@ 0.038796538961198404
ando 0.01024249342540509
emp@@ 0.014466918826600365
蔻 1
Arch@@ 0.05462552332890838
Bos@@ 0.0709528247053549
刮 1
昊@@ 1
］ 1
ols 0.026823238473513804
扔@@ 1
祷@@ 1
酱@@ 1
肾 1
逅 1
颁 1
扈@@ 1
鞅 1
Men@@ 0.060830786488369586
bar 0.03435460470355082
鹛 1
Kal@@ 0.05634315421375886
eff@@ 0.015539866179635911
哩@@ 1
胱 1
＝ 1
懲 1
邕 1
咕@@ 1
咽 1
惰@@ 1
［ 1
Football 0.05037092605381937
kl@@ 0.01984856884722986
П 0.070080627680376
婪 1
碲 1
鈕@@ 1
麝@@ 1
Yah@@ 0.31787277801719854
潼 1
Ben 0.1199433023219402
ele 0.022531669228762506
ū 0.21972310095517872
踞 1
銃 1
鳃 1
Hug@@ 0.07070793388565658
Med@@ 0.04398437783726998
aka 0.0635181363873504
asa 0.06194793321034261
oks 0.03824862349083358
sal@@ 0.022326910268468166
豌@@ 1
頤 1
Joh@@ 0.056200501274337296
lor 0.08983447845648695
叟 1
碾@@ 1
輿 1
嘧@@ 1
و 0.04095610875898708
Kit@@ 0.13084948098351867
Publi@@ 0.0667279667800944
Rol@@ 0.045474548898527284
壠 1
笋 1
羹 1
萍@@ 1
Est@@ 0.02070549949515354
罄 1
aki 0.0662345736111814
esa 0.041568050565909676
Δ 0.6844037276895543
せ 1
曇 1
Feder@@ 0.037681969114349095
ault 0.06243035004881759
bil@@ 0.011841110004690451
bir@@ 0.02717542184396292
懈 1
纤 1
蓉@@ 1
Jer@@ 0.06647207233736753
Si 0.09804482690972001
Van 0.08846462866720715
ld 0.0727282526220874
蝗@@ 1
Anth@@ 0.090475067029436
Math@@ 0.10089785298084947
active 0.046740280575670985
溜 1
煦 1
贮@@ 1
夸 1
柿@@ 1
蜆 1
谤 1
ami 0.05432555710677959
貪 1
into 0.007343028154741932
巅@@ 1
泾 1
assi@@ 0.06624618234144841
瘤@@ 1
韧@@ 1
cat@@ 0.025003540399661645
ye@@ 0.04406033793373033
戳 1
炫 1
炯 1
疟@@ 1
瞒 1
诅@@ 1
鼐 1
Song 0.09715361445742761
tig@@ 0.01600154537922761
錨 1
Famil@@ 0.0915144331314001
bun@@ 0.05596804756227553
勖 1
卦@@ 1
挣@@ 1
Cath@@ 0.07886427052914495
Su 0.03973494824526171
cep@@ 0.04047337427229763
leg@@ 0.011281862687171747
斡 1
渾 1
ider 0.04788192683193739
脷 1
菸@@ 1
隍@@ 1
Ak@@ 0.03921880026255024
Oli@@ 0.07986296864460776
had 0.003743706473749959
icro@@ 0.09697728504352415
xi@@ 0.1296434337307142
睐 1
rey 0.05015868597642187
瓚 1
絃 1
蚓 1
诃 1
den@@ 0.015650537882126767
嗽 1
蚌 1
Marie 0.060342009000206025
Fut@@ 0.11762235621872788
ont@@ 0.04027603476535995
弁 1
枣 1
諦 1
遐@@ 1
District 0.02695669330249273
iro 0.06797867687550084
衢 1
鄴 1
鎬 1
Ze@@ 0.025119314741855213
缉 1
襟 1
verse 0.04419921134673604
К 0.03600943153490321
噁 1
樊 1
tron@@ 0.042865079329647456
anz@@ 0.017762397437423822
晝@@ 1
桁@@ 1
out@@ 0.019267960141001655
sive 0.01989489560819441
悠 1
谿 1
鲤 1
椿@@ 1
氙 1
醋@@ 1
钞@@ 1
ency 0.030557232212899403
olo@@ 0.13601913020392095
rich@@ 0.022684886644476158
拮@@ 1
耽@@ 1
蚜@@ 1
oro 0.09517252732686177
ute 0.030128249057921348
垒@@ 1
轩@@ 1
192@@ 1
195@@ 0.0967629440251059
County 0.016562897029368646
Moh@@ 0.08135142107093288
Rich@@ 0.03573962099252505
ects 0.02045142466329982
嘌@@ 1
弛 1
抖@@ 1
Tran@@ 0.10788550114749842
壢@@ 1
聿@@ 1
陕 1
will 0.017069778204799015
賑@@ 1
軀@@ 1
Fel@@ 0.04840814570861061
Ker@@ 0.07345979875226077
Ven@@ 0.055715044686891355
dit 0.04562800295287936
滘 1
ban 0.03606917296747566
oz@@ 0.06835753115142933
prop@@ 0.016633696309499686
苛 1
嵐@@ 1
掏@@ 1
矗@@ 1
蠶@@ 1
貳 1
瞳 1
蜓 1
寸@@ 1
蚂@@ 1
aza 0.05153488523669523
oi 0.1139862278009195
King@@ 0.04448558558191408
abri@@ 0.04617250728606985
抉@@ 1
ho 0.15786289338244378
菠@@ 1
锑 1
髏 1
eck 0.05893171580167672
č 0.43991922077953033
Johnson 0.07801252144940045
nes 0.02099813902783755
pel@@ 0.02987112359762632
螞@@ 1
Orig@@ 0.06126240928246582
恥@@ 1
祗 1
Tak@@ 0.07747409864753611
og 0.09345243151298187
訥@@ 1
Ali@@ 0.10013956485634372
pal@@ 0.02612854667461076
绅@@ 1
鍛@@ 1
鏞 1
egr@@ 0.0693217127562457
mond 0.06121405700280907
Cop@@ 0.09443699548159101
Disney 0.12574266448806512
杵 1
衙 1
鎳 1
鮑 1
鹵@@ 1
Blu@@ 0.09260692232138536
Dom@@ 0.05699266252171673
幂 1
桔@@ 1
蒴@@ 1
ny@@ 0.1068648820155185
窘@@ 1
訣 1
閔 1
UE@@ 0.7677165723940963
谏@@ 1
West@@ 0.0286113456397707
ages 0.011131694933592043
pa@@ 0.023799534616420114
while 0.012444103409701191
舆 1
change 0.03125811952167268
esc@@ 0.028410034463888675
爛@@ 1
媳 1
谍@@ 1
霑 1
Def@@ 0.07714643798601617
dren 0.17658378074387512
亳@@ 1
塊@@ 1
釁 1
British 0.018568143360277806
yi 0.10469957261277212
挨@@ 1
籲@@ 1
胱@@ 1
鱨 1
Ju@@ 0.03397699054302088
ゆ 1
嚼 1
岚 1
浓 1
Law@@ 0.08201119691487518
trol 0.16663182106980548
巾@@ 1
泻 1
燧 1
hol@@ 0.021193827556382286
棧 1
餚 1
Ern@@ 0.05643080806676503
Num@@ 0.10149967138281384
igo 0.095075725726272
ika 0.053284290006833004
their 0.004495586331852438
娠 1
浆@@ 1
鑫@@ 1
Gran@@ 0.05772205227527922
formation 0.03477728469794165
number 0.014841164409564012
璧@@ 1
Mit@@ 0.02643514983951505
ania 0.03802191326059685
mot@@ 0.015942748485369678
thern 0.017397298491133893
倚 1
悍@@ 1
憐 1
怜 1
悶 1
where 0.008570450665677009
彷 1
Arthur 0.0808027824093682
Sig@@ 0.09854957665617108
Stadi@@ 0.07232506737469298
澡 1
鑣 1
馥 1
cel@@ 0.024787164250783165
eter 0.02631800132473758
慌@@ 1
昇@@ 1
Bak@@ 0.0677811406954286
Film 0.02976867467833775
ech@@ 0.01852599881513742
壘@@ 1
旷@@ 1
獾 1
酐 1
鱲 1
Ah@@ 0.07168227488882278
Williams 0.07439659920190858
tern@@ 0.06474033945768999
uli@@ 0.07875128724963083
弔 1
灸 1
眠@@ 1
chi 0.05268078780384159
medi@@ 0.01023355086492695
rent 0.03270980214478648
薔@@ 1
abeth 0.061054564505490946
ova 0.08647231234425262
Kenn@@ 0.0639317028070165
uv@@ 0.02611203584539811
惑@@ 1
掩 1
敲 1
洵 1
狠@@ 1
箔 1
雾@@ 1
＆ 1
Tu@@ 0.08035102143154606
枋@@ 1
碌 1
arch@@ 0.022390136610383544
idi@@ 0.03718645381966547
phy@@ 0.06704243650910201
俞 1
疚 1
龐 1
Academy 0.046111060640366554
ants 0.010288092281325179
咀@@ 1
捆 1
幔 1
铂 1
鳄 1
帘 1
貂@@ 1
迂@@ 1
酿 1
隘@@ 1
196@@ 0.0698646610278438
ges 0.025610874402635632
lig@@ 0.02617957166692485
з 0.02281528953954149
岚@@ 1
Jones 0.06971602821955404
ince 0.026943969962430214
兑 1
bet@@ 0.029050335974753705
dom 0.03981898654311325
uri 0.05897672413290183
篆 1
馀 1
Fu@@ 0.0607899199598192
Tol@@ 0.09269185169900516
М 0.06866798015735188
壩@@ 1
彧 1
ards 0.019551292286257908
ward 0.03177727769286049
圩@@ 1
昀 1
柑 1
瓯 1
诛 1
炱 1
礫@@ 1
繹@@ 1
肴 1
mission 0.01691333713562253
纖 1
Name 0.06162283757175468
body 0.039335252868350226
В 0.003466321352744871
Band 0.05197454783385263
ami@@ 0.048800026551238135
侷 1
ease 0.026575352430346887
鸽 1
also 0.0033342568617653946
ods 0.03368427232114322
酥 1
idea 0.06486521304265978
咲@@ 1
娑 1
巽@@ 1
Fam@@ 0.215734621350413
ŋ 1
祚@@ 1
驼@@ 1
俟 1
渔 1
栢 1
爷@@ 1
粱 1
菴 1
鑾 1
闍 1
Sus@@ 0.07487945228356058
犹 1
窦 1
Rh@@ 0.04257781811218424
nor@@ 0.011722513573553667
剃 1
璉 1
筏 1
group 0.017373948964903296
ury 0.03830314088773935
弋@@ 1
綾 1
虢 1
褶 1
ren@@ 0.009431312111006972
ı 0.023669076994000688
Pot@@ 0.06974900370140409
uke 0.06264594905513533
vari@@ 0.01666991146785589
偃@@ 1
冥 1
淦 1
狩 1
瘧@@ 1
葱@@ 1
鴞 1
ect@@ 0.028564836782444453
edr@@ 0.042483478202924876
tures 0.028226100622948194
Bud@@ 0.05486689061360403
惧@@ 1
袜 1
194@@ 0.19422512540820758
tional 0.018404772056810674
unter 0.01051440676994075
zi 0.08823084484294783
叩@@ 1
恨@@ 1
戦 1
like 0.018575978096866102
tica 0.023165229196525142
｢ 1
Whit@@ 0.07797375405351041
gs 0.025614515756708162
弩@@ 1
賤@@ 1
193@@ 0.11721423589558363
sig@@ 0.014637998579904955
棟@@ 1
１ 1
Ari@@ 0.05867331314680721
浇@@ 1
睢@@ 1
祐@@ 1
諺@@ 1
Lord 0.0645851260369137
咎@@ 1
熏@@ 1
腱 1
蕙@@ 1
ど 1
寰@@ 1
汞@@ 1
Carol@@ 0.04728962581590678
dings 0.03652623904593813
occ@@ 0.030561193283469384
粪@@ 1
bul@@ 0.038979763389337195
even 0.024708596597008445
呆@@ 1
扳 1
碍@@ 1
Liber@@ 0.04436445260125794
歆 1
珩 1
脩 1
铯 1
飆@@ 1
鰨 1
dou@@ 0.023421433184322445
瀨 1
踩@@ 1
itz@@ 0.01966671329786031
outh 0.03230919663371229
闵 1
骠@@ 1
mad 0.09143333190636053
歪 1
泮@@ 1
Rod@@ 0.05877175625205769
augh@@ 0.019060005156807894
emati@@ 0.037284396983033805
wi@@ 0.016858324783458594
紓 1
綬 1
绢 1
鶯@@ 1
So 0.051271707229317
urt 0.02759288195931625
嘔@@ 1
柜@@ 1
California 0.029645819805108106
栾@@ 1
箏 1
ais@@ 0.021003299014488937
筍 1
醍@@ 1
釣 1
懶 1
Lar@@ 0.07222293896821479
睽 1
酯@@ 1
靴@@ 1
驴 1
厥@@ 1
ends 0.02872210298162596
枋 1
砾@@ 1
秧@@ 1
蚊 1
袞 1
dem@@ 0.009524457938779398
estr@@ 0.018779718642044675
抖 1
蜈@@ 1
鵑 1
aliz@@ 0.018030293857135605
傢 1
摊@@ 1
轰 1
rol@@ 0.038235362560747894
墅@@ 1
胁@@ 1
芋@@ 1
轭 1
aff@@ 0.014079523046999722
pur@@ 0.01786738412936836
霄@@ 1
Educ@@ 0.04307278817040587
Fol@@ 0.022321913373673917
Hom@@ 0.06296750426562071
Univers@@ 0.13131240096449998
寢 1
槿@@ 1
軀 1
帚 1
轅 1
History 0.020423977046095353
Mod@@ 0.06235670023545686
ann 0.05722965296449542
bi 0.07419977417758361
bin@@ 0.04978063299887927
棵@@ 1
蜍 1
enz@@ 0.019343101090953004
lands 0.022521168160052077
嶄@@ 1
珈 1
纥 1
憬 1
蜻@@ 1
遶 1
Kis@@ 0.21919203124845876
Walter 0.07772033521005775
Д 0.09593043745981038
喵 1
囉 1
骰@@ 1
Ot@@ 0.03640840545523179
only 0.008593443955005926
ب 0.04261237882268451
俚@@ 1
嬌@@ 1
槓@@ 1
舫 1
醐 1
隈 1
cli@@ 0.03498598109149376
peri@@ 0.023435809222945254
廍 1
慄 1
旻 1
螃@@ 1
May 0.014009719905522534
cho 0.012997345724286897
vin 0.09337733523002364
匕@@ 1
荚 1
醴@@ 1
met@@ 0.01755471190616959
諏 1
鱈@@ 1
Simon 0.09268954033339157
sus 0.010052780151145153
辍@@ 1
Gener@@ 0.04680882429298458
States 0.012397114543578237
USA 0.04938890877076057
mal@@ 0.01991979380984466
赈@@ 1
頁@@ 1
dae 0.10941582999519077
eau 0.020155342952232782
剋 1
叹@@ 1
噩@@ 1
烴 1
耻@@ 1
John@@ 0.09487936338364306
anda 0.045291628372533796
ario 0.016786520085365953
狠 1
讞 1
谔 1
鄙@@ 1
ences 0.014415369636279316
sia 0.041546176681891964
悌 1
蚣 1
Tam@@ 0.06809842477107832
equ@@ 0.027977867797679908
head 0.026243333387661855
恂 1
晒 1
讶 1
186@@ 0.5419098922777116
din@@ 0.038002925139649785
wer 0.028824834466028168
劭 1
卅 1
滔 1
腻 1
菏@@ 1
懇@@ 1
榨@@ 1
焯 1
甄 1
钚 1
197@@ 0.060053352442203035
iko 0.10240704856925462
ush@@ 0.04527667592097806
媲@@ 1
浚@@ 1
蝉@@ 1
賊@@ 1
鰂 1
桦@@ 1
澍 1
鸥 1
fied 0.022081596655553426
via 0.03301861160138701
攸 1
钡 1
綺 1
貂 1
Arm@@ 0.05113841089011658
atur@@ 0.02790948243629808
duc@@ 0.03355595559196808
ev 0.0844716877200636
噶 1
爹 1
螳@@ 1
이 1
ゅ 1
ェ 1
佯@@ 1
儁 1
眺@@ 1
辈@@ 1
寢@@ 1
煒 1
Jackson 0.08040242937848892
ois 0.06843403538542304
奠 1
芎 1
酉@@ 1
Rou@@ 0.03399257700794965
ave@@ 0.09523706192684382
£ 0.07630461712414253
嘻 1
弋 1
彿 1
螢 1
郢 1
Mik@@ 0.08987641018647846
ark@@ 0.04341552359930864
cle 0.05021418017579142
house 0.022518690847990346
晕 1
瀚@@ 1
矫@@ 1
賤 1
Times 0.05802136322896016
ective 0.03303518875588179
桔 1
漁 1
瀧 1
驊 1
Bol@@ 0.03973329972559964
Long 0.07499895142272889
Stre@@ 0.06638637094491277
any@@ 0.04459913127281258
怠@@ 1
昴 1
靼@@ 1
bs 0.028221875748831775
凿@@ 1
瑭 1
貯@@ 1
187@@ 0.47668686664760795
Jor@@ 0.06463773949113291
Leon@@ 0.08650451431343845
spec@@ 0.020484239643184562
then 0.00880575832931575
prise 0.042589725736452005
vers@@ 0.01772243522272037
嬅 1
磅@@ 1
蛹 1
Ren@@ 0.03381170378188357
port@@ 0.008921470280619652
襟@@ 1
镖 1
Land 0.04951283786883191
UK 0.04077631543649926
dri@@ 0.027564817115520508
釗 1
Sto@@ 0.040428270064002354
ople 0.05674114225071138
ow 0.027610999731023725
than 0.009871488357929264
they 0.006176126799129674
宥 1
洒 1
Nik@@ 0.0673068497039418
ć 0.04281502221705346
仄 1
侈@@ 1
墊@@ 1
栅 1
High@@ 0.04927256984937605
stre@@ 0.023309181534094472
ノ 1
歹@@ 1
氐 1
熬 1
瓮@@ 1
顫@@ 1
喧@@ 1
Rail@@ 0.04045342668120638
works 0.02526223635957043
ob 0.06197592303495872
point 0.022146993286446554
put 0.03786595862371427
寝@@ 1
鮃 1
English 0.022921276045851265
ert 0.009388250995218209
ョ 1
Sul@@ 0.07696426469037768
With 0.035143601651381244
嫖@@ 1
漳 1
Ori@@ 0.06142717404907037
gro@@ 0.013944234943532216
mit@@ 0.011068585006456935
ł 0.6887709707151086
颐 1
Albert 0.0681666809027159
隕 1
After 0.011219140230449275
dis 0.07065434149907812
溺 1
焙 1
茫 1
Ann@@ 0.06961225655236444
Comp@@ 0.08521246297962648
Haw@@ 0.05283251512750939
そ 1
庠 1
烦@@ 1
鸾 1
atre 0.04174847972539123
ete 0.020777222988500706
謚 1
Karl 0.054127104672369517
Rot@@ 0.051599867244708816
aro 0.0946230129705659
絨@@ 1
覃@@ 1
詣 1
諜@@ 1
轼 1
iger 0.023481752373522662
ツ 1
卞@@ 1
诡@@ 1
黍 1
｣ 1
European 0.027412407578984513
Mill@@ 0.07593924382647482
Sup@@ 0.10596138039480764
model 0.05208835473670744
ones 0.009758603737965076
沧 1
vo 0.05109380755843026
窟@@ 1
锤@@ 1
scor@@ 0.018611954220028287
姦@@ 1
葦 1
堇@@ 1
痴 1
胚 1
雯@@ 1
蛟 1
ask@@ 0.03185881400861644
small 0.021664622464364385
尷@@ 1
畲@@ 1
ig 0.025968956085383313
峒 1
榷 1
涸 1
mas 0.06628263358003149
巍 1
戸 1
诵@@ 1
輟@@ 1
Thom@@ 0.08920103598895812
掸@@ 1
攘@@ 1
濑@@ 1
颅 1
鮠 1
Carl 0.07438566191874008
partment 0.02715384412007169
pat@@ 0.030164610456016122
soci@@ 0.01464737780216931
妄 1
欺 1
罂@@ 1
躋@@ 1
鴿@@ 1
鹭 1
誦@@ 1
谅@@ 1
哔@@ 1
婁 1
屁@@ 1
Hay@@ 0.0748668062927884
Mes@@ 0.07587646444856584
alb@@ 0.023226745657285015
olog@@ 0.01557794217816507
ワ 1
亘 1
烛 1
Af@@ 0.03383518977973037
Hen@@ 0.07924621920771135
ability 0.0314037654868905
夭 1
幺 1
蚀@@ 1
酪@@ 1
锺 1
Kim 0.09562783326722253
ample 0.032388479645804255
any 0.016657897247532843
dor@@ 0.04152149279081657
俑 1
塹 1
簾 1
躬 1
Alli@@ 0.0695481423821925
★ 1
ゃ 1
囪 1
柿 1
稼@@ 1
莪@@ 1
ference 0.03402436121722851
sey 0.07432095548003462
乖@@ 1
菈 1
錘@@ 1
pes 0.026734577707525038
敍 1
飄 1
af 0.0751574359833278
æ 1
娶@@ 1
瓘 1
骏@@ 1
漯@@ 1
秤 1
簇@@ 1
蠍@@ 1
tiv@@ 0.014764448227413707
Å 1
腋@@ 1
Ander@@ 0.06647163768737614
皱@@ 1
镐 1
婷@@ 1
盂 1
min 0.10831646875817837
town 0.015760295162533713
υ 0.4358575590966689
菀 1
賬@@ 1
鲍 1
蒐 1
ham@@ 0.06765390808361751
uni@@ 0.014356158352431285
娣 1
翟 1
mal 0.021006836135702672
map@@ 0.15081221570451417
咲 1
擎@@ 1
镍@@ 1
Tok@@ 0.08157220403625076
ety 0.023881909608355758
Т 0.12862020604917018
扈 1
沔@@ 1
竇 1
蟻@@ 1
cy@@ 0.039785282009960614
蟠@@ 1
Yo@@ 0.14890903932954683
mes 0.015933426123776465
tre 0.009560643479994684
悬 1
赎 1
188@@ 0.37570469320232786
尻@@ 1
Jos@@ 0.10522177190079654
mittee 0.033561150061919294
orum 0.16787323666455256
縻 1
赓 1
Р 0.08775215358550945
堀 1
奚 1
恪@@ 1
猖@@ 1
Real 0.06832121537641205
ago 0.04441107138532118
ester 0.032852123389353026
tis@@ 0.017476521419603718
巽 1
掾 1
漾 1
邕@@ 1
喃@@ 1
懶@@ 1
榻 1
189@@ 0.4083973065347288
啄@@ 1
壕@@ 1
歎 1
瑁 1
Gor@@ 0.0705811988770207
Les@@ 0.0793496978289175
蓓@@ 1
谬 1
Alfre@@ 0.07859719524390062
aba 0.014215803741648825
usa 0.08648107212298892
yd@@ 0.09144982955872646
杓 1
毎 1
泗 1
盼@@ 1
砷@@ 1
邃 1
Sab@@ 0.05975600458130037
墮 1
煌@@ 1
ner@@ 0.01981935675850789
obj@@ 0.02296014489300869
啉 1
蛟@@ 1
鮫 1
Premi@@ 0.04836314447511677
ager 0.023812679810282893
das 0.002696195760466012
xim@@ 0.019107823750655978
劈 1
甾@@ 1
ɛ 1
夯@@ 1
甩@@ 1
遽 1
vi 0.1288817879179551
≤ 1
柘@@ 1
conom@@ 0.05882256366011875
oria 0.061375519771966876
unk@@ 0.015288785409878587
坛@@ 1
釧 1
摊 1
芭 1
恬 1
愉 1
懺@@ 1
湃 1
ait 0.0088637274204833
呕@@ 1
帷@@ 1
躯@@ 1
侏 1
勐 1
Ing@@ 0.04476895197583863
tha 0.09343919766557014
渴 1
ca@@ 0.047949212319438994
eu@@ 0.06696198932518686
vers 0.010905762003892643
摒@@ 1
燭@@ 1
ord 0.06156261746014107
癡 1
闪 1
agu@@ 0.0304568053046032
佚@@ 1
憧@@ 1
焊 1
籬 1
褫@@ 1
Dur@@ 0.0455108178075662
eum 0.04747823086791842
戌@@ 1
浣@@ 1
鳌 1
En 0.003112114116519226
Sher@@ 0.07682675269231236
垢 1
崭@@ 1
Maur@@ 0.05511428704495616
Nu@@ 0.06711846337142492
Seg@@ 0.042481525964867276
music 0.01588910992024499
ological 0.0308107126397695
嶠 1
grap@@ 0.024158236960416652
ton@@ 0.04967520483183812
仗@@ 1
轿 1
陂@@ 1
Vill@@ 0.05251820209650214
ons@@ 0.015384819933245267
紊@@ 1
鮡 1
dle 0.033701221245629305
栎 1
璿 1
惶@@ 1
endo 0.01777850951806641
呋@@ 1
牟 1
禿 1
虱 1
Tit@@ 0.05413691996345188
ji@@ 0.08781441957361909
los 0.0018447752394579334
loy@@ 0.024206285047432538
ulu 0.1270429216160943
灿@@ 1
缠 1
萩@@ 1
钵 1
sor@@ 0.014544671977194792
thr@@ 0.024304951557055962
嫦@@ 1
寥@@ 1
琊 1
迥 1
aly@@ 0.033185388503179196
癲@@ 1
XX@@ 0.13926670418040213
岌@@ 1
拥 1
涡 1
翘 1
鍛 1
Lon@@ 0.16187278189953092
net@@ 0.02962980812865625
缕 1
Jam@@ 0.06788014901767792
Rev@@ 0.06805093877347757
ational 0.03119164350465267
enne 0.013491485188295644
kr@@ 0.02335024620924311
罔@@ 1
虾@@ 1
貽@@ 1
sum@@ 0.02119870819296497
杲 1
泓 1
瀬 1
煬@@ 1
鏗 1
讼@@ 1
闰@@ 1
Eg@@ 0.05011437133226376
Vil@@ 0.05535746435117696
丢 1
剎 1
祀@@ 1
苟 1
铲@@ 1
鳄@@ 1
Bill@@ 0.09321964626420556
Eliz@@ 0.06772404011763333
Indi@@ 0.025047879030843566
eth@@ 0.032477651565820505
itu@@ 0.04869354341707533
pul@@ 0.0226338692133871
uk 0.087015866408094
岖 1
萝 1
鄚 1
霾 1
Div@@ 0.08900217554055617
rot@@ 0.03536622421902052
佼@@ 1
鈺 1
abr@@ 0.035525899593049054
lit@@ 0.020074541600770764
唆 1
恼 1
暹 1
蕪 1
.. 0.0831920864183581
悚 1
珥 1
ways 0.0267246681931404
ㄧ 1
嵊@@ 1
洄@@ 1
狹 1
鯙 1
Barr@@ 0.07061502892267844
Stan@@ 0.05853849414901518
帑 1
漪 1
稔 1
蛭 1
囱 1
榭 1
祈 1
鳖 1
瑠@@ 1
鐸@@ 1
愍 1
馨@@ 1
Cru@@ 0.06083344765634107
兌 1
燊 1
颚 1
ston 0.05780514632821523
拂 1
痊 1
絹 1
Hil@@ 0.040754107683147384
Kle@@ 0.04514537407891505
under 0.0075801606756920195
剷 1
摹 1
秉 1
筝 1
bes 0.03224642505648849
wat@@ 0.03223866001960548
摯@@ 1
ces@@ 0.01602589203849892
cho@@ 0.022284017307269064
搅@@ 1
涩 1
硤 1
礫 1
鉑 1
Deb@@ 0.049448361316875515
Tex@@ 0.06384099881863213
jo@@ 0.02203816395335286
mod@@ 0.026102148175824826
tice 0.022812275982208596
title 0.023746212158795695
瑗 1
禿@@ 1
谒 1
burg 0.019389001556472073
栩@@ 1
汁@@ 1
綵 1
肱@@ 1
軾 1
颌@@ 1
Alex@@ 0.15084342354770772
浊@@ 1
漲@@ 1
穢 1
芹@@ 1
aun@@ 0.054205314076243814
吩@@ 1
绶 1
蒜@@ 1
鉅@@ 1
bri@@ 0.02018630652671761
ente 0.005819139779826197
uh@@ 0.0351380624073766
ば 1
孽 1
嵇@@ 1
耘 1
酥@@ 1
ew@@ 0.03111225717296782
him 0.00753523279581094
ご 1
乩 1
拘 1
曠@@ 1
琬 1
瑕 1
镉 1
amo@@ 0.03624014149094091
cont@@ 0.00996086249493339
ories 0.026167381701960618
sing 0.03243213396511746
ʰ 1
疽 1
Brit@@ 0.037846119187416434
Tem@@ 0.056063600141839275
勅 1
瑋@@ 1
聾 1
gan 0.06830971312972525
砾 1
綏 1
羯 1
臚 1
砦 1
羨@@ 1
込 1
霓@@ 1
pon 0.02914648671548238
wo@@ 0.02606211545074484
懦@@ 1
栈@@ 1
渎 1
蝰 1
酌 1
釘@@ 1
Aus@@ 0.007573623788575448
lev@@ 0.035442659832021585
used 0.006259079147715682
蚕 1
蛾@@ 1
邈 1
镓 1
髦 1
Govern@@ 0.027041818615254294
闾 1
鸽@@ 1
Pad@@ 0.07936463601944338
fu@@ 0.013934210571156383
long 0.01386297766881368
戡@@ 1
楹 1
瀆 1
灼 1
荨@@ 1
餡@@ 1
jo 0.0182913923699483
桦 1
Beg@@ 0.02743388911182663
Din@@ 0.09090840118524375
Ka@@ 0.09827547329927101
裘 1
贛 1
韜 1
嚨 1
擱 1
梟 1
矶@@ 1
粘 1
缪 1
钒 1
Nar@@ 0.07373501351942822
ante 0.006867482290803556
dh@@ 0.04744225315609486
using 0.01708281601159347
巍@@ 1
梳 1
鐮 1
钯 1
颐@@ 1
Die 0.0026404737813472685
Revol@@ 0.04766235460979251
awa 0.05142515259356818
ず 1
苇 1
hum@@ 0.011902820376529802
傻 1
喘@@ 1
跻@@ 1
Mand@@ 0.07370581017410631
Organ@@ 0.03543073320145721
ites 0.026315034721089946
Ⅰ 1
涟@@ 1
畹@@ 1
fal@@ 0.029850729928071352
ks@@ 0.030899256849489805
rati@@ 0.01901326035871077
繇 1
茴@@ 1
釐@@ 1
績@@ 1
钙@@ 1
Dam@@ 0.04777681406731956
钨 1
Friedrich 0.04634323395050953
檜 1
祁 1
bus@@ 0.012779543152678645
life 0.010664416214801116
pi 0.20584228826312365
د 0.03118332508081967
س 0.03888401736047881
澹 1
Som@@ 0.028629504819402195
ains 0.012732668695581168
蕴 1
顗 1
Am 0.01657147984613383
Bay@@ 0.03657848823528147
bit@@ 0.03947226933308618
晞 1
Chem@@ 0.06952808757932645
喂@@ 1
齦 1
Pil@@ 0.06606805086815115
uma 0.0795252414772239
戟@@ 1
賠 1
餌 1
ori 0.0698048830152289
ζ 0.3120241880623993
尻 1
炙@@ 1
荠 1
钉@@ 1
鹊 1
Bot@@ 0.029630266793179132
nis 0.02551179278191111
掺@@ 1
隧 1
Pau@@ 0.06870858466315038
depend@@ 0.03431834556099714
セ 1
儸 1
捻 1
湟@@ 1
疼 1
鍍 1
Gold@@ 0.06608257272132034
Scot@@ 0.02716069153229283
Way@@ 0.12471199056268006
dom@@ 0.019532041184803495
opp@@ 0.03543143824612924
蘋 1
颌 1
bach 0.030282409052687403
lor@@ 0.09058274531096747
啮@@ 1
嘯@@ 1
骥 1
bu 0.029328494756807433
iri 0.11006681424846877
sis 0.15330097455647665
tural 0.020765184230827283
ui 0.0831773982626039
暈@@ 1
様 1
燁 1
eria 0.08937348298008753
olas 0.05760263627044656
opo@@ 0.10458914432844627
µ 1
亢 1
薊@@ 1
je@@ 0.013390471332819478
恃 1
捣@@ 1
滸@@ 1
璨 1
鈺@@ 1
Bou@@ 0.06950359228494139
俐 1
癸 1
Kam@@ 0.046989951688176795
jam@@ 0.04935487014504133
俭@@ 1
瘡 1
祜@@ 1
鷺@@ 1
壬 1
沭@@ 1
漿@@ 1
燮@@ 1
瞄 1
诲 1
鱧 1
Kat@@ 0.03447705609548128
ʁ 1
嬪@@ 1
晟@@ 1
獺 1
羲@@ 1
颊 1
Ay@@ 0.06251029992442257
France 0.010311742150796974
ots 0.02597602706344348
哮@@ 1
垩@@ 1
涇@@ 1
琐 1
迂 1
邢 1
锚 1
驍@@ 1
Ky@@ 0.08184222524765643
Women 0.037467827796522586
ardo 0.05580927930911512
犍 1
肽@@ 1
Juan 0.03444626629913993
omo 0.10054821640013409
star@@ 0.015278437353273748
恳@@ 1
陇 1
Hand@@ 0.028762707247090943
hat@@ 0.09324445199998238
匐 1
妒@@ 1
痘 1
絶 1
羔@@ 1
豎 1
鄙 1
釷 1
钼 1
镛 1
been 0.004198372088009225
嚕 1
缆@@ 1
eno 0.051273509516445895
忏@@ 1
痺 1
衅 1
see 0.018878330783123065
偃 1
娄 1
屡 1
蒯@@ 1
蜡 1
閏@@ 1
鰲 1
ett@@ 0.02581501931316029
ift 0.11961098951941027
inst@@ 0.017697939319136834
unds 0.028579115522596003
vent@@ 0.02340727158434154
yer 0.029987277713564037
綦@@ 1
萸 1
饿@@ 1
Greg@@ 0.0824194872001391
Prix 0.060548014463601696
aa 0.14897040319314617
恺@@ 1
撐@@ 1
Arti@@ 0.0597130222305013
Pon@@ 0.07212404233212465
live 0.030130138152724962
sem@@ 0.014446717465748339
Б 0.09525752758505457
淅@@ 1
漬 1
Centr@@ 0.07493550372746245
ements 0.011474852946540189
旻@@ 1
罩@@ 1
Has@@ 0.07456349958071605
bers 0.0319621113066135
栽 1
糙@@ 1
胭@@ 1
匍@@ 1
悄 1
柵 1
汙 1
淖@@ 1
辻@@ 1
ologi@@ 0.0309011811074578
х 0.004262219414593903
胪 1
茗 1
ball 0.017046961337989504
chen 0.009364726925583409
婕 1
恙 1
瘟 1
Anna 0.0676999617691859
Division 0.020925655378291663
嘅 1
媚@@ 1
烂@@ 1
迄 1
钰 1
鳍@@ 1
sch 0.021553859574614594
槛 1
浒@@ 1
熾@@ 1
def@@ 0.013192206951441047
resul@@ 0.015023295742863924
ures 0.016175333332041967
汛@@ 1
痰 1
竿@@ 1
茫@@ 1
鈸 1
Vit@@ 0.09981019234389446
iga 0.08501660865612458
lem 0.042254539259909386
壺@@ 1
渭 1
珅 1
璠 1
盏 1
砵 1
铋 1
麓@@ 1
ills 0.03429609665428658
je 0.03445216916077248
峠 1
漩 1
玫 1
orial 0.027344309841812815
婕@@ 1
恤@@ 1
沅 1
荀 1
侗 1
铊 1
锗 1
aqu@@ 0.027015881085073842
inf@@ 0.01703874357670537
iss 0.05429445002461752
osp@@ 0.0528809042750185
ogo 0.16780254823811513
tak@@ 0.010877677805171768
vid@@ 0.017267236634704104
咄@@ 1
尴@@ 1
峴 1
溉@@ 1
滬 1
澗 1
Dan@@ 0.02659960942733503
chan@@ 0.01918985038549304
imb@@ 0.05295389785863652
冉 1
潇@@ 1
窪@@ 1
Bah@@ 0.021173680571935662
hab@@ 0.016372245857571258
hom@@ 0.014197639029265584
onom@@ 0.025843164971306697
sions 0.01773184115832239
version 0.017497684170076834
瓣@@ 1
輻 1
铨 1
靺 1
han 0.027209526919725762
苴 1
Der@@ 0.041003769065220935
Tod@@ 0.053719563983100946
after 0.004431579365622699
乍 1
next 0.02356319103404685
Ⅲ 1
嗪 1
嵯@@ 1
掖@@ 1
anne 0.05493461840603616
熹@@ 1
瑣@@ 1
water 0.017293182348138432
榈 1
瀾@@ 1
盞 1
鐳 1
陲 1
俺 1
Bau@@ 0.017710044371659114
book 0.01874047165883226
ネ 1
揣@@ 1
榈@@ 1
郢@@ 1
頗@@ 1
Wa@@ 0.09348686928779076
land@@ 0.01279264801073418
mit 0.0018084587273742984
sta 0.02513483177305366
灑@@ 1
缸@@ 1
駒@@ 1
alan 0.08880305762703888
nov@@ 0.018771033796467232
娼 1
闫@@ 1
鞨 1
鱺 1
栋@@ 1
皺 1
祜 1
酌@@ 1
鈣@@ 1
Clau@@ 0.05850326067616085
Paris 0.014007957058457319
ker@@ 0.03157981560049552
others 0.020033763133212396
偈 1
眺 1
窪 1
笹@@ 1
荻@@ 1
萤@@ 1
Bil@@ 0.021840763383486828
Hans 0.052893484575146865
ders 0.023629936832362596
liv@@ 0.016640958003453353
彪@@ 1
Da 0.0512186350292775
ept@@ 0.043290283242024934
tier 0.0473912692554843
勺 1
臧 1
荔 1
鰺 1
adi 0.09451957936286653
bis 0.004327442353755064
ior 0.01678871458084657
澧@@ 1
ape 0.047369221449546806
颓@@ 1
駙@@ 1
ei@@ 0.027330093251507467
test 0.04692114686465558
Н 0.04312977555393698
啞@@ 1
槽@@ 1
酶@@ 1
round 0.021068449298508995
俏@@ 1
啼@@ 1
炽@@ 1
珞@@ 1
盱@@ 1
阇 1
馭 1
From 0.023146523814526195
Hosp@@ 0.050328509114689966
cell@@ 0.031920550537068715
rap@@ 0.01447766615953383
state 0.010772997445491775
偵 1
嘲 1
墻 1
慨@@ 1
栱 1
烙@@ 1
鍍@@ 1
prim@@ 0.01032952172370798
炬@@ 1
蘚@@ 1
ump@@ 0.03173892494225581
ustri@@ 0.05820106654656703
幀 1
皱 1
钧@@ 1
Zi@@ 0.037622884557046245
over@@ 0.01495174941860023
嵴 1
榘 1
炙 1
鑼 1
亟@@ 1
沐 1
瘠 1
绰 1
荖 1
菓 1
蝗 1
BK 0.4100362234546308
Kom@@ 0.014661508822069737
onder@@ 0.07977084733414043
玠 1
骤@@ 1
Bad@@ 0.06833012733428649
Kab@@ 0.07399257246022102
亢@@ 1
昱@@ 1
灿 1
炜 1
It@@ 0.021341193976453194
怜@@ 1
珏 1
羥@@ 1
鸫 1
gh@@ 0.03671889753704569
壇@@ 1
専 1
揀 1
癇 1
瞩@@ 1
蟒@@ 1
alls 0.022058546575636172
bridge 0.02910360479405089
Nam@@ 0.054682633264835454
aja 0.05387778930389433
ext@@ 0.021827139266607887
ij@@ 0.05190693054941284
垩 1
奭 1
焜 1
come 0.02121999202502804
cos@@ 0.06270670423578073
esti@@ 0.015153015448325825
flo@@ 0.022280840686652113
醃 1
Antonio 0.04731267377559463
edy 0.03466308537585657
hip 0.03856597232441348
place 0.008076875738527755
嬴@@ 1
盪@@ 1
饼@@ 1
Natur@@ 0.036574533687883735
熒@@ 1
Francisco 0.03264792883309844
has@@ 0.07804615655593788
mid@@ 0.026010213932806007
佥 1
樱 1
魷@@ 1
service 0.013942264195317397
who 0.0032298094651690293
塭 1
恿 1
苻@@ 1
鲈 1
most 0.006894312326123258
var@@ 0.034489872417377
ァ 1
冪 1
瀘@@ 1
猾 1
琶@@ 1
薈@@ 1
Mun@@ 0.04442294761738322
berto 0.06067466414052917
洮 1
茸 1
饵 1
Г 0.07738420692844347
і 1
ほ 1
筷@@ 1
蟑@@ 1
Pier@@ 0.12728471231083532
Ω 1
襯 1
囤@@ 1
怯 1
柝@@ 1
檜@@ 1
禺@@ 1
窺@@ 1
笨 1
蝨 1
珲@@ 1
蒼 1
豈@@ 1
鸮 1
Anne 0.06516958899408888
Fern@@ 0.023414361211944477
bury 0.04523436258075892
inde@@ 0.051107420112262845
ric@@ 0.022113267247216205
吓@@ 1
滔@@ 1
澎 1
蹦@@ 1
Carlos 0.04615078308154614
ag 0.062426054810834644
alia 0.076821882093872
ords 0.021778935265883807
plat@@ 0.019067340683866594
Σ 0.5530922652451218
Got@@ 0.03464727397169819
Victoria 0.051708978137494976
comm@@ 0.008466587634424184
ily 0.020527966120049496
澂 1
邾 1
Dal@@ 0.0770071454230266
ebr@@ 0.03724462498963864
撑@@ 1
柬 1
矾 1
诣 1
辕 1
锚@@ 1
game 0.011155006278914149
uld 0.02691137046847588
庵@@ 1
惨 1
棻 1
瓏 1
窯@@ 1
覲 1
逞 1
陝 1
２ 1
hel@@ 0.013134962426243825
姥@@ 1
甬 1
矚 1
荪 1
dig@@ 0.013605076367032879
uta 0.060756001100354166
И 0.03249442440789519
弒 1
恬@@ 1
攪@@ 1
浬 1
base 0.020240033191082037
order 0.018355174780175544
ふ 1
娱 1
Alexand@@ 0.055027140887956814
Lib@@ 0.05624649673465708
anger 0.04332802263907736
urn@@ 0.03998269781842526
zer 0.0630578547570847
า 0.05091108636681468
禰 1
臀 1
Radi@@ 0.07677418277944817
aire 0.006237305052455788
墩@@ 1
搗@@ 1
聾@@ 1
頡@@ 1
ches 0.009654002054912217
黏 1
å 0.5157118180480793
慑 1
殡@@ 1
肼 1
譏@@ 1
邛@@ 1
醌 1
鏟 1
濛 1
酚@@ 1
魟 1
Ali 0.0703649927828991
Gra@@ 0.03963151353424787
Seb@@ 0.07961727523416501
呵@@ 1
扒 1
獗 1
蠡@@ 1
軔 1
gia 0.01932231689734319
iki@@ 0.16862782360051842
lan 0.07306799552979111
ц 0.016280464592003687
匀@@ 1
匮@@ 1
荻 1
sing@@ 0.016972361459703846
杠@@ 1
赔 1
鯤 1
Var@@ 0.061600522182285504
fa 0.08023568879284011
rea 0.0336456384755929
咆@@ 1
嶄 1
Los 0.009233276193708903
bin 0.07621814445652418
sych@@ 0.03306513763221777
yu 0.1635471589593559
吡 1
gener@@ 0.01203688146083533
泓@@ 1
裨@@ 1
驥 1
Wer@@ 0.014581772367977024
ボ 1
俳@@ 1
娇 1
怕@@ 1
筵 1
葆 1
Sant@@ 0.055773245974689294
Wan@@ 0.27439581353920656
eller 0.035803186713206654
ender 0.02288777891334277
lag 0.024348745788651167
ordin@@ 0.0245746542880336
榛 1
蒨 1
邠 1
鵜@@ 1
Wit@@ 0.059501342524085565
gio 0.0686375775712964
湮@@ 1
甕 1
蠟 1
醛@@ 1
馱 1
mar 0.04316864656854338
∞ 1
幂@@ 1
抛 1
盎 1
鸢@@ 1
olo 0.07062961800404226
stati@@ 0.05437145875041744
tan 0.033306763750592855
ی 0.0869478534026284
ケ 1
佰@@ 1
珮@@ 1
艮 1
蚵 1
訖 1
誨 1
躬@@ 1
Arg@@ 0.07890943273521568
Thi@@ 0.06208463819932177
agn@@ 0.019830382273409337
eron 0.0197621129972368
mont 0.03924609886155269
umia 1
噻@@ 1
晰@@ 1
î 0.15923064926032732
О 0.0337063803248131
丶 1
刈 1
坵 1
庑 1
珣 1
珮 1
虏@@ 1
裤@@ 1
訶 1
Sau@@ 0.048814653200278196
rem@@ 0.011411917825408482
卤 1
睇 1
莅@@ 1
鉞 1
驒 1
part 0.00529153381507117
僖 1
癢 1
苍 1
蛸 1
袒 1
ses 0.004828734948821251
won 0.009493456091908601
敎 1
鄯@@ 1
驛@@ 1
魴 1
Bow@@ 0.04404714528663997
adr@@ 0.022958583268411194
ected 0.008929373098922479
sea 0.028032665876721683
spe@@ 0.016049423579945814
寛 1
憐@@ 1
鵲 1
Kol@@ 0.03390522461034187
ί 0.06635807639049104
ा 0.1438276007442867
撮@@ 1
笏 1
銨 1
astr@@ 0.02498974007392454
direc@@ 0.0075667469944424625
槓 1
猕@@ 1
莅 1
蛺 1
閹@@ 1
Cou@@ 0.04361449764577674
lus@@ 0.03681618956048552
sk 0.057299355231852075
拦 1
晦@@ 1
猥@@ 1
鄢@@ 1
sin 0.021225504323612615
缽 1
蕲@@ 1
錮 1
hil 0.11615694582256758
ju@@ 0.01208174846975977
sit@@ 0.013165455063463736
zen 0.016747849682089897
् 0.0015767118522079207
岂@@ 1
愫 1
玳@@ 1
绛@@ 1
谕@@ 1
姥 1
懒@@ 1
Buc@@ 0.05302627848936407
lab@@ 0.019534205492988194
粿 1
Western 0.02889204185222943
rac@@ 0.01764678139884038
ron@@ 0.028600249557718803
楫 1
熾 1
稼 1
郝 1
鎧 1
馥@@ 1
Lag@@ 0.0583474820118838
瀰 1
uno 0.019770481509125942
羡@@ 1
nd@@ 0.07092462045651093
儉@@ 1
卍 1
屹@@ 1
撻 1
枉@@ 1
榨 1
縊 1
ă 0.3111620357643376
gi 0.09195457852068575
idi 0.07782798985793232
media 0.02636759302055269
multi@@ 0.026496938096923172
憫 1
aul@@ 0.05403035890122121
ells 0.03165110240784312
ges@@ 0.008430104170291055
some 0.007559641475982741
聋@@ 1
邳@@ 1
郧@@ 1
鵑@@ 1
dern 0.022521556400550938
洱@@ 1
浔@@ 1
灝 1
砚@@ 1
date 0.027038646367967396
ego 0.02513475390443171
ogr@@ 0.07077138927446652
捏 1
楯 1
銮 1
Johann 0.04159755487536643
lim@@ 0.02319943616968726
tors 0.017823368915967554
梶@@ 1
爍 1
贱 1
闷 1
Championship 0.0239442923598066
eer 0.019724257886102325
nu@@ 0.022808227595343754
蝕@@ 1
镕@@ 1
Kl@@ 0.021114176519595493
anti 0.03432471774916645
gir@@ 0.024820997099096936
mem@@ 0.0189634425755834
壑 1
蝓 1
豈 1
驃 1
﹕ 1
Archit@@ 0.04003796452883993
Jacques 0.053958500259755224
blo@@ 0.031237903966737323
stat@@ 0.012851458985303175
亏 1
晁@@ 1
闐 1
鴕@@ 1
ecture 0.026974345361570604
japon@@ 0.06107700139420649
† 0.021467668634027704
├ 0.34401730070432757
匆 1
撮 1
櫟 1
紜 1
虢@@ 1
郃 1
Rud@@ 0.05835594379081587
asi 0.06889412696715624
cle@@ 0.02607266875923341
iz 0.03924213628178086
ority 0.019782480718070275
otr@@ 0.12261569369436666
桧 1
檳 1
漩@@ 1
緹 1
颤@@ 1
about 0.006470050160473712
contr@@ 0.005788836766255374
ities 0.020028726434564114
wing 0.016128545961215553
ع 0.03525991051720709
怛 1
瑀 1
瓢@@ 1
絳 1
蝇@@ 1
ous@@ 0.04744831566049608
ш 0.040345674137253554
噹 1
枚@@ 1
艘@@ 1
褪@@ 1
遁@@ 1
eli 0.04466930597021826
哗@@ 1
犍@@ 1
莘 1
蟎 1
錳 1
` 1
polis 0.056085566701756115
stand@@ 0.010965221351703686
ピ 1
悖 1
歿 1
綬@@ 1
蛞@@ 1
豚@@ 1
鯽 1
alt@@ 0.011118233412242304
based 0.010473227354302402
craft 0.026701789501957313
esta 0.011720540399202655
igu@@ 0.015818170145113143
tn@@ 0.05650141009230529
潁@@ 1
藐@@ 1
邇 1
锯 1
Lud@@ 0.04284809400179086
aha 0.09898598664986073
kel@@ 0.03775010354384324
umi 0.1427581726897094
劈@@ 1
厨 1
洱 1
豊 1
贼@@ 1
Cab@@ 0.050191342722034606
amin@@ 0.04974355795719662
lot 0.022779931539416307
哮 1
錠 1
Ken@@ 0.08366314091855512
aining 0.015021684202537702
lines 0.02897602635770768
県 1
賁 1
aca 0.05479230005444261
ɔ 1
ね 1
涝 1
齧 1
ś 1
愍@@ 1
秽 1
鵙 1
黒 1
elo 0.044862604054224285
ò 0.09466987603732094
剽@@ 1
藓@@ 1
陋@@ 1
Sain@@ 0.049748366537000335
Sak@@ 0.07998942902850757
high 0.011797534791885287
ت 0.02620061795315121
啄 1
嫣 1
蹲 1
阆@@ 1
band 0.008867494675837306
ck@@ 0.031820126237146
mun@@ 0.020601791303376832
oman 0.029678368153215232
trol@@ 0.039502439906193156
­ 0.16857498968029191
燬 1
bot 0.06122955175337
む 1
燾 1
瑯@@ 1
篙 1
鹫 1
ement@@ 0.028835743239890677
song 0.011897830141391612
傈@@ 1
孖 1
瓯@@ 1
鯖 1
Nat@@ 0.06815758884437306
Prin@@ 0.045131363568172184
comple@@ 0.015415731799760484
film 0.0053533786901979056
mir@@ 0.029743378784175677
nati@@ 0.02136688145059476
rain 0.04067892362956805
would 0.005109423126247383
婢@@ 1
爨 1
龈 1
ded 0.014750946291787309
lang 0.031994300771538205
lon@@ 0.06595874377035957
ved 0.006553826686475645
枯 1
氚 1
Anti@@ 0.04280652274521603
pot@@ 0.018994176737395032
ð 1
晒@@ 1
筠@@ 1
ands 0.01505206249684665
bon 0.0359724547233926
ento 0.014188531443736276
mak@@ 0.020207186716143945
site 0.012046397834096764
station 0.010273978554306739
唁 1
槎 1
瓒 1
痒 1
繆 1
諺 1
Ni 0.4554673113921826
ments 0.01650971653258151
omb@@ 0.029643318436324617
pro 0.04911897265310441
儼@@ 1
旬@@ 1
煊 1
癫@@ 1
秃 1
覓@@ 1
倻 1
Ober@@ 0.015432306876334
bat@@ 0.0127992863598299
district 0.014489643280889608
odi@@ 0.03576469803032585
拯 1
煇 1
軫 1
麋@@ 1
Maz@@ 0.07582563584647785
Nak@@ 0.10467631417258257
hai 0.02875198256880836
there 0.0069570224227722115
ぶ 1
彊 1
辙 1
凑@@ 1
睪 1
蝉 1
赚 1
魅 1
鸳@@ 1
August 0.006864386299458141
board 0.0286240160437361
ku 0.11586739438974383
匱@@ 1
妞 1
暐 1
矽 1
eas@@ 0.019122110627875992
ishing 0.024037998635213702
ough@@ 0.015611369699811469
teri@@ 0.03121068759683191
ร 0.049595240048712734
卞 1
坠 1
殴 1
烨 1
聶 1
sion@@ 0.019559160959669194
沸 1
瘍 1
Hir@@ 0.05485460819878809
Jap@@ 0.019944857307311003
Person@@ 0.026175164552413917
Tab@@ 0.05685183683371895
han@@ 0.06658318126792473
les@@ 0.016631592997001635
ores 0.009053183072907445
umb@@ 0.034134438384274
俶 1
朽@@ 1
萎 1
萼@@ 1
Lat@@ 0.034024005349785544
aud@@ 0.053013104774941026
three 0.005709311648670995
骧 1
鲀 1
龢 1
bol@@ 0.04236452970434466
leng@@ 0.024158028673023527
uss@@ 0.01711591822131528
蝌@@ 1
Kap@@ 0.030375598323872526
asp@@ 0.03174401855090938
emple 0.07764077071270171
mol@@ 0.028328751949908977
rie 0.05800410541983716
tol@@ 0.03571580465668576
窺 1
薦@@ 1
邳 1
鴦 1
fas@@ 0.028648101063822793
愧@@ 1
緞 1
乖 1
咳 1
惰 1
阯 1
癬 1
睽@@ 1
箴@@ 1
拙@@ 1
覬@@ 1
諒@@ 1
锭 1
Tour@@ 0.03097009134984052
kw@@ 0.07453607789870752
nia 0.06543555692662124
radi@@ 0.034482962713530914
super@@ 0.019094809801107258
哑@@ 1
怠 1
违 1
閭 1
顒 1
驤 1
墀 1
揉@@ 1
蜚@@ 1
袍@@ 1
鉢 1
＞ 1
squ@@ 0.020533791923659724
trop@@ 0.027715429933369323
vie@@ 0.012644414203084086
י 1
ソ 1
檄@@ 1
淄 1
谎 1
韬@@ 1
Blan@@ 0.04854150257688518
law 0.017033850412000343
傣 1
蠍 1
錡 1
she 0.004335116780370056
▲ 1
ゲ 1
疱@@ 1
蝨@@ 1
餡 1
otte 0.03708814409625069
涕 1
潑@@ 1
輒 1
鉗 1
閨@@ 1
produc@@ 0.008028108138439273
second 0.006471972527638782
嬴 1
氪 1
籽@@ 1
胤@@ 1
蹇 1
韭@@ 1
lar 0.013837484316006782
ゴ 1
嗆 1
磊@@ 1
箴 1
纺 1
Gas@@ 0.05761924906450088
atis@@ 0.025306825333012692
eva 0.0638980190202968
lip@@ 0.056493953552825577
pil@@ 0.02117285030205573
ポ 1
奢 1
渺@@ 1
蓁 1
蚯@@ 1
觐 1
阈@@ 1
隗@@ 1
韌 1
鳌@@ 1
Wilhelm 0.04382122493404965
hard 0.03573997523286128
娇@@ 1
弭 1
怯@@ 1
晝 1
曇@@ 1
曖@@ 1
杖@@ 1
urg 0.02343261141683968
ザ 1
儋@@ 1
晕@@ 1
疮 1
蓓 1
蕊@@ 1
觅@@ 1
軋 1
铰@@ 1
----@@ 0.9215284110219639
棗@@ 1
氈 1
eil@@ 0.0248940346303809
fic@@ 0.008540141278024252
燼 1
玮 1
锷 1
Canada 0.016727477228235074
Sat@@ 0.05512608710943725
挚@@ 1
挨 1
歩 1
澧 1
瞎@@ 1
靚@@ 1
cir@@ 0.012558768732495547
play@@ 0.010016384723439782
唆@@ 1
濠@@ 1
粽@@ 1
藕 1
蹂@@ 1
Brand@@ 0.05386872780509404
Ny@@ 0.11783070357668968
san@@ 0.025894045185127102
through 0.006926500030295617
掣@@ 1
琢@@ 1
锟 1
aron 0.008751430387865652
get@@ 0.027715119045998722
斟@@ 1
橐 1
洺 1
涓 1
箍 1
羯@@ 1
醜 1
雒@@ 1
Ng@@ 0.03928252732916529
enth@@ 0.0292789924982806
esse 0.017707495660220802
proj@@ 0.012260492624036577
僞 1
嚐 1
烁 1
餾 1
Kas@@ 0.04514398092671182
cons@@ 0.006004247400826606
enberg 0.04786772491119603
flu@@ 0.02900580593386523
ˋ 1
妨 1
搗 1
樽@@ 1
炽 1
糠 1
蚪 1
鄔@@ 1
Domin@@ 0.05122589547636446
Hav@@ 0.04443212708019719
She 0.006104270092596769
When 0.01575047012284306
bot@@ 0.021848772528405735
eing 0.043633228255501595
lad@@ 0.0204410550149043
滎@@ 1
竖 1
郯@@ 1
osh@@ 0.0848937611899315
絆 1
莿 1
阎 1
霏 1
鱔 1
Bec@@ 0.03829699034347864
isch@@ 0.011639396123173024
people 0.007663860919437019
tran@@ 0.03270177348770853
曷 1
煲 1
琏 1
脲 1
鮪 1
kan@@ 0.025255880781509053
咁 1
徭@@ 1
蠔@@ 1
Fir@@ 0.04829390306521359
ael 0.08006019956934099
eni 0.08010727052062244
琢 1
膾 1
鑾@@ 1
aut 0.014559920500589473
mov@@ 0.010540710455960728
when 0.004726646240441965
∈ 1
ぐ 1
喷 1
imi 0.08165776102137956
wr@@ 0.03856799186474479
yon 0.03916538449376485
zy@@ 0.04503110426660326
劭@@ 1
蠣 1
鞘@@ 1
颢 1
駝@@ 1
Army 0.018803838974559246
ben@@ 0.011772291950148703
cri@@ 0.008185796209641875
玥 1
瑩@@ 1
謫 1
赭@@ 1
Flor@@ 0.049245388350393625
Wag@@ 0.07705733257993548
edo 0.04438596632159912
秤@@ 1
郓@@ 1
dra@@ 0.01779211898077661
ister@@ 0.013837971573047624
kt 0.012020090688269513
啸@@ 1
汨@@ 1
溟 1
舶@@ 1
袜@@ 1
铍 1
雹 1
頹@@ 1
Democ@@ 0.025451666951213276
ades 0.013248591999244337
chester 0.03125484967117564
cip@@ 0.024797035645099372
coll@@ 0.0071052823218879894
conn@@ 0.009792604107147338
doc@@ 0.01952900342250972
plus 0.00405313357909549
top@@ 0.04601632535967181
ά 0.025943846106357558
勗 1
殆 1
谛 1
阀@@ 1
Florida 0.034501315578490815
each 0.010753666984592136
former 0.00950842694829171
oli 0.09415367454843171
qu 0.02798512668327815
崂@@ 1
犢 1
ony@@ 0.02979845340625976
暠 1
耒@@ 1
詰 1
铮 1
頤@@ 1
Sa 0.04530649180624685
ador 0.00855646073169234
olf 0.04257836424580856
ular@@ 0.019885371510617655
≥ 1
宕@@ 1
糜@@ 1
abl@@ 0.01784402890831686
din 0.07418869585622417
０ 1
ido 0.00635829465926484
ulation 0.03148767266626984
勰 1
嘆@@ 1
爰 1
瞬 1
竞 1
褻 1
鈷 1
Jack@@ 0.09520920736682231
碗@@ 1
稹 1
繭 1
讫 1
跖@@ 1
躁@@ 1
逗 1
elt 0.008101612515078389
ember 0.0692555759759807
level 0.01925278997929518
へ 1
燉 1
痹 1
粪 1
蒿@@ 1
诃@@ 1
anci@@ 0.01473238783194067
dez 0.046967269450390044
mul@@ 0.028802715304321682
淩 1
絢@@ 1
縉 1
録 1
陡 1
March 0.00845476559423177
agen 0.013248667582381954
eck@@ 0.027187796307471188
etti 0.05147232608223257
gether 0.01837940679975291
疃 1
铬@@ 1
鬃@@ 1
fe 0.017026232915480867
fication 0.0196516315222606
que@@ 0.03197498835585453
such 0.00546477701408573
喱 1
朐 1
洒@@ 1
灝@@ 1
蛻@@ 1
鶘 1
麝 1
aer@@ 0.05292587782624333
power 0.017164773002380947
潢@@ 1
砜 1
Hit@@ 0.047736055505230676
Id@@ 0.06328659726272456
Lan@@ 0.04350607418108576
car 0.014221809396037852
dorf 0.028491437362046297
kil@@ 0.02274693561280797
nom@@ 0.013986534229729659
pic@@ 0.023861537707001095
ving 0.01805512419908858
囂 1
塱 1
隅@@ 1
靡@@ 1
骅 1
ists 0.010800725125641132
孃 1
帘@@ 1
瀑 1
疹@@ 1
靛 1
鳗 1
Columb@@ 0.03335378715129257
iti 0.08026640352645201
pas@@ 0.008772208842423175
χ 0.3433018676980364
獼@@ 1
鈹 1
home 0.011095573140068555
厩 1
揉 1
暄 1
碓 1
芩 1
蚺 1
誇 1
赌 1
辎@@ 1
閤 1
mir 0.046584423470819876
tou@@ 0.017460445139369105
ベ 1
娼@@ 1
枉 1
竣 1
Wes@@ 0.045779082466206794
but@@ 0.018086152479959865
晩 1
沢 1
眩@@ 1
虜@@ 1
輋 1
cial 0.01293483780282431
city 0.008701729168677633
dre@@ 0.02040182526017453
ern 0.006516651481191272
mos@@ 0.025217259478820458
series 0.007583964978268729
soft 0.1605505337131544
vention 0.026219423547475463
甩 1
簪 1
谟@@ 1
album 0.005792521198065476
alg@@ 0.02054243398321046
mus 0.05339880735021074
quar@@ 0.016204371969785022
® 1
徳 1
昉 1
樵@@ 1
氡 1
沮 1
溼@@ 1
痫 1
aco 0.050875350562427875
heim 0.03243125984197817
identi@@ 0.009005347994338503
may 0.007903112913012435
△ 1
愁@@ 1
捞@@ 1
橈 1
潦@@ 1
濮 1
筊 1
钠@@ 1
ended 0.007989505697265515
neg@@ 0.014862474770056701
ギ 1
们@@ 1
儡@@ 1
柚 1
聳@@ 1
菖@@ 1
龚 1
咯 1
恍@@ 1
氘 1
猬 1
胀@@ 1
钛@@ 1
bol 0.043090768201743804
estra 0.029112201396065126
ked 0.01347154002219275
lim 0.06137561711981652
school 0.007957013656794756
shire 0.019981870862255346
朮 1
樺@@ 1
痊@@ 1
耸@@ 1
At 0.00976209206037198
Profes@@ 0.046976599502704094
format 0.04843873469686518
蝮@@ 1
覦 1
鲱 1
Europe 0.01506168203205518
alog@@ 0.030308713729707514
mut@@ 0.021307949744768885
show 0.012554148390662169
Á 0.23824085471978831
蟆 1
軛 1
骸@@ 1
Abr@@ 0.05714424177805207
fo 0.0694824673634231
凪 1
莢 1
锈 1
闢@@ 1
dal@@ 0.04920055427829581
び 1
嶷 1
甌 1
砥@@ 1
篩 1
隣 1
There 0.009979064085374231
Um@@ 0.019448002455865466
chr@@ 0.05296090029179343
year 0.004725516529090046
½ 0.24632357797866838
妍@@ 1
鱉 1
Bun@@ 0.05935773022933692
pos 0.016930778169248463
ό 0.021586324469966233
ヤ 1
恼@@ 1
憚 1
捩@@ 1
疤@@ 1
竑 1
鰓@@ 1
ango 0.06660288234012578
away 0.021244506270796968
da@@ 0.03985826990729257
ˊ 1
伉@@ 1
冑 1
擋@@ 1
汜 1
玷@@ 1
窜 1
腌@@ 1
鳐 1
ische 0.003897866201794968
major 0.01264414831526189
圜 1
撼@@ 1
滷 1
漂 1
阗 1
鴛@@ 1
Willi@@ 0.07883751476417039
trac@@ 0.016002552951210943
ه 0.018497979239032132
淖 1
甥@@ 1
苇@@ 1
ぎ 1
坻@@ 1
寥 1
巩 1
疤 1
萘 1
觐@@ 1
Mut@@ 0.035917078171546185
ingu@@ 0.02447525368451597
lers 0.022307082070792485
sign@@ 0.02213565563506948
war 0.0019361692062643176
屁 1
瞎 1
紇 1
諫@@ 1
賬 1
钕 1
钝@@ 1
bac@@ 0.04147544073259134
family 0.006831808561486255
umin@@ 0.04147186510273974
旷 1
訛 1
訢 1
譙 1
醞@@ 1
aye 0.047630332092283616
ment@@ 0.017450120276476123
ram@@ 0.04104247480866783
vin@@ 0.03177525736004989
櫥 1
燙 1
窥@@ 1
Hab@@ 0.03916570448835754
atin 0.02815561031365453
ique 0.00947229537886261
pass@@ 0.007369251857570036
wa@@ 0.04610185956351051
廨 1
皋@@ 1
簾@@ 1
荐@@ 1
銫 1
揄 1
琇 1
筵@@ 1
飙@@ 1
鳶 1
wil@@ 0.03208688756046023
疲 1
谚@@ 1
谬@@ 1
赟 1
England 0.013998987575466151
andi@@ 0.06226643462165005
auer 0.02675792438882254
tal 0.029320346416745607
ui@@ 0.09650334406981403
咕 1
嗚 1
挽 1
畑 1
祟 1
耙 1
蚶 1
褚 1
贅 1
ident 0.008912561008190191
neo 0.03599210911750659
ose 0.03276691381156642
pri@@ 0.011394060835229546
ques 0.003784858991951792
trong 0.004383027787433043
zone 0.03245369236538282
ペ 1
俏 1
傕 1
攣 1
朦@@ 1
珲 1
瑯 1
缙@@ 1
pis@@ 0.025954075245721304
棧@@ 1
韧 1
鰨@@ 1
Muh@@ 0.06782003659839522
eu 0.019930296079154322
gal@@ 0.019575304349047223
igh 0.06885319710506596
ples 0.015130571163714997
र 0.024728778968321315
諭@@ 1
dev@@ 0.009365889685142981
lob@@ 0.036807135813147845
oy 0.0673486250672622
plan@@ 0.014720360008500771
棗 1
炅 1
璀@@ 1
鶇 1
＊ 1
Jes@@ 0.031005026274479163
Roman 0.02416393785502927
豺@@ 1
鼱 1
Kun@@ 0.021146034538878738
control 0.017685646091407003
ize 0.030038092698682965
ken@@ 0.016537945012255008
kno@@ 0.025813526646940498
lu 0.06373229176177043
na@@ 0.06309615115107384
ž 0.6838528096873278
挟@@ 1
檄 1
笠@@ 1
覃 1
Ferr@@ 0.05458628037650785
Luis 0.04115503071893381
Nag@@ 0.051757183633934396
ו 1
扛 1
蜢 1
鎢 1
钋 1
鯔 1
鶲 1
｜ 1
Riv@@ 0.1018058910975605
wig 0.034858522679500785
仡@@ 1
玘 1
痢@@ 1
蠢@@ 1
鈞@@ 1
cia 0.046628385773969674
esi 0.024180529418526005
lay@@ 0.03984517309924476
ş 0.051805696575531184
悯 1
鮎@@ 1
Kil@@ 0.04866355448069766
Washington 0.01771161063522746
van@@ 0.05528093306342838
俨 1
晗 1
炊@@ 1
窿 1
鄜 1
镠 1
镭 1
gar 0.02585120544749436
rup@@ 0.02022597040135083
tain@@ 0.013668659890439928
勣 1
孪@@ 1
abe 0.021960998017080888
ias 0.037477098941491184
priv@@ 0.010879928373657734
sed 0.014415237678791886
́ 0.012516903836923216
睫@@ 1
锆 1
闾@@ 1
orient@@ 0.03606477004786758
Л 0.07109550173264068
箐 1
蔴 1
Aug@@ 0.043182237002547516
ingen 0.011665783001865503
lah 0.0807440644611944
nik 0.034843950135293726
ues 0.016204836613142842
阙@@ 1
polit@@ 0.03359702075375374
铟 1
锣@@ 1
Ji@@ 0.07982894277663491
Se 0.013583119591301896
cine 0.03452970415208461
many 0.004944502914314802
ult@@ 0.01007581687217277
↔ 1
镧 1
elen 0.013789190718775381
itt 0.06882795802560729
ヒ 1
啞 1
钵@@ 1
between 0.004644667598728624
cio 0.03294047936669836
sm@@ 0.025794697408199955
wn@@ 0.022212625410945073
丟 1
锶 1
Hat@@ 0.08356237637435376
Vor@@ 0.006630818888032495
aver@@ 0.014614738978517
囑@@ 1
寔 1
揖 1
芪 1
銹@@ 1
Album 0.036855436836332627
ander@@ 0.019728054805772596
fur@@ 0.01114718457401384
咱@@ 1
拚 1
泫 1
鉻@@ 1
＜ 1
Franz 0.04920221652927397
onne 0.019127918798074246
sequ@@ 0.013447767057563193
ư 0.07034738663748569
喂 1
滄 1
発 1
舂 1
钗 1
闺@@ 1
alist 0.01702737282240341
叱 1
塬 1
摻@@ 1
熏 1
聳 1
蛄 1
谘@@ 1
遏 1
騫 1
eb 0.03390632104760653
hand@@ 0.0097665606950712
ˈ 1
弈@@ 1
惩 1
橡 1
淦@@ 1
灏 1
畈 1
篷@@ 1
藨 1
钺 1
雉@@ 1
fon@@ 0.015952542589333787
road 0.014094952742471007
ː 1
愔 1
漓@@ 1
釵 1
锌@@ 1
avi@@ 0.02600891924565201
four 0.007140471729407764
syst@@ 0.01859756105618832
吶@@ 1
岬@@ 1
戊 1
葦@@ 1
飆 1
eral 0.03210342313537337
儷 1
悶@@ 1
摹@@ 1
綝 1
驢 1
鷲@@ 1
ography 0.014635464491548195
them 0.006372769616885474
喔 1
肱 1
脛@@ 1
芷 1
荳 1
贲 1
镌@@ 1
French 0.011917286822558276
gel@@ 0.004974727095140269
isi 0.027788208985562016
傍 1
棣@@ 1
殮 1
涤@@ 1
簋 1
袂 1
躯 1
铠@@ 1
３ 1
哌@@ 1
埴 1
嬤 1
廸 1
摯 1
汎 1
煒@@ 1
铿 1
慤 1
扒@@ 1
毙@@ 1
濺 1
蝟 1
銬 1
Mass@@ 0.02370297923490015
aine 0.010384524895553433
position 0.007507880397144994
峦 1
祆 1
綑 1
膊 1
菇@@ 1
菰 1
annes 0.03768208950869934
asse 0.0187295727853559
dol@@ 0.023235627100398656
hips 0.011053195816334902
mark 0.027404668499725338
ministr@@ 0.02196331812180935
冢@@ 1
剔 1
嘩@@ 1
笞 1
蔥@@ 1
阉@@ 1
By 0.016624211353080155
Nati@@ 0.032633078159259754
fs 0.02758289234156397
ས 1
惶 1
瑣 1
蓟 1
钳@@ 1
铀@@ 1
aut@@ 0.011899376137865167
enter 0.038321690657682234
esia 0.08160590683610904
Đ 0.9763617063403904
绶@@ 1
Atlan@@ 0.03374219560269784
Jose@@ 0.04620889448759281
Ö 0.16852980960397307
ù 0.08223760391748847
扯@@ 1
曰@@ 1
榛@@ 1
皎 1
蜑 1
酝@@ 1
骡@@ 1
team 0.0050082885122019255
榎 1
珙 1
繽@@ 1
衬 1
袱 1
aves 0.01608653693641341
hav@@ 0.029411997338617085
refer@@ 0.011585238009242873
惋@@ 1
揶@@ 1
芾 1
钍 1
kel 0.02891346728998207
num@@ 0.017727567087329102
ppe 0.04419172880725414
戾 1
挟 1
礪 1
鞠 1
uni 0.09737470994516216
拽 1
曄 1
渍 1
薙 1
譁 1
鏢@@ 1
飭 1
esh@@ 0.04290679680350192
û 0.1571126659590455
ж 0.025406267302012762
刃@@ 1
嘢 1
涞@@ 1
瀟@@ 1
痙@@ 1
藁@@ 1
驭 1
Ou@@ 0.040128921794776826
aud 0.04050854210349332
park 0.023962056049443216
tt@@ 0.046320183817626225
吒@@ 1
毯@@ 1
獠@@ 1
粽 1
胛@@ 1
裟 1
顔 1
鲑 1
鹟 1
鹬 1
lier 0.014412503980706112
徠 1
腮@@ 1
袤 1
Augus@@ 0.05087246527192579
ague 0.013590003865454513
did@@ 0.026854265151579133
eds 0.019930540471087766
gan@@ 0.014647170526616814
gun 0.0454044053582175
hr 0.029771006108983693
vit@@ 0.040656596953858155
臍 1
薈 1
蚩@@ 1
诋@@ 1
郤 1
霆@@ 1
Alb@@ 0.035205724796948744
Heinrich 0.039828727272209534
They 0.007858923724936084
fort 0.01631716653626022
吼@@ 1
堑 1
曳@@ 1
缨 1
蟀 1
铈 1
리 1
﹔ 1
ames 0.04899186300727127
being 0.005365734716198089
岙 1
枇@@ 1
楸 1
涤 1
翘@@ 1
辄 1
錕 1
钏 1
鸯 1
Australia 0.01413519767219408
Esp@@ 0.02166367289611101
eder@@ 0.010466773361307323
lib@@ 0.04506510954243801
nam 0.02675456025371116
new@@ 0.017235761783710064
pap@@ 0.013790801505796185
semb@@ 0.015063209100420149
У 0.03149171457198279
夙@@ 1
挹@@ 1
淘 1
萘@@ 1
锺@@ 1
馗 1
KK 0.23823628868656457
kal@@ 0.022406801542398422
peti@@ 0.013960205319952347
sam@@ 0.03549929106424784
坻 1
増 1
擄@@ 1
皺@@ 1
绮 1
鳟 1
camp@@ 0.006501912652434842
chu@@ 0.0945033135963955
etz@@ 0.010660777188616868
led 0.005668339110160495
speci@@ 0.01466180701386271
両 1
冏 1
宸@@ 1
屑@@ 1
嵙 1
謇 1
钮@@ 1
阡 1
Mart 0.14589424460661501
kat@@ 0.028904051728619467
language 0.01784852792779211
made 0.004447829718637731
吲@@ 1
哦 1
庠@@ 1
惣 1
氰 1
牯@@ 1
蓀 1
覲@@ 1
Champi@@ 0.015750394952111054
Il 0.002804605035395618
fle@@ 0.01809411402352498
hur@@ 0.03830340803705196
ths 0.014238354651244107
versi@@ 0.013096162314731735
ˇ 1
佺 1
沱 1
篝@@ 1
蝸 1
Pom@@ 0.04550612495402094
gol@@ 0.02023737503141877
pon@@ 0.011840985422081519
瓮 1
蹲@@ 1
錒 1
雒 1
bec@@ 0.014464672693688315
single 0.009168498833717805
佃 1
佢 1
浒 1
燎@@ 1
緋 1
诀 1
钾@@ 1
Bang@@ 0.03931359477882928
Grande 0.04462941239640278
ause 0.028999807183533902
make 0.014517985542883506
冇 1
祯@@ 1
靳 1
骞 1
＃ 1
ï 0.09325993753269185
忿@@ 1
桶@@ 1
溼 1
紘 1
蔵 1
鹊@@ 1
usi@@ 0.018459439430213484
咩 1
坨 1
滌 1
舯 1
貘 1
鞮 1
鼬@@ 1
dos 0.006920774669238713
por 0.0014365653731494407
ʔ 1
垠 1
惱@@ 1
暘 1
硝 1
诩 1
aten 0.009647972152995496
弑 1
掷@@ 1
攪 1
杷 1
蠶 1
鄲 1
Kaz@@ 0.05042851767307575
Lig@@ 0.030432317235320215
chen@@ 0.02311255948158061
cro@@ 0.012663292714191551
known 0.004605196118450804
¹ 1
淪 1
Empire 0.025218275356625477
fun@@ 0.010751604211894035
vec@@ 0.04718074360802292
凄@@ 1
咖 1
磯@@ 1
缎 1
陟 1
agon@@ 0.02627581203239417
inga 0.13332034981172186
ligh@@ 0.01748887003140484
挾 1
盯@@ 1
缢 1
肘@@ 1
葶 1
铲 1
颉@@ 1
Con 0.035434478600742045
anta 0.026568695899250924
cription 0.014611990310791046
kir@@ 0.03810969068123561
ris@@ 0.01965972986416458
sour@@ 0.013277332523513902
vor@@ 0.005551047764163716
喹@@ 1
拗 1
挚 1
梆@@ 1
樫 1
禛 1
筛 1
膿@@ 1
鉻 1
Neu@@ 0.027354486725159888
ń 0.1570075069823624
哄@@ 1
哚 1
磘 1
Henri 0.04693269852735456
Pedro 0.04137063068914207
aug@@ 0.030603599806462017
bara 0.06276080212052043
icia 0.04253363289646218
mad@@ 0.020911456645084325
wards 0.014699854647570534
侮 1
坯 1
斌@@ 1
槻@@ 1
烛@@ 1
鞏 1
骇@@ 1
鳉 1
asc@@ 0.029979487280039956
nh 0.1190604114353273
㎡ 1
冼 1
岂 1
忻 1
羿 1
鏖@@ 1
鮈 1
Hau@@ 0.04289067674235073
垭 1
嶇 1
幡@@ 1
忤@@ 1
暉@@ 1
殉 1
璐@@ 1
脩@@ 1
苕 1
蛎 1
褂 1
訇 1
谯@@ 1
贪 1
蹼 1
April 0.005266345187361689
odes 0.027957648834109044
tam@@ 0.020822189483129444
嗨 1
玑 1
郗@@ 1
鉚@@ 1
５ 1
asti@@ 0.026732606556199866
rez 0.03569891328878272
岘 1
淌 1
熔 1
眙 1
蜷@@ 1
逛 1
钌 1
顫 1
June 0.007048774016240552
vil@@ 0.0259490543764862
wen@@ 0.011410771317355772
刎 1
勲 1
繙 1
茛 1
蜗 1
袈@@ 1
铼 1
閎 1
鳕 1
Haz@@ 0.10306178972982105
aborat@@ 0.03912426266522842
実 1
苋@@ 1
鉄 1
Austr@@ 0.018779865485348633
Gaz@@ 0.08741761735245371
Penn@@ 0.02704480793904337
ej@@ 0.012551649365353863
imo 0.04492264396782643
rid 0.07992540653700832
spir@@ 0.022889133586122146
uki 0.0843161659276058
儼 1
垛 1
睢 1
絆@@ 1
綻 1
羨 1
郜@@ 1
鈍@@ 1
饬 1
nuc@@ 0.032017774859911426
嘱@@ 1
恣@@ 1
昙 1
淼 1
穰 1
贓 1
鳢 1
rest@@ 0.00957347820932447
ý 0.04117694096348265
น 0.01754148752670865
挛 1
罌@@ 1
锰@@ 1
饅@@ 1
Kre@@ 0.011955602143660421
initi@@ 0.010192185608796827
sist@@ 0.013773347152715467
ホ 1
唸@@ 1
瓌 1
餾@@ 1
abil@@ 0.01752349842607293
ful@@ 0.01859689210030312
indi@@ 0.014197759492383244
ional 0.020309766969881394
oti@@ 0.02078571213760455
track 0.01614438284279661
ì 0.05752308728237367
曠 1
猗 1
釗@@ 1
鯡 1
Gem@@ 0.04106789029087848
bour@@ 0.020378287575195365
ilia 0.08570691808802583
sul@@ 0.04852484870101181
亵@@ 1
凜@@ 1
勻@@ 1
曙 1
樾 1
澡@@ 1
牍 1
翹@@ 1
蒾 1
顼 1
鯓 1
det@@ 0.008249542762308049
eto 0.023165737690733674
riff@@ 0.028930572197083237
墉 1
憨@@ 1
汴 1
澆@@ 1
琚 1
璩 1
蜕@@ 1
鍬 1
铢 1
髅 1
chang@@ 0.009019413942543832
cla@@ 0.01103017546274472
ischer 0.00742838118151439
zu 0.001589361736675269
懈@@ 1
樋@@ 1
繃 1
综 1
羈 1
躄 1
ayan 0.057617625396750194
final 0.00712447415028954
sou@@ 0.00602762168260934
species 0.00929673085847664
tun@@ 0.027546031007620805
捻@@ 1
晔 1
烽 1
詡 1
鈽 1
eur 0.0057487710763840134
rier 0.03187470224068153
げ 1
姫 1
獴 1
謐 1
鯧 1
Emp@@ 0.05521718376105884
India 0.01319988492070953
ξ 0.32433035130765
ة 0.013771850833885085
ق 0.0236474726789431
孰@@ 1
岀 1
憊 1
浔 1
詮 1
鶻 1
ener 0.01606002221313814
exp@@ 0.008252358227178312
gin@@ 0.07021858648495477
uo 0.07386828670288081
俳 1
恵 1
椽 1
硐 1
绯@@ 1
脛 1
鉤@@ 1
锂@@ 1
Deutsch@@ 0.027431294899999004
喫 1
忤 1
anim@@ 0.010261067337089409
area 0.006247183469202826
巻 1
淤 1
ion@@ 0.026995315813879688
kon@@ 0.008615713075046867
嚣 1
琐@@ 1
蟋@@ 1
诟@@ 1
颍 1
Ok@@ 0.049504432773640354
Shu@@ 0.11276679182868943
appro@@ 0.008086108868873966
bau@@ 0.014260700413524306
dist@@ 0.006731576745635538
nt 0.019874687251607397
卒@@ 1
歹 1
絞 1
eca 0.04778643166622391
force 0.018260637914930645
inning 0.010872948452331471
潞 1
疯 1
痉@@ 1
鵡@@ 1
４ 1
ules 0.019917309049178756
ψ 1
坷 1
恽@@ 1
惺@@ 1
扉 1
揽@@ 1
瞪@@ 1
腥@@ 1
莒 1
钇 1
骯 1
Sport@@ 0.03240550488969269
arc@@ 0.04061907893200023
aro@@ 0.06892442840105158
azz 0.029132998856151632
dam@@ 0.010405671820418273
prob@@ 0.011079926076004163
攒 1
邬@@ 1
郅 1
鲫 1
Roy@@ 0.039250492989857264
ought 0.008105855394218214
tar 0.03366220464448271
啾 1
懼@@ 1
擘 1
砚 1
豉 1
鼯@@ 1
dar@@ 0.006609536114626004
hie 0.022759169516120333
焗 1
遹 1
amo 0.05433613724753703
progr@@ 0.009528591898196177
僥 1
僳@@ 1
宓 1
掳@@ 1
溅@@ 1
迺 1
鷸 1
鹭@@ 1
stor@@ 0.016622910346032544
珑 1
睑 1
臆@@ 1
赉@@ 1
鮄 1
bes@@ 0.005362543158901232
kan 0.04983135340746106
tek 0.13457107801412793
tric@@ 0.02059500308512735
ح 0.03366836587881998
椁 1
殯 1
籬@@ 1
Et@@ 0.034786187817324496
Schwar@@ 0.04098193330085003
alo 0.0466286047036103
onal@@ 0.019893409754261022
糞@@ 1
脾 1
蜃@@ 1
謔 1
鎳@@ 1
閲 1
髯 1
昼 1
泮 1
莆 1
隷 1
鬬 1
鶚 1
ien 0.00506693231144559
仄@@ 1
烬 1
辊 1
飢 1
Premier 0.03126278473443471
cam@@ 0.013411599762496215
dul@@ 0.05232215443088942
esh 0.029867713926762032
iter 0.01649731282165954
solo 0.015489247131715534
some@@ 0.012442169797836135
儕 1
拭 1
枷@@ 1
楹@@ 1
汲 1
翩@@ 1
赃@@ 1
邽 1
chia 0.08841030434076781
met 0.011807501800366393
侃@@ 1
嵋 1
彤@@ 1
徕 1
掀 1
摧 1
涧@@ 1
纓 1
蔘 1
轧@@ 1
郫@@ 1
bon@@ 0.03159859193371304
vier 0.01238259899375741
嘶@@ 1
曦@@ 1
溱 1
漣@@ 1
眩 1
耸 1
鋤@@ 1
lich@@ 0.008520004484621866
nav@@ 0.013220741976515658
巿 1
槿 1
疙@@ 1
穂 1
钳 1
ebe 0.058167598459332254
ums 0.009301596903266901
伕 1
喋@@ 1
懇 1
浣 1
舔 1
苜@@ 1
菟 1
褻@@ 1
蹊@@ 1
before 0.0051884954460223315
enf@@ 0.013042500577778159
ices 0.014922485171330347
illo 0.02236130869400256
ils 0.007230485996712804
wel@@ 0.012406946709848326
囓@@ 1
洹 1
讹@@ 1
0s 0.005367585572046931
parti@@ 0.008022908980548802
spr@@ 0.008250476790963163
侶@@ 1
劵 1
嘿 1
懾 1
罡 1
趴 1
Reich@@ 0.02075875344183899
aller 0.010926076786954264
ander 0.025205411312787546
ouv@@ 0.006522089967710136
pre 0.01629265894183325
wi 0.20534160824339104
奘@@ 1
汊 1
睫 1
竈 1
아 1
Vik@@ 0.04944552380342218
rue 0.03435463331289795
times 0.008556019444653997
uer@@ 0.01275194952762014
尕@@ 1
崽 1
瘩 1
荼@@ 1
螂@@ 1
訛@@ 1
讥@@ 1
閡 1
靚 1
brach@@ 0.039228833556194935
forman@@ 0.09585137969051472
ㄚ 1
俐@@ 1
咯@@ 1
嶂 1
幪 1
甑 1
绮@@ 1
蝮 1
詬@@ 1
酆 1
銣 1
駅 1
cole 0.02391651799487777
ras@@ 0.02743424852155514
what 0.011025859093609433
Γ 0.23523431480565413
砀@@ 1
胫@@ 1
腓 1
誅@@ 1
逮 1
雋 1
馒@@ 1
鬃 1
Alt@@ 0.03771595940543964
chem@@ 0.01815504942814422
high@@ 0.010485505908957216
med 0.04141051021991244
僊 1
煜@@ 1
翎@@ 1
蠡 1
郷 1
Her 0.018370655621341943
Hin@@ 0.02498865780887233
court 0.015419070366991005
etes 0.04272986518839479
ses@@ 0.017294136127403242
囍 1
熬@@ 1
燊@@ 1
疍 1
簿@@ 1
蹠 1
arti@@ 0.007365421085302169
contribut@@ 0.031502683399025906
mes@@ 0.012437570111419412
催 1
僻@@ 1
弢 1
汹@@ 1
滌@@ 1
秆 1
茁@@ 1
Australian 0.015827842589530974
凜 1
棂 1
珉@@ 1
蚁@@ 1
lam 0.038060949533266886
mach@@ 0.01434290922111705
ned 0.005874120289880002
run@@ 0.008696269134681371
tab@@ 0.017659360784109037
tit@@ 0.012708963644852134
ㄨ 1
糰 1
羟 1
苫 1
赉 1
錚 1
铷 1
aster@@ 0.029927200282249416
ece 0.011594894585587602
front 0.017190953150270947
oko 0.10859998621596095
卯@@ 1
昙@@ 1
昶@@ 1
桀 1
碚 1
茸@@ 1
蒞@@ 1
裹@@ 1
謂@@ 1
輓 1
ben 0.0069278348796197545
far@@ 0.01615959594859902
featur@@ 0.008166482350618212
ud 0.019989820250004786
wak@@ 0.04419886770001509
Š 1
壶@@ 1
慫@@ 1
欒@@ 1
珞 1
痞@@ 1
蘸 1
辕@@ 1
闯 1
Ba 0.09333090300270254
burg@@ 0.023676712492624707
兗 1
姒 1
帛@@ 1
挝@@ 1
棨 1
虱@@ 1
詼@@ 1
頷 1
fir@@ 0.009628155275892574
isp@@ 0.07750665897611235
① 1
佶 1
绎@@ 1
Gru@@ 0.020536753126579464
Was@@ 0.0827114202055641
cht 0.008945068225159811
els@@ 0.014471616292069155
enta 0.016788780035915385
iment 0.015286325953105528
itation 0.023407371978030403
sche 0.012365267350562955
傉 1
廪 1
禀 1
苾 1
蛉 1
artic@@ 0.014287541680955397
fi 0.11421262151232267
fus@@ 0.02645571820494696
open@@ 0.02051056046744175
uru 0.09242368184260613
歙 1
穢@@ 1
筐 1
鈈 1
Stein@@ 0.033035965598799344
eros 0.019599986143138397
last 0.009580339531564414
prom@@ 0.006192446806081066
廩 1
懊@@ 1
楽 1
礽 1
鍺 1
Angeles 0.019782629781800624
Tenn@@ 0.02820469083026834
agne 0.009990927571122129
apa 0.033617577927271075
cus@@ 0.015152143727954856
咭 1
擷@@ 1
楂 1
殓 1
涝@@ 1
牴 1
蚋 1
趴@@ 1
event@@ 0.014664436680597092
video 0.012440691053681879
哋 1
拚@@ 1
氖 1
洸 1
牵 1
狭 1
璣 1
痣 1
誰@@ 1
辇 1
born 0.004077643737190076
ition 0.01381788395622452
och 0.042364842673867587
Α 0.08128211610944995
亶 1
伝 1
岷 1
獐@@ 1
蠑@@ 1
Der 0.0026361180942642668
iler 0.024297268685384673
phot@@ 0.015370384699018372
post 0.017326205068414653
埭 1
泚 1
碣 1
萁 1
蓿 1
馅@@ 1
Beh@@ 0.03305314225020764
Migu@@ 0.04566677012066455
rev@@ 0.015577824640935418
sup@@ 0.005368344983803955
綢@@ 1
葩 1
靛@@ 1
Frank@@ 0.028796085205365817
eti 0.043899169869015
org@@ 0.019364787846996672
toral 0.024473917452376936
揪@@ 1
湄 1
諤 1
0.000 0.03078407780981165
Kim@@ 0.09037363417067457
Manuel 0.03711864920164691
tas@@ 0.031156372293487233
ustr@@ 0.012679542286267872
َ 0.21715624706019931
咫@@ 1
嫔@@ 1
孿@@ 1
惮 1
祎 1
蕪@@ 1
謨@@ 1
贰 1
钤 1
Kul@@ 0.025178308271554484
fel@@ 0.01536136049355432
inv@@ 0.005835720252982136
program 0.014835791771206886
娠@@ 1
瞭 1
瞿 1
罹 1
闓 1
闔 1
鹳 1
atom@@ 0.0423982453568903
both 0.00506056343914676
hon@@ 0.00920476626490729
ird 0.052563948797127794
part@@ 0.009737295027871658
run 0.01400550558963201
吝@@ 1
昺 1
犒@@ 1
糜 1
腑 1
詆@@ 1
踵@@ 1
鱒 1
Christi@@ 0.038193454246294584
President 0.014116906363633696
Rep@@ 0.10072097216435986
clo@@ 0.012481620394430046
mix@@ 0.019378583967144657
Č 1
ش 0.05008689240446248
倬 1
傚 1
愨 1
誣 1
Baz@@ 0.09714606003981927
Bes@@ 0.00994390643388242
cos 0.019968026755701463
侂 1
岫@@ 1
愕 1
燻 1
砺 1
觴 1
譙@@ 1
跗@@ 1
酈@@ 1
bran@@ 0.017464753862316162
lav@@ 0.025758787042038687
player 0.012029357057313122
typ@@ 0.011889717256022525
敝 1
桉@@ 1
缇 1
觅 1
real 0.01861740229629198
¥ 1
Ü 0.755104525223882
丐@@ 1
滏@@ 1
犰@@ 1
缙 1
菝@@ 1
葜 1
藪 1
鄒 1
铌 1
镰 1
饥 1
dat@@ 0.02977039197265641
ierra 0.03840582529071045
ย 0.027847065204444094
枸@@ 1
鉍 1
Ａ 1
ble@@ 0.024020242729666484
za@@ 0.05980524188947697
垛@@ 1
峤 1
疡 1
箇 1
萜 1
蝾@@ 1
鎘 1
驷 1
athol@@ 0.01016654844033009
dur@@ 0.010788219648152277
fem@@ 0.006645543741205738
imi@@ 0.026520226805505205
viv@@ 0.013053948114653801
丫 1
洶@@ 1
硯 1
逍 1
邯 1
Olympi@@ 0.023840516075725272
aber 0.0065725902452333194
enh@@ 0.017700555577774477
expres@@ 0.013211687161958568
sons 0.017596642778169063
Φ 1
拋 1
殤 1
滲 1
焓 1
粑 1
纘 1
觎 1
Rein@@ 0.024362693066984447
these 0.006203841202820475
ɕ 1
噱@@ 1
嬤@@ 1
枱 1
贱@@ 1
ares 0.010109368174156773
eine 0.0013973702047396402
ref@@ 0.010702755817236682
san 0.05217468016702436
έ 0.11755443270323647
嚙 1
淒@@ 1
淬@@ 1
盯 1
邰@@ 1
Kos@@ 0.04073886877917113
bis@@ 0.047327990657194646
eler 0.011701945154493118
enci@@ 0.011874577155381106
him@@ 0.013912627200893849
sar@@ 0.04109319102881909
tie 0.02663867221781912
柄@@ 1
熄 1
狳 1
罔 1
蕎@@ 1
讹 1
赃 1
鲵 1
鳗@@ 1
Chicago 0.017550197286485922
ament 0.01517115862543841
angel@@ 0.02280854263544853
坌 1
娥@@ 1
毌 1
禀@@ 1
肮@@ 1
郦@@ 1
锢 1
馴 1
黟@@ 1
Professor 0.023465363210711094
isch 0.006923850288921705
rich 0.03588139137897759
ה 0.9145377985779463
嚥 1
憩@@ 1
晖@@ 1
栒 1
櫚 1
濡 1
璁 1
绾 1
蹴@@ 1
釧@@ 1
鉀@@ 1
Bib@@ 0.028435231087119744
Indian 0.014591533594592915
Wir@@ 0.026537595484561378
② 1
嘩 1
淝 1
舘 1
螯@@ 1
鲱@@ 1
Bed@@ 0.033409477254265456
Berg@@ 0.025667231198859643
against 0.004435632512192282
lov@@ 0.024835412401325408
mess@@ 0.02455477325794136
岫 1
燧@@ 1
犛@@ 1
甕@@ 1
绫 1
霈 1
鸠@@ 1
侑 1
囧 1
泣@@ 1
濘 1
瘴@@ 1
胳@@ 1
麿 1
Cum@@ 0.06293840778048894
Ges@@ 0.008409847147230724
Kamp@@ 0.03718645860287204
rou@@ 0.013652309995148104
techn@@ 0.010855317478480276
ě 0.4600938753483029
ユ 1
ヴ 1
尕 1
扩 1
痲 1
磋 1
綽 1
茧 1
锄@@ 1
髹 1
His 0.006192466146561973
Milit@@ 0.018698108954475132
eur@@ 0.019573814008619825
ogle 1
ḥ 1
戳@@ 1
扛@@ 1
睜@@ 1
翦 1
膑 1
芍@@ 1
蹶@@ 1
지 1
Munici@@ 0.027070563081178695
during 0.0031654722295183435
fen@@ 0.026066816309015084
plas@@ 0.036449085855490684
tos 0.008107405054969657
trav@@ 0.007191748191673462
uses 0.006478143039593891
Λ 0.9407163324017835
簫 1
觊@@ 1
锣 1
陉 1
頷@@ 1
馅 1
kom@@ 0.007196053579279294
oso 0.02079040344850909
ran 0.018629484431524443
syl@@ 0.020547115338269136
เ 1
皙 1
翳 1
顷@@ 1
騏 1
鳶@@ 1
鼴@@ 1
voc@@ 0.01094782710053612
xa 0.07680112871304019
Π 0.7671363276740027
ม 0.013663719376618113
皝 1
躉 1
轸 1
feld 0.02264889060606135
lic@@ 0.012698907203968338
rock 0.014739678092471687
writ@@ 0.007157381702257298
疝 1
皎@@ 1
脓@@ 1
ingo 0.050411257322443025
ざ 1
渚@@ 1
稗 1
贓@@ 1
鏘 1
鑛 1
闕@@ 1
驪@@ 1
鹑 1
Canadi@@ 0.015178177114832223
Mann@@ 0.030022966241844383
Nord@@ 0.014435745405863596
tly 0.013248749416668985
ṭ 1
䲗 1
紂 1
苄 1
讣@@ 1
鄢 1
銥 1
钜 1
関@@ 1
阖 1
鲶@@ 1
Arab@@ 0.027559184809594687
abor@@ 0.007216870625724426
lik@@ 0.010940255778453048
ling@@ 0.03321312260898589
onz@@ 0.025307186132389813
uba 0.03587853311015096
凈 1
啲 1
嗝 1
搐 1
旃@@ 1
炘 1
祛@@ 1
辮 1
邙@@ 1
鎔@@ 1
闷@@ 1
龔 1
ging 0.01370339739487002
ible 0.013899851397073193
later 0.0034527232885941416
qua 0.02769476951047372
stadt 0.014141481644023292
ʃ 1
対 1
尙 1
牂 1
腋 1
菅 1
讒@@ 1
閥@@ 1
鲈@@ 1
Rah@@ 0.024092924555034687
iden 0.017506227883297115
ished 0.007471824966547684
stud@@ 0.009217148981729732
ר 1
嗇 1
愷@@ 1
氦@@ 1
漣 1
碌@@ 1
稷@@ 1
竅 1
褓 1
銖 1
铑 1
镳 1
ht 0.02837489065038812
sci@@ 0.015539470899522675
tima 0.035620455191414296
嚏 1
寐 1
慟 1
玖@@ 1
禕 1
邝@@ 1
驴@@ 1
鲑@@ 1
鶉 1
alt 0.017490602086527945
ج 0.030243338209634808
侥@@ 1
媧 1
惫 1
摺@@ 1
燥@@ 1
璞@@ 1
顥 1
ances 0.008352869823125834
avi 0.08085340184662729
commun@@ 0.006627098201201097
deg@@ 0.016159036847077417
ered 0.005843534256019461
late 0.009452404753711128
ད 1
佾 1
倣 1
吶 1
獭 1
銼 1
ific@@ 0.012009805798911949
same 0.005344825754283397
ʻ 1
ก 0.015562602787679111
อ 0.023628010684001822
呐@@ 1
尪 1
楝 1
蜊 1
輅 1
飘 1
鵟 1
Son 0.014779907162944673
best 0.009605735685703179
ina@@ 0.1569269586097807
慮@@ 1
翱@@ 1
闋 1
鱿@@ 1
bourg 0.027554420324553228
dem 0.000983568984714811
head@@ 0.011286928764108412
imp@@ 0.010627322875625822
som@@ 0.014528700359521973
tag 0.029624807832111803
咗 1
塩 1
挠@@ 1
槲@@ 1
溅 1
玮@@ 1
疋 1
繡@@ 1
轅@@ 1
鎗 1
頴 1
黻 1
Carr@@ 0.038986511819330896
bab@@ 0.04690192990048404
design 0.014088301135687747
lit 0.01759984009229711
đ 1
ف 0.018853220926591557
亵 1
吠 1
泻@@ 1
糯 1
餃@@ 1
駄 1
Alg@@ 0.03178238171404939
Provin@@ 0.011685136042813826
days 0.011888488375191509
diff@@ 0.009280529265174205
々 1
仞 1
嚎@@ 1
沔 1
眨@@ 1
秧 1
銑 1
ats@@ 0.023130928386566687
defin@@ 0.012013979350338735
ently 0.004632630258362665
tot@@ 0.01989201328183913
べ 1
哑 1
攫@@ 1
沣 1
玹 1
钨@@ 1
闿 1
骊@@ 1
黴 1
years 0.002838062571003569
僮 1
徇@@ 1
荟@@ 1
遐 1
鎓 1
镨 1
閂 1
다 1
Ukr@@ 0.04534335944087049
adem@@ 0.015588211649309154
fore 0.016609099169241633
local 0.006335693446503903
national 0.0065688183031007265
嫂@@ 1
巳@@ 1
徳@@ 1
桀@@ 1
殃@@ 1
涛@@ 1
涩@@ 1
濡@@ 1
狨 1
笺 1
鍔 1
鍰 1
Hein@@ 0.047553615775375334
epis@@ 0.00973709817949645
grou@@ 0.010230389723622096
indic@@ 0.015156674596080751
ono 0.07409349213661066
par 0.0010860798419922181
疸 1
菘 1
衹 1
讧 1
﹚ 1
Nob@@ 0.048569069579153336
ables 0.010384363946370882
aise 0.020018117531638614
charac@@ 0.010070961878688965
mine 0.01722874387962162
tir@@ 0.014974698765885605
劏 1
稗@@ 1
虬@@ 1
驕 1
German 0.008770013486041783
igi@@ 0.031183581622621043
ning@@ 0.03730168303454152
tent 0.029085751921065606
vat@@ 0.04370276082713643
vor 0.004559100722814789
ya@@ 0.14832260999101457
ṣ 1
嗅 1
拏 1
琺@@ 1
瓢 1
餵@@ 1
Africa 0.017626979451457407
UEFA 0.04591754967620321
acter@@ 0.018294137134926402
ican 0.0120272305115853
iles 0.021020136428846724
phi 0.11257984343339779
侦 1
俾 1
沓 1
糠@@ 1
豸 1
闼 1
隽 1
auth@@ 0.007554938428041285
bia 0.04096238891149986
cit@@ 0.017191208929558846
educ@@ 0.006685187375531606
gang 0.015504788839418748
issu@@ 0.007448927664430616
呦 1
団 1
孽@@ 1
宥@@ 1
峙@@ 1
櫓 1
毡 1
炤 1
盂@@ 1
箋 1
聂 1
踴@@ 1
鎰 1
Rum@@ 0.04519486052004494
ehr@@ 0.00917574011864917
just 0.010111254433125728
mom@@ 0.019709447024529064
◎ 1
榊@@ 1
磾 1
蠹 1
蹬 1
锴 1
魘 1
鱟 1
aces 0.018066371150463546
ires 0.00800821602201631
plac@@ 0.006504015821825647
signed 0.01206693105941403
埸 1
璫 1
癣 1
睬 1
箬 1
諳 1
驮 1
麂 1
elles 0.006807659079455325
enes 0.015856988025579746
ley@@ 0.030123293314742634
rio 0.041729769402794964
sel 0.0131195339845837
ural 0.012615478465843835
ั 1
⁵ 1
拌@@ 1
殁 1
稃 1
縷 1
葭 1
谒@@ 1
飚 1
cut 0.018464554311767717
ɑ 1
া 1
哄 1
惕@@ 1
盥@@ 1
笋@@ 1
粧 1
紡 1
絮@@ 1
蠵 1
賡 1
銮@@ 1
霓 1
Mw@@ 0.4426883875528485
activ@@ 0.0057422229314998356
ending 0.01186547121840888
fan@@ 0.014433667438503455
limit@@ 0.011951678963685016
nit@@ 0.024670297168171075
original 0.007358098735578802
sort 0.02807023761789667
≠ 1
壅@@ 1
蟠 1
迩 1
found 0.005463821365363887
翱 1
铕 1
雛 1
頑 1
馈@@ 1
骈 1
ง 0.018383296169087175
伎@@ 1
嘟 1
廡 1
涎 1
湜 1
瓩 1
碛 1
紺 1
薊 1
贽 1
鈮 1
隙@@ 1
鱚 1
６ 1
Dani@@ 0.07543786319281877
Fried@@ 0.025058472487712855
Milli@@ 0.01898275891436074
庾 1
彷@@ 1
旼 1
橿 1
緱@@ 1
脣 1
莓@@ 1
閬 1
사 1
aland 0.017805664338574414
lec@@ 0.022489292338409208
nat@@ 0.0207172824065174
sep@@ 0.017870496599918836
xe 0.019853451109582736
Э 0.12107769822810495
் 0.5175293111781789
姍@@ 1
滂 1
濰@@ 1
铣 1
阚@@ 1
鲹 1
Kid@@ 0.12751093891147727
amba 0.07570364801277678
dir 0.013757537826901717
erie 0.02000885399081267
ṃ 1
啰 1
奐 1
殇 1
牘 1
瑷 1
瘀@@ 1
笆 1
篪 1
鏐 1
驢@@ 1
Sz@@ 0.030869680293946773
alli@@ 0.015024343979428968
pose 0.01083598259362023
sten 0.004199898107560572
sun@@ 0.034056449482473446
啜 1
栉@@ 1
翀 1
脐@@ 1
軻 1
鉗@@ 1
黼 1
kn@@ 0.01853787079474139
tour@@ 0.006231134821781227
乓 1
寛@@ 1
弑@@ 1
棠@@ 1
钰@@ 1
Gel@@ 0.019817359082255587
Viet@@ 0.027499226219633983
Virginia 0.01791767964835908
hap@@ 0.024096628703805745
phil@@ 0.04747932464722179
tains 0.013382075207053543
uli 0.09801282648637541
uro 0.039040654628445685
ύ 0.17843898738928526
ṇ 1
ぼ 1
叭@@ 1
巯@@ 1
捡 1
漓 1
耍@@ 1
鏟@@ 1
驃@@ 1
Au 0.01374328808321
Prof@@ 0.03670321732348793
gres@@ 0.013608621904428653
hiz@@ 0.07501574750144778
list@@ 0.007788222745923921
million 0.008064756361689943
nec@@ 0.01899052718437926
production 0.007858230244035374
short 0.012027508133166205
tif@@ 0.013530931533587573
ğ 0.09344699175264022
喰 1
搪@@ 1
瀞 1
灞 1
荞@@ 1
谯 1
贲@@ 1
逖 1
鱀 1
Nig@@ 0.06953236504026764
З 0.07816059886718958
矯 1
辮@@ 1
Sah@@ 0.05620077823565357
Say@@ 0.07949566525138091
fes@@ 0.010126661421793526
ief 0.012557449819774054
ك 0.022227801229422663
न 0.01447024850381389
‖ 1
嵬 1
涇 1
箫 1
糅@@ 1
虻 1
軛@@ 1
颤 1
﹙ 1
buil@@ 0.01079008570702531
class@@ 0.009272284002442231
unter@@ 0.0037336190968072554
徙@@ 1
捅 1
斃@@ 1
漕 1
瑱 1
荽 1
贮 1
钪 1
Sult@@ 0.06203178501016499
formes 0.038964381702711895
ime@@ 0.17032321347028523
stell@@ 0.005309064187018228
thu@@ 0.02714707088937894
བ 1
≈ 0.800014168259561
搓 1
躪 1
雎 1
駭 1
가 1
Ireland 0.017660301788173693
fut@@ 0.01169184828108982
ि 0.17050506614321956
伺 1
佰 1
囂@@ 1
宍 1
覧 1
贍 1
鏗@@ 1
amer@@ 0.017334154252620023
idos 0.012767877709150182
kur@@ 0.008534792421184725
tec@@ 0.026867031440670285
ungs@@ 0.002234324515158076
匝 1
嗚@@ 1
噌 1
撣@@ 1
獠 1
鎏@@ 1
anh 0.028478087439624242
א 1
ز 0.021675862455488724
™ 1
咙 1
址@@ 1
姉 1
姍 1
枷 1
跛@@ 1
韜@@ 1
饗 1
Hist@@ 0.02472734880559826
ilio 0.05381446241650963
lies 0.012142346734948262
㹴 1
爻 1
牦@@ 1
狒 1
総 1
袒@@ 1
讖@@ 1
鄄@@ 1
鉭 1
鬨 1
대 1
Berlin 0.00902646212713129
November 0.003793838000470145
plan 0.01202262731646212
west 0.006749568285280276
€ 0.06214282077492311
壆 1
徴 1
怎 1
渎@@ 1
艱 1
衅@@ 1
铐 1
Cant@@ 0.04774378422435003
Pak@@ 0.01923048239412959
due 0.006192637838813364
eux 0.009752445022421712
obr@@ 0.10828650244523336
partic@@ 0.008518519279337234
six 0.0071012698978506796
ste 0.006698575742340712
♭ 1
嘏 1
孰 1
滦 1
燄 1
绊@@ 1
訌 1
踵 1
邗@@ 1
郾@@ 1
饱 1
Liter@@ 0.0218343523981301
oca 0.04321140504575826
ovi@@ 0.01916302986949778
Ф 0.02823827247188317
म 0.018632605983051886
倔@@ 1
卬 1
噓 1
惘 1
珂@@ 1
邹 1
Texas 0.014062219935694894
azi 0.02915652008844092
inn 0.019246968602791372
ishi 0.07083103149384994
ongo 0.04124673548314
provid@@ 0.007788044479270216
rif@@ 0.011544602794835008
ή 0.00788818744680598
俨@@ 1
濯 1
谪 1
骶@@ 1
eda 0.03730455948257258
iter@@ 0.02659851386968839
take 0.01039787631811045
吩 1
敛@@ 1
曬@@ 1
聿 1
芈 1
駢@@ 1
髂@@ 1
鹗 1
ige 0.004565797694096965
inclu@@ 0.007765564388641064
mati@@ 0.023765329371399246
though 0.004679999365754088
ɪ 1
呐 1
呷 1
嫻@@ 1
徨 1
泠 1
烙 1
蓣 1
蝰@@ 1
骼@@ 1
Yar@@ 0.07818499295497282
club 0.004412283185974686
construc@@ 0.014278552376362207
jus@@ 0.01039285048962914
present@@ 0.0064088579332258365
佇@@ 1
嚟 1
鍀 1
鳕@@ 1
김 1
kul@@ 0.015265346520765362
э 0.034241176517107
ิ 0.04074715343619538
垵 1
毬 1
瘁 1
磬 1
簕 1
苄@@ 1
衊 1
隴 1
隽@@ 1
mand@@ 0.012610383829526924
para 0.0016106367065385784
without 0.010984520645164317
ォ 1
撇 1
昪 1
砧@@ 1
祏 1
鉸 1
鎵 1
頊 1
Amer@@ 0.019933907846999027
Kay@@ 0.08917974023579925
緞@@ 1
肟 1
葯 1
霁@@ 1
atu 0.10753294686845362
following 0.004805004742057865
hat 0.005698464438552363
ל 1
ོ 1
呵 1
嘛@@ 1
堉 1
柞@@ 1
珽 1
苎@@ 1
鉬 1
锇 1
January 0.004672569771814033
効 1
嘈@@ 1
拴@@ 1
琯 1
眞 1
笙@@ 1
脯@@ 1
辺 1
alif@@ 0.013552594112437632
essor 0.012906500050207262
kor@@ 0.019529266492536293
loss 0.008931894977488523
match 0.007787920043170337
ི 1
啦@@ 1
噠 1
玆 1
秣 1
蔺@@ 1
衫@@ 1
閻 1
鹳@@ 1
나 1
atri@@ 0.022685033295849834
bos@@ 0.02945160638316128
Ø 1
圮 1
嬛 1
嬸 1
崮 1
澶 1
薏@@ 1
蘅 1
銦 1
鰾 1
eg 0.011718023297114277
hir 0.07837504071002457
kreis 0.019129867883479597
med@@ 0.007474199558461547
strum@@ 0.04985386037681509
娲 1
浇 1
滉 1
莹@@ 1
阑@@ 1
驷@@ 1
Ein@@ 0.003956505192155691
again 0.008421493720404861
Β 0.08194050372353083
勺@@ 1
啥 1
慚@@ 1
戡 1
晾@@ 1
癥 1
詒 1
鋇 1
鋯 1
镀 1
靓@@ 1
頫 1
鳟@@ 1
Buch@@ 0.021141589242924825
ator@@ 0.026152322320813222
eka 0.08743121398364036
nas@@ 0.03914337438749159
oir 0.016492064075586885
ར 1
叮 1
怂@@ 1
揪 1
暧@@ 1
縛@@ 1
罵@@ 1
谌 1
軼 1
Anton@@ 0.059809887719966606
Las 0.008518340744556107
could 0.006079335137001202
termin@@ 0.008391972997861522
冪@@ 1
哆@@ 1
溲 1
訃@@ 1
霖@@ 1
鯡@@ 1
﹣ 1
este 0.004615892388833545
information 0.013156551227054747
nay 0.04743328030060074
pression 0.01768507594754832
ག 1
ㄇ 1
劻 1
孳@@ 1
岙@@ 1
巅 1
淸 1
炁 1
烫 1
狛 1
眞@@ 1
秭@@ 1
荚@@ 1
螭 1
鄣 1
铵@@ 1
镂@@ 1
December 0.00496535972257524
Parti@@ 0.024871078647607237
adu@@ 0.031329673253324426
endi@@ 0.016200180604552576
mula 0.05452738414720473
olan 0.014849685465811236
俁@@ 1
槙 1
瓠 1
磕@@ 1
窰 1
耽 1
胝 1
臬 1
訕 1
鉈 1
鋂 1
igan 0.018101461389231046
哼@@ 1
垌 1
忿 1
篱 1
谧 1
輜@@ 1
郗 1
镧@@ 1
Yor@@ 0.03169735839504592
alar@@ 0.021339437842137675
alla 0.01677385835492647
concep@@ 0.012249973245276082
libr@@ 0.012201930841114976
tribut@@ 0.015166282670619997
埒 1
廝@@ 1
恃@@ 1
枞@@ 1
泷@@ 1
焱 1
纭 1
胯@@ 1
趺 1
阕 1
鯒 1
黝@@ 1
Nam 0.016381252252630926
auf@@ 0.0019229732922547448
enant 0.01600580298126666
pay@@ 0.01721969927379302
test@@ 0.013017720391047748
乜 1
埂 1
弒@@ 1
杵@@ 1
柊 1
玻 1
羥 1
舢@@ 1
苌 1
襖 1
鍶 1
African 0.014277477524153965
estruc@@ 0.030501106031973077
seg@@ 0.014740742794564728
嚈 1
囿 1
懒 1
舛 1
鈿 1
鵜 1
鵠 1
Nacional 0.015165072466267176
S.@@ 0.028744975418958547
fran@@ 0.01264175752984718
geb@@ 0.003323794609830189
prov@@ 0.008496336349354943
respon@@ 0.007449572546848532
season 0.00257262654534677
sie 0.0019035490091875392
tico 0.007202514517203138
ゼ 1
椋 1
稙 1
芃 1
蓆 1
谁@@ 1
邸@@ 1
陟@@ 1
鰧 1
鸛 1
Andr@@ 0.022981736863576824
ana@@ 0.05393554116662481
including 0.0031907034215798162
isten 0.007372739357429021
sal 0.028434342895651575
was@@ 0.02019068427609605
zen@@ 0.028939010414919603
त 0.012254176773148802
搔@@ 1
榧 1
氬 1
涿 1
脐 1
腩 1
諱@@ 1
辫@@ 1
Institu@@ 0.025003317016674
sexu@@ 0.012684765401431214
唧@@ 1
垅 1
榖 1
狒@@ 1
蘄@@ 1
韭 1
颛@@ 1
髑 1
鬟 1
Das 0.002762497674741882
apar@@ 0.009371220568837792
ayo 0.03407986492906666
eki 0.09914293095308625
emi 0.05643382460079758
iff 0.02149280056130763
吗@@ 1
榉 1
筏@@ 1
羧 1
鄠 1
鲆 1
﹝ 1
﹞ 1
large 0.005852044848408667
modi@@ 0.01591995915905696
positi@@ 0.006508409524410744
tempor@@ 0.01525189463118293
urg@@ 0.016618853536667356
wes@@ 0.008092120185164864
yak@@ 0.04318853441870316
ю 0.002187060483457812
♪ 1
倦@@ 1
孑@@ 1
岘@@ 1
擧 1
栻 1
槺 1
螅 1
蠱 1
躺@@ 1
逛@@ 1
鋆 1
鲉 1
adel@@ 0.01589744118324888
ados 0.0023989416055377965
bei 0.0018113742078842835
excep@@ 0.01255554667899455
inda 0.08089841324850966
tex@@ 0.0092561522176971
uel@@ 0.03070356442136273
vel 0.04965489756956108
曝 1
沆 1
滹@@ 1
羔 1
蘑 1
豳 1
钽 1
驩 1
鱥 1
정 1
Jul@@ 0.05680749366394406
called 0.0041351027003843025
concer@@ 0.007152925836065785
ip 0.09635737000503705
unge 0.039835282730847445
昧@@ 1
滂@@ 1
皰@@ 1
翩 1
耜 1
蚤@@ 1
輦 1
７ 1
Kais@@ 0.02062070504819967
These 0.00878192292650536
centr@@ 0.010134893035937233
ically 0.009438954660691879
nen 0.0069943353479460894
sat@@ 0.012077214948788018
since 0.0047260128306220875
tras@@ 0.020091454793096476
啃@@ 1
娴 1
弇 1
拈@@ 1
旃 1
枭 1
烹 1
绚@@ 1
胍 1
貽 1
鋤 1
饺@@ 1
extr@@ 0.007621312505182322
formed 0.005387493558614704
isis 0.021410811463722076
schule 0.01450028579060739
ส 0.019579260544483747
悝 1
揹 1
椴@@ 1
瑛@@ 1
釔 1
鯷 1
Academ@@ 0.034381411082804875
Kad@@ 0.037394975271736894
mur@@ 0.010673950480158467
techni@@ 0.014350205137668203
凛@@ 1
叩 1
巂 1
柒@@ 1
湫 1
矜 1
绫@@ 1
谌@@ 1
鲃 1
스 1
dav@@ 0.015072123643867476
different 0.00768634906735778
ilk 0.02237310629862365
patr@@ 0.010790400329079661
sburg 0.02121601026847014
visi@@ 0.019442045573129067
∶ 1
瘿 1
粕 1
羡 1
郤@@ 1
鞣@@ 1
Inn@@ 0.018785535445120627
full 0.010309312377450107
isha 0.059988472591677944
istan 0.013257417498988823
phe 0.038583735176678506
rad@@ 0.026178027646630152
͡ 1
剝 1
庯 1
廆 1
朧 1
澆 1
炊 1
痞 1
舎 1
虑@@ 1
蠊 1
鏵 1
기 1
Ｂ 1
July 0.0043581871820421334
released 0.003799664052081611
ř 0.6908620035486662
ى 0.01682101975255778
仝@@ 1
卹 1
咱 1
懦 1
気 1
璈 1
綉 1
芫@@ 1
藹 1
頼 1
颙 1
鳎 1
하 1
ife 0.008806630815256698
requ@@ 0.010217832973801215
said 0.0061177783894833995
tera 0.02094642030684472
unda 0.015018641908014793
咨 1
嫚 1
幗 1
诙@@ 1
gem@@ 0.010008826230952422
saf@@ 0.01854986686791124
ེ 1
兢@@ 1
擂 1
榭@@ 1
橱@@ 1
湣 1
猞@@ 1
砧 1
粱@@ 1
蒽@@ 1
螫 1
赘 1
踊@@ 1
ectiv@@ 0.012077600337526851
viol@@ 0.008662888344855247
ว 0.016559442206669026
憎 1
杼 1
濶 1
詧 1
９ 1
Mai 0.009581717935379154
did 0.005423850763960788
enz 0.016146444256777134
kol@@ 0.028504019976828353
optera 0.07462131951834726
qui 0.0012088286393323842
œ 1
劄 1
塽 1
惚 1
扼 1
攬@@ 1
猁 1
瘀 1
苈 1
貯 1
輟 1
驤@@ 1
Grou@@ 0.06197184569339384
ived 0.02164380968627457
ogen 0.014485848594445965
umo 0.09824104750268874
õ 0.07772910551616063
ש 1
└ 0.2521200283058287
悸 1
殃 1
殻 1
渤 1
蛆 1
雫 1
鹵 1
｡ 1
Chic@@ 0.10582429761061284
Hak@@ 0.06302413674341908
ilo 0.049121957714724704
क 0.00971686662875364
唄 1
峄 1
昕@@ 1
槤 1
猗@@ 1
琬@@ 1
罽 1
脯 1
蕤 1
蝎 1
衎 1
Hoch@@ 0.012198405145024488
lead@@ 0.004355045768064096
tific@@ 0.022093925370481503
ա 1
垓 1
塾@@ 1
娴@@ 1
濑 1
窈@@ 1
轧 1
鋦 1
頡 1
鲂 1
differ@@ 0.01686409576123297
÷ 1
呻@@ 1
嚎 1
坭 1
廄 1
懺 1
砹 1
篱@@ 1
謾 1
逹 1
郛 1
鄖@@ 1
醃@@ 1
骰 1
haus 0.02016926821171982
resp@@ 0.00795682141480074
stan@@ 0.026785931934377148
sus@@ 0.007165622269459074
tag@@ 0.018651105730846183
③ 1
䓬 1
枹 1
榫 1
潯 1
珙@@ 1
瑊 1
睁@@ 1
赡@@ 1
铆@@ 1
馏@@ 1
Ped@@ 0.07877872203959224
anos 0.00935193285699511
social 0.008225048366075901
temper@@ 0.016820262990274976
ф 0.01584698115512888
劊@@ 1
婧 1
恕@@ 1
珈@@ 1
篁 1
逋 1
einer 0.001875456434130442
lich 0.0015164374486470811
reduc@@ 0.01356091713425016
ually 0.005380110842644005
zon@@ 0.039383611885871174
ạ 0.07383369587927101
俑@@ 1
変 1
妞@@ 1
栉 1
槻 1
祔 1
铳 1
隗 1
饉 1
Braz@@ 0.01802474282260152
Wak@@ 0.07333734948654128
alan@@ 0.03581035928034388
around 0.005284603334233561
dies 0.012620049597752175
dru@@ 0.013959254364305576
ers@@ 0.021612195806857786
figur@@ 0.01685100099586708
general 0.0057295866007281105
nier 0.021366783962087667
rat 0.01682599139372118
studi@@ 0.006913495213715165
third 0.006179063912658782
仝 1
崆@@ 1
潯@@ 1
煨 1
苹 1
藺@@ 1
鏑 1
镕 1
라 1
한 1
September 0.0029044000212619095
history 0.006719802312935803
ơ 0.0434355905138638
מ 1
屐 1
嵋@@ 1
恽 1
憍 1
旼@@ 1
簸 1
聋 1
荏@@ 1
蛊 1
酢 1
鋐 1
鎔 1
铱 1
의 1
Ant@@ 0.025561851189574988
building 0.0057098549561843915
engine 0.02057320080645287
onde 0.013467639996863246
ờ 0.0375866638561832
删 1
嗡 1
抜 1
晸 1
柃 1
爹@@ 1
継 1
緲 1
踐@@ 1
躏 1
阂 1
雩 1
鬘 1
어 1
Constitu@@ 0.018791525450603322
Leb@@ 0.02378745493479716
law@@ 0.01067474059494163
may@@ 0.02216500326415696
nos 0.019455573730507235
studio 0.012703710694572806
tru@@ 0.011080330864120393
§ 0.07461247370969427
Ⅳ 1
ヨ 1
佞 1
佤 1
捶 1
豨 1
８ 1
alian 0.013114229447969828
feder@@ 0.010187587169966053
prof@@ 0.006565110655995817
titu@@ 0.009083323216565178
tour 0.00920869483762836
嶝 1
摑 1
泯 1
涯@@ 1
珺 1
砥 1
耦 1
肛 1
艰 1
謗@@ 1
顴@@ 1
鳝 1
鷗@@ 1
동 1
amar@@ 0.03386726099142765
election 0.006220129270477551
fall 0.01097791603928403
gal 0.021311505628770492
ised 0.007219870405112115
still 0.006602582175416838
丼 1
亳 1
嘟@@ 1
嶼@@ 1
廕 1
瀅 1
瀘 1
瘡@@ 1
稈 1
筍@@ 1
錸 1
鑿@@ 1
铪 1
陌 1
鹀 1
Sek@@ 0.02607889112565694
Stra@@ 0.018883488573848382
ained 0.005321683041902683
ched 0.007590271461021644
incre@@ 0.006204592796749078
嗡@@ 1
屌 1
殤@@ 1
煚 1
睺 1
胧 1
鄴@@ 1
骈@@ 1
鰲@@ 1
鷄 1
鼴 1
ographi@@ 0.01659229900547635
sac@@ 0.013807469247734766
ъ 0.12024847666135437
づ 1
崐 1
旸 1
濞 1
緘@@ 1
绯 1
缗 1
胂 1
钐 1
･ 1
Olymp@@ 0.010313914445906357
eleg@@ 0.011828470484168293
event 0.00921019216912851
nea 0.047623745827227275
platz 0.021942711352151378
tique 0.007642304328546953
ʂ 1
Κ 0.15382994862054558
ệ 0.05517017336854595
拗@@ 1
溆@@ 1
萜@@ 1
諲 1
谗@@ 1
貉 1
颉 1
骊 1
魄@@ 1
Boston 0.01765363762015578
Form 0.022891493648670255
Schw@@ 0.01283491587886445
because 0.005797013363406402
isco 0.12923224000993305
lag@@ 0.012415439390629088
party 0.008994591596743623
person@@ 0.005337890892664236
within 0.005668815509389824
̃ 1
哼 1
垸 1
筮 1
粥@@ 1
苋 1
谑 1
隰@@ 1
飼 1
dan@@ 0.012915472358430661
enda 0.02127893673942174
vet@@ 0.027484919533102264
噜 1
嵗 1
嵘 1
戢 1
扦@@ 1
浐 1
紂@@ 1
蹺 1
铂@@ 1
镁@@ 1
餃 1
October 0.003937635080998809
anza 0.01925970271790345
cover@@ 0.0072579006913349045
distribu@@ 0.0123431628150269
fast 0.014109695896154791
orio 0.014479842129640506
say@@ 0.008890064873130512
tres 0.004221272752798021
ת 0.7590467842130053
犛 1
癖@@ 1
賁@@ 1
钫 1
锝 1
clos@@ 0.008720422470266295
eras 0.016815996753942356
erra 0.016263912112831517
games 0.006998610117085345
member 0.00463283894862551
ool 0.11609119925140321
pio 0.027699129548510004
tari@@ 0.026072841670902625
̍ 1
刽@@ 1
厮@@ 1
喹 1
嗩@@ 1
妣 1
妲@@ 1
渑@@ 1
烃@@ 1
硏 1
碶 1
窘 1
贇 1
郿 1
주 1
alle 0.008100815101512174
angi 0.0840185738739799
endi 0.05609080138290027
kam@@ 0.03544715268236137
ording 0.0087617952240011
rique 0.018867137642113105
掐@@ 1
臍@@ 1
蠔 1
踊 1
雋@@ 1
Spi@@ 0.006858655076558837
pun@@ 0.010272251092525539
ב 1
⟩ 1
乗 1
俎 1
壙 1
炕 1
猥 1
萱@@ 1
魣 1
龑 1
Ce 0.010417251444615394
Pf@@ 0.009603389891417027
another 0.00648196766645224
edi 0.045785584721063505
侑@@ 1
劾@@ 1
墬 1
姫@@ 1
恫@@ 1
桉 1
绊 1
翥 1
腭@@ 1
轲 1
鐲 1
镝 1
성 1
Meh@@ 0.046738713329735254
Sach@@ 0.022460700452893397
aden 0.013579572068763156
ahl 0.013674493215753793
eas 0.007371384333487936
fig@@ 0.009416508298767303
regi@@ 0.0067731215282053146
until 0.003167086808283627
¬ 1
⟨ 1
ㄆ 1
卽 1
吧@@ 1
圉 1
揍 1
楔 1
淯 1
炖 1
瑠 1
裱 1
襁@@ 1
銹 1
Es 0.003888134116825477
allas 0.02351830927315991
construction 0.007207465429417694
echo 0.028554352645828784
integr@@ 0.013006606648478011
lara 0.022326920076514815
lie@@ 0.006291029040463974
main@@ 0.007044346322289756
佞@@ 1
哏 1
啼 1
噗 1
揖@@ 1
沩@@ 1
涣@@ 1
濊 1
闳 1
鯧@@ 1
ached 0.007793736262020598
ande 0.010392018300869398
mis 0.014054786695560432
organiz@@ 0.004344838967425783
tad@@ 0.014618912308340953
yal@@ 0.02947952177582407
凛 1
奂 1
広 1
禩 1
诰@@ 1
镖@@ 1
靄@@ 1
鯪 1
鯻 1
鱵 1
鲟 1
ainer 0.019971545902334013
clus@@ 0.013828527268744657
leri 0.010889393709255292
shu@@ 0.05167419014871428
tes@@ 0.01845653562896754
union 0.013550265622229472
刨@@ 1
惺 1
斤@@ 1
縝@@ 1
胰 1
蓖@@ 1
閾@@ 1
鞦 1
Ab 0.01599108559901203
Bask@@ 0.02471939373778412
church 0.008182336903526795
energ@@ 0.013881464239196888
isto 0.05660172829903353
mari@@ 0.014988760849275801
sta@@ 0.012580555975242384
stant@@ 0.022548159033525944
tur 0.013193327354760118
圪@@ 1
妫 1
峋 1
嶙@@ 1
恳 1
楮 1
琥 1
箝@@ 1
萇 1
蛀@@ 1
蠱@@ 1
鎂@@ 1
陨 1
韆 1
饌 1
鮗 1
Kus@@ 0.06613411854380091
anes 0.026292491533106775
dam 0.015639328727309842
enburg 0.020331344974457138
played 0.0030746195130957705
spi@@ 0.003701615922035533
thi 0.031181177927232143
冴@@ 1
唁@@ 1
媾@@ 1
搓@@ 1
灞@@ 1
碴 1
磧 1
颞@@ 1
鸚 1
鹈@@ 1
ahr@@ 0.00921283754086224
compar@@ 0.008884585594574097
inger@@ 0.04526829664192341
ort@@ 0.011899591850483032
sav@@ 0.013697390410395104
≡ 1
嗶 1
嗶@@ 1
畀 1
瞼 1
銚 1
鍇 1
闌@@ 1
development 0.007463996016385056
uj@@ 0.06543446098929637
ё 0.010881923724641975
佟 1
圏 1
炆 1
瞪 1
蓑@@ 1
薮 1
迤 1
鎭 1
镯 1
鰩 1
鸵@@ 1
鹧@@ 1
country 0.006515890196244565
fund@@ 0.0055495118045078805
ograph@@ 0.010953295595783006
zu@@ 0.006064578747260854
Е 0.05348547887385975
■ 1
♯ 1
仟 1
憨 1
攘 1
毂 1
汧 1
箍@@ 1
絀 1
翦@@ 1
舾@@ 1
褔 1
邛 1
邬 1
鈀 1
鈐 1
鏜 1
雑 1
鳔 1
A.@@ 0.0240374869439315
ako 0.09535805058721984
ater@@ 0.022528468287271397
cher@@ 0.01750380673836418
dens@@ 0.009256571398663753
isation 0.008573685566345208
jur@@ 0.00818615467942808
points 0.006858297424431601
quit@@ 0.009041708155768295
red@@ 0.017700927688320788
those 0.006012623957385827
刁 1
厮 1
垻 1
埈 1
畹 1
碣@@ 1
絹@@ 1
踹 1
원 1
Ost@@ 0.017586682636304
ahl@@ 0.008791446362787688
ehr 0.010494738732113304
Ś 1
溏 1
瞧 1
矾@@ 1
簪@@ 1
耨 1
鸪 1
Kri@@ 0.012999664335807303
Para 0.02028009615152315
Phi 0.06653702311839595
bli@@ 0.01366522220976188
classi@@ 0.010854984881405159
five 0.005112297705687471
ici 0.032161376874773835
ises 0.008554692803270371
lang@@ 0.005444646393885817
raine 0.01779667731026035
tish 0.0195436880120983
zer@@ 0.02214719009784157
ぬ 1
卟 1
呜@@ 1
嘘 1
戔 1
澀@@ 1
獒 1
瑈 1
痂 1
皐 1
矜@@ 1
罟 1
脍@@ 1
薙@@ 1
铽 1
鲽 1
However 0.004624169168731689
archit@@ 0.007957581255695572
often 0.006290777225198272
once 0.006717888953108037
pen 0.012974451198697135
region 0.007887036039833581
vas@@ 0.02203370077193451
º 0.028507555750357932
啤 1
拭@@ 1
朥 1
橱 1
羁 1
莢@@ 1
闱 1
髋@@ 1
麹 1
Philipp@@ 0.01762866513887254
Sin 0.01575118454570583
ayn@@ 0.061669327988740516
boy@@ 0.019749970073480286
eil 0.01942215145300222
haus@@ 0.014010308792796657
suff@@ 0.0074642156524891675
total 0.004589468813937462
स 0.005731346616560354
མ 1
噝 1
坯@@ 1
楙 1
猷@@ 1
窖@@ 1
萣 1
迤@@ 1
驪 1
鶓 1
const@@ 0.019787924902984453
edit@@ 0.009447414272595695
erek 0.04192776970370731
isl@@ 0.008511177187321018
neu@@ 0.009364871262390904
vie 0.010944014587969828
ǎ 1
ท 0.03192576879605297
唬 1
唵 1
挞 1
捌 1
搵 1
殞@@ 1
燿 1
砰 1
竜 1
籙 1
絵 1
緹@@ 1
芊@@ 1
蘧 1
蹦 1
Yes@@ 0.13960425905354593
cour@@ 0.0043631148030283074
ede 0.023510095903718248
forc@@ 0.008567832334757284
iliz@@ 0.022966484859554312
ą 0.8132049842244453
䲁 1
偲@@ 1
咚 1
啃 1
寳 1
旂 1
昰 1
臾 1
莖@@ 1
蒺@@ 1
蔺 1
蠅@@ 1
赈 1
錨@@ 1
钿 1
骁 1
鱘@@ 1
Kem@@ 0.06207945738939093
americ@@ 0.019870643718801116
ately 0.004932262413994173
lis@@ 0.03724542066898259
mt@@ 0.056765038867447416
orie 0.012712007217101851
佼 1
圯 1
坍 1
擷 1
榻@@ 1
禑 1
紓@@ 1
袄 1
詁 1
谤@@ 1
贄 1
釩 1
鉲 1
驄 1
carri@@ 0.009175594749279056
dar 0.0156974253823738
frag@@ 0.016776943694696393
yat@@ 0.0448379264280168
䴉 1
圹 1
姝 1
寘 1
拣 1
烜 1
煖 1
狽 1
畯 1
癲 1
貊 1
蹋 1
転 1
轶 1
铠 1
隰 1
鳀 1
鸻 1
Nord 0.01342379574437909
atia 0.04457257293090903
contin@@ 0.007228055590425875
cou@@ 0.005442596446900815
esch@@ 0.014875397938433184
esto 0.016988668139290963
pour 0.0008961006472639544
━ 1
墉@@ 1
熨@@ 1
硯@@ 1
羹@@ 1
腴 1
鉏 1
闘 1
頹 1
Herr@@ 0.012893303146069936
apon 0.06526100731109383
bio 0.01789346690606112
stand 0.004893470183618515
弛@@ 1
渕 1
燙@@ 1
琇@@ 1
砻@@ 1
篡 1
藿 1
蟄@@ 1
襦 1
諶 1
謫@@ 1
诠 1
郕 1
関 1
February 0.0041827986459774405
Ital@@ 0.009564175403618681
atos 0.014584030323003136
bed 0.014551433498172244
gu 0.11429096329398239
much 0.006747448776233969
rant 0.015857333293490712
Х 0.08976647993580228
傢@@ 1
卐 1
撬@@ 1
瞧@@ 1
縁 1
賑 1
髪 1
鶿 1
서 1
continu@@ 0.006350958317155017
docum@@ 0.006743710325451498
isse 0.006798582392269911
pend@@ 0.011003106054970997
俣@@ 1
胼@@ 1
脹@@ 1
褥 1
轆 1
鐺 1
阊 1
饕@@ 1
髭 1
魷 1
Zu@@ 0.011805269718198294
aged 0.005350290490333929
ainst 0.09807724924923648
aissance 0.01334619789521098
antes 0.0033848386319806616
cant@@ 0.008562997520833924
esses 0.009266236187106817
eye 0.02949809397527731
minut@@ 0.011349454707079492
poli@@ 0.01216226384096963
senti@@ 0.022566874038304412
sible 0.01137937722880536
strat@@ 0.013648252545533444
support 0.006500290460608622
། 1
ུ 1
僮@@ 1
垓@@ 1
娟@@ 1
峁 1
栎@@ 1
湟 1
秣@@ 1
綰 1
繭@@ 1
茌@@ 1
蹠@@ 1
appe@@ 0.007482902512671249
clu@@ 0.006115612477486161
nak@@ 0.060133133764666044
vern@@ 0.02383511091059235
ween 0.02431100768684972
þ 1
ぞ 1
亙 1
叼 1
啖 1
撕 1
犄@@ 1
箸 1
纣@@ 1
荩 1
裒 1
镒 1
鱒@@ 1
鸲 1
鹩 1
Italia 0.02811710251990219
aji 0.059744077526492446
cru@@ 0.011705301112493911
design@@ 0.004621153733519308
elt@@ 0.013292968445539021
etti@@ 0.03811817258877473
fin 0.0057662688780014655
half 0.007010253525462686
nationale 0.00813652550713254
nes@@ 0.038326113303960914
onto 0.010577981903316448
present 0.006517069354514774
yal 0.021464987100207868
yar@@ 0.02772277300797769
昐 1
璆 1
笪 1
藕@@ 1
覡 1
铨@@ 1
우 1
Israel 0.01503263289447001
anan 0.05475729445668788
associ@@ 0.007427897630714302
develop@@ 0.005431963128223027
ided 0.00798098126823851
kun@@ 0.013463712198814677
performan@@ 0.0066617175993120255
represent@@ 0.003989122963017053
sei 0.013788171191158041
ა 1
哺 1
岌 1
廿 1
拴 1
珐@@ 1
瑾@@ 1
痢 1
azar@@ 0.04483867715763212
beau@@ 0.015169500273443482
early 0.003443076791162536
exten@@ 0.008305119295725263
hara 0.10952077493413735
imin@@ 0.014958963569835136
offici@@ 0.003921553843251757
İ 0.8411490741291253
Μ 0.7001275091925503
प 0.004674197621195131
刨 1
娅@@ 1
庹@@ 1
惲@@ 1
曩 1
槊 1
欒 1
瓛 1
瘙@@ 1
経 1
诒 1
酣@@ 1
Tek@@ 0.07104914283871779
Volks@@ 0.014149252516066534
apo 0.06533161431281918
bas 0.026074501716215392
cum@@ 0.019235782871183816
liga 0.010679128159591152
sein 0.0037408647242940384
ę 1
厕 1
売 1
娑@@ 1
桫@@ 1
浠@@ 1
甪 1
痍 1
秽@@ 1
窥 1
繖 1
腌 1
菟@@ 1
谘 1
辫 1
錇 1
闈 1
陉@@ 1
bak@@ 0.02799372173125904
cad@@ 0.010090437485205536
ế 0.05564148315142314
劢 1
唑@@ 1
姗@@ 1
庥 1
桜 1
畋 1
瞒@@ 1
笄 1
绽@@ 1
缬@@ 1
缽@@ 1
葳 1
謄@@ 1
钬 1
骄 1
鼹@@ 1
Ｃ 1
Ere@@ 0.03207361944277923
Institut 0.02055204968334676
liber@@ 0.009554470221202042
mig@@ 0.007690412140842239
凫 1
剥 1
晾 1
柽@@ 1
毋 1
沥 1
熜 1
熠 1
犊 1
粄 1
苧@@ 1
茔 1
荸@@ 1
蔦 1
轆@@ 1
餮 1
髖@@ 1
고 1
미 1
Bu 0.016510917237579623
Tang@@ 0.0717912082939291
econom@@ 0.006894653962941099
exist@@ 0.00566632656651609
idence 0.009851544120827527
tribu@@ 0.015549915019770726
uss 0.010055307263691306
ล 0.013106565897743264
่ 0.03528943734588373
勷 1
婭@@ 1
泷 1
烺 1
燹 1
臻@@ 1
雏 1
鬲 1
鴯@@ 1
acht 0.005197731773432562
amen 0.009389816460146505
foc@@ 0.00863260095371981
hist@@ 0.01835310204187459
oj@@ 0.04773262427924233
rech@@ 0.005178823713078207
record 0.005514386559775708
俪 1
嘶 1
廻 1
怙 1
斟 1
歆@@ 1
澪 1
燏 1
衽 1
踝@@ 1
邺@@ 1
鎗@@ 1
鸞@@ 1
鹮 1
齶 1
Ban 0.04500654146615162
bay 0.016064710969816477
combin@@ 0.00895054212056907
cost@@ 0.012123738447444033
ict 0.016853151226592603
quali@@ 0.009302213957415824
several 0.003316228215448298
ང 1
値 1
烘 1
疮@@ 1
茯@@ 1
蔬 1
诂 1
豕 1
鐙 1
钷 1
驸 1
Luf@@ 0.015818838777570714
death 0.0051456061365892525
ests 0.007806997466127208
oka 0.05955489878423764
้ 0.029230353984353533
僳 1
恊 1
瀝 1
睾 1
缢@@ 1
罈 1
膈 1
莺@@ 1
蛏 1
鈇 1
锵 1
颯 1
鮫@@ 1
鲇@@ 1
鹫@@ 1
chap@@ 0.009298107556084139
estig@@ 0.027316639875404454
ques@@ 0.011707163154523848
sang 0.020894231966323
ʼ 1
Ц 0.11216297157859954
俬 1
挪 1
渙 1
蛭@@ 1
貍 1
镐@@ 1
#@@ 1
aum 0.008715309853411
aume 0.014264287495021358
ན 1
埵 1
奄 1
悴 1
欉 1
浯 1
涟 1
盩 1
磔 1
祢 1
缤@@ 1
缵@@ 1
茗@@ 1
蕁@@ 1
诬 1
隠 1
黯 1
bles 0.008598712569611807
consider@@ 0.004012269576334393
uz 0.02527296674016775
ी 0.03123691406673547
པ 1
崞 1
悫 1
捒 1
掄 1
祓 1
襞 1
譞 1
霽 1
颞 1
鱘 1
Histori@@ 0.01085301758449767
ennes 0.009602616875983348
iku@@ 0.18484013084485043
ously 0.005775908278839597
utz@@ 0.004754608899139177
偓 1
刍 1
涣 1
満 1
灃 1
烊 1
腮 1
裾 1
郞 1
鑀 1
鑭@@ 1
钹 1
顓@@ 1
ident@@ 0.018126884949511254
irs 0.010791260726207758
maj@@ 0.007814534071989182
model@@ 0.009821475232087297
publ@@ 0.008145190197616513
囝 1
堕 1
嫦 1
桩@@ 1
毡@@ 1
祧 1
翕 1
肜 1
萵@@ 1
鹚 1
Anc@@ 0.1955979164272341
acu@@ 0.017954720567409405
atro 0.01902024111808547
auc@@ 0.015530888730999332
cent@@ 0.008158668275509826
tura 0.005433345746117724
Θ 0.8033432405366432
伋 1
儆@@ 1
峒@@ 1
惭@@ 1
椴 1
澹@@ 1
濉@@ 1
玕 1
缎@@ 1
萩 1
諴 1
赡 1
頵 1
顳 1
飙 1
馀@@ 1
鸬@@ 1
요 1
Universit@@ 0.013371976458414231
auto@@ 0.014758842376780908
caus@@ 0.005317876654696174
curr@@ 0.0064096226000876725
div@@ 0.009101185378568617
division 0.007696258949088819
natural 0.0106243920591
tut@@ 0.011589538448596948
utz 0.01773709394764147
ط 0.023156398291509953
俦 1
唭 1
嚣@@ 1
娓@@ 1
孱@@ 1
橇@@ 1
潁 1
灤@@ 1
炖@@ 1
碾 1
糾 1
綻@@ 1
缕@@ 1
蓑 1
觞 1
镞 1
鹕 1
autom@@ 0.008711051263593318
compos@@ 0.0032620669150362864
irk 0.017311326991951276
jer@@ 0.023153932411952283
kap@@ 0.016322009208783864
儋 1
吝 1
噢 1
您@@ 1
捣 1
摻 1
暎 1
杙 1
汭 1
眙@@ 1
赓@@ 1
逯@@ 1
鑊 1
钆 1
鰹 1
黥 1
오 1
Mei 0.2883356699699724
Region 0.011116056908267825
agre@@ 0.007465660353359748
ativ@@ 0.009203903478833455
atives 0.00858729672633725
categ@@ 0.010771773493617635
kas@@ 0.03626114243639748
uka 0.06656043695075263
亩@@ 1
兮@@ 1
剡@@ 1
厔 1
嗯 1
嬉 1
掟 1
泞 1
犷 1
痤@@ 1
眈 1
笕 1
茉 1
轭@@ 1
鈑 1
钼@@ 1
餓@@ 1
骂@@ 1
鸕 1
鹌@@ 1
인 1
condi@@ 0.008114440704138694
ellschaft 0.012749498169927936
encia 0.002324562114962818
hib@@ 0.012883920940693242
idas 0.011468738037075191
uda 0.02684915487688596
vot@@ 0.006036827863777848
yet 0.017482052360802993
พ 0.03566024968857744
佘 1
嘿@@ 1
権 1
毆@@ 1
毬@@ 1
灸@@ 1
熲 1
畦 1
磴 1
葳@@ 1
诒@@ 1
谚 1
镎 1
도 1
﻿ 1
ball@@ 0.008439793625376942
bom@@ 0.016831863758308526
culture 0.009761207422288271
ekt 0.014044020531395302
football 0.004073897218912482
gli@@ 0.0179656883127128
langu@@ 0.02131932469957387
placed 0.0051173138191769555
uso 0.009458802965368633
Ó 0.24302661014939703
འ 1
兖 1
圀 1
垟 1
懵@@ 1
捡@@ 1
掳 1
琤 1
琿 1
罘 1
芻 1
螨@@ 1
袴 1
譏 1
赳 1
酩@@ 1
颺 1
黜@@ 1
erc@@ 0.015306451168975005
government 0.0035942300852429736
kad@@ 0.0216217862353042
lek@@ 0.01851586272614689
仃 1
嘜 1
媞 1
撣 1
洵@@ 1
獷 1
縯 1
诘 1
銪 1
镱 1
阗@@ 1
수 1
Seine 0.01067933479559899
XV@@ 0.030203847908541047
Yun@@ 0.05127194275634136
actor 0.010986367049816375
appear@@ 0.003349672368292498
held 0.003446741965775902
pad@@ 0.029972921708170955
possible 0.00794323246185455
radio 0.007917403240414548
yer@@ 0.023949672140369308
Î 1
Ε 0.118451981695831
匮 1
彫 1
扆 1
捺 1
梣 1
橹 1
牻 1
璇@@ 1
眈@@ 1
礴 1
筴 1
箕@@ 1
絢 1
鋹 1
馄@@ 1
髁 1
鼹 1
일 1
Gran 0.02458475412237522
ल 0.012263122891522545
斂@@ 1
暇@@ 1
樗 1
涞 1
渗 1
焖 1
蛳 1
賾 1
逑 1
銓@@ 1
靄 1
饨 1
骡 1
Mec@@ 0.05449790738474803
compl@@ 0.0056147196839190375
eles 0.019907742795928857
fall@@ 0.00898697044630154
Ч 0.18793654358919787
牀 1
甾 1
芻@@ 1
訐 1
鲢 1
해 1
Ord@@ 0.02285503125245425
became 0.0019867243763059803
domin@@ 0.006340741159977294
route 0.008218989221298736
zar@@ 0.03390678415984889
ʿ 1
˙ 1
匙@@ 1
悽 1
憔@@ 1
拷 1
枭@@ 1
枳 1
猊 1
癭 1
瞥 1
縉@@ 1
绂 1
腱@@ 1
觚 1
酊 1
鹄 1
국 1
시 1
Oy@@ 0.061378687965184565
fu 0.09013660331008046
independ@@ 0.007238409752046809
jum@@ 0.02255370055769627
separ@@ 0.006541024900284083
خ 0.056709221476903236
ต 0.016770427982457644
ห 0.17358542226808193
ㄅ 1
堑@@ 1
癱 1
芊 1
芗 1
葷 1
蛊@@ 1
蟄 1
陛 1
髂 1
鲷@@ 1
company 0.0036694619170155656
numer@@ 0.008456962147975118
Я 0.036403818920204445
ד 1
廙 1
桁 1
眸 1
籁 1
绢@@ 1
詭 1
迨 1
迸@@ 1
顳@@ 1
Indonesia 0.030813890835936587
amu 0.08281755785815283
announced 0.00532045770092433
course 0.008920699364811172
grav@@ 0.014386503672009344
ported 0.0048084523062240465
weg@@ 0.007148849290673359
व 0.011291040122362048
ễ 0.07127964835964004
戮@@ 1
棹 1
洎 1
涕@@ 1
瘾@@ 1
簃 1
籐 1
羗 1
辻 1
迳 1
鋨 1
驹@@ 1
鲭 1
鲻 1
Bundes@@ 0.005547679696322392
cer 0.012596927045261979
near 0.005099566663941723
亘@@ 1
巔 1
棐 1
澗@@ 1
纫@@ 1
蒔 1
蛔@@ 1
誾 1
騾@@ 1
blan@@ 0.009492639514194266
declar@@ 0.008734710068082997
father 0.004665964068054052
icio 0.007114153923927747
lau@@ 0.01601936085497398
tivo 0.011198411197301857
ė 0.1382448473181557
य 0.008063171295510829
ะ 0.012806307621062564
∧ 1
♥ 1
仵@@ 1
倜@@ 1
吮 1
呢@@ 1
咋 1
哽@@ 1
峩 1
摭 1
斫 1
炜@@ 1
舐 1
蚱@@ 1
裔@@ 1
鏊 1
闩 1
鮰 1
Ç 1
ი 0.5099094837762296
囤 1
嶲 1
朊 1
椤 1
樛 1
沆@@ 1
渺 1
琍 1
茎@@ 1
鬻 1
에 1
자 1
afa 0.04919071107222369
envir@@ 0.008248835640457195
liz@@ 0.020047905656249573
lug@@ 0.0166313003475246
匏 1
寀 1
扉@@ 1
掸 1
櫈 1
沚 1
潍 1
濤@@ 1
烫@@ 1
箓 1
紉@@ 1
荛 1
莨@@ 1
誊@@ 1
鑠 1
颚@@ 1
Arth@@ 0.16008771988564283
Paulo 0.03605313359320832
along 0.003946824032796774
bind@@ 0.009149281770144405
ende 0.003060964992524131
inos 0.01000833344874308
pia 0.08833865703530791
sak@@ 0.05852446250131434
sam 0.01326497727209534
tradi@@ 0.0035744600394720556
ี 0.016852162408919517
凊 1
咄 1
哌 1
嗟 1
峥 1
廝 1
悰 1
漱 1
褥@@ 1
頃@@ 1
Dok@@ 0.0225803973645129
Hamb@@ 0.011679583405392324
began 0.0030308250878148873
ener@@ 0.015622990059418312
liter@@ 0.006127691213041634
prac@@ 0.005962736824374229
rail@@ 0.007138181557551614
schaft 0.0020894389990494724
suc@@ 0.006617201541231503
village 0.0031258127697111897
倧 1
倬@@ 1
怿 1
泠@@ 1
渌 1
痔@@ 1
贻 1
铛 1
骇 1
cu 0.05449425914765172
esper@@ 0.023655908027471938
furt 0.01742745050401447
organ@@ 0.007710667056737339
rom 0.06609205344370653
tul@@ 0.02688711284110617
vania 0.012291050062148898
who@@ 0.0056652614803747265
ِ 0.06074021434051091
僵 1
呱@@ 1
哒 1
崤 1
撈@@ 1
撬 1
晙 1
榔@@ 1
瘫 1
缄@@ 1
虬 1
跸 1
釤 1
锜 1
鹉@@ 1
allow@@ 0.005873874335626678
material 0.010447866189261036
tries 0.006818191798154028
verl@@ 0.005438094900277905
佻 1
凳@@ 1
姣@@ 1
岢@@ 1
揣 1
槳@@ 1
璀 1
紬 1
缭@@ 1
臏 1
舨 1
藹@@ 1
豺 1
遨@@ 1
锔 1
饋@@ 1
Hung@@ 0.013789872768929892
Santiago 0.020665647146611815
abab@@ 0.6895937883604588
eran 0.005419176866864418
named 0.003153168260794052
observ@@ 0.006412604257319649
quel@@ 0.022719634359328455
Ž 1
ƒ 1
ʷ 1
द 0.00938441583945298
ヘ 1
倓 1
勱 1
噗@@ 1
帯 1
徂 1
憙 1
旌 1
籓 1
藿@@ 1
駱 1
鵪@@ 1
鹞 1
麂@@ 1
auf 0.0005958440217611562
band@@ 0.012279595672633295
defe@@ 0.0055633901659809665
dil@@ 0.022217425158559893
erre 0.009929180373765528
gian 0.012228800097573643
given 0.00559738581295762
gri@@ 0.011455289364844357
kit@@ 0.02501011573481627
mill@@ 0.021986097332586822
pf@@ 0.006084067946063097
riv@@ 0.01290389287047521
signific@@ 0.005647301892746169
ص 0.0343625526497963
ྱ 1
ị 0.027646200343777
壟 1
摶 1
朐@@ 1
甡 1
糬 1
纫 1
蔼 1
薷 1
鄆@@ 1
餒 1
饺 1
髡 1
Ｘ 1
Canton 0.06739178430034452
cab@@ 0.005436974909130149
ischen 0.0007977292287189258
ism@@ 0.02023307941235128
jug@@ 0.00601752745595936
儷@@ 1
啜@@ 1
啪 1
澥 1
砭 1
硖@@ 1
艛 1
豇@@ 1
郯 1
馍 1
骆 1
鸢 1
Afr@@ 0.02670853385282646
ased 0.005265223264662906
essen 0.01391873480320449
illes 0.01734974428286333
inh 0.015292820351465888
invol@@ 0.0048457178423936395
jan@@ 0.01952206095140543
kis@@ 0.05248128581362448
period 0.005196724000945988
tiva 0.022112874424789188
〞 1
叁 1
哗 1
嘔 1
嘹@@ 1
帙 1
搁 1
潾 1
澐 1
燴 1
礎@@ 1
禔 1
薌 1
螄 1
豢@@ 1
邾@@ 1
骐 1
Ｏ 1
Portu@@ 0.0090591514980683
erst@@ 0.006213985387946185
exper@@ 0.007099886758221207
gul@@ 0.034652816372820396
illed 0.006329171479793237
perior 0.016183691218665076
relati@@ 0.0060634010250809126
trag@@ 0.008844753264836256
أ 0.10072203508826942
⊕ 1
ㄩ 1
檨 1
畤 1
纠 1
莴@@ 1
菑 1
蚝 1
譴 1
酣 1
锄 1
霽@@ 1
驍 1
鲛 1
鲲 1
Sur 0.012382071179992979
kirche 0.014796910085818927
pas 0.0024109164784850584
sil 0.019946102607016285
uu 0.24724321223417833
ด 0.007278891658274833
ุ 0.02230933321435231
円 1
厓 1
唛 1
岖@@ 1
拣@@ 1
熠@@ 1
畷 1
腆 1
腈@@ 1
蟜 1
観 1
軋@@ 1
霁 1
鲫@@ 1
니 1
hak@@ 0.046202762256030046
included 0.004031494372652526
kle@@ 0.0057540703414791
ograp@@ 0.015955521684461342
previ@@ 0.004569917588565686
toria 0.015889150784623513
ș 0.11514454857745518
ک 0.027354157924338093
ヶ 1
俅 1
嗲 1
婊@@ 1
応 1
恣 1
暐@@ 1
澚 1
笳 1
筷 1
臃@@ 1
蚴 1
邝 1
鋭 1
鏘@@ 1
頦 1
소 1
audi@@ 0.01010765746128144
follow@@ 0.005059360806223609
iev@@ 0.005274505887999678
office 0.006592673794314288
rus@@ 0.014320345061664281
unga 0.07576530671928274
univers@@ 0.01702709737895226
נ 1
偁 1
冽 1
堞 1
忞 1
懌 1
桤 1
溞 1
漪@@ 1
焙@@ 1
畲 1
竦 1
縈 1
邡 1
鎢@@ 1
central 0.00616888883965802
century 0.0032255358768443197
isen 0.01124548249610231
zig 0.01403305290828207
ע 1
仮 1
凖 1
垚 1
嬋 1
澍@@ 1
瑢 1
痹@@ 1
盅 1
籀 1
藁 1
陔 1
로 1
Span@@ 0.007217789102344973
Von 0.005160676743456773
atz 0.008631772050346823
bern@@ 0.01702028739799921
determin@@ 0.010395759351814485
gest@@ 0.004040413055227089
leb@@ 0.0081090694873251
util@@ 0.014465140968688162
zon 0.048103283734269434
円@@ 1
噲 1
挹 1
暾 1
柃@@ 1
梂 1
氙@@ 1
燎 1
篦 1
絜 1
诹 1
鄲@@ 1
镥 1
Ｄ 1
kus@@ 0.029626728290713576
oire 0.01217987833920967
students 0.005858717478352942
ु 0.07071601745285712
র 1
ལ 1
④ 1
♡ 1
嗒 1
氩 1
渙@@ 1
燐 1
窣 1
繚@@ 1
缯 1
莠 1
薳 1
谙 1
谩@@ 1
谪@@ 1
豁 1
貲 1
跗 1
锑@@ 1
안 1
Fak@@ 0.021898698874750957
chn@@ 0.044090852332087434
iker 0.012736223136631525
ismo 0.007249356289225469
tas 0.01229426888756285
zur 0.0017547219733611084
冨 1
嗔 1
埡@@ 1
搔 1
涮 1
芡 1
蔼@@ 1
鏷 1
鑪 1
asser 0.013058722506428533
erk@@ 0.008329026827234267
idad 0.0018323942619412866
nie 0.015110522472129503
orig@@ 0.0128836722126161
ộ 0.039936685393903645
℉ 1
∀ 1
桧@@ 1
梟@@ 1
楢 1
淝@@ 1
砭@@ 1
纾 1
谄@@ 1
贍@@ 1
鍼 1
顎@@ 1
麸@@ 1
鼷 1
allen 0.01342153044435654
pedi@@ 0.016008915161158075
ungen 0.0010603598923659106
yana@@ 0.4975308260650003
щ 0.029368868177126035
ُ 0.11379676760641635
⋅ 1
兢 1
喺 1
噓@@ 1
夯 1
撚 1
梢@@ 1
汜@@ 1
璹 1
諍 1
贅@@ 1
锕@@ 1
骥@@ 1
麾 1
Un 0.0053323531780723465
anya 0.03631352466784762
conf@@ 0.005180291269966864
films 0.007146215288084816
kia 0.11997020258199259
kum@@ 0.025464624378193905
members 0.0035815257488160074
rod@@ 0.033511415447658205
sev@@ 0.02916583075110278
sous 0.0028446923072292453
universit@@ 0.005375923977224637
် 0.9671612676455781
ヌ 1
勔 1
嚷 1
圪 1
埡 1
廞 1
渟 1
瀟 1
玎 1
禎@@ 1
绷@@ 1
逞@@ 1
遒@@ 1
鎬@@ 1
駢 1
骘 1
魇 1
鰐 1
鸝 1
Dies@@ 0.008841076899297275
Haus@@ 0.012528697228188975
como 0.0008600923046316705
emas 0.018592674202096572
embr@@ 0.020065836663701597
Ä 1
ő 0.22636202432659508
ố 0.03621119961647364
‡ 0.924037013887993
卉@@ 1
吽 1
暻 1
栩 1
浍 1
畬 1
皞 1
瞽 1
砒@@ 1
簸@@ 1
臯 1
蔷 1
蛰@@ 1
蟳 1
铥 1
鴝 1
Bez@@ 0.006039558624384494
Schul@@ 0.008665403292175999
eder 0.021169368029275888
kay@@ 0.019675467334543534
princip@@ 0.004730588047876584
sol 0.02104750576811074
uch 0.010289831222115122
Ш 0.13861949460086073
ָ 1
垭@@ 1
夤 1
彘 1
抟 1
熺 1
盦 1
竄@@ 1
荠@@ 1
賚 1
釙 1
銖@@ 1
鏤@@ 1
鐫@@ 1
adas 0.002317366314382482
complet@@ 0.004157882994731235
entes 0.002486794408639284
eren 0.003039444485343693
important 0.005097564577082434
iste 0.003764467270297979
public@@ 0.0028869923121961076
tiz@@ 0.009314027993526198
垄 1
屹 1
徬@@ 1
椰 1
氓@@ 1
燿@@ 1
窜@@ 1
衾 1
讪 1
錳@@ 1
镌 1
騭 1
髀 1
鬮 1
그 1
Jah@@ 0.010990284776390044
become 0.005018043263157529
conver@@ 0.007455496261441098
det 0.005053829668242525
hui 0.012287927034509018
叻@@ 1
昵 1
栝@@ 1
槨 1
淙 1
焯@@ 1
煐 1
狁 1
箔@@ 1
紱 1
羸@@ 1
苅 1
茀 1
蛀 1
讴@@ 1
铒 1
鷉 1
장 1
Biz@@ 0.05404497780907635
Distribu@@ 0.014487739780131308
Elle 0.002724202234420475
Unter@@ 0.0032231028670885787
destr@@ 0.0067109653550240615
expl@@ 0.005522819826648159
geh@@ 0.003588741732005211
til 0.009867568807644436
े 0.02737266161130701
ぱ 1
倘 1
儺 1
埭@@ 1
捱 1
渉 1
疥@@ 1
葭@@ 1
蒽 1
蚬 1
蜻 1
逄@@ 1
鄩 1
騁 1
骅@@ 1
骋 1
鴴 1
鹱 1
Compan@@ 0.06427323744140075
adap@@ 0.006569507898765756
aille 0.00720559781611266
aina 0.0732670589450646
conduc@@ 0.006145876170097026
haz@@ 0.03338966337296826
international 0.004387363291445295
nin 0.01172521297076565
omin@@ 0.028546885531496848
tei 0.011157768558448054
tung 0.0034605240818973777
ż 0.5220807336099906
ả 0.03297820204595543
∗ 1
〝 1
ぜ 1
凃 1
剁@@ 1
劼 1
呸 1
唃 1
啬 1
彗 1
戩 1
掰 1
擰 1
晁 1
櫥@@ 1
湍 1
矇 1
笮 1
訝@@ 1
鉸@@ 1
gradu@@ 0.004206872637344017
kt@@ 0.013883549755106526
porte 0.004502924121284759
prises 0.012349836367091938
serve 0.008466083417526594
similar 0.00564702177737544
ulia 0.0928015984708395
亜 1
佉 1
咔@@ 1
咧 1
暦 1
湮 1
狎@@ 1
痺@@ 1
礬 1
粳@@ 1
纘@@ 1
纣 1
肓 1
荟 1
藎 1
闌 1
驯 1
acio 0.013458128855623608
kop@@ 0.021040894731609375
liche 0.0019533769202395926
ockey 0.00740515675989228
ologie 0.0043620902841649874
pris@@ 0.007037909201082035
propos@@ 0.0063244535768135065
ɣ 1
〗 1
ㄥ 1
呪 1
嗤@@ 1
崮@@ 1
帼 1
幷 1
曄@@ 1
涔 1
滸 1
犨 1
瞋 1
矧 1
砰@@ 1
缵 1
薫 1
蟎@@ 1
赘@@ 1
跛 1
蹼@@ 1
辂 1
銶 1
锕 1
韫 1
颯@@ 1
騶 1
骝 1
鹎 1
Ent@@ 0.00692603127315373
abu 0.0715520234119275
cas 0.007652008512338341
hen 0.014145287318282747
̯ 1
ầ 1
⇔ 1
〖 1
嘸 1
姗 1
恸 1
枥 1
栞 1
桨@@ 1
殇@@ 1
淆@@ 1
珦 1
琹 1
瓔 1
瓖 1
甙 1
窕 1
緑 1
绀@@ 1
腧@@ 1
茱 1
蛻 1
郏@@ 1
钜@@ 1
锎 1
颧@@ 1
鴷 1
黠@@ 1
Schwe@@ 0.00751937727489907
esen 0.0055841309052903606
fen 0.006473104503057165
financi@@ 0.007053555098407736
philos@@ 0.009513258867173328
吁@@ 1
咿@@ 1
図 1
攢 1
柘 1
栀@@ 1
桷 1
沄 1
犂 1
琮@@ 1
畝@@ 1
銻 1
鯽@@ 1
마 1
진 1
four@@ 0.005873471758025985
hid@@ 0.01695991511058441
hin 0.009369207267852946
jas 0.014608691110283002
mt 0.006573849803702793
recog@@ 0.006153430675371253
role 0.00440827160481115
⇒ 1
僰 1
哙 1
啻 1
杼@@ 1
栾 1
殡 1
涎@@ 1
濯@@ 1
藜@@ 1
鬪 1
鸊 1
세 1
Eis@@ 0.021438028348970625
Europa 0.009153566669656804
bec 0.010582322235678654
fam@@ 0.0068592007205840145
kab@@ 0.024624153326520654
lement 0.007525118897210064
poin@@ 0.0432951544843999
tario 0.010698478536535156
yen 0.010415090524428797
╱ 1
ぽ 1
ㄐ 1
卣 1
坨@@ 1
姮 1
嶸 1
悪 1
暲 1
楝@@ 1
泺 1
洄 1
牡 1
獁@@ 1
璪 1
瞌@@ 1
縷@@ 1
芨@@ 1
蜉@@ 1
裨 1
詫@@ 1
讒 1
酃 1
鋌@@ 1
锫 1
锹 1
는 1
유 1
Nieder@@ 0.007376284618024739
Ohio 0.011089852360940679
ingi 0.2189129479033754
kim@@ 0.04739988763652602
oci@@ 0.008002325236884905
origin@@ 0.0034575027934474756
polic@@ 0.008703059170399352
stil@@ 0.0346408088019462
ʾ 0.849851337039175
俥 1
厰 1
媵 1
戕 1
毽@@ 1
浞 1
獐 1
疝@@ 1
瘧 1
糍@@ 1
纛 1
翮 1
膿 1
莼@@ 1
菉 1
蒍 1
비 1
영 1
Geb@@ 0.008635888792288883
Sta@@ 0.006725563570348459
ayr@@ 0.022349756370724852
built 0.0028649625563209533
dir@@ 0.008723195568333822
dows 0.032257469879872325
written 0.004797498633172888
Ο 0.006795227608374912
∥ 1
ㄎ 1
䗛 1
乭 1
倌 1
垢@@ 1
姣 1
媯@@ 1
崢 1
擲@@ 1
沓@@ 1
牝@@ 1
疣@@ 1
痘@@ 1
硚@@ 1
稞 1
脇@@ 1
诘@@ 1
辍 1
酞 1
鐿 1
閹 1
鳃@@ 1
among 0.004506138247664493
anni@@ 0.015305394438607853
community 0.004691090699940188
govern@@ 0.007270855466239235
nig 0.011384614661726846
க 1
ㄢ 1
刍@@ 1
叨 1
噏 1
嬈 1
幄 1
攒@@ 1
梉 1
泸 1
潇 1
璥 1
砟 1
磴@@ 1
缀@@ 1
胛 1
膈@@ 1
蘅@@ 1
譎 1
谠 1
鄺 1
镫 1
鮀 1
산 1
전 1
Kut@@ 0.051478816041185205
Partido 0.019168560207520533
cause 0.008574866707769111
hii 0.10492488440672404
iller@@ 0.018999327436903947
modern 0.006690782163708756
্ 0.6396868692678015
ค 0.025775367939113888
จ 0.024746815507346226
⁄ 1
唢@@ 1
愆 1
掺 1
暝 1
滢 1
笏@@ 1
絳@@ 1
綃@@ 1
纍 1
苡 1
蓨 1
褸 1
詬 1
釁@@ 1
鰏 1
鸾@@ 1
齦@@ 1
Jersey 0.012121846164652785
bay@@ 0.02130082135167121
mam@@ 0.025627769385559926
versit@@ 0.02350333711530479
ώ 0.06031610564185718
ј 1
์ 0.005705018588245259
俵@@ 1
圄 1
够@@ 1
宓@@ 1
恚 1
捍 1
掐 1
榫@@ 1
甴 1
碉 1
絛@@ 1
胙 1
詰@@ 1
跷 1
辋 1
遑@@ 1
鏻 1
铣@@ 1
駡 1
髙@@ 1
조 1
Argentina 0.010142923432495633
Rech@@ 0.007705087268772942
dur 0.03457123363891941
gil@@ 0.011970068024543826
leo 0.025443981733105435
prec@@ 0.007991888703463852
various 0.004636995833988464
ּ 1
ㄒ 1
仃@@ 1
崽@@ 1
戇 1
抒 1
揀@@ 1
涓@@ 1
烩 1
疥 1
紊 1
菡 1
衿 1
讳@@ 1
跚 1
跤@@ 1
遄 1
阏@@ 1
은 1
atura 0.013813165639859555
ḍ 1
⟷ 1
匄 1
嗑 1
崃 1
揸 1
檸 1
濛@@ 1
狍 1
窠 1
罨 1
茆@@ 1
蛰 1
蠲@@ 1
訣@@ 1
跏@@ 1
遽@@ 1
酎 1
釵@@ 1
鍱 1
镗 1
霎@@ 1
鴣 1
화 1
Schi@@ 0.011774281103231261
cula 0.04611926415161785
eure 0.011943196861917863
iwa 0.08915139782306301
lung 0.0041262922602432325
making 0.005175181062155744
sik@@ 0.07437603376801309
werk 0.008220724963024851
ช 0.03067837468225466
√ 1
倜 1
冗 1
収 1
呱 1
屜 1
杲@@ 1
櫛 1
漬@@ 1
煲@@ 1
缶 1
翌 1
薔 1
跩 1
遘 1
鑌 1
鞬 1
鱯 1
鲎 1
Distr@@ 0.01691473545052751
Sud 0.012317504939121359
Yer@@ 0.05339429422751344
adan 0.03716278301854479
alen 0.007445761002526912
bou@@ 0.012740095230777316
equi@@ 0.00635573127745166
explo@@ 0.006828322381067846
fab@@ 0.012566195277757103
hus@@ 0.009188732245191754
onship 0.005515637003824149
sir@@ 0.018313511426967997
ʒ 1
ض 0.017630154904390204
ㄠ 1
囹@@ 1
婧@@ 1
抃 1
枏 1
櫂 1
沘 1
眭@@ 1
竪 1
篋 1
纔 1
芍 1
蕗 1
諦@@ 1
韞 1
韫@@ 1
髖 1
魋 1
administr@@ 0.002986617074250988
arded 0.004903572086331207
capit@@ 0.006821009192886225
conv@@ 0.007690282684365028
inden 0.010229775534328531
inen 0.007686008475889226
received 0.0027893293725540216
[...]
