de 52031118
, 48354455
. 40186598
la 25354549
et 21265962
le 19949758
à 17345518
en 16265206
&quot; 13607370
l&apos; 13581477
des 13104680
est 12713814
@-@ 12464928
les 12439440
du 11913384
d&apos; 10541263
é 10311382
un 9500734
une 8609950
é@@ 8402242
( 8317844
) 8314780
que 8247712
dans 6949164
au 6532966
par 6379995
ée 6242268
es 5731011
il 5650977
dé@@ 5600533
’ 5444266
er 5355354
a 5343089
pour 5187327
ant 4918357
ré@@ 4733120
ent 4673039
se 4656514
qui 4605504
ation 4383041
Le 4241614
sur 3962127
aux 3910565
ie 3865621
son 3812523
s@@ 3788076
s 3771758
ement 3757735
v@@ 3730406
c@@ 3646086
re@@ 3551590
te 3520972
p@@ 3488482
ne 3450643
Il 3430050
ch@@ 3379647
avec 3360359
l 3352660
elle 3323092
és 3317509
La 3261119
it 3145525
: 3033021
r@@ 2992479
e 2971147
on 2913810
qu@@ 2901521
d 2892804
m@@ 2882833
ce 2821621
plus 2801061
re 2761447
f@@ 2742245
t@@ 2720703
C@@ 2688691
in@@ 2664734
S@@ 2645850
sont 2631001
ale 2578842
is@@ 2564109
En 2544690
par@@ 2504482
ère 2502852
L@@ 2488245
ac@@ 2478084
P@@ 2472074
t 2464533
ques 2460164
is 2421525
b@@ 2399646
ou 2393154
g@@ 2385169
ité 2381067
ées 2362958
été 2299900
age 2262645
Les 2242115
tr@@ 2238614
sa 2232948
ér@@ 2164324
o@@ 2156949
y 2144718
in 2118165
D@@ 2110294
n@@ 2104413
« 2095312
d@@ 2094942
aire 2092465
» 2090741
on@@ 2084601
el 2038131
di@@ 2027707
ue 2017831
pr@@ 2014293
ine 2009505
en@@ 2001608
tion 1987140
l@@ 1980542
ag@@ 1978754
qu&apos; 1968879
B@@ 1968221
G@@ 1964199
A@@ 1955315
ses 1933431
ont 1926393
ur@@ 1895764
è@@ 1893707
R@@ 1887062
u 1884268
s&apos; 1882348
ou@@ 1881953
N@@ 1818413
ul@@ 1803026
i 1792145
li@@ 1786452
T@@ 1783740
ti@@ 1773243
or@@ 1769713
F@@ 1766387
M@@ 1759511
ar@@ 1757724
au@@ 1755404
al 1748903
h@@ 1746145
at 1745074
ait 1743738
comme 1712692
im@@ 1702091
si@@ 1682633
c 1676325
me 1674079
con@@ 1658293
gr@@ 1636008
an 1609006
deux 1600754
tes 1596570
a@@ 1594352
ations 1566808
L&apos; 1563116
ét@@ 1560704
ons 1560569
tre 1556231
an@@ 1544528
it@@ 1540324
us 1533178
ite 1517931
al@@ 1514878
onn@@ 1494975
av@@ 1480462
am@@ 1480204
ent@@ 1472270
i@@ 1466595
ex@@ 1461048
u@@ 1454441
pas 1439304
eur 1438579
us@@ 1435840
V@@ 1433931
vo@@ 1429586
at@@ 1407401
j@@ 1379285
ab@@ 1376162
y@@ 1372540
mo@@ 1369809
ers 1365446
ap@@ 1361400
e@@ 1352922
él@@ 1352919
fait 1352839
mais 1350931
éri@@ 1350122
ire 1346529
H@@ 1342842
po@@ 1338691
che 1334425
ic@@ 1334343
ence 1321378
; 1293331
se@@ 1292117
entre 1290496
ents 1254606
Ch@@ 1254103
ass@@ 1252090
én@@ 1246412
ouv@@ 1223850
E@@ 1216939
ma@@ 1215305
ens 1207840
tions 1191758
Elle 1189968
ise 1185512
ph@@ 1178393
sous 1177844
ter@@ 1173439
leur 1161189
ces 1154455
ê@@ 1151756
cette 1148551
ts 1144416
as@@ 1141950
enne 1141096
ci@@ 1138677
ans 1126543
ance 1122845
op@@ 1122537
er@@ 1117084
id@@ 1114549
É@@ 1109486
pl@@ 1103998
ill@@ 1099333
ro@@ 1095337
&apos; 1090224
om@@ 1085937
pro@@ 1081613
J@@ 1080472
ique 1075956
pré@@ 1075219
vi@@ 1074579
dis@@ 1059112
être 1058477
teur 1057932
mé@@ 1057610
com@@ 1055765
iss@@ 1054398
ig@@ 1044094
o 1040624
ten@@ 1040509
ad@@ 1036226
ure 1035398
mar@@ 1032288
même 1031781
ux 1027372
mon@@ 1013911
oc@@ 1009997
était 1009340
min@@ 1008730
déc@@ 1004528
lui 1003844
fi@@ 998597
ri@@ 998041
ol@@ 995989
n&apos; 994991
O@@ 994906
es@@ 990592
ge 982035
inter@@ 976990
dont 976350
après 975276
ais 973056
ir 966502
fa@@ 963605
co@@ 959058
ta@@ 954432
aires 953367
ec@@ 950975
% 948493
end@@ 946724
x 946673
pi@@ 946549
pe 941689
té 941475
où 941027
comp@@ 938568
I@@ 936873
â@@ 936320
ères 923378
elles 914894
ot@@ 912949
également 909203
per@@ 907269
la@@ 903987
commune 900403
ales 898101
France 896658
ants 896305
vers 894386
ville 892375
pos@@ 891510
puis 885955
K@@ 880553
fois 877851
ra@@ 871400
aine 867083
ur 862264
contre 861685
lo@@ 859322
ég@@ 853909
Mar@@ 852962
alors 846616
mes 839102
z@@ 834692
ille 834517
em@@ 830562
aussi 825662
autres 825118
gu@@ 823519
né 822839
cré@@ 822666
év@@ 818403
su@@ 817032
cr@@ 816597
nom 816220
ainsi 815207
Saint 814934
ès 813792
le@@ 811332
ati@@ 810307
os@@ 809526
jou@@ 805970
ï@@ 805566
to@@ 804620
ve 804505
ante 800712
ion 800504
bi@@ 799291
partie 798433
br@@ 796071
cor@@ 792076
its 790461
ver@@ 790346
un@@ 788490
il@@ 787133
nes 785844
premier 779382
fut 777173
cu@@ 776940
th@@ 764616
ir@@ 761781
ni@@ 759106
première 755582
x@@ 751559
ren@@ 750337
use 749090
able 746602
eurs 745963
no@@ 744840
rem@@ 742262
ach@@ 739036
2 737430
sou@@ 737184
el@@ 736413
sa@@ 730747
agne 728888
ages 728585
af@@ 725589
st@@ 722110
and 718671
et@@ 718267
ign@@ 715151
Al@@ 714658
lors 713716
À 712148
res 708855
tra@@ 706340
W@@ 705619
n 703510
inc@@ 702424
contr@@ 698308
man@@ 696508
as 695614
for@@ 695190
suiv@@ 695067
ut@@ 688137
1 686721
années 685538
all@@ 684769
car@@ 683311
ils 680820
ang@@ 679482
ter 678930
fin@@ 678521
port@@ 677730
ires 676189
sur@@ 676009
peut 675986
iste 675913
ô@@ 672218
att@@ 671326
acc@@ 669672
ture 669431
urs 669074
ice 667169
eau 665673
cer@@ 664425
alement 664269
avant 663365
ve@@ 663201
groupe 663158
ins 662997
ain 660617
our 660136
trois 654124
î@@ 652970
ats 651229
tout 650176
cons@@ 648998
entr@@ 647305
ob@@ 642311
tique 640839
aient 640115
tant 639255
ment 638947
ser@@ 638359
os 638183
depuis 633818
f 633394
rel@@ 631708
cours 629963
sec@@ 627872
eux 627661
sol@@ 624522
res@@ 621501
Con@@ 619693
sor@@ 619082
ven@@ 613390
ements 607606
sé@@ 606986
enti@@ 605798
k@@ 605218
U@@ 603973
ison 600278
sion 599234
temps 599209
rap@@ 598923
fr@@ 598221
tionn@@ 597003
plusieurs 596946
ard 595783
conn@@ 593795
fin 587299
mus@@ 585958
so@@ 585812
3 582368
Cette 581977
ile 579936
commun@@ 579383
vol@@ 577886
très 576505
Dans 574055
tri@@ 573685
ente 572909
ain@@ 568476
ém@@ 565010
élec@@ 564018
Ré@@ 564011
ème 561895
ess@@ 560247
arr@@ 560038
um@@ 557454
ités 555482
du@@ 551345
utilis@@ 548768
porte 548735
des@@ 548376
Com@@ 547886
cl@@ 547665
part 546439
port 546159
ateur 545658
rec@@ 543536
cour@@ 543450
jusqu&apos; 543404
col@@ 543271
r 543156
trans@@ 542672
Ar@@ 541835
alis@@ 541730
els 540702
ann@@ 539295
leurs 536418
ç@@ 535521
appar@@ 534827
dem@@ 534816
pu@@ 534147
ev@@ 531504
Car@@ 528555
année 528156
/ 527765
cou@@ 527564
Z@@ 526656
ant@@ 524720
- 523464
sans 523241
ord@@ 522439
avoir 522278
men@@ 522064
por@@ 520663
An@@ 520284
Paris 516916
17@@ 515079
compos@@ 511023
aî@@ 510053
pass@@ 508459
gi@@ 507667
mort 507605
Jean 507359
avait 507285
place 506664
trav@@ 506446
4 506354
français 505844
coll@@ 505131
z 504620
De 502060
ène 499818
Qu@@ 497595
int@@ 497314
endant 492582
gen@@ 492382
or 491586
ff@@ 491473
tu@@ 491050
ju@@ 490944
notamment 490464
est@@ 490366
ar 490054
moins 488688
parti@@ 488544
famille 487784
ellement 485174
réalis@@ 484874
suite 484533
mat@@ 484491
tres 484429
pes 484390
5 484357
and@@ 483278
Ce 482687
lan@@ 482162
alité 480509
mi@@ 480145
de@@ 479906
bo@@ 478662
ne@@ 476931
faire 476014
ade 475452
In@@ 475445
vis@@ 475058
forme 474213
Au 474156
cul@@ 472683
monde 472475
plac@@ 472420
donn@@ 472014
né@@ 471750
sc@@ 470625
ors 467585
eu 466988
princip@@ 466483
k 466326
ond@@ 464555
te@@ 464513
saison 464467
éd@@ 461880
équipe 460213
rom@@ 460083
publi@@ 459018
bl@@ 458981
différ@@ 458425
Après 458199
dev@@ 456651
esse 456517
iv@@ 455755
prés@@ 455354
Mon@@ 455063
peti@@ 453565
lar@@ 453493
ection 452685
ru@@ 452010
isme 451482
anc@@ 448775
sud 447747
éro@@ 445118
sup@@ 444689
Y@@ 442878
ets 441656
lieu 440421
ête 439931
ie@@ 439502
6 439391
og@@ 438940
pays 438814
hi@@ 437918
nord 437231
onne 437038
Par@@ 436388
L 435449
dou@@ 433745
De@@ 433429
rés@@ 429971
trouve 429626
pendant 428244
agn@@ 425379
ult@@ 425082
eff@@ 424204
ines 422267
die 421590
ces@@ 420990
Bo@@ 419514
Biographie 418485
autre 418251
um 417822
ci 417272
ains 417099
ili@@ 416307
partir 416296
États 416250
grand 415851
Une 415691
région 415624
can@@ 415450
produ@@ 414790
titre 414414
non 414403
ies 414284
chan@@ 414130
ures 413059
bien 412956
tro@@ 412846
devient 412713
qu 411989
peu 411023
je@@ 409606
18@@ 408381
ette 407809
endre 407676
fem@@ 407301
Br@@ 407177
ba@@ 406402
&amp; 405998
û@@ 405699
loc@@ 405010
Un 404588
ace 403456
antes 403283
film 402947
génér@@ 401927
position 401637
form@@ 401204
ège 401135
teurs 400851
A 400719
uses 399717
ande 399615
crit 398244
pol@@ 398226
nom@@ 397893
pour@@ 397786
Tr@@ 397601
thé@@ 397489
ep@@ 397385
cô@@ 397320
tou@@ 396905
vie 396021
éc@@ 395673
cri@@ 395663
w@@ 393725
bat@@ 393413
guerre 392839
quatre 392829
près 392666
soit 392075
nationale 391091
ches 390783
bas@@ 390020
ennes 389732
sig@@ 389558
aut@@ 389507
ais@@ 389281
enc@@ 388212
16@@ 388001
prot@@ 387885
ences 387571
C&apos; 387186
ran@@ 386953
ra 386768
étu@@ 386626
encore 386555
dr@@ 386494
anci@@ 386242
ia 385566
aut 384371
iti@@ 384230
ner 384170
do@@ 383813
app@@ 383689
nouveau 383676
face 382341
aur@@ 381722
dic@@ 381689
istes 381577
ing 380590
personn@@ 380198
œ@@ 379360
p 379264
arti@@ 379207
h 379060
Son 379001
fonc@@ 378812
diff@@ 378403
embre 378356
voir 375237
val@@ 374738
direc@@ 374330
ym@@ 374135
général 373547
ligne 373260
tous 372633
prend 372150
bre 372121
vic@@ 371777
ali@@ 371058
politique 370980
mission 369858
isti@@ 369214
constitu@@ 368598
entes 367321
amb@@ 367115
are 366647
représent@@ 366313
Gr@@ 366137
série 365512
Gu@@ 364664
ables 364332
fer@@ 363967
emp@@ 363761
ix 363006
si 362169
fé@@ 360640
fond@@ 360558
gar@@ 360351
fon@@ 360076
C 359959
neur 359552
ins@@ 359504
tient 357963
ret@@ 356231
ens@@ 354297
lu@@ 354035
tour@@ 354034
dom@@ 353948
hom@@ 353941
début 353685
Ro@@ 353580
isse 353091
ous 352931
ut 352884
ell@@ 351692
end 351655
érieur 351498
située 351249
uni@@ 350120
ologie 349685
celle 349644
Unis 348641
soci@@ 348583
Di@@ 348221
ouver@@ 347760
uc@@ 347538
constru@@ 347335
mor@@ 347180
7 346532
isation 345263
rou@@ 344752
gl@@ 344741
anti@@ 344586
fil@@ 344539
État 344067
emb@@ 343937
dro@@ 343455
ing@@ 343230
Pl@@ 342886
cro@@ 342684
ton 341963
ature 341959
mis@@ 341679
ein@@ 341499
éch@@ 341431
nombre 341296
tis@@ 340727
Co@@ 339894
isi@@ 339763
ution 339663
En@@ 339500
esp@@ 338837
Am@@ 338466
ist@@ 338136
Th@@ 337983
one 337963
pose 337544
ues 337054
tard 336456
celui 336329
fils 336079
française 335676
class@@ 335588
ov@@ 335478
serv@@ 335243
atique 334646
liv@@ 334620
grande 334497
abor@@ 333574
derni@@ 333509
8 333157
aines 333152
éli@@ 332614
ites 331883
eng@@ 330823
compr@@ 330226
ath@@ 330062
club 329679
ver 328144
donc 327153
selon 327035
.@@ 326159
village 325407
cel@@ 325239
St@@ 324772
Cor@@ 324144
ay@@ 323675
voy@@ 323559
champi@@ 323410
Pour 323347
tel@@ 323239
abl@@ 323184
me@@ 322855
particu@@ 322386
mis 322382
ouest 322287
histori@@ 321975
On 321855
mi 321598
appel@@ 321447
mag@@ 320661
album 320178
équi@@ 320172
élé@@ 319670
histoire 319105
sp@@ 318833
let@@ 318360
m 317842
be 317433
développ@@ 317394
actu@@ 315588
consid@@ 315480
obj@@ 315474
comm@@ 315022
nouvelle 314588
exp@@ 314560
dit 314425
ate 314335
marqu@@ 314219
prise 314155
met@@ 313784
ges 313256
pres@@ 312898
offici@@ 312895
ici@@ 312709
éré@@ 312256
mal@@ 312196
présente 311990
pe@@ 311641
ast@@ 311088
erre 311034
3@@ 310843
tor@@ 310503
lé@@ 310123
ori@@ 309804
oy@@ 309764
Dé@@ 309752
onde 309685
Histoire 309578
ensuite 309511
quelques 309409
cription 309110
spéci@@ 309012
tif 308989
ologi@@ 308759
person@@ 308750
pas@@ 308492
ède 308430
ay 308423
département 308069
centre 307605
ong@@ 306658
sep@@ 306136
compte 305902
père 305731
ands 305675
ti 305032
15@@ 305017
deven@@ 304950
allem@@ 304788
hum@@ 304376
activ@@ 304330
ps 303885
trou@@ 303740
préc@@ 303626
ble 303603
c&apos; 303593
président 303580
éti@@ 303578
époque 303305
ète 303143
tem@@ 303011
deuxième 301646
cin@@ 301459
évol@@ 301288
action 301115
uv@@ 300412
Ma@@ 300285
étaient 300181
journ@@ 300079
ban@@ 299659
ard@@ 299649
cole 298531
ayant 296967
ateurs 296771
milit@@ 296651
lég@@ 296304
dernier 295858
cur@@ 295729
population 295018
conf@@ 294835
fér@@ 294786
inv@@ 294340
universit@@ 294234
particip@@ 294156
situé 293887
aille 293817
fl@@ 293420
administr@@ 292995
vient 292894
Le@@ 292124
lier 292053
étant 291554
èrement 291144
période 291047
ole 290997
2010 290762
Ang@@ 290115
ce@@ 289847
bar@@ 289585
rég@@ 288837
mot@@ 287978
èrent 286168
environ 286049
cir@@ 285987
ak@@ 285795
publique 285549
Je@@ 285499
étr@@ 284982
pri@@ 284705
semb@@ 284347
ision 284121
Pr@@ 284050
conse@@ 283894
az@@ 282871
succ@@ 282789
g 282086
roi 281572
entre@@ 281269
art 280925
9 280775
permet@@ 280615
église 279439
hu@@ 279150
sions 279029
nombreux 278894
occup@@ 278407
onnat 277765
grap@@ 277404
X@@ 277319
nommé 277256
cho@@ 277158
jus@@ 276981
ze 276940
aj@@ 276281
présent@@ 276247
mois 276144
car 275965
seur 275604
tour 275524
ome 275335
od@@ 274294
sal@@ 274229
mes@@ 274037
origine 273891
sie 273767
ber@@ 273371
amp 273325
déf@@ 273322
aise 273099
don@@ 272916
of 272538
ma 271567
Ils 271541
ai@@ 271534
4@@ 271087
he@@ 270930
épo@@ 270803
gouvernement 270606
ération 270262
Ces 270261
ai 270194
cep@@ 269992
am 269928
met 269785
enn@@ 269140
aff@@ 268580
europé@@ 268534
aît 268374
ind@@ 268158
Europe 267751
I 267472
jour 267347
ni 266990
tains 266981
Pierre 266681
quement 266632
dition 266594
olog@@ 266512
chez 266238
êt 265379
bâ@@ 265241
seau 264630
sit@@ 264573
espèce 264215
nav@@ 263021
adi@@ 262957
10 262830
service 262623
ennent 262540
concer@@ 262502
meil@@ 262197
ensemble 261961
prim@@ 261626
aume 261433
médi@@ 261177
Au@@ 260875
Col@@ 260834
oire 260778
cinq 260612
ta 260424
auté 259929
mer 259903
tur@@ 259325
homme 259269
ge@@ 258748
organis@@ 258458
era 258327
vari@@ 258201
ore 257676
off@@ 257388
loi 257155
til@@ 257068
ones 256565
fac@@ 256539
régi@@ 256241
The 256071
chef 255745
lin@@ 255377
cal@@ 255327
ves 255063
eaux 255058
ative 254934
Ac@@ 254899
F 254495
der 254489
but@@ 254414
ètres 254379
istre 254011
Or@@ 253924
permet 253895
communes 253763
not@@ 253731
commer@@ 253642
ailleurs 253406
afin 253077
Lo@@ 252975
sy@@ 252818
lev@@ 252321
dur@@ 252193
ense@@ 251987
ancien 251647
économ@@ 251498
Louis 251408
arm@@ 251243
oir 250889
ule 250884
ote 250838
site 250295
2018 250262
améric@@ 250185
aus@@ 250139
ances 249933
20 249752
ax@@ 249471
lang@@ 249131
ed 248802
âteau 248687
mas@@ 248535
aliste 248360
arch@@ 248144
pou@@ 247448
Bar@@ 247377
hui 247242
connu 247235
natur@@ 246989
tex@@ 246869
souvent 246531
cad@@ 246174
ane 246172
équ@@ 246022
centr@@ 245937
log@@ 245871
èle 245719
reste 245314
carrière 245100
na 245095
dist@@ 245002
quit@@ 244577
Mo@@ 244319
indi@@ 244200
née 244171
sim@@ 244068
sour@@ 244035
ich@@ 243989
durant 243879
cas 243853
édi@@ 243697
capit@@ 243535
jeu 242787
effet 242771
sem@@ 242524
tan@@ 242417
èg@@ 242245
armée 242167
autor@@ 241884
Ad@@ 241722
inté@@ 241717
études 241282
cat@@ 240378
Nord 240365
membre 240352
identi@@ 240227
coup 239999
ôt 239932
niveau 239617
vers@@ 239343
ah@@ 239035
recher@@ 238956
S 238802
dér@@ 238786
tement 238613
Des@@ 238589
imp@@ 238467
public@@ 238259
char@@ 238209
termin@@ 237736
enf@@ 237561
ler 237459
rière 237378
ple 237231
doit 237205
société 237151
ler@@ 236679
ient 236497
Bel@@ 236439
bil@@ 236302
chang@@ 236049
rue 235692
lig@@ 235497
pein@@ 235318
ib@@ 235136
inf@@ 234693
5@@ 234056
For@@ 233923
rôle 233762
compl@@ 233442
ier 233416
national 233264
Po@@ 233245
P 233215
membres 233080
èmes 233077
gé@@ 232961
be@@ 232229
sub@@ 231650
ève 231543
jours 231243
El@@ 230930
if@@ 230855
pon@@ 230680
Su@@ 230249
peuvent 230205
Sh@@ 230174
sera 230168
lit@@ 230018
américain 229969
habitants 229830
anim@@ 229784
ographie 229074
to 228806
tourn@@ 228684
projet 228620
proc@@ 228547
Allem@@ 228385
ol 227836
chi@@ 227796
Re@@ 227728
mise 227603
chaque 227266
amp@@ 227079
E 226374
Mal@@ 226211
va 226175
ond 226045
ini 226032
D 226018
tim@@ 225946
grou@@ 225899
ari@@ 224916
eb@@ 224909
hie 224821
èse 224332
milli@@ 224319
caractér@@ 223954
œuvre 223872
lors@@ 223792
14@@ 223774
Cou@@ 223353
Sa 223353
put@@ 222852
eur@@ 222832
quel 222487
âce 222477
the 222288
Selon 222262
iques 222133
mondiale 221963
point 221890
popul@@ 221767
bles 221695
ame 221417
territoire 221386
gique 221370
2@@ 221179
eure 221099
hau@@ 221006
cher 220860
construction 220366
troisième 219970
ul 219851
ition 219831
sti@@ 219738
isant 219688
2011 219464
da 219442
mari@@ 219364
conserv@@ 219095
pend@@ 219082
bor@@ 219037
système 218901
nu@@ 218820
ail@@ 218748
formation 218477
premiers 218452
Ber@@ 217816
Pe@@ 217653
rement 217635
land@@ 217510
Par 217495
dès 217464
ina 217445
finale 217054
atta@@ 216942
exemple 216765
sein 216702
toujours 216652
chap@@ 216602
travail 216306
Sud 216214
Mais 216126
angla@@ 216040
1@@ 216028
base 215781
2000 215583
Ser@@ 214745
aissance 214701
poste 213968
droit 213864
commen@@ 213806
oph@@ 213610
2014 213549
bourg 213377
13@@ 213318
_ 213266
match 213171
sin@@ 213101
yp@@ 212937
command@@ 212924
aci@@ 212647
tin 212530
viv@@ 212462
N 212384
nombre@@ 212350
ectu@@ 211999
prises 211791
toute 211785
découver@@ 211739
oth@@ 211448
erie 211307
ac 211251
obten@@ 211139
aujour@@ 210839
éré 210833
ect@@ 210608
Charles 210579
man 210308
arg@@ 210237
M 209905
Ver@@ 209782
chev@@ 209548
ch 209530
agric@@ 209393
ois 209254
enfants 209163
Guerre 209028
production 208984
mod@@ 208905
tom@@ 208699
inst@@ 207791
w 207760
lie 207128
R 206783
nor@@ 206645
quelle 206640
but 206506
cet 206378
rest@@ 206076
T 205809
mili@@ 205761
Li@@ 205732
15 205512
2015 205470
plu@@ 205399
2009 205389
itali@@ 204752
long 204347
coul@@ 204259
Des 203197
ment@@ 202905
tures 202548
situ@@ 202533
ot 202217
camp@@ 202172
sign@@ 202058
nouv@@ 201741
artic@@ 201370
ly@@ 201075
│ 200991
Lu@@ 200935
iller 200917
II 200753
six 200504
der@@ 200468
arri@@ 200175
explo@@ 199464
Bi@@ 199341
positi@@ 199314
B 199305
cap@@ 199171
As@@ 199112
titu@@ 199080
New 198906
2008 198574
6@@ 198525
tel 198334
tés 197716
joint 197626
auc@@ 197551
fs 197488
toire 197279
co 197180
britanni@@ 197057
Mor@@ 196813
version 196621
fran@@ 196377
isons 196290
lam@@ 196263
hy@@ 196241
str@@ 195989
aill@@ 195915
ano 195865
comb@@ 195380
fur@@ 195341
b 195275
som@@ 195263
2012 195092
Be@@ 194827
ana 194729
cant@@ 194653
tér@@ 194254
type 193675
progr@@ 193507
tent 193286
Esp@@ 193199
nov@@ 193108
tiv@@ 192945
Grand 192910
duc@@ 192810
fe@@ 192693
struc@@ 192577
xe 192552
ime 192312
out 192283
tab@@ 192279
rier 192263
professi@@ 192237
ad 192146
priv@@ 192010
province 191963
mer@@ 191538
points 191406
2013 191276
tain@@ 191253
ports 190835
fir@@ 190719
per 190641
march@@ 190582
bou@@ 190479
contin@@ 190354
mani@@ 190321
partici@@ 190240
eil 189445
long@@ 189294
ed@@ 188995
stat@@ 188987
maj@@ 188760
ug@@ 188745
propri@@ 188558
habit@@ 188100
roy@@ 188007
Marie 187953
util@@ 187652
2020 187454
tradi@@ 187342
Mich@@ 187223
ha@@ 187141
pis@@ 187108
import@@ 187021
yen@@ 186920
cle 186696
12 186656
bres 186472
Mont@@ 186324
ép@@ 185986
lib@@ 185815
ides 185548
– 185417
oni@@ 185256
qui@@ 184785
jeun@@ 184758
qué 184282
Af@@ 183983
ub@@ 183765
hô@@ 183645
public 182750
Ou@@ 182618
dis 182495
vil@@ 182227
Ex@@ 182161
onc@@ 182116
tif@@ 182105
To@@ 181892
ço@@ 181836
Char@@ 181827
lie@@ 181803
7@@ 181712
irs 181015
fic@@ 180765
Sch@@ 180344
v 180237
st 180159
relig@@ 179966
fication 179848
fort 179801
yr@@ 179673
vid@@ 179509
Se@@ 179176
bu@@ 179018
vement 178911
di 178773
observ@@ 178771
Paul 178715
dirig@@ 178687
ises 178655
2016 178631
archit@@ 178403
ide 178220
techni@@ 178001
mont@@ 177850
Mé@@ 177723
Sal@@ 177687
sort 177561
eg@@ 177471
2007 177400
2017 177249
initi@@ 176871
oles 176616
esc@@ 176557
route 176409
nation@@ 176370
tien 175826
Per@@ 175732
ste 175693
prom@@ 175454
formula 175383
Man@@ 175288
9@@ 175017
once 174933
12@@ 174838
patr@@ 174515
2006 174453
bel@@ 174157
arriv@@ 173889
François 173879
ka 173803
V 173168
Her@@ 172676
associ@@ 172411
football 172402
Cl@@ 172400
uss@@ 172364
Vi@@ 172265
up@@ 172173
go@@ 172008
hon@@ 171809
Pro@@ 171506
illes 171074
zone 170610
blan@@ 170597
profes@@ 170596
plan 170378
son@@ 170364
vier 170323
install@@ 170098
time 169893
1990 169852
ecture 169727
eint 169308
ony@@ 169261
30 168932
temp@@ 168887
clim@@ 168641
plic@@ 168479
pal@@ 168396
rev@@ 168189
origin@@ 168174
Pal@@ 167914
fo@@ 167717
fron@@ 167626
sh@@ 167609
Val@@ 167449
lat@@ 167095
Ital@@ 167012
bal@@ 166998
rant 166796
ase 166649
our@@ 166586
chem@@ 165769
iter 165696
Sec@@ 165550
act@@ 165539
8@@ 165527
uel 165088
quali@@ 165003
exist@@ 164925
part@@ 164918
extr@@ 164648
direction 164598
ok@@ 164581
cher@@ 164334
main@@ 164048
syn@@ 163326
lande 163257
date 163230
rique 162806
Nor@@ 162746
John 162611
10@@ 162331
abil@@ 162197
jam@@ 162158
lement 162060
enant 162000
éta@@ 161970
sus 161864
num@@ 161853
ick 161545
orie 160955
phy@@ 160755
Ren@@ 160677
do 160548
ley 160199
espè@@ 160004
yl@@ 159997
aug@@ 159963
Ab@@ 159665
aiss@@ 159587
11 159413
pre 159086
ustr@@ 158948
gt 158774
ang 158509
mine 158380
parti 158117
14 158060
0,@@ 157653
Lor@@ 157044
charg@@ 157005
ident 156810
16 156693
division 156681
tive 156619
lit 156535
prin@@ 156424
2005 156390
champ@@ 156193
beau@@ 156039
Ir@@ 155981
ible 155820
registr@@ 155748
2019 155706
liste 155370
condu@@ 155319
ë@@ 155055
influ@@ 154771
atif 154689
territ@@ 154602
ental 154572
corresp@@ 154429
atr@@ 154170
Sur 154151
titul@@ 153963
Rou@@ 153867
ud@@ 153783
18 153374
0 153049
ho@@ 152991
jo@@ 152929
phot@@ 152755
ik@@ 152732
œuv@@ 152497
tie 152458
ense 152320
Rus@@ 152029
tic@@ 151911
sist@@ 151382
tot@@ 151358
ographi@@ 151240
occas@@ 151120
aye 151080
sons 151042
Lig@@ 151012
Conse@@ 150954
ref@@ 150885
rus@@ 150769
York 150480
suc@@ 150364
alit@@ 150330
ôle 150244
erg@@ 149641
éo 149572
Cr@@ 149570
çu 149570
Union 149468
neu@@ 149449
Jacques 149441
mom@@ 149382
second 149129
mati@@ 148691
international 148630
sci@@ 148447
fu@@ 147832
Universit@@ 147534
limit@@ 147386
ef@@ 147177
yn@@ 146830
autom@@ 146537
classi@@ 146513
13 146486
cont@@ 146379
viol@@ 146320
aide 146229
Cer@@ 145802
atri@@ 145694
by 145611
fer 145574
premi@@ 145474
Is@@ 145356
lon@@ 145298
17 145182
19 145139
25 145050
reg@@ 144957
ont@@ 144890
50 144869
2004 144770
So@@ 144680
sav@@ 144621
ric@@ 144591
Gar@@ 144555
pil@@ 144352
existe 144267
ien 144076
... 143906
,@@ 143760
monum@@ 143662
pap@@ 143400
aison 143109
atives 142729
Av@@ 142587
Canada 142533
moder@@ 142398
Tou@@ 142178
bur@@ 142122
alli@@ 141941
Champi@@ 141812
Sp@@ 141803
organ@@ 141739
Dur@@ 141592
urt 141587
pay@@ 141010
pan@@ 140812
Mus@@ 140780
lt 140703
cit@@ 140697
Bor@@ 140676
iles 140591
Tro@@ 140450
Cas@@ 140368
1999 140177
iz@@ 140147
prof@@ 140079
lem@@ 140059
style 139611
ules 138935
cli@@ 138835
mé 138779
eli@@ 138759
gal@@ 138682
Oc@@ 138631
cause 138614
cre@@ 138429
Str@@ 137899
yc@@ 137869
ates 137835
suff@@ 137693
iment 137548
III 137095
da@@ 137054
Ne@@ 137053
ó@@ 136807
envir@@ 136655
amm@@ 136640
Gi@@ 136506
bert 136478
Gal@@ 136368
O 136190
là 136055
appro@@ 135808
dec@@ 135452
Histori@@ 135402
eti@@ 135366
nou@@ 135227
ange 135214
tar@@ 135076
G 134894
probl@@ 134789
pression 134741
clas@@ 134301
politi@@ 134301
ades 134093
cy@@ 134064
bec 133947
docum@@ 133651
lo 133561
rati@@ 133275
pen@@ 133255
ême 133020
dispar@@ 133001
lim@@ 132976
chs 132875
Parti 132838
land 132408
Sain@@ 132150
gén@@ 131971
adap@@ 131810
ez 131777
aly@@ 131731
les@@ 131488
Fr@@ 131382
Me@@ 131191
ays 131128
tir@@ 130944
40 130864
Nic@@ 130671
clu@@ 130625
destin@@ 130492
mont 130472
Roy@@ 130390
sen@@ 130366
station 130350
Har@@ 129934
ic 129912
avi@@ 129896
athol@@ 129679
rain 129519
péri@@ 129509
prob@@ 129494
pens@@ 129442
idi@@ 129280
He@@ 129268
rac@@ 129161
2002 129152
Cal@@ 129087
rit@@ 129042
24 128915
candid@@ 128809
concep@@ 128802
Phili@@ 128690
bre@@ 128583
important 128466
tier 128109
oug@@ 127960
esti@@ 127920
1998 127821
jan@@ 127425
uti@@ 127214
respons@@ 127038
otte 126913
ples 126504
har@@ 126483
serve 126417
inform@@ 126326
ger 126213
possible 126044
ple@@ 126020
tru@@ 125915
organisation 125833
cultur@@ 125805
vit@@ 125733
colon@@ 125534
nant 125447
2003 125204
loy@@ 125174
Robert 125155
principal 125074
sus@@ 124994
1980 124737
ey 124729
Mag@@ 124665
Tour 124645
igu@@ 124644
tre@@ 124423
Henri 124371
ode 123815
bour@@ 123805
2001 123783
185@@ 123782
&#91; 123773
Fin@@ 123681
ino 123596
aband@@ 123538
tho@@ 123466
int 123431
cas@@ 123417
-@@ 123100
&#93; 123062
Tur@@ 123040
! 122873
° 122780
ativ@@ 122746
scienti@@ 122683
ouvent 122631
H 122353
ques@@ 122184
ave@@ 121998
Pu@@ 121968
mu@@ 121715
aque 121259
grandes 121017
= 120704
main 120597
Joseph 120543
retr@@ 120425
io 120422
ah 120254
cip@@ 120245
itu@@ 120201
court 120090
plan@@ 120008
vice 119964
municipal@@ 119711
course 119611
abri@@ 119366
insi 119308
Por@@ 119178
municip@@ 119108
Londres 119008
ong 119005
em 118941
ica 118700
21 118699
ty@@ 118649
urn@@ 118405
pul@@ 118344
1970 118206
Japon 118140
industri@@ 118120
culture 117991
all 117689
japon@@ 117631
ich 117511
ges@@ 117423
vention 117078
ski 117014
im 117006
fle@@ 116683
vu 116580
ume 116577
tent@@ 116568
occ@@ 116404
orient@@ 116389
cer 116303
iche 115951
2021 115824
ext@@ 115701
hor@@ 115597
ak 115475
program@@ 115469
district 115446
id 115433
Geor@@ 115277
bli@@ 115239
dens@@ 115091
bon 114977
Bou@@ 114774
restaur@@ 114747
U 114654
produc@@ 114650
anger 114589
thi@@ 114464
formes 114412
importante 114384
2,@@ 114368
air@@ 114286
Bur@@ 114193
domin@@ 114098
propos@@ 114044
Fl@@ 113773
vir@@ 113735
ager 113718
services 113637
urg@@ 113587
Q@@ 113584
1950 113356
Liste 113341
nie 113335
Fran@@ 113302
xim@@ 113254
adop@@ 113216
Cro@@ 112930
kilom@@ 112930
quel@@ 112765
tran@@ 112742
fus@@ 112632
Min@@ 112623
San 112597
Bru@@ 112529
23 112502
Mat@@ 112476
mp@@ 112447
Empire 112340
22 112336
tir 112231
films 112178
á@@ 112166
és@@ 112007
institu@@ 111990
asse 111922
itation 111873
ppe 111757
Grande 111656
compar@@ 111463
ys@@ 111176
Ger@@ 111123
vie@@ 111105
Soci@@ 111040
modi@@ 111006
Si 110957
rie 110942
aw@@ 110668
pel@@ 110644
aqu@@ 110643
berg 110626
isl@@ 110521
estim@@ 110135
Hau@@ 110022
desc@@ 110020
oh@@ 109802
Ph@@ 109616
Mos@@ 109602
Jo@@ 109589
bes 109570
ya 109432
fut@@ 109376
doc@@ 109220
he 109187
Pol@@ 109134
mb@@ 109123
su 109071
Go@@ 109037
Ste@@ 109036
aud 108924
1,@@ 108844
179@@ 108601
pa@@ 108555
ami 108430
ow@@ 108340
érie 108191
Hol@@ 108179
tain 108172
favor@@ 107500
Premi@@ 107183
sch@@ 107169
kh@@ 106978
tron@@ 106647
Mad@@ 106644
Pi@@ 106518
forces 106453
adém@@ 106406
proj@@ 106379
sociation 106353
ingt 106191
Si@@ 106145
total 106040
dével@@ 105935
conten@@ 105702
eine 105656
bs 105547
atur@@ 105430
tribu@@ 105280
culp@@ 105204
Mil@@ 105175
mand@@ 105054
li 105036
rent 104968
Em@@ 104898
Ben@@ 104807
Ri@@ 104708
Arm@@ 104706
Mer@@ 104640
1960 104608
alb@@ 104242
ris@@ 104201
alim@@ 104180
ell 104110
Es@@ 103855
ela 103847
fig@@ 103827
issu@@ 103705
ov 103448
FC 103220
Laur@@ 103189
terr@@ 103098
onom@@ 102865
air 102801
ige 102710
pris@@ 102689
chin@@ 102677
occu@@ 102592
inspir@@ 102583
lic@@ 102527
Du@@ 102504
large 102274
pot@@ 102265
Andr@@ 101963
Rh@@ 101950
spor@@ 101925
ama 101708
60 101652
? 101652
del@@ 101588
etc. 101483
ki 101437
Prix 101414
Can@@ 101410
agement 101231
jug@@ 101195
… 101166
oppos@@ 101107
— 100971
jur@@ 100948
No@@ 100814
1991 100755
signi@@ 100623
Not@@ 100567
fes@@ 100500
Ros@@ 100372
usi@@ 100091
Franç@@ 100026
dat@@ 99996
condi@@ 99992
act 99981
ey@@ 99963
usieurs 99961
aller 99916
26 99868
ami@@ 99840
100 99800
idae 99757
Dr@@ 99706
Fo@@ 99686
riv@@ 99529
idence 99419
Chr@@ 99388
verse 99218
sol 99177
philos@@ 99034
Bal@@ 99033
ern@@ 98987
ute 98929
Rom@@ 98867
Clau@@ 98772
anne 98623
continu@@ 98382
Syn@@ 98149
th 98103
sac@@ 98099
ara 98089
Fre@@ 98067
David 98049
out@@ 98038
Mc@@ 97981
Ed@@ 97977
bas 97948
ards 97906
preu@@ 97849
Centre 97475
X 97355
Cam@@ 97330
ital 97277
icul@@ 96828
lab@@ 96743
1997 96655
astr@@ 96631
dan@@ 96615
Maur@@ 96541
184@@ 96358
ices 96284
dam@@ 96279
force 95961
80 95822
Mari@@ 95635
ident@@ 95555
1995 95533
acces@@ 95515
Gen@@ 95354
ï 95331
1996 95171
Bern@@ 94980
tro 94882
27 94832
trac@@ 94794
rir 94729
Lou@@ 94582
28 94577
ger@@ 94568
alog@@ 94540
prop@@ 94528
Del@@ 94495
yen 94134
libre 94118
ros@@ 93990
artist@@ 93864
Alexand@@ 93781
ro 93677
nier 93592
Sa@@ 93263
manif@@ 93208
Martin 93048
Ju@@ 93024
crit@@ 92943
K 92812
resp@@ 92787
bes@@ 92727
asti@@ 92658
At@@ 92517
Bas@@ 92501
section 92348
Austr@@ 92261
Mas@@ 92177
odes 92103
financi@@ 91980
Sar@@ 91939
multi@@ 91926
ata 91746
000 91691
180@@ 91415
az 91351
Sol@@ 91216
omb@@ 91125
tra 91020
1992 90911
0@@ 90879
rich@@ 90822
tice 90723
ider 90714
ars 90646
ordin@@ 90636
cell@@ 90602
plant@@ 90547
plat@@ 90452
techn@@ 90225
vin@@ 90168
3,@@ 90108
+ 89852
Bl@@ 89791
1994 89759
cop@@ 89562
empl@@ 89468
ingu@@ 89443
den 89423
Beau@@ 89177
grav@@ 89070
yon 89030
emper@@ 88901
bus 88859
tor 88810
Kar@@ 88696
Tor@@ 88432
Sou@@ 88370
Vo@@ 88305
ave 87991
Vic@@ 87930
her@@ 87916
hab@@ 87762
ret 87640
Sy@@ 87614
adu@@ 87461
change 87260
yth@@ 87258
van 87201
tal@@ 87030
Wil@@ 86926
1981 86873
ira 86873
km 86685
Patr@@ 86664
dipl@@ 86488
dir@@ 86390
Thomas 86136
Er@@ 86111
figur@@ 86061
Commun@@ 85963
caract@@ 85659
cos@@ 85503
olas 85400
capac@@ 85385
ks 85352
Ur@@ 85308
ea 85253
no 85228
1993 85168
ca 85156
onal 84940
om 84921
asp@@ 84919
fici@@ 84902
ek@@ 84869
bri@@ 84821
mol@@ 84723
ans@@ 84710
Comp@@ 84644
90 84643
sil@@ 84480
ly 84446
ena 84404
ect 84268
William 84223
sive 84189
oi 84167
proxim@@ 84050
Fi@@ 83925
Juli@@ 83906
Club 83873
excep@@ 83870
29 83865
contribu@@ 83842
larg@@ 83712
distribu@@ 83683
pre@@ 83565
atin 83376
Mac@@ 83217
uz@@ 83172
za 83127
Jus@@ 82984
vel@@ 82837
ball 82793
aces 82681
police 82656
ords 82593
typ@@ 82578
ici 82574
ani 82556
visi@@ 82530
31 82473
cial 82448
1975 82339
Ag@@ 82306
ek 82297
alg@@ 82268
mal 82156
dol@@ 82141
1988 82140
ids 82084
bran@@ 82015
Vil@@ 81965
illa 81896
Bro@@ 81868
eil@@ 81832
comple@@ 81758
cla@@ 81688
recu@@ 81688
sexu@@ 81631
1971 81624
xième 81604
aves 81554
zi@@ 81493
Institut 81371
Ty@@ 81355
Tri@@ 80935
four@@ 80909
union 80864
auto@@ 80853
mit@@ 80786
ap 80741
Ter@@ 80531
ault 80408
tion@@ 80396
70 80340
Ho@@ 80325
urg 80305
35 80227
syst@@ 80187
Kr@@ 79951
ulation 79945
nomin@@ 79937
ape 79670
ford 79526
raine 79504
IV 79478
ach 79406
dial 79395
uk@@ 79310
Christ@@ 79253
major 79093
Fer@@ 78958
James 78958
del 78893
von 78759
ł@@ 78729
abr@@ 78639
Entre 78552
principales 78529
George 78410
azine 78399
20@@ 78336
expres@@ 78238
Inter@@ 78210
atis@@ 78204
ache 78177
q 77929
Sam@@ 77914
we@@ 77661
via 77617
fen@@ 77606
uf@@ 77406
lis 77388
1989 77336
Franc@@ 77250
mil@@ 77162
contempor@@ 77014
ala 76827
este 76692
ari 76663
Sav@@ 76576
oblig@@ 76536
lec@@ 76412
ums 76291
Den@@ 76160
instrum@@ 76076
uch@@ 76070
inal 75876
vas@@ 75857
Cap@@ 75853
adr@@ 75806
wi@@ 75770
Cel@@ 75610
conv@@ 75599
ron@@ 75513
veau 75449
minut@@ 75362
vill@@ 75335
Premier 75295
rup@@ 75285
div@@ 75280
disput@@ 75222
ke 75221
Bri@@ 75150
amment 75117
pp@@ 75062
mir@@ 75055
former 75049
assist@@ 75007
ker 74868
mann 74749
ses@@ 74699
eh@@ 74616
ani@@ 74546
bul@@ 74506
alle 74237
versi@@ 74150
times 74127
opsis 74001
uy@@ 73957
inaug@@ 73778
ura 73696
ui 73559
liber@@ 73513
ort 73498
cent@@ 73490
phe 73407
ita 73367
ko 73259
Pas@@ 73223
ept@@ 73187
Hu@@ 73043
amo@@ 72884
conc@@ 72868
Berlin 72831
pat@@ 72816
cab@@ 72810
32 72735
ick@@ 72691
individ@@ 72690
ague 72668
mig@@ 72638
ario 72600
ex 72574
We@@ 72523
enci@@ 72426
abe 72412
Bat@@ 72405
ser 72376
dig@@ 72370
mina 72364
vot@@ 72303
je 72123
quot@@ 72062
clo@@ 72058
ares 71998
Richard 71959
performan@@ 71820
las 71800
ble@@ 71798
ye@@ 71791
oto 71661
Lib@@ 71541
Ni@@ 71530
bun@@ 71454
lot 71435
Ori@@ 71314
gre@@ 71282
ae 71252
mun@@ 71212
1986 71134
Mis@@ 71056
quar@@ 71054
mond 70929
strat@@ 70578
flu@@ 70566
Bon@@ 70525
Association 70434
Blan@@ 70407
super@@ 70172
forc@@ 70086
spec@@ 70057
ds 70021
nam@@ 69994
ectiv@@ 69847
ao 69772
aç@@ 69716
crip@@ 69709
social 69662
intro@@ 69597
Na@@ 69595
Wal@@ 69534
ministr@@ 69415
lov@@ 69401
za@@ 69309
anni@@ 69226
Bu@@ 69198
agu@@ 69197
curr@@ 69121
Mi@@ 69119
Ét@@ 69010
bus@@ 68957
Hy@@ 68954
radi@@ 68815
Dan@@ 68783
onales 68655
err@@ 68485
ha 68466
1984 68426
assi@@ 68398
sel@@ 68260
4,@@ 68245
Kh@@ 68136
í@@ 67962
Cat@@ 67943
record 67941
way 67939
Tar@@ 67843
const@@ 67825
Trans@@ 67802
ist 67765
concentr@@ 67764
ida 67644
Hor@@ 67613
br 67596
hi 67530
Sur@@ 67450
ox@@ 67449
1987 67436
Cul@@ 67289
mos@@ 67102
1985 66881
ockey 66875
central 66874
don 66810
caus@@ 66806
ous@@ 66800
Mex@@ 66758
Aut@@ 66749
lers 66747
ry 66702
pos 66690
33 66611
Ham@@ 66540
1930 66523
tend@@ 66521
Augus@@ 66514
1968 66383
Gir@@ 66266
j 66247
ça 66106
ill 66042
Seine 65973
lip@@ 65735
36 65678
franç@@ 65659
conqu@@ 65638
ico 65592
dor@@ 65568
inten@@ 65567
single 65542
1945 65393
scor@@ 65393
Ann@@ 65377
ki@@ 65312
ney 65310
ty 65006
Te@@ 65002
1940 64854
1982 64726
inn@@ 64707
prov@@ 64686
Gil@@ 64493
Califor@@ 64484
ots 64392
Sim@@ 64357
eu@@ 64341
studio 64305
National 64242
tig@@ 64122
famili@@ 64038
Do@@ 64037
Hom@@ 63986
Dou@@ 63880
ok 63787
arc@@ 63640
45 63623
Loc@@ 63558
famil@@ 63468
ja 63410
Royal 63356
200 63354
org@@ 63289
Ap@@ 63285
Â@@ 63256
Ban@@ 63193
Nav@@ 63151
und@@ 63055
gouvern@@ 63039
Anne 62993
tric@@ 62950
bon@@ 62885
mau@@ 62881
1983 62865
─ 62831
erc@@ 62794
ō 62629
anti 62615
ize 62534
Sil@@ 62523
od 62432
Alg@@ 62279
superficie 62269
1972 62242
ez@@ 62225
Tour@@ 62174
ust@@ 62153
spir@@ 62151
ett@@ 61939
fab@@ 61855
na@@ 61845
sych@@ 61752
Bre@@ 61678
dia 61671
El 61653
radio 61490
vin 61397
princi@@ 61370
Os@@ 61355
M. 61344
ts@@ 61335
Albert 61281
ola 61230
ton@@ 61221
und 61216
Un@@ 61196
J 61144
Pan@@ 61120
La@@ 61115
1973 61078
ster@@ 61033
cam@@ 60967
Op@@ 60965
chr@@ 60874
tin@@ 60837
apo@@ 60794
construc@@ 60705
34 60702
odi@@ 60678
mach@@ 60648
Vol@@ 60611
information 60605
guit@@ 60495
til 60487
38 60463
sil 60437
1976 60429
see 60397
CA@@ 60238
1979 60211
nat@@ 60166
imi@@ 60152
Î@@ 60150
voc@@ 60121
ko@@ 60103
1920 60081
Mel@@ 60072
1977 60065
ky 60063
ri 60063
ary 59999
1974 59987
importantes 59967
nati@@ 59961
Thi@@ 59931
enter 59806
ber 59777
als 59770
ther@@ 59743
ada 59722
37 59688
fol@@ 59664
side 59663
inclu@@ 59635
ny 59450
5,@@ 59420
clus@@ 59381
promot@@ 59356
ba 59352
Ven@@ 59258
Dev@@ 59120
1978 59061
Jan@@ 59057
propor@@ 59024
ier@@ 59007
Gre@@ 59004
Bos@@ 58973
Fil@@ 58946
SS 58915
vile 58878
ack@@ 58860
Michael 58700
Festival 58631
ć 58613
bro@@ 58524
tis 58514
Rog@@ 58509
û 58496
Los 58464
q@@ 58440
75 58423
Bul@@ 58365
ora 58353
ram@@ 58285
Mur@@ 58018
art@@ 58017
blo@@ 58010
Henry 57977
Luc@@ 57934
AS@@ 57803
hal@@ 57803
Ko@@ 57762
Ca@@ 57705
ye 57702
esses 57633
C. 57608
ō@@ 57533
simil@@ 57442
stati@@ 57441
iter@@ 57370
perman@@ 57162
fre@@ 57060
trad@@ 57012
destr@@ 56861
Jac@@ 56791
6,@@ 56689
nuc@@ 56617
Cin@@ 56572
isi 56474
tun@@ 56414
1967 56376
Vill@@ 56272
andes 56229
Orig@@ 56088
alm@@ 56066
agr@@ 56047
so 56017
anth@@ 55979
erry 55560
local 55524
din@@ 55491
bit@@ 55458
ilit@@ 55253
Reg@@ 55190
tival 55053
tag@@ 54983
ali 54970
Gl@@ 54915
wa 54845
Cath@@ 54827
sk@@ 54738
ories 54658
foot@@ 54651
ings 54637
firm@@ 54579
Phil@@ 54569
Ra@@ 54546
39 54510
7,@@ 54423
Dom@@ 54410
ement@@ 54405
nos 54329
Hug@@ 54321
ima 54289
ella 54250
Var@@ 54241
1969 54080
Ge@@ 54041
Al 54039
ope 53968
š@@ 53932
mix@@ 53893
ji 53853
sible 53846
auf 53823
Ol@@ 53780
alt@@ 53777
net 53753
tol@@ 53753
ight 53654
fun@@ 53419
absol@@ 53402
Direc@@ 53376
Amér@@ 53368
Im@@ 53351
hol@@ 53286
Ba@@ 53239
bi 53187
Atlan@@ 53165
sent 53039
stein 52991
Grou@@ 52961
eth@@ 52950
NGC 52906
Hon@@ 52871
gro@@ 52776
idi 52732
ambi@@ 52703
Andre@@ 52664
ham 52594
audi@@ 52518
combin@@ 52508
Ob@@ 52502
kl@@ 52482
bot@@ 52458
Mol@@ 52444
rock 52429
ols 52411
Lim@@ 52284
On@@ 52209
1964 52175
Tun@@ 52161
sen 52155
poin@@ 52147
W 52107
1962 52030
gh@@ 52027
Daniel 52017
ket 52010
Met@@ 52004
yst@@ 51978
ster 51977
lob@@ 51923
San@@ 51922
andi@@ 51879
mut@@ 51868
mul@@ 51849
annes 51841
19@@ 51825
1944 51806
respectiv@@ 51779
conver@@ 51689
Chap@@ 51599
chi 51456
Art 51404
Oli@@ 51339
imin@@ 51331
ish@@ 51267
1965 51185
8,@@ 51156
Ti@@ 51148
ury 51136
if 51124
Ath@@ 51067
Sau@@ 51021
City 51005
pur@@ 50917
1966 50808
senti@@ 50786
Est@@ 50734
aud@@ 50680
toral 50579
Chi@@ 50505
eter 50484
Brit@@ 50408
Distribu@@ 50405
Peter 50393
umin@@ 50265
Portu@@ 50259
Dis@@ 50127
Anti@@ 50070
Ha@@ 50032
IS@@ 50022
osp@@ 50000
World 49951
Dor@@ 49920
asi@@ 49915
Ta@@ 49912
yo 49888
Ot@@ 49820
abeth 49800
lin 49763
Lam@@ 49717
itz 49677
Mir@@ 49662
Pic@@ 49657
Sor@@ 49641
Flor@@ 49635
zo 49634
Camp@@ 49594
isine 49559
ES@@ 49545
Hel@@ 49514
reti@@ 49480
ado 49442
sin 49424
verg@@ 49417
Rec@@ 49396
Ram@@ 49365
expl@@ 49325
1939 49272
Sant@@ 49259
nit@@ 49240
á 49201
tific@@ 49097
Ru@@ 49066
que@@ 48983
Maria 48960
test@@ 48910
tera 48890
sing@@ 48868
Sc@@ 48804
ics 48796
asc@@ 48791
fe 48779
Jul@@ 48701
Lang@@ 48686
Tom@@ 48685
1958 48666
bin@@ 48655
Hal@@ 48653
Don@@ 48601
Angeles 48582
dy 48555
Mah@@ 48542
of@@ 48522
Cy@@ 48505
Mot@@ 48476
iger 48471
ili 48418
tic 48376
Bol@@ 48335
AR@@ 48334
ames 48306
Ari@@ 48248
Land 48235
&#124; 48225
elli 48124
ith 48117
ä@@ 48109
Eur@@ 48096
Rob@@ 48031
1866 48026
ail 47967
ham@@ 47933
fas@@ 47889
den@@ 47888
500 47847
ys 47845
ota 47836
Lit@@ 47810
Pop@@ 47777
nis 47767
eo 47753
yer 47711
Dar@@ 47659
conom@@ 47628
Ale@@ 47608
ony 47594
89 47517
1963 47426
old 47415
atre 47395
Ferr@@ 47359
9,@@ 47328
Pon@@ 47300
ores 47265
stand@@ 47109
due 47095
Nov@@ 46890
Aus@@ 46875
lav@@ 46873
ograp@@ 46788
ze@@ 46715
55 46666
ester 46589
War@@ 46585
ters 46494
Arts 46492
ón 46481
Organ@@ 46419
IN@@ 46404
65 46375
pa 46312
sat@@ 46292
Argent@@ 46163
Mass@@ 46090
Harr@@ 46077
oni 46040
1956 46024
Bau@@ 46022
go 46001
Liv@@ 45943
var@@ 45909
1914 45869
diplom@@ 45819
May@@ 45768
Division 45735
tu 45708
48 45610
ert 45526
oll@@ 45516
64 45499
85 45468
Pa@@ 45431
Indi@@ 45399
1948 45339
gol@@ 45333
42 45281
ung 45251
International 45221
St 45213
A. 45196
Sci@@ 45159
Han@@ 45145
Dav@@ 45092
frag@@ 45091
Wo@@ 45051
1946 44998
ori 44937
aul@@ 44927
individu@@ 44887
isa 44839
Washington 44796
over 44786
Som@@ 44731
1961 44697
ö@@ 44696
Isra@@ 44664
č@@ 44657
amer@@ 44641
ack 44636
ory 44574
Gol@@ 44533
aborat@@ 44525
Mun@@ 44489
jour@@ 44471
los 44370
Records 44337
polit@@ 44264
ih@@ 44249
ff 44196
line 44107
1959 44010
tempor@@ 43929
awa 43866
Lin@@ 43864
ash@@ 43851
sum@@ 43777
mess@@ 43761
Bir@@ 43757
US 43748
ball@@ 43684
Gas@@ 43680
Pres@@ 43680
ular@@ 43667
trop@@ 43626
Cre@@ 43621
exten@@ 43620
van@@ 43569
Der@@ 43562
final 43561
ef 43505
signific@@ 43498
Van 43492
aga 43427
ical 43385
1936 43340
gal 43297
ona 43296
ato 43295
1947 43291
Rol@@ 43214
dici@@ 43153
Bib@@ 42974
José 42917
Wol@@ 42907
52 42844
Chicago 42837
och@@ 42801
Rich@@ 42742
Moh@@ 42726
Wat@@ 42684
anes 42602
opp@@ 42585
cy 42568
Air 42560
traf@@ 42558
dav@@ 42539
Ern@@ 42471
Maz@@ 42335
xi@@ 42306
front 42268
44 42235
franc@@ 42198
dan 42182
Christian 42116
istr@@ 42108
ling 42095
top@@ 42043
eld 42002
Ke@@ 41966
Res@@ 41898
1949 41810
ner@@ 41764
haus@@ 41735
Off@@ 41716
Far@@ 41712
active 41702
partic@@ 41675
1942 41661
cus@@ 41619
pin@@ 41612
Il@@ 41602
ca@@ 41590
1918 41578
Alli@@ 41575
ello 41568
ike 41556
wood 41543
Ay@@ 41530
51 41443
agon@@ 41403
mit 41346
41 41319
ess 41317
retir@@ 41311
ten 41286
ati 41258
Journ@@ 41237
ock 41229
ments 41227
oti@@ 41111
1957 41100
dam 41099
1954 41072
47 41055
orial 41041
1943 41010
Pom@@ 40999
00 40979
cal 40972
1938 40952
1955 40940
aun@@ 40927
Bay@@ 40926
ando 40908
versit@@ 40896
kin 40821
Ci@@ 40799
Vier@@ 40786
anda 40779
san@@ 40777
for 40732
yal 40727
Rev@@ 40726
ame@@ 40723
ake 40696
Santa 40673
Politi@@ 40659
oz@@ 40637
43 40602
get 40530
Domin@@ 40512
Simon 40500
1941 40438
estr@@ 40413
iro 40371
TV 40352
mac@@ 40339
anz@@ 40290
72 40115
azz 40115
Hab@@ 40077
sang 40046
the@@ 40024
Rap@@ 39972
field 39934
Rod@@ 39835
ere 39816
1952 39767
68 39720
Ord@@ 39680
syl@@ 39668
bu 39636
original 39626
rot@@ 39626
ung@@ 39619
Madrid 39540
US@@ 39492
The@@ 39483
ific@@ 39448
ck 39444
Radio 39408
56 39393
Men@@ 39351
MS 39335
1953 39298
Carol@@ 39280
Fam@@ 39279
My@@ 39268
Œ@@ 39229
2022 39222
88 39221
College 39183
yle 39169
Son@@ 39163
League 39153
atom@@ 39109
53 39079
Cur@@ 39054
dal@@ 39053
lead@@ 39019
Tok@@ 38976
ister 38962
ero 38938
ington 38891
ão 38862
25@@ 38838
enz@@ 38806
Park 38802
uri 38796
ā@@ 38762
indic@@ 38651
Ul@@ 38623
66 38504
ava 38502
yg@@ 38501
asi 38490
1937 38462
ras@@ 38428
Neu@@ 38425
AC 38413
orig@@ 38377
ties 38371
emi 38307
dez 38304
ongo 38226
46 38185
Blo@@ 38126
58 38103
63 37986
54 37971
national@@ 37950
ose 37933
transfer@@ 37910
1933 37866
ban 37838
J. 37833
49 37817
Clar@@ 37811
24@@ 37793
Gran@@ 37785
Sto@@ 37636
RA@@ 37630
eds 37617
Math@@ 37596
1919 37590
62 37589
lis@@ 37520
Constitu@@ 37512
shire 37487
ech@@ 37480
Pau@@ 37439
77 37413
AT@@ 37397
istan 37394
Arthur 37377
61 37376
univers@@ 37370
relati@@ 37308
Joh@@ 37264
ium 37259
tut@@ 37248
ective 37207
Gor@@ 37191
1951 37183
Bil@@ 37180
visit@@ 37151
Fern@@ 37141
86 37101
requ@@ 37024
ip@@ 37002
57 36996
Doc@@ 36995
Gro@@ 36980
ensis 36932
Eng@@ 36927
Barcel@@ 36905
ke@@ 36901
1935 36858
alien 36858
uli@@ 36822
78 36809
Mit@@ 36759
67 36753
aka 36699
Stan@@ 36625
Stu@@ 36612
Ind@@ 36546
Ly@@ 36463
59 36368
Prin@@ 36331
Lar@@ 36296
Francisco 36279
alif@@ 36206
CD 36187
Roc@@ 36168
dos 36156
rez 36146
76 36107
len 36042
ev 36004
join@@ 35939
74 35881
Kir@@ 35881
1929 35878
nh@@ 35858
Alfre@@ 35845
Arch@@ 35818
igh@@ 35789
ament 35783
vet@@ 35771
ash 35770
Bus@@ 35746
vor@@ 35660
95 35655
1934 35648
87 35633
84 35632
phil@@ 35579
CO@@ 35554
Uni@@ 35532
ga 35514
my 35510
Ker@@ 35496
It@@ 35462
osa 35393
men 35356
ito 35352
exper@@ 35349
eta 35232
1932 35222
adol@@ 35218
300 35193
cha 35169
├ 35164
AD@@ 35148
1900 35075
ab 35030
Nati@@ 34988
ua 34967
Disney 34894
Fac@@ 34858
seud@@ 34844
Mes@@ 34837
septi@@ 34822
AS 34819
âte@@ 34806
con 34781
mir 34760
vern@@ 34757
82 34756
Mul@@ 34744
iy@@ 34727
cens@@ 34721
musical 34720
sk 34718
bit 34640
Rel@@ 34636
Lev@@ 34633
án 34632
dium 34627
71 34607
ova 34563
jum@@ 34529
CE@@ 34526
sab@@ 34518
bach 34489
1928 34483
83 34483
ost@@ 34453
tam@@ 34384
81 34380
una 34374
Smith 34340
kar@@ 34324
School 34271
ator@@ 34260
Land@@ 34241
400 34205
cus 34184
format 34155
Syst@@ 34142
hist@@ 34131
Pri@@ 34110
aki 34104
race 34100
dio 34081
1924 34072
ince 34057
73 33958
1910 33955
ast 33926
PS 33918
aceae 33913
69 33877
provin@@ 33865
Hum@@ 33847
26@@ 33842
ost 33839
ila 33833
fam@@ 33824
embar@@ 33781
cru@@ 33767
Juan 33724
ws 33677
Pot@@ 33657
Hi@@ 33620
Maj@@ 33582
Wi@@ 33551
Nik@@ 33504
san 33468
Produc@@ 33392
Prot@@ 33386
SC 33376
qua 33307
acu@@ 33298
Pap@@ 33295
usa 33282
01 33237
Pin@@ 33214
sel 33166
len@@ 33165
Antonio 33157
imb@@ 33145
Lan@@ 33117
Wor@@ 33106
ship 33106
Conn@@ 33101
alternati@@ 33087
1870 33082
Super 33076
Music 33057
UN@@ 33002
New@@ 32997
ects 32987
ian 32975
anga 32944
ons@@ 32889
stant@@ 32873
1925 32679
79 32647
lor@@ 32604
ingen 32590
Air@@ 32554
partement 32547
idente 32500
ief 32497
endi@@ 32490
mondi@@ 32484
Rem@@ 32418
spé@@ 32418
ku@@ 32417
1912 32415
po 32391
aro 32385
civil 32328
1931 32303
mur@@ 32216
bom@@ 32203
ity 32134
adel@@ 32126
Dre@@ 32078
hosp@@ 32059
Barr@@ 32030
Kon@@ 32027
SA 31956
ik 31919
Bab@@ 31918
icro@@ 31908
Jos@@ 31906
Sab@@ 31894
ald 31880
30@@ 31878
ele 31861
ander 31828
ene 31743
zi 31721
Tre@@ 31700
Cu@@ 31645
Az@@ 31641
Lab@@ 31631
solo 31616
tus 31606
tec@@ 31573
Texas 31558
Lee 31537
Max 31529
ü@@ 31529
ann 31526
Kur@@ 31522
Dem@@ 31480
1921 31453
ube 31411
1926 31409
United 31382
ath 31359
ortho@@ 31350
Ali@@ 31321
antas@@ 31278
1922 31246
FI@@ 31207
West 31183
yn 31167
Hen@@ 31153
AC@@ 31152
aco 31074
tari@@ 31043
can 31021
American 31020
ine@@ 31007
Fri@@ 30964
Bes@@ 30888
Football 30871
Super@@ 30860
Sing@@ 30846
All@@ 30840
Saison 30803
Ben 30780
Jack 30763
Hil@@ 30749
Mary 30724
ish 30709
Fe@@ 30706
Force 30668
war@@ 30662
enta 30587
92 30585
Ah@@ 30566
Tal@@ 30533
1917 30505
Plan@@ 30464
ord 30457
Tom 30456
Eri@@ 30412
99 30410
sw@@ 30393
* 30387
1927 30386
zy@@ 30326
Que@@ 30323
gul@@ 30308
Hav@@ 30299
sam@@ 30263
matr@@ 30262
B. 30252
op 30252
í 30241
Internet 30237
sis 30236
Pat@@ 30177
amin@@ 30091
lia 30058
sta 30047
Buc@@ 30025
ech 30022
office 29958
Rot@@ 29954
emple 29936
28@@ 29869
esta 29825
Cir@@ 29762
27@@ 29756
off 29735
Win@@ 29679
Olympi@@ 29676
Sk@@ 29637
Sand@@ 29594
heim 29593
gen 29592
sar@@ 29591
pic@@ 29566
1923 29565
Black 29563
usal@@ 29557
olo 29517
Gh@@ 29482
ego 29477
Pre@@ 29454
Tak@@ 29450
million 29413
estig@@ 29387
trol@@ 29356
well 29356
finales 29345
Kal@@ 29339
wal@@ 29330
iert 29305
ever 29291
berto 29235
Frank 29221
Les@@ 29215
uno 29210
Nar@@ 29209
96 29195
Mark 29191
onald 29185
VI 29179
ref 29159
alter@@ 29145
oma 29131
Kat@@ 29127
win 29110
Cast@@ 29107
lines 29099
primer 29096
RE@@ 29062
ett 29058
Cab@@ 29054
West@@ 29051
sir@@ 29016
Jam@@ 29005
Bud@@ 28997
asser 28964
ei 28962
SA@@ 28961
Mik@@ 28923
29@@ 28851
Nu@@ 28841
aya 28830
bac@@ 28790
Z 28734
uni 28708
02 28693
1913 28686
00@@ 28653
Ing@@ 28650
rey 28635
let 28582
SP@@ 28563
Form@@ 28542
dh@@ 28541
ogr@@ 28517
Edward 28514
1905 28493
07 28486
Hall 28481
05 28472
Bak@@ 28472
gio 28439
yd@@ 28435
Hit@@ 28426
Liber@@ 28409
eter@@ 28348
1911 28312
CI@@ 28244
inger 28184
Star 28179
Vir@@ 28173
ther 28159
AN@@ 28138
Red 28101
bau@@ 28100
ax 28096
amen 28076
ust 28059
burg 28053
list@@ 28018
Et@@ 28010
Lord 27976
Kor@@ 27972
Sw@@ 27943
maç@@ 27928
yan 27904
04 27897
ople 27867
Lis@@ 27862
Ig@@ 27836
chester 27811
far@@ 27782
lad@@ 27774
SE@@ 27771
dri@@ 27748
pun@@ 27744
ú@@ 27739
Sel@@ 27674
ado@@ 27662
introduc@@ 27650
ardo 27608
93 27596
vec@@ 27592
Ev@@ 27583
bos@@ 27547
Person@@ 27502
Company 27476
Dol@@ 27404
min 27404
serie 27395
Tel@@ 27365
chen@@ 27349
ador 27339
embr@@ 27309
Ak@@ 27306
outh 27297
ough 27261
oli 27260
98 27259
1908 27255
low 27248
sul@@ 27233
Kam@@ 27202
ady 27183
App@@ 27181
Scott 27180
consist@@ 27119
Mand@@ 27083
rad@@ 27078
cho 27063
Hir@@ 27053
Eu@@ 27032
Jor@@ 27008
Arab@@ 27001
08 26998
Sig@@ 26991
Steph@@ 26972
bol@@ 26968
Sen@@ 26958
los@@ 26928
King 26924
etti 26918
ener 26904
mo 26902
Rad@@ 26874
Fal@@ 26849
Ox@@ 26843
Dam@@ 26841
06 26809
wan@@ 26806
OS 26801
# 26789
fal@@ 26788
itz@@ 26766
ass 26755
Plat@@ 26750
Mem@@ 26680
oa 26667
Open 26630
ø@@ 26616
03 26600
four 26595
Anna 26539
aver@@ 26523
test 26479
.. 26455
Abr@@ 26438
Vit@@ 26422
Walter 26420
ud 26419
DVD 26415
cost@@ 26388
09 26354
Karl 26318
ander@@ 26317
Y 26310
eth 26299
EP 26263
Sul@@ 26256
150 26254
97 26251
eri 26202
BC 26182
hr@@ 26179
Boston 26178
91 26162
\ 26158
But@@ 26147
lies 26145
own 26120
Street 26066
Mu@@ 26064
ting 26053
Pen@@ 26050
94 26040
idge 26020
ason 25940
ng@@ 25931
ius 25888
1906 25873
1880 25868
sent@@ 25854
Vel@@ 25841
Mid@@ 25839
Kaz@@ 25832
Boy@@ 25805
atus 25791
han 25779
Bot@@ 25750
TA 25717
Cop@@ 25700
Wh@@ 25688
Jones 25670
1.@@ 25664
wor@@ 25654
CO 25648
Kenn@@ 25601
edi 25585
cht@@ 25583
Tol@@ 25558
1907 25530
fri@@ 25521
Cru@@ 25500
unk@@ 25474
Red@@ 25459
Guin@@ 25375
ese 25374
cum@@ 25349
plas@@ 25338
cm 25284
Bow@@ 25281
ural 25264
mm 25253
Q 25246
ika 25213
mar 25206
Tim@@ 25183
ji@@ 25161
Ander@@ 25143
try 25132
ns 25130
asa 25127
Tam@@ 25079
udi@@ 25071
Tow@@ 25017
ark@@ 25017
Sm@@ 25011
mente 24998
Anth@@ 24985
tern@@ 24985
ficie 24964
Ki@@ 24960
Tu@@ 24944
Victoria 24925
Ali 24924
PC 24838
Awards 24836
ater 24833
1904 24831
Dal@@ 24810
stell@@ 24807
nch@@ 24786
1901 24775
Alb@@ 24771
1915 24755
Sin@@ 24744
kin@@ 24741
Alex@@ 24736
Manuel 24734
Pier@@ 24705
Fu@@ 24693
cu 24692
red@@ 24663
IC@@ 24659
lan 24620
ny@@ 24603
Williams 24567
Don 24565
1860 24535
uh@@ 24527
1890 24466
ston 24449
Penn@@ 24431
otr@@ 24387
ams 24383
unt 24361
dres 24340
Man 24316
apos@@ 24304
view 24292
dil@@ 24286
onto 24279
Carlos 24271
Ear@@ 24258
P. 24239
Mak@@ 24226
ende 24226
ulu 24203
dies 24201
ör@@ 24185
1909 24171
Kn@@ 24148
Lag@@ 24144
Ka@@ 24120
Chem@@ 24116
Ł@@ 24102
Joe 24041
Sir 24030
Sem@@ 24004
Nat@@ 23994
Alexander 23993
ross 23988
AP@@ 23986
ob 23981
ion@@ 23973
ovi@@ 23959
tle 23917
incorpor@@ 23904
pes@@ 23878
Society 23876
1916 23860
cio 23852
Leg@@ 23848
apar@@ 23774
S. 23749
Tit@@ 23715
Hans 23639
Love 23634
CA 23615
Archit@@ 23607
bury 23589
Acc@@ 23554
2.@@ 23512
ew@@ 23493
pop 23492
uba 23447
1848 23429
NBA 23422
bridge 23382
jo 23376
hand@@ 23336
Kin@@ 23321
Arg@@ 23311
set 23300
Carl 23292
tige 23282
bis@@ 23274
John@@ 23272
ven 23270
lés 23243
mam@@ 23239
oy 23201
anta 23190
aus 23161
Johnson 23090
Ky@@ 23066
tario 23047
1902 22968
post 22957
fa 22914
Virgin@@ 22909
FA 22895
edi@@ 22893
Hay@@ 22862
sky 22833
quier 22795
1830 22782
Vis@@ 22773
olf 22748
gaz@@ 22740
R. 22708
bo 22694
Spr@@ 22689
Kan@@ 22674
Mach@@ 22673
Seg@@ 22667
L. 22659
we 22659
VII 22658
tw@@ 22658
ū@@ 22626
ebo@@ 22614
top 22599
carr@@ 22597
Brown 22573
1903 22572
Net@@ 22562
opo@@ 22523
Tem@@ 22492
ür@@ 22490
ee 22473
Cant@@ 22455
gel@@ 22455
All 22422
lus@@ 22400
Hill 22396
Fol@@ 22394
Station 22384
Tay@@ 22343
polis 22325
DC 22324
ket@@ 22320
capital 22317
D. 22291
Ku@@ 22261
CD@@ 22254
ista 22219
Canadi@@ 22217
Cup 22216
trag@@ 22197
gri@@ 22196
Kl@@ 22188
AM@@ 22178
Jackson 22119
eck 22083
White 22069
Sus@@ 22059
ouvern@@ 22052
Philipp@@ 22041
She@@ 22016
web 22004
Play@@ 21992
Proj@@ 21973
cia 21966
How@@ 21957
bin 21937
Kos@@ 21935
E. 21887
Sum@@ 21850
Tan@@ 21752
ę@@ 21732
distr@@ 21711
king 21700
House 21653
ë 21650
Sher@@ 21628
Bah@@ 21621
Centr@@ 21599
Nob@@ 21559
studi@@ 21532
sey 21523
stan@@ 21515
ago 21498
aft 21496
Mill@@ 21494
1898 21491
dae 21463
Museum 21448
fan@@ 21439
wer@@ 21436
conduc@@ 21425
Europ@@ 21410
Rock 21397
nas@@ 21391
1871 21374
Nag@@ 21364
Team 21350
Gra@@ 21339
Big 21335
has@@ 21327
Haw@@ 21291
ks@@ 21288
Ash@@ 21287
ía 21269
enberg 21266
ms 21258
Tran@@ 21232
You 21231
Natur@@ 21220
Young 21183
stitu@@ 21172
did@@ 21156
seg@@ 21132
Sho@@ 21113
One 21093
ning 21045
1896 21040
proces@@ 21032
IX 21028
uke 21006
Shi@@ 20994
Pow@@ 20938
igan 20922
11@@ 20899
Top 20897
Eliz@@ 20883
kr@@ 20875
ister@@ 20845
leg@@ 20817
onz@@ 20815
Jer@@ 20781
ask@@ 20777
diz@@ 20766
Sz@@ 20754
1889 20709
house 20702
ř@@ 20632
vo 20628
uela 20624
Ober@@ 20569
Blu@@ 20559
ñ@@ 20557
cht 20548
Nam@@ 20535
Lud@@ 20526
ž@@ 20519
Cle@@ 20515
ín 20506
din 20483
alla 20479
Johann 20430
1895 20423
Leon@@ 20418
ken@@ 20413
Got@@ 20407
Pad@@ 20406
Award 20400
sho@@ 20395
erte 20377
onia 20374
North 20339
ding 20334
Chin@@ 20327
han@@ 20313
{ 20281
└ 20266
1850 20256
low@@ 20237
Progr@@ 20208
× 20205
Deb@@ 20204
$ 20190
án@@ 20190
aria 20154
aba 20152
lu 20149
bar 20134
ST@@ 20126
Rud@@ 20047
Star@@ 20035
H. 20024
ken 20010
1885 20005
1899 20004
support 19991
600 19988
onal@@ 19981
Ze@@ 19969
Med@@ 19960
Squ@@ 19939
lor 19937
Kol@@ 19928
ho 19907
dra@@ 19882
net@@ 19878
Group 19877
Island 19863
evi@@ 19847
lara 19815
Tw@@ 19801
Whit@@ 19800
Lat@@ 19783
ebr@@ 19782
over@@ 19749
800 19709
rol@@ 19695
1893 19682
“ 19668
1897 19649
eron 19639
ause 19629
Hamb@@ 19614
Center 19599
MA 19584
Aug@@ 19545
Friedrich 19522
metal 19502
dir 19491
Thom@@ 19484
hin@@ 19482
Bang@@ 19480
Bill@@ 19449
eller 19424
mad@@ 19408
Á@@ 19396
Sof@@ 19392
isième 19365
dorf 19355
eva 19344
Tab@@ 19324
emble 19321
wig 19307
Luis 19282
ism@@ 19277
eng 19273
A.@@ 19268
gi 19258
CH@@ 19243
Dec@@ 19229
tia 19225
1867 19138
ansas 19129
Vid@@ 19065
thr@@ 19051
ein 19019
onge@@ 18963
ft 18956
pro 18946
bir@@ 18930
Mod@@ 18924
Riv@@ 18916
vent@@ 18903
alis 18881
gan 18838
ER@@ 18837
12,@@ 18830
yan@@ 18798
ben 18797
ls 18797
” 18776
Venez@@ 18729
Pak@@ 18719
Fel@@ 18690
tribut@@ 18663
ū 18645
mill@@ 18637
tan 18636
Illinois 18627
eto 18621
alo 18619
1892 18612
Sub@@ 18601
iki 18558
British 18541
mel@@ 18535
ega 18527
cut 18526
auth@@ 18516
any@@ 18511
ó 18506
Bay 18473
Wer@@ 18468
ula 18466
Afr@@ 18456
bis 18425
Pil@@ 18350
gan@@ 18304
1881 18294
box 18288
Profes@@ 18285
sch 18264
ck@@ 18249
oria 18238
azi 18234
Columb@@ 18221
adi 18209
AP 18194
æ@@ 18169
eri@@ 18150
Anton@@ 18143
omo 18132
izi@@ 18125
1876 18114
1878 18111
anus 18099
ig 18099
Canton 18089
earch 18083
Times 18053
Parti@@ 18031
1894 18023
South 18013
You@@ 17958
CC@@ 17957
ator 17952
NE@@ 17940
Din@@ 17934
F. 17933
1886 17910
esh 17909
Techn@@ 17900
hard 17875
Windows 17841
enh@@ 17839
Ant@@ 17831
Jap@@ 17824
uma 17818
ido 17811
Jersey 17803
Web@@ 17802
W. 17778
tural 17739
ô 17736
gs 17735
live 17712
ń@@ 17707
lobal 17679
kan@@ 17659
London 17652
S.@@ 17645
In 17641
Championship 17630
King@@ 17628
Live 17623
unc@@ 17623
District 17549
120 17520
edy 17512
Blue 17469
ep 17468
Bet@@ 17458
Kim 17447
1888 17442
250 17420
kg 17407
1882 17389
tern 17368
gin@@ 17367
Real 17359
elt 17327
state 17323
uer@@ 17319
1891 17316
Me 17302
ker@@ 17299
merc@@ 17299
nik 17297
Kom@@ 17294
Vik@@ 17291
das 17269
Seb@@ 17233
design 17230
1884 17226
Long 17195
tal 17189
Kas@@ 17166
1000 17140
Aires 17136
ilde 17132
key 17128
Feder@@ 17091
undi 17062
Spe@@ 17058
Green 17054
ush@@ 17044
University 17039
Š@@ 17035
Sun@@ 17020
Film 17017
essor 16967
Corpor@@ 16960
endo 16942
Elec@@ 16930
Franz 16914
zig 16904
Institute 16891
ă@@ 16890
iga 16887
iss 16879
BBC 16836
gar 16835
Nam 16831
Emp@@ 16820
gir@@ 16802
press 16788
1887 16773
Div@@ 16746
River 16742
hir 16740
tics 16722
Id@@ 16710
† 16692
aza 16672
rech@@ 16661
osh@@ 16651
Indon@@ 16636
Provin@@ 16623
pon 16605
Wilhelm 16596
1875 16591
mad 16587
Sup@@ 16529
elo 16521
Pedro 16519
esa 16515
My 16479
NA 16478
more 16429
ael 16403
Ran@@ 16371
1863 16345
East 16340
etts 16337
Buenos 16315
oo 16302
ül@@ 16298
1883 16264
10,@@ 16237
1868 16225
Kab@@ 16221
Ohio 16221
Central 16212
nombr@@ 16203
libr@@ 16187
Astr@@ 16129
Law@@ 16090
1872 16084
Rech@@ 16079
Tenn@@ 16074
Studi@@ 16063
Rail@@ 16025
å@@ 16002
ace@@ 15995
inae 15978
Ji@@ 15975
bara 15965
igo 15965
ś@@ 15946
hai 15936
up 15934
Kit@@ 15926
RO@@ 15912
squ@@ 15912
ear@@ 15911
ento 15909
1877 15905
Sak@@ 15869
kel@@ 15865
zona 15859
dice 15858
1865 15843
ste@@ 15839
Dig@@ 15820
Jose@@ 15820
ete 15819
1861 15815
bot 15813
ema 15792
eni 15792
IM@@ 15775
jud@@ 15770
Publi@@ 15761
eno 15754
ij@@ 15729
1873 15715
Medi@@ 15710
1864 15707
liga 15685
1874 15669
ag 15660
Entertainment 15658
Azer@@ 15654
wo 15652
fall@@ 15651
Carr@@ 15636
name 15631
chen 15629
Lon@@ 15621
med 15608
Bad@@ 15535
ń 15530
1879 15526
feld 15520
Wit@@ 15502
Kle@@ 15484
dur 15467
illo 15455
Sat@@ 15415
burg@@ 15415
Leb@@ 15409
Lake 15378
Wes@@ 15372
Sah@@ 15363
cine 15355
1862 15309
XX@@ 15289
AI@@ 15248
lock 15248
Fut@@ 15244
bec@@ 15240
put 15222
any 15183
Ges@@ 15173
America 15165
dest@@ 15162
öl@@ 15154
pha 15152
‘ 15138
ld 15103
attle 15101
1869 15100
1,5 15085
iti 15047
1800 15043
Bec@@ 15041
BM@@ 15038
tit@@ 15033
iler 15028
AM 14994
uki 14983
VI@@ 14967
not 14967
tha 14934
lich@@ 14931
ends 14921
Dani@@ 14891
sche 14872
3.@@ 14838
Paulo 14813
I. 14774
• 14757
Gold@@ 14754
Wa@@ 14739
² 14739
Prim@@ 14728
aa 14714
.com 14689
yo@@ 14644
under@@ 14637
Stadi@@ 14636
No 14633
Eurov@@ 14594
hier 14584
Las 14547
inus 14547
lam 14541
aro@@ 14511
è 14509
isis 14507
wid@@ 14500
ár@@ 14499
High 14483
ogo 14443
olo@@ 14442
Juni@@ 14430
Life 14412
ehr@@ 14398
Billboard 14379
day 14368
124@@ 14352
ui@@ 14322
BS 14312
umb@@ 14308
Hot@@ 14307
DS 14304
iko 14294
Academy 14279
ania 14259
11,@@ 14237
Reich@@ 14236
ě@@ 14194
MP@@ 14192
lar 14185
Greg@@ 14153
stadt 14153
gres@@ 14128
poli@@ 14128
Eg@@ 14124
Heinrich 14112
etz@@ 14072
oro 14062
State 14060
Migu@@ 14046
gang 14033
bir 14026
alth 14024
zer@@ 14018
Nak@@ 14014
ź 14011
rif@@ 14002
irat@@ 13981
eck@@ 13980
wn@@ 13979
Ng@@ 13968
mid@@ 13947
vel 13947
} 13937
mant@@ 13934
acha 13933
Baz@@ 13930
Ny@@ 13889
row 13882
eines 13845
kil@@ 13829
edo 13813
Yor@@ 13800
Berg@@ 13794
play 13755
Arti@@ 13746
egr@@ 13732
tico 13719
hip 13697
ater@@ 13669
Chil@@ 13667
nam 13664
Road 13649
iri 13640
case 13626
tul@@ 13625
Has@@ 13615
enth@@ 13606
V. 13605
UEFA 13569
ór@@ 13563
amér@@ 13547
iz 13535
ben@@ 13532
nd@@ 13529
lem 13518
Christi@@ 13509
m. 13505
ku 13493
umi 13476
tt@@ 13455
Gaz@@ 13441
Time 13434
lage 13434
Yo@@ 13426
Gö@@ 13407
zon 13365
kat@@ 13361
General 13344
unter 13331
deb@@ 13318
Sport@@ 13316
Ok@@ 13273
ango 13257
är@@ 13252
AB@@ 13246
deu@@ 13225
ás 13191
rat 13152
ops 13144
K. 13140
nay 13096
secre@@ 13089
XVI 13072
vi 13010
ograph@@ 12962
BA 12951
alia 12951
Rein@@ 12944
gia 12941
700 12937
lag@@ 12929
120@@ 12927
Radi@@ 12901
eda 12901
eus 12898
lah 12882
sion@@ 12869
ling@@ 12865
udi 12864
right 12839
Inn@@ 12837
Kil@@ 12837
ados 12837
Bank 12830
š 12787
tes@@ 12785
tica 12780
Meg@@ 12775
XV@@ 12763
alan 12753
TC 12742
orum 12740
ways 12727
ow 12711
Se 12665
Num@@ 12664
isch@@ 12649
work 12639
ology 12636
Ō@@ 12635
Show 12631
Jack@@ 12629
Mexico 12626
10.@@ 12623
Č@@ 12618
etti@@ 12587
Hosp@@ 12582
eler 12563
his@@ 12536
Wag@@ 12506
anistan 12506
igh 12503
Mut@@ 12502
ej@@ 12502
allas 12497
ș@@ 12493
Day 12480
ą@@ 12417
lands 12398
back 12393
ae@@ 12352
ern 12348
Ye@@ 12328
Microsoft 12312
Hot 12302
zu@@ 12290
Ken@@ 12283
esi 12282
oko 12261
Kun@@ 12242
María 12239
uta 12237
ign 12217
icia 12203
dre@@ 12201
pi 12201
elen 12186
amo 12180
Santiago 12179
cle@@ 12170
ran 12161
Hat@@ 12144
Die 12135
€ 12131
Scot@@ 12126
bet@@ 12110
tad@@ 12106
religi@@ 12101
aja 12092
180 12084
ön@@ 12062
aden 12043
Willi@@ 12031
ide@@ 12026
gest@@ 12024
Vor@@ 11986
ally 11978
110 11923
Stand@@ 11909
agen 11893
imi 11883
wo@@ 11871
Zi@@ 11861
kir@@ 11853
stre@@ 11849
An 11784
Nigeria 11781
vil 11778
USA 11751
carri@@ 11743
Beg@@ 11718
Google 11712
ley@@ 11694
last 11680
foc@@ 11674
yal@@ 11654
Gru@@ 11650
mas 11645
eli 11634
tical 11634
sev@@ 11629
High@@ 11619
af 11584
5.@@ 11580
nec@@ 11541
ć@@ 11541
eder@@ 11497
Kad@@ 11488
him 11485
0.@@ 11480
Kre@@ 11459
aret 11421
ort@@ 11378
eci@@ 11365
Bundes@@ 11351
Roman 11335
elec@@ 11334
ights 11334
Deutsch@@ 11315
fel@@ 11308
ree 11306
Brand@@ 11304
Song 11292
nia 11289
dose 11280
det@@ 11273
ated 11258
WWE 11254
aron 11250
alls 11216
lum 11211
awa@@ 11191
tos 11191
anos 11167
zur 11166
dies@@ 11159
new 11148
imo 11146
sea 11138
23@@ 11132
ior 11128
wer 11124
aller@@ 11119
esh@@ 11100
wh@@ 11098
Mec@@ 11072
iness 11056
States 11006
acy 10998
Univers@@ 10997
augh@@ 10992
com 10973
zen@@ 10952
Way@@ 10944
Schwar@@ 10932
Europa 10885
oks 10885
zen 10880
hil 10857
ierra 10856
hur@@ 10845
Hein@@ 10844
uro 10836
kel 10822
amba 10808
ells 10806
ome@@ 10775
én 10766
alar@@ 10748
ayo 10745
kur@@ 10741
GC 10738
Oper@@ 10725
with 10708
yi 10682
eb 10671
arios 10661
fi 10658
amar@@ 10654
aca 10630
auf@@ 10623
inos 10609
show 10605
bay@@ 10589
ems 10572
Viet@@ 10540
iller@@ 10527
els@@ 10508
Sach@@ 10486
130 10482
Kap@@ 10478
mano 10474
nin 10468
acht 10460
zer 10446
140 10443
fo 10405
ground 10401
inn 10395
aha 10385
wa@@ 10382
kon@@ 10378
series 10378
ingo 10350
wen@@ 10344
zar@@ 10341
apa 10324
film@@ 10314
ii 10312
riff@@ 10312
apo 10303
Ein@@ 10294
ustri@@ 10293
4.@@ 10278
Games 10271
SS@@ 10249
Bask@@ 10217
wn 10206
band@@ 10195
tas 10189
eing 10185
fic 10163
her 10147
101 10140
ê 10126
zon@@ 10123
160 10106
ders 10105
thern 10100
pendi@@ 10069
ż@@ 10067
eme 10062
uk 10060
itt 10032
dom 10022
kab@@ 10022
AG 10003
Media 9998
ills 9987
uld 9981
auer 9945
Fir@@ 9942
rio 9942
uli 9939
Tod@@ 9924
ness 9914
det 9897
Tex@@ 9866
~ 9847
dar@@ 9839
à@@ 9837
än@@ 9834
Great 9828
Buch@@ 9819
Kis@@ 9818
· 9782
ī@@ 9777
Best 9766
inclus@@ 9743
og 9742
Kenya 9740
ana@@ 9727
wat@@ 9709
sun@@ 9690
aer@@ 9684
hiz@@ 9680
Milit@@ 9648
Bed@@ 9637
ío 9621
It 9595
Hand@@ 9592
Unter@@ 9586
mpi@@ 9584
bio 9570
aup@@ 9564
Nord@@ 9542
ency 9536
vez 9514
fav@@ 9505
peri@@ 9499
Jes@@ 9472
Meh@@ 9463
var 9455
ono 9433
Stein@@ 9429
ilia 9423
ischer 9409
Rum@@ 9393
Copa 9353
country 9340
oka 9340
ely 9310
ako 9281
tet 9277
1500 9275
flo@@ 9261
ishi 9253
zin@@ 9246
FIFA 9233
Gener@@ 9218
350 9215
900 9202
Coun@@ 9178
trong 9167
oman 9156
.C. 9155
Ž@@ 9152
water 9133
cos 9110
inde@@ 9083
ats@@ 9057
kom@@ 9053
ough@@ 9049
Rep@@ 9030
alan@@ 9008
oca 8995
avi 8987
azar@@ 8979
ä 8979
dad 8940
sal 8918
Alt@@ 8912
üs@@ 8885
50@@ 8870
Town 8859
sian 8853
System 8850
Muh@@ 8829
htt@@ 8826
â 8825
Rah@@ 8809
stanbul 8796
tuy@@ 8775
ers@@ 8765
î 8761
para 8749
sburg 8739
very 8734
enburg 8727
Hak@@ 8721
sah@@ 8709
wes@@ 8708
estra 8707
into 8686
orio 8660
zam@@ 8635
Colomb@@ 8594
sia 8594
ilo 8584
zu 8583
ð@@ 8574
40@@ 8572
rol 8566
agua 8547
eum 8493
town 8439
Was@@ 8437
Cum@@ 8429
Nig@@ 8413
ng 8403
ump@@ 8392
Bun@@ 8385
ying 8383
È@@ 8376
Jug@@ 8358
annel 8352
Fried@@ 8343
Army 8339
kal@@ 8339
ilio 8317
ods 8312
ias 8310
Mann@@ 8304
Gel@@ 8302
wilaya 8291
hat@@ 8288
hem 8287
rid 8284
6.@@ 8259
August 8247
First 8247
Cao 8237
Mai 8237
dem 8220
ö 8204
War 8203
win@@ 8203
7.@@ 8202
ú 8193
Liga 8179
ender 8155
Ost@@ 8152
boy@@ 8145
Party 8142
ean 8139
yon@@ 8138
maf@@ 8135
red 8134
play@@ 8123
Ö@@ 8113
Bras@@ 8101
eph@@ 8101
Band 8084
isch 8078
gel 8077
tak@@ 8075
Kim@@ 8050
eti 8045
aki@@ 8044
isp@@ 8026
star@@ 8026
alt 8014
yu 8001
ward 8000
rich 7992
Western 7986
alc@@ 7955
r. 7944
Haz@@ 7904
ww@@ 7900
Tang@@ 7896
Hist@@ 7871
Gem@@ 7856
tín 7840
kan 7836
mak@@ 7836
35@@ 7832
Um@@ 7832
Stre@@ 7819
colspan 7806
Mün@@ 7799
8.@@ 7787
edr@@ 7787
road 7765
enda 7758
tarde 7757
others 7755
uj@@ 7744
Ś@@ 7744
Famil@@ 7738
dul@@ 7735
lama 7733
vier@@ 7716
w.@@ 7703
Institu@@ 7701
erra 7699
oso 7690
och 7678
down 7672
Ç@@ 7667
him@@ 7660
mark 7631
investig@@ 7614
hav@@ 7608
km@@ 7607
def@@ 7599
May 7595
Der 7588
vor 7570
kam@@ 7566
c. 7549
200@@ 7544
č 7540
tar 7536
map@@ 7535
kol@@ 7530
teri@@ 7529
forma 7469
To 7466
eria 7464
Serie 7454
neg@@ 7406
European 7395
atu 7385
bab@@ 7368
incor@@ 7356
may@@ 7355
Biz@@ 7350
light 7348
Schw@@ 7330
from 7318
Micro@@ 7299
rí@@ 7297
33@@ 7293
α 7289
other 7285
wil@@ 7267
ña 7266
Def@@ 7258
ayn@@ 7249
tory 7242
hel@@ 7232
dar 7203
band 7197
kor@@ 7188
Volks@@ 7170
Olymp@@ 7165
aland 7164
Herr@@ 7159
afa 7153
añ@@ 7153
esia 7145
ò 7140
Wak@@ 7101
igt 7087
DR 7081
gradu@@ 7063
kay@@ 7052
ering 7048
Hin@@ 7032
Munici@@ 7024
Church 7014
ís 7010
Say@@ 7009
eer 7006
tas@@ 7003
ý 6998
Do 6997
iden 6994
Kö@@ 6960
ual 6941
bia 6934
uru 6903
ā 6897
eca 6896
Æ@@ 6895
80@@ 6893
oper@@ 6878
model@@ 6872
´ 6865
uka 6863
sm@@ 6857
æ 6849
kad@@ 6832
inga 6828
Luf@@ 6819
contra 6815
einer 6809
eros 6806
elop@@ 6795
sta@@ 6789
ás@@ 6772
inci 6759
rod@@ 6759
ù 6753
Kais@@ 6725
tors 6720
jer@@ 6718
vat@@ 6701
hen 6688
book 6675
ische 6672
Amer@@ 6649
Japan 6642
ț@@ 6640
deg@@ 6630
Sept@@ 6626
alle@@ 6618
yat@@ 6603
bay 6600
Tanz@@ 6597
head 6589
9.@@ 6586
üh@@ 6583
nac@@ 6578
3000 6566
üt@@ 6541
bei 6536
bak@@ 6530
enga 6519
tag 6516
Ż@@ 6505
omin@@ 6488
ño 6476
ict 6457
Hoch@@ 6451
wards 6448
encia 6437
ily 6431
eg 6426
hin 6424
ican 6422
game 6417
xu@@ 6414
gem@@ 6398
ife 6389
anza 6386
ful 6383
→ 6381
rail@@ 6365
fast 6363
uo 6352
eka 6306
Braz@@ 6305
unda 6302
UK 6301
now 6293
iler@@ 6292
olan 6289
born 6273
teil@@ 6257
bers 6256
Kul@@ 6254
even 6248
ney@@ 6248
Yah@@ 6230
stand 6211
Kem@@ 6197
hap@@ 6195
align 6191
inda 6190
Council 6185
Virginia 6185
Haus@@ 6183
oj@@ 6166
chil@@ 6165
County 6160
Shu@@ 6157
emati@@ 6144
inde 6136
chia 6129
ahl 6121
isha 6120
zel@@ 6117
Kri@@ 6112
ación 6109
eren 6104
hib@@ 6096
Kay@@ 6092
uel@@ 6091
gli@@ 6085
kw@@ 6084
ün@@ 6080
XVIII 6065
appe@@ 6057
Kus@@ 6054
Prof@@ 6045
ener@@ 6023
dru@@ 6022
ainer 6017
xa 6012
ths 6010
Nacional 6009
Indian 6006
Bez@@ 6000
Da 5991
ț 5974
.S. 5972
ional 5968
Album 5953
wel@@ 5941
má@@ 5936
idea 5923
lau@@ 5915
uss 5890
UE@@ 5876
Spi@@ 5874
WW@@ 5858
agre@@ 5847
teil 5841
dle 5836
toria 5831
hat 5822
icht 5822
haf@@ 5798
Eisen@@ 5791
igi@@ 5789
tras 5788
bao 5772
back@@ 5750
esch@@ 5736
oci@@ 5735
ehr 5726
For 5723
As 5719
Ent@@ 5717
ahl@@ 5714
rea 5706
Zu@@ 5680
sten 5678
ful@@ 5674
ited 5671
für 5669
dern 5663
atro 5654
tí@@ 5626
ference 5621
ál@@ 5618
ý@@ 5599
This 5597
China 5590
£ 5589
onen 5586
nen 5572
isto 5567
enz 5540
&apos;@@ 5519
inas 5507
por 5484
äl@@ 5482
Women 5478
under 5475
stor@@ 5467
Chic@@ 5463
Uz@@ 5462
Africa 5427
elt@@ 5409
wak@@ 5408
lag 5403
ving 5383
esto 5375
ī 5374
craft 5373
ân 5368
west 5359
Enter@@ 5350
inen 5347
invol@@ 5342
ift 5338
kt 5333
arte 5329
mus 5324
unds 5306
French 5300
chu@@ 5300
tura 5288
Educ@@ 5279
Kamp@@ 5275
endi 5271
law 5248
lik@@ 5247
tivo 5236
ular 5232
β 5224
Å@@ 5221
aten 5217
History 5206
afr@@ 5179
Đ@@ 5176
leb@@ 5168
Sta@@ 5160
bol 5159
Beh@@ 5153
Frank@@ 5152
yak@@ 5152
õ@@ 5149
depend@@ 5118
cargo 5113
engo 5111
Dies@@ 5107
DV@@ 5097
this 5083
benz@@ 5080
video 5076
Anc@@ 5069
center 5065
ety 5060
jas 5059
ă 5051
U.S. 5044
namo 5034
bah@@ 5033
straße 5027
König@@ 5026
Schi@@ 5025
bek@@ 5020
ò@@ 5007
río 5004
gun@@ 4997
Pf@@ 4996
aber 4980
Yun@@ 4974
Von 4965
ted 4956
Ó@@ 4950
ede 4932
gun 4932
Schl@@ 4931
gil@@ 4920
tn@@ 4920
ambo 4916
kaz@@ 4914
`@@ 4906
− 4905
medi@@ 4899
Revol@@ 4896
Italia 4885
Kid@@ 4885
enas 4884
kho@@ 4884
California 4876
mem@@ 4875
sak@@ 4875
üb@@ 4868
music 4858
haus 4857
uerto 4852
ü 4848
Ago@@ 4839
ancia 4810
alifor@@ 4808
Sek@@ 4797
unga 4795
Auch 4787
war 4773
juli@@ 4769
tries 4766
Mek@@ 4764
Fes@@ 4761
201@@ 4758
mez 4751
öh@@ 4713
round 4702
‰ 4686
ő@@ 4676
cast 4673
Eis@@ 4670
mah@@ 4670
less 4633
board 4614
hips 4613
umba 4603
than 4596
CN 4595
anas 4578
utz 4574
shu@@ 4566
Sult@@ 4541
ahr@@ 4540
kul@@ 4534
Ú@@ 4534
ht 4523
lil@@ 4514
jun@@ 4507
adan 4503
Schul@@ 4494
med@@ 4485
ón@@ 4482
ei@@ 4475
has 4472
Nis@@ 4469
lí@@ 4459
Gün@@ 4456
onder@@ 4436
fu 4435
Zw@@ 4431
hut@@ 4427
Milli@@ 4423
tech@@ 4421
hara 4411
Ere@@ 4409
best 4390
Am 4380
haz@@ 4373
sei 4352
ina@@ 4351
ș 4325
Ni 4323
ł 4320
ien@@ 4315
English 4312
erk@@ 4312
icio 4301
aban 4299
baz@@ 4297
ì 4294
ebe 4289
zur@@ 4286
Kut@@ 4271
design@@ 4268
Krieg@@ 4264
adem@@ 4263
sik@@ 4252
bern@@ 4235
Yar@@ 4234
Oy@@ 4230
saf@@ 4230
contribut@@ 4227
say@@ 4227
equ@@ 4226
wah@@ 4221
So 4220
gol 4219
ück 4216
India 4215
XX 4215
angel@@ 4213
parte 4213
Ê@@ 4193
spe@@ 4181
yar@@ 4177
Wan@@ 4153
lerin 4151
Gran 4146
đ@@ 4143
strum@@ 4139
forman@@ 4137
tros 4135
world 4112
rom 4106
ē@@ 4099
sing 4098
away 4088
enst@@ 4083
Ukr@@ 4078
scher 4077
endel@@ 4074
Australian 4067
mara 4065
ological 4065
Wilhel@@ 4060
iki@@ 4049
ß 4040
ating 4039
ayan 4035
@ 4032
sad@@ 4031
park 4023
Minh 4021
americ@@ 4006
ween 4004
Arth@@ 3988
pen 3984
Nieder@@ 3982
erek 3976
spi@@ 3970
featur@@ 3966
later 3960
pad@@ 3960
ya@@ 3958
furt 3956
maz@@ 3956
Ped@@ 3955
uda 3941
ʻ@@ 3940
ikan@@ 3924
Este 3919
run@@ 3916
idas 3913
ambu@@ 3907
He 3894
kop@@ 3887
tish 3873
eki 3865
anno@@ 3857
atos 3856
Tari@@ 3848
ác@@ 3846
gu 3845
mez@@ 3845
ät@@ 3840
ning@@ 3830
Tek@@ 3817
COVID 3815
liz@@ 3812
acio 3811
its@@ 3809
י@@ 3802
chn@@ 3795
kön@@ 3792
African 3784
ayr@@ 3774
his 3771
Das 3768
izi 3761
erst@@ 3759
trol 3757
zt 3753
tras@@ 3746
Roma 3740
ş@@ 3738
Ort@@ 3723
nes@@ 3721
utz@@ 3718
Govern@@ 3713
life 3699
get@@ 3697
Asia 3688
obr@@ 3687
kid@@ 3674
opo 3668
Su 3667
ß@@ 3663
ungs@@ 3658
spr@@ 3652
uz 3649
eon@@ 3641
pio 3634
idad 3633
was 3622
Kant@@ 3621
ority 3620
come 3611
ext 3607
Yer@@ 3604
From 3591
lich 3590
tima 3590
eras 3584
ism 3584
usi 3568
aliz@@ 3554
lim 3547
lay@@ 3545
irk 3543
ías 3537
ality 3532
ulia 3532
ishing 3521
Israel 3514
hay@@ 3508
refer@@ 3503
lek@@ 3501
adas 3496
inger@@ 3495
raz@@ 3491
tur 3482
gemein@@ 3481
works 3481
ə@@ 3473
-- 3469
ensa 3460
führ@@ 3447
lug@@ 3430
tham 3428
thu@@ 3428
wing 3424
Jah@@ 3422
mittee 3420
isco 3418
kum@@ 3415
ample 3414
had 3410
ň 3393
anya 3377
thi 3376
ción 3370
unge 3369
Nach@@ 3367
won 3365
ól@@ 3365
nach 3364
sobre 3363
anan 3362
kit@@ 3362
ו@@ 3362
vy@@ 3361
ational 3358
iff 3355
brit@@ 3350
emba 3345
aji 3344
empres@@ 3342
wi 3337
coun@@ 3336
kle@@ 3335
inh 3325
assen 3313
amu 3311
icos 3299
histor@@ 3295
alen 3280
With 3273
media 3266
cier@@ 3252
kun@@ 3244
schaft 3239
Papa 3235
Wir@@ 3230
inden 3226
ˈ@@ 3215
KK 3200
lise 3199
essen 3196
kö@@ 3189
bahn 3183
eza 3181
Oly@@ 3179
uten 3171
nig 3168
Klo@@ 3167
Ayr@@ 3166
naci@@ 3159
11.@@ 3157
lik 3148
BK 3145
topl@@ 3139
rö@@ 3138
grup@@ 3133
mim@@ 3130
git@@ 3125
º 3125
ø 3125
ÿ 3118
dings 3117
́ 3117
12.@@ 3106
undo 3101
uso 3100
Geb@@ 3092
atia 3091
uch 3090
new@@ 3089
tiva 3085
kas@@ 3082
chini 3077
abu 3075
kis@@ 3074
Spiel@@ 3069
aina 3069
England 3058
sti 3050
ime@@ 3046
schule 3040
kn@@ 3031
atz 3030
mann@@ 3021
nah@@ 3020
geb@@ 3019
Fren@@ 3012
liche 3011
Ankara 3010
± 3009
sam 2998
Ø@@ 2992
team 2985
ities 2975
fen 2969
eles 2966
eleg@@ 2965
trai 2965
dren 2959
Stra@@ 2953
angi 2947
form 2946
itung 2943
kap@@ 2943
Ireland 2937
esen 2932
self 2932
then 2930
partment 2928
ird 2926
zor@@ 2918
ʿ@@ 2918
Fak@@ 2913
Burundi 2894
hak@@ 2884
power 2879
Florida 2876
erne@@ 2876
kus@@ 2868
March 2866
Academ@@ 2851
anl@@ 2848
azu 2843
erh@@ 2843
bau 2833
zw@@ 2828
eso 2824
§ 2821
1. 2818
yer@@ 2815
tei 2814
etes 2812
hio 2804
Bü@@ 2800
europ@@ 2797
mula 2789
zis@@ 2789
azo 2787
Liter@@ 2779
Democ@@ 2778
langu@@ 2772
ists 2762
onio 2760
imba 2751
ös@@ 2743
ín@@ 2730
text 2725
Alem@@ 2723
Ban 2717
arak 2713
ilg@@ 2707
umbo 2706
å 2706
Schwe@@ 2705
ún 2701
they 2696
educ@@ 2690
Stad@@ 2684
edad 2682
Gü@@ 2679
death 2679
àn 2678
Sü@@ 2677
ã@@ 2677
ellschaft 2675
jed@@ 2670
eig@@ 2661
was@@ 2659
eder 2656
ece 2653
platz 2652
sey@@ 2652
ungen 2651
Australia 2641
estruc@@ 2641
umo 2632
Kik@@ 2631
0.000 2629
kara 2621
aster@@ 2618
Ba 2617
fass@@ 2616
ool 2615
bere@@ 2614
Öster@@ 2607
weg@@ 2604
zog 2602
mich@@ 2597
real 2595
maya 2594
Hung@@ 2593
meister 2587
When 2586
that 2580
At 2573
kri@@ 2572
sos@@ 2572
brach@@ 2552
199@@ 2551
División 2542
late 2541
yas@@ 2540
ğ@@ 2533
ſ@@ 2532
kim@@ 2531
ühr@@ 2530
iwa 2525
isen 2520
enen 2518
law@@ 2514
left 2514
isten 2507
group 2504
leri 2504
ersch@@ 2503
rem 2499
After 2498
trat 2497
pia 2486
bü@@ 2483
mec@@ 2483
Ş@@ 2482
entras 2474
Historia 2473
Hö@@ 2471
issen 2469
enes 2463
body 2462
arias 2461
ş 2459
tek 2453
³ 2448
Ü@@ 2446
ź@@ 2445
kes@@ 2444
vania 2444
elek@@ 2441
tig 2441
ede@@ 2434
aras@@ 2429
Sin 2428
egen 2428
aining 2422
open@@ 2421
a. 2416
sau 2415
color 2404
unter@@ 2404
XIX 2402
ḥ@@ 2397
data 2391
äng@@ 2391
hid@@ 2385
church 2383
Wah@@ 2380
üc@@ 2377
emen 2376
issen@@ 2372
nak@@ 2358
apon 2348
Yes@@ 2341
gener@@ 2338
optera 2333
Í@@ 2333
eshi 2325
ő 2325
rá@@ 2324
Alman@@ 2322
Grün@@ 2317
iken 2312
ž 2311
esper@@ 2306
ů@@ 2297
linois 2296
nt 2271
^ 2266
bey@@ 2254
kre@@ 2238
ôn 2236
schw@@ 2235
Theo 2227
erin 2217
elde 2214
provid@@ 2213
ň@@ 2212
kup@@ 2205
sanat@@ 2198
jah@@ 2197
hr 2188
mov@@ 2188
ר@@ 2179
lieb 2171
pf@@ 2168
Apr@@ 2167
ě 2165
embargo 2162
hus@@ 2159
Bev@@ 2154
iç@@ 2154
Soh@@ 2150
tung 2150
sche@@ 2144
ṣ@@ 2143
fest@@ 2141
lub 2141
class 2140
Zwe@@ 2139
immer 2139
ė 2137
cula 2136
ought 2133
ù@@ 2133
Con 2131
äd@@ 2130
iran 2127
ip 2126
school 2126
ος 2126
Dok@@ 2114
isches 2108
them 2098
äs@@ 2098
schen 2087
will 2085
alian 2084
Heim@@ 2076
eye 2076
ned 2068
ì@@ 2066
É 2065
dad@@ 2063
ên 2060
dini 2055
icas 2054
stad@@ 2054
γ 2054
yok@@ 2053
א@@ 2044
Süd@@ 2042
bez@@ 2038
ç 2038
Kib@@ 2037
Groß@@ 2033
aben 2032
prac@@ 2027
Name 2026
event 2025
üm@@ 2022
ellen 2021
′ 2018
full 2016
ilk 2016
ording 2015
½ 2015
same 2009
Mp@@ 2002
--@@ 1999
2. 1996
By 1990
She 1990
ı@@ 1983
gru@@ 1982
eden@@ 1981
where 1973
werk 1964
ã 1963
atur 1962
aum 1957
198@@ 1955
meng@@ 1955
jia 1954
iku@@ 1946
trat@@ 1945
about 1942
ainst 1941
uko 1941
Ô 1927
iten 1920
dok@@ 1916
allen 1915
His 1913
ischen 1913
made 1909
âm 1909
perten@@ 1906
hac@@ 1899
ismo 1899
aña 1895
wur@@ 1892
Ä@@ 1891
beg@@ 1888
lake 1888
alist 1883
ampi@@ 1882
lang 1882
National@@ 1871
на 1867
eral 1862
Þ@@ 1859
ecke 1857
Landes@@ 1856
Sov@@ 1856
ography 1854
sek 1854
auch 1851
ɔ@@ 1849
hiv@@ 1837
jos 1837
ging 1836
establ@@ 1835
zil@@ 1834
ÿ@@ 1833
June 1832
eben 1830
may 1830
enton@@ 1829
kata 1829
.000 1827
eas 1826
head@@ 1825
eas@@ 1822
tee 1822
kio 1815
tik 1815
unia 1815
Her 1812
Bei 1806
Việt 1802
eran 1802
Rus 1801
fore 1799
run 1793
cá@@ 1792
usu 1791
inner@@ 1788
pero 1788
fall 1787
There 1783
hii 1782
Universidad 1781
iev@@ 1781
iker 1776
odo 1776
ב@@ 1776
eler@@ 1772
track 1767
ís@@ 1766
ṭ@@ 1764
Pia 1757
ihr 1757
inning 1757
system 1749
Kongo 1748
ög@@ 1747
Bir 1746
φ 1743
çe 1742
building 1737
leh@@ 1737
מ@@ 1733
Staats@@ 1730
España 1729
ished 1729
wana 1729
С@@ 1723
μ@@ 1721
reich@@ 1719
unde 1716
neo 1714
Kup@@ 1711
tek@@ 1709
äh@@ 1709
igen 1707
umu 1705
ogen 1701
wann 1700
kt@@ 1697
196@@ 1696
drei 1696
stil@@ 1696
city 1694
nea 1693
elem@@ 1690
gut 1690
ǎ@@ 1690
ngu@@ 1687
unas 1686
enin 1685
feder@@ 1683
aten@@ 1682
ɛ@@ 1682
eski 1680
she 1676
deut@@ 1674
λ 1674
home 1673
ś 1672
Una 1671
iß@@ 1671
Distr@@ 1668
oren 1667
atura 1664
Deutschland 1662
otra 1660
statt 1660
büt@@ 1658
tiz@@ 1657
ש@@ 1657
wana@@ 1652
uza 1651
April 1649
led 1648
194@@ 1644
kia 1644
ı 1643
ved 1638
nacional 1636
kik@@ 1635
reib@@ 1633
Es 1632
Ș@@ 1632
ℝ 1630
like 1626
regi@@ 1626
ieurs 1623
oğlu 1621
dik@@ 1620
cil 1618
octu@@ 1617
ა@@ 1616
eten 1614
大@@ 1614
dort 1612
tores 1612
gesch@@ 1611
Barcelona 1609
Straße 1609
ω 1609
ký 1608
Haupt@@ 1607
short 1604
wir@@ 1604
ember 1602
oyn@@ 1596
197@@ 1591
bed@@ 1588
uvent 1588
song 1587
ṇ@@ 1584
kam 1580
µ@@ 1578
σ 1577
Film@@ 1576
huy@@ 1575
adores 1570
ifu 1569
quan 1567
4. 1565
elte 1565
Nguyễn 1559
ichte 1559
ⴰ@@ 1559
kreis 1557
ל@@ 1557
् 1556
Guerra 1554
kend@@ 1554
nord@@ 1549
π 1549
oder 1547
esha 1542
estas 1539
zas 1539
Span@@ 1536
phi 1535
ε 1531
ober@@ 1530
utsch@@ 1530
ʼ@@ 1530
Dez@@ 1529
195@@ 1526
eden 1526
Wilaya 1525
tof@@ 1525
soft 1523
kno@@ 1522
Santi@@ 1519
і@@ 1519
inco 1513
Nueva 1510
Mittel@@ 1508
many 1508
él 1504
kut@@ 1499
mf@@ 1498
fied 1493
kim 1493
tam 1489
Ö 1488
dah@@ 1485
ütz@@ 1485
heit 1484
indi 1483
190@@ 1482
Ó 1482
wr@@ 1479
itos 1477
县 1476
nach@@ 1475
icht@@ 1473
Mw@@ 1472
enzi 1470
tah@@ 1470
geh@@ 1469
high 1469
Akadem@@ 1468
Musik@@ 1463
leit@@ 1463
loss 1463
נ@@ 1459
ße 1455
Kig@@ 1452
inin 1452
kana 1451
record@@ 1448
izo 1447
İ@@ 1446
во 1444
Compan@@ 1443
ė@@ 1439
δ 1439
Zentr@@ 1437
α@@ 1437
193@@ 1433
mak 1425
lieg@@ 1424
ligh@@ 1424
imbo 1419
two 1419
noch 1417
ν 1417
gö@@ 1415
idos 1415
ה@@ 1413
idir 1410
uzi 1410
‑ 1410
reich 1409
tional 1407
ück@@ 1406
Argentina 1405
çal@@ 1400
publ@@ 1398
ibu 1397
isión 1397
Öz@@ 1396
eñ@@ 1393
dak@@ 1391
ability 1384
adora 1384
pedi@@ 1384
verl@@ 1382
Ć@@ 1380
ð 1370
eño 1368
Ngo@@ 1367
sed 1367
riff 1366
ņ@@ 1364
people 1362
quy 1362
ended 1361
kem@@ 1361
Brasil 1358
year 1357
gether 1355
ests 1352
cian 1348
А@@ 1346
schi@@ 1343
bul 1342
estudi@@ 1338
kamp@@ 1337
Bür@@ 1336
в@@ 1336
Eins@@ 1331
number 1322
auen 1319
icha 1318
aje 1316
pios 1315
Wasser@@ 1313
Zeit@@ 1313
doğ@@ 1313
entos 1312
ი@@ 1310
ún@@ 1308
ücke 1308
event@@ 1307
ease 1306
ť 1306
German 1303
leich@@ 1302
tim 1302
Stadt@@ 1298
ς 1291
ľ@@ 1289
eln 1287
anyika 1285
gü@@ 1278
enden 1275
party 1275
lung 1274
games 1269
weit@@ 1268
general 1265
unu 1264
ŏ@@ 1263
Grund@@ 1261
Ein 1259
Nguy@@ 1259
äus@@ 1259
θ 1259
sana 1258
vita 1258
ա@@ 1258
р@@ 1256
ро@@ 1256
ー@@ 1254
Bu 1253
mw@@ 1252
angu 1251
area 1250
َ@@ 1250
orden 1249
wie 1249
omen 1247
title 1244
Gruppe 1242
unci@@ 1242
graf@@ 1240
ün 1238
have 1237
Lan 1231
Wash@@ 1228
verdi 1228
west@@ 1228
ería 1227
retur@@ 1224
О@@ 1224
ül 1222
ungu 1218
chter 1215
They 1213
span 1212
tena 1211
3. 1208
speci@@ 1203
day@@ 1202
sich@@ 1202
β@@ 1200
model 1194
þ@@ 1190
8. 1187
Nh@@ 1187
ativa 1187
ansa 1186
ρ 1185
Auf@@ 1181
divers@@ 1180
útbol 1178
lanz@@ 1177
mik@@ 1177
ℤ 1172
vida 1170
ż 1170
ked 1168
Famili@@ 1166
üd@@ 1165
р 1165
ellas 1161
first 1161
zey 1160
msh@@ 1159
reci@@ 1159
ünde 1157
„ 1157
riere 1156
н 1152
ע@@ 1150
bang 1149
Mei 1148
й 1148
ה 1148
wenn 1147
schluss 1146
192@@ 1145
hari@@ 1141
orta@@ 1140
una@@ 1140
respon@@ 1137
sequ@@ 1136
kav@@ 1135
вич 1133
uu 1122
yap@@ 1121
ected 1116
anh 1115
kip@@ 1113
≤ 1110
ifa 1109
yol@@ 1109
ezo 1107
5. 1104
vili@@ 1099
ús@@ 1098
Д@@ 1098
Feb@@ 1097
spor 1092
lerine 1090
ßen 1089
σ@@ 1086
lichen 1085
tly 1085
üm 1085
ieder 1083
Chile 1082
edit@@ 1082
epis@@ 1082
ngh@@ 1080
wich@@ 1080
cion@@ 1079
anderen 1078
Woh@@ 1076
alem@@ 1075
pain@@ 1073
malar@@ 1071
ř 1071
leo 1069
ď@@ 1067
Professor 1064
mab@@ 1064
ubic@@ 1064
― 1064
leng@@ 1063
constr@@ 1062
tere 1062
acter@@ 1061
enso 1058
deutsche 1057
novel@@ 1051
ingi 1050
ograf@@ 1050
waka 1050
imiento 1048
deutscher 1045
gian 1045
ometr@@ 1043
γ@@ 1043
wam@@ 1042
cada 1041
Ā@@ 1041
Δ@@ 1030
Mär@@ 1028
went 1027
к 1024
Platz 1023
achen 1022
kirche 1020
osas 1019
orden@@ 1017
の@@ 1017
Para 1013
liter@@ 1013
Best@@ 1012
reco@@ 1007
fund@@ 1005
municipio 1004
úa 1003
Mart 1002
ский 1002
ד@@ 1002
ɛ 1001
ן 1000
ţ@@ 999
writ@@ 998
äch@@ 997
区 997
К@@ 996
mek@@ 994
Phi 993
189@@ 991
0,000 985
enst 985
luk 985
ת 985
ded 984
sek@@ 984
л@@ 982
cual 979
ка 979
did 978
ür 978
Thanh 973
ending 973
perior 973
kub@@ 972
áng 971
oku@@ 966
prec@@ 966
Afrika 965
ongo@@ 964
Ab 963
lima 963
й@@ 961
elik 960
ähr@@ 958
beri 956
Geg@@ 955
bed 954
н@@ 951
bora 949
yote 949
δ@@ 949
tay@@ 948
rece@@ 947
casa 945
making 944
most 944
huo 943
laya 942
ezi 941
zwe@@ 941
egos 939
י 934
qued@@ 932
success@@ 932
alar 930
buil@@ 930
lege 930
͡ 930
yet 929
osu 928
Г@@ 926
ť@@ 924
в 924
ecu@@ 921
anst@@ 919
μ 919
feh@@ 918
äf@@ 918
mt@@ 916
President 915
ät 913
ʾ@@ 912
Ω 912
Ḥ@@ 911
ン@@ 911
Teil@@ 910
econom@@ 910
encontr@@ 909
Er 908
geri 905
↔ 904
fica 901
logr@@ 901
wap@@ 900
ą 899
iliz@@ 898
ə 896
Δ 896
κ@@ 896
fak@@ 895
ּ@@ 895
zum 891
ın@@ 891
и 891
187@@ 889
escu@@ 889
π@@ 888
ם 888
through 887
DNA 886
half 886
ль@@ 884
naf@@ 883
éx@@ 883
ло@@ 883
hay 882
kwa 882
aciones 881
khi 881
Ñ@@ 877
τ@@ 877
м@@ 874
Stadt 872
sever@@ 871
hali 870
small 870
И@@ 870
с@@ 870
temper@@ 869
186@@ 866
Arbeit@@ 866
ağ@@ 866
ekt 866
Sơn 865
Flug@@ 861
út 861
188@@ 860
enos 860
θ@@ 860
ν@@ 860
Pub@@ 857
mash@@ 854
η 853
6. 851
Estado 851
ла@@ 850
Zeit 848
schaf@@ 848
teilung 846
ğ 845
ⵉ@@ 844
año 843
fahr@@ 843
ε@@ 842
deren 841
À@@ 841
quay 840
ē 839
ndi@@ 838
zial@@ 838
öch@@ 838
hoa 837
λ@@ 836
া@@ 836
ко@@ 834
ufu 831
ewa 829
jina 829
Ř@@ 826
Gesch@@ 824
öz@@ 823
ός 821
istas 820
kung 820
Francia 819
Sein 819
nde 819
----@@ 818
Partido 816
Т@@ 816
jaw@@ 815
schrift 815
were 815
В@@ 815
я 815
ци 814
ре@@ 813
ე@@ 813
″ 813
bier@@ 812
änd@@ 812
д@@ 812
ω@@ 811
რ@@ 811
≥ 810
vur@@ 806
П@@ 806
Văn 803
México 797
ın 795
Eyl@@ 792
Frau 792
0s 791
tay 791
Im 790
mt 790
ör 789
т 789
after 788
Б@@ 788
ached 786
aş@@ 784
ον 784
polic@@ 783
у@@ 783
ː@@ 780
天@@ 779
lı 776
wake 776
о@@ 775
Mitte 774
bt 774
ь 774
ח@@ 774
mundo 773
⇒ 772
order 771
yaz@@ 771
dül@@ 770
kama 770
novi@@ 765
山@@ 764
óg@@ 763
siz 762
פ@@ 762
М@@ 759
ː 758
present@@ 757
Σ@@ 757
their 756
ל 756
Trần 754
ва 753
ṃ@@ 753
abaj@@ 752
ghi 749
ciones 748
för@@ 748
munici@@ 748
nje 747
each 746
ָ@@ 746
Minister@@ 745
eser@@ 745
emas 744
Р@@ 743
emu 740
ι 740
level 737
wala 737
7. 736
χ@@ 736
thu 735
telev@@ 733
über 727
Böl@@ 726
bilin@@ 726
Lehr@@ 725
ünst@@ 725
ш@@ 724
hud@@ 722
ק@@ 722
ი 720
е 719
Α@@ 718
ле@@ 717
ר 717
kari@@ 716
stud@@ 714
Welt@@ 712
ông 712
а@@ 711
к@@ 711
ת@@ 711
años 710
át 710
ḍ@@ 709
schaften 708
natural 707
schafts@@ 706
control 705
ρ@@ 705
yana@@ 703
ра@@ 703
úl@@ 702
ლ@@ 702
Đại 701
ayar@@ 698
best@@ 698
ük@@ 698
ʾ 698
中@@ 697
ļ@@ 695
ي@@ 695
onu 693
ְ@@ 693
Indonesia 692
some 692
̃ 692
་ 692
estos 691
wach@@ 690
who 689
ered 688
seh@@ 687
ви@@ 687
muda 683
zeug@@ 683
innen 682
Region 679
auspi@@ 679
ская 679
comun@@ 678
make 676
Tod 675
ched 674
imani 673
yet@@ 672
Fuß@@ 671
numer@@ 671
vom 671
а 669
ه@@ 669
isim@@ 668
kale 668
player 668
teh@@ 668
tish@@ 667
¡ 667
nung 664
umia 662
enten 661
muz 661
9. 659
bán 659
culo 659
ệm 659
espec@@ 658
luy@@ 658
ım 657
jap@@ 656
Verein@@ 655
ри@@ 654
partido 653
ır@@ 653
seine 652
ַ@@ 651
ִ@@ 649
eş@@ 646
imu 646
using 646
כ@@ 646
fico 645
ǔ 645
ِ@@ 644
cito 643
These 642
Bình 641
isho 640
∈ 640
üst@@ 639
days 638
ɔ 637
з@@ 637
Bürger@@ 636
came 636
Verein 635
high@@ 635
zus@@ 635
lado 633
ли@@ 633
ни@@ 632
三@@ 632
afu 631
ıl@@ 631
л 631
мо@@ 630
Hoa 629
actor 627
company 627
quien 627
ehe 626
bish@@ 625
ét 625
т@@ 623
ْ@@ 623
incia 622
Κ@@ 622
what 621
Tür@@ 619
ations@@ 619
до@@ 619
üng@@ 616
Ț@@ 616
zul@@ 615
ь@@ 615
charac@@ 614
just 614
neh@@ 614
Universität 612
anah@@ 610
aş 610
seinen 610
ük 610
ecto 609
zun@@ 609
ر@@ 609
kea 608
ق@@ 608
só@@ 607
there 607
July 606
г@@ 605
ℚ 604
ised 602
herr@@ 601
which 601
ј@@ 601
Engl@@ 600
Geschichte 600
Yıl@@ 600
ngo@@ 600
Ко@@ 599
海@@ 598
known 597
ħ@@ 597
山 596
entro 595
Osman@@ 594
einen 592
gew@@ 592
е@@ 592
ц@@ 592
س@@ 592
Ayn@@ 591
ào 591
grab@@ 590
adil@@ 589
го@@ 589
・ 588
only 587
ır 587
ס@@ 585
் 585
zh 584
ói 583
alled 581
ب@@ 581
licher 580
Μ@@ 580
Deutschen 579
ن@@ 579
alista 578
adhi 577
khi@@ 577
ehem@@ 576
ık@@ 576
unca 575
óm@@ 575
Σ 575
three 574
tiy@@ 574
Ε@@ 573
bö@@ 572
ión 572
cover@@ 570
mbal@@ 570
z. 570
ǐ@@ 570
Leben 569
kati@@ 569
Ô@@ 569
φ@@ 569
ნ@@ 569
่ 568
ℂ 567
been 565
clos@@ 564
κ 564
ג@@ 564
б@@ 563
Como 562
fik@@ 561
öff@@ 561
ο@@ 561
nicht 560
ве@@ 560
ǐ 559
rek@@ 557
Gür@@ 556
hilo 556
ickl@@ 554
kua 554
Wirt@@ 553
chung 553
ihr@@ 553
kuj@@ 553
ل@@ 552
♭ 552
region 551
но 551
ო@@ 551
‐ 551
イ@@ 550
Nguyên 548
nur 548
Form 546
ζ 546
Teil 545
aliy@@ 545
role 545
Π@@ 545
χ 545
ح@@ 544
primera 543
Über@@ 543
У@@ 543
ⵎ@@ 542
oldu@@ 541
τ 539
← 539
mita 538
ennen 536
œ 535
ع@@ 535
王@@ 534
tigen 533
南@@ 533
nh 530
ánh 530
ảo 529
equi@@ 528
З@@ 527
Zu 525
евич 525
ḥ 525
ativo 524
м 524
ġ@@ 523
̄ 523
一@@ 523
Бо@@ 522
с 521
Meister@@ 520
üz@@ 520
на@@ 520
子 520
again 519
tische 519
iyi 518
puer@@ 517
ί@@ 517
República 516
ided 516
tür@@ 516
ἀ@@ 516
✝ 516
dej@@ 515
waf@@ 514
đa 514
ч@@ 514
wani 513
ス@@ 513
Verw@@ 512
ك@@ 512
ла 511
fot@@ 510
ћ 510
李@@ 509
,000 506
caracter@@ 506
ained 505
iye 505
ⵍ@@ 505
ammen 504
hili 503
ảng 503
ه 502
ს@@ 501
ños 498
я@@ 498
develop@@ 497
banda 496
modern 496
ương 496
ט@@ 495
ψ 494
fang@@ 493
take 493
Geometr@@ 492
ный 492
luk@@ 491
¹ 491
и@@ 491
Lond@@ 490
frances@@ 490
̀ 490
ي 490
ης 489
д 489
∞ 489
along 488
ám 488
when 487
Э@@ 487
ди@@ 487
Anh 485
Campeonato 485
lesia 485
ǔ@@ 485
Λ@@ 484
้ 483
Kati 481
Mỹ 481
arse 480
history 480
used 480
西@@ 480
（ 480
erten 479
მ@@ 479
≈ 479
Τ@@ 478
Е@@ 478
found@@ 477
ık 477
ка@@ 477
ы@@ 477
ⵏ 477
wezi 475
по@@ 475
но@@ 474
์ 474
្ 474
Entw@@ 473
eyi 473
muz@@ 472
illed 470
landa 470
echo 469
ко 469
Lebens@@ 468
צ@@ 468
Sohn 466
ác 466
ʃ@@ 466
★ 466
ehen 465
ι@@ 465
ր@@ 465
ル@@ 465
werden 464
Ο@@ 464
্ 464
` 463
yay@@ 463
金@@ 463
☆ 462
deutschen 461
Ка@@ 461
ッ@@ 461
ラ@@ 461
election 459
years 458
ύ@@ 458
Ц@@ 458
September 457
► 457
子@@ 457
chte 456
uzo 456
Đồng 456
Türk 454
fü@@ 454
Γ 454
п@@ 454
بن 454
bind@@ 453
integr@@ 451
Ľ@@ 451
ị 451
ⵓ@@ 451
tions@@ 450
） 450
dire@@ 449
kuh@@ 449
ц 449
ვ@@ 448
≠ 448
新@@ 448
II. 447
có@@ 446
while 446
aría 445
د 445
ʂ@@ 443
bila 442
edil@@ 442
who@@ 442
İn@@ 442
ǒ@@ 442
Lý 441
ayı 440
о 439
高@@ 439
grund 438
yük 438
zeit 438
Á 438
Ü 438
ŭ@@ 438
не@@ 438
北@@ 438
mek 437
altung 436
ո@@ 436
Gemein@@ 435
ش@@ 435
ṛ@@ 435
Ма@@ 434
deutsch@@ 433
ilim@@ 433
phong 433
本@@ 433
organiz@@ 432
ό@@ 432
ж@@ 431
ία 430
По@@ 430
во@@ 430
م@@ 430
， 430
ἐ@@ 429
Forsch@@ 428
õ 428
ـ@@ 428
Ṣ@@ 428
şehir 427
Ι@@ 427
太@@ 427
ilen 426
October 425
hadi 425
keit 425
Châu 424
with@@ 424
̯ 424
უ@@ 424
energ@@ 422
υ@@ 422
이@@ 422
Hà 421
小@@ 421
differ@@ 420
verw@@ 420
ма@@ 420
ア@@ 420
lere 419
ñ 419
х@@ 419
Por 418
ά@@ 418
ịnh 418
文@@ 418
王 417
iş@@ 416
ى 416
東@@ 416
egem@@ 415
ingia 415
το@@ 415
ων 412
uç@@ 411
öne@@ 411
ű@@ 411
ρος 411
mej@@ 410
zeh@@ 410
Auf 408
waz@@ 408
father 407
örd@@ 407
kuz@@ 406
àng 406
ů 406
国@@ 406
Kif@@ 405
د@@ 405
based 404
nú@@ 403
ру@@ 402
ⵜ@@ 402
pek@@ 401
ài 401
ج@@ 400
nde@@ 399
uvo 399
äu@@ 399
ρι@@ 399
biy@@ 398
ت@@ 398
guerra 397
still 397
ан@@ 397
Β@@ 396
日@@ 396
Haup@@ 395
Н@@ 395
≡ 395
erung 394
א 394
yao 393
ình 393
ե@@ 392
リ@@ 392
besch@@ 391
ihe 391
koa 390
Adem@@ 389
prak@@ 389
Ağ@@ 388
ان 388
Eine 387
community 387
faz@@ 387
ế 387
during 386
ɪ@@ 386
де@@ 386
abab@@ 385
köy 385
თ@@ 385
ái 384
у 384
those 383
ehir 382
ismus 382
near 382
verk@@ 382
İstanbul 382
family 381
● 381
ämp@@ 380
Во@@ 380
ー 380
ofu 379
risto 379
ξ 379
ник 379
上@@ 379
Grenz@@ 378
más 378
erste 377
next 377
onya 377
separ@@ 377
duk@@ 376
Со@@ 376
♯ 376
州 376
Mundial 375
trieb@@ 375
ɨ@@ 375
Я@@ 375
ال@@ 375
encias 374
út@@ 374
İz@@ 374
ная 374
Ende 373
also 373
sehen 373
ف@@ 373
安@@ 373
水@@ 373
ṅ@@ 372
ogle 371
че@@ 371
ז@@ 371
como 370
soll 370
Å 370
trä@@ 369
э@@ 369
Weit@@ 368
Ф@@ 368
ен@@ 368
anay@@ 367
such 367
Ν@@ 367
στ@@ 367
Nga 366
sö@@ 366
人 366
wegen 365
η@@ 365
神@@ 365
November 364
ikia 364
за@@ 364
武@@ 364
ebil@@ 363
áp 362
ар@@ 362
Rück@@ 361
бо@@ 361
ти@@ 361
ز@@ 361
ン 361
До@@ 360
ё@@ 360
century 359
ŋ 359
ُ@@ 359
greso 358
historia 358
mayor 358
ticos 358
ⵔ@@ 358
cao 357
dado 357
Đức 357
ва@@ 357
ֹ@@ 357
Anf@@ 356
akt@@ 356
cambi@@ 356
ĩnh 356
ɨ 356
道@@ 356
aç 355
ικ@@ 355
οι 355
ト@@ 355
ız@@ 354
dung 353
urch 353
ков@@ 353
hata 352
се@@ 352
Thái 351
amente 351
kuf@@ 351
µ 351
klär@@ 350
Λ 350
ḫ@@ 350
kiş@@ 348
ustos 348
siy@@ 347
would 347
yeri 347
óng 347
bajo 346
pili 346
ƒ 346
Fahr@@ 345
muj@@ 345
wissen@@ 345
weit 344
amii 343
around 343
grub@@ 343
yü@@ 343
® 343
ца 343
aged 342
fand 342
women 342
น@@ 342
် 342
ellos 341
kehr@@ 341
̱ 341
ا 341
ク@@ 341
Akad@@ 340
Hindi 340
Türk@@ 340
ŏ 340
г 340
да 340
محمد 340
ṭ 340
Kirche 339
found 339
sich 339
да@@ 339
сь@@ 339
Ò@@ 338
На@@ 338
ῶ@@ 338
idades 337
σι@@ 337
ủ 337
Ἀ@@ 337
ῖ@@ 337
scheid@@ 336
¿ 336
⋅ 336
五@@ 336
道 336
haber 335
ⵏ@@ 335
十@@ 335
Ø 334
̂ 334
ο 334
Бе@@ 334
gran 333
without 333
Ми@@ 333
aifa 332
κα@@ 332
ℓ 332
田@@ 332
Besch@@ 331
weng@@ 331
τος 331
Ле@@ 331
бе@@ 331
со@@ 331
國@@ 331
Nha 330
both 330
uwe@@ 330
Л@@ 330
平@@ 330
ieren 329
zey@@ 329
της 329
ми@@ 329
ტ@@ 329
ⵙ@@ 329
khu 328
城@@ 328
ously 327
señ@@ 327
zentr@@ 327
seph 326
αν@@ 326
Ж@@ 326
ajes 325
та@@ 325
خ@@ 325
oyun@@ 324
öst@@ 324
ص@@ 324
beit 323
ба@@ 323
人@@ 323
vai 322
ép 322
đi@@ 322
unden 321
Φ 321
нович 321
auti 320
çi 320
ﬁ@@ 320
ն@@ 319
eyal@@ 318
jeres 318
member 318
obra 318
úc 318
İs@@ 318
̌ 318
ն 318
before 317
ded@@ 317
five 317
otball 317
ев@@ 316
ер@@ 316
habitantes 315
said 315
wango 315
Γ@@ 315
έ@@ 315
Ра@@ 315
ги@@ 315
Hòa 314
aşa 314
minh 314
species 314
си@@ 314
、 314
김@@ 313
December 312
Dương 312
ası 312
Tân 311
Uganda 311
between 311
early 311
pata 311
ände 311
公@@ 311
Durante 310
Tây 310
huy 310
menos 310
ológ@@ 310
program 310
ución 310
öster@@ 310
ŵ@@ 310
ʁ@@ 310
то@@ 310
白@@ 310
Mannschaft 309
Trung 309
ы 309
ة 309
シ@@ 309
之@@ 309
defin@@ 308
ή 308
ра 308
ի@@ 308
given 306
Α 306
га@@ 306
タ@@ 306
día 305
inay@@ 305
江@@ 305
Hoàng 304
̈ 304
Са@@ 304
ología 303
ב 303
ر 303
ា@@ 303
ⵜ 303
寺 303
duy 302
ɡ@@ 302
ʃ 302
españ@@ 301
êm 301
development 300
propi@@ 300
­ 300
أ@@ 300
amiento 299
ας 299
Guinea 298
thay 298
zeich@@ 298
đ 298
ẓ@@ 298
ently 297
materi@@ 297
Ħ@@ 297
са@@ 297
tete 296
ا@@ 296
გ@@ 296
Zus@@ 295
formed 295
ätz@@ 295
poder 294
television 294
Александ@@ 294
ль 294
城 294
自@@ 294
ùng 293
па@@ 293
vard@@ 292
ד 292
ა 292
some@@ 291
Baş@@ 290
ат@@ 290
ბ@@ 290
jini 289
lü@@ 289
zug@@ 289
те@@ 289
і 289
huri 288
lte 288
mev@@ 288
unos 288
üler 288
ски 288
و 288
Tuy 287
zeu@@ 287
А 287
against 286
có 286
ohne 286
Ж 286
ки 286
та 286
ط@@ 286
∪ 286
Hải 285
ρο@@ 285
би@@ 285
нов 285
را@@ 285
onship 284
ジ@@ 284
Mit 283
¼ 283
َ 283
র@@ 283
empe@@ 282
ıy@@ 282
ường 282
ি@@ 282
ს 282
Hồ 281
iliy@@ 281
rar 281
Ï@@ 281
ʰ@@ 281
ⴷ@@ 281
的@@ 281
Ə@@ 280
Х@@ 280
чи@@ 280
ֵ@@ 280
ロ@@ 280
Kilom@@ 279
independ@@ 279
ę 279
ʲ@@ 279
Φ@@ 279
Ру@@ 279
ὶ 278
。 278
明@@ 278
ganda 277
kush@@ 277
language 277
these 277
tiki 277
林@@ 277
ográ@@ 276
pueblo 276
ų 276
Χ@@ 276
დ@@ 276
esine 275
ích 275
マ@@ 275
wanza 274
sind 273
écn@@ 273
ξ@@ 273
ля@@ 273
フ@@ 273
wür@@ 272
ια 272
ни 272
ện 272
《 272
》 272
hasa 271
Ṭ@@ 271
Juli 270
follow@@ 270
üf@@ 270
Го@@ 270
ница 270
√ 270
家@@ 270
represent@@ 269
ει@@ 269
ispi@@ 268
schaft@@ 268
ército 268
র 268
ⴰ 268
京@@ 268
Jahr@@ 267
kila 267
segu@@ 267
Ī@@ 267
ʒ@@ 267
ново 267
stellung 266
º@@ 266
¥ 265
сто@@ 265
រ@@ 265
ⵢ@@ 265
afir@@ 264
ŋ@@ 264
Ба@@ 264
icios 263
wali@@ 263
¾ 263
Ку@@ 263
Ч@@ 263
ї@@ 263
Се@@ 262
osos 261
lichkeit 260
reduc@@ 260
社 260
elimin@@ 259
lili@@ 259
uş@@ 259
άν@@ 259
ме@@ 259
الم@@ 259
و@@ 259
和@@ 259
河@@ 259
Yeni 258
could 258
sett@@ 258
ız 258
ب 258
い@@ 258
四@@ 258
held 257
ķ@@ 257
ή@@ 257
einem 256
xem 256
га 256
น 256
Bahari 255
umri 255
Влади@@ 255
ш 255
ǎ 254
ব@@ 254
ু@@ 254
ง@@ 254
inici@@ 253
nun 253
石@@ 253
Cộng 252
Kır@@ 252
alik@@ 252
ersten 252
üş@@ 252
ρα@@ 252
з 252
ⴱ@@ 252
dete 251
ilik 251
ticas 251
Ро@@ 251
レ@@ 251
劉@@ 251
experi@@ 250
tainment 250
ɲ@@ 250
не 250
不@@ 250
biri 249
conoc@@ 249
dows 249
ları 249
xico 249
¬ 249
ɑ 249
ор@@ 249
ւ@@ 249
地@@ 249
much 248
μα 248
ли 248
յ@@ 248
م 248
antigu@@ 247
Ви@@ 247
張@@ 247
대@@ 247
áo 246
ὐ@@ 246
arbeit@@ 245
òn 245
ст@@ 245
ו 245
Unidos 244
Мо@@ 244
За@@ 243
ম@@ 243
durch 242
geg@@ 242
tlich 242
Ан@@ 242
Па@@ 242
ল@@ 242
় 242
Ġ@@ 241
ɕ@@ 241
Пет@@ 241
ин@@ 241
ل 241
ม@@ 241
wech@@ 240
yük@@ 240
óa 240
öß@@ 240
ев 240
الح@@ 240
া 240
Quốc 239
being 239
north 239
osto 239
woh@@ 239
ав@@ 239
кий 239
ׁ@@ 239
alten 238
alı 238
ъ 238
الع@@ 238
ῆ@@ 238
№ 238
ⴻ@@ 237
deci@@ 236
ically 236
include 236
̣ 236
Алек@@ 236
ф@@ 236
Kön@@ 235
biet 235
ου@@ 235
ド@@ 235
baş@@ 234
familia 234
̩ 234
Ρ@@ 234
Paşa 233
acto 233
uyên 233
ɣ@@ 233
αλ@@ 233
Но@@ 233
мир 233
хо@@ 233
ǧ@@ 232
ч 232
ֶ@@ 232
ọc 232
oğ@@ 231
trag 231
vek@@ 231
ки@@ 231
ков 231
ров@@ 231
عبد 231
า@@ 231
Als 230
dır@@ 230
engine 230
ᵉ 230
八@@ 230
Bắc 229
òng 229
üz 229
̍ 229
х 229
ше@@ 229
ℕ 229
Thành 228
lagen 228
oría 228
present 228
pueb@@ 228
ım@@ 228
ル 228
20. 227
caso 227
üne 227
elten 226
mch@@ 226
ách 226
◄ 226
kent@@ 225
lerini 225
Đ 225
ɑ@@ 225
ζ@@ 225
ское 225
غ@@ 225
coi 224
haup@@ 224
Ва@@ 224
კ@@ 224
ạc 224
ehir@@ 223
junto 223
Ш@@ 223
ت 223
fäl@@ 222
ق 222
ḳ@@ 222
伊@@ 222
元@@ 222
法@@ 222
Bere@@ 221
mayo 221
Гор@@ 221
二@@ 221
有@@ 221
Proz@@ 220
tä@@ 220
ăng 220
س 220
elected 219
gün 219
muerte 219
ận 219
Ð@@ 218
об@@ 218
ска 218
Ω@@ 217
ạm 217
alre@@ 216
liği 216
wirt@@ 216
ĭ@@ 216
ма 216
пе@@ 216
ần 216
川@@ 216
族@@ 216
season 215
óc 215
ʼ 215
ก@@ 215
ṯ@@ 215
ῦ@@ 215
正@@ 215
19. 214
Janu@@ 214
治@@ 214
kij@@ 213
ũ 213
～ 213
Θ@@ 212
αρ@@ 212
С 212
ス 212
民@@ 212
花@@ 212
Amerika 211
categ@@ 211
irse 211
ου 211
ّ@@ 211
க@@ 211
东@@ 211
Für 210
unzi 210
© 210
êu 210
ʿ 210
Ю@@ 210
カ@@ 210
Jahre 209
medio 209
ί 209
ло 209
January 208
gek@@ 208
llev@@ 208
voll@@ 208
ıl 208
ελ@@ 208
ხ@@ 208
║ 208
ⵣ@@ 208
バ@@ 208
学@@ 208
atika 207
kül@@ 207
ন@@ 207
清@@ 207
government 206
sao 206
нов@@ 206
children 205
nying@@ 205
ţ 205
Де@@ 205
な@@ 205
馬@@ 205
ª 204
光@@ 204
14. 203
edrich 203
esini 203
otros 203
Í 203
ġ 203
Ō 203
ש 203
ến 203
木@@ 203
υ 202
ку@@ 202
ọ 202
awala 201
centro 201
meister@@ 201
πο@@ 201
♰ 201
会@@ 201
古@@ 201
村 201
ít 200
Đi@@ 200
ɾ@@ 200
ψ@@ 200
О 200
ний 200
ار 200
か@@ 200
真@@ 200
Công 199
Türkiye 199
sitz@@ 199
third 199
ду@@ 199
গ@@ 199
ạng 199
テ@@ 199
phân 198
Ǧ@@ 198
Ме@@ 198
百@@ 198
kann 197
Пе@@ 197
إ@@ 197
⊕ 197
女@@ 197
州@@ 197
̤ 196
് 196
ṣ 196
ất 196
イ 196
ived 195
ĕ@@ 195
̥ 195
Β 195
Π 195
ف 195
型 195
Sie 194
aße 194
änge 194
ού@@ 194
দ@@ 194
式@@ 194
皇@@ 194
阿@@ 194
са 193
พ@@ 193
方@@ 193
정@@ 193
ağı 192
ק 192
ري@@ 192
ா@@ 192
‚ 192
美@@ 192
äre 191
úbl@@ 191
ατ@@ 191
ста@@ 191
ъ@@ 191
ע 191
़ 191
帝 191
̲ 190
ю@@ 190
し@@ 190
陳@@ 190
13. 189
interpret@@ 189
provincia 189
resul@@ 189
ßen@@ 189
Υ@@ 189
μα@@ 189
migu@@ 188
İl@@ 188
長@@ 188
declar@@ 187
political 187
Ве@@ 187
ἰ@@ 187
中国@@ 187
16. 186
Sau 186
kuli@@ 186
ış 186
↑ 186
玉@@ 186
ordu 185
signed 185
ǫ@@ 185
ερ@@ 185
الش@@ 185
ḏ@@ 185
ῦ 185
キ@@ 185
我@@ 185
郎 185
Jahr 184
gez@@ 184
leich 184
timm@@ 184
zeit@@ 184
Не@@ 184
лу@@ 184
Parlam@@ 183
ασ@@ 183
τι@@ 183
В 183
ал@@ 183
স@@ 183
ト 183
ナ@@ 183
九@@ 183
無@@ 183
院 183
kuna 182
ʰ 182
Бу@@ 182
الق@@ 182
ე 182
と@@ 182
コ@@ 182
通@@ 182
15. 181
ск@@ 181
ю 181
ع 181
ქ@@ 181
지@@ 181
arı 180
mang 180
να@@ 180
ско 180
প@@ 180
andere 179
ased 179
ihm 179
ى@@ 179
ܐ 179
∧ 179
た@@ 179
福@@ 179
competi@@ 178
за 178
野@@ 178
recog@@ 177
ű 177
Му@@ 177
рий 177
ἄ@@ 177
ⵄ@@ 177
ん@@ 177
パ@@ 177
青@@ 177
사@@ 177
ición 176
Ар@@ 176
ге@@ 176
ية 176
ی 176
原@@ 176
島 176
華@@ 176
ió 175
resid@@ 175
result@@ 175
ũng 175
̓ 175
ον@@ 175
Миха@@ 175
Э 175
ⵡ@@ 175
い 175
会 175
永@@ 175
another 174
ưng 174
ши@@ 174
الله 174
ক@@ 174
周@@ 174
生 174
皇 174
umani 173
λα@@ 173
ィ@@ 173
物@@ 173
生@@ 173
cuer@@ 172
λι@@ 172
ώ@@ 172
Ива@@ 172
пу@@ 172
ِ 172
龍@@ 172
kez@@ 171
Ä 171
αι@@ 171
όν@@ 171
То@@ 171
щи@@ 171
世@@ 171
镇 171
änder@@ 170
Ž 170
λλ@@ 170
И 170
შ@@ 170
‌ 170
七@@ 170
經 170
Güney 169
director 169
ܝ@@ 169
த@@ 169
ὸ@@ 169
‡ 169
一 169
愛@@ 169
黄@@ 169
Menschen 168
since 168
uzak@@ 168
àu 168
ũ@@ 168
αγ@@ 168
Васи@@ 168
К 168
سي@@ 168
한@@ 168
ección 167
otro 167
Đông 167
τα@@ 167
Об@@ 167
اب@@ 167
ار@@ 167
ền 167
年@@ 167
abei 166
¨ 166
Ķ@@ 166
αυ@@ 166
ி@@ 166
ャ@@ 166
春@@ 166
terior 165
Η@@ 165
Си@@ 165
‒ 165
ⵉ 165
星@@ 165
田 165
aliye@@ 164
nuevo 164
poco 164
ucu 164
ρί@@ 164
տ@@ 164
دي 164
رو@@ 164
ウ@@ 164
門 164
Machi 163
different 163
über@@ 163
ακ@@ 163
ит@@ 163
ết 163
台@@ 163
黃@@ 163
ambao 162
bierno 162
esab@@ 162
largo 162
much@@ 162
ŭ 162
ча@@ 162
الك@@ 162
る 162
Meter 161
haa 161
wenda 161
̪ 161
пи@@ 161
ър@@ 161
⟩ 161
德@@ 161
空@@ 161
govern@@ 160
maji 160
popular 160
ydi 160
εν@@ 160
Ки@@ 160
бу@@ 160
ния 160
ش 160
แ@@ 160
オ@@ 160
neue 159
ʔ@@ 159
ство 159
ْ 159
合@@ 159
appear@@ 158
ȝ@@ 158
ين 158
香@@ 158
ciudad 157
endet 157
español 157
julio 157
nda 157
tischen 157
todo 157
written 157
÷ 157
ģ@@ 157
կ@@ 157
ạch 157
∂ 157
成@@ 157
藤@@ 157
khai 156
zaman 156
ơ 156
ιος 156
ذ@@ 156
າ@@ 156
ạnh 156
チ@@ 156
allow@@ 155
llam@@ 155
tiempo 155
ĝ@@ 155
ĩ 155
Да@@ 155
Ре@@ 155
гу@@ 155
ย@@ 155
河 155
구@@ 155
Maji 154
consider@@ 154
inah@@ 154
padre 154
sahi@@ 154
tener 154
wird 154
Га@@ 154
り@@ 154
六@@ 154
Durch@@ 153
Juni 153
Θ 153
όν 153
صر 153
ộc 153
⁰ 153
り 153
エ@@ 153
グ@@ 153
デ@@ 153
oldu 152
ƒ@@ 152
Ψ 152
δι@@ 152
Про@@ 152
ẵ@@ 152
∘ 152
∩ 152
ま@@ 152
氏 152
akini 151
του 151
он@@ 151
ন 151
■ 151
心@@ 151
Kwa 150
duy@@ 150
präs@@ 150
quy@@ 150
Η 150
وَ@@ 150
プ@@ 150
Cumhuriy@@ 149
beit@@ 149
gegen 149
zuri 149
ôi 149
ʐ@@ 149
ʒ 149
ро 149
ⴳ@@ 149
少@@ 149
гор@@ 148
же@@ 148
ур@@ 148
ци@@ 148
، 148
ு@@ 148
ช@@ 148
名@@ 148
determin@@ 147
enek@@ 147
linal@@ 147
ommen 147
Мар@@ 147
лов@@ 147
ܘ@@ 147
ม 147
ὁ 147
サ@@ 147
公司 147
松@@ 147
acı 146
complet@@ 146
eneo 146
sión 146
̧ 146
ри 146
ров 146
ح 146
ⴼ@@ 146
ブ@@ 146
堂 146
letz@@ 145
música 145
prepar@@ 145
àm 145
ɪ 145
έν@@ 145
ض@@ 145
ُ 145
ی@@ 145
› 145
軍 145
17. 144
Thiên 144
ammen@@ 144
nueva 144
unid@@ 144
và 144
vì 144
within 144
Æ 144
ες 144
Та@@ 144
Чер@@ 144
зо@@ 144
য 144
ว@@ 144
ც@@ 144
ổ 144
江 144
法 144
都@@ 144
atao 143
inglés 143
ği 143
άκ@@ 143
κλ@@ 143
τα 143
Ста@@ 143
Я 143
му@@ 143
њ@@ 143
ام@@ 143
ان@@ 143
پ@@ 143
ར@@ 143
‹ 143
∅ 143
市 143
because 142
drit@@ 142
nete 142
Â 142
ική 142
λε@@ 142
οφ@@ 142
ное 142
زي@@ 142
نا@@ 142
ក@@ 142
⊗ 142
平 142
行@@ 142
阳@@ 142
dass 141
pequ@@ 141
б 141
ня 141
ك 141
さ@@ 141
千@@ 141
文 141
月@@ 141
18. 140
lü 140
̠ 140
У 140
зе@@ 140
лен@@ 140
лю@@ 140
الأ@@ 140
ن 140
⟨ 140
に@@ 140
る@@ 140
박@@ 140
ABD 139
Produk@@ 139
among 139
personal 139
wieder 139
ʊ@@ 139
θος 139
ϐ@@ 139
Су@@ 139
ет@@ 139
мен@@ 139
ные 139
↦ 139
」 139
ん 139
ダ@@ 139
楊@@ 139
Irel@@ 138
fuer@@ 138
hombres 138
Ни@@ 138
ха@@ 138
це 138
ս@@ 138
ور 138
「 138
asili 137
tesi 137
ην@@ 137
ις 137
παρ@@ 137
ба 137
մ@@ 137
ون 137
ុ@@ 137
ự 137
ク 137
下@@ 137
工@@ 137
海 137
wohl 136
Ā 136
ȝ 136
΄ 136
ών 136
Ј@@ 136
بي@@ 136
گ@@ 136
ก 136
ṯ 136
お@@ 136
ミ@@ 136
全@@ 136
张@@ 136
記 136
einz@@ 135
kommen 135
setz@@ 135
ɓ@@ 135
μέ@@ 135
τρ@@ 135
Укра@@ 135
вица 135
ди 135
الس@@ 135
स 135
⊂ 135
ニ@@ 135
神 135
Tanzania 134
vuel@@ 134
zös@@ 134
È 134
Š 134
να 134
ле 134
أبو 134
त 134
ო 134
ệu 134
う@@ 134
国 134
家 134
立@@ 134
部@@ 134
陽@@ 134
리 134
Kanada 133
emente 133
rund 133
south 133
wao 133
ʷ@@ 133
ιν@@ 133
ομ@@ 133
Сте@@ 133
ря@@ 133
сти@@ 133
اد@@ 133
ร 133
პ@@ 133
ạt 133
き@@ 133
Agosti 132
called 132
días 132
east 132
Ε 132
θε@@ 132
ј 132
Ա@@ 132
في 132
ส@@ 132
ძ@@ 132
Ἰ@@ 132
こ@@ 132
hệ 131
iriki 131
жи@@ 131
су@@ 131
то 131
ะ@@ 131
አ@@ 131
Ḫ@@ 131
あ@@ 131
天 131
漢@@ 131
軍@@ 131
está 130
unkt 130
Θε@@ 130
ά 130
άλ@@ 130
ρά@@ 130
из@@ 130
лов 130
ние 130
ạo 130
ắ@@ 130
∨ 130
が@@ 130
く@@ 130
ビ@@ 130
港@@ 130
hiệu 129
Õ@@ 129
ос@@ 129
ի 129
اس@@ 129
र 129
ে@@ 129
代@@ 129
明 129
潜@@ 129
龙@@ 129
동@@ 129
Familie 128
dió 128
mito 128
tü@@ 128
ulus@@ 128
ßer@@ 128
ⵔ 128
景@@ 128
朱@@ 128
社@@ 128
花 128
수@@ 128
ıt 127
ρα 127
Ду@@ 127
стро@@ 127
مو@@ 127
ர@@ 127
อ@@ 127
ệ 127
♥ 127
ュ@@ 127
建@@ 127
ately 126
̞ 126
Ν 126
фа@@ 126
خان 126
مان 126
ப@@ 126
ต@@ 126
ស@@ 126
ằng 126
ⵃ@@ 126
主@@ 126
大 126
教@@ 126
村@@ 126
alidad 125
kiye 125
partamento 125
ĭ 125
Гри@@ 125
вет@@ 125
با@@ 125
لي@@ 125
ོ@@ 125
ỳ@@ 125
ὑ@@ 125
♂ 125
唐@@ 125
株@@ 125
alipo@@ 124
allem 124
debut 124
Ē@@ 124
ʁ 124
Ла@@ 124
го 124
кова 124
лы@@ 124
про@@ 124
ח 124
ག@@ 124
ἔ@@ 124
⁄ 124
∆ 124
♀ 124
會 124
아@@ 124
celebr@@ 123
çı 123
Ά@@ 123
ολ@@ 123
Те@@ 123
Че@@ 123
ной 123
لا@@ 123
म 123
ਾ@@ 123
宗@@ 123
行 123
門@@ 123
ıs@@ 122
ước 122
ʷ 122
الن@@ 122
고@@ 122
이 122
acional 121
aliza 121
ìn 121
ính 121
σα 121
ων@@ 121
Нико@@ 121
аль@@ 121
миро@@ 121
الج@@ 121
ک@@ 121
জ@@ 121
ὰ 121
英@@ 121
草@@ 121
部 121
陽 121
Gebiet 120
Hội 120
Nach 120
died 120
gebiet 120
¢ 120
äß@@ 120
̆ 120
κο@@ 120
П 120
п 120
ша 120
ด@@ 120
ấn 120
┬ 120
宗 120
後@@ 120
국@@ 120
ationen 119
kte 119
üçük 119
ľ 119
έρ@@ 119
Пре@@ 119
ские 119
ще 119
ج 119
مَ@@ 119
چ@@ 119
म@@ 119
ョ@@ 119
里@@ 119
陈@@ 119
sü@@ 118
ǒ 118
ʲ 118
ής 118
ισ@@ 118
М 118
آ@@ 118
ত@@ 118
大学 118
encu@@ 117
few 117
though 117
Ď@@ 117
ʊ 117
ʽ@@ 117
ικός 117
ского 117
те 117
Հ@@ 117
ס 117
เ@@ 117
ら@@ 117
ァ@@ 117
ガ@@ 117
ド 117
士 117
外@@ 117
館 117
incre@@ 116
̇ 116
αμ@@ 116
εία 116
Серге@@ 116
э 116
ך 116
َّ@@ 116
ち@@ 116
仁 116
吉@@ 116
手@@ 116
리@@ 116
학@@ 116
Ort 115
Н 115
ту@@ 115
モ@@ 115
井@@ 115
博@@ 115
義@@ 115
路 115
기@@ 115
성@@ 115
ildi 114
neces@@ 114
tanto 114
άρ@@ 114
І@@ 114
ран@@ 114
род@@ 114
ской 114
င 114
ზ@@ 114
Ḳ@@ 114
ải 114
₁ 114
₂ 114
™ 114
ズ 114
华@@ 114
市@@ 114
政@@ 114
重@@ 114
도 114
신@@ 114
Kilometer 113
punkt 113
ɐ 113
ίας 113
сты@@ 113
ть 113
це@@ 113
Ἐ@@ 113
┌ 113
ⴷ 113
原 113
canción 112
daki 112
fte 112
lý 112
nhi@@ 112
Ú 112
Ι 112
δρ@@ 112
Андре@@ 112
ст 112
լ@@ 112
ไ@@ 112
ục 112
⇔ 112
ハ@@ 112
夫 112
安 112
戦@@ 112
interpre@@ 111
mehr@@ 111
period 111
þ 111
Ο 111
σκ@@ 111
слав 111
ция 111
จ@@ 111
ท@@ 111
ạ 111
ữu 111
ⵓ 111
ⵙ 111
민@@ 111
주@@ 111
Cuando 110
February 110
trieb 110
Ï 110
üre@@ 110
ʔ 110
λόγ@@ 110
Ли@@ 110
мит@@ 110
ти 110
بر@@ 110
بن@@ 110
ير 110
ầu 110
ὀ@@ 110
ⴽ@@ 110
化@@ 110
川 110
awali 109
ihn 109
jiji 109
zäh@@ 109
ünden 109
ħ 109
ɣ 109
άρι@@ 109
При@@ 109
Сер@@ 109
вя@@ 109
по 109
يد 109
अ@@ 109
ச@@ 109
ย 109
า 109
ម 109
は@@ 109
島@@ 109
語 109
heute 108
Υ 108
бро@@ 108
зи@@ 108
хи@@ 108
ܕ@@ 108
द 108
ো@@ 108
வ@@ 108
ḍ 108
航@@ 108
艦 108
马@@ 108
ilç@@ 107
members 107
tionen 107
yali@@ 107
zwei 107
ública 107
Ев@@ 107
Иван 107
Ха@@ 107
ман 107
нова 107
ня@@ 107
ץ 107
أحمد 107
الت@@ 107
الد@@ 107
ܪ@@ 107
ศ@@ 107
█ 107
國 107
型@@ 107
字 107
孫@@ 107
是@@ 107
縣 107
의 107
조@@ 107
Gemeinde 106
endung 106
ually 106
Ло@@ 106
жа@@ 106
при@@ 106
ز 106
ما@@ 106
れ@@ 106
朝@@ 106
湖@@ 106
火@@ 106
胡@@ 106
长@@ 106
인@@ 106
kati 105
uvu 105
πι@@ 105
το 105
ля 105
ры@@ 105
чен@@ 105
رة 105
لَ@@ 105
مي@@ 105
وا@@ 105
হ@@ 105
ம@@ 105
ု@@ 105
ống 105
ボ@@ 105
定@@ 105
梁@@ 105
沙@@ 105
老@@ 105
교 105
anı 104
dır 104
folg@@ 104
große 104
Ç 104
Ë@@ 104
Гра@@ 104
Т 104
вер@@ 104
љ@@ 104
الخ@@ 104
ន@@ 104
​ 104
中 104
林 104
水 104
Khi 103
especi@@ 103
konn@@ 103
udur 103
äuf@@ 103
ίν@@ 103
Лу@@ 103
Лю@@ 103
сть 103
ט 103
علي 103
巴@@ 103
書 103
源@@ 103
羅@@ 103
스@@ 103
Dr. 102
Makala 102
cional 102
ieron 102
polí@@ 102
ǀ@@ 102
ευ@@ 102
ως 102
ны 102
ф 102
ابن 102
र@@ 102
ร@@ 102
็ 102
ာ@@ 102
∀ 102
ワ@@ 102
你@@ 102
cuar@@ 101
ierte 101
lık 101
obras 101
Ğ@@ 101
ˁ@@ 101
ορ@@ 101
Би@@ 101
Г 101
Никола@@ 101
ре 101
ско@@ 101
ша@@ 101
ਰ@@ 101
รั@@ 101
み@@ 101
ェ@@ 101
内@@ 101
字@@ 101
理@@ 101
谷@@ 101
超@@ 101
Nội 100
arded 100
iliz 100
todos 100
uyền 100
âu 100
̰ 100
ед@@ 100
лек@@ 100
си 100
ча 100
مر@@ 100
क 100
ế@@ 100
ệt 100
之 100
女 100
特@@ 100
術 100
限@@ 100
風@@ 100
기 100
나@@ 100
원 100
유@@ 100
Amerik@@ 99
Chuo 99
ambaye 99
frente 99
gelen 99
hasta 99
kazi 99
ư 99
Περ@@ 99
вая 99
мона@@ 99
сла@@ 99
стра@@ 99
ья 99
ү@@ 99
اِ@@ 99
در@@ 99
ܰ@@ 99
∙ 99
〜 99
っ@@ 99
も@@ 99
ノ@@ 99
ム@@ 99
史@@ 99
同@@ 99
志@@ 99
雲@@ 99
音@@ 99
우@@ 99
COVI@@ 98
cuatro 98
material 98
ŷ@@ 98
ʹ 98
με@@ 98
ό 98
Б 98
Росси@@ 98
ства 98
ات 98
ای@@ 98
من@@ 98
ور@@ 98
प 98
श 98
ง 98
ล@@ 98
メ@@ 98
土@@ 98
玄@@ 98
科@@ 98
趙@@ 98
郡 98
风@@ 98
경@@ 98
According 97
fiz@@ 97
ơn 97
ργ@@ 97
рина 97
ր 97
ام 97
ܡ@@ 97
བ@@ 97
ေ@@ 97
ម@@ 97
ℓ@@ 97
宮@@ 97
星 97
衛@@ 97
ihre 96
oloj@@ 96
ported 96
usawa 96
اء 96
بي 96
فر@@ 96
يم 96
ས 96
ṛ 96
ⵛ@@ 96
宮 96
普@@ 96
書@@ 96
校 96
bió 95
defe@@ 95
fue 95
oeste 95
απ@@ 95
Ал@@ 95
ден@@ 95
доро@@ 95
льный 95
ми 95
الر@@ 95
न 95
ང 95
ን@@ 95
ង 95
ラ 95
仁@@ 95
光 95
号 95
師 95
木 95
미@@ 95
Esta 94
eht 94
pobl@@ 94
ğr@@ 94
ˌ@@ 94
εύ@@ 94
Вла@@ 94
Р 94
Ша@@ 94
ж 94
ке@@ 94
нь 94
ນ@@ 94
て@@ 94
園 94
集@@ 94
龍 94
azini 93
chữ 93
cá 93
moja 93
ografía 93
schied@@ 93
stän@@ 93
μος 93
че 93
بو@@ 93
لو@@ 93
ფ@@ 93
ក 93
ὸ 93
保@@ 93
信@@ 93
利@@ 93
多@@ 93
徐@@ 93
第@@ 93
영@@ 93
During 92
ases@@ 92
denen 92
ecek 92
escri@@ 92
etzt 92
hakk@@ 92
país 92
prä@@ 92
quốc 92
released 92
tiem@@ 92
üç@@ 92
ış@@ 92
ŝ@@ 92
πρ@@ 92
ρε@@ 92
Констан@@ 92
ак@@ 92
дар@@ 92
нови@@ 92
لة 92
ک 92
ṃ 92
⅓ 92
广@@ 92
昌@@ 92
汉@@ 92
津@@ 92
durante 91
entw@@ 91
hizo 91
¦ 91
ılar 91
ŕ@@ 91
νης 91
πλ@@ 91
Кара@@ 91
Николай 91
Ор@@ 91
али@@ 91
ман@@ 91
ного 91
фи@@ 91
шо@@ 91
红@@ 91
Hồng 90
dür@@ 90
nte 90
tiene 90
until 90
ď 90
νη 90
Крас@@ 90
лий 90
он 90
ө@@ 90
الف@@ 90
سل@@ 90
مح@@ 90
ّ 90
ल 90
ড 90
ວ@@ 90
₹ 90
ⵖ@@ 90
宁@@ 90
通 90
雄 90
麻@@ 90
전@@ 90
ingana 89
schnit@@ 89
Üniversitesi 89
ċ 89
ǧ 89
ʑ@@ 89
άσ@@ 89
Ди@@ 89
ани 89
ף 89
مة 89
ட@@ 89
บ@@ 89
း@@ 89
⅔ 89
丁@@ 89
万@@ 89
夏@@ 89
帝@@ 89
志 89
音 89
산 89
상@@ 89
！ 89
Kỳ 88
actual 88
gör@@ 88
huko 88
kadar 88
Рес@@ 88
Сто@@ 88
Ти@@ 88
тан@@ 88
чу@@ 88
وي@@ 88
ܳ@@ 88
य 88
ḷ@@ 88
ỉ@@ 88
ị@@ 88
の 88
司@@ 88
吳@@ 88
嘉@@ 88
殿 88
美 88
보@@ 88
원@@ 88
하@@ 88
： 88
become 87
ίου 87
от@@ 87
ਿ@@ 87
ข@@ 87
ậu 87
ử 87
∑ 87
☉ 87
ツ@@ 87
交@@ 87
侯 87
元 87
廣@@ 87
御@@ 87
武 87
站 87
論 87
소@@ 87
화@@ 87
Bộ 86
Ligi 86
bildung 86
marri@@ 86
mà 86
partidos 86
ãi 86
önem@@ 86
ĉ@@ 86
οσ@@ 86
ών@@ 86
ато@@ 86
اد 86
ال 86
شا@@ 86
व@@ 86
ป@@ 86
ℵ 86
し 86
ム 86
作@@ 86
信 86
君 86
校@@ 86
공@@ 86
성 86
시@@ 86
grün@@ 85
haben 85
placed 85
και 85
Д 85
З 85
Фе@@ 85
ке 85
сте@@ 85
ә@@ 85
ג 85
ܐ@@ 85
್ 85
ิ@@ 85
ស 85
់ 85
ừa 85
ữ 85
∃ 85
≃ 85
ピ@@ 85
京 85
南 85
台 85
學@@ 85
年 85
tü 84
ızı 84
υρ@@ 84
град 84
دي@@ 84
ज 84
ད@@ 84
Ῥ@@ 84
つ@@ 84
を@@ 84
セ@@ 84
兴@@ 84
出@@ 84
口 84
和 84
士@@ 84
心 84
日 84
空 84
西 84
장@@ 84
Dân 83
gab 83
partam@@ 83
published 83
Ã 83
êng 83
Œ 83
μά@@ 83
των 83
Пи@@ 83
па 83
ֲ@@ 83
بل@@ 83
ث@@ 83
พระ@@ 83
መ@@ 83
う 83
け@@ 83
上 83
手 83
도@@ 83
서@@ 83
스 83
Vương 82
agosto 82
kır@@ 82
took 82
Ő@@ 82
Ɛ 82
˚ 82
εί@@ 82
οδ@@ 82
вый 82
ем@@ 82
кто@@ 82
сь 82
سع@@ 82
من 82
يا 82
ण 82
ำ@@ 82
⁣ 82
ア 82
下 82
人民@@ 82
前@@ 82
回@@ 82
石 82
集 82
電@@ 82
오@@ 82
besonder@@ 81
gobierno 81
hijo 81
nungen 81
ǃ@@ 81
ɒ@@ 81
̝ 81
Δι@@ 81
Ге@@ 81
Кар@@ 81
ата@@ 81
де 81
ных 81
шка 81
Մ@@ 81
اني 81
ورة 81
ী 81
สุ@@ 81
ỗ 81
ῥ@@ 81
♦ 81
口@@ 81
宝@@ 81
赤@@ 81
다 81
Trường 80
culos 80
ectos 80
ċ@@ 80
ĩ@@ 80
Ţ@@ 80
ǫ 80
πος 80
Ин@@ 80
Кон@@ 80
ге 80
нато@@ 80
рус@@ 80
се 80
тин 80
ье 80
الب@@ 80
ظ@@ 80
می@@ 80
ون@@ 80
रा@@ 80
জ 80
ী@@ 80
ਸ@@ 80
ိ@@ 80
で@@ 80
在@@ 80
常@@ 80
康@@ 80
德 80
思@@ 80
方 80
朝 80
義 80
聖@@ 80
강@@ 80
영 80
ﬂ@@ 80
häng@@ 79
Č 79
Ζ@@ 79
κος 79
λος 79
лица 79
пар@@ 79
публика 79
рав@@ 79
тра@@ 79
ха 79
գ@@ 79
ি 79
ན 79
ḫ 79
ᾶ@@ 79
〉 79
す@@ 79
事@@ 79
云@@ 79
何@@ 79
區 79
孝@@ 79
学 79
知@@ 79
路@@ 79
陵 79
韓@@ 79
마@@ 79
사 79
진@@ 79
toda 78
Ɔ 78
ɐ@@ 78
ˁ 78
Из@@ 78
Михаил 78
ви 78
лин@@ 78
лно 78
тар@@ 78
ղ@@ 78
ود 78
ล 78
ห@@ 78
อง@@ 78
က@@ 78
ὄ@@ 78
公 78
号@@ 78
峰 78
智@@ 78
良@@ 78
라@@ 78
Nhân 77
estado 77
often 77
sebe@@ 77
 77
άγ@@ 77
Вели@@ 77
Геор@@ 77
ан 77
ате@@ 77
чо@@ 77
վ@@ 77
الدين 77
ະ@@ 77
မ@@ 77
ḳ 77
〈 77
や@@ 77
丹@@ 77
佛@@ 77
如@@ 77
宋@@ 77
寶@@ 77
師@@ 77
昌 77
本 77
洋@@ 77
級@@ 77
馬 77
． 77
Jahren 76
así 76
mals 76
mujeres 76
taifa 76
undan 76
άς 76
γκ@@ 76
κύ@@ 76
τη@@ 76
τον 76
дов 76
кин 76
ръ@@ 76
сти 76
ري 76
ன 76
ம 76
นา@@ 76
ំ@@ 76
『 76
好@@ 76
清 76
장 76
Daha 75
dân 75
erst 75
französ@@ 75
gleich@@ 75
huwa 75
mittel@@ 75
named 75
siglo 75
̐ 75
αί@@ 75
μπ@@ 75
Пу@@ 75
йн 75
пол@@ 75
тов 75
ян@@ 75
є@@ 75
Ս@@ 75
ז 75
न@@ 75
চ@@ 75
শ@@ 75
ธ@@ 75
ี 75
ạn 75
ắc 75
ề@@ 75
ケ@@ 75
乡 75
兵@@ 75
富@@ 75
桂@@ 75
流 75
真 75
竹@@ 75
親@@ 75
言 75
那@@ 75
로@@ 75
호 75
Namen 74
St. 74
gön@@ 74
mehr 74
military 74
öğ@@ 74
̦ 74
̨ 74
λέ@@ 74
ве 74
ї 74
دار 74
عبد@@ 74
مل@@ 74
ني 74
هر 74
ັ@@ 74
ត 74
ិ@@ 74
ọng 74
ἱ@@ 74
‍ 74
ⵍ 74
き 74
仙@@ 74
史 74
宣@@ 74
左@@ 74
族 74
時@@ 74
梨 74
鄭@@ 74
가@@ 74
Hán 73
fútbol 73
halten 73
isini 73
releas@@ 73
vertr@@ 73
zao 73
ượng 73
αβ@@ 73
μαν@@ 73
χος 73
Гу@@ 73
кра@@ 73
ты 73
щ@@ 73
ъл@@ 73
اش@@ 73
ต 73
ུ@@ 73
ር@@ 73
ជ@@ 73
ប@@ 73
ới 73
⁴ 73
』 73
丸 73
場 73
春 73
萬@@ 73
葉@@ 73
越@@ 73
郭@@ 73
산@@ 73
주 73
igten 72
ngữ 72
ĩa 72
Ɛ@@ 72
μι@@ 72
ξι@@ 72
τερ@@ 72
τικ@@ 72
ϕ 72
Ши@@ 72
вой 72
лина 72
музе@@ 72
обо@@ 72
ска@@ 72
ђ@@ 72
اف@@ 72
دة 72
ند@@ 72
ग 72
් 72
ᠠ@@ 72
ṟ@@ 72
ẻ 72
ひ@@ 72
ベ@@ 72
克@@ 72
宇@@ 72
官@@ 72
府 72
樂@@ 72
機@@ 72
泰@@ 72
经 72
남@@ 72
문@@ 72
almente 71
Ê 71
ǚ 71
λογ@@ 71
Москов@@ 71
бра@@ 71
цы 71
чка 71
او@@ 71
ھ@@ 71
क@@ 71
ঞ 71
ল 71
ാ@@ 71
วั@@ 71
ื 71
တ@@ 71
ត@@ 71
ន 71
ồng 71
▪ 71
♠ 71
ポ@@ 71
二 71
所 71
电@@ 71
英 71
무@@ 71
수 71
윤@@ 71
Tras 70
emein@@ 70
kuto@@ 70
okana 70
students 70
toba 70
Ì@@ 70
ίδ@@ 70
αστ@@ 70
κου@@ 70
ώ 70
Чи@@ 70
гра@@ 70
ева 70
она@@ 70
пор@@ 70
фо@@ 70
դ@@ 70
مي 70
ە@@ 70
ர 70
ภ@@ 70
ว 70
ุ@@ 70
ပ@@ 70
ទ@@ 70
ều 70
ợi 70
∗ 70
ⵇ@@ 70
先@@ 70
刘@@ 70
成 70
球@@ 70
見@@ 70
어@@ 70
천@@ 70
최@@ 70
gesi 69
icklung 69
including 69
several 69
çek@@ 69
üş 69
Ş 69
̋ 69
οί 69
τέ@@ 69
зер@@ 69
мир@@ 69
сло@@ 69
الص@@ 69
وال@@ 69
ริ@@ 69
ห 69
ố@@ 69
ội 69
典 69
戦 69
會@@ 69
東 69
梅@@ 69
毛@@ 69
流@@ 69
興@@ 69
藏@@ 69
藤 69
野 69
陸@@ 69
駅 69
&apos;s 68
Jahrhunderts 68
dedic@@ 68
eleri 68
ität 68
lleg@@ 68
mji 68
played 68
ıcı 68
ɲ 68
ʎ 68
ˌ 68
̊ 68
περ@@ 68
όδ@@ 68
όλ@@ 68
Ри@@ 68
горо@@ 68
ден 68
ты@@ 68
حي@@ 68
في@@ 68
ி 68
ด 68
ደ@@ 68
↳ 68
∇ 68
═ 68
ウ 68
仲@@ 68
佐@@ 68
命 68
地 68
橋 68
祖 68
秦@@ 68
章 68
草 68
谷 68
隆@@ 68
Desde 67
Titel 67
bà 67
cü 67
iş 67
maye 67
ığ@@ 67
̭ 67
Νικ@@ 67
αθ@@ 67
ιλ@@ 67
Пер@@ 67
до 67
йский 67
лена 67
ск 67
لل@@ 67
ய@@ 67
ุ 67
Ἑ@@ 67
グ 67
了 67
吴@@ 67
商@@ 67
岛 67
条@@ 67
米@@ 67
開@@ 67
阳 67
Nisan 66
compet@@ 66
desde 66
gibt 66
kı 66
nchi 66
tober 66
ıs 66
ɡ 66
ɾ 66
ίσ@@ 66
πα@@ 66
τά@@ 66
όφ@@ 66
Ту@@ 66
кт 66
од@@ 66
թ@@ 66
ء 66
ول@@ 66
ܠ@@ 66
स@@ 66
จ 66
ญ@@ 66
ặng 66
よ@@ 66
体@@ 66
傳 66
友@@ 66
技@@ 66
歌 66
선@@ 66
아 66
해@@ 66
🇩 66
dentro 65
huu 65
ileri 65
ilir 65
schon 65
seit 65
theo 65
zwischen 65
εια 65
ιστ@@ 65
στο@@ 65
τη 65
Кра@@ 65
лна 65
рай@@ 65
тро@@ 65
հ@@ 65
سر@@ 65
द@@ 65
ਹ@@ 65
ລ@@ 65
ສ@@ 65
ས@@ 65
ẩm 65
ể 65
ồ 65
ソ@@ 65
善@@ 65
教 65
洪@@ 65
線 65
蘇@@ 65
街@@ 65
要@@ 65
解@@ 65
门@@ 65
飛@@ 65
선 65
전 65
현@@ 65
Ulus@@ 64
dù 64
giai 64
kez 64
sân 64
wili 64
İm@@ 64
δε@@ 64
πά@@ 64
τες 64
зна@@ 64
кая 64
слав@@ 64
ствен@@ 64
व 64
ष 64
ல@@ 64
წ@@ 64
រ 64
ḱ@@ 64
ụ 64
‎ 64
⊆ 64
♣ 64
え@@ 64
ら 64
乐@@ 64
歌@@ 64
甲@@ 64
華 64
雄@@ 64
魏@@ 64
일@@ 64
Liên 63
built 63
cerca 63
hát 63
ierung 63
married 63
política 63
ày 63
ört 63
Ė@@ 63
έλ@@ 63
ίων 63
κυ@@ 63
οι@@ 63
πολι@@ 63
προ@@ 63
σσ@@ 63
υπ@@ 63
φιλ@@ 63
Е 63
Ча@@ 63
ды 63
кла@@ 63
мо 63
обще@@ 63
рен@@ 63
рия 63
ры 63
фе@@ 63
ян 63
ئ@@ 63
ائ@@ 63
اس 63
انی 63
ເ@@ 63
ི@@ 63
ნ 63
ḯ@@ 63
ὴ 63
‧ 63
た 63
ギ@@ 63
可@@ 63
惠@@ 63
玉 63
相@@ 63
紅@@ 63
里 63
연@@ 63
태@@ 63
🇨 63
geord@@ 62
muy 62
ían 62
θέ@@ 62
σπ@@ 62
Жи@@ 62
Мал@@ 62
ван@@ 62
жен@@ 62
лен 62
лё@@ 62
ў@@ 62
ս 62
الز@@ 62
تا@@ 62
ܢ@@ 62
ग@@ 62
รา@@ 62
ོ 62
ྱ@@ 62
ရ@@ 62
ჯ@@ 62
ủy 62
‖ 62
み 62
ゲ@@ 62
ゴ@@ 62
勝@@ 62
后 62
园 62
场 62
基@@ 62
將@@ 62
屋@@ 62
月 62
机@@ 62
杨@@ 62
次@@ 62
浦@@ 62
直@@ 62
祖@@ 62
良 62
金 62
隊 62
雪@@ 62
양@@ 62
자@@ 62
희 62
Doğu 61
bağ@@ 61
ocup@@ 61
también 61
zili@@ 61
Ū@@ 61
ǁ@@ 61
καλ@@ 61
τί@@ 61
ари 61
вы@@ 61
государствен@@ 61
дин 61
рев@@ 61
санд@@ 61
ческий 61
ёт@@ 61
ات@@ 61
مع@@ 61
وم@@ 61
ين@@ 61
ক 61
མ@@ 61
ራ@@ 61
ⵕ@@ 61
共@@ 61
分@@ 61
區@@ 61
喜@@ 61
正 61
用@@ 61
目 61
秀@@ 61
章@@ 61
纸 61
苏@@ 61
銀@@ 61
국 61
－ 61
Büyük 60
enero 60
kuv@@ 60
kuwa 60
otras 60
presidente 60
uyện 60
ɕ 60
ρά 60
υσ@@ 60
Бело@@ 60
Л 60
Х 60
ек@@ 60
село 60
ׂ@@ 60
عي@@ 60
ܬ@@ 60
त@@ 60
प@@ 60
ี@@ 60
เล 60
ེ 60
ព@@ 60
ḱ 60
ⵊ@@ 60
ⵟ@@ 60
三 60
右@@ 60
后@@ 60
守@@ 60
沈@@ 60
湖 60
界@@ 60
研究@@ 60
秋@@ 60
育@@ 60
인 60
제@@ 60
Từ 59
began 59
gün@@ 59
kü 59
públ@@ 59
último 59
ıc@@ 59
άδ@@ 59
τυ@@ 59
φύ@@ 59
χρ@@ 59
όρος 59
Кри@@ 59
Ново@@ 59
ати@@ 59
вар@@ 59
дор 59
ера 59
лин 59
мор@@ 59
נ 59
بة 59
رض@@ 59
ضلع 59
يل 59
ܒ@@ 59
वा@@ 59
เกา@@ 59
ອ@@ 59
း 59
ღ@@ 59
ስ@@ 59
ẩn 59
ἑ@@ 59
∼ 59
ネ@@ 59
代 59
佐 59
修@@ 59
加@@ 59
北 59
君@@ 59
弘@@ 59
拉@@ 59
杜@@ 59
来@@ 59
氏@@ 59
派 59
虎@@ 59
話 59
頭 59
안@@ 59
Unternehmen 58
became 58
juu 58
ùa 58
İ 58
ŕ 58
ȟ@@ 58
Κα@@ 58
ηλ@@ 58
πρω@@ 58
υμ@@ 58
России 58
ги 58
им@@ 58
ктор 58
сы 58
ули@@ 58
ции 58
цо@@ 58
ър 58
الإ@@ 58
حسن 58
ست@@ 58
مُ@@ 58
य@@ 58
သ@@ 58
ប 58
ẓ 58
ệp 58
ử@@ 58
ὁ@@ 58
す 58
だ@@ 58
事 58
別@@ 58
命@@ 58
奇@@ 58
尚@@ 58
民 58
洲 58
町 58
能@@ 58
若@@ 58
陵@@ 58
부@@ 58
세@@ 58
여@@ 58
역 58
진 58
Jahrhundert 57
Müz@@ 57
acak 57
ambazo 57
elerin 57
jimbo 57
wany@@ 57
į 57
ɯ 57
ʀ 57
Ρ 57
δρο@@ 57
ηγ@@ 57
θη@@ 57
λά@@ 57
σία 57
ϰ@@ 57
Федера@@ 57
Хо@@ 57
ене@@ 57
ком@@ 57
мы@@ 57
сы@@ 57
ще@@ 57
الل@@ 57
نج@@ 57
ني@@ 57
هي 57
ول 57
ަ@@ 57
ड 57
ह@@ 57
য@@ 57
ณ 57
້ 57
། 57
လ@@ 57
ếu 57
ⲟ@@ 57
于@@ 57
井 57
央@@ 57
旗 57
紀@@ 57
車 57
dön@@ 56
neben 56
received 56
secu@@ 56
seiner 56
sinh 56
yeni 56
Ξ@@ 56
Παν@@ 56
έγ@@ 56
ίκ@@ 56
δο@@ 56
κά@@ 56
καν@@ 56
ους 56
τε@@ 56
Ком@@ 56
ать 56
мов 56
спе@@ 56
чи 56
қ@@ 56
الغ@@ 56
ث 56
دا@@ 56
رب 56
ـ 56
مش@@ 56
ट 56
ना@@ 56
ট@@ 56
ਿ 56
ู 56
ả 56
ἡ 56
く 56
ち 56
ズ@@ 56
ヤ@@ 56
功 56
孔@@ 56
尔@@ 56
岩@@ 56
忠@@ 56
念@@ 56
柳@@ 56
業@@ 56
牛@@ 56
術@@ 56
铁@@ 56
雅@@ 56
면 56
중@@ 56
Thế 55
carrera 55
hizi 55
äche 55
ĕ 55
į@@ 55
ǵ@@ 55
ɗ@@ 55
Φιλ@@ 55
ανδ@@ 55
γλ@@ 55
ιχ@@ 55
υγ@@ 55
όσ@@ 55
Боль@@ 55
Ф 55
рис 55
тре@@ 55
ё 55
رية 55
لي 55
وب@@ 55
দ 55
ਕ@@ 55
க 55
ு 55
ค@@ 55
ท 55
ผ@@ 55
ງ@@ 55
ማ@@ 55
ብ@@ 55
ት 55
ី@@ 55
ὕ@@ 55
主 55
以@@ 55
名 55
学院 55
寺@@ 55
我 55
无@@ 55
曹@@ 55
母 55
胜@@ 55
際@@ 55
鬼@@ 55
黒@@ 55
구 55
라 55
백@@ 55
Estados 54
Trong 54
atı 54
beim 54
dogo 54
idadi 54
ingine 54
keine 54
keiten 54
miş 54
ίλ@@ 54
υλ@@ 54
Щ@@ 54
дро@@ 54
жа 54
ников 54
рал 54
цер@@ 54
ּ 54
عة 54
لا 54
وسف 54
ਨ@@ 54
ੀ 54
ณ@@ 54
สม@@ 54
ལ 54
ល@@ 54
Ẓ@@ 54
ἶ@@ 54
ヴ@@ 54
丹 54
任@@ 54
摩@@ 54
易@@ 54
曲 54
的 54
等@@ 54
者 54
色@@ 54
間@@ 54
门 54
descri@@ 53
luss 53
tipo 53
vya 53
ıf@@ 53
şu 53
͠ 53
Χ 53
ει 53
εκ@@ 53
ησι@@ 53
καρ@@ 53
μφ@@ 53
Моск@@ 53
вен@@ 53
зу@@ 53
зы@@ 53
рец 53
պ@@ 53
جب@@ 53
رب@@ 53
شه@@ 53
مه@@ 53
ۇ@@ 53
ल@@ 53
ര@@ 53
วิ@@ 53
ู@@ 53
ກ@@ 53
ჩ@@ 53
ូ@@ 53
ḷ 53
ℱ 53
⊥ 53
ⲓ@@ 53
个@@ 53
乌@@ 53
伯@@ 53
力@@ 53
布@@ 53
經@@ 53
范@@ 53
酒 53
际@@ 53
승@@ 53
acción 52
acuer@@ 52
hielt 52
jwa 52
liko 52
punto 52
ây 52
ăn 52
αν 52
καθ@@ 52
λί@@ 52
ματα 52
μυ@@ 52
όρ@@ 52
Вол@@ 52
За 52
СССР 52
бер@@ 52
джи@@ 52
ите@@ 52
ность 52
тру@@ 52
уч@@ 52
ա 52
سة 52
سی@@ 52
ਮ@@ 52
ค 52
โ@@ 52
Ḍ@@ 52
ảnh 52
ẹ 52
ốn 52
♡ 52
じ@@ 52
て 52
今@@ 52
力 52
寿@@ 52
岡@@ 52
康 52
延@@ 52
徳@@ 52
情@@ 52
泉@@ 52
瑞@@ 52
省 52
罗@@ 52
蔡@@ 52
觀@@ 52
정 52
Kristo 51
Zusammen@@ 51
norte 51
üy@@ 51
ısı 51
ʀ@@ 51
ʻ 51
Κύ@@ 51
ικά 51
ιμ@@ 51
μεν@@ 51
Мак@@ 51
ду 51
ды@@ 51
жав@@ 51
лия 51
мя@@ 51
национа@@ 51
нин 51
от 51
ских 51
язы@@ 51
џ@@ 51
կ 51
ך@@ 51
جامعة 51
مص@@ 51
وس@@ 51
ܶ@@ 51
गु@@ 51
វ@@ 51
ột 51
ở 51
せ@@ 51
わ@@ 51
健@@ 51
半@@ 51
司 51
始@@ 51
居@@ 51
戰 51
新 51
来 51
治 51
火 51
目@@ 51
紫@@ 51
街 51
车 51
靈@@ 51
革@@ 51
香 51
광@@ 51
동 51
명@@ 51
지 51
Genel 50
Hàn 50
akter@@ 50
böl@@ 50
chí 50
ciud@@ 50
mayan 50
posición 50
temporada 50
waren 50
đi 50
Έ@@ 50
Κ 50
εφαλ@@ 50
ογ@@ 50
ρυ@@ 50
Ϲ 50
Все@@ 50
Димит@@ 50
Сан@@ 50
Шу@@ 50
бан@@ 50
бри@@ 50
вед@@ 50
вет 50
ган@@ 50
дия 50
дра@@ 50
дь@@ 50
же 50
нин@@ 50
از@@ 50
اه@@ 50
سن@@ 50
مد@@ 50
ު@@ 50
आ@@ 50
श@@ 50
ਤ@@ 50
ิ 50
ດ@@ 50
ນ 50
འ@@ 50
េ@@ 50
ật 50
ắng 50
伝@@ 50
域 50
店 50
影@@ 50
放@@ 50
灣@@ 50
物 50
経 50
臣 50
酒@@ 50
鐵@@ 50
魔@@ 50
자 50
현 50
Durch 49
casi 49
gegen@@ 49
großen 49
ihrer 49
imeh@@ 49
mesi 49
neuen 49
nước 49
sistema 49
sprech@@ 49
ständi@@ 49
tatu 49
tài 49
uncu 49
Û@@ 49
Ċ@@ 49
Ť@@ 49
ʌ@@ 49
Αν@@ 49
αδ@@ 49
βι@@ 49
εβ@@ 49
ρον@@ 49
ρω@@ 49
σφ@@ 49
όμ@@ 49
ван 49
вой@@ 49
еди@@ 49
мия 49
нии 49
свя@@ 49
ть@@ 49
اب 49
احمد 49
اله@@ 49
لال 49
ܫ@@ 49
ब 49
री 49
খ@@ 49
ി@@ 49
ེ@@ 49
យ@@ 49
ẖ@@ 49
ἴ@@ 49
か 49
コ 49
ツ 49
久@@ 49
向@@ 49
夫@@ 49
戰@@ 49
最@@ 49
松 49
森@@ 49
波@@ 49
溪@@ 49
经@@ 49
菩@@ 49
蒙@@ 49
话 49
黎@@ 49
당 49
비@@ 49
연 49
호@@ 49
？ 49
🇷 49
Präs@@ 48
anischen 48
crí@@ 48
frü@@ 48
having 48
lider@@ 48
sonr@@ 48
vô 48
worked 48
Ɨ 48
ʈ@@ 48
Αγ@@ 48
Μαρ@@ 48
άρχ@@ 48
γι@@ 48
τός 48
Бра@@ 48
ез@@ 48
обла@@ 48
пер@@ 48
пере@@ 48
ственный 48
բ@@ 48
باب 48
علی 48
مس@@ 48
ܚ@@ 48
ை 48
ช 48
พิ@@ 48
สา@@ 48
ัน@@ 48
ພ@@ 48
ာ 48
ყ@@ 48
ច@@ 48
ứ 48
∴ 48
乙@@ 48
你 48
入@@ 48
呂@@ 48
塔 48
度@@ 48
开@@ 48
彭@@ 48
慧@@ 48
慶@@ 48
拳 48
男@@ 48
白 48
线 48
茶@@ 48
语 48
貴@@ 48
雷@@ 48
麻 48
에@@ 48
aliwa 47
annte 47
cinco 47
donde 47
pointed 47
produced 47
trabaj@@ 47
trabajo 47
çev@@ 47
Δημ@@ 47
ήλ 47
κας 47
μβ@@ 47
ουλ@@ 47
Вар@@ 47
Кор@@ 47
Македо@@ 47
На 47
вра@@ 47
зан@@ 47
лова 47
льная 47
мы 47
тор@@ 47
ѣ@@ 47
اط@@ 47
الجز@@ 47
الط@@ 47
تو@@ 47
تي@@ 47
غ 47
وم 47
ދ@@ 47
या@@ 47
শ 47
ਲ@@ 47
ക@@ 47
ි@@ 47
เท@@ 47
ြ@@ 47
ት@@ 47
ṳ 47
ản 47
ọ@@ 47
ồn 47
ổi 47
ἕ@@ 47
ℒ 47
✸ 47
ⵀ@@ 47
ⵎ 47
ォ@@ 47
ザ@@ 47
ヒ@@ 47
利 47
夏 47
奉@@ 47
孙@@ 47
打@@ 47
楚@@ 47
泉 47
深@@ 47
漢 47
燕@@ 47
甘@@ 47
茶 47
菜 47
足@@ 47
車@@ 47
郎@@ 47
대 47
랑@@ 47
트 47
Quân 46
amerikan@@ 46
asyon 46
depor@@ 46
dieser 46
eviz@@ 46
fahren 46
kuu 46
schri@@ 46
tamente 46
¯ 46
ǝ@@ 46
ʂ 46
̶ 46
δος 46
κατ@@ 46
κι@@ 46
ση 46
στι@@ 46
ται 46
Вер@@ 46
гар@@ 46
град@@ 46
др 46
ец 46
мен 46
ниче@@ 46
тен@@ 46
хов@@ 46
շ@@ 46
מ 46
خ 46
سو@@ 46
سين 46
ط 46
قي@@ 46
كة 46
كي@@ 46
ما 46
محمود 46
کو@@ 46
ত 46
ங 46
ல 46
့ 46
ባ@@ 46
ክ@@ 46
ᐊ@@ 46
ព 46
ḵ@@ 46
Ἄ@@ 46
ⲁ@@ 46
は 46
ょ@@ 46
ブ 46
ホ@@ 46
リ 46
书 46
令@@ 46
兰@@ 46
军 46
化 46
學 46
守 46
寶 46
想@@ 46
昭@@ 46
機 46
洲@@ 46
源 46
者@@ 46
蘭@@ 46
雨@@ 46
黑@@ 46
龙 46
가 46
단 46
은 46
의@@ 46
화 46
aşı 45
hiện 45
lenen 45
siku 45
stieg 45
unun 45
wanja 45
Î 45
ành 45
ήσ@@ 45
ματ@@ 45
μου 45
παι@@ 45
σε@@ 45
όπουλ@@ 45
вы 45
дь 45
ок@@ 45
пре@@ 45
сен 45
соб@@ 45
ста 45
той 45
به@@ 45
سي 45
عل@@ 45
عمر 45
هد 45
ولا@@ 45
ڈ@@ 45
স 45
్ 45
ติ@@ 45
ป 45
ງ 45
န 45
ለ@@ 45
ែ@@ 45
ốc 45
Ἱ@@ 45
ⴼ 45
ゆ@@ 45
中心 45
儀 45
刀@@ 45
反@@ 45
圖 45
夜@@ 45
拳@@ 45
树 45
極@@ 45
横@@ 45
津 45
湾@@ 45
為@@ 45
珠@@ 45
男 45
盛@@ 45
藏 45
记 45
象@@ 45
青 45
首@@ 45
바@@ 45
우 45
종@@ 45
Naili 44
anlar 44
chuy@@ 44
letzten 44
lugar 44
muş 44
onóm@@ 44
puede 44
Ĝ 44
Ə 44
ΐ@@ 44
ιτ@@ 44
πί@@ 44
φαν@@ 44
Национа@@ 44
Сре@@ 44
бы@@ 44
итель@@ 44
кате@@ 44
лы 44
народ@@ 44
нина 44
рин 44
Қ@@ 44
כ 44
اج@@ 44
جر@@ 44
راء 44
ها 44
ير@@ 44
ہ 44
ܢ 44
पा@@ 44
ब@@ 44
॥ 44
ই@@ 44
ঙ 44
ా@@ 44
ಾ@@ 44
മ@@ 44
๊ 44
န@@ 44
ွ@@ 44
რ 44
ን 44
የ@@ 44
ḏ 44
ṓ@@ 44
ắm 44
ố 44
ὴ@@ 44
∠ 44
⊃ 44
ま 44
め@@ 44
ゃ@@ 44
カ 44
チ 44
世 44
军@@ 44
動@@ 44
土 44
報 44
威@@ 44
宜@@ 44
室 44
尊 44
局 44
政 44
曲@@ 44
术@@ 44
果@@ 44
気@@ 44
玄 44
甲 44
画 44
相 44
程@@ 44
舞 44
言@@ 44
許@@ 44
語@@ 44
諸@@ 44
達@@ 44
鉄@@ 44
鎮 44
馆 44
군 44
한 44
ajili 43
comer@@ 43
ellik@@ 43
escrit@@ 43
harek@@ 43
manera 43
mới 43
nó 43
previ@@ 43
selb@@ 43
sistem@@ 43
standen 43
zake 43
Đảng 43
ıca 43
Şark@@ 43
Καρ@@ 43
Με@@ 43
Παλ@@ 43
αφ@@ 43
βί@@ 43
ρύ@@ 43
Петер@@ 43
Север@@ 43
Хри@@ 43
мат@@ 43
со 43
ћ@@ 43
ׁ 43
دی 43
سن 43
مج@@ 43
نا 43
ܝ 43
ර@@ 43
ා@@ 43
ཆ@@ 43
ྲ@@ 43
ễ@@ 43
ợ 43
⁠ 43
₀ 43
ⴹ@@ 43
ユ@@ 43
兒 43
協@@ 43
卿 43
双@@ 43
夢@@ 43
崎 43
改@@ 43
时@@ 43
港 43
烏@@ 43
班 43
興 43
角@@ 43
赵@@ 43
都 43
關@@ 43
雲 43
風 43
高 43
용@@ 43
은@@ 43
프@@ 43
🇫 43
Anfang 42
abril 42
following 42
ofici@@ 42
wieder@@ 42
Ñ 42
Ù@@ 42
Ý@@ 42
đo@@ 42
ητ@@ 42
ικό 42
πατ@@ 42
ριστ@@ 42
τικός 42
Бер@@ 42
Вы@@ 42
От@@ 42
Под@@ 42
Ю 42
бор@@ 42
ву@@ 42
зем@@ 42
лни 42
нау@@ 42
ну@@ 42
под@@ 42
река 42
три@@ 42
шин@@ 42
զ@@ 42
խ@@ 42
ք 42
اق@@ 42
الي@@ 42
تر@@ 42
عين 42
وي 42
ं@@ 42
ভ@@ 42
ম 42
ਾ 42
ன@@ 42
ே@@ 42
นิ@@ 42
ยา@@ 42
ส 42
ມ@@ 42
ჭ@@ 42
ይ@@ 42
ዮ@@ 42
ἡ@@ 42
ℍ 42
✠ 42
ⲉ@@ 42
に 42
タ 42
中华@@ 42
令 42
伝 42
內@@ 42
关@@ 42
制@@ 42
哈@@ 42
基 42
妙@@ 42
将@@ 42
尉 42
崔@@ 42
李 42
氣 42
池@@ 42
而@@ 42
記@@ 42
運@@ 42
院@@ 42
面@@ 42
食@@ 42
鹿@@ 42
노@@ 42
송@@ 42
annt 41
denomin@@ 41
juego 41
ließ 41
lığı 41
sigui@@ 41
trang 41
İk@@ 41
ưu 41
ɒ 41
ɫ@@ 41
Ελλην@@ 41
Κωνσταντ@@ 41
Παρ@@ 41
άζ@@ 41
λευ@@ 41
πολ@@ 41
τας 41
τζ@@ 41
χή 41
ύλ@@ 41
Българ@@ 41
Пра@@ 41
Сою@@ 41
им 41
ис@@ 41
ита 41
лан@@ 41
лей@@ 41
мя 41
сп@@ 41
тин@@ 41
ху@@ 41
ց@@ 41
ֻ@@ 41
اح@@ 41
بني 41
تي 41
شر@@ 41
فر 41
پور 41
އ@@ 41
का@@ 41
ੁ@@ 41
ญ 41
อ 41
ခ@@ 41
ል 41
ል@@ 41
ầm 41
᾿ 41
‟ 41
↓ 41
仙 41
列@@ 41
夷@@ 41
官 41
尼@@ 41
屋 41
役 41
後 41
得@@ 41
振@@ 41
气 41
渡@@ 41
現@@ 41
理 41
由@@ 41
町@@ 41
竹 41
葛@@ 41
連@@ 41
银@@ 41
는 41
만@@ 41
임@@ 41
황@@ 41
gibi 40
học 40
marzo 40
personas 40
remain@@ 40
sehr 40
yard@@ 40
Đế 40
ĳ@@ 40
ǝ 40
ʳ 40
̏ 40
Τ 40
ές 40
βασιλ@@ 40
βλ@@ 40
ελλ@@ 40
εφ@@ 40
κτ@@ 40
μν@@ 40
οπ@@ 40
πυ@@ 40
τρι@@ 40
Фа@@ 40
бе 40
ей 40
имени 40
ку 40
лич@@ 40
му 40
публи@@ 40
ран 40
сен@@ 40
стиче@@ 40
чер@@ 40
ше 40
Գ@@ 40
اع@@ 40
بی@@ 40
حة 40
در 40
دی@@ 40
ستان 40
ला 40
वि@@ 40
ા@@ 40
ตา@@ 40
เกาะ 40
เส@@ 40
ບ@@ 40
ད 40
က 40
ስ 40
በ@@ 40
ḗ 40
➢ 40
书@@ 40
凤@@ 40
华 40
合 40
姬 40
定 40
岳@@ 40
崎@@ 40
愛 40
戸@@ 40
服@@ 40
联@@ 40
董@@ 40
遊@@ 40
鄧@@ 40
鍾@@ 40
雨 40
黨 40
니@@ 40
다@@ 40
위@@ 40
타@@ 40
Jahrhunder@@ 39
Nhật 39
dann 39
spä@@ 39
tự 39
weiter 39
zwa 39
önc@@ 39
ĸ 39
Ż 39
Ǵ@@ 39
άμ@@ 39
βο@@ 39
επ@@ 39
οτ@@ 39
ποι@@ 39
τική 39
χαρ@@ 39
Авто@@ 39
Кли@@ 39
Пар@@ 39
Це@@ 39
Ш 39
ад@@ 39
дин@@ 39
зов 39
кого 39
кол@@ 39
кор@@ 39
лка 39
осу@@ 39
рин@@ 39
ун@@ 39
шен@@ 39
سم@@ 39
لف@@ 39
مز@@ 39
আ@@ 39
ੰ@@ 39
୍ 39
ชา@@ 39
บุ@@ 39
ศ 39
ัย 39
ไทย 39
ག 39
ገ@@ 39
ី 39
ះ@@ 39
ự@@ 39
ど@@ 39
ロ 39
临@@ 39
动@@ 39
大學 39
夷 39
姬@@ 39
尾@@ 39
峰@@ 39
崇@@ 39
府@@ 39
福 39
維@@ 39
羊@@ 39
舞@@ 39
豆@@ 39
賢 39
賦 39
造@@ 39
順@@ 39
鳥@@ 39
교@@ 39
그@@ 39
레@@ 39
예@@ 39
울@@ 39
일 39
difer@@ 38
ekonom@@ 38
fün@@ 38
itig 38
okea 38
tekn@@ 38
Âu 38
Ò 38
óm 38
Ŋ 38
ɵ 38
ʌ 38
Ζ 38
Μον@@ 38
Ξ 38
βρα@@ 38
εσ@@ 38
ημ@@ 38
λύ@@ 38
νομ@@ 38
σύ@@ 38
του@@ 38
Бал@@ 38
Фи@@ 38
ане 38
вод@@ 38
гре@@ 38
дер@@ 38
кан@@ 38
лей 38
мар@@ 38
над@@ 38
сов 38
стре@@ 38
тив@@ 38
цев 38
ёр@@ 38
آباد 38
اي@@ 38
برا@@ 38
دو@@ 38
رات 38
شي@@ 38
عم@@ 38
فة 38
ज@@ 38
ট 38
ਪ@@ 38
த 38
ந@@ 38
ം 38
มา@@ 38
รี@@ 38
ั@@ 38
ያ@@ 38
ង@@ 38
៉ 38
ᵉ@@ 38
Ṛ@@ 38
Ṯ@@ 38
ỏi 38
ῳ 38
ℳ 38
⊨ 38
◌ 38
ⵚ@@ 38
つ 38
ば@@ 38
ナ 38
佛 38
兵 38
刀 38
園@@ 38
圣@@ 38
奇 38
承@@ 38
指@@ 38
故@@ 38
桥@@ 38
業 38
橋@@ 38
淮@@ 38
珍 38
省@@ 38
精@@ 38
臺@@ 38
速@@ 38
進@@ 38
遠@@ 38
阪@@ 38
陀@@ 38
頭@@ 38
나 38
시 38
Weltkri@@ 37
asyonu 37
created 37
distrito 37
grupo 37
mwa 37
selbst 37
trí 37
uyết 37
Ù 37
Û 37
ŷ 37
γιος 37
δυ@@ 37
ιά 37
κλη@@ 37
όβ@@ 37
І 37
Ке@@ 37
Ше@@ 37
бар@@ 37
кон@@ 37
лъ@@ 37
ники 37
росси@@ 37
фа 37
ьо@@ 37
Կ@@ 37
ַ 37
־ 37
اسم 37
الجزائر 37
مق@@ 37
نة 37
मन 37
ษ 37
เจ@@ 37
เม@@ 37
མ 37
ያ 37
ẽ 37
ẽ@@ 37
Ἡ@@ 37
⁵ 37
➜ 37
ご@@ 37
と 37
ほ@@ 37
ィ 37
丁 37
伯 37
俊@@ 37
功@@ 37
孟@@ 37
幸@@ 37
战@@ 37
曾@@ 37
桃@@ 37
母@@ 37
沢@@ 37
端@@ 37
育 37
蘭 37
観@@ 37
觀 37
车@@ 37
量@@ 37
關 37
體@@ 37
서 37
después 36
durch@@ 36
ishia 36
layan 36
mismo 36
various 36
worden 36
ãn 36
Ĳ@@ 36
ʹ@@ 36
Ιωάν@@ 36
έ 36
έα 36
έκ@@ 36
βασ@@ 36
ην 36
όπ@@ 36
Ги@@ 36
водо@@ 36
вые 36
ген@@ 36
лет@@ 36
ме 36
раз@@ 36
рон@@ 36
ғ@@ 36
ք@@ 36
اص@@ 36
جو@@ 36
ربي 36
ری@@ 36
كان 36
می 36
ध 36
रु@@ 36
ং@@ 36
ರ@@ 36
യ@@ 36
กระ@@ 36
วง@@ 36
ལ@@ 36
ላ@@ 36
ነ@@ 36
እ@@ 36
ዊ 36
ḡ@@ 36
ối 36
ὰ@@ 36
₤ 36
₩ 36
⊢ 36
♪ 36
こ 36
ろ@@ 36
キ 36
丘 36
也 36
党 36
剛@@ 36
務@@ 36
取@@ 36
好 36
密 36
察@@ 36
庄@@ 36
战 36
格@@ 36
楽@@ 36
樹 36
波 36
活@@ 36
浪@@ 36
温@@ 36
益@@ 36
盧@@ 36
秋 36
秘@@ 36
血@@ 36
賀@@ 36
邑 36
鈴@@ 36
雪 36
삼@@ 36
요 36
･ 36
estudio 35
etwa 35
jähr@@ 35
momento 35
pequeñ@@ 35
segunda 35
uzun 35
¸ 35
Þ 35
üğü 35
Ą 35
Ę 35
Πολ@@ 35
έχ@@ 35
αλλ@@ 35
εν 35
ιδ@@ 35
νο@@ 35
σχ@@ 35
τή@@ 35
όγ@@ 35
όκ@@ 35
ώργ@@ 35
ϕ@@ 35
Гла@@ 35
Пол@@ 35
Ь 35
армия 35
вин@@ 35
дан 35
жда 35
ита@@ 35
кар@@ 35
пера@@ 35
сан@@ 35
тер@@ 35
тина 35
тур@@ 35
ши 35
ѣ 35
أن@@ 35
الدین 35
بر 35
تب@@ 35
ری 35
زي 35
وان 35
يخ 35
ި@@ 35
च@@ 35
ப 35
ു@@ 35
อย@@ 35
ื@@ 35
เข@@ 35
ྒ@@ 35
ီ@@ 35
ም 35
ም@@ 35
ግ@@ 35
ោ@@ 35
៊ 35
ḗ@@ 35
ṉ@@ 35
ển 35
ἁ@@ 35
ὅ@@ 35
ℝ@@ 35
え 35
な 35
ペ@@ 35
中国 35
伏@@ 35
住@@ 35
傳@@ 35
卫@@ 35
周 35
坂@@ 35
如 35
庆@@ 35
忠 35
斯@@ 35
晉@@ 35
望@@ 35
柔@@ 35
桥 35
洞@@ 35
然 35
熊@@ 35
登@@ 35
秀 35
紀 35
船@@ 35
苗@@ 35
詩 35
詩@@ 35
謝@@ 35
越 35
达@@ 35
运@@ 35
连@@ 35
郑@@ 35
間 35
鬼 35
재@@ 35
청@@ 35
cái 34
descu@@ 34
giá 34
hacer 34
lassen 34
moved 34
nuev@@ 34
realiz@@ 34
started 34
úp 34
ɥ@@ 34
̟ 34
Μ 34
μον@@ 34
οχ@@ 34
περι@@ 34
ρέ@@ 34
ρία 34
τε 34
όπο@@ 34
όρι@@ 34
Ϲ@@ 34
Бур@@ 34
Дру@@ 34
Кур@@ 34
Ско@@ 34
Три@@ 34
Центра@@ 34
Ъ 34
вина 34
гла@@ 34
жо@@ 34
зар@@ 34
йской 34
каз@@ 34
кре@@ 34
лев@@ 34
ности 34
рии 34
сты 34
теат@@ 34
тя@@ 34
чь 34
шки 34
ռ@@ 34
ָ 34
اضي 34
الرحمن 34
الري@@ 34
المع@@ 34
المغ@@ 34
زة 34
عب@@ 34
عد@@ 34
على 34
ِّ@@ 34
ܺ@@ 34
मा@@ 34
वे@@ 34
ข 34
รร@@ 34
หม@@ 34
ຸ@@ 34
ົ@@ 34
པ@@ 34
ར 34
ျ@@ 34
ኢ@@ 34
ⁿ@@ 34
℃ 34
⇆ 34
∉ 34
➡ 34
ⵥ@@ 34
プ 34
丰@@ 34
位@@ 34
包@@ 34
堂@@ 34
奥@@ 34
威 34
寒@@ 34
岭@@ 34
広@@ 34
弘 34
悟@@ 34
景 34
杭@@ 34
泰 34
澳@@ 34
総@@ 34
羽@@ 34
船 34
色 34
蓮@@ 34
藩 34
虎 34
要 34
语@@ 34
豊@@ 34
队 34
陶@@ 34
관@@ 34
문 34
상 34
어 34
포@@ 34
Cumhuriyeti 33
Eylül 33
amoja 33
gesam@@ 33
halb 33
liegt 33
nahme 33
served 33
todas 33
wever 33
wrote 33
zote 33
ält 33
äude 33
ɟ 33
ɤ 33
Ευ@@ 33
μερ@@ 33
οβ@@ 33
ουν@@ 33
πέ@@ 33
πε@@ 33
τρο@@ 33
υν@@ 33
Бар@@ 33
България 33
боль@@ 33
зе 33
институ@@ 33
лет 33
оло@@ 33
спор@@ 33
стен 33
стов 33
сту@@ 33
университет 33
ца@@ 33
Վ@@ 33
أس@@ 33
ارة 33
از 33
الة 33
المن@@ 33
ایران 33
ة@@ 33
تم@@ 33
جن@@ 33
سك@@ 33
صف@@ 33
طف@@ 33
قل@@ 33
نگ@@ 33
وی@@ 33
ܦ@@ 33
ނ@@ 33
މ@@ 33
ठ 33
ना 33
सा@@ 33
ह 33
ਦ@@ 33
ਵ@@ 33
ட 33
വ@@ 33
ව@@ 33
ประ@@ 33
ยา 33
วา@@ 33
าน@@ 33
ິ@@ 33
ὺ@@ 33
┐ 33
オ 33
ゼ@@ 33
与@@ 33
业@@ 33
东 33
了@@ 33
事件 33
余@@ 33
依@@ 33
俊 33
僧@@ 33
初@@ 33
去@@ 33
吉 33
团@@ 33
塔@@ 33
干@@ 33
恩@@ 33
慈@@ 33
應@@ 33
支@@ 33
旦 33
桐 33
樓 33
比@@ 33
画@@ 33
皮@@ 33
科 33
穆@@ 33
老 33
芳 33
药 33
葉 33
薩 33
衛 33
角 33
説 33
貞@@ 33
造 33
達 33
遠 33
鄉 33
錄 33
長 33
防@@ 33
陰@@ 33
非@@ 33
거@@ 33
미 33
회 33
ancak 32
artí@@ 32
career 32
hunder@@ 32
itwa 32
mejor 32
nivel 32
sür@@ 32
tritt 32
xã 32
áu 32
Độ 32
ıp 32
ſ 32
ǃ 32
˞ 32
Βασιλ@@ 32
Ρω@@ 32
ίζ@@ 32
ιρ@@ 32
ναι 32
ού 32
ρκ@@ 32
ρου 32
συν@@ 32
τι 32
τοκ@@ 32
ϊ@@ 32
όχ@@ 32
Ђ@@ 32
Гер@@ 32
воз@@ 32
гна@@ 32
коло@@ 32
лаго@@ 32
лез@@ 32
мер@@ 32
нал 32
ну 32
прав@@ 32
стан 32
чев 32
чный 32
ծ@@ 32
اج 32
حم@@ 32
شی@@ 32
ض 32
مال 32
مط@@ 32
ް@@ 32
ं 32
जि@@ 32
ली 32
सं@@ 32
ছ@@ 32
ਜ@@ 32
ੁ 32
ீ@@ 32
บ 32
ราช@@ 32
อุ@@ 32
ั 32
ပ 32
ယ 32
ለ 32
ᐃ@@ 32
គ@@ 32
ểm 32
ⁿ 32
ⲣ@@ 32
お 32
け 32
め 32
久 32
传@@ 32
冠@@ 32
到@@ 32
厦 32
发@@ 32
唐 32
喜 32
委@@ 32
度 32
座 32
情 32
智 32
朴@@ 32
楼@@ 32
洋 32
潘@@ 32
無 32
狼@@ 32
篇 32
總@@ 32
股@@ 32
與@@ 32
蔵 32
薛@@ 32
起@@ 32
関@@ 32
魚@@ 32
鱼@@ 32
석@@ 32
파@@ 32
Danh 31
Tarih@@ 31
altı 31
compañ@@ 31
deter@@ 31
dài 31
económ@@ 31
ekana 31
encuentr@@ 31
kinh 31
mög@@ 31
stamm@@ 31
stütz@@ 31
través 31
¶ 31
üç 31
ɟ@@ 31
ˠ 31
δί@@ 31
θυ@@ 31
τής 31
τύ@@ 31
ωμα 31
ϱ@@ 31
Тре@@ 31
Ц 31
бург@@ 31
из 31
лат@@ 31
лод@@ 31
мин 31
нар@@ 31
насти@@ 31
нове@@ 31
община 31
пан@@ 31
пра@@ 31
рак@@ 31
собо@@ 31
стан@@ 31
тура 31
ший 31
ў 31
Ե@@ 31
Պ@@ 31
جي@@ 31
دان 31
سلط@@ 31
ص 31
علا@@ 31
فی@@ 31
مار@@ 31
ٱ@@ 31
ٹ 31
ܣ@@ 31
ܩ@@ 31
कु@@ 31
ति 31
ध@@ 31
बा@@ 31
ष@@ 31
हा 31
উ@@ 31
ঘ@@ 31
ಿ@@ 31
เด 31
เพ@@ 31
เร@@ 31
ให@@ 31
ຊ@@ 31
ຫ@@ 31
ር 31
ំ 31
ập 31
ὲ 31
⌈ 31
⌉ 31
① 31
ⲛ@@ 31
れ 31
シ 31
丸@@ 31
丽@@ 31
使 31
倉@@ 31
全 31
八 31
助 31
動 31
友 31
員@@ 31
團 31
夢 31
実@@ 31
客@@ 31
密@@ 31
尹@@ 31
嶼 31
形 31
敏 31
敬@@ 31
期@@ 31
樂 31
溪 31
然@@ 31
破@@ 31
禮 31
禮@@ 31
蔣@@ 31
衣 31
護@@ 31
词 31
身 31
雙@@ 31
養@@ 31
鴻@@ 31
게 31
경 31
급 31
월@@ 31
육@@ 31
홍@@ 31
Có 30
Nhà 30
beiden 30
dü 30
lük 30
văn 30
zurück 30
Ë 30
üsü 30
ĥ@@ 30
Ʉ 30
ʱ 30
Ό@@ 30
Ψ@@ 30
έσ@@ 30
αργ@@ 30
κρά@@ 30
κόμ@@ 30
λη 30
νε@@ 30
νόμ@@ 30
οκ@@ 30
ούς 30
ροι 30
ρού@@ 30
στά@@ 30
τορ@@ 30
Є@@ 30
Раз@@ 30
акаде@@ 30
дом 30
ил 30
ите 30
куль@@ 30
обра@@ 30
рен 30
сов@@ 30
спо@@ 30
съ@@ 30
тор 30
ён@@ 30
ұ@@ 30
ց 30
צ 30
الت 30
الي 30
زی@@ 30
قص@@ 30
قي 30
نو@@ 30
وري 30
وف@@ 30
ہ@@ 30
ܬ 30
ता 30
नि@@ 30
भ@@ 30
रु 30
वर 30
हि@@ 30
ा 30
ফ@@ 30
ள 30
ල@@ 30
ดา@@ 30
พ 30
່ 30
ተ@@ 30
ា 30
Ἁ@@ 30
Ὀ@@ 30
ℛ 30
ℵ@@ 30
✻ 30
五 30
叶@@ 30
姜@@ 30
完@@ 30
尊@@ 30
布 30
座@@ 30
庵 30
弥@@ 30
当@@ 30
形@@ 30
快@@ 30
意@@ 30
昆@@ 30
果 30
永 30
池 30
洛@@ 30
洞 30
父 30
童@@ 30
系 30
羅 30
遼@@ 30
阮@@ 30
静@@ 30
顺@@ 30
무 30
민 30
병@@ 30
봉 30
봉@@ 30
비 30
석 30
을 30
천 30
철 30
축@@ 30
평@@ 30
Febru@@ 29
März 29
annten 29
cuando 29
diese 29
fark@@ 29
pués 29
septiembre 29
steht 29
taraf@@ 29
veces 29
watu 29
ĸ@@ 29
Ŝ@@ 29
ɖ@@ 29
ɴ 29
ʎ@@ 29
Ιερ@@ 29
Το 29
αρχ@@ 29
ατρ@@ 29
γεν@@ 29
γραφ@@ 29
δία 29
δα 29
ιγ@@ 29
ιώ@@ 29
οπο@@ 29
παν@@ 29
προσ@@ 29
πτ@@ 29
συ@@ 29
τρα@@ 29
Мария 29
Рос@@ 29
вое 29
дру@@ 29
ер 29
зя@@ 29
йна 29
мати@@ 29
миче@@ 29
род 29
ряд@@ 29
сер@@ 29
уни@@ 29
управ@@ 29
шко@@ 29
Բ@@ 29
״ 29
اق 29
المص@@ 29
الو@@ 29
باش@@ 29
حي 29
دار@@ 29
ران 29
زر@@ 29
عب 29
كري@@ 29
وج@@ 29
وز@@ 29
ویژن 29
يم@@ 29
ٌ 29
ٹ@@ 29
ܛ@@ 29
ު 29
इ@@ 29
का 29
ङ 29
ड@@ 29
ती 29
அ@@ 29
പ@@ 29
ดิ 29
หน@@ 29
ི 29
ᐅ@@ 29
ល 29
ᠨ 29
ấm 29
ụy 29
ὲ@@ 29
ⵛ 29
が 29
そ@@ 29
フ 29
亭@@ 29
佳@@ 29
倉 29
内 29
前 29
博 29
姚@@ 29
季@@ 29
宏 29
宝 29
尚 29
引@@ 29
張 29
想 29
才 29
报 29
旅@@ 29
朗 29
术 29
根@@ 29
梅 29
段@@ 29
汽@@ 29
油@@ 29
灵@@ 29
盟 29
節 29
節@@ 29
蕭@@ 29
號 29
警@@ 29
農@@ 29
近@@ 29
隆 29
鮮@@ 29
鳳@@ 29
권@@ 29
내 29
로 29
르@@ 29
북@@ 29
continued 28
described 28
ehemal@@ 28
gehört 28
olewa 28
sử 28
tür 28
 28
öffent@@ 28
ăm 28
Ĉ@@ 28
Ģ@@ 28
ına 28
ıt@@ 28
Ľ 28
şir@@ 28
ǂ@@ 28
ʋ 28
Μεγάλ@@ 28
Πέ@@ 28
Χρ@@ 28
για 28
εις 28
μή@@ 28
μακ@@ 28
μη 28
νω@@ 28
ς@@ 28
τολ@@ 28
Љ@@ 28
Рабо@@ 28
Све@@ 28
арти@@ 28
ата 28
бы 28
гов@@ 28
гро@@ 28
дан@@ 28
жде@@ 28
жи 28
ител 28
ити@@ 28
лу 28
любо@@ 28
ника 28
ны@@ 28
право@@ 28
сси@@ 28
сто 28
тиче@@ 28
того 28
фон 28
щ 28
щен@@ 28
є 28
ѧ 28
տ 28
أل@@ 28
البح@@ 28
تُ@@ 28
جي 28
حزب 28
كو@@ 28
لان 28
مان@@ 28
مسجد 28
ود@@ 28
يت 28
ܟ@@ 28
ܥ@@ 28
ފ@@ 28
ण@@ 28
रह 28
ਗ@@ 28
ੇ@@ 28
ை@@ 28
ோ@@ 28
ന@@ 28
บา@@ 28
เก@@ 28
ຣ@@ 28
ው 28
ፍ@@ 28
ᑲ@@ 28
ề 28
ồi 28
ỗ@@ 28
⁶ 28
② 28
⭐ 28
々@@ 28
げ@@ 28
ろ 28
ケ 28
ヨ@@ 28
亭 28
他@@ 28
來@@ 28
侯@@ 28
儿 28
卓@@ 28
器 28
圖@@ 28
在 28
塘@@ 28
太 28
寧 28
寧@@ 28
小 28
属 28
式 28
思 28
性@@ 28
房@@ 28
施@@ 28
桓@@ 28
楼 28
沙 28
游@@ 28
照@@ 28
爱@@ 28
番@@ 28
群 28
處@@ 28
视@@ 28
說@@ 28
雀@@ 28
魚 28
준 28
통@@ 28
혜@@ 28
환 28
𝔭 28
Avrupa 27
Oktober 27
alık 27
cual@@ 27
daha 27
größ@@ 27
ledi 27
mô 27
ubwa 27
Ð 27
ğu 27
ĵ@@ 27
Ź@@ 27
Ǝ 27
ơi 27
ʉ 27
Ί@@ 27
Γι@@ 27
Καλλ@@ 27
άνα@@ 27
έρας 27
ίες 27
αγγ@@ 27
αντ@@ 27
ειδ@@ 27
εμ@@ 27
ηδ@@ 27
θρ@@ 27
κον@@ 27
λυ@@ 27
νη@@ 27
ουσ@@ 27
ραν@@ 27
φορ@@ 27
Сред@@ 27
анд@@ 27
би 27
бо 27
вобо@@ 27
вода 27
вор@@ 27
дви@@ 27
для 27
зи 27
или 27
каде@@ 27
кня@@ 27
нен@@ 27
пове@@ 27
раб@@ 27
рас@@ 27
сия 27
сою@@ 27
ща@@ 27
ый 27
լ 27
չ@@ 27
׳ 27
ؤ@@ 27
البي@@ 27
العربية 27
تح@@ 27
جام@@ 27
حسین 27
داد 27
ده 27
رح@@ 27
زی 27
له 27
وت 27
ܗ@@ 27
ंग@@ 27
को@@ 27
चा@@ 27
नी 27
पर@@ 27
मे@@ 27
रा 27
ि 27
੝ 27
ள@@ 27
ூ@@ 27
ක@@ 27
ศัก@@ 27
อน@@ 27
อม@@ 27
อา@@ 27
ัก@@ 27
ือ@@ 27
ུ 27
အ@@ 27
ှ@@ 27
ლ 27
ដ@@ 27
ទ 27
ហ@@ 27
អ@@ 27
ἱ 27
‿ 27
Ↄ 27
ⵅ@@ 27
ね@@ 27
ゅ@@ 27
丘@@ 27
中國 27
乡@@ 27
亞@@ 27
傅@@ 27
備@@ 27
劇 27
勇@@ 27
同 27
嚴@@ 27
壽@@ 27
奈@@ 27
妃 27
娘 27
実 27
岩 27
岳 27
希@@ 27
性 27
戴@@ 27
提@@ 27
文化 27
昭 27
桃 27
梨@@ 27
满@@ 27
炎@@ 27
烈@@ 27
片@@ 27
版@@ 27
珠 27
略 27
県 27
祥 27
紙 27
聯@@ 27
莫@@ 27
蒲@@ 27
賞 27
身@@ 27
邦@@ 27
骨@@ 27
계@@ 27
금@@ 27
단@@ 27
드@@ 27
모@@ 27
순@@ 27
요@@ 27
창@@ 27
허@@ 27
aları 26
deki 26
eonato 26
estudios 26
ihren 26
sasa 26
yake 26
yıld@@ 26
zahl 26
ǰ@@ 26
ʕ 26
Συ@@ 26
άβ@@ 26
άπ@@ 26
ήγ@@ 26
ίγ@@ 26
βά@@ 26
διδ@@ 26
ητής 26
ηφ@@ 26
ιο 26
μή 26
μαχ@@ 26
μη@@ 26
που 26
στα@@ 26
τις 26
ύρ@@ 26
Ак@@ 26
Зе@@ 26
Тур@@ 26
Фран@@ 26
гер@@ 26
дво@@ 26
дж@@ 26
клуб 26
рат 26
тер 26
чин 26
шая 26
ւ 26
آل 26
الوطنية 26
باب@@ 26
سلطان 26
عر@@ 26
فار@@ 26
لب 26
لی 26
لی@@ 26
مال@@ 26
مر 26
وة 26
ولد 26
کر@@ 26
ین 26
ܽ@@ 26
ख 26
ধ@@ 26
ੀ@@ 26
ર 26
ற@@ 26
ெ@@ 26
ല@@ 26
ตะ@@ 26
ฤ@@ 26
ลา@@ 26
ใ@@ 26
ປ@@ 26
ና@@ 26
ከ@@ 26
ወ@@ 26
ᓂ@@ 26
ខ 26
ḇ@@ 26
Ḏ@@ 26
ại 26
ễ 26
ℤ@@ 26
∏ 26
∫ 26
≅ 26
⋯ 26
♮ 26
ず@@ 26
び@@ 26
む@@ 26
よ 26
ジ 26
ュ 26
什@@ 26
介 26
伽@@ 26
作 26
來 26
制 26
印@@ 26
古 26
嘉 26
坡@@ 26
宿@@ 26
将 26
就@@ 26
师@@ 26
庄 26
征@@ 26
律@@ 26
意 26
感@@ 26
慶 26
戒 26
所@@ 26
探@@ 26
暗@@ 26
桐@@ 26
植@@ 26
泽@@ 26
浮@@ 26
琴 26
祥@@ 26
符@@ 26
統@@ 26
级@@ 26
群@@ 26
胡 26
芳@@ 26
荷@@ 26
蔵@@ 26
表@@ 26
輝 26
迷@@ 26
選@@ 26
靖@@ 26
魂@@ 26
鼓@@ 26
개@@ 26
랑 26
방@@ 26
식 26
신 26
야 26
해 26
효@@ 26
％ 26
𝕆 26
Birliği 25
Fue 25
Mã 25
asının 25
fünf 25
genannt 25
hatten 25
iendo 25
irika 25
lamu 25
misma 25
sı@@ 25
tı 25
wurde 25
ĉ 25
Ī 25
Į 25
ŝ 25
Ÿ 25
ơ@@ 25
Ʋ 25
ǚ@@ 25
Ț 25
Ʌ 25
ˈ 25
̑ 25
͘ 25
Σύ@@ 25
αζ@@ 25
αύ@@ 25
ειν@@ 25
θα 25
πν@@ 25
σο@@ 25
φυ@@ 25
Ай@@ 25
Аль@@ 25
Дж@@ 25
Роди@@ 25
вез@@ 25
ени 25
заво@@ 25
ить 25
къ@@ 25
мии 25
мокра@@ 25
ном 25
объ@@ 25
опера@@ 25
пла@@ 25
поли@@ 25
при 25
пы@@ 25
рес@@ 25
слу@@ 25
ститу@@ 25
тов@@ 25
цион@@ 25
ците 25
чки 25
шу@@ 25
эн@@ 25
қ 25
ը 25
մ 25
ְ 25
أي@@ 25
الوطني 25
بط@@ 25
ترا@@ 25
زا 25
طر@@ 25
فو@@ 25
قو@@ 25
كر 25
لية 25
مل 25
ولي 25
کی@@ 25
گ 25
कर 25
च 25
ता@@ 25
फ 25
महा@@ 25
ব 25
ਆ 25
ய 25
ి@@ 25
ക 25
න 25
กุล 25
นี 25
ระ@@ 25
อง 25
ัย@@ 25
ิน@@ 25
ດ 25
བ 25
ཚ@@ 25
ሲ@@ 25
ጵ@@ 25
Ḥ 25
ời 25
Ἔ@@ 25
⑨ 25
ぎ@@ 25
ふ@@ 25
マ 25
乃@@ 25
仲 25
保 25
假@@ 25
儿@@ 25
先 25
写@@ 25
冷@@ 25
刺@@ 25
勝 25
吾 25
品@@ 25
哲@@ 25
图@@ 25
夜 25
宏@@ 25
客 25
宫 25
展@@ 25
恵@@ 25
悲@@ 25
支 25
桑@@ 25
毅 25
湘@@ 25
濟@@ 25
申@@ 25
盛 25
眼@@ 25
私@@ 25
稲@@ 25
管@@ 25
米 25
素@@ 25
聖 25
臨@@ 25
舟@@ 25
落@@ 25
行政@@ 25
袁@@ 25
見 25
詠@@ 25
貴 25
轨@@ 25
須@@ 25
飛 25
飞@@ 25
食 25
鳥 25
군@@ 25
너@@ 25
두@@ 25
래 25
왕@@ 25
제 25
타 25
𐎠@@ 25
Ocak 24
amı 24
angaza 24
deş@@ 24
düz@@ 24
eshim@@ 24
están 24
hace 24
however 24
ikuu 24
kabla 24
ması 24
mbili 24
nhạc 24
sông 24
tienen 24
tinh 24
weise 24
yeye 24
Õ 24
çı@@ 24
üncü 24
đoàn 24
Ļ@@ 24
Ū 24
Ų 24
ɳ@@ 24
ʋ@@ 24
ˀ@@ 24
Μά@@ 24
Πρ@@ 24
έφ@@ 24
ήμ@@ 24
δομ@@ 24
θεια 24
θρω@@ 24
κιν@@ 24
νά@@ 24
ραγ@@ 24
σμ@@ 24
ταν@@ 24
χν@@ 24
Евро@@ 24
Й@@ 24
Кла@@ 24
аре@@ 24
бли@@ 24
вых 24
гия 24
дне@@ 24
доб@@ 24
жиз@@ 24
зы 24
пас@@ 24
рё@@ 24
ске 24
сков@@ 24
туры 24
хан 24
чения 24
ќ 24
Ө 24
ե 24
أم@@ 24
الث@@ 24
الح 24
بح@@ 24
بير 24
خال@@ 24
سب@@ 24
شار@@ 24
عث@@ 24
كر@@ 24
مؤ@@ 24
نادي 24
نان 24
يون@@ 24
پی@@ 24
मु@@ 24
रि@@ 24
ला@@ 24
ार@@ 24
ु 24
গ 24
প 24
ਖ@@ 24
ਰ 24
਼ 24
ર@@ 24
ర@@ 24
ವ@@ 24
ු@@ 24
จิ@@ 24
ดี 24
าน 24
ຄ@@ 24
ཁ@@ 24
ါ@@ 24
ሕ@@ 24
ሞ@@ 24
ረ 24
ይ 24
ዴ@@ 24
ድ@@ 24
ᑕ@@ 24
ᒃ 24
ᒥ@@ 24
ឡ@@ 24
ớ@@ 24
ἅ@@ 24
↵ 24
④ 24
⑧ 24
ⵣ 24
ざ@@ 24
ザ 24
ニ 24
份@@ 24
体 24
倫 24
共和@@ 24
农@@ 24
切@@ 24
动 24
医@@ 24
味 24
回 24
团 24
坪@@ 24
声 24
多 24
委员会 24
宁 24
容@@ 24
屯@@ 24
岐@@ 24
岸@@ 24
彦@@ 24
影 24
忍@@ 24
总@@ 24
憲@@ 24
於@@ 24
早@@ 24
望 24
期 24
末@@ 24
杉@@ 24
条 24
榮@@ 24
次 24
步@@ 24
殺@@ 24
沟@@ 24
油 24
浩 24
湾 24
熙@@ 24
版 24
牧@@ 24
甫 24
県@@ 24
穴 24
算@@ 24
耶@@ 24
聲 24
艺@@ 24
茂@@ 24
輔 24
邵@@ 24
重 24
陆@@ 24
順 24
鲁@@ 24
달@@ 24
술@@ 24
으@@ 24
음@@ 24
재 24
즈 24
Almanya 23
Chính 23
Februar 23
However 23
adamu 23
adhim@@ 23
desarrollo 23
hatte 23
ishwa 23
kendi 23
laş@@ 23
nchini 23
neden@@ 23
phố 23
sız 23
tragen 23
¤ 23
Ã@@ 23
ísticas 23
Ć 23
ĝ 23
ǣ@@ 23
ȳ@@ 23
ɓ 23
ɫ 23
ˤ@@ 23
Άν@@ 23
Απ@@ 23
Προ@@ 23
άλλ@@ 23
ήν@@ 23
αχ@@ 23
γέν@@ 23
δρα@@ 23
είας 23
εδ@@ 23
εργ@@ 23
ικοί 23
κρι@@ 23
λις 23
μο@@ 23
ολόγ@@ 23
την 23
τσ@@ 23
τό 23
χω@@ 23
ύ 23
ύν@@ 23
Ад@@ 23
Йо@@ 23
Международ@@ 23
Мон@@ 23
Съ@@ 23
Фили@@ 23
вре@@ 23
ген 23
жение 23
име@@ 23
итель 23
ление 23
меж@@ 23
мет@@ 23
она 23
сс 23
ств 23
тен 23
хан@@ 23
хи 23
хра@@ 23
цар@@ 23
цент@@ 23
ческого 23
чна 23
эк@@ 23
Թ@@ 23
Ն@@ 23
Շ@@ 23
ֱ@@ 23
ادي 23
اك@@ 23
الرا@@ 23
الی 23
حی@@ 23
دا 23
دري@@ 23
رين 23
صل 23
هة 23
وا 23
وات 23
وار@@ 23
وری 23
وق 23
یر 23
ु@@ 23
ੈ 23
ா 23
ಿ 23
ന 23
ම@@ 23
กร 23
ฉ@@ 23
ฟ@@ 23
สิ@@ 23
ีย@@ 23
เล@@ 23
ຈ@@ 23
ཀ@@ 23
ဖ@@ 23
္ 23
ሐ@@ 23
ረ@@ 23
ድ 23
ጋ@@ 23
ឹ@@ 23
័ 23
ếm 23
Ọ@@ 23
ỏ 23
ộ@@ 23
ὤ@@ 23
⏑ 23
□ 23
ⲓ 23
ば 23
を 23
ミ 23
世界 23
两@@ 23
义@@ 23
亚@@ 23
使@@ 23
健 23
其@@ 23
分 23
切 23
剛 23
勇 23
善 23
失@@ 23
头@@ 23
实@@ 23
對@@ 23
居 23
屠@@ 23
幻@@ 23
庭@@ 23
彦 23
急@@ 23
技 23
昇 23
映@@ 23
更@@ 23
服 23
未@@ 23
根 23
棋@@ 23
段 23
殷@@ 23
沢 23
浜@@ 23
澄@@ 23
牡@@ 23
病@@ 23
祝@@ 23
第一@@ 23
納@@ 23
絵@@ 23
羽 23
翼 23
藝@@ 23
蜀@@ 23
襄@@ 23
覺@@ 23
計@@ 23
論@@ 23
许@@ 23
豆 23
賢@@ 23
邓@@ 23
面 23
馮@@ 23
马 23
관 23
부 23
설@@ 23
엔@@ 23
ﺍ@@ 23
Maisha 22
Thổ 22
cuenta 22
futbol@@ 22
können 22
leş@@ 22
línea 22
nhau 22
thị 22
ülk@@ 22
đội 22
Ť 22
ɜ@@ 22
ˠ@@ 22
˧ 22
̕ 22
Βασίλ@@ 22
Ιω@@ 22
Κυ@@ 22
Μακεδ@@ 22
ήρ@@ 22
ανά@@ 22
αρι@@ 22
δέ@@ 22
δρόμ@@ 22
ισμός 22
λη@@ 22
σύν@@ 22
ϛ 22
Кали@@ 22
Пло@@ 22
Пор@@ 22
ССР 22
Ху@@ 22
Ч 22
ана 22
бур@@ 22
бъ@@ 22
версите@@ 22
года 22
дри@@ 22
ем 22
ет 22
иг@@ 22
комите@@ 22
кри@@ 22
кру@@ 22
лище 22
льное 22
мой 22
мон@@ 22
ните 22
няя 22
обе@@ 22
офи@@ 22
пти@@ 22
ром 22
ру 22
соци@@ 22
ся@@ 22
тия 22
тон 22
уз@@ 22
фли@@ 22
ход 22
ход@@ 22
ѵ@@ 22
Փ@@ 22
է@@ 22
յ 22
פ 22
أس 22
إي@@ 22
ابو 22
ادر 22
اسلامی 22
افغانستان 22
اں 22
بع@@ 22
جع@@ 22
جه@@ 22
حر@@ 22
دير 22
طة 22
عمر@@ 22
غز@@ 22
قة 22
لاح 22
لم 22
ماء 22
مرا@@ 22
نص@@ 22
نی 22
وت@@ 22
وق@@ 22
يس 22
ژ@@ 22
ރ@@ 22
ख@@ 22
धर 22
पु@@ 22
ू@@ 22
े 22
ষ 22
ண@@ 22
ల@@ 22
ಂ@@ 22
പ 22
ി 22
ස@@ 22
กา@@ 22
รี 22
ษ@@ 22
อย 22
ำ 22
เด@@ 22
เว@@ 22
ທ@@ 22
თ 22
ዳ@@ 22
ᑯ@@ 22
ṉ 22
ẫn 22
ậm 22
ẹ@@ 22
ểu 22
ễn 22
ụ@@ 22
ỷ 22
Ὑ@@ 22
‛ 22
※ 22
⑤ 22
⑥ 22
ⲧ@@ 22
【 22
】 22
ぐ@@ 22
ぬ@@ 22
ぶ@@ 22
ぷ@@ 22
メ 22
产@@ 22
個@@ 22
兼@@ 22
冀@@ 22
再@@ 22
劇@@ 22
叔 22
団 22
場@@ 22
声@@ 22
奴 22
孝 22
宙@@ 22
尼 22
岡 22
己 22
廷@@ 22
彝@@ 22
才@@ 22
持@@ 22
時 22
朗@@ 22
树@@ 22
梦@@ 22
榮 22
殿@@ 22
汝@@ 22
汪@@ 22
济@@ 22
浦 22
滨@@ 22
滿@@ 22
潮@@ 22
灣 22
烈 22
爾@@ 22
留@@ 22
碧@@ 22
祭 22
祭@@ 22
立 22
笛 22
类 22
約 22
編 22
维@@ 22
芝@@ 22
苑 22
荣@@ 22
蚕@@ 22
說 22
贵@@ 22
这@@ 22
釋@@ 22
鎮@@ 22
钟@@ 22
镇@@ 22
陰 22
雅 22
雷 22
願@@ 22
顧@@ 22
齐@@ 22
건 22
녀 22
니 22
덕@@ 22
려 22
심@@ 22
치@@ 22
함 22
회@@ 22
훈 22
𐎼@@ 22
0er 21
Diese 21
Dünya 21
Eneo 21
Một 21
Osmanlı 21
anlat@@ 21
announc@@ 21
ashara 21
bàn 21
hecho 21
ließ@@ 21
meye 21
müc@@ 21
oyuncu 21
phía 21
segundo 21
seines 21
trấn 21
versión 21
yıl 21
últim@@ 21
Ē 21
Ł 21
Ÿ@@ 21
ɯ@@ 21
˥ 21
Μα@@ 21
έπ@@ 21
έργ@@ 21
θν@@ 21
πίσ@@ 21
πον@@ 21
πού@@ 21
ρατ@@ 21
σε 21
στρα@@ 21
τηγ@@ 21
ώς 21
Ѓ@@ 21
Май@@ 21
бург 21
вен 21
воен@@ 21
гат@@ 21
гори@@ 21
город 21
еле@@ 21
исто@@ 21
каза@@ 21
кни@@ 21
льного 21
нет 21
они 21
рой 21
ски@@ 21
стри@@ 21
ся 21
теле@@ 21
тий 21
удо@@ 21
част@@ 21
шие 21
ќ@@ 21
Լ@@ 21
السي@@ 21
العل@@ 21
المس@@ 21
اه 21
بی 21
روز 21
فا@@ 21
نية 21
يو@@ 21
ڭ@@ 21
पुर 21
मा 21
या 21
सा 21
ा@@ 21
ਬ@@ 21
ି@@ 21
ந 21
ொ@@ 21
ు 21
ಕ@@ 21
േ@@ 21
න@@ 21
ทิ@@ 21
ที 21
ปรา@@ 21
ฟ 21
มหา@@ 21
มหาวิทยาล@@ 21
อก@@ 21
อร 21
ะ 21
ົ 21
ང@@ 21
པ 21
ྐ@@ 21
စ@@ 21
ဘ@@ 21
ူ@@ 21
ላ 21
ማ 21
ខ@@ 21
ច 21
ᠭ@@ 21
Ṳ 21
Ấ@@ 21
ặc 21
ộ 21
ụng 21
ực 21
ὖ@@ 21
ῆ 21
℟ 21
ℰ 21
⅛ 21
∊ 21
≪ 21
⎜ 21
⑦ 21
⓪ 21
▶ 21
ⲥ 21
ⲩ@@ 21
さ 21
だ 21
で 21
へ 21
ゃ 21
ノ 21
为@@ 21
亮@@ 21
倪@@ 21
克 21
务@@ 21
勢@@ 21
参@@ 21
受@@ 21
四 21
图 21
圓@@ 21
坂 21
塘 21
墨@@ 21
头 21
妖@@ 21
姓 21
姫 21
富 21
对@@ 21
嶺 21
嶺@@ 21
建 21
恋@@ 21
恒@@ 21
房 21
改 21
斎 21
斯 21
晋@@ 21
板@@ 21
楚 21
樊@@ 21
権@@ 21
樹@@ 21
死@@ 21
毒 21
气@@ 21
決@@ 21
洪 21
澤@@ 21
為 21
球 21
甸@@ 21
登 21
突@@ 21
紹@@ 21
組 21
罗 21
耳@@ 21
肉 21
至@@ 21
藍@@ 21
號@@ 21
表 21
裕@@ 21
話@@ 21
誌 21
議@@ 21
豪 21
貞 21
走@@ 21
起 21
辛@@ 21
迦@@ 21
連 21
錢@@ 21
闘@@ 21
階@@ 21
霊@@ 21
鶴@@ 21
麗@@ 21
麟 21
黃 21
건@@ 21
드 21
루@@ 21
마 21
소 21
와 21
준@@ 21
초@@ 21
Alman 20
adı 20
dedor 20
dün@@ 20
founded 20
hacia 20
ikali 20
included 20
khoa 20
kisi@@ 20
llamado 20
quân 20
umika 20
ướ@@ 20
ǀ 20
ɖ 20
ʝ@@ 20
˘ 20
Εν@@ 20
άφ@@ 20
έλλ@@ 20
ίνα 20
ασία 20
γαρ@@ 20
ημα 20
κολ@@ 20
λεύ@@ 20
μία 20
μικρ@@ 20
οθέ@@ 20
πει@@ 20
πόλε@@ 20
σω@@ 20
τρί@@ 20
ωνία 20
Пос@@ 20
Хи@@ 20
авто@@ 20
гле@@ 20
гу 20
дей@@ 20
ен 20
жур@@ 20
зия 20
кро@@ 20
лер 20
лок 20
нер@@ 20
рован@@ 20
све@@ 20
сон 20
стер@@ 20
ту 20
тя 20
цен@@ 20
ща 20
ә 20
Դ@@ 20
բ 20
թ 20
الإسلا@@ 20
اپ@@ 20
تف@@ 20
ته 20
حد@@ 20
خی@@ 20
رج@@ 20
سط@@ 20
قر@@ 20
ليل 20
مس 20
مية 20
ناصر 20
نه 20
نوا@@ 20
نی@@ 20
هي@@ 20
وب 20
پاکستان 20
ލ@@ 20
जा@@ 20
ञ 20
ने@@ 20
मो@@ 20
ृ@@ 20
ॐ 20
ণ 20
ষ@@ 20
ਕ 20
્ 20
ஜ@@ 20
మ@@ 20
ಸ@@ 20
ು@@ 20
ทร 20
ธ 20
หล@@ 20
หา@@ 20
อน 20
ัง@@ 20
ແ@@ 20
ྫ@@ 20
ሥ@@ 20
ሰ@@ 20
ጉ@@ 20
ᐦ@@ 20
ᑭ@@ 20
ᓇ@@ 20
ᖅ 20
យ 20
Ḵ@@ 20
ḵ 20
ỉ 20
ộng 20
ὔ@@ 20
ὠ@@ 20
ῷ 20
℣ 20
≀ 20
③ 20
┤ 20
⟶ 20
ⲡ@@ 20
ⴱ 20
ⵝ 20
ね 20
べ@@ 20
ぼ@@ 20
わ 20
ヤ 20
乙 20
从@@ 20
仏 20
仔 20
何 20
侍@@ 20
倭@@ 20
傑 20
傷@@ 20
党@@ 20
兴 20
典@@ 20
区@@ 20
十 20
只@@ 20
商 20
図 20
坐@@ 20
宇 20
實@@ 20
尾 20
工 20
巨@@ 20
幸 20
庫 20
強 20
従@@ 20
揚@@ 20
救@@ 20
斎@@ 20
杰 20
极@@ 20
様 20
死 20
気 20
氣@@ 20
派@@ 20
涼@@ 20
淑@@ 20
淵 20
牙@@ 20
犬@@ 20
猫@@ 20
琉@@ 20
発@@ 20
皮 20
礼@@ 20
祐@@ 20
秦 20
竜@@ 20
精 20
翁@@ 20
脈 20
致@@ 20
芬 20
茂 20
莉@@ 20
菊@@ 20
融@@ 20
衣@@ 20
装@@ 20
製@@ 20
誠 20
説@@ 20
談 20
譚@@ 20
话@@ 20
走 20
迎@@ 20
醉@@ 20
錦@@ 20
阴@@ 20
震 20
頂 20
首 20
魯@@ 20
간@@ 20
고 20
남 20
디@@ 20
명 20
복@@ 20
빈 20
야@@ 20
용 20
운@@ 20
음 20
조 20
차@@ 20
치 20
터@@ 20
토@@ 20
트@@ 20
피@@ 20
학 20
혁 20
Giáo 19
Lịch 19
dessen 19
enfalls 19
jewe@@ 19
junio 19
metros 19
shule 19
similar 19
sát 19
zaman@@ 19
ĥ 19
ƛ@@ 19
ǭ 19
ɗ 19
ɸ 19
ɹ@@ 19
ʉ@@ 19
ʕ@@ 19
Καλ@@ 19
Παπ@@ 19
άρκ@@ 19
έξ@@ 19
αίν@@ 19
δελφ@@ 19
διά 19
ετ@@ 19
ησ@@ 19
κερ@@ 19
λα 19
λει@@ 19
λευθερ@@ 19
μέν@@ 19
μαρ@@ 19
μόν@@ 19
ούν@@ 19
τά 19
τών 19
ωπ@@ 19
ώσ@@ 19
Ав@@ 19
Георги 19
Йор@@ 19
София 19
Хар@@ 19
Щ 19
берг 19
вели@@ 19
дии 19
кло@@ 19
кой 19
компания 19
кс 19
логи@@ 19
мент 19
мост 19
над 19
най@@ 19
нение 19
нер 19
ора 19
остров 19
поло@@ 19
свобо@@ 19
фло@@ 19
яв@@ 19
яр@@ 19
ѓ@@ 19
Ӏ@@ 19
դ 19
إل@@ 19
اری 19
است@@ 19
المق@@ 19
الملك 19
بل 19
بين 19
تك@@ 19
جة 19
خت@@ 19
خي@@ 19
دس 19
را 19
زيد 19
كي 19
لات 19
ملا@@ 19
مه 19
نز@@ 19
وادي 19
ٰ@@ 19
ޫ 19
ޮ@@ 19
ट@@ 19
ति@@ 19
नगर 19
री@@ 19
ली@@ 19
सत 19
सी 19
ঁ@@ 19
ড@@ 19
ৌ@@ 19
ਚ@@ 19
இ@@ 19
กร@@ 19
คร@@ 19
ทร@@ 19
ทอง 19
ปา@@ 19
สว@@ 19
າ 19
ህ@@ 19
ቅ@@ 19
ᐧ@@ 19
ᐱ@@ 19
ᒋ@@ 19
ᒫ@@ 19
Ḣ 19
ṇ 19
ẗ 19
ấy 19
ỳ 19
ᾱ 19
ῃ 19
ῇ 19
ῖ 19
∝ 19
⌀ 19
┴ 19
▲ 19
ⲁ 19
ⵝ@@ 19
ⵢ 19
ダ 19
レ 19
七 19
乱 19
乾@@ 19
任 19
伍@@ 19
位 19
兒@@ 19
兰 19
关 19
养@@ 19
円 19
円@@ 19
冬@@ 19
凌@@ 19
判 19
包 19
午@@ 19
单@@ 19
可 19
哪@@ 19
堅 19
婆 19
室@@ 19
寛@@ 19
寿 19
封@@ 19
射@@ 19
岭 19
幕@@ 19
庭 19
廈 19
律 19
得 19
微@@ 19
怪@@ 19
恭@@ 19
戏 19
戸 19
敬 19
斗 19
旗@@ 19
晓@@ 19
有 19
柴@@ 19
案 19
梁 19
條@@ 19
森 19
毛 19
湯@@ 19
燕 19
独@@ 19
环@@ 19
班@@ 19
用 19
直 19
看@@ 19
童 19
結@@ 19
絵 19
綱@@ 19
纪@@ 19
耳 19
聞@@ 19
芸@@ 19
萧@@ 19
薩@@ 19
蛇@@ 19
訓@@ 19
財@@ 19
超 19
足 19
輪@@ 19
辽@@ 19
過@@ 19
那 19
铁路 19
降@@ 19
陳 19
靜@@ 19
风 19
騎@@ 19
鸡@@ 19
麗 19
齊@@ 19
Ꝃ@@ 19
내@@ 19
만 19
반@@ 19
불@@ 19
블@@ 19
씨 19
철@@ 19
투@@ 19
티@@ 19
희@@ 19
ﺎ@@ 19
🇹 19
Mayıs 18
arası 18
bahari 18
comenz@@ 18
established 18
gestellt 18
müz@@ 18
nehmen 18
seinem 18
süd@@ 18
tió 18
varias 18
yön@@ 18
 18
 18
ında 18
Ś 18
ɹ 18
ʽ 18
ˀ 18
˩ 18
̚ 18
Κου@@ 18
Μεγ@@ 18
έας 18
έβ@@ 18
ίμ@@ 18
βαρ@@ 18
δια@@ 18
δοκ@@ 18
θήκη 18
κατα@@ 18
λεπ@@ 18
μένη 18
νέ@@ 18
στασ@@ 18
τω 18
υχ@@ 18
ωρ@@ 18
ότ@@ 18
Є 18
Бы@@ 18
Кро@@ 18
Рай@@ 18
Ы@@ 18
авиа@@ 18
ал 18
атов 18
вал 18
вари@@ 18
вета 18
воло@@ 18
город@@ 18
джа@@ 18
древ@@ 18
его 18
как 18
ком 18
май@@ 18
ологи@@ 18
пис@@ 18
пред@@ 18
рей@@ 18
рова@@ 18
руп@@ 18
син@@ 18
став@@ 18
ток 18
укра@@ 18
шта@@ 18
ң 18
Ә 18
Խ@@ 18
Ք@@ 18
װ@@ 18
اغ@@ 18
المج@@ 18
المح@@ 18
المر@@ 18
النا@@ 18
انية 18
بار@@ 18
بع 18
تار@@ 18
تی 18
جا@@ 18
زيرة 18
سلام 18
سما@@ 18
عد 18
عي 18
لاب 18
لح@@ 18
لس 18
لكرة 18
لو 18
مب@@ 18
منص@@ 18
نور 18
هم 18
وس 18
يه 18
يون 18
ܕ 18
ܡ 18
ެ@@ 18
छ@@ 18
थ@@ 18
नाथ 18
रे@@ 18
सु@@ 18
ই 18
ু 18
వ@@ 18
ನ@@ 18
ಮ@@ 18
ද@@ 18
กุ@@ 18
ดา 18
ถ 18
บุรี 18
รัก 18
รุ@@ 18
ัน 18
เบ@@ 18
แดง 18
ဒ@@ 18
ቀ@@ 18
ተ 18
ታ@@ 18
ዝ@@ 18
ᔅ@@ 18
គ 18
ញ 18
ណ@@ 18
ធ@@ 18
ួ@@ 18
ḩ@@ 18
ỏ@@ 18
ốt 18
ỹ 18
ῶ 18
≫ 18
◻ 18
ⴳ 18
せ 18
や 18
エ 18
ゾ@@ 18
不 18
云 18
仏@@ 18
传 18
修 18
偵@@ 18
像 18
兄@@ 18
冰@@ 18
則 18
劍@@ 18
勒@@ 18
占@@ 18
厂 18
員 18
哲 18
固@@ 18
坪 18
堀@@ 18
季 18
师 18
常 18
庆 18
庙 18
扶@@ 18
操 18
敏@@ 18
斗@@ 18
是 18
晉 18
朵@@ 18
柏@@ 18
柯@@ 18
栗@@ 18
梦 18
榆@@ 18
歷@@ 18
殷 18
浩@@ 18
消@@ 18
湯 18
演@@ 18
澤 18
点@@ 18
父@@ 18
牧 18
特 18
狂@@ 18
獨@@ 18
珍@@ 18
環@@ 18
着 18
督 18
祁@@ 18
種@@ 18
系@@ 18
繼@@ 18
翔 18
舒@@ 18
般@@ 18
芍@@ 18
营@@ 18
裴@@ 18
視@@ 18
辰@@ 18
邊@@ 18
酱 18
録 18
鐘@@ 18
雜@@ 18
離@@ 18
零@@ 18
震@@ 18
韩@@ 18
놀@@ 18
메@@ 18
오 18
운 18
종 18
차 18
크@@ 18
태 18
하 18
합@@ 18
흥@@ 18
️ 18
／ 18
； 18
Después 17
announced 17
diesen 17
einige 17
hiệ@@ 17
hàng 17
hóa 17
lossen 17
programa 17
proy@@ 17
tử 17
về 17
ächst 17
ümü 17
ılan 17
ų@@ 17
Ɔ@@ 17
ướng 17
ười 17
ược 17
Ʊ 17
ɘ 17
ɦ@@ 17
ɬ@@ 17
ʏ 17
ʧ@@ 17
ˤ 17
̮ 17
Εθν@@ 17
Λι@@ 17
άντα 17
ήλ@@ 17
ίνη 17
απο@@ 17
γε@@ 17
δικ@@ 17
θάνα@@ 17
ιστο@@ 17
με 17
μπο@@ 17
παλ@@ 17
ρή@@ 17
ρίας 17
ρό@@ 17
σης 17
τή 17
τοπο@@ 17
φθ@@ 17
χει@@ 17
χλ@@ 17
όμεν@@ 17
ϑ@@ 17
ϵ 17
Џ@@ 17
Карл 17
Пър@@ 17
Ы 17
ара 17
бал@@ 17
вдо@@ 17
вест@@ 17
восто@@ 17
ент@@ 17
ждение 17
имо@@ 17
лед@@ 17
лем 17
литера@@ 17
мена 17
мира 17
музы@@ 17
ници 17
ново@@ 17
нски 17
оба@@ 17
реб@@ 17
ристи@@ 17
рода 17
роди@@ 17
сел@@ 17
сель@@ 17
тво@@ 17
тель@@ 17
тие 17
тё@@ 17
ут@@ 17
футбо@@ 17
ң@@ 17
Ү 17
ӈ@@ 17
ө 17
آيت 17
اتحاد 17
البر@@ 17
القدم 17
المست@@ 17
اک@@ 17
به 17
تون@@ 17
خان@@ 17
دية 17
سا@@ 17
سید 17
عباس 17
عش@@ 17
عط@@ 17
غي@@ 17
لك@@ 17
مت@@ 17
مجلس 17
مد 17
وف 17
وك@@ 17
وه@@ 17
ڤ@@ 17
ڨ@@ 17
کھ@@ 17
ܓ@@ 17
ާ@@ 17
ި 17
उ@@ 17
कि@@ 17
गो@@ 17
यो@@ 17
रो@@ 17
ार 17
ि@@ 17
ौ@@ 17
অ@@ 17
ূ@@ 17
ਤ 17
ண 17
ത 17
ത@@ 17
ര 17
ല 17
സ@@ 17
ා 17
ซ@@ 17
ธิ@@ 17
ยุ@@ 17
ราย@@ 17
ກ 17
ຳ@@ 17
ཡ@@ 17
ཤ@@ 17
ླ@@ 17
ည 17
ች 17
ና 17
ኤ@@ 17
ካ@@ 17
ᑎ@@ 17
ᕐ@@ 17
ណ 17
វ 17
ấp 17
ởi 17
ức 17
ὶ@@ 17
⁹ 17
⁺ 17
⇐ 17
░ 17
♫ 17
ⲥ@@ 17
ⴵ@@ 17
サ 17
ャ 17
ヶ@@ 17
也@@ 17
亜@@ 17
亮 17
伊 17
佳 17
係 17
六 17
剧@@ 17
千 17
卒 17
及@@ 17
句 17
吳 17
吹@@ 17
報@@ 17
外 17
存@@ 17
孫 17
宿 17
寨 17
寨@@ 17
岗@@ 17
巡@@ 17
庚 17
弓 17
弟 17
復@@ 17
悪@@ 17
憲 17
散@@ 17
日本 17
札 17
柱@@ 17
深 17
淳@@ 17
漫@@ 17
澄 17
濟 17
灌@@ 17
照 17
玛@@ 17
玲 17
琳 17
産@@ 17
由 17
界 17
知 17
禁@@ 17
禅@@ 17
禹@@ 17
竜 17
笑@@ 17
符 17
純@@ 17
終@@ 17
署 17
羊 17
翼@@ 17
肉@@ 17
能 17
芦@@ 17
苍@@ 17
茉@@ 17
药@@ 17
蒋@@ 17
變 17
论 17
象 17
资@@ 17
農 17
边@@ 17
达 17
進 17
邑@@ 17
邪 17
长 17
閻@@ 17
陶 17
隊@@ 17
雁@@ 17
霸@@ 17
非 17
館@@ 17
骨 17
Ꞓ@@ 17
떡 17
를 17
린 17
물@@ 17
방 17
배@@ 17
백 17
버@@ 17
순 17
애@@ 17
︎ 17
𐌰@@ 17
🇬 17
Başkan@@ 16
Karriere 16
Kuzey 16
Mungu 16
Pháp 16
andishi 16
dòng 16
eğ@@ 16
gerek@@ 16
ilgili 16
kwamba 16
miş@@ 16
mús@@ 16
người 16
población 16
thân 16
vương 16
yıl@@ 16
Ông 16
đá 16
ılık 16
ĺ@@ 16
Ɩ 16
Ɯ 16
ȣ@@ 16
ɜ 16
ɳ 16
͟ 16
Αλ@@ 16
Βασ@@ 16
Γεω@@ 16
Δημοκρατ@@ 16
Κά@@ 16
Περι@@ 16
Πλ@@ 16
Στρ@@ 16
έδ@@ 16
έως 16
ακή 16
ερν@@ 16
θη 16
κη 16
κλει@@ 16
νι@@ 16
οίκ@@ 16
οικ@@ 16
πολλ@@ 16
προς 16
ρακ@@ 16
ριν@@ 16
φω@@ 16
χρον@@ 16
ώρα 16
Исто@@ 16
СР 16
ато 16
бат@@ 16
блиоте@@ 16
бор 16
бре@@ 16
бу 16
бя 16
вана 16
ват@@ 16
вер 16
виде@@ 16
времен@@ 16
вро@@ 16
въ@@ 16
гли@@ 16
дя@@ 16
един@@ 16
жд@@ 16
жда@@ 16
жизни 16
искус@@ 16
кие 16
ких 16
клю@@ 16
корпу@@ 16
лли@@ 16
нат 16
ными 16
окру@@ 16
полк 16
поэ@@ 16
район 16
рий@@ 16
рю@@ 16
сле@@ 16
хоро@@ 16
хот@@ 16
ью 16
ҧ@@ 16
ҳ@@ 16
Յ@@ 16
ձ@@ 16
ֽ@@ 16
ادة 16
اض@@ 16
اع 16
الض@@ 16
اً 16
با 16
بد 16
بد@@ 16
بلا@@ 16
رس@@ 16
رش@@ 16
زار 16
سر 16
عام@@ 16
فت@@ 16
فل@@ 16
قط@@ 16
كتاب 16
مار 16
مدر@@ 16
مك@@ 16
ملی 16
ناء 16
ندر 16
نش@@ 16
وار 16
يع@@ 16
يك@@ 16
ينا 16
ّة 16
کر 16
گا@@ 16
ید 16
یل 16
ܘ 16
ܪ 16
ँ@@ 16
थ 16
दा@@ 16
नि 16
बि@@ 16
मी 16
ণ@@ 16
ਇ@@ 16
ਨ 16
ஸ 16
ත@@ 16
ප@@ 16
ර 16
ල 16
ตร@@ 16
ติ 16
ถ@@ 16
ทธ@@ 16
พร@@ 16
ลิ@@ 16
าย 16
เต@@ 16
เป@@ 16
ຕ@@ 16
ໂ@@ 16
ໄ@@ 16
ቦ@@ 16
ዲ@@ 16
᛬ 16
ភ 16
អ 16
ᠮ@@ 16
Ḩ@@ 16
ṙ@@ 16
Ẁ@@ 16
ạ@@ 16
ἵ@@ 16
↲ 16
⊇ 16
☮ 16
Ɑ 16
ⲉ 16
ⵇ 16
ⵕ 16
ひ 16
ッ 16
ビ 16
义 16
乐 16
九 16
介@@ 16
仔@@ 16
冒@@ 16
冰 16
升 16
午 16
參@@ 16
向 16
品 16
哥@@ 16
园@@ 16
塚@@ 16
壽 16
宅 16
宣 16
导@@ 16
岛@@ 16
干 16
幽@@ 16
序 16
延 16
彩 16
待@@ 16
從@@ 16
徳 16
怀@@ 16
恩 16
慎 16
折@@ 16
招@@ 16
拜@@ 16
摩 16
易 16
枝 16
楊 16
構 16
欣 16
欧@@ 16
沖@@ 16
満@@ 16
瀬@@ 16
点 16
燈@@ 16
爵 16
牟@@ 16
狐@@ 16
獄 16
琴@@ 16
異@@ 16
當@@ 16
督@@ 16
礼 16
端 16
策 16
範 16
粉 16
綱 16
肥@@ 16
艦@@ 16
节 16
芥@@ 16
茅@@ 16
菅@@ 16
菜@@ 16
虹 16
融 16
衡 16
被@@ 16
親 16
譜 16
議 16
護 16
说@@ 16
谢@@ 16
資@@ 16
輪 16
週@@ 16
選 16
邊 16
郡@@ 16
鑑 16
阜@@ 16
雍@@ 16
韋@@ 16
頼@@ 16
魂 16
鳳 16
黒 16
鼎 16
鼎@@ 16
궁 16
김 16
독 16
보 16
손@@ 16
술 16
에 16
을@@ 16
있@@ 16
채@@ 16
춘@@ 16
후@@ 16
Beispi@@ 15
Januar 15
Ngày 15
Zweiten 15
bekannt 15
dieses 15
ecek@@ 15
ekani 15
humo 15
huyện 15
không 15
mtu 15
mwan@@ 15
mét 15
niên 15
región 15
sowie 15
utiliz@@ 15
Ì 15
đồng 15
ĵ 15
Ŝ 15
Ǝ@@ 15
Ɣ 15
ƭ 15
ưa 15
ườ@@ 15
ɴ@@ 15
ˇ 15
̅ 15
Βι@@ 15
Κο@@ 15
Κωνστ@@ 15
ανα@@ 15
βολ@@ 15
διά@@ 15
δύ@@ 15
είου 15
ζω@@ 15
ηθ@@ 15
κατά@@ 15
κορ@@ 15
κόσ@@ 15
μελ@@ 15
ουρ@@ 15
ούμεν@@ 15
ραβ@@ 15
σκοπ@@ 15
στα 15
τικά 15
τον@@ 15
τροφ@@ 15
φέρ@@ 15
ύγ@@ 15
ώδ@@ 15
Ϙ 15
Ϝ 15
Глав@@ 15
Дже@@ 15
История 15
По 15
век 15
вла@@ 15
вого 15
год@@ 15
граф 15
ины 15
истори@@ 15
кли@@ 15
крат@@ 15
кур@@ 15
лиш@@ 15
лосо@@ 15
ней 15
оп@@ 15
пат@@ 15
публики 15
пут@@ 15
ради@@ 15
рам@@ 15
рани 15
рез@@ 15
риа@@ 15
само@@ 15
ул 15
управление 15
уче@@ 15
фор@@ 15
фрон@@ 15
худож@@ 15
художе@@ 15
щение 15
ят 15
ёт 15
ҫ@@ 15
ճ@@ 15
ֿ@@ 15
ائية 15
ادل 15
اسي 15
الذ@@ 15
العرا@@ 15
بية 15
بيل 15
تا 15
تق@@ 15
جز@@ 15
خو@@ 15
دن 15
ضاء 15
طان 15
عز@@ 15
عن@@ 15
فري@@ 15
كت@@ 15
مست@@ 15
ند 15
نس@@ 15
نم@@ 15
ولاية 15
وية 15
يات 15
ينة 15
ٍ 15
پرو@@ 15
چو@@ 15
ڈی@@ 15
یا 15
یم 15
ހ@@ 15
ޅ@@ 15
ީ@@ 15
गा@@ 15
तर 15
दी 15
दी@@ 15
नी@@ 15
मि@@ 15
लि@@ 15
वन 15
शा@@ 15
हा@@ 15
ो@@ 15
ਧ@@ 15
ਸ 15
త@@ 15
న@@ 15
ు@@ 15
ರ 15
ങ 15
ദ@@ 15
ശ@@ 15
ෙ@@ 15
ผ 15
พัน@@ 15
ภา@@ 15
อั@@ 15
เห@@ 15
แก@@ 15
ራ 15
ነ 15
ዓ@@ 15
፡ 15
ᔨ@@ 15
ᠯ@@ 15
᷆ 15
ṁ@@ 15
Ṭ 15
ẁ 15
ặ@@ 15
Ẹ 15
Ọ 15
ἠ@@ 15
Ἠ@@ 15
₱ 15
ℬ 15
ⲛ 15
〇@@ 15
び 15
も 15
ゆ 15
ヘ@@ 15
乱@@ 15
争 15
们@@ 15
偉 15
傅 15
初 15
剣 15
叔@@ 15
哉 15
唱@@ 15
問 15
嗣 15
固 15
域@@ 15
墓 15
契@@ 15
婆@@ 15
存 15
容 15
専@@ 15
己@@ 15
巴 15
库@@ 15
引 15
彌@@ 15
徽@@ 15
托@@ 15
护@@ 15
数@@ 15
旺@@ 15
杉 15
杏@@ 15
枝@@ 15
核@@ 15
桜@@ 15
棠 15
汉 15
沟 15
浙@@ 15
灰@@ 15
熙 15
片 15
牙 15
瑶@@ 15
璃@@ 15
番 15
砂@@ 15
礁 15
竺@@ 15
第二@@ 15
級 15
纳@@ 15
習@@ 15
耀@@ 15
聲@@ 15
若 15
荊@@ 15
訓 15
詞 15
謝 15
贡@@ 15
赛 15
跡 15
軌@@ 15
輸 15
辛 15
进@@ 15
远@@ 15
逆@@ 15
邪@@ 15
邱@@ 15
錢 15
阪 15
難 15
露@@ 15
頓@@ 15
類@@ 15
飯 15
飯@@ 15
魔 15
鮮 15
鴻 15
齋 15
ꞌ@@ 15
간 15
규 15
데@@ 15
들 15
람 15
말 15
목@@ 15
범@@ 15
병 15
살@@ 15
생@@ 15
슈@@ 15
실@@ 15
열@@ 15
울 15
카@@ 15
케@@ 15
크 15
항@@ 15
향@@ 15
환@@ 15
︡ 15
＆ 15
Mitglied 14
Năm 14
Quận 14
besondere 14
chake 14
febr@@ 14
geç@@ 14
hiyo 14
joined 14
located 14
nhà 14
ongozi 14
onun 14
según 14
tigt 14
weiter@@ 14
wenye 14
zusammen 14
 14
ãng 14
íses 14
Ė 14
Ĩ 14
Ĵ@@ 14
ưởng 14
ɬ 14
ɵ@@ 14
ʙ 14
̺ 14
̼ 14
Ή@@ 14
Βουλ@@ 14
Μέ@@ 14
Σχολ@@ 14
Τα 14
Τσ@@ 14
έζ@@ 14
ένα 14
ήματα 14
ίδα 14
ανου@@ 14
είς 14
θή@@ 14
θμ@@ 14
κυβέρνηση 14
λλην@@ 14
μην@@ 14
νησ@@ 14
νύ@@ 14
ολογ@@ 14
ολογία 14
ουσα 14
ρίου 14
ρν@@ 14
σμα 14
στρ@@ 14
στρατ@@ 14
ταρ@@ 14
φυσ@@ 14
Ё 14
Бел@@ 14
Мини@@ 14
Пари@@ 14
Юж@@ 14
без@@ 14
вания 14
вена 14
вод 14
гово@@ 14
действи@@ 14
дела@@ 14
дена 14
дина@@ 14
душ@@ 14
зда@@ 14
йски 14
ката 14
кин@@ 14
лиза@@ 14
льной 14
ную 14
оз@@ 14
партия 14
под 14
рал@@ 14
рио@@ 14
селе@@ 14
смо@@ 14
совет@@ 14
спа@@ 14
сс@@ 14
ством 14
ству@@ 14
фу@@ 14
хар@@ 14
шего 14
юр@@ 14
ях 14
ёл 14
ҷ@@ 14
է 14
փ@@ 14
؟ 14
ء@@ 14
ئة 14
اعة 14
الأر@@ 14
الاتحاد 14
البا@@ 14
البل@@ 14
الرو@@ 14
السع@@ 14
المسي@@ 14
المه@@ 14
الية 14
امة 14
بار 14
برو@@ 14
بھ@@ 14
تر 14
تش@@ 14
دم 14
راج 14
سا 14
سپ@@ 14
شاہ 14
شري@@ 14
طل@@ 14
عه 14
قية 14
لف 14
مخ@@ 14
مغ@@ 14
مون 14
نام@@ 14
نظ@@ 14
نق@@ 14
وال 14
ودية 14
ورية 14
وط 14
وط@@ 14
وني 14
پار@@ 14
کی 14
ई 14
घ 14
णा 14
भ 14
रम 14
राज 14
सि@@ 14
ान 14
ी 14
ਆ@@ 14
વ@@ 14
ା@@ 14
క@@ 14
ి 14
ಗ@@ 14
ದ@@ 14
ನ 14
ಯ@@ 14
ಲ 14
സ 14
ය@@ 14
กล@@ 14
ชั@@ 14
ตน 14
นา 14
บั@@ 14
พรร@@ 14
มิ@@ 14
สิง@@ 14
อก 14
อิน@@ 14
ัง 14
ันท@@ 14
เช@@ 14
ື@@ 14
ཛ@@ 14
တ 14
ሀ@@ 14
ሴ 14
ភ@@ 14
ᠤ 14
ᠶ@@ 14
᷇ 14
Ḍ 14
Ṣ 14
ẫ@@ 14
ắn 14
ỉnh 14
Ị 14
ἢ 14
⁷ 14
⋂ 14
ⲕ@@ 14
ⲗ@@ 14
ⲟ 14
ⲱ@@ 14
ⴽ 14
あ 14
ず 14
ガ 14
バ 14
专@@ 14
习@@ 14
些@@ 14
亦@@ 14
们 14
俗@@ 14
僕@@ 14
冠 14
凰@@ 14
刊 14
匹@@ 14
各@@ 14
吕@@ 14
味@@ 14
因 14
因@@ 14
围@@ 14
坡 14
始 14
姑@@ 14
娘@@ 14
対@@ 14
射 14
將 14
屏@@ 14
展 14
巢 14
幣@@ 14
庸 14
廟 14
弁@@ 14
强 14
彩@@ 14
応@@ 14
恭 14
恵 14
戈@@ 14
投@@ 14
持 14
挑@@ 14
推@@ 14
播@@ 14
敦@@ 14
旦@@ 14
板 14
柔 14
極 14
欢@@ 14
沁@@ 14
没@@ 14
泥@@ 14
注 14
注@@ 14
浅@@ 14
混@@ 14
温 14
溫@@ 14
潭@@ 14
澳 14
炳@@ 14
焼 14
爆@@ 14
猫 14
献@@ 14
琵@@ 14
瓜 14
發@@ 14
百 14
眼 14
着@@ 14
砲 14
磨@@ 14
禄@@ 14
種 14
筋@@ 14
管 14
簡@@ 14
紅 14
組@@ 14
繁@@ 14
織 14
續@@ 14
羌@@ 14
羲 14
翁 14
考 14
肃@@ 14
腐 14
腰 14
臺 14
舊@@ 14
落 14
蓋@@ 14
蓬@@ 14
虚@@ 14
虹@@ 14
血 14
裏 14
裕 14
解 14
计@@ 14
贊 14
远 14
述 14
追@@ 14
送@@ 14
逸@@ 14
運 14
遺@@ 14
還@@ 14
郝@@ 14
錫@@ 14
鐘 14
钱@@ 14
铁 14
铜@@ 14
锦@@ 14
開 14
閣 14
阿 14
陀 14
雞@@ 14
霍@@ 14
霞@@ 14
靜 14
鞍@@ 14
韓 14
飲@@ 14
黄 14
공 14
과@@ 14
근@@ 14
길 14
날 14
독@@ 14
등@@ 14
란 14
래@@ 14
렁 14
려@@ 14
림 14
립@@ 14
매@@ 14
밀@@ 14
본@@ 14
섭 14
씨@@ 14
안 14
알@@ 14
양 14
왕 14
왜@@ 14
추@@ 14
코@@ 14
키@@ 14
테@@ 14
형@@ 14
︠ 14
ﻟ@@ 14
𝒪 14
bedeut@@ 13
chân 13
cung 13
của 13
erreich@@ 13
género 13
kwanza 13
kı@@ 13
larda 13
octubre 13
puesto 13
returned 13
sechs 13
thanh 13
trường 13
trận 13
términ@@ 13
vió 13
zweiten 13
ıdır 13
Ň@@ 13
ŗ 13
ƴ@@ 13
ǜ@@ 13
ɥ 13
ɭ@@ 13
ʏ@@ 13
ʝ 13
˨ 13
Αντι@@ 13
Αρ@@ 13
Ελ@@ 13
Κλ@@ 13
Σου@@ 13
άλασ@@ 13
άρα 13
έμ@@ 13
αία 13
αμπ@@ 13
αυτ@@ 13
γμα 13
γράφ@@ 13
δη@@ 13
δό@@ 13
είων 13
ειρ@@ 13
εξ@@ 13
θλ@@ 13
ιάς 13
ιπ@@ 13
ισσ@@ 13
κι 13
λεγ@@ 13
μικ@@ 13
οδος 13
ονομ@@ 13
ουσία 13
ουσι@@ 13
παρα@@ 13
πολί@@ 13
πρι@@ 13
ρη@@ 13
σαν 13
σημ@@ 13
στερ@@ 13
στη 13
τηρ@@ 13
τού 13
τροπ@@ 13
ωγ@@ 13
ϒ 13
Бри@@ 13
Й 13
Од@@ 13
СС@@ 13
Ст@@ 13
бай@@ 13
бере@@ 13
бю@@ 13
бя@@ 13
вос@@ 13
все@@ 13
вши@@ 13
государ@@ 13
дон@@ 13
ждения 13
зах@@ 13
изи@@ 13
истории 13
их 13
ках 13
квар@@ 13
кия 13
кти@@ 13
ната 13
них 13
нк@@ 13
оби@@ 13
обре@@ 13
око@@ 13
пи 13
пло@@ 13
поль@@ 13
права 13
рабо@@ 13
рения 13
рок 13
ским 13
спи@@ 13
су 13
том 13
три 13
федера@@ 13
хе@@ 13
чей 13
человек 13
чина 13
чно 13
ём 13
ү 13
أ 13
ابة 13
اري 13
الأح@@ 13
الدي@@ 13
السلام 13
المؤ@@ 13
انا 13
انق@@ 13
اُ@@ 13
بش@@ 13
بول@@ 13
ثة 13
جر 13
خد@@ 13
خوا@@ 13
ذ 13
رار 13
رہ 13
سام@@ 13
صي@@ 13
طي@@ 13
عص@@ 13
قی 13
لام 13
مصر 13
مض@@ 13
مع 13
مهورية 13
ندي 13
نه@@ 13
وی 13
يني 13
يُ@@ 13
ڑ 13
ڠ@@ 13
گر@@ 13
ۈ@@ 13
ې@@ 13
की 13
ढ@@ 13
णी 13
ती@@ 13
पद 13
बु@@ 13
राम 13
राष 13
वै@@ 13
सम 13
से@@ 13
हिं@@ 13
िक 13
ধ 13
হ 13
ਅ@@ 13
ੋ@@ 13
ન@@ 13
ର@@ 13
ం@@ 13
മ 13
ඩ@@ 13
හ@@ 13
ฐ 13
ตา 13
ทะ@@ 13
บาง@@ 13
บู@@ 13
ภู@@ 13
อด@@ 13
๋ 13
ຂ@@ 13
ຍ@@ 13
ຜ@@ 13
ວ 13
ີ@@ 13
ູ@@ 13
ྗ@@ 13
ྣ@@ 13
ံ@@ 13
ბ 13
ሙ@@ 13
ሠ 13
ሪ 13
ሪ@@ 13
ሰ 13
በ 13
ባ 13
ብ 13
ታ 13
ኮ@@ 13
ዘ@@ 13
ፋ@@ 13
ិ 13
ḇ 13
Ḱ@@ 13
Ḷ@@ 13
ẞ 13
ạp 13
ặt 13
Ẽ 13
Ụ 13
ừng 13
ửa 13
Ἕ@@ 13
Ὁ@@ 13
ὡ@@ 13
ῷ@@ 13
₃ 13
₽ 13
⋀ 13
⋊ 13
⎕ 13
◦ 13
ⲃ@@ 13
ⲙ@@ 13
ⵀ 13
づ@@ 13
む 13
テ 13
ヌ@@ 13
ネ 13
モ 13
万 13
仰@@ 13
伏 13
伟 13
例 13
俠 13
偏@@ 13
優@@ 13
兩@@ 13
冯@@ 13
刊@@ 13
刚@@ 13
剣@@ 13
卡@@ 13
印 13
吐@@ 13
咒 13
器@@ 13
団@@ 13
團@@ 13
场@@ 13
均 13
坊 13
垣@@ 13
奈 13
姜 13
姫@@ 13
婦@@ 13
寇@@ 13
寸 13
專@@ 13
尹 13
岸 13
峨@@ 13
崇 13
左 13
巫@@ 13
席 13
廠 13
廷 13
弓@@ 13
強@@ 13
征 13
很@@ 13
復 13
徹 13
忘@@ 13
恒 13
惟@@ 13
惠 13
懷@@ 13
懿@@ 13
戶@@ 13
打 13
扬 13
报@@ 13
政府 13
料@@ 13
晃 13
晋 13
曇@@ 13
杀 13
杯 13
栄@@ 13
梧@@ 13
棋 13
楽 13
樓@@ 13
殺 13
求@@ 13
沧@@ 13
沪@@ 13
炎 13
熊 13
燒@@ 13
狗@@ 13
狩@@ 13
疆 13
發 13
皖@@ 13
盖@@ 13
盤@@ 13
砲@@ 13
祚 13
竇@@ 13
竿@@ 13
绍@@ 13
绥@@ 13
考@@ 13
聞 13
脉 13
航 13
荔@@ 13
莉 13
莲@@ 13
葛 13
蘇 13
虛@@ 13
覚@@ 13
覺 13
計 13
設@@ 13
變@@ 13
豊 13
豬@@ 13
軒 13
輔@@ 13
辭@@ 13
過 13
郭 13
鏡 13
附@@ 13
雑@@ 13
頂@@ 13
願 13
駱@@ 13
麟@@ 13
궁@@ 13
귀@@ 13
덕 13
루 13
림@@ 13
베@@ 13
식@@ 13
암 13
애 13
온@@ 13
외@@ 13
웅@@ 13
읍 13
집 13
찬@@ 13
체@@ 13
충@@ 13
티 13
포 13
헌 13
형 13
ﻴ@@ 13
𝒰 13
𝔻 13
𝗘@@ 13
🇲 13
Dezember 12
Mwaka 12
açık@@ 12
binh 12
biên 12
conocido 12
dabei 12
kodi 12
nhân 12
película 12
producción 12
quận 12
sido 12
timu 12
tranh 12
wais@@ 12
 12
çok 12
ğin 12
ŗ@@ 12
şehir@@ 12
Ũ 12
ƿ 12
ǜ 12
ȏ@@ 12
ȣ 12
ȩ 12
ɰ 12
˙ 12
̬ 12
Μακ@@ 12
Μουσ@@ 12
Οι 12
ήθ@@ 12
ίκη 12
ίλι@@ 12
αντιν@@ 12
γνώ@@ 12
γρ@@ 12
γραμ@@ 12
εγ@@ 12
κε@@ 12
κοιν@@ 12
κρί@@ 12
λαβ@@ 12
λεξ@@ 12
μένων 12
μας 12
μορφή 12
ορι@@ 12
ούλ@@ 12
ούσ@@ 12
πους 12
ροφ@@ 12
σον 12
σχολ@@ 12
ταλ@@ 12
τους 12
υνα@@ 12
υπο@@ 12
όμε@@ 12
όνα 12
Ј 12
Њ@@ 12
Афри@@ 12
Ман@@ 12
СА@@ 12
Свети 12
аб@@ 12
бле@@ 12
вени 12
вне@@ 12
води@@ 12
графи@@ 12
дат 12
дре@@ 12
звез@@ 12
зии 12
ити 12
личе@@ 12
ляр@@ 12
мени@@ 12
мер 12
мест@@ 12
мин@@ 12
музи@@ 12
мыш@@ 12
нем@@ 12
низ@@ 12
нию 12
освобо@@ 12
пита@@ 12
пле@@ 12
площа@@ 12
поч@@ 12
пя@@ 12
скую 12
следовате@@ 12
сли 12
сме@@ 12
стра 12
стран@@ 12
строитель@@ 12
тран@@ 12
хия 12
что 12
ющий 12
ям 12
Қ 12
ҡ 12
ջ@@ 12
ֆ@@ 12
ֹ 12
آر@@ 12
ئ 12
ائی 12
اف 12
الآ@@ 12
الثق@@ 12
الحر@@ 12
الشر@@ 12
اللہ 12
الم 12
المغربية 12
امیر 12
باد 12
تص@@ 12
تع@@ 12
تن@@ 12
ته@@ 12
جوا@@ 12
خار@@ 12
خر@@ 12
دان@@ 12
رون 12
سان 12
ست 12
علی@@ 12
عم 12
غة 12
فی 12
كل 12
نور@@ 12
نگ 12
واحد 12
وح@@ 12
يق@@ 12
پ 12
پر@@ 12
گر 12
ۆ@@ 12
ۇ 12
ۋ@@ 12
یز 12
ە 12
ܒ 12
ܣ 12
ށ@@ 12
ކ@@ 12
ް 12
अन 12
ई@@ 12
उप@@ 12
ऋ@@ 12
कर@@ 12
गि@@ 12
जु@@ 12
झ@@ 12
ठ@@ 12
तन 12
तु@@ 12
था@@ 12
देव 12
बा 12
यान 12
रक 12
वी@@ 12
वे 12
शि@@ 12
सन 12
िया 12
ो 12
খ 12
থ 12
ৰ@@ 12
ਲ 12
ક@@ 12
ବ@@ 12
ା 12
ஆ@@ 12
ச 12
ழ@@ 12
ప@@ 12
ಜ@@ 12
ಪ@@ 12
ಬ@@ 12
ಶ@@ 12
ട 12
ක 12
ග@@ 12
ขา@@ 12
ชิ@@ 12
ตร 12
บร@@ 12
มพ@@ 12
ราช 12
วง 12
ศา@@ 12
สะ@@ 12
ฮ@@ 12
เต 12
ີ 12
ໍ@@ 12
ཐ@@ 12
ဆ@@ 12
მ 12
ტ 12
ሃ@@ 12
ሚ@@ 12
ሳ 12
ቸ@@ 12
ዬ 12
ጊ@@ 12
ᑦ 12
ᚢ@@ 12
ើ@@ 12
ᠡ@@ 12
ᠢ@@ 12
ᠰ@@ 12
ᱷ 12
ḕ 12
ṅ 12
ṓ 12
ṵ 12
ṷ@@ 12
Ạ 12
ấ@@ 12
ếp 12
ọi 12
ổng 12
ờ@@ 12
Ἅ@@ 12
ἰ 12
᾽ 12
ῳ@@ 12
ℋ 12
Ⅱ 12
⋁ 12
⋃ 12
▄ 12
ⲩ 12
ⲫ@@ 12
ⵖ 12
へ@@ 12
ゅ 12
ハ 12
ヒ 12
ベ 12
ユ 12
ワ 12
ㅣ 12
丙@@ 12
乗@@ 12
人民 12
他 12
們 12
候@@ 12
儒@@ 12
允@@ 12
兆@@ 12
內 12
兮 12
具@@ 12
冬 12
冲@@ 12
凡@@ 12
剑@@ 12
剧 12
去 12
参 12
又@@ 12
变 12
叶 12
呼@@ 12
哀@@ 12
圍 12
圓 12
坊@@ 12
埔@@ 12
堡 12
壁 12
壮@@ 12
她@@ 12
妹 12
妻 12
姓@@ 12
宾@@ 12
審@@ 12
導@@ 12
尖@@ 12
屈@@ 12
廣 12
弟@@ 12
必@@ 12
怪 12
戲 12
承 12
抱@@ 12
掛@@ 12
攻@@ 12
斌 12
旭 12
查@@ 12
柳 12
格 12
棒 12
欽 12
殊@@ 12
毕@@ 12
汗 12
泗@@ 12
洗@@ 12
淡@@ 12
添 12
渡 12
渭@@ 12
滩@@ 12
漁@@ 12
潔 12
煙@@ 12
犬 12
獄@@ 12
玫@@ 12
琅@@ 12
瑪@@ 12
瓶@@ 12
甫@@ 12
異 12
疆@@ 12
益 12
盘@@ 12
碑 12
禅 12
競@@ 12
筆 12
経@@ 12
絶@@ 12
结@@ 12
聚@@ 12
腾@@ 12
臣@@ 12
苦 12
莊@@ 12
莱@@ 12
藥@@ 12
蜀 12
衡@@ 12
被 12
補 12
補@@ 12
観 12
观@@ 12
訣 12
読@@ 12
设@@ 12
词@@ 12
诗@@ 12
豐 12
豫@@ 12
貝@@ 12
賀 12
賈@@ 12
賓@@ 12
跡@@ 12
轉@@ 12
辰 12
近 12
速 12
遮@@ 12
邦 12
鄂@@ 12
采@@ 12
銅@@ 12
锡@@ 12
间 12
闻@@ 12
陸 12
顏@@ 12
顕@@ 12
顯 12
顯@@ 12
鳩@@ 12
鹤@@ 12
麥@@ 12
개 12
계 12
그 12
꽃@@ 12
녀@@ 12
년 12
더@@ 12
막@@ 12
말@@ 12
슬@@ 12
실 12
암@@ 12
찬 12
처@@ 12
키 12
항 12
행@@ 12
０@@ 12
🇦 12
Bevöl@@ 11
Biografía 11
Chiến 11
Chúng 11
Einwoh@@ 11
Giải 11
Mji 11
También 11
Tổng 11
cầu 11
cổ 11
dağ@@ 11
gewäh@@ 11
họ 11
hội 11
isiwa 11
luğu 11
lã@@ 11
mäß@@ 11
này 11
número 11
năm 11
oloji 11
opened 11
sensa 11
tasar@@ 11
trò 11
tàu 11
varios 11
verschied@@ 11
yapan 11
yür@@ 11
 11
época 11
Ğ 11
Ħ 11
ılı 11
ımı 11
Ĳ 11
Ŭ@@ 11
Ɓ@@ 11
Ǫ 11
Ɇ 11
ɽ 11
ʐ 11
ʑ 11
ʟ 11
ʡ 11
ʳ@@ 11
͜ 11
Γεν@@ 11
Δήμ@@ 11
Επι@@ 11
Κοιν@@ 11
Τζ@@ 11
έρα 11
ΰ@@ 11
αιν@@ 11
ανο@@ 11
αξ@@ 11
ασκ@@ 11
δημ@@ 11
είο 11
εισ@@ 11
ενός 11
επι@@ 11
εω@@ 11
θερ@@ 11
ιζ@@ 11
ιν 11
κα 11
καταστ@@ 11
κει@@ 11
μάτων 11
μέσ@@ 11
μεσ@@ 11
μηχαν@@ 11
μό@@ 11
ορο@@ 11
περί@@ 11
ρίς 11
ρο 11
σκευ@@ 11
συγ@@ 11
τεκ@@ 11
τιν@@ 11
τού@@ 11
τρα 11
χεί@@ 11
χωρ@@ 11
ωβ@@ 11
ωλ@@ 11
όμα 11
ότητα 11
ϩ 11
Бълга@@ 11
Он 11
бит@@ 11
благо@@ 11
ване 11
ват 11
вз@@ 11
всех 11
губер@@ 11
гъ@@ 11
дел@@ 11
дение 11
дни 11
евре@@ 11
емы@@ 11
есть 11
желез@@ 11
ким 11
коле@@ 11
коман@@ 11
коми@@ 11
кры@@ 11
мента@@ 11
мина@@ 11
назна@@ 11
най 11
науч@@ 11
ник@@ 11
ному 11
ол@@ 11
памя@@ 11
пен@@ 11
пон@@ 11
пру@@ 11
рази@@ 11
рая 11
сем@@ 11
ском 11
ску@@ 11
служ@@ 11
стви@@ 11
стен@@ 11
ступ@@ 11
тех@@ 11
това 11
уда@@ 11
уез@@ 11
университета 11
чной 11
шения 11
ших 11
Ғ 11
ҡ@@ 11
Ә@@ 11
Տ@@ 11
ո 11
ִ 11
أح@@ 11
أر@@ 11
اح 11
افظ 11
الأم@@ 11
الان@@ 11
الحزب 11
القر@@ 11
امی@@ 11
اول@@ 11
باء 11
باد@@ 11
بور@@ 11
تج@@ 11
تس@@ 11
تل 11
تی@@ 11
جا 11
جم 11
جمع@@ 11
حص@@ 11
دل 11
ديد 11
دين 11
دُ@@ 11
دھ@@ 11
رام 11
رانی 11
زب@@ 11
ساح@@ 11
سين@@ 11
شب@@ 11
شت 11
شن 11
شو@@ 11
شی 11
صح@@ 11
علم 11
فرا@@ 11
فرو@@ 11
قب@@ 11
لاد 11
مت 11
مث@@ 11
مدينة 11
مذ@@ 11
مور@@ 11
مول@@ 11
مين 11
وأ@@ 11
واء 11
وسط 11
وش@@ 11
ولة 11
يرة 11
ٰ 11
یو@@ 11
ܠ 11
ܨ@@ 11
ंग 11
ः 11
अ 11
ए@@ 11
के@@ 11
चन 11
चि@@ 11
चौ@@ 11
जी@@ 11
ञा@@ 11
णि@@ 11
दर 11
दा 11
दे@@ 11
धि 11
पि@@ 11
पूर 11
भारतीय 11
मी@@ 11
रीय 11
शी 11
सी@@ 11
हत 11
हू@@ 11
ी@@ 11
। 11
ও 11
ও@@ 11
ে 11
ৎ 11
ਇ 11
ਘ 11
ਣ@@ 11
ੂ@@ 11
મ@@ 11
ા 11
ી 11
ુ@@ 11
କ@@ 11
ற 11
గ@@ 11
బ@@ 11
ర 11
ತ@@ 11
ട@@ 11
യ 11
ോ@@ 11
ං@@ 11
ය 11
ව 11
ි 11
กั@@ 11
กำ@@ 11
งค@@ 11
พล@@ 11
พันธ@@ 11
มี 11
รา 11
ลูก@@ 11
วี 11
อล@@ 11
ิด@@ 11
เทศ@@ 11
แล@@ 11
แส@@ 11
ใน@@ 11
ไท@@ 11
ན@@ 11
ཕ@@ 11
ྡ@@ 11
ྷ@@ 11
ဝ 11
ဟ@@ 11
ေ 11
ჟ@@ 11
ሊ@@ 11
ሳ@@ 11
ቡ@@ 11
ቤ@@ 11
ቲ 11
ዕ@@ 11
ፈ@@ 11
ᐤ 11
ᒄ 11
ᒉ@@ 11
ᓐ 11
ᔪ@@ 11
ᛏ 11
᛫ 11
ៀ@@ 11
ᵐ@@ 11
ᶜ@@ 11
ḿ 11
ḿ@@ 11
ịch 11
ỗi 11
ờ 11
ứ@@ 11
ἦ@@ 11
Ἥ@@ 11
ἷ@@ 11
ὖ 11
ᾰ@@ 11
⃗ 11
↘ 11
ⵗ 11
ⵟ 11
そ 11
ど 11
ふ 11
べ 11
ょ 11
ヴ 11
丈 11
个 11
亀@@ 11
伎 11
休 11
侍 11
便@@ 11
候 11
偉@@ 11
做@@ 11
傣@@ 11
儒 11
充 11
冶 11
刑@@ 11
刚 11
创@@ 11
券 11
刻 11
剑 11
助@@ 11
勒 11
协@@ 11
卦@@ 11
厚@@ 11
受 11
図@@ 11
地区 11
圳@@ 11
垣 11
執@@ 11
壁@@ 11
壬@@ 11
変 11
変@@ 11
央 11
孤@@ 11
宜 11
寂@@ 11
實 11
尺 11
屯 11
崖@@ 11
巻@@ 11
希 11
店@@ 11
廉@@ 11
弥 11
强@@ 11
录 11
彬 11
徒 11
悠@@ 11
戈 11
拿 11
探 11
控@@ 11
提 11
撃@@ 11
放 11
散 11
晴 11
晴@@ 11
暖@@ 11
曹 11
曼@@ 11
朋@@ 11
末 11
朱 11
机 11
杂@@ 11
杨 11
构 11
柱 11
栄 11
棟 11
構@@ 11
槍 11
槐 11
檀 11
權 11
歡@@ 11
歳 11
歸 11
每@@ 11
毒@@ 11
毘@@ 11
汤@@ 11
決 11
活 11
溫 11
漆 11
濤 11
濱@@ 11
灯@@ 11
热@@ 11
熱@@ 11
燃@@ 11
牛 11
狂 11
猪@@ 11
獅@@ 11
玻@@ 11
琪 11
甜@@ 11
盟@@ 11
短@@ 11
磨 11
祠 11
祿 11
禪@@ 11
离@@ 11
笑 11
筆@@ 11
範@@ 11
篆 11
簡 11
粉@@ 11
糸@@ 11
約@@ 11
純 11
細@@ 11
綠@@ 11
縄@@ 11
红 11
编 11
罪@@ 11
肇@@ 11
艾@@ 11
节@@ 11
苗 11
荀@@ 11
荒@@ 11
荣 11
著 11
葡@@ 11
蒼@@ 11
蔚@@ 11
薬@@ 11
蜜@@ 11
蝶 11
衆 11
誠@@ 11
調 11
警 11
谭@@ 11
豪@@ 11
負 11
質 11
贾@@ 11
趙 11
跳@@ 11
蹴@@ 11
轻@@ 11
辞@@ 11
过 11
过@@ 11
迪@@ 11
退@@ 11
送 11
逃@@ 11
遂@@ 11
遗@@ 11
郵@@ 11
醫@@ 11
釣@@ 11
鉄 11
鎖@@ 11
阜 11
階 11
零 11
靖 11
韶@@ 11
韻 11
韻@@ 11
項@@ 11
頼 11
顶@@ 11
领@@ 11
鮑@@ 11
鵬 11
鸟 11
鸭@@ 11
鸿@@ 11
鹏 11
鹿 11
麦@@ 11
麵 11
鼓 11
齊 11
각@@ 11
감@@ 11
강 11
권 11
근 11
글 11
년@@ 11
디 11
락@@ 11
룡@@ 11
머@@ 11
번@@ 11
별 11
숙 11
욱 11
월 11
위 11
유 11
윤 11
좋@@ 11
중 11
풍@@ 11
훈@@ 11
ﺮ@@ 11
＋ 11
𝒞 11
𝛼 11
Avru@@ 10
Bản 10
Cumhur@@ 10
baad@@ 10
construcción 10
cô 10
diesem 10
emaji 10
equipo 10
febrero 10
göz@@ 10
hayat@@ 10
ierten 10
ikinci 10
kundi 10
lararası 10
masına 10
ngày 10
nhất 10
nói 10
phóng 10
phủ 10
primeros 10
singi 10
sollte 10
sondern 10
starb 10
tamam@@ 10
tangu 10
thư 10
thờ 10
vierte 10
wechsel@@ 10
wäh@@ 10
 10
 10
 10
ìm 10
ıldı 10
ļ 10
ƛ 10
ưở@@ 10
ƶ 10
Ș 10
Ȩ 10
ȳ 10
ɢ 10
ɶ@@ 10
ɽ@@ 10
ʈ 10
ʍ 10
ʺ 10
̉ 10
̽ 10
Ύ@@ 10
Ανα@@ 10
Ανατολ@@ 10
Αργ@@ 10
Εκ@@ 10
Λου@@ 10
Ομ@@ 10
Ορ@@ 10
Ου@@ 10
Στα@@ 10
άν 10
άνω 10
ίδας 10
ίκης 10
αγωγή 10
αισ@@ 10
βαν@@ 10
γραφή 10
δη 10
δού@@ 10
είδ@@ 10
εικ@@ 10
ηση 10
ικών 10
κέν@@ 10
κατά 10
μάχ@@ 10
μέρα 10
μετ@@ 10
μετά 10
νό@@ 10
ογέν@@ 10
ογραφία 10
οξ@@ 10
πλο@@ 10
ποδ@@ 10
πρόσ@@ 10
ρου@@ 10
στή@@ 10
στις 10
τελ@@ 10
τικό 10
τοπ@@ 10
τό@@ 10
υψ@@ 10
φά@@ 10
ϑ 10
ϖ 10
ϰ 10
Пред@@ 10
Хе@@ 10
без 10
был 10
вом 10
время 10
геро@@ 10
груп@@ 10
дат@@ 10
дения 10
дже@@ 10
дол@@ 10
комплек@@ 10
кономиче@@ 10
кос@@ 10
лии 10
лом 10
маши@@ 10
мей@@ 10
муж@@ 10
ните@@ 10
нор@@ 10
образ@@ 10
образо@@ 10
пит@@ 10
подоб@@ 10
пол 10
пора@@ 10
пъ@@ 10
рата 10
ряд 10
сед@@ 10
скус@@ 10
смер@@ 10
ственной 10
сть@@ 10
тат@@ 10
твор@@ 10
техниче@@ 10
тече@@ 10
тот 10
труд@@ 10
уби@@ 10
ус 10
фон@@ 10
чен 10
чение 10
ческой 10
чо 10
щи 10
ён 10
Ү@@ 10
һ@@ 10
Զ@@ 10
ծ 10
չ 10
ռ 10
վ 10
ׂ 10
ײ@@ 10
أد@@ 10
أك@@ 10
ئی 10
ابی 10
اة 10
الثاني 10
الجام@@ 10
الدولة 10
الفر@@ 10
الفي@@ 10
المت@@ 10
النه@@ 10
امي 10
اولاد 10
اية 10
بال@@ 10
بان@@ 10
بخ@@ 10
بص@@ 10
بلو@@ 10
بو 10
تاب 10
تل@@ 10
تون 10
جان 10
جد 10
دو 10
دول@@ 10
دہ 10
رت 10
رق@@ 10
رو 10
رير 10
زن 10
سلسل@@ 10
سية 10
سی 10
شام 10
شع@@ 10
طي 10
عی@@ 10
غلام 10
غير 10
كار@@ 10
كن@@ 10
لق@@ 10
لم@@ 10
مبار@@ 10
نط@@ 10
والی 10
وص@@ 10
وى 10
يح@@ 10
ٌ@@ 10
پو@@ 10
ڑ@@ 10
کا 10
ڪ@@ 10
گو@@ 10
یہ 10
ݣ@@ 10
ވ@@ 10
ތ@@ 10
ँ 10
ंद 10
ओ@@ 10
ते@@ 10
दि@@ 10
दु@@ 10
पति 10
पर 10
पाल 10
भा@@ 10
मण 10
मस 10
मार 10
यार 10
राम@@ 10
राय@@ 10
रिय 10
वत 10
शे@@ 10
सू@@ 10
ारा 10
िल 10
ং 10
ਭ@@ 10
ਮ 10
ੜ@@ 10
ગ@@ 10
ે@@ 10
ழ 10
ಟ 10
ಲ@@ 10
ಾ 10
ೆ@@ 10
ദ 10
ള@@ 10
ජ@@ 10
ද 10
ී 10
ො@@ 10
คริ@@ 10
คล@@ 10
คำ@@ 10
จักร@@ 10
ชา 10
ชาย 10
ดิ@@ 10
ทั@@ 10
ธา@@ 10
พล 10
พา@@ 10
ลง@@ 10
ละ@@ 10
ลำ@@ 10
วัฒ@@ 10
หาร 10
ึ@@ 10
เรีย@@ 10
เอ@@ 10
ຍ 10
ມ 10
ཇ@@ 10
ဍ@@ 10
မ 10
ါ 10
ီ 10
ု 10
ဲ 10
ჰ@@ 10
ሮ@@ 10
ቱ 10
አ 10
ኣ@@ 10
ደ 10
ጣ@@ 10
ᐢ@@ 10
ᑐ@@ 10
ᑦ@@ 10
ᒑ@@ 10
ᓄ@@ 10
ᓯ@@ 10
ᛁ 10
ជ 10
ឈ@@ 10
ផ 10
ᠣ@@ 10
ᠬ@@ 10
ᵑ@@ 10
ᵘ 10
ḻ@@ 10
ảy 10
ủ@@ 10
Ὁ 10
ὥ@@ 10
ὦ 10
ὺ 10
ᾰ 10
ℏ 10
Ⅰ 10
Ↄ@@ 10
⊙ 10
▓ 10
▼ 10
ⲏ@@ 10
ⲙ 10
ご 10
じ 10
ほ 10
゜ 10
ギ 10
ボ 10
ョ 10
並@@ 10
丽 10
乘@@ 10
乳 10
予 10
予@@ 10
交 10
亳 10
休@@ 10
似 10
佑 10
佘@@ 10
俱@@ 10
倭 10
僕 10
僧 10
儀@@ 10
優 10
児@@ 10
共和国 10
净 10
净@@ 10
列 10
别@@ 10
則@@ 10
創@@ 10
卍 10
卢@@ 10
卷 10
卷@@ 10
发 10
句@@ 10
吾@@ 10
呂 10
咸@@ 10
問@@ 10
啟@@ 10
單@@ 10
圭@@ 10
址 10
城市 10
堡@@ 10
塚 10
壇@@ 10
复@@ 10
夕 10
契 10
奮 10
奴@@ 10
妈@@ 10
姑 10
娃@@ 10
宅@@ 10
寒 10
就 10
崑@@ 10
巳 10
帖 10
帶@@ 10
幹@@ 10
应@@ 10
弄 10
彰@@ 10
往@@ 10
徐 10
微 10
徽 10
忌 10
快 10
怒@@ 10
恋 10
息 10
慈 10
慧 10
戏@@ 10
扎@@ 10
抄 10
拼@@ 10
拾@@ 10
掌 10
掛 10
揚 10
攻 10
断@@ 10
施 10
旅 10
旧@@ 10
昂 10
昊 10
暴 10
曼 10
札@@ 10
杏 10
束 10
枚 10
枸@@ 10
柏 10
染@@ 10
桂 10
楞@@ 10
楠@@ 10
橙 10
橫@@ 10
止@@ 10
求 10
汇@@ 10
沃@@ 10
没 10
沼 10
況@@ 10
涛 10
液 10
淨@@ 10
游 10
演 10
炮@@ 10
焦@@ 10
熟@@ 10
營 10
燮 10
爾 10
状 10
猛 10
獣@@ 10
現 10
瓦@@ 10
留 10
畫@@ 10
盐@@ 10
盗@@ 10
眾@@ 10
矿@@ 10
示 10
示@@ 10
禪 10
站@@ 10
第 10
筒 10
策@@ 10
築@@ 10
索 10
統 10
続@@ 10
緑@@ 10
緒 10
緒@@ 10
緣 10
編@@ 10
織@@ 10
纲@@ 10
绿@@ 10
翠@@ 10
翰 10
翰@@ 10
耀 10
肇 10
腐@@ 10
腔 10
臨 10
舍 10
舒 10
舟 10
苎@@ 10
苦@@ 10
著@@ 10
蓉@@ 10
蛮@@ 10
蝴@@ 10
蝶@@ 10
設 10
訶@@ 10
読 10
證@@ 10
诸@@ 10
貢 10
貫@@ 10
踊@@ 10
軒@@ 10
輿 10
辉 10
辺 10
还@@ 10
进 10
迷 10
郁@@ 10
郷@@ 10
鄉@@ 10
鄴 10
銅 10
銘@@ 10
鎬 10
閩@@ 10
降 10
陕@@ 10
離 10
電 10
響@@ 10
顗 10
顾@@ 10
香港 10
魏 10
鱼 10
麒@@ 10
鼻@@ 10
龄 10
龐@@ 10
ꜣ@@ 10
ꞛ 10
게@@ 10
과 10
글@@ 10
농@@ 10
담 10
량 10
류@@ 10
름 10
맹 10
범 10
법@@ 10
변@@ 10
복 10
빅@@ 10
새@@ 10
생 10
세 10
속@@ 10
와@@ 10
작@@ 10
채 10
행 10
ﬀ@@ 10
ﬃ@@ 10
＜ 10
＞ 10
Ｅ@@ 10
𐌿@@ 10
𐎡@@ 10
🇪 10
🇳 10
🇸 10
Fransa 9
Kupası 9
Người 9
Personen 9
Seit 9
Tangu 9
Xã 9
acuerdo 9
anisha 9
beledi@@ 9
bộ 9
châu 9
dịch 9
entwick@@ 9
fueron 9
genel 9
himu 9
kwenye 9
lugha 9
lık@@ 9
nahm 9
nahmen 9
ndani 9
nörd@@ 9
pesar 9
proyecto 9
siendo 9
später 9
sản 9
sẽ 9
trung 9
tình 9
während 9
Ý 9
álb@@ 9
öffentlich@@ 9
úng 9
Ă@@ 9
động 9
İsp@@ 9
Ņ@@ 9
ņ 9
Ő 9
Ɣ@@ 9
Ɵ 9
ƥ 9
Ư 9
ượ@@ 9
ǘ@@ 9
Ǭ 9
ǵ 9
ȋ@@ 9
Ȣ 9
ȯ@@ 9
ɩ 9
ɭ 9
ˊ 9
ˑ@@ 9
˦ 9
̷ 9
Έλλην@@ 9
Έχ@@ 9
Αγίου 9
Αλεξ@@ 9
Γερμαν@@ 9
Επ@@ 9
Κόμ@@ 9
Σερ@@ 9
άδα 9
άχ@@ 9
ίδες 9
ανδρ@@ 9
βιβλ@@ 9
γαλ@@ 9
δυνα@@ 9
είν@@ 9
ηλε@@ 9
θε 9
ιερ@@ 9
κομ@@ 9
μάν@@ 9
μένος 9
μητ@@ 9
μισ@@ 9
μμ@@ 9
νησι@@ 9
οργ@@ 9
ουν 9
ούδ@@ 9
πέντε 9
παλαι@@ 9
παρά@@ 9
πιστ@@ 9
πορ@@ 9
ποταμ@@ 9
πρό@@ 9
πόλ@@ 9
ρι 9
στη@@ 9
ταγ@@ 9
ταχ@@ 9
τια 9
υργ@@ 9
υφ@@ 9
φάν@@ 9
φόρ@@ 9
χορ@@ 9
χρόν@@ 9
χώ@@ 9
ϊκ@@ 9
ϋ@@ 9
ώπ@@ 9
Ϻ 9
Ё@@ 9
Во 9
Вто@@ 9
Въ@@ 9
Гър@@ 9
Нор@@ 9
Ос@@ 9
Софи@@ 9
вата 9
века 9
вид@@ 9
визи@@ 9
вол@@ 9
вс@@ 9
все 9
вым 9
гов 9
гри@@ 9
дер 9
дна 9
дней 9
евро@@ 9
едо@@ 9
жава 9
жан@@ 9
ждан@@ 9
жена 9
жество 9
изда@@ 9
ито 9
кар 9
ките 9
когда 9
коно@@ 9
коро@@ 9
лите 9
лния 9
льные 9
льных 9
мат 9
мини@@ 9
мъ@@ 9
ографи@@ 9
ору@@ 9
остро@@ 9
оте@@ 9
пе 9
плани@@ 9
поле@@ 9
полу@@ 9
производ@@ 9
револю@@ 9
рели@@ 9
рих 9
ря 9
сил 9
син 9
современ@@ 9
специ@@ 9
ссо@@ 9
ство@@ 9
стояние 9
стру@@ 9
так 9
том@@ 9
транспор@@ 9
училище 9
чески 9
чет@@ 9
шей 9
ък 9
ът 9
љ 9
ѡ 9
Ң 9
Ի@@ 9
Ջ@@ 9
գ 9
ժ@@ 9
آب@@ 9
أخ@@ 9
أص@@ 9
أو 9
ابل 9
اث@@ 9
اخ@@ 9
اض 9
الأس@@ 9
الأول 9
الحدي@@ 9
الرح@@ 9
العامة 9
المدينة 9
انگ@@ 9
انی@@ 9
او 9
اور 9
اور@@ 9
بغ@@ 9
بہ@@ 9
تغ@@ 9
تو 9
جل 9
جمي@@ 9
جو 9
جی 9
خت 9
دائ@@ 9
دى 9
ذا 9
راب 9
روز@@ 9
زم 9
سلا@@ 9
سور@@ 9
شریف 9
ضل@@ 9
طالب 9
ظ 9
عن 9
فت 9
فرد 9
قات 9
قبل 9
كل@@ 9
كم 9
كن 9
لہ 9
ماني 9
متح@@ 9
مف@@ 9
مقرا@@ 9
نان@@ 9
نت@@ 9
نف@@ 9
نى 9
وطن 9
يف 9
يو 9
ً 9
ڊ@@ 9
کری@@ 9
کش@@ 9
کے 9
ګ@@ 9
ێ@@ 9
ܗ 9
ंड@@ 9
अग 9
आर 9
ओ 9
खा@@ 9
घ@@ 9
चार 9
जय 9
जा 9
जो@@ 9
टा@@ 9
ठा@@ 9
धा 9
बी@@ 9
बै@@ 9
यु@@ 9
लो@@ 9
ळ@@ 9
सर 9
ीन 9
ू 9
े@@ 9
এ@@ 9
ঠ@@ 9
থ@@ 9
ৈ@@ 9
ਢ@@ 9
ਥ@@ 9
ੇ 9
જ@@ 9
ો@@ 9
ର 9
జ@@ 9
డ@@ 9
ಟ@@ 9
അ@@ 9
ച@@ 9
ജ@@ 9
ണ 9
റ 9
ഷ@@ 9
ഹ@@ 9
ශ 9
ැ@@ 9
การ 9
กิ@@ 9
คม 9
คุ@@ 9
จุ@@ 9
ญา@@ 9
ฐ@@ 9
ดี@@ 9
พัฒ@@ 9
มน@@ 9
มา 9
ราม 9
ราย 9
ลา 9
วัง 9
วี@@ 9
สัง@@ 9
สิน@@ 9
สี@@ 9
หัว@@ 9
ิง 9
ิน 9
ียง@@ 9
เค@@ 9
โก@@ 9
โค@@ 9
โน@@ 9
ใจ 9
ຊ 9
ບ 9
ຮ@@ 9
ຽ@@ 9
ཙ@@ 9
ཟ@@ 9
འ 9
ྟ@@ 9
ྩ@@ 9
စ 9
ဗ@@ 9
ရ 9
დ 9
ሐ 9
ሱ@@ 9
ዐ 9
ᐠ 9
ᓗ@@ 9
ᚦ 9
ᚾ@@ 9
ហ 9
ៅ 9
ᠪ@@ 9
ᠷ@@ 9
ḡ 9
ẞ@@ 9
Ả 9
ảm 9
ầy 9
ằ@@ 9
ọa 9
ồm 9
ớ 9
ợp 9
ὼ@@ 9
῾ 9
⁊ 9
⁸ 9
⁻ 9
↗ 9
≐ 9
⊊ 9
⌋ 9
┄ 9
┈ 9
╰ 9
ⴾ@@ 9
ⵃ 9
ⵄ 9
ⵗ@@ 9
ⵚ 9
々 9
げ 9
っ 9
ぶ 9
ェ 9
ゴ 9
ソ 9
デ 9
ヌ 9
ヨ 9
ㄧ@@ 9
ㄨ@@ 9
ㄱ 9
ㅅ 9
丈@@ 9
上海 9
业 9
丞 9
丞@@ 9
么@@ 9
于 9
亨@@ 9
仕@@ 9
但@@ 9
佬 9
供 9
個 9
們@@ 9
借 9
倫@@ 9
像@@ 9
儉 9
児 9
入 9
冶@@ 9
凯 9
剌 9
副@@ 9
劉 9
劍 9
加 9
势@@ 9
勉 9
勤 9
匠 9
匡 9
医 9
卐 9
卑@@ 9
卓 9
厳@@ 9
县@@ 9
变@@ 9
告 9
咲 9
咲@@ 9
唱 9
圆@@ 9
坑@@ 9
坝 9
坝@@ 9
培@@ 9
堯 9
境 9
境@@ 9
处@@ 9
奎@@ 9
姉@@ 9
嬰 9
宋 9
宴 9
尉@@ 9
尔 9
岁@@ 9
岔@@ 9
峡 9
嶋@@ 9
巢@@ 9
巧@@ 9
已@@ 9
巻 9
幡@@ 9
底@@ 9
廬@@ 9
彝 9
彪 9
徒@@ 9
忍 9
念 9
恆 9
息@@ 9
悉@@ 9
悟 9
慰@@ 9
憶 9
應 9
懐@@ 9
戲@@ 9
扬@@ 9
抗@@ 9
抜@@ 9
拍@@ 9
拐@@ 9
拓@@ 9
捕@@ 9
撫@@ 9
整 9
整@@ 9
旭@@ 9
昇@@ 9
晶 9
暴@@ 9
曉@@ 9
曾 9
朔@@ 9
极 9
构@@ 9
桓 9
植 9
楠 9
楮 9
槃@@ 9
樊 9
欽@@ 9
歲@@ 9
歴@@ 9
残@@ 9
沽@@ 9
淇@@ 9
満 9
準@@ 9
漆@@ 9
瀛@@ 9
灯 9
炒@@ 9
炮 9
烟@@ 9
爭 9
爺 9
猛@@ 9
献 9
獻@@ 9
瑞 9
略@@ 9
病 9
盡@@ 9
監 9
監@@ 9
盾 9
矢@@ 9
碎@@ 9
禁 9
禄 9
禹 9
种 9
积@@ 9
笠 9
答 9
答@@ 9
筠 9
简@@ 9
篆@@ 9
粱@@ 9
素 9
綾@@ 9
線@@ 9
緯 9
网@@ 9
翔@@ 9
肥 9
肺@@ 9
腹@@ 9
至 9
與 9
舜@@ 9
艇 9
芸 9
芽 9
荼 9
莊 9
萍 9
萬 9
蓋 9
蓮 9
蕨 9
藍 9
處 9
虞@@ 9
衆@@ 9
衙@@ 9
裏@@ 9
視 9
試@@ 9
調@@ 9
請@@ 9
謙 9
讓@@ 9
记@@ 9
说 9
豉@@ 9
貝 9
財 9
貫 9
軽@@ 9
載@@ 9
輝@@ 9
辺@@ 9
遵 9
邵 9
郊@@ 9
郷 9
醒@@ 9
銀 9
銃 9
錫 9
钦@@ 9
関 9
闘 9
间@@ 9
防 9
阴 9
陣 9
難@@ 9
霖 9
霞 9
露 9
靈 9
静 9
革 9
韦@@ 9
類 9
飞 9
馨 9
駿@@ 9
验@@ 9
魅 9
鳴@@ 9
黨@@ 9
Ꜹ 9
꧀ 9
규@@ 9
금 9
난@@ 9
더 9
들@@ 9
러@@ 9
록 9
먹@@ 9
먼@@ 9
물 9
밤 9
빙@@ 9
설 9
솔@@ 9
악@@ 9
엘@@ 9
여 9
옥@@ 9
임 9
직 9
특@@ 9
퍼 9
퍼@@ 9
폭@@ 9
플@@ 9
함@@ 9
혁@@ 9
ﺑ@@ 9
ﻦ 9
ﻧ@@ 9
Kasım 8
Sự 8
anın 8
bài 8
bình 8
bằng 8
còn 8
công 8
diferentes 8
düş@@ 8
ejempl@@ 8
ejemplo 8
establec@@ 8
gebaut 8
gehör@@ 8
geleg@@ 8
gesetzt 8
imbali 8
kazan@@ 8
lên 8
mesini 8
mientras 8
milioni 8
mạng 8
niversit@@ 8
oliki 8
phim 8
phụ 8
pitia 8
sın@@ 8
tế 8
tộc 8
từ 8
watoto 8
 8
 8
ª@@ 8
álbum 8
điện 8
đường 8
đất 8
Ġ 8
Ĥ 8
ının 8
ķ 8
Ŋ@@ 8
Ř 8
şek@@ 8
Ź 8
ƀ@@ 8
Ʒ 8
ǖ 8
Ƿ@@ 8
ȩ@@ 8
ɸ@@ 8
ɺ 8
ʦ@@ 8
ʧ 8
ʺ@@ 8
͏ 8
Απο@@ 8
Αρχ@@ 8
Βεν@@ 8
Εθνική 8
Ελλάδας 8
Θεσσαλον@@ 8
Κατ@@ 8
Κορ@@ 8
Μάρ@@ 8
ίδι@@ 8
απε@@ 8
αϊ@@ 8
δελ@@ 8
είχ@@ 8
ειο 8
επισ@@ 8
εχ@@ 8
ηματ@@ 8
θεν@@ 8
ικής 8
ιών 8
λλογ@@ 8
μέρ@@ 8
μια 8
ξης 8
πέν@@ 8
πολυ@@ 8
πολύ 8
ρίζ@@ 8
στο 8
τέλε@@ 8
τελε@@ 8
φαλ@@ 8
ύτερ@@ 8
ώνα 8
ϩ@@ 8
ϵ@@ 8
Ћ@@ 8
Ќ 8
Џ 8
Велико@@ 8
Кита@@ 8
Меж@@ 8
После 8
Сле@@ 8
Спи@@ 8
Спо@@ 8
ано 8
ати 8
бил 8
брига@@ 8
было 8
вете 8
вия 8
война 8
връ@@ 8
вто@@ 8
гии 8
глав@@ 8
гон@@ 8
госу@@ 8
группы 8
два@@ 8
диа@@ 8
дъ@@ 8
жина 8
зависи@@ 8
ителей 8
иту@@ 8
йских 8
кам@@ 8
кино@@ 8
крепо@@ 8
лата 8
лектро@@ 8
лся 8
льно 8
мал@@ 8
мана 8
мате@@ 8
мета@@ 8
нами 8
нан@@ 8
области 8
оке@@ 8
пен 8
песни 8
писи 8
побе@@ 8
полити@@ 8
пы 8
развити@@ 8
рана 8
ред@@ 8
рите 8
свет@@ 8
стар@@ 8
стин@@ 8
сторо@@ 8
тора 8
тради@@ 8
трен@@ 8
физи@@ 8
хозяй@@ 8
центра@@ 8
чат@@ 8
человека 8
чие 8
шим 8
шли 8
ющие 8
њ 8
Ѧ 8
ҥ 8
Һ 8
ӄ@@ 8
ӕ 8
զ 8
ը@@ 8
ղ 8
آغ@@ 8
آن 8
أغ@@ 8
إلى 8
ائي 8
ائی@@ 8
اخت@@ 8
ادی 8
ارا 8
ارف 8
اسلام 8
الإم@@ 8
الا 8
الب 8
الحياة 8
الصح@@ 8
الفل@@ 8
النس@@ 8
الہ 8
امل 8
امی 8
بح 8
بز@@ 8
بق@@ 8
تھ@@ 8
جنة 8
حد 8
داء 8
ديدة 8
رف@@ 8
زند@@ 8
شاہ@@ 8
شر 8
شہ@@ 8
صدر 8
صی@@ 8
ظم 8
عائ@@ 8
عرب 8
علوم 8
عليه 8
فاق 8
فق@@ 8
قد@@ 8
قی@@ 8
ليس 8
مات 8
مانی 8
مخت@@ 8
مند@@ 8
منطقة 8
مون@@ 8
مین 8
نار@@ 8
نڈ@@ 8
هار@@ 8
هذا 8
والا 8
والم@@ 8
ودة 8
ورا@@ 8
وع@@ 8
وله 8
ويل 8
ٹی@@ 8
پن@@ 8
چ 8
چی 8
ڈی 8
کل@@ 8
ގ@@ 8
अर 8
अव@@ 8
आ 8
इन 8
उद 8
कल 8
कै@@ 8
चक 8
जग@@ 8
जी 8
तिक 8
दक 8
दान 8
धन 8
निर 8
पुरा@@ 8
फ@@ 8
बाद 8
बे@@ 8
मल 8
मह@@ 8
मै@@ 8
यक 8
यास 8
योग 8
रत 8
षे@@ 8
सै@@ 8
सो@@ 8
ही 8
॑ 8
॒ 8
ফ 8
ਖ 8
ਟ@@ 8
੍ 8
ੱ@@ 8
ક 8
ત 8
દ@@ 8
પ@@ 8
ଜ@@ 8
ଲ@@ 8
ୁ@@ 8
ୟ@@ 8
உ@@ 8
క 8
ద@@ 8
ತ 8
ಯ 8
ೀ@@ 8
ು 8
ೂ@@ 8
ണ@@ 8
ള 8
ശ 8
ට@@ 8
ම 8
ේ@@ 8
การ@@ 8
ชาติ 8
ชุ@@ 8
ซ 8
ตุ@@ 8
ปร@@ 8
ปั@@ 8
ฝ@@ 8
ภา 8
มุ@@ 8
หร@@ 8
อี@@ 8
ียน 8
ือ 8
฿ 8
เฉ@@ 8
โม@@ 8
โรง@@ 8
ไฟ@@ 8
ไห@@ 8
ທ 8
ཏ@@ 8
ཨ 8
ྷ 8
င@@ 8
ဝ@@ 8
ሀ 8
ሌ 8
መ 8
ሞ 8
ሻ 8
ሽ 8
ቀ 8
ቄ 8
ኀ 8
ኔ 8
ኝ 8
ክ 8
ገ 8
ጥ@@ 8
ᐄ@@ 8
ᓴ@@ 8
ᚠ 8
ᛁ@@ 8
ឌ@@ 8
ឥ@@ 8
ូ 8
១ 8
ᠲ@@ 8
ᨕ@@ 8
ᴇ 8
Ḁ 8
Ḡ@@ 8
ḣ 8
Ḷ 8
ṁ 8
Ẓ 8
ẳng 8
ặp 8
Ố@@ 8
ứng 8
ỵ 8
ỹ@@ 8
ἀ 8
ἂ@@ 8
ἥ@@ 8
Ἴ@@ 8
ὐ 8
ᾳ 8
ῴ@@ 8
℗ 8
℞ 8
┼ 8
△ 8
☞ 8
♃ 8
⚭ 8
ⲣ 8
〇 8
ぎ 8
ぬ 8
ァ 8
セ 8
両@@ 8
丰 8
为 8
乳@@ 8
乾 8
亂 8
亥 8
仓 8
仕 8
付@@ 8
仰 8
伦@@ 8
伴 8
伴@@ 8
侗@@ 8
侠@@ 8
便 8
俠@@ 8
偽@@ 8
傷 8
僑@@ 8
億@@ 8
兄 8
兆 8
其 8
具 8
兼 8
冀 8
冊 8
冲 8
准@@ 8
凉 8
凉@@ 8
凱@@ 8
判@@ 8
別 8
勋 8
勳 8
历 8
厉@@ 8
厚 8
双 8
吃 8
吗 8
含@@ 8
呼 8
哥 8
啟 8
喬 8
営@@ 8
圍@@ 8
地方 8
坤@@ 8
培 8
堤 8
堪 8
塞@@ 8
塾 8
墓@@ 8
壤@@ 8
壺@@ 8
夕@@ 8
夹@@ 8
奎 8
奏@@ 8
奥 8
奧@@ 8
妙 8
妮 8
妻@@ 8
姐 8
姐@@ 8
委 8
婚@@ 8
婦 8
媽 8
寄 8
寄@@ 8
寛 8
察 8
封 8
尋@@ 8
屬@@ 8
岑@@ 8
岗 8
峡@@ 8
崗@@ 8
嶋 8
嶽 8
嶽@@ 8
帯 8
帳 8
幹 8
广 8
広 8
庐@@ 8
库 8
底 8
廖@@ 8
廳 8
开 8
彭 8
彼 8
彼@@ 8
待 8
御 8
急 8
恆@@ 8
感 8
慕@@ 8
懿 8
戊@@ 8
扇 8
把@@ 8
投 8
折 8
抚@@ 8
抵 8
拉 8
捷@@ 8
授 8
接@@ 8
推 8
搜@@ 8
摇@@ 8
撃 8
攘@@ 8
效@@ 8
敦 8
數@@ 8
斷@@ 8
晚 8
晶@@ 8
暦 8
曜 8
杜 8
杯@@ 8
枯 8
染 8
桑 8
梆@@ 8
械@@ 8
梵@@ 8
椒 8
椒@@ 8
楷 8
横 8
櫓 8
欣@@ 8
止 8
歩 8
歩@@ 8
歸@@ 8
氷@@ 8
汲@@ 8
沖 8
沿@@ 8
泾@@ 8
洛 8
浄@@ 8
浜 8
浪 8
润@@ 8
涿@@ 8
淨 8
淳 8
淸@@ 8
添@@ 8
済 8
済@@ 8
渋@@ 8
渤@@ 8
準 8
溝 8
滅@@ 8
滸@@ 8
漳@@ 8
潤@@ 8
潭 8
潮 8
燈 8
爱 8
爷 8
犯 8
犯@@ 8
狮 8
狮@@ 8
狼 8
猜@@ 8
率 8
现@@ 8
琦 8
瑜 8
瑰@@ 8
璋 8
璧 8
璽 8
畠@@ 8
疯@@ 8
盧 8
看 8
瞿@@ 8
矢 8
碗 8
祈@@ 8
票 8
禎 8
禽@@ 8
秉@@ 8
秘 8
程 8
穂 8
竭 8
等 8
筋 8
箭 8
簿 8
籙 8
粤@@ 8
粥 8
索@@ 8
網@@ 8
練@@ 8
纪 8
纸@@ 8
维 8
置 8
耕@@ 8
聶@@ 8
肅@@ 8
芝 8
茸 8
荘@@ 8
莒@@ 8
莱 8
菊 8
菌 8
菲 8
萨@@ 8
蒙 8
蓝@@ 8
蔡 8
薫 8
蘄@@ 8
虛 8
虞 8
虫 8
螺@@ 8
补@@ 8
袖@@ 8
裁 8
褒@@ 8
襄 8
襲 8
許 8
誕 8
评@@ 8
请@@ 8
豐@@ 8
貘 8
賽@@ 8
赣@@ 8
跨@@ 8
軽 8
辨 8
込@@ 8
返@@ 8
连 8
选@@ 8
遇@@ 8
鄒@@ 8
鄭 8
酸@@ 8
釜@@ 8
鈴 8
鉴@@ 8
錄@@ 8
鎭@@ 8
鏡@@ 8
问@@ 8
闽@@ 8
阮 8
限 8
除@@ 8
険 8
隔@@ 8
隨@@ 8
雍 8
霧@@ 8
韭@@ 8
韵@@ 8
須 8
領 8
領@@ 8
題 8
顶 8
養 8
験 8
鲜@@ 8
鳴 8
鴨@@ 8
鷹 8
鷹@@ 8
鹰@@ 8
黎 8
默@@ 8
鼻 8
齋@@ 8
Ꜳ 8
ꞟ 8
길@@ 8
누@@ 8
눈@@ 8
늑@@ 8
던 8
량@@ 8
론 8
룡 8
름@@ 8
릉@@ 8
뮤@@ 8
박 8
발@@ 8
밥 8
별@@ 8
빈@@ 8
숭@@ 8
앙@@ 8
언 8
역@@ 8
올@@ 8
워 8
워@@ 8
잠@@ 8
절 8
점 8
집@@ 8
탕 8
택 8
투 8
판@@ 8
홍 8
１@@ 8
� 8
𐌻@@ 8
𐎴 8
🇧 8
🇮 8
🏿 8
Gebäude 7
Những 7
aduni 7
algunos 7
aştır@@ 7
belir@@ 7
chủ 7
cơ 7
cộng 7
desarr@@ 7
devlet 7
dı 7
especie 7
führt 7
giáo 7
hình 7
ikuwa 7
karne 7
köy@@ 7
luego 7
lục 7
một 7
những 7
nữ 7
parç@@ 7
süre 7
taş@@ 7
tenía 7
thuộc 7
toàn 7
título 7
tır@@ 7
tập 7
vua 7
weitere 7
yaş@@ 7
zeichnet 7
 7
çoğ@@ 7
ünü 7
Ă 7
đêm 7
Ĕ@@ 7
Ě@@ 7
ƕ@@ 7
ƙ 7
ưới 7
Ǎ 7
Ǫ@@ 7
ǽ@@ 7
Ȝ 7
Ȼ@@ 7
ɤ@@ 7
ɮ 7
ʅ 7
ʘ 7
̔ 7
̘ 7
̴ 7
̵ 7
̹ 7
Ένω@@ 7
ΐ 7
Γκ@@ 7
Πο@@ 7
Συν@@ 7
Υπ@@ 7
ίνο 7
αρίου 7
βάλλ@@ 7
δεν 7
δευ@@ 7
διατ@@ 7
δικα@@ 7
εθν@@ 7
επί@@ 7
ζωή 7
ηχαν@@ 7
ικού 7
ιω@@ 7
κοσμ@@ 7
κρατ@@ 7
κυβ@@ 7
λεύθερ@@ 7
λο 7
μάχη 7
μένης 7
ντ 7
ντ@@ 7
οί@@ 7
οκρατ@@ 7
ονται 7
πο 7
πολη 7
πρόεδρος 7
πυρ@@ 7
ράς 7
ριο 7
σίας 7
σει 7
σεις 7
σμός 7
στην 7
στον 7
συγκ@@ 7
τραγ@@ 7
τραγούδ@@ 7
ϝ 7
ϱ 7
Ѕ 7
Ї 7
Љ 7
Ў 7
Запад@@ 7
Роб@@ 7
Северна 7
Фри@@ 7
Цент@@ 7
Это 7
актив@@ 7
анти@@ 7
арх@@ 7
бло@@ 7
българ@@ 7
бър@@ 7
быть 7
важ@@ 7
вала 7
вате@@ 7
вид 7
вну@@ 7
войны 7
встре@@ 7
генерал 7
граждан@@ 7
дей 7
дени 7
дет@@ 7
дж 7
дой 7
живо@@ 7
зави@@ 7
зако@@ 7
история 7
йска 7
км 7
комму@@ 7
кул@@ 7
ления 7
логия 7
мая 7
мене@@ 7
мени 7
меня@@ 7
мно@@ 7
море 7
наи@@ 7
нали@@ 7
нд 7
него 7
нен 7
ним 7
нова@@ 7
ным 7
прин@@ 7
проек@@ 7
пря@@ 7
пси@@ 7
ред 7
реки 7
сбор@@ 7
света 7
сре@@ 7
сса 7
ссе@@ 7
става 7
ствие 7
технологи@@ 7
тон@@ 7
точ@@ 7
фут@@ 7
ций 7
цио@@ 7
ческие 7
четы@@ 7
чил 7
шла 7
щения 7
ърк@@ 7
ята 7
Ѣ 7
ѩ 7
Ѳ 7
҃ 7
Ґ 7
ҙ@@ 7
Ԑ 7
Է@@ 7
Ղ@@ 7
Ո@@ 7
Ռ@@ 7
Ֆ@@ 7
օ 7
և 7
և@@ 7
أه@@ 7
أُ@@ 7
اء@@ 7
اته 7
اذ@@ 7
اره 7
اص 7
الأول@@ 7
الات@@ 7
التح@@ 7
الث 7
المك@@ 7
الوط@@ 7
انہ 7
بت 7
تاريخ 7
تد@@ 7
تور@@ 7
جل@@ 7
جور@@ 7
جہ@@ 7
حس@@ 7
حل@@ 7
خدا 7
خط 7
خل@@ 7
درا@@ 7
ذي 7
ربية 7
رم 7
روا@@ 7
روف 7
روم 7
سال@@ 7
سام 7
سان@@ 7
سم 7
سو 7
شركة 7
شن@@ 7
صد@@ 7
عات 7
عالم 7
عت 7
عل 7
عی 7
غر@@ 7
فضل 7
فلسط@@ 7
قبال 7
كان@@ 7
كتب 7
لاح@@ 7
لان@@ 7
لك 7
معر@@ 7
مہ@@ 7
نڈ 7
واح@@ 7
واق@@ 7
وز 7
ولي@@ 7
ولی 7
يران 7
يز@@ 7
يل@@ 7
يين 7
چی@@ 7
کراچی 7
کمی@@ 7
کو 7
گی 7
ڵ@@ 7
ں 7
ہی 7
یار 7
ۡ@@ 7
ܙ@@ 7
ބ@@ 7
ंत 7
इ 7
ऊ 7
ए 7
कन 7
करण 7
कौ@@ 7
चंद 7
छ 7
जन@@ 7
जय@@ 7
ञ@@ 7
टक 7
टा 7
तक 7
तत 7
दिर 7
दिल 7
धी 7
नाग@@ 7
पा 7
पी@@ 7
बो@@ 7
भु@@ 7
मंदिर 7
मान 7
मार@@ 7
ये@@ 7
राजा 7
रिया 7
लक 7
विद 7
वी 7
शन 7
शर 7
षा 7
सर@@ 7
हन 7
हु@@ 7
ारी 7
िया@@ 7
ৎ@@ 7
ਘ@@ 7
ਛ@@ 7
ਜ 7
ਦ 7
ત@@ 7
દ 7
સ 7
િ@@ 7
ତ 7
ନ@@ 7
எ@@ 7
య@@ 7
స@@ 7
హ@@ 7
ಅ@@ 7
ಉ@@ 7
ಕ 7
ಡ 7
ಣ 7
ೆ 7
ആ@@ 7
വ 7
ൂ@@ 7
බ@@ 7
คณะ@@ 7
คน 7
คว@@ 7
ฆ 7
จา@@ 7
ญญา@@ 7
ณฑ@@ 7
ตุ 7
ทา@@ 7
มาก 7
มาร@@ 7
มี@@ 7
ยก 7
วน 7
วัน 7
ศิล@@ 7
ษฎ@@ 7
สน@@ 7
สร 7
สั@@ 7
หลวง 7
ัก 7
ักษ@@ 7
ียว 7
เก 7
เหล@@ 7
แด@@ 7
แพ@@ 7
แห@@ 7
ຖ@@ 7
ຸ 7
ໃ@@ 7
ཞ@@ 7
ထ@@ 7
ယ@@ 7
ဲ@@ 7
ሁ 7
ሁ@@ 7
ሉ@@ 7
ሎ 7
ሣ@@ 7
ሴ@@ 7
ሸ@@ 7
ቆ@@ 7
ቲ@@ 7
ኛ 7
ኦ@@ 7
ከ 7
ው@@ 7
ዝ 7
ዳ 7
ጌ@@ 7
ጎ@@ 7
ጸ 7
ፊ@@ 7
ፓ@@ 7
ᐋ@@ 7
ᐣ 7
ᓕ@@ 7
ᓪ@@ 7
ᚱ 7
ᛋ 7
ᛒ@@ 7
ឆ@@ 7
ញ@@ 7
ថ@@ 7
ផ@@ 7
ឿ@@ 7
ែ 7
ៃ@@ 7
ᠦ@@ 7
ᠨ@@ 7
Ḏ 7
ḑ 7
Ḭ 7
Ṃ 7
Ṇ 7
ṙ 7
Ṛ 7
Ṵ 7
ấu 7
ẩ@@ 7
ὀ 7
ᾶ 7
‴ 7
₪ 7
ℂ@@ 7
ℐ 7
Ⅰ@@ 7
Ⅲ 7
ↀ 7
⊔ 7
⊦ 7
⌊ 7
⎡ 7
⎣ 7
◆ 7
◯ 7
☧ 7
ⱪ 7
Ⲁ@@ 7
ⲅ@@ 7
ⲏ 7
ⲑ@@ 7
ⴴ@@ 7
ⴵ 7
ⵊ 7
ⵠ@@ 7
ⵡ 7
ぱ@@ 7
ぽ@@ 7
ゥ@@ 7
ォ 7
ゼ 7
パ 7
ㄹ@@ 7
ㅂ 7
ㅎ 7
与 7
丕 7
严@@ 7
乃 7
付 7
以 7
企@@ 7
住 7
佑@@ 7
余 7
佩@@ 7
供@@ 7
俗 7
備 7
允 7
兩 7
再 7
准 7
凡 7
凯@@ 7
出 7
划 7
刻@@ 7
割 7
劃 7
劳@@ 7
務 7
勞@@ 7
勢 7
勤@@ 7
卧@@ 7
历@@ 7
厦@@ 7
反 7
叢@@ 7
吒 7
吒@@ 7
吟 7
听@@ 7
员 7
哭@@ 7
唯 7
噶@@ 7
嚴 7
均@@ 7
増@@ 7
增@@ 7
壯@@ 7
売@@ 7
奉 7
奖 7
姥@@ 7
娜 7
娥@@ 7
媒@@ 7
媛 7
孚 7
孩@@ 7
完 7
宙 7
宛@@ 7
宫@@ 7
寅 7
寅@@ 7
寔 7
寮 7
導 7
少 7
屈 7
屍 7
岁 7
岐 7
峠 7
帘 7
帰@@ 7
帶 7
幼@@ 7
幾 7
庇 7
弦 7
徵@@ 7
怡 7
惑@@ 7
愚 7
慎@@ 7
戎 7
戒@@ 7
戚@@ 7
戯 7
戯@@ 7
扇@@ 7
找@@ 7
拂@@ 7
指 7
捨@@ 7
摔@@ 7
撒@@ 7
故 7
晏 7
晏@@ 7
晚@@ 7
暉 7
曆 7
权 7
杞@@ 7
柿@@ 7
标@@ 7
條 7
棉@@ 7
榖 7
権 7
橘@@ 7
檀@@ 7
歐@@ 7
殊 7
比 7
汕@@ 7
汤 7
汶@@ 7
沈 7
沛 7
泣@@ 7
洮@@ 7
涼 7
淵@@ 7
渠 7
渠@@ 7
湛@@ 7
滇@@ 7
滑@@ 7
漁 7
濃@@ 7
瀬 7
焼@@ 7
熟 7
爆 7
犀@@ 7
獎 7
玲@@ 7
琶 7
琶@@ 7
琼@@ 7
璞 7
甘 7
畢@@ 7
畫 7
発 7
皆@@ 7
研 7
碼@@ 7
磯@@ 7
禧 7
私 7
种@@ 7
租@@ 7
移@@ 7
稷 7
稽 7
稿 7
穎@@ 7
窟 7
笠@@ 7
筑@@ 7
箇@@ 7
籍@@ 7
类@@ 7
粵@@ 7
粿 7
糖 7
納 7
紫 7
維 7
縣@@ 7
约 7
约@@ 7
织@@ 7
耕 7
聰 7
職@@ 7
聽@@ 7
肖@@ 7
胆 7
胤 7
胤@@ 7
自 7
致 7
舍@@ 7
舰@@ 7
艺 7
芬@@ 7
苻@@ 7
荛@@ 7
荻@@ 7
营 7
葆@@ 7
董 7
蒲 7
蕃 7
蕃@@ 7
薇 7
虫@@ 7
蛋 7
蛮 7
蜜 7
蝦@@ 7
蟾 7
蟾@@ 7
衍 7
規 7
規@@ 7
覚 7
覽@@ 7
见@@ 7
观 7
証@@ 7
詞@@ 7
誕@@ 7
謎@@ 7
講@@ 7
識 7
论@@ 7
責@@ 7
買@@ 7
貿@@ 7
資 7
賓 7
賜 7
贸@@ 7
赛@@ 7
赤 7
載 7
载@@ 7
辦@@ 7
透@@ 7
逢@@ 7
逸 7
遇 7
遊 7
遵@@ 7
鄚@@ 7
鄧 7
醬 7
采 7
量 7
鋼 7
錦 7
鎌@@ 7
鑑@@ 7
钢@@ 7
钦 7
锦 7
闹@@ 7
阎@@ 7
険@@ 7
障@@ 7
隱@@ 7
隸@@ 7
雀 7
雯 7
霊 7
霸 7
霹@@ 7
預 7
餅 7
饶@@ 7
駒@@ 7
騰 7
驿@@ 7
體 7
魄 7
鲍@@ 7
黑 7
黔@@ 7
龜@@ 7
ꜣ 7
ꜹ 7
Ꝃ 7
ꞝ 7
ꞷ 7
ꦏ@@ 7
갈@@ 7
걸@@ 7
결@@ 7
곤 7
균 7
극 7
떡@@ 7
란@@ 7
람@@ 7
련@@ 7
린@@ 7
망@@ 7
법 7
북 7
분@@ 7
브@@ 7
빠@@ 7
션 7
싶@@ 7
쓰@@ 7
악 7
엄@@ 7
없@@ 7
옥 7
완 7
웅 7
저 7
저@@ 7
적 7
줄@@ 7
줘 7
찰@@ 7
친@@ 7
침@@ 7
켜@@ 7
터 7
텔@@ 7
파 7
헤@@ 7
협@@ 7
효 7
ﺳ@@ 7
ﻭ@@ 7
４ 7
Ａ@@ 7
Ｄ@@ 7
Ｆ@@ 7
Ｉ@@ 7
Ｓ@@ 7
𐍃 7
𐎹@@ 7
𝒟 7
🇱 7
🇿 7
👉 7
afya 6
algunas 6
anlam@@ 6
başkan@@ 6
bilg@@ 6
bunge 6
bầu 6
cheza 6
cáo 6
diği 6
durum@@ 6
faransa 6
folgte 6
hiên 6
hòa 6
ihrem 6
iliş@@ 6
kỳ 6
lợi 6
müş@@ 6
ngay 6
nghĩa 6
như 6
sağ@@ 6
schließ@@ 6
sprüng@@ 6
thành 6
thái 6
thông 6
tiên 6
tên 6
vieron 6
yanay@@ 6
yüz@@ 6
Ċ 6
đó 6
đế 6
để 6
địa 6
định 6
ģ 6
ĳ 6
ĺ 6
Ń@@ 6
şark@@ 6
ƞ 6
ƿ@@ 6
ǁ 6
ǂ 6
Ǣ 6
Ǧ 6
ȍ@@ 6
ȧ 6
ȧ@@ 6
ɉ 6
ɞ 6
ɠ 6
ɱ 6
ɻ 6
ɿ 6
ʤ@@ 6
ˋ 6
ˑ 6
˓ 6
ˡ@@ 6
ˢ 6
̢ 6
͈ 6
͵ 6
Από 6
Εξ@@ 6
Ερ@@ 6
Λε@@ 6
Σο@@ 6
Στην 6
Φρ@@ 6
άδες 6
άλι 6
άρι 6
άρια 6
έχει 6
ίνου 6
αγι@@ 6
αγωγ@@ 6
αδελφ@@ 6
αϊκ@@ 6
βραβ@@ 6
γυνα@@ 6
δημο@@ 6
δρά@@ 6
δύνα@@ 6
ελλην@@ 6
εται 6
ημερ@@ 6
θερμ@@ 6
θω@@ 6
ιακ@@ 6
κίν@@ 6
κυρι@@ 6
κω@@ 6
κόρ@@ 6
λίου 6
μένου 6
μέρος 6
ματος 6
μει@@ 6
μο 6
μορφ@@ 6
μουσ@@ 6
ορά 6
οσπον@@ 6
οσφ@@ 6
περισσ@@ 6
ποι 6
που@@ 6
πρώτος 6
ραφ@@ 6
στοιχ@@ 6
συμβ@@ 6
σώ@@ 6
ταξ@@ 6
ταυ@@ 6
τευ@@ 6
τρου 6
φερ@@ 6
φυλ@@ 6
χο 6
χολ@@ 6
ϙ 6
Ϛ 6
Ϟ 6
Ϡ 6
ϸ@@ 6
Ѓ 6
Њ 6
Ў@@ 6
Дим@@ 6
До 6
автомоби@@ 6
архитек@@ 6
бое@@ 6
вание 6
вър@@ 6
гда 6
гимна@@ 6
гло@@ 6
год 6
града 6
гру@@ 6
два 6
дет 6
другие 6
ези@@ 6
ел 6
ему 6
ено 6
ето 6
ется 6
зиден@@ 6
изо@@ 6
има 6
ители 6
ительно 6
йки 6
кономи@@ 6
край 6
кси@@ 6
лимпи@@ 6
лото 6
луч@@ 6
май 6
мили@@ 6
мла@@ 6
мм 6
мпи@@ 6
нам 6
нее 6
нима@@ 6
ност@@ 6
об 6
отно@@ 6
пей@@ 6
прия@@ 6
расте@@ 6
реги@@ 6
регион 6
реди@@ 6
рито@@ 6
рът 6
сво@@ 6
систе@@ 6
ското 6
следо@@ 6
сна@@ 6
сни@@ 6
соеди@@ 6
строй@@ 6
стър 6
там 6
тира 6
тря@@ 6
уча@@ 6
учи@@ 6
фер@@ 6
фильм 6
фици@@ 6
ходи@@ 6
щер@@ 6
ѐ 6
ённых 6
Ѡ 6
ѩ@@ 6
ѫ@@ 6
ѹ@@ 6
ґ 6
ҕ@@ 6
җ@@ 6
ӕ@@ 6
ӣ 6
Ӱ 6
Ӷ 6
Ժ@@ 6
Ծ@@ 6
Չ@@ 6
շ 6
պ 6
֗ 6
أجل 6
ؤ 6
إن 6
اؤ@@ 6
ادية 6
ازی 6
اط 6
الجن@@ 6
العالم 6
العام 6
القدي@@ 6
القي@@ 6
المتح@@ 6
المسل@@ 6
المي@@ 6
امام 6
امن 6
امین 6
اند@@ 6
اون 6
بال 6
بری 6
بند@@ 6
تاب@@ 6
تاج 6
تخ@@ 6
تض@@ 6
تين 6
جان@@ 6
جب 6
جس 6
جن 6
جنوب 6
جون 6
جھ@@ 6
خط@@ 6
دع@@ 6
دف@@ 6
دوس@@ 6
دین 6
ربة 6
رف 6
سلی@@ 6
سيا 6
شار 6
صن@@ 6
ضة 6
ضی 6
طاق@@ 6
طبي@@ 6
ظهر 6
عملية 6
عند 6
فاع 6
فتح 6
فری@@ 6
فية 6
كية 6
لش@@ 6
لوب 6
لول 6
محافظة 6
مری@@ 6
ملک 6
مم@@ 6
مى 6
میر 6
نت 6
نح@@ 6
ندی 6
واز 6
وث@@ 6
ونا 6
وير 6
وَّ@@ 6
يت@@ 6
يش@@ 6
ينية 6
يه@@ 6
ٍ@@ 6
١@@ 6
ٴ@@ 6
ٹھ@@ 6
پری@@ 6
ڀ@@ 6
چار@@ 6
ڑھ 6
ژ 6
ڠ 6
کور@@ 6
ڭ 6
گی@@ 6
ہری 6
ܵ@@ 6
ޑ@@ 6
ޕ@@ 6
ޭ@@ 6
ंस 6
अप@@ 6
आत 6
उ 6
कार 6
गढ 6
जन 6
झ 6
टी 6
डिया 6
तम 6
ते 6
धा@@ 6
धि@@ 6
नन 6
पं@@ 6
पार 6
पुरु@@ 6
पो@@ 6
बन 6
बर 6
भि@@ 6
मित 6
यम 6
यी 6
रस 6
राज@@ 6
ले 6
ले@@ 6
वा 6
शो@@ 6
समा@@ 6
सिद 6
हार 6
हिन 6
है 6
উ 6
এ 6
ঙ@@ 6
ঝ@@ 6
ঢ@@ 6
ੂ 6
ન 6
લ@@ 6
સ@@ 6
ી@@ 6
ନ 6
ମ@@ 6
ଳ@@ 6
ஞ 6
న 6
ే@@ 6
ಗ 6
ಚ@@ 6
ಪ 6
ಶ 6
ಷ 6
ಹ@@ 6
ೇ@@ 6
ങ@@ 6
ബ@@ 6
റ@@ 6
ഷ 6
െ@@ 6
අ@@ 6
ණ@@ 6
ස 6
ී@@ 6
ේ 6
กล 6
กา 6
คา@@ 6
ฆ@@ 6
ชน@@ 6
ชาว@@ 6
ซา@@ 6
ญญา 6
ตำ@@ 6
ตี 6
นคร 6
นี@@ 6
บรร@@ 6
บี 6
ผล@@ 6
พุทธ@@ 6
ยน 6
ยาม 6
ยาว 6
ระ 6
ศาสต@@ 6
สง@@ 6
สงคราม 6
สร@@ 6
หมา@@ 6
หา 6
อบ@@ 6
ึ 6
ูล 6
เคร@@ 6
เที@@ 6
เมือง 6
แผ@@ 6
แม@@ 6
โก 6
โบ@@ 6
โย@@ 6
ຳ 6
ູ 6
ໝ@@ 6
ཅ@@ 6
ཉ@@ 6
ཱ 6
ྭ 6
ྱ 6
ဂ@@ 6
သ 6
ံ 6
ზ 6
ህ 6
ሉ 6
ሮ 6
ሻ@@ 6
ሽ@@ 6
ቅ 6
ቢ@@ 6
ኃ@@ 6
ኒ@@ 6
ወ 6
ዘ 6
የ 6
ጅ@@ 6
ጠ 6
ጰ 6
ፋ 6
ፐ 6
Ꮜ 6
ᒪ@@ 6
ᓐ@@ 6
ᓱ@@ 6
ᕕ@@ 6
ᚱ@@ 6
ᚴ@@ 6
ᛅ 6
ᛚ 6
ᛟ@@ 6
ᛦ 6
េ 6
ៈ 6
ᠥ@@ 6
ᠳ 6
ᬸ@@ 6
ᴖ 6
ᵁ 6
ᵑ 6
Ḗ@@ 6
Ḣ@@ 6
ḭ 6
ḹ 6
Ṇ@@ 6
ṝ 6
Ṯ 6
ẏ 6
ẏ@@ 6
Ầ 6
Ỷ 6
ἤ@@ 6
ἶ 6
Ὄ@@ 6
ὼ 6
ῃ@@ 6
₨ 6
₴ 6
ℙ 6
ℭ 6
⌘ 6
⍴ 6
⍺ 6
▽ 6
◊ 6
◾ 6
☿ 6
♁ 6
♈ 6
✈ 6
✍ 6
✓ 6
✲ 6
✶ 6
Ⱁ 6
ⱡ@@ 6
ぜ@@ 6
ぞ 6
ぴ@@ 6
ゐ 6
ゑ 6
ゥ 6
ㄧ 6
丙 6
両 6
乔@@ 6
乗 6
乘 6
争@@ 6
亞 6
亨 6
亶@@ 6
仪 6
仮 6
仮@@ 6
件@@ 6
伐 6
优@@ 6
伦 6
伸@@ 6
似@@ 6
伽 6
佤@@ 6
侗 6
俞@@ 6
俵 6
倒@@ 6
倩@@ 6
偃 6
停 6
側 6
偵 6
偷@@ 6
僑 6
兔 6
兔@@ 6
养 6
冈@@ 6
冉@@ 6
写 6
冥@@ 6
几@@ 6
処 6
処@@ 6
刈 6
到 6
割@@ 6
办@@ 6
労@@ 6
勅@@ 6
勘@@ 6
勾@@ 6
半 6
協 6
単@@ 6
卫 6
危@@ 6
即@@ 6
压@@ 6
厥 6
厲@@ 6
參 6
叉@@ 6
叫@@ 6
右 6
吐 6
咏@@ 6
啊 6
啓 6
喬@@ 6
嘴 6
嘴@@ 6
囧 6
圈@@ 6
圭 6
坛@@ 6
坤 6
堪@@ 6
墟 6
墳@@ 6
壓@@ 6
壹 6
备@@ 6
奘 6
她 6
妈 6
姻@@ 6
姿 6
娃 6
娄@@ 6
婉@@ 6
孔 6
孜@@ 6
寻@@ 6
尋 6
尤@@ 6
尸 6
局@@ 6
峪@@ 6
崗 6
嵐@@ 6
巡 6
工程 6
已 6
巾@@ 6
帆 6
帖@@ 6
帥 6
幕 6
庞@@ 6
庫@@ 6
庵@@ 6
廊 6
弄@@ 6
弗@@ 6
弹@@ 6
弼 6
弾@@ 6
彈@@ 6
归 6
彥 6
彰 6
往 6
従 6
恐@@ 6
悦 6
悲 6
惑 6
戀 6
或@@ 6
户 6
押@@ 6
抽@@ 6
拍 6
招 6
拜 6
振 6
掌@@ 6
排 6
摂@@ 6
播 6
擊@@ 6
攀@@ 6
敵@@ 6
敷 6
敷@@ 6
斉@@ 6
斜@@ 6
斤 6
既@@ 6
早 6
昂@@ 6
昆 6
晖 6
晨 6
暮 6
暮@@ 6
曜@@ 6
曰 6
权@@ 6
材 6
材@@ 6
杓 6
杞 6
枕@@ 6
柑 6
栋 6
栗 6
样@@ 6
桕 6
桜 6
梓 6
椎@@ 6
楓 6
楮@@ 6
榕@@ 6
槐@@ 6
標@@ 6
樣@@ 6
樱@@ 6
樺 6
欧 6
步 6
歼 6
汗@@ 6
汴@@ 6
汽 6
沂@@ 6
沮 6
泊 6
泣 6
泳 6
泸@@ 6
浴 6
涵 6
渝@@ 6
渾@@ 6
湘 6
滨 6
潼@@ 6
濁@@ 6
災 6
狄@@ 6
独 6
獻 6
环 6
珪 6
琳@@ 6
瑩 6
璠 6
環 6
瓊 6
瓜@@ 6
瓦 6
瓷 6
産 6
申 6
畏 6
當 6
疾@@ 6
瘾 6
眞@@ 6
睡@@ 6
睢@@ 6
瞳 6
破 6
碁 6
碉@@ 6
碰@@ 6
祐 6
祺 6
祿@@ 6
稚@@ 6
稣@@ 6
稻@@ 6
稽@@ 6
穀 6
穆 6
積@@ 6
竺 6
笹@@ 6
简 6
箭@@ 6
簪 6
籍 6
籠@@ 6
糯@@ 6
糸 6
結 6
絲@@ 6
網 6
緩 6
繁 6
續 6
络@@ 6
统@@ 6
绣@@ 6
综@@ 6
网 6
羲@@ 6
習 6
耿@@ 6
職 6
肘@@ 6
背 6
背@@ 6
脉@@ 6
脚 6
脳@@ 6
腹 6
膳@@ 6
臧@@ 6
舉@@ 6
舎 6
舜 6
芙@@ 6
荃 6
荆@@ 6
荷 6
菱@@ 6
菲@@ 6
萄 6
萊@@ 6
蓉 6
藝 6
蛇 6
蟠@@ 6
袁 6
觉@@ 6
討 6
討@@ 6
訪@@ 6
註 6
評@@ 6
誓@@ 6
諏@@ 6
謀 6
謙@@ 6
識@@ 6
让@@ 6
讯@@ 6
诗 6
诚 6
诚@@ 6
貂@@ 6
貓 6
負@@ 6
貢@@ 6
賈 6
質@@ 6
贝 6
贝@@ 6
贤@@ 6
赋 6
赫@@ 6
趣 6
輩 6
輿@@ 6
转@@ 6
轮@@ 6
轰@@ 6
辭 6
返 6
迫 6
逐@@ 6
遂 6
遷 6
遺 6
遼 6
邕 6
邳 6
酉@@ 6
醫 6
銭 6
錯 6
録@@ 6
钟 6
钱 6
閔@@ 6
閣@@ 6
阁 6
阝 6
阶@@ 6
陇@@ 6
陣@@ 6
隅@@ 6
險@@ 6
隴@@ 6
隸 6
难@@ 6
雞 6
霍 6
韩 6
韶 6
響 6
頃@@ 6
項 6
頌 6
顔 6
颍@@ 6
饭 6
馗 6
骑@@ 6
鵜@@ 6
鵝@@ 6
鵲@@ 6
鸟@@ 6
鸣 6
鸣@@ 6
麼@@ 6
點 6
點@@ 6
鼠@@ 6
ꜥ@@ 6
ꦤ 6
ꦺ@@ 6
겨@@ 6
견@@ 6
골@@ 6
괜@@ 6
까@@ 6
낙@@ 6
난 6
너 6
네@@ 6
노 6
느@@ 6
늘@@ 6
담@@ 6
당@@ 6
돌@@ 6
떴@@ 6
력@@ 6
령 6
른@@ 6
목 6
몰@@ 6
못@@ 6
반 6
배 6
번 6
볶@@ 6
봐 6
분 6
빠 6
살 6
새 6
손 6
숙@@ 6
습@@ 6
승 6
쌍@@ 6
쏴@@ 6
억 6
언@@ 6
열 6
예 6
옹@@ 6
익@@ 6
입@@ 6
절@@ 6
죽 6
찮@@ 6
창 6
초 6
츠 6
코 6
탄@@ 6
판 6
풀@@ 6
했@@ 6
헌@@ 6
황 6
후 6
휘@@ 6
ﺭ@@ 6
２@@ 6
６@@ 6
￥ 6
𐌰 6
𐌲@@ 6
𐌳@@ 6
𐌹@@ 6
𐍂@@ 6
𐰇@@ 6
𝑓 6
𝗲@@ 6
𝗻@@ 6
🇭 6
Amerikan 5
Các 5
Japani 5
Según 5
adamente 5
akiwa 5
aunque 5
ausge@@ 5
chính 5
chơi 5
condado 5
conocida 5
các 5
cùng 5
diciembre 5
doğru 5
dığı 5
esinde 5
estaba 5
führte 5
gegrün@@ 5
genommen 5
habari 5
había 5
hariki 5
hayo 5
heirat@@ 5
hivi 5
hoàng 5
imleri 5
konnte 5
lerle 5
luğ@@ 5
lúc 5
lượng 5
lạc 5
millones 5
mkoa 5
mpira 5
mẹ 5
noviembre 5
númer@@ 5
nüf@@ 5
nın 5
pelí@@ 5
phục 5
seç@@ 5
sĩ 5
sống 5
thế 5
thời 5
tiến 5
trên 5
tuvo 5
tâm 5
tây 5
tính 5
tổ 5
viên 5
vị 5
weza 5
wurden 5
ziwa 5
 5
çık@@ 5
Ĉ 5
đô 5
đạo 5
độc 5
Ě 5
Ĥ@@ 5
ımc@@ 5
ını 5
ığı 5
Ķ 5
Ĺ 5
ŧ 5
ŵ 5
Ɖ 5
Ɨ@@ 5
Ư@@ 5
ưỡ@@ 5
Ƶ 5
Ǐ 5
Ǒ 5
ǰ 5
Ƿ 5
Ǽ@@ 5
ǿ@@ 5
ȅ@@ 5
Ȝ@@ 5
ȷ 5
ɘ@@ 5
ɚ 5
ɻ@@ 5
ʜ 5
ʸ 5
˔ 5
Αυ@@ 5
Αφ@@ 5
Βαλ@@ 5
Για 5
Μπ@@ 5
Μπο@@ 5
Οικ@@ 5
Πολιτ@@ 5
Πρω@@ 5
άσκ@@ 5
άτων 5
ήσεων 5
ήφ@@ 5
αγγελ@@ 5
ακολουθ@@ 5
ανή@@ 5
αντί@@ 5
αντι@@ 5
αρχι@@ 5
γεω@@ 5
γλώσσα 5
γνω@@ 5
γον@@ 5
γράμ@@ 5
δήμ@@ 5
δεύτερ@@ 5
διακ@@ 5
εδρ@@ 5
εκ 5
ελ 5
επίσ@@ 5
ερ 5
εων 5
ζυγ@@ 5
ηρε@@ 5
κε 5
κο 5
μένα 5
μένοι 5
μεγάλη 5
μονα@@ 5
νες 5
ξη 5
ογραφ@@ 5
οχή 5
πηγ@@ 5
πλη@@ 5
ρίσκ@@ 5
ρη 5
ριβ@@ 5
ροφή 5
σεν@@ 5
στήρι@@ 5
σταση 5
σχε@@ 5
τέλος 5
ταμ@@ 5
ταν 5
τρια 5
τρο 5
τυπ@@ 5
υζ@@ 5
υζαντιν@@ 5
φορά 5
φρά@@ 5
ωματ@@ 5
ϊ 5
όλου 5
όνο 5
ότερ@@ 5
ϗ 5
ϡ 5
ϣ@@ 5
Ќ@@ 5
Герма@@ 5
Олимпи@@ 5
Ъ@@ 5
американ@@ 5
андар@@ 5
большо@@ 5
вать 5
верх@@ 5
времени 5
где 5
годы 5
города 5
граф@@ 5
дате@@ 5
дете@@ 5
догово@@ 5
её 5
жен 5
жения 5
женщи@@ 5
защит@@ 5
зва@@ 5
зо 5
извест@@ 5
инжен@@ 5
интер@@ 5
исследо@@ 5
ителя 5
йского 5
йся 5
ками 5
канди@@ 5
ква@@ 5
концер@@ 5
лист 5
лись 5
лища 5
медици@@ 5
мери@@ 5
меся@@ 5
ней@@ 5
нем 5
нието 5
нитель@@ 5
ниями 5
нови 5
нос@@ 5
ното 5
област 5
организация 5
ори@@ 5
осно@@ 5
оста@@ 5
пад@@ 5
пара@@ 5
парти@@ 5
поз@@ 5
помощ@@ 5
поселе@@ 5
послед@@ 5
пр@@ 5
правитель@@ 5
профе@@ 5
работ@@ 5
рение 5
рите@@ 5
роден 5
свой 5
себя 5
система 5
ската 5
скому 5
сом 5
сред@@ 5
став 5
стали 5
стати@@ 5
стей 5
стоя@@ 5
съю@@ 5
так@@ 5
тел 5
телевизи@@ 5
тем@@ 5
тно 5
треб@@ 5
тся 5
филосо@@ 5
храни@@ 5
църква 5
ця@@ 5
чего 5
чле@@ 5
школ@@ 5
эти@@ 5
ют 5
ѝ 5
ѡ@@ 5
ѥ 5
ѧ@@ 5
ѵ 5
ѿ 5
ґ@@ 5
ғ 5
ҕ 5
Ҥ 5
Ұ 5
Ӏ 5
ӓ 5
Ө@@ 5
ӭ 5
ӷ@@ 5
Բ 5
Օ@@ 5
օ@@ 5
ֆ 5
آز@@ 5
أش@@ 5
إن@@ 5
ائے 5
ابع 5
ارت 5
است 5
افة 5
الأد@@ 5
التع@@ 5
الشرق@@ 5
العالمية 5
العمل 5
اللا@@ 5
المد@@ 5
المش@@ 5
المملكة 5
المُ@@ 5
الوج@@ 5
اليوم 5
انج@@ 5
انص@@ 5
اہ@@ 5
بات 5
بت@@ 5
بري@@ 5
بريل 5
بط 5
بعد 5
بها 5
بين@@ 5
ةً 5
تب 5
تش 5
جامعہ 5
جد@@ 5
جنا@@ 5
جی@@ 5
حض@@ 5
حضرت 5
خر 5
دارة 5
داية 5
داً 5
دری@@ 5
دور 5
دور@@ 5
راد 5
رض 5
روس 5
روش@@ 5
سفر 5
سنة 5
سند 5
سک@@ 5
شعب@@ 5
شک@@ 5
شیخ 5
ضي@@ 5
عام 5
عق@@ 5
عمال 5
غرا@@ 5
غيرة 5
فات 5
قا 5
قائ@@ 5
قد 5
قری@@ 5
قل 5
كا 5
كور@@ 5
متا@@ 5
مراد 5
مسي@@ 5
ملكة 5
منتخب 5
مہ 5
نس 5
نوب@@ 5
هٔ 5
وان@@ 5
وسلم 5
وض@@ 5
ولا 5
ولوج@@ 5
وں 5
يار 5
يس@@ 5
ٽ 5
ٽ@@ 5
ڕ@@ 5
کار 5
کن 5
ڬ@@ 5
گرا@@ 5
گرد 5
گور@@ 5
گھ@@ 5
ہا@@ 5
ہر 5
ܙ 5
ܟ 5
ܥ 5
ܫ 5
ंगा 5
ंब@@ 5
अनु@@ 5
इंड@@ 5
उन@@ 5
एक 5
औ 5
कृष 5
गां@@ 5
चो@@ 5
जै@@ 5
टि@@ 5
डो@@ 5
ढ 5
णा@@ 5
णु 5
तु 5
थी 5
दन 5
देव@@ 5
नु@@ 5
पण 5
पै@@ 5
फु@@ 5
बार 5
भक 5
भारत 5
भू@@ 5
यात 5
योग@@ 5
रण 5
रू 5
रेस 5
लम 5
लय 5
ळ 5
वस 5
वाल 5
विक 5
विभाग 5
विश 5
विष 5
शक 5
षद 5
संघ 5
सभा 5
सां@@ 5
सिंह 5
सेवा 5
ै@@ 5
ॊ 5
ोर 5
অ 5
চ 5
ঝ 5
ঢ 5
ো 5
ৌ 5
ਐ 5
ਡ@@ 5
ਬ 5
ਹ 5
ੴ 5
ં@@ 5
અ@@ 5
ભ@@ 5
લ 5
શ@@ 5
હ@@ 5
ଉ@@ 5
ଗ 5
ଗ@@ 5
ପ@@ 5
ୀ@@ 5
ஏ@@ 5
ஜ 5
ஷ 5
ே 5
ం 5
చ@@ 5
ట 5
డ 5
శ@@ 5
ీ@@ 5
ో@@ 5
ಳ 5
ೋ@@ 5
ം@@ 5
ച 5
ഞ 5
ൈ@@ 5
ൊ@@ 5
ർ@@ 5
ට 5
ත 5
ධ@@ 5
กัน@@ 5
คน@@ 5
จน 5
จริ@@ 5
ชีวิต 5
ตรา 5
ตรี 5
ทุ@@ 5
ธรรม@@ 5
นว@@ 5
นั@@ 5
ประชา@@ 5
ปล@@ 5
ภ 5
ยัง 5
รถ@@ 5
ลี 5
วุ@@ 5
สมา@@ 5
หลัง@@ 5
หัว 5
อาณา@@ 5
ีย 5
ึง 5
ือง 5
เขา 5
เง@@ 5
เท 5
เธอ 5
เอ 5
โอ@@ 5
ไฟ 5
ຕ 5
ໍ 5
ཻ 5
ྭ@@ 5
ྲ 5
ሓ@@ 5
ሔ@@ 5
ሩ 5
ሩ@@ 5
ሲ 5
ሶ@@ 5
ቂ@@ 5
ቃ@@ 5
ቴ@@ 5
ቶ 5
ኩ@@ 5
ዶ 5
ጀ@@ 5
ጠ@@ 5
ጽ@@ 5
ፀ 5
ፈ 5
ፍ 5
ᐯ@@ 5
ᐲ@@ 5
ᐸ@@ 5
ᐹ@@ 5
ᑖ@@ 5
ᒧ@@ 5
ᔭ@@ 5
ᖏ@@ 5
ᚹ 5
ᚹ@@ 5
ᚼ 5
ᛚ@@ 5
ថ 5
ឣ@@ 5
ៃ 5
ᠤ@@ 5
ᠵ@@ 5
ᴀ 5
ḁ 5
ḃ@@ 5
ḋ@@ 5
ḓ@@ 5
Ṙ@@ 5
ṧ 5
ṫ 5
ṽ 5
ẕ@@ 5
ẖ 5
Ả@@ 5
ả@@ 5
Ẩ@@ 5
ẫu 5
ắ 5
ắt 5
ệ@@ 5
ὓ@@ 5
ᾱ@@ 5
ῡ 5
ῡ@@ 5
․ 5
‱ 5
₣ 5
₫ 5
₺ 5
ℚ@@ 5
⅞ 5
Ⅳ 5
Ⅹ@@ 5
Ⅽ@@ 5
ↄ 5
⇄ 5
⇌ 5
∐ 5
∥ 5
≔ 5
≟ 5
⊄ 5
⊤ 5
⌥ 5
⍋ 5
⍵ 5
○ 5
☀ 5
☠ 5
☥ 5
☰ 5
❤ 5
➝ 5
⩾ 5
Ⱪ 5
ⱱ 5
ⲇ@@ 5
ⲧ 5
ⲭ 5
ⲭ@@ 5
ⴸ@@ 5
ⵯ@@ 5
ぐ 5
ぢ 5
ゲ 5
ピ 5
ヘ 5
ペ 5
ホ 5
ㄹ 5
ㅂ@@ 5
ㅇ@@ 5
ㅈ 5
ㅍ 5
丑 5
世纪 5
丝@@ 5
举@@ 5
乌 5
乎@@ 5
乓 5
乩@@ 5
亡 5
亡@@ 5
亲 5
什 5
今 5
仡@@ 5
伎@@ 5
伟@@ 5
伸 5
低 5
佗 5
依 5
倍@@ 5
値 5
偶@@ 5
催@@ 5
僵@@ 5
充@@ 5
兗@@ 5
共 5
冷 5
凝 5
凱 5
券@@ 5
剪@@ 5
劫 5
勁@@ 5
勃 5
勃@@ 5
単 5
占 5
卯 5
卿@@ 5
厂@@ 5
厘@@ 5
収 5
取 5
召@@ 5
台灣 5
否 5
吧 5
含 5
启 5
启@@ 5
吸 5
吻@@ 5
呉@@ 5
咀@@ 5
咸 5
哈 5
唔@@ 5
唯@@ 5
單 5
嘗@@ 5
嚟 5
囂 5
圈 5
圻 5
坑 5
垂@@ 5
埋@@ 5
埵 5
堅@@ 5
堆 5
塞 5
売 5
夔 5
失 5
奏 5
奔@@ 5
奶 5
妃@@ 5
妹@@ 5
姚 5
婁 5
婁@@ 5
婷 5
嬴@@ 5
孟 5
它 5
它@@ 5
宛 5
宪 5
害 5
宾 5
寂 5
寫@@ 5
尙@@ 5
尤 5
尸@@ 5
尺@@ 5
尻@@ 5
属@@ 5
層 5
岑 5
岚@@ 5
岬 5
峯@@ 5
峻 5
嵩 5
嵯@@ 5
嶼@@ 5
巖 5
巖@@ 5
巣 5
巫 5
差 5
差@@ 5
巷 5
巽 5
席@@ 5
帽 5
幫 5
幼 5
庁 5
廢@@ 5
弁 5
弱 5
弼@@ 5
彌 5
徑 5
必 5
忘 5
怎@@ 5
怕@@ 5
怡@@ 5
恢 5
恨 5
惜@@ 5
愿 5
愿@@ 5
慣@@ 5
憨@@ 5
懋 5
懷 5
戊 5
戎@@ 5
扣@@ 5
扶 5
拝 5
拨@@ 5
拾 5
挙 5
捉@@ 5
捷 5
授@@ 5
排@@ 5
損 5
摯 5
撫 5
收@@ 5
敎@@ 5
敖 5
敗 5
敢 5
敵 5
斐 5
斐@@ 5
料 5
斤@@ 5
斬 5
旋@@ 5
旧 5
旨@@ 5
时 5
昨@@ 5
晃@@ 5
晩 5
暁@@ 5
曉 5
曙@@ 5
朔 5
朵 5
杖 5
束@@ 5
枣@@ 5
柘@@ 5
査 5
栏@@ 5
栖@@ 5
梶@@ 5
棉 5
棍 5
棒@@ 5
棟@@ 5
楷@@ 5
榜 5
槃 5
樑 5
標 5
樞 5
權@@ 5
歯@@ 5
歷 5
毅@@ 5
毎@@ 5
氾@@ 5
汀@@ 5
汁 5
汇 5
汝 5
汾@@ 5
泥 5
洁@@ 5
洗 5
洽 5
浅 5
涅@@ 5
淄@@ 5
淞@@ 5
渚 5
溝@@ 5
溥@@ 5
滋@@ 5
滎@@ 5
满 5
滦@@ 5
滩 5
滴 5
潛@@ 5
潟@@ 5
澜@@ 5
激@@ 5
濬 5
濱 5
灘 5
灞@@ 5
灰 5
灵 5
灶@@ 5
烧@@ 5
焚@@ 5
煮 5
熹 5
爸@@ 5
爽 5
牌 5
牌@@ 5
牢@@ 5
狄 5
狗 5
狩 5
猪 5
猿@@ 5
獸 5
瑜@@ 5
瑰 5
瑾 5
璃 5
璇 5
瓣@@ 5
甄@@ 5
產 5
甥 5
电 5
畳 5
疏@@ 5
痛 5
療@@ 5
皋 5
盆@@ 5
盈 5
盈@@ 5
眉@@ 5
眞 5
眠@@ 5
砂 5
研@@ 5
碩 5
碩@@ 5
磁@@ 5
磊 5
磐@@ 5
礮 5
祜@@ 5
禾@@ 5
秒 5
稷@@ 5
穴@@ 5
穹@@ 5
筷@@ 5
算 5
箱 5
箱@@ 5
籠 5
粟@@ 5
糕 5
紋 5
紙@@ 5
終 5
絕@@ 5
絡@@ 5
給@@ 5
絮 5
続 5
綬@@ 5
綿 5
緑 5
给@@ 5
绪@@ 5
续@@ 5
编@@ 5
缘@@ 5
置@@ 5
罰 5
翠 5
耶 5
聂@@ 5
职@@ 5
肩@@ 5
肺 5
胶@@ 5
脇@@ 5
脸 5
膠@@ 5
膽@@ 5
自己 5
臼@@ 5
舌 5
舫 5
芋 5
芷@@ 5
苑@@ 5
苔@@ 5
苞 5
茜 5
茲 5
荘 5
荡@@ 5
荫@@ 5
荼@@ 5
莎@@ 5
菖@@ 5
菴 5
萄@@ 5
萊 5
萧 5
葫@@ 5
葬@@ 5
葵 5
蒸@@ 5
蒿 5
蔭@@ 5
蕉@@ 5
蕭 5
蕲@@ 5
蕾 5
薛 5
薪@@ 5
虜@@ 5
蚌@@ 5
蚕 5
蚩@@ 5
袈@@ 5
袋 5
裁@@ 5
装 5
裔 5
褚@@ 5
襲@@ 5
见 5
规@@ 5
觉 5
訂@@ 5
訪 5
証 5
誰@@ 5
課 5
談@@ 5
謀@@ 5
謐 5
講 5
证@@ 5
诏@@ 5
诺@@ 5
调@@ 5
谱 5
豉 5
貓@@ 5
責 5
賊 5
賊@@ 5
賣@@ 5
賴@@ 5
贛@@ 5
财@@ 5
贤 5
贺@@ 5
赫 5
跋@@ 5
跤 5
蹟 5
躰@@ 5
躺@@ 5
輯 5
轟@@ 5
轮 5
辑@@ 5
辞 5
迅 5
迅@@ 5
迎 5
追 5
退 5
逆 5
週 5
遣@@ 5
還 5
邈 5
邢@@ 5
邮@@ 5
邹@@ 5
郁 5
郞 5
鄱@@ 5
酸 5
酿@@ 5
醴 5
釈@@ 5
鈞@@ 5
鉉 5
銖 5
銘 5
鋒 5
鋼@@ 5
鍋@@ 5
鍵 5
鐵 5
鐸 5
鑒 5
错@@ 5
锡 5
问 5
除 5
隋@@ 5
随@@ 5
隐@@ 5
隗 5
際 5
隠@@ 5
隱 5
隼@@ 5
雁 5
霜@@ 5
靑@@ 5
靚 5
靳@@ 5
顔@@ 5
项@@ 5
颜@@ 5
餐@@ 5
餓@@ 5
駆@@ 5
騎 5
騫 5
髪@@ 5
鬱@@ 5
魁 5
鵬@@ 5
鶯@@ 5
鸞 5
鸿 5
鹃 5
鹏@@ 5
鹰 5
麓@@ 5
麼 5
黏@@ 5
龟@@ 5
ꙗ 5
ꝰ 5
ꠣ@@ 5
ꠤ@@ 5
ꦒ@@ 5
ꦴ@@ 5
갑@@ 5
검@@ 5
곡 5
광 5
급@@ 5
까 5
께 5
꽃 5
날@@ 5
널 5
달 5
두 5
럭@@ 5
령@@ 5
류 5
릉 5
맨@@ 5
모 5
발 5
밤@@ 5
밥@@ 5
뱅@@ 5
벌 5
벳 5
쁜 5
업 5
엑@@ 5
엠 5
움 5
응@@ 5
익 5
잘@@ 5
잡@@ 5
쟁@@ 5
점@@ 5
젓 5
져@@ 5
족@@ 5
존@@ 5
죽@@ 5
총@@ 5
춘 5
칠@@ 5
커@@ 5
컴@@ 5
컵 5
클@@ 5
탁@@ 5
팔@@ 5
패@@ 5
편@@ 5
평 5
표 5
픽@@ 5
향 5
혜 5
﹐ 5
ﺔ 5
ﺣ@@ 5
ﺩ@@ 5
ﺷ@@ 5
ﻋ@@ 5
ﻣ@@ 5
ﻨ@@ 5
ﻭ 5
２ 5
＝ 5
Ｃ 5
Ｍ@@ 5
𐍄@@ 5
𐎭@@ 5
𐎲@@ 5
𐏀@@ 5
𐤉@@ 5
𐰰 5
𐰼@@ 5
𐱅@@ 5
𝑘@@ 5
𝕌 5
𝗡@@ 5
𝗵@@ 5
𝗻 5
𝗽@@ 5
𝘆@@ 5
𝛽 5
𝛾 5
🇵 5
🇼 5
Devlet@@ 4
Katika 4
Mashariki 4
Mitgli@@ 4
Nó 4
Wakati 4
además 4
adlı 4
ampiy@@ 4
andı 4
anlığı 4
arabu 4
arufu 4
asyon@@ 4
başkanı 4
begann 4
blieb 4
báo 4
bóng 4
büyü@@ 4
büyük 4
bắc 4
chiến 4
cây 4
damit 4
değ@@ 4
dunia 4
década 4
dört 4
eció 4
entonces 4
errich@@ 4
ezwa 4
eği 4
falme 4
folgen@@ 4
geführt 4
giao 4
giải 4
gái 4
habían 4
hoàn 4
hậu 4
ilikuwa 4
isinde 4
isinin 4
kaç 4
keş@@ 4
kuliko 4
larla 4
liğ@@ 4
làng 4
maana 4
malar 4
miền 4
mto 4
muchos 4
mwen@@ 4
màu 4
mất 4
mặt 4
núi 4
năng 4
olup 4
parator@@ 4
phải 4
pueden 4
rağ@@ 4
siyon@@ 4
sır@@ 4
sız@@ 4
sự 4
tháng 4
thương 4
thống 4
tiế@@ 4
tiếng 4
truyền 4
trẻ 4
títul@@ 4
tại 4
tịch 4
tới 4
uniani 4
vàng 4
vũ 4
weiten 4
zahl@@ 4
zaidi 4
 4
 4
üzere 4
Ą@@ 4
điều 4
đông 4
đại 4
đảo 4
đổi 4
đời 4
Ĝ@@ 4
Ģ 4
İmparator@@ 4
ıya 4
Ĵ 4
Ŏ 4
Ŕ 4
şehr@@ 4
Ŧ 4
ŧ@@ 4
Ũ@@ 4
Ŭ 4
Ŷ@@ 4
ƀ 4
Ơ 4
Ƣ 4
Ʊ@@ 4
Ǔ 4
ǖ@@ 4
ǘ 4
ǥ@@ 4
ǩ 4
ǭ@@ 4
ǹ 4
Ǽ 4
ȥ 4
Ȧ 4
Ⱥ 4
Ƀ 4
ɇ 4
Ɉ 4
ɩ@@ 4
ʄ 4
ʓ 4
ʢ 4
ʦ 4
ʨ@@ 4
ʯ 4
ˆ 4
˝ 4
ˡ 4
ˢ@@ 4
ˣ 4
̛ 4
̜ 4
Ͷ 4
Ελλ@@ 4
Ιστο@@ 4
Πανεπιστήμιο 4
Του@@ 4
άζει 4
άλογ@@ 4
άνδρ@@ 4
ήσεις 4
ίδι 4
ανά 4
αντι 4
από 4
αρκ@@ 4
ατιν@@ 4
γεγον@@ 4
διαί@@ 4
διπλ@@ 4
δύο 4
εί 4
είναι 4
ερα 4
ερι@@ 4
ηχ@@ 4
θαν@@ 4
ιδι@@ 4
ικές 4
ιλι@@ 4
ισμού 4
καρι@@ 4
κοπ@@ 4
κυκλ@@ 4
λάβ@@ 4
μέλος 4
μέτρ@@ 4
μαζ@@ 4
μεγάλ@@ 4
μετα@@ 4
μορ@@ 4
νέα 4
νας 4
νώ@@ 4
ογράφ@@ 4
οιν@@ 4
παί@@ 4
πλευ@@ 4
ραση 4
ριστιαν@@ 4
ρού 4
σεων 4
σκην@@ 4
στικά 4
στολ@@ 4
στρατιω@@ 4
συμ@@ 4
συνα@@ 4
σωτερ@@ 4
τάν@@ 4
τεχν@@ 4
τεύ@@ 4
τικών 4
τιμ@@ 4
τρία 4
τυχ@@ 4
υπερ@@ 4
χαμ@@ 4
χειρ@@ 4
χώρ@@ 4
ωνα 4
ωτερ@@ 4
όδου 4
όνομα 4
ότε 4
ότη@@ 4
ώνες 4
ώρ@@ 4
ϖ@@ 4
Ϙ@@ 4
Ϝ@@ 4
ϝ@@ 4
ϯ 4
ϻ 4
Джо@@ 4
Его 4
Но 4
Основ@@ 4
Уи@@ 4
Шве@@ 4
архи@@ 4
бата 4
брат 4
буду@@ 4
вает 4
веро@@ 4
вую 4
высо@@ 4
гате@@ 4
году 4
грани@@ 4
дава 4
дале@@ 4
деся@@ 4
ена 4
жил 4
зада@@ 4
запа@@ 4
запад@@ 4
зма 4
иде@@ 4
изве@@ 4
импе@@ 4
импера@@ 4
ител@@ 4
ится 4
йн@@ 4
капита@@ 4
кари@@ 4
ключ@@ 4
кораб@@ 4
кръ@@ 4
ланд@@ 4
литератур@@ 4
манасти@@ 4
меха@@ 4
мину@@ 4
моби@@ 4
мож@@ 4
мс 4
наслед@@ 4
нах 4
началь@@ 4
независи@@ 4
нения 4
нес 4
нием 4
ника@@ 4
ният 4
нове 4
ност 4
организа@@ 4
основ@@ 4
отде@@ 4
откры@@ 4
первый 4
переда@@ 4
писание 4
писате@@ 4
пли@@ 4
полож@@ 4
попу@@ 4
после 4
поста@@ 4
поя@@ 4
проис@@ 4
простран@@ 4
против 4
против@@ 4
пъл@@ 4
работа 4
разде@@ 4
ране 4
рах 4
режи@@ 4
рез 4
сам 4
связи 4
сили 4
ския 4
случа@@ 4
сно 4
спек@@ 4
среди 4
ссии 4
станции 4
ств@@ 4
ствует 4
страна 4
струк@@ 4
тек@@ 4
тем 4
тео@@ 4
тол@@ 4
тому 4
тта 4
финан@@ 4
форма@@ 4
хай@@ 4
ху 4
части 4
часть 4
ческих 4
чни 4
шение 4
электро@@ 4
это 4
юж@@ 4
ђ 4
џ 4
Ѩ 4
Ѫ 4
ѫ 4
Ѯ 4
Ѱ 4
҆ 4
ҍ 4
Ҕ 4
ҟ@@ 4
Ҫ 4
Ҳ@@ 4
Һ@@ 4
һ 4
Ӄ 4
ӑ@@ 4
Ӓ 4
Ӧ 4
ӧ@@ 4
ӯ@@ 4
ӱ 4
ӱ@@ 4
Ӻ 4
ԑ 4
Ա 4
Ճ@@ 4
Ց@@ 4
֑ 4
֥ 4
ֵ 4
ֶ 4
ֺ@@ 4
؛ 4
آخر 4
أة 4
أث@@ 4
أحد 4
أف@@ 4
إذا 4
ئر 4
ائل 4
ابات 4
اتی 4
ارات 4
ارية 4
اسلا@@ 4
اسمبلی 4
اسٹیشن 4
الأك@@ 4
الإنس@@ 4
الات 4
التعليم 4
الحي@@ 4
العظ@@ 4
العلا@@ 4
اللغة 4
المط@@ 4
اون@@ 4
بات@@ 4
باع@@ 4
باً 4
بس 4
بعة 4
بند 4
بوا@@ 4
تان 4
تحت 4
تط@@ 4
ثار 4
جائ@@ 4
جنگ 4
جگ@@ 4
جہ 4
حز@@ 4
حق@@ 4
حل 4
حول 4
حية 4
خاص 4
خص@@ 4
خلی@@ 4
خی 4
داخ@@ 4
دخ@@ 4
درس 4
دش@@ 4
دل@@ 4
دولة 4
دون 4
رس 4
ریاست 4
رین 4
سال 4
سل 4
سلو@@ 4
سوس 4
سون@@ 4
سین 4
صاح@@ 4
صوب@@ 4
ضافة 4
ضر@@ 4
طن 4
عظ@@ 4
عية 4
فا 4
فارسی 4
فس@@ 4
فق 4
قاد@@ 4
قلعہ 4
قوق 4
قومی 4
لاء 4
لائ@@ 4
لت 4
لت@@ 4
لغ@@ 4
للإ@@ 4
لن 4
لها 4
لیگ 4
مالک 4
مثل 4
مجموعة 4
مرة 4
مسلم 4
مشر@@ 4
مظ@@ 4
مقام 4
موت 4
مود 4
نر 4
نظام 4
نما 4
نين 4
هذه 4
هـ 4
هما 4
هو 4
ورت 4
وع 4
وّ@@ 4
يوم 4
ً@@ 4
٨ 4
ٹو 4
پاک 4
پش@@ 4
پنجاب 4
ڑا 4
ڑی 4
ڙ 4
ښ@@ 4
کا@@ 4
کت 4
کرا@@ 4
کل 4
کلی@@ 4
کن@@ 4
ھی 4
ہو@@ 4
یت 4
یع@@ 4
ۍ 4
ے@@ 4
۲@@ 4
ܹ@@ 4
ܼ@@ 4
ސ@@ 4
ޔ@@ 4
ާ 4
ޫ@@ 4
अम@@ 4
उत 4
ऋ 4
ऌ 4
ऐ 4
ऐ@@ 4
काम 4
कार@@ 4
कुमार 4
गं@@ 4
चर 4
चल 4
चा 4
चित 4
ची@@ 4
टे@@ 4
डी 4
तर@@ 4
तार 4
तो 4
थि@@ 4
दास 4
दुर 4
दे 4
देवी 4
दो 4
नदी 4
ने 4
नौ@@ 4
पन 4
पार@@ 4
पी 4
पुत 4
भार@@ 4
भाषा 4
भी@@ 4
मात 4
मान@@ 4
मू@@ 4
मूर 4
यालय 4
यू@@ 4
रं@@ 4
रता 4
रव 4
रिय@@ 4
रे 4
लाल 4
लोक 4
वल 4
वविद 4
वार 4
वृत 4
शं@@ 4
शिक 4
शी@@ 4
षि 4
षेत 4
सार 4
से 4
हम 4
हे@@ 4
हो 4
ित 4
ॠ 4
ঁ 4
ঃ 4
ঊ 4
ঋ 4
ঘ 4
ছ 4
ঠ 4
ৃ@@ 4
ৰ 4
ਈ 4
ਉ@@ 4
ਓ@@ 4
ਫ 4
ਵ 4
ੋ 4
ੌ@@ 4
੧ 4
ચ@@ 4
ઝ 4
ટ 4
ટ@@ 4
ડ@@ 4
બ@@ 4
મ 4
ય@@ 4
હ 4
କ 4
ଚ@@ 4
ଟ@@ 4
ଡ 4
ଣ 4
ଦ@@ 4
ଳ 4
଼ 4
ି 4
ୀ 4
ஹ@@ 4
ణ@@ 4
ధ@@ 4
ల 4
శ 4
ీ 4
ె@@ 4
ಆ@@ 4
ಡ@@ 4
ಳ@@ 4
ವ 4
಼ 4
അ 4
ഗ@@ 4
ഡ@@ 4
ു 4
ൃ@@ 4
ൻ 4
ൽ 4
ൾ 4
ආ@@ 4
ඉ@@ 4
ණ 4
ළ@@ 4
ෝ@@ 4
กลา@@ 4
คร 4
ความ@@ 4
จีน 4
ชี@@ 4
ซิ@@ 4
ซี 4
ฎ@@ 4
ฏ 4
ฒ@@ 4
ตำบล 4
ถน@@ 4
ที@@ 4
ธรรม 4
นัก@@ 4
นาง 4
บัติ 4
ปี 4
ภาษา@@ 4
มูล 4
ยัง@@ 4
ยู@@ 4
รว@@ 4
ริ 4
สถา@@ 4
สี 4
สุด@@ 4
หั@@ 4
ฬ@@ 4
องค@@ 4
อด 4
อบ 4
อม 4
อร@@ 4
ออก@@ 4
ัด@@ 4
ีต 4
เน@@ 4
เศ@@ 4
เหน@@ 4
แรง 4
โล@@ 4
ຮ 4
ཥ 4
ཧ@@ 4
ཨ@@ 4
လ 4
ူ 4
ၢ 4
ၣ 4
გ 4
ვ 4
ሂ@@ 4
ሕ 4
ሜ@@ 4
ሬ@@ 4
ሸ 4
ቶ@@ 4
ቸ 4
ኖ@@ 4
ካ 4
ዋ@@ 4
ዛ@@ 4
ዠ 4
ዱ@@ 4
ዴ 4
ጅ 4
ጌ 4
ግ 4
ጐ@@ 4
ፌ@@ 4
ᐌ@@ 4
ᐎ@@ 4
ᑳ@@ 4
ᒃ@@ 4
ᒐ@@ 4
ᒡ@@ 4
ᓅ@@ 4
ᓚ@@ 4
ᓯ 4
ᔥ@@ 4
ᕽ 4
ᚢ 4
ᚦ@@ 4
ᚨ 4
ᚨ@@ 4
ᚪ 4
ᚴ 4
ᛅ@@ 4
ᛉ 4
ᛋ@@ 4
ᛐ 4
ᛒ 4
ᛞ@@ 4
ᛠ@@ 4
ឃ@@ 4
ឋ 4
ឋ@@ 4
ឧ@@ 4
ឯ@@ 4
ឱ@@ 4
ៅ@@ 4
ះ 4
៍ 4
២ 4
ᠠ 4
ᠢ 4
ᡳ@@ 4
ᨚ 4
ᬦ@@ 4
᭄ 4
ᴿ 4
ᵹ 4
᷅ 4
Ḑ 4
Ḧ 4
ḩ 4
Ḵ 4
Ṁ 4
Ṉ 4
ṑ 4
ṡ 4
ṧ@@ 4
ṱ 4
ẍ 4
ẟ 4
ẻ@@ 4
Ẽ@@ 4
Ỉ 4
Ố 4
Ổ 4
Ở 4
Ứ@@ 4
Ἡ 4
ὃ 4
ὢ@@ 4
Ὡ@@ 4
Ὦ@@ 4
ᾍ@@ 4
ῑ 4
ῠ@@ 4
ῤ@@ 4
‼ 4
⁂ 4
₦ 4
₼ 4
⅜ 4
⅝ 4
ↁ 4
ↂ 4
⇧ 4
∋ 4
∓ 4
≺ 4
⌑ 4
┘ 4
╱ 4
◇ 4
☩ 4
♄ 4
⚒ 4
⚽ 4
❑ 4
⟦ 4
⟧ 4
Ⱅ 4
Ⱔ 4
Ɽ 4
ⲃ 4
ⲕ 4
ⲗ 4
ⲱ 4
ⴺ@@ 4
ⴻ 4
ぇ 4
ざ 4
ぞ@@ 4
づ 4
ぱ 4
゛ 4
ゝ@@ 4
ヰ 4
ヱ 4
ㄅ@@ 4
ㄝ 4
ㄢ 4
ㄣ 4
ㄥ 4
ㄴ 4
ㄴ@@ 4
ㄷ 4
ㅇ 4
ㅊ 4
ㅗ@@ 4
ㅜ@@ 4
且@@ 4
丛@@ 4
並 4
串@@ 4
乎 4
乒@@ 4
乞@@ 4
习 4
买@@ 4
亀 4
亂@@ 4
互@@ 4
亚 4
享@@ 4
亲@@ 4
人口@@ 4
亿 4
亿@@ 4
仑@@ 4
仪@@ 4
件 4
低@@ 4
佩 4
侃 4
例@@ 4
侠 4
価 4
侨 4
侨@@ 4
係@@ 4
俳 4
俳@@ 4
倍 4
倘@@ 4
倚@@ 4
倶@@ 4
偏 4
傾@@ 4
働 4
働@@ 4
僚@@ 4
億 4
儼 4
冢@@ 4
冤 4
冤@@ 4
凰 4
凶 4
击@@ 4
函@@ 4
刃 4
创 4
别 4
刹@@ 4
剌@@ 4
剡@@ 4
創 4
劃@@ 4
努 4
労 4
勉@@ 4
勛 4
勧@@ 4
勰 4
勲 4
勳@@ 4
勿@@ 4
匈@@ 4
匯 4
升@@ 4
卍@@ 4
卒@@ 4
卜@@ 4
卡 4
危 4
卵 4
厅 4
厳 4
又 4
叛 4
叟 4
叡@@ 4
叩@@ 4
只 4
召 4
吃@@ 4
各 4
听 4
吹 4
呉 4
咬@@ 4
咱 4
哨 4
哭 4
哼@@ 4
啓@@ 4
喀@@ 4
喇@@ 4
喫@@ 4
営 4
嗣@@ 4
嘎@@ 4
困 4
圆 4
圧@@ 4
块@@ 4
坚 4
坦@@ 4
坵 4
垂 4
垒 4
埼@@ 4
堤@@ 4
塩@@ 4
墅@@ 4
墨 4
墳 4
墾@@ 4
壹@@ 4
处 4
复 4
奄 4
奕 4
奕@@ 4
奖@@ 4
套@@ 4
奚 4
奢 4
妍 4
姉 4
娟 4
娣 4
娥 4
娱@@ 4
媛@@ 4
媽@@ 4
嬌 4
嬪 4
嬴 4
孤 4
孩 4
孺@@ 4
实 4
宰@@ 4
害@@ 4
宽@@ 4
寞@@ 4
寬 4
寮@@ 4
寵 4
対 4
専 4
尧 4
尧@@ 4
尽 4
尽@@ 4
层@@ 4
届@@ 4
屍@@ 4
屏 4
屠 4
屿 4
岱@@ 4
岷@@ 4
峪 4
崂@@ 4
崔 4
嵊@@ 4
嵬 4
巌@@ 4
巩@@ 4
带@@ 4
帮 4
帯@@ 4
帰 4
幣 4
幻 4
幽 4
庁@@ 4
序@@ 4
应 4
庙@@ 4
庚@@ 4
庶@@ 4
庸@@ 4
廂@@ 4
弋@@ 4
弐 4
张 4
弾 4
彙 4
彡 4
彥@@ 4
径 4
很 4
循 4
徵 4
忄 4
忧@@ 4
忽@@ 4
态@@ 4
怖 4
怨@@ 4
恨@@ 4
恪 4
恰@@ 4
悔 4
悠 4
悦@@ 4
您 4
您@@ 4
愈 4
愍@@ 4
態 4
慢@@ 4
慮 4
憂@@ 4
懂 4
懸 4
成功 4
户@@ 4
扁@@ 4
扑 4
払 4
托 4
批 4
抗 4
担 4
拓 4
拔@@ 4
拝@@ 4
拡 4
括 4
按@@ 4
捲 4
掃@@ 4
採@@ 4
接 4
掾 4
揆 4
描 4
換 4
揮 4
援 4
援@@ 4
搏 4
摶 4
摸@@ 4
撥@@ 4
撮@@ 4
操@@ 4
擒@@ 4
擔@@ 4
擬@@ 4
数 4
斬@@ 4
断 4
既 4
旱@@ 4
旺 4
旻 4
昔 4
映 4
昱 4
晟 4
暑@@ 4
暗 4
暦@@ 4
曄 4
更 4
曽@@ 4
朴 4
朽 4
杆 4
杖@@ 4
杰@@ 4
枠 4
枣 4
架@@ 4
柄 4
查 4
柯 4
柴 4
査@@ 4
标 4
案@@ 4
桦@@ 4
梯 4
梯@@ 4
械 4
棣 4
棱@@ 4
検 4
検@@ 4
楂@@ 4
榄@@ 4
模 4
樺@@ 4
橘 4
橫 4
檔 4
櫻@@ 4
欲 4
欲@@ 4
歡 4
此 4
此@@ 4
歯 4
歲 4
歳@@ 4
殆 4
殖 4
毗@@ 4
氐 4
氷 4
汪 4
汴 4
沂 4
沉@@ 4
沔@@ 4
沱@@ 4
沸 4
沼@@ 4
沿 4
泊@@ 4
泌 4
泽 4
浄 4
浴@@ 4
涙 4
涪@@ 4
淀@@ 4
淋 4
淑 4
混 4
渉@@ 4
渓@@ 4
測 4
渭 4
溧@@ 4
滄@@ 4
滕@@ 4
滝 4
漂@@ 4
漱@@ 4
潛 4
潞@@ 4
潟 4
濡@@ 4
濩 4
濮@@ 4
瀑@@ 4
瀾 4
灸@@ 4
炯 4
炳 4
炸 4
焉@@ 4
焦 4
煤@@ 4
熱 4
燒 4
營@@ 4
爪 4
爭@@ 4
爵@@ 4
爷@@ 4
牆 4
犍@@ 4
狀@@ 4
狭@@ 4
狸@@ 4
猎@@ 4
獅 4
獎@@ 4
獣 4
獲 4
率@@ 4
玩@@ 4
琊@@ 4
琬 4
琮 4
瑕 4
瑛@@ 4
瑟@@ 4
璧@@ 4
甌 4
甕@@ 4
甚@@ 4
產@@ 4
畏@@ 4
畑 4
畔 4
畔@@ 4
畝 4
畵@@ 4
疏 4
疑 4
症 4
痴@@ 4
皆 4
皓@@ 4
监@@ 4
眉 4
短 4
研究 4
硯 4
碑@@ 4
碼 4
祈 4
祚@@ 4
禍 4
禎@@ 4
禦@@ 4
禺 4
禺@@ 4
秤@@ 4
秩@@ 4
称@@ 4
稼@@ 4
穎 4
究@@ 4
突 4
窑@@ 4
窓 4
窓@@ 4
窮@@ 4
窯 4
笔 4
笔@@ 4
筝@@ 4
箕@@ 4
箫 4
築 4
篠@@ 4
篤 4
篤@@ 4
簫 4
粍@@ 4
粹@@ 4
糖@@ 4
系统 4
細 4
紳 4
紹 4
給 4
絶 4
継 4
綫 4
綬 4
綿@@ 4
緊@@ 4
総 4
練 4
縄 4
績 4
纲 4
纵@@ 4
练@@ 4
绵@@ 4
罪 4
羌 4
羞@@ 4
羿 4
翟 4
翟@@ 4
翹 4
翻@@ 4
耐@@ 4
耒@@ 4
联 4
肃 4
肝@@ 4
股 4
胃 4
胃@@ 4
胸 4
胸@@ 4
脈@@ 4
脑@@ 4
脚@@ 4
脫@@ 4
脳 4
腦@@ 4
腸 4
腾 4
膺 4
膺@@ 4
臂@@ 4
臘@@ 4
臼 4
舅 4
舆 4
舱 4
舺 4
艋@@ 4
芈 4
芜@@ 4
芮@@ 4
芹 4
苏 4
荒 4
莞@@ 4
莫 4
莲 4
莽 4
菌@@ 4
萌@@ 4
萨 4
葬 4
蕙 4
蕙@@ 4
薄@@ 4
薊 4
藕 4
虢 4
蛤@@ 4
蜂 4
蜂@@ 4
蜡@@ 4
蟹 4
蠻 4
衍@@ 4
衝@@ 4
袋@@ 4
裝@@ 4
裟 4
裡@@ 4
裳 4
裸@@ 4
製 4
複 4
覆@@ 4
视 4
览@@ 4
訊@@ 4
訳 4
詔 4
評 4
試 4
該 4
詹@@ 4
認@@ 4
誘@@ 4
誤 4
誼 4
諦@@ 4
諫 4
諸 4
諾 4
謹 4
譚 4
譯@@ 4
譽 4
讀 4
讖@@ 4
讲 4
评 4
识@@ 4
谁@@ 4
调 4
谊@@ 4
谐@@ 4
豚 4
豸 4
豹 4
貌 4
貧 4
貧@@ 4
貨@@ 4
買 4
貸 4
賁 4
賛 4
賞@@ 4
賭@@ 4
賴 4
贊@@ 4
贞@@ 4
货@@ 4
质@@ 4
贵 4
赐@@ 4
赞@@ 4
趁@@ 4
跑@@ 4
跟@@ 4
跳 4
踏@@ 4
蹄@@ 4
躍@@ 4
転 4
転@@ 4
軸 4
輕@@ 4
輯@@ 4
輸@@ 4
轉 4
轩 4
轼 4
输@@ 4
辖@@ 4
辣@@ 4
辶 4
迁@@ 4
迈@@ 4
运 4
迪 4
迹 4
迹@@ 4
适 4
逍@@ 4
透 4
逐 4
這@@ 4
逝@@ 4
遍@@ 4
遣 4
遥 4
適 4
邓 4
邯@@ 4
郢 4
鄰 4
配 4
酢 4
酥 4
醇 4
醇@@ 4
醉 4
醍@@ 4
醐@@ 4
釈 4
释@@ 4
針@@ 4
鈺 4
鉢 4
鎖 4
鏞 4
钢 4
钰@@ 4
铎 4
银 4
锅@@ 4
锋 4
镜@@ 4
閑@@ 4
閥 4
闇@@ 4
闍@@ 4
闕@@ 4
阔@@ 4
陌@@ 4
隈@@ 4
隋 4
障 4
隞 4
隠 4
隣@@ 4
險 4
隶 4
隼 4
雒 4
雙 4
雾 4
霄@@ 4
霆@@ 4
霧 4
鞋@@ 4
韋 4
頃 4
頎 4
頒@@ 4
頡 4
額 4
額@@ 4
顧 4
顺 4
颂 4
题@@ 4
飼 4
餘 4
餘@@ 4
饼 4
騒@@ 4
驗@@ 4
驹 4
骏 4
鬥 4
鬥@@ 4
鬪 4
鬯 4
魯 4
鯉 4
鶴 4
鸡 4
鹅@@ 4
鹽@@ 4
麝@@ 4
麦 4
麴 4
麴@@ 4
麵@@ 4
黙 4
黛@@ 4
鼠 4
齡 4
ꙋ 4
Ꙍ 4
ꙑ 4
ꚉ 4
ꜩ 4
ꜳ 4
ꜵ 4
Ꝏ 4
ꝗ@@ 4
Ɥ 4
ꞑ@@ 4
ꟾ@@ 4
ꠟ@@ 4
ꦂ@@ 4
ꦔ@@ 4
ꦠ@@ 4
ꦪ@@ 4
ꦶ@@ 4
감 4
거 4
걸 4
검 4
격@@ 4
곰 4
괴@@ 4
균@@ 4
극@@ 4
꼬@@ 4
꼭@@ 4
끔 4
끝 4
끼@@ 4
네 4
녕 4
뉴@@ 4
늘 4
능@@ 4
님@@ 4
닭@@ 4
닿@@ 4
둘@@ 4
든 4
딩@@ 4
따@@ 4
땅@@ 4
랜@@ 4
러 4
럼 4
력 4
렬 4
례 4
룹 4
륙@@ 4
립 4
막 4
면@@ 4
몽@@ 4
묘@@ 4
묵 4
변 4
볼@@ 4
빛 4
빨@@ 4
뽀@@ 4
삼 4
샤 4
샤@@ 4
쇠 4
슬 4
습 4
쌀@@ 4
쌰 4
쑥 4
앤@@ 4
억@@ 4
엘 4
엠@@ 4
엽 4
윙@@ 4
율@@ 4
으 4
좀 4
좌@@ 4
증@@ 4
직@@ 4
짜 4
찹@@ 4
책 4
첩 4
첫@@ 4
청 4
촌 4
출@@ 4
취@@ 4
칼@@ 4
큐@@ 4
택@@ 4
튼 4
패 4
페@@ 4
펜@@ 4
편 4
필@@ 4
할@@ 4
합 4
협 4
휴@@ 4
흑@@ 4
히 4
히@@ 4
힘@@ 4
ﬁ 4
ﺮ 4
ﻃ@@ 4
ﻠ@@ 4
ﻥ 4
ﻱ 4
ﻳ@@ 4
５@@ 4
９@@ 4
Ａ 4
Ｂ@@ 4
Ｎ@@ 4
Ｐ@@ 4
Ｒ@@ 4
Ｘ 4
＿ 4
ａ@@ 4
𐌼@@ 4
𐎴@@ 4
𐐯@@ 4
𐤀 4
𐤀@@ 4
𐤁@@ 4
𐤐@@ 4
𐬀@@ 4
𐭥@@ 4
𘜶@@ 4
𝄪 4
𝐵 4
𝒫 4
𝒯 4
🇾 4
👎 4
🛠 4
Además 3
Aprili 3
Baada 3
Birleşik 3
Magharibi 3
Savaşı 3
Temmuz 3
Tháng 3
allerdings 3
baada 3
chương 3
chỉ 3
cuales 3
cách 3
cánh 3
cư 3
cả 3
cố 3
cứu 3
devam 3
düşün@@ 3
dương 3
dạng 3
estadounidense 3
fasst 3
fupi 3
gewählt 3
giáp 3
giới 3
hành 3
ikiwa 3
içer@@ 3
karibu 3
khí 3
kích 3
küçük 3
kết 3
lanan 3
ların 3
lendir@@ 3
lerde 3
lerden 3
leştir@@ 3
liên 3
lập 3
lực 3
mehrere 3
millî 3
mkubwa 3
muş@@ 3
mış 3
mọi 3
namba 3
nghệ 3
olmak 3
onjwa 3
phần 3
refu 3
sezon@@ 3
siguiente 3
siguientes 3
sư 3
số 3
thiên 3
thảo 3
thần 3
thắng 3
thực 3
tiểu 3
triều 3
upande 3
veya 3
vận 3
với 3
wakazi 3
yêu 3
zamani 3
 3
 3
ßerdem 3
ándose 3
çoc@@ 3
ünya 3
ünün 3
đang 3
đã 3
đình 3
đầu 3
Ĕ 3
İlk 3
ıda 3
ılmış 3
ıyor 3
ışt@@ 3
Ļ 3
Ŀ@@ 3
ŀ@@ 3
Ņ 3
Ŏ@@ 3
Ŗ 3
Ţ 3
Ŧ@@ 3
Ű 3
Ŵ 3
Ŷ 3
Ɗ@@ 3
Ƙ 3
ƚ 3
ƣ 3
Ʃ 3
ƭ@@ 3
Ƶ@@ 3
Ǎ@@ 3
Ǖ 3
ǟ@@ 3
ǥ 3
ǯ@@ 3
Ǵ 3
ǻ 3
ȁ@@ 3
ȃ 3
ȹ 3
Ʉ@@ 3
Ɉ@@ 3
ɦ 3
ɧ 3
ɧ@@ 3
ɱ@@ 3
ɶ 3
ʇ 3
ʖ 3
ʛ 3
ʮ 3
˂ 3
ˇ@@ 3
ˊ@@ 3
˛ 3
˜ 3
̙ 3
̫ 3
̳ 3
̻ 3
͗ 3
Ό 3
Ώ 3
Ώ@@ 3
Αθή@@ 3
Αν 3
Αυγ@@ 3
Γαλλ@@ 3
Ελλάδ@@ 3
Ελλάδα 3
Ευρώπη 3
Ισ@@ 3
Μια 3
Νο@@ 3
Ντ@@ 3
Πρό@@ 3
άλυ@@ 3
άμε@@ 3
άνθρω@@ 3
άσεις 3
έρον@@ 3
έστ@@ 3
ήχ@@ 3
ίζει 3
ακό 3
από@@ 3
βορ@@ 3
γυναίκ@@ 3
δηλ@@ 3
διάφορ@@ 3
διασ@@ 3
διαφ@@ 3
διο 3
δολ@@ 3
δρομ@@ 3
δυν@@ 3
ειας 3
ειες 3
ειών 3
εκκλη@@ 3
εντρ@@ 3
επικ@@ 3
επο@@ 3
ετα@@ 3
εταιρ@@ 3
ζε 3
ζει 3
ησης 3
θεωρ@@ 3
θυν@@ 3
λίγ@@ 3
λειτουργ@@ 3
λλο 3
μέρες 3
μεγαλ@@ 3
μυθ@@ 3
ναν 3
νερ@@ 3
ξε@@ 3
οδηγ@@ 3
οκα@@ 3
ολο@@ 3
οντας 3
οποι@@ 3
ουλίου 3
ουλευ@@ 3
ούλιο 3
π.@@ 3
παράδ@@ 3
πεδ@@ 3
πλέ@@ 3
ράφ@@ 3
ρίσ@@ 3
ρική 3
ρισης 3
στατ@@ 3
ταινία 3
τουργ@@ 3
τραγου@@ 3
τσι 3
φή 3
χώρα 3
χώρες 3
ψήφ@@ 3
όπου 3
Ϗ 3
ϐ 3
ϥ 3
ϧ 3
ϫ 3
ϭ 3
ϯ@@ 3
Ϸ 3
Ͻ 3
Ѐ 3
Ћ 3
Амери@@ 3
Ита@@ 3
От 3
При 3
Так@@ 3
Фор@@ 3
Франция 3
Фридри@@ 3
Фридрих 3
Япо@@ 3
альбо@@ 3
бира@@ 3
бия 3
боле@@ 3
вали 3
вани 3
вите 3
вли@@ 3
вото 3
вся@@ 3
вше@@ 3
вший 3
выпол@@ 3
гене@@ 3
гли 3
готов@@ 3
держ@@ 3
дивизи@@ 3
дире@@ 3
друго@@ 3
души 3
дър@@ 3
европей@@ 3
епи@@ 3
еписко@@ 3
зани 3
зат@@ 3
испол@@ 3
ката@@ 3
каче@@ 3
кви 3
кой@@ 3
кора@@ 3
котором 3
край@@ 3
края 3
круп@@ 3
лага@@ 3
ландия 3
лах 3
лд 3
лени 3
лены 3
лож@@ 3
лько 3
лят 3
мата 3
меда@@ 3
между 3
международ@@ 3
мерикан@@ 3
место 3
мето@@ 3
может 3
мом 3
назва@@ 3
наме@@ 3
наре@@ 3
ниците 3
общи@@ 3
обы@@ 3
организации 3
отли@@ 3
отноше@@ 3
писа@@ 3
пози@@ 3
политиче@@ 3
посо@@ 3
прави 3
право 3
преди@@ 3
председате@@ 3
призна@@ 3
пробле@@ 3
произве@@ 3
птем@@ 3
път 3
работы 3
ради 3
рами 3
рим@@ 3
самы@@ 3
седате@@ 3
сек@@ 3
сим@@ 3
созда@@ 3
состав 3
сра@@ 3
стал 3
станов@@ 3
ства@@ 3
стве 3
ственно 3
ству 3
стой@@ 3
така 3
тата 3
тах 3
творче@@ 3
тни 3
треш@@ 3
тър@@ 3
фил@@ 3
француз@@ 3
френ@@ 3
[...]
