ใน 1
ที่ 1
และ 1
ของ 1
เป็น 1
การ 1
น@@ 1
ม@@ 1
ส@@ 1
มี 1
ย@@ 1
ก@@ 1
ด@@ 1
ได้ 1
ล@@ 1
ต@@ 1
ร@@ 1
ม 1
ค@@ 1
น 1
์ 1
" 1
บ@@ 1
ด 1
ท@@ 1
ก 1
อ@@ 1
) 0.9557254328617426
แ@@ 1
ว@@ 1
จ@@ 1
ง@@ 1
( 0.9085442107601364
การ@@ 1
ป@@ 1
พ@@ 1
ข@@ 1
. 0.15402105907622307
ง 1
เ@@ 1
ช@@ 1
กับ 1
ว 1
ว่า 1
ล 1
โ@@ 1
โดย 1
ประ@@ 1
อ 1
ไ@@ 1
ะ 1
มา 1
ส 1
จาก 1
จะ 1
ความ@@ 1
ย 1
า 1
ปี 1
ห@@ 1
ไป 1
ซ@@ 1
บ 1
เล@@ 1
ให้ 1
ร 1
ซึ่ง 1
ถ@@ 1
อา@@ 1
ต 1
ไม่ 1
นี้ 1
ฟ@@ 1
วิ@@ 1
, 0.08950665150873875
ิ@@ 1
ศ@@ 1
พ.ศ. 1
ี 1
25@@ 1
เส@@ 1
เป็น@@ 1
นา@@ 1
ั@@ 1
เมื่อ 1
ุ@@ 1
ธ@@ 1
ร์ 1
ู 1
พระ@@ 1
สา@@ 1
เก@@ 1
็@@ 1
้@@ 1
ผู้@@ 1
ที่@@ 1
รา@@ 1
กัน 1
อยู่ 1
ี@@ 1
ย์ 1
่ง 1
นิ@@ 1
เช@@ 1
ะ@@ 1
เขา 1
่า 1
ขึ้น 1
ด้วย 1
ีย@@ 1
์@@ 1
ๆ 1
ทาง 1
พระ 1
หรือ 1
ใช้ 1
ค.ศ. 1
ุ 1
คน 1
ู@@ 1
คม 1
ฮ@@ 1
ิ 1
- 1
อน 1
เพ@@ 1
นั้น 1
กร@@ 1
มี@@ 1
ิน 1
คือ 1
ท 1
แต่ 1
ถึง 1
ก็ 1
้ 1
เว@@ 1
รั@@ 1
า@@ 1
มา@@ 1
่า@@ 1
นัก@@ 1
ประเทศ 1
เบ@@ 1
ัน 1
ณ@@ 1
อง 1
วันที่ 1
เอ@@ 1
หน@@ 1
ติ@@ 1
ราช@@ 1
ีย 1
ตร@@ 1
ผ@@ 1
ถูก 1
เท@@ 1
ตัว 1
เมือง 1
แห่ง 1
เร@@ 1
อย่าง 1
เด@@ 1
ติ 1
สิ@@ 1
ลา@@ 1
พิ@@ 1
สม@@ 1
ริ@@ 1
คร@@ 1
เม@@ 1
จ 1
ส์ 1
หนึ่ง 1
่ 1
ษ@@ 1
ื@@ 1
ญ@@ 1
ยัง 1
ภ@@ 1
ค 1
นา 1
เซ@@ 1
ยา 1
งาน 1
พ 1
อน@@ 1
เพื่อ 1
ได้รับ 1
2 1
้น 1
กระ@@ 1
เข้า@@ 1
กล@@ 1
เน@@ 1
้า 1
ไทย 1
หล@@ 1
อง@@ 1
วา@@ 1
ชื่อ 1
เป@@ 1
วั@@ 1
ภา@@ 1
้น@@ 1
จึง 1
ทาง@@ 1
ัน@@ 1
ัย 1
่@@ 1
สร้าง 1
1 1
ร์@@ 1
หา@@ 1
เจ@@ 1
ยา@@ 1
ณ 1
าน 1
สามารถ 1
อร์@@ 1
ช 1
เจ้า@@ 1
ออก@@ 1
ฉ@@ 1
ดี 1
ตาม 1
ัง 1
บั@@ 1
ผู้ 1
สุ@@ 1
ป 1
ออก 1
อร์ 1
ใหญ่ 1
หม@@ 1
ญ 1
แบบ 1
อุ@@ 1
ึ@@ 1
เกิด 1
ฝ@@ 1
ับ 1
อก 1
รร@@ 1
กา@@ 1
สั@@ 1
ทำ@@ 1
ลิ@@ 1
มาก 1
เหล@@ 1
ต่อ 1
้า@@ 1
ยน 1
อย@@ 1
ภาพ 1
ใ@@ 1
รี 1
บา@@ 1
แล้ว 1
่ง@@ 1
3 1
ยุ@@ 1
ตัว@@ 1
ธิ@@ 1
รับ@@ 1
มิ@@ 1
หา 1
อิ@@ 1
คล@@ 1
แม@@ 1
เรื่อง 1
ทั้ง 1
ศาสตร์ 1
ครั้ง 1
สู@@ 1
ณ์ 1
ตั้ง 1
ทำให้ 1
ส่วน 1
ดา@@ 1
ตา@@ 1
ือ 1
สอง 1
ใจ 1
อบ 1
จำ@@ 1
เธอ 1
่น 1
เพลง 1
ตร 1
้อง@@ 1
ระ@@ 1
ิง 1
คุ@@ 1
ดา 1
รัฐ 1
ทรง 1
รว@@ 1
ชา@@ 1
กา 1
ฟ 1
ัก 1
ริ 1
จังหวัด 1
นำ 1
โร@@ 1
รา 1
ความ 1
วัด 1
กิ@@ 1
ทำ 1
ชาติ 1
ำ 1
ส่วน@@ 1
อั@@ 1
น้ำ 1
แน@@ 1
ต้อง 1
ใหม่ 1
ลง 1
ชาว 1
สัง@@ 1
หลัง 1
โลก 1
() 1
ลา 1
เค@@ 1
แรก 1
อร 1
ิน@@ 1
อด@@ 1
ื่@@ 1
ใต้ 1
ระหว่าง 1
บุ@@ 1
สห@@ 1
ต่อ@@ 1
ต่อมา 1
มิ 1
เช่น 1
กร 1
ราช 1
โอ 1
ิด@@ 1
เวลา 1
กรรม 1
โดย@@ 1
แสดง 1
ชน 1
นั@@ 1
มั@@ 1
หลาย 1
ก่อ@@ 1
4 1
(@@ 1
มัน 1
พบ 1
มหา@@ 1
แก@@ 1
ซ 1
ทีม 1
อบ@@ 1
พระราช@@ 1
"@@ 1
ดิ@@ 1
้าง 1
ที่สุด 1
อีก 1
วัน 1
ชา 1
้อง 1
จิ@@ 1
นี@@ 1
่าย 1
กลุ่ม 1
ื่อ@@ 1
บริ@@ 1
ปล@@ 1
ี่ 1
ศ 1
5 1
เดือน 1
ปัจจุบัน 1
โล@@ 1
่น@@ 1
ทั@@ 1
้าย 1
ใน@@ 1
สน@@ 1
; 0.5520664980154526
อด 1
ทิ@@ 1
ือ@@ 1
ประชา@@ 1
สำหรับ 1
ัง@@ 1
เข@@ 1
ชีวิต 1
กุ@@ 1
พล@@ 1
รับ 1
กว่า 1
: 0.3906282988458074
แผ@@ 1
ับ@@ 1
พระองค์ 1
ิด 1
รุ@@ 1
สว@@ 1
คว@@ 1
ชน@@ 1
จัด@@ 1
ด้าน 1
ต่าง 1
ู่ 1
้ง 1
ปฏิ@@ 1
24@@ 1
สถา@@ 1
ลี 1
่อ 1
ธ 1
วง@@ 1
ทุ@@ 1
น์ 1
ฐาน 1
จุ@@ 1
ชาย 1
วงศ์ 1
เล่น 1
ช่วง 1
เข้า 1
ต้น 1
บ้าน 1
ดิ 1
เต@@ 1
บน 1
ผล 1
คา@@ 1
จัด 1
เริ่ม 1
่ว@@ 1
แพ@@ 1
อำเภอ 1
ซี 1
วง 1
กั@@ 1
ที่จะ 1
หน้า 1
พันธ์ 1
แต@@ 1
เอ 1
เรียก 1
สำ@@ 1
นาม 1
กอง@@ 1
ตา 1
แส@@ 1
รวม@@ 1
สี 1
ภาพยนตร์ 1
ชี@@ 1
ข 1
เขต 1
ัก@@ 1
พฤ@@ 1
ู่@@ 1
กลาง 1
ตั้งแต่ 1
่าง 1
ปั@@ 1
ี่ย@@ 1
ึก 1
น้ำ@@ 1
ไว้ 1
ตุ@@ 1
เอง 1
ให้@@ 1
ภาษา 1
จน 1
ชั@@ 1
ข้อ@@ 1
ลาย 1
ตำแหน่ง 1
อก@@ 1
รี@@ 1
้อ@@ 1
ต์ 1
สูง 1
ร่วม 1
พระเจ้า 1
การแข่งขัน 1
งค@@ 1
โอ@@ 1
คั@@ 1
อม@@ 1
ปา@@ 1
พื@@ 1
เรีย@@ 1
ยก@@ 1
โรงเรียน 1
ียง@@ 1
เสียง 1
สมัย 1
ิล 1
๊@@ 1
แท@@ 1
พร@@ 1
ศึกษา 1
ขา@@ 1
จำนวน 1
กำ@@ 1
นัก 1
อา 1
ตั@@ 1
นว@@ 1
พา@@ 1
ห์ 1
พว@@ 1
หมาย 1
ราย@@ 1
เหนือ 1
ต่าง@@ 1
ณฑ@@ 1
ฤดู@@ 1
คน@@ 1
รอบ 1
คา 1
เด 1
ละ 1
อื่น 1
่อ@@ 1
รวม 1
หาร 1
ก็@@ 1
ร่วม@@ 1
สำคัญ 1
มาจาก 1
หญิง 1
าย 1
ก่อน 1
ทั้ง@@ 1
ลิ 1
คำ@@ 1
ำ@@ 1
– 0.5942621387024155
กาล 1
ชิ@@ 1
เดิม 1
ที 1
เห@@ 1
อย่าง@@ 1
ลำ@@ 1
6 1
ซา 1
ซ์ 1
ธรรม 1
ระบบ 1
รัฐ@@ 1
เย@@ 1
เจ้า 1
ียน 1
เมตร 1
แข@@ 1
)@@ 1
ทร@@ 1
สาร 1
ข้า@@ 1
กัด 1
ตรี 1
ฆ@@ 1
กีฬา 1
ประมาณ 1
การศึกษา 1
จาร@@ 1
โต 1
ภาค 1
นต@@ 1
ระดับ 1
พื้นที่ 1
ทั้งหมด 1
โก 1
ชื่อ@@ 1
อม 1
จีน 1
บรร@@ 1
เฉ@@ 1
แบ@@ 1
ผ่าน 1
ุน 1
นาย 1
กฎ@@ 1
ฤ@@ 1
อาจ 1
.@@ 0.9990510329801404
โร 1
ฮ 1
อิน@@ 1
เครื่อง@@ 1
ทธ@@ 1
ไม@@ 1
ด์ 1
้ว@@ 1
ื่อ 1
อังกฤษ 1
มุ@@ 1
สมเด็จ 1
อย 1
สู่ 1
เรียน 1
หลวง 1
คำ 1
ญี่ปุ่น 1
กิจ 1
ลง@@ 1
ละ@@ 1
ื้อ 1
เขียน 1
โปร@@ 1
ท์ 1
ภาย@@ 1
ในประเทศ 1
ผล@@ 1
ักษ@@ 1
ชนะ 1
เร 1
โด@@ 1
เคย 1
ดิน 1
นิยม 1
ซิ@@ 1
ยัง@@ 1
ล์ 1
นที่ 1
วา 1
ียง 1
เห็น 1
7 1
คณะ@@ 1
สี@@ 1
กลา@@ 1
ไร@@ 1
ได้แก่ 1
ตำบล 1
ฟ้า 1
สุด 1
จา@@ 1
รส 1
รถ@@ 1
ชุ@@ 1
รู้@@ 1
หมาย@@ 1
ยก 1
ขณะ@@ 1
การณ์ 1
เคร@@ 1
รูป 1
ติด@@ 1
้าน@@ 1
หร@@ 1
ชนิด 1
พยา@@ 1
ทะ@@ 1
เฟ@@ 1
ดัง@@ 1
อันดับ 1
สต@@ 1
บว@@ 1
ฟุตบอล 1
ดี@@ 1
โย@@ 1
ทัพ 1
สัม@@ 1
ษฎ@@ 1
อากาศ 1
แต่@@ 1
มหาวิทยาลัย 1
แก่ 1
แล@@ 1
เนื่องจาก 1
ิร์@@ 1
วี 1
เอ็@@ 1
เสีย@@ 1
ส่ง 1
่าย@@ 1
เพราะ 1
สร@@ 1
อะ 1
วิ 1
ษา@@ 1
่อง 1
อล@@ 1
เล 1
ศา@@ 1
พัฒนา 1
เพียง 1
นาง 1
บร@@ 1
จากนั้น 1
ลักษณะ 1
กำลัง 1
ปร@@ 1
บท@@ 1
กรา@@ 1
เต 1
นับ@@ 1
บาง@@ 1
8 1
นคร 1
บาท 1
ศาส@@ 1
ปรา@@ 1
เซ 1
ือน 1
อนุ@@ 1
ศัก@@ 1
ิ่ม@@ 1
โม@@ 1
ชุด 1
เลือก 1
หลัก 1
ธี 1
บู@@ 1
บริษัท 1
ลูก@@ 1
บาง 1
เซีย 1
เผ@@ 1
ถ 1
สถ@@ 1
รางวัล 1
ไป@@ 1
อีก@@ 1
บริเวณ 1
แลนด์ 1
ฏ 1
แทน 1
นำ@@ 1
พล 1
ันท@@ 1
่อย 1
เท 1
สถาน@@ 1
สาย 1
เท่า@@ 1
แม่@@ 1
ครั้งแรก 1
-@@ 1
องค์@@ 1
อัน 1
โน@@ 1
10 1
โน 1
ศิลป@@ 1
นิ 1
ทหาร 1
ยิ@@ 1
ช่ว@@ 1
เม 1
เดียว 1
กระท@@ 1
สะ@@ 1
ซิ 1
ใช้@@ 1
ตี 1
เตอร์ 1
กัน@@ 1
โบ@@ 1
เด็@@ 1
ภู@@ 1
ประวัติ 1
ตาม@@ 1
สัตว@@ 1
ยาม 1
ตั้ง@@ 1
ได้@@ 1
ผลิต 1
ชิ 1
แร@@ 1
ฝ่าย 1
ืน 1
หลังจาก 1
บิน 1
ปริ@@ 1
ฯ 1
& 1
โต@@ 1
ูก 1
แค@@ 1
สาม 1
ี่@@ 1
ทาน 1
ไฟ 1
ประกอบ 1
แป@@ 1
ระ 1
งาน@@ 1
หน้าที่ 1
็ก@@ 1
ธรรม@@ 1
พร้อ@@ 1
ตั้งอยู่ 1
น้อย 1
กลับ 1
S@@ 0.15129475892010388
พุทธ@@ 1
รัก 1
เลือกตั้ง 1
โทร@@ 1
รัฐบาล 1
กว@@ 1
เกล@@ 1
หัว@@ 1
เกม 1
เรือ 1
ตะวัน@@ 1
โค 1
ดู 1
ภูมิ@@ 1
ปราก@@ 1
ออ@@ 1
เล็ก 1
สิง@@ 1
/ 0.5573960392129051
คิด 1
อดีต 1
ที@@ 1
สงคราม 1
นาน 1
เดียวกัน 1
รายการ 1
เปิด 1
ษ 1
ปี@@ 1
โรง@@ 1
สิทธิ@@ 1
อาณาจักร 1
โจ@@ 1
รณ@@ 1
9 1
จำ 1
สม 1
ยู@@ 1
ย์@@ 1
ละคร 1
เหตุ@@ 1
มว@@ 1
ยาว 1
กาย 1
่าน 1
เหม@@ 1
มือ 1
วัง 1
สง@@ 1
อายุ 1
ดับ 1
ชั้น 1
ษฐ@@ 1
หลัง@@ 1
เดิน@@ 1
สมาชิก 1
รุ่น 1
กรุ@@ 1
อัลบั้ม 1
โซ@@ 1
ครั้ง@@ 1
คริสต@@ 1
เก 1
ื่อง 1
มูล 1
ไม้ 1
เกาะ 1
ช่วย 1
ราว 1
เปลี่ยน 1
ขา 1
หลัก@@ 1
คาร 1
วะ 1
่าง@@ 1
ดำเนิ@@ 1
แบ่ง 1
ดิน@@ 1
วิท@@ 1
โครง@@ 1
อาหาร 1
ญญา 1
ยู 1
ระย@@ 1
ภายใน 1
รรษ 1
ปก@@ 1
บท 1
ยุค 1
ตำ@@ 1
เที@@ 1
ตน 1
ธา@@ 1
ฐาน@@ 1
องค์ 1
ราย 1
จริง 1
หัว 1
ทำงาน 1
ประกาศ 1
ฝรั่งเศส 1
สโมสร 1
แต่ง@@ 1
้าง@@ 1
เกี่ยวกับ 1
มาก@@ 1
อเมริกา 1
โก@@ 1
20 1
ตล@@ 1
ทอง 1
ทร 1
” 1
ดู@@ 1
ซี@@ 1
แชมป@@ 1
ขนา@@ 1
ปลา 1
ทัศน์ 1
ถุ@@ 1
ไห@@ 1
มน@@ 1
ร้อน 1
็ก 1
ัย@@ 1
เร็@@ 1
เป็นการ 1
นี 1
กรุง@@ 1
ทุก@@ 1
อี 1
ไฟ@@ 1
เนื้อ@@ 1
ตู 1
สาธา@@ 1
วัฒ@@ 1
จิ 1
คณะ 1
ขนาด@@ 1
่อง@@ 1
โอลิมปิก 1
่วย 1
สภา 1
ภาษา@@ 1
คง 1
ผลงาน 1
รู้ 1
บา 1
ฮา 1
พรรค 1
ญญา@@ 1
็น 1
เทศ@@ 1
เช่น@@ 1
ูล 1
รัฐมนตรี 1
ีน 1
พรร@@ 1
โด 1
็บ 1
เศ@@ 1
ต้น@@ 1
เภ@@ 1
การเมือง 1
หลา@@ 1
สิน@@ 1
ั้น@@ 1
พันธุ์ 1
ถน@@ 1
ิ่น 1
“ 0.5479810459058785
กำหน@@ 1
บุรี 1
เกิด@@ 1
ดำ@@ 1
เคล@@ 1
ใกล@@ 1
ทั่วไป 1
รูปแบบ 1
บุค@@ 1
ตะวันต@@ 1
ัด@@ 1
น้@@ 1
นอ 1
ดังกล่าว 1
เงิน 1
แดน 1
โค@@ 1
ร้อง 1
นการ 1
เต็@@ 1
นาคม 1
ชัน 1
รัช@@ 1
เค 1
ียว 1
ล้าน 1
หนังส@@ 1
บาล 1
เศษ 1
วน 1
วิทยา@@ 1
เฉพาะ 1
P@@ 0.1738856812685177
แห่งชาติ 1
กรรมการ 1
of 0.03449852420298428
แอ@@ 1
ี้ย@@ 1
ประกอบ@@ 1
สกุล 1
สุดท้าย 1
12 1
รักษา 1
ระบ@@ 1
ลีก 1
อำนา@@ 1
้าน 1
มากกว่า 1
บัติ 1
ศูน@@ 1
โป@@ 1
ตริ@@ 1
กล่าว@@ 1
15 1
แข่งขัน 1
เอก 1
โรค 1
ถือ@@ 1
บี 1
ยาย 1
แรง 1
วาง 1
ตรา 1
แดง 1
มนุษ@@ 1
ครั@@ 1
เยอร@@ 1
จนถึง 1
C@@ 0.17074214116990014
ร็@@ 1
จัก 1
T@@ 0.1791859575701144
นอกจากนี้ 1
วี@@ 1
การปกครอง 1
ห 1
ค้า 1
พิมพ์ 1
ไล@@ 1
ดง@@ 1
M@@ 0.17455958103490865
แปลง 1
๋@@ 1
กษั@@ 1
ศัย 1
สำเร็จ 1
ส่ง@@ 1
ียม 1
ญา@@ 1
สอน 1
วุ@@ 1
กล 1
ทา@@ 1
้อน 1
ั้น 1
บดี 1
จักรพรร@@ 1
เหตุ 1
ท่าน 1
ซา@@ 1
30 1
ชาว@@ 1
หน้า@@ 1
ทธิ@@ 1
าน@@ 1
D@@ 0.14999145182282825
ั้@@ 1
เปลี่ย@@ 1
อล 1
16 1
ื้อ@@ 1
ภาพ@@ 1
้ว 1
คร 1
L@@ 0.1366106825642768
่อน 1
จน@@ 1
A@@ 0.18825449867490993
่ม 1
จั@@ 1
G@@ 0.16108926323071027
11 1
ณะ 1
ม่ 1
สงค@@ 1
R@@ 0.14716932048066803
E@@ 0.19172569384410573
ิก 1
' 1
ขึ@@ 1
18 1
19 1
B@@ 0.13734170651406988
ฏ@@ 1
ลักษ@@ 1
ศึ@@ 1
14 1
ประวั@@ 1
N@@ 0.16414910710370934
H@@ 0.15002389634764718
ิ่ม 1
พุ@@ 1
ื่น 1
50 1
ผู@@ 1
มาร@@ 1
สมา@@ 1
หั@@ 1
ตะ@@ 1
s 0.0891635172870467
ตว@@ 1
ด้ว@@ 1
ยุ 1
บัน 1
เกา@@ 1
เง@@ 1
นอก@@ 1
13 1
F@@ 0.13856701582823902
O@@ 0.2269537379417578
25 1
2@@ 0.6887430970020944
สมเด็@@ 1
17 1
อัน@@ 1
่ม@@ 1
y 0.05141336317952462
ครอง 1
The 0.07645876004404295
มพ@@ 1
ตุ 1
24 1
ือง 1
I@@ 0.22183900709482132
้อย 1
21 1
จำนว@@ 1
ไท@@ 1
อเมริ@@ 1
3@@ 0.48272596420733893
ื่อง@@ 1
นิด 1
ี้@@ 1
​ 1
ิล@@ 1
W@@ 0.14425991697391938
A 0.2797219085627912
ทั่ว@@ 1
60 1
0 1
พันธ@@ 1
จาก@@ 1
ฐ@@ 1
22 1
สมาชิ@@ 1
ึ 1
พั@@ 1
ปกครอง 1
the 0.011413715936679338
23 1
อี@@ 1
% 0.2967826221385926
ญญ@@ 1
บอล 1
ึง 1
จัก@@ 1
ุ่ม 1
gt 0.7767358396184757
lt 1
ยนต@@ 1
วิทยาล@@ 1
ไว@@ 1
4@@ 0.48593003500946286
ึ่ง 1
เกี่ยว@@ 1
ราม 1
40 1
al 0.06519655504444337
มป@@ 1
ีก 1
มหาวิทยาล@@ 1
in 0.017445354948153434
แห@@ 1
26 1
28 1
us 0.16439037769115505
y@@ 0.13905778498826082
K@@ 0.1198333936613667
ยม 1
27 1
กี@@ 1
ฬ@@ 1
on 0.047451217966732406
รู@@ 1
29 1
ใช@@ 1
10@@ 0.6943672187767521
ังก@@ 1
ing 0.04378375537905913
000 0.9737895015618065
หว@@ 1
กุล 1
5@@ 0.47693754545387534
[ 1
V@@ 0.14400143095428256
a 0.018626875438763197
an 0.04494555731471872
จักร 1
16@@ 0.44824574350165636
31 1
15@@ 0.5222612799377492
17@@ 0.35017045794727003
กล่าว 1
ื้@@ 1
] 1
ษา 1
ฌ@@ 1
ฐ 1
and 0.01702538441060847
กษา 1
6@@ 0.5070934038133594
54 1
ูก@@ 1
1,@@ 1
er 0.03769361462160134
ประก@@ 1
23@@ 1
รูป@@ 1
= 0.9477341146549033
i 0.14682339169136097
นด์ 1
55 1
T 0.6321323746826198
7@@ 0.5303665948538253
ิม 1
d 0.08949253965674898
p@@ 0.07100648661318724
เทศ 1
เปล@@ 1
c 0.14495732058446167
อัล@@ 1
ราง@@ 1
ฒ@@ 1
เธ@@ 1
57 1
53 1
100 0.8836593950024014
e 0.07612581192153793
t 0.051407425615988205
C 0.4420093735011246
อาณา@@ 1
โคร@@ 1
ฎ 1
x 0.2551733605390855
49 1
51 1
00 1
s@@ 0.04405541854245248
ฎ@@ 1
ation 0.06454696403242398
กาศ 1
13@@ 0.6322492624571143
14@@ 0.6140950933591878
กรรม@@ 1
9@@ 0.5171597213668859
on@@ 0.09401696341027005
J@@ 0.13175453145129506
E 0.6020355691545665
48 1
o@@ 0.0963477718798635
องค@@ 1
แด@@ 1
35 1
e@@ 0.07447374431059814
59 1
61 1
]@@ 1
คริ@@ 1
62 1
1@@ 0.4758222622436063
0,000 1
52 1
ภา 1
56 1
18@@ 0.31007706887165043
เฉพา@@ 1
[@@ 1
58 1
in@@ 0.059095977287224516
8@@ 0.5078276912309707
สำเร็@@ 1
S 0.49313312196691667
ณา@@ 1
c@@ 0.06264761521835654
P 0.4702903144994896
12@@ 0.5971529136320152
B 0.4863994813626636
เหน@@ 1
D 0.4526999213078154
n 0.11216669839244231
ฺ@@ 1
2016 0.5104825278368297
45 1
จักร@@ 1
63 1
1.@@ 0.923166168098774
2012 0.4745432045575481
_ 0.5130790468931888
U@@ 0.17453222135438304
2014 0.47739001204771864
แช@@ 1
64 1
2010 0.37547652708096196
2018 0.5023679957453109
สุด@@ 1
r@@ 0.05345798317776358
n@@ 0.05408065478257682
47 1
2020 0.5591436042450982
t@@ 0.05079262799731509
I 0.24555276755969496
is 0.029520933429912088
M 0.48002049512074835
อำ@@ 1
o 0.06027996728512489
เดียว@@ 1
an@@ 0.07210638741600961
หมด 1
th@@ 0.0876711353398276
l 0.09380921017685392
F 0.5048416114882489
N 0.6140728562455722
80 1
39 1
32 1
20@@ 0.6933442510936929
ระหว@@ 1
es 0.023819074278924036
จริ@@ 1
i@@ 0.07918572927495722
2015 0.42596470646905144
42 1
ศาสต@@ 1
p 0.16730352985563643
44 1
O 0.46649976756318984
อร@@ 1
Ch@@ 0.12788731079903162
2017 0.4499517516628096
or@@ 0.06758301326887815
R 0.4402460553333185
! 0.6643727512049282
k 0.09612009845153402
g@@ 0.05005282760773243
en@@ 0.04565844368983398
al@@ 0.05714473741465503
d@@ 0.05065798956334985
h 0.13654884026164554
46 1
ฺ 1
2008 0.40149446358487173
Y@@ 0.19984563597794053
38 1
36 1
/@@ 1
43 1
ed 0.01778061785281523
2013 0.39669055312511375
มาณ 1
ar@@ 0.055164724175579785
ia 0.12054621266919739
2.@@ 0.8675654273873361
formula 0.5058270873840803
m@@ 0.052175616106242786
h@@ 0.051343409762212446
as@@ 0.07661137786373706
L 0.3343288085251331
ph@@ 0.12665885545174557
f@@ 0.043299300941824936
ทั้@@ 1
or 0.05119667546824586
พัฒ@@ 1
ุ่น 1
os@@ 0.13183054873852795
@@ 0.10325614291635536
34 1
33 1
กำล@@ 1
ar 0.06366772053154414
0@@ 0.5727611930044535
2019 0.4277832407059734
37 1
,@@ 0.8509871717902402
2011 0.3399701937352773
2,@@ 0.8759281641255033
ic@@ 0.09561516608775467
er@@ 0.042566992458893
ฑ@@ 1
ac@@ 0.058826859889430934
um 0.10590556685341947
de 0.006528219847124025
ch@@ 0.04790075343957696
ur@@ 0.07459472042360975
90 0.9522446476599518
m 0.09907090358586991
u 0.1229810900096186
ot@@ 0.10022704026191866
เนื่อง@@ 1
ราะ 1
a@@ 0.09435046310773461
w@@ 0.049061947439728235
70 0.8926711545715058
๋ 1
k@@ 0.05039993763007627
2009 0.3448456271710063
H 0.7276716791499691
ท้าย 1
en 0.011703247360083616
41 1
ปัจ@@ 1
el@@ 0.06227375762783646
ผลิ@@ 1
,000 1
ใต@@ 1
หญ@@ 1
am@@ 0.07564013489918031
พัน@@ 1
2007 0.35683948984099495
le@@ 0.06124238780129406
ำเ@@ 1
ศ. 1
b@@ 0.04508642934061808
br 1
2006 0.36003308448863114
at@@ 0.06252930782849261
ol@@ 0.08097560074311164
Th@@ 0.14927500694531576
ine 0.09303289899125769
65 1
;@@ 1
om@@ 0.10478965978671695
to 0.011895631828895421
v@@ 0.048447833184516946
200 0.8487057242786497
ic 0.14259234061306422
ag@@ 0.0726407628209381
X@@ 0.31442512905558945
ฆ 1
l@@ 0.042117102829022576
g 0.10097273450142505
ได@@ 1
G 0.48961096527604697
ul@@ 0.07068181238789854
500 0.883465423988594
In@@ 0.12072496601252075
w 0.11655805222614407
75 1
tr@@ 0.04700868262096775
idae 0.5940092241382341
Z@@ 0.09585442914139854
ภ 1
ad@@ 0.05001028062986764
๒@@ 1
0.@@ 0.7219700984371152
... 0.6729444472873736
V 0.43725237210052353
ี่ยว@@ 1
oc@@ 0.1085235860948116
เลื@@ 1
เดีย@@ 1
at 0.02812663919820836
ate 0.07189091043162539
it@@ 0.053018371953735335
หรับ 1
+ 0.7647369341632125
x@@ 0.11153012561059208
3,@@ 0.854181293277135
r 0.1839708022879919
et 0.020113504393267277
li@@ 0.061954731847420695
et@@ 0.07189278221692884
le 0.02079748193927154
2000 0.33186815460664504
el 0.0176797200081697
ap@@ 0.07239973163380897
2004 0.3580526140720948
X 0.610416027231854
ฟุ@@ 1
3.@@ 0.7617645863905224
มนตรี 1
พันธุ@@ 1
2021 0.3996884847448685
2005 0.33421111220412314
มนุ@@ 1
b 0.1703352518196161
em@@ 0.0656214816687442
u@@ 0.05995040577765112
ro@@ 0.07198019332549711
id@@ 0.07804029691823089
st@@ 0.032417899683762415
ฯ@@ 1
ti@@ 0.05398976647411522
lo@@ 0.07873445635016818
amp 0.20360484113189972
ศ์ 1
ve 0.05068305080885492
un@@ 0.043175632239597965
am 0.07073722268151901
Con@@ 0.11412116222046118
ศิล@@ 1
| 1
im@@ 0.04533689318523735
re@@ 0.020180291152812908
An@@ 0.08575256218598487
W 0.5817928107272747
j@@ 0.05418369099078012
5,@@ 0.961753700758917
co@@ 0.07082740001598395
!@@ 1
K 0.466706286842754
ter 0.05204775149935657
99 1
is@@ 0.04804332320121059
19@@ 0.4773487388045405
St@@ 0.08791450087619943
aceae 1
สร 1
es@@ 0.052482880275528776
one 0.05735712157714522
ส่ว@@ 1
Sh@@ 0.16920640556017003
op@@ 0.07660318277561794
1990 0.4067820707132007
f 0.09414420895689367
WWE 1
tion 0.048980431049372455
หมา@@ 1
av@@ 0.06572019368899129
é 0.03810916667254901
z@@ 0.0380658236061682
00@@ 0.9994778480104822
Re@@ 0.09052046448400641
po@@ 0.06515193215097517
ay 0.11024799689136072
us@@ 0.05346649097527643
บล 1
ent 0.03312719243300793
ดง 1
ep@@ 0.11159044562415414
2002 0.3183870175942845
ชีวิ@@ 1
Com@@ 0.11099459878941087
2003 0.32100743125004977
95 1
01 1
ณะ@@ 1
300 0.9198279780173969
4,@@ 0.8476700193942986
ฬ 1
z 0.06828944715692917
U 0.29013867426977846
1980 0.46184880679936335
Al@@ 0.06390083708553361
ทัศ@@ 1
ab@@ 0.0410231765906413
ec@@ 0.0577200744254258
od@@ 0.1244076224400553
:@@ 1
๑@@ 1
Tr@@ 0.09127747012168191
il@@ 0.052011960563883276
ir@@ 0.07415650522035566
di@@ 0.03616892580975837
85 0.9011629214325048
ch 0.08397076833317241
05 1
Co@@ 0.11759716803325101
as 0.011903405271661241
for 0.018239593602812586
88 1
98 1
Mar@@ 0.0709762709701176
section 0.6753961678895171
Bo@@ 0.13140979592781502
ity 0.08598184125713401
ak@@ 0.06506116137907465
๕@@ 1
4.@@ 0.7302561651456605
89 1
72 0.958159961224782
ang@@ 0.06843039322243771
จัง@@ 1
2001 0.2806189656794208
ut@@ 0.07019616142215945
World 0.1962984283764924
He@@ 0.16389387601947442
Br@@ 0.08825262477809663
ฉ 1
th 0.05586563275610604
84 1
it 0.025141811004122282
ary 0.07727668621128099
ig@@ 0.04857861234069321
76 0.9673637844468487
ers 0.02973901895300457
ory 0.13685965929551624
ั้ม 1
Ar@@ 0.07137459283593049
03 1
ed@@ 0.0570104006488072
77 0.98186891986035
04 1
08 1
Mo@@ 0.14682919351171397
่งข@@ 1
“@@ 1
ai 0.2034090975942704
ter@@ 0.048668134170798905
um@@ 0.05387286405024301
๑ 1
per@@ 0.04978941368246716
to@@ 0.06698021534307096
ent@@ 0.032817482650294924
Sp@@ 0.13746573331792902
93 1
92 1
68 0.9395180286953303
94 1
ight 0.11675442271594068
09 1
02 1
78 0.9285761151059733
91 1
96 1
Pr@@ 0.12163299531947278
age 0.039412248183983103
07 1
66 0.8955865689905824
81 0.9841845699992942
qu@@ 0.03886724579100961
06 1
1992 0.3522802333697618
de@@ 0.045777793163380126
ne@@ 0.06909295744851983
82 0.9675538763595879
1996 0.3389803884805692
เมริ@@ 1
ad 0.06606465516229114
97 1
si@@ 0.043721031232878
1998 0.308509903751117
5.@@ 0.6523700830177322
bi@@ 0.07004654751646203
ูน@@ 1
67 0.9190006634485162
83 0.9449149992493789
Ex@@ 0.15436000739230135
te@@ 0.06301920391217065
1999 0.2741496460664428
J 0.6237683372999193
7.@@ 0.7775560826534207
วัล 1
30@@ 0.488844724962621
ri@@ 0.06159144344733263
1970 0.4025435370690921
’ 0.04075445553929282
° 0.4167851818131862
og@@ 0.10273318430096737
​@@ 1
มปิก 1
69 0.949184723199886
ฬา 1
6,@@ 0.8055875622967148
86 0.848537304622462
v 0.16244606358688113
79 0.9681164025002307
1997 0.31441804456701045
73 0.9381705937920239
6.@@ 0.7212091920854546
id 0.14298282414500732
ร่ว@@ 1
end 0.08873020538434138
1960 0.4295176117134243
87 0.8904285256146798
71 0.8803107419394934
400 0.7330286547214483
ati@@ 0.07630487778248919
ess 0.09096613959852073
ance 0.06372848583270156
— 0.03103427241136266
74 0.854166334099702
od 0.11036595826664891
๊ 1
8.@@ 0.7750528469995537
Ro@@ 0.12170019285563179
os 0.02496113496426484
ีต 1
ov@@ 0.10808020161599657
๒ 1
De@@ 0.09782722650646596
ฒ 1
sh@@ 0.057639018469558136
1991 0.30296642524242884
hi@@ 0.07847574023848307
1994 0.2976508297369992
26@@ 0.46490261064594235
TV 0.30093285608110576
ence 0.052724062386487275
๐ 1
ang 0.12549521320045298
ell 0.11763835794255068
ver@@ 0.024332262202089262
Se@@ 0.09924911241647796
tri@@ 0.07004026459187139
ob@@ 0.06848950177489298
la 0.004892212801968717
Y 0.6164029482401381
7,@@ 0.7069292881470749
se 0.015784791616929358
tor 0.10240900785665306
ous 0.07014407623902626
2022 0.5994779872299403
cor@@ 0.08056413441695716
ly@@ 0.2183240965013867
University 0.11575576259186982
1993 0.3004223258010492
Car@@ 0.08825495599676142
9.@@ 0.7858568831084808
ๆ@@ 1
ie 0.03338860134999951
ard 0.06525301233731448
=@@ 1
Ac@@ 0.15447552253686955
1995 0.2787724422873919
ce 0.04134860682455429
ath@@ 0.09177557590451868
hy@@ 0.2562239358331849
ty 0.0877846800463741
ure 0.07312716411938157
Ph@@ 0.151676203538598
Love 0.735779717864576
ach@@ 0.045201489741844104
Di@@ 0.08572203143195907
ace 0.11889555139128889
ana 0.07646161371973799
ant 0.02968139969327911
da 0.06421443943269017
Par@@ 0.07767368304673164
แห่ง@@ 1
Ad@@ 0.09556772703651265
8,@@ 0.7570992093540245
eg@@ 0.042795183452043355
and@@ 0.05475966480610856
ist 0.02344001451528736
yl@@ 0.21967016143102466
1988 0.32303232244842145
pl@@ 0.03662926240420798
ควา@@ 1
International 0.24634818728216953
ical 0.09108739811693786
par@@ 0.03472896862774446
der 0.006388571094325256
บริษั@@ 1
Ne@@ 0.11725606457311906
1989 0.2983489129733506
ev@@ 0.04895648745605553
ok@@ 0.08876708379593909
150 0.8304705170312165
En@@ 0.11231362938396715
ni@@ 0.06159419050430763
II 0.1326012583766312
Or@@ 0.0881060419978015
1945 0.28527409160495676
dis@@ 0.03617874962940387
iz@@ 0.06752257195018155
๓ 1
se@@ 0.03188885547067264
Mon@@ 0.09570858631962834
ae 0.2965131638385378
'@@ 1
do@@ 0.06512204798577718
ice 0.07278865729383364
ol 0.13452962775342658
%@@ 1
az@@ 0.08383908902714698
man 0.061042296520214145
gen@@ 0.05093747221865555
เป็@@ 1
Le@@ 0.06853257638182457
ใหญ@@ 1
all 0.043880866349036374
600 0.874840026121464
ํ@@ 1
est 0.012866365137394174
ay@@ 0.07045907903976371
Ser@@ 0.1198391853350167
te 0.015295625874548023
son 0.025652825575090212
ly 0.027613657240802943
You 0.5281365227359206
ong 0.13682222679030145
๔@@ 1
AS@@ 0.4222327902820524
IS@@ 0.5299843516529019
New 0.06919137143130971
ect 0.09449288632517205
ment 0.060690540305229405
AR@@ 0.5365044217819577
are 0.02323805689368287
au@@ 0.034504280606873355
Q@@ 0.23336653181261746
tic 0.14868065712209505
ให@@ 1
br@@ 0.033995790588900295
ite 0.04434430739856908
800 0.8773650339595762
Be@@ 0.05905995409563467
1984 0.3173504106780024
ea 0.16017147468811904
28@@ 0.40183659009197525
ho@@ 0.04289880566176576
end@@ 0.046699866693713385
1950 0.33728928455803237
no@@ 0.07914423530534345
ok 0.2027756850925262
ase 0.1192589421783951
ฝรั@@ 1
ail@@ 0.1128323168018534
For@@ 0.09372468301530902
su@@ 0.03955365793803187
185@@ 0.18771007918737284
our 0.09194063874761849
all@@ 0.05418345336835587
ism 0.20909163969980413
Po@@ 0.12527374835969254
á 0.16626935603541343
bo@@ 0.05758195406305619
Man@@ 0.09268046139023885
ong@@ 0.09898078986801133
ge 0.041974426162914004
ome 0.13620718628190537
27@@ 0.397894739231931
ata 0.16483776137904232
mo@@ 0.04908220975379681
ou@@ 0.055931228902249226
9,@@ 0.7173273483843352
ue 0.04982679762229743
Best 0.4783970921431304
un 0.011607755330176536
๔ 1
ex@@ 0.025843782446002828
ass@@ 0.04137964176877396
oph@@ 0.18089494401041445
1986 0.2896431465438674
๕ 1
me@@ 0.041544650448999354
29@@ 0.4133725087832672
Cr@@ 0.14783283295686803
Gr@@ 0.07019223977827904
ci@@ 0.04290119089012119
Pl@@ 0.11073067024957474
pi@@ 0.054031990245343824
”@@ 1
Music 0.3096288751789582
af@@ 0.04142123622597879
1940 0.3524506208793779
AT@@ 0.48619782329806566
? 0.3112797957054325
ari@@ 0.08332501984275899
eb@@ 0.043768445783485474
ik@@ 0.07115915764461457
Gu@@ 0.0905177370295904
we@@ 0.04177757310752056
Col@@ 0.09542716574893804
ion 0.07057332144192385
car@@ 0.05331510707123485
beg@@ 0.13336813503212383
ปัจจุ@@ 1
und@@ 0.05428219826537275
ain 0.07486732823247559
est@@ 0.033406484800895114
School 0.13256056739004718
Un@@ 0.10328535693935247
re 0.03293877094883968
yr@@ 0.15374136113765063
Per@@ 0.0954042450981034
gr@@ 0.03145129102351703
1987 0.2698384477792492
Cl@@ 0.16694720622550308
sp@@ 0.0413372876211377
ell@@ 0.052740577465742976
uc@@ 0.07930285596641129
Z 0.5128563103825989
ina 0.06322163031643312
0,@@ 0.2607969721283907
Ma@@ 0.0984266897601225
180@@ 0.25957895840530465
na 0.08238096507422607
pr@@ 0.032589841401216506
dr@@ 0.06794703467656973
179@@ 0.2932664469652709
by 0.009886471469674933
120 0.9197044793423185
enti@@ 0.058614849278113446
1985 0.26808872971577263
ot 0.1203932407912212
ys@@ 0.12508147307877676
BC 0.3356916264671176
ast 0.08210842557898759
j 0.3035024926380842
ale 0.033030316070004076
il 0.021849573791782952
ing@@ 0.0523680097237261
700 0.9750733414571762
1972 0.28099410246003725
As@@ 0.09780012201973694
Gir@@ 0.4058321535677449
ta 0.0512044463578217
ill@@ 0.058969719385959185
rec@@ 0.049948970003315454
aw@@ 0.0715031745935185
no 0.043574551924983745
ology 0.1373749991776986
Go@@ 0.16754546449489754
ah@@ 0.055676392910957315
ya 0.06776617959967128
ame 0.14443900365476614
und 0.006360348657326616
๐@@ 1
str@@ 0.04615690989303129
dae 0.9502736589425447
Cor@@ 0.08828501491075526
st 0.04327921609797691
ma 0.0860809522988344
ff@@ 0.05315115426933477
ber@@ 0.04577890784324822
com 1
gi@@ 0.04922953575096259
ฑ 1
Pol@@ 0.08073576165140146
art 0.07173568188095097
ma@@ 0.04633890017621492
Me@@ 0.09404436156613405
inal 0.19718748567244468
lin@@ 0.05941129458890261
.ศ. 1
National 0.09630229196180491
mon@@ 0.03907898078861294
ular 0.11211850481973094
ons 0.03211109756431142
den 0.010847365330766308
1983 0.2597225506658377
NA 0.8002997325857687
Pe@@ 0.12003978213079947
๓@@ 1
ton 0.05617652932697523
Mas@@ 0.1604709319170091
ran@@ 0.05719637858114035
Pro@@ 0.1070024461008269
184@@ 0.19165535102896708
rest@@ 0.17041301484465296
ts 0.021335665843261475
sc@@ 0.08684467081010323
he@@ 0.03947760287897606
vi@@ 0.02597625003897972
ES@@ 0.4625920232658693
ated 0.020734838198124904
.. 0.788535520440667
anc@@ 0.06027582774634628
In 0.013222988908387736
Str@@ 0.09802120463952198
1930 0.3188007438375236
My 0.5633250511410933
1979 0.25394796634138606
con@@ 0.02049861991473486
om 0.1183205373771761
1968 0.26307358974162387
ative 0.07183807791980193
ist@@ 0.04729524273275183
ver 0.061207233050328
1920 0.31122591253542087
CO@@ 0.48360102217180223
res@@ 0.02847480023499859
so@@ 0.0373875030034358
1982 0.2458110103889517
# 0.3603979262374861
1981 0.24815036645665114
Wh@@ 0.15035804142590675
Award 0.2605957732166926
Her@@ 0.0704713307712437
ra@@ 0.04268769981562669
Am@@ 0.068988478290032
ack@@ 0.08476872815779436
1976 0.2561788928294258
ib@@ 0.07431966252786547
ฤ 1
pe@@ 0.05891491705540759
* 0.12507870894183157
1964 0.28586624333128985
ics 0.08951678825097492
sion 0.0655201829044682
Char@@ 0.1349014673496418
Qu@@ 0.06392814292013364
1941 0.2655565799391971
ah 0.13185759055341947
1975 0.23908039036206874
Si@@ 0.11629284911042895
ฟุต@@ 1
John 0.08363548344638999
tic@@ 0.0819842802262129
Mag@@ 0.14642514896372177
ey 0.09725234633936211
la@@ 0.049902475905665794
ra 0.05982038174902725
yc@@ 0.19713972004527558
IN@@ 0.4799882611888975
able 0.031720120575245286
ak 0.08167567412736791
๖ 1
1939 0.27376033608806655
CA@@ 0.24231389182459184
Li@@ 0.08380127524393055
ile 0.04766753435969937
port 0.06408364418436503
1944 0.23783069434376128
ish 0.048793187452135636
mar@@ 0.03297740300301215
ore 0.07906304689195134
So@@ 0.09234792633219263
1978 0.241379108198588
Fre@@ 0.08090955080656935
be 0.019287862955672187
Q 0.5681178751080007
รรม@@ 1
Fo@@ 0.13350343858667227
der@@ 0.03389475948054551
๙ 1
inc@@ 0.04866317717892303
Lo@@ 0.11633866982016958
ō 0.4398755678902036
250 0.6924190631261279
aci@@ 0.08055243514449077
Awards 0.3244673321968505
− 0.7032789851601792
1974 0.23754081985608788
Res@@ 0.1260335513215406
Championship 0.2595147257327651
with 0.008188094789590199
Hy@@ 0.2714560061121891
tu@@ 0.06672964279383095
eng@@ 0.04347254040748523
ack 0.08448916094018014
yp@@ 0.12057644502592743
com@@ 0.025470821882371868
amb@@ 0.06635717445404382
ick 0.0758590720771229
ā 1
‘ 0.3774360703928193
III 0.16313691765479132
lu@@ 0.06415602616733496
ans 0.03067165234899069
?@@ 1
Dr@@ 0.1437189169750986
El@@ 0.0706984046696701
CD 0.3692359582671072
the@@ 0.06335116217752716
cer@@ 0.06357359645102871
ensis 0.38912435624263886
min@@ 0.035733560895453535
Min@@ 0.08435415606552353
ling 0.15034333941231945
ens@@ 0.038794568644718565
ng 0.41914180793752553
Hol@@ 0.09697150220176393
Bar@@ 0.06761186300337638
if@@ 0.054783762094512786
ann@@ 0.04592350763454917
include 0.12749146256672325
• 0.9647004660791357
yn@@ 0.1445284219206947
ant@@ 0.04625586514244277
Te@@ 0.11123449953345364
× 0.600479128716092
Sci@@ 0.21220771185532916
๗ 1
man@@ 0.031400965823286796
Me 0.4978884011274375
ars 0.0895527493043966
10.@@ 0.7583678731802475
Ab@@ 0.04758671330145646
Ste@@ 0.09586551343234669
ich@@ 0.04474998189598264
1969 0.23392991559070478
ฌ 1
1948 0.2639959416443153
Sch@@ 0.023385820207953843
be@@ 0.018295794838326707
ass 0.12019577513938992
1967 0.23581752499409198
ost 0.07819715292666812
ting 0.04105437908139011
We@@ 0.08378830806795985
1977 0.22686678917054054
ica 0.04422627101722557
1971 0.21661990265042697
1956 0.2653860030160243
ne 0.022735215635977187
ner 0.03959576591884498
ek@@ 0.03875538484031827
land 0.034674482684138405
ung 0.015628308316753128
bl@@ 0.04046344284182859
pol@@ 0.08361189163975041
ๅ@@ 1
Man 0.3197676889611504
AC@@ 0.41811844965694356
ps 0.06848765657524541
1942 0.2386303097322566
King 0.18526209681784717
ital 0.10571807600760459
1973 0.2119981006132481
101 1
igh@@ 0.07632159210929841
๘ 1
180 1
unc@@ 0.09143092629130026
ess@@ 0.04453558836669446
ire 0.04599659329747123
AN@@ 0.579811039375741
ese 0.05756175519483886
ations 0.021588587467113857
cr@@ 0.039151542155660635
Fr@@ 0.0721393299021668
htt@@ 1
ade 0.05598526052935916
ü 0.3498231009303365
mi@@ 0.04681404423020069
It 0.024804337539254182
les 0.008053259926843324
1918 0.2673664004726684
To@@ 0.0974088558101718
Ver@@ 0.023129034274378766
Entertainment 0.5907363249217313
ard@@ 0.054518598125719055
ler 0.0454825995306193
ํ 1
1936 0.26948599443283267
ka 0.08140367589192254
Su@@ 0.08595336150333148
tro@@ 0.06243322547507701
tive 0.12343397539022007
Tri@@ 0.1307221216873248
Ho@@ 0.11175670673039238
ies 0.051670499308839234
Har@@ 0.08430646596877957
IC@@ 0.4542048047018688
hi 0.18263063005706331
ley 0.05682508050371583
ali@@ 0.04799937430619636
cu@@ 0.03714094489583755
ou 0.03827175109158556
1962 0.23282729336296998
ens 0.032913287365569054
Ang@@ 0.08386807608469776
ings 0.045307954658527286
me 0.035453564145482876
ble 0.08617487616233176
ks 0.03541772989080838
ox@@ 0.26424848092494196
AC 0.3985310948708664
Sing@@ 0.1697889261398214
$ 0.08407564596842931
act 0.08474100965666653
Team 0.2573701150811274
ake 0.1529881210723753
ish@@ 0.07163345533585082
RA@@ 0.34218868340235
SE@@ 0.41985838460667035
ise 0.037722941872453536
ain@@ 0.06255785707708447
ator 0.1078655950308446
ement 0.02029942654997909
mp@@ 0.14007938497423597
900 0.9498539439088587
Inter@@ 0.09602366951522552
fer@@ 0.03967498846145179
sub@@ 0.04147391942073277
1943 0.21366623063500625
1963 0.2266722619201867
em 0.06668375720784811
ษั@@ 1
1000 0.4356652315490795
eo 0.10674411941775686
1949 0.24214429300349774
Wor@@ 0.14857931169585628
ud@@ 0.06906330197767095
130 0.9043089436729962
1952 0.2507754583739463
anti@@ 0.0812505355888033
ster@@ 0.10834189515503025
1947 0.24331092243506816
Star 0.3219977484796215
aj@@ 0.06751430132048672
dro@@ 0.10339169718794058
oy@@ 0.07611345902346797
ww@@ 1
Mor@@ 0.07049111781978658
Dis@@ 0.15892855433769784
ST@@ 0.6210614349202799
Sec@@ 0.09488722697050074
CO 0.6414464616385437
amp@@ 0.06807451011606828
pre@@ 0.03738534995212199
attle 0.14647360582839083
ow@@ 0.04436345371611711
One 0.13775252583064718
anth@@ 0.2985871103117009
ene 0.053394444270598
1938 0.2343203900936351
1946 0.21878666967821453
1965 0.2055371978571245
ai@@ 0.08665447940586017
Ta@@ 0.24285362526458698
ru@@ 0.03875798689789604
ö 1
ind@@ 0.05169028019976802
ug@@ 0.05633221250948211
1958 0.22593780543333758
Fi@@ 0.14656938616521378
ave 0.07541127300747429
ax@@ 0.10953199509777767
pe 0.05062085223837035
cul@@ 0.049684983673739413
ー@@ 1
way 0.0405650576080208
Cy@@ 0.3060528618245852
Mat@@ 0.10611697295874564
ams 0.07950163806532826
mer@@ 0.043024596415089614
1966 0.20306164958975598
BS 0.4316961797283068
OS 0.40279516316575503
cre@@ 0.03486025082628651
ó 0.013280607486558047
United 0.04767542229058099
Ye@@ 0.24341140263473765
work 0.04781083833617115
ER@@ 0.48870047693543167
iv@@ 0.038023122553887144
Mis@@ 0.14743279463613979
1954 0.2397955958352579
inter@@ 0.020756135485979123
ta@@ 0.04197844354626766
1961 0.21954136941924984
fr@@ 0.03755298607654961
50@@ 0.5450745888291118
All 0.12553814072362432
fl@@ 0.037438338351595664
Is@@ 0.08046761262611958
era 0.031405217257135236
ture 0.05164454306832024
Bur@@ 0.07307315526670899
ini 0.08807894082947668
li 0.13958776665901865
ym@@ 0.08776725663661182
Group 0.18955233662015009
On@@ 0.1406280477984241
ama 0.07424083647774278
up@@ 0.0629997371432844
พิมพ@@ 1
Jo@@ 0.11815227904743847
AB@@ 0.685562128709857
trans@@ 0.042182604791840404
Net@@ 0.28381552394347825
mag@@ 0.08055301735051139
American 0.047550060384814144
Black 0.22708767911125768
UN@@ 0.356345089919959
RO@@ 0.6500579974719863
line 0.06406262292707927
ปฏ@@ 1
ili@@ 0.04397615653902745
Des@@ 0.09217727445452666
king 0.06107155888899267
ir 0.03350965951632635
Mus@@ 0.07731679283369777
pos@@ 0.02712932209858116
Do@@ 0.15410814685568336
ors 0.038025005201903585
ane 0.08873679869771536
ung@@ 0.06613166249613318
Em@@ 0.11257987174602253
ella 0.12661334762950666
ection 0.06108967988672079
ope 0.19451510017611295
lar@@ 0.049565770284019074
ut 0.07565544344901431
|@@ 1
12.@@ 0.767764872050607
ida 0.08106555420922701
low@@ 0.06473870649654168
Im@@ 0.13766814950733586
Time 0.413603086343087
ath 0.13312012812569712
Bro@@ 0.10134074051367897
syn@@ 0.19236223088527393
old 0.04444243909195627
pp@@ 0.05791894795223185
Mal@@ 0.0784302590333532
fac@@ 0.04465956011947733
col@@ 0.03216414441056872
oh@@ 0.07735585644267563
1959 0.2129837177176263
row 0.20609781445323905
Dre@@ 0.16343884208430115
No 0.2232752046960207
Ag@@ 0.14499825998319082
im 0.009708373685482549
ian 0.07773824992342637
Air@@ 0.17266274477528695
AM@@ 0.457705587479215
Pal@@ 0.08872868952300725
ha@@ 0.09326260356760686
ur 0.03618376738418887
College 0.09651461477436303
ide 0.10309326952581503
arr@@ 0.03582503116815362
~ 1
por@@ 0.03979581830471541
ten@@ 0.024676358160150902
prot@@ 0.0489684760684799
+@@ 1
Gre@@ 0.0794044259896332
BA 0.4740954531448755
Royal 0.14430870164716347
ici@@ 0.0479887041256915
oth@@ 0.10156960484141794
110 0.7260730734883898
als 0.00999377111525071
1919 0.2330410582749251
City 0.07287177273695689
q 0.2168924433291527
ser@@ 0.03696124514570718
Nor@@ 0.04169451592593949
1900 0.2945924710019829
des 0.004065081641626935
1957 0.21138431645150385
ike 0.12277641872325677
per 0.05576284543421972
Wil@@ 0.08948582986554586
の@@ 1
160 0.8449943285059455
FC 0.12442824407512125
Sy@@ 0.10692074205191039
11.@@ 0.7338003828640437
do 0.03134042498238835
1912 0.28080923810772646
หนัง@@ 1
uk@@ 0.07357811276725207
Live 0.40877794919093896
ao 0.1301652888269804
ge@@ 0.023062443604803244
iss@@ 0.05589801758375401
Mer@@ 0.09891326853353569
US@@ 0.18081140408549262
ub@@ 0.06798828279568783
gu@@ 0.02883991825805867
Center 0.18136897817951428
ena 0.07455931460445746
ura 0.11214475629358023
bu@@ 0.05698179249146314
ere 0.0479265671703971
CE@@ 0.3369688505599592
IM@@ 0.5859034997302782
Fl@@ 0.06553368282600593
200@@ 0.39387729659726783
RE@@ 0.5511219199637232
ental 0.06318745297785432
My@@ 0.26559833052932585
จากนี้ 1
ori@@ 0.06346326818025601
for@@ 0.023274196333719698
Sol@@ 0.11161384472249193
The@@ 0.06777050269330562
ara 0.09087297952968924
Bi@@ 0.07428149146140087
ick@@ 0.0481717176842981
ision 0.0817114586209761
1953 0.21456430985125644
cl@@ 0.04631299310374948
au 0.01103671585576214
sch@@ 0.0120730538603193
140 0.8235793422275081
del 0.009021065332927135
1933 0.20770881161107335
ine@@ 0.14745351722096095
Mc@@ 0.0729059237421056
di 0.07777709093928523
ual 0.061520138140132116
1955 0.2048643420418216
Pi@@ 0.1154916462167112
AP@@ 0.40361343924105203
mer 0.04320165057814172
tle 0.09638998595453534
Day 0.2648856524127793
1917 0.23822450768704478
wor@@ 0.03382328884382018
eli@@ 0.11894458476121918
elec@@ 0.055527285455114324
low 0.05023370219559944
out 0.02620761052021681
í 0.08754996847921512
MS 0.28656506172771634
NE@@ 0.5506695039996569
eh@@ 0.02389702351580375
ws 0.04787929855180922
atus 0.25827296010540784
fin@@ 0.0212431865375013
Medi@@ 0.12395218860691282
Gal@@ 0.1008053741190776
Gi@@ 0.08614013916354882
War 0.07511450525434368
adi@@ 0.06029301519261212
ン@@ 1
Pre@@ 0.10129852839641824
La 0.01322790043700421
ie@@ 0.037948191074649376
ky 0.11975709421976136
sel@@ 0.033981279598715095
IV 0.16834810523759888
No@@ 0.10106214157499942
Stu@@ 0.12657181149236632
app@@ 0.06310414356210525
du@@ 0.03982983206329259
System 0.3180094849924906
ast@@ 0.06364491658952436
ca 0.056681094568091325
ตั้@@ 1
Ge@@ 0.03940610194256438
mat@@ 0.04508443391126603
1937 0.2045593982786715
form 0.05464044389322116
ode 0.11633973508469066
ning 0.05777974844498241
Life 0.21909585901659026
ac 0.12960731717976307
acc@@ 0.03477069990220855
ler@@ 0.040354646862299885
onal 0.05359333962855169
Chr@@ 0.10217539313564572
system 0.08123690556996555
หวัด 1
Er@@ 0.025063636086714153
ther@@ 0.08176043077452955
Leg@@ 0.1318547212686945
MA 0.4528538324725518
co 0.039590314780841164
ker 0.06030852829732125
order 0.11016065431783106
Ap@@ 0.16767246965195362
Tur@@ 0.06495775727266155
TC 0.4791798779998267
que 0.004086113837852272
tim@@ 0.04962513853989183
Lin@@ 0.11939888531127432
ony 0.10378588264898077
Sal@@ 0.06627334593216963
Sw@@ 0.10471839642929975
→ 1
40@@ 0.581490361692231
SA@@ 0.3625981047962459
kh@@ 0.05411643098945306
sol@@ 0.025956194187037956
Association 0.12652857965694614
tions 0.019288714156946954
Tre@@ 0.14534984276593382
from 0.006621120439280048
air@@ 0.04124062346414453
To 0.20480280224566796
colspan 0.5943639852117837
1934 0.21441154069484458
At@@ 0.08828771507621845
Super 0.2684679526170693
mus@@ 0.03543317786918551
sur@@ 0.029298495100489295
har@@ 0.06391520141853893
350 0.7976780485243784
ino 0.049425558247303006
Show 0.3367419025404162
Bre@@ 0.10590485955735404
fi@@ 0.02949861419231411
tical 0.08433731085483188
1932 0.22517653793979275
ein 0.013393563920735622
ano 0.03496615690027049
her@@ 0.029519822821737197
ign 0.07074281305834369
sy@@ 0.0778049539098386
Bl@@ 0.07387117542155651
Mac@@ 0.11815654069351852
of@@ 0.062284322646806785
Institute 0.16539230893397022
1924 0.2268456971993086
Cap@@ 0.09882072792682325
Reg@@ 0.03712227937579824
è 1
Lu@@ 0.07440509181656267
Sur@@ 0.1552076355180472
Val@@ 0.06838701786330825
ales 0.018039737784439076
chi@@ 0.08761973860837319
Ber@@ 0.04126003739165432
ba@@ 0.04389673502490844
Ed@@ 0.0829439403348912
ins 0.03152162117222457
Trans@@ 0.12582241278277698
medi@@ 0.03861990951744718
ill 0.08251367343171338
nuc@@ 0.27929053667255743
ora 0.07937993504085968
ry 0.08376206232838247
eph@@ 0.36862734980072653
tics 0.07427693205455152
1935 0.20282633387275883
ents 0.01839013631351086
High 0.11812477720550223
Tel@@ 0.14261035375699233
ys 0.1353312380286725
Sc@@ 0.18424345469901898
enc@@ 0.03932076239909362
lam@@ 0.06570694557097635
1928 0.20766778529119023
Kar@@ 0.06741166782979664
amm@@ 0.05245859374108602
ha 0.05405829609475238
๖@@ 1
120@@ 0.7812315490087971
Bas@@ 0.08800179351799965
dia 0.13871061515399433
tor@@ 0.03422274355250923
yo 0.13827286782120846
Ir@@ 0.06375074180972791
War@@ 0.11446653938838887
Super@@ 0.21373364474880982
eci@@ 0.13238678948144805
WW@@ 0.967445269623762
alis@@ 0.05632193802621894
sian 0.0932970027001736
tin 0.08475928133663645
lock 0.17063558087241357
Sho@@ 0.2750581445670415
cle 0.20287871879752437
ted 0.01557571499734498
Cal@@ 0.09692154096107145
Fac@@ 0.19332681788881173
1951 0.19108147151508778
Park 0.093193058373476
Sub@@ 0.19064840438561007
ach 0.028043280089831202
Fe@@ 0.1455414165231935
Academy 0.16873255166788362
Prot@@ 0.15549320685663828
ides 0.08944503430136982
time 0.021190323664751105
Great 0.18571176049081214
大@@ 0.0419324496166204
Grand 0.12048182420489084
Top 0.276330600162412
On 0.026240713703510544
ality 0.09383282840458027
สามาร@@ 1
EP 0.3228002110569956
Progr@@ 0.18486606061589966
Sm@@ 0.301868441861257
nam@@ 0.04478186553754926
rom@@ 0.07114504695638273
ek 0.04533976289952308
go@@ 0.028951579836698667
ters 0.04024588936995476
DC 0.36143285001515124
Ear@@ 0.07618442413438122
House 0.09252492362653889
rel@@ 0.02023518560547782
sa 0.025548240421206833
try 0.061731649564574054
Elec@@ 0.20331809973984433
Film 0.10631225667102469
王@@ 0.22406674297491613
Gar@@ 0.08324406187677325
St 0.16177911265845757
Techn@@ 0.17228105459052995
Ty@@ 0.14943651987801743
ree 0.09141582441952495
ตำแหน@@ 1
Proj@@ 0.1906182116006506
ani 0.10237584474060425
mot@@ 0.05640197668315107
Gol@@ 0.15540770438046328
Mot@@ 0.11345032204451964
eral 0.2380654621982885
style 0.1071365947726893
Mi@@ 0.09742918646255207
ep 0.11430211949270405
film 0.03160926600678203
vir@@ 0.10637088911591966
Asia 0.2808575756930422
Bus@@ 0.13979788496630266
William 0.08446863793756963
ates 0.029650127862707615
Vi@@ 0.07114300608589132
can@@ 0.043958863253160826
à 0.004300339394033101
Hon@@ 0.13287063510658004
Je@@ 0.06857958549927308
ness 0.11684022469800237
James 0.09044362173364284
Art 0.112878208400414
bas@@ 0.03462286656997875
ello 0.15987982070503687
ng@@ 0.05947183138857183
Gener@@ 0.17707974945775415
ner@@ 0.08282467501618723
ls 0.1429182361991763
ap 0.12002485482168324
oni@@ 0.07591211720527372
ala 0.08187013812271289
ref 0.49565219183140186
int@@ 0.031138557390080333
aur@@ 0.07880741669264715
cap@@ 0.039009547577858336
PC 0.38879923950760714
iti@@ 0.04993209316314394
ros@@ 0.08982184378794285
oma 0.12471665378881952
pro@@ 0.022675297762091262
Dev@@ 0.1188951982670716
Eng@@ 0.14441802810098817
Sou@@ 0.09528262269237107
los@@ 0.10101153342552875
80@@ 0.6230034587037494
ange 0.07271804498218508
ple 0.060412332513136546
Cro@@ 0.1191369899543818
SS@@ 0.4461483555134432
io 0.04491077928862862
tern 0.04467566421211197
Red 0.16715134199932688
Sil@@ 0.10710016882877381
sive 0.06440212028925592
ince 0.09270080470880773
ich 0.0362290857340122
ni 0.0816944458087063
ve@@ 0.03894663147224075
1911 0.24776452408187
Bor@@ 0.07206853564216752
La@@ 0.12276360278338276
Ran@@ 0.2941617182521591
ki@@ 0.08084221457398749
ze 0.037269888091800304
Coun@@ 0.1854099494610126
Hor@@ 0.10336239036065531
ey@@ 0.07240616453138103
was 0.0022527829287450458
ji 0.18590865246230903
เ 1
Kh@@ 0.09190592296334538
Dar@@ 0.089435473776748
tre@@ 0.042423635069016905
Mel@@ 0.11203553528893893
Party 0.10779466745978876
ash@@ 0.08643187256791458
vol@@ 0.032407923700437644
ater 0.047246258639969035
fe@@ 0.03294980759382549
1910 0.21816726806364106
dice 0.25585602716628125
Pri@@ 0.08378690680252117
Song 0.30250840917560984
och@@ 0.2047574684293656
โอลิ@@ 1
Big 0.21555981593000154
Can@@ 0.09000899888331779
11,@@ 0.6587762022639071
1914 0.18400850295018775
ature 0.05141129166236049
ock 0.10444445190150893
uti@@ 0.06330458566482687
ye 0.08041448307239411
lat@@ 0.046254562777916015
pres@@ 0.022393421366607907
CI@@ 0.34451803038291473
eff@@ 0.04669575927122276
្@@ 1
1922 0.2024763060791585
Bu@@ 0.08160000008896066
Japan 0.13029644185169603
dom 0.1324632454953418
tis 0.19183583104027002
su 0.01283906612166811
ds 0.04142381143928579
ever 0.06603470853979398
1908 0.2459070901455792
Produc@@ 0.18854385857631462
q@@ 0.14040928921214568
Ben@@ 0.0846339857869941
King@@ 0.13869746969011543
Sam@@ 0.10623527019452773
own 0.054960348725147386
Pres@@ 0.09158315687693955
dy 0.13050170775394423
ti 0.06009821043332178
ครั้@@ 1
Young 0.23957747888261854
its 0.00964596240249138
prin@@ 0.10277603465765613
ason 0.15256594615652638
op 0.06641938388461147
loc@@ 0.03517295060804532
10,@@ 0.618228839195759
Michael 0.10803043093276289
ution 0.06506904670414124
Que@@ 0.10189654567949266
ash 0.15576540982742887
iness 0.0884164322832514
Kor@@ 0.0902029067068139
Records 0.13739762625769297
Off@@ 0.09869358467282055
Sum@@ 0.11339624368593164
Ter@@ 0.09612823382098158
FI@@ 0.26917767731363823
Op@@ 0.15058242532944044
Win@@ 0.11866662985579678
duc@@ 0.11631095015247142
ease 0.08580264789087381
CD@@ 0.23335760590258403
Rec@@ 0.08839392979341314
Rom@@ 0.08003332003839467
ster 0.05481579147642977
Rock 0.2158999851721293
Uni@@ 0.15274307266861245
enn@@ 0.03362445808167068
entr@@ 0.0359766664370675
edr@@ 0.1381112928758369
ab 0.042893518509979606
bit@@ 0.16297659262280526
val@@ 0.04110816305864491
Robert 0.08704658736165974
cas@@ 0.036026002940728954
Cre@@ 0.0954052001801612
1929 0.17364709730375297
PS 0.29784657714769625
day 0.03731551975635323
Mah@@ 0.14423210847896403
bul@@ 0.12677865003155345
ding 0.06927398337527822
had 0.010956227579717285
isti@@ 0.034982414075360055
First 0.12604933858739775
mas@@ 0.041656327478767415
ost@@ 0.1710231821695639
side 0.03547370359009374
11@@ 0.2762549394574439
1904 0.26077820517936595
Mad@@ 0.0932937205110189
ke 0.03432505583676874
att@@ 0.019135531919881765
Wal@@ 0.06970049366174343
ole 0.07106626664048221
Sim@@ 0.119095214738332
met@@ 0.05817750824974098
Bal@@ 0.0741031730044981
uch@@ 0.04885702518502311
ids 0.13279812464489874
annel 0.17283515842113545
awa 0.2036044468631414
cal@@ 0.0529748907136084
uz@@ 0.07201128501362629
ful 0.05662393932134649
ä 0.9872583825132751
Beau@@ 0.26388266851894737
SA 0.2726622704713496
ari 0.10936632312463594
ship 0.03518942951549602
Ni@@ 0.12041289104120353
bre@@ 0.032624690675629814
ee 0.10566180193221127
ond@@ 0.04231264862190816
public 0.04260460657076475
Mid@@ 0.11971335225948998
ber 0.06994155879897698
use 0.025694661914513767
1921 0.18702299136664408
ady 0.09073790955259685
-- 1
Club 0.07854021650291078
Hall 0.11965295980254456
ond 0.07203046131516234
Met@@ 0.1075123023330966
Bel@@ 0.04565958692706342
Play@@ 0.1388398739685396
earch 0.07359418771452687
Bang@@ 0.259251320991606
Lit@@ 0.1380854286702751
124@@ 0.6563432750707207
AI@@ 0.33643119091764445
inae 0.5181307208246473
1925 0.1834227736792064
cy@@ 0.13875163452403785
ita 0.058617397740674586
ki 0.08058418635497284
Ob@@ 0.10090186519256311
State 0.053188714155985806
Blo@@ 0.2169823700804307
Windows 0.31672225830578693
emb@@ 0.05021443281044317
ern@@ 0.055382936912283943
1926 0.17960520596199422
Hum@@ 0.14169040339564706
ei 0.09676121717141481
ign@@ 0.03001960839181425
Pan@@ 0.11267897990633961
ear@@ 0.04388524388633172
ground 0.0746049819209
ft 0.06314089473061518
Chi@@ 0.09064999311920371
David 0.0813077728370752
ney 0.06334537400578223
ple@@ 0.10397234723936019
tra 0.09129953968436988
tw@@ 0.04973952414792157
eti@@ 0.07698772550815187
–@@ 1
Gl@@ 0.08631501663879479
Kn@@ 0.159410009451998
US 0.04867130709907919
uke 0.18844695237845782
Ger@@ 0.03805838154252916
Ra@@ 0.16586843660157014
SP@@ 0.22759025644846564
League 0.045631401795513525
White 0.1419935892681947
ating 0.02950585903369022
1931 0.17527317374882173
Festival 0.11901867476402432
Rus@@ 0.0425368080737782
Ul@@ 0.13874486683268028
verse 0.12074414357369283
App@@ 0.23784152765293884
alth 0.08028824435620431
edi@@ 0.03784915234497176
pen@@ 0.052122980564406285
1906 0.2320077178251951
Paul 0.07220840344226945
ust 0.10819509249867232
red 0.019589726858226224
Cas@@ 0.06771695460586172
Kr@@ 0.04780844963165917
1923 0.1811214310172135
ke@@ 0.04800046598005187
DS 0.3370622075470816
Feder@@ 0.0994597838442572
sa@@ 0.029072853964979294
til@@ 0.04617818672887954
Ros@@ 0.07449134657500656
Vo@@ 0.1506445335890437
ome@@ 0.18305376550238536
เลือก@@ 1
ket 0.08248928217750146
ns 0.04744893574122149
CH@@ 0.3583345058521594
Gen@@ 0.09062127671862796
Ru@@ 0.11638942472280812
ister 0.04430445504053996
Charles 0.07617139345343303
action 0.06145083871220509
formes 0.3546421573948245
illa 0.06756035686275587
ont@@ 0.10671032367334163
General 0.06708680824280919
els 0.03719020918778582
osa 0.09074319852049643
tar@@ 0.035104178012401135
ef@@ 0.026133792167825697
my 0.10816338251380211
nor@@ 0.03361336916467459
sych@@ 0.14068065115589745
za 0.042676308706759404
Company 0.09959934750728822
Cup 0.06811499291444854
Hal@@ 0.1056931272975856
States 0.03732454089998805
world 0.06565059229444425
hor@@ 0.06222046433069672
ean 0.1026507706362747
not 0.013045225236876939
tel@@ 0.03521667552696094
George 0.07218263903631782
Mul@@ 0.18834984044902703
vil 0.11917863012554288
๙@@ 1
1927 0.1693558866725716
Blue 0.22712492198730766
ect@@ 0.08106793988063753
tur@@ 0.018682437782763916
Soci@@ 0.0962164831951637
๘@@ 1
Por@@ 0.06867115921177905
up 0.02146448782560717
yth@@ 0.15911060277111372
war@@ 0.03974809987512331
Chil@@ 0.18057455066566955
Dec@@ 0.15869617609591563
Lim@@ 0.16056844438003023
proc@@ 0.04807004428274696
van 0.09680315052264012
DNA 0.39440265456143137
ada 0.013108091557480243
cur@@ 0.02938771972809895
AD@@ 0.2751655174004158
iy@@ 0.109174091453078
ov 0.09586591176470588
Mil@@ 0.07168923074796858
Tok@@ 0.25890799668982484
group 0.04834778298011467
York 0.03490636813723677
Don 0.19221448490108978
Fin@@ 0.05417740170821371
light 0.07589938200451646
1896 0.2755000084836134
Vol@@ 0.09627586000393791
lan@@ 0.0331883183112223
sk@@ 0.04934295136010517
tional 0.051202745744038144
Wi@@ 0.07623956354203941
ord@@ 0.03188390755118029
son@@ 0.04112227844452603
ties 0.024743468079839966
ans@@ 0.0622284128894788
assi@@ 0.1654199879916962
del@@ 0.04549621379894636
ae@@ 0.18430459468941762
Cam@@ 0.08321574409650599
Oc@@ 0.1019484805675145
Sa@@ 0.0906464014214381
aus@@ 0.015978661076502792
Arts 0.13556669115516423
River 0.06461995709727107
form@@ 0.019275317453880187
fre@@ 0.026925809905906033
model 0.15664414928589235
tain 0.03820634253292645
ผ 1
1890 0.2562737485591523
Sar@@ 0.09634377517309778
peri@@ 0.06678022932282905
sen@@ 0.038689548348974125
cal 0.07826016645047006
Media 0.22294174272182649
Pic@@ 0.18048678489848566
Society 0.11156450769106774
des@@ 0.01627021412665786
ency 0.0766883225154262
1905 0.19343239544511687
1915 0.18934021150290156
Dig@@ 0.27503671665668517
ū 0.5279516233313731
AP 0.2994792169134175
Wo@@ 0.07395578309238006
ays 0.056169825878599554
go 0.049523724993804474
pu@@ 0.028533267241797222
other 0.013048210069464609
sti@@ 0.03495704544535434
reg@@ 0.019486560264965428
wn 0.05017164926720923
ium 0.14406364795032917
ets 0.0273383753692269
ima 0.08831641967082512
inn@@ 0.03606690836052863
SS 0.18631910770906973
*@@ 1
ota 0.07769669501284654
agement 0.0840500763693564
cop@@ 0.07722244649103875
ering 0.07021412985482586
hu@@ 0.04676293949789957
ko 0.10086036834320072
bor@@ 0.036387274228404765
von 0.004346876335884069
Aut@@ 0.07441188087522402
MP@@ 0.3452727188088328
fication 0.09273899821140673
‍ 1
Mem@@ 0.12362733492597817
Pow@@ 0.16711196526704486
Vir@@ 0.1573707874858451
ins@@ 0.029357689029397373
1907 0.20367310957171733
eter@@ 0.07333310332362333
ez@@ 0.04552681854071723
gre@@ 0.031073252709591645
name 0.029562359777484188
net 0.08623989816032793
tra@@ 0.043885424016965865
Christ@@ 0.07837417184755772
Plat@@ 0.1333450893334838
Pu@@ 0.09302142918223534
wh@@ 0.03068252030577174
1913 0.17485329613411685
12,@@ 0.5002408605086076
Bab@@ 0.1900628478106433
ein@@ 0.010360491396968216
eme 0.0911886511649177
iki 0.1759372608169543
CC@@ 0.3520581264186889
South 0.03941405029576617
ny 0.1469183261193634
une 0.0059754179078852845
Cer@@ 0.10170766541698695
asi@@ 0.058743687549042876
Hu@@ 0.0949357038689748
Tak@@ 0.1868440135889008
ette 0.05388718996988396
ort 0.057720676418800874
1916 0.1843306244531968
ace@@ 0.19738041150533964
back@@ 0.12062282256860328
elle 0.011208826967128768
ven@@ 0.022557085431480134
act@@ 0.11781016524871815
ero 0.0491001438081254
ime 0.06064032178859158
Council 0.08366027223345224
aka 0.14432315148998429
Wat@@ 0.11096906870447285
int 0.11333285103590747
nch@@ 0.17528800316079998
Boy@@ 0.18765895544445912
Oper@@ 0.10085420951548187
down 0.05678237147676519
field 0.04536916674145515
ights 0.06865861270050985
rit@@ 0.04494906010317276
Tom@@ 0.12184056168302057
dition 0.04503811022725937
udi@@ 0.14589718859220357
CA 0.2439192303255695
China 0.07904830886140178
Del@@ 0.07784206820704624
ford 0.04840776072623715
sec@@ 0.019797888966611527
ī 0.6871130957635723
comp@@ 0.019797097421992163
cy 0.1110163462718478
Av@@ 0.11277955871051203
atr@@ 0.060085164707060136
cus 0.2030814307380497
TA 0.23760847203004395
aya 0.09855380919300664
hin@@ 0.045112934635310964
ote 0.04243065594827234
tion@@ 0.04437748652604629
wa 0.05512908230897882
… 0.10501241098862535
East 0.0738873117249415
yo@@ 0.06222917280938717
English 0.06208930730361237
oto 0.10273193774327126
Mir@@ 0.1437735765584935
ross 0.05358820079397825
British 0.04385652763401455
aki 0.14756451657145253
back 0.040661784386006115
vis@@ 0.029457221284913244
्@@ 1
Fri@@ 0.1635395967318414
mac@@ 0.20339442846620473
ople 0.15135310329809867
ste@@ 0.029264052490333377
alis 0.2586080770765086
ger 0.028273145644120427
AS 0.26028145562135646
Air 0.08884291016183883
Studi@@ 0.07830246063724858
Tor@@ 0.05090439455878597
Ur@@ 0.06262958296904791
fol@@ 0.029910293421222475
key 0.09551182151826927
tory 0.08711467105134768
Lee 0.14763765587701055
London 0.053631108952917374
ax 0.2594491375648253
ms 0.05509396649956812
serv@@ 0.03037264649975833
air 0.059940148419308496
enth@@ 0.12272985637322938
istr@@ 0.08081707610463623
Es@@ 0.053828598913510245
elop@@ 0.1639200321669377
oll@@ 0.04065572546014747
top 0.06120839481839788
Shi@@ 0.1862411514733596
acy 0.08954684539072602
Bir@@ 0.10176519406572533
Commun@@ 0.09031240410462169
ences 0.036714716214631
ense 0.06657701094169047
Hel@@ 0.09247866997787318
ective 0.08524328072687418
ku@@ 0.06254191107477503
language 0.09164735107609301
lobal 0.16452453986755675
ret@@ 0.04505445386453324
Fran@@ 0.0464725825892965
Women 0.1175748382940468
arch@@ 0.052388980582462476
ema 0.0929159254218441
ide@@ 0.08175345078342326
over 0.01831234426399787
1800 0.40083946981745766
Direc@@ 0.10122049603728936
men@@ 0.01881829841277813
1870 0.24153354047065662
Au@@ 0.042474629754572626
Mur@@ 0.08317975816884995
bar@@ 0.025821434494553163
du 0.0039791507001409815
yst@@ 0.14747961333796689
Organ@@ 0.1065416663168971
hom@@ 0.045781933757373335
រ@@ 1
Chin@@ 0.09374023553301994
Open 0.1427387691350639
that 0.0035141673316216597
イ@@ 1
1860 0.27459382292810486
song 0.045270890508918096
face 0.051613936810471786
isi@@ 0.023713881860324748
this 0.012566886335552058
1889 0.25831547991766346
Corpor@@ 0.16688775106843506
ff 0.09375770364790124
1871 0.28191286891896544
Doc@@ 0.15587798505875697
Luc@@ 0.11520084761809846
Thomas 0.06763662105552067
Cat@@ 0.07668016410249706
Ko@@ 0.08765071501725856
Vid@@ 0.20826958450763125
ational 0.0877594362541266
ato 0.05878670894551512
emati@@ 0.08921305876282398
pis@@ 0.11631507235567763
tan@@ 0.04498003261296149
33@@ 0.545712712997744
Hi@@ 0.09433828194368424
dec@@ 0.01651956995959795
๗@@ 1
Educ@@ 0.10359917426961367
Sun@@ 0.21479955820049687
dic@@ 0.03406963310067853
spec@@ 0.05113270107191311
Ci@@ 0.06783986041908777
gl@@ 0.04611851735188515
hal@@ 0.04128414291725164
hum@@ 0.03472843607398082
log@@ 0.06720174622295434
ography 0.0684063398993566
Peter 0.07665179799848983
err@@ 0.05037437607244085
icul@@ 0.08586023593157202
mission 0.03848050059875634
ports 0.04546642166028012
rati@@ 0.05546732229802527
ury 0.08822758873022817
ú 0.11687428490121599
ally 0.009596324540546547
arm@@ 0.026989204580612765
esti@@ 0.049366264161133946
ited 0.03891412641010673
their 0.009907442863482174
1901 0.20278467369208136
Cur@@ 0.09642840683889814
Ham@@ 0.08318769145794533
West 0.04738559722829557
eng 0.2185757543122514
put@@ 0.056746393763159535
Dou@@ 0.18955400657420796
Le 0.010464754845957241
fic 0.06787503506309518
lands 0.0533561738314232
berg 0.03568502135291669
bur@@ 0.03345573427296318
grap@@ 0.06505522448940003
ja 0.04499377929809052
ola 0.07312915728055647
set 0.04184345183215159
{ 0.23772013165025227
£ 0.1850311302284206
Tro@@ 0.08069980641489582
mor@@ 0.04013639204721765
ั 1
Green 0.14960378835591193
Richard 0.08724701331891332
SC 0.18934894363335047
ines 0.03373773500617542
1880 0.2372710341275214
Ke@@ 0.10303919967294449
Rel@@ 0.08656100054154718
fer 0.034622241925762694
alm@@ 0.05017394885463681
yg@@ 0.25594434676172206
Chem@@ 0.19846701180240475
New@@ 0.0903324728981362
Tour 0.09572100453561909
ye@@ 0.08943737044080889
Fu@@ 0.13321956727020565
dio 0.07181623285852927
eri@@ 0.0875086405091733
series 0.03082984395041124
state 0.033434806060243995
Ca@@ 0.1603160901142773
sin@@ 0.04944121481958014
α 0.0635141635806641
Tal@@ 0.12882888836853876
erg@@ 0.0604879867036066
kl@@ 0.03913349704260682
pan@@ 0.047682695747457864
1898 0.2118212720838234
tes 0.015103966098881115
ison 0.034462747248400406
ological 0.08034496883569661
35@@ 0.40248260840964206
Anti@@ 0.15198402527706786
Orig@@ 0.12631165008755255
Roc@@ 0.12200259083135222
aliz@@ 0.0409232381844747
antas@@ 0.19938592513146933
cin@@ 0.05865483684919698
plic@@ 0.053735637755453085
Island 0.08779323697539808
Phil@@ 0.06556272880502491
Son@@ 0.08915981311282421
bit 0.18186631688179475
ona 0.06173836823707164
tom@@ 0.04096633130073784
Cir@@ 0.16099640153610728
Du@@ 0.06869462247425505
For 0.051476522600033166
Street 0.06565607570270193
self 0.03614277021869194
Olympi@@ 0.13844336670243026
tis@@ 0.043781646658532895
ฤษ 1
1909 0.1748310412753387
Lang@@ 0.11132776080189391
AM 0.25793118516929614
FA 0.20347320684751263
Hot 0.2297494146823495
Pas@@ 0.0882620626982057
apo@@ 0.055876387526080686
coun@@ 0.02613331605972003
gar@@ 0.03481539313265063
­@@ 1
ith 0.08300888137835555
pul@@ 0.05907354038640991
America 0.07344712752872881
Union 0.05714654590293566
1500 0.3282728209796158
Champi@@ 0.07202655038510943
atur@@ 0.06355639144359711
ce@@ 0.03269450716503179
char@@ 0.03730786897233135
team 0.022138121866883735
if 0.04811664521050402
ko@@ 0.05961683300235472
1903 0.18507073385294315
eth@@ 0.08351978865153993
onn@@ 0.019872700008113694
terior 0.13960477211756744
ther 0.01836247540814871
1902 0.18678610280099742
ute 0.05915114263103598
Bud@@ 0.11655051529581698
Cul@@ 0.09738391350449507
Han@@ 0.08895243384225861
Squ@@ 0.12277133449909998
ico 0.023466871082884887
É 1
This 0.018019487601633213
center 0.09336477801308198
conom@@ 0.14472558639634098
eus 0.3307374066950802
formation 0.07040606708615176
gener@@ 0.037695945958977864
our@@ 0.05962528096396991
ron@@ 0.09235603937662655
ty@@ 0.10421950939091969
BM@@ 0.28402945623406356
len 0.033821724405756745
lo 0.01420429054028847
prim@@ 0.030218012015206665
sw@@ 0.05832371392976869
ๅ 1
天@@ 0.09187386791624007
Spe@@ 0.09891011338419985
tro 0.06754869846073881
arg@@ 0.04552700246583179
ough 0.04705911010805914
pot@@ 0.06401427593513827
ret 0.12705669997761262
Google 0.36641215713124553
Univers@@ 0.2820091176881292
ext 0.5295311534229599
gro@@ 0.031603714393003184
tem@@ 0.031678709032811746
wer@@ 0.018517555072829813
1895 0.20808850025641418
Pop@@ 0.12389720395518272
แหน@@ 1
European 0.062321002155150906
Ti@@ 0.059816817736883084
cle@@ 0.08441104801874912
thi@@ 0.07339971900966973
Kur@@ 0.06048984933987049
Stand@@ 0.11360305140686594
ebr@@ 0.11113966565808787
her 0.008089917730058542
Mich@@ 0.0558486143865832
You@@ 0.2513087844687072
vice 0.06673719202553688
Plan@@ 0.12191971643468015
body 0.0795813322498677
test 0.13328103997067192
yan@@ 0.13456571793700725
ル@@ 1
San 0.030406096411301473
cip@@ 0.08913869760339946
off 0.03299137158322813
put 0.08392219560166742
ç 0.1681041651141132
Cin@@ 0.19640841426426253
Bul@@ 0.0739685101166367
Cel@@ 0.13392622621087083
Mu@@ 0.09729730677468297
Rem@@ 0.17014408807448095
ami@@ 0.09790455078276666
ces 0.020436014089886153
hr@@ 0.05139959818061504
onia 0.08356238579128031
ro 0.04755050912616107
very 0.0245980408743997
Fut@@ 0.2175203190636266
Lor@@ 0.09175546534312642
idge 0.0945137423509374
len@@ 0.05045385575230666
occ@@ 0.0627012591516171
win@@ 0.051925970021015684
子@@ 0.26277976633010036
DVD 0.18698142415675864
Os@@ 0.08381547326281909
lia 0.1726346194646693
mem@@ 0.05961518251678242
wood 0.05900422538087236
1888 0.23494514348086093
Ind@@ 0.09035608693669035
Star@@ 0.13987161636120893
eld 0.0634664889950975
olog@@ 0.0350054312786576
qui@@ 0.028439834878328758
they 0.013411647097477787
wo 0.041540569152637354
1899 0.19616271352554893
Bank 0.12704739294357306
Got@@ 0.10041524312694106
bel@@ 0.016758741007093306
ス@@ 1
1868 0.2719749787132373
Central 0.07111867880216582
Sel@@ 0.08890202365557538
ail 0.08556049897000556
dor@@ 0.09288344688386312
ket@@ 0.06889608796030745
member 0.03738135280599561
tin@@ 0.08183122492429781
Pat@@ 0.12295170651510628
ami 0.09762712853594432
enz@@ 0.03992734875352464
fo@@ 0.034951005181936334
omo 0.26122214080379386
sho@@ 0.01804231487103245
1893 0.21741606826148702
Sem@@ 0.1222145454050732
Sup@@ 0.22947946587158405
seud@@ 0.23836478630004762
unt 0.061652855388537396
ward 0.0617523853580241
1830 0.3163618357950076
1867 0.26087491998824763
Billboard 0.16452701419256724
VI@@ 0.3287668911277534
inf@@ 0.04522082439150478
ref@@ 0.056419220381885064
ς@@ 1
mel@@ 0.07666395498377027
oz@@ 0.1244196665810703
ulation 0.10971977748251478
…@@ 1
ラ@@ 1
Gro@@ 0.07752465497727344
Maj@@ 0.09779676095542908
Stadi@@ 0.13614133696029665
ld 0.12806641965037383
ō@@ 0.12001855150296784
press 0.10953203437745414
va 0.03513447686432393
Hot@@ 0.1346023061919541
Lab@@ 0.09694486572133451
Station 0.09992863746688842
ham 0.061082655518944796
icro@@ 0.17156065839457535
ren@@ 0.01834291905514767
1848 0.23873701982029918
Andre@@ 0.07910270292222248
ira 0.07316998230149452
let 0.10039166432586057
mal 0.046335074692392515
vel 0.34197317590089005
1897 0.19186755001296812
Dem@@ 0.0635494614674186
Journ@@ 0.1153691142080262
ba 0.06341750652247657
cep@@ 0.07112248954079937
tiv@@ 0.03222812308959684
Empire 0.10573663086024944
eter 0.04891709533507532
ons@@ 0.035151407403520546
pal@@ 0.047327137815226746
ush@@ 0.0921097661655884
Fer@@ 0.0743562472131807
Rob@@ 0.09312965719991906
ken 0.019903991024785236
lig@@ 0.04922306128806098
mis@@ 0.019686019025073047
net@@ 0.06815407948509838
ten 0.004862082166668175
tex@@ 0.06310817243473857
Cast@@ 0.11751692795594978
Pap@@ 0.09716161876844108
Pin@@ 0.1471680865079193
did@@ 0.107546412926337
pa 0.10823267266464516
sia 0.08359702910468539
ula 0.18709357612571625
ume 0.06626875059200332
Henry 0.07461469926496214
band 0.02705842257541043
ems 0.03707823456621047
Il@@ 0.11594518418262569
North 0.03578922683307673
ait 0.019713607001703538
crip@@ 0.058648165342565985
kin@@ 0.0843327417302011
â 1
ា@@ 1
bil@@ 0.020202666294344966
dom@@ 0.0475670960265247
ih@@ 0.04236076827108727
lar 0.044243721069214856
multi@@ 0.07734239866234553
sen 0.028401495357901593
High@@ 0.1004615939954619
Times 0.11703537396391765
ely 0.021076071734012172
ger@@ 0.0186368620107846
ior 0.043805530557035344
ety 0.05120588583301573
port@@ 0.01806600661742007
Ev@@ 0.07422186805222693
Mak@@ 0.14976130087478495
clu@@ 0.05244750311624285
hab@@ 0.041564896063595036
Games 0.11042022810860137
Ox@@ 0.1215265902270254
Sk@@ 0.11259803870585129
Vic@@ 0.07402854832872341
Vis@@ 0.1601138208964622
dle 0.07480922138938743
thern 0.031236119678103774
Pen@@ 0.09886911668600255
Ri@@ 0.05393350029328348
bert 0.061328590351698
ones 0.019983036242407957
so 0.013882802216554933
Road 0.07336882033796151
mann 0.04077141743548008
now 0.03171264221924705
odi@@ 0.10789281061678099
ts@@ 0.016476512055273628
é@@ 0.0038767804661697016
But@@ 0.14933931746285786
Famil@@ 0.1536484230567825
Tow@@ 0.0842656527162545
align 0.21708243977854216
oper@@ 0.019225457690741823
opsis 0.21334754359110739
uy@@ 0.06325213899070363
vo@@ 0.01872189862181951
Lev@@ 0.13447520702533988
Meg@@ 0.2430131604351428
tron@@ 0.07262196962456666
帝@@ 0.4098631191306669
Arti@@ 0.14499553457228545
ban@@ 0.028767311683619932
emp@@ 0.023399445786038853
si 0.04041085959896081
· 0.02961047752324737
Not@@ 0.06300005998646568
Radio 0.09758074524350953
atom@@ 0.20197734487179708
mal@@ 0.03827121077352804
pat@@ 0.06142850563332709
wid@@ 0.06204965980665505
皇@@ 0.26077445263946253
Album 0.13383251830031345
Mark 0.10468098631826774
Tw@@ 0.15053875999180472
ider 0.07956974124735083
Dol@@ 0.10840425684474402
dem@@ 0.01785498443581677
una 0.005662131744029247
view 0.04359329147604585
Nic@@ 0.07886583370893795
Nov@@ 0.09732049482708562
aria 0.06267513950419604
dium 0.22679101509471816
ez 0.0385226297617737
ube 0.16326238363818005
urs 0.023903596797183728
ying 0.034184780862380915
Blu@@ 0.15754597951649374
Martin 0.07199264457818585
Publi@@ 0.10797576258332041
San@@ 0.062284626500566175
cir@@ 0.03879687887801062
lor@@ 0.21030195998698908
Band 0.09238540643405477
Camp@@ 0.06988747718242377
gen 0.02797819632796187
plas@@ 0.18034230559997116
right 0.048695308707390104
super@@ 0.057290110716044694
1878 0.21989936195810011
Mos@@ 0.054211307675850424
Sof@@ 0.1520818120435258
ders 0.058407394378909905
sem@@ 0.03428388081011332
็ 1
1885 0.1980031168078892
Arch@@ 0.08592014740706101
Bat@@ 0.07932365834603143
Pa@@ 0.0745142087755759
Pot@@ 0.12465411504264358
comple@@ 0.04433303362262801
ecture 0.07532162942797029
less 0.04850788113528497
soci@@ 0.029128701267850228
tors 0.04944458948310625
Fal@@ 0.13339338530555148
Mit@@ 0.04522761061771919
ania 0.06502782498457992
ebo@@ 0.18520206418588211
osp@@ 0.126857909622846
Force 0.09821900669849441
Ha@@ 0.08971227588449611
Nav@@ 0.049368217387171794
ants 0.01782713319719451
fa@@ 0.016928538614970116
ilia 0.34405767388181874
中@@ 0.03145470066520775
Louis 0.05875120434000626
erry 0.0967307726681135
BBC 0.1357271334985737
oo 0.19581303250543616
1892 0.19576720656530933
ards 0.0337966414895891
bro@@ 0.02744323887940139
cine 0.11963160835128131
ix 0.06161127220634148
ori 0.1567819985063145
wal@@ 0.040883950220722214
All@@ 0.0801724019101667
Cath@@ 0.12541851834153886
Sen@@ 0.04056083212175079
Syn@@ 0.11695856490638967
Ze@@ 0.040334550266271335
Rap@@ 0.15983322415273887
Rol@@ 0.07108502296676528
Saint 0.025831058917649887
ability 0.061187679027295556
cho@@ 0.04770547803348248
ects 0.03298920404401191
ust@@ 0.06618935630818448
1850 0.23022954403349533
ech@@ 0.031119201001531694
jo 0.03981648600046679
vent@@ 0.05363942695060827
1894 0.19362613976234105
Jac@@ 0.10142769614738223
Kam@@ 0.10541704953073876
cell@@ 0.07682141232023516
struc@@ 0.029119300026121227
yan 0.08968520514673525
Kim 0.1841938503962023
Web@@ 0.1331036897643231
ani@@ 0.054055708841289435
cat@@ 0.03914689187332908
not@@ 0.019023971249616568
well 0.016516417691259756
Bri@@ 0.06890483547922563
Jus@@ 0.07438731373170733
even 0.04307901766642113
pin@@ 0.09097850560989446
Harr@@ 0.07297293360160184
Ven@@ 0.0884264228290054
ci 0.060954909615733084
flu@@ 0.08555708951366559
Do 0.24542366053378808
aga 0.09389913214667116
cel@@ 0.04083654894305122
nh@@ 0.024904635594032592
prop@@ 0.026362763794087783
win 0.0399892353912314
—@@ 1
As 0.024098959372386552
change 0.05040154987579577
ck 0.0686967121879359
equ@@ 0.05011485123469639
sal 0.1691541476197606
Revol@@ 0.10160645587978134
ages 0.017876192803862347
ef 0.05138293358946932
mun@@ 0.05584011132828241
ories 0.054917542444213034
Bet@@ 0.08110202576924634
Spr@@ 0.0496078966703328
ri 0.08667892713961713
sul@@ 0.18527214636653846
sum@@ 0.043003671943303165
vention 0.08057516019354252
ē 1
Hay@@ 0.14028895735480085
can 0.015727929648021728
ga 0.06716291417096487
iller 0.06160333475574657
kin 0.12067669531821061
lem@@ 0.04453671141491343
phy@@ 0.10972050228992108
Long 0.13432218278843364
azine 0.0658157644091921
bri@@ 0.041790740858145
1884 0.20793725292608692
Eu@@ 0.1486438180116527
Wol@@ 0.06287580044386788
chan@@ 0.04329076943418703
ference 0.0638226195890254
first 0.006332628863794942
format 0.1488981512988083
get 0.049386255507442606
left 0.035303931924182144
lie 0.06311624131351277
lob@@ 0.11788030835353754
pha 0.23155595478079655
い@@ 1
UK 0.07298375233509474
art@@ 0.04973188665118815
die 0.001582587474254598
type 0.060584378879753834
1886 0.2002397751310773
Joseph 0.06165641319820113
mb@@ 0.04101860302476361
region 0.05665979982360082
ton@@ 0.09730126118028881
² 0.046355668206884075
人@@ 0.04882257787214017
1861 0.21026971558905358
Ka@@ 0.20296383587511416
Kis@@ 0.3741208778133443
aff@@ 0.02402191439423094
agn@@ 0.04896543254298487
ends 0.04876362208714523
rol@@ 0.06511358345351777
vel@@ 0.02667028159333145
Div@@ 0.17644112402239523
Ram@@ 0.07395376370719281
urt 0.046360380143766394
zo 0.07401442655928481
太@@ 0.10525038121799309
李@@ 0.14331895665502442
1862 0.21482686044630378
Bot@@ 0.06220136210092481
She@@ 0.11187106277565316
ila 0.08253375791721279
ont 0.015208797582115338
1891 0.18483228738297225
Alli@@ 0.12707836698145622
Fel@@ 0.07319939416858627
ille 0.028151218711110173
phot@@ 0.06432789772015968
po 0.05285770728791006
pur@@ 0.030134554983599085
Juli@@ 0.0671956577466512
Steph@@ 0.10575574328977706
class 0.06175926998502224
esc@@ 0.04379151232167912
teri@@ 0.08301031141131915
text 0.09400500738253566
Cop@@ 0.1438081020696903
Mach@@ 0.14388040994180756
din@@ 0.06487126542422486
gh@@ 0.08374892385334522
outh 0.053273604490140465
radi@@ 0.09300353482994214
1866 0.18337815410235953
De 0.030967402949930434
depend@@ 0.07103167507141459
point 0.038740578440434735
’@@ 1
山@@ 0.08274604584549118
Acc@@ 0.2327248729170723
Ba@@ 0.11514199687232261
Den@@ 0.04804275252631301
Govern@@ 0.054255451719411575
Maria 0.08249452781063024
Sor@@ 0.138397164570546
inde@@ 0.11814857505411357
let@@ 0.025243998512630438
more 0.012158417132647602
off@@ 0.01265787204231162
oman 0.0762673706881643
Dor@@ 0.044605545313614756
ban 0.05357138872622148
ous@@ 0.11913143442270728
play 0.029575756627245396
sal@@ 0.03186126804188664
tice 0.0448680762035049
_@@ 1
pa@@ 0.03594759300761403
Ban@@ 0.07340021397844235
Jan@@ 0.07385432739199801
ado@@ 0.15851816588749745
onom@@ 0.05553171964342943
・@@ 1
France 0.02126913229254169
Prim@@ 0.07671338029013228
lum 0.18557917759409312
mit@@ 0.019060106828918077
rac@@ 0.04265891421465588
ves 0.019831670346144914
amin@@ 0.12398920607779701
anus 0.22099638724103798
bin@@ 0.08125367932778167
box 0.1256416937183633
chi 0.08029215842522136
ech 0.06964081915825297
music 0.029586938774377278
~@@ 1
Clar@@ 0.08063986337302612
Liv@@ 0.13323224916572518
active 0.06617506525376195
ority 0.04856705851613787
ural 0.05916043128978526
vari@@ 0.026187902968176427
vers@@ 0.029882756907976756
Fil@@ 0.061458281185742245
Men@@ 0.08359689613876504
Tan@@ 0.11879077521279514
mod@@ 0.04992960284712992
next 0.049857978838057225
ua 0.0643837793295175
umin@@ 0.12156893185946613
） 0.010108397221395745
Yo@@ 0.2626871443383694
retur@@ 0.047930732567777995
1864 0.19548637066042396
Ash@@ 0.1225325926971701
Ol@@ 0.0706219181692973
anda 0.07346029563574956
ik 0.034789166976449404
uri 0.08930426167941173
Ann@@ 0.11675458403059015
Som@@ 0.05604091095917902
ip@@ 0.0693384400407383
pop 0.12548789069018562
yle 0.0912454526731311
າ@@ 1
Geor@@ 0.04098392574522279
mil@@ 0.03844318782722576
opo@@ 0.206292879950118
yon@@ 0.09613440806047385
--@@ 1
1863 0.2014679105936288
Far@@ 0.05552620519934862
Liber@@ 0.06873429257521078
astr@@ 0.05767549692367323
contr@@ 0.013843902384742314
contribut@@ 0.11892603717360581
fied 0.03569064730655528
uf@@ 0.02298584764673567
َ@@ 0.21143056532408863
Cru@@ 0.11269160854581176
Tim@@ 0.12459619791013335
ais@@ 0.032683757854135465
based 0.02511140982003941
eta 0.052769732004144664
men 0.014221400408065493
pon 0.055138581912336206
1887 0.18517006898093147
Sain@@ 0.12010701901994453
ali 0.06577170501426564
lis 0.08955337143467267
ト@@ 1
國@@ 0.05258287782903731
1879 0.1981100447497532
Internet 0.15324323590270625
Ly@@ 0.1066031311632286
Na@@ 0.11582143823475019
Tar@@ 0.08604464609939357
agr@@ 0.08195661248133475
ati 0.08860785881477723
dri@@ 0.044716554029585534
estr@@ 0.02914687853755843
xi@@ 0.17747999309235024
County 0.022984391939791973
Democ@@ 0.06713676526356757
Med@@ 0.058743298865625564
Museum 0.060457335570363
Tun@@ 0.10650879753237454
ats 0.018682563001648382
eth 0.0911808967725443
hips 0.03387808671600986
uki 0.2824562351711638
Ale@@ 0.07250681988909323
Nar@@ 0.13831782555540034
kar@@ 0.0465216586116976
ord 0.10801409595152157
1882 0.19186581069010622
Gh@@ 0.11444633512097466
Kan@@ 0.07006482309889824
Mol@@ 0.07838628088438301
Sav@@ 0.08962342591445978
dig@@ 0.029430561836869634
tho@@ 0.0391743864885902
uli@@ 0.11313808846970409
1875 0.20076266111087565
1877 0.20109323679106475
1881 0.18743767339391848
Astr@@ 0.15644227880421205
Az@@ 0.11068790711976606
Ig@@ 0.09258208833613124
Max 0.12497967767266566
mu@@ 0.02533513929741392
pel@@ 0.04145581960163191
tural 0.03966084016269338
1865 0.19071814428576417
Juni@@ 0.09596732623290624
Lord 0.09608060727827732
ault 0.08281681074441584
ava 0.0876078230363611
don 0.07423790946685674
game 0.02385422177927499
lab@@ 0.04397250343632624
out@@ 0.026185128571502292
tus 0.19075125158497
unter 0.01558435740894618
Al 0.04522187646531183
Football 0.06566608315065922
When 0.0399296650777483
iger 0.03781104792076576
ister@@ 0.03568331854646613
sim@@ 0.027666214028736737
tern@@ 0.09187871580359067
ul 0.06213302092484899
ク@@ 1
Edward 0.09022548996151795
ii 0.25295695902031096
land@@ 0.0256338430224061
Ali@@ 0.13686248196100156
So 0.07625578262523494
Tour@@ 0.07514525144596446
sing@@ 0.036456659820266794
Jean 0.035568313213843135
Microsoft 0.22483976571081635
^ 1
ier 0.03496151982799748
mittee 0.05571706432456018
plat@@ 0.039886167815996534
som@@ 0.06042806500040186
tures 0.04101391235147146
ums 0.032611426571981995
Mari@@ 0.056381117890370716
Sak@@ 0.18418404244824418
uni@@ 0.02356972803070285
California 0.043603170901082705
bot@@ 0.05420252235249501
bus 0.07902305538955956
mas 0.10557004781354197
sor@@ 0.024975472446219296
Ak@@ 0.05117100450534005
Bec@@ 0.0949097671828688
den@@ 0.020477105965539463
dren 0.2390217059731602
head 0.03957634061041747
wan@@ 0.06603409792769002
Ju@@ 0.04615332716167353
Mary 0.06906425779937635
Ren@@ 0.05181974522769829
alb@@ 0.03694470093817871
bir@@ 0.034868956779008906
ius 0.1374142911625294
lem 0.08063126436944461
tia 0.13251114479681247
Eri@@ 0.105677570132034
Loc@@ 0.06715041834760978
ball 0.032223824525216424
ment@@ 0.04675128357540531
trol 0.22481209186026432
umi 0.319151321849767
USA 0.07311520592000824
bon 0.08212634125157557
cha 0.03530415262228589
pression 0.08514271677008725
An 0.040459750429849194
Enter@@ 0.3005853318071157
With 0.05371337996673359
blo@@ 0.06849017801197516
fa 0.16639545153608193
hol@@ 0.02851084104212237
ô 0.10322271457715725
ッ@@ 1
Land 0.0746002170181183
chin@@ 0.09360734082649771
Eur@@ 0.06904172254933727
Johnson 0.10170250208423126
Micro@@ 0.35696210876420204
fri@@ 0.028146069606506216
leg@@ 0.01431978130228126
ods 0.04648164086460128
tol@@ 0.0821861604280521
シ@@ 1
Nak@@ 0.2359679076284038
alist 0.047222225790024185
ito 0.03254314389895401
ski 0.046912308094948584
tel 0.043080790962798265
1883 0.1838510696951648
Alexander 0.08070146360486262
new 0.012095946501243116
others 0.038074293853316704
リ@@ 1
南@@ 0.045748205031800854
Los 0.01879043612517704
Roman 0.0639080235344385
lam 0.13022322510856693
mi 0.04549049375281422
­ 0.36939963590440805
ì 0.17843847608305405
Brit@@ 0.0642446679885145
Kir@@ 0.03855630940895475
Ku@@ 0.11031886357059767
Scott 0.10555202175314024
coll@@ 0.0171097793532471
tal@@ 0.03426444486808567
Chap@@ 0.10310061930215075
ame@@ 0.06586006446306668
che 0.011256118649606458
dan 0.048790613893834045
ier@@ 0.016224506840142695
Centre 0.08247829983155773
Paris 0.026144940985137033
any@@ 0.06472847679869881
文@@ 0.0511795150469603
Ji@@ 0.21232455066786124
abeth 0.0798152597691639
aly@@ 0.05355275465156151
color 0.08102926215496488
cont@@ 0.016669259682420143
sil@@ 0.04056195886786926
squ@@ 0.046366189296620036
ways 0.04375940021720607
1872 0.18568813257236394
3000 0.2541233844055386
DR 0.12033576310449882
Ori@@ 0.08973875152451556
esia 0.22469145236742
lip@@ 0.12824707655954587
ule 0.040602140209329014
version 0.031831871722170384
vic@@ 0.019198197083149314
} 0.16636086427479058
公@@ 0.03277374306044407
Cle@@ 0.10337681457340353
Franc@@ 0.0783078376606107
Sto@@ 0.058277414632071436
emple 0.1712493975084535
inger 0.05575249011599293
number 0.01903230583681735
ose 0.08358155085510957
stand@@ 0.02311306833726268
uv@@ 0.033895563229115196
wer 0.04066416277344608
ស@@ 1
Hom@@ 0.08662998018343128
Kin@@ 0.03781592664776288
bat@@ 0.02770263596679017
rent 0.042163269938777746
CN 0.2768853504487311
Haw@@ 0.07639726151483885
Land@@ 0.022873125690440452
Natur@@ 0.06879952525537762
edy 0.06510744337998098
1873 0.1790090744826326
Alb@@ 0.09739769954554231
Dav@@ 0.05812616634635701
England 0.03515144342553363
Tit@@ 0.08506212131984549
\ 0.2506681654432855
area 0.019024263794120273
bal@@ 0.035243541782663305
chem@@ 0.0589595070242307
control 0.04496095215762977
ika 0.0672144603597357
mid@@ 0.04878677316536753
rich@@ 0.027614225028731332
thr@@ 0.03827506080518345
်@@ 1
Bow@@ 0.08715401842436153
Ky@@ 0.14019916770210805
Num@@ 0.12721565208564678
burg@@ 0.07797498595804175
partment 0.039631496902490196
ville 0.017298957732352835
ā@@ 0.05628251343377771
后@@ 0.16091237477930176
Nag@@ 0.13049295784896803
forman@@ 0.3062248627614804
identi@@ 0.02151353622620966
mol@@ 0.06110528997572115
stein 0.04064376799471028
them 0.016824791794734003
we 0.040196652190143005
wi@@ 0.022490596085590515
ê 0.12353426425373591
India 0.03932452721982029
Jap@@ 0.04259653672382537
Prin@@ 0.09430498858488871
Tran@@ 0.12946433328849155
atre 0.05932186484425879
dou@@ 0.03098706095161039
eil@@ 0.05512165995383204
esp@@ 0.02233041783060371
iro 0.0808776089070187
itz 0.029483657673451843
neg@@ 0.035400873699886135
nu@@ 0.046083064868937935
Law@@ 0.10117813655797106
Rh@@ 0.054873829603945906
Rog@@ 0.08262356609300416
cher 0.02727880469824672
eri 0.07627559559749068
ists 0.025205044636143155
ux 0.022643043477017337
xim@@ 0.028707846331274992
ื 1
Conn@@ 0.07542087474308372
Laur@@ 0.06894317330607555
life 0.0174654066284375
sig@@ 0.01899735688781187
1874 0.1757405606335541
1876 0.1668358193157609
Archit@@ 0.07995744924359621
May@@ 0.06367540869587875
Ot@@ 0.048578242275002466
Sus@@ 0.09536179704370587
ament 0.05233822764180974
augh@@ 0.024939226593286613
ept@@ 0.07648899788349252
ops 0.044948556810236594
rea 0.06365402507822517
tempor@@ 0.06915635873267025
ures 0.02773302802085003
yu 0.3087188231563573
Lake 0.05845484304423461
Phili@@ 0.06260395700211338
eum 0.07130928814231659
have 0.006599666646754344
ny@@ 0.12835279542017114
ow 0.03795702179800026
unk@@ 0.022725718054487955
wat@@ 0.05037536823194353
Est@@ 0.023589951989432686
It@@ 0.03810530663436188
ado 0.0039597419158724535
gal@@ 0.047577054068626945
ze@@ 0.021070303592513533
ម@@ 1
国@@ 0.04989029527981101
宗@@ 0.21892277070185565
Aus@@ 0.011933707554574229
Comp@@ 0.11727631814624674
Hosp@@ 0.08826372762849255
Jack 0.09145298206475312
ega 0.06997099561955107
mark 0.07066493402096856
orial 0.04638188264826966
sky 0.07705402012836132
Def@@ 0.09195504265431076
las 0.004141931399131177
stre@@ 0.031650490816673545
（@@ 1
1869 0.18143398748356473
Dom@@ 0.06715786152132258
Kat@@ 0.05609136911935183
Sin@@ 0.07045511739052605
aining 0.02979160830148963
comm@@ 0.015296201274674417
dern 0.043533542605239964
elli 0.09655624387775996
long@@ 0.03469146147337967
Austr@@ 0.052223537351554224
XX 0.12014054441013895
bet@@ 0.035472684369177915
gia 0.035387430474469836
ump@@ 0.055032401492466236
zi@@ 0.018098509853421055
三@@ 0.03558815259085609
Af@@ 0.04677536335625398
Brown 0.08148509033532102
Mod@@ 0.07992537634190691
Nik@@ 0.08978889355543539
con 0.003973846489479459
ham@@ 0.09503358968116217
ogr@@ 0.13546482011569191
usi@@ 0.04928412868487
Bru@@ 0.04399875213474088
History 0.02608366840309745
ji@@ 0.12867427324471933
ked 0.03051267356258552
lim@@ 0.04431861964846135
wo@@ 0.03997125095885001
Bern@@ 0.06247495497656108
anga 0.09891861825036793
eer 0.03755554664991174
hai 0.05733727145552139
he 0.002479471981355343
otr@@ 0.2343343639728302
umb@@ 0.06866620908030338
š 0.2808458139809122
District 0.030110071690076696
bac@@ 0.09519353395868757
data 0.06924665288130327
kr@@ 0.03416036825642208
mul@@ 0.06267444685253683
oa 0.08938482562103653
sion@@ 0.039092056352181624
ន@@ 1
、@@ 1
Jer@@ 0.07253771136637925
activ@@ 0.020948872729755312
alg@@ 0.04544828126627071
ces@@ 0.023858072256149557
chil@@ 0.045069182498656254
ex 0.07109231137853265
extr@@ 0.033213936362701604
ishi 0.27712720071178343
under@@ 0.021358720211189522
β 0.31254033380654583
日@@ 0.05157846066759302
Christian 0.04860828791945523
Division 0.03367425996666884
Smith 0.0566420455693656
！@@ 1
Army 0.03945859747160723
Church 0.03834911326718236
hav@@ 0.0728875805082028
itz@@ 0.02404721156904027
lay@@ 0.09269811339802442
omb@@ 0.05760141651525344
only 0.010748879996491026
tig@@ 0.01744929231194413
will 0.018987278912120244
Der@@ 0.06641090154159024
Kal@@ 0.059451633081661494
law 0.03407520681099391
ministr@@ 0.05355585168968484
mm 0.05165915393004555
prise 0.05459670141468827
sign@@ 0.04968692454010796
‌ 1
Anth@@ 0.09679996072114296
El 0.006365362771357598
Kon@@ 0.017206583755981646
Mand@@ 0.11034380537129944
aer@@ 0.11279121162027991
def@@ 0.020965056853934273
idi@@ 0.04302044886333641
lin 0.07109591902866208
perior 0.11097559282986713
ric@@ 0.037818756525048326
versi@@ 0.03316853749394242
æ 1
ฅ@@ 1
From 0.038011853856975086
Hen@@ 0.10441054583284234
Hir@@ 0.1063400440321347
az 0.039293483993637114
eck 0.06508436068425297
ites 0.039249232530667186
tain@@ 0.03145641762049807
would 0.009712114106648878
yn 0.08670982637992301
Bak@@ 0.07685559343847509
IX 0.19228037198600265
Jackson 0.10049813532178861
ago 0.059868309912636385
rap@@ 0.02365629139928883
sey 0.09801287949503042
station 0.01952476323663309
Cu@@ 0.0604814706693499
Lou@@ 0.05824314475282523
dh@@ 0.06967697326785861
sus 0.012301690049842507
trac@@ 0.0350308654478434
Patr@@ 0.05176608136580613
Rot@@ 0.06561740790089458
anger 0.07340876618338503
ario 0.02052024842291774
ark@@ 0.0538824545693931
fu@@ 0.02026732554752469
fus@@ 0.07779435278832812
rot@@ 0.049653729550746865
Ah@@ 0.0800540132718574
Ath@@ 0.05036054689414767
DV@@ 0.41065642441165295
Sab@@ 0.07972271732757263
aft 0.037049563612231946
album 0.012225765910613787
book 0.02963772052075947
bot 0.11333643374033252
bridge 0.04748948187649929
olo@@ 0.14457815933572632
round 0.033818019207427476
รรม 1
武@@ 0.10221335931983355
Arm@@ 0.06240631733087838
Radi@@ 0.12874440849321891
ett 0.045546515060462124
fil@@ 0.021426984469918378
lit@@ 0.027932122016354095
ols 0.02719037661450635
oni 0.0814963985231733
ots 0.038944450976682025
site 0.02240473522667745
trop@@ 0.0532970334901897
ア@@ 1
元@@ 0.10857432102299283
Die 0.0038058246460886767
Real 0.08957663561544345
Tem@@ 0.0794702766926466
amo@@ 0.051335419146055744
isa 0.07396844660990762
ony@@ 0.060149025976379056
polit@@ 0.07562110952209025
แ 1
Bay@@ 0.0530261526505895
John@@ 0.1131780866042444
azz 0.077448915343861
ident 0.01934547951671818
ities 0.03571093517250266
med@@ 0.028557006152972776
vers 0.014574766475944636
zen 0.02897838488475435
‘@@ 1
Dan@@ 0.04066447516648648
Hill 0.06257740446357465
atin 0.060247781403073616
bers 0.04794110727564635
bon@@ 0.0859313861523295
sin 0.03645896223940392
single 0.022225685682278406
top@@ 0.0914765070974862
tric@@ 0.05515965080332409
uel 0.0560073584740459
Bil@@ 0.0338544926234432
Nam@@ 0.08687713414032634
Tom 0.08687777740543495
don@@ 0.031242309299960528
les@@ 0.030740474450394295
mati@@ 0.08693377795840634
produc@@ 0.015221567799529507
°@@ 1
Gor@@ 0.09084783155269922
Indi@@ 0.03381049890724756
Rod@@ 0.06705104551852677
Sat@@ 0.105138543074478
ager 0.030931240913747892
atis@@ 0.047866196031604004
bo 0.09272784516886691
itation 0.06606212563982465
sing 0.04494242849766214
yi 0.11124830590920518
Ki@@ 0.0644439544795482
ando 0.010031007876698392
into 0.00740393112069743
lag 0.040265115725349056
mut@@ 0.04377092424184248
ords 0.03494880237743542
神@@ 0.11700384537462624
Arthur 0.08594623066101412
Bos@@ 0.06900917942191263
Cou@@ 0.07308867760300415
Gran@@ 0.061128177098561526
Hab@@ 0.08192896795787641
Indian 0.04371623763891333
Jor@@ 0.07663596938698301
Lam@@ 0.08929396445444572
Sir 0.0670803383425504
Tu@@ 0.08627818105405984
bus@@ 0.0179814225970505
case 0.040375173166464315
ela 0.03193807105492168
spe@@ 0.0267867381772522
burg 0.02625303031226236
gir@@ 0.04250103683640809
match 0.02856654216523596
nov@@ 0.028325472513307026
oli 0.18208557988897653
osh@@ 0.1611431359013525
な@@ 1
海@@ 0.03651104904953225
Jones 0.07467045793404277
Mont@@ 0.04079016861052751
Person@@ 0.04702215405337905
Scot@@ 0.03818716691089863
aire 0.009969861408457069
iss 0.07994365936228327
ker@@ 0.04750444761922106
position 0.01674273823902881
water 0.025795006578029942
ภาพยนต@@ 1
金@@ 0.060099787307459865
Don@@ 0.06329105441995528
Eliz@@ 0.08873264666297846
German 0.028054502098760942
Gil@@ 0.07188472204822752
Red@@ 0.065067621215661
Syst@@ 0.09066691388001098
Var@@ 0.09882285993359606
Wit@@ 0.09623205496180814
ador 0.01646345993071731
ald 0.07432014707706078
bar 0.03301728231929622
iri 0.1538689384108657
ku 0.20529597954729187
like 0.02031546165967123
take 0.03664620922890056
ダ@@ 1
平@@ 0.05495297929272556
French 0.02609602309209643
Mik@@ 0.10357517161786266
af 0.09142255524250179
ais 0.0189692567511118
come 0.03248642256136829
lus@@ 0.060314105902967055
ois 0.07874196544377346
org@@ 0.05400591115472234
ទ@@ 1
Bay 0.05746065297092541
Rev@@ 0.08767569250718343
aba 0.01763815688497264
ert 0.010964986736180219
ges 0.026946136728714737
mond 0.061893037372190804
nom@@ 0.027064519385401338
span 0.23205885791104966
Hug@@ 0.06720914864773167
Kenn@@ 0.06621896743597763
abil@@ 0.042281991958188395
idea 0.06862761926044735
var 0.1554961026288522
ven 0.020222234125797822
video 0.03392061506165855
zone 0.0661407763992231
‎ 1
May 0.015547709929815254
VI 0.11399542759193888
andi@@ 0.12578879426454143
rev@@ 0.04257566885506005
sea 0.044919051700041845
termin@@ 0.03027899638076289
α@@ 0.04664708933866041
−@@ 1
Ben 0.1123608862394431
agon@@ 0.0605699239377006
anz@@ 0.017268765065622693
inus 0.19041833097225022
national 0.020216855831060317
second 0.011521648819899782
semb@@ 0.033620412400633196
which 0.0029464298825072864
新@@ 0.036146790293922676
After 0.012858298411707636
Sand@@ 0.06045483245814842
egr@@ 0.06843953633547369
eria 0.12088063698747153
has@@ 0.11634906593868675
power 0.032375758665139164
}@@ 1
ñ 1
，@@ 1
How@@ 0.0798626334640918
Lar@@ 0.07726098627284003
ben@@ 0.021490508726415194
ew@@ 0.04017009642102561
media 0.042408454053686054
mir@@ 0.049916869555589695
uk 0.1093465491924754
vin@@ 0.062596830508675
where 0.008614365885053554
ø 0.6210277656943858
カ@@ 1
COVI@@ 1
Joe 0.08740557432822127
Vel@@ 0.10741804132439699
abri@@ 0.04471510758233676
aun@@ 0.069325949167983
ected 0.013980103876325126
house 0.024960060208370438
oi 0.11000223751216129
trav@@ 0.020511206586284286
朝@@ 0.17171255537130922
Moh@@ 0.07742343226696538
Santa 0.04416305300207437
Sul@@ 0.08612560956103471
direc@@ 0.011814492480092774
ington 0.038384156521218724
mes@@ 0.03175668645026535
over@@ 0.021538559891563898
sequ@@ 0.027659517095728257
ser 0.019006614375112234
tre 0.011268634729173695
Rich@@ 0.033864689024007154
cos@@ 0.0908795907252863
ester 0.0386461703209872
sk 0.08892618261799583
then 0.009692437666573527
明@@ 0.07623367547314355
西@@ 0.022614905330758717
Bon@@ 0.055371439924146885
Tou@@ 0.0988584175844185
aud@@ 0.08878571852267853
fas@@ 0.04827444351804175
ij@@ 0.0746808360734245
pas@@ 0.01615171655251464
pes 0.03065442622849772
tas@@ 0.08207268796332892
ī@@ 0.17275991891069556
Ari@@ 0.059850079288046004
Dur@@ 0.05427903506136633
Joh@@ 0.05073199501206517
estra 0.054195743350627344
ev 0.09064513592169386
jo@@ 0.02742685942329012
syst@@ 0.03787780787086266
trol@@ 0.06395506028901575
were 0.0025297601713473706
Ay@@ 0.08189817111578883
Hit@@ 0.08637407585464234
Math@@ 0.09142878873325334
any 0.018758245743319822
dist@@ 0.015719561205451982
fic@@ 0.01464313611742311
play@@ 0.017237164510781465
pri@@ 0.02187614168211247
ْ@@ 0.46349344551156285
一@@ 0.009431380732554057
安@@ 0.04478513810883964
Buc@@ 0.0808284301444974
March 0.015132740315337794
Mun@@ 0.06343229475099346
conn@@ 0.01722605600810494
cons@@ 0.010346433559624148
lot 0.03606981938176406
major 0.023636116683086027
people 0.013279910569607884
plac@@ 0.019379262997435327
ston 0.07058657925110551
ã 0.2345596870278921
Disney 0.11736375854278773
Les@@ 0.09068725970392583
Marie 0.054778107176044095
Rum@@ 0.13327817916148607
Town 0.07164144326941031
asa 0.054819393603161466
gether 0.03268077239573231
mov@@ 0.01825186094238308
zi 0.08785345099107546
Fol@@ 0.022810164426987814
Her 0.04478824330588909
Mes@@ 0.0834713830627011
ills 0.045421700989415746
ished 0.02077750330373663
olas 0.07334813646245848
peti@@ 0.029197733420409794
tal 0.05510135717460802
ustri@@ 0.08004542897172992
マ@@ 1
Daniel 0.0657108714541458
Ern@@ 0.05295282572283158
His 0.016654349941010716
Ker@@ 0.06674148737854399
Pon@@ 0.09343473101249343
West@@ 0.026599626182433767
eau 0.02077019490235247
hip 0.05363130253336026
ista 0.015254435373926714
rock 0.0401098937875425
sour@@ 0.028509894126011057
track 0.03576550976557708
ules 0.04556820187331081
វ@@ 1
ん@@ 1
江@@ 0.09553010057524444
高@@ 0.03531510093212767
Columb@@ 0.058730177661772034
Frank 0.06672629609051851
Karl 0.05771944483509864
Kas@@ 0.07575345243767831
alia 0.10783791970819093
fle@@ 0.03761918247218166
kg 0.10591888166074184
orum 0.1864802419101583
sci@@ 0.042787283134534365
sis 0.19182905408556497
war 0.003551558007885424
ド@@ 1
@ 0.5549996412293188
Bol@@ 0.04119178619480829
Les 0.008551919967446898
Oli@@ 0.07041346185557207
Whit@@ 0.07587946775446562
ece 0.028036585109467688
lines 0.044514013241635245
mad 0.09011365665749288
many 0.00945372114867566
pap@@ 0.028231018140967616
viv@@ 0.0335593096288587
± 0.5497602344358761
か@@ 1
ジ@@ 1
学@@ 0.038985326027583395
이@@ 1
GC 0.2872557442249339
Gra@@ 0.056038265837268765
Maz@@ 0.11861800986129721
ades 0.022428953667968096
iko 0.10391423655788967
ishing 0.037867083862748854
sexu@@ 0.042875007967833445
レ@@ 1
城@@ 0.0888201171065386
州@@ 0.1450662263808765
Leon@@ 0.08857762123125855
ag 0.08598497510590186
ander@@ 0.03753715651288157
ges@@ 0.01244974489529431
ju@@ 0.017575863294261165
kat@@ 0.058783918983234644
mes 0.017410000728864932
sit@@ 0.01915169284491752
speci@@ 0.029762184350881838
ingu@@ 0.04371417706559396
og 0.08322696384736278
Beg@@ 0.03246573364014805
Vit@@ 0.12586185098762695
alt@@ 0.01656365421967754
board 0.0441279498982875
ks@@ 0.0368628500247638
san@@ 0.041849244719378946
stat@@ 0.018918272924602658
‎@@ 1
′ 0.4284046856061702
Angeles 0.04717407098160756
Rail@@ 0.041060503935684
cial 0.022086507547244668
ometr@@ 0.2575589830617375
positi@@ 0.021593860630234486
Pierre 0.045057883556239346
VII 0.13686735317120197
ordin@@ 0.034015815483791484
tha 0.10179912850268501
under 0.008646379061399818
uss@@ 0.026279361324813615
wil@@ 0.05674240876340721
ក@@ 1
之@@ 0.025694718150806546
Am 0.0195473930764181
FIFA 0.14484928340729963
Kit@@ 0.1081251806939544
adap@@ 0.03898463540781183
aja 0.07037453631744747
combin@@ 0.03962520432836381
eing 0.06959476024929453
ele 0.018550809858963554
hiz@@ 0.21474850576896973
lic@@ 0.03257662325607918
stud@@ 0.024007398824991366
vid@@ 0.02155887955462661
Ali 0.09487174717848554
Jam@@ 0.07473722356075427
Mass@@ 0.04437844983093425
Rou@@ 0.033312012391322816
mach@@ 0.0327998646023707
otte 0.05726852203771761
plan@@ 0.025962830640747014
rey 0.04202875803211489
uma 0.09322375806898651
By 0.0310569705044116
Lon@@ 0.1761887208792108
Stre@@ 0.0647624293409631
but 0.004171760641232014
conver@@ 0.04304616454063784
ional 0.04183514494614892
ob 0.06125165269873849
oug@@ 0.04830658678103333
ui 0.09764080456519553
μ 0.17889113901884174
ာ@@ 1
☆ 1
し@@ 1
Lat@@ 0.0507181603407828
Ok@@ 0.1039877268519965
Seg@@ 0.04546844641629026
bury 0.058987998454445176
cou@@ 0.022010522017359868
doc@@ 0.031122530254688165
family 0.01167005783640012
ize 0.052451762124442546
onder@@ 0.10106241012717168
opp@@ 0.04126166361457092
spir@@ 0.046368134800209945
through 0.010756069763008991
ular@@ 0.0318722684361429
Name 0.05466998354858939
adr@@ 0.031165673384483113
bs 0.027223962062624476
cli@@ 0.032825256758628206
ho 0.1321897328572332
iki@@ 0.2223262830929454
nes 0.01771007021468109
oks 0.030680540921899785
oria 0.06428736566395707
sam@@ 0.06762333015384954
social 0.02813767036968136
オ@@ 1
道@@ 0.10549076870277192
aha 0.13948243264280902
ains 0.01449368530005303
ands 0.021753888523459986
aster@@ 0.06672756983798765
centr@@ 0.032426981718668015
eller 0.04754384445890894
hel@@ 0.01704393524065112
mo 0.031855339269234284
oy 0.11536346766214248
usa 0.08897359612764077
zu 0.003231996338705964
ə 1
π@@ 0.029648479438116188
ロ@@ 1
AG 0.0927002892193937
African 0.043993458407339765
Hung@@ 0.06893298453073611
Sher@@ 0.08032381357954416
ble@@ 0.056392880667961345
dra@@ 0.02771650254076996
eu@@ 0.06967838689951757
je@@ 0.015368717376193698
mos@@ 0.04074620276918933
organ@@ 0.038081028630762785
polis 0.078321894590019
ses 0.006457252779790405
test@@ 0.03996250692616334
unds 0.033439443477480034
ł 0.649432093543781
ウ@@ 1
漢@@ 0.23422248837357532
Aug@@ 0.07469702409063615
Cab@@ 0.06996905482436817
Chicago 0.041635727088571856
aro 0.09106118875954995
asc@@ 0.05819756175188716
kel@@ 0.05255716093799682
wa@@ 0.07679723620504854
地@@ 0.026485956957172315
Hand@@ 0.032991348787525444
Ing@@ 0.04590720161391464
Kaz@@ 0.09576863139857826
Maur@@ 0.05692852683763128
Washington 0.030123830820479088
aqu@@ 0.0318494023366505
bu 0.033075706831284316
fal@@ 0.03301826544629845
ific@@ 0.029953374349657894
nia 0.09526875337432479
pain@@ 0.030609728393484
two 0.004521709008370239
ត@@ 1
ャ@@ 1
Has@@ 0.08575186035045593
Hil@@ 0.043314556520083675
Nat@@ 0.09507858318338501
Tam@@ 0.062230761127817474
Van 0.0690994136997737
XX@@ 0.14423659752957266
bi 0.06672409750145605
dol@@ 0.041226769649627126
eck@@ 0.04224887250782875
ird 0.11866363031824488
isch@@ 0.017519047520016984
nati@@ 0.029853181489398195
pic@@ 0.0373008995896037
rain 0.05679861351017223
ǎ 1
Albert 0.0639631194893761
Din@@ 0.09809454619711494
Mill@@ 0.07182986559018747
Provin@@ 0.029086601407143045
She 0.009089287413268272
cho 0.011709234066780556
cri@@ 0.012349452950607106
his 0.0016022351780527677
level 0.029595749350425412
tu 0.09415546595339261
東@@ 0.05991044493334796
Pil@@ 0.07221117007353409
abor@@ 0.017295466430708215
bin 0.0963628552917619
but@@ 0.028145370699531935
ift 0.13458763019808953
imi 0.12177496047840451
min 0.1048381439273568
onald 0.0653604541650769
tak@@ 0.012574516089701478
tica 0.019943138234533996
wn@@ 0.03767826753311577
ِ@@ 0.18240438758900795
劉@@ 0.24269115059892749
왕@@ 1
Sig@@ 0.08047532258368151
flo@@ 0.026812775450696203
football 0.01767294092662479
uh@@ 0.03688939936684679
vec@@ 0.08725288385438505
မ@@ 1
バ@@ 1
北@@ 0.029703482604389694
Barr@@ 0.07223700487693391
Eg@@ 0.05090165578622508
Hat@@ 0.13970450160131836
Wa@@ 0.10775733214292259
eki 0.2943261115126875
endo 0.017869114465397785
ete 0.019173489352502
gi 0.11928074723647045
han 0.031113306185207287
reduc@@ 0.04366666869178399
school 0.012351684461565236
sions 0.020252921483880262
uld 0.032898821475008624
vas@@ 0.08060172842079186
works 0.02308953410110224
Gold@@ 0.07103831168749795
Jack@@ 0.14148747578551815
Wan@@ 0.3386330731394192
ause 0.05213214249321704
cm 0.04931068906198081
sac@@ 0.04564019115917742
wing 0.021174007110050103
ò 0.12609525934136084
Beh@@ 0.07063628084499095
Shu@@ 0.2168532673513089
Si 0.07324812924980592
Western 0.036695915270717985
aborat@@ 0.07248446127602076
ache 0.0317849732716858
cast 0.029683231111592302
craft 0.03501849020020904
ido 0.009387627482894735
part 0.006616724131024788
progr@@ 0.018660837620219126
proj@@ 0.017525313985529777
sup@@ 0.01148128555612646
urn@@ 0.04843629558985568
ο@@ 0.03296069741616636
ฝ 1
agu@@ 0.02957421514318313
ante 0.0071289407493392055
eas@@ 0.025823014578017677
ember 0.10166357029488945
gio 0.08417134191936063
gs 0.021268022574454294
hil 0.14525917058264992
ion@@ 0.05152286987427544
person@@ 0.017533527254042187
species 0.01748986900443941
sta 0.028396142121133863
tag@@ 0.058234716129339066
「@@ 1
軍@@ 0.055565060098663965
Carol@@ 0.0391921095265381
Thi@@ 0.07594315363738645
ending 0.029224359454362237
mit 0.0020293169542794196
ographi@@ 0.05361415424427455
wel@@ 0.024621391180063328
グ@@ 1
家@@ 0.04752313876048954
Gas@@ 0.07905560483060646
anim@@ 0.019248664704885617
arc@@ 0.07709219622097822
ett@@ 0.027654865694493644
itu@@ 0.04769078779779484
present@@ 0.01699529977578411
syl@@ 0.04601140979344246
zy@@ 0.06379775644444219
ˈ 1
ເ@@ 1
女@@ 0.05229216519854473
archit@@ 0.027822025142160874
avi@@ 0.04216943003923741
lad@@ 0.02843798923880523
obj@@ 0.02143847782962113
parti@@ 0.015721499638190424
sist@@ 0.02501046285577253
tam@@ 0.03716733720661526
vo 0.04527131365217071
who 0.003711929854677674
ガ@@ 1
世@@ 0.07300570219287104
Milit@@ 0.04098384316718534
aus 0.0035037281470248847
cro@@ 0.022011792868267505
da@@ 0.059431009779308076
dens@@ 0.03166589379607534
esh@@ 0.07132208866759707
lor 0.0639851319728391
nis 0.0261621296134081
show 0.018548360047297423
town 0.01430053977702948
た@@ 1
タ@@ 1
光@@ 0.09934877491627833
Africa 0.041275635115936155
Form@@ 0.055382840291499695
Tex@@ 0.062187387483252955
Tod@@ 0.05781569522751805
amen 0.035485802518011006
car 0.020318579574421864
kan@@ 0.0347810645091393
lers 0.03328932158864543
nit@@ 0.05888701120990356
olf 0.05972564449847113
≤ 1
대@@ 1
Carl 0.06501712610505309
He 0.0024131023510439087
Ken@@ 0.10427511671725909
Kom@@ 0.01617683978710914
Lag@@ 0.07025001587380728
aves 0.026167447163898034
bes 0.031117086053509886
chr@@ 0.077386944625756
ements 0.01197187111407651
has 0.002886997270578331
nam 0.04450192200967146
orient@@ 0.05563946118298573
sed 0.022160816835574325
ǐ 1
ฃ 1
ฦ@@ 1
ົ@@ 1
At 0.014058280349320856
Pom@@ 0.07591585340706306
Stan@@ 0.05546974446209281
Vill@@ 0.04862405529380424
adi 0.10177426575678562
alli@@ 0.03601040500936651
aut@@ 0.019077186904977887
bran@@ 0.03579077921606106
ligh@@ 0.029823073069442322
戦@@ 1
----@@ 1
Australian 0.03044776849817701
Da 0.054711634237952854
Deb@@ 0.04705418396018068
Mut@@ 0.05230979908921576
abr@@ 0.033291109378428975
also 0.002560985603746198
high@@ 0.02001256452725273
imb@@ 0.055401820277617225
inv@@ 0.011734130571707626
rup@@ 0.030529764955096052
tun@@ 0.04865373193765133
宋@@ 0.2560225131800452
Clau@@ 0.06178777759502406
Nu@@ 0.06087903031746686
Tay@@ 0.06000111632173424
anne 0.057426901773701834
arti@@ 0.0140202845066972
aza 0.03693184263254706
ition 0.0271720356308981
main 0.013960451228949318
ples 0.022282022187566218
@@ 1
city 0.012086157923175227
dit 0.0322445864083265
igu@@ 0.01903607410067719
ingen 0.0174770315379018
nec@@ 0.04486656531595087
pi 0.1982140141524521
pil@@ 0.027295326735955243
rem@@ 0.013065479119954797
stor@@ 0.02993147619946784
year 0.006696410375242807
る@@ 1
小@@ 0.027887182362986575
Australia 0.022587448516220847
Bill@@ 0.08483646202688441
Nati@@ 0.050497021161130445
Nob@@ 0.10757653783501676
Premi@@ 0.042423136213520674
Simon 0.07315936969719987
atri@@ 0.057388999194508905
chen 0.009437490237358796
hur@@ 0.061725167692186486
ili 0.05711968922229553
integr@@ 0.04055498522168212
kno@@ 0.03761700305131922
quar@@ 0.022360828342467692
titu@@ 0.026770359041368312
tos 0.016853344599143626
zh 0.1551992358705373
້@@ 1
う@@ 1
Bau@@ 0.018166658219468015
Centr@@ 0.0742852347592976
Florida 0.04556508679474824
Jos@@ 0.09009291574119536
There 0.013906793526812877
alog@@ 0.04195597705841781
ann 0.044454832704997824
base 0.022102714885107514
bun@@ 0.038121071674434466
ging 0.028847229194250732
hist@@ 0.06552579108849625
mar 0.04824453467275665
ogen 0.04045643720999644
sm@@ 0.038319114129235145
tour@@ 0.014388421169062509
不@@ 0.014692030973470776
Id@@ 0.08457955218968115
Pau@@ 0.0654915973772274
They 0.012268882368638578
anci@@ 0.019569033894762618
ego 0.02894986269681291
last 0.018078416052363946
lev@@ 0.03286455548293588
respon@@ 0.019311295649090326
tran@@ 0.04210761972608001
ć 0.03434999118675223
€ 0.14750117436296484
上@@ 0.03286991700935967
河@@ 0.06831307911572074
白@@ 0.08112410332303202
Anne 0.06910434653890067
Walter 0.05951917573336139
agen 0.017485011062901446
central 0.026939737347232623
ches 0.01041998294027632
hat@@ 0.08992904676236338
prob@@ 0.019104261772296294
uno 0.02235913782127932
เวณ 1
ニ@@ 1
生@@ 0.0284980749352106
Alexand@@ 0.0586077587186971
Domin@@ 0.06456697415110041
alls 0.022766417024858713
ca@@ 0.041135658096384815
camp@@ 0.010094951348252586
differ@@ 0.046480556018271925
educ@@ 0.014471794988291643
eur@@ 0.03921422373920376
jam@@ 0.04674134746413757
mir 0.06172729192426151
nd@@ 0.07951867412186435
see 0.0181797099378385
unter@@ 0.008548864465911021
ฃ@@ 1
馬@@ 0.1308139609910832
Bun@@ 0.07999037295559673
Williams 0.05207934260157402
ape 0.04748258194381132
je 0.0334960395433723
most 0.007134996304120557
สโม@@ 1
อัลบ@@ 1
ប@@ 1
京@@ 0.10106632740574113
Arab@@ 0.05540678692838279
Canada 0.020518030041154444
Europe 0.019991077891635366
Jes@@ 0.042844332632187454
Reich@@ 0.036344590367166967
bau@@ 0.023780366388795385
date 0.030093654359007474
gar 0.03618110158891228
ican 0.0255053173818645
ils 0.012597987620484473
pon@@ 0.018192515705142236
que@@ 0.041179541627582555
sep@@ 0.0391414156138458
ı 0.017011281364597782
に@@ 1
Dal@@ 0.07922428538292355
Ferr@@ 0.0750273483495835
Greg@@ 0.0773732468231193
Pad@@ 0.07057398898944732
aland 0.03866025764959835
aul@@ 0.05935525123910003
commun@@ 0.01341899700897442
conduc@@ 0.028090498328754425
contin@@ 0.02298007491212295
eron 0.02106692808065092
fir@@ 0.017262835622411345
ful@@ 0.02991037842857282
gres@@ 0.030046857478126816
hon@@ 0.017061884446448492
jug@@ 0.024447335375117105
shire 0.026181724076499477
β@@ 0.01971103498529952
อังก@@ 1
Amer@@ 0.04642395664902863
Johann 0.04554487814017035
Texas 0.03206716952262472
abl@@ 0.022331755233883244
aine 0.014951160193983692
aller 0.018802427379277054
din 0.09266598911315017
ement@@ 0.0326854343464986
gan 0.05982977887926176
ige 0.010487737292484854
jus@@ 0.02395325469728989
ley@@ 0.06354962204496416
mak@@ 0.023072489860282663
sort 0.059607790810443546
uo 0.1196046689443989
་@@ 1
本@@ 0.03251417762626988
華@@ 0.0744439989449829
Sant@@ 0.057960468385869136
eine 0.0026190884182723255
eye 0.09391167515965393
kan 0.08249570660218371
kil@@ 0.028650988307680997
lah 0.1107917345926818
lav@@ 0.04728474026046973
ned 0.010236841698132196
sar@@ 0.0771533234551096
service 0.013906328198870768
yon 0.047811156732208836
ß 0.020736367063938253
フ@@ 1
的@@ 0.16245452406151814
Ander@@ 0.052074358556746685
Antonio 0.04649681544557761
Lud@@ 0.046949673200121736
Thom@@ 0.0685592102897872
culture 0.03455677841832222
kal@@ 0.032911913647248936
long 0.012032464056213724
yd@@ 0.07300650733599937
ภอ 1
ນ@@ 1
德@@ 0.02588136673569064
Deutsch@@ 0.04340800448305682
aca 0.05977787873832203
ask@@ 0.024231624430076107
cit@@ 0.03497747002473386
det@@ 0.012869755287000354
dru@@ 0.036774760401167624
esa 0.02566412843681771
foot@@ 0.033315908154445184
led 0.008274384745251986
ras@@ 0.046300180363538404
rece@@ 0.033533805831084854
tan 0.03418757414644718
web 0.07816743793070499
wen@@ 0.01745646200345814
と@@ 1
Academ@@ 0.08444784703036541
Inn@@ 0.04652303636940495
Jose@@ 0.06466825696735629
icia 0.06364470059313833
ken@@ 0.021716248390107648
mus 0.06629188689709342
ova 0.05697105619158147
than 0.007254836337041676
uli 0.20573105930008456
vin 0.0662371944449948
θ@@ 0.02222384749248502
ຈ@@ 1
り@@ 1
仁@@ 0.32340604139815066
Franz 0.06615464607955679
Ges@@ 0.0155111146702351
acter@@ 0.03642661882164925
chen@@ 0.03388514322394988
each 0.012792127670601689
force 0.028664970638928634
lit 0.03417124404613222
neu@@ 0.02767025104104437
ought 0.012825406396073475
raine 0.05183669430163958
used 0.005272997688580007
voc@@ 0.020432460489256413
vor 0.009052607174652188
デ@@ 1
田@@ 0.1311361670204764
長@@ 1
Alfre@@ 0.06051335028150059
Bah@@ 0.019165071670489264
NBA 0.07385727546905535
Son 0.02825665877410698
bos@@ 0.06587109332607254
ched 0.019950400513346813
ig 0.019240487555419045
loy@@ 0.01930313456969383
nav@@ 0.021316482093706332
nh 0.17486109916443993
ologi@@ 0.02747608655228708
park 0.0333897077370953
res 0.010405470215097232
star@@ 0.013380807264478527
キ@@ 1
Bad@@ 0.06339412104580543
Victoria 0.04943107881050825
aux 0.0033848600558592365
dies 0.03203847543654175
energ@@ 0.03842977708814285
eur 0.008707146838845391
fe 0.020221581397749138
iden 0.03264785626917129
local 0.012229749464941944
odes 0.04099468064733172
ปุ่น 1
ງ@@ 1
ុ@@ 1
福@@ 0.06547840267278286
Prix 0.0523939856655949
adu@@ 0.0702863865005647
ardo 0.04782292190498975
between 0.006041527078061121
das 0.0020558266444914114
diff@@ 0.017577214727507097
elt 0.009479047339817038
enberg 0.05404873291790208
epis@@ 0.018675173170746653
fore 0.0317482968162357
fur@@ 0.014558900029407114
run@@ 0.014206475933686374
urg 0.02609188429290278
uru 0.15306404386356245
モ@@ 1
和@@ 0.08507225551457323
陽@@ 0.30104850640738007
Anna 0.058596079487982636
Flor@@ 0.056012713338278834
Milli@@ 0.0374745871534178
actor 0.036847140462386206
appro@@ 0.012196434450738598
boy@@ 0.05591500304678946
cut 0.03597859485634623
ext@@ 0.020054972589907273
feder@@ 0.025805025320081436
general 0.014273643605206615
hat 0.01226241872038429
nas@@ 0.0860044746514671
optera 0.1796055878025697
trong 0.005436932287914288
ù 0.10967349712282745
င@@ 1
Atlan@@ 0.04463980686591869
Lan@@ 0.050356948420494936
President 0.023704943603338545
Sah@@ 0.11273052118703807
bec@@ 0.01994870921379806
bol@@ 0.044920548158810164
brach@@ 0.06180322644567504
cio 0.04199000057148182
dar@@ 0.009999534005684473
represent@@ 0.011860564155503874
while 0.007594265955715366
zer 0.05910392400761277
Francisco 0.029589667800848245
Hav@@ 0.04883264975014747
dre@@ 0.023681314073077334
fel@@ 0.025399607707271964
hand@@ 0.012472472222446561
high 0.01201530165667165
mess@@ 0.04249957818530048
Đ@@ 0.016977628082587612
張@@ 0.13337475318407077
Profes@@ 0.05458864908054383
Rud@@ 0.057555005925602296
Tol@@ 0.05735444923867924
ango 0.07827961197939028
anta 0.03668162201724732
born 0.006586047729013899
ck@@ 0.03212186632773769
eds 0.026336879876681558
essor 0.027161284209553473
oko 0.17056557482176218
resp@@ 0.019012506765619674
rier 0.045960473481881835
scor@@ 0.012957795801214169
var@@ 0.031046106026414774
ن@@ 0.02251580734744254
ه@@ 0.019403793391529107
ễ 0.2399542926772705
年@@ 0.029751059810942473
Abr@@ 0.0659860133652152
Constitu@@ 0.04556521950447025
Institu@@ 0.054853183174441475
Ny@@ 0.12568564519338102
Tab@@ 0.05828651918031692
Um@@ 0.02257760272068078
aut 0.015853088939929823
ente 0.0044967543455929244
gu 0.3210638970747926
igan 0.03883296826436981
iment 0.024102733980563857
live 0.024894728951515264
los 0.0013760350886882695
ough@@ 0.015972498452774583
period 0.018634760366972924
sburg 0.04801019559865449
spr@@ 0.012532463369649962
there 0.007082523980572555
Ö 0.21546466697438357
å 0.4637234333292676
ィ@@ 1
司@@ 0.0946873364366677
Blan@@ 0.05026775743329505
Hans 0.045035431672916584
Kun@@ 0.025215291228051388
Professor 0.03918986029159267
aco 0.057480847058754954
ats@@ 0.04141796599268613
clus@@ 0.03559333787046068
ices 0.022376744167444538
imin@@ 0.04295334311283114
oti@@ 0.029028980960138274
uta 0.05456614862376165
vil@@ 0.035709738676588706
ya@@ 0.2687954140944423
yer 0.024458915157872387
ေ@@ 1
ិ@@ 1
。@@ 1
く@@ 1
ム@@ 1
法@@ 0.026296941774732355
花@@ 0.10169681357906013
Sz@@ 0.05797615040193965
alian 0.03129900293119775
ana@@ 0.11542590675249255
artic@@ 0.02213847258855586
away 0.024265979997733483
benz@@ 0.1863505227830202
ded 0.01455841561419819
dur@@ 0.017534988227814487
exp@@ 0.011612239563996441
grav@@ 0.04704063722612286
part@@ 0.015515236313184097
ques 0.004424154347903817
road 0.017329118992465052
stant@@ 0.057698097376325544
tari@@ 0.06437986925129198
ths 0.018597050400250722
van@@ 0.06572380047082821
Dam@@ 0.03668763304983683
Roy@@ 0.05571983673771004
abe 0.02598273910944644
ayo 0.07278026074771782
cam@@ 0.019450457939877503
enne 0.009820562431112402
enta 0.02567618099297785
fem@@ 0.010692733313841152
hard 0.03667943935679177
mad@@ 0.02786476800264514
onal@@ 0.0286221430755104
stati@@ 0.04917353428839355
sun@@ 0.06330219943976362
ult@@ 0.012053424478827844
unda 0.03336430814209097
ë 0.19055809692871717
ū@@ 0.07258975837761152
យ@@ 1
ら@@ 1
サ@@ 1
君@@ 0.28072293967502343
四@@ 0.029584417041514214
Alex@@ 0.1109817665771137
Vil@@ 0.03997111552689336
bour@@ 0.027665405478056175
course 0.028576272465275866
ento 0.013765865446115964
fon@@ 0.019211377009584887
heim 0.03555467238363082
indi@@ 0.019231657527062428
poli@@ 0.03319894156178102
refer@@ 0.014359907408755562
wak@@ 0.06629571089034757
á@@ 0.003751345284405647
ă 0.28416210563151095
五@@ 0.043234590684167816
宮@@ 0.3880937635410173
院@@ 0.17262469697986632
Brand@@ 0.054711273658257654
Emp@@ 0.07501356438181347
Fir@@ 0.04979861674334891
Philipp@@ 0.04559088192411895
chester 0.03261726445989249
cription 0.018982819381815622
ectiv@@ 0.02648976807647557
engine 0.047189690404096964
ief 0.023260940624150066
ily 0.017607211302476583
istan 0.028618517817478706
modi@@ 0.033441692473655145
seg@@ 0.03038344529965282
tit@@ 0.018781744525792808
成@@ 0.028404289963851703
Ant@@ 0.05800721069908355
Lib@@ 0.04812351364921908
Was@@ 0.12231775313000315
ances 0.013945173958702223
ayan 0.07706123052759191
bia 0.07116497507805793
head@@ 0.01901743686534961
iga 0.06675142092892798
isi 0.033041319853387166
langu@@ 0.06389745747088944
place 0.006731553087089031
rat 0.03787494628028596
season 0.005268472322477973
three 0.0055222395966913525
tot@@ 0.033822370617865666
won 0.008402239635153744
wr@@ 0.03951368681009046
อำเ@@ 1
ង@@ 1
《@@ 1
コ@@ 1
テ@@ 1
정@@ 1
Form 0.05294967360882382
Rad@@ 0.03890866024516052
Vik@@ 0.07012285523929866
allas 0.05634228724915981
angel@@ 0.03567998329168012
asp@@ 0.03045665981470492
berto 0.050317363234281466
imp@@ 0.01771591201791927
vie@@ 0.012294144473597926
č 0.23541847233691304
ě 0.720282906332543
َ 0.32431515747748285
ナ@@ 1
パ@@ 1
方@@ 0.03730530375343283
Kab@@ 0.0595642289188762
Rein@@ 0.0373724074464987
Rep@@ 0.15063676269733
Say@@ 0.1423131342696904
asi 0.06186697764610051
cia 0.05194769329092987
etes 0.060601923817810016
expres@@ 0.020215656159932423
ilk 0.046575428630090385
limit@@ 0.02067165835878251
liv@@ 0.01318479025548041
oka 0.16453784784143857
ses@@ 0.02454834792199132
wig 0.038769975324612856
ိ@@ 1
十@@ 0.018790243979097416
真@@ 0.09223006440989731
Hin@@ 0.0350757606448907
Kim@@ 0.13261102075945716
Tenn@@ 0.04078568125867044
UEFA 0.07696756033607964
Yor@@ 0.062084775499520205
alo 0.06288044728525333
amer@@ 0.031173794371594416
auto@@ 0.04190208684391083
cole 0.033393417879217714
dev@@ 0.01022721118859341
ells 0.02777609149190001
ender 0.01934798770049743
eros 0.028272944192317063
him@@ 0.02123993796584667
imo 0.057061269618558313
oro 0.0498637369504687
program 0.021885056586397802
urg@@ 0.033438878633003516
士@@ 0.07826538256150593
市@@ 0.040994259695727786
水@@ 0.03340131521585217
Fam@@ 0.11951036926590335
Sau@@ 0.041169421178574
Span@@ 0.024194390808713894
design 0.022796021363666985
dis 0.04327690851476493
ended 0.00823499956075715
gun 0.053415254862686314
isation 0.020621394578758796
iter 0.022196426797013957
tific@@ 0.04664110118996504
ved 0.005942025385869848
vi 0.08402853522126905
း@@ 1
主@@ 0.013205000173491348
寺@@ 0.6058141544897319
川@@ 0.18286591459630205
春@@ 0.17206177385005975
民@@ 0.020207194537474275
August 0.006241514213538892
Way@@ 0.08882504009944985
Wilhelm 0.04125069712533351
auth@@ 0.012440000576926553
carri@@ 0.022663023311628623
cum@@ 0.04989866916429109
dal@@ 0.050677137220959706
fort 0.019045382355971602
inst@@ 0.012983014983748552
iti 0.08047996045106182
lan 0.059717739442047446
metal 0.04641252065260896
new@@ 0.02025503727541723
pun@@ 0.023247035953572064
transfer@@ 0.033718879483977365
ving 0.01807357655366515
×@@ 1
त@@ 0.048237254098515155
エ@@ 1
夜@@ 0.3479380274112671
@@ 1
Hist@@ 0.043290139281349733
Penn@@ 0.03324032685601257
aa 0.1076628985469801
ator@@ 0.04863483654550241
eleg@@ 0.025785270372405487
iliz@@ 0.05553403940240839
indic@@ 0.024358309055840698
ique 0.00985885955297819
lim 0.06198124318372733
ram@@ 0.04258124979424988
sch 0.015835287966963072
tab@@ 0.024170333085572475
tains 0.02273061883858026
ព@@ 1
័@@ 1
林@@ 0.04577823318755036
Ein@@ 0.007252477700917281
Hak@@ 0.12793889645158202
Wes@@ 0.045190946610641845
asti@@ 0.03224918092855026
dat@@ 0.042683853135606915
ej@@ 0.01525939753183921
ered 0.009029986327209912
etti 0.050012544373927104
kor@@ 0.03539368261978386
ments 0.014540285267823699
na@@ 0.06601650035515136
och 0.05886505257868393
race 0.022141675957557793
rie 0.052009551157682486
sons 0.025457982461379827
tif@@ 0.02279839946215217
tribu@@ 0.040041003456168754
tt@@ 0.052435855012383056
vit@@ 0.04624261012409819
θ 0.3275185506054851
م@@ 0.01698050021860374
र@@ 0.02591103149362305
√ 1
」 0.012164049450710772
は@@ 1
メ@@ 1
月@@ 0.07256793022360063
美@@ 0.02891207797548975
Gran 0.06854217720078229
Indonesia 0.08838098771054764
Juan 0.02422858638239669
Premier 0.04017257167826024
ample 0.01946862671618773
ativ@@ 0.024967985266678167
ave@@ 0.05446277017823594
cla@@ 0.013484832731337493
deg@@ 0.024675159656702996
esh 0.03838175149588644
mur@@ 0.020696898249967444
ograph@@ 0.0250561459040395
princip@@ 0.015869807415168937
small 0.012887476028318115
sou@@ 0.007388495509654378
strum@@ 0.08988018341688403
tera 0.04124775574912851
tier 0.03511033500965247
{@@ 1
Bou@@ 0.04771102070887513
Kap@@ 0.026637578997543758
Muh@@ 0.06888342748937785
dam@@ 0.012923877032690233
eli 0.03728325420362342
elo 0.037961832854056424
esta 0.009828244896481906
han@@ 0.05799886171683027
idence 0.02478789525657061
irat@@ 0.13282773785690863
partic@@ 0.014512190908006088
pass@@ 0.007409064478530545
ر@@ 0.01884499192045088
ជ@@ 1
が@@ 1
ま@@ 1
八@@ 0.06220314516295824
正@@ 0.04134537397369704
Berlin 0.015143762145342287
Kol@@ 0.026878219965000682
Liter@@ 0.0368721677414445
charac@@ 0.015500851829087196
classi@@ 0.02459381090607746
eva 0.05662305166815741
four 0.007542915113737634
ible 0.020481059042450102
lies 0.020299061539151616
pose 0.0174537506500701
prov@@ 0.015545740440940342
suff@@ 0.01707256743385676
tent 0.04488262638682595
ud 0.02625565528456138
via 0.01836134123576099
ǔ 1
φ@@ 0.017543391272952104
原@@ 0.026074675787167843
少@@ 0.07576050714548588
時@@ 0.034722664979485666
趙@@ 1
Esp@@ 0.023738280050881657
Il 0.0031036747976190666
Pier@@ 0.09425382258467657
Yah@@ 0.14487822975048256
ague 0.014760628496293468
death 0.012841481408937089
eti 0.058676091563821975
exper@@ 0.021261882973756297
gian 0.03594320635181776
kam@@ 0.07443019150812201
km 0.00663747506645185
liz@@ 0.05682273422832309
ograp@@ 0.04837759463251783
® 1
ו@@ 0.4372397810665021
お@@ 1
BK 0.28997311676533494
Fern@@ 0.017278398517880714
aissance 0.03111575194512793
bom@@ 0.04400969447982019
fall@@ 0.0240336117186308
fran@@ 0.02257695997724995
joint 0.031347502846634026
made 0.004851329815978147
mix@@ 0.025900267219185286
ool 0.23922392802961875
techni@@ 0.02652786774772414
tradi@@ 0.010072510520383137
← 1
み@@ 1
忠@@ 0.3132270406032113
～@@ 1
Bed@@ 0.045903358790443
associ@@ 0.017365761859935856
aver@@ 0.014690919080462056
clo@@ 0.016482593010147678
esse 0.015411207626370235
event@@ 0.01893567772569159
far@@ 0.02046937307081546
ien 0.006122094235436734
using 0.010877125006557558
yal@@ 0.06177284404645459
ï 0.10132768828253944
Δ 0.30319755633929807
周@@ 0.05990134317543955
後@@ 0.030701173352196055
氏@@ 0.37662069580731883
清@@ 0.045860299348325036
秦@@ 0.2857702402982549
#@@ 1
April 0.005832292651877613
NGC 0.06627457716920668
Olymp@@ 0.020440205238362114
Region 0.02804963688700541
best 0.013732102302129819
class@@ 0.014513850462209625
hap@@ 0.03719577918578895
inning 0.012645551114362785
med 0.05093321588740268
nik 0.03419965072613324
ording 0.017745848377807384
ores 0.0074381265956745095
pia 0.24238197731106723
professi@@ 0.012067190037388808
real 0.024484062556358935
ု@@ 1
代@@ 0.04278990278119988
Henri 0.0508837318382534
Kos@@ 0.05394265613048186
dam 0.032410645478730404
eni 0.0686045407034693
fes@@ 0.01559972021303197
gel@@ 0.004975197391883342
gli@@ 0.04525385683751058
him 0.004605887012269023
inin 0.03649020998355719
isis 0.03797518280035188
natural 0.02618787670460945
ono 0.1066867479919724
organiz@@ 0.00888586802297107
plus 0.0035208732329610306
·@@ 1
Á 0.21542198865611864
γ 0.38440358592352597
μ@@ 0.014457445689993855
ُ@@ 0.06921124438981945
さ@@ 1
会@@ 0.059550194722518573
有@@ 0.017979723962866876
Bib@@ 0.03751744748715289
June 0.007647296339977095
Wer@@ 0.010551816169496867
\@@ 1
about 0.004945804107337829
curr@@ 0.015600622971638068
div@@ 0.022150192601473002
els@@ 0.017797929962410197
kel 0.02916481412789912
make 0.01519714089751985
uka 0.16352481381022807
µ 1
í@@ 0.0032518779597220816
δ@@ 0.015456216670116187
も@@ 1
ブ@@ 1
我@@ 0.11489305002488862
陳@@ 0.48697222831160053
龍@@ 0.12176346566567094
Augus@@ 0.051190097425634615
Canadi@@ 0.02037587607436347
Der 0.003255150971010686
Ireland 0.02678112375361263
Jacques 0.04043755610518734
Kle@@ 0.02657122667226925
aug@@ 0.03235872605166733
aye 0.04322671333954834
dul@@ 0.06015089499404789
econom@@ 0.015716153234644686
fun@@ 0.011269037838056165
ime@@ 0.2561320354542049
ling@@ 0.04469458631883961
mand@@ 0.01994318739817238
production 0.011720470362588034
sociation 0.03699114469690488
tend@@ 0.029550448516548384
toral 0.030366852096657213
ος 0.013607799922946006
π 0.14690895723170186
ل@@ 0.009270956904796413
म@@ 0.03356936485271753
星@@ 0.06394490576067376
義@@ 0.07204328134258152
門@@ 0.16168574525354185
Boston 0.03337255566580485
Friedrich 0.027920679853215155
Gru@@ 0.02460420472483626
Kil@@ 0.04487414700865246
aro@@ 0.07637976040879768
continu@@ 0.013658529795044356
domin@@ 0.015806276207516692
igo 0.04311048308776573
kon@@ 0.00947230562686764
liber@@ 0.02138501410351365
prec@@ 0.02656328527176776
some 0.005545549807863487
tou@@ 0.015042618312357611
vot@@ 0.0145526231167188
ó@@ 0.003709880532084075
ກ@@ 1
き@@ 1
下@@ 0.02940820271729331
無@@ 0.049362858378804816
青@@ 0.05535839526385445
Kamp@@ 0.04758073213364609
Kl@@ 0.015405791924611967
Mai 0.016658444278084147
Portu@@ 0.024512869475148965
Wir@@ 0.033668858220267314
aces 0.0252211606707119
ares 0.01268445882408591
aron 0.007041595967590178
bol 0.0371103706295137
concep@@ 0.019785629492894967
eder@@ 0.010367733379561163
eno 0.03156422851823341
isha 0.10208005818662719
known 0.004691432048916952
law@@ 0.01941596363262815
lu 0.05747917802766588
open@@ 0.024315909184302757
ues 0.014921212110313584
when 0.0038611649841607007
ð 0.7309988377290872
ω@@ 0.022549641970656557
י@@ 0.3536545302902297
心@@ 0.07814145651294072
都@@ 0.11344123598742671
音@@ 0.04267432669857446
黃@@ 0.41199344598088194
Carlos 0.030754199120862497
Sek@@ 0.047376980275291115
annes 0.03556972295316499
bach 0.01802348945474092
company 0.009009531360383412
development 0.014625465973482427
ised 0.013068077821404057
kn@@ 0.026385158208669948
mont 0.027135457619379747
player 0.014595086969322733
pris@@ 0.02117288906318436
σ@@ 0.01422334781215255
ະ@@ 1
》 0.007871803023906434
れ@@ 1
チ@@ 1
ュ@@ 1
～ 0.34010679149044915
Alg@@ 0.04181630384665561
Arg@@ 0.05373885816053106
Haz@@ 0.10453180340899436
Viet@@ 0.038728480385172445
ables 0.013889822517089385
aise 0.02676688006460854
apon 0.13327775657309954
concer@@ 0.011637667209644468
edo 0.035438962875944016
endi@@ 0.025276071350642162
enh@@ 0.021486686477258012
gan@@ 0.013991390967467288
gol@@ 0.019730034955556343
igh 0.060053118043967554
nat@@ 0.02879841330871778
non 0.008425804671879412
phil@@ 0.06682276065924668
points 0.013379996768380809
priv@@ 0.009691003091855234
prof@@ 0.011673124054178696
red@@ 0.03452213986952997
resul@@ 0.009171462312657096
rich 0.04416532726356869
rou@@ 0.017016270586439137
san 0.0636254715962822
sat@@ 0.019722470871207168
sus@@ 0.012375087336466915
visi@@ 0.03211557723206156
Р@@ 0.007507255578023452
あ@@ 1
つ@@ 1
を@@ 1
唐@@ 0.10130176311759581
校@@ 0.07798918341545912
行@@ 0.02653803888052259
Christi@@ 0.04479105410358358
Kais@@ 0.03320384448293492
Neu@@ 0.026983665697883675
Seb@@ 0.05253931655663911
Stra@@ 0.03338511847251863
Virginia 0.024896564548949018
ander 0.02762183101940882
athol@@ 0.012140306077735011
being 0.005091658395663638
chia 0.09515953483633442
condi@@ 0.018530335666704242
dial 0.04300708712235728
ei@@ 0.017040750191209243
election 0.010954553484594325
enter 0.03535117515036343
ern 0.0053419449840059665
eu 0.01717636124899715
foc@@ 0.018493790569657047
ict 0.03628365558833919
inger@@ 0.0858136566743676
iz 0.027607614109573977
oir 0.025099743661577318
ppe 0.04112295993746474
tar 0.03547381744955104
tish 0.0379431859756323
traf@@ 0.031451167802494524
union 0.025363499587464873
½ 0.20413028086564242
î 0.10679234598821007
ν@@ 0.015876607809694535
ب@@ 0.008216449689587993
คัญ 1
김@@ 1
December 0.0075375954311023875
Kid@@ 0.17233952018766543
October 0.007017324019674066
adem@@ 0.020147477590230306
apa 0.037918944525926986
been 0.0024477624379368266
cus@@ 0.017102096162854456
event 0.016199659129423425
grou@@ 0.013266880552898522
ias 0.03243462560849208
ingo 0.06213611979189972
lec@@ 0.03040313357446284
libr@@ 0.018656816509276673
lov@@ 0.029917889374255022
num@@ 0.01628335686954906
ulu 0.06694406327677378
uses 0.007901858546526645
ì@@ 0.3637360747123354
ရ@@ 1
ី 1
ズ@@ 1
Bask@@ 0.04517277364686037
alt 0.021671002987861558
atia 0.08691330961832096
bis@@ 0.055512542493587516
clim@@ 0.024057025272924384
eda 0.052836259557168856
edi 0.08176526200796796
enes 0.02072918996391425
father 0.011026767594385981
inga 0.12675858633562495
initi@@ 0.010043310251692123
itt 0.05941280068249526
kom@@ 0.008679526917643569
maj@@ 0.016885868327070022
nak@@ 0.12010560813910111
olo 0.0460629135030957
omin@@ 0.08007005416304733
post 0.019439653943818153
regi@@ 0.012163892163210921
temper@@ 0.027960967400977747
tiz@@ 0.02560249691606182
writ@@ 0.008684747159069629
ə@@ 0.19768617154564855
ε@@ 0.016632768803450715
တ@@ 1
。 0.0007368158442670382
ョ@@ 1
字@@ 0.062108989847438116
祖@@ 0.10784666063854076
魔@@ 0.18988336537386485
Las 0.012472997651419258
bak@@ 0.056565511017965975
cer 0.029167425553355823
compl@@ 0.012635601477101735
cos 0.022519490654077462
cover@@ 0.012568761201694438
dings 0.01594941431286935
district 0.01015714352176171
five 0.009515743771751042
get@@ 0.02050109328030942
ises 0.015921580221395108
ismo 0.018872892479443962
map@@ 0.07363374083989235
nen 0.010797798116170302
pos 0.013590079264549804
tec@@ 0.03662261619992317
ween 0.04791272019806726
years 0.0035551595966906383
ē@@ 0.23059171047107557
ư@@ 1
ː 0.9117791624961615
인@@ 1
Ere@@ 0.06418832413415781
Es 0.006814091457092717
Kad@@ 0.057281216351941555
atives 0.0184191005141021
cher@@ 0.031799109760933676
distribu@@ 0.02106193444046855
ehr@@ 0.011580029352438582
esi 0.01992632520749771
fast 0.024074957598112453
gin@@ 0.06840253395837273
history 0.010990550753685656
lik@@ 0.013011079312054754
liter@@ 0.014403809083885786
west 0.009167390018769565
ơ 0.07095826672168902
р@@ 0.003291413788342045
ة@@ 0.33058291423876424
ມ@@ 1
ວ@@ 1
ອ@@ 1
† 0.01424947883715362
⊕ 1
」@@ 1
史@@ 0.0664645570360611
孝@@ 0.3166157861121764
阮@@ 0.4283139439144332
Anton@@ 0.08489276048997259
Chic@@ 0.16517351143268627
Ni 0.30370539289644827
Wak@@ 0.11744206202396941
ako 0.17028366354286395
bind@@ 0.021062244386159112
country 0.011613419388374907
ener@@ 0.036174330154534175
final 0.006803245671361961
gang 0.01921364927278451
imi@@ 0.029452286607170308
information 0.01877219397238125
lich@@ 0.008602775192021263
techn@@ 0.01241912987331127
tly 0.015476630217517199
vier 0.012468572316783144
ɪ 1
γ@@ 0.01665491647649353
न@@ 0.02840137344731361
န@@ 1
ノ@@ 1
治@@ 0.03943116622770988
군@@ 1
Andr@@ 0.03314739254515341
September 0.004611121137820015
Volks@@ 0.02722003991992812
acu@@ 0.03676586663981267
eon@@ 0.1691169165873653
esses 0.017389572519135824
following 0.006561768554030448
geb@@ 0.004779056240654365
ht 0.03303337159252208
kul@@ 0.02061743178611389
political 0.013487331828111645
public@@ 0.007483409953860689
stan@@ 0.041796806640509845
stell@@ 0.006880077079774003
tries 0.015743759032463778
was@@ 0.029124454114211593
yat@@ 0.08203433724269045
क@@ 0.033439167096932815
へ@@ 1
九@@ 0.0523327571573149
二@@ 0.018902430106476097
古@@ 0.03357277033035716
朱@@ 0.11358775476619176
Ital@@ 0.017504081386346793
July 0.0064638956341542125
Ober@@ 0.01019039466197163
aud 0.03426493010044951
ball@@ 0.017495263700876337
enci@@ 0.012949284611003772
illo 0.022008322190832087
jum@@ 0.04833686067856741
sang 0.04102978847756502
sei 0.025862408191985545
wes@@ 0.01163258446056645
÷ 1
ć@@ 0.16206330954889878
ع@@ 0.013112527725601023
ي@@ 0.007559632134107277
ី@@ 1
េ@@ 1
書@@ 0.08566908006715093
藏@@ 0.15428545094223703
重@@ 0.022256586113619723
（ 0.002635232718248436
Sult@@ 0.07779872060044175
These 0.012574212750532623
cru@@ 0.021511514530378882
defin@@ 0.013910713406550394
dem 0.00112868219772022
enburg 0.03412747123358275
erie 0.02446526759505689
full 0.014992897190288436
ically 0.013514674290687622
iter@@ 0.034455128103616894
mig@@ 0.014495453859468144
nos 0.030187800745151604
publ@@ 0.016091423675285096
tras@@ 0.028756702350357325
ສ@@ 1
プ@@ 1
昌@@ 0.25870510935620045
空@@ 0.040355379440387404
사@@ 1
원@@ 1
Braz@@ 0.027189079795387996
aji 0.10792176573037235
alan@@ 0.053986065248949895
court 0.014987821221943613
eb 0.0267187135441864
fici@@ 0.023225274236257178
iker 0.030269385909752557
isp@@ 0.0766016860430694
lag@@ 0.01945802017708735
nationale 0.014720886224367787
offici@@ 0.007167241130953721
once 0.011469927914353127
onne 0.015016456408816726
rid 0.07018308422693705
rif@@ 0.014677034604419499
ris@@ 0.016933315151254607
she 0.002866571263357562
sil 0.045606612069997485
ste 0.008458391756529626
Ō 1
ال@@ 0.011532868437554394
ฅ 1
ザ@@ 1
セ@@ 1
侯@@ 0.336366040663035
最@@ 0.012812455219211677
縣@@ 0.13009037602809786
藤@@ 0.31535365639892443
조@@ 1
Ng@@ 0.02614610081534992
Rah@@ 0.02627178810625639
Yun@@ 0.10238403474266349
after 0.0023325005568972106
apar@@ 0.012799909380772138
eto 0.020357469701511123
front 0.01662159420366155
lier 0.011666175621394537
mah@@ 0.08867135573640858
may@@ 0.033313885946057394
ort@@ 0.019443457659774507
rod@@ 0.07990484959038135
tes@@ 0.029743428987789863
ui@@ 0.07096339702612549
uni 0.07804171719332062
vor@@ 0.004707832866043847
wi 0.19248481353710853
à@@ 0.15625391020421028
ː@@ 1
ר@@ 0.5399475467510887
ល@@ 1
ハ@@ 1
情@@ 0.042966419887222246
昭@@ 0.21967101790585383
經@@ 0.027699960846808487
英@@ 0.017076406957442784
風@@ 0.0653838637713049
Frank@@ 0.02829951059479536
Wag@@ 0.05134315244697988
Willi@@ 0.056149651344090765
adel@@ 0.02152324026516913
agne 0.009690073801410511
anti 0.020358611182039195
bis 0.002281218806833696
cour@@ 0.007316536563454324
dil@@ 0.04797627664252124
distr@@ 0.028800464887127418
eil 0.03224654759880629
estig@@ 0.05032968317913061
fall 0.016377179178484056
fund@@ 0.009005463274812683
international 0.010729517910743365
strat@@ 0.02366928649310279
trag@@ 0.019464723212637355
û 0.12388453077885171
ý 0.03523109037787783
ž 0.48987578962779393
ັ@@ 1
က@@ 1
こ@@ 1
ち@@ 1
て@@ 1
ビ@@ 1
康@@ 0.09453252940610045
愛@@ 0.06490894195900757
梁@@ 0.16282720601170342
章@@ 0.3570691257551009
親@@ 0.15273572191783066
越@@ 0.07928540804771103
성@@ 1
아@@ 1
bab@@ 0.050531475211701656
chang@@ 0.0076933169834940895
division 0.014408444289911341
fan@@ 0.016278867059378577
forc@@ 0.014130031436096289
illed 0.013701242672352404
ip 0.12846141303901035
lang 0.019318641179654185
lead@@ 0.006132018308220332
mom@@ 0.021939027117879366
onz@@ 0.026542450027727163
ouv@@ 0.0059600672353027715
suc@@ 0.013724151635491745
tut@@ 0.021694666556019263
verl@@ 0.011415775992929846
with@@ 0.03335922981658358
ś 0.8045949766273829
ق@@ 0.012305981239257288
‌@@ 1
え@@ 1
っ@@ 1
ー 0.505445358152715
信@@ 0.03990059559472066
如@@ 0.03213501149364436
妃@@ 1
赤@@ 0.16546319117443506
魏@@ 0.22366603845170324
한@@ 1
Baz@@ 0.09341293317859715
Cant@@ 0.05637735756490389
Lis@@ 0.04463938180002104
Manuel 0.035370266690847516
Schwar@@ 0.03583311744080251
Sport@@ 0.02791269425817479
ainst 0.16407638986188622
anni@@ 0.038606015612877
avi 0.08449945793895601
club 0.005310307774485222
eca 0.040930043190611436
ener 0.013600864929802628
fen@@ 0.026402527551814513
hara 0.18684174982329058
hid@@ 0.04154617916466491
inclu@@ 0.009312071171584533
jur@@ 0.012906892249431125
kir@@ 0.03071870045577531
kw@@ 0.045696996012007954
lon@@ 0.03911030119551958
main@@ 0.010710328884180515
onto 0.017921442766268548
ran 0.018930881598575554
soft 0.10719971508822247
tique 0.011170395974314769
what 0.00998517672474365
ú@@ 0.009965926196166498
ş 0.03700057318301967
λ@@ 0.015486197048334037
א@@ 0.5157157999815775
و@@ 0.008762124576782607
स@@ 0.02576454267257048
ạ 0.10367561403824169
ミ@@ 1
將@@ 0.03942361017034184
政@@ 0.022305128206041563
永@@ 0.06875872596922468
玉@@ 0.12516925660231118
陵@@ 0.39399176134432345
경@@ 1
신@@ 1
Con 0.02808096507181864
Gaz@@ 0.0706467159724481
Grande 0.034697376889059856
KK 0.18132295694880426
Ou@@ 0.03028791712835327
Tang@@ 0.1230137134275657
alan 0.04402919517802616
amba 0.08371840381172746
ames 0.037386860636926575
bli@@ 0.021374564187546567
chu@@ 0.07248885518275801
church 0.0123952395365496
elen 0.009882699300873888
enant 0.02006370782612593
hin 0.02256674630284366
igi@@ 0.033219533837437504
iles 0.022472316351778213
independ@@ 0.013848347235064824
ires 0.008648380587489419
large 0.00750698420345672
moder@@ 0.013548797967874768
nes@@ 0.06377647285138734
prom@@ 0.0056956944823043885
sak@@ 0.11646023211371112
tru@@ 0.01558477442857916
uer@@ 0.01129179800533868
yak@@ 0.05533096700335897
« 0.0007135662886139879
Š 1
ɪ@@ 1
́@@ 1
ό@@ 0.015633299531466062
َّ@@ 0.16688066806468707
ა@@ 0.49789490687292
ゴ@@ 1
園@@ 0.3653619032991417
界@@ 0.08992079949910259
野@@ 0.11342748635963994
Leb@@ 0.0328666905998799
ained 0.00745137432317161
amo 0.04552429775864763
both 0.004690526389806447
conf@@ 0.011364070279000006
eas 0.01077937173841811
edit@@ 0.014730946904768963
etts 0.027843213365029602
kle@@ 0.011983401214654634
kur@@ 0.009616361498925731
ovi@@ 0.02195936450298561
qua 0.02767543506460758
retr@@ 0.03114588395517388
saf@@ 0.024306597229652848
tah@@ 0.123348970779863
tie 0.02546007278675065
tour 0.012783447663355495
universit@@ 0.011793168875701998
uz 0.04397317489264553
without 0.012859946638042626
А@@ 0.0023955252069994023
ລ@@ 1
•@@ 1
事@@ 0.024243396889084494
石@@ 0.04183174632767133
黄@@ 0.07856510207253553
Historia 0.0249847285807695
Mei 0.5049652468243641
Papa 0.16650977372135786
Yar@@ 0.08907962052010367
cad@@ 0.016555824614691492
capac@@ 0.016822246146477517
early 0.005593607379230691
fam@@ 0.016068005534251213
featur@@ 0.007153546099226281
govern@@ 0.017410684568134386
ided 0.012899168603253165
idi 0.04187936337951033
late 0.009400575225572286
modern 0.016141471453872774
original 0.0077474266870978465
perten@@ 0.0285962238983285
xe 0.021170355242538706
yok@@ 0.16429154189177406
य@@ 0.03073226471763739
သ@@ 1
動@@ 0.03019474559984555
千@@ 0.04602429277488136
定@@ 0.03946520970299771
島@@ 0.11725535684483258
機@@ 0.03123852766274012
省@@ 0.044211827741362404
者@@ 0.6597494612856186
通@@ 0.023480939196030722
Gel@@ 0.02103217804608761
Meh@@ 0.06586218731092555
Pak@@ 0.021189424025521774
Zi@@ 0.018047137121435998
amu 0.15163930830563943
autom@@ 0.015029893146264578
cht 0.007758486320148783
dir 0.014458991543978322
etz@@ 0.007779310765464106
home 0.006905733383420716
ife 0.01109423726138403
lug@@ 0.031235205881376123
met 0.00973471566307684
mine 0.017357622101579682
office 0.013332148940537728
uss 0.016369767075484824
vania 0.023504090302062356
ő 0.4794020413545808
С@@ 0.001947843298325024
ດ@@ 1
គ@@ 1
よ@@ 1
ン 0.5519526081549123
娘@@ 1
￼@@ 1
Kre@@ 0.00908739999599108
Ohio 0.025230604550418863
Parti@@ 0.02869458852262242
band@@ 0.02347957432369679
cian 0.02120086828591559
exten@@ 0.013008525937419552
iler 0.021023720596825782
inn 0.020967554485491903
isch 0.006310461159534674
loss 0.010050258287832806
may 0.0048777860027106705
mis 0.01964111977796268
onship 0.013328950572429839
propri@@ 0.029585615458781175
ques@@ 0.019103304053983517
sav@@ 0.019491575281558083
sir@@ 0.04424139765782436
times 0.007054895681904685
title 0.009848779020128698
total 0.006748580675691821
uba 0.033852880969870526
ungs@@ 0.002385503391016833
ustr@@ 0.011068278778117453
wards 0.010906090681849803
yal 0.033272421529076675
§ 0.09749404689785729
ל@@ 0.5930956298647241
ِ 0.11387604940788514
ی@@ 0.03877723133716848
ພ@@ 1
™ 1
ギ@@ 1
化@@ 0.03391550625551256
族@@ 0.11160856600548964
物@@ 0.024007874554524723
秋@@ 0.21089344935876445
羅@@ 0.03893098159911452
見@@ 0.4028177105049079
記@@ 0.07508580553001575
郎@@ 0.4618543020727071
面@@ 0.0668195894654873
나@@ 1
자@@ 1
201@@ 0.07201778037655387
Ba 0.07733526498313413
against 0.003991520893477446
bay 0.025458060086981822
before 0.0041664323588776545
cent@@ 0.013419239787395194
const@@ 0.028679176194114826
einer 0.002371358512943247
enf@@ 0.010470170607356263
erc@@ 0.02600926711553811
government 0.00610967870101578
half 0.010670190498060566
haus@@ 0.02021359529491911
ierra 0.03353022434015172
inda 0.0949430990621774
ischer 0.005597288808173307
plant@@ 0.01844714661888181
rant 0.023658324529629373
short 0.012345339049110478
tir@@ 0.014539243966661444
vern@@ 0.036079587286687434
xa 0.07016393261962535
²@@ 1
ŋ@@ 1
ί@@ 0.011411932259220128
К@@ 0.0028582808720062996
დ@@ 1
რ@@ 0.8857420741505043
≈ 0.8091900597784384
♥ 1
夏@@ 0.05050488203116748
式@@ 0.42468800986159094
景@@ 0.09183999575267272
楊@@ 0.1568847244839835
良@@ 0.16035074424933476
部@@ 0.021666328812083812
리@@ 1
의@@ 1
Bundes@@ 0.009682103995352534
Fried@@ 0.02472537680682277
Kem@@ 0.0889952572253977
Kus@@ 0.09005210693661027
Nord@@ 0.0130869516898998
Sin 0.022295130789854654
antes 0.005005584025968137
azi 0.030575412289160823
building 0.007171376193661771
children 0.008045179533238904
community 0.010431477859145014
hen 0.03010802125721421
irs 0.01731976576159086
kab@@ 0.05353630825556262
lement 0.016368366482447817
mt@@ 0.08139102582932413
nation@@ 0.015546506066517212
ongo 0.04323507321000437
possible 0.01331978174216674
quot@@ 0.03294121824296353
recog@@ 0.013288920084606779
tribut@@ 0.016981285386080666
univers@@ 0.03254492292301659
ệ 0.0709555144217985
ん 0.9796680223124125
孫@@ 0.20381524605862228
慶@@ 0.20698264935736863
會@@ 0.03206208157471231
洪@@ 0.1255961375104562
秀@@ 0.1619169962120398
電@@ 0.019042182813650815
수@@ 1
종@@ 1
190@@ 0.1265426699723218
Dani@@ 0.072868197053632
Mexico 0.020132781157399166
Ped@@ 0.09519961496457295
Sa 0.025511292031737708
anza 0.024641187074660727
bish@@ 0.01619056682995153
chn@@ 0.08474618591528742
dez 0.026700498790677436
esch@@ 0.02115001911236983
ests 0.011970178678416198
eux 0.00996769574056995
fo 0.04088882300200298
fu 0.15123925820248174
gul@@ 0.06370783117447928
ism@@ 0.036754328356545005
ogo 0.07174538175060648
pay@@ 0.018979052631392414
qu 0.015708635960260696
run 0.011610953959719587
tay@@ 0.20035954522693097
thi 0.04169053446671874
trad@@ 0.020999388893346085
š@@ 0.01706359329345809
מ@@ 0.5062381230665224
ຄ@@ 1
七@@ 0.046691278973298854
东@@ 0.018699728341688263
全@@ 0.012057682174350737
区@@ 0.04675201634372617
台@@ 0.03439161800215023
建@@ 0.013121587608775123
 1
^@@ 1
absol@@ 0.017574364614638783
aller@@ 0.039791963558562744
alter@@ 0.018763738557375936
ased 0.009439500439221264
auer 0.01591025877529732
beau@@ 0.02199518935329145
dan@@ 0.016133612604593436
during 0.002719413937950925
eg 0.01229603837194208
eler 0.009816014935548619
four@@ 0.012196512565574504
gal 0.0260499626440538
haz@@ 0.06687417596624276
hie 0.016703592583990002
iev@@ 0.00969707833653841
ische 0.0022775111445586956
japon@@ 0.029760766930446297
members 0.006892214837510297
milli@@ 0.02182507391799565
nea 0.05890833124556747
ockey 0.01505156137246414
pad@@ 0.048293501921124284
propor@@ 0.02525487213760558
sol 0.0410297487462361
third 0.0074001304416986295
uj@@ 0.08645878774865064
uro 0.03763994123124525
ש@@ 0.5811840497779525
អ@@ 1
› 1
御@@ 0.18271555954449809
思@@ 0.07328177334190927
惠@@ 0.1689796843195125
松@@ 0.11080522025377815
語@@ 0.08389827407214674
Lig@@ 0.020234037331971315
Luis 0.024318634330070858
Mex@@ 0.02029175392772094
aber 0.005357380811670596
alla 0.017696549984800816
bed 0.02007210756000818
due 0.006081887020261876
embr@@ 0.038077291372442604
kia 0.22546815008164767
list@@ 0.007391812428781074
pour 0.0012246931113556487
senti@@ 0.031426802984490354
tn@@ 0.0272623220779152
uu 0.43662012823889845
» 0.0006034570506090999
κ@@ 0.008538248021897423
ν 0.02161158186908033
ฝรั่ง@@ 1
စ@@ 1
ṭ 1
†@@ 1
仙@@ 0.1994812982845155
何@@ 0.11523123302181398
聖@@ 0.0723226697490442
順@@ 0.1645380320995061
구@@ 1
장@@ 1
지@@ 1
후@@ 1
Arth@@ 0.2627568815173469
Bes@@ 0.007803981780473432
Carr@@ 0.03361021059475978
Jersey 0.025250343541434014
Stein@@ 0.025120802099551334
ede 0.031001703658174392
inten@@ 0.013622164176490597
jer@@ 0.034847934791686665
leng@@ 0.011943950532162826
party 0.010741264770470675
philos@@ 0.01882695989066066
studi@@ 0.00794828244559324
ان@@ 0.015360754780964514
ຣ@@ 1
ả 0.06340754965161445
同@@ 0.016905984779894672
宣@@ 0.03144284496295452
怪@@ 0.46040449457159605
木@@ 0.059526833421010346
源@@ 0.09885968230990731
火@@ 0.04199877778669217
黒@@ 1
공@@ 1
주@@ 1
Hau@@ 0.02779782462457727
Histori@@ 0.015660004815403146
Illinois 0.023830521550410863
Nam 0.01663918568208612
Un 0.009645238939826634
ael 0.04078276083337289
buil@@ 0.009921656982415228
cil 0.0201868196765829
compos@@ 0.004810432141244579
cost@@ 0.01703957075806503
culp@@ 0.019105283999036365
determin@@ 0.01819453605139038
ehr 0.013241318641887974
erk@@ 0.014866056776993727
este 0.004621349033992716
fi 0.08454099372467809
formed 0.005687543622675135
gem@@ 0.010817048070604813
isto 0.06936444167416761
lang@@ 0.006902874148802526
lich 0.0017003620211634666
obr@@ 0.10162445781857439
observ@@ 0.01060860725939927
relati@@ 0.010281813380603983
tad@@ 0.01778050550227193
unga 0.1306491830313634
versit@@ 0.047922718296986126
χ@@ 0.00975453334506744
ה@@ 0.5653669204808031
ຊ@@ 1
利@@ 0.01351750989786154
名@@ 0.017062060731081047
奇@@ 0.09149812872074636
師@@ 0.11196182364001869
慈@@ 0.22423503930948338
自@@ 0.010929436844466104
Barcelona 0.028927359226899898
Berg@@ 0.020030379119919412
Gem@@ 0.026690561078311588
Heinrich 0.024003472106870555
Nacional 0.015190545551115158
November 0.0034860637552315017
Vor@@ 0.0037863002170132943
Yes@@ 0.1757127300944844
amar@@ 0.03806796845244739
bay@@ 0.04251013991327072
complet@@ 0.007511310634094374
different 0.008003399738060782
dos 0.004303519899223233
experi@@ 0.011753555671650814
fut@@ 0.010593555761862184
inform@@ 0.012021102267533315
instrum@@ 0.014110699427590348
quali@@ 0.012797009754209073
radio 0.011744440658958724
sible 0.014882262308979257
television 0.010575248689131372
typ@@ 0.008966972706363005
zu@@ 0.007421039350843259
λ 0.03094402323029841
τ@@ 0.009032855681160554
व@@ 0.022360210281483626
ທ@@ 1
ァ@@ 1
夫@@ 0.05130090229362492
府@@ 0.31455942712429863
廣@@ 0.033950450505116296
戰@@ 0.02223725175991617
曹@@ 0.1620612208654169
楚@@ 0.25078724869839636
汉@@ 0.06166848826313154
泰@@ 0.04702113437450802
立@@ 0.02759483668831503
香@@ 0.09136451618892355
국@@ 1
서@@ 1
씨@@ 1
；@@ 1
･@@ 1
$@@ 1
Cum@@ 0.04826378406547294
Dok@@ 0.035104950796010996
UE@@ 0.19795202861553338
administr@@ 0.006061815941797189
again 0.007983137913826972
alit@@ 0.015317685735527654
alle@@ 0.028133892197108126
around 0.005696172266756409
ater@@ 0.027077304927323576
bes@@ 0.0035717855944388645
called 0.004147546321723975
capital 0.011691622684682072
conv@@ 0.01560654798338595
envir@@ 0.012678269237339055
figur@@ 0.018155807620062955
hak@@ 0.07586582532107283
iff 0.021297071449081797
ilo 0.051579503187756066
influ@@ 0.006774430543954682
isl@@ 0.01047728664793607
isten 0.007254003407808262
mula 0.05236585891727047
personal 0.015436583078311817
present 0.008422275251702718
promot@@ 0.009639133324918692
qui 0.0012612952613968002
rez 0.02226487032850048
riff@@ 0.01844753733897624
territ@@ 0.008836276304690771
yar@@ 0.03580118431233829
è@@ 0.00283272113411057
ρ@@ 0.011067206954334035
м@@ 0.0014313290395555564
ف@@ 0.008355224268084998
ီ@@ 1
ボ@@ 1
吳@@ 0.11750329017942963
园@@ 0.3925267143100871
湖@@ 0.04905353159817524
色@@ 0.07005438261482552
소@@ 1
199@@ 0.017962864703994354
Afr@@ 0.04210770803811475
Das 0.002678347993215046
Distribu@@ 0.025371676423899883
Italia 0.0355028226449328
Jul@@ 0.055604558475736185
Kay@@ 0.08064462844656159
Mann@@ 0.02301631457828893
Riv@@ 0.053999689971969723
Su 0.009938361939171561
afa 0.07382573024841858
ayn@@ 0.07374031785209564
bles 0.011554611436371492
could 0.005676749899091509
dar 0.01916186111140483
design@@ 0.005839767019481427
ede@@ 0.07710850572005931
ers@@ 0.022764220128784877
feld 0.01726375984432331
games 0.007762080953197982
orig@@ 0.021524378868731323
pen 0.01546756762901665
phi 0.09098502809066843
publi@@ 0.008189637149943852
rio 0.034253922109290735
same 0.004189964001732841
sur 0.0013097781192149395
these 0.004553978955767501
tul@@ 0.04111182588713805
®@@ 1
Å 0.4756100709752403
ń 0.09415710102969932
ʰ@@ 1
Δ@@ 0.02534253316088381
Π@@ 0.01150866523692585
δ 0.32302810372972024
ω 0.06665581828783013
س@@ 0.009090716575065962
ك@@ 0.006187267293661733
เศส 1
္@@ 1
ြ@@ 1
ភ@@ 1
℃ 0.4926428260075895
≥ 0.726118109624351
○@@ 1
ケ@@ 1
嘉@@ 0.058723363765124
多@@ 0.010404404322641819
宇@@ 0.12256074408239408
徳@@ 1
敬@@ 0.2807386612848026
是@@ 0.068476358955156
犬@@ 0.9207597216745381
鉄@@ 1
동@@ 1
시@@ 1
Institut 0.026014589151323625
aden 0.01497678891823938
ambo 0.13651102761374817
ansas 0.018955646528503598
atu 0.09530544975410453
constitu@@ 0.006183671356463814
found 0.004432115950497041
found@@ 0.01588653732904338
hii 0.19379016385461081
hir 0.07055074074988903
leo 0.0478197904989822
par 0.0008532631387947389
sel 0.010535838935482456
tag 0.02281563756826701
uda 0.03659244033933539
until 0.003494254548755144
yas@@ 0.036480284894262305
zon@@ 0.04034633497895716
ς 0.02363579654350973
л@@ 0.0014361067409060296
ح@@ 0.008604184645871057
ຳ@@ 1
ပ@@ 1
ះ@@ 1
ố 0.06026814302747006
す@@ 1
仮@@ 1
合@@ 0.01361986059345237
里@@ 0.021460938070593346
Bu 0.02052081899756772
En 0.0009649377940324095
Et@@ 0.021655490029424528
Hamb@@ 0.016953132829923438
capit@@ 0.012919857516870668
conqu@@ 0.02152574812653806
emi 0.05212366162722506
ently 0.0035210061814739766
fin 0.006955339033267694
former 0.004398619467627638
iche 0.020640019050623817
ived 0.021146747050163523
kho@@ 0.058518656128459884
material 0.01534974196696585
nin 0.019738117507317608
nomin@@ 0.00934675477092251
performan@@ 0.008075365865224502
popular 0.00923816655914993
por 0.000815792676318848
separ@@ 0.009061901675220054
sten 0.00338306195799771
tigen 0.00896808631681526
tres 0.004449963147665944
zen@@ 0.026553339317204185
Ø 1
أ@@ 0.006438493042403623
द@@ 0.032215799947871875
ใ 1
ไ 1
∞ 0.7853687111216282
≠ 1
め@@ 1
华@@ 0.04858381826678727
子 0.006257531831619117
特@@ 0.009072291577580008
相@@ 0.011504211776394836
知@@ 0.03819788663908803
郭@@ 0.1417922327974724
鄭@@ 0.14919052514685827
間@@ 0.3330651249355226
릉@@ 1
Hein@@ 0.03555846414958424
January 0.003978104169130436
Mart 0.0791145959755162
Migu@@ 0.03005870597040816
Santiago 0.029809103799982164
Se 0.006866843241856864
ached 0.00827104301832522
ainer 0.021280773035217544
alled 0.021982133096017476
allen 0.021031916237364848
aume 0.0177632793685033
bara 0.03528523723574325
director 0.008124582118587888
diz@@ 0.040153089654478266
docum@@ 0.007823604283695813
ina@@ 0.11431668266165793
mill@@ 0.031906995659715276
oca 0.03558331911763517
particip@@ 0.0044768944341327215
prac@@ 0.008450539022487156
scienti@@ 0.013106328411965136
support 0.007578420957115698
zona 0.013122126379408561
Б@@ 0.0031749428283651833
ت@@ 0.006419303774796532
ल@@ 0.022044778335940388
ហ@@ 1
⊙ 1
ツ@@ 1
ベ@@ 1
歌@@ 0.02764030016750938
死@@ 0.049286499537987326
衛@@ 0.07321014967257165
隆@@ 0.10571404876874002
다@@ 1
Grou@@ 0.057578732699352
Munici@@ 0.018587349690609146
Ord@@ 0.02996729212982342
caus@@ 0.006637495932550911
cens@@ 0.010932389623356395
construc@@ 0.011646083300052507
did 0.005029661148038001
dose 0.03185184789977896
eles 0.025957949595052224
explo@@ 0.012222262372260425
fig@@ 0.009662207979469964
films 0.011000234654273787
fs 0.01410905614525476
kum@@ 0.03917462883943277
lis@@ 0.04110225215249349
placed 0.006528369176997954
population 0.003742572583510679
resid@@ 0.009016191999210929
sche 0.007798813531668159
shu@@ 0.05365677434532315
tura 0.006745129191864234
unge 0.035468160987612046
Ç 1
ë@@ 0.018565842988022142
Σ@@ 0.0075503101897370865
Ω 0.6268599882014197
ធ@@ 1
♣ 1
け@@ 1
ル 0.7382287998085519
前@@ 0.021810596711157444
条@@ 0.0912324744899862
理@@ 0.017160428321775164
社@@ 0.019240213555420476
视@@ 0.05115153892483116
起@@ 0.029931343832170738
郡@@ 0.37742261285717676
雲@@ 0.11435318382228386
도@@ 1
라@@ 1
민@@ 1
192@@ 0.27037899685197664
198@@ 0.01492524000493573
Alt@@ 0.0226134548809677
Conse@@ 0.01897008885631029
February 0.004593782925091882
Israel 0.016915891047799943
Kul@@ 0.01590992222831106
acht 0.006031908979157724
alar@@ 0.01791513671448552
ben 0.00422643822639366
jan@@ 0.027285873939720304
larg@@ 0.00836368592042318
natur@@ 0.009899123756254848
oci@@ 0.01314946423236839
oj@@ 0.055309941973537925
pend@@ 0.012140498123942333
quit@@ 0.009422730363218145
thu@@ 0.020770431611074704
uch 0.015650323306455986
za@@ 0.03849601777587048
zer@@ 0.02328515704008308
ğ 0.0703578036116766
̍ 1
ב@@ 0.41944209171765556
بن 0.03149979887494453
د@@ 0.009243730589444193
ច@@ 1
ោ@@ 1
ំ@@ 1
‹ 1
せ@@ 1
ヒ@@ 1
仲@@ 0.21942331416370708
恭@@ 0.540671739238773
沙@@ 0.03399669048664345
虎@@ 0.2248574666460915
韓@@ 0.0677225956445486
고@@ 1
기@@ 1
선@@ 1
제@@ 1
Prof@@ 0.02698446998902577
` 0.8256843049592051
assen 0.014900462673710391
blan@@ 0.012175600729820565
bora 0.42328313651360483
coup 0.016834953121247914
develop@@ 0.0059577695637779565
eka 0.07003259584047541
elles 0.004832434786695804
enda 0.02019471063870515
fron@@ 0.012456014738100487
given 0.007532802616741852
hib@@ 0.015524661654075154
ilio 0.04062973788683318
lau@@ 0.02054239143223615
neo 0.01629168474176959
olan 0.012060064923719967
oso 0.013605209716656361
pas 0.0033265285520410175
pedi@@ 0.023248562035145363
pio 0.026511116502765202
played 0.0030659232630499966
province 0.012115660831730005
rad@@ 0.022590026810858078
reco@@ 0.02072943034932667
solo 0.008798649203103848
stadt 0.009425404727736867
within 0.005359875180278192
İ 0.9002554660649156
ʻ 1
ε 0.017668184145177124
Г@@ 0.0024813555854628078
н 0.0011630290107222765
э@@ 0.0014568915555779407
я@@ 0.0016818099302594158
ا@@ 0.01784793848737172
ج@@ 0.007433362736684272
श@@ 0.03061548434191235
ូ@@ 1
ḥ 0.9234120838313571
ネ@@ 1
ペ@@ 1
ヤ@@ 1
使@@ 0.04137420414196904
六@@ 0.026266957730693777
力@@ 0.04297976705841471
場@@ 0.08772055084912585
夢@@ 0.3301856724710231
寧@@ 0.1837031233222794
度@@ 0.07648057659866665
殿@@ 0.3601676357510164
玄@@ 0.23449168503598386
胡@@ 0.06260638472602685
興@@ 0.06453431591380711
貞@@ 0.5412548705075091
超@@ 0.026779529447962285
龙@@ 0.06518217238244343
영@@ 1
 1
187@@ 0.1160667618794283
Nig@@ 0.049879375271012126
Sach@@ 0.021307848308879378
anos 0.008218683922267557
appar@@ 0.006769289288959642
aret 0.06649849906545499
categ@@ 0.012569861483421776
compar@@ 0.008663845536022388
concentr@@ 0.01593485188661663
eder 0.030535184010615994
elt@@ 0.014121375047085667
gradu@@ 0.006283809083246866
isco 0.1184290742606133
later 0.0022416436202626366
mam@@ 0.04113042082307183
phe 0.032403852023061744
record 0.006071126484618137
tent@@ 0.01822842953934799
ually 0.0047484059123160584
vat@@ 0.02968232883546471
viol@@ 0.00740014792474421
weg@@ 0.008825546135791791
ǐ@@ 1
ǔ@@ 1
ή@@ 0.012802726896518976
η@@ 0.01172026917212308
το@@ 0.015592020686128803
ј@@ 0.6209751060387539
प@@ 0.021384266908903687
》@@ 1
ひ@@ 1
む@@ 1
や@@ 1
ェ@@ 1
佛@@ 0.045065627381948845
可@@ 0.018569252121911847
命@@ 0.03397594381904589
臣@@ 0.6301416882702862
葉@@ 0.12215078814153052
阳@@ 0.08047471052716906
阿@@ 0.009815790421567114
雄@@ 0.10468174096590799
문@@ 1
세@@ 1
우@@ 1
Buch@@ 0.016083572646894223
Compan@@ 0.09257674847945342
Luf@@ 0.01711538375409016
Von 0.006919252279819329
auf@@ 0.0014968917638298997
commer@@ 0.0074074782711795965
ebe 0.031576647453899175
erre 0.01265719383629944
geh@@ 0.005143784008117683
issu@@ 0.004961041365584317
lake 0.026654873197047065
making 0.008273144975353208
nt 0.01037122581725439
previ@@ 0.006010959793420923
quel@@ 0.028772458421179804
received 0.004529097577620145
rech@@ 0.005547645320578776
reci@@ 0.007288227493206696
secre@@ 0.016064634928934472
stitu@@ 0.02620658446076492
utz@@ 0.005255855595169031
vie 0.010776557962653152
zar@@ 0.03999593865715789
Ā 1
ά@@ 0.007823628458370868
Т@@ 0.002626573299484436
к@@ 0.0014752736864504577
н@@ 0.001194964027229436
с@@ 0.0006926622036969993
ע@@ 0.5781428206039481
ْ 0.36521386799959926
ग@@ 0.026384552867125304
လ@@ 1
ầ 1
█@@ 1
ど@@ 1
内@@ 0.023070466474286015
出@@ 0.006214474005519967
劇@@ 0.05137331615909773
县@@ 0.11127251517728846
基@@ 0.010769757561911215
工@@ 0.013972501987683388
志@@ 0.07809906677199184
村@@ 0.05852730877109464
洋@@ 0.0887667319362028
紅@@ 0.07266730793600647
車@@ 0.034158394597255094
集@@ 0.02154065198758445
飛@@ 0.056136010353951826
상@@ 1
하@@ 1
186@@ 0.12233551064684468
Europa 0.013400031750219987
Jah@@ 0.015206223170340183
Nis@@ 0.13298144177474017
anas 0.016030973635157392
appe@@ 0.007483860733391164
audi@@ 0.013005461595250019
clos@@ 0.007692826274033438
dir@@ 0.012958002742161885
esto 0.016574617550369267
gest@@ 0.005266958019648868
ident@@ 0.01957601199367054
institu@@ 0.007854092658169371
iwa 0.13818455563479784
mani@@ 0.015777763141646244
model@@ 0.010609808594393649
ously 0.006207232140562366
patr@@ 0.008547602361818509
sie 0.0014514843660955385
tainment 0.05610604234232564
tham 0.023646980051184218
usal@@ 0.02914551198983552
uso 0.010556910268693051
«@@ 1
Ü 0.4220303562353551
е@@ 0.001591477024904813
ष@@ 0.05228172613193235
უ@@ 1
′@@ 1
ォ@@ 1
交@@ 0.012597781957274755
作@@ 0.010911133085004781
保@@ 0.011982836419735236
傳@@ 0.03055111419438563
宝@@ 0.13603411178536984
将@@ 0.08661387592757791
常@@ 0.024056391121930525
普@@ 0.016547449199340928
电@@ 0.01387146969009284
百@@ 0.02905143195609909
盛@@ 0.08209625972214712
線@@ 0.10930108059541188
草@@ 0.07464895808030396
路@@ 0.01855757499142543
长@@ 0.025611334629618156
陈@@ 0.06411488445273447
부@@ 1
스@@ 1
연@@ 1
윤@@ 1
Cao 0.05819990291182571
Guinea 0.043760388235815594
Mek@@ 0.08224549597496
ahl@@ 0.00802447012891386
alif@@ 0.009599549987916635
among 0.006551529913137095
asse 0.008128178761085689
azu 0.01465988347015673
firm@@ 0.009593504093918478
iku@@ 0.19172236183263278
ilg@@ 0.06515111125831133
kit@@ 0.030094309941343798
leb@@ 0.010267256408192432
prises 0.016946537210905395
pro 0.01688199495580321
rom 0.07797732440092302
schule 0.011069763216101028
some@@ 0.006324518494442523
trat@@ 0.017626768118671615
voir 0.009857453889880779
Æ 1
æ@@ 0.039744111446982124
Č 1
ę 1
Ś 1
ˈ@@ 0.2881693541522864
μα@@ 0.03192495952731801
ον@@ 0.013287153570933236
ا 0.008927340592300985
ག@@ 1
ែ@@ 1
ṇ 1
ῖ@@ 1
ピ@@ 1
喜@@ 0.06618222953849842
在@@ 0.031654117283572224
徐@@ 0.08215251326211115
波@@ 0.020241110390703133
蘭@@ 0.035728215093462856
貴@@ 0.17522318874058068
195@@ 0.018397318814995293
Jug@@ 0.01519322312655792
Ost@@ 0.015575108061964766
Pedro 0.018736226491905303
Schw@@ 0.010535743531312211
XVI 0.03377943201341268
anan 0.05206013794196852
bourg 0.016286653440457148
days 0.00707527743529388
desc@@ 0.009837896338841837
ectu@@ 0.012065449720464303
eig@@ 0.005915168321622768
enin 0.037310615819444094
erin 0.013535173991839976
frag@@ 0.015358540771753203
histor@@ 0.008700360167372672
hui 0.01602930636673117
inh 0.0180883840784553
kap@@ 0.016891572762739712
kol@@ 0.021787294012763105
ogle 0.8240279255936179
orio 0.011988624563617331
para 0.0010920330381794107
rement 0.01023309698406203
requ@@ 0.007722525416303382
sam 0.015037100543933535
say@@ 0.0073621134978349234
stand 0.004525249573244179
vill@@ 0.013450036732300658
ö@@ 0.0015496895936296686
ŏ 1
ɑ@@ 1
ʔ 1
і@@ 0.07815025702574485
்@@ 1
ູ@@ 1
ར@@ 1
ნ@@ 0.8505831948446578
ខ@@ 1
ế 0.05370494950035925
♠ 1
で@@ 1
土@@ 0.029467262549737874
堂@@ 0.21700039339878338
梅@@ 0.047035058867203966
業@@ 0.055171195172150286
萬@@ 0.038200793801604294
言@@ 0.07594573248467368
進@@ 0.020367993521272377
齊@@ 0.1838332606727462
무@@ 1
박@@ 1
비@@ 1
안@@ 1
화@@ 1
）@@ 1
Lan 0.03419012123814202
Paulo 0.039598672983257296
Ukr@@ 0.02638025213399237
ambi@@ 0.016976315452388386
anes 0.02205895916688569
another 0.005297845615724962
aup@@ 0.03294047796254285
bec 0.014162941691516209
cant@@ 0.007791103081007959
declar@@ 0.009434605097544464
dorf 0.010249233111681294
encia 0.002359613126141784
endi 0.045356366530529345
illes 0.01989792522072501
ingi 0.2930513201375449
isse 0.006155819046525726
journ@@ 0.005945175949949181
just 0.006004517326786639
kara 0.09647300419660737
kt 0.004220003513546574
million 0.004998554538762197
poin@@ 0.05788005484999707
popul@@ 0.006268110127045742
releas@@ 0.03579321859618282
those 0.005141853208240133
tico 0.005020238689065969
til 0.01256904163835564
unci@@ 0.014452869502858403
wir@@ 0.007889689761785878
³ 0.04970368253384272
ñ@@ 0.005986045441143765
œ 1
ʃ@@ 1
ι@@ 0.005774530139271115
λε@@ 0.02092048077124247
ρο@@ 0.012751721145726242
О@@ 0.001464455244523434
в@@ 0.0007231684633693054
но@@ 0.0009456422560883927
ण@@ 0.058939823591846636
ដ@@ 1
ណ@@ 1
▪ 1
今@@ 0.04920828725499043
吉@@ 0.02361422891229928
外@@ 0.014133337602405614
寶@@ 0.07999460410872236
尹@@ 0.41907369095711594
株@@ 0.46379973246004325
殺@@ 0.1627923125406052
老@@ 0.03532227513126086
許@@ 0.043401912085454825
顯@@ 0.07214412979193265
마@@ 1
유@@ 1
， 0.00019551404037295385
Argentina 0.013748634621498718
Ban 0.04166889079844417
Canton 0.07427876102613304
Eisen@@ 0.017550481752273975
Indon@@ 0.045766557435219166
Tek@@ 0.06405635153554116
Wilhel@@ 0.056166370941018104
Zu@@ 0.010404162654831366
abu 0.09060456861031921
ados 0.0016512973733048436
aged 0.004716433777413556
agre@@ 0.00729990966557913
ahr@@ 0.007526911499460646
bed@@ 0.012035567284495986
bou@@ 0.017669182219505353
evi@@ 0.03809113380111308
heit 0.006844363021424517
inclus@@ 0.018835203975504256
its@@ 0.013033084552628535
lib@@ 0.018423581536937805
military 0.006926651814366239
national@@ 0.009138802330502037
onen 0.005696957898313257
plan 0.007442429944666465
rus@@ 0.016317455537111995
sein 0.003381160064512482
tival 0.015109060138667006
topl@@ 0.03453069768228141
uerto 0.015855390734458092
vet@@ 0.02127377872695445
wake 0.060512478101334054
ü@@ 0.0015486441150029096
И@@ 0.0018086043978483392
Ф@@ 0.0031073794167009315
ּ@@ 0.6839579264565745
โ 1
ບ@@ 1
ས@@ 1
ἀ@@ 0.5709150144698261
″ 0.16859283278124057
だ@@ 1
ソ@@ 1
伝@@ 1
典@@ 0.07775718384315643
別@@ 0.13843149126329504
吴@@ 0.09943186014446437
商@@ 0.019898904921822034
始@@ 0.052417672530309184
崔@@ 0.18694238343271652
懿@@ 1
教@@ 0.009623232360650656
来@@ 0.02738835200851093
流@@ 0.0178406216613484
烈@@ 0.22546763667681444
蕭@@ 0.2438315165871432
189@@ 0.08669451126891228
Herr@@ 0.01083588317652845
XV@@ 0.02919477320075622
alc@@ 0.05607765691283544
alternati@@ 0.015057715439437092
anya 0.04187915517968229
appear@@ 0.00324096867812336
bas 0.02278791939373607
bt 0.01071761447906071
champi@@ 0.005022119388205825
conserv@@ 0.006839886783591329
crit@@ 0.01773387946907089
cu 0.05674975233804479
derni@@ 0.010268306094046399
estruc@@ 0.01983777405397608
gel 0.017019443444786463
his@@ 0.040876404980933805
inci 0.0464268388042414
industri@@ 0.008509481031949602
irk 0.01628595060413613
izi@@ 0.014639403295288336
jud@@ 0.010240586977510527
lub 0.05400779062368069
mant@@ 0.015600986770479655
materi@@ 0.014472449949067736
pf@@ 0.0064638331813738825
prepar@@ 0.01042658241108178
provid@@ 0.004715280039285449
religi@@ 0.008074453700753345
sever@@ 0.019101541751779975
sta@@ 0.009855476973321613
studio 0.009241007240354005
such 0.001837576391787954
yol@@ 0.044859166864162185
zin@@ 0.020365409592319153
ός 0.010152334699699433
В@@ 0.0017428987177086819
г@@ 0.0012204105009018455
ز@@ 0.007940764449892716
ش@@ 0.006107686080216547
া@@ 0.5213457986384575
ဝ@@ 1
ị 0.029349002959453925
ゆ@@ 1
中国@@ 0.031223146166382266
乐@@ 0.03704674662447509
勝@@ 0.07412227914539113
善@@ 0.13630026769073736
學@@ 0.00775798966044497
官@@ 0.02284448755825234
弘@@ 0.19824300174290174
急@@ 0.13131668618673475
手@@ 0.02431134457620237
斗@@ 0.13118015030641317
樂@@ 0.024428112157954058
港@@ 0.036930609332757734
苏@@ 0.025917354821385935
賢@@ 0.38793257105591233
道 0.005563881666553868
남@@ 1
전@@ 1
．@@ 1
188@@ 0.07672162534425452
196@@ 0.012368051658355965
197@@ 0.011488509182382738
Pf@@ 0.007112316067834602
Spi@@ 0.0050577104114772325
Uz@@ 0.05319102653863333
cab@@ 0.0056183963397751285
compet@@ 0.007808142317639358
day@@ 0.03818723082782375
deb@@ 0.011807990253631528
direction 0.010995102572099373
emen 0.014314518631004419
emper@@ 0.01530395262134234
equi@@ 0.008247778077870143
eran 0.005531712355519866
famili@@ 0.005638001651301277
gun@@ 0.012569199641416503
held 0.003223710947348623
histori@@ 0.004332023648681542
icas 0.006836863446527772
inas 0.012676113630567788
kes@@ 0.02711547546717768
mari@@ 0.011349558643550427
ologie 0.005142750427577408
proxim@@ 0.012861844707093397
released 0.002514292975129841
relig@@ 0.011140671061153793
spi@@ 0.0028168438326503877
tei 0.012968788505184813
took 0.0033067201833017466
umbo 0.10094152917740003
written 0.005905535202425962
õ 0.052320237127944404
ș 0.12151721066240859
й 0.0007715270604970155
у@@ 0.0006484630034672918
الل@@ 0.047826303892874546
ط@@ 0.007105766112239964
ຫ@@ 1
ོ@@ 1
ဒ@@ 1
ჷ@@ 1
ṣ 1
そ@@ 1
・ 0.19471416672707
万@@ 0.027977067703677114
令@@ 0.042587692341843716
伊@@ 0.014428583328586545
你@@ 0.4308073125956607
姫@@ 1
张@@ 0.04175241822753245
溪@@ 0.12760783634870793
茶@@ 0.20755187611657433
董@@ 0.07521365857002643
蘇@@ 0.03641267998323736
話@@ 0.45403686505818636
阪@@ 0.40719062739251677
鬼@@ 0.31352226348283585
방@@ 1
현@@ 1
． 0.47912368208585965
： 0.004030975698923071
Ab 0.01169050023312291
Pub@@ 0.04496777167820503
Sur 0.012583919724263757
ande 0.007530715339326988
aten 0.003659898525764739
atos 0.011494696539031552
awa@@ 0.0901732564916093
bek@@ 0.006362441884566953
chap@@ 0.007867278817090042
construction 0.005200309661835878
eras 0.011863675943038814
etti@@ 0.03061409244704608
grand 0.007358878525668281
ilit@@ 0.012453963751934687
iller@@ 0.022906587407714157
inen 0.00970490634923081
iste 0.004139458355636742
kis@@ 0.05259706020335328
lek@@ 0.01661830625051023
leri 0.007926540339117986
musical 0.008849889980564653
oire 0.012780461549991871
onde 0.009105020114419868
reich 0.010331078955720756
tim 0.02874054238413164
toria 0.016248308663613178
verg@@ 0.017834115519836862
women 0.004566525560769305
Ó 0.2151086487503434
ä@@ 0.0007486863037782487
ç@@ 0.00253929130758236
ą 0.6070836137191631
ǒ 1
υ@@ 0.008284826035816836
ων@@ 0.020757739352390454
، 0.0011195737642215242
ه 0.006061189441207537
ປ@@ 1
ິ@@ 1
ო@@ 0.6632256121535843
、 0.0007613696771230021
わ@@ 1
ポ@@ 1
ム 1
ヨ@@ 1
丹@@ 0.050829104101999915
人民@@ 0.01868088189477057
撃@@ 1
曲@@ 0.05227169426925364
節@@ 0.03665753275517747
紀@@ 0.03820361659525623
羽@@ 0.07570446855582505
身@@ 0.021832498620175406
风@@ 0.03863790943079615
魚@@ 0.056787184115200645
광@@ 1
루@@ 1
의 1
최@@ 1
치@@ 1
Ent@@ 0.007655601413769854
Madrid 0.010411895997796766
Nach@@ 0.004198440102535672
Universit@@ 0.011262270239152576
Yer@@ 0.06440440148654537
aten@@ 0.011755783719169279
centre 0.005907981368573664
champ@@ 0.01023735553132738
civil 0.010445883734638084
competi@@ 0.004944449137462022
elimin@@ 0.010753676888440903
furt 0.01635561413658308
guit@@ 0.008484721725200758
ici 0.023399271192139606
icio 0.006483859646055624
immer 0.009253622726034421
incre@@ 0.004114920774543694
kana 0.16282078557043053
kre@@ 0.006214619380390773
mec@@ 0.033287839266604925
minut@@ 0.0087118704989918
ney@@ 0.05352669570948477
nier 0.013809533865495759
omen 0.0878512170122576
rique 0.012890597479930484
riv@@ 0.012335245155283402
role 0.004943185417762686
route 0.0072776908432911035
still 0.004360246405912973
tard 0.009689157745763465
tish@@ 0.25765060483436814
tiva 0.02139376159022176
utz 0.01493623525797572
yer@@ 0.020839017039618372
zon 0.0482949066109697
ù@@ 0.04523520308480438
ı@@ 0.008999254915676339
ʰ 1
͡@@ 1
Κ@@ 0.006181117094976361
П@@ 0.0019266322155182321
Х@@ 0.004098888024508326
з@@ 0.0010345826318341204
ְ@@ 0.7235400952203778
ד@@ 0.4669084179927228
خ@@ 0.008038508234273371
या@@ 0.021222342179418905
रा@@ 0.013138775799601873
ह@@ 0.01709105572156876
່@@ 1
თ@@ 0.9116867555677642
១ 1
ồ 0.044210280874744254
ず@@ 1
ょ@@ 1
ワ@@ 1
団@@ 1
守@@ 0.06049811912634294
承@@ 0.03297908430455931
演@@ 0.012741194563479837
球@@ 0.013390989912111302
蔡@@ 0.10340234308345977
袁@@ 0.15430574098049876
議@@ 0.026224595557098756
銀@@ 0.04984314467513151
鳥@@ 0.21005027826990916
해@@ 1
194@@ 0.031463445343589684
National@@ 0.00762317268419715
actu@@ 0.003806458570691687
aque 0.01361639340240359
arded 0.005749878896114866
ativa 0.017441412730973
charg@@ 0.008505641795856014
created 0.005345104322569931
dur 0.03926798064435012
eler@@ 0.01440504592750392
ende 0.00273483150591837
ennes 0.007664853950747563
erra 0.010654757751272094
fen 0.006939280896182486
follow@@ 0.004836665635310645
hoa 0.01027328960078845
hut@@ 0.05706675910301605
iyi 0.053150991896398964
liga 0.008093259596395974
lil@@ 0.11512588245766217
lung 0.004764138729686655
mann@@ 0.010629431681476066
ning@@ 0.017806250989955755
pendi@@ 0.012441735698610887
pens@@ 0.012713369754073937
polic@@ 0.009533382525399509
rem 0.16257320658038119
sab@@ 0.012830597335961343
services 0.00579442439925972
terr@@ 0.011350406537706135
teur 0.0029792270766653725
tir 0.009662384252402153
umo 0.05923582051274745
й@@ 0.0008335279310252188
р 0.0008991079499930364
ָ@@ 0.5634393878326043
اد@@ 0.015419210751802265
ص@@ 0.007028592845444106
ज@@ 0.01896934572642689
ຍ@@ 1
ີ@@ 1
ຸ@@ 1
ს@@ 0.6654203685121609
い 0.37228460814947256
じ@@ 1
ふ@@ 1
ゃ@@ 1
人 0.001627675127382735
來@@ 0.06414206103018104
先@@ 0.021397693086388326
嚴@@ 0.06922459170038285
密@@ 0.03532321836163595
左@@ 0.032283623730436854
影@@ 0.010964706695308133
拉@@ 0.006867508999997867
未@@ 0.022380436279849904
爾@@ 0.009596675520300748
若@@ 0.07488625303112734
近@@ 0.03586704925825818
遊@@ 0.02732554078051825
食@@ 0.035422515541538975
黎@@ 0.07405027541673287
포@@ 1
Colomb@@ 0.01649416580376088
Este 0.011485437939052972
Nueva 0.014446011183304332
Oy@@ 0.05050876584411283
Schul@@ 0.008448633795660581
alle 0.0051268791978197415
apo 0.04750721731561026
arak 0.021904500495008278
asser 0.012394962392964332
ately 0.003405761973641059
aum 0.006618835662597872
bao 0.014463833101778456
bei 0.0010055444115802464
cas 0.007831287741219108
destin@@ 0.011647441110806485
edil@@ 0.028402817825874553
elek@@ 0.015478295449775881
endel@@ 0.06320721712701943
entes 0.0024416351415073438
enz 0.00935397445500995
exist@@ 0.00419343486151501
habit@@ 0.006624903249266744
igen 0.001632148688111005
inos 0.008595805457576548
kt@@ 0.014006902506563456
lege 0.007332546262960792
lie@@ 0.004052883344634286
marri@@ 0.012006926325860222
nie 0.0143413833742025
perman@@ 0.008047386740495337
sev@@ 0.02803585383001666
temp@@ 0.004205099552760828
thu 0.028323094948118677
xu@@ 0.11171865877681349
yet 0.013855716325106309
zur@@ 0.03239519084737857
¼ 0.4686240332357666
ɛ 0.7920486394057733
ʿ 0.9155281323468418
Ω@@ 0.17477907288474673
ви@@ 0.0009351086776464132
на@@ 0.000656324285969834
བ@@ 1
ည@@ 1
အ@@ 1
ზ@@ 1
ḥ@@ 0.1584713449290007
∞@@ 1
ね@@ 1
ば@@ 1
伯@@ 0.02142360502944593
党@@ 0.04110737133647076
區@@ 0.022550110015946014
呂@@ 0.18134313420991247
宙@@ 0.8215982231295077
屋@@ 0.1300694449339435
山 0.007959714342262125
恩@@ 0.03775592413732704
拳@@ 0.2591666786859699
智@@ 0.05691375750702424
泉@@ 0.1510884549951213
角@@ 0.022431230006364423
郡 0.03160514085968249
開@@ 0.014229557525233603
陸@@ 0.06094048858805147
非@@ 0.018717833254778164
騎@@ 0.12168758031491775
보@@ 1
순@@ 1
어@@ 1
진@@ 1
충@@ 1
태@@ 1
@@ 1
！ 0.08582247547607122
0.000 0.011933700794873076
193@@ 0.017642664718202902
Elle 0.0026031354552612626
Engl@@ 0.03640594502424302
Minister@@ 0.014852462880144716
Venez@@ 0.01439220684677105
Zu 0.011194224717841397
aban 0.004858116730338831
ahl 0.008417109490462394
ations@@ 0.007625496427460791
bah@@ 0.008297160334517526
cause 0.008864543189652822
dispar@@ 0.015279591678306484
echo 0.017644256540568122
erek 0.027489974917488724
expl@@ 0.00527683344538608
eza 0.009617646528474369
itung 0.006715477695140993
kas@@ 0.027419150543391405
lage 0.007253035967455584
mili@@ 0.011376568259972755
ngh@@ 0.03491657212963327
rail@@ 0.005921377086893991
schaft 0.001733596258729771
signific@@ 0.004799875044845494
success@@ 0.0053910177157694295
tee 0.04141891300462738
tivo 0.009070773647631402
uko 0.16621030252900754
½@@ 1
Î 1
ŭ 1
η 0.0022605404251215314
ρ 0.014134359124848405
ρα@@ 0.010973622365617672
σ 0.14651193786797934
СС@@ 0.363657478510991
У@@ 0.0016988450043102547
ка@@ 0.0008351429366734418
ш@@ 0.0009619420620126562
ات@@ 0.015541736140970316
غ@@ 0.00632234373032887
ُ 0.10398846572197702
च@@ 0.01760048682658075
ना@@ 0.018611607135005395
ക@@ 1
ື@@ 1
ọ 0.03879806741944507
Ἀ@@ 0.6791640861967803
⁄ 1
∈ 0.6018289950199205
█ 1
☆@@ 1
井@@ 0.12442968842394682
儀@@ 0.12580045613977833
初@@ 0.025699246372584757
包@@ 0.02688204671296258
回@@ 0.014592974950602423
广@@ 0.014659156242895405
徽@@ 0.13720276014508076
悪@@ 1
橋@@ 0.16743773452713473
比@@ 0.00760106244302333
気@@ 1
王 0.01340876692797267
紫@@ 0.10209844498820618
能@@ 0.01704449426173003
臺@@ 1
術@@ 0.09456897011148421
赵@@ 0.09409120542216175
雪@@ 0.07932534593622773
鳳@@ 0.1550346321032884
가@@ 1
양@@ 1
중@@ 1
천@@ 1
 1
：@@ 1
🇭 1
🇹@@ 1
Azer@@ 0.02198019160725976
Kut@@ 0.0509201986696958
Liga 0.00822368847481056
Nord 0.008607188035520175
Para 0.012574594225708195
anistan 0.02507683726447536
apos@@ 0.030945300615723505
assist@@ 0.006222840117590953
atura 0.013995508700407826
auc@@ 0.011081725967028265
disput@@ 0.009738547531251222
ellschaft 0.009298079751503539
erst@@ 0.005156246380806618
hac@@ 0.016462276081068903
hio 0.17058469331336765
idad 0.0016007782182990787
iken 0.021280563067757545
included 0.003387883471226093
isen 0.009568742625483065
join@@ 0.014912830488048383
much 0.004369746808620143
neur 0.0069465106624466335
oku@@ 0.08639327356985065
orie 0.008073020375638756
sad@@ 0.04977404410574467
sera 0.012350995930678673
since 0.0024320816110359853
tant 0.00423899478216828
tech@@ 0.04534787803128074
Μ@@ 0.005977767289778767
αν@@ 0.0046629786379054515
ψ@@ 0.016895454816777348
ύ@@ 0.006951535158450295
Д@@ 0.0013601691329013339
и 0.00014847284781263533
на 0.00018918301531169925
ни@@ 0.0006568680764516857
т@@ 0.0006099173197786418
ө@@ 0.6412612786703116
ק@@ 0.574432517061758
إ@@ 0.006854536919537359
ث@@ 0.009367239718540797
مَ@@ 0.2271619499289679
ّ@@ 0.022462975990818472
ड@@ 0.026733036205823305
ब@@ 0.012774357622394898
ຕ@@ 1
ི@@ 1
ი@@ 0.2595462424532482
់@@ 1
ṃ 1
ṅ 1
ṣ@@ 0.15194009318785795
ṭ@@ 0.17190493258398076
ス 0.3974731891652143
ゼ@@ 1
ホ@@ 1
ヴ@@ 1
了@@ 0.10118572379909484
云@@ 0.05230585481644559
体@@ 0.026430245119587987
侍@@ 0.10728220891099736
共@@ 0.00750495628499297
兵@@ 0.03659698951671317
友@@ 0.07527961787162021
反@@ 0.011038686414919716
央@@ 0.04355048130863848
妖@@ 0.418322787257586
季@@ 0.05276700346782065
所@@ 0.01142387130090817
摩@@ 0.03753051140310374
期@@ 0.013511552329006221
森@@ 0.04139739813430862
爱@@ 0.04869574255099106
狄@@ 0.16671509724576764
男@@ 0.016435747309046133
直@@ 0.010644436418396791
科@@ 0.006946784245958189
紋@@ 0.6030848228202689
統@@ 0.035566889333772715
鎮@@ 0.05186076789744507
隊@@ 0.05733012903776794
館@@ 0.29222665812906895
麗@@ 0.07383015066386903
강@@ 1
교@@ 1
명@@ 1
여@@ 1
예@@ 1
요@@ 1
홍@@ 1
Anc@@ 0.1325645467284242
Best@@ 0.01218055103607742
Biz@@ 0.04724839438943375
Eis@@ 0.019716956650073118
Film@@ 0.011206664737847203
Im 0.001310789729185994
Kant@@ 0.013852397141858984
Soh@@ 0.05088108094759954
Zw@@ 0.00713667768876682
acha 0.04712496152040133
aide 0.011725994517623482
americ@@ 0.012067141805995297
angi 0.04665126678187059
candid@@ 0.004793491613575066
colon@@ 0.009306155830176365
consider@@ 0.00269612922340024
egen 0.005894021723215274
eshi 0.08088912327306069
gaz@@ 0.03407628144585519
iye 0.06446476968929664
kim@@ 0.04387051505118214
mim@@ 0.05622422780499453
numer@@ 0.006171683629238883
rol 0.027596833793730322
roy@@ 0.013194737744586175
uel@@ 0.014981517250289565
usu 0.02988576270973717
zel@@ 0.013349623146456532
zig 0.011420269933609346
À 0.004004202958604958
â@@ 0.002255876526258975
Đ 0.264713108723229
ŋ 0.6252815637706968
λι@@ 0.010685328394634496
ρι@@ 0.007574656830967102
ро@@ 0.0005735392461668659
ци@@ 0.0022470221892435826
ч@@ 0.0008218847442393857
נ@@ 0.2811652321356912
ת@@ 0.5589878255732189
ار@@ 0.007837676960579392
ى@@ 0.9102400929914903
ம@@ 1
ແ@@ 1
ད@@ 1
ན@@ 1
ུ@@ 1
ထ@@ 1
ჽ@@ 1
‍@@ 1
「 0.0030755344428235647
〜 0.592841366890489
ご@@ 1
ろ@@ 1
ゲ@@ 1
丁@@ 0.039664867003404596
丘@@ 0.12883687597772822
以@@ 0.005479225871249845
余@@ 0.061939414611846974
分@@ 0.00436094374133896
勇@@ 0.12134224025960089
印@@ 0.015496734058504803
叉@@ 0.38344472366526555
号@@ 0.05761105821062943
塔@@ 0.01993762231254778
封@@ 0.03601550200304113
戸@@ 1
柳@@ 0.11296886576927749
母@@ 0.03227482117114549
涼@@ 0.6217573234372828
潮@@ 0.11125117462535147
濟@@ 0.12413618407341208
炎@@ 0.4030588157695596
獣@@ 1
目@@ 0.018884922785800166
端@@ 0.1341581240009442
经@@ 0.012376283330598394
辛@@ 0.06425248175398611
门@@ 0.05583892792789226
陰@@ 0.12354266596382608
韋@@ 0.0983056804570944
Au 0.005588637615628934
Haus@@ 0.010190368402918117
Kri@@ 0.007361564616056821
Minh 0.028178504584958634
Rech@@ 0.00707548522118358
Tari@@ 0.04692505359539963
adol@@ 0.01773378757356701
alar 0.03215035143700967
ateur 0.004215650698405995
azar@@ 0.0272713223991194
bre 0.004100632255980655
deu@@ 0.05388406240961239
enga 0.0678410974073247
enst@@ 0.008069879317015501
eren 0.0025067093153187097
hosp@@ 0.007053155935785195
icht 0.0027977196849008883
ient 0.010033920437193504
ifu 0.16588677453768758
jun@@ 0.018495367887871022
kad@@ 0.014552213967395904
kri@@ 0.007362178289281545
kus@@ 0.023299592583826897
mab@@ 0.14142965838258065
nac@@ 0.015840789477469426
near 0.0035941477530564954
nom 0.0032924872367136116
odo 0.01192528640237128
onc@@ 0.012875441842059453
opo 0.09864151781552859
pes@@ 0.013592470097160143
politi@@ 0.0032446406415932824
restaur@@ 0.007321091365306439
though 0.0019976587607825422
umu 0.04682473322564087
util@@ 0.011309091433569594
went 0.0036071227250832295
zur 0.0013904807049878187
ß@@ 0.002462894438435177
đ 0.9249308537060797
ʊ@@ 1
Α@@ 0.0052557227484800765
κ 0.01954716392835976
σι@@ 0.011814183806583278
στ@@ 0.004565823021890231
φ 0.038227754572453795
Л@@ 0.0024696817381165835
Н@@ 0.002415186756032901
а@@ 0.0009398919650978072
к 0.0004925802170483632
ла@@ 0.0011939515279491874
ми@@ 0.0011831460931522768
ре@@ 0.000553299995487175
х@@ 0.001270288943655827
آ@@ 0.012504717375777016
را@@ 0.007098011544775509
ي 0.003985395486136681
ين@@ 0.010256642504074102
ِّ@@ 0.17268798580610545
ܐ@@ 1
का@@ 0.017309194708035634
க@@ 0.6327236715900152
క@@ 1
ဇ@@ 1
့@@ 1
ွ@@ 1
ှ@@ 1
ấ 1
★ 0.6959317048729019
】@@ 1
う 0.46238732088667384
イ 0.41671161749923835
也@@ 0.12868603181997632
姬@@ 0.40049668328993504
富@@ 0.031314498930217614
尚@@ 0.03378200864935894
尾@@ 0.06478455577307138
局@@ 0.04249915130347712
师@@ 0.05685971603260635
恋@@ 0.5625221547092656
战@@ 0.012118535605706476
日 0.0019275565633490427
桂@@ 0.11463844430826546
楽@@ 1
毛@@ 0.031128997464127298
燕@@ 0.1359112056676924
爆@@ 0.03777155094256578
獻@@ 0.1893095925162492
甲@@ 0.030216490375582144
神 0.024732111934903933
秘@@ 0.04096962704032916
精@@ 0.024079538135851078
糖@@ 0.17610930959539406
衣@@ 0.11593949889768763
觀@@ 0.027432544032324282
解@@ 0.013072416128165074
谷@@ 0.1021984891922056
走@@ 0.055342537436223894
関@@ 1
雨@@ 0.08088021645406192
雷@@ 0.01774930843168142
革@@ 0.028550820996224878
黨@@ 0.06346597725833363
로@@ 1
리 1
에@@ 1
@@@ 1
Apr@@ 0.11035314545978524
Bez@@ 0.004711193400205266
Histoire 0.008169031407977234
Kib@@ 0.09873240641159474
Mec@@ 0.035478537016094124
Sov@@ 0.05675716414723129
XIX 0.01208405146553248
achen 0.009098828968177793
alifor@@ 0.029543538993210803
atro 0.01179952719479315
conc@@ 0.0097236070352253
consist@@ 0.005824225284962688
dav@@ 0.0068211106658953
destr@@ 0.005343104112975474
essen 0.009977630022629908
eure 0.010604026682353107
forme 0.004648113106944128
haf@@ 0.008698807722977216
haus 0.009537449050155113
ingia 0.11371234718376824
inner@@ 0.010651329344699733
invol@@ 0.00347486975812311
istes 0.00646296266597546
kay@@ 0.015339954587258234
kio 0.041390312415451866
kun@@ 0.007769440169618015
kut@@ 0.05703152126957733
lara 0.01149946909463051
monum@@ 0.00793127987335075
oblig@@ 0.010286832947717324
organisation 0.009218789981981931
published 0.002748748264178267
remain@@ 0.0034516491896149737
serve 0.0068343052026730074
succ@@ 0.0034216143678179184
tam 0.057458827231181946
tik 0.00945263438329982
various 0.004055785781274877
Ú 1
č@@ 0.008288061414252403
ʼ 0.6887015638995789
̤ 1
αγ@@ 0.009760698227202748
ξ@@ 0.011408200671709052
ва@@ 0.0007190190615015115
го@@ 0.0008512448029049939
ру@@ 0.0011036893380396407
ская 0.0018436328443637324
ы@@ 0.001464384306579843
я 0.000692752132828375
ת 0.36974250154903654
ري@@ 0.007047568405767432
لَ@@ 0.26056002007832574
و 0.004574620897939221
ية 0.003283400834535463
मा@@ 0.017117955639234284
़@@ 1
ி@@ 0.6031515431237117
ང@@ 1
ယ@@ 1
း 1
ျ@@ 1
べ@@ 1
久@@ 0.11969995505319769
乱@@ 0.6404873792492768
代 0.00740411041865693
任@@ 0.008001939919790473
修@@ 0.016851336325130747
入@@ 0.014967991509321502
剣@@ 1
剧@@ 0.04730192698009553
口@@ 0.03076824460638872
哲@@ 0.06364538471303959
女 0.015341669486539568
岳@@ 0.17027519891097798
易@@ 0.03761485481504069
獄@@ 1
甘@@ 0.05335538113985974
祥@@ 0.20615307723939005
程@@ 0.018466568842991037
等@@ 0.022668719481528092
肉@@ 0.11609190208921663
臨@@ 0.07698329261658712
莊@@ 0.15776753923421102
語 0.015153363597881116
護@@ 0.056775702143142204
變@@ 0.02614221095772815
達@@ 0.025952007255066693
那@@ 0.019541366855706736
鐵@@ 0.021890340440789885
關@@ 0.02514731131419676
麻@@ 0.07472199802045582
齐@@ 0.08992357983597067
산@@ 1
임@@ 1
헌@@ 1
호@@ 1
Chile 0.009655432438276386
Des 0.008853130928031392
Dies@@ 0.006507018905619021
Europ@@ 0.0057910518001150595
Fak@@ 0.015688075005241588
Krieg@@ 0.006696330248485086
Parti 0.015270654798579713
Sta@@ 0.005423629429463922
alen 0.006330074019338935
anl@@ 0.00858397846904745
conse@@ 0.005502397756610434
dad 0.008016975153013875
erh@@ 0.004938037455873817
esen 0.004374679526473779
esha 0.09260703285769462
esper@@ 0.015618535753372482
fav@@ 0.007768075724976528
hay@@ 0.024824895670294098
hiv@@ 0.07453145523928434
ibu 0.1874141571368401
ismus 0.010878198898930276
jap@@ 0.022741529855103793
jia 0.19251207856358246
kaz@@ 0.04637981041936817
manif@@ 0.010379786101682083
mich@@ 0.1025185379884784
mont@@ 0.01031611067562466
nant 0.00955240372554149
oppos@@ 0.006064148148301893
premi@@ 0.004706649049337274
principal 0.004837209817310115
raz@@ 0.012480490718570773
simil@@ 0.012090439214151004
tas 0.00881080791240464
tien 0.01147655124667625
tur 0.00654548290700332
uten 0.010487365957126835
village 0.002053074543892847
yen@@ 0.0086077225115721
zam@@ 0.029913207840759532
¡ 0.06939884332719623
ħ 1
ħ@@ 0.5753897595534531
ś@@ 0.028862679905823863
Ž 0.961588864471124
ɕ@@ 1
ɛ@@ 0.4237175701124898
ˋ@@ 1
ˌ 1
̚@@ 1
̤@@ 1
Ε@@ 0.007386668838220245
Λ@@ 0.008043450312793637
έ@@ 0.003924902259626842
ελ@@ 0.010258562071371956
τερ@@ 0.020193805149657726
Ц@@ 0.00442751491573712
б@@ 0.0008052476562747235
и@@ 0.000817798006186216
ь 0.0012619469305223724
ү@@ 0.4721793585355729
ام@@ 0.009696023873072149
ذ@@ 0.008998270548558073
ست@@ 0.009788130869997334
ى 0.0072886009977184705
ܝ@@ 1
अ@@ 0.011203365528010599
ध@@ 0.024235174151763694
वि@@ 0.01030559541886177
ப@@ 0.9368581372456941
ຽ@@ 1
დ 1
ჷ 1
ន 1
ួ@@ 1
ḍ 1
ṇ@@ 0.1743912218303024
ậ 1
● 0.4197683299233376
〜@@ 1
え 1
か 0.48332739802490055
ぎ@@ 1
び@@ 1
る 0.45226454534920857
ト 0.42752035120428294
ㄧ@@ 1
位@@ 0.02128564358159708
傑@@ 0.07451351908304352
刘@@ 0.034949600209913445
原 0.014964012921077335
孙@@ 0.07284378517505118
客@@ 0.021932273619656415
寿@@ 0.18508951019036204
尉@@ 0.8382581776235585
尊@@ 0.08736783700894524
巴@@ 0.005655513985231628
念@@ 0.06269591523140589
晉@@ 0.08692633755185343
池@@ 0.16376126635446353
浦@@ 0.09686582648512496
画@@ 0.07975314449523858
穆@@ 0.037341568024084046
組@@ 0.013073244042103789
縣 0.009981998593110736
舞@@ 0.0431760456481082
范@@ 0.03359490207746348
蓮@@ 0.17097273018205517
處@@ 0.039756250038160294
蜀@@ 0.4769984430729088
論@@ 0.06799859764130929
諸@@ 0.08212495573495178
豆@@ 0.19515110020307377
運@@ 0.010562765086383473
遠@@ 0.06663939401354861
雙@@ 0.029688415112094628
계@@ 1
반@@ 1
오@@ 1
용@@ 1
일@@ 1
Bras@@ 0.02197102940633122
Ce 0.004788403653375038
Kik@@ 0.09577510851487328
Serie 0.009085277333403377
Wah@@ 0.02607511037958404
adan 0.02989746224193124
agric@@ 0.005286390729723199
anno@@ 0.0395177358643286
chev@@ 0.010235361094383201
constr@@ 0.018525215779209986
contempor@@ 0.0076685686844396314
cula 0.036804920151057484
dies@@ 0.018063069281931597
dows 0.02461976047117959
droit 0.010876704883971139
encore 0.005988969075760207
endre 0.005647401551336296
excep@@ 0.0050161206871573
gut 0.011388783942070085
imba 0.10068570424470867
isches 0.0092775486428961
isine 0.02109490587205984
kid@@ 0.025389843862456723
leur 0.0019909928306318715
mina 0.00948476132841621
mw@@ 0.014695692825446504
nay 0.01815488057954514
nig 0.008760426429059387
novi@@ 0.11349785784636414
pek@@ 0.15880636860197775
ported 0.0028880636873421473
probl@@ 0.00411580847728005
publique 0.008025806823823584
reti@@ 0.00456242190887805
sans 0.004348605938832231
six 0.002561804083101726
stanbul 0.03326078902445538
tek@@ 0.018705813449219025
umba 0.040366073945668275
undi 0.061766159788156375
uza 0.08866778919486983
veau 0.026743725812066795
wana 0.12998846224070376
ɔ@@ 0.45681948780054993
ʒ@@ 1
Χ@@ 0.008836196451604909
ία 0.00339505893162148
ιν@@ 0.00767797757095461
κα@@ 0.006622216383760882
ξ 0.0825076193246405
όν@@ 0.009765958537243958
З@@ 0.0023578058367693024
М@@ 0.001319808592703919
Я 0.02171204926658856
д@@ 0.0005138481275022948
الله 0.05799000936149023
وَ@@ 0.18001547321505257
ک@@ 0.010083539767413009
ट@@ 0.01444965461953785
ता@@ 0.020048027037593442
ဟ@@ 1
ộ 0.02726353729153316
ờ 0.01631917961064698
ἄ@@ 1
≡ 0.7747381012979283
♪ 1
ク 0.47207437313044154
ヘ@@ 1
丸@@ 0.9551004105948006
伏@@ 0.12910880880454584
內@@ 0.012490455023107683
刀@@ 0.2351384477786999
則@@ 0.028374807550287477
双@@ 0.03455372542968202
城 0.009698755187208573
変@@ 1
威@@ 0.012802060548437987
孔@@ 0.06598475168235926
宁@@ 0.03929605326419882
居@@ 0.014912158895012455
川 0.01949524564542772
州 0.0037049086180117796
延@@ 0.023630101086824208
憲@@ 0.08860418005782235
月 0.0010883701632180356
桃@@ 0.08172889314357347
梨@@ 0.384260964275655
派@@ 0.033895421386209254
游@@ 0.01606975031898313
為@@ 0.014913769995751034
父@@ 0.02014440102694089
破@@ 0.0316930704558293
社 0.01991008033692582
罗@@ 0.00909238804939082
聞@@ 0.10241257348483133
胤@@ 1
血@@ 0.038792615820531715
遼@@ 0.32115529065709936
闘@@ 1
靖@@ 0.2629335247990392
頭@@ 0.041730655988039704
頼@@ 1
니@@ 1
랑@@ 1
북@@ 1
아 1
야@@ 1
트@@ 1
 1
Alem@@ 0.01251495261125643
Distr@@ 0.012861746902733522
Er 0.0014135922490286007
Klo@@ 0.009076692642951129
Kup@@ 0.023446322244281895
Stadt@@ 0.004447395252599605
Theo 0.021800561686997576
adop@@ 0.004601686985414602
aill@@ 0.0072495731423452975
aille 0.004910120393608068
aina 0.0497980160604241
aines 0.006035210910833088
along 0.002305563476070891
arri@@ 0.003359135390543653
best@@ 0.002642286763336534
chs 0.009959647968513024
comb@@ 0.004506573882990341
eln 0.005481602359492367
eyi 0.06424460846383079
gew@@ 0.0024017443831169266
gri@@ 0.00689490017727999
grup@@ 0.007060134948140236
hus@@ 0.0069890685053033
including 0.0011861289995660931
inde 0.005117589950020977
introduc@@ 0.0035707089873644815
izi 0.06248760862707891
kuh@@ 0.25744110846616736
maf@@ 0.05593636118280841
matr@@ 0.012123838948312609
oder 0.0012163835894562851
scher 0.005973834450894561
sent@@ 0.007577725779412518
tario 0.0076062286243277185
tet 0.002329224309643839
vai 0.02638276435951283
wah@@ 0.006398217361062472
yap@@ 0.00769269124136684
yen 0.0074048315195326345
zt 0.009685274863263755
zw@@ 0.0073675636685899696
ô@@ 0.0025921942174860113
Ł 1
ł@@ 0.005260060004664172
ɔ 0.6754984769232657
ʔ@@ 0.8245202763337927
̍@@ 1
Λ 0.26435001225968924
Ν@@ 0.005600533954254988
Τ@@ 0.005540416129914643
ζ@@ 0.005478959891981803
κλ@@ 0.01213286529142845
ον 0.020830964827155737
ра@@ 0.0006284031023297942
та@@ 0.0008429542558986111
ъ 0.050191600488829285
ь@@ 0.0008842527326943486
د 0.004210244321022693
سي@@ 0.007435911166681434
ं@@ 0.009936206043313434
थ@@ 0.021213788014216174
य 0.004626759848827261
ຼ@@ 1
ྱ@@ 1
ဗ@@ 1
် 0.6097140310275749
ლ@@ 0.30752192351675245
៉@@ 1
Ḥ 1
‡ 0.5874133323045944
Ⅲ@@ 1
【 0.38166187408046065
ほ@@ 1
り 0.44035575258995324
チ 1
亂@@ 0.451203278254323
于@@ 0.042779310198912034
俊@@ 0.13666587548777426
博@@ 0.01191404651409883
字 0.01081960976159789
宜@@ 0.07427314017376792
形@@ 0.012225626656435399
房@@ 0.039187893464623286
无@@ 0.014244098478647995
曾@@ 0.01510098049129386
桓@@ 0.2896380688428169
注@@ 0.03228937634268033
洛@@ 0.011921801052076528
洞@@ 0.15231327762938868
版@@ 0.0192838355429365
禧@@ 0.638890315014481
落@@ 0.0342944094139392
虫@@ 0.7300100470307098
贵@@ 0.05880991622313949
農@@ 0.04394564080632195
追@@ 0.03067387968534939
鄉@@ 0.049756650939210084
際@@ 0.05337806177079634
고 1
노@@ 1
학@@ 1
황@@ 1
Akadem@@ 0.014626982145159452
Argent@@ 0.010965699894540356
Deutschland 0.004517435288431357
Dez@@ 0.10634408854137366
Fes@@ 0.030055462973344733
Fren@@ 0.07155635473016517
Geb@@ 0.005864074601124621
Heim@@ 0.008113780200940715
Lehr@@ 0.007232347831061322
Nieder@@ 0.004972441708555529
Rus 0.051840034214897475
Schi@@ 0.00836315971750078
Schl@@ 0.007318648700740814
Thanh 0.032495821793382944
Virgin@@ 0.05798947198407174
Zentr@@ 0.00793190115156245
acio 0.008750736437176377
adas 0.0014561815496142642
aires 0.0021306466555116453
alien 0.007235308001176013
announced 0.002840455053514103
arte 0.012401615329098534
began 0.001676368857479623
brit@@ 0.01285474392518053
century 0.0019098510316233699
eaux 0.007597251276524847
elem@@ 0.008414268759157921
gil@@ 0.008373331794855608
hr 0.006228469342674452
idas 0.005818633269656714
ien@@ 0.008683200875584529
iten 0.002899743654004424
kata 0.045212833725052984
kub@@ 0.06673724394481202
lik 0.012951961458032464
mara 0.015805563907854096
maz@@ 0.04288526514677312
municip@@ 0.005187226262002448
named 0.0017759325166352034
nde 0.014842423076434616
plu@@ 0.009107473483378353
said 0.002242130598491134
sent 0.004215338735844647
tima 0.010047973953212674
tung 0.00221971957585633
undo 0.031741243464233675
usi 0.06347379413745077
verw@@ 0.003934398311401872
who@@ 0.003152037016718741
»@@ 1
Ä 0.6047953890226281
ð@@ 0.027625407860611385
ò@@ 0.03576958805026142
Ş 0.5792666750177852
ư 0.013993957444915097
ʃ 0.9270841318840198
Θ 0.38642817649852623
ει@@ 0.007360017277628371
τη@@ 0.009582286938306121
ών@@ 0.01261934152912058
И 0.004720676069230399
ба@@ 0.0013719169096238527
о@@ 0.0003728384298467894
ћ@@ 1
ա@@ 0.12634399132277677
ֵ@@ 1
ה 0.23784940669772456
י 0.3108239154729615
الس@@ 0.006112857585436102
ت 0.004182846015731337
لا@@ 0.007163499078742554
ܐ 1
ं 0.026763055346211165
ா@@ 0.5724312010809672
མ@@ 1
ခ@@ 1
ဘ@@ 1
ါ@@ 1
ံ@@ 1
ნ 1
ថ@@ 1
៊@@ 1
ṃ@@ 0.3974731891652143
‹@@ 1
※ 0.37122963102670303
♦ 1
ⴰ@@ 0.7242844780343904
『@@ 1
の 0.16676841195547207
ら 0.5776625025585833
ィ 1
乾@@ 0.05291576095228424
传@@ 0.015442479876360654
佐@@ 0.054433321070406424
佳@@ 0.07819242406338961
傅@@ 0.14466601683466568
功@@ 0.022264505937079532
加@@ 0.0041312027709948735
医@@ 0.022814604579886738
去@@ 0.0320022598109732
婆@@ 0.22381322926384598
崇@@ 0.05059643672202791
布@@ 0.006835514568455589
当@@ 0.008771195064856777
彭@@ 0.07266562031418675
復@@ 1
探@@ 0.03613580418777037
放@@ 0.013015401153943385
早@@ 0.01610254125519368
机@@ 0.008622505546255526
果@@ 0.06714973270470785
極@@ 0.027589235080601588
榮@@ 0.06702459021717899
欢@@ 0.1437191192461792
步@@ 0.037167942994530564
洲@@ 0.0674450108878377
淑@@ 0.20747357238303607
灣@@ 0.0202500684089647
然@@ 0.030275320349192943
照@@ 0.04047930947854776
瑞@@ 0.0178714630586198
用@@ 0.008303667082282916
留@@ 0.023203658595270637
發@@ 0.0051010439512942365
督@@ 0.03096703231500957
祝@@ 0.16488335283685435
竜@@ 1
竹@@ 0.06119277448776826
第@@ 0.004902359585940781
総@@ 1
總@@ 0.009216403097875414
红@@ 0.02806964187610572
船@@ 0.03908009773566855
菜@@ 0.19575256163091634
說@@ 0.05904994470598852
説@@ 1
謎@@ 1
豊@@ 1
逆@@ 0.15952426558114444
造@@ 0.015698626493814025
遷@@ 0.11172081285089415
鍾@@ 1
限@@ 0.01620184778471766
隋@@ 0.14296068101837053
靈@@ 0.05887494486985731
는 1
다 1
만@@ 1
심@@ 1
크@@ 1
파@@ 1
.000 0.009368843586687431
Haupt@@ 0.003591506471452336
However 0.001879838785229869
Politi@@ 0.004967960477936098
Unter@@ 0.0019248626812023149
XVIII 0.014924355048330592
aben 0.004284495706216858
allow@@ 0.003082387093188492
andes 0.010210244299550222
anh 0.008465406202811405
azo 0.014561625742336735
cht@@ 0.00806819081893248
clas@@ 0.005170505982541337
continued 0.0030222781367973376
dah@@ 0.00809691988528012
debut 0.0031802974636451304
diplom@@ 0.008304956430512822
enos 0.03239572750257358
eurs 0.002507006799248827
fab@@ 0.008432371290372444
gek@@ 0.0068013135788265984
hau@@ 0.006346568301343116
having 0.0029794365712043852
icos 0.002990192709249403
ikia 0.21157287576467101
incorpor@@ 0.004927229435593878
interpret@@ 0.008104066979792771
issen 0.00879171746410314
izo 0.03346054497797643
mash@@ 0.07521705029781353
often 0.0025571806357917687
organis@@ 0.003933335929371079
pre 0.003720497870501226
seau 0.006720257634788293
sich@@ 0.0039282476280535095
similar 0.003419285621828208
tras 0.004514519812391018
wann 0.08371080393360104
yaz@@ 0.010085862700332423
zog 0.006609373088546138
º 0.011577642936094904
¾ 0.46285635282671106
Í 0.49937898128009556
þ 1
ă@@ 0.01273678716330822
ő@@ 0.060656578495435924
ř 0.22987752329762012
Β@@ 0.005433507055096856
Ρ@@ 0.00795832793718554
ακ@@ 0.006703303342426796
ερ@@ 0.005170834101971629
πο@@ 0.009634526866327648
мо@@ 0.0005252722471959428
ри@@ 0.0005043995341509164
א 0.581322262393833
الج@@ 0.0065388962697083075
ب 0.0041576339850939595
ق 0.005076813078777698
م 0.00415145564581038
ون@@ 0.007489556313117486
र 0.004438581724921591
ी@@ 0.029064385153867996
া 0.7461152577996392
ి@@ 1
ు@@ 1
฿@@ 1
ာ 1
მ@@ 0.4621999741651747
ხ@@ 0.8781176877830508
ჽ 1
២ 1
ᡳ@@ 1
ṛ 1
ἰ@@ 0.6139931210966575
《 0.0015956396539511036
き 0.4890142762422741
ぐ@@ 1
ざ@@ 1
づ@@ 1
ア 0.41875119715050413
ㄨ@@ 1
书@@ 0.014162573078598306
亮@@ 0.1144678114430376
倉@@ 0.2003450559054251
倫@@ 0.025444903918975397
共和@@ 0.11941671291480546
半@@ 0.014704072263565205
及@@ 0.014567917360902682
哈@@ 0.009752581267980202
嗣@@ 0.24864184242757204
头@@ 0.051677186477798585
夷@@ 0.2176723164172812
奈@@ 0.061094320056635766
尔@@ 0.005065201916428643
尼@@ 0.005243667438087339
幻@@ 0.09859675762291288
提@@ 0.007900008445878865
支@@ 0.013068834309209375
改@@ 0.004751968494714465
故@@ 0.013665649371373045
望@@ 0.10939629059593053
杜@@ 0.02602323566733009
格@@ 0.006726082363497971
樹@@ 0.06792053663145507
毒@@ 0.06589951442941379
浪@@ 0.08969672923093543
潘@@ 0.0757619746897898
牙@@ 0.029103747275651543
珠@@ 0.07488867961141402
璋@@ 1
田 0.019141085005704973
系@@ 0.05684130015965743
芳@@ 0.17410684568134385
菩@@ 0.174122348027144
蒙@@ 0.016307272270620867
蜜@@ 0.26829031289516453
街@@ 0.018147271189881815
语@@ 0.02583756907649734
軍 0.007380755564880278
連@@ 0.013605750260506462
铁@@ 0.03360255839120323
雍@@ 0.16160384188850957
鹿@@ 0.09410365673898534
黑@@ 0.013633542650433317
거@@ 1
미@@ 1
애@@ 1
은@@ 1
이 0.8683694896504681
재@@ 1
후 1
희@@ 1
􀂃 1
Copa 0.00854881142019861
During 0.0019125046336787319
Famili@@ 0.006081374624400388
Francia 0.009829956777881288
Hoch@@ 0.004006200456650264
Mundial 0.008956307183639274
Roma 0.011839934122879835
Seine 0.004820452584135328
Spiel@@ 0.004064148468252212
Stadt 0.0023376882880318966
Zwe@@ 0.007504828824671833
ansa 0.08662949758634315
auch 0.0005147393851450292
bahn 0.005022514631543119
because 0.0020192844479281764
bio 0.007016048236938734
dest@@ 0.007486543659875487
det 0.0027974724070943357
enas 0.00987430892512383
estim@@ 0.003711801818579914
forces 0.0035451110610036415
forma 0.0033710111104790458
gru@@ 0.008568798312934738
idos 0.0035325479690459546
ifa 0.20888039421454152
indi 0.07226213020218006
individ@@ 0.0043448275578672505
isho 0.1812329346288019
itos 0.009241737181430738
jah@@ 0.006522403861728032
jou@@ 0.00224159294931926
jour@@ 0.012666709818914487
kop@@ 0.01196732704748165
meister 0.005744815696752606
oles 0.005831560787532554
ortho@@ 0.022611738062248837
osu 0.04901831300246177
pero 0.0020452378939422263
police 0.003957529737132724
provin@@ 0.00733376012410463
registr@@ 0.005354870454415645
schw@@ 0.00442910050339891
sek 0.05632454512102033
temps 0.0030137111288006456
tif 0.005453851601456586
ungen 0.0005676018236701634
voy@@ 0.004545843018828131
vu 0.014400657109185947
wur@@ 0.01417155345901302
zis@@ 0.025726202441916694
ż 0.28707091611303304
ɡ@@ 1
Θ@@ 0.022457880754093218
άν@@ 0.004121851097867401
αρ@@ 0.005023634364686598
χ 0.05351385007906482
Рес@@ 0.008471281437347888
ар@@ 0.0011469033397657703
е 0.0002504429115762486
ма@@ 0.000664150644646655
т 0.00038609466329760436
ִ@@ 0.4159518880233965
ח@@ 0.30904112506716286
ט@@ 0.5412802149011459
ל 0.32738957572137467
اب@@ 0.006625611249788236
الر@@ 0.012456641128051813
الع@@ 0.005014373585883971
عبد 0.026772231531304203
مو@@ 0.008085931485864055
مي@@ 0.007566900287911943
ܠ@@ 1
ނ@@ 1
महा@@ 0.03305079104459409
ਕ@@ 1
ਾ@@ 1
ਿ@@ 1
ໍ@@ 1
ჶ@@ 1
រ 1
‑ 0.13539031857033337
→@@ 1
⊕@@ 1
ⲁ@@ 1
こ 0.5719827278742288
し 0.2760013435122734
ぞ@@ 1
と 0.3488526155670229
に 0.3796166565404875
ぶ@@ 1
与@@ 0.07450695532704674
义@@ 0.05069146488492651
亭@@ 0.47805051981316504
仔@@ 0.10160303299079626
克@@ 0.003447377696732737
兒@@ 0.036782750945097115
列@@ 0.006133445632102399
到@@ 0.036097480067374635
刺@@ 0.041777991316761215
匡@@ 0.5610811203955315
受@@ 0.014745014578997802
右@@ 0.03439419761144711
圣@@ 0.018336315899604824
堯@@ 1
壽@@ 0.11196839976974811
奉@@ 0.05294876518368089
奖@@ 0.05053567252669557
奴@@ 0.10424335396919664
好@@ 0.026279975877536485
嬪@@ 1
宗 0.016426197044923402
岡@@ 0.07813677317721923
崎@@ 0.10899951535662371
干@@ 0.026268251005953456
开@@ 0.007785646457365554
強@@ 0.021649410898818177
征@@ 0.04599674616684721
律@@ 0.031442890102099365
恵@@ 1
慧@@ 0.1471695601230982
手 0.006859605172323498
指@@ 0.006365803747385642
本 0.005012597109338803
村 0.008712489663789853
柴@@ 0.05876925925384499
梦@@ 0.18255619970460732
次@@ 0.017102669458833056
浙@@ 0.03178401192244952
渡@@ 0.06855457048702913
湘@@ 0.11661854735458846
烏@@ 0.023055895162531755
牛@@ 0.03516621487893846
由@@ 0.009197355905056558
私@@ 0.029847864017116334
編@@ 0.017738785774024123
节@@ 0.025643071282108885
薛@@ 0.11851927822380935
要@@ 0.03942024761121064
观@@ 0.025920569262893756
計@@ 0.012543791215803225
足@@ 0.027288991158523176
載@@ 0.17202609657367238
輝@@ 0.2868002647150635
陆@@ 0.03643689380832596
震@@ 0.07053083254682217
霸@@ 0.1301295369062216
韩@@ 0.03626963584537217
魯@@ 0.026641320750936563
鴻@@ 0.22555571980309738
가 1
백@@ 1
삼@@ 1
을 1
Bev@@ 0.04422245736726611
Ein 0.003476044979111792
Machi 0.3518425739257782
Nh@@ 0.012091560568186818
Ort@@ 0.005296429553680612
Partido 0.01072884982876687
aje 0.003007025415261423
anst@@ 0.006868789301420805
artist@@ 0.0038034602224870985
atz 0.004178471578787635
ayr@@ 0.012323853862601973
bang 0.012418943794655813
cet 0.007847032769247921
chef 0.005755179952257565
corresp@@ 0.004454347255630857
dans 0.0002431525333792344
defe@@ 0.002561266164234811
drei 0.0022410918064138495
ecke 0.004711618401945094
egem@@ 0.05361166857307037
eski 0.021719902072259406
europ@@ 0.005889596681333006
fest@@ 0.006610909624447956
hay 0.0047555499148415736
ickl@@ 0.017572247287172223
imbo 0.06284114492400718
iran 0.09789889548292939
isme 0.0036889025063185183
jas 0.00788393687829333
kea 0.21383114794353691
lama 0.017555501585859622
meng@@ 0.0586729100117868
occup@@ 0.003671704341290176
roi 0.005813714500450991
seh@@ 0.007529780919040859
sey@@ 0.03688171998782394
tionn@@ 0.002814128341769071
trou@@ 0.0041321489350405055
ulia 0.04852896800482401
unde 0.0048936303459401025
yet@@ 0.01636722045968589
³@@ 1
´ 0.04155206625969584
¹ 0.35808698047759846
î@@ 0.002372014458320992
ɴ 1
ˇ@@ 1
ˑ@@ 1
Ι@@ 0.00927294635691917
Φιλ@@ 0.08831356774532195
έν@@ 0.006341628857193807
ειν@@ 0.06204970632644335
ικ@@ 0.004967803209620279
κο@@ 0.018142000413192822
μα 0.006162150970413084
ώ@@ 0.005899334398225053
Во@@ 0.002183789178373333
Е@@ 0.0014857065402360838
Со@@ 0.0014205822711541626
Ш@@ 0.0023258432269837553
в 6.319640384800435e-05
да@@ 0.0006373969261147033
не 0.00038594401678573116
с 0.00018953354950213794
са@@ 0.0009091022448823403
ַ@@ 0.3690822470819847
ג@@ 0.42777023690067484
ן@@ 1
פ@@ 0.31046449507244434
الح@@ 0.004671193216014535
الم@@ 0.0023234199853869593
اه@@ 0.02038201482328327
سی@@ 0.01979427808974882
ن 0.007010364322470523
ّ 0.029781329466349322
ܘ@@ 1
ܪ@@ 1
ܫ@@ 1
ख@@ 0.013294210176807443
ङ@@ 1
नि@@ 0.01148683912433816
वा@@ 0.007854087458584421
ল@@ 0.7679318888085518
ฦ 1
฿ 1
ໂ@@ 1
ໄ@@ 1
འ@@ 1
ེ@@ 1
ူ@@ 1
გ@@ 0.6717501698773182
ឋ@@ 1
ឹ@@ 1
ៅ@@ 1
ḍ@@ 0.22761558939034027
↑@@ 1
↔ 0.5011311882319556
⟨@@ 1
』@@ 1
す 0.7012104586679659
下 0.002536833793503651
为@@ 0.011512666448846397
亚@@ 0.009922227951364219
便@@ 0.04674994286267271
兴@@ 0.03238912375256509
军@@ 0.007616509431064505
刑@@ 0.05102591234684551
劍@@ 0.14196897961136484
品@@ 0.027832392002503918
孟@@ 0.048474835643407994
宏@@ 0.09766758938514802
室@@ 0.1086844734257069
容@@ 0.022595265553013996
幸@@ 0.07295220724003416
店@@ 0.13861337029528695
待@@ 0.11275535084827847
得@@ 0.009682339074401566
必@@ 0.01670931360150324
忍@@ 0.1468525845767675
恐@@ 0.038164013569332196
拓@@ 0.07727990874107307
斯@@ 0.0022804190463510537
旗@@ 0.03241018259806234
映@@ 0.1680541079425358
暗@@ 0.055294302913460366
杨@@ 0.036761722200300925
根@@ 0.00810316547744494
桥@@ 0.075678753230653
殊@@ 0.23483797680483215
段@@ 0.08216539868136295
沖@@ 1
活@@ 0.008848416407019284
淮@@ 0.10085846694837382
深@@ 0.012804182968310911
温@@ 0.037153378753545255
熙@@ 0.2168128026865132
生 0.0023837177143217433
申@@ 0.03382345490940515
番@@ 0.1180980892342327
登@@ 0.013187457621504176
砂@@ 0.16949951781182857
礼@@ 0.07546645643425388
禮@@ 0.05600692900434466
童@@ 0.06292747479302245
純@@ 0.12810473761152483
結@@ 0.008612400482752967
襲@@ 0.11008220827490736
象@@ 0.03965061011137174
資@@ 0.010735237869203317
邦@@ 0.0586221742105245
郷@@ 1
鄧@@ 0.10635201296438715
镇@@ 0.025078063368951402
际@@ 0.03951747991513881
隠@@ 1
顔@@ 1
马@@ 0.006052041045987651
麟@@ 0.6364347272251122
궁@@ 1
단@@ 1
말@@ 1
별@@ 1
송@@ 1
숙@@ 1
승@@ 1
평@@ 1
￼ 1
Afrika 0.02234424235252347
Ago@@ 0.06024083452269093
Amerika 0.019597816211783876
Grund@@ 0.0037528593387729592
Guerra 0.007321243091785103
Janu@@ 0.3565301897343399
Kenya 0.018007279924426883
Meter 0.0050047809046753705
Santi@@ 0.09453468321676738
Vier@@ 0.006923038846942106
acces@@ 0.005469470316655654
adores 0.0028511447238241685
agua 0.005086895854780369
aki@@ 0.0571782636802121
bey@@ 0.03363622524895796
bez@@ 0.004486791535374221
bien 0.002416224267589039
built 0.0014593818948862621
dad@@ 0.008659326122392487
deutsche 0.005972773259195297
eden@@ 0.007921930245256746
ellen 0.0021973045508551876
emu 0.14106893350354224
endant 0.0027590767759117975
engo 0.04277738358728763
ense@@ 0.00375799777216979
few 0.0026263866324098047
financi@@ 0.0034897567751752366
hem 0.015213692941441218
huo 0.11776983382673015
iler@@ 0.01013136165418499
inden 0.0055349921901244065
individu@@ 0.004095162548404641
install@@ 0.005669360905653883
investig@@ 0.002891146813462997
ischen 0.0003411657572037863
kem@@ 0.03415541159187589
libre 0.008488261348147032
lichen 0.0007279508564451622
lima 0.02338916506031401
mano 0.007292406133137637
mek@@ 0.017659492860980737
monde 0.003240082661386045
namo 0.03637251168404825
nou@@ 0.009467198018482803
otra 0.007753306699677783
produced 0.0023053128693902177
quel 0.006189681872168305
reich@@ 0.0020052840966592795
sett@@ 0.002649659696485789
sos@@ 0.018603418426235606
tek 0.023769762714105525
tige 0.004501794072693453
unia 0.11688990380710426
vita 0.13077442719671348
vy@@ 0.0557777550112052
wam@@ 0.08297732431071832
±@@ 1
É@@ 0.0011048500923413781
Ô 0.16123410002620667
Ø@@ 0.050772546410744926
÷@@ 1
đ@@ 0.001190845690645354
ė 0.05569633922725207
ţ 0.7320797719018639
ʌ@@ 1
ʾ 0.4155257563225188
ʾ@@ 0.21210066059575425
˚ 0.697483046167759
˥@@ 1
̀@@ 1
̪@@ 1
Γ 0.04291349771105671
άρ@@ 0.0067358475167885856
αι@@ 0.005985089339208099
ι 0.0038795469701810095
τ 0.0068306647596177135
τος 0.012995966710037244
Г 0.00828463801011599
То@@ 0.0031047724441279163
Ч@@ 0.0020521553473080937
бе@@ 0.0009143493451234647
во@@ 0.0005046811295231998
д 0.0006358798148331904
ди@@ 0.000608554109038131
ен@@ 0.0007652213398313987
л 0.00025730498897631634
ли@@ 0.00034234862423147843
ло@@ 0.0004409447887107756
ный 0.0005033018697683501
ский 0.0005874385030505949
то@@ 0.0005576998045959378
ן 0.2277226306483673
الأ@@ 0.003020409784818323
ك 0.005197972158905033
ما 0.0065347064728862704
محمد 0.020371827235552878
ور@@ 0.0057833730949960385
ی 0.009711197361570494
ंग@@ 0.02085549994073484
आ@@ 0.005258511414963189
नी@@ 0.030749739028525333
राज@@ 0.04108228440834756
ै 0.3706359802308181
ਰ@@ 1
ੰ@@ 1
พื้@@ 1
ც@@ 1
ញ@@ 1
ឧ@@ 1
ắ 1
ῆ@@ 0.3824137063197955
∆ 1
○ 0.6255315763911569
♡@@ 1
⟩ 0.4468593180674903
く 0.47422081617286554
ぼ@@ 1
ズ 0.8148200377886893
丞@@ 0.2638648123721173
中华@@ 0.015755463186374913
亥@@ 0.16022679972903353
優@@ 0.030546205727785915
兄@@ 0.03252842234232838
其@@ 0.0048637805609576855
切@@ 0.028314380622849137
制@@ 0.006987728006906566
卓@@ 0.07354870351907684
危@@ 0.032851507130197875
叉 0.14922305155992782
君 0.05047930022438962
咲@@ 1
員@@ 0.009981334919127994
團@@ 0.018665566695153415
声@@ 0.03211443031005405
夕@@ 0.2669717529956115
奥@@ 0.008864015822285524
完@@ 0.011333752110365367
宫@@ 0.08137181278239278
寒@@ 0.1320103343645501
巨@@ 0.02319118979757013
帥@@ 0.7485428098345853
平 0.00926200468030077
年 0.00030513931835105744
庄@@ 0.05203920009826975
庆@@ 0.049108656576397125
府 0.00861588117808481
彩@@ 0.06615868704504942
想@@ 0.030653339196157363
懷@@ 0.060637770254041996
料@@ 0.12119098865553361
於@@ 0.04429121999191108
施@@ 0.02035248051925747
旅@@ 0.014861775034476932
时@@ 0.0050599791467623705
暴@@ 0.02576887998145778
杭@@ 0.061658237991340535
浮@@ 0.07136458683305735
湯@@ 0.08646261039871136
熹@@ 1
珍@@ 0.0684004228993653
病@@ 0.012598686320660057
皇 0.03644792937479401
睿@@ 0.619831407509621
祐@@ 1
笑@@ 0.27279066653082534
粉@@ 0.06118798781892535
絵@@ 1
綱@@ 0.1618680261308105
織@@ 0.14898147534085168
肅@@ 0.4192000194411263
般@@ 0.11144425648627179
茂@@ 0.09545176769702765
藩@@ 0.1707360550643112
蛇@@ 0.17524974488117884
衡@@ 0.1276168098991992
記 0.03125221184111315
誠@@ 0.1647140948151488
速@@ 0.01673392312070043
邪@@ 0.2269298625695218
钱@@ 0.09508049547552469
频@@ 0.04602148827893991
飯@@ 0.2630219355336724
骨@@ 0.04539255687086271
걸@@ 1
금@@ 1
덕@@ 1
래@@ 1
바@@ 1
석@@ 1
운@@ 1
은 1
타@@ 1
﻿ 1
Brasil 0.011539967220897016
Flug@@ 0.004776313215058479
Nguy@@ 0.08271330410128579
Osman@@ 0.038366014781243296
Par 0.006437824135088113
aras@@ 0.03648509811499753
arias 0.0076944879036586564
became 0.000716868867856893
become 0.002182442956183371
bir 0.000935231033329916
came 0.0020563606057854267
chez 0.004897106184911687
commune 0.0014386509833803256
conoc@@ 0.004094806882839624
dedic@@ 0.004295591632493914
deutsch@@ 0.010601635739691676
died 0.0015038530236891263
dik@@ 0.013722496952405537
duk@@ 0.03482136913626877
elde 0.023635098993145448
established 0.0019330810856276798
favor@@ 0.004325977787689758
fica 0.004413813345648901
grande 0.0033491203032905256
however 0.0023791155421681097
icht@@ 0.004295733172301897
ilde 0.020229126932631226
inay@@ 0.12068360401481891
istre 0.005561933091999632
jed@@ 0.0528324221377871
liche 0.0008736020385959174
lieb 0.0537835008441379
located 0.0011998568174584033
loi 0.005453389409889657
mak 0.01171655800346487
mch@@ 0.20189824954358623
onio 0.008417167127459812
oren 0.0029341136719059444
partement 0.011968746747244538
primer 0.002490013207256549
sana 0.07157890024996721
schi@@ 0.0026955135021748807
sti 0.07293308582149688
uela 0.006173277658716313
visit@@ 0.00436260203609157
werk 0.004014880698638528
west@@ 0.0021822636193465964
zil@@ 0.040650923139296254
¥ 0.1855217679829357
Þ 1
ê@@ 0.0011482182564974597
ø@@ 0.005007239008484902
ĩ 0.02115510284128831
ş@@ 0.001975530829727248
ɑ 0.8526059848442884
ʊ 1
ˊ@@ 1
Ο@@ 0.006462512692233237
έρ@@ 0.006063059200213476
νη@@ 0.02177968359796633
ο 0.0008375108721217888
οπ@@ 0.012572619463705402
της 0.0006845527592977741
τι@@ 0.005092281651834902
όν 0.018252533015668943
Бе@@ 0.0029316784141810034
Ж@@ 0.0025034053526962296
а 0.0005268233648055011
ве@@ 0.00045922273747725013
вич 0.0023684360088854018
ко@@ 0.00036449970529294347
ле@@ 0.00034964362716599894
м 0.00022641472830832755
си@@ 0.0006391178308459811
ска 0.0023203503728008805
ха@@ 0.0018765368867366288
ъ@@ 0.004491968071003095
ֶ@@ 0.7029819933863202
ֹ@@ 0.5601887759797239
ـ@@ 0.03246809451217128
في 0.0005971440626373968
وي@@ 0.003894182327597649
چ@@ 0.011756900969913369
ڠ 1
ܬ@@ 1
ः 0.08606393005509771
कु@@ 0.024911118442678105
ति@@ 0.022396352862757575
देवी 0.15978643637973183
ने@@ 0.014044768935911908
वे@@ 0.015079739921220747
ार@@ 0.01755604713791951
ॐ 1
ন@@ 0.7652525434941799
ু@@ 0.6726469355103626
্@@ 1
ਸ@@ 1
ச@@ 0.6894631088981217
๎ 1
ဆ@@ 1
ữ 0.017706261856062784
ỳ 0.1291385201718229
ἐ@@ 0.19995583749415688
ῦ@@ 0.5220543380080426
⅓ 0.6951445790150718
ⵍ@@ 1
々@@ 1
』 0.04762655728830305
お 0.507819853579353
け 0.7840805175003243
た 0.24875685455474295
て 0.3901205839249437
ぬ@@ 1
゚ 1
ヶ@@ 1
乙@@ 0.037691423110494456
井 0.04957080077801911
亞@@ 0.005177737981622961
他@@ 0.01837814315291282
休@@ 0.0357608913896587
俠@@ 0.48678997505366367
偉@@ 0.09163471351489413
兰@@ 0.01488085903962907
再@@ 0.011335551303497638
冬@@ 0.0374835533209988
勢@@ 0.07935826830325346
卿@@ 1
味@@ 0.07092399933274447
圆@@ 0.06147739814412882
國 0.002173027934831271
坂@@ 0.16617419078888682
坊@@ 0.6165448265297047
坡@@ 0.15223813869512665
奕@@ 0.4957080077801912
姓@@ 0.0863281523301284
姜@@ 0.11609190208921663
峰@@ 0.1138793985950999
幕@@ 0.05598388766817977
庚@@ 0.18516246178283965
徒@@ 0.09702863778809831
悟@@ 0.3739460929616931
意@@ 0.005883201303369693
戒@@ 0.1200974178467543
挑@@ 0.04275102896133829
揚@@ 0.14356624952528713
攻@@ 0.011182807755053752
敏@@ 0.0726191648019087
晋@@ 0.04014790779697909
案@@ 0.03503831675604322
桐@@ 0.23873535317264744
欽@@ 0.2322026014423726
歲@@ 0.7399810456698107
殷@@ 0.18600301770532984
水 0.0070869322703952095
汗@@ 0.17109082158292688
決@@ 0.012379648715561655
津@@ 0.0345171315981441
消@@ 0.012768062701509045
淵@@ 0.38990844657642554
溫@@ 0.029252080907865234
滅@@ 0.09871167858673549
灯@@ 0.19169673392702755
狐@@ 0.3078092437235658
狼@@ 0.19100736101599536
略@@ 0.062057348500934396
碧@@ 0.12188367044943847
禹@@ 0.4307850004530169
種@@ 0.02662860025082338
突@@ 0.016130875971655547
素@@ 0.06260458665508767
終@@ 0.029950988210523864
[...]
