् 8669031
के 1690761
। 1546065
में 1278663
, 1226863
है 1085862
प 959696
स 833475
की 826285
और 690486
़ 656794
का 643224
से 629482
क 572707
को 505310
त 484399
य 477541
न 460326
एक 453923
ट 451836
र 438151
र@@ 435715
ने 427443
द 393143
) 387192
( 385418
हैं 373996
म 346276
व 345029
पर 333703
&quot; 332340
ल 326766
ज 312772
न@@ 306001
स@@ 297450
म@@ 296806
आ@@ 296555
ड 279781
. 278968
@-@ 274189
रा@@ 266689
व@@ 266646
क@@ 256270
किया 242885
था 242620
ल@@ 241400
वि@@ 239642
त@@ 239208
य@@ 236065
या 234265
ब@@ 234011
कर 233967
लिए 227242
प@@ 224552
ं@@ 222370
अ@@ 220063
ग 214996
वा@@ 214847
भी 205380
श 205287
ह@@ 204817
सं@@ 197249
ता 196827
ष 195457
यह 190775
वर 189263
ला@@ 185139
इस 182315
गया 178847
ज@@ 177992
च@@ 177181
ग@@ 176824
कि 172485
ब 169042
द@@ 168837
ना@@ 167352
ए@@ 167266
या@@ 164961
ट@@ 162009
श@@ 161117
कार 160542
ध 160260
फ 159530
री 159504
का@@ 157400
ण 156309
मा@@ 151465
रे@@ 149285
ना 147121
नि@@ 147058
रूप 145579
ही 144052
ली 141704
बा@@ 140953
ी 136221
उन 134751
सा@@ 133847
रि@@ 133408
जो 131657
रो@@ 130243
पा@@ 129432
ति 128220
ख@@ 126906
जाता 125218
इ@@ 123342
ती 123240
े 119087
जा@@ 118580
साथ 117304
नी 116802
ता@@ 116451
करने 115682
ई 113335
तर 113120
बाद 112692
उत 112411
ड@@ 111755
ह 110170
हो 109770
राज 109653
वारा 107481
थे 106352
रा 105952
तक 105152
ला 104678
भारत 104191
थ@@ 104108
मि@@ 103565
&apos; 102958
ने@@ 101698
ध@@ 101535
: 101376
नहीं 100235
मे@@ 98684
िक 98515
यक 97222
च 97004
दी 95731
शा@@ 95562
ा 95526
वे@@ 94798
उ@@ 94348
सि@@ 93786
सु@@ 93662
निर 93304
री@@ 91606
फ@@ 91477
ले@@ 91047
थी 90561
ते 90450
मु@@ 89788
अन 88733
ष@@ 86793
तथा 86774
हा@@ 86524
थ 86221
पूर 86202
लि@@ 85728
अपने 84981
को@@ 84718
ित 83769
ले 83325
ियों 83032
भ@@ 82540
कि@@ 81783
सी@@ 81536
ार@@ 81357
दिया 80613
यू@@ 79837
से@@ 79697
इन 77952
जा 77820
ं 76609
ओं 76541
ू@@ 76493
दा@@ 76419
षेत 76360
सी 76181
सर 76137
वह 75556
टी 75313
ंग@@ 74746
होंने 74573
दर 74520
जन 74091
छ@@ 73088
ख 73087
दि@@ 72862
होता 72228
ंग 71507
राष 70886
ण@@ 70067
नों 69980
बर 69543
जी@@ 69195
ई@@ 68399
उप@@ 68228
अनु@@ 68026
बे@@ 67585
ी@@ 67103
ों 67083
ए 66477
ि@@ 66378
सम 66299
हुआ 65799
थित 65446
गु@@ 65300
घ@@ 65288
मो@@ 64902
वे 64763
कर@@ 64720
े@@ 64689
शन 64240
ति@@ 63610
ु@@ 63375
चा@@ 63197
रों 62967
के@@ 62504
मी 62279
पु@@ 62040
नाम 61909
टे@@ 61497
पर@@ 61326
टर 60714
दे@@ 60414
कों 60373
ली@@ 60258
जी 60151
- 60018
कुछ 59681
भा@@ 59318
पे@@ 59253
ठ@@ 59108
पुर 59108
रु@@ 59056
गा@@ 59020
हें 58524
ो 58387
रीय 58342
तु@@ 58206
विश 58003
कु@@ 57058
ो@@ 57054
सा 55936
मै@@ 55597
ार 55001
ंड@@ 54903
महा@@ 54869
ा@@ 54828
करते 54291
सन 53663
हुए 53613
भ 53369
तो 53360
गाँव 53341
ये 52404
समय 52188
देश 51964
मा 51942
लो@@ 51899
यों 51639
ँ@@ 51524
इसके 51274
ू 51119
वी 51018
मार 50983
एवं 50970
नी@@ 50752
वाले 50378
डि@@ 50375
होने 50029
रू@@ 50009
पी@@ 49844
मान 49380
कई 49377
उनके 49272
गत 49132
संस 49054
सू@@ 49022
षा 48985
था@@ 48645
शि@@ 48643
ु 48638
बि@@ 48369
खा@@ 48293
पत 48210
कै@@ 48207
; 48076
हि@@ 47776
मी@@ 47718
वी@@ 47530
अव@@ 47296
परि@@ 47283
भारतीय 47133
गो@@ 47110
चार 47063
अधिक 46933
षण 46820
१@@ 46776
ंड 46711
जन@@ 46459
रम 46453
रक 46091
चित 46086
ीय 45986
ओ@@ 45497
बड 45450
सबसे 45118
कारण 44805
रति@@ 44568
अपनी 44513
कम 44436
करता 44377
होती 44225
गि@@ 44192
लिया 44037
मुख 43928
लों 43925
टि@@ 43916
पहले 43722
मान@@ 43695
टी@@ 43404
तर@@ 43349
दक 43292
थान 43114
अर 43099
गए 43078
ारी 42831
िल 42800
झ@@ 42735
दो 42663
रकार 42181
सकता 41932
सो@@ 41881
.@@ 41853
कल 41585
सम@@ 41410
फिल 41181
ान 41028
किसी 40978
यो@@ 40894
बी@@ 40788
&#93; 40456
ंस 40450
जब 40447
गई 40309
&#91; 40299
मन 40128
बै@@ 40124
जि@@ 40100
धा@@ 39976
वास 39861
जे@@ 39836
कहा 39249
चु@@ 38825
लेकिन 38596
िय@@ 38583
‍ 38393
रदेश 38348
वा 38282
ि 38268
ती@@ 38130
राप 38065
दा 37985
राज@@ 37891
बन 37803
रह@@ 37800
करण 37758
भाषा 37717
ीन 37693
पि@@ 37399
जाती 37345
हुई 37289
बहुत 37039
ठ 36971
रे 36890
शामिल 36859
शिक 36740
रत 36588
बु@@ 36545
बो@@ 36131
रिया 35924
िया 35709
यालय 35692
टा@@ 35621
ते@@ 35617
इन@@ 35600
उस 35567
जैसे 35415
ोर 35079
होते 34920
पै@@ 34565
जिले 34545
धि 34383
/ 34375
विद 34282
यु@@ 34075
१९@@ 34060
डे@@ 33949
रस 33920
पार 33876
निक 33579
रहे 33491
हो@@ 33324
ंत 32965
तान 32876
धर 32797
बार 32791
डा@@ 32682
रण 32653
कार@@ 32602
मित 32358
उनकी 32293
टा 32270
हे@@ 32264
चि@@ 32185
खे@@ 32164
जाने 32037
तु 31944
० 31765
माण 31437
पड 31306
बीच 31257
भाग 31190
उसके 31143
अं@@ 31092
उद 31088
रहा 31024
ॉ@@ 31016
तों 30952
सभी 30951
निय@@ 30908
वै@@ 30908
पन 30856
पो@@ 30808
काल 30690
तरह 30673
मिल@@ 30608
जिसमें 30586
पश 30579
लं@@ 30470
लन 30435
इं@@ 30388
यात 30361
अप@@ 30221
सै@@ 30208
इसे 30132
दु@@ 30124
वार 30102
रह 30070
यर 29768
आर 29746
इसका 29716
मक 29696
ृ@@ 29621
शक 29464
अभि@@ 29410
अनुसार 29398
ौ@@ 29396
कारी 29395
रख@@ 29384
जै@@ 29281
अधि@@ 29221
लग@@ 29002
तहसील 28994
ऊ@@ 28942
लक 28922
बी 28868
टो@@ 28764
वित 28667
गर 28591
रमुख 28499
तियों 28489
सर@@ 28483
करना 28396
काम 28394
वाली 28211
बना@@ 28183
मों 28140
शु@@ 28077
रॉ@@ 28049
डल 27850
२@@ 27746
वाद 27705
उसे 27696
अध 27669
पास 27631
बल 27627
डी 27617
गढ 27612
भू@@ 27581
राम 27555
कोई 27527
लोगों 27496
कृत 27466
शे@@ 27424
ऑ@@ 27420
नु@@ 27399
तन 27316
अक 27204
दू@@ 27203
महत 27194
ंक 27038
णा 26945
ंट 26830
बढ 26749
ञान 26719
गी 26705
उपयोग 26562
मण 26535
हार 26496
अल 26428
रं@@ 26408
सत 26398
जीवन 26370
हिन 26366
फा@@ 26221
1 26206
योग 25944
लिये 25861
रित 25811
ारा 25797
विज 25754
जाते 25746
दी@@ 25703
मध 25701
मौ@@ 25620
ै@@ 25577
लैंड 25522
की@@ 25351
&#124; 25310
है@@ 25229
नगर 25197
दोनों 25174
आदि 25112
षित 24913
ंद 24895
सिंह 24784
हम@@ 24729
कॉ@@ 24554
शब 24547
टन 24536
मूल 24527
नो@@ 24499
शहर 24496
वस 24420
यु 24409
लगभग 24406
कन 24343
गा 24281
गे@@ 24271
रयोग 24219
दौरान 24186
औ@@ 24105
ियाँ 24085
ढ@@ 24057
यहाँ 24054
हर 23848
साहित 23741
रेस 23702
ारों 23662
अंग 23626
मिक 23620
ओर 23494
सरकार 23298
2 23137
अब 23120
शी@@ 23115
पू@@ 23111
तीन 23085
लै@@ 23020
ताओं 22950
कड 22921
शुरू 22915
फिर 22847
ऐ@@ 22841
लोग 22684
एं 22614
% 22547
षिण 22486
जिसे 22445
जो@@ 22391
अलग 22320
रै@@ 22316
खु@@ 22292
वन 22288
मंत 22241
विकास 22223
ारे 22203
मे 22128
ॉर 22073
घा@@ 22062
नर 22031
जर 22020
कता 21980
तः 21910
रिय@@ 21883
शो@@ 21793
युद 21729
दार 21711
णों 21702
विक 21700
यान 21679
लगा@@ 21627
यास 21621
करती 21602
वीं 21567
ऑफ 21553
फे@@ 21535
लता 21488
एँ 21484
चे@@ 21480
रिक 21452
पद 21446
धान 21439
णी 21414
मह@@ 21379
धन 21190
तम 21123
रता 21006
तीय 20960
सक 20947
केवल 20931
दो@@ 20912
अंतर 20907
यम 20866
१ 20863
जिन 20825
राजा 20822
दिन 20807
संख 20804
घर 20784
जाना 20713
पं@@ 20630
तौर 20619
रिकेट 20614
ंद@@ 20596
चर 20588
सकते 20563
साम@@ 20542
विशेष 20477
मंदिर 20444
इसकी 20427
शा 20319
ढ 20209
यन 20190
आई@@ 20138
सार 20120
लेख@@ 20020
िया@@ 19983
२ 19978
डी@@ 19950
&amp; 19926
लु@@ 19830
विस 19822
चौ@@ 19761
सिद 19731
कभी 19576
दान 19484
वत 19460
समा@@ 19430
भी@@ 19387
वाला 19355
उनका 19334
यी 19323
विभिन 19323
सदस 19317
टीम 19312
तार 19295
पह@@ 19272
५ 19272
रदर 19219
ंप@@ 19173
इतिहास 19127
देख@@ 19114
मात 19073
5 18986
तिक 18985
गी@@ 18983
ची@@ 18970
योंकि 18953
साल 18952
नल 18928
उच 18904
इसमें 18898
पी 18765
साइ@@ 18700
आं@@ 18659
बंध@@ 18620
नदी 18604
हम 18592
सह@@ 18588
वपूर 18531
माना 18498
ंच 18496
डा 18487
०@@ 18475
अपना 18422
गै@@ 18422
इसी 18378
रात 18372
जु@@ 18346
दों 18310
ियो@@ 18302
सभा 18292
कहते 18274
ञा@@ 18215
3 18211
हालांकि 18211
३@@ 18184
थिति 18176
रही 18131
बद@@ 18124
भे@@ 18106
हिस 18101
पार@@ 18064
कुल 18057
तत 18049
रच@@ 17930
किए 17888
कृति 17884
अन@@ 17857
दिल 17839
पक 17832
षा@@ 17785
खो@@ 17762
लय 17755
फि@@ 17681
रिया@@ 17672
हन 17649
रसिद 17645
राय@@ 17612
पुरा@@ 17579
फै@@ 17529
थि@@ 17519
रथम 17501
वों 17492
आ 17422
५@@ 17374
बॉ@@ 17347
धार@@ 17334
॰ 17310
तब 17301
मर 17272
वविद 17241
पहली 17220
योग@@ 17159
आवश 17031
रदान 17012
धी 16980
ंच@@ 16972
४ 16945
सामान 16929
धार 16899
पुरस 16893
अस 16862
धा 16853
रभा@@ 16818
रन 16767
बं@@ 16748
टे 16745
घट@@ 16743
मस 16721
३ 16632
रिय 16604
षों 16595
घो@@ 16577
यता 16561
बना 16542
एस 16533
ँ 16505
मू@@ 16502
मीटर 16495
लर 16463
संयुक 16450
कृष 16434
लित 16393
दूसरे 16332
जिसके 16319
रां@@ 16283
अमेरिका 16276
जल 16258
केंद 16185
हित 16157
जान@@ 16138
इस@@ 16131
ियां 16087
कह@@ 16043
थापित 16023
वं@@ 16022
4 16013
दौ@@ 15992
दे 15990
ोड 15969
७@@ 15958
मार@@ 15945
शास 15902
समर 15879
लॉ@@ 15873
उल 15859
ः 15837
धि@@ 15827
टेशन 15807
बन@@ 15806
भर 15806
हु@@ 15760
देशों 15734
चै@@ 15725
तमान 15711
युक 15705
उसकी 15697
कृ@@ 15679
गों 15678
चा 15678
खा 15668
६@@ 15645
रान 15601
जबकि 15591
निक@@ 15559
यहां 15544
संग 15508
अप 15448
राइ@@ 15421
६ 15415
टि 15376
भो@@ 15307
रवा@@ 15303
जिसका 15289
दन 15251
पाकिस 15194
सेना 15174
बच 15158
वो@@ 15141
लड 15140
गं@@ 15078
आज 15060
20 14984
इंड@@ 14925
४@@ 14906
माध 14879
मं@@ 14866
संबंध@@ 14859
लम 14844
थापना 14832
लने 14784
देश@@ 14746
करा@@ 14743
जिला 14720
िले 14708
शी 14701
यू 14680
पाल 14642
नौ@@ 14638
रो 14633
८ 14606
उन@@ 14600
समूह 14572
’ 14563
रति 14540
एल 14500
नि 14497
ूर 14475
अत 14466
कारों 14466
चार@@ 14458
टर@@ 14457
‘ 14432
पिता 14423
जिस@@ 14420
दुर 14308
गयी 14276
लिक 14257
रखा 14241
यवस 14237
मृत 14228
राम@@ 14227
७ 14222
बनाया 14220
जे 14213
नामक 14196
अनेक 14180
यव@@ 14170
आधार 14151
समझ@@ 14121
पानी 14108
पुस 14086
कोड 14045
मेंट 14033
षि@@ 14012
एस@@ 14001
फो@@ 13993
बारे 13992
दिखा@@ 13962
उसने 13954
टिक 13953
तं@@ 13951
कला 13946
6 13909
मत 13900
शासन 13899
ें 13885
परिवार 13874
मिल 13849
९ 13818
चन 13807
बा 13800
जिन@@ 13762
चाहिए 13749
देने 13748
चक 13711
बात 13707
बता@@ 13701
खि@@ 13688
आम 13670
अर@@ 13656
गण@@ 13651
लिस 13622
ययन 13548
पौ@@ 13516
जारी 13515
भव 13485
संगीत 13457
बिहार 13448
कूल 13433
हीं 13433
वक 13417
सेवा 13401
उपलब 13391
षक 13354
यूरो@@ 13296
ऐसा 13243
कला@@ 13236
९@@ 13232
रल 13226
अच 13166
धी@@ 13127
रचना 13094
लिख@@ 13079
सकती 13057
कं@@ 13048
लेख 13043
विष 12982
भिक 12981
यत 12938
आप@@ 12935
भु@@ 12913
रभाव 12901
टक 12895
पुत 12893
राचीन 12885
२०१@@ 12877
केन 12869
दूर 12859
दृष 12851
८@@ 12842
ऐसे 12836
जहां 12813
लिय@@ 12807
डो@@ 12797
नै@@ 12796
महिला 12778
देव@@ 12760
आई 12748
ौद 12747
बनाने 12709
चिम 12676
टल 12661
परिवर 12633
थीं 12631
अलावा 12607
छोड 12604
वरण 12602
शिष 12565
वृत 12560
शिया 12514
वादी 12486
अफ 12400
उस@@ 12389
इला@@ 12382
यिक 12372
देता 12365
रु 12341
राय 12340
चों 12339
भूमिका 12305
मैच 12271
करके 12270
ठा@@ 12267
पादन 12232
माता 12203
तराखण 12170
कृतिक 12161
चे 12161
जुड 12154
निम 12128
चिकित 12111
जिससे 12095
पोर 12086
येक 12083
10 12075
खिलाफ 12075
धित 12070
लाइ@@ 12054
ऑस 12020
यदि 12019
लेक 11993
पुरु@@ 11988
वतंत 11961
सिं@@ 11937
कंपनी 11922
रोग 11919
पता 11912
पात 11905
3@@ 11886
भाषा@@ 11875
नियम 11866
काफी 11842
डे 11825
सामाजिक 11814
समस 11807
छो@@ 11795
धिक 11779
कालीन 11777
हों 11777
ीं 11758
नाओं 11748
दुनिया 11747
नाग@@ 11746
डॉ@@ 11732
लेकर 11704
दू 11700
२००@@ 11684
ंगे 11669
विधान 11661
अंतर@@ 11652
चुनाव 11645
आत 11632
वान 11631
मॉ@@ 11630
उसका 11629
माम@@ 11571
निश 11565
जिस 11558
शं@@ 11552
कू@@ 11543
रत@@ 11513
तरी 11512
लू@@ 11507
हस 11493
फु@@ 11489
भार@@ 11487
जों 11479
कप 11477
रण@@ 11456
नई 11449
रम@@ 11442
सिक 11442
सौ@@ 11415
चाह@@ 11414
शताब 11402
एक@@ 11397
नाइ@@ 11369
रिटिश 11354
पहला 11348
लाल 11339
परिणा@@ 11335
जोड 11331
गये 11319
लियन 11316
भाव@@ 11313
7 11310
परीक 11310
विशेष@@ 11298
अथवा 11273
टों 11269
आन 11267
सुरक 11252
ओ 11249
आध@@ 11211
टै@@ 11207
णु 11172
नाथ 11169
खेल 11167
8 11160
डियो 11159
समान 11132
चना 11103
जल@@ 11087
हरी 11072
इंग 11067
सां@@ 11060
इसलिए 11057
किये 11054
ऋ@@ 11050
वाल 11028
पति 11018
शुरुआत 11015
भाई 11008
रीका 11005
तृत 10999
भूमि 10994
आगे 10963
वि 10963
अमेरिकी 10958
णन 10953
छोटे 10949
जहाँ 10942
ौर 10922
– 10895
नए 10894
तेमाल 10880
नव@@ 10874
रणाली 10870
वरूप 10869
उम 10867
बे 10863
= 10857
एम@@ 10843
आधारित 10828
ियन 10815
नेता 10786
देव 10765
कोशि@@ 10755
9 10693
रेन 10693
रकाशित 10691
पा 10687
दृ@@ 10684
छा 10680
वीप 10678
P@@ 10650
5@@ 10649
रारं@@ 10641
मनो@@ 10630
कट 10618
जूद 10618
तित 10593
उदाहरण 10591
लौ@@ 10575
विधा@@ 10575
रेज 10573
तो@@ 10563
लगा 10535
टिंग 10533
वंश 10526
ीक 10525
मल 10521
दर@@ 10514
4@@ 10502
सों 10483
साम 10473
रेलवे 10472
जनवरी 10456
समाज 10424
णा@@ 10422
वैज 10410
पूरी 10407
इससे 10394
फर 10391
राजस 10390
हरा@@ 10390
मुक 10384
7@@ 10372
बाहर 10345
जित 10340
इनके 10325
S@@ 10322
ंतु 10313
अंत 10306
पट@@ 10299
पस 10265
ंब@@ 10263
नियंत 10258
गल 10248
सिस 10245
धारण 10242
टाइ@@ 10220
विकसित 10210
सिल 10198
विवा@@ 10197
षि 10184
होगा 10181
जार 10176
वो 10168
मद 10167
लोक 10161
गांव 10157
चल 10141
सल 10141
ही@@ 10140
थों 10094
कॉर 10079
पदार 10054
जाति 10035
ियर 10025
छा@@ 10001
रहता 9979
अम@@ 9977
भगवान 9971
वन@@ 9970
बहु@@ 9965
2@@ 9964
संघ 9963
दस 9958
थन 9951
दशक 9939
बनी 9935
यर@@ 9935
वाई 9934
मुद 9921
थल 9900
रेणी 9900
निया 9899
बने 9887
निस 9870
रोध 9863
ेक 9854
ंगा 9844
रंग 9804
ॉ 9804
सब 9803
देते 9797
जिनमें 9783
विध@@ 9778
रहते 9773
अतिरिक 9710
आधुनिक 9705
! 9701
होकर 9689
नक 9679
तरा@@ 9676
छे 9665
समु@@ 9663
एम 9641
हा 9641
अधिकांश 9639
गति 9636
ताल 9625
मानित 9621
मई 9592
रृंखला 9587
टेड 9584
शरीर 9580
शीर 9580
रमण 9575
रिस 9564
तक@@ 9554
फी@@ 9549
ाई 9544
रेजी 9520
नीय 9505
गणना 9504
gt 9501
हाइ@@ 9480
लोकप 9479
विभा@@ 9479
तना 9465
थिक 9461
उपा@@ 9446
षे@@ 9445
अगस 9438
भौ@@ 9434
माइ@@ 9425
कानू@@ 9419
शर 9401
तह@@ 9398
देखा 9396
बद 9368
जय 9333
ियाई 9313
नो 9312
पॉ@@ 9312
N@@ 9311
रसा@@ 9307
यादा 9306
तंत 9294
सफ@@ 9292
हू@@ 9281
बांग 9268
मता 9266
ुक 9256
लिंग 9255
संक 9249
मद@@ 9241
बस 9240
टॉ@@ 9239
टूबर 9234
गम 9220
जय@@ 9208
लते 9195
रास 9185
6@@ 9179
वल 9170
अधिकार 9139
डर 9130
lt 9121
नन 9119
मानव 9115
उसी 9113
यद 9106
लिखित 9105
-@@ 9096
एन@@ 9086
संचा@@ 9083
जू@@ 9064
दूसरी 9059
विभाग 9056
अभ@@ 9051
डिय@@ 9043
भिन 9043
रैल 9037
एं@@ 9035
फल 9027
सूर 9021
सागर 9020
विधि 9015
डिया 9014
यंत 9008
17@@ 9003
आप 8981
वाचन 8979
संबंध 8976
जून 8970
दाय 8953
चीन 8939
सान 8936
the 8934
जगह 8931
हॉ@@ 8917
मिश 8911
राजधानी 8907
जुलाई 8900
देवी 8889
पूरा 8888
ऊपर 8877
मंड@@ 8876
धु@@ 8873
योजित 8869
चिमी 8825
तव 8823
रानी 8818
रोत 8803
नियों 8799
0 8797
काव 8796
,@@ 8793
लो 8787
ये@@ 8775
ठा 8771
राजनीतिक 8753
of 8751
णि@@ 8750
C@@ 8746
पल 8743
विचार 8743
पष 8740
पहुँ@@ 8734
सूची 8734
बंगा@@ 8731
रका@@ 8724
तैयार 8723
दल 8716
हाँ 8708
विषय 8705
महिला@@ 8704
बिना 8702
सप 8686
ची 8684
तीस@@ 8671
शत 8661
15 8649
अग 8643
चो@@ 8643
लोक@@ 8638
रवरी 8637
लब 8636
भाव 8633
सीमा 8618
जीत 8617
टेस 8605
यार 8598
गति@@ 8586
शल 8565
०० 8559
किन 8556
विधानसभा 8554
लेने 8551
युग 8548
दित 8544
पों 8526
M@@ 8489
ञानिक 8487
युत 8479
पृथ 8474
दास 8470
वयं 8467
यि@@ 8465
शै@@ 8465
कीय 8462
निष 8461
अंतिम 8458
कौ@@ 8456
खिलाड 8453
लिखा 8442
गोल 8435
जनसंख 8388
आकर 8381
यौ@@ 8375
कुमा@@ 8373
ञ 8365
थानीय 8360
हत 8360
षी 8348
कोर 8346
पि 8339
भक 8337
रपति 8333
12 8326
वृद 8316
उर 8301
ॅ@@ 8301
ृत 8300
समुद 8294
सहायता 8291
रेल@@ 8289
ंडर 8282
योजना 8280
पहा@@ 8274
टूर 8269
नात 8263
हल 8252
कुमार 8243
आने 8241
नीचे 8238
रशा@@ 8234
सद 8227
दियों 8226
पृ@@ 8223
जाए@@ 8219
रेट 8211
षद 8206
किलो@@ 8197
दोलन 8183
मूर 8142
यापक 8142
फी 8128
काल@@ 8123
A@@ 8113
कश 8108
गुज@@ 8107
ऐसी 8105
तिहासिक 8101
संगठन 8100
कहानी 8099
टू@@ 8095
तृ@@ 8095
कांग 8094
होना 8082
१८@@ 8080
समाप 8074
सफल 8070
ठी 8068
हिंदी 8065
बादी 8057
पहुंच@@ 8052
पढ 8046
D@@ 8034
छात 8029
अभी 8019
H@@ 8014
पाया 8010
तुलना 8007
कॉलेज 8004
रहने 8004
कवि@@ 8002
चंद 7995
लू 7986
रकाश 7978
रस@@ 7973
योजन 7950
बम 7944
इल 7943
आक 7936
ॉन 7931
रवेश 7928
पान 7927
ऊँ 7926
पण 7925
वें 7917
मिला 7906
शैली 7897
गौ@@ 7890
रव 7882
रतिनि@@ 7866
पूरे 7810
वृ@@ 7803
T@@ 7787
केट 7751
30 7705
बंध 7684
B@@ 7652
9@@ 7635
सक@@ 7627
I@@ 7615
वश 7604
19 7602
2008 7585
सब@@ 7561
8@@ 7529
15@@ 7525
गठ@@ 7520
ञ@@ 7466
थाप@@ 7412
E@@ 7287
2007 7286
गां@@ 7279
दूस@@ 7264
R@@ 7261
सहा@@ 7259
11 7254
16@@ 7197
दि 7186
L@@ 7176
अग@@ 7152
10@@ 7125
वेश 7124
गीत 7123
आग@@ 7104
जब@@ 7081
ौ 7067
2018 6947
जग@@ 6941
18 6939
G@@ 6928
ऊ 6926
2019 6909
अध@@ 6892
2009 6808
विष@@ 6768
घ 6721
25 6636
नू@@ 6610
13@@ 6608
रू 6606
20@@ 6584
‌ 6472
14 6426
18@@ 6414
किस 6390
16 6370
राजनी@@ 6360
50 6191
2006 6176
भि@@ 6056
s 5974
0@@ 5969
ूल 5960
1@@ 5948
हां 5937
17 5913
हिं@@ 5905
शित 5893
21 5842
2010 5781
तै@@ 5758
O@@ 5698
? 5648
A 5614
13 5570
M 5539
000 5531
a 5464
I 5292
F@@ 5277
14@@ 5264
दिर 5251
and 5235
2014 5200
2011 5186
2016 5180
_ 5139
2017 5138
लाई 5137
िये 5116
लग 5067
2005 5064
ंश 5052
पहु@@ 5041
in 5033
24 4989
सरे 4940
छ 4935
+ 4910
22 4856
कंप@@ 4841
p@@ 4820
2012 4798
40 4754
2000 4720
झ 4700
परी@@ 4692
100 4687
गठन 4671
2020 4629
12@@ 4623
माल 4592
ारित 4570
23 4476
W@@ 4451
2015 4443
ताब 4420
1.@@ 4395
वय@@ 4382
2004 4379
भा 4367
26 4352
s@@ 4330
खण 4320
T 4266
2013 4234
कित 4226
कहा@@ 4196
al 4178
2021 4176
सित 4168
समू@@ 4109
योज@@ 4097
C 4075
“ 4067
28 4064
$ 4061
y 4016
27 4006
V@@ 3973
ै 3966
” 3966
K@@ 3944
हाला@@ 3935
ing 3913
2.@@ 3900
ः@@ 3891
​ 3886
e@@ 3858
1,@@ 3759
2003 3756
00@@ 3735
ed 3721
2002 3709
2001 3708
इ 3703
w@@ 3683
P 3636
S 3627
लना 3616
1990 3609
60 3595
is 3592
अति@@ 3581
राजन@@ 3546
D 3479
h@@ 3454
an 3421
रणा@@ 3404
x 3374
to 3371
29 3346
31 3333
... 3332
भूमि@@ 3265
ation 3255
E 3252
y@@ 3232
U@@ 3200
0,000 3185
c 3162
ंकि 3154
भग@@ 3143
0.@@ 3128
२०@@ 3126
1980 3102
80 3085
1999 3068
॥ 3045
19@@ 3030
d 3029
i 2990
कास 2933
or 2914
1998 2908
on 2895
ङ 2885
ar 2880
t 2876
formula 2873
J@@ 2872
3.@@ 2859
L 2857
r@@ 2848
70 2826
वरी 2815
m@@ 2809
g 2803
t@@ 2792
इतिहा@@ 2792
or@@ 2779
गाँ@@ 2758
200 2754
d@@ 2741
b@@ 2737
B 2718
n@@ 2714
c@@ 2706
° 2706
es 2705
35 2698
जिक 2655
1996 2643
th@@ 2643
a@@ 2638
लेज 2636
अमेरि@@ 2621
o@@ 2611
g@@ 2605
09 2602
नाव 2581
1970 2564
1997 2519
500 2518
185@@ 2516
O 2508
p 2503
N 2488
शुरु@@ 2467
The 2442
F 2436
ar@@ 2423
in@@ 2418
R 2413
90 2411
25@@ 2410
al@@ 2388
अ 2381
er 2377
1992 2370
j@@ 2351
l 2351
— 2351
1994 2329
-- 2311
1960 2311
1991 2291
k@@ 2286
an@@ 2278
2,@@ 2275
1995 2273
f@@ 2272
45 2271
h 2261
1993 2260
32 2219
Z@@ 2214
n 2201
m 2200
,000 2163
as@@ 2129
e 2127
us 2119
ृंखला 2109
अला@@ 2100
00 2097
एव@@ 2097
उ 2094
i@@ 2090
ऍ@@ 2065
4.@@ 2047
on@@ 2032
amp 2028
ag@@ 2022
ad@@ 2002
v@@ 2001
75 2000
30@@ 1968
htt@@ 1954
1989 1950
er@@ 1940
H 1931
36 1926
1950 1922
33 1918
ch@@ 1880
महि@@ 1874
re@@ 1870
l@@ 1856
de 1854
24@@ 1852
us@@ 1832
1947 1831
1986 1819
b 1811
5.@@ 1806
ph@@ 1805
26@@ 1803
as 1795
1988 1794
1984 1774
G 1771
o 1762
37 1746
V 1744
en@@ 1739
am@@ 1730
* 1725
x@@ 1716
X@@ 1710
1985 1707
34 1699
ac@@ 1696
3,@@ 1692
br 1690
38 1688
en 1687
• 1687
at 1674
1987 1665
मि 1664
AM 1663
at@@ 1662
55 1657
65 1657
1962 1656
1971 1655
tr@@ 1649
ic 1640
1972 1627
1967 1625
ंने 1623
शरी@@ 1623
1952 1604
ap@@ 1592
ur@@ 1585
it@@ 1583
उदाह@@ 1572
तिम 1571
6.@@ 1570
# 1564
300 1564
47 1556
7.@@ 1553
Y@@ 1549
27@@ 1547
5,@@ 1547
28@@ 1541
ur 1528
le 1523
le@@ 1521
k 1518
1977 1513
1982 1513
um 1513
ॆ@@ 1495
am 1487
ऐ 1482
39 1461
Ch@@ 1460
ot@@ 1457
48 1446
1975 1444
52 1442
.. 1439
ul@@ 1435
ic@@ 1422
1973 1420
ab@@ 1420
1979 1419
1948 1411
64 1401
8.@@ 1401
II 1399
तिहा@@ 1398
1930 1391
1983 1389
1956 1388
os@@ 1384
ps 1380
un@@ 1376
05 1375
29@@ 1375
42 1373
1957 1371
el@@ 1370
for 1368
co@@ 1367
X 1363
9.@@ 1340
om@@ 1338
रथ@@ 1338
ृ 1333
um@@ 1329
st@@ 1328
44 1326
1978 1325
1965 1322
1981 1318
विशे@@ 1317
07 1313
th 1313
1976 1310
51 1309
W 1308
99 1304
56 1298
08 1294
im@@ 1293
u 1292
1969 1288
1974 1288
A. 1283
U 1283
43 1276
06 1272
po@@ 1271
it 1269
.com 1267
04 1266
IS@@ 1265
In@@ 1259
400 1257
85 1255
खिला@@ 1254
ळ@@ 1254
4,@@ 1251
em@@ 1246
अथ@@ 1238
li@@ 1237
tion 1236
95 1234
184@@ 1230
53 1224
di@@ 1224
lo@@ 1219
72 1211
01 1207
par@@ 1201
by 1194
are 1193
ia 1192
iv@@ 1187
1000 1185
1920 1185
1968 1177
उदा@@ 1174
1964 1173
ate 1170
1966 1166
88 1157
41 1156
68 1150
ol@@ 1143
46 1141
ent 1140
अधिका@@ 1139
eb@@ 1132
54 1127
ak@@ 1127
es@@ 1123
u@@ 1117
58 1115
is@@ 1107
av@@ 1106
et@@ 1105
180@@ 1104
86 1099
el 1098
66 1093
1940 1090
61 1087
57 1081
150 1080
49 1076
1961 1072
62 1069
ॆ 1069
03 1066
ang@@ 1064
that 1064
ment 1063
1963 1062
ine 1059
अमे@@ 1047
6,@@ 1037
r 1037
02 1033
ad 1033
63 1032
1955 1031
est@@ 1031
ity 1029
ers 1024
आधु@@ 1024
ङ@@ 1022
78 1021
50@@ 1020
1949 1012
ro@@ 1011
il@@ 1007
76 1006
77 1001
1945 998
ir@@ 993
71 991
qu@@ 991
com@@ 989
sh@@ 985
ti@@ 985
age 984
73 982
1954 980
K 979
id@@ 979
--@@ 978
84 978
f 974
1946 973
74 968
ik@@ 968
67 965
enti@@ 964
et 964
98 961
de@@ 959
op@@ 958
z@@ 955
1958 950
87 949
59 947
83 945
ॊ@@ 944
1951 940
III 936
AS@@ 933
1959 932
7,@@ 931
89 928
one 927
96 925
An@@ 921
ed@@ 920
600 916
82 911
Q@@ 911
ve 911
ary 906
ec@@ 898
81 897
with 897
179@@ 895
w 889
was 889
ex@@ 884
BC 881
z 876
IV 875
pl@@ 872
arch@@ 869
v 864
40@@ 862
me@@ 857
92 856
1942 855
69 855
8,@@ 849
97 848
Th@@ 848
ut@@ 847
ati@@ 838
11@@ 837
1953 836
2022 834
and@@ 826
per@@ 825
ay@@ 821
oc@@ 821
ology 815
ref 808
800 807
ical 807
ww@@ 806
ath@@ 801
1936 795
79 795
w.@@ 795
ory 786
91 780
og@@ 780
ne@@ 779
ame 778
94 774
Al@@ 769
1939 768
ig@@ 767
ृंख@@ 766
ya 765
Sh@@ 764
ous 763
ated 760
CO@@ 759
tim@@ 757
CA@@ 749
1941 748
be 748
1937 746
93 746
Y 744
1900 739
from 738
1919 737
250 736
ns 736
web 732
Re@@ 731
US 731
23@@ 726
1932 725
ence 724
si@@ 724
Z 721
टिश 719
ter 717
Con@@ 715
la 712
200@@ 709
aj@@ 709
120 706
सामा@@ 703
dis@@ 702
ance 701
ah@@ 700
9,@@ 697
{ 697
id 696
धानी 692
ern@@ 689
se 684
pr@@ 683
to@@ 682
eg@@ 680
tri@@ 680
া@@ 679
con@@ 678
ant 677
1928 676
Ar@@ 675
hi@@ 672
br@@ 670
all@@ 668
ts 668
1931 667
‎ 666
1935 658
model 658
ch 656
201@@ 655
0,@@ 653
1934 653
£ 653
700 652
1921 650
ter@@ 650
} 650
1924 649
har@@ 648
ite 648
ॅ 648
1918 647
1944 647
od@@ 645
ent@@ 643
1938 642
ach@@ 642
Com@@ 641
contribut@@ 638
mar@@ 636
au@@ 635
ho@@ 635
ations 634
bi@@ 632
TV 627
National 624
Ro@@ 623
mer@@ 618
j 617
od 609
1943 608
1912 607
`@@ 607
format 607
Ph@@ 605
di 602
विक@@ 602
able 601
Bo@@ 600
SA@@ 600
₹ 599
1922 595
1929 595
ai 595
OS 591
− 588
1933 587
ra 587
gr@@ 586
1925 585
Co@@ 585
AT@@ 584
ॐ 582
1914 580
ly 576
1917 574
India 574
ile 573
est 572
1926 571
se@@ 571
St@@ 570
elec@@ 567
Pr@@ 566
aw@@ 566
ver@@ 566
ty 564
US@@ 560
mo@@ 560
ri@@ 560
ana 557
ay 557
Q 556
ep@@ 556
res@@ 553
sp@@ 551
which 549
he@@ 546
bo@@ 540
ess 540
way 540
1927 539
ure 539
IN@@ 536
35@@ 532
NA 531
ari@@ 530
Man@@ 529
ons 529
1908 528
Mar@@ 527
1910 526
ov@@ 526
10.@@ 525
ys@@ 525
· 525
tic 523
80@@ 521
ue 519
1905 518
1923 518
IC@@ 516
ish@@ 516
× 516
1911 515
kh@@ 513
ok@@ 513
सील 511
J 509
te 508
ma@@ 507
ce 506
ni@@ 506
end@@ 503
his 501
Tr@@ 500
ist 498
ism 496
1916 494
Kh@@ 494
all 494
ics 492
als 490
ob@@ 490
… 490
In 489
ऽ@@ 489
ci@@ 488
DVD 487
NE@@ 487
do@@ 484
unc@@ 483
Ex@@ 481
no@@ 480
MS 478
भग 477
vi@@ 476
ative 473
ev@@ 471
12.@@ 470
WWE 469
iz@@ 469
Windows 468
ळ 462
te@@ 461
gen@@ 460
1915 459
ting 457
11.@@ 456
tu@@ 456
da 454
em 454
iki 454
1906 453
Par@@ 453
its 453
1500 452
AR@@ 452
AD@@ 451
CD@@ 451
180 450
1901 450
les 450
hy@@ 449
Cl@@ 446
En@@ 446
str@@ 446
ard 445
Sp@@ 444
the@@ 444
inter@@ 443
্ 443
ta 441
160 440
ari 440
ision 440
ing@@ 439
be@@ 438
ra@@ 436
tions 436
் 436
ans 435
car@@ 435
il 435
ran@@ 433
und@@ 433
1904 432
ma 432
su@@ 431
CH@@ 430
ass@@ 430
mon@@ 430
man@@ 429
FI@@ 427
ect 426
ice 425
1896 424
BS 424
oph@@ 424
1909 423
Ac@@ 423
sion 422
so@@ 422
1913 421
gi@@ 421
idi@@ 421
Microsoft 419
350 417
ha@@ 417
ist@@ 417
na 417
not 417
have 416
ER@@ 415
ion 415
os 415
900 414
Br@@ 414
RA@@ 414
Di@@ 411
Ig@@ 411
UK 411
Mo@@ 410
tor 410
he 409
ind@@ 409
་ 409
AC 408
sub@@ 408
1907 407
Or@@ 407
विधान@@ 407
lin@@ 406
110 405
align 405
ge 405
Per@@ 404
ement 404
pe@@ 402
q 401
Am@@ 400
min@@ 400
ta@@ 400
CI@@ 397
anc@@ 397
130 396
AC@@ 396
1890 395
cr@@ 394
Sam@@ 393
ae 393
der 393
ell@@ 393
nam@@ 393
ā@@ 393
140 392
dr@@ 392
has 392
3000 391
AN@@ 391
ant@@ 391
pi@@ 390
son 390
cor@@ 389
hi 388
bl@@ 387
amp@@ 386
ha 384
ong@@ 384
text 384
ates 383
Se@@ 382
center 382
WW@@ 381
ale 381
name 379
----@@ 377
also 377
ted 375
1902 374
CE@@ 373
ST@@ 373
Ser@@ 373
For@@ 372
man 371
me 369
tic@@ 368
Ad@@ 367
eng@@ 367
sc@@ 367
CD 366
ak 366
Indian 365
az@@ 365
BM@@ 364
af@@ 364
ain 364
ents 364
SE@@ 363
dice 362
ight 362
1880 361
De@@ 361
ace 361
AM@@ 360
trans@@ 360
High@@ 359
val@@ 359
AP@@ 358
ase 358
ru@@ 358
ally 357
ata 357
ऱ 356
equ@@ 354
Me@@ 352
for@@ 352
ol 352
ani 351
seau 351
ell 350
1800 349
1899 349
we@@ 348
ंख@@ 348
ea 347
ka 347
As@@ 346
Ne@@ 345
st 345
Po@@ 344
ud@@ 343
this 340
go@@ 339
1895 338
cre@@ 338
cu@@ 338
ors 338
ˈ@@ 338
1903 337
Col@@ 337
SC 337
cur@@ 336
Ma@@ 335
ens 335
fl@@ 334
ore 334
ver 334
1860 333
1898 332
AS 332
cul@@ 332
rev@@ 332
sol@@ 332
tical 332
Le@@ 331
ating 331
fi@@ 331
col@@ 330
Qu@@ 329
ages 329
fr@@ 329
mi@@ 329
Bar@@ 328
1889 327
ES@@ 327
IM@@ 327
if@@ 327
1870 326
Res@@ 326
ou@@ 326
AI@@ 324
He@@ 324
1885 322
33@@ 322
ext 322
ge@@ 322
101 321
1891 321
² 321
1887 320
sur@@ 320
yl@@ 320
fac@@ 319
than 319
MA 318
ast 318
pre@@ 318
right 318
SA 317
র@@ 317
FC 316
ator 316
ties 314
ess@@ 313
ome 313
other 312
try 312
ature 311
10,@@ 310
Car@@ 310
can 310
1897 309
Pl@@ 309
UN@@ 309
ala 309
ib@@ 309
q@@ 309
ti 309
war@@ 309
River 308
CA 307
Gr@@ 307
anti@@ 307
ot 307
wor@@ 307
yp@@ 307
ah 306
system 306
und 306
हिए 306
1894 305
Pro@@ 305
ks 305
time 305
uc@@ 303
1888 301
Su@@ 301
ill@@ 301
der@@ 300
ene 300
ব@@ 300
eh@@ 299
yn@@ 299
amb@@ 298
1882 297
ـ@@ 297
SP@@ 296
DNA 295
ens@@ 295
tics 295
ug@@ 295
up@@ 295
AB@@ 294
ff@@ 294
pol@@ 294
re 293
DC 292
ang 292
sych@@ 292
1886 291
ali 291
work 291
vol@@ 290
As 289
ann@@ 289
comp@@ 289
action 288
tive 287
ton 287
1892 286
\ 285
lu@@ 285
group 284
1893 283
Pol@@ 283
MP@@ 282
ick@@ 282
pres@@ 281
ি@@ 281
their 279
U.S. 278
Ab@@ 277
TA 277
ali@@ 277
ie 277
ly@@ 276
our 276
^ 275
int@@ 275
pos@@ 275
Inter@@ 274
1884 273
ection 273
two 273
yc@@ 273
Be@@ 272
duc@@ 272
her@@ 272
ici@@ 272
rel@@ 272
sy@@ 272
CC@@ 270
PC 270
ara 270
iti@@ 270
wh@@ 270
ture 269
ॠ@@ 269
FA 267
fin@@ 267
ung 267
inc@@ 266
ans@@ 265
ba@@ 265
fre@@ 265
mag@@ 265
more 265
~ 265
Fo@@ 264
ash@@ 264
ke 264
km 264
Institute 263
Mah@@ 263
pp@@ 263
proc@@ 263
ऎ@@ 263
ere 262
lar@@ 262
ok 262
1850 261
1881 261
des 261
ner 261
pro@@ 261
11,@@ 260
RE@@ 260
ws 260
α 260
120@@ 259
ental 258
ish 258
were 258
1867 257
Hy@@ 257
cir@@ 256
ings 256
ax@@ 255
ems 255
tur@@ 255
190@@ 254
Si@@ 254
ard@@ 254
gre@@ 254
ili@@ 254
് 254
We@@ 253
1872 252
1876 252
Pal@@ 251
first 251
low 251
number 251
tel@@ 251
ual 251
war 251
but 250
rec@@ 250
1883 249
RO@@ 249
Un@@ 249
era 249
om 249
gu@@ 248
ms 248
ong 248
un 248
aci@@ 247
Google 245
ai@@ 245
hap@@ 245
land 245
→ 245
This 244
World 244
had 244
las 244
1848 243
1878 243
So@@ 243
used 243
Cor@@ 242
TC 242
ber@@ 242
ular 242
been 241
ung@@ 241
It 240
ম@@ 240
ese 239
mat@@ 239
1871 238
Cr@@ 238
att@@ 238
ow@@ 238
ste@@ 238
DS 237
Sch@@ 237
dia 237
red 237
rom@@ 237
sec@@ 237
ura 237
1865 236
adi@@ 235
ii 235
औ 235
S.@@ 234
ir 234
use 234
€ 234
ina 233
uk@@ 233
Pe@@ 232
University 232
ies 232
la@@ 232
1868 231
International 231
oper@@ 231
que 231
1861 230
ath 230
medi@@ 230
tro@@ 230
1875 229
Mon@@ 229
reg@@ 229
ve@@ 229
1873 228
ain@@ 228
mas@@ 228
oh@@ 228
1877 227
Mal@@ 227
Dev@@ 226
gar@@ 226
igh@@ 226
mot@@ 226
sa@@ 226
్ 226
du 225
Mas@@ 224
air@@ 224
du@@ 224
ek@@ 224
law 224
Techn@@ 223
coun@@ 223
per 223
Gu@@ 222
act 222
alis@@ 222
ক@@ 222
form 221
ki 221
ning 221
out 221
1879 220
Cat@@ 220
ass 220
ond@@ 220
pu@@ 220
CO 219
ack@@ 219
ave 219
ble 219
dec@@ 219
dro@@ 219
edi@@ 219
mp@@ 219
್ 219
bit 218
form@@ 218
oz@@ 218
who 218
ল@@ 218
SS 217
cl@@ 217
so 217
1830 216
Ge@@ 216
Kar@@ 216
ane 216
ino 216
line 216
log@@ 216
ther 216
ency 215
west 215
Lo@@ 214
end 214
no 214
prop@@ 214
yr@@ 214
Go@@ 213
ada 213
bu@@ 213
eff@@ 213
ins 213
kar@@ 213
1866 212
Bi@@ 212
Elec@@ 212
ds 212
Fr@@ 211
cal 211
ica 211
ther@@ 211
hu@@ 210
ora 210
1863 209
Str@@ 209
arr@@ 209
aur@@ 209
do 209
sho@@ 209
ten@@ 209
ub@@ 209
ian 208
124@@ 207
Is@@ 207
spec@@ 207
া 207
AP 206
Pat@@ 206
The@@ 206
ail@@ 206
ise 206
ne 206
Te@@ 205
fe@@ 205
crip@@ 204
ets 204
king 204
ley 204
tar@@ 204
ন 204
comm@@ 203
Dis@@ 202
fer@@ 202
li 202
port 202
tw@@ 202
ऱ@@ 202
॒ 202
12,@@ 201
1874 201
Nag@@ 201
east 201
prot@@ 201
earch 200
ey 200
her 200
sa 200
ire 199
vari@@ 199
ade 198
ality 198
hal@@ 198
ists 198
type 198
BBC 197
Pak@@ 197
1869 196
Ap@@ 196
El@@ 196
ital 196
met@@ 196
rent 196
@ 195
Fre@@ 195
Sci@@ 195
Sing@@ 195
bel@@ 195
such 195
New 194
cer@@ 194
inal 194
ə@@ 194
amm@@ 193
ological 193
Cal@@ 192
PS 192
Tri@@ 192
acc@@ 192
ack 192
ori@@ 192
VI 191
ca 191
cap@@ 191
por@@ 191
they 191
ু@@ 191
dist@@ 190
ution 190
Bas@@ 189
ants 189
hin@@ 189
iki@@ 189
sel@@ 189
র 189
1864 188
Div@@ 188
Li@@ 188
esh 188
English 187
Har@@ 187
bar@@ 187
den 187
emb@@ 187
energ@@ 187
loc@@ 187
onal 187
He 186
Pu@@ 186
arm@@ 186
out@@ 186
æ@@ 186
SS@@ 185
Sal@@ 185
cal@@ 185
into 185
point 185
β 185
ॄ@@ 185
hum@@ 184
over 184
sch@@ 184
up 184
Ram@@ 182
ati 182
between 182
im 182
ost 182
­ 182
Fe@@ 181
Her@@ 181
Lin@@ 181
ach 181
arg@@ 181
hai 181
ple 181
emati@@ 180
ick 180
oth@@ 180
Sa@@ 179
ab 179
ces 179
eter 179
eti@@ 179
ine@@ 179
ox@@ 179
BA 178
Im@@ 178
My@@ 178
idae 178
old 178
only 178
Kal@@ 177
Mag@@ 177
Pan@@ 177
produc@@ 177
sour@@ 177
A.@@ 176
Er@@ 176
aceae 176
des@@ 176
ering 176
fo@@ 176
ri 176
ters 176
where 176
Mad@@ 175
No@@ 175
app@@ 175
change 175
language 175
tan@@ 175
Na@@ 174
ater 174
kr@@ 174
sive 174
ac 173
char@@ 173
pe 173
qui@@ 173
ser@@ 173
ে@@ 173
Mor@@ 172
Wil@@ 172
ales 172
langu@@ 172
most 172
radi@@ 172
tre@@ 172
vir@@ 172
ː@@ 172
John 171
Mus@@ 171
Sec@@ 171
art 171
ey@@ 171
fol@@ 171
left 171
power 171
tion@@ 171
ɪ@@ 171
App@@ 170
ely 170
esh@@ 170
Bal@@ 169
COVID 169
int 169
ler 169
ole 169
tor@@ 169
wa 169
Ind@@ 168
Medi@@ 168
Soci@@ 168
Ter@@ 168
` 168
ding 168
many 168
tional 168
Ver@@ 167
ational 167
You@@ 166
well 166
ym@@ 166
XX@@ 165
bre@@ 165
lat@@ 165
mus@@ 165
will 165
Wor@@ 164
ich@@ 164
ide 164
স@@ 164
alth 163
chem@@ 163
day 163
ef@@ 163
ek 163
include 163
light 163
state 163
struc@@ 163
au 162
aya 162
dev@@ 162
ube 162
Mot@@ 161
United 161
colspan 161
isti@@ 161
net@@ 161
pal@@ 161
set 161
॑ 161
দ@@ 161
Open 160
bil@@ 160
gener@@ 160
onom@@ 160
Son@@ 159
dic@@ 159
ear@@ 159
if 159
water 159
On 158
Wh@@ 158
ability 158
body 158
life 158
very 158
ו@@ 158
Des@@ 157
Hol@@ 157
Val@@ 157
face 157
pat@@ 157
identi@@ 156
lam@@ 156
π 156
ி@@ 156
Sar@@ 155
bers 155
ences 155
may 155
men@@ 155
pen@@ 155
pur@@ 155
rati@@ 155
́ 155
Dr@@ 154
ean 154
grap@@ 154
ign 154
ves 154
199@@ 153
USA 153
can@@ 153
nuc@@ 153
ote 153
partic@@ 153
ulation 153
when 153
ா@@ 153
1862 152
Min@@ 152
Sc@@ 152
him 152
isi@@ 152
ko@@ 152
low@@ 152
mi 152
rit@@ 152
ন@@ 152
DR 151
ome@@ 151
ope 151
series 151
tis 151
vel@@ 151
world 151
ऽ 151
ever 150
mor@@ 150
tiv@@ 150
Sur@@ 149
comple@@ 149
inf@@ 149
ji 149
ke@@ 149
ni 149
some 149
stand@@ 149
vis@@ 149
י@@ 149
To@@ 148
aus@@ 148
cat@@ 148
cy@@ 148
field 148
not@@ 148
tis@@ 148
we 148
é 148
ars 147
ker 147
oy@@ 147
sti@@ 147
Del@@ 146
Ed@@ 146
ail 146
any 146
eli@@ 146
force 146
ness 146
style 146
় 146
】 146
Hindi 145
ih@@ 145
mu@@ 145
tra 145
Al 144
Do@@ 144
after 144
indi@@ 144
iy@@ 144
ou 144
pan@@ 144
tem@@ 144
【 144
Ho@@ 143
Mac@@ 143
Mi@@ 143
Rh@@ 143
South 143
ng 143
public 143
uri 143
ত@@ 143
க@@ 143
Bur@@ 142
Nor@@ 142
adi 142
differ@@ 142
wid@@ 142
American 141
Em@@ 141
Sy@@ 141
System 141
bas@@ 141
cas@@ 141
ited 141
order 141
ऩ@@ 141
Az@@ 140
data 140
eo 140
self 140
ా@@ 140
bus@@ 139
chan@@ 139
enc@@ 139
let@@ 139
phy@@ 139
0s 138
Cap@@ 138
Jo@@ 138
Net@@ 138
UEFA 138
gro@@ 138
tes 138
Ag@@ 137
Ca@@ 137
Mc@@ 137
Trans@@ 137
air 137
ame@@ 137
cel@@ 137
contr@@ 137
hr@@ 137
mission 137
same 137
vo@@ 137
´ 137
For 136
Sol@@ 136
cont@@ 136
ena 136
flu@@ 136
ft 136
ip@@ 136
sw@@ 136
tron@@ 136
ī@@ 136
Corpor@@ 135
Kan@@ 135
ast@@ 135
cri@@ 135
ids 135
mm 135
och@@ 135
til@@ 135
title 135
ர@@ 135
Arch@@ 134
First 134
Mer@@ 134
Ni@@ 134
ange 134
ap 134
atr@@ 134
ban@@ 134
dh@@ 134
ie@@ 134
ki@@ 134
Ber@@ 133
CN 133
Hu@@ 133
La@@ 133
ce@@ 133
direc@@ 133
non 133
pedi@@ 133
ut 133
য 133
Indi@@ 132
about 132
ani@@ 132
ides 132
ini 132
tom@@ 132
ো@@ 132
Ear@@ 131
Kr@@ 131
els 131
emp@@ 131
nor@@ 131
side 131
॓ 131
At@@ 130
Char@@ 130
Gar@@ 130
Gre@@ 130
Group 130
Kor@@ 130
fa@@ 130
istan 130
ng@@ 130
ography 130
plic@@ 130
é@@ 130
D. 129
Pre@@ 129
Prot@@ 129
Ur@@ 129
bul@@ 129
ines 129
inn@@ 129
leg@@ 129
net 129
people 129
peri@@ 129
ze 129
La 128
Lee 128
ake 128
formation 128
mod@@ 128
tors 128
under 128
AG 127
Pres@@ 127
ao 127
based 127
cell@@ 127
color 127
fil@@ 127
hat@@ 127
put 127
sim@@ 127
stat@@ 127
ster 127
through 127
San@@ 126
atom@@ 126
del 126
eth@@ 126
ich 126
io 126
run@@ 126
Can@@ 125
Gal@@ 125
Gi@@ 125
Mul@@ 125
called 125
icro@@ 125
like 125
off@@ 125
ship 125
tain 125
three 125
ه@@ 125
Gen@@ 124
chi@@ 124
const@@ 124
ements 124
known 124
mal@@ 124
mis@@ 124
ough 124
our@@ 124
ree 124
c. 123
det@@ 123
public@@ 123
second 123
º 123
ح@@ 123
Off@@ 122
back 122
back@@ 122
ee 122
err@@ 122
ground 122
mun@@ 122
num@@ 122
pa 122
there 122
would 122
Eng@@ 121
act@@ 121
ama 121
ku@@ 121
oni@@ 121
put@@ 121
ross 121
Nav@@ 120
Pi@@ 120
anth@@ 120
def@@ 120
ep 120
ium 120
ko 120
ler@@ 120
Av@@ 119
Fi@@ 119
Hum@@ 119
Ta@@ 119
ards 119
box 119
cop@@ 119
ected 119
ond 119
son@@ 119
ume 119
ye 119
′ 119
agr@@ 118
co 118
dem@@ 118
each 118
film 118
iness 118
ling 118
mal 118
ock 118
ordin@@ 118
plas@@ 118
sian 118
½ 118
Ben@@ 117
IX 117
San 117
ample 117
ams 117
ign@@ 117
lan@@ 117
ota 117
plac@@ 117
ples 117
ying 117
َ@@ 117
த@@ 117
An 116
Hor@@ 116
Sim@@ 116
atis@@ 116
coll@@ 116
new 116
ode 116
ర@@ 116
Ye@@ 115
bir@@ 115
phot@@ 115
prim@@ 115
yo@@ 115
် 115
Bor@@ 114
Reg@@ 114
Vol@@ 114
ects 114
ful 114
lab@@ 114
oll@@ 114
oma 114
sk@@ 114
ster@@ 114
super@@ 114
syn@@ 114
syst@@ 114
xim@@ 114
আ@@ 114
Bl@@ 113
Fl@@ 113
acy 113
ae@@ 113
ats 113
bor@@ 113
both 113
lock 113
mer 113
ones 113
sin@@ 113
va 113
wn 113
yst@@ 113
প@@ 113
Au@@ 112
Gl@@ 112
Organ@@ 112
Rec@@ 112
State 112
Tur@@ 112
ba 112
dom 112
during 112
gl@@ 112
DV@@ 111
bro@@ 111
ebo@@ 111
educ@@ 111
hor@@ 111
ill 111
imp@@ 111
sen@@ 111
soci@@ 111
these 111
ux 111
Plan@@ 110
Pri@@ 110
Tar@@ 110
elop@@ 110
erg@@ 110
ger 110
ger@@ 110
less 110
mit@@ 110
multi@@ 110
ories 110
ple@@ 110
sci@@ 110
M. 109
alg@@ 109
aliz@@ 109
bur@@ 109
del@@ 109
dig@@ 109
dition 109
led 109
op 109
serv@@ 109
sor@@ 109
then 109
ua 109
ush@@ 109
vid@@ 109
ר@@ 109
● 109
Air@@ 108
Chin@@ 108
Hal@@ 108
Sub@@ 108
Tel@@ 108
cin@@ 108
ective 108
gh@@ 108
hol@@ 108
lesia 108
ner@@ 108
ord@@ 108
sem@@ 108
tal@@ 108
tle 108
tural 108
using 108
ven@@ 108
verse 108
Chi@@ 107
Fin@@ 107
enn@@ 107
ins@@ 107
my 107
pul@@ 107
resul@@ 107
year 107
σ 107
Fac@@ 106
Met@@ 106
VI@@ 106
ays 106
defin@@ 106
ech 106
econom@@ 106
edr@@ 106
emple 106
ez@@ 106
fication 106
gan@@ 106
ita 106
ket 106
oks 106
olog@@ 106
rot@@ 106
sil@@ 106
± 106
ு@@ 106
Nar@@ 105
States 105
Ste@@ 105
Vi@@ 105
Vis@@ 105
eter@@ 105
mol@@ 105
neg@@ 105
over@@ 105
ros@@ 105
si 105
sions 105
sup@@ 105
জ@@ 105
Bel@@ 104
College 104
Ir@@ 104
One 104
ease 104
eral 104
esc@@ 104
hav@@ 104
key 104
long@@ 104
ب@@ 104
হ@@ 104
ಾ@@ 104
Ban@@ 103
Cy@@ 103
Es@@ 103
Je@@ 103
dy 103
ella 103
exp@@ 103
fied 103
ide@@ 103
map@@ 103
ols 103
top 103
ved 103
view 103
yan@@ 103
years 103
� 103
C. 102
E. 102
Lang@@ 102
North 102
agement 102
asa 102
ax 102
ging 102
inde@@ 102
ov 102
period 102
ren@@ 102
south 102
ō@@ 102
بن 102
ਾ@@ 102
193@@ 101
195@@ 101
area 101
ber 101
ema 101
ently 101
high 101
ja 101
north 101
positi@@ 101
uti@@ 101
wat@@ 101
￼ 101
196@@ 100
Association 100
Bu@@ 100
J. 100
Mat@@ 100
Mu@@ 100
artic@@ 100
bin@@ 100
entr@@ 100
position 100
spe@@ 100
unt 100
vic@@ 100
ാ@@ 100
By 99
Central 99
Lim@@ 99
Tam@@ 99
VII 99
XX 99
bal@@ 99
bri@@ 99
dle 99
eci@@ 99
han@@ 99
off 99
pot@@ 99
á@@ 99
All 98
Leg@@ 98
Ob@@ 98
Rel@@ 98
alm@@ 98
ash 98
atur@@ 98
cons@@ 98
dom@@ 98
km@@ 98
ry 98
under@@ 98
ute 98
writ@@ 98
س@@ 98
ه 98
192@@ 97
King@@ 97
Society 97
aining 97
bon 97
das 97
lor@@ 97
une 97
wer@@ 97
θ 97
EP 96
Ger@@ 96
ava 96
cine 96
ded 96
mb@@ 96
osa 96
sig@@ 96
tak@@ 96
them 96
ts@@ 96
É@@ 96
د 96
ر@@ 96
ش@@ 96
Ang@@ 95
Cas@@ 95
Nu@@ 95
Por@@ 95
Sw@@ 95
aka 95
anim@@ 95
asp@@ 95
cos@@ 95
fic 95
han 95
iss@@ 95
istr@@ 95
los@@ 95
of@@ 95
plan@@ 95
port@@ 95
za 95
ம@@ 95
Op@@ 94
School 94
ero 94
ga 94
ights 94
ments 94
obj@@ 94
place 94
urs 94
ల@@ 94
ರ@@ 94
Ke@@ 93
Mur@@ 93
Rus@@ 93
Syst@@ 93
Tor@@ 93
ato 93
atus 93
ju@@ 93
made 93
progr@@ 93
una 93
ust 93
wan@@ 93
γ 93
Aut@@ 92
Council 92
Eg@@ 92
Great 92
Mos@@ 92
New@@ 92
R. 92
book 92
chi 92
ods 92
ola 92
ority 92
techn@@ 92
ules 92
uni@@ 92
« 92
198@@ 91
Bro@@ 91
S. 91
Tal@@ 91
William 91
appro@@ 91
cep@@ 91
district 91
kin@@ 91
mov@@ 91
nav@@ 91
oo 91
ro 91
sam@@ 91
uv@@ 91
م 91
Ak@@ 90
Ci@@ 90
Company 90
Dig@@ 90
FIFA 90
Play@@ 90
Sah@@ 90
War@@ 90
cip@@ 90
men 90
ona 90
ought 90
section 90
sing@@ 90
temper@@ 90
uf@@ 90
ऋ 90
.C. 89
Cer@@ 89
Moh@@ 89
Sil@@ 89
Tit@@ 89
adr@@ 89
being 89
conduc@@ 89
diff@@ 89
go 89
hom@@ 89
iri 89
lands 89
nom@@ 89
rap@@ 89
row 89
ses 89
version 89
ి@@ 89
B. 88
Cam@@ 88
General 88
Maj@@ 88
Mes@@ 88
Phil@@ 88
Ra@@ 88
Ros@@ 88
acter@@ 88
eph@@ 88
eri@@ 88
given 88
hel@@ 88
icul@@ 88
ista 88
lie 88
lobal 88
part 88
retur@@ 88
thern 88
umin@@ 88
ures 88
א@@ 88
ச@@ 88
ക@@ 88
Cur@@ 87
K. 87
Oc@@ 87
Red@@ 87
Ti@@ 87
West 87
alis 87
asi@@ 87
development 87
ety 87
inv@@ 87
ons@@ 87
sed 87
ten 87
ustri@@ 87
م@@ 87
ী 87
ப@@ 87
London 86
company 86
conn@@ 86
dar 86
following 86
gen 86
ites 86
pa@@ 86
quar@@ 86
tag@@ 86
times 86
tt@@ 86
ula 86
uz@@ 86
ऴ 86
ॊ 86
ા@@ 86
ར@@ 86
Mak@@ 85
On@@ 85
aff@@ 85
class 85
compos@@ 85
conom@@ 85
eme 85
esti@@ 85
expres@@ 85
ford 85
ike 85
lo 85
odi@@ 85
tel 85
tha 85
while 85
ys 85
ਸ@@ 85
194@@ 84
Bus@@ 84
History 84
Loc@@ 84
Mand@@ 84
Proj@@ 84
ace@@ 84
anga 84
anti 84
aria 84
ect@@ 84
integr@@ 84
own 84
play 84
real 84
tern 84
tra@@ 84
í@@ 84
μ@@ 84
Ha@@ 83
Mach@@ 83
NBA 83
Pow@@ 83
Ty@@ 83
Union 83
af 83
amo@@ 83
bes 83
cho@@ 83
cle 83
ein@@ 83
later 83
ye@@ 83
ó@@ 83
■ 83
East 82
Life 82
P. 82
Tre@@ 82
ano 82
apo@@ 82
den@@ 82
ders 82
fer 82
ference 82
illa 82
imb@@ 82
kg 82
long 82
mt@@ 82
ney 82
ow 82
plat@@ 82
small 82
vil 82
wi@@ 82
ِ@@ 82
শ@@ 82
Bah@@ 81
China 81
Mid@@ 81
Stu@@ 81
ains 81
ami 81
base 81
blo@@ 81
ingu@@ 81
ius 81
kal@@ 81
near 81
ologi@@ 81
organ@@ 81
squ@@ 81
tern@@ 81
ɛ@@ 81
ل@@ 81
দ 81
৷ 81
Air 80
Ba@@ 80
Coun@@ 80
Cro@@ 80
Day 80
Dec@@ 80
Educ@@ 80
Govern@@ 80
High 80
Ko@@ 80
ables 80
auth@@ 80
bs 80
conver@@ 80
dan 80
fem@@ 80
him@@ 80
ika 80
incre@@ 80
kan@@ 80
liter@@ 80
main 80
sia 80
thr@@ 80
vice 80
ā 80
ਰ@@ 80
வ@@ 80
Bir@@ 79
Cre@@ 79
James 79
King 79
Ul@@ 79
Uni@@ 79
You 79
active 79
city 79
cle@@ 79
ensis 79
ered 79
mac@@ 79
nu@@ 79
play@@ 79
sit@@ 79
tin 79
গ@@ 79
ര@@ 79
Black 78
Bud@@ 78
Def@@ 78
Music 78
Santa 78
Stand@@ 78
ais@@ 78
aves 78
century 78
control 78
estr@@ 78
even 78
has@@ 78
ills 78
ith 78
mel@@ 78
ords 78
pel@@ 78
sin 78
stor@@ 78
yg@@ 78
yth@@ 78
ع@@ 78
ن@@ 78
ਿ@@ 78
ി@@ 78
Hel@@ 77
Hon@@ 77
Island 77
Kam@@ 77
Ran@@ 77
Ren@@ 77
Wi@@ 77
anda 77
case 77
cla@@ 77
different 77
eta 77
itu@@ 77
though 77
ul 77
wood 77
ে 77
Far@@ 76
H. 76
Station 76
Vir@@ 76
Web@@ 76
down 76
found 76
hab@@ 76
ham 76
ida 76
lig@@ 76
mann 76
oa 76
prob@@ 76
social 76
tour@@ 76
tures 76
vec@@ 76
চ@@ 76
Direc@@ 75
Gh@@ 75
Math@@ 75
Mem@@ 75
Sou@@ 75
aly@@ 75
chang@@ 75
depend@@ 75
mil@@ 75
mit 75
mom@@ 75
ned 75
ont@@ 75
ron@@ 75
tice 75
tin@@ 75
ust@@ 75
win@@ 75
wing 75
» 75
ō 75
ū@@ 75
מ@@ 75
ང 75
At 74
Fer@@ 74
Tun@@ 74
aha 74
bert 74
ended 74
ices 74
mos@@ 74
nati@@ 74
pha 74
prin@@ 74
ret@@ 74
spir@@ 74
stud@@ 74
uses 74
ə 74
ي 74
ऍ 74
ன 74
ు@@ 74
ོ@@ 74
George 73
Hin@@ 73
Mel@@ 73
Pa@@ 73
Pen@@ 73
Sat@@ 73
To 73
Wo@@ 73
ark@@ 73
assi@@ 73
eri 73
ew@@ 73
exper@@ 73
family 73
ham@@ 73
idea 73
ima 73
ition 73
land@@ 73
points 73
tec@@ 73
ural 73
ward 73
ী@@ 73
Dar@@ 72
Fil@@ 72
Sir 72
Sum@@ 72
Vid@@ 72
astr@@ 72
eau 72
ech@@ 72
head 72
information 72
mem@@ 72
ori 72
region 72
sen 72
ths 72
udi@@ 72
uru 72
الله 72
ি 72
ಿ@@ 72
David 71
GC 71
Mil@@ 71
andi@@ 71
ches 71
curr@@ 71
don 71
hat 71
ister 71
mul@@ 71
now 71
tho@@ 71
ues 71
ত 71
Bre@@ 70
Centre 70
Chil@@ 70
Pas@@ 70
Robert 70
She@@ 70
Vo@@ 70
come 70
fri@@ 70
ges 70
independ@@ 70
kno@@ 70
ky 70
lar 70
lead@@ 70
mach@@ 70
mes@@ 70
nch@@ 70
nit@@ 70
ort 70
ose 70
ports 70
proj@@ 70
single 70
those 70
tit@@ 70
uld 70
ury 70
wal@@ 70
ان 70
Cop@@ 69
District 69
Du@@ 69
House 69
However 69
Man 69
Oper@@ 69
Prin@@ 69
Sof@@ 69
Wal@@ 69
alls 69
eth 69
eum 69
gal@@ 69
ila 69
isa 69
kl@@ 69
level 69
mah@@ 69
pin@@ 69
run 69
test@@ 69
uch@@ 69
ven 69
ה@@ 69
د@@ 69
محمد 69
‚ 69
Af@@ 68
Lu@@ 68
Mis@@ 68
No 68
Sab@@ 68
Tw@@ 68
egr@@ 68
gs 68
idge 68
ils 68
isation 68
ised 68
ked 68
nam 68
sal@@ 68
trav@@ 68
trol@@ 68
uk 68
umb@@ 68
ving 68
β@@ 68
য@@ 68
City 67
Dr. 67
Han@@ 67
Kol@@ 67
Kur@@ 67
Pap@@ 67
Park 67
Studi@@ 67
before 67
bridge 67
dens@@ 67
don@@ 67
dra@@ 67
much 67
others 67
ots 67
parti@@ 67
rest@@ 67
test 67
what 67
మ@@ 67
မ@@ 67
.S. 66
Charles 66
Cu@@ 66
England 66
Hi@@ 66
Le 66
Rom@@ 66
Sel@@ 66
Sen@@ 66
Ven@@ 66
aja 66
centr@@ 66
che 66
elle 66
eva 66
fund@@ 66
hiv@@ 66
inst@@ 66
ion@@ 66
ker@@ 66
mad 66
ny@@ 66
opo@@ 66
pap@@ 66
pi 66
present 66
she 66
ē@@ 66
ج@@ 66
ي@@ 66
Bul@@ 65
Cir@@ 65
Cul@@ 65
Kat@@ 65
Live 65
ained 65
aver@@ 65
beg@@ 65
cial 65
cy 65
eld 65
esp@@ 65
get 65
ira 65
les@@ 65
lit@@ 65
med@@ 65
orial 65
political 65
rac@@ 65
represent@@ 65
sing 65
tain@@ 65
tric@@ 65
urt 65
van@@ 65
ö@@ 65
ز@@ 65
Ah@@ 64
Army 64
Bang@@ 64
Bil@@ 64
Chr@@ 64
French 64
She 64
Syn@@ 64
These 64
Var@@ 64
art@@ 64
attle 64
bac@@ 64
dri@@ 64
eas@@ 64
enz@@ 64
fu@@ 64
history 64
ities 64
je@@ 64
ks@@ 64
numer@@ 64
occ@@ 64
ony 64
pass@@ 64
tia 64
unds 64
wer 64
ة 64
ऑ 64
ऩ 64
ৰ@@ 64
ಕ@@ 64
‏ 64
Ash@@ 63
Gir@@ 63
Joseph 63
Name 63
Natur@@ 63
Sav@@ 63
Sm@@ 63
Sul@@ 63
bit@@ 63
could 63
cro@@ 63
dit 63
dou@@ 63
fal@@ 63
ished 63
ishing 63
lem 63
let 63
ligh@@ 63
lim@@ 63
major 63
mo 63
music 63
mut@@ 63
nh@@ 63
onn@@ 63
sequ@@ 63
wr@@ 63
ב@@ 63
ל@@ 63
ى 63
ল 63
ు 63
197@@ 62
Center 62
His 62
Ri@@ 62
Road 62
Time 62
Tro@@ 62
ense 62
four 62
hips 62
house 62
ik 62
large 62
often 62
oti@@ 62
pression 62
see 62
tar 62
titu@@ 62
vi 62
xi@@ 62
і@@ 62
ا 62
ال@@ 62
ك@@ 62
ു@@ 62
Pot@@ 61
Progr@@ 61
Red 61
There 61
activ@@ 61
another 61
ck 61
develop@@ 61
due 61
eds 61
ef 61
ement@@ 61
eus 61
featur@@ 61
fig@@ 61
ically 61
ington 61
mid@@ 61
oli 61
ost@@ 61
outh 61
prec@@ 61
rich@@ 61
ris@@ 61
several 61
since 61
speci@@ 61
vention 61
village 61
ville 61
ways 61
who@@ 61
wo@@ 61
ī 61
ɑ@@ 61
و 61
ి 61
― 61
De 60
European 60
Feder@@ 60
Kin@@ 60
Liber@@ 60
Me 60
Micro@@ 60
Ox@@ 60
Sk@@ 60
War 60
Ze@@ 60
ag 60
anus 60
ayan 60
bot@@ 60
cli@@ 60
continu@@ 60
ei@@ 60
fur@@ 60
government 60
home 60
indic@@ 60
international 60
lines 60
liv@@ 60
ls 60
ogr@@ 60
ques 60
reduc@@ 60
refer@@ 60
site 60
total 60
urn@@ 60
vie@@ 60
wards 60
works 60
yan 60
â@@ 60
، 60
ऒ@@ 60
ੰ@@ 60
ం@@ 60
త@@ 60
Bad@@ 59
Chem@@ 59
From 59
Ham@@ 59
Ki@@ 59
Lab@@ 59
March 59
Ori@@ 59
Revol@@ 59
Sem@@ 59
Sho@@ 59
Sto@@ 59
Wat@@ 59
White 59
XVI 59
because 59
berg 59
bol 59
country 59
ecture 59
ello 59
general 59
material 59
new@@ 59
org@@ 59
propor@@ 59
some@@ 59
trac@@ 59
uli@@ 59
vent@@ 59
ق@@ 59
ْ@@ 59
188@@ 58
British 58
Commun@@ 58
Eur@@ 58
Gor@@ 58
Jan@@ 58
Kir@@ 58
Produc@@ 58
Publi@@ 58
Ru@@ 58
Thomas 58
aft 58
alist 58
around 58
bat@@ 58
bon@@ 58
ces@@ 58
cus 58
early 58
ein 58
etes 58
exist@@ 58
ext@@ 58
final 58
ico 58
including 58
isch@@ 58
jo@@ 58
ket@@ 58
ld 58
leng@@ 58
ment@@ 58
recog@@ 58
star@@ 58
sum@@ 58
tory 58
vers@@ 58
yu 58
മ@@ 58
★ 58
America 57
Astr@@ 57
Bab@@ 57
June 57
Med@@ 57
Media 57
Paul 57
W. 57
aba 57
aga 57
anci@@ 57
asi 57
bet@@ 57
compar@@ 57
ili 57
ix 57
kho@@ 57
last 57
natural 57
provid@@ 57
separ@@ 57
thi 57
tro 57
won 57
zi@@ 57
ਨ@@ 57
ட@@ 57
ల 57
Force 56
Games 56
Mir@@ 56
aa 56
against 56
ances 56
ask@@ 56
augh@@ 56
aun@@ 56
com 56
dir 56
ev 56
ff 56
forces 56
ime 56
instrum@@ 56
modern 56
onia 56
optera 56
production 56
rem@@ 56
rup@@ 56
sul@@ 56
tan 56
ton@@ 56
tries 56
var@@ 56
without 56
è@@ 56
ʲ@@ 56
ਹ@@ 56
క@@ 56
ಮ@@ 56
Bak@@ 55
Blo@@ 55
Bol@@ 55
Gener@@ 55
Green 55
L. 55
Mich@@ 55
My 55
Pop@@ 55
alog@@ 55
any@@ 55
ault 55
combin@@ 55
course 55
din 55
eng 55
extr@@ 55
hand@@ 55
head@@ 55
itation 55
lum 55
mati@@ 55
ministr@@ 55
mittee 55
partment 55
published 55
resp@@ 55
species 55
stre@@ 55
syl@@ 55
teri@@ 55
tre 55
vers 55
was@@ 55
୍ 55
న@@ 55
བ@@ 55
August 54
Bay 54
Boy@@ 54
Cin@@ 54
Dur@@ 54
F. 54
Kon@@ 54
Long 54
Num@@ 54
Royal 54
Super@@ 54
Western 54
ana@@ 54
ania 54
cm 54
commun@@ 54
dium 54
ex 54
ince 54
ior 54
ison 54
loy@@ 54
media 54
person@@ 54
pic@@ 54
princip@@ 54
san@@ 54
sar@@ 54
sm@@ 54
win 54
women 54
à@@ 54
ص@@ 54
ক 54
ம 54
ல@@ 54
ས@@ 54
ṭ@@ 54
All@@ 53
April 53
I. 53
Jean 53
Lam@@ 53
Nam@@ 53
Orig@@ 53
Records 53
Region 53
Sin@@ 53
Sun@@ 53
Tak@@ 53
V. 53
Wol@@ 53
autom@@ 53
bar 53
concep@@ 53
cover@@ 53
doc@@ 53
envir@@ 53
ett@@ 53
fle@@ 53
fore 53
idence 53
iev@@ 53
ji@@ 53
lob@@ 53
philos@@ 53
team 53
uli 53
æ 53
ð 53
ε 53
ָ@@ 53
ب 53
ر 53
મ@@ 53
ய@@ 53
గ@@ 53
ನ@@ 53
Academy 52
Dom@@ 52
Edward 52
France 52
Gol@@ 52
Ker@@ 52
Lake 52
Win@@ 52
among 52
ands 52
band 52
ben@@ 52
high@@ 52
ily 52
lip@@ 52
list@@ 52
oni 52
oto 52
pri@@ 52
said 52
support 52
sus 52
tam@@ 52
territ@@ 52
tica 52
ually 52
¤ 52
§ 52
án 52
ð@@ 52
ος 52
ప@@ 52
ག@@ 52
″ 52
Baz@@ 51
Cel@@ 51
Doc@@ 51
Journ@@ 51
July 51
Kas@@ 51
Os@@ 51
Pic@@ 51
Shi@@ 51
Tem@@ 51
abl@@ 51
ago 51
ait 51
awa 51
best 51
cha 51
chil@@ 51
ebr@@ 51
eli 51
ette 51
ges@@ 51
hur@@ 51
ident 51
make 51
metal 51
mir 51
osp@@ 51
pil@@ 51
pose 51
respon@@ 51
sist@@ 51
sus@@ 51
tab@@ 51
tly 51
tradi@@ 51
tran@@ 51
trop@@ 51
vas@@ 51
versi@@ 51
wo 51
را@@ 51
ম 51
ਮ@@ 51
√ 51
▪ 51
189@@ 50
Bank 50
Fran@@ 50
Internet 50
Jam@@ 50
Ly@@ 50
Nic@@ 50
Pad@@ 50
Super 50
alan 50
anz@@ 50
ately 50
charg@@ 50
consider@@ 50
dar@@ 50
determin@@ 50
did 50
die 50
dio 50
eas 50
ete 50
ez 50
fir@@ 50
ier 50
important 50
mad@@ 50
nec@@ 50
ople 50
organiz@@ 50
press 50
short 50
stell@@ 50
typ@@ 50
ular@@ 50
ule 50
von 50
zy@@ 50
ধ@@ 50
ভ@@ 50
ವ@@ 50
Ali 49
Ann@@ 49
Anti@@ 49
Canada 49
German 49
Gro@@ 49
Kad@@ 49
Land 49
May@@ 49
October 49
ado 49
amin@@ 49
dat@@ 49
ending 49
fa 49
fas@@ 49
grav@@ 49
grou@@ 49
hon@@ 49
inae 49
law@@ 49
lay@@ 49
lia 49
mak@@ 49
na@@ 49
ont 49
prac@@ 49
sil 49
sou@@ 49
stati@@ 49
tun@@ 49
α@@ 49
І 49
נ@@ 49
ಿ 49
ು@@ 49
വ@@ 49
ས 49
း@@ 49
Anth@@ 48
Henry 48
Kun@@ 48
Law@@ 48
Lit@@ 48
Vic@@ 48
ady 48
archit@@ 48
aul@@ 48
ched 48
cum@@ 48
ends 48
enth@@ 48
esses 48
follow@@ 48
geb@@ 48
get@@ 48
half 48
hip 48
iliz@@ 48
initi@@ 48
inning 48
kum@@ 48
lic@@ 48
lim 48
mig@@ 48
ough@@ 48
thi@@ 48
third 48
ty@@ 48
ump@@ 48
ñ@@ 48
ω 48
ּ@@ 48
ੀ 48
ி 48
జ@@ 48
ိ@@ 48
ြ@@ 48
Ari@@ 47
Chap@@ 47
January 47
Jer@@ 47
Ka@@ 47
Louis 47
Men@@ 47
Tan@@ 47
Tu@@ 47
When 47
Yah@@ 47
bi 47
born 47
capac@@ 47
concentr@@ 47
conserv@@ 47
cus@@ 47
dur@@ 47
edit@@ 47
ele 47
ert 47
fic@@ 47
flo@@ 47
formed 47
gi 47
influ@@ 47
iti 47
lam 47
modi@@ 47
ograph@@ 47
original 47
phil@@ 47
ref@@ 47
shire 47
stein 47
take 47
tol@@ 47
took 47
trol 47
ud 47
ult@@ 47
uma 47
van 47
yo 47
à 47
ɔ@@ 47
ɡ@@ 47
ʁ@@ 47
Δ 47
י 47
ف@@ 47
و@@ 47
ی 47
ོ 47
After 46
Asia 46
Ku@@ 46
Rail@@ 46
aji 46
alt@@ 46
az 46
bec@@ 46
board 46
cent@@ 46
consist@@ 46
having 46
issu@@ 46
jus@@ 46
len@@ 46
million 46
mir@@ 46
olf 46
omb@@ 46
pon@@ 46
population 46
suc@@ 46
خ@@ 46
ॿ@@ 46
ਤ@@ 46
ர 46
ಂ@@ 46
ུ@@ 46
Church 45
Dor@@ 45
Ferr@@ 45
Fu@@ 45
It@@ 45
Lord 45
Mun@@ 45
Richard 45
Rud@@ 45
Vill@@ 45
York 45
agn@@ 45
ais 45
da@@ 45
design 45
eing 45
ela 45
engine 45
full 45
ho 45
ief 45
ific@@ 45
jo 45
lem@@ 45
main@@ 45
national 45
ram@@ 45
ric@@ 45
suff@@ 45
uno 45
within 45
ʊ@@ 45
области 45
р@@ 45
ש@@ 45
ং@@ 45
వ@@ 45
Award 44
Bos@@ 44
Comp@@ 44
Dal@@ 44
Dan@@ 44
El 44
Kap@@ 44
Lar@@ 44
Les 44
Mol@@ 44
Nik@@ 44
Not@@ 44
Nov@@ 44
Ny@@ 44
alb@@ 44
ament 44
clo@@ 44
defe@@ 44
deg@@ 44
ece 44
ests 44
event 44
gia 44
ille 44
lag@@ 44
liz@@ 44
match 44
observ@@ 44
ographi@@ 44
ous@@ 44
ously 44
pas@@ 44
po 44
possible 44
prof@@ 44
relati@@ 44
religi@@ 44
sign@@ 44
tains 44
tex@@ 44
tig@@ 44
uy@@ 44
vill@@ 44
ze@@ 44
ç@@ 44
ν 44
ה 44
শ 44
ਜ@@ 44
ದ@@ 44
≤ 44
大@@ 44
Ay@@ 43
Bet@@ 43
Il@@ 43
María 43
May 43
Milit@@ 43
Que@@ 43
Radi@@ 43
Rah@@ 43
They 43
Tim@@ 43
arc@@ 43
condi@@ 43
cos 43
dor@@ 43
former 43
hard 43
ict 43
late 43
lier 43
lot 43
neu@@ 43
par 43
requ@@ 43
sta 43
until 43
urg@@ 43
written 43
á 43
ƒ 43
ɾ@@ 43
ʃ@@ 43
ְ@@ 43
ان@@ 43
ನ 43
പ@@ 43
င 43
↑ 43
Ali@@ 42
Bat@@ 42
Bot@@ 42
Den@@ 42
Division 42
Fol@@ 42
Grand 42
Id@@ 42
Kus@@ 42
Liter@@ 42
Paris 42
Star@@ 42
Tran@@ 42
acu@@ 42
aki 42
ason 42
became 42
but@@ 42
ca@@ 42
charac@@ 42
cher 42
cit@@ 42
date 42
dies 42
ize 42
lev@@ 42
limit@@ 42
lis 42
local 42
making 42
mark 42
offici@@ 42
oppos@@ 42
part@@ 42
pend@@ 42
post 42
school 42
sion@@ 42
su 42
vin@@ 42
wil@@ 42
Ú@@ 42
ó 42
ː 42
Δ@@ 42
μ 42
ת 42
། 42
Andre@@ 41
Art 41
Arthur 41
Big 41
Blue 41
Dav@@ 41
Eu@@ 41
Hist@@ 41
Ot@@ 41
Person@@ 41
Plat@@ 41
Prim@@ 41
September 41
Tol@@ 41
Vel@@ 41
aborat@@ 41
ased 41
buil@@ 41
clus@@ 41
craft 41
dae 41
eer 41
films 41
ided 41
ier@@ 41
inclu@@ 41
ken 41
lad@@ 41
materi@@ 41
onship 41
pon 41
sal 41
scienti@@ 41
sea 41
service 41
unda 41
vin 41
yon@@ 41
н@@ 41
ن 41
گ@@ 41
య@@ 41
ా 41
Deb@@ 40
Ev@@ 40
Gran@@ 40
Ju@@ 40
Rev@@ 40
Squ@@ 40
adem@@ 40
agre@@ 40
ami@@ 40
apar@@ 40
arti@@ 40
aud@@ 40
children 40
constitu@@ 40
culture 40
distribu@@ 40
docum@@ 40
enta 40
invol@@ 40
ip 40
ister@@ 40
nov@@ 40
og 40
ogen 40
osh@@ 40
oy 40
placed 40
rea 40
record 40
round 40
show 40
signific@@ 40
station 40
still 40
uh@@ 40
φ 40
ִ@@ 40
ד@@ 40
ا@@ 40
َّ@@ 40
ِ 40
প 40
ਾ 40
ന@@ 40
ി 40
ု@@ 40
≥ 40
Arab@@ 39
Ath@@ 39
Bon@@ 39
Fal@@ 39
Kn@@ 39
Ky@@ 39
Lev@@ 39
Mod@@ 39
Sak@@ 39
Sand@@ 39
Spe@@ 39
Tow@@ 39
actor 39
ador 39
aut@@ 39
bran@@ 39
cou@@ 39
division 39
few 39
forc@@ 39
guit@@ 39
held 39
iger 39
igu@@ 39
itz 39
jan@@ 39
min 39
olo@@ 39
span 39
yi 39
ʒ@@ 39
ς 39
р 39
ل 39
ফ@@ 39
વ@@ 39
ு 39
ം 39
ത@@ 39
ല@@ 39
ན 39
្ 39
Best 38
But@@ 38
Cant@@ 38
Harr@@ 38
Leon@@ 38
Meg@@ 38
Peter 38
Pin@@ 38
Rap@@ 38
Su 38
ache 38
aer@@ 38
annel 38
ape 38
aqu@@ 38
asc@@ 38
aster@@ 38
bus 38
compl@@ 38
days 38
dial 38
div@@ 38
ei 38
ells 38
expl@@ 38
father 38
fe 38
foc@@ 38
hara 38
ht 38
illed 38
kam 38
kat@@ 38
lik@@ 38
mand@@ 38
military 38
mix@@ 38
ova 38
performan@@ 38
quot@@ 38
r. 38
released 38
sat@@ 38
say@@ 38
six 38
sun@@ 38
tu 38
unter 38
usi@@ 38
wn@@ 38
zu 38
ø@@ 38
ś@@ 38
δ 38
أ@@ 38
ار@@ 38
ت@@ 38
ُ@@ 38
ৰ 38
ା@@ 38
ರ 38
≡ 38
Brit@@ 37
Christ@@ 37
Cle@@ 37
December 37
Hill 37
Hir@@ 37
Hosp@@ 37
Kab@@ 37
Lat@@ 37
Lor@@ 37
Love 37
November 37
Phili@@ 37
Rem@@ 37
Rob@@ 37
Rol@@ 37
Star 37
Vik@@ 37
Vit@@ 37
alter@@ 37
ander 37
associ@@ 37
atives 37
ave@@ 37
built 37
carri@@ 37
complet@@ 37
ega 37
ener@@ 37
fam@@ 37
fes@@ 37
game 37
gir@@ 37
included 37
institu@@ 37
journ@@ 37
kin 37
kn@@ 37
lies 37
lin 37
monum@@ 37
ops 37
otr@@ 37
tif@@ 37
tiz@@ 37
var 37
voc@@ 37
wrote 37
ér@@ 37
Ω 37
ρ 37
в@@ 37
н 37
о@@ 37
ן 37
ی@@ 37
ॾ@@ 37
த 37
ே@@ 37
ర 37
ന 37
ေ@@ 37
Dem@@ 36
Lib@@ 36
Lon@@ 36
Mari@@ 36
Martin 36
Mut@@ 36
Saint 36
Som@@ 36
Stan@@ 36
Sup@@ 36
Tom@@ 36
Women 36
Young 36
absol@@ 36
avi 36
away 36
bed 36
cause 36
chen 36
cour@@ 36
cru@@ 36
eti 36
five 36
ife 36
inga 36
ische 36
just 36
kara 36
kur@@ 36
mus 36
named 36
ording 36
priv@@ 36
started 36
tera 36
top@@ 36
ya@@ 36
yn 36
® 36
³ 36
è 36
ô@@ 36
ˌ@@ 36
λ 36
й 36
פ@@ 36
ت 36
ট@@ 36
ਦ@@ 36
མ@@ 36
ာ@@ 36
ー@@ 36
￸ 36
187@@ 35
According 35
California 35
Cath@@ 35
Die 35
Hil@@ 35
Hom@@ 35
Kos@@ 35
Land@@ 35
League 35
President 35
Sus@@ 35
Tab@@ 35
Tex@@ 35
Thom@@ 35
ades 35
ado@@ 35
agu@@ 35
alia 35
along 35
anta 35
ativ@@ 35
ause 35
bah@@ 35
bol@@ 35
bu 35
caus@@ 35
commer@@ 35
conf@@ 35
cut 35
din@@ 35
erry 35
eur 35
fel@@ 35
ider 35
iller 35
inger 35
kil@@ 35
kul@@ 35
ord 35
poli@@ 35
popular 35
produced 35
prom@@ 35
publ@@ 35
ras@@ 35
result@@ 35
saf@@ 35
ski 35
sky 35
tam 35
unter@@ 35
yal 35
yon 35
µ@@ 35
л@@ 35
ط@@ 35
ਰ 35
ર@@ 35
ି@@ 35
க 35
ಗ@@ 35
ಸ@@ 35
0.000 34
Beg@@ 34
Der@@ 34
Gas@@ 34
Hat@@ 34
How@@ 34
Ji@@ 34
Liv@@ 34
Sher@@ 34
So 34
St. 34
again 34
alli@@ 34
ats@@ 34
become 34
bes@@ 34
bos@@ 34
chin@@ 34
dre@@ 34
estim@@ 34
eu@@ 34
eur@@ 34
hak@@ 34
hiz@@ 34
introduc@@ 34
larg@@ 34
lit 34
lus@@ 34
med 34
nas@@ 34
oria 34
orient@@ 34
patr@@ 34
played 34
ported 34
rol@@ 34
similar 34
spr@@ 34
trong 34
tus 34
udi 34
ulu 34
wa@@ 34
yal@@ 34
γ@@ 34
й@@ 34
الع@@ 34
عبد 34
غ@@ 34
چ@@ 34
യ@@ 34
က@@ 34
Africa 33
Bec@@ 33
Centr@@ 33
Christian 33
Dam@@ 33
Dre@@ 33
Est@@ 33
Europe 33
February 33
Fel@@ 33
Film 33
Geor@@ 33
Hans 33
Mary 33
Muh@@ 33
Museum 33
Rad@@ 33
Si 33
Spr@@ 33
Whit@@ 33
XIX 33
abil@@ 33
appar@@ 33
avi@@ 33
ban 33
bin 33
ci 33
edy 33
ept@@ 33
esia 33
gether 33
govern@@ 33
histor@@ 33
however 33
iment 33
itz@@ 33
kw@@ 33
lah 33
model@@ 33
onal@@ 33
para 33
pay@@ 33
regi@@ 33
sexu@@ 33
temp@@ 33
tes@@ 33
town 33
uni 33
via 33
viol@@ 33
wel@@ 33
ão 33
ée 33
в 33
вич 33
ע@@ 33
ك 33
۝ 33
ਕ@@ 33
ਗ@@ 33
ਲ@@ 33
ತ@@ 33
ර@@ 33
ྱ@@ 33
ရ@@ 33
⁄ 33
Arm@@ 32
Bern@@ 32
Entertainment 32
Es 32
Fir@@ 32
Juan 32
Maur@@ 32
Mont@@ 32
Olympi@@ 32
Party 32
Roc@@ 32
Um@@ 32
XV@@ 32
abr@@ 32
aces 32
amar@@ 32
cam@@ 32
capital 32
class@@ 32
contin@@ 32
dam@@ 32
direction 32
diz@@ 32
domin@@ 32
dru@@ 32
ectiv@@ 32
essor 32
fall 32
front 32
fus@@ 32
ku 32
member 32
ony@@ 32
personal 32
plus 32
received 32
semb@@ 32
ser 32
services 32
studi@@ 32
tut@@ 32
yle 32
zone 32
š@@ 32
λ@@ 32
الم@@ 32
ذ@@ 32
پ@@ 32
ަ@@ 32
খ@@ 32
ன@@ 32
ద@@ 32
ಲ@@ 32
් 32
ད@@ 32
Am 31
Austr@@ 31
Da 31
Franc@@ 31
Hot@@ 31
Jac@@ 31
Jap@@ 31
Les@@ 31
Nati@@ 31
Ped@@ 31
Times 31
Van 31
Vil@@ 31
Wa@@ 31
aca 31
adu@@ 31
ager 31
ague 31
ald 31
aller 31
ann 31
announced 31
ares 31
aro@@ 31
auto@@ 31
ble@@ 31
central 31
dir@@ 31
eb 31
edi 31
event@@ 31
ful@@ 31
gan 31
gar 31
gest@@ 31
ican 31
ij@@ 31
iss 31
ived 31
kon@@ 31
lan 31
live 31
nat@@ 31
nis 31
ograp@@ 31
orig@@ 31
que@@ 31
race 31
radio 31
rain 31
ran 31
situ@@ 31
techni@@ 31
terior 31
í 31
ü@@ 31
δ@@ 31
θ@@ 31
а@@ 31
ַ@@ 31
ם 31
الح@@ 31
ام@@ 31
ॲ@@ 31
অ@@ 31
ব 31
ਪ@@ 31
ର@@ 31
ல 31
డ@@ 31
ಪ@@ 31
ು 31
† 31
中@@ 31
Abr@@ 30
Ale@@ 30
Alli@@ 30
Beh@@ 30
Camp@@ 30
Din@@ 30
Dol@@ 30
Juli@@ 30
Luc@@ 30
Mik@@ 30
Rich@@ 30
Rock 30
Sor@@ 30
Tay@@ 30
aged 30
alit@@ 30
allow@@ 30
amba 30
aus 30
aye 30
ball 30
bury 30
camp@@ 30
did@@ 30
dol@@ 30
ehr@@ 30
ej@@ 30
election 30
established 30
far@@ 30
found@@ 30
fut@@ 30
iler 30
industri@@ 30
ling@@ 30
located 30
los 30
loss 30
members 30
nd@@ 30
ores 30
orum 30
pad@@ 30
particip@@ 30
present@@ 30
prov@@ 30
ston 30
tal 30
tend@@ 30
tou@@ 30
urg 30
voir 30
¾ 30
Ü@@ 30
ν@@ 30
у@@ 30
اس@@ 30
خان 30
س 30
هر 30
ু 30
ବ@@ 30
ந@@ 30
ோ@@ 30
ತ 30
മ 30
Alexander 29
Au 29
Bay@@ 29
Canadi@@ 29
Cast@@ 29
Democ@@ 29
Festival 29
Haw@@ 29
Hay@@ 29
Hung@@ 29
Jus@@ 29
Kom@@ 29
Roman 29
abe 29
adap@@ 29
atre 29
began 29
bo 29
building 29
came 29
clim@@ 29
declar@@ 29
dern 29
dul@@ 29
esa 29
financi@@ 29
haus@@ 29
hir 29
hist@@ 29
ito 29
lang 29
lec@@ 29
lege 29
len 29
lers 29
mill@@ 29
oman 29
opp@@ 29
probl@@ 29
reci@@ 29
remain@@ 29
rey 29
strat@@ 29
trad@@ 29
uel 29
uj@@ 29
various 29
ον 29
اب@@ 29
ار 29
ح 29
رو@@ 29
ع 29
ف 29
ق 29
مان 29
স 29
ಯ@@ 29
ത 29
ེ@@ 29
ྲ@@ 29
186@@ 28
Andr@@ 28
Arg@@ 28
Arts 28
Billboard 28
Bri@@ 28
Champi@@ 28
Conn@@ 28
Cru@@ 28
Famil@@ 28
Max 28
Olymp@@ 28
Prof@@ 28
Rod@@ 28
Street 28
Univers@@ 28
Washington 28
abor@@ 28
agon@@ 28
anger 28
ante 28
athol@@ 28
aug@@ 28
bot 28
clos@@ 28
corresp@@ 28
cription 28
death 28
eck 28
ente 28
exten@@ 28
ible 28
inten@@ 28
irs 28
jur@@ 28
office 28
once 28
open@@ 28
perior 28
produ@@ 28
pun@@ 28
sab@@ 28
seg@@ 28
sep@@ 28
ses@@ 28
sis 28
som@@ 28
stan@@ 28
termin@@ 28
tribu@@ 28
ui@@ 28
uss@@ 28
ween 28
yap@@ 28
¿ 28
ã@@ 28
ä@@ 28
ç 28
ɪ 28
π@@ 28
на 28
ֹ@@ 28
כ@@ 28
آ@@ 28
ش 28
এ@@ 28
ਵ@@ 28
ੋ@@ 28
ે 28
ந 28
ూ@@ 28
ె@@ 28
ད 28
≈ 28
ン@@ 28
本@@ 28
Acc@@ 27
Australian 27
Awards 27
Club 27
Deutsch@@ 27
Gold@@ 27
Jacques 27
Kit@@ 27
Meh@@ 27
Ng@@ 27
Ol@@ 27
Real 27
Rog@@ 27
Rot@@ 27
Sant@@ 27
Scot@@ 27
Smith 27
abri@@ 27
ames 27
annes 27
appe@@ 27
asti@@ 27
atin 27
atri@@ 27
cast 27
competi@@ 27
conv@@ 27
court 27
dal@@ 27
dam 27
destr@@ 27
eda 27
equi@@ 27
especi@@ 27
figur@@ 27
formes 27
four@@ 27
gradu@@ 27
haz@@ 27
hr 27
inus 27
ional 27
ird 27
iter@@ 27
lang@@ 27
mine 27
moved 27
ny 27
oug@@ 27
sort 27
tas@@ 27
ums 27
wala 27
wi 27
yet 27
zo 27
¥ 27
º@@ 27
Ð 27
ū 27
ε@@ 27
بر@@ 27
حي@@ 27
من 27
ऴ@@ 27
ॐ@@ 27
ড 27
ੀ@@ 27
ட 27
ற@@ 27
ದ 27
ೆ 27
ೆ@@ 27
ೇ@@ 27
േ@@ 27
མ 27
Amer@@ 26
Aus@@ 26
Bru@@ 26
Christi@@ 26
Emp@@ 26
François 26
Gra@@ 26
Hall 26
Hand@@ 26
Ing@@ 26
Kul@@ 26
Michael 26
Patr@@ 26
Pierre 26
arded 26
beau@@ 26
burg 26
concer@@ 26
day@@ 26
design@@ 26
died 26
eig@@ 26
eller 26
ento 26
eria 26
eye 26
hosp@@ 26
hus@@ 26
iro 26
ism@@ 26
lag 26
mess@@ 26
ob 26
organis@@ 26
pes 26
pre 26
rat 26
rier 26
rif@@ 26
rock 26
sac@@ 26
sak@@ 26
sav@@ 26
sey 26
tribut@@ 26
unk@@ 26
viv@@ 26
with@@ 26
zi 26
ա@@ 26
الن@@ 26
مح@@ 26
وا@@ 26
ّ@@ 26
ই@@ 26
ঙ 26
ੁ@@ 26
્ 26
ை@@ 26
స@@ 26
ക 26
ട@@ 26
ག 26
ི@@ 26
日@@ 26
Alexand@@ 25
Blan@@ 25
Bow@@ 25
Clar@@ 25
Enter@@ 25
Ern@@ 25
Friedrich 25
Gaz@@ 25
Japan 25
Joh@@ 25
Lag@@ 25
Lou@@ 25
Mill@@ 25
Pon@@ 25
Radio 25
Sig@@ 25
XVIII 25
ached 25
alar@@ 25
amer@@ 25
angi 25
ardo 25
aut 25
bles 25
celebr@@ 25
cher@@ 25
civil 25
dil@@ 25
dings 25
eck@@ 25
elimin@@ 25
ender 25
enne 25
excep@@ 25
fort 25
igh 25
isis 25
jam@@ 25
libr@@ 25
m. 25
mar 25
met 25
onder@@ 25
ongo 25
park 25
program 25
relig@@ 25
rid 25
ré@@ 25
season 25
stitu@@ 25
tari@@ 25
union 25
video 25
÷ 25
ζ 25
η 25
σ@@ 25
الر@@ 25
با@@ 25
۔ 25
উ@@ 25
ਬ@@ 25
ી 25
ે@@ 25
క 25
ಕ 25
འ@@ 25
ལ 25
ྫ@@ 25
တ@@ 25
ḍ@@ 25
國@@ 25
Alfre@@ 24
Ander@@ 24
Australia 24
Bau@@ 24
Cab@@ 24
Don@@ 24
Empire 24
Et@@ 24
Fri@@ 24
Gem@@ 24
Got@@ 24
Hit@@ 24
Lan@@ 24
Mit@@ 24
Parti@@ 24
Show 24
Shu@@ 24
Wilhelm 24
With 24
alt 24
appear@@ 24
bli@@ 24
categ@@ 24
compet@@ 24
ember 24
enci@@ 24
establ@@ 24
gel@@ 24
ido 24
inform@@ 24
isi 24
isl@@ 24
lor 24
mas 24
next 24
player 24
res 24
sah@@ 24
sche 24
scor@@ 24
sible 24
trag@@ 24
uta 24
yak@@ 24
¸ 24
Á@@ 24
ł@@ 24
̃ 24
ль@@ 24
м@@ 24
ק@@ 24
إ@@ 24
ث@@ 24
لا@@ 24
مو@@ 24
می@@ 24
ُ 24
ک@@ 24
ণ 24
ূ@@ 24
ੱ@@ 24
ମ@@ 24
ெ@@ 24
ை 24
న 24
ා@@ 24
ි@@ 24
ེ 24
ា@@ 24
█ 24
Cup 23
Don 23
Ges@@ 23
Has@@ 23
Jos@@ 23
Karl 23
Kle@@ 23
Lud@@ 23
Penn@@ 23
Provin@@ 23
Sau@@ 23
ator@@ 23
bab@@ 23
cia 23
conc@@ 23
construc@@ 23
contribu@@ 23
created 23
descri@@ 23
dis 23
dé@@ 23
ectu@@ 23
elli 23
embr@@ 23
enes 23
estra 23
gol@@ 23
gun 23
ilia 23
kor@@ 23
luk 23
mis 23
nes 23
oi 23
pendi@@ 23
por 23
previ@@ 23
record@@ 23
road 23
sam 23
seud@@ 23
strum@@ 23
tras@@ 23
uer@@ 23
ui 23
usa 23
yar@@ 23
zen 23
zer 23
¨ 23
ás@@ 23
ón 23
ör@@ 23
č@@ 23
ē 23
ŋ@@ 23
˚ 23
κ@@ 23
м 23
х@@ 23
ל 23
أبو 23
ام 23
علی 23
ঁ@@ 23
ન@@ 23
ா 23
ಡ@@ 23
ಶ@@ 23
ള@@ 23
ར 23
ྒ@@ 23
သ@@ 23
္ 23
ṇ@@ 23
↓ 23
李@@ 23
2. 22
Carl 22
Fut@@ 22
Johann 22
NGC 22
Nat@@ 22
Pil@@ 22
Ré@@ 22
alan@@ 22
ander@@ 22
apa 22
awali 22
ayn@@ 22
ball@@ 22
band@@ 22
bis 22
bun@@ 22
chr@@ 22
classi@@ 22
clu@@ 22
conse@@ 22
eca 22
elt 22
enter 22
ett 22
fast 22
foot@@ 22
gres@@ 22
hau@@ 22
ises 22
ishi 22
je 22
join@@ 22
joint 22
kol@@ 22
lement 22
nia 22
nik 22
née 22
och 22
peti@@ 22
polic@@ 22
polit@@ 22
rod@@ 22
role 22
rou@@ 22
sk 22
stand 22
students 22
success@@ 22
tent 22
unge 22
¢ 22
É 22
är@@ 22
èse 22
ë@@ 22
ì 22
ür@@ 22
ва 22
д@@ 22
ская 22
ский 22
ֶ@@ 22
צ@@ 22
ري@@ 22
سي@@ 22
مر@@ 22
من@@ 22
ية 22
ين 22
ٱ@@ 22
জ 22
ਤ 22
ਲ 22
દ@@ 22
ལ@@ 22
ི 22
ခ@@ 22
ပ@@ 22
រ@@ 22
ṣ@@ 22
ⴰ@@ 22
国@@ 22
Bou@@ 21
Constitu@@ 21
Eri@@ 21
Esp@@ 21
Gil@@ 21
Her 21
Il 21
Ireland 21
Jah@@ 21
Kil@@ 21
Maria 21
Mark 21
Nak@@ 21
Pedro 21
UE@@ 21
agric@@ 21
aine 21
aire 21
aise 21
alian 21
anne 21
benz@@ 21
continued 21
edo 21
eno 21
experi@@ 21
fav@@ 21
fici@@ 21
fo 21
fon@@ 21
igi@@ 21
individ@@ 21
investig@@ 21
ique 21
irat@@ 21
iter 21
kab@@ 21
nation@@ 21
ovi@@ 21
pain@@ 21
plant@@ 21
pointed 21
ques@@ 21
rail@@ 21
shu@@ 21
sur 21
uke 21
universit@@ 21
vor@@ 21
yer 21
ù 21
ŋ 21
ʊ 21
ρ@@ 21
χ@@ 21
А@@ 21
И@@ 21
О@@ 21
С@@ 21
ла@@ 21
ג@@ 21
ח@@ 21
اد 21
اد@@ 21
الأ@@ 21
الج@@ 21
ج 21
ز 21
يد 21
ہ@@ 21
॔ 21
ও@@ 21
ষ 21
જ@@ 21
କ@@ 21
ସ@@ 21
బ@@ 21
ಬ@@ 21
ಲ 21
ಹ@@ 21
ೀ@@ 21
അ@@ 21
സ@@ 21
ာ 21
ḥ@@ 21
∞ 21
Alg@@ 20
Aug@@ 20
Beau@@ 20
Bib@@ 20
Blu@@ 20
Cou@@ 20
Hab@@ 20
Hot 20
Institu@@ 20
Johnson 20
Nob@@ 20
Simon 20
Stre@@ 20
Tang@@ 20
Top 20
Was@@ 20
West@@ 20
aco 20
aland 20
ande 20
ando 20
ations@@ 20
atu 20
azine 20
career 20
ción 20
con 20
cost@@ 20
elem@@ 20
elles 20
famili@@ 20
fran@@ 20
gin@@ 20
ient 20
ime@@ 20
kad@@ 20
lib@@ 20
liber@@ 20
mani@@ 20
mont 20
nt 20
ouv@@ 20
popul@@ 20
princi@@ 20
principal 20
rece@@ 20
ret 20
rio 20
riv@@ 20
sett@@ 20
spi@@ 20
tei 20
tir@@ 20
topl@@ 20
track 20
versit@@ 20
visi@@ 20
visit@@ 20
wah@@ 20
wak@@ 20
yas@@ 20
Ø@@ 20
Σ@@ 20
М@@ 20
Х@@ 20
с@@ 20
т 20
ы@@ 20
در@@ 20
سن@@ 20
لو@@ 20
ود 20
ہ 20
ই 20
ষ@@ 20
ਘ 20
ਸ 20
਼ 20
ા 20
ங 20
ப 20
ள@@ 20
ಟ@@ 20
ട 20
ശ@@ 20
န 20
း 20
◆ 20
北@@ 20
African 19
Anne 19
Archit@@ 19
Buc@@ 19
Clau@@ 19
Columb@@ 19
Disney 19
Distribu@@ 19
Dou@@ 19
Hen@@ 19
Indonesia 19
Kaz@@ 19
Ok@@ 19
Portu@@ 19
Profes@@ 19
Sa 19
Steph@@ 19
Tod@@ 19
Tok@@ 19
Venez@@ 19
abeth 19
agen 19
ahr@@ 19
bia 19
car 19
chu@@ 19
command@@ 19
etti 19
hid@@ 19
ias 19
idas 19
ires 19
isha 19
jug@@ 19
jum@@ 19
kap@@ 19
kav@@ 19
kel@@ 19
ken@@ 19
kir@@ 19
kt@@ 19
lav@@ 19
lu 19
mes 19
mond 19
mula 19
origin@@ 19
party 19
prise 19
reco@@ 19
sana 19
secre@@ 19
serve 19
sik@@ 19
sociation 19
soft 19
television 19
thu@@ 19
tot@@ 19
yd@@ 19
¼ 19
Å@@ 19
Ï@@ 19
Ù@@ 19
ï@@ 19
ǎ@@ 19
ɒ@@ 19
ʰ@@ 19
ʻ@@ 19
ία 19
ζ@@ 19
τ 19
ός 19
Д@@ 19
г@@ 19
и 19
الب@@ 19
الك@@ 19
بن@@ 19
بی@@ 19
شا@@ 19
لَ@@ 19
މ@@ 19
ট 19
ণ@@ 19
ধ 19
ফ 19
ત@@ 19
அ@@ 19
ཐ@@ 19
པ@@ 19
့ 19
ျ@@ 19
ṛ@@ 19
人 19
子 19
字 19
Arti@@ 18
Atlan@@ 18
Bed@@ 18
Bes@@ 18
Do 18
During 18
Eliz@@ 18
Europ@@ 18
Frank 18
Israel 18
Kais@@ 18
Marie 18
Mé@@ 18
Ou@@ 18
Rum@@ 18
Sach@@ 18
Tour@@ 18
adop@@ 18
aissance 18
alle 18
alternati@@ 18
ario 18
aro 18
bach 18
bay 18
bio 18
bom@@ 18
burg@@ 18
ck@@ 18
cole 18
community 18
construction 18
dem 18
desc@@ 18
distr@@ 18
dok@@ 18
eder@@ 18
ellschaft 18
endo 18
enh@@ 18
eni 18
esi 18
etz@@ 18
eu 18
fs 18
gal 18
gun@@ 18
histori@@ 18
idi 18
iga 18
ilk 18
inda 18
interpre@@ 18
jap@@ 18
kata 18
kit@@ 18
marri@@ 18
may@@ 18
nak@@ 18
ning@@ 18
odes 18
ois 18
oj@@ 18
ometr@@ 18
omin@@ 18
onto 18
polis 18
quali@@ 18
red@@ 18
reti@@ 18
sons 18
tempor@@ 18
tn@@ 18
toral 18
traf@@ 18
uba 18
uch 18
univers@@ 18
vit@@ 18
vo 18
vot@@ 18
án@@ 18
és 18
ía 18
ñ 18
Ā@@ 18
ɐ 18
ɐ@@ 18
ʿ@@ 18
απ@@ 18
τος 18
У@@ 18
к 18
ка 18
ный 18
о 18
ь 18
ס@@ 18
ת@@ 18
احمد 18
ال 18
الق@@ 18
ای@@ 18
بي 18
تر@@ 18
ض@@ 18
غ 18
ند@@ 18
وَ@@ 18
َ 18
গ 18
ਅ@@ 18
ਿ 18
ં@@ 18
ી@@ 18
ା 18
ள 18
చ@@ 18
ే@@ 18
ో@@ 18
ര 18
န@@ 18
ု 18
ွ@@ 18
℃ 18
← 18
山 18
， 18
Ab 17
Hav@@ 17
Jor@@ 17
Jul@@ 17
Mann@@ 17
Mass@@ 17
Scott 17
Song 17
Team 17
Tour 17
aband@@ 17
actu@@ 17
administr@@ 17
alled 17
anas 17
anistan 17
aud 17
audi@@ 17
aza 17
añ@@ 17
bas 17
boy@@ 17
chap@@ 17
cho 17
deb@@ 17
denomin@@ 17
described 17
erra 17
ester 17
eto 17
fi 17
gio 17
heim 17
ité 17
jun@@ 17
kam@@ 17
kay@@ 17
lich@@ 17
lov@@ 17
mur@@ 17
nah@@ 17
onald 17
pro 17
propos@@ 17
rant 17
resid@@ 17
rus@@ 17
sch 17
schule 17
sent@@ 17
signed 17
tent@@ 17
tham 17
tru@@ 17
verl@@ 17
went 17
xa 17
Ì@@ 17
ár@@ 17
å@@ 17
én@@ 17
ú 17
ă@@ 17
ě@@ 17
Š@@ 17
Α@@ 17
φ@@ 17
К@@ 17
б@@ 17
к@@ 17
ла 17
қ@@ 17
ө@@ 17
ר 17
بي@@ 17
حسن 17
ری 17
ستان 17
سی@@ 17
علي 17
في 17
مع@@ 17
مَ@@ 17
ین 17
ܝ@@ 17
ॼ@@ 17
ৃ@@ 17
ো 17
ਆ@@ 17
ੂ@@ 17
ક@@ 17
ો@@ 17
େ@@ 17
ண 17
ண@@ 17
ய 17
ழ 17
ద 17
య 17
ἀ@@ 17
─ 17
小@@ 17
新@@ 17
ﷺ 17
1. 16
Boston 16
Braz@@ 16
Ein@@ 16
Greg@@ 16
Haz@@ 16
Heinrich 16
Hug@@ 16
Jack 16
Kim@@ 16
Kut@@ 16
Pau@@ 16
Say@@ 16
Seg@@ 16
St 16
Wak@@ 16
Willi@@ 16
Williams 16
Wir@@ 16
Wit@@ 16
Yer@@ 16
angel@@ 16
anya 16
bed@@ 16
brach@@ 16
dan@@ 16
dedic@@ 16
diplom@@ 16
dren 16
ego 16
endi@@ 16
fen@@ 16
frag@@ 16
hie 16
hut@@ 16
ien 16
ilit@@ 16
import@@ 16
individu@@ 16
iz 16
khi 16
maj@@ 16
musical 16
nationale 16
occas@@ 16
oles 16
prepar@@ 16
pris@@ 16
professi@@ 16
retr@@ 16
rich 16
sad@@ 16
succ@@ 16
tres 16
uka 16
 16
ª@@ 16
Â@@ 16
Ö@@ 16
Ù 16
én 16
ét@@ 16
ê 16
ê@@ 16
ö 16
ú@@ 16
ül@@ 16
ʌ@@ 16
τ@@ 16
Ка@@ 16
П@@ 16
а 16
го@@ 16
евич 16
т@@ 16
ш@@ 16
دي@@ 16
سل@@ 16
مه@@ 16
میں 16
ور 16
ون 16
ون@@ 16
يم 16
پاکستان 16
کی 16
ऎ 16
ગ@@ 16
હ@@ 16
ତ@@ 16
ନ 16
ஸ 16
అ@@ 16
ీ@@ 16
ಚ@@ 16
ಜ@@ 16
ദ@@ 16
น@@ 16
ཁ@@ 16
བ 16
ུ 16
☃ 16
♭ 16
の@@ 16
南@@ 16
漢@@ 16
한@@ 16
﻿ 16
Alb@@ 15
Augus@@ 15
Band 15
Barr@@ 15
Championship 15
County 15
Daniel 15
Gru@@ 15
Guinea 15
Joe 15
Jones 15
Juni@@ 15
Kri@@ 15
Laur@@ 15
Lis@@ 15
Nacional 15
Neu@@ 15
Oli@@ 15
Rein@@ 15
Rep@@ 15
Seb@@ 15
Tom 15
Wer@@ 15
a. 15
ación 15
ahl 15
aller@@ 15
amen 15
azi 15
bau@@ 15
bis@@ 15
cens@@ 15
culp@@ 15
enberg 15
endant 15
endel@@ 15
entes 15
entre@@ 15
eron 15
ers@@ 15
explo@@ 15
fab@@ 15
fall@@ 15
française 15
gem@@ 15
gru@@ 15
hib@@ 15
iden 15
ig 15
igan 15
kri@@ 15
lake 15
minut@@ 15
nun 15
ogo 15
oso 15
plan 15
prak@@ 15
sel 15
song 15
tad@@ 15
tag 15
tant 15
tard 15
tier 15
tific@@ 15
tival 15
uel@@ 15
wani 15
wir@@ 15
¡ 15
Öster@@ 15
Ü 15
ère 15
ño 15
ý@@ 15
Đ@@ 15
Е@@ 15
Ле@@ 15
д 15
الخ@@ 15
الش@@ 15
در 15
ری@@ 15
سر@@ 15
عمر 15
مد@@ 15
مي 15
ور@@ 15
ورة 15
ين@@ 15
ک 15
ދ@@ 15
ऺ 15
হ 15
ৌ@@ 15
ਕ 15
ਨ 15
ୁ@@ 15
இ@@ 15
ஜ@@ 15
ಅ@@ 15
ೋ@@ 15
ച@@ 15
ണ@@ 15
പ 15
ൂ@@ 15
ോ@@ 15
ཆ@@ 15
⅓ 15
↔ 15
≠ 15
☑ 15
イ@@ 15
明@@ 15
民@@ 15
Academ@@ 14
Afr@@ 14
Albert 14
Alex@@ 14
Alt@@ 14
Bill@@ 14
Brown 14
Buch@@ 14
Das 14
Deutschland 14
Domin@@ 14
Form@@ 14
Frank@@ 14
Franç@@ 14
Jes@@ 14
Jug@@ 14
Kid@@ 14
Kl@@ 14
Maz@@ 14
Roy@@ 14
Schwar@@ 14
Son 14
Tou@@ 14
Zi@@ 14
abu 14
alar 14
anni@@ 14
aras@@ 14
artist@@ 14
ater@@ 14
aux 14
bish@@ 14
cab@@ 14
chester 14
eka 14
esse 14
esta 14
feder@@ 14
fun@@ 14
gul@@ 14
hata 14
hil 14
ident@@ 14
ige 14
iku@@ 14
ilo 14
ingo 14
isch 14
kes@@ 14
kid@@ 14
kun@@ 14
mam@@ 14
nea 14
nomin@@ 14
nos 14
ool 14
opsis 14
quit@@ 14
sol 14
terr@@ 14
thu 14
tos 14
tur 14
vania 14
vil@@ 14
wali@@ 14
© 14
¶ 14
Î@@ 14
Ø 14
än@@ 14
éri@@ 14
ña 14
ğ@@ 14
ɑ 14
ɡ 14
ό@@ 14
Г@@ 14
Ми@@ 14
е 14
л 14
ле@@ 14
на@@ 14
нович 14
у 14
ֵ@@ 14
ז@@ 14
آباد 14
اب 14
است@@ 14
اش@@ 14
اص@@ 14
الص@@ 14
زي@@ 14
عن 14
ما@@ 14
مسجد 14
مل@@ 14
نی@@ 14
ॻ@@ 14
ਭ@@ 14
੍ 14
અ@@ 14
ି 14
ం 14
ಣ@@ 14
ಪ 14
ಳ@@ 14
ಶ 14
റ@@ 14
လ@@ 14
ီ@@ 14
ᱟ@@ 14
ṅ@@ 14
♦ 14
三@@ 14
市 14
西@@ 14
金@@ 14
ꯤ@@ 14
￱ 14
3. 13
Bun@@ 13
Dé@@ 13
Fried@@ 13
John@@ 13
Jose@@ 13
José 13
Mart 13
Mec@@ 13
Partido 13
Santiago 13
Span@@ 13
Sult@@ 13
Tek@@ 13
Universit@@ 13
Wag@@ 13
Walter 13
Yo@@ 13
Yor@@ 13
adas 13
allen 13
alo 13
alre@@ 13
anes 13
anos 13
atia 13
ayo 13
bak@@ 13
bay@@ 13
baz@@ 13
bern@@ 13
cer 13
chen@@ 13
cht 13
conqu@@ 13
contempor@@ 13
coul@@ 13
duk@@ 13
eg 13
eil 13
epis@@ 13
erh@@ 13
firm@@ 13
für 13
games 13
gang 13
hay@@ 13
icia 13
ierra 13
ift 13
ikan@@ 13
iko 13
iles 13
imin@@ 13
isp@@ 13
jah@@ 13
kan 13
kel 13
mari@@ 13
married 13
mec@@ 13
mf@@ 13
natur@@ 13
novi@@ 13
occup@@ 13
olas 13
olo 13
onne 13
orie 13
otra 13
pio 13
ppe 13
province 13
rad@@ 13
registr@@ 13
reich@@ 13
sever@@ 13
stant@@ 13
tah@@ 13
tigen 13
tique 13
uro 13
ustr@@ 13
wana 13
wen@@ 13
wig 13
yen@@ 13
Ç@@ 13
ë 13
ì@@ 13
ò 13
þ@@ 13
ş@@ 13
ɹ@@ 13
Κ@@ 13
Σ 13
αλ@@ 13
ης 13
ι 13
е@@ 13
ж@@ 13
з 13
но 13
ра@@ 13
ро@@ 13
хо@@ 13
ׁ@@ 13
ד 13
ז 13
ע 13
ابن 13
الت@@ 13
الرحمن 13
اله@@ 13
رب@@ 13
سع@@ 13
سم 13
ظ@@ 13
مة 13
محافظة 13
مش@@ 13
نا@@ 13
ول@@ 13
وم@@ 13
ު 13
ऺ@@ 13
ঘ@@ 13
ছ@@ 13
ਬ 13
ન 13
ભ@@ 13
સ@@ 13
ુ@@ 13
ହ@@ 13
எ@@ 13
ழ@@ 13
ట@@ 13
డ 13
హ@@ 13
ೂ@@ 13
ം@@ 13
ീ@@ 13
ൃ@@ 13
ම@@ 13
ස@@ 13
ු@@ 13
ཀ@@ 13
ན@@ 13
པ 13
စ@@ 13
ည 13
ა@@ 13
ម@@ 13
‑ 13
☉ 13
一@@ 13
天@@ 13
東@@ 13
海@@ 13
김@@ 13
 13
.000 12
Carol@@ 12
Compan@@ 12
En 12
Form 12
Gel@@ 12
Grou@@ 12
Hak@@ 12
Ital@@ 12
KK 12
Kis@@ 12
Munici@@ 12
Nam 12
Philipp@@ 12
Pier@@ 12
Rou@@ 12
Sain@@ 12
Sin 12
Thi@@ 12
Town 12
Wan@@ 12
aden 12
alif@@ 12
ambi@@ 12
assist@@ 12
aten 12
atika 12
cad@@ 12
capit@@ 12
cian 12
club 12
constr@@ 12
cula 12
dad@@ 12
eles 12
emi 12
emper@@ 12
ern 12
etti@@ 12
gli@@ 12
hin 12
idad 12
ingen 12
inger@@ 12
interpret@@ 12
ley@@ 12
manif@@ 12
neo 12
oblig@@ 12
ogle 12
organisation 12
oro 12
pen 12
phi 12
pour 12
propri@@ 12
qua 12
rech@@ 12
rez 12
rie 12
senti@@ 12
spor@@ 12
tee 12
tico 12
tish 12
umi 12
vel 12
vern@@ 12
za@@ 12
zin@@ 12
áng 12
î@@ 12
ù@@ 12
ü 12
ć 12
ġ@@ 12
Ÿ@@ 12
Μ@@ 12
ή@@ 12
κ 12
ο@@ 12
ρος 12
της 12
ων 12
Т@@ 12
ан@@ 12
да@@ 12
ер@@ 12
ло@@ 12
ре@@ 12
э@@ 12
ט@@ 12
از 12
الد@@ 12
به 12
بو@@ 12
دة 12
دی@@ 12
رة 12
رض@@ 12
ري 12
عل@@ 12
كة 12
لی@@ 12
نام@@ 12
وری 12
ނ@@ 12
ও 12
ਖ@@ 12
બ@@ 12
લ@@ 12
ଦ@@ 12
ର 12
ୋ@@ 12
త 12
భ@@ 12
ಟ 12
ೊ@@ 12
ല 12
ල@@ 12
แ@@ 12
้ 12
ང@@ 12
တ 12
ე@@ 12
ស@@ 12
ῖ@@ 12
ℓ 12
∆ 12
∈ 12
ン 12
山@@ 12
式@@ 12
日 12
道 12
🙏 12
Anton@@ 11
Arth@@ 11
BK 11
Conse@@ 11
Histori@@ 11
Hoch@@ 11
Kamp@@ 11
Kay@@ 11
Kem@@ 11
Kenn@@ 11
Kim 11
Kö@@ 11
Luis 11
National@@ 11
Stadi@@ 11
Stein@@ 11
Viet@@ 11
aber 11
actual 11
adel@@ 11
afa 11
ahl@@ 11
amu 11
ango 11
aque 11
arri@@ 11
aten@@ 11
atura 11
aum 11
awa@@ 11
blan@@ 11
bour@@ 11
centre 11
church 11
consid@@ 11
eder 11
ende 11
endre 11
ener 11
enf@@ 11
esch@@ 11
esto 11
founded 11
fron@@ 11
gian 11
gut 11
iche 11
igo 11
inh 11
kom@@ 11
kus@@ 11
lik 11
lí@@ 11
milli@@ 11
olan 11
ologie 11
omo 11
ort@@ 11
qui 11
sang 11
sburg 11
sei 11
sent 11
sir@@ 11
ste 11
trou@@ 11
tul@@ 11
uki 11
wes@@ 11
worked 11
yat@@ 11
zam@@ 11
Ö 11
â 11
él@@ 11
ò@@ 11
öl@@ 11
ɔ 11
ɕ@@ 11
ɛ 11
ʰ 11
Ε@@ 11
Π@@ 11
Τ@@ 11
άρ@@ 11
αν@@ 11
μα 11
ρο@@ 11
ύ@@ 11
Са@@ 11
ба@@ 11
ва@@ 11
де@@ 11
ен@@ 11
за@@ 11
ри@@ 11
с 11
ц@@ 11
ь@@ 11
ң 11
ә@@ 11
א 11
اء 11
الإ@@ 11
الدین 11
اني 11
انی 11
دی 11
عبد@@ 11
عي@@ 11
وي@@ 11
ۃ 11
ܪ@@ 11
ॠ 11
ॱ 11
খ 11
ঞ 11
থ@@ 11
ਚ@@ 11
ਧ@@ 11
ੁ 11
ੂ 11
છ@@ 11
ણ@@ 11
પ@@ 11
ર 11
િ@@ 11
ନ@@ 11
ீ@@ 11
ట 11
మ 11
ಡ 11
ജ@@ 11
ശ 11
ഷ 11
ഷ@@ 11
ഹ@@ 11
െ@@ 11
ൻ 11
ർ 11
ක@@ 11
ත@@ 11
ය 11
ဒ@@ 11
မ 11
រ 11
ᱚ@@ 11
↵ 11
る 11
ラ@@ 11
ル@@ 11
主@@ 11
京@@ 11
国 11
家@@ 11
文@@ 11
株@@ 11
武@@ 11
自@@ 11
의 11
이 11
인@@ 11
 11
1,5 10
Alem@@ 10
Ba 10
Biz@@ 10
Colomb@@ 10
Der 10
Des 10
Fam@@ 10
Flor@@ 10
Ken@@ 10
Kre@@ 10
Lig@@ 10
Ni 10
Para 10
Pf@@ 10
Pom@@ 10
Rech@@ 10
Victoria 10
Way@@ 10
Zu@@ 10
aban 10
acha 10
acio 10
afr@@ 10
aina 10
aliy@@ 10
allas 10
amo 10
anan 10
anza 10
apon 10
aron 10
asse 10
auf@@ 10
azar@@ 10
bind@@ 10
bul 10
champ@@ 10
champi@@ 10
comb@@ 10
deter@@ 10
dur 10
eine 10
elected 10
enant 10
erc@@ 10
estig@@ 10
etts 10
fan@@ 10
film@@ 10
forman@@ 10
gel 10
gu 10
habit@@ 10
hari@@ 10
huri 10
ici 10
ina@@ 10
inin 10
ischer 10
isco 10
isto 10
iyi 10
kilom@@ 10
kut@@ 10
leb@@ 10
lil@@ 10
lon@@ 10
mano 10
mant@@ 10
matr@@ 10
moder@@ 10
nier 10
obr@@ 10
oca 10
onz@@ 10
oyn@@ 10
police 10
pos 10
prises 10
publique 10
qu 10
returned 10
san 10
served 10
té 10
ulia 10
undi 10
unga 10
uss 10
vet@@ 10
Å 10
àn 10
ín 10
ís 10
ór@@ 10
Ś@@ 10
ž@@ 10
ʀ@@ 10
ʔ@@ 10
̩ 10
ι@@ 10
τί@@ 10
Б@@ 10
Во@@ 10
ар@@ 10
до@@ 10
ев 10
ка@@ 10
ко@@ 10
мо@@ 10
ни@@ 10
х 10
ү@@ 10
ե@@ 10
آل 10
أحمد 10
أس@@ 10
اح@@ 10
اف@@ 10
الف@@ 10
الل@@ 10
بھ@@ 10
ث 10
جام@@ 10
زی 10
سید 10
شی@@ 10
ض 10
عة 10
لال 10
لل@@ 10
مولانا 10
مي@@ 10
ند 10
نو@@ 10
وال@@ 10
ول 10
ير 10
يل 10
ܐ 10
އ@@ 10
ު@@ 10
ং 10
ড@@ 10
থ 10
ਮ 10
ં 10
શ@@ 10
ஆ@@ 10
ఆ@@ 10
శ 10
ొ@@ 10
ಣ 10
ಯ 10
ഗ@@ 10
യ 10
ප@@ 10
ය@@ 10
ල 10
่ 10
က 10
ယ 10
အ@@ 10
ទ@@ 10
Ḥ@@ 10
ṅ 10
‡ 10
₂ 10
✔ 10
ル 10
上@@ 10
中国@@ 10
会@@ 10
寺 10
川 10
拳 10
日本 10
法 10
田@@ 10
社 10
菠@@ 10
蘿@@ 10
阿@@ 10
ꯥ@@ 10
국@@ 10
대@@ 10
자 10
 10
️ 10
🌹 10
👉 10
Anna 9
Ant@@ 9
Bask@@ 9
Berg@@ 9
Bình 9
Carr@@ 9
Ce 9
Cum@@ 9
Football 9
Haus@@ 9
Henri 9
Institut 9
Jack@@ 9
Leb@@ 9
Mexico 9
Minister@@ 9
Nig@@ 9
Ord@@ 9
Reich@@ 9
Sta@@ 9
Sur 9
Virginia 9
adol@@ 9
ainer 9
alim@@ 9
americ@@ 9
antes 9
arak 9
auer 9
bek@@ 9
best@@ 9
bt 9
cas 9
chev@@ 9
chn@@ 9
cil 9
cio 9
compr@@ 9
crit@@ 9
destin@@ 9
dorf 9
dér@@ 9
egen 9
elo 9
els@@ 9
emas 9
emen 9
enst 9
eros 9
favor@@ 9
fin 9
gri@@ 9
his@@ 9
idente 9
illo 9
imo 9
incorpor@@ 9
inn 9
inspir@@ 9
install@@ 9
iran 9
isine 9
isse 9
jour@@ 9
kim 9
kle@@ 9
lage 9
maf@@ 9
nac@@ 9
nes@@ 9
oci@@ 9
oka 9
onc@@ 9
opened 9
otte 9
phe 9
premi@@ 9
program@@ 9
promot@@ 9
proxim@@ 9
sta@@ 9
stil@@ 9
tario 9
tie 9
uela 9
umbo 9
unci@@ 9
util@@ 9
verg@@ 9
xu@@ 9
zen@@ 9
zial@@ 9
¹ 9
Æ@@ 9
ß 9
ál@@ 9
âteau 9
été 9
ô 9
ă 9
ı@@ 9
œ@@ 9
ǐ 9
ʁ 9
ˈ 9
͡ 9
Λ@@ 9
ί@@ 9
ας 9
λι@@ 9
ολ@@ 9
ρι@@ 9
σι@@ 9
τι@@ 9
ω@@ 9
ϕ 9
Алек@@ 9
Ба@@ 9
В@@ 9
ал@@ 9
би@@ 9
г 9
з@@ 9
и@@ 9
ная 9
но@@ 9
са@@ 9
си@@ 9
со@@ 9
Қ@@ 9
ն@@ 9
ր@@ 9
ב 9
ائ@@ 9
ات 9
اس 9
الس@@ 9
اللہ 9
اه@@ 9
بة 9
برا@@ 9
ة@@ 9
تب@@ 9
جان 9
جھ@@ 9
حسین 9
دي 9
رسول 9
زا 9
ست@@ 9
سلطان 9
شه@@ 9
صر 9
عی@@ 9
فر@@ 9
لي@@ 9
مس@@ 9
نگ 9
ّ 9
ٰ@@ 9
یر 9
ީ@@ 9
ް 9
ऒ 9
ৈ@@ 9
ਦ 9
ੇ 9
આ@@ 9
ો 9
କ 9
ଗ@@ 9
ଦ 9
ପ@@ 9
ଳ 9
ச 9
ற 9
ஷ 9
ூ@@ 9
ణ 9
ವ 9
ണ 9
റ 9
ව@@ 9
ේ@@ 9
ม 9
ม@@ 9
ວ@@ 9
ྩ@@ 9
ត 9
ន 9
ᱨ@@ 9
ḷ@@ 9
⋅ 9
ⵉ@@ 9
ジ@@ 9
ス@@ 9
七@@ 9
京 9
包 9
周@@ 9
島 9
文 9
東 9
河 9
治@@ 9
院 9
고@@ 9
민@@ 9
이@@ 9
치 9
ﺍ@@ 9
ﻟ@@ 9
𐩖 9
𝐞@@ 9
5. 8
Antonio 8
Berlin 8
Fern@@ 8
Francisco 8
Hau@@ 8
Hein@@ 8
Jersey 8
Kib@@ 8
Krieg@@ 8
Ober@@ 8
Premier 8
Prix 8
Professor 8
Se 8
Sek@@ 8
Sz@@ 8
Texas 8
Volks@@ 8
Von 8
Woh@@ 8
Yes@@ 8
ael 8
ainst 8
aki@@ 8
album 8
ambu@@ 8
anl@@ 8
apos@@ 8
arte 8
ativa 8
bara 8
bec 8
colon@@ 8
commune 8
dans 8
dav@@ 8
dies@@ 8
dik@@ 8
director 8
eaux 8
einer 8
enburg 8
ennes 8
erst@@ 8
fest@@ 8
gaz@@ 8
hasa 8
icas 8
iff 8
inclus@@ 8
isten 8
jas 8
joined 8
laya 8
lis@@ 8
lung 8
mab@@ 8
mara 8
mw@@ 8
national@@ 8
ndi@@ 8
nur 8
occu@@ 8
odo 8
politi@@ 8
profes@@ 8
reich 8
rem 8
respectiv@@ 8
riff@@ 8
rö@@ 8
schi@@ 8
solo 8
temps 8
tour 8
tung 8
udur 8
una@@ 8
undo 8
usal@@ 8
usi 8
usu 8
vat@@ 8
vili@@ 8
vy@@ 8
wam@@ 8
wap@@ 8
yen 8
zu@@ 8
ä 8
ège 8
ères 8
ío 8
đ@@ 8
š 8
ʱ 8
Α 8
Β@@ 8
Γ 8
Φ@@ 8
ή 8
ικός 8
μέ@@ 8
χ 8
Вели@@ 8
З@@ 8
Р@@ 8
Со@@ 8
Я@@ 8
во 8
край 8
ма@@ 8
публики 8
ра 8
ру@@ 8
ские 8
ха@@ 8
ъ 8
я 8
ё@@ 8
є@@ 8
ј@@ 8
ի@@ 8
յ@@ 8
ո@@ 8
ש 8
آب@@ 8
اج@@ 8
اسلامی 8
الز@@ 8
المن@@ 8
اک@@ 8
ایران 8
بر 8
بل@@ 8
بند@@ 8
به@@ 8
تم@@ 8
تی 8
جا 8
جی@@ 8
دار 8
دو@@ 8
سين 8
في@@ 8
لان 8
لم 8
مار@@ 8
ملی 8
نا 8
وم 8
وی@@ 8
ير@@ 8
ْ 8
پر@@ 8
ڠ@@ 8
ہو@@ 8
یں 8
ܘ@@ 8
ލ@@ 8
ऌ 8
ৈ 8
ৱ 8
ਜ 8
ੇ@@ 8
ੋ 8
ଙ 8
ତ 8
ଭ@@ 8
ଶ 8
ଷ 8
ୀ 8
ୁ 8
ୟ 8
ொ@@ 8
ణ@@ 8
ష 8
ీ 8
ಗ 8
ಮ 8
ಷ 8
ങ 8
ള 8
ർ@@ 8
ൽ 8
න 8
න@@ 8
ා 8
ง@@ 8
ท@@ 8
า@@ 8
ນ 8
ັ@@ 8
ཙ@@ 8
ླ@@ 8
ူ@@ 8
ლ@@ 8
ᱵ@@ 8
ḥ 8
ῆ@@ 8
₩ 8
∂ 8
⏩ 8
✍ 8
ア@@ 8
ク@@ 8
コ@@ 8
ト@@ 8
バ@@ 8
レ@@ 8
人@@ 8
会 8
光@@ 8
名@@ 8
和@@ 8
地方 8
本 8
清@@ 8
白@@ 8
皇 8
藩 8
部 8
국 8
성@@ 8
ﺎ@@ 8
： 8
4. 7
Brand@@ 7
Bundes@@ 7
Bắc 7
Chicago 7
Como 7
Franz 7
Grande 7
Gö@@ 7
Historia 7
Kik@@ 7
Los 7
Milli@@ 7
Phi 7
República 7
Riv@@ 7
Sport@@ 7
Sơn 7
Tenn@@ 7
Universität 7
Yar@@ 7
Zeit@@ 7
acht 7
ados 7
agne 7
aille 7
alc@@ 7
alla 7
alle@@ 7
apo 7
ateur 7
aume 7
aup@@ 7
aç@@ 7
bao 7
bir 7
bou@@ 7
bres 7
chia 7
clas@@ 7
cu 7
ded@@ 7
det 7
disput@@ 7
eki 7
elt@@ 7
enda 7
entre 7
eon@@ 7
eren 7
erre 7
eurs 7
faire 7
fot@@ 7
français 7
grup@@ 7
haf@@ 7
hay 7
ilg@@ 7
iller@@ 7
illes 7
immer 7
intro@@ 7
issen@@ 7
itali@@ 7
itt 7
jia 7
kana 7
kis@@ 7
kiye 7
lau@@ 7
municip@@ 7
municipal@@ 7
nant 7
ney@@ 7
novel@@ 7
ongo@@ 7
orio 7
pas 7
poin@@ 7
pop 7
raine 7
realiz@@ 7
rement 7
sie 7
tas 7
tay@@ 7
tien 7
til 7
tions@@ 7
toria 7
transfer@@ 7
uerto 7
umba 7
ungs@@ 7
uo 7
uso 7
utiliz@@ 7
utz 7
utz@@ 7
vor 7
xe 7
yay@@ 7
zar@@ 7
zig 7
zur 7
 7
À@@ 7
Ó 7
Õ@@ 7
ân 7
ät@@ 7
ène 7
ées 7
ém@@ 7
ög@@ 7
ý 7
Ō@@ 7
ǔ 7
ɨ@@ 7
ʒ 7
ʔ 7
˜ 7
̀ 7
Ν@@ 7
Φ 7
άν@@ 7
έν@@ 7
ίδ@@ 7
αί@@ 7
εία 7
ει@@ 7
ικ@@ 7
ιν@@ 7
ού@@ 7
ρκ@@ 7
σμός 7
υ@@ 7
Вы@@ 7
За@@ 7
Нико@@ 7
Николай 7
Су@@ 7
Ц@@ 7
Ш@@ 7
ав@@ 7
ан 7
бе@@ 7
ги@@ 7
ков 7
мы@@ 7
не@@ 7
ний 7
ниче@@ 7
рий 7
сте@@ 7
ы 7
і 7
ғ@@ 7
ו 7
آئ@@ 7
أه@@ 7
ئ 7
ئ@@ 7
اری 7
اسلا@@ 7
اع@@ 7
الدين 7
المدينة 7
او@@ 7
اور 7
باب@@ 7
بت 7
بني 7
تی@@ 7
جو@@ 7
دا@@ 7
دار@@ 7
را 7
راء 7
سة 7
سما@@ 7
سو@@ 7
ضلع 7
عر@@ 7
عليه 7
عم@@ 7
فة 7
قر@@ 7
قص@@ 7
قط@@ 7
قل@@ 7
كر@@ 7
لا 7
لی 7
مج@@ 7
مد 7
مق@@ 7
مُ@@ 7
نور 7
ني 7
نگ@@ 7
وة 7
وف@@ 7
وق@@ 7
ولا 7
وی 7
يا 7
ٹ 7
ٹی 7
ڌ@@ 7
کر@@ 7
کو@@ 7
کی@@ 7
یہ 7
ܐ@@ 7
ް@@ 7
ॄ 7
ঠ@@ 7
ৱ@@ 7
ਟ@@ 7
ਡ@@ 7
ੈ 7
ત 7
ૂ@@ 7
ଉ@@ 7
ଚ@@ 7
ଣ 7
ଳ@@ 7
ୀ@@ 7
େ 7
ప 7
ై@@ 7
ಉ@@ 7
ಧ@@ 7
ಷ@@ 7
ಸ 7
ಾ 7
ദ 7
ധ@@ 7
സ 7
ද@@ 7
බ@@ 7
හ@@ 7
ී 7
ง 7
พระ@@ 7
ว@@ 7
์ 7
ງ 7
ཁ 7
ཕ@@ 7
ཞ@@ 7
ཡ@@ 7
ྗ@@ 7
ྷ@@ 7
ဘ@@ 7
ဝ@@ 7
ံ@@ 7
ი 7
ប@@ 7
ម 7
វ@@ 7
័ 7
ảng 7
Ἰ@@ 7
ὐ@@ 7
‰ 7
∇ 7
⊕ 7
☆ 7
い@@ 7
う 7
か@@ 7
ん 7
エ@@ 7
グ@@ 7
デ@@ 7
メ@@ 7
世@@ 7
中 7
五@@ 7
公司 7
内@@ 7
区 7
大 7
女 7
安@@ 7
帝@@ 7
方@@ 7
明 7
松@@ 7
特@@ 7
百@@ 7
石@@ 7
空@@ 7
豆@@ 7
軍 7
銀@@ 7
陀@@ 7
ꠣ@@ 7
ꯁ@@ 7
ꯂ@@ 7
강@@ 7
동@@ 7
리@@ 7
부@@ 7
성 7
에 7
전 7
정@@ 7
조@@ 7
주@@ 7
6. 6
Akadem@@ 6
Amér@@ 6
Chic@@ 6
Distr@@ 6
Dok@@ 6
España 6
Europa 6
Fak@@ 6
Film@@ 6
Gran 6
Inn@@ 6
Isra@@ 6
Kant@@ 6
Lý 6
Mek@@ 6
Mex@@ 6
Mp@@ 6
Mw@@ 6
Pub@@ 6
Soh@@ 6
Una 6
Virgin@@ 6
Vor@@ 6
adil@@ 6
adém@@ 6
agua 6
aires 6
ansas 6
antas@@ 6
atur 6
ayr@@ 6
bang 6
cant@@ 6
chung 6
dez 6
ede 6
eil@@ 6
emu 6
enas 6
endi 6
ensa 6
enz 6
eras 6
erie 6
erk@@ 6
este 6
etc. 6
eux 6
eza 6
feld 6
football 6
fu 6
gil@@ 6
graf@@ 6
hali 6
heit 6
hen 6
icht 6
imi@@ 6
inde 6
inner@@ 6
inos 6
ischen 6
isches 6
isen 6
iste 6
istes 6
izi@@ 6
jud@@ 6
kas@@ 6
kop@@ 6
kö@@ 6
lek@@ 6
mann@@ 6
mili@@ 6
mim@@ 6
muda 6
muj@@ 6
má@@ 6
nig 6
nou@@ 6
nung 6
né 6
oir 6
oire 6
omen 6
perman@@ 6
pes@@ 6
pis@@ 6
premier 6
provin@@ 6
publi@@ 6
raz@@ 6
rol 6
route 6
schaften 6
sera 6
simil@@ 6
sinh 6
tainment 6
tek@@ 6
tik 6
tir 6
trat@@ 6
uda 6
uz 6
vu 6
wake 6
yer@@ 6
yol@@ 6
Â 6
àng 6
ás 6
ça 6
ég@@ 6
ên 6
ï 6
ör 6
üh@@ 6
ün@@ 6
Č@@ 6
ę@@ 6
ı 6
ř 6
ǒ@@ 6
ɲ@@ 6
ʋ@@ 6
ʲ 6
̯ 6
Γ@@ 6
Ι@@ 6
ά 6
έρ@@ 6
αι@@ 6
ακ@@ 6
εια 6
λε@@ 6
ου@@ 6
ς@@ 6
σα 6
στ@@ 6
ψ 6
Александ@@ 6
Ар@@ 6
Бе@@ 6
Васи@@ 6
Гу@@ 6
Л@@ 6
Ма@@ 6
На@@ 6
Ре@@ 6
Ро@@ 6
То@@ 6
ви@@ 6
го 6
гра@@ 6
ди 6
кий 6
ко 6
ли 6
лы@@ 6
ля 6
море 6
ник 6
нов 6
ор@@ 6
пе@@ 6
пи@@ 6
по@@ 6
рес@@ 6
ро 6
са 6
ское 6
сто@@ 6
сь@@ 6
та@@ 6
ф 6
ци@@ 6
ция 6
ч@@ 6
э 6
я@@ 6
ї@@ 6
اخت@@ 6
اسم 6
الإسلا@@ 6
الجام@@ 6
الو@@ 6
اي@@ 6
اں 6
باب 6
بير 6
ته@@ 6
جب@@ 6
جر@@ 6
حر@@ 6
حی@@ 6
خار@@ 6
خر@@ 6
خو@@ 6
دان 6
دھ@@ 6
دہ 6
رم 6
سن 6
شر@@ 6
شو@@ 6
شي@@ 6
عب@@ 6
عباس 6
عت 6
على 6
قو@@ 6
كري@@ 6
مؤ@@ 6
ما 6
ماء 6
مبار@@ 6
مر 6
مص@@ 6
می 6
نج@@ 6
نص@@ 6
نماز 6
نی 6
وسلم 6
يُ@@ 6
چو@@ 6
کے 6
گی 6
ھ 6
ھ@@ 6
ہے 6
یل 6
ܟ@@ 6
ރ@@ 6
ި@@ 6
ঝ@@ 6
৳ 6
ਂ 6
ਇ 6
ਪ 6
દ 6
મ 6
ળ@@ 6
સ 6
ଓ 6
ଧ@@ 6
ଶ@@ 6
ୃ@@ 6
ୟ@@ 6
గ 6
శ@@ 6
స 6
ಆ@@ 6
ೀ 6
ೃ@@ 6
ജ 6
ബ@@ 6
ു 6
ග@@ 6
ජ@@ 6
ර 6
ශ 6
ค@@ 6
ด@@ 6
ต 6
ย@@ 6
อ@@ 6
ุ@@ 6
ຈ@@ 6
ທ@@ 6
ເ@@ 6
ཚ@@ 6
འ 6
ཤ@@ 6
ྡ@@ 6
ྤ@@ 6
ვ@@ 6
ი@@ 6
ს@@ 6
ል 6
ል@@ 6
ክ@@ 6
ក@@ 6
ង 6
អ@@ 6
ᱢ@@ 6
ᱦ@@ 6
Ṣ@@ 6
ἄ@@ 6
ἰ@@ 6
ῥ@@ 6
‬ 6
℅ 6
○ 6
ⴰ 6
ⵎ@@ 6
ⵣ@@ 6
、 6
た@@ 6
と@@ 6
ん@@ 6
カ@@ 6
ス 6
ッ@@ 6
ナ@@ 6
ブ@@ 6
マ@@ 6
ロ@@ 6
・ 6
ー 6
中国 6
事@@ 6
仁 6
區 6
印@@ 6
学@@ 6
孫@@ 6
富@@ 6
島@@ 6
平@@ 6
手 6
摩@@ 6
星 6
有@@ 6
木 6
林 6
根@@ 6
江@@ 6
沖 6
派 6
湖 6
神@@ 6
經 6
美 6
華@@ 6
道@@ 6
陈@@ 6
高@@ 6
鳥@@ 6
黄@@ 6
龙 6
꫰ 6
개 6
기@@ 6
노@@ 6
반@@ 6
비@@ 6
사@@ 6
선 6
오@@ 6
전@@ 6
화@@ 6
ﺮ@@ 6
ﻣ@@ 6
） 6
🇮 6
🇳 6
🔺 6
Album 5
Alman@@ 5
Barcelona 5
Ben 5
Bir 5
Bras@@ 5
Bu 5
Carlos 5
Chile 5
Deutschen 5
Ent@@ 5
Florida 5
Geometr@@ 5
Guerra 5
Hamb@@ 5
Herr@@ 5
Hồng 5
König@@ 5
Meter 5
Migu@@ 5
Nach@@ 5
Nguyễn 5
Nis@@ 5
Parti 5
Politi@@ 5
Schi@@ 5
Trần 5
Un 5
Wah@@ 5
Wes@@ 5
acces@@ 5
achen 5
adhi 5
adores 5
aines 5
ako 5
ansa 5
arse 5
asser 5
atos 5
atz 5
auc@@ 5
ayar@@ 5
azu 5
azz 5
aña 5
bau 5
besch@@ 5
bourg 5
candid@@ 5
chini 5
chs 5
cion@@ 5
cultur@@ 5
daha 5
debut 5
dose 5
droit 5
echo 5
eden@@ 5
eleg@@ 5
eler 5
enst@@ 5
erin 5
eshi 5
ewa 5
furt 5
fé@@ 5
führ@@ 5
git@@ 5
hii 5
icos 5
ien@@ 5
ikia 5
imani 5
inas 5
isme 5
ismus 5
isons 5
its@@ 5
iye 5
izo 5
kamp@@ 5
khai 5
kush@@ 5
lich 5
liche 5
lichen 5
lie@@ 5
lieb 5
lé@@ 5
mang 5
mita 5
namo 5
nh 5
ockey 5
ograf@@ 5
ológ@@ 5
onde 5
ortho@@ 5
pens@@ 5
pia 5
plu@@ 5
rek@@ 5
riff 5
rom 5
schen 5
schrift 5
sek 5
sev@@ 5
sey@@ 5
stad@@ 5
stadt 5
suite 5
teh@@ 5
tere 5
tish@@ 5
tiy@@ 5
tras 5
tí@@ 5
yao 5
yote 5
zer@@ 5
zon 5
zon@@ 5
zw@@ 5
¯ 5
Î 5
å 5
ès 5
ín@@ 5
ôn 5
ông 5
ön@@ 5
ø 5
û@@ 5
ć@@ 5
Đồng 5
đồng 5
ė 5
ş 5
ǐ@@ 5
ɣ@@ 5
ɦ@@ 5
ɴ 5
ɾ 5
̥ 5
̪ 5
Δημοκρατ@@ 5
Θ 5
Ο@@ 5
άς 5
άσ@@ 5
έ@@ 5
αγ@@ 5
αρ@@ 5
ασ@@ 5
βά@@ 5
ει 5
ελ@@ 5
εύ@@ 5
η@@ 5
θος 5
μβ@@ 5
νη 5
ου 5
ρα@@ 5
σκ@@ 5
όν@@ 5
Ал@@ 5
В 5
Гри@@ 5
Да@@ 5
Ива@@ 5
Ко@@ 5
Ку@@ 5
Пет@@ 5
Рес@@ 5
Росси@@ 5
Си@@ 5
Ф@@ 5
Ч@@ 5
бо@@ 5
вод@@ 5
га@@ 5
ге 5
гор@@ 5
град 5
да 5
ем@@ 5
же@@ 5
кая 5
ки@@ 5
кин 5
ли@@ 5
ме@@ 5
мир 5
нин@@ 5
ну@@ 5
он@@ 5
п 5
па@@ 5
ран@@ 5
си 5
ск 5
ск@@ 5
со 5
сть 5
сы@@ 5
та 5
ти@@ 5
ха 5
щи@@ 5
ю 5
ян 5
Ӏ 5
մ@@ 5
ն 5
տ@@ 5
ابو 5
ات@@ 5
ارة 5
ارت 5
اردو 5
از@@ 5
اض 5
افغانستان 5
اق 5
السع@@ 5
الي@@ 5
بخ@@ 5
بہ@@ 5
تا@@ 5
جة 5
خال@@ 5
خان@@ 5
خت@@ 5
خوا@@ 5
داد 5
درا@@ 5
ده 5
رام 5
رف@@ 5
رية 5
زر@@ 5
زی@@ 5
سب@@ 5
سية 5
شت 5
شري@@ 5
صاحب 5
عائ@@ 5
عث@@ 5
عمر@@ 5
فا@@ 5
فت 5
فق@@ 5
فی@@ 5
قال 5
كت@@ 5
له 5
مال 5
مال@@ 5
مدر@@ 5
مذ@@ 5
مز@@ 5
ملک 5
مه 5
مية 5
میر 5
ندر 5
نق@@ 5
ني@@ 5
وادي 5
وار 5
وان 5
وب@@ 5
يخ 5
ٍ 5
ٔ 5
پرو@@ 5
پی@@ 5
ڌ 5
ژ@@ 5
کا 5
کر 5
کن@@ 5
کھ@@ 5
ڪ@@ 5
گاہ 5
ھی 5
ހ@@ 5
ޙ@@ 5
ॼ 5
উ 5
ঙ@@ 5
ਂ@@ 5
ਇ@@ 5
ਉ@@ 5
ਖ 5
ਗ 5
ਣ@@ 5
ੈ@@ 5
ੌ@@ 5
ક 5
થ@@ 5
શ 5
૦@@ 5
૧@@ 5
ଁ 5
ଗ 5
ଜ@@ 5
ଡ 5
ଣ@@ 5
ଵ@@ 5
ସ 5
଼ 5
ே 5
ధ 5
బ 5
౹ 5
ಎ@@ 5
ಬ 5
ಳ 5
ೈ@@ 5
ೌ@@ 5
വ 5
ൾ 5
අ@@ 5
ක 5
ත 5
ข@@ 5
จ@@ 5
ร 5
ร@@ 5
สา@@ 5
ห 5
อย@@ 5
อุ@@ 5
็ 5
ນ@@ 5
ຫ@@ 5
ອ@@ 5
ཇ@@ 5
ཏ@@ 5
ྐ@@ 5
ྣ@@ 5
စ 5
ထ@@ 5
ှ@@ 5
თ@@ 5
ნ@@ 5
რ@@ 5
ግ@@ 5
ក 5
ខ 5
ជ 5
ទ 5
ន@@ 5
ស 5
ី@@ 5
ុ@@ 5
ែ@@ 5
ắ@@ 5
ằng 5
Ἀ@@ 5
ᾶ@@ 5
ῦ@@ 5
⁻ 5
™ 5
⊂ 5
ⵀ@@ 5
ⵍ@@ 5
。 5
す@@ 5
ま@@ 5
り 5
イ 5
キ@@ 5
ゴ@@ 5
シ@@ 5
セ@@ 5
タ@@ 5
チ@@ 5
テ@@ 5
ト 5
ド@@ 5
ビ@@ 5
モ@@ 5
不@@ 5
东@@ 5
人民@@ 5
信@@ 5
元 5
八@@ 5
公@@ 5
切@@ 5
化@@ 5
华@@ 5
原 5
县 5
合@@ 5
四@@ 5
國 5
園 5
外@@ 5
太@@ 5
安 5
定@@ 5
少@@ 5
巴@@ 5
帝 5
德 5
性@@ 5
朝 5
朱@@ 5
村 5
森 5
步@@ 5
武 5
水@@ 5
江 5
法@@ 5
海 5
王 5
班 5
理 5
理@@ 5
田 5
笛 5
羅@@ 5
義@@ 5
育@@ 5
記 5
語 5
谷@@ 5
貴@@ 5
農@@ 5
迦@@ 5
通@@ 5
重@@ 5
雪@@ 5
馬@@ 5
马@@ 5
ꯅ@@ 5
기 5
무@@ 5
박@@ 5
백@@ 5
복 5
삼@@ 5
애@@ 5
어 5
원@@ 5
의@@ 5
젓 5
지@@ 5
한 5
화 5
회@@ 5
 5
𝐚@@ 5
𝐭@@ 5
Akad@@ 4
Arbeit@@ 4
Azer@@ 4
Ban 4
Califor@@ 4
Eisen@@ 4
Flug@@ 4
Geb@@ 4
Grenz@@ 4
Grün@@ 4
Guin@@ 4
Hà 4
Hö@@ 4
Illinois 4
Indon@@ 4
Italia 4
Jackson 4
Klo@@ 4
Kup@@ 4
Luf@@ 4
Madrid 4
Manuel 4
México 4
Mỹ 4
Nguyên 4
Nieder@@ 4
Ost@@ 4
Oy@@ 4
Premi@@ 4
Schl@@ 4
Schul@@ 4
Schw@@ 4
Spi@@ 4
Stadt@@ 4
Stra@@ 4
Tari@@ 4
Thái 4
Trung 4
Tây 4
Türk@@ 4
Unter@@ 4
Uz@@ 4
Wilhel@@ 4
Zw@@ 4
aben 4
adan 4
aill@@ 4
aje 4
alien 4
anah@@ 4
anh 4
anno@@ 4
announc@@ 4
atif 4
avant 4
azo 4
bre 4
carr@@ 4
coup 4
dad 4
deci@@ 4
dest@@ 4
deutsch@@ 4
dipl@@ 4
dos 4
dows 4
ebe 4
ense@@ 4
enton@@ 4
eran 4
evi@@ 4
faz@@ 4
forma 4
för@@ 4
grand 4
génér@@ 4
habitants 4
haus 4
hệ 4
iler@@ 4
imba 4
imi 4
inay@@ 4
inci 4
innen 4
istas 4
iwa 4
izi 4
japon@@ 4
jed@@ 4
jer@@ 4
jou@@ 4
kim@@ 4
kt 4
leo 4
liga 4
lug@@ 4
mak 4
march@@ 4
mau@@ 4
mayor 4
merc@@ 4
mik@@ 4
milit@@ 4
mt 4
mé@@ 4
nach@@ 4
nacional 4
nay 4
neces@@ 4
neh@@ 4
neur 4
nin 4
oko 4
onio 4
opo 4
personn@@ 4
pf@@ 4
puesto 4
quel@@ 4
releas@@ 4
respons@@ 4
restaur@@ 4
roy@@ 4
rá@@ 4
sahi@@ 4
sans 4
schafts@@ 4
tek 4
telev@@ 4
teur 4
thé@@ 4
tim 4
tivo 4
toire 4
tros 4
tura 4
tín 4
umu 4
unia 4
vier 4
voy@@ 4
wach@@ 4
west@@ 4
wur@@ 4
yaz@@ 4
 4
¬ 4
µ 4
À 4
È 4
È@@ 4
Ì 4
Í@@ 4
ác@@ 4
éro@@ 4
év@@ 4
êu 4
ös@@ 4
ún 4
üm@@ 4
ğ 4
İ@@ 4
ł 4
ń@@ 4
Ş@@ 4
Ż@@ 4
ǎ 4
ǔ@@ 4
Ǻ 4
ɜ@@ 4
ɫ@@ 4
ɯ@@ 4
ɵ@@ 4
ʃ 4
ʏ@@ 4
ʾ@@ 4
ʿ 4
̰ 4
Θ@@ 4
Κόμ@@ 4
Λ 4
Περ@@ 4
Τσ@@ 4
Ω@@ 4
ά@@ 4
ίσ@@ 4
αν 4
δο@@ 4
ική 4
ιος 4
κα@@ 4
κύ@@ 4
λί@@ 4
λα@@ 4
μα@@ 4
να@@ 4
ξ@@ 4
ο 4
πα@@ 4
πος 4
ρα 4
ρό@@ 4
σύ@@ 4
τα@@ 4
τικός 4
υ 4
υμ@@ 4
χος 4
όν 4
ών 4
Влади@@ 4
Г 4
Га@@ 4
Ке@@ 4
Мар@@ 4
Международ@@ 4
Н 4
Пе@@ 4
Пре@@ 4
С 4
Север@@ 4
Ха@@ 4
Э@@ 4
ве 4
вина 4
во@@ 4
гово@@ 4
дия 4
др 4
ды 4
зи@@ 4
йн 4
ку@@ 4
лу@@ 4
ма 4
ми@@ 4
мо 4
мов 4
ного 4
пол@@ 4
ри 4
ски 4
сп@@ 4
ст@@ 4
стан 4
сы 4
ти 4
ты 4
че@@ 4
ше@@ 4
эн@@ 4
ёт@@ 4
հ@@ 4
ր 4
ק 4
آغ@@ 4
إلا 4
إن 4
اط@@ 4
اق@@ 4
البر@@ 4
الث 4
الري@@ 4
الط@@ 4
العربية 4
الغ@@ 4
المملكة 4
امیر 4
انج@@ 4
اُ@@ 4
اہ@@ 4
بار 4
بال 4
بال@@ 4
بان@@ 4
بد@@ 4
بش@@ 4
تر 4
تص@@ 4
تف@@ 4
تق@@ 4
تي@@ 4
جا@@ 4
جز@@ 4
جي 4
حال@@ 4
حد@@ 4
حضرت 4
دس 4
دع@@ 4
دم 4
دو 4
دير 4
دُ@@ 4
رئ@@ 4
راج 4
رب 4
رح@@ 4
رل 4
رون 4
رير 4
ریلو@@ 4
زہ 4
سان 4
سج@@ 4
سي 4
شاہ 4
شریف 4
شن 4
شہ 4
ص 4
طل@@ 4
عد@@ 4
عن@@ 4
فري@@ 4
فو@@ 4
قات 4
قی@@ 4
كر 4
لائ@@ 4
لیم 4
مان@@ 4
مت 4
مدينة 4
مسلم 4
مل 4
مہ@@ 4
نة 4
نش@@ 4
نواب 4
نور@@ 4
نے 4
ودية 4
وري 4
وس@@ 4
وف 4
وي 4
وں 4
يم@@ 4
يوم 4
ٌ 4
پن@@ 4
پوری 4
چ 4
ڑ 4
ژ 4
کا@@ 4
کو 4
ڬ@@ 4
گ 4
گر@@ 4
گن@@ 4
گو@@ 4
گھ@@ 4
ں 4
ہر 4
یا 4
ܡ@@ 4
ބ@@ 4
ާ@@ 4
ऌ@@ 4
ॢ@@ 4
ॱ@@ 4
ॽ 4
ॿ 4
চ 4
ਣ 4
ਹ 4
ੜ 4
ટ@@ 4
ડ@@ 4
ય@@ 4
લ 4
િ 4
ૃ@@ 4
૨@@ 4
ଂ@@ 4
ଏ@@ 4
ପ 4
ମ 4
ଯ@@ 4
உ@@ 4
வ 4
ீ 4
ఉ@@ 4
ఎ@@ 4
ధ@@ 4
ళ@@ 4
వ 4
ై 4
ో 4
ಂ 4
ಥ 4
ഉ@@ 4
ച 4
ഛ@@ 4
ഞ@@ 4
ബ 4
ഭ@@ 4
ാ 4
ൊ@@ 4
ං@@ 4
ධ@@ 4
ු 4
ො@@ 4
ก 4
ก@@ 4
กร@@ 4
ติ@@ 4
น 4
พ@@ 4
ยา 4
ยา@@ 4
รา@@ 4
ล@@ 4
วั@@ 4
ส@@ 4
ห@@ 4
เข@@ 4
เอ 4
ไ@@ 4
ຂ@@ 4
ດ 4
ດ@@ 4
ພ@@ 4
າ@@ 4
ྦ@@ 4
ྷ 4
ပ 4
ဖ@@ 4
ဟ@@ 4
ါ@@ 4
ខ@@ 4
គ@@ 4
ភ@@ 4
យ 4
យ@@ 4
ᱟ 4
ᱤ@@ 4
ḍ 4
ṇ 4
ẕ 4
ịnh 4
ủ 4
ἐ@@ 4
ἴ@@ 4
ὶ 4
ῶ@@ 4
‒ 4
‹ 4
※ 4
⁠ 4
⁰ 4
₣ 4
₨ 4
♯ 4
ⵖ@@ 4
ⵜ@@ 4
ⵢ@@ 4
が@@ 4
け@@ 4
た 4
ち@@ 4
ど@@ 4
み 4
み@@ 4
ク 4
コ 4
サ@@ 4
ョ@@ 4
リ@@ 4
之@@ 4
九@@ 4
二@@ 4
体@@ 4
佛@@ 4
倭 4
克@@ 4
党 4
共和国 4
兵 4
分 4
前@@ 4
功@@ 4
勾@@ 4
千@@ 4
卐 4
原@@ 4
取@@ 4
同@@ 4
唐@@ 4
夕 4
大學 4
天 4
央@@ 4
子@@ 4
宗@@ 4
家 4
将@@ 4
岳 4
川@@ 4
州 4
州@@ 4
平 4
年 4
年@@ 4
度@@ 4
徳@@ 4
成@@ 4
文化 4
族 4
族@@ 4
月 4
月@@ 4
木@@ 4
术@@ 4
林@@ 4
正@@ 4
民 4
無@@ 4
猜@@ 4
的@@ 4
盆 4
秋@@ 4
立@@ 4
精@@ 4
総@@ 4
维@@ 4
罗@@ 4
羽@@ 4
者 4
股@@ 4
色@@ 4
花@@ 4
藏@@ 4
行 4
角 4
角@@ 4
読@@ 4
議@@ 4
路@@ 4
近@@ 4
郎 4
郭@@ 4
鎮@@ 4
青@@ 4
館 4
馆 4
騰 4
鴻@@ 4
龍 4
龙@@ 4
ꠘ@@ 4
ꯃ@@ 4
ꯇ@@ 4
ꯍ@@ 4
ꯦ@@ 4
관 4
나@@ 4
남@@ 4
도 4
도@@ 4
리 4
배@@ 4
사 4
삼 4
상@@ 4
선@@ 4
스@@ 4
시@@ 4
신@@ 4
아@@ 4
우@@ 4
일@@ 4
정 4
찌@@ 4
 4
ﺳ@@ 4
（ 4
𑐵@@ 4
𝐟@@ 4
Angeles 3
Apr@@ 3
Auf@@ 3
Bev@@ 3
Bü@@ 3
Con 3
Cumhuriy@@ 3
Dies@@ 3
Dương 3
Eis@@ 3
Entw@@ 3
Feb@@ 3
Geschichte 3
Grund@@ 3
Gü@@ 3
Heim@@ 3
Histoire 3
Hòa 3
Hồ 3
Kenya 3
Kig@@ 3
Musik@@ 3
Nha 3
Nord 3
Nord@@ 3
Nueva 3
Ohio 3
Ort@@ 3
Osman@@ 3
Par 3
Paulo 3
Sü@@ 3
Türkiye 3
Việt 3
Wash@@ 3
Wirt@@ 3
adora 3
afir@@ 3
afu 3
akini 3
alen 3
alik@@ 3
ambo 3
angu 3
arias 3
arriv@@ 3
atro 3
atta@@ 3
auti 3
awala 3
bei 3
bey@@ 3
biy@@ 3
brit@@ 3
cambi@@ 3
cargo 3
cette 3
chef 3
commen@@ 3
cours 3
cuer@@ 3
cá@@ 3
dej@@ 3
deutschen 3
donn@@ 3
drei 3
dü 3
eben 3
edad 3
egem@@ 3
eler@@ 3
ellen 3
encia 3
enga 3
entos 3
esha 3
español 3
essen 3
estruc@@ 3
eure 3
ezo 3
febr@@ 3
fik@@ 3
geg@@ 3
gegen 3
geh@@ 3
grab@@ 3
grande 3
gö@@ 3
hadi 3
hem 3
hud@@ 3
icha 3
icht@@ 3
ihe 3
iken 3
iker 3
ilik 3
ilio 3
inaug@@ 3
incor@@ 3
indi 3
ingi 3
irk 3
issen 3
itung 3
jaw@@ 3
jeun@@ 3
junto 3
kari@@ 3
karne 3
kati@@ 3
kaz@@ 3
kia 3
kip@@ 3
lara 3
leh@@ 3
mash@@ 3
maya 3
maz@@ 3
mez@@ 3
mina 3
mise 3
msh@@ 3
nen 3
ographie 3
ono 3
ouver@@ 3
pata 3
pays 3
pek@@ 3
pendant 3
perten@@ 3
pour@@ 3
proces@@ 3
pré@@ 3
punkt 3
région 3
rí@@ 3
schw@@ 3
seh@@ 3
sek@@ 3
seur 3
siy@@ 3
soit 3
sous 3
sti 3
studio 3
tener 3
teurs 3
tige 3
unca 3
ungu 3
unu 3
uten 3
vement 3
vida 3
waf@@ 3
xico 3
yana@@ 3
yü@@ 3
yük@@ 3
Æ 3
Ç 3
Ñ@@ 3
ß@@ 3
ße 3
ào 3
ánh 3
áp 3
ème 3
ète 3
éc@@ 3
économ@@ 3
ête 3
ías 3
òng 3
ól@@ 3
ón@@ 3
óng 3
õ 3
õ@@ 3
öh@@ 3
úc 3
ük 3
ül 3
ün 3
ür 3
ütz@@ 3
þ 3
ÿ@@ 3
č 3
Đông 3
ė@@ 3
ĩnh 3
ń 3
ő@@ 3
ś 3
ɒ 3
ɕ 3
ɖ@@ 3
ɳ@@ 3
ɸ 3
ʑ@@ 3
ʕ@@ 3
ʼ@@ 3
ʾ 3
ˀ@@ 3
ˠ@@ 3
˧ 3
̄ 3
̞ 3
͟ 3
Β 3
Ευ@@ 3
Ζ@@ 3
Η@@ 3
Θε@@ 3
Κωνστ@@ 3
Με@@ 3
Υ 3
Χ@@ 3
Ψ 3
άκ@@ 3
άπ@@ 3
ές 3
ής 3
ίζ@@ 3
ίν@@ 3
αγγ@@ 3
αντιν@@ 3
αστ@@ 3
ατ@@ 3
δελφ@@ 3
εδ@@ 3
ερ@@ 3
ην@@ 3
ις 3
ισμός 3
κα 3
κρά@@ 3
κρατ@@ 3
λέ@@ 3
λόγ@@ 3
μά@@ 3
μον@@ 3
ναι 3
ξ 3
ξι@@ 3
οπ@@ 3
πατ@@ 3
πολι@@ 3
πρ@@ 3
ργ@@ 3
ρη@@ 3
σμα 3
σσ@@ 3
το@@ 3
τρα 3
υσ@@ 3
φιλ@@ 3
φυσ@@ 3
ό 3
όβ@@ 3
ώ@@ 3
Ан@@ 3
Бу@@ 3
Ви@@ 3
Вла@@ 3
Го@@ 3
Д 3
До@@ 3
Ж@@ 3
Ин@@ 3
Кар@@ 3
Ки@@ 3
Ла@@ 3
М 3
Мон@@ 3
Но@@ 3
По@@ 3
При@@ 3
Рос@@ 3
Сер@@ 3
Те@@ 3
Че@@ 3
ак@@ 3
бал@@ 3
бли@@ 3
ве@@ 3
вый 3
ге@@ 3
государствен@@ 3
ден 3
ди@@ 3
ду@@ 3
ет@@ 3
ж 3
зы@@ 3
им@@ 3
ин@@ 3
йский 3
кате@@ 3
ки 3
кло@@ 3
края 3
ле 3
лен@@ 3
лий 3
ло 3
лу 3
ль 3
ман 3
мир@@ 3
мит@@ 3
мия 3
мпи@@ 3
ния 3
ност 3
он 3
ос@@ 3
п@@ 3
по 3
полу@@ 3
публика 3
пут@@ 3
ре 3
рина 3
се@@ 3
ска 3
ской 3
стан@@ 3
ственно 3
сто 3
стра@@ 3
сь 3
то 3
ты@@ 3
ур@@ 3
ф@@ 3
фа@@ 3
ца 3
ч 3
чи@@ 3
чу@@ 3
ш 3
є 3
ѣ 3
қ 3
ҷ@@ 3
Ө@@ 3
Մ@@ 3
կ@@ 3
ց@@ 3
ּ 3
ח 3
ף 3
ץ 3
ء 3
أ 3
أم@@ 3
أي@@ 3
ؤ@@ 3
إل@@ 3
إي@@ 3
ئر 3
ئی 3
اء@@ 3
ائے 3
ابل 3
ابی 3
ادة 3
ادر 3
ادی 3
ارہ 3
اسلام 3
افت 3
الأح@@ 3
الاح@@ 3
الان@@ 3
البح@@ 3
التح@@ 3
التر@@ 3
الح 3
الرا@@ 3
السلام 3
الض@@ 3
القدم 3
القي@@ 3
المح@@ 3
المع@@ 3
المق@@ 3
امام 3
امت 3
اور@@ 3
اول 3
اً 3
اپنے 3
ایت 3
با 3
بار@@ 3
بح@@ 3
بلو@@ 3
بور@@ 3
بيل 3
بین 3
تا 3
تاب 3
تاريخ 3
تس@@ 3
تع@@ 3
تو@@ 3
تون@@ 3
ثق@@ 3
جامعہ 3
جد 3
جل@@ 3
جمع@@ 3
جن 3
جه@@ 3
جو 3
جي@@ 3
جہ@@ 3
حة 3
خ 3
خط@@ 3
خود 3
خي@@ 3
داء 3
دون 3
دية 3
ذکر 3
رج@@ 3
رف 3
رق@@ 3
رين 3
رہ 3
ریس 3
زب@@ 3
زة 3
سا 3
سف@@ 3
سلم 3
سم@@ 3
سک@@ 3
سیم 3
شع@@ 3
شن@@ 3
شی 3
صح@@ 3
صف@@ 3
صلی 3
طر@@ 3
طف@@ 3
طي@@ 3
ظ 3
عش@@ 3
علامہ 3
علیہ 3
غز@@ 3
غلام 3
فار@@ 3
فت@@ 3
فر 3
فری@@ 3
فل@@ 3
فی 3
قبال 3
قوم@@ 3
قي 3
قي@@ 3
قی 3
كل 3
كل@@ 3
كية 3
لات 3
لام 3
لت 3
لد 3
لك@@ 3
لكرة 3
لو 3
لي 3
لہ 3
مت@@ 3
مجلس 3
محمود 3
مخت@@ 3
مس 3
مع 3
معر@@ 3
مهورية 3
مول@@ 3
مين 3
مک@@ 3
ناء 3
ندی 3
نظ@@ 3
نظام 3
نف@@ 3
نه 3
نه@@ 3
ها 3
هار@@ 3
هي@@ 3
وأ@@ 3
والم@@ 3
وب 3
وت@@ 3
وج@@ 3
وسف 3
وع 3
ولي 3
ولی 3
وما 3
ونی 3
وى 3
ينا 3
ينة 3
يه 3
ِّ@@ 3
ٰ 3
ٹ@@ 3
ٹھ@@ 3
ٽ@@ 3
پار@@ 3
پال 3
پاک@@ 3
پور 3
چار@@ 3
ډ@@ 3
ڊ 3
ڑ@@ 3
ښ@@ 3
ڤ@@ 3
کار@@ 3
کالج 3
کش@@ 3
کہ 3
گا 3
گا@@ 3
ہوں 3
ہی 3
ہی@@ 3
یت 3
ید 3
یم 3
ۍ 3
ێ@@ 3
ې 3
ۓ 3
ܒ@@ 3
ܠ@@ 3
ܢ@@ 3
ܣ@@ 3
ކ@@ 3
ވ@@ 3
ފ@@ 3
ާ 3
ި 3
ެ 3
ެ@@ 3
ऻ@@ 3
ॹ@@ 3
ঢ@@ 3
ৎ 3
ਈ 3
ਘ@@ 3
ਟ 3
ਥ@@ 3
ਧ 3
ਵ 3
ઈ 3
ખ@@ 3
ચ@@ 3
ણ 3
ଇ 3
ଇ@@ 3
ଖ@@ 3
ଚ 3
ଟ@@ 3
ବ 3
ଲ 3
ୌ@@ 3
ஜ 3
ஷ@@ 3
జ 3
ళ 3
హ 3
ృ@@ 3
ే 3
ಘ@@ 3
ಜ 3
ಧ 3
ಭ@@ 3
ಹ 3
ആ@@ 3
ഇ@@ 3
എ@@ 3
ഝ@@ 3
ഞ 3
ഠ@@ 3
ഥ 3
ഥ@@ 3
ഴ@@ 3
ീ 3
ඩ@@ 3
ණ@@ 3
ව 3
ස 3
ළ@@ 3
ි 3
ෙ@@ 3
กระท@@ 3
การ@@ 3
ช@@ 3
ชา@@ 3
ณ@@ 3
ด 3
บ@@ 3
ป@@ 3
พิ@@ 3
ภาษา@@ 3
มว@@ 3
ำ@@ 3
ุ 3
เขา 3
ງ@@ 3
ບ@@ 3
ລ@@ 3
ສ@@ 3
ະ 3
ະ@@ 3
ູ@@ 3
ຼ@@ 3
ຽ@@ 3
ཀ 3
ཉ@@ 3
ཊ 3
ཟ@@ 3
ཧ@@ 3
ཨ 3
ཨ@@ 3
ྙ@@ 3
ဂ@@ 3
ဇ@@ 3
ဗ@@ 3
ဲ 3
ံ 3
၊ 3
დ@@ 3
ო@@ 3
ት@@ 3
አ@@ 3
ᐃ@@ 3
ᓄ@@ 3
ᓇ@@ 3
ច@@ 3
ប 3
ព 3
ព@@ 3
ហ@@ 3
ឯ@@ 3
ិ@@ 3
េ@@ 3
ᱜ@@ 3
ᱠ@@ 3
ᱡ@@ 3
ᱮ@@ 3
ᱯ@@ 3
ᱷ@@ 3
ḏ@@ 3
ḫ@@ 3
ṁ@@ 3
ṃ@@ 3
ṣ 3
ṭ 3
ẓ@@ 3
ạch 3
ắng 3
ἡ@@ 3
ἱ@@ 3
Ὀ@@ 3
ὕ@@ 3
ὖ 3
ὰ 3
ὴ@@ 3
ὼ 3
‖ 3
„ 3
‪ 3
₆ 3
₫ 3
№ 3
∧ 3
│ 3
☬ 3
♙ 3
♟ 3
♠ 3
✓ 3
➡ 3
ⴽ@@ 3
ⵉ 3
ⵏ 3
ⵏ@@ 3
ⵓ@@ 3
ⵙ@@ 3
」 3
あ@@ 3
う@@ 3
お@@ 3
き 3
し 3
し@@ 3
て 3
な@@ 3
ゃ@@ 3
ら@@ 3
り@@ 3
わ@@ 3
ア 3
ィ@@ 3
オ@@ 3
ズ 3
タ 3
ド 3
ニ@@ 3
パ@@ 3
プ 3
ボ@@ 3
ミ@@ 3
ラ 3
リ 3
万@@ 3
中华@@ 3
中國 3
乐@@ 3
互@@ 3
作@@ 3
傳@@ 3
全@@ 3
兩@@ 3
兵@@ 3
典 3
出@@ 3
加@@ 3
十@@ 3
半@@ 3
南 3
口 3
古@@ 3
台 3
名 3
品@@ 3
唐 3
善 3
园 3
土@@ 3
在@@ 3
基@@ 3
夕@@ 3
大学 3
太 3
夫@@ 3
奥@@ 3
婆@@ 3
字@@ 3
孙@@ 3
宋@@ 3
宮@@ 3
密@@ 3
尔 3
尼 3
尼@@ 3
居 3
岡 3
工@@ 3
常@@ 3
引@@ 3
忠@@ 3
愛 3
愛@@ 3
慶 3
憲@@ 3
战@@ 3
所 3
承@@ 3
拉@@ 3
振@@ 3
探@@ 3
支@@ 3
政府 3
教 3
新 3
星@@ 3
時@@ 3
朝@@ 3
柔@@ 3
柿@@ 3
校 3
楽 3
橋 3
機 3
歌 3
正 3
氏 3
汉 3
汉@@ 3
池 3
沢 3
沢@@ 3
泉 3
波@@ 3
洋 3
洛@@ 3
浦 3
淡@@ 3
港@@ 3
澤 3
然@@ 3
照 3
爭 3
爱@@ 3
物@@ 3
特 3
玉 3
玉@@ 3
王@@ 3
珍 3
球@@ 3
生 3
生@@ 3
用@@ 3
电@@ 3
画 3
界@@ 3
皇@@ 3
盧@@ 3
県 3
短@@ 3
社@@ 3
祭 3
秀@@ 3
科 3
空 3
章 3
竺@@ 3
第@@ 3
米 3
米@@ 3
約 3
維@@ 3
经 3
羅 3
美@@ 3
能@@ 3
臣 3
航@@ 3
般@@ 3
英@@ 3
草@@ 3
萨@@ 3
蔵@@ 3
衆@@ 3
術 3
衛@@ 3
西 3
訓 3
諸@@ 3
象@@ 3
貨 3
赤@@ 3
银@@ 3
長@@ 3
門 3
関@@ 3
隠@@ 3
雄 3
集@@ 3
青 3
静@@ 3
革@@ 3
音 3
音@@ 3
风 3
香@@ 3
鬼@@ 3
黃@@ 3
ꜜ@@ 3
ꠟ@@ 3
ꠤ 3
ꯀ@@ 3
ꯄ@@ 3
ꯌ@@ 3
ꯏ@@ 3
ꯕ 3
ꯗ@@ 3
ꯡ 3
ꯨ 3
ꯩ@@ 3
가@@ 3
게@@ 3
고 3
공@@ 3
과 3
광@@ 3
금@@ 3
길@@ 3
녀 3
다 3
대 3
두@@ 3
로 3
만@@ 3
모 3
버@@ 3
부 3
산 3
석 3
설@@ 3
세@@ 3
스 3
안@@ 3
애 3
어@@ 3
여@@ 3
영@@ 3
온@@ 3
옷 3
원 3
은 3
은@@ 3
인 3
일 3
자@@ 3
장@@ 3
재@@ 3
주 3
지 3
진@@ 3
청@@ 3
치@@ 3
트@@ 3
하@@ 3
혜 3
ﺍ 3
ﺔ 3
ﻨ@@ 3
ﻼ@@ 3
￣ 3
𝐜@@ 3
𝐥@@ 3
𝐫 3
🏻 3
14. 2
17. 2
20. 2
9. 2
Argentina 2
Auf 2
Brasil 2
Bürger@@ 2
Bộ 2
Canton 2
Cao 2
Chính 2
Copa 2
Dani@@ 2
Ein 2
Eins@@ 2
Engl@@ 2
Er 2
Ere@@ 2
Estados 2
Este 2
Famili@@ 2
Frau 2
Gruppe 2
Hoàng 2
Jahr@@ 2
Kuzey 2
Kwa 2
Lan 2
Las 2
Lehr@@ 2
Mai 2
Minh 2
Mittel@@ 2
Mundial 2
Papa 2
Paşa 2
Quốc 2
Roma 2
Santi@@ 2
Seine 2
Sov@@ 2
Sud 2
Tanzania 2
Thiên 2
Türk 2
Uganda 2
Universidad 2
Wasser@@ 2
Yun@@ 2
Zentr@@ 2
abaj@@ 2
aide 2
alista 2
altung 2
amii 2
ampi@@ 2
anay@@ 2
andes 2
assen 2
ateurs 2
auch 2
auté 2
bere@@ 2
berto 2
bez@@ 2
cao 2
cht@@ 2
chí 2
como 2
comun@@ 2
cré@@ 2
culos 2
dak@@ 2
derni@@ 2
deut@@ 2
deutsche 2
dici@@ 2
dispar@@ 2
doğ@@ 2
dès 2
ección 2
ede@@ 2
egos 2
eht 2
eines 2
einige 2
elen 2
embargo 2
emble 2
empres@@ 2
enden 2
enen 2
enso 2
escri@@ 2
esen 2
esine 2
esper@@ 2
europ@@ 2
ezi 2
eño 2
eş@@ 2
fahr@@ 2
fait 2
fak@@ 2
fen 2
fils 2
fiz@@ 2
fonc@@ 2
fond@@ 2
fér@@ 2
gew@@ 2
ghi 2
gol 2
guerre 2
général 2
hakk@@ 2
herr@@ 2
hilo 2
hio 2
historia 2
hoa 2
hui 2
huwa 2
huy@@ 2
ibu 2
icio 2
idos 2
igen 2
ihr@@ 2
ilde 2
ilen 2
imbo 2
imiento 2
inah@@ 2
ingia 2
isión 2
ismo 2
iten 2
ités 2
iß@@ 2
jeu 2
jina 2
juli@@ 2
kea 2
kem@@ 2
kend@@ 2
khu 2
kre@@ 2
kreis 2
kub@@ 2
kung 2
kup@@ 2
kwa 2
ký 2
lagen 2
lama 2
leri 2
leur 2
libre 2
licher 2
lichkeit 2
loi 2
lui 2
luk@@ 2
lés 2
maji 2
mbal@@ 2
meng@@ 2
mich@@ 2
monde 2
muz@@ 2
mé 2
naci@@ 2
nete 2
ngh@@ 2
ngu@@ 2
người 2
nom 2
nord 2
nouvelle 2
nước 2
onales 2
onen 2
onge@@ 2
oren 2
osu 2
permet@@ 2
politique 2
provincia 2
puer@@ 2
quan 2
quel 2
recher@@ 2
reib@@ 2
rique 2
roi 2
rue 2
sanat@@ 2
schaft 2
sche@@ 2
sein 2
serie 2
sich 2
signi@@ 2
siz 2
sobre 2
sten 2
sud 2
tech@@ 2
teilung 2
tet 2
tima 2
titre 2
tiva 2
tuy@@ 2
tér@@ 2
tés 2
tı 2
umia 2
umri 2
unas 2
unde 2
ungen 2
ustos 2
uwe@@ 2
uyên 2
uç@@ 2
vard@@ 2
veau 2
vek@@ 2
verk@@ 2
vez 2
vile 2
wann 2
werk 2
wich@@ 2
wie 2
wissen@@ 2
woh@@ 2
xième 2
yok@@ 2
yıl 2
zeit@@ 2
zey@@ 2
zona 2
zur@@ 2
 2
Ä@@ 2
État 2
Ê 2
Ó@@ 2
Õ 2
Þ@@ 2
ßen 2
ài 2
ái 2
âm 2
âte@@ 2
äch@@ 2
äd@@ 2
äl@@ 2
änd@@ 2
çu 2
ève 2
éd@@ 2
éli@@ 2
élé@@ 2
ération 2
ême 2
êt 2
î 2
öster@@ 2
öz@@ 2
út@@ 2
û 2
üb@@ 2
üc@@ 2
ücke 2
üd@@ 2
ühr@@ 2
üs@@ 2
üt@@ 2
üz 2
üz@@ 2
ăng 2
ą 2
ą@@ 2
Đi@@ 2
đại 2
Ē@@ 2
ę 2
ħ 2
ħ@@ 2
ĩ@@ 2
İ 2
İs@@ 2
İstanbul 2
ık@@ 2
ľ@@ 2
ņ@@ 2
ř@@ 2
Ţ@@ 2
ţ 2
ţ@@ 2
Ū@@ 2
ŭ 2
Ź@@ 2
ż 2
ż@@ 2
Ə@@ 2
ơ 2
ơ@@ 2
ưng 2
ương 2
ǁ 2
ǁ@@ 2
ǒ 2
ɨ 2
ɲ 2
ɴ@@ 2
ɽ@@ 2
ʂ@@ 2
ʈ@@ 2
ʎ 2
ʙ 2
ʤ@@ 2
ʧ@@ 2
ʹ 2
ʼ 2
ˀ 2
ˤ@@ 2
˥ 2
˩ 2
̂ 2
̆ 2
̟ 2
̮ 2
Ά@@ 2
Άν@@ 2
Αντι@@ 2
Αργ@@ 2
Δημ@@ 2
Δι@@ 2
Ελλην@@ 2
Ευρωπαϊκ@@ 2
Κ 2
Κα@@ 2
Καρ@@ 2
Ν 2
Π 2
Υ@@ 2
άγ@@ 2
άλασ@@ 2
άρι@@ 2
έβ@@ 2
έφ@@ 2
ί 2
ίας 2
αδ@@ 2
αλλ@@ 2
ανδ@@ 2
αργ@@ 2
βολ@@ 2
γεω@@ 2
γραφ@@ 2
δημ@@ 2
δι@@ 2
διά 2
δικα@@ 2
δος 2
δρ@@ 2
εί@@ 2
ειδ@@ 2
εις 2
εξ@@ 2
ερν@@ 2
ευ@@ 2
εφ@@ 2
ημ@@ 2
θέ@@ 2
θη 2
θρ@@ 2
θω@@ 2
ικά 2
καθ@@ 2
και 2
κατ@@ 2
κερ@@ 2
κλ@@ 2
κυ@@ 2
λο 2
λύ@@ 2
μαχ@@ 2
με@@ 2
μετ@@ 2
μμ@@ 2
μν@@ 2
μορφή 2
μος 2
μό@@ 2
νέ@@ 2
νε@@ 2
νω@@ 2
ολογία 2
ορ@@ 2
ορά 2
ους 2
πολ@@ 2
πτ@@ 2
ρά@@ 2
ρή@@ 2
ρί@@ 2
ραγ@@ 2
ρε@@ 2
ρο 2
ρυ@@ 2
σπ@@ 2
στο@@ 2
σχ@@ 2
τά@@ 2
ταυ@@ 2
τη 2
τις 2
τρι@@ 2
υπ@@ 2
υρ@@ 2
φύ@@ 2
χρ@@ 2
όπο@@ 2
όρος 2
όχ@@ 2
ύρ@@ 2
ώ 2
ώς 2
Ϸ 2
Бо@@ 2
Бур@@ 2
Ва@@ 2
Ве@@ 2
Ге@@ 2
Гор@@ 2
К 2
Ком@@ 2
Македо@@ 2
Ман@@ 2
Ме@@ 2
Миха@@ 2
Н@@ 2
Ни@@ 2
О 2
Ор@@ 2
Петер@@ 2
Пол@@ 2
Про@@ 2
Ру@@ 2
Се@@ 2
Северна 2
Ста@@ 2
Та@@ 2
Ф 2
Фе@@ 2
Хар@@ 2
Хо@@ 2
Ху@@ 2
Ша@@ 2
Ши@@ 2
Я 2
авиа@@ 2
ад@@ 2
атов 2
бай@@ 2
бо 2
бург 2
бю@@ 2
вал 2
ван 2
ван@@ 2
ват@@ 2
вет@@ 2
вод 2
вс@@ 2
вы 2
вя@@ 2
га 2
ген 2
год@@ 2
город 2
гри@@ 2
гу@@ 2
ден@@ 2
дер@@ 2
до 2
дов 2
дор 2
доро@@ 2
дро@@ 2
дру@@ 2
ев@@ 2
ед@@ 2
ек@@ 2
ел 2
жество 2
зах@@ 2
зе@@ 2
зер@@ 2
зиден@@ 2
зо@@ 2
из@@ 2
им 2
имени 2
институ@@ 2
ит@@ 2
ите@@ 2
ить 2
йна 2
кан@@ 2
ке 2
ке@@ 2
клуб 2
кра@@ 2
ку 2
лем 2
лена 2
лет@@ 2
лов 2
лов@@ 2
лы 2
ля@@ 2
март 2
ме 2
мен@@ 2
мер@@ 2
мет@@ 2
мира 2
миче@@ 2
мор@@ 2
му 2
нал 2
не 2
ни 2
ников 2
нин 2
нов@@ 2
ное 2
ок@@ 2
они 2
ора 2
остров 2
от@@ 2
пере@@ 2
пора@@ 2
пре@@ 2
про@@ 2
провин@@ 2
публи@@ 2
пы@@ 2
река 2
рен@@ 2
рин 2
рин@@ 2
ров@@ 2
рус@@ 2
ры 2
се 2
ско@@ 2
соци@@ 2
сою@@ 2
сс 2
ствен@@ 2
ство 2
стро@@ 2
су@@ 2
то@@ 2
тра@@ 2
тру@@ 2
ту@@ 2
ть 2
удо@@ 2
университет 2
хай@@ 2
хан 2
хан@@ 2
хи@@ 2
ху@@ 2
це@@ 2
цев 2
ции 2
цион@@ 2
ча@@ 2
ша@@ 2
шие 2
ший 2
ъ@@ 2
ья 2
юр@@ 2
ян@@ 2
ћ 2
ң@@ 2
Ա@@ 2
Ի@@ 2
Հ@@ 2
գ@@ 2
զ@@ 2
թ@@ 2
ի 2
լ 2
կ 2
ղ 2
շ@@ 2
ք 2
ֹ 2
־ 2
ׂ@@ 2
ן@@ 2
צ 2
ؒ 2
ء@@ 2
أش@@ 2
أكبر 2
أن 2
أن@@ 2
ئن 2
ائد 2
ائن 2
ائی 2
ائی@@ 2
اتحاد 2
اتی 2
اح 2
ادية 2
اذ@@ 2
ارا 2
اره 2
است 2
اسٹیشن 2
اض@@ 2
اضي 2
اظ@@ 2
افة 2
افظ 2
اك@@ 2
الأر@@ 2
الأس@@ 2
البي@@ 2
الة 2
الت 2
الدي@@ 2
الرح@@ 2
السل@@ 2
الصح@@ 2
العرا@@ 2
العلا@@ 2
العمل 2
القر@@ 2
المؤ@@ 2
المج@@ 2
المر@@ 2
المس@@ 2
المست@@ 2
المسل@@ 2
النا@@ 2
الوطني 2
امن 2
امین 2
انا 2
انق@@ 2
انگ@@ 2
اه 2
اون@@ 2
اپ@@ 2
اکی@@ 2
اہل 2
بات@@ 2
باد@@ 2
باش@@ 2
بد 2
برو@@ 2
بع 2
بع@@ 2
بعد 2
بل 2
بلا@@ 2
بين 2
بھارت 2
بھی 2
بی 2
بیر 2
تان 2
تحریک 2
تخ@@ 2
تخب 2
ترا@@ 2
ترو@@ 2
تز@@ 2
تن@@ 2
ته 2
تو 2
تي 2
تہ 2
ثابت 2
جامعة 2
جان@@ 2
جم@@ 2
جن@@ 2
جنة 2
جگ@@ 2
جہاں 2
حدیث 2
حم@@ 2
حية 2
حک@@ 2
خات@@ 2
خدا 2
خر 2
خی@@ 2
دا 2
دائ@@ 2
دان@@ 2
دت 2
دد 2
دري@@ 2
دل 2
دل@@ 2
دن 2
دود 2
دول@@ 2
دولة 2
ديد 2
دين 2
دین 2
ذ 2
ذي 2
رائ@@ 2
راب 2
رات 2
رار 2
ران 2
راہ 2
ربي 2
ربية 2
رو 2
روم 2
رہ@@ 2
رین 2
زم 2
زي 2
زيرة 2
ساتھ 2
ساح@@ 2
سر 2
سط@@ 2
سلا@@ 2
سلام 2
سلسل@@ 2
سند 2
سند@@ 2
سنگھ 2
سيا 2
سين@@ 2
سٹی@@ 2
سی 2
شار@@ 2
شام 2
شاہ@@ 2
صد@@ 2
صف 2
ضاء 2
ضة 2
ط 2
طالب 2
طان 2
طة 2
ظم 2
عالم 2
عالم@@ 2
عبة 2
علا@@ 2
علم 2
علی@@ 2
فا 2
فات 2
فتح 2
فق 2
فل 2
فلسط@@ 2
قاد@@ 2
قب@@ 2
قبول 2
قة 2
قد@@ 2
قيقة 2
كان 2
كم 2
كو@@ 2
كي 2
لاب 2
لاد 2
لان@@ 2
لة 2
لش@@ 2
لغ@@ 2
لق@@ 2
لن 2
لية 2
مانی 2
مبر 2
متح@@ 2
مخ@@ 2
مراد 2
مز 2
مسل@@ 2
مسلمان 2
مشر@@ 2
مصر 2
مض@@ 2
ملا 2
ملا@@ 2
ملكة 2
مم@@ 2
منتخب 2
منص@@ 2
مها 2
مون 2
میری 2
میرے 2
مین 2
نات 2
نار@@ 2
ندي 2
نس 2
نس@@ 2
نوا@@ 2
نية 2
نہ 2
هد 2
هذه 2
هٔ 2
وال 2
والح@@ 2
وت 2
وح@@ 2
وخ@@ 2
ود@@ 2
وز@@ 2
وص@@ 2
وط@@ 2
وطن 2
وق 2
وية 2
ى@@ 2
يات 2
يار 2
يز 2
يش@@ 2
يع@@ 2
يك@@ 2
يو 2
ًا 2
ٌ@@ 2
َّة 2
ّة 2
ٹو@@ 2
ټ@@ 2
ٽ 2
پا 2
پنج@@ 2
پنجاب 2
پھ@@ 2
پی 2
ځ@@ 2
چھ@@ 2
چی@@ 2
ڈ 2
ڈ@@ 2
ڏ@@ 2
ڙ 2
ڙ@@ 2
کراچی 2
کرتا 2
کرتی 2
کری@@ 2
کشمیر 2
کہ@@ 2
کیا 2
کیل 2
گر 2
گی@@ 2
ڻ@@ 2
ڼ 2
ہار 2
ہندوستانی 2
ہیں 2
ۈ@@ 2
یز 2
یوں 2
ے 2
ە@@ 2
ܚ@@ 2
ܝ 2
ܟ 2
ܠ 2
ܢ 2
ܦ 2
ܫ@@ 2
ܵ@@ 2
ܹ 2
݁ 2
݂ 2
ރ 2
ސ@@ 2
ޑ@@ 2
ޤ@@ 2
ީ 2
ޭ@@ 2
ߊ 2
߬ 2
ॎ 2
ॾ 2
ঁ 2
এ 2
ঞ@@ 2
ঠ 2
ঢ 2
১@@ 2
৪ 2
৯@@ 2
ਆ 2
ਉ 2
ਏ 2
ਏ@@ 2
ਐ@@ 2
ਚ 2
ਫ@@ 2
ਯ@@ 2
ੜ@@ 2
੧ 2
ੰ 2
ઓ@@ 2
ઘ@@ 2
જ 2
ધ 2
ધ@@ 2
પ 2
ફ@@ 2
બ 2
ળ 2
વ 2
૦ 2
૧ 2
ଂ 2
ଆ 2
ଏ 2
ଓ@@ 2
ଖ 2
ଜ 2
ଞ 2
ଠ 2
ଡ@@ 2
ଢ 2
ଧ 2
ଫ@@ 2
ଵ 2
ଷ@@ 2
ୈ 2
ୋ 2
୩ 2
ୱ 2
ୱ@@ 2
ஃ@@ 2
ஈ@@ 2
ஐ 2
ஹ@@ 2
ோ 2
௫@@ 2
ఊ@@ 2
ఖ@@ 2
ఘ@@ 2
ಐ@@ 2
ಠ@@ 2
ഘ@@ 2
ങ@@ 2
ഡ@@ 2
ധ 2
ഫ@@ 2
െ 2
ൈ 2
ൈ@@ 2
ൗ@@ 2
ට@@ 2
ම 2
ෂ 2
හ 2
ී@@ 2
ේ 2
กัน 2
กา@@ 2
คา@@ 2
งค@@ 2
ญ@@ 2
ถ 2
ท 2
ทร 2
ทอง 2
ธ@@ 2
ธิ@@ 2
พั@@ 2
ภู@@ 2
มหา@@ 2
มา 2
มา@@ 2
ย 2
ยาม 2
ยุ@@ 2
รร@@ 2
ระ 2
ริ@@ 2
รี 2
ศ 2
ศ@@ 2
ษ@@ 2
หลวง 2
อง@@ 2
อด@@ 2
อน 2
อย 2
อา@@ 2
ะ 2
ะ@@ 2
ัก@@ 2
ันท@@ 2
ี@@ 2
ื@@ 2
฿ 2
เม@@ 2
เมือง 2
โ@@ 2
ไทย 2
ປ@@ 2
ມ@@ 2
ແ@@ 2
້ 2
໌ 2
ཌ@@ 2
ཛ@@ 2
ཡ 2
ཱ 2
ཱ@@ 2
ྟ@@ 2
ྣ 2
ྨ 2
ྨ@@ 2
ྭ@@ 2
ྱ 2
င@@ 2
ဇ 2
ဓ@@ 2
ယ@@ 2
ဝ 2
အ 2
ဥ@@ 2
ီ 2
ေ 2
ဲ@@ 2
ြ 2
ွ 2
၆@@ 2
ბ@@ 2
ტ@@ 2
ქ@@ 2
შ@@ 2
ხ@@ 2
ሪ 2
ቀ@@ 2
ን@@ 2
ዕ@@ 2
ዝ 2
ያ 2
ᐊ@@ 2
ᑦ 2
ᑦ@@ 2
ᓗ@@ 2
ᓯ@@ 2
ᖅ 2
ជ@@ 2
ឌ@@ 2
ណ 2
ថ 2
ធ@@ 2
ល 2
ឥ@@ 2
ូ@@ 2
ៀ@@ 2
ោ@@ 2
ំ 2
ះ@@ 2
៊ 2
២ 2
᠎ 2
ᠢ@@ 2
ᠣ@@ 2
ᮔ 2
ᮝ@@ 2
ᮤ@@ 2
᮪ 2
ᱛ 2
ᱛ@@ 2
ᱤ 2
ᱩ@@ 2
ᱪ@@ 2
ᱱ@@ 2
ᱲ 2
ᱹ 2
ᵝ@@ 2
ḱ@@ 2
Ḳ@@ 2
ṉ@@ 2
Ṭ@@ 2
ṯ@@ 2
Ẓ@@ 2
ạc 2
ạn 2
ạnh 2
ẩn 2
ận 2
ậu 2
ẳng 2
ết 2
ện 2
ủy 2
ử@@ 2
ἁ@@ 2
Ἁ@@ 2
Ἔ@@ 2
ἤ@@ 2
Ἵ@@ 2
ὀ@@ 2
ὅ@@ 2
ῴ@@ 2
‛ 2
⁺ 2
ⁿ 2
ⁿ@@ 2
₃ 2
₤ 2
₭ 2
₮ 2
₱ 2
ℓ@@ 2
⅛ 2
∀ 2
∑ 2
⊖ 2
⋯ 2
⌈ 2
⌉ 2
⏑ 2
◌ 2
☂ 2
♔ 2
♕ 2
♖ 2
♗ 2
♘ 2
♚ 2
♛ 2
♜ 2
♝ 2
♞ 2
✒ 2
⬇ 2
ⴷ@@ 2
ⴻ@@ 2
ⴼ@@ 2
ⵔ@@ 2
ⵕ@@ 2
ⵜ 2
「 2
〜 2
が 2
さ@@ 2
な 2
に 2
ぼ@@ 2
や@@ 2
ょ@@ 2
ら 2
れ 2
ィ 2
ウ 2
ギ@@ 2
ケ@@ 2
ジ 2
ダ@@ 2
ヌ 2
ネ@@ 2
ハ@@ 2
ビ 2
ピ@@ 2
プ@@ 2
ベ@@ 2
ペ@@ 2
ュ@@ 2
ロ 2
ワ@@ 2
东 2
並@@ 2
个@@ 2
久@@ 2
义@@ 2
书@@ 2
乳 2
事 2
云 2
今@@ 2
伟 2
传@@ 2
伯@@ 2
伽@@ 2
住@@ 2
佐@@ 2
何@@ 2
佛 2
使@@ 2
侯 2
侵@@ 2
保 2
保@@ 2
信 2
俣 2
偵 2
備@@ 2
元@@ 2
克 2
六@@ 2
共和@@ 2
关@@ 2
函@@ 2
列@@ 2
別@@ 2
刺@@ 2
力 2
动@@ 2
助 2
動 2
動@@ 2
務@@ 2
勝@@ 2
博@@ 2
友@@ 2
可@@ 2
台灣 2
史 2
史@@ 2
右@@ 2
合 2
君@@ 2
吴@@ 2
命 2
命@@ 2
商@@ 2
啟@@ 2
喇@@ 2
喜 2
嘉@@ 2
器@@ 2
團@@ 2
圣 2
圣@@ 2
地 2
地@@ 2
坚 2
坡 2
域@@ 2
場 2
士 2
士@@ 2
夏@@ 2
多@@ 2
夜@@ 2
夫 2
奇 2
奇@@ 2
女@@ 2
妹 2
始@@ 2
姐@@ 2
姫 2
威@@ 2
娘 2
學@@ 2
宇 2
宗 2
宮 2
寒@@ 2
寶 2
寶@@ 2
寿@@ 2
尔@@ 2
尚@@ 2
局 2
屋 2
岐@@ 2
岛 2
崛@@ 2
巧@@ 2
巴 2
布@@ 2
席 2
幣 2
幸 2
幼@@ 2
广@@ 2
広@@ 2
庆 2
库@@ 2
府 2
府@@ 2
康 2
康@@ 2
廣@@ 2
式 2
強@@ 2
形@@ 2
彪 2
忍@@ 2
志@@ 2
思@@ 2
总@@ 2
悉@@ 2
情@@ 2
慕 2
我 2
戰@@ 2
戸@@ 2
手@@ 2
才 2
技@@ 2
拉 2
振 2
搏 2
擂@@ 2
攝@@ 2
改@@ 2
放@@ 2
教@@ 2
散@@ 2
斌 2
昌 2
春@@ 2
昭 2
昭@@ 2
智 2
曲@@ 2
書@@ 2
曾@@ 2
杉@@ 2
杏 2
条@@ 2
杨@@ 2
果 2
枝 2
條@@ 2
棚@@ 2
業@@ 2
楮@@ 2
楽@@ 2
横@@ 2
樺@@ 2
歌@@ 2
步 2
歲 2
死 2
残@@ 2
比@@ 2
気@@ 2
水 2
沙@@ 2
沪 2
油@@ 2
泰 2
洞@@ 2
洲 2
流 2
浄@@ 2
浜@@ 2
淑@@ 2
済@@ 2
渓 2
港 2
湯@@ 2
满@@ 2
滴@@ 2
漫@@ 2
灯@@ 2
熱@@ 2
燈@@ 2
爆@@ 2
牛 2
犯@@ 2
率 2
班@@ 2
現@@ 2
瑟 2
璠 2
瓶 2
由@@ 2
申 2
男@@ 2
町 2
異@@ 2
畿 2
發@@ 2
県@@ 2
真@@ 2
石 2
神 2
福 2
福@@ 2
科@@ 2
秦 2
竹@@ 2
算@@ 2
箱@@ 2
精 2
糯@@ 2
系 2
紀 2
紀@@ 2
紅@@ 2
索@@ 2
細@@ 2
経@@ 2
红@@ 2
约@@ 2
线 2
绿 2
羊 2
義 2
老 2
肉@@ 2
臺@@ 2
良 2
良@@ 2
花 2
莫@@ 2
菩@@ 2
華 2
萬@@ 2
葉@@ 2
蒙 2
蔡@@ 2
薩 2
薩@@ 2
藤@@ 2
蘇@@ 2
處 2
行@@ 2
衣 2
表@@ 2
衫 2
袁@@ 2
解@@ 2
訓@@ 2
說@@ 2
説 2
謎 2
讖 2
诚 2
话 2
语 2
谜 2
谷 2
貝 2
赫@@ 2
走@@ 2
赵@@ 2
起 2
跋@@ 2
身 2
軍@@ 2
迅 2
运@@ 2
送@@ 2
遍@@ 2
遠@@ 2
都@@ 2
里@@ 2
野 2
野@@ 2
鈴@@ 2
錢 2
鍾@@ 2
長 2
門@@ 2
間@@ 2
関 2
閣@@ 2
间@@ 2
阪@@ 2
际@@ 2
限@@ 2
陳@@ 2
陽 2
際@@ 2
雄@@ 2
震 2
震@@ 2
霜 2
韩@@ 2
順 2
食@@ 2
駐@@ 2
髀@@ 2
體@@ 2
高 2
魯@@ 2
鲁@@ 2
鲜@@ 2
鲲 2
麻@@ 2
黑@@ 2
鼠 2
齊 2
齐@@ 2
龍@@ 2
ꠍ@@ 2
ꠐ@@ 2
ꠞ@@ 2
ꠣ 2
ꯃ 2
ꯄ 2
ꯊ@@ 2
ꯔ@@ 2
ꯝ@@ 2
ꯟ 2
ꯟ@@ 2
ꯡ@@ 2
ꯣ@@ 2
ꯤ 2
ꯨ@@ 2
개@@ 2
경@@ 2
공 2
관@@ 2
괴@@ 2
교 2
구@@ 2
글 2
나 2
날 2
내 2
내@@ 2
년 2
는 2
다@@ 2
당@@ 2
동 2
드@@ 2
들@@ 2
등@@ 2
띠 2
라 2
라@@ 2
레@@ 2
름@@ 2
면@@ 2
멸@@ 2
명@@ 2
문@@ 2
물@@ 2
미@@ 2
반 2
방@@ 2
보@@ 2
빛@@ 2
새@@ 2
생@@ 2
세 2
수@@ 2
시 2
식@@ 2
신 2
아 2
액@@ 2
양 2
없@@ 2
역 2
열@@ 2
왕@@ 2
위@@ 2
유 2
장 2
저@@ 2
제@@ 2
조 2
종@@ 2
천@@ 2
철@@ 2
추 2
퀴@@ 2
태@@ 2
톱 2
통@@ 2
투 2
학@@ 2
항@@ 2
해@@ 2
회 2
후@@ 2
 2
ﮔ@@ 2
ﮕ@@ 2
ﮨ@@ 2
ﺏ 2
ﺑ@@ 2
ﺓ 2
ﺘ@@ 2
ﺴ@@ 2
ﻌ@@ 2
ﻗ@@ 2
ﻜ@@ 2
ﻤ@@ 2
ﻦ 2
ﻭ@@ 2
ﻱ 2
ﻲ 2
ﻴ@@ 2
ﻹ@@ 2
～ 2
￷ 2
𐤁@@ 2
𐭓@@ 2
𐭕@@ 2
𑂢 2
𑂫@@ 2
𑂮@@ 2
𑂰@@ 2
𑐒@@ 2
𑐟@@ 2
𑐥@@ 2
𑑀@@ 2
𑑃 2
𑜫 2
𝐝 2
𝐦@@ 2
𝐨@@ 2
𝐭 2
𝐰@@ 2
𝝳@@ 2
🌸 2
🐜 2
💐 2
🚩 2
🜨 2
13. 1
15. 1
18. 1
19. 1
7. 1
8. 1
Afrika 1
Aires 1
Allem@@ 1
Almanya 1
Anc@@ 1
Anf@@ 1
Anh 1
Argent@@ 1
Ayr@@ 1
Bahari 1
Besch@@ 1
Best@@ 1
Buenos 1
Burundi 1
Böl@@ 1
Châu 1
Cuando 1
Cumhuriyeti 1
Cộng 1
Daha 1
Dans 1
Después 1
Dân 1
Eine 1
Elle 1
Estado 1
Eurov@@ 1
Febru@@ 1
Fes@@ 1
Francia 1
Fren@@ 1
Fuß@@ 1
Geg@@ 1
Gemein@@ 1
Gesch@@ 1
Groß@@ 1
Gün@@ 1
Güney 1
Haupt@@ 1
Hải 1
Hội 1
Jahre 1
Jahrhundert 1
Landes@@ 1
Lebens@@ 1
Liga 1
Liên 1
Londres 1
Machi 1
Mei 1
Mün@@ 1
Nguy@@ 1
Nh@@ 1
Nhà 1
Nhân 1
Nigeria 1
Nội 1
Oly@@ 1
Pháp 1
Por 1
Produk@@ 1
Quân 1
Savaşı 1
Schwe@@ 1
Sein 1
Sept@@ 1
Serie 1
Sie 1
Spiel@@ 1
Staats@@ 1
Stad@@ 1
Stadt 1
Süd@@ 1
Tanz@@ 1
Thanh 1
Thành 1
Tháng 1
Tod 1
Trường 1
Ukr@@ 1
Ulus@@ 1
Unidos 1
Verw@@ 1
Vier@@ 1
Weltkri@@ 1
Yıl@@ 1
Zeit 1
Zus@@ 1
Zusammen@@ 1
Zwe@@ 1
abab@@ 1
acional 1
aciones 1
acto 1
adhim@@ 1
aient 1
aifa 1
ainsi 1
aison 1
aiss@@ 1
akt@@ 1
alem@@ 1
alifor@@ 1
aliste 1
alité 1
aliye@@ 1
aliza 1
alı 1
amiento 1
ampiy@@ 1
améric@@ 1
américain 1
amı 1
ancia 1
ancien 1
angla@@ 1
anischen 1
anlar 1
anst@@ 1
antigu@@ 1
anyika 1
arı 1
ası 1
atique 1
ativo 1
auf 1
aunti 1
autre 1
avec 1
ayant 1
año 1
años 1
ağ@@ 1
aş@@ 1
banda 1
beiden 1
beit 1
beri 1
bier@@ 1
bà 1
bài 1
büyük 1
bằng 1
casa 1
cet 1
chez 1
chte 1
chủ 1
chữ 1
cier@@ 1
ciones 1
communes 1
conten@@ 1
contra 1
contre 1
cây 1
dah@@ 1
damit 1
dass 1
deu@@ 1
deuxième 1
dieses 1
dini 1
dire@@ 1
dió 1
dres 1
dung 1
département 1
dével@@ 1
día 1
dır@@ 1
ecke 1
económ@@ 1
ecto 1
ecu@@ 1
eden 1
ehe 1
ehr 1
einem 1
einen 1
eint 1
ekonom@@ 1
ekt 1
elek@@ 1
elik 1
ellik@@ 1
eln 1
emaji 1
emba 1
embar@@ 1
empl@@ 1
encias 1
encontr@@ 1
enfants 1
engo 1
enos 1
enten 1
entro 1
environ 1
erek 1
erne@@ 1
ersch@@ 1
erung 1
ería 1
esab@@ 1
escu@@ 1
eser@@ 1
esini 1
esinin 1
eso 1
españ@@ 1
estas 1
eten 1
etwa 1
europé@@ 1
eyi 1
eñ@@ 1
famil@@ 1
fang@@ 1
fass@@ 1
feh@@ 1
fica 1
fico 1
franc@@ 1
frances@@ 1
fü@@ 1
gab 1
ganda 1
gegrün@@ 1
gemein@@ 1
gesi 1
gleich@@ 1
gran 1
großen 1
guerra 1
gü@@ 1
gün 1
haa 1
habari 1
hac@@ 1
hacer 1
halb 1
halten 1
harek@@ 1
hatte 1
haup@@ 1
histoire 1
homme 1
huo 1
hàng 1
học 1
hộ 1
hội 1
ichte 1
ickl@@ 1
idadi 1
iert 1
ierte 1
ifa 1
ifu 1
ilim@@ 1
imu 1
incia 1
inco 1
inen 1
ingt 1
iques 1
ishwa 1
isim@@ 1
isinin 1
isième 1
istre 1
itig 1
itos 1
iç@@ 1
iş@@ 1
jos 1
juego 1
jähr@@ 1
kale 1
kazi 1
khi@@ 1
khẩu 1
kij@@ 1
kik@@ 1
kio 1
kirche 1
koa 1
kodi 1
kommen 1
konn@@ 1
kte 1
kuj@@ 1
kuli@@ 1
kundi 1
kuwa 1
köy 1
kı 1
lamu 1
lanz@@ 1
ları 1
layan 1
leich@@ 1
leit@@ 1
leurs 1
lili@@ 1
lima 1
lise 1
logr@@ 1
lte 1
luy@@ 1
lü@@ 1
lığı 1
mehr@@ 1
meister 1
mej@@ 1
mejor 1
mev@@ 1
mez 1
mittel@@ 1
mji 1
momento 1
mondi@@ 1
mondiale 1
mont@@ 1
muerte 1
munici@@ 1
municipio 1
muz 1
mà 1
nach 1
naf@@ 1
nahme 1
nde 1
neue 1
nghĩa 1
ngữ 1
nie 1
norte 1
nouv@@ 1
nuevo 1
né@@ 1
nú@@ 1
ober@@ 1
obras 1
octu@@ 1
oder 1
ográ@@ 1
oku@@ 1
orden 1
orden@@ 1
origine 1
otras 1
oğlu 1
partamento 1
partement 1
parti 1
partie 1
pequ@@ 1
pero 1
phong 1
phủ 1
pili 1
pios 1
pobl@@ 1
población 1
porte 1
preu@@ 1
primer 1
präs@@ 1
préc@@ 1
prés@@ 1
président 1
pueden 1
quay 1
quelques 1
quier 1
quy 1
qué 1
quả 1
quốc 1
riere 1
rir 1
schaf@@ 1
schied@@ 1
schluss 1
sechs 1
seph 1
septi@@ 1
señ@@ 1
sich@@ 1
sind 1
singi 1
sión 1
sont 1
sos@@ 1
ständi@@ 1
système 1
sé@@ 1
sü@@ 1
sız 1
tarde 1
tekn@@ 1
tete 1
thay 1
thuộc 1
ticas 1
tiempo 1
tig 1
tigt 1
tiki 1
timm@@ 1
tionn@@ 1
tische 1
tiến 1
tiền 1
tober 1
tof@@ 1
toujours 1
toute 1
trai 1
trang 1
trat 1
travail 1
trieb 1
trois 1
trä@@ 1
tür@@ 1
tướng 1
ubic@@ 1
ución 1
umani 1
umo 1
unid@@ 1
urch 1
uu 1
uza 1
uzak@@ 1
uzo 1
vertr@@ 1
verw@@ 1
vier@@ 1
vita 1
viện 1
voll@@ 1
vom 1
vya 1
waka 1
wango 1
wanja 1
waz@@ 1
wech@@ 1
weg@@ 1
weise 1
weit@@ 1
weiter 1
wür@@ 1
yali@@ 1
yapan 1
yard@@ 1
yet@@ 1
z. 1
zahl 1
zaman 1
zas 1
zeh@@ 1
zel@@ 1
zentr@@ 1
zh 1
zil@@ 1
zis@@ 1
zog 1
zor@@ 1
zt 1
zul@@ 1
zös@@ 1
 1
 1
 1
 1
¦ 1
Ét@@ 1
Ê@@ 1
Ð@@ 1
Ò@@ 1
Über@@ 1
Þ 1
àm 1
àu 1
ác 1
ách 1
áo 1
át 1
âu 1
ã 1
ãi 1
ãn 1
ände 1
änder@@ 1
äu@@ 1
äus@@ 1
çe 1
ço@@ 1
çı@@ 1
ède 1
èg@@ 1
èmes 1
écn@@ 1
ép@@ 1
érie 1
éré 1
éré@@ 1
és@@ 1
éta@@ 1
éti@@ 1
étr@@ 1
étu@@ 1
ìn 1
ình 1
ích 1
ís@@ 1
ños 1
óa 1
óc 1
óg@@ 1
ói 1
óm@@ 1
ôt 1
öff@@ 1
öst@@ 1
özel 1
öß@@ 1
ùa 1
über 1
über@@ 1
ück 1
ück@@ 1
ük@@ 1
ünde 1
üne 1
üst@@ 1
Ā 1
ăm 1
Ć@@ 1
Đế 1
Độ 1
Đức 1
đạo 1
Ė@@ 1
ě 1
ĝ@@ 1
Ğ 1
ği 1
ĩ 1
Ī@@ 1
İl@@ 1
İz@@ 1
ıdır 1
ık 1
ıl 1
ıl@@ 1
ım 1
ın 1
ın@@ 1
ına 1
ını 1
ır@@ 1
ıs 1
ıt 1
ıt@@ 1
ış 1
ķ@@ 1
Ľ@@ 1
Ł 1
ň 1
ŏ@@ 1
ő 1
Œ@@ 1
Ŕ 1
ŕ 1
Ş 1
şek@@ 1
şu 1
ť 1
ũ@@ 1
ũng 1
ů 1
ů@@ 1
ű 1
ű@@ 1
ų 1
ź 1
Ž@@ 1
ž 1
Ɔ@@ 1
ư 1
ư@@ 1
ước 1
ườ@@ 1
ường 1
ưởng 1
ǃ 1
ǜ 1
ǧ@@ 1
ǫ 1
ș@@ 1
ɖ 1
ɚ 1
ɣ 1
ɤ@@ 1
ɦ 1
ɯ 1
ɰ@@ 1
ɱ 1
ɳ 1
ɹ 1
ɻ@@ 1
ɽ 1
ʀ 1
ʈ 1
ʉ@@ 1
ʎ@@ 1
ʐ@@ 1
ʙ@@ 1
ʝ@@ 1
ʱ@@ 1
ʷ@@ 1
ʹ@@ 1
ʺ@@ 1
ˆ@@ 1
ˑ@@ 1
ˠ 1
̊ 1
̌ 1
̓ 1
̙ 1
̝ 1
̧ 1
͜ 1
ΐ@@ 1
Αν@@ 1
Ανα@@ 1
Ανατολ@@ 1
Απο@@ 1
Γεω@@ 1
Ε 1
Η 1
Ι 1
Ιν@@ 1
Ισ@@ 1
Καλ@@ 1
Κυ@@ 1
Μακ@@ 1
Μαρ@@ 1
Μεγ@@ 1
Μουσ@@ 1
Νικ@@ 1
Ο 1
Ολυμπιακ@@ 1
Παν@@ 1
Πανεπιστήμιο 1
Πλ@@ 1
Πολιτ@@ 1
Προ@@ 1
Πρό@@ 1
Ρω@@ 1
Σο@@ 1
Σύ@@ 1
Τ 1
Φιλ@@ 1
Χ 1
Ψ@@ 1
άδ@@ 1
άλ@@ 1
άλι 1
άνα@@ 1
άνθρω@@ 1
άρα 1
άφ@@ 1
άχ@@ 1
έας 1
έλ@@ 1
έπ@@ 1
έρα 1
ήθ@@ 1
ήλ 1
ήμ@@ 1
ίδα 1
ίκ@@ 1
ίλ@@ 1
ίμ@@ 1
ίων 1
ΰ@@ 1
αία 1
αβ@@ 1
αγι@@ 1
αζ@@ 1
αθ@@ 1
αμ@@ 1
αντι@@ 1
αρκ@@ 1
ατρ@@ 1
αχ@@ 1
βάλλ@@ 1
βασ@@ 1
βλ@@ 1
γέν@@ 1
γαρ@@ 1
γε@@ 1
γεν@@ 1
γκ@@ 1
γραφή 1
δέ@@ 1
δία 1
δε@@ 1
δεκα@@ 1
δη 1
διά@@ 1
δρά@@ 1
δυ@@ 1
είς 1
εδρος 1
ειν@@ 1
ειο 1
εκ@@ 1
εν@@ 1
επ@@ 1
επί@@ 1
εποχή 1
ηδ@@ 1
ημα 1
ηματ@@ 1
ην 1
θάνα@@ 1
θή@@ 1
θε@@ 1
θρω@@ 1
θυ@@ 1
ια 1
ιγ@@ 1
ικής 1
ικό 1
ιου@@ 1
ισ@@ 1
ιστ@@ 1
ιχ@@ 1
καλ@@ 1
καρ@@ 1
καρι@@ 1
κε@@ 1
κον@@ 1
κος 1
κρι@@ 1
κτ@@ 1
κυβ@@ 1
κυρι@@ 1
κόσμο 1
λευ@@ 1
λευθερ@@ 1
λεύ@@ 1
λη 1
λη@@ 1
λις 1
λλ@@ 1
λογ@@ 1
λος 1
μάν@@ 1
μένοι 1
μή 1
μαν@@ 1
ματ@@ 1
ματα 1
μεγ@@ 1
μεγάλη 1
μεσ@@ 1
μετρ@@ 1
μη@@ 1
μικρ@@ 1
μο@@ 1
μορ@@ 1
μπο@@ 1
μυ@@ 1
να 1
νησ@@ 1
νο@@ 1
νομ@@ 1
ντ@@ 1
οί 1
οί@@ 1
οβ@@ 1
ογ@@ 1
οδος 1
οι 1
οκ@@ 1
οκρατ@@ 1
ολόγ@@ 1
οξ@@ 1
οσ@@ 1
οσφ@@ 1
οφ@@ 1
ού 1
ούδ@@ 1
ούλ@@ 1
πά@@ 1
πέ@@ 1
πίσ@@ 1
παρ@@ 1
πει@@ 1
περ@@ 1
περί@@ 1
πι@@ 1
πλ@@ 1
πο@@ 1
ποι@@ 1
πολί@@ 1
πολη 1
πολλ@@ 1
πολύ 1
πρι@@ 1
προ@@ 1
ρέ@@ 1
ρία 1
ρατ@@ 1
ριν@@ 1
ρου@@ 1
ρω@@ 1
ρύ@@ 1
σε@@ 1
σημ@@ 1
σης 1
σμ@@ 1
στή@@ 1
σταση 1
στερ@@ 1
στη 1
στρα@@ 1
συλλογ@@ 1
συν@@ 1
σφ@@ 1
σω@@ 1
τέ@@ 1
τή@@ 1
τα 1
ται 1
ταλ@@ 1
ταρ@@ 1
τας 1
τε 1
τεκ@@ 1
τη@@ 1
τηγ@@ 1
τικ@@ 1
τική 1
τικό 1
τοιχ@@ 1
τον 1
τον@@ 1
του@@ 1
τού@@ 1
τρία 1
τρο@@ 1
τός 1
υνα@@ 1
υπερ@@ 1
υφ@@ 1
υχ@@ 1
φαν@@ 1
χει@@ 1
χλ@@ 1
χν@@ 1
χώ@@ 1
ψ@@ 1
ων@@ 1
ωνία 1
ωρ@@ 1
ωση 1
ϊ@@ 1
ϊκ@@ 1
όγ@@ 1
όδ@@ 1
όκ@@ 1
όλου 1
όμ@@ 1
όμεν@@ 1
όσ@@ 1
ότη@@ 1
όφ@@ 1
ύν@@ 1
ών@@ 1
ώρα 1
ϑ 1
ϫ 1
І@@ 1
Ј@@ 1
Ћ@@ 1
Ќ@@ 1
А 1
Ав@@ 1
Авто@@ 1
Ад@@ 1
Ай@@ 1
Ак@@ 1
Андре@@ 1
Б 1
Бар@@ 1
Бел@@ 1
Бер@@ 1
Би@@ 1
Боль@@ 1
Геор@@ 1
Ги@@ 1
Гра@@ 1
Дж@@ 1
Димит@@ 1
Дру@@ 1
Ев@@ 1
За 1
Запад@@ 1
Иван 1
Из@@ 1
Кали@@ 1
Констан@@ 1
Кор@@ 1
Крас@@ 1
Кро@@ 1
Ли@@ 1
Ло@@ 1
Мак@@ 1
Меж@@ 1
Михаил 1
Москов@@ 1
Му@@ 1
Никола@@ 1
Нор@@ 1
Ос@@ 1
П 1
Па@@ 1
Пар@@ 1
Пер@@ 1
Ра@@ 1
России 1
СССР 1
Сан@@ 1
Серге@@ 1
София 1
Сою@@ 1
Сте@@ 1
Сто@@ 1
Т 1
Ти@@ 1
Ту@@ 1
Тур@@ 1
Укра@@ 1
Федера@@ 1
Фран@@ 1
Чер@@ 1
Ш 1
Э 1
Ю 1
Ю@@ 1
Юж@@ 1
ави@@ 1
администра@@ 1
акаде@@ 1
ал 1
али@@ 1
американ@@ 1
андар@@ 1
арти@@ 1
ат@@ 1
ата@@ 1
ати@@ 1
ато@@ 1
б 1
бар@@ 1
бе 1
бер@@ 1
берг 1
би 1
бло@@ 1
боль@@ 1
бра@@ 1
бур@@ 1
бъ@@ 1
бы 1
бы@@ 1
бя@@ 1
вана 1
вар@@ 1
вари@@ 1
вая 1
вед@@ 1
вез@@ 1
вели@@ 1
вен 1
вена 1
верх@@ 1
вет 1
вода 1
воен@@ 1
воз@@ 1
вол@@ 1
вом 1
время 1
вро@@ 1
все 1
ву@@ 1
высо@@ 1
вых 1
ган@@ 1
гар@@ 1
гер@@ 1
глав@@ 1
гов@@ 1
гори@@ 1
государ@@ 1
граждан@@ 1
дан 1
дар@@ 1
дво@@ 1
де 1
действи@@ 1
дент@@ 1
дж@@ 1
дин 1
дни 1
еле@@ 1
ем 1
ер 1
ера 1
жа 1
жа@@ 1
ждение 1
женщи@@ 1
жи@@ 1
жил 1
жина 1
жо@@ 1
зар@@ 1
звез@@ 1
зда@@ 1
зем@@ 1
зи 1
изо@@ 1
инди@@ 1
ис@@ 1
искус@@ 1
истори@@ 1
ита 1
ити@@ 1
ито 1
иту@@ 1
йн@@ 1
ков@@ 1
кого 1
ком@@ 1
комите@@ 1
комму@@ 1
компания 1
кор@@ 1
корпу@@ 1
кос@@ 1
креп@@ 1
кс 1
кт 1
ктор 1
лах 1
лен 1
ление 1
лин 1
лич@@ 1
лка 1
лова 1
льная 1
льное 1
любо@@ 1
лё@@ 1
мана 1
мар@@ 1
мати@@ 1
между 1
международ@@ 1
ми 1
мин 1
миро@@ 1
мокра@@ 1
мона@@ 1
мыш@@ 1
мя 1
народ@@ 1
национа@@ 1
ние 1
низ@@ 1
ница 1
ной 1
нологи@@ 1
ности 1
ны 1
ны@@ 1
ные 1
нь 1
ня 1
ня@@ 1
няя 1
об@@ 1
обо@@ 1
од@@ 1
око@@ 1
окру@@ 1
оло@@ 1
организация 1
особ@@ 1
остро@@ 1
осу@@ 1
от 1
па 1
партия 1
пас@@ 1
пи 1
пла@@ 1
политиче@@ 1
пра@@ 1
прави 1
при 1
продук@@ 1
производ@@ 1
пу@@ 1
раб@@ 1
рабо@@ 1
раз@@ 1
разработ@@ 1
рай@@ 1
рал 1
рам@@ 1
ран 1
рас@@ 1
револю@@ 1
рен 1
рец 1
рии 1
рих 1
ров 1
рован@@ 1
рон@@ 1
ры@@ 1
ря 1
ря@@ 1
сбор@@ 1
связи 1
седате@@ 1
село 1
син 1
сия 1
ско 1
ского 1
сов@@ 1
совет@@ 1
сом 1
сон 1
спор@@ 1
сс@@ 1
сси@@ 1
ст 1
ста 1
ста@@ 1
ств 1
ства 1
ственной 1
ству 1
стер@@ 1
ститу@@ 1
стиче@@ 1
тат 1
тах 1
те 1
те@@ 1
тель@@ 1
тен@@ 1
техниче@@ 1
технологи@@ 1
тече@@ 1
тиче@@ 1
тия 1
ток 1
тон@@ 1
тора 1
труд@@ 1
тся 1
ту 1
тур@@ 1
тя@@ 1
уда@@ 1
управ@@ 1
усло@@ 1
ут@@ 1
уч@@ 1
фа 1
федера@@ 1
фло@@ 1
фрон@@ 1
футбо@@ 1
ход@@ 1
художе@@ 1
цията 1
ча 1
чат@@ 1
че 1
чело@@ 1
чение 1
чень 1
ческий 1
чина 1
чки 1
чно 1
чной 1
шая 1
шко@@ 1
шу@@ 1
ще 1
ще@@ 1
щен@@ 1
ър 1
ый 1
ье 1
эк@@ 1
электро@@ 1
ю@@ 1
язы@@ 1
ї 1
ў@@ 1
ѣ@@ 1
ѥ@@ 1
ґ@@ 1
ҙ@@ 1
Ү@@ 1
Ұ@@ 1
ұ@@ 1
Һ@@ 1
һ@@ 1
Ә@@ 1
ӣ 1
ө 1
Գ@@ 1
Է@@ 1
Լ@@ 1
Խ@@ 1
Կ@@ 1
Ն@@ 1
Փ@@ 1
ա 1
բ@@ 1
ը 1
լ@@ 1
խ 1
ծ@@ 1
հ 1
ղ@@ 1
չ@@ 1
ջ@@ 1
ս 1
ց 1
ւ 1
ւ@@ 1
ք@@ 1
և@@ 1
ְ 1
ֲ@@ 1
ֳ@@ 1
ַ 1
ֻ@@ 1
ׁ 1
ט 1
ך@@ 1
ס 1
װ@@ 1
؁ 1
؂ 1
؍ 1
ؑ 1
؛ 1
؟ 1
آ 1
آبادی 1
آر@@ 1
آز@@ 1
آزاد 1
آزادی 1
أت 1
أح@@ 1
أد@@ 1
أر@@ 1
أس 1
أص@@ 1
أل@@ 1
أنها 1
أُ@@ 1
إلى 1
إن@@ 1
ئر@@ 1
ئے 1
ائر 1
ابات 1
اة 1
اتا 1
اتح@@ 1
اثر 1
اخ@@ 1
ادات 1
ادل 1
ادي 1
ادہ 1
اذ 1
ارات 1
ارد 1
اري 1
ازی 1
اسب 1
اص 1
اع 1
اعة 1
اعدة 1
اعز@@ 1
اعظم 1
اغ@@ 1
اف 1
افظ@@ 1
افواج 1
اقتص@@ 1
اك 1
الأل@@ 1
الأولى 1
الإم@@ 1
الإي@@ 1
الا 1
الات 1
الاتحاد 1
الب 1
البط@@ 1
التص@@ 1
التق@@ 1
الث@@ 1
الثاني 1
الثق@@ 1
الجزائر 1
الجن@@ 1
الحدي@@ 1
الحر@@ 1
الحي@@ 1
الخار@@ 1
الذ@@ 1
الرئي@@ 1
الرو@@ 1
العالمية 1
العسك@@ 1
الفت@@ 1
الفر@@ 1
الفرنس@@ 1
القان@@ 1
القرن 1
الم 1
المتح@@ 1
المص@@ 1
المغ@@ 1
المنا@@ 1
المه@@ 1
المي@@ 1
النس@@ 1
النظ@@ 1
النف@@ 1
النق@@ 1
النه@@ 1
الی 1
الی@@ 1
امات 1
امة 1
امل 1
اند@@ 1
اندر 1
انس@@ 1
انسانی 1
انستان 1
انص@@ 1
انوں 1
انية 1
انہ 1
انی@@ 1
او 1
اول@@ 1
اون 1
اوی@@ 1
اُن 1
اٹ@@ 1
اچھ@@ 1
اک 1
اگ@@ 1
اہ 1
ایل 1
ایم 1
این 1
ایک 1
ایہ 1
باء 1
بات 1
باد 1
باز 1
باً 1
بج@@ 1
بري@@ 1
بريل 1
بز@@ 1
بسبب 1
بط@@ 1
بعة 1
بعض 1
بق@@ 1
بلکہ 1
بلی 1
بنا@@ 1
بند 1
بنی 1
بو 1
بھائی 1
بیت 1
تاب@@ 1
تاج 1
تار@@ 1
تب 1
تج@@ 1
تح@@ 1
ترقی 1
تش@@ 1
تض@@ 1
تل@@ 1
تلا@@ 1
تمام 1
تنظیم 1
توا@@ 1
توب@@ 1
تون 1
توں 1
تين 1
تُ@@ 1
تھ@@ 1
ثار 1
ثلاثة 1
ثم 1
جار@@ 1
جب 1
جد@@ 1
جر 1
جزی@@ 1
جع@@ 1
جم 1
جماعة 1
جماعت 1
جمع 1
جمہوریہ 1
جنا@@ 1
جنوبی 1
جنگ 1
جوا@@ 1
جون@@ 1
جے 1
حز@@ 1
حزب 1
حس@@ 1
حسب 1
حق 1
حق@@ 1
حقوق 1
حقی@@ 1
حل 1
حل@@ 1
خانہ 1
خت 1
خرج 1
خلا@@ 1
خلی@@ 1
خواجہ 1
خی 1
دات 1
داخ@@ 1
داری 1
دری@@ 1
دریا 1
دریائے 1
دست@@ 1
دش@@ 1
دور 1
دور@@ 1
دوس@@ 1
دوسری 1
دوں 1
دى 1
دیا 1
دے 1
ذات 1
ذر@@ 1
ذكر 1
ذلك 1
رائے 1
راج@@ 1
رانی 1
راہ@@ 1
ربی 1
رر 1
رس@@ 1
رن 1
رنگ 1
روز 1
روز@@ 1
روف 1
ريقة 1
ریت 1
ریلوے 1
زار 1
زبان 1
زند@@ 1
زيد 1
زیادہ 1
زیر 1
سا@@ 1
سات 1
سال@@ 1
سام@@ 1
سب 1
ست 1
سری 1
سك@@ 1
سل 1
سلط@@ 1
سلی@@ 1
سمجھ@@ 1
سنة 1
سندھ 1
سو 1
سياسي 1
سٹ 1
سٹ@@ 1
سپ@@ 1
سہ 1
سینٹ 1
سے 1
شاع@@ 1
شاعری 1
شر 1
شہ@@ 1
شیخ 1
صدر 1
صل 1
صن@@ 1
ضر@@ 1
ضم 1
طب@@ 1
طری@@ 1
طلب 1
طی@@ 1
ظر 1
عات 1
عام 1
عام@@ 1
عرا@@ 1
عرب 1
عرض 1
عز@@ 1
عط@@ 1
عظ@@ 1
عق@@ 1
عم 1
عمل 1
عه 1
عية 1
عين 1
غة 1
غر@@ 1
غي@@ 1
غيرة 1
ـ 1
فاق 1
فرا@@ 1
فرو@@ 1
فس@@ 1
فض@@ 1
فقد 1
فلم 1
فن 1
قائم 1
قانون 1
قد 1
قدر 1
قع 1
قلعہ 1
قومی 1
قیام 1
قین 1
كبير 1
كتاب 1
كلي@@ 1
كن@@ 1
كومة 1
كون 1
كي@@ 1
لأ@@ 1
لإ@@ 1
لاء 1
لائی 1
لاح 1
لاح@@ 1
لاس 1
لاہور 1
لب 1
لس 1
لف 1
لف@@ 1
لفة 1
لكن 1
للا@@ 1
لم@@ 1
لن@@ 1
لول 1
ليس 1
ليل 1
لکھ@@ 1
لگ@@ 1
لیگ 1
مؤس@@ 1
مات 1
مار 1
مارے 1
مالی 1
مب@@ 1
متا@@ 1
متحدہ 1
مثل 1
مجموعة 1
مجھ@@ 1
محل 1
مختلف 1
مذہب 1
مرا@@ 1
مرة 1
مرکز 1
مرکزی 1
مط@@ 1
مف@@ 1
منظ@@ 1
منٹ 1
موت 1
موسم 1
موض@@ 1
میت 1
میہ 1
نائ@@ 1
نامہ 1
نت@@ 1
ندية 1
نسی 1
نط@@ 1
نقل 1
نل 1
نو 1
نوان 1
نى 1
نٹ 1
نک 1
نہیں 1
هة 1
هذ@@ 1
هم 1
هو 1
وإ@@ 1
واء 1
وات 1
واج 1
واح@@ 1
واز 1
واق@@ 1
والوں 1
والی 1
وام 1
وان@@ 1
وجد 1
وز 1
وزیر 1
وس 1
وسی 1
وص 1
وض@@ 1
وط 1
وع@@ 1
وغ@@ 1
وفي 1
وك@@ 1
ولي@@ 1
ومات 1
وهو 1
وير 1
ويل 1
وٹ 1
وہ 1
يت 1
يح@@ 1
يخ@@ 1
يران 1
يز@@ 1
يس 1
يف 1
ينا@@ 1
يني@@ 1
يه@@ 1
يوليو 1
يين 1
ً@@ 1
١@@ 1
٣ 1
٣@@ 1
٥ 1
ٲ@@ 1
ٹاؤن 1
ٹر@@ 1
ٹو 1
ٹی@@ 1
ٺ 1
ٻ 1
پ 1
پان@@ 1
پانی 1
پاکستانی 1
پر 1
پو@@ 1
پورٹ 1
پھی@@ 1
پہ@@ 1
ٿ 1
ڀ 1
ڀ@@ 1
ڃ 1
ڄ 1
چار 1
چند 1
چھ 1
چی 1
چین 1
ڇ 1
ڈاکٹر 1
ڈی@@ 1
ډ 1
ڊ@@ 1
ڍ 1
ڏ 1
ڑا 1
ڑی 1
ڦ 1
کال@@ 1
کان 1
کان@@ 1
کت 1
کت@@ 1
کردہ 1
کرو@@ 1
کل 1
کل@@ 1
کور@@ 1
کوشش 1
کیونکہ 1
ڪ 1
ګ@@ 1
گھر 1
ڱ 1
ڳ 1
ڵ@@ 1
ڻ 1
ہا@@ 1
ہار@@ 1
ہند 1
ہند@@ 1
ہندوستان 1
ہو 1
ہوائی 1
ۂ 1
ۃ@@ 1
ۆ 1
یرہ 1
یور@@ 1
ۏ@@ 1
ے@@ 1
ۓ@@ 1
ۤ 1
ۤ@@ 1
۰ 1
۱@@ 1
۲ 1
۳ 1
۹ 1
ܒ 1
ܓ@@ 1
ܕ@@ 1
ܥ@@ 1
ܩ@@ 1
ܬ 1
ܲ@@ 1
ހ 1
ށ@@ 1
އ 1
ވ 1
ދ 1
ގ@@ 1
ޔ@@ 1
ޖ 1
ޖ@@ 1
ޞ@@ 1
ޫ@@ 1
ޮ@@ 1
ߎ 1
ߖ@@ 1
ߞ@@ 1
ߟ@@ 1
߲ 1
ऻ 1
ॎ@@ 1
ॡ 1
ॢ 1
ॶ@@ 1
ॻ 1
ঃ 1
ঃ@@ 1
অ 1
আ 1
ঐ@@ 1
ছ 1
ভ 1
ৄ@@ 1
ৎ@@ 1
৪@@ 1
৬ 1
৭ 1
৭@@ 1
৮ 1
৮@@ 1
৹ 1
ਈ@@ 1
ਊ 1
ਊ@@ 1
ਛ@@ 1
ਝ@@ 1
ਠ@@ 1
ਡ 1
ਢ@@ 1
ਫ 1
ਭ 1
੨ 1
੩ 1
੪ 1
੯ 1
ઇ 1
એ 1
એ@@ 1
ખ 1
ઝ@@ 1
ટ 1
ડ 1
ઢ@@ 1
ફ 1
ય 1
ષ 1
ષ@@ 1
હ 1
઼ 1
ુ 1
ૃ 1
ૈ 1
ૌ@@ 1
૨ 1
૩@@ 1
૪ 1
૫ 1
૭ 1
૯ 1
ଅ 1
ଅ@@ 1
ଆ@@ 1
ଈ 1
ଉ 1
ଊ 1
ଋ 1
ଐ 1
ଔ@@ 1
ଘ 1
ଛ 1
ଛ@@ 1
ଝ 1
ଝ@@ 1
ଟ 1
ଠ@@ 1
ଥ 1
ଫ 1
ଭ 1
ଯ 1
ଲ@@ 1
ହ 1
ୂ 1
ୃ 1
୦ 1
୧ 1
୧@@ 1
୨ 1
୪ 1
୫ 1
୬ 1
୭ 1
୮ 1
୮@@ 1
୯ 1
୯@@ 1
ஃ 1
அ 1
ஆ 1
ஊ@@ 1
ஏ@@ 1
ஐ@@ 1
ஒ 1
ஒ@@ 1
ஓ 1
ஞ 1
ஶ 1
ஹ 1
ெ 1
௭@@ 1
௳ 1
ఈ@@ 1
ఝ@@ 1
థ 1
థ@@ 1
ఫ 1
ఫ@@ 1
భ 1
ఱ 1
ఱ@@ 1
ష@@ 1
ొ 1
ಃ 1
ಓ@@ 1
ಚ 1
ಝ@@ 1
ಠ 1
ಫ 1
ಭ 1
ೂ 1
ೇ 1
ೈ 1
ೊ 1
೦@@ 1
೧ 1
೧@@ 1
೫ 1
ഇ 1
ഉ 1
ഊ@@ 1
ഏ@@ 1
ഒ@@ 1
ഓ@@ 1
ഖ@@ 1
ഗ 1
ഢ@@ 1
ഹ 1
ൂ 1
ൊ 1
ൺ 1
ൻ@@ 1
ൽ@@ 1
ආ@@ 1
ඟ@@ 1
ච@@ 1
ට 1
ඨ@@ 1
ණ 1
ද 1
භ@@ 1
ශ@@ 1
ැ 1
ූ@@ 1
ෛ@@ 1
ෝ@@ 1
คร@@ 1
จ 1
จัก@@ 1
จักร@@ 1
จังหวัด 1
จุ@@ 1
ฉ@@ 1
ชนะ 1
ชาติ 1
ชิ@@ 1
ชุ@@ 1
ซิ@@ 1
ฌ@@ 1
ญ 1
ฐ@@ 1
ฐาน 1
ดา@@ 1
ดิน@@ 1
ดี 1
ต@@ 1
ตร 1
ตำ@@ 1
ติ 1
ตุ@@ 1
ทร@@ 1
ทั@@ 1
ทิ@@ 1
ธ 1
นา@@ 1
นาง 1
บา@@ 1
ปก@@ 1
ปฏิ@@ 1
ปร@@ 1
ปล@@ 1
ผ@@ 1
พ.ศ. 1
พุทธ@@ 1
ฟ 1
ภ@@ 1
ภา@@ 1
มพ@@ 1
มหาวิทยาล@@ 1
มั@@ 1
มี 1
รว@@ 1
ระ@@ 1
รั@@ 1
รา 1
ราช 1
ราช@@ 1
ราม 1
รี@@ 1
ฤ@@ 1
ล 1
ลา 1
ลา@@ 1
ลิ@@ 1
ว 1
วง 1
วง@@ 1
วิ@@ 1
วี 1
วุ@@ 1
ศาส@@ 1
ส 1
สง@@ 1
สม@@ 1
สร@@ 1
สะ@@ 1
สิ@@ 1
สิง@@ 1
สุ@@ 1
ฬ@@ 1
อก 1
อั@@ 1
อาณา@@ 1
อำนา@@ 1
อิน@@ 1
อี@@ 1
ั@@ 1
ักษ@@ 1
ัน@@ 1
ัย 1
ัย@@ 1
า 1
าน 1
าน@@ 1
ำ 1
ิ@@ 1
ิง 1
ิด@@ 1
ี 1
ีย@@ 1
ียง@@ 1
ื 1
เก@@ 1
เกาะ 1
เงิน 1
เจ@@ 1
เช@@ 1
เด 1
เด@@ 1
เท@@ 1
เปล@@ 1
เว@@ 1
เอ@@ 1
โค@@ 1
โย@@ 1
โลก 1
๐@@ 1
๑ 1
๑@@ 1
ກ@@ 1
ຄ@@ 1
ຊ@@ 1
ຍ 1
ບ 1
ມ 1
ຣ 1
ຣ@@ 1
ວ 1
ຮ@@ 1
ັ 1
ຳ@@ 1
ິ@@ 1
ີ 1
ີ@@ 1
ື@@ 1
ຸ@@ 1
ູ 1
ົ@@ 1
ໄ@@ 1
່ 1
༌ 1
ཅ@@ 1
ཎ 1
ཏ 1
ཕ 1
ཙ 1
ཚ 1
ཝ 1
ཻ 1
ྔ 1
ྕ@@ 1
ྤ 1
ྩ 1
ྫ 1
ྰ@@ 1
ྲ 1
ླ 1
ဉ 1
ည@@ 1
ရ 1
လ 1
သ 1
ဦ@@ 1
ဴ@@ 1
ဵ@@ 1
၁@@ 1
၅ 1
၇@@ 1
၉ 1
ၵ 1
ၵ@@ 1
ၽ@@ 1
ႆ@@ 1
ႇ 1
ႈ 1
ა 1
ე 1
ზ@@ 1
თ 1
მ@@ 1
ო 1
პ@@ 1
ს 1
უ@@ 1
ფ@@ 1
ღ@@ 1
ყ@@ 1
ላ 1
ላ@@ 1
ሌ 1
ሐ@@ 1
ሚ@@ 1
ማ@@ 1
ም@@ 1
ሥ@@ 1
ረ 1
ረ@@ 1
ሪ@@ 1
ራ 1
ራ@@ 1
ር 1
ሮ@@ 1
ሳ@@ 1
በ@@ 1
ባ 1
ቤ@@ 1
ተ 1
ታ@@ 1
ኢ@@ 1
ኦ@@ 1
ካ 1
የ@@ 1
ይ 1
ዮ@@ 1
ደ 1
ዲ 1
ድ 1
ጋ@@ 1
ጵ@@ 1
ፋ@@ 1
ፍ@@ 1
ᐟ@@ 1
ᐧ@@ 1
ᐨ 1
ᑖ@@ 1
ᑭ@@ 1
ᑯ 1
ᒃ 1
ᒡ@@ 1
ᒣ@@ 1
ᒧ@@ 1
ᓗ 1
ᕗ@@ 1
ᕿ@@ 1
ᖃ@@ 1
ᖅ@@ 1
ᖹ@@ 1
គ 1
ឃ@@ 1
ង@@ 1
ឌ 1
ត@@ 1
ថ@@ 1
ល@@ 1
វ 1
ឝ@@ 1
ឧ@@ 1
ា 1
ិ 1
ី 1
ួ 1
ួ@@ 1
ោ 1
ះ 1
៉ 1
់ 1
៌ 1
៍ 1
១ 1
៧ 1
᠌ 1
ᠩ@@ 1
ᠪ@@ 1
ᠭ 1
ᠭ@@ 1
ᠮ@@ 1
ᠯ 1
ᠴ@@ 1
ᮒ@@ 1
ᮓ 1
ᮞ@@ 1
ᮥ@@ 1
ᱞ 1
ᱞ@@ 1
ᱢ 1
ᱥ@@ 1
ᱧ@@ 1
ᱨ 1
ᱰ 1
ᱰ@@ 1
ᱱ 1
ᱲ@@ 1
ᱵ 1
ᱷ 1
ᱸ@@ 1
ᱹ@@ 1
ᱺ@@ 1
ᱽ 1
ᵐ@@ 1
ᵻ@@ 1
ḇ 1
ḇ@@ 1
Ḏ@@ 1
ḗ@@ 1
ḛ@@ 1
ḩ@@ 1
ḱ 1
ḳ 1
ḳ@@ 1
Ḵ@@ 1
ṉ 1
Ṛ@@ 1
ṵ@@ 1
ạ 1
ạ@@ 1
ạng 1
ạp 1
ải 1
ản 1
ất 1
ầ@@ 1
ần 1
ật 1
ắc 1
ẵ@@ 1
ẻ 1
ẽ 1
ẽ@@ 1
ế 1
ến 1
ếu 1
ền 1
ệ 1
ệ@@ 1
ệm 1
ệu 1
ỉnh 1
ị 1
ị@@ 1
ọ 1
ọc 1
ồ 1
ồn 1
ổ 1
ộ 1
ộc 1
ới 1
Ờ 1
ở 1
ợ 1
ục 1
ứ@@ 1
ừ 1
ừa 1
ỳ 1
ἀ 1
ἅ@@ 1
ἔ@@ 1
Ἐ@@ 1
Ἑ@@ 1
ἡ 1
ἢ 1
ἧ@@ 1
Ἠ@@ 1
Ἡ@@ 1
Ἢ 1
ἶ@@ 1
ἷ@@ 1
Ἴ@@ 1
ὁ 1
Ὄ@@ 1
ὑ@@ 1
Ὑ@@ 1
ὠ@@ 1
Ὠ@@ 1
ὰ@@ 1
ὴ 1
ὸ 1
ᾱ@@ 1
᾽ 1
ῆ 1
‐ 1
⁴ 1
⁵ 1
⁶ 1
₀ 1
₁ 1
₄ 1
₈ 1
₪ 1
₴ 1
ℂ 1
ℝ 1
℞ 1
⅜ 1
⅝ 1
Ⅱ 1
↺ 1
⇌ 1
⇔ 1
∃ 1
∏ 1
∗ 1
∩ 1
∪ 1
≃ 1
≫ 1
⊃ 1
⊙ 1
⌠ 1
┼ 1
╘ 1
□ 1
► 1
◦ 1
☀ 1
☊ 1
☒ 1
☫ 1
☸ 1
♂ 1
♆ 1
♎ 1
♐ 1
♣ 1
♥ 1
⚥ 1
⚧ 1
✈ 1
❣ 1
ⲏ@@ 1
ⲙ 1
ⴱ@@ 1
ⴹ@@ 1
ⴽ 1
ⵇ@@ 1
ⵊ@@ 1
ⵍ 1
ⵔ 1
ⵖ 1
ⵛ@@ 1
ⵟ@@ 1
ⵡ@@ 1
々@@ 1
〇 1
《 1
》 1
あ 1
い 1
え@@ 1
お 1
か 1
ぎ@@ 1
く@@ 1
ぐ@@ 1
こ@@ 1
ご@@ 1
さ 1
じ@@ 1
ず 1
ず@@ 1
せ@@ 1
ち 1
っ 1
つ 1
つ@@ 1
て@@ 1
で@@ 1
と 1
に@@ 1
は@@ 1
ば 1
ば@@ 1
ひ@@ 1
び 1
び@@ 1
へ 1
べ@@ 1
ほ 1
ぼ 1
ぽ 1
も@@ 1
ゅ@@ 1
ろ@@ 1
ウ@@ 1
エ 1
ォ@@ 1
カ 1
グ 1
ケ 1
サ 1
ザ 1
ゼ@@ 1
ソ@@ 1
ッ 1
デ 1
ナ 1
ノ@@ 1
ヒ@@ 1
フ@@ 1
ブ 1
ホ 1
ホ@@ 1
ポ@@ 1
ミ 1
モ 1
ャ@@ 1
ュ 1
ユ@@ 1
ヨ@@ 1
ヱ 1
䘯@@ 1
一 1
一个 1
丁 1
三 1
上 1
下@@ 1
与@@ 1
世 1
世界 1
世纪 1
业 1
両@@ 1
严@@ 1
中心 1
串@@ 1
为 1
主 1
之 1
乌@@ 1
乗@@ 1
乙@@ 1
乞@@ 1
也 1
习@@ 1
了@@ 1
争 1
争@@ 1
事件 1
井 1
亜@@ 1
亞@@ 1
交@@ 1
亦@@ 1
产@@ 1
亭 1
亭@@ 1
亻 1
仏 1
仏@@ 1
仑@@ 1
仔@@ 1
仙@@ 1
代 1
代@@ 1
代表 1
令@@ 1
仮@@ 1
件@@ 1
任@@ 1
伊@@ 1
休 1
伝@@ 1
伟@@ 1
伦 1
伴 1
伽 1
佐 1
体 1
作 1
你@@ 1
侍 1
依@@ 1
侠@@ 1
俪 1
修@@ 1
俱@@ 1
俵 1
倍@@ 1
倩@@ 1
倪@@ 1
倭@@ 1
偵@@ 1
傲@@ 1
働 1
働@@ 1
僮 1
儒 1
儒@@ 1
儲@@ 1
儿@@ 1
光 1
党@@ 1
內@@ 1
兩 1
八 1
公 1
兰@@ 1
共@@ 1
关 1
典@@ 1
冀 1
内 1
冊 1
冊@@ 1
写@@ 1
军 1
冬@@ 1
冲 1
冲@@ 1
冷@@ 1
凤 1
凰 1
函 1
刀 1
刃 1
分@@ 1
刊@@ 1
刘@@ 1
刚 1
初@@ 1
利 1
利@@ 1
刷@@ 1
券 1
券@@ 1
剣 1
劉@@ 1
劍 1
力@@ 1
功 1
労@@ 1
勇@@ 1
北 1
匡 1
匹@@ 1
十 1
千 1
午@@ 1
卍 1
华 1
卐@@ 1
協@@ 1
単@@ 1
博 1
卡 1
卡@@ 1
卫@@ 1
厳@@ 1
参 1
叉 1
叉@@ 1
友 1
口@@ 1
古 1
台@@ 1
右 1
司 1
吉 1
向@@ 1
君 1
含@@ 1
呂 1
呂@@ 1
周 1
咒 1
哈@@ 1
員@@ 1
哥 1
商 1
喀 1
噶@@ 1
四 1
回@@ 1
团 1
团@@ 1
団 1
図 1
固@@ 1
图 1
園@@ 1
圓 1
圖 1
團 1
圜 1
土 1
圭 1
地区 1
圳 1
坂 1
坂@@ 1
坊 1
坑@@ 1
坙 1
坦 1
型 1
垣 1
城 1
埔@@ 1
域 1
基 1
堂 1
場@@ 1
塩@@ 1
增@@ 1
墨 1
墾@@ 1
壊 1
壮 1
壹@@ 1
壽@@ 1
备@@ 1
多 1
夜 1
夢 1
奈@@ 1
奉@@ 1
套@@ 1
奠 1
奴@@ 1
奶 1
奶@@ 1
好 1
好@@ 1
妞 1
始 1
姑@@ 1
委 1
姦 1
娼@@ 1
婁@@ 1
婉@@ 1
婦 1
媛 1
嫻 1
季@@ 1
学 1
学院 1
宀 1
宁@@ 1
守 1
守@@ 1
宋 1
完成 1
定 1
宝@@ 1
实@@ 1
宠@@ 1
宣@@ 1
宿@@ 1
寅 1
寒 1
實@@ 1
寧 1
寨@@ 1
寸 1
寺@@ 1
封@@ 1
専@@ 1
專@@ 1
尊@@ 1
尋@@ 1
少 1
尺 1
尺@@ 1
届@@ 1
屋@@ 1
屏 1
屠@@ 1
岗@@ 1
岡@@ 1
岩 1
岳@@ 1
岸@@ 1
峡 1
峰 1
峰@@ 1
峽 1
崎@@ 1
崩@@ 1
左@@ 1
巻@@ 1
市@@ 1
师 1
希@@ 1
帖 1
帛@@ 1
幌@@ 1
幞@@ 1
平方@@ 1
幹@@ 1
幻@@ 1
幽@@ 1
広 1
庄@@ 1
库 1
店 1
庙 1
庭 1
庶@@ 1
廈 1
廉@@ 1
廊 1
廓 1
廟 1
弁 1
弥 1
弧@@ 1
强@@ 1
弾@@ 1
彊 1
当@@ 1
彦 1
彦@@ 1
彬@@ 1
彭@@ 1
役 1
征 1
很@@ 1
後@@ 1
徒@@ 1
得@@ 1
御@@ 1
徳 1
德@@ 1
心 1
必@@ 1
志 1
念@@ 1
怀 1
怡 1
怡@@ 1
怪 1
怪@@ 1
恒 1
恥 1
恩 1
悟@@ 1
悲@@ 1
想 1
愚 1
慈 1
慧 1
慶@@ 1
應@@ 1
戀@@ 1
戦@@ 1
截 1
戰 1
所@@ 1
扇@@ 1
扎@@ 1
打 1
批@@ 1
把 1
抗@@ 1
拙 1
拳@@ 1
持 1
持@@ 1
指@@ 1
挙 1
损 1
揚@@ 1
搜@@ 1
携 1
携@@ 1
摩 1
播@@ 1
擒 1
改 1
政 1
故@@ 1
效@@ 1
敏 1
救 1
教育 1
散 1
斤 1
断@@ 1
斯@@ 1
方 1
於@@ 1
旅@@ 1
旗 1
无 1
无@@ 1
旭@@ 1
昆@@ 1
昌@@ 1
映 1
映@@ 1
春 1
显@@ 1
晋@@ 1
晨 1
晶 1
曇 1
曇@@ 1
書 1
曼 1
替 1
最@@ 1
會 1
會@@ 1
朗 1
末@@ 1
札@@ 1
术 1
李 1
村@@ 1
来 1
杭@@ 1
杷 1
松 1
板 1
板@@ 1
极 1
枇@@ 1
枚 1
枳@@ 1
柬@@ 1
柯@@ 1
树@@ 1
根 1
格@@ 1
栽 1
桂@@ 1
桃 1
桜@@ 1
桥 1
桶 1
桶@@ 1
梆@@ 1
條 1
梦 1
梦@@ 1
械 1
梶@@ 1
棋 1
棚 1
椅@@ 1
検@@ 1
椰@@ 1
楊@@ 1
楚 1
楞@@ 1
業 1
極@@ 1
楼@@ 1
樂 1
樱@@ 1
樹@@ 1
橋@@ 1
機@@ 1
次@@ 1
止 1
死@@ 1
殉 1
殉@@ 1
殿 1
毅@@ 1
母 1
母@@ 1
毒 1
毘@@ 1
毛@@ 1
毫 1
氏@@ 1
气 1
气@@ 1
気 1
氣 1
氣@@ 1
氷@@ 1
永 1
永@@ 1
池@@ 1
汶@@ 1
沃@@ 1
沙 1
沧@@ 1
河@@ 1
沸@@ 1
油 1
泊 1
泰@@ 1
洋@@ 1
洗@@ 1
津 1
洪@@ 1
洲@@ 1
活@@ 1
流@@ 1
浅@@ 1
济 1
济@@ 1
浙 1
浪@@ 1
浮@@ 1
液 1
淘@@ 1
深@@ 1
清 1
渋@@ 1
渕@@ 1
湄@@ 1
湾 1
湾@@ 1
源@@ 1
準@@ 1
溪@@ 1
滌@@ 1
滑 1
滿@@ 1
漆@@ 1
漢 1
漿 1
澜@@ 1
濃@@ 1
瀬 1
灣@@ 1
灸 1
灼@@ 1
為 1
為@@ 1
烏@@ 1
焚@@ 1
然 1
熙@@ 1
熟@@ 1
燊 1
燒@@ 1
燕 1
燕@@ 1
爱 1
爸 1
爾 1
片 1
版@@ 1
牌 1
牌@@ 1
牛@@ 1
牟@@ 1
犬 1
独@@ 1
狮@@ 1
猫 1
獞 1
獣 1
玄@@ 1
环@@ 1
现@@ 1
玲 1
珞@@ 1
琉@@ 1
琛 1
琵@@ 1
琶 1
瑜 1
瑜@@ 1
瑠@@ 1
瑩 1
璃@@ 1
甘@@ 1
產@@ 1
産@@ 1
甲@@ 1
申@@ 1
电 1
男 1
画@@ 1
界 1
畜@@ 1
畿@@ 1
疾@@ 1
癘 1
登@@ 1
發 1
白 1
皃 1
盆@@ 1
监@@ 1
盘@@ 1
盛@@ 1
盟 1
相 1
相@@ 1
省@@ 1
眉@@ 1
督@@ 1
瞳 1
瞿@@ 1
矢 1
知@@ 1
砂 1
研@@ 1
磁@@ 1
磨@@ 1
示@@ 1
礼 1
祝@@ 1
祠 1
祥 1
禎@@ 1
禮 1
私 1
秘@@ 1
秦@@ 1
移@@ 1
程@@ 1
稚@@ 1
穴 1
立 1
競@@ 1
竹 1
笏@@ 1
第一@@ 1
等 1
等@@ 1
筑@@ 1
策 1
简@@ 1
管@@ 1
箭@@ 1
箱 1
節 1
篠@@ 1
篪 1
簡@@ 1
簫 1
簾 1
簿 1
粁 1
糎 1
糾@@ 1
約@@ 1
納 1
紗@@ 1
級@@ 1
紛 1
素@@ 1
紫@@ 1
紹@@ 1
組@@ 1
経 1
統@@ 1
絲@@ 1
網@@ 1
線 1
緬@@ 1
繁@@ 1
織 1
織@@ 1
约 1
级@@ 1
纳@@ 1
组 1
组@@ 1
组织 1
细@@ 1
经@@ 1
统@@ 1
绿@@ 1
罔@@ 1
罗 1
群@@ 1
翁 1
翁@@ 1
習@@ 1
耀 1
考 1
而@@ 1
耕 1
耻 1
联@@ 1
聖@@ 1
聞 1
聯@@ 1
肃 1
肇@@ 1
胎 1
胖@@ 1
胡 1
胡@@ 1
胶@@ 1
脉 1
脏@@ 1
腑 1
腹@@ 1
腺 1
腻@@ 1
腾@@ 1
膏 1
臂 1
臨@@ 1
自 1
臺 1
舜@@ 1
航 1
般 1
船@@ 1
色 1
艺@@ 1
节 1
芳 1
芳@@ 1
芸@@ 1
芽@@ 1
苏@@ 1
英 1
范@@ 1
荣@@ 1
药@@ 1
荼@@ 1
莊@@ 1
莱 1
菊 1
菜 1
营@@ 1
萧@@ 1
葬 1
蒋@@ 1
蒙@@ 1
蒲@@ 1
蓝 1
蓮@@ 1
蕭@@ 1
薄@@ 1
薬 1
藤 1
藩@@ 1
蘭 1
虛@@ 1
融@@ 1
蠡@@ 1
血 1
術@@ 1
衛 1
衽 1
袍 1
袴 1
袴@@ 1
袵 1
裁 1
裈 1
裕@@ 1
裴@@ 1
製@@ 1
褶 1
褶@@ 1
褾 1
襠 1
襲@@ 1
襴@@ 1
親@@ 1
観 1
觀@@ 1
觉 1
解 1
記@@ 1
許@@ 1
訳 1
訶 1
診@@ 1
証 1
証@@ 1
詔 1
試@@ 1
話 1
語@@ 1
誠 1
読 1
論@@ 1
謝 1
譜 1
警@@ 1
護 1
训 1
议@@ 1
记 1
论 1
论@@ 1
诃@@ 1
说 1
诸@@ 1
谱 1
豆 1
豊 1
豫 1
豬 1
貞@@ 1
財 1
貨@@ 1
販 1
貫@@ 1
貴 1
買 1
賓 1
賞 1
賢 1
賣 1
質 1
贝 1
赋 1
赛@@ 1
赣 1
超 1
越@@ 1
趙 1
足@@ 1
跃@@ 1
距@@ 1
跡 1
路 1
踊 1
車 1
軌@@ 1
軒 1
転@@ 1
輪 1
輪@@ 1
辦@@ 1
辰 1
运 1
近 1
进 1
迷@@ 1
退@@ 1
逆@@ 1
逢@@ 1
連@@ 1
週@@ 1
逵 1
遊@@ 1
運@@ 1
達 1
達@@ 1
遠 1
選@@ 1
邊 1
邊@@ 1
郎@@ 1
郑@@ 1
郞 1
郡 1
都 1
鄂 1
鄰 1
酒 1
酒@@ 1
酢@@ 1
里 1
量@@ 1
針 1
釦 1
鈕 1
鉉 1
鉑 1
鉴 1
銅@@ 1
銖 1
銖@@ 1
鎖@@ 1
鎬 1
鑫 1
鑾@@ 1
针@@ 1
钦 1
钱 1
铜@@ 1
锡 1
镜@@ 1
长@@ 1
開 1
闘@@ 1
關@@ 1
门@@ 1
闪@@ 1
阎 1
阪 1
阶@@ 1
陡 1
院@@ 1
陰@@ 1
陸@@ 1
隆@@ 1
隊 1
階@@ 1
隧@@ 1
隶 1
雀 1
雙@@ 1
雞 1
離 1
難@@ 1
雨 1
雨@@ 1
雪 1
零 1
霑 1
霞@@ 1
静 1
面 1
韓 1
韓@@ 1
頁 1
頂@@ 1
領 1
領@@ 1
頤@@ 1
頭 1
顺 1
领 1
颐@@ 1
飞@@ 1
飯 1
飯@@ 1
餐@@ 1
首@@ 1
馬 1
験 1
马 1
驻@@ 1
骄@@ 1
骑@@ 1
骨 1
骨@@ 1
鬆 1
魂 1
魄 1
魅@@ 1
魏 1
魔 1
鮮@@ 1
鰯 1
鱲@@ 1
鳳 1
鳳@@ 1
鵝@@ 1
鶯@@ 1
鸭@@ 1
鹏 1
麗 1
麿 1
黑 1
黒@@ 1
黨 1
鼓@@ 1
鼻 1
鼻@@ 1
齐 1
齡 1
龄 1
龜@@ 1
ꠁ 1
ꠁ@@ 1
ꠂ 1
ꠇ@@ 1
ꠈ@@ 1
ꠉ 1
ꠉ@@ 1
ꠋ 1
ꠌ@@ 1
ꠘ 1
ꠛ@@ 1
ꠝ 1
ꠠ 1
ꠤ@@ 1
ꠥ@@ 1
ꦗ@@ 1
ꦧ@@ 1
ꦮ 1
ꦱ@@ 1
ꯉ@@ 1
ꯋ@@ 1
ꯍ 1
ꯑ@@ 1
ꯒ@@ 1
ꯔ 1
ꯕ@@ 1
ꯚ@@ 1
ꯛ 1
ꯜ 1
ꯞ@@ 1
ꯠ 1
ꯢ@@ 1
ꯥ 1
ꯩ 1
가 1
각 1
각@@ 1
간 1
갓@@ 1
강 1
거@@ 1
걸@@ 1
격@@ 1
경 1
계 1
계@@ 1
곡 1
과@@ 1
광 1
괜@@ 1
괴 1
군 1
궁@@ 1
권@@ 1
규@@ 1
근@@ 1
길 1
깃 1
깃@@ 1
깍@@ 1
끝@@ 1
난 1
난@@ 1
남 1
낮@@ 1
낸@@ 1
녀@@ 1
념@@ 1
농@@ 1
는@@ 1
단 1
달@@ 1
댕@@ 1
더 1
덕@@ 1
던@@ 1
돌@@ 1
두 1
뒤@@ 1
득@@ 1
떡 1
뜻 1
뜻@@ 1
란@@ 1
랑 1
랜 1
랜@@ 1
량@@ 1
럭@@ 1
럼@@ 1
려 1
력@@ 1
로@@ 1
록@@ 1
론 1
뢰 1
루 1
류@@ 1
를 1
름 1
릭 1
림 1
립@@ 1
막@@ 1
만 1
말 1
말@@ 1
맘 1
맞@@ 1
맨 1
모@@ 1
몸@@ 1
무 1
물 1
뭉@@ 1
미 1
민 1
밀@@ 1
바@@ 1
박 1
받@@ 1
발@@ 1
밤@@ 1
번@@ 1
법 1
병 1
병@@ 1
보 1
불@@ 1
블@@ 1
빈@@ 1
빔 1
서 1
서@@ 1
섶 1
센 1
센@@ 1
소@@ 1
속@@ 1
솟@@ 1
송 1
쇄@@ 1
수 1
순@@ 1
술@@ 1
숫@@ 1
슬 1
슬@@ 1
쌈 1
쌍@@ 1
악 1
않@@ 1
암@@ 1
압@@ 1
앞@@ 1
앵@@ 1
양@@ 1
억@@ 1
언@@ 1
업 1
연@@ 1
영 1
예 1
예@@ 1
온 1
왕 1
외@@ 1
용@@ 1
우 1
운 1
운@@ 1
울@@ 1
워 1
윤@@ 1
으@@ 1
을 1
음 1
응@@ 1
임 1
입@@ 1
잇@@ 1
잔@@ 1
잠 1
쟁 1
적 1
적@@ 1
절@@ 1
점 1
점@@ 1
제 1
젠@@ 1
졸@@ 1
종 1
좌@@ 1
준 1
즈@@ 1
증@@ 1
진 1
징@@ 1
차 1
찬 1
찬@@ 1
찮@@ 1
천 1
첨@@ 1
청 1
쳐 1
쳐@@ 1
촌 1
촌@@ 1
총@@ 1
추@@ 1
충 1
충@@ 1
취@@ 1
칠@@ 1
침@@ 1
칫@@ 1
코@@ 1
키 1
타@@ 1
택 1
틀@@ 1
파@@ 1
팔 1
팔@@ 1
퍼 1
평@@ 1
폐 1
풀 1
풍 1
프 1
프@@ 1
학 1
해 1
행 1
향 1
허@@ 1
험 1
현 1
현@@ 1
형 1
호 1
호@@ 1
홍 1
활@@ 1
후 1
훈@@ 1
휴@@ 1
힘 1
 1
 1
 1
 1
 1
 1
 1
 1
ﭼ@@ 1
ﮈ@@ 1
ﮓ 1
ﮩ 1
ﮫ 1
ﮭ@@ 1
ﯩ@@ 1
ﯼ 1
﴿ 1
ﷲ 1
ﺃ@@ 1
ﺋ@@ 1
ﺟ@@ 1
ﺠ@@ 1
ﺣ@@ 1
ﺤ@@ 1
ﺩ@@ 1
ﺪ 1
ﺪ@@ 1
ﺭ 1
ﺭ@@ 1
ﺯ@@ 1
ﺰ@@ 1
ﺸ@@ 1
ﺼ@@ 1
ﻀ@@ 1
ﻄ@@ 1
ﻙ 1
ﻠ@@ 1
ﻡ 1
ﻬ@@ 1
ﻮ 1
ﻮ@@ 1
ﻯ 1
！ 1
／ 1
？ 1
ﾠ 1
￡ 1
￥ 1
￳ 1
𐎠@@ 1
𐎱@@ 1
𐎼@@ 1
𐎿 1
𐤀 1
𐤁 1
𐤇@@ 1
𐤉 1
𐤋 1
𐤍@@ 1
𐤏@@ 1
𐤒 1
𐤓 1
𐤓@@ 1
𐤟 1
𐭃@@ 1
𐭊@@ 1
𐭌@@ 1
𐭕 1
𐭤 1
𐭦@@ 1
𐭩@@ 1
𐭫@@ 1
𑀢@@ 1
𑀥@@ 1
𑀦@@ 1
𑀪@@ 1
𑀺 1
𑀽@@ 1
𑂍@@ 1
𑂟@@ 1
𑂱@@ 1
𑂲 1
𑂲@@ 1
𑂶@@ 1
𑄳 1
𑐮 1
𑐮@@ 1
𑐴@@ 1
𑑂 1
𑜀@@ 1
𑜂 1
𑜃 1
𑜇@@ 1
𑜍@@ 1
𑜏@@ 1
𑜢 1
𑜢@@ 1
𑜤 1
𑜨@@ 1
𒂍@@ 1
𒅍 1
𒅎@@ 1
𒆠 1
𒉌@@ 1
𒋼@@ 1
𒌇@@ 1
𝐇@@ 1
𝐚 1
𝐛@@ 1
𝐞 1
𝐡@@ 1
𝐢@@ 1
𝐧 1
𝐨 1
𝐩@@ 1
𝐫@@ 1
𝐬 1
𝐬@@ 1
𝐳@@ 1
𝑩@@ 1
𝑪@@ 1
𝑳@@ 1
𝒅@@ 1
𝒊@@ 1
𝒏@@ 1
𝛍 1
🌉 1
🌱 1
🌲 1
🌺 1
🏞 1
🏠 1
🏹 1
🐖 1
🐛 1
🐝 1
🐷 1
🐸 1
👆 1
👑 1
💪 1
📝 1
📲 1
🔘 1
🔫 1
🗼 1
🚘 1
🚢 1
🤗 1
🥜 1
🦂 1
🧬 1
𡱩 1
