the 153341711
, 143961830
. 128549030
of 84986890
and 75074536
in 67698763
&quot; 57075854
a 51969525
to 51430463
ed 44479655
ing 31789361
was 31681104
@-@ 28215936
is 26442234
The 25680845
on 25674835
) 21842243
( 21815566
as 21211684
for 20319936
an 19674009
es 18704723
by 18229055
y 17895497
with 17642440
at 16728602
s 16669703
&apos;s 15730555
al 14618862
re@@ 14179512
that 14075220
from 12754559
s@@ 12608303
ation 12592154
er 12128136
S@@ 11846785
or 11711991
his 11207769
t 10370984
In 10195014
it 9725697
w@@ 9692129
in@@ 9455493
he 9364755
f@@ 9251950
L@@ 9010884
st@@ 8975203
ers 8871158
C@@ 8787754
p@@ 8774136
are 8624664
r@@ 8610771
D@@ 8467144
were 8304395
B@@ 8252472
e@@ 8240709
P@@ 8076277
d 8049620
R@@ 7942718
ly 7899078
M@@ 7831028
ad@@ 7827944
ated 7817914
d@@ 7585897
which 7471490
g@@ 7443901
c@@ 7424910
n@@ 7253841
ar@@ 7246940
th@@ 7189867
h@@ 7161807
e 7105703
F@@ 7092197
T@@ 7071390
G@@ 7019043
ac@@ 6954106
N@@ 6925584
ate 6901824
one 6873413
H@@ 6831454
ent 6792146
He 6783224
ch@@ 6698788
un@@ 6601961
A@@ 6514145
be 6497243
al@@ 6418203
b@@ 6280894
y@@ 6199222
en@@ 6155924
also 6124390
; 6111639
had 6089932
t@@ 5997767
th 5988614
its 5981705
o@@ 5953090
le@@ 5948513
: 5925151
or@@ 5912056
c 5847960
on@@ 5847440
tion 5844367
W@@ 5801021
as@@ 5734696
– 5673399
E@@ 5670596
has 5665825
ts 5648008
er@@ 5632480
ve 5625831
m@@ 5539764
first 5488686
el@@ 5479315
en 5407770
an@@ 5347139
im@@ 5287890
k@@ 5176111
at@@ 5175745
tr@@ 5167553
K@@ 5167306
age 5145218
O@@ 5134554
ar 5038923
v@@ 5034151
ted 5032006
l@@ 5001370
ally 4936681
us 4921005
It 4915315
her 4844151
their 4836792
ter 4826275
k 4788693
I@@ 4636873
all 4579217
ex@@ 4537901
who 4525757
not 4509305
co@@ 4494460
i@@ 4465658
el 4455002
de 4433055
A 4430958
est 4415045
li@@ 4388091
ur@@ 4376760
ary 4337137
but 4336136
it@@ 4300884
other 4269089
J@@ 4263179
h 4245044
w 4227475
ul@@ 4179528
ic@@ 4151130
ations 4142316
ic 4138694
ol@@ 4136504
ap@@ 4112144
dis@@ 4104563
ity 4098871
se@@ 4066177
n 4040715
two 4027352
have 4020441
us@@ 3992550
m 3986544
lo@@ 3960669
am@@ 3935168
em@@ 3907288
de@@ 3905873
this 3901416
ro@@ 3853688
l 3810286
been 3777123
&apos; 3774010
et 3754372
ab@@ 3719911
sh@@ 3715664
pl@@ 3699942
V@@ 3698945
ine 3683130
o 3676188
ag@@ 3652013
con@@ 3642633
di@@ 3567367
j@@ 3566637
able 3561404
ence 3549491
res@@ 3542421
po@@ 3501690
a@@ 3483364
time 3469161
ph@@ 3461871
after 3448408
is@@ 3431781
ho@@ 3413149
per@@ 3410691
av@@ 3404151
i 3402530
ed@@ 3385242
ad 3359159
le 3349956
ot@@ 3340434
il@@ 3340366
to@@ 3320715
et@@ 3318035
son 3302563
ist 3297836
ous 3292321
ons 3282230
als 3276771
Ch@@ 3263874
br@@ 3209179
p 3184162
ance 3161685
tions 3156362
out 3154709
es@@ 3151501
me@@ 3148706
1 3143767
com@@ 3142179
ent@@ 3137215
they 3119463
ting 3099939
ec@@ 3078717
ti@@ 3075368
ant 3071025
red 3045664
into 3003063
ans 2984560
se 2971358
ia 2971177
ents 2970818
sp@@ 2966481
ish 2912889
qu@@ 2910881
ment 2900593
op@@ 2893301
2 2886027
ess 2883539
she 2857414
Al@@ 2842561
ter@@ 2834201
id@@ 2825544
ak@@ 2795440
der 2792561
z@@ 2790291
ev@@ 2760138
om@@ 2719157
ut@@ 2717228
ard 2716750
more 2702153
we@@ 2702023
si@@ 2681713
x 2681423
land 2678504
ks 2673539
used 2665961
ne@@ 2660186
ver@@ 2647639
ce 2628365
up 2625522
over 2614473
% 2607027
On 2599290
ay 2593023
ty 2590202
ight 2587674
par@@ 2586652
U@@ 2582973
bo@@ 2582761
os@@ 2548349
New 2547758
te@@ 2537715
would 2534197
when 2528611
years 2527559
ass@@ 2523990
Th@@ 2517894
where 2516691
ch 2502064
u@@ 2497993
inter@@ 2494752
rel@@ 2492165
ig@@ 2481075
ical 2475398
um@@ 2468995
.@@ 2466808
Con@@ 2466169
ach@@ 2465609
way 2465411
/ 2452128
um 2435058
mon@@ 2430663
am 2430226
I 2424924
This 2412673
gr@@ 2401631
man 2398086
during 2394560
vi@@ 2372982
year 2367947
ings 2367091
Re@@ 2367005
new 2354640
est@@ 2344605
man@@ 2332460
od 2329888
ory 2326619
season 2323139
only 2323023
fin@@ 2318016
su@@ 2316333
x@@ 2311682
3 2294655
Mar@@ 2292230
mo@@ 2276993
ties 2268381
between 2263050
for@@ 2245911
ite 2240557
be@@ 2237352
oc@@ 2230868
ri@@ 2227802
tri@@ 2225071
ep@@ 2217413
three 2215702
ect 2214313
ure 2213099
Y@@ 2210593
ther 2209483
In@@ 2205697
under 2202998
he@@ 2198945
made 2197585
sho@@ 2196078
go@@ 2195319
work 2195156
him 2178585
Com@@ 2174936
mar@@ 2171869
str@@ 2159721
ates 2150871
wor@@ 2145120
later 2141876
then 2141185
sub@@ 2136354
cre@@ 2135113
ice 2129189
many 2123456
ir@@ 2121288
Co@@ 2119628
most 2112825
United 2108872
can 2102445
rec@@ 2099753
st 2099181
do@@ 2089946
les 2088072
ating 2087790
&amp; 2085483
att@@ 2083888
known 2079693
5 2075529
well 2071395
such 2068052
part 2059286
ors 2059139
about 2047853
pr@@ 2047524
American 2037739
Br@@ 2030035
u 2027641
dec@@ 2026580
reg@@ 2020613
end 2010911
and@@ 2004622
aw@@ 2003015
4 2001685
became 1999807
und@@ 1998517
ra@@ 1994678
te 1992443
old 1992302
pres@@ 1991551
ton 1991099
team 1985424
University 1984465
She 1965672
ved 1964687
ast 1949729
pre@@ 1943296
sur@@ 1938436
born 1937829
g 1930289
than 1926016
min@@ 1904767
ath@@ 1898232
An@@ 1897156
af@@ 1889859
gen@@ 1881332
eg@@ 1874247
ang@@ 1873994
bi@@ 1870472
including 1867589
Ar@@ 1866329
ge 1846386
being 1841382
film 1840538
Z@@ 1836858
there 1836659
f 1834304
&apos;@@ 1833146
ely 1829905
ow@@ 1805305
ell@@ 1804362
car@@ 1804173
hi@@ 1796131
ement 1794795
air@@ 1788807
ative 1787218
Sh@@ 1786497
some 1782148
side 1779186
fac@@ 1778013
ies 1773497
off@@ 1766105
while 1764284
enti@@ 1761579
second 1760170
ci@@ 1758079
ship 1755499
through 1752221
anc@@ 1751787
end@@ 1749822
so@@ 1747114
Tr@@ 1746019
ain 1742413
day 1741409
b 1740878
St@@ 1740654
od@@ 1738224
eng@@ 1735821
wh@@ 1734609
against 1728918
ver 1728816
led 1724925
ale 1722307
name 1716954
ue 1716462
tur@@ 1711254
ws 1710339
coun@@ 1706801
acc@@ 1697182
la@@ 1697164
bl@@ 1696405
the@@ 1694730
3@@ 1693061
After 1690030
6 1688905
very 1683589
ters 1679277
re 1678359
pos@@ 1675558
ner 1663056
sol@@ 1662789
ion 1658652
pe@@ 1658157
before 1656148
low 1652856
use 1650813
inc@@ 1649177
ati@@ 1645157
oper@@ 1641446
ann@@ 1640264
il 1638662
art 1624670
col@@ 1618153
family 1617081
played 1614883
them 1610946
no 1610682
ni@@ 1610363
De@@ 1608967
king 1608536
ess@@ 1604087
until 1603361
ing@@ 1603248
cr@@ 1596542
sec@@ 1590977
World 1587913
0s 1586653
ach 1583875
both 1582117
id 1581038
ics 1580436
gi@@ 1577560
people 1565596
ay@@ 1563268
Car@@ 1558734
ently 1552829
States 1548678
ob@@ 1546277
dr@@ 1543771
ese 1541704
ected 1540800
all@@ 1540611
bel@@ 1540373
album 1536603
Bo@@ 1533263
amp 1531373
life 1519770
ds 1514962
National 1511139
igh@@ 1506799
Pr@@ 1504494
released 1502510
4@@ 1499088
our 1495952
7 1495853
ley 1492464
port 1489786
ost 1489323
pi@@ 1484547
pro@@ 1483824
gre@@ 1482018
ie 1481773
lin@@ 1480529
gu@@ 1479831
line 1478620
sion 1476808
ack 1474613
low@@ 1470528
so 1468422
ack@@ 1468075
number 1461014
series 1453075
ace 1447201
sel@@ 1447025
ari@@ 1442275
As 1442269
won 1441660
trans@@ 1437545
area 1434417
comp@@ 1428026
ning 1424603
Ad@@ 1423998
may 1423657
ail@@ 1421683
ok@@ 1420697
8 1420438
four 1418053
ended 1416903
ned 1416203
called 1413130
school 1412161
ant@@ 1411454
C 1405989
arr@@ 1405771
Par@@ 1404738
ile 1404476
ran@@ 1399597
fe@@ 1397831
ins 1393391
May 1391242
ong@@ 1387265
ick@@ 1384195
tor 1383609
ets 1382955
comm@@ 1382116
eb@@ 1380416
ma@@ 1370727
though 1369304
ou@@ 1367375
March 1363460
Mo@@ 1362739
form 1362564
state 1362255
10 1358897
der@@ 1358894
2@@ 1351805
ture 1350760
September 1348712
onal 1348411
ves 1345039
cor@@ 1344970
ens@@ 1343667
January 1342098
iz@@ 1338930
tain 1334462
17@@ 1334187
sch@@ 1332477
ade 1332169
ear@@ 1332060
ber@@ 1331571
if@@ 1330269
cap@@ 1329963
ish@@ 1326268
public 1326161
9 1324121
June 1322042
career 1318327
October 1316170
Man@@ 1313783
several 1313526
following 1310073
iv@@ 1308202
July 1308148
same 1308005
city 1307678
tic 1306866
place 1306455
os 1306221
ell 1305551
ill@@ 1305479
early 1303542
For@@ 1302899
ov@@ 1302076
Le@@ 1294046
ten@@ 1293667
ick 1293189
fl@@ 1292852
cont@@ 1291662
August 1286241
John 1286227
form@@ 1285871
eh@@ 1285391
ps 1282388
18@@ 1281244
School 1277133
5@@ 1276241
April 1272613
ru@@ 1272119
South 1268247
L 1266848
Sp@@ 1264679
game 1263916
ore 1262907
found 1262804
based 1258123
mis@@ 1257262
They 1257085
Nor@@ 1255821
not@@ 1255740
ek 1253354
ered 1250066
act 1249255
self 1247434
ual 1245919
began 1243808
ars 1242089
November 1241229
medi@@ 1237599
these 1236125
fre@@ 1236107
leg@@ 1235105
cur@@ 1231655
since 1231638
Be@@ 1231221
will 1229242
Col@@ 1229231
lead@@ 1228526
back 1227287
December 1225753
band 1222473
int@@ 1219843
His 1218594
Pol@@ 1216511
og@@ 1214516
ard@@ 1213885
ology 1213603
ise 1212914
P 1208385
ah@@ 1208232
unc@@ 1208212
Ro@@ 1205833
appear@@ 1205596
ited 1201389
tic@@ 1201048
sc@@ 1199322
thern 1196426
au@@ 1195378
den 1194739
located 1194650
ire 1193207
bas@@ 1191955
tern 1190673
group 1190025
ali@@ 1189678
ection 1189386
County 1189154
ong 1186912
ams 1186681
no@@ 1181946
nam@@ 1179361
uc@@ 1179235
now 1178485
play@@ 1176263
named 1173675
ian 1171390
held 1167553
per 1166911
ave 1164815
contr@@ 1164136
former 1161359
own 1160479
cas@@ 1159677
try 1157072
Se@@ 1155829
bro@@ 1154972
coll@@ 1153432
ili@@ 1153283
ak 1150834
ana 1150828
ici@@ 1149677
mer@@ 1149094
pp@@ 1148063
D 1146929
At 1146743
took 1142629
ages 1141678
War 1139744
tak@@ 1139235
tre@@ 1139197
arm@@ 1135677
ey 1135068
York 1134886
$ 1132956
town 1131646
government 1129584
por@@ 1129035
- 1128792
ants 1128188
He@@ 1127516
20 1124530
ful 1122618
loc@@ 1119378
elec@@ 1118823
z 1114438
member 1114220
There 1113213
ase 1112037
Ser@@ 1111297
direc@@ 1110580
ff@@ 1110273
prot@@ 1109099
State 1108453
ste@@ 1107911
und 1106853
tional 1106839
February 1105704
like 1104232
ir 1103401
6@@ 1101897
high 1100771
ome 1098591
12 1097994
League 1097458
British 1097267
each 1096797
nor@@ 1096047
City 1095266
fa@@ 1095109
population 1094437
ign 1092899
ular 1091268
century 1090641
ens 1090154
music 1090069
des@@ 1089645
R 1088514
T 1088123
ought 1088039
S 1084338
ns 1083723
served 1082698
ek@@ 1082320
wn 1079936
ales 1079359
off 1078718
16@@ 1075387
formed 1075356
ying 1073628
play 1073030
amb@@ 1072335
built 1071143
Ex@@ 1070949
company 1068510
2010 1067788
station 1066595
under@@ 1064900
set 1063991
any 1063894
’ 1060132
ist@@ 1057093
ects 1056769
ists 1055076
mat@@ 1053317
out@@ 1051164
Or@@ 1050268
Bar@@ 1050085
song 1048659
men 1045439
18 1042343
ef@@ 1041279
However 1039683
ind@@ 1038681
received 1035671
mer 1034078
tics 1033330
ys@@ 1032421
home 1031826
writ@@ 1031521
did 1030562
augh@@ 1029425
produc@@ 1027929
around 1027541
Ne@@ 1024448
7@@ 1022952
field 1022148
15 1020514
bor@@ 1017835
her@@ 1017461
moved 1016717
fi@@ 1015658
B 1015517
bre@@ 1015434
ually 1014839
featur@@ 1014034
M 1013332
Gu@@ 1012605
cons@@ 1009986
ature 1009887
O 1009772
mus@@ 1008960
could 1008615
2011 1007241
North 1006914
main 1004851
Min@@ 1000040
due 998712
include 998202
ained 994491
ina 994243
ism 993199
1@@ 992972
ta@@ 992415
ol 991955
gro@@ 991018
pur@@ 988089
9@@ 987591
sup@@ 987179
Gr@@ 984080
ished 983348
ever 982393
long 981988
vis@@ 980748
species 979518
resul@@ 973160
sive 972308
tro@@ 972186
appro@@ 971527
sa@@ 970754
single 970296
ign@@ 969557
2012 968352
struc@@ 968126
system 967714
Mon@@ 966692
using 965794
left 964949
up@@ 964380
local 962993
ems 959388
stand@@ 959223
along 959055
dem@@ 957113
History 955761
ately 955624
Cor@@ 954984
tw@@ 954313
hel@@ 954061
During 953708
over@@ 953304
Ac@@ 953221
died 952849
Rus@@ 951289
2014 950508
des 949184
la 948865
published 947769
lar@@ 947682
om 946842
cl@@ 946377
ences 945897
members 945000
ater 944511
five 943530
cul@@ 943082
Gre@@ 942264
scor@@ 942154
cer@@ 940475
building 937997
tical 937620
do 936159
2013 935764
mov@@ 934865
F 934448
2016 934368
club 933328
2015 931737
r 931414
co 931041
So@@ 929309
said 928255
fo@@ 927170
Wh@@ 926709
op 925125
west 924959
11 924852
bus@@ 924606
final 923378
within 923066
As@@ 918694
times 917677
Am@@ 917316
Ear@@ 916397
ot 915524
cri@@ 915186
mi@@ 914137
E 910098
Mc@@ 908788
2008 908749
2009 907414
ze 906752
ards 905786
educ@@ 904859
30 904477
large 903515
because 902582
down 900557
auth@@ 898128
vel@@ 898101
tor@@ 897849
pass@@ 897252
hips 896522
ross 894841
ain@@ 894474
eff@@ 894298
world 893738
az@@ 892737
Per@@ 891783
Un@@ 890907
8@@ 890702
ne 890367
ve@@ 889178
2018 886135
ik@@ 885062
included 884585
ental 884434
ister 883248
fied 882061
2017 882032
design@@ 881770
port@@ 881518
du@@ 880909
ven@@ 879793
third 879604
village 879259
ond@@ 876590
qui@@ 876150
ple 875997
tar@@ 875003
16 874533
position 873788
def@@ 872753
ded 871097
Di@@ 870546
15@@ 870057
serv@@ 869860
ding 864385
2019 864283
small 863294
ches 862700
14 858992
For 858803
water 858719
fr@@ 857429
im 856288
ce@@ 855840
enc@@ 855105
bur@@ 855031
organiz@@ 854266
aged 854211
election 853819
ident 853487
Li@@ 853101
val@@ 851827
Me@@ 851258
ta 848914
ug@@ 848743
ator 848248
Sec@@ 848245
10@@ 847664
2007 847614
College 847356
spec@@ 847142
ats 846064
French 845542
Ger@@ 844207
show 843068
national 841910
children 841319
inv@@ 841223
tim@@ 840865
vic@@ 840785
19 840562
2006 839949
proc@@ 839751
issu@@ 839721
vol@@ 838715
aining 838421
ough 837330
ther@@ 836698
na 835520
death 835366
mas@@ 835199
ked 834982
run@@ 834946
tle 834698
har@@ 833905
ains 833483
tion@@ 833430
war@@ 833027
Mor@@ 832417
gener@@ 831914
char@@ 831558
offici@@ 830669
last 830291
develop@@ 830056
incre@@ 829443
ital 829251
Har@@ 829094
ass 828014
football 827846
dition 827801
25 827624
father 825044
provid@@ 824610
if 824605
El@@ 819555
ang 819370
13 819299
&#93; 817854
un 817839
sian 817744
&#91; 817208
inning 816036
identi@@ 815911
house 815560
English 815497
ports 813543
2020 813354
West 812900
ford 812778
emp@@ 812469
ported 811496
II 810424
wing 809721
earch 809556
those 809375
ke@@ 809185
ble 808145
vie@@ 805524
high@@ 805166
history 803878
million 803351
ground 803256
ge@@ 803191
ays 802983
ur 801932
still 801789
oy@@ 801342
ality 800351
District 799437
spe@@ 798767
women 797679
amp@@ 797596
placed 797120
book 796207
inn@@ 795870
even 795608
ines 795477
site 794631
ols 793321
urs 793024
view 792360
war 791782
Fo@@ 791571
German 791340
ree 790857
17 790642
ry 790422
represent@@ 788909
another 786140
stud@@ 785361
ough@@ 785091
ces 783495
proj@@ 781256
ease 780186
service 780171
Pe@@ 779285
En@@ 778836
ung 778447
Ma@@ 777873
aci@@ 776752
X@@ 776711
lu@@ 776682
original 776310
The@@ 776255
stat@@ 776072
consider@@ 775729
ler 775108
— 773734
Sch@@ 773139
major 772635
order 772508
Reg@@ 772065
hum@@ 771834
Res@@ 771363
late 769823
chang@@ 769731
camp@@ 768831
Is@@ 767848
district 767556
International 766706
what 766565
win 765788
0 764152
often 763842
mission 763339
app@@ 762359
ney 760642
ok 759803
near 758724
River 758203
me 757758
sou@@ 756926
U.S. 756660
uses 756214
London 756057
went 755616
remain@@ 754972
top 754135
ah 753796
ai@@ 753207
north 752948
ai 752889
Pl@@ 752538
When 751919
del@@ 750318
different 747781
ill 747674
ses 747485
fri@@ 746292
less 744730
works 744472
ision 744190
lat@@ 744187
son@@ 744082
ering 743879
24 742986
Ab@@ 742409
established 741503
ety 741294
ven 741244
yo@@ 741197
let@@ 740073
prop@@ 739741
Cr@@ 738160
v 738032
sen@@ 736512
games 735875
ised 735158
ama 735005
yr@@ 734628
country 734055
announced 733840
ously 733126
again 732572
sed 732218
Hol@@ 732197
best 732156
All 731661
ie@@ 731548
sequ@@ 731202
cu@@ 731157
Ir@@ 730691
dist@@ 730674
mag@@ 729910
iness 729195
light 728402
House 728216
bil@@ 726805
head 726619
lands 726393
previ@@ 726332
ange 725999
prim@@ 725747
ments 725560
record 724876
ements 724860
ud@@ 724809
beg@@ 724243
alth 723184
era 722278
Cup 722138
ka 722058
others 721908
Po@@ 721515
ere 720938
els 720807
south 720074
ights 720058
right 719493
21 717652
started 717081
ency 715663
US 714898
Qu@@ 714626
six 713708
vari@@ 712602
da 712461
ote 712268
Her@@ 711358
title 710454
role 710181
attle 709947
cover@@ 709935
ms 709350
road 708821
ly@@ 708161
One 708103
Bur@@ 707137
Fre@@ 706517
fer 706069
joined 706022
ren@@ 705878
exp@@ 705774
ser@@ 705103
Ste@@ 704909
charac@@ 704359
cla@@ 703554
ons@@ 701690
sing@@ 701574
law 701351
20@@ 700986
follow@@ 699859
gs 699645
period 698628
some@@ 698408
tors 698241
round 698023
_ 696802
came 695729
ography 695370
ched 695273
list@@ 695169
present 695067
ke 694407
initi@@ 694123
air 693857
worked 693741
prom@@ 692366
tour@@ 691519
tu@@ 690869
just 690817
invol@@ 690657
ased 689019
mit@@ 687307
gradu@@ 685778
ior 685554
tive 684677
much 684537
support 684134
ling 684098
married 681139
ily 680611
Bro@@ 680318
uti@@ 679657
mot@@ 678504
N 678434
win@@ 678358
produced 678125
Sw@@ 677969
ane 676842
come 676404
comple@@ 675949
ea 675636
among 675530
non 672895
isi@@ 672323
complet@@ 671523
2005 670683
action 669882
vers 668293
men@@ 667751
partment 667740
Wil@@ 666473
power 666052
make 665665
retur@@ 665541
studi@@ 665466
ban@@ 664747
ony 663054
speci@@ 662918
emb@@ 662614
2021 661906
ths 661782
defe@@ 660874
ince 660758
stre@@ 660596
England 659993
who@@ 659803
progr@@ 659406
ority 658680
wrote 658636
development 657836
iev@@ 657619
Ph@@ 656659
ler@@ 656493
become 656416
player 655984
having 655769
fic 655754
described 655707
given 655628
ame 655008
Su@@ 654357
22 654221
thr@@ 654022
ra 653609
total 652563
fem@@ 651614
ash@@ 650819
ball 650660
hol@@ 649960
general 649692
ities 648930
next 648495
Cl@@ 648409
yp@@ 648165
version 648101
community 647961
These 647185
continued 646735
tural 646353
European 646063
fur@@ 645836
production 645723
respon@@ 645422
eas@@ 644949
returned 644881
ached 644089
fer@@ 643873
pointed 642443
Park 642337
que 642304
record@@ 642267
various 642226
ends 640997
professi@@ 640952
Je@@ 640873
written 639037
General 638358
refer@@ 638194
pen@@ 637916
eer 637831
dri@@ 637405
head@@ 637301
dic@@ 637290
get 637156
political 636801
point 636341
East 636325
23 635279
pol@@ 634541
elected 634319
created 633705
William 633510
allow@@ 633432
2000 633063
ague 632784
Bel@@ 632062
dra@@ 631967
uni@@ 631874
ward 631008
From 630719
compos@@ 629972
competi@@ 628088
em 627117
13@@ 626964
gether 626579
tice 625854
half 625586
ket 625492
U 624045
2004 622954
bu@@ 622729
ving 622293
ison 622153
ady 621818
ba@@ 621663
Lo@@ 620929
000 620162
wards 619922
sy@@ 619732
ib@@ 619656
eas 619313
No@@ 619183
sk@@ 619078
ger 618781
Tur@@ 618374
take 616021
TV 615585
ically 615576
Church 615275
14@@ 614689
oph@@ 614101
ution 613623
ker 613413
buil@@ 613375
ten 612882
aver@@ 612772
wi@@ 612694
ya 612335
conn@@ 610661
Ho@@ 610556
pri@@ 610427
Party 609811
hy@@ 609324
quar@@ 608688
India 608397
Australia 607012
ness 605764
partic@@ 605302
days 604725
sum@@ 604576
formula 604369
change 603723
ances 603392
level 603385
ath 602843
edi@@ 602461
however 602401
church 602393
By 602291
ins@@ 601952
epis@@ 601720
founded 601426
= 600720
! 600640
appe@@ 600560
100 600169
anti@@ 599678
ake 599544
opened 599431
Council 599173
ike 598892
equ@@ 598481
Govern@@ 598456
ond 598098
ways 597208
aff@@ 595369
few 594821
Army 594454
According 594348
France 594212
star@@ 594153
cial 593823
High 593535
temp@@ 593199
students 593184
tradi@@ 592923
Street 592819
pain@@ 592704
amm@@ 592630
can@@ 591377
prac@@ 590623
clos@@ 590589
ma 590301
det@@ 589948
inal 588903
performan@@ 588776
sett@@ 588772
arded 588733
ods 588105
Ed@@ 587721
dro@@ 586309
ability 585920
Mal@@ 584613
ep 583957
military 582788
Char@@ 581796
adi@@ 581476
match 581354
particip@@ 581277
present@@ 580679
James 579566
alm@@ 579180
ending 579097
signed 579023
success@@ 578961
Sou@@ 578947
ha@@ 578763
wer@@ 578526
squ@@ 578347
Division 578057
ording 577724
tel@@ 577485
King 577431
party 577396
ast@@ 577225
region 577074
28 576974
George 576056
dev@@ 575722
without 575544
ung@@ 575200
Pro@@ 574972
east 574817
yl@@ 573713
ife 573606
cal 573513
Val@@ 573411
yn@@ 573274
26 572510
xim@@ 571933
Str@@ 571773
50 570343
ories 570329
San 569402
oll@@ 569200
sions 568386
illed 568112
rac@@ 568112
flo@@ 567702
sw@@ 567693
ample 567304
event 566660
part@@ 566384
27 566124
priv@@ 565813
see 565293
television 565076
making 564911
St. 564825
bar@@ 563674
ou 563499
origin@@ 563432
ided 562889
run 562525
econom@@ 562188
unt 562147
cast 561286
oks 561063
curr@@ 560949
clo@@ 559200
tly 558803
soci@@ 558773
tory 558591
tain@@ 557984
President 557882
trac@@ 557860
Bi@@ 557550
California 557325
new@@ 557283
outh 557053
12@@ 557013
short 556074
Sen@@ 555694
19@@ 555363
ut 555335
fol@@ 554896
hon@@ 553143
face 552876
plac@@ 552598
jo@@ 552291
prof@@ 551963
wood 551437
loy@@ 551299
Q@@ 551145
full 550946
land@@ 550790
aliz@@ 550534
America 550498
alls 550243
Que@@ 549920
case 549884
influ@@ 549550
rest@@ 548865
international 548657
ords 548260
ene 547618
Canada 547502
ological 547467
1.@@ 546983
Cap@@ 546383
language 546357
alis@@ 545979
tom@@ 545897
track 544699
main@@ 544033
debut 543939
alist 543650
style 543605
liv@@ 542979
Go@@ 542902
wer 542696
ational 541728
2003 541113
aj@@ 540628
sim@@ 539610
rent 539509
introduc@@ 539378
concer@@ 539327
tries 537750
ligh@@ 537701
plic@@ 537578
Ber@@ 537536
Scot@@ 537396
cour@@ 536777
Mus@@ 536676
program 536469
ective 535921
class 535910
hor@@ 535763
ders 535442
bir@@ 535240
promot@@ 534948
we 533460
pon 533311
pe 533005
ican 532395
arch@@ 532091
sti@@ 531910
ides 531345
ville 530953
ean 530807
Rec@@ 530800
Association 530412
go 530213
enn@@ 529909
ests 529406
ano 529353
We@@ 528752
With 528475
activ@@ 528213
ops 527642
1,@@ 527618
Wor@@ 527321
caus@@ 527216
onship 526397
Bor@@ 525300
acy 525016
our@@ 524402
ples 524054
mor@@ 524001
body 523463
ures 523461
mem@@ 523143
important 522130
commun@@ 522104
Union 521606
agre@@ 520631
2002 520569
video 520408
29 520096
ros@@ 519647
ime 518583
Dr@@ 518577
points 517928
event@@ 517889
ub@@ 517569
G 516985
hand@@ 515884
rail@@ 515077
pan@@ 514349
arti@@ 514324
unds 514185
ishing 513314
ference 513308
pa@@ 513126
sion@@ 512835
ino 512673
ica 512531
Pal@@ 512395
trav@@ 512116
mittee 511839
sig@@ 511334
2001 509826
ky 509166
away 509135
Fr@@ 508838
Royal 508832
rati@@ 508429
ner@@ 508074
0.@@ 507635
2.@@ 506794
40 506632
him@@ 506460
ym@@ 506444
Sy@@ 506122
Indian 505977
Nav@@ 505398
0@@ 505315
office 505233
Mas@@ 505151
Australian 505029
oth@@ 503990
ots 501717
entr@@ 501378
“ 501247
control 501185
ode 501110
lab@@ 501045
ich 500774
” 499640
tures 498677
prov@@ 497936
sing 497874
gar@@ 497607
director 497433
Cre@@ 497287
vent@@ 496540
mil@@ 496133
suff@@ 495906
dle 495457
signific@@ 495440
On@@ 495215
bec@@ 494476
lies 493567
typ@@ 493494
vot@@ 493274
ey@@ 492512
dom 492427
popular 492300
urt 491880
administr@@ 491236
similar 490675
Award 490078
Championship 489625
Club 489220
recog@@ 488486
independ@@ 487842
design 486576
nov@@ 486112
ow 485519
social 485300
ole 484980
aller 484943
uld 484699
Mat@@ 484601
publ@@ 484269
Pri@@ 484000
ham 483603
yc@@ 483484
Des@@ 483394
ext@@ 481752
First 481730
resid@@ 481617
put 481430
clu@@ 481316
positi@@ 481171
forc@@ 480755
construction 480730
Ver@@ 480411
cir@@ 479663
cop@@ 479310
succ@@ 478190
ine@@ 477532
versi@@ 477446
key 477088
Music 476403
kh@@ 476370
lot 476298
race 476257
Sci@@ 476093
vid@@ 475864
wat@@ 475788
Ge@@ 475312
techn@@ 475183
dings 475146
ster 474953
lan@@ 474843
cle@@ 474756
live 474236
vice 473205
larg@@ 472883
Fi@@ 472392
craft 472147
David 471518
ref@@ 471518
mid@@ 470882
ock 470723
China 470488
services 469849
foc@@ 469773
Road 469723
Company 468933
ket@@ 468596
ti 468426
ful@@ 468418
grou@@ 468329
31 468180
anim@@ 467847
exist@@ 467791
V 467534
Sal@@ 467370
voc@@ 466967
gt 466253
... 466049
ural 464882
wo@@ 463952
pu@@ 463679
separ@@ 463530
uf@@ 463394
bs 462996
Sum@@ 462059
K 461329
Em@@ 461204
mak@@ 461098
eter@@ 460729
tit@@ 459922
At@@ 459414
lt 458622
Mag@@ 458369
Central 457340
Ang@@ 455798
relati@@ 455492
Jo@@ 455424
Rom@@ 454963
Group 454264
Chin@@ 453517
champi@@ 453489
ani@@ 453409
1999 453215
til@@ 453158
vo@@ 453075
Europe 452597
ands 452297
ief 451860
four@@ 451744
Jap@@ 451684
Bal@@ 451586
Bl@@ 451402
bers 451261
iti@@ 451256
agement 450815
Fol@@ 450404
famili@@ 450380
reti@@ 450330
sus@@ 449882
shire 449743
prob@@ 449169
requ@@ 448292
ord@@ 448047
ones 447655
ax@@ 447576
ef 447405
Bas@@ 447366
sour@@ 447263
Thomas 447032
sem@@ 446782
hom@@ 446333
King@@ 446301
stor@@ 445958
Kor@@ 445878
Mid@@ 445717
wes@@ 445595
wid@@ 445229
Chi@@ 444898
cus@@ 443912
185@@ 443404
experi@@ 442927
Canadi@@ 442669
wn@@ 442618
hin@@ 442491
Robert 441642
active 441524
Mil@@ 441076
It@@ 440980
net@@ 440620
ena 440385
sent 440346
section 440154
carri@@ 439908
ament 439777
long@@ 439465
oni@@ 439002
Japan 438894
once 438624
fic@@ 438092
Pres@@ 437835
Off@@ 437775
gl@@ 437304
ices 437143
Si@@ 436487
aves 436466
Air 436436
fund@@ 436150
Fin@@ 435773
nati@@ 435621
ori@@ 435464
chil@@ 435313
med@@ 435030
associ@@ 433709
UK 433560
modern 433256
Washington 433246
Bu@@ 433142
An 432248
sit@@ 432076
Charles 431953
Her 430619
ury 430616
Center 430044
Hall 429788
bridge 429321
eds 429184
tho@@ 429167
lam@@ 428851
ask@@ 428679
Sing@@ 428647
Kar@@ 428320
Dev@@ 428261
ister@@ 427834
my 427492
Western 427467
occ@@ 427063
ums 426990
met@@ 426627
tan@@ 426399
row 425774
Champi@@ 425675
conduc@@ 424933
ington 424791
compet@@ 424514
Mis@@ 424450
rece@@ 424334
0,000 424298
board 424031
1998 424025
rit@@ 424018
ani 423699
lit@@ 423624
fore 423174
Kh@@ 422485
Mac@@ 422012
den@@ 421519
public@@ 421153
ular@@ 420838
tal@@ 420819
law@@ 420373
Tor@@ 420285
X 420204
dou@@ 420152
Paul 419594
igu@@ 419474
Institute 419426
liter@@ 419140
continu@@ 418755
Commun@@ 418721
Leg@@ 418717
essor 418689
ager 418302
inclu@@ 417942
govern@@ 417898
post 417033
cho@@ 416886
Wal@@ 415537
W 415438
ata 415119
azine 415059
Inter@@ 414509
ense 414056
docum@@ 413881
back@@ 413665
BC 413328
via 413251
Mer@@ 413072
car 412602
ades 412491
Indi@@ 412169
regi@@ 411993
ara 411508
Rail@@ 411487
expl@@ 411449
ust 410980
Island 410845
sia 410482
front 410156
Air@@ 409783
ills 409517
Society 408969
deg@@ 408882
histori@@ 408126
1996 408074
vers@@ 407946
forces 407633
tiv@@ 407065
fir@@ 406783
icul@@ 406510
resp@@ 406357
abor@@ 405759
Ze@@ 405734
ls 405553
los@@ 405458
ans@@ 405401
ei@@ 405388
Democ@@ 405182
fication 405141
African 404377
ber 404132
La@@ 404043
crip@@ 403745
ich@@ 403293
put@@ 403134
esses 402956
CA@@ 402862
1997 402333
inst@@ 401386
cens@@ 401122
kno@@ 401031
pat@@ 400971
ope 400430
alian 400133
information 399748
oman 399369
sist@@ 397983
ha 397850
athol@@ 397001
court 396654
Cro@@ 396303
feder@@ 396215
Wo@@ 395695
é 395647
Phil@@ 395550
olog@@ 394405
orial 394266
H 393793
di 393470
arri@@ 393395
ae 393345
ee 393153
sil@@ 393097
Gal@@ 392949
prin@@ 392776
pic@@ 392757
grap@@ 392685
ban 392586
ft 391682
archit@@ 391636
vir@@ 391282
Academy 391217
central 391170
peri@@ 390908
oh@@ 390514
diff@@ 390320
ts@@ 389890
propos@@ 389566
eld 389196
force 388759
Educ@@ 388530
cro@@ 388406
ret@@ 387545
depend@@ 387149
au 386856
fil@@ 386640
neg@@ 386286
assist@@ 386075
3.@@ 385881
New@@ 385746
War@@ 385383
Women 385310
ala 385238
istr@@ 385069
Ye@@ 384745
parti@@ 384527
Tri@@ 384505
ith 384411
nomin@@ 384411
say@@ 384180
exten@@ 384054
pot@@ 383602
Span@@ 383502
Te@@ 383412
media 383351
ster@@ 383309
consist@@ 382717
inf@@ 382645
lik@@ 382208
Mich@@ 382103
lines 382084
Africa 381616
hu@@ 381604
lock 381059
á@@ 380657
1995 380622
possible 380571
Por@@ 380562
ason 380099
Lu@@ 379872
cy 379843
class@@ 379706
viol@@ 379328
Ros@@ 379289
lege 378829
ys 378648
isti@@ 378216
Feder@@ 378010
ken 377967
police 377806
commer@@ 377671
journ@@ 376639
1992 376479
constitu@@ 376246
defin@@ 375451
ail 375399
rap@@ 375361
center 375195
Chr@@ 375193
Great 374680
1994 374549
Gi@@ 374429
radio 374398
km 374345
leng@@ 374179
wo 373722
Kr@@ 373637
atre 373486
Can@@ 373472
eme 373449
Lake 373377
To@@ 373212
expres@@ 373167
Gar@@ 372664
ech 372624
Mad@@ 372274
ids 371937
ap 371913
Geor@@ 371892
bri@@ 371565
To 371322
cent@@ 371053
cat@@ 371020
Michael 370876
hi 370829
syst@@ 369742
foot@@ 369681
ges 369578
dy 368702
Best 368586
ben@@ 368417
type 367656
super@@ 367589
kl@@ 367307
lier 367275
dam@@ 367176
Henry 367096
tis@@ 367003
cal@@ 366604
division 366400
eth@@ 366300
esti@@ 366021
destr@@ 365843
Football 364873
candid@@ 364313
combin@@ 364262
wal@@ 364141
idge 363997
trong 363938
60 363659
Cal@@ 363603
phot@@ 363478
rock 362376
ini 361934
plat@@ 361517
Im@@ 361319
open@@ 360764
compar@@ 360702
ells 359855
St 359190
Del@@ 359120
ute 359051
é@@ 358780
situ@@ 357936
multi@@ 357706
cell@@ 357504
indic@@ 357186
bet@@ 356690
ki@@ 356652
Awards 356371
tribut@@ 356277
doc@@ 356226
White 355957
ush@@ 355603
Hon@@ 355497
fu@@ 355016
edy 354551
Ag@@ 354276
dom@@ 353788
Pre@@ 353771
met 353497
ab 353197
Ireland 353024
1990 352844
1993 352579
Hor@@ 352321
artic@@ 352026
esp@@ 351955
Fl@@ 351920
edit@@ 351884
A. 351605
vil 351396
films 351241
ide 350943
1991 350586
construc@@ 350526
Cam@@ 350311
mp@@ 350268
sea 349875
establ@@ 349667
found@@ 349610
Museum 349293
Saint 349103
Trans@@ 348873
apo@@ 348739
Texas 348322
rol@@ 347899
Ben@@ 347870
aland 347670
ece 347545
uk@@ 346820
suc@@ 346750
La 346745
Tow@@ 346606
ran 346582
model 346538
Cas@@ 345070
io 344701
ograph@@ 344366
Christian 344271
Christ@@ 343839
idence 343744
amo@@ 343568
atis@@ 343455
pap@@ 343276
pris@@ 343001
studio 342988
gest@@ 342922
FC 342603
eti@@ 341950
ger@@ 341547
annel 341031
gir@@ 341003
any@@ 340464
Black 340363
cription 340021
Cur@@ 339954
Stu@@ 339952
obj@@ 339926
Sam@@ 339889
Mel@@ 339142
aft 338974
jur@@ 338753
Direc@@ 338686
Peter 338417
limit@@ 338094
ide@@ 337780
Pi@@ 337649
exper@@ 336883
Roman 336470
Win@@ 335656
Rou@@ 335561
iss@@ 335380
Art 335175
Bul@@ 335119
Los 334971
berg 334863
mig@@ 334753
Bot@@ 334441
sible 333772
pul@@ 333753
Olymp@@ 333659
hip 333410
ition 333367
data 333111
Mur@@ 332581
Paris 332504
Grand 332028
ye@@ 331835
lo 331296
reduc@@ 330951
Gl@@ 330664
,000 330638
Not@@ 330556
verse 329963
fut@@ 329758
adem@@ 329533
ash 329166
formation 328805
Vi@@ 328718
fle@@ 328596
eo 328512
acter@@ 328369
imp@@ 328242
base 328049
ordin@@ 328046
compl@@ 327988
ov 327923
Ath@@ 327364
Medi@@ 327338
Mary 327306
ils 326766
maj@@ 326746
date 326723
atives 326634
ota 326574
wa 326376
duc@@ 326084
Play@@ 325813
contin@@ 325780
chi@@ 325355
Ham@@ 325011
fam@@ 324997
1989 324937
184@@ 324912
fig@@ 324721
syn@@ 324262
Ci@@ 324159
ca 323894
envir@@ 323658
ort 323534
especi@@ 323470
Bre@@ 323436
Bus@@ 323396
Smith 323152
Harr@@ 322976
investig@@ 322713
sa 321678
Life 321422
ort@@ 321291
cou@@ 321282
Sur@@ 321225
art@@ 321088
Du@@ 321054
cian 319996
Mem@@ 319807
mit 319773
Mos@@ 319437
Coun@@ 319353
Red 319259
politi@@ 319077
mix@@ 318797
numer@@ 318587
Wat@@ 318567
Dis@@ 318130
ao 317695
tem@@ 317391
High@@ 317340
iment 317173
mur@@ 316737
course 316366
sm@@ 316138
atur@@ 316050
cut 315992
Tel@@ 315827
ā@@ 315821
ecture 315368
ette 315226
1988 315175
Richard 315000
ki 314885
sci@@ 314746
Fran@@ 314516
fall 314046
&#124; 314005
bed 313638
institu@@ 313633
extr@@ 313260
ada 313245
press 313010
capital 312587
Oper@@ 311994
erg@@ 311983
Brit@@ 311975
Bay 311848
kin@@ 311784
tra 311642
US@@ 311391
ple@@ 311084
Person@@ 310884
2,@@ 310864
Arts 310804
Virginia 310767
Sim@@ 310678
bran@@ 310617
num@@ 310186
opp@@ 309951
Provin@@ 309778
q@@ 309569
Festival 309018
err@@ 308999
Chicago 308888
ume 308459
domin@@ 308328
rem@@ 308318
loss 308098
log@@ 307925
rup@@ 307839
ó@@ 307816
za 307665
ew@@ 307457
text 307242
oppos@@ 306793
ita 306664
popul@@ 306498
tes 306286
tin 305921
Ital@@ 305888
ais@@ 305834
excep@@ 305068
Records 304122
park 304037
onto 304015
tric@@ 303816
cy@@ 303704
aus@@ 303477
eter 303393
individ@@ 303179
cli@@ 303132
Tre@@ 303016
ac 302372
Sol@@ 302303
quali@@ 302301
Soci@@ 301981
Carol@@ 301689
ses@@ 301458
ris@@ 301373
wr@@ 300821
Force 300806
Ter@@ 300478
Film 300324
route 300315
Sar@@ 300228
pal@@ 300041
ari 299999
dig@@ 299775
oti@@ 299480
culture 299232
Mi@@ 298756
differ@@ 298730
Med@@ 298683
isl@@ 298484
natural 298424
semb@@ 298353
# 297967
ff 297709
1987 297522
religi@@ 297400
III 297391
classi@@ 296942
Maj@@ 296453
ez 296181
idae 296134
real 295824
atr@@ 295793
J. 295574
lim@@ 295572
mod@@ 295370
nec@@ 295020
territ@@ 294977
emati@@ 294701
bat@@ 294646
You 294502
Games 294391
fel@@ 294351
80 294314
bes 294248
Sil@@ 293867
va 293755
Mexico 293054
hus@@ 293046
let 292870
1986 292782
j 292746
conf@@ 292491
Hill 292474
viv@@ 292125
hosp@@ 292079
bot@@ 292071
but@@ 291800
Dav@@ 291301
arg@@ 291275
ern@@ 291191
mark 290861
tour 290389
Squ@@ 290386
ues 290073
AS@@ 289682
1984 289426
fort 289242
500 289115
ople 288813
histor@@ 288731
200 288595
65 288284
Rel@@ 288179
Es@@ 288149
Angeles 287833
bour@@ 287759
elt 287693
prepar@@ 287664
centre 287162
anti 287142
35 287025
ules 286990
spir@@ 286692
Loc@@ 286659
Liber@@ 286272
mb@@ 286241
pose 285763
Ev@@ 285722
adop@@ 285717
van 285434
ado 285281
adr@@ 285104
Do@@ 285072
1980 285058
Sc@@ 284788
lers 284677
person@@ 284599
1985 284154
saf@@ 284121
pil@@ 284109
Ap@@ 283980
ingu@@ 283950
Ri@@ 283642
spr@@ 283322
chan@@ 283067
Bir@@ 282606
scienti@@ 282557
estim@@ 282491
ye 282157
Er@@ 282092
Ot@@ 282048
dre@@ 281966
observ@@ 281815
alre@@ 281751
vention 281359
Day 280714
sal@@ 280611
anci@@ 280445
lem@@ 280192
declar@@ 279914
Mah@@ 279576
syl@@ 279412
Far@@ 279377
Braz@@ 279207
jud@@ 278990
polic@@ 278798
Andre@@ 278759
Joseph 278685
condi@@ 278631
oma 278552
Vic@@ 277902
Pan@@ 277519
kil@@ 277247
-@@ 277030
Gol@@ 276947
ump@@ 276671
Station 276559
cher 276008
don@@ 275721
fes@@ 275180
onn@@ 275072
ockey 274719
guit@@ 274282
bul@@ 274217
Den@@ 274000
ement@@ 273873
equi@@ 273796
financi@@ 273709
concep@@ 273420
artist@@ 273350
q 272414
eci@@ 272411
hal@@ 272374
25@@ 272068
1983 272022
personal 271594
bal@@ 271280
Eng@@ 271242
actor 271146
marri@@ 271001
blo@@ 270910
Florida 270600
Sir 270396
Dar@@ 270363
ez@@ 270271
incorpor@@ 270038
Clar@@ 269797
4.@@ 269653
universit@@ 269539
celebr@@ 269503
+ 269469
70 269219
onom@@ 269020
lic@@ 268754
ania 268751
bert 268258
ific@@ 268204
municipal@@ 268179
Ke@@ 268162
cel@@ 267831
tra@@ 267670
termin@@ 267319
1982 267271
90 266448
Eg@@ 266427
ć 266356
elop@@ 266071
J 265509
Penn@@ 265338
firm@@ 265225
eum 265220
Camp@@ 265087
32 265081
mul@@ 264976
Techn@@ 264912
sign@@ 264815
ores 264765
Publi@@ 264623
Arch@@ 264523
ional 264371
test 264197
ld 264036
itz@@ 262675
hav@@ 262622
une 262606
ces@@ 262583
1979 262444
Cat@@ 262428
Produc@@ 262280
plan 262118
ome@@ 262068
eli@@ 261892
adap@@ 261526
45 261442
Oc@@ 261395
1972 261177
test@@ 260922
Hum@@ 260791
occas@@ 260673
igan 260537
r. 260383
Tro@@ 260326
die 260295
asi@@ 260095
int 259832
Gen@@ 259647
ett 259546
Louis 259520
ises 259390
yan 258770
ko 258761
Al 258509
engine 258192
aly@@ 258151
Cul@@ 257949
ora 257586
contribut@@ 257469
Haw@@ 257341
ived 257324
transfer@@ 257184
Elec@@ 256997
? 256955
Lab@@ 256953
ski 256894
lie 256666
Mot@@ 256242
sons 256234
musical 255976
prec@@ 255724
len 255034
Columb@@ 253794
estr@@ 253736
Conn@@ 253715
Rob@@ 253439
1976 253257
1981 252911
uke 252845
mal 252550
istan 252367
serve 252338
1974 252049
don 251986
plan@@ 251982
tou@@ 251722
1945 251695
Jan@@ 251635
fas@@ 251582
Bet@@ 251322
erry 251259
hap@@ 250878
del 250808
ectiv@@ 250790
Times 250783
minut@@ 250708
Jus@@ 250556
conver@@ 250208
1970 250066
far@@ 250044
sexu@@ 249881
ali 249863
Martin 249844
energ@@ 249783
eth 249684
1968 249435
ict 249377
atin 249268
instrum@@ 249091
ein@@ 248909
material 248750
1975 248700
D. 248360
du 248340
Pak@@ 248212
1978 248150
Lit@@ 248015
individu@@ 247782
sky 247654
ulation 247510
Est@@ 247379
Empire 247206
alb@@ 247197
unter@@ 247170
Fac@@ 247042
descri@@ 246651
bish@@ 246374
Chil@@ 246362
ize 246295
Green 245674
Sub@@ 245576
of@@ 245411
mach@@ 245273
5.@@ 245097
Lou@@ 245066
Pen@@ 244928
ites 244666
bury 244559
usi@@ 244470
ella 244466
rom@@ 244461
esh 244445
Vol@@ 244427
Af@@ 244220
unk@@ 244016
astr@@ 243515
fav@@ 243499
lement 243461
Lord 243056
lem 242405
Spr@@ 242397
yer 242214
agu@@ 241610
sen 240986
Big 240920
ox@@ 240863
1973 240806
charg@@ 240687
1977 240686
les@@ 240545
Wi@@ 240520
alled 240306
Town 240207
industri@@ 240177
May@@ 239712
Mass@@ 239580
Gro@@ 239535
198@@ 239358
alli@@ 239226
illa 239006
omb@@ 238950
Edward 238628
eau 238551
vania 238542
aces 238473
iller 238406
Au@@ 238269
chap@@ 238157
Bud@@ 237823
ider 237704
ein 237616
Radio 237462
eri@@ 237443
hib@@ 237367
sych@@ 237038
1971 236999
nation@@ 236891
ju@@ 236881
tun@@ 236854
gia 236735
180@@ 236605
nav@@ 236110
Pu@@ 236074
mu@@ 235897
Sto@@ 235826
premi@@ 235647
Prot@@ 235432
ro 235057
1969 234994
Star 234957
chem@@ 234629
chester 234540
gun@@ 234491
Hy@@ 234389
Aus@@ 233997
probl@@ 233762
Bow@@ 233529
Ni@@ 233351
eral 233283
conv@@ 232656
tro 232513
00 232502
cin@@ 232369
integr@@ 232332
categ@@ 232059
Sa@@ 231897
ero 231863
ni 231825
with@@ 231683
,@@ 231380
dedic@@ 231281
Bri@@ 231242
Team 231231
mir@@ 231110
gel@@ 231093
tish 230882
ose 230711
temper@@ 230547
inten@@ 230375
jus@@ 230344
1967 230207
ault 230181
Brown 230174
Lee 230089
civil 230008
audi@@ 229917
Gir@@ 229781
ko@@ 229462
6.@@ 229356
C. 229234
7.@@ 229014
eing 228978
vill@@ 228964
ja 228814
pas@@ 228611
get@@ 228468
burg@@ 228433
Bank 228293
Ty@@ 228284
uz@@ 228242
ect@@ 228233
ric@@ 228146
197@@ 228123
ae@@ 227791
Hung@@ 227743
uri 227701
36 227558
clus@@ 227556
33 227185
gh@@ 227047
lobal 226964
ministr@@ 226839
Net@@ 226606
She@@ 226566
burg 226277
Man 226181
3,@@ 225938
Ram@@ 225932
cil 225789
determin@@ 225743
£ 225121
1964 225057
Open 225024
model@@ 224949
ri 224783
Portu@@ 224507
ester 224151
Bol@@ 224074
Dem@@ 224072
stand 223966
ty@@ 223879
tron@@ 223808
cip@@ 223782
ola 223739
Dr. 223704
Pow@@ 223153
Olympi@@ 222729
Love 222711
dies 222598
mine 222110
unter 222058
ause 221987
lit 221776
75 221620
ques@@ 220965
Y 220964
yth@@ 220646
uch@@ 220505
ami 220487
Studi@@ 220353
2022 220205
Vo@@ 220151
tres 220126
ansas 220099
Bec@@ 219807
lad@@ 219510
contribu@@ 219458
hab@@ 219414
tains 219406
Kn@@ 219101
Histori@@ 218920
30@@ 218710
techni@@ 218669
div@@ 218624
mond 218510
ape 218466
anth@@ 218461
199@@ 218383
Os@@ 218355
ille 218303
desc@@ 218234
poli@@ 217938
tempor@@ 217687
libr@@ 217616
1965 217536
odes 217343
pon@@ 217340
Mark 217333
Lin@@ 217201
idea 217020
lay@@ 216949
dru@@ 216743
38 216709
Hosp@@ 216357
34 216339
province 216304
tiz@@ 216230
Jones 216226
Amer@@ 215958
Tom@@ 215432
ati 215406
.C. 215355
pun@@ 215224
strat@@ 215069
ark@@ 214989
pre 214822
las 214712
elle 214372
1960 214233
Mu@@ 214207
elimin@@ 213895
abl@@ 213832
1966 213786
ston 213777
Cast@@ 213490
Fe@@ 213420
distribu@@ 213381
br 213212
cause 212999
produ@@ 212961
Luc@@ 212368
Boston 212156
orig@@ 212045
dens@@ 212013
ny 211966
1944 211662
37 211384
toral 211305
196@@ 211128
ura 210806
Centre 210771
San@@ 210519
cep@@ 210374
AT@@ 209985
IS@@ 209871
Francisco 209836
Ohio 209694
Hal@@ 209416
Ur@@ 209395
64 209352
capac@@ 209060
Cy@@ 208863
Young 208709
Roc@@ 208639
ment@@ 208349
Corpor@@ 208102
Def@@ 208000
ji 207987
union 207885
Wol@@ 207831
mol@@ 207815
Han@@ 207790
wel@@ 207748
itation 207684
Pas@@ 207438
ait 207405
Tour@@ 207391
M. 207260
Dan@@ 207191
Johnson 207093
distr@@ 207005
Rich@@ 206944
Asia 206784
No 206737
onia 206203
5,@@ 205962
ador 205729
179@@ 205609
mm 205426
Hel@@ 205379
aka 205162
aya 205132
res 205082
ustr@@ 205024
Mont@@ 204909
asp@@ 204868
wil@@ 204858
Hu@@ 204164
Philipp@@ 203991
autom@@ 203609
Progr@@ 203542
clim@@ 203428
ico 203386
Israel 203314
Ox@@ 203218
Alexander 203057
tin@@ 203012
dan 202993
8.@@ 202947
Williams 202702
reco@@ 202400
Patr@@ 202376
Ind@@ 202237
AR@@ 201985
rement 201916
Ban@@ 201832
ku@@ 201256
Nov@@ 201167
Famil@@ 201107
dia 200806
ona 200693
ech@@ 200691
flu@@ 200534
Juli@@ 200352
ult@@ 200175
CD 200034
Mari@@ 199922
spi@@ 199865
dar@@ 199723
hard 199655
enant 199556
West@@ 199417
patr@@ 199310
conom@@ 199183
box 199178
Steph@@ 199082
ret 199065
El 198903
sent@@ 198880
organis@@ 198809
Ol@@ 198762
1963 198744
len@@ 198605
1962 198546
24@@ 198494
film@@ 198488
44 198433
Ul@@ 198433
rou@@ 198357
enci@@ 198277
bon 198142
uss@@ 198036
traf@@ 197812
abeth 197798
yon@@ 197498
Doc@@ 197431
Ti@@ 197428
irs 197307
Spe@@ 197134
cost@@ 197072
sor@@ 197006
Super@@ 196951
Law@@ 196846
ont@@ 196806
thi@@ 196794
tex@@ 196559
Tod@@ 196558
Austr@@ 196422
Ren@@ 196294
pression 196182
1942 196026
net 195886
ging 195854
1948 195793
Super 195510
Dor@@ 195319
Revol@@ 195069
mann 194475
My 194454
How@@ 194342
aur@@ 194173
Shi@@ 194055
tas@@ 193869
urn@@ 193659
Ob@@ 193200
bac@@ 193071
philos@@ 193019
edr@@ 192892
Ale@@ 192870
BBC 192753
Ari@@ 192712
din@@ 192642
mos@@ 192605
oto 192461
Whit@@ 192449
yet 192344
Tour 192241
ago 192110
alg@@ 191963
Jer@@ 191921
tern@@ 191799
oug@@ 191723
color 191592
Ven@@ 191588
yle 191505
cru@@ 191456
1940 191387
Ash@@ 191337
Cath@@ 191055
39 191053
agric@@ 191028
1941 190929
Franc@@ 190887
titu@@ 190704
Lat@@ 190519
Tam@@ 190482
RA@@ 190478
ł@@ 190212
Cle@@ 190109
1961 190093
ier 189944
Orig@@ 189902
Nati@@ 189771
Jack 189511
1939 189482
nuc@@ 189442
9.@@ 189432
B. 189395
kn@@ 189221
respectiv@@ 189151
Ra@@ 189133
ible 189060
Kir@@ 188689
1946 188578
culp@@ 188551
lin 188518
Stadi@@ 188345
ze@@ 188274
conserv@@ 188269
mel@@ 188195
inger 188124
ques 188075
Blue 188048
esc@@ 187993
Sho@@ 187925
ima 187887
mand@@ 187793
occu@@ 187590
langu@@ 187333
ij@@ 187287
gen 187143
Atlan@@ 187137
osp@@ 187008
E. 187006
municip@@ 186852
dh@@ 186842
visit@@ 186830
gres@@ 186807
Tenn@@ 186661
Jersey 186504
pay@@ 186449
Eliz@@ 186412
1956 186371
Pa@@ 186355
bus 186131
ace@@ 186054
bles 185959
00@@ 185919
explo@@ 185885
trad@@ 185839
Illinois 185674
perman@@ 185662
hur@@ 185656
von 185299
etts 185089
1943 185071
AC@@ 184983
Ta@@ 184919
gun 184714
umb@@ 184642
Journ@@ 184521
IV 184352
yst@@ 184199
alif@@ 184153
26@@ 184037
Scott 184026
cine 183982
ald 183918
Dec@@ 183808
S. 183674
polit@@ 183569
Stan@@ 183493
contempor@@ 183485
ont 183405
Jean 183328
format 183204
Victoria 183091
boy@@ 182986
W. 182806
í@@ 182757
bit 182752
trop@@ 182748
occup@@ 182729
Viet@@ 182603
Arab@@ 182514
enz@@ 182456
iy@@ 182311
Berlin 182288
Fel@@ 182225
1950 182224
Rock 182139
ame@@ 181747
1958 181702
tut@@ 181687
Cer@@ 181629
wa@@ 181276
Kenn@@ 181162
Pat@@ 181119
tig@@ 181063
tran@@ 181033
Frank 181022
onald 180991
Sand@@ 180972
li 180904
1947 180849
alog@@ 180719
ous@@ 180503
1959 180359
Sus@@ 180316
H. 180105
ila 179848
iss 179640
champ@@ 179494
stein 179291
ord 179241
peti@@ 178845
Mul@@ 178828
was@@ 178763
direction 178595
lor 178547
Bang@@ 178528
Uni@@ 178475
Ha@@ 178385
Boy@@ 178147
My@@ 178003
Rog@@ 177902
ira 177895
aband@@ 177751
wan@@ 177732
je@@ 177718
cle 177678
Mir@@ 177495
Gran@@ 177410
sever@@ 176963
adel@@ 176923
bar 176853
actu@@ 176820
alter@@ 176820
yo 176764
lav@@ 176688
1957 176645
Red@@ 176503
sey 176467
Ko@@ 176233
ule 176118
Met@@ 176098
ba 175932
Gh@@ 175636
nh@@ 175615
Sel@@ 175576
import@@ 175546
Laur@@ 175537
Bat@@ 175536
ires 175470
All@@ 175299
Jac@@ 175231
amin@@ 174656
yn 174637
metal 174421
Tay@@ 174078
ela 174068
Ru@@ 173870
Kur@@ 173864
Hug@@ 173699
tis 173616
materi@@ 173573
deb@@ 173505
result@@ 173501
Cir@@ 173419
Kal@@ 173415
Time 173006
concentr@@ 172950
Star@@ 172929
Nic@@ 172807
Professor 172716
Tom 172683
ween 172465
Chap@@ 172379
1952 172293
modi@@ 172194
CE@@ 171979
Dre@@ 171603
Blo@@ 171314
ex 171258
Santa 171199
pend@@ 171109
dio 170993
1949 170873
Gil@@ 170809
1955 170643
ck 170458
Lim@@ 170370
Milit@@ 170240
Mun@@ 170156
habit@@ 169994
Constitu@@ 169940
R. 169861
fast 169650
rot@@ 169424
radi@@ 169402
secre@@ 169360
odi@@ 169353
ust@@ 169296
pop 169164
corresp@@ 168974
Don 168917
nam 168849
aster@@ 168757
Top 168699
solo 168631
ert 168611
mut@@ 168570
lov@@ 168462
28@@ 168452
Som@@ 168390
Tw@@ 168384
ema 168342
ih@@ 168008
comb@@ 167876
sav@@ 167815
anger 167784
Mol@@ 167469
27@@ 167387
lec@@ 167384
1954 167372
Juni@@ 167190
dam 167139
sin@@ 167025
Hav@@ 166881
Jes@@ 166805
azz 166792
tre 166485
aut@@ 166278
ES@@ 166173
hr@@ 166049
enter 165930
cab@@ 165899
Joe 165872
una 165631
mun@@ 165282
tario 165189
1953 165109
De 165068
Pic@@ 165010
Moh@@ 164957
rey 164932
BS 164812
join@@ 164739
Jam@@ 164700
liber@@ 164695
seg@@ 164585
mad 164301
Media 164273
assi@@ 164175
sociation 164157
MS 164071
appar@@ 164021
top@@ 163979
Don@@ 163557
AC 163547
Jackson 163490
ron@@ 163434
Alli@@ 163367
Ly@@ 163353
tol@@ 163220
och@@ 163164
Sav@@ 163152
š@@ 162960
Arthur 162865
Lev@@ 162851
anda 162809
awa 162705
ograp@@ 162664
estra 162529
Sk@@ 162502
gian 162441
55 162187
48 162124
eli 161688
Phili@@ 161650
42 161550
CO@@ 161520
Sem@@ 161421
1918 161279
lake 161235
Me 161193
P. 161175
Bru@@ 161006
visi@@ 160951
che 160709
Premier 160634
Christi@@ 160621
Eri@@ 160523
Lang@@ 160340
Organ@@ 160294
agn@@ 159939
pel@@ 159836
Show 159721
Hot@@ 159650
1951 159619
eph@@ 159518
Bak@@ 159267
bit@@ 159069
USA 158970
enh@@ 158821
1936 158722
Sher@@ 158567
Tal@@ 158496
‘ 158483
Long 158468
tival 158316
vin@@ 158254
Mex@@ 157945
Vill@@ 157845
gal@@ 157617
Bos@@ 157556
300 157473
kin 157467
1920 157329
uy@@ 157280
Buc@@ 157204
ember 156931
4,@@ 156846
1938 156836
Bern@@ 156719
uel 156716
rain 156714
Sm@@ 156426
195@@ 156309
ego 156089
zen 155893
But@@ 155873
Land@@ 155520
Ran@@ 155495
cam@@ 155386
Lan@@ 155352
Op@@ 155283
mont 155014
Billboard 154833
command@@ 154749
Sun@@ 154721
Vir@@ 154574
ato 154455
centr@@ 154315
Proj@@ 154161
med 154120
alternati@@ 154090
Dur@@ 153967
lim 153957
Mit@@ 153948
lis 153692
novel@@ 153640
Arm@@ 153607
fan@@ 153598
ier@@ 153591
ion@@ 153539
Daniel 153414
Fer@@ 153402
ø@@ 153190
icro@@ 152968
ables 152939
ava 152761
Z 152534
41 152397
inform@@ 152342
Sab@@ 152320
fran@@ 152141
400 151954
Son@@ 151805
alt@@ 151788
Tar@@ 151712
Cel@@ 151631
Ah@@ 151630
gol@@ 151611
compr@@ 151547
29@@ 151544
mas 151514
ham@@ 151471
Av@@ 151468
mess@@ 151188
rea 151092
kar@@ 150998
Q 150240
Der@@ 150094
aun@@ 150051
Ker@@ 150007
mom@@ 149896
eck 149888
1919 149850
enes 149722
Munici@@ 149704
Il@@ 149660
1937 149627
tier 149604
IC@@ 149321
Maria 149109
nes 148801
act@@ 148710
Lar@@ 148596
eller 148502
did@@ 148360
CD@@ 148347
Fri@@ 147886
cit@@ 147707
52 147594
Anth@@ 147574
nu@@ 147570
47 147329
lig@@ 147304
85 147135
bin@@ 147032
Bab@@ 146985
ebr@@ 146885
sac@@ 146757
Van 146425
Le 146422
dit 146394
oa 146346
uv@@ 146301
af 146274
App@@ 146070
colon@@ 145964
ographi@@ 145878
gan 145851
Tim@@ 145629
Pap@@ 145600
itz 145481
imin@@ 145472
1930 145450
restaur@@ 145413
lag 145158
favor@@ 144699
ologi@@ 144581
Pop@@ 144552
band@@ 144265
ium 144124
c. 143919
° 143627
1917 143395
1914 143246
Bah@@ 143112
imb@@ 142961
Lor@@ 142898
esh@@ 142879
cus 142441
1935 142313
ō@@ 142220
Eur@@ 142079
Prim@@ 142017
ball@@ 141974
1933 141956
joint 141938
Region 141912
ón 141526
51 141373
Cop@@ 141348
49 141252
Ku@@ 141250
org@@ 141243
ett@@ 141218
dol@@ 141208
Vis@@ 141035
Barr@@ 141011
Rod@@ 140760
ix 140569
erc@@ 140557
principal 140350
Hay@@ 140092
raine 140033
Gra@@ 139616
Mill@@ 139574
osa 139566
rif@@ 139524
aul@@ 139407
Joh@@ 139327
ando 139054
cum@@ 139048
riv@@ 139016
ua 139000
L. 138993
43 138883
ept@@ 138791
plant@@ 138697
EP 138666
Dou@@ 138335
ida 138328
á 138280
1928 138260
inde@@ 138121
46 138057
si 138024
Jor@@ 137950
Ander@@ 137924
1929 137774
aborat@@ 137615
FA 137489
beau@@ 137403
anta 137285
Aut@@ 137259
System 137172
mayor 137048
weg@@ 136965
yal 136797
č@@ 136673
UN@@ 136607
aga 136540
54 136432
95 136190
az 136165
1934 135947
Mak@@ 135749
iro 135748
lob@@ 135653
var@@ 135587
ird 135533
FI@@ 135481
John@@ 135280
66 135093
ö@@ 135045
aki 134823
CA 134690
Thom@@ 134682
Gor@@ 134659
ht 134631
grav@@ 134278
fun@@ 134183
pa 134105
Sul@@ 134093
11@@ 134062
ares 134008
urg@@ 133978
Rev@@ 133949
oz@@ 133919
polis 133765
sburg 133664
organ@@ 133541
vor@@ 133344
Tok@@ 132972
Bon@@ 132951
Isra@@ 132848
ä@@ 132800
72 132787
Liv@@ 132501
ges@@ 132442
azi 132388
anga 132384
1932 132159
Ba@@ 132083
Live 131970
Profes@@ 131924
ip@@ 131873
1924 131868
BA 131823
ik 131734
F. 131527
pes 131458
ito 131453
ado@@ 131424
56 131242
zo 131030
program@@ 131022
Az@@ 130892
200@@ 130713
ello 130682
Tun@@ 130584
Dom@@ 130442
Sup@@ 130423
1922 130382
atus 130357
ilit@@ 130272
53 129990
Alb@@ 129973
ō 129954
po 129790
Plan@@ 129700
inaug@@ 129700
Fal@@ 129660
ck@@ 129559
plas@@ 129451
Stand@@ 129311
86 129292
Pot@@ 129286
rich 129257
jum@@ 129171
Tak@@ 128778
1927 128686
88 128538
ga 128256
1921 128241
lam 128188
Kil@@ 128147
Song 128113
Land 128084
aten@@ 127999
Ak@@ 127780
ul 127747
bec 127676
ev 127482
1912 127459
01 127440
76 127384
1931 127367
oo 127364
isis 127345
ost@@ 127272
eta 127215
58 126684
Oli@@ 126665
Hom@@ 126584
Men@@ 126460
Bay@@ 126448
Ca@@ 126396
ão 126333
nis 126313
ele 126301
zona 126167
bom@@ 126155
COVID 126103
62 125958
anz@@ 125765
77 125708
57 125414
1925 125350
Hot 125297
han 124967
ER@@ 124679
SA@@ 124593
án 124575
1923 124480
prise 124470
fal@@ 124454
chi 124383
lar 124321
teri@@ 124311
Ju@@ 124252
Pin@@ 124164
63 124015
Yor@@ 123884
1926 123856
AI@@ 123705
Sau@@ 123704
DC 123630
isa 123458
SA 123422
Albert 123382
terr@@ 123241
Blu@@ 123230
78 123158
urg 123087
fall@@ 123047
1910 122868
els@@ 122781
1916 122664
Plat@@ 122557
iter@@ 122536
Walter 122493
AP@@ 122480
6,@@ 122311
realiz@@ 122276
67 122157
1915 122062
ebo@@ 122048
Entertainment 121985
relig@@ 121832
udi@@ 121815
gar 121775
antas@@ 121728
avi@@ 121661
NA 121564
193@@ 121503
99 121437
moder@@ 121396
kat@@ 121376
Rol@@ 121291
bi 121264
61 121211
89 121098
dor@@ 121033
monum@@ 121000
zone 120928
igh 120882
ei 120814
59 120791
68 120738
Ali 120723
Fil@@ 120710
dur@@ 120677
abri@@ 120537
OS 120447
anni@@ 120324
Vid@@ 120295
tie 120057
Sin@@ 119903
Lam@@ 119840
Bill@@ 119803
Tu@@ 119606
84 119563
agon@@ 119547
Nag@@ 119344
Cab@@ 119198
81 119022
1900 119021
umin@@ 118965
83 118864
nom@@ 118848
sta 118829
Tit@@ 118741
emple 118692
habitants 118543
Hin@@ 118514
ario 118483
tend@@ 118306
* 118300
74 118296
Rot@@ 118084
71 117723
aqu@@ 117660
Rem@@ 117501
oni 117477
Maur@@ 117452
consid@@ 117434
SE@@ 117331
ks@@ 117315
mal@@ 117184
tia 117072
Kam@@ 117034
ony@@ 116936
diplom@@ 116874
87 116833
82 116778
aten 116134
releas@@ 116094
MA 115976
Dol@@ 115957
69 115858
rant 115758
bon@@ 115745
Kin@@ 115619
edo 115500
su 115457
Ann@@ 115209
Hi@@ 115018
ova 114837
sam@@ 114822
Arti@@ 114764
AM@@ 114713
1913 114644
vili@@ 114633
1911 114618
personn@@ 114547
Dig@@ 114517
TA 114471
tab@@ 114245
A.@@ 114196
ander@@ 114082
Kan@@ 113922
Nar@@ 113904
Div@@ 113901
IN@@ 113847
Bask@@ 113670
Anne 113663
Tan@@ 113660
sk 113538
asc@@ 113455
79 113428
Web@@ 113380
Nik@@ 113282
sat@@ 113279
Ben 113211
Cru@@ 113205
É@@ 112909
lus@@ 112693
Fu@@ 112669
tific@@ 112590
CI@@ 112542
SS 112503
indi@@ 112455
rev@@ 112428
S.@@ 112322
hat@@ 112195
.com 112174
73 112103
I. 111827
ori 111755
Prix 111670
ames 111654
Hist@@ 111421
ube 111412
kr@@ 111188
1908 110941
Got@@ 110919
dern 110879
quot@@ 110860
elli 110821
Domin@@ 110434
mir 110421
Ukr@@ 110321
Simon 110108
Rh@@ 110076
mi 109957
DS 109941
yan@@ 109863
Rad@@ 109758
og 109531
Ky@@ 109470
sus 109462
Hil@@ 109422
stati@@ 109357
eng 109328
Na@@ 109323
Kat@@ 109235
conse@@ 109215
pin@@ 109191
tha 109180
Kon@@ 109116
iliz@@ 109045
DVD 108861
orient@@ 108748
stant@@ 108563
Sof@@ 108539
Dal@@ 108500
ji@@ 108468
lum 108386
AN@@ 108355
plus 108260
dat@@ 108213
amer@@ 108048
ig 108036
Rap@@ 107844
SC 107727
sun@@ 107706
ika 107699
olas 107583
rat 107570
Ki@@ 107449
AM 107257
aria 107246
Hen@@ 107099
dren 106993
05 106833
96 106786
oir 106746
Archit@@ 106738
actual 106616
K. 106603
fron@@ 106417
organisation 106216
7,@@ 106152
So 106007
eran 105992
que@@ 105827
Leon@@ 105542
kel@@ 105428
ovi@@ 105423
tot@@ 105423
92 105313
carr@@ 105218
Juan 105205
Form@@ 105115
ny@@ 105061
fe 105023
08 104947
eye 104913
provin@@ 104875
mes 104835
Beau@@ 104812
phy@@ 104787
Mand@@ 104705
pro 104669
Greg@@ 104522
Argentina 104339
50@@ 104327
isch@@ 104304
vin 104285
09 104243
zi@@ 104206
nia 104117
uerto 104117
ustri@@ 104046
acu@@ 103860
bes@@ 103856
conqu@@ 103749
Leb@@ 103661
bt 103486
gal 103462
ker@@ 103366
thu@@ 103360
bay 103288
Band 103269
eur 103229
ng@@ 103214
1905 103163
sal 102913
reci@@ 102852
Kaz@@ 102537
figur@@ 102416
arriv@@ 102369
98 102324
eu@@ 102210
Ern@@ 102150
const@@ 102144
deter@@ 102062
nat@@ 101996
atom@@ 101987
Pad@@ 101931
Antonio 101858
07 101847
tribu@@ 101797
trou@@ 101746
install@@ 101680
SP@@ 101649
jo 101566
1906 101483
natur@@ 101409
Cin@@ 101329
aus 101233
Nam@@ 101150
Marie 101105
chen 101049
pis@@ 101002
1907 100770
ami@@ 100506
97 100410
ender 100225
1909 100168
idi@@ 100063
ius 99921
ensis 99901
eva 99771
aza 99758
wen@@ 99710
PC 99685
150 99624
Alexand@@ 99520
Hit@@ 99378
egr@@ 99346
8,@@ 99140
abr@@ 99110
mac@@ 98674
93 98543
san@@ 98491
princip@@ 98460
jour@@ 98450
Kim 98199
Jos@@ 98080
km@@ 98049
DNA 98027
Anna 98000
simil@@ 97938
Muh@@ 97572
Vil@@ 97566
ax 97458
mill@@ 97412
1904 97365
onal@@ 97347
Liter@@ 97333
aja 97309
TC 97263
Tran@@ 97212
alo 97185
Fern@@ 97179
94 97167
ton@@ 97011
ais 96996
Syn@@ 96828
91 96770
04 96740
Les@@ 96725
aud 96594
Tol@@ 96560
Internet 96534
Eu@@ 96519
Kol@@ 96513
Willi@@ 96483
aissance 96357
lip@@ 96260
bia 96134
Ay@@ 96031
aud@@ 96028
Var@@ 95969
06 95798
Ori@@ 95724
announc@@ 95684
Natur@@ 95639
rich@@ 95611
uba 95591
vet@@ 95319
ST@@ 95280
ete 94954
NBA 94942
CC@@ 94899
Dam@@ 94881
Indonesia 94869
bol@@ 94866
1902 94797
lie@@ 94750
enth@@ 94727
agr@@ 94719
fs 94676
red@@ 94637
Beg@@ 94562
ür@@ 94562
eri 94553
acces@@ 94436
600 94434
itu@@ 94382
ula 94348
Alfre@@ 94342
commune 94342
1901 94301
MP@@ 94285
Fut@@ 94215
aug@@ 94145
Flor@@ 94128
bin 94053
dows 94047
Max 93901
José 93888
otte 93462
Sain@@ 93424
Nat@@ 93371
stitu@@ 93355
alia 93271
1903 93210
ley@@ 93169
02 93040
Cu@@ 92986
AS 92549
PS 92510
Num@@ 92485
Mach@@ 92410
Acc@@ 92229
03 91842
je 91624
neu@@ 91511
800 91393
allas 91365
Gold@@ 91306
Ken@@ 91082
isation 91005
ram@@ 90974
bab@@ 90705
Gener@@ 90634
bed@@ 90566
aux 90497
tal 90404
Abr@@ 90396
Pau@@ 90307
yal@@ 90253
Ig@@ 90181
frag@@ 89991
interpre@@ 89797
oy 89791
adi 89493
Bad@@ 89456
mar 89308
AD@@ 89285
terior 89222
Kit@@ 89004
cos@@ 88879
trol@@ 88869
ă@@ 88850
hai 88846
ann 88772
Id@@ 88690
destin@@ 88632
Wes@@ 88612
aro@@ 88572
Disney 88568
í 88480
jam@@ 88436
Math@@ 88343
ega 88308
fus@@ 88226
Sig@@ 88200
Carl 88191
nch@@ 88175
ob 88118
bu 88027
uli@@ 87994
Way@@ 87869
cha 87869
Mes@@ 87846
Anti@@ 87838
sul@@ 87777
ateur 87729
aceae 87689
10.@@ 87637
Pon@@ 87610
agen 87591
Aug@@ 87554
Deb@@ 87544
ér@@ 87455
tari@@ 87445
CH@@ 87418
propor@@ 87362
Sat@@ 87151
Ing@@ 87147
asa 86830
olf 86761
Prin@@ 86670
ū@@ 86667
vement 86561
1898 86298
Vik@@ 86297
Kos@@ 86295
conc@@ 86266
Rud@@ 86105
AB@@ 86097
hid@@ 86064
NE@@ 86042
Pom@@ 86025
RO@@ 85950
andi@@ 85949
Hir@@ 85817
You@@ 85815
tam@@ 85774
ingen 85695
ambi@@ 85640
mo 85626
AP 85609
Wa@@ 85391
Mik@@ 85370
van@@ 85364
anne 85348
mina 85230
span 85098
bot 85082
Tem@@ 85018
Venez@@ 84986
zy@@ 84919
Bil@@ 84705
iti 84695
zi 84691
CO 84529
Ka@@ 84441
til 84220
bach 84196
Chem@@ 83985
1899 83906
lan 83755
Real 83688
ardo 83563
IM@@ 83559
aide 83538
Hab@@ 83482
Pierre 83472
Jack@@ 83438
uh@@ 83298
V. 83232
web 83204
eria 83120
has@@ 83081
arc@@ 83079
auto@@ 83061
lia 82933
Sant@@ 82857
Bes@@ 82854
Ali@@ 82803
1890 82770
ud 82765
ectu@@ 82703
itt 82676
perior 82644
rad@@ 82628
iden 82625
mari@@ 82394
lah 82347
bol 82246
osh@@ 82100
kid@@ 82044
Lib@@ 82031
Wit@@ 81999
trol 81956
eck@@ 81839
m. 81820
iger 81767
yg@@ 81587
ante 81498
liz@@ 81429
pedi@@ 81294
rid 81243
1896 81184
tel 81161
opo@@ 80948
â@@ 80939
ations@@ 80670
Colomb@@ 80658
Astr@@ 80543
Azer@@ 80523
Seg@@ 80413
interpret@@ 80403
Vel@@ 80341
1895 80157
Stre@@ 80067
Pil@@ 79997
tainment 79974
aire 79972
Sor@@ 79916
xi@@ 79912
cm 79786
UEFA 79777
din 79678
cho 79645
Academ@@ 79526
250 79485
ser 79189
atri@@ 79129
Ji@@ 79093
yon 79030
ée 79009
atia 79006
1897 78981
lev@@ 78969
angel@@ 78911
inspir@@ 78860
Yo@@ 78854
rie 78812
pha 78721
ayan 78560
FIFA 78502
iki 78487
versit@@ 78278
1000 78276
alt 78193
Cum@@ 78040
Frank@@ 77916
Carlos 77899
aer@@ 77893
aba 77870
aha 77713
kan 77701
Distribu@@ 77648
oria 77504
uss 77481
capit@@ 77316
bo 77302
map@@ 77201
aine 77179
ci 77158
grand 77122
9,@@ 76994
Kas@@ 76560
gang 76502
1893 76500
Univers@@ 76283
heim 76255
ken@@ 76190
may@@ 76178
dice 76045
nit@@ 75930
å@@ 75826
alis 75807
uk 75807
national@@ 75806
riff@@ 75772
tent@@ 75761
Windows 75760
rier 75711
ener 75684
yd@@ 75624
Din@@ 75598
bara 75573
1889 75524
1894 75457
Madrid 75427
ente 75350
1892 75349
ú@@ 75305
SS@@ 75056
align 74994
dez 74949
Blan@@ 74927
Clau@@ 74886
Las 74882
anistan 74807
ista 74804
bos@@ 74723
iles 74656
emper@@ 74654
dul@@ 74536
enberg 74502
Has@@ 74432
Argent@@ 74358
kg 74315
RE@@ 74256
194@@ 74031
1885 74020
iri 74010
disput@@ 74006
onz@@ 73905
Nigeria 73815
Lag@@ 73775
ux 73643
ör@@ 73527
Ferr@@ 73522
usal@@ 73516
colspan 73463
Andr@@ 73428
Meg@@ 73422
emen 73285
Ok@@ 73248
vo 73245
Bed@@ 73230
ag 73197
1891 73086
Chile 73024
ía 72703
voy@@ 72652
esa 72617
Hand@@ 72603
hil 72505
1888 72404
ehr@@ 72401
Nu@@ 72378
Syst@@ 72357
Liga 72144
cia 72126
embr@@ 72098
Lis@@ 71852
Karl 71565
ré@@ 71451
sel 71348
Nob@@ 71143
Kl@@ 70998
Brand@@ 70952
fici@@ 70920
BM@@ 70621
ongo@@ 70523
Lud@@ 70501
1865 70447
ili 70406
tica 70397
1880 70375
lor@@ 70370
berto 70366
princi@@ 70242
× 70190
ana@@ 70124
ongo 70088
ī@@ 70086
Kap@@ 69980
iler 69925
Maz@@ 69920
esse 69762
shu@@ 69485
elen 69465
tif@@ 69359
1864 69337
1887 69271
1870 69192
ü@@ 69031
ñ@@ 68981
1861 68747
tee 68676
uma 68562
Et@@ 68553
née 68520
Roy@@ 68495
haus@@ 68493
cad@@ 68469
Nak@@ 68462
quit@@ 68435
23@@ 68417
ento 68368
sev@@ 68312
Nig@@ 68293
eto 68256
aro 68175
vec@@ 67958
icia 67858
vern@@ 67754
1886 67694
− 67643
ras@@ 67593
VI 67574
inn 67540
1862 67518
nes@@ 67483
1863 67218
onder@@ 67204
gri@@ 67202
iff 67127
Guinea 67090
sang 67039
Bau@@ 66964
bind@@ 66934
700 66919
ogr@@ 66846
120 66807
kul@@ 66780
40@@ 66697
phil@@ 66682
12.@@ 66613
1884 66536
nant 66493
ache 66465
ž@@ 66275
dium 66244
con 66153
enne 66153
bun@@ 66138
oblig@@ 66123
hat 66013
olo@@ 66010
nas@@ 65962
soft 65900
apon 65891
kes@@ 65887
rez 65806
1881 65783
Sak@@ 65701
Hat@@ 65658
ble@@ 65581
voir 65465
11.@@ 65424
ener@@ 65398
kw@@ 65259
manif@@ 65175
tant 65078
Arg@@ 65033
tan 64960
aise 64945
asi 64860
Enter@@ 64792
ș@@ 64753
Sah@@ 64667
wak@@ 64652
ainer 64580
univers@@ 64505
asti@@ 64430
cant@@ 64238
kit@@ 64212
Beh@@ 64143
eron 64123
Ant@@ 64106
milli@@ 64023
Bou@@ 63987
1882 63978
han@@ 63968
ho 63946
ui 63685
ô@@ 63564
som@@ 63498
nik 63488
dal@@ 63387
oi 63253
ulu 63137
uela 63134
cargo 63093
liga 63090
Sz@@ 62980
absol@@ 62897
nd@@ 62772
hau@@ 62735
etti 62666
Hamb@@ 62650
eno 62573
iga 62566
ave@@ 62547
Comp@@ 62534
ë@@ 62312
ander 62206
ç@@ 62174
Kom@@ 62103
eur@@ 62099
tag@@ 62077
endant 62032
gio 61989
1883 61931
Mut@@ 61898
mad@@ 61862
Radi@@ 61788
elem@@ 61760
Barcelona 61742
Š@@ 61681
1871 61635
Vit@@ 61575
Do 61533
proxim@@ 61521
Sult@@ 61511
1876 61437
Buch@@ 61376
1860 61271
utiliz@@ 61187
1878 61181
ej@@ 61142
Hans 61109
sil 61037
Luis 61029
trag@@ 61006
Á@@ 60999
auc@@ 60983
mula 60858
kir@@ 60828
Les 60782
geb@@ 60698
Microsoft 60696
tru@@ 60659
Kab@@ 60599
ierra 60560
kan@@ 60528
olo 60521
kilom@@ 60504
deci@@ 60500
vel 60497
Afr@@ 60440
registr@@ 60403
mili@@ 60402
aco 60342
Jose@@ 60264
Seb@@ 60078
ael 60067
Kun@@ 60002
cos 59974
à 59974
Institu@@ 59973
Tex@@ 59816
ère 59780
mant@@ 59721
tt@@ 59616
dae 59615
aden 59574
seud@@ 59573
forman@@ 59338
com 59303
haz@@ 59268
ref 59195
dil@@ 59166
stell@@ 59138
tir@@ 59102
tim 59028
1867 58965
1872 58888
vor 58815
1875 58734
Kenya 58593
án@@ 58548
1879 58522
Wag@@ 58409
Rah@@ 58319
da@@ 58163
Zi@@ 58071
1868 57970
enburg 57780
mes@@ 57622
crit@@ 57458
Haz@@ 57334
Album 57203
1874 57184
Sport@@ 57147
sort 57144
Ober@@ 57098
san 57071
Gas@@ 57034
Bun@@ 57015
tar 56966
1873 56940
ift 56905
inclus@@ 56796
1877 56791
ext 56787
mati@@ 56787
wig 56719
annes 56714
1866 56635
€ 56624
ido 56585
fa 56508
0,@@ 56481
ling@@ 56413
Pedro 56390
das 56386
entre@@ 56350
iker 56251
nak@@ 56245
elo 56170
Mod@@ 56032
illo 55975
yi 55922
tus 55775
Wer@@ 55756
bak@@ 55721
uno 55565
esia 55561
Indon@@ 55536
Pier@@ 55532
ogen 55310
vit@@ 55283
ń@@ 55174
wir@@ 55167
retr@@ 54844
.S. 54671
aron 54552
Fir@@ 54399
oli 54338
ng 54312
Manuel 54248
1869 54230
eni 54178
ín 54124
1848 54062
Ny@@ 54003
WW@@ 53992
uki 53975
35@@ 53860
æ@@ 53747
• 53717
Thi@@ 53691
coup 53688
uru 53613
Mann@@ 53515
jer@@ 53489
… 53434
omo 53387
mani@@ 53341
Shu@@ 53338
Ng@@ 53295
iko 53236
tes@@ 53162
eder@@ 53128
adu@@ 52940
amo 52789
retir@@ 52771
Augus@@ 52759
1850 52719
Parti@@ 52580
endo 52407
onne 52357
och 52270
Kle@@ 52133
vas@@ 52108
anus 52029
alle@@ 52005
acht 51977
ident@@ 51933
dies@@ 51930
los 51920
fon@@ 51727
opsis 51652
eus 51490
ku 51440
Jacques 51363
Tab@@ 51353
Google 51268
ó 51150
dir@@ 50749
Esp@@ 50630
tag 50349
rus@@ 50204
ers@@ 50055
milit@@ 50005
alan 49926
tec@@ 49863
Cou@@ 49769
Emp@@ 49714
tico 49659
best@@ 49542
estig@@ 49443
Carr@@ 49301
kal@@ 49299
Was@@ 49286
diz@@ 49246
aut 49220
zer 49174
sin 49125
aye 49122
80@@ 49097
ilk 49022
Gaz@@ 48850
Cant@@ 48725
ii 48620
neo 48618
icas 48616
ingo 48558
eler 48373
dorf 48346
ę@@ 48296
Die 48263
isha 48243
iter 48191
enda 48165
Dani@@ 48125
cio 48108
gi 47978
aa 47740
ique 47692
sch 47628
ayo 47610
dis 47595
abe 47392
sar@@ 47378
gan@@ 47377
igi@@ 47376
Migu@@ 47282
na@@ 47281
ango 47203
aca 47156
unda 47081
Premi@@ 47024
min 47008
ā 46850
denomin@@ 46848
pen 46809
Bib@@ 46806
Serie 46761
chen@@ 46720
avi 46627
chr@@ 46530
tn@@ 46333
Rein@@ 46270
Alex@@ 46250
Kis@@ 46247
ern 46125
profes@@ 46086
ois 46067
adil@@ 46017
day@@ 45877
Friedrich 45874
enf@@ 45874
alar@@ 45868
propri@@ 45840
110 45824
uel@@ 45786
util@@ 45743
AG 45732
evi@@ 45690
Name 45523
Kim@@ 45446
tent 45241
prises 45160
constr@@ 45153
Johann 45040
Wilhelm 45035
101 45021
abil@@ 45011
gli@@ 45010
gin@@ 45000
pad@@ 44927
furt 44856
Meh@@ 44845
ecu@@ 44813
Paulo 44749
usa 44574
Grande 44571
Wak@@ 44515
Uganda 44500
oles 44493
fest@@ 44480
Lon@@ 44315
Micro@@ 44314
Anton@@ 44268
umi 44245
François 44237
isi 44105
dial 44096
Gru@@ 43848
anno@@ 43817
wake 43814
Say@@ 43810
idi 43776
sur 43698
west@@ 43654
ū 43639
feld 43567
900 43551
Aires 43502
Buenos 43423
etz@@ 43205
Kre@@ 42970
VII 42963
omin@@ 42919
Fam@@ 42912
oro 42814
è@@ 42809
uer@@ 42756
aque 42703
sep@@ 42693
Son 42606
anes 42593
cht 42584
olan 42583
bis@@ 42422
130 42347
apa 42343
tu 42278
Compan@@ 42175
Hindi 42173
ishi 42102
verl@@ 41944
Lig@@ 41915
stan@@ 41875
ativ@@ 41844
eb 41723
htt@@ 41662
180 41601
eda 41393
Um@@ 41311
bau@@ 41256
én@@ 41234
apar@@ 41199
Santiago 41119
ī 41071
inae 41066
{ 41038
201@@ 41007
eleg@@ 40997
VI@@ 40940
oci@@ 40937
IX 40921
Prof@@ 40904
öl@@ 40848
igo 40788
Hau@@ 40732
š 40628
tham 40620
ouv@@ 40589
ül@@ 40538
Centr@@ 40485
conten@@ 40453
etes 40442
Franz 40410
inus 40406
intro@@ 40392
Berg@@ 40321
aji 40282
.. 40134
iz 40117
ator@@ 40041
és 39867
ár@@ 39854
kel 39811
vi 39803
erst@@ 39776
Tou@@ 39537
Bundes@@ 39523
ś@@ 39515
yu 39490
ism@@ 39450
esta 39443
Inn@@ 39431
uta 39409
Schwar@@ 39402
elles 39397
cer 39383
uni 39313
Kad@@ 39278
nt 39275
33@@ 39254
encia 39251
Film@@ 39197
Vor@@ 39142
\ 39140
Ou@@ 38941
ór@@ 38908
1830 38823
immer 38795
eka 38782
Rum@@ 38769
dad 38698
Gel@@ 38652
ats@@ 38647
vil@@ 38612
fab@@ 38583
oca 38583
ainst 38429
emble 38416
Kul@@ 38415
esi 38328
imi@@ 38319
ede 38275
ater@@ 38218
idad 38213
Am 38179
senti@@ 38101
Henri 38093
1800 38072
ensemble 37918
Hein@@ 37858
thi 37725
lis@@ 37645
blan@@ 37624
Eurov@@ 37493
Rep@@ 37424
är@@ 37417
chin@@ 37390
Riv@@ 37332
ilia 37300
lara 37291
isten 37268
lag@@ 37244
Ł@@ 37179
Stein@@ 37124
WWE 37103
ien 37083
sad@@ 37074
1500 37057
oka 37036
sab@@ 36989
ias 36986
fin 36906
DR 36862
Deutsch@@ 36861
hir 36848
350 36727
yat@@ 36686
imo 36593
unci@@ 36509
140 36500
María 36490
160 36478
eti 36474
ning@@ 36463
ui@@ 36340
erie 36251
inos 36185
imi 36062
kon@@ 35965
Copa 35881
fen@@ 35881
ca@@ 35871
bli@@ 35853
ados 35832
tique 35764
finale 35722
uka 35641
telev@@ 35593
par 35575
Uz@@ 35520
Hak@@ 35374
orum 35372
ww@@ 35345
ppe 35338
hie 35309
zig 35292
hut@@ 35274
uli 35168
Ein@@ 35161
var 35095
sche 35057
amba 35036
inda 35036
isons 35029
hist@@ 35023
ben 34892
eca 34859
stanbul 34801
Kus@@ 34765
CN 34762
cher@@ 34753
neces@@ 34751
oko 34706
Č@@ 34705
ayn@@ 34689
lug@@ 34651
lu 34477
zar@@ 34357
188@@ 34334
bek@@ 34318
unge 34303
stadt 34285
apos@@ 34264
ogo 34264
w.@@ 34253
inger@@ 34228
uro 34204
jug@@ 34145
Herr@@ 34101
ás 34067
ï@@ 33926
iki@@ 33914
za@@ 33873
Nacional 33723
adol@@ 33707
ool 33693
él@@ 33692
Kid@@ 33631
Reich@@ 33604
ilo 33560
kab@@ 33529
National@@ 33523
anan 33414
inga 33329
amen 33315
Nord@@ 33290
eros 33231
inas 33199
tad@@ 33170
eine 33124
Europ@@ 33101
lé@@ 33073
anos 32965
11,@@ 32946
Kö@@ 32924
Alt@@ 32922
dé@@ 32725
lau@@ 32639
Yar@@ 32604
² 32449
Kem@@ 32330
bourg 32323
eu 32307
Mé@@ 32130
por 32020
120@@ 31995
otr@@ 31987
Minister@@ 31953
Gö@@ 31829
División 31823
atu 31736
bas 31690
189@@ 31578
azar@@ 31545
ña 31541
mus 31536
vier 31509
dar 31466
agne 31413
ț@@ 31408
esto 31361
gul@@ 31357
Da 31355
premier 31258
ř@@ 31231
Gem@@ 31216
Heinrich 31179
asse 31142
~ 31021
coul@@ 31020
eder 30914
auer 30911
isine 30911
ð@@ 30905
Chic@@ 30863
alien 30837
derni@@ 30818
Stra@@ 30793
lung 30761
matr@@ 30746
XX@@ 30650
xe 30642
emi 30525
Fried@@ 30457
agua 30455
-- 30349
fi 30345
ischer 30314
yar@@ 30262
sam 30181
Ž@@ 30153
3000 30096
} 30090
zen@@ 29987
ą@@ 29919
rod@@ 29818
tos 29807
190@@ 29806
bou@@ 29753
ön@@ 29721
kor@@ 29689
sie 29677
yak@@ 29633
oso 29624
antes 29577
incor@@ 29541
ń 29495
én 29469
aç@@ 29428
Tang@@ 29356
pens@@ 29314
hen 29312
rech@@ 29235
alit@@ 29178
endi@@ 29176
Baz@@ 29129
dem 29122
dos 29094
kata 29086
cole 29078
ige 29062
α 28857
10,@@ 28816
Milli@@ 28815
spor@@ 28800
zu 28796
dose 28794
pendi@@ 28770
ono 28735
zam@@ 28625
Ö@@ 28617
Grou@@ 28605
Il 28527
nier 28524
pos 28521
Tanzania 28468
kho@@ 28453
erek 28313
alla 28305
187@@ 28291
kad@@ 28263
ahl 28252
Jul@@ 28235
uo 28202
ş@@ 28174
Kay@@ 28144
chu@@ 28143
Neu@@ 28018
auf@@ 27995
enta 27945
Eisen@@ 27914
edi 27886
Kais@@ 27799
sten 27796
amar@@ 27761
Ō@@ 27701
lon@@ 27662
GC 27633
añ@@ 27549
ć@@ 27510
Luf@@ 27478
ste 27391
Sach@@ 27343
Wir@@ 27300
Ord@@ 27274
ès 27256
pi 27239
anas 27142
afa 27131
tras@@ 27081
Canton 27061
aller@@ 27047
beit 26948
ación 26885
este 26853
gem@@ 26699
ient 26695
eurs 26607
toire 26602
kis@@ 26588
ahl@@ 26510
ém@@ 26466
Ç@@ 26435
Ped@@ 26415
elt@@ 26379
dir 26325
ë 26323
anza 26307
Wan@@ 26255
rio 26212
xa 26179
ö 26176
ahr@@ 26137
vie 26134
Ś@@ 26103
anya 26074
clas@@ 26030
ú 25997
hiz@@ 25995
rí@@ 25935
nou@@ 25920
lich@@ 25874
Europa 25840
Universit@@ 25834
Ere@@ 25830
strum@@ 25777
ʻ@@ 25776
alan@@ 25733
Đ@@ 25705
awa@@ 25611
Yah@@ 25566
orio 25507
ê@@ 25504
Kut@@ 25457
zin@@ 25449
bio 25412
ʼ@@ 25334
aines 25323
wi 25307
bis 25249
sis 25199
bei 25160
fo 25144
124@@ 25134
186@@ 25044
ég@@ 25013
ische 24799
hak@@ 24796
ennes 24772
kur@@ 24709
qua 24626
jan@@ 24554
hiv@@ 24517
ebe 24504
rique 24471
irat@@ 24447
DV@@ 24411
β 24328
½ 24319
mise 24250
sein 24226
irk 24220
angi 24179
leb@@ 24163
ă 24099
einer 24066
eg 24009
eras 23957
hara 23947
Roma 23924
Cao 23916
etti@@ 23905
Kamp@@ 23843
dipl@@ 23838
uj@@ 23828
muda 23798
12,@@ 23771
dan@@ 23732
illes 23656
Distr@@ 23650
Alg@@ 23633
gil@@ 23631
uch 23616
commen@@ 23493
zu@@ 23485
ène 23481
proces@@ 23459
Der 23389
ét@@ 23376
Bras@@ 23366
mim@@ 23360
kom@@ 23292
aber 23204
onde 23176
ís 23140
lang 23108
isch 23099
ilg@@ 23082
pes@@ 23037
ě@@ 23015
ères 23007
iche 23003
para 22950
zer@@ 22938
ño 22921
Spi@@ 22880
Italia 22840
zon@@ 22817
tín 22805
Yun@@ 22774
ío 22756
ż@@ 22705
eshi 22630
tas 22629
kum@@ 22621
ortho@@ 22598
Volks@@ 22584
hem 22504
isp@@ 22459
Ré@@ 22439
gaz@@ 22409
ás@@ 22372
enin 22258
Schw@@ 22195
ako 22054
fu 21874
cultur@@ 21843
Yer@@ 21791
Jah@@ 21740
än@@ 21738
Å@@ 21699
Yes@@ 21612
iller@@ 21521
kara 21497
unga 21483
vat@@ 21462
uda 21410
Das 21408
ilio 21393
oj@@ 21381
éri@@ 21343
suite 21308
verg@@ 21299
kam@@ 21260
üs@@ 21232
Von 21226
Zu@@ 21115
kol@@ 21113
tí@@ 21095
abu 21082
rol 21072
adan 21043
signi@@ 20998
apo 20922
ège 20908
î@@ 20902
Nord 20892
ehr 20871
sta@@ 20864
march@@ 20839
namo 20731
tul@@ 20730
a. 20666
Ges@@ 20618
esch@@ 20594
tard 20581
ya@@ 20572
bay@@ 20522
bah@@ 20504
eig@@ 20478
ney@@ 20428
č 20428
qui 20390
âteau 20380
Sek@@ 20318
merc@@ 20315
grab@@ 20308
Mec@@ 20240
kle@@ 20055
raz@@ 20034
Con 20030
ina@@ 20025
ün@@ 19930
uz 19889
· 19879
eux 19866
aison 19757
dispar@@ 19644
atro 19632
ál@@ 19543
Kri@@ 19513
avant 19513
lang@@ 19483
Mün@@ 19451
allen 19386
má@@ 19380
asser 19334
arios 19298
für 19297
phe 19276
nie 19273
Schul@@ 19258
Des 19203
chef 19193
aret 19174
ü 19173
Phi 19087
emas 19055
jun@@ 19054
ä 18864
ý 18801
ande 18769
mash@@ 18740
pas 18740
bre 18649
õ@@ 18613
Wah@@ 18574
ē@@ 18531
tige 18511
Su 18448
toria 18439
chez 18435
geh@@ 18430
dav@@ 18428
Form 18387
Es 18246
eles 18172
′ 18160
Fren@@ 18154
@ 18095
sei 18090
erre 18084
benz@@ 17977
pour 17977
icio 17962
yas@@ 17938
ø 17921
isco 17888
ici 17850
Ş@@ 17835
Nis@@ 17810
enst@@ 17798
» 17741
éli@@ 17728
Oy@@ 17665
communes 17631
tura 17630
Pf@@ 17616
lek@@ 17599
kay@@ 17579
pour@@ 17557
umba 17517
Si 17515
isto 17439
« 17380
Haus@@ 17346
quel@@ 17320
poin@@ 17306
orie 17304
lib@@ 17289
plu@@ 17252
nin 17247
Ø@@ 17229
dici@@ 17227
üh@@ 17217
tivo 17141
enas 17122
--@@ 17106
ə@@ 17092
ité 17060
Sta@@ 17052
erra 17028
nationale 16974
rom 16968
trat@@ 16923
ź 16919
aires 16917
üt@@ 16900
alle 16897
enz 16896
ambo 16883
nen 16847
Tek@@ 16844
essen 16817
Eis@@ 16772
Ost@@ 16753
inen 16753
Gran 16736
yen 16682
anl@@ 16635
schule 16632
jas 16620
XVI 16567
stil@@ 16566
Franç@@ 16540
đ@@ 16498
nac@@ 16369
aume 16360
Soh@@ 16341
its@@ 16337
vez 16336
Hoch@@ 16326
eki 16322
् 16304
mah@@ 16259
Bez@@ 16252
esha 16249
En 16245
Sa 16245
→ 16234
inden 16225
ș 16200
adas 16156
tera 16126
zon 16051
XX 16027
Biz@@ 16002
dest@@ 15965
bahn 15917
bao 15907
mann@@ 15881
éc@@ 15811
μ@@ 15801
amu 15778
äl@@ 15751
isse 15746
Ba 15672
Ban 15670
ción 15635
tras 15614
Dé@@ 15563
entes 15556
ayr@@ 15500
aras@@ 15459
gu 15436
aban 15395
onen 15376
Sur 15288
Mek@@ 15275
alc@@ 15212
ende 15211
mara 15199
lich 15191
kun@@ 15190
Un 15179
Fes@@ 15175
hay@@ 15173
aup@@ 15118
mez 15115
ime@@ 15104
KK 15088
utz 15065
Famili@@ 15018
ungs@@ 15011
arak 15009
isen 14973
és@@ 14960
undo 14906
Universidad 14889
sak@@ 14836
yer@@ 14827
Sin 14796
pays 14747
endi 14743
acha 14730
oire 14687
ulia 14675
Amér@@ 14670
hui 14670
tur 14626
onc@@ 14598
Ż@@ 14581
quel 14578
à@@ 14571
Wash@@ 14523
Jug@@ 14521
chia 14519
wah@@ 14500
sol 14489
ón@@ 14482
ça 14478
enga 14399
mam@@ 14368
chs 14349
etc. 14349
té 14347
haus 14315
ő@@ 14267
BK 14234
Campeonato 14220
Ó@@ 14204
hin 14167
Seine 14142
å 14115
év@@ 14077
ı@@ 14066
kop@@ 14055
inh 14021
gru@@ 14011
cas 14001
ğ@@ 13995
acio 13959
Institut 13910
arse 13882
ò 13875
ede@@ 13841
adém@@ 13818
yok@@ 13783
ées 13754
ʿ@@ 13660
vy@@ 13656
öh@@ 13653
eza 13615
sir@@ 13542
ş 13379
sans 13362
Æ@@ 13359
optera 13302
Minh 13273
Schi@@ 13265
NGC 13240
seau 13218
hr 13215
mis 13181
idas 13164
lieu 13154
erk@@ 13138
lik 13127
Kant@@ 13120
Wilhel@@ 13106
mez@@ 13093
§ 13071
† 13037
ı 13016
été 12997
Mai 12996
eil@@ 12975
Engl@@ 12966
teur 12937
kt 12920
Nam 12908
kap@@ 12904
ác@@ 12839
Nach@@ 12835
aina 12823
tech@@ 12815
ê 12804
Î@@ 12803
arte 12791
Ú@@ 12716
bez@@ 12690
drei 12676
Zw@@ 12649
straße 12641
usi 12623
topl@@ 12619
gut 12614
aifa 12598
uso 12579
eil 12550
É 12546
ías 12524
alen 12516
engo 12492
americ@@ 12460
Ó 12459
nea 12432
± 12430
kö@@ 12428
bern@@ 12410
König@@ 12385
gel 12385
endel@@ 12354
ł 12343
Ort@@ 12263
chev@@ 12238
ė 12232
tir 12222
tien 12177
sey@@ 12168
empl@@ 12166
kus@@ 12166
malar@@ 12163
pio 12163
utz@@ 12105
neur 12068
Unter@@ 12006
esen 12004
Para 12003
Klo@@ 11982
iken 11933
Sü@@ 11926
eren 11926
Dies@@ 11900
hay 11884
Ankara 11852
atz 11821
Gün@@ 11787
Bev@@ 11786
embar@@ 11783
ometr@@ 11774
his@@ 11743
Fak@@ 11717
icos 11668
è 11662
Ā@@ 11661
jaw@@ 11639
İ@@ 11630
yap@@ 11563
quay 11560
bul 11553
inde 11534
riff 11526
üc@@ 11524
muz@@ 11488
estruc@@ 11472
roy@@ 11472
thu 11454
iwa 11446
México 11427
indi 11424
naci@@ 11415
iste 11406
wam@@ 11404
maf@@ 11389
duk@@ 11385
mont@@ 11371
maz@@ 11358
Kib@@ 11296
iku@@ 11283
ṣ@@ 11241
atos 11229
alar 11206
ß@@ 11158
lage 11154
Tari@@ 11140
Schl@@ 11110
ß 11089
üb@@ 11075
assen 11050
ḥ@@ 11016
icht 11001
Arth@@ 10958
Brasil 10949
ilde 10930
azo 10873
tah@@ 10857
inci 10854
chn@@ 10822
atur 10811
bres 10805
″ 10787
kim@@ 10779
umbo 10762
lil@@ 10702
scher 10658
bey@@ 10641
tet 10638
phi 10631
Ü@@ 10623
érie 10623
eaux 10616
ikan@@ 10574
ė@@ 10567
ṭ@@ 10555
ól@@ 10492
bir 10483
kas@@ 10481
י@@ 10480
UE@@ 10464
egen 10454
verw@@ 10432
utilis@@ 10430
mich@@ 10420
Politi@@ 10411
wala 10402
fak@@ 10380
Ayr@@ 10376
kt@@ 10359
yaz@@ 10348
`@@ 10342
imba 10329
zel@@ 10314
zw@@ 10271
cu 10266
aum 10240
fen 10233
ät@@ 10219
Papa 10217
obr@@ 10212
franc@@ 10202
omen 10137
secu@@ 10104
pia 10102
nun 10053
ţ@@ 10042
det 10035
ickl@@ 10032
meister 10018
baz@@ 9985
kim 9974
ück 9959
Ago@@ 9952
echo 9931
achen 9904
inner@@ 9892
ì 9857
ismo 9772
oyn@@ 9772
schaft 9769
edad 9763
oder 9762
igen 9756
nos 9725
gemein@@ 9678
ŏ@@ 9669
Nguyễn 9661
yen@@ 9654
teh@@ 9645
ien@@ 9618
undi 9617
ṇ@@ 9580
itung 9576
Kik@@ 9550
ý@@ 9544
Geometr@@ 9543
ingia 9526
் 9512
tigen 9484
│ 9481
erh@@ 9471
Nieder@@ 9460
lí@@ 9447
ellschaft 9443
inin 9443
Krieg@@ 9427
esper@@ 9418
Kup@@ 9394
dur 9390
mf@@ 9385
leur 9374
egem@@ 9338
Spiel@@ 9332
luk 9330
ún 9322
udi 9320
ded@@ 9316
sich@@ 9315
ו@@ 9300
^ 9272
arias 9237
España 9236
marqu@@ 9221
sti 9158
andes 9065
Theo 9045
Guin@@ 8972
zt 8961
octu@@ 8957
Haupt@@ 8883
Como 8880
ip 8828
Se 8822
Geb@@ 8818
azu 8815
Anc@@ 8812
condu@@ 8792
1. 8789
enden 8751
zur 8747
Stad@@ 8746
Califor@@ 8744
fond@@ 8733
kam 8723
noch 8720
nom 8715
iran 8704
dans 8671
Schwe@@ 8670
mw@@ 8669
erin 8664
auf 8647
Ș@@ 8633
jah@@ 8608
rö@@ 8595
tros 8590
rue 8578
lichen 8547
ô 8546
ín@@ 8544
wich@@ 8543
tig 8542
Tanz@@ 8529
û@@ 8497
tima 8494
iler@@ 8487
tung 8477
unde 8446
aille 8440
ateurs 8438
zur@@ 8431
kip@@ 8422
Mart 8403
ellen 8350
veau 8334
kana 8295
nig 8290
jos 8252
umo 8252
haf@@ 8245
Ab 8198
aki@@ 8182
ellas 8177
Ent@@ 8173
dik@@ 8173
tek 8172
hio 8167
début 8159
istas 8152
brach@@ 8143
lı 8127
ungen 8108
Í@@ 8108
uko 8105
kre@@ 8094
eon@@ 8063
kav@@ 8053
α@@ 8038
itali@@ 8018
wana 8015
ehem@@ 8001
tiva 8001
Nueva 7996
Virgin@@ 7993
ã@@ 7970
tam 7957
quan 7956
elek@@ 7946
formes 7933
wani 7932
Burundi 7916
rem 7895
enos 7892
XV@@ 7889
stad@@ 7877
oku@@ 7863
œ@@ 7855
emba 7811
oğlu 7799
kut@@ 7783
Ni 7777
pf@@ 7776
Conse@@ 7774
Apr@@ 7754
dér@@ 7737
perten@@ 7732
Alem@@ 7723
Historia 7716
Nh@@ 7712
lub 7696
tik 7680
ös@@ 7672
wie 7662
issen 7655
Sud 7641
Landes@@ 7598
empres@@ 7598
Nguy@@ 7589
mau@@ 7583
Gü@@ 7568
ép@@ 7558
Öz@@ 7546
brit@@ 7539
ç 7512
üm@@ 7489
mé@@ 7487
opo 7487
aliy@@ 7482
publi@@ 7481
ò@@ 7442
aben 7435
lieb 7425
eden@@ 7420
tish@@ 7418
kri@@ 7408
ù 7394
Dok@@ 7392
Grund@@ 7379
nacional 7372
uten 7371
µ@@ 7371
Rus 7354
orden 7329
aje 7326
aş@@ 7296
yol@@ 7292
aill@@ 7286
zog 7285
uza 7284
nach 7277
otra 7270
führ@@ 7260
XVIII 7242
ın@@ 7234
mt@@ 7190
Þ@@ 7175
hier 7170
liche 7168
tek@@ 7120
itos 7117
Mei 7110
afr@@ 7107
nay 7104
ampi@@ 7091
alem@@ 7059
Ä@@ 7059
eler@@ 7034
Mw@@ 7013
porte 7012
izi 7011
eño 6998
graf@@ 6975
çe 6974
grup@@ 6973
werk 6965
dini 6963
2. 6943
tei 6942
hii 6939
git@@ 6934
Lan 6926
Bü@@ 6925
platz 6897
recu@@ 6890
Guerra 6858
eski 6849
ayar@@ 6846
大@@ 6841
imbo 6825
Rech@@ 6824
odo 6817
qu 6784
Öster@@ 6769
ifu 6763
Una 6753
eñ@@ 6751
atura 6738
isión 6736
onio 6725
Heim@@ 6711
Alman@@ 6703
Hö@@ 6688
cet 6661
herr@@ 6658
leri 6656
ewa 6650
èle 6633
tay@@ 6620
isches 6607
hud@@ 6605
Süd@@ 6600
mec@@ 6593
leh@@ 6576
Sov@@ 6573
ibu 6572
èse 6561
Zwe@@ 6545
ân 6515
seur 6511
ensa 6500
ő 6488
Groß@@ 6485
ève 6480
eure 6457
erte 6455
kia 6443
ngh@@ 6432
ž 6408
Elle 6407
anay@@ 6392
kreis 6389
γ 6380
auch 6379
mak 6370
ın 6367
umu 6365
ancia 6364
adores 6361
Oly@@ 6359
ecke 6358
ã 6341
gesch@@ 6339
ağ@@ 6331
lieg@@ 6321
Musik@@ 6310
né 6309
khi 6287
heit 6285
‑ 6280
ologie 6264
enen 6261
Stadt@@ 6254
Mp@@ 6247
jia 6239
dad@@ 6235
́ 6232
rek@@ 6221
192@@ 6203
Au 6174
wann 6170
entos 6163
eş@@ 6162
izo 6143
zis@@ 6140
jap@@ 6109
äng@@ 6094
Dez@@ 6074
äd@@ 6052
tere 6041
Best@@ 6040
Akad@@ 6012
éd@@ 5980
ischen 5968
unas 5959
Este 5946
zas 5924
chini 5910
´ 5909
tés 5908
hasa 5897
una@@ 5880
Akadem@@ 5878
bere@@ 5867
embargo 5849
hali 5846
monde 5822
waf@@ 5807
ansa 5791
cá@@ 5783
sche@@ 5776
unu 5774
Partido 5771
ר@@ 5763
ņ@@ 5761
æ 5759
β@@ 5741
----@@ 5737
ğ 5735
äs@@ 5732
Vier@@ 5722
oren 5710
éro@@ 5710
Ḥ@@ 5705
pero 5682
adhi 5676
nah@@ 5670
א@@ 5661
ème 5655
ա@@ 5646
Santi@@ 5630
ň 5630
ense@@ 5621
、 5610
Staats@@ 5594
Feb@@ 5589
schen 5585
äh@@ 5584
iç@@ 5532
sek 5516
¥ 5501
cula 5471
λ 5452
İz@@ 5437
ís@@ 5435
doğ@@ 5433
π 5426
sik@@ 5422
bang 5416
XIX 5409
kaz@@ 5396
ος 5379
usu 5371
Parti 5369
ög@@ 5357
Ein 5344
ź@@ 5341
éo 5334
aña 5330
onnat 5304
村 5300
ð 5287
iten 5255
istes 5241
qué 5241
donn@@ 5217
xu@@ 5217
izi@@ 5216
uu 5209
leo 5198
issen@@ 5191
éch@@ 5191
Grün@@ 5186
Bei 5170
hari@@ 5155
française 5147
onge@@ 5122
adora 5112
laya 5109
novi@@ 5106
dung 5094
quier 5089
eten 5074
₹ 5065
Deutschland 5043
atif 5042
ên 5042
útbol 5039
anh 5037
mano 5033
Bu 5032
ε 5030
מ@@ 5029
eben 5021
eso 5021
emu 4989
σ 4984
gü@@ 4975
estas 4967
ık@@ 4960
kön@@ 4957
deu@@ 4955
rég@@ 4948
Kig@@ 4945
Wasser@@ 4940
Straße 4937
kend@@ 4937
endre 4933
yay@@ 4919
zor@@ 4916
eden 4901
bü@@ 4895
mé 4895
bau 4894
Gruppe 4893
ır@@ 4890
yet@@ 4887
3. 4886
kwa 4879
angu 4874
wap@@ 4858
kio 4815
‐ 4814
anah@@ 4802
département 4792
gol 4792
ngu@@ 4791
iß@@ 4778
inco 4775
dak@@ 4772
hac@@ 4769
tif 4762
Zeit@@ 4757
μ 4756
ω 4746
waka 4730
mik@@ 4719
ête 4706
州 4699
ē 4697
anst@@ 4696
inay@@ 4694
schrift 4691
Văn 4682
seh@@ 4682
ubic@@ 4682
ב@@ 4680
≤ 4670
elde 4657
huy@@ 4655
egos 4653
ï 4646
sé@@ 4639
zil@@ 4634
ל@@ 4630
і@@ 4627
reich 4625
Δ@@ 4604
„ 4594
reib@@ 4578
unia 4574
premiers 4570
tof@@ 4570
ḍ@@ 4566
ße 4558
4. 4548
ingi 4545
Woh@@ 4544
ù@@ 4543
Ḩ@@ 4539
för@@ 4528
Bình 4515
gö@@ 4512
Mittel@@ 4497
ık 4481
Ć@@ 4480
uzi 4476
Việt 4473
Universität 4471
Trần 4457
Im 4445
fica 4442
ühr@@ 4442
schi@@ 4440
Sơn 4439
jed@@ 4438
Bir 4436
spor 4434
Thanh 4432
enso 4426
№ 4423
atta@@ 4420
rá@@ 4414
ım 4400
tena 4396
ús@@ 4390
³ 4363
С@@ 4354
cion@@ 4345
edil@@ 4343
erste 4330
ungu 4318
ì@@ 4314
encore 4303
≥ 4303
eser@@ 4297
sana 4288
Ö 4279
Lehr@@ 4278
Osman@@ 4266
sous 4258
中@@ 4258
âte@@ 4244
alim@@ 4224
wur@@ 4221
ezi 4210
Histoire 4203
sos@@ 4201
ký 4198
ánh 4188
anyika 4186
jou@@ 4184
ש@@ 4181
mab@@ 4173
Estado 4172
entre 4161
ů@@ 4151
ー@@ 4145
ndi@@ 4137
ś 4135
neh@@ 4134
sera 4132
idos 4130
rir 4122
çal@@ 4121
þ@@ 4114
pendant 4112
wali@@ 4110
cht@@ 4107
iye 4105
δ 4085
് 4083
lors 4072
huri 4063
dah@@ 4061
θ 4059
ambu@@ 4026
auen 4025
úa 4024
tiy@@ 4020
ה@@ 4018
া@@ 3999
ν 3982
ütz@@ 3969
δ@@ 3961
ň@@ 3953
ḩ@@ 3946
Pia 3942
homme 3937
isim@@ 3933
sau 3932
ßen 3931
ograf@@ 3927
reich@@ 3920
constru@@ 3910
נ@@ 3890
ț 3887
osu 3876
alifor@@ 3874
ông 3874
ảng 3874
kirche 3861
europ@@ 3854
Ce 3852
ıl@@ 3821
prak@@ 3818
japon@@ 3816
¼ 3810
yote 3807
ouver@@ 3796
leich@@ 3790
Tod 3787
ǎ@@ 3784
® 3783
Å 3780
muj@@ 3778
ır 3770
kub@@ 3767
año 3754
msh@@ 3754
mek@@ 3750
î 3743
κ@@ 3742
kale 3739
ə 3739
roi 3730
ück@@ 3713
ifa 3705
ương 3702
fang@@ 3687
ücke 3687
на 3686
àn 3681
primer 3673
lui 3672
aciones 3669
lama 3668
Pub@@ 3660
grande 3658
kem@@ 3658
éré@@ 3654
icha 3650
meng@@ 3645
äus@@ 3641
imiento 3635
Yıl@@ 3630
äch@@ 3629
sanat@@ 3622
aş 3614
autor@@ 3609
ngo@@ 3608
ς 3606
vier@@ 3603
İstanbul 3590
yard@@ 3585
─ 3584
leit@@ 3583
dej@@ 3579
onu 3574
sah@@ 3573
mita 3556
А@@ 3550
schw@@ 3543
kamp@@ 3542
φ 3539
ịnh 3538
lesia 3534
át 3525
isme 3524
forma 3522
ativa 3510
ezo 3510
maya 3508
vu 3507
icht@@ 3506
ekt 3501
¡ 3500
ober@@ 3490
ogle 3488
5. 3485
abaj@@ 3477
ería 3475
cual 3472
ération 3469
∞ 3464
ciones 3456
Guerre 3440
soll 3437
köy 3436
ệm 3436
Α@@ 3424
ör 3422
0.000 3419
libre 3414
öz@@ 3405
weit@@ 3402
Mär@@ 3398
ersch@@ 3398
の@@ 3396
fot@@ 3390
ême 3387
umia 3376
Francia 3369
º 3369
Stadt 3366
â 3365
Por 3364
elik 3359
р@@ 3342
enst 3341
avec 3338
kup@@ 3335
eln 3334
ichte 3327
ilim@@ 3327
cier@@ 3326
sek@@ 3319
ŭ@@ 3310
َ@@ 3307
atique 3306
äf@@ 3304
urch 3301
ṃ@@ 3296
né@@ 3290
Geg@@ 3270
Ω 3268
ük@@ 3267
Zentr@@ 3265
huo 3262
ät 3252
γ@@ 3246
idente 3245
ě 3242
rière 3239
zwe@@ 3238
deutsche 3234
Par 3229
ür 3227
ieder 3219
üz@@ 3201
vile 3200
hata 3195
temps 3192
σ@@ 3192
р 3192
ế 3192
auté 3177
天@@ 3171
ி@@ 3162
н 3153
zum 3150
üd@@ 3148
pré@@ 3147
ה 3136
8. 3134
ün 3115
ị 3113
ünde 3105
publique 3101
Đại 3099
èg@@ 3095
lima 3078
gew@@ 3074
Δ 3072
tores 3071
igt 3063
Hoa 3051
élé@@ 3045
и 3042
thé@@ 3036
ע@@ 3035
enten 3018
η 3017
ṛ@@ 3016
Afrika 3011
Platz 3010
cours 3009
iyi 3006
tay 3002
க@@ 3001
años 2999
й 2995
enzi 2994
fé@@ 2992
Σ@@ 2992
beri 2982
ız@@ 2977
fils 2972
guerre 2968
Kongo 2966
ḥ 2966
Entre 2963
Meter 2963
büt@@ 2960
ehe 2960
Auf@@ 2942
Pour 2941
statt 2941
‡ 2941
ρ 2938
в@@ 2938
李@@ 2925
serie 2922
bien 2921
≈ 2921
lande 2920
Ț@@ 2913
kung 2904
dok@@ 2901
isho 2890
loi 2890
vida 2889
mundo 2886
ète 2883
luk@@ 2874
fico 2872
zh 2872
山@@ 2871
iş@@ 2855
faire 2850
Bür@@ 2848
nach@@ 2846
ʾ@@ 2840
İn@@ 2835
в 2832
verdi 2831
ecto 2817
grub@@ 2811
Mundial 2808
ż 2807
π@@ 2801
afin 2794
О@@ 2792
Flug@@ 2788
naf@@ 2784
ד@@ 2784
¢ 2781
ión 2773
ε@@ 2773
ン@@ 2773
nur 2763
6. 2762
chter 2761
ảo 2760
Tür@@ 2754
τ@@ 2754
khi@@ 2749
enton@@ 2748
zus@@ 2748
н@@ 2747
nung 2733
Barcel@@ 2731
Gesch@@ 2731
王@@ 2729
্ 2727
pueblo 2725
ammen 2712
fahr@@ 2711
ро@@ 2711
с@@ 2710
ghi 2699
kazi 2681
bier@@ 2676
vita 2665
ôn 2659
siz 2653
Eins@@ 2651
Ét@@ 2649
êt 2643
bora 2640
lili@@ 2638
jour 2628
三@@ 2627
， 2620
Anh 2614
nh 2613
ennen 2597
Κ@@ 2594
awala 2593
Hà 2591
Arbeit@@ 2577
imu 2573
ļ@@ 2572
ן 2572
études 2565
eyi 2563
к 2561
imani 2560
français 2553
.000 2550
geri 2540
utsch@@ 2539
ř 2539
zial@@ 2538
த@@ 2530
leurs 2526
cada 2524
écn@@ 2524
ם 2522
Ñ@@ 2514
ıy@@ 2514
hoa 2506
7. 2503
riere 2497
у@@ 2494
∈ 2490
Ngo@@ 2488
南@@ 2487
ʼ 2486
ு@@ 2486
éta@@ 2484
Hòa 2483
kuz@@ 2482
Zu 2481
ą 2478
י 2466
chung 2465
licher 2465
л@@ 2465
ா@@ 2465
ünden 2461
文@@ 2449
contra 2447
ľ@@ 2447
puis 2445
ños 2445
ṅ@@ 2434
tout 2429
él 2426
ת 2414
ħ@@ 2412
་ 2412
wach@@ 2411
Frau 2404
Đức 2399
tür@@ 2398
Entw@@ 2394
sud 2390
ν@@ 2389
κ 2387
ticos 2385
Wirt@@ 2383
м@@ 2373
zey 2370
я 2364
新@@ 2363
kehr@@ 2362
ehir 2356
Ε@@ 2355
К@@ 2353
Π@@ 2343
一@@ 2341
Tây 2335
aşa 2330
θ@@ 2329
Σ 2323
ח@@ 2322
ა@@ 2321
hadi 2318
ún@@ 2310
ј@@ 2310
д@@ 2308
aî@@ 2295
λ@@ 2291
onya 2283
а@@ 2280
Д@@ 2278
金@@ 2272
teilung 2251
9. 2250
afu 2245
eines 2242
вич 2241
Une 2240
` 2239
schluss 2238
о@@ 2232
abab@@ 2228
orden@@ 2225
子 2224
М@@ 2223
Er 2222
jina 2221
éré 2221
nde@@ 2216
Geschichte 2215
koa 2215
muz 2212
а 2210
Zeit 2207
dado 2206
uzo 2206
óm@@ 2205
histoire 2203
ét 2201
iques 2198
première 2198
ви@@ 2197
über 2194
ilen 2187
И@@ 2187
tér@@ 2183
й@@ 2182
ه@@ 2181
âm 2176
Τ@@ 2172
פ@@ 2171
ר 2171
schafts@@ 2167
Lý 2163
nje 2152
lado 2150
cito 2149
★ 2149
к@@ 2140
alik@@ 2135
baş@@ 2134
ativo 2131
deutscher 2131
₱ 2127
ק@@ 2123
್ 2121
ր@@ 2119
ո@@ 2115
onales 2110
tiki 2110
Nga 2107
В@@ 2106
е 2105
Welt@@ 2103
forme 2095
ρ@@ 2093
ћ 2093
日@@ 2093
П@@ 2091
jini 2088
tener 2088
т 2087
áng 2085
z. 2081
ον 2081
schaften 2079
schaf@@ 2076
tionn@@ 2072
ük 2067
gique 2066
ский 2064
ài 2062
Dương 2061
étr@@ 2056
כ@@ 2056
ι 2052
ர@@ 2051
ка 2050
Μ@@ 2049
Verw@@ 2048
úc 2048
quy 2047
À 2045
Leben 2044
feh@@ 2040
ˈ@@ 2039
《 2039
¾ 2036
》 2036
República 2034
bán 2034
fik@@ 2033
ismus 2033
小@@ 2033
高@@ 2033
西@@ 2031
ológ@@ 2029
déc@@ 2027
ofu 2027
Gür@@ 2025
Baş@@ 2024
ŋ@@ 2024
nú@@ 2022
escu@@ 2020
estos 2020
vient 2019
Т@@ 2018
waz@@ 2017
alı 2016
entro 2015
่ 2015
Λ@@ 2013
ль@@ 2011
ת@@ 2009
fait 2008
çi 2008
greso 2004
mt 1994
ufu 1993
် 1993
mek 1992
biy@@ 1990
ĩnh 1988
τ 1988
ω@@ 1988
ť@@ 1983
國@@ 1982
Fuß@@ 1980
Â@@ 1980
Hồ 1976
teurs 1976
이@@ 1972
太@@ 1971
änd@@ 1967
ло@@ 1966
alista 1963
Verein 1959
海@@ 1957
Đồng 1956
celle 1955
kua 1953
Ağ@@ 1952
χ@@ 1951
parte 1950
verk@@ 1949
deux 1946
tions@@ 1946
ל 1944
Mitte 1942
Hoàng 1941
einen 1940
ào 1938
ه 1938
zeug@@ 1937
ám 1933
Г@@ 1933
uş@@ 1928
東@@ 1924
・ 1923
Tân 1918
ographie 1913
osas 1913
unca 1907
yana@@ 1904
Meister@@ 1903
ız 1899
ède 1898
ų 1893
™ 1893
イ@@ 1888
Allem@@ 1887
ạc 1885
ός 1882
的@@ 1882
kik@@ 1878
т@@ 1874
ь@@ 1872
zun@@ 1869
encias 1866
İs@@ 1864
vai 1859
ப@@ 1857
fiz@@ 1853
ül 1850
lere 1848
ко@@ 1842
北@@ 1842
ь 1839
siy@@ 1837
ım@@ 1837
ե@@ 1836
山 1836
zeit 1833
ம@@ 1830
ùng 1828
şehir 1828
Kır@@ 1826
teil 1826
平@@ 1825
人 1819
embre 1818
ähr@@ 1818
Bürger@@ 1815
vom 1814
ến 1814
ÿ@@ 1813
zul@@ 1812
général 1809
வ@@ 1809
ла@@ 1808
óg@@ 1806
trieb@@ 1805
ва 1805
子@@ 1803
öch@@ 1801
с 1800
üm 1791
Forsch@@ 1788
aliste 1787
安@@ 1785
้ 1784
como 1778
Lond@@ 1776
ünst@@ 1775
ikia 1774
úl@@ 1774
partement 1773
ο@@ 1765
з@@ 1765
Sept@@ 1764
nouveau 1762
éti@@ 1762
ình 1759
Türk 1757
hô@@ 1757
Kif@@ 1756
khu 1752
э@@ 1752
innen 1751
ộc 1749
ası 1748
ס@@ 1748
ি@@ 1746
Türk@@ 1745
田@@ 1744
jeres 1741
üst@@ 1741
е@@ 1737
ر@@ 1737
Sohn 1735
Ο@@ 1735
mch@@ 1732
ι@@ 1725
ehen 1723
。 1720
ব@@ 1719
Γ 1717
ш@@ 1713
ǫ@@ 1707
unden 1699
人@@ 1699
本@@ 1695
recher@@ 1694
être 1690
Ι@@ 1690
Über@@ 1688
érieur 1685
← 1684
Mỹ 1683
ス@@ 1682
Trung 1681
landa 1678
pek@@ 1678
depor@@ 1677
culo 1676
dır@@ 1676
Ţ@@ 1676
hili 1675
Bere@@ 1672
¿ 1671
nicht 1670
üş@@ 1669
් 1669
faz@@ 1665
ường 1664
φ@@ 1660
ი@@ 1657
Gemein@@ 1652
● 1652
auti 1651
ǔ 1651
ajes 1650
ũ 1648
Bắc 1647
м 1647
王 1647
arı 1645
nde 1641
η@@ 1641
ي@@ 1640
ِ@@ 1639
г@@ 1638
ί@@ 1637
上@@ 1637
dire@@ 1636
家@@ 1636
ни@@ 1633
Ṣ@@ 1633
Châu 1632
ŵ@@ 1632
sich 1628
àng 1628
র@@ 1628
awali 1627
kuh@@ 1624
û 1621
ъ 1620
À@@ 1619
⟩ 1617
kari@@ 1613
ης 1609
ġ@@ 1608
郎 1607
д 1606
ución 1605
asili 1602
Verein@@ 1598
Auf 1595
Janu@@ 1592
vard@@ 1592
ح@@ 1592
tische 1591
ッ@@ 1591
武@@ 1591
là 1590
Б@@ 1590
之@@ 1586
ָ@@ 1585
市 1584
ب@@ 1580
öff@@ 1579
有@@ 1579
Deutschen 1575
haber 1573
kama 1573
ри@@ 1572
⟨ 1572
س@@ 1571
ра@@ 1569
casa 1566
Haup@@ 1564
akt@@ 1563
üng@@ 1560
Φ@@ 1560
umri 1559
ּ@@ 1559
Ayn@@ 1557
amii 1556
ы@@ 1555
oyun@@ 1552
bajo 1551
só@@ 1548
zaman 1547
ক@@ 1546
国@@ 1546
म@@ 1544
ي 1543
chte 1540
lanz@@ 1539
ն@@ 1534
génér@@ 1533
Thái 1530
seinen 1528
ن@@ 1528
Ν@@ 1527
ц@@ 1526
Lebens@@ 1525
oría 1525
б@@ 1525
kea 1524
Р@@ 1524
obra 1523
pata 1523
ác 1523
ôt 1521
― 1514
einem 1513
risto 1512
yao 1508
État 1501
édi@@ 1497
zentr@@ 1496
ع@@ 1495
ли@@ 1492
kuf@@ 1491
ش@@ 1491
ْ@@ 1491
ağı 1490
江@@ 1486
ọ 1485
eint 1482
kiş@@ 1482
ː@@ 1482
х@@ 1480
Böl@@ 1479
ước 1479
ŋ 1476
У@@ 1476
rar 1475
ル@@ 1475
Ü 1473
ג@@ 1473
ская 1472
ն 1468
ℓ 1467
но@@ 1466
ラ@@ 1466
aç 1465
geg@@ 1464
公@@ 1463
dont 1461
II. 1458
Yeni 1457
Α 1457
Durante 1455
♭ 1455
ış@@ 1454
र@@ 1452
ưng 1449
yük@@ 1448
ʽ@@ 1448
на@@ 1447
ч@@ 1446
gran 1443
origine 1442
unos 1438
espec@@ 1437
phong 1437
⋅ 1437
dres 1435
kuj@@ 1434
ре@@ 1433
十@@ 1430
） 1429
ச@@ 1428
書@@ 1425
allem@@ 1424
и@@ 1423
神@@ 1422
Ṭ@@ 1415
‍ 1410
ի@@ 1409
ാ@@ 1409
Hải 1408
ái 1406
Н@@ 1406
Ī@@ 1404
yü@@ 1402
fand 1401
ọc 1401
ле@@ 1399
র 1399
õ 1397
aiss@@ 1396
Е@@ 1396
º@@ 1395
河@@ 1395
त 1393
л 1390
мо@@ 1389
リ@@ 1389
ũng 1388
п@@ 1387
puer@@ 1385
Kỳ 1383
ohne 1379
ː 1379
د 1378
auspi@@ 1376
ل@@ 1376
和@@ 1373
Quốc 1371
ʿ 1370
Đông 1369
ạm 1369
ე@@ 1368
ăng 1366
Ø 1365
道 1365
ihe 1361
lagen 1359
Grenz@@ 1358
segu@@ 1357
ói 1354
ി@@ 1354
conoc@@ 1350
mals 1350
tuy@@ 1348
udur 1346
明@@ 1346
kati@@ 1345
Fahr@@ 1344
afir@@ 1343
ần 1343
ম@@ 1342
Adem@@ 1341
personas 1338
ţ 1336
Thành 1334
altung 1334
Β@@ 1334
idades 1332
ieron 1332
Dans 1330
È@@ 1328
≠ 1327
学@@ 1326
Γ@@ 1321
deren 1318
comun@@ 1315
ம 1315
ihr 1313
bö@@ 1312
о 1312
luy@@ 1310
erung 1309
ận 1306
Kirche 1305
ಾ@@ 1305
Nha 1304
ǐ 1304
์ 1304
Φ 1303
대@@ 1303
keit 1301
ַ@@ 1301
yeri 1300
contre 1297
劉@@ 1296
א 1295
llev@@ 1293
道@@ 1293
五@@ 1292
ва@@ 1290
ക@@ 1289
osos 1288
ʔ@@ 1287
ك@@ 1287
ḫ@@ 1286
hiệu 1285
haa 1283
oldu@@ 1283
atika 1282
más 1282
ко 1282
akini 1279
ט@@ 1278
ρι@@ 1275
ட@@ 1271
wissen@@ 1270
istre 1267
林@@ 1267
по@@ 1266
го@@ 1265
у 1265
ılar 1264
̄ 1263
yük 1262
Weit@@ 1260
υ@@ 1260
schaft@@ 1259
ւ@@ 1254
ellos 1253
wegen 1250
不@@ 1248
iliy@@ 1247
isant 1247
ία 1247
ق@@ 1247
元@@ 1246
र 1244
Kati 1243
ilik 1242
ología 1241
zeh@@ 1241
angla@@ 1240
ψ 1240
trä@@ 1239
რ@@ 1236
deutsch@@ 1235
張@@ 1233
Eine 1232
ク@@ 1231
öne@@ 1230
і 1230
城 1230
1,5 1229
incia 1229
umani 1228
ę 1228
óa 1227
ー 1227
京@@ 1227
uwe@@ 1226
mbal@@ 1225
anderen 1224
ἀ@@ 1224
Irel@@ 1223
​ 1221
Ende 1220
ķ@@ 1220
Ľ@@ 1220
до@@ 1220
ز@@ 1220
Jahr@@ 1218
ка@@ 1218
ıl 1216
צ@@ 1211
白@@ 1211
mej@@ 1209
ticas 1209
я@@ 1209
Sein 1206
ű@@ 1206
स 1206
rés@@ 1205
ων 1205
deutschen 1202
ités 1202
kiye 1202
alité 1201
евич 1200
ạng 1200
ে@@ 1198
Ἀ@@ 1198
κα@@ 1197
م@@ 1197
ְ@@ 1196
llam@@ 1195
juli@@ 1194
ů 1192
部@@ 1190
石@@ 1189
Œ@@ 1187
З@@ 1187
ു@@ 1187
ア@@ 1185
grund 1183
uyên 1181
Unidos 1177
प 1177
া 1177
ト@@ 1177
我@@ 1175
ꞌ@@ 1175
dül@@ 1174
의 1174
út 1173
во@@ 1173
­ 1171
사@@ 1168
ய@@ 1166
ustos 1165
ấn 1165
kent@@ 1164
fü@@ 1163
banda 1162
☆ 1162
（ 1162
ích 1161
ма@@ 1161
ennent 1160
馬@@ 1157
ŭ 1155
ла 1155
व@@ 1155
‰ 1155
陳@@ 1155
Amerika 1154
ÿ 1152
د@@ 1151
్ 1151
sö@@ 1149
đi@@ 1149
ishwa 1148
đ 1148
sao 1147
г 1147
aría 1145
ζ 1142
ರ@@ 1142
ʾ 1141
ύ@@ 1139
二@@ 1139
wezi 1138
wanza 1136
ர 1135
COVI@@ 1133
ж@@ 1131
ִ@@ 1131
ου 1129
下@@ 1127
có@@ 1124
ன 1124
い@@ 1124
ল@@ 1122
αν@@ 1121
χ 1120
óng 1119
Sau 1116
kush@@ 1116
ệ 1116
âce 1115
êu 1115
famil@@ 1113
otball 1113
đa 1113
シ@@ 1112
श 1111
pios 1110
pou@@ 1110
ный 1109
य@@ 1107
zeit@@ 1106
aliza 1105
। 1104
ạnh 1104
dirig@@ 1103
光@@ 1102
στ@@ 1100
ان 1100
न@@ 1100
ἐ@@ 1100
lerin 1099
ু@@ 1098
señ@@ 1097
zey@@ 1097
ailleurs 1095
ƒ 1094
zug@@ 1093
êm 1093
ი 1092
mort 1090
น@@ 1089
Nguyên 1086
ά@@ 1086
ج@@ 1086
水@@ 1085
⅓ 1084
ლ@@ 1082
İl@@ 1081
jeun@@ 1080
ǒ@@ 1079
ḷ@@ 1079
étu@@ 1078
न 1078
ン 1078
amér@@ 1077
acto 1076
besch@@ 1075
ξ 1075
ieren 1074
dió 1068
junto 1067
ủ 1067
ف@@ 1064
四@@ 1064
fäl@@ 1063
ন 1063
ন@@ 1063
mang 1062
ο 1062
της 1061
Л@@ 1061
logr@@ 1060
reste 1059
wirt@@ 1059
zeich@@ 1057
Ħ@@ 1057
ơ 1054
amente 1052
Chuo 1051
jeu 1050
ال@@ 1048
区 1046
Χ@@ 1044
partici@@ 1043
thay 1039
acı 1038
ди@@ 1038
و 1038
ב 1037
ы 1036
ṃ 1036
̀ 1035
Ф@@ 1033
titul@@ 1032
¹ 1031
ď@@ 1031
و@@ 1031
̱ 1029
appel@@ 1028
Ко@@ 1028
Tuy 1027
inici@@ 1026
khai 1026
stellung 1026
üre@@ 1022
kila 1020
undan 1018
Thiên 1015
ispi@@ 1015
де@@ 1015
김@@ 1015
gé@@ 1014
ό@@ 1013
門@@ 1013
Kwa 1012
ǐ@@ 1012
uzak@@ 1011
sobre 1010
äu@@ 1010
mais 1008
σι@@ 1006
Paşa 1003
Đi@@ 1003
Λ 1003
ි@@ 1003
皇@@ 1003
ז@@ 1002
amiento 1000
uç@@ 1000
ல@@ 999
म 997
成@@ 997
entw@@ 996
通@@ 995
ας 994
محمد 994
정@@ 993
équ@@ 992
та@@ 992
त@@ 991
mayo 990
meister@@ 989
ве@@ 989
民@@ 988
ى 985
Í 984
華@@ 984
historia 983
ا 980
タ@@ 980
ɛ@@ 979
ная 977
花@@ 976
biri 975
père 974
ẓ@@ 974
學@@ 974
üf@@ 973
Ə@@ 972
ḳ@@ 972
не@@ 971
ру@@ 971
ª 970
Ρ@@ 969
Zus@@ 968
بن 968
ত@@ 968
長@@ 967
ǔ@@ 965
ര@@ 965
ográ@@ 964
한@@ 963
Công 962
ư 962
trois 961
ан@@ 961
úbl@@ 957
≡ 957
♯ 957
ة 956
ं 956
día 955
ları 954
地@@ 954
正@@ 954
erten 953
ämp@@ 952
Anf@@ 951
縣 951
ayant 950
uvu 950
マ@@ 950
Ř@@ 949
八@@ 948
ت@@ 947
خ@@ 947
方@@ 947
青@@ 946
յ@@ 945
ạch 944
학@@ 944
sinh 943
áo 943
Ми@@ 943
ا@@ 943
ல 943
sahi@@ 942
По@@ 942
女@@ 941
cré@@ 940
régi@@ 940
cette 939
Бо@@ 939
за@@ 939
osto 938
áp 937
ṭ 937
社 936
美@@ 936
Mit 934
pein@@ 934
公司 934
阿@@ 934
öß@@ 933
ロ@@ 933
xico 932
স@@ 932
生@@ 932
cao 931
ו 930
川@@ 930
tä@@ 929
vek@@ 929
ền 929
uvo 927
lü 926
द 926
guerra 925
sehen 925
esab@@ 924
ış 924
Juli 921
elte 921
ĩ 921
οι 921
да@@ 919
德@@ 919
то@@ 914
seine 913
drit@@ 912
kez@@ 911
ôle 910
カ@@ 909
droit 908
年@@ 908
èmes 906
ɛ 906
бо@@ 906
haup@@ 905
aliye@@ 904
Ț 904
ง@@ 904
ジ@@ 904
unid@@ 903
pueb@@ 902
otros 901
ť 901
öst@@ 900
会 900
ти@@ 899
nord 898
า@@ 898
ὶ 898
ũ@@ 895
ή@@ 895
trai 893
çu 893
世@@ 893
élec@@ 891
kuna 890
kır@@ 889
trat 889
üç@@ 889
し@@ 889
mpi@@ 888
deut@@ 887
ு 887
郡 887
óc 886
örd@@ 886
ıs@@ 886
το@@ 886
ر 885
‌ 885
àu 883
ɔ@@ 882
福@@ 882
य 881
ất 878
‎ 877
사 877
peu 876
weng@@ 876
respons@@ 875
Ц@@ 874
م 874
ி 874
Nisan 873
Türkiye 873
propi@@ 873
ɪ@@ 872
munici@@ 871
় 871
ầu 871
edrich 869
На@@ 869
法@@ 868
ục 867
な@@ 867
校 866
Cuando 865
х 865
Teil@@ 864
原@@ 864
レ@@ 863
ucu 862
lég@@ 861
xã 861
रा@@ 861
ῖ@@ 860
ُ@@ 859
ს@@ 859
ɔ 858
С 858
ῶ@@ 858
ор@@ 856
氏 854
pobl@@ 851
ή 851
ా@@ 851
fér@@ 850
ی 849
行@@ 849
Proz@@ 848
со@@ 848
ර@@ 848
∗ 848
」 848
τος 847
同@@ 847
ар@@ 845
не 845
문@@ 845
lü@@ 844
├ 844
都@@ 844
க 843
社@@ 842
क 841
ಿ@@ 841
leich 840
会@@ 840
kati 839
trag 838
woh@@ 838
「 838
～ 838
ო@@ 837
ʔ 836
ỳ@@ 836
ersten 833
wenn 832
̃ 832
陽 832
Š 831
са@@ 831
ằng 831
城@@ 831
Ū@@ 830
emente 829
gek@@ 829
près 829
sind 829
αλ@@ 829
ṣ 827
川 827
ách 826
南 826
陽@@ 825
Sie 824
Ка@@ 824
ihr@@ 823
古@@ 822
ικ@@ 821
нов 820
ạ 820
ingt 819
清@@ 819
立@@ 819
suiv@@ 818
ё@@ 818
த 818
野@@ 818
irse 816
ʰ@@ 816
liği 815
ει@@ 814
Х@@ 814
義@@ 813
pili 811
та 811
か@@ 811
ص@@ 810
永@@ 810
Machi 809
Ē@@ 809
ρος 809
Ма@@ 807
ह@@ 807
য 807
平 806
Als 805
Gemeinde 805
¬ 805
ба@@ 805
се@@ 805
Θ@@ 804
scheid@@ 803
中国@@ 803
fass@@ 802
lise 802
eneo 801
ßen@@ 801
öster@@ 801
ζ@@ 801
द@@ 800
icios 799
स@@ 799
daha 797
А 797
з 797
much@@ 796
да 796
木@@ 795
kij@@ 793
自@@ 793
կ@@ 792
έ@@ 791
ски 791
ד 791
書 791
abei 790
百@@ 790
ãi 789
zeu@@ 788
أ@@ 788
را@@ 788
限@@ 788
ơn 787
と@@ 787
东@@ 787
durch 786
ände 786
га@@ 786
尚@@ 786
Ò@@ 785
⁠ 785
Mais 784
़ 783
ド@@ 783
Rück@@ 782
지@@ 779
hệ 778
武 776
ǃ@@ 775
Ž 773
ب 773
ự 773
üler 772
άν@@ 772
ာ@@ 772
ια 771
州@@ 771
änge 770
Во@@ 770
田 769
省 769
ạn 768
gez@@ 767
си@@ 767
oğ@@ 766
˚ 766
प@@ 766
愛@@ 766
beit@@ 765
ện 764
‚ 764
心@@ 764
cambi@@ 763
gün 763
ා@@ 763
周@@ 763
ен@@ 762
ми@@ 762
Э@@ 761
ത@@ 761
ска 760
ết 760
た@@ 760
寺 759
ủy 758
無@@ 758
politique 757
ग@@ 757
ன@@ 757
龍@@ 756
lés 755
ệu 755
성@@ 755
parti 754
ം 753
아@@ 753
മ@@ 752
autres 751
frances@@ 751
真@@ 751
Ж@@ 750
フ@@ 750
те@@ 749
ਾ@@ 749
國 749
Besch@@ 747
nouvelle 746
ģ@@ 746
Η@@ 746
ल@@ 746
黃@@ 746
arbeit@@ 745
ệt 745
合@@ 745
otras 744
teil@@ 744
ñ 744
ρο@@ 744
ん@@ 744
生 744
九@@ 743
₂ 742
inah@@ 741
jours 741
Β 741
ნ@@ 741
ehir@@ 740
particu@@ 740
çı 740
आ@@ 740
tous 739
familia 737
দ@@ 736
യ@@ 736
ommen 735
ổ 735
Hán 734
տ@@ 734
會 734
ေ@@ 733
ẹ 733
cuer@@ 732
économ@@ 732
ército 732
テ@@ 732
Hồng 731
finales 731
‒ 731
국@@ 731
comme 729
ʷ@@ 729
нович 729
lors@@ 727
Π 726
enek@@ 723
ượng 723
сь@@ 722
侍@@ 722
楊@@ 722
lichkeit 720
വ@@ 718
₩ 718
qued@@ 717
क@@ 717
ర@@ 717
àm 716
αρ@@ 715
ξ@@ 715
司@@ 715
òn 714
ق 713
ỗ 713
üçük 712
ὐ@@ 712
empe@@ 711
Ω@@ 711
ม@@ 711
င 711
ṟ@@ 711
có 710
Со@@ 709
中 709
동@@ 709
院 708
ου@@ 707
ス 707
elten 706
港@@ 706
bâ@@ 705
wech@@ 705
Я@@ 705
че@@ 705
이 705
ев 704
ന@@ 704
ʃ@@ 703
고@@ 702
Esta 701
ερ@@ 701
gén@@ 700
ätz@@ 699
ки 697
ل 697
მ@@ 697
全@@ 697
藤@@ 696
প@@ 695
ვ@@ 695
工@@ 695
기@@ 695
unzi 694
хо@@ 694
軍 694
리@@ 694
lık 693
͡ 693
ник 693
bila 692
бе@@ 692
ков 691
ک@@ 691
الع@@ 689
星@@ 689
या@@ 688
部 688
시@@ 688
grandes 687
പ@@ 687
香@@ 687
ıca 686
του 686
э 686
科@@ 684
enfants 683
ে 683
乡 683
ección 682
₦ 682
medio 681
sión 681
∆ 681
ữ 680
台@@ 677
erne@@ 675
febr@@ 674
òng 674
ව@@ 674
alten 673
kuli@@ 673
20. 672
ǀ@@ 672
空@@ 672
ат@@ 669
月@@ 669
Jahre 668
Londres 668
ít 668
̓ 667
Ле@@ 667
ра 666
Са@@ 665
ற@@ 665
Trường 664
© 663
ẕ@@ 663
ை@@ 662
menos 661
но 661
ை 661
镇 661
чи@@ 660
غ@@ 660
ắ@@ 660
Güney 659
ま@@ 659
း@@ 658
व 657
μα 656
Ра@@ 656
Ч@@ 656
َ 656
ıf@@ 655
ವ@@ 655
Бе@@ 654
⅔ 654
后 653
神 653
ф@@ 652
ನ@@ 652
ǎ 651
па@@ 651
ammen@@ 649
poste 649
äre 649
ः 649
្ 649
မ@@ 648
コ@@ 648
∂ 647
، 646
建@@ 646
ಕ@@ 645
Hội 644
klär@@ 644
ública 644
ни 644
ш 644
mois 643
éx@@ 643
वा@@ 643
autre 642
॥ 642
春@@ 642
ρα@@ 641
га 641
ду@@ 641
ந@@ 641
Ġ@@ 640
代@@ 639
ミ@@ 638
ον@@ 637
मा@@ 637
dır 636
黄@@ 636
Nhân 635
О 635
би@@ 635
Nach 634
wany@@ 634
wao 634
Александ@@ 634
♦ 634
文 634
ŷ@@ 633
ст@@ 633
ч 633
ֹ@@ 633
千@@ 633
教@@ 633
主@@ 632
19. 631
ย@@ 631
Für 630
üz 630
ц 630
六@@ 630
մ@@ 629
ว@@ 629
ль 628
ս@@ 628
キ@@ 628
一 628
ル 627
明 627
ợi 625
ان@@ 624
अ@@ 624
信@@ 624
松@@ 624
во 623
市@@ 623
και 622
∨ 622
하@@ 622
ición 621
ги@@ 621
Auch 620
région 620
ме@@ 620
Menschen 619
り@@ 619
史@@ 619
tlich 618
ğr@@ 618
ക 618
物@@ 618
après 617
präs@@ 617
ط@@ 617
義 617
wenda 616
ن 616
ї@@ 615
ज 615
Ọ@@ 615
হ@@ 614
パ@@ 613
宣@@ 613
eyal@@ 612
lerini 612
Č 611
αι@@ 611
Ш@@ 611
ἰ@@ 611
Jahr 610
Vương 610
travail 610
ल 609
ẩn 609
mondi@@ 607
う@@ 607
aße 606
̧ 606
士 606
̲ 605
ბ@@ 605
御@@ 605
dass 604
rôle 603
ọng 603
サ@@ 603
인@@ 603
anı 602
mev@@ 602
ψ@@ 602
ِ 602
ি 602
ihn 601
pequ@@ 601
ի 601
anlar 600
ന 600
オ@@ 600
나@@ 600
Eyl@@ 599
М 599
バ@@ 599
다 599
ම@@ 598
ล@@ 598
주@@ 598
médi@@ 597
λι@@ 597
сто@@ 597
ු@@ 596
↑ 596
い 596
ες 595
einz@@ 594
수@@ 594
weit 593
Θ 593
К 593
ôi 592
ин@@ 592
ெ@@ 592
⊆ 592
ọ@@ 591
吉@@ 591
신@@ 591
조@@ 591
esine 590
บ@@ 590
ABD 589
padre 589
ßer@@ 589
ſ@@ 589
ട@@ 589
路 589
Amerik@@ 588
Ба@@ 588
Ψ 587
س 587
عبد 587
უ@@ 587
ण@@ 586
少@@ 586
玉@@ 586
sont 585
über@@ 585
За@@ 585
化@@ 585
cô@@ 584
entras 584
fte 584
tober 584
ো@@ 584
ု@@ 584
ナ@@ 584
式@@ 584
ස@@ 583
ữu 583
公 583
otro 582
ῆ@@ 582
天 582
Kilom@@ 581
ancien 581
cional 581
kann 581
ελ@@ 581
জ@@ 581
ಮ@@ 581
hakk@@ 580
ت 580
ਰ@@ 580
ိ@@ 580
宗@@ 580
partamento 579
Ա@@ 579
ậu 579
朝@@ 579
ectos 578
franç@@ 578
ǁ@@ 578
서@@ 578
Ligi 577
dete 577
ính 577
orta@@ 576
ği 576
ಗ@@ 576
ก@@ 576
张@@ 576
ί 575
گ@@ 575
ḵ@@ 575
리 575
tourn@@ 574
Õ@@ 574
الله 574
♥ 574
唐@@ 574
부@@ 573
armée 572
Ḫ@@ 572
常@@ 572
出@@ 571
nete 570
ด@@ 570
iş 569
آ@@ 569
kodi 568
الم@@ 568
ა 568
ều 568
ण 567
ப 567
acional 566
sitz@@ 566
tionen 566
ма 566
重@@ 566
き@@ 565
ṯ@@ 564
行 564
기 564
В 563
エ@@ 563
ニ@@ 563
英@@ 563
龙@@ 563
español 562
÷ 562
さ@@ 562
定@@ 562
τα@@ 561
Ю@@ 561
ῦ@@ 561
ら@@ 561
kı 559
preu@@ 559
ġ 559
ώ@@ 559
漢@@ 559
meil@@ 558
पा@@ 557
ャ@@ 556
音@@ 556
änder@@ 555
αγ@@ 555
Ру@@ 555
ष 555
ạo 555
羅@@ 555
가@@ 555
الح@@ 554
Kön@@ 553
ống 553
ừa 553
ihm 552
朱@@ 552
站 552
선@@ 552
wür@@ 551
ަ@@ 551
お@@ 551
に@@ 551
事@@ 551
华@@ 550
muerte 549
ά 549
ли 549
Maji 548
¨ 548
ний 548
廣@@ 548
Cumhuriy@@ 547
ới 547
堂 547
士@@ 547
多@@ 547
за 546
timm@@ 545
ού@@ 545
Мо@@ 545
tete 544
ి@@ 544
ử 544
ウ@@ 544
ร@@ 543
atao 542
dès 542
maji 542
∧ 542
emein@@ 541
ಂ@@ 541
ị@@ 541
記 541
保@@ 540
ɑ@@ 539
ακ@@ 539
Ј@@ 539
кий 539
њ@@ 539
ത 539
帝 539
理@@ 539
： 539
Η 538
پ@@ 538
ක@@ 538
का@@ 537
গ@@ 537
도@@ 537
nda 536
où 536
ار@@ 536
भ@@ 536
宗 536
Υ@@ 535
அ@@ 535
ки@@ 534
ح 534
ು@@ 534
ല@@ 534
න 534
alidad 533
ayı 533
gebiet 533
ĕ@@ 533
αυ@@ 533
మ@@ 533
Алек@@ 532
ק 532
德 532
治@@ 532
Từ 531
თ@@ 531
夫 531
Juni 530
oeste 530
ер@@ 530
ਿ@@ 530
名@@ 530
ecek 529
ατ@@ 529
б 529
ationen 528
üne 528
事 528
徐@@ 528
Febru@@ 527
Ķ@@ 527
пе@@ 527
민@@ 527
τα 526
자@@ 526
aşı 525
мир 525
ত 525
ulus@@ 524
Ş 524
ων@@ 524
cuatro 523
ש 523
海 523
wili 522
ʃ 522
ֵ@@ 522
ی@@ 522
ığ@@ 521
ю 521
プ@@ 521
está 520
Ε 520
Ан@@ 520
あ@@ 520
ん 520
忠@@ 520
是@@ 520
να 519
ệp 519
七@@ 519
之 519
吳@@ 519
mehr 518
partido 518
yeni 518
όν@@ 518
إ@@ 518
ải 518
龍 518
ци@@ 517
আ@@ 517
kül@@ 516
井@@ 516
원@@ 516
alement 515
wango 515
œuvre 515
Ку@@ 515
ు@@ 515
ತ@@ 515
利@@ 515
沙@@ 515
法 515
maç@@ 514
Влади@@ 514
ю@@ 514
ار 514
梁@@ 514
fois 513
kadar 513
博@@ 513
夏@@ 513
年 513
çek@@ 512
ල@@ 512
昭@@ 512
第@@ 512
马@@ 512
Bahari 511
ав@@ 511
ட 511
村@@ 511
東 511
huwa 510
ев@@ 510
り 510
전@@ 510
nuevo 509
partam@@ 509
Пет@@ 509
ே@@ 509
น 509
主 509
españ@@ 508
ना@@ 508
상@@ 508
Kilometer 507
sü@@ 507
ку@@ 507
ري@@ 507
ilç@@ 506
spéci@@ 506
τι@@ 506
ज@@ 506
ắc 506
แ@@ 505
ụ 504
歌@@ 504
胡@@ 504
경@@ 504
duy@@ 503
ió 503
वि@@ 503
安 503
集@@ 503
uyền 502
ब@@ 502
デ@@ 502
Го@@ 501
Не@@ 501
ếu 501
Liên 500
ıt 500
ف 499
का 499
ள@@ 499
ィ@@ 499
άκ@@ 498
ோ@@ 498
Desde 497
พระ@@ 497
공@@ 497
화@@ 497
ouvern@@ 496
λλ@@ 496
兵@@ 495
sebe@@ 494
ە@@ 494
는 494
도 494
gegen 493
huu 493
सु@@ 493
も@@ 493
技@@ 493
europé@@ 492
nord@@ 492
ದ@@ 492
ು 492
อง@@ 492
ografía 491
ി 491
家 491
todo 490
〜 490
る 490
ров 489
ية 489
ರ 489
こ@@ 489
ト 489
宮@@ 489
주 489
quatre 488
ство 488
اب@@ 488
っ@@ 488
nouv@@ 487
ъ@@ 487
ं@@ 487
వ@@ 487
Ḳ@@ 487
ilir 486
kommen 486
tiene 486
Ν 486
εν@@ 486
ֶ@@ 486
Ẓ@@ 486
ẵ@@ 486
└ 486
る@@ 486
政@@ 486
ـ@@ 485
ม 484
ブ@@ 484
setz@@ 482
λε@@ 482
лу@@ 482
শ@@ 482
ả 482
ộ 482
島@@ 482
Parlam@@ 481
vur@@ 481
ध@@ 481
く@@ 481
光 481
手@@ 481
津@@ 481
우@@ 481
ﬁ@@ 481
Ва@@ 480
Па@@ 480
ע 480
ダ@@ 480
你@@ 480
영@@ 480
장@@ 480
famille 479
schnit@@ 479
fuer@@ 478
üş 478
陈@@ 478
ĭ 477
ồng 477
제@@ 477
Büyük 476
punkt 476
ಿ 476
Müz@@ 475
caso 475
πο@@ 475
ك 475
श@@ 475
は@@ 475
特@@ 475
mente 474
wohl 474
Ì@@ 474
était 474
ıc@@ 474
Се@@ 474
ր 474
رو@@ 474
在@@ 474
志@@ 474
ရ@@ 473
街@@ 473
eht 472
isinin 472
metros 472
ασ@@ 472
軍@@ 472
門 472
lte 471
θε@@ 471
ส@@ 471
老@@ 471
ше@@ 470
ἄ@@ 470
時@@ 470
』 469
Nội 468
iert 468
Ð@@ 468
昌@@ 468
樂@@ 468
چ@@ 467
ग 467
ट 467
या 467
『 467
風@@ 467
inté@@ 466
letz@@ 466
neue 466
να@@ 466
ля@@ 466
ಸ@@ 466
wird 465
න@@ 465
⁄ 465
孫@@ 465
水 465
外@@ 464
Nhật 463
ellik@@ 463
ĩ@@ 463
री 463
陵 463
️ 463
ਸ@@ 462
ち@@ 462
kte 461
ắng 461
días 460
ılı 460
च@@ 460
ला 460
დ@@ 460
ⴰ@@ 459
仁@@ 459
fut 458
voll@@ 458
ం@@ 458
が@@ 458
チ@@ 458
館 458
ュ@@ 457
雄 457
마@@ 457
무@@ 457
duy 456
s&apos; 456
љ@@ 456
َّ@@ 456
侯 456
县 456
興@@ 456
교 456
ал@@ 455
ड 455
오@@ 455
werden 454
Де@@ 454
пи@@ 454
ள 454
趙@@ 454
moja 453
άρ@@ 453
知@@ 453
어@@ 453
원 453
ciudad 451
̥ 451
Ι 451
ور 451
ď 450
Пе@@ 450
े 450
ebil@@ 449
zuri 449
Ō 449
И 449
ذ@@ 449
ẹ@@ 449
deş@@ 448
ĩa 448
న@@ 448
tü 447
ưu 447
etwa 446
trieb 446
Á 446
景@@ 446
鄭@@ 446
소@@ 446
bierno 445
пу@@ 445
原 445
ases@@ 444
þ 444
Ви@@ 444
ُ 444
ḍ 444
ốc 444
↔ 444
Produk@@ 443
左@@ 443
思@@ 443
박@@ 443
tiempo 442
գ@@ 442
章@@ 442
Ο 441
الش@@ 441
ῦ 441
作@@ 441
长@@ 441
ное 440
ча@@ 440
ங 440
グ@@ 440
Familie 439
divers@@ 439
το 439
про@@ 439
durant 438
seph 438
Υ 438
ט 438
ता@@ 438
島 438
聖@@ 438
liste 437
Ар@@ 437
kundi 436
တ@@ 436
ảnh 436
ật 436
ildi 435
က@@ 435
ὸ@@ 435
土@@ 435
相@@ 435
飛@@ 435
ευ@@ 434
До@@ 434
য@@ 434
經 434
鳳@@ 434
ancak 433
ɣ@@ 433
เ@@ 433
ɪ 432
ز 432
ক 432
学 432
韓@@ 432
eleri 431
taifa 431
ľ 431
使 431
加@@ 431
ло 430
ста@@ 430
فر@@ 430
萬@@ 430
اس@@ 429
ী 429
ు 429
∴ 429
ɨ@@ 428
ге@@ 428
թ@@ 428
Durch@@ 427
vertr@@ 427
ши@@ 427
口@@ 427
業@@ 427
雲@@ 427
구@@ 427
uncu 426
ιν@@ 426
ών 426
ск@@ 426
ش 426
క@@ 426
可@@ 426
스@@ 426
iliz 425
ల@@ 425
muy 424
Đ 424
υ 424
І@@ 424
ặng 424
allem 423
malar 423
tischen 423
todos 423
âu 423
ガ@@ 423
駅 423
Ort 422
kuv@@ 422
İk@@ 422
ام@@ 422
ŏ 421
бу@@ 421
宮 421
연@@ 421
유@@ 421
posición 420
দ 420
林 420
vya 419
из@@ 419
Т 418
里@@ 418
ǫ 417
са 417
志 417
株@@ 417
Ď@@ 416
δι@@ 416
ṉ@@ 416
Ô@@ 415
mujeres 414
Ро@@ 414
℃ 414
如@@ 413
寶 413
竹@@ 413
Biographie 412
hijo 412
öğ@@ 412
έν@@ 412
อ@@ 412
⊕ 412
Հ@@ 411
พ@@ 411
ོ@@ 411
育@@ 411
abril 410
ца 410
ين 410
會@@ 410
湖@@ 410
ׁ@@ 409
xième 408
চ@@ 408
ứ 408
ử@@ 408
内@@ 408
所 408
曹@@ 408
語 408
보@@ 408
música 407
quelle 407
Но@@ 407
اد@@ 407
ّ@@ 407
ា@@ 407
路@@ 407
ħ 406
ĭ@@ 406
ти 406
ә@@ 406
ản 406
將@@ 406
魏@@ 406
ख@@ 405
୍ 405
hizi 404
ク 404
unkt 403
̍ 403
ρί@@ 403
ך 403
口 403
曲 403
銀@@ 403
集 403
Kristo 402
İ 402
լ@@ 402
ང 402
伊@@ 402
kü 401
花 401
tanto 400
ур@@ 399
富@@ 399
poco 398
út@@ 398
Θε@@ 398
об@@ 398
ར@@ 398
∩ 398
Saison 397
ambazo 397
insi 397
У 397
الق@@ 397
ಯ@@ 397
วั@@ 397
ハ@@ 397
元 397
史 397
Ζ@@ 396
成 396
일@@ 396
ী@@ 395
ి 395
ප@@ 395
ท@@ 395
れ@@ 395
vuel@@ 394
ưởng 394
ि 394
園 394
江 394
火@@ 394
Trong 393
hilo 393
Ива@@ 393
球@@ 393
等@@ 393
衛@@ 393
İm@@ 392
ισ@@ 392
ไ@@ 392
း 392
ὰ 392
智@@ 392
ű 391
Си@@ 391
ා 391
ビ@@ 391
何@@ 391
国 391
wana@@ 390
ʰ 390
П 390
ந 390
ද@@ 390
族@@ 390
郭@@ 390
usawa 389
ское 389
सा@@ 389
zwei 388
ха@@ 388
つ@@ 388
宋@@ 388
流@@ 388
déf@@ 387
вая 387
п 387
ع 387
미@@ 387
！ 387
comer@@ 386
etzt 386
hasta 386
ћ@@ 386
前@@ 386
谷@@ 386
ċ@@ 385
հ@@ 385
人民@@ 385
mittel@@ 384
Ά@@ 384
み@@ 384
君 384
好@@ 384
官@@ 384
ро 383
ള@@ 383
ḏ@@ 383
산@@ 383
avoir 382
canción 382
ingana 382
ıcı 382
ǝ@@ 382
ɨ 382
зо@@ 382
мен@@ 382
рий 382
🏴 382
Thế 381
tesi 381
ρα 381
Да@@ 381
ные 381
ү@@ 381
ூ@@ 381
crit 380
Су@@ 380
ров@@ 380
ા@@ 380
ழ@@ 380
女 380
宇@@ 380
秀@@ 380
Unis 379
гу@@ 379
ח 379
ס 379
ो 379
ය@@ 379
盧@@ 379
󠁿 379
13. 378
geord@@ 378
Бу@@ 378
ков@@ 378
ය 378
을 378
gab 377
zäh@@ 377
ίας 377
ө@@ 377
て@@ 377
洪@@ 377
önc@@ 376
ıt@@ 376
̪ 376
ιος 376
⊗ 376
昌 376
玄@@ 376
äß@@ 375
ıs 375
То@@ 375
ست@@ 375
ল 375
비@@ 375
14. 374
äuf@@ 374
ìn 374
ŷ 374
ȟ@@ 374
ɑ 374
ής 374
Та@@ 374
േ@@ 374
ập 374
航@@ 374
société 373
ían 373
τρ@@ 373
όν 373
Мар@@ 373
با@@ 373
بي@@ 373
في 373
გ@@ 373
刘@@ 373
kez 372
muş 372
şu 372
ʊ@@ 372
Про@@ 372
ня 372
रा 372
乐@@ 372
那@@ 372
cuar@@ 371
mji 371
Ý@@ 371
သ@@ 371
孝@@ 371
µ 370
μα@@ 370
же@@ 370
зна@@ 370
ु 370
ಲ@@ 370
字@@ 370
altı 369
ép 369
πλ@@ 369
ला@@ 369
₨ 369
メ@@ 369
良@@ 369
ις 368
君@@ 368
師@@ 368
河 368
開@@ 368
지 368
Kanada 367
των 367
Я 367
ми 367
延@@ 367
最@@ 366
杨@@ 366
동 366
daki 365
Κ 365
ной 365
溪@@ 365
군 365
세@@ 365
16. 364
ganda 364
obras 364
Васи@@ 364
سي@@ 364
阳@@ 364
의@@ 364
он@@ 363
ട 363
√ 363
∪ 363
万@@ 363
巴@@ 363
ди 362
сти@@ 362
จ@@ 362
杜@@ 362
院@@ 362
라@@ 362
여@@ 362
große 361
Ве@@ 361
Ки@@ 361
န 361
ြ@@ 361
康@@ 361
電@@ 361
bağ@@ 360
ண 360
ს 360
力@@ 360
區 360
右@@ 360
천@@ 360
jiji 359
nueva 359
ρά@@ 359
⇒ 359
以@@ 359
电@@ 359
kuwa 358
río 358
̣ 358
ति 358
ས@@ 358
♠ 358
développ@@ 357
ਦ@@ 357
კ@@ 357
15. 356
⊂ 356
佛@@ 356
18. 355
Estados 355
kuu 355
même 355
жи@@ 355
ون 355
बा@@ 355
ਾ 355
ช@@ 355
수 355
vì 354
Ê@@ 354
Δι@@ 354
█ 354
崔@@ 354
ǂ@@ 353
τη 353
ْ 353
ノ@@ 353
quien 352
église 352
по 352
بر@@ 352
ร 352
ồn 352
ム@@ 352
合 352
泰@@ 352
남@@ 352
씨 352
cá 351
okea 351
σκ@@ 351
الج@@ 351
和 351
andere 350
су@@ 350
री@@ 350
가 350
ligne 349
̂ 349
го 349
لي@@ 349
ག@@ 349
先@@ 349
안@@ 349
partie 348
ного 348
می@@ 348
ekani 347
ба 347
រ@@ 347
Ἰ@@ 347
慶@@ 347
왕@@ 347
wieder 346
ydi 346
ष@@ 346
ල 346
culos 345
ಪ@@ 345
丸 345
語@@ 345
진@@ 345
17. 344
fue 344
jimbo 344
épo@@ 344
κλ@@ 344
인 344
佐@@ 343
本 343
歌 343
tü@@ 342
Üniversitesi 342
ʷ 342
τον 342
ны 342
ть 342
ง 342
₁ 342
ılık 341
Н 341
му@@ 341
ша 341
च 341
नि@@ 341
ನ 341
心 341
rund 340
άλ@@ 340
Укра@@ 340
ೆ 340
モ@@ 340
承@@ 340
賀@@ 340
biet 339
ต@@ 339
後@@ 339
源@@ 339
нов@@ 338
ос@@ 338
ى@@ 338
ก 338
ẩm 338
坪@@ 338
蘇@@ 338
都 338
haben 337
الأ@@ 337
回@@ 337
柳@@ 337
ihre 336
έρ@@ 336
Крас@@ 336
при@@ 336
ョ@@ 336
夫@@ 336
妃 336
广@@ 336
서 336
ίν@@ 335
ική 335
ା@@ 335
分@@ 335
基@@ 335
解@@ 335
konn@@ 334
lider@@ 334
ομ@@ 334
Ре@@ 334
ке@@ 334
ту@@ 334
الس@@ 334
ک 334
夜@@ 334
réalis@@ 333
зи@@ 333
ղ@@ 333
ย 333
ụ@@ 333
者 333
Titel 332
coi 332
layan 332
ского 332
վ@@ 332
वर 332
波@@ 332
麻@@ 332
amoja 331
esini 331
ট@@ 331
한 331
Liste 330
лен@@ 330
ண@@ 330
す@@ 330
寶@@ 330
stän@@ 329
స@@ 329
守@@ 329
đồng 328
лов 328
ḷ 328
huko 327
λα@@ 327
ολ@@ 327
Մ@@ 327
影@@ 327
虎@@ 327
Bộ 326
alipo@@ 326
iriki 326
गा@@ 326
ხ@@ 326
ố 326
ời 326
大学 326
美 326
Ces 325
ίδ@@ 325
ργ@@ 325
اد 325
مو@@ 325
ொ@@ 325
Ḍ@@ 325
度@@ 325
范@@ 325
unun 324
États 324
Ô 324
ция 324
कर 324
ভ@@ 324
ಹ@@ 324
ပ@@ 324
ḗ@@ 324
ワ@@ 324
研究@@ 324
葉@@ 324
자 324
Unternehmen 323
elerin 323
eviz@@ 323
лы@@ 323
ห@@ 323
icklung 322
wilaya 322
αμ@@ 322
ως 322
Ме@@ 322
Му@@ 322
ج 322
عبد@@ 322
ير 322
Ṛ@@ 322
嘉@@ 322
－ 322
من 321
ور@@ 321
བ@@ 321
放@@ 321
강@@ 321
année 320
centro 320
ит@@ 320
مان 320
ప@@ 320
හ@@ 320
ὸ 320
を@@ 320
仁 320
红@@ 320
Д 319
то 319
ੀ 319
ீ@@ 319
洋@@ 319
能@@ 319
▪ 318
交@@ 318
信 318
εύ@@ 317
гор@@ 317
ना 317
ṯ 317
Ψ@@ 316
ත@@ 316
prä@@ 315
tiem@@ 315
сть 315
це@@ 315
ث@@ 315
के 315
ता 315
ா 315
双@@ 315
府 315
摩@@ 315
西 315
要@@ 315
ской 314
لا@@ 314
لو@@ 314
仙@@ 314
野 314
장 314
απ@@ 313
وَ@@ 313
ỏ 313
∙ 313
克@@ 313
商@@ 313
泉@@ 313
直@@ 313
Après 312
ско 312
ਹ@@ 312
∅ 312
久@@ 312
越@@ 312
hombres 311
ʹ@@ 311
ह 311
府@@ 311
町 311
바@@ 311
mito 310
sử 310
εί@@ 310
Ни@@ 310
ब 310
은 310
mejor 309
σα 309
ст 309
ما@@ 309
مي@@ 309
ਕ@@ 309
星 309
ouvent 308
ੰ@@ 308
గ@@ 308
ས 308
ợ 308
Ἐ@@ 308
ボ@@ 308
氏@@ 308
蔡@@ 308
言 308
다@@ 308
municipio 307
nombre 307
¶ 307
Миха@@ 307
ץ 307
റ@@ 307
情@@ 307
見@@ 307
Quân 306
ους 306
ния 306
الن@@ 306
梅@@ 306
chữ 305
Серге@@ 305
аль@@ 305
զ@@ 305
պ@@ 305
الد@@ 305
ति@@ 305
♣ 305
界@@ 305
très 304
ızı 304
̤ 304
ु@@ 304
ಬ@@ 304
ズ 304
비 304
jwa 303
leş@@ 303
лю@@ 303
من@@ 303
जा@@ 303
groupe 302
род@@ 302
की 302
कु@@ 302
う 302
勝@@ 302
台 302
大 302
机@@ 302
태@@ 302
ordu 301
ತ 301
蕭@@ 301
ishia 300
seiner 300
évol@@ 300
̯ 300
Те@@ 300
動@@ 300
号 300
姓 300
華 300
赤@@ 300
mesi 299
Р 299
الك@@ 299
लि@@ 299
ศ@@ 299
ွ@@ 299
善@@ 299
ʀ 298
ʊ 298
ορ@@ 298
ан 298
ри 298
า 298
็ 298
შ@@ 298
地 298
명@@ 298
cü 297
ры@@ 297
્ 297
ḵ 297
ẓ 297
方 297
親@@ 297
Teil 296
heute 296
série 296
學 296
帝@@ 296
弘@@ 296
木 296
鎮@@ 296
양@@ 296
Dân 295
aliwa 295
difer@@ 295
ɡ@@ 295
ό 295
зе@@ 295
بن@@ 295
場 295
次@@ 295
Cộng 294
almente 294
lý 294
quy@@ 294
άσ@@ 294
স 294
也 294
達@@ 294
ambao 293
uyết 293
ƒ@@ 293
νη 293
стро@@ 293
ോ@@ 293
ග@@ 293
臺@@ 293
陸@@ 293
그@@ 293
회 293
soit 292
ای@@ 292
প 292
സ@@ 292
春 292
桥@@ 292
者@@ 292
성 292
irika 291
ӏ@@ 291
ض@@ 291
› 291
居@@ 291
현@@ 291
Daha 290
Га@@ 290
ച@@ 290
よ@@ 290
Doğu 289
Ulus@@ 289
país 289
stieg 289
và 289
Αν@@ 289
уез@@ 289
مر@@ 289
ङ 289
ध 289
ಲ 289
ở 289
セ@@ 289
校@@ 289
해@@ 289
нови@@ 288
يد 288
இ@@ 288
ற 288
ஸ 288
云@@ 288
秋@@ 288
toujours 287
̨ 287
ке 287
∇ 287
容@@ 287
산 287
스 287
häng@@ 286
ǵ@@ 286
ска@@ 286
مَ@@ 286
で@@ 286
許@@ 286
音 286
에@@ 286
τη@@ 285
ồ 285
ェ@@ 285
命@@ 285
宝@@ 285
고 285
상 285
전 285
ısı 284
Şark@@ 284
νης 284
ट@@ 284
け@@ 284
ド 284
友@@ 284
手 284
毛@@ 284
里 284
acak 283
denen 283
ɾ@@ 283
ών@@ 283
Ха@@ 283
ї 283
ند@@ 283
ại 283
ế@@ 283
来@@ 283
極@@ 283
bildung 282
̌ 282
خان 282
وا@@ 282
ܝ@@ 282
ी 282
ゃ@@ 282
傳 282
kuto@@ 281
Ğ@@ 281
ф 281
ود 281
ೆ@@ 281
ὁ 281
三 281
卿 281
師 281
流 281
黑@@ 281
aussi 280
harek@@ 280
linal@@ 280
migu@@ 280
ăn 280
ница 280
բ@@ 280
ḫ 280
∼ 280
体@@ 280
雄@@ 280
bà 279
gleich@@ 279
Περ@@ 279
εία 279
Нико@@ 279
لل@@ 279
ި@@ 279
ली 279
ய 279
ქ@@ 279
石 279
중@@ 279
böl@@ 278
мит@@ 278
އ@@ 278
folg@@ 277
ρε@@ 277
Ду@@ 277
Иван 277
ша@@ 277
ދ@@ 277
ป@@ 277
∠ 277
丁@@ 277
吉 277
察@@ 277
岩@@ 277
敬@@ 277
œ 276
ɣ 276
လ@@ 276
ầm 276
拳 276
比@@ 276
국 276
로 276
άς 275
αί@@ 275
ние 275
ạt 275
超@@ 275
頭@@ 275
Zusammen@@ 274
Рес@@ 274
ж 274
хи@@ 274
ँ@@ 274
रि@@ 274
ਮ@@ 274
త@@ 274
ค 274
ソ@@ 274
協@@ 274
최@@ 274
те 273
ام 273
شا@@ 273
يم 273
ती 273
तु@@ 273
ტ@@ 273
今@@ 273
牛@@ 273
連@@ 273
hizo 272
lleg@@ 272
θος 272
ال 272
ম 272
淮@@ 272
juu 271
önem@@ 271
Ā 271
ג 271
∘ 271
祖 271
̠ 270
τά@@ 270
ף 270
າ@@ 270
አ@@ 270
ツ@@ 270
正 270
grün@@ 269
ität 269
от@@ 269
थ@@ 269
ല 269
ว 269
ျ@@ 269
や@@ 269
草@@ 269
hát 268
си 268
Ս@@ 268
ර 268
ển 268
ễ@@ 268
₯ 268
內@@ 268
喜@@ 268
報 268
男@@ 268
祖@@ 268
英 268
黎@@ 268
অ@@ 267
പ 267
令 267
仲@@ 267
ileri 266
provincia 266
toda 266
Τ 266
щ@@ 266
ނ@@ 266
नी 266
ಡ@@ 266
ẻ 266
ケ@@ 266
日 266
endung 265
ày 265
όλ@@ 265
շ@@ 265
ム 265
伯@@ 265
壽@@ 265
程@@ 265
Ő@@ 264
ʒ 264
αν 264
сла@@ 264
ੁ@@ 264
し 264
禮@@ 264
翔 264
蘭@@ 264
郎@@ 264
Japon 263
azini 263
ड@@ 263
ದ 263
ễn 263
命 263
antigu@@ 262
isini 262
tient 262
ǒ 262
ει 262
ных 262
դ@@ 262
ց@@ 262
ئ@@ 262
علي 262
ე 262
ን@@ 262
ἔ@@ 262
じ@@ 262
尾@@ 262
陵@@ 262
馬 262
魔@@ 262
대 262
Гор@@ 261
रु@@ 261
ะ@@ 261
為@@ 261
jewe@@ 260
ˌ@@ 260
εις 260
οδ@@ 260
Ла@@ 260
Ста@@ 260
жа@@ 260
ские 260
фа@@ 260
ު@@ 260
ửa 260
京 260
寧@@ 260
沈@@ 260
秦@@ 260
空 260
onóm@@ 259
primera 259
prés@@ 259
ành 259
τε@@ 259
ле 259
ू@@ 259
ਲ@@ 259
ෙ@@ 259
丹@@ 259
修@@ 259
塘@@ 259
爱@@ 259
에 259
okana 258
È 258
άγ@@ 258
αβ@@ 258
με@@ 258
ώ 258
Гри@@ 258
मे@@ 258
ર@@ 258
ข@@ 258
于@@ 258
代 258
无@@ 258
风@@ 258
huyện 257
Ä 257
παρ@@ 257
πι@@ 257
ет@@ 257
слав 257
مح@@ 257
นา@@ 257
深@@ 257
紀@@ 257
雅@@ 257
과 257
ون@@ 256
န@@ 256
ối 256
你 256
術@@ 256
足@@ 256
Kupası 255
asyon 255
ђ@@ 255
गु@@ 255
ద@@ 255
场 255
mehr@@ 254
zwa 254
Đế 254
ικός 254
οφ@@ 254
أحمد 254
زي@@ 254
نا@@ 254
⅛ 254
だ@@ 254
曲@@ 254
로@@ 254
mayan 253
ʒ@@ 253
μέ@@ 253
τερ@@ 253
ὀ@@ 253
二 253
局 253
桂@@ 253
灣@@ 253
Б 252
Г 252
Сте@@ 252
घ@@ 252
ਨ@@ 252
月 252
术@@ 252
章 252
色@@ 252
호 252
hiện 251
siglo 251
tı 251
μπ@@ 251
ў@@ 251
الب@@ 251
ने@@ 251
ा 251
ක 251
上 251
拉@@ 251
紅@@ 251
觀@@ 251
貴@@ 251
门@@ 251
鬼@@ 251
아 251
d&apos; 250
presidente 250
tekn@@ 250
रे@@ 250
े@@ 250
典 250
寧 250
戦@@ 250
노@@ 250
랑@@ 250
부 250
zwischen 249
λος 249
СССР 249
ّ 249
ਤ@@ 249
ピ@@ 249
員@@ 249
岡@@ 249
愛 249
普@@ 249
良 249
connu 248
peut 248
¦ 248
ıp 248
ʻ 248
вет@@ 248
ް@@ 248
ಳ@@ 248
屋@@ 248
崇@@ 248
進@@ 248
雪@@ 248
백@@ 248
chí 247
ùa 247
лий 247
اش@@ 247
ܐ 247
ำ@@ 247
中心 247
将@@ 247
論 247
間@@ 247
Độ 246
Росси@@ 246
ḻ@@ 246
ể 246
ực 246
わ@@ 246
布@@ 246
想@@ 246
羅 246
así 245
ĝ@@ 245
Μ 245
лов@@ 245
الر@@ 245
لَ@@ 245
ং@@ 245
ஆ@@ 245
ṁ 245
奇@@ 245
οί 244
ات 244
उ@@ 244
ค@@ 244
ล 244
ℳ 244
ァ@@ 244
角@@ 244
삼@@ 244
hiyo 243
péri@@ 243
į 243
дар@@ 243
މ@@ 243
ි 243
จ 243
ức 243
イ 243
字 243
若@@ 243
라 243
재@@ 243
πρ@@ 242
ства 242
ต 242
ὑ@@ 242
男 242
米@@ 242
Jahren 241
quốc 241
मु@@ 241
െ@@ 241
吴@@ 241
紫@@ 241
니@@ 241
당 241
위@@ 241
Jahrhunderts 240
annt 240
Æ 240
нова 240
ря@@ 240
ན 240
ṁ@@ 240
惠@@ 240
興 240
隆@@ 240
Eylül 239
lük 239
γκ@@ 239
μος 239
Никола@@ 239
को 239
ด 239
ẽ@@ 239
任@@ 239
民 239
食@@ 239
시 239
zös@@ 238
ǣ@@ 238
ೀ@@ 238
အ@@ 238
記@@ 238
τσ@@ 237
ля 237
北 237
선 237
ört 236
œuv@@ 236
Ρ 236
ман 236
الت@@ 236
دي 236
ུ@@ 236
ာ 236
省@@ 236
罗@@ 236
谷 236
長 236
창@@ 236
alık 235
seines 235
toute 235
yali@@ 235
οι@@ 235
τες 235
Лю@@ 235
ރ@@ 235
सं@@ 235
ൂ@@ 235
ම 235
ベ@@ 235
幸@@ 235
晉@@ 235
雙@@ 235
titre 234
ён@@ 234
يا 234
ర 234
入@@ 234
半@@ 234
向@@ 234
振@@ 234
κύ@@ 233
сте@@ 233
сь 233
ս 233
سر@@ 233
ব 233
ひ@@ 233
学院 233
洲@@ 233
習@@ 233
街 233
頭 233
Durch 232
ouest 232
З 232
Ли@@ 232
اني 232
رة 232
छ@@ 232
শ 232
ห 232
စ@@ 232
့ 232
別@@ 232
呂@@ 232
慕@@ 232
隊 232
Jahrhundert 231
 231
Γι@@ 231
вер@@ 231
дивизи@@ 231
ды 231
الخ@@ 231
ڤ@@ 231
ಕ 231
ር@@ 231
ṛ 231
補@@ 231
護@@ 231
adı 230
crí@@ 230
desde 230
zao 230
вя@@ 230
ѣ@@ 230
دي@@ 230
हा@@ 230
ೇ@@ 230
錢 230
distrito 229
giai 229
públ@@ 229
üy@@ 229
Δημ@@ 229
κο@@ 229
Ин@@ 229
он 229
рус@@ 229
ք@@ 229
ז 229
दा@@ 229
ད@@ 229
ှ@@ 229
兴@@ 229
意@@ 229
橋 229
殿 229
而@@ 229
depuis 228
dernier 228
président 228
schon 228
ην@@ 228
υμ@@ 228
ви 228
сло@@ 228
ते 228
ळ@@ 228
船@@ 228
起@@ 228
順@@ 228
cinq 227
yeye 227
έλ@@ 227
υρ@@ 227
पु@@ 227
〉 227
得@@ 227
臣 227
꞉ 227
encuentr@@ 226
uzun 226
Χ 226
وال@@ 226
ख 226
ਜ@@ 226
ท 226
ิ@@ 226
ᾶ@@ 226
↓ 226
ホ@@ 226
ラ 226
園@@ 226
尉 226
治 226
經@@ 226
關@@ 226
평@@ 226
Oktober 225
erst 225
ihrer 225
wais@@ 225
μι@@ 225
Николай 225
кова 225
化 225
奉@@ 225
忠 225
念@@ 225
清 225
ци 224
״ 224
ὄ@@ 224
‹ 224
そ@@ 224
機@@ 224
舞@@ 224
苏@@ 224
車 224
通 224
escri@@ 223
πος 223
қ@@ 223
سع@@ 223
दि@@ 223
ড 223
ู 223
མ@@ 223
က 223
共@@ 223
吏@@ 223
言@@ 223
어 223
İsp@@ 222
ʲ@@ 222
Κύ@@ 222
εν 222
υλ@@ 222
है 222
ର@@ 222
ི@@ 222
业@@ 222
傳@@ 222
貞@@ 222
Ξ@@ 221
αρχ@@ 221
ак@@ 221
कर@@ 221
ਗ@@ 221
金 221
靈@@ 221
飞@@ 221
교@@ 221
호@@ 221
casi 220
де 220
лек@@ 220
ধ@@ 220
ო 220
た 220
ろ@@ 220
estado 219
polí@@ 219
también 219
ικό 219
ธ@@ 219
ộng 219
き 219
ズ@@ 219
佳@@ 219
军@@ 219
甲@@ 219
面@@ 219
鮮@@ 219
Có 218
emaji 218
norte 218
до 218
ран@@ 218
цы 218
ول@@ 218
को@@ 218
ਬ@@ 218
〈 218
ポ@@ 218
堂@@ 218
寺@@ 218
湾@@ 218
用@@ 218
盛@@ 218
청@@ 218
Âu 217
ημ@@ 217
χος 217
Лу@@ 217
вар@@ 217
це 217
ार@@ 217
ਰ 217
મ@@ 217
井 217
戶@@ 217
藏@@ 217
運@@ 217
雷@@ 217
용@@ 217
enero 216
waren 216
Ú 216
άδ@@ 216
δρ@@ 216
Л 216
ռ@@ 216
ත 216
め@@ 216
ネ@@ 216
下 216
孔@@ 216
泉 216
真 216
近@@ 216
鐵@@ 216
oloj@@ 215
εια 215
الص@@ 215
در 215
ี@@ 215
္ 215
ḏ 215
⊥ 215
ゴ@@ 215
初@@ 215
樂 215
aujour@@ 214
huy 214
¯ 214
ǧ@@ 214
ιλ@@ 214
ք 214
بی@@ 214
मा 214
ခ@@ 214
錢@@ 214
鹿@@ 214
atı 213
thư 213
Ç 213
ɡ 213
ʕ@@ 213
ман@@ 213
ха 213
ستان 213
نا 213
ี 213
健@@ 213
哈@@ 213
精@@ 213
首@@ 213
과@@ 213
화 213
années 212
selb@@ 212
Че@@ 212
ре 212
є@@ 212
斯@@ 212
話 212
정 212
minh 211
ʉ 211
Κα@@ 211
ева 211
ты 211
ча 211
чка 211
مع@@ 211
ৰ@@ 211
ਪ@@ 211
∀ 211
利 211
功@@ 211
所@@ 211
版 211
poder 210
ċ 210
̈ 210
фи@@ 210
է@@ 210
مة 210
โ@@ 210
央@@ 210
森@@ 210
福 210
nhi@@ 209
septi@@ 209
кин 209
مل@@ 209
ổi 209
₤ 209
司 209
� 209
ashara 208
düz@@ 208
gör@@ 208
trang 208
tür 208
ãn 208
Сер@@ 208
йн 208
ских 208
महा@@ 208
ृ@@ 208
ই@@ 208
え@@ 208
反@@ 208
橋@@ 208
童@@ 208
į@@ 207
се 207
чу@@ 207
الل@@ 207
मि@@ 207
♂ 207
威@@ 207
爾@@ 207
理 207
禮 207
紀 207
臨@@ 207
際@@ 207
黒@@ 207
학 207
último 206
ười 206
ίκ@@ 206
θη@@ 206
ты@@ 206
الف@@ 206
สา@@ 206
₴ 206
ど@@ 206
圖 206
形@@ 206
目@@ 206
运@@ 206
모@@ 206
예@@ 206
행@@ 206
Fue 205
Wilaya 205
gesi 205
Е 205
России 205
Сто@@ 205
ري 205
ਵ@@ 205
അ@@ 205
ണ 205
บ 205
าน@@ 205
教 205
與@@ 205
茶@@ 205
郡@@ 205
铁@@ 205
내@@ 205
를 205
만@@ 205
Tras 204
tarde 204
τέ@@ 204
Ал@@ 204
Ев@@ 204
Ша@@ 204
кра@@ 204
от 204
шка 204
Қ@@ 204
دی 204
ने 204
ේ@@ 204
孟@@ 204
律@@ 204
易@@ 204
豆@@ 204
阮@@ 204
bilin@@ 203
différ@@ 203
encu@@ 203
ây 203
όρ@@ 203
Пу@@ 203
ды@@ 203
ск 203
ско@@ 203
ོ 203
ḳ 203
动@@ 203
夢@@ 203
委@@ 203
康 203
拔@@ 203
由@@ 203
광@@ 203
윤@@ 203
endet 202
ikuu 202
liko 202
حي@@ 202
ି@@ 202
య@@ 202
♀ 202
源 202
烏@@ 202
線 202
êng 201
περ@@ 201
Андре@@ 201
الدين 201
شه@@ 201
การ@@ 201
ស@@ 201
ẽ 201
Ἄ@@ 201
ア 201
定 201
演@@ 201
錄 201
계@@ 201
dür@@ 200
gelen 200
ält 200
şir@@ 200
Ти@@ 200
Чер@@ 200
гра@@ 200
او@@ 200
ት 200
て 200
制@@ 200
官 200
彭@@ 200
濟@@ 200
虎 200
￥ 200
akter@@ 199
fonc@@ 199
yapan 199
͟ 199
льный 199
миро@@ 199
тин 199
ุ@@ 199
ḇ@@ 199
ột 199
画@@ 199
ına 198
κος 198
ве 198
тов 198
ै 198
ச 198
സ 198
ờ 198
令@@ 198
死@@ 198
거@@ 198
ikali 197
largo 197
Παν@@ 197
μεν@@ 197
Би@@ 197
щи@@ 197
կ 197
其@@ 197
报 197
相 197
Ŭ@@ 196
ογ@@ 196
την 196
При@@ 196
нь 196
燕@@ 196
瑞@@ 196
荊@@ 196
은@@ 196
juego 195
nte 195
γι@@ 195
Վ@@ 195
اء 195
ള 195
ṓ@@ 195
战@@ 195
謝@@ 195
麗@@ 195
Một 194
nungen 194
όπουλ@@ 194
Пре@@ 194
எ@@ 194
ลา@@ 194
መ@@ 194
ⵉ@@ 194
唱@@ 194
步@@ 194
袁@@ 194
음@@ 194
stamm@@ 193
Μαρ@@ 193
вы@@ 193
ции 193
في@@ 193
ܘ@@ 193
ೂ@@ 193
ං@@ 193
尔@@ 193
戸@@ 193
支@@ 193
管@@ 193
莫@@ 193
제 193
Nhà 192
ierte 192
οσ@@ 192
πολι@@ 192
ظ@@ 192
ܪ@@ 192
ާ@@ 192
ई 192
池@@ 192
版@@ 192
개@@ 192
ﺍ@@ 192
fahren 191
ʉ@@ 191
τυ@@ 191
вый 191
علی 191
نس@@ 191
भा@@ 191
ば@@ 191
俊@@ 191
族 191
根@@ 191
桃@@ 191
諸@@ 191
진 191
Präs@@ 190
mismo 190
ησ@@ 190
Ге@@ 190
در@@ 190
में 190
ീ@@ 190
の 190
ゲ@@ 190
務@@ 190
宜@@ 190
店 190
条@@ 190
果@@ 190
韋@@ 190
neuen 189
époque 189
δε@@ 189
бра@@ 189
ֲ@@ 189
هر 189
झ@@ 189
मन 189
ങ 189
ു 189
ფ@@ 189
ስ@@ 189
【 189
】 189
使@@ 189
博 189
发@@ 189
尼@@ 189
香 189
óm 188
ʌ@@ 188
σσ@@ 188
ται 188
Ди@@ 188
Хо@@ 188
чен@@ 188
ց 188
تر@@ 188
वे@@ 188
शा@@ 188
सि@@ 188
খ@@ 188
ề 188
※ 188
峰 188
庄@@ 188
蒙@@ 188
구 188
치@@ 188
ekonom@@ 187
fútbol 187
moins 187
uyện 187
ρυ@@ 187
τί@@ 187
Михаил 187
доро@@ 187
фе@@ 187
انی 187
ન@@ 187
ే@@ 187
รั@@ 187
ḩ 187
大學 187
泰 187
浦@@ 187
茂@@ 187
酒@@ 187
馮@@ 187
εκ@@ 186
ছ@@ 186
ุ 186
ἴ@@ 186
ら 186
守 186
曾@@ 186
潘@@ 186
造@@ 186
신 186
일 186
đi 185
ưa 185
ές 185
αθ@@ 185
μά@@ 185
υπ@@ 185
ато@@ 185
ә 185
أبو 185
اس 185
سو@@ 185
െ 185
බ@@ 185
ⁿ 185
か 185
浙@@ 185
總@@ 185
遠@@ 185
방@@ 185
acción 184
dài 184
igten 184
préc@@ 184
ŝ@@ 184
οχ@@ 184
І 184
Ф 184
ем@@ 184
ны@@ 184
од@@ 184
ते@@ 184
हि@@ 184
僕@@ 184
益@@ 184
联@@ 184
종@@ 184
황@@ 184
👩 184
toàn 183
ɕ@@ 183
όσ@@ 183
Գ@@ 183
يل 183
सन 183
ძ@@ 183
ậm 183
ỉnh 183
宁@@ 183
雲 183
회@@ 183
👨 183
Agosti 182
Ż 182
اي@@ 182
بي 182
ين@@ 182
दे@@ 182
ội 182
力 182
园 182
情 182
新 182
赵@@ 182
防@@ 182
靜@@ 182
風 182
덕@@ 182
Ils 181
adhim@@ 181
compte 181
lục 181
ίσ@@ 181
μβ@@ 181
προ@@ 181
Ор@@ 181
сы 181
بو@@ 181
حسن 181
ੀ@@ 181
หา@@ 181
ิ 181
₽ 181
刀 181
熊@@ 181
薛@@ 181
術 181
际@@ 181
후 181
Alman 180
dân 180
gibt 180
ierung 180
lugar 180
weiter 180
zake 180
ίλ@@ 180
ван@@ 180
ще@@ 180
ј 180
لة 180
مه@@ 180
ंग@@ 180
विद 180
ೋ@@ 180
ദ@@ 180
วง@@ 180
助 180
政 180
未@@ 180
菜 180
速@@ 180
요 180
idadi 179
política 179
Ċ@@ 179
ίου 179
им@@ 179
می 179
உ@@ 179
ಜ@@ 179
ද 179
ැ@@ 179
ὴ@@ 179
ヤ@@ 179
Namen 178
văn 178
équi@@ 178
Αγ@@ 178
али@@ 178
থ@@ 178
ষ 178
డ@@ 178
สุ@@ 178
客@@ 178
座 178
感@@ 178
打@@ 178
盟 178
維@@ 178
股@@ 178
면 178
승@@ 178
bió 177
frente 177
keiten 177
сы@@ 177
ừng 177
ỷ 177
身@@ 177
ensuite 176
̆ 176
Гра@@ 176
ня@@ 176
рав@@ 176
ּ 176
ات@@ 176
احمد 176
دا@@ 176
वा 176
ू 176
এ@@ 176
മ 176
ര 176
รา@@ 176
介 176
儀 176
恩@@ 176
車@@ 176
陰@@ 176
단 176
순@@ 176
Danh 175
miş 175
theo 175
гъ@@ 175
стрел@@ 175
اف@@ 175
राम 175
ො@@ 175
ยา@@ 175
ἱ@@ 175
侯@@ 175
勝 175
姚@@ 175
尾 175
格@@ 175
楚@@ 175
樹 175
派 175
聲@@ 175
遊@@ 175
鄧@@ 175
Hàn 174
lık@@ 174
seit 174
мы 174
тра@@ 174
سل@@ 174
ณ@@ 174
ḱ@@ 174
せ@@ 174
名 174
團 174
头@@ 174
茶 174
隆 174
경 174
불@@ 174
ekana 173
sasa 173
ην 173
मो@@ 173
ੇ 173
อ 173
与@@ 173
团 173
密@@ 173
玉 173
雨@@ 173
등@@ 173
울@@ 173
Người 172
eğ@@ 172
ώργ@@ 172
мов 172
фо@@ 172
ян@@ 172
برا@@ 172
शि@@ 172
ુ@@ 172
ภ@@ 172
み 172
姬 172
季@@ 172
洛@@ 172
线 172
葛@@ 172
두@@ 172
홍@@ 172
amı 171
ledi 171
اه@@ 171
ڠ 171
ழ 171
న 171
ජ@@ 171
ზ@@ 171
‛ 171
ザ@@ 171
再@@ 171
渡@@ 171
現@@ 171
秘@@ 171
羽@@ 171
齊@@ 171
관@@ 171
나 171
dann 170
dogo 170
donde 170
kendi 170
sür@@ 170
Фе@@ 170
Կ@@ 170
ա 170
ث 170
سی@@ 170
ما 170
ول 170
ମ@@ 170
ස 170
塔@@ 170
屋 170
崎@@ 170
龙 170
ηλ@@ 169
ξι@@ 169
υσ@@ 169
кто@@ 169
ў 169
ӕ@@ 169
سة 169
दु@@ 169
ṇ 169
グ 169
中华@@ 169
书@@ 169
來@@ 169
段@@ 169
금@@ 169
통@@ 169
Dünya 168
ɲ 168
Ελλην@@ 168
σία 168
Об@@ 168
ед@@ 168
нин 168
па 168
وي@@ 168
इ@@ 168
ག 168
ར 168
ီ@@ 168
በ@@ 168
Ḵ@@ 168
典@@ 168
望@@ 168
汉@@ 168
珠@@ 168
終@@ 168
議@@ 168
铁路 168
partidos 167
çı@@ 167
ɓ@@ 167
αστ@@ 167
ηγ@@ 167
κυ@@ 167
ствен@@ 167
ી 167
ྱ@@ 167
す 167
东 167
伏@@ 167
刑@@ 167
师@@ 167
登@@ 167
秀 167
豊@@ 167
賢@@ 167
高 167
영 167
； 167
Năm 166
beim 166
représent@@ 166
selon 166
΄ 166
Καρ@@ 166
αδ@@ 166
λέ@@ 166
υν@@ 166
Ча@@ 166
ате@@ 166
пре@@ 166
сан@@ 166
сти 166
ائ@@ 166
ލ@@ 166
ក@@ 166
⁺ 166
ふ@@ 166
我 166
業 166
革@@ 166
ꜣ@@ 166
역 166
améric@@ 165
ngữ 165
вой 165
тан@@ 165
دی@@ 165
জ 165
₫ 165
就@@ 165
岳@@ 165
戦 165
早@@ 165
时@@ 165
经@@ 165
表@@ 165
keine 164
zili@@ 164
ʹ 164
̩ 164
Νικ@@ 164
κά@@ 164
στο@@ 164
Жи@@ 164
ван 164
кон@@ 164
ности 164
публика 164
الإ@@ 164
ہ@@ 164
ಣ@@ 164
ണ@@ 164
สร@@ 164
伯 164
勇@@ 164
团@@ 164
快@@ 164
松 164
蒲@@ 164
襄@@ 164
ellement 163
isième 163
wanja 163
όκ@@ 163
ата@@ 163
ку 163
чи 163
ья 163
وس@@ 163
ܡ@@ 163
ಪ 163
ผ@@ 163
ẫu 163
医@@ 163
品 163
彦 163
物 163
董@@ 163
관 163
타@@ 163
deven@@ 162
quân 162
καλ@@ 162
раз@@ 162
рина 162
به 162
وب@@ 162
گا@@ 162
चा@@ 162
ஜ@@ 162
త 162
เพ@@ 162
ảy 162
Ἑ@@ 162
伝@@ 162
夷 162
希@@ 162
性@@ 162
懷@@ 162
落@@ 162
quelques 161
taş@@ 161
Ζ 161
ιστ@@ 161
мы@@ 161
اب 161
تا@@ 161
سن@@ 161
مي 161
ବ@@ 161
ồi 161
ὕ@@ 161
关@@ 161
恭@@ 161
横@@ 161
第一@@ 161
문 161
🏻 161
Maisha 160
idir 160
sprech@@ 160
tipo 160
üsü 160
οπ@@ 160
Ком@@ 160
Х 160
ать 160
мя@@ 160
ну@@ 160
рис 160
الغ@@ 160
ܲ@@ 160
မ 160
ấm 160
ご@@ 160
共和@@ 160
珠 160
統@@ 160
dön@@ 159
nchi 159
nuev@@ 159
principales 159
sistema 159
yıl 159
ˁ@@ 159
Вели@@ 159
льная 159
مج@@ 159
ञ 159
ठ@@ 159
ಯ 159
พ 159
ນ@@ 159
ỉ@@ 159
ớ@@ 159
ゆ@@ 159
ヒ@@ 159
兰@@ 159
單@@ 159
度 159
故@@ 159
皇 159
단@@ 159
iendo 158
Έ@@ 158
ήσ@@ 158
μαν@@ 158
τρι@@ 158
къ@@ 158
пер@@ 158
गो@@ 158
थ 158
से 158
↦ 158
ペ@@ 158
后@@ 158
指@@ 158
翰@@ 158
트 158
anischen 157
lassen 157
watu 157
Ông 157
áu 157
Вла@@ 157
ین 157
बि@@ 157
ಶ 157
අ@@ 157
ỉ 157
余@@ 157
叶@@ 157
品@@ 157
徳@@ 157
朴@@ 157
陶@@ 157
🏼 157
nahme 156
segunda 156
Παρ@@ 156
ху@@ 156
ё 156
بل@@ 156
ર 156
ὲ 156
₪ 156
ギ@@ 156
孙@@ 156
房@@ 156
拓@@ 156
衛 156
說@@ 156
警@@ 156
🏾 156
dort 155
lığı 155
présent@@ 155
tự 155
äude 155
ĕ 155
ге 155
ги 155
нато@@ 155
обо@@ 155
մ 155
الآ@@ 155
ු 155
ป 155
ั 155
ብ@@ 155
世 155
他@@ 155
印@@ 155
坡@@ 155
尹@@ 155
开@@ 155
引 155
甘@@ 155
胡 155
至@@ 155
衣@@ 155
鉄@@ 155
besonder@@ 154
ɗ@@ 154
τικ@@ 154
Гу@@ 154
عة 154
عل@@ 154
ि@@ 154
উ@@ 154
ୁ@@ 154
ల 154
ಭ@@ 154
റ 154
། 154
ည 154
ន@@ 154
亞@@ 154
動 154
夷@@ 154
慧@@ 154
洞@@ 154
詩@@ 154
酒 154
북@@ 154
현 154
🏿 154
ainsi 153
conocido 153
dağ@@ 153
estudi@@ 153
quement 153
trấn 153
zote 153
ɾ 153
ϕ 153
ек@@ 153
ран 153
шо@@ 153
խ@@ 153
از@@ 153
ری 153
ḡ@@ 153
ꜣ 153
당@@ 153
파@@ 153
포@@ 153
🏽 153
ų@@ 152
δο@@ 152
Кра@@ 152
Македо@@ 152
лы 152
пар@@ 152
стра@@ 152
тур@@ 152
ян 152
دة 152
रे 152
ই 152
ક@@ 152
฿ 152
ῥ@@ 152
朝 152
聯@@ 152
裕@@ 152
鳥@@ 152
송@@ 152
ɲ@@ 151
Ђ@@ 151
Из@@ 151
дов 151
ников 151
пор@@ 151
ւ 151
کی 151
ारी 151
ষ@@ 151
ੱ@@ 151
ደ@@ 151
ểu 151
ヨ@@ 151
獨@@ 151
白 151
판@@ 151
nhau 150
système 150
territoire 150
toba 150
ược 150
̇ 150
̊ 150
πα@@ 150
ριστ@@ 150
όδ@@ 150
Ту@@ 150
публи@@ 150
مص@@ 150
के@@ 150
ே 150
ḗ 150
₧ 150
乙@@ 150
了@@ 150
亚@@ 150
仙 150
個@@ 150
园@@ 150
慈@@ 150
浪@@ 150
町@@ 150
節 150
阳 150
非@@ 150
騎@@ 150
魯@@ 150
운@@ 150
󠁵 150
Mã 149
ciud@@ 149
cual@@ 149
habari 149
ständi@@ 149
Â 149
ɒ@@ 149
Ξ 149
ησι@@ 149
οπο@@ 149
ση 149
слав@@ 149
وم@@ 149
ফ@@ 149
చ@@ 149
ც@@ 149
ụng 149
‟ 149
と 149
夜 149
波 149
舞 149
角 149
우 149
 149
dentro 148
ŕ@@ 148
ʁ@@ 148
υγ@@ 148
Констан@@ 148
ите@@ 148
ктор 148
рия 148
વ@@ 148
สโม@@ 148
འ@@ 148
ếm 148
了 148
份@@ 148
军 148
太 148
庆@@ 148
菩@@ 148
號 148
視@@ 148
doit 147
nó 147
thị 147
μφ@@ 147
οβ@@ 147
же 147
куль@@ 147
под@@ 147
ही 147
ం 147
ಚ@@ 147
⅜ 147
兵 147
峰@@ 147
拳@@ 147
提@@ 147
母@@ 147
留@@ 147
薩@@ 147
藝@@ 147
게 147
집 147
deki 146
durch@@ 146
ließ 146
versión 146
weise 146
Ù@@ 146
ητ@@ 146
Геор@@ 146
ган@@ 146
прав@@ 146
эн@@ 146
ार 146
ो@@ 146
ট 146
ু 146
⠇ 146
く 146
区@@ 146
友 146
広@@ 146
湖 146
番@@ 146
祥 146
素@@ 146
하 146
Jahrhunder@@ 145
cerca 145
cung 145
estudio 145
laş@@ 145
mà 145
sehr 145
öffent@@ 145
ματ@@ 145
осу@@ 145
ста 145
اج@@ 145
رب@@ 145
สม@@ 145
ἶ@@ 145
≅ 145
ょ@@ 145
也@@ 145
传@@ 145
俊 145
的 145
裴@@ 145
象@@ 145
輝 145
關 145
들 145
법@@ 145
병@@ 145
임@@ 145
avait 144
punto 144
sız 144
Με@@ 144
χρ@@ 144
ύρ@@ 144
дра@@ 144
тар@@ 144
ری@@ 144
चि@@ 144
ठ 144
धर 144
ಟ@@ 144
ಸ 144
เก@@ 144
ະ@@ 144
ブ 144
号@@ 144
貞 144
馆 144
육@@ 144
xem 143
του@@ 143
лё@@ 143
рин 143
тер@@ 143
ڠ@@ 143
णी 143
อย@@ 143
อล@@ 143
ểm 143
☉ 143
丞 143
亭@@ 143
刀@@ 143
幽@@ 143
微@@ 143
蘭 143
魚@@ 143
вен@@ 142
уч@@ 142
الط@@ 142
لا 142
مد@@ 142
مش@@ 142
रो@@ 142
ếp 142
亮 142
昭 142
藤 142
escrit@@ 141
fün@@ 141
gibi 141
Ģ@@ 141
ίων 141
θέ@@ 141
ρου 141
ден@@ 141
чки 141
ը 141
اع@@ 141
पर 141
पर@@ 141
पुर 141
ા 141
ಅ@@ 141
ർ 141
ื 141
ສ@@ 141
Ấ@@ 141
ịch 141
ℛ@@ 141
ⵎ@@ 141
け 141
兒 141
場@@ 141
夏 141
婆@@ 141
寿@@ 141
展@@ 141
慶 141
獎 141
년 141
saison 140
ço@@ 140
Το 140
αφ@@ 140
ικά 140
μον@@ 140
ύλ@@ 140
пере@@ 140
рен@@ 140
تو@@ 140
غ 140
نج@@ 140
کو@@ 140
ले@@ 140
ো 140
ਂ 140
യ 140
ญ@@ 140
ྲ@@ 140
ỏ@@ 140
ὴ 140
₺ 140
∃ 140
に 140
丘@@ 140
个@@ 140
剛@@ 140
华 140
坂@@ 140
弘 140
揚@@ 140
斗@@ 140
港 140
羊@@ 140
選@@ 140
體@@ 140
새@@ 140
야 140
dieser 139
gouvernement 139
itwa 139
ocup@@ 139
segundo 139
wurde 139
yake 139
Σύ@@ 139
νε@@ 139
От@@ 139
кая 139
ା 139
ె@@ 139
ം@@ 139
บา@@ 139
ལ 139
ን 139
ụy 139
Ὀ@@ 139
专@@ 139
事件 139
取@@ 139
奇 139
好 139
封@@ 139
式 139
施@@ 139
次 139
母 139
照@@ 139
hacer 138
ˤ@@ 138
τας 138
Федера@@ 138
мо 138
них 138
الز@@ 138
ಶ@@ 138
ประ@@ 138
เม@@ 138
丰@@ 138
久 138
包@@ 138
嚴@@ 138
基 138
盧 138
臺 138
芳 138
간@@ 138
계 138
보 138
천 138
토@@ 138
피@@ 138
nước 137
με 137
ουλ@@ 137
ρω@@ 137
σε@@ 137
τικός 137
зы@@ 137
բ 137
از 137
ले 137
ੇ@@ 137
ಗ 137
ശ@@ 137
ราช@@ 137
□ 137
丘 137
列@@ 137
妙@@ 137
宏@@ 137
復@@ 137
戰@@ 137
改@@ 137
溪 137
父 137
郑@@ 137
陀@@ 137
Пра@@ 136
кт 136
ғ@@ 136
ني@@ 136
نی@@ 136
ती@@ 136
ा@@ 136
ੋ@@ 136
హ@@ 136
พิ@@ 136
ុ@@ 136
亭 136
將 136
森 136
洞 136
浩@@ 136
무 136
생@@ 136
amerikan@@ 135
ĉ@@ 135
εσ@@ 135
μου 135
οκ@@ 135
ρύ@@ 135
ме 135
ье 135
دو@@ 135
ंड@@ 135
फ@@ 135
ৰ 135
କ@@ 135
ഷ@@ 135
ติ@@ 135
ฟุต@@ 135
วิ@@ 135
ེ@@ 135
የ@@ 135
ℝ 135
形 135
来 135
汝@@ 135
祥@@ 135
節@@ 135
芳@@ 135
関@@ 135
青 135
군@@ 135
cuando 134
gesam@@ 134
gün@@ 134
imeh@@ 134
schri@@ 134
ğu 134
ɬ@@ 134
άρι@@ 134
τζ@@ 134
όμ@@ 134
شر@@ 134
کر@@ 134
ھ@@ 134
राज 134
జ@@ 134
ച 134
ริ@@ 134
หล@@ 134
ວ@@ 134
ἡ 134
■ 134
到@@ 134
劇@@ 134
去@@ 134
叔@@ 134
岳 134
桥 134
榮@@ 134
草 134
貴 134
達 134
遠 134
間 134
들@@ 134
희 134
geç@@ 133
học 133
ιμ@@ 133
κατ@@ 133
λόγ@@ 133
πε@@ 133
каз@@ 133
кла@@ 133
мар@@ 133
тре@@ 133
مُ@@ 133
कि@@ 133
सत 133
ข 133
ู@@ 133
ဆ@@ 133
ᐊ@@ 133
ង 133
Ọ 133
ℓ@@ 133
應@@ 133
楽@@ 133
洲 133
然@@ 133
申@@ 133
發@@ 133
穆@@ 133
래@@ 133
반@@ 133
출@@ 133
mondiale 132
tamente 132
¤ 132
Ź@@ 132
ʲ 132
˘ 132
Πολ@@ 132
γιος 132
τι 132
Кон@@ 132
ву@@ 132
жен@@ 132
че 132
لال 132
ہ 132
वन 132
ṅ 132
え 132
ロ 132
射 132
授@@ 132
淑@@ 132
澤@@ 132
艺@@ 132
鍾@@ 132
와 132
También 131
gegen@@ 131
puede 131
Αρ@@ 131
ετ@@ 131
μν@@ 131
Кар@@ 131
лин 131
народ@@ 131
тиче@@ 131
ط 131
ণ@@ 131
₣ 131
哲@@ 131
奈@@ 131
實@@ 131
洋 131
督@@ 131
舍@@ 131
车@@ 131
鈴@@ 131
꧀ 131
릉 131
／ 131
bilg@@ 130
compañ@@ 130
hatten 130
Ë@@ 130
ɐ@@ 130
Ό@@ 130
θλ@@ 130
бы@@ 130
горо@@ 130
ис@@ 130
пол@@ 130
щ 130
ده 130
رية 130
ކ@@ 130
গ 130
ਸ 130
ର 130
ജ@@ 130
ัน@@ 130
ັ@@ 130
ក 130
◦ 130
ユ@@ 130
宏 130
寨 130
活@@ 130
温@@ 130
矢@@ 130
봉@@ 130
partir 129
trabaj@@ 129
ʌ 129
καν@@ 129
Ши@@ 129
ет 129
ше 129
տ 129
شی@@ 129
ير@@ 129
ൽ 129
ช 129
ื@@ 129
ィ 129
丹 129
切@@ 129
從@@ 129
於@@ 129
服@@ 129
根 129
游@@ 129
滿@@ 129
県@@ 129
语 129
야@@ 129
？ 129
agosto 128
letzten 128
ması 128
λά@@ 128
ού 128
όπ@@ 128
лин@@ 128
اله@@ 128
جو@@ 128
وسف 128
਼ 128
นต@@ 128
ር 128
协@@ 128
完@@ 128
室 128
戰 128
敦@@ 128
柏@@ 128
榮 128
目 128
眼@@ 128
苻@@ 128
ꦺ@@ 128
l&apos; 127
Ý 127
đo@@ 127
Προ@@ 127
ιά 127
λογ@@ 127
ουν@@ 127
дру@@ 127
кар@@ 127
лова 127
ся 127
յ 127
بر 127
ณ 127
ที 127
เข@@ 127
တ 127
ለ@@ 127
ᛁ@@ 127
ち 127
倉 127
圖@@ 127
总@@ 127
朗 127
汗 127
盛 127
第二@@ 127
群@@ 127
耀@@ 127
賞 127
走@@ 127
식@@ 127
해 127
Cette 126
dü 126
τε 126
обще@@ 126
стан 126
धु@@ 126
रह 126
ै@@ 126
เทศ@@ 126
ི 126
Ῥ@@ 126
古 126
團@@ 126
火 126
當@@ 126
蓮@@ 126
记 126
醫@@ 126
面 126
물@@ 126
Birliği 125
Después 125
luss 125
ʽ 125
πά@@ 125
ρέ@@ 125
обла@@ 125
Ե@@ 125
ܐ@@ 125
ए@@ 125
मी 125
ও 125
ণ 125
ད 125
ံ@@ 125
ảm 125
ὰ@@ 125
プ 125
又@@ 125
呼@@ 125
奥@@ 125
才 125
斗 125
漢 125
级@@ 125
身 125
輪@@ 125
达@@ 125
드@@ 125
랑 125
복@@ 125
작@@ 125
caract@@ 124
después 124
zahl 124
ǚ 124
Κυ@@ 124
επ@@ 124
μη 124
ναι 124
Българ@@ 124
Моск@@ 124
Москов@@ 124
ду 124
بة 124
दर 124
คร@@ 124
ส 124
ម@@ 124
ἑ@@ 124
ὅ@@ 124
は 124
リ 124
及@@ 124
器@@ 124
室@@ 124
扶@@ 124
潮@@ 124
耶@@ 124
聞@@ 124
起 124
農@@ 124
󠁲 124
ampiy@@ 123
diese 123
nhân 123
Ã@@ 123
ơ@@ 123
ướng 123
αλλ@@ 123
дия 123
еди@@ 123
ники 123
ӧ@@ 123
به@@ 123
جب@@ 123
كة 123
لی@@ 123
ެ@@ 123
कृ@@ 123
ढ@@ 123
राज@@ 123
ঁ@@ 123
ৃ@@ 123
ે 123
బ@@ 123
ీ@@ 123
እ@@ 123
ấp 123
ナ 123
伝 123
倉@@ 123
姜@@ 123
尊@@ 123
尼 123
干@@ 123
当@@ 123
散@@ 123
溫@@ 123
莊@@ 123
鬼 123
식 123
요@@ 123
󠁳 123
maye 122
ofici@@ 122
ubwa 122
άμ@@ 122
έα 122
έκ@@ 122
σης 122
зы 122
ок@@ 122
ұ@@ 122
ٽ@@ 122
ހ@@ 122
ँ 122
ारा 122
ঙ 122
บริ@@ 122
เส@@ 122
ិ@@ 122
书 122
保 122
周 122
夢 122
娘 122
恩 122
芝 122
蔵 122
视@@ 122
難 122
디@@ 122
c&apos; 121
genannt 121
halten 121
ında 121
ǝ 121
̚ 121
Ευ@@ 121
εγ@@ 121
φύ@@ 121
Пи@@ 121
Ш 121
для 121
ление 121
она@@ 121
сов 121
ческий 121
الرحمن 121
تم@@ 121
ޫ 121
बु@@ 121
रम 121
सर 121
ట@@ 121
ങ@@ 121
མ 121
წ@@ 121
ᚢ@@ 121
Ẹ@@ 121
ὺ@@ 121
‖ 121
々@@ 121
器 121
孫 121
憲@@ 121
才@@ 121
话 121
雨 121
드 121
dedor 120
großen 120
permet@@ 120
yıld@@ 120
Χρ@@ 120
έγ@@ 120
τρο@@ 120
όγ@@ 120
Вы@@ 120
Ло@@ 120
Տ@@ 120
ة@@ 120
زی@@ 120
سين 120
ٰ@@ 120
ް 120
ठी 120
ନ 120
ಣ 120
ಳ 120
ව 120
ී 120
มหา@@ 120
ອ@@ 120
ት@@ 120
ἡ@@ 120
ね@@ 120
キ 120
ヴ@@ 120
㎡ 120
傅@@ 120
報@@ 120
壽 120
對@@ 120
庄 120
景 120
李 120
画 120
考@@ 120
見 120
資@@ 120
邑 120
靖@@ 120
카@@ 120
󠁡 120
Khi 119
deuxième 119
eshim@@ 119
halb 119
ieurs 119
tement 119
todas 119
Ñ 119
Καλ@@ 119
Παπ@@ 119
γεν@@ 119
προσ@@ 119
τω 119
На 119
Пер@@ 119
рас@@ 119
три@@ 119
цо@@ 119
Ն@@ 119
ծ@@ 119
شن 119
صر 119
مس@@ 119
وم 119
ई@@ 119
ূ@@ 119
້ 119
ប@@ 119
ặc 119
ⵔ@@ 119
为@@ 119
乾@@ 119
位@@ 119
冠@@ 119
冲@@ 119
去 119
树@@ 119
珍 119
私@@ 119
鄉@@ 119
있@@ 119
γλ@@ 118
δος 118
μή@@ 118
ССР 118
йский 118
му 118
нау@@ 118
спе@@ 118
اری 118
الي@@ 118
نی 118
ސ@@ 118
तम 118
दी@@ 118
ൻ 118
ට@@ 118
ේ 118
ญ 118
ษ@@ 118
ລ@@ 118
ል@@ 118
ገ@@ 118
ᐃ@@ 118
厂 118
喜 118
氣 118
澤 118
立 118
臣@@ 118
语@@ 118
造 118
래 118
소 118
ﻟ@@ 118
Chính 117
Mayıs 117
timu 117
Ï@@ 117
ĺ@@ 117
ʋ@@ 117
ˠ@@ 117
είο 117
ιδ@@ 117
λί@@ 117
λευ@@ 117
ϊ@@ 117
бор@@ 117
мат@@ 117
ґ@@ 117
չ@@ 117
ֿ@@ 117
ض 117
مار@@ 117
ې@@ 117
जि@@ 117
नु@@ 117
यो@@ 117
सी 117
ེ 117
ስ 117
ốn 117
∥ 117
卫@@ 117
殿@@ 117
沢@@ 117
烈@@ 117
片@@ 117
珍@@ 117
譜 117
雍@@ 117
권@@ 117
조 117
혜@@ 117
Avru@@ 116
Avrupa 116
Thổ 116
adamu 116
puesto 116
ɬ 116
ανδ@@ 116
ικής 116
καρ@@ 116
στι@@ 116
τις 116
Все@@ 116
Пар@@ 116
пло@@ 116
шко@@ 116
آباد 116
سید 116
عم@@ 116
لی 116
مال 116
ܒ@@ 116
और 116
भू@@ 116
პ@@ 116
ሰ@@ 116
᜔ 116
ℵ@@ 116
こ 116
優@@ 116
威 116
気@@ 116
油@@ 116
篇 116
納@@ 116
致@@ 116
賢 116
鄉 116
队 116
鶴@@ 116
러@@ 116
배@@ 116
Pháp 115
bảo 115
νη@@ 115
Э 115
дан 115
ры 115
спо@@ 115
тор@@ 115
اق@@ 115
خ 115
را 115
فر 115
भ 115
रू@@ 115
ी@@ 115
ਆ@@ 115
ඩ@@ 115
ྒ@@ 115
ါ@@ 115
ễ 115
ず@@ 115
义@@ 115
住@@ 115
密 115
彩@@ 115
房 115
浮@@ 115
涼@@ 115
琴 115
異@@ 115
破@@ 115
科 115
衣 115
독@@ 115
레@@ 115
르@@ 115
심@@ 115
월@@ 115
Anfang 114
Osmanlı 114
momento 114
κτ@@ 114
Мак@@ 114
би 114
вой@@ 114
град 114
дена 114
дор 114
зар@@ 114
кого 114
сен@@ 114
тина 114
ِّ@@ 114
క 114
ူ@@ 114
ማ@@ 114
ተ@@ 114
ស 114
ẖ@@ 114
ố@@ 114
則 114
岸@@ 114
巨@@ 114
必@@ 114
牛 114
터@@ 114
Gebiet 113
pequeñ@@ 113
Ņ@@ 113
γραφ@@ 113
бар@@ 113
вы 113
дин 113
йской 113
лена 113
ника 113
ца@@ 113
لي 113
گ 113
ۇ@@ 113
जी 113
टी 113
ී@@ 113
ወ@@ 113
ⵓ@@ 113
な 113
只@@ 113
始@@ 113
敏 113
杭@@ 113
池 113
略 113
雜@@ 113
마 113
운 113
Ocak 112
découver@@ 112
gouvern@@ 112
zurück 112
üncü 112
ɕ 112
ΐ@@ 112
για 112
ματα 112
Ри@@ 112
رب 112
وي 112
ळ 112
ਖ@@ 112
પ@@ 112
ォ@@ 112
乌@@ 112
則@@ 112
宇 112
庭@@ 112
怪@@ 112
案 112
監 112
級@@ 112
輔 112
黨 112
프@@ 112
효@@ 112
Ngày 111
aient 111
công 111
hecho 111
βι@@ 111
ѣ 111
نو@@ 111
ܢ@@ 111
तो 111
धा@@ 111
राम@@ 111
ਤ 111
ପ@@ 111
ద 111
ಾ 111
อา@@ 111
ใ@@ 111
ဝ@@ 111
ỹ 111
ὁ@@ 111
♪ 111
れ 111
坊 111
孤@@ 111
征@@ 111
戴@@ 111
板@@ 111
求@@ 111
湘@@ 111
秋 111
純@@ 111
處@@ 111
顏@@ 111
속@@ 111
göz@@ 110
ιρ@@ 110
τός 110
вет 110
из 110
ность 110
цион@@ 110
ёт@@ 110
Պ@@ 110
ַ 110
اح@@ 110
ند 110
चन 110
लो@@ 110
ബ@@ 110
มา@@ 110
ទ@@ 110
ゼ@@ 110
同 110
善 110
奖 110
实@@ 110
楼 110
突@@ 110
重 110
閣@@ 110
震 110
bahari 109
dı 109
französ@@ 109
trabajo 109
şek@@ 109
Μπ@@ 109
ουσ@@ 109
дж@@ 109
или 109
чер@@ 109
ابن 109
است@@ 109
دار 109
رض@@ 109
ها 109
दा 109
ସ@@ 109
ർ@@ 109
รส 109
ั@@ 109
ུ 109
ဖ@@ 109
ግ@@ 109
ấu 109
ấy 109
⁰ 109
₃ 109
♡ 109
功 109
因@@ 109
姑@@ 109
專@@ 109
敏@@ 109
時 109
樓 109
殺@@ 109
紹@@ 109
芸@@ 109
誠 109
論@@ 109
내 109
석@@ 109
왕 109
Weltkri@@ 108
umika 108
δί@@ 108
Вол@@ 108
Сан@@ 108
Щ@@ 108
дри@@ 108
ить 108
лина 108
ститу@@ 108
қ 108
فة 108
قي@@ 108
ني 108
ܕ@@ 108
ވ@@ 108
धि@@ 108
ਲ 108
ም@@ 108
ủ@@ 108
ぎ@@ 108
コ 108
ツ 108
備@@ 108
存@@ 108
栗@@ 108
祝@@ 108
血@@ 108
追@@ 108
錦@@ 108
궁 108
궁@@ 108
합@@ 108
aît 107
desarrollo 107
hivi 107
oldu 107
steht 107
Παλ@@ 107
αντ@@ 107
ραν@@ 107
φιλ@@ 107
Петер@@ 107
Ю 107
ун@@ 107
ще 107
੍ 107
ે@@ 107
ตร@@ 107
ယ 107
ል 107
ốt 107
よ 107
カ 107
タ 107
内 107
持@@ 107
藍@@ 107
解 107
詩 107
豐@@ 107
越 107
车 107
鴻@@ 107
연 107
추@@ 107
󠁢 107
chaque 106
của 106
spé@@ 106
trung 106
ɯ 106
ɹ@@ 106
δυ@@ 106
Кара@@ 106
зер@@ 106
рон@@ 106
Բ@@ 106
اط@@ 106
خال@@ 106
عمر 106
قة 106
نگ@@ 106
कार 106
सा 106
સ@@ 106
ా 106
ງ@@ 106
ເ@@ 106
ត 106
ṉ 106
ự@@ 106
Ἱ@@ 106
ⵜ@@ 106
型@@ 106
多 106
桑@@ 106
桓@@ 106
棋 106
機 106
歸@@ 106
澳@@ 106
肉@@ 106
葉 106
豫@@ 106
阪@@ 106
버@@ 106
설@@ 106
gobierno 105
standen 105
ơi 105
Боль@@ 105
Ц 105
ати@@ 105
бан@@ 105
гар@@ 105
шу@@ 105
الو@@ 105
سي 105
وت@@ 105
जन 105
रु 105
ત@@ 105
ഗ@@ 105
ນ 105
ལ@@ 105
乃@@ 105
區@@ 105
宿@@ 105
恋@@ 105
投@@ 105
曼@@ 105
泥@@ 105
济@@ 105
漫@@ 105
直 105
笑@@ 105
約 105
色 105
蛇@@ 105
静@@ 105
방 105
별@@ 105
으@@ 105
người 104
vương 104
νομ@@ 104
Вер@@ 104
Сою@@ 104
бе 104
бо 104
вед@@ 104
дер@@ 104
нин@@ 104
сп@@ 104
тро@@ 104
є 104
تي@@ 104
پی@@ 104
ም 104
ⵏ@@ 104
卓@@ 104
嘉 104
孝 104
津 104
狐@@ 104
総@@ 104
翼@@ 104
菊@@ 104
賀 104
邦@@ 104
银@@ 104
门 104
철@@ 104
Kasım 103
cinco 103
jähr@@ 103
selbst 103
worden 103
ρού@@ 103
σπ@@ 103
Димит@@ 103
бер@@ 103
кан@@ 103
ром 103
стер@@ 103
сты@@ 103
ть@@ 103
سم@@ 103
على 103
میں 103
ٱ@@ 103
ກ@@ 103
ራ@@ 103
ợp 103
ⵍ@@ 103
ⵏ 103
へ@@ 103
刺@@ 103
副@@ 103
宝 103
実@@ 103
強@@ 103
彥@@ 103
灵@@ 103
碧@@ 103
組@@ 103
蔣@@ 103
魚 103
목@@ 103
애@@ 103
희@@ 103
sensa 102
wakazi 102
ȝ@@ 102
μυ@@ 102
πν@@ 102
πολ@@ 102
гла@@ 102
мор@@ 102
пра@@ 102
съ@@ 102
чев 102
وی@@ 102
एक 102
ये@@ 102
शु@@ 102
శ 102
స 102
ವ 102
นิ@@ 102
รี@@ 102
เท@@ 102
ထ@@ 102
ነ@@ 102
ន 102
⊙ 102
ウ 102
ジ 102
丸@@ 102
儿@@ 102
六 102
前 102
塔 102
旅@@ 102
柔@@ 102
甲 102
苑 102
贵@@ 102
進 102
過@@ 102
네 102
달@@ 102
미 102
석 102
실@@ 102
철 102
흥@@ 102
américain 101
arası 101
cuenta 101
encontr@@ 101
ihren 101
población 101
siku 101
yêu 101
κας 101
ποι@@ 101
ροι 101
дро@@ 101
имени 101
ут@@ 101
ят 101
ؤ@@ 101
سلطان 101
عب@@ 101
ہے 101
देव 101
वी@@ 101
सम 101
ও@@ 101
ਨ 101
หน@@ 101
หม@@ 101
ከ@@ 101
チ 101
五 101
什@@ 101
劍@@ 101
吾@@ 101
団 101
失@@ 101
嶺 101
後 101
昆@@ 101
机 101
犬@@ 101
聞 101
芝@@ 101
这@@ 101
閣 101
韩@@ 101
魂@@ 101
너@@ 101
풍@@ 101
frü@@ 100
ʕ 100
γέν@@ 100
δα 100
θρ@@ 100
μπο@@ 100
όβ@@ 100
миче@@ 100
сси@@ 100
أن@@ 100
ژ@@ 100
जय 100
भि@@ 100
सो@@ 100
ড@@ 100
ধ 100
ି 100
ో@@ 100
รร@@ 100
ศ 100
ဘ@@ 100
ჯ@@ 100
ላ@@ 100
ត@@ 100
េ@@ 100
⅝ 100
マ 100
作 100
兒@@ 100
判@@ 100
岐@@ 100
廖@@ 100
意 100
旗@@ 100
服 100
杉@@ 100
永 100
系@@ 100
遺@@ 100
郁@@ 100
降@@ 100
領@@ 100
건@@ 100
차@@ 100
트@@ 100
donc 99
sistem@@ 99
Ś 99
Κά@@ 99
ήν@@ 99
σμ@@ 99
Кри@@ 99
зу@@ 99
мер@@ 99
мия 99
нии 99
тив@@ 99
ң 99
פ 99
ײ@@ 99
دان 99
كي@@ 99
कृष 99
मान 99
से@@ 99
ऽ@@ 99
ान 99
ौ@@ 99
ദ 99
กร@@ 99
ổng 99
ớ 99
ぶ@@ 99
ザ 99
倭@@ 99
兆 99
受@@ 99
味@@ 99
咸@@ 99
柴@@ 99
權@@ 99
汪@@ 99
沖@@ 99
湯@@ 99
牙@@ 99
用 99
祭 99
端@@ 99
苗@@ 99
蜀@@ 99
辰@@ 99
送@@ 99
須@@ 99
처@@ 99
훈 99
Bản 98
projet 98
wieder@@ 98
Ê 98
Ą@@ 98
ιώ@@ 98
σχ@@ 98
Бело@@ 98
рин@@ 98
тя@@ 98
ارة 98
جامعة 98
ો@@ 98
ಡ 98
ഴ@@ 98
ይ@@ 98
ỳ 98
① 98
头 98
彰@@ 98
役 98
監@@ 98
知 98
祭@@ 98
範 98
茅@@ 98
訓 98
雅 98
Januar 97
cổ 97
ihrem 97
liegt 97
schied@@ 97
tragen 97
troisième 97
veces 97
 97
Κωνσταντ@@ 97
Φιλ@@ 97
εφαλ@@ 97
κι@@ 97
πί@@ 97
παν@@ 97
бро@@ 97
вые 97
дей@@ 97
дь 97
ита@@ 97
ком@@ 97
мати@@ 97
поли@@ 97
санд@@ 97
با 97
وري 97
ۆ@@ 97
देव@@ 97
मै@@ 97
सू@@ 97
པ@@ 97
ဒ@@ 97
ု 97
ḑ@@ 97
ẏ@@ 97
░ 97
僧@@ 97
八 97
凤@@ 97
哥 97
圣@@ 97
娑@@ 97
崎 97
廷@@ 97
映@@ 97
汽@@ 97
組 97
连@@ 97
順 97
類@@ 97
람@@ 97
허@@ 97
hacia 96
mög@@ 96
spä@@ 96
ăm 96
Ć 96
Đảng 96
ılan 96
ȧ@@ 96
ɫ@@ 96
μη@@ 96
παι@@ 96
πατ@@ 96
που 96
Чи@@ 96
ден 96
зем@@ 96
им 96
клуб 96
мен 96
ственный 96
стиче@@ 96
стов 96
тия 96
تی 96
ܬ@@ 96
जन@@ 96
ూ@@ 96
ಟ 96
ആ@@ 96
ഭ@@ 96
乐 96
亦@@ 96
依@@ 96
兩@@ 96
妖@@ 96
姫 96
布 96
救@@ 96
期@@ 96
梦@@ 96
潤@@ 96
烈 96
独@@ 96
系 96
練@@ 96
辛@@ 96
零@@ 96
말@@ 96
치 96
Tổng 95
género 95
έας 95
σφ@@ 95
ани 95
вица 95
государствен@@ 95
град@@ 95
ера 95
шен@@ 95
џ@@ 95
ґ 95
ׂ@@ 95
ء 95
اص@@ 95
تح@@ 95
جن@@ 95
قر@@ 95
هد 95
يخ 95
रह@@ 95
वत 95
ધ@@ 95
శ@@ 95
ตำ@@ 95
ባ@@ 95
ክ@@ 95
ắm 95
ῳ 95
ῷ 95
ⴰ 95
云 95
产@@ 95
兆@@ 95
农@@ 95
奖@@ 95
建 95
悲@@ 95
报@@ 95
料@@ 95
望 95
獻@@ 95
講@@ 95
许@@ 95
进@@ 95
yanay@@ 94
ȳ@@ 94
εφ@@ 94
λις 94
νο@@ 94
Ч 94
мир@@ 94
Ө@@ 94
լ 94
ادي 94
णा@@ 94
पि@@ 94
मी@@ 94
ೊ@@ 94
വ 94
ණ@@ 94
วา@@ 94
ཀ@@ 94
ល@@ 94
だ 94
两@@ 94
们@@ 94
在 94
坊@@ 94
思 94
播@@ 94
結@@ 94
翼 94
要 94
計@@ 94
說 94
谢@@ 94
迦@@ 94
역@@ 94
． 94
nhạc 93
Ιωάν@@ 93
άπ@@ 93
ιχ@@ 93
λύ@@ 93
ρία 93
τική 93
ген@@ 93
ита 93
кре@@ 93
нина 93
ну 93
цев 93
чо@@ 93
ջ@@ 93
փ@@ 93
ایران 93
ران 93
ربي 93
ڪ@@ 93
फ 93
वै@@ 93
ạ@@ 93
ỏi 93
ぼ@@ 93
ま 93
制 93
囉 93
嶺@@ 93
智 93
樊@@ 93
潭@@ 93
然 93
胜@@ 93
鎮 93
adlı 92
annten 92
chuy@@ 92
hayo 92
película 92
según 92
çık@@ 92
üğü 92
ımı 92
ούλ@@ 92
συν@@ 92
Ж 92
Кор@@ 92
Мини@@ 92
الي 92
خان@@ 92
دان@@ 92
زی 92
یا 92
नाथ 92
ਅ@@ 92
ਘ 92
ତ@@ 92
ହ@@ 92
ഹ@@ 92
ชา@@ 92
ถ@@ 92
อน@@ 92
อุ@@ 92
ჩ@@ 92
⁣ 92
⅞ 92
ぐ@@ 92
め 92
オ 92
仔 92
伽@@ 92
冬@@ 92
图@@ 92
如 92
簡@@ 92
繼@@ 92
聖 92
許 92
話@@ 92
陰 92
館@@ 92
니 92
림 92
형@@ 92
hace 91
karne 91
kubwa 91
nói 91
tài 91
équipe 91
λη 91
μο@@ 91
ρά 91
σο@@ 91
χή 91
όφ@@ 91
Зе@@ 91
Ху@@ 91
бъ@@ 91
итель@@ 91
лет 91
сер@@ 91
دار@@ 91
عي@@ 91
یر 91
ު 91
खा@@ 91
जल@@ 91
जी@@ 91
तर@@ 91
ये 91
ਭ@@ 91
િ@@ 91
ድ@@ 91
ᓂ@@ 91
ᖅ 91
ẫn 91
ề@@ 91
ứ@@ 91
ⴻ@@ 91
們@@ 91
回 91
斯 91
期 91
梁 91
浩 91
給@@ 91
耶 91
聲 91
虞@@ 91
观@@ 91
计@@ 91
賈@@ 91
附@@ 91
陆@@ 91
鲁@@ 91
ﺎ@@ 91
annte 90
ecek@@ 90
seinem 90
ungum@@ 90
ziwa 90
ŗ@@ 90
ɐ 90
βαν@@ 90
ταν@@ 90
Фи@@ 90
вод@@ 90
дь@@ 90
ши 90
ър 90
ёр@@ 90
־ 90
מ 90
له 90
پاکستان 90
पाल 90
बे@@ 90
बो@@ 90
हो@@ 90
ित 90
ঘ@@ 90
ੂ@@ 90
ଦ@@ 90
య 90
ཁ@@ 90
བ 90
ᛆ@@ 90
ᠠ@@ 90
Ἁ@@ 90
で 90
佛 90
創@@ 90
勿@@ 90
十 90
奈 90
徒 90
應 90
果 90
球 90
看@@ 90
茂 90
藏 90
만 90
여 90
오 90
𐌠 90
Giáo 89
Kuzey 89
durante 89
existe 89
grupo 89
pitia 89
đại 89
Εκ@@ 89
ίκη 89
εβ@@ 89
τους 89
Бра@@ 89
Глав@@ 89
Мон@@ 89
Ше@@ 89
Шу@@ 89
воен@@ 89
ниче@@ 89
чный 89
צ 89
آل 89
وق@@ 89
ۃ 89
नि 89
यु@@ 89
ગ@@ 89
ಮ 89
ไทย 89
ཆ@@ 89
ំ@@ 89
Ὑ@@ 89
≪ 89
≫ 89
△ 89
を 89
剣@@ 89
务@@ 89
卡@@ 89
參@@ 89
屆@@ 89
彦@@ 89
性 89
梨@@ 89
沙 89
督 89
礼@@ 89
禪@@ 89
荒@@ 89
離@@ 89
首 89
그 89
술@@ 89
재 89
준 89
체@@ 89
코@@ 89
ﻭ@@ 89
Mungu 88
effet 88
tritt 88
ètres 88
̕ 88
έ 88
θη 88
περι@@ 88
ад@@ 88
вин@@ 88
воз@@ 88
ем 88
соб@@ 88
тру@@ 88
ту 88
хов@@ 88
ֻ@@ 88
باب 88
فی@@ 88
محمود 88
هي@@ 88
وری 88
گر@@ 88
दी 88
सी@@ 88
ශ 88
คล@@ 88
ัย 88
ีย@@ 88
び@@ 88
や 88
ヶ@@ 88
俱@@ 88
健 88
奴 88
庫@@ 88
杯 88
氣@@ 88
行政@@ 88
遼@@ 88
餘@@ 88
길 88
려@@ 88
열@@ 88
｢ 88
｣ 88
𝔓 88
󠁥 88
afya 87
aları 87
dù 87
marzo 87
yıl@@ 87
ını 87
Ť@@ 87
ɸ 87
ʁ 87
Αλ@@ 87
έχ@@ 87
ήρ@@ 87
ίζ@@ 87
είας 87
κλη@@ 87
ρον@@ 87
дан@@ 87
дом 87
жи 87
нал 87
ном 87
сто 87
шки 87
اسم 87
الدین 87
ص 87
ليل 87
وا 87
ܠ@@ 87
चा 87
हे@@ 87
భ@@ 87
ೃ@@ 87
ഇ@@ 87
ൊ@@ 87
๊ 87
ỗi 87
Ἡ@@ 87
◎ 87
✸ 87
世界 87
全 87
剛 87
四 87
婆 87
宁 87
尊 87
岭@@ 87
毅 87
浦 87
消@@ 87
燕 87
纪@@ 87
鱼@@ 87
鸞@@ 87
민 87
외@@ 87
준@@ 87
초@@ 87
artí@@ 86
gön@@ 86
keş@@ 86
̶ 86
͘ 86
ατρ@@ 86
ελλ@@ 86
κου@@ 86
Хри@@ 86
ез@@ 86
тор 86
ый 86
ө 86
المر@@ 86
मान@@ 86
৳ 86
ਚ@@ 86
જ@@ 86
େ@@ 86
ప 86
ശ 86
ප 86
บาง@@ 86
ᐅ@@ 86
ẕ 86
⊢ 86
も 86
义 86
修 86
兼@@ 86
吾 86
声@@ 86
射@@ 86
尚 86
引@@ 86
战 86
晴@@ 86
樹@@ 86
沢 86
父@@ 86
狼@@ 86
畫@@ 86
絵 86
莊 86
钱@@ 86
령 86
법 86
değ@@ 85
hunder@@ 85
programa 85
tranh 85
ülk@@ 85
ğin 85
Επ@@ 85
ήμ@@ 85
αχ@@ 85
βασ@@ 85
δευ@@ 85
μέν@@ 85
μαχ@@ 85
За 85
дви@@ 85
жение 85
мет@@ 85
أم@@ 85
العربية 85
نه 85
ٍ 85
छ 85
तः 85
रण 85
ஞ 85
ဇ@@ 85
ყ@@ 85
វ@@ 85
․ 85
₡ 85
② 85
ほ@@ 85
丽@@ 85
像@@ 85
円@@ 85
問@@ 85
对@@ 85
岡 85
帶 85
延 85
影 85
探@@ 85
暴@@ 85
権@@ 85
殷@@ 85
無 85
菜@@ 85
製@@ 85
诗@@ 85
連 85
邢@@ 85
邵@@ 85
飯@@ 85
빈 85
을@@ 85
phố 84
ˀ@@ 84
˥ 84
Συ@@ 84
θα 84
λυ@@ 84
πέ@@ 84
ϵ 84
институ@@ 84
туры 84
لم 84
مد 84
مدر@@ 84
उप@@ 84
మ 84
ླ@@ 84
ប 84
ἁ@@ 84
ὲ@@ 84
⊃ 84
ば 84
九 84
仏@@ 84
倫 84
偉@@ 84
傑 84
客 84
容 84
庵 84
憲 84
懿@@ 84
末@@ 84
梅 84
浜@@ 84
瑞 84
環@@ 84
皮@@ 84
眞@@ 84
種@@ 84
算@@ 84
細@@ 84
维@@ 84
覺@@ 84
超 84
逸@@ 84
那 84
鏡@@ 84
간 84
환 84
Genel 83
plusieurs 83
weza 83
wäh@@ 83
zaman@@ 83
ıyor 83
αύ@@ 83
κατα@@ 83
νά@@ 83
ωρ@@ 83
Свети 83
бли@@ 83
бы 83
пера@@ 83
тин@@ 83
тов@@ 83
ך@@ 83
عد@@ 83
قو@@ 83
ورة 83
ෝ@@ 83
กา@@ 83
อย 83
စ 83
ဲ 83
げ@@ 83
兰 83
冀@@ 83
勢@@ 83
唐 83
幻@@ 83
座@@ 83
徽@@ 83
歷@@ 83
熙 83
玄 83
翁@@ 83
舒@@ 83
荣@@ 83
薩 83
藥@@ 83
議 83
迷@@ 83
공 83
용 83
춘@@ 83
asyonu 82
tiền 82
tình 82
ığı 82
ŝ 82
Μακεδ@@ 82
άζ@@ 82
ημα 82
вых 82
др 82
ене@@ 82
стре@@ 82
ң@@ 82
وان 82
وج@@ 82
ގ@@ 82
खो@@ 82
घ 82
तु 82
था@@ 82
लक 82
ᐦ@@ 82
ṳ 82
ạp 82
ầy 82
ỵ 82
シ 82
ュ 82
党 82
分 82
坂 82
塘 82
宣 82
支 82
昇@@ 82
琳 82
甫 82
発@@ 82
禅@@ 82
竹 82
羽 82
號@@ 82
裕 82
輝@@ 82
選 82
ꦶ@@ 82
악@@ 82
März 81
Naili 81
beiden 81
kỳ 81
Ανα@@ 81
ειδ@@ 81
ιγ@@ 81
νέ@@ 81
ρίου 81
τελ@@ 81
τρα@@ 81
όρος 81
Аль@@ 81
город@@ 81
лия 81
ѧ 81
ӑ@@ 81
ӕ 81
օ@@ 81
الح 81
حة 81
وت 81
चार 81
णा 81
तन 81
वार 81
ં@@ 81
ஹ@@ 81
అ@@ 81
ొ@@ 81
อก@@ 81
ኣ@@ 81
ព@@ 81
₵ 81
ⵙ@@ 81
べ@@ 81
む@@ 81
倫@@ 81
克 81
凌@@ 81
工 81
忘@@ 81
急@@ 81
技 81
旧@@ 81
朋@@ 81
片 81
班@@ 81
産@@ 81
観@@ 81
詞 81
譚@@ 81
资@@ 81
釋@@ 81
銅@@ 81
阿 81
陝@@ 81
骨@@ 81
립@@ 81
매@@ 81
Makala 80
humo 80
sát 80
Κατ@@ 80
Λι@@ 80
έφ@@ 80
θρω@@ 80
τρα 80
φαν@@ 80
φθ@@ 80
авто@@ 80
ари 80
бал@@ 80
зе 80
со 80
университет 80
чь 80
ща@@ 80
تب@@ 80
سن 80
سی 80
طف@@ 80
کے 80
ञा@@ 80
तो@@ 80
नन 80
मंदिर 80
हर 80
ନ@@ 80
ಆ@@ 80
ಧ@@ 80
എ@@ 80
ซ@@ 80
ပ 80
ღ@@ 80
់ 80
ắt 80
ἦ@@ 80
┬ 80
つ 80
仔@@ 80
來 80
升@@ 80
固@@ 80
土 80
居 80
庭 80
爆@@ 80
琴@@ 80
病@@ 80
県 80
難@@ 80
鹃 80
개 80
양 80
유 80
음 80
축@@ 80
descu@@ 79
hội 79
proy@@ 79
ʂ@@ 79
Μα@@ 79
εδ@@ 79
μακ@@ 79
ς@@ 79
στά@@ 79
φυ@@ 79
Бар@@ 79
Й@@ 79
Тре@@ 79
года 79
жа 79
кой 79
лан@@ 79
мокра@@ 79
мя 79
той 79
اور 79
حسین 79
خو@@ 79
ފ@@ 79
ंच@@ 79
कल 79
गर 79
टा@@ 79
नी@@ 79
युत 79
षा@@ 79
सिंह 79
ණ 79
บุ@@ 79
อม@@ 79
ງ 79
ယ@@ 79
ḱ 79
᾽ 79
‧ 79
⇔ 79
ろ 79
临@@ 79
位 79
关 79
勁@@ 79
圓@@ 79
宫 79
寒@@ 79
寨@@ 79
屠@@ 79
干 79
想 79
控@@ 79
橫@@ 79
満@@ 79
濟 79
端 79
能 79
雪 79
願@@ 79
顯@@ 79
香港 79
게@@ 79
길@@ 79
눈@@ 79
분@@ 79
총@@ 79
향@@ 79
환@@ 79
︎ 79
︠ 79
🇲 79
britanni@@ 78
itig 78
süd@@ 78
 78
ãng 78
Ţ 78
ɖ@@ 78
Πλ@@ 78
βαρ@@ 78
θυ@@ 78
ματος 78
ολογ@@ 78
οτ@@ 78
Фа@@ 78
акаде@@ 78
арти@@ 78
вра@@ 78
кло@@ 78
соци@@ 78
بار@@ 78
उत 78
मार 78
ஒ@@ 78
ตา@@ 78
ម 78
យ@@ 78
ἱ 78
丁 78
亮@@ 78
别@@ 78
助@@ 78
参@@ 78
展 78
己@@ 78
抱@@ 78
数@@ 78
旗 78
满@@ 78
編 78
蓝@@ 78
觀 78
魂 78
麗 78
극@@ 78
숙@@ 78
위 78
충@@ 78
협@@ 78
︡ 78
𐤌@@ 78
anisha 77
económ@@ 77
gestellt 77
iliş@@ 77
không 77
lamu 77
ließ@@ 77
obten@@ 77
sonr@@ 77
ümü 77
Ī 77
Ļ@@ 77
Ɂ@@ 77
Αρχ@@ 77
έσ@@ 77
απο@@ 77
δία 77
λεγ@@ 77
λη@@ 77
πολλ@@ 77
ρη@@ 77
χαρ@@ 77
Бал@@ 77
вез@@ 77
ей 77
заво@@ 77
кни@@ 77
кол@@ 77
лат@@ 77
лет@@ 77
окру@@ 77
район 77
рев@@ 77
рии 77
хе@@ 77
щен@@ 77
ҳ@@ 77
ճ@@ 77
اك@@ 77
المع@@ 77
هم 77
ٌ 77
गि@@ 77
योजना 77
हो 77
వ 77
อง 77
ី@@ 77
ⁿ@@ 77
∫ 77
☗ 77
ⴱ@@ 77
ⴷ@@ 77
ノ 77
中国 77
告@@ 77
声 77
岛 77
底@@ 77
得 77
敬 77
朔@@ 77
瀬@@ 77
熙@@ 77
牌 77
狂@@ 77
猿 77
禁@@ 77
経@@ 77
絵@@ 77
萧@@ 77
誌 77
輪 77
隴@@ 77
변@@ 77
형 77
󠁧 77
baad@@ 76
khoa 76
trí 76
ượ@@ 76
ǰ@@ 76
Πρ@@ 76
βολ@@ 76
ισμός 76
τύ@@ 76
Ь 76
Ӏ@@ 76
Յ@@ 76
Ո@@ 76
ְ 76
بی 76
تي 76
شي@@ 76
مان@@ 76
وار 76
ची 76
रत 76
वे 76
हु@@ 76
ঠ@@ 76
ય@@ 76
ଗ@@ 76
ీ 76
່ 76
ያ 76
Ẕ@@ 76
ὔ@@ 76
℅ 76
◄ 76
◌ 76
彌@@ 76
息@@ 76
惠 76
晓@@ 76
有 76
欽@@ 76
点@@ 76
程 76
稲@@ 76
貝@@ 76
逆@@ 76
霍@@ 76
鳳 76
년@@ 76
발@@ 76
lenen 75
mäß@@ 75
thành 75
ísticas 75
üğ@@ 75
ươ@@ 75
Εθν@@ 75
βά@@ 75
ιο 75
νω@@ 75
προς 75
кро@@ 75
национа@@ 75
ске 75
сту@@ 75
цар@@ 75
زر@@ 75
لية 75
پر@@ 75
کا 75
गी@@ 75
पूर 75
मस 75
ली@@ 75
ให@@ 75
ⲁ@@ 75
仲 75
创@@ 75
剧@@ 75
劍 75
单@@ 75
县@@ 75
域@@ 75
宿 75
強 75
律 75
忍@@ 75
恭 75
斎@@ 75
歩@@ 75
熱@@ 75
略@@ 75
研究 75
肥@@ 75
蔵@@ 75
財@@ 75
迎@@ 75
鐘@@ 75
ꦸ@@ 75
감@@ 75
루@@ 75
Diese 74
Giải 74
aştır@@ 74
sĩ 74
Ư@@ 74
̞ 74
Βι@@ 74
Κο@@ 74
ακή 74
βασιλ@@ 74
ειν@@ 74
εξ@@ 74
ρκ@@ 74
σύ@@ 74
τον@@ 74
χν@@ 74
όχ@@ 74
Є@@ 74
Ново@@ 74
Ы@@ 74
жав@@ 74
зи 74
све@@ 74
ший 74
ӏ 74
Խ@@ 74
Շ@@ 74
اک@@ 74
بد@@ 74
تق@@ 74
دا 74
ە 74
निर 74
ษ 74
เด 74
ង@@ 74
フ 74
七 74
休@@ 74
儀@@ 74
先 74
师 74
希 74
帥 74
常 74
幸 74
派@@ 74
猫@@ 74
猿@@ 74
琉@@ 74
船 74
著@@ 74
運 74
锦@@ 74
风 74
麟 74
님 74
돌@@ 74
본@@ 74
안 74
테@@ 74
Chiến 73
misma 73
sido 73
través 73
về 73
álbum 73
ɤ 73
ɫ 73
ʑ 73
Στρ@@ 73
άβ@@ 73
άρχ@@ 73
ίνα 73
κι 73
κυρι@@ 73
Ман@@ 73
Под@@ 73
Север@@ 73
Ъ 73
вари@@ 73
вре@@ 73
ер 73
зан@@ 73
ити@@ 73
лич@@ 73
лна 73
над 73
стан@@ 73
хан 73
цен@@ 73
المن@@ 73
طر@@ 73
عي 73
وی 73
ި 73
ढ 73
લ@@ 73
กระ@@ 73
⋯ 73
⠳ 73
ⵜ 73
偉 73
兄@@ 73
升 73
啓@@ 73
固 73
墨@@ 73
宙@@ 73
寛@@ 73
庫 73
惟@@ 73
旋@@ 73
欧@@ 73
步 73
死 73
牧@@ 73
班 73
祿@@ 73
表 73
象 73
輔@@ 73
边@@ 73
远@@ 73
隨@@ 73
頼@@ 73
骨 73
남 73
루 73
번@@ 73
저@@ 73
🇦 73
Mashariki 72
environ 72
futbol@@ 72
können 72
kı@@ 72
ların 72
wever 72
Ł 72
ŕ 72
ɦ@@ 72
Τσ@@ 72
ωνία 72
Бур@@ 72
Вар@@ 72
Ы 72
оло@@ 72
тура 72
کی@@ 72
जु@@ 72
मह@@ 72
यन 72
राय@@ 72
राष 72
िक 72
గ 72
ಷ@@ 72
ൾ 72
ဂ@@ 72
ረ@@ 72
ᑦ 72
រ 72
ḇ 72
≃ 72
サ 72
体 72
例 72
倭 72
党@@ 72
刊 72
塞@@ 72
妹 72
廟 72
戀@@ 72
斌 72
杰 72
獎@@ 72
短@@ 72
秉@@ 72
統 72
翔@@ 72
节 72
荷@@ 72
设@@ 72
邊@@ 72
鸡@@ 72
ꦴ@@ 72
람 72
봉 72
종 72
𐬀@@ 72
󠁮 72
anlığı 71
están 71
fünf 71
größ@@ 71
Καλλ@@ 71
Στα@@ 71
Τζ@@ 71
αγγ@@ 71
μερ@@ 71
Авто@@ 71
Ги@@ 71
Ке@@ 71
вор@@ 71
жо@@ 71
лен 71
льное 71
пр@@ 71
сс 71
باب@@ 71
مه 71
مية 71
وار@@ 71
ٹ 71
یم 71
ێ@@ 71
रो 71
विश 71
शे@@ 71
চ 71
ฉ@@ 71
ᑲ@@ 71
គ@@ 71
ជ@@ 71
ệnh 71
ἵ@@ 71
☖ 71
お 71
冯@@ 71
嚩 71
型 71
対@@ 71
戲 71
曹 71
條@@ 71
毘@@ 71
淳@@ 71
滨@@ 71
玲 71
界 71
範@@ 71
續@@ 71
网@@ 71
聚@@ 71
艾@@ 71
變@@ 71
豪@@ 71
邱@@ 71
镇@@ 71
각@@ 71
귀@@ 71
꽃@@ 71
두 71
순 71
없@@ 71
nehmen 70
Ένω@@ 70
Μά@@ 70
Μουσ@@ 70
εται 70
μή 70
μετα@@ 70
μόν@@ 70
νι@@ 70
Бер@@ 70
Й 70
Раз@@ 70
Центра@@ 70
дне@@ 70
логия 70
лод@@ 70
цер@@ 70
العل@@ 70
بال@@ 70
عب 70
وف@@ 70
ܫ@@ 70
ާ 70
डा@@ 70
पद 70
वस 70
षा 70
ಎ@@ 70
เช@@ 70
ᒃ 70
ῇ 70
▲ 70
ゃ 70
冠 70
卷 70
坐@@ 70
尉@@ 70
巡@@ 70
并@@ 70
弟 70
悉@@ 70
撫@@ 70
极@@ 70
枝 70
汴@@ 70
爾 70
由 70
礼 70
約@@ 70
考 70
謙 70
邪@@ 70
銀 70
閻@@ 70
马 70
鹰@@ 70
點@@ 70
鼓 70
네@@ 70
더@@ 70
적 70
후@@ 70
𐤏@@ 70
Amerikan 69
alcanz@@ 69
alın@@ 69
n&apos; 69
tatu 69
úp 69
ĥ@@ 69
̦ 69
Βασιλ@@ 69
έρα 69
βο@@ 69
ηδ@@ 69
μαρ@@ 69
ρή@@ 69
τή@@ 69
τού@@ 69
Ак@@ 69
каде@@ 69
лей@@ 69
пла@@ 69
пы@@ 69
ър@@ 69
Լ@@ 69
׳ 69
سان 69
يم@@ 69
يو@@ 69
ܪ 69
धा 69
भु@@ 69
ੁ 69
ഞ 69
ൃ@@ 69
ශ@@ 69
ะ 69
ມ@@ 69
ཚ@@ 69
ዮ@@ 69
ፍ@@ 69
ἕ@@ 69
勒@@ 69
即@@ 69
哀@@ 69
哲 69
図@@ 69
垣 69
塚@@ 69
将 69
廬@@ 69
栄@@ 69
澄 69
票 69
鄴@@ 69
鑑 69
间@@ 69
顧@@ 69
鼓@@ 69
녀 69
메@@ 69
󠁣 69
Beispi@@ 68
dieses 68
ehemal@@ 68
hatte 68
mış 68
número 68
yaş@@ 68
Ă@@ 68
Ǵ@@ 68
ʈ@@ 68
˩ 68
Κου@@ 68
έλλ@@ 68
ανα@@ 68
βλ@@ 68
εμ@@ 68
ουν 68
πτ@@ 68
τολ@@ 68
Гер@@ 68
Дж@@ 68
Кур@@ 68
Национа@@ 68
ват@@ 68
кор@@ 68
ления 68
лу 68
ру 68
ръ@@ 68
спор@@ 68
язы@@ 68
ӗ@@ 68
ե 68
כ 68
ابو 68
دن 68
سب@@ 68
فار@@ 68
قل@@ 68
كي 68
یل 68
ބ@@ 68
अर 68
उपा@@ 68
तत 68
तव 68
था 68
पी@@ 68
रण@@ 68
દ@@ 68
เร@@ 68
ພ@@ 68
ዓ@@ 68
អ@@ 68
ữa 68
侍 68
冰@@ 68
哥@@ 68
媒@@ 68
寳 68
局@@ 68
岭 68
徒@@ 68
恵@@ 68
朗@@ 68
滑@@ 68
耳@@ 68
諏@@ 68
说@@ 68
赫@@ 68
감 68
죽@@ 68
celui 67
durum@@ 67
gewäh@@ 67
tướng 67
ʂ 67
Γεν@@ 67
ούν@@ 67
ρο 67
χει@@ 67
ави@@ 67
анд@@ 67
зов 67
лка 67
над@@ 67
нски 67
род 67
росси@@ 67
Դ@@ 67
Թ@@ 67
ժ@@ 67
جي@@ 67
فو@@ 67
قط@@ 67
ملا@@ 67
ञ@@ 67
बर 67
शी 67
ॐ 67
থ 67
ୋ@@ 67
ብ 67
ያ@@ 67
ዳ@@ 67
ậy 67
῾ 67
ず 67
勇 67
吳 67
嗣@@ 67
姜 67
己 67
暗@@ 67
桜@@ 67
紙 67
胤 67
韻@@ 67
食 67
鳥 67
강 67
누@@ 67
령@@ 67
복 67
살@@ 67
손@@ 67
타 67
Những 66
biên 66
giao 66
manera 66
nın 66
singi 66
yön@@ 66
Ë 66
ĝ 66
Σχολ@@ 66
βί@@ 66
δρο@@ 66
ηθ@@ 66
ιερ@@ 66
στα 66
ότ@@ 66
боль@@ 66
вания 66
вета 66
кри@@ 66
ради@@ 66
ход@@ 66
шая 66
ях 66
դ 66
ׁ 66
اج 66
ادر 66
الث@@ 66
بح@@ 66
رين 66
سر 66
سلط@@ 66
علا@@ 66
مر 66
يو 66
ّة 66
ܵ@@ 66
चौ@@ 66
डी 66
पत 66
वी 66
िया 66
হ 66
ৌ@@ 66
ధ@@ 66
ಷ 66
ฤ@@ 66
ດ 66
③ 66
◆ 66
ⵣ@@ 66
ざ@@ 66
へ 66
便@@ 66
动 66
勤@@ 66
員 66
场@@ 66
培@@ 66
姓@@ 66
姫@@ 66
弓@@ 66
折@@ 66
棋@@ 66
棒@@ 66
止@@ 66
段 66
气@@ 66
沒@@ 66
淡@@ 66
淵 66
炎 66
熊 66
砂@@ 66
移@@ 66
符@@ 66
策@@ 66
索@@ 66
織@@ 66
营@@ 66
視 66
還@@ 66
養@@ 66
駄@@ 66
齐@@ 66
건 66
근@@ 66
낙@@ 66
늘@@ 66
암@@ 66
󠁭 66
alors 65
cái 65
hoàng 65
importante 65
julio 65
larda 65
nhà 65
năm 65
stütz@@ 65
äche 65
çev@@ 65
ĺ 65
ͤ 65
Ρω@@ 65
μένη 65
στη 65
υχ@@ 65
Мария 65
Рос@@ 65
Хар@@ 65
бург@@ 65
вина 65
гово@@ 65
дате@@ 65
зя@@ 65
нер@@ 65
ора 65
рова@@ 65
сия 65
сою@@ 65
тер 65
ָ 65
السي@@ 65
ترا@@ 65
تی@@ 65
حر@@ 65
رات 65
سا@@ 65
كر@@ 65
مسجد 65
۔ 65
दुर 65
ੜ@@ 65
ી@@ 65
ణ@@ 65
ಥ@@ 65
උ@@ 65
ดา@@ 65
ทร 65
สิ@@ 65
པ 65
ና 65
ᓇ@@ 65
ἅ@@ 65
┌ 65
┐ 65
○ 65
ⲓ@@ 65
ゾ@@ 65
乞@@ 65
允@@ 65
刊@@ 65
勤 65
匡@@ 65
印 65
奴@@ 65
岛@@ 65
幼@@ 65
弥@@ 65
彼@@ 65
念 65
晋@@ 65
更@@ 65
枝@@ 65
柯@@ 65
權 65
歲 65
渠@@ 65
湾 65
競@@ 65
般@@ 65
薄@@ 65
装@@ 65
説 65
遇@@ 65
邓@@ 65
邦 65
霊@@ 65
顯 65
顺@@ 65
겨@@ 65
권 65
농@@ 65
는@@ 65
데@@ 65
친@@ 65
혼@@ 65
훈@@ 65
󠁬 65
Biografía 64
dessen 64
diesem 64
mới 64
tienen 64
tinh 64
tiến 64
tử 64
Ð 64
ưới 64
Ǧ@@ 64
̅ 64
Ελ@@ 64
κιν@@ 64
ταρ@@ 64
τρί@@ 64
Ад@@ 64
гре@@ 64
доб@@ 64
ната 64
хи 64
цент@@ 64
эк@@ 64
انية 64
جه@@ 64
سك@@ 64
مال@@ 64
ندر 64
ٹ@@ 64
چ 64
ީ@@ 64
ए 64
गा 64
चित 64
जा 64
बा 64
मार@@ 64
सम@@ 64
ঞ 64
ੈ 64
ତ 64
ట 64
ධ@@ 64
ทร@@ 64
ียง@@ 64
เด@@ 64
ይ 64
Ἴ@@ 64
〈 64
〉 64
▶ 64
伍@@ 64
像 64
冒@@ 64
初 64
吕@@ 64
摩 64
泗@@ 64
淸@@ 64
澄@@ 64
營@@ 64
竇@@ 64
舟@@ 64
苦@@ 64
試@@ 64
談 64
赛 64
霞@@ 64
餅 64
록 64
림@@ 64
설 64
세 64
옥@@ 64
온@@ 64
적@@ 64
터 64
판 64
𐤀@@ 64
0er 63
espè@@ 63
họ 63
một 63
veya 63
đường 63
ʋ 63
˧ 63
Ιερ@@ 63
Ιω@@ 63
Τα 63
ίγ@@ 63
πει@@ 63
ραγ@@ 63
ρό@@ 63
Пол@@ 63
ана 63
джи@@ 63
дин@@ 63
свобо@@ 63
слу@@ 63
уче@@ 63
Ի@@ 63
أس@@ 63
أل@@ 63
زي 63
مسلسل 63
نور 63
तर 63
हा 63
ਿ 63
ણ@@ 63
କ 63
ഉ@@ 63
ผ 63
ำ 63
ᚱ@@ 63
ព 63
ី 63
ោ@@ 63
佳 63
係@@ 63
假@@ 63
兴 63
具@@ 63
勒 63
執@@ 63
姐@@ 63
季 63
屯@@ 63
恆@@ 63
旦 63
漳@@ 63
灣 63
狗@@ 63
环@@ 63
精 63
虹@@ 63
衡 63
誠@@ 63
领@@ 63
鳴@@ 63
검@@ 63
날 63
행 63
ﻮ@@ 63
besondere 62
fark@@ 62
imbali 62
oloji 62
sowie 62
thực 62
yür@@ 62
Ū 62
ƛ 62
ɟ 62
άδες 62
καθ@@ 62
ουρ@@ 62
πυ@@ 62
Све@@ 62
вое 62
любо@@ 62
мона@@ 62
нет 62
пис@@ 62
фа 62
ձ@@ 62
إل@@ 62
الة 62
الرا@@ 62
العرا@@ 62
تن@@ 62
جو 62
حم@@ 62
ست 62
مز@@ 62
وز@@ 62
ंत 62
अन 62
जय@@ 62
यम 62
हैं 62
िल 62
ौ 62
ਮ 62
ೀ 62
ೈ@@ 62
හ 62
ลิ@@ 62
ัก@@ 62
ิน@@ 62
ือ@@ 62
င@@ 62
ው 62
Ỷ 62
ὶ@@ 62
ῃ 62
ῆ 62
⁵ 62
ⲟ@@ 62
中國 62
商 62
堀@@ 62
外 62
婦@@ 62
尸 62
慎@@ 62
拾@@ 62
推@@ 62
攻@@ 62
柱 62
決@@ 62
没@@ 62
油 62
米 62
紅 62
綱 62
耀 62
老 62
被@@ 62
豪 62
跳@@ 62
采@@ 62
陳 62
霸@@ 62
頓@@ 62
飛 62
말 62
실 62
업@@ 62
크@@ 62
ﻴ@@ 62
󠁴 62
Seit 61
estudios 61
gehört 61
trouve 61
Ě@@ 61
Ɛ 61
Άν@@ 61
Ί@@ 61
ήλ 61
ίμ@@ 61
βρα@@ 61
δημ@@ 61
εχ@@ 61
ικών 61
λεύ@@ 61
στασ@@ 61
Љ@@ 61
вели@@ 61
гро@@ 61
дво@@ 61
кате@@ 61
корпу@@ 61
мон@@ 61
рец 61
служ@@ 61
су 61
тон 61
управление 61
Ґ@@ 61
ղ 61
ء@@ 61
ئ 61
اض@@ 61
البح@@ 61
خت@@ 61
خر@@ 61
دل 61
شت 61
عث@@ 61
قي 61
چو@@ 61
ތ@@ 61
ंद 61
यक 61
रस 61
संस 61
सर@@ 61
ਕ 61
ં 61
ீ 61
ധ@@ 61
ූ@@ 61
ศา@@ 61
แส@@ 61
ບ@@ 61
Ἔ@@ 61
₰ 61
亜@@ 61
傅 61
冷@@ 61
包 61
吐@@ 61
吹@@ 61
唯@@ 61
嗣 61
均 61
境@@ 61
复@@ 61
媽@@ 61
宅@@ 61
富 61
导@@ 61
尋@@ 61
巫@@ 61
强 61
悪@@ 61
戸 61
晚@@ 61
樓@@ 61
模@@ 61
歡@@ 61
此@@ 61
洗@@ 61
洪 61
爱 61
现@@ 61
皆@@ 61
盟@@ 61
着@@ 61
縣@@ 61
群 61
耿@@ 61
逸 61
録 61
雷 61
震@@ 61
놀@@ 61
름@@ 61
린@@ 61
알@@ 61
티@@ 61
ﺮ@@ 61
ﻣ@@ 61
𐤍@@ 61
bộ 60
chính 60
eonato 60
kisi@@ 60
ıdır 60
ɩ 60
ανά@@ 60
κε@@ 60
τικό 60
Ё 60
вого 60
ени 60
крат@@ 60
лъ@@ 60
мии 60
хра@@ 60
част@@ 60
шта@@ 60
ү 60
اق 60
اں 60
جر@@ 60
راء 60
فت@@ 60
كتاب 60
لو 60
مب@@ 60
مق@@ 60
ود@@ 60
يع@@ 60
يُ@@ 60
پ 60
ܥ@@ 60
खा 60
पा 60
लु@@ 60
िय@@ 60
ੋ 60
છ@@ 60
ష 60
ฟ 60
ันท@@ 60
าน 60
ດ@@ 60
ီ 60
❤ 60
ⲛ@@ 60
じ 60
ヘ@@ 60
佑 60
剣 60
囉@@ 60
寿 60
峪@@ 60
往@@ 60
恒@@ 60
招@@ 60
格 60
楼@@ 60
毛 60
汾@@ 60
浅@@ 60
湯 60
潁@@ 60
獅@@ 60
益 60
祐 60
舊@@ 60
舟 60
莉@@ 60
蒙 60
融 60
調@@ 60
轉@@ 60
辞@@ 60
雀@@ 60
頑@@ 60
ꦤ 60
름 60
베@@ 60
숙 60
차 60
￼ 60
Kusini 59
lanan 59
 59
íses 59
đoàn 59
Ǝ@@ 59
ɹ 59
ˤ 59
ήγ@@ 59
ισσ@@ 59
κορ@@ 59
κρά@@ 59
ρι 59
Тур@@ 59
иг@@ 59
каза@@ 59
кня@@ 59
лаго@@ 59
рат 59
ском 59
сов@@ 59
хан@@ 59
ща 59
яр@@ 59
נ 59
المج@@ 59
بش@@ 59
ته 59
جمع@@ 59
جي 59
ڬ@@ 59
खे@@ 59
जे@@ 59
थि@@ 59
ਇ@@ 59
ਣ@@ 59
ો 59
ಇ@@ 59
ൈ@@ 59
ට 59
ฟ@@ 59
ኢ@@ 59
ᜒ@@ 59
ᤠ@@ 59
ộ@@ 59
ミ 59
乘@@ 59
兗@@ 59
兩 59
勢 59
勳 59
哉 59
夕@@ 59
嬪 59
岩 59
幡@@ 59
彝 59
很@@ 59
徳 59
慧 59
戏@@ 59
戲@@ 59
旨 59
械@@ 59
欢@@ 59
潮 59
猛@@ 59
琅@@ 59
祐@@ 59
竜@@ 59
素 59
翁 59
翰 59
談@@ 59
邑@@ 59
魏 59
ꜥ@@ 59
것@@ 59
곡@@ 59
근 59
망@@ 59
명 59
울 59
좌@@ 59
집@@ 59
참@@ 59
키@@ 59
파 59
퍼@@ 59
헌@@ 59
･ 59
Dezember 58
Februar 58
müc@@ 58
nhất 58
tộc 58
đế 58
˺ 58
αία 58
αζ@@ 58
δια@@ 58
λλογ@@ 58
στρα@@ 58
ύγ@@ 58
Дру@@ 58
Фили@@ 58
ара 58
гу 58
его 58
лей 58
свя@@ 58
ств 58
тель@@ 58
ули@@ 58
Ү@@ 58
Ә@@ 58
ارت 58
جا@@ 58
جر 58
جی@@ 58
شی 58
كر 58
ۋ@@ 58
ې 58
ंग 58
टा 58
ठा@@ 58
डा 58
बन 58
रभा@@ 58
ਆ 58
ਧ@@ 58
શ 58
ఉ@@ 58
ආ@@ 58
ෂ@@ 58
กล@@ 58
ทิ@@ 58
รี 58
เจ@@ 58
ິ@@ 58
ཐ@@ 58
ཡ@@ 58
ཤ@@ 58
ለ 58
ታ@@ 58
ấ@@ 58
ẫ@@ 58
⏑ 58
乡@@ 58
出 58
午@@ 58
厚@@ 58
叔 58
契@@ 58
幣 58
戎 58
抄 58
拉 58
掛@@ 58
整@@ 58
条 58
染@@ 58
梓@@ 58
檀@@ 58
焦@@ 58
狄@@ 58
眼 58
研@@ 58
粉@@ 58
綿@@ 58
羊 58
艇 58
蓮 58
贺@@ 58
锡@@ 58
雀 58
鼎@@ 58
날@@ 58
룡@@ 58
범@@ 58
ﻠ@@ 58
junio 57
miş@@ 57
olewa 57
oyuncu 57
phủ 57
ĉ 57
ſ 57
ɳ@@ 57
˹ 57
Βασίλ@@ 57
ικού 57
μελ@@ 57
συ@@ 57
όπο@@ 57
ώς 57
Ско@@ 57
ата 57
грани@@ 57
исто@@ 57
ком 57
партия 57
пред@@ 57
публики 57
рабо@@ 57
тий 57
чно 57
الري@@ 57
بھ@@ 57
تا 57
تو 57
جان 57
دُ@@ 57
مل 57
کو 57
ګ@@ 57
ید 57
ܟ@@ 57
ܩ@@ 57
उ 57
कम 57
चे 57
टे@@ 57
दो@@ 57
परि@@ 57
यात 57
यालय 57
ทอง 57
ธิ@@ 57
อน 57
ไท@@ 57
ဟ@@ 57
ራ 57
ና@@ 57
ច@@ 57
⇌ 57
⌊ 57
ⵢ@@ 57
が 57
さ 57
ね 57
他 57
儒 57
儒@@ 57
反 57
奕@@ 57
専@@ 57
導@@ 57
広 57
应@@ 57
文化 57
欣 57
泽@@ 57
準@@ 57
点 57
牌@@ 57
祁@@ 57
符 57
紹 57
線@@ 57
編@@ 57
縄@@ 57
耳 57
莉 57
藩 57
足 57
量@@ 57
錫@@ 57
雞@@ 57
露@@ 57
鱼 57
鹰 57
黄 57
까@@ 57
능@@ 57
물 57
브@@ 57
십@@ 57
포 57
함@@ 57
Cumhuriyeti 56
carrera 56
hàng 56
lerine 56
millones 56
oliki 56
vàng 56
während 56
Ã 56
Ē 56
Ė@@ 56
şehir@@ 56
ɳ 56
˝ 56
Απ@@ 56
άφ@@ 56
ιτ@@ 56
ονομ@@ 56
ούς 56
στην 56
σω@@ 56
ϕ@@ 56
Пос@@ 56
год@@ 56
коман@@ 56
лица 56
пас@@ 56
при 56
техниче@@ 56
трен@@ 56
укра@@ 56
чна 56
ҫ@@ 56
ֹ 56
المص@@ 56
بار 56
حی@@ 56
دين 56
ـ 56
لاح 56
نق@@ 56
وات 56
وس 56
پور 56
ڈ@@ 56
کن@@ 56
کھ@@ 56
ھ 56
देवी 56
पं@@ 56
भक 56
हम@@ 56
ଲ@@ 56
นี 56
บั@@ 56
สว@@ 56
สะ@@ 56
ัน 56
ຫ@@ 56
ྐ@@ 56
ᑐ@@ 56
ᚿ@@ 56
ូ@@ 56
⁴ 56
予@@ 56
亡@@ 56
入 56
卜@@ 56
奚@@ 56
実 56
屈@@ 56
崇 56
庙 56
斎 56
查@@ 56
植@@ 56
混@@ 56
瓦@@ 56
甜@@ 56
發 56
禹@@ 56
純 56
落 56
蜜@@ 56
親 56
訶 56
読@@ 56
載@@ 56
這@@ 56
钱 56
韓 56
验@@ 56
齋 56
류@@ 56
머@@ 56
밀@@ 56
익@@ 56
임 56
즈 56
직@@ 56
크 56
𐤔@@ 56
🤝 56
Lịch 55
llamado 55
quận 55
 55
Üniversit@@ 55
Þ 55
üç 55
ɘ 55
ɜ@@ 55
̑ 55
Γεω@@ 55
Μεγάλ@@ 55
αρκ@@ 55
κα 55
μία 55
οικ@@ 55
σε 55
История 55
Мал@@ 55
Три@@ 55
Цент@@ 55
без@@ 55
бур@@ 55
коми@@ 55
оп@@ 55
пат@@ 55
тен@@ 55
фор@@ 55
чин 55
ӣ 55
Ք@@ 55
ո 55
الإسلا@@ 55
اللہ 55
دم 55
قی@@ 55
كن 55
لان 55
مت 55
نگ 55
وق 55
کار@@ 55
ܡ 55
तान 55
नो 55
शी@@ 55
ৱ@@ 55
ಬ 55
ธา@@ 55
ภา@@ 55
ภู@@ 55
หลวง 55
เบ@@ 55
ཕ@@ 55
ေ 55
ềm 55
ệ@@ 55
⍝ 55
っ 55
乙 55
円 55
写@@ 55
各@@ 55
咒 55
坤 55
届@@ 55
幹@@ 55
弟@@ 55
弼 55
彩 55
护@@ 55
排@@ 55
提 55
斤 55
榜@@ 55
涇@@ 55
琵@@ 55
盤@@ 55
磨@@ 55
管 55
粵@@ 55
莲@@ 55
蒼@@ 55
衡@@ 55
謙@@ 55
记@@ 55
说 55
週@@ 55
鄂@@ 55
闘@@ 55
飞 55
론 55
백 55
좋@@ 55
특@@ 55
𑄳 55
󠁩 55
ejempl@@ 54
hậu 54
muchos 54
región 54
sechs 54
wote 54
Õ 54
èrement 54
ìm 54
ıları 54
ɒ 54
̮ 54
Δημοκρατ@@ 54
Κορ@@ 54
ζω@@ 54
που@@ 54
ριν@@ 54
χλ@@ 54
СС@@ 54
Хи@@ 54
вол@@ 54
един@@ 54
мей@@ 54
пан@@ 54
поль@@ 54
рю@@ 54
ственной 54
тво@@ 54
Զ@@ 54
թ 54
վ 54
الملك 54
بع@@ 54
ته@@ 54
جع@@ 54
داد 54
رح@@ 54
زا 54
طي@@ 54
عز@@ 54
مس 54
یہ 54
ے 54
ޮ@@ 54
गी 54
जो 54
डि@@ 54
दिर 54
पे@@ 54
पो@@ 54
हिन 54
ਡ@@ 54
ୀ 54
ஷ@@ 54
อด@@ 54
เต 54
ົ@@ 54
ድ 54
ጋ@@ 54
ὡ@@ 54
► 54
ゅ@@ 54
介@@ 54
候 54
圳@@ 54
姐 54
娘@@ 54
存 54
孩@@ 54
宫@@ 54
屯 54
巻 54
弁 54
怀@@ 54
拜@@ 54
昇 54
易 54
朵@@ 54
注 54
滅@@ 54
犬 54
磁@@ 54
策 54
綠@@ 54
繁@@ 54
肅@@ 54
肖@@ 54
臧 54
訓@@ 54
誰@@ 54
豐 54
跡 54
隱@@ 54
飯 54
鸿@@ 54
麥@@ 54
黃 54
규@@ 54
꽃 54
배 54
별 54
언@@ 54
geleg@@ 53
neben 53
ngày 53
nivel 53
onun 53
thân 53
vũ 53
época 53
ının 53
ˀ 53
Πέ@@ 53
είου 53
СР 53
авиа@@ 53
ил 53
лез@@ 53
науч@@ 53
ните 53
нию 53
риа@@ 53
сен 53
ски@@ 53
ся@@ 53
الدي@@ 53
الم 53
زار 53
ظ 53
قص@@ 53
نام@@ 53
نص@@ 53
ًا 53
پار@@ 53
گی 53
یونیورسٹی 53
ީ 53
ऊ 53
णि@@ 53
देश 53
बी@@ 53
रसा@@ 53
लय 53
ৈ@@ 53
ஷ 53
ഷ 53
อร 53
ัง@@ 53
ྡ@@ 53
ჭ@@ 53
ែ@@ 53
ℤ 53
↵ 53
せ 53
ぬ@@ 53
付@@ 53
儿 53
冰 53
变@@ 53
句@@ 53
右 53
啟@@ 53
図 53
均@@ 53
增@@ 53
張 53
惡@@ 53
抗@@ 53
柱@@ 53
歲@@ 53
渾@@ 53
濱@@ 53
燈@@ 53
盤 53
绿@@ 53
翠@@ 53
若 53
蒋@@ 53
軒 53
鏡 53
陂 53
黎 53
글 53
슬@@ 53
약@@ 53
찬@@ 53
푸@@ 53
🇬 53
Einwoh@@ 52
Katika 52
construcción 52
diesen 52
sông 52
étaient 52
đầu 52
Œ 52
Ελλ@@ 52
Οι 52
έρας 52
αίν@@ 52
ικοί 52
κη 52
πρω@@ 52
ωπ@@ 52
όμεν@@ 52
ύν@@ 52
Ћ@@ 52
Ай@@ 52
Сре@@ 52
бри@@ 52
вобо@@ 52
все@@ 52
их 52
кин@@ 52
лев@@ 52
нен@@ 52
ново 52
опера@@ 52
рай@@ 52
рок 52
сле@@ 52
стран@@ 52
теат@@ 52
тех@@ 52
щи 52
ьо@@ 52
ёт 52
ѓ@@ 52
أي@@ 52
اري 52
البر@@ 52
تش@@ 52
جام@@ 52
رس@@ 52
صل 52
كت@@ 52
كل 52
مط@@ 52
يني 52
ंद@@ 52
भो@@ 52
यत 52
लाल 52
ਈ 52
ੈ@@ 52
ન 52
ළ@@ 52
ลง@@ 52
เล@@ 52
เว@@ 52
ທ@@ 52
ང@@ 52
ሕ@@ 52
ታ 52
ᑕ@@ 52
ᒥ@@ 52
ởi 52
レ 52
仮@@ 52
传 52
佐 52
劇 52
味 52
団@@ 52
属@@ 52
幾@@ 52
序 52
廣 52
弁@@ 52
彬 52
怡@@ 52
怪 52
感 52
晉 52
柳 52
極 52
榜 52
歐@@ 52
渡 52
灰@@ 52
申 52
留 52
畢@@ 52
筆@@ 52
网 52
背@@ 52
苑@@ 52
裡@@ 52
见@@ 52
訶@@ 52
變 52
賴@@ 52
賽 52
農 52
达 52
速 52
頒@@ 52
鹽@@ 52
ꦠ@@ 52
ꦱ@@ 52
글@@ 52
럼 52
블@@ 52
않@@ 52
족@@ 52
청 52
편@@ 52
０@@ 52
Ekim 51
Januari 51
Mannschaft 51
Mitglied 51
acuerdo 51
andishi 51
ausge@@ 51
diğ@@ 51
ierten 51
septiembre 51
sondern 51
thông 51
úng 51
Ɛ@@ 51
ɓ 51
ɯ@@ 51
λει@@ 51
ντ@@ 51
οί@@ 51
ρατ@@ 51
στα@@ 51
Ст@@ 51
Це@@ 51
Щ 51
бу 51
вод 51
гия 51
истории 51
мате@@ 51
мина@@ 51
музе@@ 51
ристи@@ 51
рода 51
само@@ 51
том 51
хот@@ 51
և 51
السلام 51
سيا 51
عر@@ 51
مست@@ 51
نظ@@ 51
ولي 51
وه@@ 51
ܢ 51
ަ 51
ߊ 51
अ 51
इन 51
भग@@ 51
भारत 51
ત 51
ଳ@@ 51
ோ 51
ಜ 51
ೇ 51
ാ 51
ළ 51
กุ@@ 51
คน@@ 51
งค@@ 51
พล@@ 51
ຊ@@ 51
လ 51
რ 51
ረ 51
ቀ@@ 51
ះ@@ 51
Ẩ@@ 51
ọn 51
ỡ 51
⍵ 51
┴ 51
ⵡ@@ 51
メ 51
佑@@ 51
吧 51
呂 51
图 51
坝@@ 51
埠 51
塚 51
壁 51
寄@@ 51
岗@@ 51
幕@@ 51
承 51
様 51
溫 51
照 51
燒@@ 51
特 51
甫@@ 51
種 51
簡 51
经 51
继@@ 51
萬 51
迪@@ 51
閔@@ 51
阪 51
體 51
녀@@ 51
린 51
막@@ 51
티 51
팔@@ 51
ﺑ@@ 51
𐤁@@ 51
Kaskazini 50
Ngoài 50
caracter@@ 50
dòng 50
haribi 50
hiên 50
nguyên 50
zusammen 50
ĵ@@ 50
ƿ@@ 50
ǁ 50
Ǫ@@ 50
Ομ@@ 50
αϊκ@@ 50
είς 50
σαν 50
στο 50
στον 50
ωλ@@ 50
ϊκ@@ 50
Фран@@ 50
гов@@ 50
име@@ 50
кос@@ 50
лок 50
мин 50
рак@@ 50
рий@@ 50
спа@@ 50
стар@@ 50
что 50
шин@@ 50
ью 50
ը@@ 50
است 50
المح@@ 50
بخ@@ 50
زة 50
سلام 50
سما@@ 50
مت@@ 50
وادي 50
وة 50
یں 50
कार@@ 50
कौ@@ 50
जो@@ 50
दे 50
लो 50
ঙ@@ 50
ਂ@@ 50
ડ@@ 50
ભ@@ 50
ષ 50
હ@@ 50
ดิ 50
ྟ@@ 50
ሥ@@ 50
ᑭ@@ 50
ᕐ@@ 50
ṫ@@ 50
ứa 50
₸ 50
ㅇ 50
休 50
优@@ 50
伟 50
俗@@ 50
劉 50
卢@@ 50
历@@ 50
売@@ 50
屏@@ 50
属 50
已@@ 50
悟@@ 50
斛@@ 50
柔 50
楊 50
渔@@ 50
潜@@ 50
璧 50
紙@@ 50
绍@@ 50
统@@ 50
舒 50
芦@@ 50
説@@ 50
賦 50
質 50
辽@@ 50
过@@ 50
鈔 50
錫 50
鑑@@ 50
髮@@ 50
鷹@@ 50
鸢@@ 50
麼@@ 50
龜@@ 50
ꦥ@@ 50
란 50
려 50
습@@ 50
입@@ 50
태 50
Bevöl@@ 49
hiệ@@ 49
phần 49
vấn 49
ĥ 49
Ơ@@ 49
Ș 49
̰ 49
Εν@@ 49
άρα 49
άρκ@@ 49
ήματα 49
αγγελ@@ 49
από 49
γράφ@@ 49
δικ@@ 49
δοκ@@ 49
εργ@@ 49
ιζ@@ 49
κολ@@ 49
μετ@@ 49
ταγ@@ 49
ωγ@@ 49
ύ 49
ώσ@@ 49
Ав@@ 49
вну@@ 49
город 49
ины 49
итель 49
йна 49
коло@@ 49
право@@ 49
реб@@ 49
сво@@ 49
совет@@ 49
уби@@ 49
цио@@ 49
чения 49
ӧ 49
Ռ@@ 49
آر@@ 49
البي@@ 49
باش@@ 49
حزب 49
فی 49
لف@@ 49
منص@@ 49
ناصر 49
نة 49
وية 49
کا@@ 49
ܦ@@ 49
तक 49
थी 49
धि 49
हिं@@ 49
খ 49
ଚ@@ 49
ଜ@@ 49
ഗ 49
กั@@ 49
ถน@@ 49
พร@@ 49
ระ@@ 49
เก 49
เห@@ 49
ຄ@@ 49
ປ@@ 49
ྗ@@ 49
ὖ@@ 49
₲ 49
ガ 49
ニ 49
亲@@ 49
任 49
偏@@ 49
做@@ 49
凡@@ 49
加 49
启@@ 49
壁@@ 49
巴 49
戒@@ 49
或@@ 49
換@@ 49
敦 49
槍 49
沖 49
注@@ 49
營 49
狮@@ 49
獣@@ 49
畫 49
盘@@ 49
盡@@ 49
竺@@ 49
笠@@ 49
等 49
網@@ 49
翟@@ 49
肉 49
芬 49
荣 49
蓋@@ 49
裁@@ 49
覚@@ 49
訪@@ 49
調 49
阜@@ 49
離 49
霞 49
領 49
鹿 49
올@@ 49
𐤕 49
🇸 49
Cumhur@@ 48
binh 48
blieb 48
bầu 48
einige 48
erreich@@ 48
hariki 48
nahmen 48
nghĩa 48
octubre 48
primeros 48
tüm 48
ɗ 48
άν 48
διά 48
ιάς 48
ορι@@ 48
παλ@@ 48
Ос@@ 48
вен 48
гер@@ 48
жур@@ 48
льного 48
най@@ 48
отде@@ 48
стри@@ 48
тече@@ 48
ъл@@ 48
دير 48
سپ@@ 48
طة 48
عباس 48
عه 48
كري@@ 48
هي 48
يت 48
يه 48
۱@@ 48
ܚ@@ 48
ंड 48
घर 48
घा@@ 48
दू@@ 48
ච@@ 48
ฮ@@ 48
ຸ@@ 48
Ḥ 48
Ả@@ 48
ℝ@@ 48
ℬ 48
∉ 48
げ 48
ケ 48
丈@@ 48
于 48
児@@ 48
圓 48
城市 48
変@@ 48
委员会 48
宋 48
宰@@ 48
察 48
尙@@ 48
待@@ 48
従@@ 48
怛@@ 48
恵 48
捷@@ 48
撃@@ 48
日本 48
旺@@ 48
暉 48
杂@@ 48
梦 48
榆@@ 48
構@@ 48
濮@@ 48
炎@@ 48
番 48
登 48
祿 48
筑@@ 48
粉 48
絕@@ 48
緒 48
红 48
罪@@ 48
舶@@ 48
走 48
過 48
郝@@ 48
郷@@ 48
鐵 48
開 48
闇@@ 48
闻@@ 48
陀 48
靜 48
類 48
黨@@ 48
난@@ 48
씨@@ 48
얼@@ 48
채@@ 48
항@@ 48
 48
ﻤ@@ 48
％ 48
genel 47
lên 47
trường 47
ǚ@@ 47
ʎ 47
Κόμ@@ 47
άλλ@@ 47
άχ@@ 47
αμπ@@ 47
αυτ@@ 47
γραμ@@ 47
δεν 47
διά@@ 47
δρόμ@@ 47
θεια 47
θν@@ 47
λαβ@@ 47
μικρ@@ 47
ταλ@@ 47
ωμα 47
Бел@@ 47
Гла@@ 47
дер 47
жиз@@ 47
зия 47
искус@@ 47
ите 47
комите@@ 47
льной 47
мыш@@ 47
ност 47
няя 47
обра@@ 47
она 47
рал 47
рован@@ 47
ься 47
њ 47
գ 47
آئ@@ 47
اخ@@ 47
اض 47
الأر@@ 47
الذ@@ 47
الوطني 47
او 47
بط@@ 47
بني 47
مار 47
مع 47
هة 47
ڵ@@ 47
ः@@ 47
ओ@@ 47
गं@@ 47
धी 47
पार 47
मुक 47
रक 47
वि 47
ਗ 47
ਜ 47
ੂ 47
ଟ@@ 47
ଣ 47
ଣ@@ 47
வ 47
จิ@@ 47
ตะ@@ 47
ทั@@ 47
ยู@@ 47
ิน 47
ฺ@@ 47
ማ 47
ባ 47
ኤ@@ 47
ᐱ@@ 47
ᖅ@@ 47
ẻ@@ 47
Ἠ@@ 47
ὠ@@ 47
ῖ 47
‬ 47
∝ 47
ャ 47
争 47
危@@ 47
圭@@ 47
垂@@ 47
墓@@ 47
夔 47
妹@@ 47
妻@@ 47
寂@@ 47
嶋 47
幣@@ 47
徽 47
掌@@ 47
断@@ 47
旭@@ 47
晨@@ 47
曉@@ 47
楷 47
楽 47
灯@@ 47
烟@@ 47
焼@@ 47
猴 47
琛 47
琪 47
產@@ 47
穆 47
経 47
罪 47
蘇 47
處 47
裙 47
詠@@ 47
護 47
質@@ 47
辺@@ 47
逢@@ 47
长 47
陸 47
韶@@ 47
駒@@ 47
齊 47
ꦢ@@ 47
ꦲ@@ 47
더 47
덕 47
빛@@ 47
중 47
ﬂ@@ 47
ﻪ@@ 47
󠁫 47
aunque 46
các 46
damit 46
espèce 46
mús@@ 46
ǣ 46
ɖ 46
ʑ@@ 46
Κοιν@@ 46
Μέ@@ 46
Μον@@ 46
Περι@@ 46
άδα 46
ιν 46
κον@@ 46
λα 46
μια 46
πού@@ 46
τού 46
бай@@ 46
без 46
бя 46
диа@@ 46
ен 46
ждение 46
жизни 46
кру@@ 46
парти@@ 46
того 46
ческих 46
ён 46
һ@@ 46
بلو@@ 46
عش@@ 46
قب@@ 46
ماء 46
نية 46
يس 46
ܣ@@ 46
ऋ@@ 46
नाम 46
भी@@ 46
हम 46
हू@@ 46
ഒ@@ 46
ജ 46
ธ 46
มี@@ 46
ဗ@@ 46
ნ 46
ነ 46
ካ@@ 46
ា 46
ḻ 46
Ṛ 46
ṟ 46
ἠ@@ 46
゚ 46
从@@ 46
充 46
千 46
员 46
實 46
幹 46
庁 46
弓 46
敢@@ 46
杏@@ 46
桐@@ 46
欣@@ 46
沪@@ 46
爵@@ 46
牟@@ 46
琦 46
璋 46
碑 46
秦 46
糖@@ 46
纳@@ 46
翻@@ 46
莎@@ 46
衍 46
襄 46
證@@ 46
銘 46
钟@@ 46
靖 46
魯 46
麦@@ 46
모 46
생 46
술 46
엔@@ 46
옥 46
절@@ 46
평 46
𐤍 46
bedeut@@ 45
dün@@ 45
inglés 45
köy@@ 45
ngay 45
sı@@ 45
tigt 45
tư 45
yüz@@ 45
ǧ 45
ɵ 45
˙ 45
Λε@@ 45
Λου@@ 45
έδ@@ 45
αρι@@ 45
ασία 45
είδ@@ 45
κε 45
λευθερ@@ 45
λλην@@ 45
νό@@ 45
φέρ@@ 45
ати 45
бург 45
вал 45
времен@@ 45
лер 45
лом 45
мира 45
музы@@ 45
ник@@ 45
ору@@ 45
село 45
хар@@ 45
ход 45
اسلامی 45
اف 45
الوطنية 45
انی@@ 45
اه 45
این 45
تص@@ 45
رج@@ 45
شاہ 45
عمر@@ 45
مين 45
وك@@ 45
ޖ@@ 45
अन@@ 45
आ 45
ऊ@@ 45
ञान 45
पुरु@@ 45
मे 45
रम@@ 45
शन 45
साहित 45
અ@@ 45
ஸ@@ 45
ดี 45
ถ 45
ဲ@@ 45
ᖃ@@ 45
Ṇ@@ 45
ẩu 45
ừ 45
♩ 45
仇@@ 45
伟@@ 45
似@@ 45
傷@@ 45
剧 45
堅 45
媽 45
審@@ 45
嵩 45
廉 45
廉@@ 45
强@@ 45
忽@@ 45
托@@ 45
是 45
权@@ 45
板 45
核@@ 45
條 45
殺 45
気 45
沟@@ 45
沮@@ 45
濃@@ 45
瀬 45
炮 45
狼 45
猫 45
瓜@@ 45
皮 45
盆@@ 45
衆 45
裏@@ 45
討@@ 45
豆 45
豹@@ 45
述 45
隊@@ 45
霧@@ 45
靑@@ 45
顾@@ 45
麟@@ 45
鼎 45
ꦮ@@ 45
각 45
광 45
금 45
란@@ 45
옹@@ 45
창 45
플@@ 45
büyük 44
kinh 44
lossen 44
mwa 44
nữ 44
phim 44
tuvo 44
vua 44
weiter@@ 44
Î 44
Û@@ 44
đời 44
άντα 44
ερι@@ 44
ηφ@@ 44
ουσα 44
ποδ@@ 44
τηγ@@ 44
φορ@@ 44
Є 44
България 44
вода 44
гори@@ 44
жда 44
кс 44
кур@@ 44
литера@@ 44
мост 44
нан@@ 44
ным 44
остров 44
ям 44
ҷ@@ 44
الان@@ 44
رش@@ 44
شع@@ 44
نان 44
يون 44
ڑ@@ 44
ڕ@@ 44
ޅ@@ 44
टि@@ 44
दान 44
नव@@ 44
भार@@ 44
भी 44
मू@@ 44
वास 44
शो@@ 44
षण 44
षेत 44
ક 44
ૃ@@ 44
జ 44
ມ 44
ແ@@ 44
ན@@ 44
ሳ@@ 44
ች 44
ᒪ@@ 44
ᚴ@@ 44
៉ 44
ḡ 44
Ṯ@@ 44
ứng 44
ῶ 44
ⲣ@@ 44
あ 44
乱 44
乱@@ 44
亀@@ 44
何 44
哩 44
坡 44
壇 44
姬@@ 44
媛 44
尸@@ 44
廠 44
役@@ 44
息 44
數@@ 44
杯@@ 44
梵@@ 44
欽 44
歩 44
每@@ 44
毒@@ 44
测@@ 44
箕@@ 44
緣 44
職@@ 44
舉 44
葛 44
虛@@ 44
規@@ 44
覺 44
豹 44
賓@@ 44
财@@ 44
赛@@ 44
陣@@ 44
隠@@ 44
韻 44
饒@@ 44
黔@@ 44
齋@@ 44
녕@@ 44
돌 44
빛 44
악 44
열 44
투@@ 44
𐤌 44
🜨 44
🧑 44
󠁯 44
himu 43
niveau 43
niên 43
prend 43
quá 43
trưởng 43
 43
èrent 43
ǜ 43
ǽ@@ 43
ˁ 43
˨ 43
Οικ@@ 43
ηση 43
θμ@@ 43
κω@@ 43
ρακ@@ 43
ροφ@@ 43
σμός 43
στρ@@ 43
ταυ@@ 43
τικά 43
χω@@ 43
Џ@@ 43
Георги 43
Кали@@ 43
Пло@@ 43
Роди@@ 43
вание 43
версите@@ 43
вла@@ 43
ец 43
как 43
коро@@ 43
кул@@ 43
лли@@ 43
нар@@ 43
права 43
систе@@ 43
тно 43
това 43
фон@@ 43
և@@ 43
السع@@ 43
تف@@ 43
خوا@@ 43
سے 43
عين 43
كان 43
كو@@ 43
مبار@@ 43
نوا@@ 43
ړ@@ 43
۳@@ 43
की@@ 43
खु@@ 43
गण@@ 43
दन 43
पण 43
भे@@ 43
मित 43
वन@@ 43
वो 43
ഞ@@ 43
สิง@@ 43
ໄ@@ 43
ហ@@ 43
Ứ@@ 43
ἢ 43
ἤ@@ 43
ⲉ@@ 43
ⲙ@@ 43
ヌ@@ 43
但@@ 43
切 43
判 43
可 43
哪@@ 43
唱 43
坝 43
堅@@ 43
壇@@ 43
売 43
小 43
尔 43
屬@@ 43
岸 43
席 43
恐@@ 43
普 43
欲@@ 43
比 43
淨@@ 43
淳 43
滿 43
炳@@ 43
熟@@ 43
爵 43
狄 43
狐 43
眉@@ 43
童 43
綱@@ 43
緒@@ 43
署 43
脩 43
舍 43
艦 43
芒@@ 43
菱@@ 43
虚@@ 43
設@@ 43
讓@@ 43
论 43
辰 43
远 43
遊 43
遵@@ 43
醉@@ 43
采 43
问@@ 43
除@@ 43
靈 43
鬥@@ 43
黑 43
밥 43
잡@@ 43
했@@ 43
ﻨ@@ 43
equipo 42
proyecto 42
sự 42
thuộc 42
varias 42
¸ 42
định 42
̝ 42
Αντι@@ 42
Γκ@@ 42
Επι@@ 42
Κλ@@ 42
έβ@@ 42
έπ@@ 42
γε@@ 42
δη 42
δύ@@ 42
ξη 42
ορο@@ 42
ρου@@ 42
Ј 42
Май@@ 42
вана 42
воло@@ 42
еле@@ 42
нам 42
нение 42
оби@@ 42
пе 42
пове@@ 42
рей@@ 42
ряд 42
сты 42
уни@@ 42
управ@@ 42
хоро@@ 42
Ө 42
է 42
չ 42
امی@@ 42
انا 42
راج 42
رام 42
سام@@ 42
سط@@ 42
عص@@ 42
فا@@ 42
مهورية 42
کور@@ 42
अनु@@ 42
इ 42
गे@@ 42
झ 42
मर 42
रति@@ 42
वान 42
वृ@@ 42
शक 42
शास 42
ਟ@@ 42
સ 42
େ 42
ஐ@@ 42
ஞ@@ 42
డ 42
พระราช@@ 42
อม 42
โรง@@ 42
ྫ@@ 42
ዋ@@ 42
ዲ@@ 42
ᐠ 42
ᑯ@@ 42
ᛚ@@ 42
ដ@@ 42
យ 42
ọi 42
ủng 42
ỹ@@ 42
Ὄ@@ 42
ℛ 42
ⴽ@@ 42
严@@ 42
争@@ 42
企@@ 42
俠@@ 42
倒@@ 42
兮 42
凰@@ 42
刻@@ 42
剑@@ 42
占@@ 42
句 42
宛@@ 42
封 42
尖@@ 42
峡@@ 42
店@@ 42
毗@@ 42
沟 42
沼@@ 42
浜 42
済@@ 42
爺 42
猪@@ 42
献@@ 42
玛@@ 42
玫@@ 42
玲@@ 42
瑪@@ 42
睦@@ 42
示@@ 42
積@@ 42
答@@ 42
結 42
组@@ 42
结@@ 42
置@@ 42
蝶@@ 42
計 42
諫@@ 42
证@@ 42
辛 42
辣@@ 42
铜@@ 42
魔 42
鶴 42
같@@ 42
담@@ 42
먼@@ 42
윤 42
채 42
편 42
필@@ 42
𐤋 42
Karriere 41
Magharibi 41
bản 41
chiến 41
giám 41
neden@@ 41
tió 41
 41
últim@@ 41
điện 41
đá 41
Ĥ@@ 41
Ŋ@@ 41
ʤ@@ 41
άρι 41
αργ@@ 41
νόμ@@ 41
σημ@@ 41
τή 41
χορ@@ 41
Исто@@ 41
Кли@@ 41
Международ@@ 41
Ь@@ 41
бат@@ 41
бор 41
вс@@ 41
дж 41
душ@@ 41
ент@@ 41
логи@@ 41
лся 41
мой 41
ней 41
под 41
раб@@ 41
ря 41
сель@@ 41
тат@@ 41
ул 41
юр@@ 41
љ 41
ќ 41
Փ@@ 41
Օ@@ 41
ծ 41
اسٹیشن 41
اعة 41
الشر@@ 41
النا@@ 41
امة 41
بية 41
تر 41
دع@@ 41
دى 41
ذ 41
راب 41
سم 41
فت 41
قی 41
كل@@ 41
مصر 41
نش@@ 41
ينا 41
گو@@ 41
आर 41
चक 41
छा@@ 41
दार 41
नगर 41
निष 41
मध 41
रीय 41
ारे 41
દ 41
ై@@ 41
ඇ@@ 41
ජ 41
ชาติ 41
ทธ@@ 41
แล@@ 41
ຈ@@ 41
ວ 41
ሪ@@ 41
ᛐ@@ 41
ធ@@ 41
ặ@@ 41
⌋ 41
⠂ 41
ⴳ@@ 41
ⴼ@@ 41
べ 41
ょ 41
ゥ@@ 41
エ 41
ㄇ@@ 41
亨 41
供@@ 41
係 41
候@@ 41
偶@@ 41
凯@@ 41
则@@ 41
勃@@ 41
卓 41
叱@@ 41
呼 41
喬@@ 41
嶋@@ 41
底 41
庵@@ 41
弦 41
归@@ 41
怒@@ 41
打 41
掌 41
敎@@ 41
施 41
束@@ 41
架 41
殷 41
滋@@ 41
潞@@ 41
為 41
狗 41
獻 41
瑜 41
環 41
瓜 41
禪 41
笛 41
线@@ 41
艦@@ 41
节@@ 41
苗 41
茉@@ 41
药@@ 41
衫 41
観 41
詞@@ 41
辉 41
送 41
雁@@ 41
飲@@ 41
馱@@ 41
鴻 41
ꝏ@@ 41
갈@@ 41
규 41
점 41
택 41
ﷺ 41
＃ 41
Baada 40
Zweiten 40
aduni 40
bàn 40
bình 40
eği 40
führt 40
muş@@ 40
mwan@@ 40
phòng 40
producción 40
số 40
thiên 40
từ 40
wurden 40
Εθνική 40
Μπο@@ 40
ίκης 40
μάτων 40
πιστ@@ 40
σον 40
Ѓ@@ 40
Пор@@ 40
вате@@ 40
гда 40
дон@@ 40
жд@@ 40
зда@@ 40
ких 40
кры@@ 40
льные 40
най 40
пле@@ 40
поло@@ 40
револю@@ 40
син@@ 40
став@@ 40
ступ@@ 40
фрон@@ 40
футбо@@ 40
чо 40
أح@@ 40
دو 40
رار 40
فق@@ 40
نه@@ 40
هار@@ 40
وف 40
थान 40
दो 40
बड 40
भारतीय 40
योग 40
लोक@@ 40
वल 40
विष 40
शा 40
ফ 40
ਹ 40
બ@@ 40
ବ 40
ஏ@@ 40
ಹ 40
ഥ@@ 40
จัง@@ 40
ฝ@@ 40
ฬ@@ 40
ึ 40
ือ 40
เน@@ 40
เมือง 40
ཏ@@ 40
ည@@ 40
ቅ@@ 40
ው@@ 40
ខ 40
Ḏ@@ 40
Ἅ@@ 40
ὼ 40
ℂ 40
∎ 40
ㄎ@@ 40
ㅣ 40
丞@@ 40
乘 40
乾 40
俞@@ 40
倪@@ 40
嘯@@ 40
圆@@ 40
坪 40
堡 40
塩@@ 40
差@@ 40
弦@@ 40
徹 40
悠@@ 40
懿 40
拂@@ 40
放 40
桃 40
棠 40
潭 40
濕@@ 40
疆 40
碩@@ 40
穂@@ 40
站@@ 40
腾@@ 40
菲@@ 40
評@@ 40
谭@@ 40
辭@@ 40
鄭 40
间 40
鮮 40
ꦼ@@ 40
걸@@ 40
새 40
와@@ 40
워@@ 40
읍 40
헌 40
１@@ 40
２@@ 40
𐌢 40
🇪 40
🇳 40
🇹 40
Başkan@@ 39
Personen 39
Xã 39
algunos 39
angaza 39
conocida 39
hayat@@ 39
kaç 39
présente 39
sız@@ 39
verschied@@ 39
Ò 39
Ŏ@@ 39
Şampiyon@@ 39
̋ 39
͈ 39
͜ 39
απε@@ 39
αϊ@@ 39
δελφ@@ 39
δρα@@ 39
δό@@ 39
εισ@@ 39
θαν@@ 39
ιπ@@ 39
νες 39
ουσι@@ 39
атов 39
благо@@ 39
бю@@ 39
графи@@ 39
дел@@ 39
кти@@ 39
мена 39
мент 39
мм 39
пти@@ 39
пя@@ 39
сс@@ 39
фло@@ 39
الی 39
اپ@@ 39
بل 39
حد@@ 39
دھ@@ 39
رق@@ 39
عام@@ 39
نادي 39
وب 39
ٹی 39
ڑ 39
ओ 39
कन 39
चो@@ 39
ठा 39
भाव@@ 39
मंड@@ 39
मण 39
मल 39
रिय 39
िया@@ 39
ूर 39
ং 39
ਏ 39
ୟ@@ 39
ീ 39
ชั@@ 39
ตุ@@ 39
ยา 39
ยุ@@ 39
๋ 39
ံ 39
ፈ@@ 39
ᐧ@@ 39
ᑎ@@ 39
ᓯ@@ 39
ᔪ@@ 39
ᠣ@@ 39
ắn 39
ἷ@@ 39
④ 39
┘ 39
☃ 39
☠ 39
♮ 39
✝ 39
ㄹ 39
些@@ 39
仄@@ 39
仕@@ 39
决@@ 39
凡 39
发 39
含@@ 39
嚩@@ 39
域 39
壹@@ 39
奏@@ 39
寬 39
少 39
尤@@ 39
帆 39
庾@@ 39
廷 39
慈 39
把@@ 39
收@@ 39
政府 39
散 39
晴 39
桂 39
植 39
残@@ 39
涪@@ 39
演 39
炮@@ 39
煥 39
监@@ 39
砲 39
祝 39
祠 39
禿@@ 39
笑 39
綾@@ 39
罗 39
耕@@ 39
至 39
舘 39
荆@@ 39
萊@@ 39
萍 39
褚@@ 39
識@@ 39
貫@@ 39
贊 39
輕@@ 39
醒@@ 39
閭@@ 39
雑@@ 39
驅@@ 39
鮑@@ 39
류 39
애 39
저 39
찬 39
책@@ 39
케@@ 39
페@@ 39
ﻋ@@ 39
󠁤 39
Nó 38
Sự 38
chủ 38
hoàn 38
hầu 38
kwamba 38
làng 38
nommé 38
título 38
tương 38
varios 38
çok 38
ĵ 38
Ŝ@@ 38
ȝ 38
ɟ@@ 38
ɦ 38
ɭ 38
ʀ@@ 38
ʱ 38
Απο@@ 38
Ελλάδ@@ 38
Μακ@@ 38
ένα 38
ίδα 38
κοιν@@ 38
κρατ@@ 38
οξ@@ 38
οσφ@@ 38
πον@@ 38
ριο 38
όρι@@ 38
вид 38
гри@@ 38
дя@@ 38
изи@@ 38
лно 38
мента@@ 38
они 38
рен 38
роди@@ 38
руп@@ 38
ским 38
ску@@ 38
стру@@ 38
физи@@ 38
ѧ@@ 38
Ә 38
ادة 38
اضي 38
بير 38
خد@@ 38
درا@@ 38
روز 38
شار@@ 38
شام 38
علم 38
كو 38
نور@@ 38
ٍ@@ 38
کر 38
گی@@ 38
ۍ 38
ܓ@@ 38
ܗ@@ 38
ܝ 38
ܬ 38
ޑ@@ 38
ंगा 38
टे 38
धान 38
नहीं 38
पन 38
पू@@ 38
रात 38
रान 38
वाद 38
ही@@ 38
ছ 38
ঝ@@ 38
ਬ 38
ણ 38
ୟ 38
ഡ@@ 38
ඩ 38
จุ@@ 38
ซ 38
บู@@ 38
วัฒ@@ 38
อบ@@ 38
าย 38
เรีย@@ 38
เล 38
ዘ@@ 38
ዝ@@ 38
ᐣ 38
ᓗ@@ 38
ᠨ 38
Ḡ@@ 38
Ḷ@@ 38
Ṝ 38
Ấn 38
Ἕ@@ 38
ὼ@@ 38
‏ 38
☮ 38
余 38
勳@@ 38
哩@@ 38
喬 38
嚴 38
墳 38
央 38
奎@@ 38
岑@@ 38
廳 38
录 38
恆 38
慢@@ 38
戒 38
撒@@ 38
晃 38
曾 38
楚 38
求 38
渭@@ 38
焼 38
牧 38
猴@@ 38
种@@ 38
稚@@ 38
稿 38
穴@@ 38
紇@@ 38
絲@@ 38
肅 38
著 38
葫@@ 38
薇 38
薊@@ 38
虞 38
融@@ 38
蟲 38
貫 38
賓 38
责@@ 38
遂@@ 38
邊 38
銅 38
随@@ 38
霸 38
鞭 38
餘 38
騰 38
驛 38
麵 38
麻 38
ꦁ@@ 38
디 38
레 38
면@@ 38
몽@@ 38
밤@@ 38
병 38
센@@ 38
솔@@ 38
욱 38
표@@ 38
항 38
향 38
혁 38
ﻧ@@ 38
＆ 38
𐭥@@ 38
adamente 37
bekannt 37
chúng 37
ikuwa 37
kwanza 37
núi 37
siendo 37
thanh 37
thần 37
thế 37
thứ 37
truyền 37
tế 37
wechsel@@ 37
ächst 37
đến 37
Ɔ 37
ǀ 37
ǂ 37
ǘ 37
ȳ 37
ɸ@@ 37
Βασ@@ 37
Πρω@@ 37
αιν@@ 37
μας 37
τά 37
ώρ@@ 37
ϛ 37
Ϲ 37
Ё@@ 37
Хе@@ 37
восто@@ 37
дет 37
джа@@ 37
дни 37
зах@@ 37
ити 37
лиза@@ 37
льных 37
май@@ 37
мая 37
нер 37
нове@@ 37
образ@@ 37
работ@@ 37
рио@@ 37
рой 37
смо@@ 37
строитель@@ 37
уда@@ 37
Ղ@@ 37
ֱ@@ 37
اسلام 37
الأم@@ 37
تاب 37
رون 37
ریلوے 37
شو@@ 37
مك@@ 37
مولانا 37
مى 37
نم@@ 37
ولا@@ 37
يات 37
ެ 37
अव@@ 37
अस 37
कि 37
कुमार 37
धन 37
मं@@ 37
मि 37
षि@@ 37
सार 37
ोर 37
ଳ 37
ଶ 37
଼ 37
ഴ 37
ลำ@@ 37
วง 37
ศัก@@ 37
ิด@@ 37
ཞ@@ 37
ཟ@@ 37
ህ@@ 37
ጵ@@ 37
፡ 37
ᔨ@@ 37
ᚠ@@ 37
ᚦ@@ 37
ᛧ@@ 37
ṗ@@ 37
⍳ 37
ぱ@@ 37
む 37
ㄱ 37
両@@ 37
亂@@ 37
伊 37
众@@ 37
僑@@ 37
刚 37
務 37
問 37
嘯 37
嘴@@ 37
圭 37
址 37
塞 37
墓 37
娜 37
婉@@ 37
寒 37
库@@ 37
廚 37
扬@@ 37
援@@ 37
敵@@ 37
旅 37
昆 37
札@@ 37
汤@@ 37
浪 37
涯@@ 37
深 37
炒@@ 37
热@@ 37
疆@@ 37
筆 37
约@@ 37
育 37
腰@@ 37
荀@@ 37
莫 37
菅@@ 37
薬@@ 37
蠻 37
诚 37
调@@ 37
貢@@ 37
貨@@ 37
跋@@ 37
軌 37
迅 37
退@@ 37
选@@ 37
遲@@ 37
遺 37
量 37
銖 37
霖 37
革 37
鹤@@ 37
鼠@@ 37
갑@@ 37
곡 37
난 37
련@@ 37
례 37
며 37
불 37
앙@@ 37
찾@@ 37
체 37
춘 37
탄@@ 37
할@@ 37
 37
ajili 36
amment 36
luego 36
sư 36
taraf@@ 36
thống 36
trị 36
tập 36
Ì 36
ándose 36
đô 36
Ğ 36
Ɔ@@ 36
ʸ@@ 36
ˈ 36
˜ 36
Σου@@ 36
έμ@@ 36
ήλ@@ 36
δέ@@ 36
είναι 36
ελλην@@ 36
κόσ@@ 36
μην@@ 36
ονται 36
πορ@@ 36
πους 36
πρό@@ 36
τοκ@@ 36
ϋ@@ 36
ώπ@@ 36
Бы@@ 36
До 36
Меж@@ 36
СА@@ 36
армия 36
берг 36
дина@@ 36
коно@@ 36
мат 36
него 36
нова@@ 36
об 36
пен@@ 36
рез@@ 36
река 36
собо@@ 36
сон 36
сса 36
сторо@@ 36
теле@@ 36
тео@@ 36
транспор@@ 36
ус 36
ця@@ 36
ческие 36
ът 36
ѕ@@ 36
Ա 36
آن 36
ادل 36
القر@@ 36
امل 36
سا 36
طي 36
عل 36
فري@@ 36
فل@@ 36
ندي 36
چی 36
अं@@ 36
चंद 36
चार@@ 36
मौ@@ 36
यास 36
लाई 36
समा@@ 36
सिद 36
हन 36
ीन 36
१ 36
ଡ 36
ଡ@@ 36
ଦ 36
ଶ@@ 36
ตร 36
บร@@ 36
รว@@ 36
รัก 36
สำ@@ 36
หัว@@ 36
ัย@@ 36
เป@@ 36
เอ@@ 36
ຣ@@ 36
ቡ@@ 36
ᓄ@@ 36
Ḣ@@ 36
ẖ 36
ẳng 36
ồ@@ 36
⊊ 36
ⵖ@@ 36
万 36
丝@@ 36
乳@@ 36
交 36
俄@@ 36
冶@@ 36
吃@@ 36
吒@@ 36
地区 36
増@@ 36
妮 36
婚@@ 36
婷 36
宜 36
庸 36
扎@@ 36
挑@@ 36
敷 36
昔@@ 36
曇@@ 36
曽@@ 36
术 36
柏 36
标@@ 36
樞 36
毅@@ 36
洛 36
淑 36
渠 36
游 36
湛@@ 36
潤 36
爭@@ 36
甄@@ 36
眾@@ 36
简@@ 36
紗@@ 36
綜@@ 36
腐 36
自己 36
舌@@ 36
舜@@ 36
萨@@ 36
蝴@@ 36
袖@@ 36
襦 36
規 36
謀@@ 36
警 36
譯@@ 36
运 36
返@@ 36
配@@ 36
鐘 36
钢@@ 36
铺@@ 36
限 36
陣 36
陶 36
階@@ 36
非 36
顺 36
饭 36
龐@@ 36
ꦏ@@ 36
골@@ 36
급 36
님@@ 36
맹 36
밤 36
숭@@ 36
승 36
절 36
칠@@ 36
ﻳ@@ 36
Devlet@@ 35
Fransa 35
aguzi 35
bọ 35
fueron 35
lararası 35
línea 35
maları 35
mwen@@ 35
tiên 35
tỉnh 35
viện 35
ünü 35
ışt@@ 35
Ǝ 35
Ə 35
ɘ@@ 35
ʎ@@ 35
ˆ 35
˦ 35
Αθήνα 35
Ελλάδας 35
Κωνστ@@ 35
άνα@@ 35
ίνη 35
ημερ@@ 35
θή@@ 35
ιω@@ 35
οιν@@ 35
ρίας 35
ρν@@ 35
τορ@@ 35
τρο 35
υπο@@ 35
ωβ@@ 35
ане 35
бере@@ 35
все 35
вши@@ 35
дей 35
дение 35
евре@@ 35
ему 35
жда@@ 35
нения 35
низ@@ 35
остро@@ 35
рая 35
ред 35
рё@@ 35
свет@@ 35
син 35
ток 35
чей 35
Ґ 35
ӗ 35
װ@@ 35
أُ@@ 35
الجام@@ 35
المق@@ 35
تخ@@ 35
دس 35
سور@@ 35
عالم 35
عی@@ 35
فرا@@ 35
لاد 35
مون 35
نو 35
وح@@ 35
ڙ@@ 35
ښ@@ 35
ܛ@@ 35
कला@@ 35
गत 35
छे 35
दिन 35
दूर 35
पि 35
यू@@ 35
रिय@@ 35
शं@@ 35
ভ 35
વ 35
ఖ@@ 35
ే 35
กรุง@@ 35
คุ@@ 35
ธรรม@@ 35
ปา@@ 35
ราช 35
ึ@@ 35
เต@@ 35
ใน@@ 35
ဓ@@ 35
ጎ@@ 35
ᐤ 35
ᔭ@@ 35
ặt 35
ᾳ 35
ῳ@@ 35
⁻ 35
⍺ 35
ⵄ@@ 35
ⵉ 35
ⵔ 35
〔 35
〕 35
わ 35
丙@@ 35
並@@ 35
丽 35
倍@@ 35
僧 35
儼 35
准@@ 35
券 35
办@@ 35
卡 35
卷@@ 35
埔@@ 35
娛@@ 35
孩 35
寇@@ 35
峨@@ 35
幌@@ 35
庆 35
庚@@ 35
復 35
改 35
斬@@ 35
旭 35
杰@@ 35
枫@@ 35
歳@@ 35
泡@@ 35
滄@@ 35
滝@@ 35
爸@@ 35
牙 35
琶 35
盈 35
眞 35
禄 35
笔@@ 35
籍 35
絶@@ 35
聽@@ 35
肇@@ 35
胤@@ 35
藍 35
郷 35
鎌@@ 35
铁 35
铭 35
閩@@ 35
隱 35
靳@@ 35
鼻@@ 35
ꜥ 35
ꦫ@@ 35
끝@@ 35
묘@@ 35
발 35
범 35
브 35
슈@@ 35
언 35
완@@ 35
월 35
초 35
혁@@ 35
흥 35
ﺣ@@ 35
𐤋@@ 35
🇨 35
🇷 35
Aralık 34
Tangu 34
akiwa 34
dabei 34
estaba 34
genommen 34
lời 34
như 34
phụ 34
tamam@@ 34
tâm 34
vierte 34
öffentlich@@ 34
Ą 34
Ĉ@@ 34
đội 34
ılar@@ 34
şehr@@ 34
Ǎ@@ 34
̟ 34
Αθηνών 34
Αργ@@ 34
Δήμ@@ 34
Ορ@@ 34
δικα@@ 34
ειρ@@ 34
εω@@ 34
ητής 34
ολόγ@@ 34
πίσ@@ 34
πυρ@@ 34
τυχ@@ 34
χεί@@ 34
ωση 34
ότητα 34
ώρα 34
ал 34
вто@@ 34
губер@@ 34
жения 34
истори@@ 34
кли@@ 34
лед@@ 34
мла@@ 34
нат 34
ологи@@ 34
проек@@ 34
ссо@@ 34
так 34
ческого 34
ҥ 34
զ 34
أس 34
المست@@ 34
المه@@ 34
انگ@@ 34
بان@@ 34
بد 34
بلا@@ 34
بيل 34
تُ@@ 34
جوا@@ 34
خی@@ 34
كار@@ 34
لق@@ 34
مرا@@ 34
ں 34
ंस 34
आत 34
कृत 34
चै@@ 34
डे 34
भाग 34
माता 34
रच@@ 34
लन 34
वक 34
ળ@@ 34
ଭ@@ 34
ష@@ 34
ಂ 34
ಉ@@ 34
ಧ 34
භ@@ 34
กร 34
ขา@@ 34
ปี 34
พา@@ 34
พุทธ@@ 34
ลูก@@ 34
ກ 34
ຂ@@ 34
ີ@@ 34
თ 34
ლ 34
ላ 34
ዕ@@ 34
ᡳ@@ 34
Ẹ 34
Ὠ@@ 34
⑤ 34
◾ 34
づ@@ 34
ボ 34
モ 34
亂 34
互@@ 34
仪 34
伐@@ 34
佩@@ 34
割@@ 34
劳@@ 34
勘@@ 34
厦 34
哈 34
壬@@ 34
处@@ 34
备@@ 34
寅@@ 34
嶼 34
巻@@ 34
帖 34
御 34
拔 34
揭@@ 34
播 34
曼 34
树 34
案@@ 34
楞@@ 34
歸 34
沈 34
洺@@ 34
淵@@ 34
満 34
漁@@ 34
爪@@ 34
現 34
琳@@ 34
穿@@ 34
第 34
箭 34
粟@@ 34
粥 34
糕 34
納 34
織 34
虫 34
蛇 34
蛋@@ 34
蝶 34
衆@@ 34
譚 34
贵 34
趙 34
转@@ 34
遵 34
遷 34
邪 34
闕 34
阴@@ 34
霊 34
頼 34
駅@@ 34
ꦤ@@ 34
굴 34
너 34
담 34
목 34
벌 34
빠@@ 34
션 34
억@@ 34
외 34
웅@@ 34
응@@ 34
잔@@ 34
침 34
𐬌@@ 34
𝄇 34
L&apos; 33
Tarih@@ 33
cô 33
dunia 33
habitantes 33
meye 33
mạng 33
mẹ 33
niversit@@ 33
söz@@ 33
thái 33
triều 33
trên 33
vị 33
watoto 33
yenye 33
yı 33
zweiten 33
ª@@ 33
Ľ 33
Ŋ 33
Ɓ@@ 33
ƛ@@ 33
ȯ@@ 33
ɢ 33
Συν@@ 33
αξι@@ 33
βιβλ@@ 33
διδ@@ 33
δύνα@@ 33
εκ 33
ερν@@ 33
κερ@@ 33
παλαι@@ 33
ραβ@@ 33
σας 33
τιμ@@ 33
ωματ@@ 33
бя@@ 33
ване 33
вия 33
дол@@ 33
жде@@ 33
изда@@ 33
йн@@ 33
ким 33
льно 33
обе@@ 33
памя@@ 33
сни@@ 33
ство@@ 33
сть@@ 33
ших 33
ют 33
ём 33
ռ 33
ازی 33
الفر@@ 33
برو@@ 33
بين 33
تج@@ 33
تون@@ 33
رير 33
شن@@ 33
عط@@ 33
عن 33
مخ@@ 33
نف@@ 33
ولا 33
وني 33
وں 33
ٹو 33
ٹھ@@ 33
ڈی@@ 33
ऐ@@ 33
जे 33
डे@@ 33
देश@@ 33
नाग@@ 33
पार@@ 33
यान 33
यी 33
वरी 33
वाला 33
शर 33
सह@@ 33
हार 33
॒ 33
४ 33
ৎ@@ 33
ਉ@@ 33
ਥ@@ 33
ਦ 33
થ@@ 33
ୀ@@ 33
จา@@ 33
ชิ@@ 33
ปรา@@ 33
สั@@ 33
สี@@ 33
າ 33
ຳ@@ 33
ሃ@@ 33
ሲ@@ 33
ល 33
ᵐ@@ 33
Ḷ 33
ἥ@@ 33
ᾰ@@ 33
ぇ 33
ゐ 33
ビ 33
业 33
丰 33
伸@@ 33
侨@@ 33
冬 33
叉@@ 33
咲@@ 33
垣@@ 33
堡@@ 33
姑 33
娥 33
庙@@ 33
微 33
忍 33
恋 33
悅 33
悟 33
搜@@ 33
操 33
攝@@ 33
栄 33
桑 33
棍 33
楠@@ 33
殊@@ 33
泥 33
渋@@ 33
漆@@ 33
激@@ 33
燧 33
瓊@@ 33
瞿@@ 33
祚 33
禄@@ 33
禧 33
脚@@ 33
腐@@ 33
腹@@ 33
虹 33
袍 33
譯 33
賊@@ 33
辟@@ 33
还@@ 33
迦 33
項@@ 33
駱@@ 33
鳴 33
鹏 33
깨@@ 33
느@@ 33
따@@ 33
떠@@ 33
력@@ 33
록@@ 33
맥@@ 33
빈@@ 33
엄@@ 33
혜 33
𐎼@@ 33
𐤉@@ 33
𒀭@@ 33
🇧 33
bóng 32
cáo 32
hòa 32
localidad 32
nahm 32
nghệ 32
sollte 32
sân 32
sản 32
đã 32
ưỡ@@ 32
ɩ@@ 32
ɴ 32
ʈ 32
ʱ@@ 32
˗ 32
Ερ@@ 32
Πρό@@ 32
αντι@@ 32
είων 32
ελ 32
επι@@ 32
θε 32
κρί@@ 32
κρι@@ 32
λεξ@@ 32
μένης 32
παρα@@ 32
στερ@@ 32
ταμ@@ 32
τεχν@@ 32
Ў 32
Пред@@ 32
бит@@ 32
бре@@ 32
брига@@ 32
был 32
век 32
гат@@ 32
гна@@ 32
груп@@ 32
жан@@ 32
зако@@ 32
ках 32
комму@@ 32
лектро@@ 32
области 32
пара@@ 32
пи 32
прия@@ 32
пут@@ 32
сни 32
спи@@ 32
ствие 32
три 32
удо@@ 32
училище 32
ческой 32
чет@@ 32
шего 32
ята 32
ќ@@ 32
Ӏ 32
آف 32
المغ@@ 32
بو 32
حي 32
رانی 32
سلا@@ 32
شب@@ 32
شریف 32
عد 32
لح@@ 32
لك 32
مغ@@ 32
میر 32
ودية 32
وى 32
پو@@ 32
کش@@ 32
یت 32
खि@@ 32
गौ@@ 32
जग@@ 32
टी@@ 32
नो@@ 32
पक 32
भाषा 32
मद 32
मात 32
षद 32
सिं@@ 32
१@@ 32
ચ@@ 32
ృ@@ 32
ൻ@@ 32
එ@@ 32
นา 32
มุ@@ 32
อิน@@ 32
ူ 32
ሐ@@ 32
ተ 32
ᐢ@@ 32
ᓕ@@ 32
ᛌ@@ 32
ᜇ@@ 32
ᜓ@@ 32
ណ@@ 32
ួ@@ 32
ọa 32
ὤ@@ 32
⊖ 32
々 32
び 32
件@@ 32
依 32
充@@ 32
免@@ 32
內 32
击@@ 32
到 32
叢@@ 32
响@@ 32
喇@@ 32
处 32
娱@@ 32
巖 32
彰 32
批@@ 32
振 32
捷 32
接@@ 32
揚 32
援 32
曰@@ 32
朱 32
样@@ 32
桐 32
桜 32
標@@ 32
歙 32
沼 32
涛 32
爲@@ 32
珊 32
珪 32
瑶@@ 32
疾@@ 32
痛@@ 32
盐@@ 32
矢 32
磐@@ 32
築@@ 32
絳@@ 32
臨 32
范 32
莽@@ 32
蔚@@ 32
藥 32
虛 32
蜀 32
覽 32
訣 32
讀@@ 32
试@@ 32
豬@@ 32
貝 32
財 32
賞@@ 32
賽@@ 32
邨 32
鄒@@ 32
鉢@@ 32
鋼@@ 32
鎖@@ 32
雞 32
雯 32
頂@@ 32
顕@@ 32
频@@ 32
颜@@ 32
餐@@ 32
饼 32
駿@@ 32
鲜@@ 32
鸡 32
ꦭ@@ 32
른 32
송 32
왜@@ 32
책 32
함 32
ﺪ@@ 32
ﺭ@@ 32
＊ 32
＝ 32
🇺 32
Julai 31
carrière 31
cuối 31
cây 31
cơ 31
diği 31
hành 31
hình 31
hóa 31
linois 31
rün@@ 31
sắc 31
thời 31
Ù 31
͠ 31
ήθ@@ 31
ίδες 31
ιακ@@ 31
ιλι@@ 31
μουσ@@ 31
νύ@@ 31
οίκ@@ 31
οργ@@ 31
υνα@@ 31
φυλ@@ 31
Од@@ 31
По 31
ано 31
гон@@ 31
дет@@ 31
край 31
лище 31
мал@@ 31
мили@@ 31
нием 31
нк@@ 31
плани@@ 31
полу@@ 31
пы 31
света 31
сем@@ 31
сли 31
станов@@ 31
том@@ 31
учи@@ 31
это 31
ئی 31
ادی 31
اردو 31
الرو@@ 31
الض@@ 31
المس@@ 31
دية 31
زيد 31
زيرة 31
سين@@ 31
صن@@ 31
لب 31
مجلس 31
مقرا@@ 31
مول@@ 31
واء 31
ً 31
ڭ@@ 31
ہو@@ 31
ށ@@ 31
߫ 31
अप@@ 31
इस 31
चे@@ 31
दास 31
बै@@ 31
लोक 31
विकास 31
ਖ 31
ଙ 31
ଧ@@ 31
ଷ 31
ళ 31
ബ 31
ෝ 31
ฆ@@ 31
จำ@@ 31
ฐ@@ 31
ณฑ@@ 31
ที@@ 31
บุรี 31
รุ@@ 31
อก 31
ີ 31
འ 31
ྦ@@ 31
ሓ@@ 31
Ꭰ@@ 31
ᒋ@@ 31
ᓐ 31
ᜆ@@ 31
ឹ@@ 31
Ḹ 31
ṙ@@ 31
ῑ@@ 31
₀ 31
⊇ 31
◊ 31
☷ 31
ぞ@@ 31
ど 31
ゅ 31
ハ 31
ョ 31
ㅂ 31
丑 31
億@@ 31
儉 31
凱@@ 31
匯@@ 31
午 31
卞@@ 31
向 31
吸@@ 31
告 31
奎 31
妻 31
娃@@ 31
嬴 31
宴 31
寅 31
工程 31
巧@@ 31
序@@ 31
开 31
怡 31
戀 31
持 31
斉@@ 31
斑@@ 31
曜@@ 31
末 31
柿@@ 31
梨 31
棒 31
止 31
毒 31
汇@@ 31
汗@@ 31
涿@@ 31
牡@@ 31
玩@@ 31
瑤 31
瑾 31
百 31
皎 31
禧@@ 31
穂 31
簿 31
茨@@ 31
蒲 31
藩@@ 31
虔@@ 31
衍@@ 31
论@@ 31
貘 31
買@@ 31
贊@@ 31
軒@@ 31
転@@ 31
輯 31
輿 31
辯 31
迪 31
述@@ 31
郢@@ 31
銃 31
電 31
額@@ 31
騰@@ 31
鸟 31
麒@@ 31
默@@ 31
ꞑ@@ 31
까 31
뉴@@ 31
락@@ 31
랜@@ 31
릉@@ 31
삼 31
예 31
온 31
침@@ 31
카 31
홍 31
𐤓@@ 31
󠁹 31
Selon 30
Temmuz 30
ambaye 30
cùng 30
década 30
hộ 30
kazan@@ 30
membre 30
noviembre 30
nying@@ 30
pueden 30
trò 30
vió 30
Ă 30
İlk 30
ımc@@ 30
ướ@@ 30
ǵ 30
ɢ@@ 30
ˊ 30
Υπ@@ 30
ανδρ@@ 30
ασκ@@ 30
ερ 30
ερα 30
κατά 30
κατά@@ 30
μάν@@ 30
μισ@@ 30
ξε@@ 30
πολη 30
στις 30
τια 30
Ў@@ 30
Йо@@ 30
быть 30
виде@@ 30
государ@@ 30
два@@ 30
звез@@ 30
йски 30
кси@@ 30
мъ@@ 30
ней@@ 30
ографи@@ 30
ол@@ 30
полк 30
пси@@ 30
рам@@ 30
сков@@ 30
специ@@ 30
сре@@ 30
среди 30
стве 30
сю@@ 30
тя 30
фу@@ 30
худож@@ 30
чной 30
ѕ 30
ѹ@@ 30
ӱ 30
أص@@ 30
اء@@ 30
افظ 30
افغانستان 30
بال 30
جل@@ 30
جھ@@ 30
سية 30
صح@@ 30
لات 30
مؤس@@ 30
ماني 30
نے 30
يش 30
يوم 30
يون@@ 30
کری@@ 30
کل@@ 30
ڻ@@ 30
ޫ@@ 30
ߞ@@ 30
अभि@@ 30
कै@@ 30
थे 30
फु@@ 30
मत 30
रिया@@ 30
वं@@ 30
शिक 30
सौ@@ 30
ঠ 30
ਪ 30
ટ@@ 30
ય 30
શ@@ 30
ஓ@@ 30
กล 30
พล 30
มิ@@ 30
อั@@ 30
โล@@ 30
ใจ 30
ไห@@ 30
ຕ@@ 30
ົ 30
ཁ 30
ཛ@@ 30
ዊ 30
ᒃ@@ 30
ᠬ@@ 30
ḑ 30
ṡ@@ 30
ặp 30
ựa 30
₄ 30
⅄ 30
⌈ 30
ⲏ@@ 30
ぬ 30
ぷ@@ 30
ェ 30
ダ 30
ヤ 30
么@@ 30
乎@@ 30
低@@ 30
俟@@ 30
俺@@ 30
养@@ 30
券@@ 30
剌 30
喀@@ 30
围@@ 30
圍@@ 30
壮@@ 30
奉 30
始 30
孟 30
害@@ 30
屍@@ 30
左 30
庸@@ 30
徐 30
憶@@ 30
扇@@ 30
捨@@ 30
數 30
昂 30
昧@@ 30
曩 30
杉 30
梧@@ 30
樟@@ 30
橘@@ 30
檀 30
歡 30
毓@@ 30
汶@@ 30
渝@@ 30
湘 30
滩@@ 30
瀛@@ 30
瑩 30
睿@@ 30
筒 30
筠 30
篠@@ 30
籍@@ 30
続@@ 30
縁@@ 30
芬@@ 30
蔡 30
請@@ 30
識 30
贸@@ 30
踊@@ 30
輿@@ 30
轻@@ 30
遂 30
郁 30
酸@@ 30
鋒 30
錄@@ 30
鎭@@ 30
隋@@ 30
障@@ 30
露 30
静 30
題@@ 30
駒 30
결@@ 30
녕 30
되@@ 30
든 30
맹@@ 30
뮤@@ 30
박 30
북 30
살 30
업 30
커@@ 30
품 30
𝄆 30
🇱 30
󠁨 30
Almanya 29
Chúng 29
asında 29
başkan@@ 29
danh 29
diciembre 29
exemple 29
giới 29
membres 29
tenía 29
wenye 29
òa 29
Ƶ 29
ƶ 29
ǜ@@ 29
ʘ 29
ʟ 29
̡ 29
͂ 29
Ή@@ 29
Θεσσαλον@@ 29
Μεγ@@ 29
Πο@@ 29
Σερ@@ 29
ίλι@@ 29
γρ@@ 29
ενός 29
κόμ@@ 29
λεπ@@ 29
μένα 29
μετά 29
ολογία 29
ούδ@@ 29
πλη@@ 29
πολυ@@ 29
ρίς 29
τής 29
τό@@ 29
υφ@@ 29
χειρ@@ 29
χρόν@@ 29
χώρ@@ 29
ώδ@@ 29
Запад@@ 29
Кро@@ 29
блиоте@@ 29
бло@@ 29
българ@@ 29
визи@@ 29
въ@@ 29
исследо@@ 29
история 29
йского 29
ками 29
коле@@ 29
мер 29
мест@@ 29
мета@@ 29
мини@@ 29
ним 29
образо@@ 29
объ@@ 29
око@@ 29
поч@@ 29
прин@@ 29
ред@@ 29
следовате@@ 29
стин@@ 29
уз@@ 29
чина 29
أ 29
أر@@ 29
ابی 29
اح 29
اون@@ 29
تك@@ 29
تم 29
جب 29
رت 29
سام 29
سف@@ 29
عن@@ 29
قية 29
لف 29
مؤ@@ 29
مض@@ 29
ملی 29
مین 29
نڈ 29
وأ@@ 29
وال 29
١@@ 29
ٹی@@ 29
پرو@@ 29
आज 29
आप 29
गढ 29
बार 29
योग@@ 29
रन 29
रू 29
लम 29
हस 29
६ 29
ਣ 29
ସ 29
ୁ 29
ஊ@@ 29
ೋ 29
ഓ@@ 29
ഫ@@ 29
ග 29
ඳ@@ 29
การ 29
คา@@ 29
ฐ 29
นคร 29
ปร@@ 29
เกา@@ 29
ྲ 29
ྷ@@ 29
။ 29
ሚ@@ 29
ሪ 29
ጥ@@ 29
ፋ@@ 29
፤ 29
ᑦ@@ 29
ᛘ@@ 29
ᜈ 29
ខ@@ 29
᮪ 29
ḃ@@ 29
Ὁ@@ 29
ὐ 29
₳ 29
℘ 29
≒ 29
❖ 29
ゥ 29
ヌ 29
ヲ@@ 29
享@@ 29
仑@@ 29
伐 29
伴@@ 29
侃 29
俠 29
允 29
劃 29
匈@@ 29
堤@@ 29
套@@ 29
妈@@ 29
尹 29
尽@@ 29
屈 29
帳 29
庚 29
廚@@ 29
廢@@ 29
彝@@ 29
応@@ 29
戶 29
找@@ 29
抜@@ 29
曙@@ 29
枳@@ 29
棟 29
櫻@@ 29
气 29
汀@@ 29
汉 29
溝@@ 29
煌 29
狩@@ 29
玛 29
禅 29
禺 29
穎 29
篆@@ 29
肇 29
芙@@ 29
苏 29
莱@@ 29
蓉 29
藝 29
蘿@@ 29
詹@@ 29
誥 29
讓 29
貢 29
赫 29
轮@@ 29
込@@ 29
邠@@ 29
郴@@ 29
郵@@ 29
额@@ 29
鴨@@ 29
꿈@@ 29
량@@ 29
러 29
붉@@ 29
손 29
작 29
점@@ 29
패@@ 29
ﻦ@@ 29
ﻬ@@ 29
𐤕@@ 29
󠁰 29
Quận 28
acuer@@ 28
algunas 28
anın 28
cần 28
dịch 28
febrero 28
lendir@@ 28
mô 28
nchini 28
pelí@@ 28
phục 28
thuật 28
viên 28
với 28
 28
đất 28
ĳ@@ 28
ưở@@ 28
ʶ 28
Μάρ@@ 28
Μια 28
ίνου 28
αγι@@ 28
γαλ@@ 28
εθν@@ 28
μάχ@@ 28
μο 28
οσπον@@ 28
ούσ@@ 28
πόλε@@ 28
σίας 28
σκοπ@@ 28
σμα 28
τιν@@ 28
φά@@ 28
φή 28
бле@@ 28
вест@@ 28
вз@@ 28
вос@@ 28
вся@@ 28
гов 28
евро@@ 28
ждения 28
клю@@ 28
кономиче@@ 28
офи@@ 28
рал@@ 28
рес@@ 28
ряд@@ 28
сме@@ 28
става 28
тек@@ 28
уча@@ 28
федера@@ 28
чат@@ 28
ѹ 28
ҧ@@ 28
Ү 28
ӯ@@ 28
Ժ@@ 28
Կ 28
آب@@ 28
إي@@ 28
ئة 28
ائي 28
ائی 28
اخت@@ 28
اع 28
الحر@@ 28
الرح@@ 28
بور@@ 28
تع@@ 28
جة 28
جل 28
خي@@ 28
رو 28
علوم 28
غز@@ 28
فارسی 28
لام 28
مانی 28
مدينة 28
ملک 28
ورية 28
يران 28
٢ 28
ٿ@@ 28
کت 28
ܸ@@ 28
अग 28
औ@@ 28
कवि@@ 28
काम 28
केन 28
टक 28
दि 28
धार@@ 28
पति 28
फा@@ 28
यार 28
विध@@ 28
शब 28
संग 28
सेवा 28
२ 28
५ 28
ঢ 28
ੌ@@ 28
આ@@ 28
ଆ@@ 28
இ 28
ఆ@@ 28
คณะ@@ 28
นัก@@ 28
พัน@@ 28
ราม 28
ษฎ@@ 28
ໂ@@ 28
ჲ 28
ሞ@@ 28
ሮ@@ 28
ሳ 28
ቲ 28
ቸ@@ 28
ᜈ@@ 28
ទ 28
ᴇ@@ 28
ứu 28
ᾱ 28
ᾱ@@ 28
⋀ 28
⌘ 28
☰ 28
ⲡ@@ 28
串 28
伦 28
例@@ 28
僕 28
兮@@ 28
具 28
凱 28
剑 28
労@@ 28
勾@@ 28
厚 28
叡 28
咸 28
哀 28
啤@@ 28
坦@@ 28
夔@@ 28
夕 28
寛 28
尺 28
岁@@ 28
岔@@ 28
帥@@ 28
席@@ 28
帶@@ 28
床@@ 28
廈 28
异@@ 28
张 28
彥 28
循@@ 28
怎@@ 28
愚 28
拍@@ 28
指 28
捕@@ 28
敕@@ 28
敵 28
斷@@ 28
旺 28
杀@@ 28
杜 28
枪 28
桓 28
棣@@ 28
楷@@ 28
汕@@ 28
渾 28
準 28
灵 28
玕 28
琬 28
琶@@ 28
瑟@@ 28
疏 28
矿@@ 28
硬@@ 28
祈@@ 28
穀@@ 28
竜 28
箱@@ 28
系列 28
约 28
羲 28
習 28
荼@@ 28
蓋 28
虔 28
蛋 28
螺@@ 28
補 28
証@@ 28
誓@@ 28
誕@@ 28
诗 28
豊 28
貓@@ 28
費@@ 28
质@@ 28
跃@@ 28
跡@@ 28
辻@@ 28
逃@@ 28
遇 28
邽 28
郭 28
鈞 28
阮 28
険 28
雒@@ 28
韶 28
鵬 28
ꦒ@@ 28
겸 28
벌@@ 28
벽@@ 28
섭 28
젓 28
족 28
취@@ 28
택@@ 28
투 28
품@@ 28
할 28
ﺎ 28
Ａ@@ 28
𑀺@@ 28
𑁆 28
𝛽 28
🇵 28
Japani 27
arabu 27
chương 27
gerek@@ 27
giáo 27
había 27
kaç@@ 27
lạc 27
lại 27
mật 27
ndani 27
những 27
schließ@@ 27
souvent 27
tháng 27
thờ 27
zahl@@ 27
đình 27
để 27
Ĕ@@ 27
ğer 27
ılmış 27
ǭ 27
ɭ@@ 27
ɻ 27
ʝ 27
Αυ@@ 27
έως 27
αντιν@@ 27
αξ@@ 27
ικές 27
λεύθερ@@ 27
μεσ@@ 27
ογραφ@@ 27
οκρατ@@ 27
ορά 27
περί@@ 27
πρόσ@@ 27
τέσσ@@ 27
φερ@@ 27
ϝ@@ 27
Евро@@ 27
София 27
Съ@@ 27
Юж@@ 27
войны 27
гли@@ 27
гру@@ 27
дат 27
дже@@ 27
желез@@ 27
живо@@ 27
лись 27
маши@@ 27
мно@@ 27
ному 27
поэ@@ 27
развити@@ 27
селе@@ 27
скому 27
смер@@ 27
ству@@ 27
тен 27
тие 27
тран@@ 27
шно 27
ӑ 27
Բ 27
أن 27
إلى 27
ابة 27
ارا 27
اسلا@@ 27
انس@@ 27
اور@@ 27
اية 27
تاج 27
تل@@ 27
جد 27
جہ@@ 27
رف@@ 27
شہ@@ 27
صي@@ 27
علی@@ 27
فا 27
فضل 27
قبل 27
قد@@ 27
كم 27
لس 27
لكرة 27
مون@@ 27
نہ 27
هو 27
واحد 27
والم@@ 27
والی 27
وسط 27
وش@@ 27
ڌ@@ 27
ژ 27
گور@@ 27
ܼ@@ 27
݂ 27
ޠ@@ 27
ޭ@@ 27
ߊ@@ 27
ंब@@ 27
णु 27
नक 27
निय@@ 27
पह@@ 27
रं@@ 27
रिया 27
सप 27
મ 27
લ 27
િ 27
ஃ@@ 27
ణ 27
బ 27
ഖ@@ 27
ോ 27
มน@@ 27
ยน 27
ีย 27
เธอ 27
ྱ 27
ྷ 27
၊ 27
ሙ@@ 27
ሴ 27
Ꮝ@@ 27
ᓱ@@ 27
Ụ@@ 27
ᾶ 27
✓ 27
ⲁ 27
ⲃ@@ 27
ⲓ 27
ⲥ@@ 27
ⴷ 27
ⵇ@@ 27
テ 27
ネ 27
ㄴ 27
乔@@ 27
习@@ 27
亚 27
亡 27
仏 27
仪@@ 27
偃 27
冀 27
凌 27
勞@@ 27
匹@@ 27
卒@@ 27
卿@@ 27
厦@@ 27
唄 27
唔@@ 27
地方 27
坐 27
坤@@ 27
坳@@ 27
堆 27
堤 27
壯@@ 27
奔@@ 27
奧@@ 27
奶@@ 27
委 27
岐 27
崖@@ 27
巢 27
從 27
怕@@ 27
愿@@ 27
懸@@ 27
戚@@ 27
执@@ 27
教育 27
旦@@ 27
晶@@ 27
权 27
楠 27
構 27
沉@@ 27
泳@@ 27
涵 27
滎@@ 27
漫 27
炭@@ 27
燃@@ 27
瑰 27
璽 27
瓊 27
病 27
皖@@ 27
磯@@ 27
祇@@ 27
索 27
維 27
组 27
织@@ 27
罕 27
航 27
莽 27
萱 27
蔚 27
虢@@ 27
虫@@ 27
衝@@ 27
裏 27
豫 27
贝@@ 27
贾@@ 27
輸@@ 27
途@@ 27
遥@@ 27
遼 27
鉄 27
銭 27
鐸 27
韜 27
養 27
駆@@ 27
鼠 27
龔@@ 27
ꦗ@@ 27
꧈ 27
ꯥ@@ 27
급@@ 27
떡 27
량 27
례@@ 27
싶@@ 27
쓰@@ 27
완 27
잠@@ 27
쟁@@ 27
피 27
 27
𐬀 27
𐬭@@ 27
𑄟 27
Savaşı 26
Según 26
bất 26
cách 26
dahil 26
devient 26
establec@@ 26
gehör@@ 26
için 26
mình 26
mục 26
sigui@@ 26
tasar@@ 26
thất 26
thắng 26
tên 26
 26
Ï 26
álb@@ 26
ünya 26
đạo 26
địa 26
Ŧ@@ 26
ɵ@@ 26
ˇ 26
̔ 26
Αλεξ@@ 26
Ανατολ@@ 26
γρα@@ 26
δού@@ 26
ειο 26
κοπ@@ 26
πόλ@@ 26
ρη 26
στή@@ 26
φω@@ 26
ωνα 26
όμε@@ 26
Ϝ 26
Фор@@ 26
архи@@ 26
ато 26
водо@@ 26
ген 26
дения 26
жина 26
зии 26
компания 26
ници 26
ново@@ 26
ори@@ 26
пол 26
так@@ 26
тё@@ 26
ѡ 26
Ҳ@@ 26
ջ 26
ֽ@@ 26
اة 26
اره 26
الأح@@ 26
التح@@ 26
الثاني 26
السل@@ 26
المسل@@ 26
انہ 26
بع 26
بغ@@ 26
بول@@ 26
تد@@ 26
جان@@ 26
دوس@@ 26
زم 26
سال 26
غلام 26
غي@@ 26
مركز 26
ندی 26
٢@@ 26
ٽ 26
پور@@ 26
چھ@@ 26
ډ@@ 26
کن 26
گر 26
گز@@ 26
ۀ 26
ہیں 26
अभ@@ 26
आप@@ 26
ङ@@ 26
ताल 26
तृ@@ 26
पुरा@@ 26
मुख 26
रणा@@ 26
रदेश 26
राजा 26
रित 26
विज 26
संघ 26
ीय 26
ृ 26
ौर 26
३ 26
ঘ 26
ੜ 26
ટ 26
ପ 26
ମ 26
ಒ@@ 26
มว@@ 26
ละ@@ 26
ัง 26
เคร@@ 26
ື@@ 26
ໃ@@ 26
ሀ@@ 26
ቅ 26
ደ 26
ዳ 26
ᖏ@@ 26
ជ 26
ᠭ@@ 26
ᤡ@@ 26
ᵑ@@ 26
Ṅ@@ 26
ṷ@@ 26
Ế@@ 26
ᾰ 26
₆ 26
▷ 26
☲ 26
☵ 26
ⲩ@@ 26
ぎ 26
ㅅ 26
ㅡ 26
举 26
乂 26
乗@@ 26
亨@@ 26
亳@@ 26
侠@@ 26
借@@ 26
傑@@ 26
兔@@ 26
冉@@ 26
凉@@ 26
函@@ 26
列 26
刻 26
匡 26
厂@@ 26
參 26
又 26
听@@ 26
啊 26
因 26
坑@@ 26
堯@@ 26
婦 26
宙 26
宰 26
寓@@ 26
寔 26
就 26
尺@@ 26
峻 26
嵐 26
弥 26
彪 26
恒 26
拿@@ 26
杨 26
架@@ 26
椒 26
椒@@ 26
槍@@ 26
樣@@ 26
毋@@ 26
沿@@ 26
洙 26
浄@@ 26
润@@ 26
渤@@ 26
澎@@ 26
猎@@ 26
獣 26
琮 26
璃@@ 26
矩 26
硕@@ 26
票@@ 26
禎 26
窑@@ 26
篤@@ 26
系统 26
緊@@ 26
络@@ 26
编@@ 26
职@@ 26
股 26
脚 26
舉@@ 26
芸 26
苍@@ 26
菊 26
蕃 26
蝦@@ 26
覧 26
諸 26
諾@@ 26
话@@ 26
谁@@ 26
負@@ 26
贡@@ 26
贤@@ 26
载@@ 26
辉@@ 26
辦@@ 26
避@@ 26
鄧 26
釣@@ 26
錯 26
閑@@ 26
雖@@ 26
韦@@ 26
須 26
项@@ 26
驚@@ 26
鲁 26
鳩@@ 26
鸟@@ 26
鹏@@ 26
點 26
齡 26
격@@ 26
굴@@ 26
돈@@ 26
락 26
버 26
봄@@ 26
심 26
워 26
증@@ 26
첩 26
촌 26
클@@ 26
표 26
필 26
ﺒ@@ 26
ﺳ@@ 26
𐤐@@ 26
𐭠@@ 26
𝑡@@ 26
🇮 26
C&apos; 25
ampiyon@@ 25
báo 25
destac@@ 25
doğru 25
especies 25
hielt 25
lerden 25
lệnh 25
thương 25
tır@@ 25
Ĭ@@ 25
ĸ@@ 25
Ř 25
ǃ 25
ǖ@@ 25
ȅ@@ 25
ɽ 25
ɽ@@ 25
ʏ@@ 25
ʐ 25
Ελλάδα 25
ίδας 25
ίες 25
γυνα@@ 25
διακ@@ 25
εων 25
ητική 25
θήκη 25
κέν@@ 25
καλλ@@ 25
μέρ@@ 25
μό@@ 25
νησ@@ 25
ξης 25
ριστιαν@@ 25
σύν@@ 25
φυσ@@ 25
Рабо@@ 25
гимна@@ 25
дек@@ 25
дете@@ 25
дии 25
ено 25
ква@@ 25
кораб@@ 25
луч@@ 25
община 25
оке@@ 25
щение 25
ющий 25
ғ 25
ӓ@@ 25
Է@@ 25
؛ 25
؟ 25
ائية 25
اغ@@ 25
البا@@ 25
باء 25
تض@@ 25
جا 25
دون 25
دین 25
رف 25
رم 25
رہ 25
زل 25
سال@@ 25
سند@@ 25
سک@@ 25
ظم 25
فری@@ 25
قات 25
لك@@ 25
مف@@ 25
مک@@ 25
نط@@ 25
يك@@ 25
٣ 25
ٰ 25
پر 25
ڀ@@ 25
ڊ@@ 25
कू@@ 25
तथा 25
तार 25
बी 25
मिक 25
सै@@ 25
हत 25
ঃ 25
પ 25
ଆ 25
ଗ 25
ో 25
ධ 25
กี@@ 25
งาน@@ 25
ดา 25
ดี@@ 25
ติ 25
โต 25
ູ@@ 25
ᜊ@@ 25
ḕ 25
ḣ@@ 25
Ḳ 25
⁊ 25
ⵍ 25
〗 25
ご 25
バ 25
不 25
且@@ 25
享 25
伏 25
兄 25
凰 25
剌@@ 25
变 25
咪@@ 25
嘗@@ 25
囲@@ 25
堪 25
堯 25
娟 25
嫁@@ 25
嫔 25
孔 25
宅 25
宛 25
宾@@ 25
寬@@ 25
嶽 25
帰@@ 25
库 25
弾@@ 25
录@@ 25
彭 25
徹@@ 25
惑@@ 25
愍@@ 25
懷 25
戈@@ 25
戎@@ 25
授 25
操@@ 25
既@@ 25
昧 25
晋 25
曆 25
曷@@ 25
替@@ 25
杲 25
枚@@ 25
栖@@ 25
様@@ 25
檢@@ 25
歴@@ 25
浚 25
涼 25
湛 25
漠@@ 25
燈 25
狂 25
獄@@ 25
異 25
當 25
睿 25
破 25
磨 25
禾@@ 25
稽@@ 25
窟 25
笙@@ 25
笹@@ 25
緯 25
终@@ 25
聚 25
致 25
芭@@ 25
莞@@ 25
菲 25
营 25
葡@@ 25
蠻@@ 25
衽 25
裳 25
规@@ 25
览@@ 25
認@@ 25
诸@@ 25
豚 25
贤 25
軽@@ 25
載 25
辺 25
迷 25
鄺@@ 25
釜@@ 25
锋 25
闻 25
陈 25
隔@@ 25
雕@@ 25
麿 25
ꦧ@@ 25
균 25
늘 25
른@@ 25
반 25
섬 25
속 25
쇼@@ 25
율@@ 25
찰@@ 25
통 25
ﺁ@@ 25
ﺩ@@ 25
ﻲ 25
𐎠@@ 25
𐬎@@ 25
𐭩@@ 25
𝑒@@ 25
Các 24
Mto 24
aunti 24
awaida 24
açık@@ 24
baada 24
especie 24
hạ 24
isiwa 24
khẩu 24
muziki 24
mùa 24
olup 24
sağ@@ 24
títul@@ 24
tỷ 24
çoğ@@ 24
Ę@@ 24
ıldı 24
ından 24
ķ 24
Ň@@ 24
ườ@@ 24
Ƿ@@ 24
ǿ@@ 24
ȍ@@ 24
ʙ 24
Βουλ@@ 24
άλυ@@ 24
έξ@@ 24
έργ@@ 24
αντί@@ 24
δρά@@ 24
ηλε@@ 24
κλει@@ 24
πεδ@@ 24
στε 24
στολ@@ 24
στρατ@@ 24
τικής 24
τοπ@@ 24
τρου 24
ϊ 24
όλε@@ 24
Њ@@ 24
Бри@@ 24
Рай@@ 24
Спи@@ 24
вдо@@ 24
вид@@ 24
граф 24
древ@@ 24
зо 24
ителей 24
ката 24
кие 24
лата 24
наи@@ 24
нали@@ 24
оба@@ 24
оста@@ 24
рах 24
технологи@@ 24
ху 24
яв@@ 24
Ғ@@ 24
һ 24
Ӧ 24
Ի 24
։ 24
أك@@ 24
الا 24
العالم 24
الفل@@ 24
النس@@ 24
اِ@@ 24
اہ@@ 24
بات@@ 24
تار@@ 24
جی 24
خت 24
دري@@ 24
روس 24
سات 24
شري@@ 24
صف 24
صف@@ 24
فتح 24
معر@@ 24
وط@@ 24
ولي@@ 24
يل@@ 24
ہی 24
ۆ 24
ۈ@@ 24
ێ 24
۩ 24
۵@@ 24
ޔ@@ 24
ߌ@@ 24
ऐ 24
कारी 24
गई 24
गां@@ 24
जान@@ 24
जीवन 24
नै@@ 24
मद@@ 24
माण 24
यु 24
रस@@ 24
हित 24
ঞ@@ 24
ଇ@@ 24
ஜ 24
ఎ@@ 24
ೌ@@ 24
ഹ 24
ൽ@@ 24
ඉ@@ 24
ෂ 24
ความ@@ 24
ชน@@ 24
ดิน@@ 24
อด 24
เอ 24
༽ 24
ཧ@@ 24
ဉ 24
ရ 24
დ 24
ቤ@@ 24
ክ 24
ᓴ@@ 24
ᛋ 24
ᜎ@@ 24
គ 24
ភ@@ 24
ំ 24
៊ 24
ḋ@@ 24
ṓ 24
ἰ 24
ὖ 24
ῡ@@ 24
ℒ@@ 24
⌂ 24
⑦ 24
ⲥ 24
ⲧ@@ 24
ⵃ@@ 24
〇 24
〖 24
ぐ 24
ぴ@@ 24
ぽ@@ 24
ァ 24
串@@ 24
乃 24
亞 24
今 24
件 24
伸 24
佢@@ 24
兼 24
冥@@ 24
勃 24
勵@@ 24
厳@@ 24
及 24
双 24
召@@ 24
吗 24
吟 24
员@@ 24
啦@@ 24
單 24
坑 24
坛 24
埠@@ 24
塾 24
奥 24
婁@@ 24
孤 24
宾 24
寫@@ 24
對 24
崩@@ 24
嶽@@ 24
巳 24
巽 24
巾@@ 24
廊 24
廟@@ 24
弗@@ 24
循 24
惊@@ 24
慎 24
戏 24
户@@ 24
数 24
斛 24
斜@@ 24
昏@@ 24
晏 24
晶 24
樞@@ 24
模 24
添@@ 24
濃 24
犀@@ 24
猛 24
珊@@ 24
瑤@@ 24
看 24
碗@@ 24
禎@@ 24
禦@@ 24
稻@@ 24
突 24
窮@@ 24
綏@@ 24
網 24
綺@@ 24
縛@@ 24
细@@ 24
绝@@ 24
翠 24
臥@@ 24
苟@@ 24
荒 24
葵 24
蘆@@ 24
袋 24
覽@@ 24
讯@@ 24
谐@@ 24
賴 24
踏@@ 24
蹴@@ 24
近 24
遮@@ 24
邁 24
邹@@ 24
釋 24
鑫@@ 24
闘 24
队@@ 24
陕@@ 24
階 24
鞍@@ 24
響@@ 24
頂 24
顶@@ 24
麴@@ 24
麼 24
김 24
널 24
논@@ 24
룹 24
맨 24
먹@@ 24
번 24
색 24
약 24
웅 24
줘 24
짓@@ 24
찌@@ 24
탕 24
프 24
홀@@ 24
ﻗ@@ 24
＞ 24
𐌡 24
𝑖@@ 24
𝓈 24
aldı 23
befin@@ 23
bài 23
chake 23
châu 23
diferentes 23
eció 23
ilgili 23
konnte 23
kurul@@ 23
kıy@@ 23
làm 23
lượng 23
rağ@@ 23
ünün 23
Ĝ@@ 23
Į 23
Į@@ 23
Ń@@ 23
ư@@ 23
Έλλην@@ 23
Ύ@@ 23
Για 23
Σο@@ 23
άρια 23
γαρ@@ 23
γνω@@ 23
γνώ@@ 23
μέρα 23
μέσ@@ 23
μεγ@@ 23
ογέν@@ 23
παί@@ 23
ραφ@@ 23
στη@@ 23
τελε@@ 23
τημα 23
τραγούδ@@ 23
τσι 23
τό 23
χώ@@ 23
Ϲ@@ 23
Ѕ 23
Ї@@ 23
Џ 23
Кита@@ 23
Кла@@ 23
Сред@@ 23
Это 23
аб@@ 23
вро@@ 23
гле@@ 23
дах 23
дент@@ 23
дре@@ 23
ел 23
емы@@ 23
есть 23
ждан@@ 23
женщи@@ 23
компози@@ 23
мето@@ 23
назна@@ 23
песни 23
побе@@ 23
поз@@ 23
помо@@ 23
послед@@ 23
рение 23
сил 23
ската 23
тол@@ 23
тся 23
ций 23
шие 23
що 23
Ң 23
Һ 23
՛ 23
շ 23
اث@@ 23
اذ 23
اسي 23
القي@@ 23
انج@@ 23
اُ@@ 23
بت 23
تحت 23
دائ@@ 23
عت 23
عرب 23
عم 23
لاب 23
مود 23
وع@@ 23
ولد 23
يت@@ 23
ينة 23
٠@@ 23
پنج@@ 23
چی@@ 23
کار 23
کالج 23
उद 23
खण 23
चल 23
डो@@ 23
तरा@@ 23
दक 23
दर@@ 23
धी@@ 23
पै@@ 23
बंध@@ 23
भव 23
मक 23
रख@@ 23
रता 23
रवा@@ 23
रहे 23
ଂ@@ 23
ഭ 23
േ 23
กอง@@ 23
กิ@@ 23
ฏ@@ 23
ฑ 23
ดิ@@ 23
มา 23
มิ 23
ศาสต@@ 23
สี 23
หัว 23
เฉ@@ 23
ບ 23
ຜ@@ 23
ဦ@@ 23
ზ 23
მ 23
ሊ@@ 23
ሎ 23
ኛ 23
ጊ@@ 23
ጠ@@ 23
Ꮃ@@ 23
ᐎ@@ 23
ᛏ@@ 23
ᜓ 23
ᠤ@@ 23
ᵛ@@ 23
ḿ 23
ḿ@@ 23
ṫ 23
Ὁ 23
⁃ 23
⁶ 23
₥ 23
℗ 23
≻ 23
ⲱ@@ 23
ぁ 23
ひ 23
仰@@ 23
住 23
倚@@ 23
偵@@ 23
兜@@ 23
冲 23
凯 23
划 23
剩@@ 23
努@@ 23
卮@@ 23
圈 23
塵@@ 23
壺@@ 23
契 23
娜@@ 23
娥@@ 23
孜@@ 23
層 23
岗 23
带 23
带@@ 23
帽 23
帽@@ 23
庶@@ 23
彈@@ 23
彌 23
彤 23
待 23
忌 23
怀 23
恪 23
悦@@ 23
悼@@ 23
愚@@ 23
慰@@ 23
憶 23
拖 23
拼@@ 23
救 23
敖@@ 23
昂@@ 23
昊 23
晏@@ 23
查 23
梶@@ 23
氷@@ 23
沃@@ 23
沛 23
活 23
涂@@ 23
滇@@ 23
漂@@ 23
濤 23
煙@@ 23
煮@@ 23
爭 23
爷@@ 23
爺@@ 23
爽 23
獄 23
瑶 23
瓌 23
療@@ 23
盈@@ 23
盖@@ 23
祺 23
离@@ 23
秒 23
緑@@ 23
罔@@ 23
胜 23
臧@@ 23
舎 23
莲 23
薇@@ 23
蜘@@ 23
袋@@ 23
貓 23
賜 23
跟@@ 23
跨@@ 23
辣 23
逐@@ 23
遍@@ 23
遙@@ 23
還 23
郊@@ 23
酷@@ 23
鍋 23
鍾 23
閭 23
隐@@ 23
雍 23
頤 23
題 23
颁@@ 23
饮@@ 23
駿 23
Ʞ@@ 23
검 23
꾸@@ 23
끼@@ 23
맞@@ 23
암 23
읽@@ 23
직 23
히 23
히@@ 23
ﬀ@@ 23
ﻢ@@ 23
＋ 23
＜ 23
Ｏ@@ 23
𐎡@@ 23
𐤉 23
𝑜@@ 23
🇰 23
Birleşik 22
beledi@@ 22
gestell@@ 22
gái 22
hữu 22
mtu 22
mặt 22
nhỏ 22
nombre@@ 22
này 22
sır@@ 22
trận 22
tàu 22
términ@@ 22
tại 22
vô 22
zeichnet 22
Ĉ 22
ņ 22
ȃ@@ 22
ʧ@@ 22
ʺ 22
̐ 22
Βαλ@@ 22
έζ@@ 22
ήσεις 22
γεω@@ 22
γραφή 22
δη@@ 22
ειας 22
θεν@@ 22
ισμ@@ 22
ξεις 22
ούμεν@@ 22
σεις 22
τροπ@@ 22
τών 22
Ї 22
Вто@@ 22
Карл 22
ват 22
вена 22
води@@ 22
зма 22
йска 22
когда 22
лось 22
мин@@ 22
море 22
ную 22
обы@@ 22
поселе@@ 22
против 22
ств@@ 22
сце@@ 22
телевизи@@ 22
фон 22
человек 22
шения 22
электро@@ 22
Җ@@ 22
Қ 22
Ծ@@ 22
հ 22
պ 22
֣ 22
أه@@ 22
اط 22
المؤ@@ 22
امیر 22
بري@@ 22
بق@@ 22
بلا 22
تل 22
خل@@ 22
دست@@ 22
زن 22
شک@@ 22
شیخ 22
ضة 22
عائ@@ 22
عليه 22
غر@@ 22
فلسط@@ 22
قبال 22
متح@@ 22
مراد 22
مسلم 22
يه@@ 22
کان 22
گن@@ 22
۲@@ 22
ܹ@@ 22
ݢ@@ 22
ߣ@@ 22
अम@@ 22
कुल 22
टर 22
देख@@ 22
धार 22
बं@@ 22
महि@@ 22
रंग 22
लग@@ 22
हाँ 22
२@@ 22
ூ 22
ตุ 22
พรร@@ 22
วน 22
หาร 22
อบ 22
อิ@@ 22
ฯ 22
ิม 22
เหนือ 22
แดง 22
ຍ 22
ཱ 22
ྩ@@ 22
၂@@ 22
ሌ 22
ቆ@@ 22
ቱ 22
ቲ@@ 22
ኳ@@ 22
ዛ@@ 22
ዲ 22
ጉ@@ 22
ᜃ@@ 22
ᜋ@@ 22
ច 22
ᠮ@@ 22
ᠯ@@ 22
ᠰ@@ 22
ᤠ 22
Ṣ 22
ả@@ 22
ợ@@ 22
℞ 22
Ⅱ 22
⇄ 22
⊤ 22
⑥ 22
☳ 22
✔ 22
ⵛ@@ 22
ㄷ 22
ㅔ 22
丈 22
上海 22
买@@ 22
佘@@ 22
倩 22
共 22
剪@@ 22
勉 22
勐@@ 22
卑@@ 22
参 22
叟 22
哨@@ 22
唵 22
地區 22
培 22
她 22
妖 22
娃 22
媛@@ 22
嬉@@ 22
宪@@ 22
宽@@ 22
導 22
岑 22
峻@@ 22
巖@@ 22
巫 22
广 22
征 22
忘 22
恨@@ 22
懐@@ 22
扬 22
抚@@ 22
披@@ 22
押@@ 22
撤@@ 22
撰@@ 22
攘@@ 22
晚 22
曩@@ 22
柄@@ 22
椎@@ 22
検@@ 22
汤 22
沂@@ 22
泛@@ 22
溝 22
濬 22
焰@@ 22
状@@ 22
瑰@@ 22
畑@@ 22
眉 22
眠@@ 22
着 22
禹 22
粤@@ 22
粿 22
絲 22
綸 22
續 22
纯@@ 22
结 22
续@@ 22
聊@@ 22
職 22
肯@@ 22
脱@@ 22
膳@@ 22
膺@@ 22
舜 22
萩@@ 22
蓄@@ 22
蓉@@ 22
蔭@@ 22
蕃@@ 22
虢 22
蜂 22
裂@@ 22
裝@@ 22
襲 22
视 22
設 22
詰@@ 22
詳 22
謹@@ 22
譙@@ 22
让@@ 22
讲@@ 22
识@@ 22
豚@@ 22
貪@@ 22
賜@@ 22
賣@@ 22
费@@ 22
赤 22
轨@@ 22
迴@@ 22
遗@@ 22
鄆@@ 22
酱 22
錦 22
鑒 22
関 22
陆 22
雁 22
願 22
龜 22
ꦩ@@ 22
ꦶ 22
거 22
결 22
된 22
된@@ 22
때 22
뜨@@ 22
련 22
못@@ 22
묘 22
웃@@ 22
질@@ 22
토 22
풀@@ 22
합 22
황 22
휘@@ 22
ﺤ@@ 22
２ 22
𐤇@@ 22
󠁶 22
además 21
cheza 21
cuales 21
düş@@ 21
eceğ@@ 21
mét 21
nombr@@ 21
parator@@ 21
période 21
seç@@ 21
tạo 21
 21
 21
çoc@@ 21
étant 21
đó 21
độ 21
động 21
Ħ 21
ıya 21
ļ 21
Ŝ 21
ƶ@@ 21
ǥ@@ 21
ǰ 21
ɤ@@ 21
ˋ 21
άμε@@ 21
έχει 21
αυτο@@ 21
δρομ@@ 21
είν@@ 21
κομ@@ 21
μέρος 21
μμ@@ 21
νας 21
οδος 21
πρώ@@ 21
ϝ 21
Во 21
Йор@@ 21
Он 21
века 21
граф@@ 21
дела@@ 21
дна 21
ези@@ 21
имо@@ 21
ител@@ 21
лем 21
лиш@@ 21
мени 21
муж@@ 21
нд 21
нос@@ 21
оте@@ 21
производ@@ 21
противо@@ 21
рения 21
спек@@ 21
стат@@ 21
стей 21
тел 21
тъ@@ 21
хозяй@@ 21
Ѣ 21
ҡ@@ 21
Ր@@ 21
ֵ 21
ئر@@ 21
ابل 21
الأس@@ 21
التر@@ 21
الجن@@ 21
اول@@ 21
اک 21
باد@@ 21
تان 21
تس@@ 21
تون 21
جز@@ 21
جور@@ 21
حق 21
دل@@ 21
دور@@ 21
دول@@ 21
ديد 21
رین 21
زند@@ 21
شر 21
صد@@ 21
صی@@ 21
ضاء 21
طان 21
عام 21
فرو@@ 21
قد 21
مسل@@ 21
نت 21
نت@@ 21
نک@@ 21
واز 21
وان@@ 21
يس@@ 21
ټ@@ 21
پن@@ 21
ڈ 21
کت@@ 21
کل 21
߲ 21
अक 21
एक@@ 21
कं@@ 21
कट 21
काल@@ 21
चर 21
जर 21
टो@@ 21
दिल 21
नदी 21
बन@@ 21
बाद 21
भगवान 21
मूर 21
यव@@ 21
रव 21
रहा 21
रै@@ 21
लिया 21
लों 21
विक 21
षे@@ 21
सब 21
ूल 21
ঢ@@ 21
ଷ@@ 21
ஈ@@ 21
ఘ@@ 21
ధ 21
ళ@@ 21
ಅ 21
ಉ 21
ฎ@@ 21
ตา 21
นว@@ 21
มี 21
ลา 21
แด@@ 21
โก@@ 21
โค@@ 21
ຍ@@ 21
ྨ@@ 21
ါ 21
ግ 21
Ꮒ@@ 21
ᑖ@@ 21
ᒧ@@ 21
ᚢ 21
ᵜ 21
ẁ 21
Ὅ@@ 21
Ὕ@@ 21
∖ 21
⎯ 21
⠑ 21
ⵙ 21
ギ 21
丕 21
个 21
为 21
们 21
作品 21
侦@@ 21
們 21
停@@ 21
働@@ 21
其他 21
凤 21
刁@@ 21
别 21
勗 21
匠 21
匠@@ 21
半 21
卍 21
单 21
卖@@ 21
卢 21
卫 21
卮 21
厥@@ 21
叶 21
呀 21
咄@@ 21
唯 21
喪@@ 21
嚕@@ 21
圆 21
壓@@ 21
壤@@ 21
奚 21
奶 21
妙 21
宥@@ 21
宵@@ 21
寇 21
尋 21
履@@ 21
岁 21
崖 21
巾 21
帯@@ 21
幕 21
廊@@ 21
徵 21
忌@@ 21
惜@@ 21
戈 21
戊@@ 21
戯@@ 21
户 21
拱@@ 21
按@@ 21
挺 21
捕 21
摇@@ 21
擊@@ 21
效@@ 21
敎 21
敖 21
时 21
時間 21
暖@@ 21
曆@@ 21
曜 21
未 21
材 21
束 21
枹@@ 21
橘 21
毎@@ 21
毕@@ 21
沧@@ 21
泊@@ 21
浸@@ 21
液@@ 21
渚 21
潔@@ 21
潛 21
潼@@ 21
灯 21
状 21
瑟 21
瓦 21
瓶@@ 21
生活 21
甸@@ 21
碎@@ 21
碑@@ 21
祠@@ 21
租@@ 21
称@@ 21
穎@@ 21
糖 21
绘@@ 21
翅@@ 21
背 21
脩@@ 21
與 21
茹@@ 21
葵@@ 21
蓬@@ 21
蕉 21
蕩@@ 21
虜@@ 21
蟲@@ 21
蟹@@ 21
蠕@@ 21
衞@@ 21
裔 21
觉@@ 21
訖@@ 21
謂@@ 21
词@@ 21
译@@ 21
请@@ 21
诺@@ 21
调 21
谈@@ 21
貨 21
軟@@ 21
辭 21
辯@@ 21
邯@@ 21
醒 21
醬 21
鈴 21
锦 21
镜@@ 21
閥 21
闪@@ 21
闽@@ 21
零 21
霹@@ 21
须@@ 21
ꦏ 21
ꦔ@@ 21
겠@@ 21
돈 21
막 21
본 21
촌@@ 21
ﺘ@@ 21
﻿ 21
３@@ 21
￡ 21
𐤊 21
𑀲@@ 21
𝛿 21
🇩 21
👁 21
Gebäude 20
Tháng 20
biển 20
caractér@@ 20
chưa 20
condado 20
ezwa 20
kabul 20
khí 20
lâu 20
lễ 20
mientras 20
màu 20
rồi 20
shule 20
später 20
sẽ 20
tiếng 20
xuất 20
 20
đông 20
được 20
ŀ@@ 20
Ń 20
ƞ 20
ǩ@@ 20
ǭ@@ 20
ǯ@@ 20
ȇ@@ 20
Ɂ 20
ɰ 20
̜ 20
Αγίου 20
άλι 20
άνδρ@@ 20
άνω 20
δεύτερ@@ 20
δομ@@ 20
ηρε@@ 20
ιστική 20
κίν@@ 20
μένος 20
μεγαλ@@ 20
μορφή 20
οποι@@ 20
ουσία 20
πλο@@ 20
ρίσ@@ 20
Въ@@ 20
анти@@ 20
были 20
вать 20
вер 20
вно 20
города 20
деся@@ 20
дой 20
жен 20
инте@@ 20
интер@@ 20
контро@@ 20
лах 20
личе@@ 20
медици@@ 20
организация 20
пос@@ 20
пъ@@ 20
рани 20
ските 20
стра 20
тем@@ 20
чело@@ 20
Ҫ@@ 20
Ջ@@ 20
ִ 20
أش@@ 20
ادات 20
ادی@@ 20
الأول 20
الاتحاد 20
الشرق@@ 20
العامة 20
العلوم 20
الفي@@ 20
باز 20
بند@@ 20
جم 20
خار@@ 20
خر 20
داء 20
دری@@ 20
روا@@ 20
روز@@ 20
سج@@ 20
سل 20
طب@@ 20
طل@@ 20
فض@@ 20
لان@@ 20
لہ 20
ماس@@ 20
مری@@ 20
نز@@ 20
ودة 20
ولی 20
يق@@ 20
ٌ@@ 20
ڑی 20
کس 20
ہو 20
ۇ 20
ޙ@@ 20
ߌ 20
ंगे 20
ंच 20
इं@@ 20
करा@@ 20
गम 20
गया 20
गांव 20
घो@@ 20
चु@@ 20
छो@@ 20
जै@@ 20
नर 20
पड 20
पी 20
पौ@@ 20
बल 20
भौ@@ 20
रत@@ 20
वाल 20
षि 20
साथ 20
हिंदी 20
॑ 20
ਇ 20
ਚ 20
જ 20
ળ 20
ଞ 20
ಖ@@ 20
กระท@@ 20
คร 20
จักร@@ 20
ชุ@@ 20
ประชา@@ 20
สน@@ 20
สัง@@ 20
แพ@@ 20
ໍ@@ 20
ဏ 20
ሽ@@ 20
ኖ@@ 20
ጌ@@ 20
ጽ@@ 20
Ꮳ@@ 20
ᜌ 20
ᠪ@@ 20
ᴀ@@ 20
ắp 20
Ἡ 20
ῃ@@ 20
ῐ@@ 20
ῑ 20
‼ 20
⁨ 20
₢ 20
₾ 20
↗ 20
☶ 20
❧ 20
➢ 20
⦁ 20
ⲗ@@ 20
ⲛ 20
ぜ@@ 20
ㅁ 20
ㅐ 20
亥 20
仰 20
佬 20
便 20
倍 20
偷@@ 20
僑 20
冑 20
冨@@ 20
划@@ 20
別 20
勁 20
卜 20
卦@@ 20
卧@@ 20
卯 20
台灣 20
吟@@ 20
否@@ 20
含 20
嗎 20
坎 20
块@@ 20
堆@@ 20
境 20
娣 20
孚 20
完 20
寄 20
寸@@ 20
寻@@ 20
峽@@ 20
帆@@ 20
廈@@ 20
弋@@ 20
弗 20
弾 20
当 20
徵@@ 20
怨@@ 20
恪@@ 20
愉 20
把 20
折 20
拏 20
拘@@ 20
[...]
