de 1
, 1
. 0.9038774444573071
la 1
en 1
el 1
y 1
a 1
&quot; 1
que 1
del 1
los 1
o 1
os 1
as 1
se 1
ó 1
es 1
un 1
por 1
al 1
una 1
ado 1
con 1
las 1
) 0.9170409861698595
( 0.9171256587932012
ación 1
ar 1
su 1
como 1
para 1
ada 1
re@@ 1
El 1
c@@ 1
ía 1
En 1
fue 1
@-@ 0.39251599641905416
in@@ 1
p@@ 1
La 1
al@@ 1
í@@ 1
di@@ 1
ac@@ 1
á@@ 1
ar@@ 1
to 0.42554897242970086
en@@ 1
lo 1
con@@ 1
v@@ 1
an 0.7379505638235739
ales 1
ados 1
an@@ 1
S@@ 0.8939536103963163
C@@ 1
s@@ 0.8042304077526216
no 1
or@@ 1
r@@ 1
era 1
más 1
es@@ 1
ia 1
P@@ 1
u@@ 1
ción 1
: 1
ica 1
ando 1
ó@@ 1
A@@ 1
m@@ 1
ec@@ 1
ente 1
ent@@ 1
er@@ 1
ón 1
o@@ 1
t@@ 0.960464217152706
f@@ 0.9686727840132618
on@@ 1
idad 1
l@@ 1
e@@ 1
ti@@ 1
L@@ 0.8699052939570056
ic@@ 1
ido 1
encia 1
j@@ 1
vi@@ 1
tr@@ 1
E@@ 1
sus 1
qu@@ 1
as@@ 1
M@@ 0.9807503517551424
or 1
est@@ 1
n@@ 0.890985530620878
g@@ 0.9517626072578823
i@@ 1
T@@ 0.9749381924870797
im@@ 1
R@@ 0.9014452844483916
ta 1
at@@ 1
d@@ 0.9206605524474568
do 1
F@@ 0.9265178163877381
per@@ 1
ico 1
ci@@ 1
D@@ 0.7730528583279533
des@@ 1
it@@ 1
ex@@ 1
ab@@ 1
ad@@ 1
oc@@ 1
G@@ 0.8847973763714869
b@@ 0.9411540813703183
cu@@ 1
de@@ 1
un@@ 1
ano 1
em@@ 1
; 1
am@@ 1
adas 1
aciones 1
ur@@ 1
almente 1
ana 1
B@@ 0.7215620813461711
su@@ 1
com@@ 1
ante 1
N@@ 0.8686594934251103
a@@ 1
dos 1
aron 1
e 0.7644365306548975
amente 1
er 0.3411049838038534
le 0.44969637182093863
el@@ 1
entre 1
H@@ 0.7527914121414608
is@@ 1
da 1
ina 1
O@@ 1
il@@ 1
ista 1
par@@ 1
ones 1
z@@ 1
ul@@ 1
h@@ 0.7011863277871828
V@@ 1
ol@@ 1
le@@ 0.9767996995856648
años 1
aba 1
son 1
ch@@ 0.6627796501266232
ador 1
dis@@ 1
eg@@ 1
pr@@ 1
z 1
ro@@ 1
también 1
ores 1
pos@@ 1
Los 1
año 1
ciones 1
esta 1
ot@@ 1
id@@ 1
ag@@ 1
po@@ 1
este 1
car@@ 1
pl@@ 1
ev@@ 1
J@@ 1
ter@@ 1
cor@@ 1
ig@@ 1
io 1
ida 1
y@@ 0.7998178743909357
us@@ 1
et@@ 1
ario 1
é@@ 0.908818566506443
br@@ 1
entes 1
os@@ 1
inter@@ 1
hasta 1
ap@@ 1
A 1
parte 1
li@@ 0.9916179204129605
col@@ 1
antes 1
om@@ 1
co@@ 1
co 1
endo 1
pero 1
av@@ 1
sobre 1
tos 1
án 1
is 0.24687124687367948
on 0.24595387798798066
donde 1
form@@ 1
« 0.7663673979832861
» 0.7664887162864586
ino 1
ha 1
entos 1
um@@ 1
der@@ 1
az@@ 1
rec@@ 1
ir@@ 1
ca 1
Al@@ 1
ya 1
fic@@ 1
s 0.2824579656633056
ser 1
res@@ 1
ob@@ 1
gr@@ 1
ento 1
desde 1
mar@@ 1
gu@@ 1
cre@@ 1
I@@ 0.8435448099398276
tica 1
pu@@ 1
edi@@ 1
án@@ 1
si@@ 1
za 1
pres@@ 1
Con@@ 1
te 0.4747452049395165
á 1
ed@@ 1
pi@@ 1
Se 1
tico 1
jo 1
Est@@ 1
aci@@ 1
ero 1
tor@@ 1
tura 1
us 0.7192615360039555
medi@@ 1
ión 1
durante 1
bi@@ 1
cr@@ 1
af@@ 1
te@@ 1
% 1
ían 1
Ar@@ 1
enc@@ 1
Mar@@ 1
pas@@ 1
ven@@ 1
cul@@ 1
ver@@ 0.5899472660471257
ad 1
isión 1
fr@@ 1
l 0.6521506437279373
1 0.8063055014017921
ito 1
ri@@ 1
estr@@ 1
ciudad 1
pre@@ 1
ra 1
men@@ 1
tiene 1
2 0.8253024355249344
iz@@ 1
í 1
cion@@ 1
iv@@ 1
i 0.7005714038823211
ay@@ 1
K@@ 0.46182188526102214
can@@ 1
icos 1
&apos; 0.6239396995685748
ist@@ 1
ir 1
U@@ 1
au@@ 0.941792642034502
ej@@ 1
aban 1
Las 1
re 1
primera 1
imiento 1
eron 1
después 1
había 1
tor 1
mi@@ 1
ú@@ 1
fer@@ 1
man@@ 1
x@@ 1
está 1
ita 1
all@@ 1
op@@ 0.9934497608056009
In@@ 1
ja 1
entr@@ 1
ñ@@ 1
aj@@ 1
cha 1
rel@@ 1
fueron 1
idades 1
cal@@ 1
eran 1
uno 1
tu@@ 1
ato 1
amiento 1
se@@ 0.7189467796220976
San 1
aje 1
ora 1
end@@ 1
An@@ 0.9614681909179632
/ 0.7898981570782759
cuando 1
mu@@ 1
d 0.3554968996595345
mon@@ 1
apar@@ 1
lleg@@ 1
pos 1
primer 1
Su 1
Ch@@ 0.7735412053447952
cas@@ 1
adores 1
cer@@ 1
so@@ 1
reci@@ 1
ares 1
3 0.842603943957838
aliz@@ 1
ena 1
and@@ 1
otros 1
ov@@ 1
camp@@ 1
és 1
.@@ 1
nombre 1
Com@@ 1
anos 1
W@@ 0.37312025712645563
ici@@ 1
les 0.31131845813247105
eb@@ 1
icio 1
tres 1
st@@ 0.30087764047378274
Z@@ 0.7838729739939836
forma 1
arse 1
sin 1
int@@ 1
idos 1
junto 1
lu@@ 1
por@@ 1
mismo 1
ten@@ 1
población 1
fu@@ 1
go 1
vez 1
va 1
icas 1
eo 1
edad 1
vol@@ 1
hi@@ 1
ef@@ 1
ali@@ 1
dec@@ 1
her@@ 1
public@@ 1
gen@@ 1
ud@@ 1
5 0.8396976828395101
r 1
gran 1
ve 0.46145679999040745
prop@@ 1
realiz@@ 1
cual 1
uc@@ 1
cho 1
tuvo 1
sol@@ 1
puede 1
ro 1
&#93; 1
&#91; 1
Fue 1
ma 1
4 0.8381718878133612
Car@@ 1
Tr@@ 1
in 0.04418582349866537
amb@@ 1
ismo 1
tur@@ 1
gan@@ 1
ce 0.7047230043272678
nacional 1
elec@@ 1
tes 1
tri@@ 1
ut@@ 0.850527354851838
ese 1
ata 1
inc@@ 1
tem@@ 1
familia 1
ez 1
encuentra 1
cl@@ 1
Gu@@ 1
ni@@ 1
ías 1
ne@@ 0.9108432777249571
añ@@ 1
jug@@ 1
ens@@ 1
ant@@ 1
ón@@ 1
illa 1
fun@@ 1
esa 1
Per@@ 1
ber@@ 1
ura 1
istas 1
Par@@ 1
muy 1
así 1
lugar 1
cab@@ 1
mo 1
Y@@ 1
contr@@ 1
reg@@ 1
so 1
contra 1
cur@@ 1
ór@@ 1
pe@@ 1
prim@@ 1
esp@@ 1
sido 1
fin@@ 0.9711233743868216
sec@@ 1
po 1
km 1
cam@@ 1
Es 1
bajo 1
og@@ 1
present@@ 1
ser@@ 1
enta 1
encias 1
n 0.4076625861613739
prot@@ 1
uso 1
arr@@ 1
arios 1
tras 1
sta 1
pro@@ 1
aria 1
of@@ 1
na 1
fund@@ 1
du@@ 1
port@@ 1
ier@@ 1
- 0.6342566611803109
dem@@ 1
t 0.1503668673539099
Re@@ 0.8237395483322555
todo 1
6 0.8589837428776426
od@@ 1
actu@@ 1
equipo 1
trans@@ 1
u 0.6158839041423729
produc@@ 1
Estados 1
ba@@ 1
trabaj@@ 1
sal@@ 1
siglo 1
lí@@ 1
to@@ 0.7324661148968205
ella 1
osa 1
Cor@@ 1
able 0.7679058234117606
tiempo 1
Unidos 1
embargo 1
ental 1
ib@@ 1
bió 1
qui@@ 1
esti@@ 1
comun@@ 1
dio 1
do@@ 1
activ@@ 1
bar@@ 1
The 0.12340447126825561
esc@@ 1
grupo 1
enci@@ 1
estado 1
eta 1
lo@@ 0.548393346433509
han 1
mayor 1
ela 1
eros 1
bu@@ 1
tar@@ 1
día 1
cada 1
lar@@ 1
ís@@ 1
ún 1
ticos 1
err@@ 1
ru@@ 1
peri@@ 1
Le@@ 1
ju@@ 1
serie 1
k@@ 0.22783273989189975
fi@@ 1
I 0.8990853857302418
adi@@ 1
ín@@ 1
dr@@ 1
ás 1
ona 1
isi@@ 1
ho@@ 0.6602739220724821
solo 1
ér@@ 1
llev@@ 1
min@@ 0.8644345735204454
conoc@@ 1
ran@@ 1
soci@@ 1
asi@@ 1
inclu@@ 1
3@@ 0.8328654326853304
Di@@ 1
ah@@ 1
todos 1
España 1
hab@@ 1
Universidad 1
estaba 1
estos 1
cap@@ 1
ular 1
represent@@ 1
m 0.41913779379683597
person@@ 1
ún@@ 1
quien 1
especi@@ 1
ác@@ 1
De 1
ancia 1
tic@@ 1
otras 1
7 0.840897925024737
Mon@@ 1
naci@@ 1
ay 0.854464944179378
bas@@ 1
utiliz@@ 1
gi@@ 0.9468757418203391
én@@ 1
situ@@ 1
ín 1
oci@@ 1
dic@@ 1
serv@@ 1
Nacional 1
ep@@ 0.8780366522583819
des 0.12500651459748838
idas 1
ang@@ 0.5895406043193436
alidad 1
As@@ 1
til@@ 1
direc@@ 1
arg@@ 1
ea 1
cons@@ 1
siendo 1
dist@@ 1
lat@@ 1
También 1
En@@ 1
mo@@ 0.7349217144353377
val@@ 1
und@@ 0.8898475293963384
encontr@@ 1
personas 1
ati@@ 0.8182737284974148
sub@@ 1
8 0.8287590855333532
má@@ 1
municipio 1
ces@@ 1
Es@@ 1
k 0.3377956886186069
prom@@ 1
be 0.3882038276793037
aunque 1
mientras 1
das 0.44751123317926805
inici@@ 1
Or@@ 1
for@@ 0.760259176509913
Á@@ 1
fuer@@ 1
amp@@ 1
particip@@ 1
ticas 1
10 0.8730527407360718
fica 1
17@@ 0.7682977746042187
tanto 1
aqu@@ 1
ece 1
hu@@ 1
oso 1
cos 1
Por 1
no@@ 1
llam@@ 1
ara 1
tivo 1
lanz@@ 1
vida 1
ades 1
nuevo 1
orio 1
puesto 1
ego 1
neg@@ 1
Al 1
inos 1
ición 1
ing@@ 0.8766671077127584
c 0.328618800848365
4@@ 0.866808184210095
temporada 1
país 1
ala 1
ár@@ 1
ra@@ 0.7979120834519009
x 0.6139821985733548
ase 1
eño 1
hacia 1
ori@@ 1
enso 1
18@@ 0.8393911894233818
estas 1
sem@@ 1
final 1
tom@@ 1
si 1
ing 0.07926529930832074
profes@@ 1
ific@@ 1
ren@@ 1
fl@@ 1
alla 1
ografía 1
Ci@@ 1
gobierno 1
atos 1
ama 1
unos 1
públ@@ 1
De@@ 1
ña 1
illo 1
tiv@@ 1
álbum 1
Col@@ 1
general 1
mayo 1
é 0.23115604799745232
apo@@ 1
ología 1
ta@@ 1
aza 1
X@@ 1
nor@@ 1
Juan 1
cat@@ 1
tenía 1
organiz@@ 1
2010 1
consider@@ 1
ás@@ 1
enero 1
dió 1
marzo 1
w@@ 0.173063810733669
Br@@ 0.6665195564212634
sig@@ 1
eza 1
octubre 1
Val@@ 1
septiembre 1
posición 1
ud 1
tel@@ 1
jos 1
atr@@ 1
ari@@ 1
Sal@@ 1
ima 1
Co@@ 0.847621282495136
Sin 1
pal@@ 1
anc@@ 1
historia 1
eció 1
20 0.946654208763837
² 1
h 0.4257378037938708
película 1
— 0.273954256106689
julio 1
total 1
varios 1
eto 1
erra 1
sin@@ 1
9 0.787999195499372
” 1
cá@@ 1
cuatro 1
“ 0.4475209503730135
gener@@ 1
ecto 1
antigu@@ 1
Su@@ 1
junio 1
endi@@ 1
et 0.08844109240826849
emente 1
Cas@@ 1
sur 0.5877604593180965
Historia 1
eras 1
él 1
región 1
eñ@@ 1
&amp; 0.6187578207313265
ard@@ 1
ate 0.3110034554383257
diciembre 1
partido 1
comp@@ 1
ma@@ 0.7030851672909993
ellos 1
habitantes 1
15@@ 1
bre 1
16@@ 0.8383492361585776
ili@@ 1
ga 1
abril 1
eci@@ 1
cant@@ 1
ección 1
Este 1
agosto 1
ect@@ 1
José 1
ofici@@ 1
Un@@ 1
ach@@ 0.441259073323287
Nor@@ 1
yo 1
mad@@ 1
obra 1
especie 1
abor@@ 1
logr@@ 1
igu@@ 1
número 1
metros 1
entonces 1
escu@@ 1
pul@@ 1
ío 1
debido 1
hum@@ 1
med@@ 1
noviembre 1
ell@@ 0.6932400798823257
gres@@ 1
Durante 1
conocido 1
ola 1
algunos 1
polí@@ 1
lam@@ 1
libr@@ 1
ativ@@ 1
mundo 1
pueden 1
agua 1
sim@@ 1
5@@ 0.8313058078870376
vel@@ 1
río 1
arm@@ 1
fico 1
oría 1
ite 0.47686252697480613
luego 1
dad 1
Ro@@ 1
um 0.3184731186712266
E 1
tores 1
ric@@ 1
Qu@@ 1
través 1
tam@@ 1
unci@@ 1
ind@@ 1
onales 1
15 0.9485718224749664
b 0.7700332841542169
lan@@ 1
uni@@ 1
Pr@@ 0.8839580982898029
ución 1
Ac@@ 1
at 0.10763239711771251
vo 1
principal 1
Bar@@ 1
sel@@ 0.9173115332944232
extr@@ 1
Cr@@ 1
nuev@@ 1
además 1
der 0.05724473199044474
Según 1
sistema 1
tras@@ 1
lesia 1
milit@@ 1
12 0.845253157557556
norte 1
pun@@ 1
leg@@ 1
cont@@ 1
cuenta 1
hom@@ 1
C 0.8437213871386446
anas 1
mot@@ 1
II 1
zona 1
aría 1
result@@ 1
ver 0.9018704873862897
febrero 1
of 0.02436268086657731
Cat@@ 1
banda 1
perten@@ 1
2@@ 0.7063647073255236
tro 1
presidente 1
rea 1
Esta 1
Ex@@ 1
empres@@ 1
del@@ 1
rom@@ 1
ez@@ 1
cuer@@ 1
neo 1
Lu@@ 1
guerra 1
isti@@ 1
mit@@ 1
oper@@ 1
tas 1
México 1
ega 1
def@@ 1
emp@@ 1
sión 1
vió 1
otro 1
go@@ 0.8489001614289433
den@@ 1
mat@@ 1
segundo 1
inas 1
ello 1
Am@@ 1
teri@@ 1
Des@@ 1
p 0.41502357438975745
hizo 1
6@@ 0.8595592482318135
partir 1
provincia 1
siguiente 1
agu@@ 1
ológ@@ 1
trabajo 1
ota 1
pe 1
9@@ 0.9960819062530923
tarde 1
osas 1
30 0.9854903562642463
ter 0.23280428438944964
0 1
Inter@@ 1
one 0.26290839735195
ye 1
esto 1
terior 1
fil@@ 1
ania 1
iti@@ 1
trat@@ 1
Po@@ 1
canción 1
están 1
qued@@ 1
proces@@ 1
egos 1
rey 1
tad@@ 1
dej@@ 1
az 1
empe@@ 1
Para 1
bus@@ 1
compañ@@ 1
princi@@ 1
propi@@ 1
loc@@ 1
vis@@ 1
aus@@ 0.5776870817169634
El@@ 1
cio 1
segunda 1
plan@@ 1
Ad@@ 0.81645422596127
dirig@@ 1
bat@@ 1
Mor@@ 1
cier@@ 1
odo 1
estadounidense 1
poco 1
inf@@ 1
largo 1
anza 1
clas@@ 1
nombr@@ 1
ocup@@ 1
Con 1
ge@@ 0.48607161757122974
tienen 1
ió 1
ensa 1
estudi@@ 1
ias 1
dentro 1
acio 1
osos 1
comer@@ 1
rev@@ 1
ería 1
Seg@@ 1
Santa 1
bio 1
den 0.12391183533190596
2011 0.9121134262314301
Can@@ 1
termin@@ 1
bre@@ 1
Pro@@ 1
americ@@ 1
ú 1
onia 1
Pl@@ 1
ug@@ 1
Nueva 1
ajes 1
7@@ 0.8575479568033372
destac@@ 1
tí@@ 1
lic@@ 1
Tor@@ 1
ército 1
señ@@ 1
pen@@ 1
oeste 1
Ju@@ 1
Go@@ 1
ie 0.24888646105083007
carrera 1
ol 1
ley 0.9879363558324341
pa@@ 1
inv@@ 1
vic@@ 1
11 0.8701900897996994
cel@@ 1
Después 1
muerte 1
encuentr@@ 1
María 1
ue 0.4654798610934421
investig@@ 1
Un 1
sa 0.6522481124088743
neces@@ 1
Además 1
ine 0.2665929734431467
anti@@ 1
16 0.9637969958210177
ng@@ 1
autor@@ 1
pin@@ 1
versión 1
continu@@ 1
18 0.8764812907707703
refer@@ 1
super@@ 1
centro 1
ográ@@ 1
Sh@@ 0.7470176799134284
varias 1
rá@@ 1
menos 1
mer@@ 0.7818508160142389
Prim@@ 1
Una 1
vari@@ 1
momento 1
nos 1
ieron 1
obras 1
– 0.19741876650850862
Her@@ 0.8799183863664496
not@@ 1
Pal@@ 1
úl@@ 1
Gr@@ 0.6719062551050489
Is@@ 1
Guerra 1
am 0.26775778385772847
territ@@ 1
che 0.7691688716877618
género 1
fon@@ 1
25 1
dur@@ 1
vuel@@ 1
tipo 1
asa 1
tim@@ 1
14 0.9554085349289342
Pol@@ 0.9255469330876885
eno 1
det@@ 1
Mundial 1
inform@@ 1
ete 1
medio 1
Desde 1
ua 1
oma 1
culo 1
me@@ 0.3756883091409359
prob@@ 1
pan@@ 1
casa 1
Tras 1
mas@@ 1
Se@@ 0.7008191074512305
zo 1
español 1
cial 1
época 1
que@@ 1
quit@@ 1
muchos 1
Ser@@ 1
constru@@ 1
grandes 1
sur@@ 0.6490773575511098
mano 1
dia 1
nueva 1
mes@@ 1
hor@@ 1
13 0.9825528404058733
oll@@ 1
ira 1
fici@@ 1
gol@@ 1
hay 1
B 0.871079729711474
fac@@ 0.8362445289137805
producción 1
hijo 1
atura 1
tera 1
bien 1
inst@@ 1
comenzó 1
elo 1
ble 1
mov@@ 1
idi@@ 1
lado 1
8@@ 0.892271357010272
ual 1
pequeñ@@ 1
anz@@ 1
2012 0.879213439730983
pap@@ 1
último 1
título 1
17 0.994134438362135
ech@@ 1
produ@@ 1
No 1
il 0.21107701614741206
alt@@ 1
mayoría 1
misma 1
blan@@ 1
titu@@ 1
ba 1
otra 1
hace 1
ere 0.9397976808996485
Esp@@ 1
escrit@@ 1
ques 0.620248331415051
según 1
ubic@@ 1
alem@@ 1
tima 1
caus@@ 1
tir@@ 1
St@@ 0.33318649253844995
ño 1
difer@@ 1
2014 0.864988745492375
días 1
importante 1
él@@ 1
cerca 1
2015 0.8795646874453641
bl@@ 0.5510716606909721
Mi@@ 1
ema 1
artí@@ 1
música 1
padre 1
españ@@ 1
icios 1
grab@@ 1
ativa 1
uvo 1
and 0.021188944874757254
19 0.9386066762102596
Entre 1
me 0.523465543558427
2008 0.875441489609951
deci@@ 1
estra 1
itos 1
000 1
poder 1
pios 1
man 0.45566269163763706
diferentes 1
ton 0.5882681554801843
divers@@ 1
Cu@@ 1
ene 0.8531930323146899
manera 1
2016 0.883479415925007
toria 1
ól@@ 1
agr@@ 1
telev@@ 1
ak@@ 0.29798937181848684
tradi@@ 1
jas 1
pon@@ 1
P 0.7820079671039478
localidad 1
mus@@ 0.7399078485717
Madrid 1
frente 1
2013 0.8654285935891073
bo@@ 0.46455507728615253
ándose 1
mis@@ 0.8721196736879187
equi@@ 1
the 0.010447396822271119
íses 1
én 1
ub@@ 1
éx@@ 1
caso 1
escri@@ 1
ible 1
acción 1
N 1
sus@@ 1
línea 1
g 0.2639191316385135
Man@@ 0.7675511852078398
fir@@ 1
mur@@ 1
ord@@ 0.9835120450227196
Estado 1
th@@ 0.15416151646016107
ectos 1
Carlos 1
mejor 1
hecho 1
nivel 1
vieron 1
liber@@ 1
fe@@ 0.7956273625438176
pendi@@ 1
segu@@ 1
seg@@ 1
Francia 1
2009 0.8428399263555137
secu@@ 1
bern@@ 1
primeros 1
pel@@ 1
estruc@@ 1
lad@@ 1
adora 1
crip@@ 1
millones 1
política 1
eleg@@ 1
descu@@ 1
espec@@ 1
cin@@ 1
ge 0.3275399618517717
2007 0.8942577323566498
cir@@ 1
programa 1
construcción 1
alcanz@@ 1
ve@@ 0.9191101280670005
Te@@ 1
écn@@ 1
idente 1
caracter@@ 1
República 1
Argentina 1
pueblo 1
T 0.8419312102613092
crí@@ 1
ior 1
D 0.7236178666526798
convirtió 1
2000 1
teriormente 1
mej@@ 1
Reg@@ 0.7563454095402536
oni@@ 1
mor@@ 1
llamado 1
juego 1
les@@ 1
24 1
ejemplo 1
uer@@ 1
ami@@ 1
igen 0.836654756553894
denomin@@ 1
S 0.764776508338003
alg@@ 1
cual@@ 1
model@@ 1
abr@@ 1
lin@@ 0.5692095331847373
Ver@@ 0.2953194868505596
orden@@ 1
partamento 1
mp@@ 1
haber 1
21 0.9913778793255872
ál@@ 1
cargo 1
je@@ 1
apa 1
cional 1
algunas 1
pobl@@ 1
trop@@ 1
tan 1
enes 1
raz@@ 1
greso 1
cinco 1
arias 1
ult@@ 1
distrito 1
veces 1
Como 1
ill@@ 0.5219495068642367
resp@@ 1
ellas 1
términ@@ 1
vid@@ 1
centr@@ 1
atro 1
Rein@@ 1
2006 0.8642397915666328
son@@ 1
ional 1
todas 1
Mo@@ 0.6824207178224083
anta 1
2018 0.8179523677328651
Cal@@ 1
hac@@ 1
nu@@ 1
ís 1
capital 1
dedor 1
aña 1
club 1
administr@@ 1
miembros 1
sigui@@ 1
establec@@ 1
14@@ 0.838209789848067
conocida 1
cuales 1
década 1
Bo@@ 0.5523336942101802
finales 1
rot@@ 1
gar@@ 1
Ig@@ 1
enti@@ 0.4889718411067282
desarrollo 1
pol@@ 1
iendo 1
ital 1
echo 1
Ma@@ 0.835145577144091
1@@ 0.6572783451125698
Ber@@ 0.7940027157650348
22 1
habían 1
punto 1
ciud@@ 1
oto 1
mujeres 1
conserv@@ 1
celebr@@ 1
oria 1
O 0.8514554512195954
compr@@ 1
tro@@ 0.8074870503637541
cambi@@ 1
declar@@ 1
partidos 1
hacer 1
tamente 1
imi@@ 1
M 0.786384952285798
ables 1
Gar@@ 1
Biografía 1
Luis 1
constitu@@ 1
influ@@ 1
orden 1
if@@ 0.5944468489608773
ed 0.0308842207529045
2017 0.8105522921519598
ecu@@ 1
23 1
Uni@@ 1
pesar 1
base 1
º 1
unda 1
director 1
actual 1
1.@@ 1
cru@@ 1
mant@@ 1
disput@@ 1
oro 1
V 1
gru@@ 1
udi@@ 1
hist@@ 1
lem@@ 1
Mus@@ 1
defin@@ 1
probl@@ 1
interpret@@ 1
ers 0.12095084767962798
ubicado 1
tal@@ 1
onio 1
ne 0.2483325582159367
culos 1
estudio 1
Ti@@ 1
Ge@@ 0.6632739996974236
voc@@ 1
enas 1
ago 1
Alem@@ 1
Pu@@ 1
unas 1
siguientes 1
toda 1
Fern@@ 1
puer@@ 1
ativo 1
Francisco 1
tex@@ 1
especies 1
principales 1
Ing@@ 1
anim@@ 1
ni 1
cuar@@ 1
10@@ 0.6894240571477369
estudios 1
económ@@ 1
ph@@ 0.2210724407170516
13@@ 0.7980594466195227
emas 1
casi 1
ases@@ 1
ísticas 1
L 0.6034535870647246
din@@ 1
res 1
Europa 1
eles 1
div@@ 1
ich@@ 0.47732159183818906
miembro 1
adamente 1
mar 1
quier 1
acto 1
Chile 1
uy@@ 1
Soci@@ 1
alre@@ 1
agon@@ 1
ños 1
For@@ 0.6323089402741335
bur@@ 1
igo 1
bel@@ 0.5712142112834246
Copa 1
emb@@ 1
frances@@ 1
incluy@@ 1
inglés 1
alista 1
cas 1
condado 1
ler@@ 0.6627424065193281
2019 0.7987570411467454
pio 1
có 0.7464246464414026
desarr@@ 1
fútbol 1
proyecto 1
perman@@ 1
categ@@ 1
hombres 1
50 0.9181834441150576
rit@@ 1
acuerdo 1
Cuando 1
Campeonato 1
domin@@ 1
zas 1
Me@@ 0.7980339158035102
só@@ 1
bor@@ 0.9649058784446717
parti@@ 1
eti@@ 1
pes@@ 1
ins@@ 0.7617533811760777
có@@ 1
compl@@ 1
nom@@ 1
tener 1
pre 1
irse 1
obten@@ 1
integr@@ 1
put@@ 1
inclus@@ 1
tiva 1
brit@@ 1
uta 1
porte 1
C. 1
cer 1
v 0.7422602934955078
Club 1
eng@@ 0.40491387338533613
2005 0.8914235095813062
_ 0.7055962067565766
nac@@ 1
Be@@ 0.36198085925644835
abil@@ 1
Ter@@ 1
Feder@@ 1
proxim@@ 1
var@@ 1
onal 0.858334191735131
III 1
fre@@ 0.6433998584062341
Pres@@ 1
ectiv@@ 1
Vi@@ 1
ast@@ 1
At@@ 1
Partido 1
aca 1
28 1
mos@@ 1
fal@@ 1
origin@@ 1
depor@@ 1
bres 1
retir@@ 1
educ@@ 1
str@@ 0.34904246685422236
f 0.2741657111451625
bier@@ 1
sit@@ 1
indi@@ 1
w 0.24515190624143593
leng@@ 1
ard 0.3277038849595326
Gal@@ 1
edit@@ 1
York 0.8132310853482096
ministr@@ 1
26 1
tec@@ 1
aga 1
ment@@ 1
bal@@ 1
tió 1
esper@@ 1
ense 1
27 1
F 0.7350548739999884
numer@@ 1
he@@ 0.30566190997489967
conver@@ 1
firm@@ 1
princip@@ 1
capac@@ 1
ster@@ 1
anda 1
asc@@ 1
premi@@ 1
dens@@ 1
rez 1
ardo 1
proc@@ 1
$ 0.9714112190221854
alm@@ 1
Fr@@ 0.7621724861755618
Em@@ 1
imo 1
ning@@ 1
vir@@ 1
R 0.6774127204545117
Cl@@ 1
Th@@ 0.27917803648892897
much@@ 1
tra 1
mag@@ 1
aut@@ 1
tir 1
cri@@ 0.9060358189432492
pot@@ 1
Antonio 1
mil@@ 1
la@@ 0.41155418276122346
tal 1
Dem@@ 1
color 1
exist@@ 1
ave 0.9018467510578175
ce@@ 0.9636233195707055
Pedro 1
adr@@ 1
ustr@@ 1
San@@ 1
plic@@ 1
Im@@ 1
To@@ 1
vers@@ 1
rest@@ 1
dice 1
respon@@ 1
franc@@ 1
aband@@ 1
patr@@ 1
Real 1
fin 1
moder@@ 1
dado 1
Premi@@ 1
Amér@@ 1
Camp@@ 1
2020 0.7411428598364327
Pe@@ 0.9333889261502964
Gran 1
perior 1
ha@@ 1
2004 0.8512500248376583
cost@@ 1
dar 1
Bel@@ 0.9117821782336022
be@@ 0.16332438213419123
met@@ 1
hon@@ 1
arte 1
amp 0.5001309025639014
Ir@@ 1
erte 1
eli@@ 1
expl@@ 1
docum@@ 1
expres@@ 1
compos@@ 1
prov@@ 1
habit@@ 1
0,@@ 1
ong@@ 0.5781061119995267
superficie 1
enz@@ 1
nav@@ 1
eca 1
40 0.9124611260104023
sac@@ 1
12@@ 0.694590560163468
merc@@ 1
División 1
eh@@ 0.3163323221354895
Ed@@ 1
itali@@ 1
General 1
ide@@ 1
uerto 1
doc@@ 1
elem@@ 1
institu@@ 1
0.@@ 1
Fin@@ 1
rí@@ 1
regi@@ 1
comb@@ 1
sc@@ 0.6324494397110313
identi@@ 0.9799919667468626
importantes 1
Nu@@ 1
29 1
condi@@ 1
ban@@ 0.9216114361701471
ger@@ 0.559493560510895
dol@@ 1
complet@@ 1
ont@@ 1
cop@@ 1
contin@@ 1
sen@@ 0.8211565169333594
últim@@ 1
gen 0.9086596927798217
uela 1
ie@@ 0.4993722993756872
plant@@ 1
icia 1
edr@@ 1
Centr@@ 1
xim@@ 1
epis@@ 1
isis 1
Cam@@ 1
uel@@ 1
bol@@ 1
Jo@@ 1
clu@@ 1
So@@ 0.7402252166935673
registr@@ 1
liter@@ 1
vent@@ 1
idae 1
par 0.16915677324286876
ré@@ 0.2233871544585981
Mat@@ 1
Institu@@ 1
100 0.8514016632836582
éc@@ 1
Ros@@ 1
ou@@ 0.3006885147466017
distribu@@ 1
mes 1
dir@@ 1
original 1
dose 1
famili@@ 1
Liga 1
fab@@ 1
cip@@ 1
priv@@ 1
musical 1
enda 1
fall@@ 1
sum@@ 1
istr@@ 1
rio 1
mun@@ 1
eso 1
natur@@ 1
Buenos 1
Mal@@ 0.9025743955776133
Ab@@ 0.38992858209292347
novel@@ 1
mé@@ 0.9738668739370351
sab@@ 1
separ@@ 1
afir@@ 1
ende 0.9308038651866583
Aires 1
Mag@@ 1
John 0.6098907953652424
Li@@ 0.6222275956329208
ca@@ 1
mand@@ 1
program@@ 1
Bol@@ 1
Rec@@ 1
aur@@ 1
Alg@@ 1
tre 0.5743103315401921
sh@@ 0.22160425600090786
ila 1
2.@@ 1
ü@@ 0.41156841678193845
Sol@@ 1
jun@@ 1
alis@@ 0.7916800661698876
muj@@ 1
cad@@ 1
cli@@ 1
2003 0.8867833607496628
ae 1
avi@@ 1
empl@@ 1
ern@@ 0.9870728911131068
° 1
ierra 1
tend@@ 1
Mer@@ 1
0@@ 0.8153559641066437
observ@@ 1
partic@@ 1
Rus@@ 0.7549968517691641
deb@@ 1
Manuel 1
prec@@ 1
ein@@ 0.1983432545593747
may@@ 1
Sp@@ 0.43502153598552507
Min@@ 0.6574612082401433
acc@@ 0.4212930365016019
Sur 1
media 1
ax@@ 1
bo 1
aya 1
azo 1
religi@@ 1
car 1
ale 0.18682117932321976
uro 1
ok@@ 0.386156169200211
pa 1
yen 1
Italia 1
ka 0.7275455657025762
dez 1
mb@@ 1
signific@@ 1
central 1
ance 0.22252076032674142
comenz@@ 1
igi@@ 1
Ale@@ 1
Ram@@ 1
mem@@ 1
viol@@ 1
bot@@ 1
senti@@ 1
don@@ 1
Tur@@ 0.8068329820828077
ace 0.48955254574794016
2001 0.8248366516498999
ice 0.3152736085274026
31 0.9648508410795632
Ne@@ 0.49912159673912027
ien@@ 1
uda 1
cit@@ 1
Ri@@ 1
bit@@ 1
ik@@ 0.3651061056116436
social 1
Deb@@ 1
fo 1
ign@@ 0.4842065533499721
mal@@ 1
local 0.9485555139333836
vo@@ 0.4957764012547777
tan@@ 0.98648478276094
histori@@ 1
edo 1
sir@@ 1
elimin@@ 1
ch 0.21834405614480254
vot@@ 1
gal@@ 1
-@@ 0.9742560675884351
bir 0.6733698027673376
tempor@@ 1
secre@@ 1
orial 1
exten@@ 1
fron@@ 1
Ben@@ 1
2002 0.8046006275145564
sea 1
alim@@ 1
desc@@ 1
matr@@ 1
inten@@ 1
recu@@ 1
long@@ 1
Cap@@ 1
Barcelona 1
ion@@ 1
into 0.3140077334364082
cia 1
Oc@@ 1
pedi@@ 1
Mu@@ 1
control 1
aja 1
gri@@ 1
aer@@ 1
Sch@@ 0.17000500389211853
lev@@ 1
berto 1
fem@@ 0.877008166121378
determin@@ 1
Santiago 1
oy@@ 0.6820294714627811
,@@ 1
abri@@ 1
jur@@ 1
conc@@ 1
proy@@ 1
1,@@ 0.9053253836793146
Cer@@ 1
bri@@ 1
exper@@ 1
europ@@ 1
aco 1
ell 0.42911011927706944
ret@@ 0.923258973068846
Lo@@ 0.8062468026131998
X 1
tra@@ 0.8161677053159756
U 0.7341991313853239
É@@ 0.7071995240720482
Pas@@ 1
amar@@ 1
Conse@@ 1
jer@@ 1
Rod@@ 1
60 0.964015160348196
tes@@ 1
dir 1
aliza 1
Bal@@ 1
candid@@ 1
Carr@@ 1
oblig@@ 1
propor@@ 1
ust@@ 1
tural 1
isten 1
ús@@ 1
iles 1
óm@@ 1
Cru@@ 1
arti@@ 0.8758514200821536
graf@@ 1
visit@@ 1
Sec@@ 0.8385767359484484
fot@@ 1
Hu@@ 1
obj@@ 1
1990 0.9155475788029271
ick 0.513161416437726
ini 0.8202885460488367
occ@@ 1
ces 0.45853972433542295
2021 0.7357214605545853
acional 1
ton@@ 1
onom@@ 1
conten@@ 1
dedic@@ 1
Nav@@ 1
Pi@@ 1
Mad@@ 1
! 0.7625226630137549
iller@@ 1
Jap@@ 1
inde@@ 1
Fu@@ 1
rup@@ 1
1999 0.8482861023454624
usa 1
formula 0.5937324788917486
vec@@ 1
incorpor@@ 1
uch@@ 0.7117257548482108
unca 1
ept@@ 1
lar 1
Fran@@ 0.9081964652712748
tín 1
Migu@@ 1
ai 0.5644360761696914
Bur@@ 0.6513888323699356
capit@@ 1
ang 0.43287413663067686
... 1
org@@ 1
fol@@ 0.5448674464153567
ler 0.34189984569905824
popular 1
uz@@ 1
2,@@ 1
sor@@ 0.7963941967817896
Gi@@ 0.9391956497593098
vil@@ 1
leo 1
pat@@ 1
it 0.0617841415296816
act@@ 1
univers@@ 1
are 0.09187916319158043
eda 1
pil@@ 1
Pa@@ 1
cine 1
once 1
personal 1
Mur@@ 1
vil 1
Hol@@ 0.647836962758929
mas 1
ayo 1
pens@@ 1
figur@@ 1
80 1
Munici@@ 1
ass@@ 0.1775325520268692
ump@@ 1
versi@@ 1
gar 1
Fl@@ 0.6372761799879361
real 1
Cul@@ 1
san@@ 1
feder@@ 1
anci@@ 1
import@@ 1
ao 1
kil@@ 1
ey 0.5829542097014639
fus@@ 1
Jor@@ 1
Har@@ 0.6439233678502242
He@@ 0.40505951391277917
bil@@ 0.4553185740205342
ais@@ 0.968812211974116
Res@@ 0.7965602953590804
bierno 1
Si 1
aves 1
ich 0.43881867638870364
acces@@ 1
Ho@@ 0.8607040640532965
Bor@@ 0.9172420484798148
descri@@ 1
Bi@@ 0.7244990342711426
rem@@ 0.7447304730954014
Por@@ 1
dest@@ 1
Juli@@ 1
Colomb@@ 1
popul@@ 1
estim@@ 1
Pan@@ 1
titul@@ 1
mol@@ 1
Vic@@ 1
municip@@ 1
Tri@@ 1
asp@@ 1
di 0.7638221994041907
Nic@@ 1
isl@@ 1
fut@@ 1
actor 1
ner 0.25680843645973145
japon@@ 1
jus@@ 1
úa 1
agen 1
tin@@ 1
1998 0.8549605774412637
inaug@@ 1
atur@@ 1
natural 1
imp@@ 1
sp@@ 0.18088626464503624
Mil@@ 1
fam@@ 1
zon@@ 1
allas 1
Brasil 1
ambi@@ 1
iro 1
ges@@ 0.5316553999130417
by 0.04331799199810904
acu@@ 1
onal@@ 1
isa 1
resid@@ 1
dial 1
uti@@ 0.776209220246351
red@@ 1
establ@@ 1
energ@@ 1
Distribu@@ 1
Ger@@ 0.5137276883553015
mara 1
pequ@@ 1
limit@@ 1
abaj@@ 1
China 1
concep@@ 1
equ@@ 1
Rom@@ 1
Aut@@ 1
positi@@ 0.9733552510349402
Vir@@ 1
nea 1
ormente 1
usi@@ 1
ben 0.7078884924560335
Ob@@ 1
Med@@ 1
ote 0.6884970686306418
1980 1
ong 0.5062065180021157
plat@@ 1
Londres 1
design@@ 0.8763402926853238
Bu@@ 1
ff@@ 0.24950510973823808
onz@@ 1
ement@@ 1
Y 1
mig@@ 1
Tel@@ 1
band@@ 1
Bat@@ 1
dom@@ 1
inal 1
tar 1
sil@@ 1
dig@@ 0.803116858268902
log@@ 1
Cab@@ 1
185@@ 0.738649119585805
ender 1
eter@@ 1
grande 1
anes 1
Medi@@ 1
bos@@ 1
70 1
IV 1
1996 0.8779012902990063
nov@@ 1
adap@@ 1
consid@@ 1
Sant@@ 1
ordin@@ 1
oles 1
prepar@@ 1
Dis@@ 1
G 0.6426176710028557
ur 0.28657833660469423
oh@@ 0.6279034061040268
viv@@ 1
ben@@ 0.8218051338976471
mez@@ 1
Gran@@ 1
provin@@ 1
fes@@ 1
Hab@@ 1
tros 1
sexu@@ 1
Ori@@ 1
Liber@@ 1
Mc@@ 0.6444842840419194
libre 1
pelí@@ 1
liga 1
ango 1
1997 0.8539750555583373
som@@ 1
tific@@ 1
oca 1
up@@ 0.467108389465819
tig@@ 0.5511738526961019
iste 0.9332047328041586
bol 1
aw@@ 0.3107689920947538
1995 0.888975513350079
futbol@@ 1
Ste@@ 0.5658161107613289
adel@@ 1
mente 1
bles 1
Der@@ 1
Venez@@ 1
tario 1
idea 1
1992 0.868218043310493
land@@ 0.6646998757699911
conqu@@ 1
partici@@ 1
compar@@ 1
id 0.3627125635244537
Fre@@ 0.42166350809256625
au 0.0885227183368694
art@@ 1
20@@ 0.6046387809435702
sistem@@ 1
competi@@ 1
tab@@ 1
ven 0.7169200715413085
flu@@ 1
90 1
3.@@ 1
desarrol@@ 1
ron@@ 1
Jes@@ 1
chil@@ 1
aster@@ 1
Ag@@ 1
respons@@ 1
land 0.1986084206382121
aque 1
ee 1
lug@@ 1
hid@@ 1
Er@@ 0.21476985592600978
mal 0.9145782329823526
fri@@ 0.7600963857778787
financi@@ 1
XIX 1
ref@@ 1
ore 0.4026422018585611
dar@@ 0.571987846694234
1994 0.8638313101941454
California 1
conduc@@ 1
tul@@ 1
ak 0.40760387154505484
ti 0.6694543945934553
= 0.5542681760312747
len@@ 0.9441380955453459
eri@@ 1
Sil@@ 1
Tom@@ 1
similar 1
aller@@ 1
per 0.42864333281161643
comple@@ 0.9334700343783371
auto@@ 1
autom@@ 1
Ang@@ 0.5359647995788619
entras 1
ª 1
aire 0.320663980911515
jud@@ 1
Europ@@ 1
van 1
pad@@ 1
ines 0.537080839410419
XX 1
ilio 1
ilit@@ 1
Central 1
forme 1
Si@@ 0.5674548564123039
Fer@@ 1
dav@@ 1
constr@@ 1
1970 0.9999144744885465
let@@ 0.5600201642296588
Patr@@ 1
restaur@@ 1
ath@@ 0.2589498551659563
radi@@ 1
ros@@ 0.9254613405189634
ul 1
tron@@ 1
ener 1
dor@@ 1
1991 0.8333210105505793
tot@@ 1
carr@@ 1
Q@@ 0.7911949389454997
dan 1
excep@@ 1
lia 1
artist@@ 1
35 0.9239754316534967
ah 0.6248774683757083
Gru@@ 1
gio 1
útbol 1
fran@@ 1
har@@ 0.5494600209888292
Ur@@ 0.9134102257338225
aten@@ 1
ek@@ 0.20638077682842157
gt 0.3145597545271653
odi@@ 1
uv@@ 0.9020071789145852
rech@@ 0.8743186148284144
cal 1
David 0.9628157650228613
H 0.7431696286742595
adop@@ 1
cm 1
Du@@ 1
mec@@ 1
Roma 1
ole 0.7776527547547928
1993 0.8434795865055136
Ni@@ 1
amér@@ 1
ation 0.036546226538473815
signi@@ 1
gl@@ 0.6811983708860738
Academ@@ 1
ent 0.05300200495422723
red 0.21572773798101177
Mas@@ 0.6913486399344129
Festival 1
Dr@@ 0.7327070734660971
tit@@ 1
Arm@@ 1
rique 1
all 0.12848191805524192
mús@@ 1
polic@@ 1
ical 0.2524158404916654
manif@@ 1
Constitu@@ 1
Fil@@ 1
Ren@@ 1
Hon@@ 1
ele 0.6753501310067194
Direc@@ 1
200 0.9350955670440947
guit@@ 1
May@@ 1
ans 0.14357284932457368
im 0.06344531805269915
ides 0.8091156912779552
ava 1
Wil@@ 0.6413698036755879
but@@ 1
ple 0.5639576952598844
sa@@ 0.3192634170975525
’ 0.08489618312654593
Mac@@ 1
contribu@@ 1
ram@@ 1
econom@@ 1
lig@@ 0.8676272400821379
lt 0.4150513449692007
ense@@ 1
pis@@ 1
Dom@@ 1
amo 1
ingo 1
indic@@ 1
Del@@ 1
industri@@ 1
clus@@ 1
Lor@@ 1
ot 0.4380192619168544
Hor@@ 1
Bre@@ 0.8876712390179291
temper@@ 1
olo 1
video 1
Pre@@ 0.7850027377864569
ile 0.20620610176788035
cultur@@ 1
ond@@ 0.4287463619866281
minut@@ 1
3,@@ 1
eonato 1
1989 0.850443329366413
ras@@ 1
favor@@ 1
ai@@ 0.5183883116007132
ann@@ 0.2133413145953943
Luc@@ 1
lab@@ 0.9969877590291242
déc@@ 0.6224153189415994
abe 1
etc. 1
astr@@ 1
material 1
onto 1
mir@@ 1
00 1
óg@@ 1
ém@@ 1
unc@@ 0.47436967131177044
gir@@ 1
suc@@ 1
reduc@@ 1
Chi@@ 0.9862493008286602
New 0.19502324528128767
respectiv@@ 1
+ 0.9102926860320784
embar@@ 1
ext@@ 1
ede 1
FC 0.8681238725604955
const@@ 1
&#124; 0.8834900984489279
debut 1
instrum@@ 1
Saint 0.4563712862375734
cep@@ 1
1960 0.9671025674377741
Ay@@ 1
combin@@ 1
Char@@ 0.5636438307896804
convir@@ 1
Leg@@ 1
Sim@@ 1
mul@@ 1
ens 0.17307097477385627
egr@@ 1
Fac@@ 1
Cre@@ 0.9490591865579271
requ@@ 1
crit@@ 1
est 0.03428464433648313
Bro@@ 0.648512780677194
tribu@@ 1
ité 0.24964646393228934
mm 1
organ@@ 1
184@@ 0.7564636305660987
500 0.9579457334811236
Fi@@ 0.8803645735387603
tru@@ 1
Hum@@ 1
trad@@ 1
Mel@@ 1
did@@ 1
Hi@@ 1
estig@@ 1
j 1
hib@@ 1
Jus@@ 1
modi@@ 1
rock 1
nam@@ 0.35581210210059205
frag@@ 1
Vill@@ 1
ates 0.23652631592975282
vin@@ 1
bes 1
blo@@ 1
sup@@ 0.40837538165147186
A. 1
aro 1
Australia 0.9277260551709989
ses@@ 1
Vil@@ 1
Minister@@ 1
Sar@@ 1
experi@@ 1
32 0.8734107405730996
emper@@ 1
Mun@@ 1
aud@@ 1
iliz@@ 1
Mis@@ 0.8747968811942626
conv@@ 1
radio 1
1988 0.8344984419145637
Bas@@ 0.6876292302864414
civil 1
berg 0.45686343570489185
TV 0.6962065704610974
Lat@@ 1
Mos@@ 0.9234600040480786
inspir@@ 1
struc@@ 0.4907997903454157
India 0.9231423621207057
ic 0.1291003285306785
materi@@ 1
cent@@ 1
etes 1
ip@@ 1
eria 1
K 0.6139414799075417
? 1
Mont@@ 1
list@@ 0.715323448205214
ism@@ 1
fig@@ 1
cil 1
art 0.24634489830728248
ey@@ 0.6055147846704295
age 0.06845041866394891
toral 1
fav@@ 1
Kr@@ 0.4627038271238242
pueb@@ 1
Pop@@ 1
1985 0.9065430309712458
Sin@@ 1
dé@@ 0.09900541033430646
1987 0.8724563882299694
1986 0.8757929875317559
mina 1
Az@@ 1
til 1
Mari@@ 1
gradu@@ 0.7928232404196549
Blan@@ 1
conf@@ 0.942912380044402
lider@@ 1
ion 0.20613302335524492
dal@@ 1
33 0.9717987725339935
dad@@ 1
adém@@ 1
Anti@@ 1
Os@@ 1
vas@@ 1
Kar@@ 0.4880603309919058
Bl@@ 0.5201653599257795
chi@@ 0.6289998480699336
ov 1
dul@@ 1
ani 0.7968558320088358
rac@@ 0.7662887141145841
ime 0.6666348961977311
ide 0.6056823908553453
existe 1
bul@@ 1
Mir@@ 1
Parti@@ 1
Sen@@ 0.6457145354983065
concentr@@ 1
ier 0.6722169987170735
ly 0.06640596786254366
bun@@ 1
W 0.7124813485302179
Revol@@ 1
ks 0.1658026362348913
via 1
th 0.0850364410792094
bon@@ 1
Jer@@ 1
1984 0.8566829528876566
ans@@ 0.6198932675545146
1982 0.9142770345723894
ight 0.19243594946560647
ectu@@ 1
hosp@@ 1
Dec@@ 1
Av@@ 1
1983 0.9088682604209412
mi 0.9311518425457656
Vol@@ 0.9825920318947208
Educ@@ 1
ow@@ 0.2145047197815515
Elec@@ 1
ford 0.5143151924919824
eder@@ 0.598728383197665
ki 0.7223864943091711
polit@@ 1
aver@@ 0.8020001689283294
depend@@ 1
audi@@ 1
médi@@ 1
ples 0.7993264121155361
var 1
mel@@ 1
umin@@ 1
ker 0.38463277782875066
ost@@ 1
4.@@ 1
tiz@@ 1
és@@ 1
compet@@ 1
Portu@@ 1
bar 0.8306641512633012
eas 0.8270833150900314
Le 0.11606903358653033
Tol@@ 1
retr@@ 1
All@@ 1
36 0.8990484677939182
Tem@@ 1
Fo@@ 0.4973764380792138
ac 0.8417048585472027
yl@@ 0.4873856543373246
mac@@ 1
enn@@ 0.26371806106835033
destr@@ 1
destin@@ 1
Ali@@ 1
Bib@@ 1
34 0.9316004415136188
ant 0.06161477534396382
ejempl@@ 1
Str@@ 0.3229040698020486
carri@@ 1
Trans@@ 0.8736789504591156
oa 1
ebr@@ 1
terr@@ 1
Bern@@ 1
5.@@ 1
45 0.8378788645890973
arc@@ 1
James 0.6575954264897321
Austr@@ 1
exp@@ 0.48990657485131633
individu@@ 1
orient@@ 1
gol 1
Men@@ 1
ley@@ 1
bom@@ 1
ence 0.10051122209141289
fen@@ 1
peti@@ 0.7803997060970936
ons 0.09800695044541599
ari 0.9345725592714332
munici@@ 1
Mol@@ 1
Ven@@ 1
Distr@@ 1
Lin@@ 0.763682963307245
erc@@ 1
independ@@ 1
sent@@ 1
corresp@@ 1
1979 0.8625123420406978
eral 1
25@@ 0.5392390543762751
tran@@ 1
ade 0.2298427216823426
Cur@@ 1
75 0.9202283092577526
Chr@@ 0.6224710998448421
1976 0.8879001248984701
ty 0.17410621647045862
imb@@ 1
nati@@ 0.8929271420266303
uma 1
38 0.8963113670642765
ani@@ 0.8023864139189826
conse@@ 1
Rel@@ 1
inn@@ 0.3291511698107124
od 0.19196852782661705
adol@@ 1
ger 0.27556656691452613
ly@@ 0.42638446658721973
1950 0.831517790580059
his@@ 1
William 0.5710607320554263
alar@@ 1
lav@@ 1
Sam@@ 0.8055243428126659
Super@@ 1
We@@ 0.3178614439040588
1978 0.8654507721768306
ex 1
37 0.8851490097445132
lob@@ 1
1973 0.8802472370651212
tol@@ 1
ster 0.4040779260754384
Paul 0.5970825948239468
ilo 1
Ol@@ 1
ts 0.06246308136926024
eva 1
Robert 0.6641254719018601
ire 0.17880238357904824
1981 0.8188747082403962
Sa@@ 0.8282723573077707
tiem@@ 1
olog@@ 0.41713672699618604
fan@@ 1
olas 1
dici@@ 1
arch@@ 0.5279492346175801
amer@@ 1
nat@@ 1
previ@@ 0.653639957915771
tis@@ 0.48182994612975766
embr@@ 1
incia 1
Don 1
ke 0.25161127563805713
Son@@ 1
fas@@ 1
ins 0.18667685579960927
onde 1
iga 1
1975 0.798246223838992
ney 0.5007457854943564
No@@ 0.573197029379363
ão 1
Ra@@ 1
duc@@ 0.8842271327048346
Ru@@ 1
pur@@ 0.4366051440921269
acter@@ 1
CA@@ 0.8296614496265491
ael 1
une 0.052213076043223255
qué 1
ok 0.46555257779044157
web 1
19@@ 0.5142460267245424
sti@@ 0.30097667636230996
ick@@ 0.24958636843224882
nú@@ 1
introduc@@ 0.8234277489291012
monum@@ 1
AR@@ 1
ame 0.4031552503045175
ail@@ 0.25274432391800944
isp@@ 1
yr@@ 0.3900009757251897
enf@@ 0.7653365447566893
die 0.021222548774579013
títul@@ 1
plan 0.9427998173648673
alter@@ 1
uo 1
ane 0.41663712269454983
isto 1
bli@@ 1
1977 0.8684091440568718
ville 0.29962380364593416
gal 1
Tod@@ 1
Doc@@ 1
ski 0.8076128486086399
180@@ 0.6864476591151718
uf@@ 0.3422042655544413
elle 0.09653228463733261
Mich@@ 0.6354166218162038
George 0.5906694265160198
Pin@@ 1
dispar@@ 1
interpre@@ 1
Wal@@ 0.5048760064245038
ine@@ 0.796409582117268
alb@@ 0.6009909631333825
aces 1
ill 0.484396021773859
Do@@ 0.7292173106269889
Comp@@ 1
1974 0.8000316298088203
absol@@ 1
omo 1
cos@@ 1
lé@@ 1
Gre@@ 0.3776951035380275
nch@@ 1
cum@@ 1
arri@@ 0.7342166727886471
Sab@@ 1
Has@@ 1
ten 0.05437212389990854
larg@@ 0.7977185837414453
uba 1
Sem@@ 1
cula 1
lec@@ 1
nomin@@ 0.828296149568458
ach 0.16126121735068916
1972 0.7558702479689359
progr@@ 0.5019000961667044
pic@@ 1
39 0.9036100428495227
IN@@ 1
Cant@@ 1
1968 0.7801496687024085
hi 0.7294044856531308
ys@@ 0.31022063463249194
omb@@ 1
ain@@ 0.24222081692119668
Jean 0.546628453391997
ox@@ 1
und 0.016009046806517473
lama 1
ack@@ 0.241384501060476
men 0.19928968105892167
Ph@@ 0.2677227573573788
yn@@ 0.4791213269939895
Gir@@ 1
hal@@ 0.38499105959901114
vierte 1
ensis 1
4,@@ 1
tis 1
XVIII 1
Ari@@ 1
CO@@ 1
World 0.2403376468940217
gun@@ 1
mod@@ 0.7089904944391007
tric@@ 1
Geor@@ 0.5834110002867934
ingu@@ 1
rod@@ 1
Son 0.9535060993483989
cus@@ 0.8608948382838869
lim@@ 0.7981979918117287
Organ@@ 1
alo 1
vier@@ 1
ural 0.8362873009842886
em 0.25189633015436297
Dar@@ 0.5553094452492389
65 0.7293800548380548
Radio 1
sos@@ 1
om 0.3194609705925772
1969 0.8038182088466741
0.000 1
Oli@@ 1
1930 0.9098534903718335
invol@@ 0.5947241906849581
Met@@ 0.7587885576248016
ess@@ 0.15043798907652078
tw@@ 0.3420022864926926
atus 1
Roc@@ 1
ome 0.27989321247660826
Jan@@ 1
ko 0.8308410202414919
AS@@ 0.8568018334000582
Mot@@ 0.6592650754199537
asti@@ 1
hel@@ 0.39603782773860186
On@@ 0.5866260420980428
oti@@ 1
ches 0.288285598637651
6.@@ 1
5,@@ 0.9285443664867581
ou 0.13483213133803926
agn@@ 0.6272631441499985
Michael 0.6976591553983649
Din@@ 1
intro@@ 1
Asia 1
plac@@ 0.39901438523108884
Seb@@ 1
1940 0.7934612868453594
izo 1
ky 0.589827686153265
don 1
lara 1
XVI 1
1971 0.7304426920895474
Gl@@ 0.5977895864878793
Nov@@ 1
Ó@@ 1
ui@@ 1
Rob@@ 1
je 0.9994394020131165
ige 0.2981619423538116
oj@@ 1
Records 0.8957334575189604
Tar@@ 1
gia 0.5874268551581029
rég@@ 1
D. 1
1945 0.5139220904663346
Gol@@ 0.8970751815165817
Hom@@ 1
Sur@@ 0.8308610423171382
lag@@ 1
Bul@@ 0.760988397714866
alternati@@ 1
ish@@ 0.2535416699430534
J 0.8691879918477519
1967 0.776986357563704
wood 0.5983612458760489
Loc@@ 1
von 0.03168511231774719
li 0.5575449652245991
City 0.3087124757588815
fa@@ 0.18569245477895222
enos 1
Arg@@ 1
Washington 0.7053444137693283
1936 0.9803749292811073
condu@@ 1
oz@@ 1
universit@@ 0.674659189969095
Vel@@ 1
Indi@@ 0.6102892727127165
ain 0.15590939249318303
lit@@ 0.48368316769023384
179@@ 0.6699863504071508
ner@@ 0.4551957226869668
Tour 0.8862228911788546
League 0.2971596326822872
ono 1
onen 0.5883567140903152
ek 0.2348418447720755
nia 1
bau@@ 0.6651110430643854
Produc@@ 1
uk@@ 0.30834702585703877
Ind@@ 0.9219762117255248
Charles 0.5179264032367016
contempor@@ 1
ace@@ 1
mont@@ 1
estadounid@@ 1
Jac@@ 1
sé@@ 0.624728449294472
7,@@ 1
iy@@ 0.7887278051602367
1964 0.7663664179004559
55 0.9048148957846401
gin@@ 1
simil@@ 1
elen 0.5324894714349222
our 0.16876392279520316
individ@@ 1
Pen@@ 1
visi@@ 1
gén@@ 1
Bon@@ 1
mut@@ 0.7840278486850116
42 0.9208381387794983
dev@@ 0.3413010438174782
1966 0.7761866787195825
Oper@@ 0.7893493752879247
Ant@@ 1
Bot@@ 0.750957880548772
Sig@@ 1
64 0.7947611569134422
Jug@@ 1
hol@@ 0.3850626667000621
Ul@@ 0.9381227295958894
24@@ 0.5988164855776307
Cro@@ 0.6604865339585022
ple@@ 0.6725898282625578
ps 0.20668002853913764
CD 1
air@@ 0.1877677969999406
och@@ 1
Hel@@ 0.7495947977368594
agric@@ 0.9339638871973225
sen 0.2775119822046985
Daniel 1
48 0.8769563752752122
Def@@ 1
Gener@@ 0.9764017180865848
mann 0.41185438699580307
Cel@@ 1
Media 1
Thomas 0.5461819018070384
multi@@ 0.7947592724140458
entro 1
Democ@@ 0.877429041397437
Ke@@ 0.8982091048860882
6,@@ 1
1965 0.744988679312975
fo@@ 0.3244464535310677
300 0.9392591872869737
ung 0.045048746361450405
Bus@@ 0.7348673878573166
sch@@ 0.04887693158221014
ula 1
ash@@ 0.4667400557170926
Dor@@ 0.5226721614361991
tin 0.4130929967525169
1920 0.7857077584188134
7.@@ 1
itu@@ 1
Ev@@ 0.7582276663153433
iden 0.9644437693271238
85 0.9537501452347549
bert 0.62025478222384
fe 0.5720133060099535
st 0.09355183553744707
resul@@ 0.368307948665915
atis@@ 0.8220446883317473
undo 1
F. 1
erg@@ 0.5053116793727835
Israel 1
kl@@ 0.3197625297856146
Prot@@ 0.7896193298966316
éro@@ 0.8013371898145388
diplom@@ 1
metal 1
ister@@ 0.444564270892303
Pon@@ 1
umb@@ 1
1962 0.7747256740663022
far@@ 0.7609813193589626
uli@@ 1
ary 0.07930574336395972
52 0.9454279374890475
UN@@ 1
way 0.13564965873429297
Andre@@ 0.764756963828661
fa 1
Peter 0.6117310769033812
ener@@ 1
mula 1
26@@ 0.659541377336315
ami 0.9312046432086368
1963 0.7641152292582424
Flor@@ 1
anga 1
Pad@@ 1
1939 0.7031554072004773
44 0.8103989560097249
conom@@ 1
Laur@@ 1
cla@@ 0.4496894554182088
vie@@ 0.37513339470768314
q@@ 0.7757501332240626
oph@@ 0.3258363356653528
Bri@@ 0.7367473969836219
8.@@ 1
stant@@ 1
tari@@ 1
icro@@ 1
00@@ 0.9025721614293337
ste 0.37777549654392645
ES@@ 1
Clar@@ 0.9597460954745487
AD@@ 1
# 0.875895059846745
Lag@@ 1
Leon@@ 1
ég@@ 0.3909969573660465
Bos@@ 1
¿ 1
Tro@@ 0.6422380511648111
Music 0.5795493457911093
ake 0.4843800634740305
ise 0.11491516314312922
Brit@@ 0.8630075742056565
Hosp@@ 1
Pat@@ 1
Lit@@ 0.8217543266337624
oni 1
Eu@@ 1
kh@@ 0.22683994715272732
can 0.15859428480143592
Lim@@ 1
53 0.9927203958188401
abl@@ 0.5570580481789306
poli@@ 1
nuc@@ 1
rol@@ 0.7047114778084365
ling 0.3888796882025771
alia 1
ike 0.4583338665777482
Cir@@ 1
ater@@ 1
iller 0.6469708358356764
ics 0.2007497150043854
mez 1
Form@@ 1
1958 0.7648836696107749
lov@@ 1
41 0.9069324242396004
Profes@@ 1
XV@@ 1
ograf@@ 1
ican 0.6209217188877985
formes 1
Maur@@ 1
ident@@ 1
dro@@ 0.3227632162392584
47 0.903658184427841
J. 0.8417893320079172
Far@@ 0.6364255596883805
ack 0.2037823298459242
riv@@ 1
Grande 1
Harr@@ 0.7525492771494428
Parlam@@ 1
Sub@@ 0.907936594964829
Mes@@ 1
pop 1
ison 0.26052365906985475
vor@@ 0.20135260043439673
amin@@ 1
ieren 1
Ham@@ 0.6285661349584454
adu@@ 1
1944 0.5730754156102926
ber 0.3785678229752101
30@@ 0.5571903361920296
field 0.2985187403255009
Ca@@ 1
prac@@ 0.5656552268922667
ette 0.351339949451258
ung@@ 0.22054439591045524
War@@ 0.5082435053728726
umo 1
43 0.9252861723012377
IS@@ 0.8662697721789545
ure 0.09744170274730062
Martin 0.6871845923759884
dy 0.6750943155481511
ry 0.3581522206777648
1941 0.613208857282734
ilia 1
series 0.22618482429811418
elli 1
51 0.9035006830904597
ki@@ 0.3856590202001397
1956 0.7309758046808467
aceae 1
Pic@@ 1
númer@@ 1
we@@ 0.07130620198074603
Richard 0.659027157181212
Hug@@ 1
1948 0.708685215412735
jam@@ 1
1961 0.7323627534799307
bia 1
Cast@@ 1
consist@@ 0.8018022118889936
Hist@@ 1
stein 0.5188483396300935
ony 0.41705622641292095
8,@@ 1
US@@ 0.6687640088224663
Alb@@ 1
ko@@ 0.4597062865710371
landa 1
m. 1
br 0.6367227176951453
S.@@ 1
ali 0.7353599790899645
ille 0.2777758137438404
56 0.9282178612536466
nd@@ 1
record@@ 0.5040702608800816
ings 0.12659431552767716
Maria 0.8768791953688961
Dur@@ 0.918567427125701
Barr@@ 1
gel@@ 0.15896145960231056
ars 0.2205334483220747
mach@@ 0.5880840133125343
for 0.015711167887882814
Victoria 1
ō@@ 1
54 0.8991694020421848
46 0.9043548790374354
SS 1
400 0.8792151407388424
Que@@ 0.5030440840977571
95 0.9649386271652204
transfer@@ 1
étr@@ 1
Red 0.7940657861543771
icul@@ 0.609602112057012
28@@ 0.6319368003480207
Me 1
eur@@ 0.9043214576953718
sat@@ 0.7147591781585605
72 0.9206335188138837
ri 0.8604173934818007
ét@@ 0.20007115962463706
alc@@ 1
cens@@ 0.7220692112218742
Hy@@ 0.6376219807790964
78 0.9872048586251565
ut 0.24242712906406577
68 0.9896955042706862
ets 0.15849119438177242
herr@@ 1
1959 0.7247545652382161
distr@@ 1
lobal 1
nit@@ 1
colon@@ 1
Tan@@ 1
Wo@@ 0.4344053748935559
Christ@@ 0.4791717594705499
You 0.8063835583559662
igh@@ 0.19433031814747595
Dr. 0.9939441383454037
antas@@ 1
Carol@@ 0.7872315591792318
bus 0.9153481377276252
1957 0.7436276977551902
enden 0.25130499136101797
port 0.13704603752811215
du 0.025174447039522256
uel 0.8133650566742231
58 0.9313806645639757
1955 0.7660683168500806
rus@@ 1
88 0.9429056312825862
49 0.894383849075588
ular@@ 0.560488743322063
Je@@ 0.29140710080184273
Park 0.3866186235402564
Milit@@ 0.839334108512575
1943 0.6181688323925993
construc@@ 0.755223597708135
Ah@@ 1
57 0.9333522046305516
‘ 0.909175173208129
ices 0.5721121589449656
mam@@ 1
76 0.9411985225595741
Hal@@ 0.5825940827859944
62 0.9231283968801915
66 0.927442645875609
atri@@ 1
1942 0.6163992500892137
86 0.9409026779887075
Plan@@ 0.9780910449510435
reco@@ 1
prof@@ 0.3959474714966919
pes 0.4685818947541855
encu@@ 1
obr@@ 1
VI 1
Franc@@ 0.9534942583415186
ear@@ 0.2176733789216811
sk@@ 0.2686594692727259
Ban@@ 0.7317044846375184
27@@ 0.6192237209440424
Man 0.827678531528968
Natur@@ 0.8268490199666543
ast 0.13871517211250836
ć 0.726625011585354
67 0.9612343783814524
char@@ 0.26024379950027704
Rev@@ 1
bir@@ 0.3699377768788878
63 0.9271478337275312
mom@@ 0.9378350754158066
Au@@ 0.26542712448946376
Af@@ 0.5833384295630472
ham 0.4794676977653233
Mah@@ 0.7017805464990746
Texas 0.709409868592439
Lar@@ 1
Var@@ 1
relig@@ 0.9869549481260071
Clau@@ 1
1946 0.633616563613261
dae 1
Tal@@ 0.9223389693012795
fér@@ 1
ō 0.9978822601902257
74 0.9821035997702959
ors 0.1116733410404166
1952 0.713959244946632
mix@@ 0.7887563166108212
1949 0.681187092940922
ory 0.11999669395437099
9,@@ 1
Eur@@ 0.7684555271768309
onn@@ 0.13503555013798343
Bru@@ 0.540864965026086
AC@@ 1
ys 0.5278714841616565
Pri@@ 0.3615744509376962
Lib@@ 1
83 0.9665924407600522
bu 0.5702395778881761
tic 0.2037573532374314
01 0.9207053333639738
old 0.13200790397651055
77 0.9316126664449712
pp@@ 0.17295890332966143
Gen@@ 0.4650884249497375
tia 1
ies 0.12916718952087572
1954 0.710959424041167
AT@@ 0.7857481448862819
ts@@ 0.1271228994696944
gan 1
.000 1
Bau@@ 0.35510181343668634
59 0.9262058957742865
1938 0.6610183313746699
82 0.9571985724019056
84 0.942357309944983
Cop@@ 1
Domin@@ 1
87 0.9610054456580349
1937 0.7361008694642974
1947 0.6737920300170548
1953 0.7295050934677847
mani@@ 1
Tre@@ 0.5285180534795468
grav@@ 1
wa 0.31760108495368405
89 0.9043236204659387
Bah@@ 0.41808714155007803
march@@ 1
Il@@ 0.9387268195216724
aborat@@ 1
9.@@ 0.9692350544697118
Serie 1
Nar@@ 1
Dav@@ 0.6552216254593569
29@@ 0.6339003582659632
álb@@ 1
Love 0.9231295692075384
Tam@@ 1
iss@@ 0.1720686480608701
Ern@@ 0.8137955542825551
tival 1
RA@@ 0.9332660954277388
Rock 1
B. 0.5921296263414371
Chicago 0.7035365340490579
ith 0.5628396454305435
Alfre@@ 1
bin@@ 0.7708855736374391
American 0.1319592814688599
nes 0.27850266427720216
Florida 0.9201176125131229
BC 0.5584372838320891
nas@@ 1
partam@@ 1
61 0.890104137278514
over 0.10528880812439553
Lee 0.9044704037911003
ington 0.537824282092007
Dol@@ 0.8934849586021905
ā@@ 0.6247985205158488
Henry 0.5659506154254468
92 1
Bir@@ 0.6103076539728852
71 0.9187306099651613
Augus@@ 1
uri 0.8607935056083271
ws 0.15401098015656922
Not@@ 0.49152630065890995
81 0.9295949595913927
99 0.9572670071132531
sal 1
verse 0.5837584001126563
polis 1
.C. 1
oth@@ 0.30092643648696205
2022 0.6923065476409862
Jose@@ 1
ien 0.165020830648867
liz@@ 1
Mé@@ 1
eon@@ 1
69 0.9472689638631743
1931 0.863929736108115
The@@ 0.20735313896267232
Joseph 0.5269062720119131
trac@@ 0.41944001716312607
Smith 0.6745083731596198
ais 0.24023635533264298
College 0.2784638903383035
Ferr@@ 1
pri@@ 0.2988537839497904
M. 0.8307232987096145
La@@ 0.49332746264058847
Wh@@ 0.2711932782088442
Bil@@ 0.4182749414167859
mer 0.13385777121310088
Prin@@ 1
1933 0.6749894846257082
05 0.9820888691860596
Nat@@ 1
Ap@@ 0.5735417582616936
chi 0.728567433112977
Universit@@ 0.9793082744915679
Provin@@ 0.46894771122509976
Wat@@ 0.615651556115093
Rog@@ 0.9313859896880299
uj@@ 1
73 0.9392450419956492
Kir@@ 0.38663978974562807
Tab@@ 1
its 0.03840080889016786
Sand@@ 0.8263906957215541
ince 0.3608275694501079
amm@@ 0.18259590738247133
imin@@ 1
alog@@ 0.799316408379708
ling@@ 1
79 0.9571156268029991
S. 0.9586712757106903
Pot@@ 1
yan 0.7321739481321429
yen@@ 1
98 1
09 1
ih@@ 0.3012871784935818
ji 0.7562192723494207
tion 0.030373055064277805
my 0.5174231332023531
ovi@@ 0.8795684130965619
Den@@ 0.40537258294717343
los@@ 0.38654965613342546
att@@ 0.07844549394754677
lus@@ 0.7848826880755115
Ha@@ 0.7045345255814413
Don@@ 0.8212205526484182
Som@@ 0.4954041946044086
02 1
ash 0.653274240107264
1934 0.7390932676786183
1951 0.7016159530299664
CE@@ 1
ume 0.4671605165389083
Arch@@ 0.6589525019702293
¡ 1
na@@ 1
sol 1
04 1
Mex@@ 0.9278745455540556
ova 1
Ba@@ 1
rol 1
sul@@ 1
Wol@@ 0.5015456494462577
aber 0.22604530200468037
96 0.9667394137850673
Herr@@ 0.7931573114849139
Rol@@ 0.5446046041258652
Gor@@ 1
Tow@@ 0.6124493919701058
08 0.9832005204114417
dil@@ 1
Chil@@ 0.8890308767339686
Air@@ 0.47763472066785173
1935 0.7079443976868366
film@@ 0.8274317888903486
Ú@@ 1
St 0.5848896818721726
lie 0.499577949669305
Pil@@ 1
Pap@@ 0.6827988016868299
rap@@ 0.2586217829301568
ess 0.08197183499019006
School 0.18268537277490224
EP 1
1929 0.7250653997290225
All 0.3151079478048301
Sing@@ 0.39216678878661454
1932 0.7603608809383512
Vid@@ 1
ity 0.06091435158398435
06 1
ku@@ 0.3322562367801853
à 0.014606297287427565
XX@@ 1
bah@@ 0.7394637950325312
Greg@@ 1
zar@@ 1
tre@@ 0.1538683743522868
Pau@@ 1
1918 0.5954621901616975
03 1
tag@@ 0.9611523332507316
VII 1
see 0.31543669111001815
azz 0.9207180235335272
ff 0.5153278718541271
fle@@ 0.49828832078331514
Billboard 1
Argent@@ 1
len 0.2004763160296157
Mem@@ 0.613927920726097
07 0.9665767984804849
ame@@ 0.6306112139582192
opsis 1
ometr@@ 1
93 1
ander@@ 0.5047822112744466
Boy@@ 0.9996885853645271
ongo 1
Wor@@ 0.3423876419821248
.. 1
awa 0.8593604824105399
mita 1
bec@@ 0.3911475242859062
š@@ 0.6976344587931511
Han@@ 0.53622090989841
erre 0.7334970253444555
lis 0.7745327290136751
ái 1
ost 0.15120474162096345
itz 0.2811193570969801
1928 0.6975084650494845
explo@@ 0.6265856608112848
Royal 0.3824453958123271
Rum@@ 1
Louis 0.41537516747258674
dan@@ 0.6625202844512146
tel 0.3864768967002273
Tu@@ 1
Haw@@ 0.7450943169681212
Sum@@ 0.4334089918266292
Lam@@ 1
bes@@ 0.15378907939661796
Cy@@ 0.753058913376001
ö@@ 0.0901637555810462
Ta@@ 0.5771289786177939
erry 0.6989370374706827
National 0.14365527702091918
aki 0.7642838417193503
Progr@@ 0.627264887796832
Ot@@ 0.471666731418112
mill@@ 1
Kh@@ 0.3235469718206927
dat@@ 1
Sel@@ 0.5546204737380267
the@@ 0.11221375739644643
ä@@ 0.05052144777381475
97 0.9779063265449217
ded@@ 1
bac@@ 1
bas 1
lor@@ 1
Internet 1
94 0.9957159382346538
1000 1
ock 0.37280021565916843
esia 1
91 1
* 0.19872891383722088
well 0.11292995193849512
ati 0.7413071203874312
Blo@@ 0.9131742354764301
plas@@ 1
own 0.19543697144127056
King 0.3644480207940442
Sc@@ 0.5893276948797391
Gil@@ 0.8368978083096049
New@@ 0.492804605020152
seud@@ 1
1914 0.6705231827463672
ke@@ 0.1927444989414796
ny 0.7063980243908807
Lev@@ 0.928227839524986
enen 0.1538299486293787
Black 0.5513479127115192
Sus@@ 0.9473188582205242
Sof@@ 1
West 0.24386146057597982
eler@@ 1
Vo@@ 0.6362970423938666
ish 0.07912468951182054
NBA 1
marqu@@ 0.736083036604905
king 0.14269300986917186
Sou@@ 0.319122766336185
ange 0.24204142008369156
1919 0.6074925925821906
Mass@@ 0.5882646743735036
ope 0.475118719772418
sion@@ 0.3808702768114338
SE@@ 0.9452627438876992
fel@@ 0.4771093603192748
Street 0.35420671620296584
q 0.5578029687050774
apos@@ 1
1910 0.7808591111751413
CI@@ 1
Play@@ 0.5417256614275364
eri 0.7209514896355134
sing@@ 0.29236615733660404
Dan@@ 0.4251154123354736
1924 0.6972111277068743
publ@@ 0.4769040957597032
E. 0.9116882574844185
Univers@@ 1
It@@ 0.3509041471058891
1917 0.6651977000925973
ath 0.31817848320473285
win 0.26879075648186074
ix 0.4081991074430139
otr@@ 1
Fal@@ 0.9176116466023748
Buc@@ 0.9980943643643754
Rem@@ 1
Lis@@ 1
tu 1
ons@@ 0.20690695595054795
International 0.2393961143525578
lan 1
Jack 0.8755032870652366
Famil@@ 1
Amer@@ 0.7859050087462455
OS 0.9400463848886202
neu@@ 0.47366320676599727
Gro@@ 0.4568668969010123
R. 0.971630263479528
ist 0.021875485879886757
150 0.8640869691584426
Company 0.3963976674569246
Mit@@ 0.2864097705376933
1925 0.7069006174724172
off 0.17952684145351555
vit@@ 1
aka 0.661609887816593
angel@@ 0.7223911221115514
600 0.9597096526698239
Dre@@ 0.3850951744714621
1927 0.6977899662246423
Eri@@ 0.8884634151629598
Hit@@ 1
Kur@@ 0.32910301223148475
Ko@@ 0.4235008526030883
AN@@ 1
DVD 1
umba 1
ép@@ 1
Bay@@ 0.5310381395817327
ym@@ 0.1889226307120534
Plat@@ 0.5853369273693135
ab 0.1442962305516033
AC 0.8308008103833484
1912 0.702328001442001
Super 0.7753273108892544
Hen@@ 1
cré@@ 0.27077521497427925
My@@ 0.6775595734413711
1922 0.6872875631843317
quel@@ 1
san 1
aller 0.291825701615562
hin@@ 0.19512520221398416
Cin@@ 1
incre@@ 0.26613229069079886
P. 0.968704405279684
bet@@ 0.3125271353625401
use 0.08821783058927303
Mul@@ 0.7600724666999917
zi 1
ogr@@ 1
els 0.1380860327136652
eder 1
1926 0.6690003805261737
IC@@ 0.9219014771600728
Mary 0.5405565689210298
alar 1
Rich@@ 0.3611830244263412
vania 0.7811281433624027
Fe@@ 0.4256277126172745
Star 0.6688019709349958
ett 0.43534922058841025
ube 1
vern@@ 1
1923 0.6947932855026658
ui 1
yp@@ 0.18596700172094852
off@@ 0.08285247496322881
MS 0.7546556699713106
ally 0.0436263828244855
Z 0.6325446900924065
Sy@@ 0.24679894301395824
Vit@@ 1
800 0.9560024546184401
Net@@ 0.6217607510041198
Brown 0.7373917461548547
show 0.245891145574839
ship 0.1176932530810874
Corpor@@ 0.7949255837695772
TA 1
Van 0.9013810075829144
Ty@@ 0.43688805891060023
Juni@@ 0.723072196007339
tut@@ 0.6364394926228036
culp@@ 0.7219346531550032
• 1
ites 0.3542248467640955
als 0.021858422418454784
Í@@ 1
foc@@ 0.44186318057625973
sar@@ 1
1900 0.6969748539416196
ester 0.40287144756246834
FI@@ 0.9286298593543132
spir@@ 0.55365127031611
Hot@@ 0.7656623357668241
úbl@@ 1
Pierre 0.520274288669267
ble@@ 0.6956986822029476
rar 1
deu@@ 1
trav@@ 0.20460879875995497
ider 0.4638541377703581
ander 0.667595710572555
ori 1
Andr@@ 0.8936280657469284
ei 0.33322366711245066
war@@ 0.1447152114269575
éli@@ 0.5809300283664167
Dev@@ 0.350591394086286
Radi@@ 1
1921 0.6486684537915836
Vis@@ 0.9526338409549994
yn 0.8041251884870644
My 0.7949420412757896
acha 1
Lig@@ 0.7152463351181831
Columb@@ 0.6463900065480949
kar@@ 0.3227692067197549
Person@@ 0.4515695563477855
Red@@ 0.6402258307888841
top@@ 0.887588529432575
tle 0.22720339780903095
Orig@@ 0.6114708907525668
DC 1
rati@@ 0.2458023049946316
Sw@@ 0.2614390378071409
lin 0.637083986893742
Riv@@ 1
ges 0.255608628254481
nam 0.5970449187936209
ters 0.1083448094534141
nh@@ 0.14645642907829218
United 0.09180766611114317
fur@@ 0.22434547970543797
Fut@@ 1
aft 0.3270584628967909
tuy@@ 1
Stu@@ 0.3037310557971736
net 0.3367156197460584
map@@ 1
Frank 0.7276902168187696
icha 1
AM 1
Mark 0.5994831142114303
Tom 0.8265152705851747
Jones 0.7227162573213934
data 0.5927110538132448
Win@@ 0.3699009322257674
nó 0.859696865571907
Pom@@ 1
Sor@@ 0.9245562846554032
Tay@@ 0.8284073573184519
ho 1
ats 0.12209602479078654
One 0.25513706892262816
Jam@@ 0.8608117521275048
spec@@ 0.21719635151675257
AM@@ 1
SA 0.9246364464014756
kio 1
ds 0.1199034388451232
mond 0.5897745081964664
ux 0.17102076151496
Sk@@ 0.6174536411546482
Tim@@ 0.8621895657604105
pas 0.13626520246257584
RE@@ 1
AP@@ 0.9852845639598231
Sau@@ 0.7600100918017247
play@@ 0.1667553932382809
Phil@@ 0.29466855675374404
1913 0.6903114338475922
etti 0.973112776504348
azi 0.9976818816731918
Joh@@ 0.5043236174960246
pré@@ 0.18362240859556445
Conn@@ 0.5947506559519873
Grand 0.3171202086585736
Nik@@ 0.747266734374046
burg 0.23262377881222368
Astr@@ 1
US 0.15626940151336552
ass 0.18319960644981353
trol@@ 0.6417750357427483
A.@@ 1
mati@@ 0.7976519298895937
oug@@ 0.5314388561482769
Scott 0.795469640735242
Jackson 0.8907391803436098
rif@@ 0.3668931294510518
Hil@@ 0.49714170601911495
Wi@@ 0.2682235293406432
lor 0.8242212950643847
Paulo 1
ública 1
č@@ 0.6723066185472544
Tak@@ 0.7418985613234628
L. 0.9646210045745033
enne 0.15502232571651833
Rot@@ 0.5629499716274141
Disney 1
ze@@ 0.15841928582864723
ves 0.1190230133651126
Liter@@ 0.7102498559240602
Virginia 0.5499518731746939
xi@@ 1
elt@@ 0.6100745251641155
yc@@ 0.2618414382627537
Williams 0.7260152516887727
ting 0.06104198790413399
Kenn@@ 0.6178705513130037
IX 1
Big 0.6249916494672504
Times 0.6146623854666762
bis@@ 1
bro@@ 0.14716252493702955
inco 1
ous 0.05205172440049073
irat@@ 1
sky 0.6026164707480052
Aus@@ 0.08823605870870821
Entertainment 1
Op@@ 0.44677786754817556
shire 0.35181924076452026
Mach@@ 0.8991352321974065
tion@@ 0.16559471605538628
low 0.10823566821297945
1911 0.7000028585689069
Bet@@ 0.4619823994171463
onóm@@ 1
hur@@ 0.8139198995907199
ER@@ 0.9540391828949446
igan 0.6054007137661775
relati@@ 0.33080219043938663
Spr@@ 0.27604640870597763
ij@@ 0.7219832036659092
ques@@ 0.5474940812957002
1916 0.7063141421164721
Lan@@ 0.7728451983116488
Tran@@ 1
onald 0.749550432742282
sist@@ 0.2900082692954201
250 0.9890311157393877
Ox@@ 0.6296052127782232
mir 0.8344022126731286
1915 0.676906218689505
he 0.018291265434888033
alis 1
Bak@@ 0.6289112202825716
Mill@@ 0.8161324891727463
Star@@ 0.6700274991270735
ort@@ 0.4734391226302209
CA 0.955456263190631
I. 0.49342593895277986
Hall 0.35911464047108377
Mod@@ 0.6163997414748825
Bad@@ 0.9451787494876117
House 0.22801654303068383
usal@@ 1
Steph@@ 0.6195565440773074
ste@@ 0.10649776338362817
sk 0.845456015078191
Bab@@ 0.7021450352768618
Max 0.8182951658887962
ze 0.09607195941302513
sep@@ 0.5107103335978368
ort 0.20371915273654626
ady 0.26632775803984593
him@@ 0.3434625099905909
anth@@ 0.5193400220109252
cus 0.7748179427538422
ck 0.371386998109614
itz@@ 0.18035740157268298
Kon@@ 0.12965650756641475
out 0.054069547718346586
Gas@@ 0.9494722800233785
ansas 0.6685431582788769
asi 1
Dig@@ 0.9905048733225558
But@@ 0.7700475260110996
artic@@ 0.3286030114412449
Young 0.6796617409858965
Et@@ 0.786672029363878
BA 0.97727152380135
Center 0.3614266762848302
kin 0.674226561864229
ball@@ 0.39260858393807796
bara 1
Sav@@ 0.5566042687722346
azar@@ 1
Mid@@ 0.34622482444818337
ap 0.29895678178904084
NA 0.9554637868020776
Maj@@ 0.45457329453185674
recog@@ 0.36847526774254613
Alexander 0.5355645295227874
Sm@@ 0.7579734435010499
1908 0.6811229749253567
dam 0.6035224284359813
Ly@@ 0.6537437560894792
Joe 0.7891743892329557
AS 1
SA@@ 0.8326148704689287
Viet@@ 0.7949923733868871
In 0.014660727002309722
mari@@ 0.5716715466228655
ji@@ 0.9955841116713603
West@@ 0.23817111518935916
Ran@@ 0.7854018231633134
Na@@ 0.7094655634365465
1905 0.6534731181450949
Guinea 1
Live 0.8282933975209273
Walter 0.7448273899891186
It 0.03573864422615357
H. 0.6965558504388094
White 0.42227090354129015
Boston 0.6381933847438785
ax 0.9964345672795185
eth 0.54639308850321
inger 0.36729648504612394
curr@@ 0.2789720456686817
Top 0.670740022471078
osp@@ 0.6450539167960373
hy@@ 0.18084220412649954
Kor@@ 0.23796589854038008
Phili@@ 0.4343554881192066
huy@@ 1
rad@@ 0.8809229541503665
ond 0.20010283304727228
Tw@@ 0.7515051695316517
ł@@ 0.43666332733392826
Hot 0.9870875157268019
Kn@@ 0.4678368569695938
ont 0.07854812407211084
sever@@ 0.9442370239304074
ances 0.20311728675238735
Maz@@ 1
Ku@@ 0.7285244600748311
bao 0.8475781767869044
ci 0.3073284461526941
ø@@ 0.6527695982444208
ika 0.44630997709089587
Johnson 0.652581408796991
Abr@@ 0.9734671523503702
Chap@@ 0.676208606499497
ush@@ 0.4150057105674506
Football 0.38640794382657095
r. 0.4210906315064513
tif@@ 0.36120535745515475
Hay@@ 0.7480093381560498
TC 1
Anth@@ 0.7286358246148879
She@@ 0.6023253486335846
Tit@@ 0.5666404031659116
â@@ 0.1375827173768803
ks@@ 0.3345763475827588
Edward 0.5400415878641521
Team 0.39606853280170917
Cle@@ 0.685536930358581
sho@@ 0.07557223490632992
Div@@ 0.9802116071746964
xa 1
è@@ 0.08343110627937886
Fel@@ 0.38353523234029
ald 0.5972248185935896
Kat@@ 0.382761980353449
urg@@ 0.5072834145071701
ustri@@ 0.7143898609553815
amba 1
PC 0.9864868748962913
ik 0.1874813873044478
eter 0.2119264295528982
htt@@ 1
Les 0.0724835829854835
unt 0.2615293973821509
Show 0.7406072380273679
.com 1
Marie 0.47170519338127775
ean 0.30245372694925676
Stan@@ 0.6168617520934848
cho@@ 0.22686991882232166
1906 0.6806311176888927
oy 1
1909 0.6999614690516102
… 0.3512467528568405
alle 0.2725936062226204
Kal@@ 0.4200929705614628
ns 0.13344446414874986
zu@@ 0.21260844934723827
wal@@ 0.19121943903325972
op 0.1644315848228903
acuer@@ 1
fer 0.12502570897552404
ian 0.1319355361796052
Hill 0.4663053216417699
1907 0.6681025303549808
ev 0.7780707265021399
né@@ 0.3329259298793729
ams 0.12359510440100614
jo@@ 0.22092159628003594
eren 0.15461486845520678
Sho@@ 0.6161902684634333
aux 0.04077781506467464
zi@@ 0.11705244767375494
ault 0.46876215540518057
º@@ 1
sia 0.3600412586529358
How@@ 0.6501015839225373
Ben 0.9280705280788417
ther 0.06856221627023365
cro@@ 0.22228764633796244
gem@@ 0.2999516581011149
Windows 0.9006653898592073
ston 0.5925297612621377
Nob@@ 1
Got@@ 0.41115137623455084
wor@@ 0.06190898417014565
Anna 0.7688031294260721
Moh@@ 0.6305344591169135
abeth 0.48814248695487045
Emp@@ 1
mont 0.48328902146432756
1904 0.6869704731348573
vel 1
Illinois 0.6799767917683012
ision 0.14515974666942438
ning 0.10845794883745478
University 0.07273367594463408
esen 0.2956582059089338
Ander@@ 0.6238405814899242
Ath@@ 0.35054506911476113
Albert 0.6132168742301384
1890 0.7887253378259076
River 0.18616728640945648
inda 1
ough 0.17753682799253778
set 0.14414344525400813
Gh@@ 0.6354645731095536
umbo 1
cher 0.1648182821088822
Time 0.7028144835099311
tical 0.16502425825121697
Sci@@ 0.25899427375137446
Whit@@ 0.6431459840338253
Lab@@ 0.3986465535384194
Pow@@ 0.5145735086014706
Ash@@ 0.6510403311268906
tern@@ 0.5049275950042271
anti 0.4271863687382829
Lou@@ 0.3962872424575692
700 0.9491152389470853
ken 0.07954332841623309
adem@@ 0.3587255973747307
120 0.8631890508780858
ado@@ 0.8278923710325832
Christian 0.3164787235763206
eld 0.24557049914521453
event@@ 0.2927659303267491
tribut@@ 0.41429992045244224
RO@@ 1
Bow@@ 0.5314998275405289
Ak@@ 0.2784454257997592
Kim 0.8861231121378002
1903 0.7068621531030878
end 0.04665971547992898
Art 0.24168336576083077
BS 0.6711849967922576
You@@ 1
ust 0.2827914080245448
alan@@ 1
gul@@ 1
Arthur 0.6232669125080991
Dam@@ 0.47790502866129164
John@@ 0.8135377607167371
Jos@@ 1
ator 0.14749289441624477
FA 0.7615466195642135
ding 0.16453896997465933
Life 0.4091318911707049
iz 0.48322250393457755
Hir@@ 0.7270716946756989
BBC 0.6132461759172503
ae@@ 0.5284648838586742
ye@@ 0.3077319850318423
chester 0.4285186980097819
Fri@@ 0.5194251812253184
Ki@@ 0.45235446701987114
Kaz@@ 0.8952609784138538
ife 0.24625469118300944
nde 1
UEFA 1
Eliz@@ 0.6491019253473412
Ken@@ 1
kr@@ 0.21212345257321955
ère 0.05900788713856216
c. 0.9130707537530325
Q 0.6353463014898393
cle@@ 0.31137896587565544
van@@ 0.8663426051373796
Eng@@ 0.31044449070335034
aden 0.4296879498468547
ô@@ 0.18289533134930575
ör@@ 0.0847359322566005
Meg@@ 1
1902 0.6938979584229206
jeres 1
IM@@ 1
Ohio 0.5802139648741466
top 0.18714116537336672
Mak@@ 0.6219322206048712
bury 0.5003812623966426
1880 0.8387577280817691
tus 1
Land@@ 0.12658525992377972
ms 0.16576964098820884
Sul@@ 0.6461602916100615
Carl 0.6382723516689242
Cum@@ 1
High 0.22538651388740857
ig 0.21222965126127835
aff@@ 0.10564145474685421
ules 0.34593777854342883
tas@@ 0.6166146007871802
Pak@@ 0.4611398873412811
uke 0.46811017247983844
lis@@ 1
― 1
tér@@ 0.7430704932752296
Papa 1
Beau@@ 0.6373975154622934
Sun@@ 0.703175444556812
low@@ 0.09479417570130837
Kan@@ 0.344736904501337
ls 0.28859518035021536
Green 0.49243590524799696
Air 0.26180114429377976
1898 0.7275070529848833
Karl 0.4362855051068697
ome@@ 0.46256184828742103
North 0.13355360270322042
Dal@@ 0.8510992557801031
Society 0.29500893798190225
ny@@ 0.7605494833462534
1870 0.7630544864969576
sey 0.6200736106685648
side 0.07785021400436205
Bud@@ 0.3986216536397549
aus 0.030477641305124314
AP 0.8404445384407027
bridge 0.29385828348302573
Lang@@ 0.3684511836147297
Bec@@ 0.4831343710200336
test@@ 0.3223230625598543
gest@@ 0.16947107048296034
qui 0.03107377328457358
ham@@ 0.5632619348304713
oder 0.07950632017579007
ann 0.42652290199531684
tha 0.8192021390085621
Ze@@ 0.16059650409204693
gro@@ 0.10515910202232322
bi 0.5587383136344818
hr@@ 0.17651659108863502
Shi@@ 0.5574293764732787
Blue 0.5817590617013894
Island 0.28183753393144384
COVID 0.817760478447262
Spe@@ 0.333798795520291
ei@@ 0.26568173176339144
edy 0.347221094547187
America 0.23775746217794552
1901 0.6441340741971235
V. 0.5227022292974343
amen 0.3136091019565144
Les@@ 0.6641920581636763
Studi@@ 0.22117592276749418
gre@@ 0.08097920441861078
éd@@ 0.29817738075529493
South 0.10401100304993412
ays 0.14218738307753928
ingen 0.15692200364688766
1895 0.7292976902594338
ique 0.12219162094362596
inae 1
MA 0.8011181324331834
VI@@ 1
Fol@@ 0.1574399905066738
uh@@ 0.30016034108430234
200@@ 0.6224031176514778
Mand@@ 0.6681731369865115
kg 0.7912386374675162
Sher@@ 0.6488036694131247
elles 0.13790344135062388
evi@@ 1
fort 0.23453703889063393
App@@ 0.5680419982884187
Indonesia 1
sam@@ 0.5301421073426603
iki 0.4738373291967142
W. 0.5616317626549561
rir 1
Jersey 0.5935352637158496
CD@@ 0.4994792142511444
ū@@ 0.868512955655402
etts 0.5478221505146886
Sto@@ 0.2970973516518049
Mec@@ 1
amo@@ 0.3059826181717621
1899 0.6920768806569249
ment 0.03768011141406673
ë@@ 0.5165059349964873
wan@@ 0.31346326957833565
Thom@@ 0.6990279115059903
Ann@@ 0.527098594258239
11@@ 0.6038331465478143
Bill@@ 0.7927662196620039
Ker@@ 0.46390298417607384
Kam@@ 0.41218891052488366
tho@@ 0.17375269731547147
app@@ 0.0973715694110192
ater 0.08961501417417882
ep 0.20595541415497587
Nag@@ 0.6956802675787562
uz 0.8764455561294625
Group 0.24738186584917485
Station 0.3447605162788057
eer 0.2021542723787524
eus 1
ague 0.18723709665585136
ium 0.36069620025788607
esse 0.2002370130579587
Arti@@ 0.5375527549107961
WWE 1
int 0.2954480931573503
1897 0.6861346272487397
Bou@@ 0.616328269573594
Anton@@ 1
Jacques 0.5740494627661525
CO 0.8307585503720619
mad 0.6389789103716925
eau 0.1375753591952089
Lake 0.3031291715151835
Tun@@ 0.4775268165087481
prin@@ 0.20245754086823436
50@@ 0.7312837195726988
Liv@@ 0.5759533465006097
any@@ 0.314557368727841
1896 0.6809680458656273
ockey 0.31728709050516096
ager 0.17927151137666275
oli 1
ket@@ 0.22374738570898275
iko 0.7398312580742085
bach 0.25352553657538907
Ear@@ 0.1318302128641504
ark@@ 0.30262816820935745
1860 0.7963942625075011
kin@@ 0.28914835237920244
Law@@ 0.5224277757359751
Rad@@ 0.4429186384930164
ason 0.30027463118685405
olf 0.500346000162373
ect 0.05589283452344224
ache 0.2468947878729222
Simon 0.6519791624942951
Premier 0.49508033853820904
ban 0.2150308193233457
FIFA 1
1889 0.74186136347808
eck 0.35840346782362953
anne 0.4920732392880384
sm@@ 0.33071732576396395
Ped@@ 1
play 0.11680320399437545
afr@@ 0.9850577901753368
Cup 0.15046340077028728
ever 0.12376365230096607
ée 0.02030552270315188
NE@@ 0.8726760534579331
Mik@@ 0.6349195766004402
Lord 0.42179948303855275
uss@@ 0.17799860423299554
Bes@@ 0.16381342120803885
deg@@ 0.2931621023559912
ür@@ 0.07271067250897652
Rap@@ 0.6033875972697089
1891 0.7574845882630966
vin 0.6425510947443164
Squ@@ 0.3717002556382229
SC 0.5477388726262714
trag@@ 0.325531835263707
épo@@ 0.4724904842766601
Microsoft 1
Day 0.39153786112779293
hay@@ 1
urs 0.08155917276347116
lam 0.6202130403378145
yon 0.437027335461966
AB@@ 0.9066894442570865
diz@@ 1
10.@@ 0.7799364989002588
try 0.10251445960856022
´ 1
stre@@ 0.1557359160252877
ç@@ 0.08901433159226765
Championship 0.2315561361309478
1888 0.7664438466843715
Hans 0.4625102441038376
erie 0.38521255500720714
af 0.5397180471243314
idge 0.2898752229605286
part@@ 0.15498673024021786
derni@@ 0.3419071842038731
yar@@ 0.837616522481671
× 0.5912540559670129
annes 0.48658900528824806
Ges@@ 0.139838778030944
Web@@ 0.4869578703498205
Union 0.16193614702038764
ech 0.27252785678286157
urn@@ 0.362557644288527
Association 0.18932614561085773
vers 0.0770213135350222
osh@@ 0.967654556509928
cy 0.27010472300988536
lieg@@ 0.315185751456354
inga 1
aun@@ 0.4140443899663354
à@@ 1
François 0.49187060747517325
km@@ 0.3401458241379699
Sir 0.3718897650215217
ius 0.6059931046475464
wer@@ 0.05265128797159914
aug@@ 0.41392870334789567
tent@@ 0.4889049001880333
1893 0.6966217935504982
Hamb@@ 0.3959405167063455
attle 0.16247830708554084
1500 0.9975647778426465
SP@@ 0.46875974824836236
oi 0.6668933234714169
Kin@@ 0.16904770792904103
East 0.17584027265268873
anus 0.9008542871401196
novi@@ 1
Ort@@ 0.39716927793822626
wig 0.41055970139929565
ob 0.4079792058785939
mis 0.3515261907905865
Awards 0.2771730192433483
ès 0.13878621046467762
heim 0.3574243721416233
PS 0.5698927669568393
iten 0.17102716693823705
eu 0.22642330333879374
work 0.053740635989143644
dam@@ 0.14259987917746564
Nam@@ 0.4685786498426952
with 0.006793939061279449
Tex@@ 0.47537310998510424
Rud@@ 0.5577392097921396
nec@@ 0.35134632087661
sis 1
1892 0.6890819223563567
1800 1
1868 0.8538595801832999
isco 1
Blu@@ 0.5295939135391118
Num@@ 0.592528422913559
ations 0.02069606499769372
1885 0.6832266143510184
line 0.07368845101725073
tions 0.02704169516301423
Ye@@ 0.2757211963558337
Arab@@ 0.4616957675640349
ili 0.45135402201925245
lima 1
etz@@ 0.13031594384773415
pi 1
eller 0.3123245894284651
Friedrich 0.346321922756583
1894 0.6819371003021852
1886 0.741715745987581
Kit@@ 0.7154494641584556
eu@@ 0.4678639087971481
otte 0.36730005853053754
over@@ 0.1196203574148208
iter@@ 0.5144138955788575
outh 0.18949183157099525
afa 1
ert 0.05779779176273711
alit@@ 0.31749862684256425
ST@@ 0.6928792139441604
ken@@ 0.18255240328766312
lip@@ 0.5690804965920273
row 0.24669469053663368
orum 1
Bras@@ 1
Afr@@ 0.9468372231501294
Sat@@ 0.557588449311544
dri@@ 0.16880292836596536
aud 0.49689026948358017
uki 1
Alexand@@ 0.4695864760030369
Ka@@ 0.7409133641174757
Ky@@ 0.6363683107236856
atom@@ 0.6579703853981671
even 0.14118655938869254
Sport@@ 0.4406108289853622
1884 0.7466299550831801
film 0.047903250916382985
Azer@@ 0.9351014107139659
Lud@@ 0.3902317298056711
olo@@ 0.7479837531914811
ury 0.21582870466164902
under@@ 0.0981277287698886
{ 0.6145806272423399
ask@@ 0.1984559525940905
thi@@ 0.19952412919619184
1879 0.7867433886665306
zam@@ 1
tern 0.07014030611631104
agre@@ 0.21026700221667635
right 0.14980064456256634
900 1
1887 0.7168381219037067
ii 1
lot 0.1996144340799723
sw@@ 0.1528278193962011
MP@@ 0.7699851381445809
ū 1
num@@ 0.20248779067657105
12,@@ 1
Id@@ 0.6586971675303028
enberg 0.4671779302058125
ww@@ 1
Tenn@@ 0.4035488384967863
ister 0.08297150648429275
live 0.21968438002937352
Johann 0.35998372442756
yan@@ 0.3662500031111242
bour@@ 0.25413004978265585
eli 0.39245783912443966
ld 0.3643445565202211
On 0.03772212528143786
1850 0.7677764153480985
ross 0.11646505283610262
1881 0.7287862315254953
grup@@ 0.36851515106762267
1876 0.7505171510877976
12.@@ 0.9202129778183199
BM@@ 0.7782454592390411
King@@ 0.2254823123793934
eng 0.5343458401969137
w.@@ 1
roy@@ 0.5387752224859634
Kos@@ 0.6182627135279565
iler 0.3422563493511062
yo@@ 0.13352652548239488
dem 0.014939149345309212
1871 0.6797803598539727
alli@@ 0.24974260819187594
Rou@@ 0.19498757551770965
Road 0.21289893314154792
aul@@ 0.4604912945301266
Gold@@ 0.46867943845632803
Gra@@ 0.3164579788641676
gi 0.8094651649647003
optera 1
Eurov@@ 1
ð@@ 1
Bask@@ 0.5751830936040586
10,@@ 1
sel 0.20985537433671994
Kom@@ 0.10843962493395704
11.@@ 0.9085798557224288
Eg@@ 0.32560807600554326
K. 0.7098678104684994
gü@@ 0.7037796303689839
AI@@ 0.6087828907031726
kel@@ 0.3208323223247833
1878 0.6843135685650765
bs 0.15967512969013659
bot 0.538813288336
Bang@@ 0.4595995711418068
23@@ 0.37090147870989365
air 0.12888766548892214
1882 0.719789299628034
key 0.20532813548304868
adi 0.7273272219820018
ports 0.10272654528298882
Rh@@ 0.22396502338319932
State 0.09066673538921304
sion 0.04526699167073741
Long 0.4322378596145813
cito 1
quel 0.4451992284136509
tures 0.14753929553814027
tés 0.5189048833902975
ord 0.38683586433408884
1864 0.6997250321152527
enh@@ 0.24813689267952288
ew@@ 0.20171436735286946
alle@@ 0.5440801904578285
let 0.2734744367026506
Kl@@ 0.17126750236733562
1883 0.7362624405014906
day 0.05975446777532111
CC@@ 0.7521516063914259
laya 1
lock 0.23469080904686765
Arts 0.2583511743164259
Ali 0.5561580629260547
1865 0.7062799844454386
atre 0.2370035393937347
Sain@@ 0.42035518524986304
3000 1
1830 0.8861874109806666
1848 0.6640775513927146
post 0.2286726412742127
andi@@ 0.6361847505146577
ises 0.1888362712468604
Paris 0.09751728508924735
rich 0.5111896017087889
ret 0.3144072642152359
Journ@@ 0.30735531884512146
loy@@ 0.14594981609451527
1867 0.7108450608591552
yer@@ 0.6592521779841626
London 0.1098451993562622
ree 0.1245476177970567
lum 0.6211629251088365
Bay 0.27252457982898215
1873 0.7257636048709193
iter 0.19955802347710774
box 0.4126039148602004
Dou@@ 0.4281218662987987
sy@@ 0.09748419133154732
liv@@ 0.11418389693744847
hard 0.3076249211145908
1861 0.6722231599730192
ther@@ 0.09796081742015297
oo 0.5799589705721119
promot@@ 0.17121504180998925
Fir@@ 0.43094698066154213
ebo@@ 0.5390398269182968
bab@@ 0.7103609435542774
chin@@ 0.33859701083090815
ents 0.02320794086084996
Film 0.14252800139420468
1,5 0.9626992481970725
1875 0.7128797405009539
Pier@@ 0.9818399292116166
té 0.10426985965812983
yer 0.1963186262629289
1872 0.7256744326230226
Google 0.9442587502543187
more 0.03688880067464178
1869 0.7640580607193743
Chin@@ 0.19547263677266408
house 0.11814419367807359
ail 0.2121071294866088
40@@ 0.7431974755823924
stan@@ 0.5184856969186408
ft 0.10193127941377872
tain 0.06787869949706375
ouv@@ 0.07738026200907062
110 0.810514307683747
Way@@ 0.8423030164496615
Bank 0.3155931938351395
eni 0.7236931476272767
sible 0.25636342933542766
a. 0.4202858343017805
180 0.8657656681797696
ball 0.11014151251823548
ights 0.1314291012678122
1863 0.6800412089000454
1874 0.7080251996497958
Henri 0.5215794866794522
gh@@ 0.25428065757776513
Kas@@ 0.38700425094413393
unk@@ 0.08588659998879569
opo@@ 0.6920727159739849
Yo@@ 0.8868966043183509
ator@@ 0.44147225799029
Sak@@ 0.6500803102197148
any 0.08930726843004978
elt 0.06900232823797785
ogo 1
thr@@ 0.1395221565129739
tun@@ 0.30723011129446975
nik 0.33513764763717896
pro 0.39171796078866716
Cath@@ 0.3509802136964634
11,@@ 1
Atlan@@ 0.339156042289477
umi 1
verg@@ 0.5070510546138954
Kol@@ 0.24729766513747592
eden 0.7000381419288056
fest@@ 0.3995487925106286
ž@@ 0.69259433618062
Ji@@ 0.8005692157520456
bec 0.34374929545996735
Off@@ 0.14320690066872754
1866 0.5643001111162407
Alt@@ 0.455219520798609
inus 0.9284144706008916
ement 0.017066658078062815
Open 0.28900258516492316
ots 0.16062975563964657
130 0.8427204857031152
ells 0.23331232479249825
we 0.14553068099706168
ops 0.16550483144405392
git@@ 1
Sah@@ 0.8906497157044768
Wer@@ 0.10116733747366069
1877 0.6741144674920957
\ 0.972464676336576
ein 0.015521321235443336
ket 0.1326210839020541
back 0.0760691087662423
1862 0.6470124094432369
Anne 0.4530995419649956
apo 1
trol 0.7910728610474154
nis 0.15233510912986667
iri 0.6983002189940509
hip 0.2573623317393047
aut 0.11723446970843472
ran 0.24018653751036703
mito 1
ck@@ 0.23767345715084165
å@@ 0.6864583106763317
Nigeria 0.9179700249808326
Mut@@ 0.3165384619982892
erten 0.18862078456604953
Kil@@ 0.4470621972507127
Yor@@ 0.5205545826133695
onne 0.1750107524224935
} 0.5934060539127737
time 0.0254312780204447
DS 0.5457452175505998
Nak@@ 0.8318535931406379
up 0.0342080916123256
alan 0.5791004200808443
nen 0.11348598900295288
net@@ 0.16146817033002211
ateur 0.14522297671257495
lines 0.2087289963693032
Hav@@ 0.3533607261511651
Ober@@ 0.11265325282671175
sequ@@ 0.12045288548918241
concer@@ 0.11437823431852258
ker@@ 0.19559673605927755
ards 0.08541431798247658
geb@@ 0.051207581046417226
160 0.8758712251243593
omin@@ 0.8820757616951348
0,000 0.20200447754891412
wat@@ 0.17639161169531317
Wes@@ 0.3792134326102689
Muh@@ 0.6054420444458982
chen 0.05472181649469104
· 0.07070329591499981
Willi@@ 0.6894032897619823
maya 0.849290921109795
da@@ 0.3346138246736462
Wit@@ 0.40112856370832733
ures 0.09485070033019466
Alex@@ 0.8804843561138049
augh@@ 0.08509603207456198
min 0.5636268628943966
yle 0.26447325758332213
USA 0.22959834670803206
Die 0.014376102266971039
azine 0.1726745909564248
Dani@@ 1
France 0.058320272318703306
zor@@ 1
wi@@ 0.074746236229993
ses 0.03140487114326522
Stadi@@ 0.3094698795447096
iki@@ 1
cht 0.0979899604260283
ă@@ 0.6247049625888002
maf@@ 1
Wilhelm 0.3291327588511388
eas@@ 0.1358081669728079
engo 1
igh 0.599664382362682
oman 0.20710526674975133
Institute 0.18163502685887717
Commun@@ 0.1618676322121639
lers 0.1819380826119361
Franz 0.436624587527415
kan@@ 0.18976301273785215
80@@ 0.8148075227813747
Song 0.38854547685948376
ality 0.1075290892456912
ett@@ 0.14621358639218107
Neu@@ 0.2608362214065875
anger 0.27495961205143077
chu@@ 0.932553496126939
Lon@@ 0.8943107728299863
tena 1
Thi@@ 0.4070846631270343
140 0.8562780030824892
atin 0.22911303190474486
uk 0.4616951418935832
haus@@ 0.26288782264088506
alls 0.13214969894505493
enga 1
Ok@@ 0.5064594602425763
annel 0.23496964427001787
ords 0.13310227682242684
iev@@ 0.13138236649312493
ow 0.12577365290401996
350 0.9089031052016772
³ 1
eing 0.3240853519260436
ï@@ 0.10095416570037345
iss 0.313128245120138
Do 0.636887613820522
oks 0.14311018716476898
tics 0.07968711490641893
tice 0.11715463313421794
aa 0.886304552843302
vet@@ 0.47504944037864905
pha 0.6077595849030525
yi 0.42681523485452216
British 0.0728596397305162
Sz@@ 0.40367004401093576
ills 0.1916023217547981
ngu@@ 1
rat 0.2698303505856752
court 0.15678903154598994
Brand@@ 0.3891920163531012
ids 0.17341834018607202
Š@@ 0.6338053847356887
also 0.013310988930421338
ture 0.04089407972513311
acy 0.15078862494525502
lem 0.23307245986395816
Biz@@ 1
ants 0.040337149731870435
ag 0.37446144308086876
Il 0.02397231273149763
Roy@@ 0.38294884106369326
Band 0.20962706680721588
CH@@ 0.520978165140128
esh 0.29406756519462435
ng 0.25744040207830865
from 0.006497873524755764
dorf 0.20893260634783842
burg@@ 0.2429510125045984
Coun@@ 0.21704367884574494
eti 0.4723397438898255
uza 1
eth@@ 0.15764593026564228
ology 0.0645024864572573
sch 0.11523541107050984
Micro@@ 1
Wag@@ 0.5653171484682449
yst@@ 0.2501860940236234
tech@@ 1
Ñ@@ 1
rie 0.39281745563182924
Bundes@@ 0.11855993313597693
ül@@ 0.11637099569465123
ty@@ 0.19739635720965484
Kle@@ 0.22088371504448023
opo 1
éri@@ 0.05839884230718268
her 0.01524699005332072
ted 0.015979344615767267
120@@ 0.8627083727968751
very 0.047092943348976526
chen@@ 0.1981461717168977
är@@ 0.057349581059555364
õ@@ 1
gs 0.10044003235757971
Berg@@ 0.2766367807900052
view 0.09321215164094039
Wa@@ 0.5196273686451326
Um@@ 0.14099653974527082
lier 0.11704878244205491
og 0.34831707454462335
Award 0.13329701582525363
bin 0.4521796160854235
ated 0.010143280952640627
ective 0.13704338705600277
risto 1
sun@@ 0.41761401156344247
za@@ 0.6474422351667255
press 0.21953395453072083
Angeles 0.19585212437368454
To 0.19649093706719287
wo 0.0790907053385308
bis 0.02274028714310509
101 0.7753491975640397
ern 0.04500654207176404
124@@ 0.884913266285296
ê@@ 0.06333232112266615
elop@@ 0.2606784429229536
enz 0.23095030620660142
ols 0.0897053572722337
Women 0.18763573072035516
yg@@ 0.4488075407458549
ennes 0.18050679158440533
esi 0.17913777099587433
yth@@ 0.21623262190227377
nes@@ 0.7103352222659702
Tok@@ 0.3600144224749224
35@@ 0.7371366551016316
cle 0.2043834163330499
dis 0.29573657731574504
mid@@ 0.13966458699245918
our@@ 0.10590461750158556
din 0.514023398182471
alif@@ 0.17030549338089582
ely 0.04139303020841588
sche 0.11659595609311837
ders 0.12168321907033841
Best 0.18062161769932816
UK 0.16411796081513721
iler@@ 0.5249690905409437
idi 0.46152017187060623
eph@@ 0.361428623222656
wh@@ 0.0433081162188899
Reich@@ 0.18902940656941136
urt 0.10430001035761166
Heinrich 0.3158428355715878
Hin@@ 0.23073301120359796
stat@@ 0.07366950610537099
ues 0.11752430615349427
ères 0.0779842944404398
deter@@ 0.7382607131539414
Museum 0.14873884209875865
kur@@ 0.09908937982613573
Acc@@ 0.5575737491576453
Games 0.2193570632602948
itt 0.5209507567171585
iger 0.0942214812141651
esh@@ 0.3349977677255381
aine 0.07730226721912711
ref 0.5279572578260409
lands 0.08538863497536109
öl@@ 0.08584500269750239
feld 0.23283439208409273
zy@@ 0.29305903196607647
This 0.030853721811440412
vi 0.5724909346148312
hil 0.6810569021792657
rich@@ 0.07589873733596192
ī@@ 0.6536872997774192
Kis@@ 0.8948123589478503
Kun@@ 0.14882136173204075
ness 0.11653634936016012
aye 0.33372076186695665
Say@@ 0.9838629497807343
unter 0.03797542716587478
tier 0.24002259246410643
201@@ 0.8521847630866726
æ@@ 0.7224979034875516
Academy 0.1634188616647573
ilde 1
vill@@ 0.23857637470961493
bit 0.3050185121183005
wer 0.10940949133361487
ois 0.26612302910143065
town 0.0638525551541902
non 0.06595381391033797
yu 0.9413288808419021
others 0.09854822952832687
maz@@ 1
Nati@@ 0.2417541062055136
Chic@@ 1
Gü@@ 0.46198874542725815
haz@@ 0.8233964155048804
lés 1
eur 0.046427057166622855
kat@@ 0.22021471651422392
trong 0.02928558910209897
act 0.05307836977215166
Hat@@ 0.6169527217561184
rid 0.6675903682868
riff@@ 0.23423834374428254
ful 0.06295824262636705
aha 0.5754456898088993
bran@@ 0.16159822927857678
eme 0.12343312945599366
cher@@ 0.266969374143575
ign 0.06207822070042982
Beg@@ 0.12061750771624846
other 0.01678882062616428
stadt 0.1393804571579302
System 0.26662462508580864
Jul@@ 0.7572437519148764
ehr@@ 0.09485608168932545
Ein@@ 0.04602752434244896
vor 0.04625282879444362
ection 0.04276413603638372
ef 0.10506616676439719
Cou@@ 0.231070168382482
bul 1
Kab@@ 0.3675792216039786
Sup@@ 0.41340693220596925
Rep@@ 0.9906886294709473
aume 0.24224242510362182
bon 0.20197726889076997
isi 0.19522429697628965
Baz@@ 0.9521245505773965
onder@@ 0.3938132738021287
ppe 0.31982860354917997
cut 0.1908231853647343
War 0.05986264139821854
0s 0.04415439877515966
alt 0.1700059064157014
Great 0.1699966009250597
embre 0.18415032600980832
Tou@@ 0.33828411957198024
Town 0.24849545988444874
ř@@ 0.5529483717856275
Champi@@ 0.11371360136083283
eck@@ 0.16558898886979326
ku 0.678040953449851
Kap@@ 0.17051948100137843
Techn@@ 0.15845463800620538
dra@@ 0.10534050277096205
com 0.7344017204951158
assi@@ 0.20399807001369458
aina 1
incor@@ 1
yd@@ 0.3617669465141625
municipal@@ 0.1768018532939539
€ 0.7063571203484039
Jack@@ 0.5939457125959566
iti 0.5034894389814231
fic 0.09893693280400896
spe@@ 0.080364138436037
Division 0.09275278938509426
yon@@ 0.21118579249970032
Bun@@ 0.377947033330973
Gaz@@ 0.6898754342286071
ople 0.20519255267765105
Vor@@ 0.04342907467256549
has@@ 0.3788294298591307
aç@@ 0.2370149947935148
imi 0.49132437677815255
,000 0.195389386810229
wo@@ 0.10739604162445056
Vik@@ 0.41200339472324216
sil 0.3937788700291545
zu 0.011786092369965286
dium 0.42561163735637086
onc@@ 0.3307938535286521
zig 0.2784332522863154
As 0.04617661121880184
tour 0.11746991013778582
maj@@ 0.1264410187971431
Kre@@ 0.0875306781402009
ward 0.10160337145078868
tt@@ 0.3203219174574945
zur@@ 0.7175300389614476
ems 0.06259420854843056
ana@@ 0.6444764750021044
ulia 1
reti@@ 0.13106184552676306
oko 0.9508295599008099
dom 0.12575454295438143
AG 0.34399006090199213
Histori@@ 0.17198045563617906
uni 0.6846449030383822
ground 0.07827223826331584
Zu@@ 0.1722747892350406
Gel@@ 0.19667515230740146
thern 0.052845931108001516
tof@@ 1
ça 0.39678196186881864
Aug@@ 0.27406775260971744
istan 0.15375341185079586
Bed@@ 0.2932299824056005
sev@@ 0.5998089500102601
fé@@ 0.1782331727205102
High@@ 0.1693905998532877
Tour@@ 0.16359733321801484
med 0.32887665765157076
iness 0.08440195052203456
ires 0.07478471275542442
ends 0.09274828064280041
kir@@ 0.26657857869615614
Apr@@ 1
Kim@@ 0.7880699722225404
earch 0.07461583567269715
ait 0.032153730785986455
Scot@@ 0.10909421875109564
Proj@@ 0.16232874990777726
kel 0.1878495711417222
dre@@ 0.11540461739780179
eum 0.17477348362781128
opp@@ 0.14147091222174704
év@@ 0.07568996953061344
lang@@ 0.07232125586113146
Canadi@@ 0.1309885970208966
ution 0.060582597262721465
ods 0.10268771079320321
now 0.05224672823177926
SS@@ 0.40124748609424965
ums 0.06881289113467973
County 0.04674980408798761
Schwar@@ 0.30404356533877
Deutsch@@ 0.19473434720597801
CN 0.6771728225798949
inde 0.14767528615770426
dh@@ 0.18331827869846834
ave@@ 0.31566443081411905
ishi 0.7422873583443702
Publi@@ 0.1829317250145747
Da 0.21690667808923733
alen 0.1626762900329812
Dé@@ 0.14654036062365747
ference 0.11597595257243383
ndi@@ 1
He 0.009174762657938729
jed@@ 1
Math@@ 0.27911905887062777
kan 0.36495815506291784
Frank@@ 0.22645921390890938
Japan 0.11580316808876966
wen@@ 0.0760516652217065
hat@@ 0.3772952351831456
Zi@@ 0.15857473496762775
For 0.07031935065172494
Yar@@ 0.8246972111691407
ina@@ 1
Ny@@ 0.6380816195112916
enten 0.1201560826526886
ats@@ 0.2025886634542533
An 0.0856901170194985
zen 0.07578529675570216
bek@@ 0.10827449608723978
imbo 1
First 0.11721785902499705
Force 0.1651321118100689
avi 0.7253611484407688
olan 0.15113957946616993
wards 0.09554318609922244
bay@@ 0.4544981084083406
orig@@ 0.2344700935784463
Gem@@ 0.2788946476320871
33@@ 0.73449360337119
Ou@@ 0.24972028314159483
him 0.0271531994806337
May 0.042609452750468284
ways 0.09485316548118898
Penn@@ 0.17839878874381496
temp@@ 0.07849518260672825
ön@@ 0.10285658932763579
emati@@ 0.11129279316907174
unter@@ 0.03386618742118043
ful@@ 0.12279267316201528
Stand@@ 0.16084426889664427
ités 0.10727794927407129
Hein@@ 0.4167221174720485
diese 0.09626027899842698
− 0.2962156846463567
tak@@ 0.04221295259712966
Shu@@ 0.8133417601605196
star@@ 0.0575281497114814
ime@@ 1
ature 0.04319097359119329
down 0.06417482051985969
nier 0.2389293341072109
WW@@ 0.7816114940424878
strat@@ 0.17993371916884981
Volks@@ 0.1914037483991174
chan@@ 0.07425837391299214
bay 0.2230105194153
š 0.6981592043688961
clim@@ 0.1579377941920459
lah 0.4701191156465612
eine 0.010555936554990326
uld 0.11104918353563778
vice 0.09193712266518102
Syst@@ 0.23983045905444747
ough@@ 0.07215058532631216
kad@@ 0.3217279761340204
Santi@@ 1
ambo 1
ift 0.45817045712424825
util@@ 0.24559259417784085
kon@@ 0.05562196662867504
enin 0.5312950975709717
uses 0.049612061141988927
wn 0.05209953107798488
Ré@@ 0.09503835027429605
Land 0.1498341006714099
α 0.0796451912700355
ape 0.18468911420023382
vier 0.08292449233325698
han@@ 0.3116167337768135
ains 0.044907335958733904
hus@@ 0.18490625308522177
oka 0.8624852574938356
xe 0.16929835954842185
Alli@@ 0.21900590399097566
isch@@ 0.05569576450972969
ose 0.1744951183959692
Ord@@ 0.34100693285756795
ony@@ 0.14639093855886035
win@@ 0.07075966810946634
come 0.08298438307549767
light 0.07540721678991927
ène 0.10502411878331588
sou@@ 0.037745396855521654
ris@@ 0.1191295773764398
say@@ 0.09866010748394309
ici 0.3956857774857204
iche 0.21999323406785798
urg 0.10972461862884768
Leb@@ 0.25814923582227395
endi 0.6620563890336567
UE@@ 1
kal@@ 0.13061380271226522
Uz@@ 0.8734990045333662
Haz@@ 0.665354221110183
stor@@ 0.1070042018624602
asse 0.10408690166798377
album 0.02845182524146227
xico 1
pris@@ 0.1244749160359469
ò@@ 1
country 0.07472209789353758
ode 0.07443492180418967
lau@@ 0.23678880285420528
clo@@ 0.08758109961564635
lit 0.13673837868167718
ń@@ 0.49431594545842167
main 0.04848199530476254
Europe 0.07431401517629178
aret 0.8334249971809258
Kö@@ 0.14496952021729928
ischer 0.04486659060857516
eds 0.11118266658014515
eb 0.18218071387759488
uru 0.6579611257910092
Enter@@ 0.5976933074830195
Fam@@ 0.5947325332745498
Yah@@ 0.7980117300351097
Č@@ 0.6104453204242286
face 0.05750531947191857
zer 0.2466465973172933
alth 0.0711180243991841
gang 0.12139821061139963
tory 0.09341905003777876
ames 0.27724272722978843
istes 0.1368708321823129
ute 0.07313278178817297
pon 0.09544105164150332
aro@@ 0.4385081951327371
Prof@@ 0.3050918657330475
out@@ 0.04628604155167201
sons 0.12313106777402022
Christi@@ 0.26582782503277436
Tang@@ 0.976534819126056
inn 0.16397948050771055
Centre 0.1601885636749855
emen 0.20889587141790467
Rah@@ 0.1784435214334367
muda 1
egem@@ 1
Syn@@ 0.1746440291964486
enburg 0.2241721839510921
lon@@ 0.28030302647009037
ebe 0.3745157024357449
ulu 0.40313350992805785
Kus@@ 0.768249933467698
Party 0.08030251939951842
Prix 0.2067525819548044
humo 1
ako 1
Mann@@ 0.2164070295886852
Stre@@ 0.18273566041440453
ayan 0.34302220481111145
zin@@ 0.28228147320313673
Tanzania 1
mine 0.12875843330274328
isha 0.5827401584326382
sign@@ 0.10540429446128384
ages 0.02648818795100889
Stein@@ 0.2142101385535191
adounid@@ 1
less 0.06791416043395637
head 0.06901464058533711
ils 0.04348106767905766
ezo 1
Olympi@@ 0.15899717169640024
.S. 0.7006967177360217
Vier@@ 0.23265211357390678
£ 0.20370503913186855
Von 0.07565147276608625
sburg 0.1913043106595324
Luf@@ 0.18921284964352558
aup@@ 0.42007032224277174
Meh@@ 0.4913830834775585
iff 0.18772878923442152
ë 0.8340144192855491
än@@ 0.0327328508785
So 0.12827959280157272
zen@@ 0.25117749036015047
Tari@@ 0.95601893974487
ingia 1
ö 0.619536750242994
has 0.008850291049575085
ous@@ 0.18281259937330913
uten 0.21782420575703162
Rail@@ 0.10663219113076115
Hand@@ 0.09155063333984842
chap@@ 0.10932024605206629
jan@@ 0.27694690790417487
wa@@ 0.21391016366468937
uli 0.7832574918143381
August 0.02684351212677427
ative 0.022351303505619948
but 0.010900234639562138
agne 0.06085341269361167
cole 0.1418325501685033
Ni 1
~ 0.6591530012371849
hilo 1
wes@@ 0.06802647624256138
mak@@ 0.07747956178107232
ences 0.03579500900430732
auer 0.12110745289634672
cast 0.08453965217498309
Buch@@ 0.17067317131710494
Western 0.10419075758834583
unge 0.34281731552867184
boy@@ 0.2046180710967756
vat@@ 0.30885020639820554
Der 0.015743876424402812
met 0.06619338663384401
ā 0.6378686828806707
Nord@@ 0.09436642638125896
GC 0.7488447687160299
hie 0.12532885024347737
ě@@ 0.5617780308996063
quar@@ 0.0687863361184814
spi@@ 0.03596047981539693
odes 0.14471249554726032
Kul@@ 0.15275734982006303
ily 0.06836796268458324
born 0.02387370563654524
fi 0.7090862906286396
ś@@ 0.5917089150462542
ying 0.04321836803393874
gel 0.21142890183970983
Ago@@ 1
eux 0.07149995784523751
ayn@@ 0.6528020146069321
Uganda 0.7752887169559122
Nach@@ 0.056666610948193946
Chem@@ 0.2050648495587172
† 0.07650120165185166
Hau@@ 0.2190329825140752
ische 0.016450386556487416
dru@@ 0.1216874949049672
music 0.04229405665351129
Fes@@ 0.725037342269295
dle 0.09008929159380799
wil@@ 0.1375604157897615
édi@@ 0.1880662710495384
name 0.02498384932035477
test 0.1455140418522258
single 0.04349235489942251
Schw@@ 0.11381436362064153
Gö@@ 0.21316125085593243
auf@@ 0.014631001887237519
ande 0.09544515207276154
ited 0.03722165690634726
ands 0.0536017800535107
rier 0.16170249012689242
hir 0.6114321283384738
eka 0.6925886169398652
Fried@@ 0.16856397464220566
atu 0.8395899849081009
gli@@ 0.20270593609604934
ering 0.05775985234459437
ș@@ 0.42365196939410493
bers 0.09219655190360955
History 0.04573820721007226
ī 0.6221262685744147
emi 0.4444029525562737
ule 0.06473917546643698
pay@@ 0.12833084875960207
els@@ 0.07821504694727141
European 0.06439092642768522
och 0.2356826294016906
Ö@@ 0.09434767654106603
coll@@ 0.026561260371291823
Ō@@ 0.7668238355321266
î@@ 0.061965855629965955
Ž@@ 0.6587394090784467
sei 0.1359542653157825
Hak@@ 0.5228642511714909
Ere@@ 0.328186536439979
idir 0.48959739861694
ahl 0.11890365645407265
pia 1
Sud 0.18800098795628287
oir 0.1178264341671669
Was@@ 0.4558523585826748
dou@@ 0.0499065803035474
pend@@ 0.10483831544522636
auc@@ 0.16323110278706057
Beh@@ 0.18014874966011807
kor@@ 0.13734646145950302
ties 0.01864258947430311
́ 0.05100817564547035
hara 1
Mexico 0.1325410831330155
yat@@ 0.4302183738189367
kul@@ 0.10407960005870033
Roman 0.09665232775291914
unga 1
Wak@@ 0.6156927229056107
ety 0.056176928243272764
kw@@ 0.26159529394101383
Ng@@ 0.14022929923588845
hai 0.09639660582286684
uka 0.7395097544492725
water 0.048280314932669106
plu@@ 0.189280570348725
sah@@ 0.5271406686445187
Am 0.04313965011024234
lich@@ 0.041936353490421026
not 0.009304946933642318
Ost@@ 0.15596592070812015
tie 0.14732761732094501
furt 0.20097234887911156
undan 1
under 0.01883660404466362
kom@@ 0.04025386871873515
ers@@ 0.16997828795404174
qua 0.1586101186339414
è 0.5508190938468612
From 0.06478890339470027
emple 0.2632266996964067
Kais@@ 0.14970134511261346
ween 0.22728791104352394
phy@@ 0.1318969461437956
Canada 0.05724002108944511
dipl@@ 0.3664709931323886
lu 0.25112650696540545
dition 0.03556790495838566
craft 0.08445159993813252
Nig@@ 0.44912084397411933
Yer@@ 0.8270389455201581
With 0.07619585943722368
Þ@@ 1
Church 0.06347679273592556
agement 0.06294632206356235
β 0.5364322768633399
ologi@@ 0.081500414191788
Inn@@ 0.13616204085765396
ories 0.06405390317664766
Alman@@ 1
ē@@ 1
away 0.07822427186517014
syl@@ 0.11187881137642404
Yun@@ 0.5463571038502621
pen 0.11094271598167993
ving 0.06374858709254405
cy@@ 0.0891486504287249
ý@@ 0.9885527363568698
isch 0.03646409490522999
Kay@@ 0.6081243534879798
match 0.05066328874927575
י@@ 1
eler 0.06129487073671935
DR 0.17679806980015467
new 0.016947288109285724
Ł@@ 0.5054823122859559
track 0.07090899728471343
get 0.05732973333339361
ói 0.8712484651095028
ò 0.2984330287134979
Berlin 0.05563674056137241
Kad@@ 0.26526321889726484
ext 0.5125423751592098
lies 0.07446895189677608
strum@@ 0.33081809124245753
Sach@@ 0.17907904459203275
traf@@ 0.1350388171915114
mark 0.10768628798795454
pata 1
Eisen@@ 0.17388578949243064
rain 0.12472409734471693
English 0.046976589324711125
ating 0.01855426539225037
dern 0.06574015619637891
ę@@ 0.38377342810506787
edil@@ 0.35408151834171936
ος 0.05322740773001358
eten 0.03658187259973154
She 0.019723129565303622
gil@@ 0.1588961703887326
aise 0.11063940927934265
mus 0.18481646503733928
Famili@@ 0.13121620310607432
eil@@ 0.07945022500104269
dren 0.32089977494454663
get@@ 0.08905474071775346
ede@@ 0.5494423344807008
für 0.007010936064624168
hap@@ 0.13926562765680486
einer 0.013204339529889557
ý 0.17325834599650233
aires 0.03931649321127274
if 0.04151524913291074
Mün@@ 0.08307315868622255
Sult@@ 0.37094221292592583
eg 0.07248835255371412
± 1
âteau 0.1348007267224289
bed@@ 0.11442277206778652
works 0.04996868086360855
fast 0.10396937861710283
ä 0.6019529684422119
ş@@ 0.051903751401841045
bei 0.011566072410955957
asser 0.1444681754867886
chez 0.1290483262695262
sera 0.15578550759633344
war 0.006467318837492907
ahl@@ 0.06734527238955945
uss 0.08505111593174049
Archit@@ 0.11170943902380454
inger@@ 0.3492617215315951
kam@@ 0.25858345610717715
aland 0.09578138029735425
ו@@ 1
inen 0.09755614080795598
shu@@ 0.38922747869884533
juli@@ 1
üs@@ 0.056617781557659175
ə@@ 0.8591022656401607
mit 0.004297974407410478
adil@@ 0.6752260919778418
When 0.04716197770047166
Franç@@ 0.2836619481976414
aly@@ 0.06884275867340253
dit 0.07342020421024827
atia 0.35554434466970025
edi 0.333615580237096
public 0.023420525956412107
Pf@@ 0.0675124406139014
aide 0.14786294751718387
vie 0.0823352132395065
wn@@ 0.0754014901254001
yak@@ 0.2670201962569735
isse 0.0525128841770664
tors 0.04711393572136265
tou@@ 0.05399561072537463
Wan@@ 0.7372116414288059
enter 0.13419148231709802
acht 0.04167520075428605
won 0.02403700389828574
hat 0.031693639352204886
sten 0.021551862172476878
Empire 0.0924488818639701
lay@@ 0.13051898673464826
@ 1
kol@@ 0.17904771603908232
world 0.03804115002820943
hiz@@ 0.40098832930747574
kab@@ 0.28108782698144524
Kri@@ 0.09347826326522578
iyi 0.5743776833840639
Kut@@ 0.6247554409229588
U.S. 0.044074207421157474
Kid@@ 0.6880464718426019
tain@@ 0.043934796780402456
hav@@ 0.10063902806826265
stitu@@ 0.19499782641390478
NGC 0.22216829065605564
back@@ 0.07746188720844298
band 0.02314826340801214
prise 0.07494780734257753
leb@@ 0.07905573922276106
tive 0.034835657240876644
üh@@ 0.03562402746998313
alifor@@ 0.3996687547371363
ün@@ 0.033803178420042
sions 0.038910980837981335
Kem@@ 0.4645214207108744
→ 0.4989649818523715
Nord 0.09727717948632134
unds 0.06077494519000021
-- 0.5576232823640058
ustos 1
west 0.03435744502154441
sta@@ 0.08385436017120933
area 0.022848514777288727
wak@@ 0.17767442122237875
ː 1
ehr 0.07160019373185675
ird 0.21987540648222031
eki 0.583181440467431
auté 0.11715911992289035
chev@@ 0.14389880002694852
run@@ 0.03375263198318793
​ 0.47782182905252524
phil@@ 0.23172576268289277
hiv@@ 1
zon 0.46413060093332115
bak@@ 0.20593170466322328
tn@@ 0.13875090052208075
Council 0.05059646353753708
199@@ 0.10079997322011804
States 0.01987608750733445
ishing 0.06037769483444196
`@@ 1
performan@@ 0.04698125595266087
sian 0.03736761805726405
Mek@@ 0.627926604671052
round 0.04448441877854823
lag 0.05509575091067082
was 0.0009786520386740566
zer@@ 0.14657096568323502
semb@@ 0.048270080379119236
König@@ 0.09005308337599194
than 0.016003963667354376
lich 0.008682379108863774
ã@@ 0.49597017812529837
lib@@ 0.14456384419338147
gun 0.14424234059635943
pein@@ 0.12975830844999708
wid@@ 0.050856311585368554
wing 0.037719848915962854
DV@@ 0.5587898686746527
life 0.020164692025195455
flo@@ 0.04694887354393774
ism 0.030328235137453828
^ 1
tique 0.044655248010870514
Barcel@@ 0.7375304168804742
spr@@ 0.029423069017765154
anan 0.38505353538969833
inci 0.37742965645610704
aji 0.4187433266870968
sein 0.025523416194940293
enth@@ 0.07393416889706662
histor@@ 0.06189385593439872
üt@@ 0.05626831883220434
kaz@@ 0.6074264073821124
ampi@@ 1
tur 0.08081364033301458
č 0.628578795946062
ya@@ 0.6749772578869444
Ent@@ 0.06599716816533525
egen 0.06220556504801091
case 0.05286329491239263
champ@@ 0.08816214097511206
kt 0.030456999087319393
cell@@ 0.0640133512708158
ize 0.08367092037570521
eff@@ 0.01973735676619589
meng@@ 1
enton@@ 1
gaz@@ 0.3683789929116283
haus 0.11017835040189643
Spi@@ 0.039967175202196975
ć@@ 0.6067013124685399
sie 0.009448722953736945
Tek@@ 0.49640849074965815
azu 0.09893063782994127
chia 0.31015679755284464
Braz@@ 0.09892432084731986
rou@@ 0.0531284015178315
open@@ 0.07399855997101049
sed 0.03996591577610705
mbal@@ 1
ì 0.1866916142498875
seau 0.10201063930422972
erek 0.26546660832501834
chr@@ 0.1401573735286188
beg@@ 0.02015234752005813
öh@@ 0.04574835392064391
ilim@@ 1
Film@@ 0.11545958080471519
diesen 0.11887998335157095
lie@@ 0.036300228649914335
board 0.06557358007775752
March 0.021107700499651296
forman@@ 0.3374415234836219
sci@@ 0.06130938461516463
law 0.03974818614567236
nin 0.10549499439260826
ayar@@ 1
sing 0.055968762897497824
chn@@ 0.3812010778726542
aten 0.028809424880329743
Anc@@ 1
anya 0.31693658277202447
bourg 0.10949068534787267
grap@@ 0.039140365308260254
nah@@ 0.09673410583191437
¨ 1
ă 0.688415716951789
Nis@@ 0.9045212377099584
namo 0.7062740381755895
bora 1
äl@@ 0.02844769984079248
Das 0.013125055181185107
Rech@@ 0.07313984238286096
sana 1
tag 0.115425107130912
été 0.012032443014534534
Sek@@ 0.1393136911037589
unde 0.08138216453186403
Schul@@ 0.07296721095427106
cou@@ 0.03257112921635495
lik@@ 0.041059136808975924
wel@@ 0.04029915497625495
Indian 0.05295797847201353
body 0.05200355661964722
Å@@ 0.6746501114888692
ident 0.022544605230977226
gu 0.7336390289411754
ü 0.0781046637279216
ées 0.011501679680470986
England 0.03526785668387119
zt 0.12177413351534291
book 0.03387848853131389
Ç@@ 0.09156525837966183
Africa 0.06877304852227986
Oy@@ 0.4453374375344982
imba 1
μ@@ 0.03855153805177999
bou@@ 0.12114840209540083
kun@@ 0.0821895417373166
lek@@ 0.12618276273566761
mim@@ 0.5691925393114619
communes 0.09622801422046189
û@@ 0.05834068896827364
Album 0.09615256467669839
propos@@ 0.05367820103229453
squ@@ 0.044744614376707625
After 0.015900840499092888
utz 0.11611723673228833
né 0.03216476001035608
198@@ 0.07963609819940147
baz@@ 0.6246149485686011
self 0.021337098119090545
sonr@@ 0.4553580576705622
Bez@@ 0.048771425404071304
kle@@ 0.04347108396725245
that 0.0018970963619589006
на 0.00168012508943007
izi@@ 0.10061734848481658
lim 0.14591280223678776
mah@@ 0.30136607601584325
ographi@@ 0.08412251994987417
inden 0.09489374882541071
eil 0.108868771814227
sive 0.023360247828071196
fu 0.6451471692409378
chef 0.09058133700317099
Schi@@ 0.10685578808529388
ects 0.023934769367466982
small 0.03035065427722208
aras@@ 0.7238708506827042
There 0.023429580157041115
power 0.03898481974946722
Kamp@@ 0.1294614062771083
Yes@@ 0.8404014586667701
Ś@@ 0.5437400917335022
sav@@ 0.0730124744015466
endel@@ 0.5364722758547191
kit@@ 0.1805836524996071
ˈ@@ 1
voy@@ 0.06518726759544238
Wir@@ 0.09026731081443277
і@@ 0.49783191498517365
kn@@ 0.07147515035930685
ç 0.10316752442957726
hen 0.11621188425435577
kay@@ 0.15462525329653767
sak@@ 0.4149542703146967
Institut 0.12091627118893102
kara 0.6360998279790376
style 0.03588659913524122
½ 0.589881781794785
Army 0.040253449865447606
wi 0.6491783455079883
kum@@ 0.19470183382309844
aifa 1
ń 0.4354059068452639
ahr@@ 0.04726039708728809
active 0.05122757510675145
usi 0.8387877986892681
aill@@ 0.08284470467526944
hin 0.0754882212573749
saf@@ 0.08271364390254542
sych@@ 0.05911019180370437
andes 0.13264592296260816
ą@@ 0.37311205258083086
Haus@@ 0.09355285849950543
eaux 0.09139251177350871
his 0.002207708524273584
At 0.0214223494395051
tien 0.11587403204964854
ã 0.2849464955372714
stell@@ 0.019690987081436528
--@@ 0.844064521819168
uch 0.07595124126321369
Span@@ 0.05069564436821795
Australian 0.04622988661404287
ayr@@ 0.1806274621153376
Jah@@ 0.0818403393120864
erk@@ 0.05936657502822076
Cao 0.3303936246029006
febr@@ 1
Hoch@@ 0.05317049679337879
utz@@ 0.026967703760668253
etti@@ 0.20585885217061783
adan 0.3164515977877387
Canton 0.46300164563679974
deven@@ 0.07815775795879411
ț@@ 0.43463306626442433
Seine 0.0632531723969418
ù 0.1963300531712241
Eis@@ 0.16622542312517688
stil@@ 0.2735311451069556
kus@@ 0.2060775502978674
tham 0.12411723989687012
Sta@@ 0.05196523410704976
enst@@ 0.07007126164245739
undi 0.6653973460079712
ological 0.041205868399057204
ê 0.10769562626728588
Sa 0.09100575915442966
cu 0.35355631242546076
this 0.005979992349904391
sous 0.01965132526995744
KK 0.5967696045434077
Gün@@ 0.2477068842380746
Olymp@@ 0.04565892137370965
197@@ 0.07083830388246835
anah@@ 1
pour 0.00441757100213238
migu@@ 1
Đ@@ 0.0294879412316651
ths 0.033453597110856215
Sept@@ 1
its@@ 0.0743182862656937
French 0.026436644137858525
Ital@@ 0.04725535835976247
allen 0.09038204330697293
erst@@ 0.03923170359305136
hem 0.2259123243233407
ungs@@ 0.0076793748640387165
isim@@ 0.4498511913490353
œ@@ 0.05715781581483394
đ@@ 0.017175685050643912
uko 1
had 0.003673186770446759
suite 0.04402550268283736
led 0.012946054351956905
District 0.026548659994480167
Spiel@@ 0.05001536923409271
ober@@ 0.08578819663326266
syn@@ 0.042464201377598244
Schl@@ 0.07859312962647133
ø 0.6783430379708973
where 0.008779322653454543
Isra@@ 0.11227144985732625
hak@@ 0.2958944392941646
illes 0.10626916758470181
hand@@ 0.020673525394435722
Stra@@ 0.07873894454878065
Name 0.06432881984603711
ause 0.06593361847305201
ency 0.02973820940115663
üc@@ 0.04856205078455066
change 0.031105069292932892
malar@@ 0.3087321740244876
führ@@ 0.02637287061567335
benz@@ 0.32853174906992855
lub 0.30878939898073104
ר@@ 1
rant 0.07452447477420669
death 0.025648269164965085
dings 0.03832626052993545
Ş@@ 0.10099862055821593
park 0.05174836202279815
essen 0.08296883029329341
tei 0.07423796028091625
phe 0.14617997368006877
Ø@@ 0.7540619343856446
ording 0.036546054470518126
α@@ 0.04522308123716016
aines 0.05851928917555836
ß 0.030368461641216683
ned 0.01496076419244093
zel@@ 0.10007205400176604
lik 0.13384020997101265
nay 0.16688368891190158
jum@@ 0.12235354525911651
sad@@ 0.3651303362957459
bán 0.23609503945770394
196@@ 0.06936689980693643
ì@@ 0.9092609729825628
bey@@ 0.47633016466106826
áu 0.48253983078123797
ż@@ 0.42091216317981145
א@@ 1
orie 0.05655571158459446
ς 0.0888032121575971
tere 0.1349822203216224
kho@@ 0.2279794266631464
inning 0.02527137995974989
road 0.028266965835179122
action 0.02118342711498464
abu 0.4909906714786743
April 0.011613417502968012
long 0.01727828118530338
ʻ@@ 0.5265535465705579
kö@@ 0.09953374081451614
ilg@@ 0.31285194160471297
Kant@@ 0.10022899468845019
nationale 0.036914523543282125
ź 0.5500649349787939
rent 0.031218660083345454
ecture 0.04150119649412215
irs 0.05255255284559175
By 0.03345834346265556
ambu@@ 1
esch@@ 0.06478761091490422
iken 0.14560866861781552
kop@@ 0.13436505908996765
190@@ 0.4007589926799168
eser@@ 0.3772810597529359
ա@@ 1
stand@@ 0.016613137334383812
hut@@ 0.3498064907752201
ities 0.030104831965925095
point 0.023009224202131622
form 0.012408062678738925
kia 0.7619924197220508
lake 0.11433666401455875
′ 0.45315611817603035
thi 0.12610665326832945
text 0.05516364412284823
ège 0.04565933501082595
atz 0.04884216160905368
195@@ 0.08497552567887162
mission 0.01575498672704188
new@@ 0.03446094673823882
later 0.009128289423817068
immer 0.05183916698079521
vita 1
yas@@ 0.1291233038055097
hips 0.021158332184999885
four 0.01344452988870139
His 0.015878405718406877
stand 0.020538900645621718
ät@@ 0.021525437708775193
formation 0.031164412236235405
dér@@ 0.07675651894704372
Mai 0.03313126073722382
elde 0.3308240488548134
kri@@ 0.052148170213786725
plus 0.006586479414114741
ainst 0.4281425022309552
Rus 0.5011073610459075
kap@@ 0.07549734019225855
ungen 0.005933776806002087
ő@@ 0.632759743703244
rö@@ 0.08318859230090513
yal@@ 0.11217880958606967
Fren@@ 0.7005382532288823
leri 0.041250341264199526
sam 0.06652152259151659
מ@@ 1
Milli@@ 0.05224063518907956
ô 0.06658576688486355
Unter@@ 0.018529881448519102
chem@@ 0.04039361185107794
eig@@ 0.025855273512453175
ilk 0.07339400570745293
ney@@ 0.29397720029919416
irk 0.07858084962307463
193@@ 0.1065924200895447
Des 0.06723873985643908
ṣ@@ 1
wie 0.013869115233850602
was@@ 0.06355169649480512
194@@ 0.1762400764397901
Klo@@ 0.07687572478892463
icht 0.01904911267736907
Grou@@ 0.21008904856319205
ational 0.03344721828941108
major 0.021084018338048946
Burundi 1
aille 0.041146268583155676
ა@@ 1
Heim@@ 0.072391823490679
arak 0.1257559510818561
athol@@ 0.02385816021242116
center 0.03912784954066783
ority 0.027276477413088328
kim@@ 0.28902775980933254
mich@@ 0.8241022539543138
ş 0.0883826266093265
iques 0.08047826929464642
align 0.10323754412221249
ht 0.07029388710999325
ool 0.4241533026594424
izi 0.5408480001847857
ück 0.07055039026423574
ţ@@ 1
put 0.03566362231255136
conn@@ 0.014904430733706215
А@@ 0.005809845255122312
Her 0.03924629514557535
ª@@ 1
coun@@ 0.010384221036873913
hui 0.06731296350673048
rom 0.32663486897951444
esha 0.7239218068489819
­ 0.23588499905641624
ists 0.016702315580471944
eben 0.011663334291580178
kilom@@ 0.08325252825014798
ogen 0.04634929318904745
det 0.0273930221955968
amu 0.3915401411151476
üb@@ 0.07056754753109605
osto 1
вич 0.029304502405354618
ー@@ 1
Zw@@ 0.04406880657765372
politi@@ 0.020903956484808858
gé@@ 0.07482712441297594
schule 0.04405179155978447
like 0.015737705011283548
gether 0.027614395509728808
Philipp@@ 0.06467425152259333
Î@@ 0.20619827841882607
liche 0.010576742728065512
schaft 0.009618728264612034
anl@@ 0.060350461892907145
law@@ 0.034442448444445765
sti 0.9734096622937639
mili@@ 0.06301586556944615
ember 0.10266748519428505
С@@ 0.004665450899267514
ament 0.033713666938643624
type 0.030030691812945133
nak@@ 0.23115492437621507
Anf@@ 0.24143020412402535
iç@@ 0.16458345967626312
teur 0.01503508355793775
BK 0.48699518374500267
nig 0.06397953328952496
Compan@@ 0.3483047734153898
ought 0.015501279132717687
tish 0.06915853681514811
π 0.2554218952758497
African 0.040250306248696376
Region 0.04544139628497619
eden@@ 0.08591812712568625
iku@@ 0.790499704884453
rue 0.06798616462657986
place 0.009186541378674827
comm@@ 0.009790451257555333
ß@@ 0.015007770719290018
ה@@ 1
Govern@@ 0.026954729617836425
fore 0.0386639341695873
ainer 0.066550262509851
nie 0.07337854892128674
р@@ 0.006141812887150199
ב@@ 1
iment 0.030565488578470197
192@@ 0.9679964111173955
Guin@@ 0.4464148837986789
Histoire 0.05170532900638394
équ@@ 0.06603413737448702
Geb@@ 0.04621807847070532
ograph@@ 0.03669584833945263
ève 0.06653303898866308
ischen 0.003562339934230175
1. 0.014827695519538657
eurs 0.020926202092903762
part 0.006218415444244703
brach@@ 0.07547581364522274
þ@@ 1
Ü@@ 0.05916310550048071
Wilhel@@ 0.23141070427463287
inté@@ 0.0668848921772839
в@@ 0.002810026456174899
tah@@ 0.27673356587988257
itung 0.03480345533635215
iran 1
Hung@@ 0.060460637672409424
ellschaft 0.050315393915678124
scher 0.04368056311995976
tek 0.2519826153582116
lieu 0.03518299436401555
main@@ 0.022436229123298543
tig 0.049455064585792914
ל@@ 1
dans 0.002301574367044424
dete 0.02487986788065604
hii 0.590729621801374
pose 0.025618346395945287
poste 0.07455647056380212
Feb@@ 1
June 0.012057098411655866
meister 0.05046096945878345
then 0.0072280087633528455
ehem@@ 0.32337867654407876
Nam 0.0433525598192305
angi 0.2658409118592824
left 0.016085824924700325
oire 0.055757294898142205
kas@@ 0.14064399460835472
best 0.020827255335343752
late 0.020367757857988035
German 0.01954722980142427
weg@@ 0.028872223983236515
ł 0.5855874313770748
й 0.0032075285717713614
ved 0.00795050905253243
chini 0.7629285040888543
éch@@ 0.04433604235021595
çal@@ 0.23611167675075959
DNA 0.1062783245526502
ḥ@@ 0.8261925640112582
raine 0.05741727549006354
They 0.012260470641548792
wana 0.9491474199378368
Krieg@@ 0.04203076383141444
tet 0.016283520278598532
yal 0.07364448301090432
kes@@ 0.11205220682724745
æ 0.9183786067119044
Ankara 0.27845710653801103
å 0.5827680131275618
ography 0.021875224928860553
dur 0.18187423471725367
Æ@@ 0.5996145060059624
ṇ@@ 1
ended 0.01076193892692571
home 0.014732145418126948
tay@@ 0.48479664197688666
Nieder@@ 0.03653393363774287
Schwe@@ 0.036380648687233036
ð 1
ש@@ 1
Zwe@@ 0.0629856800923625
riff 0.05917123439668746
iker 0.05623757728530747
µ@@ 0.5504836525887818
position 0.011116564571696306
À@@ 1
biy@@ 0.4856824071562571
ν 0.0511787451944951
dies 0.03494381139341522
iwa 0.47809614151418706
mann@@ 0.04725543215223592
eshi 0.4432389456447104
many 0.007005598449656114
κ@@ 0.02004434375521518
Ab 0.04803731988913189
Minh 0.15625083334107415
aining 0.01705580590234306
fs 0.04047555520226316
vention 0.03420289962743414
ging 0.027509186192475422
Sü@@ 0.03290156211977276
Elle 0.012363827779682215
fall 0.030499802755472916
נ@@ 1
Ba 0.16816672692401843
tries 0.027056185061514346
âte@@ 0.336356041745809
ansa 0.752732062025858
Ż@@ 0.48651674955003954
èle 0.05677165747303962
class 0.02664171201256223
fen 0.02994034587636795
ühr@@ 0.04717669480676074
cian 0.04402829789478562
uu 1
hio 0.9086186763162465
β@@ 0.019253963980452555
vy@@ 0.548129775267573
pass@@ 0.009685043892071006
ending 0.024795498763451496
atur 0.050408021320048166
assen 0.043627304998426764
elek@@ 0.06904043698731657
force 0.029462084551674504
ğ@@ 0.039548235311558134
alist 0.023563881957399037
they 0.004605309823373878
н 0.0033839205635519914
yok@@ 0.3351351912359012
entre@@ 0.042102693673391485
Theo 0.14322079325586864
asili 1
ი@@ 1
Kik@@ 0.6247050913650056
ligh@@ 0.026231315036415917
union 0.03869097516694047
aum 0.028925141796169295
mittee 0.026203986773799235
Bü@@ 0.08101058688615771
inh 0.05990350805873902
mé 0.09639410842974547
dini 0.5980299890604616
sanat@@ 0.3520330479830496
xu@@ 0.5109311234358241
drei 0.018673062977783626
О@@ 0.004921539716329752
isen 0.04479904384439183
issen 0.06308502074373415
ʿ@@ 0.3143305440982152
р 0.003692679229464987
Adem@@ 1
Dies@@ 0.036682670478666926
itation 0.039525121318315565
kre@@ 0.02460455886738209
anni@@ 0.07006665465200412
δ@@ 0.021091885461267633
sour@@ 0.019298260026043217
auf 0.002236220852521671
kis@@ 0.20336592173912985
sang 0.06731188443333451
alian 0.03384478803013554
ateurs 0.04492099905233595
geh@@ 0.015112404711555954
Wah@@ 0.15553104835348208
hau@@ 0.04487263749134997
films 0.029000770940148336
® 1
dres 0.49424024804241384
bez@@ 0.03924894940537605
ments 0.017454118996324524
naf@@ 1
hr 0.040684577992915014
zog 0.046018616208729254
fied 0.01521023463728563
Soh@@ 0.2466128579729291
date 0.027231762423936143
tly 0.024016406361765722
ös@@ 0.0461329230142712
colspan 0.09603650815297489
ologie 0.01839128052690274
γ@@ 0.02578242716811391
Hö@@ 0.05479026557982185
ked 0.01599269953054647
bü@@ 0.060055613109262614
ease 0.0168777529960291
σ@@ 0.01975306040208242
wah@@ 0.03873890309794781
kno@@ 0.03192452698285779
tung 0.014193476997844836
will 0.01009140815788044
ː@@ 1
run 0.023252648378563102
ème 0.02321274034332214
premier 0.016339609359406145
chs 0.059846649107351615
zw@@ 0.044164201054021836
ṭ@@ 0.825643785609097
pf@@ 0.021828350889497125
lang 0.03263437894291357
Virgin@@ 0.3814769186981537
voir 0.029337560352057312
Ban 0.1374617778618371
cour@@ 0.012097400303561327
partment 0.019031799322643598
γ 0.5151855906348386
unia 1
nach 0.003917542526373156
Tuy 0.14039203740080872
front 0.026737254010061898
eye 0.08406086521378457
zur 0.006566921161787799
zone 0.03834900664781056
Dok@@ 0.0774403547782628
church 0.02105487010683541
Arth@@ 0.5710222299284541
2. 0.026341055622642256
ро@@ 0.002550937594042963
ός 0.03313414608960146
jia 1
oren 0.026060926948132404
ș 0.426064988980527
ements 0.009213439569078555
yaz@@ 0.06552655360318375
ǎ@@ 1
zul@@ 0.0751330789392514
ν@@ 0.021306524792335725
retur@@ 0.018598822097028254
─ 0.1421019791384668
sey@@ 0.2803474801263865
werk 0.03510243417982846
publi@@ 0.017852577551574624
isches 0.04954380841970228
leur 0.010586091413676946
Sov@@ 0.2789572743410403
leit@@ 0.039128183570166
Kib@@ 0.4963611733498641
chang@@ 0.01220391459679441
emu 1
reste 0.044653218382104586
leh@@ 0.06855901948079145
ה 1
ė 0.4624892635458345
π@@ 0.019676677923352485
ε 0.04422111079234604
là 0.003603676387939286
she 0.004302386398265432
udi 0.25676425469223607
Ireland 0.032893416463265615
scor@@ 0.012088720936732583
ı 0.013940792764358645
loss 0.01753557434587728
éo 0.05844525607676841
soft 0.17371461604712182
Öster@@ 0.04704054173752691
Geometr@@ 0.2028192491759052
gian 0.04066517425402567
tour@@ 0.011191324856683766
ль@@ 0.0023272644985835598
erh@@ 0.024260242113267664
ip 0.20326972734081833
aissance 0.03530378137795862
commun@@ 0.010914724719103505
game 0.009349483594710169
Wash@@ 0.5602224743917882
mw@@ 0.07587087793542754
veau 0.1389378894335653
song 0.011000570496046776
aben 0.026340022997302485
ief 0.0225331698909493
due 0.01140119996677497
189@@ 0.27295012244196676
prises 0.04585716548396464
luy@@ 0.24396432259292436
η 0.008592031818191693
186@@ 0.3289016551776222
cht@@ 0.04910649849966448
straße 0.03191171113494985
в 0.0004414045348019592
dies@@ 0.09163835623479821
äd@@ 0.025092146908432617
н@@ 0.003001368982272728
ン@@ 1
Une 0.02806188031664319
provid@@ 0.014197709127680029
èg@@ 0.04719869860359214
wr@@ 0.038034905404140146
大@@ 0.006311282639390753
к 0.002112794720496439
eski 0.15234490991571412
Ét@@ 0.15511286900785476
yap@@ 0.040720917706339635
thu@@ 0.04792380380458275
τ@@ 0.017557870440842695
ög@@ 0.0603542451442946
ω 0.13680761291034274
् 0.0013334594458919672
school 0.008134763348723931
ž 0.7731478925940465
kut@@ 0.2605053013501421
qu 0.027423852466641384
Best@@ 0.0493814185408716
Staats@@ 0.045461173680884495
tim 0.09183661491576174
version 0.013129078637557745
emba 0.7413613863794164
Δ@@ 0.051219799098065656
êt 0.04223144051545192
К@@ 0.0047606288729063135
zum 0.004081607874685871
head@@ 0.017842309486894768
ка 0.003298949754582036
schen 0.014808956088700692
dah@@ 0.04758646384703452
team 0.005662310473920121
ï 0.11099057587592266
site 0.010680230314362056
auth@@ 0.012244160645447925
region 0.01873700276396539
ת 1
ον 0.1084191065365116
lande 0.054537841866616255
θ 0.3407028338766275
monde 0.023629641758411177
rem 0.5800862844169313
àn 0.05982639035848758
Groß@@ 0.027082927778810374
umu 0.19831395981665875
Akadem@@ 0.08019886874622367
bere@@ 0.026415975014923633
Fak@@ 0.07220071286363001
ε@@ 0.02062442688905004
ע@@ 1
lieb 0.4428330390214285
ù@@ 0.14689383701729544
heit 0.01902747388734946
й@@ 0.0027578799672727757
lil@@ 0.3963338360438378
ected 0.007213646740916178
の@@ 1
ı@@ 0.028529069951947154
phi 0.17976940022295304
tional 0.009837766373874325
Grund@@ 0.026594302863706395
issen@@ 0.046445212392047006
ד@@ 1
ograp@@ 0.0496375460005256
äng@@ 0.011798296132502117
Bev@@ 0.29487852800328673
haf@@ 0.03661349324084888
ė@@ 0.49819984758791064
Ä@@ 0.028498208790655025
enant 0.02902235903628177
Mart 0.1640243696259856
л@@ 0.002789564693261671
tee 0.14621170309525927
full 0.019554595985560606
И@@ 0.004862342989293066
Σ@@ 0.01571179400986947
Deutschland 0.023503533750132775
bahn 0.029885908515152763
peu 0.026214207150838855
nant 0.041869566516321496
″ 0.47366264636803673
188@@ 0.22363337460553023
Süd@@ 0.024233773331356564
λ@@ 0.02168382462132165
feh@@ 0.04417793957045109
ρ@@ 0.020248202477397396
Kup@@ 0.11446784815362653
ichte 0.03388371161075979
platz 0.044666144164382
Ayr@@ 0.5503496699396151
erin 0.033568439810642205
„ 0.002676855029179121
fication 0.017926153194528074
rail@@ 0.02006272326619229
syst@@ 0.019005959448314506
them 0.006535509906766084
year 0.004455428992371098
high 0.009551054609584785
speci@@ 0.015781120921638456
187@@ 0.2602791323176455
Stad@@ 0.07656394454335515
omen 0.26939540184333177
auch 0.0029517975811600324
Α@@ 0.020063306097196577
kana 0.509171488963669
ва 0.005023669165745681
ellen 0.014633206683425817
fang@@ 0.03676354320175046
reich@@ 0.013273243027577254
zh 0.10261546220670914
did 0.009958102397361498
ский 0.0038743072108441425
initi@@ 0.011354230766503022
tik 0.037513714454204115
θ@@ 0.016128529050136023
ň@@ 0.658077334952807
ample 0.017880952307179215
include 0.009466952297526036
lege 0.0231431756588874
television 0.018129400908968234
wich@@ 0.03446048088586108
stad@@ 0.18992969645714416
Κ@@ 0.01802258457393501
oku@@ 0.3048711724659587
sek 0.32742170996927944
λ 0.05311290992957406
taifa 1
neur 0.023730629538312065
eure 0.0416707144954679
tek@@ 0.08197198439114177
cet 0.04730807309501751
sik@@ 0.2639132839828911
mau@@ 0.08553128350975764
Д@@ 0.004596761271215901
oyn@@ 0.12235488965927631
É 0.5429198210258768
system 0.00943118777510489
üm@@ 0.02965556810924347
д@@ 0.0021971492922637963
city 0.007622072450462761
ē 1
aş@@ 0.04450230865783483
İ@@ 0.03264979402648672
publique 0.03428917132995754
с@@ 0.001474244035863353
two 0.0024705559795762068
èse 0.04248893292400021
tard 0.027453803843285083
ficie 0.3942729436314455
ρ 0.04490276053905862
zil@@ 0.2889579790090417
м@@ 0.002405125937414128
nach@@ 0.019262033953729545
bau 0.02275112871421437
sans 0.018251276843564992
евич 0.028545023273451445
sche@@ 0.03198156460299452
‎ 0.8004126724070096
kata 0.2172474421303572
una@@ 0.6463039657195123
about 0.004744323425379071
phot@@ 0.018461567704469887
yol@@ 0.1132250884528906
schw@@ 0.0236577683586507
yote 0.8357017714604345
----@@ 0.7607254926810936
nou@@ 0.05896184291252228
Ó 0.607618274378397
Musik@@ 0.03026708808141437
essor 0.019916071908727306
wann 0.4315967101057768
atique 0.02816899139711529
kreis 0.029677138774104654
française 0.02772668163943977
have 0.002382762617381558
tains 0.019058340332921652
reich 0.027125981191157892
éti@@ 0.031170042070683045
kim 0.16843813163788776
Grün@@ 0.02934784533483295
Haupt@@ 0.01751979913518317
χ@@ 0.015181572375154847
3. 0.03415358344692272
suff@@ 0.014852006415852697
mak 0.07832526701123675
éré@@ 0.029827049394136634
national 0.008686782304936195
ded 0.010770405325479787
mash@@ 0.37854032220439787
reib@@ 0.022713839971761744
ľ@@ 0.9222968366144467
Mei 0.7009772299363721
ifu 0.6091569915040008
ifa 1
Ein 0.019225112287645774
iß@@ 0.03140416237681245
most 0.00441490243892098
uzo 1
anno@@ 0.16017605608597568
ם 1
Π@@ 0.018733085501484788
techni@@ 0.02306914556916806
avant 0.013520630786653396
roi 0.031866116296485524
σ 0.4553395113516799
ла@@ 0.004034768166878437
ération 0.033264859541696536
ingi 0.6974788028101727
nom 0.011071510702785699
stud@@ 0.011453422465305747
verdi 0.28443576844309776
и 0.0004544392021915062
я 0.0024389364735473897
day@@ 0.09356208278548464
érie 0.07168475743142524
ő 0.6542221614959586
ə 0.7905655901716124
ე@@ 1
aki@@ 0.34575613388623405
onnat 0.03187673677851788
4. 0.03770468620729191
inin 0.03218637148580521
φ@@ 0.014512031908656235
toba 1
isme 0.019673311020797155
tam 0.20324048731587602
│ 0.04021688186004262
same 0.00657295025532403
trou@@ 0.021956712469850814
் 0.7177510821935571
These 0.013491389893652722
group 0.007429366366122899
δ 0.5319706003606433
ן 1
ition 0.015125830869859648
state 0.0064059339532659045
ь@@ 0.003550486868532084
schi@@ 0.016734871505759995
dik@@ 0.08568322392815395
Au 0.01812281646023318
grand 0.01789680975655095
kt@@ 0.03823858741627234
у@@ 0.0015169124111747455
ɛ@@ 1
ched 0.012637430159180117
ganda 1
jou@@ 0.01085152273143715
rière 0.036139078075704836
ло@@ 0.0024805971627562995
ι 0.021806556503759743
ּ@@ 1
П@@ 0.004799049698016496
რ@@ 1
büt@@ 0.18022524093654724
temps 0.014449542514668639
Pia 0.6841316673101727
イ@@ 1
Г@@ 0.0043560814745506335
Phi 0.12073856399363515
Landes@@ 0.02766415981401013
eines 0.008787920659161279
ης 0.019058803535333662
ί@@ 0.014291750270044933
Zeit@@ 0.023456803083329918
nt 0.019093395369730686
serve 0.022657242304382638
times 0.00864866825340598
dak@@ 0.272791213897245
évol@@ 0.028545100578014713
çe 0.11424083204695383
Ā@@ 0.5798266788847503
т 0.0018150135718753293
tif 0.02565390543279942
・ 0.4628959913379239
к@@ 0.0026778770620399625
כ@@ 1
oğlu 0.14051837988792815
äh@@ 0.014086340617669202
äus@@ 0.03093470275678784
་ 1
may 0.0058680300989896045
В@@ 0.003773301021430347
jap@@ 0.07821965158103314
ω@@ 0.01951867080401895
Lan 0.0696773332984654
kub@@ 0.27803726141730556
eş@@ 0.06494432808126377
μ 0.07948813290102287
endre 0.02022354729985325
י 1
Califor@@ 0.11246182945757811
lung 0.011775137459999457
station 0.006655278442811612
verl@@ 0.012200922383209294
ι@@ 0.011571587691785208
Т@@ 0.0046750260014372345
§ 0.11682629876748292
équi@@ 0.025995338631624856
gö@@ 0.07714133963204836
о@@ 0.0014878925523985097
indi 0.3417544861205953
umia 0.6364209383299022
kem@@ 0.18508670514035366
usu 0.08737922903485629
ր@@ 1
ographie 0.02246772102979409
Mp@@ 0.5839034084077976
hoa 0.024919863655564978
äs@@ 0.015269017490760177
М@@ 0.004614005863833604
section 0.014862651982888109
Eins@@ 0.025358432560583233
mt@@ 0.09906181929315269
National@@ 0.018378932338010072
ская 0.005770330416394959
5. 0.03683939573744849
ία 0.011725294470078463
ability 0.0136155910129236
diff@@ 0.01034725813833647
mik@@ 0.16323925418703175
ů@@ 0.40714042995039873
ח@@ 1
first 0.0014630580187809104
kav@@ 0.18266170336612045
ָ@@ 1
ი 1
Par 0.036165124359358994
ghi 0.10321414931426512
Λ@@ 0.02610089917107701
ŏ@@ 0.49343716107279395
Μ@@ 0.015953333528237756
ecke 0.022189075876806998
known 0.0038216624836162724
ל 1
Mittel@@ 0.020986033594052496
ο@@ 0.015089952732991473
were 0.000944261879757971
model 0.021602344501583416
ლ@@ 1
bt 0.021530718427673106
hasa 0.4967828891891685
after 0.002257425964027678
lead@@ 0.006134993362125776
ñ 1
avec 0.002318032277056893
mab@@ 0.4219636003230536
geri 0.16122128450980364
ле@@ 0.0019007968775434426
osu 0.21385224124286348
ßen 0.012651640241871182
bed 0.024416419156609522
made 0.0035184701868800957
eneo 0.7046896896707596
larla 0.20006964219641574
פ@@ 1
former 0.006173624391924925
yet@@ 0.07478814112893731
ո@@ 1
wur@@ 0.05954586508433851
ibu 0.6150670588459171
wir@@ 0.014413668214889621
enzi 0.7954550056931896
schrift 0.03429356770777622
fiz@@ 0.06056070797058161
zis@@ 0.10779517482232108
seur 0.021328609581952564
ɪ@@ 1
ш@@ 0.00231027862042357
а@@ 0.0025707990964244343
ikan@@ 0.036717242208049984
kam 0.012400835051695173
forc@@ 0.013478645524151603
ви@@ 0.0021382658779539754
archit@@ 0.012297217075275554
zun@@ 0.04801871596098755
ר 1
ished 0.0074854007874259046
writ@@ 0.0070624822084895756
riere 0.13591146671921303
gesch@@ 0.005192969569752032
а 0.0027186347450162273
kup@@ 0.16514524947084339
Öz@@ 0.09964567320108537
ラ@@ 1
ße 0.021133456557272806
ück@@ 0.02645688732649281
apon 0.1037208206417872
quan 0.024673630778084044
through 0.004166037122217551
Τ@@ 0.01833352914978225
Im 0.0033420719487170423
President 0.012921248226440652
cription 0.011203338287135064
near 0.009595310471522792
philos@@ 0.022018214447265174
Dez@@ 0.3878393119824824
nouveau 0.01887090465138561
ête 0.016260587770244684
子 0.008331362319492441
Geg@@ 0.018292179282861785
Universität 0.014236899957238213
erne@@ 0.029310039830016645
äch@@ 0.008881430499581799
ɔ@@ 1
ְ@@ 1
στ@@ 0.0121045270083678
ス@@ 1
ême 0.051660289013041025
мо@@ 0.0019402956873856441
Professor 0.021923402097921905
с 0.0008037830759517891
auen 0.021596422507560328
Nh@@ 0.05144217503034541
â 0.26014146823557055
Б@@ 0.004244617265908859
Bür@@ 0.06279440052098936
е 0.0009789941991564632
ký 0.08276841333329843
ס@@ 1
tionn@@ 0.011817183451411434
Pub@@ 0.08807199494187419
kirche 0.02926246151592876
т@@ 0.0014405725328640788
ŷ@@ 1
ра@@ 0.002003214223772801
া@@ 1
gut 0.0343682790951401
ilen 0.020016178888416898
faire 0.014642881351250686
Ε@@ 0.021060302675160094
ь 0.0035865247802727936
я@@ 0.00238657575788295
ת@@ 1
jah@@ 0.025154855035137914
wam@@ 0.38848373497511235
φ 0.09908687794338536
statt 0.017870274319829304
title 0.009817924787257524
leich@@ 0.028089049323469267
eln 0.017329318090427117
Nguy@@ 0.42185811385300176
≤ 0.7682634399901329
champi@@ 0.008954344543132889
homme 0.02613605269224396
Ἀ@@ 1
ρι@@ 0.018342573517756016
Ce 0.014147798529554053
Tod 0.026885883296304338
áng 0.0829464887297839
beau@@ 0.023386903758508267
ά@@ 0.011524725386284407
éré 0.03209673758435973
division 0.012703327772840082
mf@@ 0.14500708104899313
ри@@ 0.00177681843134263
№ 0.02381189913146786
6. 0.032949769639803
ète 0.0223003705925242
Ḥ@@ 0.7863047450851937
ύ@@ 0.015954282688546286
8. 0.03463112051953285
lichen 0.0031853958262458675
ücke 0.025915581047188753
icht@@ 0.02046662617526934
unden 0.02698438979692848
octu@@ 0.1469457574462732
pain@@ 0.011415008768259956
kend@@ 0.06525581130326498
span 0.07071174645914084
υ@@ 0.015417537694407445
thé@@ 0.016785057265432782
ִ@@ 1
ル@@ 1
з@@ 0.0019807242582348195
ulation 0.01805675496420643
ק@@ 1
Juli 0.013311699328805002
tent 0.02758222966245402
using 0.0068903491452274295
î 0.07665211215769673
last 0.007785259232944708
ни@@ 0.0014627038724476672
used 0.002494181080199775
ン 0.541774487024937
ě 0.41120530746136436
ко 0.006174303169007525
isation 0.011684790487850275
waka 0.9683280268852393
achen 0.023202229929960114
esses 0.013368231322631492
ρος 0.07910918256206183
リ@@ 1
ἀ@@ 1
zial@@ 0.022452220887923115
ко@@ 0.0016658093865861271
yana@@ 1
Auf@@ 0.004771838632971489
éta@@ 0.03935434959733315
℃ 0.5970312977739766
loi 0.02485295928293883
ه@@ 0.009613313000341382
ngh@@ 0.07321681886358995
Е@@ 0.005709230237939501
ј@@ 0.9197502350529135
gemein@@ 0.009616614135839379
histoire 0.01995618115836765
ό@@ 0.013365957810514114
ы@@ 0.003622236505390589
ongo@@ 0.08508514802912297
beri 0.16673795545873765
days 0.010571129627164525
ц@@ 0.003980755393914964
fond@@ 0.016745366219199323
player 0.00970964168511347
À 0.008947926877561081
Zentr@@ 0.024346397898346618
deutsche 0.024444634250301144
òn 0.09968999829617305
ests 0.011461977684875292
anh 0.027573257585855715
tay 0.08711722541952693
Politi@@ 0.016138562181913375
Stadt@@ 0.012742931332744022
kön@@ 0.029751152834309874
aî@@ 0.012250563735662932
kik@@ 0.5345543068028641
stati@@ 0.024511396685410844
на@@ 0.0012647221434495717
üd@@ 0.029782207411123723
َ@@ 0.04175078246443117
Japon 0.04721299824016886
alien 0.02171177951974442
г@@ 0.0019461521103652053
ַ@@ 1
aison 0.03420290973754026
cause 0.01765048814347074
z. 0.027089123972287524
ân 0.023901647568523195
Bu 0.023328236670148647
duy 0.11355370417549288
ın 0.00900261571900835
ג@@ 1
west@@ 0.00944522626544665
м 0.0009790370373581971
sort 0.02511220589420186
ო@@ 1
kamp@@ 0.04985170484973771
ün 0.0339230102177322
ezi 0.3263041289416584
Frau 0.026187208655700036
chí 0.10462716217589159
their 0.0012677773744793864
Bir 0.09740923773734877
cao 0.028041394073171497
élé@@ 0.018803732301089063
Ν@@ 0.015449812368563196
ered 0.004847543651454997
ー 0.40996471794662165
ütz@@ 0.02415197050846056
langu@@ 0.03164639907322076
█ 1
some 0.0033827537671891716
building 0.0063862746457270195
awa@@ 0.1512648598369491
bang 0.044361371928323526
ћ 1
celle 0.017049579927803774
Ω 0.7836720804178716
이@@ 1
ekt 0.020676185998839393
studi@@ 0.0076354255407944886
tige 0.017317843754926742
ッ@@ 1
ла 0.0015081510944498719
› 1
ア@@ 1
Mw@@ 0.39179933491765845
ե@@ 1
journ@@ 0.008530059729406108
中@@ 0.005067197846381072
го@@ 0.0019441561692586243
л 0.000977878836386121
October 0.004495659896319266
Arbeit@@ 0.013110661570867242
х@@ 0.002746949338194234
erste 0.010104740799967442
Mär@@ 0.0948388879600747
football 0.005884951609482795
chter 0.020617395635843097
för@@ 0.019949089345832394
bila 1
who 0.001296744488804438
‹ 1
ح@@ 0.009011517267126325
alled 0.024148518396581352
ersch@@ 0.012017722813352909
unu 0.046396328769457824
just 0.008424776400028951
techn@@ 0.00830931109723106
п@@ 0.00220705020064675
7. 0.029657478326600574
joint 0.017074055261758744
hud@@ 0.46841165712190586
ნ@@ 1
ör 0.08053811894351882
б@@ 0.0018843385820703517
isons 0.02460622634615153
tiy@@ 0.14563954999020143
ر@@ 0.009834895275064905
Jahr@@ 0.04747621471670122
äf@@ 0.008983231282879362
ων 0.010319854031543254
bish@@ 0.014003689438642249
kid@@ 0.06255923079730556
lage 0.013330788047650744
ède 0.018402238458925857
ре@@ 0.0011606768105334772
schaften 0.007285369482275257
what 0.007437335514398699
elte 0.014125928667727715
proj@@ 0.0057803265710394
Ò@@ 1
út@@ 1
ieder 0.08502610489744594
istre 0.02218959121247605
koa 1
noch 0.004714318776160451
rece@@ 0.013341574233820585
У@@ 0.0030950001821959884
э@@ 0.0016734808990012105
Parti 0.03515685329794416
Александ@@ 0.013890027172999878
coul@@ 0.0239315869705506
до@@ 0.0013811592200696128
pression 0.016384780943355163
uzi 0.420897075149573
ın@@ 0.018063416687306245
ḍ@@ 0.8294503047614424
Afrika 0.08123519759037945
best@@ 0.0067251293788089285
ли@@ 0.001231727803621488
angu 0.616673952287505
Н@@ 0.004951922915714508
anst@@ 0.022759297156209335
ağ@@ 0.020320916563903318
ğ 0.07791022001826035
each 0.0050675365654873385
enst 0.025055822784676374
spor 0.13701390907716848
αν@@ 0.008650530043385075
τος 0.046404765517927216
deux 0.003458490194933272
licher 0.010329859507536511
ն 1
July 0.004227517903310347
mek@@ 0.06297234703869344
της 0.0026452088982558282
მ@@ 1
Wasser@@ 0.0193965341035306
there 0.002996080374291713
ņ@@ 0.5258912657667609
nde@@ 0.7213519344410915
while 0.003109052848266727
teilung 0.022716287064844267
kung 0.0231385882551738
ucu 0.12312383362759358
which 0.0007314661143215547
д 0.0022236163652350344
mt 0.011448781800587072
topl@@ 0.04689141894365241
η@@ 0.013286485815499223
Woh@@ 0.017162944319823008
ب@@ 0.004774383475245697
record 0.00685552433846297
Kig@@ 0.45721977452479373
ň 0.33262030804433834
igt 0.012843650933638205
ვ@@ 1
cover@@ 0.007549201850159608
party 0.009276048163714556
ч@@ 0.001547352362056725
Ι@@ 0.02958819231383634
kush@@ 0.9329633758005274
Pour 0.016247884029028884
û 0.08441394191277697
toire 0.022403139821697258
9. 0.02773450444751211
hô@@ 0.02642216867803945
и@@ 0.0017653564482817445
atif 0.031607815105553015
天@@ 0.011200523079152027
ια 0.01359933947615417
ს@@ 1
sud 0.01176773600952659
people 0.0033764540060400167
season 0.0022798966037224696
ев@@ 0.011038499533561034
о 0.002037228736987916
eyi 0.15528603090172086
ク@@ 1
sich@@ 0.010574428629062254
山@@ 0.012945867689711846
но@@ 0.0011879994455739546
Lond@@ 0.25433187339711516
sau 0.012075567148337659
service 0.004984794505431242
wake 0.07872909536323788
` 0.9556057242596665
üm 0.06244148198848866
versit@@ 0.04081415794674478
ο 0.0030357332706272347
Β@@ 0.014412032538643907
Р@@ 0.0040798060502612804
Ș@@ 0.37849422757030243
cá 0.05058847345428664
kip@@ 0.3293757972586539
ն@@ 1
nation@@ 0.011769216810627906
ül 0.14706405430594277
ди@@ 0.001994362940527902
⟩ 1
Straße 0.021157760617952426
kale 0.0945966316829017
msh@@ 0.22790318417382457
possible 0.010047071270729966
given 0.0077602534614115625
ي 0.007429345551344596
fahr@@ 0.010703964848889752
lement 0.012306900696294233
ма@@ 0.0018527741957330183
ي@@ 0.004543399162234218
hili 0.7315215949244099
Stadt 0.006502205951952716
been 0.0013393793589783092
vu 0.04013429449911931
ка@@ 0.001347208425620479
lı 0.019103870292316184
Ο@@ 0.022720042686029982
went 0.00661908079379023
Ко@@ 0.0039026500973974804
е@@ 0.0017512783714720018
fils 0.014672025867292009
gew@@ 0.005433966398453613
ür 0.017405359973039644
muz 1
née 0.01591671713472795
schluss 0.017615893489741383
Nguyễn 0.05532371779430453
class@@ 0.006941764246736401
iş@@ 0.017705303123285783
⟨ 1
ṃ@@ 1
offici@@ 0.004336580711535444
Ö 0.082730444488385
нович 0.02328093884441409
σι@@ 0.021447501945696935
aş 0.061995331236565136
deutscher 0.015734632559360785
iye 0.1126176110588505
ный 0.0015926759365559647
™ 1
around 0.004799743761722447
بن 0.03070999510649971
უ@@ 1
weit@@ 0.008762261637527123
Â@@ 0.05557482314081549
Å 0.42561180972924473
December 0.003996396162048487
Tanz@@ 0.09204345657181953
father 0.005931000476784702
ict 0.018998339194113666
make 0.007336694521054647
у 0.0012897002501368606
order 0.00627806033515907
jina 0.2907364582867526
Ка@@ 0.0034201224829180795
alité 0.010022911060720327
only 0.0020766718089066465
ش@@ 0.007556955757551561
auspi@@ 0.020261728844596986
tant 0.006828180691885872
Ма@@ 0.005084407544714527
Flug@@ 0.016044797853949317
sek@@ 0.0351822491586328
Δ 0.13993861436382743
when 0.0018958377356869738
ῖ@@ 1
making 0.008437683335148766
ن@@ 0.008183918531377109
ه 0.007947639168052602
siz 0.10512499437740443
français 0.009303665773715523
elik 0.12630567018617272
ungu 0.4411894622627604
ised 0.006422472726219702
typ@@ 0.007090173327360827
ή 0.005789646205050615
З@@ 0.004763341578557032
Platz 0.010319268410331225
Γ@@ 0.021899955735086803
ehe 0.01593404822729939
jour 0.017354807002490882
studio 0.011146468541847539
ào 0.02787438071752332
ät 0.013810031505462483
сь@@ 0.034542701487668775
ım 0.028408964442906706
κα@@ 0.01326650869711683
games 0.006332471623227786
illed 0.0081983908473673
ט@@ 1
teil 0.007654631130498828
нов 0.005261835183951094
ǔ 1
部 0.005592503652021175
Gür@@ 0.10201942683161257
Leben 0.006807674051401427
óng 0.048391903317022054
wach@@ 0.02433695556470495
mort 0.009015482795686109
ζ 0.087779904498492
Wirt@@ 0.017564133784735682
ewa 0.27557894898383084
È@@ 0.4307796732566435
ünde 0.028997769742102393
ж@@ 0.0012644615132346253
≥ 0.6181685409578023
Бо@@ 0.0062678789426266176
ع@@ 0.007091681664879778
ÿ@@ 0.8778663803288386
ή@@ 0.01214761473103936
onu 0.08548007988820938
ан@@ 0.002094826404884015
ας 0.012110264962086923
צ@@ 1
four@@ 0.008510618988260202
tish@@ 0.3449956719529345
sich 0.000915768491201078
‌ 0.3448506476132635
シ@@ 1
ἐ@@ 0.6773921635531861
Engl@@ 0.05276803904093286
ained 0.004523729487336882
Er 0.0028714413277219426
puis 0.005054958031096543
ufu 0.9716165855858739
Ф@@ 0.003454853969361302
schaf@@ 0.018334005637991403
über 0.001986619629477615
ει@@ 0.015845272041710236
ев 0.008612032044277844
Zeit 0.005559589542806221
aliy@@ 0.1373835059417813
appe@@ 0.007343876511323968
clos@@ 0.007549097041226557
held 0.003816507982467237
lui 0.004369386383151631
mess@@ 0.014317889448573998
س@@ 0.007095705369641535
nur 0.003787186029872026
zuri 1
September 0.0023888148109814404
ajili 0.88935418097156
ʃ@@ 1
ır@@ 0.014302355078364318
ź@@ 0.37613077228496705
ك@@ 0.004799771201748364
Deutschen 0.015543102023155597
Geschichte 0.006298368508137314
ǐ 1
oyun@@ 0.0866902441170231
͡ 1
三@@ 0.0060795081990125295
international 0.005956798970715917
rés@@ 0.01020367193892094
ŭ@@ 0.84514780845714
ト@@ 1
kari@@ 0.07538403699909231
і 0.32644249735922726
ի@@ 1
vili@@ 0.03683969446928888
Í 1
ähr@@ 0.010544845676630046
Σ 0.16730373713492042
ё@@ 0.0020065699492649368
November 0.0025502802876873256
≈ 0.5418945456163172
ám 0.038528386382069846
οι 0.00695339455526247
Φ@@ 0.018124290500566187
د 0.008306199713005473
idence 0.00976093361950143
kua 0.5536091678072655
се@@ 0.0015377517143101787
ج@@ 0.00654593640427232
山 0.01065929309999026
hier 0.013037627137756247
take 0.007032314380412131
zeug@@ 0.012170829879752224
öz@@ 0.02481076161256979
та@@ 0.001655113523128929
ة 0.0065856536633227235
zwe@@ 0.008217881433406538
Ва@@ 0.01011380173140015
ар@@ 0.0027292504650253953
appar@@ 0.00608486292048985
ان 0.008328640260677285
Form 0.018918395522727786
Ukr@@ 0.027424564937484276
¼ 0.6664266485078145
за@@ 0.0008559388082543343
一@@ 0.0019434002258532101
aged 0.005039039633352549
tigen 0.00707346652700217
ق@@ 0.006793943344786288
number 0.00293856247237334
vai 0.051557781083267945
yet 0.018345193447985245
Я@@ 0.006836364637119603
г 0.0018791303405998729
nete 0.01562371050989819
yay@@ 0.057337516894756566
ρο@@ 0.013155620853094074
zus@@ 0.006554714321572382
区 0.007675544283110109
doğ@@ 0.03136314784868131
près 0.01082294013047202
¥ 0.5886987335577035
Ć@@ 0.5645035034617016
ĭ@@ 1
∞ 0.6528010095123957
∈ 0.8974648045437115
Gesch@@ 0.008458884459726698
üz@@ 0.05553314524303334
afin 0.01646220874558341
anay@@ 0.25659408457781274
spor@@ 0.02593589039047195
unid@@ 1
Л@@ 0.003823085182031698
ат@@ 0.003185251325290462
high@@ 0.005235771561161274
ided 0.007474933770302152
Ø 1
‏ 1
ل@@ 0.003897602727300782
Böl@@ 0.08266141921546108
allem@@ 0.01365221139680266
Entw@@ 0.013610321155607003
не@@ 0.000825331003007257
hali 0.26819179594250764
atta@@ 0.018688413413916007
kwa 0.03303078755292235
again 0.00566007892760793
huo 0.32345373493896057
ʾ@@ 0.5997244687859142
Со@@ 0.0034783850223648735
во@@ 0.0013384063609776285
ւ@@ 1
ル 0.6254024047327256
王@@ 0.012033776463821276
abab@@ 0.8136344048274602
αλ@@ 0.012682682753402811
ა 1
isine 0.03712319577848424
three 0.0018537203969491664
по@@ 0.0006321447104397012
άν@@ 0.009238272494214906
新@@ 0.006707770698806555
gique 0.018107292951999757
muz@@ 0.2697694364886315
issu@@ 0.004303035034637033
drit@@ 0.01602429548149077
family 0.0025070189422834307
Über@@ 0.006708612441331157
Влади@@ 0.014922396586428152
յ@@ 1
dok@@ 0.14427079788568825
utsch@@ 0.07496091450452194
ικ@@ 0.011890913362270219
Machi 0.9248696242615295
Oly@@ 0.3167689333683706
tete 0.0078011094512969595
Χ@@ 0.015247346173259456
ве@@ 0.0012947104256138613
са@@ 0.0021689669159445347
luk 0.07079644505109038
such 0.0018914481387116888
ť 0.7764255961592673
ρα@@ 0.01413780366666892
ბ@@ 1
ṛ@@ 0.9918950041765595
タ@@ 1
Bei 0.0061627740484403925
guerre 0.010050971735980498
wala 0.257142638890893
フ@@ 1
ť@@ 0.6201827695273223
市 0.006773957473129112
日@@ 0.008122703432338334
election 0.004637648311753801
grou@@ 0.005696269996468112
Алек@@ 0.020624238192990148
レ@@ 1
Yıl@@ 0.11602618227812225
short 0.007070462596945888
ξ 0.14117778522222077
カ@@ 1
小@@ 0.0069375666723266605
onya 0.08356927932396219
Ми@@ 0.007297557243011025
্ 0.8935062326270097
commer@@ 0.0062176199206587035
ǐ@@ 1
years 0.0015526606111903771
南@@ 0.006239341847263248
isho 0.40656652152952477
ét 0.07456529940916667
Hindi 0.07700399442659682
έ@@ 0.006200371735846572
wani 0.2654930886218777
τ 0.017067520681649472
￼ 1
scienti@@ 0.009554624827109084
études 0.01578371227505935
李@@ 0.01628404052441997
ва@@ 0.001071189664156131
ен@@ 0.0018915943856088037
vom 0.0030886496918222247
Fuß@@ 0.01145720538357347
centre 0.0064643178494294615
ス 0.5398095257944744
être 0.003618321830190903
ɛ 1
со@@ 0.0008612957360941467
ジ@@ 1
hata 0.3484834529522557
along 0.003978077872241276
inner@@ 0.015641038951724938
ük@@ 0.030921722618256108
course 0.008714119141477381
nung 0.004936369813112863
pour@@ 0.00915696949991619
wissen@@ 0.01039278656539781
ś 0.4079165947801471
Во@@ 0.004916514211639935
国@@ 0.007192224374576079
ная 0.001877755000869015
ロ@@ 1
zeit 0.005786219775047735
fak@@ 0.04564804422182051
ти@@ 0.001250352434734791
县 0.01233166506202428
ми@@ 0.0016331268014376746
マ@@ 1
schaft@@ 0.006105781468898852
öch@@ 0.011000823408730546
ɑ@@ 1
На@@ 0.003485835142755799
seh@@ 0.01673914840555254
Lebens@@ 0.013824823464674223
ouver@@ 0.008811555459249252
tür@@ 0.01836216880722128
featur@@ 0.003660351472376732
pays 0.008220505506372454
said 0.004015727503565675
Ан@@ 0.005377383494645905
то@@ 0.0013314223606889625
buil@@ 0.006036124118508175
ngo@@ 0.2881536127165346
species 0.0037874630801729026
Ю@@ 0.006707375713286384
่ 0.029913668843789498
nord@@ 0.016500175980152732
ру@@ 0.001573512374890275
ז@@ 1
ên 0.0178621064120633
По@@ 0.0023669705160872245
م@@ 0.005553892780770329
김@@ 1
Kenya 0.042778686531621236
envir@@ 0.00800047539174028
inay@@ 0.3223911280351943
ερ@@ 0.0097915380970648
ük 0.08426323517518136
το@@ 0.011943132090025786
wali@@ 0.1515395145269744
ř 0.4542819553206214
га 0.002940291661776151
ков 0.003324253423278812
ز@@ 0.007480429717542616
uç@@ 0.04605085134527308
anischen 0.013688429587805605
¹ 0.8461630782357533
ֹ@@ 1
Verein@@ 0.009870801179021043
nicht 0.0017248691086993633
Ц@@ 0.006537760270916912
faz@@ 0.2900080562795918
khi 0.0063031388741338285
second 0.0019070007722638892
ık 0.02015293921186817
ǔ@@ 1
ِ@@ 0.03734326715556121
თ@@ 1
文@@ 0.0065987022400679505
Việt 0.015405214629168155
Auch 0.008852735128231173
ى 0.010689496419153373
♭ 1
海@@ 0.005776156262996475
eyal@@ 0.3841503805440998
nouvelle 0.011340166024031666
κ 0.02591696942004462
დ@@ 1
imani 0.4586614527230154
ξ@@ 0.01582630975245456
ψ 1
ḷ@@ 1
änd@@ 0.012121959439200811
東@@ 0.012006206687674102
II. 0.011997275451844954
Kongo 0.15917966270358316
aliste 0.01417201491379146
ently 0.0022999169278371426
де@@ 0.0009981849561410006
cours 0.00559978983058505
oldu@@ 0.9410730245479472
with@@ 0.015196748579134835
Бе@@ 0.007279826312343693
ба@@ 0.0023408144279175595
محمد 0.046571431826182064
jaw@@ 0.19169311337421888
based 0.0028068071070765765
Zu 0.012652614336051976
leurs 0.006534297721877847
ık@@ 0.021121034171846787
си@@ 0.0015742549448572395
د@@ 0.00642510033051632
本@@ 0.0077997699894646316
ال@@ 0.004949134885894597
ickl@@ 0.03658182664420254
recher@@ 0.01412670852597696
rek@@ 0.020067268616894958
αρ@@ 0.00968256202294621
αι@@ 0.013430160970794833
λι@@ 0.013044571363738032
Серге@@ 0.023694788608246645
ги@@ 0.002162560859400122
國@@ 0.0058290617036753116
schafts@@ 0.006958899415962723
Juni 0.006792694920982946
million 0.004159547045002151
خ@@ 0.007931201934569374
ド@@ 1
ου 0.005467007463655875
Ligi 0.13484779451121998
génér@@ 0.008524984957222738
points 0.004856025794010422
Са@@ 0.004192878114588589
да@@ 0.0012986183646477092
̃ 1
format 0.01470070508105224
ῶ@@ 0.7347365231472216
～ 0.12245608719120361
西@@ 0.0036153680387678885
half 0.005266211277493156
ánh 0.01783829989102245
Θ@@ 0.042132424257123144
い@@ 1
kea 0.45010771500043073
ously 0.004626916034120423
ْ@@ 0.07544580837971313
át 0.024930932672740987
Verein 0.01471806193612727
ations@@ 0.008228160384381024
einen 0.0015056484853143927
six 0.0036839372122704633
ɣ@@ 1
ра 0.001492994235437154
ὐ@@ 0.9848879753757657
金@@ 0.008890754897504013
pek@@ 0.23343050697864745
vard@@ 0.14448932347362017
ır 0.009869819371227042
‰ 0.21257559215791022
во 0.0023719318046744793
ف@@ 0.004781293427560888
高@@ 0.005791894033313128
appro@@ 0.0030113271069414
améric@@ 0.013328322151957474
found@@ 0.009468488993691447
田@@ 0.031167533229507178
ôn 0.010389834324509446
⁄ 1
onge@@ 0.10987414970845419
duk@@ 0.0811286260224585
üng@@ 0.01944984750421838
üst@@ 0.013884002148240242
ἰ@@ 1
Lehr@@ 0.011435029328796881
atives 0.006848165697063478
wap@@ 0.3395150019020027
innen 0.010566092223862645
λλ@@ 0.016501743670255566
ου@@ 0.008682167259652249
Ви@@ 0.005582015999052682
бо@@ 0.001364069832618037
uş@@ 0.04128997745804317
Х@@ 0.0038064239207542296
quay 0.050544334436713384
га@@ 0.0016737339176905398
fait 0.002396880496288798
Á 0.06839093972136932
deutsch@@ 0.024023852682697133
quali@@ 0.006920921948928417
τι@@ 0.01152352623881192
design 0.0062832356569174136
tout 0.004946806656711752
ров@@ 0.003943352440257179
anderen 0.006466676161826056
Э@@ 0.0020299418632827625
א 1
‑ 0.24552633100946106
Welt@@ 0.007690909263530202
kama 0.07220330573511359
ρά@@ 0.01881354336137262
க@@ 0.8071071507015973
ψ@@ 0.018098627389650325
Teil@@ 0.010797597187663871
tische 0.013072890157740906
ζ@@ 0.007910326533554096
ط@@ 0.006012556878012695
് 0.6609660831273431
jour@@ 0.022179994751215383
Ngo@@ 0.18013127419331343
history 0.003932214879665823
да 0.001274611250768606
バ@@ 1
lili@@ 0.10490936228049871
ʼ@@ 0.1094297525358881
не 0.000720073092121634
altung 0.00919207347462735
ر 0.006070012496329178
● 0.5652073400349535
without 0.005428827458619791
北@@ 0.0052546707436210306
zeh@@ 0.010204950635336515
ünst@@ 0.01005681494339586
ṅ@@ 0.9417571070653442
zey@@ 0.08933599360682495
zug@@ 0.006148018498084683
ġ@@ 0.8859977768906482
ტ@@ 1
， 0.00014611834412714406
imu 0.27886077301098205
pou@@ 0.01247384583839642
would 0.0012255236759573488
太@@ 0.009546179273952625
still 0.0038417735140421957
ĕ@@ 1
س 0.007347116547471429
Guerre 0.014487718780687761
esine 0.06686574354123538
adhi 0.2946751269059538
ihr 0.006471936927754204
Ч@@ 0.004045354454557864
Ш@@ 0.004232266230474085
came 0.004409704718857632
ʃ 1
ț 0.2589760596033527
ɔ 1
χ 0.0907524254702182
Пет@@ 0.010970773060794836
рий 0.010186318231809684
ֵ@@ 1
ḥ 0.6063267389526565
ト 0.5608383651245524
afu 0.3554517616686354
next 0.004694584096508337
thu 0.026632630491812217
გ@@ 1
ს 1
amii 0.22203036999986706
seinen 0.004695053651899404
Tür@@ 0.02580057407739956
ofu 0.3822568133940651
⊕ 1
between 0.001337299357156868
ehen 0.003982784537499963
Ə@@ 1
テ@@ 1
ebil@@ 0.08488660707294367
mois 0.010861862235952018
ы 0.0008558656123296544
道 0.004299432385541231
during 0.0012567569111945438
Ρ@@ 0.012274447548413675
бе@@ 0.0017607907261838864
level 0.004942158143799557
jeu 0.012233725188644571
teurs 0.0073421428177133565
ız 0.03675162391722709
şehir 0.08027994736805082
人 0.0014339245826750923
Auf 0.007638972234072773
် 0.8982822811159202
õ 0.04124996610389148
ǒ@@ 1
Ле@@ 0.004058718239056199
з 0.0031816184770330986
ῆ@@ 0.7881306587996303
キ@@ 1
ﬁ@@ 1
Ağ@@ 0.14271968374538974
érieur 0.008338971870266025
να@@ 0.014933703951618655
мир 0.014440786637423538
ا 0.005963670634921316
ா@@ 0.8902805783575979
ῦ@@ 1
↑ 1
」 0.003174542496431171
ὶ 0.521471407543638
「 0.0031648669836182356
Allem@@ 0.012654337038436712
Hồ 0.05947830088768555
company 0.002747826863559612
ď@@ 0.5971737322986503
αυ@@ 0.02325216426349399
kuz@@ 0.21130190106083574
tous 0.00784095599920972
trois 0.0044708390041530485
ص@@ 0.0060853109636388155
Meister@@ 0.012436523497231818
quy 0.04691637333567024
ached 0.0045130100292536555
before 0.0017581511959306715
та 0.0009844206878275137
☆ 0.6979304643444807
子@@ 0.01813680452893171
王 0.012509625128483384
Thanh 0.04550069870200767
hari@@ 0.23929261740393085
Ку@@ 0.004477341200574515
mev@@ 0.08034272479369467
nombre@@ 0.013643403987161896
some@@ 0.0041361305575039
≫ 1
verw@@ 0.005451986709577933
ıl@@ 0.007715365102398445
Ру@@ 0.006441487656627356
ний 0.0018997770601214112
≠ 0.9971809781949051
Türk 0.03394375611691501
ɡ@@ 1
άλ@@ 0.01635235531561402
な@@ 1
公@@ 0.0033678998471032675
្ 1
donn@@ 0.005939215891437893
ч 0.0053791169857486726
≪ 1
akt@@ 0.04855131636776916
bind@@ 0.006885112241267269
contre 0.0033033019312248596
dogo 0.9169677440602931
origine 0.01030367799066847
≡ 1
teh@@ 0.05352794567675612
ї@@ 0.490059638404286
ֶ@@ 1
م 0.006043140280865516
но 0.0006633151768464965
و 0.004978266135295148
上@@ 0.006011201698993879
神@@ 0.014309299983642772
zey 0.1599627341733267
Ба@@ 0.00496724388143926
տ@@ 1
인@@ 1
office 0.005242862143299449
ц 0.003239819368055371
ἄ@@ 1
μα 0.010226571810425697
ον@@ 0.00842911260638333
Osman@@ 0.07554917749361029
ελ@@ 0.011613552278098715
Dans 0.0048367594700683405
Trần 0.055901643630153146
ác 0.022269162335306396
ль 0.001524636903767299
ор@@ 0.0022353943749589614
Ра@@ 0.004562120252904438
Forsch@@ 0.012003101444207345
being 0.0015050867014050643
ehir 0.11972281760267832
partement 0.02321329416648006
¬ 1
Ар@@ 0.004764675018388081
五@@ 0.009591053305493149
sent 0.005592045718057359
ħ@@ 0.6896582128997788
ме@@ 0.0011281539158938133
encore 0.007040734167348235
ί 0.013240358179636326
น@@ 0.003545367812928407
ィ@@ 1
Akad@@ 0.206553591583731
кий 0.007927492411414265
па@@ 0.001345327602199324
ב 1
♯ 1
し@@ 1
Ende 0.004366167292862667
yao 0.2475115365255285
Ж@@ 0.004768632756758497
ав@@ 0.004492804501218692
би@@ 0.0018256085090849858
че@@ 0.0011250236968312036
安@@ 0.005827399343076839
mais 0.0020108633036433213
sö@@ 0.06352838163436011
ি@@ 0.9990794202769283
კ@@ 1
Ṣ@@ 0.9671259206945108
Mitte 0.011476240712834748
classi@@ 0.006095126752593148
fü@@ 0.004775391330514829
zeich@@ 0.0050029876123508675
εν@@ 0.005994141989622503
propri@@ 0.011375072585324688
¢ 0.8095441627774997
ού@@ 0.010035510032909535
Ро@@ 0.005515742208307951
⋅ 0.9493951908977701
Ayn@@ 0.7905749736280719
Paşa 0.09734766426216714
contribut@@ 0.010078042349480582
waf@@ 0.14359156508594476
ακ@@ 0.009247395133485327
January 0.001999605973606699
ikia 0.300040507820769
neh@@ 0.006764019405044431
women 0.003361593317664966
オ@@ 1
Janu@@ 0.6536755976417464
einem 0.0011941021508204515
الع@@ 0.007361652908941068
田 0.026281253353952247
ennen 0.007889805550383874
أ@@ 0.003138902508703213
kuf@@ 0.24779582735076294
nte 0.00871467367415351
ız@@ 0.02416938128835156
Œ@@ 0.060957977970919223
С 0.0018605656114549793
ге@@ 0.0026433905911344593
те@@ 0.001026410196948712
deren 0.0064490094099493465
kuj@@ 0.2689219914997299
poin@@ 0.03691783748839752
შ@@ 1
Grenz@@ 0.011603161717339078
人@@ 0.003734087775546478
could 0.0026067227077962913
trä@@ 0.005505856554852943
đ 0.9818859638504226
ров 0.0022505577685727708
ხ@@ 1
ingt 0.009735166918772858
national@@ 0.005938449838038599
ώ@@ 0.00914479396412647
ер@@ 0.002093283142757627
х 0.0007137903637520432
pili 0.4303723787247992
race 0.005108491979082764
ʾ 0.7516676200831407
ос@@ 0.004002355260049222
‐ 0.36275181221596586
language 0.0047470094873159376
ÿ 0.4634659376552138
ŋ@@ 0.6657292899158778
ски 0.004513575199208051
ст@@ 0.001062774698058824
Eine 0.00609597169668717
quot@@ 0.01263974703236487
yeri 0.055786242983892856
Ñ 1
Ŷ@@ 1
αγ@@ 0.009736148095375199
ḫ@@ 0.3836096974356748
Kati 0.21625029749065255
Türkiye 0.0243027120627805
foot@@ 0.006018093602917901
member 0.0023201133472929487
¾ 0.6562040198056447
ŋ 0.6000883110435861
λε@@ 0.013001903361986571
μα@@ 0.018684425169773592
ф@@ 0.0012698908329989015
้ 0.017470438634099607
ası 0.008697497644359247
ļ@@ 0.5253610837895606
Ľ@@ 0.8207931436305094
За@@ 0.003529510879657196
huri 0.28097522396979896
keit 0.0034140906767676955
luk@@ 0.07322171297997239
milli@@ 0.008617624258188893
nh 0.032312274314879444
ρα 0.029466374401287493
ск 0.006149387814869314
Gruppe 0.00905386413833883
Văn 0.029294640542431825
ασ@@ 0.008177707034973
ו 1
ウ@@ 1
culture 0.006101841165248959
ব@@ 0.9428391981683522
ி@@ 0.6301878578430954
soll 0.010607279357812128
ż 0.4184356352555177
ʰ@@ 1
са 0.0014660076010483065
ʿ 0.7693468458236464
kuh@@ 0.3031213733183607
mpi@@ 0.2273546619987237
ков@@ 0.003479108839922937
サ@@ 1
ʲ@@ 1
Ива@@ 0.012559442129652263
会@@ 0.014581734426600238
城 0.010422161180372537
白@@ 0.013183033257043423
όν@@ 0.010457720216412067
ин@@ 0.0012596713235302444
ⴰ@@ 0.9613612772670648
か@@ 1
エ@@ 1
Verw@@ 0.005792046526044928
differ@@ 0.007625912348942699
sociation 0.009224094303467385
tiki 0.4409920444932218
К 0.00396457659263474
Anh 0.011845466917216219
الح@@ 0.006874817497446738
ミ@@ 1
ャ@@ 1
örd@@ 0.06389247136079156
ки 0.0008253069828857327
ля@@ 0.0012122247028768772
์ 0.004719568951890247
beit@@ 0.05061424260443991
formed 0.0022977061979956555
succ@@ 0.0032488009995343806
ب 0.005264703824010931
غ@@ 0.0050034057509083345
া 1
Sơn 0.035423491418052296
Се@@ 0.0030694362944507256
ا@@ 0.008892180109870683
ت@@ 0.002962468408594669
associ@@ 0.004042233633336778
dung 0.0056035140311267466
ohne 0.007523605617351058
ד 1
را@@ 0.006374984845109791
ق 0.006383646419294303
chung 0.015189632086337761
Gemein@@ 0.004378536655355565
against 0.0014095012354028338
event 0.0042712092843912326
կ@@ 1
Sohn 0.006655170271166709
umani 0.6876513515517789
τα@@ 0.008374060925839744
хо@@ 0.0014249815507160753
ナ@@ 1
Sau 0.015886188749700166
inah@@ 1
production 0.002828488207614588
ма 0.0014575439342062724
deutschen 0.005792476724501122
geg@@ 0.004518730777731031
ις 0.09535453969409019
之@@ 0.0031926177213258138
美@@ 0.006154384647854295
Bürger@@ 0.009087156540534562
nun 0.007785973064777562
sehen 0.008045646188026298
Đại 0.014407332250773165
Ț@@ 0.49967274979203713
ُ@@ 0.016178778005055194
pendant 0.00553527650394886
Мо@@ 0.004659620078114636
ки@@ 0.0018907677405513863
平@@ 0.005804715880757862
江@@ 0.011186896044364944
İz@@ 0.06488013577367019
عبد 0.03501233846586415
alı 0.015532042256806752
deut@@ 0.004404257775009667
mek 0.021809571832021018
λος 0.09022070059726865
Bình 0.028854190248710613
Kif@@ 0.3856843429910985
dire@@ 0.00812198935060758
modern 0.005221081247689659
moja 0.16564127572670337
zentr@@ 0.006535828111360844
ста@@ 0.0014170420384672787
و@@ 0.0026894443896199084
jeun@@ 0.012155007911089137
ŷ 1
ду@@ 0.001553998698510004
الق@@ 0.007590396567337307
た@@ 1
武@@ 0.00996930991142508
auti 0.45446621570281653
kiye 0.3339186633335261
θος 0.08818733179812845
να 0.0022395229989793106
Fahr@@ 0.005732102280334967
Ü 0.21970693610417794
ų 0.336005564276086
чи@@ 0.0011285511772973866
த@@ 0.7209793813303923
ệm 0.043498307045132543
áo 0.021201327959468795
ʊ@@ 1
ت 0.00464718279400966
ე 1
aç 0.06372317650593758
äre 0.010417663271526847
öff@@ 0.0075300172546974384
ą 0.3992980909557036
스@@ 1
àng 0.014050268012898265
ل 0.0046354273774752855
☉ 1
ん 0.34253259559741606
Amerika 0.028775180076344654
δι@@ 0.005352414459156788
ιος 0.057212462972529854
ων@@ 0.013038740671746662
州 0.00361668977388749
early 0.0017479870956964376
ǎ 1
ɾ@@ 1
ế 0.028555780477658017
学@@ 0.004401729360918266
kuna 0.33211253921631156
èmes 0.009684752004526329
ս@@ 1
コ@@ 1
京@@ 0.015200136416541266
道@@ 0.012776647567981846
onship 0.004287155380263519
septi@@ 0.06152672197502654
âm 0.009546874128992093
Liste 0.005842097621807793
aiss@@ 0.013265433235435492
nouv@@ 0.011120094082928498
scheid@@ 0.009845288940630005
δρ@@ 0.03451404711926921
デ@@ 1
ately 0.0023473930113944433
ismus 0.009873266765060085
ispi@@ 0.013174085439656423
ʒ@@ 1
άρ@@ 0.009679941976086666
ών 0.004369260667524765
ю@@ 0.0012027565862032712
ảng 0.012288883318824608
ニ@@ 1
パ@@ 1
式@@ 0.13977419327743013
Besch@@ 0.008532041888202791
Haup@@ 0.01199965841689327
Γ 0.06177401886019207
Φ 0.43658944555093593
πο@@ 0.011034470044802085
А 0.0031513511687212303
明@@ 0.007978900825690577
général 0.005895458310754286
those 0.0027471064043813167
vile 0.032348720299990474
ông 0.003113209938713493
İn@@ 0.05132741115389961
র@@ 0.8114628187997974
ん@@ 1
物@@ 0.007604002526700258
チ@@ 1
trieb@@ 0.006585603782361051
âce 0.009860047382146348
Ա@@ 1
dows 0.023156698161518514
ically 0.0035674954831229275
étu@@ 0.005668615486196931
ôle 0.014484361150720897
一 0.006294160350712464
十@@ 0.0034503175452676254
Weit@@ 0.006765699064327473
ensemble 0.007103677202997007
köy 0.05065944158256493
الش@@ 0.00807018007966688
和@@ 0.013641237737514375
林@@ 0.008756322448160875
stanbul 0.031059663948729936
État 0.0062967078738562065
ài 0.012991451846680132
ες 0.0035548174491296766
ية 0.0027512955838372628
← 0.34451731979976086
Türk@@ 0.03473134282124867
πι@@ 0.03141463976305408
όν 0.027771595482768845
정@@ 1
Hàn 0.05057953521274115
Миха@@ 0.013493252021678758
Об@@ 0.0067627356844373356
ш 0.006577010085400517
い 0.24385199441451663
き@@ 1
女@@ 0.006687299864419012
리@@ 1
Baş@@ 0.039896783799468025
Indon@@ 0.024494767482027266
ıy@@ 0.019022837726183985
ал@@ 0.002418904419183184
ল@@ 1
Yeni 0.061801113887656405
nord 0.004868269933343021
óa 0.040179679035532885
ά 0.004700269314353309
Но@@ 0.005127103696830649
إ@@ 0.0049150339710164765
الم@@ 0.00294699026252016
り@@ 1
άκ@@ 0.016713674353474196
الله 0.053183308847391385
的@@ 0.023846269800966286
five 0.0022550462469150662
fte 0.0066279469491225184
الج@@ 0.007132228938756433
ু@@ 1
₹ 0.34566903925688813
う@@ 1
ラ 0.4035969127169044
ived 0.008203745458576068
teil@@ 0.0035454049903859953
θε@@ 0.010080344391472644
Никола@@ 0.011528160010640881
сла@@ 0.004697206749267444
ی 0.013194511543424901
sett@@ 0.0035814161429537864
yük 0.22602442888157276
Č 1
̀ 0.10870560344049722
ίν@@ 0.011115624274440707
ammen 0.015187614830818022
found 0.0016644655694930917
Васи@@ 0.010474899928947503
Мар@@ 0.005070611372579604
нова 0.008573879028641263
сто@@ 0.0009351400086103804
ர@@ 0.7699243015075773
グ@@ 1
ogle 0.4178958576042593
ů 0.5200113177233849
ιν@@ 0.006863268116951079
мит@@ 0.009655211014836181
自@@ 0.0037401741144427194
花@@ 0.016534534582867005
aşa 0.11745868004975593
İs@@ 0.023648228705679498
家@@ 0.005810014788818998
水@@ 0.005879170137600833
Hoa 0.010089709498150357
© 1
νη 0.02488328765725064
τα 0.0027516660968672155
ха@@ 0.002720641137530659
と@@ 1
社 0.01766784067954253
information 0.004449711734735722
ري@@ 0.005597531820658559
़ 0.0031447754032978784
대@@ 0.9026355717430041
λα@@ 0.017958661096444378
ку@@ 0.0013157805019836002
ска 0.0033358032113209716
ше@@ 0.00128756833034992
ի 1
♥ 1
Kır@@ 0.06992158263822293
bö@@ 0.030804415155801804
enfants 0.009753601661854516
siy@@ 0.0437153255831371
Ú 1
Ř@@ 0.41199127260574275
Ев@@ 0.016337562327632036
лов 0.004537838445487887
√ 1
四@@ 0.004802333921143699
지@@ 1
Có 0.04584303045722625
ار 0.007045861659244062
ு@@ 0.6493819635147465
Meter 0.006484874775470906
erung 0.002074069423940391
grub@@ 0.02828724617540285
released 0.0013414611116622495
ׁ@@ 1
cô@@ 0.005035372472599957
ihn 0.004031939692228118
who@@ 0.0030353744631357025
Ω@@ 0.1088691480593898
Андре@@ 0.013014961572324017
До@@ 0.004473649302261551
ম@@ 0.898877097562867
ích 0.019230911461656116
έν@@ 0.007486833498265028
Не@@ 0.003258274936158443
ハ@@ 1
한@@ 1
coi 0.04396025969650259
fik@@ 0.02310075551323555
large 0.0019764477725086743
Ē@@ 1
ʔ@@ 0.8029352960056236
μος 0.06738013604136424
Па@@ 0.0035085049394583054
щи@@ 0.002032814016315749
↔ 0.6281087405484194
première 0.00261425996337735
ρί@@ 0.008686997489113966
ли 0.0005232343977691995
く@@ 1
モ@@ 1
民@@ 0.0034136105219788964
khi@@ 0.05423973171419561
nje 0.27279615066930823
Де@@ 0.003596024522560004
миро@@ 0.00863903453946926
ま@@ 1
트 1
Nha 0.035050492425478454
ersten 0.0023895000475230733
lerin 0.008540629236764066
lý 0.010024112033509848
uzak@@ 0.13075390074307203
Ά@@ 0.014411375742463846
ατ@@ 0.006363844845271752
ம@@ 0.8228128793723022
development 0.0029647997981505823
elected 0.003077427948461454
lere 0.01728043734297498
tourn@@ 0.008515327502484302
verk@@ 0.0037936862493484283
ง@@ 0.004616407128633771
stellung 0.0043579800776113575
these 0.0015454629592697958
waz@@ 0.2976662342719347
Ţ@@ 0.9940957639960067
ίδ@@ 0.02251312204659119
մ@@ 1
メ@@ 1
franç@@ 0.028835956355762027
Η@@ 0.02640113482839314
ע 1
র 0.8273407717017204
appear@@ 0.0015985737244407403
chte 0.0076542180152252125
ämp@@ 0.008212202631833703
О 0.004669633171079724
ро 0.004187434965647923
بي@@ 0.006736745910946295
ihr@@ 0.013996029028144343
̣ 0.9776055245254203
І@@ 0.14383229082087987
рина 0.014145961807483481
گ@@ 0.012375949943392948
ち@@ 1
Sein 0.006898130496384107
durch 0.0008232242777502616
ـ@@ 0.043473144043608795
ὁ 1
ダ@@ 1
children 0.002258071209166188
commune 0.0019088543406819264
kent@@ 0.032509696384196686
present 0.0027317707420751918
third 0.0021600903969097728
ít 0.02698557971275971
кова 0.009971237403678522
ник 0.0018331002258711374
ド 0.5959907308929892
ブ@@ 1
島 0.012399559478640519
青@@ 0.010637276342995933
엔@@ 1
터@@ 1
maç@@ 0.018508767588376957
Да@@ 0.00517056406271447
ство 0.0014076355617969477
ảo 0.016655041949352828
charac@@ 0.002668313953461225
famil@@ 0.011783973089830365
much 0.0027474516894766096
ɨ@@ 1
Ки@@ 0.003867627237429139
нов@@ 0.002739349597630548
emble 0.03224275402220864
trag 0.004511205166476691
ˌ@@ 1
ское 0.0021857564967803626
ப@@ 0.7657061866425167
木@@ 0.017873116274370153
石@@ 0.010569616860149225
particu@@ 0.005769485239874714
ǫ@@ 0.7225900691545719
ομ@@ 0.0075044119556907435
ши@@ 0.0015872581726843551
ف 0.004855323039445951
जिला 0.12656224081172737
ュ@@ 1
郎 0.03163305558051391
program 0.0034288764613066318
économ@@ 0.007343953179119538
бу@@ 0.0019559990107376308
ា@@ 1
├ 0.047442376250712556
年@@ 0.004199894955730468
국@@ 1
Ἰ@@ 1
園 0.015882168232689967
ʁ@@ 1
̯ 0.8254486470668869
гор@@ 0.005072656803708027
ни 0.001284353244990384
お@@ 1
さ@@ 1
ク 0.38509424329689496
不@@ 0.001728821399116179
地@@ 0.0026524814120421946
Als 0.0026916747444598642
autres 0.0022172662440743847
père 0.005962502325124025
ло 0.0009699430428675235
ъ 0.04166726707866092
ased 0.0026406756118534103
dül@@ 0.12474414271650044
prak@@ 0.016923193593257717
route 0.003770759133641343
ισ@@ 0.006993554155932203
ди 0.002649251850271959
лен@@ 0.0017448762032114186
он@@ 0.0020370959026486464
ძ@@ 1
Ἐ@@ 1
川@@ 0.02846559004795937
another 0.0023045146180937746
beit 0.004544933159041132
ôt 0.007482043569546507
ορ@@ 0.005763687798132389
வ@@ 0.7773471410552278
有@@ 0.0031680089456889555
üş@@ 0.0316402777345463
ţ 0.9287658480679785
Υ@@ 0.02375497735236889
пе@@ 0.0011301365278350577
ци@@ 0.00141471110893436
ம 1
八@@ 0.010141609094169834
autre 0.004284376794539822
engine 0.006848588096975765
öst@@ 0.00511198189911941
ην@@ 0.034472628358890985
ქ@@ 1
の 0.1458371258169966
community 0.002751733731883692
gez@@ 0.009292457389070113
quatre 0.004539918011793861
ũ@@ 0.0599224443304168
城@@ 0.007911298403880839
行 0.0024969254241528037
comme 0.0010380059213282323
fand 0.004230881950682621
sind 0.0008441704707154051
yük@@ 0.04202628098428872
ätz@@ 0.00537530984998276
ευ@@ 0.005520744476948195
国 0.0033658521205356578
ę 0.5670375190035689
ής 0.004139327748877987
лу@@ 0.0017467019248342556
แ@@ 0.004089017675346452
、 0.00036924636369439735
où 0.0018698806999250452
çu 0.011087230311568153
ρε@@ 0.013048897450573669
ℓ 0.7404303134722112
Bere@@ 0.004055196717232883
atao 1
both 0.0011063834886564574
régi@@ 0.006786506170827109
εία 0.009187764319789257
Го@@ 0.0035912112734693825
лий 0.010254306358912236
ار@@ 0.004791757358255178
少@@ 0.01213470624967382
이 0.8475223874137516
（ 0.0005450592887642435
Kirche 0.003504545557680408
Mit 0.0030001012930185394
politique 0.004683035819842329
аль@@ 0.001251601494708921
Λ 0.21148969527232256
Нико@@ 0.019734323540611852
رو@@ 0.004515085211119297
아@@ 1
haup@@ 0.0077321038504124485
κος 0.047126782457968405
ḏ@@ 1
ṭ 0.7289924161466987
ガ@@ 1
ム 0.7947762621709865
endant 0.003029872067251367
çi 0.02944715845989799
τρ@@ 0.007990688280688364
사@@ 0.897776593233994
arbeit@@ 0.0026793315534432973
üf@@ 0.009072003080979699
του 0.0005969118239971069
вет@@ 0.004067975497183192
ين 0.0037174797698937573
រ@@ 1
ị 0.01283735568469995
村 0.008163121102841111
February 0.001535997666587865
Mais 0.0076284821215522654
century 0.0015565897290616834
αμ@@ 0.01333274599938135
Пе@@ 0.0038400653004451
あ@@ 1
光@@ 0.010123831389955729
먼@@ 1
테@@ 1
après 0.001731950353985041
sont 0.000642477185785454
äu@@ 0.003186889966473825
ολ@@ 0.008880171231602528
Сер@@ 0.012025660776859114
Су@@ 0.0039006476391627103
್ 0.6067543477288749
ぶ 1
プ@@ 1
Ġ@@ 1
кто@@ 0.0033702644545896858
） 0.0005238119840141563
professi@@ 0.0019363862775434982
üne 0.02149640996278384
İstanbul 0.02250416258691327
ур@@ 0.0028587405656680964
└ 0.07514524810107642
は@@ 1
川 0.013921876289208575
linal@@ 0.36600750030433576
wirt@@ 0.004268221486168218
κο@@ 0.01785210964120071
ργ@@ 0.013472886811902025
ό 0.003206467076031889
Ха@@ 0.00416861276322159
ק 1
ア 0.3702406831370371
fäl@@ 0.006606108586633607
ihe 0.0070610786231124064
signed 0.002853819599011668
ŭ 0.8807418578751952
ικός 0.014381956855774923
生@@ 0.0030677123863228407
陳@@ 0.07971281979613744
Lý 0.030441699614191724
région 0.003954056899070213
ɪ 0.9659749408953754
κλ@@ 0.009024587803981451
Бу@@ 0.004658164646962737
Та@@ 0.0023626100432884785
Α 0.01630678733473883
Περ@@ 0.051801791539585855
ש 1
أبو 0.09279369296747837
堂 0.00994868219118966
生 0.0023046079440425292
droit 0.007557876842972693
jours 0.00700931969245675
sao 0.026725043253331436
vur@@ 0.065200977873914
written 0.0025456915731232525
σκ@@ 0.008198801593439997
Ни@@ 0.003944266234169318
му@@ 0.0015315665943536848
си 0.002500544710337843
сть 0.0019291326417382507
় 1
张@@ 0.01802482894231062
alipo@@ 0.32725464832196266
prés@@ 0.0035549776871094925
ìn 0.02907364582867526
ɑ 1
Ν 0.22564258124343622
Ла@@ 0.005019218199442377
لي@@ 0.005772065174848124
ར@@ 1
ῦ 0.5441789853896437
ァ@@ 1
立@@ 0.00746157715200821
alten 0.004138495076226026
meil@@ 0.00608325193399361
zeu@@ 0.00559212820775732
ım@@ 0.009521083628666832
ми 0.0006051701771108417
ния 0.0006412490162634414
пи@@ 0.0010330276298971925
空@@ 0.007799909019210441
isant 0.007218025276629871
οφ@@ 0.014847630431019406
ان@@ 0.003935976833571157
。 0.00012942053334970087
る 0.30164662802650644
ョ@@ 1
二@@ 0.003522270718611385
bâ@@ 0.005937371785313223
called 0.001127109260949871
north 0.0021142000283204533
Ğ@@ 1
Си@@ 0.0032619267845972744
хи@@ 0.0022199700912335788
ца 0.0019519509959129062
▪ 1
る@@ 1
ム@@ 1
khu 0.007165227946953959
lerini 0.016515974331951403
lég@@ 0.005319096193793412
üler 0.012056698944218961
Θε@@ 0.03191864669757895
су@@ 0.0010567655311175623
Հ@@ 1
イ 0.2472836287904151
Rück@@ 0.005622765736854943
Sie 0.0014702316476995683
ίας 0.003007171926685816
ве 0.0019436456618530688
լ@@ 1
ὰ 0.6344176762964182
り 0.32365590753368906
方@@ 0.004852019640395539
正@@ 0.005884103779332659
Agosti 0.46895617918571564
µ 0.7658624851088653
ương 0.005207197400646523
απ@@ 0.0047570686226858176
ική 0.002930926803538393
πος 0.050672975209058356
ως 0.003332810023635382
ман 0.005351750918350245
ش 0.009812665521346024
ور 0.005831794552615838
こ@@ 1
 1
kiş@@ 0.020195267494547302
ları 0.003859154276842534
Δι@@ 0.012793181145124085
ное 0.0010696785079651202
ү@@ 0.3063901510296964
վ@@ 1
ক@@ 0.6891746633240917
জ@@ 1
₩ 1
株@@ 0.17614837157503904
Nach 0.001281558856216702
allow@@ 0.0024439131316853708
arı 0.014055580772009931
hadi 0.09356021667433265
rement 0.003688251388021242
village 0.00128495304012456
ச@@ 0.8094546578905187
ェ@@ 1
九@@ 0.009434088637021366
長@@ 0.34180940900999857
박@@ 1
Jahre 0.0013902139678928953
St. 0.0017881340658680881
elten 0.005223624281192801
kati@@ 0.14761979228824745
ände 0.005646256832193158
και 0.000568425500984905
όσ@@ 0.013171125279066078
зо@@ 0.000954869170001717
слав 0.02014505621855433
ὸ@@ 0.5215899327518077
∗ 1
besch@@ 0.002314287101230981
bà 0.015914707382628613
lichkeit 0.005579937710783961
εύ@@ 0.009103275016797882
Про@@ 0.002865915195898565
म@@ 0.005126364667186853
ོ@@ 1
东@@ 0.0043115317147840405
華@@ 0.007746425415012938
의 0.7846855262175317
fass@@ 0.003814864071295915
trí 0.01190898685459332
tä@@ 0.009666753885104698
И 0.0034494639409124585
лек@@ 0.0031374686530257693
《 0.0012434050051118215
ズ 0.8662213838113062
ビ@@ 1
조@@ 1
kij@@ 0.25597769441455487
và 0.000540721826549129
était 0.0014997346742738667
üre@@ 0.01588469801446345
έρ@@ 0.006408999545390582
Ре@@ 0.002688600811341208
ск@@ 0.0017378449824885863
₂ 0.8278010904619321
文 0.005067288379222536
神 0.013703456408091903
阿@@ 0.0030834596920060325
주@@ 1
ported 0.0018538692859685765
ƒ 0.695322519375154
Ζ@@ 0.016341889941043658
γαλ@@ 0.072957834470115
мен@@ 0.0011140623454209638
тина 0.012638090249700707
اب@@ 0.005470267496854862
بن@@ 0.010797119300345433
ন@@ 0.8786864509723359
》 0.001228966195149137
会 0.002613563493974993
周@@ 0.008547446251534235
Proz@@ 0.004760903041383797
yü@@ 0.030786938054157297
óm 0.05834318506752258
εφαλ@@ 0.05188374656552192
μέ@@ 0.013960086509354814
То@@ 0.0029723544969375037
با@@ 0.008142864996616333
ك 0.004977332184417823
ら@@ 1
張@@ 0.015027461819519564
月@@ 0.009584557013288215
皇@@ 0.010212892864416847
gek@@ 0.005179500371672733
meister@@ 0.0037310122043336725
гу@@ 0.0016281880988265741
нато@@ 0.012174992759470614
њ@@ 0.9547490313079409
ে@@ 0.8182813302963606
ზ@@ 1
に@@ 1
真@@ 0.011452375103363723
mà 0.007663622866001263
élec@@ 0.002615251126294378
νης 0.022380903939229306
σα 0.02141931559395379
ών@@ 0.008959679803992418
Укра@@ 0.004786810870050138
ти 0.0011492345054938211
ّ@@ 0.011096542909866494
ܐ 1
世@@ 0.00642416724728244
藤@@ 0.05704110721782297
Bahari 0.1309157901781554
COVI@@ 0.9303218865601366
Zus@@ 0.005413566324928968
role 0.002065912644393159
tlich 0.004676455877691644
ıl 0.033939564405740495
Ō 1
Рес@@ 0.006831451819992085
жа@@ 0.00127382085281001
الأ@@ 0.002840521165555393
ح 0.005618606855571762
ون 0.004524321746965745
州@@ 0.010628447055370634
野@@ 0.022099600370394046
성@@ 1
département 0.004664916512149657
İl@@ 0.037495678192265694
εια 0.019403462342868837
б 0.0027928013067293677
за 0.0004600926912837675
льный 0.002955384129146341
пу@@ 0.0010560842971685154
ذ@@ 0.005313888810807911
Nga 0.021392019570666273
ambao 0.1665586321483177
iliy@@ 0.06121157767128899
trai 0.023579433491166327
zeit@@ 0.004723750546070016
ʔ 0.7825654633786063
υ 0.033938767030852475
الس@@ 0.004260542161998985
า@@ 0.010089451556535761
ịnh 0.017378281878120516
ノ@@ 1
According 0.0024275787633261012
finale 0.0037153309572585474
grund 0.003223065149872409
haa 0.4800321192805982
otball 0.7332064197539695
Ал@@ 0.006179534045722719
Га@@ 0.0039685046759769214
ن 0.0059783230215568126
abei 0.006990491261146286
aliye@@ 0.18447818405764174
atika 0.44848773143910275
cette 0.0012485371600367775
malar 0.05096053488823855
В 0.0002356756050782165
ры@@ 0.001658607324509553
الك@@ 0.0048475582670211076
প@@ 1
ủ 0.010264763033480874
主@@ 0.0016157945585311719
劉@@ 0.019513779286609415
美 0.01267926013103615
신@@ 1
kehr@@ 0.004539906483892759
Ста@@ 0.0050101720611902345
ր 1
ع 0.003778456390127024
馬@@ 0.01224102651668096
όρ@@ 0.0072342592567716316
Му@@ 0.004094675719975814
ча@@ 0.0007008927724615592
ม@@ 0.001875361241471654
河@@ 0.006244965653341661
different 0.0018809172594311176
ũ 0.012480953108313146
М 0.004552387417178903
ך 1
ท@@ 0.002977195411629407
治@@ 0.006364057881308736
20. 0.005251101697601873
Unis 0.00400920594582042
because 0.0015495415198006062
govern@@ 0.003340400868320258
ortho@@ 0.017380042619474772
tions@@ 0.0054832124248085715
Ī@@ 0.6420814094550942
ű@@ 0.4999569989366513
ưng 0.011630190052417678
лов@@ 0.0032878316382617726
ج 0.005749581437258522
ட@@ 0.8507773718235482
བ@@ 1
★ 0.36890926080652275
中国@@ 0.011190950205950055
akini 0.2956388645512658
wenda 0.3105494611566187
Ј@@ 0.9389825475322594
род@@ 0.002342110761778209
بر@@ 0.005798458833463096
セ@@ 1
吉@@ 0.007882385695431163
教@@ 0.0033144744048255875
charg@@ 0.0034709082295959867
coup 0.004700787054705858
tionen 0.0042257952352058445
οδ@@ 0.009241349993744862
των 0.001719762496659457
он 0.0008103507645223136
ন 0.7699135394566016
原@@ 0.003292924168565575
春@@ 0.020297165793735965
陈@@ 0.019462675649415968
Hà 0.014846690709025041
andere 0.005271090959012749
même 0.0013308059164445886
nda 0.016674846150773748
жи@@ 0.0008651334092827194
об@@ 0.0007546035809553361
গ@@ 1
ῥ@@ 1
wenn 0.005446395319832088
Αν@@ 0.011315803745878702
Р 0.006569885218690848
али@@ 0.0040000758310792354
ба 0.0024123262162029607
ева 0.00904240441741881
љ@@ 0.9971876403992348
ὑ@@ 1
‒ 0.5236478249737447
つ@@ 1
寺 0.014687717248981144
松@@ 0.02324688167881194
福@@ 0.0064698126553013584
larda 0.012359036503966473
öne@@ 0.07146919913203713
ʂ@@ 1
εί@@ 0.006478950928739028
Ме@@ 0.002982309565448686
ю 0.0005033251376104922
Ս@@ 1
գ@@ 1
ير 0.006183687853342271
ἔ@@ 0.7737264467357676
大 0.0023172032151239637
江 0.009617949405963612
도 1
lagen 0.0041889372734195095
mondi@@ 0.04003847880167128
since 0.0010930863921778814
sitz@@ 0.005221749201932282
Đồng 0.030231413885876263
У 0.00429672641819867
الخ@@ 0.008241905359998586
Ṭ@@ 0.6072713125502698
ὀ@@ 1
민@@ 1
south 0.00185709477406571
òng 0.01618384458378018
Росси@@ 0.004246019930763096
ле 0.000984418625526629
都@@ 0.015545631752174932
黄@@ 0.014167779195587904
동@@ 1
edrich 0.36416215919812284
jini 0.17976753249412605
umri 0.27041891122235556
út 0.012416048522509356
Гри@@ 0.008777829735471454
Николай 0.011950471805901412
же@@ 0.0008196123465624719
য 0.9924777652175706
ṯ@@ 0.8766777886562589
urch 0.009282366322239893
wanza 0.3882200372649993
όλ@@ 0.008753961056566518
лы@@ 0.0023981469711916426
っ@@ 1
語 0.007683613297813718
軍 0.004988719835408175
通@@ 0.004250274384109618
도@@ 1
하@@ 1
lise 0.14014367452307142
setz@@ 0.0021621879285623163
tatu 0.29253351944584055
within 0.0014199611421903439
öß@@ 0.02455845063691221
ज 0.004182260024520573
ས 0.9564907931734992
千@@ 0.008277649040180406
女 0.007727261513025183
書 0.012663006650719759
district 0.0014719393264811605
öster@@ 0.00589415354059122
Đức 0.008735761722460954
Π 0.13012857638567324
μι@@ 0.017891920136921636
ке 0.000780032774985347
يد 0.013719009300264054
ܝ@@ 1
ܟ@@ 1
ག@@ 1
が@@ 1
み@@ 1
元@@ 0.005898848058175309
시@@ 1
europé@@ 0.004799576391103413
kül@@ 0.030787114619088694
tesi 0.04606619929110609
ķ@@ 0.6033040685351989
˚ 0.6141795688218865
πλ@@ 0.005973087145227017
τη 0.0017739058838924233
Сте@@ 0.008917829804907953
ге 0.0020977519217676155
сти@@ 0.0009883216813855206
ша@@ 0.0017815632669110587
Մ@@ 1
ی@@ 0.007134932221652046
र@@ 0.002958075605640049
士 0.0028291887598122824
永@@ 0.011582488200720494
Trung 0.005224830817511621
ağı 0.015845365640992027
published 0.0013557589276277176
trat 0.0028729232808320723
ˁ@@ 1
χν@@ 0.037121336965871395
э 0.006909709467580441
الد@@ 0.005188883289945261
్ 0.7727662935683803
မ@@ 1
古@@ 0.005018785517176208
戦@@ 1
法@@ 0.0026201819470124663
行@@ 0.0035863625302547633
among 0.001887861039664955
đa 0.023442905020908896
ɨ 1
آ@@ 0.005836272748091021
الب@@ 0.00496256224758894
رة 0.004965958540083188
ত@@ 0.8729157169644791
ང 1
Ἄ@@ 1
我@@ 0.014439860403195722
ꞌ@@ 0.9953824582377497
수@@ 1
biri 0.02611808882679382
miembr@@ 1
occas@@ 0.003076200568880386
υσ@@ 0.018525142054574523
Те@@ 0.0030213984956720262
про@@ 0.0003276428898552634
دي 0.010007640458772832
ด@@ 0.002106145680807541
ボ@@ 1
部@@ 0.003977982307809
제@@ 1
angla@@ 0.0057879900953659216
eleri 0.019656348234253034
klär@@ 0.004711875855371515
support 0.0017859145269221745
ɒ@@ 1
ʽ@@ 0.7510201888858253
зи@@ 0.001087242700279894
кин 0.010100250663706367
ция 0.0012125637414954508
لا@@ 0.00432710738486695
ိ@@ 1
ọ 0.015640230689849727
♦ 1
ケ@@ 1
明 0.004429730081462891
baş@@ 0.005646979262405698
üçük 0.12377805207668023
よ@@ 1
원 1
died 0.001302440774182072
wao 0.22191672973624466
yapan 0.045980673119224866
úc 0.00732760595724458
доро@@ 0.0024720979000567842
лена 0.005161433325730255
лю@@ 0.0013335559992268553
مي@@ 0.005151156746504391
হ@@ 1
기@@ 1
esini 0.03884687316169223
services 0.002108223182591158
Ве@@ 0.003647514416623842
ח 1
ט 1
الن@@ 0.004315397756711837
木 0.01886245374063444
develop@@ 0.0014724298472119576
esab@@ 0.1804586059030839
gün 0.0236813521828869
tischen 0.0030129581525157913
ually 0.001205234279729426
 1
ŵ@@ 0.506508557073447
ст 0.0014345607398855865
фа@@ 0.0017327867722275994
ша 0.005473234421424387
թ@@ 1
ס 1
وا@@ 0.003624795499607747
星@@ 0.007801327902619841
本 0.0033633001987558174
清@@ 0.005317935008542367
19. 0.0037604769774071635
Produk@@ 0.004412918859169024
fut 0.0015624421697747386
parti 0.007194495991829958
woh@@ 0.004143367686413024
դ@@ 1
اس@@ 0.006406982303220135
ز 0.00400745081083108
স@@ 0.7826295968240626
ห 0.053305721848505294
成@@ 0.002787720334014774
mise 0.0047832819120540455
ʒ 1
̪ 1
ղ@@ 1
ک@@ 0.005187405022630715
も@@ 1
漢@@ 0.015265122530350403
社@@ 0.004453411967465426
黃@@ 0.0509744558864863
스 1
fois 0.0013632285293792628
ʊ 1
άς 0.014433693550920812
Ду@@ 0.00561947956027016
Я 0.011094521569321862
ту@@ 0.0011966266595706096
чен@@ 0.002678032442697655
ө@@ 0.2625046957506609
ܡ@@ 1
ṣ 0.6117512393821579
島@@ 0.019262333183942257
無@@ 0.005969286295911858
町 0.028118900575385356
門 0.007271390749110754
선@@ 1
Chuo 0.2146212108540638
including 0.0006363721311810782
wezi 0.19450376380361745
ách 0.009679742645615328
Š 0.5036008081878498
έλ@@ 0.009275450963674553
αθ@@ 0.010400188131480546
龍@@ 0.01424687573398892
assist@@ 0.00244981118705542
oğ@@ 0.030418157415210742
tainment 0.014529220962375033
ĩ@@ 0.8920590246052619
ɕ@@ 1
μπ@@ 0.004712294228599567
τά@@ 0.005473414661482131
το 0.0005803141095181242
ಾ@@ 0.7357818513421206
ေ@@ 0.977791292090109
⅓ 0.6083474688416297
리 0.7979676061884797
우@@ 1
유@@ 1
Für 0.0029365789768585958
lte 0.008062681425983478
réalis@@ 0.0024119827757143673
though 0.0008547834346237273
unzi 0.2518569492526359
áp 0.009360160700094365
με@@ 0.008002969692858526
ет@@ 0.002062845242535898
宮@@ 0.03636491590009964
愛@@ 0.009566401010829164
院 0.0028001364250738875
ileri 0.017319358406508025
leich 0.004045991530603908
ξι@@ 0.024161005286904225
όδ@@ 0.02127629392034072
санд@@ 0.058990219829270225
দ@@ 0.8895021058877258
ἴ@@ 1
서@@ 1
kez@@ 0.06141004012223258
ış 0.008380158439678568
ɾ 1
τερ@@ 0.009414549202106092
При@@ 0.0025980059261932714
Чер@@ 0.005972893200822629
Ша@@ 0.00576984004188965
ля 0.0010294805839545097
қ@@ 0.2985951950870874
ام@@ 0.004518234461352471
پ@@ 0.00596458709459155
ܘ@@ 1
ยา@@ 0.011534603995086382
ც@@ 1
〜 0.24397797289416487
下@@ 0.0034250273368159516
市@@ 0.003987309394896014
œuvre 0.005092080191582702
παρ@@ 0.0034047543601175008
χος 0.04954196768801669
Констан@@ 0.008779661341740757
дар@@ 0.0023939407690073385
ж 0.0028992165927392084
се 0.0007244936550972425
ской 0.00036221749012420605
ха 0.0027624250629412267
ֲ@@ 1
ὄ@@ 1
⎯ 1
き 0.29479001422187273
中 0.0008171791492492094
帝 0.007860149623715418
고@@ 0.9549327900231473
gegen 0.0012569276311725887
period 0.0016240465714753363
until 0.0007082164802509095
wilaya 0.07651404112458762
άδ@@ 0.01309223213213724
κύ@@ 0.016248687794559753
λογ@@ 0.015709483797118506
υπ@@ 0.007778221228727531
Иван 0.010101328253663019
ке@@ 0.0021571072113729947
ны 0.0006301613659406032
سي@@ 0.003813336767969047
र 0.002579419703178427
ὸ 0.6259818163410479
之 0.002895545392511365
井@@ 0.04537186999956079
台@@ 0.005879147417149637
天 0.0047844635768145675
法 0.002009197522554373
ient 0.004133316143093232
mch@@ 0.16137268509594183
named 0.0009598973969730884
quy@@ 0.054677930841024826
vek@@ 0.028141527161264345
óc 0.020799423960448142
ʼ 0.30651157642203636
θη@@ 0.009853506901261678
Вла@@ 0.02056231674899226
ня 0.0023499129281846867
п 0.0019460145449779218
ские 0.0013055068799610087
ў 0.7282620013438307
リ 0.2728338765925096
六@@ 0.0059801267695063
唐@@ 0.012006747873433055
Thái 0.010327610284762596
gün@@ 0.009078633828721797
kuli@@ 0.06847937795405276
organis@@ 0.0022502890149426794
wango 0.23997900868944388
ßen@@ 0.004370585755598311
стро@@ 0.0013713506522423807
բ@@ 1
من@@ 0.003697427796275599
ស@@ 1
原 0.0067615862047169
百@@ 0.007125652397858867
juu 0.08749091303395978
lors 0.0015427746008649192
wech@@ 0.016120493040713915
δρο@@ 0.029498531125006538
κυ@@ 0.01914094797803863
υμ@@ 0.016272247586773012
υν@@ 0.018323339622923616
Ти@@ 0.004304267056041556
мов 0.003877439233420844
то 0.0009308426147015567
це@@ 0.0008694193952900253
َ 0.029710182611981845
ย@@ 0.001683957519108755
七@@ 0.007797078143449562
河 0.0049994807447977015
기 0.9468726458385204
다 0.875185126910683
δε@@ 0.007899256820601086
λέ@@ 0.01338513461816406
ктор 0.004056475027059668
ня@@ 0.001259191299161735
от@@ 0.0004244323073848363
є@@ 0.5957398930432868
ས@@ 1
ヴ@@ 1
合@@ 0.0026752705150272014
场 0.004344433834142929
海 0.0049690029398218715
나@@ 1
minh 0.015001647029742335
seit 0.0013964424085286694
ʌ@@ 1
ίκ@@ 0.007891724020617698
ίσ@@ 0.006432672881280986
τον 0.0012272857978226407
τυ@@ 0.015879606016215804
ώ 0.02193055892217197
ў@@ 0.496643885295699
ץ 1
ẓ@@ 0.6020506635971565
∧ 0.9571603012841735
し 0.16794093553209932
伊@@ 0.004169383227195908
利@@ 0.002409690445622969
玉@@ 0.017790735884881847
장@@ 1
Bắc 0.008494303363702934
Ô 0.112939166512353
из@@ 0.0005453067989588751
مان 0.011942591612683165
َّ@@ 0.023942723891316138
ܪ@@ 1
ชา@@ 0.014776943230708762
ད@@ 1
ἱ@@ 1
み 0.3393836106473966
郡 0.010514840626112475
라@@ 1
Kön@@ 0.0381003143964165
elerin 0.009464586727688415
enek@@ 0.035777480325233514
ihm 0.0018980700836025502
udur 0.03223837583581572
ŕ@@ 1
άρι@@ 0.03733253653699319
μβ@@ 0.00867200731695846
вя@@ 0.001663575480774512
ит@@ 0.001039687995030168
اد@@ 0.004889959663633061
刘@@ 0.015182629664383345
Mỹ 0.007695456861651788
awala 0.14089075198690987
famille 0.002180897303042429
government 0.0009423688891385367
 1
ình 0.02184791602831166
über@@ 0.000764574549252991
ǧ@@ 0.4709225134904932
̥ 0.8242054509118222
άγ@@ 0.009206334373117703
ты@@ 0.001323185595321828
ض@@ 0.0032644549724433264
مو@@ 0.004723460220500963
ி 0.8098006443989256
ാ@@ 0.6250426088146547
う 0.1830781047979705
で@@ 1
族@@ 0.016912882639999145
arded 0.0017930929560777814
ayı 0.011398238098553063
defe@@ 0.001597459261238521
iert 0.001196534139238321
ilik 0.02606259196710974
lü@@ 0.02242071807739312
nói 0.009666001129038825
 1
ɲ@@ 1
αστ@@ 0.007138738463020831
υλ@@ 0.010928561245077854
Пре@@ 0.002932946570011556
ட 1
პ@@ 1
ფ@@ 1
ṃ 0.6347689065767173
anistan 0.008772182417444903
crit 0.0026273534285042367
wegen 0.002889764235021512
wür@@ 0.003510659472409275
Ψ 0.8619102063087848
αρχ@@ 0.005991269962394502
ιλ@@ 0.008262574683449212
στι@@ 0.016057895951699618
τε@@ 0.007110370353668758
ско 0.0026867649109348388
сь 0.0015927922890499352
тин 0.006978100687578113
ть 0.0007744204392948027
ча 0.0024056197329502143
հ@@ 1
اء 0.004696910998200626
مر@@ 0.006260686894045543
ರ@@ 0.7339515482293293
อุ@@ 0.011430721025973194
ု@@ 1
ო 1
を@@ 1
會 0.0012145545102666736
오@@ 1
14. 0.005103718944034701
Nguyên 0.022829175650046794
Unternehmen 0.004270088100304991
played 0.0006432031273376344
série 0.002839798540562919
υρ@@ 0.01361430750871439
го 0.0005376219570423679
тов 0.0011028900928482153
ә@@ 0.15171903537120152
ல@@ 0.7779007427340796
グ 0.550463661171997
國 0.0015750415135377218
月 0.00048202906541879275
전@@ 1
Dương 0.011937212984963376
ailleurs 0.004041225204671489
uvu 0.24505778209607096
wird 0.0005240042459209684
Θ 0.19453803543779088
Б 0.006206292452925741
Геор@@ 0.009350295114774726
Мак@@ 0.004885378367668639
ս 1
င 0.8860429696594826
ὰ@@ 1
て@@ 1
れ@@ 1
大学 0.005400888769753969
志 0.010875881007662203
香@@ 0.01571601960886375
가@@ 1
kann 0.0016904358622767352
Κα@@ 0.011292435921603422
γκ@@ 0.003827576530641
οχ@@ 0.012998887413293633
ников 0.0018066883030855231
اد 0.00835311019741169
ال 0.004038726766186864
ند@@ 0.007733876513112795
چ@@ 0.008382993404078233
全@@ 0.0018529760033067682
工@@ 0.0030422862102770123
科@@ 0.002367415566492086
野 0.021245202751881437
ationen 0.0023379864468451635
forces 0.001967667939567467
political 0.0015877431912410245
werden 0.0004741650870059808
Β 0.013386196031884045
Νικ@@ 0.03525910800516864
Παν@@ 0.019333685892885286
πολι@@ 0.013447511737496176
στο@@ 0.017471419591466128
τέ@@ 0.006049231860462116
пар@@ 0.0016792918703466251
публика 0.016473174539423836
ри 0.001395043415909209
ского 0.0003266425233992758
في 0.0004217645124088679
مة 0.003862269485006175
す@@ 1
林 0.004265488903304967
Menschen 0.003781075591623726
acı 0.02678097991458543
direction 0.002920656355564186
eviz@@ 0.03723100407808226
ак@@ 0.001186499711043425
ной 0.0002348064391980094
، 0.0003079483927689779
الص@@ 0.0048791006048921086
دة 0.004644360495026146
ม 0.0018183568126919193
ⵉ@@ 0.7747266342420698
ソ@@ 1
ナ 0.49217927351849144
家 0.0015924266715796858
御@@ 0.028194027798992542
心@@ 0.008026522435488744
志@@ 0.016729355315622613
花 0.01013900834085029
상@@ 1
수 1
dır@@ 0.019079757283059898
few 0.0016710769726982363
uwe@@ 0.14467775830774393
Ð@@ 0.48172231335864985
ği 0.006740249630214624
ίων 0.012348176125945689
ισσ@@ 0.06822308057300319
Лю@@ 0.0043831318429803905
СССР 0.0024030517471652483
чу@@ 0.0030019102037461215
ᾶ@@ 0.9569599032682409
じ@@ 1
ベ@@ 1
谷@@ 0.03727903132932429
경@@ 1
교 1
성 1
소@@ 1
construction 0.0014054264529625995
liği 0.01048580231118619
travail 0.004538674056751059
αί@@ 0.00639103624855985
βι@@ 0.010228017096140959
οι@@ 0.010103975097515247
τη@@ 0.0045334176543157505
Ге@@ 0.003189236601423274
ного 0.0002839221129142865
ז 1
ף 1
أحمد 0.05862539408179119
ला 0.009366925086128748
ུ@@ 1
公司 0.0027882528480054573
化@@ 0.004753471413661555
平 0.005843404048434158
音 0.005423585484886674
館 0.009617804479395285
미@@ 1
주 0.9341201522918736
anyika 0.10093159841435748
déf@@ 0.003566367879533883
preu@@ 0.004333552586688771
took 0.0008551071326971497
église 0.0034899668084186525
ĭ 1
Φιλ@@ 0.05120324004826201
στρ@@ 0.042358035625713455
зе@@ 0.0013332871397905832
по 0.00025096341408879997
рай@@ 0.002627737507368742
ре 0.0008423046873109074
ћ@@ 1
ور@@ 0.0036153376807124982
南 0.002563263211242499
德@@ 0.0017484537970037105
长@@ 0.005489583530754444
화@@ 1
Eyl@@ 0.2860395759263994
weng@@ 0.3016239239298613
époque 0.0031908624660357773
ĩnh 0.01133423077158434
οί 0.008050656836153521
σσ@@ 0.016096498366164596
τρο@@ 0.026990278413782272
лина 0.004502644672776901
جب@@ 0.04083007601410631
فر@@ 0.006690441305351399
نا@@ 0.00524296499514414
ก@@ 0.0016025222496186705
น 0.0018301855538311123
ြ@@ 1
ゴ@@ 1
星 0.0045878488595099435
水 0.00479002478857451
重@@ 0.002544814694072305
진@@ 1
alik@@ 0.1490465184108
appel@@ 0.002945742443422194
ildi 0.00985847693120655
letz@@ 0.0031148884655547134
ùng 0.00712627214011879
οσ@@ 0.008034082826331158
πρ@@ 0.008223476315607013
τί@@ 0.008549064287352508
ние 0.0005609171761135349
ные 0.000332494240310811
ام 0.004637588403640295
علي 0.028522450088655376
ய@@ 0.6395793638134328
ว@@ 0.0022501924954034668
ひ@@ 1
夏@@ 0.007019864759747014
영@@ 1
einz@@ 0.002230772060284265
ennent 0.00360311676214312
grün@@ 0.0035779351161744533
imeh@@ 1
société 0.004000829466564645
ßer@@ 0.004310104202279254
ʷ@@ 0.7585336575001681
Кар@@ 0.002619934299295744
شا@@ 0.016137644953687642
ما@@ 0.004894596533368379
ود 0.008230306442726334
ા@@ 1
ர 0.6307700308389992
წ@@ 1
え@@ 1
光 0.006818255630538828
聖@@ 0.010776041763965228
chaque 0.0041427180520940505
präs@@ 0.0034971214163971647
Ê@@ 0.16406577087856178
änge 0.003487763833924718
ɐ 1
ɣ 1
̄ 0.35481693822532334
Κύ@@ 0.01918241711297954
άσ@@ 0.006034255304509449
κά@@ 0.009683454458759339
ф 0.0027206855685688843
الت@@ 0.0019137697042541425
∠ 1
ゃ@@ 1
ポ@@ 1
安 0.004925411653642909
時@@ 0.0029882447685599914
里@@ 0.0036085887886658733
阳@@ 0.015740405002863805
Hoàng 0.010357300687254064
Hòa 0.01852831820405475
dass 0.000562584436712971
gebiet 0.00277978010757128
population 0.00067004447603401
ğr@@ 0.014183931469883119
̟ 1
Η 0.0018056471187704302
ρυ@@ 0.026511042718946665
Г 0.004946310183887736
ница 0.0038731273775844326
пор@@ 0.002148729338887153
زي@@ 0.005620526837851856
عة 0.0045353631809591
त 0.0019185357785589951
द 0.002365539968093394
ര@@ 0.7958963080543111
ာ@@ 0.7192498993433797
だ@@ 1
ヒ@@ 1
ワ@@ 1
手@@ 0.005805849275487757
朱@@ 0.01233075825955868
歌 0.011427145611913325
무@@ 1
aussi 0.0011193431828039348
huu 0.13014057849267588
Ι 0.0735937411084637
δος 0.05074789830263705
λόγ@@ 0.02505225526274462
ман@@ 0.0015913104877266953
ран@@ 0.0012229290541774065
لو@@ 0.004167642131498929
يم 0.011711992790893553
म 0.0026575329634953185
ติ@@ 0.0069507166644290404
พ@@ 0.002272798424067819
Ἑ@@ 1
░ 1
ツ@@ 1
ピ@@ 1
代@@ 0.003794478640262907
植@@ 0.010330763438999909
特@@ 0.0015323899576610554
보@@ 1
어@@ 1
ABD 0.01890706213495857
ammen@@ 0.005429298568483026
seine 0.0008024835115090776
seph 0.9375348333574237
très 0.0015872027492561105
voll@@ 0.0036983846608774767
weit 0.0036375358192859046
ʲ 1
Гу@@ 0.00442954118097464
Крас@@ 0.003362251795667857
Ли@@ 0.0019604589932220866
Михаил 0.010321038583294305
вер@@ 0.0006037007029049075
ян@@ 0.002105154184790944
بي 0.011021990905253692
مل@@ 0.0063364476894089685
يا 0.004279300958154999
ल 0.002794095405431582
ห@@ 0.0034339102888930654
₡ 1
ズ@@ 1
和 0.00040890783046681356
建@@ 0.0018078480653652181
飛@@ 0.01096459775901319
산@@ 1
학@@ 0.7167226386464811
Jahr 0.0006008246522778202
année 0.0017154724138995277
quelle 0.003924399176377621
ulus@@ 0.022996453904163734
yıl 0.010639973183338623
ăng 0.005285364540346493
ты 0.0008564494589025372
الف@@ 0.004354102116236139
ネ@@ 1
沙@@ 0.006068230923056785
理@@ 0.002985811284823339
镇 0.004958318923531362
시 1
avoir 0.0017167210557515967
became 0.00044909055031376317
neue 0.002920307567136176
Ë@@ 1
λί@@ 0.020394485573627077
σία 0.007448936958198861
όκ@@ 0.015624409882823435
Гор@@ 0.006037952045116772
Д 0.004286748303793072
при@@ 0.00023803480791824473
ъ@@ 0.0028147181230737143
ري 0.01155056437760619
لل@@ 0.0018410872755814625
ക@@ 0.5837275471297589
ส@@ 0.0012405808460670682
‡ 0.24358912555116569
ィ 0.5300039498717989
ロ 0.3045276932314234
外@@ 0.0030441418285815426
宮 0.018820058973325074
机@@ 0.0037147966151406726
義@@ 0.006448338274374079
英@@ 0.0018980543055471726
陽@@ 0.019755391982950676
Quốc 0.003419699284782113
Tây 0.006073625582605247
années 0.0012968835354541276
aujour@@ 0.004211362599556623
÷ 0.35132277901024767
ış@@ 0.0035248101045059085
ɐ@@ 1
ɲ 1
Μαρ@@ 0.014413358984622504
Ξ@@ 0.0382075971331478
προ@@ 0.002434613320124877
дов 0.001409553177306971
ем@@ 0.0020325818333442563
ּ 1
कु@@ 0.015476343582830772
ะ@@ 0.005119266114890496
း@@ 0.8244200893919806
ុ@@ 1
ἑ@@ 1
け@@ 1
ら 0.2522828350691852
司@@ 0.006460756628927966
土@@ 0.006095600559530382
族 0.003337758203053334
Familie 0.0022862278847756326
dır 0.018150644173505794
east 0.001529055107039526
mittel@@ 0.001976805250899351
phong 0.009193547576985334
ünden 0.005441985750764295
üz 0.030060475029017892
şir@@ 0.01993259987043849
ʰ 0.509393787088025
μά@@ 0.0069455302773127284
υγ@@ 0.010743636803474043
ώργ@@ 0.035882740186400294
Хо@@ 0.0032770570690400175
ви 0.0029693899937465913
фи@@ 0.0009664749513879677
ി@@ 0.5642164368194715
མ@@ 1
同@@ 0.0023797273667129472
名@@ 0.0024528143443278967
岛 0.007867770721484998
車 0.0031366009290592608
門@@ 0.014190865201649831
자 1
최@@ 1
Üniversitesi 0.015034389256094268
þ 0.7778184115044096
Ď@@ 0.8210305454768768
ǃ@@ 0.817949755437564
Δημ@@ 0.01885100616803829
γλ@@ 0.023485184348222134
λευ@@ 0.023446030796645333
Лу@@ 0.002604367540021097
П 0.0025973156252686674
йн 0.003565246209786532
ья 0.0018600672816793983
سع@@ 0.01968604802890913
て 0.2430140577749284
佐@@ 0.022802825443183305
火@@ 0.005853912676798389
공@@ 0.9841246493187846
호 1
During 0.0009044940563865292
built 0.0008052219032137817
maji 0.1272485656372831
sü@@ 0.01380053756164065
Ô@@ 0.1489691095474096
ılar 0.0069533558959300355
ǃ 1
άρκ@@ 0.03504657384755933
εκ@@ 0.0026084934939834908
όρος 0.032238711415145525
З 0.010036360706019666
Ор@@ 0.0038284122221380564
بل@@ 0.007348576226790611
دي@@ 0.0036706004810530104
ง 0.0023026852367513473
日 0.0006077212333993945
아 0.9526788308142288
Teil 0.0015721165988350433
following 0.0006515172630488747
zote 0.22311820374482613
Þ 1
ɡ 1
ιχ@@ 0.03305422897697668
καλ@@ 0.008447318951292226
ан 0.0032619446063990353
рус@@ 0.0016524077679350487
цо@@ 0.002018007885094389
ян 0.006581764409665097
क 0.001488032442541353
ན 0.9215961188122322
京 0.004960255015815432
學@@ 0.0016948230071238055
氏 0.006014725651860342
航@@ 0.005032188077698425
記 0.01709528158920517
軍@@ 0.002758147380220244
선 1
Biographie 0.001950751296198887
kommen 0.002593476323359929
äß@@ 0.015432433809596762
çek@@ 0.008867365665385651
̈ 1
ίου 0.004504377432942413
μαν@@ 0.014700213563993035
нови@@ 0.004785258918451915
ных 0.00023845456132894898
обла@@ 0.0018318734531891847
рия 0.0015513928087606786
фе@@ 0.0012078400382277467
ђ@@ 1
ג 1
اني 0.009956690299699564
يل 0.00683767080635791
ợi 0.020261494933146114
ὕ@@ 1
め@@ 1
年 0.0001649157856285985
朝@@ 0.0067048799685988335
里 0.002099947057658145
duy@@ 0.015099430909379303
insi 0.006862679644863767
police 0.0018145251509524422
several 0.0006366535701942786
xième 0.010161953495772683
ίκη 0.025968490533253737
αβ@@ 0.013657364275617579
ανδ@@ 0.01650012354772201
ита@@ 0.0015341262112440255
ска@@ 0.0010180116157316214
цы 0.0011124825024417242
न 0.0018106887048064788
ร@@ 0.001501887921747607
ོ 0.982047846222342
♣ 1
加@@ 0.0016573530931959881
府 0.004610070607903443
第@@ 0.0019667827054366187
龍 0.00809505384076466
command@@ 0.002249543776177104
ehir@@ 0.028465731893917046
orta@@ 0.11000496231765658
peut 0.0012239379711787236
selon 0.0025295605608580897
Ş 0.23499782753411394
ʕ@@ 1
Υ 0.14962901615808485
ηλ@@ 0.010336442304796597
μφ@@ 0.01509246826000699
Би@@ 0.0032932394553654375
ато@@ 0.0010864552187191145
ван@@ 0.0015932929951900515
им@@ 0.0014300004774214713
ско@@ 0.0008494539390130168
في@@ 0.003127303636895741
ْ 0.06471487113286042
າ@@ 0.8660014083710078
ྱ@@ 1
Ὀ@@ 1
ホ@@ 1
博@@ 0.0044523057327999415
士@@ 0.005461748810224787
銀@@ 0.011734070532246947
音@@ 0.003613568039538922
윤@@ 1
15. 0.0035304687284981053
Hải 0.009828292870457542
become 0.0012466780633467141
members 0.0008660808780228153
nying@@ 1
oppos@@ 0.002005602160190429
usawa 0.2315775877364805
ρύ@@ 0.02413062478859096
Ин@@ 0.001837900867070702
Т 0.00573122811018935
лия 0.0027742155922382363
лы 0.00199473955025615
ря@@ 0.0007510259481912545
لة 0.0033041675856969517
مح@@ 0.004825499451072401
க 0.662694116362404
地 0.0010011341614789388
洋@@ 0.015508367309601853
魔@@ 0.017050874887046326
남@@ 1
일@@ 1
Durch@@ 0.0035813749861664784
groupe 0.0012209651140378298
mayan 0.09065590839619372
Με@@ 0.012310582030464593
ημ@@ 0.0066401903615198234
ησι@@ 0.036257495491550905
νε@@ 0.014351952057196136
τρι@@ 0.011913291321696383
ұ@@ 0.472743587657631
ون@@ 0.0031041857772323364
শ@@ 1
ร 0.0031497495043602197
ḗ@@ 1
∴ 1
公 0.008993545876012027
内@@ 0.00398408156773124
相@@ 0.0017025817884012227
義 0.009038792004519822
風@@ 0.0065560019842806246
구@@ 1
여@@ 1
Eneo 0.2197026016081216
Gemeinde 0.0013881192878656202
lenen 0.01745980939932092
success@@ 0.001381077343883313
änder@@ 0.0024006897986725484
̱ 0.44427665779735453
Ком@@ 0.0040803525588471185
Н 0.002294846358386335
кате@@ 0.0039515596729516956
лин@@ 0.001561380000207335
щ@@ 0.0009785602454918626
ولاية 0.02874215853205765
ម@@ 1
₤ 1
∆ 0.5967796654254859
た 0.1409806667838923
代 0.002276348784015438
作@@ 0.0019167625452394595
場 0.0022380883106625326
夫 0.003007005022460109
广@@ 0.0037561456514358512
韓@@ 0.01068263123005928
강@@ 1
Après 0.0017274152483523304
spéci@@ 0.0025579083868342394
thay 0.007209477863059589
zäh@@ 0.002003613759924765
üç@@ 0.015864458562747433
ιστ@@ 0.004667226058442363
χρ@@ 0.007641054117947865
Пер@@ 0.0014650381329985725
Пу@@ 0.003774014902837533
вы@@ 0.0002445214630820387
три@@ 0.0017693040396054465
من 0.0005744618029919872
ℝ 0.41631705466789687
前@@ 0.003315949048043588
動@@ 0.0032787921378897547
徐@@ 0.014706264788268565
校 0.0030413057087244014
赤@@ 0.016777810817815125
문@@ 0.7077389929354247
bién 1
développ@@ 0.0024646205835932764
khai 0.013764007963282242
oloj@@ 0.01631139199078
È 1
ġ 0.6973845671787576
οπ@@ 0.006876811656772969
τικ@@ 0.01180565768798174
сов 0.0017785054113616018
ци 0.004098958624036122
الر@@ 0.005352445243797662
حي@@ 0.0049261898398635234
رب 0.008810289347190923
न@@ 0.002548898651863478
ི@@ 1
ẵ@@ 0.0256196971339039
ọng 0.013921928344503474
Ἱ@@ 1
く 0.24328375341679814
君 0.0253553373284465
經 0.004287489421626821
안@@ 1
에@@ 1
영 1
원@@ 0.8585544945333228
Αγ@@ 0.011874200804788758
τός 0.024820753056112588
Ту@@ 0.004036228986637982
Че@@ 0.0023540735907051466
шка 0.007833405782480358
Қ@@ 0.3071949405192912
Գ@@ 1
պ@@ 1
الدين 0.042228006697731926
ရ@@ 0.9974939960491271
ạm 0.005377195549582493
∂ 0.7651064510663097
≃ 1
と 0.15026227897056452
ゲ@@ 1
事@@ 0.0025287865096973875
空 0.004942119514176041
線 0.0022280340447133696
마@@ 1
Maji 0.07495308777769928
eint 0.0026166545426809036
kadar 0.0055487234517895044
liste 0.003412648660324943
mehr@@ 0.0020975899576549002
suiv@@ 0.001100748608848592
 1
önem@@ 0.03408413399543703
ικό 0.0016010242779445332
μεν@@ 0.00972516076090138
φυ@@ 0.023634231404072045
ата@@ 0.0014267248650099238
лова 0.007685896146761822
па 0.0017016256120368548
стиче@@ 0.0027564172884656773
զ@@ 1
بة 0.008029481775470975
ী@@ 1
ต@@ 0.0013420134900115415
カ 0.24878097933487653
保@@ 0.0020125056241534155
嘉@@ 0.007847578541303548
拳 0.07028484831695284
胡@@ 0.009689251869596365
지 0.8195138142795934
Güney 0.022754769062176463
denen 0.002094001398251311
follow@@ 0.001080874585128043
military 0.0012982789287467932
péri@@ 0.00582631168336629
started 0.0010557406996930334
stän@@ 0.003166401201335506
ſ@@ 0.1786831794698438
αρκ@@ 0.018871785872350704
σφ@@ 0.018553288371651384
τες 0.005257101991078976
Ло@@ 0.0029037968968911223
де 0.0006179333619735248
ї 0.2571072633308445
الإ@@ 0.003285537669756559
در@@ 0.0053176306894366565
سل@@ 0.007522923183153905
صر 0.014886753100877906
مع@@ 0.0032934091543514294
ো@@ 0.7597171492203287
ా@@ 0.6397280386593478
ყ@@ 1
ជ@@ 1
ន@@ 1
Ḫ@@ 0.21098551469990748
Ọ@@ 0.9673537647160508
万@@ 0.005607287462875369
三 0.00482825924789431
上 0.0006731525650968867
华@@ 0.006723220289123627
宗 0.006821123328554415
帝@@ 0.008054081044752115
限@@ 0.0058863510788460085
雄 0.012562619172585008
äuf@@ 0.0020440146324116146
êu 0.004881015147049837
Ό@@ 0.008955125471828463
Καρ@@ 0.014963932503026562
άμ@@ 0.017078764867315688
ήσ@@ 0.016804655080785557
αν 0.0028350346097685258
συνα@@ 0.029753609919872654
вая 0.001303959582028729
вый 0.0014525769851700312
гра@@ 0.0007465603672954057
дро@@ 0.0037583554437395058
йский 0.0028818755647025693
кра@@ 0.0009311406681325781
рав@@ 0.001993408597971301
тан@@ 0.0015188531751254145
це 0.0019963535347932017
шо@@ 0.0030146238284638606
շ@@ 1
ך@@ 1
ि@@ 0.011236818804225506
ன@@ 0.7531494760502172
ล@@ 0.0013009955688606516
♠ 1
タ 0.2526596622321687
人民@@ 0.003832233155673203
仁 0.020069986842012704
歌@@ 0.0038720735860159816
羅@@ 0.0041405871539405645
香 0.030810378598811253
龙@@ 0.009855978766853823
그@@ 1
사 0.5082352879795763
연@@ 1
의@@ 1
해@@ 1
différ@@ 0.0016123842415300476
zwei 0.0006905657931551969
Đông 0.006512413167155191
̞ 1
Ε 0.021621508624811173
лё@@ 0.0013553747235751678
нин 0.006990675239678389
ర@@ 0.7533840739461954
ჯ@@ 1
ម 1
ḍ 0.6966319779803803
ἡ 0.9055363043025262
∨ 0.695322519375154
フ 0.32320802123860376
流@@ 0.003266601439481298
英 0.010646929074721371
진 1
희 1
anı 0.005369193845291311
espè@@ 0.00456300204136208
huko 0.060086778073024164
okea 0.15322065437778495
theo 0.002361116199416071
Õ@@ 0.6056468451005899
Γι@@ 0.010319396688778949
Πολ@@ 0.009395847690758748
σπ@@ 0.010459817737471554
όπ@@ 0.009202111556349596
ед@@ 0.0027538839552471925
ات 0.0016306687204688283
الل@@ 0.009253598091551836
ث@@ 0.002284074444964402
كة 0.006238879432934873
ى@@ 0.23657467379819158
ک 0.005601696120555805
ến 0.0036530877773434077
か 0.14444096859047856
何@@ 0.013194277345253266
口 0.0032547450669475155
史 0.005805859280727599
史@@ 0.005481192955104762
号 0.0033825938616563337
宗@@ 0.006041003082716261
知@@ 0.005101046997260511
華 0.008031110181343308
隊 0.0022753087382312485
mehr 0.0010486468422004486
placed 0.0009041663830477142
ço@@ 0.003543224304107679
ıs 0.04526249206929431
ızı 0.016009583548528297
Ț 0.7045934863001562
Παλ@@ 0.02413636533178464
ίλ@@ 0.00793801259007551
γι@@ 0.007966294463342011
θέ@@ 0.006733688786865263
φιλ@@ 0.014506836000676121
Вели@@ 0.003196531407075752
Гра@@ 0.0050347754068323525
Фе@@ 0.0036225250216067933
кая 0.0037439325014264314
лин 0.005013977627293025
ствен@@ 0.000714710297724235
ա 0.9812613090457337
وي@@ 0.0019614992271903245
ين@@ 0.0027062380032737534
ை 0.7841567029942019
ศ@@ 0.0031570706440300056
■ 0.6419629541845867
オ 0.304215806005754
ブ 0.3631012184301961
乐@@ 0.006844214170237772
定@@ 0.0039045252583307295
智@@ 0.012623812680609334
村@@ 0.009011271114326034
東 0.004011867276925974
森@@ 0.009978836646553458
港@@ 0.006822747805519541
老@@ 0.006117350845404925
藤 0.04690578187034228
로@@ 1
우 1
자@@ 0.8310797738292981
arriv@@ 0.002580130434501906
iliz 0.11704690810154357
important 0.0010954971727776947
ouvern@@ 0.018880532086248725
ĉ@@ 1
ľ 0.5930182085443957
Παρ@@ 0.007808166110795133
ογ@@ 0.00655482473518788
ген@@ 0.0023213693422108887
зна@@ 0.000744409273152057
اش@@ 0.007633875196666824
عبد@@ 0.04497830558469882
هر 0.01106511105236158
وال@@ 0.0011806523284157333
पुर 0.012024894312520573
တ@@ 0.9018974777230191
ἕ@@ 1
⊆ 0.811605125004446
ォ@@ 1
キ 0.3229519714254903
手 0.002681837303876923
曹@@ 0.019296751552039706
由@@ 0.003596115075934228
천@@ 1
Châu 0.010618383963773525
various 0.001096080590980751
vient 0.0023880234612091936
Ì@@ 0.9586305936056545
ũng 0.01501051312953038
ű 0.6990014745041231
ʋ@@ 1
Ди@@ 0.002203155883631758
России 0.0013682755341298304
ги 0.0010065434303365168
дра@@ 0.002259594341341582
сия 0.004351921424425314
цер@@ 0.001830949957123662
կ 1
ِ 0.011401927087516282
ਿ@@ 0.7988588280047121
ḗ 1
ọc 0.005608525788632849
ウ 0.3583893623093368
ザ@@ 1
字 0.003440750693675407
宇@@ 0.01506571771938411
富@@ 0.00806447849719762
後@@ 0.002048451251584922
石 0.005487958363256635
草@@ 0.0115353953979168
路 0.0014966321987063254
는 0.8299098778564854
은 1
현 1
Amerik@@ 0.021515385995899815
armée 0.0028587877959669007
ecek 0.015918599549781604
often 0.0009099144047662321
wohl 0.0017347077333448124
œuv@@ 0.00454815643488387
ʎ 1
ησ@@ 0.03739177062131364
σχ@@ 0.012803836217316332
φύ@@ 0.02966725227993878
ύλ@@ 0.015867775039827683
ϛ 1
до 0.00037365505530366884
ек@@ 0.0013774450589185397
ё 0.0015376861486608607
ست@@ 0.0027500664713680026
দ 0.9179235721918261
ਾ@@ 0.5552961434328845
ช@@ 0.0020196807218555548
วั@@ 0.006436920686088869
့ 1
ღ@@ 1
ạc 0.007181714725198478
▄ 1
出@@ 0.0009213415304816869
夜@@ 0.020858147002860008
廣@@ 0.003939697680873592
爱@@ 0.01130973273713698
球@@ 0.0026474568142420816
雪@@ 0.017664476572682834
鬼@@ 0.057938718271413454
13. 0.0033680211850834296
16. 0.003084162308042651
18. 0.002682179735610272
dont 0.0007023165400610454
ellement 0.0014147065044391703
kila 0.08906763245723483
organisation 0.0024293749527641707
tü@@ 0.014603517051627317
États 0.0016478734075882544
œ 0.529259359894185
ɕ 0.9397792737929579
ιρ@@ 0.014182053037627007
πα@@ 0.012162789014954361
Ча@@ 0.004119811988861482
бра@@ 0.0011187192613661048
ден@@ 0.0008163545122429084
ских 0.0005225535247160684
ُ 0.022872603600554427
চ@@ 1
ী 0.8597980590020678
ன 0.43924466057714334
ಕ@@ 0.8347249685815944
ẹ 0.02447551122782714
Ἡ@@ 1
や@@ 0.9233583993852853
交@@ 0.0018968769563501855
体@@ 0.0060582264730912215
信@@ 0.0035045282214739484
克@@ 0.0012977017481599308
口@@ 0.008112068690723995
思@@ 0.007725458246847333
育@@ 0.008041609883675752
陽 0.014115902955650692
马@@ 0.002453696729169368
예@@ 1
장 0.9689402667738395
� 1
deki 0.005522162305400259
durant 0.0027743418965648584
ishia 0.3597725361081699
ität 0.0030613894231049468
lors@@ 0.003016990669104119
quelques 0.0021892946329463763
đi@@ 0.010164741607420789
ĩ 0.010013898240832514
ιδ@@ 0.011420869494171444
ιμ@@ 0.011193530362854458
περ@@ 0.0065028692712862475
ριστ@@ 0.012505923702956043
ύρ@@ 0.019502810530121078
мар@@ 0.0014450512683918386
сте@@ 0.0008671856070286959
ции 0.0002921040396936784
տ 1
او@@ 0.0061455830084358115
مي 0.011547467700180494
⅔ 0.4600890302333109
こ 0.21680665938743615
に 0.1429233362621497
ギ@@ 1
久@@ 0.031214730303042452
二 0.007608531414446953
元 0.0023324250083020938
園@@ 0.03279833779387243
心 0.004531927524601219
谷 0.011786288092665848
부 1
현@@ 1
！ 0.017881904563319718
dès 0.0030676055983627627
married 0.0009823274405936378
̶ 1
κας 0.016723643022739498
σύ@@ 0.008850857656460634
Мария 0.008495111454998455
Ново@@ 0.004706273110675453
Сою@@ 0.0042794640597977685
осу@@ 0.0022393490080129413
сы 0.00173564993669267
чка 0.006186985848701331
ابن 0.01828762941875166
مَ@@ 0.05091380634252288
प 0.000696204587444912
ल@@ 0.0027609918163356444
മ@@ 0.7236365534974576
จ@@ 0.001573881216532403
ấn 0.0054457455313440045
は 0.16881811147166415
ば@@ 1
ヤ@@ 1
井 0.023189461700507476
如@@ 0.0027500228509309593
常@@ 0.0035296924244357583
所 0.001599699381702475
新 0.0017599969814581587
春 0.015765316594873718
章 0.006009892634791279
馬 0.0025369488716340148
黒@@ 1
국 0.8784301994555752
니 1
재@@ 1
Công 0.005739925734103773
etzt 0.0011796576756145062
join@@ 0.003286039595293959
kte 0.002367305635557072
mang 0.007304454102600809
ɽ 1
Ψ@@ 0.05370813833697018
έχ@@ 0.005478794962148502
κτ@@ 0.008510460252346733
λη 0.036814155570773915
πί@@ 0.01651803934499616
πε@@ 0.010521094441360797
зер@@ 0.0019604803090390944
мир@@ 0.00416854762281428
эн@@ 0.002617153245533376
є 0.7203450309775314
الغ@@ 0.005838553200159067
ني@@ 0.004786848655785008
ền 0.0051984480231560765
∪ 0.7618874203072622
多@@ 0.0011981665235030934
津@@ 0.015923544425581474
龙 0.012866811979555033
라 0.9238550956732816
Kwa 0.04198331453411778
ligne 0.0017430730950598662
received 0.0006289610857305412
toujours 0.003000810230753781
zao 0.1896824723014099
ısı 0.004725181248795734
ʷ 0.741466410497889
Καλ@@ 0.016298206377444908
έα 0.011703790378861214
ικά 0.0015745581320955352
ραν@@ 0.013028725708212946
τας 0.0129317838613394
ды 0.0007258753673404513
обо@@ 0.001188026523661487
рен@@ 0.0011894401543722272
рис 0.006776275717944755
стра@@ 0.0006222541291079286
ще@@ 0.0004739689204091988
ј 0.6297091544228449
ַ 1
اب 0.0057330381396307655
ات@@ 0.0032381341502717422
بو@@ 0.0064059619507145045
ربي 0.020100199686280473
ضلع 0.015950001831228144
لَ@@ 0.06548266601302566
نا 0.006389507904940486
ེ 0.9874984467085521
ゆ@@ 1
也 0.000768010387249469
台 0.0016708299040636913
后 0.001008245387013136
君@@ 0.014460495103894841
尾@@ 0.015441727079101675
景@@ 0.008665146245132545
武 0.013928045792786349
男@@ 0.003573400670148114
間@@ 0.0397214148481012
화 1
 1
depuis 0.0010136349545854873
dernier 0.0021700910516916517
gibt 0.0013130045341552968
maye 0.35287681462617587
soit 0.0016375878564214112
uncu 0.04096473757559047
Ħ@@ 0.35171857562849695
Κωνσταντ@@ 0.036093951397793325
Кон@@ 0.0022438264950857914
Х 0.012436487992744254
ائ@@ 0.0025805607761205888
ަ@@ 0.7502235195436319
रा@@ 0.0024002447361502715
व@@ 0.0023974612055101593
த 0.5720120607196552
ூ@@ 1
พระ@@ 0.003293757972586539
[...]
