， 21332614
的 13335019
。 12382365
年 5126048
、 4786949
在 4096324
是 3322887
（ 3213067
） 3208600
和 2239278
一@@ 2220623
. 2190708
月 2155419
人 2078459
了 1925953
大@@ 1847223
有 1828158
為 1746284
於 1681660
为 1475939
日 1419589
中 1399956
》 1222109
《 1222093
· 1214147
中@@ 1168835
上 1124628
- 1107943
不@@ 1062360
他 1032762
被 1017955
到 994387
名 967706
西@@ 940390
： 936914
「 929291
」 929151
斯 895063
與 890729
主@@ 887019
于 876231
子 869314
由 863631
會 861791
公@@ 851481
也 847985
“ 840666
” 838685
部 828558
而 825667
地 817491
以 796724
後 787374
位 776662
出 758518
出@@ 754175
之@@ 752537
及 747122
1 744860
斯@@ 742683
等 740230
三@@ 723107
行 714960
生 709390
人@@ 704147
道 699816
地@@ 691784
至 690883
用 683077
者 673072
下 667519
國 658447
分@@ 656979
后 644193
最@@ 640389
十@@ 635381
家 629518
州 625189
海@@ 623758
南@@ 623580
2 622553
成 614471
任 610173
次 607534
新@@ 604390
特@@ 602268
國@@ 595760
北@@ 592588
" 585596
大 584603
市 584028
度 583953
民@@ 578261
省 576600
与 575108
高@@ 574989
会 574096
； 570130
有@@ 569922
作 567029
小@@ 566166
3 565339
法 564406
站 561325
自@@ 558003
其 557000
德@@ 556653
定 553894
性 553888
多@@ 550189
全@@ 549950
区 548418
文@@ 547030
長 539520
生@@ 537832
來 537406
期 535736
) 533521
克@@ 528496
但 528202
( 528140
国 527501
国@@ 526330
以@@ 522608
都 520180
時 517997
入 516125
学@@ 515046
建@@ 505150
发@@ 504724
加@@ 504080
學@@ 502609
5 499776
, 493702
拉@@ 492935
4 492064
阿@@ 489274
法@@ 488898
多 486571
日@@ 485717
力 485150
一个 476629
個 475793
尔 475633
相@@ 475130
區 473984
前 472705
英@@ 472083
路 469458
天@@ 469283
上@@ 468388
安@@ 463540
克 459325
士 456466
时 456085
二@@ 452965
利@@ 452163
特 452117
物 450641
米 449314
本@@ 448978
个 448313
這@@ 447003
年@@ 440715
事 439965
並@@ 439542
量 438706
巴@@ 437040
基@@ 435041
成@@ 433934
科@@ 430106
對 428881
德 426007
四@@ 425022
第@@ 424498
6 421716
教@@ 418623
原@@ 418120
所 417481
作@@ 417174
院 416728
式 413584
改@@ 411194
比@@ 411155
首@@ 411035
合@@ 409990
發@@ 408707
平@@ 408670
面 407519
山 404817
利 402895
里 401988
军 400277
山@@ 399297
共@@ 398917
或 398228
能 396633
8 396152
7 394346
这@@ 393532
理 391282
之 391269
美@@ 389952
台 389422
尔@@ 385267
10 380429
向 380428
南 380212
新 379948
保@@ 379542
重@@ 379526
方 375544
型 375179
金@@ 374850
外 374473
不 374354
得 373707
尼@@ 372554
并 370441
同@@ 368652
化 367351
此@@ 364955
本 363231
长 363227
員 363102
交@@ 361504
賽 359171
起 358932
9 358119
名@@ 357972
場 357508
行@@ 356791
家@@ 356070
電@@ 355328
员 355205
东@@ 353334
爾@@ 352694
水@@ 352407
公司 352277
代 351521
間 349423
一 348573
線 347473
可以 346299
合 344206
政@@ 343654
後@@ 343117
接@@ 341271
政府 341153
间 338605
王@@ 337510
12 335123
下@@ 334989
工@@ 334217
对 333126
制 332418
西 332226
总@@ 331419
過 330015
来 329210
色 328759
电@@ 328199
分 327342
球 327207
動 325566
任@@ 325341
中国 323156
方@@ 323060
女@@ 321985
其@@ 321170
太@@ 320857
隊 320809
拉 320494
日本 319845
使用 318488
第 318372
立 318249
部@@ 317018
人口 315522
時@@ 314355
兩@@ 309649
通@@ 308948
时@@ 308812
軍@@ 308687
影@@ 308598
民 306373
事@@ 305333
布@@ 304530
种 303981
理@@ 302643
文 297702
县 297484
列@@ 297227
香港 296786
東@@ 296066
将 295450
学 295236
外@@ 294123
洲 293842
就 292329
; 292152
物@@ 291675
目 291424
經@@ 291350
队 290932
11 290813
格@@ 290321
元 289941
曾 289841
科 289582
市@@ 288032
此 287662
然 287054
業 286976
五@@ 286583
包括 286563
體 286440
指@@ 286342
以及 286017
卡@@ 285118
稱 284766
明 283070
她 282824
北 281289
直@@ 280879
車 280362
其中 280286
表@@ 279524
马@@ 278877
一個 277711
明@@ 277192
高 277157
格 276755
亞@@ 276692
各@@ 276303
演@@ 275918
普@@ 275112
教 274729
因 271457
反@@ 271225
建 270602
自 269815
社@@ 269552
戰@@ 269380
业 269207
當@@ 268416
亚 267686
/ 266543
族 266026
正@@ 265846
局 265676
夫 265568
手 265449
因@@ 263770
軍 263479
馬 263295
两@@ 262346
球@@ 262135
所@@ 262036
加 261473
伊@@ 260894
: 260833
里@@ 260175
校 259086
同 258990
可@@ 258820
而@@ 258319
使 257986
部分 257540
罗@@ 257486
主要 257345
世 255343
選@@ 254905
古@@ 254246
动 253989
設@@ 253721
布 253694
场 252898
运@@ 251522
用@@ 250687
3@@ 248572
可 248150
林@@ 247729
片 247689
提@@ 247213
縣 246622
曲 246466
路@@ 245062
聯@@ 243778
約 243715
意@@ 243374
系 243152
如@@ 242578
代@@ 242409
學 242089
机@@ 241220
動@@ 241175
联@@ 240269
城 239191
级 238692
主 238414
前@@ 238217
体 237993
当@@ 237550
器 237063
林 236580
天 236367
域 235489
且 234877
座 234363
它 234304
些 234302
內 234148
運@@ 234031
开@@ 233923
該 233888
爾 233370
機@@ 233165
果 233148
李@@ 233040
武@@ 231987
要 231469
4@@ 231387
经@@ 231341
又 230955
將 230483
设@@ 229402
開@@ 228355
世@@ 228337
清@@ 228290
音@@ 228047
王 227728
總@@ 225940
流@@ 225788
战@@ 225512
该 224829
段 224670
河@@ 224373
内 224197
口 223842
制@@ 223433
城@@ 223048
赛 222092
车 222040
军@@ 221876
期@@ 221690
河 220873
海 220560
治@@ 219427
动@@ 219246
波@@ 218301
元@@ 218066
委@@ 217475
近 216932
集@@ 216863
线 215984
收@@ 215827
5@@ 215773
份 215701
立@@ 215568
号 215532
演 214210
M@@ 214188
回@@ 213627
現@@ 213556
推@@ 213399
其他 213059
S@@ 212557
广@@ 212454
属 212179
屬 212112
朝 211974
置 211918
進@@ 210704
會@@ 210692
亦 210589
亞 210580
江@@ 210468
星 210466
世界 209669
達 209618
受 209465
福@@ 208883
根@@ 208768
解@@ 208754
號 208681
现 206950
T@@ 206559
平方公里 206456
取@@ 206207
化@@ 206091
季 206071
6@@ 205210
已 205198
空@@ 205192
美國 204240
字 204145
臺 203658
称 203162
因此 203060
村 202911
内@@ 202398
商@@ 202374
通 202228
水 201299
每@@ 201164
參@@ 201070
位于 200581
去 200483
哈@@ 199908
無@@ 199127
關 198177
最 198061
從 198033
由@@ 197911
管 197881
常 197873
宣@@ 197824
引@@ 196647
結@@ 196571
造 196020
華@@ 195993
小 195457
神@@ 195217
比 195099
信@@ 194698
人民@@ 194435
將@@ 194328
種 194002
维@@ 193489
程 193139
希@@ 193103
7@@ 192520
歌@@ 192498
只@@ 192165
意 192110
台@@ 191810
% 191421
活@@ 191247
即 191220
20 190731
身 190429
安 190354
第一@@ 190341
大学 189900
投@@ 189416
組@@ 189271
共 189184
尼 188755
中心 188569
常@@ 188548
白@@ 188459
命 188448
地区 188103
件 188054
情@@ 187550
內@@ 187354
六@@ 187127
治 186880
則 186856
已@@ 186522
更 186329
洛@@ 185430
並 185173
博@@ 184841
印@@ 184790
超@@ 184415
說 184176
派 184119
案 183765
定@@ 183428
均 183029
能@@ 182953
威@@ 182820
製 182688
产@@ 182667
男@@ 181914
A@@ 181893
經 181847
P@@ 181466
从 181334
2@@ 181307
音 181302
專@@ 181247
自己 181161
形@@ 180913
流 180888
镇 180343
府 180023
羅@@ 179652
进@@ 179635
東 179283
H@@ 178882
品 178019
機 178012
集 177944
C@@ 177175
青@@ 176981
长@@ 176917
著 176891
机 176735
数@@ 176680
現 176602
D@@ 176554
兵 176502
9@@ 176392
奥@@ 176196
蘭 176155
八@@ 175993
言 175783
廣@@ 175518
吉@@ 175258
美国 175190
道@@ 175177
石@@ 174921
语 174851
得@@ 174592
周@@ 174440
代表 174138
服@@ 173882
非@@ 173829
起@@ 173748
入@@ 173673
金 173471
B@@ 172551
成立 172520
研究 172519
义 172359
过 172298
G@@ 171954
可能 171911
政治 171718
京 171606
語 170969
会@@ 170826
發 170817
版 170780
官 170773
亚@@ 170526
官@@ 170415
增@@ 170315
工作 170207
率 170169
接 170166
结@@ 170100
工 170050
后@@ 169645
打@@ 169297
对@@ 169140
之一 168935
女 168904
更@@ 168889
航@@ 168823
數@@ 168374
數 167865
室 167774
平 167437
实@@ 167227
E@@ 167008
身@@ 166857
維@@ 166821
车@@ 166788
表 166760
開始 166654
令 166420
& 165842
市镇 165769
光@@ 165648
級 165539
L@@ 165523
別 165153
少 164794
省@@ 164569
原 164498
约 163953
門 163543
戰 163296
堂 163295
8@@ 163103
九@@ 162708
該@@ 162386
源 161869
点 161217
关@@ 160646
表示 160566
類 160256
單@@ 160089
展 160013
手@@ 159905
放@@ 159619
樂@@ 159277
O@@ 158933
现@@ 158745
查 158106
和@@ 157792
資@@ 157650
先@@ 157641
情 157401
千@@ 157250
瓦@@ 157180
為@@ 156823
居@@ 156736
子@@ 156533
空 156315
員@@ 156300
三 156282
不同 156026
點 155979
據 155771
星@@ 155532
百@@ 155417
无@@ 155029
如 154924
月@@ 154798
務 154698
止 154297
数 154278
修@@ 154137
警@@ 153778
處 153773
雷@@ 153771
今 153662
重 153366
30 153332
全 153185
助 152776
15 152616
實@@ 152428
島 152358
基 152140
視 151963
经 151565
目@@ 151467
伯@@ 151465
盟 151440
例 151271
席 151262
未@@ 151056
士@@ 150472
兰 150441
苏@@ 150318
N@@ 149594
支@@ 149191
心 149012
傳@@ 148951
帶 148808
I@@ 148650
沙@@ 148378
料 148297
火@@ 148083
至@@ 147343
— 147219
为@@ 146968
来@@ 146960
京@@ 146849
曾@@ 146384
團 146380
字@@ 146151
角 146012
说 145936
游@@ 145767
產@@ 145721
計@@ 145300
指 145294
列 145050
土@@ 144972
角@@ 144845
法国 144827
_ 144637
据 144403
區@@ 144316
議 144220
好 144212
党 144058
帝 143745
技@@ 143543
选@@ 143460
塔@@ 143413
界 143307
連@@ 143157
少@@ 143156
致 143136
达 143000
划 142938
初 142886
黑@@ 142862
皇@@ 142800
故@@ 142678
副 142528
知@@ 142402
作品 142329
塞@@ 142302
形 142107
R@@ 142096
年代 142030
区@@ 141859
體@@ 141504
命@@ 141368
像 141360
务 141186
七@@ 141149
持 141115
述 140806
著@@ 140744
则 140666
程@@ 140585
俄@@ 140499
卡 140489
发 140450
埃@@ 140436
开始 140381
告 140370
示 140238
江 140023
公里 139994
氏 139901
这 139792
開 139683
专@@ 139516
在@@ 139200
团 139119
把 138695
羅 138683
光 138622
中國 138492
进行 138153
台灣 138141
东 137911
義@@ 137756
完@@ 137725
书@@ 137593
正式 137322
国家 137096
一些 137070
放 137044
車@@ 136997
司@@ 136337
米@@ 136158
黨 135752
夏@@ 135676
议 135565
州@@ 135418
境 135156
着 134979
正 134875
传@@ 134798
計 134715
该@@ 134586
门 134325
万@@ 134262
及@@ 133983
第二@@ 133906
議@@ 133873
排@@ 133685
参@@ 133630
防@@ 133431
再 133313
勒 133269
知 133044
那@@ 132642
們 132636
提供 132616
落 132558
半@@ 132505
成为 132500
造@@ 132457
史@@ 132113
深@@ 131832
模@@ 131810
整@@ 131514
進行 131285
行政 131123
A 131007
战 130905
非 130653
所有 130622
速 130239
他們 130086
班@@ 130053
才 129886
城市 129539
计 129235
早@@ 129233
地區 128915
未 128878
16 128850
師 128803
18 128583
播 128503
續 128375
附@@ 128372
真@@ 128312
登@@ 128163
象 128113
攻@@ 128095
石 127823
畫 127803
限@@ 127445
领@@ 127378
播@@ 127287
過@@ 127133
創@@ 127131
们 126915
委 126850
考@@ 126741
泰@@ 126730
回 126391
16@@ 126352
成為 126228
再@@ 126222
面积 126117
題 125928
F@@ 125805
舉@@ 125554
轉@@ 125518
史 125119
管@@ 124951
花@@ 124763
很@@ 124720
朝@@ 124712
师 124657
21 124619
文化 124588
奧@@ 124506
國家 124389
我 124263
编@@ 124197
第一 124112
病@@ 124005
便 123930
大學 123805
或@@ 123761
遊@@ 123710
心@@ 123700
往 123575
息 123574
受@@ 123568
蘭@@ 123509
素 123455
处 123397
性@@ 123349
中国@@ 123282
除 123147
2010 123123
堡 123046
15@@ 122995
配@@ 122714
論 122611
風@@ 122604
校@@ 121501
19 121343
初@@ 121278
容 121262
牌 121174
領@@ 121158
愛@@ 121093
14 120845
術 120751
設 120169
感@@ 120071
还 119584
宗@@ 119400
获得 119373
蒙@@ 119358
使@@ 119351
17@@ 119268
停@@ 119112
1@@ 118952
鐵@@ 118725
湖@@ 118642
川 118637
计@@ 118249
樂 118046
达@@ 117869
以下 117779
較 117730
13 117422
生活 117318
失@@ 117297
老@@ 117152
学院 116900
取 116833
类 116805
父@@ 116289
視@@ 116286
瑞@@ 116240
术 116207
位@@ 116124
包@@ 116098
导@@ 116075
因為 116038
夫@@ 115981
formula 115923
信 115828
社 115792
決@@ 115708
園 115678
人物 115550
除@@ 115074
負@@ 115015
劇 115002
何 114931
17 114697
見 114652
還@@ 114604
力@@ 114578
版@@ 114563
先 114558
面積 114526
没有 114376
馬@@ 114314
錄 114191
等@@ 114175
他们 114114
影 113891
望 113825
應 113686
步 113651
易 113574
事件 113573
10@@ 113459
精@@ 113255
死 113207
認為 113093
塔 112915
体@@ 112825
隨@@ 112658
客@@ 112609
標@@ 112554
美 112547
施 112248
消@@ 112176
别 111790
統 111759
萬@@ 111756
岛 111683
持@@ 111524
华@@ 111470
母 111393
D 111195
進 111106
對@@ 111021
想 111009
K@@ 110948
章 110833
電影 110795
頭 110776
25 110760
通过 110693
洋 110526
目前 110438
历史 110212
澳@@ 110199
控@@ 109990
導@@ 109849
永@@ 109820
依@@ 109625
宗 109591
神 109396
展@@ 109335
當時 109139
移@@ 108811
念 108527
组@@ 108214
E 108164
奇 108152
被@@ 108078
死@@ 108068
创@@ 108064
2019 107995
并@@ 107957
但是 107700
变@@ 107439
權 107389
2011 107308
票 106982
森 106836
街@@ 106817
管理 106463
足球 106461
客 106407
2009 106377
称@@ 106268
姆 106218
佛@@ 106196
次@@ 106037
承@@ 105994
擊 105760
弗@@ 105657
直 105632
陳 105356
论 105205
旅@@ 105045
2016 105036
馆 104967
面@@ 104881
店 104838
托@@ 104815
应 104772
港@@ 104716
乐@@ 104675
规@@ 104659
協@@ 104535
中央 104527
0@@ 104411
歐@@ 104207
北部 104064
左@@ 104024
田@@ 103747
认为 103564
加入 103440
關@@ 103267
蘇@@ 103193
同年 103176
木@@ 103171
莫@@ 102984
賽@@ 102908
底 102787
編@@ 102784
街 102556
歷史 102554
灣@@ 102554
龍 102444
書 102389
2018 102330
讓 102177
重要 102169
方面 101928
政 101732
视@@ 101697
館 101647
关 101577
0 101527
拿@@ 101286
必@@ 101228
构 101198
际 101134
2012 101113
役 101092
决@@ 101080
T 100977
郡 100939
亡 100934
系列 100792
律 100713
马 100487
港 100422
值 100419
田 100288
下辖 100153
萨@@ 100021
V@@ 99851
2013 99839
達@@ 99829
時間 99817
书 99808
共和国 99791
迪@@ 99703
變@@ 99625
岸 99587
越@@ 99501
友 99496
觀@@ 99371
需要 99258
節@@ 99253
圣@@ 99229
解 99116
24 99104
支持 99098
2017 99062
中华@@ 98909
輯 98877
委员会 98746
2014 98741
000 98706
教育 98591
延@@ 98407
乡 98281
當 98256
花 98208
建立 98125
生平 98106
2015 98087
群 98074
只 97894
氣@@ 97505
行政@@ 97382
南部 97208
張@@ 97202
艾@@ 97114
樣 97057
書@@ 96933
地方 96892
{ 96855
相 96848
图@@ 96826
嘉@@ 96754
規@@ 96682
獲得 96636
邦 96597
汉@@ 96520
U@@ 96507
獎 96459
古 96401
设 96100
资@@ 96042
兰@@ 95913
莱@@ 95749
許@@ 95617
授 95562
密@@ 95544
升@@ 95523
備 95474
革@@ 95433
铁路 95424
要求 95407
擔@@ 95301
食@@ 95190
zh 95080
紀@@ 95000
完成 94960
C 94880
張 94842
标@@ 94764
批@@ 94654
作为 94636
开 94604
欧@@ 94428
舉 94377
候 94207
转@@ 94178
網@@ 94156
22 94063
近@@ 94039
2008 94021
志 93956
同時 93943
风@@ 93909
黃 93847
仍 93834
0.@@ 93743
辦 93621
看@@ 93579
納@@ 93517
.@@ 93406
行星 93388
} 93363
記@@ 93266
高度 93250
功@@ 93237
由于 93198
报@@ 93159
車站 93150
协@@ 93136
速@@ 93117
黄@@ 93017
2020 93004
曼 92995
恩 92980
单位 92970
帝@@ 92873
过@@ 92821
题 92809
選 92741
景 92587
醫@@ 92586
唐@@ 92583
唱 92488
例如 92443
14@@ 92403
牙 92356
效@@ 92334
即@@ 91988
抗@@ 91948
勒@@ 91944
典 91942
籍 91886
业@@ 91853
纳 91797
23 91362
随@@ 91283
退@@ 91129
] 91095
医@@ 91092
劇@@ 91077
工程 90996
[ 90956
住 90933
寺 90915
成功 90811
梅@@ 90799
庭 90668
方式 90634
華 90422
束 90354
戲 90308
得到 90226
響 90156
受到 90097
陸 90057
甲@@ 90056
署 90034
灣 89916
调@@ 89851
第二 89821
J@@ 89796
很 89771
权 89695
低 89647
鲁@@ 89631
记 89611
留@@ 89596
13@@ 89535
交 89489
阳 89391
植@@ 89378
職@@ 89290
张@@ 89159
上海 89095
四 88938
组 88927
察 88885
發展 88876
分布 88857
产 88805
歲 88794
湖 88774
群@@ 88763
统 88751
冠@@ 88702
一般 88664
突@@ 88649
義 88627
二 88584
统@@ 88584
纳@@ 88492
土 88481
母@@ 88456
構 88423
令@@ 88341
R 88240
参加 88199
公 87994
繼@@ 87886
思@@ 87881
人民 87760
復 87693
索@@ 87651
B 87573
劃 87559
似 87521
打 87450
房 87448
熱@@ 87368
毛@@ 87320
久 87229
聖@@ 86998
導 86953
每 86950
通常 86942
存在 86918
升 86913
報@@ 86856
系统 86845
击 86844
的@@ 86776
居 86773
前往 86653
我@@ 86615
款 86594
富@@ 86502
親 86439
射 86230
藝@@ 86168
给 85803
恩@@ 85769
一種 85598
首 85587
1.@@ 85545
具 85510
號@@ 85469
之后 85456
存 85438
带 85308
層 85276
簡@@ 85181
巴 85066
园 85014
發現 84974
商 84955
系統 84943
2001 84939
問@@ 84859
應@@ 84753
育@@ 84751
眾 84680
议@@ 84603
算 84592
S 84445
蒂@@ 84391
人口密度 84282
28 84260
护 84220
今@@ 84197
架 84190
圖 84177
都@@ 84171
強@@ 84114
報 84076
統@@ 83969
祖@@ 83923
病 83900
做 83838
2007 83776
口@@ 83770
另 83710
團@@ 83618
質 83595
務@@ 83573
求 83482
农@@ 83471
界@@ 83454
平方@@ 83307
查@@ 83242
－ 83233
色@@ 83143
18@@ 83142
争 83120
样 83107
雙@@ 83066
康@@ 83046
條 83039
獨@@ 82978
沿@@ 82923
务@@ 82882
举@@ 82834
P 82830
飛@@ 82823
是@@ 82811
就是 82767
背@@ 82757
然而 82671
同时 82638
50 82623
紀 82607
提出 82486
則@@ 82462
届 82462
射@@ 82255
属于 82186
瓦 82165
菲@@ 82078
越 82068
一名 82022
爭 82004
龍@@ 81966
采@@ 81885
哥 81836
冠 81797
续 81787
备 81673
形成 81614
沒有 81578
连@@ 81518
耶@@ 81421
应@@ 81413
另外 81384
核@@ 81379
准 81323
气@@ 81180
歌 81052
h@@ 80988
兵@@ 80961
选 80956
网@@ 80868
帕@@ 80813
組 80796
國際 80705
項 80698
担任 80624
父 80608
企@@ 80607
陆 80602
節 80591
研究@@ 80506
所以 80463
赛@@ 80388
哥@@ 80376
離 80348
支 80330
最大 80237
照 80230
2006 80214
降@@ 80211
佳 80185
端 80167
12@@ 80071
調@@ 79913
尚@@ 79906
26 79887
世纪 79867
具有 79867
码 79689
波 79626
戏 79508
组织 79405
邊 79395
班 79340
摩@@ 79299
封@@ 79282
大利 79193
党@@ 79088
村@@ 79086
圍 79047
含 78798
W@@ 78720
皮@@ 78720
烏@@ 78693
佈 78552
遭@@ 78373
責@@ 78255
藏 78095
售 78079
胡@@ 78078
逐@@ 78029
守 78027
报 77933
預@@ 77918
變 77904
甚@@ 77839
贝@@ 77779
他@@ 77766
薩@@ 77740
拔@@ 77706
漢@@ 77691
環@@ 77550
罗 77544
策 77521
几@@ 77509
27 77386
乐 77380
卫@@ 77281
業@@ 77197
頓 77168
屆 77095
語@@ 77076
五 76975
萬 76839
始@@ 76740
倫@@ 76683
址 76658
甲 76650
向@@ 76645
当 76541
单@@ 76520
施@@ 76519
敗 76469
职@@ 76450
白 76424
办@@ 76337
条 76208
擊@@ 76016
興@@ 75857
还@@ 75855
2021 75780
試 75736
評@@ 75722
條@@ 75691
產 75610
峰 75585
语@@ 75443
反 75399
係 75158
船 75146
極@@ 75125
环@@ 75103
足 74969
处@@ 74922
2.@@ 74841
gt 74700
31 74681
食 74673
採@@ 74656
龙@@ 74615
卻 74609
= 74587
序 74497
媒@@ 74479
容@@ 74412
杜@@ 74375
许@@ 74350
朱@@ 74306
独@@ 74248
終 74218
早 74192
話 74156
韓@@ 74116
景@@ 74106
筑 74017
給 73878
头 73874
破@@ 73803
弟 73722
2000 73661
實 73657
予 73648
臣 73621
红@@ 73587
樓 73365
概@@ 73310
密 73290
雷 73287
图 73251
质 73201
范@@ 73064
住@@ 72986
察@@ 72954
況 72917
济 72916
M 72839
记@@ 72836
2005 72620
透@@ 72605
執@@ 72325
爆@@ 72304
衛@@ 72149
寫 72147
追@@ 72056
森@@ 71909
轄 71879
约@@ 71704
院@@ 71688
29 71677
朗 71644
丁@@ 71631
层 71256
織 71239
丹@@ 71170
修 71120
纪@@ 71119
进 71109
节@@ 71049
曼@@ 70943
营 70938
劉@@ 70910
40 70786
個@@ 70727
留 70680
鎮 70679
降 70661
魚 70615
托 70478
问@@ 70461
略 70384
尺 70319
联 70273
境@@ 70253
離@@ 70251
雖@@ 70183
观@@ 70177
从@@ 70140
攻 70103
lt 70095
陈@@ 70038
映 70012
刘@@ 69922
稱@@ 69902
銀@@ 69869
沒 69810
y 69762
傳 69693
微@@ 69378
曲@@ 69234
干@@ 69178
派@@ 69089
强@@ 69070
司 69041
仍@@ 69022
六 69012
英 68936
s 68871
易@@ 68856
好@@ 68760
撤@@ 68675
殺 68589
然@@ 68582
載 68556
注@@ 68539
评@@ 68328
央@@ 68247
继@@ 68223
魯@@ 68157
索 68099
沃@@ 68078
幾@@ 68034
低@@ 67983
描@@ 67970
复@@ 67969
乌@@ 67864
晚@@ 67857
导 67767
收 67689
裝@@ 67611
混@@ 67591
剧 67470
隆 67411
威 67391
响 67384
烈 67366
萊@@ 67366
各 67340
双@@ 67318
镇@@ 67253
巨@@ 67191
互@@ 67148
荷@@ 67106
督@@ 67098
牙@@ 66992
类@@ 66972
岁 66908
根 66901
雅@@ 66854
康 66805
伦@@ 66735
春@@ 66512
秘@@ 66495
华 66485
奇@@ 66416
桥 66416
喜@@ 66415
足@@ 66378
坦 66372
改 66356
霍@@ 66270
赫@@ 66145
确@@ 66119
皆 66003
穆@@ 65831
艺@@ 65739
姆@@ 65733
革 65713
离 65709
濟 65665
办 65550
聯 65452
失 65425
' 65375
短@@ 65315
害 65257
坡 65138
节 65109
野@@ 64967
去@@ 64936
圖@@ 64886
納 64880
貝@@ 64836
無 64751
100 64737
见 64724
木 64584
L 64575
O 64564
態 64383
職 64336
落@@ 64320
香@@ 64304
乘@@ 64303
局@@ 64279
清 64233
氣 64207
營 64205
度@@ 64189
魚@@ 63997
紅@@ 63988
故 63967
站@@ 63946
历@@ 63913
登 63807
午 63703
板 63683
督 63651
鄉 63615
坦@@ 63605
酸 63527
飞@@ 63241
装@@ 63180
线@@ 63137
顿 63056
娜 62984
縣@@ 62972
走 62951
批 62924
团@@ 62917
副@@ 62885
视 62843
股@@ 62836
請 62815
效 62808
热@@ 62787
送 62765
兒 62764
快 62723
庄 62703
源@@ 62477
獲 62392
宋@@ 62212
占@@ 62129
服 62117
處@@ 62062
裡 62030
川@@ 61948
个@@ 61918
诺@@ 61808
卢@@ 61787
整 61765
玩@@ 61732
2004 61696
強 61591
裝 61407
模 61378
复 61371
你 61367
判 61359
距@@ 61322
族@@ 61303
项 61232
島@@ 61224
爱@@ 61076
快@@ 61064
唯@@ 60940
廷 60937
私@@ 60898
领 60896
它@@ 60877
詞 60852
人口@@ 60814
善 60660
什@@ 60647
I 60595
品@@ 60593
暴@@ 60563
况 60445
介@@ 60442
門@@ 60441
草@@ 60403
终 60395
佩@@ 60283
60 60259
十 60257
血@@ 60225
電 60093
让 60092
營@@ 59985
標 59936
玉@@ 59923
奖 59900
乎 59871
楼 59858
运 59807
N 59752
草 59651
那 59549
银@@ 59535
a 59514
右 59492
雄 59426
運 59370
职 59331
简@@ 59290
志@@ 59153
吸@@ 59130
乡@@ 59123
| 59053
援 59019
迪 58976
酒@@ 58922
告@@ 58886
育 58820
聚@@ 58799
戶 58756
G 58743
00 58723
伯 58667
宁@@ 58478
假@@ 58457
录 58412
屋 58396
丁 58357
20@@ 58330
i 58208
散 58200
遗@@ 58088
廳 58053
亲 58048
t@@ 58028
獲@@ 57921
3.@@ 57855
铁@@ 57783
律@@ 57673
顯@@ 57555
護 57550
守@@ 57528
变 57506
阳@@ 57502
探@@ 57489
张 57481
巡@@ 57450
松@@ 57334
鎮@@ 57323
福 57195
浙@@ 57150
切 57131
谷 57043
風 57034
毒 56971
舞@@ 56919
伊 56856
条@@ 56709
罪 56549
围 56531
郎 56490
智@@ 56445
云@@ 56444
季@@ 56419
of 56316
n 56278
us 56243
徒 56225
房@@ 56193
言@@ 56162
場@@ 56152
普 56054
唱@@ 56049
算@@ 55986
漫@@ 55770
k 55737
步@@ 55731
頭@@ 55723
感 55655
负@@ 55640
较 55523
彈 55515
往@@ 55454
火 55341
F 55145
盛@@ 55110
尤@@ 55084
涯 55004
剧@@ 54993
切@@ 54987
众 54981
抵@@ 54974
諾@@ 54878
益 54835
勢 54720
离@@ 54585
on 54544
何@@ 54537
丹 54517
認@@ 54417
2003 54381
就@@ 54344
總 54340
藏@@ 54311
但@@ 54299
證@@ 54261
末 54232
某@@ 54132
致@@ 54051
限 54049
這 54009
婚 54002
擁@@ 53994
橋 53946
權@@ 53915
單 53900
跟 53880
類@@ 53729
油 53721
话 53710
朗@@ 53692
師@@ 53691
種@@ 53688
祖 53664
領 53623
逃@@ 53325
費 53312
执@@ 53267
万 53261
带@@ 53252
洪@@ 53152
技 53006
船@@ 52979
老 52978
塞 52941
排 52884
陸@@ 52864
徐@@ 52812
廠 52725
鐵 52689
聲@@ 52651
风 52571
來@@ 52506
击@@ 52356
半 52327
票@@ 52321
右@@ 52317
勝@@ 52191
截@@ 52176
将@@ 52161
隊@@ 52150
预@@ 52143
調 52105
洋@@ 52084
写 52032
諾 52016
授@@ 51959
旗@@ 51952
词 51772
激@@ 51701
責 51670
典@@ 51666
冰@@ 51660
助@@ 51588
沙 51548
毕@@ 51508
寶@@ 51471
兴@@ 51461
X 51444
80 51436
牛@@ 51336
厂 51262
斷 51253
于@@ 51223
照@@ 51219
项@@ 51155
看 51132
壤 51106
親@@ 51102
須 51070
禁@@ 51016
汽@@ 50990
龙 50984
優@@ 50980
态 50923
狀@@ 50908
秀 50882
征 50878
識 50877
供@@ 50869
準 50833
始 50816
2002 50765
证@@ 50749
门@@ 50711
周 50706
範@@ 50620
想@@ 50608
缺@@ 50592
仅 50567
侧 50549
約@@ 50538
标 50497
耳@@ 50459
K 50422
殿 50416
畢@@ 50388
毫@@ 50384
召@@ 50363
到@@ 50330
翰 50328
敦 50269
边 50221
the 50219
考 50200
農@@ 50112
若 50089
屬@@ 50067
韩@@ 50061
匹@@ 49990
油@@ 49976
隆@@ 49920
董@@ 49860
陆@@ 49835
申@@ 49800
俱@@ 49784
獎@@ 49716
湾 49573
判@@ 49566
免 49559
兒@@ 49433
责 49412
号@@ 49355
津 49338
t 49329
走@@ 49220
又@@ 49141
艦 49132
另@@ 49124
o 49108
厅 49064
铁 48975
思 48955
聲 48944
吳@@ 48933
記 48918
保 48893
柏@@ 48888
气 48879
良 48876
… 48763
八 48749
溫@@ 48747
嚴@@ 48720
破 48720
V 48607
拔 48580
声@@ 48519
做@@ 48515
户 48508
术@@ 48504
兼@@ 48485
败 48471
甘@@ 48425
配 48413
築 48362
+ 48298
an 48244
实 48170
努@@ 48080
拥@@ 48063
兄@@ 47927
载 47927
細@@ 47898
济@@ 47892
捕 47858
羽@@ 47856
拍 47816
师@@ 47815
控 47752
確@@ 47752
差@@ 47706
儿@@ 47698
梁@@ 47681
篇 47638
装 47621
翻@@ 47607
終@@ 47590
危@@ 47522
魔@@ 47483
边@@ 47475
野 47428
陽 47366
救@@ 47286
男 47192
试@@ 47176
側 47171
旗 47154
监@@ 47062
健@@ 47032
刊 46978
尾 46952
X@@ 46945
画 46942
引 46860
示@@ 46840
槍 46785
er 46737
种@@ 46715
葡@@ 46693
严@@ 46688
宮 46662
底@@ 46660
d 46604
練 46565
赤@@ 46551
细@@ 46550
y@@ 46482
費@@ 46473
c@@ 46471
待 46436
爵 46425
童 46299
占 46236
库 46199
x 46169
畫@@ 46154
聞 46134
溪 46106
奧 46069
宇@@ 45983
戈@@ 45981
余@@ 45973
爭@@ 45968
舰 45928
片@@ 45881
酒 45833
70 45807
兼 45787
要@@ 45731
强 45710
昌 45674
200 45663
武 45635
极@@ 45548
存@@ 45537
偏@@ 45503
权@@ 45499
護@@ 45481
率@@ 45479
監@@ 45470
显@@ 45455
雄@@ 45439
給@@ 45403
in 45397
e 45359
遺@@ 45318
防 45314
杨@@ 45296
胞 45245
注 45244
固@@ 45232
温@@ 45220
符@@ 45207
1990 45187
歷 45070
茨 45022
黎@@ 44970
七 44967
按@@ 44948
狀 44941
認 44914
讀 44900
辑 44871
游 44770
雲@@ 44726
临@@ 44699
刻 44681
操@@ 44674
若@@ 44654
決 44634
驗 44514
诺 44440
麥@@ 44427
觀 44390
坑 44388
辛@@ 44363
充@@ 44334
鄉@@ 44329
恐@@ 44324
宁 44176
君@@ 44170
封 44151
併 44140
析 44082
4.@@ 43938
從@@ 43928
陽@@ 43924
榜 43833
返@@ 43806
招@@ 43798
资 43610
盃 43558
刺@@ 43487
杀 43476
九 43419
w 43334
吉 43320
松 43320
墨@@ 43306
呼@@ 43208
裔 43176
35 43102
避@@ 43047
黨@@ 43043
具@@ 43035
深 43025
5.@@ 42988
替 42928
檢@@ 42861
飾 42832
資 42824
c 42822
习 42775
什 42731
传 42682
移 42654
举 42629
楊@@ 42626
階@@ 42608
泽@@ 42550
艇 42519
露 42512
际@@ 42484
币 42479
座@@ 42450
仁@@ 42440
洛 42423
象@@ 42382
習 42370
Y@@ 42342
1999 42262
良@@ 42261
皇 42228
! 42156
靠 42149
卷 42119
町 42054
積@@ 42043
結 42030
培@@ 42009
拜@@ 42002
1998 41911
拍@@ 41906
帶@@ 41902
90 41889
春 41876
圈 41821
簽@@ 41776
瑪@@ 41761
富 41746
尾@@ 41729
線@@ 41635
县@@ 41629
桑@@ 41616
訊 41597
库@@ 41592
获 41575
介 41510
阻@@ 41488
赫 41472
競@@ 41389
p@@ 41369
參 41330
測 41296
25@@ 41268
姓 41268
U 41218
質@@ 41172
翼 41149
氧@@ 41143
涉@@ 41118
秀@@ 41117
s@@ 41107
際@@ 41084
測@@ 41019
检@@ 40992
优@@ 40957
500 40947
验 40923
单 40904
戴@@ 40901
抗 40866
免@@ 40855
案@@ 40850
減@@ 40817
争@@ 40748
属@@ 40748
财@@ 40625
許 40609
哲@@ 40593
崇@@ 40592
轉 40581
津@@ 40573
6.@@ 40474
p 40425
〉 40389
送@@ 40372
幕 40370
〈 40348
增 40316
暴 40300
费@@ 40269
麗@@ 40243
彼@@ 40232
財@@ 40206
坐@@ 40187
否 40155
途 40129
績 40087
際 40076
1980 40062
療 40033
雜@@ 40009
佔 39964
历 39961
歷@@ 39953
皮 39948
吴@@ 39942
休@@ 39904
僅 39893
證 39893
扩@@ 39839
末@@ 39781
泛 39730
佛 39703
疑 39701
價 39688
枚 39683
奏 39673
状 39660
默@@ 39576
含@@ 39567
函@@ 39507
征@@ 39439
断 39408
肯@@ 39358
汉 39333
太 39332
e@@ 39325
退 39224
誌 39214
蒂 39199
友@@ 39191
套 39191
勝 39187
啟@@ 39187
夠 39183
準@@ 39175
股 39172
乾@@ 39129
紐@@ 39126
状@@ 39071
1997 39028
念@@ 39004
邮@@ 38960
调 38944
研@@ 38895
承 38874
葉@@ 38837
雪@@ 38835
ing 38717
阿 38702
輪 38697
庫 38689
奥 38641
穿@@ 38574
32 38570
評 38534
儿 38533
染 38512
需@@ 38456
准@@ 38449
旧 38427
差 38390
需 38321
夜 38314
材 38298
价 38295
維 38271
滿 38171
順@@ 38162
拒@@ 38138
H 38096
陶@@ 38096
冬@@ 38037
证 38012
真 37913
僅@@ 37848
棲@@ 37848
妻@@ 37834
疫@@ 37807
论@@ 37779
郭@@ 37770
轨@@ 37743
黎 37742
菌 37736
营@@ 37685
is 37679
斗 37679
乙@@ 37670
45 37664
惠@@ 37649
测@@ 37624
殖@@ 37559
項@@ 37537
转 37497
陵 37478
價@@ 37472
佐@@ 37466
旋 37466
尽@@ 37454
險 37449
头@@ 37448
劳@@ 37446
禮 37434
– 37387
贵@@ 37378
亲@@ 37359
乘 37324
兴 37271
眼@@ 37267
！ 37243
7.@@ 37218
满@@ 37191
傷 37062
艘 37021
消 37012
池 36969
難 36895
短 36888
费 36874
還 36867
遇@@ 36862
症 36854
迫 36813
勞@@ 36789
遠@@ 36768
终@@ 36763
萄@@ 36730
网 36607
試@@ 36585
48 36579
i@@ 36569
护@@ 36567
测 36555
仁 36528
鰭 36527
豐@@ 36520
遠 36489
构@@ 36439
问 36358
The 36346
炮 36345
換 36328
电 36267
邊@@ 36198
犯 36197
論@@ 36176
週@@ 36173
秦@@ 36164
婚@@ 36163
曹@@ 36153
al 36151
便@@ 36125
势 36118
衛 36090
絕 36076
颗 36032
震 36018
1996 35998
奖@@ 35990
晚 35946
m 35926
材@@ 35884
沈@@ 35842
质@@ 35839
泉 35800
鄭@@ 35798
说@@ 35737
卫 35623
點@@ 35570
骨 35564
杰@@ 35559
义@@ 35549
昭@@ 35516
妹 35490
壓 35378
试 35364
興 35278
虽@@ 35266
晋@@ 35233
徑 35228
輛 35180
决 35179
r@@ 35152
繁@@ 35149
30@@ 35145
租@@ 35141
孔@@ 35072
漸 35071
說@@ 35057
侵@@ 35042
签@@ 35016
场@@ 34990
於@@ 34980
泰 34968
靈@@ 34942
l 34912
刑 34905
付 34853
顺@@ 34819
舍 34796
舊 34748
岩 34746
货@@ 34739
宫 34735
問 34731
擴@@ 34727
藍@@ 34725
圣 34672
辦@@ 34647
廉 34623
阶@@ 34604
喬@@ 34575
杯 34569
李 34554
？ 34542
1994 34535
習@@ 34535
凱@@ 34503
御@@ 34480
却 34478
孟@@ 34474
盧@@ 34460
h 34442
救 34434
輕@@ 34419
舰@@ 34363
伦 34339
宣 34305
骨@@ 34253
梅 34242
筑@@ 34224
柯@@ 34205
韦@@ 34187
划@@ 34181
系@@ 34178
n@@ 34171
IN@@ 34160
麻@@ 34160
魏@@ 34134
戲@@ 34086
綱 34082
倫 34080
远@@ 34029
and 34027
網 34002
维 34001
余 33995
距 33973
请 33955
辖 33955
频@@ 33943
極 33937
亿@@ 33916
奉@@ 33901
釋 33880
聖 33866
量@@ 33839
1992 33817
驻 33817
1995 33781
希 33724
滿@@ 33714
突 33709
航 33709
冲@@ 33683
例@@ 33672
br 33662
玛@@ 33623
识 33587
纽@@ 33575
孙@@ 33573
候@@ 33556
黑 33510
融@@ 33492
挑@@ 33478
臨@@ 33471
雨@@ 33466
蔡@@ 33431
轮 33295
攝 33241
竹@@ 33241
傑@@ 33192
複 33188
Z@@ 33155
呈 33151
36 33136
捷@@ 33131
構@@ 33128
8.@@ 33114
途@@ 33111
功 33108
19@@ 33095
拜 33081
24@@ 33075
忠@@ 33055
硬@@ 33047
百 33040
頻@@ 33039
找 33002
允@@ 32977
苏 32974
刑@@ 32966
壓@@ 32921
錦@@ 32896
叶 32862
叶@@ 32845
脈 32825
宝@@ 32796
赵@@ 32791
乔@@ 32781
33 32774
鐘 32742
毛 32728
秋@@ 32724
1993 32707
夜@@ 32678
廟 32665
输@@ 32647
急 32591
補@@ 32535
適@@ 32467
审@@ 32457
伍 32453
找@@ 32445
观 32442
蒙 32424
綫 32384
杂@@ 32366
认 32358
认@@ 32352
38 32350
1991 32347
岩@@ 32343
享@@ 32333
超 32333
弟@@ 32306
歸@@ 32295
孫@@ 32279
審@@ 32277
幼@@ 32259
宅 32257
弱 32245
術@@ 32242
席@@ 32239
m@@ 32237
裂 32191
擇 32158
连 32153
拆@@ 32149
炮@@ 32148
洞 32146
異 32144
淡@@ 32106
叫 32099
促@@ 32098
麦@@ 32093
络 32080
兹 32063
慶@@ 32012
够 31926
昆@@ 31926
求@@ 31814
訓@@ 31803
鼓@@ 31779
37 31778
犯@@ 31774
衝@@ 31758
琴 31698
奈@@ 31686
获@@ 31676
庆 31664
34 31623
提 31617
廢@@ 31568
核 31556
亮 31540
1950 31438
售@@ 31437
連 31418
銷@@ 31396
滑@@ 31394
庆@@ 31363
弹 31363
昂 31361
仙@@ 31347
萨 31311
炸@@ 31301
遇 31256
碼 31227
围@@ 31226
餘@@ 31222
雨 31191
么 31174
殊 31155
才@@ 31153
郑@@ 31097
散@@ 31088
宮@@ 31059
9.@@ 30963
疾@@ 30961
貨@@ 30883
昌@@ 30880
榮@@ 30860
o@@ 30849
柴@@ 30832
零@@ 30812
腦 30811
芬@@ 30807
汗 30796
朋@@ 30756
孩@@ 30738
患@@ 30735
写@@ 30716
别@@ 30702
果@@ 30668
胜@@ 30667
蛋@@ 30662
26@@ 30651
d@@ 30635
亂 30635
亨@@ 30626
裁@@ 30620
1949 30572
扎@@ 30545
牧@@ 30537
级@@ 30529
夏 30490
画@@ 30488
燃@@ 30482
暗@@ 30481
供 30471
归@@ 30459
de 30455
洲@@ 30426
討@@ 30415
衣 30385
搭@@ 30376
隔@@ 30368
练 30357
彈@@ 30334
陣 30328
幣 30323
編 30296
跨@@ 30272
匈@@ 30246
凯@@ 30242
启@@ 30219
冷@@ 30216
换 30214
偶@@ 30209
振@@ 30206
隸@@ 30203
幅 30197
爲 30176
1988 30151
00@@ 30145
紫@@ 30119
须 30114
艦@@ 30079
1970 30068
300 30034
君 30030
闻 30013
輻@@ 29995
01 29963
队@@ 29956
博 29949
辆 29884
据@@ 29839
禮@@ 29806
杀@@ 29784
覺 29770
眾@@ 29729
罪@@ 29720
諸@@ 29720
许 29720
竞@@ 29687
藝 29673
莱 29668
按 29657
雅 29651
旋@@ 29643
沃 29629
急@@ 29625
庄@@ 29616
声 29610
减@@ 29605
毒@@ 29588
器@@ 29581
丽@@ 29546
蓋 29527
斗@@ 29508
75 29442
g 29440
』 29437
異@@ 29431
『 29427
豪@@ 29410
潮 29362
了@@ 29356
軟@@ 29347
菜 29339
1989 29315
柱 29290
谢@@ 29247
困@@ 29242
逝@@ 29233
宜@@ 29228
压 29176
圓@@ 29169
掌@@ 29166
磁@@ 29161
估@@ 29150
與@@ 29149
径 29110
较@@ 29110
講@@ 29108
似@@ 29104
无 29102
远 29101
瑟@@ 29086
墓 29077
es 29072
众@@ 29071
莉 29062
旧@@ 29010
確 28977
攝@@ 28961
销 28937
難@@ 28923
1945 28903
溪@@ 28877
韋@@ 28871
难 28862
譯 28798
辽@@ 28780
齐@@ 28767
盖 28761
奉 28734
別@@ 28670
邦@@ 28657
青 28643
血 28602
樹@@ 28594
包 28554
炎 28518
型@@ 28490
徵@@ 28470
编 28444
ic@@ 28434
尚 28430
积@@ 28419
井 28408
a@@ 28382
奪@@ 28364
詹@@ 28358
f@@ 28350
临 28347
投 28320
桃@@ 28299
丽 28296
彭@@ 28291
荣@@ 28289
迷@@ 28285
累@@ 28251
莉@@ 28239
幫@@ 28216
ans 28215
障 28193
竹 28175
疆 28137
鬥 28118
诸@@ 28097
休 28092
綠@@ 28092
架@@ 28080
1960 28062
尊@@ 28049
晉@@ 28036
28@@ 28034
藥@@ 28014
熙 28010
善@@ 28002
養 27987
岛@@ 27982
祭@@ 27976
眼 27950
虎 27945
碑 27942
肉 27910
锦@@ 27902
2022 27900
薩 27882
鬥@@ 27874
澤@@ 27840
葬 27829
Ch@@ 27790
千 27789
压@@ 27759
绝@@ 27749
迎 27745
雪 27740
块 27735
購 27698
倍 27697
39 27656
b 27642
尋@@ 27626
活 27612
赴 27605
訴 27585
謝@@ 27585
橫@@ 27558
J 27557
隔 27532
忠 27499
策@@ 27487
诗@@ 27484
億 27470
麗 27470
隧@@ 27469
on@@ 27462
趣 27454
額 27446
覆@@ 27445
紅 27428
牛 27393
畔 27357
宋 27332
絲 27327
秒 27298
总 27253
埃 27236
55 27202
輸@@ 27181
遍 27173
氏@@ 27171
漢 27164
葛@@ 27156
丰@@ 27143
遂 27124
兩 27108
k@@ 27101
詩@@ 27082
訂 27074
陕@@ 27043
侍@@ 27040
邀@@ 27023
沉@@ 26988
芬 26951
软@@ 26942
归 26933
1985 26908
迁@@ 26842
梁 26791
舊@@ 26788
乱 26783
哈 26765
染@@ 26746
宪@@ 26719
r 26699
慈@@ 26693
27@@ 26690
課@@ 26690
  26675
恢@@ 26675
庙 26646
孩 26626
曆 26626
炸 26610
假 26599
盤 26577
环 26569
～ 26549
箭 26545
童@@ 26541
騎@@ 26529
W 26491
1984 26466
孝@@ 26455
干 26446
65 26440
卿 26410
寧@@ 26401
茲 26357
胜 26327
灰@@ 26318
伤 26309
亦@@ 26305
味 26283
SE@@ 26269
返 26264
愛 26213
擔 26207
庫@@ 26199
42 26198
渡@@ 26189
1986 26179
液 26178
佳@@ 26170
in@@ 26143
像@@ 26138
傷@@ 26116
賓 26078
憲@@ 26077
乃@@ 26065
慕@@ 26008
頂 26006
迅@@ 25993
um 25985
驻@@ 25914
额 25913
瑞 25893
谷@@ 25879
u 25873
挥 25872
妮 25856
搜@@ 25854
献 25851
槍@@ 25840
裁 25806
葉 25782
擎 25777
耶 25757
帮@@ 25743
震@@ 25736
堅@@ 25716
坊 25709
绝 25700
否@@ 25690
1987 25689
壞 25689
珠@@ 25689
渐 25670
x@@ 25666
莎@@ 25666
拿 25656
侵 25650
满 25644
警 25614
64 25613
录@@ 25609
俗 25539
灵@@ 25513
潮@@ 25512
掉 25505
间@@ 25483
幕@@ 25464
粉@@ 25457
础 25442
懷@@ 25441
仰 25418
潘@@ 25413
械 25397
遷 25382
築@@ 25379
殺@@ 25375
异@@ 25374
药@@ 25346
均@@ 25328
择 25327
价@@ 25316
借@@ 25297
46 25266
盟@@ 25255
麼 25193
w@@ 25186
犹@@ 25174
輕 25169
钟 25167
隻 25161
靈 25147
杭@@ 25144
塘 25139
险 25129
陣@@ 25123
浦@@ 25083
伐@@ 25048
en 25041
29@@ 25028
衡 24997
an@@ 24987
v@@ 24979
牠 24960
遊 24954
ch@@ 24938
礼 24921
舞 24917
序@@ 24870
娛@@ 24865
1982 24853
乏 24833
毁 24795
玻@@ 24794
随 24784
温 24768
駐 24759
環 24751
替@@ 24742
遣 24728
軌@@ 24705
儀@@ 24682
柳@@ 24677
讲@@ 24644
补@@ 24622
47 24613
云 24596
遭 24596
餘 24593
屋@@ 24583
貴@@ 24553
适@@ 24530
盛 24528
訪 24526
藤@@ 24517
g@@ 24514
极 24513
44 24502
鲜 24484
叛@@ 24474
协 24472
晨 24425
l@@ 24398
壁 24390
句 24388
鱼 24388
评 24383
徽 24365
迴 24360
彩 24326
轄@@ 24255
恒@@ 24248
1983 24241
購@@ 24194
積 24189
凌@@ 24167
珠 24112
渡 24087
与@@ 24080
鮮 24069
墓@@ 24039
鏡 24037
莫 24024
榮 24006
井@@ 23998
茨@@ 23981
侯@@ 23943
香 23921
b@@ 23907
难@@ 23882
or@@ 23871
迫@@ 23862
综@@ 23857
译 23848
唐 23831
闻@@ 23822
ia 23804
溫 23790
en@@ 23771
緒 23768
ar 23751
验@@ 23700
訊@@ 23675
宜 23653
秋 23653
51 23618
怀@@ 23611
趙 23558
礎 23549
宇 23539
錄@@ 23532
IS@@ 23506
侯 23467
歸 23455
1979 23452
讀@@ 23436
彩@@ 23421
楚@@ 23405
綜@@ 23403
52 23402
徵 23402
41 23370
融 23334
鲁 23334
衣@@ 23298
　 23296
勇@@ 23291
范 23289
涅@@ 23283
跑 23270
圆@@ 23238
塊 23227
停 23192
桂@@ 23191
緣 23178
厄@@ 23140
坚@@ 23140
43 23137
el 23132
刺 23125
雕@@ 23116
露@@ 23116
倒@@ 23111
翰@@ 23099
爱 23075
ac@@ 23068
400 23021
樹 23018
穿 23010
傑 23001
齊@@ 22991
略@@ 22959
56 22951
砲 22950
读 22928
点@@ 22916
雲 22916
杉@@ 22897
靠@@ 22895
陰@@ 22853
邨 22826
援@@ 22820
岡@@ 22808
喀@@ 22791
幸@@ 22787
禁 22785
跳@@ 22781
伸 22780
頒@@ 22774
amp 22771
1978 22750
轻@@ 22749
濟@@ 22731
印 22717
爵@@ 22698
藥 22680
揮 22679
ed 22677
涅 22674
恆@@ 22657
琳 22652
聞@@ 22649
珍@@ 22632
祥 22628
顶 22600
素@@ 22589
棄 22586
慶 22585
刻@@ 22582
al@@ 22562
餐@@ 22554
刀 22528
骑@@ 22524
徽@@ 22512
剂 22510
仲@@ 22508
扎 22507
ar@@ 22494
给@@ 22474
措@@ 22463
寬 22446
圍@@ 22445
袁@@ 22406
倒 22399
迎@@ 22387
In@@ 22385
it@@ 22379
微 22370
輸 22370
疗 22363
85 22362
el@@ 22356
绿@@ 22344
读@@ 22333
貿@@ 22292
旅 22274
獻 22266
185@@ 22261
肉@@ 22257
黃@@ 22244
礼@@ 22233
紧@@ 22209
热 22207
儘 22203
兹@@ 22158
顯 22138
培 22136
充 22135
孔 22124
酸@@ 22122
譽 22120
am@@ 22096
讷 22085
释 22077
迷 22060
颱 22057
符 22048
肯 22029
貢@@ 22018
树 22006
撒@@ 21997
53 21981
虎@@ 21963
co@@ 21955
潜@@ 21955
袖 21947
桥@@ 21941
宽 21933
丘@@ 21908
瑟 21901
1981 21889
買 21884
敦@@ 21878
or 21877
顧@@ 21860
贸@@ 21851
旁 21821
妃 21820
° 21812
见@@ 21809
54 21806
亭 21795
62 21792
創 21753
靖 21749
錢 21746
er@@ 21741
輪@@ 21734
训@@ 21731
吕@@ 21727
寫@@ 21707
养 21686
浮@@ 21656
坏 21652
57 21644
輔@@ 21640
谋@@ 21593
閣 21588
to 21573
as@@ 21558
拓@@ 21555
賓@@ 21541
％ 21517
Q@@ 21500
58 21490
飛 21485
浪@@ 21468
am 21467
树@@ 21467
寄@@ 21465
晶@@ 21465
鱼@@ 21455
菲 21434
结 21431
章@@ 21397
毀 21366
捐@@ 21363
旺@@ 21359
尖@@ 21357
舒@@ 21357
旦 21352
损@@ 21343
暫@@ 21339
确 21310
糖 21286
尉 21277
甸 21241
衰@@ 21229
宿@@ 21213
賣 21193
廣 21180
ation 21171
仅@@ 21168
宙 21164
症@@ 21164
药 21154
废@@ 21132
監 21126
久@@ 21112
齒 21111
绕 21101
吃 21099
罕@@ 21081
陷 21075
魯 21058
é 21048
th@@ 21034
卓@@ 21031
妻 21031
刊@@ 21023
也@@ 21013
崔@@ 20996
76 20991
麥 20982
销@@ 20975
陷@@ 20971
絡 20967
端@@ 20962
溶@@ 20897
害@@ 20888
坎@@ 20882
億@@ 20878
72 20841
摩 20840
泉@@ 20836
诊 20829
仪@@ 20827
责@@ 20822
贏@@ 20813
弹@@ 20806
脱@@ 20775
插@@ 20770
隶@@ 20753
f 20751
识@@ 20749
88 20704
魏 20697
伐 20684
逊 20671
夺@@ 20662
86 20657
折@@ 20642
依 20639
咸@@ 20638
诉 20620
戈 20617
誤 20610
TV 20601
默 20593
絕@@ 20573
伴 20570
冷 20562
聽 20561
z 20558
49 20532
換@@ 20531
姐 20525
玉 20519
枪 20510
壇 20500
／ 20442
願 20436
值@@ 20431
埔@@ 20421
植 20410
惡@@ 20400
1946 20386
贡@@ 20373
Windows 20371
損@@ 20364
襲 20343
鄰 20330
鹿@@ 20318
鲜@@ 20304
扮@@ 20302
玄@@ 20296
段@@ 20270
梯 20262
输 20262
戏@@ 20261
59 20257
杰 20248
An@@ 20247
68 20239
遜 20238
園@@ 20218
滨@@ 20216
换@@ 20182
樓@@ 20180
Y 20169
慢 20165
芝@@ 20156
寧 20144
61 20104
访@@ 20084
棒@@ 20080
泳 20080
齐 20080
賞 20067
逢 20058
1958 20051
味@@ 20036
厚 20031
蓝@@ 20019
1948 20010
借 20010
帕 20006
佔@@ 20000
仔 19963
宝 19958
墙 19957
讨@@ 19945
券 19944
箱 19943
齡 19921
鼠 19896
66 19883
歡@@ 19876
勤 19874
屏@@ 19873
宾 19860
週 19859
os@@ 19857
迹 19857
左 19840
阵@@ 19822
腹@@ 19807
浪 19793
歡 19781
頂@@ 19780
卑@@ 19774
et 19763
浦 19760
獄 19738
幹@@ 19725
阮@@ 19721
捕@@ 19694
飾@@ 19689
驱@@ 19689
挪@@ 19684
敵@@ 19682
绩 19677
惠 19671
敬@@ 19664
幻@@ 19649
揭@@ 19629
泊 19627
燕@@ 19622
緯 19606
ot@@ 19589
鳳@@ 19588
请@@ 19556
77 19547
螺@@ 19506
63 19468
敏@@ 19468
1920 19465
棒 19457
逐 19443
at 19438
78 19413
舍@@ 19413
67 19411
堂@@ 19371
俗@@ 19367
横@@ 19367
凡 19362
笑 19362
翌@@ 19362
裡@@ 19351
1940 19331
楚 19329
鳥 19318
敏 19315
答 19315
寨 19309
铜@@ 19288
05 19266
鬼 19240
蛇 19230
圳 19228
购@@ 19197
饰 19185
at@@ 19181
慮 19181
1976 19178
莎 19155
95 19129
蟲 19123
嘉 19086
1975 19066
板@@ 19049
迈@@ 19031
宫@@ 19027
譯@@ 19026
顏@@ 19026
弘@@ 19009
赞@@ 19000
嶼 18996
儀 18945
填@@ 18941
呈@@ 18940
滅 18927
稳@@ 18906
潛@@ 18904
鄰@@ 18897
稿 18884
緊@@ 18872
奪 18870
1972 18867
丘 18865
蘇 18862
汇@@ 18857
87 18837
71 18836
* 18833
st@@ 18814
盾 18789
寺@@ 18774
臨 18771
ur@@ 18764
屯@@ 18760
剩@@ 18737
銷 18733
1930 18730
两 18729
息@@ 18678
陵@@ 18652
顾@@ 18643
遷@@ 18635
83 18633
訪@@ 18632
灌@@ 18620
負 18618
契@@ 18615
智 18603
1956 18599
茶 18590
81 18584
赢@@ 18582
600 18568
顶@@ 18564
床 18543
陳@@ 18531
恢 18516
残@@ 18516
乳@@ 18498
撞@@ 18490
89 18489
疑@@ 18455
固 18429
99 18392
焦@@ 18387
紹 18382
阴@@ 18349
呼 18345
1937 18341
82 18341
坐 18338
府@@ 18337
宿 18331
貌 18331
牌@@ 18327
艺 18321
词@@ 18294
冊 18290
詞@@ 18288
钢@@ 18280
穩@@ 18278
锡@@ 18276
ad@@ 18260
频 18254
红 18250
廊 18246
埔 18242
ol@@ 18239
註 18234
69 18226
橋@@ 18226
员@@ 18192
le 18191
73 18188
顆 18177
弃 18142
芳 18136
异 18132
1947 18128
廈 18103
1000 18076
衍@@ 18073
污@@ 18060
延 18045
豪 18032
1941 18023
番 17993
800 17990
齊 17984
淘@@ 17973
AS@@ 17969
誉 17969
祀 17967
户@@ 17963
液@@ 17962
歐 17948
虛@@ 17948
抽@@ 17943
琴@@ 17929
澳 17925
勢@@ 17916
違@@ 17910
熱 17896
湯@@ 17895
操 17880
广 17868
駐@@ 17863
狄@@ 17860
虫 17854
茲@@ 17849
益@@ 17848
續@@ 17845
逮@@ 17843
捷 17840
殘@@ 17839
伏@@ 17835
麦 17833
74 17832
仔@@ 17823
伍@@ 17812
棋 17810
凤@@ 17808
冰 17790
陨@@ 17789
粒@@ 17786
屠@@ 17784
摄 17781
茶@@ 17758
1952 17756
戴 17737
談@@ 17734
肺@@ 17729
廷@@ 17717
ph@@ 17677
1968 17673
喜 17670
苦 17664
熊@@ 17662
Al@@ 17651
84 17641
1973 17637
脫@@ 17631
u@@ 17625
缩@@ 17608
卒 17599
寸 17596
摄@@ 17586
奴 17581
敌@@ 17574
壘 17564
俄 17563
烈@@ 17562
OS 17547
脂 17546
歧@@ 17535
id 17495
猶@@ 17488
呂@@ 17480
望@@ 17478
琉@@ 17461
敵 17445
苗 17435
丙@@ 17431
矿@@ 17425
j@@ 17421
輝 17417
遵@@ 17401
孤@@ 17395
桑 17395
鋼@@ 17370
奴@@ 17369
旁@@ 17364
07 17363
轮@@ 17356
藩 17332
寻@@ 17291
膜 17291
184@@ 17288
觉 17288
阁 17278
籃@@ 17271
孙 17270
付@@ 17264
1977 17261
阵 17253
臘 17223
92 17200
苑 17199
養@@ 17150
勃@@ 17148
AR@@ 17143
廉@@ 17127
li@@ 17124
腳 17118
腊 17108
盘 17105
答@@ 17098
ul@@ 17092
驅@@ 17088
宏@@ 17073
獸 17065
岭 17049
冒@@ 17041
AT@@ 17040
精 17027
om@@ 17020
幻 17018
辖@@ 17006
辰 17006
79 16990
隱@@ 16982
挥@@ 16978
觸 16976
ant 16968
02 16963
1955 16962
佐 16950
98 16946
ag@@ 16943
丈@@ 16942
1964 16940
粉 16927
亮@@ 16922
熟 16916
1974 16890
塑@@ 16888
1966 16875
盖@@ 16866
1938 16841
叙@@ 16828
嶺 16823
見@@ 16823
據@@ 16805
显 16801
夢 16794
藉@@ 16757
08 16750
駕@@ 16747
怒 16744
粗@@ 16738
z@@ 16721
旬 16700
伴@@ 16679
栽@@ 16666
請@@ 16659
150 16656
御 16642
习@@ 16641
浩@@ 16611
04 16603
疫 16602
袭@@ 16599
ay 16594
un@@ 16590
估 16556
03 16549
伤@@ 16547
側@@ 16544
劑 16539
ter 16538
06 16532
备@@ 16519
循@@ 16511
弗 16505
姓@@ 16473
邀 16470
劃@@ 16468
詩 16456
1939 16454
轻 16451
尊 16439
针@@ 16437
迁 16435
邓@@ 16422
册 16419
閉 16419
1954 16416
as 16413
听@@ 16413
銅@@ 16413
缘 16410
1944 16406
郵@@ 16386
鳥@@ 16377
坪 16353
酶 16349
St@@ 16348
協 16342
崎@@ 16331
淮@@ 16306
姻 16301
颁@@ 16300
1971 16297
绍 16287
垂@@ 16278
钱@@ 16268
枝 16259
响@@ 16241
袭 16240
享 16226
較@@ 16224
钱 16169
洗@@ 16165
鋒 16157
谈@@ 16150
96 16142
揚 16131
巡 16129
厘@@ 16114
09 16095
雙 16079
斤 16068
1965 16067
蓋@@ 16060
泽 16059
莊@@ 16054
沒@@ 16033
共和@@ 16018
瓜@@ 16010
剛@@ 16009
le@@ 16005
茂@@ 16000
访 15998
邻 15977
針@@ 15976
庭@@ 15971
奈 15961
劍 15960
蕭@@ 15944
魂 15938
脉 15932
瓜 15928
1969 15926
扶@@ 15916
某 15911
間@@ 15906
闭 15880
碼@@ 15878
柔@@ 15875
級@@ 15872
虑 15864
障@@ 15858
訓 15837
跡 15837
1959 15830
俊@@ 15827
狱 15827
仙 15819
昂@@ 15815
诗 15806
壽@@ 15768
荒@@ 15759
敬 15748
II 15734
宾@@ 15690
胞@@ 15674
─ 15671
驗@@ 15656
恶@@ 15655
健 15647
订 15639
汪@@ 15635
1942 15629
91 15621
93 15613
啟 15606
籌@@ 15599
鮮@@ 15598
練@@ 15596
ap@@ 15573
鄧@@ 15573
译@@ 15572
1957 15544
串 15543
1953 15521
偉@@ 15509
暗 15500
剛 15495
题@@ 15492
錫@@ 15491
1936 15486
卜@@ 15480
97 15464
蒸@@ 15462
痛 15461
媒 15459
牵@@ 15459
糖@@ 15459
跨 15456
养@@ 15451
勇 15451
扬 15439
敌 15439
謂 15428
1967 15424
苗@@ 15415
翠@@ 15408
翁 15405
购 15404
域@@ 15403
双 15399
叫@@ 15388
et@@ 15387
买 15368
歇@@ 15367
辞@@ 15356
襲@@ 15348
託 15333
逝 15330
縮 15302
背 15297
湘@@ 15288
样@@ 15265
室@@ 15256
eg@@ 15255
魔 15229
譜 15219
頁 15213
賴@@ 15212
繪@@ 15205
絲@@ 15198
孫 15177
怪 15174
ine 15172
醇 15165
羽 15164
积 15139
1962 15093
凝@@ 15077
1943 15069
奏@@ 15052
駛 15052
薛@@ 15048
灵 15038
偵@@ 15032
94 15031
吨 15009
擬 15001
欧 15000
跟@@ 14999
违@@ 14996
藤 14995
患 14993
灭 14992
姚@@ 14986
疆@@ 14985
lo@@ 14983
順 14972
1961 14963
1951 14962
狗 14954
汝@@ 14945
餐 14923
岳@@ 14922
课@@ 14922
待@@ 14913
熟@@ 14910
1963 14909
煤@@ 14902
tr@@ 14893
謀 14882
寮 14874
姐@@ 14869
oc@@ 14863
吐@@ 14857
殖 14827
CD 14817
疏@@ 14807
1935 14802
談 14801
貴 14794
脑 14790
one 14779
暂@@ 14779
涉 14772
式@@ 14760
讚 14744
層@@ 14742
re@@ 14718
伏 14714
im@@ 14699
飲@@ 14696
180@@ 14684
园@@ 14680
慧 14674
BS 14671
粹 14669
郎@@ 14659
贊@@ 14652
胎 14645
靜@@ 14643
徒@@ 14630
池@@ 14606
匯@@ 14599
丝 14591
險@@ 14585
’ 14583
夢@@ 14574
飓@@ 14563
绪 14560
飞 14559
辅@@ 14541
釋@@ 14526
隋@@ 14515
态@@ 14503
硫@@ 14493
羊@@ 14483
轴 14463
乃 14457
彰@@ 14430
滅@@ 14427
置@@ 14413
欢@@ 14394
担@@ 14392
頓@@ 14386
断@@ 14377
av@@ 14372
紙 14372
璃 14370
SA@@ 14366
虚@@ 14363
憑 14360
筹@@ 14356
NBA 14354
・ 14352
軌 14347
錯@@ 14343
Mar@@ 14340
婦 14333
ve 14329
耳 14315
裏 14310
忙 14295
敘@@ 14293
戶@@ 14290
滑 14272
髮 14269
欲 14229
撞 14228
萧@@ 14214
洞@@ 14211
棋@@ 14209
恰@@ 14207
Ar@@ 14205
互 14203
獻@@ 14194
隐@@ 14194
蓮@@ 14193
ch 14191
傾@@ 14169
训 14169
沿 14160
篮@@ 14160
179@@ 14157
肖@@ 14153
傅@@ 14145
Bo@@ 14143
× 14135
怕 14135
銜 14115
厚@@ 14109
賀@@ 14104
抑@@ 14100
萊 14094
拘@@ 14073
误 14058
il@@ 14046
番@@ 14044
裕 14044
戀@@ 14018
申 14009
纵@@ 14004
粵@@ 13999
凡@@ 13997
割 13996
曰 13992
吧 13991
沖 13975
豆 13975
700 13961
Co@@ 13945
榜@@ 13942
圓 13940
咖@@ 13937
撰@@ 13917
缺 13917
讯 13916
ro@@ 13915
没 13907
错@@ 13907
耀@@ 13905
~ 13898
衔 13893
探 13886
霸@@ 13885
般@@ 13880
僧@@ 13868
碳 13858
叔@@ 13812
繼 13810
握 13805
態@@ 13780
針 13778
牆 13774
翻 13774
it 13771
载@@ 13766
斑@@ 13765
荷 13742
永 13739
甫 13730
ri@@ 13729
揮@@ 13722
荣 13718
is@@ 13715
泛@@ 13712
獨 13693
尺@@ 13688
醒 13679
莊 13675
纸 13669
追 13649
胸@@ 13645
释@@ 13644
静@@ 13633
套@@ 13623
吾@@ 13619
拼@@ 13616
娘 13610
娃 13600
肥@@ 13584
押 13568
漁@@ 13562
農 13562
幽@@ 13560
弦 13560
幸 13557
税 13550
勵 13548
檔 13547
聽@@ 13543
添@@ 13541
Z 13530
夷 13524
郊 13522
妇@@ 13509
珍 13508
殿@@ 13503
泥@@ 13501
泥 13496
燈 13491
召 13490
楼@@ 13489
蒋@@ 13489
鍵 13488
Re@@ 13487
紋 13487
峡 13474
儒@@ 13465
续@@ 13452
宽@@ 13447
碟 13438
1933 13430
仿 13429
掘 13428
120 13413
巧 13413
em@@ 13403
氯@@ 13400
汰 13400
苦@@ 13392
堪@@ 13391
汇 13390
1928 13386
願@@ 13375
刚 13371
怪@@ 13360
筆@@ 13345
颜@@ 13334
辭@@ 13333
催@@ 13322
熊 13319
戒 13312
轟@@ 13287
顧 13284
敢 13277
細 13276
獵@@ 13268
腳@@ 13265
寶 13252
son 13235
辛 13216
镜 13210
织@@ 13195
予@@ 13171
硕@@ 13170
盡 13165
悲@@ 13163
驚@@ 13157
艾 13139
份@@ 13136
蛋 13135
規 13118
坛 13115
dice 13099
摧@@ 13099
玛 13091
羊 13091
1931 13082
50@@ 13073
賢 13073
俘 13066
忽@@ 13056
贾@@ 13047
1932 13045
龄 13008
1927 12994
祝 12976
愿 12968
愿@@ 12966
郡@@ 12957
寿@@ 12949
鼻@@ 12944
嫌 12937
潭 12937
純@@ 12931
v 12927
Tr@@ 12926
逆@@ 12926
id@@ 12925
補 12921
繞 12916
搬@@ 12909
绍@@ 12907
蛛 12897
惡 12896
蹈 12896
賴 12891
儲@@ 12888
研 12886
壁@@ 12885
澤 12885
规 12882
Com@@ 12871
麻 12855
掌 12847
蔣@@ 12836
邁@@ 12834
偷@@ 12821
顺 12818
Th@@ 12814
汀 12801
麟 12800
CO@@ 12795
振 12784
柱@@ 12767
ory 12764
硬 12752
缅@@ 12747
矛@@ 12734
讲 12728
料@@ 12721
脅 12721
晉 12720
殼 12703
謝 12699
针 12689
跑@@ 12684
既 12681
腐@@ 12646
完 12628
10.@@ 12622
隶 12618
晶 12614
盐@@ 12614
盐 12612
拟 12611
繪 12611
层@@ 12607
赖@@ 12600
1934 12599
折 12577
键 12560
40@@ 12559
档 12553
貝 12553
杂 12545
窗@@ 12518
贝 12512
俊 12501
狂@@ 12495
縮@@ 12494
誕@@ 12482
困 12472
芒 12468
蝶 12465
ad 12442
祝@@ 12439
祠 12435
ab@@ 12430
駛@@ 12429
礦@@ 12425
储@@ 12424
es@@ 12423
筆 12419
纪 12418
濱 12400
Con@@ 12397
亡@@ 12391
賈@@ 12382
us@@ 12372
23@@ 12356
势@@ 12352
丰 12344
祥@@ 12341
茵 12338
慢@@ 12328
冯@@ 12322
謀@@ 12317
邑 12303
ate 12301
範 12299
豆@@ 12292
欣@@ 12291
撰 12290
ti@@ 12278
Sh@@ 12262
拳@@ 12258
os 12254
AP@@ 12253
廖@@ 12251
枪@@ 12245
谢 12245
峰@@ 12242
翔 12236
堆 12233
沟 12231
蹟 12229
Q 12227
丸 12227
夕 12226
继 12199
阪 12197
ok 12182
仪 12170
兄 12170
礙 12169
锡 12169
妹@@ 12167
1929 12160
沉 12157
‘ 12155
雀 12149
Ph@@ 12146
烟@@ 12139
悉 12133
锋 12132
鍾 12127
憶 12124
la 12123
贈 12120
袋 12118
痛@@ 12098
灭@@ 12097
店@@ 12094
Mo@@ 12088
80@@ 12081
奎@@ 12079
雌@@ 12061
缓@@ 12060
衡@@ 12060
姜@@ 12055
ー 12039
旨 12038
Br@@ 12026
祿 12022
麵 12007
秘 12002
慧@@ 12001
蹤 11996
零 11996
od@@ 11991
覺@@ 11981
祭 11967
螺 11950
TC 11932
聘 11932
宛 11918
杜 11905
刷 11900
斑 11885
赞 11879
ie 11878
1918 11869
噴@@ 11867
鲍@@ 11866
雍@@ 11863
欢 11858
戒@@ 11848
1912 11846
惟@@ 11846
剑 11837
緬@@ 11831
彌@@ 11820
贵 11810
汤@@ 11808
寬@@ 11785
洪 11784
滩 11781
ic 11779
CA@@ 11778
屈@@ 11769
for 11760
劍@@ 11755
逃 11748
避 11738
拖@@ 11733
擾 11723
耐@@ 11723
暨 11706
岸@@ 11699
邵@@ 11695
の 11680
矿 11658
扬@@ 11655
寒@@ 11650
剪@@ 11645
坑@@ 11645
響@@ 11639
濃@@ 11627
課 11623
猛@@ 11607
敗@@ 11604
腔 11601
聚 11589
巫@@ 11578
腓@@ 11571
漫 11564
肌@@ 11552
Pr@@ 11550
... 11541
鬼@@ 11536
碧@@ 11535
ec@@ 11519
崎 11516
朴@@ 11515
鹿 11515
激 11509
栖@@ 11505
姊@@ 11502
句@@ 11499
驾@@ 11499
披@@ 11496
盆@@ 11473
災 11471
辭 11464
討 11453
戀 11448
峽 11446
勤@@ 11443
刚@@ 11441
补 11439
脫 11434
壮@@ 11409
晋 11407
蟹 11403
→ 11397
枢@@ 11392
豐 11385
监 11384
珊@@ 11378
薄@@ 11376
郊@@ 11375
泊@@ 11370
粒 11368
BC 11362
翼@@ 11359
擅@@ 11356
斷@@ 11352
菌@@ 11352
滨 11344
瑪 11340
op@@ 11337
覽 11337
朱 11327
忍@@ 11326
斜@@ 11323
兆@@ 11315
銀 11307
创 11302
灾 11294
额@@ 11289
黄 11286
姬 11279
旺 11271
You@@ 11262
搖@@ 11260
AC@@ 11259
燕 11250
胺 11246
1919 11245
獅@@ 11241
鸟 11240
氨@@ 11232
呎 11225
既@@ 11223
谓 11220
猪@@ 11218
陀 11218
怖 11217
1924 11199
覽@@ 11196
械@@ 11195
ak@@ 11189
谱 11187
佩 11169
um@@ 11160
密度 11151
ir@@ 11143
卷@@ 11141
掩@@ 11123
碩@@ 11122
磯 11117
ig@@ 11114
ers 11113
鐘@@ 11113
钟@@ 11107
覆 11106
礁 11101
th 11099
ent 11098
搬 11097
冬 11094
賣@@ 11077
悬@@ 11075
撒 11072
触 11069
必 11059
頻 11042
AM@@ 11033
笼@@ 11026
赖 11025
丑 11024
献@@ 11023
繫 11010
襄@@ 11002
坝 11001
災@@ 10998
凱 10996
ver 10983
觉@@ 10968
芳@@ 10943
霸 10936
昇 10918
菩@@ 10918
晓@@ 10913
龐@@ 10904
鹽 10888
Ma@@ 10875
倾@@ 10869
盡@@ 10865
罰 10865
1925 10864
涵@@ 10858
陪@@ 10847
旨@@ 10839
叔 10828
玩 10821
秦 10817
檔@@ 10815
隸 10814
胁 10809
稀@@ 10805
備@@ 10801
ensis 10799
1917 10793
喪@@ 10791
錯 10786
1926 10777
镜@@ 10777
癌 10770
罩 10756
Google 10755
1914 10747
嘗@@ 10746
鎖 10746
倉 10742
誤@@ 10741
DVD 10738
耀 10738
尖 10733
km 10731
屯 10730
碳@@ 10725
12.@@ 10720
毗@@ 10700
着@@ 10694
跳 10691
詳@@ 10688
胡 10669
轨 10650
優 10647
冀@@ 10640
鏡@@ 10638
偶 10636
稅 10625
燒 10614
矩@@ 10611
勋@@ 10608
貓 10601
柏 10570
耗@@ 10570
励 10559
斐@@ 10559
噶@@ 10556
租 10556
ST@@ 10555
抓@@ 10548
茅@@ 10534
匹 10531
菊@@ 10529
訴@@ 10518
鄂@@ 10500
绘@@ 10497
览 10494
喇@@ 10492
农 10490
樣@@ 10488
褐@@ 10486
蒲@@ 10482
菜@@ 10477
亨 10472
附 10470
1922 10468
Sp@@ 10461
載@@ 10458
牧 10456
崖 10432
叉 10428
訂@@ 10421
ES@@ 10415
Ex@@ 10411
毅 10409
裂@@ 10395
者@@ 10391
俠 10376
ed@@ 10363
縱@@ 10363
卖 10360
隨 10353
織@@ 10349
壽 10341
拳 10341
po@@ 10332
審 10327
狼 10327
馮@@ 10312
豹 10298
伸@@ 10292
轰@@ 10280
肃@@ 10263
250 10253
瘤 10252
柄 10240
塘@@ 10237
Lin@@ 10236
话@@ 10232
谋 10224
烷 10223
逼@@ 10220
岡 10213
犬 10199
邱@@ 10196
紹@@ 10193
燒@@ 10192
漸@@ 10188
漠 10187
窗 10180
巧@@ 10170
RA@@ 10163
懸@@ 10155
穴 10152
谈 10149
碰@@ 10148
帅 10142
娱@@ 10131
巷 10117
胶@@ 10117
肃 10116
屏 10113
稍@@ 10105
藉 10101
IC@@ 10100
迦@@ 10100
貼 10092
鷹 10092
叛 10089
ut@@ 10075
笔@@ 10068
館@@ 10066
堡@@ 10063
磨@@ 10061
幼 10056
AN@@ 10047
奠@@ 10042
阻 10042
塑 10031
夺 10029
吻 10027
码@@ 10023
岳 10019
泡 10019
饰@@ 10009
妙 9999
彻@@ 9998
柬@@ 9991
吏@@ 9990
爆 9987
梵@@ 9976
識@@ 9968
芭@@ 9963
1921 9962
喷@@ 9958
仿@@ 9957
银 9956
De@@ 9946
脊@@ 9944
$ 9937
di@@ 9932
珊 9928
幫 9927
险@@ 9920
耕@@ 9916
鼓 9915
棘 9905
映@@ 9893
tion 9891
剑@@ 9877
挖@@ 9873
买@@ 9869
貨 9863
悠@@ 9839
砂@@ 9817
吞@@ 9811
韓 9811
101 9808
圭 9799
梦@@ 9793
盜 9772
杨 9764
濱@@ 9759
雇@@ 9759
遣@@ 9753
稻@@ 9745
揚@@ 9736
亥@@ 9726
11.@@ 9722
ン 9722
纹 9721
賢@@ 9720
斜 9715
緊 9712
3000 9700
奔@@ 9699
韦 9695
刀@@ 9687
邻@@ 9680
鯉 9680
1913 9678
1911 9677
囊 9676
蕨 9668
偉 9666
络@@ 9666
婆 9663
祈@@ 9662
1923 9659
臘@@ 9645
聘@@ 9640
淑@@ 9639
婦@@ 9637
洗 9635
篇@@ 9626
ard 9605
崩@@ 9598
Play@@ 9594
彰 9594
尹@@ 9588
℃ 9576
碎@@ 9574
橡@@ 9565
踏@@ 9565
臂 9559
綱@@ 9558
貫 9546
勞 9542
腦@@ 9541
損 9537
碎 9536
藍 9530
age 9527
疏 9523
og@@ 9514
妇 9514
靜 9508
澎@@ 9503
泳@@ 9493
嚴 9492
恨 9492
蔡 9491
α 9488
贡 9487
卢 9486
劫 9481
娶 9479
are 9474
鸟@@ 9472
削@@ 9469
税@@ 9465
講 9462
販@@ 9462
倉@@ 9458
sh@@ 9455
署@@ 9450
件@@ 9448
耗 9448
棕@@ 9444
雕 9441
彥 9439
劳 9436
桃 9433
沟@@ 9432
鮑@@ 9424
窄 9419
1900 9414
韋 9414
琪 9405
秩@@ 9401
厥 9395
惜 9394
35@@ 9388
勃 9386
ube 9382
薦 9375
罕 9361
適 9357
扭@@ 9353
努 9352
燈@@ 9351
担 9346
损 9346
ob@@ 9341
氢@@ 9335
氧 9331
筒 9329
埋@@ 9323
mm 9322
槽 9318
11@@ 9317
藻 9316
ana 9315
診@@ 9315
午@@ 9313
UN@@ 9311
買@@ 9306
笔 9301
賞@@ 9289
ter@@ 9286
誠@@ 9285
哪@@ 9281
Or@@ 9276
遍@@ 9275
卵@@ 9274
赤 9270
辨@@ 9269
宏 9265
纯@@ 9264
de@@ 9252
Par@@ 9251
冕 9248
DNA 9245
廠@@ 9242
乳 9237
橄@@ 9236
亩 9234
腿 9234
賜 9234
铸@@ 9227
man 9222
錦 9220
没@@ 9214
灾@@ 9209
腊@@ 9209
額@@ 9208
Car@@ 9202
減 9199
曉@@ 9193
怎@@ 9189
厝 9187
ice 9185
妮@@ 9177
US@@ 9163
串@@ 9162
亿 9162
歉 9152
饮@@ 9143
雜 9140
坡@@ 9136
哲 9130
禄 9127
伟@@ 9125
丝@@ 9120
# 9110
階 9107
湿@@ 9094
戊@@ 9091
軸@@ 9091
婆@@ 9087
仇@@ 9079
细 9077
帥 9063
藩@@ 9063
链@@ 9063
od 9062
薇 9060
NA 9056
顿@@ 9051
蓮 9048
暖 9047
溯 9041
閱@@ 9040
冲 9036
灰 9024
軟 9018
宰@@ 9011
900 9009
溝@@ 9007
杆 9005
侧@@ 9004
练@@ 8998
阪@@ 8997
竣@@ 8993
览@@ 8990
诚 8990
粮@@ 8977
听 8975
‧ 8959
En@@ 8958
1909 8954
纽 8953
蓬@@ 8953
ER@@ 8952
媽@@ 8950
陈 8950
110 8939
190@@ 8939
苯@@ 8939
欣 8938
独 8923
尿@@ 8921
巢 8914
題@@ 8911
舟 8910
仇 8902
嗣 8901
Le@@ 8889
拱@@ 8889
囚@@ 8884
梯@@ 8879
Ad@@ 8877
忆 8875
緩@@ 8875
吹@@ 8861
町@@ 8858
si@@ 8850
缩 8846
愈 8845
Cat@@ 8841
丧@@ 8840
株 8838
玲 8837
屍@@ 8836
勳@@ 8835
蔣 8830
腾@@ 8824
脂@@ 8818
錢@@ 8812
虹 8806
奶@@ 8802
寓 8801
ata 8794
葬@@ 8776
觸@@ 8776
ang@@ 8761
Be@@ 8756
采 8755
凯 8749
恭@@ 8747
厦 8745
磷@@ 8740
蛇@@ 8735
私 8717
庇@@ 8716
讷@@ 8702
贫@@ 8702
NE@@ 8699
Un@@ 8699
se 8698
扁 8696
煙@@ 8678
廟@@ 8676
RO@@ 8671
烧@@ 8666
Station 8665
ep@@ 8662
琳@@ 8656
辯@@ 8652
己@@ 8651
狂 8647
1916 8633
诞@@ 8632
逻@@ 8629
辩@@ 8624
癌@@ 8623
膠 8623
辟 8620
订@@ 8619
推 8618
灘 8616
夷@@ 8615
涌 8613
繁 8613
貧@@ 8613
循 8610
履@@ 8604
她@@ 8601
棟 8600
屿 8599
斥 8598
飯 8598
Ro@@ 8593
吾 8591
甜@@ 8580
貞@@ 8579
医 8574
樞@@ 8574
壳 8570
圳@@ 8569
圈@@ 8567
碑@@ 8566
岗@@ 8564
芝 8554
豫@@ 8545
Pl@@ 8541
嘴 8539
遮@@ 8539
啡 8524
罷@@ 8519
齿 8513
芒@@ 8512
1910 8511
锁 8506
靖@@ 8504
鰭@@ 8504
误@@ 8492
Ser@@ 8489
棉@@ 8489
堤 8485
眠 8479
滋@@ 8473
ong 8470
1915 8467
页 8459
沼@@ 8457
撫 8445
般 8442
脱 8440
by 8419
陀@@ 8418
ina 8417
肇@@ 8411
踪 8407
荐 8406
蘋@@ 8406
赠 8405
铺 8405
罚 8401
吃@@ 8394
鯉@@ 8391
倡@@ 8389
紙@@ 8388
do@@ 8384
祐 8383
償 8381
贺@@ 8378
Cl@@ 8374
弱@@ 8374
桌@@ 8372
椅 8371
頗 8371
鹽@@ 8371
澄@@ 8366
挂 8350
灯 8344
戌 8340
專 8338
滕@@ 8316
а 8310
qu@@ 8307
朵 8303
姑@@ 8300
汗@@ 8295
茂 8294
寿 8292
ay@@ 8289
昭 8289
裕@@ 8280
搭 8278
浓@@ 8271
逾 8271
卸@@ 8270
坂@@ 8265
Po@@ 8258
魁@@ 8258
湾@@ 8254
脚@@ 8251
框@@ 8248
龜 8243
审 8236
遲 8235
悉@@ 8232
楊 8229
der 8222
閉@@ 8218
嫁@@ 8215
肝@@ 8210
紐 8209
蝶@@ 8202
漂@@ 8193
憶@@ 8190
铜 8186
炭 8179
侦@@ 8174
per@@ 8171
仑 8168
墨 8163
be 8157
話@@ 8157
轴@@ 8156
pl@@ 8147
烯 8147
肥 8142
扣@@ 8138
輔 8129
and@@ 8127
III 8117
騎 8111
碍 8107
詢 8106
僧 8105
盘@@ 8104
誠 8104
ent@@ 8089
抢@@ 8076
孕 8072
兽 8068
吸 8065
摔@@ 8059
懷 8058
ton 8051
鈴@@ 8047
熔@@ 8041
析@@ 8033
你@@ 8026
馆@@ 8014
霞 8010
擬@@ 8008
掛 8007
鐸 8006
惊@@ 8002
1901 7997
株@@ 7997
睛 7992
绘 7992
乾 7986
幹 7986
鼎@@ 7981
Col@@ 7979
赶@@ 7978
割@@ 7971
乙 7966
拟@@ 7966
PC 7964
冈@@ 7964
醫 7960
貫@@ 7957
禦 7949
错 7947
ver@@ 7945
启 7944
桂 7941
ang 7934
珀 7928
He@@ 7925
酮 7921
孝 7916
紛 7916
汽 7912
蕃 7912
AC 7902
ce 7900
徙 7900
to@@ 7894
哺@@ 7892
1905 7884
慎 7883
瓶 7883
ai 7882
贤 7879
璋 7875
乌 7874
恋 7870
躍@@ 7867
扰 7864
鴻@@ 7864
誉@@ 7863
純 7859
180 7843
渔@@ 7843
趕@@ 7843
缸 7841
厦@@ 7837
霖 7837
潔 7835
负 7830
猜@@ 7826
伙@@ 7824
翁@@ 7822
ou@@ 7815
勳 7811
斌 7811
涵 7811
脊 7806
閃@@ 7806
丞 7800
坎 7800
课 7790
ta 7789
盧 7788
忌 7784
攜@@ 7774
欺@@ 7774
猫 7767
嫩 7765
驶 7764
讨 7761
弄 7760
au@@ 7755
陶 7752
栗 7747
un 7744
庞@@ 7744
蝠 7742
伽 7728
鬆 7724
ov@@ 7721
嗣@@ 7718
仕 7714
130 7713
仰@@ 7708
頒 7704
． 7702
跃 7701
匯 7693
吊@@ 7693
紛@@ 7693
箭@@ 7692
酯 7692
抱@@ 7691
详@@ 7691
Ne@@ 7690
te 7688
33@@ 7687
庵 7682
az@@ 7681
敲@@ 7678
屆@@ 7677
伽@@ 7676
裸@@ 7675
bi@@ 7672
弥@@ 7672
凭@@ 7671
霍 7671
尝@@ 7668
誓 7662
John 7654
促 7653
昔@@ 7653
潘 7646
稅@@ 7644
Di@@ 7643
劫@@ 7640
止@@ 7634
透 7633
庚@@ 7632
軸 7630
伟 7628
af@@ 7625
ary 7625
竟 7625
ell 7622
阅@@ 7621
ux 7617
纸@@ 7615
麓 7615
柳 7612
牲 7609
抚@@ 7606
吏 7604
熙@@ 7603
肢 7602
鱸 7600
ue 7595
捲 7594
com 7592
鑑 7589
ore 7578
慈 7578
募 7574
俘@@ 7569
危 7553
傅 7552
札@@ 7551
ight 7550
á 7550
雖 7545
圆 7534
纲 7532
润 7531
160 7525
把@@ 7525
Gr@@ 7520
岗 7505
闭@@ 7500
殷@@ 7499
FC 7498
摇@@ 7497
い 7491
穆 7487
娅 7484
氟@@ 7481
磨 7480
MS 7474
刘 7472
珀@@ 7472
疗@@ 7465
冈 7463
雞 7463
攀@@ 7462
裴@@ 7462
嘴@@ 7458
己 7455
链 7450
盤@@ 7442
赏 7437
廢 7436
1903 7430
da 7410
臟 7405
糕 7404
叉@@ 7401
纯 7400
脑@@ 7399
抵 7398
稍 7397
ach@@ 7396
哀@@ 7396
RE@@ 7395
怖@@ 7395
塌 7379
穌 7379
灯@@ 7373
厂@@ 7371
暫 7371
忍 7368
赴@@ 7367
奶 7363
臣@@ 7361
茄 7359
抱 7357
辐@@ 7356
桓@@ 7355
IM@@ 7347
狹@@ 7346
尤 7345
瑜 7341
1500 7339
ity 7336
須@@ 7334
all 7327
椎 7325
蜂 7324
狼@@ 7320
睡@@ 7319
薄 7312
1908 7306
寒 7305
莲@@ 7303
崙 7299
噸 7295
夸@@ 7278
闽@@ 7278
触@@ 7274
ni@@ 7272
Se@@ 7267
辱 7264
鼠@@ 7259
侍 7256
储 7255
秉@@ 7246
浩 7245
緩 7244
抚 7243
腺@@ 7243
奔 7241
舱 7237
刷@@ 7236
抄@@ 7231
帽 7228
о 7227
140 7224
烧 7221
漳@@ 7208
嫁 7200
遞 7200
忘@@ 7199
蝙@@ 7196
葵@@ 7195
佑 7190
re 7188
甘 7188
style 7186
ho@@ 7185
衝 7183
脚 7182
滾 7173
詢@@ 7171
姿@@ 7170
舌@@ 7169
矩 7168
煌 7161
Mon@@ 7159
蜜@@ 7156
憲 7154
Qu@@ 7153
牽@@ 7153
床@@ 7143
猎@@ 7140
遼@@ 7127
勘@@ 7126
仓@@ 7123
殊@@ 7117
诉@@ 7117
庸 7115
酷 7115
静 7115
黛@@ 7106
閩@@ 7103
颶@@ 7101
陝@@ 7100
ace 7093
獵 7093
厢 7090
蕾@@ 7084
ev@@ 7083
鼎 7081
邪 7074
盈@@ 7072
禎 7071
譚@@ 7068
泡@@ 7067
僚 7059
浸@@ 7059
粹@@ 7057
媽 7053
1906 7051
荒 7049
逆 7049
NGC 7047
顾 7047
1907 7046
累 7041
align 7040
丛 7039
滕 7037
沪 7034
棚 7033
Ac@@ 7030
廂 7030
For@@ 7024
賀 7024
mo@@ 7023
赐 7021
綠 7006
Ste@@ 7003
弘 7001
硝@@ 6998
键@@ 6994
妖@@ 6992
款@@ 6991
鉴@@ 6990
阶 6982
软 6979
扇 6977
鯰@@ 6973
堆@@ 6971
炎@@ 6971
罢@@ 6968
矶 6967
j 6966
賊 6965
CH@@ 6961
尽 6961
劣 6955
匠 6952
梦 6946
矮@@ 6928
迟 6927
樑 6917
幢 6915
貓@@ 6910
1904 6909
ok@@ 6907
垃@@ 6904
坤 6902
欄 6902
蕾 6901
ance 6897
鸡@@ 6895
宴 6887
翅@@ 6887
colspan 6883
ati@@ 6882
渠 6880
霧 6878
厄 6870
廿@@ 6868
鋼 6868
逸@@ 6867
El@@ 6864
il 6862
Per@@ 6857
駁 6851
冯 6847
辉 6847
滾@@ 6839
ly 6838
Cr@@ 6829
PS 6827
幅@@ 6825
携@@ 6823
蟲@@ 6818
废 6816
琼@@ 6816
劾 6815
焚@@ 6815
br@@ 6808
艙 6801
ground 6800
榴@@ 6794
ame 6793
荆@@ 6792
慣 6791
薪@@ 6781
蛙 6778
蜀 6776
採 6774
Fac@@ 6773
钦@@ 6770
籤 6767
錫 6766
Am@@ 6764
ath@@ 6761
毀@@ 6755
臀@@ 6753
括 6750
歧 6745
侶 6739
ebo@@ 6734
ect 6734
Cor@@ 6733
Me@@ 6727
棠 6724
櫻@@ 6723
邪@@ 6723
拯@@ 6715
銘 6704
淺@@ 6697
壬@@ 6691
漏@@ 6685
酷@@ 6682
ff@@ 6677
\ 6675
翡@@ 6675
ell@@ 6669
end@@ 6660
尸@@ 6655
涛 6649
贯@@ 6648
Net@@ 6637
彗@@ 6637
pe 6634
鞍@@ 6632
募@@ 6629
绥@@ 6628
趨@@ 6625
帆@@ 6623
疾 6623
肩@@ 6618
纤@@ 6617
潭@@ 6614
膨@@ 6611
喬 6608
牟@@ 6608
Li@@ 6604
卵 6603
苯 6600
埠 6597
炳@@ 6595
爐 6593
概 6592
椒 6590
擋 6580
輛@@ 6579
ex@@ 6578
back@@ 6571
爺 6571
診 6569
貢 6569
邸 6565
嫌@@ 6558
减 6557
all@@ 6555
究 6555
闊 6551
? 6546
奎 6546
腹 6541
吴 6538
諮 6537
烏 6531
截 6526
par@@ 6522
躍 6519
籲 6515
AD@@ 6512
劉 6510
庶 6507
兆 6506
拆 6504
虹@@ 6504
伙 6503
執 6502
涂@@ 6501
询 6498
Fre@@ 6494
na 6493
搶 6492
SP@@ 6486
啤@@ 6479
ber@@ 6477
暂 6476
允 6475
color 6470
签 6469
徐 6457
瓷 6448
閘@@ 6446
柯 6444
嘛 6443
eb@@ 6441
吹 6441
骑 6440
瞄@@ 6437
凸@@ 6433
慘@@ 6433
礦 6433
鄭 6424
ma 6422
ey 6420
鸿@@ 6418
韩 6417
誰 6416
ty 6415
魁 6414
扫@@ 6413
椎@@ 6413
恒 6409
ps 6400
函 6400
禪@@ 6400
ica 6398
鹰 6398
姬@@ 6390
拒 6374
We@@ 6362
贴 6361
淺 6354
蓄@@ 6353
档@@ 6342
匣 6339
卜 6335
ile 6332
β 6332
ley 6330
栋 6322
鳳 6322
货 6321
鎖@@ 6321
蜂@@ 6314
軒 6309
擺@@ 6307
− 6306
愈@@ 6305
禧 6305
ol 6304
賭@@ 6303
Bar@@ 6302
乒@@ 6302
燃 6300
勋 6299
ge 6295
燥 6287
Sch@@ 6286
擁 6286
汶@@ 6286
se@@ 6278
徹@@ 6273
唇 6272
贯 6272
邏@@ 6272
и 6270
ak 6268
仓 6268
掠 6268
煤 6266
彬 6265
盜@@ 6264
夾@@ 6259
皆@@ 6258
彙 6256
径@@ 6256
卖@@ 6254
钢 6253
帖 6251
豬 6249
渠@@ 6243
堅 6233
逼 6233
儒 6232
焦 6232
勾@@ 6230
昏@@ 6230
end 6229
no@@ 6229
枝@@ 6226
DS 6223
350 6219
欲@@ 6217
est 6214
淡 6206
贞@@ 6206
糧@@ 6205
輝@@ 6200
dro@@ 6198
tu@@ 6196
濕@@ 6196
芙@@ 6192
撤 6190
伪@@ 6184
ence 6183
ea 6179
宅@@ 6179
掛@@ 6179
坂 6178
寓@@ 6175
潤 6175
黏@@ 6174
bo@@ 6173
ing@@ 6172
插 6165
頃 6157
束@@ 6156
齒@@ 6152
ah@@ 6151
玫@@ 6149
center 6136
纷 6135
垣 6134
int 6133
怡 6129
煙 6129
狭@@ 6129
浮 6125
适 6124
粤@@ 6123
掠@@ 6122
ma@@ 6121
趋@@ 6118
梨 6116
吳 6112
vi@@ 6107
趁@@ 6104
蜜 6103
惑 6098
顷 6097
腺 6091
仕@@ 6089
1898 6081
徹 6080
縱 6079
ts 6078
惟 6076
磅 6074
纖@@ 6073
恶 6071
欠@@ 6070
焰 6067
氢 6066
躲@@ 6065
倡 6059
懼 6059
ra@@ 6058
咒 6053
帆 6052
text 6047
鎊 6047
迄@@ 6045
穗 6041
匪 6040
盒 6036
胎@@ 6035
犬@@ 6032
勁 6031
壯@@ 6030
阔 6015
粘@@ 6013
荃@@ 6006
1902 5998
递@@ 5996
忘 5995
MP@@ 5985
te@@ 5983
瓣 5981
啦 5979
墙@@ 5975
毁@@ 5975
豫 5974
握@@ 5970
跋 5968
鞋 5966
隙 5957
欽@@ 5956
挂@@ 5955
寇 5951
緣@@ 5946
豬@@ 5944
诊@@ 5934
债@@ 5931
ly@@ 5930
辅 5927
ick 5926
浅@@ 5926
卓 5924
妥@@ 5924
惨@@ 5922
爪@@ 5914
洁 5905
Go@@ 5902
em 5896
ah 5895
舌 5894
梨@@ 5890
孕@@ 5877
昆 5877
彎@@ 5876
赵 5873
uc@@ 5861
200@@ 5855
丞@@ 5853
弓@@ 5851
曝@@ 5851
扁@@ 5849
1895 5848
鶴@@ 5846
崇 5839
ne@@ 5838
桐@@ 5837
败@@ 5828
赋@@ 5825
螢@@ 5824
汁 5818
ra 5815
契 5807
í 5806
递 5805
玄 5804
咀 5800
AM 5799
措 5798
墟 5796
喻 5793
爬@@ 5792
驶@@ 5782
詳 5781
飯@@ 5781
-- 5779
艮@@ 5776
薪 5772
酋@@ 5772
殉@@ 5771
瀑@@ 5771
鳴@@ 5768
tic 5767
ale 5765
扣 5764
葛 5762
跌 5754
纷@@ 5753
腰 5751
偽@@ 5749
瑰 5746
兔 5743
峡@@ 5742
逸 5742
慰 5738
賦@@ 5737
鋪 5735
偏 5733
劝@@ 5727
甚 5727
仲 5724
瓊@@ 5723
aw@@ 5721
ü 5718
臉@@ 5718
CE@@ 5717
怨 5717
im 5716
厅@@ 5716
押@@ 5710
坚 5708
夕@@ 5706
盲@@ 5705
Lo@@ 5701
鯨 5698
偿 5694
鸡 5694
骸 5691
膠@@ 5690
DC 5686
st 5684
鱗@@ 5681
帳@@ 5678
癸@@ 5676
One 5670
侠 5669
禾 5668
咨@@ 5664
し 5663
120@@ 5658
Love 5658
塗@@ 5657
鏈 5657
竟@@ 5654
夥@@ 5635
捉 5632
盗@@ 5631
凹@@ 5630
拓 5630
雞@@ 5628
怀 5623
墅 5614
曹 5612
ス 5609
籍@@ 5609
イ 5605
岭@@ 5604
橙@@ 5600
盗 5599
恭 5591
yl@@ 5587
桶 5586
ass@@ 5584
倍@@ 5583
繩@@ 5581
苹@@ 5581
貞 5580
om 5579
債@@ 5578
驅 5576
hi@@ 5570
ā 5570
墩 5569
糾@@ 5564
鴨 5564
乔 5555
拋@@ 5555
稣 5548
吁 5547
删@@ 5545
娘@@ 5540
窟 5539
ik@@ 5536
BBC 5531
呢 5531
貪@@ 5531
勸 5527
嬰@@ 5526
韻@@ 5523
und@@ 5519
卯 5519
彦@@ 5517
冥@@ 5513
郭 5509
笑@@ 5508
龜@@ 5505
疊 5501
Ty@@ 5499
钠 5498
預 5493
雀@@ 5491
娥 5490
胶 5490
漏 5488
卸 5486
挺 5485
蓝 5484
ん 5481
砂 5477
吋 5475
World 5474
gr@@ 5469
狩@@ 5469
Tw@@ 5464
sil@@ 5463
尹 5459
欖@@ 5458
齋 5457
est@@ 5449
Ver@@ 5448
寵@@ 5448
Man@@ 5446
Str@@ 5445
堪 5444
е 5440
鯰 5440
肅 5434
贤@@ 5430
恆 5425
誘@@ 5420
ite 5416
ess 5414
偷 5409
摘@@ 5408
桐 5408
ack@@ 5398
淨@@ 5398
【 5396
】 5396
纵 5396
闪@@ 5393
ne 5383
Mag@@ 5381
帽@@ 5379
潔@@ 5376
菊 5376
氮 5373
慰@@ 5370
穩 5369
Microsoft 5366
ae 5366
幾 5365
掃@@ 5365
稻 5365
ó 5364
册@@ 5362
Pro@@ 5360
舖 5357
弓 5344
As@@ 5342
券@@ 5342
凰 5340
旱 5340
ib@@ 5338
-@@ 5337
鳴 5336
Ge@@ 5329
獅 5328
塚 5323
with 5322
棘@@ 5321
蜘@@ 5321
н 5318
※ 5318
1896 5315
衍 5314
俞@@ 5311
晨@@ 5309
棄@@ 5309
妙@@ 5308
1890 5307
岐@@ 5304
糊 5303
So@@ 5300
詔@@ 5299
able 5298
梭 5297
q 5292
溯@@ 5292
贾 5292
爪 5289
荔@@ 5289
栏 5287
喊 5286
牡@@ 5285
mar@@ 5284
踢 5284
蓬 5280
诏 5280
蔽 5278
伺@@ 5275
AI@@ 5273
瑚 5271
荊@@ 5268
餅 5266
氯 5265
罹@@ 5265
乓@@ 5259
札 5256
怡@@ 5255
憤@@ 5252
绕@@ 5251
仗 5249
淨 5244
tri@@ 5241
墳 5241
韶@@ 5239
la@@ 5236
section 5235
撥@@ 5231
膚 5227
鼻 5221
圾 5219
iz@@ 5218
斬 5216
con@@ 5215
BA 5214
晴@@ 5214
宪 5212
摆@@ 5211
纺@@ 5211
瀨@@ 5203
寅 5197
董 5194
New 5193
鄂 5191
1897 5181
Pe@@ 5181
钦 5180
鴻 5179
杏@@ 5176
斋 5173
CC@@ 5172
贏 5172
纠@@ 5168
訟 5168
丈 5166
埋 5166
虐@@ 5166
た 5165
杉 5165
搞 5160
IV 5153
飲 5153
宰 5151
box 5150
TA 5149
ure 5149
pe@@ 5146
櫃 5144
橫 5143
Fr@@ 5139
AB@@ 5138
萄 5138
鑑@@ 5134
Live 5130
魅@@ 5130
pr@@ 5129
诸 5128
au 5127
穀 5127
桿 5121
蓉 5121
gi@@ 5120
Vi@@ 5114
寡@@ 5111
騷@@ 5110
柔 5105
ner 5099
斐 5098
纂 5096
齿@@ 5093
猎 5089
圭@@ 5082
anc@@ 5079
Ap@@ 5077
冶@@ 5077
猪 5076
財 5076
if@@ 5073
ル 5073
Gu@@ 5072
侨 5070
溝 5068
ill@@ 5062
甸@@ 5057
Te@@ 5056
猛 5056
蝦 5055
遙@@ 5050
净@@ 5045
彭 5044
辞 5044
撫@@ 5043
刪@@ 5035
紫 5034
翅 5034
迦 5031
弦@@ 5026
ot 5021
崛@@ 5019
う 5018
噪@@ 5018
裹 5014
炉 5013
賠@@ 5013
FI@@ 5012
垒 5011
畢 5011
萍 5011
ion 5009
壩 5008
帮 4995
庶@@ 4995
贈@@ 4995
療@@ 4994
睡 4992
葵 4992
蜀@@ 4992
祇 4985
tor 4982
剩 4981
猴 4981
Music 4980
滚@@ 4980
繳@@ 4980
蔬@@ 4977
彪 4975
剥@@ 4972
悟 4965
蜥 4962
ist 4960
懲@@ 4960
泄@@ 4954
欽 4950
矢@@ 4950
Pol@@ 4939
綁 4935
You 4934
辨 4934
宦@@ 4933
慣@@ 4930
紋@@ 4930
瓶@@ 4926
峻 4925
喝@@ 4921
础@@ 4921
铺@@ 4921
且@@ 4920
恐 4919
蜥@@ 4915
荡 4913
湯 4909
ens 4907
蘿@@ 4902
ur 4901
閱 4899
1899 4897
CD@@ 4897
湘 4897
嵌 4896
凉@@ 4894
谭@@ 4893
夹@@ 4891
淮 4890
郁@@ 4881
僑 4879
ain 4877
our 4877
奸 4876
鉴 4873
耿@@ 4871
茎 4870
浏@@ 4869
ub@@ 4868
俯@@ 4868
莲 4868
+@@ 4864
恰 4863
乞@@ 4861
彝@@ 4861
旭@@ 4861
淆 4858
磁 4853
亂@@ 4850
参 4845
棉 4845
SS 4844
砖@@ 4842
ung 4840
窮 4840
狙@@ 4839
car@@ 4838
渐@@ 4838
坞 4834
矮 4832
廈@@ 4829
酬 4828
SS@@ 4822
辉@@ 4819
韻 4817
虞@@ 4816
Met@@ 4814
aur@@ 4812
塢 4809
倪@@ 4801
纬 4801
VI@@ 4796
ya 4796
簡 4795
筋 4793
汕@@ 4791
ari@@ 4790
崩 4786
脏 4785
鬚 4783
烟 4777
惯@@ 4773
豚 4770
禅@@ 4769
鱷 4769
oph@@ 4768
銅 4763
ome 4760
芽 4759
р 4757
虏 4757
晰 4755
狮@@ 4754
眉 4754
do 4745
烯@@ 4745
添 4744
Mor@@ 4743
ong@@ 4741
戚 4740
と 4738
详 4737
侄@@ 4736
冒 4733
鹏 4733
则@@ 4730
招 4730
婉@@ 4728
1889 4727
di 4727
阜@@ 4726
烹@@ 4725
Mc@@ 4724
暖@@ 4723
宴@@ 4722
巢@@ 4719
醉 4715
些@@ 4713
ks 4711
掃 4711
榆@@ 4710
祯 4710
ka 4709
ler 4707
蝕 4706
禦@@ 4702
Gir@@ 4699
ci@@ 4697
僱@@ 4694
氫 4694
鹤@@ 4694
菱 4690
驚 4689
璃@@ 4688
pi@@ 4686
悼@@ 4686
Min@@ 4682
ini 4682
喉@@ 4681
School 4679
挽@@ 4679
sp@@ 4677
ラ 4676
ö 4670
ist@@ 4667
怒@@ 4667
疊@@ 4666
骼 4666
Her@@ 4663
顛@@ 4662
騙 4662
擲 4660
SA 4654
• 4653
ai@@ 4652
CA 4649
聰@@ 4636
銘@@ 4636
舟@@ 4632
践 4630
杖 4624
鑽@@ 4624
涌@@ 4622
肆 4622
und 4619
严 4616
搶@@ 4614
眉@@ 4614
Fo@@ 4612
饭@@ 4608
Fi@@ 4603
腰@@ 4598
潰 4597
囊@@ 4596
狗@@ 4596
か 4595
繩 4595
顆@@ 4591
奮@@ 4589
蔓@@ 4589
Har@@ 4588
擦@@ 4588
den 4584
頸 4583
旦@@ 4580
騰 4579
馮 4576
淳 4573
碗 4573
浴@@ 4571
恋@@ 4568
描 4566
禾@@ 4566
鑼@@ 4566
MA 4562
擦 4562
ax@@ 4561
笛 4559
str@@ 4555
娜@@ 4555
瞬@@ 4555
ess@@ 4553
孚 4551
暢@@ 4550
廚@@ 4548
穎 4548
舶 4547
Wi@@ 4546
拨@@ 4542
爛 4542
Hol@@ 4537
port 4537
su@@ 4536
戎 4536
渤@@ 4536
弧@@ 4535
猴@@ 4532
盾@@ 4531
pen@@ 4530
漆 4528
莖 4528
ack 4526
蝴@@ 4526
彦 4525
搞@@ 4523
ow@@ 4522
EP 4521
纹@@ 4519
嵌@@ 4516
爸 4512
痕 4512
砖 4512
硫 4511
箱@@ 4511
卧@@ 4510
嗎 4509
崗@@ 4508
der@@ 4497
钻@@ 4497
説 4493
哭 4492
辣@@ 4492
瓷@@ 4489
氛 4488
杆@@ 4487
简 4485
郝@@ 4483
遞@@ 4480
be@@ 4479
跌@@ 4478
姑 4474
啡@@ 4472
污 4470
狐@@ 4470
酰@@ 4470
gen@@ 4468
丛@@ 4468
庙@@ 4467
墜@@ 4465
咸 4464
毅@@ 4455
氟 4455
檢 4453
诱@@ 4452
瑙@@ 4450
淋@@ 4447
辑@@ 4445
楠 4444
哇 4442
Gal@@ 4441
疲@@ 4440
慕 4438
蚀 4434
輯@@ 4434
抓 4432
禍 4432
姊 4426
腐 4425
art 4423
賈 4422
喙 4421
に 4420
1860 4417
cor@@ 4411
cm 4405
eo 4401
赣@@ 4397
孢@@ 4394
叠 4393
譴@@ 4393
No@@ 4390
1880 4389
谁 4385
涼@@ 4382
鵬 4382
潛 4380
沪@@ 4378
湿 4378
CI@@ 4375
妾 4374
愉@@ 4374
陇@@ 4369
祁@@ 4367
​ 4366
汤 4360
me@@ 4352
渦@@ 4351
謙 4346
凶@@ 4345
な 4342
邢@@ 4342
凤 4341
陰 4341
ode 4340
誓@@ 4340
骚@@ 4340
凌 4335
lin@@ 4334
Ab@@ 4333
鱂 4333
畜@@ 4330
敖@@ 4327
誼 4326
樊@@ 4322
趾 4322
峽@@ 4320
ment 4319
役@@ 4317
1800 4312
挝 4312
傍@@ 4310
雁@@ 4309
ara 4307
嫡@@ 4307
La 4306
1894 4304
繞@@ 4300
赔@@ 4299
聊@@ 4298
胃@@ 4296
Wor@@ 4295
奋@@ 4295
踐 4295
ys 4293
Me 4290
′ 4289
land 4288
煽@@ 4288
ト 4286
谴@@ 4284
谱@@ 4283
ard@@ 4282
1871 4280
る 4278
蟻 4275
赠@@ 4274
1870 4272
醛 4272
缀 4269
ann@@ 4266
脈@@ 4261
Mac@@ 4260
ich@@ 4260
铭 4255
辽 4253
唇@@ 4251
弼 4251
叢@@ 4249
ali@@ 4248
悅 4245
渭@@ 4245
绿 4245
甄@@ 4243
凰@@ 4242
哩 4242
輩 4239
仆@@ 4237
樟@@ 4236
yr@@ 4235
atus 4233
拱 4233
罵 4233
Ed@@ 4230
栗@@ 4227
we@@ 4226
David 4223
预 4223
so@@ 4222
邯@@ 4222
ran@@ 4220
碱@@ 4218
衙@@ 4218
ike 4217
贊 4217
Mat@@ 4213
瘋@@ 4213
峙 4212
杯@@ 4212
赏@@ 4208
BM@@ 4207
漿 4207
丟@@ 4203
织 4203
脹 4201
Su@@ 4200
抽 4198
紮 4194
虽 4192
贞 4188
飼@@ 4185
疼@@ 4183
q@@ 4181
App@@ 4178
泌 4178
茵@@ 4176
Ber@@ 4172
削 4171
憂@@ 4169
ava 4165
诏@@ 4165
Wil@@ 4164
ons 4163
讼 4163
牺@@ 4162
迅 4161
enti@@ 4157
贪@@ 4156
124@@ 4155
胸 4155
畜 4151
萌@@ 4148
he@@ 4147
兔@@ 4146
匿@@ 4145
婿 4145
è 4144
颇@@ 4144
畏 4143
婷 4142
剿 4141
挺@@ 4141
棍@@ 4140
International 4137
University 4136
巩@@ 4135
巫 4134
颇 4133
Fl@@ 4131
In 4131
袍 4131
蘆@@ 4130
阅 4128
ker 4125
衷 4119
輿@@ 4119
饶@@ 4115
Pi@@ 4113
ill 4113
肿@@ 4112
des 4111
闆 4111
ase 4109
壯 4107
抛@@ 4106
扳@@ 4105
Ho@@ 4104
您 4103
薯 4102
罰@@ 4101
碱 4099
遂@@ 4096
寇@@ 4095
尋 4092
赐@@ 4090
遥@@ 4086
朔@@ 4081
屍 4080
溃 4079
却@@ 4076
藻@@ 4075
虜 4074
ire 4072
剝@@ 4072
琦 4071
man@@ 4070
撐 4070
检 4069
润@@ 4062
粮 4060
鍵@@ 4058
Dr@@ 4057
究@@ 4056
с 4047
駿 4043
狐 4041
懂 4039
ili@@ 4037
胤 4035
1885 4026
拾 4026
ug@@ 4025
稚 4024
犧@@ 4023
騰@@ 4022
疇 4020
闖@@ 4020
li 4019
衞 4019
矣 4018
磡 4018
ame@@ 4015
幣@@ 4015
銳 4015
酉 4014
笠 4012
竭 4011
斥@@ 4010
捐 4008
谊 4007
鮋 4007
帜 4005
Sw@@ 4000
era 3998
廓 3998
肖 3996
ta@@ 3995
卑 3995
頸@@ 3995
貸@@ 3992
簿 3991
les 3987
肌 3985
阜 3985
Bl@@ 3984
轟 3981
暑@@ 3980
乱@@ 3976
栏@@ 3976
Jo@@ 3975
ass 3975
隱 3974
惯 3973
潤@@ 3973
埼 3972
畿 3972
撲 3970
粟@@ 3970
芦@@ 3969
讯@@ 3967
聂@@ 3964
res@@ 3963
Inter@@ 3961
宛@@ 3961
Stu@@ 3956
Val@@ 3954
mi@@ 3954
缘@@ 3954
喀 3953
禄@@ 3952
抄 3950
Er@@ 3949
旱@@ 3948
挖 3946
ick@@ 3945
翠 3944
喚 3943
孟 3942
愤@@ 3942
坪@@ 3940
账@@ 3940
擾@@ 3938
膀 3934
ru@@ 3932
腸 3932
横 3930
謠 3930
阎@@ 3921
堵 3920
ant@@ 3917
臭@@ 3914
碧 3912
蕉 3910
弯@@ 3909
誕 3908
氫@@ 3906
鯛 3905
汶 3904
鞭@@ 3904
暹@@ 3903
澄 3903
韵@@ 3903
Team 3902
阴 3902
釜@@ 3897
ous 3894
膽 3892
蛤@@ 3891
芙 3890
郁 3890
饼 3890
垂 3888
柴 3888
薇@@ 3887
ir 3885
爽 3885
湛@@ 3881
籌 3879
AP 3878
To@@ 3873
勸@@ 3870
颠 3870
抬@@ 3869
牆@@ 3868
蛾 3864
簧 3858
詠 3856
io 3855
醉@@ 3855
ク 3854
舆@@ 3854
co 3853
int@@ 3853
ref 3853
屈 3852
ア 3851
Saint 3847
慾 3847
Mas@@ 3846
sc@@ 3846
_@@ 3842
幟 3842
罚@@ 3841
鸣 3839
include 3835
濤 3835
Sol@@ 3833
淵 3833
桿@@ 3831
啊 3829
〜 3828
梓@@ 3828
塾 3823
缓 3823
贺 3820
瞭@@ 3818
橘@@ 3817
爬 3814
ä 3812
绵@@ 3809
痕@@ 3807
孜@@ 3805
煮 3803
慎@@ 3802
堵@@ 3801
宙@@ 3801
line 3799
毓@@ 3796
芯@@ 3796
り 3795
桓 3795
述@@ 3795
喝 3793
ain@@ 3792
vir@@ 3789
宵 3789
釣@@ 3788
晴 3787
旭 3785
脉@@ 3784
吞 3783
贼 3783
賦 3782
Wh@@ 3779
侨@@ 3778
贸 3776
Dis@@ 3775
憂 3774
eh@@ 3773
eng@@ 3773
謙@@ 3772
min@@ 3770
僵@@ 3770
晓 3768
т 3767
リ 3767
沛 3767
鸣@@ 3767
肤 3765
砌 3764
娃@@ 3760
匙 3758
趙@@ 3757
遜@@ 3757
Off@@ 3756
榄@@ 3754
雯 3754
Chr@@ 3751
1892 3749
臥@@ 3749
廁@@ 3748
蓄 3741
淳@@ 3738
贷@@ 3738
迈 3738
htt@@ 3737
My@@ 3736
鵝@@ 3736
氰@@ 3735
閩 3734
惩@@ 3732
濫@@ 3732
肩 3732
Si@@ 3731
ys@@ 3731
兇@@ 3730
胚@@ 3730
Res@@ 3729
ake 3729
牢@@ 3728
My 3724
1893 3723
AS 3722
沈 3721
混 3719
迭@@ 3718
阀 3718
姿 3717
框 3714
舒 3714
ek@@ 3713
pp@@ 3712
斩@@ 3712
諸 3712
懿 3711
me 3710
締@@ 3709
臉 3709
泗@@ 3707
铭@@ 3707
滇@@ 3701
蒼@@ 3701
ical 3699
賜@@ 3699
ti 3696
氮@@ 3696
溉 3696
悟@@ 3695
ud@@ 3694
は 3694
腾 3694
lu@@ 3686
that 3686
扮 3686
贫 3686
闢 3686
諭 3685
淚 3684
捍@@ 3683
琛 3681
胆@@ 3680
Bur@@ 3678
Hy@@ 3678
ations 3676
饥@@ 3676
届@@ 3674
煉 3674
遲@@ 3673
擠 3672
膜@@ 3671
岑@@ 3670
1884 3668
褒@@ 3668
瀏@@ 3665
悔 3663
邁 3663
ella 3661
犁 3661
潟 3660
陞 3659
瑙 3658
1887 3657
侣 3655
1886 3654
赋 3651
ie@@ 3650
蕊 3649
哉 3648
鳞@@ 3648
啓 3642
愚@@ 3641
爸@@ 3640
ou 3638
unc@@ 3638
yn@@ 3635
Ang@@ 3634
ora 3632
镑 3631
CO 3630
渊 3630
錶 3630
bl@@ 3629
刃 3629
崗 3628
堯 3626
渴@@ 3626
阔@@ 3626
William 3625
硅@@ 3624
巾 3623
吐 3622
駕 3622
way 3620
稜 3620
祠@@ 3617
堤@@ 3616
廳@@ 3616
毕 3615
ena 3612
趕 3610
was 3608
堀@@ 3607
赦 3607
醒@@ 3607
1888 3605
拖 3603
Win@@ 3602
奢@@ 3598
页@@ 3598
橢@@ 3596
碘 3592
inc@@ 3588
殼@@ 3588
禪 3588
傘 3587
淵@@ 3586
聰 3586
iv@@ 3585
沧@@ 3583
纲@@ 3580
James 3577
吕 3576
腸@@ 3576
睹 3572
伪 3571
譜@@ 3571
憾 3568
盈 3565
sa 3564
醜@@ 3564
amb@@ 3560
浅 3560
蛛@@ 3560
Dre@@ 3559
Group 3559
苍@@ 3559
涡@@ 3558
冊@@ 3557
滴 3554
1861 3549
谐 3548
債 3547
缴@@ 3547
肅@@ 3543
棍 3542
Bi@@ 3539
from 3539
狄 3538
茅 3538
饭 3537
緯@@ 3536
弊 3535
塵 3533
ade 3532
倭@@ 3532
枯@@ 3531
勉@@ 3530
嘲@@ 3530
sch@@ 3529
л 3527
癒 3527
穷 3527
1876 3525
del 3524
墾 3524
忧 3522
Gi@@ 3521
Nor@@ 3521
淹@@ 3519
韵 3519
肺 3515
if 3514
朴 3510
檐 3509
閣@@ 3509
胆 3508
哨 3507
違 3507
坠@@ 3506
茱@@ 3505
ings 3496
梧@@ 3494
瑚@@ 3494
肢@@ 3494
亭@@ 3492
禹 3490
鑽 3490
锋@@ 3490
閒 3490
盆 3489
髓 3489
辆@@ 3486
捨 3485
詮@@ 3485
擒 3482
閒@@ 3482
抨@@ 3479
ast 3476
劣@@ 3476
锐 3476
奕 3475
в 3474
畏@@ 3468
踢@@ 3466
魂@@ 3464
祂 3456
arr@@ 3455
ics 3454
紡@@ 3454
胀 3452
铎 3451
Cre@@ 3450
抒@@ 3450
霹@@ 3450
诚@@ 3449
CN 3447
淀@@ 3447
祕 3447
陪 3439
ws 3438
阐@@ 3436
1891 3434
衫 3433
dis@@ 3432
馨 3430
Char@@ 3429
綽@@ 3428
霞@@ 3428
犀@@ 3426
к 3424
让@@ 3422
擢 3420
庐@@ 3415
憑@@ 3414
ind@@ 3413
ens@@ 3410
漲 3410
獸@@ 3410
寂 3409
跃@@ 3408
歼@@ 3407
蒿 3406
Do@@ 3405
ost 3401
勁@@ 3401
儲 3396
坝@@ 3394
瑾 3393
嚇 3392
崑 3392
鄒@@ 3392
cr@@ 3391
叠@@ 3391
襪 3390
閘 3389
ise 3388
〔 3387
On@@ 3386
钾 3386
〕 3384
yc@@ 3383
剌 3383
肪 3381
丑@@ 3380
諜 3380
酿@@ 3380
稽 3378
绑@@ 3378
頌 3378
per 3375
1850 3374
妓@@ 3372
棱@@ 3372
蹄@@ 3371
駒 3370
撕@@ 3369
填 3368
Bu@@ 3367
緻 3365
Sy@@ 3363
捉@@ 3363
Robert 3358
mon@@ 3357
禧@@ 3357
烤 3354
鑄@@ 3354
弄@@ 3353
浙 3351
浆 3350
鰍 3350
滤@@ 3348
yp@@ 3347
1883 3346
ek 3345
璧 3341
醬 3341
Paul 3340
掀@@ 3339
腫@@ 3339
菇 3339
1862 3336
蜒 3336
卦 3333
縫 3333
盔 3330
Des@@ 3326
gu@@ 3326
贬@@ 3325
岱 3323
郑 3323
ano 3321
oh@@ 3320
閥 3319
Pal@@ 3318
The@@ 3318
ap 3318
荃 3317
淪@@ 3316
ca 3315
询@@ 3315
漆@@ 3314
1868 3309
鈞 3308
ッ 3304
莞 3303
籃 3301
鱸@@ 3300
ated 3299
雾 3299
慌 3298
鸚@@ 3296
擇@@ 3293
檀@@ 3292
sion 3290
桌 3289
欠 3289
歇 3289
艰@@ 3289
净 3283
菱@@ 3283
扑 3281
崔 3280
蜿@@ 3280
膏 3279
窑 3278
US 3277
孚@@ 3276
狮 3276
hy@@ 3275
矢 3275
驳 3275
tic@@ 3269
ま 3269
μ 3268
絡@@ 3268
炼 3267
羟@@ 3267
貿 3267
dr@@ 3266
滲@@ 3265
ology 3264
颜 3260
饱@@ 3260
舜@@ 3259
弃@@ 3258
闸 3258
Michael 3257
Super 3257
滚 3257
@ 3256
ish 3256
1867 3255
凉 3255
Por@@ 3254
牲@@ 3252
寄 3251
嘎@@ 3250
砍@@ 3250
さ 3249
喉 3249
磷 3249
婴@@ 3248
帳 3248
ital 3245
赦@@ 3245
Sal@@ 3244
耕 3243
闲 3243
优 3241
浴 3241
Ag@@ 3238
idae 3238
瑛 3238
侏@@ 3236
撑 3234
Sec@@ 3231
委员@@ 3229
悦 3229
凍 3226
凭 3226
work 3224
渝 3223
ins 3218
茹 3218
霆 3218
缪@@ 3217
罐 3217
² 3216
ino 3214
惧 3214
low 3213
椭@@ 3212
Cal@@ 3211
湧@@ 3208
貼@@ 3208
1848 3207
Uni@@ 3207
趁 3207
ung@@ 3206
du@@ 3205
1873 3204
淹 3204
fo@@ 3203
ama 3202
猿 3202
1878 3201
ki@@ 3201
专 3201
dia 3199
膛 3199
襄 3199
ail@@ 3197
ا 3196
篡@@ 3196
溶 3194
禹@@ 3194
鞋@@ 3194
が 3193
ator 3190
て 3190
僑@@ 3189
鞏@@ 3189
朔 3188
涼 3187
汪 3186
浸 3184
擺 3181
諡 3181
笼 3180
National 3179
1864 3177
1879 3177
悼 3177
牢 3172
翔@@ 3172
锁@@ 3172
钩 3169
1877 3167
缝 3167
莽 3167
Is@@ 3166
Gre@@ 3164
up@@ 3164
き 3164
ry 3162
苔 3161
ten@@ 3160
穷@@ 3160
羞@@ 3160
袋@@ 3160
剖@@ 3154
甜 3154
鴉@@ 3152
out 3151
bu@@ 3150
彎 3150
窩 3148
狸 3147
蕩 3144
丢@@ 3142
屡@@ 3142
畅@@ 3142
虞 3141
the@@ 3140
岐 3139
皖@@ 3133
禽 3133
芜@@ 3131
颗@@ 3130
择@@ 3129
綴 3129
泵 3127
雇 3124
ba@@ 3121
amp@@ 3120
匡@@ 3119
Lim@@ 3117
掉@@ 3117
琅 3116
芯 3115
蔚@@ 3115
庚 3112
溢@@ 3109
1875 3106
net 3104
釐 3098
1865 3097
涨 3095
籠 3095
1882 3093
杭 3093
City 3092
肠 3090
ky 3089
晤@@ 3087
剪 3086
畴 3086
crip@@ 3085
go@@ 3085
酵 3084
its 3082
1881 3079
za 3079
挡 3079
Mer@@ 3078
茜 3078
ese 3075
鹃 3074
磚@@ 3073
ng 3072
糧 3072
aj@@ 3071
隕@@ 3071
oy@@ 3070
綿@@ 3070
霧@@ 3070
beg@@ 3068
鬧 3068
冤@@ 3067
傲 3066
ket 3065
鸿 3065
滴@@ 3064
Bro@@ 3063
tel 3063
胰@@ 3063
鰓 3062
ish@@ 3059
谥@@ 3059
酵@@ 3059
com@@ 3058
堊@@ 3058
窦@@ 3058
虐 3058
樸 3053
邹@@ 3052
Lu@@ 3049
igh@@ 3049
蝠@@ 3049
At@@ 3046
礁@@ 3046
岁@@ 3045
戚@@ 3045
Wo@@ 3044
梓 3043
Fe@@ 3042
岑 3042
墮@@ 3041
麾@@ 3041
孵@@ 3040
猶 3040
糟@@ 3040
name 3038
迟@@ 3038
喻@@ 3037
邱 3035
汾@@ 3034
IX 3033
呂 3033
ab 3032
ke 3032
曉 3032
Tri@@ 3030
棵 3029
Cap@@ 3028
濕 3028
鹤 3028
姜 3026
鍊 3026
宠@@ 3025
菸 3025
俾@@ 3023
鰕 3023
Medi@@ 3022
逗@@ 3021
挫@@ 3019
敷 3019
钧 3019
鹅 3016
Wal@@ 3015
扇@@ 3013
贴@@ 3013
顱 3013
埗 3006
辈 3006
黜 3006
趨 3005
old 3002
奸@@ 3001
莓 3001
蚌@@ 2999
鑒 2999
ach 2998
蔭@@ 2998
1874 2997
Entertainment 2996
彻 2995
ey@@ 2991
裙 2990
豁@@ 2989
app@@ 2988
焊@@ 2988
頜 2988
kh@@ 2987
炼@@ 2986
企 2981
1863 2978
苻 2978
詐 2978
諧 2978
fl@@ 2976
oth@@ 2976
Mal@@ 2975
岬 2974
ら 2973
虫@@ 2973
蕨@@ 2971
攔@@ 2970
篤 2968
叙 2966
烃 2963
シ 2962
脆@@ 2962
蕭 2962
Mi@@ 2961
喪 2961
偽 2959
谦 2959
阱 2959
壟@@ 2958
enn@@ 2956
1872 2954
Cy@@ 2954
袁 2954
斬@@ 2952
osa 2951
Trans@@ 2949
System 2948
箕 2946
陡@@ 2944
Tur@@ 2941
霜 2941
ave 2937
har@@ 2936
Kar@@ 2935
艱@@ 2935
鸭@@ 2935
wid@@ 2934
ita 2933
屢@@ 2933
昏 2933
腎@@ 2933
厭@@ 2932
Sam@@ 2930
澀 2928
貶@@ 2927
紧 2925
羌 2924
骗 2923
聶@@ 2919
酚 2917
ge@@ 2916
芹 2915
鸦@@ 2914
哀 2913
mer@@ 2912
帛 2911
illa 2910
巳 2909
鹰@@ 2907
祿@@ 2906
哭@@ 2904
fr@@ 2902
厲 2902
碘@@ 2902
Son@@ 2900
鰻 2900
扶 2899
鶴 2898
ene 2897
ha 2893
ello 2892
屑 2891
It 2889
ber 2889
汀@@ 2887
讽@@ 2887
稽@@ 2885
楠@@ 2884
沦@@ 2883
铝 2883
炒@@ 2882
St 2879
ut 2879
咬@@ 2878
闸@@ 2878
agr@@ 2876
娟 2876
孜 2875
鋒@@ 2874
盪 2873
Sho@@ 2872
遺 2872
盲 2870
嵩 2869
椰@@ 2869
篷 2867
All 2866
姦 2866
禱 2866
George 2865
梳@@ 2865
闡@@ 2865
饒 2865
頌@@ 2864
濒 2863
萼 2862
ash 2860
俠@@ 2860
Hu@@ 2859
Bas@@ 2856
壹 2856
く 2854
轩 2852
Gar@@ 2851
ani 2851
禅 2850
簽 2849
茹@@ 2849
Mel@@ 2848
棣 2847
衔@@ 2847
媛 2846
槟@@ 2845
琼 2845
駿@@ 2844
齋@@ 2844
玲@@ 2843
ane 2842
亥 2840
稣@@ 2839
醚 2836
鬱 2835
鹹 2835
ere 2832
ax 2831
夥 2830
酪 2830
孤 2829
幌 2828
绥 2828
跤 2828
浚 2823
kg 2821
兽@@ 2820
湛 2818
钓@@ 2817
皋 2816
陛@@ 2816
妨@@ 2815
缮 2815
鱷@@ 2814
La@@ 2813
を 2813
賺 2813
傀@@ 2812
ited 2811
幡 2810
ement 2809
舅@@ 2807
淫 2806
趣@@ 2805
濾@@ 2803
括@@ 2802
Club 2801
坏@@ 2801
尉@@ 2799
帖@@ 2799
mer 2797
曙@@ 2796
忆@@ 2793
厌@@ 2792
跋@@ 2792
鵝 2791
COVID 2790
淑 2790
滙 2790
衰 2789
ao 2788
锅@@ 2788
猩@@ 2787
怨@@ 2786
盎@@ 2785
漠@@ 2784
釀@@ 2783
龟 2781
ope 2780
Ros@@ 2779
my 2778
窮@@ 2778
葫@@ 2777
1869 2776
巨 2775
粗 2775
辯 2775
徑@@ 2774
ala 2773
ual 2772
妖 2771
傘@@ 2770
傲@@ 2770
尸 2770
甫@@ 2770
驱 2770
lar@@ 2767
磚 2767
Time 2766
ls 2766
奕@@ 2765
1866 2762
瑶@@ 2762
Mark 2761
wer@@ 2760
麒@@ 2759
カ 2756
羌@@ 2756
剿@@ 2754
鯨@@ 2753
戟 2752
侮@@ 2751
こ 2750
渗@@ 2750
龚@@ 2750
閻@@ 2748
塵@@ 2747
丧 2746
寻 2746
尧 2746
瘟@@ 2746
蠻 2746
溴@@ 2745
壶 2744
膽@@ 2744
炬 2743
辣 2740
γ 2739
闵@@ 2738
掘@@ 2737
恕 2735
ars 2734
vo@@ 2733
剌@@ 2733
On 2732
丙 2732
峨@@ 2732
ble 2731
妈 2730
紳 2730
鈴 2730
僕 2729
贿@@ 2729
頜@@ 2728
ich 2727
弧 2726
崁 2724
SC 2723
for@@ 2723
财 2723
沫 2722
sa@@ 2719
晃 2719
錐@@ 2719
Center 2718
琵@@ 2718
鎌 2718
Mus@@ 2716
疯@@ 2716
Show 2714
赌@@ 2713
冕@@ 2712
拦@@ 2712
奮 2710
碩 2710
汞 2709
諷@@ 2708
譬@@ 2708
als 2707
卻@@ 2706
渊@@ 2706
tions 2704
洽 2704
隐 2704
肾@@ 2703
逢@@ 2702
沁@@ 2700
み 2699
峇 2699
鷹@@ 2699
莆@@ 2696
yth@@ 2694
瑜@@ 2694
溴 2693
Bor@@ 2692
ve@@ 2692
阮 2692
por@@ 2690
Park 2689
濒@@ 2689
酋 2689
Del@@ 2687
dio 2686
桨 2685
ha@@ 2684
袖@@ 2683
姚 2681
懋@@ 2679
萱 2679
Games 2677
Star 2677
勿 2677
隅 2677
tro@@ 2673
勉 2671
タ 2670
Reg@@ 2669
ides 2669
汐 2668
ac 2666
歼 2666
梭@@ 2665
苷 2665
敷@@ 2660
耆 2658
time 2656
ative 2655
敢@@ 2655
Tun@@ 2654
Produc@@ 2651
Proj@@ 2651
肝 2650
蟾 2649
妥 2648
巖 2648
ies 2646
mac@@ 2646
Cas@@ 2645
Charles 2644
〇 2642
201@@ 2641
瀕@@ 2639
贩@@ 2639
栓 2638
飽 2638
ense 2636
驟 2635
Gen@@ 2634
Thomas 2634
啶 2634
睿 2634
ting 2633
Es@@ 2632
air@@ 2631
糙 2631
颂 2631
ロ 2628
咬 2628
嵩@@ 2628
詔 2628
舷 2627
哪 2620
藓 2620
彤 2617
堰 2616
沂@@ 2616
驳@@ 2616
匿 2612
壮 2612
滥@@ 2612
聪@@ 2611
鋸@@ 2607
瓊 2606
兀@@ 2605
熹 2605
膝@@ 2605
腕 2603
que 2602
橘 2602
Sil@@ 2601
跆@@ 2601
Bel@@ 2599
adi@@ 2599
餓 2596
硅 2593
ium 2592
剖 2591
沸@@ 2591
鯊 2591
鴨@@ 2591
僕@@ 2590
泣 2589
Pres@@ 2588
阁@@ 2588
戮 2583
no 2581
撲@@ 2579
棲 2579
Sci@@ 2578
垄@@ 2577
淫@@ 2574
饮 2572
狸@@ 2571
婭 2570
惹 2570
Kr@@ 2568
炭@@ 2567
烷@@ 2567
砍 2565
あ 2564
埠@@ 2563
苣 2563
妍 2562
蔚 2561
梗 2560
Air@@ 2559
眷@@ 2559
匾 2558
臟@@ 2558
ff 2556
傣@@ 2556
肋@@ 2556
ero 2555
壞@@ 2555
谍 2555
荀@@ 2553
Tel@@ 2552
楷 2552
麟@@ 2552
黔@@ 2552
墳@@ 2551
hu@@ 2550
mo 2550
ジ 2550
吗 2549
樱@@ 2549
滇 2549
eli@@ 2548
烂 2548
1830 2545
嶽 2545
蛤 2545
霄 2545
糊@@ 2544
溜@@ 2543
販 2543
で 2540
竺 2540
倚@@ 2538
硒 2537
舅 2537
ford 2536
ki 2536
烤@@ 2535
畿@@ 2535
祸 2534
Street 2533
罐@@ 2533
讓@@ 2533
琪@@ 2532
竊 2532
lan@@ 2531
ning 2531
惊 2531
Peter 2530
沛@@ 2530
wor@@ 2529
倆 2529
潜 2529
ym@@ 2527
唯 2526
埕 2524
Media 2523
矛 2523
蚤 2522
ari 2521
謎 2521
High 2520
扰@@ 2520
舵 2519
College 2518
棕 2518
吊 2516
鶯 2516
戎@@ 2514
aci@@ 2513
榕 2513
op 2512
Life 2511
誅 2511
魨 2511
吡@@ 2510
颈@@ 2510
ection 2508
沼 2507
Red 2506
駁@@ 2506
枕@@ 2505
酰 2504
瘦@@ 2503
虔@@ 2502
颖 2502
氛@@ 2501
aus@@ 2498
慨 2495
须@@ 2495
Can@@ 2494
π 2494
ze 2493
dy 2491
猩 2491
悲 2490
摺 2489
霉@@ 2489
骆@@ 2489
謹 2488
擢@@ 2486
竖@@ 2486
峯 2482
晏@@ 2481
炳 2480
翟@@ 2480
uk@@ 2479
塗 2479
擴 2479
巷@@ 2477
焉 2477
睦 2477
House 2475
鑫 2475
ath 2474
FA 2472
du 2471
咪 2471
寂@@ 2471
懿@@ 2471
va 2470
肠@@ 2470
褲 2470
Techn@@ 2468
Im@@ 2467
笛@@ 2467
窑@@ 2465
雛@@ 2464
脸 2461
鑲@@ 2461
罷 2459
恪 2458
抹 2458
ド 2456
撥 2456
Sc@@ 2455
币@@ 2455
镶@@ 2455
お 2454
マ 2453
Man 2452
cul@@ 2451
煩 2451
胃 2451
Ger@@ 2450
cu@@ 2450
Big 2449
tra 2449
谦@@ 2449
軒@@ 2448
諷 2446
倖@@ 2444
lo 2443
逻 2443
厨@@ 2441
齡@@ 2441
val@@ 2440
ote 2439
鈉 2439
now 2438
retur@@ 2436
殷 2436
Sur@@ 2435
侖 2435
ony 2434
钥 2433
妓 2430
遼 2429
鯛@@ 2429
陌@@ 2427
Tor@@ 2425
誦 2424
ada 2423
れ 2420
elle 2419
尿 2418
ico 2417
詠@@ 2417
Cam@@ 2415
ger 2414
Red@@ 2413
闲@@ 2412
曦 2411
ori@@ 2410
櫃@@ 2410
瑩 2410
King 2409
No 2409
娄@@ 2409
拼 2408
爷 2408
Em@@ 2406
AG 2405
棺@@ 2405
毯 2405
腥 2403
鵡 2402
屢 2401
皓 2400
羚 2400
ster 2399
衆 2399
滯 2398
鞘 2398
虛 2395
倖 2394
炒 2394
暨@@ 2393
泾@@ 2393
tw@@ 2392
莞@@ 2391
諡@@ 2391
Ben@@ 2390
吻@@ 2390
梗@@ 2389
煮@@ 2389
Richard 2388
黔 2387
□ 2386
噬 2386
Bre@@ 2385
窝 2385
蛮 2385
辰@@ 2385
aria 2381
矽@@ 2380
祷 2380
ler@@ 2378
賄@@ 2378
伞@@ 2376
長@@ 2375
毘 2374
ven@@ 2373
铝@@ 2373
渣@@ 2372
铃@@ 2372
凍@@ 2371
樺 2371
si 2370
丕 2370
誼@@ 2370
抹@@ 2369
曜 2369
债 2368
涂 2367
绳 2367
ents 2366
盒@@ 2366
レ 2365
卤@@ 2363
col@@ 2361
睿@@ 2361
饶 2361
腿@@ 2360
谣 2360
躲 2359
ord@@ 2358
俱 2357
渲@@ 2356
San 2355
卉 2355
磺@@ 2353
沐@@ 2351
顎 2350
inter@@ 2349
忽 2349
殘 2349
笨@@ 2349
ov 2348
央 2348
嫩@@ 2348
訥 2347
纜 2346
块@@ 2345
Ul@@ 2344
匪@@ 2344
稿@@ 2344
鉤 2344
披 2343
祺@@ 2342
fin@@ 2341
疹 2341
钙 2341
ww@@ 2340
λ 2340
綏@@ 2340
鱗 2340
崖@@ 2339
Hor@@ 2338
叱@@ 2338
淚@@ 2338
key 2337
摸 2337
Sof@@ 2336
mp@@ 2336
諒 2336
鹅@@ 2336
毆 2334
铸 2334
禺 2333
饲@@ 2333
証 2332
鏈@@ 2331
tor@@ 2329
氦 2328
鄧 2328
Company 2326
帐@@ 2325
berg 2324
晖 2323
皈@@ 2323
焚 2321
穹@@ 2321
鍋 2321
隼 2321
攬 2320
Ir@@ 2319
anth@@ 2319
釘 2319
ni 2318
ota 2318
禽@@ 2318
虚 2318
鄞@@ 2318
骤 2318
纬@@ 2317
chi@@ 2314
靼 2313
○ 2311
ro 2309
籠@@ 2309
妄@@ 2308
湄@@ 2308
肚 2308
銳@@ 2308
裸 2307
XX 2306
sol@@ 2306
Dev@@ 2304
bit 2303
执 2303
cre@@ 2302
苔@@ 2302
ち 2301
嬪 2301
畝 2301
pol@@ 2299
虾 2299
皖 2298
萝@@ 2297
Astr@@ 2296
脏@@ 2296
row 2294
儡 2293
颈 2293
溺@@ 2291
辜 2288
Op@@ 2287
缆 2287
坤@@ 2284
Vo@@ 2283
祚 2283
鈾 2283
軼@@ 2282
崙@@ 2280
憩 2279
胖 2279
乍@@ 2278
氨 2278
China 2277
藔 2277
忒 2276
毙 2276
穗@@ 2276
臻 2276
篮 2275
踏 2275
劝 2274
濁 2274
蛙@@ 2274
傭@@ 2272
敕@@ 2272
Hi@@ 2271
稠@@ 2271
辩 2270
ser@@ 2269
ο 2269
American 2268
坍@@ 2268
ç 2266
拷@@ 2266
ney 2264
庾@@ 2263
肛@@ 2262
Air 2261
犁@@ 2261
Luc@@ 2260
ates 2260
壺 2259
tle 2258
fol@@ 2256
諫 2255
Christ@@ 2254
鸦 2254
tin 2253
緝 2252
eta 2249
斧 2249
欄@@ 2249
豎@@ 2249
謹@@ 2248
駱@@ 2247
type 2246
沮@@ 2246
諧@@ 2245
趟 2245
暉 2244
滬@@ 2244
猫@@ 2241
Fin@@ 2239
Ke@@ 2237
溃@@ 2237
汴@@ 2236
揆 2235
磊 2235
Sim@@ 2233
lock 2233
忌@@ 2233
雍 2233
van 2232
丸@@ 2231
ura 2230
匀 2230
洩@@ 2230
nam@@ 2229
硼@@ 2229
Day 2228
勘 2228
苓 2226
Eng@@ 2225
ision 2225
們@@ 2225
啸 2225
窝@@ 2225
筹 2225
蜴 2225
ock 2222
± 2222
iss@@ 2221
mi 2221
窃 2221
鍋@@ 2221
锦 2221
ign 2219
Direc@@ 2217
Vol@@ 2217
ports 2216
霜@@ 2215
夠@@ 2214
淤@@ 2214
蒲 2213
ign@@ 2212
哨@@ 2212
閃 2212
嗜@@ 2211
繹 2211
舜 2211
敛 2210
囚 2209
筒@@ 2209
耦@@ 2209
谕 2209
ust 2208
濾 2208
tar@@ 2207
斃 2207
昊 2207
绪@@ 2207
菁@@ 2207
楓 2205
蔷@@ 2205
龄@@ 2205
Wat@@ 2204
姻@@ 2204
溥@@ 2204
珂 2204
寨@@ 2203
隍 2203
ally 2202
攤@@ 2202
湊 2202
锌 2202
ism 2201
Kh@@ 2199
not 2199
alis 2198
tro 2198
â 2198
偿@@ 2198
抑 2198
漕@@ 2198
茜@@ 2195
饒@@ 2195
ros@@ 2194
sel@@ 2194
淄@@ 2194
of@@ 2193
伞 2193
珪 2193
逊@@ 2193
ith 2192
缔@@ 2192
鱈 2192
Al 2190
咒@@ 2190
冻@@ 2187
淞@@ 2186
狱@@ 2184
Ni@@ 2181
肆@@ 2181
剂@@ 2180
Vis@@ 2178
肽 2176
毋@@ 2175
懂@@ 2173
Oper@@ 2171
榕@@ 2170
ola 2169
汰@@ 2169
ye 2167
顏 2166
奋 2165
ef@@ 2164
von 2162
right 2161
弊@@ 2161
Je@@ 2160
ista 2160
乞 2160
Ri@@ 2157
ú 2156
淀 2156
も 2154
尧@@ 2154
槳 2153
捧 2152
峭 2151
繡 2151
銜@@ 2151
Road 2149
ast@@ 2149
蔗 2149
郸 2149
洁@@ 2146
Andre@@ 2143
龔@@ 2142
mag@@ 2141
冀 2141
馳 2141
Sk@@ 2140
愚 2140
厘 2139
鋁 2139
绳@@ 2138
fac@@ 2137
嘎 2137
沫@@ 2137
铅@@ 2137
鴉 2137
low@@ 2136
pre@@ 2136
ture 2136
侃 2136
new 2135
樞 2135
Pow@@ 2134
Pri@@ 2134
bre@@ 2134
厉 2134
鳞 2133
ce@@ 2132
尘 2132
纏 2132
坊@@ 2131
浑@@ 2131
圃 2130
肚@@ 2130
Sa@@ 2129
鹼 2129
ange 2128
祺 2128
莒@@ 2126
匾@@ 2125
靶@@ 2125
hi 2124
濬 2124
class 2121
唤 2121
壹@@ 2121
搖 2121
椅@@ 2120
潰@@ 2120
邓 2120
厲@@ 2119
稳 2119
膝 2119
臧@@ 2119
Mis@@ 2116
繆@@ 2116
Bal@@ 2115
oo 2115
ters 2115
扯 2115
琰 2115
Force 2114
谥 2113
ee 2112
龟@@ 2112
Sing@@ 2111
オ 2111
Ter@@ 2110
ady 2110
誇@@ 2110
諱 2110
謠@@ 2109
艷@@ 2108
绵 2107
oma 2106
cap@@ 2105
匈 2105
綿 2105
敕 2104
诞 2103
锐@@ 2102
忧@@ 2101
铅 2100
arg@@ 2099
拾@@ 2099
筛@@ 2099
form@@ 2097
rel@@ 2097
ville 2097
廊@@ 2097
wood 2095
腎 2095
妝@@ 2094
ors 2093
sy@@ 2093
闯@@ 2093
鲸 2092
ds 2091
溥 2091
笙 2091
ever 2090
柜 2090
鳩 2090
劑@@ 2089
Chi@@ 2088
妈@@ 2088
amm@@ 2087
pa 2086
脸@@ 2086
à 2085
琶 2085
铀 2085
フ 2084
嶺@@ 2084
锂 2084
郵 2082
Pas@@ 2080
Ti@@ 2079
king 2078
廂@@ 2078
眷 2078
蠟@@ 2078
iki 2077
σ 2076
沁 2075
芽@@ 2075
厭 2073
蕴@@ 2073
tel@@ 2072
瀛 2072
猜 2072
圻 2070
颠@@ 2070
Sm@@ 2069
檻 2069
Mil@@ 2068
腔@@ 2068
赶 2067
War@@ 2066
摘 2066
泌@@ 2066
鸭 2065
Bus@@ 2064
у 2063
兜@@ 2063
蚊@@ 2063
谊@@ 2063
鼬 2063
so 2061
勛 2061
Hall 2060
field 2060
戍@@ 2060
泸@@ 2060
汲@@ 2059
匡 2057
潼@@ 2057
鞭 2057
挑 2056
ε 2054
叡 2054
嘆 2054
del@@ 2053
д 2053
oni@@ 2051
ding 2050
鹼@@ 2050
Rec@@ 2049
绒 2049
儂 2048
Pre@@ 2047
well 2047
Au@@ 2046
闊@@ 2045
ales 2044
絮 2044
穎@@ 2043
ρ 2042
Sou@@ 2041
ل 2041
← 2041
裘@@ 2041
暢 2040
Vid@@ 2039
垦 2038
庇 2038
悔@@ 2038
侠@@ 2037
衢@@ 2037
赣 2037
扑@@ 2036
烘@@ 2036
畸@@ 2036
輩@@ 2036
佑@@ 2033
励@@ 2033
紳@@ 2033
鉛 2033
肋 2032
萎@@ 2032
帥@@ 2031
悚@@ 2031
蘿 2030
ash@@ 2029
瞿@@ 2029
沂 2027
鯊@@ 2027
惹@@ 2026
ko 2025
厉@@ 2025
霰@@ 2025
Ru@@ 2024
飢@@ 2024
sub@@ 2021
悖@@ 2021
pos@@ 2020
South 2019
昧 2019
ex 2017
稷 2016
晤 2014
Hel@@ 2013
迹@@ 2013
夹 2012
edi@@ 2011
靴 2011
逾@@ 2009
Association 2007
Records 2007
inal 2007
ei 2006
騙@@ 2006
恤 2005
É 2004
ν 2002
辜@@ 2002
飘@@ 2002
绎 2001
Mot@@ 1999
乏@@ 1998
鈣 1997
鑿 1997
齣 1997
Web@@ 1996
ja 1996
use 1996
Vir@@ 1995
吟 1995
ici@@ 1993
Ob@@ 1992
劲 1992
邑@@ 1992
譚 1991
苷@@ 1990
頑@@ 1990
靡 1989
ette 1988
菁 1987
擱@@ 1986
燦@@ 1986
搏@@ 1985
day 1984
play 1984
芮@@ 1984
遙 1984
Rob@@ 1983
す 1983
姪 1982
岔 1982
惱 1982
簧@@ 1982
馈 1982
mann 1981
茉@@ 1981
Pan@@ 1980
吟@@ 1978
況@@ 1977
遵 1977
锥@@ 1977
枫@@ 1976
驰 1976
public 1974
‰ 1972
賃 1972
敘 1971
煉@@ 1970
磐@@ 1970
虧@@ 1969
棺 1967
馳@@ 1967
濠 1966
萧 1966
遴@@ 1966
甦 1964
碉@@ 1962
庸@@ 1961
North 1960
殲@@ 1960
annel 1959
颖@@ 1958
嘻@@ 1957
撃 1957
骂 1957
鬍 1957
鲤@@ 1957
Rus@@ 1956
聪 1956
︰ 1956
Roc@@ 1955
ez@@ 1955
濮@@ 1955
Best 1954
Le 1954
Sar@@ 1954
楷@@ 1954
濁@@ 1954
瑤 1954
暱 1953
産 1953
じ 1952
咽@@ 1952
陋 1952
this 1951
薰 1951
噸@@ 1950
ny 1949
war@@ 1949
Black 1947
cl@@ 1946
櫻 1946
Dig@@ 1945
朽 1945
蒋 1945
Sum@@ 1944
Na@@ 1942
坟@@ 1942
ian 1941
Max 1940
ke@@ 1940
rec@@ 1939
傾 1938
毫 1938
try 1935
WWE 1932
几 1932
侬 1931
礙@@ 1931
纜@@ 1931
臭 1931
鈕 1930
濃 1929
绣 1929
Mad@@ 1928
糯@@ 1928
Dar@@ 1926
佣 1924
僱 1923
浜 1923
anti@@ 1921
Du@@ 1920
Mir@@ 1920
trans@@ 1919
渥@@ 1919
谨@@ 1919
mat@@ 1918
楔@@ 1918
潞@@ 1918
铃 1918
Lee 1917
憤 1917
脆 1917
酬@@ 1917
蒸 1915
薹 1915
fe@@ 1914
煥 1914
鑲 1914
棱 1913
Lit@@ 1911
len 1910
凸 1910
cal 1909
紗@@ 1909
驾 1909
New@@ 1908
Tal@@ 1908
萌 1908
雁 1908
Ear@@ 1907
ira 1906
芷@@ 1906
ison 1905
Don 1903
ep 1903
枣@@ 1903
ez 1902
ã 1902
绒@@ 1902
ô 1898
佣@@ 1898
Fran@@ 1897
reg@@ 1897
キ 1896
羧@@ 1896
覓 1895
go 1894
灌 1894
瞻@@ 1893
弈 1892
汕 1892
To 1891
Henry 1889
Jean 1889
嬰 1888
loc@@ 1886
佬 1885
Internet 1883
隘 1883
猷 1882
pha 1881
墊 1881
斡@@ 1881
羲 1881
遏@@ 1881
烦 1880
裳 1880
鳍 1880
uz@@ 1879
尘@@ 1879
tes 1878
搁@@ 1877
皂 1877
ted 1875
っ 1875
夭@@ 1875
膺 1875
駝 1875
哆 1874
朋 1874
閔@@ 1874
滋 1872
ech 1871
凹 1871
詛@@ 1870
other 1869
ula 1869
扔 1869
ime 1868
橙 1868
浑 1868
跡@@ 1868
胺@@ 1867
Aut@@ 1866
tur@@ 1866
岔@@ 1866
爺@@ 1866
磺 1865
bert 1864
ems 1863
tem@@ 1863
晟 1863
檀 1863
磐 1863
绰@@ 1863
奚@@ 1862
栖 1861
粵 1860
苑@@ 1860
逵 1860
驕@@ 1860
sen 1859
畅 1858
缅 1858
貸 1858
eri 1857
滄@@ 1857
苟@@ 1856
つ 1855
詹 1855
ema 1854
蜡@@ 1854
United 1853
up 1853
倦 1853
茄@@ 1853
м 1852
ミ 1850
燮 1850
ace@@ 1849
face 1849
cer@@ 1848
own 1848
卧 1848
偕 1845
冻 1845
bor@@ 1844
ii 1844
芸 1844
挫 1842
锅 1841
Gl@@ 1840
ida 1840
挤 1840
ms 1839
兑@@ 1839
钊 1838
Chin@@ 1837
aga 1837
樵 1837
ature 1836
ets 1835
tis 1835
歲@@ 1835
贿 1835
寅@@ 1834
冶 1833
滞@@ 1833
煞@@ 1833
Joseph 1832
滤 1832
璽 1832
瀋 1831
肪@@ 1831
δ 1830
蹄 1830
azine 1829
light 1829
汐@@ 1829
Martin 1828
Prot@@ 1828
兇 1825
渣 1825
耐 1825
コ 1824
Tre@@ 1823
att@@ 1823
τ 1823
吨@@ 1823
Ki@@ 1822
叢 1821
稚@@ 1821
镍 1820
Cur@@ 1819
eci@@ 1819
els 1819
vol@@ 1819
甥 1819
萃 1819
侗@@ 1818
濂 1817
竿 1816
躺 1816
昨@@ 1815
壕 1814
蒐@@ 1813
凶 1812
靂 1812
Pu@@ 1811
sur 1811
呆 1811
Ca@@ 1810
ond@@ 1810
鬱@@ 1810
her@@ 1809
inn@@ 1809
km@@ 1809
鰻@@ 1808
勐@@ 1807
壢 1807
绑 1805
谟 1805
謨 1804
寰 1802
Lev@@ 1801
鲨@@ 1800
洙 1799
菅@@ 1799
潑 1798
瞻 1798
顽@@ 1798
ond 1797
佚 1797
谐@@ 1797
ster@@ 1796
噪 1796
帐 1796
DR 1795
潍@@ 1795
rom@@ 1794
堇 1794
Nav@@ 1793
槃 1793
猿@@ 1793
饋 1793
ans@@ 1792
篩@@ 1792
鋁@@ 1792
Grand 1791
Tom@@ 1789
cur@@ 1789
ft 1789
懸 1788
橇 1787
斋@@ 1786
☆ 1785
冗@@ 1785
夔 1785
ku@@ 1784
窩@@ 1784
can@@ 1783
撈 1783
ns 1782
冉@@ 1781
嫻 1781
Hal@@ 1778
^ 1777
柑@@ 1777
San@@ 1776
兖@@ 1776
澜 1776
芋 1776
River 1773
芥@@ 1773
餉 1773
砸 1772
澈 1771
蠕@@ 1771
刮@@ 1768
鲨 1768
睦@@ 1767
孛 1766
枫 1766
薛 1766
劲@@ 1765
爐@@ 1765
Chil@@ 1764
搏 1764
臂@@ 1764
err@@ 1763
son@@ 1763
敞@@ 1763
琮 1763
濫 1762
贷 1762
Vic@@ 1761
ree 1761
緬 1761
沽 1758
僖@@ 1757
妃@@ 1757
eter@@ 1756
嘯 1756
汙@@ 1756
蔭 1756
鞑@@ 1756
Ur@@ 1754
咤 1754
羰@@ 1754
蒜 1754
ba 1753
Star@@ 1752
泄 1752
tim@@ 1751
祉 1751
飄@@ 1751
Japan 1750
廖 1750
魄 1749
Ale@@ 1748
bel@@ 1745
ort 1745
吵 1745
炫@@ 1745
芮 1745
Ra@@ 1744
艏 1744
苞 1744
Mur@@ 1743
ille 1743
凝 1743
Mul@@ 1742
埤 1742
缝@@ 1742
咎 1741
緝@@ 1741
荫 1741
Rem@@ 1740
娛 1740
朕 1740
骗@@ 1740
Super@@ 1738
錐 1737
Squ@@ 1734
斛 1734
俸 1733
Radio 1732
fi@@ 1732
嚇@@ 1732
笃@@ 1732
餅@@ 1731
醋 1729
Rad@@ 1727
й 1726
Coun@@ 1725
堰@@ 1725
elec@@ 1723
Ham@@ 1720
Mak@@ 1720
穴@@ 1720
塌@@ 1719
寵 1719
渝@@ 1719
fre@@ 1718
ς 1717
厝@@ 1717
綁@@ 1717
諮@@ 1717
Que@@ 1716
rit@@ 1716
褚@@ 1716
瞞 1715
穫 1715
铵 1715
誘 1714
唑 1712
孀 1712
篠 1712
罢 1712
鳚 1712
Hot@@ 1711
舱@@ 1711
Ta@@ 1710
act 1709
テ 1709
ide 1708
勻 1708
嫉@@ 1708
堕@@ 1707
ona 1705
ost@@ 1705
勾 1705
熵 1705
鰈 1705
ther 1704
拨 1704
枢 1703
ple 1702
唔 1702
ナ 1701
ken 1700
灶 1700
锥 1700
驼 1700
Smith 1698
纏@@ 1698
腫 1698
Juni@@ 1697
uch@@ 1696
淇 1696
薑 1696
Bab@@ 1694
This 1694
凿 1694
婴 1693
捞 1693
虔 1691
撼 1690
谏 1688
沌 1687
澱 1687
酗@@ 1687
闽 1687
乂 1686
紗 1686
Jan@@ 1685
pu@@ 1685
侄 1685
诬@@ 1685
press 1684
嫔 1684
竭@@ 1684
ī 1683
叹 1683
炯@@ 1683
isa 1682
lis 1682
戛@@ 1682
焕 1682
Blue 1681
蘚 1681
very 1680
ix 1679
刁@@ 1679
竇@@ 1678
over 1676
忙@@ 1676
鈔 1676
--@@ 1675
Bri@@ 1675
erry 1675
All@@ 1674
樁 1674
Harr@@ 1673
tics 1673
墾@@ 1673
暮@@ 1673
earch 1672
謬@@ 1672
struc@@ 1671
ウ 1671
鈍 1671
Studi@@ 1670
妳 1670
や 1669
暑 1669
薨 1669
oll@@ 1668
癮 1667
稀 1667
豔 1667
Nov@@ 1666
attle 1666
ブ 1666
檳@@ 1666
鑰@@ 1666
渾@@ 1665
昕 1664
Ye@@ 1663
瑶 1663
蹈@@ 1663
筠 1661
貶 1661
ution 1660
ι 1660
帧 1660
he 1659
宸 1659
酱 1659
镁 1659
left 1658
縛 1658
Tom 1657
煩@@ 1657
tical 1656
巔@@ 1656
妝 1655
幌@@ 1655
擠@@ 1655
轎@@ 1655
ome@@ 1654
tive 1654
傭 1654
携 1654
炀@@ 1654
甬@@ 1654
粟 1654
ple@@ 1652
ful 1651
牽 1651
Young 1650
斩 1650
糞 1650
躁 1650
Juli@@ 1649
League 1649
Mem@@ 1649
Sun@@ 1649
樸@@ 1649
汝 1649
擒@@ 1648
篤@@ 1648
尬 1647
win 1646
俩 1646
殭 1646
Art 1645
倭 1645
荧@@ 1645
棚@@ 1644
喚@@ 1643
摸@@ 1643
ñ 1642
だ 1642
愁 1642
釀 1642
遮 1641
Camp@@ 1640
« 1640
瀉 1640
炔 1640
fer@@ 1639
ten 1639
谣@@ 1638
Eri@@ 1637
West 1637
set 1637
朵@@ 1637
饑 1637
cus 1636
pro@@ 1636
眶 1636
粤 1636
耍 1636
裙@@ 1635
楨 1634
Cer@@ 1633
掙@@ 1633
殆@@ 1633
砌@@ 1633
脾@@ 1633
iti@@ 1632
form 1631
倾 1631
溧@@ 1631
訝 1631
贖@@ 1631
醣 1631
gar@@ 1630
悄@@ 1630
螈 1630
sin@@ 1629
anus 1628
ng@@ 1628
sho@@ 1628
淋 1628
綜 1628
die 1627
span 1627
轍 1627
ater 1626
State 1625
サ 1625
槟 1625
泪 1623
嘗 1622
Clar@@ 1621
牒 1621
琥@@ 1621
繳 1621
雉 1621
Elec@@ 1620
Island 1620
勿@@ 1620
圾@@ 1620
誣@@ 1619
aya 1618
洼@@ 1618
昱 1617
谨 1617
氹 1616
秃@@ 1616
葆@@ 1615
蟬 1615
褒 1615
wh@@ 1612
Cro@@ 1611
渚 1611
绞@@ 1611
unt 1610
阡@@ 1610
輾@@ 1609
Blo@@ 1607
pres@@ 1606
吓 1605
Sir 1604
onn@@ 1604
耆@@ 1604
邏 1603
兌@@ 1602
綸 1602
靳@@ 1602
los@@ 1601
妊@@ 1601
Top 1600
ids 1600
仆 1599
扫 1599
粥 1599
驿@@ 1599
蜗@@ 1598
﹐ 1597
Not@@ 1596
胖@@ 1596
lie 1595
淇@@ 1595
鉛@@ 1595
sk@@ 1594
嶋 1594
蠅 1594
彼 1593
恥 1593
锯@@ 1593
駭@@ 1593
渥 1592
sur@@ 1591
tu 1591
颂@@ 1591
ts@@ 1590
诛@@ 1590
掷 1589
Leg@@ 1587
idge 1586
ima 1586
婺@@ 1586
盔@@ 1586
壳@@ 1585
Ha@@ 1584
Lam@@ 1583
戍 1583
榔 1583
欖 1583
鍾@@ 1583
锻@@ 1583
ste@@ 1581
挤@@ 1580
瞰 1580
ua 1579
羚@@ 1579
瑋 1578
Mich@@ 1577
拌 1577
Gol@@ 1576
Steph@@ 1576
ko@@ 1576
謊@@ 1576
Institute 1575
ern@@ 1574
des@@ 1573
yan 1573
毗 1572
蘆 1572
蚁 1572
﹑ 1572
Dav@@ 1571
檸@@ 1571
咪@@ 1570
敖 1570
闹@@ 1570
Eu@@ 1569
self 1567
ω 1567
洽@@ 1566
瑄 1566
Gro@@ 1565
ム 1565
檬@@ 1565
韶 1564
溢 1563
ental 1562
膳 1562
脖@@ 1561
Sel@@ 1560
Bir@@ 1559
聊 1559
豹@@ 1559
til@@ 1558
zo 1558
譽@@ 1558
Kir@@ 1557
谭 1557
ling 1556
楓@@ 1556
鲸@@ 1556
ine@@ 1553
唸 1553
燦 1553
鋪@@ 1553
Ci@@ 1552
Hum@@ 1552
po 1552
ski 1552
峪@@ 1552
Corpor@@ 1551
Asia 1550
che 1550
ties 1550
垮@@ 1550
vice 1549
エ 1549
泼@@ 1549
Bank 1548
プ 1548
肤@@ 1548
骏 1548
Society 1547
put@@ 1546
叻 1546
栈 1545
sti@@ 1544
惜@@ 1544
廬@@ 1543
讳 1543
盼 1542
荡@@ 1542
驛 1542
eld 1541
ams 1540
top 1540
乎@@ 1540
杏 1540
硼 1539
雳 1539
ado 1538
膳@@ 1538
饿 1538
Eur@@ 1537
mb@@ 1537
碟@@ 1537
ins@@ 1536
亏@@ 1536
芸@@ 1536
媚 1535
Jack 1534
攸@@ 1534
慷@@ 1533
轿@@ 1533
wa 1532
och@@ 1531
畑@@ 1531
仑@@ 1529
庞 1529
汾 1529
庐 1528
摇 1528
鋰 1528
龕 1528
萃@@ 1527
蟾@@ 1527
Nic@@ 1526
atr@@ 1526
寡 1526
残 1526
窯 1526
隋 1526
摆 1525
垣@@ 1524
縫@@ 1524
which 1523
伎 1522
桩 1522
煥@@ 1522
砷 1522
诈@@ 1522
Av@@ 1521
ole 1521
悍 1520
赎@@ 1520
Bul@@ 1519
ason 1519
tain 1519
羈@@ 1519
瀛@@ 1517
陂 1517
謎@@ 1516
ze@@ 1515
爽@@ 1515
bar@@ 1514
ular 1514
ə 1514
蛮@@ 1514
飽@@ 1514
拐@@ 1512
偕@@ 1511
ross 1510
チ 1509
昵@@ 1509
诵 1509
Ly@@ 1507
Far@@ 1505
冢 1505
gre@@ 1504
tus 1504
撾 1504
璜 1504
aceae 1503
enc@@ 1503
妒 1503
Rock 1502
acc@@ 1502
惕 1502
鉅 1502
Ban@@ 1501
琦@@ 1501
踪@@ 1501
嬌 1500
醇@@ 1500
刹@@ 1499
簇 1499
can 1498
las 1497
་ 1497
韌@@ 1497
lin 1496
暱@@ 1496
獄@@ 1496
篆@@ 1496
韃@@ 1496
殴@@ 1495
よ 1494
Pic@@ 1493
more 1493
聆@@ 1493
グ 1492
弯 1491
ty@@ 1490
鮨 1490
fer 1489
赂 1489
垫 1488
筋@@ 1488
ila 1487
柵@@ 1487
Open 1486
eph@@ 1486
衷@@ 1486
遥 1486
Tour 1485
佥@@ 1485
呀 1485
舵@@ 1485
栅@@ 1484
red 1482
雌 1482
isi@@ 1481
绅 1480
Wol@@ 1479
涪@@ 1479
瀾 1478
ニ 1477
丕@@ 1477
Award 1475
ein@@ 1475
we 1475
閏 1475
Billboard 1474
First 1474
side 1474
ham 1472
oto 1472
轶@@ 1472
Church 1471
Mont@@ 1471
alm@@ 1470
ela 1470
White 1469
vic@@ 1469
蟬@@ 1469
iller 1467
傻@@ 1467
襪@@ 1467
apo@@ 1466
攤 1466
eme 1465
嫡 1465
淞 1465
踩 1464
Patr@@ 1463
皿 1461
» 1460
岱@@ 1460
苛@@ 1459
慘 1458
歪@@ 1458
mas@@ 1457
け 1457
苞@@ 1457
Fri@@ 1455
廁 1455
槐 1455
デ 1454
ャ 1454
Commun@@ 1453
Ev@@ 1453
Mid@@ 1453
ache 1453
fa@@ 1453
訟@@ 1453
辟@@ 1453
蕙 1452
蠢 1452
嵐 1451
葡 1451
鷲 1451
cal@@ 1450
梧 1450
鹦@@ 1450
ato 1449
蘊@@ 1449
詭@@ 1449
Do 1448
掣 1448
暇 1448
葱 1448
鉉 1448
Mary 1447
ali 1447
埤@@ 1447
攏 1446
瀚 1444
褶@@ 1444
Louis 1443
絨 1443
lobal 1442
坳 1442
窃@@ 1442
Pin@@ 1441
Green 1440
贛@@ 1440
晃@@ 1439
湳 1439
璟 1439
For 1438
翎 1438
跪 1438
骄@@ 1438
tre@@ 1437
氓 1437
酮@@ 1437
ear@@ 1436
isti@@ 1436
俸@@ 1436
剃@@ 1436
荫@@ 1436
Rog@@ 1435
肿 1435
Lab@@ 1434
芜 1434
钮 1433
麴 1433
prin@@ 1432
懋 1432
芦 1432
ness 1431
岷@@ 1430
澜@@ 1430
玺 1430
璞 1430
邺 1430
隴@@ 1430
鉀 1429
East 1428
兜 1428
匝@@ 1428
遗 1428
ays 1427
バ 1427
奄@@ 1427
榆 1427
瘦 1427
冤 1426
擂@@ 1426
晏 1426
Oc@@ 1425
long@@ 1425
ont 1425
兗@@ 1425
嗜 1425
鄱@@ 1425
鷗 1425
Ig@@ 1424
tan@@ 1424
擄 1424
枕 1424
滞 1424
Dor@@ 1423
Sub@@ 1423
Ⅱ 1423
丫@@ 1423
艳 1423
莹 1423
诠@@ 1423
ther@@ 1422
楞 1421
Spe@@ 1420
吼 1419
宠 1419
gl@@ 1418
倩 1418
Maria 1417
Ran@@ 1417
ili 1417
滩@@ 1417
稟 1417
钉 1416
De 1415
une 1415
僚@@ 1415
桢 1415
謊 1415
Arts 1414
Dec@@ 1414
eri@@ 1414
oa 1414
貧 1414
lam@@ 1413
bus 1411
哇@@ 1411
吠@@ 1410
噬@@ 1410
玟 1410
Tro@@ 1409
竊@@ 1409
贖 1409
償@@ 1408
绸@@ 1408
Beau@@ 1407
ett 1407
椒@@ 1407
VII 1406
曳 1406
view 1405
挾@@ 1404
闹 1404
ail 1403
я 1403
煞 1403
邮 1403
ae@@ 1402
灼@@ 1402
秒@@ 1402
翊@@ 1402
靶 1402
Kor@@ 1401
Laur@@ 1401
mu@@ 1401
Phil@@ 1400
銓 1400
蛺@@ 1399
蝸@@ 1399
衬@@ 1399
谓@@ 1399
plic@@ 1398
Cin@@ 1397
Spr@@ 1397
媛@@ 1397
忻@@ 1397
撓 1397
VI 1396
ington 1396
璇 1396
瘋 1396
拇@@ 1395
昔 1394
Kin@@ 1393
General 1392
have 1392
š 1392
Az@@ 1391
dition 1391
│ 1391
倩@@ 1391
愧 1391
擅 1391
椿 1391
Ko@@ 1390
ops 1390
锈@@ 1390
Jac@@ 1389
昼@@ 1389
蔥 1389
Sen@@ 1388
cas@@ 1388
icul@@ 1388
訶@@ 1388
钞 1388
ega 1387
孢 1387
sen@@ 1385
妲 1385
飪 1385
Edward 1384
斂 1384
斧@@ 1384
査 1384
螂 1384
down 1383
ough 1383
毓 1383
俭 1382
僻 1381
喊@@ 1381
悅@@ 1381
楞@@ 1381
洩 1381
矯@@ 1381
詐@@ 1381
κ 1380
赢 1380
鼩 1380
El 1379
oni 1379
vel@@ 1379
ュ 1379
Rom@@ 1378
睞 1378
肇 1378
Sin@@ 1377
tom@@ 1377
黛 1377
Cir@@ 1376
叭 1376
dic@@ 1375
don 1375
姨@@ 1375
迭 1375
Dem@@ 1374
bur@@ 1374
湧 1374
芥 1374
Han@@ 1373
oper@@ 1373
迺@@ 1373
雏@@ 1373
况@@ 1372
叮@@ 1372
妆 1372
襯@@ 1372
鳅 1372
敞 1371
Syst@@ 1370
癱@@ 1370
Tow@@ 1369
鄺@@ 1369
饷 1369
г 1368
绣@@ 1368
鸞 1368
len@@ 1366
匆@@ 1366
焘 1366
Ba@@ 1365
nh@@ 1365
弥 1365
儉 1364
喃 1364
ィ 1363
禍@@ 1363
诈 1363
ating 1362
攀 1362
趋 1362
彥@@ 1361
洮@@ 1361
厢@@ 1360
Doc@@ 1359
昶 1359
纂@@ 1359
鏢 1359
stein 1358
龛 1358
yon@@ 1357
佟@@ 1356
涿@@ 1356
臼@@ 1355
麒 1355
ri 1354
灑 1354
熄@@ 1354
鵰 1353
鑄 1352
Party 1351
パ 1351
硕 1351
Hill 1350
ن 1350
碁 1350
Cu@@ 1348
men@@ 1348
歙@@ 1348
ê 1347
伶 1347
煎 1347
蝽 1347
嘱 1346
墜 1346
樟 1346
Rel@@ 1345
廚 1345
颍@@ 1345
Fil@@ 1344
Liv@@ 1344
彌 1344
艋 1344
旌@@ 1343
沅@@ 1343
瘓 1342
蕃@@ 1341
Bet@@ 1340
zi@@ 1340
虧 1340
agement 1339
cast 1339
una 1339
僉 1339
檗 1339
ius 1338
ji 1338
mil@@ 1338
ر 1338
舺 1338
黴@@ 1338
air 1337
崧 1337
碰 1337
胥 1337
蓼 1336
As 1335
her 1335
iness 1335
ハ 1335
杠 1335
卿@@ 1334
堯@@ 1334
脅@@ 1334
葺 1334
Meg@@ 1333
え 1333
寝 1333
秩 1333
骁@@ 1332
撿 1331
歴 1331
elop@@ 1330
Shi@@ 1329
纱@@ 1329
骷@@ 1329
let 1328
tory 1328
eus 1327
沾@@ 1327
Pa@@ 1326
ip@@ 1326
わ 1326
誡 1326
鎂 1326
Syn@@ 1325
締 1325
鹏@@ 1325
Conn@@ 1324
iy@@ 1324
咐 1324
囑 1324
鏽 1324
賂 1322
Phili@@ 1321
lat@@ 1321
web 1321
峨 1321
蝦@@ 1321
桅@@ 1320
殯@@ 1320
Royal 1319
绩@@ 1319
缠@@ 1319
Soci@@ 1318
has 1318
wal@@ 1318
頰 1318
辱@@ 1317
С 1316
istr@@ 1315
ship 1315
wan@@ 1315
屎 1315
黯@@ 1315
扼@@ 1314
潟@@ 1314
蓟@@ 1314
199@@ 1313
Lang@@ 1313
Ol@@ 1313
eng 1313
煎@@ 1313
Plan@@ 1312
prot@@ 1312
var 1312
伶@@ 1312
僉@@ 1312
剔@@ 1312
Geor@@ 1311
Hon@@ 1311
ß 1311
钻 1311
螨 1310
mor@@ 1309
were 1309
赁 1309
Boy@@ 1308
ih@@ 1307
倘@@ 1307
mus@@ 1306
膚@@ 1306
艳@@ 1306
Il@@ 1305
η 1305
Alexander 1304
Mu@@ 1304
bas@@ 1304
first 1304
琉 1304
薯@@ 1304
Awards 1303
● 1303
檎 1303
诰 1303
Scott 1302
Tar@@ 1302
匠@@ 1302
沥@@ 1301
籽 1301
践@@ 1301
辗@@ 1301
垦@@ 1299
壤@@ 1299
钩@@ 1299
驸@@ 1299
Daniel 1297
捆@@ 1297
滁@@ 1297
ier 1296
Journ@@ 1295
our@@ 1295
沽@@ 1295
笈 1295
逍@@ 1294
醮 1294
鬧@@ 1294
sim@@ 1293
缚 1291
thi@@ 1290
瀝@@ 1290
缴 1290
凋@@ 1289
world 1288
錘 1288
髒 1288
Vel@@ 1287
墘 1287
櫛@@ 1287
art@@ 1285
cher 1285
hor@@ 1285
唤@@ 1285
謬 1285
Dou@@ 1284
Mos@@ 1283
瑤@@ 1283
驰@@ 1282
ado@@ 1281
tin@@ 1281
ガ 1281
垫@@ 1281
Great 1280
Loc@@ 1280
dec@@ 1280
wo 1280
莘@@ 1280
Rap@@ 1279
uf@@ 1279
宵@@ 1277
醯 1277
钴 1277
Os@@ 1276
潢 1276
艙@@ 1276
貌@@ 1275
lum 1274
咏@@ 1274
遁 1274
acy 1273
coun@@ 1273
锤 1272
ality 1268
opsis 1268
窒@@ 1268
窖 1268
Mari@@ 1267
掖 1267
兀 1266
徘@@ 1266
梵 1266
榄 1266
緒@@ 1266
腕@@ 1266
Progr@@ 1265
udi@@ 1265
yo 1264
刪 1264
Cul@@ 1263
get 1263
Ind@@ 1262
con 1262
堺 1261
晦 1261
槐@@ 1261
皂@@ 1261
yle 1260
ひ 1260
洼 1260
Tim@@ 1259
ik 1259
湊@@ 1259
舷@@ 1259
onal 1258
孺 1258
綾@@ 1257
蚕@@ 1257
メ 1256
拂@@ 1256
lia 1255
sian 1254
憎@@ 1254
焕@@ 1253
苳 1253
莺 1253
п 1252
ダ 1251
佗 1251
proc@@ 1250
咳@@ 1249
騷 1249
奘 1248
滯@@ 1248
胥@@ 1248
dan 1247
攜 1247
蘑@@ 1247
sec@@ 1246
孺@@ 1246
win@@ 1245
his 1244
婢 1244
Kn@@ 1243
彬@@ 1243
柩 1243
賭 1243
鹃@@ 1243
off 1242
res 1242
佃@@ 1242
Dol@@ 1241
肘 1241
膀@@ 1241
姨 1240
阙 1240
ats 1239
Fer@@ 1238
hr@@ 1238
lem@@ 1238
砸@@ 1238
彝 1237
魮 1237
Frank 1236
ering 1236
侈 1236
勵@@ 1236
拙 1236
Hot 1235
asi@@ 1235
fic 1235
Mol@@ 1233
She@@ 1233
let@@ 1233
歳 1233
涧 1233
誥 1233
Brown 1232
釉 1232
鬣@@ 1232
鹘 1232
May@@ 1231
ati 1231
eth 1230
yst@@ 1230
烽@@ 1230
皓@@ 1230
裴 1230
But@@ 1229
瘫@@ 1229
Union 1228
erg@@ 1228
鞍 1228
餵 1228
antas@@ 1227
坟 1227
湍@@ 1227
Bon@@ 1226
螯 1226
″ 1225
妆@@ 1225
Lake 1224
yn 1224
嚮 1224
曬 1224
Sor@@ 1223
ret@@ 1223
War 1222
悦@@ 1222
腭 1222
谎@@ 1221
off@@ 1220
刹 1220
蝇 1220
Mah@@ 1219
ein 1219
抬 1219
歉@@ 1219
栃 1218
膛@@ 1218
荼 1218
esp@@ 1217
煜 1217
睾@@ 1217
闰 1217
沱@@ 1216
log@@ 1215
蠻@@ 1215
char@@ 1214
system 1214
栓@@ 1214
comp@@ 1213
ister 1213
徊 1213
灶@@ 1213
贬 1213
滦@@ 1212
堃 1211
弼@@ 1211
簷 1211
账 1211
act@@ 1210
蔔 1210
inus 1209
θ 1209
筱@@ 1209
谜 1209
Pat@@ 1208
焰@@ 1208
He 1207
cy 1207
ito 1206
嗓@@ 1206
骚 1206
Bay 1205
忱 1205
桅 1205
绸 1205
謗 1205
mel@@ 1204
冼@@ 1204
娩 1204
癖 1204
ights 1203
喇 1203
鑰 1203
Cup 1202
檯 1201
蔗@@ 1201
Ku@@ 1200
Joe 1199
York 1199
ي 1199
槌 1199
璐 1198
繕 1198
甯 1197
痪 1197
Sand@@ 1196
崴 1196
挠 1196
疣 1196
Santa 1195
瀧@@ 1194
Pen@@ 1193
抢 1193
Kon@@ 1192
Lou@@ 1192
ier@@ 1192
凳 1191
馴@@ 1191
ë 1189
ō 1188
婁@@ 1188
趾@@ 1188
م 1187
膏@@ 1187
鲷 1187
筲@@ 1186
198@@ 1185
ビ 1185
钝 1185
闖 1185
entr@@ 1184
め 1184
琅@@ 1184
顛 1184
驯@@ 1184
ь 1183
佘@@ 1183
惇 1183
郴@@ 1182
蔽@@ 1181
蟹@@ 1181
霉 1181
tho@@ 1180
纶 1180
蜱 1180
Kur@@ 1179
emb@@ 1179
廓@@ 1179
轎 1179
鈔@@ 1179
but 1178
tra@@ 1178
wn 1178
攔 1178
笃 1178
臼 1178
韬 1178
serv@@ 1177
tion@@ 1177
屠 1177
炉@@ 1177
tia 1176
垮 1176
釜 1176
Lis@@ 1175
櫚@@ 1175
糸 1175
镶 1174
燭 1173
衮 1173
Stand@@ 1172
inae 1172
寞 1172
揽 1172
杞 1172
inger 1171
Pop@@ 1169
ces 1169
胄 1169
讽 1169
ely 1168
铉 1167
髻 1166
az 1165
僭 1165
忒@@ 1165
Les 1164
su 1164
賄 1164
踝 1164
An 1163
not@@ 1163
tal@@ 1163
喆 1163
嬉@@ 1163
磋@@ 1163
φ 1162
薰@@ 1162
鸠 1162
Town 1161
mis@@ 1161
樽 1161
莪 1161
粲 1160
艇@@ 1160
cha 1159
鞠@@ 1158
鵬@@ 1158
Gh@@ 1157
沾 1157
Christian 1156
羣 1156
鈎 1156
钛 1156
Cel@@ 1155
Museum 1155
yg@@ 1155
Ath@@ 1154
uel 1153
捏@@ 1153
犀 1153
膦 1153
Gil@@ 1152
Ram@@ 1152
Tou@@ 1152
arm@@ 1152
杞@@ 1152
柠@@ 1152
綢 1152
賺@@ 1151
郸@@ 1151
鎚 1151
饪 1151
WW@@ 1150
alis@@ 1150
ger@@ 1150
pin@@ 1149
― 1149
ょ 1149
纱 1149
铬 1149
瘾 1148
onia 1147
urs 1147
瑰@@ 1147
榴 1146
咏 1145
窄@@ 1144
驹 1144
泵@@ 1143
綺@@ 1143
Don@@ 1142
FIFA 1142
Micro@@ 1142
ろ 1141
殲 1141
泼 1141
艉 1141
鋅 1141
钥@@ 1141
kin 1140
sky 1140
吒 1140
嗅@@ 1140
痴@@ 1140
羁@@ 1140
謁 1140
鈦 1140
Council 1139
竄 1138
祸@@ 1137
DV@@ 1136
珉 1136
耻 1136
肄@@ 1136
＋ 1136
ven 1135
鎧@@ 1135
bo 1134
ule 1134
缔 1134
圩 1133
妤 1133
鱇 1133
Land@@ 1132
Lor@@ 1132
nch@@ 1132
卅@@ 1132
糟 1132
ck 1131
么@@ 1131
驿 1131
back 1130
ume 1130
糕@@ 1130
eti@@ 1129
闕 1129
鴿 1129
case 1127
莽@@ 1127
蔑 1126
釉@@ 1126
禱@@ 1125
跪@@ 1125
闇 1125
fri@@ 1124
荥@@ 1124
疵 1123
鮭 1123
ust@@ 1122
浊 1122
艷 1122
kin@@ 1121
ves 1121
ying 1121
ban@@ 1120
ais 1119
data 1119
pan@@ 1119
two 1119
ul 1119
弩 1119
耿 1119
麽 1119
yan@@ 1118
蟒 1118
dium 1117
翹 1117
Pap@@ 1116
men 1116
稠 1116
絞@@ 1116
鮟 1116
non 1115
onald 1115
捧@@ 1115
氾 1115
渦 1115
翊 1115
峻@@ 1114
Jus@@ 1113
London 1113
愷 1113
itz 1112
宕 1111
挡@@ 1111
Maj@@ 1110
pop 1110
奬 1110
聆 1110
匣@@ 1109
Bern@@ 1108
Den@@ 1108
б 1108
馏 1108
嫂 1107
尝 1107
柚@@ 1107
邵 1107
Bat@@ 1106
倪 1106
兮 1106
Ash@@ 1105
ga 1105
羞 1105
逕 1105
ret 1104
噴 1104
诱 1104
琨 1103
蝎@@ 1103
ald 1102
yo@@ 1101
锰 1101
Plat@@ 1100
ean 1100
拢 1100
Bru@@ 1099
bro@@ 1099
tern 1099
廬 1099
矚@@ 1099
gen 1098
⋯ 1098
履 1098
佤@@ 1097
呤 1097
夾 1097
扭 1097
畠 1097
裤 1097
誹@@ 1097
America 1096
Centre 1095
under@@ 1095
厕@@ 1095
拐 1095
檬 1095
Fal@@ 1094
剎@@ 1094
＂ 1094
ox@@ 1093
Tay@@ 1092
唾@@ 1092
诫 1092
谅 1092
How@@ 1091
ズ 1091
碇 1091
荆 1091
贩 1091
驟@@ 1091
Festival 1090
don@@ 1090
塚@@ 1090
腈 1090
Cast@@ 1089
Ox@@ 1089
摔 1089
撇@@ 1089
穹 1089
膩 1089
Enter@@ 1088
楣 1088
镀@@ 1088
顱@@ 1088
chin@@ 1087
qui@@ 1087
ы 1087
峪 1087
缉@@ 1087
蕉@@ 1087
Mach@@ 1085
ines 1085
灘@@ 1085
脇 1085
鷺 1084
Cle@@ 1083
cop@@ 1083
檐@@ 1083
泪@@ 1083
臥 1083
麼@@ 1083
Sem@@ 1082
吵@@ 1082
茛@@ 1082
蘊 1082
alth 1081
璘 1081
ef 1080
ext 1080
丐 1080
颅@@ 1080
action 1079
chil@@ 1079
槭 1079
幽 1078
曜@@ 1078
蕈 1078
鋸 1078
閑 1078
Chap@@ 1077
Tan@@ 1077
恺 1077
鐮@@ 1077
钓 1077
Franc@@ 1076
main 1076
蔑@@ 1076
oug@@ 1075
vil 1075
媳@@ 1075
sw@@ 1074
緋@@ 1074
婉 1073
醬@@ 1073
Sav@@ 1072
hin@@ 1072
vis@@ 1072
蚜 1072
髓@@ 1072
Central 1071
汛 1071
鮭@@ 1071
hal@@ 1070
less 1070
佬@@ 1070
uy@@ 1069
³ 1069
谜@@ 1069
Acc@@ 1068
fil@@ 1068
ket@@ 1068
seud@@ 1068
瀕 1068
競 1068
ani@@ 1067
厌 1067
暈 1067
aft 1066
ч 1066
ø 1065
贻@@ 1065
GC 1064
ser 1064
モ 1064
揭 1064
褲@@ 1064
А 1063
瑕@@ 1063
竺@@ 1063
诽@@ 1063
狡@@ 1062
涨@@ 1061
玖 1061
褐 1061
迥@@ 1061
bal@@ 1060
ci 1060
syn@@ 1060
巒 1060
愤 1060
暮 1060
漱@@ 1060
猝@@ 1060
Form@@ 1059
Pierre 1059
anga 1059
滥 1059
瞳@@ 1059
荊 1059
镰@@ 1059
Kan@@ 1058
cin@@ 1058
ē 1058
帅@@ 1058
搜 1058
赚@@ 1058
elli 1057
kar@@ 1057
晷 1057
宦 1056
蔓 1056
凑 1055
喘 1055
櫸 1055
uti@@ 1054
峭@@ 1054
邂@@ 1054
鹉 1054
梢 1053
藜 1053
aus 1052
焉@@ 1052
绛 1052
Prim@@ 1051
aux 1051
ide@@ 1051
ando 1049
emp@@ 1049
蔻 1049
Arch@@ 1048
Bos@@ 1048
刮 1048
昊@@ 1048
］ 1048
ols 1047
扔@@ 1047
祷@@ 1047
酱@@ 1047
肾 1046
逅 1046
颁 1046
扈@@ 1045
鞅 1045
Men@@ 1044
bar 1044
鹛 1044
Kal@@ 1043
eff@@ 1043
哩@@ 1043
胱 1043
＝ 1043
懲 1042
邕 1042
咕@@ 1041
咽 1041
惰@@ 1040
［ 1040
Football 1039
kl@@ 1039
П 1039
婪 1039
碲 1039
鈕@@ 1039
麝@@ 1039
Yah@@ 1038
潼 1038
Ben 1037
ele 1037
ū 1037
踞 1037
銃 1037
鳃 1037
Hug@@ 1036
Med@@ 1036
aka 1035
asa 1035
oks 1035
sal@@ 1035
豌@@ 1035
頤 1035
Joh@@ 1034
lor 1034
叟 1034
碾@@ 1034
輿 1034
嘧@@ 1033
و 1032
Kit@@ 1029
Publi@@ 1029
Rol@@ 1029
壠 1029
笋 1029
羹 1029
萍@@ 1029
Est@@ 1028
罄 1028
aki 1027
esa 1027
Δ 1027
せ 1026
曇 1026
Feder@@ 1025
ault 1025
bil@@ 1025
bir@@ 1025
懈 1025
纤 1025
蓉@@ 1025
Jer@@ 1024
Si 1024
Van 1024
ld 1024
蝗@@ 1023
Anth@@ 1022
Math@@ 1022
active 1022
溜 1022
煦 1022
贮@@ 1022
夸 1021
柿@@ 1021
蜆 1021
谤 1021
ami 1020
貪 1020
into 1019
巅@@ 1019
泾 1019
assi@@ 1018
瘤@@ 1018
韧@@ 1018
cat@@ 1017
ye@@ 1017
戳 1017
炫 1017
炯 1017
疟@@ 1017
瞒 1017
诅@@ 1017
鼐 1017
Song 1016
tig@@ 1016
錨 1016
Famil@@ 1015
bun@@ 1015
勖 1015
卦@@ 1015
挣@@ 1015
Cath@@ 1014
Su 1014
cep@@ 1014
leg@@ 1014
斡 1014
渾 1014
ider 1013
脷 1013
菸@@ 1013
隍@@ 1013
Ak@@ 1012
Oli@@ 1012
had 1012
icro@@ 1012
xi@@ 1012
睐 1012
rey 1011
瓚 1011
絃 1011
蚓 1011
诃 1011
den@@ 1010
嗽 1010
蚌 1010
Marie 1009
Fut@@ 1008
ont@@ 1008
弁 1008
枣 1008
諦 1008
遐@@ 1008
District 1007
iro 1007
衢 1007
鄴 1007
鎬 1007
Ze@@ 1006
缉 1006
襟 1006
verse 1005
К 1005
噁 1005
樊 1005
tron@@ 1004
anz@@ 1003
晝@@ 1003
桁@@ 1003
out@@ 1002
sive 1002
悠 1002
谿 1002
鲤 1002
椿@@ 1001
氙 1001
醋@@ 1001
钞@@ 1001
ency 1000
olo@@ 1000
rich@@ 1000
拮@@ 1000
耽@@ 1000
蚜@@ 1000
oro 999
ute 999
垒@@ 999
轩@@ 999
192@@ 998
195@@ 998
County 998
Moh@@ 998
Rich@@ 998
ects 998
嘌@@ 998
弛 998
抖@@ 998
Tran@@ 997
壢@@ 997
聿@@ 997
陕 997
will 996
賑@@ 996
軀@@ 996
Fel@@ 995
Ker@@ 995
Ven@@ 995
dit 995
滘 995
ban 994
oz@@ 994
prop@@ 994
苛 993
嵐@@ 992
掏@@ 992
矗@@ 992
蠶@@ 992
貳 992
瞳 991
蜓 991
寸@@ 990
蚂@@ 990
aza 989
oi 989
King@@ 988
abri@@ 988
抉@@ 988
ho 987
菠@@ 987
锑 987
髏 987
eck 986
č 986
Johnson 985
nes 985
pel@@ 985
螞@@ 985
Orig@@ 984
恥@@ 983
祗 983
Tak@@ 982
og 982
訥@@ 982
Ali@@ 981
pal@@ 981
绅@@ 981
鍛@@ 981
鏞 981
egr@@ 980
mond 980
Cop@@ 979
Disney 979
杵 979
衙 979
鎳 979
鮑 979
鹵@@ 979
Blu@@ 978
Dom@@ 978
幂 978
桔@@ 978
蒴@@ 978
ny@@ 977
窘@@ 977
訣 977
閔 977
UE@@ 976
谏@@ 976
West@@ 974
ages 974
pa@@ 974
while 974
舆 974
change 973
esc@@ 973
爛@@ 973
媳 972
谍@@ 972
霑 972
Def@@ 971
dren 971
亳@@ 971
塊@@ 971
釁 971
British 970
yi 969
挨@@ 969
籲@@ 969
胱@@ 969
鱨 969
Ju@@ 968
ゆ 968
嚼 968
岚 968
浓 968
Law@@ 966
trol 966
巾@@ 966
泻 966
燧 966
hol@@ 965
棧 965
餚 965
Ern@@ 964
Num@@ 964
igo 964
ika 964
their 964
娠 964
浆@@ 964
鑫@@ 964
Gran@@ 963
formation 963
number 963
璧@@ 962
Mit@@ 961
ania 961
mot@@ 961
thern 961
倚 961
悍@@ 961
憐 961
怜 960
悶 960
where 959
彷 959
Arthur 958
Sig@@ 958
Stadi@@ 958
澡 957
鑣 957
馥 957
cel@@ 956
eter 956
慌@@ 956
昇@@ 956
Bak@@ 955
Film 955
ech@@ 955
壘@@ 955
旷@@ 955
獾 955
酐 955
鱲 955
Ah@@ 954
Williams 954
tern@@ 954
uli@@ 954
弔 954
灸 954
眠@@ 954
chi 953
medi@@ 953
rent 953
薔@@ 953
abeth 952
ova 952
Kenn@@ 951
uv@@ 951
惑@@ 951
掩 951
敲 951
洵 951
狠@@ 951
箔 950
雾@@ 950
＆ 950
Tu@@ 949
枋@@ 948
碌 948
arch@@ 947
idi@@ 947
phy@@ 947
俞 947
疚 947
龐 947
Academy 946
ants 946
咀@@ 946
捆 946
幔 945
铂 945
鳄 945
帘 944
貂@@ 944
迂@@ 944
酿 944
隘@@ 944
196@@ 943
ges 943
lig@@ 942
з 942
岚@@ 942
Jones 941
ince 941
兑 941
bet@@ 940
dom 940
uri 940
篆 940
馀 940
Fu@@ 939
Tol@@ 939
М 939
壩@@ 939
彧 939
ards 938
ward 938
圩@@ 938
昀 938
柑 938
瓯 938
诛 938
炱 937
礫@@ 937
繹@@ 937
肴 937
mission 936
纖 936
Name 935
body 935
В 935
Band 934
ami@@ 934
侷 934
ease 933
鸽 933
also 932
ods 932
酥 932
idea 931
咲@@ 931
娑 931
巽@@ 931
Fam@@ 930
ŋ 930
祚@@ 930
驼@@ 930
俟 929
渔 929
栢 928
爷@@ 928
粱 928
菴 928
鑾 928
闍 928
Sus@@ 927
犹 927
窦 927
Rh@@ 926
nor@@ 926
剃 926
璉 926
筏 926
group 925
ury 924
弋@@ 924
綾 924
虢 924
褶 924
ren@@ 923
ı 923
Pot@@ 922
uke 922
vari@@ 922
偃@@ 922
冥 922
淦 922
狩 922
瘧@@ 922
葱@@ 922
鴞 922
ect@@ 921
edr@@ 921
tures 921
Bud@@ 920
惧@@ 920
袜 920
194@@ 919
tional 919
unter 919
zi 919
叩@@ 919
恨@@ 919
戦 919
like 918
tica 918
｢ 918
Whit@@ 917
gs 917
弩@@ 917
賤@@ 917
193@@ 916
sig@@ 916
棟@@ 916
１ 916
Ari@@ 915
浇@@ 915
睢@@ 915
祐@@ 915
諺@@ 915
Lord 914
咎@@ 914
熏@@ 914
腱 914
蕙@@ 914
ど 912
寰@@ 912
汞@@ 912
Carol@@ 911
dings 911
occ@@ 911
粪@@ 911
bul@@ 910
even 910
呆@@ 910
扳 910
碍@@ 910
Liber@@ 908
歆 908
珩 908
脩 908
铯 908
飆@@ 908
鰨 908
dou@@ 907
瀨 907
踩@@ 907
itz@@ 906
outh 906
闵 906
骠@@ 906
mad 905
歪 905
泮@@ 905
Rod@@ 904
augh@@ 904
emati@@ 904
wi@@ 904
紓 904
綬 904
绢 904
鶯@@ 904
So 903
urt 903
嘔@@ 903
柜@@ 903
California 902
栾@@ 902
箏 902
ais@@ 901
筍 901
醍@@ 901
釣 901
懶 900
Lar@@ 899
睽 899
酯@@ 899
靴@@ 899
驴 899
厥@@ 898
ends 897
枋 897
砾@@ 897
秧@@ 897
蚊 897
袞 897
dem@@ 896
estr@@ 896
抖 896
蜈@@ 896
鵑 896
aliz@@ 895
傢 895
摊@@ 895
轰 895
rol@@ 894
墅@@ 894
胁@@ 894
芋@@ 894
轭 894
aff@@ 893
pur@@ 893
霄@@ 893
Educ@@ 892
Fol@@ 892
Hom@@ 892
Univers@@ 892
寢 892
槿@@ 892
軀 892
帚 891
轅 891
History 890
Mod@@ 890
ann 890
bi 890
bin@@ 890
棵@@ 890
蜍 890
enz@@ 889
lands 889
嶄@@ 889
珈 889
纥 889
憬 888
蜻@@ 888
遶 888
Kis@@ 887
Walter 887
Д 887
喵 887
囉 887
骰@@ 887
Ot@@ 886
only 886
ب 886
俚@@ 886
嬌@@ 886
槓@@ 886
舫 886
醐 886
隈 886
cli@@ 885
peri@@ 885
廍 885
慄 885
旻 885
螃@@ 885
May 884
cho 884
vin 884
匕@@ 884
荚 884
醴@@ 884
met@@ 883
諏 883
鱈@@ 883
Simon 882
sus 882
辍@@ 881
Gener@@ 880
States 880
USA 880
mal@@ 880
赈@@ 880
頁@@ 880
dae 879
eau 879
剋 879
叹@@ 879
噩@@ 879
烴 879
耻@@ 879
John@@ 878
anda 878
ario 878
狠 878
讞 878
谔 878
鄙@@ 878
ences 877
sia 877
悌 877
蚣 877
Tam@@ 876
equ@@ 876
head 876
恂 876
晒 876
讶 876
186@@ 875
din@@ 875
wer 875
劭 875
卅 875
滔 875
腻 875
菏@@ 875
懇@@ 874
榨@@ 874
焯 874
甄 874
钚 874
197@@ 873
iko 873
ush@@ 873
媲@@ 873
浚@@ 873
蝉@@ 873
賊@@ 873
鰂 873
桦@@ 872
澍 872
鸥 872
fied 871
via 871
攸 871
钡 871
綺 870
貂 870
Arm@@ 869
atur@@ 869
duc@@ 869
ev 869
噶 869
爹 869
螳@@ 869
이 869
ゅ 868
ェ 868
佯@@ 868
儁 868
眺@@ 868
辈@@ 868
寢@@ 867
煒 867
Jackson 866
ois 866
奠 866
芎 866
酉@@ 866
Rou@@ 865
ave@@ 865
£ 865
嘻 865
弋 865
彿 865
螢 865
郢 865
Mik@@ 864
ark@@ 864
cle 864
house 864
晕 864
瀚@@ 864
矫@@ 864
賤 864
Times 863
ective 863
桔 863
漁 863
瀧 863
驊 863
Bol@@ 862
Long 862
Stre@@ 862
any@@ 862
怠@@ 862
昴 862
靼@@ 862
bs 861
凿@@ 861
瑭 861
貯@@ 861
187@@ 860
Jor@@ 860
Leon@@ 860
spec@@ 860
then 860
prise 859
vers@@ 859
嬅 859
磅@@ 859
蛹 859
Ren@@ 858
port@@ 858
襟@@ 858
镖 858
Land 857
UK 857
dri@@ 857
釗 857
Sto@@ 856
ople 856
ow 856
than 856
they 856
宥 856
洒 856
Nik@@ 855
ć 855
仄 855
侈@@ 855
墊@@ 855
栅 855
High@@ 854
stre@@ 854
ノ 854
歹@@ 854
氐 854
熬 854
瓮@@ 854
顫@@ 854
喧@@ 853
Rail@@ 852
works 852
ob 851
point 851
put 851
寝@@ 851
鮃 851
English 850
ert 850
ョ 850
Sul@@ 849
With 849
嫖@@ 849
漳 849
Ori@@ 848
gro@@ 848
mit@@ 848
ł 848
颐 848
Albert 847
隕 847
After 846
dis 846
溺 846
焙 846
茫 846
Ann@@ 845
Comp@@ 845
Haw@@ 845
そ 845
庠 845
烦@@ 845
鸾 845
atre 844
ete 844
謚 844
Karl 843
Rot@@ 843
aro 843
絨@@ 843
覃@@ 843
詣 843
諜@@ 843
轼 843
iger 842
ツ 842
卞@@ 842
诡@@ 842
黍 842
｣ 841
European 840
Mill@@ 840
Sup@@ 840
model 840
ones 840
沧 840
vo 839
窟@@ 839
锤@@ 839
scor@@ 837
姦@@ 837
葦 837
堇@@ 836
痴 836
胚 836
雯@@ 836
蛟 835
ask@@ 834
small 834
尷@@ 834
畲@@ 834
ig 833
峒 833
榷 833
涸 833
mas 832
巍 832
戸 832
诵@@ 832
輟@@ 832
Thom@@ 831
掸@@ 831
攘@@ 831
濑@@ 831
颅 831
鮠 831
Carl 830
partment 830
pat@@ 830
soci@@ 830
妄 830
欺 830
罂@@ 830
躋@@ 830
鴿@@ 830
鹭 830
誦@@ 829
谅@@ 829
哔@@ 828
婁 828
屁@@ 828
Hay@@ 827
Mes@@ 827
alb@@ 827
olog@@ 827
ワ 827
亘 827
烛 827
Af@@ 826
Hen@@ 826
ability 826
夭 826
幺 826
蚀@@ 826
酪@@ 826
锺 826
Kim 825
ample 825
any 825
dor@@ 825
俑 825
塹 825
簾 825
躬 824
Alli@@ 823
★ 822
ゃ 822
囪 822
柿 822
稼@@ 822
莪@@ 822
ference 821
sey 821
乖@@ 821
菈 821
錘@@ 821
pes 820
敍 820
飄 820
af 819
æ 819
娶@@ 819
瓘 819
骏@@ 819
漯@@ 818
秤 818
簇@@ 818
蠍@@ 818
tiv@@ 817
Å 817
腋@@ 817
Ander@@ 816
皱@@ 816
镐 816
婷@@ 815
盂 815
min 814
town 814
υ 814
菀 814
賬@@ 814
鲍 814
蒐 813
ham@@ 812
uni@@ 812
娣 812
翟 812
mal 811
map@@ 811
咲 811
擎@@ 811
镍@@ 811
Tok@@ 810
ety 810
Т 810
扈 810
沔@@ 810
竇 810
蟻@@ 810
cy@@ 809
蟠@@ 809
Yo@@ 808
mes 808
tre 808
悬 808
赎 808
188@@ 807
尻@@ 807
Jos@@ 806
mittee 806
orum 806
縻 806
赓 806
Р 805
堀 805
奚 805
恪@@ 805
猖@@ 805
Real 804
ago 804
ester 804
tis@@ 804
巽 804
掾 804
漾 804
邕@@ 804
喃@@ 803
懶@@ 803
榻 803
189@@ 802
啄@@ 802
壕@@ 802
歎 802
瑁 802
Gor@@ 801
Les@@ 801
蓓@@ 801
谬 801
Alfre@@ 800
aba 800
usa 800
yd@@ 800
杓 800
毎 800
泗 800
盼@@ 800
砷@@ 800
邃 800
Sab@@ 799
墮 799
煌@@ 798
ner@@ 797
obj@@ 797
啉 797
蛟@@ 797
鮫 797
Premi@@ 795
ager 795
das 795
xim@@ 795
劈 795
甾@@ 795
ɛ 794
夯@@ 794
甩@@ 794
遽 794
vi 793
≤ 793
柘@@ 793
conom@@ 792
oria 792
unk@@ 792
坛@@ 792
釧 792
摊 791
芭 791
恬 790
愉 790
懺@@ 790
湃 790
ait 789
呕@@ 789
帷@@ 789
躯@@ 789
侏 788
勐 788
Ing@@ 787
tha 787
渴 787
ca@@ 786
eu@@ 786
vers 786
摒@@ 786
燭@@ 786
ord 785
癡 785
闪 785
agu@@ 784
佚@@ 784
憧@@ 784
焊 784
籬 784
褫@@ 784
Dur@@ 783
eum 783
戌@@ 783
浣@@ 783
鳌 783
En 782
Sher@@ 782
垢 782
崭@@ 782
Maur@@ 781
Nu@@ 781
Seg@@ 781
music 781
ological 781
嶠 781
grap@@ 780
ton@@ 780
仗@@ 780
轿 779
陂@@ 779
Vill@@ 778
ons@@ 778
紊@@ 778
鮡 778
dle 777
栎 777
璿 777
惶@@ 776
endo 775
呋@@ 775
牟 775
禿 775
虱 775
Tit@@ 774
ji@@ 774
los 774
loy@@ 774
ulu 774
灿@@ 774
缠 774
萩@@ 774
钵 774
sor@@ 773
thr@@ 773
嫦@@ 773
寥@@ 773
琊 773
迥 773
aly@@ 772
癲@@ 772
XX@@ 771
岌@@ 771
拥 771
涡 771
翘 771
鍛 771
Lon@@ 770
net@@ 770
缕 770
Jam@@ 769
Rev@@ 769
ational 769
enne 769
kr@@ 769
罔@@ 769
虾@@ 769
貽@@ 769
sum@@ 768
杲 768
泓 768
瀬 768
煬@@ 768
鏗 768
讼@@ 767
闰@@ 767
Eg@@ 766
Vil@@ 766
丢 766
剎 766
祀@@ 766
苟 766
铲@@ 766
鳄@@ 766
Bill@@ 765
Eliz@@ 765
Indi@@ 765
eth@@ 765
itu@@ 765
pul@@ 765
uk 765
岖 765
萝 765
鄚 765
霾 765
Div@@ 764
rot@@ 764
佼@@ 764
鈺 764
abr@@ 763
lit@@ 763
唆 763
恼 763
暹 763
蕪 763
.. 762
悚 762
珥 762
ways 761
ㄧ 761
嵊@@ 761
洄@@ 761
狹 761
鯙 761
Barr@@ 760
Stan@@ 760
帑 760
漪 760
稔 760
蛭 760
囱 759
榭 759
祈 759
鳖 759
瑠@@ 758
鐸@@ 758
愍 757
馨@@ 757
Cru@@ 756
兌 756
燊 756
颚 756
ston 755
拂 755
痊 755
絹 755
Hil@@ 754
Kle@@ 754
under 754
剷 754
摹 754
秉 754
筝 754
bes 753
wat@@ 753
摯@@ 753
ces@@ 752
cho@@ 752
搅@@ 752
涩 752
硤 752
礫 752
鉑 752
Deb@@ 751
Tex@@ 751
jo@@ 751
mod@@ 751
tice 751
title 751
瑗 751
禿@@ 751
谒 751
burg 750
栩@@ 750
汁@@ 750
綵 750
肱@@ 750
軾 750
颌@@ 750
Alex@@ 749
浊@@ 749
漲@@ 749
穢 749
芹@@ 749
aun@@ 748
吩@@ 748
绶 748
蒜@@ 748
鉅@@ 748
bri@@ 747
ente 747
uh@@ 747
ば 747
孽 747
嵇@@ 747
耘 747
酥@@ 747
ew@@ 746
him 746
ご 746
乩 746
拘 746
曠@@ 746
琬 746
瑕 746
镉 746
amo@@ 745
cont@@ 745
ories 745
sing 745
ʰ 745
疽 745
Brit@@ 744
Tem@@ 744
勅 744
瑋@@ 744
聾 744
gan 743
砾 743
綏 743
羯 743
臚 743
砦 742
羨@@ 742
込 742
霓@@ 742
pon 741
wo@@ 741
懦@@ 741
栈@@ 741
渎 741
蝰 741
酌 741
釘@@ 741
Aus@@ 740
lev@@ 740
used 740
蚕 740
蛾@@ 740
邈 740
镓 740
髦 740
Govern@@ 739
闾 739
鸽@@ 739
Pad@@ 738
fu@@ 738
long 738
戡@@ 738
楹 738
瀆 738
灼 738
荨@@ 738
餡@@ 738
jo 737
桦 737
Beg@@ 736
Din@@ 736
Ka@@ 736
裘 736
贛 736
韜 736
嚨 735
擱 735
梟 735
矶@@ 735
粘 735
缪 735
钒 735
Nar@@ 734
ante 734
dh@@ 734
using 734
巍@@ 734
梳 734
鐮 734
钯 734
颐@@ 734
Die 733
Revol@@ 733
awa 733
ず 733
苇 733
hum@@ 732
傻 732
喘@@ 732
跻@@ 732
Mand@@ 731
Organ@@ 731
ites 731
Ⅰ 731
涟@@ 731
畹@@ 731
fal@@ 730
ks@@ 730
rati@@ 730
繇 730
茴@@ 730
釐@@ 730
績@@ 729
钙@@ 729
Dam@@ 728
钨 728
Friedrich 727
檜 727
祁 727
bus@@ 726
life 726
pi 726
د 726
س 726
澹 726
Som@@ 725
ains 725
蕴 725
顗 725
Am 724
Bay@@ 724
bit@@ 724
晞 724
Chem@@ 723
喂@@ 723
齦 723
Pil@@ 722
uma 722
戟@@ 722
賠 722
餌 722
ori 721
ζ 721
尻 721
炙@@ 721
荠 721
钉@@ 721
鹊 721
Bot@@ 720
nis 720
掺@@ 720
隧 720
Pau@@ 719
depend@@ 719
セ 719
儸 719
捻 719
湟@@ 719
疼 719
鍍 719
Gold@@ 718
Scot@@ 718
Way@@ 718
dom@@ 718
opp@@ 718
蘋 718
颌 718
bach 717
lor@@ 717
啮@@ 717
嘯@@ 717
骥 717
bu 716
iri 716
sis 716
tural 716
ui 716
暈@@ 716
様 716
燁 716
eria 715
olas 715
opo@@ 715
µ 715
亢 715
薊@@ 715
je@@ 714
恃 714
捣@@ 714
滸@@ 714
璨 714
鈺@@ 714
Bou@@ 713
俐 713
癸 713
Kam@@ 712
jam@@ 712
俭@@ 712
瘡 711
祜@@ 711
鷺@@ 711
壬 710
沭@@ 710
漿@@ 710
燮@@ 710
瞄 710
诲 710
鱧 710
Kat@@ 709
ʁ 709
嬪@@ 709
晟@@ 709
獺 709
羲@@ 709
颊 709
Ay@@ 708
France 708
ots 708
哮@@ 708
垩@@ 708
涇@@ 708
琐 707
迂 707
邢 707
锚 707
驍@@ 707
Ky@@ 706
Women 706
ardo 706
犍 706
肽@@ 706
Juan 705
omo 705
star@@ 705
恳@@ 705
陇 705
Hand@@ 704
hat@@ 704
匐 704
妒@@ 704
痘 704
絶 704
羔@@ 704
豎 704
鄙 704
釷 704
钼 704
镛 704
been 703
嚕 703
缆@@ 703
eno 702
忏@@ 702
痺 702
衅 702
see 701
偃 701
娄 701
屡 701
蒯@@ 701
蜡 701
閏@@ 701
鰲 701
ett@@ 700
ift 700
inst@@ 700
unds 700
vent@@ 700
yer 700
綦@@ 700
萸 700
饿@@ 700
Greg@@ 699
Prix 699
aa 699
恺@@ 699
撐@@ 699
Arti@@ 698
Pon@@ 698
live 698
sem@@ 698
Б 698
淅@@ 698
漬 698
Centr@@ 697
ements 697
旻@@ 697
罩@@ 697
Has@@ 696
bers 696
栽 696
糙@@ 696
胭@@ 696
匍@@ 695
悄 695
柵 695
汙 695
淖@@ 695
辻@@ 695
ologi@@ 694
х 694
胪 694
茗 694
ball 693
chen 693
婕 693
恙 693
瘟 693
Anna 692
Division 692
嘅 692
媚@@ 692
烂@@ 692
迄 692
钰 692
鳍@@ 692
sch 691
槛 691
浒@@ 691
熾@@ 691
def@@ 690
resul@@ 690
ures 690
汛@@ 690
痰 690
竿@@ 690
茫@@ 690
鈸 690
Vit@@ 689
iga 689
lem 689
壺@@ 689
渭 689
珅 689
璠 689
盏 689
砵 689
铋 689
麓@@ 689
ills 688
je 688
峠 688
漩 688
玫 688
orial 687
婕@@ 687
恤@@ 687
沅 687
荀 687
侗 686
铊 686
锗 686
aqu@@ 685
inf@@ 685
iss 685
osp@@ 685
ogo 684
tak@@ 684
vid@@ 684
咄@@ 684
尴@@ 684
峴 684
溉@@ 684
滬 684
澗 684
Dan@@ 683
chan@@ 683
imb@@ 683
冉 683
潇@@ 683
窪@@ 683
Bah@@ 682
hab@@ 682
hom@@ 682
onom@@ 682
sions 682
version 682
瓣@@ 682
輻 682
铨 682
靺 682
han 681
苴 681
Der@@ 680
Tod@@ 680
after 680
乍 680
next 679
Ⅲ 679
嗪 679
嵯@@ 679
掖@@ 679
anne 678
熹@@ 678
瑣@@ 678
water 677
榈 677
瀾@@ 677
盞 677
鐳 677
陲 677
俺 676
Bau@@ 675
book 675
ネ 675
揣@@ 675
榈@@ 675
郢@@ 675
頗@@ 675
Wa@@ 674
land@@ 674
mit 674
sta 674
灑@@ 674
缸@@ 674
駒@@ 674
alan 673
nov@@ 673
娼 673
闫@@ 673
鞨 673
鱺 673
栋@@ 672
皺 672
祜 672
酌@@ 672
鈣@@ 672
Clau@@ 671
Paris 671
ker@@ 671
others 671
偈 671
眺 671
窪 671
笹@@ 671
荻@@ 671
萤@@ 671
Bil@@ 670
Hans 670
ders 670
liv@@ 670
彪@@ 670
Da 669
ept@@ 669
tier 669
勺 669
臧 669
荔 669
鰺 669
adi 668
bis 668
ior 668
澧@@ 668
ape 667
颓@@ 667
駙@@ 667
ei@@ 666
test 666
Н 666
啞@@ 666
槽@@ 666
酶@@ 666
round 665
俏@@ 665
啼@@ 665
炽@@ 665
珞@@ 665
盱@@ 665
阇 665
馭 665
From 664
Hosp@@ 664
cell@@ 664
rap@@ 664
state 664
偵 664
嘲 664
墻 664
慨@@ 664
栱 664
烙@@ 664
鍍@@ 664
prim@@ 663
炬@@ 663
蘚@@ 663
ump@@ 662
ustri@@ 662
幀 662
皱 662
钧@@ 662
Zi@@ 661
over@@ 661
嵴 661
榘 661
炙 661
鑼 661
亟@@ 660
沐 660
瘠 660
绰 660
荖 660
菓 660
蝗 660
BK 659
Kom@@ 659
onder@@ 659
玠 659
骤@@ 659
Bad@@ 658
Kab@@ 658
亢@@ 658
昱@@ 658
灿 658
炜 657
It@@ 656
怜@@ 656
珏 656
羥@@ 656
鸫 656
gh@@ 655
壇@@ 655
専 655
揀 655
癇 655
瞩@@ 655
蟒@@ 655
alls 654
bridge 654
Nam@@ 653
aja 653
ext@@ 653
ij@@ 653
垩 653
奭 653
焜 653
come 652
cos@@ 652
esti@@ 652
flo@@ 652
醃 652
Antonio 651
edy 651
hip 651
place 651
嬴@@ 651
盪@@ 651
饼@@ 651
Natur@@ 650
熒@@ 650
Francisco 649
has@@ 649
mid@@ 649
佥 649
樱 649
魷@@ 649
service 648
who 648
塭 648
恿 648
苻@@ 648
鲈 648
most 647
var@@ 647
ァ 647
冪 647
瀘@@ 647
猾 647
琶@@ 647
薈@@ 647
Mun@@ 646
berto 646
洮 646
茸 646
饵 646
Г 645
і 645
ほ 645
筷@@ 645
蟑@@ 645
Pier@@ 644
Ω 644
襯 644
囤@@ 643
怯 643
柝@@ 643
檜@@ 643
禺@@ 643
窺@@ 643
笨 643
蝨 643
珲@@ 642
蒼 642
豈@@ 642
鸮 642
Anne 641
Fern@@ 641
bury 641
inde@@ 641
ric@@ 641
吓@@ 641
滔@@ 641
澎 641
蹦@@ 641
Carlos 640
ag 640
alia 640
ords 640
plat@@ 640
Σ 640
Got@@ 639
Victoria 639
comm@@ 639
ily 639
澂 639
邾 639
Dal@@ 638
ebr@@ 638
撑@@ 638
柬 638
矾 638
诣 638
辕 638
锚@@ 638
game 637
uld 637
庵@@ 637
惨 637
棻 637
瓏 637
窯@@ 637
覲 637
逞 637
陝 637
２ 637
hel@@ 636
姥@@ 636
甬 636
矚 636
荪 636
dig@@ 635
uta 635
И 635
弒 635
恬@@ 635
攪@@ 635
浬 635
base 634
order 634
ふ 634
娱 634
Alexand@@ 633
Lib@@ 633
anger 633
urn@@ 633
zer 633
า 633
禰 633
臀 633
Radi@@ 632
aire 632
墩@@ 632
搗@@ 632
聾@@ 632
頡@@ 632
ches 631
黏 631
å 630
慑 630
殡@@ 630
肼 630
譏@@ 630
邛@@ 630
醌 630
鏟 630
濛 629
酚@@ 629
魟 629
Ali 628
Gra@@ 628
Seb@@ 628
呵@@ 628
扒 628
獗 628
蠡@@ 628
軔 628
gia 627
iki@@ 627
lan 627
ц 627
匀@@ 627
匮@@ 627
荻 627
sing@@ 626
杠@@ 626
赔 626
鯤 626
Var@@ 625
fa 625
rea 625
咆@@ 625
嶄 625
Los 624
bin 624
sych@@ 624
yu 624
吡 624
gener@@ 623
泓@@ 623
裨@@ 623
驥 623
Wer@@ 622
ボ 622
俳@@ 622
娇 622
怕@@ 622
筵 622
葆 622
Sant@@ 621
Wan@@ 621
eller 621
ender 621
lag 621
ordin@@ 621
榛 621
蒨 621
邠 621
鵜@@ 621
Wit@@ 620
gio 620
湮@@ 620
甕 620
蠟 620
醛@@ 620
馱 620
mar 619
∞ 619
幂@@ 619
抛 619
盎 619
鸢@@ 619
olo 618
stati@@ 618
tan 618
ی 618
ケ 618
佰@@ 618
珮@@ 618
艮 618
蚵 618
訖 618
誨 618
躬@@ 618
Arg@@ 617
Thi@@ 617
agn@@ 617
eron 617
mont 617
umia 617
噻@@ 617
晰@@ 617
î 616
О 616
丶 616
刈 616
坵 616
庑 616
珣 616
珮 616
虏@@ 616
裤@@ 616
訶 616
Sau@@ 615
rem@@ 615
卤 615
睇 615
莅@@ 615
鉞 615
驒 615
part 614
僖 614
癢 614
苍 614
蛸 614
袒 614
ses 613
won 613
敎 613
鄯@@ 613
驛@@ 613
魴 613
Bow@@ 612
adr@@ 612
ected 612
sea 612
spe@@ 612
寛 612
憐@@ 612
鵲 612
Kol@@ 611
ί 611
ा 611
撮@@ 611
笏 611
銨 611
astr@@ 610
direc@@ 610
槓 610
猕@@ 610
莅 610
蛺 610
閹@@ 610
Cou@@ 609
lus@@ 609
sk 609
拦 609
晦@@ 609
猥@@ 609
鄢@@ 609
sin 608
缽 608
蕲@@ 608
錮 608
hil 607
ju@@ 607
sit@@ 607
zen 607
् 607
岂@@ 607
愫 607
玳@@ 607
绛@@ 607
谕@@ 607
姥 606
懒@@ 606
Buc@@ 605
lab@@ 605
粿 605
Western 604
rac@@ 604
ron@@ 604
楫 604
熾 604
稼 604
郝 604
鎧 604
馥@@ 604
Lag@@ 603
瀰 603
uno 602
羡@@ 602
nd@@ 601
儉@@ 601
卍 601
屹@@ 601
撻 601
枉@@ 601
榨 601
縊 601
ă 600
gi 599
idi 599
media 599
multi@@ 599
憫 599
aul@@ 598
ells 598
ges@@ 598
some 598
聋@@ 598
邳@@ 598
郧@@ 598
鵑@@ 598
dern 597
洱@@ 597
浔@@ 597
灝 597
砚@@ 597
date 596
ego 596
ogr@@ 596
捏 596
楯 596
銮 596
Johann 595
lim@@ 595
tors 595
梶@@ 595
爍 595
贱 595
闷 595
Championship 594
eer 594
nu@@ 594
蝕@@ 594
镕@@ 594
Kl@@ 593
anti 593
gir@@ 593
mem@@ 593
壑 593
蝓 593
豈 593
驃 593
﹕ 593
Archit@@ 592
Jacques 592
blo@@ 592
stat@@ 592
亏 592
晁@@ 592
闐 592
鴕@@ 592
ecture 591
japon@@ 591
† 591
├ 591
匆 591
撮 591
櫟 591
紜 591
虢@@ 591
郃 591
Rud@@ 590
asi 590
cle@@ 590
iz 590
ority 590
otr@@ 590
桧 590
檳 590
漩@@ 590
緹 590
颤@@ 590
about 589
contr@@ 589
ities 589
wing 589
ع 589
怛 589
瑀 589
瓢@@ 589
絳 589
蝇@@ 589
ous@@ 588
ш 588
噹 588
枚@@ 588
艘@@ 588
褪@@ 588
遁@@ 588
eli 587
哗@@ 587
犍@@ 587
莘 587
蟎 587
錳 587
` 586
polis 586
stand@@ 586
ピ 586
悖 586
歿 586
綬@@ 586
蛞@@ 586
豚@@ 586
鯽 586
alt@@ 585
based 585
craft 585
esta 585
igu@@ 585
tn@@ 585
潁@@ 585
藐@@ 585
邇 585
锯 585
Lud@@ 584
aha 584
kel@@ 584
umi 584
劈@@ 584
厨 584
洱 584
豊 584
贼@@ 584
Cab@@ 583
amin@@ 583
lot 583
哮 583
錠 583
Ken@@ 582
aining 582
lines 582
県 582
賁 582
aca 581
ɔ 581
ね 581
涝 581
齧 581
ś 580
愍@@ 580
秽 580
鵙 580
黒 580
elo 579
ò 579
剽@@ 579
藓@@ 579
陋@@ 579
Sain@@ 578
Sak@@ 578
high 578
ت 578
啄 578
嫣 578
蹲 578
阆@@ 578
band 577
ck@@ 577
mun@@ 577
oman 577
trol@@ 577
­ 577
燬 577
bot 576
む 576
燾 576
瑯@@ 576
篙 576
鹫 576
ement@@ 575
song 575
傈@@ 575
孖 575
瓯@@ 575
鯖 575
Nat@@ 574
Prin@@ 574
comple@@ 574
film 574
mir@@ 574
nati@@ 574
rain 574
would 574
婢@@ 574
爨 574
龈 574
ded 573
lang 573
lon@@ 573
ved 573
枯 573
氚 573
Anti@@ 572
pot@@ 572
ð 572
晒@@ 572
筠@@ 572
ands 571
bon 571
ento 571
mak@@ 571
site 571
station 571
唁 571
槎 571
瓒 571
痒 571
繆 571
諺 571
Ni 570
ments 570
omb@@ 570
pro 570
儼@@ 570
旬@@ 570
煊 570
癫@@ 570
秃 570
覓@@ 570
倻 569
Ober@@ 568
bat@@ 568
district 568
odi@@ 568
拯 568
煇 568
軫 568
麋@@ 568
Maz@@ 567
Nak@@ 567
hai 567
there 567
ぶ 567
彊 567
辙 567
凑@@ 566
睪 566
蝉 566
赚 566
魅 566
鸳@@ 566
August 565
board 565
ku 565
匱@@ 565
妞 565
暐 565
矽 565
eas@@ 564
ishing 564
ough@@ 564
teri@@ 564
ร 564
卞 564
坠 564
殴 564
烨 564
聶 564
sion@@ 563
沸 563
瘍 563
Hir@@ 562
Jap@@ 562
Person@@ 562
Tab@@ 562
han@@ 562
les@@ 562
ores 562
umb@@ 562
俶 562
朽@@ 562
萎 562
萼@@ 562
Lat@@ 561
aud@@ 561
three 561
骧 561
鲀 561
龢 561
bol@@ 560
leng@@ 560
uss@@ 560
蝌@@ 560
Kap@@ 559
asp@@ 559
emple 559
mol@@ 559
rie 559
tol@@ 559
窺 559
薦@@ 559
邳 559
鴦 559
fas@@ 558
愧@@ 558
緞 558
乖 557
咳 557
惰 557
阯 557
癬 556
睽@@ 556
箴@@ 556
拙@@ 555
覬@@ 555
諒@@ 555
锭 555
Tour@@ 554
kw@@ 554
nia 554
radi@@ 554
super@@ 554
哑@@ 554
怠 554
违 554
閭 554
顒 554
驤 554
墀 553
揉@@ 553
蜚@@ 553
袍@@ 553
鉢 553
＞ 553
squ@@ 552
trop@@ 552
vie@@ 552
י 552
ソ 552
檄@@ 552
淄 552
谎 552
韬@@ 552
Blan@@ 551
law 551
傣 551
蠍 551
錡 551
she 550
▲ 550
ゲ 550
疱@@ 550
蝨@@ 550
餡 550
otte 549
涕 549
潑@@ 549
輒 549
鉗 549
閨@@ 549
produc@@ 548
second 548
嬴 548
氪 548
籽@@ 548
胤@@ 548
蹇 548
韭@@ 548
lar 547
ゴ 547
嗆 547
磊@@ 547
箴 547
纺 547
Gas@@ 546
atis@@ 546
eva 546
lip@@ 546
pil@@ 546
ポ 546
奢 546
渺@@ 546
蓁 546
蚯@@ 546
觐 546
阈@@ 546
隗@@ 546
韌 546
鳌@@ 546
Wilhelm 545
hard 545
娇@@ 545
弭 545
怯@@ 545
晝 545
曇@@ 545
曖@@ 545
杖@@ 545
urg 544
ザ 544
儋@@ 544
晕@@ 544
疮 544
蓓 544
蕊@@ 544
觅@@ 544
軋 544
铰@@ 544
----@@ 543
棗@@ 543
氈 543
eil@@ 542
fic@@ 542
燼 542
玮 542
锷 542
Canada 541
Sat@@ 541
挚@@ 541
挨 541
歩 541
澧 541
瞎@@ 541
靚@@ 541
cir@@ 540
play@@ 540
唆@@ 540
濠@@ 540
粽@@ 540
藕 540
蹂@@ 540
Brand@@ 539
Ny@@ 539
san@@ 539
through 539
掣@@ 539
琢@@ 539
锟 539
aron 538
get@@ 538
斟@@ 538
橐 538
洺 538
涓 538
箍 538
羯@@ 538
醜 538
雒@@ 538
Ng@@ 537
enth@@ 537
esse 537
proj@@ 537
僞 537
嚐 537
烁 537
餾 537
Kas@@ 536
cons@@ 536
enberg 536
flu@@ 536
ˋ 536
妨 536
搗 536
樽@@ 536
炽 536
糠 536
蚪 536
鄔@@ 536
Domin@@ 535
Hav@@ 535
She 535
When 535
bot@@ 535
eing 535
lad@@ 535
滎@@ 535
竖 535
郯@@ 535
osh@@ 534
絆 534
莿 534
阎 534
霏 534
鱔 534
Bec@@ 533
isch@@ 533
people 533
tran@@ 533
曷 533
煲 533
琏 533
脲 533
鮪 533
kan@@ 532
咁 532
徭@@ 532
蠔@@ 532
Fir@@ 531
ael 531
eni 531
琢 531
膾 531
鑾@@ 531
aut 530
mov@@ 530
when 530
∈ 530
ぐ 530
喷 530
imi 529
wr@@ 529
yon 529
zy@@ 529
劭@@ 529
蠣 529
鞘@@ 529
颢 529
駝@@ 529
Army 528
ben@@ 528
cri@@ 528
玥 528
瑩@@ 528
謫 528
赭@@ 528
Flor@@ 527
Wag@@ 527
edo 527
秤@@ 527
郓@@ 527
dra@@ 526
ister@@ 526
kt 526
啸@@ 526
汨@@ 526
溟 526
舶@@ 526
袜@@ 526
铍 526
雹 526
頹@@ 526
Democ@@ 525
ades 525
chester 525
cip@@ 525
coll@@ 525
conn@@ 525
doc@@ 525
plus 525
top@@ 525
ά 525
勗 525
殆 525
谛 525
阀@@ 525
Florida 524
each 524
former 524
oli 524
qu 524
崂@@ 524
犢 524
ony@@ 523
暠 523
耒@@ 523
詰 523
铮 523
頤@@ 523
Sa 522
ador 522
olf 522
ular@@ 522
≥ 522
宕@@ 522
糜@@ 522
abl@@ 521
din 521
０ 521
ido 520
ulation 520
勰 520
嘆@@ 520
爰 520
瞬 520
竞 520
褻 520
鈷 520
Jack@@ 519
碗@@ 519
稹 519
繭 519
讫 519
跖@@ 519
躁@@ 519
逗 519
elt 518
ember 518
level 518
へ 518
燉 518
痹 518
粪 518
蒿@@ 518
诃@@ 518
anci@@ 517
dez 517
mul@@ 517
淩 517
絢@@ 517
縉 517
録 517
陡 517
March 516
agen 516
eck@@ 516
etti 516
gether 516
疃 516
铬@@ 516
鬃@@ 516
fe 515
fication 515
que@@ 515
such 515
喱 515
朐 515
洒@@ 515
灝@@ 515
蛻@@ 515
鶘 515
麝 515
aer@@ 514
power 514
潢@@ 514
砜 514
Hit@@ 513
Id@@ 513
Lan@@ 513
car 513
dorf 513
kil@@ 513
nom@@ 513
pic@@ 513
ving 513
囂 513
塱 513
隅@@ 513
靡@@ 513
骅 513
ists 512
孃 512
帘@@ 512
瀑 512
疹@@ 512
靛 512
鳗 512
Columb@@ 511
iti 511
pas@@ 511
χ 511
獼@@ 511
鈹 511
home 510
厩 510
揉 510
暄 510
碓 510
芩 510
蚺 510
誇 510
赌 510
辎@@ 510
閤 510
mir 509
tou@@ 509
ベ 509
娼@@ 509
枉 509
竣 509
Wes@@ 508
but@@ 508
晩 508
沢 508
眩@@ 508
虜@@ 508
輋 508
cial 507
city 507
dre@@ 507
ern 507
mos@@ 507
series 507
soft 507
vention 507
甩 507
簪 507
谟@@ 507
album 506
alg@@ 506
mus 506
quar@@ 506
® 506
徳 506
昉 506
樵@@ 506
氡 506
沮 506
溼@@ 506
痫 506
aco 505
heim 505
identi@@ 505
may 505
△ 505
愁@@ 505
捞@@ 505
橈 505
潦@@ 505
濮 505
筊 505
钠@@ 505
ended 504
neg@@ 504
ギ 504
们@@ 504
儡@@ 504
柚 504
聳@@ 504
菖@@ 504
龚 504
咯 503
恍@@ 503
氘 503
猬 503
胀@@ 503
钛@@ 503
bol 502
estra 502
ked 502
lim 502
school 502
shire 502
朮 502
樺@@ 502
痊@@ 502
耸@@ 502
At 501
Profes@@ 501
format 501
蝮@@ 501
覦 501
鲱 501
Europe 500
alog@@ 500
mut@@ 500
show 500
Á 500
蟆 500
軛 500
骸@@ 500
Abr@@ 499
fo 499
凪 499
莢 499
锈 499
闢@@ 499
dal@@ 498
び 498
嶷 498
甌 498
砥@@ 498
篩 498
隣 498
There 497
Um@@ 497
chr@@ 497
year 497
½ 497
妍@@ 497
鱉 497
Bun@@ 496
pos 496
ό 496
ヤ 496
恼@@ 496
憚 496
捩@@ 496
疤@@ 496
竑 496
鰓@@ 496
ango 495
away 495
da@@ 495
ˊ 495
伉@@ 495
冑 495
擋@@ 495
汜 495
玷@@ 495
窜 495
腌@@ 495
鳐 495
ische 494
major 494
圜 494
撼@@ 494
滷 494
漂 494
阗 494
鴛@@ 494
Willi@@ 493
trac@@ 493
ه 493
淖 493
甥@@ 493
苇@@ 493
ぎ 492
坻@@ 492
寥 492
巩 492
疤 492
萘 492
觐@@ 492
Mut@@ 491
ingu@@ 491
lers 491
sign@@ 491
war 491
屁 491
瞎 491
紇 491
諫@@ 491
賬 491
钕 491
钝@@ 491
bac@@ 490
family 490
umin@@ 490
旷 490
訛 490
訢 490
譙 490
醞@@ 490
aye 489
ment@@ 489
ram@@ 489
vin@@ 489
櫥 489
燙 489
窥@@ 489
Hab@@ 488
atin 488
ique 488
pass@@ 488
wa@@ 488
廨 488
皋@@ 488
簾@@ 488
荐@@ 488
銫 488
揄 487
琇 487
筵@@ 487
飙@@ 487
鳶 487
wil@@ 486
疲 486
谚@@ 486
谬@@ 486
赟 486
England 485
andi@@ 485
auer 485
tal 485
ui@@ 485
咕 485
嗚 485
挽 485
畑 485
祟 485
耙 485
蚶 485
褚 485
贅 485
ident 484
neo 484
ose 484
pri@@ 484
ques 484
trong 484
zone 484
ペ 484
俏 484
傕 484
攣 484
朦@@ 484
珲 484
瑯 484
缙@@ 484
pis@@ 483
棧@@ 483
韧 483
鰨@@ 483
Muh@@ 482
eu 482
gal@@ 482
igh 482
ples 482
र 482
諭@@ 482
dev@@ 481
lob@@ 481
oy 481
plan@@ 481
棗 481
炅 481
璀@@ 481
鶇 481
＊ 481
Jes@@ 480
Roman 480
豺@@ 480
鼱 480
Kun@@ 479
control 479
ize 479
ken@@ 479
kno@@ 479
lu 479
na@@ 479
ž 479
挟@@ 479
檄 479
笠@@ 479
覃 479
Ferr@@ 478
Luis 478
Nag@@ 478
ו 478
扛 478
蜢 478
鎢 478
钋 478
鯔 478
鶲 478
｜ 478
Riv@@ 477
wig 477
仡@@ 477
玘 477
痢@@ 477
蠢@@ 477
鈞@@ 477
cia 476
esi 476
lay@@ 476
ş 476
悯 476
鮎@@ 476
Kil@@ 475
Washington 475
van@@ 475
俨 475
晗 475
炊@@ 475
窿 475
鄜 475
镠 475
镭 475
gar 474
rup@@ 474
tain@@ 474
勣 474
孪@@ 474
abe 473
ias 473
priv@@ 473
sed 473
́ 473
睫@@ 472
锆 472
闾@@ 472
orient@@ 471
Л 471
箐 471
蔴 471
Aug@@ 470
ingen 470
lah 470
nik 470
ues 470
阙@@ 470
polit@@ 469
铟 469
锣@@ 469
Ji@@ 468
Se 468
cine 468
many 468
ult@@ 468
↔ 468
镧 468
elen 467
itt 467
ヒ 467
啞 467
钵@@ 467
between 466
cio 466
sm@@ 466
wn@@ 466
丟 466
锶 466
Hat@@ 465
Vor@@ 465
aver@@ 465
囑@@ 465
寔 465
揖 465
芪 465
銹@@ 465
Album 464
ander@@ 464
fur@@ 464
咱@@ 464
拚 464
泫 464
鉻@@ 464
＜ 464
Franz 463
onne 463
sequ@@ 463
ư 463
喂 463
滄 463
発 463
舂 463
钗 463
闺@@ 463
alist 462
叱 462
塬 462
摻@@ 462
熏 462
聳 462
蛄 462
谘@@ 462
遏 462
騫 462
eb 461
hand@@ 461
ˈ 461
弈@@ 461
惩 461
橡 461
淦@@ 461
灏 461
畈 461
篷@@ 461
藨 461
钺 461
雉@@ 461
fon@@ 460
road 460
ː 460
愔 460
漓@@ 460
釵 460
锌@@ 460
avi@@ 459
four 459
syst@@ 459
吶@@ 459
岬@@ 459
戊 459
葦@@ 459
飆 459
eral 458
儷 458
悶@@ 458
摹@@ 458
綝 458
驢 458
鷲@@ 458
ography 457
them 457
喔 457
肱 457
脛@@ 457
芷 457
荳 457
贲 457
镌@@ 457
French 456
gel@@ 456
isi 456
傍 456
棣@@ 456
殮 456
涤@@ 456
簋 456
袂 456
躯 456
铠@@ 456
３ 456
哌@@ 455
埴 455
嬤 455
廸 455
摯 455
汎 455
煒@@ 455
铿 455
慤 454
扒@@ 454
毙@@ 454
濺 454
蝟 454
銬 454
Mass@@ 453
aine 453
position 453
峦 453
祆 453
綑 453
膊 453
菇@@ 453
菰 453
annes 452
asse 452
dol@@ 452
hips 452
mark 452
ministr@@ 452
冢@@ 452
剔 452
嘩@@ 452
笞 452
蔥@@ 452
阉@@ 452
By 451
Nati@@ 451
fs 451
ས 451
惶 451
瑣 451
蓟 451
钳@@ 451
铀@@ 451
aut@@ 450
enter 450
esia 450
Đ 450
绶@@ 450
Atlan@@ 449
Jose@@ 449
Ö 449
ù 449
扯@@ 449
曰@@ 449
榛@@ 449
皎 449
蜑 449
酝@@ 449
骡@@ 449
team 448
榎 448
珙 448
繽@@ 448
衬 448
袱 448
aves 447
hav@@ 447
refer@@ 447
惋@@ 447
揶@@ 447
芾 447
钍 447
kel 446
num@@ 446
ppe 446
戾 446
挟 446
礪 446
鞠 446
uni 445
拽 445
曄 445
渍 445
薙 445
譁 445
鏢@@ 445
飭 445
esh@@ 444
û 444
ж 444
刃@@ 444
嘢 444
涞@@ 444
瀟@@ 444
痙@@ 444
藁@@ 444
驭 444
Ou@@ 443
aud 443
park 443
tt@@ 443
吒@@ 443
毯@@ 443
獠@@ 443
粽 443
胛@@ 443
裟 443
顔 443
鲑 443
鹟 443
鹬 443
lier 442
徠 442
腮@@ 442
袤 442
Augus@@ 441
ague 441
did@@ 441
eds 441
gan@@ 441
gun 441
hr 441
vit@@ 441
臍 441
薈 441
蚩@@ 441
诋@@ 441
郤 441
霆@@ 441
Alb@@ 440
Heinrich 440
They 440
fort 440
吼@@ 440
堑 440
曳@@ 440
缨 440
蟀 440
铈 439
리 439
﹔ 439
ames 438
being 438
岙 438
枇@@ 438
楸 438
涤 438
翘@@ 438
辄 438
錕 438
钏 438
鸯 438
Australia 437
Esp@@ 437
eder@@ 437
lib@@ 437
nam 437
new@@ 437
pap@@ 437
semb@@ 437
У 437
夙@@ 437
挹@@ 437
淘 437
萘@@ 437
锺@@ 437
馗 437
KK 436
kal@@ 436
peti@@ 436
sam@@ 436
坻 436
増 436
擄@@ 436
皺@@ 436
绮 436
鳟 436
camp@@ 435
chu@@ 435
etz@@ 435
led 435
speci@@ 435
両 435
冏 435
宸@@ 435
屑@@ 435
嵙 435
謇 435
钮@@ 435
阡 435
Mart 434
kat@@ 434
language 434
made 434
吲@@ 434
哦 434
庠@@ 434
惣 434
氰 434
牯@@ 434
蓀 434
覲@@ 434
Champi@@ 433
Il 433
fle@@ 433
hur@@ 433
ths 433
versi@@ 433
ˇ 433
佺 433
沱 433
篝@@ 433
蝸 433
Pom@@ 432
gol@@ 432
pon@@ 432
瓮 432
蹲@@ 432
錒 432
雒 432
bec@@ 431
single 431
佃 431
佢 431
浒 431
燎@@ 431
緋 431
诀 431
钾@@ 431
Bang@@ 430
Grande 430
ause 430
make 430
冇 430
祯@@ 430
靳 430
骞 430
＃ 430
ï 429
忿@@ 429
桶@@ 429
溼 429
紘 429
蔵 429
鹊@@ 429
usi@@ 428
咩 428
坨 428
滌 428
舯 428
貘 428
鞮 428
鼬@@ 428
dos 427
por 427
ʔ 427
垠 427
惱@@ 427
暘 427
硝 427
诩 427
aten 426
弑 426
掷@@ 426
攪 426
杷 426
蠶 426
鄲 426
Kaz@@ 425
Lig@@ 425
chen@@ 425
cro@@ 425
known 425
¹ 425
淪 425
Empire 424
fun@@ 424
vec@@ 424
凄@@ 424
咖 424
磯@@ 424
缎 424
陟 424
agon@@ 423
inga 423
ligh@@ 423
挾 423
盯@@ 423
缢 423
肘@@ 423
葶 423
铲 423
颉@@ 423
Con 422
anta 422
cription 422
kir@@ 422
ris@@ 422
sour@@ 422
vor@@ 422
喹@@ 422
拗 422
挚 422
梆@@ 422
樫 422
禛 422
筛 422
膿@@ 422
鉻 422
Neu@@ 421
ń 421
哄@@ 421
哚 421
磘 421
Henri 420
Pedro 420
aug@@ 420
bara 420
icia 420
mad@@ 420
wards 420
侮 420
坯 420
斌@@ 420
槻@@ 420
烛@@ 420
鞏 420
骇@@ 420
鳉 420
asc@@ 419
nh 419
㎡ 419
冼 419
岂 419
忻 419
羿 419
鏖@@ 419
鮈 419
Hau@@ 418
垭 418
嶇 418
幡@@ 418
忤@@ 418
暉@@ 418
殉 418
璐@@ 418
脩@@ 418
苕 418
蛎 418
褂 418
訇 418
谯@@ 418
贪 418
蹼 418
April 417
odes 417
tam@@ 417
嗨 417
玑 417
郗@@ 417
鉚@@ 417
５ 417
asti@@ 416
rez 416
岘 416
淌 416
熔 416
眙 416
蜷@@ 416
逛 416
钌 416
顫 416
June 415
vil@@ 415
wen@@ 415
刎 415
勲 415
繙 415
茛 415
蜗 415
袈@@ 415
铼 415
閎 415
鳕 415
Haz@@ 414
aborat@@ 414
実 414
苋@@ 414
鉄 414
Austr@@ 413
Gaz@@ 413
Penn@@ 413
ej@@ 413
imo 413
rid 413
spir@@ 413
uki 413
儼 413
垛 413
睢 413
絆@@ 413
綻 413
羨 413
郜@@ 413
鈍@@ 413
饬 413
nuc@@ 412
嘱@@ 412
恣@@ 412
昙 412
淼 412
穰 412
贓 412
鳢 412
rest@@ 411
ý 411
น 411
挛 411
罌@@ 411
锰@@ 411
饅@@ 411
Kre@@ 410
initi@@ 410
sist@@ 410
ホ 410
唸@@ 410
瓌 410
餾@@ 410
abil@@ 409
ful@@ 409
indi@@ 409
ional 409
oti@@ 409
track 409
ì 409
曠 409
猗 409
釗@@ 409
鯡 409
Gem@@ 408
bour@@ 408
ilia 408
sul@@ 408
亵@@ 408
凜@@ 408
勻@@ 408
曙 408
樾 408
澡@@ 408
牍 408
翹@@ 408
蒾 408
顼 408
鯓 408
det@@ 407
eto 407
riff@@ 407
墉 407
憨@@ 407
汴 407
澆@@ 407
琚 407
璩 407
蜕@@ 407
鍬 407
铢 407
髅 407
chang@@ 406
cla@@ 406
ischer 406
zu 406
懈@@ 406
樋@@ 406
繃 406
综 406
羈 406
躄 406
ayan 405
final 405
sou@@ 405
species 405
tun@@ 405
捻@@ 405
晔 405
烽 405
詡 405
鈽 405
eur 404
rier 404
げ 404
姫 404
獴 404
謐 404
鯧 404
Emp@@ 403
India 403
ξ 403
ة 403
ق 403
孰@@ 403
岀 403
憊 403
浔 403
詮 403
鶻 403
ener 402
exp@@ 402
gin@@ 402
uo 402
俳 402
恵 402
椽 402
硐 402
绯@@ 402
脛 402
鉤@@ 402
锂@@ 402
Deutsch@@ 401
喫 401
忤 401
anim@@ 400
area 400
巻 400
淤 400
ion@@ 399
kon@@ 399
嚣 399
琐@@ 399
蟋@@ 399
诟@@ 399
颍 399
Ok@@ 398
Shu@@ 398
appro@@ 398
bau@@ 398
dist@@ 398
nt 398
  398
卒@@ 398
歹 398
絞 398
eca 397
force 397
inning 397
潞 397
疯 397
痉@@ 397
鵡@@ 397
４ 397
ules 396
ψ 396
坷 396
恽@@ 396
惺@@ 396
扉 396
揽@@ 396
瞪@@ 396
腥@@ 396
莒 396
钇 396
骯 396
Sport@@ 395
arc@@ 395
aro@@ 395
azz 395
dam@@ 395
prob@@ 395
攒 395
邬@@ 395
郅 395
鲫 395
Roy@@ 394
ought 394
tar 394
啾 394
懼@@ 394
擘 394
砚 394
豉 394
鼯@@ 394
dar@@ 393
hie 393
焗 393
遹 393
amo 392
progr@@ 392
僥 392
僳@@ 392
宓 392
掳@@ 392
溅@@ 392
迺 392
鷸 392
鹭@@ 392
stor@@ 391
珑 391
睑 391
臆@@ 391
赉@@ 391
鮄 391
bes@@ 390
kan 390
tek 390
tric@@ 390
ح 390
椁 390
殯 390
籬@@ 390
Et@@ 389
Schwar@@ 389
alo 389
onal@@ 389
糞@@ 389
脾 389
蜃@@ 389
謔 389
鎳@@ 389
閲 389
髯 389
昼 388
泮 388
莆 388
隷 388
鬬 388
鶚 388
ien 387
仄@@ 387
烬 387
辊 387
飢 387
Premier 386
cam@@ 386
dul@@ 386
esh 386
iter 386
solo 386
some@@ 386
儕 386
拭 386
枷@@ 386
楹@@ 386
汲 386
翩@@ 386
赃@@ 386
邽 386
chia 385
met 385
侃@@ 385
嵋 385
彤@@ 385
徕 385
掀 385
摧 385
涧@@ 385
纓 385
蔘 385
轧@@ 385
郫@@ 385
bon@@ 384
vier 384
嘶@@ 384
曦@@ 384
溱 384
漣@@ 384
眩 384
耸 384
鋤@@ 384
lich@@ 383
nav@@ 383
巿 383
槿 383
疙@@ 383
穂 383
钳 383
ebe 382
ums 382
伕 382
喋@@ 382
懇 382
浣 382
舔 382
苜@@ 382
菟 382
褻@@ 382
蹊@@ 382
before 381
enf@@ 381
ices 381
illo 381
ils 381
wel@@ 381
囓@@ 381
洹 381
讹@@ 381
0s 380
parti@@ 380
spr@@ 380
侶@@ 380
劵 380
嘿 380
懾 380
罡 380
趴 380
Reich@@ 379
aller 379
ander 379
ouv@@ 379
pre 379
wi 379
奘@@ 379
汊 379
睫 379
竈 379
아 379
Vik@@ 378
rue 378
times 378
uer@@ 378
尕@@ 378
崽 378
瘩 378
荼@@ 378
螂@@ 378
訛@@ 378
讥@@ 378
閡 378
靚 378
brach@@ 377
forman@@ 377
ㄚ 377
俐@@ 377
咯@@ 377
嶂 377
幪 377
甑 377
绮@@ 377
蝮 377
詬@@ 377
酆 377
銣 377
駅 377
cole 376
ras@@ 376
what 376
Γ 376
砀@@ 376
胫@@ 376
腓 376
誅@@ 376
逮 376
雋 376
馒@@ 376
鬃 376
Alt@@ 375
chem@@ 375
high@@ 375
med 375
僊 375
煜@@ 375
翎@@ 375
蠡 375
郷 375
Her 374
Hin@@ 374
court 374
etes 374
ses@@ 374
囍 374
熬@@ 374
燊@@ 374
疍 374
簿@@ 374
蹠 374
arti@@ 373
contribut@@ 373
mes@@ 373
催 373
僻@@ 373
弢 373
汹@@ 373
滌@@ 373
秆 373
茁@@ 373
Australian 372
凜 372
棂 372
珉@@ 372
蚁@@ 372
lam 371
mach@@ 371
ned 371
run@@ 371
tab@@ 371
tit@@ 371
ㄨ 371
糰 371
羟 371
苫 371
赉 371
錚 371
铷 371
aster@@ 370
ece 370
front 370
oko 370
卯@@ 370
昙@@ 370
昶@@ 370
桀 370
碚 370
茸@@ 370
蒞@@ 370
裹@@ 370
謂@@ 370
輓 370
ben 369
far@@ 369
featur@@ 369
ud 369
wak@@ 369
Š 369
壶@@ 369
慫@@ 369
欒@@ 369
珞 369
痞@@ 369
蘸 369
辕@@ 369
闯 369
Ba 368
burg@@ 368
兗 368
姒 368
帛@@ 368
挝@@ 368
棨 368
虱@@ 368
詼@@ 368
頷 368
fir@@ 367
isp@@ 367
① 367
佶 367
绎@@ 367
Gru@@ 366
Was@@ 366
cht 366
els@@ 366
enta 366
iment 366
itation 366
sche 366
傉 366
廪 366
禀 366
苾 366
蛉 366
artic@@ 365
fi 365
fus@@ 365
open@@ 365
uru 365
歙 365
穢@@ 365
筐 365
鈈 365
Stein@@ 364
eros 364
last 364
prom@@ 364
廩 364
懊@@ 364
楽 364
礽 364
鍺 364
Angeles 363
Tenn@@ 363
agne 363
apa 363
cus@@ 363
咭 363
擷@@ 363
楂 363
殓 363
涝@@ 363
牴 363
蚋 363
趴@@ 363
event@@ 362
video 362
哋 362
拚@@ 362
氖 362
洸 362
牵 362
狭 362
璣 362
痣 362
誰@@ 362
辇 362
born 361
ition 361
och 361
Α 361
亶 361
伝 361
岷 361
獐@@ 361
蠑@@ 361
Der 360
iler 360
phot@@ 360
post 360
埭 360
泚 360
碣 360
萁 360
蓿 360
馅@@ 360
Beh@@ 359
Migu@@ 359
rev@@ 359
sup@@ 359
綢@@ 359
葩 359
靛@@ 359
Frank@@ 358
eti 358
org@@ 358
toral 358
揪@@ 358
湄 358
諤 358
0.000 357
Kim@@ 357
Manuel 357
tas@@ 357
ustr@@ 357
َ 357
咫@@ 357
嫔@@ 357
孿@@ 357
惮 357
祎 357
蕪@@ 357
謨@@ 357
贰 357
钤 357
Kul@@ 356
fel@@ 356
inv@@ 356
program 356
娠@@ 356
瞭 356
瞿 356
罹 356
闓 356
闔 356
鹳 356
atom@@ 355
both 355
hon@@ 355
ird 355
part@@ 355
run 355
吝@@ 355
昺 355
犒@@ 355
糜 355
腑 355
詆@@ 355
踵@@ 355
鱒 355
Christi@@ 354
President 354
Rep@@ 354
clo@@ 354
mix@@ 354
Č 354
ش 354
倬 354
傚 354
愨 354
誣 354
Baz@@ 353
Bes@@ 353
cos 353
侂 353
岫@@ 353
愕 353
燻 353
砺 353
觴 353
譙@@ 353
跗@@ 353
酈@@ 353
bran@@ 352
lav@@ 352
player 352
typ@@ 352
敝 352
桉@@ 352
缇 352
觅 352
real 351
¥ 351
Ü 351
丐@@ 351
滏@@ 351
犰@@ 351
缙 351
菝@@ 351
葜 351
藪 351
鄒 351
铌 351
镰 351
饥 351
dat@@ 350
ierra 350
ย 350
枸@@ 350
鉍 350
Ａ 350
ble@@ 349
za@@ 349
垛@@ 349
峤 349
疡 349
箇 349
萜 349
蝾@@ 349
鎘 349
驷 349
athol@@ 348
dur@@ 348
fem@@ 348
imi@@ 348
viv@@ 348
丫 348
洶@@ 348
硯 348
逍 348
邯 348
Olympi@@ 347
aber 347
enh@@ 347
expres@@ 347
sons 347
Φ 347
拋 347
殤 347
滲 347
焓 347
粑 347
纘 347
觎 347
Rein@@ 346
these 346
ɕ 346
噱@@ 346
嬤@@ 346
枱 346
贱@@ 346
ares 345
eine 345
ref@@ 345
san 345
έ 345
嚙 345
淒@@ 345
淬@@ 345
盯 345
邰@@ 345
Kos@@ 344
bis@@ 344
eler 344
enci@@ 344
him@@ 344
sar@@ 344
tie 344
柄@@ 344
熄 344
狳 344
罔 344
蕎@@ 344
讹 344
赃 344
鲵 344
鳗@@ 344
Chicago 343
ament 343
angel@@ 343
坌 343
娥@@ 343
毌 343
禀@@ 343
肮@@ 343
郦@@ 343
锢 343
馴 343
黟@@ 343
Professor 342
isch 342
rich 342
ה 342
嚥 342
憩@@ 342
晖@@ 342
栒 342
櫚 342
濡 342
璁 342
绾 342
蹴@@ 342
釧@@ 342
鉀@@ 342
Bib@@ 341
Indian 341
Wir@@ 341
② 341
嘩 341
淝 341
舘 341
螯@@ 341
鲱@@ 341
Bed@@ 340
Berg@@ 340
against 340
lov@@ 340
mess@@ 340
岫 340
燧@@ 340
犛@@ 340
甕@@ 340
绫 340
霈 340
鸠@@ 340
侑 339
囧 339
泣@@ 339
濘 339
瘴@@ 339
胳@@ 339
麿 339
Cum@@ 338
Ges@@ 338
Kamp@@ 338
rou@@ 338
techn@@ 338
ě 338
ユ 338
ヴ 338
尕 338
扩 338
痲 338
磋 338
綽 338
茧 338
锄@@ 338
髹 338
His 337
Milit@@ 337
eur@@ 337
ogle 337
ḥ 337
戳@@ 337
扛@@ 337
睜@@ 337
翦 337
膑 337
芍@@ 337
蹶@@ 337
지 337
Munici@@ 336
during 336
fen@@ 336
plas@@ 336
tos 336
trav@@ 336
uses 336
Λ 336
簫 336
觊@@ 336
锣 336
陉 336
頷@@ 336
馅 336
kom@@ 335
oso 335
ran 335
syl@@ 335
เ 335
皙 335
翳 335
顷@@ 335
騏 335
鳶@@ 335
鼴@@ 335
voc@@ 334
xa 334
Π 334
ม 334
皝 334
躉 334
轸 334
feld 333
lic@@ 333
rock 333
writ@@ 333
疝 333
皎@@ 333
脓@@ 333
ingo 332
ざ 332
渚@@ 332
稗 332
贓@@ 332
鏘 332
鑛 332
闕@@ 332
驪@@ 332
鹑 332
Canadi@@ 331
Mann@@ 331
Nord@@ 331
tly 331
ṭ 331
䲗 331
紂 331
苄 331
讣@@ 331
鄢 331
銥 331
钜 331
関@@ 331
阖 331
鲶@@ 331
Arab@@ 330
abor@@ 330
lik@@ 330
ling@@ 330
onz@@ 330
uba 330
凈 330
啲 330
嗝 330
搐 330
旃@@ 330
炘 330
祛@@ 330
辮 330
邙@@ 330
鎔@@ 330
闷@@ 330
龔 330
ging 329
ible 329
later 329
qua 329
stadt 329
ʃ 329
対 329
尙 329
牂 329
腋 329
菅 329
讒@@ 329
閥@@ 329
鲈@@ 329
Rah@@ 328
iden 328
ished 328
stud@@ 328
ר 328
嗇 328
愷@@ 328
氦@@ 328
漣 328
碌@@ 328
稷@@ 328
竅 328
褓 328
銖 328
铑 328
镳 328
ht 327
sci@@ 327
tima 327
嚏 327
寐 327
慟 327
玖@@ 327
禕 327
邝@@ 327
驴@@ 327
鲑@@ 327
鶉 327
alt 326
ج 326
侥@@ 326
媧 326
惫 326
摺@@ 326
燥@@ 326
璞@@ 326
顥 326
ances 325
avi 325
commun@@ 325
deg@@ 325
ered 325
late 325
ད 325
佾 325
倣 325
吶 325
獭 325
銼 325
ific@@ 324
same 324
ʻ 324
ก 324
อ 324
呐@@ 324
尪 324
楝 324
蜊 324
輅 324
飘 324
鵟 324
Son 323
best 323
ina@@ 323
慮@@ 323
翱@@ 323
闋 323
鱿@@ 323
bourg 322
dem 322
head@@ 322
imp@@ 322
som@@ 322
tag 322
咗 322
塩 322
挠@@ 322
槲@@ 322
溅 322
玮@@ 322
疋 322
繡@@ 322
轅@@ 322
鎗 322
頴 322
黻 322
Carr@@ 321
bab@@ 321
design 321
lit 321
đ 321
ف 321
亵 321
吠 321
泻@@ 321
糯 321
餃@@ 321
駄 321
Alg@@ 320
Provin@@ 320
days 320
diff@@ 320
々 320
仞 320
嚎@@ 320
沔 320
眨@@ 320
秧 320
銑 320
ats@@ 319
defin@@ 319
ently 319
tot@@ 319
べ 319
哑 319
攫@@ 319
沣 319
玹 319
钨@@ 319
闿 319
骊@@ 319
黴 319
years 318
僮 318
徇@@ 318
荟@@ 318
遐 318
鎓 318
镨 318
閂 318
다 318
Ukr@@ 317
adem@@ 317
fore 317
local 317
national 317
嫂@@ 317
巳@@ 317
徳@@ 317
桀@@ 317
殃@@ 317
涛@@ 317
涩@@ 317
濡@@ 317
狨 317
笺 317
鍔 317
鍰 317
Hein@@ 316
epis@@ 316
grou@@ 316
indic@@ 316
ono 316
par 316
疸 316
菘 316
衹 316
讧 316
﹚ 316
Nob@@ 315
ables 315
aise 315
charac@@ 315
mine 315
tir@@ 315
劏 315
稗@@ 315
虬@@ 315
驕 315
German 314
igi@@ 314
ning@@ 314
tent 314
vat@@ 314
vor 314
ya@@ 314
ṣ 314
嗅 314
拏 314
琺@@ 314
瓢 314
餵@@ 314
Africa 313
UEFA 313
acter@@ 313
ican 313
iles 313
phi 313
侦 313
俾 313
沓 313
糠@@ 313
豸 313
闼 313
隽 313
auth@@ 312
bia 312
cit@@ 312
educ@@ 312
gang 312
issu@@ 312
呦 312
団 312
孽@@ 312
宥@@ 312
峙@@ 312
櫓 312
毡 312
炤 312
盂@@ 312
箋 312
聂 312
踴@@ 312
鎰 312
Rum@@ 311
ehr@@ 311
just 311
mom@@ 311
◎ 311
榊@@ 311
磾 311
蠹 311
蹬 311
锴 311
魘 311
鱟 311
aces 310
ires 310
plac@@ 310
signed 310
埸 310
璫 310
癣 310
睬 310
箬 310
諳 310
驮 310
麂 310
elles 309
enes 309
ley@@ 309
rio 309
sel 309
ural 309
ั 309
⁵ 309
拌@@ 309
殁 309
稃 309
縷 309
葭 309
谒@@ 309
飚 309
cut 308
ɑ 308
া 308
哄 308
惕@@ 308
盥@@ 308
笋@@ 308
粧 308
紡 308
絮@@ 308
蠵 308
賡 308
銮@@ 308
霓 308
Mw@@ 307
activ@@ 307
ending 307
fan@@ 307
limit@@ 307
nit@@ 307
original 307
sort 307
≠ 307
壅@@ 307
蟠 307
迩 307
found 306
翱 306
铕 306
雛 306
頑 306
馈@@ 306
骈 306
ง 305
伎@@ 305
嘟 305
廡 305
涎 305
湜 305
瓩 305
碛 305
紺 305
薊 305
贽 305
鈮 305
隙@@ 305
鱚 305
６ 305
Dani@@ 304
Fried@@ 304
Milli@@ 304
庾 304
彷@@ 304
旼 304
橿 304
緱@@ 304
脣 304
莓@@ 304
閬 304
사 304
aland 303
lec@@ 303
nat@@ 303
sep@@ 303
xe 303
Э 303
் 303
姍@@ 303
滂 303
濰@@ 303
铣 303
阚@@ 303
鲹 303
Kid@@ 302
amba 302
dir 302
erie 302
ṃ 302
啰 302
奐 302
殇 302
牘 302
瑷 302
瘀@@ 302
笆 302
篪 302
鏐 302
驢@@ 302
Sz@@ 301
alli@@ 301
pose 301
sten 301
sun@@ 301
啜 301
栉@@ 301
翀 301
脐@@ 301
軻 301
鉗@@ 301
黼 301
kn@@ 300
tour@@ 300
乓 300
寛@@ 300
弑@@ 300
棠@@ 300
钰@@ 300
Gel@@ 299
Viet@@ 299
Virginia 299
hap@@ 299
phil@@ 299
tains 299
uli 299
uro 299
ύ 299
ṇ 299
ぼ 299
叭@@ 299
巯@@ 299
捡 299
漓 299
耍@@ 299
鏟@@ 299
驃@@ 299
Au 298
Prof@@ 298
gres@@ 298
hiz@@ 298
list@@ 298
million 298
nec@@ 298
production 298
short 298
tif@@ 298
ğ 298
喰 298
搪@@ 298
瀞 298
灞 298
荞@@ 298
谯 298
贲@@ 298
逖 298
鱀 298
Nig@@ 297
З 297
矯 297
辮@@ 297
Sah@@ 296
Say@@ 296
fes@@ 296
ief 296
ك 296
न 296
‖ 296
嵬 296
涇 296
箫 296
糅@@ 296
虻 296
軛@@ 296
颤 296
﹙ 296
buil@@ 295
class@@ 295
unter@@ 295
徙@@ 295
捅 295
斃@@ 295
漕 295
瑱 295
荽 295
贮 295
钪 295
Sult@@ 294
formes 294
ime@@ 294
stell@@ 294
thu@@ 294
བ 294
≈ 294
搓 294
躪 294
雎 294
駭 294
가 294
Ireland 293
fut@@ 293
ि 293
伺 293
佰 293
囂@@ 293
宍 293
覧 293
贍 293
鏗@@ 293
amer@@ 292
idos 292
kur@@ 292
tec@@ 292
ungs@@ 292
匝 292
嗚@@ 292
噌 292
撣@@ 292
獠 292
鎏@@ 292
anh 291
א 291
ز 291
™ 291
咙 291
址@@ 291
姉 291
姍 291
枷 291
跛@@ 291
韜@@ 291
饗 291
Hist@@ 290
ilio 290
lies 290
㹴 290
爻 290
牦@@ 290
狒 290
総 290
袒@@ 290
讖@@ 290
鄄@@ 290
鉭 290
鬨 290
대 290
Berlin 289
November 289
plan 289
west 289
€ 289
壆 289
徴 289
怎 289
渎@@ 289
艱 289
衅@@ 289
铐 289
Cant@@ 288
Pak@@ 288
due 288
eux 288
obr@@ 288
partic@@ 288
six 288
ste 288
♭ 288
嘏 288
孰 288
滦 288
燄 288
绊@@ 288
訌 288
踵 288
邗@@ 288
郾@@ 288
饱 288
Liter@@ 287
oca 287
ovi@@ 287
Ф 287
म 287
倔@@ 287
卬 287
噓 287
惘 287
珂@@ 287
邹 287
Texas 286
azi 286
inn 286
ishi 286
ongo 286
provid@@ 286
rif@@ 286
ή 286
俨@@ 286
濯 286
谪 286
骶@@ 286
eda 285
iter@@ 285
take 285
吩 285
敛@@ 285
曬@@ 285
聿 285
芈 285
駢@@ 285
髂@@ 285
鹗 285
ige 284
inclu@@ 284
mati@@ 284
though 284
ɪ 284
呐 284
呷 284
嫻@@ 284
徨 284
泠 284
烙 284
蓣 284
蝰@@ 284
骼@@ 284
Yar@@ 283
club 283
construc@@ 283
jus@@ 283
present@@ 283
佇@@ 283
嚟 283
鍀 283
鳕@@ 283
김 283
kul@@ 282
э 282
ิ 282
垵 282
毬 282
瘁 282
磬 282
簕 282
苄@@ 282
衊 282
隴 282
隽@@ 282
mand@@ 281
para 281
without 281
ォ 281
撇 281
昪 281
砧@@ 281
祏 281
鉸 281
鎵 281
頊 281
Amer@@ 280
Kay@@ 280
緞@@ 280
肟 280
葯 280
霁@@ 280
atu 279
following 279
hat 279
ל 279
ོ 279
呵 279
嘛@@ 279
堉 279
柞@@ 279
珽 279
苎@@ 279
鉬 279
锇 279
January 278
効 278
嘈@@ 278
拴@@ 278
琯 278
眞 278
笙@@ 278
脯@@ 278
辺 278
alif@@ 277
essor 277
kor@@ 277
loss 277
match 277
ི 277
啦@@ 277
噠 277
玆 277
秣 277
蔺@@ 277
衫@@ 277
閻 277
鹳@@ 277
나 277
atri@@ 276
bos@@ 276
Ø 276
圮 276
嬛 276
嬸 276
崮 276
澶 276
薏@@ 276
蘅 276
銦 276
鰾 276
eg 275
hir 275
kreis 275
med@@ 275
strum@@ 275
娲 275
浇 275
滉 275
莹@@ 275
阑@@ 275
驷@@ 275
Ein@@ 274
again 274
Β 274
勺@@ 274
啥 274
慚@@ 274
戡 274
晾@@ 274
癥 274
詒 274
鋇 274
鋯 274
镀 274
靓@@ 274
頫 274
鳟@@ 274
Buch@@ 273
ator@@ 273
eka 273
nas@@ 273
oir 273
ར 273
叮 273
怂@@ 273
揪 273
暧@@ 273
縛@@ 273
罵@@ 273
谌 273
軼 273
Anton@@ 272
Las 272
could 272
termin@@ 272
冪@@ 272
哆@@ 272
溲 272
訃@@ 272
霖@@ 272
鯡@@ 272
﹣ 272
este 271
information 271
nay 271
pression 271
ག 271
ㄇ 271
劻 271
孳@@ 271
岙@@ 271
巅 271
淸 271
炁 271
烫 271
狛 271
眞@@ 271
秭@@ 271
荚@@ 271
螭 271
鄣 271
铵@@ 271
镂@@ 271
December 270
Parti@@ 270
adu@@ 270
endi@@ 270
mula 270
olan 270
俁@@ 270
槙 270
瓠 270
磕@@ 270
窰 270
耽 270
胝 270
臬 270
訕 270
鉈 270
鋂 270
igan 269
哼@@ 269
垌 269
忿 269
篱 269
谧 269
輜@@ 269
郗 269
镧@@ 269
Yor@@ 268
alar@@ 268
alla 268
concep@@ 268
libr@@ 268
tribut@@ 268
埒 268
廝@@ 268
恃@@ 268
枞@@ 268
泷@@ 268
焱 268
纭 268
胯@@ 268
趺 268
阕 268
鯒 268
黝@@ 268
Nam 267
auf@@ 267
enant 267
pay@@ 267
test@@ 267
乜 267
埂 267
弒@@ 267
杵@@ 267
柊 267
玻 267
羥 267
舢@@ 267
苌 267
襖 267
鍶 267
African 266
estruc@@ 266
seg@@ 266
嚈 266
囿 266
懒 266
舛 266
鈿 266
鵜 266
鵠 266
Nacional 265
S.@@ 265
fran@@ 265
geb@@ 265
prov@@ 265
respon@@ 265
season 265
sie 265
tico 265
ゼ 265
椋 265
稙 265
芃 265
蓆 265
谁@@ 265
邸@@ 265
陟@@ 265
鰧 265
鸛 265
Andr@@ 264
ana@@ 264
including 264
isten 264
sal 264
was@@ 264
zen@@ 264
त 264
搔@@ 264
榧 264
氬 264
涿 264
脐 264
腩 264
諱@@ 264
辫@@ 264
Institu@@ 263
sexu@@ 263
唧@@ 263
垅 263
榖 263
狒@@ 263
蘄@@ 263
韭 263
颛@@ 263
髑 263
鬟 263
Das 262
apar@@ 262
ayo 262
eki 262
emi 262
iff 262
吗@@ 262
榉 262
筏@@ 262
羧 262
鄠 262
鲆 262
﹝ 262
﹞ 262
large 261
modi@@ 261
positi@@ 261
tempor@@ 261
urg@@ 261
wes@@ 261
yak@@ 261
ю 261
♪ 261
倦@@ 261
孑@@ 261
岘@@ 261
擧 261
栻 261
槺 261
螅 261
蠱 261
躺@@ 261
逛@@ 261
鋆 261
鲉 261
adel@@ 260
ados 260
bei 260
excep@@ 260
inda 260
tex@@ 260
uel@@ 260
vel 260
曝 260
沆 260
滹@@ 260
羔 260
蘑 260
豳 260
钽 260
驩 260
鱥 260
정 260
Jul@@ 259
called 259
concer@@ 259
ip 259
unge 259
昧@@ 259
滂@@ 259
皰@@ 259
翩 259
耜 259
蚤@@ 259
輦 259
７ 259
Kais@@ 258
These 258
centr@@ 258
ically 258
nen 258
sat@@ 258
since 258
tras@@ 258
啃@@ 258
娴 258
弇 258
拈@@ 258
旃 258
枭 258
烹 258
绚@@ 258
胍 258
貽 258
鋤 258
饺@@ 258
extr@@ 257
formed 257
isis 257
schule 257
ส 257
悝 257
揹 257
椴@@ 257
瑛@@ 257
釔 257
鯷 257
Academ@@ 256
Kad@@ 256
mur@@ 256
techni@@ 256
凛@@ 256
叩 256
巂 256
柒@@ 256
湫 256
矜 256
绫@@ 256
谌@@ 256
鲃 256
스 256
dav@@ 255
different 255
ilk 255
patr@@ 255
sburg 255
visi@@ 255
∶ 255
瘿 255
粕 255
羡 255
郤@@ 255
鞣@@ 255
Inn@@ 254
full 254
isha 254
istan 254
phe 254
rad@@ 254
͡ 254
剝 254
庯 254
廆 254
朧 254
澆 254
炊 254
痞 254
舎 254
虑@@ 254
蠊 254
鏵 254
기 254
Ｂ 254
July 253
released 253
ř 253
ى 253
仝@@ 253
卹 253
咱 253
懦 253
気 253
璈 253
綉 253
芫@@ 253
藹 253
頼 253
颙 253
鳎 253
하 253
ife 252
requ@@ 252
said 252
tera 252
unda 252
咨 252
嫚 252
幗 252
诙@@ 252
gem@@ 251
saf@@ 251
ེ 251
兢@@ 251
擂 251
榭@@ 251
橱@@ 251
湣 251
猞@@ 251
砧 251
粱@@ 251
蒽@@ 251
螫 251
赘 251
踊@@ 251
ectiv@@ 250
viol@@ 250
ว 250
憎 250
杼 250
濶 250
詧 250
９ 250
Mai 249
did 249
enz 249
kol@@ 249
optera 249
qui 249
œ 249
劄 249
塽 249
惚 249
扼 249
攬@@ 249
猁 249
瘀 249
苈 249
貯 249
輟 249
驤@@ 249
Grou@@ 248
ived 248
ogen 248
umo 248
õ 248
ש 248
└ 248
悸 248
殃 248
殻 248
渤 248
蛆 248
雫 248
鹵 248
｡ 248
Chic@@ 247
Hak@@ 247
ilo 247
क 247
唄 247
峄 247
昕@@ 247
槤 247
猗@@ 247
琬@@ 247
罽 247
脯 247
蕤 247
蝎 247
衎 247
Hoch@@ 246
lead@@ 246
tific@@ 246
ա 246
垓 246
塾@@ 246
娴@@ 246
濑 246
窈@@ 246
轧 246
鋦 246
頡 246
鲂 246
differ@@ 245
÷ 245
呻@@ 245
嚎 245
坭 245
廄 245
懺 245
砹 245
篱@@ 245
謾 245
逹 245
郛 245
鄖@@ 245
醃@@ 245
骰 245
haus 244
resp@@ 244
stan@@ 244
sus@@ 244
tag@@ 244
③ 244
䓬 244
枹 244
榫 244
潯 244
珙@@ 244
瑊 244
睁@@ 244
赡@@ 244
铆@@ 244
馏@@ 244
Ped@@ 243
anos 243
social 243
temper@@ 243
ф 243
劊@@ 243
婧 243
恕@@ 243
珈@@ 243
篁 243
逋 243
einer 242
lich 242
reduc@@ 242
ually 242
zon@@ 242
ạ 242
俑@@ 242
変 242
妞@@ 242
栉 242
槻 242
祔 242
铳 242
隗 242
饉 242
Braz@@ 241
Wak@@ 241
alan@@ 241
around 241
dies 241
dru@@ 241
ers@@ 241
figur@@ 241
general 241
nier 241
rat 241
studi@@ 241
third 241
仝 241
崆@@ 241
潯@@ 241
煨 241
苹 241
藺@@ 241
鏑 241
镕 241
라 241
한 241
September 240
history 240
ơ 240
מ 240
屐 240
嵋@@ 240
恽 240
憍 240
旼@@ 240
簸 240
聋 240
荏@@ 240
蛊 240
酢 240
鋐 240
鎔 240
铱 240
의 240
Ant@@ 239
building 239
engine 239
onde 239
ờ 239
删 239
嗡 239
抜 239
晸 239
柃 239
爹@@ 239
継 239
緲 239
踐@@ 239
躏 239
阂 239
雩 239
鬘 239
어 239
Constitu@@ 238
Leb@@ 238
law@@ 238
may@@ 238
nos 238
studio 238
tru@@ 238
§ 238
Ⅳ 238
ヨ 238
佞 238
佤 238
捶 238
豨 238
８ 238
alian 237
feder@@ 237
prof@@ 237
titu@@ 237
tour 237
嶝 237
摑 237
泯 237
涯@@ 237
珺 237
砥 237
耦 237
肛 237
艰 237
謗@@ 237
顴@@ 237
鳝 237
鷗@@ 237
동 237
amar@@ 236
election 236
fall 236
gal 236
ised 236
still 236
丼 236
亳 236
嘟@@ 236
嶼@@ 236
廕 236
瀅 236
瀘 236
瘡@@ 236
稈 236
筍@@ 236
錸 236
鑿@@ 236
铪 236
陌 236
鹀 236
Sek@@ 235
Stra@@ 235
ained 235
ched 235
incre@@ 235
嗡@@ 235
屌 235
殤@@ 235
煚 235
睺 235
胧 235
鄴@@ 235
骈@@ 235
鰲@@ 235
鷄 235
鼴 235
ographi@@ 234
sac@@ 234
ъ 234
づ 234
崐 234
旸 234
濞 234
緘@@ 234
绯 234
缗 234
胂 234
钐 234
･ 234
Olymp@@ 233
eleg@@ 233
event 233
nea 233
platz 233
tique 233
ʂ 233
Κ 233
ệ 233
拗@@ 233
溆@@ 233
萜@@ 233
諲 233
谗@@ 233
貉 233
颉 233
骊 233
魄@@ 233
Boston 232
Form 232
Schw@@ 232
because 232
isco 232
lag@@ 232
party 232
person@@ 232
within 232
̃ 232
哼 232
垸 232
筮 232
粥@@ 232
苋 232
谑 232
隰@@ 232
飼 232
dan@@ 231
enda 231
vet@@ 231
噜 231
嵗 231
嵘 231
戢 231
扦@@ 231
浐 231
紂@@ 231
蹺 231
铂@@ 231
镁@@ 231
餃 231
October 230
anza 230
cover@@ 230
distribu@@ 230
fast 230
orio 230
say@@ 230
tres 230
ת 230
犛 230
癖@@ 230
賁@@ 230
钫 230
锝 230
clos@@ 229
eras 229
erra 229
games 229
member 229
ool 229
pio 229
tari@@ 229
̍ 229
刽@@ 229
厮@@ 229
喹 229
嗩@@ 229
妣 229
妲@@ 229
渑@@ 229
烃@@ 229
硏 229
碶 229
窘 229
贇 229
郿 229
주 229
alle 228
angi 228
endi 228
kam@@ 228
ording 228
rique 228
掐@@ 228
臍@@ 228
蠔 228
踊 228
雋@@ 228
Spi@@ 227
pun@@ 227
ב 227
⟩ 227
乗 227
俎 227
壙 227
炕 227
猥 227
萱@@ 227
魣 227
龑 227
Ce 226
Pf@@ 226
another 226
edi 226
侑@@ 226
劾@@ 226
墬 226
姫@@ 226
恫@@ 226
桉 226
绊 226
翥 226
腭@@ 226
轲 226
鐲 226
镝 226
성 226
Meh@@ 225
Sach@@ 225
aden 225
ahl 225
eas 225
fig@@ 225
regi@@ 225
until 225
¬ 225
⟨ 225
ㄆ 225
卽 225
吧@@ 225
圉 225
揍 225
楔 225
淯 225
炖 225
瑠 225
裱 225
襁@@ 225
銹 225
Es 224
allas 224
construction 224
echo 224
integr@@ 224
lara 224
lie@@ 224
main@@ 224
佞@@ 224
哏 224
啼 224
噗 224
揖@@ 224
沩@@ 224
涣@@ 224
濊 224
闳 224
鯧@@ 224
ached 223
ande 223
mis 223
organiz@@ 223
tad@@ 223
yal@@ 223
凛 223
奂 223
広 223
禩 223
诰@@ 223
镖@@ 223
靄@@ 223
鯪 223
鯻 223
鱵 223
鲟 223
ainer 222
clus@@ 222
leri 222
shu@@ 222
tes@@ 222
union 222
刨@@ 222
惺 222
斤@@ 222
縝@@ 222
胰 222
蓖@@ 222
閾@@ 222
鞦 222
Ab 221
Bask@@ 221
church 221
energ@@ 221
isto 221
mari@@ 221
sta@@ 221
stant@@ 221
tur 221
  221
圪@@ 221
妫 221
峋 221
嶙@@ 221
恳 221
楮 221
琥 221
箝@@ 221
萇 221
蛀@@ 221
蠱@@ 221
鎂@@ 221
陨 221
韆 221
饌 221
鮗 221
Kus@@ 220
anes 220
dam 220
enburg 220
played 220
spi@@ 220
thi 220
冴@@ 220
唁@@ 220
媾@@ 220
搓@@ 220
灞@@ 220
碴 220
磧 220
颞@@ 220
鸚 220
鹈@@ 220
ahr@@ 219
compar@@ 219
inger@@ 219
ort@@ 219
sav@@ 219
≡ 219
嗶 219
嗶@@ 219
畀 219
瞼 219
銚 219
鍇 219
闌@@ 219
development 218
uj@@ 218
ё 218
佟 218
圏 218
炆 218
瞪 218
蓑@@ 218
薮 218
迤 218
鎭 218
镯 218
鰩 218
鸵@@ 218
鹧@@ 218
country 217
fund@@ 217
ograph@@ 217
zu@@ 217
Е 217
■ 217
♯ 217
仟 217
憨 217
攘 217
毂 217
汧 217
箍@@ 217
絀 217
翦@@ 217
舾@@ 217
褔 217
邛 217
邬 217
鈀 217
鈐 217
鏜 217
雑 217
鳔 217
A.@@ 216
ako 216
ater@@ 216
cher@@ 216
dens@@ 216
isation 216
jur@@ 216
points 216
quit@@ 216
red@@ 216
those 216
刁 216
厮 216
垻 216
埈 216
畹 216
碣@@ 216
絹@@ 216
踹 216
원 216
Ost@@ 215
ahl@@ 215
ehr 215
Ś 215
溏 215
瞧 215
矾@@ 215
簪@@ 215
耨 215
鸪 215
Kri@@ 214
Para 214
Phi 214
bli@@ 214
classi@@ 214
five 214
ici 214
ises 214
lang@@ 214
raine 214
tish 214
zer@@ 214
ぬ 214
卟 214
呜@@ 214
嘘 214
戔 214
澀@@ 214
獒 214
瑈 214
痂 214
皐 214
矜@@ 214
罟 214
脍@@ 214
薙@@ 214
铽 214
鲽 214
However 213
archit@@ 213
often 213
once 213
pen 213
region 213
vas@@ 213
º 213
啤 213
拭@@ 213
朥 213
橱 213
羁 213
莢@@ 213
闱 213
髋@@ 213
麹 213
Philipp@@ 212
Sin 212
ayn@@ 212
boy@@ 212
eil 212
haus@@ 212
suff@@ 212
total 212
स 212
མ 212
噝 212
坯@@ 212
楙 212
猷@@ 212
窖@@ 212
萣 212
迤@@ 212
驪 212
鶓 212
const@@ 211
edit@@ 211
erek 211
isl@@ 211
neu@@ 211
vie 211
ǎ 211
ท 211
唬 211
唵 211
挞 211
捌 211
搵 211
殞@@ 211
燿 211
砰 211
竜 211
籙 211
絵 211
緹@@ 211
芊@@ 211
蘧 211
蹦 211
Yes@@ 210
cour@@ 210
ede 210
forc@@ 210
iliz@@ 210
ą 210
䲁 210
偲@@ 210
咚 210
啃 210
寳 210
旂 210
昰 210
臾 210
莖@@ 210
蒺@@ 210
蔺 210
蠅@@ 210
赈 210
錨@@ 210
钿 210
骁 210
鱘@@ 210
Kem@@ 209
americ@@ 209
ately 209
lis@@ 209
mt@@ 209
orie 209
佼 209
圯 209
坍 209
擷 209
榻@@ 209
禑 209
紓@@ 209
袄 209
詁 209
谤@@ 209
贄 209
釩 209
鉲 209
驄 209
carri@@ 208
dar 208
frag@@ 208
yat@@ 208
䴉 208
圹 208
姝 208
寘 208
拣 208
烜 208
煖 208
狽 208
畯 208
癲 208
貊 208
蹋 208
転 208
轶 208
铠 208
隰 208
鳀 208
鸻 208
Nord 207
atia 207
contin@@ 207
cou@@ 207
esch@@ 207
esto 207
pour 207
━ 207
墉@@ 207
熨@@ 207
硯@@ 207
羹@@ 207
腴 207
鉏 207
闘 207
頹 207
Herr@@ 206
apon 206
bio 206
stand 206
弛@@ 206
渕 206
燙@@ 206
琇@@ 206
砻@@ 206
篡 206
藿 206
蟄@@ 206
襦 206
諶 206
謫@@ 206
诠 206
郕 206
関 206
February 205
Ital@@ 205
atos 205
bed 205
gu 205
much 205
rant 205
Х 205
傢@@ 205
卐 205
撬@@ 205
瞧@@ 205
縁 205
賑 205
髪 205
鶿 205
서 205
continu@@ 204
docum@@ 204
isse 204
pend@@ 204
俣@@ 204
胼@@ 204
脹@@ 204
褥 204
轆 204
鐺 204
阊 204
饕@@ 204
髭 204
魷 204
Zu@@ 203
aged 203
ainst 203
aissance 203
antes 203
cant@@ 203
esses 203
eye 203
minut@@ 203
poli@@ 203
senti@@ 203
sible 203
strat@@ 203
support 203
། 203
ུ 203
僮@@ 203
垓@@ 203
娟@@ 203
峁 203
栎@@ 203
湟 203
秣@@ 203
綰 203
繭@@ 203
茌@@ 203
蹠@@ 203
appe@@ 202
clu@@ 202
nak@@ 202
vern@@ 202
ween 202
þ 202
ぞ 202
亙 202
叼 202
啖 202
撕 202
犄@@ 202
箸 202
纣@@ 202
荩 202
裒 202
镒 202
鱒@@ 202
鸲 202
鹩 202
Italia 201
aji 201
cru@@ 201
design@@ 201
elt@@ 201
etti@@ 201
fin 201
half 201
nationale 201
nes@@ 201
onto 201
present 201
yal 201
yar@@ 201
昐 201
璆 201
笪 201
藕@@ 201
覡 201
铨@@ 201
우 201
Israel 200
anan 200
associ@@ 200
develop@@ 200
ided 200
kun@@ 200
performan@@ 200
represent@@ 200
sei 200
ა 200
哺 200
岌 200
廿 200
拴 200
珐@@ 200
瑾@@ 200
痢 200
azar@@ 199
beau@@ 199
early 199
exten@@ 199
hara 199
imin@@ 199
offici@@ 199
İ 199
Μ 199
प 199
刨 199
娅@@ 199
庹@@ 199
惲@@ 199
曩 199
槊 199
欒 199
瓛 199
瘙@@ 199
経 199
诒 199
酣@@ 199
Tek@@ 198
Volks@@ 198
apo 198
bas 198
cum@@ 198
liga 198
sein 198
ę 198
厕 198
売 198
娑@@ 198
桫@@ 198
浠@@ 198
甪 198
痍 198
秽@@ 198
窥 198
繖 198
腌 198
菟@@ 198
谘 198
辫 198
錇 198
闈 198
陉@@ 198
bak@@ 197
cad@@ 197
ế 197
劢 197
唑@@ 197
姗@@ 197
庥 197
桜 197
畋 197
瞒@@ 197
笄 197
绽@@ 197
缬@@ 197
缽@@ 197
葳 197
謄@@ 197
钬 197
骄 197
鼹@@ 197
Ｃ 197
Ere@@ 196
Institut 196
liber@@ 196
mig@@ 196
凫 196
剥 196
晾 196
柽@@ 196
毋 196
沥 196
熜 196
熠 196
犊 196
粄 196
苧@@ 196
茔 196
荸@@ 196
蔦 196
轆@@ 196
餮 196
髖@@ 196
고 196
미 196
Bu 195
Tang@@ 195
econom@@ 195
exist@@ 195
idence 195
tribu@@ 195
uss 195
ล 195
่ 195
勷 195
婭@@ 195
泷 195
烺 195
燹 195
臻@@ 195
雏 195
鬲 195
鴯@@ 195
acht 194
amen 194
foc@@ 194
hist@@ 194
oj@@ 194
rech@@ 194
record 194
俪 194
嘶 194
廻 194
怙 194
斟 194
歆@@ 194
澪 194
燏 194
衽 194
踝@@ 194
邺@@ 194
鎗@@ 194
鸞@@ 194
鹮 194
齶 194
Ban 193
bay 193
combin@@ 193
cost@@ 193
ict 193
quali@@ 193
several 193
ང 193
値 193
烘 193
疮@@ 193
茯@@ 193
蔬 193
诂 193
豕 193
鐙 193
钷 193
驸 193
Luf@@ 192
death 192
ests 192
oka 192
้ 192
僳 192
恊 192
瀝 192
睾 192
缢@@ 192
罈 192
膈 192
莺@@ 192
蛏 192
鈇 192
锵 192
颯 192
鮫@@ 192
鲇@@ 192
鹫@@ 192
chap@@ 191
estig@@ 191
ques@@ 191
sang 191
ʼ 191
Ц 191
俬 191
挪 191
渙 191
蛭@@ 191
貍 191
镐@@ 191
#@@ 190
aum 190
aume 190
ན 190
埵 190
奄 190
悴 190
欉 190
浯 190
涟 190
盩 190
磔 190
祢 190
缤@@ 190
缵@@ 190
茗@@ 190
蕁@@ 190
诬 190
隠 190
黯 190
bles 189
consider@@ 189
uz 189
ी 189
པ 189
崞 189
悫 189
捒 189
掄 189
祓 189
襞 189
譞 189
霽 189
颞 189
鱘 189
Histori@@ 188
ennes 188
iku@@ 188
ously 188
utz@@ 188
偓 188
刍 188
涣 188
満 188
灃 188
烊 188
腮 188
裾 188
郞 188
鑀 188
鑭@@ 188
钹 188
顓@@ 188
ident@@ 187
irs 187
maj@@ 187
model@@ 187
publ@@ 187
囝 187
堕 187
嫦 187
桩@@ 187
毡@@ 187
祧 187
翕 187
肜 187
萵@@ 187
鹚 187
Anc@@ 186
acu@@ 186
atro 186
auc@@ 186
cent@@ 186
tura 186
Θ 186
伋 186
儆@@ 186
峒@@ 186
惭@@ 186
椴 186
澹@@ 186
濉@@ 186
玕 186
缎@@ 186
萩 186
諴 186
赡 186
頵 186
顳 186
飙 186
馀@@ 186
鸬@@ 186
요 186
Universit@@ 185
auto@@ 185
caus@@ 185
curr@@ 185
div@@ 185
division 185
natural 185
tut@@ 185
utz 185
ط 185
俦 185
唭 185
嚣@@ 185
娓@@ 185
孱@@ 185
橇@@ 185
潁 185
灤@@ 185
炖@@ 185
碾 185
糾 185
綻@@ 185
缕@@ 185
蓑 185
觞 185
镞 185
鹕 185
autom@@ 184
compos@@ 184
irk 184
jer@@ 184
kap@@ 184
儋 184
吝 184
噢 184
您@@ 184
捣 184
摻 184
暎 184
杙 184
汭 184
眙@@ 184
赓@@ 184
逯@@ 184
鑊 184
钆 184
鰹 184
黥 184
오 184
Mei 183
Region 183
agre@@ 183
ativ@@ 183
atives 183
categ@@ 183
kas@@ 183
uka 183
亩@@ 183
兮@@ 183
剡@@ 183
厔 183
嗯 183
嬉 183
掟 183
泞 183
犷 183
痤@@ 183
眈 183
笕 183
茉 183
轭@@ 183
鈑 183
钼@@ 183
餓@@ 183
骂@@ 183
鸕 183
鹌@@ 183
인 183
condi@@ 182
ellschaft 182
encia 182
hib@@ 182
idas 182
uda 182
vot@@ 182
yet 182
พ 182
佘 182
嘿@@ 182
権 182
毆@@ 182
毬@@ 182
灸@@ 182
熲 182
畦 182
磴 182
葳@@ 182
诒@@ 182
谚 182
镎 182
도 182
﻿ 182
ball@@ 181
bom@@ 181
culture 181
ekt 181
football 181
gli@@ 181
langu@@ 181
placed 181
uso 181
Ó 181
འ 181
兖 181
圀 181
垟 181
懵@@ 181
捡@@ 181
掳 181
琤 181
琿 181
罘 181
芻 181
螨@@ 181
袴 181
譏 181
赳 181
酩@@ 181
颺 181
黜@@ 181
erc@@ 180
government 180
kad@@ 180
lek@@ 180
仃 180
嘜 180
媞 180
撣 180
洵@@ 180
獷 180
縯 180
诘 180
銪 180
镱 180
阗@@ 180
수 180
Seine 179
XV@@ 179
Yun@@ 179
actor 179
appear@@ 179
held 179
pad@@ 179
possible 179
radio 179
yer@@ 179
Î 179
Ε 179
匮 179
彫 179
扆 179
捺 179
梣 179
橹 179
牻 179
璇@@ 179
眈@@ 179
礴 179
筴 179
箕@@ 179
絢 179
鋹 179
馄@@ 179
髁 179
鼹 179
일 179
Gran 178
ल 178
斂@@ 178
暇@@ 178
樗 178
涞 178
渗 178
焖 178
蛳 178
賾 178
逑 178
銓@@ 178
靄 178
饨 178
骡 178
Mec@@ 177
compl@@ 177
eles 177
fall@@ 177
Ч 177
牀 177
甾 177
芻@@ 177
訐 177
鲢 177
해 177
Ord@@ 176
became 176
domin@@ 176
route 176
zar@@ 176
ʿ 176
˙ 176
匙@@ 176
悽 176
憔@@ 176
拷 176
枭@@ 176
枳 176
猊 176
癭 176
瞥 176
縉@@ 176
绂 176
腱@@ 176
觚 176
酊 176
鹄 176
국 176
시 176
Oy@@ 175
fu 175
independ@@ 175
jum@@ 175
separ@@ 175
خ 175
ต 175
ห 175
ㄅ 175
堑@@ 175
癱 175
芊 175
芗 175
葷 175
蛊@@ 175
蟄 175
陛 175
髂 175
鲷@@ 175
company 174
numer@@ 174
Я 174
ד 174
廙 174
桁 174
眸 174
籁 174
绢@@ 174
詭 174
迨 174
迸@@ 174
顳@@ 174
Indonesia 173
amu 173
announced 173
course 173
grav@@ 173
ported 173
weg@@ 173
व 173
ễ 173
戮@@ 173
棹 173
洎 173
涕@@ 173
瘾@@ 173
簃 173
籐 173
羗 173
辻 173
迳 173
鋨 173
驹@@ 173
鲭 173
鲻 173
Bundes@@ 172
cer 172
near 172
亘@@ 172
巔 172
棐 172
澗@@ 172
纫@@ 172
蒔 172
蛔@@ 172
誾 172
騾@@ 172
blan@@ 171
declar@@ 171
father 171
icio 171
lau@@ 171
tivo 171
ė 171
य 171
ะ 171
∧ 171
♥ 171
仵@@ 171
倜@@ 171
吮 171
呢@@ 171
咋 171
哽@@ 171
峩 171
摭 171
斫 171
炜@@ 171
舐 171
蚱@@ 171
裔@@ 171
鏊 171
闩 171
鮰 171
Ç 170
ი 170
囤 170
嶲 170
朊 170
椤 170
樛 170
沆@@ 170
渺 170
琍 170
茎@@ 170
鬻 170
에 170
자 170
afa 169
envir@@ 169
liz@@ 169
lug@@ 169
匏 169
寀 169
扉@@ 169
掸 169
櫈 169
沚 169
潍 169
濤@@ 169
烫@@ 169
箓 169
紉@@ 169
荛 169
莨@@ 169
誊@@ 169
鑠 169
颚@@ 169
Arth@@ 168
Paulo 168
along 168
bind@@ 168
ende 168
inos 168
pia 168
sak@@ 168
sam 168
tradi@@ 168
ี 168
凊 168
咄 168
哌 168
嗟 168
峥 168
廝 168
悰 168
漱 168
褥@@ 168
頃@@ 168
Dok@@ 167
Hamb@@ 167
began 167
ener@@ 167
liter@@ 167
prac@@ 167
rail@@ 167
schaft 167
suc@@ 167
village 167
倧 167
倬@@ 167
怿 167
泠@@ 167
渌 167
痔@@ 167
贻 167
铛 167
骇 167
cu 166
esper@@ 166
furt 166
organ@@ 166
rom 166
tul@@ 166
vania 166
who@@ 166
ِ 166
僵 166
呱@@ 166
哒 166
崤 166
撈@@ 166
撬 166
晙 166
榔@@ 166
瘫 166
缄@@ 166
虬 166
跸 166
釤 166
锜 166
鹉@@ 166
allow@@ 165
material 165
tries 165
verl@@ 165
佻 165
凳@@ 165
姣@@ 165
岢@@ 165
揣 165
槳@@ 165
璀 165
紬 165
缭@@ 165
臏 165
舨 165
藹@@ 165
豺 165
遨@@ 165
锔 165
饋@@ 165
Hung@@ 164
Santiago 164
abab@@ 164
eran 164
named 164
observ@@ 164
quel@@ 164
Ž 164
ƒ 164
ʷ 164
द 164
ヘ 164
倓 164
勱 164
噗@@ 164
帯 164
徂 164
憙 164
旌 164
籓 164
藿@@ 164
駱 164
鵪@@ 164
鹞 164
麂@@ 164
auf 163
band@@ 163
defe@@ 163
dil@@ 163
erre 163
gian 163
given 163
gri@@ 163
kit@@ 163
mill@@ 163
pf@@ 163
riv@@ 163
signific@@ 163
ص 163
ྱ 163
ị 163
壟 163
摶 163
朐@@ 163
甡 163
糬 163
纫 163
蔼 163
薷 163
鄆@@ 163
餒 163
饺 163
髡 163
Ｘ 163
Canton 162
cab@@ 162
ischen 162
ism@@ 162
jug@@ 162
儷@@ 162
啜@@ 162
啪 162
澥 162
砭 162
硖@@ 162
艛 162
豇@@ 162
郯 162
馍 162
骆 162
鸢 162
Afr@@ 161
ased 161
essen 161
illes 161
inh 161
invol@@ 161
jan@@ 161
kis@@ 161
period 161
tiva 161
〞 161
叁 161
哗 161
嘔 161
嘹@@ 161
帙 161
搁 161
潾 161
澐 161
燴 161
礎@@ 161
禔 161
薌 161
螄 161
豢@@ 161
邾@@ 161
骐 161
Ｏ 161
Portu@@ 160
erst@@ 160
exper@@ 160
gul@@ 160
illed 160
perior 160
relati@@ 160
trag@@ 160
أ 160
⊕ 160
ㄩ 160
檨 160
畤 160
纠 160
莴@@ 160
菑 160
蚝 160
譴 160
酣 160
锄 160
霽@@ 160
驍 160
鲛 160
鲲 160
Sur 159
kirche 159
pas 159
sil 159
uu 159
ด 159
ุ 159
円 159
厓 159
唛 159
岖@@ 159
拣@@ 159
熠@@ 159
畷 159
腆 159
腈@@ 159
蟜 159
観 159
軋@@ 159
霁 159
鲫@@ 159
니 159
hak@@ 158
included 158
kle@@ 158
ograp@@ 158
previ@@ 158
toria 158
ș 158
ک 158
ヶ 158
俅 158
嗲 158
婊@@ 158
応 158
恣 158
暐@@ 158
澚 158
笳 158
筷 158
臃@@ 158
蚴 158
邝 158
鋭 158
鏘@@ 158
頦 158
소 158
audi@@ 157
follow@@ 157
iev@@ 157
office 157
rus@@ 157
unga 157
univers@@ 157
נ 157
偁 157
冽 157
堞 157
忞 157
懌 157
桤 157
溞 157
漪@@ 157
焙@@ 157
畲 157
竦 157
縈 157
邡 157
鎢@@ 157
central 156
century 156
isen 156
zig 156
ע 156
仮 156
凖 156
垚 156
嬋 156
澍@@ 156
瑢 156
痹@@ 156
盅 156
籀 156
藁 156
陔 156
로 156
Span@@ 155
Von 155
atz 155
bern@@ 155
determin@@ 155
gest@@ 155
leb@@ 155
util@@ 155
zon 155
円@@ 155
噲 155
挹 155
暾 155
柃@@ 155
梂 155
氙@@ 155
燎 155
篦 155
絜 155
诹 155
鄲@@ 155
镥 155
Ｄ 155
kus@@ 154
oire 154
students 154
ु 154
র 154
ལ 154
④ 154
♡ 154
嗒 154
氩 154
渙@@ 154
燐 154
窣 154
繚@@ 154
缯 154
莠 154
薳 154
谙 154
谩@@ 154
谪@@ 154
豁 154
貲 154
跗 154
锑@@ 154
안 154
Fak@@ 153
chn@@ 153
iker 153
ismo 153
tas 153
zur 153
冨 153
嗔 153
埡@@ 153
搔 153
涮 153
芡 153
蔼@@ 153
鏷 153
鑪 153
asser 152
erk@@ 152
idad 152
nie 152
orig@@ 152
ộ 152
℉ 152
∀ 152
桧@@ 152
梟@@ 152
楢 152
淝@@ 152
砭@@ 152
纾 152
谄@@ 152
贍@@ 152
鍼 152
顎@@ 152
麸@@ 152
鼷 152
allen 151
pedi@@ 151
ungen 151
yana@@ 151
щ 151
ُ 151
⋅ 151
兢 151
喺 151
噓@@ 151
夯 151
撚 151
梢@@ 151
汜@@ 151
璹 151
諍 151
贅@@ 151
锕@@ 151
骥@@ 151
麾 151
Un 150
anya 150
conf@@ 150
films 150
kia 150
kum@@ 150
members 150
rod@@ 150
sev@@ 150
sous 150
universit@@ 150
် 150
ヌ 150
勔 150
嚷 150
圪 150
埡 150
廞 150
渟 150
瀟 150
玎 150
禎@@ 150
绷@@ 150
逞@@ 150
遒@@ 150
鎬@@ 150
駢 150
骘 150
魇 150
鰐 150
鸝 150
Dies@@ 149
Haus@@ 149
como 149
emas 149
embr@@ 149
Ä 149
ő 149
ố 149
‡ 149
卉@@ 149
吽 149
暻 149
栩 149
浍 149
畬 149
皞 149
瞽 149
砒@@ 149
簸@@ 149
臯 149
蔷 149
蛰@@ 149
蟳 149
铥 149
鴝 149
Bez@@ 148
Schul@@ 148
eder 148
kay@@ 148
princip@@ 148
sol 148
uch 148
Ш 148
ָ 148
垭@@ 148
夤 148
彘 148
抟 148
熺 148
盦 148
竄@@ 148
荠@@ 148
賚 148
釙 148
銖@@ 148
鏤@@ 148
鐫@@ 148
adas 147
complet@@ 147
entes 147
eren 147
important 147
iste 147
public@@ 147
tiz@@ 147
垄 147
屹 147
徬@@ 147
椰 147
氓@@ 147
燿@@ 147
窜@@ 147
衾 147
讪 147
錳@@ 147
镌 147
騭 147
髀 147
鬮 147
그 147
Jah@@ 146
become 146
conver@@ 146
det 146
hui 146
叻@@ 146
昵 146
栝@@ 146
槨 146
淙 146
焯@@ 146
煐 146
狁 146
箔@@ 146
紱 146
羸@@ 146
苅 146
茀 146
蛀 146
讴@@ 146
铒 146
鷉 146
장 146
Biz@@ 145
Distribu@@ 145
Elle 145
Unter@@ 145
destr@@ 145
expl@@ 145
geh@@ 145
til 145
े 145
ぱ 145
倘 145
儺 145
埭@@ 145
捱 145
渉 145
疥@@ 145
葭@@ 145
蒽 145
蚬 145
蜻 145
逄@@ 145
鄩 145
騁 145
骅@@ 145
骋 145
鴴 145
鹱 145
Compan@@ 144
adap@@ 144
aille 144
aina 144
conduc@@ 144
haz@@ 144
international 144
nin 144
omin@@ 144
tei 144
tung 144
ż 144
ả 144
∗ 144
〝 144
ぜ 144
凃 144
剁@@ 144
劼 144
呸 144
唃 144
啬 144
彗 144
戩 144
掰 144
擰 144
晁 144
櫥@@ 144
湍 144
矇 144
笮 144
訝@@ 144
鉸@@ 144
gradu@@ 143
kt@@ 143
porte 143
prises 143
serve 143
similar 143
ulia 143
亜 143
佉 143
咔@@ 143
咧 143
暦 143
湮 143
狎@@ 143
痺@@ 143
礬 143
粳@@ 143
纘@@ 143
纣 143
肓 143
荟 143
藎 143
闌 143
驯 143
acio 142
kop@@ 142
liche 142
ockey 142
ologie 142
pris@@ 142
propos@@ 142
ɣ 142
〗 142
ㄥ 142
呪 142
嗤@@ 142
崮@@ 142
帼 142
幷 142
曄@@ 142
涔 142
滸 142
犨 142
瞋 142
矧 142
砰@@ 142
缵 142
薫 142
蟎@@ 142
赘@@ 142
跛 142
蹼@@ 142
辂 142
銶 142
锕 142
韫 142
颯@@ 142
騶 142
骝 142
鹎 142
Ent@@ 141
abu 141
cas 141
hen 141
̯ 141
ầ 141
⇔ 141
〖 141
嘸 141
姗 141
恸 141
枥 141
栞 141
桨@@ 141
殇@@ 141
淆@@ 141
珦 141
琹 141
瓔 141
瓖 141
甙 141
窕 141
緑 141
绀@@ 141
腧@@ 141
茱 141
蛻 141
郏@@ 141
钜@@ 141
锎 141
颧@@ 141
鴷 141
黠@@ 141
Schwe@@ 140
esen 140
fen 140
financi@@ 140
philos@@ 140
吁@@ 140
咿@@ 140
図 140
攢 140
柘 140
栀@@ 140
桷 140
沄 140
犂 140
琮@@ 140
畝@@ 140
銻 140
鯽@@ 140
마 140
진 140
four@@ 139
hid@@ 139
hin 139
jas 139
mt 139
recog@@ 139
role 139
⇒ 139
僰 139
哙 139
啻 139
杼@@ 139
栾 139
殡 139
涎@@ 139
濯@@ 139
藜@@ 139
鬪 139
鸊 139
세 139
Eis@@ 138
Europa 138
bec 138
fam@@ 138
kab@@ 138
lement 138
poin@@ 138
tario 138
yen 138
╱ 138
ぽ 138
ㄐ 138
卣 138
坨@@ 138
姮 138
嶸 138
悪 138
暲 138
楝@@ 138
泺 138
洄 138
牡 138
獁@@ 138
璪 138
瞌@@ 138
縷@@ 138
芨@@ 138
蜉@@ 138
裨 138
詫@@ 138
讒 138
酃 138
鋌@@ 138
锫 138
锹 138
는 138
유 138
Nieder@@ 137
Ohio 137
ingi 137
kim@@ 137
oci@@ 137
origin@@ 137
polic@@ 137
stil@@ 137
ʾ 137
俥 137
厰 137
媵 137
戕 137
毽@@ 137
浞 137
獐 137
疝@@ 137
瘧 137
糍@@ 137
纛 137
翮 137
膿 137
莼@@ 137
菉 137
蒍 137
비 137
영 137
Geb@@ 136
Sta@@ 136
ayr@@ 136
built 136
dir@@ 136
dows 136
written 136
Ο 136
∥ 136
ㄎ 136
䗛 136
乭 136
倌 136
垢@@ 136
姣 136
媯@@ 136
崢 136
擲@@ 136
沓@@ 136
牝@@ 136
疣@@ 136
痘@@ 136
硚@@ 136
稞 136
脇@@ 136
诘@@ 136
辍 136
酞 136
鐿 136
閹 136
鳃@@ 136
among 135
anni@@ 135
community 135
govern@@ 135
nig 135
க 135
ㄢ 135
刍@@ 135
叨 135
噏 135
嬈 135
幄 135
攒@@ 135
梉 135
泸 135
潇 135
璥 135
砟 135
磴@@ 135
缀@@ 135
胛 135
膈@@ 135
蘅@@ 135
譎 135
谠 135
鄺 135
镫 135
鮀 135
산 135
전 135
Kut@@ 134
Partido 134
cause 134
hii 134
iller@@ 134
modern 134
্ 134
ค 134
จ 134
⁄ 134
唢@@ 134
愆 134
掺 134
暝 134
滢 134
笏@@ 134
絳@@ 134
綃@@ 134
纍 134
苡 134
蓨 134
褸 134
詬 134
釁@@ 134
鰏 134
鸾@@ 134
齦@@ 134
Jersey 133
bay@@ 133
mam@@ 133
versit@@ 133
ώ 133
ј 133
์ 133
俵@@ 133
圄 133
够@@ 133
宓@@ 133
恚 133
捍 133
掐 133
榫@@ 133
甴 133
碉 133
絛@@ 133
胙 133
詰@@ 133
跷 133
辋 133
遑@@ 133
鏻 133
铣@@ 133
駡 133
髙@@ 133
조 133
Argentina 132
Rech@@ 132
dur 132
gil@@ 132
leo 132
prec@@ 132
various 132
ּ 132
ㄒ 132
仃@@ 132
崽@@ 132
戇 132
抒 132
揀@@ 132
涓@@ 132
烩 132
疥 132
紊 132
菡 132
衿 132
讳@@ 132
跚 132
跤@@ 132
遄 132
阏@@ 132
은 132
atura 131
ḍ 131
⟷ 131
匄 131
嗑 131
崃 131
揸 131
檸 131
濛@@ 131
狍 131
窠 131
罨 131
茆@@ 131
蛰 131
蠲@@ 131
訣@@ 131
跏@@ 131
遽@@ 131
酎 131
釵@@ 131
鍱 131
镗 131
霎@@ 131
鴣 131
화 131
Schi@@ 130
cula 130
eure 130
iwa 130
lung 130
making 130
sik@@ 130
werk 130
ช 130
√ 130
倜 130
冗 130
収 130
呱 130
屜 130
杲@@ 130
櫛 130
漬@@ 130
煲@@ 130
缶 130
翌 130
薔 130
跩 130
遘 130
鑌 130
鞬 130
鱯 130
鲎 130
Distr@@ 129
Sud 129
Yer@@ 129
adan 129
alen 129
bou@@ 129
equi@@ 129
explo@@ 129
fab@@ 129
hus@@ 129
onship 129
sir@@ 129
ʒ 129
ض 129
ㄠ 129
囹@@ 129
婧@@ 129
抃 129
枏 129
櫂 129
沘 129
眭@@ 129
竪 129
篋 129
纔 129
芍 129
蕗 129
諦@@ 129
韞 129
韫@@ 129
髖 129
魋 129
administr@@ 128
arded 128
capit@@ 128
conv@@ 128
inden 128
inen 128
received 128
sab@@ 128
tham 128
tig 128
tir 128
took 128
yas@@ 128
ㄑ 128
俵 128
吿 128
呜 128
喲 128
嫉 128
屉 128
撩@@ 128
柒 128
櫟@@ 128
泯@@ 128
洧 128
漚 128
燔 128
痿 128
癮@@ 128
睜 128
聃 128
菫 128
蜷 128
諂@@ 128
譟 128
闥 128
鳯 128
鷓@@ 128
민 128
보 128
commer@@ 127
gun@@ 127
kre@@ 127
mah@@ 127
nac@@ 127
sent 127
umba 127
ṛ 127
Ⅴ 127
ㄛ 127
亹 127
剣 127
崃@@ 127
戛 127
拎 127
捺@@ 127
曱@@ 127
樨@@ 127
汊@@ 127
沭 127
瀉@@ 127
禵 127
箧 127
缜@@ 127
螫@@ 127
迢@@ 127
颓 127
鯢 127
鸨 127
경 127
선 127
현 127
Mex@@ 126
Venez@@ 126
aill@@ 126
bish@@ 126
capac@@ 126
inas 126
influ@@ 126
mann@@ 126
pes@@ 126
scher 126
terior 126
̄ 126
ㄝ 126
乜@@ 126
夔@@ 126
惲 126
捜 126
昃 126
畬@@ 126
硃@@ 126
窍 126
笺@@ 126
羿@@ 126
翚 126
褫 126
覈 126
赊@@ 126
遴 126
霰 126
韮 126
飩 126
餌@@ 126
騮 126
aines 125
enst@@ 125
eurs 125
isches 125
race 125
ं 125
ồ 125
剁 125
匱 125
叟@@ 125
嘘@@ 125
嫄 125
嫘@@ 125
愕@@ 125
捶@@ 125
斓 125
検 125
漾@@ 125
甌@@ 125
瘸@@ 125
罃 125
蒟 125
訖@@ 125
谶@@ 125
邋@@ 125
邠@@ 125
鱝 125
문 125
XVI 124
emen 124
estim@@ 124
fav@@ 124
lil@@ 124
remain@@ 124
terr@@ 124
undo 124
voir 124
ţ 124
ह 124
ி 124
₂ 124
俯 124
呾 124
哖 124
撻@@ 124
晧 124
朓 124
榦 124
珝 124
虺 124
赧@@ 124
郇@@ 124
駟@@ 124
鹞@@ 124
Pub@@ 123
aban 123
aide 123
introduc@@ 123
natur@@ 123
scienti@@ 123
teur 123
umbo 123
伷 123
哷 123
埙 123
彀 123
扪 123
璲 123
砮 123
碭@@ 123
缦 123
菪 123
蕲 123
闞@@ 123
頠 123
餽 123
鰤 123
부 123
Jug@@ 122
Roma 122
ambo 122
aup@@ 122
eaux 122
enga 122
iche 122
igen 122
metal 122
̥ 122
亀 122
噤@@ 122
塲 122
愬 122
杳@@ 122
枳@@ 122
桕 122
湌 122
炔@@ 122
疟 122
稲@@ 122
篾 122
茭@@ 122
蚡 122
蜇 122
蝣 122
覷 122
蹭 122
邲 122
鎏 122
연 122
𩷶 122
came 121
children 121
deb@@ 121
kho@@ 121
moder@@ 121
tee 121
with@@ 121
Ā 121
ן 121
✓ 121
仫@@ 121
嬗@@ 121
撓@@ 121
椋@@ 121
渋 121
玢 121
璦 121
癫 121
眜 121
窠@@ 121
遢 121
邴@@ 121
鈰 121
靓 121
鲇 121
%@@ 120
Ago@@ 120
acha 120
actu@@ 120
north 120
produced 120
ㄜ 120
卮 120
嗟@@ 120
坩@@ 120
堦 120
憾@@ 120
搧 120
氹@@ 120
瀆@@ 120
綎 120
翬 120
藦 120
讃 120
雳@@ 120
鳩@@ 120
여 120
호 120
Wah@@ 119
cil 119
institu@@ 119
promot@@ 119
zin@@ 119
ĩ 119
ग 119
บ 119
ㄕ 119
傥 119
勍 119
堝 119
忡 119
撩 119
狷 119
碕 119
蕰 119
螣 119
袛 119
褪 119
郈 119
鄮 119
鈁 119
阑 119
鲣@@ 119
박 119
Papa 118
alter@@ 118
anno@@ 118
ansas 118
having 118
temp@@ 118
tik 118
ậ 118
栿 118
沦 118
浤 118
狈 118
玦 118
瘰@@ 118
盏@@ 118
碚@@ 118
羋 118
詵 118
교 118
Mexico 117
Wilhel@@ 117
kara 117
tet 117
usi 117
went 117
women 117
ْ 117
► 117
ㄉ 117
ㄌ 117
䶄 117
吱@@ 117
廵 117
惆@@ 117
旛 117
椙 117
椥 117
歛 117
瞑@@ 117
秸@@ 117
鯤@@ 117
麐 117
鼇 117
鼒 117
랑 117
Soh@@ 116
champ@@ 116
chez 116
moved 116
quel 116
sera 116
succ@@ 116
ְ 116
ם 116
ṅ 116
亓@@ 116
唧 116
戬 116
泐 116
烴@@ 116
罍 116
羆 116
胴@@ 116
諶@@ 116
赜 116
踰 116
軚 116
迢 116
鐐 116
霊 116
餛@@ 116
鬻@@ 116
신 116
Aires 115
arte 115
dad 115
ensa 115
eza 115
its@@ 115
population 115
published 115
wir@@ 115
zum 115
Ú 115
ն 115
ọ 115
‎ 115
‬ 115
∨ 115
嘀@@ 115
堠 115
塍 115
塹@@ 115
壑@@ 115
嫣@@ 115
峦@@ 115
撝 115
浄 115
燝 115
珰 115
璄 115
痔 115
眨 115
稔@@ 115
芗@@ 115
蹊 115
錼 115
鍚 115
锉 115
구 115
anas 114
aten@@ 114
capital 114
itung 114
journ@@ 114
naci@@ 114
personal 114
popul@@ 114
rem 114
simil@@ 114
Ł 114
ɐ 114
ɒ 114
堍 114
塙 114
姝@@ 114
杈 114
涮@@ 114
稲 114
緡 114
縈@@ 114
绞 114
耒 114
裱@@ 114
郇 114
锽 114
饷@@ 114
鲛@@ 114
麩@@ 114
黧@@ 114
Europ@@ 113
Film@@ 113
Pia 113
arri@@ 113
created 113
etts 113
famili@@ 113
tend@@ 113
trad@@ 113
侪 113
厍 113
唷 113
嘓 113
嘖@@ 113
嚩 113
埏 113
埝 113
孳 113
屄 113
瘢@@ 113
睁 113
碸 113
箇@@ 113
膨 113
蠓 113
覘 113
诀@@ 113
鄘 113
镤 113
颎 113
鳖@@ 113
야 113
Buenos 112
Colomb@@ 112
Mp@@ 112
agua 112
bah@@ 112
bt 112
competi@@ 112
conc@@ 112
gel 112
his@@ 112
immer 112
istes 112
television 112
trat@@ 112
xu@@ 112
zel@@ 112
Æ 112
ִ 112
ㄍ 112
匏@@ 112
咥 112
姵@@ 112
廌 112
忡@@ 112
潺@@ 112
狡 112
璝 112
璵 112
畸 112
禳 112
縠 112
纈 112
菽 112
蓼@@ 112
诤 112
閆@@ 112
閼@@ 112
霨 112
鰹@@ 112
鹋 112
Madrid 111
ativa 111
bang 111
bre 111
dial 111
hay@@ 111
hut@@ 111
ney@@ 111
retr@@ 111
Ş 111
ɯ 111
埜 111
壊 111
崛 111
晳 111
暕 111
曽@@ 111
柰 111
栄 111
疽@@ 111
紉 111
遛@@ 111
闡 111
阐 111
鴇 111
鷯 111
️ 111
Ｍ 111
arak 110
assist@@ 110
atur 110
bed@@ 110
few 110
lub 110
nation@@ 110
quot@@ 110
stitu@@ 110
پ 110
ㄟ 110
儆 110
匂 110
哉@@ 110
哎@@ 110
囗 110
屿@@ 110
抡 110
挞@@ 110
槁 110
溧 110
煦@@ 110
玺@@ 110
琵 110
癆 110
箬@@ 110
粦 110
罟@@ 110
訏 110
诫@@ 110
顽 110
饯@@ 110
鲿 110
제 110
Bras@@ 109
bau 109
gesch@@ 109
histori@@ 109
individ@@ 109
jud@@ 109
pain@@ 109
䱛 109
亟 109
俁 109
偌@@ 109
偰 109
儔 109
嗓 109
噍 109
妳@@ 109
朶 109
椪 109
檩 109
浯@@ 109
篾@@ 109
絅 109
郴 109
醺 109
鈾@@ 109
镅 109
靂@@ 109
骶 109
역 109
𣴓 109
Illinois 108
Zeit@@ 108
appar@@ 108
centre 108
comb@@ 108
culp@@ 108
irat@@ 108
located 108
materi@@ 108
probl@@ 108
zam@@ 108
⁴ 108
↑ 108
▪ 108
ゥ 108
働 108
垴 108
奐@@ 108
懃 108
搾 108
攙 108
旄 108
昞 108
椽@@ 108
槲 108
滝 108
瀍 108
煅@@ 108
獣 108
獬 108
玨 108
璉@@ 108
畧 108
纮 108
襬 108
謖 108
郧 108
鉾 108
霏@@ 108
韞@@ 108
餞@@ 108
馃 108
鵲@@ 108
Argent@@ 107
Des 107
Liga 107
Nach@@ 107
alled 107
forces 107
hau@@ 107
imba 107
jun@@ 107
reich 107
services 107
unos 107
zog 107
¼ 107
Þ 107
Τ 107
媾 107
嫖 107
屎@@ 107
朏 107
氘@@ 107
泅@@ 107
澇 107
珧 107
瓟 107
禊 107
莧 107
躇 107
鄞 107
鏤 107
闫 107
鸸@@ 107
alternati@@ 106
anl@@ 106
inde 106
izi@@ 106
lake 106
uela 106
uten 106
ח 106
仂 106
処 106
寯 106
嵵 106
梾 106
橚 106
濉 106
砣 106
膂@@ 106
藷 106
虓 106
蛱@@ 106
詒@@ 106
诜 106
贗@@ 106
赝@@ 106
験 106
鬢 106
鲳 106
鳧 106
鵯 106
aller@@ 105
experi@@ 105
joint 105
kes@@ 105
prepar@@ 105
produ@@ 105
sich@@ 105
ज 105
俺@@ 105
唉 105
嚼@@ 105
愎 105
楤 105
爌 105
疱 105
缨@@ 105
翙 105
脓 105
蒔@@ 105
蚱 105
蹴 105
鍘 105
鐇 105
騄 105
驥@@ 105
학 105
Barcelona 104
Conse@@ 104
onc@@ 104
political 104
resid@@ 104
sett@@ 104
zona 104
غ 104
ে 104
ㄋ 104
佯 104
嗲@@ 104
堈 104
嫗 104
忐@@ 104
撷@@ 104
梏 104
毐 104
淍 104
澔 104
眶@@ 104
砫 104
簣 104
讦 104
貔@@ 104
趵@@ 104
輾 104
鋌 104
驺 104
상 104
Ｔ 104
During 103
Schl@@ 103
described 103
evi@@ 103
firm@@ 103
iran 103
kam 103
mara 103
seau 103
ল 103
ি 103
த 103
ე 103
⑤ 103
哂 103
啪@@ 103
掏 103
矣@@ 103
禋 103
菽@@ 103
螟 103
謌 103
鄫 103
酊@@ 103
鉦 103
霭@@ 103
飴 103
驮@@ 103
鲧 103
𤅶 103
According 102
Nis@@ 102
constitu@@ 102
continued 102
itali@@ 102
kri@@ 102
mont@@ 102
ʊ 102
گ 102
ব 102
Ḥ 102
‐ 102
∙ 102
ㄣ 102
坷@@ 102
埚 102
塤 102
戕@@ 102
牁 102
犸 102
砝@@ 102
礡 102
箦 102
籁@@ 102
蹕 102
蹶 102
醴 102
餗 102
鴟@@ 102
Ｖ 102
Fren@@ 101
Lan 101
absol@@ 101
assen 101
cian 101
desc@@ 101
eon@@ 101
mina 101
omen 101
rece@@ 101
tam 101
traf@@ 101
ַ 101
פ 101
श 101
ম 101
ề 101
倮 101
吖 101
吮@@ 101
吱 101
哱 101
啹 101
壅 101
慑@@ 101
旒 101
潴@@ 101
煕 101
瑒 101
癟 101
筱 101
縄 101
罘@@ 101
聵 101
舗 101
茍 101
诂@@ 101
釹 101
鋮 101
鎛 101
铿@@ 101
鮻 101
鵐 101
鿫 101
너 101
Im 100
Uz@@ 100
bahn 100
eig@@ 100
fron@@ 100
hac@@ 100
however 100
inci 100
lesia 100
oder 100
ometr@@ 100
publi@@ 100
tard 100
tent@@ 100
Χ 100
რ 100
ゾ 100
叵@@ 100
圜@@ 100
妪 100
寤 100
怆 100
惔 100
桎@@ 100
氩@@ 100
浈 100
浏 100
爀 100
珵 100
癘 100
砬@@ 100
缜 100
蒭 100
蒴 100
褂@@ 100
覇 100
錞 100
锛 100
飒 100
鬯 100
鲟@@ 100
鼯 100
Kant@@ 99
ambi@@ 99
enen 99
forme 99
gru@@ 99
histor@@ 99
inform@@ 99
odo 99
rement 99
tien 99
̂ 99
Ж 99
ⁿ 99
⿰ 99
佝@@ 99
嫲 99
幛 99
弾 99
慷 99
戇@@ 99
搡 99
旳 99
杳 99
梶 99
樨 99
滓@@ 99
萤 99
諉 99
讜 99
銠 99
鍠 99
铢@@ 99
铧 99
髢 99
鱉@@ 99
鲮 99
을 99
Ｓ 99
Klo@@ 98
consist@@ 98
heit 98
opened 98
unci@@ 98
Ю 98
ấ 98
‍ 98
☉ 98
倶 98
囒 98
塀 98
嫪@@ 98
嶧 98
桴 98
涪 98
璟@@ 98
璡 98
痰@@ 98
笥 98
篌 98
繋 98
纓@@ 98
缚@@ 98
缫@@ 98
苌@@ 98
諛 98
讎 98
釦 98
鎝 98
만 98
﹒ 98
Zw@@ 97
adol@@ 97
alle@@ 97
dans 97
icht 97
ikia 97
ilg@@ 97
lik 97
mant@@ 97
success@@ 97
territ@@ 97
ɡ 97
Ν 97
ئ 97
ন 97
ㄙ 97
仟@@ 97
俣 97
埇 97
婶 97
寐@@ 97
搆 97
旣 97
柟 97
琫 97
矇@@ 97
糴 97
羕 97
萇@@ 97
蒗 97
蒻 97
訾@@ 97
諄@@ 97
谶 97
賚@@ 97
遑 97
鈉@@ 97
鑷@@ 97
铖 97
镭@@ 97
鰶 97
鹨 97
𢄂 97
Apr@@ 96
Er 96
Fes@@ 96
Minister@@ 96
alc@@ 96
fici@@ 96
guit@@ 96
meister 96
meng@@ 96
opo 96
sad@@ 96
ぷ 96
ㄤ 96
䱵 96
俛 96
喾 96
姞 96
惫@@ 96
攞 96
湉 96
滓 96
澶@@ 96
玙 96
籟@@ 96
綸@@ 96
缐 96
蘄 96
諍@@ 96
譫@@ 96
銲 96
鎶 96
鑨 96
飒@@ 96
鰳 96
남 96
Best@@ 95
Eisen@@ 95
Historia 95
Mek@@ 95
apos@@ 95
bek@@ 95
east 95
leur 95
nach 95
particip@@ 95
pendi@@ 95
pens@@ 95
¾ 95
ʉ 95
ो 95
ヲ 95
ㄏ 95
偈@@ 95
凋 95
哎 95
囡 95
囷 95
夙 95
婵 95
廒 95
廩@@ 95
徼 95
惭 95
捫 95
撾@@ 95
暁 95
柙 95
棫 95
焼 95
穉 95
糶 95
绷 95
耧 95
脲@@ 95
芘 95
螽@@ 95
謳@@ 95
譔 95
賡@@ 95
赍 95
鍩 95
铮@@ 95
陜 95
飏 95
骢 95
鲡 95
鷚 95
트 95
aires 94
aras@@ 94
director 94
eyi 94
foot@@ 94
hem 94
ilde 94
leh@@ 94
mich@@ 94
onen 94
pero 94
tim 94
ʨ 94
⑴ 94
ㄓ 94
亙@@ 94
劬 94
呃 94
咻 94
堊 94
姶 94
峥@@ 94
悧 94
挣 94
昝@@ 94
泱 94
涙 94
潺 94
澁 94
犸@@ 94
璮 94
疠 94
繃@@ 94
繒 94
膩@@ 94
舸 94
蕖 94
鎡 94
鸱@@ 94
Eurov@@ 93
actual 93
enos 93
found@@ 93
ien@@ 93
mau@@ 93
sent@@ 93
tras 93
ũ 93
ŭ 93
∇ 93
ぴ 93
倮@@ 93
啱 93
営 93
嬖 93
彅 93
従 93
擘@@ 93
泱@@ 93
瀹 93
琎 93
瞞@@ 93
筧 93
荘 93
蹉@@ 93
蹺@@ 93
鄔 93
鍙 93
霭 93
髯@@ 93
鯖@@ 93
鰆 93
鳙 93
齢 93
강 93
내 93
무 93
Parti 92
erin 92
icas 92
ilit@@ 92
ingia 92
inin 92
instrum@@ 92
roy@@ 92
yap@@ 92
˥ 92
כ 92
ק 92
ক 92
ㄈ 92
勦 92
崚 92
徇 92
掴 92
沇 92
浹 92
溘@@ 92
跖 92
辇@@ 92
逌 92
遡 92
鶥 92
鹬@@ 92
黐 92
바 92
회 92
ﾞ 92
Stad@@ 91
Tari@@ 91
champi@@ 91
direction 91
ectu@@ 91
ede@@ 91
izi 91
larg@@ 91
lege 91
military 91
ongo@@ 91
osu 91
schen 91
´ 91
˧ 91
ո 91
ம 91
ㄗ 91
傌 91
啁@@ 91
壼 91
嫺 91
尅 91
慜 91
懽 91
搥 91
摈@@ 91
斕 91
昨 91
澠@@ 91
礮 91
祢@@ 91
窓 91
箜@@ 91
荩@@ 91
蝘 91
衕 91
諳@@ 91
貳@@ 91
鑭 91
钊@@ 91
钗@@ 91
閦 91
陬 91
鞫 91
顬 91
騒 91
鬣 91
鹈 91
송 91
𡒉 91
Platz 90
arias 90
concentr@@ 90
day@@ 90
establ@@ 90
mec@@ 90
reich@@ 90
tif 90
vy@@ 90
ň 90
∠ 90
㗎 90
唏@@ 90
婼 90
屌@@ 90
怙@@ 90
懾@@ 90
晛 90
柞 90
柢 90
棡 90
歃@@ 90
爿 90
祹 90
萦@@ 90
褌 90
谴 90
錚@@ 90
鐨 90
鐽 90
鲲@@ 90
麇 90
게 90
방 90
Flug@@ 89
Grund@@ 89
alit@@ 89
inten@@ 89
rol 89
sever@@ 89
uza 89
wah@@ 89
Í 89
ّ 89
ป 89
伫@@ 89
俪@@ 89
偎 89
嗦 89
婀@@ 89
怦@@ 89
慥 89
拧 89
旖@@ 89
晊 89
桤@@ 89
楩 89
続 89
绀 89
臆 89
茘 89
葑 89
蔹@@ 89
讖 89
颀 89
驊@@ 89
Ｉ 89
amii 88
andes 88
azo 88
bir 88
chev@@ 88
eso 88
mez 88
oku@@ 88
ە 88
แ 88
‌ 88
ℓ 88
⑵ 88
㈠ 88
乒 88
垍 88
姸 88
崠 88
彜 88
掮@@ 88
椹 88
樋 88
涑 88
漼 88
紵 88
罴 88
艚 88
藺 88
衪 88
酺 88
釕 88
鞞 88
颳@@ 88
餸 88
鬩@@ 88
魃 88
鮒 88
鰃 88
黌 88
黠 88
Copa 87
Ein 87
Zwe@@ 87
auch 87
drei 87
especi@@ 87
investig@@ 87
issen@@ 87
oles 87
onio 87
tainment 87
tech@@ 87
vu 87
Ι 87
ไ 87
█ 87
◆ 87
侔 87
冴 87
剜 87
呑 87
嗰 87
嵬@@ 87
惦@@ 87
搀@@ 87
擀 87
汹 87
湓 87
烝 87
玭 87
矫 87
砼 87
碓@@ 87
磕 87
箏@@ 87
籮 87
糗 87
縵 87
鉑@@ 87
鉝 87
鍥 87
隼@@ 87
颏 87
鸌 87
양 87
entre 86
incorpor@@ 86
professi@@ 86
transfer@@ 86
Ż 86
ǐ 86
ր 86
ג 86
ذ 86
ா 86
ธ 86
㈡ 86
喆@@ 86
壎 86
嬷 86
恁 86
愴 86
挈 86
捎 86
掞 86
暊 86
檫 86
洶 86
淬 86
湎 86
湔 86
焄 86
璋@@ 86
禤 86
窕@@ 86
篦@@ 86
簗 86
緱 86
缮@@ 86
脖 86
芴 86
荑 86
莧@@ 86
薜@@ 86
蜣@@ 86
詛 86
谳 86
蹙 86
邡@@ 86
郪 86
鑥 86
锆@@ 86
韁 86
骺 86
魍 86
鲩 86
鳾 86
鼐@@ 86
elek@@ 85
gew@@ 85
industri@@ 85
iten 85
kut@@ 85
lieg@@ 85
undi 85
˩ 85
ћ 85
ә 85
ἀ 85
∼ 85
呗 85
垱 85
娓 85
庁 85
挛@@ 85
柁 85
氷@@ 85
泖 85
矗 85
籟 85
紥 85
纁 85
缥@@ 85
芨 85
菠 85
豢 85
蹻 85
躅 85
辐 85
酞@@ 85
醢 85
鉿 85
镈 85
韪@@ 85
馁 85
驎 85
魎 85
鴟 85
鷂@@ 85
鷸@@ 85
𠐤 85
Akadem@@ 84
Auf@@ 84
Brasil 84
Deutschland 84
egen 84
europ@@ 84
fica 84
iken 84
mani@@ 84
popular 84
schw@@ 84
usu 84
verg@@ 84
vill@@ 84
ħ 84
إ 84
侁 84
俟@@ 84
傒 84
呛 84
堌 84
墕 84
幟@@ 84
庖 84
拄 84
斎@@ 84
栲@@ 84
滁 84
濙 84
炅@@ 84
烱 84
煃 84
瑑 84
癩 84
糍 84
緜 84
缟 84
缬 84
葰 84
蒯 84
蚧 84
蟥 84
読 84
諗 84
讥 84
诿 84
赭 84
鄀 84
閼 84
騾 84
Ｐ 84
Kik@@ 83
National@@ 83
adores 83
ations@@ 83
chs 83
dest@@ 83
eler@@ 83
elimin@@ 83
eshi 83
grup@@ 83
hiv@@ 83
secre@@ 83
situ@@ 83
started 83
sti 83
tival 83
ubic@@ 83
uerto 83
ớ 83
⅔ 83
儻 83
匐@@ 83
掬 83
攣@@ 83
栴 83
浈@@ 83
炤@@ 83
犊@@ 83
瑨 83
禟 83
縹@@ 83
纍@@ 83
纶@@ 83
绚 83
缰 83
苧 83
荤 83
蘗 83
虯@@ 83
蟌 83
蠲 83
衮@@ 83
谙@@ 83
蹩@@ 83
铄 83
锵@@ 83
靑 83
鲅@@ 83
齮 83
거 83
천 83
Ｑ 83
alre@@ 82
aret 82
crit@@ 82
elem@@ 82
forma 82
loi 82
program@@ 82
sociation 82
tay@@ 82
unia 82
wie 82
wrote 82
ǔ 82
ɤ 82
ɦ 82
ɨ 82
ү 82
ศ 82
∕ 82
呔 82
喳 82
嘮@@ 82
嵛@@ 82
暌@@ 82
泂 82
淏 82
湫@@ 82
癞@@ 82
磲 82
綃 82
绽 82
脒 82
蒡 82
蓂 82
蘖 82
衚@@ 82
赀 82
鄕 82
隹@@ 82
飨 82
魍@@ 82
鳽 82
군 82
래 82
루 82
석 82
울 82
mw@@ 81
zw@@ 81
Ζ 81
ס 81
  81
ㄊ 81
䁐 81
偲 81
剡 81
屺@@ 81
殛 81
痠@@ 81
硃 81
簍 81
簫@@ 81
紈 81
莜@@ 81
襠 81
贌 81
贔 81
鐡 81
饵@@ 81
馔 81
鬲@@ 81
鰷 81
鳏@@ 81
鴦@@ 81
𰻞 81
Guinea 80
Minh 80
constr@@ 80
diz@@ 80
grand 80
haf@@ 80
lage 80
mim@@ 80
nant 80
result@@ 80
south 80
uko 80
ர 80
្ 80
„ 80
Ⅹ 80
傩 80
厣 80
塋 80
壸 80
妺 80
尢 80
忉 80
敔 80
桠 80
氈@@ 80
澣 80
狓 80
璜@@ 80
碲@@ 80
縞 80
艽 80
賛 80
贰@@ 80
閤@@ 80
陁 80
颡 80
骜 80
鰱 80
鲠@@ 80
鹂 80
치 80
태 80
Ｋ 80
adop@@ 79
candid@@ 79
reco@@ 79
sche@@ 79
schi@@ 79
tigen 79
ɿ 79
آ 79
း 79
ს 79
ា 79
↓ 79
啶@@ 79
嚀 79
坩 79
夼 79
嬿 79
屻 79
帜@@ 79
彆 79
慚 79
挙 79
掇@@ 79
掰@@ 79
昫 79
栟 79
桡@@ 79
槱 79
淓 79
玁 79
珤 79
祟@@ 79
祼 79
繸 79
菀@@ 79
菩 79
蓇@@ 79
蓍@@ 79
謡 79
酆@@ 79
酢@@ 79
銻@@ 79
鏃 79
鳜@@ 79
鴆 79
鶩 79
𤫉 79
Universidad 78
descri@@ 78
emba 78
leich@@ 78
lieu 78
reti@@ 78
tek@@ 78
♂ 78
䱀 78
咝 78
垕 78
嵒 78
扺 78
栌 78
梔@@ 78
樘 78
殒@@ 78
毖@@ 78
渼 78
溦 78
漈 78
濆 78
炷 78
牖 78
琛@@ 78
璣@@ 78
盞@@ 78
瞠@@ 78
礐 78
舀 78
蠋 78
躊@@ 78
辘@@ 78
钒@@ 78
馘 78
駆 78
鲼 78
龋@@ 78
Ｌ 78
bora 77
erh@@ 77
icht@@ 77
jah@@ 77
kip@@ 77
tige 77
yen@@ 77
№ 77
倆@@ 77
吖@@ 77
喈 77
喼 77
囿@@ 77
坬 77
垃 77
巌 77
帰 77
廛 77
恸@@ 77
慵@@ 77
杪 77
栲 77
歟 77
洨 77
澮 77
煊@@ 77
燜 77
瓴 77
竝 77
簑 77
糀 77
縐 77
绦@@ 77
胫 77
茚 77
葖 77
谗 77
醂 77
醅 77
鉨 77
銩 77
铤@@ 77
韃 77
飫 77
饯 77
馕 77
鲔 77
鳊 77
鷦 77
鷴 77
鹜 77
麸 77
재 77
aque 76
fahr@@ 76
jour@@ 76
milit@@ 76
nom 76
stad@@ 76
अ 76
ྲ 76
ㄔ 76
卹@@ 76
廑 76
彛 76
摟 76
斝 76
晔@@ 76
獬@@ 76
碻 76
窈 76
筌 76
绌 76
聩 76
舲 76
芡@@ 76
蓍 76
薌@@ 76
薺 76
螟@@ 76
貅 76
遯 76
閭@@ 76
韁@@ 76
鯪@@ 76
鰟 76
鲌 76
鸕@@ 76
鸛@@ 76
黉 76
타 76
Histoire 75
carr@@ 75
cht@@ 75
distr@@ 75
dose 75
manif@@ 75
record@@ 75
ĝ 75
ɲ 75
भ 75
স 75
ု 75
⼀ 75
伉 75
垡 75
嬋@@ 75
孀@@ 75
廋 75
旵 75
曺 75
槌@@ 75
濩 75
犽 75
瑆 75
畊@@ 75
竅@@ 75
粢 75
荦 75
鍆 75
鯭 75
鷟 75
드 75
디 75
Ｅ 75
𤨒 75
Haupt@@ 74
Heim@@ 74
Ort@@ 74
ellen 74
established 74
tah@@ 74
unu 74
ї 74
ლ 74
ᥰ 74
Ⅶ 74
凇 74
婶@@ 74
媼 74
崱 74
弐 74
徉 74
忑 74
慳@@ 74
旎 74
樅@@ 74
殽 74
済 74
溇 74
漥 74
濂@@ 74
珎 74
瘸 74
癇@@ 74
筅 74
簠 74
紺@@ 74
芑 74
蚰@@ 74
谀@@ 74
郜 74
鎅 74
鲬 74
鸰 74
백 74
승 74
철 74
afr@@ 73
conserv@@ 73
contribu@@ 73
eden@@ 73
enas 73
jap@@ 73
jour 73
lima 73
mf@@ 73
roi 73
̩ 73
Ξ 73
च 73
ब 73
โ 73
ḱ 73
ứ 73
⊆ 73
ㄞ 73
単 73
叆 73
呕 73
咔 73
娉 73
徜@@ 73
惪 73
晄 73
暌 73
棪 73
槩 73
櫺 73
汫 73
溍 73
瓏@@ 73
箨 73
篓 73
綦 73
莠@@ 73
覚 73
錬 73
険 73
鯿 73
黍@@ 73
위 73
＿ 73
Par 72
Staats@@ 72
celebr@@ 72
dad@@ 72
derni@@ 72
noch 72
reci@@ 72
relig@@ 72
stanbul 72
umu 72
Ψ 72
ի 72
ء 72
ㄘ 72
咂@@ 72
嘍 72
宧 72
崘 72
嵊 72
惴@@ 72
懐 72
昄 72
柷 72
毖 72
淛 72
澈@@ 72
熒 72
皴 72
硖 72
禕@@ 72
秸 72
穡 72
胧@@ 72
莛 72
蔻@@ 72
郏 72
鋕 72
镂 72
陘 72
顥@@ 72
馑 72
駟 72
鸥@@ 72
齟 72
齬 72
면 72
윤 72
ｰ 72
Stadt@@ 71
corresp@@ 71
enin 71
esha 71
isme 71
neur 71
temps 71
visit@@ 71
À 71
ắ 71
㶞 71
㹢 71
㺢 71
俎@@ 71
哟 71
奂@@ 71
嬗 71
帔 71
廐 71
扱 71
昀@@ 71
梿 71
楸@@ 71
殂 71
洌 71
澯 71
瀏 71
玗 71
琄 71
癩@@ 71
砈 71
繇@@ 71
耘@@ 71
茬 71
葚 71
虉 71
蜕 71
褙 71
觜 71
觿 71
詎 71
谲 71
跷@@ 71
遒 71
鏇 71
鐫 71
阌 71
頎 71
餬@@ 71
髑@@ 71
鬩 71
鵄 71
鷂 71
鸯@@ 71
당 71
﨑 71
＠ 71
ﾝ 71
Bev@@ 70
Kib@@ 70
Machi 70
aben 70
endel@@ 70
ieder 70
maz@@ 70
nde 70
politi@@ 70
raz@@ 70
worked 70
မ 70
⑥ 70
┃ 70
俚 70
唎 70
媯 70
嬬 70
嬸@@ 70
幗@@ 70
拧@@ 70
掲 70
攄 70
潽 70
狎 70
疎 70
紆 70
缑@@ 70
罅 70
羂 70
胯 70
荤@@ 70
蕓 70
蚩 70
蟶 70
褓@@ 70
貺 70
軽 70
轂@@ 70
逶@@ 70
銑@@ 70
銲@@ 70
鎣@@ 70
鎰@@ 70
餞 70
骙 70
魑@@ 70
鯆 70
Chile 69
Famili@@ 69
bul 69
enden 69
ersch@@ 69
ezi 69
plant@@ 69
pointed 69
publique 69
Ñ 69
Ō 69
ˑ 69
ப 69
ื 69
⊙ 69
㽘 69
伧 69
咧@@ 69
嗢 69
噩 69
嚐@@ 69
嚳 69
埧 69
徊@@ 69
拊 69
漷 69
灏@@ 69
炟 69
璎@@ 69
磝 69
禠 69
穌@@ 69
菔 69
蓥@@ 69
薤@@ 69
虒 69
袪 69
襌 69
謢 69
跞 69
蹒@@ 69
鍈 69
鞴 69
鲥@@ 69
鷥 69
鸷 69
黽 69
용 69
￼ 69
𨧀 69
Nguy@@ 68
benz@@ 68
dak@@ 68
died 68
eben 68
engo 68
hio 68
itos 68
khi 68
kid@@ 68
mik@@ 68
police 68
schrift 68
wana 68
zt 68
ֹ 68
ச 68
傜 68
卨 68
叁@@ 68
嗇@@ 68
崢@@ 68
嶷@@ 68
幞 68
怦 68
悛 68
捎@@ 68
楂@@ 68
沣@@ 68
洭 68
涠 68
狻@@ 68
瑔 68
璽@@ 68
礬@@ 68
紞 68
缣 68
茆 68
蓴@@ 68
蛆@@ 68
豉@@ 68
赧 68
醪 68
醺@@ 68
銼@@ 68
铰 68
阆 68
飡 68
飴@@ 68
骜@@ 68
鮍 68
鰋 68
鱊 68
Woh@@ 67
bao 67
chini 67
habit@@ 67
idente 67
nung 67
sah@@ 67
wake 67
zur@@ 67
ɚ 67
˨ 67
ध 67
ष 67
ཀ 67
រ 67
Ἀ 67
刈@@ 67
咋@@ 67
嫵@@ 67
嬷@@ 67
孓 67
孥 67
廼@@ 67
懑 67
懟 67
搅 67
搪 67
攏@@ 67
敝@@ 67
昜 67
椏 67
檉@@ 67
櫬 67
焿 67
煴 67
熿 67
獰 67
痼@@ 67
糅 67
纨 67
羱 67
聴 67
胴 67
萡 67
蠕 67
蠖 67
褡@@ 67
賃@@ 67
郟@@ 67
鄯 67
钴@@ 67
骀 67
鴒 67
麈 67
들 67
최 67
희 67
acces@@ 66
aje 66
dini 66
eten 66
icha 66
imbo 66
mak 66
ndi@@ 66
vier@@ 66
ǒ 66
ʦ 66
̱ 66
仼 66
伾 66
佖 66
啷 66
喱@@ 66
埜@@ 66
怅 66
恙@@ 66
扞 66
掂 66
撳 66
晌 66
樗@@ 66
湝 66
煬 66
犢@@ 66
畚@@ 66
痧 66
瘠@@ 66
盨 66
穏 66
窍@@ 66
筐@@ 66
缄 66
聡 66
舔@@ 66
蜴@@ 66
趸 66
顕 66
髙 66
鯀 66
鲳@@ 66
麊 66
Meter 65
aciones 65
azu 65
cion@@ 65
hosp@@ 65
kup@@ 65
mili@@ 65
nacional 65
nou@@ 65
oppos@@ 65
propor@@ 65
returned 65
riff 65
udi 65
unde 65
usal@@ 65
veau 65
ʈ 65
ہ 65
ट 65
ῖ 65
∩ 65
⊂ 65
䜣 65
侘 65
勑 65
喦 65
奀 65
媪 65
庖@@ 65
彖 65
悵 65
悻@@ 65
朿 65
杻 65
橢 65
櫸@@ 65
殞 65
灊 65
燠 65
甗 65
痈@@ 65
痫@@ 65
筰 65
箫@@ 65
篥 65
蘂 65
螠 65
衩 65
袢 65
謁@@ 65
诶 65
谀 65
跺 65
蹣@@ 65
辔 65
逋@@ 65
酂 65
鑅 65
铙 65
頦@@ 65
鳊@@ 65
黁 65
중 65
Alem@@ 64
Kup@@ 64
Santi@@ 64
aki@@ 64
bez@@ 64
clim@@ 64
contempor@@ 64
eln 64
emu 64
endre 64
entos 64
jia 64
ober@@ 64
trou@@ 64
ɾ 64
ʑ 64
ʕ 64
য 64
Ⅵ 64
➤ 64
㈢ 64
儕@@ 64
呉 64
奁 64
悸@@ 64
愼 64
憺 64
捂@@ 64
浃 64
焞 64
瘍@@ 64
癜@@ 64
籾 64
肸 64
臞 64
莨 64
蕷 64
薜 64
誄 64
譭 64
锍 64
闐@@ 64
魈 64
鷿 64
麋 64
금 64
Krieg@@ 63
Politi@@ 63
alifor@@ 63
dah@@ 63
milli@@ 63
wani 63
wich@@ 63
ț 63
দ 63
丏 63
喧 63
嚭 63
徭 63
揆@@ 63
搢 63
搦 63
枰 63
柾 63
樉 63
欸 63
泩 63
漯 63
牤 63
猙@@ 63
瓚@@ 63
祎@@ 63
笳@@ 63
糌@@ 63
荅 63
葎 63
蕡 63
蜃 63
觑 63
诔 63
诧@@ 63
鄗 63
釪 63
鈧 63
鐺@@ 63
鳂 63
鼢@@ 63
준 63
Serie 62
achen 62
fue 62
keit 62
nomin@@ 62
oren 62
oyn@@ 62
plu@@ 62
principal 62
releas@@ 62
ů 62
ȵ 62
յ 62
ւ 62
צ 62
ू 62
ட 62
₁ 62
ぁ 62
㦃 62
㸅 62
僎 62
児 62
嚓 62
囯 62
夲 62
帷 62
彔 62
懣 62
戽 62
枧 62
榊 62
檦 62
濺@@ 62
焱@@ 62
玡 62
瑺 62
疔 62
筼 62
篑 62
繐 62
耙@@ 62
蒎 62
蓥 62
虯 62
讉 62
轂 62
郫 62
鬓@@ 62
鴕 62
鶻@@ 62
모 62
Este 61
Gesch@@ 61
Nh@@ 61
Theo 61
Tod 61
adora 61
alar 61
ancia 61
civil 61
conqu@@ 61
favor@@ 61
musical 61
zis@@ 61
Υ 61
ө 61
ல 61
ข 61
ာ 61
ぃ 61
冚 61
厙 61
吆@@ 61
啕@@ 61
嚕@@ 61
墟@@ 61
嵎 61
掙 61
柢@@ 61
梃@@ 61
洣 61
淶 61
澉@@ 61
犒 61
珐 61
痈 61
砺@@ 61
礑 61
籛 61
絪 61
蒞 61
襤@@ 61
詝 61
貙 61
迓 61
郳 61
釴 61
鐔 61
陘@@ 61
鬓 61
명 61
Ｇ 61
atique 60
awa@@ 60
career 60
dik@@ 60
egem@@ 60
endant 60
jos 60
lieb 60
monum@@ 60
provin@@ 60
reib@@ 60
religi@@ 60
yok@@ 60
ʲ 60
Ρ 60
ֶ 60
ত 60
ு 60
⑶ 60
ㄡ 60
䱻 60
倏@@ 60
兕 60
刋 60
奩 60
岵 60
峄@@ 60
忭 60
怏@@ 60
悌@@ 60
戗 60
摠 60
栳 60
梃 60
棓 60
欅 60
淙@@ 60
玓 60
玷 60
痨 60
皚 60
纨@@ 60
翃 60
苒 60
荜@@ 60
蘼 60
蛹@@ 60
蜓@@ 60
貒 60
醱 60
錀 60
閨 60
頔 60
駙 60
麯 60
예 60
Por 59
Thanh 59
Wash@@ 59
avec 59
coul@@ 59
gaz@@ 59
gol 59
incia 59
isons 59
mash@@ 59
sinh 59
vita 59
xico 59
̚ 59
ׁ 59
ო 59
უ 59
ᥒ 59
ủ 59
俋 59
偪 59
咾 59
囗@@ 59
娌 59
慳 59
撅 59
暅 59
杌 59
杓@@ 59
杬 59
桲 59
槙@@ 59
殫@@ 59
汆 59
浿 59
犠 59
玳 59
瑴 59
縝 59
螉 59
蟯@@ 59
谞 59
賨 59
踰@@ 59
鏸 59
阉 59
鞆 59
驁 59
鯱 59
鹇 59
鹪 59
종 59
𬭩 59
𬭸 59
Una 58
Vier@@ 58
XIX 58
arios 58
bres 58
debut 58
destin@@ 58
ense@@ 58
film@@ 58
gut 58
kio 58
occas@@ 58
premi@@ 58
sans 58
served 58
zial@@ 58
Ⅷ 58
◇ 58
⿱ 58
ㄫ 58
䴥 58
亶@@ 58
劓 58
啫 58
塅 58
媺 58
宬 58
彠 58
戯 58
梠 58
梱 58
浛 58
爝 58
狃 58
狔 58
狙 58
珑@@ 58
疡@@ 58
皑 58
筩 58
緄 58
缈 58
莸 58
萮 58
诡 58
轫 58
轵 58
郓 58
鏌 58
铛@@ 58
镬 58
鞣 58
鷈 58
黇 58
공 58
임 58
𠊎 58
aison 57
baz@@ 57
cours 57
erte 57
hud@@ 57
icos 57
juli@@ 57
kaz@@ 57
mek@@ 57
rir 57
zey@@ 57
ـ 57
ိ 57
ぇ 57
ㄖ 57
刖 57
刳 57
唳 57
嗤 57
墁 57
姈 57
姘@@ 57
媄 57
岜 57
忝 57
惻 57
愜@@ 57
愣@@ 57
慵 57
搠 57
斲 57
欏 57
毽 57
淼@@ 57
潸@@ 57
燉@@ 57
獁 57
瓿 57
疳 57
硓 57
窨@@ 57
綖 57
翥@@ 57
蕎 57
蘸@@ 57
虿 57
蚨@@ 57
裆 57
赅 57
鎩 57
镡 57
饕 57
鲋 57
黡 57
黷@@ 57
말 57
터 57
𨨏 57
Deutschen 56
Mittel@@ 56
eden 56
fest@@ 56
import@@ 56
municip@@ 56
organis@@ 56
partamento 56
uzi 56
Η 56
ե 56
ण 56
ཆ 56
န 56
佧 56
匕 56
啣 56
嗄 56
坧 56
垿 56
妯@@ 56
嫚@@ 56
帼@@ 56
掎@@ 56
摞 56
撘 56
撸 56
槰 56
淎 56
淒 56
漶 56
祛 56
筜 56
篳@@ 56
纾@@ 56
腙 56
艤 56
荬 56
蕻@@ 56
螋 56
謳 56
賅 56
赕 56
蹿@@ 56
迵 56
邉 56
鈳 56
鍥@@ 56
鏹 56
钲 56
锻 56
顙 56
骕 56
髭@@ 56
鵾 56
鷀 56
鸩 56
麩 56
鿬 56
단 56
레 56
𪟝 56
Une 55
Zentr@@ 55
ayar@@ 55
compet@@ 55
deutsche 55
git@@ 55
jou@@ 55
kana 55
kav@@ 55
libre 55
perman@@ 55
propri@@ 55
І 55
ז 55
ữ 55
仳 55
倨@@ 55
傩@@ 55
僂@@ 55
冧 55
嗉@@ 55
坔 55
坮 55
屭 55
弉 55
徧 55
悊 55
抺 55
攷 55
旉 55
旿 55
暪 55
杣 55
枓 55
柉 55
樅 55
檊 55
殚@@ 55
殳 55
浉 55
渍@@ 55
烋 55
犇 55
猝 55
琊@@ 55
琿@@ 55
瑫 55
瓈 55
瓠@@ 55
穑 55
竽 55
笫 55
緖 55
翺 55
臊 55
艶 55
茧@@ 55
蓁@@ 55
蘩 55
蜚 55
蠹@@ 55
裢 55
赟@@ 55
跆 55
辘 55
鋯@@ 55
阋@@ 55
雹@@ 55
靬 55
飈 55
鰥@@ 55
鱠 55
鲢@@ 55
鲮@@ 55
鴇@@ 55
鴫 55
麪 55
계 55
Osman@@ 54
ateur 54
chung 54
ciones 54
princi@@ 54
tant 54
ʐ 54
̣ 54
ཕ 54
ေ 54
∂ 54
⊥ 54
⑦ 54
兪 54
婞 54
寗 54
廃 54
悳 54
掇 54
撂@@ 54
柽 54
渟@@ 54
漑 54
烔 54
爚 54
犖 54
狞 54
玧 54
箋@@ 54
糺 54
縞@@ 54
縭 54
纡 54
翕@@ 54
翽 54
藪@@ 54
褛 54
譓 54
輞 54
銛 54
鐒 54
钡@@ 54
镣@@ 54
霙 54
鲴 54
鶼 54
식 54
차 54
카 54
피 54
Ｒ 54
Isra@@ 53
Landes@@ 53
Stadt 53
deut@@ 53
ecke 53
ecu@@ 53
edad 53
ehen 53
elected 53
kamp@@ 53
kim 53
proxim@@ 53
sek 53
thu 53
toire 53
zwe@@ 53
ள 53
ณ 53
ྟ 53
င 53
მ 53
∪ 53
ぺ 53
䳭 53
儇 53
噎 53
婺 53
岣 53
挵 53
斆 53
柸 53
楧 53
橦 53
浡 53
涑@@ 53
滠 53
瀼 53
炌 53
珩@@ 53
琨@@ 53
瘞 53
皑@@ 53
盹 53
睒 53
绹 53
膺@@ 53
蒄 53
衲 53
裿 53
褔@@ 53
諟 53
譲 53
賸 53
踉@@ 53
鐧 53
雝 53
韡 53
騋 53
髻@@ 53
鶺 53
鶺@@ 53
네 53
애 53
Ｈ 53
Ｎ 53
ｽ 53
Virgin@@ 52
anst@@ 52
inco 52
mez@@ 52
nah@@ 52
ngh@@ 52
¡ 52
ʅ 52
ث 52
ụ 52
₹ 52
䚟 52
丿 52
匋 52
囃 52
妩@@ 52
娍 52
峣 52
忖 52
惎 52
愎@@ 52
愾 52
憕 52
挻 52
摰 52
昺@@ 52
枞 52
槇 52
欤 52
欹 52
殄 52
沤 52
泇 52
瀦@@ 52
珖 52
癜 52
硷 52
箩 52
籴 52
繯 52
罾 52
肫 52
茼@@ 52
莼 52
薤 52
蟱 52
鉁 52
鉆 52
钣 52
韪 52
飑 52
驌 52
鵺 52
龠 52
날 52
청 52
포 52
､ 52
𨭆 52
Azer@@ 51
Weit@@ 51
arse 51
charg@@ 51
conse@@ 51
deux 51
edil@@ 51
eski 51
ewa 51
histoire 51
ichte 51
ient 51
izo 51
yol@@ 51
zas 51
வ 51
ำ 51
ཁ 51
ཏ 51
Ẽ 51
ㄦ 51
㵲 51
丨 51
傖 51
啊@@ 51
垤 51
嬲 51
孌@@ 51
岈 51
帧@@ 51
憓 51
拶 51
挈@@ 51
摳 51
杷@@ 51
梘 51
棼 51
氆@@ 51
滃 51
潋@@ 51
狰@@ 51
玶 51
璂 51
瘗 51
癰 51
盍 51
瞓 51
砀 51
筚@@ 51
缃 51
臊@@ 51
苁@@ 51
蒉 51
蛩 51
螻@@ 51
螽 51
賂@@ 51
輦@@ 51
轡 51
铤 51
餿 51
駰 51
驀@@ 51
鱔@@ 51
Ｆ 51
𨭎 51
Nueva 50
Wirt@@ 50
aband@@ 50
command@@ 50
march@@ 50
namo 50
quan 50
tish@@ 50
wala 50
wann 50
zil@@ 50
ų 50
ܐ 50
ী 50
ู 50
თ 50
ᠨ 50
ᥛ 50
₇ 50
∴ 50
㐌 50
㶲 50
侩 50
叄 50
嘀 50
噫 50
噹@@ 50
墎 50
娡 50
婬 50
孿 50
帚@@ 50
帡 50
愣 50
抿 50
擀@@ 50
擡 50
攆 50
攥 50
斿 50
昚 50
曔 50
栂 50
檟 50
櫨 50
櫪 50
焌 50
爻@@ 50
瑳 50
癬@@ 50
皈 50
瞥@@ 50
祊 50
窋 50
籼@@ 50
粳 50
艸 50
茈 50
荞 50
蔞 50
蕚 50
蕹@@ 50
蕺 50
薁 50
詆 50
赝 50
躑@@ 50
辧 50
釆 50
鎿 50
锏 50
阈 50
隄 50
隹 50
霅 50
韙 50
髫 50
鱭 50
鴈 50
관 50
광 50
노 50
달 50
름 50
씨 50
왕 50
￥ 50
𥙿 50
𦨭 50
𧒽 50
Kirche 49
Wasser@@ 49
amente 49
ifa 49
ikan@@ 49
mang 49
mano 49
monde 49
sich 49
sos@@ 49
vez 49
ŏ 49
ź 49
ˀ 49
ֵ 49
ھ 49
ნ 49
ῶ 49
⅓ 49
䶮 49
嘞 49
巒@@ 49
廪@@ 49
忏 49
懵 49
摽 49
攢@@ 49
晈 49
桱 49
椆 49
樻 49
檞 49
檠 49
沏 49
潚 49
煸@@ 49
燫 49
爕 49
珫 49
珹 49
瓉 49
畵 49
痤 49
瘴 49
眛 49
砻 49
硇@@ 49
禨 49
筦 49
簞 49
耄 49
脘 49
膦@@ 49
莳@@ 49
薗 49
諝 49
讬 49
軨 49
輊 49
鋗 49
鐤 49
钅 49
饲 49
鳝@@ 49
鹄@@ 49
麺 49
鼋 49
齎 49
러 49
별 49
창 49
파 49
Como 48
Geschichte 48
adil@@ 48
angu 48
brit@@ 48
chte 48
hoa 48
national@@ 48
ngu@@ 48
nicht 48
province 48
sana 48
una@@ 48
unas 48
wango 48
yaz@@ 48
Ē 48
̌ 48
တ 48
∑ 48
⊗ 48
⼈ 48
ㄭ 48
咚@@ 48
圌 48
圧 48
坳@@ 48
垧 48
堃@@ 48
墡 48
娸 48
岿@@ 48
巘 48
慫 48
戉 48
斉@@ 48
暸 48
桝@@ 48
槠 48
檮 48
洑 48
淠 48
湴 48
潏 48
烁@@ 48
犴 48
狍@@ 48
畊 48
竩 48
籥 48
絺 48
緘 48
繻 48
臈 48
舫@@ 48
蒹 48
蔊@@ 48
蕅 48
蟆@@ 48
褘 48
訒 48
詈 48
诨 48
逄 48
鉬@@ 48
鉷 48
鋃@@ 48
鋅@@ 48
鍪 48
钶 48
阚 48
陴 48
馱@@ 48
魾 48
鱿 48
鲊 48
鳡 48
즈 48
황 48
👑 48
𡃁 48
𨥙 48
fang@@ 47
fot@@ 47
ibu 47
joined 47
nur 47
sey@@ 47
̪ 47
چ 47
ℝ 47
⑧ 47
♀ 47
㖼 47
䫻 47
亻 47
佶@@ 47
儦 47
叽 47
嘈 47
娆 47
嫫 47
峘 47
扃 47
捅@@ 47
摁 47
攴 47
敉@@ 47
曌 47
杧 47
枵 47
橞 47
檩@@ 47
殍 47
沩 47
沬 47
洙@@ 47
浃@@ 47
浟 47
溈@@ 47
漉@@ 47
熨 47
牯 47
獏 47
瓒@@ 47
瘘 47
眇 47
眦 47
矞 47
禥 47
秈@@ 47
篯 47
繻@@ 47
缰@@ 47
腼@@ 47
膊@@ 47
菼 47
蕘 47
謩 47
趟@@ 47
跎 47
踱@@ 47
軏 47
軻@@ 47
轲@@ 47
雠 47
霈@@ 47
魢 47
鸂 47
龃@@ 47
龉 47
녕 47
두 47
봉 47
빈 47
처 47
𠀧 47
Alman@@ 46
Guin@@ 46
Juli 46
cens@@ 46
encore 46
enso 46
huy@@ 46
laya 46
ograf@@ 46
respectiv@@ 46
schaften 46
suite 46
teilung 46
verw@@ 46
wur@@ 46
zeu@@ 46
ǵ 46
ু 46
ἰ 46
⒈ 46
刣 46
匚 46
嬿@@ 46
幺@@ 46
恻@@ 46
抠 46
暄@@ 46
橓 46
橛 46
沨 46
洊 46
渫 46
湼 46
玚 46
璠@@ 46
痒@@ 46
瘂 46
瘉 46
癀 46
盉 46
硨@@ 46
磬@@ 46
禼 46
筇@@ 46
箎 46
舀@@ 46
蒗@@ 46
蠼 46
賔 46
贗 46
軹 46
釓 46
錝 46
铡 46
饟 46
驁@@ 46
魩 46
鵼 46
鸱 46
鼋@@ 46
鿕 46
년 46
𣋉 46
𦓿 46
Anh 45
Geg@@ 45
Indon@@ 45
Spiel@@ 45
XVIII 45
afu 45
atif 45
bey@@ 45
cargo 45
colon@@ 45
deci@@ 45
dedic@@ 45
ehe 45
gemein@@ 45
individu@@ 45
kem@@ 45
maya 45
otra 45
quier 45
tena 45
zeug@@ 45
ĉ 45
˦ 45
ު 45
ἐ 45
  45
╳ 45
匭 45
嵯 45
嶍 45
悵@@ 45
憋@@ 45
拈 45
捩 45
桠@@ 45
梘@@ 45
楦 45
櫆 45
汚 45
溎 45
漴 45
琡 45
琰@@ 45
眯@@ 45
磎 45
窳 45
綷 45
臓 45
袓 45
诅 45
躋 45
輳 45
鄃 45
钤@@ 45
镆 45
镣 45
鮎 45
黙 45
크 45
홍 45
Estado 44
Forsch@@ 44
Zeit 44
anistan 44
imiento 44
indi 44
inner@@ 44
mab@@ 44
muda 44
occup@@ 44
seh@@ 44
seur 44
wap@@ 44
wissen@@ 44
ɹ 44
ʌ 44
ய 44
್ 44
ྒ 44
ợ 44
ự 44
⒉ 44
㫤 44
䱗 44
俌 44
俓 44
倞 44
児@@ 44
叽@@ 44
咇 44
唠@@ 44
噻 44
圉@@ 44
壱 44
夬 44
梆 44
梴 44
榇 44
樯 44
櫞 44
洧@@ 44
炕@@ 44
燁@@ 44
獰@@ 44
珏@@ 44
琠 44
碛@@ 44
礤 44
窒 44
竑@@ 44
綮 44
縂 44
縟 44
纻 44
肏 44
苺 44
衂 44
衄 44
襠@@ 44
谑@@ 44
賒 44
逡@@ 44
郦 44
酈 44
銭 44
騏@@ 44
骃 44
骠 44
鵎 44
鹪@@ 44
黩@@ 44
불 44
Ｗ 44
Ｙ 44
ｍ 44
ﾀ 44
ampi@@ 43
autor@@ 43
cada 43
geri 43
iler@@ 43
issen 43
ographie 43
personn@@ 43
provincia 43
schafts@@ 43
tof@@ 43
tros 43
unca 43
uvo 43
wam@@ 43
weit@@ 43
yeri 43
կ 43
ன 43
ை 43
ပ 43
ន 43
ḫ 43
僜 43
喩 43
嗷@@ 43
嗹 43
圃@@ 43
塢@@ 43
墌 43
夤@@ 43
奨 43
崀 43
彞 43
戧 43
拄@@ 43
楳 43
橄 43
渶 43
溆 43
漖 43
犼 43
珧@@ 43
珺@@ 43
璙 43
璸 43
礱@@ 43
秫@@ 43
秬 43
穰@@ 43
絷 43
纮@@ 43
脍 43
腻@@ 43
苫@@ 43
菻 43
蒌 43
覩 43
觇 43
觔 43
轀 43
逯 43
邈@@ 43
鋈 43
鍅 43
鐃@@ 43
钏@@ 43
铎@@ 43
镲 43
饈 43
髷 43
鮸 43
鵠@@ 43
鸶 43
鼾 43
운 43
Ｕ 43
𤅷 43
coup 42
einen 42
eines 42
interpret@@ 42
ismus 42
lichen 42
luk 42
registr@@ 42
spor@@ 42
topl@@ 42
ť 42
Ա 42
ظ 42
ภ 42
ვ 42
ẽ 42
∃ 42
㎜ 42
僔 42
兎 42
匜 42
哞 42
坰 42
堙 42
妠 42
婵@@ 42
巣 42
憋 42
憻 42
捫@@ 42
搂 42
敻 42
昝 42
暸@@ 42
枡 42
桡 42
泃 42
猃 42
瘰 42
皚@@ 42
皷 42
睏 42
睚@@ 42
矸 42
碽 42
繰 42
缊 42
膻 42
葇 42
蕈@@ 42
薬@@ 42
讐 42
讙 42
跏 42
輒@@ 42
輜 42
輶 42
辏 42
遛 42
鐩 42
锉@@ 42
镊@@ 42
镏@@ 42
鞌 42
餉@@ 42
餚@@ 42
鰜 42
鳈 42
鼍 42
음 42
혜 42
Hoa 41
Leben 41
Lehr@@ 41
Oly@@ 41
abaj@@ 41
duk@@ 41
ensemble 41
enten 41
estas 41
homme 41
irse 41
licher 41
statt 41
voy@@ 41
w.@@ 41
© 41
Â 41
ǣ 41
͘ 41
ט 41
প 41
⊞ 41
仨 41
俀 41
匽 41
厯 41
叅 41
咺 41
唾 41
嚷@@ 41
坖 41
垡@@ 41
娀 41
嵝 41
拺 41
撦 41
曮 41
枧@@ 41
桄 41
榉@@ 41
榿 41
槼 41
櫱 41
氵 41
沺 41
潩 41
狈@@ 41
瑮 41
璊 41
癆@@ 41
睨 41
矟 41
稉 41
稞@@ 41
缒 41
缭 41
脗 41
蜩 41
襴 41
誔 41
谵@@ 41
輗 41
輥 41
迸 41
邶 41
錾 41
閾 41
鬢@@ 41
鯁@@ 41
鲾 41
鹦 41
더 41
를 41
린 41
밤 41
심 41
훈 41
Guerra 40
Lebens@@ 40
Nigeria 40
Trung 40
alista 40
beit 40
diplom@@ 40
enst 40
fico 40
graf@@ 40
hay 40
inclus@@ 40
khi@@ 40
west@@ 40
ġ 40
̊ 40
қ 40
় 40
ង 40
‑ 40
㭽 40
仚 40
倂 40
凫@@ 40
埰 40
堎 40
墼 40
妘 40
娉@@ 40
寊 40
崍@@ 40
庒 40
廰 40
彄 40
惬@@ 40
揑 40
旽 40
柠 40
柰@@ 40
柺 40
棰 40
橼 40
氂 40
滧 40
漉 40
灕 40
炻@@ 40
爟 40
牾 40
硦 40
磙 40
磧@@ 40
磪 40
翡 40
苘@@ 40
荬@@ 40
荵 40
薏 40
螳 40
訾 40
跺@@ 40
蹉 40
轺 40
醪@@ 40
鉚 40
銨@@ 40
錙@@ 40
鐓 40
阊@@ 40
颔@@ 40
騤 40
骖 40
鬷 40
鳇@@ 40
길 40
복 40
입 40
합 40
행 40
Frau 39
Pour 39
agric@@ 39
alem@@ 39
aliy@@ 39
beri 39
chter 39
commune 39
consid@@ 39
egos 39
grande 39
haber 39
inaug@@ 39
orden 39
rek@@ 39
sek@@ 39
ɬ 39
˚ 39
জ 39
ญ 39
ཡ 39
ཤ 39
ក 39
ុ 39
ῆ 39
ῦ 39
倕 39
冮 39
喎 39
嘹 39
圑 39
埻 39
埿 39
塡 39
墭 39
姵 39
屘 39
屺 39
嵕 39
嶢 39
巰@@ 39
帏 39
幃 39
幘 39
戻 39
捂 39
摃 39
晫 39
桄@@ 39
楫@@ 39
氕 39
淅 39
淌@@ 39
烇 39
烩@@ 39
煸 39
玑@@ 39
甓 39
盝 39
睹@@ 39
箒 39
箩@@ 39
耄@@ 39
聼 39
胝@@ 39
苓@@ 39
茝 39
萦 39
覿 39
觋 39
誆 39
誐 39
谮 39
踌@@ 39
踫 39
鄄 39
鎣 39
闺 39
韐 39
騅 39
鬰 39
鮣 39
鶒 39
黟 39
반 39
혁 39
ﾓ 39
Engl@@ 38
Musik@@ 38
Sov@@ 38
Welt@@ 38
artist@@ 38
cet 38
cual 38
empres@@ 38
fait 38
fak@@ 38
fass@@ 38
interpre@@ 38
khu 38
lama 38
lui 38
municipio 38
sind 38
vom 38
waka 38
ĭ 38
़ 38
ษ 38
က 38
ြ 38
ស 38
≒ 38
⒊ 38
〒 38
㎞ 38
伢 38
厩@@ 38
呀@@ 38
咿 38
啬@@ 38
囘 38
妬 38
娫 38
婊 38
廼 38
怅@@ 38
怏 38
擕 38
昉@@ 38
暧 38
朦 38
椬 38
榑 38
櫪@@ 38
溷 38
澌 38
瀲@@ 38
煽 38
獺@@ 38
璩@@ 38
甍 38
畛@@ 38
矸@@ 38
秏 38
粜 38
粼 38
罅@@ 38
肄 38
膘 38
苊 38
茭 38
莕 38
萋 38
蒢 38
虨 38
蜞 38
蠆 38
衜 38
裇 38
褴@@ 38
誴 38
诧 38
贶 38
醵 38
鈿@@ 38
銚@@ 38
錏 38
颛 38
鯥 38
龎 38
근 38
독 38
람 38
버 38
티 38
Gemein@@ 37
cito 37
compr@@ 37
empl@@ 37
erung 37
ickl@@ 37
nach@@ 37
ortho@@ 37
pek@@ 37
sau 37
tionn@@ 37
Ô 37
ǝ 37
ۇ 37
ရ 37
ᥫ 37
ḗ 37
ở 37
ử 37
ἄ 37
› 37
⑨ 37
⑷ 37
⼤ 37
⽂ 37
゜ 37
㚟 37
仏 37
佀 37
偻@@ 37
劌 37
卲 37
咤@@ 37
嗌 37
塆 37
妑 37
姁 37
孋 37
寃 37
巯 37
帙@@ 37
庲 37
恻 37
懍 37
抔 37
拝 37
撷 37
敭 37
斎 37
曅 37
曕 37
朕@@ 37
枱@@ 37
檣 37
汭@@ 37
浹@@ 37
溵 37
琕 37
瘪 37
眭 37
粲@@ 37
粼@@ 37
縑 37
脬 37
葫 37
蠓@@ 37
袅@@ 37
襀 37
譖 37
诋 37
谆@@ 37
谛@@ 37
豲 37
赁@@ 37
蹬@@ 37
郾 37
鄤 37
酹 37
鈃 37
鈦@@ 37
錛 37
鏊@@ 37
鐶 37
隳 37
靦@@ 37
饹 37
骛 37
鲚 37
鹡 37
黻@@ 37
건 37
까 37
덕 37
려 37
저 37
평 37
＄ 37
Ｚ 37
.000 36
Cao 36
founded 36
gique 36
hasta 36
hier 36
iques 36
jed@@ 36
kata 36
marqu@@ 36
tere 36
zor@@ 36
ˌ 36
ো 36
ბ 36
ṯ 36
ỳ 36
  36
䌹 36
䗉 36
剐 36
劒 36
叨@@ 36
喳@@ 36
嘥 36
埂@@ 36
妫@@ 36
娩@@ 36
屃 36
崄 36
嵓 36
嶔 36
巻@@ 36
忯 36
怵 36
慭 36
挎@@ 36
敳 36
晡 36
曁 36
氤@@ 36
沍 36
浵 36
淠@@ 36
渌@@ 36
濞@@ 36
熥 36
猇 36
猯 36
琲 36
硿 36
磻@@ 36
祉@@ 36
祘 36
秕 36
筈 36
粍 36
紈@@ 36
綧 36
羸 36
聃@@ 36
舛@@ 36
芫 36
菖 36
菝 36
薺@@ 36
訃 36
谡 36
跣 36
轳 36
邆 36
鄶 36
鈊 36
鋇@@ 36
鎦 36
镗@@ 36
閰 36
騫@@ 36
鰱@@ 36
鲶 36
鷙 36
개 36
과 36
난 36
형 36
Guerre 35
Verein@@ 35
avoir 35
denomin@@ 35
deutschen 35
dung 35
install@@ 35
istas 35
jeun@@ 35
marri@@ 35
married 35
mek 35
realiz@@ 35
sobre 35
tay 35
tische 35
utiliz@@ 35
zentr@@ 35
zus@@ 35
ս 35
ड 35
ཟ 35
‹ 35
Ⓐ 35
✕ 35
ㄹ 35
䥑 35
亊 35
佗@@ 35
侅 35
僥@@ 35
刄 35
吔 35
啵 35
嗔@@ 35
噜@@ 35
囲 35
奣 35
奭@@ 35
妊 35
妏 35
妸 35
婻 35
孵 35
嵖 35
巎 35
悃 35
悆 35
惋 35
捋 35
摛 35
敫 35
昑 35
昖 35
栘 35
楨@@ 35
橒 35
櫞@@ 35
欞 35
氖@@ 35
汨 35
汸 35
潦 35
爍@@ 35
猄 35
猢@@ 35
猺 35
琏@@ 35
璦@@ 35
癿 35
皤 35
盌 35
睑@@ 35
窨 35
绉 35
缁 35
茏 35
茴 35
荄 35
莳 35
葺@@ 35
蕤@@ 35
蝀 35
覬 35
詥 35
誒 35
誹 35
讌 35
賻 35
轫@@ 35
酇 35
釭 35
鉎 35
铧@@ 35
雟 35
饴@@ 35
饽 35
骓 35
鴗 35
鶆 35
齪 35
간 35
녀 35
삼 35
순 35
와 35
적 35
＇ 35
Afrika 34
Bir 34
Eine 34
alien 34
almente 34
anah@@ 34
ansa 34
avant 34
elde 34
join@@ 34
kea 34
occu@@ 34
onge@@ 34
onu 34
siy@@ 34
ungu 34
zeich@@ 34
¿ 34
ǫ 34
Ά 34
ཅ 34
ὐ 34
ὶ 34
◌ 34
㮾 34
䴈 34
仉@@ 34
価 34
厖 34
咝@@ 34
啮 34
嘰 34
圻@@ 34
埽 34
壻 34
孻 34
寜 34
尒 34
嵿 34
嶙 34
巉 34
慜@@ 34
捭@@ 34
撂 34
擯@@ 34
旆 34
晢 34
曈 34
栄@@ 34
槚 34
檻@@ 34
氿 34
渲 34
渽 34
滽 34
焴 34
璎 34
畇 34
疇@@ 34
癔@@ 34
睛@@ 34
砗@@ 34
礱 34
笹 34
緇 34
艟 34
茑 34
茷 34
荏 34
蛔 34
衲@@ 34
袅 34
謐@@ 34
賒@@ 34
賹 34
赂@@ 34
赙 34
跻 34
邴 34
郚 34
醞 34
鋏 34
錱 34
鏳 34
鐃 34
鐄 34
铗 34
阍 34
靨 34
颳 34
驭@@ 34
鬈 34
鮁 34
鯈 34
鯵 34
鰮 34
鸩@@ 34
鹍 34
눈 34
데 34
림 34
물 34
빛 34
Califor@@ 33
Rus 33
Sau 33
alim@@ 33
altung 33
best@@ 33
chef 33
contra 33
deutsch@@ 33
franc@@ 33
herr@@ 33
politique 33
tiki 33
trieb@@ 33
waz@@ 33
Ê 33
ŝ 33
Ј 33
տ 33
ܝ 33
আ 33
হ 33
ా 33
ម 33
ᥣ 33
ổ 33
♣ 33
㷿 33
䗩 33
佮 33
僙 33
儐 33
叚 33
哔 33
啭 33
嗱 33
嘖 33
嘭 33
嚦 33
圴 33
垞 33
垲 33
壂 33
奫 33
媭 33
嬢 33
寖 33
屣 33
嵇 33
巑 33
幢@@ 33
庋 33
慇 33
扪@@ 33
揲 33
撙@@ 33
敉 33
桷@@ 33
椀 33
檁 33
櫓@@ 33
氌 33
汩@@ 33
浥 33
湞 33
溋 33
熘 33
猻 33
獫 33
疴 33
砬 33
硭 33
穠 33
繽 33
肴@@ 33
胗 33
脳 33
艅 33
荂 33
菡@@ 33
葑@@ 33
蚝@@ 33
蛐@@ 33
蠃 33
褧 33
觌 33
豷 33
鏓 33
铙@@ 33
铚@@ 33
霎 33
靭 33
頇 33
顰 33
颮 33
饃 33
髕 33
鯇 33
鳜 33
麞 33
돌 33
없 33
온 33
친 33
테 33
Kig@@ 32
cultur@@ 32
deu@@ 32
embre 32
famille 32
leit@@ 32
matr@@ 32
muz@@ 32
pays 32
prak@@ 32
yet@@ 32
¢ 32
ľ 32
ˤ 32
Ё 32
Й 32
Щ 32
ұ 32
մ 32
ং 32
ặ 32
‒ 32
Ⅸ 32
㈣ 32
㫻 32
亓 32
倅 32
匍 32
唬@@ 32
囓 32
埌 32
墫 32
孮 32
宄 32
峅 32
嵛 32
巋 32
帻 32
悱@@ 32
惻@@ 32
戥 32
挿 32
掦 32
斅 32
柤 32
楘 32
楪 32
櫧 32
欰 32
氳 32
泺@@ 32
淶@@ 32
瀠 32
炝 32
烨@@ 32
玀 32
皰 32
皴@@ 32
瞇 32
矍 32
磜 32
磻 32
祆@@ 32
笞@@ 32
筥 32
綯 32
綹 32
绔@@ 32
绖 32
脢 32
脣@@ 32
舁 32
舩 32
艨@@ 32
芐 32
蝼@@ 32
袆 32
裆@@ 32
諢 32
讴 32
趺@@ 32
跄 32
鄖 32
鄡 32
銍 32
錧 32
锒@@ 32
閞 32
阏 32
阖@@ 32
阝 32
隃 32
饞 32
駔 32
騊 32
鲐 32
鵞 32
글 32
발 32
월 32
﹪ 32
Ｊ 32
𧈢 32
aliste 31
dass 31
deter@@ 31
eint 31
feh@@ 31
geg@@ 31
igt 31
ilen 31
kari@@ 31
kiye 31
kung 31
kwa 31
nde@@ 31
onales 31
organisation 31
partement 31
rar 31
vili@@ 31
waf@@ 31
wurde 31
ʋ 31
ٹ 31
າ 31
ཐ 31
ᥝ 31
ẹ 31
∅ 31
◯ 31
ㄴ 31
㬂 31
䥝 31
䳍 31
乸 31
侹 31
俍 31
僂 31
僴 31
凪@@ 31
刧 31
厷 31
喏 31
嗾 31
坼 31
塄 31
塼 31
夨 31
婓 31
屇 31
嶗@@ 31
弨 31
忑@@ 31
惓 31
惘@@ 31
懔 31
挎 31
搴 31
旰 31
旰@@ 31
曖 31
曽 31
朧@@ 31
栊 31
栐 31
榼 31
槪 31
檵 31
泝 31
淥 31
渃 31
渿 31
湑 31
澌@@ 31
瀷 31
熅 31
熈 31
珓 31
皛 31
碏 31
祅 31
緗 31
縡 31
纰@@ 31
翫 31
肟@@ 31
舥 31
茁 31
荎 31
葶@@ 31
蕯 31
蕻 31
蜞@@ 31
螞 31
蟛@@ 31
蠐@@ 31
谂 31
赑 31
趒 31
跣@@ 31
踎 31
辄@@ 31
辵 31
郐 31
酩 31
鉕 31
鎇 31
铡@@ 31
铦 31
铫 31
铱@@ 31
阬 31
隲 31
鰣@@ 31
鲗 31
鵂 31
鶇@@ 31
초 31
후 31
ｅ 31
Auch 30
Barcel@@ 30
arriv@@ 30
bien 30
celle 30
ecto 30
emper@@ 30
grandes 30
greso 30
jaw@@ 30
kub@@ 30
novel@@ 30
oyun@@ 30
siz 30
wirt@@ 30
ņ 30
ſ 30
ɳ 30
ɸ 30
ʏ 30
̠ 30
Ь 30
Հ 30
শ 30
ே 30
్ 30
ซ 30
ქ 30
ể 30
₩ 30
▌ 30
ぢ 30
ㄬ 30
佋 30
倀 30
倢 30
傀 30
嗝@@ 30
嘰@@ 30
噎@@ 30
埆 30
娈@@ 30
娲@@ 30
媖 30
崍 30
弖 30
慝 30
扞@@ 30
櫫 30
殒 30
毂@@ 30
泔@@ 30
洐 30
浜@@ 30
涔@@ 30
溁 30
滈 30
漵 30
濼 30
炀 30
燚 30
狝 30
猱 30
瑸 30
瓐 30
瘪@@ 30
癣@@ 30
皦 30
睥@@ 30
祲 30
笆@@ 30
笥@@ 30
篔 30
絛 30
絝 30
繚 30
绦 30
罝 30
羶 30
翾 30
膾@@ 30
芺 30
荦@@ 30
蓠 30
薴 30
蚬@@ 30
襕 30
賫 30
赳@@ 30
跂 30
蹑@@ 30
轘 30
辿 30
逖@@ 30
逺 30
邘 30
邰 30
鄅 30
鐬 30
鑴 30
铚 30
阼 30
雱 30
頎@@ 30
颔 30
颢@@ 30
饽@@ 30
馺 30
駘 30
騣 30
鯮 30
鱖@@ 30
鵷 30
鶹 30
鸵 30
黈 30
黶 30
鼈 30
권 30
르 30
메 30
북 30
직 30
프 30
﹗ 30
𣚅 30
Entre 29
Haup@@ 29
Unternehmen 29
Verein 29
abei 29
ativo 29
contre 29
durch 29
erst 29
ezo 29
fte 29
iye 29
kik@@ 29
mita 29
naf@@ 29
ouver@@ 29
perten@@ 29
pour@@ 29
signi@@ 29
trois 29
utsch@@ 29
Ć 29
̈ 29
Ө 29
ট 29
ා 29
ผ 29
ฟ 29
ใ 29
ཞ 29
ྡ 29
ླ 29
‪ 29
℅ 29
ⴰ 29
㮵 29
㻋 29
俩@@ 29
労 29
匁 29
哐 29
啥@@ 29
噼@@ 29
垰 29
埨 29
堽 29
墱 29
娎 29
嵘@@ 29
廔 29
悯@@ 29
抨 29
柝 29
梫 29
滆 29
滍 29
滏 29
瀣 29
烚 29
玒 29
瓤 29
甽 29
疵@@ 29
瘐 29
碭 29
礅 29
礒 29
祤 29
禆 29
禚@@ 29
禡 29
穟 29
綴@@ 29
緍 29
縳 29
绐 29
缛 29
聒@@ 29
艿 29
莩 29
藎@@ 29
藐 29
襃 29
觯 29
诤@@ 29
貤 29
趼@@ 29
踴 29
轱@@ 29
辊@@ 29
鉉@@ 29
鉌 29
鋉 29
鑃 29
鑞 29
钺@@ 29
锭@@ 29
镒@@ 29
閎@@ 29
闔@@ 29
闗 29
阄 29
霫 29
颋 29
馛 29
馼 29
駉 29
騨 29
髆 29
鼾@@ 29
齕 29
齷@@ 29
배 29
엔 29
흥 29
｝ 29
Kenya 28
Nga 28
bier@@ 28
casa 28
clas@@ 28
donn@@ 28
emble 28
kend@@ 28
nouveau 28
oblig@@ 28
recher@@ 28
stellung 28
vile 28
ĕ 28
ű 28
̀ 28
Ә 28
ܘ 28
ਾ 28
ந 28
් 28
ි 28
็ 28
ນ 28
ཉ 28
ཱ 28
ხ 28
Ṣ 28
ừ 28
ὁ 28
∆ 28
♦ 28
ㄷ 28
ㅇ 28
㘭 28
㬎 28
㴶 28
䄉 28
䏲 28
伃 28
佇 28
倥@@ 28
僩 28
儚 28
刼 28
剉 28
咙@@ 28
噱 28
垈 28
垠@@ 28
堿 28
塈 28
塏 28
壐 28
壝 28
嫽 28
屓 28
嵫 28
幵 28
彡 28
徘 28
拑 28
捽 28
揼 28
擭 28
擯 28
攽 28
旮@@ 28
枠 28
梲 28
椑 28
氂@@ 28
泆@@ 28
洢 28
玢@@ 28
瑍 28
畛 28
痳 28
瘺 28
癤 28
瞩 28
瞫 28
禇 28
筝@@ 28
続@@ 28
繅@@ 28
繕@@ 28
绺 28
缛@@ 28
艹 28
菥 28
蓊@@ 28
蓐 28
薗@@ 28
蚪@@ 28
蚶@@ 28
蜑@@ 28
蝲@@ 28
裊@@ 28
觥 28
訔 28
誑 28
謄 28
讵 28
诲@@ 28
赊 28
躡@@ 28
郄@@ 28
釦@@ 28
鉶 28
鍟 28
鎩@@ 28
鑌@@ 28
钽@@ 28
镦 28
閶 28
霤 28
霦 28
靥 28
餿@@ 28
鲕 28
鲘 28
龊 28
베 28
생 28
열 28
환 28
＾ 28
𠝹 28
𣰋 28
𨮁 28
Ayr@@ 27
Dez@@ 27
Entw@@ 27
Tuy 27
atta@@ 27
auen 27
ellas 27
ihr 27
imu 27
inay@@ 27
kua 27
quy 27
schaft@@ 27
verk@@ 27
 27
̞ 27
ғ 27
ڠ 27
ަ 27
് 27
ព 27
ិ 27
ᴇ 27
  27
⌋ 27
▼ 27
♠ 27
㟖 27
䍐 27
伋@@ 27
佽 27
凼 27
卭 27
吭 27
咫 27
哒@@ 27
噉 27
噚 27
坫 27
姹 27
娳 27
崒 27
幔@@ 27
挲 27
揩 27
揺 27
搽 27
曧 27
枬 27
椇 27
楬 27
榍 27
毳 27
氲 27
溙 27
瀅@@ 27
炲 27
煣 27
玙@@ 27
琁 27
皁 27
睍 27
碡 27
篓@@ 27
籖 27
籮@@ 27
粋 27
绔 27
聦 27
舡 27
蓢 27
蔿 27
薀 27
蜇@@ 27
蜮 27
蟇 27
褕 27
訚 27
讣 27
踼 27
郄 27
鈜 27
鋱 27
钎@@ 27
锲@@ 27
颦 27
饴 27
饸 27
馋 27
駮 27
髅@@ 27
鳓 27
鸑 27
꽃 27
좋 27
찬 27
체 27
토 27
통 27
𣏌 27
𤏸 27
𫙮 27
𬀩 27
Arbeit@@ 26
bere@@ 26
biy@@ 26
ded@@ 26
dipl@@ 26
entre@@ 26
faire 26
ingt 26
kama 26
kuj@@ 26
lanz@@ 26
leurs 26
lichkeit 26
maf@@ 26
merc@@ 26
mismo 26
parte 26
pou@@ 26
premier 26
segu@@ 26
soll 26
teurs 26
tous 26
tout 26
trag 26
wach@@ 26
Ð 26
ĥ 26
ȟ 26
ɖ 26
ў 26
ң 26
ց 26
ܪ 26
थ 26
গ 26
ங 26
క 26
ฺ 26
လ 26
გ 26
კ 26
ỉ 26
ὸ 26
⒋ 26
ゑ 26
㝢 26
㥄 26
䂮 26
䄂 26
䲎 26
亅 26
凴 26
剽 26
卺 26
咦 26
喁 26
噤 26
噥 26
嚢 26
圕 26
塜 26
壪 26
姃 26
媜 26
孌 26
岞 26
崆 26
崾 26
愐 26
慍@@ 26
慼 26
捱@@ 26
搂@@ 26
摂 26
撵@@ 26
昹 26
晪 26
朊@@ 26
棅 26
棆 26
榀 26
榣 26
槊@@ 26
槛@@ 26
櫳 26
氶 26
洤 26
淐 26
烶 26
狞@@ 26
琜 26
璬 26
痾 26
瘼 26
矻 26
礓 26
祾 26
簒 26
籜 26
縋 26
绁 26
翛 26
荧 26
菏 26
葊 26
葒 26
蓚 26
蓯@@ 26
蓴 26
誡@@ 26
諄 26
諌 26
謏 26
诨@@ 26
貮 26
踨 26
躔 26
辶 26
釿 26
鉺 26
鋰@@ 26
鍇@@ 26
鏦 26
鏨 26
钿@@ 26
铩@@ 26
锢@@ 26
閪 26
阃 26
騂 26
骐@@ 26
鱣 26
鴰 26
鹾 26
黾 26
브 26
새 26
설 26
줄 26
코 26
 26
𢙯 26
𰯼 26
Allem@@ 25
Hindi 25
Verw@@ 25
ambu@@ 25
ciudad 25
dies@@ 25
ellos 25
guerre 25
hata 25
huri 25
kommen 25
logr@@ 25
menos 25
msh@@ 25
municipal@@ 25
sao 25
sont 25
unden 25
vida 25
werden 25
ɘ 25
̆ 25
̤ 25
Ъ 25
є 25
ᠢ 25
ẓ 25
≦ 25
⽣ 25
ヅ 25
ㆿ 25
䶵 25
厳 25
吭@@ 25
呣 25
咢 25
唏 25
囈 25
夀 25
夒 25
嫿 25
宀 25
屙 25
嶚 25
忬 25
忳 25
愠 25
扥 25
攙@@ 25
旡 25
旲 25
枨 25
椚 25
槏 25
槔 25
浭 25
涍 25
漒 25
潆 25
焻 25
珷 25
琺 25
瑂 25
璘@@ 25
甯@@ 25
痱@@ 25
砳 25
笒 25
筲 25
簏 25
绉@@ 25
缂@@ 25
羰 25
耑 25
耬 25
脿 25
苕@@ 25
荇 25
荥 25
蔀 25
蔫 25
蕞 25
薬 25
虵 25
蝥 25
衒 25
裵 25
襆 25
訚@@ 25
讱 25
诐 25
谆 25
趸@@ 25
踞@@ 25
邙 25
醣@@ 25
釒 25
錩 25
铆 25
锳 25
靉 25
鞑 25
韠 25
韺 25
頲 25
顓 25
顢@@ 25
颶 25
飥 25
飧 25
餺@@ 25
騑 25
鰛 25
鷽 25
鸹 25
黝 25
궁 25
플 25
허 25
ｘ 25
｛ 25
𝄇 25
𥑮 25
𩖃 25
𩻸 25
Mit 24
cier@@ 24
ehem@@ 24
enzi 24
ilim@@ 24
lado 24
lande 24
lili@@ 24
mort 24
origine 24
poco 24
schaf@@ 24
serie 24
vai 24
ǧ 24
ɟ 24
ɢ 24
Қ 24
ਿ 24
ರ 24
ប 24
ហ 24
ὀ 24
↗ 24
ゝ 24
ㅂ 24
ㅣ 24
㵢 24
䃟 24
䍩 24
伥 24
倈 24
儞 24
剮 24
厠 24
唄@@ 24
唹 24
囯@@ 24
嫱 24
孱 24
尨 24
崟 24
嶓 24
巃 24
彣 24
忾@@ 24
惦 24
懽@@ 24
扦 24
掂@@ 24
撄@@ 24
擐 24
昤 24
晅 24
棁 24
棖 24
櫝 24
欷 24
殁@@ 24
氷 24
浠 24
涴 24
渓 24
潓 24
潕 24
焮 24
熇 24
犭 24
珌 24
珒 24
珣@@ 24
琓 24
畋@@ 24
畴@@ 24
癯 24
盱 24
睗 24
禬 24
稾 24
笱 24
箪 24
簍@@ 24
簟 24
粃 24
罣 24
羑 24
耋 24
聟 24
舄 24
舭 24
茌 24
莰 24
莶 24
藴 24
蝴 24
螬 24
袿 24
褵 24
詫 24
趯 24
蹙@@ 24
躒 24
迆 24
邗 24
鄆 24
鄾 24
釺 24
鉞@@ 24
銾 24
錟 24
钖 24
閟 24
霱 24
頊@@ 24
飮 24
餑 24
骧@@ 24
魠 24
鮐 24
鰌 24
鰗 24
齲@@ 24
각 24
때 24
본 24
빠 24
손 24
커 24
헌 24
ｔ 24
ｸ 24
𥕟 24
Bere@@ 23
Campeonato 23
Geometr@@ 23
Zu 23
communes 23
comun@@ 23
einem 23
ilik 23
incor@@ 23
mais 23
neces@@ 23
osas 23
pios 23
puer@@ 23
sud 23
tiy@@ 23
tores 23
ʀ 23
ˠ 23
Ы 23
ల 23
ి 23
ు 23
ྤ 23
အ 23
့ 23
ជ 23
ᥓ 23
ἡ 23
₆ 23
⑩ 23
┣ 23
ㄱ 23
ㅅ 23
㭎 23
䓪 23
佷 23
侊 23
倗 23
劔 23
叧 23
唫 23
啧@@ 23
喑 23
嚆 23
嚤 23
埢 23
[...]
