de 55698949
, 39494483
. 30035713
la 26776932
en 22808851
el 19920626
y 19222304
a 15915072
&quot; 12766760
que 11975276
del 9657136
los 9200878
o 9080425
os 8626153
as 8600623
se 7953229
ó 7892157
es 7053290
un 6636140
por 6600689
al 6457330
una 6309816
ado 6278051
con 6092096
las 5923320
) 5707209
( 5697634
ación 5438165
ar 5307775
su 5159073
como 3908915
para 3890829
ada 3839850
re@@ 3641871
El 3560055
c@@ 3473527
ía 3247460
En 3068680
fue 3002609
@-@ 2987256
in@@ 2940312
p@@ 2920616
La 2851089
al@@ 2776809
í@@ 2730405
di@@ 2714133
ac@@ 2637045
á@@ 2573072
ar@@ 2538031
to 2522845
en@@ 2499250
lo 2471873
con@@ 2449472
v@@ 2401166
an 2399837
ales 2395077
ados 2384098
an@@ 2336962
S@@ 2289077
C@@ 2273635
s@@ 2248051
no 2219311
or@@ 2217343
r@@ 2205947
era 2198899
más 2159799
es@@ 2131490
ia 2128400
P@@ 2127704
u@@ 2112259
ción 2104348
: 2103453
ica 2086132
ando 2033860
ó@@ 2014850
A@@ 1946822
m@@ 1930281
ec@@ 1926212
ente 1904398
ent@@ 1895749
er@@ 1883402
ón 1876981
o@@ 1858696
t@@ 1831759
f@@ 1824363
on@@ 1822366
idad 1818993
l@@ 1788204
e@@ 1781163
ti@@ 1777043
L@@ 1768603
ic@@ 1754368
ido 1739952
encia 1704765
j@@ 1700432
vi@@ 1684047
tr@@ 1682476
E@@ 1681694
sus 1679923
qu@@ 1679733
as@@ 1671490
M@@ 1661351
or 1658236
est@@ 1652404
n@@ 1640426
g@@ 1637789
i@@ 1635685
T@@ 1623239
im@@ 1599310
R@@ 1598355
ta 1597955
at@@ 1560797
d@@ 1554761
do 1540136
F@@ 1535429
per@@ 1533989
ico 1533803
ci@@ 1522050
D@@ 1498061
des@@ 1486367
it@@ 1479385
ex@@ 1476598
ab@@ 1468781
ad@@ 1463441
oc@@ 1461153
G@@ 1458300
b@@ 1447953
cu@@ 1435104
de@@ 1423046
un@@ 1422689
ano 1418551
em@@ 1414948
; 1414736
am@@ 1413202
adas 1399813
aciones 1390454
ur@@ 1378823
almente 1377206
ana 1375381
B@@ 1371687
su@@ 1350195
com@@ 1343566
ante 1337526
N@@ 1319723
a@@ 1317276
dos 1308325
aron 1307533
e 1287496
amente 1286222
er 1281963
le 1281012
el@@ 1279946
entre 1271984
H@@ 1260988
is@@ 1258715
da 1234261
ina 1230327
O@@ 1227730
il@@ 1207440
ista 1204703
par@@ 1204645
ones 1199398
z@@ 1173889
ul@@ 1167100
h@@ 1155391
V@@ 1144399
ol@@ 1116208
le@@ 1116065
años 1115461
aba 1112894
son 1111306
ch@@ 1106905
ador 1104273
dis@@ 1097721
eg@@ 1092817
pr@@ 1087480
z 1071806
ro@@ 1062991
también 1054160
ores 1051344
pos@@ 1049906
Los 1048792
año 1037674
ciones 1036613
esta 1036000
ot@@ 1034109
id@@ 1033640
ag@@ 1028376
po@@ 1015455
este 1010994
car@@ 1009208
pl@@ 996679
ev@@ 990744
J@@ 989882
ter@@ 983873
cor@@ 981999
ig@@ 980612
io 978678
ida 961318
y@@ 945660
us@@ 942189
et@@ 939400
ario 936552
é@@ 934241
br@@ 930704
entes 929717
os@@ 928692
inter@@ 913267
hasta 909792
ap@@ 905657
A 905425
parte 903625
li@@ 901400
col@@ 901126
antes 893409
om@@ 893235
co@@ 891270
co 886462
endo 882893
pero 882449
av@@ 879482
sobre 878146
tos 868607
án 868468
is 868363
on 863687
donde 856284
form@@ 850119
« 848264
» 847520
ino 845876
ha 841672
entos 835156
um@@ 831394
der@@ 823247
az@@ 821605
rec@@ 817613
ir@@ 814873
ca 812043
Al@@ 808458
ya 804796
fic@@ 801554
s 800248
ser 797402
res@@ 796108
ob@@ 795026
gr@@ 794640
ento 793720
desde 793310
mar@@ 788099
gu@@ 786513
cre@@ 786457
I@@ 785652
tica 777779
pu@@ 776994
edi@@ 766449
án@@ 763488
si@@ 762964
za 762313
pres@@ 762253
Con@@ 759392
te 757315
á 756365
ed@@ 755842
pi@@ 754271
Se 752386
tico 749724
jo 749708
Est@@ 746242
aci@@ 746153
ero 744080
tor@@ 738319
tura 736726
us 727148
medi@@ 725402
ión 716373
durante 715148
bi@@ 709854
cr@@ 709190
af@@ 707278
te@@ 704043
% 703290
ían 702675
Ar@@ 697972
enc@@ 695854
Mar@@ 695207
pas@@ 694658
ven@@ 693721
cul@@ 693154
ver@@ 690679
ad 684473
isión 684158
fr@@ 673626
l 672402
1 671462
ito 667290
ri@@ 666231
estr@@ 665389
ciudad 664329
pre@@ 656782
ra 655725
men@@ 653507
tiene 649811
2 648481
iz@@ 648317
í 648272
cion@@ 647965
iv@@ 646046
i 645892
ay@@ 644391
K@@ 642695
can@@ 637460
icos 635107
&apos; 632809
ist@@ 630157
ir 629613
U@@ 629195
au@@ 618476
ej@@ 614089
aban 613063
Las 611469
re 609955
primera 606170
imiento 605912
eron 604108
después 600830
había 597590
tor 597358
mi@@ 594918
ú@@ 592552
fer@@ 592336
man@@ 591904
x@@ 590971
está 590002
ita 589752
all@@ 589718
op@@ 588780
In@@ 586093
ja 582961
entr@@ 581720
ñ@@ 581607
aj@@ 577773
cha 575465
rel@@ 572075
fueron 570584
idades 569232
cal@@ 568494
eran 560342
uno 558460
tu@@ 558318
ato 558025
amiento 555383
se@@ 554583
San 552068
aje 551958
ora 550672
end@@ 550471
An@@ 548163
/ 547250
cuando 546439
mu@@ 545605
d 545390
mon@@ 545063
apar@@ 544818
lleg@@ 543875
pos 543644
primer 542698
Su 541293
Ch@@ 539712
cas@@ 539635
adores 538553
cer@@ 537787
so@@ 537087
reci@@ 536857
ares 535437
3 534948
aliz@@ 534617
ena 534219
and@@ 532589
otros 530954
ov@@ 530903
camp@@ 529681
és 528549
.@@ 527418
nombre 527259
Com@@ 526723
anos 526294
W@@ 524859
ici@@ 523435
les 523428
eb@@ 519517
icio 514453
tres 513731
st@@ 513313
Z@@ 513257
forma 511348
arse 509801
sin 508222
int@@ 507929
idos 507222
junto 505891
lu@@ 505408
por@@ 504391
mismo 504087
ten@@ 502676
población 502448
fu@@ 502424
go 502205
vez 501205
va 500539
icas 497392
eo 495627
edad 494955
vol@@ 494644
hi@@ 493225
ef@@ 491726
ali@@ 490033
dec@@ 487240
her@@ 486669
public@@ 485776
gen@@ 484383
ud@@ 483111
5 482730
r 480213
gran 479695
ve 477988
prop@@ 476717
realiz@@ 475299
cual 475046
uc@@ 473968
cho 472736
tuvo 472220
sol@@ 469568
puede 469502
ro 469410
&#93; 469092
&#91; 467656
Fue 467173
ma 466568
4 464598
Car@@ 463066
Tr@@ 461230
in 460662
amb@@ 460406
ismo 460064
tur@@ 459089
gan@@ 458273
ce 457054
nacional 456391
elec@@ 456220
tes 455258
tri@@ 453641
ut@@ 453136
ese 451545
ata 451520
inc@@ 448304
tem@@ 447663
familia 445769
ez 445596
encuentra 444433
cl@@ 444252
Gu@@ 443390
ni@@ 443332
ías 443267
ne@@ 442888
añ@@ 441161
jug@@ 441061
ens@@ 440340
ant@@ 439871
ón@@ 438496
illa 438163
fun@@ 437917
esa 437323
Per@@ 437304
ber@@ 434135
ura 434118
istas 434057
Par@@ 433892
muy 433295
así 433017
lugar 430737
cab@@ 428873
mo 428608
Y@@ 427802
contr@@ 427559
reg@@ 427115
so 426280
contra 423734
cur@@ 422525
ór@@ 421244
pe@@ 420669
prim@@ 419485
esp@@ 418042
sido 417987
fin@@ 416955
sec@@ 415200
po 415185
km 414857
cam@@ 414335
Es 413496
bajo 413181
og@@ 413043
present@@ 412711
ser@@ 412333
enta 411898
encias 411465
n 410930
prot@@ 410399
uso 409336
arr@@ 409271
arios 408995
tras 405827
sta 405823
pro@@ 404934
aria 404338
of@@ 403573
na 403510
fund@@ 403117
du@@ 402248
port@@ 402130
ier@@ 401774
- 400794
dem@@ 400304
t 400234
Re@@ 399879
todo 399860
6 398708
od@@ 398069
actu@@ 396719
equipo 395888
trans@@ 395874
u 395713
produc@@ 395641
Estados 394881
ba@@ 394408
trabaj@@ 392772
sal@@ 392114
siglo 391356
lí@@ 387356
to@@ 385316
ella 382699
osa 381742
Cor@@ 381574
able 380793
tiempo 380509
Unidos 378465
embargo 377752
ental 377239
ib@@ 377170
bió 376946
qui@@ 375744
esti@@ 375063
comun@@ 374816
dio 373647
do@@ 373580
activ@@ 372918
bar@@ 372895
The 372883
esc@@ 371769
grupo 371511
enci@@ 371340
estado 371178
eta 370812
lo@@ 370788
han 370559
mayor 368584
ela 367395
eros 364682
bu@@ 364653
tar@@ 364255
día 361678
cada 361423
lar@@ 361279
ís@@ 361053
ún 360955
ticos 360532
err@@ 360067
ru@@ 358222
peri@@ 358073
Le@@ 357724
ju@@ 357713
serie 356918
k@@ 356473
fi@@ 356027
I 355688
adi@@ 355644
ín@@ 355410
dr@@ 354366
ás 354118
ona 353326
isi@@ 351702
ho@@ 351091
solo 350391
ér@@ 350084
llev@@ 349502
min@@ 348678
conoc@@ 348301
ran@@ 348208
soci@@ 347378
asi@@ 347358
inclu@@ 346588
3@@ 346580
Di@@ 346561
ah@@ 346051
todos 345948
España 345355
hab@@ 344540
Universidad 344414
estaba 343724
estos 343630
cap@@ 342638
ular 342594
represent@@ 342108
m 341840
person@@ 341830
ún@@ 341583
quien 341115
especi@@ 341090
ác@@ 340974
De 340069
ancia 339491
tic@@ 339357
otras 339342
7 339192
Mon@@ 338992
naci@@ 338928
ay 338389
bas@@ 338122
utiliz@@ 337851
gi@@ 336633
én@@ 336611
situ@@ 336534
ín 336428
oci@@ 336250
dic@@ 336073
serv@@ 334818
Nacional 334742
ep@@ 334440
des 334384
idas 334021
ang@@ 333650
alidad 332943
As@@ 331915
til@@ 331433
direc@@ 331163
arg@@ 330297
ea 330071
cons@@ 329273
siendo 328829
dist@@ 328639
lat@@ 328485
También 328402
En@@ 328093
mo@@ 326618
val@@ 326574
und@@ 326312
encontr@@ 326207
personas 326010
ati@@ 325826
sub@@ 325303
8 325045
má@@ 325015
municipio 324785
ces@@ 324613
Es@@ 323932
k 323827
prom@@ 323233
be 322492
aunque 322096
mientras 321999
das 321975
inici@@ 320368
Or@@ 319226
for@@ 319197
Á@@ 318636
fuer@@ 318461
amp@@ 318337
particip@@ 318031
ticas 318029
10 317889
fica 317007
17@@ 316802
tanto 316380
aqu@@ 316195
ece 315846
hu@@ 315692
oso 315674
cos 315527
Por 315432
no@@ 314731
llam@@ 314695
ara 314590
tivo 314584
lanz@@ 314209
vida 314095
ades 313320
nuevo 312585
orio 312579
puesto 312514
ego 311825
neg@@ 311468
Al 310723
inos 310700
ición 310582
ing@@ 310456
c 309935
4@@ 309810
temporada 309448
país 308991
ala 308813
ár@@ 307046
ra@@ 306317
x 306185
ase 305785
eño 304958
hacia 304812
ori@@ 304046
enso 303975
18@@ 303197
estas 303155
sem@@ 302767
final 301897
tom@@ 300456
si 299479
ing 299155
profes@@ 298808
ific@@ 298497
ren@@ 298366
fl@@ 297611
alla 297538
ografía 296703
Ci@@ 296009
gobierno 295733
atos 295083
ama 294518
unos 294189
públ@@ 293592
De@@ 293256
ña 292803
illo 292247
tiv@@ 291922
álbum 291588
Col@@ 291488
general 290575
mayo 290297
é 289851
apo@@ 289376
ología 289352
ta@@ 289227
aza 289151
X@@ 288370
nor@@ 288074
Juan 287958
cat@@ 287332
tenía 287293
organiz@@ 287261
2010 287173
consider@@ 287132
ás@@ 286907
enero 286581
dió 286476
marzo 286041
w@@ 285647
Br@@ 285166
sig@@ 285160
eza 285104
octubre 284740
Val@@ 284168
septiembre 283882
posición 283726
ud 283339
tel@@ 283336
jos 283200
atr@@ 283191
ari@@ 282999
Sal@@ 282440
ima 282416
Co@@ 282405
Sin 282088
pal@@ 281992
anc@@ 281977
historia 281335
eció 281096
20 280881
² 280859
h 280636
película 280517
— 280512
julio 280373
total 280087
varios 279642
eto 279541
erra 279078
sin@@ 278792
9 278057
” 278023
cá@@ 277960
cuatro 277816
“ 277700
gener@@ 277515
ecto 277232
antigu@@ 276621
Su@@ 276486
junio 276091
endi@@ 275884
et 274753
emente 274455
Cas@@ 274436
sur 273991
Historia 273965
eras 273754
él 273620
región 273338
eñ@@ 272871
&amp; 272450
ard@@ 272410
ate 272051
diciembre 272001
partido 272001
comp@@ 271429
ma@@ 271106
ellos 271086
habitantes 270993
15@@ 270976
bre 270930
16@@ 270828
ili@@ 270377
ga 270263
abril 270191
eci@@ 270129
cant@@ 270088
ección 269912
Este 269419
agosto 269195
ect@@ 267829
José 267759
ofici@@ 267278
Un@@ 266812
ach@@ 266501
Nor@@ 266258
yo 265150
mad@@ 264932
obra 264885
especie 264550
abor@@ 264495
logr@@ 264460
igu@@ 264146
número 264043
metros 263861
entonces 263777
escu@@ 263672
pul@@ 263326
ío 263280
debido 263045
hum@@ 262974
med@@ 262067
noviembre 261163
ell@@ 260922
gres@@ 259789
Durante 259168
conocido 258809
ola 258328
algunos 258315
polí@@ 257936
lam@@ 257888
libr@@ 257653
ativ@@ 257336
mundo 256952
pueden 256915
agua 256881
sim@@ 256717
5@@ 256328
vel@@ 255866
río 255639
arm@@ 254576
fico 254290
oría 254091
ite 253320
luego 253288
dad 252382
Ro@@ 252374
um 250658
E 250590
tores 250256
ric@@ 250160
Qu@@ 249938
través 249635
tam@@ 249516
unci@@ 249465
ind@@ 249039
onales 248938
15 248623
b 247887
lan@@ 247792
uni@@ 247673
Pr@@ 247083
ución 246920
Ac@@ 246784
at 246560
vo 246498
principal 246287
Bar@@ 245866
sel@@ 245790
extr@@ 245709
Cr@@ 245218
nuev@@ 245141
además 245080
der 244992
Según 244874
sistema 244594
tras@@ 244151
lesia 243786
milit@@ 243664
12 243539
norte 243494
pun@@ 243445
leg@@ 243247
cont@@ 243226
cuenta 243074
hom@@ 243036
C 242944
anas 242631
mot@@ 242575
II 242237
zona 242213
aría 242156
result@@ 241907
ver 241886
febrero 241866
of 241111
Cat@@ 241092
banda 240879
perten@@ 240560
2@@ 240477
tro 240443
presidente 240010
rea 239995
Esta 239989
Ex@@ 239888
empres@@ 239768
del@@ 239534
rom@@ 238982
ez@@ 238967
cuer@@ 238741
neo 238658
Lu@@ 238514
guerra 238151
isti@@ 237865
mit@@ 237749
oper@@ 236519
tas 236191
México 236102
ega 236052
def@@ 235881
emp@@ 235571
sión 235471
vió 235456
otro 235360
go@@ 235200
den@@ 234644
mat@@ 234291
segundo 234285
inas 233883
ello 233875
Am@@ 233399
teri@@ 232565
Des@@ 232355
p 232128
hizo 231969
6@@ 231533
partir 231305
provincia 230672
siguiente 230503
agu@@ 230042
ológ@@ 229714
trabajo 229593
ota 229165
pe 228758
9@@ 228274
tarde 228123
osas 227834
30 227668
ter 227599
0 227465
Inter@@ 227301
one 227134
ye 227043
esto 226957
terior 226523
fil@@ 226387
ania 225541
iti@@ 224842
trat@@ 224785
Po@@ 224124
canción 223742
están 223657
qued@@ 223622
proces@@ 223273
egos 223094
rey 222832
tad@@ 222757
dej@@ 222511
az 222367
empe@@ 222348
Para 222102
bus@@ 222008
compañ@@ 221835
princi@@ 221722
propi@@ 221625
loc@@ 221602
vis@@ 221325
aus@@ 220502
El@@ 220331
cio 220249
segunda 220018
plan@@ 219776
Ad@@ 219704
dirig@@ 219443
bat@@ 219131
Mor@@ 219082
cier@@ 218390
odo 218326
estadounidense 218215
poco 218085
inf@@ 217736
largo 217735
anza 217267
clas@@ 217099
nombr@@ 216788
ocup@@ 216682
Con 216564
ge@@ 216464
tienen 216347
ió 216137
ensa 216009
estudi@@ 215453
ias 215445
dentro 215263
acio 215260
osos 215209
comer@@ 215179
rev@@ 215117
ería 214790
Seg@@ 214652
Santa 214289
bio 214143
den 214119
2011 214067
Can@@ 214012
termin@@ 213788
bre@@ 213747
Pro@@ 213656
americ@@ 213629
ú 213501
onia 213426
Pl@@ 213301
ug@@ 213129
Nueva 213079
ajes 212921
7@@ 212750
destac@@ 212738
tí@@ 212377
lic@@ 212339
Tor@@ 212335
ército 212031
señ@@ 212005
pen@@ 211948
oeste 211841
Ju@@ 211281
Go@@ 211251
ie 211237
carrera 211022
ol 210922
ley 210891
pa@@ 210768
inv@@ 210700
vic@@ 210621
11 210460
cel@@ 210296
Después 209900
muerte 209619
encuentr@@ 209558
María 209424
ue 209308
investig@@ 209264
Un 208840
sa 208688
neces@@ 208667
Además 208539
ine 208393
anti@@ 208372
16 208187
ng@@ 207945
autor@@ 207693
pin@@ 207490
versión 207214
continu@@ 207117
18 207036
refer@@ 206769
super@@ 206388
centro 206049
ográ@@ 206001
Sh@@ 205929
varias 205588
rá@@ 205440
menos 205414
mer@@ 205375
Prim@@ 205296
Una 205290
vari@@ 204995
momento 204740
nos 204712
ieron 204681
obras 203914
– 203913
Her@@ 203772
not@@ 203446
Pal@@ 203185
úl@@ 203135
Gr@@ 203115
Is@@ 202882
Guerra 202849
am 202830
territ@@ 202827
che 202814
género 202605
fon@@ 202497
25 202195
dur@@ 202186
vuel@@ 202161
tipo 201991
asa 201094
tim@@ 200955
14 200884
Pol@@ 200823
eno 200639
det@@ 200278
Mundial 200212
inform@@ 200142
ete 200126
medio 200083
Desde 200005
ua 199989
oma 199978
culo 199784
me@@ 199441
prob@@ 199312
pan@@ 199286
casa 199016
Tras 198865
mas@@ 198827
Se@@ 198824
zo 198715
español 198429
cial 198400
época 198128
que@@ 198124
quit@@ 198062
muchos 197911
Ser@@ 197865
constru@@ 197050
grandes 197042
sur@@ 196737
mano 196608
dia 196524
nueva 196504
mes@@ 196451
hor@@ 196310
13 196168
oll@@ 196045
ira 196002
fici@@ 195949
gol@@ 195934
hay 195895
B 195499
fac@@ 195490
producción 195455
hijo 195341
atura 195123
tera 195121
bien 195115
inst@@ 194919
comenzó 194340
elo 194158
ble 194104
mov@@ 194050
idi@@ 194019
lado 193786
8@@ 193646
ual 193556
pequeñ@@ 193356
anz@@ 193329
2012 193282
pap@@ 193189
último 193174
título 193040
17 192645
ech@@ 192605
produ@@ 192554
No 192544
il 192472
alt@@ 192346
mayoría 192119
misma 191742
blan@@ 191734
titu@@ 191717
ba 191427
otra 191114
hace 190864
ere 190745
Esp@@ 190447
escrit@@ 190128
ques 190000
según 189935
ubic@@ 189593
alem@@ 189437
tima 189074
caus@@ 188823
tir@@ 188755
St@@ 188670
ño 188453
difer@@ 188161
2014 188102
días 188100
importante 188095
él@@ 187866
cerca 187746
2015 187693
bl@@ 187505
Mi@@ 187426
ema 187278
artí@@ 187164
música 186993
padre 186984
españ@@ 186943
icios 186938
grab@@ 186836
ativa 186796
uvo 186644
and 186581
19 186228
Entre 186226
me 186128
2008 185878
deci@@ 185741
estra 185684
itos 185489
000 185371
poder 185320
pios 185283
man 185203
diferentes 185055
ton 185050
divers@@ 184881
Cu@@ 184865
ene 184663
manera 184661
2016 184373
toria 184330
ól@@ 184311
agr@@ 184290
telev@@ 184159
ak@@ 184105
tradi@@ 184050
jas 183979
pon@@ 183909
P 183887
localidad 183797
mus@@ 183684
Madrid 183572
frente 183556
2013 183538
bo@@ 183511
ándose 183217
mis@@ 183210
equi@@ 182948
the 182849
íses 182841
én 182761
ub@@ 182546
éx@@ 182516
caso 182393
escri@@ 182388
ible 182343
acción 182277
N 182112
sus@@ 181939
línea 181869
g 181840
Man@@ 181789
fir@@ 181704
mur@@ 181625
ord@@ 181591
Estado 181549
th@@ 181542
ectos 181465
Carlos 181274
mejor 181175
hecho 180944
nivel 180915
vieron 180906
liber@@ 180675
fe@@ 180672
pendi@@ 180672
segu@@ 180615
seg@@ 180579
Francia 180380
2009 180363
secu@@ 180348
bern@@ 180256
primeros 180191
pel@@ 180021
estruc@@ 179883
lad@@ 179867
adora 179765
crip@@ 179650
millones 179479
política 179477
eleg@@ 179281
descu@@ 178991
espec@@ 178831
cin@@ 178633
ge 178578
2007 177960
cir@@ 177622
programa 177589
construcción 177348
alcanz@@ 177320
ve@@ 177190
Te@@ 177162
écn@@ 177101
idente 176997
caracter@@ 176833
República 176764
Argentina 176761
pueblo 176755
T 176718
crí@@ 176627
ior 176478
D 176160
convirtió 175480
2000 175393
teriormente 175286
mej@@ 175123
Reg@@ 175026
oni@@ 174919
mor@@ 174768
llamado 174717
juego 174543
les@@ 174334
24 173501
ejemplo 173466
uer@@ 173332
ami@@ 173247
igen 173242
denomin@@ 173215
S 172628
alg@@ 172559
cual@@ 172467
model@@ 172348
abr@@ 172067
lin@@ 172053
Ver@@ 171929
orden@@ 171905
partamento 171670
mp@@ 171510
haber 171505
21 171095
ál@@ 170995
cargo 170993
je@@ 170848
apa 170735
cional 170593
algunas 170442
pobl@@ 170420
trop@@ 170331
tan 170133
enes 169938
raz@@ 169802
greso 169741
cinco 169424
arias 169289
ult@@ 169252
distrito 169223
veces 168981
Como 168945
ill@@ 168911
resp@@ 168803
ellas 168731
términ@@ 168442
vid@@ 168330
centr@@ 168298
atro 168077
Rein@@ 167721
2006 167652
son@@ 167411
ional 167067
todas 166859
Mo@@ 166709
anta 166579
2018 166545
Cal@@ 166415
hac@@ 166293
nu@@ 166283
ís 166283
capital 166231
dedor 166079
aña 166010
club 165975
administr@@ 165925
miembros 165701
sigui@@ 165615
establec@@ 165613
14@@ 165598
conocida 165426
cuales 165339
década 165320
Bo@@ 165088
finales 165082
rot@@ 165001
gar@@ 164923
Ig@@ 164901
enti@@ 164794
desarrollo 164687
pol@@ 164671
iendo 164577
ital 164355
echo 164311
Ma@@ 164288
1@@ 164252
Ber@@ 164148
22 164110
habían 164034
punto 163915
ciud@@ 163882
oto 163685
mujeres 163611
conserv@@ 163469
celebr@@ 163059
oria 162502
O 162436
compr@@ 162281
tro@@ 161769
cambi@@ 161754
declar@@ 161508
partidos 161506
hacer 161130
tamente 160908
imi@@ 160871
M 160855
ables 160681
Gar@@ 160503
Biografía 160477
Luis 160466
constitu@@ 160371
influ@@ 159990
orden 159957
if@@ 159708
ed 159643
2017 159609
ecu@@ 159576
23 159480
Uni@@ 159415
pesar 159390
base 159213
º 159037
unda 159025
director 158914
actual 158726
1.@@ 158677
cru@@ 158579
mant@@ 158339
disput@@ 157976
oro 157832
V 157806
gru@@ 157788
udi@@ 157670
hist@@ 157613
lem@@ 157563
Mus@@ 157487
defin@@ 157306
probl@@ 157280
interpret@@ 157175
ers 157174
ubicado 157119
tal@@ 157015
onio 156991
ne 156806
culos 156645
estudio 156563
Ti@@ 156536
Ge@@ 156446
voc@@ 156284
enas 156238
ago 156224
Alem@@ 156187
Pu@@ 155980
unas 155924
siguientes 155918
toda 155906
Fern@@ 155785
puer@@ 155774
ativo 155589
Francisco 155553
tex@@ 155495
especies 155414
principales 155334
Ing@@ 155298
anim@@ 155185
ni 155103
cuar@@ 154992
10@@ 154964
estudios 154752
económ@@ 154679
ph@@ 154624
13@@ 154592
emas 154512
casi 154506
ases@@ 154214
ísticas 154119
L 154048
din@@ 153947
res 153801
Europa 153785
eles 153568
div@@ 153500
ich@@ 153419
miembro 153415
adamente 153164
mar 153044
quier 152743
acto 152690
Chile 152686
uy@@ 152682
Soci@@ 152672
alre@@ 152618
agon@@ 152559
ños 152512
For@@ 152450
bur@@ 152406
igo 152192
bel@@ 152111
Copa 152016
emb@@ 151728
frances@@ 151692
incluy@@ 151619
inglés 151589
alista 151567
cas 151488
condado 151431
ler@@ 151299
2019 151146
pio 151127
có 151093
desarr@@ 151063
fútbol 150976
proyecto 150819
perman@@ 150669
categ@@ 150612
hombres 150586
50 150432
rit@@ 150305
acuerdo 150269
Cuando 150093
Campeonato 150044
domin@@ 149787
zas 149636
Me@@ 149603
só@@ 149544
bor@@ 149332
parti@@ 149269
eti@@ 149217
pes@@ 149088
ins@@ 148507
có@@ 148485
compl@@ 148377
nom@@ 148099
tener 148047
pre 148020
irse 147870
obten@@ 147769
integr@@ 147635
put@@ 147607
inclus@@ 147552
tiva 147328
brit@@ 147254
uta 147240
porte 146752
C. 146675
cer 146543
v 146524
Club 146385
eng@@ 146098
2005 146044
_ 145634
nac@@ 145599
Be@@ 145595
abil@@ 145534
Ter@@ 145298
Feder@@ 145070
proxim@@ 144712
var@@ 144586
onal 144576
III 144468
fre@@ 144407
Pres@@ 144246
ectiv@@ 144149
Vi@@ 144110
ast@@ 143958
At@@ 143882
Partido 143881
aca 143565
28 143498
mos@@ 143452
fal@@ 143255
origin@@ 143194
depor@@ 143037
bres 142969
retir@@ 142464
educ@@ 142277
str@@ 142175
f 141825
bier@@ 141798
sit@@ 141605
indi@@ 141525
w 141400
leng@@ 141235
ard 141049
Gal@@ 141047
edit@@ 140606
York 140528
ministr@@ 140418
26 140235
tec@@ 140033
aga 140001
ment@@ 139965
bal@@ 139917
tió 139719
esper@@ 139680
ense 139615
27 139408
F 139406
numer@@ 139394
he@@ 139386
conver@@ 139215
firm@@ 139204
princip@@ 139164
capac@@ 138993
ster@@ 138848
anda 138832
asc@@ 138759
premi@@ 138578
dens@@ 138440
rez 138414
ardo 138317
proc@@ 138217
$ 138107
alm@@ 138019
Fr@@ 137967
Em@@ 137965
imo 137898
ning@@ 137748
vir@@ 137717
R 137642
Cl@@ 137251
Th@@ 137141
much@@ 137038
tra 136842
mag@@ 136609
aut@@ 136524
tir 135990
cri@@ 135902
pot@@ 135858
Antonio 135833
mil@@ 135634
la@@ 135574
tal 135548
Dem@@ 135496
color 135199
exist@@ 135192
ave 135126
ce@@ 134920
Pedro 134901
adr@@ 134805
ustr@@ 134784
San@@ 134760
plic@@ 134642
Im@@ 134635
To@@ 134477
vers@@ 134386
rest@@ 134324
dice 134090
respon@@ 134022
franc@@ 133946
aband@@ 133922
patr@@ 133831
Real 133543
fin 133511
moder@@ 133451
dado 133427
Premi@@ 133387
Amér@@ 133276
Camp@@ 133221
2020 133043
Pe@@ 132811
Gran 132498
perior 132461
ha@@ 132329
2004 132318
cost@@ 132243
dar 131955
Bel@@ 131834
be@@ 131828
met@@ 131695
hon@@ 131530
arte 131403
amp 131225
Ir@@ 131100
erte 131059
eli@@ 130838
expl@@ 130808
docum@@ 130730
expres@@ 130703
compos@@ 130410
prov@@ 130388
habit@@ 130339
0,@@ 130331
ong@@ 130312
superficie 130301
enz@@ 129947
nav@@ 129932
eca 129916
40 129882
sac@@ 129877
12@@ 129781
merc@@ 129678
División 129619
eh@@ 129592
Ed@@ 129524
itali@@ 129374
General 129290
ide@@ 129220
uerto 129185
doc@@ 129094
elem@@ 129087
institu@@ 128828
0.@@ 128566
Fin@@ 127855
rí@@ 127684
regi@@ 127219
comb@@ 127113
sc@@ 126912
identi@@ 126836
importantes 126761
Nu@@ 126662
29 126521
condi@@ 126309
ban@@ 126242
ger@@ 126205
dol@@ 126075
complet@@ 126065
ont@@ 125907
cop@@ 125845
contin@@ 125758
sen@@ 125621
últim@@ 125588
gen 125533
uela 125519
ie@@ 125202
plant@@ 125155
icia 125004
edr@@ 124937
Centr@@ 124923
xim@@ 124772
epis@@ 124765
isis 124738
Cam@@ 124727
uel@@ 124684
bol@@ 124410
Jo@@ 124235
clu@@ 124085
So@@ 123987
registr@@ 123937
liter@@ 123903
vent@@ 123878
idae 123846
par 123808
ré@@ 123358
Mat@@ 123326
Institu@@ 123260
100 123258
éc@@ 123174
Ros@@ 123050
ou@@ 122790
distribu@@ 122389
mes 121899
dir@@ 121814
original 121257
dose 121166
famili@@ 120888
Liga 120756
fab@@ 120487
cip@@ 120395
priv@@ 120314
musical 120161
enda 120149
fall@@ 120104
sum@@ 120083
istr@@ 120003
rio 119745
mun@@ 119744
eso 119681
natur@@ 119666
Buenos 119507
Mal@@ 119355
Ab@@ 119097
novel@@ 119053
mé@@ 118852
sab@@ 118736
separ@@ 118659
afir@@ 118494
ende 118471
Aires 118435
Mag@@ 118258
John 118190
Li@@ 117925
ca@@ 117672
mand@@ 117600
program@@ 117425
Bol@@ 117355
Rec@@ 117234
aur@@ 117150
Alg@@ 116963
tre 116868
sh@@ 116742
ila 116723
2.@@ 116530
ü@@ 116508
Sol@@ 116247
jun@@ 116182
alis@@ 116122
muj@@ 116104
cad@@ 116034
cli@@ 115973
2003 115899
ae 115749
avi@@ 115692
empl@@ 115591
ern@@ 115581
° 115553
ierra 115510
tend@@ 115380
Mer@@ 115327
0@@ 115298
observ@@ 115277
partic@@ 115250
Rus@@ 115224
deb@@ 115168
Manuel 115165
prec@@ 115127
ein@@ 115022
may@@ 114781
Sp@@ 114753
Min@@ 114624
acc@@ 114539
Sur 114400
media 114269
ax@@ 114150
bo 114148
aya 113964
azo 113712
religi@@ 113699
car 113649
ale 113577
uro 113473
ok@@ 113400
pa 113394
yen 113136
Italia 113127
ka 112863
dez 112568
mb@@ 112386
signific@@ 112206
central 111977
ance 111818
comenz@@ 111807
igi@@ 111745
Ale@@ 111694
Ram@@ 111557
mem@@ 111520
viol@@ 111481
bot@@ 111181
senti@@ 111071
don@@ 110940
Tur@@ 110882
ace 110730
2001 110717
ice 110675
31 110603
Ne@@ 110534
ien@@ 110529
uda 110498
cit@@ 110433
Ri@@ 110358
bit@@ 110254
ik@@ 110251
social 110242
Deb@@ 110191
fo 110070
ign@@ 110015
mal@@ 109981
local 109876
vo@@ 109860
tan@@ 109516
histori@@ 109468
edo 109451
sir@@ 109282
elimin@@ 109257
ch 109216
vot@@ 109216
gal@@ 109090
-@@ 108998
bir 108910
tempor@@ 108897
secre@@ 108697
orial 108629
exten@@ 108547
fron@@ 108544
Ben@@ 108458
2002 108371
sea 108252
alim@@ 108188
desc@@ 108184
matr@@ 108092
inten@@ 108082
recu@@ 108043
long@@ 108008
Cap@@ 107973
Barcelona 107942
ion@@ 107913
into 107905
cia 107832
Oc@@ 107682
pedi@@ 107641
Mu@@ 107607
control 107539
aja 107479
gri@@ 107457
aer@@ 107434
Sch@@ 107278
lev@@ 107259
berto 107180
fem@@ 107110
determin@@ 107007
Santiago 106994
oy@@ 106796
,@@ 106735
abri@@ 106607
jur@@ 106500
conc@@ 106473
proy@@ 106468
1,@@ 106366
Cer@@ 106247
bri@@ 106224
exper@@ 106112
europ@@ 106074
aco 105877
ell 105797
ret@@ 105739
Lo@@ 105634
X 105607
tra@@ 105348
U 105274
É@@ 105248
Pas@@ 105030
amar@@ 104985
Conse@@ 104847
jer@@ 104804
Rod@@ 104797
60 104727
tes@@ 104657
dir 104601
aliza 104530
Bal@@ 104523
candid@@ 104502
Carr@@ 104480
oblig@@ 104242
propor@@ 104052
ust@@ 103986
tural 103899
isten 103816
ús@@ 103757
iles 103715
óm@@ 103688
Cru@@ 103668
arti@@ 103463
graf@@ 103335
visit@@ 103318
Sec@@ 103276
fot@@ 103182
Hu@@ 103179
obj@@ 103172
1990 103140
ick 103007
ini 102850
occ@@ 102747
ces 102618
2021 102535
acional 102323
ton@@ 102213
onom@@ 102133
conten@@ 102037
dedic@@ 101907
Nav@@ 101864
Pi@@ 101798
Mad@@ 101697
! 101599
iller@@ 101565
Jap@@ 101502
inde@@ 101461
Fu@@ 101290
rup@@ 101216
1999 101149
usa 101074
formula 101051
vec@@ 101035
incorpor@@ 101034
uch@@ 100991
unca 100963
ept@@ 100876
lar 100799
Fran@@ 100735
tín 100649
Migu@@ 100491
ai 100365
Bur@@ 100191
capit@@ 100137
ang 100106
... 99929
org@@ 99921
fol@@ 99822
ler 99758
popular 99685
uz@@ 99632
2,@@ 99624
sor@@ 99578
Gi@@ 99529
vil@@ 99231
leo 98916
pat@@ 98777
it 98525
act@@ 98470
univers@@ 98465
are 98369
eda 98360
pil@@ 98293
Pa@@ 98260
cine 98169
once 98061
personal 98041
Mur@@ 98018
vil 98010
Hol@@ 97991
mas 97937
ayo 97920
pens@@ 97911
figur@@ 97878
80 97724
Munici@@ 97644
ass@@ 97643
ump@@ 97539
versi@@ 97439
gar 97375
Fl@@ 97233
real 97221
Cul@@ 97207
san@@ 97056
feder@@ 97028
anci@@ 96980
import@@ 96917
ao 96859
kil@@ 96792
ey 96775
fus@@ 96769
Jor@@ 96654
Har@@ 96569
He@@ 96373
bil@@ 96130
ais@@ 96080
Res@@ 95840
bierno 95814
Si 95740
aves 95726
ich 95665
acces@@ 95458
Ho@@ 95315
Bor@@ 95262
descri@@ 95230
Bi@@ 95169
rem@@ 94920
Por@@ 94890
dest@@ 94698
Juli@@ 94608
Colomb@@ 94511
popul@@ 94428
estim@@ 94301
Pan@@ 94266
titul@@ 94209
mol@@ 94105
Vic@@ 93808
municip@@ 93787
Tri@@ 93757
asp@@ 93711
di 93560
Nic@@ 93496
isl@@ 93056
fut@@ 93045
actor 92985
ner 92940
japon@@ 92932
jus@@ 92696
úa 92636
agen 92566
tin@@ 92543
1998 92426
inaug@@ 92314
atur@@ 92215
natural 92102
imp@@ 91977
sp@@ 91870
Mil@@ 91769
fam@@ 91730
zon@@ 91709
allas 91640
Brasil 91488
ambi@@ 91341
iro 91235
ges@@ 91218
by 91202
acu@@ 91184
onal@@ 91160
isa 91100
resid@@ 91028
dial 91027
uti@@ 90950
red@@ 90832
establ@@ 90797
energ@@ 90677
Distribu@@ 90659
Ger@@ 90649
mara 90569
pequ@@ 90531
limit@@ 90492
abaj@@ 90464
China 90444
concep@@ 90405
equ@@ 90336
Rom@@ 90320
Aut@@ 90283
positi@@ 90139
Vir@@ 89906
nea 89858
ormente 89578
usi@@ 89576
ben 89501
Ob@@ 89401
Med@@ 89395
ote 89362
1980 89285
ong 89118
plat@@ 89099
Londres 89079
design@@ 88897
Bu@@ 88828
ff@@ 88826
onz@@ 88687
ement@@ 88685
Y 88655
mig@@ 88586
Tel@@ 88454
band@@ 88450
Bat@@ 88434
dom@@ 88355
inal 88351
tar 88346
sil@@ 88146
dig@@ 88123
log@@ 87920
Cab@@ 87888
185@@ 87832
ender 87771
eter@@ 87739
grande 87691
anes 87659
Medi@@ 87636
bos@@ 87540
70 87510
IV 87488
1996 87309
nov@@ 87197
adap@@ 87147
consid@@ 87112
Sant@@ 86876
ordin@@ 86758
oles 86704
prepar@@ 86673
Dis@@ 86563
G 86550
ur 86543
oh@@ 86524
viv@@ 86510
ben@@ 86477
mez@@ 86439
Gran@@ 86113
provin@@ 85985
fes@@ 85979
Hab@@ 85950
tros 85950
sexu@@ 85651
Ori@@ 85484
Liber@@ 85452
Mc@@ 85399
libre 85361
pelí@@ 85253
liga 85247
ango 85059
1997 84977
som@@ 84875
tific@@ 84853
oca 84750
up@@ 84671
tig@@ 84497
iste 84489
bol 84382
aw@@ 84373
1995 84345
futbol@@ 84309
Ste@@ 84207
adel@@ 84162
mente 84082
bles 83938
Der@@ 83888
Venez@@ 83836
tario 83728
idea 83649
1992 83544
land@@ 83531
conqu@@ 83509
partici@@ 83495
compar@@ 83294
id 83293
Fre@@ 83241
au 83229
art@@ 83172
20@@ 83123
sistem@@ 83026
competi@@ 83013
tab@@ 83006
ven 82995
flu@@ 82984
90 82870
3.@@ 82854
desarrol@@ 82779
ron@@ 82699
Jes@@ 82692
chil@@ 82631
aster@@ 82598
Ag@@ 82572
respons@@ 82564
land 82440
aque 82372
ee 82300
lug@@ 82189
hid@@ 82156
Er@@ 82110
mal 82083
fri@@ 82079
financi@@ 82017
XIX 81964
ref@@ 81964
ore 81942
dar@@ 81900
1994 81834
California 81748
conduc@@ 81663
tul@@ 81624
ak 81599
ti 81562
= 81093
len@@ 81089
eri@@ 80959
Sil@@ 80952
Tom@@ 80913
similar 80845
aller@@ 80740
per 80653
comple@@ 80625
auto@@ 80611
autom@@ 80609
Ang@@ 80572
entras 80521
ª 80408
aire 80396
jud@@ 80290
Europ@@ 80261
van 80233
pad@@ 80232
ines 80199
XX 80085
ilio 80076
ilit@@ 80065
Central 79980
forme 79938
Si@@ 79871
Fer@@ 79825
dav@@ 79544
constr@@ 79459
1970 79394
let@@ 79364
Patr@@ 79269
restaur@@ 79216
ath@@ 79173
radi@@ 78789
ros@@ 78721
ul 78565
tron@@ 78422
ener 78224
dor@@ 78186
1991 78180
tot@@ 78168
carr@@ 78063
Q@@ 78054
dan 78049
excep@@ 77930
lia 77727
artist@@ 77583
35 77481
ah 77436
Gru@@ 77421
gio 77378
útbol 77312
fran@@ 77177
har@@ 77056
Ur@@ 76907
aten@@ 76769
ek@@ 76659
gt 76617
odi@@ 76607
uv@@ 76486
rech@@ 76403
cal 76375
David 76367
H 76180
adop@@ 76098
cm 76095
Du@@ 75904
mec@@ 75811
Roma 75730
ole 75650
1993 75612
Ni@@ 75606
amér@@ 75557
ation 75556
signi@@ 75512
gl@@ 75319
Academ@@ 75314
ent 75305
red 75271
Mas@@ 75248
Festival 75217
Dr@@ 75117
tit@@ 75092
Arm@@ 75055
rique 74885
all 74867
mús@@ 74780
polic@@ 74664
ical 74462
manif@@ 74338
Constitu@@ 74331
Fil@@ 74307
Ren@@ 74268
Hon@@ 74134
ele 74086
Direc@@ 74033
200 74006
guit@@ 73943
May@@ 73830
ans 73718
im 73671
ides 73632
ava 73488
Wil@@ 73428
but@@ 73410
ple 73279
sa@@ 73273
’ 73168
Mac@@ 73152
contribu@@ 73046
ram@@ 73035
econom@@ 72975
lig@@ 72945
lt 72895
ense@@ 72863
pis@@ 72849
Dom@@ 72592
amo 72468
ingo 72352
indic@@ 72155
Del@@ 72094
industri@@ 72068
clus@@ 72063
Lor@@ 72049
ot 72045
Hor@@ 72037
Bre@@ 71968
temper@@ 71807
olo 71797
video 71776
Pre@@ 71675
ile 71668
cultur@@ 71634
ond@@ 71394
minut@@ 71333
3,@@ 71328
eonato 71307
1989 71233
ras@@ 71223
favor@@ 71222
ai@@ 71216
ann@@ 71193
Luc@@ 71176
lab@@ 71175
déc@@ 71169
abe 71155
etc. 71119
astr@@ 71103
material 70869
onto 70751
mir@@ 70747
00 70712
óg@@ 70631
ém@@ 70625
unc@@ 70300
gir@@ 70118
suc@@ 70091
reduc@@ 70020
Chi@@ 70001
New 69959
respectiv@@ 69891
+ 69858
embar@@ 69759
ext@@ 69694
ede 69683
FC 69633
const@@ 69591
&#124; 69535
debut 69533
instrum@@ 69527
Saint 69384
cep@@ 69320
1960 69270
Ay@@ 69228
combin@@ 69188
Char@@ 69185
convir@@ 69147
Leg@@ 69143
Sim@@ 69084
mul@@ 69032
ens 69026
egr@@ 68988
Fac@@ 68675
Cre@@ 68640
requ@@ 68632
crit@@ 68623
est 68569
Bro@@ 68519
tribu@@ 68484
ité 68460
mm 68358
organ@@ 68280
184@@ 68216
500 68177
Fi@@ 68136
tru@@ 68095
Hum@@ 67992
trad@@ 67920
Mel@@ 67898
did@@ 67881
Hi@@ 67876
estig@@ 67784
j 67784
hib@@ 67684
Jus@@ 67630
modi@@ 67567
rock 67531
nam@@ 67398
frag@@ 67293
Vill@@ 67198
ates 67172
vin@@ 67145
bes 67090
blo@@ 67087
sup@@ 66928
A. 66836
aro 66665
Australia 66566
ses@@ 66491
Vil@@ 66475
Minister@@ 66406
Sar@@ 66391
experi@@ 66380
32 66300
emper@@ 66281
Mun@@ 66139
aud@@ 66100
iliz@@ 65937
Mis@@ 65908
conv@@ 65908
radio 65848
1988 65831
Bas@@ 65704
civil 65645
berg 65598
TV 65592
Lat@@ 65536
Mos@@ 65527
inspir@@ 65492
struc@@ 65476
India 65440
ic 65439
materi@@ 65340
cent@@ 65339
etes 65279
ip@@ 65268
eria 65258
K 65109
? 65100
Mont@@ 64972
list@@ 64922
ism@@ 64622
fig@@ 64518
cil 64508
art 64468
ey@@ 64435
age 64433
toral 64279
fav@@ 64198
Kr@@ 64132
pueb@@ 64098
Pop@@ 64038
1985 63940
Sin@@ 63817
dé@@ 63649
1987 63622
1986 63567
mina 63558
Az@@ 63553
til 63549
Mari@@ 63535
gradu@@ 63398
Blan@@ 63396
conf@@ 63243
lider@@ 63221
ion 63193
dal@@ 63165
33 63057
dad@@ 63023
adém@@ 62909
Anti@@ 62611
Os@@ 62574
vas@@ 62484
Kar@@ 62481
Bl@@ 62433
chi@@ 62426
ov 62334
dul@@ 62283
ani 62281
rac@@ 61908
ime 61901
ide 61890
existe 61782
bul@@ 61734
Mir@@ 61687
Parti@@ 61522
Sen@@ 61494
concentr@@ 61458
ier 61364
ly 61312
bun@@ 61255
W 61234
Revol@@ 61203
ks 61162
via 61038
th 60994
bon@@ 60872
Jer@@ 60826
1984 60818
ans@@ 60781
1982 60767
ight 60699
ectu@@ 60568
hosp@@ 60539
Dec@@ 60535
Av@@ 60381
1983 60362
mi 60306
Vol@@ 60253
Educ@@ 60247
ow@@ 60179
Elec@@ 60096
ford 60054
eder@@ 60036
ki 60006
polit@@ 60006
aver@@ 59999
depend@@ 59939
audi@@ 59922
médi@@ 59899
ples 59890
var 59708
mel@@ 59671
umin@@ 59666
ker 59638
ost@@ 59592
4.@@ 59513
tiz@@ 59464
és@@ 59447
compet@@ 59342
Portu@@ 59231
bar 59229
eas 59186
Le 59151
Tol@@ 59122
retr@@ 59045
All@@ 59022
36 58972
Tem@@ 58926
Fo@@ 58837
ac 58760
yl@@ 58667
mac@@ 58658
enn@@ 58630
destr@@ 58520
destin@@ 58512
Ali@@ 58508
Bib@@ 58496
34 58495
ant 58418
ejempl@@ 58414
Str@@ 58371
carri@@ 58324
Trans@@ 58312
oa 58261
ebr@@ 58247
terr@@ 58235
Bern@@ 58227
5.@@ 58172
45 58147
arc@@ 58135
James 58126
Austr@@ 58035
exp@@ 57981
individu@@ 57910
orient@@ 57804
gol 57792
Men@@ 57642
ley@@ 57606
bom@@ 57586
ence 57526
fen@@ 57486
peti@@ 57436
ons 57430
ari 57341
munici@@ 57330
Mol@@ 57319
Ven@@ 57304
Distr@@ 57291
Lin@@ 57205
erc@@ 57023
independ@@ 57005
sent@@ 56785
corresp@@ 56717
1979 56616
eral 56577
25@@ 56523
tran@@ 56497
ade 56406
Cur@@ 56398
75 56307
Chr@@ 56223
1976 56177
ty 56090
imb@@ 55947
nati@@ 55890
uma 55872
38 55778
ani@@ 55603
conse@@ 55590
Rel@@ 55549
inn@@ 55490
od 55457
adol@@ 55139
ger 55131
ly@@ 55130
1950 55127
his@@ 55082
William 55014
alar@@ 54906
lav@@ 54889
Sam@@ 54855
Super@@ 54841
We@@ 54776
1978 54708
ex 54659
37 54509
lob@@ 54467
1973 54457
tol@@ 54412
ster 54379
Paul 54364
ilo 54364
Ol@@ 54358
ts 54357
eva 54353
Robert 54330
ire 54329
1981 54314
Sa@@ 54311
tiem@@ 54289
olog@@ 54244
fan@@ 54156
olas 54095
dici@@ 54066
arch@@ 54064
amer@@ 54049
nat@@ 53980
previ@@ 53946
tis@@ 53923
embr@@ 53871
incia 53866
Don 53816
ke 53815
Son@@ 53726
fas@@ 53690
ins 53665
onde 53637
iga 53590
1975 53525
ney 53503
No@@ 53485
ão 53477
Ra@@ 53458
duc@@ 53430
Ru@@ 53366
pur@@ 53344
acter@@ 53295
CA@@ 53273
ael 53248
une 53235
qué 53218
ok 53181
web 53173
19@@ 53154
sti@@ 53129
ick@@ 53121
nú@@ 53110
introduc@@ 53070
monum@@ 53028
AR@@ 53013
ame 52920
ail@@ 52907
isp@@ 52839
yr@@ 52776
enf@@ 52766
die 52675
títul@@ 52556
plan 52512
alter@@ 52503
uo 52470
ane 52461
isto 52395
bli@@ 52393
1977 52079
ville 52076
gal 52041
Tod@@ 52015
Doc@@ 51872
ski 51839
180@@ 51778
uf@@ 51769
elle 51705
Mich@@ 51702
George 51678
Pin@@ 51678
dispar@@ 51554
interpre@@ 51554
Wal@@ 51543
ine@@ 51455
alb@@ 51409
aces 51336
ill 51265
Do@@ 51228
Comp@@ 51177
1974 51143
absol@@ 51088
omo 51039
cos@@ 50984
lé@@ 50893
Gre@@ 50869
nch@@ 50811
cum@@ 50777
arri@@ 50771
Sab@@ 50565
Has@@ 50521
ten 50509
larg@@ 50492
uba 50411
Sem@@ 50407
cula 50404
lec@@ 50386
nomin@@ 50362
ach 50332
1972 50311
progr@@ 50103
pic@@ 50084
39 50068
IN@@ 49897
Cant@@ 49883
1968 49821
hi 49808
ys@@ 49767
omb@@ 49763
ain@@ 49724
Jean 49707
ox@@ 49702
und 49577
lama 49498
ack@@ 49428
men 49296
Ph@@ 49275
yn@@ 49200
Gir@@ 49180
hal@@ 49083
vierte 49012
ensis 48986
4,@@ 48976
tis 48923
XVIII 48915
Ari@@ 48800
CO@@ 48781
World 48712
gun@@ 48616
mod@@ 48457
tric@@ 48446
Geor@@ 48433
ingu@@ 48422
rod@@ 48237
Son 48236
cus@@ 48200
lim@@ 48172
Organ@@ 48135
alo 48101
vier@@ 48016
ural 47988
em 47971
Dar@@ 47844
65 47825
Radio 47740
sos@@ 47696
om 47635
1969 47627
0.000 47562
Oli@@ 47508
1930 47481
invol@@ 47465
Met@@ 47458
ess@@ 47359
tw@@ 47340
atus 47295
Roc@@ 47280
ome 47248
Jan@@ 47187
ko 47169
AS@@ 47099
Mot@@ 47097
asti@@ 47085
hel@@ 47075
On@@ 47059
oti@@ 46885
ches 46797
6.@@ 46756
5,@@ 46755
ou 46754
agn@@ 46750
Michael 46719
Din@@ 46699
intro@@ 46688
Asia 46673
plac@@ 46658
Seb@@ 46610
1940 46531
izo 46459
ky 46438
don 46433
lara 46357
XVI 46307
1971 46214
Gl@@ 46207
Nov@@ 46207
Ó@@ 46081
ui@@ 46069
Rob@@ 46057
je 46024
ige 46000
oj@@ 45962
Records 45947
Tar@@ 45878
gia 45853
rég@@ 45842
D. 45790
1945 45680
Gol@@ 45652
Hom@@ 45647
Sur@@ 45600
lag@@ 45585
Bul@@ 45583
alternati@@ 45562
ish@@ 45553
J 45461
1967 45438
wood 45422
Loc@@ 45400
von 45371
li 45366
City 45343
fa@@ 45167
enos 45106
Arg@@ 45035
Washington 44936
1936 44915
condu@@ 44880
oz@@ 44861
universit@@ 44838
Vel@@ 44826
Indi@@ 44739
ain 44733
lit@@ 44718
179@@ 44663
ner@@ 44662
Tour 44610
League 44589
ono 44585
onen 44425
ek 44375
nia 44339
bau@@ 44276
Produc@@ 44150
uk@@ 44077
Ind@@ 44057
Charles 44038
contempor@@ 44005
ace@@ 43998
mont@@ 43984
estadounid@@ 43980
Jac@@ 43966
sé@@ 43941
7,@@ 43912
iy@@ 43910
1964 43904
55 43803
gin@@ 43782
simil@@ 43674
elen 43625
our 43540
individ@@ 43442
Pen@@ 43438
visi@@ 43429
gén@@ 43426
Bon@@ 43416
mut@@ 43352
42 43288
dev@@ 43279
1966 43226
Oper@@ 43201
Ant@@ 43191
Bot@@ 43164
Sig@@ 43126
64 43119
Jug@@ 43117
hol@@ 43107
Ul@@ 43101
24@@ 43044
Cro@@ 43018
ple@@ 43003
ps 42883
CD 42882
air@@ 42840
och@@ 42797
Hel@@ 42711
agric@@ 42562
sen 42495
Daniel 42489
48 42487
Def@@ 42484
Gener@@ 42452
mann 42439
Cel@@ 42367
Media 42366
Thomas 42342
multi@@ 42299
entro 42288
Democ@@ 42245
Ke@@ 42187
6,@@ 42176
1965 42164
fo@@ 42155
300 42145
ung 42074
Bus@@ 42059
sch@@ 42019
ula 41980
ash@@ 41931
Dor@@ 41930
tin 41925
1920 41888
7.@@ 41849
itu@@ 41811
Ev@@ 41793
iden 41787
85 41746
bert 41697
fe 41684
st 41679
resul@@ 41655
atis@@ 41635
undo 41586
F. 41583
erg@@ 41536
Israel 41486
kl@@ 41446
Prot@@ 41440
éro@@ 41438
diplom@@ 41322
metal 41298
ister@@ 41267
Pon@@ 41178
umb@@ 41100
1962 41090
far@@ 41036
uli@@ 41024
ary 40900
52 40896
UN@@ 40869
way 40864
Andre@@ 40844
fa 40808
Peter 40784
ener@@ 40767
mula 40697
26@@ 40644
ami 40636
1963 40614
Flor@@ 40591
anga 40589
Pad@@ 40573
1939 40505
44 40448
conom@@ 40418
Laur@@ 40399
cla@@ 40394
vie@@ 40293
q@@ 40255
oph@@ 40243
Bri@@ 40186
8.@@ 40135
stant@@ 40123
tari@@ 39994
icro@@ 39967
00@@ 39964
ste 39940
ES@@ 39907
Clar@@ 39899
AD@@ 39888
# 39866
Lag@@ 39831
Leon@@ 39816
ég@@ 39816
Bos@@ 39815
¿ 39814
Tro@@ 39771
Music 39764
ake 39761
ise 39716
Brit@@ 39680
Hosp@@ 39668
Pat@@ 39621
Lit@@ 39603
oni 39594
Eu@@ 39531
kh@@ 39516
can 39446
Lim@@ 39432
53 39376
abl@@ 39249
poli@@ 39232
nuc@@ 39231
rol@@ 39180
ling 39171
alia 39142
ike 39063
Cir@@ 39021
ater@@ 39006
iller 38975
ics 38974
mez 38964
Form@@ 38955
1958 38936
lov@@ 38889
41 38839
Profes@@ 38817
XV@@ 38816
ograf@@ 38735
ican 38720
formes 38712
Maur@@ 38706
ident@@ 38703
dro@@ 38678
47 38664
J. 38642
Far@@ 38624
ack 38619
riv@@ 38607
Grande 38570
Harr@@ 38556
Parlam@@ 38552
Sub@@ 38528
Mes@@ 38503
pop 38470
ison 38376
vor@@ 38376
amin@@ 38375
ieren 38351
Ham@@ 38338
adu@@ 38318
1944 38314
ber 38276
30@@ 38274
field 38260
Ca@@ 38245
prac@@ 38175
ette 38160
ung@@ 38065
War@@ 38000
umo 37982
43 37953
IS@@ 37932
ure 37926
Martin 37899
dy 37875
ry 37854
1941 37849
ilia 37815
series 37808
elli 37760
51 37710
ki@@ 37706
1956 37686
aceae 37627
Pic@@ 37625
númer@@ 37609
we@@ 37605
Richard 37579
Hug@@ 37534
1948 37515
jam@@ 37505
1961 37491
bia 37462
Cast@@ 37391
consist@@ 37357
Hist@@ 37339
stein 37308
ony 37286
8,@@ 37251
US@@ 37249
Alb@@ 37178
ko@@ 37117
landa 37089
m. 37062
br 37022
S.@@ 36983
ali 36983
ille 36964
56 36907
nd@@ 36897
record@@ 36881
ings 36831
Maria 36799
Dur@@ 36764
Barr@@ 36733
gel@@ 36702
ars 36583
mach@@ 36581
for 36572
Victoria 36473
ō@@ 36468
54 36440
46 36430
SS 36419
400 36396
Que@@ 36390
95 36386
transfer@@ 36369
étr@@ 36356
Red 36298
icul@@ 36294
28@@ 36232
Me 36232
eur@@ 36231
sat@@ 36227
72 36203
ri 36166
ét@@ 36164
alc@@ 36156
cens@@ 36147
Hy@@ 36096
78 36071
ut 36027
68 36003
ets 36003
herr@@ 35961
1959 35895
distr@@ 35869
lobal 35853
nit@@ 35837
colon@@ 35829
Tan@@ 35822
Wo@@ 35816
Christ@@ 35813
You 35799
igh@@ 35791
Dr. 35776
antas@@ 35776
Carol@@ 35765
bus 35745
1957 35736
enden 35736
port 35708
du 35673
uel 35635
58 35621
1955 35600
rus@@ 35559
88 35554
49 35521
ular@@ 35495
Je@@ 35453
Park 35439
Milit@@ 35438
1943 35433
construc@@ 35367
Ah@@ 35338
57 35283
‘ 35266
ices 35188
mam@@ 35178
76 35156
Hal@@ 35156
62 35151
66 35133
atri@@ 35122
1942 35120
86 35091
Plan@@ 35090
reco@@ 35085
prof@@ 35079
pes 35027
encu@@ 35012
obr@@ 34887
VI 34859
Franc@@ 34824
ear@@ 34762
sk@@ 34660
Ban@@ 34625
27@@ 34542
Man 34512
Natur@@ 34496
ast 34440
ć 34431
67 34413
char@@ 34410
Rev@@ 34386
bir@@ 34372
63 34350
mom@@ 34318
Au@@ 34313
Af@@ 34293
ham 34286
Mah@@ 34259
Texas 34254
Lar@@ 34234
Var@@ 34215
relig@@ 34200
Clau@@ 34192
1946 34170
dae 34095
Tal@@ 34089
fér@@ 34055
ō 33987
74 33969
ors 33966
1952 33941
mix@@ 33933
1949 33922
ory 33864
9,@@ 33815
Eur@@ 33810
onn@@ 33786
Bru@@ 33784
AC@@ 33754
ys 33754
Pri@@ 33708
Lib@@ 33707
83 33589
bu 33564
tic 33546
01 33542
old 33540
77 33528
pp@@ 33526
Gen@@ 33505
tia 33472
ies 33455
1954 33442
AT@@ 33442
ts@@ 33441
gan 33422
.000 33390
Bau@@ 33380
59 33272
1938 33270
82 33253
84 33222
Cop@@ 33219
Domin@@ 33210
87 33138
1937 33135
1947 33114
1953 33100
mani@@ 33088
Tre@@ 33042
grav@@ 33035
wa 33020
89 33018
Bah@@ 32991
march@@ 32979
Il@@ 32953
aborat@@ 32938
9.@@ 32893
Serie 32858
Nar@@ 32792
Dav@@ 32784
29@@ 32777
álb@@ 32764
Love 32761
Tam@@ 32751
iss@@ 32729
Ern@@ 32708
tival 32689
RA@@ 32683
Rock 32683
B. 32679
Chicago 32669
ith 32662
Alfre@@ 32598
bin@@ 32562
American 32552
nes 32497
Florida 32488
BC 32479
nas@@ 32452
partam@@ 32442
61 32363
over 32300
Lee 32274
ington 32262
Dol@@ 32260
ā@@ 32236
Henry 32195
92 32171
Bir@@ 32154
71 32153
Augus@@ 32133
uri 32126
ws 32067
Not@@ 32065
81 32059
99 32016
sal 32004
verse 31977
polis 31950
.C. 31936
oth@@ 31915
2022 31907
Jose@@ 31839
ien 31726
liz@@ 31710
Mé@@ 31694
eon@@ 31681
69 31680
1931 31670
The@@ 31654
Joseph 31645
trac@@ 31645
Smith 31614
ais 31575
College 31528
Ferr@@ 31525
pri@@ 31494
M. 31491
La@@ 31461
Wh@@ 31454
Bil@@ 31435
mer 31409
Prin@@ 31381
1933 31370
05 31358
Nat@@ 31327
Ap@@ 31320
chi 31281
Universit@@ 31278
Provin@@ 31276
Wat@@ 31267
Rog@@ 31257
uj@@ 31197
73 31170
Kir@@ 31150
Tab@@ 31104
its 31099
Sand@@ 31092
ince 31073
amm@@ 31056
imin@@ 31046
alog@@ 31035
ling@@ 30974
79 30944
S. 30939
Pot@@ 30935
yan 30926
yen@@ 30924
98 30916
09 30914
ih@@ 30855
ji 30819
tion 30793
my 30791
ovi@@ 30732
Den@@ 30698
los@@ 30683
att@@ 30619
lus@@ 30612
Ha@@ 30590
Don@@ 30584
Som@@ 30489
02 30464
ash 30436
1934 30366
1951 30350
CE@@ 30348
ume 30338
Arch@@ 30228
¡ 30218
na@@ 30191
sol 30121
04 30111
Mex@@ 30010
ova 29969
Ba@@ 29930
rol 29929
sul@@ 29857
Wol@@ 29842
aber 29839
96 29836
Herr@@ 29822
Rol@@ 29814
Gor@@ 29807
Tow@@ 29794
08 29791
dil@@ 29772
Chil@@ 29763
Air@@ 29753
1935 29696
film@@ 29695
Ú@@ 29683
St 29645
lie 29618
Pil@@ 29592
Pap@@ 29563
rap@@ 29561
ess 29558
School 29508
EP 29462
1929 29449
All 29443
Sing@@ 29399
1932 29360
Vid@@ 29303
ity 29285
06 29270
ku@@ 29265
à 29264
XX@@ 29249
bah@@ 29211
Greg@@ 29205
zar@@ 29192
tre@@ 29189
Pau@@ 29158
1918 29148
03 29127
tag@@ 29089
VII 29082
see 29015
azz 29013
ff 28998
fle@@ 28957
Billboard 28931
Argent@@ 28919
len 28918
Mem@@ 28889
07 28856
ame@@ 28848
opsis 28841
ometr@@ 28825
93 28818
ander@@ 28813
Boy@@ 28793
ongo 28731
Wor@@ 28730
.. 28700
awa 28677
mita 28651
bec@@ 28628
š@@ 28603
Han@@ 28533
erre 28510
lis 28497
ái 28474
ost 28466
itz 28455
1928 28424
explo@@ 28341
Royal 28304
Rum@@ 28302
Louis 28296
dan@@ 28270
tel 28250
Tu@@ 28238
Haw@@ 28235
Sum@@ 28226
Lam@@ 28219
bes@@ 28189
Cy@@ 28150
ö@@ 28133
Ta@@ 28081
erry 28064
National 28048
aki 28038
Progr@@ 27984
Ot@@ 27976
mill@@ 27894
Kh@@ 27866
dat@@ 27847
Sel@@ 27819
the@@ 27819
ä@@ 27809
97 27799
ded@@ 27784
bac@@ 27772
bas 27770
lor@@ 27742
Internet 27711
94 27701
1000 27661
ock 27648
esia 27647
91 27637
* 27626
well 27584
ati 27547
Blo@@ 27534
plas@@ 27479
own 27458
King 27442
Sc@@ 27420
Gil@@ 27399
New@@ 27397
seud@@ 27397
1914 27356
ke@@ 27348
ny 27308
Lev@@ 27296
enen 27284
Black 27240
Sus@@ 27237
Sof@@ 27234
West 27214
eler@@ 27206
Vo@@ 27204
ish 27155
NBA 27132
marqu@@ 27109
king 27104
Sou@@ 27099
ange 27060
1919 27049
Mass@@ 27047
ope 26970
sion@@ 26965
SE@@ 26932
fel@@ 26909
Street 26883
q 26824
apos@@ 26812
1910 26811
CI@@ 26799
Play@@ 26798
eri 26786
sing@@ 26778
Dan@@ 26728
1924 26648
publ@@ 26638
E. 26635
Univers@@ 26623
It@@ 26619
1917 26604
ath 26559
win 26366
ix 26350
otr@@ 26326
Fal@@ 26309
Buc@@ 26285
Rem@@ 26282
Lis@@ 26260
tu 26231
ons@@ 26227
International 26209
lan 26147
Jack 26055
Famil@@ 26020
Amer@@ 26006
OS 25988
neu@@ 25975
Gro@@ 25973
R. 25953
ist 25939
150 25915
Company 25896
Mit@@ 25883
1925 25860
off 25820
vit@@ 25786
aka 25780
angel@@ 25766
600 25738
Dre@@ 25696
1927 25690
Eri@@ 25682
Hit@@ 25633
Kur@@ 25631
Ko@@ 25607
AN@@ 25548
DVD 25529
umba 25524
ép@@ 25489
Bay@@ 25456
ym@@ 25440
Plat@@ 25433
ab 25387
AC 25371
1912 25359
Super 25355
Hen@@ 25340
cré@@ 25338
My@@ 25333
1922 25301
quel@@ 25258
san 25198
aller 25132
hin@@ 25126
Cin@@ 25099
incre@@ 25091
P. 25077
bet@@ 25070
use 25063
Mul@@ 25056
zi 25052
ogr@@ 25014
els 24953
eder 24941
1926 24939
IC@@ 24918
Mary 24901
alar 24896
Rich@@ 24878
vania 24857
Fe@@ 24845
Star 24836
ett 24816
ube 24780
vern@@ 24777
1923 24771
ui 24737
yp@@ 24706
off@@ 24671
MS 24649
ally 24644
Z 24642
Sy@@ 24615
Vit@@ 24571
800 24535
Net@@ 24497
Brown 24489
show 24439
ship 24434
Corpor@@ 24412
TA 24371
Van 24361
Ty@@ 24354
Juni@@ 24342
tut@@ 24303
culp@@ 24301
• 24298
ites 24280
als 24256
Í@@ 24256
foc@@ 24251
sar@@ 24235
1900 24232
ester 24207
FI@@ 24164
spir@@ 24121
Hot@@ 24117
úbl@@ 24063
Pierre 24055
ble@@ 24043
rar 23984
deu@@ 23974
trav@@ 23959
ider 23951
ander 23949
ori 23920
Andr@@ 23918
ei 23889
war@@ 23867
éli@@ 23848
Dev@@ 23823
Radi@@ 23811
1921 23800
Vis@@ 23792
yn 23790
My 23764
acha 23744
Lig@@ 23717
Columb@@ 23688
kar@@ 23686
Person@@ 23672
Red@@ 23637
top@@ 23633
tle 23623
Orig@@ 23609
DC 23603
rati@@ 23558
Sw@@ 23527
lin 23515
Riv@@ 23479
ges 23475
nam 23442
ters 23390
nh@@ 23380
United 23367
fur@@ 23358
Fut@@ 23352
aft 23315
tuy@@ 23310
Stu@@ 23303
net 23284
map@@ 23274
Frank 23273
icha 23265
AM 23259
Mark 23194
Tom 23189
Jones 23184
data 23161
Win@@ 23136
nó 23105
Pom@@ 23078
Sor@@ 23024
Tay@@ 22987
ho 22919
ats 22903
One 22885
Jam@@ 22844
spec@@ 22836
AM@@ 22824
SA 22807
kio 22762
ds 22749
mond 22749
ux 22706
Sk@@ 22700
Tim@@ 22693
pas 22691
RE@@ 22682
AP@@ 22657
Sau@@ 22647
play@@ 22630
Phil@@ 22607
1913 22574
etti 22573
azi 22566
Joh@@ 22556
pré@@ 22551
Conn@@ 22538
Grand 22510
Nik@@ 22500
burg 22495
Astr@@ 22485
US 22470
ass 22454
trol@@ 22440
A.@@ 22435
mati@@ 22432
oug@@ 22431
Scott 22425
Jackson 22417
rif@@ 22382
Hil@@ 22361
Wi@@ 22351
lor 22329
Paulo 22322
ública 22319
č@@ 22313
Tak@@ 22312
L. 22293
enne 22275
Rot@@ 22213
Disney 22207
ze@@ 22197
ves 22180
Liter@@ 22170
Virginia 22163
xi@@ 22162
elt@@ 22131
yc@@ 22124
Williams 22123
ting 22105
Kenn@@ 22081
IX 22001
Big 21997
Times 21966
bis@@ 21948
bro@@ 21943
inco 21931
ous 21928
irat@@ 21924
sky 21900
Aus@@ 21891
Entertainment 21891
Op@@ 21844
shire 21809
Mach@@ 21763
tion@@ 21748
low 21685
1911 21659
Bet@@ 21645
onóm@@ 21637
hur@@ 21630
ER@@ 21617
igan 21599
relati@@ 21575
Spr@@ 21572
ij@@ 21571
ques@@ 21571
1916 21559
Lan@@ 21520
Tran@@ 21481
onald 21443
sist@@ 21440
250 21422
Ox@@ 21420
mir 21395
1915 21359
he 21359
alis 21352
Bak@@ 21267
Mill@@ 21253
Star@@ 21241
ort@@ 21210
CA 21172
I. 21153
Hall 21149
Mod@@ 21138
Bad@@ 21137
House 21101
usal@@ 21089
Steph@@ 21082
ste@@ 21082
sk 21073
Bab@@ 21049
Max 21037
ze 21030
sep@@ 21000
ort 20996
ady 20974
him@@ 20968
anth@@ 20908
cus 20900
ck 20897
itz@@ 20892
Kon@@ 20888
out 20887
Gas@@ 20875
ansas 20868
asi 20847
Dig@@ 20841
But@@ 20800
artic@@ 20761
Young 20739
Et@@ 20736
BA 20729
Center 20685
kin 20684
ball@@ 20673
bara 20610
Sav@@ 20593
azar@@ 20547
Mid@@ 20532
ap 20523
NA 20500
Maj@@ 20494
recog@@ 20488
Alexander 20478
Sm@@ 20444
1908 20399
dam 20384
Ly@@ 20382
Joe 20375
AS 20373
SA@@ 20366
Viet@@ 20351
In 20319
mari@@ 20306
ji@@ 20291
West@@ 20265
Ran@@ 20257
Na@@ 20241
1905 20234
Guinea 20186
Live 20186
Walter 20163
It 20162
H. 20109
White 20101
Boston 20065
ax 20060
eth 20059
inger 20042
curr@@ 20015
Top 20008
osp@@ 20007
hy@@ 20002
Kor@@ 19976
Phili@@ 19976
huy@@ 19973
rad@@ 19944
ond 19914
Tw@@ 19904
ł@@ 19904
Hot 19879
Kn@@ 19866
ont 19855
sever@@ 19829
ances 19812
Maz@@ 19796
Ku@@ 19789
bao 19784
ci 19769
ø@@ 19763
ika 19749
Johnson 19735
Abr@@ 19674
Chap@@ 19671
ush@@ 19631
Football 19619
r. 19604
tif@@ 19603
Hay@@ 19590
TC 19568
Anth@@ 19567
She@@ 19561
Tit@@ 19561
â@@ 19556
ks@@ 19550
Edward 19548
Team 19527
Cle@@ 19505
sho@@ 19490
Div@@ 19488
xa 19466
è@@ 19435
Fel@@ 19409
ald 19394
Kat@@ 19369
urg@@ 19327
ustri@@ 19319
amba 19314
PC 19309
ik 19298
eter 19295
htt@@ 19292
Les 19289
unt 19279
Show 19269
.com 19256
Marie 19245
ean 19243
Stan@@ 19238
cho@@ 19154
1906 19141
oy 19133
1909 19131
… 19108
alle 19086
Kal@@ 19077
ns 19076
zu@@ 19049
wal@@ 19047
op 19040
acuer@@ 19032
fer 18979
ian 18971
Hill 18970
1907 18940
ev 18926
né@@ 18872
ams 18870
jo@@ 18847
eren 18843
Sho@@ 18821
aux 18816
zi@@ 18804
ault 18786
º@@ 18766
sia 18754
How@@ 18751
Ben 18709
ther 18704
cro@@ 18666
gem@@ 18658
Windows 18643
ston 18638
Nob@@ 18617
Got@@ 18602
wor@@ 18596
Anna 18585
Moh@@ 18573
abeth 18539
Emp@@ 18522
mont 18498
1904 18485
vel 18460
Illinois 18432
ision 18431
ning 18398
University 18392
esen 18391
Ander@@ 18389
Ath@@ 18339
Albert 18318
1890 18308
River 18301
inda 18298
ough 18290
set 18268
Gh@@ 18261
umbo 18257
cher 18177
Time 18157
tical 18151
Sci@@ 18141
Whit@@ 18134
Lab@@ 18124
Pow@@ 18110
Ash@@ 18106
tern@@ 18093
anti 18073
Lou@@ 18031
700 18018
ken 18001
adem@@ 17983
120 17979
ado@@ 17971
Christian 17962
eld 17951
event@@ 17944
tribut@@ 17938
RO@@ 17913
Bow@@ 17890
Ak@@ 17887
Kim 17883
1903 17872
end 17852
Art 17845
BS 17808
You@@ 17796
ust 17783
alan@@ 17770
gul@@ 17757
Arthur 17756
Dam@@ 17746
John@@ 17743
Jos@@ 17734
ator 17732
FA 17722
ding 17715
Life 17701
iz 17688
Hir@@ 17684
BBC 17651
ae@@ 17643
ye@@ 17630
chester 17622
Fri@@ 17603
Ki@@ 17600
Kaz@@ 17598
ife 17581
nde 17579
UEFA 17567
Eliz@@ 17560
Ken@@ 17508
kr@@ 17507
ère 17501
c. 17491
Q 17477
cle@@ 17468
van@@ 17418
Eng@@ 17416
aden 17414
ô@@ 17394
ör@@ 17383
Meg@@ 17361
1902 17356
jeres 17315
IM@@ 17309
Ohio 17249
top 17247
Mak@@ 17245
bury 17236
1880 17231
tus 17127
Land@@ 17124
ms 17100
Sul@@ 17083
Carl 17081
Cum@@ 17063
High 17062
ig 17062
aff@@ 16985
ules 16982
tas@@ 16952
Pak@@ 16839
uke 16818
lis@@ 16802
― 16798
tér@@ 16793
Papa 16773
Beau@@ 16738
Sun@@ 16721
low@@ 16713
Kan@@ 16690
ls 16689
Green 16677
Air 16659
1898 16651
Karl 16638
ome@@ 16584
North 16546
Dal@@ 16541
Society 16489
ny@@ 16487
1870 16470
sey 16460
side 16459
Bud@@ 16434
aus 16425
AP 16420
bridge 16404
Lang@@ 16378
Bec@@ 16370
test@@ 16360
gest@@ 16356
qui 16353
ham@@ 16339
oder 16301
ann 16261
tha 16251
Ze@@ 16212
gro@@ 16212
bi 16210
hr@@ 16203
Shi@@ 16190
Blue 16175
Island 16173
COVID 16151
Spe@@ 16136
ei@@ 16132
edy 16109
America 16106
1901 16105
V. 16050
amen 16047
Les@@ 16040
Studi@@ 16039
gre@@ 16020
éd@@ 15994
South 15988
ays 15937
ingen 15933
1895 15932
ique 15925
inae 15922
MA 15921
VI@@ 15897
Fol@@ 15862
uh@@ 15845
200@@ 15843
Mand@@ 15843
kg 15841
Sher@@ 15823
elles 15805
evi@@ 15805
fort 15805
App@@ 15804
Indonesia 15798
sam@@ 15770
iki 15721
W. 15687
rir 15665
Jersey 15650
CD@@ 15649
ū@@ 15646
etts 15632
Sto@@ 15629
Mec@@ 15618
amo@@ 15610
1899 15566
ment 15564
ë@@ 15562
wan@@ 15546
Thom@@ 15529
Ann@@ 15525
11@@ 15475
Bill@@ 15365
Ker@@ 15353
Kam@@ 15328
tho@@ 15328
app@@ 15324
ater 15320
ep 15312
Nag@@ 15301
uz 15300
Group 15299
Station 15296
eer 15271
eus 15264
ague 15262
ium 15255
esse 15234
Arti@@ 15223
WWE 15212
int 15209
1897 15197
Bou@@ 15196
Anton@@ 15195
Jacques 15195
CO 15193
mad 15179
eau 15159
Lake 15145
Tun@@ 15121
prin@@ 15119
50@@ 15099
Liv@@ 15091
any@@ 15079
1896 15077
ockey 15061
ager 15054
oli 15053
ket@@ 15010
iko 14984
bach 14979
Ear@@ 14974
ark@@ 14956
1860 14953
kin@@ 14948
Law@@ 14947
Rad@@ 14925
ason 14921
olf 14909
ect 14906
ache 14879
Simon 14870
Premier 14858
ban 14854
FIFA 14820
1889 14811
eck 14811
anne 14782
sm@@ 14780
Ped@@ 14778
play 14773
afr@@ 14767
Cup 14764
ever 14699
ée 14697
NE@@ 14682
Mik@@ 14654
Lord 14646
uss@@ 14646
Bes@@ 14643
deg@@ 14640
ür@@ 14639
Rap@@ 14609
1891 14600
vin 14595
Squ@@ 14591
SC 14574
trag@@ 14565
épo@@ 14564
Microsoft 14555
Day 14526
hay@@ 14522
urs 14515
lam 14504
yon 14443
AB@@ 14435
diz@@ 14429
10.@@ 14418
try 14416
´ 14395
stre@@ 14389
ç@@ 14384
Championship 14365
1888 14330
Hans 14304
erie 14294
af 14255
idge 14251
part@@ 14242
derni@@ 14235
yar@@ 14235
× 14215
annes 14204
Ges@@ 14189
Web@@ 14178
Union 14175
ech 14167
urn@@ 14159
Association 14151
vers 14115
osh@@ 14113
cy 14094
lieg@@ 14091
inga 14084
aun@@ 14024
à@@ 14018
François 13995
km@@ 13962
Sir 13944
ius 13940
wer@@ 13934
aug@@ 13929
tent@@ 13919
1893 13912
Hamb@@ 13897
attle 13897
1500 13894
SP@@ 13890
oi 13860
Kin@@ 13833
East 13823
anus 13818
novi@@ 13815
Ort@@ 13808
wig 13783
ob 13764
mis 13759
Awards 13752
ès 13738
heim 13732
PS 13731
iten 13703
eu 13699
work 13698
dam@@ 13663
Nam@@ 13654
with 13648
Tex@@ 13641
Rud@@ 13631
nec@@ 13604
sis 13601
1892 13599
1800 13593
1868 13585
isco 13585
Blu@@ 13581
Num@@ 13579
ations 13579
1885 13577
line 13498
tions 13491
Ye@@ 13487
Arab@@ 13484
ili 13469
lima 13455
etz@@ 13440
pi 13437
eller 13434
Friedrich 13429
1894 13423
1886 13422
Kit@@ 13418
eu@@ 13409
otte 13403
over@@ 13385
iter@@ 13367
outh 13355
afa 13335
ert 13334
alit@@ 13328
ST@@ 13306
ken@@ 13290
lip@@ 13278
row 13275
orum 13270
Bras@@ 13237
Afr@@ 13228
Sat@@ 13226
dri@@ 13218
aud 13211
uki 13209
Alexand@@ 13180
Ka@@ 13179
Ky@@ 13173
atom@@ 13167
even 13135
Sport@@ 13132
1884 13103
film 13100
Azer@@ 13096
Lud@@ 13082
olo@@ 13073
ury 13051
under@@ 13050
{ 13045
ask@@ 13044
thi@@ 13031
1879 13025
zam@@ 13010
tern 12985
agre@@ 12910
right 12900
900 12879
1887 12842
ii 12823
lot 12820
sw@@ 12816
MP@@ 12814
ū 12801
num@@ 12777
12,@@ 12773
Id@@ 12772
enberg 12763
ww@@ 12761
Tenn@@ 12748
ister 12747
live 12747
Johann 12706
yan@@ 12700
bour@@ 12690
eli 12683
ld 12670
On 12652
1850 12645
ross 12642
1881 12616
grup@@ 12608
1876 12595
12.@@ 12587
BM@@ 12586
King@@ 12543
eng 12542
w.@@ 12542
roy@@ 12532
Kos@@ 12529
iler 12528
yo@@ 12521
dem 12518
1871 12486
alli@@ 12482
Rou@@ 12464
Road 12463
aul@@ 12447
Gold@@ 12432
Gra@@ 12432
gi 12431
optera 12415
Eurov@@ 12402
ð@@ 12391
Bask@@ 12389
10,@@ 12388
sel 12384
Kom@@ 12352
11.@@ 12347
Eg@@ 12332
K. 12323
gü@@ 12314
AI@@ 12308
kel@@ 12298
1878 12288
bs 12282
bot 12279
Bang@@ 12270
23@@ 12247
air 12240
1882 12236
key 12230
adi 12224
ports 12203
Rh@@ 12201
State 12193
sion 12185
Long 12181
cito 12164
quel 12162
tures 12154
tés 12151
ord 12147
1864 12142
enh@@ 12139
ew@@ 12139
alle@@ 12135
let 12133
Kl@@ 12108
1883 12107
day 12105
CC@@ 12095
laya 12065
lock 12053
Arts 12016
Ali 12007
1865 11994
atre 11984
Sain@@ 11977
3000 11925
1830 11896
1848 11891
post 11882
andi@@ 11881
ises 11861
Paris 11852
rich 11825
ret 11824
Journ@@ 11785
loy@@ 11782
1867 11780
yer@@ 11765
London 11743
ree 11741
lum 11726
Bay 11718
1873 11715
iter 11714
box 11713
Dou@@ 11686
sy@@ 11655
liv@@ 11644
hard 11639
1861 11626
ther@@ 11619
oo 11617
promot@@ 11607
Fir@@ 11606
ebo@@ 11587
bab@@ 11558
chin@@ 11558
ents 11553
Film 11551
1,5 11549
1875 11542
Pier@@ 11523
té 11522
yer 11508
1872 11507
Google 11505
more 11495
1869 11488
Chin@@ 11483
house 11479
ail 11474
40@@ 11461
stan@@ 11449
ft 11439
tain 11434
ouv@@ 11431
110 11427
Way@@ 11410
Bank 11406
eni 11405
sible 11399
a. 11353
180 11348
ball 11346
ights 11341
1863 11335
1874 11331
Henri 11321
gh@@ 11321
Kas@@ 11307
unk@@ 11304
opo@@ 11298
Yo@@ 11283
ator@@ 11264
Sak@@ 11255
any 11234
elt 11227
ogo 11213
thr@@ 11211
tun@@ 11204
nik 11182
pro 11182
Cath@@ 11165
11,@@ 11164
Atlan@@ 11158
umi 11157
verg@@ 11144
Kol@@ 11130
eden 11126
fest@@ 11126
ž@@ 11110
Ji@@ 11069
bec 11066
Off@@ 11062
1866 11060
Alt@@ 11052
inus 11050
ement 11044
Open 11039
ots 11036
130 11029
ells 11025
we 11022
ops 10971
git@@ 10960
Sah@@ 10949
Wer@@ 10945
1877 10941
\ 10933
ein 10909
ket 10909
back 10903
1862 10899
Anne 10898
apo 10886
trol 10868
nis 10847
iri 10843
hip 10840
aut 10804
ran 10788
mito 10785
ck@@ 10774
å@@ 10744
Nigeria 10741
Mut@@ 10726
erten 10718
Kil@@ 10670
Yor@@ 10669
onne 10658
} 10649
time 10630
DS 10612
Nak@@ 10604
up 10600
alan 10599
nen 10599
net@@ 10578
ateur 10535
lines 10513
Hav@@ 10508
Ober@@ 10503
sequ@@ 10495
concer@@ 10485
ker@@ 10438
ards 10414
geb@@ 10408
160 10394
omin@@ 10382
0,000 10378
wat@@ 10370
Wes@@ 10364
Muh@@ 10353
chen 10322
· 10311
Willi@@ 10286
maya 10283
da@@ 10282
Wit@@ 10276
ures 10270
Alex@@ 10258
augh@@ 10257
min 10255
yle 10254
USA 10244
Die 10216
azine 10213
Dani@@ 10211
France 10203
zor@@ 10198
wi@@ 10197
ses 10187
Stadi@@ 10185
iki@@ 10185
cht 10170
ă@@ 10170
maf@@ 10147
Wilhelm 10136
eas@@ 10122
engo 10115
igh 10107
oman 10099
Institute 10095
Commun@@ 10089
lers 10069
Franz 10058
kan@@ 10043
80@@ 10042
Song 10020
ality 10012
ett@@ 10010
Neu@@ 10008
anger 10006
chu@@ 9993
Lon@@ 9972
tena 9965
Thi@@ 9941
140 9937
atin 9935
uk 9926
haus@@ 9909
alls 9906
enga 9899
Ok@@ 9893
annel 9892
ords 9888
iev@@ 9881
ow 9868
350 9860
³ 9853
eing 9845
ï@@ 9824
iss 9804
Do 9798
oks 9786
tics 9779
tice 9768
aa 9751
vet@@ 9724
pha 9721
yi 9704
British 9686
Sz@@ 9662
ills 9659
ngu@@ 9649
rat 9621
court 9586
Brand@@ 9584
ids 9583
Š@@ 9547
also 9526
ture 9524
acy 9515
lem 9510
Biz@@ 9492
ants 9470
ag 9467
Il 9464
Roy@@ 9461
Band 9455
CH@@ 9454
esh 9441
ng 9438
from 9436
dorf 9433
burg@@ 9431
Coun@@ 9416
eti 9391
uza 9386
eth@@ 9366
ology 9359
sch 9358
Micro@@ 9349
Wag@@ 9346
yst@@ 9338
tech@@ 9323
Ñ@@ 9320
rie 9315
Bundes@@ 9301
ül@@ 9287
ty@@ 9276
Kle@@ 9245
opo 9236
éri@@ 9203
her 9191
ted 9172
120@@ 9166
very 9163
chen@@ 9145
är@@ 9132
õ@@ 9130
gs 9125
Berg@@ 9119
view 9117
Wa@@ 9107
Um@@ 9100
lier 9088
og 9064
Award 9058
bin 9058
ated 9057
ective 9051
risto 9049
sun@@ 9048
za@@ 9047
press 9039
Angeles 9021
To 9016
wo 8997
bis 8978
101 8937
ern 8934
124@@ 8931
ê@@ 8917
elop@@ 8905
enz 8904
ols 8897
Women 8890
yg@@ 8884
ennes 8882
esi 8870
yth@@ 8866
nes@@ 8853
Tok@@ 8837
35@@ 8833
cle 8831
dis 8811
mid@@ 8805
our@@ 8785
din 8773
alif@@ 8760
ely 8740
sche 8737
ders 8734
Best 8712
UK 8697
iler@@ 8687
idi 8683
eph@@ 8682
wh@@ 8672
Reich@@ 8670
urt 8659
Heinrich 8651
Hin@@ 8637
stat@@ 8633
ues 8630
ères 8615
deter@@ 8609
Museum 8599
kur@@ 8598
Acc@@ 8587
Games 8586
itt 8582
iger 8579
esh@@ 8578
aine 8574
ref 8571
lands 8567
öl@@ 8563
feld 8559
zy@@ 8559
This 8538
vi 8528
hil 8513
rich@@ 8513
ī@@ 8510
Kis@@ 8509
Kun@@ 8507
ness 8488
aye 8481
Say@@ 8478
unter 8477
tier 8474
201@@ 8469
æ@@ 8458
Academy 8456
ilde 8445
vill@@ 8437
bit 8434
wer 8421
ois 8406
town 8400
non 8396
yu 8379
others 8376
maz@@ 8360
Nati@@ 8349
Chic@@ 8346
Gü@@ 8341
haz@@ 8338
lés 8335
eur 8323
kat@@ 8281
trong 8265
act 8263
Hat@@ 8256
rid 8250
riff@@ 8240
ful 8207
aha 8206
bran@@ 8206
eme 8206
cher@@ 8204
ign 8195
Beg@@ 8194
other 8194
stadt 8189
System 8175
Jul@@ 8171
ehr@@ 8158
Ein@@ 8131
vor 8126
ection 8109
ef 8109
Cou@@ 8076
bul 8074
Kab@@ 8071
Sup@@ 8063
Rep@@ 8060
aume 8056
bon 8048
isi 8045
Baz@@ 8039
onder@@ 8012
ppe 8001
cut 7994
War 7984
0s 7976
alt 7976
Great 7974
embre 7969
Tou@@ 7957
Town 7944
ř@@ 7928
Champi@@ 7918
eck@@ 7918
ku 7911
Kap@@ 7903
Techn@@ 7901
dra@@ 7896
com 7885
assi@@ 7878
aina 7855
incor@@ 7842
yd@@ 7825
municipal@@ 7819
€ 7818
Jack@@ 7809
iti 7801
fic 7792
spe@@ 7791
Division 7789
yon@@ 7786
Bun@@ 7784
Gaz@@ 7779
ople 7775
Vor@@ 7772
has@@ 7770
aç@@ 7762
imi 7757
,000 7752
wo@@ 7743
Vik@@ 7731
sil 7710
zu 7709
dium 7698
onc@@ 7698
zig 7697
As 7676
tour 7652
maj@@ 7650
Kre@@ 7624
ward 7612
tt@@ 7594
zur@@ 7581
ems 7570
ana@@ 7554
ulia 7553
reti@@ 7542
oko 7532
dom 7517
AG 7512
Histori@@ 7495
uni 7475
ground 7470
Zu@@ 7453
Gel@@ 7448
thern 7445
tof@@ 7444
ça 7442
Aug@@ 7431
istan 7427
Bed@@ 7415
sev@@ 7414
fé@@ 7407
High@@ 7401
Tour@@ 7376
med 7374
iness 7367
ires 7362
ends 7358
kir@@ 7358
Apr@@ 7356
Kim@@ 7355
earch 7326
ait 7314
Scot@@ 7312
Proj@@ 7301
kel 7283
dre@@ 7264
eum 7261
opp@@ 7245
év@@ 7245
lang@@ 7230
Canadi@@ 7221
ution 7217
ods 7211
now 7202
SS@@ 7193
ums 7192
County 7189
Schwar@@ 7165
Deutsch@@ 7149
CN 7142
inde 7142
dh@@ 7138
ave@@ 7126
ishi 7109
Publi@@ 7106
Da 7105
alen 7097
Dé@@ 7094
ference 7092
ndi@@ 7089
He 7084
jed@@ 7072
Math@@ 7057
kan 7047
Frank@@ 7046
Japan 7045
wen@@ 7034
hat@@ 7032
Zi@@ 7028
For 7024
Yar@@ 7022
ina@@ 7015
Ny@@ 7014
enten 7011
ats@@ 7009
An 6988
zen 6987
bek@@ 6968
imbo 6965
First 6962
Force 6943
avi 6931
olan 6931
wards 6928
bay@@ 6925
orig@@ 6912
Gem@@ 6898
33@@ 6888
Ou@@ 6885
him 6873
May 6864
ways 6859
Penn@@ 6854
temp@@ 6847
ön@@ 6844
emati@@ 6843
unter@@ 6835
ful@@ 6834
Stand@@ 6798
ités 6794
Hein@@ 6793
diese 6790
− 6786
tak@@ 6776
Shu@@ 6771
star@@ 6766
ime@@ 6756
ature 6747
down 6746
nier 6733
WW@@ 6728
strat@@ 6728
Volks@@ 6725
chan@@ 6725
bay 6704
š 6697
clim@@ 6684
lah 6684
eine 6674
uld 6663
vice 6643
Syst@@ 6637
ough@@ 6633
kad@@ 6631
Santi@@ 6622
ambo 6619
ift 6569
util@@ 6568
kon@@ 6565
enin 6562
uses 6562
wn 6558
Ré@@ 6557
Land 6552
α 6552
ape 6544
vier 6535
han@@ 6532
ains 6526
hus@@ 6521
oka 6510
xe 6505
Alli@@ 6503
isch@@ 6501
ose 6489
Ord@@ 6488
ony@@ 6488
win@@ 6486
come 6482
light 6478
ène 6478
sou@@ 6476
ris@@ 6474
say@@ 6474
ici 6469
iche 6466
urg 6457
Leb@@ 6440
endi 6433
UE@@ 6429
kal@@ 6427
Uz@@ 6416
Haz@@ 6400
stor@@ 6380
asse 6370
album 6353
xico 6352
pris@@ 6351
ò@@ 6347
country 6328
ode 6326
lau@@ 6315
clo@@ 6309
lit 6301
ń@@ 6292
main 6289
Europe 6276
aret 6274
Kö@@ 6270
ischer 6257
eds 6234
eb 6231
uru 6224
Enter@@ 6216
Fam@@ 6216
Yah@@ 6212
Č@@ 6210
face 6196
zer 6192
alth 6182
gang 6182
tory 6177
ames 6174
istes 6174
ute 6174
pon 6162
aro@@ 6156
Prof@@ 6148
out@@ 6144
sons 6144
Christi@@ 6142
Tang@@ 6141
inn 6138
Centre 6131
emen 6120
Rah@@ 6111
muda 6111
egem@@ 6081
Syn@@ 6074
enburg 6070
lon@@ 6068
ebe 6064
ulu 6055
Kus@@ 6044
Party 6037
Prix 5995
humo 5991
ako 5983
Mann@@ 5978
Stre@@ 5977
ayan 5965
zin@@ 5965
Tanzania 5954
mine 5953
isha 5949
sign@@ 5929
ages 5927
Stein@@ 5916
adounid@@ 5887
less 5884
head 5867
ils 5847
ezo 5845
Olympi@@ 5834
.S. 5826
Vier@@ 5816
£ 5806
Von 5777
sburg 5775
Luf@@ 5768
aup@@ 5767
Meh@@ 5756
iff 5750
ë 5749
än@@ 5724
So 5722
zen@@ 5719
Tari@@ 5715
ingia 5714
ö 5714
has 5712
ous@@ 5702
uten 5701
Rail@@ 5699
Hand@@ 5693
chap@@ 5689
jan@@ 5682
wa@@ 5679
uli 5650
August 5649
ative 5649
but 5640
agne 5632
cole 5632
Ni 5607
~ 5601
hilo 5586
wes@@ 5584
mak@@ 5569
ences 5564
auer 5558
cast 5555
Buch@@ 5548
Western 5526
unge 5510
boy@@ 5508
vat@@ 5507
Der 5503
met 5495
ā 5493
Nord@@ 5492
GC 5489
hie 5476
ě@@ 5471
quar@@ 5468
spi@@ 5458
odes 5451
Kul@@ 5449
ily 5419
born 5405
fi 5404
ś@@ 5404
ying 5402
gel 5388
Ago@@ 5383
eux 5372
ayn@@ 5371
Uganda 5364
Nach@@ 5360
Chem@@ 5359
† 5358
Hau@@ 5350
ische 5336
dru@@ 5316
music 5308
Fes@@ 5280
dle 5279
wil@@ 5267
édi@@ 5257
name 5228
test 5220
single 5218
Schw@@ 5210
Gö@@ 5209
auf@@ 5200
ande 5197
ited 5190
ands 5185
rier 5167
hir 5161
eka 5160
Fried@@ 5150
atu 5123
gli@@ 5122
ering 5120
ș@@ 5111
bers 5101
History 5088
ī 5084
emi 5048
ule 5039
pay@@ 5032
els@@ 5030
European 5028
och 5024
Ö@@ 5019
coll@@ 5018
Ō@@ 4994
î@@ 4992
Ž@@ 4985
sei 4982
Hak@@ 4973
Ere@@ 4964
idir 4956
ahl 4952
pia 4952
Sud 4945
oir 4938
Was@@ 4935
dou@@ 4932
pend@@ 4927
auc@@ 4924
Beh@@ 4923
kor@@ 4922
ties 4920
́ 4916
hara 4898
Mexico 4897
yat@@ 4888
kul@@ 4875
Roman 4874
unga 4870
Wak@@ 4864
ety 4859
kw@@ 4857
Ng@@ 4846
hai 4827
uka 4823
water 4823
plu@@ 4819
sah@@ 4817
Am 4812
lich@@ 4812
not 4810
Ost@@ 4807
tie 4803
furt 4802
undan 4799
under 4795
kom@@ 4784
ers@@ 4772
qua 4751
è 4746
From 4735
emple 4734
Kais@@ 4726
ween 4725
phy@@ 4720
Canada 4719
dipl@@ 4719
lu 4718
dition 4717
craft 4704
Nig@@ 4694
Yer@@ 4694
With 4686
Þ@@ 4685
Church 4672
agement 4659
β 4657
ologi@@ 4656
Inn@@ 4652
ories 4647
Alman@@ 4646
ē@@ 4641
away 4636
syl@@ 4622
Yun@@ 4615
pen 4614
ving 4614
cy@@ 4609
ý@@ 4603
isch 4600
Kay@@ 4597
match 4595
י@@ 4594
eler 4590
DR 4588
new 4575
Ł@@ 4573
track 4572
get 4560
ói 4552
ò 4545
Berlin 4540
Kad@@ 4527
ext 4527
lies 4524
strum@@ 4519
Sach@@ 4512
traf@@ 4508
mark 4504
pata 4465
Eisen@@ 4459
rain 4457
English 4447
ating 4441
dern 4439
ę@@ 4438
edil@@ 4436
ος 4432
eten 4425
She 4423
gil@@ 4415
aise 4412
mus 4408
Famili@@ 4406
eil@@ 4400
dren 4399
get@@ 4393
ede@@ 4371
für 4366
hap@@ 4366
einer 4362
ý 4356
aires 4351
if 4349
Mün@@ 4344
Sult@@ 4337
eg 4328
± 4311
âteau 4311
bed@@ 4307
works 4301
fast 4297
ä 4273
ş@@ 4253
bei 4251
asser 4244
chez 4229
sera 4220
war 4202
ahl@@ 4192
uss 4190
Archit@@ 4189
inger@@ 4175
kam@@ 4149
aland 4137
ו@@ 4135
inen 4121
shu@@ 4115
juli@@ 4114
üs@@ 4111
ə@@ 4109
mit 4105
adil@@ 4100
When 4088
Franç@@ 4082
aly@@ 4080
dit 4079
atia 4077
edi 4076
public 4051
Pf@@ 4044
aide 4039
vie 4034
wn@@ 4025
yak@@ 4023
isse 4017
tors 4014
tou@@ 4014
Wan@@ 3995
enter 3986
acht 3970
won 3970
hat 3965
sten 3951
Empire 3948
lay@@ 3946
@ 3938
kol@@ 3935
world 3922
hiz@@ 3919
kab@@ 3918
Kri@@ 3906
iyi 3906
Kut@@ 3902
U.S. 3901
Kid@@ 3897
tain@@ 3889
hav@@ 3882
stitu@@ 3880
NGC 3874
back@@ 3867
band 3853
prise 3850
leb@@ 3841
tive 3836
üh@@ 3836
alifor@@ 3832
ün@@ 3829
sions 3823
Kem@@ 3819
→ 3815
Nord 3806
unds 3795
-- 3792
ustos 3765
west 3758
sta@@ 3743
area 3742
wak@@ 3735
ː 3735
ehr 3732
ird 3723
eki 3722
auté 3689
chev@@ 3686
run@@ 3679
​ 3663
phil@@ 3653
hiv@@ 3652
zon 3650
bak@@ 3635
tn@@ 3635
Council 3634
199@@ 3614
States 3611
ishing 3611
`@@ 3607
performan@@ 3598
sian 3592
Mek@@ 3589
round 3585
lag 3584
was 3575
zer@@ 3575
semb@@ 3573
König@@ 3570
than 3553
lich 3549
ã@@ 3549
lib@@ 3543
gun 3541
pein@@ 3536
wid@@ 3536
wing 3519
DV@@ 3515
life 3513
flo@@ 3507
ism 3489
^ 3484
tique 3474
Barcel@@ 3469
spr@@ 3464
anan 3463
inci 3463
aji 3457
sein 3454
enth@@ 3452
histor@@ 3451
üt@@ 3451
kaz@@ 3447
ampi@@ 3442
tur 3441
č 3437
ya@@ 3425
Ent@@ 3420
egen 3413
case 3411
champ@@ 3408
kt 3407
cell@@ 3394
ize 3393
eff@@ 3391
meng@@ 3391
enton@@ 3383
gaz@@ 3380
haus 3378
Spi@@ 3377
ć@@ 3374
sie 3369
Tek@@ 3368
azu 3359
chia 3358
Braz@@ 3356
rou@@ 3354
open@@ 3351
sed 3349
mbal@@ 3346
ì 3341
seau 3332
erek 3331
chr@@ 3327
beg@@ 3324
öh@@ 3323
ilim@@ 3318
Film@@ 3312
diesen 3301
lie@@ 3301
board 3298
March 3296
forman@@ 3291
sci@@ 3287
law 3284
nin 3284
ayar@@ 3282
sing 3280
chn@@ 3257
aten 3252
Anc@@ 3251
anya 3245
bourg 3244
grap@@ 3229
nah@@ 3228
¨ 3203
ă 3200
Nis@@ 3199
namo 3194
bora 3191
äl@@ 3188
Das 3187
Rech@@ 3187
sana 3179
tag 3179
été 3175
Sek@@ 3172
unde 3171
Schul@@ 3170
cou@@ 3165
lik@@ 3162
wel@@ 3160
Indian 3156
body 3156
Å@@ 3139
ident 3132
gu 3130
ü 3127
ées 3124
England 3122
zt 3121
book 3119
Ç@@ 3112
Africa 3109
Oy@@ 3107
imba 3107
μ@@ 3105
bou@@ 3104
kun@@ 3103
lek@@ 3103
mim@@ 3098
communes 3088
û@@ 3082
Album 3075
propos@@ 3072
squ@@ 3071
After 3070
utz 3067
né 3056
198@@ 3053
baz@@ 3053
self 3052
sonr@@ 3052
Bez@@ 3048
kle@@ 3046
that 3036
на 3023
izi@@ 3018
lim 3018
mah@@ 3018
ographi@@ 3015
inden 3013
eil 3012
sive 3011
fu 3004
chef 2998
Schi@@ 2990
ects 2989
small 2988
aras@@ 2986
There 2985
power 2982
Kamp@@ 2978
Yes@@ 2977
Ś@@ 2972
sav@@ 2970
endel@@ 2962
kit@@ 2960
ˈ@@ 2952
voy@@ 2950
Wir@@ 2947
і@@ 2947
kn@@ 2944
ç 2940
hen 2933
kay@@ 2933
sak@@ 2924
Institut 2919
kara 2915
style 2906
½ 2891
Army 2887
wi 2887
kum@@ 2880
aifa 2877
ń 2872
ahr@@ 2866
active 2861
usi 2859
aill@@ 2849
hin 2848
saf@@ 2845
sych@@ 2845
andes 2842
ą@@ 2835
Haus@@ 2824
eaux 2820
his 2814
At 2813
tien 2803
ã 2792
stell@@ 2790
--@@ 2780
uch 2778
Span@@ 2776
Australian 2773
ayr@@ 2764
Jah@@ 2763
erk@@ 2760
Cao 2755
febr@@ 2739
Hoch@@ 2734
utz@@ 2726
etti@@ 2724
adan 2723
Canton 2719
deven@@ 2709
ț@@ 2708
Seine 2700
ù 2698
Eis@@ 2695
stil@@ 2694
kus@@ 2687
tham 2682
Sta@@ 2679
enst@@ 2678
undi 2670
ological 2669
ê 2667
Sa 2666
cu 2661
this 2661
sous 2651
KK 2650
Gün@@ 2634
Olymp@@ 2632
197@@ 2626
anah@@ 2623
pour 2615
migu@@ 2614
Đ@@ 2614
ths 2600
Sept@@ 2597
its@@ 2595
French 2587
Ital@@ 2584
allen 2582
erst@@ 2579
hem 2572
ungs@@ 2571
isim@@ 2560
œ@@ 2559
đ@@ 2557
uko 2554
had 2545
suite 2545
led 2544
District 2538
Spiel@@ 2536
ober@@ 2529
syn@@ 2524
Schl@@ 2521
ø 2519
where 2517
Isra@@ 2516
hak@@ 2515
illes 2500
hand@@ 2497
Stra@@ 2492
Name 2491
ause 2491
ency 2490
üc@@ 2482
change 2477
malar@@ 2473
führ@@ 2472
benz@@ 2469
lub 2454
ר@@ 2452
rant 2451
death 2447
dings 2444
Ş@@ 2444
park 2441
essen 2439
tei 2437
phe 2431
Ø@@ 2431
ording 2429
α@@ 2428
aines 2424
ß 2420
ned 2419
zel@@ 2414
lik 2411
nay 2404
jum@@ 2403
sad@@ 2399
bán 2397
196@@ 2389
ì@@ 2388
bey@@ 2387
áu 2375
ż@@ 2374
א@@ 2374
orie 2370
ς 2368
tere 2364
kho@@ 2362
inning 2360
road 2359
action 2358
abu 2357
April 2355
long 2355
ʻ@@ 2355
kö@@ 2342
ilg@@ 2335
Kant@@ 2330
nationale 2329
ź 2328
rent 2327
ecture 2323
irs 2322
By 2320
ambu@@ 2299
esch@@ 2296
iken 2292
kop@@ 2292
190@@ 2289
eser@@ 2279
ա@@ 2276
stand@@ 2273
hut@@ 2270
ities 2264
point 2263
form 2260
kia 2260
lake 2257
′ 2256
thi 2252
text 2246
ège 2239
atz 2237
195@@ 2235
mission 2233
new@@ 2233
later 2228
immer 2226
vita 2225
yas@@ 2221
hips 2214
four 2213
His 2212
stand 2212
ät@@ 2211
formation 2208
dér@@ 2203
Mai 2200
elde 2197
kri@@ 2189
plus 2186
ainst 2176
Rus 2167
kap@@ 2165
ungen 2165
ő@@ 2162
rö@@ 2156
yal@@ 2151
Fren@@ 2149
leri 2147
sam 2145
מ@@ 2141
Milli@@ 2134
ô 2134
Unter@@ 2133
chem@@ 2131
eig@@ 2129
ilk 2129
ney@@ 2125
irk 2124
193@@ 2121
Des 2120
ṣ@@ 2120
wie 2118
was@@ 2117
194@@ 2114
Klo@@ 2113
icht 2112
Grou@@ 2111
ational 2109
major 2108
Burundi 2100
aille 2099
ა@@ 2099
Heim@@ 2096
arak 2095
athol@@ 2089
center 2089
ority 2081
kim@@ 2078
mich@@ 2069
ş 2066
iques 2064
align 2063
ht 2063
ool 2057
izi 2053
ück 2052
ţ@@ 2052
put 2050
conn@@ 2046
А@@ 2045
Her 2041
ª@@ 2041
coun@@ 2039
hui 2036
rom 2034
esha 2033
­ 2031
ists 2027
eben 2025
kilom@@ 2025
ogen 2025
det 2023
amu 2015
üb@@ 2014
osto 2011
вич 2008
ー@@ 2007
Zw@@ 2001
politi@@ 1998
gé@@ 1997
schule 1993
like 1992
gether 1983
Philipp@@ 1981
Î@@ 1978
liche 1969
schaft 1969
anl@@ 1964
law@@ 1962
sti 1958
mili@@ 1954
ember 1952
С@@ 1949
ament 1948
type 1946
nak@@ 1945
Anf@@ 1943
iç@@ 1942
teur 1939
BK 1936
nig 1932
Compan@@ 1930
ought 1929
tish 1928
π 1928
African 1915
Region 1909
eden@@ 1908
iku@@ 1907
rue 1906
place 1897
comm@@ 1893
ß@@ 1891
ה@@ 1887
Govern@@ 1885
fore 1885
ainer 1884
nie 1878
р@@ 1877
ב@@ 1877
iment 1871
192@@ 1866
Guin@@ 1865
Histoire 1863
équ@@ 1858
Geb@@ 1857
ograph@@ 1857
ève 1856
ischen 1854
1. 1849
eurs 1849
part 1849
brach@@ 1847
þ@@ 1847
Ü@@ 1846
Wilhel@@ 1843
inté@@ 1842
в@@ 1840
tah@@ 1837
itung 1834
iran 1833
Hung@@ 1832
ellschaft 1832
scher 1831
tek 1831
lieu 1830
main@@ 1825
tig 1825
ל@@ 1823
dans 1821
dete 1821
hii 1821
pose 1820
poste 1819
Feb@@ 1818
June 1818
meister 1810
then 1809
ehem@@ 1808
Nam 1804
angi 1802
left 1798
oire 1797
kas@@ 1794
best 1792
late 1792
German 1791
weg@@ 1786
ł 1786
й 1784
ved 1781
chini 1775
éch@@ 1773
çal@@ 1772
DNA 1771
ḥ@@ 1766
raine 1760
They 1758
wana 1758
Krieg@@ 1757
tet 1756
yal 1755
kes@@ 1752
æ 1752
Ankara 1751
å 1751
ography 1748
dur 1747
Æ@@ 1743
ṇ@@ 1742
ended 1739
home 1734
tay@@ 1734
Nieder@@ 1733
Schwe@@ 1730
ð 1729
ש@@ 1729
Zwe@@ 1727
riff 1724
iker 1722
µ@@ 1721
position 1718
À@@ 1718
biy@@ 1715
ν 1708
dies 1705
iwa 1702
mann@@ 1702
eshi 1700
many 1699
κ@@ 1699
Ab 1694
Minh 1694
aining 1692
fs 1691
vention 1691
ging 1689
Sü@@ 1687
Elle 1685
fall 1676
נ@@ 1676
Ba 1675
tries 1674
âte@@ 1672
ansa 1660
Ż@@ 1660
èle 1657
class 1656
fen 1655
ühr@@ 1655
cian 1652
uu 1647
hio 1646
β@@ 1645
vy@@ 1644
pass@@ 1643
ending 1641
atur 1640
assen 1639
elek@@ 1638
force 1638
ğ@@ 1637
alist 1636
they 1636
н 1636
yok@@ 1631
entre@@ 1630
Theo 1627
asili 1627
ი@@ 1626
Kik@@ 1624
ligh@@ 1623
union 1619
aum 1612
mittee 1611
Bü@@ 1607
inh 1607
mé 1605
dini 1603
sanat@@ 1602
xu@@ 1601
drei 1600
О@@ 1591
isen 1586
issen 1582
ʿ@@ 1581
р 1580
Adem@@ 1579
Dies@@ 1579
itation 1579
kre@@ 1578
anni@@ 1573
δ@@ 1572
sour@@ 1570
auf 1568
kis@@ 1567
sang 1567
alian 1563
ateurs 1563
geh@@ 1563
Wah@@ 1562
hau@@ 1562
films 1556
® 1555
dres 1551
bez@@ 1547
ments 1543
naf@@ 1543
hr 1540
zog 1538
fied 1537
Soh@@ 1536
date 1536
tly 1535
ös@@ 1534
colspan 1533
ologie 1532
γ@@ 1531
Hö@@ 1527
ked 1526
bü@@ 1519
ease 1518
σ@@ 1518
wah@@ 1517
kno@@ 1515
tung 1512
will 1509
ː@@ 1509
run 1508
ème 1508
premier 1505
chs 1502
zw@@ 1501
ṭ@@ 1497
pf@@ 1496
lang 1495
Virgin@@ 1494
voir 1493
Ban 1491
cour@@ 1491
partment 1490
γ 1485
unia 1483
nach 1481
Tuy 1480
front 1472
eye 1471
zur 1467
zone 1462
Dok@@ 1457
church 1455
Arth@@ 1453
2. 1452
ро@@ 1448
ός 1444
jia 1443
oren 1442
ș 1437
ements 1434
yaz@@ 1432
ǎ@@ 1428
zul@@ 1427
ν@@ 1427
retur@@ 1422
─ 1419
sey@@ 1418
werk 1418
publi@@ 1417
isches 1415
leur 1415
Sov@@ 1411
leit@@ 1411
Kib@@ 1410
chang@@ 1407
emu 1406
reste 1406
leh@@ 1405
ה 1404
ė 1402
π@@ 1402
ε 1401
là 1399
she 1399
udi 1396
Ireland 1395
scor@@ 1393
ı 1393
loss 1392
éo 1391
soft 1389
Öster@@ 1389
Geometr@@ 1386
gian 1384
tour@@ 1380
ль@@ 1379
erh@@ 1378
ip 1375
aissance 1372
commun@@ 1371
game 1368
Wash@@ 1367
mw@@ 1364
veau 1363
song 1362
aben 1361
ief 1359
due 1358
189@@ 1357
prises 1355
luy@@ 1353
η 1349
186@@ 1344
cht@@ 1344
straße 1344
в 1344
dies@@ 1338
äd@@ 1338
н@@ 1338
ン@@ 1338
Une 1336
provid@@ 1335
èg@@ 1335
wr@@ 1334
大@@ 1334
к 1333
eski 1327
Ét@@ 1327
yap@@ 1326
thu@@ 1325
τ@@ 1321
ög@@ 1319
ω 1317
् 1316
school 1315
ž 1315
kut@@ 1314
qu 1314
Best@@ 1313
Staats@@ 1313
tim 1311
version 1311
emba 1309
Δ@@ 1309
êt 1308
К@@ 1306
zum 1305
head@@ 1303
ка 1303
schen 1299
dah@@ 1298
team 1298
ï 1298
site 1297
auth@@ 1295
region 1295
ת 1295
ον 1294
lande 1293
θ 1293
monde 1292
rem 1290
àn 1290
Groß@@ 1288
umu 1288
Akadem@@ 1287
bere@@ 1287
Fak@@ 1284
ε@@ 1282
ע@@ 1278
lieb 1277
ù@@ 1277
heit 1273
й@@ 1273
lil@@ 1269
ected 1267
の@@ 1267
ı@@ 1263
phi 1262
tional 1259
Grund@@ 1255
issen@@ 1255
ד@@ 1255
ograp@@ 1254
äng@@ 1244
Bev@@ 1242
haf@@ 1241
ė@@ 1241
Ä@@ 1239
enant 1238
Mart 1236
л@@ 1236
tee 1234
full 1233
И@@ 1233
Σ@@ 1230
Deutschland 1229
bahn 1229
peu 1228
nant 1227
″ 1225
188@@ 1221
Süd@@ 1221
λ@@ 1220
feh@@ 1217
ρ@@ 1216
Kup@@ 1213
ichte 1213
platz 1211
Ayr@@ 1207
erin 1207
„ 1207
fication 1203
rail@@ 1201
syst@@ 1201
them 1201
year 1201
high 1199
speci@@ 1199
187@@ 1194
Stad@@ 1194
omen 1190
auch 1188
Α@@ 1184
kana 1183
ва 1182
ellen 1181
fang@@ 1175
reich@@ 1174
zh 1172
did 1171
ский 1171
initi@@ 1170
tik 1170
θ@@ 1169
ň@@ 1168
ample 1167
include 1165
lege 1165
television 1165
wich@@ 1165
stad@@ 1164
Κ@@ 1163
oku@@ 1162
sek 1162
λ 1162
taifa 1161
neur 1160
eure 1158
tek@@ 1157
cet 1154
sik@@ 1152
mau@@ 1151
Д@@ 1150
oyn@@ 1147
É 1147
system 1144
üm@@ 1144
д@@ 1139
city 1138
ē 1136
aş@@ 1135
İ@@ 1135
publique 1134
с@@ 1134
two 1132
èse 1131
tard 1129
ficie 1123
ρ 1123
zil@@ 1121
м@@ 1119
nach@@ 1118
bau 1116
sans 1116
евич 1116
sche@@ 1114
‎ 1112
kata 1111
una@@ 1111
about 1107
phot@@ 1107
yol@@ 1107
schw@@ 1104
yote 1104
----@@ 1101
nou@@ 1099
Ó 1097
Musik@@ 1095
essor 1094
wann 1092
atique 1091
kreis 1091
française 1090
have 1090
tains 1090
reich 1085
éti@@ 1085
kim 1084
Grün@@ 1082
Haupt@@ 1081
χ@@ 1081
3. 1080
suff@@ 1080
mak 1079
éré@@ 1078
national 1074
ded 1072
mash@@ 1072
reib@@ 1072
ľ@@ 1072
Mei 1070
ifu 1069
ifa 1065
Ein 1062
iß@@ 1062
most 1062
uzo 1062
anno@@ 1061
ם 1060
Π@@ 1058
techni@@ 1053
avant 1052
roi 1051
σ 1051
ла@@ 1050
ération 1049
ingi 1047
nom 1044
stud@@ 1044
verdi 1043
и 1042
я 1042
day@@ 1041
érie 1038
ő 1038
ə 1038
ე@@ 1036
aki@@ 1034
onnat 1030
4. 1028
inin 1028
φ@@ 1027
toba 1025
isme 1024
tam 1024
│ 1024
same 1021
trou@@ 1020
் 1019
These 1015
group 1014
δ 1014
ן 1013
ition 1012
state 1012
ь@@ 1010
schi@@ 1009
dik@@ 1007
Au 1006
grand 1006
kt@@ 1006
у@@ 1004
ɛ@@ 1003
ched 1002
ganda 1002
jou@@ 1002
rière 1000
ло@@ 999
ι 996
ּ@@ 996
П@@ 995
რ@@ 993
büt@@ 992
temps 992
Pia 991
イ@@ 988
Г@@ 987
Phi 985
Landes@@ 983
eines 983
ης 982
ί@@ 981
Zeit@@ 979
nt 979
serve 979
times 979
dak@@ 978
évol@@ 978
çe 977
Ā@@ 975
т 974
tif 972
・ 971
к@@ 967
כ@@ 967
oğlu 966
äh@@ 962
äus@@ 962
་ 962
may 961
В@@ 961
jap@@ 959
ω@@ 959
Lan 958
kub@@ 957
eş@@ 953
μ 953
endre 952
י 952
Califor@@ 950
lung 950
station 948
verl@@ 948
ι@@ 948
Т@@ 948
§ 946
équi@@ 946
gö@@ 945
о@@ 945
indi 944
umia 944
kem@@ 943
usu 943
ր@@ 942
ographie 937
Mp@@ 932
hoa 931
äs@@ 931
М@@ 931
section 928
Eins@@ 927
mt@@ 927
National@@ 926
ская 926
5. 920
ία 919
ability 918
diff@@ 914
mik@@ 914
ů@@ 914
ח@@ 914
first 913
kav@@ 912
ָ@@ 912
ი 912
Par 911
ghi 911
Λ@@ 910
ŏ@@ 908
Μ@@ 907
ecke 904
known 904
ל 902
Mittel@@ 900
ο@@ 900
were 895
model 893
ლ@@ 891
bt 890
hasa 889
after 888
lead@@ 888
ñ 887
avec 886
mab@@ 886
geri 885
ле@@ 885
osu 883
ßen 883
bed 880
made 880
eneo 879
larla 873
פ@@ 873
former 872
yet@@ 872
ո@@ 871
wur@@ 865
ibu 864
wir@@ 864
enzi 859
schrift 859
fiz@@ 858
zis@@ 858
seur 855
ɪ@@ 853
ш@@ 853
а@@ 850
ikan@@ 848
kam 847
forc@@ 846
ви@@ 846
archit@@ 843
zun@@ 843
ר 843
ished 842
writ@@ 842
riere 841
gesch@@ 840
а 840
kup@@ 839
Öz@@ 839
ラ@@ 838
ße 836
ück@@ 835
apon 832
quan 832
through 831
Τ@@ 831
Im 830
President 830
cription 829
near 829
philos@@ 829
Dez@@ 828
nouveau 827
ête 827
子 827
Geg@@ 826
Universität 826
erne@@ 826
äch@@ 825
ɔ@@ 825
ְ@@ 825
στ@@ 823
ス@@ 822
ême 821
мо@@ 820
Professor 818
с 816
auen 815
Nh@@ 814
â 814
Б@@ 811
Bür@@ 810
е 810
ký 809
ס@@ 809
tionn@@ 807
Pub@@ 804
kirche 804
т@@ 804
ŷ@@ 802
ра@@ 802
া@@ 802
gut 801
ilen 801
faire 800
Ε@@ 800
ь 799
я@@ 798
ת@@ 798
jah@@ 797
wam@@ 797
φ 797
statt 796
title 796
leich@@ 795
eln 794
Nguy@@ 793
≤ 793
champi@@ 791
homme 788
Ἀ@@ 788
ρι@@ 787
Ce 786
Tod 786
áng 786
beau@@ 785
ά@@ 784
éré 783
division 782
mf@@ 782
ри@@ 782
№ 782
6. 781
ète 781
Ḥ@@ 781
ύ@@ 780
8. 779
lichen 777
ücke 775
icht@@ 774
unden 773
octu@@ 772
pain@@ 772
kend@@ 771
span 771
υ@@ 770
thé@@ 769
ִ@@ 768
ル@@ 766
з@@ 765
ulation 764
ק@@ 764
Juli 762
tent 762
using 759
î 759
last 758
ни@@ 758
used 756
ン 756
ě 755
ко 755
isation 754
waka 754
achen 753
esses 750
ρος 749
リ@@ 749
ἀ@@ 747
zial@@ 745
ко@@ 744
yana@@ 743
Auf@@ 742
éta@@ 742
℃ 742
loi 740
ه@@ 740
ngh@@ 739
Е@@ 739
ј@@ 738
gemein@@ 735
histoire 734
ό@@ 733
ы@@ 732
ongo@@ 731
beri 730
days 729
ц@@ 729
fond@@ 728
player 728
À 727
Zentr@@ 725
deutsche 725
òn 724
ests 722
anh 721
tay 721
Politi@@ 720
Stadt@@ 720
kön@@ 718
aî@@ 715
kik@@ 714
stati@@ 714
на@@ 713
üd@@ 712
َ@@ 711
Japon 710
alien 709
г@@ 708
ַ@@ 708
aison 707
cause 706
z. 706
ân 706
Bu 705
duy 705
ın 705
ג@@ 705
west@@ 704
м 704
sort 703
ო@@ 703
kamp@@ 702
ün 702
ezi 701
Frau 698
chí 698
their 697
Bir 696
cao 695
élé@@ 693
Ν@@ 693
ered 691
ー 691
ütz@@ 690
langu@@ 687
█ 687
some 686
building 685
awa@@ 684
bang 684
ћ 684
celle 683
Ω 683
이@@ 683
ekt 682
studi@@ 682
tige 682
ッ@@ 682
ла 681
› 681
ア@@ 681
Mw@@ 680
ե@@ 680
journ@@ 679
中@@ 677
го@@ 676
л 675
October 673
Arbeit@@ 672
х@@ 672
erste 671
Mär@@ 670
football 670
chter 669
för@@ 669
bila 668
who 667
‹ 667
ح@@ 666
alled 665
ersch@@ 665
unu 665
just 664
techn@@ 663
п@@ 663
7. 661
joint 660
hud@@ 659
ნ@@ 659
ör 658
б@@ 658
isons 657
tiy@@ 656
ر@@ 656
Jahr@@ 654
äf@@ 653
ων 653
bish@@ 652
kid@@ 652
lage 652
ède 652
ре@@ 652
schaften 651
what 650
elte 649
proj@@ 649
Ò@@ 649
út@@ 649
ieder 648
istre 648
koa 647
noch 647
rece@@ 647
У@@ 647
э@@ 646
Parti 645
Александ@@ 645
coul@@ 644
до@@ 644
pression 643
uzi 643
ın@@ 643
ḍ@@ 642
Afrika 640
best@@ 640
ли@@ 639
angu 638
Н@@ 637
anst@@ 636
ağ@@ 634
ğ 634
each 633
enst 633
spor 633
αν@@ 631
τος 631
deux 630
licher 630
ն 630
July 629
mek@@ 629
της 629
მ@@ 628
Wasser@@ 627
there 626
ņ@@ 626
nde@@ 625
while 624
teilung 622
kung 621
ucu 621
which 621
д 621
mt 620
topl@@ 620
η@@ 620
Woh@@ 619
ب@@ 619
record 618
Kig@@ 616
ň 616
igt 614
ვ@@ 614
cover@@ 613
party 613
ч@@ 613
Ι@@ 612
kush@@ 611
Pour 610
û 610
toire 608
9. 607
hô@@ 607
и@@ 607
atif 606
天@@ 606
ια 604
ს@@ 604
sud 603
people 602
season 602
ев@@ 601
о 600
eyi 598
ク@@ 598
sich@@ 597
山@@ 597
но@@ 595
Lond@@ 594
sau 594
service 594
wake 592
` 591
üm 591
versit@@ 590
ο 590
Β@@ 588
Р@@ 587
Ș@@ 586
cá 584
kip@@ 584
ն@@ 584
nation@@ 582
ül 582
ди@@ 582
⟩ 582
Straße 581
kale 581
msh@@ 581
possible 580
given 579
ي 579
fahr@@ 578
lement 578
ма@@ 578
ي@@ 578
hili 577
Stadt 576
been 575
vu 575
ка@@ 573
lı 572
Ο@@ 571
went 570
Ко@@ 570
е@@ 570
fils 569
gew@@ 569
ür 568
muz 567
née 567
schluss 567
Nguyễn 566
class@@ 566
iş@@ 566
⟨ 566
ṃ@@ 565
offici@@ 564
Ö 564
нович 564
σι@@ 563
aş 562
deutscher 562
iye 562
ный 562
™ 562
around 561
بن 561
უ@@ 561
weit@@ 560
Â@@ 560
Å 558
December 557
Tanz@@ 557
father 557
ict 557
make 557
у 557
order 556
jina 552
Ка@@ 550
alité 549
only 549
ش@@ 549
auspi@@ 548
tant 548
Ма@@ 548
Flug@@ 546
sek@@ 546
Δ 546
when 545
ῖ@@ 544
making 543
ن@@ 543
ه 543
siz 542
français 540
elik 539
ungu 539
ised 538
typ@@ 538
ή 538
З@@ 538
Platz 536
Γ@@ 536
ehe 535
jour 535
studio 535
ào 535
ät 535
сь@@ 534
ım 533
κα@@ 533
games 531
illed 531
ט@@ 531
teil 530
нов 530
ǔ 528
部 527
Gür@@ 526
Leben 525
óng 525
wach@@ 523
mort 522
ζ 522
Wirt@@ 521
ewa 521
È@@ 521
ünde 521
ж@@ 521
≥ 521
Бо@@ 520
ع@@ 520
ÿ@@ 519
ή@@ 519
onu 518
ан@@ 518
ας 517
צ@@ 517
four@@ 516
tish@@ 516
sich 515
‌ 515
シ@@ 514
ἐ@@ 513
Engl@@ 512
ained 512
Er 511
puis 511
ufu 510
Ф@@ 510
schaf@@ 509
über 509
ει@@ 509
ев 509
Zeit 508
aliy@@ 508
appe@@ 508
clos@@ 508
held 508
lui 508
mess@@ 508
س@@ 508
nur 507
zuri 507
September 506
ajili 506
ʃ@@ 506
ır@@ 505
ź@@ 505
ك@@ 505
Deutschen 504
Geschichte 504
ǐ 504
oyun@@ 503
͡ 503
三@@ 503
international 501
rés@@ 501
ŭ@@ 501
ト@@ 501
kari@@ 500
і 500
ի@@ 500
vili@@ 499
Í 499
ähr@@ 499
Σ 499
ё@@ 499
November 498
≈ 498
ám 497
οι 497
Φ@@ 496
د 496
idence 495
kua 495
се@@ 495
ج@@ 495
山 495
hier 494
take 494
zeug@@ 494
öz@@ 494
та@@ 494
ة 494
zwe@@ 493
Ва@@ 493
ар@@ 493
appar@@ 492
ان 492
Form 491
Ukr@@ 491
¼ 491
за@@ 491
一@@ 491
aged 490
tigen 490
ق@@ 490
number 489
vai 489
yet 489
Я@@ 489
г 489
nete 488
yay@@ 488
ρο@@ 488
zus@@ 486
区 486
doğ@@ 485
près 485
¥ 485
Ć@@ 485
ĭ@@ 484
∞ 484
∈ 483
Gesch@@ 482
üz@@ 482
afin 481
anay@@ 481
spor@@ 481
unid@@ 481
Л@@ 481
ат@@ 481
high@@ 480
ided 480
Ø 480
‏ 480
ل@@ 479
Böl@@ 478
allem@@ 478
Entw@@ 477
не@@ 477
hali 475
atta@@ 473
kwa 473
again 472
huo 471
ʾ@@ 471
Со@@ 471
во@@ 471
ւ@@ 471
ル 471
王@@ 470
abab@@ 468
αλ@@ 468
ა 468
isine 467
three 467
по@@ 466
άν@@ 464
新@@ 464
gique 463
muz@@ 463
issu@@ 462
drit@@ 461
family 461
Über@@ 461
Влади@@ 461
յ@@ 461
dok@@ 460
utsch@@ 460
ικ@@ 460
Machi 459
Oly@@ 459
tete 459
Χ@@ 459
ве@@ 459
са@@ 459
luk 457
such 457
ť 457
ρα@@ 457
ბ@@ 457
ṛ@@ 456
タ@@ 456
Bei 454
guerre 454
wala 454
フ@@ 453
ť@@ 452
市 452
日@@ 452
election 451
grou@@ 451
Алек@@ 451
レ@@ 451
Yıl@@ 450
short 449
ξ 449
カ@@ 449
小@@ 449
onya 448
Ми@@ 448
্ 448
commer@@ 447
ǐ@@ 447
years 446
南@@ 446
isho 445
ét 445
Hindi 444
έ@@ 444
wani 443
τ 443
￼ 443
scienti@@ 442
études 442
李@@ 442
ва@@ 441
ен@@ 439
vom 438
Fuß@@ 437
centre 437
ス 437
être 436
ɛ 436
со@@ 436
ジ@@ 436
hata 435
along 434
inner@@ 434
ük@@ 434
course 433
nung 433
pour@@ 433
wissen@@ 433
ś 433
Во@@ 433
国@@ 433
ная 432
ロ@@ 432
zeit 431
fak@@ 430
ти@@ 430
县 430
ми@@ 429
マ@@ 429
schaft@@ 428
öch@@ 428
ɑ@@ 428
На@@ 428
seh@@ 427
Lebens@@ 426
ouver@@ 426
tür@@ 426
featur@@ 424
pays 424
said 424
Ан@@ 424
то@@ 424
buil@@ 423
ngo@@ 423
species 423
Ю@@ 423
่ 423
nord@@ 422
ру@@ 422
ז@@ 422
ên 421
По@@ 421
م@@ 421
김@@ 421
Kenya 420
envir@@ 420
inay@@ 420
ερ@@ 420
ük 419
το@@ 419
wali@@ 418
ř 418
га 418
ков 418
ز@@ 418
uç@@ 417
anischen 416
¹ 416
ֹ@@ 416
Verein@@ 415
nicht 415
Ц@@ 415
faz@@ 414
khi 414
second 414
ık 414
ǔ@@ 414
ِ@@ 414
თ@@ 414
文@@ 414
Việt 413
Auch 412
ى 412
♭ 412
海@@ 412
eyal@@ 411
nouvelle 411
κ 411
დ@@ 411
imani 410
ξ@@ 410
ψ 410
ḷ@@ 410
änd@@ 409
東@@ 409
II. 406
Kongo 406
aliste 406
ently 406
де@@ 406
cours 405
oldu@@ 404
with@@ 404
Бе@@ 404
ба@@ 404
محمد 404
jaw@@ 403
based 402
Zu 401
leurs 401
ık@@ 401
си@@ 401
د@@ 401
本@@ 401
ال@@ 400
ickl@@ 399
recher@@ 399
rek@@ 399
αρ@@ 399
αι@@ 398
λι@@ 397
Серге@@ 397
ги@@ 397
國@@ 397
schafts@@ 396
Juni 394
million 394
خ@@ 394
ド@@ 394
ου 393
Ligi 392
génér@@ 392
points 392
Са@@ 392
да@@ 392
̃ 391
format 390
ῶ@@ 390
～ 390
西@@ 388
half 387
ánh 387
Θ@@ 387
い@@ 387
kea 386
ously 386
ْ@@ 386
át 385
Verein 384
ations@@ 383
einen 383
six 383
ɣ@@ 383
ра 383
ὐ@@ 383
金@@ 383
pek@@ 382
vard@@ 382
ır 382
‰ 382
во 381
ف@@ 381
高@@ 381
appro@@ 380
améric@@ 379
found@@ 379
田@@ 379
ôn 378
⁄ 378
onge@@ 377
duk@@ 376
üng@@ 376
üst@@ 375
ἰ@@ 375
Lehr@@ 374
atives 374
wap@@ 374
innen 373
λλ@@ 373
ου@@ 373
Ви@@ 373
бо@@ 373
uş@@ 372
Х@@ 371
quay 370
га@@ 370
fait 369
Á 369
deutsch@@ 368
quali@@ 368
τι@@ 368
design 367
tout 367
ров@@ 367
anderen 366
Э@@ 366
א 366
‑ 366
Welt@@ 365
kama 365
ρά@@ 365
க@@ 365
ψ@@ 364
Teil@@ 363
tische 363
ζ@@ 363
ط@@ 363
് 363
jour@@ 362
Ngo@@ 360
history 360
да 360
バ@@ 360
lili@@ 359
ʼ@@ 359
не 359
altung 358
ر 358
● 357
without 356
北@@ 356
zeh@@ 355
ünst@@ 355
ṅ@@ 355
zey@@ 354
zug@@ 354
ġ@@ 354
ტ@@ 354
， 354
imu 353
pou@@ 353
would 353
太@@ 353
still 352
ĕ@@ 352
س 352
Guerre 351
esine 351
adhi 350
ihr 350
Ч@@ 350
Ш@@ 350
came 349
ʃ 349
ț 348
ɔ 348
χ 348
Пет@@ 348
рий 348
ֵ@@ 348
ḥ 348
ト 348
afu 347
next 347
thu 347
გ@@ 347
ს 347
amii 346
seinen 346
Tür@@ 345
ofu 345
⊕ 345
between 344
ehen 344
Ə@@ 344
テ@@ 344
ebil@@ 343
mois 343
ы 343
道 343
during 342
Ρ@@ 342
бе@@ 342
level 341
jeu 340
teurs 340
ız 340
şehir 340
人 339
Auf 338
် 338
õ 337
ǒ@@ 337
Ле@@ 337
з 337
ῆ@@ 337
キ@@ 337
ﬁ@@ 337
Ağ@@ 336
érieur 336
να@@ 336
мир 336
ا 336
ா@@ 336
ῦ@@ 336
↑ 336
」 336
ὶ 335
「 335
Allem@@ 334
Hồ 334
company 334
ď@@ 334
αυ@@ 334
kuz@@ 333
tous 333
trois 333
ص@@ 333
Meister@@ 332
quy 332
ached 331
before 331
та 331
☆ 331
子@@ 331
王 331
Thanh 330
hari@@ 330
Ку@@ 330
mev@@ 329
nombre@@ 329
some@@ 329
≫ 329
verw@@ 328
ıl@@ 328
Ру@@ 328
ний 328
≠ 328
Türk 327
ɡ@@ 327
άλ@@ 327
な@@ 327
公@@ 327
្ 326
donn@@ 325
ч 325
≪ 325
akt@@ 324
bind@@ 324
contre 324
dogo 324
origine 324
≡ 324
teh@@ 323
ї@@ 323
ֶ@@ 323
م 323
но 322
و 322
上@@ 322
神@@ 322
zey 321
Ба@@ 321
տ@@ 321
인@@ 321
office 320
ц 320
ἄ@@ 320
μα 319
ον@@ 319
Osman@@ 318
ελ@@ 318
Dans 317
Trần 317
ác 317
ль 317
ор@@ 317
Ра@@ 316
Forsch@@ 315
being 315
ehir 315
partement 315
¬ 315
Ар@@ 315
五@@ 315
sent 314
ħ@@ 314
ме@@ 314
encore 313
ί 313
น@@ 313
ィ@@ 312
Akad@@ 311
кий 311
па@@ 311
ב 311
♯ 311
し@@ 311
Ende 310
yao 310
Ж@@ 310
ав@@ 310
би@@ 310
че@@ 310
安@@ 310
mais 309
sö@@ 309
ি@@ 309
კ@@ 309
Ṣ@@ 309
Mitte 308
classi@@ 308
fü@@ 308
zeich@@ 308
εν@@ 308
propri@@ 307
¢ 307
ού@@ 307
Ро@@ 307
⋅ 307
Ayn@@ 306
Paşa 306
contribut@@ 306
waf@@ 306
ακ@@ 306
January 305
ikia 305
neh@@ 305
women 305
オ@@ 305
Janu@@ 304
einem 304
الع@@ 304
田 304
ennen 303
أ@@ 303
kuf@@ 302
nte 302
ız@@ 302
Œ@@ 302
С 302
ге@@ 302
те@@ 302
deren 301
kuj@@ 301
poin@@ 301
შ@@ 301
Grenz@@ 300
人@@ 300
could 299
trä@@ 299
đ 299
ров 299
ხ@@ 299
ingt 298
national@@ 298
ώ@@ 298
ер@@ 298
х 298
pili 297
race 297
ʾ 297
ос@@ 297
‐ 297
language 296
ÿ 296
ŋ@@ 296
ски 296
ст@@ 296
Eine 295
quot@@ 295
yeri 295
Ñ 295
Ŷ@@ 295
αγ@@ 295
ḫ@@ 295
Kati 294
Türkiye 294
foot@@ 294
member 294
¾ 294
ŋ 294
λε@@ 294
μα@@ 294
ф@@ 294
้ 294
ası 293
ļ@@ 293
Ľ@@ 293
За@@ 293
huri 292
keit 292
luk@@ 292
milli@@ 292
nh 292
ρα 292
ск 292
Gruppe 291
Văn 291
ασ@@ 291
ו 291
ウ@@ 291
culture 290
ব@@ 290
ி@@ 290
soll 289
ż 289
ʰ@@ 289
са 289
ʿ 288
kuh@@ 287
mpi@@ 287
ков@@ 287
サ@@ 287
ʲ@@ 286
Ива@@ 286
会@@ 286
城 286
白@@ 286
όν@@ 285
ин@@ 285
ⴰ@@ 285
か@@ 285
エ@@ 285
Verw@@ 284
differ@@ 284
sociation 284
tiki 284
К 284
Anh 283
الح@@ 283
ミ@@ 283
ャ@@ 283
örd@@ 282
ки 282
ля@@ 282
์ 282
beit@@ 281
formed 281
succ@@ 281
ب 281
غ@@ 281
া 281
Sơn 280
Се@@ 280
ا@@ 280
ت@@ 280
associ@@ 279
dung 279
ohne 279
ד 279
را@@ 279
ق 279
chung 278
Gemein@@ 277
against 277
event 277
կ@@ 277
Sohn 276
umani 276
τα@@ 276
хо@@ 276
ナ@@ 276
Sau 275
inah@@ 275
production 275
ма 275
deutschen 274
geg@@ 274
ις 274
之@@ 274
美@@ 274
Bürger@@ 273
nun 273
sehen 273
Đại 273
Ț@@ 273
ُ@@ 273
pendant 272
Мо@@ 272
ки@@ 272
平@@ 272
江@@ 272
İz@@ 271
عبد 270
alı 269
deut@@ 269
mek 269
λος 269
Bình 268
Kif@@ 268
dire@@ 268
modern 268
moja 268
zentr@@ 268
ста@@ 268
و@@ 268
jeun@@ 267
ŷ 267
ду@@ 267
الق@@ 267
た@@ 267
武@@ 267
auti 266
kiye 266
θος 265
να 265
Fahr@@ 264
Ü 264
ų 264
чи@@ 264
த@@ 264
ệm 264
áo 263
ʊ@@ 263
ت 263
ე 263
aç 262
äre 262
öff@@ 262
ą 262
스@@ 262
àng 261
ل 261
☉ 261
ん 261
Amerika 260
δι@@ 260
ιος 260
ων@@ 260
州 260
early 259
ǎ 259
ɾ@@ 259
ế 259
学@@ 259
kuna 258
èmes 258
ս@@ 258
コ@@ 258
京@@ 258
道@@ 258
onship 257
septi@@ 257
âm 257
Liste 256
aiss@@ 256
nouv@@ 256
scheid@@ 256
δρ@@ 256
デ@@ 256
ately 255
ismus 255
ispi@@ 255
ʒ@@ 255
άρ@@ 255
ών 255
ю@@ 255
ảng 255
ニ@@ 255
パ@@ 255
式@@ 255
Besch@@ 254
Haup@@ 254
Γ 254
Φ 254
πο@@ 254
А 254
明@@ 254
général 253
those 253
vile 253
ông 253
İn@@ 253
র@@ 253
ん@@ 253
物@@ 253
チ@@ 252
trieb@@ 251
âce 251
Ա@@ 251
dows 250
ically 250
étu@@ 250
ôle 250
一 250
十@@ 250
Weit@@ 249
ensemble 249
köy 249
الش@@ 249
和@@ 249
林@@ 249
stanbul 248
État 248
ài 248
ες 248
ية 248
← 248
Türk@@ 247
πι@@ 247
όν 247
정@@ 247
Hàn 246
Миха@@ 246
Об@@ 246
ш 246
い 246
き@@ 246
女@@ 246
리@@ 246
Baş@@ 245
Indon@@ 245
ıy@@ 245
ал@@ 245
ল@@ 245
Yeni 244
nord 244
óa 244
ά 244
Но@@ 244
إ@@ 244
الم@@ 244
り@@ 244
άκ@@ 243
الله 243
的@@ 243
five 242
fte 242
الج@@ 242
ু@@ 242
₹ 242
う@@ 242
ラ 242
ived 241
teil@@ 241
θε@@ 241
Никола@@ 241
сла@@ 241
ی 241
sett@@ 240
yük 240
Č 240
̀ 240
ίν@@ 240
ammen 239
found 239
Васи@@ 239
Мар@@ 239
нова 239
сто@@ 239
ர@@ 239
グ@@ 239
ogle 238
ů 238
ιν@@ 238
мит@@ 238
自@@ 238
花@@ 238
aşa 237
İs@@ 237
家@@ 237
水@@ 237
Hoa 236
© 236
νη 236
τα 236
ха@@ 236
と@@ 236
社 236
information 235
ري@@ 235
़ 235
대@@ 235
λα@@ 234
ку@@ 234
ска 234
ше@@ 234
ի 234
♥ 234
Kır@@ 233
bö@@ 233
enfants 233
siy@@ 233
Ú 233
Ř@@ 233
Ев@@ 233
лов 233
√ 233
四@@ 233
지@@ 232
Có 231
ار 231
ு@@ 231
Meter 230
erung 230
grub@@ 230
released 229
ׁ@@ 229
cô@@ 228
ihn 228
who@@ 228
Ω@@ 228
Андре@@ 228
До@@ 228
ম@@ 228
ích 227
έν@@ 227
Не@@ 227
ハ@@ 227
한@@ 227
coi 226
fik@@ 226
large 226
Ē@@ 226
ʔ@@ 226
μος 226
Па@@ 226
щи@@ 226
↔ 226
première 225
ρί@@ 225
ли 225
く@@ 225
モ@@ 225
民@@ 225
khi@@ 224
nje 224
Де@@ 224
миро@@ 224
ま@@ 224
트 224
Nha 223
ersten 223
lerin 223
lý 223
uzak@@ 223
Ά@@ 223
ατ@@ 223
ம@@ 223
development 222
elected 222
lere 222
tourn@@ 222
verk@@ 222
ง@@ 222
stellung 221
these 221
waz@@ 221
Ţ@@ 221
ίδ@@ 221
մ@@ 221
メ@@ 221
franç@@ 220
Η@@ 220
ע 220
র 220
appear@@ 219
chte 219
ämp@@ 219
О 219
ро 219
بي@@ 219
ihr@@ 218
̣ 218
І@@ 218
рина 218
گ@@ 218
ち@@ 218
Sein 217
durch 217
ـ@@ 217
ὁ 217
ダ@@ 217
children 216
commune 216
kent@@ 216
present 216
third 216
ít 216
кова 216
ник 216
ド 216
ブ@@ 216
島 216
青@@ 216
엔@@ 216
터@@ 216
maç@@ 215
Да@@ 215
ство 215
ảo 215
charac@@ 214
famil@@ 214
much 214
ɨ@@ 214
Ки@@ 214
нов@@ 214
emble 213
trag 213
ˌ@@ 213
ское 213
ப@@ 213
木@@ 213
石@@ 213
particu@@ 212
ǫ@@ 212
ομ@@ 212
ши@@ 212
ف 212
जिला 212
ュ@@ 212
郎 212
program 211
économ@@ 211
бу@@ 211
ា@@ 211
├ 211
年@@ 211
국@@ 211
Ἰ@@ 210
園 210
ʁ@@ 209
̯ 209
гор@@ 209
ни 209
お@@ 209
さ@@ 209
ク 209
不@@ 209
地@@ 209
Als 208
autres 208
père 208
ло 208
ъ 208
ased 207
dül@@ 207
prak@@ 207
route 207
ισ@@ 207
ди 207
лен@@ 207
он@@ 207
ძ@@ 207
Ἐ@@ 207
川@@ 207
another 206
beit 206
ôt 206
ορ@@ 206
வ@@ 206
有@@ 206
üş@@ 205
ţ 205
Υ@@ 205
пе@@ 205
ци@@ 205
ம 205
八@@ 205
autre 204
engine 204
öst@@ 204
ην@@ 204
ქ@@ 204
の 204
community 203
gez@@ 203
quatre 203
ũ@@ 203
城@@ 203
行 203
comme 202
fand 202
sind 202
yük@@ 202
ätz@@ 202
ευ@@ 202
国 202
ę 201
ής 201
лу@@ 201
แ@@ 201
、 201
où 200
çu 200
ρε@@ 200
ℓ 200
Bere@@ 199
atao 199
both 199
régi@@ 199
εία 199
Го@@ 199
лий 199
ار@@ 199
少@@ 199
이 199
（ 199
Kirche 198
Mit 198
politique 198
аль@@ 198
Λ 197
Нико@@ 197
رو@@ 197
아@@ 197
haup@@ 196
κος 196
ḏ@@ 196
ṭ 196
ガ@@ 196
ム 196
endant 195
çi 195
τρ@@ 195
사@@ 195
arbeit@@ 194
üf@@ 194
του 194
вет@@ 194
ين 194
រ@@ 194
ị 194
村 194
February 193
Mais 193
century 193
αμ@@ 193
Пе@@ 193
あ@@ 193
光@@ 193
먼@@ 193
테@@ 193
après 192
sont 192
äu@@ 192
ολ@@ 192
Сер@@ 192
Су@@ 192
್ 192
ぶ 192
プ@@ 192
Ġ@@ 191
кто@@ 191
） 191
professi@@ 190
üne 190
İstanbul 190
ур@@ 190
└ 190
は@@ 190
川 190
linal@@ 189
wirt@@ 189
κο@@ 189
ργ@@ 189
ό 189
Ха@@ 189
ק 189
ア 189
fäl@@ 188
ihe 188
signed 188
ŭ 188
ικός 188
生@@ 188
陳@@ 188
Lý 187
région 187
ɪ 187
κλ@@ 187
Бу@@ 187
Та@@ 187
Α 186
Περ@@ 186
ש 186
أبو 186
堂 186
生 186
droit 185
jours 185
sao 185
vur@@ 185
written 185
σκ@@ 185
Ни@@ 185
му@@ 185
си 185
сть 185
় 185
张@@ 185
alipo@@ 184
prés@@ 184
ìn 184
ɑ 184
Ν 184
Ла@@ 184
لي@@ 184
ར@@ 184
ῦ 184
ァ@@ 184
立@@ 184
alten 183
meil@@ 183
zeu@@ 183
ım@@ 183
ми 183
ния 183
пи@@ 183
空@@ 183
isant 182
οφ@@ 182
ان@@ 182
。 182
る 182
ョ@@ 182
二@@ 182
bâ@@ 181
called 181
north 181
Ğ@@ 181
Си@@ 181
хи@@ 181
ца 181
▪ 181
る@@ 181
ム@@ 181
khu 180
lerini 180
lég@@ 180
üler 180
Θε@@ 180
су@@ 180
Հ@@ 180
イ 180
Rück@@ 179
Sie 179
ίας 179
ве 179
լ@@ 179
ὰ 179
り 179
方@@ 179
正@@ 179
Agosti 178
µ 178
ương 178
απ@@ 178
ική 178
πος 178
ως 178
ман 178
ش 178
ور 178
こ@@ 178
 178
kiş@@ 177
ları 177
Δι@@ 177
ное 177
ү@@ 177
վ@@ 177
ক@@ 177
জ@@ 177
₩ 177
株@@ 177
Nach 176
allow@@ 176
arı 176
hadi 176
rement 176
village 176
ச@@ 176
ェ@@ 176
九@@ 176
長@@ 176
박@@ 176
Jahre 175
St. 175
elten 175
kati@@ 175
ände 175
και 175
όσ@@ 175
зо@@ 175
слав 175
ὸ@@ 175
∗ 175
besch@@ 174
bà 174
lichkeit 174
εύ@@ 174
Про@@ 174
म@@ 174
ོ@@ 174
东@@ 174
華@@ 174
의 174
fass@@ 173
trí 173
tä@@ 173
И 173
лек@@ 173
《 173
ズ 173
ビ@@ 173
조@@ 173
kij@@ 172
và 172
était 172
üre@@ 172
έρ@@ 172
Ре@@ 172
ск@@ 172
₂ 172
文 172
神 172
阿@@ 172
주@@ 172
ported 171
ƒ 171
Ζ@@ 171
γαλ@@ 171
мен@@ 171
тина 171
اب@@ 171
بن@@ 171
ন@@ 171
》 171
会 171
周@@ 171
Proz@@ 170
yü@@ 170
óm 170
εφαλ@@ 170
μέ@@ 170
То@@ 170
با@@ 170
ك 170
ら@@ 170
張@@ 170
月@@ 170
皇@@ 170
gek@@ 169
meister@@ 169
гу@@ 169
нато@@ 169
њ@@ 169
ে@@ 169
ზ@@ 169
に@@ 169
真@@ 169
mà 168
élec@@ 168
νης 168
σα 168
ών@@ 168
Укра@@ 168
ти 168
ّ@@ 168
ܐ 168
世@@ 168
藤@@ 168
Bahari 167
COVI@@ 167
Zus@@ 167
role 167
tlich 167
ıl 167
Ō 167
Рес@@ 167
жа@@ 167
الأ@@ 167
ح 167
ون 167
州@@ 167
野@@ 167
성@@ 167
département 166
İl@@ 166
εια 166
б 166
за 166
льный 166
пу@@ 166
ذ@@ 166
Nga 165
ambao 165
iliy@@ 165
trai 165
zeit@@ 165
ʔ 165
υ 165
الس@@ 165
า@@ 165
ịnh 165
ノ@@ 165
According 164
finale 164
grund 164
haa 164
otball 164
Ал@@ 164
Га@@ 164
ن 164
abei 163
aliye@@ 163
atika 163
cette 163
malar 163
В 163
ры@@ 163
الك@@ 163
প@@ 163
ủ 163
主@@ 163
劉@@ 163
美 163
신@@ 163
kehr@@ 162
Ста@@ 162
ր 162
ع 162
馬@@ 162
όρ@@ 161
Му@@ 161
ча@@ 161
ม@@ 161
河@@ 161
different 160
ũ 160
М 160
ך 160
ท@@ 160
治@@ 160
20. 159
Unis 159
because 159
govern@@ 159
ortho@@ 159
tions@@ 159
Ī@@ 159
ű@@ 159
ưng 159
лов@@ 159
ج 159
ட@@ 159
བ@@ 159
★ 159
中国@@ 159
akini 158
wenda 158
Ј@@ 158
род@@ 158
بر@@ 158
セ@@ 158
吉@@ 158
教@@ 158
charg@@ 157
coup 157
tionen 157
οδ@@ 157
των 157
он 157
ন 157
原@@ 157
春@@ 157
陈@@ 157
Hà 156
andere 156
même 156
nda 156
жи@@ 156
об@@ 156
গ@@ 156
ῥ@@ 156
wenn 155
Αν@@ 155
Р 155
али@@ 155
ба 155
ева 155
љ@@ 155
ὑ@@ 155
‒ 155
つ@@ 155
寺 155
松@@ 155
福@@ 155
larda 154
öne@@ 154
ʂ@@ 154
εί@@ 154
Ме@@ 154
ю 154
Ս@@ 154
գ@@ 154
ير 154
ἔ@@ 154
大 154
江 154
도 154
lagen 153
mondi@@ 153
since 153
sitz@@ 153
Đồng 153
У 153
الخ@@ 153
Ṭ@@ 153
ὀ@@ 153
민@@ 153
south 152
òng 152
Росси@@ 152
ле 152
都@@ 152
黄@@ 152
동@@ 152
edrich 151
jini 151
umri 151
út 151
Гри@@ 151
Николай 151
же@@ 151
য 151
ṯ@@ 151
urch 150
wanza 150
όλ@@ 150
лы@@ 150
っ@@ 150
語 150
軍 150
通@@ 150
도@@ 150
하@@ 150
lise 149
setz@@ 149
tatu 149
within 149
öß@@ 149
ज 149
ས 149
千@@ 149
女 149
書 149
district 148
öster@@ 148
Đức 148
Π 148
μι@@ 148
ке 148
يد 148
ܝ@@ 148
ܟ@@ 148
ག@@ 148
が@@ 148
み@@ 148
元@@ 148
시@@ 148
europé@@ 147
kül@@ 147
tesi 147
ķ@@ 147
˚ 147
πλ@@ 147
τη 147
Сте@@ 147
ге 147
сти@@ 147
ша@@ 147
Մ@@ 147
ی@@ 147
र@@ 147
士 147
永@@ 147
Trung 146
ağı 146
published 146
trat 146
ˁ@@ 146
χν@@ 146
э 146
الد@@ 146
్ 146
မ@@ 146
古@@ 146
戦@@ 146
法@@ 146
行@@ 146
among 145
đa 145
ɨ 145
آ@@ 145
الب@@ 145
رة 145
ত@@ 145
ང 145
Ἄ@@ 145
我@@ 145
ꞌ@@ 145
수@@ 145
biri 144
miembr@@ 144
occas@@ 144
υσ@@ 144
Те@@ 144
про@@ 144
دي 144
ด@@ 144
ボ@@ 144
部@@ 144
제@@ 144
angla@@ 143
eleri 143
klär@@ 143
support 143
ɒ@@ 143
ʽ@@ 143
зи@@ 143
кин 143
ция 143
لا@@ 143
ိ@@ 143
ọ 143
♦ 143
ケ@@ 143
明 143
baş@@ 142
üçük 142
よ@@ 142
원 142
died 141
wao 141
yapan 141
úc 141
доро@@ 141
лена 141
лю@@ 141
مي@@ 141
হ@@ 141
기@@ 141
esini 140
services 140
Ве@@ 140
ח 140
ט 140
الن@@ 140
木 140
develop@@ 139
esab@@ 139
gün 139
tischen 139
ually 139
 139
ŵ@@ 139
ст 139
фа@@ 139
ша 139
թ@@ 139
ס 139
وا@@ 139
星@@ 139
本 139
清@@ 139
19. 138
Produk@@ 138
fut 138
parti 138
woh@@ 138
դ@@ 138
اس@@ 138
ز 138
স@@ 138
ห 138
成@@ 138
mise 137
ʒ 137
̪ 137
ղ@@ 137
ک@@ 137
も@@ 137
漢@@ 137
社@@ 137
黃@@ 137
스 137
fois 136
ʊ 136
άς 136
Ду@@ 136
Я 136
ту@@ 136
чен@@ 136
ө@@ 136
ܡ@@ 136
ṣ 136
島@@ 136
無@@ 136
町 136
門 136
선@@ 136
Chuo 135
including 135
wezi 135
ách 135
Š 135
έλ@@ 135
αθ@@ 135
龍@@ 135
assist@@ 134
oğ@@ 134
tainment 134
ĩ@@ 134
ɕ@@ 134
μπ@@ 134
τά@@ 134
το 134
ಾ@@ 134
ေ@@ 134
⅓ 134
리 134
우@@ 134
유@@ 134
Für 133
lte 133
réalis@@ 133
though 133
unzi 133
áp 133
με@@ 133
ет@@ 133
宮@@ 133
愛@@ 133
院 133
ileri 132
leich 132
ξι@@ 132
όδ@@ 132
санд@@ 132
দ@@ 132
ἴ@@ 132
서@@ 132
kez@@ 131
ış 131
ɾ 131
τερ@@ 131
При@@ 131
Чер@@ 131
Ша@@ 131
ля 131
қ@@ 131
ام@@ 131
پ@@ 131
ܘ@@ 131
ยา@@ 131
ც@@ 131
〜 131
下@@ 131
市@@ 131
œuvre 130
παρ@@ 130
χος 130
Констан@@ 130
дар@@ 130
ж 130
се 130
ской 130
ха 130
ֲ@@ 130
ὄ@@ 130
⎯ 130
き 130
中 130
帝 130
고@@ 130
gegen 129
period 129
until 129
wilaya 129
άδ@@ 129
κύ@@ 129
λογ@@ 129
υπ@@ 129
Иван 129
ке@@ 129
ны 129
سي@@ 129
र 129
ὸ 129
之 129
井@@ 129
台@@ 129
天 129
法 129
ient 128
mch@@ 128
named 128
quy@@ 128
vek@@ 128
óc 128
ʼ 128
θη@@ 128
Вла@@ 128
ня 128
п 128
ские 128
ў 128
リ 128
六@@ 128
唐@@ 128
Thái 127
gün@@ 127
kuli@@ 127
organis@@ 127
wango 127
ßen@@ 127
стро@@ 127
բ@@ 127
من@@ 127
ស@@ 127
原 127
百@@ 127
juu 126
lors 126
wech@@ 126
δρο@@ 126
κυ@@ 126
υμ@@ 126
υν@@ 126
Ти@@ 126
мов 126
то 126
це@@ 126
َ 126
ย@@ 126
七@@ 126
河 126
기 126
다 126
δε@@ 125
λέ@@ 125
ктор 125
ня@@ 125
от@@ 125
є@@ 125
ས@@ 125
ヴ@@ 125
合@@ 125
场 125
海 125
나@@ 125
minh 124
seit 124
ʌ@@ 124
ίκ@@ 124
ίσ@@ 124
τον 124
τυ@@ 124
ώ 124
ў@@ 124
ץ 124
ẓ@@ 124
∧ 124
し 124
伊@@ 124
利@@ 124
玉@@ 124
장@@ 124
Bắc 123
Ô 123
из@@ 123
مان 123
َّ@@ 123
ܪ@@ 123
ชา@@ 123
ད@@ 123
ἱ@@ 123
み 123
郡 123
라@@ 123
Kön@@ 122
elerin 122
enek@@ 122
ihm 122
udur 122
ŕ@@ 122
άρι@@ 122
μβ@@ 122
вя@@ 122
ит@@ 122
اد@@ 122
刘@@ 122
Mỹ 121
awala 121
famille 121
government 121
 121
ình 121
über@@ 121
ǧ@@ 121
̥ 121
άγ@@ 121
ты@@ 121
ض@@ 121
مو@@ 121
ி 121
ാ@@ 121
う 121
で@@ 121
族@@ 121
arded 120
ayı 120
defe@@ 120
iert 120
ilik 120
lü@@ 120
nói 120
 120
ɲ@@ 120
αστ@@ 120
υλ@@ 120
Пре@@ 120
ட 120
პ@@ 120
ფ@@ 120
ṃ 120
anistan 119
crit 119
wegen 119
wür@@ 119
Ψ 119
αρχ@@ 119
ιλ@@ 119
στι@@ 119
τε@@ 119
ско 119
сь 119
тин 119
ть 119
ча 119
հ@@ 119
اء 119
مر@@ 119
ರ@@ 119
อุ@@ 119
ု@@ 119
ო 119
を@@ 119
會 119
오@@ 119
14. 118
Nguyên 118
Unternehmen 118
played 118
série 118
υρ@@ 118
го 118
тов 118
ә@@ 118
ல@@ 118
グ 118
國 118
月 118
전@@ 118
Dương 117
ailleurs 117
uvu 117
wird 117
Θ 117
Б 117
Геор@@ 117
Мак@@ 117
ս 117
င 117
ὰ@@ 117
て@@ 117
れ@@ 117
大学 117
志 117
香@@ 117
가@@ 117
kann 116
Κα@@ 116
γκ@@ 116
οχ@@ 116
ников 116
اد 116
ال 116
ند@@ 116
چ@@ 116
全@@ 116
工@@ 116
科@@ 116
野 116
ationen 115
forces 115
political 115
werden 115
Β 115
Νικ@@ 115
Παν@@ 115
πολι@@ 115
στο@@ 115
τέ@@ 115
пар@@ 115
публика 115
ри 115
ского 115
في 115
مة 115
す@@ 115
林 115
Menschen 114
acı 114
direction 114
eviz@@ 114
ак@@ 114
ной 114
، 114
الص@@ 114
دة 114
ม 114
ⵉ@@ 114
ソ@@ 114
ナ 114
家 114
御@@ 114
心@@ 114
志@@ 114
花 114
상@@ 114
수 114
dır@@ 113
few 113
uwe@@ 113
Ð@@ 113
ği 113
ίων 113
ισσ@@ 113
Лю@@ 113
СССР 113
чу@@ 113
ᾶ@@ 113
じ@@ 113
ベ@@ 113
谷@@ 113
경@@ 113
교 113
성 113
소@@ 113
construction 112
liği 112
travail 112
αί@@ 112
βι@@ 112
οι@@ 112
τη@@ 112
Ге@@ 112
ного 112
ז 112
ף 112
أحمد 112
ला 112
ུ@@ 112
公司 112
化@@ 112
平 112
音 112
館 112
미@@ 112
주 112
anyika 111
déf@@ 111
preu@@ 111
took 111
église 111
ĭ 111
Φιλ@@ 111
στρ@@ 111
зе@@ 111
по 111
рай@@ 111
ре 111
ћ@@ 111
ور@@ 111
南 111
德@@ 111
长@@ 111
화@@ 111
Eyl@@ 110
weng@@ 110
époque 110
ĩnh 110
οί 110
σσ@@ 110
τρο@@ 110
лина 110
جب@@ 110
فر@@ 110
نا@@ 110
ก@@ 110
น 110
ြ@@ 110
ゴ@@ 110
星 110
水 110
重@@ 110
진@@ 110
alik@@ 109
appel@@ 109
ildi 109
letz@@ 109
ùng 109
οσ@@ 109
πρ@@ 109
τί@@ 109
ние 109
ные 109
ام 109
علي 109
ய@@ 109
ว@@ 109
ひ@@ 109
夏@@ 109
영@@ 109
einz@@ 108
ennent 108
grün@@ 108
imeh@@ 108
société 108
ßer@@ 108
ʷ@@ 108
Кар@@ 108
شا@@ 108
ما@@ 108
ود 108
ા@@ 108
ர 108
წ@@ 108
え@@ 108
光 108
聖@@ 108
chaque 107
präs@@ 107
Ê@@ 107
änge 107
ɐ 107
ɣ 107
̄ 107
Κύ@@ 107
άσ@@ 107
κά@@ 107
ф 107
الت@@ 107
∠ 107
ゃ@@ 107
ポ@@ 107
安 107
時@@ 107
里@@ 107
阳@@ 107
Hoàng 106
Hòa 106
dass 106
gebiet 106
population 106
ğr@@ 106
̟ 106
Η 106
ρυ@@ 106
Г 106
ница 106
пор@@ 106
زي@@ 106
عة 106
त 106
द 106
ര@@ 106
ာ@@ 106
だ@@ 106
ヒ@@ 106
ワ@@ 106
手@@ 106
朱@@ 106
歌 106
무@@ 106
aussi 105
huu 105
Ι 105
δος 105
λόγ@@ 105
ман@@ 105
ран@@ 105
لو@@ 105
يم 105
म 105
ติ@@ 105
พ@@ 105
Ἑ@@ 105
░ 105
ツ@@ 105
ピ@@ 105
代@@ 105
植@@ 105
特@@ 105
보@@ 105
어@@ 105
ABD 104
ammen@@ 104
seine 104
seph 104
très 104
voll@@ 104
weit 104
ʲ 104
Гу@@ 104
Крас@@ 104
Ли@@ 104
Михаил 104
вер@@ 104
ян@@ 104
بي 104
مل@@ 104
يا 104
ल 104
ห@@ 104
₡ 104
ズ@@ 104
和 104
建@@ 104
飛@@ 104
산@@ 104
학@@ 104
Jahr 103
année 103
quelle 103
ulus@@ 103
yıl 103
ăng 103
ты 103
الف@@ 103
ネ@@ 103
沙@@ 103
理@@ 103
镇 103
시 103
avoir 102
became 102
neue 102
Ë@@ 102
λί@@ 102
σία 102
όκ@@ 102
Гор@@ 102
Д 102
при@@ 102
ъ@@ 102
ري 102
لل@@ 102
ക@@ 102
ส@@ 102
‡ 102
ィ 102
ロ 102
外@@ 102
宮 102
机@@ 102
義@@ 102
英@@ 102
陽@@ 102
Quốc 101
Tây 101
années 101
aujour@@ 101
÷ 101
ış@@ 101
ɐ@@ 101
ɲ 101
Μαρ@@ 101
Ξ@@ 101
προ@@ 101
дов 101
ем@@ 101
ּ 101
कु@@ 101
ะ@@ 101
း@@ 101
ុ@@ 101
ἑ@@ 101
け@@ 101
ら 101
司@@ 101
土@@ 101
族 101
Familie 100
dır 100
east 100
mittel@@ 100
phong 100
ünden 100
üz 100
şir@@ 100
ʰ 100
μά@@ 100
υγ@@ 100
ώργ@@ 100
Хо@@ 100
ви 100
фи@@ 100
ി@@ 100
མ@@ 100
同@@ 100
名@@ 100
岛 100
車 100
門@@ 100
자 100
최@@ 100
Üniversitesi 99
þ 99
Ď@@ 99
ǃ@@ 99
Δημ@@ 99
γλ@@ 99
λευ@@ 99
Лу@@ 99
П 99
йн 99
ья 99
سع@@ 99
て 99
佐@@ 99
火@@ 99
공@@ 99
호 99
During 98
built 98
maji 98
sü@@ 98
Ô@@ 98
ılar 98
ǃ 98
άρκ@@ 98
εκ@@ 98
όρος 98
З 98
Ор@@ 98
بل@@ 98
دي@@ 98
ง 98
日 98
아 98
Teil 97
following 97
zote 97
Þ 97
ɡ 97
ιχ@@ 97
καλ@@ 97
ан 97
рус@@ 97
цо@@ 97
ян 97
क 97
ན 97
京 97
學@@ 97
氏 97
航@@ 97
記 97
軍@@ 97
선 97
Biographie 96
kommen 96
äß@@ 96
çek@@ 96
̈ 96
ίου 96
μαν@@ 96
нови@@ 96
ных 96
обла@@ 96
рия 96
фе@@ 96
ђ@@ 96
ג 96
اني 96
يل 96
ợi 96
ὕ@@ 96
め@@ 96
年 96
朝@@ 96
里 96
duy@@ 95
insi 95
police 95
several 95
xième 95
ίκη 95
αβ@@ 95
ανδ@@ 95
ита@@ 95
ска@@ 95
цы 95
न 95
ร@@ 95
ོ 95
♣ 95
加@@ 95
府 95
第@@ 95
龍 95
command@@ 94
ehir@@ 94
orta@@ 94
peut 94
selon 94
Ş 94
ʕ@@ 94
Υ 94
ηλ@@ 94
μφ@@ 94
Би@@ 94
ато@@ 94
ван@@ 94
им@@ 94
ско@@ 94
في@@ 94
ْ 94
າ@@ 94
ྱ@@ 94
Ὀ@@ 94
ホ@@ 94
博@@ 94
士@@ 94
銀@@ 94
音@@ 94
윤@@ 94
15. 93
Hải 93
become 93
members 93
nying@@ 93
oppos@@ 93
usawa 93
ρύ@@ 93
Ин@@ 93
Т 93
лия 93
лы 93
ря@@ 93
لة 93
مح@@ 93
க 93
地 93
洋@@ 93
魔@@ 93
남@@ 93
일@@ 93
Durch@@ 92
groupe 92
mayan 92
Με@@ 92
ημ@@ 92
ησι@@ 92
νε@@ 92
τρι@@ 92
ұ@@ 92
ون@@ 92
শ@@ 92
ร 92
ḗ@@ 92
∴ 92
公 92
内@@ 92
相@@ 92
義 92
風@@ 92
구@@ 92
여@@ 92
Eneo 91
Gemeinde 91
lenen 91
success@@ 91
änder@@ 91
̱ 91
Ком@@ 91
Н 91
кате@@ 91
лин@@ 91
щ@@ 91
ولاية 91
ម@@ 91
₤ 91
∆ 91
た 91
代 91
作@@ 91
場 91
夫 91
广@@ 91
韓@@ 91
강@@ 91
Après 90
spéci@@ 90
thay 90
zäh@@ 90
üç@@ 90
ιστ@@ 90
χρ@@ 90
Пер@@ 90
Пу@@ 90
вы@@ 90
три@@ 90
من 90
ℝ 90
前@@ 90
動@@ 90
徐@@ 90
校 90
赤@@ 90
문@@ 90
bién 89
développ@@ 89
khai 89
oloj@@ 89
È 89
ġ 89
οπ@@ 89
τικ@@ 89
сов 89
ци 89
الر@@ 89
حي@@ 89
رب 89
न@@ 89
ི@@ 89
ẵ@@ 89
ọng 89
Ἱ@@ 89
く 89
君 89
經 89
안@@ 89
에@@ 89
영 89
원@@ 89
Αγ@@ 88
τός 88
Ту@@ 88
Че@@ 88
шка 88
Қ@@ 88
Գ@@ 88
պ@@ 88
الدين 88
ရ@@ 88
ạm 88
∂ 88
≃ 88
と 88
ゲ@@ 88
事@@ 88
空 88
線 88
마@@ 88
Maji 87
eint 87
kadar 87
liste 87
mehr@@ 87
suiv@@ 87
 87
önem@@ 87
ικό 87
μεν@@ 87
φυ@@ 87
ата@@ 87
лова 87
па 87
стиче@@ 87
զ@@ 87
بة 87
ী@@ 87
ต@@ 87
カ 87
保@@ 87
嘉@@ 87
拳 87
胡@@ 87
지 87
Güney 86
denen 86
follow@@ 86
military 86
péri@@ 86
started 86
stän@@ 86
ſ@@ 86
αρκ@@ 86
σφ@@ 86
τες 86
Ло@@ 86
де 86
ї 86
الإ@@ 86
در@@ 86
سل@@ 86
صر 86
مع@@ 86
ো@@ 86
ా@@ 86
ყ@@ 86
ជ@@ 86
ន@@ 86
Ḫ@@ 86
Ọ@@ 86
万@@ 86
三 86
上 86
华@@ 86
宗 86
帝@@ 86
限@@ 86
雄 86
äuf@@ 85
êu 85
Ό@@ 85
Καρ@@ 85
άμ@@ 85
ήσ@@ 85
αν 85
συνα@@ 85
вая 85
вый 85
гра@@ 85
дро@@ 85
йский 85
кра@@ 85
рав@@ 85
тан@@ 85
це 85
шо@@ 85
շ@@ 85
ך@@ 85
ि@@ 85
ன@@ 85
ล@@ 85
♠ 85
タ 85
人民@@ 85
仁 85
歌@@ 85
羅@@ 85
香 85
龙@@ 85
그@@ 85
사 85
연@@ 85
의@@ 85
해@@ 85
différ@@ 84
zwei 84
Đông 84
̞ 84
Ε 84
лё@@ 84
нин 84
ర@@ 84
ჯ@@ 84
ម 84
ḍ 84
ἡ 84
∨ 84
フ 84
流@@ 84
英 84
진 84
희 84
anı 83
espè@@ 83
huko 83
okea 83
theo 83
Õ@@ 83
Γι@@ 83
Πολ@@ 83
σπ@@ 83
όπ@@ 83
ед@@ 83
ات 83
الل@@ 83
ث@@ 83
كة 83
ى@@ 83
ک 83
ến 83
か 83
何@@ 83
口 83
史 83
史@@ 83
号 83
宗@@ 83
知@@ 83
華 83
隊 83
mehr 82
placed 82
ço@@ 82
ıs 82
ızı 82
Ț 82
Παλ@@ 82
ίλ@@ 82
γι@@ 82
θέ@@ 82
φιλ@@ 82
Вели@@ 82
Гра@@ 82
Фе@@ 82
кая 82
лин 82
ствен@@ 82
ա 82
وي@@ 82
ين@@ 82
ை 82
ศ@@ 82
■ 82
オ 82
ブ 82
乐@@ 82
定@@ 82
智@@ 82
村@@ 82
東 82
森@@ 82
港@@ 82
老@@ 82
藤 82
로@@ 82
우 82
자@@ 82
arriv@@ 81
iliz 81
important 81
ouvern@@ 81
ĉ@@ 81
ľ 81
Παρ@@ 81
ογ@@ 81
ген@@ 81
зна@@ 81
اش@@ 81
عبد@@ 81
هر 81
وال@@ 81
पुर 81
တ@@ 81
ἕ@@ 81
⊆ 81
ォ@@ 81
キ 81
手 81
曹@@ 81
由@@ 81
천@@ 81
Châu 80
various 80
vient 80
Ì@@ 80
ũng 80
ű 80
ʋ@@ 80
Ди@@ 80
России 80
ги 80
дра@@ 80
сия 80
цер@@ 80
կ 80
ِ 80
ਿ@@ 80
ḗ 80
ọc 80
ウ 80
ザ@@ 80
字 80
宇@@ 80
富@@ 80
後@@ 80
石 80
草@@ 80
路 80
는 80
은 80
현 80
Amerik@@ 79
armée 79
ecek 79
often 79
wohl 79
œuv@@ 79
ʎ 79
ησ@@ 79
σχ@@ 79
φύ@@ 79
ύλ@@ 79
ϛ 79
до 79
ек@@ 79
ё 79
ست@@ 79
দ 79
ਾ@@ 79
ช@@ 79
วั@@ 79
့ 79
ღ@@ 79
ạc 79
▄ 79
出@@ 79
夜@@ 79
廣@@ 79
爱@@ 79
球@@ 79
雪@@ 79
鬼@@ 79
13. 78
16. 78
18. 78
dont 78
ellement 78
kila 78
organisation 78
tü@@ 78
États 78
œ 78
ɕ 78
ιρ@@ 78
πα@@ 78
Ча@@ 78
бра@@ 78
ден@@ 78
ских 78
ُ 78
চ@@ 78
ী 78
ன 78
ಕ@@ 78
ẹ 78
Ἡ@@ 78
や@@ 78
交@@ 78
体@@ 78
信@@ 78
克@@ 78
口@@ 78
思@@ 78
育@@ 78
陽 78
马@@ 78
예@@ 78
장 78
� 78
deki 77
durant 77
ishia 77
ität 77
lors@@ 77
quelques 77
đi@@ 77
ĩ 77
ιδ@@ 77
ιμ@@ 77
περ@@ 77
ριστ@@ 77
ύρ@@ 77
мар@@ 77
сте@@ 77
ции 77
տ 77
او@@ 77
مي 77
⅔ 77
こ 77
に 77
ギ@@ 77
久@@ 77
二 77
元 77
園@@ 77
心 77
谷 77
부 77
현@@ 77
！ 77
dès 76
married 76
̶ 76
κας 76
σύ@@ 76
Мария 76
Ново@@ 76
Сою@@ 76
осу@@ 76
сы 76
чка 76
ابن 76
مَ@@ 76
प 76
ल@@ 76
മ@@ 76
จ@@ 76
ấn 76
は 76
ば@@ 76
ヤ@@ 76
井 76
如@@ 76
常@@ 76
所 76
新 76
春 76
章 76
馬 76
黒@@ 76
국 76
니 76
재@@ 76
Công 75
etzt 75
join@@ 75
kte 75
mang 75
ɽ 75
Ψ@@ 75
έχ@@ 75
κτ@@ 75
λη 75
πί@@ 75
πε@@ 75
зер@@ 75
мир@@ 75
эн@@ 75
є 75
الغ@@ 75
ني@@ 75
ền 75
∪ 75
多@@ 75
津@@ 75
龙 75
라 75
Kwa 74
ligne 74
received 74
toujours 74
zao 74
ısı 74
ʷ 74
Καλ@@ 74
έα 74
ικά 74
ραν@@ 74
τας 74
ды 74
обо@@ 74
рен@@ 74
рис 74
стра@@ 74
ще@@ 74
ј 74
ַ 74
اب 74
ات@@ 74
بو@@ 74
ربي 74
ضلع 74
لَ@@ 74
نا 74
ེ 74
ゆ@@ 74
也 74
台 74
后 74
君@@ 74
尾@@ 74
景@@ 74
武 74
男@@ 74
間@@ 74
화 74
 74
depuis 73
dernier 73
gibt 73
maye 73
soit 73
uncu 73
Ħ@@ 73
Κωνσταντ@@ 73
Кон@@ 73
Х 73
ائ@@ 73
ަ@@ 73
रा@@ 73
व@@ 73
த 73
ூ@@ 73
พระ@@ 73
ག 73
ṯ 73
ạnh 73
ận 73
ỉ@@ 73
ἶ@@ 73
す 73
わ@@ 73
丸 73
仁@@ 73
你 73
德 73
書@@ 73
段 73
流 73
竹@@ 73
超@@ 73
양@@ 73
Büyük 72
cinq 72
commen@@ 72
heute 72
ingana 72
kır@@ 72
toute 72
ép 72
ıs@@ 72
εν 72
ηγ@@ 72
μον@@ 72
μυ@@ 72
ρω@@ 72
град 72
ք@@ 72
الز@@ 72
ط 72
ە@@ 72
स 72
ਰ@@ 72
ಿ@@ 72
⇒ 72
ⵎ@@ 72
共@@ 72
华 72
吴@@ 72
巴@@ 72
師 72
杨@@ 72
당 72
한 72
： 72
Cộng 71
Febru@@ 71
gesi 71
gleich@@ 71
icklung 71
pués 71
vì 71
êm 71
ĝ@@ 71
Έ@@ 71
μη 71
χή 71
όπουλ@@ 71
Вол@@ 71
Ши@@ 71
мы@@ 71
те 71
می@@ 71
وَ@@ 71
ह@@ 71
ལ 71
せ@@ 71
央@@ 71
奇@@ 71
孫@@ 71
尔@@ 71
成 71
機@@ 71
界@@ 71
Cumhuriy@@ 70
bildung 70
große 70
ierte 70
schnit@@ 70
ʀ@@ 70
τσ@@ 70
Москов@@ 70
Ф 70
она@@ 70
пре@@ 70
Կ@@ 70
انی 70
ستان 70
سر@@ 70
अ@@ 70
ग@@ 70
ằng 70
ẽ 70
⊗ 70
ⵜ@@ 70
ろ@@ 70
云@@ 70
兵@@ 70
友@@ 70
宋@@ 70
岡@@ 70
恋@@ 70
紅@@ 70
부@@ 70
타@@ 70
dön@@ 69
iş 69
jimbo 69
partie 69
sebe@@ 69
zaman 69
ους 69
ρο 69
Бал@@ 69
Ю 69
сло@@ 69
тро@@ 69
фо@@ 69
ше 69
Բ@@ 69
عب 69
ਾ 69
ல 69
ธ@@ 69
ད 69
ྒ@@ 69
ẻ 69
ὴ 69
ッ 69
先@@ 69
政@@ 69
臣 69
運@@ 69
백@@ 69
정 69
17. 68
created 68
gab 68
ihre 68
isini 68
jiji 68
kuu 68
wany@@ 68
worked 68
ydi 68
Ευ@@ 68
πυ@@ 68
ϊ@@ 68
мо 68
нин@@ 68
ниче@@ 68
ای@@ 68
خان 68
ول@@ 68
ܕ@@ 68
श 68
ჩ@@ 68
‍ 68
主 68
教 68
松 68
梁@@ 68
秦@@ 68
電@@ 68
세@@ 68
Ort 67
Tân 67
connu 67
système 67
wieder 67
yard@@ 67
Æ 67
ường 67
ǀ@@ 67
ǒ 67
Ιωάν@@ 67
νο@@ 67
ρέ@@ 67
σω@@ 67
τζ@@ 67
τρα 67
Пар@@ 67
Щ@@ 67
вет 67
горо@@ 67
ды@@ 67
ера 67
сы@@ 67
الط@@ 67
رية 67
وم@@ 67
ܐ@@ 67
ं 67
द@@ 67
ங 67
ு 67
ಿ 67
ು@@ 67
း 67
ần 67
ἡ@@ 67
ⵏ 67
ⵙ@@ 67
コ 67
マ 67
力@@ 67
司 67
吳@@ 67
好@@ 67
宝@@ 67
戦 67
是@@ 67
橋 67
米@@ 67
若@@ 67
菜 67
言 67
都 67
陵 67
風 67
니@@ 67
은@@ 67
회 67
However 66
awali 66
timm@@ 66
uyên 66
ď 66
μο@@ 66
πά@@ 66
πέ@@ 66
τή@@ 66
ται 66
τικός 66
Пи@@ 66
ать 66
мя@@ 66
публи@@ 66
сп@@ 66
ց@@ 66
ே@@ 66
ย 66
า 66
ྲ@@ 66
ệ 66
∀ 66
ペ@@ 66
孙@@ 66
支@@ 66
波@@ 66
秀@@ 66
茶 66
足@@ 66
태@@ 66
Müz@@ 65
ancien 65
aße 65
emein@@ 65
included 65
lü 65
produced 65
releas@@ 65
Ķ@@ 65
ʹ 65
γιος 65
δο@@ 65
ποι@@ 65
Все@@ 65
др 65
مه@@ 65
ّ 65
क@@ 65
ి@@ 65
ു@@ 65
อ@@ 65
ེ@@ 65
ု 65
ện 65
そ@@ 65
丁@@ 65
园 65
奈@@ 65
忠@@ 65
橋@@ 65
正 65
毛@@ 65
洪@@ 65
湖 65
者 65
西 65
論 65
那@@ 65
occup@@ 64
ʁ 64
ήν@@ 64
ει 64
οκ@@ 64
Є@@ 64
ства 64
чи 64
ье 64
سة 64
ത@@ 64
ก 64
က@@ 64
რ 64
ត@@ 64
ḳ@@ 64
Ῥ@@ 64
∇ 64
ジ 64
チ 64
萬@@ 64
路@@ 64
集@@ 64
麻@@ 64
전 64
Ces 63
amerikan@@ 63
began 63
gelen 63
having 63
häng@@ 63
marri@@ 63
personn@@ 63
ĉ 63
ħ 63
Ž 63
̂ 63
εις 63
θρ@@ 63
μου 63
πολ@@ 63
Вы@@ 63
Кра@@ 63
Федера@@ 63
ну@@ 63
нь 63
тар@@ 63
тра@@ 63
тя@@ 63
ёт@@ 63
شر@@ 63
مط@@ 63
ग 63
प@@ 63
य 63
स@@ 63
ว 63
ุ@@ 63
འ@@ 63
ក@@ 63
ḇ@@ 63
ạng 63
ất 63
え 63
ょ@@ 63
ザ 63
區 63
名 63
技@@ 63
方 63
総@@ 63
郭@@ 63
関@@ 63
风@@ 63
인 63
azini 62
chữ 62
doit 62
ouvent 62
vertr@@ 62
âu 62
Ā 62
ŏ 62
ΐ@@ 62
Κυ@@ 62
Χρ@@ 62
αλλ@@ 62
δυ@@ 62
επ@@ 62
λις 62
μακ@@ 62
ροι 62
τις 62
Боль@@ 62
Жи@@ 62
бе 62
кт 62
ста 62
ху@@ 62
ئ@@ 62
فة 62
त@@ 62
ত 62
ந@@ 62
ต 62
บ@@ 62
ပ@@ 62
ក 62
ប@@ 62
ិ@@ 62
ὁ@@ 62
‚ 62
命 62
坂@@ 62
夏 62
字@@ 62
孝@@ 62
学 62
我 62
業@@ 62
皇 62
縣 62
红@@ 62
色@@ 62
術 62
親@@ 62
鹿@@ 62
Jahren 61
entw@@ 61
hakk@@ 61
lık 61
αδ@@ 61
νομ@@ 61
Бело@@ 61
собо@@ 61
ث 61
زيرة 61
وم 61
ट 61
ब@@ 61
ರ 61
් 61
Ṛ@@ 61
ユ@@ 61
事件 61
侯 61
太 61
屋 61
楊@@ 61
治 61
泰@@ 61
秋@@ 61
衛@@ 61
見@@ 61
际@@ 61
食@@ 61
어 61
위@@ 61
𐤌 61
Thành 60
ambazo 60
compte 60
described 60
haben 60
kuv@@ 60
permet@@ 60
tü 60
yeni 60
¯ 60
ıf@@ 60
̲ 60
κολ@@ 60
κου@@ 60
λά@@ 60
λη@@ 60
νι@@ 60
ού 60
ρία 60
ταν@@ 60
ώς 60
Л 60
Сто@@ 60
Хри@@ 60
Шу@@ 60
ате@@ 60
вы 60
дор 60
ҳ@@ 60
اله@@ 60
الي@@ 60
قل@@ 60
كي@@ 60
وس@@ 60
ি 60
ಗ@@ 60
ല@@ 60
ป@@ 60
ង 60
ἁ@@ 60
∙ 60
お 60
な 60
ゼ@@ 60
ツ 60
事 60
伯@@ 60
半@@ 60
朝 60
条@@ 60
牛@@ 60
直@@ 60
者@@ 60
良@@ 60
葉@@ 60
長 60
다@@ 60
만@@ 60
종@@ 60
황@@ 60
 60
ﬂ@@ 60
Irel@@ 59
lanan 59
¸ 59
ŝ@@ 59
̆ 59
Το 59
είο 59
κρά@@ 59
μαχ@@ 59
Кара@@ 59
ван 59
вар@@ 59
губер@@ 59
лет 59
народ@@ 59
рии 59
ся 59
ׂ@@ 59
وري 59
वा@@ 59
જ@@ 59
લ@@ 59
ள@@ 59
ข@@ 59
ະ@@ 59
ာ 59
Ḷ@@ 59
ọ@@ 59
ⵓ@@ 59
刀 59
卿 59
可@@ 59
官@@ 59
峰 59
崎@@ 59
民 59
玉 59
男 59
的 59
能@@ 59
苏@@ 59
陸@@ 59
雅@@ 59
가 59
대 59
민 59
Kỳ 58
eht 58
kez 58
moved 58
trieb 58
ʐ@@ 58
ήλ 58
γραφ@@ 58
εσ@@ 58
ηδ@@ 58
ην 58
μή@@ 58
οπο@@ 58
Вер@@ 58
Кур@@ 58
Центра@@ 58
государствен@@ 58
жа 58
ите@@ 58
клуб 58
раз@@ 58
хов@@ 58
цион@@ 58
қ 58
ְ 58
اه@@ 58
مص@@ 58
പ@@ 58
Ḵ@@ 58
ẽ@@ 58
ồng 58
ἱ 58
ど@@ 58
仙@@ 58
党 58
夢@@ 58
居 58
岩@@ 58
昌@@ 58
最@@ 58
汉@@ 58
火 58
甲@@ 58
真 58
編 58
金 58
비 58
비@@ 58
geord@@ 57
ilç@@ 57
unun 57
 57
Ţ 57
Ρ 57
έγ@@ 57
έκ@@ 57
ειδ@@ 57
μη@@ 57
όφ@@ 57
Бар@@ 57
ад@@ 57
ет 57
зе 57
зы@@ 57
мат@@ 57
район 57
рев@@ 57
сан@@ 57
спе@@ 57
сти 57
ть@@ 57
ք 57
در 57
لي 57
نج@@ 57
ولي 57
ना@@ 57
ট@@ 57
ম 57
ਸ@@ 57
นา@@ 57
เ@@ 57
เกา@@ 57
န 57
ჭ@@ 57
〈 57
ふ@@ 57
め 57
れ 57
修@@ 57
化 57
回@@ 57
彦 57
清 57
渡@@ 57
电@@ 57
袁@@ 57
造 57
雄@@ 57
레@@ 57
승@@ 57
호@@ 57
Avru@@ 56
Nội 56
découver@@ 56
isième 56
moins 56
schon 56
Đi@@ 56
ǁ@@ 56
ʹ@@ 56
Ο 56
ναι 56
παι@@ 56
στά@@ 56
φαν@@ 56
όβ@@ 56
Е 56
Национа@@ 56
бан@@ 56
вой 56
мор@@ 56
ء 56
اس 56
حسن 56
عب@@ 56
كر@@ 56
مد@@ 56
ङ 56
ਲ@@ 56
อง@@ 56
ู 56
็ 56
ნ 56
ᠠ@@ 56
ệu 56
ỳ@@ 56
℉ 56
〉 56
シ 56
今@@ 56
以@@ 56
傳 56
吉 56
夫@@ 56
座@@ 56
来@@ 56
森 56
樹 56
気@@ 56
洲 56
茶@@ 56
連@@ 56
鉄@@ 56
院@@ 56
陵@@ 56
面@@ 56
頭@@ 56
鳥@@ 56
ꞌ 56
나 56
울@@ 56
iriki 55
ģ@@ 55
şu 55
ʂ 55
αξ@@ 55
δί@@ 55
ητ@@ 55
μν@@ 55
бы@@ 55
дия 55
зу@@ 55
от 55
рин 55
ёр@@ 55
ռ@@ 55
بني 55
دا@@ 55
دو@@ 55
ض 55
ٱ@@ 55
बा@@ 55
ড 55
ล 55
ไ@@ 55
ち 55
下 55
你@@ 55
合 55
布@@ 55
康@@ 55
愛 55
拉@@ 55
易@@ 55
沈@@ 55
物 55
玄@@ 55
矢@@ 55
舞@@ 55
達@@ 55
雷@@ 55
광@@ 55
석 55
연 55
퍼@@ 55
Saison 54
aient 54
ayant 54
fonc@@ 54
ihrer 54
kı 54
nước 54
sahi@@ 54
đồng 54
Ί@@ 54
Σύ@@ 54
Τ 54
ήμ@@ 54
αφ@@ 54
ελλ@@ 54
θεν@@ 54
καν@@ 54
κατ@@ 54
ουλ@@ 54
σε@@ 54
Зе@@ 54
Из@@ 54
вен@@ 54
зан@@ 54
нии 54
դ 54
سم@@ 54
مج@@ 54
وب@@ 54
وسف 54
ول 54
য@@ 54
ল 54
ર@@ 54
ப 54
ల@@ 54
ు@@ 54
ℓ@@ 54
ℝ@@ 54
ℤ 54
ⵜ 54
ま 54
ミ 54
双@@ 54
商@@ 54
昭@@ 54
母@@ 54
泉 54
省 54
越@@ 54
趙@@ 54
요 54
𐤕 54
Thiên 53
announced 53
career 53
ekonom@@ 53
ellik@@ 53
quốc 53
unkt 53
Ä 53
üy@@ 53
ıca 53
ına 53
Ū@@ 53
ơ 53
ǂ@@ 53
ɬ@@ 53
Αρ@@ 53
Προ@@ 53
κι@@ 53
οβ@@ 53
ουν@@ 53
Ђ@@ 53
Кри@@ 53
Мон@@ 53
От@@ 53
бер@@ 53
би 53
мия 53
над@@ 53
Վ@@ 53
است@@ 53
اط@@ 53
اف@@ 53
تي@@ 53
حزب 53
ܠ@@ 53
ध@@ 53
री 53
્ 53
ை@@ 53
വ@@ 53
ี 53
አ@@ 53
ạch 53
ὴ@@ 53
⁰ 53
ℚ 53
► 53
ⵔ@@ 53
プ 53
丹 53
協@@ 53
戸@@ 53
會@@ 53
桃@@ 53
桥 53
派 53
港 53
理 53
県@@ 53
祖@@ 53
虎 53
虎@@ 53
雲@@ 53
산 53
nchi 52
ommen 52
wrote 52
zös@@ 52
àu 52
ſ 52
Αλ@@ 52
Παπ@@ 52
άπ@@ 52
γέν@@ 52
ιτ@@ 52
καρ@@ 52
λεύ@@ 52
λύ@@ 52
πν@@ 52
ωνία 52
ган@@ 52
жда 52
ку 52
льная 52
ок@@ 52
поли@@ 52
ры 52
чев 52
Պ@@ 52
بر 52
برا@@ 52
بی@@ 52
سط@@ 52
سی@@ 52
عل@@ 52
مش@@ 52
وادي 52
ड 52
ক 52
สุ@@ 52
ཆ@@ 52
Ὑ@@ 52
ⵍ@@ 52
よ 52
世 52
仲@@ 52
无@@ 52
横@@ 52
研究@@ 52
良 52
革@@ 52
삼@@ 52
gör@@ 51
neuen 51
province 51
prä@@ 51
présent@@ 51
siku 51
çı 51
ıt 51
̩ 51
Καλλ@@ 51
εδ@@ 51
εφ@@ 51
ημα 51
ιώ@@ 51
Аль@@ 51
Димит@@ 51
Ри@@ 51
дж@@ 51
жи 51
окру@@ 51
росси@@ 51
сен@@ 51
тон 51
цев 51
яр@@ 51
Դ@@ 51
Ե@@ 51
խ@@ 51
اج@@ 51
جامعة 51
قة 51
ܬ@@ 51
ި@@ 51
ಮ@@ 51
รั@@ 51
། 51
သ@@ 51
თ 51
ṓ@@ 51
ệt 51
ⲟ@@ 51
中心 51
丹@@ 51
命@@ 51
圖 51
圣@@ 51
振@@ 51
楽@@ 51
湖@@ 51
白 51
速@@ 51
阳 51
구 51
Hồng 50
Kristo 50
aşı 50
halten 50
pointed 50
remain@@ 50
served 50
ôi 50
ượ@@ 50
ȝ 50
αξι@@ 50
ετ@@ 50
λυ@@ 50
ολογ@@ 50
τύ@@ 50
ϕ 50
авиа@@ 50
йской 50
од@@ 50
أم@@ 50
تا@@ 50
سن@@ 50
شه@@ 50
علی 50
عي@@ 50
يخ 50
ܒ@@ 50
ܢ@@ 50
ज@@ 50
श@@ 50
਼ 50
క@@ 50
ಪ@@ 50
ല 50
ུ 50
ព@@ 50
ẖ@@ 50
ἅ@@ 50
☃ 50
ⴰ 50
ず@@ 50
ぶ@@ 50
书 50
亮 50
別@@ 50
崎 50
念@@ 50
戰 50
梅@@ 50
沢@@ 50
紀@@ 50
阪@@ 50
랑 50
미 50
중@@ 50
컴@@ 50
홍@@ 50
Nisan 49
Vương 49
aît 49
bilin@@ 49
caract@@ 49
erst 49
hiệu 49
huwa 49
kati 49
kazi 49
occu@@ 49
öğ@@ 49
ượng 49
ɬ 49
ʻ 49
̍ 49
Κά@@ 49
Χ 49
ίγ@@ 49
ίνα 49
αύ@@ 49
δα 49
εβ@@ 49
συν@@ 49
Ше@@ 49
ати@@ 49
бал@@ 49
вой@@ 49
дан@@ 49
къ@@ 49
ме 49
рин@@ 49
ром 49
слав@@ 49
ственный 49
тер@@ 49
ָ 49
ֻ@@ 49
از@@ 49
سي 49
مية 49
ं@@ 49
जि@@ 49
િ@@ 49
ವ@@ 49
ิ@@ 49
ວ@@ 49
လ@@ 49
ḡ@@ 49
ὺ@@ 49
↓ 49
乙@@ 49
団 49
殿 49
罗@@ 49
黨 49
관 49
동 49
명@@ 49
Bộ 48
Cumhuriyeti 48
Durch 48
Ulus@@ 48
ması 48
premiers 48
ʑ@@ 48
̊ 48
΄ 48
Στρ@@ 48
έας 48
ουσ@@ 48
ρό@@ 48
ση 48
τω 48
вод@@ 48
гла@@ 48
град@@ 48
жен@@ 48
им 48
кан@@ 48
ности 48
ран 48
тор@@ 48
щен@@ 48
է@@ 48
العربية 48
المن@@ 48
دان 48
دی 48
رض@@ 48
مال 48
مُ@@ 48
وي 48
ने@@ 48
मा@@ 48
আ@@ 48
ா 48
ோ@@ 48
อย@@ 48
ា 48
ḫ 48
ả 48
ổ 48
Ἁ@@ 48
₱ 48
∩ 48
へ 48
内 48
初@@ 48
勇@@ 48
場@@ 48
塔 48
守@@ 48
尚@@ 48
居@@ 48
紀 48
紫@@ 48
羅 48
言@@ 48
起@@ 48
酒 48
酒@@ 48
静@@ 48
경 48
토@@ 48
Cette 47
Hán 47
Kanada 47
Trong 47
biet 47
however 47
Ý@@ 47
̰ 47
Ελλην@@ 47
ές 47
ίμ@@ 47
ιο 47
ματ@@ 47
νά@@ 47
νω@@ 47
όμ@@ 47
Ху@@ 47
вед@@ 47
гар@@ 47
ду 47
ей 47
ис@@ 47
каз@@ 47
национа@@ 47
ны@@ 47
сов@@ 47
сто 47
сты@@ 47
ще 47
البح@@ 47
تو@@ 47
خ 47
دی@@ 47
سو@@ 47
ظ@@ 47
مار@@ 47
ني 47
ण 47
ভ@@ 47
அ@@ 47
ண@@ 47
వ@@ 47
ನ@@ 47
ന 47
ณ@@ 47
วิ@@ 47
อ 47
ำ@@ 47
ခ@@ 47
រ 47
ị@@ 47
ὔ@@ 47
ⵏ@@ 47
『 47
も 47
ノ 47
レ 47
军 47
号@@ 47
向@@ 47
在@@ 47
基@@ 47
學 47
宣@@ 47
左@@ 47
式 47
放@@ 47
旗 47
次@@ 47
浦@@ 47
瑞@@ 47
用@@ 47
精@@ 47
色 47
草 47
蔡@@ 47
话 47
賀@@ 47
車@@ 47
遠@@ 47
鄭@@ 47
门@@ 47
集 47
雨 47
青 47
魏@@ 47
을 47
일 47
치@@ 47
Trường 46
folg@@ 46
huy 46
punkt 46
waren 46
ǵ@@ 46
ίζ@@ 46
πατ@@ 46
ρη@@ 46
τι 46
χαρ@@ 46
Авто@@ 46
Кор@@ 46
Ман@@ 46
ани 46
ву@@ 46
ита 46
кня@@ 46
ком@@ 46
мен 46
пол@@ 46
стан 46
ун@@ 46
уч@@ 46
ър 46
բ 46
الري@@ 46
رب@@ 46
سين 46
لا 46
لال 46
އ@@ 46
का@@ 46
ख@@ 46
ெ@@ 46
న@@ 46
ന@@ 46
ി 46
รา@@ 46
ุ 46
ນ@@ 46
ລ@@ 46
༌ 46
ལ@@ 46
ὅ@@ 46
⅛ 46
∼ 46
○ 46
』 46
ぐ@@ 46
サ 46
ュ 46
倉 46
健@@ 46
兰@@ 46
分@@ 46
力 46
務@@ 46
勝@@ 46
周 46
官 46
寺@@ 46
幸@@ 46
拳@@ 46
曲 46
根@@ 46
浩@@ 46
画 46
门 46
雲 46
高 46
고 46
내@@ 46
바@@ 46
𐤀 46
chuy@@ 45
etwa 45
großen 45
kuto@@ 45
miş 45
mondiale 45
ordu 45
plusieurs 45
représent@@ 45
xem 45
ước 45
ǣ@@ 45
̌ 45
Μά@@ 45
ήρ@@ 45
ατρ@@ 45
βλ@@ 45
βολ@@ 45
νόμ@@ 45
ούν@@ 45
ρον@@ 45
σο@@ 45
συ@@ 45
τική 45
ωρ@@ 45
όγ@@ 45
Ад@@ 45
Сан@@ 45
дви@@ 45
заво@@ 45
мы 45
обще@@ 45
под@@ 45
рец 45
свя@@ 45
стан@@ 45
ём 45
ׁ 45
ارة 45
به@@ 45
راء 45
غ 45
مس@@ 45
୍ 45
ల 45
โ@@ 45
ཚ@@ 45
ར 45
ត 45
េ@@ 45
♀ 45
ⲁ@@ 45
ダ 45
バ 45
信 45
学院 45
希 45
希@@ 45
想@@ 45
战@@ 45
时@@ 45
曲@@ 45
未@@ 45
柳@@ 45
波 45
甘@@ 45
臺@@ 45
藏@@ 45
街@@ 45
角@@ 45
許@@ 45
노@@ 45
더@@ 45
조 45
𐤔 45
Daha 44
Ils 44
dann 44
dort 44
konn@@ 44
opened 44
ouest 44
pitia 44
wana@@ 44
Đ 44
ɯ 44
ˤ@@ 44
ίδες 44
ανα@@ 44
βασ@@ 44
δία 44
επι@@ 44
παν@@ 44
ρου 44
σμ@@ 44
του@@ 44
Под@@ 44
авто@@ 44
акаде@@ 44
зов 44
лет@@ 44
мер@@ 44
му 44
нина 44
той 44
тру@@ 44
чки 44
آل 44
الوطني 44
عمر 44
فر 44
مر 44
आ@@ 44
ค@@ 44
ສ@@ 44
ັ@@ 44
ွ@@ 44
យ@@ 44
ế@@ 44
ⁿ 44
≅ 44
ⴷ@@ 44
ろ 44
ニ 44
ャ 44
伝 44
关@@ 44
列@@ 44
动@@ 44
動 44
反@@ 44
員@@ 44
宇 44
情@@ 44
斗 44
機 44
烏@@ 44
秀 44
薬@@ 44
起 44
通 44
隆@@ 44
韩@@ 44
黑@@ 44
드@@ 44
로 44
상 44
신 44
Mannschaft 43
allem 43
ilir 43
kü 43
phía 43
sür@@ 43
tober 43
zwischen 43
Â 43
Ç 43
ŕ 43
ǚ 43
ɟ 43
ˠ@@ 43
άδες 43
άζ@@ 43
άρχ@@ 43
βο@@ 43
ιγ@@ 43
ρκ@@ 43
χει@@ 43
ϕ@@ 43
Кали@@ 43
дан 43
еди@@ 43
или 43
имени 43
институ@@ 43
кон@@ 43
тин@@ 43
тур@@ 43
ческий 43
шу@@ 43
Ӏ@@ 43
Տ@@ 43
أس@@ 43
سك@@ 43
ص 43
كم 43
ورة 43
ली 43
ा 43
ধ@@ 43
ਰ 43
ಸ@@ 43
པ@@ 43
ạn 43
ải 43
ắc 43
ết 43
∑ 43
ⲓ@@ 43
ご@@ 43
ほ@@ 43
佛@@ 43
声 43
夜 43
奥@@ 43
広@@ 43
延@@ 43
战 43
斯@@ 43
昌 43
死@@ 43
洲@@ 43
源@@ 43
羽@@ 43
胡 43
記@@ 43
際@@ 43
씨 43
청@@ 43
프@@ 43
해 43
anlar 42
continued 42
dür@@ 42
endung 42
joined 42
kuwa 42
layan 42
mals 42
nungen 42
stieg 42
students 42
yali@@ 42
àm 42
ĺ@@ 42
ɹ@@ 42
ˁ 42
˥ 42
Μον@@ 42
αία 42
απο@@ 42
καθ@@ 42
κη 42
На 42
ССР 42
Хар@@ 42
ана 42
боль@@ 42
воз@@ 42
ез@@ 42
зем@@ 42
кро@@ 42
лу 42
спо@@ 42
тив@@ 42
университет 42
чер@@ 42
ши 42
ғ@@ 42
մ 42
ؤ@@ 42
الو@@ 42
قط@@ 42
قي@@ 42
ீ@@ 42
ದ@@ 42
ക 42
യ@@ 42
ด 42
ิ 42
ไทย 42
ლ 42
ṁ 42
び@@ 42
ヶ@@ 42
于@@ 42
佳@@ 42
俊@@ 42
北 42
医@@ 42
十 42
喜@@ 42
团 42
夷 42
孟@@ 42
局 42
弘@@ 42
影@@ 42
普@@ 42
望@@ 42
漢 42
燕@@ 42
目 42
農@@ 42
馆 42
군 42
두@@ 42
브@@ 42
왕@@ 42
 42
Doğu 41
Kilom@@ 41
Kuzey 41
début 41
ekana 41
install@@ 41
letzten 41
mesi 41
okana 41
rund 41
schri@@ 41
seiner 41
önc@@ 41
ùa 41
̠ 41
Αρχ@@ 41
Περι@@ 41
αντ@@ 41
θλ@@ 41
θυ@@ 41
ιά 41
κλη@@ 41
ρά 41
τον@@ 41
τρα@@ 41
Вар@@ 41
Моск@@ 41
Фи@@ 41
Чи@@ 41
ари 41
вица 41
дин 41
дру@@ 41
же 41
лна 41
мин 41
партия 41
су 41
ца@@ 41
џ@@ 41
ծ@@ 41
փ@@ 41
اص@@ 41
اع@@ 41
الرحمن 41
تم@@ 41
جة 41
طر@@ 41
قر@@ 41
مق@@ 41
گا@@ 41
ং@@ 41
ੰ@@ 41
గ@@ 41
ు 41
ಂ@@ 41
ൂ@@ 41
มิ 41
ริ@@ 41
ี@@ 41
ប 41
ហ@@ 41
ំ@@ 41
ḻ@@ 41
ῆ 41
右@@ 41
哈@@ 41
奈 41
將@@ 41
形 41
晓@@ 41
樂 41
泉@@ 41
瀬@@ 41
盟 41
目@@ 41
貴@@ 41
赵@@ 41
랑@@ 41
립@@ 41
창@@ 41
－ 41
gesam@@ 40
liko 40
stamm@@ 40
vya 40
ċ@@ 40
İ 40
ǧ 40
ɦ@@ 40
ɹ 40
Μα@@ 40
Μεγάλ@@ 40
θρω@@ 40
μόν@@ 40
τού@@ 40
όρι@@ 40
όχ@@ 40
ύν@@ 40
Бер@@ 40
Българ@@ 40
Ж 40
Тур@@ 40
един@@ 40
ене@@ 40
хра@@ 40
че 40
чо@@ 40
ց 40
الملك 40
بية 40
مز@@ 40
نگ@@ 40
पा@@ 40
व 40
हा 40
স 40
ం@@ 40
ి 40
ം 40
མ 40
န@@ 40
ស 40
ី@@ 40
ḵ@@ 40
ẓ 40
ộc 40
ới 40
⊂ 40
♂ 40
ⴱ@@ 40
ⴻ@@ 40
ⵣ@@ 40
メ 40
伝@@ 40
余@@ 40
入@@ 40
助 40
奴 40
好 40
季@@ 40
寶@@ 40
岳 40
極@@ 40
殺@@ 40
氣 40
程@@ 40
約 40
蘇@@ 40
街 40
進@@ 40
雨@@ 40
雪 40
首@@ 40
너@@ 40
모@@ 40
제 40
혜@@ 40
Nhân 39
Titel 39
avait 39
bağ@@ 39
cü 39
gouvern@@ 39
itig 39
selb@@ 39
wili 39
ĕ 39
ʏ@@ 39
κα 39
μή 39
ματα 39
Ак@@ 39
Й 39
Север@@ 39
рат 39
спор@@ 39
стов 39
тия 39
тов@@ 39
това 39
тре@@ 39
ادي 39
الة 39
المغ@@ 39
انية 39
تح@@ 39
جو@@ 39
دار 39
را 39
عم@@ 39
محمود 39
وت 39
وز@@ 39
وق@@ 39
ۇ@@ 39
गु@@ 39
वि@@ 39
ৰ@@ 39
વ@@ 39
ା 39
ི 39
က 39
ት 39
Ẓ@@ 39
Ἴ@@ 39
∃ 39
∅ 39
⊥ 39
け 39
ね@@ 39
デ 39
ヨ@@ 39
书@@ 39
介 39
八 39
兵 39
大學 39
度@@ 39
康 39
影 39
惠@@ 39
早@@ 39
杜@@ 39
桜@@ 39
源 39
興@@ 39
蒙@@ 39
術@@ 39
見 39
語@@ 39
드 39
송@@ 39
임@@ 39
Eylül 38
Jahrhunderts 38
Makala 38
Wilaya 38
gegen@@ 38
hệ 38
keiten 38
leş@@ 38
mji 38
saison 38
sasa 38
ãi 38
ört 38
ư 38
ȝ@@ 38
ɖ@@ 38
ɯ@@ 38
ʉ@@ 38
˘ 38
̝ 38
Κωνστ@@ 38
Μουσ@@ 38
βρα@@ 38
μπο@@ 38
ολόγ@@ 38
οτ@@ 38
που 38
προσ@@ 38
ρατ@@ 38
τολ@@ 38
ϑ@@ 38
вра@@ 38
гре@@ 38
лан@@ 38
лод@@ 38
пра@@ 38
прав@@ 38
соци@@ 38
шен@@ 38
ща@@ 38
Խ@@ 38
ջ@@ 38
أن@@ 38
اق@@ 38
رين 38
زة 38
سلطان 38
هي@@ 38
وف@@ 38
ް@@ 38
भ@@ 38
ି@@ 38
ள 38
త@@ 38
ಬ@@ 38
ಲ@@ 38
സ@@ 38
ോ@@ 38
จ 38
ျ@@ 38
ር@@ 38
Ḍ@@ 38
ạ 38
ục 38
ức 38
ự 38
Ἠ@@ 38
∫ 38
パ 38
モ 38
与@@ 38
义@@ 38
任@@ 38
倉@@ 38
塔@@ 38
姫 38
恵 38
拓@@ 38
格@@ 38
案 38
樂@@ 38
深@@ 38
溪 38
然@@ 38
省@@ 38
秋 38
聯@@ 38
關@@ 38
防@@ 38
단 38
Zusammen@@ 37
akter@@ 37
habitants 37
préc@@ 37
titre 37
uyền 37
zili@@ 37
Βι@@ 37
Πλ@@ 37
έρα 37
έσ@@ 37
ίνη 37
αγγ@@ 37
θεια 37
κέν@@ 37
σης 37
Ай@@ 37
Бра@@ 37
Све@@ 37
бар@@ 37
вета 37
город 37
дво@@ 37
для 37
дь@@ 37
из 37
лиза@@ 37
пер@@ 37
тиче@@ 37
хан@@ 37
ѣ@@ 37
Լ@@ 37
չ@@ 37
ֿ@@ 37
اي@@ 37
زي 37
عد@@ 37
كري@@ 37
وت@@ 37
ڈ@@ 37
کر@@ 37
کو@@ 37
ܫ@@ 37
य@@ 37
ਦ@@ 37
મ@@ 37
લ 37
జ@@ 37
మ@@ 37
ು 37
ട@@ 37
ท 37
ราช@@ 37
เข@@ 37
ກ@@ 37
အ@@ 37
គ@@ 37
ṁ@@ 37
ốn 37
‧ 37
♪ 37
さ 37
べ@@ 37
を 37
ガ 37
ビ 37
保 37
典 37
发@@ 37
后@@ 37
宁@@ 37
弘 37
徳@@ 37
摩@@ 37
改@@ 37
溪@@ 37
爱 37
甲 37
竜@@ 37
解@@ 37
郎@@ 37
開@@ 37
頭 37
개@@ 37
면 37
물@@ 37
술@@ 37
𐤋 37
daki 36
deş@@ 36
fahren 36
iliş@@ 36
üş 36
Βασ@@ 36
Λε@@ 36
Μπ@@ 36
Πρ@@ 36
Συ@@ 36
άφ@@ 36
έ 36
ακή 36
λεγ@@ 36
λει@@ 36
μένη 36
οικ@@ 36
ριν@@ 36
στρα@@ 36
Дру@@ 36
Э 36
ата 36
года 36
ден 36
дер@@ 36
лев@@ 36
остров 36
пере@@ 36
ут@@ 36
щ 36
ър@@ 36
ә 36
լ 36
اض@@ 36
المق@@ 36
الوطنية 36
حة 36
لی 36
محافظة 36
هة 36
ير@@ 36
ّة 36
ܓ@@ 36
ܥ@@ 36
މ@@ 36
च@@ 36
ना 36
ला@@ 36
শ 36
ર 36
ത 36
ර@@ 36
สา@@ 36
ຊ@@ 36
ອ@@ 36
စ@@ 36
ስ@@ 36
ḿ@@ 36
ậu 36
ống 36
ữu 36
▀ 36
ぎ@@ 36
つ 36
わ 36
テ 36
五 36
善@@ 36
塚@@ 36
宏 36
尾 36
斗@@ 36
日本 36
桂@@ 36
步@@ 36
比@@ 36
灣@@ 36
燕 36
经@@ 36
肉@@ 36
芳 36
葉 36
董@@ 36
血@@ 36
裕@@ 36
角 36
話 36
郑@@ 36
銃 36
雅 36
鮮@@ 36
문 36
방@@ 36
오 36
왕 36
준@@ 36
크@@ 36
트@@ 36
평@@ 36
Namen 35
président 35
sinh 35
Độ 35
ơ@@ 35
ʎ@@ 35
ˤ 35
Γεω@@ 35
Κατ@@ 35
Τσ@@ 35
για 35
εισ@@ 35
μέν@@ 35
νη@@ 35
πολλ@@ 35
πυρ@@ 35
ρού@@ 35
τρί@@ 35
ωλ@@ 35
ότ@@ 35
Гер@@ 35
Ке@@ 35
Ч 35
бли@@ 35
бор@@ 35
жо@@ 35
зар@@ 35
кар@@ 35
лица 35
мет@@ 35
нау@@ 35
оло@@ 35
оп@@ 35
публики 35
рон@@ 35
сою@@ 35
шки 35
шко@@ 35
ён@@ 35
Ն@@ 35
ֱ@@ 35
المج@@ 35
باش@@ 35
حر@@ 35
ری 35
مسجد 35
می 35
وة 35
يس 35
يو@@ 35
ِّ@@ 35
ট 35
સ@@ 35
ஜ@@ 35
ೂ@@ 35
ട 35
ි@@ 35
ཀ@@ 35
ḏ 35
ầu 35
ặng 35
ỗ 35
₁ 35
↵ 35
∥ 35
ⲙ@@ 35
ヘ@@ 35
体 35
內@@ 35
全 35
其@@ 35
制@@ 35
夢 35
形@@ 35
彩@@ 35
彭@@ 35
打@@ 35
指@@ 35
敬@@ 35
术@@ 35
李 35
来 35
洋 35
盛@@ 35
相 35
立 35
節 35
蓮@@ 35
要@@ 35
豆@@ 35
车 35
鈴@@ 35
鐵@@ 35
麗@@ 35
과 35
반@@ 35
서 35
식 35
에 35
용@@ 35
젓 35
천 35
Gebiet 34
acak 34
américain 34
beim 34
dù 34
endet 34
founded 34
gibi 34
keine 34
lamu 34
tı 34
Ê 34
ày 34
ıcı 34
Şark@@ 34
ǝ@@ 34
Επ@@ 34
Κο@@ 34
Πέ@@ 34
Ρω@@ 34
άδα 34
βί@@ 34
γράφ@@ 34
ζω@@ 34
ηφ@@ 34
θή@@ 34
μερ@@ 34
πτ@@ 34
στη 34
ϐ@@ 34
Фа@@ 34
Ц 34
Ы@@ 34
бо 34
ват@@ 34
пера@@ 34
сер@@ 34
соб@@ 34
به 34
دار@@ 34
زر@@ 34
سن 34
شي@@ 34
شی@@ 34
على 34
ما 34
وج@@ 34
ު@@ 34
को@@ 34
ব 34
ে 34
ા 34
ந 34
ผ@@ 34
ང@@ 34
ဖ@@ 34
ት@@ 34
ធ@@ 34
វ@@ 34
ử@@ 34
Ἔ@@ 34
や 34
个@@ 34
亚@@ 34
令 34
前 34
包@@ 34
始@@ 34
岳@@ 34
房@@ 34
梅 34
楼 34
浦 34
琴 34
砂@@ 34
笑@@ 34
總@@ 34
蘭@@ 34
號 34
衣 34
视@@ 34
遊@@ 34
闘@@ 34
무 34
배@@ 34
북@@ 34
석@@ 34
야 34
즈 34
𐤍 34
𐤏 34
Hội 33
Nhà 33
alement 33
established 33
irika 33
jwa 33
ngay 33
tement 33
äude 33
ơn 33
ɒ 33
˧ 33
Ανα@@ 33
αχ@@ 33
ειν@@ 33
θη 33
ιζ@@ 33
κον@@ 33
κόσ@@ 33
ούλ@@ 33
πρω@@ 33
τοκ@@ 33
φέρ@@ 33
χλ@@ 33
І 33
Петер@@ 33
Пра@@ 33
Свети 33
Ско@@ 33
Це@@ 33
ара 33
бъ@@ 33
вина 33
воен@@ 33
дне@@ 33
кор@@ 33
лей@@ 33
нал 33
ники 33
ново 33
рез@@ 33
род 33
ру 33
сс 33
ститу@@ 33
стре@@ 33
ся@@ 33
тор 33
хан 33
ый 33
ң 33
מ 33
ادر 33
از 33
الإسلا@@ 33
بير 33
تب@@ 33
ران 33
سلام 33
طة 33
لی@@ 33
نة 33
ها 33
پور 33
گ 33
ܣ@@ 33
ड@@ 33
ता@@ 33
रा 33
ार@@ 33
খ@@ 33
গ 33
ਹ@@ 33
ೆ 33
ณ 33
อา@@ 33
ር 33
ណ@@ 33
ḷ 33
ạo 33
ắng 33
ễ@@ 33
↦ 33
⊢ 33
ⲣ@@ 33
〒 33
エ 33
东 33
中华@@ 33
中国 33
乌@@ 33
九 33
仙 33
剣@@ 33
古 33
堂@@ 33
娘 33
府@@ 33
开@@ 33
恵@@ 33
想 33
慶@@ 33
戸 33
所@@ 33
果@@ 33
柏@@ 33
梨@@ 33
楚@@ 33
油@@ 33
温@@ 33
澳@@ 33
熊@@ 33
独@@ 33
画@@ 33
稲@@ 33
章@@ 33
結@@ 33
范@@ 33
记 33
貞@@ 33
达@@ 33
소 33
하 33
Jahrhundert 32
annte 32
donc 32
nahme 32
quement 32
returned 32
uzun 32
Ï@@ 32
ɴ 32
Βασιλ@@ 32
Κ 32
ανά@@ 32
βά@@ 32
ισμός 32
κε@@ 32
λευθερ@@ 32
νέ@@ 32
οί@@ 32
ούς 32
πει@@ 32
ϊκ@@ 32
όπο@@ 32
Георги 32
Пол@@ 32
вых 32
джи@@ 32
зя@@ 32
ил 32
ити@@ 32
ком 32
мии 32
миче@@ 32
нен@@ 32
ну 32
объ@@ 32
пат@@ 32
ске 32
Թ@@ 32
آباد 32
المح@@ 32
الي 32
سر 32
ليل 32
रु@@ 32
ा@@ 32
অ@@ 32
ঙ 32
ু 32
ய 32
ప@@ 32
ര 32
รี@@ 32
สม@@ 32
ั 32
ัน@@ 32
ཁ@@ 32
ှ@@ 32
ზ 32
ን@@ 32
ន 32
ảnh 32
ἵ@@ 32
⊙ 32
♡ 32
ⲉ@@ 32
ⵉ 32
ゥ@@ 32
ヤ 32
丽@@ 32
使@@ 32
博 32
友 32
囲@@ 32
土 32
委@@ 32
密@@ 32
崇@@ 32
師@@ 32
度 32
慧@@ 32
斯 32
朴@@ 32
梦@@ 32
氏@@ 32
珠@@ 32
町@@ 32
祖 32
等@@ 32
纪@@ 32
群@@ 32
而@@ 32
臣@@ 32
衣@@ 32
詩 32
许@@ 32
语 32
辛@@ 32
运@@ 32
近@@ 32
食 32
马 32
鳥 32
鳳@@ 32
거@@ 32
계@@ 32
단@@ 32
디@@ 32
순@@ 32
재 32
차@@ 32
학 32
합@@ 32
Nhật 31
ainsi 31
böl@@ 31
celui 31
ledi 31
nghĩa 31
tekn@@ 31
 31
̇ 31
Κλ@@ 31
Λι@@ 31
άβ@@ 31
αζ@@ 31
ειλ@@ 31
ενός 31
κερ@@ 31
μαρ@@ 31
ουρ@@ 31
ποδ@@ 31
ραγ@@ 31
ταρ@@ 31
τεύ@@ 31
ωπ@@ 31
Глав@@ 31
Кли@@ 31
Македо@@ 31
Мал@@ 31
Ш 31
дри@@ 31
зи 31
ление 31
льное 31
мя 31
насти@@ 31
нер@@ 31
ника 31
рас@@ 31
ристи@@ 31
рова@@ 31
ски@@ 31
сси@@ 31
чин 31
чный 31
чь 31
ү 31
ابو 31
باب 31
بلا@@ 31
جن@@ 31
جي@@ 31
عمر@@ 31
كتاب 31
كي 31
نادي 31
يني 31
یر 31
ܝ 31
ই@@ 31
ণ@@ 31
ಜ@@ 31
ಹ@@ 31
േ@@ 31
ා@@ 31
ค 31
ญ@@ 31
ภ@@ 31
มหา@@ 31
པ 31
ን 31
ゅ@@ 31
丸@@ 31
争 31
伯 31
儀 31
刀@@ 31
利 31
回 31
外 31
威 31
孔@@ 31
容@@ 31
寧@@ 31
戰@@ 31
曾@@ 31
柴@@ 31
業 31
次 31
池@@ 31
津 31
澤 31
瀬 31
番@@ 31
科 31
童@@ 31
維@@ 31
经 31
蘭 31
警@@ 31
越 31
遠 31
間 31
面 31
魏 31
불@@ 31
생@@ 31
양 31
음 31
훈 31
besonder@@ 30
halb 30
hatten 30
kisi@@ 30
ngữ 30
nhi@@ 30
projet 30
troisième 30
Ã@@ 30
ăn 30
ını 30
ŝ 30
Ǝ@@ 30
ɜ@@ 30
ʝ 30
Βασίλ@@ 30
Μ 30
Μακ@@ 30
Ξ 30
άλυ@@ 30
άρα 30
εμ@@ 30
ηθ@@ 30
ιπ@@ 30
κω@@ 30
οιν@@ 30
ς@@ 30
την 30
Бур@@ 30
За 30
Ы 30
гро@@ 30
дате@@ 30
ем 30
каде@@ 30
кла@@ 30
кого 30
лка 30
мона@@ 30
обра@@ 30
пла@@ 30
пове@@ 30
ту 30
фло@@ 30
хот@@ 30
ѳ@@ 30
Ө@@ 30
յ 30
և@@ 30
־ 30
الث@@ 30
المر@@ 30
المع@@ 30
امة 30
بار@@ 30
بد 30
خال@@ 30
زيد 30
سلط@@ 30
مخ@@ 30
نی 30
نی@@ 30
هد 30
ينة 30
ރ@@ 30
ह 30
ु 30
ঁ@@ 30
জ 30
ਕ@@ 30
ੁ@@ 30
ો@@ 30
ଜ@@ 30
ଲ@@ 30
ற@@ 30
ු@@ 30
ງ@@ 30
ດ@@ 30
ཤ@@ 30
ྫ@@ 30
ီ@@ 30
ስ 30
የ@@ 30
ṛ 30
ỉ 30
ột 30
ữ 30
々@@ 30
ね 30
丁 30
乃@@ 30
久 30
于 30
亭 30
令@@ 30
佛 30
佳 30
侯@@ 30
共和@@ 30
冬@@ 30
劇@@ 30
匈@@ 30
定 30
宫 30
将@@ 30
政 30
故@@ 30
文化 30
景 30
母 30
泰 30
浜@@ 30
浩 30
湾@@ 30
満@@ 30
潘@@ 30
烈@@ 30
然 30
版@@ 30
琴@@ 30
申@@ 30
福 30
絵 30
老 30
茂@@ 30
葛@@ 30
藝@@ 30
諸@@ 30
那 30
隆 30
黎@@ 30
녀 30
병@@ 30
요@@ 30
준 30
철 30
espèce 29
göz@@ 29
ierung 29
quá 29
sprech@@ 29
weiter 29
ĝ 29
ğu 29
ıc@@ 29
Εν@@ 29
Ζ 29
Κορ@@ 29
έφ@@ 29
ίδα 29
βαν@@ 29
βαρ@@ 29
γεν@@ 29
ειρ@@ 29
εργ@@ 29
μικρ@@ 29
ρή@@ 29
σμός 29
ταλ@@ 29
τε 29
υνα@@ 29
φερ@@ 29
Дж@@ 29
Роди@@ 29
Фили@@ 29
Ь 29
дин@@ 29
ему 29
ить 29
кол@@ 29
кре@@ 29
лич@@ 29
нат 29
опера@@ 29
ора 29
со 29
сту@@ 29
язы@@ 29
ҧ@@ 29
Ք@@ 29
ւ 29
احمد 29
الدین 29
الفل@@ 29
تر@@ 29
رير 29
ری@@ 29
سان 29
طف@@ 29
طي@@ 29
مجلس 29
مست@@ 29
ند 29
وية 29
ویژن 29
پی@@ 29
ܢ 29
ނ@@ 29
ता 29
फ 29
शा@@ 29
ि 29
ी 29
ન@@ 29
ା@@ 29
ழ@@ 29
ಲ 29
ಳ@@ 29
ೇ@@ 29
ක@@ 29
ช 29
ญ 29
าน 29
เท@@ 29
ເ@@ 29
བ 29
္ 29
მ 29
መ@@ 29
់ 29
ẹ@@ 29
ố 29
ốc 29
ồn 29
‛ 29
‬ 29
⇔ 29
ⲛ@@ 29
【 29
】 29
が 29
だ 29
む@@ 29
ァ 29
ギ 29
七 29
乡 29
亜@@ 29
優@@ 29
同 29
呂@@ 29
嘉 29
器 29
四 29
妃 29
妙@@ 29
守 29
宙@@ 29
寿@@ 29
小 29
师 29
思 29
慕@@ 29
戴@@ 29
晋@@ 29
条 29
济@@ 29
焼@@ 29
版 29
私@@ 29
笠@@ 29
系 29
羽 29
舞 29
蒋@@ 29
蒲@@ 29
衛 29
辛 29
造@@ 29
队 29
黒 29
권@@ 29
래@@ 29
방 29
씨@@ 29
역@@ 29
운 29
음@@ 29
티@@ 29
Osmanlı 28
annten 28
beiden 28
caractér@@ 28
hunder@@ 28
located 28
rôle 28
vement 28
ığ@@ 28
ǫ 28
ɟ@@ 28
ɫ@@ 28
ʀ 28
ʕ 28
Ελλάδας 28
έρας 28
ήματα 28
αντιν@@ 28
δρα@@ 28
είδ@@ 28
εγ@@ 28
εξ@@ 28
θα 28
κρατ@@ 28
ονομ@@ 28
πον@@ 28
бург@@ 28
вол@@ 28
воло@@ 28
дь 28
куль@@ 28
лат@@ 28
мокра@@ 28
нар@@ 28
низ@@ 28
них 28
того 28
тура 28
цент@@ 28
أس 28
اق 28
الأر@@ 28
الدي@@ 28
العرا@@ 28
المه@@ 28
ایران 28
جام@@ 28
حم@@ 28
خت@@ 28
داد 28
دن 28
عر@@ 28
علا@@ 28
عي 28
لس 28
نو@@ 28
وار@@ 28
ܩ@@ 28
ދ@@ 28
गो@@ 28
ट@@ 28
नी 28
ब 28
मु@@ 28
ष 28
सा@@ 28
हा@@ 28
हि@@ 28
ਗ@@ 28
ਜ 28
ਪ@@ 28
ં@@ 28
ગ@@ 28
ો 28
ண 28
ద@@ 28
จัง@@ 28
ภู@@ 28
าน@@ 28
เก@@ 28
ṟ@@ 28
ấm 28
ắ@@ 28
⁻ 28
ⴳ@@ 28
あ 28
ネ 28
乐 28
亞@@ 28
传 28
传@@ 28
創@@ 28
呼@@ 28
多 28
室@@ 28
寧 28
岡 28
庆@@ 28
店 28
座 28
役 28
復@@ 28
性@@ 28
怪@@ 28
意@@ 28
扶@@ 28
有 28
杉@@ 28
杰 28
板 28
根 28
歩 28
歩@@ 28
气 28
炎 28
炎@@ 28
熱@@ 28
界 28
秘@@ 28
米 28
經@@ 28
联@@ 28
茨@@ 28
莫@@ 28
菊@@ 28
護@@ 28
走@@ 28
身@@ 28
陰@@ 28
鬼 28
鲁@@ 28
과@@ 28
관@@ 28
달@@ 28
심@@ 28
육@@ 28
코@@ 28
통@@ 28
피@@ 28
허@@ 28
혁 28
환 28
희@@ 28
 28
𐤉 28
adhim@@ 27
cung 27
ihren 27
prend 27
wieder@@ 27
ält 27
đá 27
İm@@ 27
ıt@@ 27
ʐ 27
Ένω@@ 27
Απ@@ 27
Θεσσαλον@@ 27
Κου@@ 27
Μέ@@ 27
άχ@@ 27
έπ@@ 27
είας 27
κρι@@ 27
λαβ@@ 27
μελ@@ 27
ουσα 27
στερ@@ 27
τό 27
φορ@@ 27
ύγ@@ 27
Гла@@ 27
СР 27
Юж@@ 27
арти@@ 27
атов 27
бри@@ 27
все@@ 27
гов@@ 27
гово@@ 27
еле@@ 27
итель@@ 27
коно@@ 27
нет 27
ном 27
пас@@ 27
поль@@ 27
рак@@ 27
рю@@ 27
ств 27
ң@@ 27
צ 27
أل@@ 27
اج 27
ادة 27
الح 27
المؤ@@ 27
سب@@ 27
عين 27
قو@@ 27
لب 27
لف@@ 27
مدينة 27
يُ@@ 27
पु@@ 27
ਮ@@ 27
ా 27
ನ 27
ജ@@ 27
ัย 27
ထ@@ 27
በ@@ 27
ደ@@ 27
Ḏ@@ 27
Ḳ@@ 27
ạt 27
ật 27
ἠ@@ 27
Ἥ@@ 27
Ὄ@@ 27
ℂ 27
℗ 27
ⴼ@@ 27
せ 27
で 27
ひ 27
ぷ@@ 27
ぼ@@ 27
ゃ 27
ゾ@@ 27
不 27
了 27
侍@@ 27
剣 27
卫@@ 27
取@@ 27
叶@@ 27
團 27
堀@@ 27
奉@@ 27
如 27
姬 27
対@@ 27
将 27
恩 27
承@@ 27
楽 27
樹@@ 27
沢 27
活@@ 27
游@@ 27
湯 27
為@@ 27
珠 27
琳 27
留@@ 27
祥@@ 27
祭 27
秦 27
管@@ 27
级@@ 27
能 27
芳@@ 27
茂 27
蔵 27
謝@@ 27
豊@@ 27
豹 27
超 27
车@@ 27
银@@ 27
靈@@ 27
須@@ 27
飯@@ 27
駅 27
간 27
말@@ 27
블@@ 27
세 27
욱 27
키@@ 27
alors 26
altı 26
deuxième 26
dieses 26
fün@@ 26
igten 26
ishwa 26
kodi 26
 26
¤ 26
Ð 26
üsü 26
ĥ@@ 26
İk@@ 26
Ŝ@@ 26
ɖ 26
ˀ@@ 26
˩ 26
Άν@@ 26
Ελλ@@ 26
ήγ@@ 26
ίκης 26
ανδρ@@ 26
αρι@@ 26
γε@@ 26
δοκ@@ 26
μία 26
νό@@ 26
πιστ@@ 26
ρακ@@ 26
στα@@ 26
φω@@ 26
όμεν@@ 26
Бел@@ 26
вин@@ 26
вод 26
всех 26
коми@@ 26
лей 26
мат 26
ность 26
пис@@ 26
руп@@ 26
ръ@@ 26
свобо@@ 26
стер@@ 26
фа 26
футбо@@ 26
чна 26
шая 26
эк@@ 26
ёт 26
ճ@@ 26
إي@@ 26
اسم 26
اضي 26
افغانستان 26
الاتحاد 26
البي@@ 26
السع@@ 26
بع@@ 26
ترا@@ 26
تي 26
جر@@ 26
دا 26
رات 26
شو@@ 26
قب@@ 26
قي 26
كر 26
لان 26
مقرا@@ 26
مهورية 26
وات 26
وی@@ 26
इ@@ 26
ख 26
जा@@ 26
नगर 26
नि@@ 26
बाद 26
लि@@ 26
ਨ@@ 26
દ@@ 26
บุรี 26
ลา@@ 26
တ 26
ူ@@ 26
ច@@ 26
អ@@ 26
ោ@@ 26
ṉ 26
ẫn 26
ếu 26
ỏi 26
ữa 26
げ@@ 26
っ 26
づ@@ 26
ケ 26
世界 26
业@@ 26
义 26
健 26
典@@ 26
勇 26
吾@@ 26
喜 26
單@@ 26
報 26
宁 26
実@@ 26
寶 26
屋@@ 26
屠@@ 26
崔@@ 26
微@@ 26
恩@@ 26
施@@ 26
是 26
智 26
校@@ 26
洛@@ 26
洞 26
浙@@ 26
演@@ 26
漫@@ 26
熊 26
父 26
猫 26
玄 26
益@@ 26
眼 26
紙 26
素@@ 26
股@@ 26
船@@ 26
行政@@ 26
議@@ 26
賞 26
赛 26
达 26
连@@ 26
鎮@@ 26
鏡 26
震 26
順@@ 26
风 26
飞@@ 26
骨@@ 26
鶴@@ 26
군@@ 26
당@@ 26
들 26
떡 26
만 26
매@@ 26
복@@ 26
본@@ 26
와 26
회@@ 26
ﺍ@@ 26
･ 26
Kasım 25
Xã 25
adı 25
ancak 25
atı 25
durch@@ 25
einige 25
frü@@ 25
hội 25
kazan@@ 25
kendi 25
luss 25
mög@@ 25
sondern 25
standen 25
tür 25
Ã 25
Ë 25
ètres 25
êng 25
Ĕ@@ 25
Ī 25
ımı 25
ĵ 25
Ŭ@@ 25
ưu 25
Ǧ@@ 25
ȟ@@ 25
ʌ 25
ʧ 25
ˠ 25
Εθν@@ 25
Στα@@ 25
Τζ@@ 25
άν 25
έδ@@ 25
ίλι@@ 25
βασιλ@@ 25
γον@@ 25
γραφή 25
δια@@ 25
δό@@ 25
ηματ@@ 25
κιν@@ 25
κοιν@@ 25
μένης 25
μετα@@ 25
περι@@ 25
πού@@ 25
στασ@@ 25
τικό 25
υφ@@ 25
ότητα 25
ώρα 25
ώσ@@ 25
ϰ@@ 25
Бы@@ 25
Май@@ 25
Рос@@ 25
Три@@ 25
Фран@@ 25
бор 25
бы 25
вре@@ 25
гер@@ 25
город@@ 25
йна 25
комите@@ 25
крат@@ 25
лаго@@ 25
лен 25
они 25
рё@@ 25
син@@ 25
сс@@ 25
стру@@ 25
сты 25
хи 25
цар@@ 25
ят 25
Ռ@@ 25
վ 25
اح@@ 25
الجام@@ 25
المست@@ 25
ة@@ 25
تون@@ 25
قية 25
مال@@ 25
نظ@@ 25
وان 25
وه@@ 25
يم@@ 25
ہ 25
ވ@@ 25
के@@ 25
पाल 25
मो@@ 25
वर 25
सि@@ 25
ੀ 25
ச 25
ಡ@@ 25
ീ@@ 25
หม@@ 25
ิน 25
ທ@@ 25
ນ 25
ພ@@ 25
ྡ@@ 25
ይ@@ 25
យ 25
ᠭ@@ 25
ḱ@@ 25
ổi 25
ὲ@@ 25
⁣ 25
₦ 25
ヨ 25
儿 25
六 25
军@@ 25
冰@@ 25
哲@@ 25
地区 25
孫 25
宿@@ 25
察@@ 25
庭@@ 25
当@@ 25
後 25
性 25
情 25
旅@@ 25
昆@@ 25
桜 25
永 25
浪@@ 25
湯@@ 25
爆@@ 25
爾@@ 25
牧@@ 25
玲 25
現@@ 25
発@@ 25
破@@ 25
節@@ 25
経 25
翔 25
至@@ 25
致@@ 25
苗@@ 25
製@@ 25
詩@@ 25
説 25
貘 25
貴 25
赤 25
迪@@ 25
郁@@ 25
重 25
铁路 25
陶@@ 25
霍@@ 25
靖@@ 25
魂 25
魚@@ 25
鹿 25
ꜣ 25
를 25
버@@ 25
새@@ 25
설@@ 25
운@@ 25
치 25
향@@ 25
️ 25
ﻟ@@ 25
﻿ 25
𐤁 25
𐤓 25
Alman 24
Liên 24
Quân 24
dài 24
itwa 24
lassen 24
linois 24
lük 24
sehr 24
spé@@ 24
umika 24
zusammen 24
öffent@@ 24
ında 24
Ő@@ 24
ɫ 24
ʈ@@ 24
Ορ@@ 24
Σχολ@@ 24
ήλ@@ 24
αίν@@ 24
δημ@@ 24
δύ@@ 24
κορ@@ 24
μικ@@ 24
ρίου 24
σκοπ@@ 24
ταυ@@ 24
υχ@@ 24
χορ@@ 24
χω@@ 24
ώπ@@ 24
Ги@@ 24
Йо@@ 24
Хи@@ 24
Ъ 24
анд@@ 24
ати 24
водо@@ 24
вое 24
компания 24
лер 24
най 24
нова@@ 24
све@@ 24
ском 24
совет@@ 24
ход 24
ѝ@@ 24
Ү@@ 24
ө 24
Շ@@ 24
اسلامی 24
اك@@ 24
الرا@@ 24
بح@@ 24
بد@@ 24
دم 24
دية 24
عباس 24
فلسط@@ 24
قص@@ 24
لية 24
مد 24
هم 24
وری 24
وس 24
يران 24
ہ@@ 24
ܚ@@ 24
ܦ@@ 24
ާ@@ 24
ު 24
ँ@@ 24
कर 24
कि@@ 24
मा 24
উ@@ 24
ી 24
ે@@ 24
இ@@ 24
ஸ 24
ಕ 24
ಳ 24
คร@@ 24
ประ@@ 24
พ 24
ส 24
ມ@@ 24
້ 24
ཡ@@ 24
ྐ@@ 24
ླ@@ 24
ယ 24
ង@@ 24
ល@@ 24
ូ@@ 24
ᴚ@@ 24
ṉ@@ 24
ṕ@@ 24
ẩn 24
ừa 24
ⵔ 24
ⵢ@@ 24
ョ 24
云 24
僕@@ 24
先 24
党@@ 24
冒@@ 24
勝 24
印@@ 24
吹@@ 24
唐 24
商 24
坡@@ 24
型 24
威@@ 24
娘@@ 24
完@@ 24
客@@ 24
容 24
巨@@ 24
干 24
干@@ 24
幻@@ 24
彼@@ 24
快@@ 24
房 24
暗@@ 24
桐@@ 24
死 24
满@@ 24
潮@@ 24
篇 24
粉 24
純@@ 24
終@@ 24
統@@ 24
肉 24
芸@@ 24
跡 24
車站 24
輝 24
간@@ 24
건@@ 24
명 24
으@@ 24
파@@ 24
Präs@@ 23
annt 23
dü 23
exemple 23
gestellt 23
hòa 23
idadi 23
liegt 23
trang 23
ubwa 23
xã 23
yıld@@ 23
èrement 23
úp 23
ılık 23
Ŏ@@ 23
ǘ 23
ǝ 23
ɸ 23
Ελ@@ 23
Μακεδ@@ 23
άνα@@ 23
έλλ@@ 23
έμ@@ 23
ασία 23
ικής 23
ικών 23
ιλι@@ 23
λεπ@@ 23
με 23
νησ@@ 23
παλ@@ 23
πορ@@ 23
προς 23
πρό@@ 23
ριο 23
τή 23
ταμ@@ 23
τελ@@ 23
τηγ@@ 23
φθ@@ 23
ύ 23
Съ@@ 23
вор@@ 23
вые 23
гда 23
дей@@ 23
зы 23
каза@@ 23
кни@@ 23
мати@@ 23
мент 23
над 23
нем 23
обе@@ 23
пя@@ 23
раб@@ 23
ради@@ 23
рал 23
рес@@ 23
сен 23
съ@@ 23
уни@@ 23
фрон@@ 23
фу@@ 23
чно 23
ший 23
Ӏ 23
البل@@ 23
الشر@@ 23
القر@@ 23
تق@@ 23
ده 23
سما@@ 23
صل 23
فو@@ 23
ماء 23
متح@@ 23
مصر 23
نام@@ 23
نور 23
نية 23
ورية 23
يون 23
का 23
थ@@ 23
ष@@ 23
ु@@ 23
ક@@ 23
પ@@ 23
ಚ@@ 23
ಯ@@ 23
ೆ@@ 23
ങ 23
ම@@ 23
ව@@ 23
กา@@ 23
ข 23
ตา@@ 23
ป 23
พิ@@ 23
รร@@ 23
วง@@ 23
อน 23
ะ 23
ั@@ 23
ู@@ 23
เพ@@ 23
ິ@@ 23
ཐ@@ 23
ཕ@@ 23
ྟ@@ 23
ል 23
ማ@@ 23
ዮ@@ 23
ገ@@ 23
ᠣ@@ 23
ếp 23
ỏ 23
ụ 23
ἷ@@ 23
Ὠ@@ 23
ῳ 23
₽ 23
┌ 23
へ@@ 23
ソ 23
乃 23
仮@@ 23
伟 23
使 23
克 23
兰 23
兴@@ 23
农@@ 23
切 23
可 23
品@@ 23
图@@ 23
圓 23
圖@@ 23
基 23
声@@ 23
壽@@ 23
変 23
头@@ 23
夷@@ 23
奇 23
孤@@ 23
宏@@ 23
宜@@ 23
尊 23
岩 23
岸@@ 23
峰@@ 23
巴 23
忍@@ 23
总@@ 23
慎@@ 23
慶 23
散@@ 23
望 23
棋@@ 23
泥@@ 23
滿@@ 23
澤@@ 23
片@@ 23
牛 23
登@@ 23
禮 23
端@@ 23
精 23
組 23
臨@@ 23
落@@ 23
詞 23
譜 23
豪 23
賢 23
賢@@ 23
輔 23
远@@ 23
邦@@ 23
邵@@ 23
陆@@ 23
餅 23
騎@@ 23
게 23
교@@ 23
권 23
독@@ 23
등@@ 23
루@@ 23
법 23
별@@ 23
빈 23
식@@ 23
애@@ 23
유 23
윤 23
종 23
추@@ 23
티 23
포@@ 23
형@@ 23
𐤉@@ 23
Anfang 22
announc@@ 22
arası 22
ashara 22
belir@@ 22
dı 22
harek@@ 22
hizi 22
miş@@ 22
mpira 22
présente 22
ständi@@ 22
tragen 22
veya 22
¶ 22
Õ 22
Ċ@@ 22
ĥ 22
ȳ@@ 22
ʉ 22
ˆ@@ 22
ˈ 22
̺ 22
Αθη@@ 22
Δημοκρατ@@ 22
Εκ@@ 22
Ελλάδ@@ 22
Πρω@@ 22
αργ@@ 22
αυτ@@ 22
γαρ@@ 22
ητής 22
θήκη 22
ματος 22
μετ@@ 22
μορφή 22
πόλ@@ 22
ρίς 22
ρν@@ 22
σεις 22
σμα 22
τορ@@ 22
ωμα 22
бат@@ 22
бро@@ 22
бю@@ 22
ген 22
гия 22
гна@@ 22
дом 22
ер 22
жение 22
зах@@ 22
коло@@ 22
май@@ 22
мон@@ 22
роди@@ 22
стри@@ 22
тво@@ 22
тер 22
техниче@@ 22
туры 22
ёл 22
Յ@@ 22
ե 22
ո 22
اف 22
با 22
باب@@ 22
بيل 22
جه@@ 22
خو@@ 22
دير 22
رام 22
زار 22
سلا@@ 22
سی 22
طي 22
كت@@ 22
لاح 22
مرا@@ 22
مس 22
نه@@ 22
ولا@@ 22
ڤ@@ 22
ंग@@ 22
ः 22
गढ 22
झ@@ 22
ती 22
सं@@ 22
सु@@ 22
ी@@ 22
ू@@ 22
ુ@@ 22
ஆ@@ 22
െ@@ 22
ප@@ 22
นิ@@ 22
สิ@@ 22
อง 22
ัก@@ 22
່ 22
ለ@@ 22
ብ@@ 22
ṇ 22
ều 22
ụ@@ 22
ἢ 22
₃ 22
Ⅱ 22
Ⅲ 22
ⲧ@@ 22
ぬ@@ 22
ふ 22
セ 22
ヌ@@ 22
ワ 22
ヴ 22
丘 22
乾@@ 22
产@@ 22
儿@@ 22
再@@ 22
切@@ 22
制 22
副@@ 22
包 22
匹@@ 22
卓@@ 22
品 22
团@@ 22
在 22
坂 22
妖@@ 22
宝 22
実 22
室 22
巫 22
巻 22
庚 22
强 22
悪@@ 22
感@@ 22
才 22
提@@ 22
斌 22
斎 22
朗 22
极@@ 22
榮 22
汉 22
油 22
浅@@ 22
湾 22
灣 22
犬 22
犬@@ 22
珍@@ 22
産@@ 22
由 22
祭@@ 22
穆@@ 22
站 22
第一@@ 22
策 22
紅 22
耶@@ 22
興 22
莊@@ 22
蔣@@ 22
辰 22
进@@ 22
逸@@ 22
鐘 22
钱@@ 22
隊@@ 22
順 22
馮@@ 22
魂@@ 22
魚 22
黄 22
마 22
메@@ 22
손@@ 22
야@@ 22
와@@ 22
월@@ 22
차 22
철@@ 22
카@@ 22
터 22
플@@ 22
형 22
？ 22
Dünya 21
Từ 21
gouvernement 21
kundi 21
ließ 21
spä@@ 21
taş@@ 21
territoire 21
 21
ĩa 21
Ĭ@@ 21
Ĳ@@ 21
ư@@ 21
ɜ 21
ʧ@@ 21
Ή@@ 21
ίδας 21
αμπ@@ 21
δη 21
διά@@ 21
είου 21
είς 21
κατά 21
κι 21
μάχ@@ 21
ντ@@ 21
περί@@ 21
πόλε@@ 21
σίας 21
ωγ@@ 21
όμα 21
По 21
Сре@@ 21
Тре@@ 21
бере@@ 21
бло@@ 21
версите@@ 21
ени 21
жан@@ 21
их 21
как 21
кру@@ 21
мест@@ 21
музе@@ 21
нан@@ 21
око@@ 21
отде@@ 21
пан@@ 21
при 21
само@@ 21
соеди@@ 21
тен 21
фон@@ 21
ця@@ 21
ён 21
ҷ@@ 21
Ә@@ 21
ը 21
السلام 21
القدم 21
بش@@ 21
تف@@ 21
جع@@ 21
جمع@@ 21
جي 21
دس 21
رج@@ 21
زا 21
زی@@ 21
فار@@ 21
لاد 21
لكرة 21
مار 21
ملی 21
منص@@ 21
ناصر 21
نص@@ 21
ٍ 21
ژ@@ 21
گر@@ 21
ین 21
ܵ@@ 21
घ@@ 21
ति 21
मे@@ 21
या 21
राज@@ 21
राष 21
शि@@ 21
প 21
ৰ 21
ਜ@@ 21
ੀ@@ 21
ડ@@ 21
હ@@ 21
ର@@ 21
ொ@@ 21
య@@ 21
റ@@ 21
ള 21
มา@@ 21
ระ@@ 21
เจ@@ 21
ົ@@ 21
ྗ@@ 21
ည 21
ံ@@ 21
ግ@@ 21
ី 21
ែ@@ 21
៉ 21
ếm 21
ối 21
ớ@@ 21
ợ@@ 21
Ἕ@@ 21
ὶ@@ 21
ῳ@@ 21
‟ 21
Ⅹ@@ 21
ボ 21
中國 21
了@@ 21
予@@ 21
位 21
依@@ 21
俊 21
個@@ 21
句 21
唯@@ 21
墨@@ 21
央 21
姚@@ 21
娜 21
婷 21
廳 21
征@@ 21
恋 21
恭@@ 21
慈@@ 21
报 21
敬 21
斎@@ 21
杭@@ 21
柔@@ 21
梁 21
毛 21
汪@@ 21
決@@ 21
沖@@ 21
洞@@ 21
滨@@ 21
照@@ 21
燒@@ 21
父@@ 21
狂@@ 21
班@@ 21
球 21
盛 21
直 21
祝@@ 21
祥 21
競@@ 21
竹 21
縣@@ 21
羊@@ 21
肥@@ 21
菜@@ 21
象@@ 21
輪@@ 21
辉 21
追@@ 21
連 21
達 21
選@@ 21
鉄 21
铁 21
齊 21
규 21
그 21
금@@ 21
내 21
더 21
림@@ 21
밥 21
숙 21
앤@@ 21
없@@ 21
집 21
축@@ 21
크 21
ﺎ@@ 21
𐤓@@ 21
𝐾 21
Ocak 20
daha 20
effet 20
giá 20
hát 20
jähr@@ 20
peuvent 20
verschied@@ 20
weise 20
zake 20
 20
Âu 20
étaient 20
ülk@@ 20
Ĉ@@ 20
ǚ@@ 20
ɰ 20
˜ 20
̑ 20
̹ 20
Αθηνών 20
Πανεπιστήμιο 20
άλασ@@ 20
έβ@@ 20
αντι@@ 20
διδ@@ 20
δικα@@ 20
δομ@@ 20
είων 20
θω@@ 20
κίν@@ 20
καλλ@@ 20
κατα@@ 20
μάτων 20
ουσι@@ 20
ρι 20
Ϝ 20
Ав@@ 20
Й@@ 20
Пор@@ 20
СС@@ 20
вого 20
жество 20
най@@ 20
пло@@ 20
река 20
ряд 20
теле@@ 20
тий 20
уби@@ 20
управление 20
ѐ@@ 20
њ 20
և 20
ائل 20
اری 20
المص@@ 20
اه 20
باد@@ 20
بی 20
تا 20
تل 20
تی 20
جر 20
جز@@ 20
حسین 20
دين 20
شام 20
غز@@ 20
فري@@ 20
لاب 20
لام 20
له 20
لو 20
مغ@@ 20
مين 20
ندر 20
هار@@ 20
وار 20
والم@@ 20
پ 20
چ 20
ګ@@ 20
ެ@@ 20
चि@@ 20
ण@@ 20
बु@@ 20
रि@@ 20
रो@@ 20
े@@ 20
ড@@ 20
ফ@@ 20
ਤ@@ 20
ਵ@@ 20
ం 20
ర 20
ಣ@@ 20
അ@@ 20
പ 20
ള@@ 20
ා 20
ทร 20
บ 20
บั@@ 20
ປ@@ 20
ྱ 20
ဆ@@ 20
ါ@@ 20
ბ 20
ም 20
ም@@ 20
Ṯ@@ 20
ập 20
ắm 20
ộ@@ 20
ở 20
ὤ@@ 20
ὲ 20
⁠ 20
ℕ 20
⅜ 20
≋ 20
ⲥ 20
ⵖ@@ 20
ⵟ@@ 20
々 20
ざ@@ 20
む 20
ゐ 20
ゴ 20
丰@@ 20
临@@ 20
丽 20
亮@@ 20
俱@@ 20
兄@@ 20
兩@@ 20
冠@@ 20
冬 20
分 20
剛@@ 20
功 20
功@@ 20
动 20
厦 20
去 20
告@@ 20
味 20
咲@@ 20
報@@ 20
墓 20
宋 20
尼@@ 20
幸 20
弥@@ 20
律@@ 20
忠 20
才@@ 20
技 20
敦@@ 20
易 20
服@@ 20
板@@ 20
桐 20
條@@ 20
楼@@ 20
樓 20
段@@ 20
汝@@ 20
濟@@ 20
照 20
盤 20
矢 20
礼 20
禁@@ 20
組@@ 20
红 20
耳@@ 20
聖 20
聞@@ 20
與@@ 20
莉 20
萌@@ 20
蔵@@ 20
蕭@@ 20
虹 20
见@@ 20
论 20
象 20
賀 20
资@@ 20
趙 20
辺@@ 20
進 20
邓@@ 20
郡@@ 20
鄂@@ 20
醫@@ 20
钟@@ 20
铁@@ 20
關 20
闻@@ 20
附@@ 20
震@@ 20
霞 20
露@@ 20
非@@ 20
韓 20
飞 20
麟 20
鼓@@ 20
놀@@ 20
러@@ 20
류@@ 20
물 20
보 20
봉@@ 20
악@@ 20
； 20
𐤄 20
𐤌@@ 20
Danh 19
Mayıs 19
amoja 19
asyon 19
hayo 19
schied@@ 19
tasar@@ 19
tient 19
Ï 19
ây 19
ċ 19
Ĝ@@ 19
ıp 19
Ż 19
ǂ 19
ʦ@@ 19
͈ 19
͜ 19
͵ 19
Ύ@@ 19
Γκ@@ 19
Ελλάδα 19
Μεγ@@ 19
άλλ@@ 19
ΰ@@ 19
αιν@@ 19
ασκ@@ 19
βιβλ@@ 19
ικοί 19
λεξ@@ 19
λλην@@ 19
μην@@ 19
μο 19
οξ@@ 19
οσφ@@ 19
υζ@@ 19
φή 19
χολ@@ 19
χρόν@@ 19
ϋ@@ 19
Ϲ 19
Ё 19
Ё@@ 19
Кро@@ 19
Раз@@ 19
ал 19
бай@@ 19
берг 19
бит@@ 19
вание 19
гате@@ 19
гри@@ 19
ент@@ 19
жав@@ 19
жде@@ 19
жения 19
жиз@@ 19
име@@ 19
кия 19
комму@@ 19
лед@@ 19
логи@@ 19
маши@@ 19
мина@@ 19
мост 19
ната 19
пен@@ 19
рам@@ 19
реб@@ 19
рио@@ 19
тече@@ 19
ход@@ 19
шин@@ 19
шта@@ 19
ща 19
آن 19
أي@@ 19
العل@@ 19
بط@@ 19
رش@@ 19
زی 19
عز@@ 19
علم 19
مل 19
نف@@ 19
نى 19
نگ 19
ودية 19
وش@@ 19
پار@@ 19
ھ@@ 19
ێ@@ 19
ހ@@ 19
ލ@@ 19
ް 19
ंग 19
ई 19
टी 19
ति@@ 19
दा@@ 19
पूर 19
मी@@ 19
या@@ 19
री@@ 19
ले@@ 19
ও@@ 19
ঘ@@ 19
ষ 19
ূ@@ 19
ਬ@@ 19
ੋ@@ 19
ె@@ 19
ೀ@@ 19
സ 19
ยา 19
ษ 19
หา@@ 19
ื 19
ງ 19
ວ 19
ដ@@ 19
ភ@@ 19
ᵃ 19
ḵ 19
ử 19
ỹ 19
Ἅ@@ 19
ἰ 19
ὠ@@ 19
ᾰ@@ 19
☖ 19
ⲛ 19
そ 19
ぬ 19
ゆ 19
ハ 19
丘@@ 19
亂 19
亡@@ 19
份@@ 19
住@@ 19
傳@@ 19
写@@ 19
凤@@ 19
卫 19
卷@@ 19
吕@@ 19
味@@ 19
団@@ 19
妹 19
季 19
就@@ 19
岸 19
己 19
师@@ 19
庁 19
張 19
得@@ 19
意 19
拉 19
敏@@ 19
料@@ 19
施 19
昭 19
果 19
桑@@ 19
梨 19
棍 19
欧@@ 19
止@@ 19
步 19
殺 19
殿@@ 19
汽@@ 19
浮@@ 19
無 19
片 19
狄@@ 19
环@@ 19
珍 19
瓦@@ 19
盧@@ 19
知 19
突@@ 19
竜 19
緒@@ 19
縄@@ 19
習@@ 19
船 19
艺@@ 19
艾@@ 19
荒@@ 19
荣@@ 19
虹@@ 19
蛇 19
要 19
親 19
観 19
觀@@ 19
语@@ 19
辰@@ 19
这@@ 19
運 19
過@@ 19
錄 19
錢 19
錢@@ 19
陳 19
顺@@ 19
骨 19
鳳 19
麵 19
강 19
남 19
덕@@ 19
두 19
름 19
림 19
머@@ 19
밀@@ 19
발@@ 19
속@@ 19
월 19
있@@ 19
채@@ 19
춘@@ 19
케@@ 19
Ｅ@@ 19
𐤁@@ 19
𝑃 19
März 18
Oktober 18
Weltkri@@ 18
ampiy@@ 18
anın 18
asının 18
dieser 18
eğ@@ 18
französ@@ 18
gái 18
hiyo 18
ierten 18
kwanza 18
lerine 18
lık@@ 18
selbst 18
singi 18
sông 18
süd@@ 18
sử 18
tự 18
Ý 18
Ă@@ 18
Ġ 18
į@@ 18
Ł 18
ǣ 18
ɳ@@ 18
ʝ@@ 18
ʦ 18
̓ 18
Αντι@@ 18
Οικ@@ 18
Συν@@ 18
άμε@@ 18
γραμ@@ 18
δέ@@ 18
δικ@@ 18
θν@@ 18
ιερ@@ 18
ιών 18
κομ@@ 18
νύ@@ 18
οδος 18
οργ@@ 18
πλη@@ 18
πολη 18
ρου@@ 18
ροφ@@ 18
σε 18
στή@@ 18
στις 18
στον 18
τήρ@@ 18
χεί@@ 18
България 18
Пло@@ 18
Щ 18
бург 18
вез@@ 18
вели@@ 18
вид 18
вро@@ 18
гон@@ 18
итель 18
кой 18
лез@@ 18
лок 18
мой 18
нение 18
нию 18
нк@@ 18
ору@@ 18
пред@@ 18
рабо@@ 18
рал@@ 18
риа@@ 18
ря 18
слу@@ 18
стран@@ 18
тен@@ 18
уче@@ 18
фор@@ 18
хар@@ 18
хе@@ 18
хоро@@ 18
цен@@ 18
ьо@@ 18
ься 18
ѳ 18
ӣ 18
ֽ@@ 18
׳ 18
أر@@ 18
إل@@ 18
ائية 18
اض 18
الأح@@ 18
البا@@ 18
الجز@@ 18
الذ@@ 18
امي 18
بال@@ 18
بل 18
تن@@ 18
خان@@ 18
خر@@ 18
دان@@ 18
ديد 18
ست 18
سية 18
شار@@ 18
شی 18
عص@@ 18
عن@@ 18
فا@@ 18
فت@@ 18
كرة 18
كل 18
مبار@@ 18
مون 18
ناء 18
ڠ 18
کی 18
ید 18
ܠ 18
ञ 18
बे@@ 18
ौ@@ 18
ழ 18
ೊ@@ 18
ബ@@ 18
ත 18
บุ@@ 18
ราช 18
ศ 18
หล@@ 18
อม@@ 18
ให@@ 18
འ 18
ኢ@@ 18
ᐃ@@ 18
ព 18
ល 18
ិ 18
័ 18
ᠨ 18
᾽ 18
ῴ@@ 18
ῷ 18
ῷ@@ 18
♩ 18
ⲏ@@ 18
ば 18
び 18
乙 18
亭@@ 18
作 18
刑@@ 18
別 18
剛 18
参@@ 18
又@@ 18
叉@@ 18
及@@ 18
反 18
吾 18
哲 18
唱 18
垣 18
夕@@ 18
契@@ 18
姉@@ 18
姓 18
姜@@ 18
客 18
封@@ 18
岛@@ 18
峡 18
工 18
常 18
幕@@ 18
庄@@ 18
彩 18
律 18
御 18
惠 18
政府 18
映@@ 18
曾 18
术 18
桃 18
欣 18
池 18
熙 18
牌 18
狐 18
狗 18
狼 18
番 18
當 18
盟@@ 18
看@@ 18
礼@@ 18
禪 18
禮@@ 18
程 18
笛 18
筑@@ 18
紫 18
細@@ 18
絶@@ 18
翁@@ 18
肖@@ 18
蒼@@ 18
藏 18
藩 18
蝶 18
表@@ 18
誠 18
說 18
说@@ 18
豆 18
貞 18
賦 18
輝@@ 18
輪 18
逆@@ 18
鄉 18
録 18
鐘@@ 18
雜@@ 18
齊@@ 18
개 18
건 18
람 18
래 18
악 18
열@@ 18
온@@ 18
절@@ 18
좋@@ 18
초@@ 18
𐤃@@ 18
𐤍@@ 18
𐤏@@ 18
Birliği 17
Savaşı 17
aliwa 17
alık 17
anlat@@ 17
ekani 17
hiện 17
kwamba 17
mäß@@ 17
oldu 17
thờ 17
worden 17
yeye 17
zaman@@ 17
zurück 17
Û@@ 17
ăm 17
Đảng 17
ŗ@@ 17
ƒ@@ 17
̤ 17
̸ 17
Αγίου 17
Αυ@@ 17
Ιερ@@ 17
Ιω@@ 17
Τα 17
άντα 17
άνω 17
αϊ@@ 17
γμα 17
δελφ@@ 17
ιάς 17
ισχ@@ 17
μάν@@ 17
μέρα 17
μεγ@@ 17
μμ@@ 17
οίκ@@ 17
στα 17
τια 17
τρία 17
τό@@ 17
υπο@@ 17
υψ@@ 17
φάν@@ 17
Љ@@ 17
Запад@@ 17
Меж@@ 17
Международ@@ 17
Пред@@ 17
Ст@@ 17
аб@@ 17
актив@@ 17
вдо@@ 17
вен 17
дина@@ 17
душ@@ 17
ен 17
йн@@ 17
кар 17
кли@@ 17
комплек@@ 17
кос@@ 17
кры@@ 17
лах 17
лище 17
льной 17
ним 17
она 17
остро@@ 17
право@@ 17
пут@@ 17
рой 17
следовате@@ 17
сли 17
спа@@ 17
став@@ 17
стен@@ 17
сть@@ 17
теат@@ 17
тель@@ 17
ул 17
федера@@ 17
чения 17
щи 17
ях 17
љ 17
Ң 17
Ә 17
Ղ@@ 17
Ո@@ 17
ֹ 17
إن@@ 17
اع 17
الأس@@ 17
الحر@@ 17
الحزب 17
السي@@ 17
الفر@@ 17
بال 17
بور@@ 17
تُ@@ 17
جزی@@ 17
دى 17
رون 17
سا@@ 17
سور@@ 17
عد 17
فت 17
لح@@ 17
لك@@ 17
نان 17
وا 17
ٰ@@ 17
ڠ@@ 17
ܬ 17
ގ@@ 17
ंड@@ 17
गा@@ 17
दी@@ 17
महा@@ 17
राय@@ 17
सा 17
ान 17
ार 17
ू 17
ृ@@ 17
ପ@@ 17
ಡ 17
ತ@@ 17
ച@@ 17
ය@@ 17
ල 17
ල@@ 17
กระ@@ 17
บาง@@ 17
ผ 17
ลิ@@ 17
ิน@@ 17
ื@@ 17
เด 17
เม@@ 17
ຸ@@ 17
ራ@@ 17
እ@@ 17
ድ@@ 17
ᠡ@@ 17
ṅ 17
ản 17
ứ@@ 17
※ 17
⁊ 17
┤ 17
ⵓ 17
ⵡ@@ 17
业 17
为@@ 17
位@@ 17
何 17
加 17
助@@ 17
危@@ 17
向 17
吳 17
啓@@ 17
善 17
圓@@ 17
妹@@ 17
宫@@ 17
宿 17
富 17
寒@@ 17
射@@ 17
屏@@ 17
巫@@ 17
巳 17
弟 17
強@@ 17
徳 17
慈 17
拔@@ 17
拝@@ 17
探@@ 17
斉@@ 17
時 17
晉 17
服 17
棋 17
欣@@ 17
残@@ 17
涼@@ 17
灵@@ 17
猛@@ 17
猫@@ 17
獨@@ 17
班 17
甸@@ 17
異@@ 17
皮@@ 17
碑 17
禹@@ 17
紗@@ 17
級 17
統 17
絵@@ 17
緑@@ 17
线 17
翔@@ 17
翼 17
耳 17
聲 17
臺 17
芝@@ 17
藍@@ 17
融@@ 17
補@@ 17
襄@@ 17
観@@ 17
計@@ 17
読@@ 17
護 17
資@@ 17
転@@ 17
返@@ 17
郷 17
鍾@@ 17
閣@@ 17
阪 17
陰 17
雷 17
霞@@ 17
願@@ 17
館@@ 17
魯@@ 17
ꜥ@@ 17
감 17
감@@ 17
금 17
네@@ 17
루 17
애 17
저@@ 17
체@@ 17
ﻴ@@ 17
Dân 16
Jahrhunder@@ 16
bekannt 16
besondere 16
britanni@@ 16
dân 16
ecek@@ 16
mwen@@ 16
seinem 16
timu 16
 16
òa 16
ünün 16
ĵ@@ 16
ĸ 16
şek@@ 16
Ū 16
Ź@@ 16
ˀ 16
Αργ@@ 16
Γεν@@ 16
Λου@@ 16
Πο@@ 16
άνδρ@@ 16
είχ@@ 16
εθν@@ 16
ερν@@ 16
θερ@@ 16
λα 16
μονα@@ 16
μουσ@@ 16
οκρατ@@ 16
πέντε 16
παλαι@@ 16
ρη 16
στο 16
στρατ@@ 16
σύν@@ 16
τά 16
ταγ@@ 16
τυχ@@ 16
φυσ@@ 16
ϝ@@ 16
Ос@@ 16
Пос@@ 16
София 16
бя 16
вода 16
гов 16
града 16
гу 16
джа@@ 16
доб@@ 16
желез@@ 16
зда@@ 16
като@@ 16
кин@@ 16
коро@@ 16
край 16
льно 16
нер 16
няя 16
ол@@ 16
парти@@ 16
рей@@ 16
сков@@ 16
сни@@ 16
ственной 16
ствие 16
строитель@@ 16
чина 16
чной 16
щение 16
ъл@@ 16
ющий 16
ям 16
Է@@ 16
Ժ@@ 16
գ 16
թ 16
ժ@@ 16
չ 16
כ 16
נ 16
פ 16
أك@@ 16
ادية 16
الرح@@ 16
القدي@@ 16
امی@@ 16
انا 16
اِ@@ 16
اک@@ 16
ته@@ 16
جا@@ 16
دون 16
رار 16
رس@@ 16
رق@@ 16
سام 16
سام@@ 16
سين@@ 16
شع@@ 16
ضة 16
كو@@ 16
مان@@ 16
مب@@ 16
معر@@ 16
مى 16
نس@@ 16
نش@@ 16
وب 16
ينية 16
يوم 16
یا 16
ܪ 16
चन 16
धर 16
बि@@ 16
रह 16
राम 16
रे@@ 16
शी 16
े 16
ो 16
ং 16
ৱ@@ 16
ી@@ 16
ୁ@@ 16
స@@ 16
ണ@@ 16
ദ@@ 16
മ 16
ർ 16
ทร@@ 16
ทอง 16
หน@@ 16
ำ 16
ຈ@@ 16
ດ 16
ບ@@ 16
ໄ@@ 16
ཟ@@ 16
ပ 16
დ 16
ል@@ 16
ያ 16
ፍ@@ 16
፡ 16
ᐊ@@ 16
᜔ 16
ទ@@ 16
ះ@@ 16
ḇ 16
ṙ@@ 16
Ẹ@@ 16
ố@@ 16
ὐ 16
Ⅰ 16
ⲓ 16
ⲡ@@ 16
ⲩ@@ 16
ⴽ@@ 16
ⵄ@@ 16
ⵙ 16
ほ 16
ェ 16
ヌ 16
乡@@ 16
乱 16
仪 16
们@@ 16
來 16
優 16
具 16
円@@ 16
劇 16
劍@@ 16
卷 16
吐@@ 16
咲 16
咸@@ 16
唱@@ 16
問@@ 16
坐@@ 16
坪@@ 16
域 16
壽 16
妮 16
妻@@ 16
姑@@ 16
婦 16
实@@ 16
實 16
尔 16
尹@@ 16
展@@ 16
岐@@ 16
幼@@ 16
庭 16
张 16
徒 16
急@@ 16
恒@@ 16
悠@@ 16
悲@@ 16
慧 16
慰@@ 16
憲@@ 16
戎 16
持@@ 16
支 16
攻@@ 16
救@@ 16
旋@@ 16
旧@@ 16
旭@@ 16
晶@@ 16
期@@ 16
杉 16
柱 16
歲 16
毅 16
気 16
淑@@ 16
満 16
溝@@ 16
潮 16
牙@@ 16
特 16
甫 16
皮 16
県 16
眼@@ 16
碧@@ 16
第二@@ 16
綾@@ 16
織 16
维@@ 16
艦@@ 16
芝 16
葵 16
薛@@ 16
裕 16
談 16
賈@@ 16
走 16
足 16
迦@@ 16
遊 16
邪@@ 16
鄧@@ 16
銅@@ 16
锦@@ 16
開 16
阿 16
雙@@ 16
靖 16
飯 16
體@@ 16
鱼 16
鴻@@ 16
규@@ 16
근 16
길@@ 16
꽃@@ 16
년 16
년@@ 16
담 16
데@@ 16
려 16
말 16
모 16
복 16
분@@ 16
살@@ 16
쉽 16
알@@ 16
용 16
을@@ 16
입@@ 16
저 16
점 16
투 16
후@@ 16
흥@@ 16
︎ 16
＋ 16
／ 16
Diese 15
Genel 15
Khi 15
Người 15
Selon 15
bằng 15
düz@@ 15
giao 15
größ@@ 15
ikuu 15
lossen 15
oliki 15
steht 15
tranh 15
tài 15
utilis@@ 15
 15
Ò 15
Ĉ 15
Ē 15
ų@@ 15
ɵ@@ 15
ɺ 15
ʑ 15
̅ 15
Εθνική 15
Επι@@ 15
Σο@@ 15
αναγ@@ 15
ανου@@ 15
βάλλ@@ 15
γεω@@ 15
δη@@ 15
διά 15
δρά@@ 15
εί 15
εχ@@ 15
ητική 15
θάνα@@ 15
καρι@@ 15
κλει@@ 15
κρί@@ 15
κόμ@@ 15
λεύθερ@@ 15
ολογία 15
ουν 15
ούδ@@ 15
πους 15
πρόσ@@ 15
τους 15
τροφ@@ 15
φά@@ 15
χαμ@@ 15
Џ 15
Вто@@ 15
До 15
СА@@ 15
анти@@ 15
вал 15
вобо@@ 15
вос@@ 15
год@@ 15
государ@@ 15
гъ@@ 15
дон@@ 15
жд@@ 15
ждан@@ 15
звез@@ 15
иг@@ 15
ити 15
йского 15
ких 15
кри@@ 15
литера@@ 15
лни 15
мени 15
ней 15
оста@@ 15
пе 15
производ@@ 15
пти@@ 15
пы@@ 15
рази@@ 15
револю@@ 15
рода 15
ствует 15
тя 15
ули@@ 15
фон 15
юр@@ 15
շ 15
օ@@ 15
أح@@ 15
ابل 15
اح 15
اري 15
الأول 15
البر@@ 15
القي@@ 15
المسل@@ 15
النا@@ 15
الی@@ 15
انق@@ 15
اپ@@ 15
بين 15
حل@@ 15
حی@@ 15
راج 15
ضاء 15
عه 15
فتح 15
فق@@ 15
لم 15
ملا@@ 15
مه 15
نم@@ 15
وح@@ 15
وف 15
وك@@ 15
ولد 15
وني 15
وى 15
يرة 15
يع@@ 15
پر@@ 15
کی@@ 15
ۆ@@ 15
یم 15
ई@@ 15
कर@@ 15
ते@@ 15
दी 15
मि@@ 15
राज 15
राम@@ 15
ঞ 15
থ@@ 15
হ 15
ৈ@@ 15
ੱ@@ 15
દ 15
બ@@ 15
ର 15
ూ@@ 15
ಟ@@ 15
ೋ@@ 15
ൻ 15
ตร@@ 15
ติ 15
ถ@@ 15
อก@@ 15
ีย@@ 15
เช@@ 15
เด@@ 15
เต@@ 15
เร@@ 15
เส@@ 15
ຫ@@ 15
ແ@@ 15
ཞ@@ 15
ဘ@@ 15
မ 15
ባ@@ 15
ነ@@ 15
ያ@@ 15
ᑦ 15
ᜓ 15
ខ 15
៊ 15
ẞ@@ 15
Ọ 15
ὖ 15
᾿ 15
ῇ 15
ῑ@@ 15
‖ 15
Ⅳ 15
ⵀ@@ 15
ヒ 15
亦@@ 15
仔@@ 15
仲 15
伽@@ 15
侠 15
修 15
倫 15
傑 15
備@@ 15
兒 15
冰 15
剑@@ 15
务@@ 15
区@@ 15
千 15
印 15
吴 15
團@@ 15
塘 15
塚 15
夕 15
妃@@ 15
媛 15
孝 15
實@@ 15
局@@ 15
己@@ 15
幽@@ 15
库 15
延 15
异@@ 15
微 15
打 15
放 15
於@@ 15
旗@@ 15
旦 15
晉@@ 15
晴@@ 15
更@@ 15
未 15
様 15
沼 15
泽@@ 15
洁 15
洪 15
渡 15
灯@@ 15
点 15
熙@@ 15
珊 15
琪 15
疆@@ 15
皆@@ 15
礁 15
端 15
織@@ 15
翼@@ 15
耀 15
聞 15
腐@@ 15
节 15
苗 15
茅@@ 15
莉@@ 15
蓝@@ 15
蓮 15
蛇@@ 15
裏 15
裴@@ 15
試@@ 15
議 15
计@@ 15
说 15
贵@@ 15
身 15
軌@@ 15
辺 15
迷@@ 15
送@@ 15
遺@@ 15
邑 15
邱@@ 15
銀 15
长 15
閃@@ 15
陸 15
霊 15
飛 15
首 15
香港 15
鱼@@ 15
黃 15
걸@@ 15
골@@ 15
덕 15
락@@ 15
란 15
목@@ 15
배 15
본 15
앙@@ 15
업 15
엠@@ 15
옥 15
웅 15
체 15
풀@@ 15
할@@ 15
행@@ 15
혜 15
혼@@ 15
ﻤ@@ 15
𐤅 15
𐤇 15
𐤐 15
𝑞 15
𝒫 15
Bevöl@@ 14
Giáo 14
Mungu 14
Nó 14
adamu 14
asyonu 14
dòng 14
eshim@@ 14
geç@@ 14
giai 14
gön@@ 14
hàng 14
ieurs 14
membres 14
mto 14
mới 14
nahm 14
sız 14
trò 14
uyết 14
wurde 14
wäh@@ 14
yaş@@ 14
zwa 14
Î 14
ãn 14
également 14
üncü 14
Ą@@ 14
Ć 14
Ė@@ 14
ɚ 14
ɤ@@ 14
ɮ 14
ʟ 14
ʤ@@ 14
̡ 14
̵ 14
Κόμ@@ 14
Φρ@@ 14
έργ@@ 14
έως 14
ήθ@@ 14
γρ@@ 14
δού@@ 14
θε 14
ιν 14
κατά@@ 14
μισ@@ 14
ορά 14
παρα@@ 14
πολυ@@ 14
ριστιαν@@ 14
σημ@@ 14
σχολ@@ 14
ταξ@@ 14
τιν@@ 14
τρια 14
φυλ@@ 14
ϒ 14
Њ@@ 14
История 14
Йор@@ 14
Кла@@ 14
Мини@@ 14
Спи@@ 14
Хе@@ 14
Цент@@ 14
ато 14
бур@@ 14
война 14
гори@@ 14
дя@@ 14
изо@@ 14
исто@@ 14
ителей 14
кам@@ 14
кло@@ 14
лектро@@ 14
лно 14
лся 14
мене@@ 14
меха@@ 14
мира 14
мм 14
науч@@ 14
нове 14
ным 14
ными 14
образ@@ 14
пей@@ 14
полк 14
син 14
смо@@ 14
ссо@@ 14
стар@@ 14
ству@@ 14
сторо@@ 14
тат@@ 14
уез@@ 14
что 14
Ө 14
Ի@@ 14
Փ@@ 14
ء@@ 14
اسي 14
الأم@@ 14
التح@@ 14
المس@@ 14
بلو@@ 14
تد@@ 14
ته 14
جن 14
جنة 14
حد@@ 14
دائ@@ 14
دري@@ 14
رف@@ 14
رہ 14
ظ 14
عام@@ 14
عط@@ 14
فا 14
فض@@ 14
فل@@ 14
كان 14
مض@@ 14
مك@@ 14
يت 14
يه 14
يو 14
کر 14
ܛ@@ 14
ܣ 14
ބ@@ 14
ފ@@ 14
अर 14
छ@@ 14
तन 14
दा 14
दि@@ 14
दु@@ 14
फ@@ 14
मन 14
सर@@ 14
এ@@ 14
ধ 14
ਟ@@ 14
ਲ 14
డ@@ 14
ే@@ 14
ಟ 14
ತ 14
ಪ 14
ಶ@@ 14
ശ 14
ശ@@ 14
ං@@ 14
ස@@ 14
හ@@ 14
ළ@@ 14
กร@@ 14
คล@@ 14
ทิ@@ 14
ธ 14
ธิ@@ 14
ฟ 14
ฟ@@ 14
ภา@@ 14
ษ@@ 14
สั@@ 14
อน@@ 14
เว@@ 14
ใ@@ 14
ཏ@@ 14
ཛ@@ 14
ဝ@@ 14
ረ@@ 14
ቀ@@ 14
ኤ@@ 14
ክ@@ 14
ዘ@@ 14
ጵ@@ 14
ᜒ 14
គ 14
ដ 14
ឹ@@ 14
ᠢ@@ 14
ḩ@@ 14
ḱ 14
ḳ 14
ồ 14
ời 14
ủy 14
ᾶ 14
⁴ 14
℘ 14
Ⅶ 14
↳ 14
∘ 14
❤ 14
ⲱ@@ 14
ⴼ 14
ぞ@@ 14
ゥ 14
丈@@ 14
亡 14
亲@@ 14
什@@ 14
今 14
傅@@ 14
兆@@ 14
冷@@ 14
凡@@ 14
创@@ 14
初 14
双 14
只@@ 14
問 14
啓 14
図 14
圏@@ 14
坊 14
坤 14
头 14
姫@@ 14
存@@ 14
密 14
岭@@ 14
峨@@ 14
嵐 14
布 14
帥 14
建 14
弓@@ 14
強 14
彬 14
忍 14
恐@@ 14
憲 14
护@@ 14
授@@ 14
撃@@ 14
旅 14
旭 14
曼 14
朋@@ 14
末@@ 14
机 14
栗@@ 14
榮@@ 14
歐@@ 14
殷 14
氣@@ 14
注@@ 14
淳 14
湘@@ 14
濟 14
爲@@ 14
獅@@ 14
琦 14
甜@@ 14
略 14
畫 14
着@@ 14
短@@ 14
祐 14
祐@@ 14
私 14
第 14
等 14
箱@@ 14
系@@ 14
絡@@ 14
綱 14
緒 14
约 14
统@@ 14
继@@ 14
网@@ 14
罪@@ 14
羊 14
群 14
考 14
考@@ 14
舟 14
芬 14
苑 14
若 14
荷@@ 14
菅@@ 14
菊 14
薄@@ 14
薩@@ 14
藩@@ 14
虫@@ 14
蜜@@ 14
蝦@@ 14
表 14
见 14
訓 14
話@@ 14
變 14
貝@@ 14
赛@@ 14
赫 14
載@@ 14
辽@@ 14
遇@@ 14
邑@@ 14
镇@@ 14
间 14
降@@ 14
隠@@ 14
響@@ 14
顯 14
魔 14
鳴@@ 14
麗 14
거 14
게@@ 14
근@@ 14
길 14
날 14
누@@ 14
님 14
람@@ 14
령 14
맨@@ 14
베@@ 14
봉 14
브 14
실 14
썸@@ 14
엑@@ 14
외@@ 14
위 14
임 14
즌@@ 14
태 14
포 14
풍@@ 14
ﻮ@@ 14
𐤀@@ 14
𐤅@@ 14
𐤊 14
𐤔@@ 14
𒀭@@ 14
𝐿 14
dessen 13
ilgili 13
laş@@ 13
muş 13
notamment 13
phố 13
trouve 13
ünü 13
Ħ 13
ķ 13
ườ@@ 13
Ƶ 13
ǜ 13
ɤ 13
ʈ 13
ʋ 13
͘ 13
Αλεξ@@ 13
Κοιν@@ 13
άρι 13
ένα 13
δηλ@@ 13
διο 13
δρόμ@@ 13
δύνα@@ 13
επί@@ 13
εται 13
κυρι@@ 13
λλογ@@ 13
μό@@ 13
νες 13
ξης 13
ούσ@@ 13
πίσ@@ 13
παρά@@ 13
πεδ@@ 13
πολί@@ 13
ρίας 13
στήρι@@ 13
τελε@@ 13
τικά 13
χειρ@@ 13
όμε@@ 13
ότη@@ 13
ώδ@@ 13
Бри@@ 13
Велико@@ 13
Од@@ 13
Софи@@ 13
Ь@@ 13
вания 13
ват 13
вена 13
вер 13
виде@@ 13
восто@@ 13
время 13
ждения 13
клю@@ 13
кс 13
кур@@ 13
лата 13
лом 13
лько 13
льного 13
мин@@ 13
мла@@ 13
ници 13
нове@@ 13
нски 13
пи 13
пле@@ 13
политиче@@ 13
прия@@ 13
рен 13
рения 13
сле@@ 13
специ@@ 13
том 13
тё@@ 13
уз@@ 13
укра@@ 13
ус 13
хай@@ 13
цу 13
ших 13
ью 13
электро@@ 13
ђ 13
Ѳ 13
Ғ@@ 13
Қ 13
Ү 13
һ@@ 13
ղ 13
ռ 13
ײ@@ 13
״ 13
اتحاد 13
افظ@@ 13
السل@@ 13
الم 13
المتح@@ 13
المملكة 13
امیر 13
بعة 13
تش@@ 13
تی@@ 13
خار@@ 13
خر 13
خل@@ 13
دل 13
رح@@ 13
رض 13
روز 13
زب@@ 13
زل 13
سپ@@ 13
شعب@@ 13
صف@@ 13
صي@@ 13
غي@@ 13
فی@@ 13
لق@@ 13
مدر@@ 13
نق@@ 13
نه 13
ود@@ 13
وز 13
يش 13
يون@@ 13
ٹ@@ 13
ܒ 13
ސ@@ 13
ި 13
उ@@ 13
तु@@ 13
ध 13
नी@@ 13
भारत 13
लो@@ 13
वा 13
वे@@ 13
सी@@ 13
से@@ 13
ॐ 13
ছ@@ 13
ঠ@@ 13
ণ 13
ਅ@@ 13
ਸ 13
ੇ@@ 13
અ@@ 13
ત@@ 13
କ@@ 13
ଗ@@ 13
ஹ@@ 13
మ 13
ದ 13
ಯ 13
ഗ@@ 13
ณฑ@@ 13
ทธ@@ 13
ทั@@ 13
พรร@@ 13
หาร 13
ัง@@ 13
ัย@@ 13
ียง@@ 13
฿ 13
เล@@ 13
ላ@@ 13
ዳ@@ 13
ខ@@ 13
ជ 13
ទ 13
ួ@@ 13
ំ 13
ᠪ@@ 13
ẫu 13
ἥ@@ 13
Ὕ@@ 13
ῖ 13
ῤ@@ 13
Ⅴ 13
∝ 13
⋄ 13
② 13
▶ 13
✓ 13
ⲥ@@ 13
ⴷ 13
ⵃ@@ 13
ⵍ 13
ⵛ@@ 13
ご 13
じ 13
万 13
两@@ 13
享 13
仔 13
伏@@ 13
休@@ 13
佑 13
來@@ 13
依 13
偉 13
儒@@ 13
兆 13
兒@@ 13
兴 13
决@@ 13
刊 13
則@@ 13
剧@@ 13
劍 13
卑 13
单@@ 13
叶 13
呪@@ 13
垂@@ 13
型@@ 13
変@@ 13
姐@@ 13
姜 13
娟 13
婚@@ 13
察 13
对@@ 13
导@@ 13
尉 13
尚 13
尼 13
左 13
差@@ 13
広 13
庄 13
库@@ 13
庙 13
庫 13
庵 13
廟 13
廷@@ 13
彝@@ 13
忘@@ 13
念 13
抗@@ 13
效@@ 13
斬@@ 13
昊 13
晶 13
枝@@ 13
格 13
棒@@ 13
楚 13
楠 13
樊@@ 13
欢@@ 13
比 13
氷@@ 13
汗 13
浜 13
混@@ 13
渋@@ 13
灰@@ 13
焦@@ 13
焼 13
爾 13
狗@@ 13
狼@@ 13
猿@@ 13
畫@@ 13
疆 13
盘@@ 13
監@@ 13
盤@@ 13
着 13
磨 13
箱 13
範 13
粉@@ 13
紋@@ 13
納@@ 13
级 13
网 13
胜 13
脈 13
航 13
艺 13
荣 13
萧@@ 13
薇 13
蘇 13
解 13
詠@@ 13
誌 13
誠@@ 13
譚 13
豪@@ 13
蹴@@ 13
軒 13
过@@ 13
逸 13
郷@@ 13
采@@ 13
閣 13
闇@@ 13
阮@@ 13
険 13
離@@ 13
難@@ 13
霊@@ 13
露 13
顯@@ 13
養@@ 13
駿@@ 13
鶴 13
鸡@@ 13
鹤@@ 13
麻 13
갑@@ 13
검@@ 13
결@@ 13
너 13
녀@@ 13
들@@ 13
려@@ 13
록 13
백 13
버 13
슈@@ 13
실@@ 13
십@@ 13
약 13
울 13
워 13
작@@ 13
족@@ 13
죽@@ 13
처@@ 13
행 13
ﺮ@@ 13
． 13
𐤋@@ 13
𐭥@@ 13
𝑢 13
🏖 13
Beispi@@ 12
Devlet@@ 12
adlı 12
aları 12
amment 12
amı 12
aştır@@ 12
bahari 12
beledi@@ 12
bộ 12
dağ@@ 12
diesem 12
ehemal@@ 12
führt 12
fünf 12
gehört 12
ikuwa 12
ların 12
leştir@@ 12
lığı 12
membre 12
niveau 12
niên 12
nombreux 12
souvent 12
taraf@@ 12
tiến 12
toàn 12
yıl@@ 12
Ù 12
Ù@@ 12
ành 12
çı@@ 12
èrent 12
ümü 12
Ę 12
ņ 12
Œ 12
Ś 12
Ť@@ 12
Ŭ 12
Ǝ 12
ười 12
ɱ@@ 12
ɵ 12
ʍ 12
˝ 12
̷ 12
̼ 12
Βαλ@@ 12
Δήμ@@ 12
Ολυμπιακ@@ 12
Ομ@@ 12
Σου@@ 12
άνθρω@@ 12
έξ@@ 12
απε@@ 12
αϊκ@@ 12
δρομ@@ 12
εω@@ 12
ημάτων 12
θμ@@ 12
κοπ@@ 12
κοσμ@@ 12
μας 12
μορ@@ 12
ογέν@@ 12
ορι@@ 12
ορο@@ 12
πλο@@ 12
πο 12
σον 12
συμ@@ 12
σώ@@ 12
τέλος 12
τραγ@@ 12
φορά 12
ωση 12
ώρ@@ 12
ϱ@@ 12
Є 12
Дже@@ 12
Но 12
андар@@ 12
аре@@ 12
вана 12
вари@@ 12
век 12
вз@@ 12
вия 12
вла@@ 12
вто@@ 12
гат@@ 12
дат@@ 12
дел@@ 12
дер 12
дна 12
ел 12
изи@@ 12
истории 12
ите 12
йска 12
кул@@ 12
лли@@ 12
май 12
мили@@ 12
музы@@ 12
нам 12
ник@@ 12
ному 12
ност@@ 12
памя@@ 12
раз 12
ску@@ 12
служ@@ 12
сна@@ 12
сон 12
стви@@ 12
сю@@ 12
так 12
тие 12
том@@ 12
три 12
удо@@ 12
чо 12
ѣ 12
ґ@@ 12
Զ@@ 12
զ 12
ձ@@ 12
ابة 12
اة 12
ادل 12
اط 12
اعة 12
اعظم 12
الجزائر 12
الرو@@ 12
الض@@ 12
باء 12
تار@@ 12
جان 12
جمي@@ 12
جوا@@ 12
حي 12
دست@@ 12
رف 12
رم 12
شري@@ 12
طان 12
طل@@ 12
عث@@ 12
عق@@ 12
قی 12
كل@@ 12
لات 12
مع 12
نط@@ 12
نظام 12
واء 12
وط 12
وی 12
يات 12
يف 12
يك@@ 12
َّة 12
پاکستان 12
کار@@ 12
کور@@ 12
یت 12
ܙ@@ 12
ܰ@@ 12
ܳ@@ 12
गि@@ 12
जु@@ 12
ढ@@ 12
मि 12
यु@@ 12
सी 12
ारी 12
िया 12
ਆ@@ 12
எ@@ 12
చ@@ 12
డ 12
బ@@ 12
ಅ@@ 12
ൊ@@ 12
ග@@ 12
จุ@@ 12
ชั@@ 12
ตะ@@ 12
นี 12
บา@@ 12
รี 12
ฤ@@ 12
สิง@@ 12
หลวง 12
อก 12
ันท@@ 12
ຄ@@ 12
ູ@@ 12
ཙ@@ 12
င@@ 12
ီ 12
ራ 12
ዲ@@ 12
ᖅ 12
ភ 12
ើ@@ 12
ᠤ@@ 12
ᠨ@@ 12
ᠲ@@ 12
ḻ 12
ṓ 12
Ẁ@@ 12
ẋ 12
ạ@@ 12
ại 12
Ấ@@ 12
ộ 12
ờ 12
Ἂ@@ 12
Ἵ@@ 12
Ὁ@@ 12
ῃ 12
῾ 12
‿ 12
₨ 12
ℒ 12
Ⅵ 12
⊃ 12
△ 12
◌ 12
✔ 12
ⲑ@@ 12
ぎ 12
ぱ@@ 12
ホ 12
ポ 12
ㄱ 12
专@@ 12
両@@ 12
乱@@ 12
亳 12
伦 12
侍 12
倒@@ 12
倭@@ 12
儒 12
児 12
入 12
关 12
冥@@ 12
凱@@ 12
刊@@ 12
判 12
到@@ 12
勒@@ 12
卜@@ 12
卢@@ 12
厂 12
县@@ 12
叔@@ 12
取 12
哉 12
員 12
器@@ 12
园@@ 12
図@@ 12
图 12
圣 12
坊@@ 12
垣@@ 12
執@@ 12
堅 12
塘@@ 12
塩@@ 12
墨 12
壁@@ 12
复@@ 12
奏@@ 12
娱@@ 12
嫦@@ 12
孙 12
宅 12
寄@@ 12
寛 12
寿 12
尊@@ 12
導@@ 12
尸 12
尹 12
嶺 12
帯@@ 12
广 12
庫@@ 12
廉 12
廊 12
廖@@ 12
廣 12
弁 12
弁@@ 12
弥 12
徒@@ 12
得 12
怒@@ 12
怡 12
應@@ 12
户@@ 12
抱@@ 12
捷@@ 12
播@@ 12
断@@ 12
晨 12
晴 12
札 12
朱 12
染@@ 12
查@@ 12
桥@@ 12
極 12
檀@@ 12
權@@ 12
止 12
歳 12
殷@@ 12
浴 12
淡@@ 12
淮@@ 12
淳@@ 12
滸@@ 12
潜@@ 12
灯 12
灵 12
点@@ 12
爵 12
爽 12
牡@@ 12
獣 12
玲@@ 12
甄@@ 12
產@@ 12
用 12
留 12
登 12
百 12
瞳 12
砲 12
磊 12
磨@@ 12
禅@@ 12
種 12
種@@ 12
穂@@ 12
符 12
算@@ 12
糖@@ 12
約@@ 12
純 12
級@@ 12
経@@ 12
総 12
罗 12
翠@@ 12
耀@@ 12
舉 12
菇 12
菠@@ 12
萌 12
萨@@ 12
蔡 12
衡 12
規 12
覺@@ 12
設@@ 12
誓@@ 12
說@@ 12
論@@ 12
诗@@ 12
诸@@ 12
谢@@ 12
谭@@ 12
貫@@ 12
轨@@ 12
農 12
迎@@ 12
远 12
退@@ 12
郅@@ 12
量 12
錦@@ 12
陀@@ 12
隱@@ 12
霖 12
革 12
頂@@ 12
頼@@ 12
顾@@ 12
鮮 12
鴨@@ 12
鴻 12
鼎 12
鼓 12
괴@@ 12
글 12
김 12
까@@ 12
릉 12
범@@ 12
별 12
빅@@ 12
섭 12
습@@ 12
심 12
엄@@ 12
엘@@ 12
여 12
열 12
엽 12
올@@ 12
익 12
잔@@ 12
찬 12
찬@@ 12
탕 12
판@@ 12
협@@ 12
０@@ 12
𐤄@@ 12
𐤇@@ 12
𐤊@@ 12
𐰇@@ 12
🇷 12
Maisha 11
Một 11
Naili 11
chủ 11
cái 11
devient 11
emaji 11
fark@@ 11
ihrem 11
için 11
kı@@ 11
lạc 11
nchini 11
oloji 11
sensa 11
sowie 11
sản 11
thư 11
văn 11
 11
äche 11
çok 11
į 11
ılı 11
ının 11
ıyor 11
Ň@@ 11
Ŏ 11
ǘ@@ 11
ɘ 11
ɥ@@ 11
˞ 11
̚ 11
̻ 11
͂ 11
Απο@@ 11
Αυγ@@ 11
Αφ@@ 11
Βουλ@@ 11
Ευρ@@ 11
Μάρ@@ 11
ανακ@@ 11
αντί@@ 11
γνω@@ 11
γρα@@ 11
διπλ@@ 11
εκ 11
ηση 11
ιακ@@ 11
μάχη 11
μένος 11
ξε@@ 11
οθέ@@ 11
οκα@@ 11
ουσία 11
ποι 11
που@@ 11
ράφ@@ 11
τής 11
τεχν@@ 11
τρο 11
ϩ@@ 11
Ϲ@@ 11
Ђ 11
Ј 11
Ћ@@ 11
Карл 11
Сред@@ 11
автомоби@@ 11
армия 11
без@@ 11
блиоте@@ 11
българ@@ 11
вест@@ 11
вну@@ 11
дела@@ 11
дол@@ 11
его 11
зия 11
зо 11
йски 11
ким 11
крепо@@ 11
кти@@ 11
льных 11
любо@@ 11
ляр@@ 11
мая 11
мента@@ 11
об 11
ологи@@ 11
плани@@ 11
поле@@ 11
пора@@ 11
право 11
пы 11
рих 11
рован@@ 11
сел@@ 11
сем@@ 11
спи@@ 11
става 11
тем 11
тео@@ 11
ться 11
физи@@ 11
художе@@ 11
цио@@ 11
чат@@ 11
чей 11
шего 11
шно 11
ют 11
яв@@ 11
ќ 11
Ѣ 11
ѧ 11
ѧ@@ 11
Ґ 11
Һ 11
Բ 11
Ջ@@ 11
Օ@@ 11
ծ 11
ֆ@@ 11
ם@@ 11
آب@@ 11
ادی 11
الجن@@ 11
الصح@@ 11
المد@@ 11
المغربية 11
امل 11
اور@@ 11
بار 11
بان@@ 11
بخ@@ 11
جد 11
خد@@ 11
دین 11
زم 11
سلی@@ 11
شب@@ 11
شن@@ 11
ظم 11
غر@@ 11
فرو@@ 11
فية 11
لف 11
لك 11
لم@@ 11
مون@@ 11
ندي 11
نز@@ 11
نور@@ 11
وع@@ 11
ولة 11
ويل 11
يل@@ 11
ًا 11
پو@@ 11
کری@@ 11
ܕ 11
ކ@@ 11
गण@@ 11
च 11
जा 11
णी 11
पत 11
पर@@ 11
पा 11
बो@@ 11
रिय 11
ळ@@ 11
वत 11
सर 11
सो@@ 11
हे@@ 11
ੂ@@ 11
ନ@@ 11
ବ@@ 11
ି 11
େ@@ 11
త 11
శ 11
ಗ 11
ಷ 11
ත@@ 11
ද@@ 11
ดา@@ 11
ดี 11
ตร 11
ลำ@@ 11
สว@@ 11
ัน 11
แส@@ 11
ไท@@ 11
๊ 11
ຂ@@ 11
ན@@ 11
ཧ@@ 11
ྩ@@ 11
ဇ@@ 11
ဒ@@ 11
უ 11
ህ@@ 11
ሥ@@ 11
ረ 11
ሰ@@ 11
ឋ@@ 11
ᠯ@@ 11
ᠰ@@ 11
ḿ 11
Ẋ@@ 11
ảy 11
ặt 11
₲ 11
⅝ 11
□ 11
▲ 11
◦ 11
✝ 11
➢ 11
ⲕ@@ 11
ぴ@@ 11
ょ 11
ゑ 11
ゲ 11
ゼ 11
ピ 11
ヰ 11
ヲ@@ 11
㎢ 11
严@@ 11
丶@@ 11
为 11
乔@@ 11
互@@ 11
亜 11
亲 11
人口@@ 11
仏 11
任 11
伊 11
伟@@ 11
佩@@ 11
便@@ 11
倪@@ 11
偽@@ 11
儀@@ 11
兮 11
其 11
冯@@ 11
剑 11
剧 11
劉 11
升 11
午@@ 11
卜 11
卡@@ 11
厥 11
厦@@ 11
启@@ 11
哥 11
围@@ 11
圆 11
圭@@ 11
地方 11
均 11
壮@@ 11
奴@@ 11
妻 11
委员会 11
存 11
实 11
寒 11
寛@@ 11
尖@@ 11
属@@ 11
席 11
店@@ 11
庚@@ 11
弓 11
引@@ 11
弹 11
彌@@ 11
当 11
従@@ 11
復 11
怀@@ 11
悟 11
折@@ 11
招@@ 11
捜@@ 11
敏 11
晃 11
暴@@ 11
札@@ 11
朽@@ 11
杯 11
枝 11
树@@ 11
桓 11
棒 11
榜 11
権@@ 11
橫@@ 11
權 11
此@@ 11
气@@ 11
求@@ 11
沃@@ 11
沙 11
沼@@ 11
洗@@ 11
浄@@ 11
深 11
渠@@ 11
澄@@ 11
濁@@ 11
濃@@ 11
炒@@ 11
炮@@ 11
热@@ 11
煙@@ 11
燈@@ 11
牟@@ 11
牧 11
狐@@ 11
猪@@ 11
獅 11
玫@@ 11
琉@@ 11
琼@@ 11
瑜 11
環@@ 11
發@@ 11
盾 11
督@@ 11
砲@@ 11
祁@@ 11
祈@@ 11
祝 11
禄@@ 11
禅 11
禹 11
秉@@ 11
穴@@ 11
窯 11
童 11
粵@@ 11
糖 11
續@@ 11
纳@@ 11
翁 11
聲@@ 11
臥@@ 11
舊@@ 11
舟@@ 11
莲 11
菩@@ 11
萍 11
萬 11
葬@@ 11
蒙 11
薙@@ 11
號@@ 11
蜀@@ 11
蜘@@ 11
蟲 11
衆@@ 11
袋@@ 11
裂@@ 11
装@@ 11
視@@ 11
説@@ 11
調 11
調@@ 11
譚@@ 11
貓 11
財@@ 11
贤 11
费@@ 11
边@@ 11
近 11
送 11
速 11
遷 11
邦 11
酱 11
鍋@@ 11
鎮 11
鐵 11
钟 11
関 11
问@@ 11
阴@@ 11
陈 11
陛@@ 11
隋@@ 11
雀 11
雁@@ 11
雯 11
電 11
霧@@ 11
霸@@ 11
靜 11
類@@ 11
领@@ 11
频@@ 11
餓@@ 11
體 11
鳴 11
鸣@@ 11
黨@@ 11
계 11
귀@@ 11
급 11
깨@@ 11
날@@ 11
냉@@ 11
널 11
론 11
르@@ 11
박 11
반 11
밤 11
번@@ 11
벌 11
벌@@ 11
범 11
병 11
볶@@ 11
설 11
션 11
송 11
슬 11
역 11
적 11
족 11
죽 11
줘 11
짓@@ 11
채 11
청 11
충@@ 11
특@@ 11
팔@@ 11
편 11
피 11
필@@ 11
항 11
혁@@ 11
효@@ 11
후 11
 11
ﺑ@@ 11
🇦 11
Chính 10
Januar 10
Katika 10
Mashariki 10
bổ 10
değ@@ 10
hariki 10
hivi 10
kinh 10
können 10
ließ@@ 10
lượng 10
neden@@ 10
nommé 10
sağ@@ 10
starb 10
tigt 10
trung 10
tộc 10
ungum@@ 10
viện 10
wanja 10
wurden 10
während 10
đi 10
đo@@ 10
đế 10
Ĝ 10
ĳ 10
Ľ 10
Ŧ@@ 10
Ź 10
ƿ 10
ǁ 10
Ǫ@@ 10
ɢ@@ 10
ɥ 10
ɦ 10
ɱ 10
ʏ 10
ˌ 10
˨ 10
Ώ@@ 10
Γου@@ 10
Ισ@@ 10
Μπο@@ 10
Οι 10
Ολυμπ@@ 10
Πολιτ@@ 10
ίδι 10
αγγελ@@ 10
ανά 10
ανή@@ 10
γλώσσα 10
γνώ@@ 10
γράμ@@ 10
γυνα@@ 10
δίσ@@ 10
διακ@@ 10
επί 10
ερι@@ 10
ετα@@ 10
ημερ@@ 10
θεωρ@@ 10
ισμ@@ 10
κει@@ 10
λλο 10
μένων 10
μέρ@@ 10
μεσ@@ 10
μετά@@ 10
μια 10
μορφ@@ 10
ρίζ@@ 10
σας 10
στην 10
συμπ@@ 10
τάν@@ 10
τεκ@@ 10
τηρ@@ 10
τικής 10
τοπ@@ 10
τροπ@@ 10
τών 10
χώρα 10
ωβ@@ 10
ώνα 10
Въ@@ 10
Олимпи@@ 10
Сле@@ 10
благо@@ 10
был 10
визи@@ 10
води@@ 10
волю@@ 10
вс@@ 10
глав@@ 10
граф 10
емы@@ 10
ется 10
ещё 10
жизни 10
ины 10
искус@@ 10
йся 10
ками 10
ката 10
кономиче@@ 10
лосо@@ 10
льные 10
мена 10
море 10
мыш@@ 10
ност 10
писате@@ 10
побе@@ 10
под 10
поло@@ 10
поэ@@ 10
пси@@ 10
рах 10
рая 10
рий@@ 10
рок 10
сель@@ 10
следо@@ 10
смер@@ 10
сра@@ 10
сре@@ 10
стин@@ 10
ступ@@ 10
тел 10
тех@@ 10
точ@@ 10
трен@@ 10
част@@ 10
ческого 10
четы@@ 10
щая 10
ѕ@@ 10
Ѡ 10
ґ 10
Ғ 10
Ҷ 10
ӏ@@ 10
ӧ@@ 10
Ա 10
Չ@@ 10
ջ 10
ֳ@@ 10
ִ 10
إقليم 10
ائر 10
ائی 10
اخ@@ 10
الأد@@ 10
الثاني 10
الحدي@@ 10
العالم 10
المط@@ 10
النس@@ 10
الوط@@ 10
الی 10
بع 10
بغ@@ 10
بند@@ 10
بھ@@ 10
تخ@@ 10
تر 10
تص@@ 10
تون 10
جذ@@ 10
جل@@ 10
جور@@ 10
جی 10
دو 10
دول@@ 10
ذ 10
ربية 10
رت 10
روس 10
زن 10
زند@@ 10
ساح@@ 10
ستی 10
سم 10
شن 10
صح@@ 10
عرا@@ 10
فن@@ 10
فی 10
قاد@@ 10
قد@@ 10
كار@@ 10
مت@@ 10
مذ@@ 10
مراد 10
مین 10
نوا@@ 10
وق 10
يق@@ 10
ژ 10
گی@@ 10
ۈ@@ 10
یو@@ 10
ې@@ 10
ܗ@@ 10
ܘ 10
की 10
गं@@ 10
चो@@ 10
डा 10
णा 10
थ 10
दुर 10
दे@@ 10
देव@@ 10
पी 10
बा 10
भा@@ 10
भारतीय 10
भू@@ 10
सू@@ 10
हिन 10
ारा 10
ो@@ 10
খ 10
ঢ@@ 10
ষ@@ 10
ৌ@@ 10
ਮ 10
੍ 10
ତ@@ 10
ప 10
య 10
ണ 10
യ 10
റ 10
න 10
න@@ 10
ර 10
ව 10
ස 10
กิ@@ 10
ชา 10
ดิ 10
ติด@@ 10
ถ 10
ธา@@ 10
ปร@@ 10
ปา@@ 10
มหาวิทยาล@@ 10
มิ@@ 10
รัก 10
ลา 10
วัฒ@@ 10
สัง@@ 10
อย 10
เกาะ 10
เทศ@@ 10
โก@@ 10
ຕ@@ 10
ົ 10
ჟ@@ 10
ባ 10
ታ@@ 10
ካ@@ 10
ይ 10
ᓄ@@ 10
ᠮ@@ 10
ᠵ@@ 10
ᠷ@@ 10
ẖ 10
ễ 10
ồi 10
ỗ@@ 10
ội 10
ộng 10
ứ 10
ừng 10
ỳ 10
Ὅ@@ 10
ὺ 10
ὼ@@ 10
ⁿ@@ 10
₣ 10
₧ 10
≐ 10
◆ 10
◊ 10
❏ 10
➡ 10
べ 10
ㅣ 10
与 10
也@@ 10
习@@ 10
亥 10
人民 10
他 10
伍 10
伴@@ 10
俠@@ 10
倭 10
假@@ 10
傷@@ 10
像 10
僕 10
億@@ 10
児@@ 10
具@@ 10
农 10
冠 10
冲 10
凌 10
凰@@ 10
出 10
則 10
劳@@ 10
勲@@ 10
升@@ 10
參@@ 10
发 10
哀@@ 10
圭 10
圳@@ 10
坡 10
城市 10
培@@ 10
境 10
境@@ 10
姓@@ 10
孔 10
宪 10
對 10
屈@@ 10
峨 10
崇 10
嵐@@ 10
嶋@@ 10
已 10
帆 10
幾@@ 10
序 10
开 10
弟@@ 10
归@@ 10
很@@ 10
必@@ 10
息 10
惑@@ 10
惟@@ 10
憶 10
戟 10
扇 10
扎@@ 10
拾@@ 10
捨@@ 10
排@@ 10
探 10
撃 10
敎 10
敦 10
敷@@ 10
料 10
斤 10
早 10
旬 10
旺@@ 10
昇@@ 10
映 10
晨@@ 10
曉@@ 10
曼@@ 10
曽@@ 10
朗@@ 10
柯@@ 10
柳 10
栄@@ 10
栖@@ 10
栗 10
桂 10
條 10
橘 10
櫻@@ 10
歲@@ 10
汤 10
汤@@ 10
泡@@ 10
涼 10
淵 10
游 10
溫@@ 10
滅@@ 10
漫 10
潤 10
澄 10
濱@@ 10
烈 10
煎@@ 10
爪 10
犯@@ 10
狩@@ 10
猿 10
獄 10
獣@@ 10
玛@@ 10
瓊@@ 10
瓜@@ 10
申 10
療@@ 10
盆@@ 10
監 10
盲@@ 10
磐@@ 10
示@@ 10
祠 10
禁 10
禪@@ 10
穂 10
筆@@ 10
策@@ 10
籍@@ 10
糸@@ 10
紗 10
索@@ 10
綱@@ 10
罪 10
聰 10
職 10
肃@@ 10
脉 10
腐 10
至 10
與 10
芸 10
苔 10
茜 10
药 10
菲 10
著 10
葡@@ 10
蘿@@ 10
處@@ 10
虚@@ 10
蛙 10
蛟@@ 10
融 10
蟹@@ 10
衍 10
袁 10
試 10
談@@ 10
謙 10
豬@@ 10
貘@@ 10
贡@@ 10
軽@@ 10
輔@@ 10
辞 10
进 10
邊@@ 10
鄧 10
錫 10
鎌@@ 10
鑑@@ 10
閭 10
隅@@ 10
雙 10
雞 10
零 10
零@@ 10
非 10
鞍@@ 10
頃@@ 10
領@@ 10
顏@@ 10
飲@@ 10
験@@ 10
鸿@@ 10
鹏 10
麦@@ 10
黑 10
齐@@ 10
龜@@ 10
꽃 10
난 10
네 10
노 10
눈@@ 10
는@@ 10
돌 10
디 10
란@@ 10
력@@ 10
룹 10
린 10
번 10
법@@ 10
봄 10
빌@@ 10
싸@@ 10
쌀@@ 10
안 10
암@@ 10
약@@ 10
언 10
언@@ 10
온 10
완 10
왜@@ 10
절 10
창 10
초 10
촌 10
텔@@ 10
팀 10
파 10
판 10
패 10
패@@ 10
페@@ 10
표@@ 10
프 10
환@@ 10
 10
ﻠ@@ 10
ﻲ 10
＝ 10
Ａ@@ 10
Ｔ@@ 10
𐤃 10
𐤒@@ 10
Seit 9
Thế 9
anisha 9
anlam@@ 9
anlığı 9
bầu 9
chương 9
cổ 9
environ 9
erreich@@ 9
genannt 9
karne 9
lerden 9
nhà 9
sát 9
söz@@ 9
uniani 9
wais@@ 9
wenye 9
yake 9
yür@@ 9
yüz@@ 9
zahl 9
équipe 9
öffentlich@@ 9
üğ@@ 9
Ě@@ 9
ıları 9
Ĳ 9
ĳ@@ 9
Ń 9
Ɔ@@ 9
ǜ@@ 9
ɘ@@ 9
ɽ@@ 9
̽ 9
Έλλην@@ 9
Ανατολ@@ 9
Υπ@@ 9
άλι 9
αγωγ@@ 9
αισ@@ 9
δεν 9
δυν@@ 9
εντρ@@ 9
ηλε@@ 9
ησης 9
θαν@@ 9
θερμ@@ 9
ιω@@ 9
κόρ@@ 9
λο 9
μέσ@@ 9
μεγαλ@@ 9
νας 9
νερ@@ 9
νησι@@ 9
οποι@@ 9
ούμεν@@ 9
πολύ 9
ποταμ@@ 9
ράς 9
ραβ@@ 9
ραφ@@ 9
ριβ@@ 9
ρική 9
στατ@@ 9
στε 9
συλλ@@ 9
τευ@@ 9
τρου 9
χρον@@ 9
ωματ@@ 9
ϊ 9
όνα 9
Ї@@ 9
Љ 9
Ў@@ 9
Амери@@ 9
Евро@@ 9
Рабо@@ 9
ави@@ 9
ано 9
без 9
вать 9
века 9
вши@@ 9
города 9
два 9
дей 9
дет 9
дивизи@@ 9
дни 9
ждение 9
игра@@ 9
ква@@ 9
литератур@@ 9
манасти@@ 9
мер 9
моби@@ 9
нах 9
нитель@@ 9
ографи@@ 9
оз@@ 9
оке@@ 9
пара@@ 9
поч@@ 9
рата 9
сил 9
ским 9
сме@@ 9
стра 9
тран@@ 9
управ@@ 9
учи@@ 9
училище 9
хозяй@@ 9
худож@@ 9
цией 9
ций 9
ческие 9
ята 9
ённых 9
ќ@@ 9
ғ 9
Ҳ@@ 9
Ӯ 9
ӯ@@ 9
ן@@ 9
آر@@ 9
آزادی 9
أ 9
أد@@ 9
ئ 9
ارت 9
اسلام 9
افظ 9
افغ@@ 9
العظ@@ 9
المُ@@ 9
النه@@ 9
انہ 9
باد 9
تز@@ 9
تع@@ 9
تك@@ 9
تو 9
تور@@ 9
تھ@@ 9
جا 9
جم 9
جماعة 9
جمع 9
جنوب 9
جو 9
حس@@ 9
حص@@ 9
خی@@ 9
دع@@ 9
دود 9
دور 9
دولة 9
راب 9
ربة 9
سا 9
سال@@ 9
سید 9
شت 9
صة 9
صن@@ 9
ضي@@ 9
عت 9
عش@@ 9
علی@@ 9
عی@@ 9
غير 9
مت 9
مسلم 9
مود 9
مول@@ 9
مہ@@ 9
نت 9
نت@@ 9
ندی 9
واحد 9
واز 9
وص@@ 9
وط@@ 9
يت@@ 9
يس@@ 9
ينا 9
ٌ 9
ٹ 9
ڑ@@ 9
کا@@ 9
کن@@ 9
کھ@@ 9
گن@@ 9
ۋ@@ 9
ە 9
ܓ 9
ީ 9
ެ 9
ँ 9
ंच@@ 9
ंद@@ 9
अन@@ 9
ओ@@ 9
कम 9
टो@@ 9
डी 9
तर@@ 9
दास 9
देव 9
धी 9
नाथ 9
मान 9
मी 9
मै@@ 9
रू@@ 9
लय 9
लाल 9
वस 9
वार 9
शे@@ 9
सन 9
हो@@ 9
ै@@ 9
ौर 9
ঝ@@ 9
থ 9
ਖ 9
ਨ 9
ણ@@ 9
ધ@@ 9
ନ 9
ହ@@ 9
శ@@ 9
ీ@@ 9
ొ@@ 9
ಸ 9
ಾ 9
ೈ@@ 9
ദ 9
വ 9
ർ@@ 9
ම 9
ු 9
ො@@ 9
กร 9
กรุง@@ 9
กุล 9
คุ@@ 9
ฉ@@ 9
ฐ@@ 9
ตำ@@ 9
ถน@@ 9
ธรรม@@ 9
นา 9
บร@@ 9
ปรา@@ 9
ยน 9
ยุ@@ 9
รา 9
รุ@@ 9
ศา@@ 9
สถ@@ 9
อร 9
อั@@ 9
ือ@@ 9
แพ@@ 9
າ 9
ໃ@@ 9
ཅ@@ 9
ཱ@@ 9
ྨ 9
ྷ@@ 9
စ 9
ဲ 9
ტ 9
ሐ@@ 9
ብ 9
ᒃ 9
ᛁ@@ 9
ណ 9
ᠠ 9
ᠤ 9
ᠦ@@ 9
ᠬ@@ 9
ᠳ@@ 9
Ḥ 9
ṳ 9
ẞ 9
ấp 9
ấu 9
ẫ@@ 9
ển 9
ệp 9
ἀ 9
ἤ@@ 9
ὖ@@ 9
ὡ@@ 9
ᾱ 9
⁵ 9
⁶ 9
∉ 9
≺ 9
⊖ 9
⌊ 9
① 9
═ 9
◯ 9
ⲁ 9
ⲃ@@ 9
ⲣ 9
ⵇ@@ 9
ⵣ 9
〇@@ 9
〔 9
〕 9
ぃ 9
ぐ 9
げ 9
ぽ@@ 9
ゅ 9
ゾ 9
ㄷ 9
ㅇ 9
丰 9
乗@@ 9
买@@ 9
乳@@ 9
交 9
仏@@ 9
伎 9
佐 9
供@@ 9
俞@@ 9
倶@@ 9
偉@@ 9
像@@ 9
允 9
兔@@ 9
冈@@ 9
冨@@ 9
凉@@ 9
凤 9
刺@@ 9
勒 9
勢@@ 9
午 9
协@@ 9
厅 9
历@@ 9
去@@ 9
右 9
各 9
吹 9
呂 9
哥@@ 9
啟@@ 9
嗣 9
嚴@@ 9
固@@ 9
培 9
失@@ 9
奖 9
套 9
奧@@ 9
娥@@ 9
孜@@ 9
宙 9
宰@@ 9
宵@@ 9
寮 9
対 9
専@@ 9
射 9
將 9
對@@ 9
属 9
屯 9
屯@@ 9
岁 9
岗@@ 9
崩@@ 9
嶺@@ 9
嶽 9
工程 9
帰@@ 9
幣 9
应@@ 9
庸 9
廷 9
弾@@ 9
录 9
彤 9
彦@@ 9
彫@@ 9
彰@@ 9
徽@@ 9
怡@@ 9
悟@@ 9
悪 9
惡@@ 9
態 9
懿@@ 9
戌 9
戒 9
抄 9
拜@@ 9
挙@@ 9
掛@@ 9
接@@ 9
搜@@ 9
摂@@ 9
散 9
数 9
数@@ 9
无 9
普 9
曜 9
曜@@ 9
曰 9
杂@@ 9
杏 9
杨 9
柏 9
标@@ 9
树 9
核@@ 9
桓@@ 9
械 9
梵@@ 9
楷 9
様@@ 9
款 9
求 9
沟 9
没@@ 9
注 9
派@@ 9
润@@ 9
済@@ 9
渤@@ 9
渾 9
準@@ 9
溥@@ 9
漆@@ 9
演 9
潤@@ 9
為 9
烏 9
煥 9
爵@@ 9
牙 9
瑞 9
璋 9
病@@ 9
發 9
眠@@ 9
眾@@ 9
督 9
瞿@@ 9
祿@@ 9
租@@ 9
秩@@ 9
穴 9
符@@ 9
筆 9
筋@@ 9
简@@ 9
箫 9
範@@ 9
篠@@ 9
类@@ 9
粱@@ 9
素 9
続@@ 9
維 9
綿@@ 9
緊@@ 9
緋@@ 9
線@@ 9
绍@@ 9
绥@@ 9
绿@@ 9
置@@ 9
翠 9
翰 9
翻@@ 9
耿@@ 9
聚@@ 9
肇@@ 9
背@@ 9
自 9
舍 9
舒@@ 9
舜 9
般@@ 9
节@@ 9
芦@@ 9
苏 9
苦@@ 9
莫 9
莲@@ 9
莹 9
菱@@ 9
落 9
蓉 9
蕭 9
薇@@ 9
藝 9
虞 9
虫 9
装 9
襲@@ 9
視 9
觀 9
謙@@ 9
識@@ 9
试 9
豐@@ 9
貢 9
轩 9
载@@ 9
辞@@ 9
辣@@ 9
這@@ 9
逢@@ 9
遼@@ 9
邢@@ 9
郝@@ 9
鄉@@ 9
配@@ 9
酷@@ 9
醬 9
銘 9
鏡@@ 9
閭@@ 9
陶 9
階@@ 9
雍@@ 9
雕@@ 9
須 9
験 9
鮨 9
鵬 9
鸟 9
黎 9
點@@ 9
鼠@@ 9
ꜣ@@ 9
광 9
궁@@ 9
극@@ 9
까 9
농@@ 9
능@@ 9
떡@@ 9
랜@@ 9
령@@ 9
룡 9
류 9
막@@ 9
망@@ 9
목 9
분 9
살 9
센@@ 9
솔@@ 9
순 9
승 9
엠 9
옹@@ 9
웅@@ 9
워@@ 9
작 9
찹@@ 9
춘 9
탄@@ 9
택 9
토 9
퍼 9
폭@@ 9
표 9
헌 9
ﻨ@@ 9
Ｏ@@ 9
𐤂@@ 9
𐱅@@ 9
𝑘 9
Almanya 8
Chiến 8
Einwoh@@ 8
Kilometer 8
aduni 8
arabu 8
ausge@@ 8
bilg@@ 8
bunge 8
chính 8
cần 8
của 8
damit 8
dével@@ 8
ensuite 8
errich@@ 8
eği 8
haribi 8
hatte 8
ikali 8
milioni 8
mtu 8
neben 8
ngày 8
oyuncu 8
parç@@ 8
rün@@ 8
sân 8
sın@@ 8
thân 8
thị 8
usieurs 8
uyện 8
yanay@@ 8
zahl@@ 8
 8
Ì 8
Ông 8
Üniversit@@ 8
çev@@ 8
ính 8
üğü 8
Ă 8
Ą 8
Đế 8
Ğ 8
İlk 8
ılan 8
ıldı 8
ļ 8
Ŋ@@ 8
Ɛ 8
ơi 8
ǵ 8
ǽ@@ 8
ɓ 8
ɓ@@ 8
ɗ@@ 8
ʡ 8
ˆ 8
˕ 8
̔ 8
̨ 8
͍ 8
Ύ 8
Βεν@@ 8
Ερ@@ 8
Θεσσαλ@@ 8
Σερ@@ 8
Του@@ 8
άτων 8
έζ@@ 8
ίνου 8
αίσ@@ 8
αλλαγ@@ 8
από 8
ατο@@ 8
δευ@@ 8
διασ@@ 8
είν@@ 8
ειας 8
ικού 8
ιστο@@ 8
κε 8
λάβ@@ 8
μέλος 8
ξεις 8
οσπον@@ 8
πρι@@ 8
σαν 8
σιο 8
στη@@ 8
τοπο@@ 8
τραγούδ@@ 8
όλη 8
όσο 8
ότητες 8
ϑ 8
Ѓ 8
Ѓ@@ 8
Ѕ 8
Ћ 8
Во 8
Герма@@ 8
Джо@@ 8
Кита@@ 8
Нор@@ 8
Он 8
Северна 8
Фор@@ 8
армии 8
бу 8
вала 8
вом 8
времен@@ 8
вым 8
генерал 8
дах 8
действия 8
дет@@ 8
дж 8
дове 8
догово@@ 8
дой 8
жава 8
жур@@ 8
зва@@ 8
зии 8
изда@@ 8
има 8
имо@@ 8
ино@@ 8
корпу@@ 8
ления 8
лния 8
луч@@ 8
лъ@@ 8
мпи@@ 8
него 8
ней@@ 8
нес 8
организация 8
пад@@ 8
план@@ 8
площа@@ 8
пол 8
послед@@ 8
права 8
прода@@ 8
проек@@ 8
простран@@ 8
противо@@ 8
рами 8
рана 8
сво@@ 8
секре@@ 8
селе@@ 8
систе@@ 8
сса 8
так@@ 8
тно 8
ток 8
тся 8
храни@@ 8
чень 8
шей 8
шения 8
що 8
юще@@ 8
ѓ@@ 8
џ 8
Ѧ 8
Җ 8
җ 8
ҥ 8
Ұ@@ 8
ҷ 8
Ӂ 8
ӓ 8
Ӧ 8
Ֆ@@ 8
է 8
խ 8
պ 8
֫ 8
װ@@ 8
آن@@ 8
أه@@ 8
ؤ 8
إلى 8
ائي 8
اذ 8
الان@@ 8
البري@@ 8
الت 8
الدولة 8
العامة 8
الفي@@ 8
المدينة 8
النظ@@ 8
امام 8
اند@@ 8
انی@@ 8
او 8
بري@@ 8
بری 8
بط 8
بو 8
بول@@ 8
تاج 8
تج@@ 8
ترو@@ 8
تس@@ 8
جی@@ 8
حات 8
داء 8
داری 8
داية 8
درا@@ 8
دش@@ 8
ریز 8
زبان 8
سرائ@@ 8
شاہ 8
صاحب 8
صد@@ 8
صف 8
فارسی 8
فری@@ 8
قات 8
كن 8
لش@@ 8
مؤ@@ 8
ماس@@ 8
ماني 8
مانية 8
مانی 8
مسي@@ 8
مقام 8
نان@@ 8
نظر 8
نين 8
وري@@ 8
وزیر 8
ولية 8
يح@@ 8
يه@@ 8
١@@ 8
ټ@@ 8
کش@@ 8
ڭ 8
݂ 8
ޅ@@ 8
ޔ@@ 8
ޕ@@ 8
ީ@@ 8
ޫ 8
अम@@ 8
आ 8
ऋ@@ 8
चा@@ 8
चित 8
छा@@ 8
जन 8
जन@@ 8
जय 8
ठ 8
तम 8
दर 8
नाम 8
बी@@ 8
मह@@ 8
रम 8
रिया 8
रीय 8
ली@@ 8
लु@@ 8
ळ 8
हार 8
िल 8
ৃ@@ 8
ਘ 8
ਧ@@ 8
શ@@ 8
ଦ@@ 8
ମ@@ 8
ସ@@ 8
ୋ@@ 8
உ@@ 8
ற 8
ீ 8
క 8
ట 8
ష 8
ో@@ 8
ಮ 8
ಶ 8
ೃ@@ 8
ങ@@ 8
ජ@@ 8
ය 8
กั@@ 8
กำ@@ 8
ขา@@ 8
ชาติ 8
ญา@@ 8
ตน 8
ที 8
นคร 8
พระ 8
พันธ@@ 8
พุทธ@@ 8
มพ@@ 8
ลง@@ 8
วน 8
วัด 8
ศาสต@@ 8
สิน@@ 8
สี@@ 8
ฬ@@ 8
เฉ@@ 8
เต 8
เบ@@ 8
เป@@ 8
เห@@ 8
ຳ@@ 8
ີ@@ 8
ຽ@@ 8
ཇ@@ 8
ཨ 8
ཨ@@ 8
ဂ@@ 8
ေ 8
ဲ@@ 8
ቅ@@ 8
ቡ@@ 8
ቤ@@ 8
ተ 8
ቴ@@ 8
አ 8
ወ@@ 8
ድ 8
ጉ@@ 8
ᒃ@@ 8
ᚨ@@ 8
វ 8
ᠢ 8
ᡳ@@ 8
ᶜ@@ 8
ḑ@@ 8
ḡ 8
Ḩ@@ 8
ầm 8
ể 8
ỗi 8
ợ 8
Ἆ@@ 8
ὼ 8
ᾰ 8
ῶ 8
⁷ 8
₺ 8
⃗ 8
℞ 8
℟ 8
℣ 8
▼ 8
☧ 8
Ⲁ@@ 8
ⲉ 8
ⲗ@@ 8
ⲙ 8
ⲟ 8
ⲭ@@ 8
ⵕ@@ 8
〖 8
〗 8
ず 8
ど 8
ヅ@@ 8
ベ 8
ヲ 8
中央 8
乞@@ 8
仇@@ 8
从@@ 8
付 8
休 8
伸@@ 8
余 8
俄@@ 8
候@@ 8
偵@@ 8
催@@ 8
働@@ 8
僧@@ 8
兄 8
內 8
兩 8
共和国 8
兼@@ 8
円 8
准@@ 8
凌@@ 8
凱 8
凶@@ 8
函@@ 8
刘 8
刚 8
到 8
努@@ 8
勅@@ 8
勞@@ 8
勤@@ 8
勿@@ 8
區@@ 8
卓 8
卦 8
卧@@ 8
卵 8
变@@ 8
各@@ 8
吧 8
启 8
吻 8
喀@@ 8
喃 8
坐 8
堅@@ 8
堯 8
壁 8
売 8
奎 8
奚@@ 8
奥 8
妤 8
娛@@ 8
娜@@ 8
娥 8
婆 8
婆@@ 8
婦@@ 8
媒 8
媽 8
宜 8
宣 8
專@@ 8
尋 8
尺@@ 8
屠 8
岑@@ 8
峡@@ 8
峪@@ 8
崖@@ 8
嶋 8
已@@ 8
巻@@ 8
帯 8
幣@@ 8
幹 8
幹@@ 8
庆 8
庶@@ 8
廊@@ 8
弾 8
彪 8
往@@ 8
待 8
徐 8
恨 8
戈@@ 8
戊 8
戊@@ 8
戒@@ 8
或@@ 8
戯 8
戯@@ 8
抜@@ 8
拍@@ 8
持 8
捕@@ 8
提 8
攘@@ 8
斬 8
晋 8
晚@@ 8
暁@@ 8
暦 8
暨@@ 8
曹 8
期 8
末 8
朵@@ 8
杀@@ 8
权 8
杏@@ 8
束 8
架@@ 8
案@@ 8
梦 8
椒@@ 8
模@@ 8
樺 8
欢 8
此 8
歸 8
汲@@ 8
沉@@ 8
沟@@ 8
沧@@ 8
洛 8
涛 8
涵 8
淑 8
淸@@ 8
渠 8
渭@@ 8
渾@@ 8
炭@@ 8
煙 8
營 8
爷@@ 8
爺 8
献@@ 8
猶@@ 8
獏 8
獸 8
玛 8
现@@ 8
珂 8
瑪@@ 8
瑾 8
瓦 8
电 8
畑 8
略@@ 8
當@@ 8
皈@@ 8
盆 8
益 8
矛@@ 8
硫@@ 8
磐 8
磯@@ 8
祇@@ 8
离 8
稽@@ 8
窑 8
竺 8
笠 8
紙@@ 8
紹@@ 8
編@@ 8
繁@@ 8
繼@@ 8
纯 8
習 8
育 8
脇 8
脚 8
腾@@ 8
臨 8
艦 8
艹 8
芥@@ 8
范 8
荆@@ 8
萩@@ 8
萱 8
蒲 8
薔@@ 8
薫 8
薬 8
蛛@@ 8
蛮@@ 8
蜂 8
蝴@@ 8
蟹 8
血 8
衆 8
褒@@ 8
覚@@ 8
覺 8
識 8
议 8
诺@@ 8
豐 8
貊 8
財 8
貢@@ 8
貿@@ 8
賓 8
賽 8
贝@@ 8
贵 8
贾@@ 8
跳@@ 8
軒@@ 8
輿 8
轄@@ 8
迅@@ 8
迦 8
迪 8
迷 8
遵@@ 8
邱 8
酥 8
量@@ 8
釣@@ 8
鎖@@ 8
钱 8
锋@@ 8
间@@ 8
闻 8
阵@@ 8
陣@@ 8
隱 8
雀@@ 8
霹@@ 8
靑@@ 8
韋@@ 8
韶 8
領 8
顧@@ 8
駐@@ 8
駒 8
髙 8
鯉@@ 8
鲁 8
鸡 8
鸣 8
鼻 8
齐 8
龜 8
Ꞑ 8
갈@@ 8
것 8
견@@ 8
공 8
꾸@@ 8
난@@ 8
녕 8
녹@@ 8
뉴@@ 8
님@@ 8
달 8
돌@@ 8
든 8
때 8
락 8
량@@ 8
력 8
례 8
룡@@ 8
름@@ 8
릉@@ 8
립 8
며 8
묘@@ 8
볼 8
색@@ 8
생 8
섯 8
션@@ 8
숙@@ 8
슬@@ 8
않@@ 8
적@@ 8
좌@@ 8
줄@@ 8
직@@ 8
집@@ 8
찰@@ 8
참@@ 8
책@@ 8
총@@ 8
추 8
칠@@ 8
침 8
커@@ 8
합 8
향 8
흐@@ 8
 8
ﺒ@@ 8
ﺪ@@ 8
ﻣ@@ 8
２ 8
𐎠@@ 8
𐎡@@ 8
𐎼@@ 8
𐤎 8
𐰼@@ 8
𒀀@@ 8
𝔼 8
0er 7
Giải 7
Mitglied 7
Mto 7
Mã 7
Zweiten 7
arbeitete 7
bàn 7
carrière 7
chiến 7
dün@@ 7
genommen 7
gerek@@ 7
gesetzt 7
giới 7
himu 7
huyện 7
kabul 7
khí 7
kurul@@ 7
lararası 7
masına 7
meye 7
mwan@@ 7
nahmen 7
người 7
nhạc 7
onun 7
période 7
quân 7
seines 7
sprüng@@ 7
stütz@@ 7
sı@@ 7
sắc 7
thần 7
uvent 7
watu 7
weiter@@ 7
wever 7
 7
Û 7
çık@@ 7
üç 7
Ċ 7
Ď 7
đạo 7
Ĕ 7
Ģ@@ 7
Ĥ 7
İsp@@ 7
Ĵ 7
ĺ 7
Ļ@@ 7
Ŝ 7
ướng 7
ược 7
ƶ 7
Ǎ@@ 7
ǥ 7
ǥ@@ 7
Ɍ 7
ɝ@@ 7
ɭ 7
ɴ@@ 7
ɻ 7
ˇ 7
ˑ@@ 7
˙ 7
ˡ@@ 7
̎ 7
̮ 7
͗ 7
͙ 7
Αθήνα 7
Εξ@@ 7
Με 7
Πρό@@ 7
Ϊ@@ 7
άλογ@@ 7
έστ@@ 7
ίδι@@ 7
αγι@@ 7
αρχι@@ 7
αυτο@@ 7
βορ@@ 7
δεκα@@ 7
δεύτερ@@ 7
δημιουργ@@ 7
δολ@@ 7
είναι 7
εινε 7
ειο 7
ελλην@@ 7
ερα 7
εων 7
μένου 7
μέρος 7
μές 7
μαϊκ@@ 7
μεγάλ@@ 7
μεγάλη 7
μενα 7
μυθ@@ 7
πολε@@ 7
στολ@@ 7
συμφ@@ 7
ταχ@@ 7
υπουργ@@ 7
υργ@@ 7
χώ@@ 7
όλε@@ 7
όλου 7
όλων 7
ϩ 7
Ї 7
Рай@@ 7
ане 7
арх@@ 7
архитек@@ 7
бира@@ 7
бле@@ 7
бое@@ 7
бря 7
быть 7
вате@@ 7
въ@@ 7
высо@@ 7
где 7
геро@@ 7
гле@@ 7
госу@@ 7
граф@@ 7
гру@@ 7
два@@ 7
дек@@ 7
дение 7
дете@@ 7
дии 7
жда@@ 7
женщи@@ 7
зиден@@ 7
интер@@ 7
ито 7
ках 7
каче@@ 7
когда 7
лась 7
лись 7
личе@@ 7
мал@@ 7
меда@@ 7
мей@@ 7
мета@@ 7
муж@@ 7
наи@@ 7
нд 7
нем@@ 7
ните 7
ново@@ 7
оба@@ 7
области 7
образо@@ 7
особ@@ 7
оте@@ 7
отно@@ 7
писа@@ 7
полу@@ 7
ред@@ 7
свет@@ 7
света 7
станов@@ 7
ство@@ 7
съю@@ 7
телевизи@@ 7
транспор@@ 7
форма 7
форма@@ 7
функ@@ 7
чело@@ 7
человека 7
ческой 7
чие 7
щё 7
ът 7
юг 7
ющих 7
ями 7
ѕ 7
Ѣ@@ 7
Ѥ 7
Ѩ 7
Ѭ 7
Ѵ 7
ҟ@@ 7
ҳ 7
Ҹ 7
ӂ 7
Ӌ 7
Ӓ 7
Ӝ 7
Ӱ 7
Ծ@@ 7
ը@@ 7
׃ 7
أة 7
أص@@ 7
أغ@@ 7
أو 7
ئة 7
ارا 7
اص 7
اغ@@ 7
الأك@@ 7
الب 7
التع@@ 7
الحياة 7
الفت@@ 7
المك@@ 7
الية 7
انگ@@ 7
اور 7
اول 7
بت@@ 7
برو@@ 7
بريل 7
بق@@ 7
بین 7
تان 7
ثة 7
ثم 7
جار@@ 7
جان@@ 7
جب 7
حل 7
خات@@ 7
دف@@ 7
رانی 7
رسول 7
سلم 7
صدر 7
ظه@@ 7
عم 7
غة 7
فاع 7
فرا@@ 7
فور@@ 7
قا 7
قائد 7
قی@@ 7
كية 7
لار@@ 7
لغ@@ 7
لوب 7
مركز 7
معروف 7
ملک 7
نیشنل 7
هما 7
وث@@ 7
ورا@@ 7
وسط@@ 7
يخ@@ 7
يش@@ 7
يلي 7
يمية 7
ٽ@@ 7
پاک 7
ڄ 7
چی@@ 7
کلی@@ 7
گرد 7
یہ 7
ܡ 7
ܼ@@ 7
ݢ@@ 7
ޑ@@ 7
ंद 7
को 7
चार 7
ची 7
जग@@ 7
जी@@ 7
टा 7
तर 7
दर@@ 7
दान 7
दिल 7
धा@@ 7
धि@@ 7
नन 7
पर 7
यान 7
ले 7
वीप 7
वै@@ 7
सम 7
सिं@@ 7
सिंह 7
ही 7
हु@@ 7
ीन 7
। 7
॥ 7
ও 7
ো 7
৳ 7
ਗ 7
ਡ@@ 7
ਬ 7
ੂ 7
ટ@@ 7
ણ 7
ત 7
ય@@ 7
ଦ 7
ଳ@@ 7
ణ@@ 7
హ@@ 7
ം@@ 7
ഒ@@ 7
ഹ@@ 7
ක 7
බ@@ 7
กล 7
กล@@ 7
กุ@@ 7
คน@@ 7
ฆ@@ 7
จิ@@ 7
ซ 7
ดา 7
ตา 7
ตุ@@ 7
ทะ@@ 7
ทุ@@ 7
นาง 7
บู@@ 7
ประชา@@ 7
ฝ@@ 7
พระราช@@ 7
พัน@@ 7
มว@@ 7
มุ@@ 7
สงคราม 7
สะ@@ 7
อบ@@ 7
อม 7
อิน@@ 7
ีย 7
ือ 7
เมือง 7
แก@@ 7
แล@@ 7
ใน@@ 7
ກ 7
ྲ 7
ဗ@@ 7
ယ@@ 7
ဝ 7
ჰ@@ 7
ሕ@@ 7
ሳ@@ 7
ተ@@ 7
ቲ@@ 7
ች 7
ና 7
ጥ@@ 7
ᐅ@@ 7
ᑐ@@ 7
ᓂ@@ 7
ᓗ@@ 7
ᚢ@@ 7
ញ@@ 7
ថ 7
ᠴ@@ 7
ᡴ@@ 7
ᬸ@@ 7
ẁ 7
ẋ@@ 7
ấy 7
Ẩ@@ 7
ẩm 7
ẩu 7
ắt 7
ặ@@ 7
ụng 7
ụy 7
ự@@ 7
ἦ@@ 7
Ἡ 7
ἳ@@ 7
ὣ@@ 7
ᾱ@@ 7
⁸ 7
⁺ 7
ℤ@@ 7
Ⅹ 7
⇌ 7
⊿ 7
⌀ 7
⑧ 7
ⱱ@@ 7
ⲅ@@ 7
Ⲡ@@ 7
ⵎ 7
ⵡ 7
ⵢ 7
〢@@ 7
ぁ 7
ざ 7
ぼ 7
ヘ 7
ユ 7
ㄹ 7
ㅂ 7
上海 7
丙 7
丙@@ 7
争@@ 7
亞 7
仕@@ 7
以 7
们 7
仰@@ 7
企@@ 7
伍@@ 7
众@@ 7
伸 7
似@@ 7
佑@@ 7
係 7
俺@@ 7
候 7
允@@ 7
共 7
凡 7
凯 7
凯@@ 7
列 7
券 7
刻 7
刻@@ 7
割@@ 7
办@@ 7
労@@ 7
務 7
勤 7
匠 7
卑@@ 7
卒 7
卒@@ 7
卞@@ 7
卦@@ 7
厚 7
厚@@ 7
受@@ 7
吟 7
告 7
呼 7
咏@@ 7
哇@@ 7
哈 7
唧@@ 7
唯 7
喇@@ 7
喬@@ 7
噛@@ 7
因@@ 7
固 7
坑@@ 7
坛 7
坤@@ 7
域@@ 7
埠 7
堆 7
売@@ 7
契 7
奕@@ 7
奶@@ 7
妈@@ 7
妙 7
始 7
姐 7
姑 7
委员@@ 7
婉@@ 7
宾@@ 7
寂@@ 7
寅 7
寇 7
寨@@ 7
寸 7
对 7
少 7
岁@@ 7
岭 7
嵩 7
嶼 7
嶽@@ 7
带@@ 7
席@@ 7
幌@@ 7
幡@@ 7
庇 7
庸@@ 7
廠 7
弦 7
弦@@ 7
彭 7
征 7
待@@ 7
徵@@ 7
徹 7
愿@@ 7
慎 7
懷@@ 7
懸@@ 7
戈 7
截@@ 7
托@@ 7
投@@ 7
挑@@ 7
控@@ 7
推@@ 7
描@@ 7
揚 7
揚@@ 7
改 7
昂 7
昇 7
显@@ 7
晃@@ 7
曇@@ 7
杯@@ 7
杰@@ 7
极 7
枕@@ 7
架 7
柯 7
栃@@ 7
栋 7
桀 7
梓@@ 7
棠 7
植 7
楊 7
構 7
樓@@ 7
標@@ 7
樵 7
橘@@ 7
檀 7
欲 7
歡@@ 7
歴@@ 7
毒@@ 7
毘 7
汇@@ 7
汕@@ 7
沁@@ 7
沪@@ 7
泣@@ 7
泽 7
洙 7
济 7
淵@@ 7
渝@@ 7
温 7
湿@@ 7
滕@@ 7
满 7
漠@@ 7
灰 7
災 7
烧@@ 7
爷 7
牌@@ 7
独 7
猴@@ 7
獄@@ 7
琅@@ 7
琵@@ 7
琼 7
瑛 7
瑶 7
瑶@@ 7
璃@@ 7
瓷 7
畅 7
畢@@ 7
異 7
痕 7
発 7
监@@ 7
盖@@ 7
盧 7
眉 7
眉@@ 7
研究 7
破 7
票 7
禄 7
禍 7
禾@@ 7
秘 7
积@@ 7
積@@ 7
笙 7
笹@@ 7
籠 7
継@@ 7
続 7
網@@ 7
綺@@ 7
緑 7
纯@@ 7
组@@ 7
维 7
羌 7
翊@@ 7
耶 7
职@@ 7
臼@@ 7
舌@@ 7
艳@@ 7
芋 7
芒@@ 7
芙@@ 7
苍@@ 7
莱@@ 7
菓@@ 7
蓋@@ 7
蓝 7
蕃@@ 7
虞@@ 7
蛋@@ 7
衡@@ 7
袋 7
袖 7
覆@@ 7
覇@@ 7
观@@ 7
览@@ 7
計 7
訓@@ 7
訣 7
訪@@ 7
設 7
詠 7
諏@@ 7
諾@@ 7
謡 7
謡@@ 7
调@@ 7
谦 7
豊 7
豚 7
豫 7
豹@@ 7
貉 7
貓@@ 7
賴@@ 7
賽@@ 7
踊@@ 7
転 7
辉@@ 7
辟@@ 7
辣 7
辭@@ 7
辻 7
込@@ 7
遇 7
過 7
遗@@ 7
遣@@ 7
邊 7
邪 7
邯@@ 7
醒 7
醒@@ 7
釜@@ 7
錫@@ 7
鑑 7
鑫 7
钢@@ 7
钰@@ 7
铃@@ 7
閩@@ 7
閻@@ 7
防 7
阴 7
陆 7
隐@@ 7
際 7
隧@@ 7
隼@@ 7
雑@@ 7
雛@@ 7
霜 7
靈 7
静 7
韩 7
韻 7
頓@@ 7
顕@@ 7
颖 7
飢@@ 7
饼 7
駄 7
駆@@ 7
驚@@ 7
髪 7
鬥 7
鬥@@ 7
魁@@ 7
鲜@@ 7
鹰 7
鹹@@ 7
麒@@ 7
黙@@ 7
鼠 7
鼻@@ 7
龚@@ 7
ꝏ@@ 7
ꞑ@@ 7
굴 7
낙@@ 7
낭@@ 7
늘 7
닥@@ 7
떠@@ 7
련 7
매 7
멸@@ 7
몬@@ 7
발 7
밤@@ 7
빨@@ 7
손 7
쌍@@ 7
암 7
액@@ 7
얼@@ 7
었@@ 7
염@@ 7
예 7
옥@@ 7
쟁@@ 7
중 7
증@@ 7
직 7
출@@ 7
커 7
코 7
키 7
타 7
투@@ 7
팩@@ 7
함 7
협 7
휘 7
 7
 7
﹐ 7
ﻋ@@ 7
ﻌ@@ 7
ﻧ@@ 7
ﻳ@@ 7
３@@ 7
＜ 7
＞ 7
Ｉ@@ 7
Ｓ@@ 7
Ｕ@@ 7
𐎢@@ 7
𐤂 7
𐤒 7
𐰍@@ 7
𐰣 7
𐰰 7
𐱃@@ 7
𒂗@@ 7
𝑑@@ 7
𝑗 7
🇪 7
🇵 7
🜨 7
Avrupa 6
Cumhur@@ 6
Haziran 6
Mkoa 6
Những 6
Personen 6
Thổ 6
afya 6
ambaye 6
asyon@@ 6
baad@@ 6
büyü@@ 6
dabei 6
entwick@@ 6
hayat@@ 6
học 6
imbali 6
không 6
konnte 6
köy@@ 6
lugha 6
làng 6
mış 6
ndani 6
nhân 6
nın 6
permet 6
rağ@@ 6
shule 6
tiế@@ 6
tâm 6
tỉnh 6
veröffentlich@@ 6
wechsel@@ 6
ächst 6
étant 6
úng 6
đô 6
động 6
Ě 6
ğer 6
ğin 6
İmparator@@ 6
ından 6
ığı 6
Ķ 6
ŀ@@ 6
Ń@@ 6
Ņ@@ 6
Ň 6
Ť 6
ŵ 6
Ÿ 6
ƀ 6
Ɔ 6
Ə 6
Ɛ@@ 6
Ƨ 6
Ʒ 6
Ʒ@@ 6
ǀ 6
ǆ@@ 6
ǰ@@ 6
Ȝ@@ 6
ȧ@@ 6
ȳ 6
ɗ 6
ɠ 6
ɸ@@ 6
ʄ 6
ʤ 6
ʨ@@ 6
ʱ 6
ʱ@@ 6
ʳ 6
ʽ 6
ˉ 6
˔ 6
̉ 6
̋ 6
̜ 6
̫ 6
̬ 6
̴ 6
͝ 6
͠ 6
Αθή@@ 6
Ισπαν@@ 6
Ιστο@@ 6
Ντ@@ 6
έλευ@@ 6
έρον@@ 6
ήματος 6
ήσεις 6
ανο@@ 6
δήμ@@ 6
δεί@@ 6
δύο 6
επίσ@@ 6
ζυγ@@ 6
ιδι@@ 6
ικές 6
κυβ@@ 6
κυκλ@@ 6
λίγ@@ 6
λαμβ@@ 6
λιο 6
λυμπ@@ 6
μένα 6
μει@@ 6
ξη 6
ογράφ@@ 6
ογραφία 6
ολο@@ 6
παράδ@@ 6
σεν@@ 6
σταση 6
συγ@@ 6
τέλε@@ 6
τηση 6
τιμ@@ 6
όρεια 6
Ϙ 6
Ϛ 6
ϝ 6
ϯ@@ 6
ϵ 6
Ϻ 6
Њ 6
Ѝ 6
Ў 6
Европа 6
Его 6
Спо@@ 6
Фри@@ 6
Ъ@@ 6
альбо@@ 6
брат 6
бре@@ 6
брига@@ 6
буду@@ 6
бя@@ 6
вали 6
все 6
гли@@ 6
гло@@ 6
годы 6
голе@@ 6
грани@@ 6
графи@@ 6
дерев@@ 6
ези@@ 6
ец 6
импе@@ 6
ительно 6
логия 6
мана 6
мини@@ 6
мину@@ 6
нами 6
нее 6
нием 6
ника@@ 6
нима@@ 6
нос@@ 6
обре@@ 6
обя@@ 6
партии 6
писание 6
пита@@ 6
пли@@ 6
пон@@ 6
призна@@ 6
профе@@ 6
пря@@ 6
разв@@ 6
рим@@ 6
рито@@ 6
ряд@@ 6
связи 6
сек@@ 6
система 6
ските 6
сом 6
спек@@ 6
стве 6
ственно 6
ством 6
ству 6
стрел@@ 6
струк@@ 6
там 6
тем@@ 6
только 6
тон@@ 6
тора 6
труд@@ 6
упо@@ 6
фер@@ 6
фильм 6
фли@@ 6
фут@@ 6
чение 6
ческих 6
шие 6
ются 6
Ѫ 6
Ѯ 6
Ѱ 6
җ@@ 6
Ұ 6
Ҳ 6
ҹ 6
һ 6
Ӈ 6
ӌ 6
ӓ@@ 6
ӝ 6
ӱ 6
Ԑ@@ 6
Ԯ 6
Ց@@ 6
՛ 6
֥ 6
ֿ 6
آغ@@ 6
أخ@@ 6
أُ@@ 6
إ 6
إلا 6
ائی@@ 6
ابی 6
اث@@ 6
اذ@@ 6
است 6
افة 6
اك 6
الإنس@@ 6
الث 6
الشرق@@ 6
العام 6
العص@@ 6
المتحدة 6
الموس@@ 6
اون 6
اں 6
بچ@@ 6
تاب 6
تش 6
تل@@ 6
تلا@@ 6
جد@@ 6
جما@@ 6
جنگ 6
جھ@@ 6
حد 6
خت 6
خلا@@ 6
خلی@@ 6
خوا@@ 6
خي@@ 6
خی 6
دری@@ 6
دور@@ 6
رائ@@ 6
روا@@ 6
روم 6
ريقة 6
سيا 6
شار 6
شر 6
طالب 6
طن 6
عات 6
عام 6
عرب 6
عملية 6
فس@@ 6
فضل 6
قاع@@ 6
قانون 6
قد 6
قل 6
كتب 6
كو 6
للإ@@ 6
مات 6
متا@@ 6
مرة 6
مز 6
مسل@@ 6
مقد@@ 6
ملا 6
ملكة 6
منظ@@ 6
نک@@ 6
هٔ 6
واق@@ 6
وال 6
وغ@@ 6
ولی 6
پور@@ 6
پی 6
چین 6
ڨ@@ 6
کت 6
ڬ@@ 6
گھر 6
یز 6
یل 6
یون@@ 6
ܟ 6
ܦ 6
ܨ@@ 6
ܩ 6
ܺ@@ 6
ޓ@@ 6
ޫ@@ 6
ंगा 6
अनु@@ 6
इन 6
उत 6
ए@@ 6
खो@@ 6
गांव 6
चल 6
चा 6
जय@@ 6
जै@@ 6
जो@@ 6
ञा@@ 6
टा@@ 6
ठ@@ 6
ती@@ 6
तो@@ 6
दक 6
धा 6
नि 6
पार 6
पि@@ 6
पुरु@@ 6
पो@@ 6
पौ@@ 6
बार 6
भ 6
भु@@ 6
मान@@ 6
यो@@ 6
रण 6
रण@@ 6
रह@@ 6
रो 6
लक 6
वल 6
विक 6
शो@@ 6
षी 6
षेत 6
सत 6
सह@@ 6
िक 6
ित 6
ूर 6
ই 6
ঙ@@ 6
ਟ 6
ਣ@@ 6
ਤ 6
ਦ 6
ચ@@ 6
ભ@@ 6
સ 6
କ 6
ଡ 6
ତ 6
ଲ 6
ଳ 6
଼ 6
ஞ 6
ஷ 6
అ@@ 6
ఆ@@ 6
ణ 6
ద 6
న 6
ృ@@ 6
ಆ@@ 6
ಉ@@ 6
ആ@@ 6
ഞ 6
ാ 6
ു 6
ൃ@@ 6
ැ@@ 6
ෙ@@ 6
กอง@@ 6
คำ@@ 6
งค@@ 6
ชาย 6
ธรรม 6
นต@@ 6
นัก@@ 6
บรร@@ 6
พร@@ 6
พรรค 6
พา@@ 6
มา 6
มี@@ 6
ยาม 6
ลักษ@@ 6
วา@@ 6
ศิล@@ 6
สง@@ 6
สน@@ 6
สร@@ 6
หัว@@ 6
อด@@ 6
ัง 6
าย 6
ิด@@ 6
เก 6
เขา 6
เฟ@@ 6
เหน@@ 6
แห@@ 6
โบ@@ 6
โล@@ 6
โอ@@ 6
ไห@@ 6
ຍ@@ 6
ຕ 6
ບ 6
ຫ 6
ະ 6
ཁ 6
ྣ@@ 6
ྤ@@ 6
ྷ 6
လ 6
ဦ@@ 6
ူ 6
ံ 6
ჲ 6
ሓ@@ 6
ሮ@@ 6
ሳ 6
ቆ@@ 6
ኀ 6
ነ 6
ኒ@@ 6
ዕ@@ 6
ጎ@@ 6
ᓯ@@ 6
ᓱ@@ 6
ᔪ@@ 6
ᚱ@@ 6
ᚲ 6
ᛚ@@ 6
ច 6
ឡ@@ 6
អ 6
᠋ 6
ᠩ@@ 6
ᠭ 6
ᠯ 6
ᠶ@@ 6
ᡥ@@ 6
ᵻ@@ 6
ṗ 6
ạp 6
ề 6
ểu 6
ễn 6
ệ@@ 6
ủ@@ 6
Ἤ@@ 6
ὀ 6
Ὁ 6
ὥ@@ 6
Ὤ@@ 6
ᾠ@@ 6
ᾳ 6
ᾷ@@ 6
ῐ 6
Ὶ@@ 6
․ 6
⁹ 6
₀ 6
₪ 6
₳ 6
₴ 6
ℵ@@ 6
⅞ 6
⇐ 6
∎ 6
⌋ 6
⌘ 6
〉 6
☂ 6
☮ 6
♮ 6
ⲫ@@ 6
ⵊ@@ 6
ぞ 6
ぢ@@ 6
ヂ@@ 6
ヶ 6
丈 6
丑 6
个 6
乎@@ 6
亀 6
些@@ 6
亥@@ 6
介@@ 6
仓@@ 6
付@@ 6
代表 6
优@@ 6
伦@@ 6
但@@ 6
住 6
例 6
俗 6
俠 6
倍@@ 6
偏@@ 6
偶@@ 6
傅 6
傑@@ 6
備 6
傩@@ 6
僧 6
儋@@ 6
养@@ 6
冀@@ 6
冊 6
冯 6
凝@@ 6
凰 6
刃 6
剌 6
剌@@ 6
务 6
勃 6
勉 6
勾@@ 6
匡 6
卍 6
占@@ 6
卿@@ 6
厉@@ 6
厳@@ 6
參 6
叉 6
叔 6
叟 6
句@@ 6
听 6
咸 6
唄 6
啤@@ 6
営 6
因 6
国家 6
地區 6
圻 6
坝 6
坝@@ 6
堤 6
增@@ 6
壊 6
壬 6
壬@@ 6
处@@ 6
奭 6
奶 6
妄@@ 6
妈 6
姊@@ 6
委 6
娅 6
孟 6
宪@@ 6
害 6
宴 6
寝@@ 6
審@@ 6
寫@@ 6
尉@@ 6
就 6
尻 6
岐 6
岔@@ 6
岚 6
峽 6
崙 6
巡 6
差 6
巳@@ 6
帛@@ 6
幕 6
幻 6
序@@ 6
廉@@ 6
廟@@ 6
廬@@ 6
引 6
弗 6
彥@@ 6
彳 6
従 6
怜@@ 6
急 6
恆 6
悦@@ 6
悼@@ 6
愁@@ 6
愚@@ 6
應 6
戎@@ 6
扁 6
扬 6
扬@@ 6
把@@ 6
抖@@ 6
折 6
抚@@ 6
指 6
挺@@ 6
捕 6
捷 6
援 6
摩 6
操 6
敵@@ 6
敷 6
斤@@ 6
旧 6
旺 6
昕 6
昧 6
显 6
暮@@ 6
朔@@ 6
朴 6
杀 6
权@@ 6
柄@@ 6
染 6
柚@@ 6
査@@ 6
栄 6
棠@@ 6
椎 6
椎@@ 6
椒 6
検@@ 6
椿 6
構@@ 6
樋@@ 6
模 6
櫓 6
欽@@ 6
歳@@ 6
歸@@ 6
毘@@ 6
氵 6
汀@@ 6
泗@@ 6
泳@@ 6
活 6
消@@ 6
润 6
測@@ 6
滩 6
滩@@ 6
漁 6
漁@@ 6
炖@@ 6
炮 6
炸@@ 6
烟@@ 6
焕 6
煎 6
煮 6
熟@@ 6
燃@@ 6
犁 6
狄 6
猎@@ 6
猛 6
珂@@ 6
琛 6
琬 6
琶 6
瑟 6
瑠@@ 6
璞 6
瓶@@ 6
甬@@ 6
畜@@ 6
畿@@ 6
疾@@ 6
痛@@ 6
盃 6
看 6
眞 6
瞬@@ 6
研 6
研@@ 6
硕 6
碁@@ 6
碑@@ 6
碩 6
祺 6
禺 6
离@@ 6
禾 6
称@@ 6
移@@ 6
稷 6
稿 6
窒@@ 6
窟 6
窦@@ 6
竇@@ 6
笔@@ 6
第二 6
答 6
答@@ 6
箏 6
箕@@ 6
篠 6
簫 6
粤@@ 6
糕 6
糞@@ 6
糯@@ 6
納 6
索 6
絆 6
結 6
絲 6
絶 6
網 6
縄 6
综@@ 6
编 6
署 6
翰@@ 6
聂@@ 6
聶@@ 6
職@@ 6
肯@@ 6
胜@@ 6
胤@@ 6
脳@@ 6
腰@@ 6
腸 6
臭@@ 6
舉@@ 6
舎 6
舎@@ 6
舜@@ 6
艇 6
芭@@ 6
芮 6
茜@@ 6
茹@@ 6
荀@@ 6
荊@@ 6
菌 6
菓 6
营@@ 6
葛 6
蓬@@ 6
蕉 6
薩 6
藍 6
藥 6
虛 6
虛@@ 6
蛋 6
螺@@ 6
蟠@@ 6
衞@@ 6
被@@ 6
规@@ 6
診@@ 6
詹@@ 6
読 6
謀@@ 6
講@@ 6
謝 6
讖 6
设@@ 6
评@@ 6
译@@ 6
诚 6
请@@ 6
谭 6
貝 6
賓@@ 6
货@@ 6
贺@@ 6
跑 6
辖@@ 6
辦@@ 6
辭 6
辻@@ 6
过 6
运 6
连 6
遂@@ 6
遥@@ 6
選 6
遺 6
還 6
鄒@@ 6
鄭 6
酉@@ 6
酸@@ 6
采 6
釋@@ 6
鈞 6
鉴 6
鋼@@ 6
鍋 6
钦 6
铜@@ 6
锡 6
锺@@ 6
閔@@ 6
闘 6
闽@@ 6
阎@@ 6
阔@@ 6
际 6
雁 6
雇@@ 6
離 6
難 6
雳 6
靜@@ 6
鞮@@ 6
韦 6
頂 6
項 6
項@@ 6
類 6
顶 6
项@@ 6
飾@@ 6
養 6
餐@@ 6
餘 6
魁 6
鷲@@ 6
鷹@@ 6
鸭@@ 6
鹏@@ 6
麟@@ 6
麹@@ 6
麺 6
點 6
齋 6
齋@@ 6
齡 6
龄 6
Ꜣ@@ 6
ꦗ@@ 6
각 6
각@@ 6
같@@ 6
격@@ 6
견 6
곡 6
곤 6
곽@@ 6
괴 6
궁 6
균 6
꿈@@ 6
널@@ 6
념@@ 6
늑@@ 6
늘@@ 6
뜨@@ 6
램@@ 6
런@@ 6
럼 6
록@@ 6
른@@ 6
릿 6
막 6
망 6
맨 6
맹 6
몰@@ 6
못@@ 6
묵@@ 6
뮤@@ 6
변@@ 6
삼 6
솔 6
솥 6
숭@@ 6
십 6
썸 6
웨@@ 6
읍 6
읽@@ 6
점@@ 6
즈@@ 6
짜@@ 6
찌@@ 6
찾@@ 6
친@@ 6
침@@ 6
카 6
큐@@ 6
클@@ 6
킥 6
탁@@ 6
탕@@ 6
튜@@ 6
팅 6
팥@@ 6
항@@ 6
헌@@ 6
헤@@ 6
흑@@ 6
ﺘ@@ 6
ﺠ@@ 6
１@@ 6
Ｄ@@ 6
Ｈ@@ 6
Ｒ@@ 6
𐌴@@ 6
𐌹@@ 6
𐭧@@ 6
𒋾@@ 6
𝑙@@ 6
𝑟@@ 6
𝔓@@ 6
🇸 6
😂 6
Amerikan 5
Februar 5
Fransa 5
Karriere 5
Kupası 5
Lịch 5
andishi 5
baada 5
báo 5
cầu 5
durum@@ 5
düş@@ 5
dığı 5
folgte 5
geführt 5
gegrün@@ 5
giống 5
hóa 5
isiwa 5
khoa 5
lerle 5
lục 5
môi 5
namba 5
nghị 5
nhau 5
niversit@@ 5
olewa 5
ortaya 5
schließ@@ 5
sechs 5
später 5
sống 5
thành 5
tiếng 5
triều 5
trận 5
tàu 5
tư 5
vô 5
weza 5
yewe 5
ziwa 5
 5
ãng 5
çoc@@ 5
điều 5
đánh 5
đảo 5
Ę@@ 5
ģ 5
Ĭ 5
ıda 5
ŀ 5
Ŋ 5
Ő 5
ƶ@@ 5
ǭ 5
Ȝ 5
ɞ 5
ɩ 5
ɭ@@ 5
ɰ@@ 5
ɳ 5
ɻ@@ 5
ʙ 5
ʢ 5
ʣ 5
ʨ 5
ˢ@@ 5
̕ 5
̦ 5
̧ 5
͐ 5
Αν 5
Δεκ@@ 5
Ιν@@ 5
ΠΑ 5
Ϊ 5
άρια 5
έμβ@@ 5
έρν@@ 5
ήφ@@ 5
ίο 5
ακό 5
βρίσκεται 5
δελ@@ 5
δημο@@ 5
δυνα@@ 5
εδρος 5
ζή@@ 5
ζωή 5
ηρε@@ 5
ηχαν@@ 5
θυν@@ 5
ιου@@ 5
καταστ@@ 5
κατηγορ@@ 5
κόρη 5
λίου 5
λαδ@@ 5
λειτουργ@@ 5
μαζ@@ 5
μετά 5
μηχαν@@ 5
μπου@@ 5
ντ 5
νώ@@ 5
οθε@@ 5
ολο 5
ούλιο 5
πέν@@ 5
πραγ@@ 5
ρίσ@@ 5
ρίσκ@@ 5
ραση 5
ρεταν@@ 5
ροφή 5
σει 5
σκευ@@ 5
στική 5
στοιχ@@ 5
συγκ@@ 5
τημα 5
τουργ@@ 5
τού 5
τυπ@@ 5
χής 5
χωρ@@ 5
όδου 5
ότερ@@ 5
ϟ@@ 5
ϯ 5
ϲ 5
Џ@@ 5
При 5
администра@@ 5
анали@@ 5
боле@@ 5
вает 5
ване 5
вени 5
веро@@ 5
вид@@ 5
вли@@ 5
гим@@ 5
год 5
годи@@ 5
дения 5
дже@@ 5
диа@@ 5
дли@@ 5
дней 5
долж@@ 5
дре@@ 5
евре@@ 5
едо@@ 5
жен 5
жина 5
заве@@ 5
зави@@ 5
зада@@ 5
зма 5
изве@@ 5
инжен@@ 5
инте@@ 5
капита@@ 5
кие 5
ките 5
клу@@ 5
кой@@ 5
кораб@@ 5
кси@@ 5
ланд@@ 5
лем 5
лиш@@ 5
лось 5
мате@@ 5
медици@@ 5
между 5
международ@@ 5
мени@@ 5
мери@@ 5
место 5
мно@@ 5
моде@@ 5
мом 5
назна@@ 5
нали@@ 5
нения 5
нор@@ 5
ную 5
обы@@ 5
организа@@ 5
ори@@ 5
офи@@ 5
пит@@ 5
пози@@ 5
помо@@ 5
представ@@ 5
пру@@ 5
работ@@ 5
развити@@ 5
рез 5
роден 5
села 5
сили 5
сно 5
среди 5
ссе@@ 5
стати@@ 5
стве@@ 5
твор@@ 5
терито@@ 5
тому 5
треш@@ 5
тря@@ 5
тъ@@ 5
уда@@ 5
уча@@ 5
фика@@ 5
христи@@ 5
хся 5
циона@@ 5
църква 5
части 5
чем 5
шла 5
ью@@ 5
это 5
ющи@@ 5
ющие 5
ѝ 5
ѡ@@ 5
ѵ 5
Ѻ 5
Ҁ 5
ҕ@@ 5
Җ@@ 5
ҙ@@ 5
ҡ 5
ҡ@@ 5
Ҥ 5
ҭ@@ 5
Һ@@ 5
Ҽ 5
ҽ 5
Ӆ 5
ӈ 5
ӈ@@ 5
Ӑ 5
ӕ 5
ӧ 5
ӳ 5
Ԑ 5
Գ 5
Կ 5
Ճ@@ 5
հ 5
ճ 5
օ 5
֑ 5
֣ 5
ֱ 5
ֵ 5
أجل 5
ادات 5
ارب 5
ارف 5
اره 5
ازی 5
اسلا@@ 5
اعدة 5
الآ@@ 5
الأول@@ 5
الأولى 5
الإم@@ 5
الاست@@ 5
الاق@@ 5
التر@@ 5
العسك@@ 5
اليوم 5
امی 5
اول@@ 5
بس@@ 5
توب@@ 5
ثار 5
جل 5
جية 5
حز@@ 5
حض@@ 5
حول 5
خص@@ 5
دخ@@ 5
دریائے 5
دل@@ 5
دُ@@ 5
رئيس 5
راد 5
روز@@ 5
روف 5
ريق 5
سف@@ 5
سلسل@@ 5
سلو@@ 5
طان@@ 5
طور 5
علوم 5
عن 5
غلام 5
فاق 5
فن 5
قلي@@ 5
قوق 5
كا 5
كز 5
كلي@@ 5
لت 5
لعب 5
لول 5
لیم 5
لیگ 5
مؤس@@ 5
مشر@@ 5
مف@@ 5
منطقة 5
مور@@ 5
موسم 5
مک@@ 5
ناف@@ 5
نام 5
نح@@ 5
نوب@@ 5
هذا 5
وأ@@ 5
وان@@ 5
وسط 5
وسي@@ 5
ولي@@ 5
ونا 5
يين 5
ً 5
ٰ 5
ٹو 5
پن@@ 5
چر@@ 5
چی 5
ړ@@ 5
ڕ@@ 5
ږ 5
کا 5
گو@@ 5
ڵ@@ 5
ڼ 5
ھ 5
ܗ 5
ܲ@@ 5
ܶ@@ 5
ތ@@ 5
ޖ@@ 5
ާ 5
ޮ@@ 5
ޯ@@ 5
अव@@ 5
आज 5
आत 5
आर 5
उद 5
की@@ 5
के 5
कै@@ 5
खा@@ 5
गर 5
गा 5
गी@@ 5
गे@@ 5
चे 5
जी 5
टे@@ 5
ठी 5
डो@@ 5
ताल 5
था@@ 5
दिया 5
धु@@ 5
नव@@ 5
निया 5
निर 5
ने 5
पद 5
बं@@ 5
बर 5
भि@@ 5
भी@@ 5
भो@@ 5
मण 5
मस 5
मित 5
ये 5
ये@@ 5
रक 5
रसा@@ 5
रिय@@ 5
रू 5
रे 5
लन 5
लम 5
लू 5
वन 5
वादी 5
वास 5
विभाग 5
वी 5
वी@@ 5
शर 5
शा 5
शिक 5
शु@@ 5
षण 5
संघ 5
सम@@ 5
सिक 5
हस 5
ऽ@@ 5
िया@@ 5
ूल 5
ै 5
চ 5
ਖ@@ 5
ਫ@@ 5
ਭ@@ 5
ખ@@ 5
જ 5
ડ 5
ન 5
મ 5
હ 5
ଉ@@ 5
ୟ 5
ஈ@@ 5
ஏ@@ 5
ஐ@@ 5
ஒ@@ 5
ట@@ 5
స 5
ಜ 5
ಣ 5
ಧ@@ 5
ಷ@@ 5
ഇ@@ 5
എ@@ 5
ഗ 5
ച 5
ഴ 5
ഷ@@ 5
ൈ@@ 5
ൽ 5
ශ 5
හ 5
ි 5
ී 5
ේ@@ 5
กา 5
การ 5
คน 5
ชน@@ 5
ซ@@ 5
ดิน 5
ดิน@@ 5
ตรี 5
ตุ 5
ที@@ 5
นว@@ 5
นี@@ 5
บริ@@ 5
บาล 5
พล@@ 5
มน@@ 5
รถ@@ 5
ราม 5
ราย 5
ลูก@@ 5
วง 5
วา 5
ศัก@@ 5
ษฎ@@ 5
อำเภอ 5
ฮ@@ 5
ัก 5
ัด@@ 5
ียว 5
ูล 5
เขต 5
เผ@@ 5
เรีย@@ 5
เล 5
เหล@@ 5
เอ 5
เอ@@ 5
แดง 5
แม@@ 5
โม@@ 5
โย@@ 5
โรง@@ 5
ຜ@@ 5
ູ 5
ྦ@@ 5
ྭ 5
ྭ@@ 5
ည@@ 5
ဟ@@ 5
ိ 5
გ 5
ሃ@@ 5
ላ 5
ሚ@@ 5
ማ 5
ሞ@@ 5
ሽ@@ 5
ቶ@@ 5
ኃ@@ 5
ና@@ 5
ው@@ 5
ዐ@@ 5
ዓ@@ 5
ዝ@@ 5
ደ 5
ዱ@@ 5
ጀ@@ 5
ጊ@@ 5
ጋ@@ 5
ጠ@@ 5
ጽ@@ 5
ፊ@@ 5
ፍ 5
ᐱ 5
ᑕ@@ 5
ᑦ@@ 5
ᓇ@@ 5
ᕐ@@ 5
ᚠ@@ 5
᛫ 5
ឈ@@ 5
ញ 5
ឌ 5
ឧ@@ 5
ុ 5
ឿ@@ 5
ោ 5
៌ 5
ᠥ@@ 5
ᡳ 5
ᵊ@@ 5
ᵹ 5
Ḡ@@ 5
Ṅ 5
ṫ 5
ṫ@@ 5
ṵ 5
Ẁ 5
ảm 5
ầy 5
ắp 5
ặc 5
ὦ@@ 5
ᾷ 5
ῃ@@ 5
ῄ@@ 5
῞ 5
⁽ 5
⁾ 5
≒ 5
≳ 5
⋯ 5
Ⓐ 5
╞ 5
◾ 5
☰ 5
♙ 5
✈ 5
❖ 5
⦵ 5
ⵛ 5
〇 5
ぉ 5
ぜ@@ 5
ぱ 5
ゎ 5
ゐ@@ 5
ペ 5
ヰ@@ 5
ヱ 5
ㅅ 5
ㅎ 5
㎡ 5
丝 5
丞 5
丞@@ 5
両 5
临 5
乏@@ 5
乔 5
乘 5
习 5
亚 5
件 5
伐@@ 5
伤@@ 5
伪@@ 5
伴 5
侗 5
侗@@ 5
侠@@ 5
便 5
俣 5
俺 5
們 5
假 5
傾@@ 5
億 5
儺 5
充@@ 5
免@@ 5
冀 5
冉 5
冢@@ 5
冲@@ 5
冶 5
凛 5
凜@@ 5
処 5
划 5
则 5
别@@ 5
勋 5
勘@@ 5
勳 5
半 5
卐 5
協 5
单 5
危 5
厂@@ 5
厳 5
参 5
又 5
变 5
叫@@ 5
召@@ 5
吗 5
吞 5
吟@@ 5
含 5
员 5
哀 5
啊 5
喪@@ 5
喫@@ 5
噶@@ 5
囚@@ 5
圆@@ 5
圳 5
坑 5
坚 5
坚@@ 5
埔@@ 5
埼@@ 5
塞 5
墓@@ 5
増@@ 5
墟 5
壓@@ 5
壺@@ 5
夔@@ 5
夹@@ 5
奄@@ 5
奏 5
奔@@ 5
奘 5
奮@@ 5
妍 5
姬@@ 5
姻 5
婁@@ 5
婕@@ 5
媽@@ 5
嬢@@ 5
宅@@ 5
宛@@ 5
宠@@ 5
宵 5
宽@@ 5
宾 5
寅@@ 5
寇@@ 5
寨 5
封 5
尋@@ 5
尙@@ 5
尸@@ 5
届@@ 5
展 5
岱@@ 5
崑@@ 5
嵩@@ 5
嶍@@ 5
工作 5
巧@@ 5
帆@@ 5
帮 5
帳 5
帶@@ 5
床 5
庐@@ 5
庞@@ 5
庾@@ 5
廈 5
廈@@ 5
廻@@ 5
弄@@ 5
弹@@ 5
從@@ 5
循@@ 5
徵 5
徹@@ 5
徽 5
忌@@ 5
怒 5
怕 5
怖@@ 5
怪 5
恆@@ 5
恒 5
恭 5
息@@ 5
惊@@ 5
惟 5
感 5
慕 5
慢@@ 5
憂@@ 5
憶@@ 5
懐@@ 5
戀 5
戀@@ 5
戏@@ 5
戲 5
戶@@ 5
户 5
扇@@ 5
扎 5
批@@ 5
拔 5
拜 5
括 5
按@@ 5
捲 5
掌@@ 5
掛 5
揆 5
換@@ 5
揺@@ 5
携@@ 5
撒@@ 5
撮@@ 5
撲 5
擊@@ 5
操@@ 5
攣@@ 5
收@@ 5
敖 5
敖@@ 5
整@@ 5
斉 5
斑@@ 5
斜@@ 5
昀 5
昼 5
晁@@ 5
晏 5
晦@@ 5
暖@@ 5
暗 5
杞@@ 5
枚 5
柊 5
柔 5
柱@@ 5
柴 5
柿@@ 5
桀@@ 5
桑 5
梓 5
棄@@ 5
楠@@ 5
榆@@ 5
榜@@ 5
槍 5
樣@@ 5
権 5
樺@@ 5
欧 5
歯@@ 5
殉@@ 5
残 5
殖@@ 5
毕@@ 5
毫 5
氐 5
汇 5
汗@@ 5
決 5
沈 5
沖 5
沮@@ 5
洁@@ 5
洮@@ 5
洵 5
浏@@ 5
浪 5
涙@@ 5
涯@@ 5
湘 5
湛@@ 5
滋@@ 5
滝 5
滝@@ 5
滴@@ 5
漠 5
潟@@ 5
澳 5
激@@ 5
瀚 5
灌@@ 5
灘 5
炊@@ 5
熟 5
熱 5
營@@ 5
燮 5
爆 5
爛@@ 5
爪@@ 5
爸 5
爻 5
犁@@ 5
状@@ 5
狁 5
狩 5
狮 5
狱 5
獎 5
率 5
玖@@ 5
珊@@ 5
琰 5
瑤 5
瑩 5
瑰 5
瑰@@ 5
璃 5
璐 5
璠 5
璽 5
瓯@@ 5
甄 5
産 5
畑@@ 5
畠@@ 5
病 5
癖 5
癸@@ 5
皓 5
盗@@ 5
眞@@ 5
睡@@ 5
睿 5
矩 5
砂 5
砕@@ 5
磁@@ 5
祀 5
祿 5
税@@ 5
稚@@ 5
稣@@ 5
究@@ 5
穿@@ 5
突 5
笑 5
笛@@ 5
算 5
箭 5
箸 5
篆@@ 5
築@@ 5
篤 5
篥 5
簡 5
粍@@ 5
粥 5
粿 5
糸 5
細 5
絕@@ 5
綠@@ 5
緣 5
緣@@ 5
纪 5
细@@ 5
绣@@ 5
缘 5
罕@@ 5
羌@@ 5
胞 5
胤 5
胶@@ 5
胸@@ 5
脚@@ 5
脩 5
脱@@ 5
腹@@ 5
腾 5
腿 5
膠@@ 5
臘 5
臧 5
舊 5
舒 5
艶 5
艸 5
芪 5
芹 5
茹 5
莊 5
萝@@ 5
萧 5
著@@ 5
葫@@ 5
葵@@ 5
蔭@@ 5
薰 5
藥@@ 5
處 5
蛮 5
蜜 5
蝶@@ 5
蠻 5
蠻@@ 5
衰@@ 5
袖@@ 5
裁 5
裡@@ 5
襟 5
覚 5
规 5
视 5
許 5
証 5
評@@ 5
誉@@ 5
誕@@ 5
誰 5
諭@@ 5
謐 5
謳 5
謹@@ 5
譲@@ 5
變@@ 5
讐 5
讨@@ 5
讯@@ 5
记@@ 5
论@@ 5
识 5
貂@@ 5
貔 5
貨@@ 5
貫 5
買@@ 5
賈 5
賊@@ 5
贊 5
贞 5
贡 5
财@@ 5
赵 5
跡@@ 5
軾 5
輩 5
还@@ 5
述 5
週@@ 5
避@@ 5
還@@ 5
邹@@ 5
郊@@ 5
郑 5
鄂 5
鄕@@ 5
鄲 5
鄴 5
酷 5
醉 5
醋@@ 5
釈@@ 5
鈴 5
鉉 5
銃@@ 5
銅 5
銖 5
鍛@@ 5
鎭 5
鎭@@ 5
鐸 5
钢 5
锡@@ 5
镜 5
閑@@ 5
陀 5
降 5
限 5
陣 5
険@@ 5
隈@@ 5
随@@ 5
隴@@ 5
难@@ 5
雉 5
雍 5
鞏 5
韬 5
頌@@ 5
題@@ 5
額 5
顔 5
顔@@ 5
顶@@ 5
顺 5
颂 5
馍 5
馨 5
馨@@ 5
駄@@ 5
髙@@ 5
髮@@ 5
鶯@@ 5
鸿 5
鹰@@ 5
鹽 5
鹽@@ 5
麥@@ 5
默@@ 5
鼎@@ 5
Ᵹ 5
ꦶ@@ 5
겠@@ 5
겨@@ 5
곤@@ 5
굿 5
귀 5
글@@ 5
께 5
꾼 5
녕@@ 5
놈 5
닭@@ 5
덤 5
독 5
돈 5
득@@ 5
렌@@ 5
례@@ 5
맑@@ 5
맞@@ 5
맥 5
면@@ 5
몽 5
뷰@@ 5
빈@@ 5
빛 5
빠@@ 5
쇠 5
술 5
쓰@@ 5
억@@ 5
엘 5
완@@ 5
왔@@ 5
욕@@ 5
융@@ 5
으 5
응@@ 5
잇 5
잡@@ 5
존@@ 5
죤 5
첩 5
최 5
취@@ 5
츠 5
츠@@ 5
콤 5
콩@@ 5
탑 5
택@@ 5
틱 5
틱@@ 5
팔 5
평 5
푸@@ 5
풀 5
했@@ 5
혈 5
홀 5
황 5
효 5
훈@@ 5
 5
 5
︠ 5
︡ 5
ﺏ 5
ﺔ 5
ﺟ@@ 5
ﺮ 5
ﻉ 5
ﻓ@@ 5
ﻙ 5
ﻫ@@ 5
ﻭ@@ 5
＃ 5
＆ 5
２@@ 5
７@@ 5
Ｃ@@ 5
Ｌ@@ 5
Ｍ@@ 5
Ｒ 5
Ｓ 5
Ｘ 5
𐎫@@ 5
𐎱@@ 5
𐏁 5
𐏁@@ 5
𐤑 5
𐤕@@ 5
𐭩 5
𐭫@@ 5
𐰉@@ 5
𒆠 5
𒍪 5
𝑐 5
𝘢@@ 5
𝘪@@ 5
🇧 5
🇨 5
🇬 5
🇴 5
🔹 5
𡨸@@ 5
Dezember 4
Gebäude 4
Kanisa 4
Magharibi 4
Temmuz 4
angaza 4
asına 4
asında 4
başkan@@ 4
bedeut@@ 4
còn 4
công 4
cùng 4
danh 4
diğ@@ 4
eceğ@@ 4
esinde 4
falme 4
geleg@@ 4
gewäh@@ 4
güç@@ 4
heirat@@ 4
hành 4
hạt 4
indeki 4
isinin 4
kubwa 4
küçük 4
kıy@@ 4
kỳ 4
lerde 4
lerinin 4
liğ@@ 4
luğu 4
mehrere 4
miaka 4
nehmen 4
nghiệp 4
như 4
năm 4
phóng 4
quận 4
seç@@ 4
situé 4
thuộc 4
thấy 4
tiết 4
trấn 4
trực 4
tuổi 4
tên 4
tình 4
tır@@ 4
tịch 4
vua 4
về 4
wakazi 4
zunächst 4
zweiten 4
 4
đến 4
đội 4
Ė 4
Į 4
ĸ@@ 4
Ř 4
şark@@ 4
şehir@@ 4
şehr@@ 4
ƛ 4
ươ@@ 4
ǰ 4
ȏ@@ 4
Ș 4
Ȼ 4
ɶ 4
ʖ@@ 4
ʡ@@ 4
ˑ 4
˗ 4
˺ 4
̘ 4
͇ 4
͔ 4
͛ 4
Ͷ 4
Έχ@@ 4
Γερμαν@@ 4
Για 4
Ιστορία 4
Ου@@ 4
Πόλε@@ 4
ίες 4
αγωγή 4
αιτ@@ 4
ακόμα 4
ανθρ@@ 4
αποφ@@ 4
αρχαι@@ 4
γνωστ@@ 4
γραμμα 4
δίας 4
διάφορ@@ 4
εδρ@@ 4
ειακ@@ 4
ειες 4
εικ@@ 4
εμπ@@ 4
ερ 4
θεω@@ 4
κατοικ@@ 4
μένο 4
μέτρ@@ 4
ματική 4
νέα 4
ναν 4
παράδειγμα 4
πηγ@@ 4
πρώ@@ 4
πρώτη 4
σκην@@ 4
συστ@@ 4
τέσσ@@ 4
τηγορ@@ 4
τικού 4
τομα 4
υπερ@@ 4
φαλ@@ 4
φρά@@ 4
χαρακ@@ 4
χώρ@@ 4
όμη 4
ύτερ@@ 4
ώσεις 4
Ϝ@@ 4
Ϣ@@ 4
ϰ 4
Ѕ@@ 4
Ќ 4
Исто@@ 4
Пари@@ 4
После 4
Так@@ 4
Это 4
архи@@ 4
важ@@ 4
вата 4
вече 4
висо@@ 4
вно 4
войны 4
г. 4
гат 4
гии 4
година 4
годов 4
году 4
граждан@@ 4
дале@@ 4
дата 4
дена 4
дент@@ 4
деятель@@ 4
дости@@ 4
древ@@ 4
ено 4
её 4
жет 4
живо@@ 4
зависи@@ 4
импера@@ 4
исследо@@ 4
истори@@ 4
ителя 4
йки 4
кино@@ 4
края 4
лага 4
лага@@ 4
лож@@ 4
лото 4
мата 4
меня@@ 4
мл@@ 4
мож@@ 4
мощ@@ 4
нари@@ 4
начи@@ 4
немец@@ 4
нен 4
нието 4
ниями 4
оби@@ 4
област 4
общи@@ 4
орга@@ 4
освобо@@ 4
первый 4
писи 4
пос@@ 4
поселе@@ 4
прави 4
прин@@ 4
провин@@ 4
проце@@ 4
регион 4
ред 4
руковод@@ 4
сбор@@ 4
своих 4
село 4
скому 4
сни 4
сня@@ 4
сред@@ 4
стат@@ 4
стей 4
сут@@ 4
тах 4
террито@@ 4
тол@@ 4
треб@@ 4
фак@@ 4
филь@@ 4
фри@@ 4
ху 4
центра@@ 4
чава 4
чего 4
человек 4
чет@@ 4
чил 4
чни 4
шен 4
шение 4
широ@@ 4
щер@@ 4
эта@@ 4
ѥ 4
ѫ 4
Ѿ 4
ҁ@@ 4
ҍ 4
Ґ@@ 4
Ҡ@@ 4
Ҩ 4
ҫ@@ 4
Ҷ@@ 4
Ӕ 4
Ӛ 4
Ӳ 4
Ӷ 4
ӹ 4
Դ 4
Զ 4
Ձ@@ 4
֖ 4
֗ 4
ֶ 4
ױ@@ 4
آ 4
آخ@@ 4
آزاد 4
أف@@ 4
أكبر 4
ئر 4
ائد 4
اخت@@ 4
ارات 4
اردو 4
اسم@@ 4
اسک@@ 4
اظ@@ 4
افت 4
الأرض 4
الا 4
الاح@@ 4
البط@@ 4
الثق@@ 4
الجنوب@@ 4
الجيش 4
القان@@ 4
اللا@@ 4
المسي@@ 4
المش@@ 4
المي@@ 4
انج@@ 4
انيا 4
اون@@ 4
اية 4
اً 4
اہ@@ 4
بج@@ 4
بح 4
بعد 4
بناء 4
بند 4
تاب@@ 4
تاریخ 4
تحریک 4
ترج@@ 4
تغ@@ 4
تين 4
ثر 4
جس 4
جم@@ 4
جہ@@ 4
حال@@ 4
حقوق 4
خاص 4
داخ@@ 4
دارة 4
دف 4
ديدة 4
دًا 4
دھ@@ 4
رین 4
ریہ 4
زب 4
زية 4
زہ 4
ساب@@ 4
سات 4
سال 4
سان@@ 4
سج@@ 4
سفر 4
سل 4
سوس 4
سون 4
شری@@ 4
شمال 4
صی@@ 4
طريق 4
طلب 4
ظر 4
عائ@@ 4
عل 4
غرا@@ 4
فائ@@ 4
فات 4
فل 4
قت 4
قض@@ 4
لاء 4
لان@@ 4
لفة 4
للا@@ 4
لن 4
مالية 4
مث@@ 4
مری@@ 4
مم@@ 4
نائ@@ 4
نار@@ 4
نامہ 4
ندا 4
نر 4
نما 4
نو 4
هو 4
هي 4
وجود 4
وخ@@ 4
ودة 4
وض@@ 4
وع 4
يار 4
يز@@ 4
ً@@ 4
ٍ@@ 4
پارٹی 4
پنج@@ 4
پھ@@ 4
ځ 4
ڑھ 4
ښ 4
کان 4
کت@@ 4
کس@@ 4
کم 4
کنی@@ 4
گاہ 4
گر 4
گور@@ 4
ۀ 4
ہر@@ 4
ۇ 4
یار 4
یو 4
یں 4
ۍ 4
۞ 4
۲@@ 4
ܽ@@ 4
݁ 4
ށ@@ 4
ंक 4
ंब@@ 4
अं@@ 4
अन 4
अप@@ 4
इंड@@ 4
उप@@ 4
ऊ@@ 4
कल 4
कश 4
कार@@ 4
कि 4
कू@@ 4
कृ@@ 4
खु@@ 4
गी 4
गौ@@ 4
घर 4
ङ@@ 4
चक 4
चु@@ 4
चे@@ 4
छ 4
टि@@ 4
टी@@ 4
डे@@ 4
ढ 4
णा@@ 4
तार 4
तु 4
ते 4
तो 4
दित 4
दू@@ 4
दो@@ 4
दौ@@ 4
नदी 4
नु@@ 4
नौ@@ 4
पति 4
फा@@ 4
फु@@ 4
फो@@ 4
बल 4
बै@@ 4
मंड@@ 4
मंदिर 4
मल 4
यु 4
रं@@ 4
रत@@ 4
रान 4
राय 4
लिक 4
वान 4
विश 4
विशेष 4
शन 4
शास 4
षा 4
संस 4
समूह 4
सार 4
सिद 4
सेना 4
हन 4
हम 4
है 4
ऽ 4
ारे 4
ीय 4
ॅ@@ 4
ौ 4
ভ 4
ਂ@@ 4
ਚ@@ 4
ੌ@@ 4
ੜ 4
ੜ@@ 4
આ@@ 4
બ 4
ળ@@ 4
ૂ@@ 4
ଙ 4
ଡ@@ 4
ମ 4
ୟ@@ 4
ே 4
௫@@ 4
ఇ@@ 4
ఉ@@ 4
ఖ@@ 4
ಥ@@ 4
ಭ@@ 4
ೌ@@ 4
ഡ 4
ഥ@@ 4
ഴ@@ 4
ഷ 4
ණ@@ 4
ධ@@ 4
กรา@@ 4
กรุ@@ 4
กัน 4
การ@@ 4
กิจ 4
คริ@@ 4
คา 4
คา@@ 4
คำ 4
ฆ 4
จักร@@ 4
จา@@ 4
จำ@@ 4
ชี@@ 4
ซา@@ 4
ฐ 4
ดง@@ 4
ดิ@@ 4
ตี 4
บี 4
ปริ@@ 4
ปลา 4
พยา@@ 4
พุ@@ 4
ภา 4
มาก 4
ยม 4
ยาว 4
รัฐ 4
ริ 4
วัน 4
วี@@ 4
หญิง 4
หัว 4
ฯ 4
ักษ@@ 4
ิง 4
ียน 4
ึ@@ 4
ือง 4
เซ@@ 4
แด@@ 4
แบบ 4
โต 4
ไฟ@@ 4
ไม@@ 4
๋ 4
ຈ 4
ຊ 4
ຣ@@ 4
ິ 4
ີ 4
ໂ@@ 4
ཀ 4
ཉ@@ 4
ཱ 4
ྂ 4
ྙ@@ 4
ྨ@@ 4
ဍ@@ 4
သ 4
ၢ 4
შ 4
ჴ@@ 4
ሙ@@ 4
ሠ 4
ሩ@@ 4
ሬ@@ 4
ሲ@@ 4
ሴ 4
በ 4
ኛ 4
ኣ@@ 4
ዋ@@ 4
ው 4
ዎ@@ 4
ዛ@@ 4
ዬ 4
ጅ 4
ጋ 4
ጐ@@ 4
ጾ@@ 4
ፈ@@ 4
ᐯ 4
ᑎ@@ 4
ᑭ@@ 4
ᖃ@@ 4
ᚢ 4
ᚦ@@ 4
ᛆ 4
ᛉ 4
ᛋ 4
ᛏ@@ 4
ᜊ@@ 4
ឆ@@ 4
ហ 4
ឥ@@ 4
ះ 4
ᠧ@@ 4
ᠩ 4
ᠷ 4
ᥒ@@ 4
ᥰ 4
ᬦ@@ 4
ᰛ@@ 4
ᱟ@@ 4
ᴚ 4
ᵉ@@ 4
ᵑ@@ 4
ᵘ 4
ḑ 4
ṋ@@ 4
ṙ 4
Ẋ 4
ẑ 4
ả@@ 4
Ẽ 4
ề@@ 4
ỉnh 4
ọn 4
ỏ@@ 4
ốt 4
ứa 4
ửa 4
ực 4
ἆ@@ 4
ὂ@@ 4
ὅ 4
ὓ@@ 4
ὦ 4
ὧ@@ 4
ᾳ@@ 4
ῐ@@ 4
ῠ@@ 4
⁃ 4
⁡ 4
₫ 4
℅ 4
ℙ 4
ℳ 4
↖ 4
⌥ 4
⎜ 4
⎼ 4
♁ 4
✗ 4
⩾ 4
ⲇ@@ 4
ⲕ 4
ⲡ 4
ⲧ 4
ⴳ 4
ⴽ 4
ⵖ 4
ⵚ@@ 4
ⵥ@@ 4
ぁ@@ 4
ぃ@@ 4
ぜ 4
ゞ 4
ォ 4
ㄲ 4
ㄴ 4
ㅁ 4
ㅋ 4
ㅗ 4
丕 4
丝@@ 4
並 4
么 4
乘@@ 4
乾 4
亀@@ 4
予 4
享@@ 4
人口 4
仮 4
仰 4
件@@ 4
份 4
伐 4
伶 4
伽 4
侑@@ 4
価@@ 4
侦@@ 4
侨@@ 4
侵@@ 4
俗@@ 4
俳@@ 4
個 4
們@@ 4
借 4
借@@ 4
倫@@ 4
倾@@ 4
偃 4
側 4
傣@@ 4
傲@@ 4
僵@@ 4
儉 4
儺@@ 4
免 4
兔 4
兜 4
兪@@ 4
兽 4
册 4
冤@@ 4
冥 4
冴 4
冷 4
凍@@ 4
几@@ 4
凭 4
函 4
刃@@ 4
刈@@ 4
则@@ 4
判@@ 4
别 4
勁 4
勋@@ 4
勐@@ 4
勢 4
匡@@ 4
匯@@ 4
协 4
占 4
即@@ 4
历 4
压@@ 4
厲@@ 4
受 4
叛@@ 4
吏 4
吠@@ 4
吸 4
吻@@ 4
咀@@ 4
咒 4
咖@@ 4
哨@@ 4
哪@@ 4
営@@ 4
嗣@@ 4
嘗 4
嘛 4
嘩@@ 4
嘴 4
噴@@ 4
嚴 4
址 4
坎 4
埼 4
堀 4
堯@@ 4
塞@@ 4
填@@ 4
壇@@ 4
壮 4
壯@@ 4
壱@@ 4
备@@ 4
失 4
奎@@ 4
她 4
姚 4
姿@@ 4
娄@@ 4
婁 4
婷@@ 4
媒@@ 4
媚@@ 4
媵 4
嫁 4
嫌@@ 4
嫗 4
嫩@@ 4
嬌 4
嬰 4
嬴 4
孚 4
孩 4
孩@@ 4
完 4
宛 4
宥@@ 4
寄 4
寸@@ 4
寻@@ 4
尤@@ 4
尧 4
就是 4
尺 4
尽 4
尿@@ 4
届 4
屍 4
履 4
履@@ 4
屬 4
屬@@ 4
岬 4
岷@@ 4
峯@@ 4
崖 4
崧 4
嵇@@ 4
嵊@@ 4
巖 4
巡@@ 4
巢@@ 4
巣@@ 4
巷 4
巾 4
巾@@ 4
帖 4
帥@@ 4
帶 4
应 4
底 4
底@@ 4
廃@@ 4
弋@@ 4
弗@@ 4
强@@ 4
從 4
必 4
忆 4
忽@@ 4
怀 4
怨 4
恥 4
恬 4
恽@@ 4
悔@@ 4
悬@@ 4
惨@@ 4
惹@@ 4
愁 4
懂 4
戌@@ 4
戏 4
成功 4
或 4
戟@@ 4
戲@@ 4
托 4
承 4
押@@ 4
拓 4
招 4
拝 4
挙 4
措 4
措@@ 4
援@@ 4
摇 4
摇@@ 4
摔@@ 4
播 4
撰@@ 4
救 4
敢@@ 4
斐 4
斐@@ 4
斩@@ 4
旦@@ 4
昆 4
昊@@ 4
昏 4
昔 4
昔@@ 4
昧@@ 4
昱@@ 4
晁 4
晓 4
晔 4
暉 4
暮 4
曆 4
曦 4
替@@ 4
材@@ 4
杖 4
杜 4
束@@ 4
枢@@ 4
枪 4
枯@@ 4
栞 4
株 4
梳@@ 4
梶@@ 4
检@@ 4
棗 4
棚 4
棟 4
検 4
椰@@ 4
概@@ 4
榊@@ 4
槇@@ 4
槐 4
樟@@ 4
横 4
欠@@ 4
欺@@ 4
欽 4
歷@@ 4
殘 4
毅@@ 4
毋 4
毋@@ 4
毎@@ 4
每@@ 4
毒 4
氹@@ 4
汁 4
汁@@ 4
汝 4
汪 4
汾@@ 4
沁 4
沧 4
沽@@ 4
泛@@ 4
泸@@ 4
浑@@ 4
浚 4
浴@@ 4
涤@@ 4
涯 4
淀@@ 4
淘@@ 4
淚 4
淺@@ 4
添 4
渇@@ 4
渊 4
渚 4
渭 4
湊@@ 4
準 4
溫 4
滅 4
滑 4
滬@@ 4
滿 4
漬@@ 4
潛 4
潛@@ 4
潟 4
潭@@ 4
澎@@ 4
濤 4
濮@@ 4
濱 4
瀧@@ 4
灞@@ 4
炉@@ 4
炙 4
炜 4
炫 4
炸 4
焉@@ 4
煌 4
煜 4
熾 4
燈 4
爭 4
爭@@ 4
爲 4
犀@@ 4
状 4
犹@@ 4
猪 4
猴 4
玥 4
玩@@ 4
玮@@ 4
珮 4
珲 4
現 4
琶@@ 4
瑟@@ 4
環 4
瓌 4
瓣@@ 4
甌 4
甕@@ 4
甘 4
甚@@ 4
生活 4
產 4
甸 4
疋@@ 4
皆 4
皋 4
盂@@ 4
盈 4
盈@@ 4
盐@@ 4
盘 4
盡@@ 4
眠 4
睦@@ 4
睿@@ 4
矣 4
硝@@ 4
硬 4
硬@@ 4
碁 4
碎@@ 4
碗 4
碟@@ 4
碼@@ 4
磯 4
示 4
禎 4
禎@@ 4
禿@@ 4
种 4
种@@ 4
穀 4
穆 4
穎 4
穹 4
窑@@ 4
窓 4
窓@@ 4
窪@@ 4
窮@@ 4
站@@ 4
竿 4
笙@@ 4
笫@@ 4
第一 4
筋 4
管 4
篆 4
築 4
篤@@ 4
篳@@ 4
簿 4
籠@@ 4
类 4
粟@@ 4
粱 4
系统 4
紂@@ 4
紋 4
紘@@ 4
紧@@ 4
紹 4
絞@@ 4
絢@@ 4
絲@@ 4
継 4
綜 4
綜@@ 4
縁 4
縛 4
縱@@ 4
繇 4
纂 4
约@@ 4
纬 4
纲 4
纸@@ 4
纽@@ 4
练@@ 4
织@@ 4
结@@ 4
绘@@ 4
绝@@ 4
统 4
绪@@ 4
绮@@ 4
缶@@ 4
罔@@ 4
置 4
罰@@ 4
署@@ 4
羯 4
羲 4
翟 4
翡@@ 4
耆 4
耆@@ 4
耕@@ 4
耿 4
聡@@ 4
聪 4
聽@@ 4
聿@@ 4
肅@@ 4
肇 4
肌 4
肏@@ 4
肥 4
胆 4
胎@@ 4
胞@@ 4
胥 4
脂@@ 4
腳 4
腳@@ 4
自己 4
臻 4
臼 4
艳 4
芒 4
芙 4
芮@@ 4
芷@@ 4
芽 4
芽@@ 4
苑@@ 4
茱@@ 4
荃 4
荔@@ 4
荻@@ 4
莎@@ 4
莱 4
菖@@ 4
菻 4
营 4
葱@@ 4
蓓 4
蔚 4
蕙 4
蕾 4
虐@@ 4
虚 4
虜 4
蜂@@ 4
螳@@ 4
蟬@@ 4
蠕 4
蠕@@ 4
衝@@ 4
裂 4
裔 4
裡 4
裵@@ 4
裸@@ 4
規@@ 4
觉@@ 4
訪 4
詞@@ 4
誇@@ 4
誘@@ 4
請@@ 4
諧@@ 4
謂@@ 4
謎 4
講 4
證@@ 4
譜@@ 4
譽@@ 4
讀@@ 4
讃@@ 4
让@@ 4
讯 4
证@@ 4
词 4
诚@@ 4
话@@ 4
诺 4
谈 4
谈@@ 4
谊@@ 4
谐 4
谢 4
谱 4
豉@@ 4
豕 4
豕@@ 4
豚@@ 4
豫@@ 4
豸 4
貊@@ 4
賜@@ 4
賣 4
質 4
賴 4
贈 4
质@@ 4
贸@@ 4
费 4
赫@@ 4
足球 4
践 4
踏@@ 4
踢@@ 4
軌 4
輿@@ 4
轉 4
轉@@ 4
轩@@ 4
转@@ 4
轰@@ 4
轻@@ 4
较@@ 4
込 4
迅 4
迎 4
迟@@ 4
追 4
透@@ 4
逐@@ 4
遜 4
遥 4
適@@ 4
遮@@ 4
遼 4
邕 4
邗@@ 4
邮@@ 4
邸 4
郁 4
郤@@ 4
郭 4
郵@@ 4
醉@@ 4
醜@@ 4
醬@@ 4
針@@ 4
鉴@@ 4
鉾@@ 4
銭 4
鋼 4
鎬 4
鑒@@ 4
鑼@@ 4
针@@ 4
钧 4
钰 4
铭 4
银 4
锋 4
锐@@ 4
闪@@ 4
阝 4
阮 4
陇@@ 4
除@@ 4
险 4
陪@@ 4
隍@@ 4
隞 4
隶 4
隶@@ 4
隸 4
雞@@ 4
雫 4
雾@@ 4
霸 4
靡 4
鞠@@ 4
韋 4
韦@@ 4
韭 4
韭@@ 4
頁 4
頑@@ 4
頓 4
頸@@ 4
題 4
額@@ 4
顏 4
願 4
颖@@ 4
题 4
题@@ 4
飓@@ 4
飩 4
餛@@ 4
饃 4
饅@@ 4
饉 4
饭 4
饮@@ 4
駒@@ 4
駕@@ 4
駱@@ 4
騰 4
驗@@ 4
驻@@ 4
骏@@ 4
髪@@ 4
髮 4
魄 4
魅@@ 4
鮑@@ 4
鲜 4
鳩 4
鳩@@ 4
鴨 4
鵝@@ 4
鵬@@ 4
鷹 4
鹃 4
麦 4
麪 4
麵@@ 4
麹 4
麿 4
龐@@ 4
龚 4
龢@@ 4
ꙑ 4
Ꚉ 4
꧀ 4
격 4
곡@@ 4
골 4
곰 4
곰@@ 4
궤 4
깃@@ 4
꺼@@ 4
꿈 4
끝@@ 4
논 4
뉴 4
댄@@ 4
던 4
돼@@ 4
되@@ 4
된 4
듀@@ 4
딩 4
따@@ 4
때@@ 4
또@@ 4
뚫@@ 4
뛰@@ 4
량 4
련@@ 4
롱 4
린@@ 4
링@@ 4
맴@@ 4
맵@@ 4
먹@@ 4
멈@@ 4
바 4
뱅@@ 4
벼@@ 4
변 4
봄@@ 4
붕 4
븐 4
뿌@@ 4
뿐@@ 4
쁜 4
섬 4
속 4
쇼 4
습 4
싶@@ 4
쌀 4
알 4
얼 4
업@@ 4
엇@@ 4
엿 4
율 4
쟁 4
젓@@ 4
좌 4
줄 4
질 4
징@@ 4
착@@ 4
책 4
쳐@@ 4
총 4
춤 4
쿠@@ 4
킬@@ 4
탈@@ 4
텔 4
틀 4
틴 4
편@@ 4
픽@@ 4
필 4
할 4
함@@ 4
혼 4
홀@@ 4
홍 4
활 4
흠 4
 4
 4
 4
 4
ﬁ 4
ﺴ@@ 4
ﻐ@@ 4
ﻑ 4
ﻕ 4
ﻛ@@ 4
ﻝ 4
ﻥ 4
ﻼ@@ 4
＊ 4
３ 4
Ａ 4
Ｗ@@ 4
￦ 4
𐎭@@ 4
𐏃@@ 4
𐐯 4
𐭠@@ 4
𐭮@@ 4
𐭯@@ 4
𐰆@@ 4
𐰛 4
𐰜@@ 4
𐰴@@ 4
𒀀 4
𒁀@@ 4
𒂵@@ 4
𒄩@@ 4
𒄿@@ 4
𒈾@@ 4
𒊏@@ 4
𝐿@@ 4
𝘢 4
𝘤@@ 4
𝘯@@ 4
𝙘@@ 4
𝙚@@ 4
𝙤@@ 4
🇹 4
🇺 4
Başkan@@ 3
Birleşik 3
Bản 3
Các 3
Ekim 3
Kikuu 3
Ngoài 3
Ngày 3
Pháp 3
Tổng 3
abilir 3
akiwa 3
altında 3
andı 3
asını 3
ataifa 3
açık@@ 3
biên 3
bzw. 3
bài 3
bóng 3
cheza 3
cây 3
devlet 3
dương 3
esinin 3
gehör@@ 3
giáo 3
giải 3
gặp 3
hoàng 3
ikiwa 3
ingine 3
jedoch 3
jumla 3
karş@@ 3
keş@@ 3
làm 3
lã@@ 3
lãnh 3
maları 3
miền 3
mpya 3
müc@@ 3
müz@@ 3
mạnh 3
nhất 3
nörd@@ 3
parator@@ 3
phim 3
refu 3
rộng 3
sollte 3
spielte 3
sız@@ 3
số 3
thanh 3
thêm 3
thông 3
thời 3
tritt 3
trên 3
trường 3
trị 3
tương 3
tướng 3
tế 3
tử 3
vàng 3
vương 3
weiten 3
weitere 3
weiteren 3
yenye 3
yêu 3
¦ 3
Ödül@@ 3
ìm 3
üdür 3
điện 3
đoàn 3
đường 3
định 3
đời 3
Ģ 3
Ĥ@@ 3
Ļ 3
Ņ 3
Ů 3
Ű 3
Ɓ 3
ƕ 3
Ơ 3
ƣ@@ 3
Ƭ 3
Ǟ 3
ǟ 3
Ǧ 3
ǩ@@ 3
ǹ 3
ȷ 3
ɍ 3
ɚ@@ 3
ɩ@@ 3
ɶ@@ 3
ʖ 3
ʘ 3
ʙ@@ 3
ʜ 3
ʸ 3
ˋ 3
ˣ 3
˹ 3
̐ 3
̒ 3
̗ 3
̛ 3
̢ 3
̭ 3
̿ 3
ͅ@@ 3
͑ 3
͒ 3
ͻ@@ 3
Από 3
Μια 3
Νο@@ 3
Σε 3
άλλων 3
άσεις 3
έρχεται 3
έχει 3
ήρω@@ 3
ήσεων 3
ήχ@@ 3
ίδιος 3
αγώνες 3
αδελφ@@ 3
αντι 3
από@@ 3
αρμ@@ 3
βιβ@@ 3
βουλευ@@ 3
διαί@@ 3
δική 3
διοικ@@ 3
εκτός 3
ελ 3
επισκ@@ 3
επιστήμ@@ 3
επιστη@@ 3
εποχή 3
ευρ@@ 3
ζει 3
ησε 3
θεί 3
ιουργ@@ 3
ιστική 3
κατασκευ@@ 3
κατο@@ 3
μένοι 3
μετρ@@ 3
μιας 3
νών 3
ογραφ@@ 3
οντας 3
οποί@@ 3
παί@@ 3
πελλο 3
πιο 3
προβλ@@ 3
πρόεδρος 3
πως 3
ρυθμ@@ 3
σήμερα 3
σημαν@@ 3
σμού 3
σσαλ@@ 3
στηρι@@ 3
συμβ@@ 3
συνεχ@@ 3
σύγ@@ 3
σύστημα 3
τέλη 3
τίτ@@ 3
ταγων@@ 3
ταν 3
τικές 3
τιο 3
τορα 3
τσι 3
υζαντιν@@ 3
φόρ@@ 3
ψε 3
ωνα 3
όνο 3
όνομ@@ 3
όνομα 3
ότητας 3
ότι 3
όχι 3
ώματα 3
ϐ 3
ϙ 3
Ϡ 3
ϡ 3
ϥ 3
ϧ 3
Ϯ@@ 3
Ϸ 3
Ѐ 3
Ќ@@ 3
Бълга@@ 3
Дей@@ 3
Дим@@ 3
Испа@@ 3
От 3
Уи@@ 3
Фридрих 3
американ@@ 3
архите@@ 3
более 3
верх@@ 3
вил 3
вле@@ 3
вне@@ 3
всего 3
вси@@ 3
встре@@ 3
вше@@ 3
вър@@ 3
генера@@ 3
група 3
группы 3
дву@@ 3
двух 3
действи@@ 3
дека@@ 3
держ@@ 3
держа@@ 3
ена 3
епи@@ 3
есть 3
ето 3
жена 3
зако@@ 3
запа@@ 3
зат@@ 3
зате@@ 3
знач@@ 3
зон 3
иде@@ 3
извест@@ 3
имен@@ 3
испол@@ 3
история 3
ители 3
ится 3
иту@@ 3
квар@@ 3
кви 3
кита@@ 3
количество 3
коман@@ 3
команд@@ 3
контро@@ 3
кора@@ 3
который 3
креп@@ 3
към 3
лд 3
лени 3
лии 3
лимпи@@ 3
лите@@ 3
меди@@ 3
менти 3
милия 3
много@@ 3
музи@@ 3
мъ@@ 3
началь@@ 3
необ@@ 3
нови 3
нологи@@ 3
ното 3
ноября 3
образование 3
один 3
организации 3
осно@@ 3
основ@@ 3
пен 3
песни 3
печат@@ 3
плат@@ 3
позна@@ 3
попу@@ 3
посе@@ 3
президен@@ 3
принадле@@ 3
пробле@@ 3
продол@@ 3
против 3
разви@@ 3
разработ@@ 3
раст@@ 3
реди@@ 3
режи@@ 3
рели@@ 3
свою 3
сед@@ 3
сигур@@ 3
сим@@ 3
сите@@ 3
ската 3
скими 3
скоро@@ 3
ското 3
скую 3
соз@@ 3
ссии 3
став 3
стал 3
стой@@ 3
страна 3
строй@@ 3
сце@@ 3
сч@@ 3
творче@@ 3
тек@@ 3
тни 3
тта 3
убе@@ 3
уме@@ 3
установ@@ 3
хия 3
чен 3
щения 3
этого 3
юж@@ 3
ѡ 3
ѩ@@ 3
ѯ 3
ѵ@@ 3
ѷ@@ 3
ѹ 3
҃ 3
Ҍ 3
Ҕ 3
ҕ 3
Ҙ 3
Ҝ 3
Ҟ 3
Ҡ 3
Ҭ 3
ҭ 3
ұ 3
Ҵ 3
Ҿ 3
Ӄ 3
ӆ 3
Ӊ 3
ӊ 3
ӑ 3
ӑ@@ 3
ӛ 3
Ӟ 3
Ӣ 3
Ӵ 3
Ӹ 3
ӽ 3
ԑ 3
Ԓ 3
ԓ 3
ԓ@@ 3
Ԭ 3
ԯ 3
Ե 3
Ը 3
Թ 3
Պ 3
փ 3
ׂ 3
ײ 3
آز@@ 3
أكتوبر 3
أمريك@@ 3
إن 3
اء@@ 3
اؤ@@ 3
ائم 3
ائے 3
اتب 3
اتح@@ 3
اجتماع@@ 3
اقتص@@ 3
الأص@@ 3
الات 3
الحرب 3
الحي@@ 3
الدرا@@ 3
الذي 3
الطبي@@ 3
العالم@@ 3
العالمية 3
العمل 3
العمل@@ 3
اللہ 3
المنطقة 3
النف@@ 3
النق@@ 3
اما 3
امات 3
انس@@ 3
بات@@ 3
باسم 3
بت 3
بری@@ 3
بص@@ 3
بطولة 3
بہ@@ 3
بیت 3
بیر 3
تال 3
ترا 3
تض@@ 3
تط@@ 3
تمع 3
تنظ@@ 3
تہ 3
جائ@@ 3
جاپ@@ 3
جرا@@ 3
جنگ@@ 3
جوم 3
حال 3
حصاء 3
حق 3
حمل@@ 3
حی 3
ختم 3
دد 3
درجة 3
دریا 3
دوس@@ 3
دیا 3
ذا 3
ذلك 3
ذي 3
راج@@ 3
راض 3
راہ@@ 3
رر 3
رس 3
رنگ 3
رو 3
ریت 3
زمین 3
ستانی 3
سفی@@ 3
سلطنت 3
سند 3
سند@@ 3
سنگ@@ 3
سو 3
سوم 3
سک@@ 3
سین@@ 3
شاعر 3
شک@@ 3
ضد 3
ضر@@ 3
ضل@@ 3
طب@@ 3
طلا@@ 3
ظهر 3
عاب 3
عالم 3
عالم@@ 3
عند 3
عية 3
غل@@ 3
ـ 3
فران@@ 3
فرد 3
قال 3
قدم 3
قوم 3
قوم@@ 3
قومی 3
قيق 3
كات 3
كث@@ 3
كور@@ 3
كومة 3
لأ@@ 3
لاح@@ 3
لد 3
لز 3
لن@@ 3
لها 3
ليس 3
لگ@@ 3
مارس 3
مالي 3
مانيا 3
مخت@@ 3
مرکزی 3
منتخب 3
موال@@ 3
موت 3
مہ 3
میر 3
نحو 3
نس 3
نقل 3
نڈ@@ 3
نک 3
هذه 3
وإ@@ 3
وائ@@ 3
واس@@ 3
واست@@ 3
واقع 3
والا 3
وطن 3
وفي@@ 3
ولی@@ 3
وما 3
ونی 3
وير 3
وَّ@@ 3
وّ@@ 3
ٌ@@ 3
٣@@ 3
ٹھ@@ 3
پا 3
پرو@@ 3
پس 3
پش@@ 3
ڀ@@ 3
چار 3
چو@@ 3
چھ@@ 3
ڈی 3
ڈی@@ 3
ډ@@ 3
ښ@@ 3
کار 3
[...]
