на 1
. 1
, 1
и 1
в 1
е 1
от 1
с 1
се 1
( 1
) 1
за 1
@-@ 1
да 1
ва 1
„ 1
“ 1
&quot; 0.47724600047406596
ни 1
на@@ 1
н 1
за@@ 1
с@@ 1
т 1
но 1
по@@ 1
са 1
о@@ 1
из@@ 1
л@@ 1
ка 1
ли@@ 1
г 1
л 1
ната 1
съ@@ 1
по 1
ните 1
ре@@ 1
– 1
р 1
ри@@ 1
ски 1
г. 1
е@@ 1
ния 1
у@@ 1
като 1
си 1
през 1
й@@ 1
ле@@ 1
С@@ 1
ни@@ 1
ко@@ 1
ти@@ 1
но@@ 1
не@@ 1
в@@ 1
та 1
до@@ 1
т@@ 1
пре@@ 1
ро@@ 1
де@@ 1
ват 1
ви@@ 1
д@@ 1
ка@@ 1
а 1
ра@@ 1
к 1
А@@ 1
ма@@ 1
н@@ 1
м@@ 1
я 1
ска 1
си@@ 1
б@@ 1
ди@@ 1
г@@ 1
а@@ 1
от@@ 1
до 1
к@@ 1
ми@@ 1
ли 1
з@@ 1
ската 1
ра 1
те@@ 1
д 1
К@@ 1
ва@@ 1
се@@ 1
година 1
ла 1
не 1
Е@@ 1
ла@@ 1
п@@ 1
я@@ 1
През 1
мо@@ 1
х@@ 1
О@@ 1
при@@ 1
го@@ 1
ве@@ 1
ло@@ 1
В 1
ки 1
м 1
раз@@ 1
ти 1
му 1
ите 1
ж@@ 1
ш@@ 1
то@@ 1
па@@ 1
об@@ 1
ри 1
ч@@ 1
ят 1
ция 1
и@@ 1
че@@ 1
би@@ 1
про@@ 1
ата 1
че 1
Д@@ 1
ля@@ 1
бо@@ 1
та@@ 1
ст@@ 1
Б@@ 1
ме@@ 1
ното 1
: 0.889401171906666
ма 1
о 1
бе@@ 1
ята 1
сти@@ 1
га 1
ския 1
ство 1
ване 1
ър@@ 1
ъ@@ 1
р@@ 1
ан@@ 1
то 1
пе@@ 1
ст 1
да@@ 1
ен@@ 1
ката 1
сто@@ 1
ф@@ 1
Т@@ 1
В@@ 1
й 1
во@@ 1
У@@ 1
П@@ 1
ин@@ 1
пи@@ 1
ци 1
ви 1
га@@ 1
М@@ 1
ник 1
ът 1
зи@@ 1
ко 1
ност 1
И@@ 1
со@@ 1
ку@@ 1
ър 1
ди 1
това 1
ето 1
ста@@ 1
към 1
ските 1
ба@@ 1
ал@@ 1
ло 1
които 1
ю@@ 1
въ@@ 1
или 1
под@@ 1
ру@@ 1
ар@@ 1
лен 1
ско 1
най 1
при 1
който 1
след 1
ството 1
Г@@ 1
ду@@ 1
ръ@@ 1
во 1
ден 1
вата 1
чи@@ 1
са@@ 1
На 1
Ка@@ 1
Ко@@ 1
нието 1
ването 1
те 1
Ф@@ 1
ц@@ 1
гра@@ 1
хо@@ 1
По@@ 1
ени 1
ци@@ 1
ор@@ 1
фон 1
във 1
; 0.7475397682495567
ми 1
вен 1
рия 1
Х@@ 1
въз@@ 1
има 1
Н@@ 1
ча@@ 1
ги@@ 1
ту@@ 1
ки@@ 1
ер@@ 1
кон@@ 1
зе@@ 1
ве 1
част 1
време 1
Ма@@ 1
ца 1
ние 1
це@@ 1
На@@ 1
ща 1
ското 1
лно 1
Р@@ 1
ства 1
же@@ 1
която 1
пред@@ 1
щ@@ 1
ният 1
2 1
години 1
З@@ 1
ек@@ 1
1 1
цията 1
След 1
което 1
град 1
вър@@ 1
със 1
той 1
ба 1
Се@@ 1
ници 1
Ан@@ 1
Съ@@ 1
ше@@ 1
ге@@ 1
става 1
го 1
рата 1
лу@@ 1
лия 1
зо@@ 1
Ви@@ 1
мата 1
ител@@ 1
су@@ 1
ит@@ 1
рите 1
гу@@ 1
къ@@ 1
ман@@ 1
ат@@ 1
стве@@ 1
п 1
мен@@ 1
щ 1
пу@@ 1
ките 1
фи@@ 1
ск@@ 1
ц 1
век 1
вете 1
хи@@ 1
Бо@@ 1
з 1
ак@@ 1
За@@ 1
Л@@ 1
стра@@ 1
По 1
лите 1
жи@@ 1
кра@@ 1
Са@@ 1
Из@@ 1
сте@@ 1
/ 1
лъ@@ 1
Ре@@ 1
бу@@ 1
щата 1
ците 1
ля 1
3 1
лни 1
пър@@ 1
он@@ 1
България 1
бра@@ 1
дъл@@ 1
Па@@ 1
чен 1
бро@@ 1
лна 1
Ха@@ 1
между 1
гла@@ 1
рат 1
ъл@@ 1
жда 1
ции 1
около 1
ява 1
х 1
нията 1
5 1
мъ@@ 1
ността 1
доб@@ 1
много 1
фа@@ 1
пъ@@ 1
16@@ 1
нен 1
ран@@ 1
ги 1
От 1
ря@@ 1
им 1
би 1
Той 1
Ц@@ 1
българ@@ 1
село 1
Та@@ 1
Ми@@ 1
жа@@ 1
зна@@ 1
ня@@ 1
ен 1
три@@ 1
То@@ 1
у 1
ще 1
Не@@ 1
4 1
ч 1
зи 1
където 1
ита@@ 1
† 1
вой@@ 1
17@@ 1
може 1
жи 1
ѝ 1
фе@@ 1
ав@@ 1
мал@@ 1
вия 1
лата 1
ке@@ 1
един 1
жение 1
Пър@@ 1
ши@@ 1
15@@ 1
кри@@ 1
спо@@ 1
щи 1
създа@@ 1
йски 1
тре@@ 1
дру@@ 1
града 1
род@@ 1
нов 1
Ба@@ 1
ате@@ 1
еди@@ 1
сти 1
ено 1
Ш@@ 1
рен 1
война 1
му@@ 1
чни 1
кан@@ 1
както 1
други 1
тур@@ 1
6 1
ха@@ 1
дър@@ 1
стро@@ 1
също 1
вто@@ 1
под 1
вя@@ 1
ет@@ 1
ча 1
фор@@ 1
ща@@ 1
тър@@ 1
Де@@ 1
С 1
Ю@@ 1
Те@@ 1
ф 1
он 1
кар@@ 1
цата 1
дена 1
жа 1
него@@ 1
чески 1
бург 1
ро 1
ос@@ 1
Про@@ 1
този 1
фил@@ 1
ати@@ 1
Ро@@ 1
ж 1
ден@@ 1
ран 1
вид 1
Ме@@ 1
поло@@ 1
започва 1
све@@ 1
вла@@ 1
13@@ 1
Ру@@ 1
Лу@@ 1
основ@@ 1
пар@@ 1
ниче@@ 1
тен 1
чно 1
сла@@ 1
дей@@ 1
чи 1
Си@@ 1
уч@@ 1
късно 1
I 1
ще@@ 1
До@@ 1
край@@ 1
14@@ 1
само 1
пъл@@ 1
що 1
Ч@@ 1
сред@@ 1
чо@@ 1
стта 1
ван 1
ста 1
включ@@ 1
Мар@@ 1
ан 1
тя 1
края 1
Ку@@ 1
кръ@@ 1
сво@@ 1
още 1
източ@@ 1
ша@@ 1
град@@ 1
жда@@ 1
Ле@@ 1
вите 1
Ли@@ 1
два 1
7 1
20 1
де 1
мет@@ 1
ера 1
пла@@ 1
послед@@ 1
За 1
цион@@ 1
10 1
ш 1
гле@@ 1
души 1
Ар@@ 1
над 1
сре@@ 1
точ@@ 1
него 1
II 1
Мо@@ 1
хе@@ 1
оби@@ 1
лек@@ 1
гово@@ 1
дви@@ 1
ска@@ 1
продъл@@ 1
тъ@@ 1
чу@@ 1
път 1
мор@@ 1
фо@@ 1
пло@@ 1
ително 1
лан@@ 1
8 1
ну@@ 1
една 1
вод@@ 1
хра@@ 1
срещу 1
Ж@@ 1
.@@ 0.7832750747490906
пол@@ 1
жени 1
ител 1
Бе@@ 1
ско@@ 1
Ин@@ 1
Го@@ 1
ато@@ 1
кул@@ 1
лото 1
Ал@@ 1
ков 1
Пре@@ 1
Йо@@ 1
б 1
така 1
тура 1
когато 1
Ра@@ 1
сен 1
ем@@ 1
m 0.5092245144138486
ур@@ 1
извест@@ 1
след@@ 1
Биография 1
пис@@ 1
ница 1
Я@@ 1
пра@@ 1
вен@@ 1
мо 1
тно 1
оръ@@ 1
мия 1
граф 1
жен 1
български 1
откри@@ 1
началото 1
изда@@ 1
мест@@ 1
ският 1
ха 1
няколко 1
чна 1
всички 1
ене@@ 1
селото 1
3@@ 0.9225507726928763
Об@@ 1
пер@@ 1
лен@@ 1
им@@ 1
тра@@ 1
кла@@ 1
ман 1
плани@@ 1
Ки@@ 1
жава 1
Раз@@ 1
Ва@@ 1
ган@@ 1
9 1
гре@@ 1
висо@@ 1
us 0.3703404196873915
лич@@ 1
разполо@@ 1
вият 1
зия 1
шен 1
мя@@ 1
km 1
семейство 1
тя@@ 1
мина@@ 1
рани 1
тях 1
чер@@ 1
авто@@ 1
работ@@ 1
слу@@ 1
лю@@ 1
над@@ 1
ране 1
воен@@ 1
рията 1
дени 1
дан@@ 1
река 1
ите@@ 1
12@@ 1
Но@@ 1
тан@@ 1
мини@@ 1
ця@@ 1
ъм 1
спе@@ 1
запад@@ 1
София 1
ато 1
рай@@ 1
дия 1
15 1
ника 1
па 1
казва 1
ните@@ 1
две 1
само@@ 1
Ди@@ 1
гата 1
нов@@ 1
истори@@ 1
18@@ 0.9664402583160616
май 1
септември 1
При@@ 1
Пе@@ 1
вява 1
представ@@ 1
ита 1
уни@@ 1
ед@@ 1
Би@@ 1
американ@@ 1
щите 1
лин@@ 1
Ла@@ 1
нари@@ 1
заедно 1
роден 1
Това 1
май@@ 1
рал@@ 1
ком@@ 1
мите 1
сло@@ 1
% 0.5446788756449568
вли@@ 1
ьо@@ 1
ров 1
Хо@@ 1
получава 1
тро@@ 1
лят 1
тите 1
кия 1
дове 1
тези 1
нява 1
12 1
музи@@ 1
място 1
национа@@ 1
йн 1
ниците 1
30 1
дра@@ 1
Га@@ 1
тази 1
живо@@ 1
4@@ 0.9114726666524386
Да@@ 1
стъп@@ 1
Според 1
берг 1
- 0.5229599672233194
дъщеря 1
Со@@ 1
ема 1
изпъл@@ 1
вер@@ 1
имат 1
сия 1
януари 1
ев 1
ков@@ 1
Ве@@ 1
Въ@@ 1
намира 1
октомври 1
Пи@@ 1
чение 1
бър@@ 1
дни 1
САЩ 1
преди 1
върху 1
дъ@@ 1
юни 1
нение 1
свър@@ 1
вания 1
йн@@ 1
юли 1
терито@@ 1
Ри@@ 1
три 1
нат 1
стан@@ 1
името 1
август 1
ата@@ 1
мар@@ 1
лет@@ 1
лната 1
различни 1
Македония 1
бъде 1
тар@@ 1
рав@@ 1
сту@@ 1
чрез 1
ша 1
март 1
ности 1
полу@@ 1
ре 1
Пет@@ 1
област 1
Ни@@ 1
ждан@@ 1
кни@@ 1
мат 1
април 1
Дж@@ 1
она@@ 1
опреде@@ 1
син 1
йки 1
гат 1
близ@@ 1
рен@@ 1
отде@@ 1
лага 1
ноември 1
тия 1
Ло@@ 1
вет@@ 1
работи 1
ь@@ 1
десе@@ 1
000 1
декември 1
община 1
гъ@@ 1
1@@ 1
ген@@ 1
вото 1
съпру@@ 1
сен@@ 1
връ@@ 1
тер@@ 1
А 1
кът 1
рана 1
ктор 1
али@@ 1
мили@@ 1
мати@@ 1
дава 1
ход 1
успе@@ 1
прав@@ 1
обя@@ 1
История 1
ней@@ 1
&amp; 0.6546972455864586
ление 1
защ@@ 1
бор@@ 1
16 1
ани 1
Бу@@ 1
някои 1
Во@@ 1
държав@@ 1
игра@@ 1
голе@@ 1
Кон@@ 1
група 1
преди@@ 1
режи@@ 1
публика 1
дости@@ 1
ити@@ 1
18 1
годиш@@ 1
нски 1
графи@@ 1
2@@ 0.8139682823138379
често 1
S@@ 0.1051488301292192
14 1
мен 1
тив@@ 1
пове@@ 1
чава 1
стоя@@ 1
11 1
обще@@ 1
К 1
поли@@ 1
стри@@ 1
глав@@ 1
От@@ 1
нея 1
произве@@ 1
Гра@@ 1
вани 1
кора@@ 1
вар@@ 1
съю@@ 1
При 1
нето 1
ся@@ 1
III 1
тни 1
дя@@ 1
управ@@ 1
ме 1
страната 1
став@@ 1
води 1
голя@@ 1
19 1
Тя 1
мира 1
живе@@ 1
25 1
стъ@@ 1
зан@@ 1
Ав@@ 1
прове@@ 1
сел@@ 1
побе@@ 1
използва@@ 1
държа@@ 1
футбо@@ 1
соци@@ 1
гар@@ 1
жена 1
зва 1
нове@@ 1
февруари 1
пор@@ 1
5@@ 0.8383995623381868
тен@@ 1
цио@@ 1
граф@@ 1
един@@ 1
албу@@ 1
остро@@ 1
разпростра@@ 1
стър 1
гръц@@ 1
вайки 1
гро@@ 1
оп@@ 1
13 1
кол@@ 1
два@@ 1
език 1
Ста@@ 1
ши 1
цент@@ 1
дж@@ 1
вече 1
од@@ 1
зем@@ 1
17 1
Те 1
присъ@@ 1
обла@@ 1
цен@@ 1
Су@@ 1
рин@@ 1
бли@@ 1
ално 1
могат 1
сред 1
зва@@ 1
сто 1
ари 1
гия 1
следва@@ 1
образ@@ 1
ун@@ 1
прави 1
връща 1
ход@@ 1
поя@@ 1
лов 1
център 1
щи@@ 1
ца@@ 1
пр.н.е. 1
тин@@ 1
иг@@ 1
Ти@@ 1
бре@@ 1
империя 1
кото 1
минава 1
ък 1
запа@@ 1
лиза 1
вана 1
ради 1
постро@@ 1
10@@ 1
Вто@@ 1
сле@@ 1
бер@@ 1
пле@@ 1
она 1
Димит@@ 1
реди@@ 1
тата 1
бит@@ 1
лния 1
Разпространение 1
бя@@ 1
Видът 1
повече 1
ю 0.8564636659631529
университет 1
Италия 1
зват 1
произ@@ 1
ези@@ 1
мла@@ 1
завършва 1
отново 1
части 1
чет@@ 1
щия 1
започ@@ 1
Северна 1
джи@@ 1
кре@@ 1
рът 1
служ@@ 1
50 1
без 1
ген 1
бил 1
ет 0.9670392607636625
сно 1
използва 1
лните 1
син@@ 1
прия@@ 1
тът 1
дина@@ 1
Фи@@ 1
вате@@ 1
проек@@ 1
дата 1
участва 1
лява 1
нал 1
Кар@@ 1
страна 1
тат 1
жен@@ 1
грани@@ 1
лат@@ 1
ня 1
дер@@ 1
дения 1
ждат 1
ствие 1
кло@@ 1
край 1
уче@@ 1
Му@@ 1
едно 1
Бер@@ 1
ле 1
жители 1
юж@@ 1
специ@@ 1
семей@@ 1
зат@@ 1
училище 1
6@@ 0.8366582752647683
Ос@@ 1
населението 1
правител@@ 1
сезон 1
височина 1
наре@@ 1
френ@@ 1
бата 1
пи 1
Най 1
отбо@@ 1
вени 1
чети@@ 1
бан@@ 1
поради 1
Чер@@ 1
мът 1
собстве@@ 1
писва 1
органи@@ 1
световна 1
трябва 1
револю@@ 1
вра@@ 1
име@@ 1
първата 1
ьор 1
периода 1
Сто@@ 1
осно@@ 1
9@@ 0.9391181644016401
политиче@@ 1
писа@@ 1
твър@@ 1
нова 1
Че@@ 1
рането 1
малко 1
лов@@ 1
тех@@ 1
C@@ 0.120847809866333
обаче 1
все@@ 1
юго@@ 1
Александ@@ 1
Ду@@ 1
йския 1
ители 1
Фран@@ 1
според 1
изку@@ 1
P@@ 0.11790595621268854
север@@ 1
8@@ 0.9807278422735631
ред 1
кт 1
21 1
зване 1
&apos; 0.21324544452334052
име 1
полити@@ 1
сън 1
голяма 1
ена 1
же 1
пти@@ 1
усп@@ 1
разде@@ 1
M@@ 0.1220113816572316
менти 1
ристи@@ 1
спи@@ 1
щат 1
вена 1
бия 1
струк@@ 1
лена 1
нася 1
Германия 1
тор 1
лина 1
изток 1
годи@@ 1
пен 1
взе@@ 1
7@@ 0.8369074865301299
анд@@ 1
чев 1
право@@ 1
Бал@@ 1
стите 1
Франция 1
ителите 1
без@@ 1
ер 1
своя 1
вал 1
Хе@@ 1
член 1
Русия 1
Българ@@ 1
40 1
кари@@ 1
22 1
нар@@ 1
мент 1
прин@@ 1
О 1
24 1
ане 1
съществу@@ 1
пан@@ 1
Фа@@ 1
месе@@ 1
стати@@ 1
тру@@ 1
резул@@ 1
архи@@ 1
армия 1
лин 1
нача@@ 1
производ@@ 1
особ@@ 1
бъ@@ 1
наслед@@ 1
система 1
умира 1
Свети 1
хар@@ 1
лиза@@ 1
кате@@ 1
2010 0.7329790706127034
случа@@ 1
подоб@@ 1
дне@@ 1
A@@ 0.13404574737340927
ологи@@ 1
били 1
* 1
Хри@@ 1
образу@@ 1
северо@@ 1
смъртта 1
рих 1
отно@@ 1
чето 1
диа@@ 1
мон@@ 1
връз@@ 1
сп@@ 1
реги@@ 1
дол@@ 1
км 1
вели@@ 1
поч@@ 1
кова 1
D@@ 0.09984323684599655
изпол@@ 1
Нико@@ 1
запад 1
ваща 1
нове 1
общи@@ 1
чните 1
Ге@@ 1
кто@@ 1
Гърция 1
2011 0.8109445777391228
idae 1
кли@@ 1
П 1
нау@@ 1
профе@@ 1
църква 1
уча@@ 1
T@@ 0.11160281412475398
население 1
23 1
Иван 1
Европа 1
дел@@ 1
тин 1
жението 1
L@@ 0.09194980915793587
ново 1
имен@@ 1
времен@@ 1
сед@@ 1
дар@@ 1
Георги 1
гите 1
благо@@ 1
жено 1
Вар@@ 1
Въпреки 1
нови 1
ални 1
тов@@ 1
мер@@ 1
вонача@@ 1
манасти@@ 1
ел 1
публи@@ 1
англи@@ 1
писате@@ 1
свобо@@ 1
логи@@ 1
пред 1
Ке@@ 1
ото 1
докато 1
дво@@ 1
едно@@ 1
проце@@ 1
днес 1
участ@@ 1
чат 1
ати 1
лиан@@ 1
мир 1
ров@@ 1
върш@@ 1
ланд@@ 1
разли@@ 1
жения 1
гор@@ 1
опера@@ 1
чва 1
Щ@@ 1
еле@@ 1
стре@@ 1
мост 1
тна 1
ред@@ 1
първи 1
дат 1
лището 1
граждан@@ 1
председате@@ 1
чната 1
вода 1
Ор@@ 1
ващи 1
играе 1
тиче@@ 1
26 1
H@@ 0.10793959812789089
Бра@@ 1
ствено 1
28 1
60 1
Мария 1
ок@@ 1
времето 1
пише 1
E@@ 0.13055450035478985
лица 1
Лю@@ 1
остров 1
щайн 1
рото 1
деца 1
изпра@@ 1
Дже@@ 1
отбор 1
рабо@@ 1
мат@@ 1
сигур@@ 1
херцо@@ 1
циите 1
лени 1
Роден 1
вся@@ 1
B@@ 0.09366291908338274
тат@@ 1
влия@@ 1
27 1
рак@@ 1
Сте@@ 1
вън@@ 1
страни 1
ключ@@ 1
рий 1
групата 1
баща 1
живот 1
пат@@ 1
тъй 1
Констан@@ 1
зира 1
печели 1
Све@@ 1
це 1
кар 1
юр@@ 1
Населението 1
жина 1
вет 1
постав@@ 1
класи@@ 1
тогава 1
големи 1
ландия 1
Кри@@ 1
първия 1
вят 1
стен 1
света 1
лд 1
ше 1
чина 1
яват 1
сили 1
крал 1
възра@@ 1
период 1
позна@@ 1
клю@@ 1
теат@@ 1
окръг 1
пози@@ 1
дите 1
род 1
дате@@ 1
йската 1
кс 1
ради@@ 1
e 0.10128560391960578
Ту@@ 1
нами@@ 1
рано 1
стои 1
вета 1
вест@@ 1
80 1
метра 1
развити@@ 1
Фили@@ 1
съще@@ 1
тел 1
ква@@ 1
остава 1
каз@@ 1
Южна 1
публику@@ 1
общ@@ 1
офици@@ 1
труд@@ 1
яването 1
брат 1
ръковод@@ 1
Мак@@ 1
кновено 1
писание 1
църк@@ 1
Васи@@ 1
стру@@ 1
рим@@ 1
мно 1
Има 1
герман@@ 1
сце@@ 1
догово@@ 1
бар@@ 1
мож@@ 1
G@@ 0.09951058923330243
Дру@@ 1
ян@@ 1
провинция 1
жан@@ 1
вре@@ 1
дире@@ 1
раст@@ 1
спор@@ 1
мъж@@ 1
N@@ 0.10695815218804167
вина 1
програ@@ 1
X@@ 0.7822608822007853
2000 0.9593251701972669
първите 1
треш@@ 1
др 1
войната 1
йска 1
Хи@@ 1
сни 1
рии 1
бъдат 1
s 0.06027918034531688
Национа@@ 1
посо@@ 1
кси@@ 1
тото 1
изслед@@ 1
известен 1
ъра 1
широ@@ 1
кур@@ 1
следовате@@ 1
шампи@@ 1
29 1
гри@@ 1
йни 1
иде@@ 1
места 1
почти 1
нем@@ 1
изо@@ 1
они 1
лище 1
турата 1
начин 1
съвет@@ 1
I@@ 0.17028611315787695
няма 1
лектро@@ 1
представля@@ 1
ент@@ 1
2012 0.7201328684936354
там 1
2009 0.7426945982865544
ез@@ 1
уби@@ 1
щото 1
голям 1
ането 1
Ша@@ 1
2007 0.7929697676555906
чка 1
състе@@ 1
стиче@@ 1
хвър@@ 1
тек@@ 1
вали 1
шо@@ 1
Мон@@ 1
коле@@ 1
R@@ 0.08769258245500722
2008 0.7393633698682774
дро@@ 1
свет@@ 1
тира 1
вари@@ 1
прие@@ 1
Вели@@ 1
мс 1
преда@@ 1
IV 1
изче@@ 1
тит@@ 1
арти@@ 1
изи@@ 1
V@@ 0.15287703541261483
Йор@@ 1
F@@ 0.09222428549109069
христи@@ 1
стер@@ 1
спа@@ 1
ван@@ 1
знач@@ 1
пет 1
дор 1
цел 1
водо@@ 1
характе@@ 1
Меж@@ 1
тео@@ 1
2006 0.7904267581949704
кономи@@ 1
ити 1
нали@@ 1
хан 1
ву@@ 1
народ@@ 1
зу@@ 1
100 1
70 1
важ@@ 1
пси@@ 1
хора 1
коло@@ 1
рио@@ 1
обра@@ 1
цар@@ 1
зани 1
бри@@ 1
O@@ 0.14665423289023202
функ@@ 1
тор@@ 1
вед@@ 1
Пред@@ 1
ск 1
консу@@ 1
систе@@ 1
дено 1
все 1
ев@@ 1
офи@@ 1
пол 1
оста@@ 1
пуска 1
нес 1
работа 1
0 0.7909957903878784
анти@@ 1
основа@@ 1
била 1
̀ 1
31 1
хай@@ 1
крити@@ 1
Май@@ 1
вич 1
тел@@ 1
вероя@@ 1
чо 1
остана@@ 1
зер@@ 1
слав@@ 1
телевизи@@ 1
науч@@ 1
ян 1
Тур@@ 1
джа@@ 1
освобо@@ 1
реша@@ 1
ху@@ 1
шно 1
установ@@ 1
стар@@ 1
шение 1
Мал@@ 1
акаде@@ 1
север 1
тради@@ 1
рина 1
тон 1
района 1
лей@@ 1
море 1
фло@@ 1
форма 1
мно@@ 1
фина@@ 1
Фридрих 1
станов@@ 1
вица 1
император 1
хия 1
V 1
зо 1
посе@@ 1
ано 1
Фе@@ 1
ори@@ 1
юг 1
Ча@@ 1
дна 1
британ@@ 1
цо@@ 1
ток 1
Й@@ 1
Ско@@ 1
кня@@ 1
временно 1
кро@@ 1
много@@ 1
ора 1
Гор@@ 1
фак@@ 1
Кра@@ 1
контро@@ 1
пара@@ 1
лист 1
команд@@ 1
усло@@ 1
сер@@ 1
фек@@ 1
тина 1
2013 0.6457325025549475
действи@@ 1
гов@@ 1
Бур@@ 1
ад@@ 1
дът 1
интер@@ 1
лка 1
нер 1
литера@@ 1
сна@@ 1
груп@@ 1
гимна@@ 1
разви@@ 1
актив@@ 1
шки 1
ответ@@ 1
чки 1
Ман@@ 1
партия 1
дре@@ 1
ват@@ 1
генерал 1
мит@@ 1
2014 0.6189209509452678
регион 1
управление 1
2005 0.8151103355537703
Гу@@ 1
стат@@ 1
став 1
зви@@ 1
Запад@@ 1
как@@ 1
институ@@ 1
логия 1
Уи@@ 1
шения 1
фици@@ 1
физи@@ 1
чле@@ 1
рал 1
дивизи@@ 1
90 1
светов@@ 1
парти@@ 1
мин@@ 1
дри@@ 1
i 0.14389091829764422
виде@@ 1
множество 1
например 1
° 1
чена 1
йна 1
бе 1
учи@@ 1
участие 1
дин@@ 1
инди@@ 1
Сан@@ 1
независи@@ 1
рели@@ 1
стин@@ 1
y@@ 0.10882944835618619
Чи@@ 1
2001 0.9650942266768366
a 0.016381392256456573
Бар@@ 1
позво@@ 1
Пол@@ 1
обо@@ 1
кор@@ 1
ления 1
мени 1
зар@@ 1
нения 1
лет 1
стой@@ 1
рение 1
Основ@@ 1
организация 1
вин@@ 1
президен@@ 1
вид@@ 1
is 0.038159773127187484
стра 1
моде@@ 1
2015 0.590115446296806
Карл 1
крат@@ 1
креп@@ 1
лий 1
рис 1
сме@@ 1
международ@@ 1
стен@@ 1
жде@@ 1
вида 1
история 1
Фор@@ 1
рам@@ 1
2004 0.8069327251106477
пен@@ 1
1944 1
доби@@ 1
Вер@@ 1
призна@@ 1
поле@@ 1
хов@@ 1
дин 1
фика@@ 1
ец 1
мате@@ 1
форми@@ 1
мер 1
нд 1
Евро@@ 1
цер@@ 1
ску@@ 1
До 1
2002 0.9176188390614277
популяр@@ 1
нин 1
Сред@@ 1
W@@ 0.09063609905057096
турни@@ 1
лер 1
кти@@ 1
рий@@ 1
ис@@ 1
И 1
рази@@ 1
ститу@@ 1
_ 0.5964533021710865
стан 1
наме@@ 1
ний 0.7690922246042752
Кор@@ 1
команди@@ 1
дение 1
ол@@ 1
Кла@@ 1
The 0.04271609000968675
зма 1
уме@@ 1
избран 1
ут@@ 1
Пер@@ 1
C 0.4146637000655373
Н 1
шка 1
Пу@@ 1
музе@@ 1
gt 0.5170925990687709
противо@@ 1
Це@@ 1
преки 1
комите@@ 1
древ@@ 1
владе@@ 1
ус 1
нос@@ 1
в. 1
Пари@@ 1
фон@@ 1
Геор@@ 1
шко@@ 1
мента@@ 1
рин 1
гна@@ 1
темпера@@ 1
География 1
доку@@ 1
наблю@@ 1
теле@@ 1
35 1
хода 1
гори@@ 1
² 1
помощ@@ 1
информа@@ 1
Разпростра@@ 1
раб@@ 1
дан 1
руп@@ 1
лища 1
вол@@ 1
пей@@ 1
секре@@ 1
финан@@ 1
ций 1
дома@@ 1
ули@@ 1
Бел@@ 1
прави@@ 1
право 1
помо@@ 1
бю@@ 1
назначен 1
срав@@ 1
епископ 1
защит@@ 1
скоро@@ 1
нима@@ 1
Пра@@ 1
ност@@ 1
милия 1
lt 0.6747206960278859
худож@@ 1
мета@@ 1
кин@@ 1
мокра@@ 1
тер 1
озна@@ 1
Рай@@ 1
проте@@ 1
гате@@ 1
вси@@ 1
оке@@ 1
дале@@ 1
мена 1
Ай@@ 1
прода@@ 1
Дей@@ 1
185@@ 0.9521598888345549
коми@@ 1
Р 1
каза@@ 1
чис@@ 1
жество 1
вор@@ 1
бал@@ 1
част@@ 1
Кита@@ 1
хи 1
так@@ 1
поста@@ 1
1990 0.9713515791917436
вала 1
дон@@ 1
Кара@@ 1
препода@@ 1
ник@@ 1
инте@@ 1
гли@@ 1
нин@@ 1
рец 1
дер 1
смър@@ 1
дж 1
2016 0.5164912666137349
Ши@@ 1
няко@@ 1
пя@@ 1
оз@@ 1
вно 1
звез@@ 1
Пос@@ 1
награ@@ 1
рите@@ 1
лож@@ 1
тран@@ 1
№ 1
проду@@ 1
сю@@ 1
Кли@@ 1
крепо@@ 1
вод 1
коно@@ 1
око@@ 1
мето@@ 1
компози@@ 1
Шве@@ 1
центра@@ 1
&#93; 0.48784952853646674
лед@@ 1
Хар@@ 1
причи@@ 1
стояние 1
назна@@ 1
00 1
зако@@ 1
Три@@ 1
расте@@ 1
Ком@@ 1
твор@@ 1
&#91; 0.4835275884468067
рей@@ 1
интере@@ 1
нен@@ 1
Лон@@ 1
мей@@ 1
напа@@ 1
попа@@ 1
200 1
p@@ 0.05632483304051311
район 1
аре@@ 1
упо@@ 1
2003 0.7887522015257921
клу@@ 1
Афри@@ 1
Кали@@ 1
продук@@ 1
Жи@@ 1
Бри@@ 1
2017 0.5215588905719664
практи@@ 1
рода 1
Ху@@ 1
Сле@@ 1
лез@@ 1
мента 1
обе@@ 1
e@@ 0.0639272414938872
ито 1
песни 1
архитек@@ 1
Джон 1
стви@@ 1
зву@@ 1
ърк@@ 1
ем 1
дже@@ 1
нор@@ 1
кос@@ 1
пит@@ 1
мето 1
способ@@ 1
мър@@ 1
дент@@ 1
Шу@@ 1
материа@@ 1
нина 1
Д 1
иту@@ 1
вмест@@ 1
ic@@ 0.1191256423782672
кило@@ 1
Пар@@ 1
дипло@@ 1
Гер@@ 1
треб@@ 1
любо@@ 1
зда@@ 1
пробле@@ 1
слав 1
0@@ 0.6981309555520562
тво@@ 1
отли@@ 1
меж@@ 1
нала 1
стату@@ 1
n@@ 0.05249400053973483
пли@@ 1
фер@@ 1
ъ 1
Испа@@ 1
Пор@@ 1
нан@@ 1
Амери@@ 1
европей@@ 1
различ@@ 1
сан@@ 1
Б 1
филосо@@ 1
Тре@@ 1
риа@@ 1
евре@@ 1
фли@@ 1
като@@ 1
реда@@ 1
полк 1
оло@@ 1
праз@@ 1
s@@ 0.03376340817172061
1912 1
разработ@@ 1
со 1
против@@ 1
кам@@ 1
комплек@@ 1
направ@@ 1
ду 1
степен@@ 1
творче@@ 1
квар@@ 1
миче@@ 1
32 1
фри@@ 1
преде@@ 1
Джо@@ 1
Великобрита@@ 1
образование 1
импера@@ 1
предо@@ 1
Роб@@ 1
компа@@ 1
лено 1
Сре@@ 1
бор 1
тол@@ 1
испан@@ 1
1991 0.9888144538013143
настоя@@ 1
on 0.02778204366274311
медици@@ 1
y 0.0212049301328726
сериа@@ 1
пон@@ 1
вдо@@ 1
o@@ 0.07357196717935603
разру@@ 1
плат@@ 1
,@@ 0.9617637193863074
Нор@@ 1
каче@@ 1
1945 1
Влади@@ 1
ана 1
c@@ 0.051298892667952505
Софи@@ 1
низ@@ 1
Гри@@ 1
получа@@ 1
андар@@ 1
печат@@ 1
Ива@@ 1
a@@ 0.11018295499175502
парла@@ 1
геро@@ 1
Македо@@ 1
ал 1
o 0.055207010587277526
рес@@ 1
бо 1
1999 0.7461638012594504
2018 0.43604409773633235
капита@@ 1
1913 1
анали@@ 1
нии 0.38676756398126544
аб@@ 1
кита@@ 1
Зе@@ 1
СССР 1
Япо@@ 1
Мини@@ 1
+ 1
лаго@@ 1
дву@@ 1
мов 1
действия 1
ль@@ 0.16102799521317007
сите@@ 1
остав@@ 1
удо@@ 1
ил 1
75 1
участи@@ 1
— 0.08954935265464205
занима@@ 1
сов 1
um 0.11570126720423314
of 0.009477625899647896
щето 1
администра@@ 1
концер@@ 1
i@@ 0.07443983652358412
пита@@ 1
необходи@@ 1
сбор@@ 1
Ше@@ 1
фа 1
вил 1
стрел@@ 1
чен@@ 1
= 0.6027523973581638
личе@@ 1
разно@@ 1
Ев@@ 1
ного 0.23592756652637747
зависи@@ 1
маши@@ 1
1992 0.8851930357725548
оцен@@ 1
хот@@ 1
части@@ 1
дет@@ 1
1941 1
ара 1
45 1
1989 1
Николай 1
посред@@ 1
Моск@@ 1
A 0.12152785411656852
зада@@ 1
трен@@ 1
36 1
Администра@@ 1
специали@@ 1
дь@@ 1
яв@@ 1
38 1
on@@ 0.06535507135604701
XIX 1
сек@@ 1
Рабо@@ 1
симво@@ 1
ia 0.11919165815607313
Гла@@ 1
1998 0.7702087554951822
34 1
ства@@ 1
184@@ 0.9305198828339293
Ст@@ 1
укра@@ 1
пода@@ 1
Михаил 1
решение 1
гло@@ 1
устрой@@ 1
37 1
r@@ 0.043527206276350205
Пло@@ 1
19@@ 0.8244434907273533
formula 0.4944648688715614
нет 1
Цент@@ 1
1997 0.8206360434647383
m@@ 0.050633554159033964
замест@@ 1
0,@@ 1
комп@@ 1
М 1
Вол@@ 1
33 1
жо@@ 1
рок 1
! 0.609742748919409
ph@@ 0.12240667623396946
Т 1
or@@ 0.06157270406438736
x 0.1642651789765992
1996 0.8064437812355022
федера@@ 1
Центра@@ 1
постоян@@ 1
убий@@ 1
вле@@ 1
K@@ 0.05895915451157584
циона@@ 1
мени@@ 1
ферен@@ 1
технологи@@ 1
мм 1
1995 0.8307858117159306
500 1
блиоте@@ 1
сии 1
жур@@ 1
Ги@@ 1
ново@@ 1
1994 0.8295266700363205
фрон@@ 1
b@@ 0.04994851634715852
транспор@@ 1
сра@@ 1
Ch@@ 0.11144896740885225
течение 1
1980 0.8732301703270261
казате@@ 1
гру@@ 1
компания 1
меха@@ 1
душ@@ 1
стран@@ 1
имо@@ 1
er 0.021211154315203862
варя 1
вършва 1
тие 1
t 0.030321508371986043
­ 1
in@@ 0.03979175699371831
1,@@ 0.6334920165173402
проти@@ 1
недо@@ 1
Авто@@ 1
mm 1
вз@@ 1
предло@@ 1
евро@@ 1
фу@@ 1
мину@@ 1
нато@@ 1
тически 1
горо@@ 1
de 0.006105226094168869
180@@ 1
бле@@ 1
1993 0.8273187785619376
сни@@ 1
ката@@ 1
U@@ 0.12306037062767088
g@@ 0.04204850668186004
кономиче@@ 1
рю@@ 1
179@@ 1
d@@ 0.04263890812900158
t@@ 0.037595142294627015
против 1
Международ@@ 1
рон@@ 1
селе@@ 1
d 0.04969209043216457
мощ@@ 1
20@@ 0.5427968659259562
2019 0.3852857643616572
39 1
ac@@ 0.053798340923336595
жав@@ 1
Под@@ 1
мин 1
2,@@ 0.7894466168730028
S 0.3220723316261272
художе@@ 1
можно 1
Но 1
техниче@@ 1
нер@@ 1
села 1
ti@@ 0.07487518403744699
1943 1
чин 1
65 1
образо@@ 1
Ак@@ 1
1878 1
55 1
гат@@ 1
кой 0.7590005074203516
вало 1
клуб 1
лова 1
дебю@@ 1
мана 1
гене@@ 1
цеп@@ 1
заво@@ 1
пера@@ 1
Спи@@ 1
меда@@ 1
тора 1
1970 0.8733842760272739
Г 1
кин 1
рас@@ 0.5901601730269154
br 1
1900 1
шу@@ 1
Андре@@ 1
el@@ 0.05941260781301856
простран@@ 1
убе@@ 1
тем@@ 1
план@@ 1
щение 1
веро@@ 1
мир@@ 1
ch@@ 0.042149756596928545
th@@ 0.0631699512466179
1918 1
тов 0.7123392523789049
er@@ 0.036990550553868254
бур@@ 1
пря@@ 1
сь@@ 1
пад@@ 1
the 0.004269640065446832
зов 1
обре@@ 1
Алек@@ 1
мя 1
пора@@ 1
J@@ 0.0748327131939645
пример 1
спек@@ 1
кораб@@ 1
al@@ 0.044430601298589625
Вла@@ 1
най@@ 1
1960 0.9358230149910417
инжен@@ 1
принадле@@ 1
корпу@@ 1
дат@@ 1
У 1
мери@@ 1
наб@@ 1
организа@@ 1
канди@@ 1
административ@@ 1
85 1
окръ@@ 1
1940 1
ть@@ 1
лите@@ 1
сезона 1
ств@@ 1
cm 1
en@@ 0.03473062997164566
мона@@ 1
ълга@@ 1
1942 1
чения 1
мл@@ 1
-@@ 0.5816124850180644
om@@ 0.10111283594722136
провин@@ 1
et 0.02268475618962794
бло@@ 1
зе 1
заве@@ 1
рова@@ 0.580433120125378
сем@@ 1
гер@@ 1
2020 0.3630945072559429
бира@@ 1
76 1
боле@@ 1
форма@@ 1
in 0.006682004579647017
гръ@@ 1
l 0.06296671026399313
ул 1
мпи@@ 1
шин@@ 1
зави@@ 1
дом 1
ници@@ 1
es 0.0164638342468468
права 1
1986 0.8735596022476472
ur@@ 0.06037657727241705
ot@@ 0.08163655585887582
300 1
числе@@ 1
42 1
48 1
ing 0.017965729273532707
жд@@ 1
1988 0.7979490146421038
Глав@@ 1
века 1
попу@@ 1
пас@@ 1
1950 0.9432455591780993
коро@@ 1
ке 0.3578134869964166
Север@@ 1
an@@ 0.04595597353017483
изве@@ 1
... 0.6755774189171163
1934 1
области 0.9291078035025518
1905 1
визи@@ 1
сон 1
56 1
уда@@ 1
литератур@@ 1
f@@ 0.031727187305601944
64 1
ar@@ 0.03967464994824229
Х 1
рой 1
поме@@ 1
вро@@ 1
L 0.24206832100989775
жет 1
лимпи@@ 1
41 1
.. 1
срещ@@ 1
рения 1
ева 1
44 1
еписко@@ 1
мене@@ 1
72 1
автомоби@@ 1
хан@@ 1
54 1
меди@@ 1
версите@@ 1
рев@@ 1
стов 1
68 1
сч@@ 1
43 1
писи 1
k@@ 0.03999974680029609
1985 0.8325656387107873
разме@@ 1
52 1
1920 1
47 1
бург@@ 1
1987 0.801729433244122
склю@@ 1
Население 1
63 1
25@@ 0.5731645058233908
ul@@ 0.06382007742925551
.е. 1
T 0.2753199923731646
1984 0.8159420552863522
D 0.23950359816090863
88 1
F 0.30675596378078795
li@@ 0.062114080232822416
1939 1
пе 1
51 1
1981 0.8706048325572991
XX 1
1968 0.9067638296944583
v@@ 0.040876161017172064
53 1
95 1
населе@@ 1
86 1
M 0.27913944299289095
62 1
ряд@@ 1
яр@@ 1
Миха@@ 1
1974 0.8954791678400935
ol@@ 0.0656756939708851
из 0.19047874046431967
B 0.24932460525930314
P 0.24003687338901564
66 1
1979 0.8561062170255499
67 1
как 0.32436451611576494
вание 1
os@@ 0.0899968627889679
78 1
орга@@ 1
1978 0.880295402722213
1948 1
3,@@ 0.8122491636583199
VI 1
І@@ 1
1971 0.8901285715062353
82 1
типа 1
ляр@@ 1
58 1
1928 1
1982 0.8220388247193813
59 1
1976 0.8623366873575761
харак@@ 1
вклю@@ 1
1946 1
Сер@@ 1
сам 1
лага@@ 1
46 1
1972 0.8200293638725052
57 1
69 1
момент 1
l@@ 0.03429452575154824
брига@@ 1
am@@ 0.05641462740086129
1930 1
сим@@ 1
университета 1
полож@@ 1
84 1
гли 1
ей 0.7841279199935093
смо@@ 1
1975 0.7933131221855331
рез@@ 1
разв@@ 1
1947 1
61 1
al 0.020160031160639916
77 1
89 1
Исто@@ 1
81 1
зате@@ 1
73 1
71 1
1969 0.8855301267536084
83 1
79 1
n 0.05360888899137566
чели 1
1973 0.837565905902804
1983 0.7756345204831044
ряд 1
g 0.07912418544517247
X 0.5645054940363887
op@@ 0.08485757001602265
1927 1
an 0.01579040971003313
организации 1
1919 1
ителя 1
нови@@ 1
каде@@ 1
74 1
1923 1
1967 0.8786221995956659
87 1
it@@ 0.04529437800016107
зах@@ 1
49 1
мерикан@@ 1
Фри@@ 1
ству@@ 1
at@@ 0.04490757135269484
ro@@ 0.06828770000207052
Кур@@ 1
1962 0.9549567880677338
c 0.05564600114332906
нова@@ 1
N 0.32264047068292767
Ф 1
1966 0.8989568156264683
вну@@ 1
as@@ 0.04520433915119188
ag@@ 0.05334906259253753
подготов@@ 1
дис@@ 1
окон@@ 1
1965 0.8766238794366857
150 1
площа@@ 1
контра@@ 1
бое@@ 1
1977 0.8132413355397651
1959 1
1964 0.8596355955152124
лем 1
1915 1
4,@@ 0.9932541389003721
h@@ 0.02965708936804448
избра@@ 1
ставля@@ 1
1949 0.9890000647224537
et@@ 0.06034970254156869
1938 0.9794374487934655
2021 0.34787879035011343
96 1
.н@@ 1
дии 1
Ад@@ 1
1961 0.9411970557393585
1956 0.9321920316858144
24@@ 0.6746746910543855
1963 0.8963860325934601
98 1
ято 1
1000 1
ensis 1
1958 0.9307332009627267
oc@@ 0.0832949652652953
ски@@ 1
92 1
генера@@ 1
1936 1
x@@ 0.0875865981676977
dae 1
05 1
1924 1
93 1
свой 1
уз@@ 1
400 1
k 0.0503244499758652
Юж@@ 1
лу 1
? 0.6960763996935392
год@@ 1
1926 1
нару@@ 1
Z@@ 0.06981825255525437
нам 1
and 0.005623946896027705
отноше@@ 1
1903 1
Е 1
99 1
06 1
роди@@ 1
04 1
ine 0.06131624271115655
бат@@ 1
изобра@@ 1
гон@@ 1
поз@@ 1
дъщер@@ 1
зон 1
la 0.007999335850363117
le@@ 0.03859568525677388
кнове@@ 1
моби@@ 1
ae 0.5454181868633323
1935 1
реки 1
1952 0.9485656985282722
26@@ 0.7337943328437961
1929 1
O 0.2302054901962579
свои 1
1914 1
чие 1
An@@ 0.0756925606687279
ѐ@@ 1
1925 1
1921 1
tr@@ 0.03247446262724852
j@@ 0.04813364587804274
28@@ 0.7782182051297727
насти@@ 1
E 0.21730330092598288
пру@@ 1
id@@ 0.06354113381014094
em@@ 0.052444462452963615
1908 1
97 1
1922 1
01 1
u@@ 0.0483741522422965
сов@@ 1
епи@@ 1
94 1
1951 1
бай@@ 1
08 1
od@@ 0.12952128262576837
p 0.07898395921736716
h 0.06690329954772306
1953 0.9498018531869292
30@@ 0.636024953452045
1877 1
1933 0.9293359950517344
il@@ 0.05386789291232713
5,@@ 0.8332653173267341
после 0.5409336213359323
том@@ 1
1957 0.8878186078960467
St@@ 0.07739126592322235
1937 0.9397395582325648
In@@ 0.07902627501071813
1904 1
колко 1
І 1
перио@@ 1
1917 1
ap@@ 0.052738677167711155
z@@ 0.034707274799606294
фран@@ 1
VII 1
тога@@ 1
09 1
дов 0.6243079453347066
91 1
02 1
Петер@@ 1
тече@@ 1
ним 0.9108952985834669
гласно 1
тил 1
27@@ 0.7435698213964947
1954 0.8733425683938175
ѝ@@ 1
07 1
сиг@@ 1
Все@@ 1
03 1
гов 1
’ 0.04990176980072811
дете@@ 1
1932 1
вши@@ 0.5738500532036757
ad@@ 0.0319913455037463
atus 1
lo@@ 0.06018807541232086
1910 1
щер@@ 1
is@@ 0.0397907028607482
km@@ 1
ata 0.30002601937665585
1955 0.8543090696457784
amp 0.15413211772145144
дек@@ 1
зиден@@ 1
счита@@ 1
R 0.19350051747392677
Спо@@ 1
количество 1
qu@@ 0.04384679240257348
im@@ 0.03478890367023819
Никола@@ 1
en 0.0060554905571778795
бва 1
G 0.28583425720221756
импе@@ 1
La 0.05398231435188182
волю@@ 1
1931 1
строй@@ 1
тря@@ 1
Олимпи@@ 1
W 0.43767278575717344
600 1
st@@ 0.022775051303062562
Ъ@@ 1
рито@@ 1
w@@ 0.023651657480597645
1916 1
Th@@ 0.07844340303342952
ография 1
университе@@ 1
do@@ 0.09756761037923994
лев@@ 1
1906 1
Бело@@ 1
рус@@ 0.6753003215109176
сли 1
to 0.006319724719071994
гии 1
ографи@@ 1
or 0.022269965919681677
ют 0.2586499464353858
Л 1
co@@ 0.0515671566487387
6,@@ 0.896115566972187
29@@ 0.6993534536178043
u 0.05592929858700879
av@@ 0.05112975695003981
санд@@ 1
количе@@ 1
1911 1
7,@@ 0.9020402636770516
124@@ 1
1902 1
кой@@ 1
относ@@ 1
губер@@ 1
лей 0.5428621789874335
1907 1
ждение 1
un@@ 0.029055175524334734
es@@ 0.038037209401115636
вне@@ 1
ation 0.017851293600508807
ter@@ 0.046892887354279995
1909 1
ta 0.09339152571039766
z 0.055823445390101194
el 0.0105756949631197
120 1
Al@@ 0.05236932678937471
Con@@ 0.07602534740698144
at 0.015749402683676247
чил 1
Кро@@ 1
ника@@ 1
лок 1
Ar@@ 0.06662303594593752
щения 1
ep@@ 0.08662640390688019
доро@@ 0.6383638371866683
ig@@ 0.043985285839274274
1885 1
ство@@ 0.5588832197036517
нологи@@ 1
1873 1
ar 0.025832675955835233
ec@@ 0.046276241977780026
sa 0.10387422038490846
Ц 1
le 0.011833292796788358
ковод@@ 1
пос@@ 1
наи@@ 1
&#124; 0.4096454339716241
ге 0.5048016612484841
рез 1
di@@ 0.02898941937200369
ed 0.0067258507536999915
партии 1
as 0.009730724335756722
ri@@ 0.06014343518566405
250 1
компании 1
води@@ 1
закон@@ 1
1901 1
I. 0.7614004549771097
800 1
жил 1
соб@@ 0.4176095208093572
ави@@ 1
ir@@ 0.057016626972871416
нович 1
оба@@ 1
bi@@ 0.06472914049247498
ati@@ 0.07701828547915142
Y@@ 0.07201217407722886
1.@@ 0.2683224428279761
кино@@ 1
po@@ 0.04517992233362053
Tr@@ 0.06836750759101644
тон@@ 1
os 0.025587785953842694
TV 0.3254468105647324
ней 0.6389393810141428
аль@@ 0.20845685344571158
начи@@ 1
é@@ 0.028954184422605618
З 1
авиа@@ 1
ina 0.09665271182635392
1895 1
оте@@ 1
кви 1
H 0.29000640175808
1896 1
ку 0.22774467594529405
вобо@@ 1
вер 1
Mac@@ 0.3966886904328037
щен@@ 0.8914184378706612
ab@@ 0.028756593981497953
тий 1
og@@ 0.09085163702921929
8,@@ 0.8387527502831075
желез@@ 1
1899 1
f 0.05748161654605504
Ново@@ 1
ством 0.689013297034455
меня@@ 1
$ 0.18944022139838593
Bo@@ 0.09364864732680772
1876 1
ря 0.8126349196199069
лод@@ 0.997744830040874
лии 1
120@@ 1
1894 1
ot 0.17030067282530328
Br@@ 0.06378881006543785
нк@@ 1
так 0.526222071865441
ter 0.029007200398040688
IX 1
ay 0.0669006510313469
700 1
XVIII 1
ana 0.07809753573548686
b 0.08231235335956238
сня@@ 1
кру@@ 0.9956226300846682
2.@@ 0.2705602477170448
9,@@ 0.8751336233943415
Car@@ 0.08569498802120999
1880 1
1898 1
no@@ 0.09233396082420157
1897 1
us@@ 0.031715204994591205
Москов@@ 1
re@@ 0.010419613864112788
11@@ 1
” 0.1366677575530592
шен@@ 0.8220718821059629
XVI 1
коман@@ 0.4796581688831729
ys 0.4039290956737513
други@@ 1
ica 0.0807894854848177
1890 1
one 0.030398882023963236
1500 1
Ph@@ 0.14245659900014426
ники 0.5737484491782514
ut@@ 0.04581760141019415
w 0.045135083584245624
1879 1
1891 1
ea 0.1728840073695645
Co@@ 0.07263780306650171
́ 0.27435206787474553
kg 1
Ита@@ 1
архите@@ 1
ждения 0.8760761065738315
Com@@ 0.06270248602993188
per@@ 0.03407776477257835
пере@@ 0.1167608182717722
арх@@ 1
1870 1
воз@@ 0.18774602748418376
De@@ 0.08016619733762125
евич 0.6624672443357941
r 0.07489671413999403
Ac@@ 0.1367379758633318
Par@@ 0.07073244297972425
ent@@ 0.022123063836258516
180 1
XV@@ 1
ci@@ 0.048427197021512804
to@@ 0.04493399262556693
Pop@@ 0.6485881587896705
ov@@ 0.08607998255947999
пр@@ 1
1893 1
вез@@ 1
yl@@ 0.1984904539682241
1889 1
ach@@ 0.03960698401621918
br@@ 0.03417290298804267
1892 1
Mar@@ 0.04210552029347915
1886 1
C. 0.4307817372458615
pr@@ 0.03853225772623308
U 0.1594382401364433
лиш@@ 0.9336410765264339
Re@@ 0.04627157830676125
Sp@@ 0.0885741611598247
1881 1
K 0.21545813330293126
ту 0.435997571214126
all@@ 0.05448461948547683
ré@@ 0.04274382175870747
Серге@@ 1
седате@@ 1
1,5 1
1884 1
ed@@ 0.03513011761077459
eg@@ 0.036674797153410925
1883 1
de@@ 0.02943241986987301
enne 0.16291075447861325
di 0.17884245013970984
француз@@ 1
3000 1
ad 0.04261520687718033
au@@ 0.032509514862067476
армии 0.9637068883801435
00@@ 0.4851786345990851
am 0.02997235203158212
станции 1
ром 0.18162096135030142
ob@@ 0.05267847808867147
Windows 1
1860 1
ari@@ 0.08580333955956097
na 0.09017310569779775
ulation 0.5437434441456838
ve 0.021007624206850387
Cr@@ 0.14776285757871183
мии 0.5916673127604068
oph@@ 0.1775846553502634
дей 1
Од@@ 1
160 1
um@@ 0.03168769434803799
1888 1
писал 0.9936123178124477
получи@@ 0.7336403413856869
alis 1
Am@@ 0.08661773343824743
Le@@ 0.058303772088375366
назва@@ 0.5670333704808168
Федера@@ 1
цу 0.8925779628455137
зя@@ 1
Ex@@ 0.09406933613799406
шел 1
ch 0.04269283549036363
1848 1
ктора 1
vi@@ 0.030345846640705502
находи@@ 0.9410425386539554
si@@ 0.02598350357089363
1882 1
Mo@@ 0.0822459876056728
gr@@ 0.03138992846081979
az@@ 0.06899405340604708
1871 1
1887 1
жиз@@ 1
хер@@ 1
hi@@ 0.05361863223659924
par@@ 0.02659467321792646
зии 0.9543955841247713
He@@ 0.08432916340747248
Гър@@ 1
1875 1
ver@@ 0.0167262791479944
ni@@ 0.047353448883130055
• 1
1872 1
da 0.046973644979385526
ru@@ 0.06381753438055049
3.@@ 0.2586790625130919
US@@ 0.34431971271593675
название 0.8413930371803964
наход@@ 1
лах 1
сков@@ 1
реб@@ 0.7996241054475424
миро@@ 0.7900651497636649
it 0.012639422188992227
140 1
World 0.09744522189946599
ников 0.31662153079951627
школ@@ 0.8530089687515855
ру 0.7108198972133639
You 0.4157762352456569
ate 0.022132330944419264
ном 0.07953236728655333
130 1
ell@@ 0.04915159969995403
оне 1
ight 0.06162947492755845
Сою@@ 1
Hy@@ 0.32778046373749925
дея@@ 1
Pr@@ 0.06446277205392462
uc@@ 0.07343790038576353
ers 0.014977318416652848
Sh@@ 0.06585811003602952
лосо@@ 1
вой 0.12642513293662183
бу 0.8341548455230001
Col@@ 0.08408824081078822
te 0.011628441649468323
aceae 0.4995822431046729
1869 1
WWE 1
‰ 1
1867 1
1864 1
car@@ 0.04658639196592081
IS@@ 0.40206550002825964
pi@@ 0.045948505467011944
храни@@ 0.8648133996930486
110 1
900 1
Ma@@ 0.08887789476844066
XX@@ 1
Mon@@ 0.06868259851474133
ber@@ 0.04491507240250982
yr@@ 0.13445603391802838
ходи@@ 0.3917974389076156
Po@@ 0.09859138678895993
Di@@ 0.056618443134403236
лом 0.3720658560338773
ie 0.02147149430233402
ich@@ 0.05524106276464014
Bar@@ 0.08044574530470787
раз 0.8130097743880979
хоро@@ 0.6788465142963496
су 1
Ю 1
se 0.009818164551069677
der 0.0042767931014263075
1874 1
ho@@ 0.0319591191989991
ѫ@@ 1
1868 1
ху 1
ella 0.19782026333290348
ak@@ 0.028450970513081403
1866 0.8779521651561926
pl@@ 0.023724768800106644
1861 0.9749863730413524
est@@ 0.027431365239804897
место 0.506157939135029
mo@@ 0.03723359699965007
J 0.3128567408995753
Records 0.31764284979039537
ath@@ 0.056705879239514735
Or@@ 0.05837106470336769
ври 1
ale 0.02850882267093341
Дим@@ 1
ens 0.0434843632483261
que 0.007382774644466784
350 1
истории 0.7678861519131867
Ne@@ 0.07458602943173007
птем@@ 1
цев 0.38456155158145
age 0.01827680333079556
tri@@ 0.03996329269111125
tu@@ 0.07022952833308396
1863 0.9713407839330864
готов@@ 1
OS 0.5654100897610128
bo@@ 0.04129337914964481
ent 0.011950327653214196
1850 0.9632601169730304
str@@ 0.04028271316658946
Str@@ 0.09103430500990292
For@@ 0.06596074671335526
нах 0.6972682033033765
1865 0.9357626377442144
его 0.08634934204760973
1830 1
eb@@ 0.03292859180613462
for 0.0072109429262422866
se@@ 0.02014563808835971
Так@@ 1
Крас@@ 0.5453953670186795
des 0.006177308800463692
1800 1
ran@@ 0.050957792296312004
En@@ 0.06924093339224535
tion 0.01641929985345816
ok@@ 0.0543309121814725
Cor@@ 0.07540495477096489
Be@@ 0.039674841854233624
Love 0.42471430887086686
ang@@ 0.027400186732975975
ti 0.1261406783413267
Q@@ 0.15341344600473683
em 0.08365007809054915
Se@@ 0.053419049541189444
ST@@ 0.7954765713487625
and@@ 0.03197750773906566
сил 0.9158201734348514
ass@@ 0.028982360007799527
Gr@@ 0.04984774930341447
ma 0.07165217835346177
od 0.05478655379415385
Ser@@ 0.07475660021945096
DVD 0.6325754838640213
шли 0.670448300586452
re 0.02437431378947761
gi@@ 0.04077748862830637
tic@@ 0.07600969496963564
2022 0.32369898896209975
ore 0.07525379852890564
mar@@ 0.031190127364546832
… 0.28280051389572547
Un@@ 0.07530429456258557
1862 0.8852843556744048
ic 0.030791007789575203
Qu@@ 0.057622848374941034
Ad@@ 0.05371133269883734
ell 0.061013488591962636
ѣ@@ 1
hy@@ 0.13930611610337276
est 0.007786368651420222
# 0.31260448575645267
ing@@ 0.039994471907757366
Укра@@ 0.44509683157182456
Go@@ 0.12973229554147686
sp@@ 0.02962188160463945
ou@@ 0.036337212210400156
ra 0.053552862180460174
получил 0.4675308977436555
MS 0.4334583644856524
ist@@ 0.039626153722121304
сть@@ 0.8491284497733667
are 0.014032558092044343
ides 0.1528413308837185
ce 0.021539282113430983
ССР 0.8236319178657392
дли@@ 0.7564880081976819
anus 0.8863316657155836
23@@ 0.42955197809939777
all 0.02480046726474272
Cal@@ 0.15903876065940845
ne@@ 0.027117176508585413
среди 0.5299629764790548
Велико@@ 1
TC 0.7192323906475063
af@@ 0.026653450284325145
un 0.007175399647406503
Cl@@ 0.11149658624919992
ill@@ 0.042008539634194944
ev@@ 0.025809270286298924
Per@@ 0.06316091430794005
ace 0.05989006443918192
end@@ 0.027285766375330464
ma@@ 0.03414977984667749
id 0.05940931154288815
ice 0.03900368489784497
Ro@@ 0.05334997292729606
4.@@ 0.24870062538496063
bus 0.3294677457322248
lu@@ 0.05636217588400633
por@@ 0.050055393636901535
Cy@@ 0.34776428119508807
ili@@ 0.05239723216381586
Pl@@ 0.06828698558536736
dice 0.4392101121160787
ex@@ 0.01546985358602705
Fo@@ 0.11138102538263667
ca 0.07845264076057097
101 1
Pe@@ 0.08770692055531697
³ 1
ну 0.41307863685247115
era 0.03573784576051067
pe@@ 0.04560271424125325
Google 1
cus 0.4705278212328941
Me 0.44904615207514936
cor@@ 0.037313191389615114
дека@@ 1
Te@@ 0.09787081550703063
New 0.037026528820838574
yc@@ 0.15626237707748056
con@@ 0.015207947084591864
th 0.018703480312148246
0.@@ 0.14437969809455498
man@@ 0.027826897556136033
oma 0.199687477678195
ance 0.0261276716496569
yp@@ 0.09931579097154292
com@@ 0.02106461792920429
eph@@ 0.5404693417554838
iz@@ 0.03381814953260524
sch@@ 0.015493008662052502
Microsoft 0.8806999814413068
Рос@@ 1
чат@@ 1
Бълга@@ 1
ard 0.02945446735337986
гу 0.262639882835576
so@@ 0.027183587816677287
ким 0.39153199941059175
und 0.004188341502339902
inc@@ 0.03786839168469765
× 0.5076787374898882
Ш 1
ps 0.060964993422573895
5.@@ 0.23089416460943743
Music 0.17702451597161328
ons 0.02179190818860981
za 0.08089595134547078
My@@ 0.3204033729181379
inus 0.9884053891925523
{ 0.5698467004352972
12,@@ 1
ue 0.027074822899681793
und@@ 0.03172509335082794
Can@@ 0.1421670066359663
і@@ 1
Li@@ 0.06287111980162438
iv@@ 0.039649855136470895
том 0.08471005145334126
can@@ 0.06472152996852862
lin@@ 0.039426038683992796
CD 0.29380324691187976
aur@@ 0.11807115319473957
our 0.048077535954027396
CO@@ 0.33877495212389847
ura 0.13098217286192362
v 0.05867067015954113
il 0.013401537269845975
te@@ 0.02201434208331801
Pro@@ 0.07122129403038732
gen@@ 0.024371607116910915
ge 0.021862757683682146
Mus@@ 0.08096532147357412
sh@@ 0.022787250530862772
ος 0.14656300036006295
Sc@@ 0.24743182461395877
ay@@ 0.03343897423778487
ans 0.02343872422792824
AS@@ 0.2030521025955525
ai 0.0646237109416034
ner 0.03274048122102066
RA@@ 0.3156737575391299
amb@@ 0.04992170778234755
мая 0.2789864169034026
Lo@@ 0.08505645976495652
ok 0.1011600947750362
После 0.19208951914351918
rom@@ 0.09776304308515862
In 0.008692882888604375
сезо@@ 0.7527204723338814
My 0.3674943184163993
As@@ 0.05731953046680628
Bl@@ 0.09347048719289776
Pol@@ 0.049406865003107876
eus 0.784257115837346
тта 1
No@@ 0.11844439099580954
ский 0.0387977978020888
Wh@@ 0.09811870975270134
la@@ 0.03396654784719505
TA 0.4685219385562292
War@@ 0.14770415000446058
кий 0.29752837484540257
Mag@@ 0.09860074357209896
ly 0.012505662841397237
необ@@ 1
− 0.49251110517842056
AR@@ 0.2456308614983638
Z 0.276997745525975
Man@@ 0.04464748164341589
ali@@ 0.04094755583751095
10,@@ 0.9154914765105411
So@@ 0.06327404799521104
ol 0.05849870063998381
lar@@ 0.04906541888855858
ког@@ 1
Y 0.23571312178483395
ra@@ 0.02731655623002562
anc@@ 0.03721114857139184
атов 0.6042346680687004
oth@@ 0.10393929193046901
act@@ 0.22176425899389457
eri 0.28399397103000606
рая 1
ys@@ 0.06832942350506829
AT@@ 0.24510249197207157
ik@@ 0.03603943538327066
ная 0.049262129615745796
осу@@ 0.33506976059101945
dro@@ 0.09068715710354332
Ag@@ 0.14368751878430705
mac@@ 0.3913709477135023
BC 0.18188966170642376
io 0.06051495169890693
ff@@ 0.03064705191493093
исто@@ 0.5421471254762569
tor@@ 0.042344053503052405
ne 0.017234818754143223
Ty@@ 0.1906692594874641
ava 0.279405797596084
​ 1
6.@@ 0.23233248292930667
bl@@ 0.03050932857507206
International 0.09808297348672945
int 0.20633413593140185
7.@@ 0.23793275888807885
tes 0.03143652640831696
птември 1
Pic@@ 0.3060586794831846
9.@@ 0.2899382689109065
per 0.05519978420661206
prin@@ 0.14259964599940497
Tur@@ 0.07236579116687329
osa 0.1443878192594874
α 0.13076120072623512
Ж 1
los@@ 0.13053780961561748
der@@ 0.02192345969533374
Live 0.4048741937855605
ling 0.10226674185233385
j 0.1574969357755416
Dr@@ 0.09616874108961683
стоян@@ 1
ops 0.1578304645697538
Sch@@ 0.016499235077530854
ce@@ 0.06830261366188495
Net@@ 0.25185548605320557
ence 0.018284564413608175
ями 0.26579218085273565
Ab@@ 0.03310122302026003
El@@ 0.046676778474990174
Ver@@ 0.017496167099445542
ant@@ 0.03132970490342813
ka 0.06254954639335261
ся 0.19848801079915007
Her@@ 0.04119318537955159
hin@@ 0.07975494039103762
ская 0.06536036210430303
11,@@ 0.8601179867602146
програм@@ 0.4624566462189625
ym@@ 0.07604053549806256
Tour 0.18886965432369054
Gu@@ 0.04230710960416165
if@@ 0.03631905961378243
su@@ 0.017035260983948603
do 0.029670767860864408
Vi@@ 0.0853282188567194
did@@ 0.24593536210924588
ena 0.07143688381296427
mag@@ 0.06988855067375474
Lin@@ 0.1270537338760075
cr@@ 0.028430107858344114
rec@@ 0.025498179173998627
80@@ 0.7719324884463599
Fr@@ 0.05239275838443075
son 0.010251495950382574
ard@@ 0.040431943642134226
ten@@ 0.022585370042987093
mon@@ 0.020881303099925988
We@@ 0.05681694701345078
ion 0.03232448124037576
é 0.007878653218371149
вос@@ 0.21941431391190616
Fac@@ 0.21961818970349414
Hol@@ 0.06235922237771546
8.@@ 0.24139461862274775
ack@@ 0.04798940843144396
mi@@ 0.03355699113156307
gar@@ 0.06836649858277498
ity 0.02081019377556084
del 0.008710560295652377
One 0.10905840164048208
ax 0.4501559508593667
ora 0.08654188255123133
дето 1
ον 0.834815021025016
ars 0.058659437192882254
Fre@@ 0.047982342036181014
ant 0.010391474505365478
ts 0.011320620275156127
ug@@ 0.04463858234984138
Pi@@ 0.11072308158543008
ii 0.7279792122079962
гим@@ 1
be@@ 0.01203358375192409
ite 0.01766789649801908
anth@@ 0.23177616513580868
Si@@ 0.0656958833640805
ile 0.027659218597265275
стал 0.16005941443582367
.com 0.4775596380133417
ini 0.07167967796372743
публики 0.43051270038263983
rest@@ 0.08889749066269194
ae@@ 0.27695931209384966
ha 0.05791241242661803
AC 0.2916329475706706
Me@@ 0.04748360829046553
ver 0.03279642192023748
den 0.005526571717099661
Α@@ 0.16404162199806535
ula 0.40094040896830924
min@@ 0.021781973922604517
ola 0.1307912841665413
ni 0.09464455744290233
To@@ 0.06685841741947783
All 0.09890411067635155
ann@@ 0.027981899842921737
App@@ 0.3237521613119697
man 0.022349277322494983
Ap@@ 0.1642092173022709
fl@@ 0.02940327907442619
франц@@ 1
V. 0.29378955416614577
du@@ 0.037798674256506654
Mor@@ 0.05231863164195454
Life 0.2104479789514039
ast 0.03770280465089582
ros@@ 0.10102743544237311
It 0.016714906531783535
eo 0.0777675052057153
ect 0.03521548664036845
CA@@ 0.13440930942624563
ser@@ 0.031444817992471896
Bul@@ 0.14469760182603597
work 0.03663371286298168
Ge@@ 0.03689104789790807
Group 0.14720935453142883
vir@@ 0.1144425937349248
Sol@@ 0.09832566119021041
cul@@ 0.03730551438773351
Σ@@ 0.11894318846981543
lan@@ 0.04711026876469198
ty 0.028333954418681397
yn@@ 0.08576855318382903
we@@ 0.017435471995922432
tus 0.5078636997135006
Billboard 0.32720847677807197
ame 0.06735922190425504
ib@@ 0.03855583247627521
nis 0.1277438673178312
si 0.08576634263633408
ь 0.04143363411755698
Les 0.03437883937661094
col@@ 0.025986902610502103
Mer@@ 0.08413235385123843
sti@@ 0.050433682599639804
cu@@ 0.025344876405286466
At@@ 0.08507205596406123
WW@@ 0.9904249176871832
ek@@ 0.024136894414440564
orum 0.7455649692045508
Black 0.17455058826335534
ary 0.017558762658909755
co 0.036968293818986926
Tri@@ 0.08769737913846269
СР 0.9726339809992821
tra 0.11613145470910834
ain 0.03110240397744303
нем 0.3689763032005944
º 0.4750395178179374
les 0.005199216302993779
à 0.004509820253248511
ous 0.02133944409520647
ire 0.029080014362904156
SS 0.2668220760477106
Κ@@ 0.13931339636754006
me 0.023855426257824983
yth@@ 0.21417973706554172
tis 0.21459602093143842
ure 0.022763287439315487
Wor@@ 0.10275021724620757
ks 0.023709451280832555
ist 0.007478783415613307
oni@@ 0.07931139585704063
друго@@ 0.44593906919674975
Sy@@ 0.08669530061377713
tel@@ 0.04629289060975397
Rock 0.2488684945256118
ess@@ 0.02768346321306547
Do@@ 0.1160273769506056
ory 0.030789390797289297
RO@@ 0.48377941922259815
Sci@@ 0.1218883324491797
tor 0.030190791248859577
ске 0.41705490667773665
be 0.010097386556700746
ei 0.11786147963879604
Tro@@ 0.13186449581594287
son@@ 0.054938931453452904
ack 0.044845381622561985
eli@@ 0.10105444380959105
ere 0.03858182976166397
ah@@ 0.024122621206507294
Ca@@ 0.2634602619290272
enti@@ 0.024304495971751428
ess 0.023755998649189307
ta@@ 0.029820868571870267
стали 0.4292404220092737
Dre@@ 0.12415710195455597
Роди@@ 0.44692762193486085
dia 0.1321245762348438
om 0.055729714329070736
40@@ 0.5160906478475158
Fe@@ 0.14009090452261963
Ho@@ 0.0703835778148062
ком 0.12198318765952748
ax@@ 0.07513868322476477
ino 0.04429181195957812
СС@@ 1
Q 0.28829608148633745
Chr@@ 0.08761204332199535
Cer@@ 0.14112191835283655
Char@@ 0.06478355602879221
Fi@@ 0.09942664336820536
no 0.01833770595955332
och@@ 0.21322479277048642
ux 0.062231080104300125
fr@@ 0.02594946575152536
by 0.003964737538458215
Er@@ 0.021399138041338202
EP 0.3065889384681398
á@@ 0.022048695257611498
art 0.031016023986671255
ome 0.047915660559130484
ору@@ 0.20029051816597662
рах 0.36402906576037497
AP@@ 0.3263846475383039
Ο@@ 0.3312101317409603
рован@@ 0.21506747056479833
ari 0.12238351317014151
out 0.021343541940752296
ick@@ 0.0378666718353755
pe 0.033685927369373155
tom@@ 0.06527332165670757
35@@ 0.6406364505506273
igh@@ 0.043829893306633415
Τ@@ 0.18194625174513504
amp@@ 0.04374200593097443
ях 0.1354690293317431
Entertainment 0.3498044841045153
ani 0.09619764440386633
uli@@ 0.26360237259864094
ub@@ 0.051401790663722934
Я 0.6718389237720216
Uni@@ 0.16207224849088633
ator 0.0668185057019591
Bur@@ 0.04937708899043291
ak 0.03893614234254222
Mot@@ 0.10580183368796449
ur 0.02599911638710605
for@@ 0.017752039698496296
Dis@@ 0.10012244329393348
Tel@@ 0.1253060342925296
ba@@ 0.038006509955383086
mel@@ 0.1328715602055418
tro@@ 0.036769816555367846
Fl@@ 0.049041436088870675
ake 0.09270299158353948
int@@ 0.029495264359058613
mer@@ 0.028049071712723705
ong@@ 0.03331917733342915
Gal@@ 0.07980685797252055
ai@@ 0.05490418594294217
he@@ 0.016918943112606857
ala 0.07656375906645786
ton 0.023621664905520343
ost@@ 0.1791129876725533
Le 0.015295775046447267
eng@@ 0.020928108692078423
ya 0.026842775213124965
ES@@ 0.19552809809949262
ef@@ 0.03012982788331443
33@@ 0.7788284460727335
СА@@ 1
Mel@@ 0.10727835941790398
aw@@ 0.027833120047316737
unc@@ 0.050044512295315015
дет 0.4054096220913795
ster@@ 0.06554828146042409
Ang@@ 0.04877077026068799
De 0.06306470854766204
Micro@@ 0.8468351779119256
ain@@ 0.03686920441109942
aria 0.11359422066279666
sc@@ 0.036157894044035736
è@@ 0.033069682048285226
воло@@ 0.3376032426992562
10.@@ 0.3871407411868284
Min@@ 0.041358481656533705
mp@@ 0.08243726082260872
ano 0.028733024996611917
дела@@ 0.2796606244905584
Stu@@ 0.09745850298874208
sol@@ 0.020722564641261626
Ι@@ 0.37349152124571783
No 0.1510140419460772
ler 0.025341725836806425
ut 0.05025512716986362
ow@@ 0.026662593391956934
up@@ 0.040148667617628246
ge@@ 0.016203234211289167
me@@ 0.013755513541447193
IN@@ 0.21303264275979997
Val@@ 0.055852984257004336
50@@ 0.3409760800323712
Company 0.11138123030566116
bu@@ 0.04021064248400698
ι@@ 0.0926722838693422
atr@@ 0.07661586422501104
dr@@ 0.024528331154113407
gu@@ 0.02021701122714027
oni 0.2271267792622292
UN@@ 0.227084433490115
AM@@ 0.30585347357752674
Bi@@ 0.05291643771371506
Op@@ 0.1466011113217947
nch@@ 0.21902105168049446
illa 0.07404509554685741
cin@@ 0.08446623687319231
Su@@ 0.04716509175771703
ly@@ 0.05528811230212043
12.@@ 0.49682626079141984
ori@@ 0.04449334488544027
Μ@@ 0.13120663650844927
ect@@ 0.08990336976842865
ki@@ 0.07271311703940792
Ot@@ 0.11866158109928444
ord@@ 0.03609083339228671
NE@@ 0.40185647824155024
ita 0.05982590172374374
луч@@ 0.24784309799936735
ey 0.04169519413789661
соз@@ 0.37294691668760205
cur@@ 0.03260945322425925
BS 0.25812688465111927
crip@@ 0.0957083741450538
chil@@ 0.11499313871526214
Gir@@ 0.14630399003041786
→ 0.9147522795717028
Bel@@ 0.04577988248775048
Met@@ 0.10760568116928847
School 0.044303001175172906
The@@ 0.04674916848304333
cre@@ 0.020660397496065613
cop@@ 0.089614481483449
Inter@@ 0.05296222913822895
Time 0.26013982038432865
ost 0.03774621719664837
Mas@@ 0.06143214756201188
Em@@ 0.06945607959827392
ens@@ 0.017684868306633728
ius 0.29296123610982544
FI@@ 0.249615882087728
ara 0.0614676082935757
ath 0.08285354603372104
кая 0.327996614365439
Cas@@ 0.06922159021182203
st 0.015860355599240636
ј@@ 1
cap@@ 0.03291180700842269
alb@@ 0.07779354657630402
end 0.018468587782864063
Ч 1
ike 0.079070629274304
public 0.040806783574203455
til@@ 0.04726265242604345
пр.н@@ 1
Res@@ 0.05387753412399
Δ@@ 0.27572287535346013
Mal@@ 0.048417270707273134
Ste@@ 0.04450527707104226
abr@@ 0.12708476810583602
ings 0.023718930918899792
sus 0.03110856823373247
bre@@ 0.03082891229229102
ie@@ 0.026350725556006396
€ 0.5878577444505386
Por@@ 0.07171571658025586
ud@@ 0.037202425834946456
Empire 0.16116182969151452
yg@@ 0.3345400626403701
Wil@@ 0.05639769511321303
ning 0.040330505349351155
à@@ 1
1. 0.055303716534888615
aci@@ 0.03341291025585889
chi@@ 0.06479366653570763
Й 1
ici@@ 0.029638362494482113
Π@@ 0.12148075215194498
Bre@@ 0.07689272537090866
Sal@@ 0.04686656517153947
iss@@ 0.03536921963422047
город 0.25830239788291176
American 0.02731626332362537
ales 0.013247403979858817
ema 0.1118341634471327
sit@@ 0.05784898013818761
Gi@@ 0.05826116295825425
res@@ 0.010776324039085182
Air@@ 0.10381014466997039
Gl@@ 0.0824548859817625
IC@@ 0.22802700208856597
Sec@@ 0.05029945961037548
ref 0.3959129970530846
oh@@ 0.045892042598059395
land 0.015888555324417734
город@@ 0.15737331757557843
wer@@ 0.025120717453742517
вое 0.19325327770925593
Hot 0.2991755523993534
PS 0.26107311214656653
ick 0.03139660772661436
cer@@ 0.026679619021962673
уез@@ 0.29303344774449075
Mark 0.16095923668463993
Ber@@ 0.02938242924596953
Rom@@ 0.06861282630068291
Cre@@ 0.08223304880954156
able 0.012192688972192604
du 0.004625158468730223
Ν@@ 0.14652574944252578
pp@@ 0.03321886964411807
Disney 0.32778500637063274
Studi@@ 0.08825090813734472
ube 0.2496788387994791
μ@@ 0.0810916458175575
IM@@ 0.3571982125905872
del@@ 0.045485740180551563
ics 0.032873772648794285
ello 0.12178428630361644
view 0.0658744798454985
fer@@ 0.019652330866181872
надле@@ 1
ke 0.029499087414160567
бере@@ 0.19996669363568043
SA@@ 0.2423054718930044
ws 0.03054337355177594
You@@ 0.3339935774767294
uf@@ 0.04111810723053952
port 0.024309043262443285
Tor@@ 0.056203045511110675
них 0.09688521489652045
ise 0.018316571016844745
grap@@ 0.07733209597801712
Au@@ 0.048031458314102875
ā@@ 0.11585667455069318
pen@@ 0.04725765911620335
li 0.07351591542679635
rit@@ 0.047540735330095674
ó@@ 0.020961215312674558
tar@@ 0.032646573305878245
eh@@ 0.014910129823932519
Bal@@ 0.06250945557331028
vo@@ 0.026956662127238733
α@@ 0.11704690084742368
Elec@@ 0.146156172689615
Man 0.13829798089309067
ida 0.04427289120130281
′ 1
aus@@ 0.015464249228387373
яну@@ 1
ates 0.0215376968773935
On 0.018589715608513673
метров 0.2680538047557067
anti@@ 0.03947726552517842
ations 0.009505799730261414
cas@@ 0.029428244211602936
ной 0.0128375720820587
Hel@@ 0.10076303230708684
eti@@ 0.06715802686922415
im 0.005320792776438369
bar@@ 0.028375807339788353
the@@ 0.02471587238313718
Times 0.16233470625918595
Die 0.008689844228116193
Har@@ 0.03838856620397793
Sil@@ 0.0795112757079161
che 0.021543889090052105
ep 0.08124115788210472
} 0.3236385708555798
£ 0.21230009068662195
pal@@ 0.0640305403656681
way 0.02016181423932588
PC 0.28336724751279396
Ε@@ 0.161744782063777
Play@@ 0.11704297309921335
tica 0.060390678562100245
ass 0.049006912582917186
ja 0.05118550367604106
ί@@ 0.08894986909514306
pel@@ 0.07211715827762606
β@@ 0.07129747870661003
MP@@ 0.33789333855652587
ama 0.037611915927387336
Not@@ 0.08837694992714638
восто@@ 0.127868511984639
cl@@ 0.02671108099701091
eri@@ 0.10043304749524366
w.@@ 0.6902579161086901
onia 0.10502707759985605
To 0.1288175296266809
Nov@@ 0.1366903199226964
thi@@ 0.09014731765613247
ung@@ 0.03400951588438367
ское 0.061749060997978285
Bro@@ 0.05297106063377045
mat@@ 0.027135366183474677
š@@ 0.13593439483180458
кого 0.14473678023589906
Eur@@ 0.12552320951785584
cal@@ 0.042662001965468106
Ob@@ 0.0836347752903396
Reg@@ 0.02382880763849905
ang 0.024679354054303267
Cap@@ 0.06333292550489387
pos@@ 0.013812376632308688
rich@@ 0.05277969001004142
Ros@@ 0.06435047015761564
ona 0.07070750677276882
Dar@@ 0.06478821547799368
Bor@@ 0.05165579104814169
Leg@@ 0.07977177008323115
bor@@ 0.034488470398532395
ex 0.1467326784965559
CH@@ 0.3086519191576952
On@@ 0.06913404878277142
ind@@ 0.024422566076561132
ium 0.13446694282354468
tel 0.0775309731009808
yi 0.24748724451768309
об 0.27810263442473526
go@@ 0.019336850231725926
AC@@ 0.16844972738060163
Pal@@ 0.04604136671006418
Im@@ 0.06993764803010612
phil@@ 0.3622035107360466
11.@@ 0.39040149211281383
ley 0.024464270594153348
ade 0.02302686161660429
cel@@ 0.05860305304628058
ail@@ 0.02688496437070464
lis 0.14483658449226153
tions 0.011566636536462432
ir 0.01645213212707353
lam@@ 0.0415689566328568
ä@@ 0.010438519980475016
Son@@ 0.09904099893768761
loc@@ 0.025961324092128726
A. 0.08897606447223717
Pas@@ 0.09901200889696479
FC 0.06530114976682631
oll@@ 0.04060278963991062
name 0.027362884776212848
ι 0.12555489668094236
ν 0.17135773221077508
Corpor@@ 0.1715131752008421
`@@ 1
ble 0.03695905690144861
tic 0.033978891377876
Населе@@ 1
SP@@ 0.18342431681978627
aj@@ 0.030043417125599284
ister 0.036848076068627125
ung 0.006084975745361632
Des@@ 0.044602334394645934
mor@@ 0.04272086328906161
BM@@ 0.3246972073640243
ever 0.04729606674793316
ila 0.12125165714951376
ler@@ 0.023198205373716786
Air 0.08682909822463866
arr@@ 0.01809151676470066
lor@@ 0.279418528366017
adi@@ 0.03387867813304816
Chil@@ 0.15371454948522145
System 0.1794043279142195
Χ@@ 0.18732221037791177
her@@ 0.017641034286645048
ky 0.0669224620227527
sk@@ 0.04227346038750996
don@@ 0.06568021071860501
las 0.007793980575102292
ς 0.20836935270282414
Mur@@ 0.08224269369496703
Club 0.05981265071789268
δ@@ 0.07474852671445904
Pres@@ 0.06478222914330785
dio 0.07572322873192286
AN@@ 0.22625350410858378
MA 0.2572594106742424
Blo@@ 0.16714214183060191
ish 0.016033807343607164
Pan@@ 0.08699231444796982
tures 0.06610144307964803
with 0.0027518511634641515
ey@@ 0.048588072676381835
ko@@ 0.06505791185029401
Meg@@ 0.3073769516666426
вше@@ 0.11973629695497189
σ@@ 0.0715191605728098
BBC 0.17884519877134428
Ger@@ 0.02938105677638851
Ur@@ 0.059063363404073574
urn@@ 0.1351119701454431
ast@@ 0.034771774492065505
fin@@ 0.0114877556352825
thr@@ 0.06713335562849451
High 0.07046217682493147
oy@@ 0.03241079013220978
ah 0.041134894927897035
\ 0.4386216129917254
tur@@ 0.015176745510323185
elle 0.010042991773200269
iti@@ 0.0321794151994373
pin@@ 0.1214091918503665
El 0.012243685029896317
Star 0.1356028682143717
NA 0.22766145935451915
Open 0.13709999848589438
new 0.019968775665340804
ER@@ 0.21519750901161416
eter@@ 0.0637459899234546
olo@@ 0.28524181826974443
enn@@ 0.02350599819372303
Gre@@ 0.0382592996139674
Best 0.1090746689343972
Pri@@ 0.055284062660620366
ave 0.03241742378176288
ki 0.05959414546494742
Sof@@ 0.19148676595152905
Tw@@ 0.1862888911647858
va 0.040656144435774914
года 0.010132898935647462
Kr@@ 0.036576170373056466
Wi@@ 0.06204974275894741
ors 0.017288949692145013
Cro@@ 0.0759762346274746
Eu@@ 0.20013510341341967
ine@@ 0.07550574080522258
Awards 0.10379323011909429
DC 0.21802077843971562
Ir@@ 0.037326585202864415
c. 0.25123686316666616
University 0.020739186289164078
low 0.02607300622780058
Lu@@ 0.04216597633507893
Red 0.10602486181919932
Vol@@ 0.07734911382086139
arg@@ 0.04851577601958948
nam@@ 0.026736544831698034
sim@@ 0.041905139662361465
sy@@ 0.04359742216895486
ρι@@ 0.12269121106493702
Il 0.013284210840175717
ve@@ 0.02470356697828407
asi@@ 0.05056253336400756
Win@@ 0.08046296486688313
anz@@ 0.03617589949387055
ek 0.02701446187436534
ical 0.01726819945328532
q@@ 0.09289072704599546
Герма@@ 0.29503883961331007
ven@@ 0.019332650663910794
City 0.03416405645479517
Del@@ 0.06759309791634872
Vo@@ 0.11340524020483302
è 0.5709685639022712
This 0.01863176977704461
entr@@ 0.02417770376858556
ital 0.03787750136396801
ber 0.0489919800089807
dis@@ 0.006986317231415998
pu@@ 0.023040367954074947
sub@@ 0.016326192494691538
Β@@ 0.12653968980804642
Blue 0.173924906338593
Lib@@ 0.1782380497053973
Media 0.17753666838485288
Pin@@ 0.1666762401533196
ense 0.05947066347835751
заня@@ 0.18348646261645113
Ben@@ 0.05467696400373625
2. 0.09229461123790164
Nor@@ 0.019243951887793688
SE@@ 0.16187415850853332
τ@@ 0.06766787561393005
annel 0.11787632851736408
ision 0.039438705982734835
ww@@ 0.5574124467573985
· 0.034623116324229194
Ρ@@ 0.18274357071460687
occ@@ 0.06628826609844662
Syst@@ 0.17835462440248948
ene 0.021276519556437005
ker 0.03121766347746739
tro 0.06880991972452367
включа@@ 0.19802455635591687
val@@ 0.027022990737496665
Rec@@ 0.05766422973598199
ebo@@ 0.221131972464302
phy@@ 0.13874219583332909
National 0.02531375953797711
ima 0.0703400745055168
isti@@ 0.022958850155202177
ry 0.04533450774197407
sin@@ 0.046766276817132156
ment 0.011992843260458047
ou 0.014104127858092863
tw@@ 0.03454077949241031
har@@ 0.03327277326833116
mer 0.0208072814565757
ota 0.061352597016950304
q 0.09702010114909317
ης 0.09607586710768906
Bu@@ 0.050205959612882066
Hor@@ 0.06199278219314067
ater 0.02859446470510447
э@@ 0.012787330163547782
CE@@ 0.1543753438859128
ric@@ 0.06628493347258031
AG 0.21728153638821354
Wal@@ 0.04558111002977705
ez@@ 0.036099161080366905
Produc@@ 0.11684526298061527
ace@@ 0.15968580672413138
ular@@ 0.07292731053925283
Sor@@ 0.17840056065159238
ha@@ 0.040493636505870206
seud@@ 0.2499174515885203
ν@@ 0.07302753558860403
CA 0.1995200189785888
pol@@ 0.027999684615555714
Mat@@ 0.04203208316914309
ase 0.023898479444446934
inn@@ 0.02791118850344418
Bab@@ 0.1507345755522992
Cir@@ 0.1514300926630744
bur@@ 0.030243118674593884
tle 0.0455990945741953
ë@@ 0.1526705365294628
‘ 0.11374144195733246
Plat@@ 0.10482491962539345
` 1
ista 0.031851729444407985
reg@@ 0.014852533878133699
Jo@@ 0.0476376195915313
VI@@ 0.3419297432526246
Ul@@ 0.09497670303345307
amm@@ 0.027789824058940493
own 0.03359606968899077
tim@@ 0.024607839176020534
yan@@ 0.1329588279598425
Λ@@ 0.13733758593025716
едо@@ 1
Camp@@ 0.0784761303359669
Cin@@ 0.19453475137867698
Na@@ 0.15519941133417653
Vir@@ 0.12091390331396669
λ@@ 0.08475751572819741
ου 0.06644499928135547
ное 0.028867296299126384
dic@@ 0.029491662414436133
US 0.03251675967439203
fi@@ 0.014857031863586704
ken 0.02083608100176854
гда 0.10857378069867729
Centr@@ 0.1988920213556963
York 0.025157483268233603
ones 0.021465065290451137
Cu@@ 0.10339321265144283
ada 0.009346315817811809
ual 0.02810966809106047
vic@@ 0.028528615833045064
Kar@@ 0.03493993354316375
ting 0.012943256298443683
шие 0.19645118387617516
SA 0.1731470720362257
other 0.009631938406189568
круп@@ 0.15813569380851092
ide 0.04305843189163644
ng@@ 0.03266750960520994
NGC 0.2626714593434374
ady 0.05773514894943825
lo 0.013369396008789483
Es@@ 0.04367598964744715
Big 0.12386996881999285
Lit@@ 0.08857661519827288
αν@@ 0.06390045839166514
pre@@ 0.013614639591432914
Av@@ 0.08801829281763301
vol@@ 0.018378074663689584
Don 0.1352635648958884
Mir@@ 0.11288034056141158
its 0.005685648351041848
zi 0.17285514776878783
π@@ 0.06480644675902254
200@@ 0.16932748627108143
inter@@ 0.007855600512842273
retur@@ 0.05990466777740958
AS 0.20445622674480846
Oper@@ 0.07666246450547601
au 0.0048100099853057516
η 0.02907342090771876
Gar@@ 0.043441164573464246
č@@ 0.12779450322029562
alm@@ 0.042952618150118714
if 0.04323977127284872
ям 0.10575061054179397
sion 0.016780132917189914
ust 0.06999692274342968
Columb@@ 0.11531383793700581
bul@@ 0.0756206156610273
ή 0.04874285120405999
Ed@@ 0.04039087766524196
ani@@ 0.059826847599554055
bat@@ 0.039727217061673495
sal@@ 0.03801429711919637
ö@@ 0.01434274309977752
als 0.004055081822562551
ός 0.10324551220751732
SS@@ 0.24085306552204355
ero 0.036432031409412945
lia 0.16229069416199768
Eng@@ 0.07725188004601374
ѐ 1
class 0.07180628352765234
tin@@ 0.07729733072011857
Ox@@ 0.12262537450010379
Plan@@ 0.11189277326765855
Roc@@ 0.10410328604532038
ρ@@ 0.07374792368990339
Aut@@ 0.05284910545300831
For 0.043979344698081124
zi@@ 0.02713886945907573
ier@@ 0.022159825921399333
ny@@ 0.1875488866893417
opo@@ 0.25103156226432943
Sw@@ 0.04748291633685575
Cat@@ 0.060622564152726835
Grand 0.05971072339708339
sec@@ 0.014495462235840115
tal@@ 0.046292612866092035
Щ 1
Off@@ 0.055692253704961045
ange 0.03805092213553731
ays 0.03837763673052543
dom@@ 0.04634395256150053
op 0.0369756300309833
tan@@ 0.035328704728022436
ά@@ 0.06391084195656467
Hon@@ 0.06693127612403893
Lim@@ 0.10486785491154259
tho@@ 0.048279532176041424
Prot@@ 0.07580659738577226
Sou@@ 0.04924998648350915
ill 0.03880900197565231
mb@@ 0.04530059690061865
aga 0.10046850349124556
Hi@@ 0.07352982749506053
esc@@ 0.04897126722973602
Day 0.11094525826656113
Du@@ 0.05693541351126641
Ri@@ 0.052504458694698684
sen@@ 0.025678935515760934
San 0.02691250201308127
ip@@ 0.08160851863127136
Cam@@ 0.05473833102215966
Do 0.2599157101613726
ster 0.030379886357607286
Γ@@ 0.17457604570235047
ds 0.022183288913154995
ters 0.019476863693199797
els 0.023140606591572455
kh@@ 0.023768945736879165
pa@@ 0.04044557523701215
Mc@@ 0.02980295282630367
Sub@@ 0.09060583978080762
arch@@ 0.039049884345249794
fer 0.02746578458160936
istr@@ 0.0591819575811775
ach 0.013272321610875692
Ni@@ 0.06859508054607957
Oc@@ 0.06602141330961606
Ferr@@ 0.18699316603584618
Sum@@ 0.061493161450656024
Vis@@ 0.15198588855334902
fas@@ 0.08406087116000603
men@@ 0.0139372939146802
ong 0.02255951436933102
air@@ 0.017982272496251287
mas@@ 0.023025017593077186
omo 0.23266588406287694
tra@@ 0.02971395176293107
ish@@ 0.02261954928913256
ten 0.004472159015484784
RE@@ 0.21440574316958314
ane 0.03163651330340043
app@@ 0.026217859041251325
pes 0.05300566660490313
Hal@@ 0.06472560106082734
Mi@@ 0.04664727821581432
fol@@ 0.02139422913417172
ste@@ 0.020773358523008927
Bus@@ 0.06700342030202004
Rem@@ 0.14689290058169502
Sam@@ 0.055891730596391305
ies 0.015799816978932988
mi 0.058011927186836364
Bol@@ 0.0744059337373554
Super@@ 0.09815982231914563
idi@@ 0.06338499670074077
χ@@ 0.058110831217899214
Sim@@ 0.06557177567079726
Tom@@ 0.083995168134967
ign@@ 0.017244239062387128
pha 0.24183748869643076
ό@@ 0.07513678505550068
Pom@@ 0.16902201507058817
Fil@@ 0.06818435962048339
eil@@ 0.0735109723895077
aup@@ 0.28565971579720284
pa 0.09787650299612789
ba 0.056652940670985315
lat@@ 0.02346451772178538
Gro@@ 0.06821408729280541
cal 0.049423384855091776
from 0.00280473540800574
olog@@ 0.02986696252692754
sel@@ 0.013746775087390797
my 0.06444056897403154
ye 0.040433559841001256
ζ@@ 0.08842050220864113
United 0.015741104114774654
aja 0.13015033043237842
ap 0.05692882846316634
Mil@@ 0.04374434104793835
S.@@ 0.17057819818513442
ms 0.03834928208915938
COVID 0.18662269105608492
Dev@@ 0.0569213162333975
Journ@@ 0.10140707010460202
Sho@@ 0.12316041809834315
í@@ 0.01132089304280729
ico 0.018751882558407255
Ter@@ 0.04966293072436484
ated 0.0044644391884688965
of@@ 0.026481128730739344
ò@@ 0.6069382334372219
Ci@@ 0.04918441574584452
Que@@ 0.052094513528737035
fo@@ 0.029563529807281445
opsis 0.19399127256040966
ther@@ 0.03321024374012555
von 0.002763872361879445
É@@ 0.024711578208136544
AD@@ 0.1647581936455087
una 0.0052085067086470585
~ 0.4361096121097729
κ@@ 0.046666524836538624
бя 1
Dig@@ 0.16881267067576172
char@@ 0.028978314293738865
eci@@ 0.057893302527271207
Wat@@ 0.07246244174012187
bi 0.1277051281837684
day 0.019293007546088786
игро@@ 0.2011463454507193
Radio 0.08832505272626325
isi@@ 0.016633000799623574
une 0.003826661219042335
ο 0.020190741599851483
act 0.02500564504567769
ins 0.013338203769600633
ty@@ 0.08156703259334898
γ@@ 0.06578992057935217
Cur@@ 0.06916389762943766
ω@@ 0.07919854274741463
John 0.018761595080416065
Proj@@ 0.08473131486976043
ems 0.03184560587246398
eum 0.09161016369242156
peri@@ 0.04002584493533544
ρ 0.15452921621797142
Lab@@ 0.0814691969040025
ection 0.02030368844128071
eu@@ 0.1283434286595943
ze 0.01743948971801645
ke@@ 0.026553666655529756
old 0.014927430885850001
Award 0.05569520289245405
Sur@@ 0.06397482897354144
ein@@ 0.006475323496511941
Is@@ 0.025444354989097938
Royal 0.049626296112957144
Tre@@ 0.05783326288112355
cat@@ 0.03670355322458207
кото@@ 0.3039648089292621
A.@@ 0.16598968074424297
Sab@@ 0.11130384115823404
Univers@@ 0.21867772859481005
att@@ 0.009702751293581792
elli 0.1246992570804305
ement 0.005892918174178662
авгу@@ 0.4184628545214427
Bas@@ 0.03701254712435221
agr@@ 0.08759100095988157
form@@ 0.011330035514795883
ich 0.01665499423063787
Il@@ 0.09797914385675546
des@@ 0.00958182147710699
AB@@ 0.21597782679942193
ets 0.016360741664858503
ilia 0.3099168700358893
vo 0.08974582106329948
ε@@ 0.06075635538779059
шла 0.14528244421480507
Ru@@ 0.06393196503665842
Show 0.13398981971566903
bal@@ 0.04258714559794374
King 0.048026522669065576
Mach@@ 0.14133385552603334
ger 0.018245924099117253
king 0.019503440416653882
ë 0.501784179659145
ł@@ 0.07874475961631684
Vid@@ 0.14087363503184522
dy 0.06219975784072822
line 0.0203303573797352
otr@@ 0.30379149662729477
tig@@ 0.02305329940347947
AP 0.17534723710727362
Pu@@ 0.0564326521131977
Top 0.11681969737427823
oa 0.11604737718116226
ua 0.06543390951020593
ful 0.028389381606511947
ology 0.025500231210309015
ome@@ 0.09885501189816562
time 0.008889191324535603
inae 0.2652761441806748
Mis@@ 0.0447815860113372
je 0.07235874671155836
sa@@ 0.015589968113117726
ash 0.07394908559382053
─ 0.3660029694412924
House 0.03886575213635932
die 0.0014823715768658933
press 0.087487563638259
ania 0.05671356551440239
ca@@ 0.0874389235958241
ock 0.04761489408900994
style 0.04526820478666498
пут@@ 0.16404776223425074
fac@@ 0.01433701699017601
hr@@ 0.03920533849050922
icul@@ 0.05767878342646823
pro@@ 0.009877620977475639
chr@@ 0.15203597888289866
leg@@ 0.015877477182048027
tera 0.11871290954937312
tron@@ 0.06087463247866675
General 0.035883192922105685
box 0.12301188881580741
ku@@ 0.039955362464364375
vit@@ 0.131233302306683
ō@@ 0.09457765268261004
вая 0.05602698261787476
Trans@@ 0.04965631953083432
ab 0.020365256458385637
ond@@ 0.02085461237819587
Center 0.06099367412901617
Phil@@ 0.04582532886198067
ro 0.03589514554578506
και 0.011796065576830602
Tal@@ 0.08880173635822837
err@@ 0.033403531336501494
text 0.08849699227394936
Gen@@ 0.04765693852524336
Tun@@ 0.10835563614109593
dium 0.19095668894659973
ѣ 1
estr@@ 0.029441526140114787
AI@@ 0.1665851093491909
pan@@ 0.032608525193682354
ный 0.010183246121272983
CD@@ 0.10839657329067598
Dol@@ 0.09022059820831238
Pap@@ 0.0768942160766164
ern@@ 0.027532728103106776
± 0.8640512112644549
нами 0.12263218522077618
поселе@@ 0.10930150138373597
art@@ 0.04515634535168651
fe@@ 0.014439845604185557
ko 0.057575824721679957
ony@@ 0.07941212124516092
Ori@@ 0.10058011923189863
Sar@@ 0.05309375448323519
Street 0.04506245999529604
дера@@ 1
Ye@@ 0.07035620134744927
formes 0.18340876292139519
ode 0.041397739681355385
ple 0.025657495489391523
Sk@@ 0.08999725487599816
uz@@ 0.034201612974168516
chin@@ 0.09962816200604684
eta 0.05175894632566427
ы@@ 0.017451145426176595
Augus@@ 0.1582325768297666
let@@ 0.023345840842393318
po 0.04813816957534836
Mad@@ 0.04334863021072711
ft 0.030916769082526534
milit@@ 0.044701023241904246
Techn@@ 0.06898858148527667
cip@@ 0.06444114253388464
prim@@ 0.021258981282269784
CO 0.1747263811293464
Ear@@ 0.03027930720073535
Kis@@ 0.33445236591592714
Soci@@ 0.05017443437128511
edi@@ 0.01878298906380318
udi@@ 0.08491394029553867
Blu@@ 0.12820492654726853
But@@ 0.11864657959334728
Ke@@ 0.06729136678377683
Ran@@ 0.1240652995944472
cha 0.03673186662469226
Hum@@ 0.06833742368614555
Rh@@ 0.062173630985137014
esti@@ 0.03145226952513378
uk@@ 0.023464353609952585
go 0.026803367766487646
low@@ 0.01942662033704039
sil@@ 0.04391814877234436
bel@@ 0.012174210335866343
vil 0.06106681391864787
ž@@ 0.19996804738528412
CC@@ 0.19768682478731217
CI@@ 0.14741418446339527
Chi@@ 0.04363666608021666
ac 0.04503103427348823
ans@@ 0.03281098383269686
dor@@ 0.06750504057500069
fic@@ 0.021153149706260397
len@@ 0.036213909502485056
mus@@ 0.012793171766944753
Sel@@ 0.06443354379426375
dec@@ 0.010270674897125864
uch@@ 0.022389328184098087
Fin@@ 0.028217229499390102
ech@@ 0.025889726572814086
ple@@ 0.049773302359500886
so 0.010774157062958253
3. 0.10738180521799907
Medi@@ 0.041720038076906586
mal@@ 0.03004278318064028
Festival 0.057333583978310385
not@@ 0.01580918686202427
â@@ 0.023523727967700324
America 0.04869135872380381
ents 0.006783507749552478
fus@@ 0.0957109862684149
ree 0.035427180752034555
yst@@ 0.0882926833885009
net 0.04705027588307044
onn@@ 0.013291614811766932
tem@@ 0.021697164936572196
Mem@@ 0.06693548143496822
Spe@@ 0.06715378144123353
pul@@ 0.038830815686803674
β 0.36610151033786825
Aus@@ 0.013361681806789412
aer@@ 0.13397468710984073
bit 0.11684960260774149
gl@@ 0.02803319551800904
ira 0.05323333803053703
unt 0.044001632892095445
College 0.028509017691925473
Je@@ 0.026492820010865357
Squ@@ 0.08144408579473922
Bet@@ 0.06736899049521727
Phili@@ 0.06864246462205166
ign 0.024904327335909065
έ@@ 0.04621415869093754
чем 0.10220249496272553
Boy@@ 0.10303501984648274
First 0.054873960529924375
La@@ 0.04903561580867103
htt@@ 0.28116270045645825
oria 0.09960874591438694
Pa@@ 0.05793086937919262
Syn@@ 0.09288632945165293
long@@ 0.03857103544951758
ων 0.05198032297966421
Pow@@ 0.088185039057754
Vic@@ 0.054890986660528655
hu@@ 0.024505685182716876
optera 0.38407861212942396
tia 0.1289084581354729
« 0.002727417212538797
ato 0.03465075979573182
chi 0.070445361178537
kar@@ 0.043033503214726695
Dec@@ 0.07787906187877218
M. 0.07872118336143057
White 0.0654534090199707
οβ@@ 0.3073479034253123
του 0.01003893010586515
Sm@@ 0.11120104007250645
Star@@ 0.09547022088055761
Wo@@ 0.037618422588690165
ette 0.028812226676013717
ground 0.033799962223361756
‎ 1
ali 0.05956802944323585
ga 0.05471883607246246
ls 0.05434638594649389
κα@@ 0.08069142743352081
φ@@ 0.04578387430355977
Sing@@ 0.04132350373464177
cho@@ 0.03736198725511598
ights 0.03694562103182391
tory 0.04842739701412445
try 0.022740299933439657
ture 0.013824976149703412
Liv@@ 0.11567862394138205
Os@@ 0.05653215553945334
ela 0.03931808091657523
ger@@ 0.013444113499625628
Beau@@ 0.11433352366299387
Pot@@ 0.09468950402039143
oi 0.14406568415808757
pres@@ 0.008940800892639619
ust@@ 0.05153651042873555
atur@@ 0.04012973274399192
ω 0.32921550454284465
Ti@@ 0.03902295493876538
amo@@ 0.06059426446567999
eni 0.18784355410046732
zo 0.06077872348471706
Luc@@ 0.065957145909292
mu@@ 0.023016770657037024
oz@@ 0.08531464211873342
put@@ 0.033288220450144554
вру@@ 0.5132314762209391
ье 0.05820756044648195
D. 0.07529457316669144
Deutsch@@ 0.08451265521724
Loc@@ 0.06332541418826111
Pre@@ 0.03186924585771794
ame@@ 0.0646743624388907
lum 0.15705720756002628
бре 0.09135602829790532
свя@@ 0.058342918756976364
Anth@@ 0.10877182985502856
May@@ 0.0662982053776226
Wol@@ 0.0502545307296966
άν@@ 0.06286785121793385
τσ@@ 0.22405460325408189
Championship 0.0494902124068295
ik 0.029966470178626657
include 0.025570087562286924
Ly@@ 0.09384886834513737
Rus@@ 0.018952089162138315
ati 0.0780025282636847
ˈ@@ 1
θ@@ 0.04325997341516669
iger 0.03402782809872197
Hu@@ 0.04869039495557472
Song 0.11605962776991965
bil@@ 0.014056911990986663
tis@@ 0.026447010747555583
σι@@ 0.11876316731469425
Commun@@ 0.049044597763143245
unk@@ 0.023417129725273895
wor@@ 0.01028675957097305
αλ@@ 0.08427765490831483
ο@@ 0.05210824133759281
ού@@ 0.10171134757648995
ci 0.04662039183863774
tion@@ 0.02318831481798726
ρο@@ 0.08357756337458402
дой 0.14043491628495897
B. 0.052534942866763475
Christ@@ 0.03925836828232625
Der 0.008832167527308967
ache 0.0499431996229033
alia 0.14454149226093527
elec@@ 0.016856703113671465
Rol@@ 0.05306831822814534
Sun@@ 0.1202329488751276
ney 0.027309938053470248
ope 0.051561611127187296
ury 0.04979265951502412
тем 0.1404725859534132
Fal@@ 0.09719391892469166
ole 0.029040347171775217
sem@@ 0.02480335845448459
usa 0.129297397229958
wood 0.03781204244655565
E. 0.09485271113143176
Super 0.08593448685952247
War 0.022753679011681918
esp@@ 0.02215547642597248
год 0.04977247306922392
Internet 0.13085661396039996
ische 0.009371121740180375
ren@@ 0.012133050929884738
Mes@@ 0.10841177057617724
aca 0.11154212534192864
adr@@ 0.044396692065799215
Ba@@ 0.091611200520039
Cel@@ 0.08424212478773627
Station 0.06568907034417643
Ta@@ 0.05840997540224683
aus 0.005596182198971827
rot@@ 0.05458986450230204
serv@@ 0.015879667751688024
tre@@ 0.01568112121941535
Dem@@ 0.041913589577641665
non 0.023527605702484987
ü@@ 0.010181985471423571
начала 0.11598611683498282
Gol@@ 0.053495823319105
apo@@ 0.03260963539736287
ы 0.0074800498760046585
Lar@@ 0.09344680974952244
key 0.0490561264596938
mot@@ 0.01932782404033061
ony 0.03192613160363722
use 0.010415336224999957
Num@@ 0.12196849853980143
ash@@ 0.03150110032082992
etti 0.11580065373080738
fre@@ 0.01237040612746684
ά 0.05739154154404994
-- 0.4126907150063539
DS 0.14404555734623456
Park 0.031043605422136026
eing 0.09438620223208251
lobal 0.08548201233781343
others 0.03456420208404226
ime 0.029644152711002337
out@@ 0.02218806519851451
this 0.006647784816253
tu 0.1365565841200066
της 0.01244586587694265
New@@ 0.05028989517091695
ution 0.02460559820603867
Ak@@ 0.04440315395618144
London 0.027180541929607022
Ren@@ 0.04516349969915292
USA 0.06429174292234252
ami@@ 0.05985077595076184
log@@ 0.036083400161249536
ns 0.020271481744659946
шим 0.1195427283897798
ends 0.036583559253573025
Ram@@ 0.055514959888001626
enc@@ 0.01257864297376992
ias 0.09025583384878214
Dom@@ 0.06609100115998115
San@@ 0.04240834324442783
sur@@ 0.008950827167405523
» 0.0024233467194598388
acc@@ 0.010192176749519317
ado 0.0038257792151484486
ѧ 1
bas@@ 0.011708634920651061
inal 0.029709696305002992
ito 0.028659783605633482
lig@@ 0.03134404656999969
lock 0.054919234912836866
rol@@ 0.04822003630130679
их 0.03763350741669712
Sa@@ 0.040225148201766044
don 0.06130414047480313
tin 0.027154809749262147
Art 0.0379124249953428
esi 0.05694115167213453
ond 0.028255040327781623
^ 1
ature 0.018257130867973766
gin@@ 0.19507338387907389
nov@@ 0.031158686705013757
Ven@@ 0.06226908249385213
das 0.003765133659262564
var@@ 0.0591372367897688
Rel@@ 0.04607834716980233
ando 0.010801216079516522
á 0.019674691509464295
Во 0.12377193312398958
Association 0.03704998283444081
Ze@@ 0.027517148055933888
aud@@ 0.1041064092726087
GC 0.355847475273666
eth@@ 0.04662513652757952
ori 0.10622865071181282
yo@@ 0.02961429307269452
ze@@ 0.019761858946270312
деся@@ 0.14848053094557867
Ind@@ 0.05324006177791415
ff 0.047180193406532366
Cul@@ 0.054317780561097005
Fri@@ 0.07807029572141597
ellas 0.13622786030097112
ote 0.02000755420310187
andi@@ 0.13954914990315984
ids 0.04953846966950255
αρ@@ 0.06767869118129784
Ju@@ 0.038024536846790254
iness 0.03156229762332244
our@@ 0.03313135058519972
στ@@ 0.04085533801488559
ative 0.010936847361231647
mus 0.11394056582223176
ə@@ 0.5311935418618219
Force 0.06451685562774873
icro@@ 0.10289853226304901
dition 0.020671872767047773
row 0.04977570480854993
top 0.02924872508233064
world 0.02658537807508272
Gener@@ 0.05682006130207549
ese 0.011093758306511325
sw@@ 0.032157421674327225
ĸ@@ 1
azine 0.045343400395448735
osp@@ 0.08218269743733214
ts@@ 0.01024257428920113
Band 0.05902110020394123
Europe 0.031991527642832154
Nav@@ 0.031983636199430364
Team 0.05289763323685721
cep@@ 0.04234759823825014
emp@@ 0.014643775593351685
wal@@ 0.026769874706054
ικ@@ 0.07036677685122923
kl@@ 0.02021069088453444
ont 0.010643494661627706
astr@@ 0.04319212304218188
ault 0.06412611246852828
berg 0.01791138071796488
ther 0.009838682423899354
мой 0.06738141266359673
стала 0.1065400421409919
Hot@@ 0.07879586268139949
ago 0.057995039391278716
gia 0.03238140491093619
yon@@ 0.07145191077041414
ино@@ 0.13854616871886347
All@@ 0.05195088449626807
Road 0.044819463779123124
ban@@ 0.0177529674184711
edy 0.05573021443355269
light 0.031008905239474208
ough 0.02556207140568237
ă@@ 0.15433074760245977
Η@@ 0.32257752868663814
assi@@ 0.06778636953380883
ines 0.016895645975981206
hom@@ 0.0216462448067733
tiv@@ 0.018789714831012324
@ 0.645025333365131
Cast@@ 0.06893777598504965
eria 0.12924943088200277
hi 0.03595381388683356
plic@@ 0.027402733465897666
ri 0.05763307262421055
tre 0.012260946450433546
Arg@@ 0.13183643458484623
European 0.033677233402528046
ding 0.02414960073417891
Σ 0.8804292731267978
ώ@@ 0.0812503852868841
ствен@@ 0.023083215054031474
asc@@ 0.0736009792677278
oo 0.12376381161471915
Games 0.06558436847457698
ado@@ 0.1108521046947075
ee 0.03759328959579914
eme 0.03901585686596843
pic@@ 0.04767355120131244
tics 0.02123608407411279
unter 0.011728294398854753
вс@@ 0.12001240524177964
Kin@@ 0.03142076049408959
Young 0.07977256848462266
bro@@ 0.01728269401136044
elop@@ 0.07454335505309982
Mol@@ 0.058078822816595814
Name 0.0669678619069621
With 0.04209723116946905
down 0.02465698322814319
kr@@ 0.030892155561869146
Stand@@ 0.06047134242006538
agen 0.026037424833140622
ark@@ 0.050904589963692716
den@@ 0.015710261673718
earch 0.026272833839832397
nor@@ 0.012836475731297847
uv@@ 0.027829018479553998
Ali@@ 0.10284027133386742
Kon@@ 0.015853344002103385
Rev@@ 0.08926443997682774
ider 0.047698337808563245
oks 0.037303302920792016
oman 0.05194897070133679
ία 0.03302860114300165
BA 0.10970077976136583
lus@@ 0.06082127486162231
pon@@ 0.027595912788827125
Liber@@ 0.04895338729599842
Ra@@ 0.06013985169162553
arm@@ 0.012743585716452361
bia 0.13169231228233091
fu@@ 0.01893596961542148
vari@@ 0.01813038938793105
í 0.02213583691785793
← 1
4. 0.09370042012828614
Saint 0.01602908593915131
color 0.06495761751442536
ental 0.015147306248677928
ins@@ 0.012100716891919367
ort 0.02431069171719091
Arch@@ 0.05181800154893364
CN 0.22541573438989462
Ges@@ 0.024777897809785
bis 0.006451056373840278
π 0.330030151516821
Mid@@ 0.041293920332065054
SC 0.0901054735187629
Society 0.04406068080308926
cy@@ 0.04873910587677839
Bir@@ 0.04501142817103528
esper@@ 0.14096387245641928
Υ 1
ль 0.01218897852790331
Alli@@ 0.08305313648752892
Enter@@ 0.22797509550869627
Fran@@ 0.020641136500029966
Pon@@ 0.10156451630011319
mul@@ 0.054833779635982585
sia 0.04659605128211361
ér@@ 0.008307488587036305
ύ@@ 0.05158385698725666
Japan 0.04083173768861673
Kor@@ 0.029187612963694595
Mu@@ 0.05086794415432397
Sem@@ 0.06571385791437827
back@@ 0.04997929082418407
over 0.00810362878712912
pro 0.0844528521278432
S. 0.07008733002666027
Sav@@ 0.06375705612964229
ams 0.016189912790137723
bus@@ 0.017200075940225133
iller 0.03877025807281661
ites 0.03516185226643422
pur@@ 0.019546797531986754
ton@@ 0.062161630367356197
чело@@ 0.21339948029562297
L. 0.09747662779743188
Sin@@ 0.05919924390449193
ami 0.051575901386210196
ante 0.009074742662099145
ian 0.017044946744163687
ith 0.04030341164588795
leri 0.047589044868247186
lie 0.039717910452610465
Got@@ 0.05235261172760978
UK 0.04592467736262511
ente 0.007527116696613879
sych@@ 0.05116583730445478
ures 0.022645104858480966
vice 0.03394939024797759
ying 0.019730088164272297
ί 0.10478214715616911
Nu@@ 0.08257234947073855
ix 0.03655810564502024
wi@@ 0.017943937809700803
ερ@@ 0.05751701833347757
Al 0.03196494918065769
Astr@@ 0.10965631327483007
FA 0.09736102149908604
air 0.025524892946309673
atre 0.047378154676824276
ear@@ 0.015027482723683368
enta 0.04398248097276507
get@@ 0.04937354285453291
land@@ 0.018196364432348146
sum@@ 0.026455364243878465
uta 0.09161384084403344
י@@ 0.7885168554719703
Austr@@ 0.04342795267520041
arc@@ 0.09818059664833499
nh@@ 0.015094439156283642
ted 0.004259578593135808
urs 0.013638306175425425
var 0.15055449946670846
Ha@@ 0.05206307420270711
Lam@@ 0.08317802759645561
egr@@ 0.06716508410568124
esta 0.019061071810435756
ской 0.006798300076546029
Coun@@ 0.05470956642695695
P. 0.08466599651969722
ness 0.03294497298720741
onom@@ 0.03589604832069449
wh@@ 0.012079607143142802
шая 0.07464178013932089
AM 0.12150467834236867
Dou@@ 0.08466541439453114
ento 0.02345592772524616
fa 0.12097042367041047
ide@@ 0.034811921155803116
ison 0.01596568427344999
ld 0.0669047788285655
Abr@@ 0.1075813136305915
Buc@@ 0.08232811456783698
Div@@ 0.10928745095189152
Mul@@ 0.06739415928043963
Publi@@ 0.060859759283268026
lob@@ 0.07192112316676287
Ari@@ 0.05996538114923226
Ko@@ 0.037919939534033255
Lon@@ 0.19601859389761359
Paris 0.019551515482856698
lines 0.046611965686334876
odi@@ 0.058941565659199675
ò 0.15282976034791618
Af@@ 0.038187366823054035
Maria 0.05188145997031235
So 0.05290090662807761
con 0.0032439490268718813
gre@@ 0.011985499410828436
ille 0.017433246357869487
wa 0.022217391311440866
5. 0.09513607016618933
Hill 0.05567051227908651
Rot@@ 0.056805209203932915
West@@ 0.02727934692997707
ίας 0.0400408436136318
201@@ 0.21834270798452743
Rob@@ 0.04863743809922843
ici 0.13917568799929808
lav@@ 0.06772923430382283
medi@@ 0.009938573220227844
red 0.006640706119989696
rup@@ 0.039489678533192095
yd@@ 0.10469943305841566
Υ@@ 0.2730162936759297
λι@@ 0.07732784365127846
υ@@ 0.047091933532272395
Lang@@ 0.050672611034995575
iden 0.04881464443692364
liv@@ 0.022709913902602612
align 0.11569488784261948
nom@@ 0.024832021033939417
ny 0.055973070835300155
van 0.034009400697198516
ίου 0.10968493203028068
Fut@@ 0.10546769345696454
ager 0.02715950910663192
vil@@ 0.05671098368198664
ατ@@ 0.06639252204280433
ια 0.052330595031025946
простра@@ 0.13160124524694963
Bank 0.06193420198030738
Bat@@ 0.04340790582111542
Kn@@ 0.051841797856432795
Spr@@ 0.028756879656902105
ham@@ 0.075137563658543
met@@ 0.01795630733587977
ας 0.05423156048385412
Haw@@ 0.05617901237898071
Web@@ 0.07516633250490816
When 0.026486626829401862
ces 0.009801433990247962
ée 0.0031807442421256608
antas@@ 0.08789342918405953
off@@ 0.007646020912153577
sig@@ 0.014316851773755888
xim@@ 0.02153064796283485
Famil@@ 0.08023471677413173
K. 0.12217587883876493
coun@@ 0.01164281502044926
less 0.026220484080450013
ports 0.01904721909532227
British 0.01700620077666898
hor@@ 0.020957528377087902
lem@@ 0.025490091402549465
side 0.010686713546445143
very 0.011652441985428239
η@@ 0.048794643303097504
Pat@@ 0.05908233174534497
Sen@@ 0.02220980224558434
ein 0.0032236218094924096
eli 0.06728784101130982
mil@@ 0.0240583514273912
mo 0.03416121853057075
oper@@ 0.00995836474413726
ret@@ 0.017940545611020348
Рес@@ 0.0928735461762981
Э@@ 0.012586827245638412
Red@@ 0.057108202199391285
ople 0.05833082578630083
vel@@ 0.01542471289423531
Film 0.02733790695973271
Max 0.08018141110897944
gi 0.13443759536243194
ket 0.02696443544049344
ret 0.05782429574076301
½ 0.4326397703652544
Ev@@ 0.03745510163725403
France 0.012728494632047269
Lat@@ 0.05297304944934113
craft 0.03987395163946193
etes 0.09980887278966402
plat@@ 0.02603091679263705
via 0.03310463561046271
As 0.013357792429485402
ais 0.016532675972092133
bir@@ 0.023058131570104414
dis 0.07253766645306865
oca 0.13102152870992012
å@@ 0.13249286702337376
ū@@ 0.11291878568255638
сси@@ 0.03130861456683248
Great 0.046505958345229824
North 0.01767353656402852
Tran@@ 0.09345759046403018
stati@@ 0.07614906712710758
Union 0.024830785509437004
avi@@ 0.04888123397751773
Lor@@ 0.04214644422911219
gal@@ 0.03488869943424114
wo 0.019201633347455765
yo 0.03360935970947003
H. 0.07048572752304828
ford 0.017756480622639223
Mak@@ 0.07365114913056714
Som@@ 0.03361821134394899
St. 0.02232231322310128
Tar@@ 0.05268789207540375
abil@@ 0.036494268241152095
ebr@@ 0.04968897044418846
oug@@ 0.04883858805802515
r. 0.044805413849234775
rel@@ 0.0050353221193236595
vin@@ 0.05532630930335001
DV@@ 0.3264160738271315
Fu@@ 0.05481175678178414
isa 0.05940054923236908
ont@@ 0.0338515342532221
ù 0.1551111337130296
ī@@ 0.15582020452983078
│ 0.08512130800848204
Arm@@ 0.0496250533778466
Arts 0.045258781593446665
Doc@@ 0.060622436250139286
Ol@@ 0.041827780626054176
Tou@@ 0.08875622526306148
fes@@ 0.028895339946907656
idea 0.0587245612242258
now 0.01562036584833836
Ζ@@ 0.20708661609362525
ον@@ 0.057206631880719575
το@@ 0.06168927975760098
Ban@@ 0.042089847810523405
Dor@@ 0.02537881909915253
Hall 0.03519184835328104
body 0.03533420458366474
ser 0.016779683653482484
Hom@@ 0.0589844269156454
Island 0.03626439391616313
bo 0.07513975270838923
eti 0.10260112386569573
inger 0.03778257583783367
sor@@ 0.015747607269205863
su 0.0034478206789901986
Bos@@ 0.05630015728962599
Juli@@ 0.03731220861074829
m. 0.09776216851341629
mas 0.0662703298786485
ute 0.025114846291647456
Ι 1
F. 0.08096509104716595
Juni@@ 0.05844978752933069
R. 0.07180575244367939
aff@@ 0.013079113603373424
ept@@ 0.05363600401413857
fil@@ 0.016739619506013322
isch@@ 0.018118333299659183
Χ 1
oto 0.03683277653584555
vers@@ 0.0170368059923221
ו@@ 0.7581846006935464
Bon@@ 0.048403292652808426
ech 0.03936818782250491
лли@@ 0.07616965026545182
Arti@@ 0.06992716578910936
From 0.028525696556242004
esh@@ 0.07905794104151918
quit@@ 0.034278070741194155
tura 0.023921556293441594
uti@@ 0.016469128075515878
Φ@@ 0.07662594849956489
din@@ 0.035360394510309735
house 0.02123055224257661
ories 0.028609103732815933
prot@@ 0.009154834080811731
Hir@@ 0.07908966692124877
agement 0.027918366587714172
cher 0.018521975522008762
cle@@ 0.03583468737129726
hur@@ 0.07172520250017582
lon@@ 0.0932441137255162
soci@@ 0.014313943694367236
ă 0.41720159454268935
ελ@@ 0.07594884391723036
κ 0.13101123988156121
ου@@ 0.04840646819655544
20. 0.06841197279708473
Progr@@ 0.043358035938931276
West 0.018061952018605505
endo 0.018520569808843392
fa@@ 0.008339428007213304
fal@@ 0.03300170149189372
ili 0.06606974707263287
nia 0.09524662762370235
sis 0.17214561829288136
yn 0.06419488214556701
следо@@ 0.09637440518575703
ator@@ 0.07701310129552996
brach@@ 0.08361116423376108
ih@@ 0.01946892786249271
ova 0.07282458493301618
war@@ 0.012299742524462642
An 0.024928695353878528
Los 0.011840689337396182
Shi@@ 0.06650192881123253
ellschaft 0.05607773042359052
inf@@ 0.019899617066636056
mit@@ 0.010443821385023162
proc@@ 0.014839152888621575
wo@@ 0.028129285009963163
ür@@ 0.010110334471669912
Clar@@ 0.04432985221697744
State 0.015036910023774198
kin 0.06189415094237566
lit@@ 0.020948839446145655
priv@@ 0.01832174328795629
ul 0.03648342072836433
we 0.026540295928839323
yle 0.05117958202337243
εν@@ 0.03974465720684447
dig@@ 0.016984568136906155
isp@@ 0.16724620328874512
iter 0.033883296220427066
men 0.008038463034319673
nu@@ 0.030431655129497637
qui@@ 0.012130595056680371
ski 0.029024937006852925
Ν 1
He 0.002618354903301904
ats 0.010642316536047056
cli@@ 0.0311685428142788
even 0.02141504380853579
let 0.04426394411525106
tain 0.011923780429920195
Gor@@ 0.06907208288292459
Party 0.02655958345332787
Prin@@ 0.06169676802304473
ally 0.003548355912525232
los 0.0018724844458275216
mis@@ 0.008725352407105194
san@@ 0.03771824282681612
Š@@ 0.12493291385669261
Аль@@ 0.08882494726547811
тах 0.08921221665644331
Ham@@ 0.030691334587856313
win@@ 0.021702991776392275
Def@@ 0.06167101771174669
dal@@ 0.07679623379497619
erg@@ 0.022963888633729126
squ@@ 0.028935464592251492
ör@@ 0.009635054693909363
Real 0.06567663712736456
Tok@@ 0.07779965812013809
Whit@@ 0.06569094382825914
gio 0.08558137502782627
ji 0.0448998655873026
left 0.017738215692792658
mod@@ 0.026900226452257165
sac@@ 0.04570377961545608
ç@@ 0.012168378301618474
Ath@@ 0.0363488509628378
Comp@@ 0.0775215959647789
Var@@ 0.0758445897648463
dem@@ 0.008192188564512794
eth 0.05072284432798395
ful@@ 0.035038887541664995
ē@@ 0.4478227812687909
ś@@ 0.2032805415113412
Bay@@ 0.03871784947236045
Cop@@ 0.07376605048077878
Far@@ 0.03023765723407503
Fer@@ 0.032178550744580654
Laur@@ 0.04447270448053585
Vel@@ 0.0860056432860282
prise 0.03798538105133055
tric@@ 0.04049837581664342
ş@@ 0.023871310551725273
Θ@@ 0.21367116506896291
Math@@ 0.07511356783771803
agn@@ 0.02452588708651487
anger 0.05219595684095928
eca 0.09181351641401417
face 0.018053927096504326
iki 0.056026094922524125
ited 0.013982248914049025
tos 0.018421072321204775
ει@@ 0.060873167924411706
Long 0.06594480531859137
bac@@ 0.06424833458648332
esa 0.030709984737567475
ju@@ 0.015118777120895722
mann 0.018064622727095043
xi@@ 0.09689863385961046
ć 0.0379957027103323
ѫ 1
Bot@@ 0.0310893265872683
Central 0.029100895812415723
J. 0.03856494110229524
Sat@@ 0.07693387145556536
burg 0.019536149529791356
duc@@ 0.02916571702276146
ett@@ 0.027863722830518252
vent@@ 0.025266797720694612
Paul 0.019847531492179604
Santa 0.034885424608067775
af 0.06888044157630455
azz 0.05546375059414052
dom 0.0318313536423573
ister@@ 0.019788632761612492
mol@@ 0.03810322612618536
Ъ 1
Institute 0.03385614128149541
Volks@@ 0.053509765660477514
ao 0.02304468755105706
ards 0.015596815688034308
bin@@ 0.041810930445154326
mun@@ 0.026719619954031902
sions 0.019457536786174085
stre@@ 0.020421395007183412
trol 0.1284146590964303
ì@@ 0.6678617346844841
ακ@@ 0.05799326233869467
Fel@@ 0.03618821466051482
Italia 0.10422943863083341
Jean 0.019784052702484376
Prim@@ 0.039125003060445945
ez 0.01714092625583234
ident@@ 0.0722308524069422
ov 0.027665401705270383
ō 0.050408676544186515
Ω@@ 0.9108493890982949
Tim@@ 0.06583044162244867
acy 0.029626121896518007
aft 0.02571710200316576
ario 0.014166911052398168
back 0.013150099607010772
center 0.03546012873494372
cy 0.035358720355164325
ods 0.026764633258400308
state 0.012024912086100651
tol@@ 0.04732240458156349
ή@@ 0.0444518479509222
ѭ 1
Bri@@ 0.03201019594525434
asa 0.04405732426911708
comp@@ 0.006276205837804962
tern@@ 0.04994998874789802
uma 0.08105040237617694
up 0.006080483558569166
ě@@ 0.18296342260400483
Academy 0.03572145416251871
Ann@@ 0.0603283621729917
Atlan@@ 0.05511638263989472
ains 0.01288601703758509
ego 0.03093295342508318
omb@@ 0.03814133888920619
ume 0.02752752554097169
æ@@ 0.1488311594260373
рами 0.08133653245878425
Cle@@ 0.06110162257855191
Orig@@ 0.04537177963634505
aire 0.007206502719876342
asp@@ 0.0414364943216179
aul@@ 0.06588235733438039
kon@@ 0.015767465275341095
play 0.014613111392281573
sho@@ 0.007199122295860082
uke 0.049515819428681225
ways 0.02562563166773123
alli@@ 0.036262458743235824
bran@@ 0.036041260708015846
eros 0.03911195447032402
lab@@ 0.023448503758318275
ox@@ 0.03693483227424405
pat@@ 0.02638186186035825
vis@@ 0.009337314599268526
well 0.007531147968456674
ï@@ 0.0189316318635794
αγ@@ 0.06146231249801703
Acc@@ 0.11334065173891616
Un 0.025702596795644118
augh@@ 0.015233001023281525
hal@@ 0.013931712242657886
ho 0.11498846499966776
hol@@ 0.015866285616850717
orient@@ 0.05530639508143836
right 0.021169120677699323
ασ@@ 0.05207148706904825
ών 0.03175491637606566
Mun@@ 0.04939411453839616
agon@@ 0.04465189604782116
bon@@ 0.05914716360467036
cula 0.25543429535206014
elo 0.055658368150327577
ng 0.04890021949583158
under@@ 0.01371552392416355
Pen@@ 0.04110883031881686
attle 0.021066095523852555
ega 0.04293021959873383
ѧ@@ 1
Direc@@ 0.03257344426320733
She@@ 0.05263559962440388
aly@@ 0.030568230856505306
poli@@ 0.04265068397019424
ère 0.006113267189493295
Dam@@ 0.046405860068243536
Green 0.05080509903944801
History 0.016240724332890862
League 0.011707121586388326
mir@@ 0.03666577927650905
self 0.012664971004338225
set 0.014098256761017006
zy@@ 0.06020999334946066
् 0.0018395261612557843
Feder@@ 0.02586518659667478
Med@@ 0.02986375633936972
Stre@@ 0.05413449248261557
Tu@@ 0.05948229852498984
esia 0.12749755044736688
hum@@ 0.011451564726187408
sen 0.011436704549856796
е. 1
ages 0.008006550896480452
bes 0.02998047839522934
isi 0.04267755058031571
onal@@ 0.03582443637939901
org@@ 0.03789399569735509
ques 0.005479936904816772
τζ@@ 0.26907037143456486
όν 0.2018731439619985
South 0.011493309598849371
cole 0.04432053817397978
field 0.0134902416572198
iss 0.05516111189506847
неме@@ 0.654888178472491
Das 0.007311480130830036
Don@@ 0.043688971734905886
Land 0.03999575613848723
Tak@@ 0.05455839211395635
anda 0.03571569004800365
ants 0.007538846003006953
camp@@ 0.010363359224783144
gh@@ 0.0388297661937773
idge 0.03502511650995055
type 0.02735152989387522
Kom@@ 0.015338919298384834
Mich@@ 0.02027597500936365
dern 0.02600339910990181
ering 0.01982436145381606
hab@@ 0.016550031588537982
sul@@ 0.08194118073112024
wid@@ 0.02529545789734276
yon 0.051010951990553305
Eg@@ 0.04481042624070012
Lev@@ 0.05414664955726159
Nic@@ 0.0323082597523856
dren 0.1239850283176192
je@@ 0.012861215496398074
nik 0.050815889700582505
sta 0.025564716464151205
ø@@ 0.054123759527332796
ρα@@ 0.054362880457559735
It@@ 0.022184713424508083
ask@@ 0.02603877445972287
da@@ 0.05488668051975767
ele 0.014814679608982506
ika 0.037646822552804105
outh 0.024307330835025908
wn 0.01381916149835793
ā 0.18986843011339183
ής 0.03602684340364582
ками 0.03378751926153542
East 0.021706946316932426
Fol@@ 0.016970927696868945
Kal@@ 0.03658852596336228
chen 0.009168731696167522
com 0.14985971563277325
ew@@ 0.028276247559410703
iti 0.1063667187200981
not 0.00336265698778509
ссе@@ 0.06975627164821363
Cup 0.017343974586270874
Mit@@ 0.018550682107316422
Tod@@ 0.053233127354923825
vi 0.10922665766478072
6. 0.07240446735644851
come 0.02183417218879853
kan@@ 0.031846715186390095
nes 0.01430041611205852
spir@@ 0.03718487753378168
stein 0.022610257166371137
ε 0.05408872297987427
emb@@ 0.011920020710098535
kin@@ 0.03206944818454885
tal 0.04032871940493917
ums 0.01625325817101813
τος 0.12540647920773396
дерев@@ 0.05955085057432938
Am 0.015188596420661418
Bay 0.03841735362893794
Cath@@ 0.05149094702446829
Jan@@ 0.03343081715967129
Radi@@ 0.08045956165064544
cho 0.009757480790417898
dol@@ 0.03410997880133035
ologi@@ 0.029533164173982898
ores 0.010692542484885544
pil@@ 0.0257304942440923
ross 0.015479779431817407
wil@@ 0.043796283680054435
ა@@ 0.9951509898973191
Han@@ 0.029996823096540334
Jus@@ 0.030926918073781777
Sto@@ 0.031139505511133356
aka 0.04042621093901173
aux 0.003651737708096176
equ@@ 0.02106674427192434
erry 0.03907660082606944
ker@@ 0.031042507805185703
len 0.011475456830061253
pf@@ 0.024645225742382718
rem@@ 0.012247369005512484
ron@@ 0.03123639136693028
tical 0.01510963429938139
γ 0.5585232478014954
дах 0.09723060954631631
Dan@@ 0.025548080787339365
bit@@ 0.035748942495267805
cle 0.03809152126989322
eld 0.022408768666190324
hel@@ 0.013554130540896811
nas@@ 0.09408394961369448
ords 0.022327300888141187
struc@@ 0.011953371688779533
super@@ 0.022617167630310547
vid@@ 0.016565439321540813
zen 0.018106086721796765
έρ@@ 0.06272342917963422
њ@@ 1
Anti@@ 0.04879561972298905
Mari@@ 0.02759656277628178
Pil@@ 0.05961166442280988
Tit@@ 0.04558115122544556
asti@@ 0.04192641968013505
eles 0.07343174570051518
head 0.01954102815165847
ket@@ 0.024339924604927936
stat@@ 0.014167479213162292
tam@@ 0.03258329521086574
tive 0.015143290164713651
ves 0.008863313734444635
λ 0.07611842556830187
Ky@@ 0.07505283942109298
Lou@@ 0.035019375060266304
az 0.02337579151075189
mid@@ 0.025996164498401145
more 0.005319217461331602
і 1
Brit@@ 0.03279381588991141
Rap@@ 0.06401863444813742
bol@@ 0.04877018619563656
jo@@ 0.018928246086715155
kom@@ 0.013863834405097279
rap@@ 0.014067772569051914
sar@@ 0.07704122615036728
top@@ 0.0565018766755728
Δήμ@@ 0.42943656983041567
οχ@@ 0.18558776903388388
ρος 0.17359646764743739
ть 0.010770176932608108
″ 0.6116966013351577
199@@ 0.04539969427210694
Dr. 0.04109915037144186
Ere@@ 0.10501074588518221
agu@@ 0.024907137591091078
alar@@ 0.05108757943053062
ean 0.025011464866559217
mad@@ 0.03193820937014079
ment@@ 0.02289204004526582
na@@ 0.08439299341018
nat@@ 0.043866362789147816
trans@@ 0.005794657418775792
μπ@@ 0.0578739587371764
ρί@@ 0.06351500200454198
ември 1
Mod@@ 0.044610379102272626
dou@@ 0.016464544206916246
olo 0.07276612310124154
tern 0.008768182337060674
чной 0.04242737165764234
Bru@@ 0.024540754312042935
King@@ 0.028519805275481536
asi 0.07392352953661568
ef 0.020831447737436257
ely 0.0076680489710290525
für 0.002609911204845227
he 0.001390063040435077
pot@@ 0.021055197849600964
ї@@ 1
Brown 0.04495479121778627
Der@@ 0.03798244183475821
Gh@@ 0.05251914633482417
Hen@@ 0.060346137170144434
Natur@@ 0.035449106774447396
dar@@ 0.010606316105133353
iki@@ 0.16872026180092115
mos@@ 0.0313492067796056
rent 0.021623551475993253
Kl@@ 0.022312109012616255
Wit@@ 0.060064240622508445
beg@@ 0.009725426439678218
edo 0.052743371516789456
iga 0.07715522287359636
ique 0.012168231399400625
ner@@ 0.01558268179668886
syl@@ 0.038443436273414885
196@@ 0.046067311719230265
Cru@@ 0.05005663275635006
Martin 0.02688941458078199
Revol@@ 0.04046832851627375
section 0.02556071577175014
ties 0.00604335388369293
ustri@@ 0.05470016617515279
στα 0.05782956915208798
ё@@ 0.006425575148013987
Chem@@ 0.05945217840110798
David 0.018060157584563145
George 0.017020915769283582
Tem@@ 0.046606355697354246
W. 0.05350445989579983
dle 0.0268465192102685
ham 0.021075465606628437
lip@@ 0.06400720171242394
ular 0.0093285232431289
ː 1
Gra@@ 0.038823986129496425
Land@@ 0.011510491820717082
Si 0.05876620913996872
abri@@ 0.028738724395463888
ater@@ 0.06423295947092161
cir@@ 0.014320717892057954
les@@ 0.018220112893551958
off 0.010762650707243485
ots 0.022580636259859146
ę@@ 0.1310692298669611
сть 0.01646776080318029
Men@@ 0.035596721798627155
ail 0.028346418916067276
anti 0.03540357196240422
any@@ 0.031629839981775966
eck 0.03651745230189821
ion@@ 0.04139828409324701
iy@@ 0.02588782207102811
mes 0.01206769433905153
ship 0.007462355570936013
των 0.017195655827761207
Rog@@ 0.04206933235854416
alis@@ 0.009761694236112794
ck 0.026617355553301424
itz 0.014941203901189616
ολ@@ 0.07215716406185319
апри@@ 1
ա@@ 0.8399621370476246
Est@@ 0.012174852187746464
ington 0.024373340604649702
ism 0.013437056132455315
multi@@ 0.026736503209121375
patr@@ 0.025593459886001216
Bou@@ 0.05847055079014495
Gaz@@ 0.12696434335029738
Hein@@ 0.09038644011824631
chia 0.13775652510639766
ende 0.010954606072589846
ido 0.007350261533209311
ince 0.017198602055262618
japon@@ 0.06201400200878223
lim@@ 0.023425347998448084
µ@@ 0.46664294867358463
är@@ 0.00961878754192484
Η 0.026260287256297334
οι 0.021554338647429234
Gold@@ 0.05487268677518098
Mos@@ 0.019545567359805196
UE@@ 0.4570716360610705
can 0.006050863830676236
ences 0.009816960664159548
ous@@ 0.04814593803510047
Bil@@ 0.01934468683338239
ej@@ 0.018042269954973267
neg@@ 0.017504664946961766
polis 0.05673610983501026
tut@@ 0.03720087911670057
while 0.007583900501193625
ô@@ 0.015686338056132662
ρά@@ 0.078383093404598
Фридри@@ 0.6751317131852285
--@@ 0.42134113690550185
Sand@@ 0.036782060988093356
aun@@ 0.042687753390845004
depend@@ 0.028136261381346644
ji@@ 0.06675271108797161
sive 0.011709391532768648
® 1
ó 0.0016373880626891846
ù@@ 0.17154560815168327
ː@@ 1
τα@@ 0.04588919892302388
Harr@@ 0.02704645065979641
James 0.015831875463327337
ais@@ 0.013661208741688666
amo 0.08117847933164606
cio 0.04141767957968792
conom@@ 0.0434684770274882
lev@@ 0.028055541389440827
ord 0.04589476611878543
trop@@ 0.029421319291219553
uss@@ 0.017915769430526488
нее 0.041208505238031184
Wer@@ 0.013656194101892852
aqu@@ 0.02296401948785125
mark 0.035307122971178266
radi@@ 0.03623597124046332
ram@@ 0.04885506481872447
sche 0.01968367590287639
uh@@ 0.027380638345234604
ump@@ 0.027911850721300657
Α 0.13095693276382875
Τσ@@ 0.2833128863823036
By 0.021336226257705686
alt@@ 0.011002337941371478
eleg@@ 0.02939408546995209
fic 0.018646269266949043
fri@@ 0.012658688846595786
inga 0.18184780066659936
viv@@ 0.021716325468633356
Č@@ 0.13671000157170754
California 0.01889174313366547
Geor@@ 0.016669647056607204
dam@@ 0.015154387207839761
imb@@ 0.04453264638919137
lov@@ 0.04200688326192434
nit@@ 0.04621565503575111
plus 0.004441843521133686
res 0.00969219921532789
ween 0.06923593378074544
муниципа@@ 0.06839081092469829
чей 0.06414027131635187
Bed@@ 0.056135137718102045
Kit@@ 0.07234654445317684
Kur@@ 0.01814668676551951
Nat@@ 0.06773918790984487
Tex@@ 0.04849309374970226
fur@@ 0.01373086778727272
mem@@ 0.01827202586140466
min 0.07578447901858687
pos 0.019505853284345943
som@@ 0.025788110521322544
ón 0.005958901855586776
Μπ@@ 0.0991972955068943
Alb@@ 0.04540495529972899
Blan@@ 0.049965703132468946
Historia 0.04390934238449787
ag 0.05529140923368253
lers 0.025789887527788498
pap@@ 0.017919211032547736
ses 0.004473896257286638
ustr@@ 0.020168762968853882
wat@@ 0.024292465019233753
сом 0.05325292317339373
Patr@@ 0.02720176663802575
Sig@@ 0.05784325010046366
bri@@ 0.015239857318261468
dur@@ 0.017490714256043226
fe 0.018648095209596628
ons@@ 0.01115394336301961
person@@ 0.012983746027267921
Ο 0.028199064424391785
να 0.012226196928648597
объ@@ 0.021739880773131534
Las 0.017555744371487915
Michael 0.019894224178718067
ald 0.041473771020949554
bert 0.019979938740406218
cit@@ 0.03088074105801749
eu 0.023169132034576264
ift 0.09540720764580536
jo 0.013906106012799959
teri@@ 0.030994980044374818
tice 0.017017050299138723
ão 0.03721170506667857
ского 0.004082823680540838
Ig@@ 0.03767450915430096
ien 0.007291443092381881
ier 0.01453592029989015
kel@@ 0.035958873348907516
lar 0.014083673943613092
rea 0.029950014157270943
сь 0.019113808230757975
Europ@@ 0.029216760683686796
alls 0.01864770552696751
ior 0.013897726096334327
nati@@ 0.0205815878501272
йской 0.02874221274140724
шта@@ 0.06033016575882627
љ@@ 1
Rail@@ 0.02605687321041491
Robert 0.016019355890928306
ands 0.014480851413698889
bun@@ 0.030241598336179922
ece 0.01721789269749441
gel@@ 0.005994985071201405
lad@@ 0.02098524569545776
zon@@ 0.08938348297631421
ιν@@ 0.04062100958875399
Ѐ@@ 1
Росси@@ 0.039360222955890124
Form@@ 0.04123515713074551
Seg@@ 0.02964905729636677
She 0.006227569553260505
Tang@@ 0.20082950467087557
net@@ 0.020984641492900552
where 0.004877184899404956
ские 0.014275060007357924
II. 0.0410424877324533
Reich@@ 0.0296822549243384
def@@ 0.010362102882766547
pas@@ 0.00930565742565034
pri@@ 0.012760267429938087
umin@@ 0.045833039063065975
αμ@@ 0.09599750317907367
сут@@ 0.05764026137043691
Lag@@ 0.05200795913280306
Rad@@ 0.039029589451595764
cam@@ 0.018704564952590125
form 0.00757030590210639
ult@@ 0.011590863289135481
wan@@ 0.0268911780872938
ì 0.07561756937471989
фут@@ 0.15754125628302798
Scot@@ 0.020212941230734173
William 0.013369032141075985
flu@@ 0.028916332268992755
hon@@ 0.013864669778015875
port@@ 0.005559508637431557
umb@@ 0.032448857785540595
verse 0.02348288459754704
DR 0.05147428436033532
Jones 0.03924940924179326
Van 0.04573348127254056
ements 0.00874104999230556
eur 0.00755695473300016
gen 0.008936079968887598
ité 0.0048291903059294
sam@@ 0.04320166462636605
š 0.13174379351519153
ему 0.03878323318730878
Az@@ 0.042652606265617246
Beg@@ 0.019641855364371533
China 0.017868211990789598
Gran@@ 0.03154779639554022
Liter@@ 0.040109350623868716
ating 0.00563834246967256
ces@@ 0.011234472653034082
cht@@ 0.049164799964519154
cons@@ 0.005907544382953276
kel 0.03416532404973134
umba 0.20531410310299425
ú@@ 0.015433089969892158
ομ@@ 0.04785566930518322
неско@@ 0.08783126693168855
Peter 0.018837844120100634
Premi@@ 0.03180784160270369
Wan@@ 0.22928951574740508
ason 0.026141021841537698
ert 0.0057831647467334385
ete 0.012884363577479947
gul@@ 0.11342107419579861
igu@@ 0.014155337327401936
mur@@ 0.021834536745596714
uni@@ 0.009255600763305992
§ 0.16398578120083884
сторо@@ 0.03887615791023299
After 0.006894303129774141
Yah@@ 0.15735678072823767
ality 0.014150273340340903
eon@@ 0.23115687549266015
estra 0.030133515435436298
fel@@ 0.022432735192708223
oli 0.09316768798268217
thern 0.009409227037593906
under 0.005227204562229839
сент@@ 0.11970413534879729
ских 0.008933323826618031
7. 0.05924430717202765
At 0.0100591149091358
River 0.013191011072022352
Rou@@ 0.020267968151700833
Tow@@ 0.025453231407434686
media 0.02271146205952555
mit 0.0013855143089531662
pon 0.02029099917218961
rac@@ 0.01507848725523049
rus@@ 0.04709923736338792
én@@ 0.00704043599270097
άκ@@ 0.09098744708156835
Au 0.023637960593696432
High@@ 0.029527811474981864
ape 0.03635184248652485
book 0.014225490470422552
data 0.031529469377896406
ges 0.013911359307735722
mes@@ 0.017090442002845447
odes 0.034346531513087905
pis@@ 0.027528317914872834
win 0.013005702009930288
ού 0.03870327349453745
τι@@ 0.041127839554563075
ה@@ 1
Album 0.04038561947848476
Maj@@ 0.027534743729046116
Mill@@ 0.045889040902366424
There 0.010217290070675584
emati@@ 0.020964880608956845
usi@@ 0.021941946846806344
ven 0.010425647508080334
za@@ 0.08708831007066065
λε@@ 0.057668095302873514
English 0.013615469431766485
Ku@@ 0.04407502622968888
Nik@@ 0.03968165571993213
Organ@@ 0.024461989164296885
aro@@ 0.08800218618853577
eau 0.011578614635628712
major 0.012929130486918995
qua 0.042508277604218304
uld 0.021329107837895087
Ale@@ 0.026352371954876323
Louis 0.018033147104269193
Vil@@ 0.03618039925111116
bet@@ 0.015486254980032688
eur@@ 0.0291220410850018
imi 0.07722844753149974
star@@ 0.010865593518908735
tif@@ 0.022770403064277432
ı 0.012852640827693248
αυ@@ 0.08939508212722065
μ 0.10644811961489066
ი@@ 0.9901443056241371
Ing@@ 0.028280365520933264
aborat@@ 0.04700397656942697
aco 0.05008357199471874
alog@@ 0.030155585123576457
anta 0.03132607547119472
ben@@ 0.011098242325370223
change 0.015978210001196997
ext@@ 0.016632071497294298
ingu@@ 0.024802766711377534
polit@@ 0.035633918403954905
ville 0.007104242181359916
ye@@ 0.021537145661818052
î@@ 0.015739315311032162
Kan@@ 0.025195896743388825
Lis@@ 0.06479835132906715
States 0.006959891765164314
iro 0.03327958122102612
life 0.007257714359759664
new@@ 0.01948434823527945
ols 0.012649737486032903
ovi@@ 0.03298773272642093
tha 0.05848336855327659
tul@@ 0.08003925443104232
using 0.011496391255301865
wa@@ 0.046625392752881696
Domin@@ 0.0468931659877691
Dur@@ 0.028466908474827936
Prix 0.04240277225188425
Vit@@ 0.07081459219977718
americ@@ 0.046627289416839225
ander@@ 0.02084534863725564
cia 0.04798562269816825
els@@ 0.01938975256235635
ev 0.04753691644584853
og 0.04652017902161408
ose 0.03317774358639854
que@@ 0.03042711022165599
round 0.015531032985475821
ą@@ 0.15910525298574815
ных 0.003124118850759835
распо@@ 0.0688870683661997
Chap@@ 0.03987008580076356
Conn@@ 0.030868246526549573
Kir@@ 0.014844930865666232
Tan@@ 0.04021381983821321
Thi@@ 0.048887420379165214
Tour@@ 0.027190361577167987
chan@@ 0.013670644580519751
eter 0.0133904353368333
ext 0.1337709149902532
lag 0.019074455339011812
lin 0.031549802046067214
άρ@@ 0.04736017549642433
αι@@ 0.042079122215120446
δ 0.6221899501634945
Bern@@ 0.026672031178178846
Canada 0.014932157201873231
Din@@ 0.05948732272428034
Lord 0.03406093618542998
Roy@@ 0.048081542241866865
alc@@ 0.15666543866163854
asse 0.02001090854930949
dit 0.022119745550836484
enz@@ 0.010506071896413713
gro@@ 0.007941549725015016
ingi 0.771790889874171
iri 0.07398612479844278
sey 0.04362159492951958
sur 0.002491316500530571
ungs@@ 0.0036971990488130204
zu 0.0018915121789198435
Charles 0.013657642149488142
Eri@@ 0.03865038623871407
aya 0.020401143330450563
ei@@ 0.019658447808594614
ographi@@ 0.033990228163144516
onal 0.006651018674978982
÷ 1
Ω 1
ј 1
Da 0.036362939945834345
Indi@@ 0.015565415778732982
bot@@ 0.01941806794311981
dem 0.0014534133908764234
fun@@ 0.012061882722123003
sch 0.01483069516932713
∞ 1
Andre@@ 0.02085877738927877
Marie 0.02817008892198888
Sher@@ 0.04625338184926795
Um@@ 0.01846344696027379
amer@@ 0.028015888236568195
fast 0.028956181116147943
ills 0.02350668973566741
itz@@ 0.010241196310457364
liber@@ 0.023012223855993698
oti@@ 0.023979428058935076
ow 0.015213486552291768
vers 0.006548317201964425
εί@@ 0.05091866143723979
Ј@@ 1
ѡ@@ 1
Division 0.01415500543067925
Mary 0.024571080004274118
Sain@@ 0.040250435216669864
aba 0.008319879384695713
arti@@ 0.00924827812996449
her 0.0019889379560388515
main 0.00920880983524063
peti@@ 0.01499272645130744
plan@@ 0.014329485152823012
σκ@@ 0.05320992083746233
стей 0.042072985271983734
َ@@ 0.07025026979431613
Centre 0.030587165623605507
Nar@@ 0.04656256827946411
atis@@ 0.021523016899435955
bers 0.021318440529148164
lay@@ 0.03885420281663623
lec@@ 0.03447568738386847
trol@@ 0.03177510753008805
uri 0.029094037409967088
án 0.007782642924494656
ργ@@ 0.08489556092676599
א@@ 0.706786419986677
Bud@@ 0.027439956339725798
Emp@@ 0.06306799950765027
cont@@ 0.006162445731822447
eder@@ 0.011039757208475436
elt 0.007209337345994685
formation 0.016628747917188106
num@@ 0.018316428286938944
rev@@ 0.019998110181317405
version 0.011822063020326378
works 0.013658079742247623
ī 0.13532653288867436
άς 0.12543767506113865
Clau@@ 0.03979465545198222
Washington 0.017044972628931808
dev@@ 0.008903357229114946
trong 0.004141423850443159
ê@@ 0.008269831665656343
ð@@ 0.13697330962183804
ż@@ 0.19889817131413748
Κα@@ 0.11416335096984015
να@@ 0.05206220344141162
πο@@ 0.05090940594030832
σ 0.4858763429378335
Id@@ 0.055851768514574476
Ki@@ 0.02844493140743018
ait 0.005095214261254182
bon 0.02854686411153131
cos@@ 0.04353673684271524
ilio 0.08407605324870983
itali@@ 0.020066753250598493
music 0.00922482381142871
nationale 0.018363233263453665
ras@@ 0.03307632605989479
vor 0.006586628160545932
Ά@@ 0.07511455758513615
ισ@@ 0.03928527194732868
ר@@ 0.6871352160606877
198@@ 0.029835017696315105
Hav@@ 0.03731691851488642
Kat@@ 0.02185530826512106
Mand@@ 0.04525083310849108
Mont@@ 0.018165194782438707
Pau@@ 0.042895119264668505
Rod@@ 0.029190743749618636
Sup@@ 0.05653943282018595
Vor@@ 0.0064156669648992425
Wa@@ 0.06220742927203325
Women 0.023849527237119618
alla 0.028154260116069838
ample 0.01764524829257581
aro 0.05033117698024637
but@@ 0.01601179047067008
dan@@ 0.025153752133880738
gir@@ 0.018819460870020427
obj@@ 0.012952813685275195
pia 0.2363731815160277
urt 0.013736377228192717
тами 0.052232521805564966
Ash@@ 0.03832973303530335
Beh@@ 0.04105293873285322
Cab@@ 0.03835686747699523
Hand@@ 0.018215723190023396
atri@@ 0.03666338659754437
cell@@ 0.021431260617409693
esch@@ 0.032064657072138736
get 0.014295329963648903
mis 0.028121790560440004
sm@@ 0.024684513685274176
tab@@ 0.021233395805904446
tas@@ 0.03891615360289307
ב@@ 0.8370366875226913
Esp@@ 0.021927624354785114
Ker@@ 0.03258584658996863
Milit@@ 0.024545922104752944
Ni 0.34814801130470285
Oli@@ 0.03482220030219396
chester 0.02632314021579554
colspan 0.0703832532308149
ease 0.012594916619139945
ects 0.009063379888383856
eer 0.01468773005405843
kal@@ 0.022731297126893757
ks@@ 0.01871422840722946
ä 0.1499052556287464
ορ@@ 0.03174189228808979
кие 0.03474279345975635
Afr@@ 0.07279456868493712
Army 0.015622168963382905
Hab@@ 0.03518241791929238
Steph@@ 0.03090939411864857
ades 0.011071901181100576
aye 0.0426865376882523
ordin@@ 0.017354923067880963
sep@@ 0.0258758194402538
unda 0.02615089074921667
öl@@ 0.011174259283521178
απ@@ 0.03006945830528833
δι@@ 0.0231588620267158
φ 0.1385814387485684
Ἀ@@ 1
Jac@@ 0.027591087944155088
Thom@@ 0.04656323709336671
Thomas 0.013555808275037095
istes 0.02436649672873911
may@@ 0.04051536792617497
point 0.011317807584615121
schaft 0.005445594174809792
tot@@ 0.02712632074472704
ues 0.014998826243309579
έλ@@ 0.07665891260137919
λα@@ 0.08555360466990336
лы@@ 0.017839319775539177
Den@@ 0.013970031138820588
Hit@@ 0.040093013407810706
Son 0.019739475804277814
Texas 0.021211713587840846
action 0.009917076484744458
cri@@ 0.006688860862758062
idi 0.055918282649838315
kil@@ 0.019121221591351437
tn@@ 0.04159897240537885
་ 1
Ay@@ 0.037690682040697476
anci@@ 0.012186603941225952
case 0.016902723916465436
cru@@ 0.02491214699419896
dé@@ 0.0016873935142720515
ester 0.017461713320352124
sei 0.029490702911636753
ίδ@@ 0.11161210530577993
ίν@@ 0.050773193500261334
муници@@ 1
197@@ 0.029112597262492768
Cou@@ 0.03033146094275338
Jer@@ 0.02746410801440112
aha 0.07164638343553549
bes@@ 0.005831672735276921
bis@@ 0.05827922155367468
contr@@ 0.004168176383883443
cum@@ 0.04119545328871699
lands 0.010736725713764475
mission 0.007659984423098525
pop 0.037458115877524144
prop@@ 0.007093804828954734
sian 0.01126714660568526
sin 0.014797324951252964
tei 0.03286482408968657
wer 0.01395844909864489
ía 0.0028272429061598414
ες 0.015584986872856551
ξ@@ 0.04192465295036563
8. 0.04776563883423787
Carol@@ 0.021788091010933486
FIFA 0.07126110921644718
alth 0.01230449828760121
ender 0.015485294856624804
event@@ 0.017026693278033165
gs 0.01173416791973553
imi@@ 0.032020036600373114
iter@@ 0.03921681798626525
jam@@ 0.02909511997643145
nd@@ 0.04949772685055983
opp@@ 0.020723262355751147
pi 0.11831505467980011
Γκ@@ 0.1070861598934049
ῶ@@ 1
Joe 0.0380032256579603
Mah@@ 0.020279277836394837
Una 0.04350842903641804
eck@@ 0.02194099755886067
ges@@ 0.005874089371886497
lich@@ 0.009269702961237263
vor@@ 0.00548181806970026
és 0.0024048620594077598
ɛ@@ 1
άλ@@ 0.05337287604910394
τά@@ 0.043644213814763425
Carl 0.03691944034889023
Lee 0.02692662183276242
Victoria 0.033367640218030514
atro 0.042231587634438954
ches 0.006318371907138502
enes 0.021190815742250325
eno 0.03011672483811547
ety 0.012169374155632963
mach@@ 0.0159643283503012
mati@@ 0.0345484533165179
spec@@ 0.009832381259923001
ush@@ 0.021388567407031402
ú 0.022648710113951122
Θε@@ 0.18755678451489965
εκ 0.34426942111872777
Bec@@ 0.029379164946597345
Henry 0.01734176869488969
Town 0.03194641049301727
alan@@ 0.060786211053877305
doc@@ 0.015219819149726971
enas 0.05004187168001068
fore 0.021441940286096892
loy@@ 0.012793028587908666
number 0.00630629127749843
that 0.0006557789311699535
uy@@ 0.015148817717404365
än@@ 0.005980868814333879
ры@@ 0.010680457005573287
0.000 0.0349544915822188
ders 0.014297581136031239
eine 0.0016433444177226114
isch 0.008212696070900291
ischen 0.0019979751496140147
kor@@ 0.028591325049330783
rod@@ 0.09061168050793648
tempor@@ 0.02370107932179581
undo 0.13961182841621775
éri@@ 0.006557956352207812
όν@@ 0.038142160766683836
Ѝ@@ 1
ные 0.0031731268756435382
Apr@@ 0.3856773187866801
Et@@ 0.03591403855053411
Gru@@ 0.022545597788069326
Sus@@ 0.032381894473168624
Tab@@ 0.0405897167488718
Vill@@ 0.027086373082432526
aliz@@ 0.008094008442128856
ebe 0.06110929791075492
ells 0.021255849645331497
ett 0.017234786781862552
hiz@@ 0.10099744578719809
mari@@ 0.027259363460604324
plac@@ 0.008433874264623052
qui 0.0019518239875869709
sat@@ 0.01881487291984635
Ö@@ 0.019175641969089156
αρχ@@ 0.05189321447837699
מ@@ 0.6942840629335931
Jack 0.031227156517072613
Kh@@ 0.01143970998457591
Ober@@ 0.01081752200765795
Rep@@ 0.1129947089788821
Rum@@ 0.05781589118143928
gol@@ 0.018649371070244017
iment 0.016630312628597068
inst@@ 0.010065201353581072
stor@@ 0.016927177435024705
wr@@ 0.02900460710762898
ć@@ 0.17216954020751576
Καρ@@ 0.179881810136421
κλ@@ 0.04926727497511689
нако 1
нь 0.03307290902890605
ἐ@@ 1
Aug@@ 0.03620861342744803
Bun@@ 0.047135352982726364
Hug@@ 0.02686186748062367
Kil@@ 0.040367448275999224
Luf@@ 0.032507555001109155
Smith 0.0200578904463662
aa 0.08364664816170217
anes 0.04714058888671229
aug@@ 0.028729653925699303
ban 0.014301341873455947
dri@@ 0.012681078003392394
ken@@ 0.013618983068413797
kn@@ 0.024375575928371373
ouv@@ 0.006790522088116483
ris@@ 0.018375050646380866
Ü@@ 0.03222555727758418
ό 0.017163945966060835
населения 0.029726484637700543
ἀ@@ 1
195@@ 0.03776469477244011
Archit@@ 0.02640500482785044
Christian 0.017052569262636513
Grande 0.04052043592439085
Kap@@ 0.02122303746765261
Sul@@ 0.03533910769220966
kat@@ 0.02601457572746722
sour@@ 0.01229631257837019
tres 0.00717529077905869
uno 0.012831436040727449
ū 0.08212720657128231
άσ@@ 0.05653012696786475
ћ 1
Fir@@ 0.0351644932185289
Maur@@ 0.02727393042806726
ave@@ 0.04248489868575133
awa 0.027119155691626016
far@@ 0.01695246877126202
fo 0.05379871533482912
gem@@ 0.015440046274335073
hem 0.08512156016671842
imo 0.042065156494107636
nav@@ 0.013363605755958756
prom@@ 0.006587601104274435
sea 0.01772220167137854
été 0.003758054169090008
ность 0.00789633717494179
Dav@@ 0.018299040180350827
Inn@@ 0.028357746184317453
cro@@ 0.01142533560476308
ency 0.011708005088594767
gener@@ 0.007408465889840265
indic@@ 0.018391471741328054
ishing 0.01633568887325189
oci@@ 0.022405453037691606
pun@@ 0.017355131116422003
ule 0.012545209251649163
van@@ 0.044560213596091795
ţ@@ 0.5652581154222583
Μα@@ 0.33320569936646743
έν@@ 0.03242221176109973
μα 0.03150430941501703
ων@@ 0.04927731302433532
февру@@ 1
ћ@@ 1
Rich@@ 0.013586338716665203
Stadi@@ 0.028601094709322046
ball 0.00933971760198503
gil@@ 0.03444856744766852
ident 0.006993930154258528
ird 0.0561618772601826
minut@@ 0.021235891387525633
τα 0.011354851744900004
19. 0.02628164971029834
190@@ 0.1618425310953116
Ital@@ 0.01754943985625508
ango 0.050504952988853796
aut@@ 0.009944815433106975
bec@@ 0.012620629828690801
dan 0.014581339152275047
ener 0.015022825988688098
fran@@ 0.017942132252260545
ize 0.023569174226044598
kan 0.047994656412450834
kir@@ 0.033933566904016686
mak@@ 0.013304931328882032
med@@ 0.01022359349172178
real 0.019944356219653854
ui 0.043569700962920725
αβ@@ 0.1386851811589712
ე@@ 0.9711291886437011
----@@ 0.6119262044822363
Amer@@ 0.026507732964286105
Berlin 0.011632953825817595
Hil@@ 0.020105039394415294
Joh@@ 0.020203592325598933
Joseph 0.015008268554413466
Kun@@ 0.016434473357983242
Mé@@ 0.03190601899844987
Nam@@ 0.031133739213370034
Richard 0.01558688726022024
Riv@@ 0.0792313371982943
alg@@ 0.015113618783201584
apa 0.034464863970342804
ares 0.010913162676164661
atom@@ 0.04443443519310202
bli@@ 0.023781944851909143
cht 0.009102511297341579
deg@@ 0.018514038314964815
ective 0.014242575830408175
edr@@ 0.01715602802390483
eron 0.011923771900281651
lau@@ 0.034890417885448076
ling@@ 0.0374572514605811
rain 0.026363102131754572
stand@@ 0.006968326267122131
syst@@ 0.015085079867760972
tex@@ 0.013259632502572912
uni 0.08125011622285724
yan 0.020882214520520165
ə 0.672918129191049
χειρ@@ 0.6182676417034618
ступ@@ 0.02926148257288214
ל@@ 0.7115071921692719
Bib@@ 0.030731082574899298
Roma 0.054058940246508126
abeth 0.023598985993884127
atin 0.02126065328341929
bar 0.01212130078585224
eto 0.020978653061285962
live 0.015904181717771023
test 0.02594119272232745
voc@@ 0.012086367562572567
ты 0.00786321694285738
0,000 0.01781820921499805
Arab@@ 0.03047042897516975
Kol@@ 0.020238407141837486
Stan@@ 0.028063823543868462
atia 0.07855020686032191
dir@@ 0.02342006434614899
domin@@ 0.013154399621175936
dre@@ 0.0146839341210672
enter 0.031056652572087156
erra 0.02592441824091439
has@@ 0.043785829746499035
his 0.0007343190409062312
lag@@ 0.019535937741763754
ley@@ 0.03556701540141875
oro 0.034657493882469914
rif@@ 0.01473549840689261
uel 0.019566859231717023
ны 0.004573271714207114
≈ 0.9708668685437081
Africa 0.020346450226973734
Bras@@ 0.07647743521197733
Milli@@ 0.022559336303470616
Stra@@ 0.029032911496818005
Tom 0.030208862877935998
Yo@@ 0.06623509888100426
ación 0.0014885548672253965
adem@@ 0.017767153687076306
eds 0.016325644903171444
ogr@@ 0.042811799875712236
put 0.016060658667385357
viol@@ 0.012523027185936276
резу@@ 1
Kre@@ 0.010429071679181116
Lud@@ 0.026209910057896465
anga 0.03126304115806099
bour@@ 0.017858395144180538
into 0.00257754826040627
itu@@ 0.022731415448779362
onde 0.02015455853049535
октом@@ 1
э 0.043401156591651335
☉ 1
9. 0.04137044091885656
Kenn@@ 0.02374459219579711
Sau@@ 0.028055405800160447
aine 0.008114543983466189
ause 0.023857596568713432
endi@@ 0.021236767002728602
enth@@ 0.01928646734694803
essor 0.016492998029737017
fem@@ 0.006760702008185118
indi@@ 0.012286286652890945
ishi 0.08751580494104097
like 0.007160152491797963
nier 0.031376752594203666
public@@ 0.0069541186025399
sta@@ 0.020151333315258788
tific@@ 0.03178423802811366
trac@@ 0.011487555869311075
urg@@ 0.02253676589153523
ę 1
ίσ@@ 0.04708757979345913
θε@@ 0.037946137319318916
ρου 0.07811358427929198
ках 0.018285137147743952
ש@@ 0.7158197391968064
Jes@@ 0.022609879805890295
Mass@@ 0.018320192540774938
Se 0.010165551338449928
anza 0.029328496947916245
away 0.015027848820817813
ben 0.006577451702582654
cant@@ 0.014778406357798096
enf@@ 0.011990383162206422
ku 0.07155637640709134
lang@@ 0.008914215211487974
lic@@ 0.01335774111726831
liche 0.0048202627230917085
mand@@ 0.015719796077789276
sav@@ 0.021909376279176204
spi@@ 0.005895405207673555
tec@@ 0.03221616047617519
ungen 0.002460674783144438
º@@ 0.34756942137450175
Κά@@ 0.14166758357069634
ητ@@ 0.08515301202744868
τ 0.03455943794781648
тот 0.03797784364048964
რ@@ 1
Chicago 0.017730973926800613
England 0.010002937675090345
Her 0.01702073427385937
His 0.0063699724249209454
ected 0.005057243817495705
esse 0.01142593299302654
fle@@ 0.014479939019088155
hip 0.020510619993536306
ities 0.011781595294591808
strum@@ 0.06276609827516524
test@@ 0.01689861702644666
umia 0.5626799819140964
yer 0.014836438533460054
án@@ 0.008923376110676687
Αγ@@ 0.11995724065137647
τη 0.01072621579813392
ском 0.006204430811597108
є@@ 1
ѿ 1
ῆ@@ 1
├ 0.19927533262962574
Has@@ 0.03664553800463137
adi 0.048364650863943946
aves 0.012338286684084846
eas@@ 0.011622363921488075
ement@@ 0.01718475805092291
gan 0.03145506275757232
icia 0.03468897802500265
libr@@ 0.015612962813364096
pre 0.014738766186365585
stell@@ 0.00619363516860527
ud 0.01857119381982009
uer@@ 0.011567637813356286
ward 0.011606690031040132
was 0.0002407272093792352
wn@@ 0.016338678406840494
ü 0.021779514180073952
ý@@ 0.1701634591193968
Νικ@@ 0.2694392882675296
ψ@@ 0.0436616611564149
ი 1
Alexand@@ 0.02943874496664136
Church 0.011737600429332308
Football 0.0164184409173205
Franc@@ 0.02149980513488219
Museum 0.014801486706041374
Profes@@ 0.03176556056196013
Sz@@ 0.034769883019149496
band 0.0052135248290534385
ble@@ 0.023337887832331233
cab@@ 0.011387982471732207
ference 0.01404480753452231
front 0.01575794328593228
isse 0.011307486353453975
shire 0.013497965498073123
sing@@ 0.009194735127282045
àn 0.04009561162007225
Ş@@ 0.035560881439212294
ίκ@@ 0.05535726087181871
γκ@@ 0.028704609750612096
διά 0.8659229347810087
θ 0.22129475105057317
где 0.012837052297548113
Ab 0.024277726514748556
Kam@@ 0.022112643769899232
Kle@@ 0.02006237262103935
U.S. 0.009675412541522597
Wes@@ 0.030198434312577602
ainst 0.16178414106555994
aki 0.02159026759902963
ann 0.021535118555925294
chap@@ 0.016336943273481466
cine 0.024735207824132393
coll@@ 0.004541635771337787
gesch@@ 0.005317244025333974
hips 0.008205081409938154
liz@@ 0.03980224784106621
mal 0.00868729290098888
otte 0.022644946043141177
versi@@ 0.0101475330136675
Παλ@@ 0.2533769077203675
ευ@@ 0.023511215259080776
σα 0.10959502929044568
ших 0.022518059101208462
נ@@ 0.7480520569126877
Dal@@ 0.03995253665029451
How@@ 0.02748849385357838
Ka@@ 0.04415864902946997
Mut@@ 0.02425269618478687
Zi@@ 0.01886819362466757
active 0.015153945338471373
audi@@ 0.02136841202006162
blan@@ 0.01842505292403218
gan@@ 0.011020348358558819
ices 0.01299575041591665
phi 0.11898183888194722
riv@@ 0.026274009223279205
senti@@ 0.036884012928153465
sou@@ 0.004939751977885413
ston 0.02535979441244162
vern@@ 0.03914858248545009
web 0.04085378390042432
él@@ 0.004700162858055706
сель@@ 0.0168990401407692
Bang@@ 0.0299727723548354
Bow@@ 0.023588200061618186
Nob@@ 0.0505395492098899
Pierre 0.01719166801296854
Sport@@ 0.026902396102793644
ament 0.014513108403909018
antes 0.005473400291486787
aut 0.0090136776123064
cher@@ 0.026590879233497965
ilk 0.02878444813750859
jan@@ 0.03979089822999373
par 0.001128266005969235
rey 0.016254286796618233
rock 0.014524056370857708
uk 0.03721452207042473
vet@@ 0.03903098296192968
xa 0.07529927188488528
Λι@@ 0.2389339292858355
шей 0.02750053319889949
ὶ 1
Anc@@ 0.33979590231460205
Angeles 0.01767802513941213
Dé@@ 0.016912485377287796
Ern@@ 0.018958264110391084
Hung@@ 0.027285883561699704
Lake 0.016105203557336308
Law@@ 0.027466872577436217
Universit@@ 0.023454897973771767
alifor@@ 0.08311011138493425
dings 0.012995616257249182
esto 0.026628437777436145
first 0.0013333532739562089
flo@@ 0.01108301545236326
ij@@ 0.02575097711707984
mess@@ 0.023423490651967884
ministr@@ 0.015760281284850106
ned 0.005138392282191705
nes@@ 0.06183423698823084
schi@@ 0.013778384042316023
sign@@ 0.014621977087545495
tak@@ 0.005159912431219661
tan 0.017471871343361135
typ@@ 0.010959781344000882
uli 0.10607864087946806
vita 0.6165893507971706
Δημ@@ 0.15842208176647501
μα@@ 0.05280888251346245
τρ@@ 0.03408419727176576
сс 0.03761037789439475
ῖ@@ 1
.S. 0.09175890543995963
Champi@@ 0.01166655504288058
Educ@@ 0.015469355304543112
En 0.0012769581087361532
Ré@@ 0.011799136008298305
Tay@@ 0.02710933736770338
Western 0.01533370084219428
area 0.005010849303144334
estruc@@ 0.03676380399539405
eva 0.03746656706594643
kol@@ 0.03670551437444619
ough@@ 0.008877468040723726
pen 0.01954082450923003
rad@@ 0.033048623543657514
resul@@ 0.006983043778465808
sci@@ 0.015242291155119787
tit@@ 0.010988293085013428
æ 0.392381491508538
ως 0.015401491247655424
ды 0.008070358977095907
отме@@ 0.04130296175109253
ѥ@@ 1
ლ@@ 1
Chin@@ 0.01354575735494703
Hist@@ 0.02702747111331362
Rein@@ 0.022318114782267126
Was@@ 0.07148737381808214
any 0.006400878965083707
eren 0.006558626595243367
fir@@ 0.00831946766435847
ingen 0.007870331736208583
ists 0.006689142169968404
mut@@ 0.013508052408805397
och 0.037173924116430924
olf 0.025834215394340984
regi@@ 0.009547422936849705
rier 0.02500015843876981
stan@@ 0.034797155114043944
vin 0.033383452775656346
wen@@ 0.00871873009169366
yer@@ 0.04241969722396821
Με@@ 0.10881445620955818
οδ@@ 0.047848151253183896
τον 0.008048981007446169
Ѫ@@ 1
Cant@@ 0.051898920791823046
Lan@@ 0.02654701639503891
Person@@ 0.014588370126508042
ational 0.01270162797057007
bach 0.013226317226946446
cast 0.012118439536820036
cou@@ 0.008242422157762688
dav@@ 0.01852344701554602
eller 0.018051648941594924
fon@@ 0.010866827712876632
iles 0.021041541321165036
imin@@ 0.023559409196140333
ires 0.008097352842853591
ischer 0.005735033476998873
kul@@ 0.016964194998616372
limit@@ 0.012201271886121827
lit 0.01718049396025069
obr@@ 0.11748895207548635
onder@@ 0.03783599994234749
oso 0.019444669076022096
ples 0.009836699687389825
sun@@ 0.03543592973017149
town 0.006066655171148046
ules 0.015758522040490906
unds 0.012786416216727077
vie@@ 0.0071785163471230614
wing 0.008580158628553434
δο@@ 0.0878070570934014
одно@@ 0.02573982077360033
ِ@@ 0.07226150376348696
Bak@@ 0.021931040547112125
Con 0.025984190068615732
Nati@@ 0.02239299419381873
Sant@@ 0.02776826913159617
ances 0.007961123366922417
aver@@ 0.009733050426153652
bot 0.0328605596620815
commun@@ 0.00631664768485645
each 0.006356130032646974
igo 0.03044161068628211
kle@@ 0.011282552606499636
model 0.01917351531272294
natur@@ 0.013622393174193094
olas 0.024905816765541693
ologie 0.009517286791448323
onne 0.01279165678006426
orial 0.012319411689255202
osh@@ 0.04910230115855776
over@@ 0.007004557585829165
reich@@ 0.008968461718683627
sing 0.013471230556785322
sist@@ 0.010403660450326013
spr@@ 0.00672532037018236
tima 0.03371196056461614
unter@@ 0.0039210082043374984
water 0.007909264999751048
ı@@ 0.017889133102630822
Αν@@ 0.05795814149359455
κο@@ 0.07494716789654722
ρίου 0.20761597649637326
сса 0.035336346158769565
≤ 0.7139023648953864
194@@ 0.06420144290962694
Bad@@ 0.031708764422179264
Bah@@ 0.009497173451615328
Barr@@ 0.02836712365708502
Maz@@ 0.040825338491330486
Way@@ 0.05291849416489574
ames 0.03418430155735163
burg@@ 0.019681625806749793
cost@@ 0.019225882849379088
div@@ 0.01505808185554992
elles 0.006743470912298199
este 0.005213924329144611
lem 0.018744758772477294
mont@@ 0.0287978578166181
orio 0.01926628382835808
part 0.0026379412577170656
phot@@ 0.013064558899071682
quar@@ 0.009798534911300907
rou@@ 0.01236036533628173
tag@@ 0.02338934418303218
war 0.0012071765689796
Γι@@ 0.09758684575921442
Παν@@ 0.131876279411236
άδ@@ 0.07961756788483987
έ 0.10390732852453015
.C. 0.02326140889119462
Eliz@@ 0.026705192155793884
aces 0.017616897462318364
ador 0.00495633491767161
enci@@ 0.010436658696162539
erk@@ 0.016571147705157923
kop@@ 0.044800264731343985
kun@@ 0.020354374042579962
lik 0.0424239744915657
ought 0.006220923690672162
strat@@ 0.020328262302471943
vat@@ 0.042037250380072236
ß 0.00969870894000451
ül@@ 0.009591122872785993
ý 0.030258990450004634
ική 0.012766088689401002
τω 0.298199622647653
вый 0.013251606486618127
Anna 0.029152848782966465
John@@ 0.03216405011829091
Pier@@ 0.05876277011211338
a. 0.027073987183160172
anne 0.024156494060618455
ats@@ 0.02164798276300026
comm@@ 0.003957420715675519
endi 0.07338522748867521
hat@@ 0.039428749631867356
kis@@ 0.09728013479828986
kur@@ 0.00873048478043192
mir 0.027297133468724564
pedi@@ 0.03166569982755879
tir@@ 0.014196473908149786
ɪ@@ 1
ո@@ 1
Ah@@ 0.022108229470689005
Friedrich 0.018776351465126573
May 0.004673949367291633
Ou@@ 0.026691538134075245
Sin 0.021914955249828498
abl@@ 0.010099889102820453
aç@@ 0.022501616727983648
bos@@ 0.03145934248830786
cad@@ 0.015110552388500453
din 0.04190305598963352
dos 0.004781569736951581
maj@@ 0.012328984549698498
para 0.0016913011064824239
speci@@ 0.009940769051430234
zum 0.0023651508341362383
Μακεδ@@ 0.3418546374749169
ه@@ 0.0098185135222304
‚ 0.08743293012575591
Fam@@ 0.06701089856182718
Gas@@ 0.0306843571701719
Gil@@ 0.020844315885833704
Hat@@ 0.052205305821193856
India 0.009540034753728862
Jug@@ 0.02324007632649347
Nord 0.018890101429104876
Tenn@@ 0.02261931407694861
azar@@ 0.06557962115939732
ck@@ 0.016050446108101846
cos 0.01647219076724641
curr@@ 0.010094365439073454
fi 0.09082225806155962
isco 0.1617095561401315
kw@@ 0.03909473411081026
oj@@ 0.07160751934208115
tari@@ 0.03315228409944884
thi 0.04126430735809985
tier 0.02060430740113487
ulu 0.04758936027097692
year 0.0027701633939935357
zon 0.09033967830663991
ét@@ 0.004041457603813219
ñ@@ 0.009441703073505189
Ȣ@@ 1
ɔ@@ 1
Ιωάν@@ 0.19630060949866676
ιος 0.16365219444326248
ד@@ 0.8788299892862041
ה 0.7556908383812807
の@@ 0.6767253038965145
Andr@@ 0.025027878771311185
Australian 0.012234738423108606
Braz@@ 0.021506713765887978
Council 0.01021250512164597
Jam@@ 0.025328024018199245
Ny@@ 0.06261697851130617
aber 0.005448356665281215
ander 0.019117282830371063
ehr@@ 0.008486037570942856
eil 0.026344008469272536
hac@@ 0.03567727960496683
ition 0.011007342485992862
itung 0.013944872122428776
list@@ 0.0075174052188948055
lu 0.03819051144301276
ort@@ 0.015627771559377765
plas@@ 0.031172083224002993
rati@@ 0.0074879627113004655
sed 0.008763662156867474
tar 0.02455182658065644
tun@@ 0.01954937519912858
Ç@@ 0.021485375552877498
č 0.12610422812951094
λλ@@ 0.032584383802121704
νη 0.07762589939715636
όλ@@ 0.043026674441333186
όρ@@ 0.03312957826628054
ший 0.023126006594621974
187@@ 0.1544610527772211
Deb@@ 0.018664304227509233
Greg@@ 0.03338081807649381
Karl 0.01819679236660799
adel@@ 0.017357664013289725
amar@@ 0.04071758300568376
auc@@ 0.023706143168263114
bio 0.024658370256072946
emi 0.06106958921401914
fied 0.00719412342693358
fort 0.010526543450331346
kre@@ 0.011323580251624797
mittee 0.011810571339430654
mond 0.017696775373032797
pass@@ 0.004287822293433983
sten 0.003962458301602365
uses 0.005474793954383329
vention 0.014673720495841988
ř@@ 0.047813842728345254
Πολ@@ 0.08242369565224938
οσ@@ 0.053656361160187245
ουλ@@ 0.07669025902912073
χει@@ 0.2228825645134573
вы@@ 0.0019783377269773574
Nak@@ 0.051546696270948086
Tol@@ 0.02756867983446611
Walter 0.024486226072772524
aining 0.007231359409229989
centr@@ 0.011008734559911137
have 0.0015707083675635743
juli@@ 0.5084284579977851
mili@@ 0.023019700784686924
ological 0.011045656380673261
only 0.00271805269559015
parti@@ 0.005916982197524961
pour 0.0012135312442624923
rio 0.03780577485962997
sion@@ 0.009731772803136992
tico 0.00761754279595896
vel 0.05345505930003061
wak@@ 0.03352630651768981
ya@@ 0.13176382810308962
Á@@ 0.013782449081862555
ár@@ 0.016297042563457237
ą 1
є 1
Academ@@ 0.03711415130999905
Asia 0.022960459944036928
Boston 0.021039702836781082
Institu@@ 0.026279757056578645
Ken@@ 0.0396401011069311
Kö@@ 0.016136199867830728
atos 0.019672925573843415
bu 0.011318663160227203
eff@@ 0.004119160883777044
gun@@ 0.020770226742592286
lam 0.028342955569929586
tes@@ 0.0229871596269835
tors 0.008281260239920445
ł 0.2186205751175806
εκ@@ 0.01887694595222514
ογ@@ 0.05739186796305315
цы 0.008305318115361828
Alex@@ 0.05464259697853463
Biz@@ 0.1016183651585576
Gem@@ 0.027434032091003042
Histori@@ 0.015752868562277696
Mik@@ 0.02829096781175104
apar@@ 0.009760208722389118
bs 0.008936766338917464
date 0.012370207817881342
etti@@ 0.05170905240741348
han@@ 0.03225605038621719
hav@@ 0.017940673991159235
inde@@ 0.021719551339453906
iz 0.018127360886806398
kara 0.14266369806020174
lie@@ 0.007664541930682178
metal 0.024652146422773358
mig@@ 0.010707671418092422
pio 0.0329885891871181
rid 0.052670612676763505
rie 0.028260094654583963
semb@@ 0.009403489118791448
xe 0.017873040281163884
Καλ@@ 0.15412631182567293
εν 0.09225477612855998
πολι@@ 0.08178552393307903
ρού@@ 0.052659362310938256
ῦ 1
™ 1
Bill@@ 0.03268977044490406
Flor@@ 0.02511449467710493
Francisco 0.013528158443120164
Histoire 0.01905195193935732
board 0.013626604916636689
chn@@ 0.07751728787351361
europ@@ 0.02113292206057239
fig@@ 0.011265999622665604
fron@@ 0.015288346725637718
ging 0.011210165134859791
imp@@ 0.008883715914762641
lek@@ 0.027684997788681335
rant 0.020819229061532593
tural 0.00780277235842432
uki 0.054804027999847134
werk 0.017024804621171674
ń@@ 0.051384044710030254
Δι@@ 0.04985338084404628
ις 0.2383499343117739
λά@@ 0.11832380022105751
νης 0.09183422409048954
County 0.004404581068435648
Hay@@ 0.023969861160449454
Pour 0.01810632873725459
Simon 0.027804963371035062
They 0.004742183149030569
anas 0.02107098009873979
angel@@ 0.01764620333786862
bei 0.0018501373431463563
bin 0.0323424742610967
bridge 0.011804986869981408
dest@@ 0.02460328410767766
fall@@ 0.013481302330193302
leng@@ 0.011446246030068724
park 0.01435254383495583
sky 0.017539418680506593
sons 0.01345942579340189
tran@@ 0.016274016698294775
ö 0.06902927106375105
ě 0.35580751543379885
Δ 0.172133298843827
Μπο@@ 0.23215438291669874
ών@@ 0.036291113374533224
Боль@@ 0.030314325473264812
ꙑ@@ 1
Yor@@ 0.030942866704429126
acht 0.007015666493316451
anim@@ 0.006715686754381017
eux 0.008865431819778854
gether 0.009321744920809503
hand@@ 0.00554628295406098
kit@@ 0.040158442255446035
kt 0.005981942625345276
lik@@ 0.008678978240342743
lor 0.022669214352079466
met 0.008028460797652145
show 0.006572495680255643
tru@@ 0.012188392733088438
tt@@ 0.027336269927901898
uss 0.013500751705166639
wel@@ 0.008524442859240101
Περ@@ 0.1863162436082879
ья 0.012614290861602989
س@@ 0.009371870963058354
192@@ 0.31054664145337463
193@@ 0.032882707267478016
Bau@@ 0.006769717593740092
Kas@@ 0.021709044301464676
Rud@@ 0.025480318543807383
ables 0.008508909447692685
bol 0.02212726586578232
bom@@ 0.02400020848847435
cial 0.006584131830116844
ern 0.003317938923958474
iche 0.021979034489092504
inv@@ 0.004231693225712453
ligh@@ 0.01066843305131403
sab@@ 0.022072312312914903
say@@ 0.009977414941037162
¬ 1
õ@@ 0.08071048572243279
Άν@@ 0.14258957754465015
αδ@@ 0.06793841063025141
ηλ@@ 0.07276928876603121
υπ@@ 0.039897915845325024
υρ@@ 0.07632653854350534
ты@@ 0.007238405478954298
.000 0.027539757795098933
Bundes@@ 0.008207860407739612
Daniel 0.018444543701441888
Jor@@ 0.0190790463899921
Kul@@ 0.017984453205636255
Penn@@ 0.01664990363194054
allen 0.022614961582747756
asser 0.02185903067768139
ecture 0.011604230725942336
ierra 0.0278899238434407
sort 0.02324878651982208
system 0.005373900832801446
yal@@ 0.03361515446361098
ğ@@ 0.015696418577626627
ούλ@@ 0.21933112118952217
ългар@@ 1
ם 0.8725955112978834
Ant@@ 0.02680485883530328
Gel@@ 0.016613110758962154
Institut 0.026285227635519264
Jack@@ 0.0458452089897041
Tam@@ 0.01944452220842468
Tek@@ 0.08981897722928928
aud 0.022901008164563624
aza 0.013042285287011578
añ@@ 0.011630385216626276
bab@@ 0.03658861845683282
blo@@ 0.013219025611618912
boy@@ 0.02335303777871725
his@@ 0.05921568972617273
lot 0.009791917378984825
ograph@@ 0.012656429033431059
ongo@@ 0.07419823437620449
ool 0.12669736092725303
prises 0.021655656224960195
üt@@ 0.010419657048764543
İ@@ 0.018434000443207105
ύρ@@ 0.16283208062130025
Его 0.032183347131322114
ր@@ 0.883423089716123
ὐ@@ 1
Kais@@ 0.019739080734094798
Leon@@ 0.024771111076778127
Nord@@ 0.010772747017755177
Ost@@ 0.02020455631927163
Pad@@ 0.026492419822218435
Wir@@ 0.0192147125505553
abe 0.011464765066488069
amin@@ 0.021045485747757057
arias 0.02994996199553606
dat@@ 0.02099860325922404
dil@@ 0.033665971783418215
fall 0.011491940309218058
hai 0.01251797234308002
heim 0.015851428300568883
kt@@ 0.02398607696114004
long 0.004639748453454217
onald 0.02041559254302297
road 0.007568518516568047
ste 0.005746822259798637
syn@@ 0.010609913051368025
title 0.007806839692351115
trav@@ 0.005288361113495093
té 0.005667100121796982
vas@@ 0.025547834374561155
vie 0.012814073547727865
zur 0.002834226459783469
äl@@ 0.005635980857942739
ετ@@ 0.05491538639137418
όσ@@ 0.047642657402797516
ნ@@ 1
្ 1
186@@ 0.14750048861474924
Ba 0.06153366254387439
Ein@@ 0.0035148693011401804
Kad@@ 0.03551776007917913
Kim@@ 0.061427769194690625
Nacional 0.013924685790952896
Spi@@ 0.0073540287064066245
Virginia 0.014579676183098318
annes 0.02026673626078668
aster@@ 0.01966968744076057
but 0.001204777295614179
elt@@ 0.016093851803463132
eral 0.01704368381467125
ig 0.00758150802650053
ige 0.003913241839851413
ked 0.006529716315232119
mont 0.015461211487082885
omin@@ 0.04822860535444665
ority 0.008156366138089427
pad@@ 0.040730340463941514
spe@@ 0.0063802614174507674
tique 0.007983049724356256
tour 0.009456441246881097
umi 0.059178677881067454
ór@@ 0.010996955627852191
Alexander 0.015157120300514816
Bes@@ 0.0067515190974669825
Cum@@ 0.04454486033205809
Johnson 0.018927971919546184
Kri@@ 0.01455859624712709
NBA 0.02865696712007813
Scott 0.020002880485265714
base 0.007648000610930148
bau@@ 0.008586250288187719
dans 0.0007767047662661422
dh@@ 0.015467265882098088
dist@@ 0.0040541573811232025
edit@@ 0.010731983087468713
ember 0.03196957382120502
eyi 0.15714831931659448
fica 0.01666520837193533
him@@ 0.009691899905219035
igi@@ 0.02378461795505008
iler 0.01616766741164482
iste 0.006139330200922505
jer@@ 0.030150478399495872
law@@ 0.010749947579181983
ments 0.006939987848016849
perior 0.024240859350458867
post 0.011531960542619835
publ@@ 0.010440772120042735
schule 0.013521046967261528
tad@@ 0.015710362800877196
track 0.009458281605946858
two 0.0013411698722454644
έα 0.09720194628800416
ην@@ 0.10359477985527239
οφ@@ 0.05009169018807591
ρε@@ 0.04006452940556725
ию@@ 0.03151987750401253
ر@@ 0.009206181714454005
ي@@ 0.004829526901638561
,000 0.014926315853311879
Alg@@ 0.023420141260704585
Australia 0.007631857672301359
Edward 0.015757197982839723
Ord@@ 0.030635947166102767
Roman 0.011873142320824686
arte 0.031700501282887907
eas 0.007732268112244168
enberg 0.02104310491101442
force 0.010851074510002025
geri 0.10841341911850969
icio 0.009819363605283354
illo 0.013843833003635658
inning 0.00646283771250174
sel 0.010018477083995317
tag 0.021696274884278652
tional 0.00472419183240694
writ@@ 0.0050727161387754275
zel@@ 0.02481504874687574
ás 0.01264679182140152
ǎ@@ 0.5481767782002144
Ξ@@ 0.22858917583167737
γι@@ 0.05878590797144652
οπ@@ 0.046754006115365045
παρ@@ 0.015847988676137608
мы 0.006659950237474196
Govern@@ 0.008494118722480206
Heinrich 0.02100343193027555
Shu@@ 0.06556601209537904
Wilhelm 0.018652868154653418
agne 0.0063935605813357525
alen 0.013410608969182714
ardo 0.018328527104043486
bou@@ 0.022943517192746347
eki 0.08764293272057942
emple 0.03217787905647392
group 0.004361620719248475
ina@@ 0.11227281714269706
ingo 0.035221426005229595
kap@@ 0.020604011426567488
mar 0.01617837957278812
next 0.008056673251578559
ob 0.01688081657582942
orie 0.014128610807543317
ref@@ 0.007206272386778232
toria 0.02335943151335136
uo 0.04258316195144609
visi@@ 0.017706091068237416
Он 0.015212928312925724
августа 0.01851752833637804
ْ@@ 0.11561745068705027
ვ@@ 1
Anton@@ 0.05018458835685139
Deutschland 0.011184352354942192
Europa 0.015165887718266092
Gran 0.031563949931499774
Les@@ 0.02258190162739662
Nach@@ 0.006159393414589492
Seb@@ 0.028901689545272006
alo 0.027365481755493054
atur 0.017922532296079433
auf 0.0008359713660550591
car 0.006336516921134626
chen@@ 0.012426050419287472
det@@ 0.004633983820874799
frag@@ 0.018436420078914408
gar 0.012460171446083542
ils 0.004338899719060795
ismo 0.010833745109594891
lang 0.012753315023099916
mani@@ 0.01785720777497275
nos 0.018682886473960623
offici@@ 0.004506160995375326
ono 0.05348137095689808
order 0.006616135519209858
stanbul 0.07323633204855048
sup@@ 0.003419117905544127
tech@@ 0.07814136209586729
tur 0.013646870121469406
uz 0.030557754235468165
ön@@ 0.00871071330594445
Ό@@ 0.06175355201137626
ζ 0.09773623114873273
смер@@ 0.022016644024572235
ע@@ 0.638148019370155
Kos@@ 0.026607131556098746
Pf@@ 0.009558130523500229
artic@@ 0.008802935054042369
ded 0.005788999207531981
engine 0.019355349949162066
fication 0.008579262885101385
ific@@ 0.008336719306732574
ilo 0.04467447934495932
lies 0.009416985929039043
mix@@ 0.012308412969548784
sir@@ 0.031929193277477515
tly 0.009001828789850938
ui@@ 0.04460388186212633
ved 0.0025728790903552833
wes@@ 0.006974197395015826
ég@@ 0.0054243343848016075
ē 0.46024143160662195
Ε 0.1483821601491092
Παπ@@ 0.25470522702689624
ίων 0.06299572428401115
ιά 0.08814221064009124
πλ@@ 0.023430202746289888
испо@@ 0.1935911127688424
чь 0.024860324924427253
ָ@@ 0.849457475924678
ת 0.7246619830987733
Albert 0.017761731896470644
Canadi@@ 0.01014298439834561
Kamp@@ 0.02431606721780748
abor@@ 0.004838764749713831
ahl@@ 0.0090471765875779
ande 0.010310080326195691
atura 0.0233287268012105
auer 0.012197561506933654
avi 0.05489867463052801
bre 0.0074853493779595435
chem@@ 0.01070744943213125
chev@@ 0.021800447385890608
forman@@ 0.05606898566407531
hie 0.012805784542979313
kam@@ 0.0343682579984712
led 0.002883272398767434
nea 0.04516490929873383
produc@@ 0.003241218103406082
seg@@ 0.012258329848301932
tent 0.02047912693331573
vier 0.007133337360029726
west 0.005167593942259083
zen@@ 0.02423611157637604
âteau 0.017478207151962646
უ@@ 1
189@@ 0.10899474204347143
Hoch@@ 0.01078706951853572
Mär@@ 0.07820900090765708
These 0.007405484827477461
Unter@@ 0.004837079681457287
Wag@@ 0.03172510197315525
capit@@ 0.011595294765228258
cla@@ 0.005910019970594281
eg 0.009269547136020321
einer 0.0016864682949984553
eka 0.06948667182836167
erst@@ 0.008450621488652447
iko 0.025421242938738514
oir 0.013139463475039198
sti 0.2505239839423864
trag@@ 0.012027412615812529
ulia 0.14089190736366505
þ@@ 0.49797607874239047
βι@@ 0.05092415251282329
μά@@ 0.038739498809834676
μι@@ 0.06736805375471135
время 0.005155149764987678
скус@@ 0.4186070316917888
язы@@ 0.010882818676152522
џ@@ 1
ѡ 1
ן 0.7202151465674791
ل@@ 0.004538188765996386
17. 0.021765381380120002
Frank 0.01584399606352409
Jos@@ 0.02780905835434782
Mex@@ 0.015345033594419818
Ok@@ 0.02656062006967447
Sak@@ 0.029512953994893232
ados 0.001973787107868777
bora 0.4134491043985034
bury 0.015069876513907444
cent@@ 0.009381843445837593
dam 0.015200707797090953
det 0.007404555382030552
entes 0.0036189569378512034
etz@@ 0.005240971108325158
format 0.020645332158590497
had 0.0007913037618510913
kö@@ 0.023056220579381986
ongo 0.030809269018732193
serie 0.010123155291823113
tain@@ 0.006166045904855897
util@@ 0.01995752686744576
zer@@ 0.022125050773535132
Ś@@ 0.09462019304642368
Έ@@ 0.03572582837803023
Γεω@@ 0.1778491766361871
λί@@ 0.10955796466087847
τερ@@ 0.039394408446826616
τιμ@@ 0.13398994080359788
το 0.0023752376525190944
τσι 0.4297428463474881
ких 0.010468631063870793
мы@@ 0.008259721359639764
მ@@ 1
Rech@@ 0.012270326634585542
Sach@@ 0.020972732851898584
Sah@@ 0.03983963887209492
ativ@@ 0.010571479814452892
dir 0.00957317170496846
dra@@ 0.00710679194293897
ede 0.023520279058457327
ended 0.0033318834032616085
film 0.001960469231795453
grav@@ 0.017476736929784274
head@@ 0.007366784691444229
identi@@ 0.003747936128153761
many 0.002220904897294336
mula 0.04238000666441398
nen 0.005698474901308616
see 0.005657815943055764
then 0.002152022889218432
urg 0.009048054246110238
wig 0.015343956168849324
¼ 0.6857505021745369
ün@@ 0.004740728373720383
ησι@@ 0.21210073388528433
ιλ@@ 0.03740830616074761
πρ@@ 0.04064876640997944
ق@@ 0.007468643526957905
ἰ@@ 1
Arthur 0.017364002655574508
Klo@@ 0.019104691698990827
Olympi@@ 0.014179198031630076
Premier 0.01671000027699705
Williams 0.01605867588464778
ansa 0.22181776369983944
control 0.007621404089199558
dial 0.021368185770842988
eler 0.007023621251613576
high 0.004214134675337258
iff 0.016932327922908757
isten 0.005767174636833363
leo 0.03979049392854787
lib@@ 0.021264433541000195
mah@@ 0.05116288535169448
map@@ 0.03817451397378069
ography 0.0066113970588761355
pend@@ 0.011137340114799742
trad@@ 0.014731103901574519
used 0.0017466959859656973
én 0.018732327070631445
ín 0.009828848516486613
û@@ 0.009959752631996353
Παρ@@ 0.051035245454328367
ημ@@ 0.038211105063094664
όβ@@ 0.16479973561290806
Ь 1
ს@@ 0.9210430721399139
Hau@@ 0.020782382386790407
Wak@@ 0.06158081287410239
aden 0.012238573297422721
alled 0.018839856828263973
azi 0.020660530613152244
berto 0.019007852763201213
caus@@ 0.0058306797022576575
conn@@ 0.0037826384471338595
cour@@ 0.004214440545931613
cription 0.007020646432381276
docum@@ 0.00670499618426548
echo 0.025836558572823368
has 0.0008050762696081255
icos 0.007004886441674382
ife 0.0070876355299453195
law 0.006267450780584908
ois 0.015986297358501933
power 0.006770250729479159
ppe 0.020067170622001907
ses@@ 0.009374932992404742
stadt 0.008715595673624614
stant@@ 0.02068319881919978
vec@@ 0.022533799212346606
will 0.003474425375214724
äd@@ 0.009727395037593522
ça 0.026543786045027346
Κ 0.13324626975999096
αθ@@ 0.040040850557919054
ιερ@@ 0.10665844392369389
μαν@@ 0.07958708621006165
μν@@ 0.12187063712032375
οκ@@ 0.048929455769784115
περ@@ 0.04391595732028309
ραν@@ 0.09153874683929278
υλ@@ 0.0473357875883887
бы@@ 0.0073220638337900415
ְ@@ 0.9470484821332911
ּ@@ 0.7783982171756548
ח@@ 0.7810526015479504
ِ 0.07409898752978322
ო@@ 0.8363836969287437
Democ@@ 0.009646584345355
Flug@@ 0.014981662254721539
Grou@@ 0.04966688640981651
Herr@@ 0.012461479996456085
Hosp@@ 0.015066528981260352
Jackson 0.018431440837486462
Ji@@ 0.03386990661074579
Jose@@ 0.020462262789370897
Papa 0.10257217886427965
St 0.00944884672430253
ativa 0.02314560691468546
eng 0.020516962492374696
eure 0.018293573875931172
fan@@ 0.009359770289540634
fen@@ 0.015437740138880175
haus 0.01645333486556236
ible 0.008410976980522684
onen 0.006340055849010045
ording 0.007652181360235156
plan 0.008282646822158832
por 0.0006700835787912433
program 0.008296106665610837
rat 0.01389850773122828
sera 0.01852794649073902
tiva 0.02733961204829512
uba 0.021627163391233575
vania 0.014742699752323826
ž 0.2769278307272295
Κυ@@ 0.14253160826623146
σης 0.025284376539470056
ωγ@@ 0.1162196671449116
ны@@ 0.023692698197550092
ն@@ 1
ح@@ 0.006903133708514345
া@@ 0.6014422170153696
⁄ 1
≥ 0.5700361088518294
└ 0.20074023203931862
Arbeit@@ 0.009765018824389978
Baz@@ 0.053604734600336844
Juan 0.009538464158835105
Kab@@ 0.02191761975731931
Lig@@ 0.013982079463823367
Nag@@ 0.021124976859811823
about 0.0021469247584035905
acter@@ 0.011418606603420537
ahr@@ 0.008221531161316957
alit@@ 0.011525758339825528
amba 0.048870715957787775
ancia 0.01240915497359827
anos 0.0075212875116554044
bed@@ 0.013146590096353626
ectiv@@ 0.00944050738701801
embr@@ 0.02631237915896128
erie 0.012943024868652475
father 0.005333607554997643
isis 0.01627462335514618
mam@@ 0.037644408633611105
position 0.0032391372832426906
red@@ 0.016011172573197553
riff@@ 0.013880867416121791
sie 0.0014041923460440598
solo 0.007840139190610827
tou@@ 0.006701537864188557
uj@@ 0.058551255963539085
ving 0.006875583177607007
¡ 0.1237919260103519
ém@@ 0.006500320708483187
έξ@@ 0.11835526421972649
ϊ@@ 0.06844294668821538
России 0.008571831925703748
ать 0.003439524677442034
ִ@@ 1
כ@@ 0.8343028330378263
ῦ@@ 1
188@@ 0.08792853013572649
Ali 0.02143002315866078
Alt@@ 0.01926347765140481
August 0.002329692407112539
Florida 0.012611659082112045
Haz@@ 0.04755899765406786
Jap@@ 0.00680161140326424
Politi@@ 0.01100360438000438
acha 0.07119503691031749
acu@@ 0.018504704913780208
aise 0.012180258736150201
atu 0.07364156431281615
ball@@ 0.00894134291334354
best 0.0057021456149318585
cas 0.010407073434172779
eda 0.02507240755103244
entre 0.0016864782457407228
esh 0.0148246027053409
isha 0.045204601659190095
jus@@ 0.007041258483092464
proj@@ 0.004377094104188343
zona 0.010632597114315178
´ 0.10628500528516881
Ä@@ 0.011275670734245964
ées 0.001808144811796441
ė 0.15440863062374216
ɑ@@ 1
αν 0.01639930661978494
ικό 0.009048721523770545
πι@@ 0.06236690974548332
τί@@ 0.03854890192668818
όκ@@ 0.07526035554182396
времени 0.020372009258712978
ن@@ 0.007405204117849304
ბ@@ 1
13. 0.02082235645019828
Alfre@@ 0.018421968484239885
Brand@@ 0.01876043561329901
Chic@@ 0.08029866483539479
Ein 0.008712644366307134
Frank@@ 0.015114985645961239
Nig@@ 0.043929499980635285
Nis@@ 0.12385103860767847
Schwar@@ 0.019787480475003373
Sir 0.012343463521105722
Vik@@ 0.024560955854009626
ability 0.007142781111958978
ague 0.0057940455303614816
alist 0.00692861500276078
auf@@ 0.0013547653454154677
ayo 0.02443998959233811
dul@@ 0.02544824385395977
inci 0.050434792229198416
kia 0.14993184395635695
ograf@@ 0.01372609672603041
open@@ 0.010562760502230682
partment 0.0061474547031248
pas 0.002852236629845815
place 0.0023331962349606816
play@@ 0.0034879867296053
weg@@ 0.0077718622253505135
wi 0.10112653726139292
yar@@ 0.02592238071515564
ène 0.007727649771552706
ès 0.004796945326257389
ın 0.006152833084858435
̯ 1
Προ@@ 0.07768891416942623
γραφ@@ 0.03956445549754614
εύ@@ 0.025213803637055988
ιχ@@ 0.16405527078354507
κας 0.10606040127659297
τικής 0.058632899968632475
йский 0.01634958034505573
куль@@ 0.009338150165819294
ческий 0.01931369585795469
ѹ 1
م@@ 0.006358898962160775
ꙑ 1
Jersey 0.016803644698117466
Johann 0.012872131075347822
March 0.003020903639863213
Sta@@ 0.009118844675727097
Yes@@ 0.12203101628933229
alt 0.009888587891981796
ana@@ 0.03760649522643519
aten 0.00417536574477532
city 0.0031643069500341577
due 0.003964757352122176
elem@@ 0.01680079743854567
guit@@ 0.010038569921367249
hau@@ 0.013516709008227181
igh 0.026273843457705337
liter@@ 0.006765963866419745
nig 0.015548144092539056
second 0.002177583593200907
single 0.003921903849726516
œ@@ 0.010494401704256178
Ž@@ 0.058174624039809365
Πέ@@ 0.14473396802174793
γραμ@@ 0.07549044615045325
ιδ@@ 0.07009999599188234
κι@@ 0.1584337250100724
υν@@ 0.06867464482008169
όπ@@ 0.0524005695253703
собо@@ 0.08767960379589342
ссо@@ 0.010868844722316551
ب@@ 0.003645165675865662
د 0.007911512800526151
ه 0.006914959213412959
រ@@ 1
Argent@@ 0.021458122900936207
Ben 0.020799972746672977
DNA 0.02748484279870937
Film@@ 0.015947753881886618
Kaz@@ 0.021403654661869456
aland 0.010614180667965219
building 0.004317156480271945
educ@@ 0.0038717608952004152
famili@@ 0.006086115091805964
gli@@ 0.017929627680572702
kri@@ 0.010975384508738743
lan 0.021000225651452407
lim 0.022043782760167864
lé@@ 0.009707574196142696
mom@@ 0.011445973161800101
nie 0.017959610335556937
oy 0.0252394407605086
progr@@ 0.004391776603601281
sk 0.016965948113074503
terior 0.01280406431819224
zar@@ 0.03478255778555017
zone 0.01210364061252186
ė@@ 0.17643603184695683
˚ 1
Λ 0.4886424632006655
μπο@@ 0.06325488387377298
ορο@@ 0.1726079281277262
ρέ@@ 0.03467469160607622
ρυ@@ 0.11570486087128483
σημ@@ 0.045151867554537255
Э 0.07190045722682754
лы 0.009937788955708755
сс@@ 0.01525056184335164
что@@ 0.029138109213433752
≠ 1
Geschichte 0.005668848327095429
Kim 0.02044111711080517
Mün@@ 0.008600363653877863
Neu@@ 0.011491683439393843
aller 0.005102048862288328
apon 0.05596647548631813
direc@@ 0.0021955755405741457
dorf 0.009822083653944734
ehr 0.00863931843132519
elen 0.0052250094014598195
enda 0.016297346767169967
enst@@ 0.011784942675009473
ezi 0.20424303889926249
isation 0.007025684306059328
itation 0.011313152782447737
its@@ 0.012893015145863357
jun@@ 0.027012704433233763
jur@@ 0.006708212649445543
popul@@ 0.0060067871725507154
pose 0.006371324550124887
requ@@ 0.007176327738322177
rich 0.018550404121394828
song 0.003661788904879905
stand 0.004205141487919676
yu 0.04609645377979619
ál@@ 0.01902118310304152
å 0.14193897761180727
ś 0.4107102160893943
αστ@@ 0.026990273176261213
αφ@@ 0.02656045577909874
εις 0.04756404658323613
θος 0.14982772714515472
ξ 0.1407100254615713
οί 0.03320420959298154
ουσ@@ 0.06278233052881943
ρι 0.10874665406561389
χώ@@ 0.09721932890944418
ры 0.006057812324288451
ќ@@ 1
� 1
Christi@@ 0.018677070852782397
Kid@@ 0.07285079529118191
National@@ 0.008804094717352334
Schul@@ 0.010147826423514385
alle 0.006157861127031799
ambi@@ 0.0159302192395633
dez 0.015719691089483175
dies 0.009074200290166479
epis@@ 0.005340018489809004
ers@@ 0.015534849690762059
geb@@ 0.002174179556760378
grup@@ 0.012471174950942429
hard 0.011352454270988044
ht 0.015027234889236647
ief 0.007351336503635454
ional 0.008601926329824138
language 0.007124696296158912
modi@@ 0.010568421969040039
nec@@ 0.011040097451826736
nin 0.01411126840410072
onto 0.009120331010888227
pes@@ 0.019437344877088536
princip@@ 0.005540526251677372
resp@@ 0.00565178889870459
termin@@ 0.005347137678054721
üh@@ 0.004111190544340544
Αρ@@ 0.08150079394924878
Θ 0.7293766786242535
Μαρ@@ 0.06337220757598822
έας 0.08265724855204645
αντ@@ 0.04691641159409336
εσ@@ 0.1408420750585151
ρα 0.04472612495202825
эн@@ 0.015507955432652208
ե@@ 0.7608483253987111
ר 0.6809122689470113
ا 0.007884176589299224
∆ 1
⋅ 1
18. 0.014956632501448606
African 0.009102536991837941
Akadem@@ 0.026871250499292135
Antonio 0.012307541158510652
Califor@@ 0.05087813267650124
Carr@@ 0.02057723843889883
Stein@@ 0.015379794649528013
Zeit 0.004758001491426743
adap@@ 0.007739341799208896
adu@@ 0.019665823276675137
album 0.0019419386586932992
athol@@ 0.004955007255359873
bak@@ 0.02408804627978456
bas 0.02232470180483506
bern@@ 0.018621930713223357
cus@@ 0.007078360778136025
enh@@ 0.008649318161669356
him 0.0017133320476168123
idad 0.002045363123194793
isches 0.01514853280142093
lis@@ 0.030198677572445383
nam 0.010377096802422972
simil@@ 0.018702836343366235
tek 0.0582411265059145
zer 0.016859003691633914
ät@@ 0.004224934276115649
ê 0.0173572963572626
ʃ@@ 1
Κο@@ 0.20535327356694932
άγ@@ 0.03307614497667806
εία 0.020067967550682624
ουν@@ 0.05395403499420607
ουρ@@ 0.12861810208602703
τε@@ 0.025979155958220534
имени 0.018570481435405815
ить 0.003849956011506402
ـ@@ 0.08681007896267216
16. 0.016823942398455756
Ohio 0.013431865364452665
Pia 0.27349587096473865
Portu@@ 0.009395430154971919
Yer@@ 0.06859797235757413
based 0.002970387495562456
class@@ 0.005215403883040945
dru@@ 0.009609509589545337
ending 0.006412483195748684
erre 0.0101079227062268
game 0.0029053963311114713
iliz@@ 0.018138553342435443
inn 0.011162431844907134
isión 0.005400542672356533
issen@@ 0.01566910573630319
jug@@ 0.0061644428474637025
med 0.01830009431172166
oko 0.04851449635234973
prob@@ 0.004653988704851661
sich@@ 0.007529223884073625
times 0.003755859697627004
titu@@ 0.006359592047600006
tros 0.0359881647289911
tung 0.003988485089635627
uel@@ 0.019579506309035325
unge 0.025492351015485762
yana@@ 0.5385813214112342
Öster@@ 0.014337746945188072
év@@ 0.004408147120287987
ń 0.06152108295362559
ș@@ 0.03366858979249711
ιτ@@ 0.0852086440162956
κά@@ 0.038487476286179975
ση 0.010963515520098222
τέ@@ 0.022375376351158344
҃ 1
ի@@ 1
د@@ 0.006814027008400804
ḥ@@ 0.18241044511124632
Fern@@ 0.005922697685615443
Parti@@ 0.01493637277754992
Span@@ 0.007555924221073758
Zw@@ 0.009119137844578663
auth@@ 0.003928855399230227
clos@@ 0.006178471872514049
cu 0.0531848023577822
ecto 0.012997413803795568
einen 0.0016354932573147962
ennes 0.008287142694080894
foc@@ 0.00721981525695589
grande 0.008559100733510952
han 0.006477376467185342
heit 0.006206367776503255
inen 0.009743352058935463
nt 0.008098262888042497
ogo 0.03954099336933118
undi 0.09652326511083265
utz@@ 0.004103943924726456
wie 0.0027204658996744695
yeri 0.07826372250855276
ân 0.01405105882936427
äh@@ 0.006083456959885697
über 0.0016236675334897247
ț@@ 0.06369069338123678
Θεσσαλ@@ 0.8274325595987769
Τζ@@ 0.04225021105470478
λόγ@@ 0.09911288185160198
μεν@@ 0.046486862182880055
όπουλ@@ 0.13540361376179505
няя 0.015326477909501455
сы 0.009501718504239134
ый 0.02004934133437819
ն 0.8278063714621602
ל 0.6609014980095551
أ@@ 0.004309159458427578
ش@@ 0.005722971077432749
大@@ 0.001967209482064974
14. 0.017581270052061247
Berg@@ 0.011961878000899085
Schw@@ 0.008770700246426216
Zeit@@ 0.009718228606540093
aissance 0.010422923140037623
amen 0.0076744120505651495
angi 0.058272212776198956
aum 0.007273272307715342
auto@@ 0.012647160266916644
ayr@@ 0.02604775624554663
deutsche 0.013674723929840352
dici@@ 0.031061666931701544
evi@@ 0.0337585442150005
exp@@ 0.0032549219919051505
extr@@ 0.004702241084326286
fut@@ 0.006326361526181687
hil 0.030207575887526893
ided 0.0063275574948943435
kas@@ 0.031389720822342676
kno@@ 0.008538674015995814
leb@@ 0.008295774289114783
nach 0.0010751685810616645
rech@@ 0.004233330374981162
series 0.002371838813716538
some@@ 0.00511006600122877
station 0.002852660888632471
studi@@ 0.004548850657323418
temp@@ 0.0046208167073841875
ç 0.014106426914647136
ères 0.003648781295057123
üs@@ 0.005564894366481431
ɛ 0.874154307352987
ʼ@@ 0.12260904475265963
Γ 0.09832286059643618
Το 0.007705586496059839
ήλ 0.15948566963061936
αί@@ 0.023193408653467525
εβ@@ 0.059896813961921765
ικός 0.031068403359142814
νι@@ 0.1662601642089591
ράφ@@ 0.11873521192272612
зы@@ 0.009038190744865497
льный 0.007237745536241549
ւ@@ 1
ز@@ 0.0072715150006805495
ى 0.010538859830165137
ُ@@ 0.024061178649242763
ា@@ 1
Carlos 0.011150173360322932
François 0.013223062775186992
French 0.004046836148151388
Mp@@ 0.23401937302564846
Olymp@@ 0.006855137035241377
ained 0.003507585052458927
anni@@ 0.01755573973435141
atique 0.01022349330874693
contin@@ 0.0054081840202643595
edi 0.03133394471504293
eras 0.01136931298321116
ered 0.002784873668404082
hap@@ 0.012473778831639767
hist@@ 0.014646787649843375
immer 0.009196410916447526
last 0.0040759389166248865
lich 0.0009707248626206755
march@@ 0.014076551517612754
nuc@@ 0.012024094058239529
plant@@ 0.009338858466983806
roy@@ 0.016094269148604075
scher 0.009429458318249042
tent@@ 0.01321931505312254
tras@@ 0.01205533817179946
tribu@@ 0.01234724116164297
uro 0.02019817303532186
usi 0.10652987751583254
öh@@ 0.005440135840022944
ühr@@ 0.01126300879948289
͡ 1
Βουλ@@ 0.15702134787626326
Κου@@ 0.1779671137559724
δε@@ 0.025084411978052928
ιστ@@ 0.020591115095431576
μος 0.11768281204331012
οπο@@ 0.04946229073975076
υσ@@ 0.05101980030318233
όφ@@ 0.056008479241516446
ώργ@@ 0.14218272519560188
росси@@ 0.011901489805110157
своего 0.016248793868534235
ї 1
ә@@ 0.5050709771855895
Compan@@ 0.06736433714885186
Franz 0.01603938403286754
Gö@@ 0.01549421934694047
Hans 0.011912942235101458
Leben 0.005024014904692935
Ped@@ 0.048886688695378766
aje 0.006059030044233257
aron 0.0024591611500864516
bau 0.007884611161714237
bay@@ 0.02420511187880264
buil@@ 0.0055292969576038395
club 0.0023574911330867783
führ@@ 0.004124323926535855
histori@@ 0.003912790326913979
home 0.003288736253324625
imba 0.1466600660861363
isto 0.03865425646343907
kad@@ 0.018152804539484136
level 0.005616538560697106
má@@ 0.008499958876480964
ograp@@ 0.015264142836228066
quali@@ 0.007286749158727878
sans 0.006328253147602092
schrift 0.015421726860631342
sible 0.008474098708225112
soft 0.04757956526660626
Ανα@@ 0.10304574606202958
άχ@@ 0.158947727553044
έκ@@ 0.03483066246518903
ήσ@@ 0.07657778078957679
ιώ@@ 0.13585427191078922
μβ@@ 0.027542085225344782
ξι@@ 0.0708339309827957
οτ@@ 0.06566102599168569
ώσεις 0.06373454112151399
для 0.0019985935877707
пы@@ 0.009260890495799439
ѥ 1
ა 0.8918341548053272
დ@@ 1
‟ 1
ꙗ@@ 1
15. 0.014356454046220156
Eis@@ 0.022905240802699248
Franç@@ 0.025473638744126215
July 0.0025411869465749946
Mec@@ 0.04534379118195531
Sü@@ 0.007350508272685119
casa 0.016462151487882964
enant 0.00883947308662861
encia 0.0018843288985472522
eza 0.010241011359830203
icht 0.0034045306986290116
isl@@ 0.005949717598913836
izi@@ 0.01247045486519737
mé@@ 0.002790983830279449
nak@@ 0.04382861312554172
oder 0.0018284834406928345
philos@@ 0.010022877577548942
raine 0.012262210037512341
raz@@ 0.016787573730363374
san 0.02226774658292931
schen 0.0043053165648280455
til 0.010037523446221112
zeug@@ 0.009307627793471485
É 0.16899383024813852
â 0.1175853022804434
äng@@ 0.0035828875113182923
ï 0.031954807971683735
ón@@ 0.0071584075940890005
ő@@ 0.1034159357290642
ş 0.016024359055875535
ɔ 1
Ψ@@ 0.27011061857562857
άμ@@ 0.07592571320020518
ές 0.008747608964930742
λέ@@ 0.04046328255920086
λογ@@ 0.04600818054344311
πος 0.10720634475195659
στασ@@ 0.25760027600029406
τού@@ 0.03990829383698854
сы@@ 0.0054364336059185645
того 0.005420212363275159
ѓ@@ 1
ג@@ 0.8466440583257441
∈ 0.6427830155338227
Buch@@ 0.011131482893800058
Colomb@@ 0.016439539649543533
Elle 0.0027024612760420115
Hamb@@ 0.010056924149498301
Zentr@@ 0.01235275504177096
born 0.0016246453296745052
chu@@ 0.031133839668308932
commer@@ 0.005126706745277358
comple@@ 0.0038610233286746464
culp@@ 0.01012775860004118
française 0.009353123922802513
geh@@ 0.0035600015346629035
general 0.0034193245684326955
gian 0.010788070821941128
gun 0.014783950846660482
inclu@@ 0.00393235116263254
itos 0.016449363246437473
loss 0.0046370598106121605
lı 0.012292777276327322
pression 0.00938151501927567
roi 0.011143397371744407
run 0.005672273463558352
sburg 0.011959264240175281
sequ@@ 0.004175984017671979
service 0.0030933765815871045
umo 0.056777761934522074
unga 0.06924737273543975
vida 0.010156226484383867
video 0.004941387648224644
ß@@ 0.002922147069468403
ße 0.009301939164936077
ás@@ 0.009830627985648679
ête 0.00723884009456552
ım 0.01959897523938075
Βεν@@ 0.1673237397761298
Κοιν@@ 0.10651415793133552
Ρ 1
ίλ@@ 0.035685706629833974
βί@@ 0.14317696303054647
γαρ@@ 0.09529030040700563
ηγ@@ 0.0259023297524322
οι@@ 0.03324690392395173
σσ@@ 0.05390490649154496
συν@@ 0.011182103709542967
τας 0.06440607051342363
τι 0.033984680479954045
י 0.4856841746821184
ع@@ 0.005026018988862562
် 0.8990467091818456
‐ 0.4348983478744153
Fried@@ 0.011542633976309866
Hin@@ 0.00935589161548575
König@@ 0.008973869609699855
Madrid 0.009361980060213724
Moh@@ 0.011386166477325332
Say@@ 0.037528958083764705
Yun@@ 0.04007707986420773
alian 0.007752256263192966
apo 0.04614125568259462
band@@ 0.010555062484071238
diff@@ 0.004063599720406303
dur 0.036670186782794524
enden 0.0024570284560511166
estig@@ 0.020027128029640538
fab@@ 0.013648629952417807
fahr@@ 0.00664728918220947
gest@@ 0.0036532621730916417
gres@@ 0.006397569405830869
hut@@ 0.05329483634250855
known 0.0015185321140663175
lier 0.00456782335695379
nacional 0.0067327120688811725
prof@@ 0.0038817996909690034
sak@@ 0.048730786953196596
sus@@ 0.00411522108137978
tek@@ 0.025232533572263956
than 0.0016157453084376027
through 0.0018007220891074884
¾ 0.7532049383713024
î 0.0359937581858072
ın@@ 0.010075630572410671
Ż@@ 0.09992634581619084
Λου@@ 0.08933014820875565
γιος 0.0839313466556051
καλ@@ 0.03127623328493995
μου 0.0956703691142075
την 0.0023179610161315743
όγ@@ 0.04850970435651114
льная 0.012442229132165021
лё@@ 0.005797811190965603
ёр@@ 0.00699811425073235
ק@@ 0.6080628532250169
⅓ 1
BK 0.08348717332570486
Dok@@ 0.0184391423396484
Es 0.002368614309704736
Jacques 0.012411659565258299
José 0.006881250414321321
Sa 0.01182346039878
Willi@@ 0.021754509426279097
aires 0.003147794824287758
ako 0.06004127619137314
allas 0.014316741193024009
amii 0.21958661406572735
bahn 0.008480594809286195
bez@@ 0.00883876193313854
chang@@ 0.0030308064554437934
conc@@ 0.011492925414241293
ensa 0.013194432849080607
icas 0.00557276644164426
ises 0.005454037668639583
kab@@ 0.02433320337793373
kuh@@ 0.3587936362554916
mov@@ 0.002713120159915074
tas 0.010962146207307975
zur@@ 0.0306335965108493
Æ@@ 0.11284892858497209
ŋ@@ 0.7381265968379443
ŏ@@ 0.18044727379074937
Αρχ@@ 0.08150001432874267
Στρ@@ 0.15017194784846827
επ@@ 0.010044126219137384
στο@@ 0.053086624320386175
ώσ@@ 0.0641601994919618
ё 0.0068098727861702684
ال@@ 0.0043269969050719285
ك@@ 0.0033239047786367956
ἔ@@ 1
ὁ 1
ὑ@@ 1
♥ 1
Auf@@ 0.0021882527946664246
Brasil 0.024132687833496633
Constitu@@ 0.010477140345234613
Des 0.010717070854861632
Grund@@ 0.0071930399537494
Israel 0.009975446998807702
Schwe@@ 0.007130348391743908
charac@@ 0.0042437833157508
compos@@ 0.002353904895580151
days 0.004931035222485463
ense@@ 0.007202889267122347
gemein@@ 0.0044496268209645775
igan 0.008929440188454653
initi@@ 0.0032996586679174935
isen 0.009568667908795528
jed@@ 0.11056417760834185
lara 0.01322467078275028
make 0.004480706079041185
mec@@ 0.028357323263227496
mill@@ 0.017897629872623545
moder@@ 0.005372322577950581
pain@@ 0.005027616321968099
school 0.0021041111374691655
stitu@@ 0.016742270312637836
suc@@ 0.005260443961207293
techn@@ 0.004262885351486801
them 0.001851243087333984
thu@@ 0.012248474991771233
tiz@@ 0.008411032033955679
trat@@ 0.01192349726034073
unca 0.027431657876753116
unde 0.008658109591292838
who 0.0006617707442585661
Ø 0.8368378265589234
éro@@ 0.006034884123476878
ös@@ 0.010186132397610485
ź@@ 0.24389051021316274
ż 0.4732307343056538
Ί@@ 0.12468873175700182
Ορ@@ 0.1391493378763979
ειν@@ 0.10986735306733438
κυ@@ 0.05163672882292219
μέ@@ 0.027921349256061
ραγ@@ 0.0922922289017675
τρι@@ 0.04404797832499335
υγ@@ 0.036547011683779315
χ 0.08796801914509675
ψ 0.7761817065908938
όδ@@ 0.05477711886734303
Љ@@ 1
бы 0.005956466499850259
յ@@ 0.971295734551546
ṣ@@ 0.15203275187915133
ὸ@@ 0.9690982328896647
ⱏ@@ 1
Anne 0.013089812857309509
Geb@@ 0.00819548525516966
Ireland 0.007776091878261917
Philipp@@ 0.010728288661247483
Sek@@ 0.014312795259623744
Venez@@ 0.01340942317713084
Yar@@ 0.0355591227426881
concer@@ 0.0035644691917346653
faire 0.006048555500202983
franc@@ 0.015554673300906182
fund@@ 0.003300923120405142
hid@@ 0.015743263161627885
mant@@ 0.011628172000505907
player 0.004409824601462268
positi@@ 0.003218517395203447
respon@@ 0.0036281983022399796
stud@@ 0.003626555319309681
techni@@ 0.007232855931784822
union 0.007875991417285587
univers@@ 0.013993180413698092
wards 0.004515798274487211
was@@ 0.009865980719947296
won 0.001998580353385284
zig 0.011607752527825095
Ø@@ 0.09467688610986773
ô 0.010251194137585682
ʿ@@ 0.06358602515700354
Ευ@@ 0.09170157360479499
Κλ@@ 0.1586449699767525
Κωνσταντ@@ 0.16330184994245855
άν 0.046948098359254446
άρι@@ 0.10097687219241495
ήμ@@ 0.07215775943272922
δρ@@ 0.04447277298045444
με@@ 0.019902785769646592
μονα@@ 0.08605211132727676
παν@@ 0.0461995835576853
του@@ 0.033674510186593364
ώ 0.058432916198741726
פ@@ 0.5361598902561757
子 0.003331365427597406
ꙗ 1
Distribu@@ 0.012524492105709072
Eurov@@ 0.03044076143576631
Hak@@ 0.031923215914020676
Jul@@ 0.02744722663957656
Schl@@ 0.00993621982563108
ael 0.018846210304108456
ched 0.004049536766541396
clo@@ 0.0044196868776952315
compl@@ 0.00397748291561621
defin@@ 0.004720962516687893
dipl@@ 0.02397870152573759
eben 0.0018494751075568546
enburg 0.011581203486389684
enos 0.046926270408726885
fam@@ 0.006232119355806758
feder@@ 0.005388848065319427
ican 0.004816769853199626
icht@@ 0.008483154534489157
ict 0.010944542107910708
idas 0.007899610053936907
inger@@ 0.025879501696033123
inos 0.007468608969477513
ism@@ 0.015652378766658186
jas 0.013174224423636235
leh@@ 0.015571046023869663
lub 0.03910587336820273
mine 0.006854697700631855
monde 0.005865127757403416
ober@@ 0.010802920315888183
provin@@ 0.011379322636725787
refer@@ 0.003248870178957852
schaften 0.003595391086960427
sent@@ 0.009682735123042577
sey@@ 0.06165228411750049
suff@@ 0.004414368088001747
tena 0.11381883899055596
utz 0.012016365378039965
wake 0.042401927290335144
zam@@ 0.03420352824616855
zu@@ 0.003504154918249579
Å 0.2345963643513406
ño 0.012589023504110073
ĕ@@ 1
ů@@ 0.13712050717049354
̃ 0.9352089544534454
Αλ@@ 0.05629398684170309
Μ 0.43017054748367495
κα 0.057355492153303066
ούν@@ 0.04774273719669947
ρο 0.024068783426841465
στι@@ 0.04333036561013912
υ 0.06593277564807991
буду@@ 0.016265811472320056
министра@@ 1
тель@@ 0.005964573972527934
что 0.001365711014418576
ђ@@ 1
ѭ@@ 1
א 0.8465807814902937
بن 0.01754335151027167
্ 0.586296628174955
თ@@ 0.7347723700272528
Ἰ@@ 1
Arth@@ 0.11533398115258435
Gün@@ 0.02855461123938743
Indian 0.005205577513555476
Leb@@ 0.012154942000173523
Prof@@ 0.014970501017708651
September 0.0014728983743048808
Sud 0.011618031165078315
aina 0.06177846942789924
bah@@ 0.007288639540614848
bara 0.01814279182573064
bed 0.008635608194242887
ción 0.001289778346295404
const@@ 0.011407030939395052
death 0.0032615882434893257
design 0.005339324562129179
dér@@ 0.010780512897856613
elek@@ 0.01305321497531493
eln 0.006798195667711852
eş@@ 0.021116341337629838
hir 0.03458568145019803
hr 0.00820731800531892
most 0.0012966913806503535
oire 0.009623077344030269
pendi@@ 0.010088733477149548
run@@ 0.002852216433279099
scor@@ 0.0027045721035917677
sein 0.0022994429054189218
sol 0.017298173621207225
tee 0.03638790617268035
tie 0.009416010691531102
tik 0.00996463051193946
uso 0.0063589387706712575
vill@@ 0.008592655445970812
years 0.0010862297644687372
zial@@ 0.009382037250806392
È 1
Γεν@@ 0.06660828094337043
αϊ@@ 0.09738596551915946
ματ@@ 0.01854679747390068
ους 0.00681354840551038
ριστ@@ 0.050643501342261886
ότητα 0.024421990748844772
Ј 1
Ћ@@ 1
зы 0.015175322744549063
марта 0.009636674455576451
ному 0.006750559626793819
уров@@ 0.013578188659568809
ѹ@@ 1
ֶ@@ 1
ת@@ 0.5368211142279761
ἄ@@ 1
ὰ 1
Dani@@ 0.029203259690017448
España 0.007379571318319219
adas 0.0018606054884823286
adores 0.004857443434664397
alem@@ 0.012909960356164468
alle@@ 0.012780390885290864
brit@@ 0.016426316119229373
election 0.0031102537061372688
excep@@ 0.005697211916722121
expl@@ 0.004494919411629838
expres@@ 0.004491692359926256
final 0.002075790012172823
fs 0.007210783824406393
inas 0.008936066652839985
inda 0.03661138349418174
ları 0.006595533982210812
lead@@ 0.0020892796076181354
lichen 0.0012401629777332207
lug@@ 0.01160892695781276
made 0.0012094585805475628
mich@@ 0.11036628827733828
mina 0.010772893895802953
mundo 0.010182642881030027
ning@@ 0.014001247632655707
onz@@ 0.009042789125215252
sik@@ 0.06736346507290389
sind 0.0012645345740695307
sous 0.0022382717329238254
teur 0.0023425369724347244
ths 0.00387909287548476
uda 0.017395849486064593
uru 0.029777171313760443
were 0.00031923571966914076
zw@@ 0.008860343064807574
ío 0.007920320872761384
ña 0.007771000243779207
ø 0.07573197782540399
ün 0.014569701501172264
ǐ 0.7533169857573324
ʃ 1
άρι 0.12015307436702923
ικά 0.006438280093846713
πε@@ 0.042421816983294475
ταμ@@ 0.20492353495382457
τικ@@ 0.04010647208007708
итель@@ 0.0035398090340288926
окру@@ 0.005604992304298833
сты@@ 0.007838743487239836
ס@@ 0.6117134486135971
ان 0.005118139841744281
ت@@ 0.003200761264254369
ط@@ 0.005009210297968945
و@@ 0.0030359733855908717
⇒ 1
도 1
Nigeria 0.022695640856260742
adora 0.013693916563889361
adém@@ 0.013285720316824366
amente 0.0019803243491115564
ampi@@ 0.16466497999819177
beau@@ 0.008711550925399138
beri 0.0657670059444114
conf@@ 0.003948275134639636
contribut@@ 0.009645106880485805
eb 0.008398377818886808
econom@@ 0.004041940118523718
enso 0.00566192831081961
erte 0.002058053024548604
figur@@ 0.00799005674347939
hoa 0.007825433139577585
hud@@ 0.1983214445327327
illed 0.004522226071067399
iten 0.0035893375386419836
itt 0.016804954936616597
kum@@ 0.019394614814212348
mau@@ 0.02158060619491188
national 0.0023688498881348154
people 0.0016436340250520233
possible 0.005072726727987896
reich 0.0073073003367077624
temps 0.004263354028096522
voy@@ 0.0064308800334045195
wissen@@ 0.007028574619223213
with@@ 0.011009730236324532
Ú@@ 0.0292280432698459
étr@@ 0.007933223395721894
ʊ@@ 1
̄ 0.9450757270760056
αζ@@ 0.04223629396495473
εξ@@ 0.008278734521531396
ικής 0.00900310647167083
που@@ 0.06378484859733806
τε 0.039888564420455234
τρο@@ 0.07177258259775525
ωλ@@ 0.1341619582422264
Ђ@@ 1
вом 0.007408764118036629
вы 0.00689996682595437
комму@@ 0.011330242040238752
сою@@ 0.013697476293497263
эк@@ 0.0054158840246418295
ү@@ 0.49330280595560705
ַ@@ 0.5644833595040768
ج@@ 0.0038740283016517434
خ@@ 0.005896323254809181
ℓ 1
♦ 1
Fes@@ 0.03600942911893603
Gesch@@ 0.004974315320226975
Henri 0.012341612962361834
Im 0.0011419237841619023
Liga 0.0068528674825058
Mann@@ 0.01002498877454473
Professor 0.007585299316148521
Türk 0.02934626370776393
acio 0.010482751971328341
ambo 0.0608256840997554
arios 0.005642974399059268
atz 0.0061605216008546815
ayn@@ 0.032114366392055164
bec 0.008482536204687767
contra 0.005755155419969256
court 0.0045592875611206035
eig@@ 0.003435394041111922
ekt 0.008581647658300856
ichte 0.00789517875477947
ily 0.003551828791138194
inden 0.008840739755630513
integr@@ 0.006422179925652529
meister 0.007864934645490821
nung 0.0032325967384134588
omen 0.0623651136187159
pris@@ 0.0054831692117856025
qu 0.005902988462045496
suite 0.004883539843005365
teilung 0.01033571159103972
tien 0.011577242104176311
tribut@@ 0.00625847420908981
trä@@ 0.005221168951911978
uten 0.010579331607837365
vu 0.01971670252141478
xu@@ 0.08566143087297652
Ò 1
ã@@ 0.037550092830601005
äch@@ 0.003051162845129991
ème 0.004355749499053166
ète 0.008080963888234758
études 0.010113937110693144
ücke 0.00945999218992936
Καλλ@@ 0.14278047297907726
Μεγάλ@@ 0.11172680545223806
άδες 0.0880088153687384
έχ@@ 0.020716669931713127
λευθερ@@ 0.12757368922362158
πόλε@@ 0.07973508239888477
τη@@ 0.011478953646680352
ότ@@ 0.04299062777883815
Ь@@ 0.5674899561966504
более 0.0036747838833524555
ды@@ 0.012308904003693926
ным 0.0013951564738384123
проис@@ 0.010629964847543381
ровал 0.010792734218527047
тому 0.007534135226322882
ا@@ 0.009001546493217664
و 0.00438387250666505
َّ@@ 0.05511057317395294
ḫ@@ 0.3550239097945229
ᾶ@@ 1
三@@ 0.003426706287589008
太@@ 0.0076644783887788595
Argentina 0.00821668895286777
Ent@@ 0.005253144701216971
Kenya 0.027806977365200627
Ng@@ 0.007812154265288156
Pedro 0.010518711591440242
Por 0.007535808073456041
Staats@@ 0.009447659247494923
Tür@@ 0.02045415386872439
Une 0.005742403280623977
Von 0.0035608535126845126
after 0.0006969921004923379
ahl 0.006497697686463607
also 0.0003826316063784443
ası 0.008133461522310752
aş@@ 0.010700117696110258
bles 0.004865096648322568
constr@@ 0.01906910935937644
construc@@ 0.005394002670674644
dini 0.09591651449035252
eler@@ 0.010264759092997901
enst 0.01082586545663843
erc@@ 0.009091068659605916
esses 0.004881063096315123
gri@@ 0.007514450013676561
grou@@ 0.0034616746894945392
hat 0.0021843150104099074
ien@@ 0.010055074508130488
isme 0.005257398231904056
istan 0.005580321617366485
mann@@ 0.0075743035777103606
ometr@@ 0.031761120185883354
radio 0.004730009062790919
sam 0.008442013008482862
sexu@@ 0.005156671942595826
short 0.004315294650918502
tains 0.00478497582698285
tere 0.015425491067970705
there 0.0013121190102085472
tival 0.009029723123006221
tour@@ 0.0022212501727951438
verw@@ 0.004555865732676793
đ@@ 0.0018385768532309906
Αγίου 0.10180264974694668
Χρ@@ 0.0894250154719014
αρι@@ 0.07611538990628233
αχ@@ 0.07852307112796024
είας 0.027903348673737404
εφ@@ 0.026560912146827553
ικών 0.013606413289409224
ιου@@ 0.1228508045316137
μη 0.027441769500511904
προ@@ 0.006609338860511091
ρω@@ 0.024441866282430426
σπ@@ 0.03453389476846612
τού 0.03338405368130443
ϊ 0.12252052692990043
Ы 0.7050115784868818
поль@@ 0.007248617025178884
ر 0.004646934489013667
ိ@@ 1
ṭ@@ 0.13851979514228693
ὀ@@ 1
ⰻ@@ 1
﻿ 1
April 0.001304063234052908
German 0.002883612277255201
President 0.004116291898244039
Wah@@ 0.025915755149724537
afr@@ 0.0158892496382682
bt 0.006390523770876069
cer 0.007560547305783883
four 0.001606220415549121
haf@@ 0.007780424367556431
igen 0.0011678372469335382
ised 0.003158747351875559
iß@@ 0.007802838162509743
iş@@ 0.008267093922047638
lieg@@ 0.005718463862767184
mad 0.010393814997674673
maz@@ 0.04795757708847294
mt@@ 0.027990458833830573
nac@@ 0.013493887219200126
oren 0.004771570161655387
orig@@ 0.008750116534062217
party 0.004002775513645801
rez 0.008849965878944347
sche@@ 0.0075748643381749565
sever@@ 0.01138950589556529
span 0.02409821913590698
sé@@ 0.003515383880532749
total 0.002235475006262623
umbo 0.062261882172636215
unia 0.17445250289185082
verg@@ 0.011393456605035332
Θεσσαλον@@ 0.11253045062045271
Κορ@@ 0.10009361168540547
Φιλ@@ 0.12161457335514508
έγ@@ 0.03194369036323401
αμπ@@ 0.11458731616835013
ισσ@@ 0.1589368948857263
καρ@@ 0.05737117908578961
ρκ@@ 0.04146585335712846
ταν@@ 0.05867018185761307
τολ@@ 0.0692464237382939
υμ@@ 0.03414667123489314
Бы@@ 0.011410570844647748
чный 0.013164740150261717
ёт 0.006807544840539862
ỳ@@ 0.17468771974968253
Ἐ@@ 1
山@@ 0.0057338171798523374
Groß@@ 0.005352725641947122
México 0.008677537225094508
Pak@@ 0.006644896489080169
Pub@@ 0.02770165251383322
Süd@@ 0.00505404540614872
UEFA 0.01458323032749129
Universität 0.004393974969070257
Welt@@ 0.005375693715954702
Zu@@ 0.005789068101634595
actor 0.0061100852866773905
archit@@ 0.0037195760539420844
cens@@ 0.004714232151599857
chter 0.007851161371864717
company 0.002099999112316401
dens@@ 0.004266445924438551
essen 0.008605512205037759
estas 0.007213517529985747
foot@@ 0.005223275450245316
git@@ 0.028105689764291193
gö@@ 0.02066695875803427
inde 0.005192712558150279
irs 0.005744849083320688
istas 0.005055499739042147
just 0.0032366272777156813
leur 0.0019079553124113106
lí@@ 0.005444688455712044
member 0.00201446034928938
mw@@ 0.014083471839352607
nation@@ 0.005156704562626762
oka 0.030821842483250872
oles 0.007185260228263993
politi@@ 0.002665128100817824
ques@@ 0.0061016965025843485
rique 0.00823525354185377
sang 0.010886134989981639
site 0.0021000324507095543
such 0.001056552852918623
terr@@ 0.007530212196186887
tish 0.009088453686318238
verl@@ 0.0032817157696260293
what 0.0029191297223396563
yak@@ 0.016451649702032077
Í@@ 0.0523157485034423
ör 0.03098022330716464
üm@@ 0.006597136916926686
ır@@ 0.007220210909401803
ų 0.3142088094761027
ʲ@@ 1
Βασιλ@@ 0.10119667219064292
Βι@@ 0.05010008575993555
Κατ@@ 0.09503813918605641
Πλ@@ 0.10764407876216874
άζ@@ 0.04061538161791047
έσ@@ 0.0369545042877174
ίνου 0.12164182665767657
ανδ@@ 0.0442876193831945
βά@@ 0.042900330975800136
είο 0.016683550455300924
ει 0.0060361030645524495
θέ@@ 0.020956428685843246
κος 0.061110151075313646
πα@@ 0.039778402869482726
σε@@ 0.054388285714089706
τελ@@ 0.024220932192584057
φιλ@@ 0.045121139056170205
Вы@@ 0.007007526851433784
צ@@ 0.7071674369246751
غ@@ 0.0045439881053730025
ي 0.003273584941896099
‏ 1
中@@ 0.0019100295996300764
漢@@ 0.028410345016303244
Bir 0.03404880251859547
December 0.001763339093197189
District 0.0025642923254705495
Eisen@@ 0.00940362265803387
Frau 0.009198196639224355
Geg@@ 0.005434042162829441
KK 0.05188824076730417
Kay@@ 0.03043618097489314
Mart 0.032044509162488855
Muh@@ 0.013455934085505595
Para 0.009081317974237167
Rah@@ 0.00703759717971002
Saison 0.004261611597117876
aume 0.007196062327601101
cover@@ 0.0030254819598642996
declar@@ 0.0048971694392353415
eurs 0.002776180198431691
eye 0.013919982516858685
fici@@ 0.006122829135574753
gew@@ 0.002346709725019503
graf@@ 0.010730196320288344
hii 0.07481443566013722
jos 0.007282333571591288
jou@@ 0.0026595759180558193
kim@@ 0.033124848413477403
kua 0.25952826464317735
kus@@ 0.018429976767314376
lege 0.004871840430203044
mez@@ 0.014613022742308333
natural 0.0055054389221070674
né 0.0025785026019345247
octu@@ 0.04605789055411175
pero 0.00242660400445839
phe 0.014545883365682872
prov@@ 0.0030737861230373466
publi@@ 0.0030915629820897697
shu@@ 0.02227815849492991
six 0.0023640381260461537
some 0.001211981915830606
straße 0.005817290499156949
which 0.0002895865425852165
yen@@ 0.007525277102704548
zil@@ 0.06141008536377143
zin@@ 0.01127561202269527
zor@@ 0.03538636251033845
Ó@@ 0.03024024354395576
ís 0.010580413640343145
üd@@ 0.010251196910599458
ħ@@ 0.5038398883626505
ĭ 1
Ł@@ 0.0257106337732134
ő 0.14450179101712746
ǔ 0.5440964422569528
ʻ@@ 0.05190565292863547
Βαλ@@ 0.10178153037143599
Ελλην@@ 0.05956386401646693
Επ@@ 0.048598573580705844
ίκη 0.06706630246160215
ίμ@@ 0.11615017379224801
εδ@@ 0.03282259973600509
πά@@ 0.0632208519015173
τες 0.015023719050240893
дь 0.010310057419051182
туры 0.007221764435775173
ў@@ 0.9427530867142673
Ѧ 1
Ѧ@@ 1
կ@@ 1
ك 0.007195321106401753
ტ@@ 0.9543868841704151
ស@@ 1
‡ 0.5753198300166503
█ 1
市 0.0036821345633437767
한@@ 1
0s 0.0013022692485112552
Ander@@ 0.0074904947854165455
Barcelona 0.010042709567778278
Bez@@ 0.0037622599249520763
Fak@@ 0.01318792581415229
Mw@@ 0.13062011360296574
Schi@@ 0.008348530060602285
Sur 0.007177899150754349
Tod 0.008063007442389055
ağ@@ 0.00756083164525455
bres 0.006071005434606043
conserv@@ 0.003641395043431436
development 0.0031563827998630813
durch 0.0008968080598193031
eder 0.013179828660599911
egos 0.009022120676566908
feld 0.006266164796174715
fin 0.002644865377241618
gang 0.004579719418785195
idos 0.004030075795034881
ildi 0.021364161075945506
illes 0.009930868984956797
ime@@ 0.05305682840985799
ished 0.0021000128397618586
jud@@ 0.005451824237281379
là 0.000608738212308653
mab@@ 0.10758578231605233
neu@@ 0.004091310559569134
ogen 0.005383238789813951
pens@@ 0.007809615226593742
propri@@ 0.008749391685764073
proxim@@ 0.007083424835502172
quel@@ 0.012764068331248364
reti@@ 0.004048300902208987
rom 0.03662390035784425
services 0.003559427457998784
signed 0.0035877622585487037
tivo 0.006036403785393172
uch 0.006408906384682009
vile 0.030128564641589282
Î@@ 0.024088561209450216
éch@@ 0.005882678491864483
ép@@ 0.009368966059883539
ğ 0.0288076263274056
ɡ@@ 1
ɨ@@ 1
ΐ@@ 0.06257972623282772
Απ@@ 0.05037536243636902
Εκ@@ 0.04017238831117605
Ισ@@ 0.08919701983142891
άφ@@ 0.04025549020676417
γράφ@@ 0.031572155554045835
ιρ@@ 0.04293847010795119
μη@@ 0.09412844043871782
ποι@@ 0.03814139857387304
που 0.0025609581949507807
χω@@ 0.04299343872612328
όμ@@ 0.01904192293431926
ύλ@@ 0.04742762979625257
йского 0.008815848388775464
ств 0.00561781551334802
ющие 0.007546226664002481
ў 1
ة 0.003149493563180564
را@@ 0.005398409762139014
ف@@ 0.0029653582143394524
ولاية 0.07449519627007538
त 0.004278275369471387
র@@ 0.7001396203580621
ម@@ 1
ン 0.1599120828619059
国@@ 0.003923903052573126
語 0.012101399659108685
강 1
Chile 0.007791871137861861
Zwe@@ 0.008219507229678
around 0.0019407827124255255
autom@@ 0.0041896732431799125
children 0.002372100770761784
cours 0.0031362107123132275
crit@@ 0.009063289481424252
ectu@@ 0.005605750723409794
eden@@ 0.010122582551992595
entos 0.0023539908282925954
event 0.0034980577484334838
fav@@ 0.006268762671133724
iken 0.014186443406199126
kirche 0.008233896649093297
match 0.0024881582493217146
nach@@ 0.003901935856197126
ney@@ 0.03039499158681794
studio 0.004722881705561774
they 0.0006385575868815465
ubic@@ 0.01011699820178601
ural 0.0036123895988764525
versit@@ 0.015630779626122752
wir@@ 0.003780232801497552
Þ@@ 0.11074385715828708
ände 0.007318644085216755
ĸ 1
αναγ@@ 0.03779546630061794
θαν@@ 0.1243654962799155
ιμ@@ 0.03296437312137538
ιο 0.012166025304965683
ρακ@@ 0.07974017160152712
ρον@@ 0.03374911988564862
στά@@ 0.04091047300929333
ται 0.018072823963935135
τική 0.011855607876985882
τυ@@ 0.029022528082861442
φύ@@ 0.08503176032444622
όχ@@ 0.03609408681148917
вые 0.003939827464516761
искус@@ 0.009012455687690858
фильм 0.011804708011474915
ѩ 1
ө@@ 0.4275778869961672
ט@@ 0.5945647298355389
ورة 0.03046076256353842
კ@@ 0.7433717447776428
‑ 0.14838739675652007
♣ 1
ⰰ@@ 1
日@@ 0.004075034394852673
海@@ 0.003179960931826519
金@@ 0.005263532888959029
Ce 0.003908898940090898
Deutschen 0.006696396030584425
Eins@@ 0.005933210927314612
Kus@@ 0.025436364043357366
Oy@@ 0.02968554667476541
Phi 0.02630864960679659
Provin@@ 0.0030964560416860557
Su 0.0033187771780026866
Universidad 0.005187944179709266
again 0.0026066329470305666
aged 0.002235526156828322
aill@@ 0.0062661934920980236
aji 0.025157764954616677
aller@@ 0.011691912455639159
ansas 0.0064769797656529645
bek@@ 0.0033388259133297427
bish@@ 0.004664381140430944
cion@@ 0.0029210170177875468
clu@@ 0.0025678759310902893
clus@@ 0.005281706601641848
compar@@ 0.003440565416267263
differ@@ 0.005835698352137276
edad 0.0037494554090033035
ede@@ 0.025742978639359346
family 0.0011825079290961715
featur@@ 0.0018769429564785254
forme 0.003414921915194259
gal 0.007654591274951198
gu 0.04708694079761293
histoire 0.005900570801653725
idence 0.004284422226104771
iker 0.007058798865327919
jour 0.007042268996652036
journ@@ 0.0027298634703025455
kamp@@ 0.015361603269121728
ký 0.02205127097878818
lung 0.002692408688832104
main@@ 0.0026672319767273266
mara 0.014515928198269934
mash@@ 0.07370389798273581
may 0.001327245979381735
mim@@ 0.03755269372832445
separ@@ 0.0031702109556273382
she 0.0006685715525829282
tí@@ 0.007533103204412522
universit@@ 0.003039932862027121
yat@@ 0.018255994477083128
èse 0.008132617331646302
òn 0.029624031740033818
ük@@ 0.015445330552777109
ür 0.006652375522095848
ŭ@@ 0.3361358154885571
΄ 0.01096686997263081
Επι@@ 0.0450536939361059
Κύ@@ 0.03892623775642702
Μά@@ 0.04342176513519248
έφ@@ 0.025650255245093085
βασ@@ 0.025961727844597104
εγ@@ 0.017656300808041647
εργ@@ 0.019400830590128485
θη 0.054310444898766345
καν@@ 0.020854794596643515
χαρ@@ 0.06539352811051023
Џ 1
вого 0.003122026526707313
немец@@ 0.009248213794170432
нием 0.0017682491417564605
нию 0.0017620506312472511
работа@@ 0.006603803808140783
рё@@ 0.0063685621233968755
совет@@ 0.005194809666095255
ём 0.004522184402289108
م 0.0040667575543666176
र 0.004348030788034952
ོ 1
ု 1
გ@@ 0.7622912902782677
ს 0.7365005814953043
ἡ@@ 1
‒ 0.6993932137529341
上@@ 0.004057841550043714
Copa 0.008582633800470698
Guerra 0.008575323517418776
Gü@@ 0.01095031705181579
Mexico 0.005547816276440179
Migu@@ 0.010303069545005435
Munici@@ 0.0065306472135331535
Nieder@@ 0.004367999073244175
Viet@@ 0.007454938782015101
aben 0.004014594833797432
adol@@ 0.011868931632129985
appar@@ 0.002571335918069019
colon@@ 0.0059453064825600544
concep@@ 0.0037073931459315305
ener@@ 0.007587022550656042
enz 0.005258707796245252
erung 0.0018756967552452082
eño 0.0058152838003868446
fak@@ 0.02197773143861312
films 0.003865022945740725
haus@@ 0.00535987820663039
histor@@ 0.0037054438672270112
iller@@ 0.011497743579129123
ismus 0.00804703191950766
issu@@ 0.0019368256525831309
monum@@ 0.005573686397662332
mt 0.0038369229290566185
neo 0.006025403819849432
olan 0.004460419869502806
once 0.002558714802710005
platz 0.0076354890999653785
produ@@ 0.0016344355968133616
sad@@ 0.030415467154098194
sana 0.09150766096841248
secre@@ 0.006271539428315432
sil 0.01017220277923252
team 0.0009069936583095079
tet 0.0019257117608195446
tér@@ 0.008490410275660948
zeu@@ 0.006353940645091516
µ 0.8317518852616848
Ü 0.1692701527234634
äs@@ 0.003406328769310762
ät 0.005362262382449231
ð 0.13644719660670873
ög@@ 0.009455969507379572
üz@@ 0.023826451201907465
ık 0.01010549962625325
ır 0.005369663678255226
ız@@ 0.016607898153099713
ɐ 1
Ελ@@ 0.06462401788923931
Σύ@@ 0.047082311609833276
γεν@@ 0.017612139709450223
δύ@@ 0.06443086617783648
είου 0.029797206284051966
κι 0.06402338935120515
κου@@ 0.07544879367666522
μέν@@ 0.03102049134455453
νε@@ 0.03241489886837482
πολ@@ 0.022093002040457832
πολί@@ 0.09372631218575404
σχ@@ 0.03368351262397271
Ћ 1
году 0.0005229462869992407
лями 0.010002125609901371
скому 0.00606951248859365
следу@@ 0.004620832154131582
уже 0.006342306412162624
человек 0.0039044641403964482
ֹ@@ 0.7188502955007813
ׁ@@ 1
س 0.004339047540999949
نا 0.01795452847221098
َ 0.04892005027849988
တ@@ 1
့ 1
ြ@@ 1
ე 1
ქ@@ 0.9700102716948076
ṅ 1
― 0.05094671087225412
一@@ 0.0008232825019922116
東@@ 0.006099332940208282
Afrika 0.024984084362902233
Bask@@ 0.008655588792137972
Como 0.009571255459878716
Krieg@@ 0.004728341472232966
Lebens@@ 0.006435149611085058
Musik@@ 0.005470807092702392
Paulo 0.01660001702646701
Sult@@ 0.016302027141080765
afa 0.02250348404603078
anno@@ 0.02945538555058431
bourg 0.0066209667789442275
bul 0.07429218001077588
comb@@ 0.0035565124087136536
dah@@ 0.007242067929783352
day@@ 0.017664782697332664
enga 0.043340786846904955
erin 0.005502457911887275
fest@@ 0.006822674340746203
forc@@ 0.0031592537159113136
fu 0.03975770677138855
fü@@ 0.003077479394438026
gel 0.007610800059151121
iev@@ 0.002601808847320775
ilg@@ 0.02570296101329478
influ@@ 0.002019628389738585
information 0.003758551630462113
iç@@ 0.016524893182359855
jum@@ 0.009974228686422613
munici@@ 0.029436052340054468
nah@@ 0.005886933058216669
neur 0.004051912705035402
nicht 0.0008252462767275411
observ@@ 0.003028057979484186
opo 0.063017863231623
poin@@ 0.024262519857311052
princi@@ 0.00493755799521702
ran 0.00430428911314472
relig@@ 0.005153785481485608
tores 0.006798568012444937
veau 0.019933679727316928
visit@@ 0.005320952061359782
yas@@ 0.011380224174124369
yok@@ 0.03932859923984657
zey@@ 0.049642687082953385
ège 0.004029091364346422
ìn 0.03128742275000799
ġ@@ 0.45406562668579864
ım@@ 0.010322292153759018
ŋ 0.38122510767081436
ť 0.3112207818494122
ǔ@@ 0.6776678783392857
Ιερ@@ 0.08866778840077545
Οικ@@ 0.06454813425817237
Ρω@@ 0.032881409095063194
Σερ@@ 0.07996072021549312
Στα@@ 0.09594409182631357
αλλ@@ 0.0337897879565268
ασκ@@ 0.056961531752546625
γλώσσα 0.07803778137659824
δα 0.07801689611462137
δος 0.09554054700353397
εια 0.023168209314564026
ισμός 0.035401789134795296
λαβ@@ 0.056527076271530495
λαδ@@ 0.5282575638760787
λος 0.06598237490545106
μφ@@ 0.031842790452841836
ούς 0.011229275958331118
παι@@ 0.043769194814786826
σία 0.014493017193753026
ταυ@@ 0.06356753748841347
χος 0.07532561558973715
ωρ@@ 0.05076215445767636
όρι@@ 0.07517991807408968
верну@@ 0.007738385277641739
ную 0.0014017785651493388
строитель@@ 0.007801933215246903
ью 0.002169741034459967
ѩ@@ 1
ә 1
ӧ@@ 1
مو@@ 0.007748876004544151
র 0.6883356135354964
າ@@ 1
ო 1
ხ@@ 0.7875104880655995
ὄ@@ 1
∅ 1
∧ 1
∨ 1
ⰲ@@ 1
ル@@ 0.4250451504237416
ン@@ 0.23071636907976475
南@@ 0.002776304601923975
式@@ 0.10729117862800248
Auf 0.004271013606438424
Conse@@ 0.006214524369997207
Estado 0.008813982521778178
Heim@@ 0.006479536431006065
June 0.001252645831567459
Manuel 0.007658476208838802
Santiago 0.009288554360284055
Stadt@@ 0.0033426687711822977
Yeni 0.047597570784807315
aret 0.022958434654003823
ateur 0.002564948077728712
ations@@ 0.0040596310854196455
auen 0.004999811460186337
bü@@ 0.007427629498570461
champ@@ 0.00484450159592582
ently 0.0010711376283440825
feh@@ 0.0068319471446507945
forma 0.003076598923146357
gaz@@ 0.019790333781895205
hay@@ 0.016694449636759888
iques 0.00730842244052167
kes@@ 0.011946071705996812
köy 0.03827689479895911
libre 0.009038373221681505
mek@@ 0.0188048608606252
novel@@ 0.006061673719290481
parte 0.0018094143525472146
plu@@ 0.007273098015805221
reib@@ 0.0039972840301682674
religi@@ 0.003438878649933528
stil@@ 0.018629047672234913
tam 0.03670799675523703
tay@@ 0.05014969246013672
their 0.00034396675677706177
tig 0.00509694137029142
tionn@@ 0.0027659193867584694
tions@@ 0.006518814340049628
uka 0.026761971993379305
usal@@ 0.0106388811983848
written 0.0026018909005021762
À@@ 0.32213733992572063
Â@@ 0.018656170871291792
È@@ 0.1493564229136467
Ö 0.02749388787620944
Ā@@ 0.10566268219193793
ů 0.3920386407992237
Μον@@ 0.0642089266760167
Π 0.16419637109471677
άβ@@ 0.043940178970084454
άπ@@ 0.05391022961118164
άρχ@@ 0.030496360161764515
αγι@@ 0.09146061520649543
βλ@@ 0.02834681411673646
δί@@ 0.03825931199053496
δρο@@ 0.04415448721719508
δρομ@@ 0.09505119456524402
κτ@@ 0.021446237830310813
στη 0.004280265137164262
τή@@ 0.071342335207328
τικό 0.013020660695488274
χρ@@ 0.01604666485006841
Њ@@ 1
вых 0.0021327698748662373
ины 0.0037984151755716673
итель 0.0069524787129723676
ственно 0.0069423373151898
ься 0.0029295101188423537
Ѫ 1
қ@@ 0.4190621848442519
ң@@ 0.9513262048862944
մ@@ 0.9628740952346251
إ@@ 0.0038078622415875
ذ@@ 0.006051192185251022
შ@@ 0.9891758816840269
ὴ 1
イ@@ 0.3202176441283932
本@@ 0.0036756920662948576
김@@ 0.7140043655190319
산 1
Haupt@@ 0.0029063379495790705
Haus@@ 0.005890130070005272
María 0.005818382143974212
Minister@@ 0.007511634612823342
Partido 0.01001806483491771
aban 0.0024570322709394988
appro@@ 0.001423389866724448
ayan 0.009946283699981184
been 0.00041846821208905895
bien 0.0024440957686480747
carr@@ 0.007618569646331525
chez 0.005404011048946015
ciones 0.0015180950903557573
coul@@ 0.00665935949770489
country 0.002103851684585296
course 0.0036125638066844116
did 0.0015262562936596835
division 0.0029146779280027598
eines 0.0016047169285633516
elde 0.02608432082017054
enen 0.0009956546697274466
eran 0.0023153292856979294
ests 0.0028488065951108145
etts 0.0059284368451701245
fen 0.0032396077127376894
four@@ 0.0029607245300549054
fé@@ 0.0042379704008990386
grand 0.0031900923181338347
génér@@ 0.0039038967227109393
hen 0.007027045304455643
history 0.0019617410964766473
ilde 0.0223249756717751
international 0.0021349282960439085
irk 0.006589151522986723
jour@@ 0.0109826813671974
kaz@@ 0.02963008492207359
keit 0.0021000295606521456
onc@@ 0.007442113514068945
onio 0.009288619784925024
part@@ 0.0019215344938972967
publique 0.005412217118577885
quot@@ 0.007688191764770986
rece@@ 0.0036996043790634265
record 0.0019916602066793443
schafts@@ 0.0031550728426018135
scienti@@ 0.003879996115104329
sich 0.00031946666893807097
tend@@ 0.004657541544577789
tir 0.004510864885062558
unci@@ 0.005482038388586525
usu 0.016488669592995043
vom 0.0012665998947635508
yen 0.00528721158259865
yet 0.006727216818506123
zwe@@ 0.0029923617410868414
Å@@ 0.035884795018438206
ào 0.009332937653077137
çe 0.020745720706844606
ín@@ 0.004238424429428782
ŭ 0.7723199490083487
ǒ@@ 0.6121793328890159
ʒ@@ 1
ʰ@@ 0.628968034784621
Ελλ@@ 0.15105799689939922
Κωνστ@@ 0.09080121502858081
Περι@@ 0.050896808681271916
Συ@@ 0.03323218831806855
έλλ@@ 0.07517736700798605
αγγ@@ 0.08563222811245165
απο@@ 0.005313646309010984
βο@@ 0.03293410146759847
δέ@@ 0.04675679053089397
ελλ@@ 0.060524882411003844
εμ@@ 0.04460841650509109
επι@@ 0.0067229584532493844
ημερ@@ 0.03353358851302381
ην 0.08048027134812116
ηση 0.01008728749876087
ιγ@@ 0.04359098629639717
κοπ@@ 0.09054145643197771
μή 0.03038154578912409
μή@@ 0.02178829100258993
μυ@@ 0.055782141616486536
πέ@@ 0.022906326634118932
ριν@@ 0.043318922983715376
ροι 0.07609191592624448
τικός 0.034762286657691856
τρα 0.05557448904365606
τός 0.05056665842844244
боль@@ 0.001928115660748161
есть 0.007384017579594733
стве 0.0040153449312705525
ственный 0.008082349271013593
ющи@@ 0.003820587629419932
տ@@ 0.7292551039253946
آ@@ 0.007227833616594759
الله 0.03910649867834988
ب 0.003364466560189191
ص@@ 0.0032813024480286197
محمد 0.020608474963771765
من@@ 0.0052291552819745315
ن 0.0065458423666955095
བ@@ 1
ေ 1
Ἱ@@ 1
し@@ 0.6425024667146189
ー@@ 0.14421612827103858
天@@ 0.00331681769892856
省 0.002739211506570033
주@@ 1
Distr@@ 0.008700215105185857
Kant@@ 0.007240528969362449
Landes@@ 0.004775692580578333
Mai 0.0025539208681866305
Mek@@ 0.02780870260763687
Türk@@ 0.023847848028001453
Vier@@ 0.006634428010020317
ached 0.002319729786285064
aide 0.006129094762861908
alien 0.005200157358983799
alter@@ 0.004315049667793916
altung 0.00436626087063485
associ@@ 0.0024651324754674945
auch 0.00042280127266100916
comun@@ 0.003971051294543525
cut 0.003977298564433173
dar 0.005007531919383246
diz@@ 0.011259951378059178
eaux 0.00546029496428984
emen 0.005675930846244724
empl@@ 0.005275827487323513
engo 0.040999698251936535
esen 0.0026476971496898964
fait 0.001105393950012543
found@@ 0.004248214696175436
fte 0.004658764162573489
gique 0.006643924707312292
hui 0.0055853829020852536
instrum@@ 0.003527268584053623
kam 0.0024887365142304534
late 0.0019302856635125744
lichkeit 0.005455605610938582
lui 0.0014633844845586758
mik@@ 0.02985849365226671
nant 0.0057814107517953645
nom 0.0018029333437722841
odo 0.0065301067430387025
oku@@ 0.04318828583759143
ortho@@ 0.01857393255628212
oğlu 0.024379135966831635
pays 0.0032972674426304137
pek@@ 0.10145462314951013
points 0.0021075408467871016
pour@@ 0.003596174892609278
provid@@ 0.0018074087688075202
riere 0.02709943541954939
rö@@ 0.00650692259670274
schaft@@ 0.002426714287555458
succ@@ 0.0019673261180482454
tim 0.011802640222011235
tradi@@ 0.001412453379347804
tras 0.0034609852166131343
tries 0.002742854624338729
wah@@ 0.004328005006669605
west@@ 0.0022813692617942583
without 0.0025942476557562853
women 0.0018754213723701058
yal 0.007084238868371788
zog 0.005066987634238483
¥ 0.19412080361003642
À 0.0020929912288411463
Öz@@ 0.019995131455631136
éd@@ 0.003069611048098606
élé@@ 0.0046091210183643325
ís@@ 0.004027084507492549
öz@@ 0.008526001013889555
ús@@ 0.013378263517341395
ück 0.0058062647075375244
ÿ@@ 0.26264803193418207
ız 0.018327118729130232
ƒ 0.6464833834757703
ǐ@@ 0.5293767536300534
ɒ@@ 1
Σχολ@@ 0.06903324429158315
Τ 0.11153064769233084
Φ 0.2797005534105058
ήγ@@ 0.0274266394621549
ήν@@ 0.03211161493092962
ειδ@@ 0.017665853203717847
ερν@@ 0.041400501664650154
ζω@@ 0.04069696960422149
ιζ@@ 0.03785367923949782
ικού 0.00819577071379931
κιν@@ 0.01743351318425852
με 0.0013278869293045855
πατ@@ 0.0398828136813065
ρη 0.06423010866202439
ρη@@ 0.04426451818123686
ρύ@@ 0.04406934261090306
υπο@@ 0.009931074233441384
φυ@@ 0.04614327381595295
χώρ@@ 0.04773442118891685
ωνία 0.03617573877419795
όπο@@ 0.11851343606958982
Это 0.007257493591969441
был 0.0006386809550767516
дународ@@ 1
ью@@ 0.008771479526789677
ёт@@ 0.007797342103709946
ѵ@@ 1
Հ@@ 1
գ@@ 1
اء 0.0067154994816447985
الم@@ 0.002055245838332974
ی 0.009306452004322445
Ḥ@@ 0.1576274804205984
ἴ@@ 1
⅔ 0.977948445062173
≡ 0.4949471661539489
● 0.2540147350525773
し 0.22684142325318676
区 0.0026860746597250694
十@@ 0.002348392470896113
家 0.0023773764191128122
新@@ 0.002458962427020321
武@@ 0.006348996812279249
物@@ 0.0051119085032147685
대@@ 0.597288831187375
Azer@@ 0.010378566820419247
Eine 0.003319889604125086
Luis 0.0053894326525394665
October 0.0010733670301718836
Oly@@ 0.10723313821891217
Santi@@ 0.08558428173612888
Straße 0.005840740028803503
Türkiye 0.013254571604157458
Wilhel@@ 0.019673563388113328
Wirt@@ 0.005409260368597152
abu 0.03173254946307746
agre@@ 0.0025573940978132763
agric@@ 0.0031896176419203763
aten@@ 0.004728530208297905
avec 0.0004204937615335365
between 0.0006248753728283554
candid@@ 0.002366347439951661
carri@@ 0.002765155866760894
condi@@ 0.002794837020306379
constitu@@ 0.001561774537026229
conv@@ 0.0037662993848569756
dedic@@ 0.004241221519759277
dows 0.014854553778326403
emba 0.08406497399765578
energ@@ 0.003936473890062016
español 0.007101510961638854
exten@@ 0.002616118939741246
five 0.0014976923403651778
français 0.0027669552822686553
furt 0.006578634550534857
för@@ 0.004783273505947449
hak@@ 0.018303295807059597
idente 0.006596134097851532
ikia 0.15322003647251556
irat@@ 0.01695777470827963
kata 0.030690503024656254
lage 0.0032821195109933154
liga 0.0033805988473747683
meng@@ 0.049023833427135115
mort 0.0027737959970115388
pay@@ 0.004041243840812744
polic@@ 0.003982130853831272
saf@@ 0.004630686070532748
sal 0.006745880534000897
same 0.0010341937262379126
sos@@ 0.016837987359287862
tard 0.003897293890925025
tario 0.004859295414054164
tische 0.005781451407862298
vez 0.00266182835531464
waf@@ 0.07429459319144276
when 0.0005591135241536496
Über@@ 0.002337756030179052
êt 0.005166108513852056
ól@@ 0.006923408914197429
üb@@ 0.005588493718616978
üst@@ 0.005943143346020081
ık@@ 0.008448128621972053
ış@@ 0.005608616121252817
ǫ 1
ɣ@@ 0.8478481179895306
ʁ@@ 1
Απο@@ 0.047129326533386015
Β 0.018688872482808216
αυτ@@ 0.015826725652420735
για 0.0020257040460141583
δια@@ 0.007692425811764954
δομ@@ 0.06716504705860805
ελλην@@ 0.022369249048809835
θη@@ 0.01236361884216584
λις 0.06764637891369339
μένη 0.015359900599276608
ορι@@ 0.021342533493752317
πρω@@ 0.01933373874571607
ρίας 0.025954217051774687
ρό@@ 0.07099054184219183
τιν@@ 0.05125452876172005
τών 0.03336883382924482
υχ@@ 0.040204053524973485
φαν@@ 0.03986447314157656
χν@@ 0.040723240732909095
όλε@@ 0.2345380747130224
ύ 0.037145347527218535
апре@@ 0.016994003181095518
войны 0.0035768127304620515
встре@@ 0.005538304670095151
государ@@ 0.0061445201534604975
льное 0.006375572903115125
один 0.0052280069749863056
памя@@ 0.007273778027435239
щая 0.006043882328766754
явля@@ 0.003633659658173494
ќ 1
Ѣ@@ 1
լ@@ 1
ս@@ 0.7923370772481905
ր 1
ז@@ 0.5287178331002674
ך 1
اس@@ 0.007459048155357154
الع@@ 0.0038899594962568096
الن@@ 0.004953267438307508
ق 0.0036758266147513103
ني 0.0189830315471995
ْ 0.11001603395823747
پ@@ 0.007315417419917832
म 0.004067854803151406
ດ 1
ར@@ 1
ფ@@ 1
ṇ@@ 0.099669601368613
ῥ@@ 1
↔ 0.4191552270700167
√ 0.7848704861654747
ⰵ@@ 1
ⱄ@@ 1
人@@ 0.0020002095796633553
北@@ 0.0023715634042267473
字 0.006912187720499294
이@@ 0.33728117128216206
Er 0.0008499607412180958
Famili@@ 0.004440179483367778
Gemein@@ 0.0023905772896472863
Kib@@ 0.05045310066273127
Stadt 0.001706803746829687
Wasser@@ 0.004670705776108852
actu@@ 0.0014964657868016319
administr@@ 0.001376895968355084
adop@@ 0.0027668853288196175
ainer 0.005304985839247141
alı 0.008721948227979247
assen 0.004007848818367171
atives 0.002768448803917079
bay 0.004909238675874177
bier@@ 0.008754493452314209
cito 0.0846966917379383
destr@@ 0.0027307628817191754
deu@@ 0.026225405356884345
drei 0.001762146160982749
edil@@ 0.011612113416619942
ehem@@ 0.026112351526525867
embre 0.003424968960327126
ersch@@ 0.0027307349029926232
eso 0.009874095092691378
exist@@ 0.001714544547592865
fico 0.005140954832281654
former 0.001070488338776788
found 0.0010535552056087044
grab@@ 0.005314188318211883
gé@@ 0.005622029437866649
haz@@ 0.013666612802969174
hier 0.00398755737028409
historia 0.004641278294684582
hosp@@ 0.0034330687964961863
indi 0.05276440243129241
inform@@ 0.00267106375672662
jap@@ 0.012234268972271941
joint 0.0039068700536057915
kana 0.0616096970783505
kip@@ 0.08234167991872968
kreis 0.004102179882177707
langu@@ 0.0069454924625509265
leurs 0.002463781904413193
mente 0.00994082837495596
nomin@@ 0.0022746584435793236
ographie 0.003619001672346267
otra 0.006604474031989697
porte 0.0018580760925494193
present@@ 0.0013361639268666251
rol 0.012821398999439288
rue 0.005356029966217675
sah@@ 0.015625831030858683
sev@@ 0.011462096692883558
signi@@ 0.006236861616174256
still 0.0016506890138914682
support 0.0018893107039732575
take 0.0021522508177099185
third 0.001512782590409546
three 0.0006004765302258454
tigen 0.0021825083080376706
tä@@ 0.008446156928118757
uerto 0.005227735532533535
vard@@ 0.05634509102383498
[...]
