. 2563016
، 2410930
في 2399508
من 1357662
ي@@ 1083375
ب@@ 994412
ل@@ 940190
ك@@ 895874
أ@@ 845638
ية 792649
ت@@ 729771
و@@ 729535
الم@@ 713830
ه@@ 662824
ي 659399
ة 657438
على 652101
ال@@ 637808
ف@@ 600344
ه 592461
وال@@ 584477
( 584198
) 583747
ج@@ 562641
ق@@ 550288
ع@@ 539194
ح@@ 528001
الأ@@ 516622
م@@ 495081
الت@@ 486259
لل@@ 485651
ش@@ 485587
ط@@ 475548
إلى 472465
ين 452810
إ@@ 434962
غ@@ 433268
ر@@ 431100
د@@ 430831
د 430510
ها 422071
ن@@ 414065
&quot; 413254
س@@ 412629
ص@@ 411927
ر 403576
ات 393720
ب 392018
و 391282
ل 380564
م 379273
ت 377720
ا 368613
وي@@ 361253
ري@@ 355951
ز@@ 352985
الع@@ 349248
ع 347367
الح@@ 346801
خ@@ 338038
الس@@ 336896
ق 333186
ف 332316
ى 331771
أن 319848
س 309684
عام 306670
الق@@ 302218
ض@@ 301938
الك@@ 294654
الج@@ 293748
سي@@ 292200
را@@ 291142
ك 288983
ث@@ 288358
ان@@ 288137
رو@@ 283022
ان 281524
ار@@ 280833
بي@@ 280686
وا@@ 280412
الن@@ 278457
ون 278066
لي@@ 273663
هو 273016
ًا 266821
الش@@ 266521
مة 261502
في@@ 260696
رة 256233
ين@@ 255823
وم@@ 248155
لة 247391
وت@@ 246428
هم 244815
الد@@ 244324
الب@@ 242845
مع 242615
التي 236146
ذ@@ 231239
دي@@ 230798
مي@@ 230355
الإ@@ 230029
ار 227399
ح 224770
لا@@ 224669
: 224661
ول@@ 224303
من@@ 224283
ست@@ 222042
ال 218672
ما 216884
كان 216740
ير 216189
دة 215705
عن 215383
أو 212144
اء 211187
اب@@ 211106
ون@@ 208732
يا 206773
عة 205352
ز 204241
الص@@ 202534
الف@@ 200530
وب@@ 199367
ج 198164
ور@@ 196381
ائ@@ 195261
ام@@ 194564
ور 193277
مع@@ 189069
تق@@ 185849
مو@@ 184968
تش@@ 182346
تم@@ 181246
تح@@ 179102
تر@@ 177195
ام 176295
ا@@ 174204
لو@@ 172210
ذلك 170901
ن 167786
ط 165422
ات@@ 164356
بر@@ 164101
زي@@ 162807
ث 162052
اد@@ 160731
الخ@@ 158616
حي@@ 157118
ير@@ 155054
الط@@ 154458
هي 153329
ول 152112
ما@@ 150511
تع@@ 149747
ض 147871
اع@@ 146361
وأ@@ 145078
اً 144056
هذا 143124
رية 142301
بعد 142161
الر@@ 140446
المتحدة 138840
يات 138572
بين 137797
هذه 136755
نا@@ 135219
أن@@ 134721
قة 134051
الي@@ 133907
لا 133670
با@@ 132101
اله@@ 131660
ني@@ 131652
« 131089
» 131019
ُ@@ 130188
سة 130157
قي@@ 129880
وس@@ 129771
اس@@ 129551
اف@@ 129403
وج@@ 129384
كي@@ 128348
وق@@ 128109
الذي 126435
تم 125921
دي 124684
وف@@ 123800
كل 123020
ّ@@ 122786
تو@@ 122157
- 121056
يل 120373
مح@@ 119050
وك@@ 118821
مر@@ 118550
َ@@ 117589
است@@ 117458
كة 116873
مس@@ 116828
والم@@ 115732
مت@@ 114543
بع@@ 114363
ته 114187
حيث 111419
تي@@ 111162
الغ@@ 110502
بن@@ 110400
الث@@ 110302
ارة 110037
رات 109635
مل@@ 107259
فر@@ 106651
المر@@ 106022
كانت 105909
ظ@@ 104282
لية 103720
ند@@ 103612
ولد 103511
ود 103464
أس@@ 101982
فة 101803
قبل 100864
عل@@ 99703
در@@ 99296
@-@ 98351
لم 98317
مثل 97323
غ 97247
سي 96813
قد 96488
خلال 96005
حة 95834
تص@@ 95754
ص 95641
ئ@@ 95098
آ@@ 95087
بة 95076
تف@@ 94868
الو@@ 94762
يد 93521
وقد 93369
اد 93064
غير 92337
تج@@ 92088
الولايات 91798
المح@@ 91572
اس 91084
ش 89736
بن 89600
يع@@ 88193
لات 87918
ادة 87102
بل@@ 86903
تب@@ 86640
مج@@ 86465
ء 86322
كما 86187
رب 85078
طة 84729
دا@@ 84564
مار@@ 84424
كرة 84386
ؤ@@ 84189
سم@@ 83993
المج@@ 83690
المع@@ 83503
اني 82667
لي 82469
سك@@ 82328
كت@@ 82222
اه@@ 82051
بد@@ 82021
وفي 81919
بي 81535
تا@@ 81526
سب@@ 80908
سنة 80772
سل@@ 80662
اب 80645
دو@@ 80633
نية 80470
لف@@ 80362
اح@@ 80205
بو@@ 79593
وا 79540
مش@@ 79003
له 78057
اك@@ 77788
يم 76701
شر@@ 76491
حتى 76394
بعض 76352
تها 76243
يق@@ 76160
مق@@ 76088
انية 75762
بح@@ 75700
سر@@ 75628
ري 75572
الل@@ 75451
الية 75224
ِ@@ 74676
وم 74348
عدد 74120
عم@@ 74076
وص@@ 73634
أنه 73281
ني 73280
يو@@ 72204
مل 72193
إل@@ 71756
يك@@ 71700
رين 71629
يس 71611
وهو 71191
وع@@ 70701
مست@@ 70679
مد@@ 70524
برا@@ 70488
أم@@ 69875
سية 69798
مان 69439
مية 69358
جن@@ 68838
نة 68672
المن@@ 68252
/ 68064
بار@@ 67875
رب@@ 67423
اص@@ 66581
نظ@@ 66549
الز@@ 66391
ترا@@ 66359
اج@@ 65978
لك@@ 65770
ائية 65644
جي@@ 65595
مص@@ 65574
تك@@ 65438
اط@@ 65125
ورة 65025
يين 64637
بية 63828
أص@@ 63776
هر 63635
سو@@ 63407
او@@ 63395
لاعب 63202
تي 63042
أل@@ 62828
المست@@ 62828
يم@@ 62730
أكثر 62294
ثم 62293
اة 62191
هي@@ 62185
مه@@ 62091
ذ 61745
عية 61570
كان@@ 61543
الة 60850
وية 60529
وح@@ 60443
وات 60386
دية 60289
نج@@ 60029
عمل 59915
المملكة 59871
إي@@ 59807
زة 59607
أي 59475
الي 59360
ديد 59254
اي@@ 58887
راء 58349
تد@@ 58322
ئة 57917
اش@@ 57695
فا@@ 57447
أمريكي 57245
لها 57160
يمكن 57077
يت@@ 56981
مي 56929
لت 56923
شي@@ 56829
المص@@ 56595
وري 56334
اض@@ 56275
الأس@@ 56201
مدينة 56186
وز@@ 56040
به 56036
نش@@ 56010
از 55912
بات 55590
قدم 55451
لعب 55287
عد@@ 55275
البي@@ 55194
وهي 55045
رت 54818
لق@@ 54789
عات 54683
وي 54537
ء@@ 54536
تن@@ 54286
خط@@ 54285
1 54038
ّ 54017
طر@@ 53961
اق@@ 53445
جو@@ 53390
يه 53382
عام@@ 53126
– 53083
نس@@ 52989
الأم@@ 52803
كم 52530
مر 52484
بشكل 52470
قو@@ 52255
فو@@ 52182
% 52011
نق@@ 51685
أول 51664
بال@@ 51625
تخ@@ 51213
خ 50989
ود@@ 50736
سط@@ 50280
اخت@@ 50156
حية 50025
عبد 50022
ابة 49830
2 49695
نا 49695
إن@@ 48963
عي 48955
جز@@ 48644
الذ@@ 48506
الاست@@ 48417
ائي 48404
خت@@ 48396
.@@ 48304
المق@@ 47842
حد@@ 47767
عب@@ 47617
؛ 47444
شا@@ 47246
صل 47238
الشر@@ 47146
قص@@ 47029
اته 46921
3 46904
رج@@ 46900
كن 46835
حر@@ 46833
هناك 46823
وكان 46802
از@@ 46773
العديد 46708
فية 46647
تكون 46229
أك@@ 46168
بها 46168
مك@@ 46142
هد 46070
ولا@@ 46034
السي@@ 46008
ائل 45921
, 45828
علا@@ 45754
يتم 45663
عر@@ 45580
يُ@@ 45539
أر@@ 45524
وض@@ 45225
5 45059
الفي@@ 44978
فري@@ 44952
البح@@ 44601
درا@@ 44462
طل@@ 44348
اع 44345
بري@@ 44342
لاح@@ 44240
حص@@ 44192
لف 44020
المت@@ 43975
المؤ@@ 43954
ولة 43815
أخرى 43804
المس@@ 43743
تين 43572
ده 43550
المي@@ 43058
مات 43043
البر@@ 43040
4 43037
شار@@ 42932
نادي 42900
نو@@ 42770
مركز 42758
قل 42609
غي@@ 42493
صر 42352
والتي 42286
منها 42210
علم 42158
جه@@ 42064
العل@@ 42033
وغ@@ 41926
أنها 41847
مجلس 41784
القرن 41674
دار@@ 41631
ريق 41615
يون 41511
فيها 41487
عب 41329
منذ 41226
خص@@ 41080
دا 41071
حسب 41033
تحت 40917
استخدام 40800
ومن 40784
مارس 40700
تعل@@ 40598
ديدة 40502
بط@@ 40451
قر@@ 40420
َّ@@ 40246
كل@@ 40035
الأول 39975
سم 39931
عندما 39846
وسط 39793
عشر 39743
افة 39723
كي 39652
جامعة 39567
اسم 39546
ولكن 39537
جميع 39529
وإ@@ 39460
مث@@ 39340
الض@@ 39210
ارات 39063
ثر 39053
ينية 39045
الات 39020
يش@@ 38925
مرة 38917
3@@ 38908
وار@@ 38896
بسبب 38891
ـ@@ 38827
العالم 38810
أث@@ 38757
سن@@ 38724
هما 38702
دت 38605
محمد 38586
دع@@ 38445
قي 38393
تس@@ 38372
الذين 38155
حول 38049
سون 38004
قية 37872
الأل@@ 37870
ٍ 37800
سات 37768
مؤ@@ 37764
در 37731
الفر@@ 37727
ست 37615
يو 37596
أه@@ 37517
يكون 37502
لب 37429
الله 37378
قب@@ 37274
لح@@ 37249
6 37166
سياسي 37149
الأولى 37130
وير 37074
لت@@ 37073
أحد 37065
منطقة 37061
مرا@@ 36917
وتوفي 36827
العام 36734
بق@@ 36634
مان@@ 36565
تبر 36517
المنا@@ 36501
عند 36496
داد 36401
الرو@@ 36310
كار@@ 36229
ورية 36194
فل@@ 36192
مانية 36145
ثة 35981
الرا@@ 35923
قط@@ 35871
أيضًا 35844
أخ@@ 35840
أد@@ 35826
انات 35685
أ 35550
التع@@ 35444
المه@@ 35410
نسمة 35395
ادي 35392
أش@@ 35327
وس 35295
وجد 35250
شركة 35204
لفة 35129
أس 35097
مت 35082
كن@@ 34992
تلك 34988
دور@@ 34698
سع@@ 34683
2004 34505
امل 34461
اية 34406
دون 34378
صي@@ 34330
عادة 34301
كية 34216
تُ@@ 34127
مجموعة 34008
كث@@ 33976
وى 33895
كو@@ 33854
الحر@@ 33818
الآ@@ 33693
بدأ 33653
الجن@@ 33570
تط@@ 33568
جا@@ 33539
طي@@ 33501
الأر@@ 33487
الحرب 33332
مب@@ 33170
بت@@ 33154
الأمريكية 33047
لإ@@ 33013
8 32999
بر 32965
جر@@ 32910
ً 32898
أف@@ 32876
خلا@@ 32849
يح@@ 32823
عمال 32750
يني 32684
4@@ 32652
أي@@ 32618
ماء 32614
التح@@ 32613
لال 32544
7 32489
كس 32475
مايو 32443
كات 32419
سكان@@ 32340
بلغ 32294
يت 32278
اث@@ 32217
علي 32163
الأك@@ 32126
يوم 31950
النظ@@ 31883
يناير 31752
اف 31718
وت 31713
تا 31667
زية 31640
درجة 31635
المش@@ 31585
بعة 31551
فبراير 31505
رون 31474
ندي 31430
ْ@@ 31320
اه 31243
العمل 31169
انت@@ 31167
ربي 31148
لاد 31067
نت 31053
يخ@@ 31042
مال 31029
مين 30992
إن 30966
ظه@@ 30959
وفي@@ 30885
أبريل 30796
ولا 30774
آخر 30712
جنوب 30649
وه@@ 30631
أكتوبر 30592
خي@@ 30573
ولي 30503
بات@@ 30416
اق 30413
أغ@@ 30369
قائ@@ 30347
فقد 30314
إلا 30298
دار 30285
اص 30282
ظهر 30271
دها 30191
الان@@ 30177
كر 30137
لم@@ 30090
جب 30014
جية 29992
9 29952
&#93; 29939
الثاني 29904
سر 29886
تز@@ 29881
عمل@@ 29827
عدة 29820
كون@@ 29800
ستخدم 29772
شع@@ 29748
ّة 29714
&#91; 29702
دات 29650
فور@@ 29646
ةً 29625
2@@ 29610
ئ 29609
بـ 29580
قلي@@ 29530
10 29486
دان 29480
5@@ 29478
فت@@ 29424
عل 29396
يونيو 29396
الري@@ 29387
جل 29381
برو@@ 29332
يوليو 29325
ديسمبر 29297
دخ@@ 29238
سيا 29230
عضو 29203
ليل 29155
فق@@ 29069
سبتمبر 29050
يقع 29037
بور@@ 29011
التر@@ 28967
لكرة 28939
عن@@ 28932
َ 28907
يًا 28895
الرئي@@ 28890
دف@@ 28854
باب 28804
العربية 28778
بش@@ 28765
مما 28746
دائ@@ 28741
فيه 28690
زل 28658
تأ@@ 28608
عت 28589
موا@@ 28560
قات 28516
رض 28513
دو 28506
وجود 28394
كر@@ 28366
كز 28356
جهة 28299
عليه 28299
الدي@@ 28283
المدينة 28200
أمريك@@ 28168
ادية 28134
ستر@@ 28100
دارة 28085
رس@@ 28069
قع 28021
نوفمبر 28014
ينة 28013
القدم 28011
وسي@@ 27984
فإن 27917
دم 27907
بما 27833
العلا@@ 27796
لان@@ 27782
رئيس 27775
وط@@ 27733
ولاية 27699
سلط@@ 27630
النا@@ 27560
البل@@ 27556
سن 27546
أغسطس 27518
والأ@@ 27513
انتق@@ 27468
تاريخ 27418
أة 27416
دد 27389
مط@@ 27334
المث@@ 27256
ضد 27253
سبة 27249
يز 27191
بين@@ 27181
الرغم 27152
6@@ 27093
بل 27052
وع 27036
جي 27029
نظام 27002
طريق 26989
لين 26961
سين 26907
المغ@@ 26867
يخ 26806
شارك 26785
فقط 26744
الأخرى 26680
ذات 26658
فر 26637
اسي 26634
ضي@@ 26607
20 26600
إذا 26586
الوقت 26471
بإ@@ 26442
البري@@ 26437
زي 26414
ندا 26313
ربية 26290
هة 26266
وار 26217
واء 26187
ضة 26102
أح@@ 26100
دف 26081
مدر@@ 26080
شه@@ 26001
التص@@ 25993
داء 25951
عش@@ 25932
واحد 25923
مخت@@ 25914
جة 25857
كوم@@ 25844
دين 25813
أما 25812
ضمن 25724
ة@@ 25723
إحدى 25709
ند 25707
بار 25670
رف 25662
نف@@ 25524
وة 25519
أت 25485
دير 25481
انتخب 25477
أكبر 25470
7@@ 25463
را 25461
اري 25422
باسم 25413
نفس 25394
بيل 25388
الأح@@ 25357
فضل 25352
المنطقة 25336
17@@ 25323
ُ 25218
فض@@ 25181
وش@@ 25172
لاً 25033
ماني 24917
آن 24828
حالة 24801
الحزب 24795
قام 24773
15 24762
اللا@@ 24751
ولي@@ 24727
تض@@ 24709
خار@@ 24645
روس 24629
الحدي@@ 24534
ريك@@ 24533
مسي@@ 24513
مون 24498
الدرا@@ 24442
صة 24422
نفس@@ 24411
الموا@@ 24386
لام 24335
ينا 24308
وكانت 24283
عليها 24270
12 24253
التق@@ 24247
وذلك 24224
صول 24223
خل@@ 24121
الاح@@ 24076
اغ@@ 23995
18@@ 23992
حين 23976
بناء 23913
القدي@@ 23911
عبر 23892
وان@@ 23892
لكن 23862
والذي 23860
كبير 23837
سا@@ 23818
مون@@ 23784
تار@@ 23743
أيضا 23741
اتها 23709
الأمريك@@ 23647
جون 23646
عد 23639
حي 23610
حوالي 23599
داخل 23550
روا@@ 23454
دى 23431
كري@@ 23365
نجلي@@ 23362
الرسمي 23333
خد@@ 23332
راد 23327
عملية 23307
ولوج@@ 23287
فت 23279
طور 23264
الثانية 23231
ذا 23208
ضاء 23197
القي@@ 23177
سين@@ 23163
كتب 23158
عي@@ 23121
باش@@ 23097
اليا 23057
يست@@ 23021
رئ@@ 22999
وب 22971
مف@@ 22963
طفال 22949
مبار@@ 22931
الأص@@ 22881
مقاطعة 22859
تبع 22857
النس@@ 22842
ولية 22817
الحكومة 22802
مال@@ 22802
نين 22763
مُ@@ 22708
ثلا@@ 22703
حصل 22662
واحدة 22651
الاجتماع@@ 22580
جر 22570
ارية 22524
8@@ 22491
9@@ 22485
للأ@@ 22485
ساب@@ 22482
انا 22480
بالت@@ 22475
بالإضافة 22467
لأ@@ 22467
ـ 22446
مواليد 22425
وني 22422
ِ 22397
طبي@@ 22391
المد@@ 22383
ونادي 22282
طي 22275
اعة 22261
الجز@@ 22256
راً 22252
ناء 22237
الرئ@@ 22206
رار 22117
الإن@@ 22062
دري@@ 22057
المسل@@ 22055
النه@@ 22044
نوع 22041
30 22037
اسية 22035
دن 22022
19 22004
فترة 21997
11 21976
جار@@ 21975
ريقة 21970
داية 21959
قد@@ 21920
تغ@@ 21916
وّ@@ 21849
نامج 21847
بير 21817
اصة 21790
كون 21781
العامة 21773
جب@@ 21689
المسي@@ 21680
اللغة 21648
ويل 21625
يز@@ 21583
فيلم 21579
قًا 21578
يقدر 21560
السياس@@ 21532
سمى 21506
مغ@@ 21474
دور 21451
سان@@ 21411
مثلة 21388
الوطني 21364
بول@@ 21328
تر 21326
أثناء 21274
تل 21271
انيا 21247
مض@@ 21204
كور@@ 21182
رير 21180
الموس@@ 21158
; 21126
غرا@@ 21115
شر 21114
ادر 21107
امة 21065
بت 21063
الفرنس@@ 21045
ظ 21035
القان@@ 21024
ينتمي 21015
الإم@@ 21001
ته@@ 20999
المغربية 20988
رض@@ 20978
تت@@ 20950
خر@@ 20944
نز@@ 20894
للسكان 20888
ودية 20885
14 20883
مس 20876
الطبي@@ 20872
بوا@@ 20872
والإ@@ 20861
ابن 20843
D@@ 20827
مز@@ 20806
تقع 20792
جم 20792
اتب 20789
الجام@@ 20755
16 20746
تضم 20728
بغ@@ 20717
فق 20704
أو@@ 20675
منظ@@ 20662
بينما 20657
سل 20657
عرف 20503
طلق 20495
الأد@@ 20490
تون 20488
طان@@ 20476
القر@@ 20471
ينات 20470
25 20466
الدولة 20435
نم@@ 20430
قال 20421
قيق 20366
التالي 20353
18 20345
العالمية 20333
لس 20319
ارد 20318
يف 20258
عدم 20254
المط@@ 20238
لندا 20179
زيرة 20132
منتخب 20130
دل 20126
لسنة 20113
L@@ 20110
بع 20093
سرائ@@ 20075
ورا@@ 20037
مانيا 20035
الاتحاد 20010
ودة 19994
13@@ 19895
شخص@@ 19885
17 19876
سان 19860
كبيرة 19806
سبب 19798
وتع@@ 19797
تل@@ 19758
تمع 19749
قت 19739
عين 19735
لدي@@ 19727
عرض 19716
البط@@ 19709
السل@@ 19706
اليوم 19704
فرنسا 19674
فات 19646
نسبة 19627
اره 19602
S@@ 19598
ويك@@ 19590
واست@@ 19585
نحو 19575
عاب 19566
1@@ 19549
13 19536
وروب@@ 19529
نشط 19521
أجل 19514
لو 19484
2010 19469
ملا@@ 19468
ابات 19458
بأن 19457
وخ@@ 19440
وقت 19416
التعليم 19413
ومع 19402
الملك 19399
مهورية 19389
ندية 19384
حزب 19334
الحيو@@ 19331
تيجة 19326
يس@@ 19326
ايا 19307
نه@@ 19303
فار@@ 19270
داخ@@ 19266
إقليم 19252
للا@@ 19252
إص@@ 19243
سنوات 19237
َّة 19237
بلا@@ 19222
الخاصة 19201
يون@@ 19200
الإحصاء 19188
واق@@ 19172
عائ@@ 19135
جماعة 19131
شكل 19109
روف 19107
الإنس@@ 19093
عق@@ 19072
مصر 19058
يار 19026
نى 19019
الفل@@ 18975
هـ 18947
أصبح 18880
مالية 18872
مه 18822
جائ@@ 18808
قل@@ 18780
غة 18758
غر@@ 18756
طلب 18755
حد 18742
استخد@@ 18741
ونية 18732
الث 18731
زيد 18710
فن 18703
خدمة 18673
مها 18663
C@@ 18661
مشيخ@@ 18644
العسك@@ 18640
ماس@@ 18615
الاقتص@@ 18601
موسم 18596
21 18584
نط@@ 18584
محافظة 18546
الكث@@ 18485
ضر@@ 18465
شري@@ 18462
رق@@ 18460
صف 18444
النق@@ 18442
ذكر 18375
معظم 18370
نت@@ 18364
يرة 18358
ولم 18338
صح@@ 18322
جور@@ 18315
السع@@ 18301
الكويك@@ 18295
بحت 18293
الحياة 18292
والسكنى 18262
حدث 18226
16@@ 18214
باء 18214
النف@@ 18199
جمع@@ 18183
الفترة 18177
غيرة 18171
اضي 18167
طق 18113
الجيش 18111
ولدت 18089
العرا@@ 18087
بطولة 18082
حزبياً 18061
هار@@ 18047
وق 18036
الوطنية 18015
P@@ 17994
جوم 17982
تمث@@ 17969
الإسلا@@ 17958
ربة 17951
مقرا@@ 17947
الات@@ 17935
دًا 17933
إنتاج 17908
نص@@ 17871
المك@@ 17855
اقة 17837
واقع 17830
الياب@@ 17816
رته 17811
يف@@ 17792
24 17785
الثق@@ 17785
شخ@@ 17785
عض@@ 17777
داً 17758
الأول@@ 17735
2013 17732
ادات 17731
ثلاثة 17727
دُ@@ 17723
ضم 17701
جنة 17676
أُ@@ 17674
وظ@@ 17638
برت 17628
رف@@ 17615
عم 17585
توي 17573
عمر 17533
سلسل@@ 17517
الشرق@@ 17509
بص@@ 17479
فيما 17478
نه 17411
الإي@@ 17393
كام@@ 17387
اعدة 17385
بني 17350
جري@@ 17331
بالق@@ 17305
با 17302
للإ@@ 17293
راض@@ 17286
قيقة 17272
الخار@@ 17271
مج 17262
بالإ@@ 17260
يؤ@@ 17242
يمية 17240
عه 17226
نهاية 17225
حض@@ 17223
ضع 17218
وف 17185
اط 17178
المُ@@ 17178
المف@@ 17169
ورك 17164
ابع 17163
عضاء 17162
جانب 17131
الدين 17098
وله 17091
سياس@@ 17061
يلي 17022
يبلغ 17017
تصني@@ 17011
وري@@ 17009
الأرض 17000
الأوروب@@ 16998
لك 16986
أبو 16938
مكن 16930
10@@ 16926
كول@@ 16923
ائر 16906
M@@ 16894
خرج 16858
التاريخ 16855
يع 16848
الجنوب@@ 16840
العمل@@ 16835
15@@ 16786
وبعد 16783
راض 16763
يران 16750
&amp; 16709
R@@ 16699
14@@ 16678
يش 16658
الها 16647
22 16633
23 16633
رًا 16624
آيت 16611
دث 16605
كا 16593
بريطاني 16591
2009 16576
جرا@@ 16573
وتح@@ 16569
خو@@ 16564
ديم 16564
زوج@@ 16549
يه@@ 16535
تهم 16512
دولة 16512
تست@@ 16510
معر@@ 16500
الصح@@ 16491
العظ@@ 16489
يل@@ 16465
فل 16452
عبة 16451
مى 16445
تو 16444
وَّ@@ 16387
مؤس@@ 16358
العص@@ 16355
2007 16341
تج 16335
جد 16296
شمال 16284
2008 16268
أحمد 16249
فاع 16247
بالم@@ 16228
وث@@ 16187
يني@@ 16161
ابل 16150
لول 16147
حل 16146
فن@@ 16119
طف@@ 16109
وادي 16104
الح 16085
صف@@ 16076
لان 16064
امي 16062
والح@@ 16019
G@@ 15949
آخ@@ 15866
فران@@ 15845
لز 15828
صن@@ 15816
كلي@@ 15776
واس@@ 15759
وسط@@ 15741
البا@@ 15738
H@@ 15697
تاج 15658
ليس 15655
كتاب 15629
واع 15579
سلا@@ 15530
عط@@ 15530
2016 15520
ائد 15516
متر 15484
ظر 15447
وما 15439
مخ@@ 15422
سب 15417
قا 15412
جان@@ 15371
لد 15362
قاع@@ 15356
27 15320
2006 15268
لاء 15258
دون@@ 15248
اك 15235
T@@ 15229
26 15214
0@@ 15205
28 15194
O@@ 15189
جون@@ 15188
لين@@ 15151
انتخابات 15140
طن 15138
قض@@ 15126
يها 15120
أيض@@ 15109
مور@@ 15044
صبح 15014
امت 15006
لاف 14989
به@@ 14962
2011 14919
B@@ 14918
كو 14860
اذ 14740
وال 14698
تب 14687
A@@ 14665
ِّ@@ 14650
سكان 14644
قانون 14618
مالي 14575
بان@@ 14574
ومن@@ 14544
روع 14541
بلو@@ 14530
N@@ 14495
كومة 14471
حق@@ 14440
عرا@@ 14422
نقل 14422
E@@ 14400
سلام 14398
خر 14385
جات 14313
تاب 14295
ائز 14270
2012 14207
ارت 14158
خدمات 14155
شخص 14155
حم@@ 14103
ضافة 14090
منصب 14063
حات 14033
ادل 13986
رح@@ 13931
حال@@ 13906
علومات 13901
اح 13883
نان@@ 13875
لوس 13868
29 13834
طان 13746
ابق 13708
نشر 13698
عالم 13691
2000 13681
ظم 13631
جام@@ 13628
لاح 13592
واج 13568
باً 13553
عمر@@ 13472
000 13468
_ 13398
فع@@ 13398
تون@@ 13355
اخ@@ 13308
طلاق 13301
شب@@ 13286
تاب@@ 13147
اسم@@ 13103
سام 13100
2015 13088
موقع 13074
نات 13050
فس@@ 12988
ترا 12982
2014 12968
تبا@@ 12959
F@@ 12958
اض 12954
2005 12948
تش 12934
I@@ 12927
دس 12910
12@@ 12847
عص@@ 12792
نوا@@ 12788
شو@@ 12782
دود 12757
بس@@ 12744
لغ@@ 12740
-@@ 12736
اء@@ 12632
جو 12620
ستخد@@ 12597
تور@@ 12588
لند@@ 12579
لاب 12523
سج@@ 12496
طلا@@ 12438
بول 12413
ثار 12387
وز 12372
50 12274
بط 12264
زم 12256
المتح@@ 12223
مار 12220
y 12207
دول@@ 12106
توا@@ 12101
طاق@@ 11998
وان 11993
سور@@ 11945
زا 11917
نوان 11917
حت@@ 11915
نائ@@ 11878
اما 11791
دل@@ 11776
حق 11712
عز@@ 11670
ٌ 11654
باد@@ 11560
اذ@@ 11537
لوب 11480
رام 11464
وط 11451
&apos; 11425
31 11411
ملكة 11409
قدر@@ 11397
ارب 11358
غم 11337
رقم 11333
الولا@@ 11330
تنا@@ 11310
ستان 11242
= 11209
رد 11166
رو 11112
ترو@@ 11110
2003 11097
2020 11092
موض@@ 11083
جد@@ 11073
ناصر 11044
جمع 11032
زن 11021
حالات 11001
قسم 10946
2017 10924
سام@@ 10897
٪ 10843
مد 10820
تنظ@@ 10797
0 10756
طب@@ 10704
راج 10686
الت 10649
امن 10590
لندن 10545
شن@@ 10536
جان 10527
فا 10514
علوم 10510
خط 10476
ثق@@ 10469
مز 10443
اج 10442
an 10439
ترج@@ 10432
ونا 10422
واح@@ 10343
بد 10307
فرا@@ 10300
نان 10237
سما@@ 10187
اقتص@@ 10127
خف@@ 10114
ادت 10108
مرح@@ 10078
جن 10058
دان@@ 10058
مجموع@@ 10049
40 10047
1.@@ 10039
100 10034
اعتب@@ 10014
مذ@@ 10006
2002 10000
اون 9986
متح@@ 9973
تعداد 9952
2018 9951
.. 9950
متع@@ 9934
... 9931
الا 9895
s 9876
علاج 9820
باب@@ 9804
حس@@ 9769
بس 9750
ران 9719
لائ@@ 9710
مَ@@ 9694
جل@@ 9686
فاق 9671
العالم@@ 9666
قوق 9639
قرار 9628
2019 9624
2001 9588
تعلق 9574
سلطان 9564
وص 9558
باع@@ 9514
فلسط@@ 9488
اول 9455
الجزائر 9451
العلوم 9438
عقد 9434
حمل@@ 9426
راب 9425
2.@@ 9409
ذي 9374
انس@@ 9357
حل@@ 9353
درس 9351
سطح 9343
الب 9310
افظ@@ 9301
W@@ 9298
ارا 9218
حقوق 9216
بح 9180
زر@@ 9178
وَ@@ 9166
سوم 9163
سا 9142
مختلف 9136
ورت 9136
واض@@ 9099
er 9076
اجتماع@@ 9033
فرنس@@ 8996
صد 8991
كبي@@ 8951
ساح@@ 8945
اور@@ 8943
التار@@ 8931
وائ@@ 8927
بلغ@@ 8895
J@@ 8885
K@@ 8874
اتحاد 8807
نف 8802
مول@@ 8641
آل 8635
الم 8635
طاني 8628
ْ 8609
20@@ 8603
الرح@@ 8524
سو 8487
1999 8482
امات 8457
صدر 8457
0.@@ 8397
قاد@@ 8373
A 8347
60 8339
تان 8328
جمي@@ 8315
متا@@ 8310
رش@@ 8286
تمل 8263
منص@@ 8242
نور@@ 8202
ائم 8166
حسن 8140
1998 8136
مسلسل 8068
1990 8024
حز@@ 8017
ناف@@ 8013
بج@@ 7937
سلو@@ 7927
b@@ 7883
ابت@@ 7870
ندر 7855
رائ@@ 7853
1996 7849
خاص 7842
ائع 7836
1992 7767
185@@ 7740
تال 7694
1997 7652
جما@@ 7637
on 7572
سف@@ 7567
بو 7558
راج@@ 7552
200@@ 7537
نصف 7494
5.@@ 7493
بنا@@ 7473
تقل 7461
غز@@ 7446
تمام 7438
سابق 7425
انتخ@@ 7421
V@@ 7386
25@@ 7382
شعب@@ 7382
اول@@ 7359
formula 7356
is 7354
لر 7352
gt 7350
1991 7282
تلا@@ 7261
1994 7254
جذ@@ 7221
80 7215
lt 7167
شل 7167
بخ@@ 7119
d 7107
1995 7101
وو@@ 7098
جوا@@ 7084
in 7076
اسب 7044
1980 7009
1993 7005
طرف 6986
سون@@ 6981
عالم@@ 6978
قتل 6969
1989 6958
علاق@@ 6950
of 6937
؟ 6924
التعل@@ 6854
ً@@ 6853
لن@@ 6840
s@@ 6832
خان 6811
ضل@@ 6811
اند@@ 6805
1988 6804
3.@@ 6792
قليم 6781
سوس 6753
فرد 6753
لن 6730
آر@@ 6713
1984 6704
us 6696
19@@ 6683
قان@@ 6662
cian 6654
t 6649
1986 6643
رس 6634
لَ@@ 6634
وسف 6632
politi@@ 6619
عمو@@ 6618
son 6573
نح@@ 6542
1982 6488
جا 6482
اجتم@@ 6475
زب@@ 6462
شن 6462
70 6436
1979 6433
y@@ 6403
1987 6390
مرتب@@ 6359
نوب@@ 6353
1948 6331
1985 6322
1945 6317
سال 6303
قائد 6301
السلام 6297
مسل@@ 6291
مقاط@@ 6284
184@@ 6272
P 6246
p@@ 6246
موت 6225
35 6209
1970 6205
a 6195
C 6192
افظ 6178
معلومات 6154
فتح 6141
1967 6121
S 6119
1983 6075
بال 6052
فائ@@ 6044
نظر 6038
24@@ 6013
عظ@@ 6007
غل@@ 5998
90 5997
x 5997
شروع 5982
الف 5959
رر 5958
1981 5945
! 5913
صد@@ 5885
i 5865
تخب 5836
خال@@ 5825
نر 5817
+ 5804
نز 5804
شار 5753
مثال 5733
مم@@ 5721
شاعر 5720
1974 5711
فرو@@ 5702
200 5693
1975 5687
1978 5683
1976 5675
خصوص@@ 5658
انتقال 5629
آن@@ 5624
اون@@ 5615
دست@@ 5613
نار@@ 5601
1973 5591
انق@@ 5589
32 5583
الرحمن 5583
سمي 5582
نام@@ 5542
اؤ@@ 5526
حال 5496
T 5477
او 5472
1972 5432
يول@@ 5431
الوج@@ 5422
D 5403
500 5376
e 5374
طالب 5371
عث@@ 5316
ثقاف@@ 5312
1968 5304
مسجد 5302
مشتر@@ 5299
موجو@@ 5298
ick@@ 5292
لش@@ 5290
1960 5288
1977 5284
p 5281
ومات 5280
t@@ 5262
1971 5252
جم@@ 5251
U@@ 5232
صاحب 5185
r@@ 5176
1969 5164
l 5160
1964 5158
سلم 5138
” 5135
حصاء 5134
ندما 5132
the 5131
نو 5109
e@@ 5088
o 5086
لاع 5082
cr@@ 5070
1963 5058
فظ 5054
نواب 5033
مود 5030
1950 5010
نس 4989
en 4986
اتح@@ 4974
مقد@@ 4953
c@@ 4952
00 4936
الاق@@ 4930
E 4923
الفت@@ 4913
1962 4906
33 4895
ادا 4893
ذر@@ 4884
n 4883
1965 4865
&#124; 4846
1956 4837
لار@@ 4832
1,@@ 4831
M 4822
eter 4820
* 4796
d@@ 4761
انج@@ 4759
es 4755
اور 4743
روز 4740
مربع 4732
جع@@ 4728
1958 4698
37 4691
and 4690
• 4667
1966 4658
on@@ 4646
4.@@ 4644
1961 4627
65 4615
al 4586
n@@ 4583
75 4581
c 4573
The 4554
الوط@@ 4526
34 4525
w@@ 4525
1944 4481
محمود 4478
1949 4467
1947 4462
ing 4459
36 4456
ائن 4453
L 4449
ازت 4435
1946 4432
بز@@ 4426
38 4419
ابتد@@ 4414
aller 4412
لاس 4379
1940 4357
180@@ 4342
1941 4342
R 4342
26@@ 4337
45 4337
o@@ 4332
1939 4329
I 4324
O 4323
1959 4309
1957 4305
“ 4305
1955 4281
foot@@ 4271
رم 4255
h@@ 4227
1954 4212
de 4211
30@@ 4201
28@@ 4199
1952 4192
نام 4177
m@@ 4149
B 4148
a@@ 4080
واضح 4075
زار 4070
خلاف 4061
in@@ 4049
1943 4046
0,000 4035
قدر 4022
جنوب@@ 4016
John 4006
1953 3990
39 3981
خرى 3957
1942 3947
1951 3944
مقاب@@ 3929
هذ@@ 3919
,@@ 3914
خت 3894
27@@ 3883
معروف 3879
1936 3834
00@@ 3811
h 3802
F 3800
قبول 3791
ؤ 3790
179@@ 3784
300 3777
عبد@@ 3762
7.@@ 3740
or@@ 3736
MP@@ 3730
el 3715
en@@ 3711
ارف 3711
روز@@ 3707
6.@@ 3704
1920 3702
g@@ 3699
k 3695
29@@ 3690
سائ@@ 3683
موج@@ 3683
جنا@@ 3680
er@@ 3637
روم 3635
201@@ 3633
Y@@ 3632
سفر 3617
جسم 3608
صرف 3603
بلا 3602
i@@ 3601
55 3586
Mar@@ 3561
محل 3561
ed 3554
f@@ 3545
قوم 3540
g 3533
l@@ 3529
ac@@ 3519
نما@@ 3515
1930 3511
x@@ 3506
الحي@@ 3483
N 3481
سال@@ 3480
al@@ 3473
1938 3466
1933 3459
والد 3451
48 3448
ph@@ 3444
199@@ 3442
1937 3436
Al@@ 3427
ia 3415
انتظ@@ 3412
8.@@ 3390
H 3378
ar@@ 3372
42 3365
مظ@@ 3356
um 3347
85 3344
b 3340
1918 3335
آر 3320
as@@ 3315
ic@@ 3298
k@@ 3298
1935 3296
Ch@@ 3293
واش@@ 3291
قبال 3250
an@@ 3247
9.@@ 3237
2,@@ 3235
el@@ 3235
v@@ 3231
am@@ 3212
1931 3205
استعمال 3205
or 3203
1929 3188
1934 3186
64 3149
X@@ 3148
ar 3119
درج 3114
اصل 3107
طرح 3106
ol@@ 3097
اظ 3086
1922 3074
400 3068
توب@@ 3063
Z@@ 3052
عوام 3048
49 3046
ch@@ 3025
47 3020
ation 3016
95 3015
اتا 3011
41 3008
1928 3005
مجمو@@ 2997
1919 2996
باد 2990
انتخاب 2986
نوف@@ 2960
56 2947
os@@ 2944
om@@ 2934
1924 2933
آب@@ 2931
v 2926
1932 2917
44 2917
قوم@@ 2890
بوط 2882
فلم 2881
th@@ 2874
1921 2866
54 2861
53 2859
72 2856
1923 2854
84 2849
زب 2849
ay 2838
عرب 2838
خوا@@ 2828
1917 2824
اثر 2822
52 2814
86 2814
1000 2808
88 2805
ot@@ 2795
سمة 2782
z 2778
عراق 2777
1925 2771
198@@ 2767
خان@@ 2761
Re@@ 2758
46 2747
51 2746
ad@@ 2746
1927 2745
43 2744
3,@@ 2734
جات@@ 2731
ton 2721
born 2720
66 2716
{ 2714
li@@ 2713
تمي 2710
رسول 2693
1914 2692
اردو 2690
87 2685
رن 2671
83 2670
m 2660
76 2659
Br@@ 2658
1926 2653
57 2649
le@@ 2648
عباس 2647
89 2634
62 2629
j@@ 2629
58 2626
67 2614
81 2611
,000 2609
1912 2607
99 2599
ٌ@@ 2599
as 2598
at@@ 2595
ur@@ 2595
78 2581
63 2577
77 2571
G 2563
71 2559
196@@ 2542
شاع@@ 2539
59 2536
متعدد 2527
amp 2524
w 2522
197@@ 2521
William 2521
An@@ 2520
u 2515
r 2512
وام 2511
05 2508
69 2508
68 2496
96 2482
150 2478
am 2474
di@@ 2469
f 2462
man 2457
مند@@ 2446
61 2440
79 2433
01 2429
ثابت 2428
ine 2426
et@@ 2425
htt@@ 2424
74 2400
} 2392
82 2391
X 2391
سند@@ 2391
et 2383
tr@@ 2376
1910 2374
73 2367
it@@ 2365
James 2362
ter 2352
1915 2348
صاح@@ 2347
em@@ 2306
محافظ@@ 2296
ie 2287
us@@ 2282
نور 2274
co@@ 2273
5,@@ 2268
ick 2267
آد@@ 2266
شام 2264
ul@@ 2259
im@@ 2258
بند@@ 2257
ag@@ 2256
In@@ 2253
04 2246
92 2245
انستان 2242
2021 2241
ڤ@@ 2239
1916 2234
195@@ 2233
1913 2231
98 2226
Ro@@ 2224
اظ@@ 2210
at 2208
93 2204
ard 2200
id@@ 2198
V 2192
av@@ 2192
1908 2189
ٍ@@ 2186
600 2166
Co@@ 2159
ab@@ 2158
ناول 2147
شت 2117
un@@ 2116
ابت 2101
ينا@@ 2099
Car@@ 2097
le 2092
is@@ 2091
03 2080
1911 2075
z@@ 2073
° 2070
to 2069
97 2067
1905 2062
ئر 2059
id 2055
u@@ 2053
ti@@ 2033
12.@@ 2030
09 2025
91 2022
07 2020
il@@ 2015
ro@@ 2009
1909 2004
4,@@ 2004
Le@@ 2004
Sh@@ 1991
08 1984
قابل 1982
250 1973
02 1967
all 1967
طقة 1958
94 1956
es@@ 1945
Ar@@ 1944
1906 1939
eb@@ 1934
George 1929
800 1928
سعو@@ 1924
دوب@@ 1923
ap@@ 1915
op@@ 1906
50@@ 1896
1907 1883
معام@@ 1881
— 1880
1900 1876
06 1872
Bo@@ 1860
st@@ 1853
ers 1851
Ad@@ 1842
194@@ 1841
1904 1840
od@@ 1840
St@@ 1838
David 1830
ww@@ 1816
re@@ 1813
oc@@ 1808
Mor@@ 1802
موجود 1801
افت 1793
11@@ 1790
one 1790
قبر@@ 1790
w.@@ 1788
Mc@@ 1786
Con@@ 1776
ath@@ 1763
\ 1752
1901 1750
Robert 1749
مسلم 1744
ell 1738
Ste@@ 1737
ley 1735
120 1734
ent 1733
1903 1730
W 1729
ir@@ 1707
‌ 1704
lo@@ 1689
شائع 1689
1898 1684
ob@@ 1684
ev@@ 1681
193@@ 1678
1902 1676
U 1674
os 1674
Q@@ 1672
فوج@@ 1671
.com 1666
ter@@ 1665
K 1660
ate 1651
la 1651
10.@@ 1645
ic 1643
23@@ 1642
× 1635
ec@@ 1634
وطن 1627
6,@@ 1621
ice 1620
ى@@ 1618
ri@@ 1608
دش@@ 1607
ی@@ 1604
700 1600
NGC 1594
ve 1594
1890 1593
1899 1591
Fre@@ 1581
ig@@ 1577
² 1577
لفظ 1574
Pr@@ 1564
ad 1556
ey 1555
1896 1552
Charles 1551
IS@@ 1548
40@@ 1539
Tr@@ 1534
اعت 1530
Th@@ 1528
1897 1524
ay@@ 1524
De@@ 1522
11.@@ 1507
حاصل 1507
Gr@@ 1503
80@@ 1501
7,@@ 1498
Thomas 1498
and@@ 1496
Col@@ 1493
ابو 1491
1895 1483
ref 1476
دوس@@ 1475
Bar@@ 1474
1892 1464
بياً 1458
رل 1458
ed@@ 1455
حدى 1455
باز 1449
po@@ 1448
0.000 1447
og@@ 1442
· 1439
ch 1438
احمد 1429
8,@@ 1422
3000 1420
Mo@@ 1412
ut@@ 1411
1889 1407
ana 1407
اوت 1406
35@@ 1397
ner 1396
bas@@ 1395
American 1393
است 1392
1885 1389
1894 1387
ah@@ 1386
’ 1386
im 1384
ne 1384
1891 1381
El@@ 1371
1893 1366
th 1362
Di@@ 1359
ent@@ 1354
um@@ 1354
سند 1354
1888 1352
C. 1349
1880 1344
qu@@ 1342
1884 1331
ce 1331
بريل 1328
ence 1324
امام 1322
ماب@@ 1320
sh@@ 1319
192@@ 1318
ak@@ 1318
Wil@@ 1313
Her@@ 1309
ler 1303
دوران 1300
1886 1299
1870 1298
AT@@ 1297
1887 1295
1500 1290
actor 1290
CO@@ 1289
1878 1282
ps 1278
Ne@@ 1275
1882 1272
New 1272
Ed@@ 1271
اُ@@ 1268
1881 1263
ڭ@@ 1258
وسلم 1251
ina 1238
صوب@@ 1238
مراد 1236
0,@@ 1234
اِ@@ 1232
E. 1231
der@@ 1231
1861 1223
age 1219
1883 1212
Par@@ 1212
1876 1209
W. 1206
Com@@ 1205
Henry 1201
bi@@ 1191
1860 1190
ell@@ 1187
ov@@ 1187
1871 1185
tri@@ 1181
Cor@@ 1180
ker 1174
1879 1172
Per@@ 1171
Cl@@ 1169
Har@@ 1166
for 1165
by 1163
enn@@ 1160
ver@@ 1159
si@@ 1157
جلد 1157
خات@@ 1156
ber@@ 1153
# 1146
9,@@ 1145
Michael 1144
af@@ 1133
ary 1133
ill 1133
Richard 1132
پ@@ 1131
eg@@ 1130
se 1130
it 1127
ist 1125
$ 1124
ati@@ 1124
der 1121
180 1119
end@@ 1115
te 1114
1867 1113
AS@@ 1111
vi@@ 1108
Sp@@ 1105
جس 1105
ne@@ 1104
Harr@@ 1101
For@@ 1098
all@@ 1097
33@@ 1095
واز 1095
Se@@ 1093
il 1092
مقام 1092
ae 1090
1877 1089
L. 1089
He@@ 1088
ale 1088
ra@@ 1085
Ph@@ 1084
Paul 1083
1873 1082
Mat@@ 1081
شامل 1081
آباد 1077
1848 1076
Gu@@ 1073
900 1071
tion 1071
Bur@@ 1065
ard@@ 1064
par@@ 1063
Y 1062
ep@@ 1062
arr@@ 1061
au@@ 1061
160 1059
Sch@@ 1059
de@@ 1059
1875 1058
1866 1057
1865 1056
1864 1053
190@@ 1052
روش@@ 1051
1868 1050
ff@@ 1049
130 1048
Ser@@ 1048
per@@ 1045
110 1042
Smith 1042
da 1038
نوم@@ 1038
football 1036
ess 1035
مشر@@ 1034
II 1033
ni@@ 1032
bo@@ 1029
CA@@ 1027
uc@@ 1026
1872 1025
est@@ 1022
1869 1020
والسك@@ 1018
á@@ 1013
1874 1007
br@@ 1003
ea 1002
S. 1000
ata 1000
od 998
oph@@ 997
NA 996
خدمت 992
ou@@ 991
قائم 990
az@@ 988
ly@@ 980
ta 980
ans 977
ins 976
yl@@ 976
AR@@ 975
ts 974
1863 973
Qu@@ 971
se@@ 971
124@@ 969
R. 969
ok@@ 966
ach@@ 962
ight 961
lin@@ 960
بنا 958
gr@@ 954
B. 952
Cr@@ 949
Dav@@ 948
ez 943
to@@ 942
are 941
Ma@@ 939
Nor@@ 937
la@@ 935
1850 934
AC@@ 932
ST@@ 931
En@@ 930
ory 929
1862 928
فوج 928
350 927
CD@@ 926
est 925
^ 923
Wal@@ 920
ica 918
ore 918
yn@@ 918
Be@@ 916
ann@@ 916
ختم 915
D. 909
na 909
onald 906
é@@ 905
140 904
Man@@ 904
series 904
י@@ 904
Mon@@ 903
pl@@ 902
ly 898
Am@@ 897
ik@@ 893
do@@ 888
sen 886
ens 884
yr@@ 883
قبض@@ 881
Jo@@ 879
ge 877
Joseph 874
ma 874
Fo@@ 873
Gar@@ 873
Edward 872
گ@@ 869
Andre@@ 866
Ex@@ 865
Z 865
Ber@@ 864
? 863
und 862
tor 860
ver 860
Li@@ 859
Chr@@ 858
ace 854
Australian 850
ity 850
ib@@ 849
aw@@ 845
ah 843
com@@ 840
120@@ 839
ho@@ 839
ک@@ 837
2022 834
ue 834
Frank 831
Ros@@ 831
ase 829
1830 827
ing@@ 827
bert 826
name 826
me@@ 825
re 823
Peter 822
Rob@@ 817
Hol@@ 814
آغ@@ 814
Ac@@ 813
ass@@ 812
gen@@ 810
ill@@ 808
ex@@ 806
Or@@ 804
101 803
Clar@@ 803
نساس 802
1800 801
ci@@ 801
ess@@ 800
no@@ 800
ang@@ 797
AD@@ 795
ھ@@ 794
land 793
J 791
st 791
ang 790
ens@@ 790
art 786
Lo@@ 782
ike 781
ol 781
Er@@ 780
ممل@@ 778
Bro@@ 776
ball 776
AM@@ 774
ow@@ 772
Ger@@ 771
ma@@ 771
Sam@@ 770
188@@ 769
حوال@@ 767
Pol@@ 766
Ab@@ 764
ו@@ 764
idae 763
IC@@ 762
per 762
ra 761
hi@@ 759
ty 759
Po@@ 758
ici@@ 758
Gre@@ 756
ks 756
mo@@ 756
RA@@ 753
Mur@@ 752
سطس 752
انص@@ 751
su@@ 750
des 749
189@@ 748
ensis 748
man@@ 747
sc@@ 746
.000 741
Brown 741
ack@@ 741
As@@ 739
US@@ 739
ant 739
pr@@ 737
چ@@ 735
unc@@ 734
ford 732
ony 730
ord@@ 729
the@@ 729
− 729
tin 727
ab 724
ance 723
ys@@ 723
TV 722
How@@ 718
Martin 718
ment 718
BC 717
ot 717
str@@ 717
ir 716
ke 716
un 716
وفات 716
len 715
ome 714
enti@@ 712
جواب 710
dice 709
Scott 708
SP@@ 706
hy@@ 706
inc@@ 704
كاون@@ 703
ai 701
ene 701
SS 700
AC 698
Cal@@ 698
my 698
مدد 696
Ben@@ 693
Lee 693
Bl@@ 692
آ 691
Steph@@ 690
con@@ 690
موال@@ 689
anc@@ 688
mar@@ 687
187@@ 686
ich@@ 686
les 684
Fl@@ 683
Mark 683
ame 683
Me@@ 682
Ver@@ 682
iz@@ 679
ud@@ 679
Q 678
ket@@ 678
Go@@ 677
dis@@ 676
Char@@ 675
Tom 675
ari@@ 675
Joe 674
sp@@ 672
ane 671
ney 669
Str@@ 668
آز@@ 668
MS 667
dy 667
Pe@@ 665
mus@@ 661
ry 661
AN@@ 660
ws 660
Bri@@ 659
gu@@ 659
car@@ 657
Jack 655
اسلا@@ 654
Alexander 652
La 652
den 652
pe@@ 652
ya 651
Daniel 650
he@@ 646
co 644
be@@ 643
te@@ 642
é 641
be 640
Pro@@ 638
dr@@ 638
yan 638
und@@ 636
Hug@@ 635
ella 635
ison 635
ons 635
We@@ 634
era 634
ok 634
‘ 634
Ir@@ 632
Williams 631
Na@@ 630
gi@@ 630
ish@@ 629
Ho@@ 628
ist@@ 628
ano 627
ER@@ 626
old 624
do 623
ملا 623
Mas@@ 622
Fr@@ 621
Ale@@ 620
OS 619
erry 619
186@@ 618
uel 618
AP@@ 617
Rus@@ 616
if@@ 615
ó@@ 614
ology 613
ak 612
CH@@ 611
lor 609
ave 608
ES@@ 607
IM@@ 606
Mil@@ 606
Pl@@ 605
our 605
so@@ 602
iv@@ 600
José 599
ies 599
ith 599
Johnson 598
q@@ 598
ناك 598
ant@@ 595
sel@@ 594
ous 593
ain 592
Mac@@ 591
ite 591
Lu@@ 590
Thom@@ 590
ail@@ 589
onn@@ 589
Canadi@@ 588
Jones 588
So@@ 588
Arthur 586
DNA 583
SA 582
Christ@@ 581
Sal@@ 581
ub@@ 581
University 580
ect 580
om 579
حضرت 578
Ander@@ 577
har@@ 577
lie 577
Wo@@ 576
Mal@@ 575
Walter 575
SA@@ 573
cor@@ 571
ran@@ 571
Tay@@ 570
انسان 570
Fran@@ 569
Tur@@ 568
res@@ 567
du@@ 566
MA 565
di 563
PS 562
… 562
ek@@ 559
Franc@@ 557
ind@@ 557
pi@@ 557
Hy@@ 556
ack 556
Un@@ 555
hi 555
ve@@ 555
Is@@ 554
Sim@@ 553
ara 553
ی 553
ical 551
III 548
ire 548
ru@@ 548
Rog@@ 547
World 547
ics 547
van 547
val@@ 546
tic@@ 545
زمان@@ 544
Ram@@ 543
Rod@@ 543
بند 543
Ham@@ 542
lu@@ 542
tis 542
Ge@@ 541
mond 541
oy@@ 541
ure 541
ile 540
j 540
mon@@ 540
oh@@ 539
ca 538
able 537
min@@ 536
اندر 536
Tom@@ 535
eh@@ 535
ira 535
we@@ 535
SE@@ 534
ns 534
Mag@@ 533
ef@@ 533
bel@@ 532
mi@@ 532
ations 531
ili@@ 531
win 531
Ag@@ 530
Dr@@ 530
sa 530
Hor@@ 529
NE@@ 529
Cam@@ 528
IN@@ 528
Patr@@ 528
White 528
ish 528
ti 528
COVID 527
Cas@@ 525
mer 524
قرآن 524
ضلع 522
q 520
with 520
í@@ 520
sch@@ 519
Juli@@ 518
Kenn@@ 518
ha@@ 517
lar@@ 517
pe 516
right 516
iller 514
col@@ 513
RO@@ 511
فرانس 511
نسل 509
Conn@@ 508
mer@@ 508
Des@@ 507
ales 507
day 505
rez 504
ta@@ 504
Wat@@ 503
tic 503
tim@@ 502
بتا@@ 502
→ 502
ali@@ 501
end 500
ake 499
Lin@@ 497
Mer@@ 497
ach 497
include 497
Kr@@ 496
CI@@ 495
My@@ 495
Rich@@ 495
cher 495
~ 495
WWE 494
ug@@ 492
α 492
افراد 492
Reg@@ 491
ora 491
Val@@ 490
war@@ 490
yp@@ 490
Bi@@ 489
bl@@ 489
section 489
AB@@ 487
pp@@ 487
AS 485
Law@@ 485
UN@@ 485
die 485
tu@@ 485
Ang@@ 484
ett 483
ise 483
IV 482
Te@@ 482
va 482
Ke@@ 481
ern@@ 481
ung 481
والا 481
Albert 480
amp@@ 480
ro 479
بولا 478
AP 477
occ@@ 476
Eri@@ 475
ockey 474
At@@ 472
vin 472
Ap@@ 471
CD 471
ams 471
dez 471
Wi@@ 470
Em@@ 469
Al 468
No@@ 468
ich 468
0s 467
John@@ 467
ym@@ 467
Sol@@ 466
em 466
ino 466
Fern@@ 465
Don 464
ald 464
א@@ 463
sa@@ 462
‍ 462
aj@@ 461
ator 460
ism 459
ka 459
International 457
ion 457
lo 457
yc@@ 457
Res@@ 456
ge@@ 455
ר@@ 455
٬ 454
ur 453
11,@@ 452
ong 452
eli@@ 451
eo 451
ade 449
eng@@ 449
lis 449
za 449
go@@ 448
las 448
Camp@@ 447
Ern@@ 447
ori@@ 447
BS 446
مبر 446
Bru@@ 445
ger 445
oth@@ 444
King 443
Rec@@ 443
ans@@ 443
Je@@ 442
زند@@ 442
مغرب 441
Gil@@ 439
Wh@@ 439
نما 439
Sil@@ 438
from 438
† 437
kh@@ 436
port 435
ada 434
ە@@ 433
Stu@@ 432
ated 432
ds 432
A. 430
Jac@@ 430
Su@@ 430
mann 430
Young 428
io 428
All@@ 427
aci@@ 427
Fi@@ 426
ini 426
اضاف@@ 426
Kar@@ 425
ac 425
CC@@ 424
Alfre@@ 423
Hall 423
au 423
aur@@ 423
public 423
berg 422
Si@@ 421
ret@@ 421
CA 420
Ear@@ 420
tro@@ 420
SS@@ 419
מ@@ 419
Ev@@ 418
Por@@ 418
ster 418
ando 417
ide 417
Phil@@ 416
RE@@ 416
text 416
ie@@ 415
kin@@ 415
tions 415
Oli@@ 414
Vi@@ 414
10,@@ 412
ates 412
To@@ 411
dro@@ 409
ero 409
cu@@ 408
well 408
án 408
Bak@@ 407
Hum@@ 407
oug@@ 407
York 406
fl@@ 406
CE@@ 405
PC 405
Jackson 403
ig 403
British 402
fr@@ 402
inter@@ 402
rey 402
Cur@@ 400
K. 400
Mit@@ 400
enc@@ 399
eth 399
Min@@ 398
vol@@ 398
als 397
The@@ 396
Ze@@ 396
cas@@ 395
amb@@ 394
Du@@ 393
New@@ 393
ement 393
ings 393
Tor@@ 391
You 391
Inter@@ 390
ox@@ 389
tor@@ 389
Bern@@ 388
Carlos 388
ys 388
زبان 388
Willi@@ 387
ú@@ 387
AI@@ 386
Im@@ 386
J. 386
ita 386
ura 386
Ri@@ 385
ear@@ 385
-- 384
up@@ 384
Jean 383
Mus@@ 383
National 383
か@@ 383
Green 382
ardo 382
ey@@ 382
field 382
Gal@@ 381
class 381
igh@@ 381
Mel@@ 380
ten@@ 380
Gi@@ 379
kl@@ 379
Arch@@ 378
Dis@@ 377
Boy@@ 376
English 376
ama 375
Mich@@ 373
ative 373
int 373
Bill@@ 372
In 372
dia 372
rel@@ 372
Vic@@ 370
elle 370
ian 370
vir@@ 370
Anth@@ 369
Leon@@ 369
ler@@ 369
ב@@ 369
Net@@ 368
Wor@@ 368
jam@@ 368
oma 368
12,@@ 367
wor@@ 367
Pres@@ 366
Black 365
atus 365
án@@ 365
adi@@ 364
del 364
ov 364
rest@@ 364
Ty@@ 363
Juan 361
Es@@ 360
air@@ 360
ier 360
edi@@ 359
net 359
me 358
Sa@@ 357
bu@@ 357
Pow@@ 356
que 356
Love 355
amm@@ 355
ason 355
ida 355
Hill 354
ong@@ 354
pol@@ 354
Bor@@ 353
ax@@ 353
Fe@@ 352
ost 352
tive 352
Bu@@ 351
FC 351
Ni@@ 351
ki@@ 351
صورت 351
cl@@ 350
Jer@@ 349
Pat@@ 349
معاش@@ 349
Do@@ 348
Far@@ 348
Rom@@ 348
Sci@@ 348
osa 348
Tel@@ 347
iki 347
Bus@@ 346
ning 346
Can@@ 345
so 344
Á@@ 344
anth@@ 343
ock 343
ה@@ 343
Laur@@ 342
tw@@ 342
ón 342
Sar@@ 341
ents 341
style 341
ל@@ 341
De 340
سرب@@ 340
ain@@ 339
loy@@ 339
ha 338
ling 338
no 338
Ca@@ 337
Dar@@ 337
Louis 337
Pal@@ 337
Sand@@ 337
lan@@ 337
ny 337
ole 337
sy@@ 336
wood 336
chi@@ 335
ky 334
op 334
ou 334
sw@@ 334
ومت 334
Barr@@ 333
Sy@@ 333
way 333
But@@ 332
Medi@@ 332
ena 332
می@@ 332
--@@ 331
ass 330
ola 330
uz@@ 330
ision 329
unt 329
ā@@ 329
dan 328
sk@@ 328
Cy@@ 327
Phili@@ 327
School 327
Sec@@ 327
Sw@@ 327
ath 327
ser@@ 327
FI@@ 326
ast 326
ba@@ 326
ä@@ 326
Bel@@ 325
Hu@@ 325
cus 325
ek 325
model 325
off@@ 325
Luis 324
ng@@ 324
ani 323
back@@ 322
Luc@@ 321
Nic@@ 321
On@@ 321
fol@@ 321
let@@ 321
oks 320
sol@@ 320
اولاد 320
vo@@ 318
DS 317
gar@@ 317
ham 317
fil@@ 316
gan 316
سی@@ 316
● 316
Group 315
Hay@@ 315
Ru@@ 315
mp@@ 315
oto 315
Kn@@ 314
aus@@ 314
onz@@ 314
tel@@ 314
ש@@ 314
Carl 313
Fin@@ 313
Ig@@ 312
Ly@@ 312
ros@@ 312
β 312
Aus@@ 311
Bal@@ 310
Le 310
ai@@ 310
aland 310
format 310
out 310
uke 310
Jor@@ 309
May 309
int@@ 309
ture 309
Maur@@ 308
arg@@ 308
ars 308
bor@@ 307
du 307
ground 307
tes 306
ut 306
work 306
Stan@@ 305
Sul@@ 305
mat@@ 305
over@@ 305
Sing@@ 304
ko 304
line 304
por@@ 304
thi@@ 304
ust@@ 304
AM 303
Mari@@ 303
Simon 303
her@@ 303
ides 303
tle 303
Web@@ 302
Gl@@ 301
Pi@@ 300
align 300
ors 300
pu@@ 300
Cap@@ 299
for@@ 299
BA 298
Mu@@ 298
War@@ 298
fo@@ 298
ital 298
lem@@ 298
low 298
ters 298
time 298
tur@@ 298
Gran@@ 297
ally 297
its 297
Bas@@ 296
Cer@@ 296
Dev@@ 296
Os@@ 296
von 296
Eu@@ 295
Lam@@ 295
ado 295
ium 295
wer@@ 295
Hel@@ 294
P. 294
Sc@@ 294
ala 294
ez@@ 294
ér@@ 294
ö@@ 294
Moh@@ 293
err@@ 293
إ 293
Met@@ 292
TC 292
Tod@@ 292
pos@@ 292
sion 292
ther 292
ven@@ 292
Mul@@ 291
berto 291
cap@@ 291
mag@@ 291
til@@ 291
BM@@ 290
Hal@@ 290
Manuel 290
My 290
Way@@ 290
fi@@ 290
ía 290
Tre@@ 289
film 289
lam@@ 289
si 289
١@@ 289
Kir@@ 288
isti@@ 288
ki 288
ting 288
Vol@@ 287
Win@@ 287
ash 287
cul@@ 287
fre@@ 287
mb@@ 287
son@@ 287
وی@@ 287
ま@@ 287
of@@ 286
ce@@ 285
ao 284
nch@@ 284
CN 283
Journ@@ 283
Sher@@ 283
ima 283
い@@ 283
ten 282
uk@@ 282
Dou@@ 281
oni@@ 280
rit@@ 280
Tri@@ 279
bur@@ 279
cre@@ 278
enz@@ 278
hu@@ 278
illa 277
ross 277
Antonio 276
Christian 276
Jan@@ 276
Tak@@ 276
Ter@@ 276
beg@@ 276
ese 276
ope 276
uch@@ 276
נ@@ 276
غلام 276
M. 275
Prot@@ 275
Sur@@ 275
ff 275
lock 275
type 275
ری@@ 275
Blo@@ 274
Whit@@ 274
ger@@ 274
rec@@ 274
اعلان 274
Dre@@ 273
Lit@@ 273
West 273
Hir@@ 272
Ul@@ 272
La@@ 271
San@@ 271
alis 271
ington 271
iss@@ 271
Jam@@ 270
Mill@@ 270
ston 270
し@@ 270
FA 269
king 269
wards 269
Ben 268
Del@@ 268
Mos@@ 268
eron 268
fer 268
ash@@ 267
cer@@ 267
ection 267
ela 267
tics 267
た@@ 267
Migu@@ 266
Trans@@ 266
alm@@ 266
pro@@ 266
syn@@ 266
± 266
さ@@ 266
Tim@@ 265
aceae 265
ba 265
row 265
تمبر 265
El 264
Mah@@ 264
ange 264
ble 264
cal@@ 264
London 263
Ol@@ 263
ber 263
ette 263
ماؤ@@ 263
ady 262
inn@@ 262
prot@@ 262
ther@@ 262
Bul@@ 261
Wol@@ 261
loc@@ 261
nes 261
ven 261
Gol@@ 260
contribut@@ 260
ince 260
ods 260
tar@@ 260
One 259
TA 259
ari 259
erg@@ 259
mes 259
Bre@@ 258
DC 258
Den@@ 258
Jus@@ 257
arch@@ 257
bar@@ 257
isa 257
ko@@ 257
serv@@ 257
sta 257
ñ@@ 257
لی@@ 257
Day 256
Eng@@ 256
Gir@@ 256
South 256
ani@@ 256
ere 256
ja 256
Nov@@ 255
cy 255
cy@@ 255
new 255
riff@@ 255
ye 255
علی 255
٢@@ 255
cin@@ 254
ele 254
reg@@ 254
Pre@@ 253
田@@ 253
Arm@@ 252
ems 252
ine@@ 252
Kh@@ 251
Sm@@ 251
pha 251
ung@@ 251
Mad@@ 250
ein 250
ni 250
sing@@ 250
Ren@@ 249
anti@@ 249
li 249
ond 249
pen@@ 249
ה 249
اندا@@ 249
app@@ 248
pre@@ 248
ux 248
ves 248
we 248
ō@@ 248
Me 247
yle 247
حالت 247
CO 246
Gen@@ 246
US 246
act 246
earch 246
متعلق 246
Clau@@ 245
Francisco 245
Joh@@ 245
Man 245
comp@@ 245
iti@@ 245
ito 245
Chil@@ 244
Haw@@ 244
Red 244
ester 244
proc@@ 244
ین 244
ental 243
ular 243
دی@@ 243
Bir@@ 242
Geor@@ 242
Lar@@ 242
SC 242
United 242
rom@@ 242
was 242
wid@@ 242
fa@@ 241
ico 241
iro 241
Park 240
Ra@@ 240
can@@ 240
ms 240
ć 240
A.@@ 239
Mi@@ 239
cur@@ 239
ila 239
teri@@ 239
ئن 239
جانا 239
All 238
As 238
bre@@ 238
elec@@ 238
trong 238
ος 238
بی@@ 238
Greg@@ 237
Max 237
ime 237
Gro@@ 236
Mol@@ 236
abri@@ 236
alis@@ 236
az 236
len@@ 236
Au@@ 235
Les 235
Mir@@ 235
tra 235
if 234
ple@@ 234
unter 234
رنز 234
Brand@@ 233
alth 233
aria 233
ast@@ 233
char@@ 233
Ba@@ 232
Cre@@ 232
ku@@ 232
ré@@ 232
ski 232
Lev@@ 231
che 231
ids 231
rol@@ 231
Ash@@ 230
Off@@ 230
pres@@ 230
Ot@@ 229
use 229
や@@ 229
Maria 228
ario 228
ature 228
des@@ 228
ech@@ 228
immer 228
ins@@ 228
trans@@ 228
uf@@ 228
É@@ 228
α@@ 228
Elec@@ 227
Han@@ 227
eck 227
fer@@ 227
ڨ@@ 227
ひ@@ 227
fac@@ 226
gl@@ 226
nam@@ 226
ob 226
var@@ 226
ٱ@@ 226
Chap@@ 225
her 225
ō 225
Andr@@ 224
Liv@@ 224
eter@@ 224
try 224
ן 224
き 224
Jos@@ 223
Ur@@ 223
£ 223
ד@@ 223
augh@@ 222
colspan 222
ister 222
iy@@ 222
lin 222
oa 222
Ban@@ 221
Fac@@ 221
Scot@@ 221
arm@@ 221
aron 221
that 221
ão 221
् 221
し 221
Hi@@ 220
Op@@ 220
anz@@ 220
ای@@ 220
مقرر 220
Men@@ 219
ille 219
isi@@ 219
tical 219
ע@@ 219
نگ@@ 219
Ker@@ 218
Mary 218
Soci@@ 218
ae@@ 218
ards 218
zo 218
Con 217
Life 217
Med@@ 217
Nav@@ 217
cel@@ 217
fe@@ 217
ts@@ 217
yn 217
ze 217
ڤ 217
Ak@@ 216
Cul@@ 216
Pas@@ 216
Son@@ 216
Vir@@ 216
WW@@ 216
edy 216
ji 216
Award 215
Music 215
Syst@@ 215
System 215
Tro@@ 215
ii 215
iness 215
key 215
lat@@ 215
mu@@ 215
net@@ 215
yer 215
May@@ 214
She@@ 214
eb 214
Micro@@ 213
Vo@@ 213
ap 213
center 213
don 213
mas@@ 213
ond@@ 213
ø@@ 213
House 212
Il@@ 212
It 212
Mont@@ 212
Time 212
ei 212
res 212
up 212
ust 212
Lor@@ 211
Pic@@ 211
Pot@@ 211
Sant@@ 211
dium 211
olas 211
struc@@ 211
Fer@@ 210
Hon@@ 210
onia 210
sec@@ 210
فی 210
Cle@@ 209
Mis@@ 209
Pan@@ 209
Pu@@ 209
ages 209
cal 209
ease 209
men@@ 209
sen@@ 209
Les@@ 208
Pedro 208
aka 208
att@@ 208
ein@@ 208
pal@@ 208
معلوم 208
← 208
AG 207
Dor@@ 207
Google 207
Sou@@ 207
ax 207
back 207
Bet@@ 206
Ko@@ 206
Long 206
On 206
Pa@@ 206
Sk@@ 206
artic@@ 206
dic@@ 206
eri 206
olog@@ 206
ster@@ 206
ula 206
Blue 205
ato 205
eri@@ 205
sin@@ 205
Dec@@ 204
Sub@@ 204
don@@ 204
ello 204
inal 204
sti@@ 204
ת 204
ادب 204
H. 203
Windows 203
ding 203
fin@@ 203
log@@ 203
ome@@ 203
ona 203
sub@@ 203
な@@ 203
Blan@@ 202
Rot@@ 202
anus 202
inae 202
tí@@ 202
Blu@@ 201
Mid@@ 201
Pierre 201
Rol@@ 201
Ta@@ 201
ells 201
ley@@ 201
rí@@ 201
vel@@ 201
の@@ 201
Bow@@ 200
Mem@@ 200
Mes@@ 200
Techn@@ 200
over 200
tan@@ 200
ον 200
٠@@ 200
あ@@ 200
Ah@@ 199
Don@@ 199
VI@@ 199
awa 199
view 199
eld 198
met@@ 198
́ 198
Cu@@ 197
Lab@@ 197
Ob@@ 197
Washington 197
ami@@ 197
ema 197
Cro@@ 196
Educ@@ 196
Pri@@ 196
eta 196
tia 196
DR 195
March 195
Que@@ 195
bro@@ 195
bus@@ 195
writ@@ 195
ա@@ 195
EP 194
del@@ 194
els 194
itz@@ 194
kin 194
tom@@ 194
vice 194
براير 194
Av@@ 193
ech 193
ines 193
una 193
ution 193
Art 192
Die 192
Karl 192
esc@@ 192
ide@@ 192
ota 192
out@@ 192
tion@@ 192
yg@@ 192
י 192
Az@@ 191
Cat@@ 191
College 191
Ha@@ 191
Star 191
ort 191
ual 191
Air@@ 190
Sus@@ 190
atr@@ 190
ext 190
City 189
Rel@@ 189
Tal@@ 189
aki 189
emb@@ 189
eph@@ 189
put@@ 189
une 189
Association 188
DVD 188
Sum@@ 188
ders 188
mac@@ 188
pa 188
ties 188
vor 188
wal@@ 188
à 188
ָ@@ 188
∈ 188
ael 187
ete 187
ets 187
ider 187
ks@@ 187
very 187
ּ@@ 187
Kur@@ 186
Society 186
ense 186
och@@ 186
tern 186
ega 185
esp@@ 185
jo 185
Center 184
Reich@@ 184
esse 184
lig@@ 184
mad 184
′ 184
‹ 184
Fu@@ 183
tin@@ 183
App@@ 182
anda 182
crip@@ 182
ree 182
system 182
Gold@@ 181
Lang@@ 181
Live 181
North 181
act@@ 181
agement 181
arti@@ 181
ban@@ 181
bul@@ 181
tro 181
Club 180
ces 180
cons@@ 180
ign@@ 180
iki@@ 180
مولانا 180
Cru@@ 179
Leg@@ 179
Media 179
Ti@@ 179
cia 179
hil 179
ng 179
BBC 178
Mach@@ 178
aga 178
alist 178
ating 178
ier@@ 178
mid@@ 178
ness 178
sey 178
پس 178
Nik@@ 177
Uni@@ 177
XX 177
ights 177
mil@@ 177
﴾ 177
Arab@@ 176
Fil@@ 176
Super@@ 176
air 176
dae 176
dec@@ 176
ign 176
non 176
﴿ 176
Sho@@ 175
data 175
gen 175
ning@@ 175
port@@ 175
top 175
@ 174
ges@@ 174
inde@@ 174
itz 174
sho@@ 174
فی@@ 174
Eg@@ 173
Ye@@ 173
aff@@ 173
br 173
ont 173
Sel@@ 172
Super 172
acy 172
ali 172
bit 172
bot@@ 172
firm@@ 172
form@@ 172
igu@@ 172
leg@@ 172
los@@ 172
oll@@ 172
ote 172
wat@@ 172
› 172
Abr@@ 171
Commun@@ 171
Microsoft 171
cop@@ 171
eti@@ 171
ip@@ 171
soci@@ 171
آف 171
Air 170
Entertainment 170
Fol@@ 170
History 170
Rh@@ 170
Star@@ 170
acc@@ 170
icro@@ 170
mot@@ 170
oo 170
sych@@ 170
ם 170
Hen@@ 169
Ox@@ 169
Rap@@ 169
This 169
ego 169
off 169
ores 169
tha 169
this 169
Jes@@ 168
Mot@@ 168
S.@@ 168
St. 168
ering 168
go 168
ik 168
uno 168
wer 168
Company 167
No 167
Plat@@ 167
ava 167
dom@@ 167
ih@@ 167
ח@@ 167
ק@@ 167
Bau@@ 166
Gra@@ 166
Proj@@ 166
aus 166
dri@@ 166
low@@ 166
men 166
America 165
Kon@@ 165
State 165
ater 165
gar 165
retur@@ 165
tis@@ 165
ás 165
Chi@@ 164
Royal 164
Rud@@ 164
Van 164
action 164
aya 164
ck 164
eno 164
ever 164
lum 164
mor@@ 164
plic@@ 164
ty@@ 164
wa 164
ör@@ 164
ə@@ 164
Ari@@ 163
Red@@ 163
Tam@@ 163
ences 163
hr@@ 163
rev@@ 163
sal@@ 163
tel 163
گ 163
----@@ 162
Institute 162
Kin@@ 162
Oc@@ 162
Pau@@ 162
Sav@@ 162
ika 162
org@@ 162
uki 162
High 161
Penn@@ 161
Show 161
color 161
face 161
own 161
vic@@ 161
Aut@@ 160
Carol@@ 160
Wes@@ 160
ex 160
ges 160
inger 160
ste@@ 160
én@@ 160
Buc@@ 159
Lou@@ 159
Oper@@ 159
den@@ 159
eria 159
gio 159
hal@@ 159
red 159
under@@ 159
中@@ 159
Ci@@ 158
Kor@@ 158
apo@@ 158
bers 158
mis@@ 158
ough@@ 158
Best 157
Deutsch@@ 157
ality 157
ania 157
eller 157
ency 157
ep 157
erek 157
hin@@ 157
iss 157
ken 157
other 157
produc@@ 157
sian 157
tica 157
ville 157
yon 157
ç@@ 157
š@@ 157
ー@@ 157
F. 156
Hil@@ 156
Pap@@ 156
ean 156
lan 156
pan@@ 156
tre@@ 156
Dem@@ 155
Dig@@ 155
Est@@ 155
July 155
Kim 155
Ran@@ 155
ail 155
elop@@ 155
nh@@ 155
vers 155
大@@ 155
Big 154
Eur@@ 154
War 154
ache 154
chi 154
ee 154
hor@@ 154
ke@@ 154
mel@@ 154
sive 154
sur@@ 154
ted 154
ée 154
ר 154
IX 153
Organ@@ 153
Produc@@ 153
Studi@@ 153
entr@@ 153
hom@@ 153
uh@@ 153
Anna 152
Deb@@ 152
Spe@@ 152
ati 152
ft 152
ga 152
he 152
lia 152
lor@@ 152
more 152
ports 152
yo 152
Stand@@ 151
XX@@ 151
abr@@ 151
emati@@ 151
rique 151
thern 151
web 151
ִ@@ 151
Corpor@@ 150
ays 150
ς 150
نی@@ 150
Roc@@ 149
San 149
ago 149
def@@ 149
ix 149
oz@@ 149
і@@ 149
山@@ 149
Anne 148
Nat@@ 148
Not@@ 148
Vid@@ 148
ace@@ 148
anne 148
into 148
medi@@ 148
ple 148
ְ@@ 148
子 148
Times 147
ente 147
grap@@ 147
idea 147
not@@ 147
onal 147
tal@@ 147
uk 147
wh@@ 147
پ 147
ゆ@@ 147
ら 147
aba 146
can 146
elli 146
eme 146
mit@@ 146
ost@@ 146
ül@@ 146
ל 146
お@@ 146
An 145
Ann@@ 145
Der@@ 145
ful 145
hand@@ 145
inf@@ 145
kr@@ 145
lobal 145
ri 145
sia 145
via 145
wi@@ 145
Ali 144
Bud@@ 144
V. 144
ants 144
asi@@ 144
bil@@ 144
gia 144
ischer 144
kar@@ 144
ul 144
yth@@ 144
つ@@ 144
Aug@@ 143
Cab@@ 143
María 143
Sto@@ 143
Sun@@ 143
c. 143
cell@@ 143
prin@@ 143
tín 143
uli@@ 143
ze@@ 143
い 143
States 142
abeth 142
asp@@ 142
ius 142
nor@@ 142
not 142
peri@@ 142
Κ@@ 142
Ay@@ 141
bara 141
ew@@ 141
med 141
our@@ 141
prop@@ 141
uri 141
ô@@ 141
み@@ 141
Dom@@ 140
Rem@@ 140
Shi@@ 140
cont@@ 140
eff@@ 140
gs 140
rac@@ 140
sch 140
と@@ 140
も@@ 140
Sof@@ 139
duc@@ 139
istr@@ 139
olf 139
ough 139
April 138
August 138
Bat@@ 138
Beau@@ 138
Ferr@@ 138
Jack@@ 138
azine 138
bri@@ 138
flu@@ 138
inst@@ 138
oni 138
set 138
ship 138
tho@@ 138
uti@@ 138
π 138
פ@@ 138
Dur@@ 137
For 137
Ind@@ 137
bet@@ 137
form 137
gre@@ 137
oper@@ 137
ques 137
Σ@@ 137
Bab@@ 136
Cel@@ 136
Great 136
Mass@@ 136
Nak@@ 136
Rock 136
Tar@@ 136
U.S. 136
Women 136
ame@@ 136
ami 136
eci@@ 136
mayor 136
ova 136
sim@@ 136
win@@ 136
zi@@ 136
δ@@ 136
ک 136
だ 136
Ing@@ 135
To 135
Virginia 135
ais@@ 135
ban 135
eth@@ 135
sil@@ 135
β@@ 135
Bol@@ 134
Enter@@ 134
King@@ 134
Lim@@ 134
Nag@@ 134
Paris 134
West@@ 134
agen 134
bus 134
eder@@ 134
eus 134
mo 134
press 134
σ@@ 134
توبر 134
حی@@ 134
Af@@ 133
ais 133
has 133
journ@@ 133
mal@@ 133
pedi@@ 133
rati@@ 133
tig@@ 133
γ 133
Alexand@@ 132
Brit@@ 132
Ju@@ 132
Pop@@ 132
Tan@@ 132
Wer@@ 132
ann 132
bes 132
cha 132
fri@@ 132
ket 132
stein 132
syl@@ 132
tiv@@ 132
tures 132
Feder@@ 131
Open 131
Pier@@ 131
aa 131
lag 131
land@@ 131
side 131
ungs@@ 131
â@@ 131
ü@@ 131
ַ@@ 131
Pin@@ 130
Play@@ 130
dem@@ 130
light 130
pes 130
tory 130
vil 130
Ν@@ 130
כ@@ 130
ס@@ 130
Bay@@ 129
DV@@ 129
Kle@@ 129
Liber@@ 129
Union 129
agn@@ 129
aqu@@ 129
ect@@ 129
his 129
ische 129
new@@ 129
orum 129
ren@@ 129
Μ@@ 129
ھ 129
Awards 128
Cath@@ 128
Domin@@ 128
France 128
Gor@@ 128
Publi@@ 128
Sem@@ 128
art@@ 128
bs 128
cat@@ 128
ety 128
lands 128
ological 128
sons 128
٩@@ 128
き@@ 128
こ 128
Bon@@ 127
Marie 127
Nu@@ 127
Syn@@ 127
asti@@ 127
iko 127
צ@@ 127
French 126
Grand 126
Land@@ 126
Pil@@ 126
Sat@@ 126
Sin@@ 126
ats 126
dio 126
eau 126
für 126
ker@@ 126
pur@@ 126
vari@@ 126
کان 126
す@@ 126
Dam@@ 125
Maj@@ 125
Pen@@ 125
Saint 125
Street 125
bal@@ 125
gro@@ 125
hum@@ 125
ista 125
left 125
ones 125
self 125
tish 125
ui@@ 125
اعظم 125
Ali@@ 124
Mann@@ 124
ability 124
dom 124
enberg 124
inn 124
plas@@ 124
tain 124
ó 124
اسلام 124
ٰ@@ 124
€ 124
本@@ 124
USA 123
dle 123
mi 123
mun@@ 123
rie 123
urs 123
è@@ 123
ür@@ 123
κ@@ 123
ת@@ 123
ری 123
Bot@@ 122
Bou@@ 122
Coun@@ 122
Island 122
Ken@@ 122
Mak@@ 122
VI 122
Wag@@ 122
ational 122
attle 122
ert 122
Δ@@ 122
う@@ 122
Direc@@ 121
Japan 121
Mun@@ 121
Seb@@ 121
atur@@ 121
compos@@ 121
els@@ 121
eng 121
icia 121
mez 121
ont@@ 121
ories 121
sor@@ 121
tron@@ 121
urt 121
yo@@ 121
μ@@ 121
Academy 120
Cir@@ 120
Kat@@ 120
Math@@ 120
Plan@@ 120
Squ@@ 120
UK 120
ited 120
language 120
qui@@ 120
tem@@ 120
uld 120
vis@@ 120
ár@@ 120
Π@@ 120
European 119
Ku@@ 119
Lake 119
Lord 119
abe 119
aliz@@ 119
cle 119
cli@@ 119
ely 119
group 119
les@@ 119
ner@@ 119
ny@@ 119
ops 119
pel@@ 119
shire 119
sky 119
su 119
tre 119
verse 119
ín 119
γ@@ 119
مطابق 119
Anti@@ 118
Fel@@ 118
First 118
Force 118
India 118
Tw@@ 118
ager 118
cho@@ 118
ci 118
dition 118
gol@@ 118
inus 118
ior 118
je@@ 118
now 118
site 118
yst@@ 118
کر@@ 118
お 118
は@@ 118
Buch@@ 117
Der 117
Fal@@ 117
Hot@@ 117
Rad@@ 117
enne 117
obj@@ 117
tus 117
گو@@ 117
ん@@ 117
Kal@@ 116
Kap@@ 116
Meg@@ 116
Thi@@ 116
ands 116
bridge 116
ces@@ 116
com 116
din@@ 116
essor 116
hol@@ 116
ique 116
jud@@ 116
wen@@ 116
■ 116
Dol@@ 115
Gener@@ 115
alb@@ 115
ask@@ 115
bot 115
chin@@ 115
mar 115
nia 115
oy 115
phy@@ 115
tra@@ 115
uv@@ 115
yi 115
π@@ 115
″ 115
East 114
Got@@ 114
Kam@@ 114
Kaz@@ 114
Loc@@ 114
Radio 114
Spr@@ 114
Tun@@ 114
ador 114
ault 114
auth@@ 114
band 114
ography 114
po 114
spec@@ 114
ume 114
GC 113
Hans 113
Sab@@ 113
Tem@@ 113
`@@ 113
bir@@ 113
det@@ 113
main 113
tice 113
unk@@ 113
wn 113
ł@@ 113
井@@ 113
Kan@@ 112
Seg@@ 112
book 112
burg 112
ow 112
tern@@ 112
tional 112
ush@@ 112
ye@@ 112
½ 112
är@@ 112
الی@@ 112
کو@@ 112
よ@@ 112
Championship 111
General 111
Sig@@ 111
Som@@ 111
aft 111
ares 111
ark@@ 111
aul@@ 111
chem@@ 111
chr@@ 111
doc@@ 111
ender 111
gi 111
olan 111
sour@@ 111
ving 111
vo 111
which 111
wing 111
wo 111
yan@@ 111
§ 111
دی 111
مقصد 111
Ant@@ 110
Cin@@ 110
Famil@@ 110
af 110
eer 110
him 110
icul@@ 110
idge 110
ua 110
uer@@ 110
ū@@ 110
Rev@@ 109
Team 109
Wilhelm 109
je 109
lam 109
lav@@ 109
ld 109
nis 109
pat@@ 109
ser 109
sit@@ 109
tam@@ 109
ui 109
ג@@ 109
آزاد 109
خدا 109
فرم@@ 109
African 108
Bec@@ 108
Dan@@ 108
Film 108
Kas@@ 108
alt@@ 108
assi@@ 108
director 108
dou@@ 108
ebo@@ 108
fon@@ 108
igo 108
nd@@ 108
onom@@ 108
pa@@ 108
ures 108
world 108
á 108
Bos@@ 107
Cup 107
German 107
Ges@@ 107
Hand@@ 107
Ori@@ 107
dra@@ 107
ects 107
sci@@ 107
sig@@ 107
stati@@ 107
sum@@ 107
title 107
ⴰ@@ 107
Doc@@ 106
June 106
Lud@@ 106
Progr@@ 106
Tit@@ 106
Ven@@ 106
ante 106
hel@@ 106
omo 106
ots 106
phot@@ 106
radi@@ 106
ury 106
ī@@ 106
Fut@@ 105
Hom@@ 105
League 105
` 105
anan 105
educ@@ 105
imb@@ 105
mak@@ 105
ori 105
osh@@ 105
super@@ 105
vid@@ 105
الی 105
Herr@@ 104
coun@@ 104
equ@@ 104
gal@@ 104
ho 104
less 104
nom@@ 104
ols 104
otte 104
were 104
と 104
む@@ 104
Acc@@ 103
Bundes@@ 103
Ireland 103
Sen@@ 103
camp@@ 103
first 103
spe@@ 103
squ@@ 103
thr@@ 103
uni@@ 103
ˈ@@ 103
ν 103
村@@ 103
Texas 102
Tran@@ 102
aud 102
cine 102
dé@@ 102
estr@@ 102
iger 102
igh 102
ju@@ 102
pos 102
rich@@ 102
trol 102
ulation 102
う 102
Canada 101
François 101
Israel 101
Var@@ 101
agr@@ 101
agu@@ 101
aire 101
con 101
egr@@ 101
ento 101
esti@@ 101
fic 101
sus 101
wo@@ 101
ère 101
け@@ 101
ろ@@ 101
Berg@@ 100
Chem@@ 100
England 100
It@@ 100
River 100
Tow@@ 100
ado@@ 100
ag 100
asc@@ 100
astr@@ 100
ement@@ 100
fic@@ 100
service 100
water 100
® 100
٠ 100
یا 100
《 100
Astr@@ 99
Bil@@ 99
California 99
Central 99
Christi@@ 99
Kim@@ 99
Vit@@ 99
bol@@ 99
ca@@ 99
dat@@ 99
ebr@@ 99
ehr@@ 99
ji@@ 99
mem@@ 99
pun@@ 99
sul@@ 99
ías 99
ט@@ 99
I. 98
Ki@@ 98
aux 98
contr@@ 98
down 98
eda 98
mod@@ 98
odi@@ 98
sm@@ 98
vin@@ 98
θ@@ 98
نل 98
Eliz@@ 97
Kom@@ 97
Radi@@ 97
aly@@ 97
ham@@ 97
mal 97
mus 97
put 97
ric@@ 97
seud@@ 97
state 97
vania 97
var 97
ð@@ 97
öl@@ 97
А@@ 97
ٰ 97
み 97
川@@ 97
Friedrich 96
Lib@@ 96
Mand@@ 96
Sor@@ 96
Vel@@ 96
archit@@ 96
conn@@ 96
conom@@ 96
ements 96
emp@@ 96
ev 96
ists 96
let 96
ous@@ 96
ovi@@ 96
patr@@ 96
rid 96
sem@@ 96
tural 96
ump@@ 96
zi 96
Ö@@ 96
ε@@ 96
ν@@ 96
藤@@ 96
Indi@@ 95
cep@@ 95
chan@@ 95
fur@@ 95
have 95
min 95
ode 95
play@@ 95
ret 95
udi@@ 95
wan@@ 95
æ@@ 95
ە 95
Ath@@ 94
Bank 94
Billboard 94
Gas@@ 94
Jacques 94
Road 94
Schwar@@ 94
Tol@@ 94
Tu@@ 94
aine 94
alia 94
ben@@ 94
dig@@ 94
esh 94
formation 94
fu@@ 94
ony@@ 94
pil@@ 94
pon@@ 94
rap@@ 94
van@@ 94
és 94
ē@@ 94
انی@@ 94
Dal@@ 93
Flor@@ 93
Has@@ 93
Internet 93
Nob@@ 93
body 93
edo 93
idi@@ 93
ité 93
lab@@ 93
rot@@ 93
ules 93
usa 93
vier 93
ward 93
zy@@ 93
î@@ 93
Fried@@ 92
Mik@@ 92
Nam@@ 92
Ober@@ 92
October 92
ahl 92
anger 92
eum 92
ference 92
mission 92
mul@@ 92
onal@@ 92
ons@@ 92
pin@@ 92
prof@@ 92
sin 92
ute 92
vi 92
és@@ 92
İ@@ 92
》 92
Berlin 91
Nig@@ 91
Paulo 91
Revol@@ 91
alg@@ 91
asa 91
enth@@ 91
list@@ 91
ment@@ 91
ron@@ 91
two 91
ā 91
ρι@@ 91
市 91
amin@@ 90
bia 90
cip@@ 90
ingo 90
ites 90
ived 90
mes@@ 90
oi 90
ths 90
Juni@@ 89
Ok@@ 89
Rou@@ 89
any 89
any@@ 89
atom@@ 89
aves 89
dir@@ 89
eral 89
führ@@ 89
ident 89
lier 89
team 89
trol@@ 89
éc@@ 89
í 89
ί@@ 89
λ 89
ός 89
تی@@ 89
مشرق 89
یر 89
か 89
り@@ 89
わ@@ 89
Games 88
Lat@@ 88
Sup@@ 88
acter@@ 88
aer@@ 88
fication 88
get 88
govern@@ 88
kom@@ 88
ls 88
mir 88
mir@@ 88
mos@@ 88
ologi@@ 88
oman 88
original 88
play 88
ses 88
tric@@ 88
vent@@ 88
vie@@ 88
xi@@ 88
ying 88
جاتا 88
Id@@ 87
Nar@@ 87
Sz@@ 87
Vis@@ 87
bo 87
eine 87
fal@@ 87
hard 87
iles 87
nov@@ 87
olo@@ 87
ople 87
opo@@ 87
span 87
tour@@ 87
ular@@ 87
umb@@ 87
å@@ 87
él@@ 87
ë@@ 87
č@@ 87
٫ 87
Frank@@ 86
Name 86
Records 86
aca 86
bar 86
bin@@ 86
chn@@ 86
da@@ 86
date 86
depend@@ 86
ef 86
history 86
oria 86
phil@@ 86
pri@@ 86
stre@@ 86
ton@@ 86
vers@@ 86
ş@@ 86
ֹ@@ 86
پر@@ 86
野@@ 86
Africa 85
Fri@@ 85
Jose@@ 85
Prim@@ 85
Tour@@ 85
Univers@@ 85
amo@@ 85
bi 85
box 85
elen 85
house 85
igan 85
ij@@ 85
itt 85
kat@@ 85
og 85
r. 85
see 85
én 85
ι@@ 85
ま 85
Cop@@ 84
FIFA 84
Prin@@ 84
Real 84
Western 84
adi 84
based 84
bit@@ 84
comm@@ 84
cos 84
cri@@ 84
ilia 84
ird 84
long@@ 84
med@@ 84
mont 84
nu@@ 84
pul@@ 84
rent 84
sing 84
tario 84
under 84
yd@@ 84
جی@@ 84
じ@@ 84
1,5 83
Bah@@ 83
Comp@@ 83
Def@@ 83
Gh@@ 83
Hit@@ 83
Ka@@ 83
bac@@ 83
cos@@ 83
istan 83
mit 83
och 83
ud 83
uses 83
vie 83
η 83
زی@@ 83
ン@@ 83
小@@ 83
木@@ 83
Alex@@ 82
Da 82
Mod@@ 82
ayo 82
ches 82
ected 82
general 82
iller@@ 82
national 82
rea 82
ία 82
پرو@@ 82
ず@@ 82
Kun@@ 81
Song 81
about 81
aja 81
atis@@ 81
dit 81
ecture 81
eg 81
fe 81
ido 81
lit@@ 81
los 81
mark 81
má@@ 81
priv@@ 81
progr@@ 81
than 81
ís 81
ά@@ 81
ո@@ 81
‚ 81
た 81
Bay 80
Das 80
Parti@@ 80
Party 80
chen 80
clus@@ 80
ister@@ 80
san@@ 80
stand@@ 80
top@@ 80
uy@@ 80
éri@@ 80
ка 80
ܐ 80
Australia 79
Il 79
Roman 79
Sau@@ 79
bury 79
cht 79
get@@ 79
hie 79
identi@@ 79
lob@@ 79
que@@ 79
their 79
tol@@ 79
version 79
ρ@@ 79
τ@@ 79
چ 79
Dani@@ 78
ades 78
ends 78
esi 78
jas 78
number 78
stat@@ 78
test 78
umi 78
vention 78
works 78
▪ 78
Arts 77
Beh@@ 77
China 77
Kit@@ 77
Kl@@ 77
Los 77
Natur@@ 77
Num@@ 77
Wa@@ 77
alo 77
atri@@ 77
einer 77
etz@@ 77
eur 77
isha 77
lus@@ 77
ograp@@ 77
prim@@ 77
sten 77
tors 77
wig 77
ï@@ 77
δ 77
سپ@@ 77
شی@@ 77
County 76
Hist@@ 76
Kais@@ 76
Tex@@ 76
bon 76
cir@@ 76
coll@@ 76
dren 76
dur@@ 76
etes 76
iz 76
lad@@ 76
lar 76
osp@@ 76
outh 76
xim@@ 76
на 76
Ἀ@@ 76
Div@@ 75
Europe 75
Kid@@ 75
Kil@@ 75
Kol@@ 75
Maz@@ 75
ains 75
antas@@ 75
chen@@ 75
flo@@ 75
gri@@ 75
icio 75
ift 75
imi@@ 75
mol@@ 75
multi@@ 75
nati@@ 75
nav@@ 75
ord 75
tan 75
θ 75
в@@ 75
вич 75
н 75
ր@@ 75
こ@@ 75
わ 75
Meh@@ 74
Sir 74
Tab@@ 74
ait 74
annel 74
avi@@ 74
bon@@ 74
cent@@ 74
fied 74
law@@ 74
lers 74
live 74
order 74
plan@@ 74
sis 74
uta 74
vor@@ 74
ác@@ 74
ρ 74
э@@ 74
اپ@@ 74
ܝ@@ 74
↑ 74
Form@@ 73
Hat@@ 73
Vill@@ 73
With 73
ames 73
blo@@ 73
eas@@ 73
enz 73
far@@ 73
ien 73
ills 73
lem 73
mm 73
ords 73
stell@@ 73
ult@@ 73
μ 73
р@@ 73
ち 73
Cast@@ 72
Kem@@ 72
Mé@@ 72
Vil@@ 72
anim@@ 72
atos 72
bio 72
chil@@ 72
cio 72
ective 72
head 72
idi 72
inv@@ 72
ishing 72
like 72
media 72
part@@ 72
player 72
syst@@ 72
tu 72
ór@@ 72
ω 72
Alg@@ 71
Franz 71
Heinrich 71
Land 71
Lis@@ 71
Ohio 71
Pom@@ 71
Santiago 71
Top 71
VII 71
also 71
cer 71
commun@@ 71
edit@@ 71
esia 71
eu@@ 71
full 71
gh@@ 71
han 71
isch@@ 71
mine 71
nuc@@ 71
omb@@ 71
tun@@ 71
ube 71
wil@@ 71
will 71
wr@@ 71
ä 71
λ@@ 71
قی@@ 71
٢ 71
Alli@@ 70
Lag@@ 70
Milit@@ 70
Victoria 70
Wit@@ 70
Zi@@ 70
atre 70
aut@@ 70
bau@@ 70
bu 70
esa 70
fa 70
ican 70
kg 70
ose 70
point 70
ppe 70
round 70
yal@@ 70
yon@@ 70
φ@@ 70
ω@@ 70
ב 70
کان@@ 70
り 70
三@@ 70
Amer@@ 69
Army 69
Augus@@ 69
Barcelona 69
Din@@ 69
Do 69
Empire 69
Pad@@ 69
Rein@@ 69
Se 69
abil@@ 69
activ@@ 69
andi@@ 69
anti 69
but@@ 69
cho 69
class@@ 69
ellschaft 69
ett@@ 69
gener@@ 69
iter 69
lim@@ 69
mov@@ 69
pass@@ 69
pot@@ 69
tn@@ 69
umin@@ 69
ז@@ 69
اعز@@ 69
Fir@@ 68
Hot 68
Museum 68
You@@ 68
alog@@ 68
annes 68
ator@@ 68
bach 68
craft 68
law 68
lip@@ 68
olo 68
refer@@ 68
sac@@ 68
tal 68
used 68
Ç@@ 68
Ó@@ 68
١ 68
じ 68
Alb@@ 67
Centre 67
Council 67
Liter@@ 67
Nord@@ 67
Yo@@ 67
aining 67
aye 67
bec 67
dh@@ 67
eva 67
even 67
hav@@ 67
histori@@ 67
ion@@ 67
jo@@ 67
run@@ 67
uss@@ 67
ás@@ 67
Λ@@ 67
р 67
تی 67
ら@@ 67
Esp@@ 66
February 66
Jul@@ 66
Sach@@ 66
andes 66
anga 66
been 66
change 66
dor@@ 66
elt 66
etti 66
fo 66
later 66
life 66
mas 66
oko 66
others 66
pap@@ 66
quar@@ 66
rain 66
tain@@ 66
ı 66
т 66
گر@@ 66
の 66
高@@ 66
Division 65
Ky@@ 65
Mut@@ 65
Person@@ 65
Sak@@ 65
ander@@ 65
bin 65
ck@@ 65
ej@@ 65
elo 65
enter 65
ept@@ 65
erra 65
had 65
ils 65
nik 65
tak@@ 65
ğ@@ 65
л@@ 65
א 65
اک@@ 65
ふ@@ 65
ろ 65
He 64
Luf@@ 64
but 64
dal@@ 64
dev@@ 64
eck@@ 64
eti 64
following 64
hon@@ 64
illo 64
inda 64
information 64
kal@@ 64
ked 64
ments 64
met 64
ran 64
rech@@ 64
rou@@ 64
termin@@ 64
trav@@ 64
ustri@@ 64
war 64
ê@@ 64
Η@@ 64
ι 64
া@@ 64
く@@ 64
Am 63
Florida 63
From 63
Haz@@ 63
Kab@@ 63
Lon@@ 63
Portu@@ 63
aber 63
alan@@ 63
bish@@ 63
cit@@ 63
cle@@ 63
ece 63
eni 63
gel@@ 63
ices 63
ili 63
ilo 63
kan 63
map@@ 63
polis 63
tex@@ 63
tt@@ 63
à@@ 63
ă@@ 63
ο@@ 63
а@@ 63
ئر@@ 63
◊ 63
え@@ 63
上@@ 63
Chin@@ 62
Hin@@ 62
Rum@@ 62
ación 62
active 62
bat@@ 62
bos@@ 62
cam@@ 62
das 62
itung 62
kan@@ 62
kel@@ 62
kre@@ 62
mut@@ 62
naci@@ 62
sam@@ 62
sea 62
techn@@ 62
test@@ 62
ues 62
yat@@ 62
τος 62
м@@ 62
ד 62
کی@@ 62
け 62
ん 62
Atlan@@ 61
Columb@@ 61
Democ@@ 61
Henri 61
Ny@@ 61
Tour 61
abl@@ 61
aro 61
case 61
cm 61
comple@@ 61
gin@@ 61
hab@@ 61
km 61
lay@@ 61
ligh@@ 61
mach@@ 61
mati@@ 61
ogr@@ 61
only 61
orient@@ 61
par 61
pour 61
pression 61
second 61
sup@@ 61
uma 61
urg 61
³ 61
éli@@ 61
ña 61
ı@@ 61
Τ@@ 61
ό@@ 61
ύ@@ 61
И@@ 61
О@@ 61
С@@ 61
خود 61
٣@@ 61
イ@@ 61
Anton@@ 60
Ji@@ 60
Kre@@ 60
Orig@@ 60
So 60
St 60
There 60
dul@@ 60
ended 60
etts 60
formes 60
hat@@ 60
ilio 60
many 60
music 60
na@@ 60
ongo 60
publ@@ 60
ris@@ 60
show 60
spr@@ 60
who 60
ın 60
ş 60
Ε@@ 60
Ι 60
ά 60
έ@@ 60
Б@@ 60
る 60
Arg@@ 59
Tok@@ 59
aborat@@ 59
ander 59
arc@@ 59
auf@@ 59
bec@@ 59
buil@@ 59
burg@@ 59
centr@@ 59
control 59
econom@@ 59
esto 59
eu 59
iga 59
ingu@@ 59
iri 59
itu@@ 59
ken@@ 59
schaft 59
sequ@@ 59
sk 59
stor@@ 59
ule 59
ways 59
Α@@ 59
έα 59
φ 59
χ@@ 59
ро@@ 59
بین 59
نی 59
་ 59
„ 59
リ@@ 59
Asia 58
By 58
Pon@@ 58
Rah@@ 58
Tenn@@ 58
adem@@ 58
anci@@ 58
anta 58
atin 58
aun@@ 58
din 58
eli 58
erie 58
ern 58
esh@@ 58
ext@@ 58
family 58
four 58
game 58
hip 58
ige 58
ize 58
mad@@ 58
ministr@@ 58
opsis 58
ouv@@ 58
uz 58
vil@@ 58
vit@@ 58
won 58
ა@@ 58
ⵉ@@ 58
ー 58
松@@ 58
이@@ 58
1. 57
Dr. 57
Gaz@@ 57
Indian 57
Johann 57
Vik@@ 57
allas 57
aro@@ 57
arri@@ 57
aut 57
cast 57
edr@@ 57
ener 57
fle@@ 57
ias 57
ingen 57
nier 57
nit@@ 57
pas@@ 57
plat@@ 57
plus 57
tier 57
än@@ 57
ène 57
Φ@@ 57
Χ@@ 57
у@@ 57
2. 56
Austr@@ 56
Disney 56
Gru@@ 56
Hein@@ 56
Leb@@ 56
Muh@@ 56
Nati@@ 56
Pak@@ 56
When 56
ables 56
alt 56
aud@@ 56
ayn@@ 56
between 56
han@@ 56
iter@@ 56
neg@@ 56
oso 56
people 56
pi 56
rich 56
small 56
tie 56
uo 56
urn@@ 56
using 56
н@@ 56
石@@ 56
Braz@@ 55
Bun@@ 55
Centr@@ 55
Ein@@ 55
Festival 55
Olymp@@ 55
Station 55
aug@@ 55
dar@@ 55
dings 55
diplom@@ 55
dos 55
erst@@ 55
esta 55
gil@@ 55
hai 55
imi 55
lah 55
lang 55
lib@@ 55
num@@ 55
ordin@@ 55
part 55
person@@ 55
ples 55
rat 55
rup@@ 55
sat@@ 55
sel 55
trac@@ 55
trop@@ 55
ved 55
¤ 55
Ş@@ 55
ε 55
й 55
ский 55
ἀ@@ 55
や 55
郎 55
Beg@@ 54
Hab@@ 54
Kos@@ 54
asse 54
dru@@ 54
eds 54
enf@@ 54
eur@@ 54
fast 54
fel@@ 54
ograph@@ 54
orial 54
pic@@ 54
poli@@ 54
proj@@ 54
sche 54
usi@@ 54
ustr@@ 54
utz 54
wn@@ 54
ön@@ 54
αν@@ 54
ь@@ 54
ׁ@@ 54
.C. 53
December 53
Guerra 53
Stre@@ 53
UE@@ 53
agon@@ 53
americ@@ 53
dol@@ 53
enes 53
lis@@ 53
liv@@ 53
most 53
nationale 53
ois 53
oli 53
optera 53
parti@@ 53
raine 53
sions 53
´ 53
ż@@ 53
ρος 53
στ@@ 53
ו 53
٥ 53
ڭ 53
ス@@ 53
Arti@@ 52
Chicago 52
Ort@@ 52
Stein@@ 52
Venez@@ 52
Volks@@ 52
alls 52
asi 52
ats@@ 52
away 52
each 52
fan@@ 52
fig@@ 52
inas 52
itation 52
lon@@ 52
lov@@ 52
mand@@ 52
public@@ 52
rio 52
some 52
ums 52
year 52
÷ 52
К@@ 52
ֵ@@ 52
یل 52
一 52
人 52
Et@@ 51
Govern@@ 51
Nacional 51
Neu@@ 51
Ré@@ 51
Tou@@ 51
Un 51
ave@@ 51
dam@@ 51
did@@ 51
ehr 51
enta 51
extr@@ 51
found@@ 51
fran@@ 51
kel 51
kor@@ 51
lang@@ 51
libr@@ 51
lines 51
mt@@ 51
onne 51
place 51
positi@@ 51
sar@@ 51
spir@@ 51
tique 51
tos 51
where 51
zen 51
ì 51
ś@@ 51
σ 51
к 51
к@@ 51
с@@ 51
ы@@ 51
ն 51
ֶ@@ 51
ولی@@ 51
正@@ 51
Archit@@ 50
January 50
NBA 50
November 50
Si 50
Span@@ 50
UEFA 50
aller@@ 50
ana@@ 50
arte 50
come 50
direc@@ 50
energ@@ 50
entes 50
liga 50
mittee 50
mix@@ 50
nes@@ 50
ogen 50
ority 50
then 50
union 50
ü 50
в 50
д@@ 50
ш@@ 50
ն@@ 50
سی 50
٨ 50
ܕ@@ 50
真@@ 50
Jersey 49
Say@@ 49
adr@@ 49
alli@@ 49
ape 49
bes@@ 49
bis 49
dans 49
dern 49
dist@@ 49
imin@@ 49
long 49
make 49
pon 49
pop 49
power 49
qui 49
ram@@ 49
seg@@ 49
through 49
è 49
ö 49
ɪ@@ 49
В@@ 49
ло@@ 49
с 49
٣ 49
≤ 49
≥ 49
だ@@ 49
和@@ 49
Bed@@ 48
Bes@@ 48
Church 48
Hav@@ 48
Illinois 48
Universit@@ 48
amo 48
avi 48
ben 48
dem 48
dre@@ 48
encia 48
fus@@ 48
guit@@ 48
home 48
hur@@ 48
icht 48
iment 48
initi@@ 48
isch 48
ishi 48
isi 48
iti 48
lev@@ 48
nec@@ 48
partment 48
prise 48
rem@@ 48
represent@@ 48
sei 48
sion@@ 48
sist@@ 48
stant@@ 48
viv@@ 48
wa@@ 48
was@@ 48
ét@@ 48
ī 48
Ρ@@ 48
αλ@@ 48
ια 48
й@@ 48
ль@@ 48
ע 48
تعلقات 48
مدی@@ 48
ژ@@ 48
گا@@ 48
原@@ 48
西@@ 48
Bad@@ 47
Cou@@ 47
Football 47
Grou@@ 47
Kri@@ 47
Kul@@ 47
September 47
adap@@ 47
after 47
ample 47
dan@@ 47
diff@@ 47
dis 47
ectiv@@ 47
eros 47
fem@@ 47
hist@@ 47
ict 47
ific@@ 47
ires 47
isp@@ 47
kil@@ 47
kon@@ 47
leri 47
opp@@ 47
saf@@ 47
san 47
sep@@ 47
som@@ 47
stan@@ 47
tries 47
unds 47
viol@@ 47
wel@@ 47
when 47
ì@@ 47
ē 47
ž@@ 47
ρο@@ 47
υ@@ 47
ла@@ 47
о@@ 47
ская 47
٤ 47
٧ 47
کل 47
۔ 47
্ 47
≈ 47
ⵎ@@ 47
Franç@@ 46
aco 46
afa 46
ango 46
appro@@ 46
azz 46
board 46
cla@@ 46
eleg@@ 46
emi 46
fas@@ 46
ful@@ 46
gesch@@ 46
iler 46
ished 46
kul@@ 46
lot 46
match 46
may 46
orie 46
position 46
ras@@ 46
ste 46
sur 46
tar 46
tera 46
times 46
vel 46
while 46
Å 46
Ω 46
ւ@@ 46
ぐ@@ 46
天@@ 46
美@@ 46
Emp@@ 45
Es 45
Kis@@ 45
Ou@@ 45
alar@@ 45
amba 45
azar@@ 45
dens@@ 45
engine 45
exp@@ 45
fi 45
film@@ 45
has@@ 45
last 45
lich@@ 45
liter@@ 45
mess@@ 45
ned 45
ologie 45
onder@@ 45
orio 45
otr@@ 45
post 45
stud@@ 45
tari@@ 45
uela 45
uni 45
ò@@ 45
ή@@ 45
η@@ 45
и 45
ра@@ 45
у 45
ե@@ 45
انی 45
صی@@ 45
ٳ@@ 45
پار@@ 45
کن 45
ۡ@@ 45
太@@ 45
Afr@@ 44
Band 44
Cum@@ 44
Rech@@ 44
Santa 44
Um@@ 44
antes 44
añ@@ 44
champ@@ 44
eca 44
enda 44
geb@@ 44
gem@@ 44
gir@@ 44
hir 44
ief 44
iliz@@ 44
imp@@ 44
isco 44
may@@ 44
pain@@ 44
park 44
polit@@ 44
sal 44
scienti@@ 44
seau 44
tab@@ 44
they 44
ural 44
versi@@ 44
za@@ 44
Δ 44
Ба@@ 44
ва 44
г@@ 44
ре@@ 44
ק 44
علی@@ 44
٥@@ 44
یم 44
美 44
Alt@@ 43
District 43
High@@ 43
Jap@@ 43
Roy@@ 43
ague 43
boy@@ 43
car 43
chia 43
condi@@ 43
enh@@ 43
fun@@ 43
ities 43
kir@@ 43
kri@@ 43
kur@@ 43
lec@@ 43
production 43
sun@@ 43
tas@@ 43
tot@@ 43
tres 43
tura 43
zer 43
ño 43
Т@@ 43
т@@ 43
я 43
ի@@ 43
چو@@ 43
ܪ@@ 43
べ 43
日@@ 43
金@@ 43
Dé@@ 42
Gö@@ 42
Yor@@ 42
administr@@ 42
amer@@ 42
aver@@ 42
aza 42
capit@@ 42
cro@@ 42
culture 42
eing 42
force 42
igi@@ 42
imo 42
indic@@ 42
ku 42
liber@@ 42
lim 42
onen 42
peti@@ 42
sou@@ 42
these 42
thu@@ 42
tung 42
tur 42
xa 42
Ü@@ 42
ă 42
Γ@@ 42
ζ@@ 42
б@@ 42
دید 42
گا 42
ܘ@@ 42
ი@@ 42
オ@@ 42
ジ@@ 42
ッ@@ 42
也 42
佐@@ 42
東@@ 42
Academ@@ 41
Boston 41
Chile 41
KK 41
Lan@@ 41
Premi@@ 41
Was@@ 41
Yah@@ 41
aden 41
ances 41
area 41
associ@@ 41
aume 41
dies 41
eto 41
high 41
ht 41
ily 41
inden 41
kno@@ 41
lies 41
nt 41
offici@@ 41
ographi@@ 41
organ@@ 41
plac@@ 41
speci@@ 41
tec@@ 41
tif@@ 41
tribut@@ 41
ulu 41
voc@@ 41
within 41
ya@@ 41
zaman 41
zon 41
çal@@ 41
ès 41
ég@@ 41
ː@@ 41
Β@@ 41
ώ@@ 41
Г@@ 41
з@@ 41
ь 41
عی@@ 41
் 41
ἐ@@ 41
™ 41
∆ 41
∞ 41
⟩ 41
が@@ 41
ク@@ 41
一@@ 41
Cant@@ 40
Champi@@ 40
Colomb@@ 40
Hosp@@ 40
Kamp@@ 40
Kö@@ 40
Mex@@ 40
President 40
Profes@@ 40
Schw@@ 40
aha 40
aise 40
alc@@ 40
band@@ 40
ble@@ 40
bran@@ 40
clo@@ 40
cus@@ 40
ded 40
ei@@ 40
endo 40
ener@@ 40
fall 40
final 40
fs 40
gang 40
ierra 40
ilit@@ 40
ises 40
issu@@ 40
lag@@ 40
lu 40
ought 40
quit@@ 40
star@@ 40
ät@@ 40
ém@@ 40
üt@@ 40
š 40
ή 40
ης 40
σι@@ 40
Бе@@ 40
ко@@ 40
ц@@ 40
ائی@@ 40
نگ 40
ܢ@@ 40
⟨ 40
・ 40
海@@ 40
Grande 39
Jug@@ 39
Riv@@ 39
Sult@@ 39
abor@@ 39
ahl@@ 39
apa 39
apar@@ 39
ayan 39
chester 39
contin@@ 39
development 39
enburg 39
fes@@ 39
forman@@ 39
gres@@ 39
grup@@ 39
indi@@ 39
inning 39
integr@@ 39
international 39
isation 39
its@@ 39
kw@@ 39
lead@@ 39
level 39
oti@@ 39
present@@ 39
real 39
resp@@ 39
resul@@ 39
semb@@ 39
temp@@ 39
uel@@ 39
utz@@ 39
vat@@ 39
äl@@ 39
ça 39
ń@@ 39
Ž@@ 39
όν 39
М@@ 39
г 39
ש 39
سک@@ 39
ざ@@ 39
マ@@ 39
ル@@ 39
ン 39
島@@ 39
雄 39
After 38
At 38
Carr@@ 38
En 38
Gel@@ 38
Gem@@ 38
Hau@@ 38
Provin@@ 38
Sain@@ 38
XV@@ 38
adel@@ 38
atz 38
cial 38
city 38
exten@@ 38
head@@ 38
heim 38
quel@@ 38
red@@ 38
school 38
schule 38
species 38
sta@@ 38
uru 38
women 38
ê 38
ío 38
î 38
ón@@ 38
λε@@ 38
ρα@@ 38
Д@@ 38
Ми@@ 38
П@@ 38
ч@@ 38
٨@@ 38
٩ 38
پان@@ 38
کت@@ 38
ۚ 38
ܬ@@ 38
ⵜ@@ 38
福@@ 38
谷@@ 38
auer 37
auto@@ 37
cole 37
cum@@ 37
docum@@ 37
enci@@ 37
gether 37
hio 37
hiz@@ 37
ici 37
irk 37
known 37
mari@@ 37
modi@@ 37
mur@@ 37
mé@@ 37
oir 37
open@@ 37
por 37
pre 37
prob@@ 37
rock 37
scor@@ 37
tico 37
undo 37
unga 37
vy@@ 37
west 37
what 37
ß 37
été 37
αι@@ 37
а 37
евич 37
افغ@@ 37
٭ 37
کار@@ 37
ید 37
ῖ@@ 37
∙ 37
國@@ 37
崎@@ 37
� 37
Ba 36
Bib@@ 36
Indonesia 36
Las 36
Vor@@ 36
Yıl@@ 36
aten 36
develop@@ 36
ember 36
eye 36
iden 36
km@@ 36
kun@@ 36
led 36
liche 36
lik@@ 36
nam 36
nat@@ 36
natur@@ 36
nie 36
once 36
oro 36
para 36
rad@@ 36
raz@@ 36
ref@@ 36
rif@@ 36
rol 36
sign@@ 36
station 36
suff@@ 36
tag@@ 36
tes@@ 36
tit@@ 36
tribu@@ 36
tés 36
uda 36
zone 36
­ 36
ühr@@ 36
üm@@ 36
ħ@@ 36
ερ@@ 36
μα 36
ών 36
Р@@ 36
جھ@@ 36
غیر 36
پر 36
گو 36
∪ 36
☆ 36
シ@@ 36
ト@@ 36
ラ@@ 36
口@@ 36
林@@ 36
동@@ 36
Institut 35
Nach@@ 35
Ng@@ 35
They 35
aces 35
adu@@ 35
alla 35
ament 35
aster@@ 35
chang@@ 35
construc@@ 35
grou@@ 35
incre@@ 35
isches 35
iste 35
jum@@ 35
leng@@ 35
ling@@ 35
mam@@ 35
member 35
nas@@ 35
neu@@ 35
population 35
radio 35
three 35
tific@@ 35
tran@@ 35
universit@@ 35
érie 35
ú 35
ün@@ 35
ū 35
ə 35
αμ@@ 35
ψ@@ 35
ный 35
сь@@ 35
ס 35
ادی@@ 35
اگ@@ 35
٤@@ 35
ٲ@@ 35
ば@@ 35
대@@ 35
Argent@@ 34
Baş@@ 34
Groß@@ 34
Sport@@ 34
Stadi@@ 34
anos 34
aç@@ 34
blan@@ 34
bun@@ 34
caus@@ 34
conduc@@ 34
eshi 34
fir@@ 34
gan@@ 34
hii 34
inen 34
japon@@ 34
mah@@ 34
metal 34
oca 34
ool 34
princip@@ 34
rier 34
teur 34
tut@@ 34
uss 34
vec@@ 34
zur 34
ɛ@@ 34
αγ@@ 34
λι@@ 34
л 34
ли@@ 34
ни@@ 34
х@@ 34
յ@@ 34
حک@@ 34
٦ 34
پا 34
پی@@ 34
ܡ@@ 34
რ@@ 34
ⵔ@@ 34
せ@@ 34
北@@ 34
新@@ 34
武@@ 34
Argentina 33
Politi@@ 33
Prof@@ 33
Son 33
Spi@@ 33
Su 33
Town 33
ations@@ 33
aup@@ 33
ause 33
ağ@@ 33
ball@@ 33
building 33
cab@@ 33
carri@@ 33
cou@@ 33
country 33
dorf 33
ebe 33
election 33
eler 33
ers@@ 33
feld 33
ically 33
ife 33
ischen 33
jun@@ 33
late 33
lic@@ 33
lieb 33
next 33
perior 33
program 33
regi@@ 33
separ@@ 33
stadt 33
town 33
unter@@ 33
urg@@ 33
vas@@ 33
would 33
Öz@@ 33
ères 33
öh@@ 33
Ο@@ 33
άν@@ 33
ελ@@ 33
ικ@@ 33
ξ@@ 33
το@@ 33
е 33
э 33
خی@@ 33
دین 33
ি@@ 33
え 33
カ@@ 33
彦 33
明@@ 33
橋@@ 33
水@@ 33
Fak@@ 32
Hak@@ 32
His 32
Hung@@ 32
Institu@@ 32
acht 32
ahr@@ 32
base 32
bis@@ 32
classi@@ 32
cour@@ 32
during 32
echo 32
ende 32
endi 32
eux 32
eza 32
frag@@ 32
inin 32
ional 32
isis 32
isten 32
jur@@ 32
lara 32
leb@@ 32
organiz@@ 32
record 32
respon@@ 32
say@@ 32
sein 32
soft 32
tad@@ 32
tag 32
techni@@ 32
teilung 32
third 32
total 32
wak@@ 32
zial@@ 32
ǎ@@ 32
ː 32
ί 32
ει@@ 32
κα@@ 32
τ 32
της 32
е@@ 32
ри@@ 32
گور@@ 32
ۡ 32
ὐ@@ 32
≠ 32
に@@ 32
タ@@ 32
健@@ 32
吉@@ 32
由@@ 32
英@@ 32
3. 31
Lig@@ 31
Milli@@ 31
Pf@@ 31
Stra@@ 31
acio 31
ados 31
aines 31
ansas 31
bek@@ 31
bour@@ 31
chap@@ 31
drei 31
eil@@ 31
entos 31
envir@@ 31
fin 31
ging 31
ident@@ 31
inga 31
jug@@ 31
limit@@ 31
major 31
mont@@ 31
pis@@ 31
plant@@ 31
political 31
prec@@ 31
prov@@ 31
region 31
same 31
sav@@ 31
social 31
there 31
ungen 31
video 31
who@@ 31
xu@@ 31
ви@@ 31
ка@@ 31
ла 31
ף 31
ادی 31
یات 31
ব@@ 31
ὁ 31
ⵓ@@ 31
ち@@ 31
ゅ@@ 31
フ@@ 31
之 31
사@@ 31
️ 31
.S. 30
Arbeit@@ 30
Gün@@ 30
Olympi@@ 30
Ost@@ 30
Shu@@ 30
Wak@@ 30
Wasser@@ 30
athol@@ 30
atia 30
autom@@ 30
cription 30
emple 30
ensa 30
etti@@ 30
featur@@ 30
figur@@ 30
fort 30
front 30
fut@@ 30
iff 30
industri@@ 30
isto 30
ition 30
jan@@ 30
kap@@ 30
loss 30
lung 30
main@@ 30
mom@@ 30
oku@@ 30
ort@@ 30
oğlu 30
requ@@ 30
sie 30
spi@@ 30
studi@@ 30
toral 30
tru@@ 30
uli 30
years 30
Öster@@ 30
æ 30
û@@ 30
ý 30
ƒ 30
έρ@@ 30
τα 30
ων 30
д 30
и@@ 30
կ@@ 30
ֲ@@ 30
ایا 30
بھ@@ 30
史 30
山 30
李@@ 30
神@@ 30
Angeles 29
Historia 29
Ital@@ 29
National@@ 29
Sah@@ 29
Wir@@ 29
alle@@ 29
amu 29
asser 29
bas 29
bol 29
children 29
commer@@ 29
company 29
dam 29
days 29
dir 29
dows 29
due 29
elles 29
elt@@ 29
embr@@ 29
emen 29
former 29
haus@@ 29
high@@ 29
idad 29
kle@@ 29
lek@@ 29
liz@@ 29
lug@@ 29
mé 29
onde 29
sed 29
sexu@@ 29
single 29
such 29
tei 29
them 29
titu@@ 29
transfer@@ 29
zen@@ 29
zu 29
ç 29
ù 29
Š@@ 29
о 29
ћ 29
سید 29
لی 29
کا@@ 29
کن@@ 29
ܐ@@ 29
ަ@@ 29
ი 29
♦ 29
ア@@ 29
ニ@@ 29
二 29
平@@ 29
森@@ 29
Auf@@ 28
Bang@@ 28
Bez@@ 28
Film@@ 28
Her 28
Philipp@@ 28
Tek@@ 28
ained 28
anza 28
benz@@ 28
bez@@ 28
brach@@ 28
ched 28
ción 28
court 28
dar 28
edi 28
ending 28
enst@@ 28
ered 28
esses 28
isl@@ 28
isme 28
kad@@ 28
kol@@ 28
kum@@ 28
langu@@ 28
lé@@ 28
maj@@ 28
mig@@ 28
nos 28
née 28
oci@@ 28
published 28
reduc@@ 28
sburg 28
song 28
strum@@ 28
suc@@ 28
tou@@ 28
tras@@ 28
typ@@ 28
unda 28
zon@@ 28
Ø@@ 28
ð 28
ας 28
Н@@ 28
Ф@@ 28
Х@@ 28
ан@@ 28
го@@ 28
ј@@ 28
آئ@@ 28
رین 28
می 28
مین 28
٦@@ 28
٧@@ 28
چل@@ 28
یع@@ 28
ℓ 28
介 28
伊@@ 28
安@@ 28
宮@@ 28
島 28
民@@ 28
渡@@ 28
김@@ 28
Amér@@ 27
Deutschland 27
Ere@@ 27
Schwe@@ 27
Sin 27
agre@@ 27
alian 27
alit@@ 27
bab@@ 27
before 27
categ@@ 27
course 27
cut 27
design 27
dil@@ 27
eas 27
estig@@ 27
europ@@ 27
fore 27
gaz@@ 27
gli@@ 27
gun 27
hips 27
ilde 27
ismo 27
ismus 27
lie@@ 27
local 27
mis 27
pend@@ 27
phi 27
philos@@ 27
points 27
qua 27
run 27
schi@@ 27
ses@@ 27
since 27
terior 27
til 27
vern@@ 27
vet@@ 27
µ@@ 27
Æ@@ 27
ß@@ 27
àn 27
ě@@ 27
Ō@@ 27
œ@@ 27
Θ@@ 27
Л@@ 27
п@@ 27
са@@ 27
я@@ 27
بطور 27
تھ@@ 27
نیا 27
کتاب 27
کر 27
ۆ@@ 27
ܒ@@ 27
ল@@ 27
⁄ 27
て@@ 27
で@@ 27
内@@ 27
南@@ 27
夫 27
田 27
長@@ 27
한@@ 27
Eis@@ 26
Italia 26
Madrid 26
Papa 26
Schul@@ 26
She 26
These 26
abu 26
agne 26
atur 26
auc@@ 26
azi 26
bah@@ 26
bay 26
bed 26
being 26
bom@@ 26
clu@@ 26
compar@@ 26
continu@@ 26
dad 26
determin@@ 26
dér@@ 26
endi@@ 26
eurs 26
fici@@ 26
fund@@ 26
hak@@ 26
ichte 26
igen 26
iku@@ 26
inform@@ 26
isse 26
iwa 26
million 26
nen 26
omin@@ 26
pas 26
pen 26
some@@ 26
straße 26
tent 26
tig 26
tiz@@ 26
uba 26
unge 26
wi 26
éo 26
ük@@ 26
ý@@ 26
Č@@ 26
ę@@ 26
ř@@ 26
ǔ 26
Γ 26
αρ@@ 26
οχ@@ 26
ού@@ 26
υ 26
Ко@@ 26
ва@@ 26
да@@ 26
де@@ 26
за@@ 26
ле@@ 26
м 26
ор@@ 26
ра 26
ח 26
پور 26
کث@@ 26
کلا@@ 26
ल@@ 26
ე@@ 26
ῦ@@ 26
₹ 26
ⵏ 26
ⵏ@@ 26
る@@ 26
ャ@@ 26
ロ@@ 26
下@@ 26
会@@ 26
国@@ 26
岡@@ 26
江@@ 26
清@@ 26
部@@ 26
Hoch@@ 25
Mün@@ 25
Von 25
Yer@@ 25
alifor@@ 25
angel@@ 25
appe@@ 25
azu 25
bre 25
compl@@ 25
eles 25
ennes 25
famili@@ 25
française 25
haus 25
hen 25
histor@@ 25
irat@@ 25
kt@@ 25
lich 25
lieg@@ 25
lı 25
mill@@ 25
minut@@ 25
nak@@ 25
nung 25
onto 25
polic@@ 25
ported 25
prac@@ 25
pro 25
prom@@ 25
rece@@ 25
reib@@ 25
sir@@ 25
tains 25
tempor@@ 25
traf@@ 25
té 25
umbo 25
yal 25
yu 25
Å@@ 25
év@@ 25
ɔ@@ 25
άλ@@ 25
τα@@ 25
ψ 25
З@@ 25
до@@ 25
но@@ 25
по@@ 25
ъ@@ 25
الدین 25
تین 25
ۃ 25
្ 25
ト 25
中国@@ 25
文@@ 25
明 25
智@@ 25
樹 25
男 25
輔 25
鈴@@ 25
￼ 25
4. 24
Europ@@ 24
Geb@@ 24
Inn@@ 24
König@@ 24
Nam 24
Unter@@ 24
XVIII 24
acu@@ 24
against 24
alled 24
amar@@ 24
anya 24
assen 24
bau 24
both 24
capac@@ 24
capital 24
eil 24
erc@@ 24
ests 24
fam@@ 24
fen@@ 24
gal 24
half 24
hiv@@ 24
hr 24
ible 24
icht@@ 24
idence 24
influ@@ 24
inos 24
kab@@ 24
model@@ 24
nant 24
oka 24
pad@@ 24
pf@@ 24
quot@@ 24
schrift 24
services 24
stand 24
support 24
sus@@ 24
tee 24
tesi 24
tradi@@ 24
weg@@ 24
wes@@ 24
yen@@ 24
º 24
Î@@ 24
äd@@ 24
ë 24
άκ@@ 24
δι@@ 24
ευ@@ 24
ου@@ 24
ж@@ 24
на@@ 24
не@@ 24
ы 24
ץ 24
تاریخ 24
طی@@ 24
فری@@ 24
لیم 24
کور@@ 24
व@@ 24
ু@@ 24
ょ@@ 24
ス 24
久@@ 24
四@@ 24
有@@ 24
直@@ 24
青@@ 24
국 24
서@@ 24
5. 23
6. 23
BK 23
However 23
Region 23
Sü@@ 23
Uz@@ 23
ambo 23
ater@@ 23
bay@@ 23
bli@@ 23
chu@@ 23
conf@@ 23
cu 23
culp@@ 23
death 23
det 23
deutsche 23
differ@@ 23
early 23
eki 23
este 23
estra 23
feder@@ 23
given 23
hid@@ 23
ina@@ 23
inde 23
independ@@ 23
irs 23
kes@@ 23
kho@@ 23
lik 23
nig 23
omen 23
partic@@ 23
province 23
quali@@ 23
reich@@ 23
stanbul 23
television 23
thi 23
track 23
wie 23
z. 23
àng 23
å 23
üh@@ 23
ą@@ 23
εν@@ 23
μα@@ 23
ο 23
οι 23
τι@@ 23
ма@@ 23
та@@ 23
տ@@ 23
ג 23
شیخ 23
نمائ@@ 23
ڨ 23
म@@ 23
र 23
ლ@@ 23
坂@@ 23
大 23
志 23
永@@ 23
義@@ 23
삼@@ 23
🏣 23
Grund@@ 22
Kay@@ 22
Krieg@@ 22
Landes@@ 22
Parti 22
Pub@@ 22
Rep@@ 22
Stad@@ 22
Viet@@ 22
ainst 22
aires 22
anes 22
bak@@ 22
cad@@ 22
century 22
combin@@ 22
dial 22
division 22
erk@@ 22
evi@@ 22
eño 22
forc@@ 22
geh@@ 22
gian 22
ism@@ 22
iç@@ 22
kam@@ 22
kio 22
mec@@ 22
national@@ 22
odes 22
ogo 22
oles 22
ono 22
onship 22
ording 22
oren 22
party 22
pay@@ 22
pays 22
period 22
plan 22
present 22
probl@@ 22
rant 22
rod@@ 22
season 22
sociation 22
temper@@ 22
tir@@ 22
uka 22
univers@@ 22
usal@@ 22
versit@@ 22
ween 22
without 22
yak@@ 22
yas@@ 22
zer@@ 22
zin@@ 22
ème 22
éd@@ 22
ín@@ 22
ț@@ 22
Σ 22
ρά@@ 22
Бо@@ 22
Ру@@ 22
У@@ 22
ер@@ 22
ль 22
не 22
со@@ 22
ז 22
انجام 22
انگ@@ 22
تھا 22
شنل 22
وی 22
ٓ@@ 22
र@@ 22
ო@@ 22
Ἐ@@ 22
ῆ@@ 22
ῦ 22
ほ@@ 22
め 22
サ@@ 22
十@@ 22
城 22
治 22
王 22
生 22
白@@ 22
雅@@ 22
📺 22
Ab 21
Chic@@ 21
Gü@@ 21
Haupt@@ 21
Histoire 21
Ni 21
Premier 21
Prix 21
Stadt@@ 21
Tari@@ 21
adas 21
adol@@ 21
again 21
aged 21
ako 21
alif@@ 21
amen 21
ande 21
anl@@ 21
atives 21
aş@@ 21
best 21
called 21
cas 21
cher@@ 21
club 21
colon@@ 21
community 21
construction 21
conver@@ 21
cover@@ 21
deg@@ 21
div@@ 21
enant 21
entre@@ 21
eon@@ 21
esch@@ 21
exper@@ 21
expl@@ 21
fahr@@ 21
hap@@ 21
hat 21
icas 21
ime@@ 21
inger@@ 21
ised 21
kop@@ 21
kt 21
lau@@ 21
made 21
named 21
office 21
popul@@ 21
pris@@ 21
publi@@ 21
quel 21
riv@@ 21
rus@@ 21
rö@@ 21
scher 21
senti@@ 21
sev@@ 21
stitu@@ 21
take 21
tek@@ 21
though 21
tien 21
werk 21
wir@@ 21
Þ@@ 21
ò 21
ù@@ 21
ğ 21
ır@@ 21
αυ@@ 21
ισ@@ 21
να@@ 21
ορ@@ 21
πο@@ 21
ρί@@ 21
σα 21
τί@@ 21
Со@@ 21
Э@@ 21
во@@ 21
ди@@ 21
ко 21
ная 21
ски 21
طری@@ 21
کل@@ 21
کون@@ 21
یز 21
द@@ 21
ਾ@@ 21
ர@@ 21
ு@@ 21
ნ@@ 21
ἔ@@ 21
ἰ@@ 21
ῶ@@ 21
ド@@ 21
信@@ 21
辺@@ 21
阿@@ 21
성@@ 21
조@@ 21
8. 20
Deutschen 20
Ein 20
España 20
Fam@@ 20
Hamb@@ 20
Kus@@ 20
Lan 20
Mexico 20
Nieder@@ 20
Ord@@ 20
Partido 20
Rail@@ 20
Sta@@ 20
Theo 20
XIX 20
adan 20
aji 20
arias 20
bind@@ 20
bt 20
champi@@ 20
concep@@ 20
cost@@ 20
cual 20
curr@@ 20
destin@@ 20
ently 20
esper@@ 20
found 20
government 20
grav@@ 20
heit 20
him@@ 20
itali@@ 20
kn@@ 20
kreis 20
lit 20
noch 20
sab@@ 20
sera 20
she 20
tech@@ 20
temps 20
tiva 20
trad@@ 20
trat@@ 20
uj@@ 20
unia 20
unos 20
xe 20
yer@@ 20
zar@@ 20
zil@@ 20
zona 20
ération 20
ös@@ 20
üb@@ 20
þ@@ 20
Παλ@@ 20
ατ@@ 20
ιν@@ 20
κλ@@ 20
να 20
ον@@ 20
πολι@@ 20
ρα 20
Е@@ 20
Ц@@ 20
ар@@ 20
во 20
обла@@ 20
сть 20
ц 20
ї@@ 20
آج 20
اری 20
سین 20
لین 20
پنجاب 20
پو@@ 20
ম@@ 20
ে@@ 20
ា@@ 20
ṣ@@ 20
な 20
ブ@@ 20
ル 20
京@@ 20
光@@ 20
八@@ 20
尾@@ 20
昌@@ 20
池@@ 20
澤@@ 20
社 20
裕@@ 20
민@@ 20
주@@ 20
Akadem@@ 19
Conse@@ 19
Constitu@@ 19
Flug@@ 19
Mai 19
Professor 19
Sa 19
Süd@@ 19
alle 19
apo 19
ativ@@ 19
atu 19
auch 19
audi@@ 19
bles 19
concer@@ 19
const@@ 19
cula 19
defin@@ 19
design@@ 19
deutsch@@ 19
east 19
ede 19
five 19
fron@@ 19
held 19
ilk 19
iye 19
izi@@ 19
jer@@ 19
jus@@ 19
kid@@ 19
maya 19
meister 19
members 19
nin 19
obr@@ 19
oj@@ 19
provid@@ 19
publique 19
reco@@ 19
role 19
schw@@ 19
signed 19
still 19
tas 19
tend@@ 19
tima 19
uro 19
yet 19
¯ 19
¾ 19
ées 19
ıl@@ 19
ń 19
ŋ@@ 19
Πολ@@ 19
έν@@ 19
πος 19
τσ@@ 19
υσ@@ 19
όν@@ 19
Рес@@ 19
ایران 19
بچ@@ 19
زی 19
ہ 19
ۖ 19
द 19
ா@@ 19
∗ 19
⛪ 19
ⴰ 19
ⵜ 19
ⵣ@@ 19
っ@@ 19
ど@@ 19
ナ@@ 19
バ@@ 19
パ@@ 19
五@@ 19
保@@ 19
司 19
和 19
子@@ 19
幸 19
式@@ 19
星@@ 19
株@@ 19
沢@@ 19
河@@ 19
行 19
정@@ 19
7. 18
Alman@@ 18
Kad@@ 18
Liga 18
Roma 18
Tod 18
Ukr@@ 18
Universität 18
Virgin@@ 18
Yes@@ 18
Zentr@@ 18
aide 18
aras@@ 18
beau@@ 18
bei 18
civil 18
concentr@@ 18
could 18
cru@@ 18
deux 18
different 18
esen 18
estim@@ 18
eure 18
event 18
gul@@ 18
his@@ 18
iche 18
idas 18
just 18
lege 18
lí@@ 18
m. 18
making 18
orig@@ 18
phe 18
ques@@ 18
road 18
sak@@ 18
short 18
sible 18
sil 18
strat@@ 18
those 18
ually 18
unde 18
yar@@ 18
ál@@ 18
ège 18
ım 18
ın@@ 18
ˉ 18
Ά@@ 18
ακ@@ 18
λα@@ 18
νη 18
οφ@@ 18
ργ@@ 18
ρυ@@ 18
ρύ@@ 18
ών@@ 18
би@@ 18
ми@@ 18
па@@ 18
ру@@ 18
се@@ 18
ст@@ 18
те@@ 18
че@@ 18
і 18
Ա@@ 18
Հ@@ 18
ׁ 18
مک@@ 18
کا 18
گر 18
گرا@@ 18
އ@@ 18
़ 18
‰ 18
❪ 18
❫ 18
ぎ@@ 18
ず 18
め@@ 18
ボ@@ 18
ム@@ 18
ュ@@ 18
之@@ 18
俊@@ 18
公@@ 18
台 18
國 18
多@@ 18
太 18
州 18
康@@ 18
王@@ 18
秀@@ 18
貴@@ 18
香@@ 18
국@@ 18
수@@ 18
신@@ 18
영@@ 18
이 18
장@@ 18
Au 17
Bask@@ 17
Famili@@ 17
Kut@@ 17
Mittel@@ 17
Staats@@ 17
Zeit 17
Zeit@@ 17
Zw@@ 17
adém@@ 17
afr@@ 17
ainer 17
alim@@ 17
arbeit@@ 17
assist@@ 17
atura 17
bed@@ 17
clim@@ 17
clos@@ 17
died 17
eka 17
enin 17
established 17
event@@ 17
foc@@ 17
fu 17
histoire 17
including 17
institu@@ 17
ip 17
kara 17
large 17
located 17
mann@@ 17
mez@@ 17
milit@@ 17
moder@@ 17
mundo 17
mw@@ 17
nea 17
neur 17
ngh@@ 17
pendi@@ 17
performan@@ 17
pes@@ 17
pia 17
police 17
popular 17
reci@@ 17
relati@@ 17
resid@@ 17
secre@@ 17
stad@@ 17
tout 17
uko 17
util@@ 17
various 17
vida 17
zu@@ 17
ã@@ 17
ø 17
ŏ@@ 17
Ś@@ 17
ș@@ 17
Α 17
Μακεδ@@ 17
Φ 17
θος 17
οδ@@ 17
τρ@@ 17
τω 17
ων@@ 17
Ка@@ 17
Ле@@ 17
Са@@ 17
ков@@ 17
мо@@ 17
ска 17
сто@@ 17
то@@ 17
ф@@ 17
ս@@ 17
افواج 17
بیر 17
حسین 17
سمندر 17
قری@@ 17
پور@@ 17
ڠ@@ 17
کری@@ 17
کم@@ 17
ত@@ 17
দ@@ 17
় 17
া 17
์ 17
ག@@ 17
် 17
ს@@ 17
ṇ@@ 17
√ 17
ⴻ@@ 17
ⵍ@@ 17
ⵙ@@ 17
げ@@ 17
ァ@@ 17
エ@@ 17
ダ@@ 17
レ@@ 17
京 17
区 17
城@@ 17
奈@@ 17
岩@@ 17
州@@ 17
戦 17
政@@ 17
法 17
理@@ 17
皇@@ 17
華 17
谷 17
道 17
기 17
다 17
Album 16
Arth@@ 16
Des 16
Histori@@ 16
Mec@@ 16
Mw@@ 16
Schl@@ 16
Sud 16
Türk 16
Việt 16
Wan@@ 16
Wilhel@@ 16
actu@@ 16
agric@@ 16
aissance 16
allen 16
arded 16
ately 16
bou@@ 16
charac@@ 16
cion@@ 16
crit@@ 16
dad@@ 16
dav@@ 16
domin@@ 16
ede@@ 16
engo 16
enst 16
eren 16
erre 16
erung 16
financi@@ 16
four@@ 16
fé@@ 16
gel 16
habit@@ 16
hib@@ 16
however 16
ided 16
inclu@@ 16
introduc@@ 16
issen@@ 16
kit@@ 16
kut@@ 16
leur 16
lichen 16
matr@@ 16
monde 16
natural 16
observ@@ 16
oder 16
ograf@@ 16
platz 16
previ@@ 16
race 16
reich 16
relig@@ 16
shu@@ 16
sos@@ 16
sous 16
sé@@ 16
tent@@ 16
tik 16
tly 16
trag@@ 16
tras 16
uch 16
undi 16
wam@@ 16
wissen@@ 16
zel@@ 16
zeug@@ 16
zog 16
À@@ 16
Ä@@ 16
äf@@ 16
ète 16
üs@@ 16
Đ@@ 16
ʲ@@ 16
Ι@@ 16
Με@@ 16
άδ@@ 16
μος 16
ολ@@ 16
τερ@@ 16
όρ@@ 16
Ан@@ 16
Ар@@ 16
На@@ 16
Я@@ 16
бе@@ 16
но 16
чи@@ 16
ի 16
ׂ@@ 16
بی 16
جارج@@ 16
ربی 16
نمبر 16
ڵ@@ 16
ݒ@@ 16
त 16
त@@ 16
न 16
प 16
श 16
स 16
র 16
র@@ 16
ம@@ 16
მ@@ 16
⋅ 16
▄ 16
☉ 16
ⵢ@@ 16
々@@ 16
さ 16
ガ@@ 16
世@@ 16
主@@ 16
區 16
土@@ 16
学@@ 16
家@@ 16
文 16
社@@ 16
章 16
華@@ 16
경@@ 16
공@@ 16
라@@ 16
의 16
자 16
지@@ 16
🚿 16
Bir 15
Copa 15
Europa 15
Form 15
Geschichte 15
Heim@@ 15
Jah@@ 15
Munici@@ 15
Nguy@@ 15
Nord 15
Schi@@ 15
Türkiye 15
achen 15
aille 15
album 15
altung 15
apos@@ 15
aret 15
ased 15
auf 15
azo 15
bahn 15
bern@@ 15
bourg 15
cant@@ 15
chs 15
consider@@ 15
deb@@ 15
ded@@ 15
deut@@ 15
deutschen 15
diz@@ 15
ectu@@ 15
enas 15
erte 15
exist@@ 15
expres@@ 15
fall@@ 15
films 15
follow@@ 15
gu 15
gun@@ 15
gut 15
haf@@ 15
hara 15
homme 15
iler@@ 15
illed 15
incia 15
ingia 15
leit@@ 15
mf@@ 15
mich@@ 15
modern 15
nou@@ 15
placed 15
played 15
pose 15
possible 15
rég@@ 15
sek@@ 15
sent@@ 15
six 15
tard 15
territ@@ 15
tim 15
tivo 15
tour 15
trou@@ 15
verw@@ 15
vill@@ 15
¼ 15
Í@@ 15
ân 15
éch@@ 15
éro@@ 15
đ@@ 15
ız@@ 15
ɛ 15
ʊ@@ 15
˚ 15
Η 15
Κά@@ 15
Λ 15
Παρ@@ 15
άρ@@ 15
άς 15
αβ@@ 15
εια 15
ικός 15
μη 15
К 15
Ма@@ 15
Росси@@ 15
ат@@ 15
б 15
ве@@ 15
гъ@@ 15
з 15
ме@@ 15
ний 15
ник 15
публика 15
ха@@ 15
؜ 15
برطان@@ 15
دری@@ 15
فتار 15
لگ@@ 15
مشتمل 15
وری 15
گن@@ 15
ێ@@ 15
ܝ 15
ܟ@@ 15
ܥ@@ 15
ް@@ 15
रा@@ 15
য 15
ி@@ 15
ტ@@ 15
უ@@ 15
↔ 15
≡ 15
ぶ@@ 15
仁@@ 15
会 15
元@@ 15
功 15
平 15
成@@ 15
江 15
生@@ 15
菊@@ 15
隆@@ 15
香 15
麻@@ 15
龍@@ 15
리@@ 15
보@@ 15
성 15
스@@ 15
연 15
Bras@@ 14
Bü@@ 14
Ce 14
Distr@@ 14
Distribu@@ 14
Forsch@@ 14
Grün@@ 14
Haus@@ 14
Mek@@ 14
Nis@@ 14
Oy@@ 14
República 14
Unternehmen 14
Wah@@ 14
Zu@@ 14
aill@@ 14
alan 14
alen 14
anst@@ 14
appar@@ 14
ası 14
ayr@@ 14
became 14
chev@@ 14
competi@@ 14
conc@@ 14
conserv@@ 14
declar@@ 14
distribu@@ 14
eder 14
essen 14
eten 14
fav@@ 14
games 14
haz@@ 14
hem 14
ikan@@ 14
iker 14
inci 14
ingt 14
inh 14
invol@@ 14
iten 14
kamp@@ 14
kim@@ 14
kis@@ 14
kö@@ 14
leo 14
much 14
ober@@ 14
ographie 14
ometr@@ 14
prepar@@ 14
program@@ 14
recog@@ 14
rement 14
retr@@ 14
rom 14
several 14
sol 14
started 14
terr@@ 14
tige 14
topl@@ 14
voir 14
vot@@ 14
wah@@ 14
zeich@@ 14
¥ 14
áng 14
ör 14
ünde 14
ür 14
č 14
ħ 14
İn@@ 14
ţ@@ 14
ʁ@@ 14
Θε@@ 14
Λι@@ 14
Μαρ@@ 14
Ξ@@ 14
Ψ 14
Ω@@ 14
ής 14
ην@@ 14
ιά 14
ου 14
τά@@ 14
τας 14
τη 14
υμ@@ 14
υρ@@ 14
Алек@@ 14
Влади@@ 14
Во@@ 14
До@@ 14
Ш@@ 14
ал@@ 14
га@@ 14
ки 14
льный 14
нов 14
нович 14
рий 14
си@@ 14
та 14
ти@@ 14
ү@@ 14
ө@@ 14
ּ 14
ئی@@ 14
قی 14
کش@@ 14
کم 14
ۆ 14
یت 14
ܢ 14
ܩ@@ 14
ܫ@@ 14
ݣ@@ 14
ރ@@ 14
ާ@@ 14
ު@@ 14
म 14
ক@@ 14
่ 14
้ 14
ོ@@ 14
ა 14
ბ@@ 14
გ@@ 14
ვ@@ 14
ẟ@@ 14
ἄ@@ 14
⇌ 14
ⴳ@@ 14
ⴷ@@ 14
ⵉ 14
ⵔ 14
〜 14
ご@@ 14
ア 14
ウ@@ 14
デ@@ 14
メ@@ 14
东@@ 14
前@@ 14
千@@ 14
園 14
年@@ 14
弘 14
後@@ 14
志@@ 14
方@@ 14
朝@@ 14
村 14
沙@@ 14
玉@@ 14
电@@ 14
町 14
章@@ 14
紀 14
良@@ 14
视@@ 14
路 14
道@@ 14
里 14
나@@ 14
미@@ 14
아@@ 14
우@@ 14
인@@ 14
🕰 14
Francia 13
Ped@@ 13
Sek@@ 13
Straße 13
Sur 13
XVI 13
Yar@@ 13
Yeni 13
alar 13
alternati@@ 13
ancia 13
ateur 13
awa@@ 13
chez 13
church 13
complet@@ 13
consid@@ 13
constitu@@ 13
day@@ 13
defe@@ 13
desc@@ 13
eler@@ 13
emas 13
enden 13
eran 13
fak@@ 13
fica 13
formed 13
för@@ 13
gemein@@ 13
git@@ 13
génér@@ 13
hus@@ 13
icos 13
iev@@ 13
kav@@ 13
ları 13
mant@@ 13
mula 13
near 13
numer@@ 13
ogle 13
particip@@ 13
pens@@ 13
pio 13
qu 13
registr@@ 13
releas@@ 13
rue 13
signific@@ 13
tul@@ 13
umba 13
until 13
uso 13
yok@@ 13
zig 13
zis@@ 13
¬ 13
¶ 13
È@@ 13
ám 13
äng@@ 13
ät 13
élé@@ 13
ís@@ 13
ük 13
ün 13
Ā@@ 13
ır 13
ız 13
ɡ@@ 13
ɣ@@ 13
ɾ@@ 13
ʃ@@ 13
ˌ@@ 13
Ϊ@@ 13
αί@@ 13
απ@@ 13
δε@@ 13
εί@@ 13
ζ 13
λλ@@ 13
ξ 13
σία 13
ση 13
υν@@ 13
Ж@@ 13
Мо@@ 13
С 13
Ха@@ 13
кий 13
ци@@ 13
ё@@ 13
ә@@ 13
امی@@ 13
اوی@@ 13
ریف 13
مپ@@ 13
ولی 13
پن@@ 13
کتب 13
کس 13
کی 13
یو@@ 13
۰@@ 13
ܚ@@ 13
ܪ 13
ނ@@ 13
अ@@ 13
का@@ 13
ज 13
ता 13
ल 13
ন@@ 13
ਸ@@ 13
த@@ 13
ས 13
រ@@ 13
ὶ 13
℅ 13
∧ 13
ⵖ@@ 13
ご 13
む 13
キ@@ 13
ク 13
グ@@ 13
ゲ@@ 13
ナ 13
モ@@ 13
博 13
博@@ 13
原 13
堀@@ 13
士 13
士@@ 13
大学 13
孝@@ 13
宏 13
市@@ 13
忠@@ 13
月@@ 13
浩@@ 13
的@@ 13
秋@@ 13
者 13
花 13
花@@ 13
馬@@ 13
마@@ 13
원 13
주 13
창@@ 13
︎ 13
📻 13
Baz@@ 12
Compan@@ 12
Gran 12
Guinea 12
Minister@@ 12
Mp@@ 12
Wirt@@ 12
aina 12
amii 12
another 12
appear@@ 12
aque 12
around 12
atique 12
atro 12
auen 12
cens@@ 12
cours 12
district 12
egen 12
elimin@@ 12
enen 12
erin 12
ezi 12
français 12
gest@@ 12
gradu@@ 12
habitants 12
ilg@@ 12
instrum@@ 12
issen 12
jah@@ 12
jaw@@ 12
lagen 12
liste 12
manif@@ 12
material 12
neo 12
novel@@ 12
personal 12
prises 12
rá@@ 12
sam 12
sans 12
schaft@@ 12
schafts@@ 12
sett@@ 12
spor@@ 12
students 12
tant 12
tay@@ 12
trieb@@ 12
uerto 12
usi 12
veau 12
with@@ 12
yet@@ 12
zentr@@ 12
zey@@ 12
zw@@ 12
¨ 12
Ö 12
Üniversitesi 12
äs@@ 12
èse 12
étr@@ 12
études 12
ête 12
ông 12
õ@@ 12
ög@@ 12
öz@@ 12
úl@@ 12
útbol 12
ġ@@ 12
ık@@ 12
ź@@ 12
ǒ@@ 12
ɑ@@ 12
ʹ 12
ʻ@@ 12
ʿ@@ 12
Δημ@@ 12
Δι@@ 12
ίας 12
ίκ@@ 12
ίν@@ 12
αθ@@ 12
ις 12
του 12
όβ@@ 12
Александ@@ 12
Ду@@ 12
Пе@@ 12
Ра@@ 12
То@@ 12
ба@@ 12
лий 12
лу@@ 12
ни 12
пе@@ 12
ское 12
ство 12
стро@@ 12
фе@@ 12
х 12
хи@@ 12
љ@@ 12
հ@@ 12
մ@@ 12
շ@@ 12
ր 12
ט 12
بیان 12
مرک@@ 12
ڠ 12
کلی@@ 12
ܠ@@ 12
ދ@@ 12
न@@ 12
य@@ 12
ট@@ 12
ল 12
ੰ@@ 12
வ@@ 12
า@@ 12
བ@@ 12
ḥ@@ 12
ṭ@@ 12
ẟ 12
∉ 12
が 12
そ@@ 12
ズ 12
ド 12
ハ@@ 12
ム 12
ロ 12
上 12
人@@ 12
信 12
加@@ 12
勝@@ 12
南 12
地 12
塚@@ 12
央 12
央@@ 12
宗@@ 12
弘@@ 12
愛@@ 12
教 12
教@@ 12
日 12
昭 12
次 12
治@@ 12
法@@ 12
洋@@ 12
清 12
瀬@@ 12
竹@@ 12
達@@ 12
遠@@ 12
館 12
라 12
명@@ 12
무@@ 12
선 12
선@@ 12
스 12
시@@ 12
인 12
자@@ 12
장 12
🛫 12
9. 11
According 11
Alem@@ 11
Azer@@ 11
Ban 11
Bürger@@ 11
Cumhuriyeti 11
Este 11
Hö@@ 11
Im 11
Klo@@ 11
Lehr@@ 11
Mart 11
Pia 11
Zwe@@ 11
a. 11
aciones 11
agua 11
ambi@@ 11
anas 11
anni@@ 11
anno@@ 11
avant 11
aña 11
because 11
besch@@ 11
bres 11
central 11
conse@@ 11
destr@@ 11
eben 11
eden 11
eig@@ 11
estruc@@ 11
eş@@ 11
fen 11
hosp@@ 11
hui 11
hut@@ 11
idos 11
imbo 11
isen 11
itos 11
joint 11
jou@@ 11
kas@@ 11
march@@ 11
materi@@ 11
mina 11
mt 11
nacional 11
north 11
ohne 11
organis@@ 11
origin@@ 11
promot@@ 11
propor@@ 11
proxim@@ 11
präs@@ 11
qué 11
rek@@ 11
religi@@ 11
schen 11
sti 11
stil@@ 11
succ@@ 11
teil 11
tet 11
tham 11
tions@@ 11
tir 11
waf@@ 11
zeu@@ 11
ßen 11
â 11
âteau 11
ã 11
äch@@ 11
çe 11
èle 11
ï 11
ô 11
üc@@ 11
ül 11
ć@@ 11
ık 11
ʒ 11
ʰ@@ 11
̈ 11
΄ 11
Αν@@ 11
Κύ@@ 11
Λου@@ 11
Παν@@ 11
Προ@@ 11
έλ@@ 11
ίσ@@ 11
ανδ@@ 11
γι@@ 11
ησ@@ 11
θε@@ 11
κ 11
κος 11
μπ@@ 11
ομ@@ 11
πι@@ 11
ρε@@ 11
ρό@@ 11
τε@@ 11
υλ@@ 11
υπ@@ 11
ό 11
Гри@@ 11
Па@@ 11
Пет@@ 11
По@@ 11
аль@@ 11
бо@@ 11
ги@@ 11
да 11
ев 11
ев@@ 11
ло 11
ми 11
ные 11
ров 11
си 11
сла@@ 11
хо@@ 11
ция 11
щ@@ 11
ъ 11
Ս@@ 11
թ@@ 11
פ 11
بری 11
تحقی@@ 11
دھ@@ 11
شک@@ 11
مرکز 11
چر@@ 11
گرو@@ 11
ލ@@ 11
ް 11
स@@ 11
জ@@ 11
ਰ@@ 11
ச@@ 11
ా@@ 11
్ 11
್ 11
თ@@ 11
ር@@ 11
ን@@ 11
ὸ@@ 11
‡ 11
⁬ 11
ⴼ@@ 11
ぶ 11
れ@@ 11
イ 11
カ 11
キ 11
コ@@ 11
テ@@ 11
ビ@@ 11
ョ@@ 11
リ 11
ワ@@ 11
今@@ 11
克@@ 11
古@@ 11
哲@@ 11
喜@@ 11
地@@ 11
外@@ 11
宏@@ 11
少@@ 11
帝 11
広@@ 11
慎@@ 11
拳 11
早@@ 11
武 11
波@@ 11
港@@ 11
火@@ 11
界@@ 11
賢@@ 11
陵 11
도 11
사 11
전@@ 11
현@@ 11
Afrika 10
Ago@@ 10
Amerika 10
Biz@@ 10
Bình 10
During 10
Ent@@ 10
Gemein@@ 10
Gesch@@ 10
Kenya 10
Kik@@ 10
Kup@@ 10
Leben 10
Phi 10
Seine 10
Tang@@ 10
Verein 10
Verw@@ 10
Woh@@ 10
aban 10
aben 10
acha 10
adhi 10
aje 10
alité 10
allow@@ 10
among 10
angi 10
anı 10
arse 10
ativa 10
aum 10
avec 10
centre 10
comb@@ 10
deci@@ 10
described 10
dies@@ 10
ehem@@ 10
einen 10
elected 10
elek@@ 10
emba 10
enga 10
enos 10
epis@@ 10
equi@@ 10
eras 10
feh@@ 10
forces 10
furt 10
grand 10
hau@@ 10
idente 10
ien@@ 10
illes 10
important 10
innen 10
investig@@ 10
iran 10
istes 10
kik@@ 10
klär@@ 10
kus@@ 10
lil@@ 10
lima 10
mara 10
maz@@ 10
military 10
mondi@@ 10
nation@@ 10
nicht 10
oire 10
pek@@ 10
poin@@ 10
produced 10
professi@@ 10
pré@@ 10
rail@@ 10
record@@ 10
sad@@ 10
said 10
tah@@ 10
tainment 10
thé@@ 10
tigen 10
ubic@@ 10
udi 10
ulia 10
usu 10
uu 10
verl@@ 10
visi@@ 10
voy@@ 10
west@@ 10
yaz@@ 10
yen 10
© 10
¹ 10
Ü 10
äh@@ 10
ép@@ 10
étu@@ 10
ól@@ 10
õ 10
ück 10
üd@@ 10
Ā 10
ě 10
İs@@ 10
İz@@ 10
ő 10
Ə@@ 10
ʒ@@ 10
͂ 10
Θ 10
Κο@@ 10
Πέ@@ 10
Περ@@ 10
Πλ@@ 10
Υ@@ 10
ίδ@@ 10
ίλ@@ 10
δα 10
ετ@@ 10
ιλ@@ 10
ιος 10
κι@@ 10
λά@@ 10
λέ@@ 10
λος 10
λόγ@@ 10
μέ@@ 10
οπ@@ 10
πα@@ 10
πλ@@ 10
πολη 10
σκ@@ 10
σσ@@ 10
τη@@ 10
τρι@@ 10
ως 10
όκ@@ 10
Ва@@ 10
Ку@@ 10
Москов@@ 10
Н 10
Ор@@ 10
Ре@@ 10
Укра@@ 10
Фе@@ 10
Ч@@ 10
Ю@@ 10
га 10
гор@@ 10
гу@@ 10
ин@@ 10
кая 10
ма 10
мир 10
об@@ 10
он@@ 10
пор@@ 10
ту@@ 10
ты@@ 10
ха 10
ч 10
Մ@@ 10
դ@@ 10
լ@@ 10
ղ@@ 10
վ@@ 10
ֱ@@ 10
ִ 10
ָ 10
ֹ 10
׃ 10
دیث 10
ریا 10
سمبر 10
ندی 10
نک@@ 10
کار 10
کو 10
کوش@@ 10
ې@@ 10
۲@@ 10
ܗ@@ 10
ܙ@@ 10
क@@ 10
ख@@ 10
मो@@ 10
আ@@ 10
ন 10
ৰ@@ 10
ਮ@@ 10
ਿ@@ 10
ರ@@ 10
് 10
් 10
ง@@ 10
დ@@ 10
ត 10
ὀ@@ 10
ὰ 10
‑ 10
⁩ 10
ⴱ@@ 10
コ 10
チ@@ 10
プ@@ 10
九@@ 10
井 10
仁 10
代 10
八 10
六@@ 10
動@@ 10
合@@ 10
哉 10
実 10
家 10
恵@@ 10
愛 10
憲@@ 10
敦@@ 10
木 10
機@@ 10
次@@ 10
正 10
津@@ 10
浅@@ 10
浩 10
淳 10
空@@ 10
聖@@ 10
航@@ 10
都 10
里@@ 10
間@@ 10
院 10
陽@@ 10
隆 10
飯@@ 10
광@@ 10
기@@ 10
다@@ 10
대 10
리 10
문@@ 10
박@@ 10
부 10
위@@ 10
일 10
정 10
제@@ 10
중@@ 10
희 10
🚘 10
Apr@@ 9
Ağ@@ 9
Bu 9
Guerre 9
Indon@@ 9
Meter 9
Nguyễn 9
Osman@@ 9
Paşa 9
Por 9
Pour 9
Trần 9
Türk@@ 9
Una 9
Universidad 9
adores 9
along 9
announced 9
apon 9
aten@@ 9
aş 9
bao 9
baş@@ 9
bir 9
büt@@ 9
casa 9
cause 9
chter 9
cil 9
ciones 9
conqu@@ 9
dest@@ 9
deutscher 9
ecu@@ 9
elde 9
endel@@ 9
erh@@ 9
experi@@ 9
eñ@@ 9
fab@@ 9
faire 9
fass@@ 9
fot@@ 9
graf@@ 9
hay@@ 9
hud@@ 9
iken 9
included 9
install@@ 9
izo 9
iş@@ 9
jeun@@ 9
kale 9
lage 9
larg@@ 9
licher 9
lub 9
mak 9
mani@@ 9
médi@@ 9
nac@@ 9
ngu@@ 9
occup@@ 9
onales 9
premi@@ 9
princi@@ 9
produ@@ 9
released 9
rés@@ 9
sah@@ 9
sang 9
serve 9
similar 9
sind 9
sobre 9
success@@ 9
tam 9
tiy@@ 9
tros 9
ución 9
uten 9
village 9
vom 9
wana 9
wur@@ 9
yay@@ 9
yol@@ 9
États 9
Ø 9
ße 9
ähr@@ 9
çi 9
ève 9
éti@@ 9
óng 9
üf@@ 9
ünst@@ 9
ė 9
Ł@@ 9
ł 9
ő@@ 9
ǐ 9
ǔ@@ 9
ɪ 9
ʃ 9
̯ 9
Β 9
Κ 9
Μα@@ 9
άδα 9
ίων 9
αλλ@@ 9
ασ@@ 9
αστ@@ 9
βι@@ 9
εία 9
κά@@ 9
κας 9
μά@@ 9
μβ@@ 9
μφ@@ 9
παρ@@ 9
ρέ@@ 9
τρα 9
χ 9
όδ@@ 9
όλ@@ 9
ύλ@@ 9
Ј@@ 9
Г 9
За@@ 9
Ива@@ 9
Кра@@ 9
Мар@@ 9
Ро@@ 9
Се@@ 9
доро@@ 9
лов@@ 9
ля 9
ля@@ 9
ман 9
мит@@ 9
пи@@ 9
са 9
ска@@ 9
ста@@ 9
ствен@@ 9
су@@ 9
ур@@ 9
ша@@ 9
ю@@ 9
њ@@ 9
ў 9
բ@@ 9
զ@@ 9
պ@@ 9
֑ 9
֖ 9
ֻ@@ 9
ך 9
انگ 9
تقری@@ 9
تھ 9
جنرل 9
حکم 9
دسمبر 9
ذکر 9
زید 9
سلی@@ 9
مانی 9
مرکزی 9
ٱ 9
چار@@ 9
چان@@ 9
کرو@@ 9
ܦ@@ 9
ܬ 9
މ@@ 9
ސ@@ 9
ި@@ 9
आ@@ 9
ने@@ 9
प@@ 9
पा@@ 9
ং@@ 9
শ@@ 9
স@@ 9
হ@@ 9
ী 9
ਰ 9
ਹ@@ 9
க@@ 9
ி 9
ད@@ 9
ུ@@ 9
ზ@@ 9
ម 9
ស@@ 9
៉ 9
ᾶ@@ 9
○ 9
✪ 9
ⵛ@@ 9
ⵡ@@ 9
ケ@@ 9
シ 9
ジ 9
ミ@@ 9
ヤ@@ 9
万@@ 9
中华@@ 9
人民@@ 9
分@@ 9
君 9
国 9
堂 9
場 9
女@@ 9
富@@ 9
寺@@ 9
工@@ 9
希@@ 9
恵 9
戦@@ 9
族 9
星 9
昭@@ 9
海 9
無@@ 9
神 9
空 9
紀@@ 9
義 9
荒@@ 9
行@@ 9
術 9
語 9
路@@ 9
野 9
限@@ 9
風@@ 9
구@@ 9
비@@ 9
시 9
왕 9
원@@ 9
진@@ 9
태@@ 9
하@@ 9
화@@ 9
Cao 8
Dez@@ 8
Dok@@ 8
Elle 8
Familie 8
Gruppe 8
Haup@@ 8
Isra@@ 8
Maji 8
Para 8
Soh@@ 8
abaj@@ 8
ached 8
aki@@ 8
aliste 8
alter@@ 8
angla@@ 8
anistan 8
ansa 8
atif 8
ayı 8
aî@@ 8
baz@@ 8
best@@ 8
brit@@ 8
built 8
came 8
candid@@ 8
chef 8
cht@@ 8
clas@@ 8
distr@@ 8
dok@@ 8
doğ@@ 8
droit 8
durch 8
edad 8
eden@@ 8
egos 8
embre 8
endant 8
ersch@@ 8
esha 8
father 8
forme 8
geg@@ 8
gol 8
grande 8
gru@@ 8
guerre 8
gö@@ 8
hay 8
ient 8
imba 8
inclus@@ 8
individ@@ 8
inici@@ 8
inner@@ 8
iß@@ 8
jap@@ 8
jed@@ 8
jos 8
kaz@@ 8
kiye 8
ký 8
lake 8
loi 8
lık 8
mano 8
marri@@ 8
muda 8
nach 8
nach@@ 8
ney@@ 8
nur 8
né 8
onio 8
ously 8
preu@@ 8
remain@@ 8
route 8
roy@@ 8
schaf@@ 8
sche@@ 8
seh@@ 8
sich@@ 8
stellung 8
teil@@ 8
tionn@@ 8
took 8
verg@@ 8
wach@@ 8
wala 8
written 8
À 8
économ@@ 8
êt 8
Đại 8
ği 8
ıl 8
Ş 8
ǐ@@ 8
ɐ@@ 8
ɑ 8
ɔ 8
ʰ 8
͡ 8
Αγ@@ 8
Κορ@@ 8
Μακ@@ 8
Παπ@@ 8
Στα@@ 8
Υ 8
Ψ@@ 8
έγ@@ 8
ίνα 8
ίου 8
απε@@ 8
αύ@@ 8
γκ@@ 8
ητ@@ 8
κλη@@ 8
κυ@@ 8
μι@@ 8
μου 8
οβ@@ 8
οπο@@ 8
ταμ@@ 8
τός 8
όπ@@ 8
όσ@@ 8
ύρ@@ 8
ϕ 8
Ал@@ 8
В 8
Васи@@ 8
Ви@@ 8
Го@@ 8
Да@@ 8
И 8
Лу@@ 8
Не@@ 8
О 8
Об@@ 8
При@@ 8
Су@@ 8
ав@@ 8
али@@ 8
ви 8
ге@@ 8
государствен@@ 8
ду@@ 8
жи@@ 8
клуб 8
лы@@ 8
мен@@ 8
ния 8
ное 8
п 8
пу@@ 8
публи@@ 8
ро 8
ского 8
ской 8
слав 8
слав@@ 8
фа@@ 8
ча@@ 8
ю 8
ян 8
Վ@@ 8
ך@@ 8
اؤن 8
افغانستان 8
الحک@@ 8
بری@@ 8
بیت 8
جماعت 8
سنگ@@ 8
مری@@ 8
ملک 8
ملی 8
منتقل 8
میت 8
میر 8
وسطی 8
ٓ 8
ٙ 8
ژ 8
ہ@@ 8
ۇ@@ 8
یار 8
یون@@ 8
ܓ@@ 8
ܣ@@ 8
ހ@@ 8
क 8
ग@@ 8
तर@@ 8
ली 8
शा@@ 8
ভ@@ 8
ম 8
য@@ 8
শ 8
স 8
ো@@ 8
ৰ 8
ਦ@@ 8
ਾ 8
ಮ@@ 8
ท@@ 8
ม@@ 8
ན 8
ར@@ 8
ྲ@@ 8
კ@@ 8
ម@@ 8
ῷ 8
↵ 8
∨ 8
♂ 8
♠ 8
♥ 8
ⵄ@@ 8
。 8
づ@@ 8
ね@@ 8
び@@ 8
ぽ@@ 8
ゃ@@ 8
ザ@@ 8
ソ@@ 8
七@@ 8
三 8
中国 8
乃 8
作@@ 8
優@@ 8
光 8
卫@@ 8
友@@ 8
名@@ 8
増@@ 8
宅@@ 8
安 8
希 8
年 8
廣@@ 8
彩@@ 8
德@@ 8
心 8
戸@@ 8
敬@@ 8
時@@ 8
未@@ 8
本 8
杉@@ 8
林 8
梁 8
殿 8
气 8
氣 8
河 8
泰@@ 8
知@@ 8
祐@@ 8
科@@ 8
经@@ 8
葉@@ 8
虎 8
衣 8
解@@ 8
誠@@ 8
证 8
豊 8
輝 8
金 8
順@@ 8
가@@ 8
강@@ 8
고@@ 8
곽@@ 8
노@@ 8
로@@ 8
만@@ 8
부@@ 8
상@@ 8
수 8
아 8
연@@ 8
유@@ 8
의@@ 8
전 8
조 8
천@@ 8
해@@ 8
호 8
회@@ 8
훈@@ 8
（ 8
🏥 8
🚧 8
Aires 7
Anc@@ 7
Büyük 7
Como 7
Eisen@@ 7
Estados 7
Fren@@ 7
Geometr@@ 7
Nh@@ 7
Sov@@ 7
Sơn 7
Une 7
Yun@@ 7
acces@@ 7
alista 7
alı 7
arak 7
arios 7
artist@@ 7
aç 7
become 7
besonder@@ 7
bien 7
carr@@ 7
commune 7
compr@@ 7
conv@@ 7
coul@@ 7
dah@@ 7
dedic@@ 7
dik@@ 7
disput@@ 7
eines 7
elem@@ 7
ense@@ 7
excep@@ 7
famil@@ 7
fang@@ 7
franç@@ 7
gé@@ 7
général 7
gü@@ 7
hac@@ 7
hin 7
incorpor@@ 7
indi 7
ingi 7
isine 7
isons 7
join@@ 7
jour 7
kea 7
kehr@@ 7
kem@@ 7
leich@@ 7
moved 7
nah@@ 7
nay 7
nomin@@ 7
nord@@ 7
né@@ 7
often 7
onc@@ 7
ortho@@ 7
oğ@@ 7
porte 7
propos@@ 7
quan 7
rar 7
respectiv@@ 7
schaften 7
sek 7
sik@@ 7
simil@@ 7
situ@@ 7
statt 7
toria 7
tér@@ 7
umu 7
unci@@ 7
uza 7
uş@@ 7
visit@@ 7
vu 7
wake 7
weit@@ 7
went 7
wirt@@ 7
zam@@ 7
zh 7
zt 7
zum 7
zwe@@ 7
¢ 7
µ 7
Â@@ 7
É 7
ài 7
ào 7
ái 7
äus@@ 7
çu 7
écn@@ 7
óm@@ 7
ôn 7
über 7
üst@@ 7
ış@@ 7
ɐ 7
ɨ@@ 7
ɬ 7
ɾ 7
ʀ 7
̃ 7
΅ 7
ΐ@@ 7
Ζ@@ 7
Καλλ@@ 7
Καρ@@ 7
Νικ@@ 7
Π 7
Ρ 7
Φιλ@@ 7
άβ@@ 7
άδες 7
ίγ@@ 7
ίδας 7
δρ@@ 7
θν@@ 7
ιζ@@ 7
ξι@@ 7
οκ@@ 7
ούλ@@ 7
πέ@@ 7
ρου 7
ρού@@ 7
σύ@@ 7
τή@@ 7
ταν@@ 7
υχ@@ 7
χή 7
χος 7
ύν@@ 7
ώ 7
Ад@@ 7
Би@@ 7
Бур@@ 7
Де@@ 7
Ме@@ 7
Миха@@ 7
Но@@ 7
Ти@@ 7
Я 7
ба 7
вер@@ 7
вый 7
го 7
же@@ 7
йн 7
ке 7
ке@@ 7
ки@@ 7
ков 7
кру@@ 7
ктор 7
мон@@ 7
нови@@ 7
ны@@ 7
ных 7
от@@ 7
пат@@ 7
ре 7
рен@@ 7
ск 7
ст 7
сь 7
ун@@ 7
ше@@ 7
эн@@ 7
ян@@ 7
ї 7
қ@@ 7
գ@@ 7
ս 7
֥ 7
ֽ@@ 7
اسلامی 7
اِس 7
اک 7
خلی@@ 7
زیر 7
سفی@@ 7
شمار 7
شکل 7
شی 7
عرص@@ 7
ٖ@@ 7
چی@@ 7
ښ@@ 7
کس@@ 7
ڪ@@ 7
گن 7
گی@@ 7
ۈ@@ 7
ۗ 7
۱@@ 7
۳ 7
۹@@ 7
ܛ@@ 7
ܨ@@ 7
ަ 7
ग 7
च@@ 7
ट 7
दा@@ 7
नि@@ 7
ब 7
बा@@ 7
मा@@ 7
मी 7
य 7
लि@@ 7
व 7
वि@@ 7
ष 7
ह 7
ार@@ 7
ु@@ 7
ক 7
দ 7
ன@@ 7
ப@@ 7
ు 7
འ@@ 7
ི@@ 7
ᒾ 7
ន@@ 7
ảng 7
ậu 7
ịnh 7
Ἁ@@ 7
Ἄ@@ 7
Ἑ@@ 7
Ἰ@@ 7
ὄ@@ 7
ὕ@@ 7
‒ 7
⁧ 7
↓ 7
ⴽ@@ 7
ⵃ@@ 7
『 7
』 7
ぎ 7
ば 7
セ@@ 7
ツ@@ 7
ピ@@ 7
ラ 7
中 7
二@@ 7
亜@@ 7
伐 7
元 7
入@@ 7
全@@ 7
关@@ 7
利@@ 7
口 7
号 7
吾 7
哲 7
場@@ 7
夏@@ 7
宗 7
寺 7
屋@@ 7
府 7
建@@ 7
式 7
张@@ 7
徐@@ 7
御@@ 7
悟 7
技@@ 7
書@@ 7
最@@ 7
月 7
校 7
梁@@ 7
梨@@ 7
氏 7
汉@@ 7
流@@ 7
浦@@ 7
病@@ 7
百@@ 7
相@@ 7
真 7
祖 7
第@@ 7
篠@@ 7
篤@@ 7
納@@ 7
緒@@ 7
織 7
自@@ 7
舞 7
舞@@ 7
茂 7
茶@@ 7
菜 7
藤 7
言 7
貴 7
赤@@ 7
辩@@ 7
都@@ 7
酒@@ 7
长@@ 7
門@@ 7
雄@@ 7
雪@@ 7
魔@@ 7
黒@@ 7
龍 7
龙@@ 7
가 7
경 7
구 7
군 7
금@@ 7
녀 7
니@@ 7
도@@ 7
릉 7
모@@ 7
벌 7
복@@ 7
산 7
세@@ 7
에 7
우 7
은@@ 7
점 7
제 7
청@@ 7
트 7
학@@ 7
한 7
회 7
） 7
， 7
🌍 7
🕧 7
ABD 6
Ankara 6
Brasil 6
Buenos 6
Böl@@ 6
Bắc 6
División 6
Eine 6
Entre 6
Estado 6
Grenz@@ 6
Juli 6
Mit 6
Mär@@ 6
México 6
Nueva 6
Par 6
Quốc 6
Serie 6
Tanzania 6
Tây 6
Unidos 6
Verein@@ 6
Wash@@ 6
absol@@ 6
adil@@ 6
anay@@ 6
announc@@ 6
arı 6
atı 6
auté 6
bang 6
bere@@ 6
bey@@ 6
celle 6
cet 6
cito 6
consist@@ 6
contempor@@ 6
contra 6
corresp@@ 6
cá@@ 6
dici@@ 6
dini 6
duk@@ 6
dung 6
ecke 6
ekt 6
ellas 6
emu 6
eski 6
español 6
especi@@ 6
establ@@ 6
estas 6
few 6
fü@@ 6
gew@@ 6
historia 6
ickl@@ 6
imleri 6
inay@@ 6
inco 6
inten@@ 6
jours 6
kam 6
kay@@ 6
kia 6
kip@@ 6
köy 6
lement 6
lui 6
mente 6
milli@@ 6
musical 6
odo 6
ongo@@ 6
origine 6
otros 6
pendant 6
pero 6
plu@@ 6
politique 6
prak@@ 6
quatre 6
quier 6
riere 6
sent 6
south 6
tek 6
teurs 6
tif 6
tische 6
tores 6
trois 6
umia 6
umo 6
ungu 6
unu 6
vez 6
vita 6
woh@@ 6
worked 6
yerine 6
zas 6
zeit 6
zor@@ 6
zur@@ 6
zus@@ 6
¸ 6
Ú@@ 6
Über@@ 6
ämp@@ 6
ède 6
èmes 6
éré@@ 6
éta@@ 6
ên 6
ñ 6
ôt 6
úa 6
ück@@ 6
ütz@@ 6
þ 6
ė@@ 6
ę 6
İstanbul 6
ılar 6
ısı 6
ış 6
ű@@ 6
ǎ 6
ǒ 6
ǵ@@ 6
ɒ@@ 6
ɣ 6
ɨ 6
ʔ@@ 6
ʱ 6
̓ 6
Ό@@ 6
Κου@@ 6
Λε@@ 6
Συ@@ 6
Χρ@@ 6
άγ@@ 6
άρι 6
άρι@@ 6
άφ@@ 6
έλευ@@ 6
ές 6
ίζ@@ 6
ίνη 6
αδ@@ 6
ανδρ@@ 6
αρχ@@ 6
γεν@@ 6
δος 6
εβ@@ 6
εύ@@ 6
θη@@ 6
ική 6
ιστ@@ 6
κο@@ 6
κρά@@ 6
κρατ@@ 6
κτ@@ 6
κύ@@ 6
λί@@ 6
λεύ@@ 6
λογ@@ 6
μέν@@ 6
μεν@@ 6
μπο@@ 6
οί 6
ού 6
πρ@@ 6
ραν@@ 6
ς@@ 6
σμός 6
στο@@ 6
τικ@@ 6
το 6
χώ@@ 6
όπουλ@@ 6
Ђ@@ 6
Бал@@ 6
Вели@@ 6
Гу@@ 6
Д 6
Македо@@ 6
Пра@@ 6
Серге@@ 6
Си@@ 6
Та@@ 6
У 6
Ю 6
ата@@ 6
бал@@ 6
бли@@ 6
бу@@ 6
вая 6
версите@@ 6
вет@@ 6
вя@@ 6
до 6
ен@@ 6
зо@@ 6
институ@@ 6
ит@@ 6
ку@@ 6
къ@@ 6
ле 6
лен@@ 6
лов 6
лю@@ 6
лё@@ 6
ники 6
ниче@@ 6
она@@ 6
пера@@ 6
пол@@ 6
пре@@ 6
рас@@ 6
рез@@ 6
ров@@ 6
ры@@ 6
сп@@ 6
тече@@ 6
то 6
три@@ 6
ца 6
цы 6
ческий 6
чи 6
ш 6
ша 6
ђ@@ 6
Қ@@ 6
Ө@@ 6
Բ@@ 6
Գ@@ 6
է@@ 6
ց 6
֣ 6
ارک 6
امیر 6
اکی@@ 6
تاری@@ 6
تعلیم 6
حی 6
خاندان 6
دیا 6
ستمبر 6
سین@@ 6
شاہ 6
شخصی@@ 6
قدی@@ 6
لیا 6
مسلمان 6
مسی@@ 6
میل 6
نتی@@ 6
وزیر 6
پاکستان 6
کال@@ 6
ڬ@@ 6
گول@@ 6
یو 6
ۥ@@ 6
ܠ 6
ީ@@ 6
ः 6
कर@@ 6
का 6
घ@@ 6
पाल 6
भ@@ 6
रा 6
सा@@ 6
ान 6
ी 6
ਕ@@ 6
ਜ@@ 6
ਬ@@ 6
ੀ@@ 6
ட@@ 6
த 6
ம 6
ர 6
น@@ 6
สุ@@ 6
ང 6
ས@@ 6
င 6
စ@@ 6
န 6
ေ@@ 6
ს 6
ხ@@ 6
ል 6
መ@@ 6
አ@@ 6
ᛋ@@ 6
ុ@@ 6
ṃ@@ 6
ἑ@@ 6
Ἠ@@ 6
ἱ@@ 6
ἴ@@ 6
ὅ@@ 6
ὰ@@ 6
ὴ 6
ὸ 6
‎ 6
₂ 6
№ 6
∅ 6
∑ 6
∩ 6
≪ 6
█ 6
◦ 6
⦁ 6
ⴷ 6
ⴼ 6
、 6
へ 6
へ@@ 6
も 6
ィ 6
ィ@@ 6
ウ 6
ェ@@ 6
ゴ@@ 6
サ 6
ズ@@ 6
ヒ@@ 6
フ 6
プ 6
ポ@@ 6
ㄷ 6
ㅇ 6
不@@ 6
丸@@ 6
代@@ 6
佛@@ 6
作 6
保 6
修 6
倉@@ 6
優 6
党 6
公 6
兴@@ 6
兵@@ 6
剛 6
勇@@ 6
名 6
周@@ 6
嘉@@ 6
基@@ 6
奈 6
奥@@ 6
女 6
孝 6
宇@@ 6
川 6
師 6
广@@ 6
弥@@ 6
形 6
彰 6
念@@ 6
成 6
我 6
房@@ 6
所 6
撃@@ 6
敏 6
斗@@ 6
斯@@ 6
晃 6
晋@@ 6
書 6
會 6
朗 6
朝 6
术 6
朱@@ 6
柳@@ 6
根@@ 6
比@@ 6
沙 6
泉@@ 6
洋 6
湖 6
漢@@ 6
潔 6
特@@ 6
甲@@ 6
皇 6
祥@@ 6
竜@@ 6
笠@@ 6
維@@ 6
綾 6
羅 6
能@@ 6
良 6
草@@ 6
裕 6
越@@ 6
踊 6
辻@@ 6
通@@ 6
間 6
门 6
间@@ 6
阳 6
阳@@ 6
陳@@ 6
陽 6
隊 6
顯@@ 6
鮮 6
黄@@ 6
계@@ 6
관@@ 6
남@@ 6
는 6
단@@ 6
달 6
당 6
돌@@ 6
문 6
백@@ 6
소@@ 6
씨 6
영 6
을 6
일@@ 6
종@@ 6
최@@ 6
투@@ 6
홍@@ 6
황@@ 6
효@@ 6
🌐 6
🏐 6
🏠 6
🚒 6
🛁 6
18. 5
Allem@@ 5
Anh 5
Ayr@@ 5
Barcel@@ 5
Besch@@ 5
Best@@ 5
Dies@@ 5
Ende 5
Er 5
Frau 5
Fuß@@ 5
Gür@@ 5
Kant@@ 5
Kib@@ 5
Kır@@ 5
Lebens@@ 5
Minh 5
Mitte 5
Stadt 5
Thanh 5
Thái 5
Vier@@ 5
acto 5
aison 5
akt@@ 5
alre@@ 5
amér@@ 5
autor@@ 5
ayar@@ 5
ağı 5
chini 5
constr@@ 5
continued 5
contribu@@ 5
cré@@ 5
culo 5
cultur@@ 5
deren 5
deter@@ 5
deu@@ 5
dire@@ 5
direction 5
dispar@@ 5
dont 5
dur 5
dır@@ 5
eaux 5
ecto 5
edil@@ 5
ellen 5
empl@@ 5
endung 5
ería 5
etzt 5
ewa 5
explo@@ 5
fait 5
fond@@ 5
franc@@ 5
geord@@ 5
gique 5
guerra 5
gén@@ 5
haber 5
having 5
icha 5
ikia 5
import@@ 5
ität 5
ités 5
izi 5
ión 5
kana 5
kari@@ 5
keit 5
khi 5
kirche 5
kub@@ 5
kup@@ 5
lere 5
lerin 5
letz@@ 5
lichkeit 5
logr@@ 5
lığı 5
ması 5
mik@@ 5
mili@@ 5
mim@@ 5
muz@@ 5
naf@@ 5
neh@@ 5
nouvelle 5
novi@@ 5
nú@@ 5
onya 5
opo 5
orden 5
organisation 5
otra 5
parti 5
pein@@ 5
perman@@ 5
peu 5
proces@@ 5
puis 5
realiz@@ 5
rir 5
risto 5
roi 5
sanat@@ 5
según 5
serie 5
sever@@ 5
studio 5
suiv@@ 5
sız 5
ticos 5
tival 5
tober 5
toire 5
trat 5
tä@@ 5
una@@ 5
vard@@ 5
vier@@ 5
vili@@ 5
watu 5
waz@@ 5
yana@@ 5
yap@@ 5
yeni 5
¡ 5
ßen@@ 5
ánh 5
âm 5
änd@@ 5
ände 5
époque 5
ército 5
être 5
ública 5
ún 5
û 5
ülk@@ 5
üng@@ 5
üsü 5
üz 5
üz@@ 5
Đức 5
ĕ 5
ĕ@@ 5
ġ 5
ĭ@@ 5
ıy@@ 5
ļ 5
ň 5
œ 5
şehir 5
ŭ 5
Ż 5
Ż@@ 5
Ž 5
ž 5
ƒ@@ 5
ȳ 5
ɕ 5
ʊ 5
ʋ@@ 5
ʾ@@ 5
̀ 5
̂ 5
̥ 5
Γεω@@ 5
Ε 5
Κυ@@ 5
Μ 5
Μέ@@ 5
Μεγάλ@@ 5
Στρ@@ 5
άζ@@ 5
άμ@@ 5
άπ@@ 5
ήν@@ 5
αγι@@ 5
αιν@@ 5
αντ@@ 5
αρι@@ 5
βασ@@ 5
βρα@@ 5
γέν@@ 5
δο@@ 5
δρο@@ 5
είο 5
ηγ@@ 5
ηδ@@ 5
ησι@@ 5
θα 5
θαν@@ 5
ικό 5
ιρ@@ 5
ισμός 5
ιχ@@ 5
κίν@@ 5
καλ@@ 5
κη 5
λευθερ@@ 5
μαν@@ 5
μον@@ 5
μυ@@ 5
νέ@@ 5
νομ@@ 5
ογ@@ 5
οι@@ 5
ους 5
ούν@@ 5
πά@@ 5
παι@@ 5
πατ@@ 5
πε@@ 5
περ@@ 5
προ@@ 5
ριστ@@ 5
ρο 5
σπ@@ 5
τέ@@ 5
τή 5
ταγ@@ 5
τυ@@ 5
τύ@@ 5
υργ@@ 5
φαν@@ 5
χν@@ 5
χω@@ 5
ωγ@@ 5
ωνία 5
όμ@@ 5
ύ 5
І@@ 5
Бу@@ 5
Все@@ 5
Ки@@ 5
Ла@@ 5
Ли@@ 5
М 5
Му@@ 5
Ни@@ 5
Нико@@ 5
Ту@@ 5
Ш 5
ак@@ 5
ан 5
бы@@ 5
ве 5
вет 5
воен@@ 5
вос@@ 5
ге 5
гра@@ 5
дру@@ 5
ем@@ 5
ера 5
за 5
зе@@ 5
зер@@ 5
зы 5
ите@@ 5
йский 5
мир@@ 5
миро@@ 5
му 5
му@@ 5
мы@@ 5
нато@@ 5
нау@@ 5
ной 5
ны 5
обо@@ 5
ографи@@ 5
рав@@ 5
ря@@ 5
ск@@ 5
сов 5
сов@@ 5
ства 5
сты@@ 5
тур@@ 5
ть 5
фо@@ 5
хи 5
ча 5
чен@@ 5
чки 5
ши@@ 5
шу@@ 5
ще@@ 5
щи@@ 5
ье 5
Ե@@ 5
Կ@@ 5
Պ@@ 5
Տ@@ 5
ժ@@ 5
խ@@ 5
կ 5
ջ@@ 5
ռ@@ 5
ք@@ 5
ֵ 5
מ 5
اسی 5
الگ 5
الہ 5
امین 5
انیا 5
اہ 5
بنی@@ 5
جی 5
ذی@@ 5
رہ 5
شری@@ 5
میری 5
پاس 5
ڄ@@ 5
چی 5
ڕ@@ 5
کت 5
کتاب@@ 5
کول@@ 5
گی 5
ބ@@ 5
ँ@@ 5
ं 5
ं@@ 5
ई@@ 5
उ@@ 5
ए@@ 5
कर 5
कु@@ 5
को@@ 5
ख 5
ङ 5
जय 5
ट@@ 5
ड 5
ण 5
ता@@ 5
ति 5
ति@@ 5
ती 5
दु@@ 5
दे@@ 5
ध@@ 5
नदी 5
ना@@ 5
नी 5
मे@@ 5
राज 5
री 5
ला 5
ह@@ 5
हा@@ 5
हि@@ 5
ि@@ 5
ू@@ 5
। 5
ই@@ 5
চ@@ 5
ত 5
প@@ 5
ব 5
ি 5
ਅ@@ 5
ਤ@@ 5
ਨ@@ 5
ੁ@@ 5
ੇ@@ 5
ੋ@@ 5
ன 5
ய@@ 5
న@@ 5
మ@@ 5
ಾ@@ 5
ා@@ 5
น 5
รั@@ 5
รา@@ 5
ད 5
ི 5
ခ@@ 5
შ@@ 5
ሳ@@ 5
ባ@@ 5
ይ@@ 5
ᚷ@@ 5
ᛁ@@ 5
ᛏ@@ 5
ᛖ@@ 5
ខ@@ 5
ទ@@ 5
ន 5
ប 5
ប@@ 5
យ@@ 5
រ 5
វ@@ 5
ូ@@ 5
ḗ@@ 5
Ḥ@@ 5
ḫ@@ 5
ḳ@@ 5
ṯ@@ 5
Ἔ@@ 5
ἡ 5
ἡ@@ 5
Ἡ@@ 5
Ὀ@@ 5
ὴ@@ 5
ὼ@@ 5
ῖ 5
‏ 5
‐ 5
₤ 5
₩ 5
Ⅳ 5
∀ 5
∕ 5
≫ 5
♣ 5
✓ 5
ⲙ@@ 5
々 5
す 5
ぞ@@ 5
つ 5
で 5
に 5
ほ 5
ぼ 5
よ 5
を@@ 5
ォ@@ 5
ギ@@ 5
グ 5
バ 5
ベ@@ 5
ユ@@ 5
レ 5
ヴ@@ 5
ㄱ 5
ㅅ 5
ㅍ 5
东 5
丝@@ 5
中國 5
久 5
事件 5
任@@ 5
伝 5
佳@@ 5
依 5
倫@@ 5
健 5
児 5
出@@ 5
刀 5
刃@@ 5
分 5
剣@@ 5
助 5
勳@@ 5
史@@ 5
右@@ 5
号@@ 5
同@@ 5
后 5
呪 5
哈@@ 5
塔 5
夕@@ 5
天 5
字 5
學@@ 5
宁@@ 5
官@@ 5
宣@@ 5
室 5
密@@ 5
寛 5
寧@@ 5
寶 5
将@@ 5
岸@@ 5
嵐@@ 5
左@@ 5
幸@@ 5
度@@ 5
座 5
延@@ 5
弓 5
弟 5
彰@@ 5
御 5
忍@@ 5
忠 5
急@@ 5
性@@ 5
態 5
慶@@ 5
手@@ 5
拓@@ 5
放 5
斐@@ 5
新 5
族@@ 5
春@@ 5
曲 5
東 5
栄@@ 5
梅@@ 5
條@@ 5
步@@ 5
毅 5
水 5
沖@@ 5
涼@@ 5
深@@ 5
淳@@ 5
渋@@ 5
片@@ 5
物@@ 5
班 5
的 5
眞@@ 5
立@@ 5
站 5
競@@ 5
管@@ 5
精@@ 5
純@@ 5
綾@@ 5
繁 5
绸@@ 5
羅@@ 5
聡 5
肅@@ 5
能 5
菅@@ 5
蘭@@ 5
術@@ 5
衛@@ 5
見@@ 5
車 5
通 5
進@@ 5
郎@@ 5
部 5
関@@ 5
雅 5
集@@ 5
霊 5
青 5
順 5
馆 5
魯@@ 5
건@@ 5
고 5
관 5
군@@ 5
굴@@ 5
달@@ 5
덕@@ 5
들@@ 5
를 5
무 5
미 5
민 5
방@@ 5
빈 5
생 5
송@@ 5
숙@@ 5
순 5
식@@ 5
안@@ 5
양@@ 5
에@@ 5
오@@ 5
왕@@ 5
요 5
운 5
임@@ 5
종 5
지 5
진 5
춘@@ 5
터@@ 5
팔@@ 5
프@@ 5
환@@ 5
후 5
７@@ 5
𐎠@@ 5
🌏 5
🎰 5
🏁 5
🏛 5
🚎 5
🚨 5
🛣 5
🛤 5
13. 4
20. 4
Auf 4
Bev@@ 4
COVI@@ 4
Califor@@ 4
Dans 4
Fahr@@ 4
Feb@@ 4
Geg@@ 4
Guin@@ 4
Hindi 4
Hoàng 4
Hà 4
Kongo 4
Lond@@ 4
Mungu 4
Musik@@ 4
Ngo@@ 4
Nigeria 4
Spiel@@ 4
Tür@@ 4
Welt@@ 4
abab@@ 4
actual 4
adop@@ 4
adora 4
aifa 4
ailleurs 4
alık 4
ambu@@ 4
américain 4
amı 4
anlar 4
après 4
armée 4
ateurs 4
atta@@ 4
autre 4
años 4
bajo 4
beit 4
beri 4
biy@@ 4
bul 4
bâ@@ 4
bü@@ 4
career 4
celebr@@ 4
cette 4
charg@@ 4
ciudad 4
commen@@ 4
comun@@ 4
conten@@ 4
contre 4
created 4
có@@ 4
dete 4
did 4
donn@@ 4
dose 4
düz@@ 4
eln 4
encias 4
enfants 4
enten 4
entro 4
erste 4
estudio 4
familia 4
favor@@ 4
fest@@ 4
fik@@ 4
forma 4
fäl@@ 4
geri 4
ghi 4
haa 4
hari@@ 4
herr@@ 4
huy@@ 4
ición 4
ieder 4
iert 4
ierung 4
ilen 4
imiento 4
interpre@@ 4
intro@@ 4
jeres 4
jia 4
jini 4
jour@@ 4
kata 4
kati@@ 4
keine 4
kent@@ 4
khi@@ 4
kiş@@ 4
kodi 4
lama 4
leich 4
leurs 4
lü@@ 4
mab@@ 4
maf@@ 4
mash@@ 4
mejor 4
meng@@ 4
mittel@@ 4
mondiale 4
msh@@ 4
muj@@ 4
même 4
neue 4
occu@@ 4
octu@@ 4
ográ@@ 4
ológ@@ 4
onge@@ 4
opened 4
ouvern@@ 4
principal 4
provin@@ 4
prä@@ 4
père 4
recher@@ 4
respons@@ 4
reste 4
returned 4
rière 4
régi@@ 4
served 4
seur 4
sich 4
sinh 4
siy@@ 4
siz 4
spéci@@ 4
suite 4
sông 4
teh@@ 4
tere 4
tete 4
thu 4
timm@@ 4
tish@@ 4
tous 4
très 4
tü 4
tü@@ 4
ulus@@ 4
unden 4
utiliz@@ 4
utsch@@ 4
wani 4
wann 4
wap@@ 4
wrote 4
zäh@@ 4
Ét@@ 4
État 4
Ñ 4
Ñ@@ 4
áo 4
át 4
édi@@ 4
ême 4
ños 4
öne@@ 4
öß@@ 4
ünden 4
üş@@ 4
Đồng 4
đ 4
Ħ 4
ĩ@@ 4
ĩnh 4
İk@@ 4
ım@@ 4
ına 4
ŵ@@ 4
Ź 4
ź 4
ướng 4
ượng 4
ǫ@@ 4
ș 4
ɦ@@ 4
ʔ 4
ʺ 4
Έ@@ 4
Ή@@ 4
Αργ@@ 4
Αυ@@ 4
Ελ@@ 4
Κα@@ 4
Καλ@@ 4
Ν 4
Ορ@@ 4
Περι@@ 4
Πρ@@ 4
Σου@@ 4
έρας 4
έφ@@ 4
ίδι@@ 4
ίκη 4
αία 4
αζ@@ 4
αχ@@ 4
βαρ@@ 4
γιος 4
γραφή 4
δοκ@@ 4
ειδ@@ 4
ειο 4
εκ@@ 4
ες 4
εσ@@ 4
εφαλ@@ 4
ηλ@@ 4
ημ@@ 4
ηφ@@ 4
θερ@@ 4
ιγ@@ 4
ιλι@@ 4
ιο 4
ιώ@@ 4
καθ@@ 4
και 4
καν@@ 4
κερ@@ 4
κρι@@ 4
λευ@@ 4
λλην@@ 4
μεσ@@ 4
ναι 4
νε@@ 4
νης 4
οί@@ 4
ουσ@@ 4
παν@@ 4
πει@@ 4
πυ@@ 4
ράς 4
ριστιαν@@ 4
ρω@@ 4
σο@@ 4
στι@@ 4
σω@@ 4
ταυ@@ 4
τι 4
τοκ@@ 4
τον 4
των 4
υγ@@ 4
φιλ@@ 4
χρ@@ 4
χρόν@@ 4
όγ@@ 4
ώρα 4
Ав@@ 4
Ак@@ 4
Б 4
Й 4
Кар@@ 4
Мон@@ 4
На 4
Николай 4
Пре@@ 4
Про@@ 4
Раз@@ 4
Т 4
Тур@@ 4
Хо@@ 4
Ша@@ 4
ани 4
ато@@ 4
бо 4
бра@@ 4
вар@@ 4
вед@@ 4
вор@@ 4
высо@@ 4
гла@@ 4
гово@@ 4
гу 4
дар@@ 4
дин 4
дне@@ 4
ент@@ 4
ет 4
жа@@ 4
жен@@ 4
жи 4
зан@@ 4
зи@@ 4
из@@ 4
ис@@ 4
йн@@ 4
йской 4
ками 4
кова 4
ком@@ 4
лек@@ 4
ление 4
ли 4
лия 4
лъ@@ 4
льная 4
мия 4
народ@@ 4
ние 4
нин 4
ница 4
нию 4
нов@@ 4
ного 4
ност 4
ня@@ 4
оло@@ 4
по 4
под@@ 4
при@@ 4
про@@ 4
раз@@ 4
ран@@ 4
рат 4
ри 4
род@@ 4
ские 4
ско@@ 4
стан 4
сти@@ 4
сы@@ 4
ся 4
ся@@ 4
те 4
тель@@ 4
тив@@ 4
тин 4
ток 4
тор 4
тро@@ 4
фи@@ 4
ху@@ 4
чер@@ 4
шка 4
ёл 4
ғ@@ 4
ң 4
һ@@ 4
ԓ@@ 4
Թ@@ 4
Խ@@ 4
Յ@@ 4
Ջ@@ 4
ա 4
բ 4
յ 4
ո 4
ջ 4
տ 4
ք 4
֔ 4
ֶ 4
־ 4
כ 4
اتھ 4
الفاظ 4
اکثر 4
این 4
بنی 4
تعلی@@ 4
جنگ@@ 4
دریا 4
رانی 4
رک 4
ریل 4
زہ 4
سیم 4
شاہ@@ 4
صلی 4
صیل 4
ضی 4
عی 4
فارسی 4
قلعہ 4
قومی 4
قین 4
ٕ@@ 4
ٙ@@ 4
ٹی@@ 4
پش@@ 4
چا 4
ڑ@@ 4
کھ@@ 4
گرام 4
ڷ 4
ہے 4
ۇ 4
ۍ 4
ۙ 4
ܒ 4
ܵ@@ 4
ވ@@ 4
ޖ@@ 4
ޠ@@ 4
ާ 4
ީ 4
ު 4
कि@@ 4
की 4
गी@@ 4
गो@@ 4
ज@@ 4
जा@@ 4
टा 4
णी 4
तरा@@ 4
दर 4
दि@@ 4
पुर 4
बाद 4
भी 4
महा@@ 4
मा 4
मु@@ 4
या@@ 4
री@@ 4
रे@@ 4
वे@@ 4
श@@ 4
शि@@ 4
सी 4
ा 4
ु 4
অ@@ 4
গ@@ 4
ধ 4
ু 4
ਪ@@ 4
ਬ 4
ਸ 4
਼ 4
ੀ 4
ੱ@@ 4
ੴ 4
க 4
ஜ@@ 4
ஸ 4
జ 4
ద@@ 4
ర@@ 4
ి@@ 4
ತ@@ 4
ನ@@ 4
ಿ@@ 4
ත@@ 4
ර@@ 4
ง 4
ช@@ 4
ณ@@ 4
ต@@ 4
พระ@@ 4
ม 4
ล 4
ว@@ 4
ศ@@ 4
ส@@ 4
อง@@ 4
อร 4
แ@@ 4
ག 4
ར 4
ུ 4
ོ 4
ྱ@@ 4
ဆ@@ 4
ာ@@ 4
း 4
း@@ 4
ქ@@ 4
ሪ 4
ራ 4
ስ 4
ስ@@ 4
ብ@@ 4
ት 4
ች 4
ና 4
ድ@@ 4
ግ@@ 4
ᚪ@@ 4
ង 4
ព@@ 4
ភ 4
ល@@ 4
័ 4
ᠤ@@ 4
ḍ@@ 4
ḥ 4
ṭ 4
ạo 4
ấn 4
ền 4
ợi 4
ὁ@@ 4
​ 4
‖ 4
⅔ 4
⅛ 4
∼ 4
⊂ 4
⊆ 4
⏰ 4
♀ 4
♭ 4
⛸ 4
ⵙ 4
⸵ 4
あ 4
て 4
べ@@ 4
オ 4
ゼ@@ 4
タ 4
チ 4
ッ 4
デ 4
ネ@@ 4
ノ@@ 4
ブ 4
ペ@@ 4
ミ 4
ヤ 4
ㄴ 4
ㅇ@@ 4
ㅈ 4
ㅊ 4
ㅌ 4
丈@@ 4
世 4
中央 4
义 4
亀@@ 4
争 4
事@@ 4
交@@ 4
伯 4
伸@@ 4
体@@ 4
佳 4
例 4
便@@ 4
俊 4
兄@@ 4
先@@ 4
公司 4
六 4
共和@@ 4
兵 4
典 4
兼@@ 4
冒@@ 4
冨@@ 4
別@@ 4
勇 4
化@@ 4
升@@ 4
卡@@ 4
可@@ 4
吉 4
呂 4
命 4
命@@ 4
器 4
回@@ 4
団 4
在@@ 4
圭@@ 4
壹@@ 4
夫@@ 4
奇@@ 4
威@@ 4
娘 4
孙@@ 4
守@@ 4
宙@@ 4
宮 4
対@@ 4
寿 4
尋 4
尚@@ 4
局 4
展@@ 4
岁 4
岡 4
岳 4
嶋@@ 4
左 4
巴@@ 4
带@@ 4
師@@ 4
幕@@ 4
広 4
府@@ 4
康 4
弓@@ 4
弥 4
形@@ 4
征@@ 4
後 4
悠@@ 4
慧 4
憲 4
战@@ 4
戰@@ 4
戸 4
折@@ 4
拉@@ 4
拳@@ 4
摩@@ 4
放@@ 4
救@@ 4
敬 4
文化 4
斎 4
旗 4
朋@@ 4
服@@ 4
望 4
条 4
来@@ 4
树@@ 4
桜@@ 4
梅 4
森 4
極@@ 4
樂 4
橋 4
止@@ 4
步 4
歲 4
毛@@ 4
气@@ 4
気 4
氣@@ 4
泉 4
浜@@ 4
浪@@ 4
港 4
溝@@ 4
烈 4
爆@@ 4
爭 4
爱@@ 4
玄@@ 4
画 4
登@@ 4
白 4
盛@@ 4
省 4
知 4
福 4
科 4
秘@@ 4
稔 4
立 4
童 4
等@@ 4
筒@@ 4
箕@@ 4
純 4
結@@ 4
編 4
纪@@ 4
聖 4
育@@ 4
脉 4
腑 4
芳@@ 4
茂@@ 4
蒼@@ 4
蘭 4
蜂@@ 4
被@@ 4
西 4
親@@ 4
記@@ 4
詩@@ 4
語@@ 4
謙@@ 4
豚 4
賀@@ 4
軍 4
辰 4
近@@ 4
速@@ 4
過@@ 4
那@@ 4
郡 4
重 4
重@@ 4
銀@@ 4
長 4
門 4
開@@ 4
關@@ 4
防@@ 4
韓@@ 4
音@@ 4
飛@@ 4
飞@@ 4
飯 4
馬 4
马@@ 4
高 4
鳥@@ 4
鳳@@ 4
黃@@ 4
黨 4
龙 4
갑 4
개@@ 4
건 4
검 4
궁 4
글 4
날 4
디 4
디@@ 4
랑@@ 4
레@@ 4
려 4
려@@ 4
밥 4
배@@ 4
보 4
복 4
블@@ 4
산@@ 4
생@@ 4
서 4
석@@ 4
순@@ 4
승@@ 4
어 4
언@@ 4
역@@ 4
예@@ 4
옥@@ 4
울 4
울@@ 4
윤@@ 4
음 4
음@@ 4
점@@ 4
준@@ 4
쥐 4
차 4
철 4
치 4
치@@ 4
타 4
토@@ 4
티 4
포@@ 4
현 4
화 4
﻿ 4
： 4
； 4
￥ 4
𒀭@@ 4
𒄩@@ 4
𒆠 4
🏡 4
🏪 4
🏬 4
🏳 4
🕑 4
🕹 4
🚪 4
Akad@@ 3
Bei 3
Bür@@ 3
Durch@@ 3
Dương 3
Eins@@ 3
Entw@@ 3
Esta 3
Eurov@@ 3
Gebiet 3
Hòa 3
Kön@@ 3
Meister@@ 3
Mundial 3
Nhân 3
Oly@@ 3
Santi@@ 3
Tanz@@ 3
Trung 3
Tân 3
Ulus@@ 3
Unis 3
Zu 3
abril 3
alem@@ 3
alien 3
aliy@@ 3
allem@@ 3
amiento 3
ampi@@ 3
angu 3
anlığı 3
années 3
appel@@ 3
ationen 3
auspi@@ 3
autres 3
año 3
bila 3
böl@@ 3
cada 3
cargo 3
cinq 3
comme 3
compet@@ 3
condu@@ 3
crí@@ 3
cuar@@ 3
culos 3
dak@@ 3
dass 3
descri@@ 3
después 3
dipl@@ 3
doğru 3
dül@@ 3
egem@@ 3
ehe 3
ehen 3
ehir@@ 3
eht 3
elik 3
ellement 3
emble 3
emper@@ 3
ennen 3
enso 3
entre 3
enzi 3
eyi 3
fico 3
fils 3
finale 3
fonc@@ 3
frances@@ 3
fuer@@ 3
gesi 3
greso 3
hasa 3
hasta 3
hayat@@ 3
hier 3
ibu 3
idades 3
igt 3
ilik 3
imu 3
individu@@ 3
isho 3
isim@@ 3
isión 3
istas 3
ió 3
jeu 3
kama 3
kez@@ 3
kij@@ 3
kim 3
kuh@@ 3
kung 3
lado 3
lande 3
lanz@@ 3
laya 3
leh@@ 3
lieu 3
ligne 3
lte 3
luk 3
luy@@ 3
lég@@ 3
lük 3
malar@@ 3
marqu@@ 3
mau@@ 3
medio 3
mek 3
mek@@ 3
menos 3
mita 3
monum@@ 3
muerte 3
munici@@ 3
ndi@@ 3
neces@@ 3
nombre 3
ografía 3
ología 3
oppos@@ 3
ordu 3
osas 3
osos 3
otball 3
ouver@@ 3
partement 3
pata 3
pelí@@ 3
perten@@ 3
peut 3
pili 3
propi@@ 3
propri@@ 3
prés@@ 3
quelle 3
received 3
rem 3
restaur@@ 3
result@@ 3
reti@@ 3
riff 3
sahi@@ 3
sau 3
selon 3
seph 3
sey@@ 3
señ@@ 3
soit 3
solo 3
sont 3
sort 3
spor 3
sud 3
telev@@ 3
titul@@ 3
tof@@ 3
tourn@@ 3
trag 3
travail 3
tritt 3
trä@@ 3
tür 3
tür@@ 3
unca 3
uç@@ 3
vement 3
verk@@ 3
vertr@@ 3
vile 3
voll@@ 3
wanza 3
wenn 3
werden 3
wäh@@ 3
xico 3
yard@@ 3
yeri 3
yote 3
yü@@ 3
yük@@ 3
yür@@ 3
zeit@@ 3
zug@@ 3
 3
º@@ 3
Æ 3
Ð 3
Ó 3
Üniversit@@ 3
áp 3
äre 3
äu@@ 3
äuf@@ 3
çek@@ 3
çı 3
épo@@ 3
érieur 3
éré 3
étant 3
òn 3
òng 3
ói 3
öst@@ 3
öster@@ 3
ücke 3
üm 3
üre@@ 3
ÿ 3
ğr@@ 3
Ħ@@ 3
İl@@ 3
İm@@ 3
ıcı 3
ıldı 3
ını 3
ıp 3
ņ@@ 3
Ō 3
ř 3
ś 3
Š 3
ţ 3
ũ 3
ŭ@@ 3
Ÿ@@ 3
ơ 3
Ƶ 3
ǂ@@ 3
ț 3
ɡ 3
ʉ@@ 3
ʌ@@ 3
ʕ@@ 3
ʲ 3
ˁ 3
˃ 3
̊ 3
̪ 3
Άν@@ 3
ΐ 3
Αγίου 3
Αθη@@ 3
Αλεξ@@ 3
Αρχ@@ 3
Βουλ@@ 3
Ελλ@@ 3
Ελλην@@ 3
Ευ@@ 3
Ιερ@@ 3
Κατ@@ 3
Κωνσταντ@@ 3
Μεγ@@ 3
Μον@@ 3
Μουσ@@ 3
Μπ@@ 3
Πρό@@ 3
Σύ@@ 3
Τ 3
Τσ@@ 3
Χ 3
Ϊ 3
άλασ@@ 3
άνδρ@@ 3
άρκ@@ 3
άσ@@ 3
άχ@@ 3
έκ@@ 3
έλλ@@ 3
έπ@@ 3
ίλι@@ 3
αν 3
αφ@@ 3
βά@@ 3
βο@@ 3
βολ@@ 3
γαλ@@ 3
γλ@@ 3
γρα@@ 3
δί@@ 3
δία 3
δυ@@ 3
ειν@@ 3
εν 3
εργ@@ 3
εχ@@ 3
ητής 3
θέ@@ 3
θεια 3
θρ@@ 3
ιακ@@ 3
ιδ@@ 3
λις 3
λυ@@ 3
μένη 3
μή 3
ματα 3
με@@ 3
μη@@ 3
μην@@ 3
μητ@@ 3
μισ@@ 3
νά@@ 3
νη@@ 3
νι@@ 3
ολογ@@ 3
οσ@@ 3
οτ@@ 3
ουλ@@ 3
ουν@@ 3
πί@@ 3
πίσ@@ 3
ποι 3
πολ@@ 3
πολλ@@ 3
προς 3
ρή@@ 3
ρακ@@ 3
ρατ@@ 3
ρι 3
ριν@@ 3
σε@@ 3
σμ@@ 3
σμα 3
στήρι@@ 3
στασ@@ 3
στρ@@ 3
συν@@ 3
σχ@@ 3
σωτερ@@ 3
τέλη 3
ται 3
τες 3
τζ@@ 3
τικός 3
τολ@@ 3
τρί@@ 3
τό 3
φυσ@@ 3
χει@@ 3
ϊ@@ 3
ώργ@@ 3
ώς 3
Є 3
А 3
Андре@@ 3
Бело@@ 3
Бер@@ 3
Га@@ 3
Ге@@ 3
Геор@@ 3
Ги@@ 3
Гор@@ 3
Е 3
Ин@@ 3
Кара@@ 3
Крас@@ 3
Кро@@ 3
Кур@@ 3
Л 3
Лю@@ 3
Михаил 3
Моск@@ 3
П 3
Под@@ 3
Пол@@ 3
Рос@@ 3
России 3
Ста@@ 3
Сте@@ 3
Х 3
Ше@@ 3
Щ@@ 3
Ы 3
Ы@@ 3
акаде@@ 3
ати@@ 3
блиоте@@ 3
боль@@ 3
бы 3
ват@@ 3
воз@@ 3
вой 3
воло@@ 3
вра@@ 3
времен@@ 3
ву@@ 3
вы@@ 3
ган@@ 3
гер@@ 3
губер@@ 3
дах 3
дж@@ 3
дии 3
душ@@ 3
ды 3
ева 3
ек@@ 3
ет@@ 3
жение 3
жо@@ 3
зна@@ 3
из 3
истории 3
ить 3
ким 3
кин 3
кня@@ 3
комите@@ 3
кс 3
ления 3
ман@@ 3
мет@@ 3
миче@@ 3
мона@@ 3
мост 3
мя 3
мя@@ 3
нал 3
нии 3
нин@@ 3
нова 3
ности 3
ну@@ 3
он 3
осу@@ 3
па 3
пар@@ 3
пере@@ 3
пове@@ 3
поло@@ 3
ран 3
рес@@ 3
рии 3
рова@@ 3
ры 3
сан@@ 3
санд@@ 3
сен 3
сен@@ 3
син@@ 3
ских 3
сою@@ 3
ственный 3
сте@@ 3
стиче@@ 3
стра@@ 3
су 3
тан@@ 3
тар@@ 3
тер@@ 3
ти 3
тиче@@ 3
тов 3
той 3
тор@@ 3
ты 3
тё@@ 3
университет 3
установ@@ 3
ут@@ 3
уч@@ 3
училище 3
ф 3
це@@ 3
цер@@ 3
ци 3
ции 3
цион@@ 3
щ 3
ья 3
ћ@@ 3
ў@@ 3
ҡ@@ 3
ң@@ 3
ӣ 3
ө 3
Դ@@ 3
Լ@@ 3
Ն@@ 3
Շ@@ 3
ը 3
լ 3
ղ 3
չ 3
ց@@ 3
փ@@ 3
և@@ 3
֙ 3
צ 3
״ 3
ئی 3
اؤن@@ 3
ائی 3
ابی 3
اختیار 3
اللہ 3
انھ@@ 3
ایل 3
تحری@@ 3
تقریباً 3
جدید 3
حقی@@ 3
روسی 3
رکن 3
ریس 3
عظیم 3
نئی 3
نماز 3
والی 3
ونی 3
وہ 3
ویت 3
ویل 3
ٔ 3
پارٹی 3
پال 3
کام 3
کرا@@ 3
گز@@ 3
ڸ 3
ۉ@@ 3
ې 3
۶ 3
ܲ@@ 3
ܶ@@ 3
ܺ@@ 3
ݘ@@ 3
ތ@@ 3
ޙ@@ 3
ެ@@ 3
ंग 3
ंच@@ 3
अर 3
अव@@ 3
इ@@ 3
इंड@@ 3
ई 3
कन 3
के 3
ची 3
टा@@ 3
ड@@ 3
डा 3
डा@@ 3
डी 3
ती@@ 3
थ@@ 3
दी 3
पु@@ 3
पूर 3
फ 3
ब@@ 3
बी@@ 3
भग@@ 3
भा@@ 3
भारत 3
भारतीय 3
भूमि 3
मि@@ 3
मी@@ 3
या 3
यो@@ 3
योग 3
रदेश 3
रह 3
राज@@ 3
राष 3
लो@@ 3
विक 3
वी@@ 3
सि@@ 3
सिंह 3
हिन 3
ा@@ 3
िया 3
ूर 3
े@@ 3
ो 3
গ 3
ঙ 3
ঞ 3
ট 3
ড 3
ণ 3
থ@@ 3
ফ@@ 3
ী@@ 3
ূ@@ 3
ਓ@@ 3
ਗ@@ 3
ਘ 3
ਲ 3
ਵ@@ 3
ண 3
ண@@ 3
ந@@ 3
ப 3
ல@@ 3
ஷ@@ 3
ீ@@ 3
ே@@ 3
ை 3
ோ@@ 3
ం@@ 3
త@@ 3
ప@@ 3
య@@ 3
వ@@ 3
ు@@ 3
ಯ@@ 3
ಿ 3
ು@@ 3
മ 3
മ@@ 3
ര@@ 3
ാ@@ 3
න@@ 3
ප@@ 3
ු@@ 3
ก@@ 3
ข@@ 3
จ@@ 3
ช 3
ญ@@ 3
พั@@ 3
ย 3
ล@@ 3
ลา@@ 3
ห 3
หม@@ 3
อ@@ 3
ะ@@ 3
า 3
เ@@ 3
เต@@ 3
เร@@ 3
ཆ@@ 3
པ 3
མ@@ 3
ལ@@ 3
ེ@@ 3
ྐ@@ 3
ླ@@ 3
မ@@ 3
ရ@@ 3
အ@@ 3
ု@@ 3
ြ@@ 3
ე 3
მ 3
პ@@ 3
ფ@@ 3
ც@@ 3
ძ@@ 3
ሃ@@ 3
ህ@@ 3
ላ@@ 3
ም 3
ረ@@ 3
ቆ@@ 3
በ@@ 3
ን 3
ዕ@@ 3
ያ@@ 3
ገ@@ 3
ጣ@@ 3
፡ 3
ᛋ 3
ក 3
ក@@ 3
គ@@ 3
ណ 3
យ 3
ិ@@ 3
ី@@ 3
ៀ@@ 3
េ@@ 3
ែ@@ 3
ំ 3
ំ@@ 3
Ḳ@@ 3
ṃ 3
ṅ@@ 3
ṇ 3
ṓ@@ 3
ẓ@@ 3
ạng 3
ắ@@ 3
ổ 3
ἅ@@ 3
Ἅ@@ 3
ἕ@@ 3
ἠ@@ 3
ἶ@@ 3
ὑ@@ 3
ᾶ 3
ῡ 3
ῥ@@ 3
Ῥ@@ 3
― 3
⁦ 3
⇔ 3
∥ 3
⊃ 3
⊢ 3
␣ 3
① 3
② 3
③ 3
④ 3
◯ 3
★ 3
✈ 3
➞ 3
⬛ 3
ⲏ@@ 3
ⲓ 3
ⲓ@@ 3
ⲛ@@ 3
ⲭ@@ 3
ⴽ 3
ⵀ@@ 3
ⵛ 3
は 3
ゆ 3
れ 3
ソ 3
ダ 3
ネ 3
ノ 3
パ 3
ヘ@@ 3
ホ@@ 3
マ 3
メ 3
ヴ 3
ヶ@@ 3
ㄹ 3
ㅁ 3
ㅂ 3
ㅆ 3
ㅋ 3
ㅎ 3
ㆁ 3
乃@@ 3
义@@ 3
乙@@ 3
九 3
书 3
于 3
亮 3
仰 3
仲@@ 3
伎 3
休@@ 3
优@@ 3
伝@@ 3
伯@@ 3
伸 3
位@@ 3
佑@@ 3
何 3
侯 3
修@@ 3
儀 3
克 3
內@@ 3
兩@@ 3
内 3
写@@ 3
冬@@ 3
凱@@ 3
刘@@ 3
制@@ 3
則 3
前 3
剛@@ 3
劉@@ 3
力 3
力@@ 3
功@@ 3
加 3
助@@ 3
勉 3
北 3
华 3
印 3
县 3
发@@ 3
叔@@ 3
可 3
台@@ 3
合 3
吴@@ 3
唐 3
商@@ 3
問 3
啓@@ 3
善 3
善@@ 3
回 3
园 3
園@@ 3
團@@ 3
坐 3
型 3
垣@@ 3
培 3
塩@@ 3
声@@ 3
复@@ 3
夏 3
夜 3
夷@@ 3
好 3
妻@@ 3
妾@@ 3
姬 3
娟 3
学 3
孫@@ 3
宁 3
守 3
宋@@ 3
官 3
定@@ 3
容 3
宿 3
實 3
导@@ 3
将 3
尉 3
小 3
尔@@ 3
尾 3
居@@ 3
岩 3
崇@@ 3
布@@ 3
并 3
庆 3
庭@@ 3
异@@ 3
張@@ 3
徳 3
德 3
心@@ 3
必@@ 3
念 3
思@@ 3
悪@@ 3
情 3
惠@@ 3
慧@@ 3
慶 3
應 3
戰 3
手 3
指@@ 3
探@@ 3
援@@ 3
支@@ 3
政 3
敏@@ 3
敦 3
斗 3
斬 3
施@@ 3
昂@@ 3
春 3
晉@@ 3
晓@@ 3
普@@ 3
晴@@ 3
暮@@ 3
末@@ 3
杏@@ 3
杨@@ 3
松 3
枫@@ 3
栗@@ 3
桂@@ 3
桃@@ 3
桥 3
梓 3
梨 3
植@@ 3
椿 3
楚 3
業 3
楽 3
樋@@ 3
横@@ 3
機 3
歌@@ 3
歩 3
死 3
死@@ 3
母 3
気@@ 3
洪 3
洪@@ 3
渉 3
湾 3
満 3
準 3
滋 3
滿@@ 3
潘@@ 3
潤 3
濱@@ 3
爾 3
猫@@ 3
玲 3
玲@@ 3
珠 3
珠@@ 3
球 3
球@@ 3
留 3
疆 3
登 3
百 3
皆@@ 3
盆@@ 3
目 3
直 3
相 3
睿@@ 3
矢 3
矢@@ 3
研究@@ 3
礼@@ 3
秀 3
種@@ 3
稲@@ 3
突@@ 3
節 3
範 3
米 3
系@@ 3
紋 3
紗@@ 3
絶@@ 3
經 3
綬@@ 3
総@@ 3
緯@@ 3
縄@@ 3
織@@ 3
经 3
群 3
翔 3
老@@ 3
聞 3
肇 3
肇@@ 3
胡@@ 3
脈 3
臣 3
臣@@ 3
至 3
臺@@ 3
臼@@ 3
色@@ 3
苑 3
苗 3
若@@ 3
英 3
草 3
莉@@ 3
菜@@ 3
萍 3
萩@@ 3
葛@@ 3
蔣@@ 3
蔵 3
藍 3
蘇@@ 3
血@@ 3
街 3
角@@ 3
言@@ 3
記 3
諸@@ 3
警@@ 3
議@@ 3
護@@ 3
豆 3
豊@@ 3
象 3
豪 3
賢 3
赵@@ 3
起 3
足 3
足@@ 3
跋@@ 3
軍@@ 3
輪@@ 3
运@@ 3
逆@@ 3
透 3
連@@ 3
遊 3
邉@@ 3
那 3
邦@@ 3
醋 3
鉄@@ 3
鎮@@ 3
银@@ 3
镇 3
阪 3
际@@ 3
陈@@ 3
陵@@ 3
陶@@ 3
際 3
隠@@ 3
雀 3
雨 3
電@@ 3
霊@@ 3
靈@@ 3
靖 3
面 3
鞍@@ 3
风 3
鲁@@ 3
鳥 3
鳴@@ 3
鷹@@ 3
麗@@ 3
黑@@ 3
감@@ 3
게@@ 3
계 3
교 3
규@@ 3
그@@ 3
꽃@@ 3
나 3
남 3
내@@ 3
넝@@ 3
년 3
니 3
담 3
던@@ 3
독@@ 3
동 3
들 3
등@@ 3
로 3
르@@ 3
름 3
마 3
만 3
먼@@ 3
메@@ 3
목@@ 3
바@@ 3
박 3
백 3
별@@ 3
본@@ 3
북@@ 3
빔@@ 3
살@@ 3
석 3
설@@ 3
슬@@ 3
식 3
신 3
았@@ 3
양 3
엔@@ 3
여@@ 3
역 3
올@@ 3
와@@ 3
운@@ 3
위 3
잔@@ 3
죽@@ 3
준 3
직@@ 3
집@@ 3
추@@ 3
탈@@ 3
테@@ 3
통@@ 3
트@@ 3
특@@ 3
파@@ 3
포 3
피@@ 3
하 3
해 3
헌@@ 3
호@@ 3
휴@@ 3
！ 3
𐎫@@ 3
𐎼@@ 3
𒄖@@ 3
𒉡 3
𒌝@@ 3
🃏 3
🌋 3
🎮 3
🏑 3
🏒 3
🏔 3
🏖 3
🏞 3
🏟 3
🏢 3
🏴 3
🚈 3
🚉 3
🚢 3
🛂 3
🛬 3
15. 2
16. 2
7ء 2
Als 2
Başkan@@ 2
Bere@@ 2
Bevöl@@ 2
Campeonato 2
Canton 2
Después 2
Doğu 2
Durante 2
Dân 2
Engl@@ 2
Eylül 2
Fes@@ 2
Für 2
Güney 2
Hán 2
Hải 2
Jahr@@ 2
Jahre 2
Jahrhunder@@ 2
Jahrhunderts 2
Julai 2
Juni 2
Kig@@ 2
Kirche 2
Liste 2
Mashariki 2
Menschen 2
Müz@@ 2
Nach 2
Namen 2
Nguyên 2
Người 2
Nha 2
Osmanlı 2
Parlam@@ 2
Produk@@ 2
Proz@@ 2
Präs@@ 2
Rus 2
Savaşı 2
Teil 2
Thành 2
Uganda 2
Weit@@ 2
Zusammen@@ 2
acional 2
acı 2
afin 2
afir@@ 2
aient 2
aiss@@ 2
alement 2
alidad 2
alipo@@ 2
aliye@@ 2
amente 2
ammen 2
andere 2
anderen 2
anh 2
artí@@ 2
ases@@ 2
asına 2
aussi 2
auti 2
aît 2
aştır@@ 2
bedeut@@ 2
began 2
bier@@ 2
bildung 2
bilin@@ 2
bora 2
bö@@ 2
canción 2
chte 2
chung 2
cier@@ 2
cional 2
command@@ 2
como 2
coup 2
crit 2
cuando 2
dado 2
debut 2
dej@@ 2
dentro 2
dres 2
económ@@ 2
ectos 2
ehemal@@ 2
ehir 2
einem 2
elte 2
emente 2
endre 2
environ 2
erreich@@ 2
erten 2
escu@@ 2
eser@@ 2
eso 2
españ@@ 2
estadounidense 2
etc. 2
europé@@ 2
eviz@@ 2
fahren 2
febrero 2
founded 2
fte 2
fér@@ 2
gab 2
gek@@ 2
geç@@ 2
gibi 2
gran 2
große 2
gör@@ 2
hacia 2
hali 2
hili 2
hoa 2
huri 2
häng@@ 2
ihe 2
ihr 2
ihre 2
ilim@@ 2
inah@@ 2
insi 2
interpret@@ 2
iques 2
isant 2
istre 2
için 2
juli@@ 2
junto 2
khai 2
kila 2
kilom@@ 2
kuj@@ 2
kundi 2
kuv@@ 2
kuwa 2
kı 2
lararası 2
ların 2
layan 2
laş@@ 2
lerde 2
lesia 2
lider@@ 2
liği 2
là 2
lü 2
mais 2
maları 2
mayo 2
mbal@@ 2
migu@@ 2
mise 2
mito 2
moins 2
mois 2
moja 2
mort 2
mpi@@ 2
municip@@ 2
muy 2
música 2
namo 2
nde 2
nete 2
người 2
nord 2
norte 2
nouveau 2
noviembre 2
nun 2
oblig@@ 2
obras 2
occas@@ 2
oloji 2
onóm@@ 2
osto 2
osu 2
otro 2
oyn@@ 2
où 2
padre 2
parte 2
pobl@@ 2
pointed 2
pou@@ 2
première 2
primer 2
provincia 2
puede 2
puer@@ 2
quay 2
qued@@ 2
rağ@@ 2
retir@@ 2
réalis@@ 2
rün@@ 2
segunda 2
sehen 2
septi@@ 2
siglo 2
société 2
spé@@ 2
stän@@ 2
tener 2
tischen 2
ucu 2
unid@@ 2
unkt 2
urch 2
ustos 2
uvo 2
vek@@ 2
vua 2
vuel@@ 2
văn 2
watoto 2
weise 2
yao 2
yük 2
zeh@@ 2
zey 2
zul@@ 2
zun@@ 2
zweiten 2
¿ 2
Ä 2
Ç 2
Ô 2
Ô@@ 2
ßer@@ 2
ác 2
âce 2
änder@@ 2
änge 2
çev@@ 2
èg@@ 2
él 2
élec@@ 2
équi@@ 2
était 2
ình 2
ít 2
òa 2
óa 2
óg@@ 2
örd@@ 2
öğ@@ 2
ún@@ 2
ús@@ 2
über@@ 2
ümü 2
ünü 2
üy@@ 2
ăng 2
ą 2
Ċ 2
ċ 2
Č 2
Ē 2
Ē@@ 2
Ġ 2
Ġ@@ 2
Ī 2
Ī@@ 2
İ 2
ılık 2
ında 2
ından 2
ıs 2
ıs@@ 2
ıt 2
ızı 2
ığı 2
Ļ 2
Ľ@@ 2
ľ@@ 2
Ņ 2
Œ 2
œuvre 2
şek@@ 2
Ţ@@ 2
ť 2
ũ@@ 2
Ū 2
ů@@ 2
ų 2
ŷ@@ 2
ż 2
ơn 2
ưng 2
ǀ@@ 2
ǧ@@ 2
Ș@@ 2
Ȳ 2
ȳ@@ 2
ɕ@@ 2
ɖ@@ 2
ɜ@@ 2
ɞ 2
ɟ@@ 2
ɯ 2
ɱ 2
ɲ@@ 2
ɴ 2
ɵ@@ 2
ʀ@@ 2
ʁ 2
ʈ@@ 2
ʦ 2
ʱ@@ 2
ʷ@@ 2
ʸ 2
ʻ 2
ʼ 2
ʼ@@ 2
ʽ@@ 2
ʿ 2
ˁ@@ 2
˓ 2
˜ 2
ˣ 2
˳ 2
̑ 2
̝ 2
̡ 2
̩ 2
̷ 2
Ͳ 2
Ύ@@ 2
Ώ@@ 2
Ανατολ@@ 2
Αντι@@ 2
Αρ@@ 2
Βασίλ@@ 2
Γι@@ 2
Γκ@@ 2
Δημοκρατ@@ 2
Επ@@ 2
Επι@@ 2
Κλ@@ 2
Κόμ@@ 2
Μά@@ 2
Μπο@@ 2
Ξ 2
Ο 2
Πο@@ 2
Πόλε@@ 2
Τζ@@ 2
άνα@@ 2
άντα 2
έρα 2
έσ@@ 2
έστ@@ 2
έχ@@ 2
ήλ@@ 2
ήρ@@ 2
ήσ@@ 2
ίδα 2
ίμ@@ 2
αίν@@ 2
αγγ@@ 2
αμπ@@ 2
ανά 2
ανά@@ 2
ανα@@ 2
ανο@@ 2
αργ@@ 2
αρκ@@ 2
ασία 2
βορ@@ 2
γμα 2
γράμ@@ 2
γράφ@@ 2
γραφ@@ 2
δίας 2
δελφ@@ 2
δικ@@ 2
δρόμ@@ 2
είδ@@ 2
είν@@ 2
εγ@@ 2
ει 2
εις 2
εισ@@ 2
εμ@@ 2
επ@@ 2
ερν@@ 2
ηθ@@ 2
ημερ@@ 2
ησε 2
θάνα@@ 2
θήκη 2
θη 2
θλ@@ 2
θρη@@ 2
θυ@@ 2
ικά 2
ισσ@@ 2
καρ@@ 2
κατ@@ 2
κε@@ 2
κιν@@ 2
κολ@@ 2
κον@@ 2
κου@@ 2
κρί@@ 2
κυβ@@ 2
λαδ@@ 2
λεγ@@ 2
λει@@ 2
λη 2
λη@@ 2
λιο 2
μάν@@ 2
μέρ@@ 2
ματ@@ 2
μαχ@@ 2
μετ@@ 2
μετά 2
μικρ@@ 2
μν@@ 2
μο@@ 2
μορ@@ 2
μουσ@@ 2
νησ@@ 2
ντ@@ 2
νω@@ 2
ξης 2
ογέν@@ 2
ογραφία 2
οδος 2
ονομ@@ 2
ουσα 2
ούδ@@ 2
ούμεν@@ 2
ούς 2
πελλο 2
πηγ@@ 2
πν@@ 2
ποδ@@ 2
πους 2
πρόσ@@ 2
πόλε@@ 2
ρά 2
ρία 2
ρίζ@@ 2
ραγ@@ 2
ρη 2
ρκ@@ 2
ρν@@ 2
ροι 2
ρον@@ 2
ροφ@@ 2
σκοπ@@ 2
στά@@ 2
στα 2
σταση 2
στη@@ 2
στιαν@@ 2
στις 2
τήρ@@ 2
τής 2
τελ@@ 2
τευ@@ 2
τια 2
τικά 2
τική 2
τορα 2
του@@ 2
τού@@ 2
τρο@@ 2
τσι 2
φέρ@@ 2
φορ@@ 2
φυ@@ 2
φύ@@ 2
χαρ@@ 2
χρον@@ 2
ψη 2
ωπ@@ 2
ωρ@@ 2
όμεν@@ 2
όνομ@@ 2
όπο@@ 2
ότη@@ 2
όφ@@ 2
όχ@@ 2
ύγ@@ 2
ώδ@@ 2
Ϝ 2
ϝ@@ 2
І 2
Бар@@ 2
Бел@@ 2
Боль@@ 2
Българ@@ 2
България 2
Бы@@ 2
Вар@@ 2
Ве@@ 2
Вла@@ 2
Гер@@ 2
Гра@@ 2
Дру@@ 2
Его 2
Жи@@ 2
Зе@@ 2
Иван 2
Исто@@ 2
История 2
Йо@@ 2
Карл 2
Ке@@ 2
Ком@@ 2
Кри@@ 2
Мал@@ 2
Ман@@ 2
Национа@@ 2
Никола@@ 2
Но 2
Ново@@ 2
Ос@@ 2
Пи@@ 2
Пред@@ 2
Роди@@ 2
Сан@@ 2
Сер@@ 2
Сою@@ 2
Те@@ 2
Фа@@ 2
Федера@@ 2
Фран@@ 2
Хри@@ 2
Ху@@ 2
Ц 2
Це@@ 2
Чер@@ 2
Ши@@ 2
Шу@@ 2
Щ 2
Ь 2
Юж@@ 2
авто@@ 2
ате@@ 2
бан@@ 2
бере@@ 2
би 2
бия 2
бро@@ 2
бу 2
быть 2
вари@@ 2
вате@@ 2
вен 2
вил 2
вла@@ 2
вого 2
вод 2
вро@@ 2
вше@@ 2
ги 2
год 2
гори@@ 2
город@@ 2
города 2
град 2
грани@@ 2
граф@@ 2
гре@@ 2
груп@@ 2
дан 2
дво@@ 2
де 2
дер@@ 2
дж 2
джа@@ 2
ди 2
дия 2
дом 2
дри@@ 2
дро@@ 2
дь@@ 2
дя@@ 2
ж 2
жав@@ 2
жения 2
жество 2
живо@@ 2
жур@@ 2
зем@@ 2
зу@@ 2
зы@@ 2
иг@@ 2
ил 2
или 2
им 2
имени 2
инжен@@ 2
информа@@ 2
истори@@ 2
ита 2
ита@@ 2
итель@@ 2
каде@@ 2
кия 2
кой 2
кол@@ 2
комму@@ 2
комплек@@ 2
кон@@ 2
кро@@ 2
кры@@ 2
лаго@@ 2
лат@@ 2
лиза@@ 2
лич@@ 2
лова 2
лы 2
ме 2
меди@@ 2
международ@@ 2
мер 2
мии 2
мо 2
мов 2
мой 2
мыш@@ 2
над 2
най 2
нах 2
ника 2
ници 2
ность 2
ным 2
нь 2
нява 2
ок@@ 2
они 2
ора 2
от 2
офи@@ 2
пад@@ 2
памя@@ 2
пей@@ 2
пер@@ 2
писи 2
пла@@ 2
пло@@ 2
прав@@ 2
право@@ 2
публики 2
раб@@ 2
рак@@ 2
рал 2
рата 2
револю@@ 2
риа@@ 2
рин 2
рина 2
рис 2
ром 2
рон@@ 2
росси@@ 2
ру 2
рус@@ 2
све@@ 2
сем@@ 2
сия 2
ско 2
ском 2
смо@@ 2
со 2
соб@@ 2
собо@@ 2
спи@@ 2
спор@@ 2
сс 2
сси@@ 2
ссии 2
ста 2
ств 2
ством 2
ству@@ 2
сти 2
сто 2
стов 2
стре@@ 2
ступ@@ 2
сты 2
сть@@ 2
сы 2
тек@@ 2
теле@@ 2
тин@@ 2
тия 2
тон 2
тра@@ 2
транспор@@ 2
тре@@ 2
тя@@ 2
ули@@ 2
уче@@ 2
фа 2
хан 2
ход@@ 2
цент@@ 2
църква 2
чев 2
чение 2
ческой 2
чин 2
чина 2
чно 2
чной 2
чный 2
чу@@ 2
чь 2
ше 2
шко@@ 2
шта@@ 2
ща 2
ър 2
ър@@ 2
ый 2
юр@@ 2
ющий 2
язы@@ 2
ё 2
ёр@@ 2
ёт@@ 2
ѓ@@ 2
є 2
ј 2
ҷ@@ 2
Ө 2
Ը@@ 2
Ղ@@ 2
Ռ@@ 2
գ 2
ը@@ 2
ծ 2
ծ@@ 2
ճ 2
մ 2
ւ 2
֤ 2
ְ 2
ֳ@@ 2
ׂ 2
נ 2
׳ 2
ادہ 2
اسک@@ 2
اضی 2
افری@@ 2
امری@@ 2
انداز 2
اں 2
ایسی 2
بلی 2
بلی@@ 2
بنگ@@ 2
تحریک 2
تفصی@@ 2
تنظیم 2
جنوبی 2
جنگ 2
جگ@@ 2
جہ 2
خلافت 2
راہ 2
رنگ 2
ریز 2
سری 2
شریف 2
شمالی 2
قبی@@ 2
قید 2
كاؤن@@ 2
لہ 2
لیگ 2
مالی 2
منی 2
نومبر 2
نک 2
نہ 2
ٷ@@ 2
ٸ@@ 2
ٹ@@ 2
ٽ@@ 2
پری@@ 2
پن 2
پنج@@ 2
پی 2
ڀ@@ 2
ځ@@ 2
چار 2
چر 2
چند 2
ڇ@@ 2
ڢ@@ 2
ڧ@@ 2
کمی@@ 2
کنی@@ 2
گرد 2
ڳ 2
ڽ 2
ڽ@@ 2
ۀ 2
ہار@@ 2
ۋ 2
ے 2
ۢ 2
ۦ 2
۴@@ 2
۷ 2
۷@@ 2
۹ 2
۽ 2
ܗ 2
ܘ 2
ܟ 2
ܳ@@ 2
ܼ@@ 2
ݙ 2
ݠ@@ 2
ݢ@@ 2
ݨ 2
ކ@@ 2
ފ@@ 2
ޯ@@ 2
ंग@@ 2
अफ 2
अम@@ 2
आर 2
इ 2
उप@@ 2
ए 2
एक 2
ओ@@ 2
कम 2
कल 2
कॉ@@ 2
को 2
गढ 2
गण@@ 2
गां@@ 2
गि@@ 2
च 2
चल 2
ची@@ 2
छ@@ 2
जी 2
जु@@ 2
जै@@ 2
जो@@ 2
झ@@ 2
ञ 2
ञा@@ 2
टर 2
टी 2
ठ 2
डि@@ 2
ण@@ 2
णा@@ 2
तन 2
तम 2
तार 2
तु 2
तु@@ 2
ते 2
थि@@ 2
दास 2
दुर 2
देव@@ 2
देवी 2
धि 2
धु@@ 2
नि 2
निया 2
पत 2
पा 2
पार 2
फ@@ 2
बि@@ 2
मन 2
मान@@ 2
मार 2
मै@@ 2
यास 2
रति@@ 2
रह@@ 2
रानी 2
रिय@@ 2
रिया 2
रु@@ 2
रू@@ 2
रो 2
रो@@ 2
लक 2
लम 2
ला@@ 2
ली@@ 2
ळ@@ 2
वर 2
वरी 2
वा@@ 2
वास 2
शर 2
शा 2
शी@@ 2
शु@@ 2
शो@@ 2
ष@@ 2
षद 2
सं@@ 2
संस 2
समा@@ 2
सू@@ 2
से 2
हन 2
हो@@ 2
ारी 2
ीन 2
ै 2
ौ@@ 2
॰ 2
ঁ@@ 2
উ@@ 2
এ@@ 2
খ 2
ছ@@ 2
জ 2
ধ@@ 2
ষ 2
ষ@@ 2
হ 2
ਂ 2
ਆ@@ 2
ਖ@@ 2
ਚ@@ 2
ਟ@@ 2
ਣ 2
ਤ 2
ਭ@@ 2
ਲ@@ 2
ੂ 2
੍ 2
ા@@ 2
அ@@ 2
இ@@ 2
ங 2
ச 2
ட 2
ா 2
ை@@ 2
గ@@ 2
జ@@ 2
న 2
మ 2
ర 2
ఱ@@ 2
ల@@ 2
శ@@ 2
స 2
ి 2
ీ 2
ె@@ 2
ో@@ 2
ಗ@@ 2
ಜ 2
ಡ@@ 2
ಾ 2
ೀ 2
ು 2
ം 2
ങ 2
ന@@ 2
ര 2
വ@@ 2
ി@@ 2
ു@@ 2
ඩ@@ 2
ත 2
න 2
ම@@ 2
ය@@ 2
ර 2
ව@@ 2
ැ@@ 2
ි@@ 2
ෙ@@ 2
กร@@ 2
กี@@ 2
ค@@ 2
จำ@@ 2
ชุ@@ 2
ณ 2
ณฑ@@ 2
ด@@ 2
ตน 2
ตุ 2
ท 2
บ@@ 2
ป 2
ป@@ 2
ประ@@ 2
ภ@@ 2
มัน 2
ยา 2
ยา@@ 2
ร 2
รร@@ 2
ราช@@ 2
ริ@@ 2
วิ@@ 2
ส 2
สา@@ 2
ห@@ 2
ฬ@@ 2
อล@@ 2
อิน@@ 2
ั 2
าน 2
ิ@@ 2
ียง@@ 2
ุ@@ 2
ู 2
ู@@ 2
เกา@@ 2
เข@@ 2
เจ@@ 2
เช@@ 2
เท 2
เทศ@@ 2
ให@@ 2
ไ@@ 2
ไทย 2
็ 2
๊ 2
ນ 2
ສ@@ 2
ັ@@ 2
າ@@ 2
། 2
ཀ@@ 2
ཁ 2
ཁ@@ 2
ཅ@@ 2
ཐ@@ 2
ཚ@@ 2
ཞ@@ 2
ཟ@@ 2
ལ 2
ེ 2
ྒ@@ 2
ྟ 2
က@@ 2
စ 2
တ 2
တ@@ 2
ာ 2
ီ@@ 2
ူ 2
ံ@@ 2
ွ@@ 2
၆@@ 2
ლ 2
ნ 2
ო 2
ყ@@ 2
ჯ@@ 2
ለ 2
ሐ@@ 2
ሔ@@ 2
ሕ@@ 2
ሚ@@ 2
ማ@@ 2
ም@@ 2
ሥ@@ 2
ራ@@ 2
ር 2
ቅ@@ 2
ብ 2
ቦ@@ 2
ተ@@ 2
ቱ 2
ት@@ 2
ኃ@@ 2
ኛ 2
ኞ@@ 2
እ@@ 2
ካ@@ 2
ዘ@@ 2
ዝ@@ 2
ዮ@@ 2
ደ@@ 2
ዴ@@ 2
ᓄ@@ 2
ᓇ@@ 2
ᚠ@@ 2
ᚢ@@ 2
ᚩ@@ 2
ᚫ@@ 2
ᚱ@@ 2
ᛁ 2
ᛞ@@ 2
ឃ@@ 2
ច@@ 2
ឆ 2
ជ 2
ឌ 2
ភ@@ 2
ល 2
វ 2
ស 2
អ@@ 2
ិ 2
ី 2
ោ@@ 2
់ 2
ᠨ 2
ᡠ@@ 2
ᱟ@@ 2
ᱤ 2
ᵊ 2
ᵻ@@ 2
ḗ 2
ḱ@@ 2
ṛ@@ 2
Ṣ@@ 2
ạc 2
ạn 2
ảo 2
ần 2
ận 2
ật 2
ằng 2
ẽ 2
ệt 2
ệu 2
ị 2
ị@@ 2
ọc 2
ổi 2
Ἕ@@ 2
Ἥ@@ 2
ἱ 2
ἵ@@ 2
ἷ@@ 2
Ἱ@@ 2
Ἴ@@ 2
Ἵ@@ 2
Ὑ@@ 2
Ὠ@@ 2
ᾱ 2
ῆ 2
⁹ 2
ⁿ 2
₀ 2
₁ 2
℃ 2
℠ 2
⅓ 2
⇓ 2
∃ 2
∇ 2
∓ 2
∝ 2
⊕ 2
⊨ 2
⑤ 2
─ 2
◄ 2
◇ 2
◾ 2
☃ 2
☮ 2
♡ 2
♯ 2
⛱ 2
⛽ 2
✖ 2
✦ 2
✧ 2
ⲁ@@ 2
ⲉ@@ 2
ⲙ 2
ⲛ 2
ⲣ@@ 2
ⲥ@@ 2
ⴱ 2
ⴳ 2
ⴴ@@ 2
ⵅ@@ 2
ⵇ@@ 2
ⵊ@@ 2
ⵍ 2
ⵎ 2
ⵓ 2
ⵕ@@ 2
ⵟ@@ 2
ⵣ 2
ⵥ@@ 2
〒 2
〖 2
〗 2
せ 2
ぬ@@ 2
ね 2
ふ 2
を 2
ァ 2
ゥ@@ 2
ケ 2
ザ 2
ツ 2
テ 2
ヌ@@ 2
ハ 2
ベ 2
ホ 2
ャ 2
ュ 2
ヨ@@ 2
ワ 2
ㄲ 2
ㄸ 2
ㅃ 2
ㅉ 2
ㅡ 2
ㅿ 2
丁@@ 2
丈 2
下 2
与@@ 2
世纪 2
丘 2
中心 2
丸 2
丹@@ 2
乌@@ 2
乐 2
乐@@ 2
也@@ 2
乡 2
乾@@ 2
事 2
云 2
五 2
亡 2
亮@@ 2
人民 2
今 2
仟 2
以@@ 2
份@@ 2
伍 2
伏@@ 2
伦 2
位 2
佐 2
体 2
佰 2
侯@@ 2
便 2
倉 2
個@@ 2
倍@@ 2
傳@@ 2
兰@@ 2
円 2
円@@ 2
再@@ 2
军 2
凰 2
凱 2
刑@@ 2
列 2
列@@ 2
別 2
利 2
别@@ 2
刮@@ 2
制 2
則@@ 2
剣 2
劇@@ 2
劍 2
动 2
動 2
勲 2
包 2
化 2
匪 2
医@@ 2
千 2
午@@ 2
半@@ 2
卓 2
即@@ 2
卵 2
参@@ 2
及@@ 2
友 2
取@@ 2
受@@ 2
古 2
右 2
司@@ 2
后@@ 2
吐@@ 2
吳@@ 2
吴 2
吾@@ 2
呂@@ 2
呉 2
周 2
呼@@ 2
哀@@ 2
品 2
唐@@ 2
唯 2
喜 2
嘗 2
器@@ 2
噶@@ 2
因 2
因@@ 2
团@@ 2
图 2
圏 2
圓 2
圓@@ 2
圖 2
圣 2
坂 2
均@@ 2
坊 2
坛 2
坡@@ 2
坪@@ 2
垂@@ 2
型@@ 2
埔 2
域 2
基 2
堤 2
報@@ 2
塔@@ 2
塚 2
墓 2
壮 2
外 2
夢 2
头@@ 2
契@@ 2
奖 2
奖@@ 2
好@@ 2
妻 2
姊@@ 2
娥@@ 2
媛 2
嫦@@ 2
字@@ 2
季 2
宙 2
宜@@ 2
宝@@ 2
实 2
客@@ 2
宫 2
容@@ 2
宾@@ 2
宿@@ 2
寧 2
寨 2
將 2
導@@ 2
尺 2
尼@@ 2
屋 2
屯@@ 2
峰 2
峻 2
崇 2
崎 2
崔@@ 2
崖@@ 2
崙@@ 2
工 2
巨@@ 2
巴 2
帆 2
帝@@ 2
常@@ 2
幼@@ 2
幽@@ 2
幾@@ 2
广 2
庁 2
庆@@ 2
店 2
庵@@ 2
廣 2
延 2
强@@ 2
当@@ 2
彦@@ 2
彼@@ 2
征 2
得@@ 2
復@@ 2
徳@@ 2
怀@@ 2
恋 2
恐@@ 2
恒 2
恩@@ 2
恭@@ 2
悠 2
惠 2
惡 2
感@@ 2
慈 2
慈@@ 2
我@@ 2
戯 2
所@@ 2
才@@ 2
打 2
扶@@ 2
承@@ 2
振@@ 2
掌 2
掌@@ 2
控@@ 2
摩 2
撒@@ 2
攻@@ 2
政府 2
故@@ 2
教育 2
散 2
斎@@ 2
斬@@ 2
方 2
无 2
无@@ 2
日本 2
旭 2
旭@@ 2
昆@@ 2
映@@ 2
昧 2
晃@@ 2
晋 2
晩@@ 2
景@@ 2
晴 2
晶@@ 2
智 2
曆 2
曉@@ 2
會@@ 2
有 2
望@@ 2
末 2
术@@ 2
机@@ 2
杉 2
杏 2
条@@ 2
来 2
果@@ 2
枪 2
架@@ 2
柏@@ 2
柔 2
柚@@ 2
柳 2
柴@@ 2
査@@ 2
根 2
格 2
格@@ 2
桜 2
條 2
梶@@ 2
棋 2
業@@ 2
榊@@ 2
様 2
様@@ 2
樂@@ 2
標 2
樹@@ 2
檀@@ 2
欲 2
欽@@ 2
歌 2
殿@@ 2
母@@ 2
氏@@ 2
民 2
汁 2
池 2
決@@ 2
沢 2
波 2
泰 2
洗@@ 2
洲 2
活@@ 2
派 2
浄@@ 2
济@@ 2
浦 2
消@@ 2
淀 2
淑 2
淡@@ 2
淮@@ 2
混@@ 2
渠 2
温@@ 2
満@@ 2
漢 2
漫@@ 2
漳@@ 2
澄@@ 2
濟 2
濟@@ 2
灣 2
烈@@ 2
熊 2
燕 2
物 2
狐 2
狻@@ 2
猛 2
猛@@ 2
猴@@ 2
玄 2
玉 2
现@@ 2
班@@ 2
現@@ 2
瑞@@ 2
瑠@@ 2
璋 2
璧 2
瓊 2
甘 2
産@@ 2
用@@ 2
由 2
男@@ 2
番@@ 2
疑@@ 2
痧 2
療@@ 2
發@@ 2
盆 2
益@@ 2
目@@ 2
省@@ 2
眼 2
眼@@ 2
石 2
碧@@ 2
礼 2
祐 2
祖@@ 2
祝@@ 2
祥 2
祭 2
禁 2
禁@@ 2
禪@@ 2
禮@@ 2
私@@ 2
秒 2
秦@@ 2
稚@@ 2
稷 2
穂 2
穂@@ 2
穴@@ 2
竜 2
童@@ 2
端@@ 2
笑@@ 2
笠 2
第 2
筑@@ 2
算@@ 2
篤 2
米@@ 2
粉 2
粹@@ 2
系 2
系統 2
系统 2
約@@ 2
紅 2
紅@@ 2
紘 2
紫@@ 2
細@@ 2
組 2
絳 2
絵@@ 2
經@@ 2
綱 2
綱@@ 2
緋@@ 2
緑@@ 2
緣@@ 2
編@@ 2
縣 2
繁@@ 2
网 2
羊@@ 2
羽@@ 2
翁 2
翔@@ 2
翼 2
者@@ 2
耕@@ 2
耳 2
耶 2
聡@@ 2
聲 2
肉 2
肉@@ 2
股@@ 2
肥@@ 2
育 2
胡 2
脇@@ 2
臨@@ 2
臭@@ 2
至@@ 2
臼 2
興@@ 2
舟@@ 2
般@@ 2
艺 2
艺@@ 2
艾@@ 2
芙@@ 2
芦@@ 2
芸@@ 2
苔 2
若 2
苦@@ 2
茉@@ 2
茜@@ 2
茸 2
荼 2
莊@@ 2
菩@@ 2
营@@ 2
萬@@ 2
葫@@ 2
蒙@@ 2
蓮 2
薫 2
藏 2
號 2
衆 2
衆@@ 2
衡 2
衢 2
衣@@ 2
裸@@ 2
襲@@ 2
見 2
覚@@ 2
観 2
角 2
計@@ 2
訪@@ 2
話 2
誕@@ 2
誠 2
說 2
調@@ 2
諏@@ 2
諒 2
論 2
論@@ 2
豆@@ 2
象@@ 2
貓@@ 2
賽@@ 2
责@@ 2
贵@@ 2
贺@@ 2
走@@ 2
起@@ 2
越 2
趙@@ 2
踊@@ 2
身@@ 2
車@@ 2
輝@@ 2
輩 2
辛@@ 2
農 2
農@@ 2
辺 2
达 2
迅 2
迎@@ 2
远@@ 2
追@@ 2
逃@@ 2
逢@@ 2
進 2
遥 2
遵@@ 2
選 2
遺@@ 2
邑 2
邑@@ 2
邦 2
邪@@ 2
邯@@ 2
邵@@ 2
郁@@ 2
郭@@ 2
郷@@ 2
鄂@@ 2
鄧@@ 2
釣@@ 2
銅@@ 2
錄 2
钰 2
铜@@ 2
锡 2
锦@@ 2
镇@@ 2
閑@@ 2
閣 2
閣@@ 2
闘@@ 2
门@@ 2
阜@@ 2
陀 2
院@@ 2
陰@@ 2
陳 2
陸@@ 2
険 2
隸@@ 2
集 2
雙@@ 2
雞@@ 2
雷@@ 2
霜@@ 2
霧@@ 2
霸@@ 2
靖@@ 2
静 2
革@@ 2
韋@@ 2
韩@@ 2
音 2
領@@ 2
頭 2
頭@@ 2
顺@@ 2
食 2
飢@@ 2
饉 2
首@@ 2
香港 2
駕@@ 2
駛@@ 2
駿@@ 2
验@@ 2
骨 2
體 2
體@@ 2
髪 2
鬼 2
鬼@@ 2
魚@@ 2
鴻 2
鹿@@ 2
麒@@ 2
麟 2
麦@@ 2
黎@@ 2
黑 2
齊 2
각 2
각@@ 2
거 2
격@@ 2
골 2
과 2
교@@ 2
궁@@ 2
그 2
극@@ 2
내 2
네 2
년@@ 2
농@@ 2
누@@ 2
능@@ 2
더 2
데@@ 2
돌 2
된 2
된@@ 2
드 2
드@@ 2
떡 2
랑 2
래 2
랩 2
력 2
렬@@ 2
류@@ 2
륜@@ 2
릉@@ 2
린 2
림 2
릿@@ 2
맹 2
머 2
몰@@ 2
물@@ 2
밉@@ 2
방 2
버@@ 2
법 2
베@@ 2
병@@ 2
북 2
비 2
살 2
상 2
설 2
셔@@ 2
숙 2
실 2
심@@ 2
십@@ 2
쌍@@ 2
씨@@ 2
악@@ 2
암 2
앙@@ 2
야 2
야@@ 2
언 2
업 2
업@@ 2
엘 2
예 2
오 2
와 2
외@@ 2
용 2
웅@@ 2
월@@ 2
을@@ 2
있@@ 2
재@@ 2
절@@ 2
좋@@ 2
찌@@ 2
차@@ 2
천 2
체 2
초@@ 2
축@@ 2
충@@ 2
츠 2
칠@@ 2
카@@ 2
코@@ 2
콩@@ 2
크 2
키@@ 2
탄@@ 2
탕 2
통 2
투 2
팥@@ 2
표 2
풋@@ 2
피 2
합@@ 2
허@@ 2
헌 2
협@@ 2
혜@@ 2
후@@ 2
﹏ 2
～ 2
𐎧@@ 2
𐎲@@ 2
𐎹 2
𐏁@@ 2
𐏂 2
𐤂@@ 2
𐤋@@ 2
𐤓@@ 2
𐤕 2
𐤕@@ 2
𐩢@@ 2
𐩣 2
𐩧@@ 2
𐩬 2
𐩺@@ 2
𐭪 2
𒀀@@ 2
𒄭 2
𒄭@@ 2
𒆳@@ 2
𒈩@@ 2
𒈪@@ 2
𒉌 2
𒊏@@ 2
𒋫@@ 2
𒋾@@ 2
𒌦@@ 2
𒌷@@ 2
𝞴 2
🌄 2
🎖 2
🎠 2
🎴 2
🏅 2
🏎 2
🏚 2
💒 2
💜 2
🖼 2
🗻 2
🚡 2
🚩 2
🚶 2
🛌 2
14. 1
17. 1
19. 1
3ء 1
Adem@@ 1
Anf@@ 1
Avrupa 1
Beispi@@ 1
Biografía 1
Biographie 1
Bản 1
Bộ 1
Ces 1
Châu 1
Chính 1
Cumhur@@ 1
Cumhuriy@@ 1
Cộng 1
Desde 1
Durch 1
Dünya 1
Fransa 1
Giáo 1
Giải 1
Hồ 1
Hội 1
II. 1
Jahr 1
Jahrhundert 1
Janu@@ 1
Januari 1
Kasım 1
Kati 1
Kif@@ 1
Kilom@@ 1
Kilometer 1
Kuzey 1
Kwa 1
Kỳ 1
Mais 1
Mei 1
Mitgli@@ 1
Mji 1
Mỹ 1
Naili 1
Năm 1
Ocak 1
Ort 1
Personen 1
Pháp 1
Platz 1
Saison 1
Sau 1
Sie 1
Sohn 1
Sự 1
También 1
Tarih@@ 1
Thiên 1
Ulaya 1
Văn 1
Vương 1
Weltkri@@ 1
aband@@ 1
acción 1
acuerdo 1
adounid@@ 1
adı 1
afu 1
agosto 1
akini 1
aldı 1
alik@@ 1
aliza 1
almente 1
alten 1
altında 1
ammen@@ 1
amment 1
amoja 1
améric@@ 1
anah@@ 1
annt 1
année 1
antigu@@ 1
anyika 1
arası 1
araştır@@ 1
arriv@@ 1
aría 1
ashara 1
ativo 1
avait 1
awala 1
aşa 1
bahari 1
banda 1
başkan@@ 1
beiden 1
beit@@ 1
beledi@@ 1
belir@@ 1
besondere 1
biet 1
blieb 1
bà 1
büyü@@ 1
caract@@ 1
carrera 1
casi 1
caso 1
cerca 1
chaque 1
cinco 1
coi 1
comer@@ 1
communes 1
connu 1
cung 1
cái 1
cô@@ 1
cü 1
cố 1
cổ 1
cộng 1
dahil 1
daki 1
danh 1
deki 1
denomin@@ 1
depor@@ 1
derni@@ 1
desarr@@ 1
desarrol@@ 1
dessen 1
deuxième 1
deven@@ 1
devient 1
devlet 1
difer@@ 1
différ@@ 1
dirig@@ 1
divers@@ 1
donc 1
dort 1
durante 1
dài 1
dân 1
déc@@ 1
découver@@ 1
déf@@ 1
développ@@ 1
dù 1
dü 1
dür@@ 1
düş@@ 1
düşün@@ 1
dı 1
ebil@@ 1
ección 1
eint 1
ellos 1
embar@@ 1
embargo 1
emein@@ 1
empe@@ 1
empres@@ 1
encore 1
enek@@ 1
enero 1
ennent 1
ensemble 1
ensuite 1
enton@@ 1
entwick@@ 1
equipo 1
esab@@ 1
esine 1
esinin 1
espè@@ 1
estos 1
está 1
existe 1
eğ@@ 1
falme 1
famille 1
fand 1
febr@@ 1
fois 1
französ@@ 1
frente 1
fut 1
futbol@@ 1
fútbol 1
gegen 1
gegen@@ 1
gegrün@@ 1
gelen 1
gesam@@ 1
gestell@@ 1
gez@@ 1
geçir@@ 1
gibt 1
gleich@@ 1
gobierno 1
gouvern@@ 1
grab@@ 1
grandes 1
groupe 1
grub@@ 1
grund 1
göz@@ 1
gün 1
gün@@ 1
güç@@ 1
haben 1
habitantes 1
hadi 1
hakk@@ 1
halten 1
hata 1
haup@@ 1
heute 1
hilo 1
hizo 1
hombres 1
hoàng 1
huo 1
huu 1
hát 1
hệ 1
hội 1
icios 1
ieren 1
ieron 1
ieurs 1
ifa 1
igten 1
ihn 1
ikuu 1
ildi 1
ileri 1
ilgili 1
iliy@@ 1
iliş@@ 1
ilç@@ 1
imani 1
imbali 1
inaug@@ 1
incor@@ 1
inglés 1
inté@@ 1
isini 1
isinin 1
isiwa 1
isième 1
ispi@@ 1
iyi 1
iş 1
jedoch 1
joined 1
juego 1
julio 1
kadar 1
kez 1
keş@@ 1
khu 1
không 1
khẩu 1
kiện 1
koa 1
konn@@ 1
kte 1
kuu 1
kwa 1
kön@@ 1
kü 1
kıy@@ 1
landa 1
largo 1
ledi 1
lerinde 1
leş@@ 1
libre 1
llam@@ 1
llamado 1
lleg@@ 1
lors 1
lossen 1
lugar 1
luğu 1
mals 1
mang 1
married 1
maç@@ 1
mch@@ 1
mehr 1
merkezi 1
mismo 1
miş 1
momento 1
mtu 1
much@@ 1
mujeres 1
municipal@@ 1
muş 1
más 1
mög@@ 1
mış 1
nahme 1
nchi 1
nda 1
ngo@@ 1
nh 1
nhà 1
nouv@@ 1
nte 1
nuevo 1
năm 1
nước 1
obten@@ 1
octubre 1
ofu 1
okana 1
ommen 1
ongozi 1
onnat 1
onu 1
orden@@ 1
oyun@@ 1
partamento 1
partido 1
partidos 1
país 1
pequ@@ 1
permet@@ 1
personas 1
personn@@ 1
phủ 1
poco 1
polí@@ 1
política 1
pour@@ 1
premier 1
prend 1
presidente 1
primera 1
primeros 1
profes@@ 1
projet 1
près 1
présente 1
président 1
punkt 1
punto 1
péri@@ 1
públ@@ 1
quelques 1
quy 1
quốc 1
recu@@ 1
région 1
río 1
rôle 1
sana 1
sao 1
scheid@@ 1
schnit@@ 1
schon 1
schri@@ 1
sebe@@ 1
segundo 1
seine 1
seinen 1
selbst 1
septiembre 1
setz@@ 1
sitz@@ 1
sión 1
soll 1
sondern 1
sonr@@ 1
stamm@@ 1
steht 1
stieg 1
ständi@@ 1
système 1
série 1
só@@ 1
sö@@ 1
söz@@ 1
sü@@ 1
süd@@ 1
sür@@ 1
takım 1
también 1
tarihi 1
tekn@@ 1
tement 1
temporada 1
tena 1
territoire 1
thư 1
ticas 1
tiem@@ 1
tiene 1
tigt 1
tiki 1
tionen 1
tiểu 1
tlich 1
todo 1
todos 1
toujours 1
toute 1
trai 1
través 1
trieb 1
triều 1
tuy@@ 1
tình 1
tướng 1
tế 1
tịch 1
ufu 1
umani 1
undan 1
unun 1
unzi 1
utilis@@ 1
uvu 1
uygul@@ 1
uyên 1
uzi 1
uzo 1
uzun 1
vai 1
veces 1
verschied@@ 1
vur@@ 1
vya 1
vì 1
vấn 1
wali@@ 1
waren 1
wegen 1
weit 1
weiter@@ 1
wenda 1
wieder 1
wili 1
wird 1
wohl 1
wurden 1
xième 1
yaş@@ 1
zake 1
zwischen 1
 1
 1
 1
 1
ª 1
Á 1
Â 1
Ã@@ 1
Ê 1
Ë@@ 1
Í 1
Î 1
Ï 1
Ông 1
Õ 1
Õ@@ 1
Þ 1
àm 1
ành 1
àu 1
ách 1
âu 1
ãi 1
ãng 1
ält 1
äß@@ 1
çı@@ 1
église 1
équ@@ 1
ét 1
évol@@ 1
éx@@ 1
êng 1
ìn 1
ích 1
íses 1
óc 1
ôi 1
ôle 1
öch@@ 1
öff@@ 1
öffent@@ 1
öffentlich@@ 1
önc@@ 1
önem@@ 1
ùng 1
úbl@@ 1
úc 1
último 1
üncü 1
üne 1
üç@@ 1
üğ@@ 1
ÿ@@ 1
ăm 1
ăn 1
Ĉ 1
ċ@@ 1
Đ 1
Đông 1
Đảng 1
đi@@ 1
Ė@@ 1
Ę 1
ĝ 1
ĝ@@ 1
Ğ 1
ğin 1
Ģ 1
Ģ@@ 1
Ĥ 1
ĩ 1
ĭ 1
ıca 1
ıdır 1
ılan 1
ıları 1
ımc@@ 1
ının 1
ıt@@ 1
ığ@@ 1
Ķ 1
Ľ 1
Ń@@ 1
ņ 1
ŋ 1
Ő@@ 1
Œ@@ 1
œuv@@ 1
ŕ 1
Ŗ 1
ŗ 1
Ř 1
Ř@@ 1
Şark@@ 1
şark@@ 1
şehir@@ 1
şu 1
ť@@ 1
ũng 1
ű 1
ŷ 1
Ɔ@@ 1
Ə 1
Ƭ 1
ư 1
ưa 1
ương 1
ước 1
ƶ 1
Ʒ 1
ǈ 1
Ǟ 1
ǟ 1
ǣ@@ 1
ǫ 1
Ǿ 1
Ț 1
Ț@@ 1
Ȥ 1
Ȭ 1
ȭ 1
Ȯ 1
ȯ 1
ȯ@@ 1
Ȱ 1
ȱ 1
ɀ 1
ɗ 1
ɗ@@ 1
ɤ 1
ɤ@@ 1
ɬ@@ 1
ɭ@@ 1
ɲ 1
ɳ 1
ɳ@@ 1
ɻ 1
ɽ 1
ɽ@@ 1
ʂ 1
ʂ@@ 1
ʈ 1
ʉ 1
ʋ 1
ʍ@@ 1
ʐ 1
ʣ 1
ʷ 1
ʹ@@ 1
ʺ@@ 1
ʾ 1
ˀ 1
˂ 1
ˈ 1
˘ 1
˙ 1
̆ 1
̇ 1
̌ 1
̞ 1
̠ 1
̣ 1
̧ 1
̬ 1
̺ 1
Ͱ 1
ͳ 1
Ͷ 1
Έλλην@@ 1
Ένω@@ 1
Ί 1
Ί@@ 1
Ώ 1
Αθήνα 1
Αλ@@ 1
Ανα@@ 1
Απ@@ 1
Αυτοκρα@@ 1
Βαλ@@ 1
Βασιλ@@ 1
Βι@@ 1
Γαλλία 1
Γεν@@ 1
Δεκ@@ 1
Εί@@ 1
Εθν@@ 1
Εθνική 1
Εκ@@ 1
Ελλάδ@@ 1
Ελλάδας 1
Εν@@ 1
Ερ@@ 1
Ευρ@@ 1
Ευρωπαϊκ@@ 1
Ζ 1
Θεσσαλον@@ 1
Ιωάν@@ 1
Κοιν@@ 1
Κωνστ@@ 1
Μάρ@@ 1
Με 1
Οικ@@ 1
Ομ@@ 1
Πολιτ@@ 1
Ρω@@ 1
Σχολ@@ 1
Του@@ 1
Ϋ@@ 1
άμε@@ 1
άν 1
άρα 1
άρια 1
άρχ@@ 1
έ 1
έας 1
έμ@@ 1
έξ@@ 1
έργ@@ 1
έρχ@@ 1
ήγ@@ 1
ήμ@@ 1
ήματος 1
ίδες 1
ίες 1
ίκης 1
αιτ@@ 1
ακή 1
αντιν@@ 1
απλ@@ 1
από 1
από@@ 1
ασε 1
ασκ@@ 1
αϊ@@ 1
βί@@ 1
βιβ@@ 1
βιβλ@@ 1
βλ@@ 1
γαλλ@@ 1
γαρ@@ 1
για 1
γλώσσα 1
γνώ@@ 1
γον@@ 1
γρ@@ 1
γραμ@@ 1
δίν@@ 1
δεκα@@ 1
δη@@ 1
δηλ@@ 1
διά 1
δια@@ 1
διασ@@ 1
διο 1
διπλ@@ 1
δρά@@ 1
δυν@@ 1
δυνατ@@ 1
είου 1
είων 1
εγκ@@ 1
εδ@@ 1
εδρ@@ 1
ειας 1
ειλ@@ 1
ειο@@ 1
εκτός 1
ελλ@@ 1
επί 1
επί@@ 1
επίσ@@ 1
επαρχ@@ 1
επιστ@@ 1
ερα 1
ετα@@ 1
εφ@@ 1
εω@@ 1
ζω@@ 1
ημα 1
ηματ@@ 1
ηση 1
ητή 1
ηχαν@@ 1
θή@@ 1
θερμ@@ 1
θμ@@ 1
θυν@@ 1
θω@@ 1
ιάς 1
ικού 1
ιμ@@ 1
ιν 1
ιπ@@ 1
ιτ@@ 1
κέν@@ 1
κα 1
καρι@@ 1
κατά@@ 1
κατέ@@ 1
κατα@@ 1
κει@@ 1
κι 1
κοιν@@ 1
κοπ@@ 1
κω@@ 1
κόρ@@ 1
κόρη 1
κόσ@@ 1
λίγ@@ 1
λα 1
λαβ@@ 1
λεπ@@ 1
λεύθερ@@ 1
λυμπ@@ 1
λύ@@ 1
μάχη 1
μένης 1
μένο 1
μένος 1
μένου 1
μέρος 1
μέτρ@@ 1
μή@@ 1
μία 1
μαζ@@ 1
μακ@@ 1
μαρ@@ 1
μας 1
ματος 1
με 1
μεγ@@ 1
μελ@@ 1
μετα@@ 1
μορφ@@ 1
μορφή 1
μπου@@ 1
μυθ@@ 1
μό@@ 1
νες 1
νο@@ 1
ντ 1
νόμ@@ 1
οθέ@@ 1
οθε@@ 1
οκα@@ 1
ολόγ@@ 1
οξ@@ 1
ορι@@ 1
ορο@@ 1
οσφ@@ 1
ουρ@@ 1
παρά@@ 1
πεδ@@ 1
περι@@ 1
πιστ@@ 1
πλευ@@ 1
πλη@@ 1
πολιτική 1
πον@@ 1
πορ@@ 1
ποταμ@@ 1
πού@@ 1
πρι@@ 1
προσ@@ 1
πρω@@ 1
πόλ@@ 1
πόλη 1
ράφ@@ 1
ρίας 1
ρίου 1
ρίς 1
ρίσ@@ 1
ραφ@@ 1
ρη@@ 1
ρική 1
ριο 1
ρού 1
σίας 1
σεις 1
σημ@@ 1
σημαν@@ 1
σης 1
σμού 1
στα@@ 1
στη 1
στοιχ@@ 1
στον 1
στρα@@ 1
συγ@@ 1
συλλ@@ 1
συμβ@@ 1
σφ@@ 1
σχέ@@ 1
σώ@@ 1
τά 1
τάν@@ 1
τίτ@@ 1
ταινία 1
ταλ@@ 1
ταξ@@ 1
τε 1
τελε@@ 1
τικό 1
τις 1
τοπ@@ 1
τοπο@@ 1
τορ@@ 1
τού 1
τροπ@@ 1
τυχ@@ 1
τό@@ 1
υπο@@ 1
υφ@@ 1
φάν@@ 1
φή 1
φερ@@ 1
φορά 1
φω@@ 1
χεί@@ 1
χώρ@@ 1
χώρα 1
ωβ@@ 1
ωλ@@ 1
ωμα 1
ωσε 1
ωση 1
ϊκ@@ 1
όλα 1
όλε@@ 1
όμα 1
όμε@@ 1
όνα 1
όρι@@ 1
όρος 1
ότ@@ 1
ότερ@@ 1
ότι 1
ύρια 1
ώματα 1
ώνα 1
ώντας 1
ώσ@@ 1
ϐ@@ 1
ϑ 1
ϑ@@ 1
ϒ 1
ϕ@@ 1
Ϙ 1
ϙ 1
ϙ@@ 1
ϛ 1
ϝ 1
Ϡ 1
ϡ 1
Ϭ@@ 1
ϰ 1
ϱ 1
ϵ@@ 1
Ϸ 1
ϸ 1
Ϲ@@ 1
Ϻ 1
ϻ 1
ϻ@@ 1
Ѓ 1
Ѓ@@ 1
Є@@ 1
Ѕ 1
Ѕ@@ 1
Ј 1
Љ 1
Љ@@ 1
Џ 1
Аль@@ 1
Бра@@ 1
Вер@@ 1
Во 1
Вол@@ 1
Вы@@ 1
Георги 1
Глав@@ 1
Ди@@ 1
Димит@@ 1
Ев@@ 1
Ж 1
За 1
Из@@ 1
Ита@@ 1
Й@@ 1
Йор@@ 1
Кли@@ 1
Кон@@ 1
Констан@@ 1
Май@@ 1
Нор@@ 1
Олимпи@@ 1
От@@ 1
Пер@@ 1
Петер@@ 1
Пор@@ 1
Пу@@ 1
Пър@@ 1
Р 1
Ри@@ 1
СР 1
СС@@ 1
ССР 1
СССР 1
Све@@ 1
София 1
Сто@@ 1
Три@@ 1
Уи@@ 1
Хе@@ 1
Цент@@ 1
Центра@@ 1
Ча@@ 1
Чи@@ 1
Ъ 1
Э 1
Это 1
авиа@@ 1
ал 1
анд@@ 1
арх@@ 1
архитек@@ 1
ата 1
ато 1
ать 1
бай@@ 1
бат@@ 1
бе 1
бер@@ 1
берг 1
бле@@ 1
бое@@ 1
большо@@ 1
бор@@ 1
бург 1
бург@@ 1
бъ@@ 1
българ@@ 1
български 1
была 1
было 1
бю@@ 1
бя 1
вал 1
вали 1
ван 1
ван@@ 1
ване 1
вез@@ 1
вели@@ 1
вени 1
вер 1
вета 1
вз@@ 1
вин@@ 1
вод@@ 1
води@@ 1
вое 1
возмож@@ 1
вре@@ 1
все 1
вто@@ 1
вы 1
вые 1
выпол@@ 1
гар@@ 1
гат@@ 1
гда 1
ген@@ 1
генерал 1
геро@@ 1
гим@@ 1
гия 1
гли@@ 1
гов@@ 1
год@@ 1
года 1
година 1
гон@@ 1
город 1
град@@ 1
графи@@ 1
гри@@ 1
гро@@ 1
гру@@ 1
группы 1
дат@@ 1
дви@@ 1
дву@@ 1
дей 1
действия 1
дека@@ 1
ден 1
ден@@ 1
дени 1
дения 1
деся@@ 1
джи@@ 1
дов 1
догово@@ 1
долж@@ 1
дра@@ 1
ду 1
дър@@ 1
ды@@ 1
дь 1
ед@@ 1
еди@@ 1
ей 1
ем 1
ен 1
ена 1
ене@@ 1
еписко@@ 1
есть 1
ется 1
жа 1
жава 1
жан@@ 1
ждения 1
же 1
жението 1
жиз@@ 1
зависи@@ 1
заво@@ 1
зах@@ 1
защит@@ 1
зва@@ 1
зда@@ 1
зи 1
зия 1
зов 1
зя@@ 1
изда@@ 1
изи@@ 1
им@@ 1
име@@ 1
ино@@ 1
ины 1
исследо@@ 1
история 1
их 1
йна 1
каз@@ 1
каза@@ 1
кан@@ 1
кар@@ 1
кате@@ 1
като@@ 1
ках 1
ква@@ 1
кие 1
ких 1
кло@@ 1
кого 1
команд@@ 1
кономи@@ 1
кономиче@@ 1
коро@@ 1
корпу@@ 1
кос@@ 1
которая 1
кра@@ 1
кре@@ 1
крепо@@ 1
кри@@ 1
кт 1
кто@@ 1
ку 1
кул@@ 1
куль@@ 1
лан@@ 1
лах 1
лев@@ 1
лез@@ 1
лей 1
лей@@ 1
лем 1
лен 1
лер 1
лет 1
лии 1
лин@@ 1
лина 1
лица 1
лка 1
лни 1
логи@@ 1
логия 1
лод@@ 1
лок 1
лу 1
льного 1
льное 1
любо@@ 1
мат 1
мат@@ 1
мате@@ 1
мати@@ 1
мен 1
мени@@ 1
меня@@ 1
мер@@ 1
мери@@ 1
мерикан@@ 1
мест@@ 1
меся@@ 1
меха@@ 1
мин 1
мина@@ 1
мира 1
много 1
можно 1
мокра@@ 1
мор@@ 1
мощ@@ 1
мы 1
над@@ 1
называ@@ 1
нами 1
насти@@ 1
национа@@ 1
началь@@ 1
немец@@ 1
нен@@ 1
нер@@ 1
нет 1
ников 1
нитель@@ 1
нова@@ 1
нове@@ 1
ново 1
ному 1
ностью 1
ноября 1
нски 1
ну 1
ную 1
ными 1
ня 1
об 1
оба@@ 1
оби@@ 1
обще@@ 1
объ@@ 1
од@@ 1
один 1
окру@@ 1
октя@@ 1
она 1
опера@@ 1
ос@@ 1
оста@@ 1
ответ@@ 1
отноше@@ 1
пан@@ 1
пас@@ 1
пен@@ 1
песни 1
пи 1
пис@@ 1
поле@@ 1
полк 1
полу@@ 1
поль@@ 1
пра@@ 1
права 1
правитель@@ 1
право 1
преда@@ 1
предло@@ 1
при 1
продол@@ 1
проек@@ 1
проте@@ 1
пы@@ 1
пя@@ 1
работ@@ 1
развити@@ 1
рал@@ 1
рам@@ 1
рани 1
река 1
рец 1
рим@@ 1
рин@@ 1
ристи@@ 1
рито@@ 1
рован@@ 1
род 1
роди@@ 1
рю@@ 1
ря 1
ряд@@ 1
рё@@ 1
свобо@@ 1
свой 1
се 1
сель@@ 1
система 1
ске 1
скими 1
сков@@ 1
следо@@ 1
следовате@@ 1
сло@@ 1
совер@@ 1
сон 1
соци@@ 1
спа@@ 1
спо@@ 1
сс@@ 1
став@@ 1
ства@@ 1
ственно 1
ствие 1
ство@@ 1
ству 1
стен@@ 1
ститу@@ 1
стоя@@ 1
стра 1
стри@@ 1
строитель@@ 1
сю@@ 1
так 1
так@@ 1
тат@@ 1
тво@@ 1
теат@@ 1
тел 1
темпера@@ 1
тех@@ 1
тие 1
тов@@ 1
това 1
только 1
том 1
тон@@ 1
тора 1
тот 1
ту 1
тура 1
туры 1
тя 1
уби@@ 1
укра@@ 1
ул 1
уни@@ 1
университета 1
управ@@ 1
управление 1
учи@@ 1
фак@@ 1
фер@@ 1
физи@@ 1
фици@@ 1
фли@@ 1
фон@@ 1
форма@@ 1
фрон@@ 1
фу@@ 1
функ@@ 1
фут@@ 1
хан@@ 1
хе@@ 1
хия 1
хода 1
хозяй@@ 1
хоро@@ 1
ху 1
цар@@ 1
це 1
цо@@ 1
цу 1
чат@@ 1
че 1
чей 1
чен 1
ческих 1
чка 1
чна 1
чо 1
что 1
шая 1
шего 1
шей 1
шен@@ 1
шим 1
шки 1
шо@@ 1
ще 1
щение 1
щи 1
ьо@@ 1
электро@@ 1
этот 1
юще@@ 1
ями 1
ят 1
ях 1
ём 1
ђ 1
ќ 1
ѣ 1
ѥ 1
ѫ 1
ґ 1
Ғ@@ 1
ҕ@@ 1
Җ@@ 1
җ 1
җ@@ 1
ҥ 1
Ҫ 1
Ҳ@@ 1
ҳ@@ 1
Ҷ@@ 1
ҷ 1
ӂ 1
ӏ 1
ӏ@@ 1
Ӑ 1
ӑ@@ 1
Ӗ 1
ӗ@@ 1
ӧ@@ 1
Ӳ 1
ԉ@@ 1
ԥ@@ 1
Դ 1
Ժ@@ 1
Ի@@ 1
Հ 1
Ձ@@ 1
Ճ@@ 1
Մ 1
Ո@@ 1
Ս 1
Ւ 1
Փ@@ 1
Ք@@ 1
Օ@@ 1
Ֆ@@ 1
ե 1
է 1
թ 1
ճ@@ 1
շ 1
չ@@ 1
պ 1
վ 1
օ 1
օ@@ 1
ֆ@@ 1
և 1
։ 1
֛ 1
֭ 1
ַ 1
ֻ 1
ֿ@@ 1
ם@@ 1
ױ@@ 1
؂ 1
؉ 1
؎ 1
ؒ 1
؞ 1
آبادی 1
آزادی 1
آپ 1
اتی 1
ارہ 1
ازی 1
اسرائی@@ 1
اسرائیل 1
امریکا 1
امی 1
اُن 1
اٹ@@ 1
اگر@@ 1
باقی 1
بغیر 1
بہ 1
بے 1
تاریخی 1
ترقی 1
تشکیل 1
تقسیم 1
تیار 1
تیس 1
جامعہ 1
جاپ@@ 1
جزی@@ 1
جہ@@ 1
حمایت 1
خانہ 1
داری 1
دریائے 1
دگی 1
دہ 1
ریت 1
زمین 1
زندگی 1
ستانی 1
سلطنت 1
سندھ 1
سہ 1
سیاسی 1
شادی 1
شاہی 1
شپ 1
شہ@@ 1
صوبہ 1
عربی 1
علاقے 1
علامت 1
علیہ 1
عہ 1
ؼ 1
ؿ@@ 1
قدیم 1
قریب 1
قیام 1
لاہور 1
لوں 1
لیکن 1
ماں 1
مجھ@@ 1
مغربی 1
موسی@@ 1
موں 1
مگر 1
مینی@@ 1
میں 1
میہ 1
نڈ@@ 1
نیو 1
نیو@@ 1
هٔ 1
وسی 1
وٹ 1
ٔ@@ 1
ٕ 1
ٖ 1
ٗ@@ 1
ٛ 1
ٜ@@ 1
ٝ@@ 1
ٞ 1
ٯ 1
ٹو 1
ٹھ 1
ٹھ@@ 1
ٹی 1
ٻ 1
ٽ 1
پاک@@ 1
ڄ 1
څ@@ 1
چھ@@ 1
ڈ 1
ڈو@@ 1
ڈی 1
ڈی@@ 1
ډ 1
ډ@@ 1
ڑا 1
ڑھ 1
ړ 1
ڙ@@ 1
ڥ 1
ڧ 1
کھ 1
کیا 1
کیل 1
کیلی@@ 1
ګ 1
ګ@@ 1
ڬ 1
ڮ 1
گری 1
ڱ@@ 1
ڲ 1
ڳ@@ 1
ڵ 1
ڷ@@ 1
ں 1
ۀ@@ 1
ہر@@ 1
ہری 1
ہو@@ 1
ہی 1
ہی@@ 1
ۃ@@ 1
ۈ 1
ۋ@@ 1
یور@@ 1
یہ 1
ێ 1
ۓ 1
ۜ@@ 1
۝ 1
۞ 1
۟ 1
ۧ@@ 1
۪ 1
۰ 1
۱ 1
۲ 1
۵ 1
۵@@ 1
ۻ@@ 1
܆ 1
ܕ 1
ܙ 1
ܜ@@ 1
ܡ 1
ܤ@@ 1
ܦ 1
ܩ 1
ܰ@@ 1
ܹ@@ 1
ݒ 1
ݟ 1
ݢ 1
ݣ 1
ݤ 1
ޔ@@ 1
ޚ@@ 1
ޝ@@ 1
ޢ@@ 1
ި 1
ޫ@@ 1
ࣱ 1
ँ 1
ंगा 1
ंड 1
ंड@@ 1
ंत 1
ंद 1
अंतर 1
अक 1
अग 1
अधि@@ 1
अनु@@ 1
अप@@ 1
आं@@ 1
आग@@ 1
इं@@ 1
इन 1
इला@@ 1
उत 1
ऊ 1
कता 1
करा@@ 1
कहानी 1
कार@@ 1
कारी 1
कि 1
किया 1
कीय 1
कृ@@ 1
कृति 1
कृष 1
कौ@@ 1
खण 1
खा 1
खा@@ 1
खु@@ 1
गा@@ 1
गी 1
गु@@ 1
गे@@ 1
घा@@ 1
चंद 1
चक 1
चन 1
चर 1
चार 1
चि@@ 1
चीन 1
छो@@ 1
जन 1
जा 1
जाति 1
जी@@ 1
टल 1
टि@@ 1
टी@@ 1
टीम 1
टे@@ 1
टो@@ 1
ठ@@ 1
ठा@@ 1
डी@@ 1
डो@@ 1
णा 1
णु 1
तर 1
तव 1
तीन 1
तीस@@ 1
तृ@@ 1
ते@@ 1
तो 1
था 1
दित 1
दिल 1
दी@@ 1
दुनिया 1
देव 1
देश@@ 1
दो 1
दोलन 1
धर 1
धा@@ 1
धार@@ 1
धि@@ 1
धी 1
धी@@ 1
नई 1
ना 1
नाग@@ 1
नी@@ 1
ने 1
नो 1
नो@@ 1
पं@@ 1
पण 1
पर@@ 1
पहा@@ 1
पान 1
पार@@ 1
पि 1
पि@@ 1
पुत 1
पोर 1
फि@@ 1
फु@@ 1
फै@@ 1
बं@@ 1
बन 1
बना 1
बल 1
बहु@@ 1
बु@@ 1
भक 1
भा 1
भार@@ 1
भाषा 1
भि@@ 1
भू@@ 1
भो@@ 1
भौ@@ 1
मत 1
मता 1
मध 1
मल 1
मह@@ 1
माम@@ 1
माल 1
मित 1
मिल@@ 1
मू@@ 1
यक 1
यत 1
यन 1
यम 1
यात 1
यान 1
यालय 1
यु 1
यु@@ 1
यू@@ 1
ये@@ 1
योग@@ 1
यौ@@ 1
रत 1
रत@@ 1
रन 1
रम 1
रवा@@ 1
रान 1
राम 1
रि@@ 1
रिय 1
रिस 1
रीय 1
रेस 1
रॉ@@ 1
लता 1
लन 1
लाल 1
लू@@ 1
ले 1
ले@@ 1
लेज 1
ळ 1
वन 1
वविद 1
वस 1
वारा 1
वाल 1
विद 1
विधि 1
विश 1
विष 1
वीप 1
वृ@@ 1
वै@@ 1
शं@@ 1
षा@@ 1
सन 1
सम 1
समय 1
सह@@ 1
सा 1
सान 1
सार 1
सी@@ 1
सु@@ 1
से@@ 1
सेना 1
सो@@ 1
सौ@@ 1
हम 1
हा 1
हिंदी 1
ही 1
हू@@ 1
हे@@ 1
है@@ 1
हॉ@@ 1
ार 1
ि 1
ियन 1
िया@@ 1
ियो@@ 1
ी@@ 1
ीय 1
ूल 1
ृ 1
ृ@@ 1
ॄ@@ 1
ो@@ 1
ोर 1
ॐ 1
॥ 1
ই 1
ঈ@@ 1
ঋ@@ 1
ও@@ 1
খ@@ 1
ঘ@@ 1
চ 1
ঠ@@ 1
ড@@ 1
ঢ 1
ঢ@@ 1
ণ@@ 1
থ 1
ভ 1
ৃ@@ 1
ৈ@@ 1
০ 1
০@@ 1
১@@ 1
৫@@ 1
৭ 1
৮@@ 1
ৱ@@ 1
৲ 1
৳ 1
ਇ@@ 1
ਏ@@ 1
ਕ 1
ਖ 1
ਘ@@ 1
ਠ 1
ਦ 1
ਧ@@ 1
ਨ 1
ਪ 1
ਫ@@ 1
ਯ@@ 1
ਹ 1
ਿ 1
ੈ@@ 1
ੋ 1
ੌ@@ 1
ੜ 1
ં@@ 1
ક@@ 1
ચ 1
છ@@ 1
ડ@@ 1
ણ@@ 1
દ@@ 1
પ@@ 1
બ@@ 1
ભ@@ 1
ય@@ 1
ર 1
ર@@ 1
લ@@ 1
વ@@ 1
ા 1
િ@@ 1
ી 1
ો 1
ો@@ 1
્ 1
କ 1
କ@@ 1
ଟ@@ 1
ஆ@@ 1
ஈ@@ 1
ஐ@@ 1
ஞ 1
ந 1
ய 1
ற@@ 1
ல 1
ள 1
ள@@ 1
ழ 1
ழ@@ 1
ஹ@@ 1
ூ@@ 1
ெ@@ 1
ொ@@ 1
ோ 1
ం 1
ఆ@@ 1
ఇ@@ 1
ఏ@@ 1
క 1
క@@ 1
గ 1
త 1
థ@@ 1
ధ 1
ప 1
భ@@ 1
ష@@ 1
స@@ 1
హ@@ 1
ా 1
ీ@@ 1
ే@@ 1
ಂ 1
ಂ@@ 1
ಅ@@ 1
ಕ 1
ಕ@@ 1
ಚ@@ 1
ಜ@@ 1
ಟ 1
ಡ 1
ಣ 1
ತ 1
ದ@@ 1
ನ 1
ಬ 1
ಬ@@ 1
ಳ 1
ಳ@@ 1
ವ 1
ವ@@ 1
ಶ 1
ಷ@@ 1
ಸ 1
ಹ@@ 1
ೀ@@ 1
ೂ@@ 1
ೃ@@ 1
ೆ 1
ೋ 1
ೋ@@ 1
ആ@@ 1
ക@@ 1
ജ@@ 1
ത 1
ത@@ 1
ദ@@ 1
ന 1
പ 1
പ@@ 1
ബ 1
ബ@@ 1
റ@@ 1
ല 1
ല@@ 1
സ@@ 1
ാ 1
ി 1
ീ@@ 1
ൈ@@ 1
ං@@ 1
ක 1
ක@@ 1
ග@@ 1
ණ 1
ද@@ 1
බ@@ 1
ම 1
ල 1
ල@@ 1
ව 1
ශ 1
ස 1
ස@@ 1
ළ@@ 1
ා 1
ී 1
ේ 1
ේ@@ 1
ෝ 1
෴ 1
ก 1
กร 1
กา@@ 1
กำ@@ 1
กิ@@ 1
คุ@@ 1
งค@@ 1
จักร@@ 1
จังหวัด 1
จีน 1
ชาติ 1
ญ 1
ญา@@ 1
ฑ@@ 1
ด 1
ดา@@ 1
ดิ@@ 1
ต 1
ตรา 1
ตา@@ 1
ตำ@@ 1
ติ@@ 1
ถ@@ 1
ทร 1
ธ 1
ธรรม 1
นา@@ 1
นาน 1
นี 1
บ 1
บร@@ 1
บาท 1
บุ@@ 1
ปรา@@ 1
ปั@@ 1
ปา@@ 1
ผ 1
พ@@ 1
พัน@@ 1
พันธ@@ 1
พา@@ 1
พิ@@ 1
ฟ 1
ฟ@@ 1
ฟุต@@ 1
ภ 1
ภู@@ 1
มว@@ 1
มหา@@ 1
มิ 1
มี 1
มี@@ 1
ย@@ 1
ยุ@@ 1
ยู 1
ร@@ 1
ระ 1
ราย 1
รุ@@ 1
ลักษ@@ 1
ลำ@@ 1
ว 1
วง@@ 1
วั@@ 1
ศัย 1
ษ 1
สถ@@ 1
สถาน@@ 1
สมา@@ 1
สร 1
สะ@@ 1
สั@@ 1
สัง@@ 1
สิน@@ 1
หน@@ 1
หร@@ 1
หลัก@@ 1
หลัง 1
หาร 1
อง 1
อย@@ 1
อร@@ 1
อัน@@ 1
อา@@ 1
อาณาจักร 1
อุ@@ 1
ะ 1
ั@@ 1
ัก@@ 1
ัง@@ 1
ัน@@ 1
ันท@@ 1
ำ 1
ำ@@ 1
ิ 1
ิน 1
ี 1
ี@@ 1
ึ@@ 1
ื 1
ื@@ 1
ือ@@ 1
ุ 1
เก@@ 1
เซ@@ 1
เด@@ 1
เท@@ 1
เน@@ 1
เพ@@ 1
เม@@ 1
เลือก@@ 1
แด@@ 1
แดง 1
แน@@ 1
แพ@@ 1
แล@@ 1
แส@@ 1
โ@@ 1
โก@@ 1
โด 1
ใ@@ 1
ใน@@ 1
ไป@@ 1
ไร@@ 1
ไห@@ 1
ກ@@ 1
ງ@@ 1
ດ@@ 1
ຕ@@ 1
ນ@@ 1
ຜ@@ 1
ພ@@ 1
ມ@@ 1
ລ@@ 1
ວ@@ 1
ອ@@ 1
ິ@@ 1
ີ 1
ຸ@@ 1
ົ 1
້ 1
༼ 1
༽ 1
ང@@ 1
ཇ@@ 1
ཉ@@ 1
ཏ@@ 1
པ@@ 1
བ 1
མ 1
ཙ@@ 1
ཛ@@ 1
འ 1
ཤ@@ 1
ྡ@@ 1
ྤ@@ 1
ྫ@@ 1
ྭ@@ 1
င@@ 1
ည 1
ဌ@@ 1
ထ@@ 1
မ 1
ဝ@@ 1
သ@@ 1
ဦ@@ 1
ူ@@ 1
့ 1
ျ@@ 1
၁@@ 1
၅ 1
၇@@ 1
၉ 1
ბ 1
ჟ@@ 1
ჩ@@ 1
ჭ@@ 1
ᄀ 1
ᄁ 1
ᄂ 1
ᄃ 1
ᄄ 1
ᄅ 1
ᄆ 1
ᄇ 1
ᄈ 1
ᄉ 1
ᄊ 1
ᄋ 1
ᄌ 1
ᄍ 1
ᄎ 1
ᄏ 1
ᄐ 1
ᄑ 1
ᄒ 1
ᄓ 1
ᄔ 1
ᄕ 1
ᄖ 1
ᄗ 1
ᄘ 1
ᄙ 1
ᄚ 1
ᄛ 1
ᄜ 1
ᄝ 1
ᄞ 1
ᄟ 1
ᄠ 1
ᄡ 1
ᄢ 1
ᄣ 1
ᄤ 1
ᄥ 1
ᄦ 1
ᄧ 1
ᄨ 1
ᄩ 1
ᄪ 1
ᄫ 1
ᄬ 1
ᄭ 1
ᄮ 1
ᄯ 1
ᄰ 1
ᄱ 1
ᄲ 1
ᄳ 1
ᄴ 1
ᄵ 1
ᄶ 1
ᄷ 1
ᄸ 1
ᄹ 1
ᄺ 1
ᄻ 1
ᄼ 1
ᄽ 1
ᄾ 1
ᄿ 1
ᅀ 1
ᅁ 1
ᅂ 1
ᅃ 1
ᅄ 1
ᅅ 1
ᅆ 1
ᅇ 1
ᅈ 1
ᅉ 1
ᅊ 1
ᅋ 1
ᅌ 1
ᅍ 1
ᅎ 1
ᅏ 1
ᅐ 1
ᅑ 1
ᅒ 1
ᅓ 1
ᅔ 1
ᅕ 1
ᅖ 1
ᅗ 1
ᅘ 1
ᅙ 1
ᅚ 1
ᅛ 1
ᅜ 1
ᅝ 1
ᅞ 1
ᅡ 1
ᅢ 1
ᅣ 1
ᅤ 1
ᅥ 1
ᅦ 1
ᅧ 1
ᅨ 1
ᅩ 1
ᅪ 1
ᅫ 1
ᅬ 1
ᅭ 1
ᅮ 1
ᅯ 1
ᅰ 1
ᅱ 1
ᅲ 1
ᅳ 1
ᅴ 1
ᅵ 1
ᅶ 1
ᅷ 1
ᅸ 1
ᅹ 1
ᅺ 1
ᅻ 1
ᅼ 1
ᅽ 1
ᅾ 1
ᅿ 1
ᆀ 1
ᆁ 1
ᆂ 1
ᆃ 1
ᆄ 1
ᆅ 1
ᆆ 1
ᆇ 1
ᆈ 1
ᆉ 1
ᆊ 1
ᆋ 1
ᆌ 1
ᆍ 1
ᆎ 1
ᆏ 1
ᆐ 1
ᆑ 1
ᆒ 1
ᆓ 1
ᆔ 1
ᆕ 1
ᆖ 1
ᆗ 1
ᆘ 1
ᆙ 1
ᆚ 1
ᆛ 1
ᆜ 1
ᆝ 1
ᆞ 1
ᆟ 1
ᆠ 1
ᆡ 1
ᆢ 1
ᆣ 1
ᆤ 1
ᆥ 1
ᆦ 1
ᆧ 1
ᆨ 1
ᆩ 1
ᆪ 1
ᆫ 1
ᆬ 1
ᆭ 1
ᆮ 1
ᆯ 1
ᆰ 1
ᆱ 1
ᆲ 1
ᆳ 1
ᆴ 1
ᆵ 1
ᆶ 1
ᆷ 1
ᆸ 1
ᆹ 1
ᆺ 1
ᆻ 1
ᆼ 1
ᆽ 1
ᆾ 1
ᆿ 1
ᇀ 1
ᇁ 1
ᇂ 1
ᇃ 1
ᇄ 1
ᇅ 1
ᇆ 1
ᇇ 1
ᇈ 1
ᇉ 1
ᇊ 1
ᇋ 1
ᇌ 1
ᇍ 1
ᇎ 1
ᇏ 1
ᇐ 1
ᇑ 1
ᇒ 1
ᇓ 1
ᇔ 1
ᇕ 1
ᇖ 1
ᇗ 1
ᇘ 1
ᇙ 1
ᇚ 1
ᇛ 1
ᇜ 1
ᇝ 1
ᇞ 1
ᇟ 1
ᇠ 1
ᇡ 1
ᇢ 1
ᇣ 1
ᇤ 1
ᇥ 1
ᇦ 1
ᇧ 1
ᇨ 1
ᇩ 1
ᇪ 1
ᇫ 1
ᇬ 1
ᇭ 1
ᇮ 1
ᇯ 1
ᇰ 1
ᇱ 1
ᇲ 1
ᇳ 1
ᇴ 1
ᇵ 1
ᇶ 1
ᇷ 1
ᇸ 1
ᇹ 1
ᇺ 1
ᇻ 1
ᇼ 1
ᇽ 1
ᇾ 1
ᇿ 1
ሀ@@ 1
ሁ@@ 1
ሆ 1
ሆ@@ 1
ሉ 1
ል@@ 1
መ 1
ሙ@@ 1
ሠ 1
ረ 1
ሪ@@ 1
ሮ@@ 1
ሰ 1
ሰ@@ 1
ሱ@@ 1
ሳ 1
ሴ 1
ሶ 1
ሾ@@ 1
ቀ@@ 1
ቂ 1
ቂ@@ 1
ቅ 1
ቈ@@ 1
ቋ 1
ቋ@@ 1
ቡ@@ 1
ተ 1
ቲ@@ 1
ታ 1
ታ@@ 1
ች@@ 1
ነ 1
ነ@@ 1
ኖ@@ 1
አ 1
ኡ@@ 1
ኢ@@ 1
ኣ@@ 1
ኤ@@ 1
እ 1
ከ@@ 1
ኩ@@ 1
ክ 1
ክ@@ 1
ወ@@ 1
ዊ 1
ዊ@@ 1
ዋ@@ 1
ዐ@@ 1
ዜ 1
ደ 1
ዱ@@ 1
ዳ@@ 1
ድ 1
ጀ@@ 1
ጃ@@ 1
ጉ@@ 1
ጋ@@ 1
ጌ@@ 1
ግ 1
ጪ@@ 1
ጫ@@ 1
ጽ@@ 1
ፅ@@ 1
ፈ@@ 1
ፊ@@ 1
ፍ@@ 1
ᐐ@@ 1
ᐠ 1
ᐯ@@ 1
ᑦ 1
ᒃ 1
ᓂ@@ 1
ᕕ@@ 1
ᕗ@@ 1
ᚢ 1
ᚦ 1
ᚦ@@ 1
ᚻ@@ 1
ᚾ@@ 1
ᛗ 1
ᛗ@@ 1
ᛚ 1
ᛚ@@ 1
ខ 1
គ 1
ង@@ 1
ជ@@ 1
ញ 1
ដ@@ 1
ណ@@ 1
ត@@ 1
ផ@@ 1
ហ 1
ហ@@ 1
ា 1
៊ 1
៧ 1
᠌ 1
ᠠ@@ 1
ᠩ@@ 1
ᠭ@@ 1
ᠮ@@ 1
ᠯ 1
ᠯ@@ 1
ᠰ 1
ᠰ@@ 1
ᡤ@@ 1
ᡳ 1
ᡳ@@ 1
ᡵ@@ 1
ᱚ@@ 1
ᱛ@@ 1
ᱞ 1
ᱠ@@ 1
ᱤ@@ 1
ᱥ@@ 1
ᱪ@@ 1
ᱱ@@ 1
ᱲ@@ 1
Ḁ@@ 1
ḇ 1
ḍ 1
Ḏ@@ 1
ḏ@@ 1
Ḑ 1
ḑ 1
ḕ 1
Ḟ 1
Ḡ 1
Ḥ 1
Ḩ 1
ḩ@@ 1
Ḫ 1
ḫ 1
ḷ 1
ḻ@@ 1
Ḿ 1
ḿ@@ 1
ṁ@@ 1
ṛ 1
Ṭ@@ 1
ṯ 1
ẏ@@ 1
Ẑ 1
Ẓ 1
ẓ 1
ẞ 1
ạ 1
ả 1
ất 1
ẫ@@ 1
Ậ@@ 1
ắng 1
ắt 1
Ẹ 1
ẹ 1
ẻ 1
ẽ@@ 1
ế 1
ến 1
ếp 1
ệm 1
ọ 1
ốc 1
ối 1
ống 1
ồn 1
ộ 1
ới 1
ờ 1
ở 1
ợ 1
ủ 1
ủng 1
ừa 1
ử 1
ỳ@@ 1
ỷ 1
ἀ 1
ἁ@@ 1
Ἂ@@ 1
Ἃ@@ 1
Ἆ@@ 1
Ἇ@@ 1
ἒ 1
ἠ 1
ἦ@@ 1
Ἢ@@ 1
Ἣ@@ 1
Ἤ@@ 1
Ἦ@@ 1
Ἧ@@ 1
ἰ 1
ὂ 1
Ὁ 1
Ὄ@@ 1
ὐ 1
ὔ@@ 1
ὖ 1
Ὕ@@ 1
ὤ@@ 1
ὦ 1
Ὡ@@ 1
Ὢ@@ 1
Ὣ@@ 1
Ὤ@@ 1
Ὥ@@ 1
Ὦ 1
Ὦ@@ 1
Ὧ@@ 1
ὲ@@ 1
ὶ@@ 1
ὺ 1
ὺ@@ 1
ὼ 1
ᾅ@@ 1
ᾆ@@ 1
ᾳ 1
Ὰ@@ 1
ῃ 1
Ὴ@@ 1
ῠ@@ 1
ῡ@@ 1
ῳ 1
ῳ@@ 1
ῴ@@ 1
ῶ 1
ῷ@@ 1
Ὼ@@ 1
῾ 1
‗ 1
‥ 1
‧ 1
‼ 1
‽ 1
‿ 1
⁠ 1
⁤ 1
⁻ 1
₅ 1
₈ 1
ₐ@@ 1
₣ 1
₱ 1
₴ 1
₺ 1
ℇ 1
ℝ 1
℞ 1
ℶ@@ 1
⅝ 1
⅞ 1
Ⅲ 1
↲ 1
∂ 1
∊ 1
∘ 1
≅ 1
≙ 1
⊓ 1
⊗ 1
⋯ 1
⌚ 1
⌛ 1
⏱ 1
⏲ 1
⑥ 1
⑦ 1
│ 1
└ 1
┘ 1
◢ 1
◤ 1
☀ 1
☧ 1
☪ 1
☼ 1
♕ 1
♖ 1
♘ 1
♛ 1
♜ 1
♞ 1
⚜ 1
⚰ 1
⚽ 1
⛯ 1
✔ 1
✗ 1
❄ 1
❅ 1
❆ 1
⫶ 1
Ⱋ 1
Ⱬ 1
Ɱ 1
ⲃ@@ 1
ⲡ@@ 1
Ⲧ@@ 1
ⲱ 1
ⲱ@@ 1
ⳝ 1
ⴲ@@ 1
ⴵ@@ 1
ⴸ@@ 1
ⴹ@@ 1
ⴻ 1
ⴾ@@ 1
ⵁ@@ 1
ⵊ 1
ⵯ@@ 1
⸙ 1
〈 1
〉 1
「 1
」 1
ぁ@@ 1
く 1
ぐ 1
そ 1
っ 1
づ 1
ど 1
ぬ 1
ぱ@@ 1
ぷ 1
ぺ@@ 1
ぼ@@ 1
ぽ 1
ょ 1
ゲ 1
ゴ 1
ゾ@@ 1
ニ 1
ピ 1
ポ 1
モ 1
ユ 1
ョ 1
ㄳ 1
ㄴ@@ 1
ㄵ 1
ㄷ@@ 1
ㄺ 1
ㄻ 1
ㄼ 1
ㄾ 1
ㄿ 1
ㅄ 1
ㅅ@@ 1
ㅏ 1
ㅣ 1
ㅺ 1
ㅼ 1
ㅽ 1
ㅾ 1
ㆆ 1
ㆍ 1
㠱@@ 1
专 1
世界 1
丘@@ 1
业 1
业@@ 1
丞@@ 1
严@@ 1
个@@ 1
丰@@ 1
主 1
丽 1
丽@@ 1
举@@ 1
乍 1
乗@@ 1
乱 1
乱@@ 1
乾 1
亀 1
亂 1
于@@ 1
云@@ 1
亘 1
亚 1
亚@@ 1
亜 1
亞@@ 1
亥 1
亦 1
亦@@ 1
亳@@ 1
什@@ 1
介@@ 1
仏@@ 1
仑@@ 1
仔 1
他 1
仙@@ 1
令@@ 1
以 1
仮@@ 1
仰@@ 1
仲 1
份 1
企 1
伊 1
伍@@ 1
伎@@ 1
众@@ 1
伟 1
传@@ 1
伪 1
伴@@ 1
伶 1
住@@ 1
佑 1
佛 1
你 1
佬 1
使@@ 1
來@@ 1
侑@@ 1
依@@ 1
侦@@ 1
係 1
促@@ 1
俐 1
俞@@ 1
俱@@ 1
俺@@ 1
候 1
倚@@ 1
借@@ 1
値 1
倫 1
倶@@ 1
值 1
偏@@ 1
側 1
側@@ 1
偵@@ 1
傑 1
傘 1
備@@ 1
傳 1
像 1
僕 1
僕@@ 1
僖@@ 1
僧 1
儀@@ 1
儋@@ 1
儿@@ 1
充 1
充@@ 1
児@@ 1
兒@@ 1
內 1
全 1
共 1
共@@ 1
共和国 1
兴 1
其@@ 1
具@@ 1
典@@ 1
养@@ 1
冀@@ 1
军@@ 1
农@@ 1
冬 1
冰 1
冴 1
凉@@ 1
凌@@ 1
凛 1
凛@@ 1
凭@@ 1
凯@@ 1
出 1
刀@@ 1
刃 1
刄 1
切 1
刈@@ 1
刊@@ 1
则@@ 1
刚 1
初 1
初@@ 1
别 1
剎 1
剧@@ 1
劃@@ 1
劈@@ 1
办@@ 1
动@@ 1
努@@ 1
劲 1
労@@ 1
势@@ 1
勅 1
務 1
勝 1
勢 1
勤 1
勤@@ 1
勳 1
匀@@ 1
匈@@ 1
匹@@ 1
十 1
升 1
华@@ 1
协@@ 1
卐 1
卑@@ 1
卒 1
卒@@ 1
卓@@ 1
協@@ 1
卢 1
卢@@ 1
卦@@ 1
卯 1
印@@ 1
卵@@ 1
厉 1
厌@@ 1
厕 1
厚@@ 1
厥@@ 1
厦 1
厦@@ 1
县@@ 1
參 1
參@@ 1
又@@ 1
及 1
叔 1
各@@ 1
君@@ 1
吸 1
告 1
味 1
咫 1
咲 1
咲@@ 1
哈 1
員@@ 1
唯@@ 1
唱@@ 1
商 1
問@@ 1
喧@@ 1
喪 1
喫 1
喰 1
喷@@ 1
嗔@@ 1
嗣 1
嘉 1
噠 1
嚈@@ 1
囚 1
四 1
团 1
団@@ 1
図@@ 1
圆 1
圆@@ 1
國際 1
圍@@ 1
圖@@ 1
團 1
圣@@ 1
圭 1
地区 1
地區 1
地方 1
场 1
均 1
坐@@ 1
坚 1
埠 1
培@@ 1
堆 1
報 1
塞@@ 1
境 1
墙@@ 1
墟 1
墨@@ 1
墾@@ 1
壤 1
変@@ 1
夕 1
夜@@ 1
夢@@ 1
大學 1
夷 1
夸 1
奋@@ 1
奎@@ 1
套@@ 1
奚@@ 1
奥 1
奨 1
奭 1
奴 1
奴@@ 1
奶 1
如 1
如@@ 1
妃@@ 1
妈@@ 1
妖@@ 1
妝 1
妥@@ 1
妫@@ 1
妹 1
始@@ 1
姑 1
姑@@ 1
姓 1
委@@ 1
委员会 1
姚@@ 1
姜 1
姜@@ 1
姫 1
姫@@ 1
娃 1
娥 1
娩 1
婦@@ 1
婷 1
婷@@ 1
媯@@ 1
媽@@ 1
嫁@@ 1
嫌@@ 1
嫡@@ 1
嬖 1
嬭 1
存 1
存@@ 1
孟 1
季@@ 1
孫 1
學 1
宇 1
完@@ 1
定 1
宜 1
宝 1
实@@ 1
宣 1
室@@ 1
宦 1
宦@@ 1
宫@@ 1
宰@@ 1
害 1
寄@@ 1
寇 1
富 1
寐 1
寛@@ 1
察 1
察@@ 1
寢@@ 1
寰 1
对 1
对@@ 1
射@@ 1
將@@ 1
尊 1
尋@@ 1
少 1
尔 1
尖@@ 1
尙@@ 1
尚 1
尝 1
尤 1
尧 1
就 1
尹@@ 1
尺@@ 1
尻@@ 1
尽 1
层 1
屈 1
届@@ 1
屠@@ 1
屬@@ 1
岑@@ 1
岛 1
岬 1
岳@@ 1
岸 1
峡 1
峪@@ 1
峯@@ 1
峻@@ 1
峽 1
崋@@ 1
崑@@ 1
崙 1
嶺 1
巡@@ 1
巢@@ 1
巣 1
巣@@ 1
巧@@ 1
巩@@ 1
巫 1
差@@ 1
己 1
己@@ 1
巻@@ 1
帕@@ 1
席@@ 1
帯@@ 1
帰@@ 1
幡 1
幡@@ 1
幫 1
干 1
并@@ 1
幹@@ 1
庄 1
庄@@ 1
序@@ 1
应 1
应@@ 1
店@@ 1
庙 1
庚 1
庚@@ 1
度 1
座@@ 1
庫 1
庸 1
廊 1
廊@@ 1
廟 1
廷@@ 1
建 1
开 1
弄@@ 1
弊@@ 1
弔 1
引@@ 1
弟@@ 1
张 1
張 1
強 1
強@@ 1
弾 1
彌@@ 1
彩 1
彬 1
役 1
律 1
徐 1
徭@@ 1
徹 1
徹@@ 1
徽@@ 1
忌 1
忍 1
応@@ 1
怀 1
怡 1
急 1
怪@@ 1
总@@ 1
恊@@ 1
恕 1
恩 1
恬 1
息 1
悌 1
悟@@ 1
患@@ 1
悦@@ 1
悼 1
情@@ 1
惡@@ 1
惧@@ 1
想@@ 1
愈 1
意 1
慕@@ 1
慰 1
慰@@ 1
憚@@ 1
憶@@ 1
懋 1
懐@@ 1
懷@@ 1
懿@@ 1
戀@@ 1
戆@@ 1
戌@@ 1
戎 1
戒 1
戒@@ 1
战 1
才 1
扎 1
打@@ 1
批@@ 1
技 1
抗@@ 1
抱@@ 1
拉 1
拓 1
拔@@ 1
招@@ 1
拿 1
持@@ 1
挑@@ 1
挥 1
振 1
挺 1
捒 1
捨@@ 1
排@@ 1
推 1
推@@ 1
提 1
揚@@ 1
握@@ 1
揭@@ 1
携 1
摠@@ 1
摸@@ 1
擂@@ 1
操 1
操@@ 1
收@@ 1
改@@ 1
效 1
敎 1
救 1
散@@ 1
数@@ 1
整@@ 1
敵@@ 1
敶 1
敷 1
敷@@ 1
數 1
斉 1
斉@@ 1
斑@@ 1
料@@ 1
斯 1
於 1
於@@ 1
旄@@ 1
旅@@ 1
旬 1
时@@ 1
旽 1
昌 1
昙@@ 1
映 1
是@@ 1
昴 1
昶 1
昺 1
時 1
晉 1
普 1
晶 1
曲@@ 1
曹@@ 1
曺 1
曺@@ 1
曾 1
替 1
替@@ 1
朋 1
朗@@ 1
期 1
未 1
朴@@ 1
机 1
李 1
杖 1
杜@@ 1
板 1
板@@ 1
极@@ 1
枕@@ 1
枝 1
架 1
枹 1
柏 1
柱 1
柿@@ 1
栀@@ 1
栄 1
栎 1
树 1
核@@ 1
桂 1
案 1
桐@@ 1
桑@@ 1
桓@@ 1
梠 1
梧@@ 1
械 1
棚 1
棚@@ 1
棟@@ 1
棣 1
棣@@ 1
棩 1
棱 1
植 1
椎@@ 1
検@@ 1
椿@@ 1
楊 1
楊@@ 1
楚@@ 1
楠 1
楢 1
楽@@ 1
榎@@ 1
榮 1
槃 1
槇@@ 1
構 1
槌 1
槍 1
槙@@ 1
樣@@ 1
樫 1
橘@@ 1
檜@@ 1
櫻@@ 1
欢@@ 1
歳 1
歴@@ 1
殷 1
殺 1
殺@@ 1
毅@@ 1
毎@@ 1
毒@@ 1
毓@@ 1
比 1
毕@@ 1
汁@@ 1
汉 1
汐 1
汕@@ 1
汝 1
汤 1
汪@@ 1
汰 1
沃 1
沅 1
沈@@ 1
沉 1
沌@@ 1
沐@@ 1
沟@@ 1
没 1
没@@ 1
沧@@ 1
沱@@ 1
沸@@ 1
油 1
油@@ 1
沼 1
沼@@ 1
泊@@ 1
泠 1
泣@@ 1
泥 1
泳@@ 1
泾 1
洗 1
洛 1
津 1
活 1
洽 1
浜 1
浪 1
浮 1
浮@@ 1
涅@@ 1
涉@@ 1
涛 1
液@@ 1
涼 1
涿@@ 1
淑@@ 1
淫 1
淵 1
淸@@ 1
渇@@ 1
渡 1
湖@@ 1
湘@@ 1
湛@@ 1
湯 1
湯@@ 1
湾@@ 1
源 1
溪@@ 1
滁@@ 1
滉@@ 1
滋@@ 1
滝 1
满 1
满@@ 1
滨@@ 1
滹@@ 1
滿 1
漁 1
漂@@ 1
漫 1
漬 1
潔@@ 1
潘 1
潜 1
潤@@ 1
澀@@ 1
澄 1
澍 1
澎@@ 1
澤 1
激@@ 1
瀧 1
瀬 1
灌@@ 1
火 1
灭 1
灰@@ 1
灵@@ 1
灸 1
灸@@ 1
炮@@ 1
点@@ 1
烂 1
烏@@ 1
焞 1
焦@@ 1
然 1
焼@@ 1
煌@@ 1
煙 1
煥 1
照 1
照@@ 1
熙 1
燎 1
燕@@ 1
營@@ 1
燭 1
燮 1
燿@@ 1
爆 1
爱 1
爵 1
爾@@ 1
牙@@ 1
牛@@ 1
牟@@ 1
牧@@ 1
特 1
犁 1
犖 1
犬 1
犬@@ 1
犯@@ 1
状 1
狮 1
狮@@ 1
狱 1
狸@@ 1
狼 1
猊 1
猊@@ 1
猪 1
猿@@ 1
獄 1
獅@@ 1
獨@@ 1
獻 1
环@@ 1
玻@@ 1
珉 1
珉@@ 1
珥 1
理 1
琢 1
琳 1
琴@@ 1
琵@@ 1
琶@@ 1
琼@@ 1
瑞 1
瑟@@ 1
瑪@@ 1
璃@@ 1
璠 1
環@@ 1
瓢@@ 1
瓮 1
瓯 1
瓶@@ 1
甌 1
甕@@ 1
用 1
甲 1
申@@ 1
电 1
町@@ 1
画@@ 1
界 1
畏 1
畑@@ 1
留@@ 1
略 1
略@@ 1
異 1
疗 1
疗@@ 1
疫@@ 1
疾@@ 1
病 1
療 1
癋@@ 1
皐 1
盂@@ 1
益 1
监 1
盤@@ 1
盧 1
眾@@ 1
睦@@ 1
瞬@@ 1
瞳 1
瞻@@ 1
矩 1
短@@ 1
砂@@ 1
砲 1
破 1
破@@ 1
砾 1
碑@@ 1
碩 1
磨 1
磨@@ 1
磯@@ 1
礁@@ 1
礎 1
示 1
祀@@ 1
祈 1
祓@@ 1
祭@@ 1
祹 1
祿@@ 1
禅 1
禅@@ 1
禎 1
禎@@ 1
禪 1
私 1
秋 1
种 1
种@@ 1
秘 1
秦 1
称 1
称@@ 1
稀 1
程@@ 1
稔@@ 1
稠 1
稼@@ 1
穿 1
穿@@ 1
突 1
窗 1
窿 1
竣@@ 1
端 1
竹 1
笔 1
笙 1
第一@@ 1
第二@@ 1
筆 1
管理 1
箭 1
箱@@ 1
範@@ 1
籃 1
籍 1
籠 1
粋 1
粋@@ 1
粕@@ 1
粲 1
粹 1
精 1
糠 1
紋@@ 1
納 1
紙 1
紙@@ 1
級@@ 1
素@@ 1
紫 1
紳@@ 1
終 1
終@@ 1
経@@ 1
結 1
絞@@ 1
絢@@ 1
統 1
統@@ 1
絵 1
綏 1
綏@@ 1
綠 1
総 1
緒 1
線@@ 1
緬@@ 1
縁 1
縁@@ 1
縣@@ 1
繡@@ 1
纏@@ 1
红 1
红@@ 1
级@@ 1
纲 1
纸@@ 1
线 1
织 1
结@@ 1
络 1
统 1
绣 1
绣@@ 1
维 1
维@@ 1
绿@@ 1
缘@@ 1
缠@@ 1
罐 1
置@@ 1
罰@@ 1
署 1
羆 1
群@@ 1
羨@@ 1
羲 1
羽 1
翠 1
翰@@ 1
老 1
考@@ 1
而 1
耕 1
聯@@ 1
聰 1
聴@@ 1
職@@ 1
肠 1
股 1
肥 1
背 1
背@@ 1
胜@@ 1
脏 1
脏@@ 1
脚 1
脷@@ 1
脸 1
腕@@ 1
腸 1
臟 1
臟@@ 1
致@@ 1
臺 1
與 1
與@@ 1
興 1
舊@@ 1
舎@@ 1
舐 1
舛@@ 1
航 1
般 1
船@@ 1
艦 1
艾 1
节 1
节@@ 1
芈 1
芋@@ 1
芎 1
芙 1
芜@@ 1
芬 1
芳 1
芸 1
芽 1
苏 1
苑@@ 1
茶 1
荆 1
荆@@ 1
荊@@ 1
荒 1
荔@@ 1
荷 1
莆@@ 1
莉 1
莽 1
菁@@ 1
菊 1
菠@@ 1
菱 1
萊@@ 1
萌 1
萌@@ 1
萨@@ 1
葉 1
董 1
董@@ 1
蒋 1
蒋@@ 1
蒲 1
蒲@@ 1
蓉 1
蓉@@ 1
蓋@@ 1
蓝@@ 1
蓬 1
蔵@@ 1
蕃 1
蕪@@ 1
薄@@ 1
薇 1
薇@@ 1
薙 1
薩 1
薩@@ 1
薬 1
藝 1
藝@@ 1
藩@@ 1
蘿@@ 1
虎@@ 1
處@@ 1
虚 1
虚@@ 1
虛@@ 1
虞 1
號@@ 1
虫 1
蚌@@ 1
蚩@@ 1
蛇@@ 1
蛮@@ 1
蜃 1
蝙@@ 1
融@@ 1
螠@@ 1
螢@@ 1
蟲 1
血 1
衍@@ 1
衛 1
衝@@ 1
衡@@ 1
表 1
表@@ 1
袁@@ 1
袋 1
袋@@ 1
被 1
裂 1
裔@@ 1
要@@ 1
規 1
視@@ 1
覚 1
親 1
觀@@ 1
观@@ 1
览@@ 1
訓 1
訓@@ 1
許@@ 1
訶@@ 1
詔 1
詞 1
試@@ 1
誅 1
誉 1
誉@@ 1
誌 1
説 1
諭@@ 1
諺@@ 1
諾@@ 1
謎@@ 1
謨@@ 1
譚 1
譜 1
議 1
譲@@ 1
護 1
议 1
记 1
许@@ 1
论 1
论@@ 1
设 1
识@@ 1
试@@ 1
话 1
豐 1
豐@@ 1
貅 1
貔@@ 1
貙 1
貞@@ 1
財@@ 1
貢 1
貢@@ 1
貨@@ 1
賀 1
資 1
賜 1
賜@@ 1
賽 1
贛@@ 1
贝 1
贡 1
贤 1
费 1
资@@ 1
赛@@ 1
赣@@ 1
超@@ 1
跌@@ 1
跡 1
蹴@@ 1
軌@@ 1
軒 1
転@@ 1
輪 1
輸 1
輿 1
轉@@ 1
车 1
轮 1
轮@@ 1
辅 1
辞@@ 1
辰@@ 1
迁@@ 1
迎 1
运 1
近 1
返@@ 1
进 1
迪 1
述@@ 1
迷 1
送 1
适 1
逅 1
逊 1
造 1
週@@ 1
逸@@ 1
遇@@ 1
遊@@ 1
運 1
運@@ 1
達 1
選@@ 1
遼 1
邂@@ 1
還 1
邊@@ 1
邓@@ 1
邕 1
邢@@ 1
邪 1
邵 1
郞 1
郸 1
郸@@ 1
鄂 1
鄒 1
鄭@@ 1
鄱@@ 1
配@@ 1
酓 1
酷 1
酸 1
醍@@ 1
醐@@ 1
醤@@ 1
量@@ 1
釘@@ 1
釜@@ 1
釵 1
鉄 1
鉉 1
鉦 1
銀 1
銃 1
銃@@ 1
銭@@ 1
鋼@@ 1
錦@@ 1
錫 1
錫@@ 1
錬@@ 1
鍋@@ 1
鍾@@ 1
鎌@@ 1
鎖@@ 1
鎭 1
鏘 1
鏡 1
鏡@@ 1
鐘@@ 1
鐵@@ 1
鐸 1
鑒@@ 1
钓@@ 1
钟 1
钦 1
钦@@ 1
铁路 1
開 1
闇@@ 1
闕 1
闕@@ 1
闘 1
關 1
闪@@ 1
间 1
闽@@ 1
阁@@ 1
队 1
阪@@ 1
阶@@ 1
阿 1
陀@@ 1
陁 1
际 1
陆 1
陇@@ 1
降@@ 1
除@@ 1
陪@@ 1
陸 1
険@@ 1
隈@@ 1
隊@@ 1
隘 1
際@@ 1
隠 1
隨@@ 1
險@@ 1
隸 1
隼 1
隼@@ 1
难 1
雀@@ 1
雜@@ 1
離@@ 1
難@@ 1
雨@@ 1
雫 1
雯 1
雲 1
雲@@ 1
零 1
零@@ 1
雷 1
電影 1
霞 1
霧 1
露@@ 1
霸 1
靈 1
静@@ 1
靜@@ 1
靝 1
非 1
面@@ 1
靼@@ 1
鞅 1
鞠 1
韃@@ 1
韦@@ 1
韩 1
韶@@ 1
韻@@ 1
響 1
須 1
須@@ 1
頓 1
頼@@ 1
顔 1
顕 1
顗 1
類 1
顯 1
顾@@ 1
颁@@ 1
预@@ 1
领@@ 1
餅 1
餓@@ 1
餘 1
館@@ 1
饥@@ 1
首 1
馨 1
駐@@ 1
駒@@ 1
騎@@ 1
騨@@ 1
驗@@ 1
驚@@ 1
驪 1
驪@@ 1
马 1
骅 1
骨@@ 1
髙@@ 1
魁 1
魂@@ 1
魔 1
魚 1
鮎@@ 1
鮭 1
鮭@@ 1
鯨@@ 1
鰒 1
鱈@@ 1
鱲 1
鱼@@ 1
鲀 1
鲜@@ 1
鴨@@ 1
鵜@@ 1
鵰@@ 1
鶴@@ 1
鷄 1
鷄@@ 1
鷺@@ 1
鸥 1
鹊@@ 1
鹏@@ 1
麵 1
麺 1
黄 1
點@@ 1
鼎 1
鼎@@ 1
鼓 1
齋 1
齐 1
齢 1
龜@@ 1
Ꙕ 1
ꙕ 1
ꜣ@@ 1
Ɡ 1
ꥠ 1
ꥡ 1
ꥢ 1
ꥣ 1
ꥤ 1
ꥥ 1
ꥦ 1
ꥧ 1
ꥨ 1
ꥩ 1
ꥪ 1
ꥫ 1
ꥬ 1
ꥭ 1
ꥮ 1
ꥯ 1
ꥰ 1
ꥱ 1
ꥲ 1
ꥳ 1
ꥴ 1
ꥵ 1
ꥶ 1
ꥷ 1
ꥸ 1
ꥹ 1
ꥺ 1
ꥻ 1
ꥼ 1
ꦁ 1
ꦪ@@ 1
ꦮ@@ 1
간 1
간@@ 1
감 1
갑@@ 1
개 1
거@@ 1
걷@@ 1
검@@ 1
견@@ 1
결 1
결@@ 1
곡@@ 1
곰 1
광 1
괘@@ 1
굴 1
굿 1
궐 1
궐@@ 1
귀 1
귀@@ 1
극 1
귿 1
글@@ 1
금 1
급 1
길 1
길@@ 1
김 1
낙@@ 1
난 1
난@@ 1
납@@ 1
너@@ 1
녀@@ 1
념@@ 1
녕@@ 1
녹@@ 1
논@@ 1
놀@@ 1
눌 1
늬 1
늬@@ 1
님@@ 1
닛 1
닥@@ 1
단 1
닭 1
닮@@ 1
당@@ 1
더@@ 1
덤 1
덩@@ 1
뎌@@ 1
독 1
돈 1
돈@@ 1
등 1
딩 1
따@@ 1
떠@@ 1
떡@@ 1
뜸 1
래@@ 1
랙@@ 1
램 1
램@@ 1
랩@@ 1
략 1
량 1
러@@ 1
런 1
런@@ 1
럽 1
레 1
령 1
례 1
례@@ 1
록 1
롯@@ 1
롱@@ 1
뢰 1
룡 1
루@@ 1
류 1
륙@@ 1
르 1
립@@ 1
릿 1
링 1
막@@ 1
많@@ 1
맨 1
맨@@ 1
멍@@ 1
멱@@ 1
명 1
못@@ 1
물 1
뮤@@ 1
바 1
반 1
반@@ 1
밤@@ 1
배 1
뱅 1
버 1
번@@ 1
범 1
범@@ 1
법@@ 1
벽 1
별 1
봄@@ 1
봉@@ 1
불 1
붉@@ 1
붐 1
붐@@ 1
뷸@@ 1
블 1
빅@@ 1
빈@@ 1
빛 1
빛@@ 1
쁜 1
삼 1
새 1
세 1
소 1
속@@ 1
손@@ 1
쇄 1
술 1
쉬 1
습@@ 1
승 1
심 1
싸@@ 1
쌀@@ 1
쌈 1
쌍 1
쓰@@ 1
쓸@@ 1
씽@@ 1
암@@ 1
앙 1
애 1
애@@ 1
앰@@ 1
얄@@ 1
어@@ 1
억 1
얼@@ 1
엄@@ 1
었@@ 1
엑@@ 1
엘@@ 1
엠 1
열 1
열@@ 1
염 1
엽@@ 1
옥 1
온 1
온@@ 1
옷 1
왈@@ 1
왔@@ 1
외 1
용@@ 1
욱 1
웅 1
웨@@ 1
윈 1
육@@ 1
윤 1
율 1
윷@@ 1
윽 1
은 1
읃 1
읍 1
읏 1
응@@ 1
입@@ 1
잇@@ 1
잉 1
잼@@ 1
쟁 1
저@@ 1
적 1
존@@ 1
좌 1
쥬@@ 1
즈 1
증 1
집 1
째 1
찌 1
찬 1
찬@@ 1
참 1
참@@ 1
채@@ 1
책 1
처@@ 1
척@@ 1
철@@ 1
첨@@ 1
첫 1
체@@ 1
촌 1
총@@ 1
추 1
출 1
출@@ 1
춤 1
충 1
취@@ 1
츠@@ 1
친 1
침@@ 1
카 1
컸@@ 1
케@@ 1
켓 1
콘 1
쿨 1
쿨@@ 1
크@@ 1
클 1
클@@ 1
키 1
타@@ 1
탁@@ 1
탑 1
터 1
퇴@@ 1
특 1
티@@ 1
팝 1
팝@@ 1
페@@ 1
평 1
평@@ 1
폴@@ 1
품@@ 1
풍@@ 1
픈@@ 1
핑@@ 1
함 1
함@@ 1
항 1
했@@ 1
행 1
행@@ 1
향 1
향@@ 1
혈@@ 1
형 1
형@@ 1
혜 1
혹@@ 1
혼 1
혼@@ 1
홍 1
환 1
획@@ 1
효 1
훈 1
휘 1
흑@@ 1
흡 1
희@@ 1
히 1
ힰ 1
ힱ 1
ힲ 1
ힳ 1
ힴ 1
ힵ 1
ힶ 1
ힷ 1
ힸ 1
ힹ 1
ힺ 1
ힻ 1
ힼ 1
ힽ 1
ힾ 1
ힿ 1
ퟀ 1
ퟁ 1
ퟂ 1
ퟃ 1
ퟄ 1
ퟅ 1
ퟆ 1
ퟋ 1
ퟌ 1
ퟍ 1
ퟎ 1
ퟏ 1
ퟐ 1
ퟑ 1
ퟒ 1
ퟓ 1
ퟔ 1
ퟕ 1
ퟖ 1
ퟗ 1
ퟘ 1
ퟙ 1
ퟚ 1
ퟛ 1
ퟜ 1
ퟝ 1
ퟞ 1
ퟟ 1
ퟠ 1
ퟡ 1
ퟢ 1
ퟣ 1
ퟤ 1
ퟥ 1
ퟦ 1
ퟧ 1
ퟨ 1
ퟩ 1
ퟪ 1
ퟫ 1
ퟬ 1
ퟭ 1
ퟮ 1
ퟯ 1
ퟰ 1
ퟱ 1
ퟲ 1
ퟳ 1
ퟴ 1
ퟵ 1
ퟶ 1
ퟷ 1
ퟸ 1
ퟹ 1
ퟺ 1
ퟻ 1
︠ 1
︡ 1
－ 1
３@@ 1
＝ 1
？ 1
＠ 1
Ｚ 1
𐎁@@ 1
𐎊 1
𐎗@@ 1
𐎛@@ 1
𐎡 1
𐎢@@ 1
𐎦@@ 1
𐎱@@ 1
𐤀@@ 1
𐤇@@ 1
𐤉@@ 1
𐤊@@ 1
𐤌 1
𐤍 1
𐤎@@ 1
𐤐@@ 1
𐤓 1
𐩣@@ 1
𐩤@@ 1
𐩨@@ 1
𐩩@@ 1
𐩫 1
𐩲@@ 1
𐩵@@ 1
𐩹@@ 1
𐭠@@ 1
𐭣@@ 1
𐭦@@ 1
𐭩@@ 1
𐭫@@ 1
𐭬@@ 1
𐭮@@ 1
𐭯@@ 1
𑀁 1
𑀁@@ 1
𑀤@@ 1
𑀥@@ 1
𑀦@@ 1
𑀧@@ 1
𑀫@@ 1
𑀮@@ 1
𑀺 1
𑀺@@ 1
𒀀 1
𒀉@@ 1
𒀪@@ 1
𒀭 1
𒁁 1
𒂍@@ 1
𒂗@@ 1
𒃲 1
𒃲@@ 1
𒅍 1
𒅎@@ 1
𒅕@@ 1
𒆗 1
𒆥@@ 1
𒇉 1
𒈗 1
𒈗@@ 1
𒈝 1
𒉅@@ 1
𒉈@@ 1
𒉌@@ 1
𒉡@@ 1
𒋀 1
𒋀@@ 1
𒋫 1
𒋼@@ 1
𒌅@@ 1
𒌨@@ 1
𒍝@@ 1
𓈈 1
𝑣 1
𝑥 1
𞹪@@ 1
🀄 1
🇩 1
🇸 1
🌊 1
🌌 1
🌎 1
🌨 1
🌬 1
🌲 1
🎁 1
🎗 1
🎨 1
🎭 1
🎲 1
🎳 1
🏂 1
🏆 1
🏌 1
🏍 1
🏏 1
🏓 1
🏕 1
🏗 1
🏘 1
🏜 1
🏝 1
🏦 1
🏩 1
🏫 1
🏰 1
💫 1
💮 1
🔵 1
🔻 1
🕋 1
🕌 1
🕍 1
🕐 1
🕛 1
🕜 1
🖒 1
🗽 1
😂 1
🚄 1
🚅 1
🚆 1
🚍 1
🚜 1
🚫 1
🚰 1
🚲 1
🚴 1
🚽 1
🚾 1
🛇 1
🛋 1
🛎 1
🜨 1
🤍 1
🧄 1
