, 40383438
. 39153293
в 24685105
и 17585513
на 11135294
@-@ 9276523
) 8384807
( 8361292
— 7948827
с 7810223
« 7199178
» 7195185
с@@ 6207621
м 6082958
по@@ 5943148
В 5842455
л 5576669
у@@ 5421470
в@@ 5412517
е 5273328
к 5232639
ль@@ 5203327
о@@ 5055400
не@@ 4738728
й 4719229
ро@@ 4657754
года 4643830
т@@ 4573959
ре@@ 4492146
за@@ 4480201
на@@ 4356194
со@@ 4299611
&quot; 4295802
ной 4274594
д@@ 4242946
ни@@ 4194538
т 4158769
не 4130126
ли@@ 4068935
но@@ 4058641
м@@ 3789782
до@@ 3765581
у 3730170
ле@@ 3728108
но 3716631
ла 3713240
й@@ 3685145
н 3673301
про@@ 3651293
н@@ 3613827
х 3600314
ко@@ 3564608
ных 3545050
ы 3525901
при@@ 3520901
ли 3511296
году 3503865
мо@@ 3464415
ного 3463734
я 3457753
ри@@ 3455133
ка@@ 3426651
по 3425673
э@@ 3394908
л@@ 3392015
ж@@ 3390666
ва@@ 3357104
р 3322762
С@@ 3302228
ло@@ 3292340
ч@@ 3255892
де@@ 3245938
вы@@ 3241231
ра@@ 3207121
ви@@ 3160340
ской 3160006
з@@ 3122697
ный 3104409
ского 3099892
ш@@ 3015846
ка 2971192
во@@ 2927039
г@@ 2911983
к@@ 2890300
ные 2886294
ве@@ 2869184
из 2842356
го@@ 2806940
и@@ 2801407
б@@ 2779347
А@@ 2778024
ки 2761877
я@@ 2686790
ти@@ 2675264
ю 2666032
ский 2655017
а@@ 2617714
та 2617213
О@@ 2587268
то@@ 2571258
се@@ 2566832
ми 2541425
р@@ 2499287
да@@ 2475636
ь@@ 2466958
е@@ 2456719
: 2446409
ма@@ 2433783
та@@ 2415342
а 2392879
о 2388233
п@@ 2387296
был 2347262
те@@ 2321115
ет 2313801
от@@ 2305897
ди@@ 2275623
ции 2246639
ст@@ 2242251
ме@@ 2241297
за 2229234
ном 2216768
ру@@ 2215597
че@@ 2204595
бо@@ 2192823
нии 2191928
ё@@ 2188074
д 2187688
от 2179307
К@@ 2143628
ния 2107904
что 2073403
сто@@ 2071902
И@@ 2070552
В@@ 2061962
ла@@ 2031409
ми@@ 2030391
ная 2022625
ан@@ 1991786
ра 1986659
Д@@ 1981082
лся 1978613
пере@@ 1971293
ь 1955646
си@@ 1948600
чи@@ 1927502
ча@@ 1905027
х@@ 1897173
ен@@ 1861762
ф@@ 1860686
Г@@ 1853947
го 1840030
ля@@ 1832839
ль 1829343
ин@@ 1824117
па@@ 1804132
ны 1802138
г 1791287
ным 1790836
га@@ 1783983
ы@@ 1775256
ло 1739838
са@@ 1731482
его 1730272
да 1730095
ю@@ 1720706
для 1708347
У@@ 1669265
ке 1663179
как 1653744
П@@ 1653097
он 1647878
пре@@ 1631281
М@@ 1610906
под@@ 1609135
ние 1604003
Т@@ 1602834
ства 1597627
; 1590221
об@@ 1589583
Э@@ 1584076
хо@@ 1578326
до 1574294
зо@@ 1523559
же@@ 1518103
бе@@ 1515175
ста@@ 1511929
ше@@ 1506740
жи@@ 1506323
ний 1505396
ги@@ 1498703
ц@@ 1481985
вер@@ 1479509
ется 1476256
из@@ 1474203
пер@@ 1473210
Б@@ 1469603
ма 1464565
ное 1455810
ар@@ 1445131
По@@ 1439408
ности 1419296
пе@@ 1415038
су@@ 1411579
ку@@ 1408522
ская 1408247
пи@@ 1393095
кон@@ 1389194
аль@@ 1389127
ду@@ 1375574
же 1372711
С 1367931
ба@@ 1367146
ва 1365836
вой 1365214
ть 1352484
те 1344798
ле 1333111
ют 1326944
раз@@ 1324492
том 1323296
ще@@ 1322042
ских 1314086
пу@@ 1297168
Ка@@ 1284786
ать 1282975
во 1277741
би@@ 1274472
мен@@ 1264643
ском 1261716
ную 1247682
ат@@ 1241715
ку 1227305
воз@@ 1217929
са 1201729
де 1174901
Ф@@ 1170170
це@@ 1169410
Р@@ 1158374
Ко@@ 1154479
ство 1154229
Со@@ 1153112
ки@@ 1152849
ци@@ 1152312
рас@@ 1140205
ер@@ 1139751
лись 1135303
ром 1132893
также 1132669
ров 1130755
ре 1125216
ор@@ 1124563
сти@@ 1116244
ши@@ 1109876
ность 1107254
нию 1087040
жа@@ 1084329
нием 1083304
рова@@ 1069284
лась 1065008
1 1064690
ков 1059333
ты 1058574
га 1058201
ти 1050349
была 1044685
ля 1042125
были 1038844
Л@@ 1022345
ря@@ 1018383
Н@@ 1012378
ствен@@ 1009832
то 1009097
му@@ 1001105
лен@@ 1000269
зи@@ 998186
2 995004
ить 994906
было 979426
На@@ 973380
стра@@ 964925
му 959386
од@@ 957340
время 953158
щи@@ 950177
ит@@ 945009
ными 944701
пол@@ 941415
тов 933902
ско@@ 927152
или 922280
лу@@ 922242
ко 915624
ге@@ 912520
тре@@ 905697
кой 902388
ме 899163
ды 897305
З@@ 890283
лю@@ 888803
зна@@ 888153
ту@@ 886957
ён@@ 886615
сти 883175
Е@@ 879015
ник 875712
гра@@ 875692
бу@@ 870992
лось 870277
ры@@ 864665
при 862860
ские 862720
ское 856206
з 846040
сть 843571
Ма@@ 838781
́ 829146
гу@@ 826303
фи@@ 825504
нов 822417
боль@@ 820496
ни 817714
он@@ 817001
ция 813877
пред@@ 811055
сло@@ 810068
рии 808728
жен@@ 807075
ются 806368
ью 806011
ления 805932
ты@@ 804769
ня@@ 804296
мы 800002
ров@@ 797519
3 794117
ну@@ 789112
ден@@ 786172
ск@@ 785407
ду 784736
ц 782349
вых 780838
ска@@ 772499
5 762063
ак@@ 761918
стро@@ 754880
итель@@ 752691
цы 751472
после 746740
ал@@ 742989
Во@@ 741909
Са@@ 741596
Х@@ 736535
мат@@ 730552
кра@@ 722638
име@@ 720933
соб@@ 717339
щ@@ 715462
ато@@ 714813
4 709574
Се@@ 708405
Ч@@ 707930
ца 707718
она 707557
вания 705665
ха@@ 702849
ским 702347
сте@@ 702047
ве 700291
На 699814
ате@@ 698868
ков@@ 688702
ран@@ 683052
гла@@ 681448
более 679931
Ле@@ 678583
их 677101
кла@@ 676660
вод@@ 675150
ша@@ 674950
обще@@ 674694
А 673552
ст 671797
ем 671136
вши@@ 665393
Ш@@ 664489
вал 661503
ры 659574
сь 657299
под 655254
По 649031
ей 647387
нов@@ 647073
За@@ 646760
Бо@@ 644346
области 634561
фе@@ 633518
хи@@ 632726
фа@@ 632609
сси@@ 627549
ги 627407
Та@@ 626303
дов 626052
бы@@ 625233
сво@@ 623978
фор@@ 622488
зе@@ 621316
ён 617404
ком 617072
/ 616565
того 614525
вого 613455
ге 612980
сы@@ 612300
% 609914
лей 607081
льной 603519
ход@@ 600506
Ан@@ 600398
ника 597469
К 597348
где 596875
Ку@@ 596557
ос@@ 596178
дан@@ 593883
её 593368
км 592557
лет 590089
6 588432
объ@@ 586033
вя@@ 585824
который 584417
мы@@ 584333
них 583472
Я@@ 582630
вич 580990
которые 579741
нача@@ 575546
дом 573389
вая 573003
уч@@ 571600
ься 568533
ство@@ 565928
цион@@ 563152
ников 563022
Ра@@ 562397
се 562081
со 560642
После 556700
само@@ 553047
лы@@ 549937
авто@@ 549783
пар@@ 549185
мер@@ 547492
сту@@ 547029
лё@@ 545436
Не@@ 544551
слу@@ 543408
скую 542443
стал 541161
ление 541128
ав@@ 540463
год 540449
это 539877
иг@@ 538934
ур@@ 538664
каза@@ 537296
бра@@ 537002
им@@ 534800
обо@@ 533438
ях 532913
ди 532820
Ар@@ 531721
род@@ 530403
цент@@ 529358
льно 527308
Пер@@ 526903
вой@@ 524724
льного 523473
Ж@@ 523437
цию 523187
тив@@ 522519
дне@@ 522407
ща@@ 520062
вый 514811
России 514420
рен@@ 513456
рус@@ 512391
ет@@ 507878
тра@@ 507461
вые 507150
является 506568
7 505910
ходит 505302
Ба@@ 504652
игра@@ 504198
8 503978
зан@@ 503411
бы 503150
вать 502193
ван@@ 501414
тер@@ 501164
ата@@ 501022
коман@@ 500849
спо@@ 499643
доро@@ 497996
Ви@@ 497800
фо@@ 497767
мест@@ 497686
нима@@ 496655
Ю@@ 495774
жение 495525
ри 495268
поло@@ 495265
став@@ 494467
льный 494077
ман@@ 493928
пис@@ 492216
п 490770
так 490413
ту 490369
жения 490205
Па@@ 489847
тур@@ 489379
Де@@ 489045
Ц@@ 486583
17@@ 485331
вым 484853
Ре@@ 484347
дви@@ 483764
ев 482216
ье 480360
ера 480348
ше 478877
свя@@ 478027
ита@@ 477917
Про@@ 477352
кто@@ 476654
эк@@ 476537
глав@@ 475308
окру@@ 475062
б 474937
тель@@ 474635
ати@@ 473908
лин@@ 473707
ба 470959
лан@@ 469295
человек 469253
ис@@ 469220
Ми@@ 468716
ья 468238
вра@@ 467763
состоя@@ 467349
воен@@ 466467
ся 465498
состав 464536
10 464383
Мо@@ 463534
ч 461863
ких 461348
ев@@ 460936
ке@@ 460327
дар@@ 456093
ками 455979
куль@@ 454588
ней 454059
льных 453164
ня 452502
ёр@@ 451946
долж@@ 451929
ё 451888
тан@@ 451523
язы@@ 451308
коро@@ 450231
кан@@ 449998
&amp; 446722
спе@@ 445520
тиче@@ 445174
основ@@ 445112
лом 444480
Ки@@ 443099
сель@@ 443082
извест@@ 440821
гу 440319
Го@@ 440026
Бе@@ 440011
9 439823
ины 438425
ках 437202
чен@@ 436972
лек@@ 436291
вен@@ 436277
им 435909
ниче@@ 434977
Си@@ 434776
созда@@ 434708
прав@@ 434582
тся 434507
йской 434350
То@@ 433925
Ро@@ 433689
мар@@ 433328
обла@@ 432481
сов 430503
только 427296
.@@ 426607
сер@@ 426430
она@@ 426400
ним 426286
част@@ 426166
кар@@ 426108
И 425943
вали 425618
ходи@@ 424914
ком@@ 424618
города 424329
рия 424108
ём 423479
лов 423120
которых 421849
тя@@ 420684
кре@@ 418445
чи 418202
восто@@ 418080
тро@@ 417198
лен 416134
Ли@@ 415706
ян@@ 415537
образо@@ 415031
ющи@@ 414171
смо@@ 413241
лет@@ 411380
ники 410492
лы 410129
высо@@ 409981
3@@ 409949
послед@@ 409711
па 409506
груп@@ 408950
ному 407076
цо@@ 406921
вос@@ 406831
ста 406591
вше@@ 405509
18@@ 405358
пор@@ 404402
Су@@ 404059
При@@ 403745
ек@@ 403388
СССР 403387
ро 403131
ится 403104
Пе@@ 401935
пра@@ 401208
лов@@ 400350
ск 400116
кры@@ 399716
Ме@@ 399477
юще@@ 399258
Ин@@ 398307
сла@@ 398019
сем@@ 397990
цев 396964
следу@@ 396531
отде@@ 395928
зы@@ 395830
войны 395790
До@@ 395111
ят 395095
стве 394047
ца@@ 393287
Ру@@ 393077
тор@@ 391641
ем@@ 391049
когда 389958
той 389687
явля@@ 389655
вание 389102
зва@@ 388425
О 387550
сбор@@ 386381
ством 385924
гда 385743
вет@@ 385303
сы 385142
Ва@@ 385046
бор@@ 385000
пло@@ 384749
него 384503
вил 384386
мая 384140
уча@@ 383879
ссо@@ 383074
Александ@@ 382635
этого 381858
побе@@ 381136
20 380545
зем@@ 380328
полу@@ 380049
они 379834
кол@@ 379799
этом 379626
вто@@ 379586
мя@@ 379502
годах 379250
три@@ 378826
ям 378733
дей@@ 378254
гово@@ 378033
Ни@@ 377670
ней@@ 377411
Но@@ 377077
ча 375971
город@@ 375547
стан@@ 375349
станов@@ 375208
вы 373885
пла@@ 373091
ций 372236
чно 372133
приня@@ 371912
цер@@ 370500
ств 370495
чения 369596
ха 369494
4@@ 368885
совет@@ 368617
пы@@ 368572
района 366976
все@@ 366866
использо@@ 366761
ору@@ 366635
осно@@ 366569
выпу@@ 365854
кого 365168
мина@@ 364794
США 363950
Мар@@ 362859
История 362848
располо@@ 362548
оста@@ 362159
дии 361451
вед@@ 361078
15 360782
Те@@ 360698
против 358811
гре@@ 358772
между 358479
яв@@ 355734
мене@@ 355670
окон@@ 355254
12 354948
стре@@ 354534
Биография 354393
це 354366
ственной 354256
публи@@ 354101
хра@@ 354083
жд@@ 353690
мой 353407
представ@@ 353142
составе 352310
кт 352251
ями 349989
лу 348597
зу@@ 348589
вом 348433
откры@@ 348052
16@@ 347922
ез@@ 347748
жда@@ 347587
еди@@ 347351
части 347207
мира 345719
дения 345429
рабо@@ 345374
дол@@ 345211
Он 344866
север@@ 344633
вар@@ 343666
назва@@ 343110
кий 342940
ёт 342422
музы@@ 341542
спор@@ 341437
гор@@ 341101
рован@@ 340286
ок@@ 340001
рав@@ 339868
сты@@ 339641
чной 339508
рой 338799
евич 338662
ж 338548
мии 338534
работ@@ 338518
филь@@ 338436
реки 337602
вает 337532
мини@@ 337349
ших 336512
Кар@@ 336122
тия 335462
бер@@ 334880
ностью 334555
ству@@ 334535
Н 334060
Фран@@ 333887
поль@@ 333077
логи@@ 332521
кор@@ 332235
тому 331624
рай@@ 331208
бро@@ 330757
уче@@ 330420
цен@@ 329924
Да@@ 327930
бе 327900
систе@@ 326429
годы 326199
обра@@ 326150
Га@@ 325634
чтобы 325195
нения 324963
суще@@ 324541
ван 323769
5@@ 323435
Ха@@ 322684
льные 322624
2@@ 322379
ска 322246
января 322155
ря 321716
нее 321318
Бу@@ 320818
Вы@@ 320547
заво@@ 319806
зер@@ 319801
зыва@@ 319461
Му@@ 319276
стар@@ 318695
ником 318641
ено 318428
все 317317
около 317259
дер@@ 316757
пя@@ 316216
Росси@@ 314431
национа@@ 314247
Пре@@ 313220
кро@@ 312940
ющий 312049
место 311959
П 311812
бли@@ 311770
S@@ 311521
ителей 310450
лич@@ 310295
вла@@ 310065
30 309733
районе 309500
мати@@ 309272
ему 309147
щен@@ 308853
проек@@ 308773
Моск@@ 308497
производ@@ 307621
али@@ 307514
мо 307117
июля 306885
кни@@ 306803
Укра@@ 306699
жде@@ 305970
уда@@ 305704
бре 305401
стоя@@ 304995
хот@@ 304611
вое 304504
У 304468
сторо@@ 304140
Че@@ 303748
поли@@ 303500
века 303206
ся@@ 302969
ческих 302969
ват@@ 302227
скому 301847
виде@@ 301354
Дж@@ 301247
рё@@ 300656
Ве@@ 300502
чил 300424
г. 300407
населения 299779
туры 299673
доб@@ 299003
струк@@ 298911
истори@@ 298694
М 298067
осу@@ 297385
емы@@ 297087
рон@@ 297078
тар@@ 296304
теле@@ 296178
лага@@ 296005
тин@@ 295970
Вер@@ 295225
шен@@ 294871
ким 294548
альбо@@ 294211
шения 294154
ну 293754
росси@@ 293669
шёл 293373
11 292395
18 292108
несколько 291908
сре@@ 290864
води@@ 290844
через 290804
ющих 290448
декабря 290401
пле@@ 290240
ещё 290159
15@@ 290134
работа@@ 290074
дво@@ 289483
сп@@ 289372
уже 288900
поселе@@ 288692
получил 288594
2010 288462
лем 288168
гер@@ 288006
грани@@ 287871
кие 287612
ф 287446
ступ@@ 287375
Ге@@ 286735
которой 286717
шая 286584
тен@@ 286101
ческой 286074
точ@@ 285815
часть 285755
марта 285207
чем 285195
бере@@ 285180
которая 284694
государствен@@ 284429
сли 283427
августа 283351
Ла@@ 283171
профе@@ 282847
занима@@ 282834
чу@@ 282653
жил 282597
роди@@ 282080
над 281548
сентября 281172
16 281100
ули@@ 280859
ший 280735
тру@@ 280717
Лу@@ 280393
мор@@ 280194
октября 279817
рий 279684
территории 279666
Ди@@ 279134
можно 279101
апреля 278588
6@@ 278405
спи@@ 278349
чение 278262
14 277748
ш 277607
своей 277427
сч@@ 276478
ительно 276446
Об@@ 275897
ющие 275894
соци@@ 275783
мов 275756
одно@@ 275024
вала 274495
мет@@ 274485
июня 274408
два 274321
Евро@@ 274284
дра@@ 273933
25 273830
постро@@ 273816
ген@@ 273552
рев@@ 273536
американ@@ 273263
испол@@ 273261
может 273202
стер@@ 272247
обе@@ 271629
дивизи@@ 271579
нение 271511
№ 271477
нь 271455
един@@ 271341
зда@@ 271086
I 271067
ву@@ 271060
шин@@ 270922
один 270806
жен 270229
Крас@@ 269994
шей 269489
получи@@ 269055
реги@@ 268802
сс@@ 267476
II 267475
хозяй@@ 267027
скими 266726
гро@@ 266559
шко@@ 265894
клу@@ 265730
руковод@@ 265578
си 265140
составля@@ 264898
13 264629
хов@@ 263947
графи@@ 263926
ите@@ 263739
участ@@ 263721
над@@ 263639
ниях 263393
других 263283
ждения 263175
ут@@ 262989
0@@ 262968
затем 262906
три 262836
стов 262770
луч@@ 262389
круп@@ 262282
каз@@ 261436
науч@@ 260531
кур@@ 260518
Влади@@ 260464
Ри@@ 260291
17 260048
качестве 259741
ступи@@ 259609
лод@@ 259568
стиче@@ 259525
управ@@ 259393
йский 259338
ноября 258798
дру@@ 258773
чле@@ 257456
ть@@ 257436
Население 257393
нами 257356
шу@@ 257274
держа@@ 257130
группы 256732
жур@@ 256692
первые 256586
эти@@ 256198
встре@@ 255623
актив@@ 255590
чер@@ 255409
пы 255389
ще 255154
лей@@ 255074
Ста@@ 254942
писа@@ 254880
находится 254714
тура 254663
Кон@@ 254546
льная 253954
кру@@ 253549
район 253195
дерев@@ 253119
нин@@ 252746
нау@@ 252292
вместе 252172
эн@@ 252022
ред@@ 251519
стей 251366
M@@ 251315
ган@@ 250918
опреде@@ 250493
ру 250331
ман 248880
февраля 248693
ческого 248600
вет 248466
раб@@ 248333
площа@@ 247499
мер 247429
7@@ 247409
нен@@ 247279
сто 246874
ско 246667
ун@@ 245867
рей@@ 245756
заня@@ 245570
лии 245357
жа 245347
_ 244913
мон@@ 244399
сле@@ 244372
теат@@ 244107
Однако 243825
P@@ 243739
лли@@ 243737
деятель@@ 243686
дела@@ 243536
Пет@@ 243314
муж@@ 242722
Из@@ 242703
направ@@ 242684
клю@@ 242636
особ@@ 242524
большо@@ 242397
случа@@ 242024
однако 241670
среди 241658
хоро@@ 241593
запа@@ 241561
сом 240827
гру@@ 240677
участие 240677
гласно 240428
остро@@ 240332
От@@ 240262
D@@ 240041
губер@@ 239969
чис@@ 239962
ственно 239912
поз@@ 239716
которого 239624
итель 239425
стат@@ 239398
няя 238964
тё@@ 238530
составляет 238237
нер@@ 238138
19 238104
ктор 237798
&#93; 237539
&#91; 237321
прави@@ 237272
че 236997
чемпиона@@ 236963
способ@@ 236561
- 236426
род 236425
многи@@ 236225
йского 236109
работал 235532
успе@@ 235086
проис@@ 235046
служ@@ 234732
смер@@ 234461
C@@ 234365
щая 234226
городе 233911
всех 233417
вели@@ 233388
город 233268
вший 232919
самы@@ 232600
лиш@@ 231978
период 231725
пря@@ 231652
ровал 231512
прия@@ 231224
числе 231129
вз@@ 230879
1@@ 230696
государ@@ 230336
Хо@@ 230080
шо@@ 229797
ённых 229771
много@@ 229663
вается 229626
поч@@ 229379
шла 229273
Ти@@ 229149
институ@@ 229041
право@@ 229033
рин@@ 228874
двух 228797
иту@@ 228556
горо@@ 228417
вую 228366
начала 228342
уни@@ 228341
L@@ 228237
зах@@ 227826
комму@@ 227787
свою 227511
цией 226979
Ло@@ 226433
начале 226386
продол@@ 226356
син@@ 226106
опера@@ 226056
верну@@ 226015
Сан@@ 225756
миро@@ 225704
оп@@ 225629
све@@ 225622
ед@@ 225559
разде@@ 225189
стри@@ 225130
мом 225016
тно 224639
включа@@ 224596
соответ@@ 224514
реб@@ 224225
поэ@@ 224185
строитель@@ 224055
быть 223993
сред@@ 223722
труд@@ 223634
стала 223576
Ф 223169
годов 223014
образ@@ 222763
карь@@ 222471
14@@ 221910
льное 221888
дате@@ 221805
искус@@ 221678
различ@@ 221505
этой 221471
жизни 221410
вари@@ 221028
себя 221012
обы@@ 220931
ёл 220891
нару@@ 220789
T@@ 220642
счита@@ 220225
фина@@ 220211
нова 219929
бо 219718
ссе@@ 219663
пас@@ 219634
ческий 219596
Бер@@ 219557
йских 219427
8@@ 219231
четы@@ 219221
йся 219027
установ@@ 218568
ств@@ 218307
ться 217883
10@@ 217776
пе 217738
вета 217611
24 217403
R@@ 217338
13@@ 217149
дина@@ 217102
цу 217080
миче@@ 216827
форми@@ 216736
вате@@ 216659
шим 216650
благо@@ 216620
нем 216408
лена 216234
знач@@ 216036
держ@@ 215944
армии 215582
использу@@ 215434
своего 215278
21 215257
призна@@ 215053
название 214901
нах 214463
есть 214259
Рес@@ 214252
22 213976
низ@@ 213938
изда@@ 213865
данным 213728
называ@@ 213660
пос@@ 213557
G@@ 213542
За 213367
современ@@ 212980
времени 212559
сут@@ 212398
льным 212293
произве@@ 212169
шие 211493
Би@@ 211461
шли 211163
бур@@ 210752
рес@@ 210633
мм 210297
сел@@ 210064
ствовал 209939
выступа@@ 209908
ан 209850
дь 209772
возмож@@ 209625
без 209269
всего 209112
школ@@ 208825
При 208629
тот 208320
совер@@ 208269
дней 208145
нович 208041
ствует 207985
N@@ 207860
ствии 207428
Вели@@ 207402
режи@@ 207311
немец@@ 207106
жи 206970
шта@@ 206915
бу 206667
Это 206529
йн 206430
чных 206376
диа@@ 206181
ологи@@ 206081
имени 206000
Лю@@ 205995
конце 205938
развити@@ 205915
там 205891
работы 205814
метров 205694
A@@ 205661
село 205648
высту@@ 205534
лия 205254
B@@ 205227
отли@@ 205172
соеди@@ 205050
50 204829
сме@@ 204722
турни@@ 204540
политиче@@ 204468
деревня 204292
Бы@@ 204248
человека 204159
правитель@@ 204146
Ор@@ 204138
чь 204129
зе 203948
рами 203752
F@@ 203548
дости@@ 203510
находи@@ 203474
9@@ 203266
прове@@ 203240
вну@@ 203231
Москов@@ 202862
2011 202759
воло@@ 202650
чей 202485
ды@@ 202463
уров@@ 202414
раз 202176
Фи@@ 202153
мыш@@ 202063
Во 201818
бан@@ 201723
чего 201628
ческие 201543
Север@@ 201363
рах 201285
настоя@@ 201284
Дже@@ 201058
отно@@ 200952
мит@@ 200949
23 200939
совета 200640
2012 200629
истории 200111
публики 200033
Аль@@ 199513
уез@@ 199477
програм@@ 199168
жении 198960
тах 198825
писал 198655
сса 197915
мени@@ 197801
дву@@ 197696
formula 197491
Боль@@ 197451
вне@@ 197403
пут@@ 197359
12@@ 197358
много 197304
год@@ 197276
произ@@ 197134
мате@@ 197024
ер 196725
2008 196558
E@@ 196394
Д 196367
C 196141
административ@@ 196075
Пу@@ 195874
проце@@ 195756
ственный 195482
2014 195350
храни@@ 195273
2009 195228
Все@@ 195210
вин@@ 195183
первый 194691
ница 194690
сс 194673
памя@@ 194568
тами 194522
дой 194477
органи@@ 194434
26 194333
прин@@ 194306
зии 194008
упо@@ 193905
ход 193724
ради@@ 193633
Р 193554
gt 193548
дь@@ 193503
тем 193253
вс@@ 192844
помощ@@ 192611
желез@@ 192500
Также 192373
ству 192366
лев@@ 192357
представля@@ 192339
лены 192102
тор 192019
команд@@ 191972
имеет 191947
ёт@@ 191902
этот 191778
кая 191732
кри@@ 191568
28 191356
Мак@@ 191318
началь@@ 191043
Гу@@ 190963
лина 190888
кин@@ 190882
выпол@@ 190793
позво@@ 190388
связи 190122
шего 190015
муниципа@@ 189948
исследо@@ 189871
коло@@ 189518
ны@@ 189397
специ@@ 189362
Ива@@ 189315
следо@@ 189215
акаде@@ 188794
гар@@ 188607
меся@@ 188461
2007 188331
кси@@ 188328
сою@@ 188279
оз@@ 188105
lt 187968
ша 187860
вана 187853
I@@ 187654
Ду@@ 187645
27 187444
жена 187367
слав@@ 187249
чемпио@@ 187132
ден 187099
ене@@ 186973
мента@@ 186927
2013 186885
2015 186619
вре@@ 186527
Ал@@ 186483
вался 186231
бое@@ 186198
об 186192
лок 186115
эта@@ 185745
ске 184921
мона@@ 184521
Сре@@ 184168
X@@ 184164
второй 184064
э 184054
тий 183981
Ком@@ 183957
нитель@@ 183946
чень 183768
° 183754
арти@@ 183646
поя@@ 183532
Алек@@ 183370
лями 183183
держи@@ 182906
Фе@@ 182724
мир 182705
личе@@ 182602
ый 182532
террито@@ 182452
2006 182247
рода 182170
исто@@ 182058
ряд 181858
ниями 181832
следовате@@ 181367
Ша@@ 181226
40 181042
пози@@ 181022
верх@@ 180859
дро@@ 180858
зы 180838
Васи@@ 180777
хе@@ 180234
Ав@@ 180230
действи@@ 180206
стра 180193
2002 180002
кате@@ 179765
гов 179404
Г 179368
еся 179321
вмест@@ 179299
Никола@@ 179159
усло@@ 179043
H@@ 179027
Кро@@ 178874
женщи@@ 178792
дж@@ 178751
международ@@ 178697
кли@@ 178663
ен 178384
рок 178266
электро@@ 177837
кня@@ 177467
стали 177340
посё@@ 176939
чный 176914
переписи 176883
100 176824
чет@@ 176752
пове@@ 176663
фрон@@ 176476
хся 176036
Его 175938
сон 175838
своих 175779
тат@@ 175749
друго@@ 175546
2016 175435
отме@@ 175435
бит@@ 175410
2000 175397
тора 175270
рак@@ 175072
назна@@ 174684
образом 174658
ителем 174654
помо@@ 174452
футбо@@ 174392
соз@@ 174186
буду@@ 174058
другие 174043
авиа@@ 173909
француз@@ 173765
ходе 173446
дли@@ 173383
сельского 173213
которое 172967
ника@@ 172875
переда@@ 172781
водо@@ 172387
числен@@ 172338
меня@@ 172299
Пи@@ 172251
игро@@ 172248
тных 172133
ху@@ 172067
Ту@@ 172032
стви@@ 171769
ию@@ 171746
дей 171684
цар@@ 171537
ино@@ 171283
результате 171020
кви 170933
ью@@ 170892
29 170810
кло@@ 170659
меда@@ 170567
ната 170531
Петер@@ 170433
против@@ 170409
дия 170325
характе@@ 170301
нови@@ 170221
щения 170169
пара@@ 170141
ссии 170107
жиз@@ 170094
владе@@ 170074
сты 170035
Роди@@ 169982
коми@@ 169972
собой 169895
котором 169839
дет 169625
фильм 169285
фер@@ 169275
офици@@ 169246
фика@@ 169141
ющего 168898
сен@@ 168854
кова 168003
начи@@ 167726
защит@@ 167491
Чер@@ 167138
деся@@ 167127
течение 166891
… 166879
лат@@ 166849
зя@@ 166393
наи@@ 166035
ток 166001
резуль@@ 165994
физи@@ 165984
атов 165925
фак@@ 165860
² 165802
тече@@ 165623
,@@ 165570
Федера@@ 165444
награ@@ 165294
худож@@ 164898
0 164424
мя 164341
вор@@ 164320
раст@@ 163851
ски 163595
президен@@ 163551
рий@@ 163518
ши 163184
хода 162718
анд@@ 162515
имен@@ 162472
сня@@ 162347
пен@@ 162258
2017 161987
живо@@ 161771
су 161570
посе@@ 161532
широ@@ 161526
относ@@ 161455
гии 161377
преде@@ 161234
ени 161222
распо@@ 160789
укра@@ 160620
хи 160534
ССР 160109
31 159627
2005 159222
тео@@ 158904
O@@ 158735
влия@@ 158714
бри@@ 158649
шение 158645
The 158576
тов@@ 158392
ланд@@ 158338
ити@@ 158287
Олимпи@@ 158240
шел 157916
ждение 157750
дире@@ 157640
сть@@ 157423
вид@@ 157293
вле@@ 156891
тие 156885
музе@@ 156861
команди@@ 156851
ктора 156709
сил 156636
удо@@ 156209
интер@@ 156205
запад@@ 156005
нали@@ 155928
лий 155819
Герма@@ 155797
простра@@ 155673
2018 155510
мета@@ 155302
центра@@ 155257
2004 155202
стру@@ 155059
тон 155012
ститу@@ 154577
нет 154417
Сою@@ 154018
нам 153738
Бар@@ 153733
бар@@ 153569
Б 153547
дах 153285
пон@@ 153245
Миха@@ 153214
сам 153074
назначен 153045
кораб@@ 152436
Ке@@ 152219
Кри@@ 152166
сни@@ 152042
сов@@ 151429
корпу@@ 151373
дена 151299
III 150652
1941 150615
парти@@ 150459
фа 150252
мир@@ 150200
Ча@@ 150195
рез@@ 150189
2001 149936
свой 149591
юр@@ 149484
нан@@ 149394
V@@ 149376
станции 149004
обре@@ 148842
лах 148797
0,@@ 148796
вало 148781
мл@@ 148760
иде@@ 148492
ителя 148401
реди@@ 148153
Вто@@ 147769
разме@@ 147508
други@@ 147359
1990 147329
s 147111
так@@ 146956
анти@@ 146768
2019 146676
предло@@ 146311
уз@@ 146297
Бело@@ 146010
фон@@ 145765
Андре@@ 145704
председате@@ 145571
комплек@@ 145527
тат 145410
мента 145379
времен@@ 145369
Кор@@ 145153
праз@@ 145137
Л 144777
ляр@@ 144700
Пред@@ 144512
’ 144474
кино@@ 144422
Серге@@ 144334
нова@@ 144267
тек@@ 144123
рели@@ 144111
партии 144103
град@@ 144005
ад@@ 143840
W@@ 143612
ева 143573
ристи@@ 143532
народ@@ 143423
кономи@@ 143394
англи@@ 143330
000 143273
вид 143047
наход@@ 143042
нар@@ 142925
свобо@@ 142813
пат@@ 142796
важ@@ 142742
две 142654
нен 142592
пода@@ 142387
функ@@ 142081
университета 141904
оло@@ 141883
изо@@ 141748
чин 141741
свои 141407
отноше@@ 141312
информа@@ 141267
чие 141143
мето@@ 140996
ители 140993
компании 140899
которы@@ 140721
Гри@@ 140537
нал 140464
сезо@@ 140414
клуб 140201
фло@@ 140078
что@@ 140050
противо@@ 140031
общи@@ 140017
Юж@@ 139836
юж@@ 139760
60 139739
закон@@ 139711
нер 139630
гли@@ 139565
дете@@ 139038
Ново@@ 138722
1944 138092
ново@@ 137849
бай@@ 137504
ква@@ 137503
География 137408
Хар@@ 137342
зада@@ 137067
Но 136638
ографи@@ 136633
рения 136621
компози@@ 136426
дея@@ 136249
най@@ 136202
Пос@@ 136057
трен@@ 135936
Национа@@ 135933
y 135915
тон@@ 135776
дат@@ 135751
бира@@ 135747
техниче@@ 135632
неско@@ 135601
аре@@ 135584
принадле@@ 135460
например 135451
нк@@ 135192
ус 135077
спек@@ 135007
кило@@ 134596
ви 134591
тради@@ 134463
тех@@ 134393
попа@@ 134328
сии 134243
писате@@ 134225
мент 133837
Сер@@ 133767
ствие 133706
жан@@ 133690
нос@@ 133664
изобра@@ 133168
гате@@ 132961
темпера@@ 132820
фек@@ 132664
сезона 132601
ора 132478
Ги@@ 132424
фици@@ 132375
185@@ 132180
нала 132140
ори@@ 132117
граф@@ 132056
ъ@@ 132037
Гор@@ 132023
Т 131955
тически 131742
ства@@ 131693
дел@@ 131381
провин@@ 131277
револю@@ 131112
лед@@ 131082
моде@@ 130938
дет@@ 130879
2020 130478
полити@@ 130475
тил 130404
количество 130249
! 130232
яр@@ 130034
боле@@ 130031
ент@@ 129793
дин@@ 129535
пси@@ 129501
дебю@@ 129482
генера@@ 129311
зов 129084
дение 129027
1999 128503
древ@@ 128457
контра@@ 128349
бат@@ 128344
необходи@@ 128253
пли@@ 128222
склю@@ 128177
освобо@@ 128142
тин 128025
села 127901
спа@@ 127884
стрел@@ 127866
br 127846
заве@@ 127841
офи@@ 127786
– 127766
тран@@ 127339
контро@@ 127215
вдо@@ 127130
1945 126963
щение 126782
учи@@ 126771
Ман@@ 126533
Тур@@ 126440
компа@@ 126280
близ@@ 126274
2,@@ 126260
Основ@@ 126082
оте@@ 125800
селе@@ 125709
реда@@ 125669
ност@@ 125643
рам@@ 125636
рю@@ 125391
сь@@ 125357
степен@@ 125221
университе@@ 125186
ита 124985
1943 124846
сия 124840
гон@@ 124589
орга@@ 124571
us 124539
плат@@ 124343
проте@@ 124330
Сте@@ 124221
нина 124174
бал@@ 123968
поме@@ 123896
крити@@ 123602
лиза@@ 123438
ску@@ 123300
1,@@ 123288
план@@ 123024
препода@@ 122935
пора@@ 122895
2003 122796
сен 122675
Раз@@ 122489
прода@@ 122388
Мон@@ 122387
художе@@ 122192
секре@@ 122093
подготов@@ 121826
почти 121816
Гер@@ 121777
доку@@ 121761
До 121713
организации 121424
постоян@@ 121247
чески 121203
меха@@ 120987
дис@@ 120942
лин 120519
типа 120489
писи 120385
семей@@ 120297
A 120074
мана 119804
Запад@@ 119697
брига@@ 119594
цио@@ 119351
тер 119334
Од@@ 119042
кам@@ 119014
дже@@ 118880
рина 118795
бю@@ 118720
стран@@ 118697
Ос@@ 118518
80 118452
сю@@ 118416
лено 118203
щи 118157
съ@@ 118134
бург@@ 118084
медици@@ 117774
мен 117644
май@@ 117382
геро@@ 117111
гли 116979
писание 116793
соста@@ 116628
обя@@ 116280
британ@@ 116180
кин 116146
Кур@@ 116014
Май@@ 116002
кономиче@@ 115967
сце@@ 115912
вол@@ 115765
йн@@ 115758
популяр@@ 115526
генерал 115436
фу@@ 115390
мат 115337
Ев@@ 115270
ставля@@ 115270
простран@@ 115130
готов@@ 115110
евре@@ 115075
коно@@ 115046
автомоби@@ 114862
замест@@ 114782
пан@@ 114693
интере@@ 114484
зву@@ 114239
1980 114238
дека@@ 114205
кти@@ 114070
архи@@ 113820
Кли@@ 113541
оне 113516
нато@@ 113365
70 113318
аб@@ 113313
транспор@@ 113309
импера@@ 113144
момент 113048
1991 113014
любо@@ 112969
полож@@ 112924
ян 112759
би 112694
1992 112675
Пари@@ 112564
Гра@@ 112408
импе@@ 112404
“ 112175
Глав@@ 112161
сков@@ 111884
бло@@ 111839
сан@@ 111687
пти@@ 111389
независи@@ 111337
руп@@ 111334
права 111313
Уи@@ 111203
гов@@ 111011
ряд@@ 111002
кото@@ 110959
комите@@ 110940
XIX 110882
временно 110830
нор@@ 110801
имо@@ 110753
Вол@@ 110742
лка 110581
предо@@ 110548
уме@@ 110352
1942 110204
K@@ 109853
Констан@@ 109801
Ши@@ 109793
недо@@ 109791
зар@@ 109582
капита@@ 109388
Авто@@ 109259
+ 109182
рази@@ 109164
решение 109150
1960 108940
граждан@@ 108913
канди@@ 108718
хар@@ 108674
чемпи@@ 108509
Пар@@ 108488
1970 108485
литератур@@ 108365
мин@@ 108309
жет 107921
финан@@ 107835
хан@@ 107794
Ше@@ 107540
бле@@ 107302
разработ@@ 107283
Фа@@ 107189
гло@@ 107077
действия 106729
зма 106577
специали@@ 106557
инжен@@ 106171
Хи@@ 106109
Я 106074
Ита@@ 105714
Рабо@@ 105506
35 105447
технологи@@ 105187
мена 105161
джа@@ 105142
жено 105135
„ 104925
мей@@ 104909
бил 104793
1998 104413
зат@@ 103912
Чи@@ 103860
симво@@ 103691
чело@@ 103383
наблю@@ 103260
тина 103072
участи@@ 103053
уби@@ 102933
мно@@ 102698
of 102594
зи 102469
образование 102459
1930 102339
1994 102338
концер@@ 102235
Ак@@ 101937
лько 101914
Мини@@ 101898
1997 101871
лер 101834
причи@@ 101722
кс 101695
ул 101476
1996 101404
1995 101166
Николай 101072
Кита@@ 101030
2021 101022
V 101014
дри@@ 100792
a 100701
мла@@ 100581
мину@@ 100437
звез@@ 100369
вли@@ 100338
квар@@ 100320
убе@@ 100280
лист 100270
жо@@ 100259
лите@@ 100241
вест@@ 100225
Пор@@ 100136
печат@@ 99950
нове@@ 99791
убий@@ 99781
1920 99779
октя@@ 99738
пру@@ 99491
3,@@ 99341
сра@@ 99274
вонача@@ 99126
Под@@ 99086
20@@ 98977
мощ@@ 98956
пробле@@ 98683
1993 98488
Центра@@ 98400
блиоте@@ 98387
скоро@@ 98351
Пра@@ 98330
сент@@ 98098
Лон@@ 97992
вно 97817
90 97520
йна 97501
стен@@ 97369
ил 97252
член 97249
XX 97170
ферен@@ 97151
бург 97145
Йор@@ 96992
без@@ 96975
организа@@ 96945
като@@ 96631
федера@@ 96565
др 96532
крат@@ 96400
получа@@ 96388
Роб@@ 96338
Геор@@ 96214
каде@@ 96177
ник@@ 96158
гори@@ 96070
ена 95847
филосо@@ 95833
&apos; 95824
срав@@ 95585
зако@@ 95494
мин 95446
мия 95272
Великобрита@@ 95004
чат@@ 94882
1989 94857
места 94819
сериа@@ 94512
подоб@@ 94501
казате@@ 94483
Международ@@ 94453
Бри@@ 94386
материа@@ 94286
200 94276
Шве@@ 94153
1950 94093
напа@@ 93824
сек@@ 93728
душ@@ 93718
гат@@ 93684
S 93649
цеп@@ 93600
основа@@ 93343
гри@@ 93253
плани@@ 93188
1940 93119
посред@@ 93076
ката@@ 93008
Кла@@ 92936
ара 92831
еписко@@ 92648
шки 92564
Бра@@ 92503
U@@ 92444
Спи@@ 92345
Амери@@ 92197
население 92174
песни 92134
Кали@@ 92092
32 92042
184@@ 91647
= 91629
зависи@@ 91556
нин 91388
дер 91285
Ху@@ 91257
лова 91227
on 91170
чки 91068
рал@@ 90978
ана 90891
Тре@@ 90693
Иван 90159
креп@@ 90057
i 90009
Зе@@ 89870
IV 89835
чка 89539
общ@@ 88837
1918 88791
ран 88781
Вар@@ 88700
ху 88621
расте@@ 88562
1939 88422
меж@@ 88357
Пло@@ 88342
Нор@@ 88298
тем@@ 88287
дин 88227
Сто@@ 88128
D 88028
инте@@ 88018
треб@@ 87993
дома@@ 87903
Фор@@ 87715
компания 87612
180@@ 87416
дат 87388
вода 87360
маши@@ 87165
стан 87084
коле@@ 86717
J@@ 86706
Ай@@ 86669
след@@ 86567
Ст@@ 86389
ано 86191
Администра@@ 86186
джи@@ 85987
Сред@@ 85884
дале@@ 85862
Япо@@ 85861
Е 85845
река 85692
Хе@@ 85647
d 85582
устрой@@ 85527
вод 85397
er 85345
Дру@@ 85329
? 85258
рая 85092
вия 84836
гия 84782
шка 84696
европей@@ 84514
o 84497
фон 84447
c 84431
стин@@ 84419
Бал@@ 84330
y@@ 84180
нат 83611
Испа@@ 83379
тво@@ 83344
апре@@ 83314
архитек@@ 83283
став 83283
Кара@@ 83190
оцен@@ 82929
лож@@ 82754
количе@@ 82732
лица 82421
36 82404
рите@@ 82252
мокра@@ 82241
СР 82213
t 82203
Шу@@ 82181
45 82177
фли@@ 82028
литера@@ 81883
s@@ 81868
P 81796
догово@@ 81783
чен 81751
Жи@@ 81731
анали@@ 81645
постав@@ 81627
З 81608
37 81527
вклю@@ 81499
края 81459
рис 81320
андар@@ 81256
1917 81131
нем@@ 81087
e@@ 80944
E 80893
мили@@ 80822
йки 80591
e 80576
34 80574
авгу@@ 80405
разру@@ 80376
разно@@ 80179
лез@@ 80142
два@@ 80048
33 80031
тол@@ 80009
части@@ 79990
инди@@ 79751
38 79526
христи@@ 79520
творче@@ 79380
циона@@ 79358
продук@@ 79183
февра@@ 79167
кита@@ 79068
ата 79059
179@@ 79001
сим@@ 78864
форма@@ 78838
Михаил 78810
полк 78800
Фили@@ 78766
ответ@@ 78618
1988 78525
крепо@@ 78465
парла@@ 78325
00 78293
− 78020
дек@@ 77846
избран 77767
става 77745
риа@@ 77548
рим@@ 77516
the 77365
фут@@ 77141
Джо@@ 77053
M 76927
лаго@@ 76839
зиден@@ 76638
ници@@ 76576
чена 76357
дон@@ 76355
вез@@ 76303
дан 76067
T 75728
рез 75692
o@@ 75664
дре@@ 75389
остав@@ 75133
Кра@@ 74952
каче@@ 74806
x 74743
B 74708
пита@@ 74680
образу@@ 74535
том@@ 74525
право 74404
озна@@ 74397
ал 74341
вероя@@ 74310
Бур@@ 74052
ing 73898
65 73699
1938 73496
d@@ 73395
1937 73302
тата 73278
пит@@ 73188
рал 73079
вида 73040
стой@@ 72605
1986 72581
ски@@ 72425
ните@@ 72413
19@@ 72136
-@@ 72091
испан@@ 72052
75 71996
бор 71958
c@@ 71938
1987 71822
in 71758
4,@@ 71665
1919 71627
разви@@ 71451
1985 71292
1946 71264
L 70860
64 70643
39 70589
дипло@@ 70573
бре@@ 70561
500 70457
университет 70381
дент@@ 70283
система 70225
&#124; 69984
изи@@ 69940
p@@ 69861
1965 69772
ато 69759
поле@@ 69664
25@@ 69646
дор 69619
es 69243
защ@@ 69197
оке@@ 69110
рио@@ 68990
бъ@@ 68877
оби@@ 68764
поста@@ 68734
стату@@ 68693
1984 68531
свет@@ 68436
1979 68143
рат 67909
1966 67873
практи@@ 67633
шно 67489
1968 67459
1975 67407
t@@ 67285
1926 67207
Джон 67003
X 66864
1948 66850
лосо@@ 66727
стати@@ 66683
пера@@ 66665
око@@ 66652
al 66492
архите@@ 66486
ане 66272
рен 66190
1963 66163
1973 66137
училище 66106
1976 66031
ари 65864
граф 65700
r@@ 65697
1959 65649
град 65559
de 65539
1972 65486
a@@ 65434
кос@@ 65397
Пол@@ 65197
Нико@@ 65029
1971 64851
1958 64818
an 64812
1956 64797
слав 64578
1982 64547
Исто@@ 64516
рин 64400
сите@@ 64391
мс 64352
R 64307
сезон 64296
N 63959
фри@@ 63941
1974 63934
Рай@@ 63880
on@@ 63772
1929 63750
1983 63481
1978 63447
реша@@ 63423
Бел@@ 63310
1981 63244
1967 63121
дж 62847
гене@@ 62737
1954 62666
1964 62652
1957 62601
5,@@ 62584
вер 62560
k 62549
00@@ 62446
стояние 62413
гна@@ 62259
1962 62253
1949 62124
n@@ 61886
комп@@ 61791
24@@ 61733
дено 61731
XVIII 61712
1936 61563
Щ@@ 61507
1961 61478
ключ@@ 61373
берг 61317
F 61286
рение 61278
край@@ 61134
чо@@ 61090
7,@@ 61020
1977 60957
um 60889
Афри@@ 60554
1947 60390
G 59944
строй@@ 59925
1969 59924
1935 59777
p 59594
42 59257
вро@@ 59134
i@@ 58807
разв@@ 58733
44 58700
дя@@ 58397
Це@@ 58384
сно 58304
Й@@ 58295
пей@@ 58295
ати 58246
6,@@ 58141
Мария 57990
is 57983
множество 57791
1924 57741
55 57602
1921 57283
30@@ 57202
вина 57163
моби@@ 57032
периода 56902
нес 56895
сед@@ 56887
and 56834
Три@@ 56663
1922 56289
зия 56244
O 56213
ic@@ 56194
Сле@@ 56047
лимпи@@ 56001
версите@@ 55976
f@@ 55960
l 55947
Э 55941
1953 55880
кнове@@ 55842
которо@@ 55824
ново 55735
48 55590
300 55566
1928 55528
b@@ 55336
ец 55262
известен 55128
1955 55073
Z@@ 55050
In@@ 54972
1934 54925
Йо@@ 54878
наме@@ 54819
1952 54762
ща 54698
администра@@ 54650
харак@@ 54631
твор@@ 54622
пример 54601
наслед@@ 54587
вру@@ 54515
ол@@ 54461
визи@@ 54425
1932 54324
1933 54218
милия 53888
1931 53643
1923 53593
шен 53551
консу@@ 53401
лища 53382
брат 53348
меди@@ 53260
41 53167
ia 53092
позна@@ 53000
g@@ 52909
ред 52874
Ю 52530
43 52477
перио@@ 52396
зате@@ 52271
k@@ 52234
52 52193
тел 52106
47 52008
n 51990
метра 51955
Дей@@ 51873
8,@@ 51799
1951 51765
Гла@@ 51726
логия 51647
et 51635
1927 51583
зон 51552
26@@ 51336
54 51291
вен 51284
85 51198
1925 51075
ac@@ 50730
46 50710
1914 50590
рец 50532
работа 50350
28@@ 50305
Цент@@ 50301
епископ 50137
u 50127
тен 50044
армия 50041
amp 49991
er@@ 49989
нари@@ 49945
XV@@ 49846
or@@ 49695
чина 49617
числе@@ 49597
51 49371
гимна@@ 49338
включ@@ 49236
герман@@ 49208
Ch@@ 49204
море 48975
жав@@ 48777
тога@@ 48650
58 48637
остров 48483
en@@ 48478
1905 48439
v@@ 48391
.. 48345
Ско@@ 48251
at@@ 47973
56 47961
рата 47905
1.@@ 47904
62 47888
мал@@ 47585
9,@@ 47517
53 47512
доби@@ 47371
76 47343
собо@@ 47302
m 47199
x@@ 47155
ити 47057
нд 47055
наб@@ 46803
en 46783
l@@ 46734
управление 46715
Хри@@ 46650
форма 46610
Вла@@ 46596
27@@ 46540
рана 46432
пи 46345
война 46338
m@@ 46221
72 46186
сили 45829
дата 45760
57 45748
населе@@ 45653
мени 45615
Мал@@ 45583
1915 45539
49 45515
in@@ 45337
Y@@ 45141
400 45012
82 44938
партия 44921
w@@ 44755
ar@@ 44739
78 44715
гле@@ 44615
сиг@@ 44578
Х 44139
­ 43725
63 43627
мерикан@@ 43554
разли@@ 43492
it@@ 43428
хан 43167
68 43014
XVI 42845
z@@ 42801
84 42800
95 42760
67 42746
66 42735
86 42721
St@@ 42698
рито@@ 42577
el@@ 42532
at 42383
ани 42109
88 42100
150 42063
1912 42029
81 41975
29@@ 41965
61 41934
74 41911
1913 41721
нологи@@ 41682
ген 41594
попу@@ 41544
Рос@@ 41529
Меж@@ 41442
1910 41434
От 41433
волю@@ 41390
в. 41363
Карл 41345
ation 41288
щё 41229
Ад@@ 41066
83 41020
59 41004
кой@@ 40969
жители 40963
71 40797
история 40775
фран@@ 40756
ar 40738
кора@@ 40708
ot@@ 40551
as@@ 40515
77 40414
града 40337
an@@ 40085
1916 40068
фил@@ 40032
проду@@ 39913
h@@ 39875
87 39859
запад 39793
89 39509
th@@ 39468
ите 39462
h 39395
73 39286
і@@ 39282
69 39270
ch@@ 39181
os@@ 39045
$ 39007
el 38986
om@@ 38824
век 38816
01 38591
am@@ 38553
al@@ 38498
2.@@ 38115
результат@@ 38051
необ@@ 37856
жество 37759
Фри@@ 37529
посо@@ 37527
ed 37438
ur@@ 37317
ждан@@ 37218
99 37053
1900 36960
хия 36914
An@@ 36855
b 36801
рих 36561
79 36546
1911 36408
1000 36362
1907 36357
това 36236
1906 36235
арх@@ 35970
et@@ 35819
ph@@ 35818
избра@@ 35751
96 35721
or 35652
сна@@ 35652
1908 35590
98 35449
ad@@ 35349
1,5 35063
le 34907
92 34831
Com@@ 34828
VI 34638
организация 34568
ковод@@ 34551
Ц 34422
щер@@ 34375
K 34358
зви@@ 34318
qu@@ 34296
Bo@@ 34158
to 33895
1904 33875
w 33845
стен 33803
j@@ 33770
g 33700
2022 33588
97 33383
05 33378
st@@ 33179
U 33135
вете 33111
Al@@ 32984
мери@@ 32973
H 32892
1909 32697
Tr@@ 32446
ul@@ 32403
вица 32131
ag@@ 32098
le@@ 32060
Mar@@ 32056
дни 32050
02 32022
u@@ 32002
am 31721
Th@@ 31717
93 31299
ol@@ 31294
03 31249
94 31200
91 31149
вся@@ 31070
3.@@ 31012
регион 31009
1897 30925
тит@@ 30890
W 30869
08 30823
07 30761
ine 30664
04 30582
ter 30282
09 30241
600 30185
z 30177
ot 29995
юг 29956
120 29950
co@@ 29886
седате@@ 29840
Re@@ 29827
ъ 29801
Sp@@ 29733
прие@@ 29567
un@@ 29550
щ 29482
публика 29429
1890 29345
ито 29202
× 29017
ay 28991
06 28976
мост 28974
De@@ 28928
os 28875
es@@ 28762
f 28729
Records 28717
веро@@ 28639
im@@ 28582
Франция 28548
телевизи@@ 28464
1903 28457
r 28446
Ar@@ 28370
евро@@ 28338
li@@ 28306
мата 28275
one 28261
1902 28216
има 28177
стоян@@ 28170
хозя@@ 28162
отбо@@ 28032
Con@@ 27900
XX@@ 27896
la 27894
ap@@ 27769
250 27729
Германия 27645
tr@@ 27519
ro@@ 27477
oc@@ 27417
ad 27129
ци 27117
Br@@ 26971
po@@ 26941
VII 26870
as 26827
op@@ 26780
em@@ 26773
id@@ 26741
1901 26738
край 26669
ti@@ 26601
тта 26546
av@@ 26478
ic 26415
is@@ 26302
мпи@@ 26257
испо@@ 26234
ve 26122
ri@@ 26113
800 26065
od@@ 26046
света 26002
il@@ 25915
лище 25852
ьо@@ 25829
мно 25793
idae 25732
лага 25667
еле@@ 25371
1896 25215
1880 25177
Sh@@ 24952
1899 24937
изве@@ 24893
1898 24887
ers 24704
лото 24702
For@@ 24694
4.@@ 24442
бия 24417
ch 24399
us@@ 24331
1870 24324
1860 24290
ави@@ 24279
ват 24236
Be@@ 24231
север 24212
Ex@@ 24038
1895 24030
неме@@ 24027
програ@@ 24025
lo@@ 24010
тни 23983
ir@@ 23866
Co@@ 23826
оба@@ 23728
Mo@@ 23474
дна 23437
IX 23366
пад@@ 23356
IN@@ 23351
ec@@ 23339
хай@@ 23293
di@@ 23143
ig@@ 23066
ight 23053
TV 22927
# 22768
NGC 22765
He@@ 22626
1892 22599
Ш 22446
вобо@@ 22432
Cr@@ 22346
кари@@ 22295
New 22231
5.@@ 22175
Pr@@ 22168
били 22036
жда 21996
1885 21992
пуска 21908
ter@@ 21839
700 21825
император 21781
... 21678
Billboard 21567
130 21524
1894 21505
Так@@ 21459
* 21458
1889 21453
империя 21411
ent@@ 21395
der 21392
франц@@ 21372
1893 21357
дъ@@ 21313
11@@ 21277
IS@@ 21231
1878 21130
1891 21129
ab@@ 21127
Music 21105
ae 21101
преда@@ 21087
ie 21019
World 20993
AS@@ 20963
вата 20934
Ё@@ 20930
7.@@ 20905
um@@ 20783
гим@@ 20761
син 20703
23@@ 20602
SE@@ 20598
Фридрих 20509
ография 20436
1886 20378
1864 20342
гат 20335
6.@@ 20319
1862 20310
110 20289
Ч 20276
ята 20193
Италия 20190
1887 20178
лата 20158
ed@@ 20155
1877 20076
ate 20048
1861 19932
Ph@@ 19916
1500 19885
ak@@ 19867
Фридри@@ 19856
Q@@ 19852
US@@ 19809
12,@@ 19786
it 19758
Air@@ 19744
1884 19724
En@@ 19682
1863 19680
Ma@@ 19654
Windows 19598
re@@ 19468
og@@ 19467
You 19446
ta 19435
кул@@ 19385
OS 19381
зави@@ 19330
8.@@ 19291
1888 19290
зани 19240
ut@@ 19213
вена 19184
Ne@@ 19164
тря@@ 19156
Par@@ 19078
кия 19077
чо 19069
ландия 19065
него@@ 18958
Све@@ 18894
ica 18875
след 18823
J 18800
1879 18719
200@@ 18694
em 18663
1873 18655
des 18600
1882 18562
age 18562
Софи@@ 18485
годи@@ 18413
10,@@ 18400
кар 18336
Car@@ 18323
ent 18269
Mon@@ 18264
Съ@@ 18197
ката 18190
9.@@ 18171
³ 18150
1881 18131
ver@@ 18127
зо 18124
1871 18079
11,@@ 18063
1876 18019
ok@@ 17938
Z 17673
1883 17631
Македо@@ 17605
лектро@@ 17567
ana 17551
12.@@ 17541
ране 17500
ob@@ 17488
all@@ 17477
160 17465
провинция 17453
1865 17425
1867 17279
da 17269
Un@@ 17200
рано 17198
Ser@@ 17164
Am@@ 17160
10.@@ 17147
чев 17081
Pl@@ 17072
1868 17046
семейство 17044
1850 17026
140 17017
ard 16997
ep@@ 16938
180 16937
eg@@ 16897
1869 16886
0.@@ 16865
vi@@ 16836
голе@@ 16836
ov@@ 16817
CA@@ 16796
AR@@ 16775
Col@@ 16759
1866 16741
1830 16739
1848 16709
пен 16696
az@@ 16683
Di@@ 16583
Group 16561
Ro@@ 16505
Велико@@ 16490
ради 16481
son 16432
Po@@ 16429
und 16329
1872 16300
for 16297
Y 16284
are 16228
Ad@@ 16186
les 16181
наре@@ 16170
ni@@ 16163
община 16148
1875 16124
th 16091
se 16051
насти@@ 16040
id 16037
тна 16031
Gr@@ 15966
eb@@ 15935
ly@@ 15924
Qu@@ 15917
od 15913
si@@ 15909
ata 15904
ice 15901
Or@@ 15899
ina 15813
лд 15795
нами@@ 15738
de@@ 15735
1874 15731
тел@@ 15680
Le@@ 15675
ance 15652
ell 15650
ati@@ 15644
Se@@ 15594
AT@@ 15558
International 15534
май 15476
ace 15454
bi@@ 15449
Fo@@ 15417
MS 15405
est 15402
und@@ 15392
санд@@ 15387
to@@ 15372
ly 15355
te 15334
tion 15333
пол 15300
Son@@ 15284
йска 15277
3000 15221
остана@@ 15213
Спо@@ 15200
ване 15188
ev@@ 15171
BC 15154
СА@@ 15148
un 15137
Play@@ 15064
― 14996
v 14950
Cl@@ 14860
​ 14830
na 14795
all 14791
ce 14789
Awards 14736
So@@ 14715
Gu@@ 14664
per@@ 14643
• 14506
DVD 14497
Love 14408
ител@@ 14319
350 14307
1800 14260
ge 14140
au@@ 14126
бя@@ 14039
pl@@ 14003
ког@@ 13961
11.@@ 13960
and@@ 13926
Mag@@ 13819
Ac@@ 13813
re 13810
Димит@@ 13716
Hot 13692
ore 13678
ea 13651
март 13632
yr@@ 13599
Man@@ 13538
ant 13495
ang@@ 13490
est@@ 13480
uc@@ 13475
900 13451
Met@@ 13439
br@@ 13405
ics 13395
Entertainment 13381
Str@@ 13379
ach@@ 13359
Me 13347
гата 13332
dice 13331
CD 13326
do@@ 13291
Mer@@ 13262
RA@@ 13229
ue 13220
ol 13174
man 13171
80@@ 13168
ok 13149
our 13147
Me@@ 13108
ell@@ 13093
om 13093
ini 13080
50@@ 13065
Times 13027
La 13001
страна 12995
40@@ 12960
We@@ 12899
тира 12851
ale 12825
tic 12797
Pe@@ 12773
пет 12769
северо@@ 12729
Go@@ 12670
af@@ 12653
ts 12653
юго@@ 12652
il 12590
Hol@@ 12540
Q 12520
Lin@@ 12507
души 12463
Pol@@ 12460
ma 12454
Cor@@ 12419
ame 12388
Pro@@ 12329
тях 12310
ence 12305
War@@ 12283
Bl@@ 12237
чна 12234
ou@@ 12211
bo@@ 12197
Microsoft 12196
Company 12154
ner 12142
35@@ 12139
101 12138
Ж 12118
Wh@@ 12095
ity 12082
One 12062
Mot@@ 12054
ens 12014
мож@@ 12003
inae 12002
ES@@ 11979
eo 11946
ong@@ 11891
ai 11873
igh@@ 11866
ks 11816
CO@@ 11809
ver 11780
As@@ 11775
Her@@ 11775
ys@@ 11765
di 11763
жина 11763
124@@ 11741
публику@@ 11741
My 11730
ka 11728
Te@@ 11721
скус@@ 11701
ty 11686
ik@@ 11671
by 11660
ff@@ 11636
ho@@ 11635
преди@@ 11601
AM@@ 11589
TA 11583
Fre@@ 11571
tri@@ 11541
ist@@ 11516
ps 11496
ел 11494
ari@@ 11476
den 11474
ill@@ 11459
ber@@ 11441
била 11438
sh@@ 11437
no@@ 11423
чат 11422
int@@ 11341
пр@@ 11326
ube 11324
ure 11281
htt@@ 11263
Net@@ 11260
iz@@ 11258
Per@@ 11231
август 11203
120@@ 11174
дера@@ 11174
Ver@@ 11173
.com 11172
ek@@ 11160
oll@@ 11150
ons 11144
Li@@ 11102
така 11043
бя 11028
pi@@ 11009
ath@@ 10957
само 10931
mo@@ 10923
Station 10916
ass@@ 10897
Lo@@ 10890
ay@@ 10882
лна 10850
най 10832
Sch@@ 10740
Air 10737
хер@@ 10726
Inter@@ 10715
ack@@ 10709
нея 10709
ensis 10676
end@@ 10579
тя 10574
gr@@ 10568
GC 10558
ws 10557
yl@@ 10543
│ 10536
Mor@@ 10527
You@@ 10523
ci@@ 10509
надле@@ 10485
Dr@@ 10430
bl@@ 10381
ire 10318
á@@ 10283
въ@@ 10280
ain 10265
Ste@@ 10264
ow@@ 10257
Mas@@ 10251
El@@ 10236
Ge@@ 10219
Fi@@ 10214
ne@@ 10178
ite 10141
Si@@ 10127
і 10125
In 10120
der@@ 10118
It 10093
Char@@ 10082
Black 10079
aur@@ 10075
pr@@ 10069
Wor@@ 10038
FC 10028
вани 10026
Tel@@ 10018
la@@ 9956
é@@ 9936
яну@@ 9915
ra@@ 9907
ack 9901
ost 9899
York 9858
par@@ 9852
Live 9823
ing@@ 9816
ler 9813
Do@@ 9765
ton 9737
ary 9724
ist 9718
art 9704
ux 9687
ято 9674
Res@@ 9660
se@@ 9636
ru@@ 9628
All 9623
include 9611
ma@@ 9608
aw@@ 9588
Studi@@ 9557
ce@@ 9544
hi@@ 9534
ex@@ 9528
ne 9518
port 9507
App@@ 9499
j 9464
Life 9449
American 9424
Elec@@ 9419
ile 9409
сни 9402
anc@@ 9401
te@@ 9380
Min@@ 9346
ема 9312
vel 9269
ето 9257
iv@@ 9246
ST@@ 9230
Fl@@ 9226
ital 9213
BBC 9206
ick@@ 9200
lin@@ 9195
Rus@@ 9192
Time 9187
yp@@ 9181
ak 9175
ail@@ 9173
ut 9172
33@@ 9156
Hy@@ 9154
Dre@@ 9142
ings 9140
ey 9097
AP@@ 9054
AC@@ 9053
ess 9053
ory 9048
Rock 9046
way 9039
ect 9034
→ 9033
mar@@ 9001
Chr@@ 8997
ast 8972
Ho@@ 8951
era 8937
Dis@@ 8908
we@@ 8871
sch@@ 8869
рите 8869
Tri@@ 8854
cor@@ 8821
преки 8792
NE@@ 8766
PC 8757
ion 8744
Corpor@@ 8731
ra 8714
oph@@ 8665
едо@@ 8665
Mus@@ 8657
ake 8628
ain@@ 8624
София 8620
Google 8610
ars 8599
land 8588
co 8567
ref 8563
” 8518
sp@@ 8511
ah@@ 8476
Ы@@ 8473
To@@ 8462
Cap@@ 8452
ten 8448
Sol@@ 8439
Por@@ 8393
ike 8358
if@@ 8340
align 8336
COVID 8324
endo 8311
Su@@ 8301
so@@ 8292
Stu@@ 8281
su@@ 8272
ó@@ 8271
Fac@@ 8270
Cre@@ 8253
ans 8253
oy@@ 8248
Gir@@ 8246
Bar@@ 8243
ick 8242
Fr@@ 8222
ug@@ 8209
Har@@ 8191
lines 8179
Club 8162
Ben@@ 8149
pe@@ 8149
eing 8139
ant@@ 8138
gi@@ 8134
No@@ 8131
Pic@@ 8118
BS 8104
ER@@ 8104
ib@@ 8104
ley 8102
ang 8078
tu@@ 8069
Ag@@ 8052
DC 8038
st 8026
Pi@@ 8024
ome 8019
é 8017
{ 8011
ous 8007
tic@@ 7994
tor 7990
FI@@ 7979
be 7971
box 7931
ters 7929
Ul@@ 7926
Те 7859
ology 7852
Red 7839
Man 7814
pe 7812
ors 7798
TC 7791
be@@ 7785
ella 7783
висо@@ 7770
RE@@ 7768
li 7762
Fe@@ 7734
Open 7720
ens@@ 7708
No 7689
WWE 7683
ies 7682
хора 7676
ung 7672
Nor@@ 7662
Gal@@ 7645
man@@ 7619
ub@@ 7618
Wil@@ 7611
AC 7604
Pres@@ 7602
mi@@ 7600
Top 7587
ard@@ 7584
Sci@@ 7579
Европа 7561
СС@@ 7549
Mc@@ 7534
Tom@@ 7508
lu@@ 7508
ere 7503
no 7500
лят 7495
· 7493
Games 7492
tro@@ 7469
ari 7442
Award 7441
Tour 7434
ical 7432
ali@@ 7429
IM@@ 7399
MA 7397
PS 7386
Ab@@ 7384
Й 7376
ti 7371
Bank 7360
car@@ 7356
ise 7344
ator 7338
do 7331
варя 7325
ur 7322
iss@@ 7302
Bi@@ 7299
Media 7288
ong 7279
dro@@ 7277
ie@@ 7268
My@@ 7267
ker 7266
Sim@@ 7259
SA@@ 7249
Star 7248
im 7201
Super 7199
ess@@ 7196
ran@@ 7195
Sec@@ 7174
Radio 7155
ca 7141
ision 7132
try 7105
Can@@ 7067
Des@@ 7060
he@@ 7051
Ang@@ 7047
Wi@@ 7027
mer@@ 7023
IC@@ 7019
inc@@ 7005
atus 7001
Er@@ 6995
AN@@ 6994
del 6993
The@@ 6980
ade 6980
own 6975
At@@ 6973
me@@ 6970
De 6954
eng@@ 6953
ora 6944
tions 6937
ations 6934
рани 6921
CD@@ 6907
SP@@ 6899
ota 6896
Tur@@ 6895
enti@@ 6892
Bur@@ 6882
ke 6856
Au@@ 6852
AD@@ 6847
ena 6842
On@@ 6839
City 6837
ep 6809
gen@@ 6801
Sk@@ 6797
Le 6786
ling 6785
BA 6779
ave 6775
ä@@ 6765
w.@@ 6764
ge@@ 6756
colspan 6753
RO@@ 6745
com@@ 6738
Vol@@ 6736
ass 6713
me 6713
BM@@ 6704
ky 6690
amb@@ 6689
SA 6675
able 6664
ki 6661
Val@@ 6650
sc@@ 6646
EP 6627
q 6616
Bro@@ 6607
work 6606
ish 6604
Bre@@ 6594
yc@@ 6593
SS 6568
io 6554
min@@ 6547
ino 6546
Sw@@ 6545
Blue 6537
Mac@@ 6535
Sy@@ 6528
ys 6527
Vi@@ 6522
tim@@ 6521
Rec@@ 6516
Die 6503
отбор 6499
ud@@ 6494
ta@@ 6486
tures 6486
ath 6482
ā@@ 6478
National 6475
Sof@@ 6472
Disney 6456
ich@@ 6445
Sc@@ 6444
ting 6438
end 6434
ya 6433
Team 6371
Ber@@ 6367
Sil@@ 6366
oth@@ 6363
Pin@@ 6338
style 6337
Wal@@ 6331
str@@ 6323
ek 6317
Sho@@ 6314
Mat@@ 6309
za 6301
Journ@@ 6283
eh@@ 6276
ki@@ 6269
que 6265
Ir@@ 6262
ust 6259
~ 6255
вят 6239
ales 6223
out 6214
UK 6184
ax@@ 6173
ash 6161
con@@ 6158
MP@@ 6150
ment 6140
ww@@ 6138
q@@ 6136
pen@@ 6130
CA 6118
Del@@ 6109
І@@ 6107
Dig@@ 6104
ir 6091
old 6091
Ap@@ 6089
ning 6087
县 6079
tel 6061
cr@@ 6056
ah 6055
ever 6051
US 6049
проти@@ 6048
ase 6046
лиза 6040
yn@@ 6039
On 6016
ano 6016
Ty@@ 6015
ground 6007
alis 6006
201@@ 6000
du 5999
S.@@ 5970
Hor@@ 5964
Jo@@ 5960
osa 5945
SS@@ 5936
All@@ 5932
A.@@ 5924
School 5921
Im@@ 5913
Produc@@ 5910
als 5909
dia 5907
sa 5907
ann@@ 5903
Sing@@ 5902
Gre@@ 5900
区 5879
UN@@ 5874
tra 5868
AG 5860
inal 5860
mer 5858
per 5857
Blo@@ 5850
AB@@ 5843
cu@@ 5834
pp@@ 5831
rest@@ 5818
dio 5816
tw@@ 5815
Big 5814
Street 5783
tro 5778
лите 5771
aceae 5759
ja 5754
dr@@ 5737
oh@@ 5735
Sam@@ 5732
dae 5730
Coun@@ 5729
Hal@@ 5720
Es@@ 5717
ili@@ 5713
ame@@ 5707
ach 5702
ble 5690
Vid@@ 5689
Rot@@ 5678
Star@@ 5677
Lim@@ 5672
ото 5670
AS 5661
Dar@@ 5657
for@@ 5644
Eng@@ 5643
Super@@ 5643
Vir@@ 5643
Fil@@ 5642
Pri@@ 5617
Cy@@ 5616
Reg@@ 5615
Tw@@ 5614
α 5609
ә@@ 5599
госу@@ 5598
Seg@@ 5594
Ren@@ 5581
йни 5581
Eur@@ 5571
mon@@ 5565
ski 5557
antas@@ 5555
} 5550
‘ 5545
Trans@@ 5543
hy@@ 5543
ero 5538
res@@ 5537
ler@@ 5532
ba@@ 5529
Ra@@ 5520
CE@@ 5515
Best 5505
Hon@@ 5500
Kr@@ 5499
with 5483
amp@@ 5477
Sal@@ 5463
DS 5445
System 5441
ym@@ 5413
Gi@@ 5409
line 5397
Grand 5394
ind@@ 5392
name 5387
Op@@ 5385
Vo@@ 5381
Techn@@ 5380
ebo@@ 5362
щите 5362
VI@@ 5358
Cal@@ 5356
Rom@@ 5354
tron@@ 5354
Win@@ 5352
Art 5351
A. 5341
ama 5339
tar@@ 5338
Sm@@ 5333
CH@@ 5327
Fin@@ 5324
ten@@ 5321
ou 5320
Aut@@ 5302
ones 5300
au 5282
ava 5276
Ind@@ 5275
Sou@@ 5273
Bu@@ 5265
Pal@@ 5264
bus 5261
aci@@ 5258
ds 5250
sion 5247
Ros@@ 5244
low 5242
Lit@@ 5236
azine 5226
ax 5221
лиан@@ 5219
Leg@@ 5214
\ 5211
ə@@ 5168
Dev@@ 5163
Gen@@ 5161
ms 5143
Mi@@ 5124
por@@ 5113
ault 5112
Day 5107
ken 5105
Off@@ 5104
elle 5102
Gl@@ 5094
ven@@ 5094
ill 5092
дове 5091
tle 5082
sk@@ 5080
ord@@ 5069
aj@@ 5067
bu@@ 5065
University 5046
ita 5043
wer@@ 5040
ry 5037
Bal@@ 5036
Uni@@ 5014
Bab@@ 5013
wood 5005
Don 5004
color 5003
une 5001
tel@@ 4999
ac 4989
Pan@@ 4987
ish@@ 4984
Bel@@ 4982
tor@@ 4982
of@@ 4980
fl@@ 4979
Em@@ 4976
ko@@ 4976
Cas@@ 4974
Univers@@ 4964
Tor@@ 4961
Ke@@ 4953
ł@@ 4953
Mel@@ 4950
ems 4942
Bor@@ 4936
Roc@@ 4935
ni 4915
ef@@ 4900
Ni@@ 4868
ori@@ 4866
ung@@ 4863
up@@ 4862
ѣ@@ 4862
Sur@@ 4856
America 4854
ë@@ 4848
mag@@ 4845
King 4843
Pow@@ 4840
die 4840
ab 4835
ez@@ 4830
gu@@ 4819
its 4819
ura 4819
ich 4816
press 4812
To 4810
Gar@@ 4802
Boy@@ 4800
col@@ 4788
eli@@ 4785
Ed@@ 4760
β 4759
kh@@ 4753
ways 4752
Pre@@ 4732
ici@@ 4731
John 4727
ins 4727
чни 4718
Av@@ 4714
Kar@@ 4714
lan@@ 4713
mb@@ 4701
General 4697
va 4693
che 4689
China 4680
нове 4675
ane 4674
Pu@@ 4673
Tro@@ 4673
Blu@@ 4669
king 4662
att@@ 4653
uk@@ 4649
Tun@@ 4645
lobal 4642
las 4641
amm@@ 4632
uz@@ 4631
ö@@ 4624
ara 4622
ap 4619
Prot@@ 4613
du@@ 4609
½ 4608
AI@@ 4605
ated 4605
ides 4605
ums 4600
Que@@ 4598
lo 4597
ha 4594
Ri@@ 4583
ey@@ 4583
illa 4580
Ci@@ 4577
ber 4575
House 4571
Sum@@ 4569
Gol@@ 4560
ola 4544
els 4540
mat@@ 4540
Bul@@ 4535
til@@ 4516
Hum@@ 4513
ection 4512
Cam@@ 4510
± 4506
vil 4503
тези 4500
Lu@@ 4480
Mad@@ 4479
ada 4474
ros@@ 4474
dy 4472
Ye@@ 4470
cre@@ 4468
Rem@@ 4463
ange 4460
aus@@ 4458
š@@ 4455
Wat@@ 4446
ro 4446
CI@@ 4443
Show 4440
Mach@@ 4438
yth@@ 4438
Hi@@ 4437
High 4437
ai@@ 4434
air@@ 4432
Je@@ 4429
back@@ 4423
AM 4422
bes 4395
cer@@ 4373
Ferr@@ 4362
Bus@@ 4357
ala 4351
fin@@ 4350
ports 4348
This 4338
air 4328
sa@@ 4326
Mir@@ 4320
tes 4314
Hel@@ 4310
sia 4309
Is@@ 4296
ney 4296
Ь@@ 4296
Park 4291
ster 4291
专@@ 4288
стве@@ 4285
can@@ 4281
Film 4276
from 4275
day 4270
Medi@@ 4269
ye 4269
ei 4268
бата 4267
Tal@@ 4263
ae@@ 4261
enn@@ 4259
.е. 4255
Alb@@ 4249
text 4244
ger 4242
ates 4241
Mis@@ 4238
ida 4238
har@@ 4232
tur@@ 4232
fr@@ 4229
White 4227
cl@@ 4227
fa 4224
ex 4221
ls 4220
ї@@ 4219
El 4218
NA 4218
left 4212
ster@@ 4206
Center 4204
lar@@ 4204
Nov@@ 4200
І 4194
няко@@ 4190
ide 4184
ette 4183
ser@@ 4183
ights 4178
ture 4176
CO 4169
Ger@@ 4166
ze 4165
Mal@@ 4163
ider 4161
Band 4160
Ear@@ 4157
int 4157
pos@@ 4147
Squ@@ 4136
ign 4136
atr@@ 4124
Wo@@ 4117
í@@ 4117
United 4112
op 4112
view 4112
app@@ 4111
.н@@ 4101
ните 4101
sub@@ 4097
ve@@ 4095
ited 4091
sol@@ 4088
New@@ 4086
unt 4077
arr@@ 4073
Championship 4072
бря 4070
Syst@@ 4065
ast@@ 4060
AP 4058
cur@@ 4055
idea 4039
Ob@@ 4023
Proj@@ 4020
лени 4019
orum 4017
ual 4017
mp@@ 4006
£ 4006
eci@@ 4000
time 3997
Royal 3996
ater 3992
oni@@ 3990
vo 3987
the@@ 3977
Ca@@ 3974
ope 3973
ү@@ 3968
ets 3952
CC@@ 3949
si 3945
€ 3944
cul@@ 3936
ium 3936
ema 3932
inn@@ 3928
nam@@ 3925
Rol@@ 3920
po 3909
net 3901
Bir@@ 3899
crip@@ 3898
tin@@ 3896
assi@@ 3892
Sa@@ 3891
ple 3890
Ti@@ 3886
wor@@ 3885
ock 3883
cap@@ 3879
chi@@ 3876
von 3869
Hot@@ 3865
adi@@ 3859
† 3854
Meg@@ 3847
Soci@@ 3845
Cup 3827
─ 3823
ays 3819
Cro@@ 3818
ental 3813
Bas@@ 3809
Mit@@ 3808
Festival 3806
ury 3803
Spe@@ 3799
ko 3799
ace@@ 3793
tis 3787
à 3782
ash@@ 3778
Les 3772
ents 3767
ьор 3767
Cer@@ 3766
ega 3765
La@@ 3757
ani 3757
Il@@ 3755
British 3753
Kor@@ 3752
ke@@ 3746
iti@@ 3745
agen 3739
France 3734
Македония 3734
tica 3732
sy@@ 3722
ts@@ 3722
Rail@@ 3720
Christ@@ 3718
Dol@@ 3717
ime 3716
Du@@ 3708
Ban@@ 3707
Mid@@ 3707
atur@@ 3705
Ru@@ 3698
onn@@ 3694
vir@@ 3689
center 3681
ement 3677
Oper@@ 3675
su 3671
Cat@@ 3666
ady 3656
earch 3649
ature 3646
dition 3638
sel@@ 3637
cus 3613
Ur@@ 3608
Ze@@ 3607
go 3607
ond 3601
Mos@@ 3599
Ter@@ 3594
Cin@@ 3589
dis@@ 3588
del@@ 3572
ution 3571
cas@@ 3567
County 3566
Hu@@ 3561
War 3561
ern@@ 3560
ful 3556
low@@ 3555
vent@@ 3555
ene 3551
Sun@@ 3547
Cur@@ 3546
put@@ 3546
Direc@@ 3538
ket 3535
ua 3535
ona 3527
Rel@@ 3524
Oc@@ 3523
ee 3521
ome@@ 3521
ista 3520
olog@@ 3518
eta 3516
Deutsch@@ 3510
edi@@ 3510
Mark 3508
pel@@ 3505
annel 3504
ff 3502
pol@@ 3501
West 3498
tics 3492
е. 3490
fic 3488
ha@@ 3486
For 3484
others 3483
ense 3478
ops 3477
Cir@@ 3476
Wol@@ 3476
zi@@ 3475
bor@@ 3473
ding 3472
San 3470
vol@@ 3470
Liv@@ 3467
ith 3461
Gro@@ 3453
Arts 3451
M. 3450
og 3450
amo@@ 3447
lam@@ 3447
kar@@ 3445
oma 3444
Do 3443
anth@@ 3443
ө@@ 3443
Japan 3439
sche 3435
WW@@ 3434
berg 3434
agr@@ 3433
span 3428
val@@ 3424
bar@@ 3421
aria 3419
field 3419
her@@ 3413
ische 3410
SC 3408
ello 3408
чели 3407
pa 3405
Mil@@ 3395
Loc@@ 3393
anti@@ 3393
ა@@ 3392
wa 3390
ony 3388
sian 3386
Plan@@ 3385
eter@@ 3385
ech 3383
йски 3379
my 3374
tus 3374
Dec@@ 3366
Not@@ 3360
ative 3359
sen 3356
rec@@ 3352
Ju@@ 3340
Chil@@ 3339
so 3337
top 3335
London 3325
ein@@ 3324
ines 3324
men@@ 3323
Pas@@ 3315
other 3311
fol@@ 3306
ze@@ 3300
Sub@@ 3295
ba 3291
yo 3289
bre@@ 3281
Road 3280
go@@ 3276
P. 3274
ix 3274
pha 3274
mor@@ 3273
Young 3272
art@@ 3271
Mem@@ 3264
Commun@@ 3263
tin 3256
omo 3251
Columb@@ 3250
Lar@@ 3246
ian 3246
Green 3240
Association 3236
vic@@ 3235
fo@@ 3233
своя 3232
fer@@ 3229
wo 3224
Ы 3222
ends 3219
á 3218
elec@@ 3216
loy@@ 3215
ond@@ 3215
Na@@ 3207
Rev@@ 3204
ree 3202
ustri@@ 3199
use 3195
mas@@ 3188
pu@@ 3170
ine@@ 3168
Fut@@ 3167
row 3160
Form@@ 3158
қ@@ 3157
Luc@@ 3155
ი@@ 3147
play 3141
aft 3136
ico 3135
ця@@ 3134
Stand@@ 3133
ius 3133
over 3132
ima 3126
ft 3125
err@@ 3117
ula 3116
very 3111
hi 3109
č@@ 3108
anus 3107
Ev@@ 3099
pre@@ 3098
ario 3097
League 3086
eus 3086
Astr@@ 3078
onia 3078
son@@ 3078
ign@@ 3071
gar@@ 3069
oug@@ 3066
isi@@ 3063
Ali@@ 3059
Force 3059
mann 3056
May@@ 3055
Tre@@ 3054
Spr@@ 3052
eri@@ 3050
uch@@ 3050
Phil@@ 3048
ison 3048
Society 3043
tom@@ 3040
Song 3038
как@@ 3037
rit@@ 3035
erg@@ 3030
ny 3024
yg@@ 3024
ez 3018
ains 3016
oni 3015
das 3013
light 3009
Kon@@ 3008
ces 3006
Micro@@ 2998
ote 2997
South 2995
ku@@ 2989
mac@@ 2988
Vic@@ 2982
unc@@ 2979
elop@@ 2978
mus@@ 2978
É@@ 2972
Pop@@ 2970
dic@@ 2967
ety 2966
Gener@@ 2965
Red@@ 2963
Shi@@ 2960
asi@@ 2959
sti@@ 2957
ness 2955
USA 2952
нски 2952
Los 2950
Fri@@ 2948
hu@@ 2946
Volks@@ 2938
ail 2938
Kn@@ 2937
Europe 2936
ids 2934
ear@@ 2925
craft 2923
Paul 2922
arg@@ 2918
Kom@@ 2916
occ@@ 2915
D. 2914
Plat@@ 2914
St 2914
ole 2912
act@@ 2909
Vis@@ 2905
con 2899
‑ 2898
rol@@ 2896
First 2895
ech@@ 2893
pro@@ 2893
form@@ 2891
Sab@@ 2890
Atlan@@ 2888
eme 2888
Pap@@ 2887
1. 2882
ans@@ 2881
alm@@ 2877
anz@@ 2877
iness 2875
cel@@ 2873
right 2873
eri 2870
Tok@@ 2867
oo 2860
ams 2858
tal 2857
kin 2851
enc@@ 2843
ati 2837
ii 2836
tu 2835
vice 2831
ban@@ 2826
ny@@ 2826
Kin@@ 2819
wid@@ 2818
ego 2815
udi@@ 2814
пред 2814
isti@@ 2813
Ta@@ 2810
sus 2805
ези@@ 2805
fe@@ 2798
Land 2795
ough 2794
des@@ 2790
ado@@ 2780
Mul@@ 2779
Great 2774
Pa@@ 2773
Fu@@ 2769
ik 2769
Ham@@ 2767
Hall 2765
our@@ 2764
Rh@@ 2763
North 2762
inus 2757
Ran@@ 2756
ford 2752
fi@@ 2751
ier@@ 2750
eph@@ 2749
let@@ 2744
Bet@@ 2743
una 2743
Cu@@ 2739
wi@@ 2739
Lab@@ 2735
ple@@ 2732
Mak@@ 2729
arch@@ 2728
vo@@ 2722
ost@@ 2705
Cul@@ 2701
Aus@@ 2697
ort 2697
tory 2696
arm@@ 2694
reg@@ 2693
now 2692
tain 2684
Enter@@ 2683
Alli@@ 2680
Nav@@ 2679
ov 2673
Camp@@ 2670
Rob@@ 2669
lock 2669
Beau@@ 2667
ants 2667
Ko@@ 2665
war@@ 2664
Dor@@ 2663
music 2663
ople 2659
ji 2658
Cel@@ 2652
ado 2636
ther 2634
wn 2634
State 2633
Web@@ 2633
Chi@@ 2631
sur@@ 2631
ī@@ 2631
′ 2630
мите 2629
loc@@ 2628
type 2628
College 2625
oto 2623
ng@@ 2620
Dem@@ 2616
soci@@ 2612
San@@ 2609
West@@ 2609
lat@@ 2607
ali 2606
agement 2601
Nik@@ 2600
ark@@ 2599
Mur@@ 2596
Museum 2595
History 2594
cal@@ 2593
kl@@ 2590
ally 2587
ille 2585
inger 2579
Haw@@ 2578
key 2578
tho@@ 2577
ato 2575
Far@@ 2571
C. 2570
och@@ 2569
attle 2566
§ 2565
David 2564
uf@@ 2563
ü@@ 2562
ila 2559
Der 2557
opsis 2557
bel@@ 2555
Natur@@ 2554
less 2554
Syn@@ 2553
aga 2553
ures 2551
Vel@@ 2550
Union 2548
ont 2548
ela 2547
Bon@@ 2546
tiv@@ 2546
месе@@ 2546
0.000 2543
lis 2543
los@@ 2540
Fal@@ 2538
Radi@@ 2535
cal 2535
Hill 2534
yst@@ 2534
ე@@ 2534
Arch@@ 2532
ely 2531
ami 2530
199@@ 2529
V. 2528
Institute 2525
Famil@@ 2524
ger@@ 2524
Island 2520
ese 2520
inter@@ 2519
í 2519
European 2518
stein 2518
ted 2517
unk@@ 2515
Tow@@ 2514
mes 2510
Revol@@ 2509
СШ@@ 2506
Tod@@ 2500
ats 2500
ering 2493
ties 2489
Kir@@ 2487
министра@@ 2481
Rap@@ 2479
com 2479
sen@@ 2477
Mes@@ 2474
ip@@ 2473
ologi@@ 2470
Chem@@ 2468
rap@@ 2468
Paris 2466
ret 2457
serv@@ 2456
eum 2455
ld 2448
Ven@@ 2447
van 2447
ord 2446
Martin 2444
eth 2444
nis 2444
ž@@ 2444
side 2443
edy 2442
outh 2442
Am 2439
fre@@ 2435
жава 2434
FA 2431
â@@ 2431
ishi 2430
tig@@ 2429
estr@@ 2427
lus@@ 2424
act 2419
tan@@ 2415
hr@@ 2413
Hom@@ 2410
bur@@ 2409
ust@@ 2407
East 2404
Kis@@ 2403
hor@@ 2403
active 2402
Liber@@ 2396
peri@@ 2396
aus 2395
Lib@@ 2394
unter 2394
ѣ 2393
ide@@ 2391
nh@@ 2391
ga 2390
cy 2379
ying 2375
Academy 2372
ume 2371
optera 2368
iga 2366
cin@@ 2365
az 2364
char@@ 2363
Dom@@ 2361
up 2361
ї 2361
tre@@ 2357
ör@@ 2357
Cru@@ 2356
emp@@ 2356
ér@@ 2356
bir@@ 2355
ences 2351
ier 2351
egr@@ 2350
bo 2348
ito 2347
mu@@ 2345
sal@@ 2345
hin@@ 2343
Def@@ 2339
лния 2339
Mol@@ 2333
With 2333
ect@@ 2332
ister 2332
Washington 2329
цел 2329
From 2328
ories 2328
Sav@@ 2327
ols 2323
ason 2322
len@@ 2322
Internet 2321
ao 2319
-- 2318
azz 2318
So 2311
King@@ 2308
Ox@@ 2308
house 2306
ée 2304
itz 2303
ira 2302
Ori@@ 2301
DV@@ 2300
Ba@@ 2299
Sin@@ 2298
mod@@ 2295
æ@@ 2295
Mu@@ 2294
rel@@ 2293
----@@ 2292
isa 2292
bat@@ 2291
Al 2287
yn 2286
Mich@@ 2284
stre@@ 2282
Sar@@ 2279
rom@@ 2278
Orig@@ 2277
Est@@ 2272
tical 2272
Publi@@ 2270
Med@@ 2268
thern 2268
leg@@ 2267
Rad@@ 2265
Stre@@ 2262
Os@@ 2261
Sel@@ 2257
ald 2256
esp@@ 2255
trol 2254
Max 2252
Doc@@ 2249
nch@@ 2249
Tou@@ 2247
dom 2247
Eu@@ 2245
Ь 2245
0,000 2243
istr@@ 2243
für 2240
ean 2239
Central 2237
190@@ 2236
Fran@@ 2230
Canada 2228
mit@@ 2226
ew@@ 2222
ғ@@ 2222
osp@@ 2220
къ@@ 2216
Dou@@ 2214
ლ@@ 2214
Tim@@ 2210
lin 2209
Ha@@ 2207
Party 2207
tre 2207
mel@@ 2204
ache 2203
sin@@ 2202
198@@ 2201
lum 2201
urs 2198
DR 2196
oria 2194
pal@@ 2194
ons@@ 2192
But@@ 2190
dings 2190
oks 2188
地区 2184
ein 2183
├ 2180
ani@@ 2179
Arti@@ 2177
Ak@@ 2176
atre 2175
Š@@ 2170
pres@@ 2169
men 2168
qui@@ 2167
win 2167
eti@@ 2166
fer 2162
je 2158
Mod@@ 2155
ա@@ 2153
Han@@ 2151
Sen@@ 2151
Whit@@ 2146
Af@@ 2142
pa@@ 2142
ns 2140
å@@ 2140
Tran@@ 2139
Lat@@ 2137
Phili@@ 2136
iller 2135
ō@@ 2135
Long 2130
depend@@ 2130
Cle@@ 2129
Michael 2129
Ig@@ 2128
Ly@@ 2124
ins@@ 2117
Fol@@ 2116
Sto@@ 2110
сред 2106
живот 2104
uss@@ 2103
ham 2102
tern 2102
Ath@@ 2098
eld 2096
kr@@ 2094
Pen@@ 2093
William 2092
don 2089
ç@@ 2088
Prix 2087
James 2086
ci 2077
ty@@ 2076
down 2072
tis@@ 2067
Fer@@ 2066
rich@@ 2065
Tour@@ 2063
mas 2063
E. 2061
Gold@@ 2059
mi 2057
public 2057
Feder@@ 2056
Bri@@ 2053
Real 2052
nik 2052
red 2051
jo 2047
ots 2047
well 2046
Anth@@ 2045
anci@@ 2041
ods 2039
@ 2038
Sem@@ 2036
conom@@ 2036
Comp@@ 2030
2. 2029
музи@@ 2027
ă@@ 2026
lia 2024
c. 2018
dern 2018
emati@@ 2017
tive 2016
ender 2015
ington 2015
As 2012
wo@@ 2011
When 2008
mot@@ 2002
zy@@ 2002
ania 2000
Vill@@ 1997
Az@@ 1995
Kur@@ 1992
chi 1987
Hav@@ 1986
Progr@@ 1985
iss 1985
Jean 1981
Maj@@ 1978
erry 1978
`@@ 1977
iger 1977
Bos@@ 1975
Қ@@ 1974
mm 1973
cher 1971
Tan@@ 1968
Jan@@ 1967
ship 1964
He 1962
don@@ 1957
elli 1957
idge 1957
sho@@ 1957
Щ 1955
alb@@ 1952
Juni@@ 1950
Got@@ 1949
Hand@@ 1949
ality 1949
י@@ 1949
esc@@ 1947
Gh@@ 1940
land@@ 1940
вите 1937
^ 1936
ova 1936
Math@@ 1935
ross 1935
ular 1935
George 1934
tia 1932
ando 1930
Ram@@ 1929
ischen 1928
uli@@ 1926
Дим@@ 1926
oman 1921
he 1920
Lou@@ 1918
works 1917
Ol@@ 1915
under@@ 1915
Prim@@ 1914
ih@@ 1914
ther@@ 1913
ext 1910
Sor@@ 1908
ś@@ 1907
Album 1904
Patr@@ 1902
ishing 1902
augh@@ 1901
ante 1899
fa@@ 1899
olo@@ 1899
Lang@@ 1898
acy 1898
sey 1898
Angeles 1896
dit 1895
Chicago 1894
gl@@ 1893
uv@@ 1886
Dur@@ 1885
ric@@ 1884
Bot@@ 1883
Gaz@@ 1883
Land@@ 1883
Robert 1883
ré@@ 1883
რ@@ 1878
Sat@@ 1875
aire 1875
not@@ 1873
Ale@@ 1872
zi 1870
ø@@ 1870
yd@@ 1868
Laur@@ 1867
ו@@ 1866
Tit@@ 1865
Don@@ 1863
ē@@ 1863
head 1860
ck 1858
ebr@@ 1858
let 1858
ords 1857
Tek@@ 1855
cle 1855
entr@@ 1851
lem@@ 1851
world 1851
oa 1850
Bol@@ 1848
iy@@ 1848
uti@@ 1847
ä 1846
Van 1843
back 1843
ür@@ 1842
section 1841
iki 1840
did@@ 1839
abr@@ 1837
ente 1835
seud@@ 1834
vers@@ 1830
ste@@ 1829
Arm@@ 1828
sim@@ 1827
дите 1827
är@@ 1826
ител 1824
port@@ 1822
sil@@ 1820
ident 1816
prise 1816
dom@@ 1815
ump@@ 1815
Mari@@ 1811
set 1810
епи@@ 1810
Peter 1808
Cop@@ 1806
юли 1804
CN 1800
lie 1800
lag 1798
ager 1788
Lev@@ 1787
sec@@ 1787
cha 1786
Nu@@ 1784
ais@@ 1782
Kal@@ 1780
Div@@ 1779
Gor@@ 1779
geh@@ 1779
aya 1778
chil@@ 1778
ém@@ 1778
ret@@ 1777
‰ 1774
Dam@@ 1773
ush@@ 1772
Maz@@ 1770
Saint 1768
bas@@ 1768
pan@@ 1768
mil@@ 1767
An 1766
州 1765
yon@@ 1764
Cast@@ 1762
aun@@ 1762
ute 1762
ā 1762
cho 1761
tem@@ 1760
Maria 1758
pf@@ 1758
win@@ 1758
Williams 1754
ul 1754
zo 1752
Western 1749
lit@@ 1747
α@@ 1746
gh@@ 1745
den@@ 1742
Asia 1741
verse 1740
tn@@ 1738
wal@@ 1737
Lor@@ 1736
ards 1736
ket@@ 1735
tion@@ 1735
≈ 1735
aux 1734
--@@ 1733
Empire 1733
Acc@@ 1731
ef 1730
ks@@ 1729
Tak@@ 1727
cop@@ 1727
apo@@ 1726
Il 1725
agu@@ 1725
pes 1725
estra 1723
ais 1720
not 1720
High@@ 1719
ele 1719
Tar@@ 1718
She 1717
tal@@ 1716
Lam@@ 1714
Thomas 1713
pon 1713
Gran@@ 1712
yle 1712
Ky@@ 1710
ville 1710
правител@@ 1710
ves 1707
Ker@@ 1706
prin@@ 1706
Bay 1705
cep@@ 1705
Bat@@ 1704
Den@@ 1704
icul@@ 1704
struc@@ 1704
River 1702
Scot@@ 1702
Pot@@ 1700
vers 1700
dig@@ 1699
гъ@@ 1699
aro 1698
ont@@ 1698
enta 1696
iden 1695
Ann@@ 1693
Clar@@ 1693
Conn@@ 1692
sych@@ 1692
Pon@@ 1691
Roy@@ 1691
dium 1689
è@@ 1689
her 1684
we 1683
nom@@ 1682
Kat@@ 1681
Som@@ 1681
Gra@@ 1680
Brown 1678
len 1678
Dav@@ 1677
ept@@ 1675
off 1674
197@@ 1673
ј@@ 1673
ika 1672
кото 1672
Das 1667
alth 1665
gre@@ 1664
itung 1664
oz@@ 1663
anger 1660
anda 1658
esti@@ 1657
tra@@ 1657
yo@@ 1657
nu@@ 1655
Geor@@ 1651
Smith 1649
odi@@ 1647
can 1645
Pil@@ 1644
ism 1642
sur 1642
Andre@@ 1640
Sand@@ 1639
ə 1639
ites 1638
mo 1638
lers 1636
Ot@@ 1635
Town 1635
uy@@ 1634
emb@@ 1633
194@@ 1632
nati@@ 1632
It@@ 1631
френ@@ 1631
bert 1628
ett 1628
ў@@ 1628
ori 1626
Indi@@ 1625
Num@@ 1621
ão 1621
ū@@ 1619
ръ@@ 1618
xe 1616
Rog@@ 1615
Champi@@ 1611
astr@@ 1608
series 1608
Wer@@ 1607
вси@@ 1607
Населе@@ 1605
aka 1604
log@@ 1604
Kun@@ 1603
ages 1603
onal 1602
alia 1601
thi@@ 1601
Tem@@ 1600
gen 1599
yan@@ 1599
bun@@ 1598
nes 1598
ult@@ 1598
bro@@ 1593
adr@@ 1592
mark 1592
duc@@ 1590
trol@@ 1590
Canadi@@ 1589
Centre 1589
196@@ 1586
ი 1586
Sau@@ 1581
ban 1579
ques 1579
ო@@ 1579
Bru@@ 1578
Mary 1577
asa 1576
aff@@ 1575
var@@ 1574
S. 1571
ami@@ 1569
ң 1569
ands 1562
lands 1562
alis@@ 1561
Fam@@ 1560
Si 1560
face 1559
partment 1559
wat@@ 1557
action 1556
aja 1555
alt@@ 1555
sions 1555
Women 1554
bil@@ 1554
sive 1553
pop 1551
Sig@@ 1550
esta 1550
group 1550
sky 1548
fac@@ 1546
yi 1546
ological 1545
awa 1544
γ 1544
aha 1543
vis@@ 1542
ng 1541
Ki@@ 1540
pin@@ 1540
met@@ 1539
hal@@ 1538
nov@@ 1538
Sup@@ 1535
ˈ@@ 1533
onom@@ 1532
mal@@ 1529
cast 1528
sit@@ 1527
xim@@ 1524
Kh@@ 1523
oi 1523
Nam@@ 1522
plic@@ 1520
tern@@ 1520
Juli@@ 1518
even 1516
B. 1514
kon@@ 1514
fil@@ 1513
ú@@ 1513
ince 1512
Č@@ 1511
Dan@@ 1504
India 1504
if 1504
under 1504
Bil@@ 1503
body 1502
more 1502
ó 1502
Santa 1501
Fel@@ 1500
Texas 1500
Mut@@ 1499
Christian 1498
Organ@@ 1498
R. 1498
ser 1497
ton@@ 1497
193@@ 1496
gan 1496
inf@@ 1495
3. 1494
Pat@@ 1494
grap@@ 1494
unds 1493
Louis 1492
Con 1491
ć 1488
ert 1487
188@@ 1486
Division 1485
aborat@@ 1484
ę@@ 1484
san@@ 1483
web 1483
viv@@ 1482
After 1481
Lon@@ 1480
апри@@ 1480
ox@@ 1478
,000 1477
din@@ 1477
bis@@ 1476
án 1475
ě@@ 1474
ili 1473
Charles 1471
Der@@ 1471
abri@@ 1470
sig@@ 1470
bal@@ 1469
dan 1469
tera 1469
Mill@@ 1467
dem@@ 1466
Brit@@ 1465
eck 1464
Berlin 1463
Eri@@ 1463
vel@@ 1463
ses 1462
ects 1460
Eg@@ 1459
Tenn@@ 1458
Arg@@ 1457
ń@@ 1457
Ash@@ 1456
ri 1456
Men@@ 1453
ido 1451
lig@@ 1449
non 1449
Jus@@ 1448
idi@@ 1448
Ъ 1447
ister@@ 1445
.C. 1444
ells 1444
ô@@ 1442
ag 1439
je@@ 1439
ion@@ 1437
medi@@ 1437
ask@@ 1435
ren@@ 1435
She@@ 1434
uke 1433
Football 1432
Ari@@ 1430
itz@@ 1427
Harr@@ 1426
ode 1425
dis 1424
ón 1420
chen 1418
gia 1418
ң@@ 1418
Da 1417
California 1416
Jac@@ 1413
vin@@ 1413
chin@@ 1412
Lee 1411
bis 1409
nia 1408
ungen 1408
Bud@@ 1407
wh@@ 1407
kin@@ 1406
ston 1406
west 1406
cm 1405
pri@@ 1405
195@@ 1404
atin 1404
opo@@ 1404
ს@@ 1402
ball 1401
қ 1400
ett@@ 1399
Bow@@ 1398
L. 1397
cat@@ 1397
Centr@@ 1396
Hit@@ 1395
ento 1394
self 1393
zu 1393
round 1391
gro@@ 1389
mis@@ 1389
mit 1389
Jes@@ 1388
än@@ 1386
ner@@ 1385
uld 1385
iki@@ 1382
Ka@@ 1381
Din@@ 1380
Nic@@ 1380
dren 1380
form 1380
阳@@ 1379
Australian 1376
U.S. 1375
formes 1373
that 1373
Wit@@ 1372
oti@@ 1369
ird 1368
off@@ 1368
pul@@ 1368
един 1368
ұ@@ 1368
At 1367
come 1366
жени 1365
sor@@ 1363
bus@@ 1362
Anti@@ 1361
hips 1361
Rou@@ 1359
Ing@@ 1357
Sport@@ 1354
ills 1354
гите 1353
.S. 1352
Educ@@ 1351
polit@@ 1351
треш@@ 1351
enz@@ 1350
eria 1350
There 1348
Mont@@ 1346
aza 1345
sw@@ 1345
elt 1344
Cou@@ 1343
I. 1343
agn@@ 1343
ating 1343
phy@@ 1343
vor 1343
én@@ 1343
fri@@ 1342
‎ 1342
aer@@ 1341
lor@@ 1341
ique 1338
Ges@@ 1337
ham@@ 1335
iro 1335
ischer 1335
onald 1333
Hug@@ 1332
org@@ 1332
aly@@ 1331
Bib@@ 1329
Hil@@ 1329
asti@@ 1329
otr@@ 1326
ago 1325
є@@ 1325
Richard 1324
da@@ 1323
Kan@@ 1322
los 1320
sta 1320
uma 1320
lov@@ 1318
Andr@@ 1317
lay@@ 1317
oca 1316
ores 1315
omb@@ 1314
Wa@@ 1313
Prin@@ 1312
192@@ 1311
bi 1310
Boston 1309
Kl@@ 1309
Tom 1307
acc@@ 1307
af 1307
ow 1307
Jer@@ 1306
isch@@ 1306
tura 1306
Tu@@ 1304
gs 1304
tice 1304
Sz@@ 1303
bot 1302
ose 1302
Lake 1299
lam 1297
alls 1296
Alexander 1295
eer 1293
thr@@ 1293
ker@@ 1290
chester 1289
itu@@ 1289
zen 1289
bul@@ 1287
ift 1287
Shu@@ 1285
Archit@@ 1284
тото 1284
4. 1278
ij@@ 1278
esa 1277
ère 1277
Kit@@ 1276
xi@@ 1276
H. 1275
els@@ 1275
ires 1274
net@@ 1274
uri 1273
öl@@ 1271
lev@@ 1270
ë 1270
enne 1269
fic@@ 1269
wan@@ 1269
Ku@@ 1266
Thom@@ 1266
English 1264
life 1264
mun@@ 1263
Hak@@ 1262
data 1262
formation 1262
long@@ 1262
res 1262
州@@ 1262
ité 1260
chr@@ 1259
FIFA 1258
ye@@ 1258
rup@@ 1255
Jack 1254
Jor@@ 1254
dor@@ 1254
eder@@ 1254
nor@@ 1253
Hen@@ 1251
нето 1249
eca 1248
ices 1248
ă 1247
Tex@@ 1246
Henry 1245
Milit@@ 1245
fe 1244
南@@ 1242
ective 1241
Var@@ 1240
Blan@@ 1238
real 1237
sum@@ 1237
Australia 1236
ges 1236
ward 1236
Kre@@ 1234
Kam@@ 1233
ven 1233
ą@@ 1233
vid@@ 1229
hon@@ 1228
cip@@ 1225
зира 1225
any@@ 1224
ბ@@ 1222
ades 1221
vor@@ 1221
vie@@ 1219
ju@@ 1218
eur 1216
fes@@ 1216
Rum@@ 1215
onder@@ 1215
ann 1214
bit 1214
Id@@ 1213
cy@@ 1213
hab@@ 1213
atis@@ 1211
ches 1209
star@@ 1209
eu@@ 1206
out@@ 1206
ː 1205
dec@@ 1204
Α@@ 1204
eine 1203
kw@@ 1203
Biz@@ 1200
ō 1200
kom@@ 1199
lip@@ 1199
get 1197
wil@@ 1197
ος 1197
ference 1196
Bah@@ 1195
Mah@@ 1195
Pom@@ 1195
prop@@ 1195
Rod@@ 1193
bri@@ 1193
ron@@ 1193
Liter@@ 1191
chan@@ 1188
yan 1188
ў 1188
Yor@@ 1187
Георги 1186
aves 1185
ony@@ 1185
beg@@ 1184
Nak@@ 1183
his 1183
Nar@@ 1182
cho@@ 1181
Name 1180
och 1180
Beh@@ 1179
By 1179
pedi@@ 1179
β@@ 1179
Hein@@ 1177
ვ@@ 1176
cli@@ 1175
Person@@ 1173
lav@@ 1173
Ι@@ 1173
fu@@ 1172
él@@ 1171
Yah@@ 1169
dle 1168
hom@@ 1166
Joseph 1165
aki 1165
liz@@ 1164
sch 1164
bit@@ 1160
aba 1159
Premi@@ 1158
ho 1158
ungs@@ 1157
æ 1157
band 1156
pro 1156
Bau@@ 1155
wer 1155
eau 1152
aco 1151
ca@@ 1151
Domin@@ 1148
ete 1148
tier 1147
º@@ 1147
sis 1146
teri@@ 1146
book 1144
lim@@ 1143
tol@@ 1141
Vor@@ 1140
Bay@@ 1139
ester 1139
uh@@ 1139
vi 1139
ait 1138
pur@@ 1136
mus 1134
Beg@@ 1132
change 1132
Marie 1131
Victoria 1131
Chap@@ 1130
ig 1130
mol@@ 1130
semb@@ 1130
vit@@ 1129
нако 1129
Army 1128
jo@@ 1128
Was@@ 1127
Ö@@ 1127
худо@@ 1126
א@@ 1126
Joe 1125
Bak@@ 1124
安@@ 1124
ouv@@ 1122
š 1121
ainst 1120
тите 1120
ş@@ 1119
tempor@@ 1118
.000 1117
Thi@@ 1116
Has@@ 1115
anga 1115
Carol@@ 1114
Stan@@ 1113
hip 1113
kat@@ 1113
Gru@@ 1112
ә 1112
Cath@@ 1111
via 1111
резу@@ 1111
ders 1110
rif@@ 1110
ule 1110
тъ@@ 1109
ologie 1108
Buc@@ 1107
into 1107
Fir@@ 1106
iti 1106
Austr@@ 1104
gi 1103
ნ@@ 1103
abil@@ 1101
Kle@@ 1100
proc@@ 1098
rent 1098
na@@ 1097
gio 1096
lob@@ 1096
esia 1095
new 1095
Wan@@ 1093
Academ@@ 1092
Yo@@ 1092
eli 1092
pon@@ 1091
Mun@@ 1089
ational 1089
ý@@ 1089
Jones 1088
Vit@@ 1087
eck@@ 1087
mf@@ 1086
oper@@ 1086
bol@@ 1085
Johnson 1084
Stadi@@ 1084
ien 1084
ustr@@ 1084
5. 1083
hai 1083
was 1083
ned 1082
syl@@ 1082
ji@@ 1081
rot@@ 1080
fal@@ 1079
kel@@ 1079
road 1079
თ@@ 1079
where 1078
Cab@@ 1077
icro@@ 1077
uta 1077
és 1077
ono 1076
мъ@@ 1076
Joh@@ 1075
dé@@ 1075
rain 1075
bet@@ 1074
Tay@@ 1073
ev 1073
Kas@@ 1071
agon@@ 1071
bia 1070
point 1070
Mass@@ 1068
dol@@ 1068
gal@@ 1068
Francisco 1066
hum@@ 1066
ize 1066
ats@@ 1065
lor 1065
Chin@@ 1064
How@@ 1064
dri@@ 1064
eller 1064
sem@@ 1063
vin 1063
Á@@ 1063
Δ@@ 1063
ҡ@@ 1063
mir@@ 1062
Rich@@ 1061
ku 1061
дава 1061
Kenn@@ 1059
ities 1059
les@@ 1059
ments 1058
ð@@ 1058
Gil@@ 1057
Profes@@ 1057
ingu@@ 1057
lek@@ 1057
rac@@ 1057
tek 1057
ż@@ 1055
Mand@@ 1054
doc@@ 1054
media 1054
prim@@ 1054
Bun@@ 1052
ency 1052
etti 1052
anta 1051
ври 1051
amer@@ 1050
vil@@ 1050
Lis@@ 1049
bridge 1048
ographi@@ 1048
pat@@ 1047
odes 1046
Bill@@ 1045
pis@@ 1045
syst@@ 1045
eds 1044
mission 1044
ú 1044
Hist@@ 1043
onen 1043
vention 1043
John@@ 1042
Wes@@ 1042
bach 1042
pil@@ 1042
стои 1042
Jackson 1041
ación 1041
esse 1041
qua 1041
map@@ 1040
ben 1039
Amer@@ 1038
Sus@@ 1038
eter 1038
ous@@ 1038
burg 1037
Luf@@ 1036
mal 1036
bu 1034
rea 1034
án@@ 1034
rem@@ 1032
Ern@@ 1031
opp@@ 1031
peti@@ 1029
Way@@ 1028
ges@@ 1027
lad@@ 1027
Kaz@@ 1026
any 1026
phil@@ 1025
ango 1024
живе@@ 1024
aa 1023
iter 1023
tha 1021
gem@@ 1019
sm@@ 1018
ues 1018
aro@@ 1015
Italia 1013
õ@@ 1013
ape 1012
Ε@@ 1012
Lan@@ 1010
bin@@ 1010
otte 1010
Premier 1008
bot@@ 1008
eni 1008
ר@@ 1008
Bern@@ 1007
cell@@ 1007
ece 1007
ilia 1007
sons 1007
bury 1006
lab@@ 1004
strum@@ 1004
vari@@ 1004
Jam@@ 1001
като 1001
ador 1000
dem 1000
pic@@ 1000
urt 1000
ía 1000
town 999
aca 998
mos@@ 998
ӏ@@ 997
Franc@@ 996
Esp@@ 995
uk 995
alog@@ 994
asp@@ 993
Nati@@ 992
вече 992
מ@@ 992
ween 991
var 990
eu 989
tif@@ 989
″ 989
Emp@@ 987
Kol@@ 985
Hosp@@ 984
aut 983
् 983
arc@@ 982
‒ 982
Carl 981
itation 981
orial 981
вени 981
Ji@@ 980
States 980
fen@@ 979
Lord 978
adel@@ 978
Institu@@ 976
Sant@@ 976
Scott 976
ր@@ 976
Sher@@ 975
trans@@ 975
urn@@ 975
ê@@ 974
usa 973
Tol@@ 972
lec@@ 972
ellschaft 971
spr@@ 971
Tab@@ 970
this 970
uni@@ 969
cial 968
lies 968
ა 966
ej@@ 964
iz 964
÷ 964
Steph@@ 963
comp@@ 963
kan@@ 963
tan 963
π 963
metal 960
été 960
Bad@@ 958
dar@@ 956
aland 955
zur 954
ския 954
bac@@ 952
187@@ 951
Lud@@ 951
Vil@@ 951
away 950
ici 949
Church 948
esh 947
imi 947
kul@@ 947
prot@@ 947
eno 946
olo 946
schaft 946
cri@@ 945
mond 945
top@@ 945
uel 945
isco 943
189@@ 942
Nat@@ 942
coun@@ 938
sk 938
imb@@ 937
lar 937
kil@@ 936
Kap@@ 935
муници@@ 935
aliz@@ 934
elo 934
ε 934
aul@@ 933
uki 931
Les@@ 930
Reich@@ 929
fle@@ 928
Mé@@ 927
gether 927
rus@@ 927
ל@@ 927
Oli@@ 926
fun@@ 926
cole 925
˚ 925
eth@@ 924
liv@@ 924
ease 921
imo 921
һ@@ 921
Son 920
arti@@ 920
kal@@ 920
ҙ@@ 920
Stra@@ 919
May 918
avi@@ 918
eva 918
Той 918
En 917
Ober@@ 916
Pau@@ 916
ember 916
pour 916
чва 916
Geschichte 912
Simon 912
Σ@@ 912
Um@@ 911
kan 911
Bou@@ 910
Lag@@ 910
spir@@ 910
cons@@ 909
hat@@ 909
ment@@ 909
λ 909
лъ@@ 909
უ@@ 909
江@@ 909
His 906
trong 906
Tam@@ 905
Deb@@ 904
ck@@ 904
nam 904
rati@@ 904
186@@ 903
Dal@@ 903
Her 902
Kad@@ 902
ander@@ 902
mati@@ 902
tec@@ 902
asse 901
ool 901
asc@@ 900
atom@@ 900
pot@@ 900
ש@@ 900
Daniel 898
fas@@ 898
jam@@ 898
Nord@@ 897
კ@@ 897
kor@@ 896
ī 896
esi 894
rey 894
ular@@ 893
ո@@ 893
uno 892
ν 892
ui 891
eki 890
tut@@ 890
└ 890
oir 887
ough@@ 887
Kil@@ 886
gin@@ 886
andi@@ 885
ingo 885
force 883
edo 881
track 881
tural 880
Ü@@ 880
მ@@ 880
sie 879
like 878
ogr@@ 878
war 878
live 877
pas@@ 877
fied 876
mid@@ 875
chen@@ 874
ram@@ 874
fore 873
ior 873
werk 873
Bec@@ 872
Hat@@ 872
ave@@ 872
ces@@ 871
dal@@ 871
Rep@@ 870
umin@@ 870
olf 869
cht 868
ingen 868
დ@@ 867
Pf@@ 866
ismo 866
dur@@ 865
Kul@@ 864
eti 864
ñ@@ 863
ener 862
mont 862
tors 862
abeth 861
bs 861
iment 861
Mik@@ 860
raine 860
tos 860
ς 860
десе@@ 860
Law@@ 859
hol@@ 859
kel 859
oy 859
sci@@ 859
chem@@ 858
water 858
Africa 857
Fern@@ 857
ography 856
ките 856
forman@@ 855
Frank 854
kun@@ 854
山@@ 854
郡 854
din 853
δ 853
Nacional 850
Ni 850
UE@@ 850
Zi@@ 850
tres 850
Riv@@ 849
nav@@ 849
aqu@@ 848
class 848
polis 847
par 846
Un 845
ár@@ 845
西@@ 845
nier 844
ό@@ 844
ierra 843
tric@@ 843
Flor@@ 842
mak@@ 842
година 842
ב@@ 842
etes 841
gir@@ 841
inde@@ 841
see 840
sing 840
ording 838
eng 837
spec@@ 836
Leon@@ 835
etz@@ 835
yer 835
bon@@ 834
plan@@ 834
6. 833
Film@@ 833
大@@ 833
Gran 832
mula 832
nen 831
ö 830
ator@@ 829
lim 829
trav@@ 829
isch 826
version 826
Spi@@ 825
Europa 824
府 824
Ré@@ 823
isp@@ 823
stell@@ 823
rier 822
many 821
zer 821
Pierre 820
ken@@ 820
Vik@@ 818
emple 818
gel@@ 818
î@@ 816
eil 815
anne 814
ben@@ 814
plat@@ 814
qui 814
bers 813
cit@@ 813
ras@@ 813
Indian 812
enf@@ 811
ül@@ 811
Nob@@ 810
Milli@@ 808
Council 807
berto 807
film 807
Ein@@ 806
aud@@ 806
è 806
Gem@@ 805
aut@@ 805
spe@@ 805
Christi@@ 804
Hab@@ 804
Karl 804
angel@@ 804
prises 803
They 801
plus 801
tique 801
∙ 801
Penn@@ 800
ements 799
nit@@ 799
lem 798
J. 797
edr@@ 797
деца 797
äl@@ 796
ř@@ 796
cine 795
lon@@ 795
נ@@ 795
ames 794
oli 794
ý 794
fall 793
ulu 792
δ@@ 792
ה@@ 792
bon 791
ł 791
← 791
bli@@ 788
yon 787
England 786
station 786
Dé@@ 785
ional 785
rock 785
γ@@ 785
adem@@ 784
gesch@@ 784
mec@@ 784
Olymp@@ 783
ause 783
nd@@ 783
ority 783
tam@@ 782
Las 781
vec@@ 781
aine 780
sea 780
Gas@@ 779
ob 779
Barr@@ 778
Et@@ 778
estruc@@ 778
tab@@ 778
τ@@ 778
isi 777
ought 777
wa@@ 777
Pier@@ 775
Se 775
kur@@ 775
ordin@@ 775
ü 775
Arthur 774
umb@@ 772
cia 771
liche 771
Abr@@ 770
Professor 770
mar 770
state 770
wen@@ 769
éri@@ 769
eler 768
eros 768
flu@@ 768
min 768
Arab@@ 767
Frank@@ 767
cent@@ 767
eles 767
fur@@ 767
stor@@ 767
ayo 766
wing 766
phi 765
cla@@ 763
ern 763
eto 763
uer@@ 763
Sak@@ 762
ï@@ 762
ს 762
schrift 761
enci@@ 760
Sul@@ 759
cos@@ 758
Jack@@ 756
igu@@ 755
idi 753
ists 753
wel@@ 753
Wir@@ 752
libr@@ 752
dev@@ 751
endi 751
isha 751
ե@@ 751
sed 750
tak@@ 749
trac@@ 749
̯ 749
Maur@@ 748
Zeit@@ 748
Baz@@ 747
shire 747
à@@ 747
ardo 746
auf 746
iko 746
Κ@@ 746
dre@@ 744
iff 743
alg@@ 742
iri 742
ilk 741
onal@@ 741
sar@@ 741
Augus@@ 740
F. 740
som@@ 740
stat@@ 740
Europ@@ 739
Hung@@ 739
isse 739
sac@@ 739
Ç@@ 739
ved 737
Hay@@ 736
heim 736
Walter 734
jas 734
def@@ 733
wn@@ 732
σ@@ 732
ament 731
asi 731
ules 731
lan 730
μ@@ 730
Grou@@ 729
ät@@ 729
Histoire 728
syn@@ 728
Ο@@ 727
anti 726
mem@@ 726
Anna 725
ball@@ 722
gun 721
radi@@ 721
enh@@ 720
ı 720
Virginia 719
Wag@@ 719
park 719
ност 719
fus@@ 718
usi@@ 718
Ny@@ 717
iliz@@ 717
sul@@ 717
tain@@ 717
Kais@@ 715
eas@@ 715
stand@@ 715
κ@@ 715
Jos@@ 714
new@@ 714
Π@@ 714
Eliz@@ 713
ecture 713
eff@@ 713
Ken@@ 712
March 712
tima 712
Ok@@ 711
Ah@@ 710
Bang@@ 710
hem 710
trop@@ 710
uss 710
enberg 709
hel@@ 708
spi@@ 708
Deutschland 707
bes@@ 707
ците 707
Ay@@ 706
neg@@ 706
urg 706
ο 706
ω 706
anim@@ 705
cam@@ 705
natur@@ 705
ás 705
Alexand@@ 704
alo 704
til 704
K. 703
nationale 703
que@@ 703
uo 703
van@@ 703
ŋ 703
城@@ 703
Sin 702
lang 702
dur 701
far@@ 701
ĕ@@ 701
Sach@@ 700
cos 700
but 699
igi@@ 699
lib@@ 699
Alex@@ 698
Cum@@ 698
ovi@@ 697
tico 697
Antonio 696
Rein@@ 696
nat@@ 696
¼ 696
burg@@ 695
sam@@ 695
ths 695
NBA 694
esh@@ 694
hie 694
ples 694
alt 693
َ@@ 693
Carr@@ 692
wig 692
Brand@@ 691
Braz@@ 691
Hir@@ 691
dans 691
erie 691
σ 691
Bed@@ 690
lot 690
system 690
post 689
cio 688
ises 688
Clau@@ 687
Ital@@ 687
Rud@@ 687
erra 687
cont@@ 686
® 686
ague 685
Albert 684
bar 684
have 683
Historia 682
Nord 682
7. 681
ils 681
rie 681
ն@@ 681
athol@@ 680
mad@@ 680
宁@@ 680
Ι 679
π@@ 679
Ё 679
ander 678
hiz@@ 678
kt 678
чрез 678
Edward 677
Neu@@ 677
eur@@ 677
isis 677
pas 677
ste 677
test 677
8. 676
enter 676
Friedrich 675
car 675
ע@@ 675
გ@@ 675
alli@@ 674
elles 674
event@@ 674
igo 674
mes@@ 674
single 674
Sain@@ 673
cro@@ 673
equ@@ 673
japon@@ 673
este 672
gener@@ 671
icht 671
kol@@ 671
ancia 670
ext@@ 669
stan@@ 669
a. 668
pi 668
ява 668
artic@@ 667
ige 667
9. 666
quar@@ 666
rod@@ 666
vier 666
eron 665
unge 665
Ander@@ 663
Democ@@ 663
Ant@@ 662
ogo 662
oro 662
has 661
pos 660
tit@@ 660
ската 660
abl@@ 659
board 659
gol@@ 659
imi@@ 659
tional 659
η 658
ː@@ 657
gan@@ 656
lik@@ 656
име 656
aug@@ 655
ӑ@@ 654
ehr@@ 653
imp@@ 653
治@@ 653
Kos@@ 652
aining 651
versi@@ 651
mir 649
ograph@@ 649
č 649
Cant@@ 648
Olympi@@ 648
amen 648
sten 648
μ 648
caus@@ 647
isches 647
Hans 646
ling@@ 646
å 646
θ 646
Berg@@ 645
Bes@@ 645
amo 645
former 645
sing@@ 645
unter@@ 645
za@@ 644
ende 643
major 642
Nach@@ 641
ud 641
pap@@ 640
Ν@@ 640
Israel 639
ability 639
amin@@ 639
pun@@ 639
Pad@@ 638
alen 638
uni 638
über 638
θ@@ 638
голя@@ 638
aud 637
lau@@ 637
antes 635
ministr@@ 635
bour@@ 634
iles 633
юни 633
auer 632
ede 632
ligh@@ 632
Ou@@ 631
ected 631
lich@@ 631
İ@@ 631
Alfre@@ 630
sist@@ 630
tar 630
agne 629
kre@@ 629
ün@@ 629
зва 629
Juan 628
dam@@ 628
mul@@ 628
tot@@ 628
cir@@ 627
fo 626
φ 626
自@@ 626
Roman 625
dou@@ 625
hard 625
José 624
Universit@@ 623
urg@@ 623
族@@ 623
bec@@ 622
ked 622
ockey 622
date 621
fast 621
essor 620
vas@@ 620
平@@ 620
Florida 619
Grande 619
alist 619
ansas 619
ble@@ 619
eral 619
limit@@ 619
Seb@@ 618
azar@@ 618
inst@@ 618
will 618
mittee 617
retur@@ 617
Μ@@ 617
ה 617
Gel@@ 616
auf@@ 616
contr@@ 616
eleg@@ 616
Aug@@ 615
Nag@@ 615
aç@@ 615
dh@@ 615
ded 613
dos 613
power 613
xa 613
tung 612
стите 612
ater@@ 611
iter@@ 611
kir@@ 611
є 611
Govern@@ 610
Portu@@ 610
alla 610
ances 610
fon@@ 610
º 610
の@@ 610
中@@ 610
ael 609
tt@@ 609
show 608
Sir 607
aster@@ 607
ement@@ 607
ias 607
poli@@ 607
üt@@ 607
едно@@ 607
mut@@ 606
olas 606
enes 605
Kim 604
vie 604
ტ@@ 604
ד@@ 603
endi@@ 602
has@@ 602
super@@ 602
Stein@@ 601
chia 601
● 601
med@@ 600
Pour 599
abe 599
ilio 599
nes@@ 599
ön@@ 599
ebe 598
plas@@ 598
DNA 597
Inn@@ 597
einer 597
zen@@ 597
led 596
rat 596
quit@@ 595
ég@@ 595
ствено 595
ն 595
building 594
dam 594
rant 594
aise 593
voc@@ 592
san 591
ares 590
hand@@ 590
aces 589
BK 588
lic@@ 588
tas@@ 587
¹ 587
ei@@ 586
fel@@ 586
rev@@ 586
ès 586
eux 585
sour@@ 585
་ 585
Wilhelm 584
deg@@ 584
aissance 583
soft 583
anza 582
bau@@ 582
ór@@ 582
part 581
ября 581
kn@@ 580
orient@@ 580
ქ@@ 580
eka 579
ç 579
fan@@ 578
fort 578
mand@@ 578
bab@@ 577
rid 577
ving 577
aver@@ 576
Ere@@ 575
ris@@ 575
tific@@ 575
tik 575
Carlos 574
bin 574
inga 574
cant@@ 573
nas@@ 573
Τ@@ 573
Greg@@ 572
alc@@ 572
inn 571
anos 570
illo 570
Å 570
Lig@@ 569
Johann 568
comm@@ 568
fi 568
oj@@ 568
parti@@ 568
zer@@ 568
лни 568
ended 567
milit@@ 567
adi 566
fs 566
ρ@@ 565
Viet@@ 564
ition 563
law 563
plan 563
Въ@@ 563
Ә@@ 563
Schwar@@ 562
ì 562
leri 561
lit 561
person@@ 561
yu 561
лно 561
case 560
han 560
atur 559
lung 559
stand 559
Unter@@ 558
amba 558
graf@@ 558
ʰ@@ 558
allen 557
indi@@ 557
model 556
tir@@ 556
wr@@ 556
Jap@@ 555
ui@@ 555
Tang@@ 554
liber@@ 554
sion@@ 554
aber 553
ι 553
onto 552
osh@@ 552
ę 552
ansa 551
rech@@ 551
ín 551
Institut 550
orie 550
ß 550
oso 549
annes 548
ο@@ 548
African 547
Franz 547
had 547
≤ 547
üh@@ 546
ą 546
ŋ@@ 546
Au 545
Hin@@ 545
hil 545
americ@@ 544
dez 544
lu 544
mur@@ 544
uza 544
天@@ 543
zum 542
Kim@@ 541
October 541
Prof@@ 541
dorf 541
sburg 541
them 541
ć@@ 541
alar@@ 540
Jug@@ 539
These 539
titu@@ 539
ables 538
sequ@@ 538
August 537
jus@@ 537
oko 537
sel 537
German 536
abor@@ 536
bas 536
eg 536
pre 536
ı@@ 536
atro 535
bau 534
ief 534
orio 534
senti@@ 534
ε@@ 534
дени 534
海@@ 534
Ben 533
mach@@ 533
Sta@@ 532
Yes@@ 532
blo@@ 532
z. 532
apa 531
ht 531
ichte 531
met 531
sat@@ 531
₁ 531
北@@ 531
Mün@@ 530
ful@@ 530
gres@@ 530
rio 530
tou@@ 530
̀ 530
haus 529
sin 529
роден 529
Afr@@ 528
esto 528
icia 528
ם 528
det@@ 527
sou@@ 527
species 527
wes@@ 527
ét@@ 527
ù 527
̄ 527
inv@@ 526
vat@@ 526
ß@@ 526
ת 526
elt@@ 525
Χ@@ 525
Jose@@ 524
bara 524
fication 524
heit 524
lag@@ 524
wi 524
enth@@ 523
ulation 523
Ө@@ 523
⋅ 523
put 522
ū 522
inen 521
лява 521
añ@@ 520
bre 520
Chic@@ 519
French 519
cu 519
igh 518
lier 518
viol@@ 518
Hamb@@ 517
base 517
ν@@ 517
cut 516
东@@ 516
新@@ 516
Elle 515
ées 515
public@@ 514
ē 514
Σ 514
Kab@@ 513
ʼ@@ 513
bed 512
cher@@ 512
hur@@ 512
tag@@ 512
Dies@@ 511
law@@ 511
umi 511
writ@@ 511
Haz@@ 510
Nig@@ 510
Λ@@ 510
onne 509
long 508
place 508
Moh@@ 507
Hau@@ 506
two 506
ş 506
ʔ@@ 506
Ba 505
elek@@ 505
fem@@ 505
ican 505
ères 504
Compan@@ 503
hen 503
ident@@ 503
‐ 503
Distribu@@ 502
ahl@@ 502
alit@@ 502
emi 502
lang@@ 502
ţ@@ 502
Schwe@@ 501
esper@@ 501
iste 501
isten 501
Kid@@ 500
gar 500
only 500
Heinrich 499
χ@@ 499
album 498
inning 497
Alt@@ 496
Sa 496
obr@@ 496
tish 496
Ł@@ 496
Ost@@ 495
bahn 495
imin@@ 495
ė 494
、 494
Ab 493
Anne 493
mari@@ 493
͡ 493
entes 492
ן 492
Rech@@ 491
Bundes@@ 490
camp@@ 490
evi@@ 490
visi@@ 490
zar@@ 490
ograp@@ 489
Mex@@ 488
enz 488
jan@@ 488
sep@@ 488
boy@@ 487
kis@@ 487
omin@@ 487
schen 487
acht 486
ished 486
Δ 486
ρ 486
Mann@@ 485
dan@@ 485
ɛ@@ 485
city 484
ál@@ 484
Ent@@ 483
` 483
aires 483
front 483
geb@@ 483
lichen 483
song 483
zone 482
bak@@ 481
aye 480
position 480
atri@@ 479
atu 479
Herr@@ 478
onde 478
philos@@ 478
sun@@ 478
ņ@@ 478
ȃ@@ 478
brach@@ 477
home 477
dir 476
ses@@ 476
then 476
ω@@ 476
about 475
φ@@ 475
ered 474
ible 474
m. 474
öh@@ 474
， 474
jur@@ 473
reich@@ 473
Bras@@ 471
alle 471
idad 471
versit@@ 471
vet@@ 471
weg@@ 471
Ӏ@@ 471
tun@@ 470
uses 470
Ord@@ 469
atia 469
ging 469
obj@@ 469
wak@@ 469
isation 468
kno@@ 468
ě 468
镇 468
Dok@@ 467
Hoch@@ 467
nak@@ 467
District 466
han@@ 466
main 466
schule 466
Von 465
mash@@ 465
por 465
ados 464
ande 464
plac@@ 464
riff@@ 464
ე 464
Mart 463
ekt 463
dra@@ 462
through 462
ya@@ 462
year 462
tari@@ 461
zon@@ 461
frag@@ 460
mis 460
small 460
Brasil 459
Jacques 459
bec 459
coll@@ 459
elen 459
ers@@ 459
istan 459
red@@ 459
λ@@ 459
Papa 458
leb@@ 458
ον 458
þ@@ 457
onz@@ 456
ehr 455
mé@@ 455
oder 455
武@@ 455
contin@@ 454
video 454
mani@@ 453
icio 452
multi@@ 452
uru 452
王 452
kt@@ 451
tent 451
Alg@@ 450
eda 450
té 450
Ş@@ 450
Yar@@ 449
diff@@ 449
eurs 449
Mec@@ 448
tas 448
други 448
bez@@ 447
istes 447
list@@ 447
enda 446
isen 446
nt 446
Ž@@ 446
Roma 445
area 445
dat@@ 445
ongo 445
straße 445
û@@ 445
aller 444
encia 444
plant@@ 444
uj@@ 444
Ä@@ 444
Ireland 443
Schw@@ 443
conn@@ 443
educ@@ 443
kad@@ 443
than 443
they 443
ón@@ 443
ի@@ 443
gal 442
isto 442
oka 442
Des 441
Parti@@ 441
known 441
pass@@ 441
É 441
ê 441
Jul@@ 440
deutsche 440
flo@@ 440
hav@@ 439
pen 439
ι@@ 439
Ohio 438
zu@@ 438
Kri@@ 437
itali@@ 437
rad@@ 437
sta@@ 437
utz 437
ȃ 437
ח@@ 437
lich 436
ograf@@ 436
play@@ 436
proj@@ 436
ų 436
ძ@@ 436
Franç@@ 435
Wak@@ 435
Willi@@ 435
ning@@ 435
ahr@@ 434
game 434
phot@@ 434
ー@@ 434
allas 433
get@@ 433
lara 432
mine 432
regi@@ 432
commun@@ 431
para 431
times 431
uz 431
Най 431
ð 430
tur 429
ר 429
Uz@@ 428
eb 428
grup@@ 428
ός 428
Apr@@ 427
uba 427
vern@@ 427
aden 426
eil@@ 426
ois 426
seg@@ 426
Ng@@ 424
bos@@ 424
div@@ 424
След 424
cou@@ 423
kam@@ 423
âteau 423
nec@@ 422
昌@@ 422
histori@@ 421
wards 421
ò@@ 421
atz 420
aup@@ 420
pression 420
Α 420
ү 420
Gö@@ 419
nie 419
¾ 419
Ż@@ 419
qu 418
school 418
tie 418
apar@@ 417
avi 417
ict 417
liter@@ 417
num@@ 417
prom@@ 417
speci@@ 417
Zeit 416
histor@@ 416
iler 416
but@@ 415
centr@@ 415
docum@@ 415
umo 415
ɪ@@ 415
rez 414
vania 414
ί@@ 414
כ@@ 414
igan 413
dies 412
kle@@ 412
Es 411
cus@@ 411
fir@@ 411
gang 411
ì@@ 411
Ρ@@ 411
յ@@ 411
eras 410
unda 410
პ@@ 410
aten 409
erk@@ 409
irs 409
lie@@ 409
sav@@ 409
tes@@ 409
KK 408
ife 408
ific@@ 408
studi@@ 408
cad@@ 407
nach 407
umia 407
én 407
sti 406
uka 406
ɛ 406
менти 406
Landes@@ 405
erung 405
fran@@ 405
kit@@ 405
kri@@ 405
squ@@ 405
≥ 405
François 404
Manuel 404
most 404
ɔ@@ 404
י 404
April 403
acter@@ 403
ativ@@ 403
their 403
uro 403
ÿ@@ 403
Ein 402
emen 402
him@@ 402
tly 402
ž 402
Fried@@ 401
ort@@ 401
ק@@ 401
ת@@ 401
Entw@@ 400
tru@@ 400
üs@@ 400
（ 400
fut@@ 399
uda 399
ө 399
Sur 398
him 398
tribu@@ 398
év@@ 398
Ukr@@ 397
bol 397
born 397
ism@@ 397
journ@@ 397
Ś@@ 397
cle@@ 396
pio 396
trag@@ 396
פ@@ 396
ė@@ 395
ւ@@ 395
Kö@@ 394
lug@@ 394
´ 394
води 394
President 393
sol 393
uli 393
ț@@ 393
‌ 393
ș@@ 392
popul@@ 391
rique 391
Histori@@ 390
Phi 390
igen 390
patr@@ 390
moder@@ 389
ҳ@@ 389
路 389
Azer@@ 388
direc@@ 388
för@@ 388
Роден 388
Luis 387
arte 387
icas 387
late 387
tard 387
тази 387
ל 387
high 386
may@@ 386
produc@@ 386
Sah@@ 385
hist@@ 385
bran@@ 384
fin 384
mig@@ 384
part@@ 384
radio 384
ref@@ 384
ò 384
neo 383
ppe 383
tains 383
tran@@ 383
ζ 383
Auf@@ 382
Madrid 382
auc@@ 382
bei 382
erst@@ 382
mov@@ 382
over@@ 382
tour 382
azi 381
Eis@@ 380
Kamp@@ 380
bek@@ 380
ina@@ 380
r. 380
Provin@@ 379
leh@@ 379
prof@@ 379
yar@@ 379
） 379
apon 378
domin@@ 378
sab@@ 378
won 378
ène 378
ń 378
може 378
ś 377
resp@@ 376
tul@@ 376
ĕ 376
Sek@@ 375
‚ 375
Mexico 374
Zu@@ 374
ӧ@@ 374
ennes 373
inger@@ 373
nos 373
test@@ 373
ҡ 373
tér@@ 372
рото 372
Leben 371
based 371
embr@@ 371
française 371
kab@@ 371
Bez@@ 370
alian 370
ô 370
ης 370
issen@@ 369
vita 369
pia 368
rou@@ 367
service 367
äd@@ 367
riv@@ 366
ley@@ 365
Öster@@ 365
Grund@@ 364
Schl@@ 364
meister 364
order 364
verl@@ 364
ís@@ 364
ּ@@ 364
Pedro 363
esen 363
ָ@@ 363
Constitu@@ 362
ana@@ 362
aum 362
ener@@ 362
esch@@ 362
feld 362
mill@@ 362
who 362
zin@@ 362
ő@@ 362
ҫ@@ 362
chn@@ 361
ɪ 361
Sud 360
fam@@ 360
umba 360
were 360
atura 359
contempor@@ 359
tex@@ 359
Å@@ 359
் 359
ἀ@@ 359
∞ 359
its@@ 358
undo 358
Schul@@ 357
zel@@ 357
ṭ@@ 357
europ@@ 356
progr@@ 356
rom 356
河@@ 356
ís 355
ӗ@@ 355
შ@@ 355
cru@@ 354
kho@@ 354
ḥ@@ 354
↑ 354
vy@@ 353
пъ@@ 353
三@@ 353
comple@@ 352
expres@@ 352
wie 352
bom@@ 351
cab@@ 351
fahr@@ 351
Leb@@ 350
Musik@@ 350
auth@@ 350
deutschen 350
univers@@ 350
Pak@@ 349
match 349
med 349
mix@@ 349
publ@@ 349
¡ 349
що 349
aron 348
dru@@ 348
enburg 348
some 348
县@@ 348
Dani@@ 347
chang@@ 347
dist@@ 347
̃ 347
Rah@@ 346
four 346
ime@@ 346
â 346
ία 346
utz@@ 345
ź@@ 345
της 345
chu@@ 344
omen 344
ran 344
uel@@ 344
Arbeit@@ 343
adu@@ 343
ched 343
enst@@ 343
team 343
œ@@ 343
ided 342
mina 342
ğ@@ 342
市 342
cula 341
sei 341
兴@@ 341
文@@ 341
Staats@@ 340
Stad@@ 340
format 340
kum@@ 340
priv@@ 340
rue 340
trä@@ 340
金@@ 340
Gesch@@ 339
Jersey 339
ily 339
itt 339
kop@@ 339
™ 339
⟩ 339
Henri 338
edi 338
ɔ 338
Γ@@ 338
ων 338
定@@ 338
德@@ 338
Fes@@ 337
Flug@@ 337
Span@@ 337
dar 337
estig@@ 337
má@@ 337
techn@@ 337
histoire 336
scher 336
she 336
zig 336
水@@ 336
ahl 335
dul@@ 335
оръ@@ 335
Ped@@ 334
bah@@ 334
run 334
König@@ 333
rich 333
Ü 333
ه 333
exp@@ 332
iche 332
nin 332
sup@@ 332
while 332
ça 332
ხ@@ 332
Buch@@ 331
atos 331
dil@@ 331
iten 331
kas@@ 331
stati@@ 331
Indonesia 330
Schi@@ 330
cer 330
tribut@@ 330
Illinois 329
hin 329
make 329
î 329
María 328
club 328
tei 328
usal@@ 327
used 327
ή 327
Form 326
anes 326
pend@@ 326
unde 326
ј 326
ի 326
inos 325
tech@@ 325
tiva 325
äh@@ 325
国@@ 325
Anton@@ 324
blan@@ 324
days 324
dir@@ 324
nea 324
tros 324
yer@@ 324
ás@@ 324
Ali 323
Migu@@ 323
Say@@ 323
after 323
alan@@ 323
amar@@ 323
perior 323
крал 323
ַ@@ 323
ـ@@ 323
Geb@@ 322
bt 322
identi@@ 322
ilo 322
kia 322
maj@@ 322
ographie 322
Akadem@@ 321
ción 321
ectiv@@ 321
featur@@ 321
¬ 321
kap@@ 320
oire 320
teur 320
Politi@@ 319
grand 319
history 318
jer@@ 318
politi@@ 318
was@@ 318
Argent@@ 317
etti@@ 317
њ@@ 317
number 316
yak@@ 316
Kus@@ 315
bles 315
last 315
tras@@ 315
ʻ@@ 315
gun@@ 314
lik 314
ney@@ 314
⟨ 312
gest@@ 311
ʒ 311
нови 311
acu@@ 310
cription 310
union 310
ʃ 310
ס@@ 310
临@@ 310
Zentr@@ 309
ural 309
zona 309
ници 309
љ@@ 309
ӱ@@ 309
・ 309
Süd@@ 308
icht@@ 308
sign@@ 308
wake 308
κα@@ 308
χ 308
foot@@ 307
people 307
Ú@@ 307
Β@@ 307
ც@@ 307
idos 306
Ү@@ 306
Zw@@ 305
bay@@ 305
gli@@ 305
open@@ 305
II. 304
det 304
scor@@ 304
zam@@ 304
W. 303
cum@@ 303
inda 303
mam@@ 303
道 303
June 302
bay 302
studio 302
ellen 301
gri@@ 301
sich@@ 301
toria 301
Φ@@ 301
υ@@ 301
Barcelona 300
Bask@@ 300
best 300
ensa 300
lis@@ 300
ometr@@ 300
eye 299
pris@@ 299
ako 298
first 298
organ@@ 298
sal 298
zw@@ 298
ṣ@@ 298
isme 297
stitu@@ 297
tag 297
thi 297
äs@@ 297
ör 297
̥ 297
永@@ 297
Oy@@ 296
made 296
pad@@ 296
temps 296
林@@ 296
0s 295
Copa 295
erte 295
indic@@ 295
sible 295
termin@@ 295
ύ@@ 295
bio 294
inas 294
nacional 294
oci@@ 294
extr@@ 293
national 293
run@@ 293
España 292
atique 292
gemein@@ 292
grande 292
loss 292
sein 292
ά@@ 292
ised 291
éc@@ 291
publi@@ 290
Venez@@ 289
stadt 289
éro@@ 289
ン@@ 289
bourg 288
sak@@ 288
tad@@ 288
ʃ@@ 288
↔ 288
行政@@ 288
都@@ 288
bü@@ 287
ense@@ 287
hr 287
tend@@ 287
ã 287
üm@@ 287
Свети 287
щат 287
anas 286
eon@@ 286
gul@@ 286
hap@@ 286
mess@@ 286
control 285
pose 285
tee 285
there 285
what 285
ös@@ 285
川@@ 285
Argentina 284
class@@ 284
edit@@ 284
uch 284
which 284
高@@ 284
edil@@ 283
eig@@ 283
tir 283
tische 283
util@@ 283
τ 283
Ъ@@ 283
ْ@@ 283
illed 282
thu@@ 282
verw@@ 282
¥ 282
Ó@@ 282
ù@@ 282
ť 282
чава 282
Lehr@@ 281
court 281
erre 281
icklung 281
tivo 281
ät 281
Є@@ 281
ћ 281
Ӏ 281
Deutschen 279
ede@@ 279
platz 279
Ҡ@@ 279
audi@@ 278
buil@@ 278
dav@@ 278
econom@@ 278
haus@@ 278
Santiago 277
erc@@ 277
gu 277
sitz@@ 277
trad@@ 277
Ա@@ 277
տ@@ 277
epis@@ 276
fica 276
sus@@ 276
ulia 276
ña 276
ἐ@@ 276
Mek@@ 275
ʼ 275
Ω 275
September 274
phe 273
title 273
ête 273
կ@@ 273
ained 272
gil@@ 272
lé@@ 272
ße 272
ט@@ 272
晋@@ 272
olan 271
positi@@ 271
say@@ 271
Una 270
cour@@ 270
just 270
nation@@ 270
oren 270
deux 269
full 269
furt 269
leng@@ 269
possible 269
stant@@ 269
undi 269
σι@@ 269
Stadt@@ 268
homme 268
mw@@ 268
Æ@@ 268
äch@@ 268
ِ@@ 268
太@@ 268
王@@ 268
äng@@ 267
ου 267
been 266
vom 266
Í@@ 266
ɑ@@ 266
ִ@@ 266
conf@@ 265
ending 265
eza 265
inci 265
tival 265
és@@ 265
ǎ@@ 265
international 264
schi@@ 264
tiz@@ 264
tras 264
ío 264
ø 264
ر@@ 264
上@@ 264
陵@@ 264
Haus@@ 263
eben 263
jun@@ 263
kö@@ 263
wissen@@ 263
zeug@@ 263
Ј@@ 263
apo 262
clus@@ 262
head@@ 262
princip@@ 262
prob@@ 262
yana@@ 262
η@@ 262
Ce 261
ample 261
führ@@ 261
hut@@ 261
reich 261
stud@@ 261
κ 261
alled 260
enas 260
iller@@ 260
once 260
schaften 260
ג@@ 260
December 259
Kem@@ 259
lah 259
στ@@ 259
ното 259
「 259
Yun@@ 258
angi 258
commer@@ 258
compos@@ 258
contribut@@ 258
enden 258
eren 258
isl@@ 258
jug@@ 258
mad 258
mont@@ 258
」 258
Straße 257
unga 257
Colomb@@ 256
Jahr@@ 256
Kay@@ 256
Mw@@ 256
aume 256
bou@@ 256
bres 256
culp@@ 256
scienti@@ 256
yat@@ 256
ξ 256
子 256
avec 255
destr@@ 255
eas 255
faire 255
tige 255
ļ@@ 255
∈ 255
cover@@ 254
kus@@ 254
mt@@ 254
party 254
pes@@ 254
tores 254
το@@ 254
ayr@@ 253
death 253
leur 253
modi@@ 253
nig 253
ogen 253
ús@@ 253
イ@@ 253
aged 252
cion@@ 252
ober@@ 252
when 252
ρι@@ 252
Pub@@ 251
adém@@ 251
jed@@ 251
saf@@ 251
site 251
archit@@ 250
ativa 250
eaux 250
engine 250
grav@@ 250
шампи@@ 250
א 250
adas 249
fu 249
hat 249
Θ@@ 249
龙@@ 249
aret 248
company 248
του 248
Jah@@ 247
enant 247
ismus 247
kes@@ 247
tek@@ 247
vida 247
нява 247
Mittel@@ 246
kg 246
using 246
concer@@ 245
election 245
tionn@@ 245
Ε 245
взе@@ 245
ateur 244
may 244
resul@@ 244
ƞ 244
illes 243
kaz@@ 243
mom@@ 243
né 243
ְ@@ 243
国 243
城 243
aller@@ 242
aten@@ 242
eden@@ 242
iken 242
ћ@@ 242
ه@@ 242
之@@ 242
ège 241
öz@@ 241
lub 240
sera 240
ác@@ 240
ս@@ 240
石@@ 240
actor 239
eln 239
jum@@ 239
licher 239
suc@@ 239
წ@@ 239
Krieg@@ 238
mara 238
nung 238
production 238
such 238
yal@@ 238
Philipp@@ 237
acio 237
alle@@ 237
ations@@ 237
eines 237
fig@@ 237
guit@@ 237
αν@@ 237
ҙ 237
⅓ 237
ambo 236
stad@@ 236
trat@@ 236
ól@@ 236
feder@@ 235
gaz@@ 235
lieg@@ 235
refer@@ 235
tam 235
ân 235
alifor@@ 234
cas 234
jos 234
km@@ 234
nicht 234
riere 234
voy@@ 234
xu@@ 234
ψ 234
Best@@ 233
enen 233
esses 233
français 233
uu 233
бва 233
ن@@ 233
山 233
Bevöl@@ 232
Klo@@ 232
raz@@ 232
tim 232
zon 232
ème 232
ските 232
Anc@@ 231
Arth@@ 231
odo 231
present@@ 231
prov@@ 231
sam 231
tario 231
ξ@@ 231
宜@@ 231
Conse@@ 230
activ@@ 230
idas 230
idence 230
iker 230
umbo 230
ın 230
ας 230
Im 229
dial 229
essen 229
mann@@ 229
pendi@@ 229
tena 229
΄ 229
ӈ@@ 229
Une 228
auto@@ 228
capit@@ 228
keit 228
Ø@@ 228
οι 228
家@@ 228
￼ 228
gian 227
iwa 227
monde 227
éli@@ 227
Η@@ 227
Χ 227
ґ@@ 227
figur@@ 226
religi@@ 226
schafts@@ 226
ɨ 226
ή@@ 226
ί 226
ῶ@@ 226
asser 225
natural 225
Υ@@ 225
■ 225
Mai 224
chte 224
git@@ 224
ã@@ 224
̓ 224
ك@@ 224
ل@@ 224
子@@ 224
gel 223
immer 223
sik@@ 223
agre@@ 222
bern@@ 222
general 222
high@@ 222
octu@@ 222
tet 222
icos 221
ký 221
ז@@ 221
ع@@ 221
Heim@@ 220
Zwe@@ 220
his@@ 220
nuc@@ 220
etts 219
fall@@ 219
iev@@ 219
inde 219
issu@@ 219
sort 219
uso 219
yal 219
ικ@@ 219
усп@@ 219
√ 219
Por 218
compl@@ 218
ien@@ 218
player 218
änd@@ 218
ʕ@@ 218
ѧ@@ 218
մ@@ 218
ფ@@ 218
特@@ 218
Munici@@ 217
alan 217
cost@@ 217
eler@@ 217
foc@@ 217
hau@@ 217
ías 217
Famili@@ 216
anni@@ 216
categ@@ 216
hui 216
rí@@ 216
wir@@ 216
Ö 216
ů@@ 216
τος 216
ӗ 216
ր 216
July 215
National@@ 215
ağ@@ 215
conc@@ 215
einen 215
integr@@ 215
ously 215
ż 215
化@@ 215
Paulo 214
ilg@@ 214
ip 214
offici@@ 214
έ@@ 214
。 214
一@@ 214
厅 214
cours 213
imbo 213
zial@@ 213
Š 213
Meh@@ 212
aban 212
acha 212
onge@@ 212
ρο@@ 212
дето 212
җ@@ 212
գ@@ 212
ὶ 212
ラ@@ 212
ambi@@ 211
isión 211
izi@@ 211
sé@@ 211
台@@ 211
13. 210
November 210
Stadt 210
ög@@ 210
ղ@@ 210
元@@ 210
日@@ 210
长@@ 210
Kant@@ 209
aje 209
design 209
kim@@ 209
tour@@ 209
广@@ 209
明@@ 209
crit@@ 208
ingia 208
kio 208
km 208
sil 208
unia 208
َ 208
ბ 208
ー 208
deutscher 207
industri@@ 207
rö@@ 207
ά 207
ια 207
ӕ@@ 207
ciones 206
entos 206
14. 205
Welt@@ 205
adol@@ 205
eder 205
inclu@@ 205
minut@@ 205
neu@@ 205
apos@@ 204
ín@@ 204
Η 204
♭ 204
clu@@ 203
inden 203
pain@@ 203
probl@@ 203
rem 203
usi 203
ép@@ 203
Ғ@@ 203
桂@@ 203
Isra@@ 202
génér@@ 202
schaft@@ 202
ʔ 202
̌ 202
ният 202
ب@@ 202
い@@ 202
李@@ 202
contra 201
course 201
given 201
roy@@ 201
some@@ 201
zeit 201
µ@@ 201
ň 201
人 201
yet 200
À 200
прави 200
₂ 200
乡 200
小@@ 200
eten 199
üb@@ 199
đ@@ 199
ѧ 199
، 199
Eisen@@ 198
clo@@ 198
next 198
pay@@ 198
üc@@ 198
Γ 198
ър@@ 198
Geg@@ 197
UEFA 197
family 197
tí@@ 197
̆ 197
ѐ@@ 197
Ե@@ 197
ayn@@ 196
estas 196
ño 196
⊕ 196
川 196
建@@ 196
Sov@@ 195
eñ@@ 195
famili@@ 195
ingi 195
irk 195
organiz@@ 195
uela 195
ت@@ 195
ル@@ 195
Gün@@ 194
Haupt@@ 194
Yer@@ 194
né@@ 194
reib@@ 194
temp@@ 194
צ@@ 194
Rus 193
aide 193
mah@@ 193
pens@@ 193
sir@@ 193
three 193
years 193
üd@@ 193
ő 193
ʰ 193
αλ@@ 193
≠ 193
culture 192
hii 192
leo 192
porte 192
sexu@@ 192
阿@@ 192
Groß@@ 191
chev@@ 191
forma 191
inco 191
kam 191
level 191
mau@@ 191
sans 191
sev@@ 191
six 191
vu 191
⅔ 191
東@@ 191
通@@ 191
Para 190
aines 190
cht@@ 190
fab@@ 190
hid@@ 190
initi@@ 190
mili@@ 190
model@@ 190
publique 190
techni@@ 190
ʒ@@ 190
мето 190
Һ@@ 190
Kirche 189
Soh@@ 189
Universidad 189
Wah@@ 189
Wilhel@@ 189
dini 189
hak@@ 189
influ@@ 189
kim 189
march@@ 189
respon@@ 189
ɑ 189
ق@@ 189
义@@ 189
main@@ 188
roi 188
social 188
ück 188
ȋ 188
̂ 188
ي 188
↓ 188
≡ 188
edad 187
fron@@ 187
language 187
ει@@ 187
Това 187
℃ 187
黄@@ 187
Nieder@@ 186
Türk 186
differ@@ 186
exper@@ 186
vot@@ 186
zor@@ 186
ɣ@@ 186
και 186
م@@ 186
保@@ 186
和@@ 186
直@@ 186
Verein@@ 185
chini 185
ehem@@ 185
performan@@ 185
relig@@ 185
ف@@ 185
dad@@ 184
each 184
enst 184
envir@@ 184
eran 184
erek 184
lead@@ 184
muz@@ 184
Þ@@ 184
õ 184
ğ 184
ვ 184
》 184
Eine 183
due 183
prac@@ 183
suff@@ 183
ρα@@ 183
վ@@ 183
ṛ@@ 183
《 183
乐@@ 183
人@@ 183
alter@@ 182
ası 182
classi@@ 182
durch 182
games 182
libre 182
tien 182
tries 182
© 182
ün 182
άν@@ 182
ερ@@ 182
د@@ 182
Fren@@ 181
Muh@@ 181
México 181
auch 181
aş@@ 181
fest@@ 181
ieder 181
jour 181
assen 180
fen 180
lí@@ 180
verg@@ 180
ʿ@@ 180
ד 180
و 180
田@@ 180
Califor@@ 179
deb@@ 179
enga 179
élé@@ 179
ération 179
س@@ 179
‬ 179
ン 179
dest@@ 178
neur 178
tradi@@ 178
fund@@ 177
hib@@ 177
shu@@ 177
ň@@ 177
ź 177
ӄ@@ 177
ῆ@@ 177
Eurov@@ 176
Mär@@ 176
aill@@ 176
anst@@ 176
beau@@ 176
chez 176
gique 176
nac@@ 176
uten 176
ñ 176
Β 176
μα 176
Հ@@ 176
ṇ@@ 176
‡ 176
Fak@@ 175
aciones 175
ainer 175
band@@ 175
between 175
compar@@ 175
orig@@ 175
take 175
Ş 175
Ў 175
mez@@ 174
solo 174
ır@@ 174
リ@@ 174
有@@ 174
20. 173
anl@@ 173
deut@@ 173
ecto 173
erh@@ 173
ests 173
eure 173
gew@@ 173
hir 173
ques@@ 173
terr@@ 173
thé@@ 173
ève 173
ρος 173
া@@ 173
华@@ 173
Kik@@ 172
chter 172
hara 172
onc@@ 172
quel@@ 172
Ə@@ 172
15. 171
ently 171
institu@@ 171
ÿ 171
Ѣ@@ 171
‏ 171
Su 170
ayan 170
hus@@ 170
oles 170
vill@@ 170
èle 170
étr@@ 170
ücke 170
ünst@@ 170
carri@@ 169
elem@@ 169
lage 169
pero 169
would 169
‭ 169
anya 168
dér@@ 168
engo 168
Ø 168
ӣ 168
լ@@ 168
ք@@ 168
ב 168
庆@@ 168
湖@@ 168
行@@ 168
egen 167
tere 167
民@@ 167
Bü@@ 166
Kut@@ 166
mt 166
same 166
voir 166
zeu@@ 166
ζ@@ 166
dens@@ 165
national@@ 165
nom 165
ғ 165
ي@@ 165
春@@ 165
沙@@ 165
Guinea 164
Liga 164
bir 164
emas 164
energ@@ 164
entre 164
jou@@ 164
mant@@ 164
yen@@ 164
ατ@@ 164
να@@ 164
ス@@ 164
会@@ 164
泉@@ 164
adores 163
atives 163
program 163
̣ 163
Ο 163
ον@@ 163
ού@@ 163
των 163
Ұ@@ 163
﻿ 163
Chile 162
Distr@@ 162
Wash@@ 162
auen 162
formed 162
trieb@@ 162
yas@@ 162
αρ@@ 162
ッ@@ 162
Sult@@ 161
defin@@ 161
mich@@ 161
universit@@ 161
éd@@ 161
Υ 161
албу@@ 161
ӧ 161
康@@ 161
Nueva 160
Sü@@ 160
Vier@@ 160
held 160
kay@@ 160
mik@@ 160
modern 160
sever@@ 160
ın@@ 160
ア@@ 160
Estado 159
appro@@ 159
ellas 159
provin@@ 159
rá@@ 159
tent@@ 159
umu 159
ες 159
د 159
五@@ 159
郊@@ 159
associ@@ 158
did 158
tín 158
⁄ 158
溪@@ 158
Nis@@ 157
around 157
information 157
nach@@ 157
tig 157
vertr@@ 157
zur@@ 157
ǝ 157
ش@@ 157
Ἀ@@ 157
白@@ 157
道@@ 157
champ@@ 156
quel 156
sche@@ 156
sek@@ 156
without 156
ʊ@@ 156
် 156
ზ@@ 156
六@@ 156
Afrika 155
enos 155
hac@@ 155
serve 155
still 155
typ@@ 155
ubic@@ 155
veau 155
ür 155
Ā@@ 155
ו 155
₽ 155
公@@ 155
的@@ 155
Ago@@ 154
Region 154
fici@@ 154
fé@@ 154
historia 154
liga 154
maz@@ 154
simil@@ 154
ῖ@@ 154
梁@@ 154
神@@ 154
Gemein@@ 153
Nam 153
Universität 153
also 153
before 153
condi@@ 153
elte 153
firm@@ 153
issen 153
itos 153
lake 153
short 153
Ω@@ 153
ίας 153
ح@@ 153
ჭ@@ 153
Virgin@@ 152
aben 152
geri 152
large 152
lement 152
plu@@ 152
teurs 152
ψ@@ 152
ώ@@ 152
☉ 152
清@@ 152
Jahre 151
comb@@ 151
development 151
forme 151
grou@@ 151
local 151
member 151
record 151
seau 151
το 151
ως 151
ό 151
ҷ@@ 151
本@@ 151
Minister@@ 150
afr@@ 150
encore 150
event 150
father 150
guerre 150
stellung 150
க@@ 150
ḥ 150
四@@ 150
地@@ 150
汉@@ 150
Como 149
Wirt@@ 149
afa 149
aras@@ 149
jud@@ 149
rol 149
ľ@@ 149
αγ@@ 149
ών 149
ال@@ 149
夏@@ 149
Aires 148
Verw@@ 148
achen 148
clos@@ 148
during 148
loi 148
said 148
teilung 148
uerto 148
Λ 148
市@@ 148
aille 147
aina 147
appar@@ 147
bed@@ 147
endel@@ 147
ám 147
ún 147
Φ 147
θε@@ 147
светов@@ 147
國@@ 147
17. 146
Alman@@ 146
bien 146
day@@ 146
kirche 146
mak 146
observ@@ 146
sang 146
û 146
隶@@ 146
Buenos 145
Verein 145
adap@@ 145
country 145
imba 145
zeich@@ 145
ète 145
ım 145
ου@@ 145
ש 145
九@@ 145
玉@@ 145
Nigeria 144
division 144
gé@@ 144
ión 144
kara 144
lege 144
nah@@ 144
near 144
nomin@@ 144
points 144
wur@@ 144
класи@@ 144
against 143
curr@@ 143
princi@@ 143
reduc@@ 143
àn 143
ˌ@@ 143
άρ@@ 143
τα@@ 143
か@@ 143
autom@@ 142
bao 142
chap@@ 142
ectu@@ 142
Đ@@ 142
ʷ 142
ֹ@@ 142
Amér@@ 141
Ban 141
again 141
amu 141
dad 141
kut@@ 141
tischen 141
usu 141
went 141
ů 141
古@@ 141
Kenya 140
droit 140
iku@@ 140
kup@@ 140
leich@@ 140
mort 140
naci@@ 140
sent@@ 140
sind 140
λι@@ 140
乡@@ 140
仁@@ 140
Forsch@@ 139
Gü@@ 139
administr@@ 139
awa@@ 139
could 139
ically 139
irat@@ 139
iß@@ 139
monum@@ 139
zas 139
թ@@ 139
և@@ 139
ע 139
利@@ 139
湘@@ 139
16. 138
Platz 138
abu 138
bind@@ 138
erin 138
général 138
second 138
Î@@ 138
érie 138
ική 138
Ս@@ 138
原@@ 138
19. 137
Hö@@ 137
Seine 137
adora 137
appe@@ 137
const@@ 137
gö@@ 137
ikan@@ 137
inform@@ 137
kamp@@ 137
namo 137
politique 137
seine 137
πο@@ 137
ҥ@@ 137
口@@ 137
嘉@@ 137
18. 136
arias 136
haz@@ 136
sich 136
who@@ 136
yet@@ 136
ű@@ 136
ɨ@@ 136
αι@@ 136
τα 136
ќ@@ 136
吉@@ 136
Kup@@ 135
Lebens@@ 135
altung 135
como 135
gut 135
hay@@ 135
istas 135
sö@@ 135
être 135
Θ 135
Ν 135
് 135
信@@ 135
惠@@ 135
镇@@ 135
conv@@ 134
eş@@ 134
quier 134
race 134
不@@ 134
이@@ 134
Geometr@@ 133
prec@@ 133
tham 133
wirt@@ 133
ül 133
ʲ 133
ασ@@ 133
Guerra 132
anan 132
being 132
enin 132
iques 132
mez 132
sehen 132
Българ@@ 132
ო 132
し@@ 132
军 132
合@@ 132
成@@ 132
Fahr@@ 131
Menschen 131
fait 131
tish@@ 131
uko 131
едно 131
ց@@ 131
侯 131
公 131
津@@ 131
顺@@ 131
charac@@ 130
ecke 130
haf@@ 130
partamento 130
zog 130
ï 130
ɣ 130
έν@@ 130
Մ@@ 130
ى 130
ḍ@@ 130
ク@@ 130
Mp@@ 129
constitu@@ 129
fot@@ 129
kav@@ 129
lanz@@ 129
leurs 129
̍ 129
Ζ@@ 129
ής 129
ελ@@ 129
цата 129
ѝ@@ 129
و@@ 129
ト@@ 129
尔@@ 129
开@@ 129
福@@ 129
February 128
alista 128
casa 128
eño 128
inner@@ 128
yen 128
äf@@ 128
̈ 128
όν 128
ج@@ 128
ر 128
ჩ@@ 128
♯ 128
卫 128
粤@@ 128
阴@@ 128
Partido 127
municip@@ 127
west@@ 127
éch@@ 127
ütz@@ 127
ֶ@@ 127
ُ@@ 127
ὐ@@ 127
› 127
延@@ 127
Besch@@ 126
Tod 126
expl@@ 126
fass@@ 126
idente 126
ilit@@ 126
original 126
tainment 126
Тя 126
Ѣ 126
レ@@ 126
十@@ 126
百@@ 126
長@@ 126
final 125
numer@@ 125
verk@@ 125
études 125
птем@@ 125
ђ@@ 125
خ@@ 125
京@@ 125
周@@ 125
Woh@@ 124
beit 124
enso 124
esha 124
origine 124
schw@@ 124
sent 124
stil@@ 124
tions@@ 124
Ў@@ 124
Има 124
ҥ 124
ӷ@@ 124
Er 123
alten 123
continu@@ 123
fico 123
ßen 123
ız 123
ǫ@@ 123
сигур@@ 123
ḫ@@ 123
シ@@ 123
常@@ 123
青@@ 123
马@@ 123
Auf 122
Santi@@ 122
region 122
yok@@ 122
ück@@ 122
Ά@@ 122
τι@@ 122
ӑ 122
բ@@ 122
∅ 122
Alem@@ 121
Frau 121
contre 121
films 121
ihre 121
later 121
organisation 121
sad@@ 121
seh@@ 121
trag 121
ƒ 121
ʷ@@ 121
έρ@@ 121
ων@@ 121
ҫ 121
ӄ 121
⅛ 121
カ@@ 121
方@@ 121
花@@ 121
agua 120
artist@@ 120
ativo 120
cré@@ 120
elected 120
film@@ 120
noch 120
rail@@ 120
strat@@ 120
äu@@ 120
όν@@ 120
Є 120
่ 120
์ 120
◌ 120
Bir 119
Türkiye 119
aque 119
cá@@ 119
dik@@ 119
emu 119
neue 119
polic@@ 119
requ@@ 119
sah@@ 119
tout 119
հ@@ 119
ὸ@@ 119
淮@@ 119
Grün@@ 118
actu@@ 118
echo 118
jah@@ 118
present 118
secre@@ 118
ħ@@ 118
ǝ@@ 118
ър 118
ẋ 118
ἰ@@ 118
Engl@@ 117
andes 117
anno@@ 117
arri@@ 117
autor@@ 117
chs 117
found 117
ived 117
izo 117
ongo@@ 117
ť@@ 117
ʊ 117
δι@@ 117
λλ@@ 117
ρί@@ 117
た@@ 117
左@@ 117
远@@ 117
Serie 116
Yeni 116
azo 116
eht 116
pays 116
produ@@ 116
season 116
vier@@ 116
Über@@ 116
ķ@@ 116
чето 116
な@@ 116
Dans 115
Mit 115
Ort@@ 115
Wasser@@ 115
ased 115
enten 115
ersch@@ 115
lés 115
át 115
éo 115
óm@@ 115
стъ@@ 115
้ 115
と@@ 115
下@@ 115
木@@ 115
January 114
comme 114
concep@@ 114
diz@@ 114
eso 114
mim@@ 114
spor@@ 114
teil@@ 114
toral 114
ة 114
〉 114
以@@ 114
Par 113
arios 113
best@@ 113
deutsch@@ 113
dung 113
imiento 113
iç@@ 113
lui 113
mais 113
ngu@@ 113
sos@@ 113
trou@@ 113
tür@@ 113
wah@@ 113
ıl@@ 113
̱ 113
ακ@@ 113
〈 113
蒙@@ 113
馬@@ 113
대@@ 113
Bu 112
Türk@@ 112
early 112
released 112
Ç 112
ähr@@ 112
éti@@ 112
ȋ@@ 112
ʾ@@ 112
ا 112
ق 112
ῦ 112
唐@@ 112
学@@ 112
旗 112
amente 111
inin 111
tif 111
tous 111
ř 111
αυ@@ 111
κλ@@ 111
ӕ 111
ֵ@@ 111
张@@ 111
藏@@ 111
church 110
drei 110
ehen 110
kehr@@ 110
stanbul 110
vez 110
ır 110
σκ@@ 110
област 110
ان 110
ῦ@@ 110
forc@@ 109
fäl@@ 109
inh 109
musical 109
nde 109
äus@@ 109
ǔ 109
Δι@@ 109
εί@@ 109
أ@@ 109
‹ 109
る 109
村 109
松@@ 109
泰@@ 109
门@@ 109
Zu 108
abab@@ 108
ached 108
cens@@ 108
dah@@ 108
nur 108
osu 108
sous 108
èse 108
üm 108
ǐ 108
ׁ@@ 108
ス 108
思@@ 108
池@@ 108
洛@@ 108
children 107
conduc@@ 107
dici@@ 107
embre 107
found@@ 107
half 107
ología 107
partic@@ 107
terior 107
these 107
unci@@ 107
women 107
¿ 107
терито@@ 107
إ@@ 107
光@@ 107
aki@@ 106
alien 106
along 106
beri 106
endre 106
eyi 106
franc@@ 106
much 106
office 106
üz@@ 106
þ 106
άκ@@ 106
ӱ 106
► 106
ジ@@ 106
Entre 105
diplom@@ 105
eski 105
gleich@@ 105
hiv@@ 105
kreis 105
lima 105
nou@@ 105
those 105
να 105
ομ@@ 105
م 105
い 105
Pia 104
aî@@ 104
bier@@ 104
cian 104
có@@ 104
lil@@ 104
mek 104
oğlu 104
rés@@ 104
sey@@ 104
zentr@@ 104
ǫ 104
ب 104
བ@@ 104
宝@@ 104
無@@ 104
社 104
Ende 103
bang 103
endant 103
lichkeit 103
pré@@ 103
utsch@@ 103
weit@@ 103
öster@@ 103
ģ@@ 103
ολ@@ 103
ӈ 103
ル 103
公司 103
凉@@ 103
Spiel@@ 102
aji 102
aliste 102
cada 102
ecu@@ 102
five 102
ickl@@ 102
kön@@ 102
materi@@ 102
nay 102
neh@@ 102
tah@@ 102
tigen 102
étu@@ 102
λε@@ 102
брита@@ 102
вото 102
帝 102
昭@@ 102
理@@ 102
生@@ 102
akt@@ 101
another 101
baz@@ 101
competi@@ 101
ewa 101
kip@@ 101
muj@@ 101
propri@@ 101
recher@@ 101
written 101
ɒ@@ 101
Περ@@ 101
птември 101
ח 101
ز@@ 101
Gruppe 100
alim@@ 100
ately 100
champi@@ 100
eden 100
geg@@ 100
onship 100
quatre 100
zh 100
ικός 100
ґ 100
ҕ@@ 100
һ 100
∠ 100
☆ 100
关@@ 100
赣@@ 100
Nh@@ 99
Parti 99
distribu@@ 99
iş@@ 99
lieb 99
trois 99
Ó 99
εύ@@ 99
マ@@ 99
Dr. 98
abaj@@ 98
carr@@ 98
century 98
different 98
ennen 98
instrum@@ 98
jap@@ 98
program@@ 98
promot@@ 98
rég@@ 98
yaz@@ 98
èmes 98
ŭ 98
̊ 98
άς 98
դ@@ 98
ٌ 98
ி@@ 98
ོ@@ 98
ἄ@@ 98
ん 98
回@@ 98
固@@ 98
女@@ 98
正@@ 98
República 97
mano 97
nant 97
opo 97
pek@@ 97
record@@ 97
tant 97
village 97
áng 97
über@@ 97
ɗ@@ 97
исполь@@ 97
ӯ@@ 97
に@@ 97
世@@ 97
八@@ 97
吴@@ 97
温@@ 97
真@@ 97
Biographie 96
anderen 96
conserv@@ 96
depuis 96
explo@@ 96
hay 96
hoa 96
pein@@ 96
poin@@ 96
serie 96
seur 96
signed 96
with@@ 96
xico 96
zil@@ 96
Ї@@ 96
文 96
皇@@ 96
美@@ 96
街@@ 96
Kib@@ 95
après 95
kid@@ 95
relati@@ 95
werden 95
Â@@ 95
êt 95
Κ 95
ικής 95
οφ@@ 95
Северна 95
ט 95
万@@ 95
同@@ 95
工@@ 95
Allem@@ 94
appear@@ 94
arak 94
arbeit@@ 94
candid@@ 94
conver@@ 94
einem 94
exist@@ 94
fak@@ 94
gegen 94
ités 94
lande 94
là 94
ortho@@ 94
riff 94
tä@@ 94
vile 94
yol@@ 94
zwe@@ 94
Ú 94
úl@@ 94
Ō@@ 94
Ґ@@ 94
ը 94
։ 94
Ḥ@@ 94
ṃ 94
孝@@ 94
沧@@ 94
源@@ 94
达@@ 94
ería 93
jeun@@ 93
öch@@ 93
εν@@ 93
ιν@@ 93
υ 93
ъл@@ 93
զ@@ 93
շ@@ 93
ま@@ 93
哈@@ 93
宣@@ 93
Sohn 92
adan 92
agric@@ 92
aş 92
chung 92
dak@@ 92
exten@@ 92
hosp@@ 92
ikia 92
innen 92
mek@@ 92
mundo 92
onio 92
tay@@ 92
toire 92
Ñ 92
éré@@ 92
ühr@@ 92
ız@@ 92
ɡ@@ 92
ا@@ 92
را@@ 92
ی 92
ნ 92
★ 92
ロ@@ 92
内@@ 92
Meister@@ 91
ibu 91
ihr 91
retr@@ 91
separ@@ 91
unden 91
̪ 91
Εκ@@ 91
ισ@@ 91
οδ@@ 91
ק 91
ُ 91
别@@ 91
劉@@ 91
博@@ 91
國 91
堂 91
曲@@ 91
Oly@@ 90
Tanz@@ 90
football 90
fü@@ 90
ihrer 90
jour@@ 90
quot@@ 90
sobre 90
succ@@ 90
yeri 90
èg@@ 90
ños 90
ünde 90
Ē@@ 90
ħ 90
εία 90
България 90
年@@ 90
朝@@ 90
榆@@ 90
济@@ 90
运@@ 90
郎 90
集@@ 90
Grenz@@ 89
Guin@@ 89
absol@@ 89
azu 89
culo 89
dire@@ 89
fond@@ 89
otra 89
territ@@ 89
total 89
yap@@ 89
zis@@ 89
ευ@@ 89
ط@@ 89
‿ 89
会 89
書@@ 89
水 89
立@@ 89
苗@@ 89
Bürger@@ 88
emente 88
ilde 88
kub@@ 88
nouvelle 88
ogle 88
ohne 88
ρε@@ 88
вайки 88
Ն@@ 88
ך 88
بن 88
․ 88
タ@@ 88
ド@@ 88
乌@@ 88
二@@ 88
柳@@ 88
钦@@ 88
Guerre 87
alité 87
auspi@@ 87
besch@@ 87
igt 87
situ@@ 87
support 87
économ@@ 87
̅ 87
ρά@@ 87
τά@@ 87
ས 87
∆ 87
う@@ 87
り@@ 87
云@@ 87
佛@@ 87
作@@ 87
宾@@ 87
巴@@ 87
汾@@ 87
潭@@ 87
绥@@ 87
Eins@@ 86
conqu@@ 86
kem@@ 86
langu@@ 86
muda 86
origin@@ 86
personal 86
qué 86
zt 86
Öz@@ 86
ämp@@ 86
ǎ 86
αν 86
ησι@@ 86
τη 86
Қ 86
∴ 86
∼ 86
フ@@ 86
冈@@ 86
商@@ 86
苏@@ 86
Gemeinde 85
Sie 85
franç@@ 85
iran 85
lı 85
obra 85
oku@@ 85
ük@@ 85
Ә 85
է@@ 85
ك 85
त 85
ὰ 85
う 85
寺 85
河 85
軍 85
한@@ 85
Bev@@ 84
Für 84
Uganda 84
alem@@ 84
amii 84
ampi@@ 84
came 84
cause 84
making 84
services 84
wap@@ 84
zäh@@ 84
Ét@@ 84
Č 84
ış@@ 84
ས@@ 84
ん@@ 84
ト 84
也 84
土@@ 84
衡@@ 84
Canton 83
alternati@@ 83
bish@@ 83
colon@@ 83
premi@@ 83
since 83
traf@@ 83
Ñ@@ 83
ún@@ 83
ʁ@@ 83
Θε@@ 83
μα@@ 83
น@@ 83
‛ 83
ち@@ 83
咸@@ 83
combin@@ 82
community 82
comun@@ 82
empl@@ 82
fav@@ 82
prak@@ 82
ˬ 82
̑ 82
ις 82
ρα 82
स 82
司@@ 82
天 82
封@@ 82
徐@@ 82
限@@ 82
이 82
assist@@ 81
coul@@ 81
disput@@ 81
elde 81
ları 81
orden 81
ouver@@ 81
ticos 81
zus@@ 81
Õ@@ 81
änge 81
üng@@ 81
ɾ@@ 81
ҍ@@ 81
Վ@@ 81
ա 81
ان@@ 81
は@@ 81
り 81
宗 81
富@@ 81
月@@ 81
罗@@ 81
Präs@@ 80
años 80
muerte 80
osas 80
où 80
parte 80
trat 80
una@@ 80
İn@@ 80
ʌ@@ 80
αστ@@ 80
ικό 80
παρ@@ 80
щия 80
ӓ@@ 80
պ@@ 80
ل 80
್ 80
ར@@ 80
ウ@@ 80
兰@@ 80
官@@ 80
生 80
行 80
襄@@ 80
brit@@ 79
called 79
cultur@@ 79
develop@@ 79
distr@@ 79
duk@@ 79
laya 79
maf@@ 79
role 79
temper@@ 79
tesi 79
änder@@ 79
édi@@ 79
Œ@@ 79
̰ 79
πι@@ 79
τρ@@ 79
Ѳ 79
ག@@ 79
丘@@ 79
丹@@ 79
丽@@ 79
威@@ 79
波@@ 79
～ 79
According 78
bâ@@ 78
derni@@ 78
donn@@ 78
erste 78
ezi 78
hier 78
provid@@ 78
thu 78
udi 78
wach@@ 78
Ž 78
време 78
Ө 78
ס 78
ت 78
ن 78
თ 78
千@@ 78
張@@ 78
法@@ 78
田 78
Amerika 77
anistan 77
clas@@ 77
construction 77
enfants 77
equi@@ 77
matr@@ 77
naf@@ 77
sana 77
ĭ 77
ɕ@@ 77
Αγ@@ 77
άλ@@ 77
με@@ 77
म@@ 77
य 77
र 77
っ@@ 77
多@@ 77
政@@ 77
Bür@@ 76
Mundial 76
atika 76
auté 76
avant 76
dok@@ 76
experi@@ 76
hud@@ 76
icha 76
isons 76
más 76
Τ 76
ίν@@ 76
ογ@@ 76
ργ@@ 76
ώ 76
҃ 76
غ@@ 76
ک@@ 76
ⴰ@@ 76
る@@ 76
將@@ 76
院 76
香@@ 76
사@@ 76
Tari@@ 75
dió 75
forces 75
mittel@@ 75
recog@@ 75
resid@@ 75
schaf@@ 75
sek 75
tionen 75
ď@@ 75
ĩ 75
Ελλην@@ 75
Το 75
Ψ 75
ռ@@ 75
الم@@ 75
س 75
َّ@@ 75
य@@ 75
வ@@ 75
ိ@@ 75
が@@ 75
省 75
秦@@ 75
荆@@ 75
華@@ 75
路@@ 75
铜@@ 75
나@@ 75
Indon@@ 74
aison 74
ationen 74
because 74
central 74
conse@@ 74
determin@@ 74
egos 74
encias 74
herr@@ 74
iler@@ 74
introduc@@ 74
jours 74
kuh@@ 74
kung 74
lama 74
mente 74
rek@@ 74
seiner 74
suite 74
ık 74
κο@@ 74
μέ@@ 74
ους 74
փ@@ 74
ص@@ 74
ম@@ 74
ན 74
ღ@@ 74
₤ 74
可@@ 74
忻@@ 74
益@@ 74
贵@@ 74
部 74
김@@ 74
아@@ 74
año 73
dı 73
four@@ 73
ient 73
independ@@ 73
ingt 73
invol@@ 73
milli@@ 73
ngh@@ 73
nh 73
sociation 73
unu 73
waz@@ 73
ände 73
ım@@ 73
ũ 73
Αν@@ 73
ίδ@@ 73
περ@@ 73
Ђ@@ 73
Կ@@ 73
Ր@@ 73
ّ@@ 73
♂ 73
ナ@@ 73
侯@@ 73
式@@ 73
麻@@ 73
gru@@ 72
habit@@ 72
kana 72
präs@@ 72
published 72
ticas 72
unas 72
wird 72
ɡ 72
εις 72
πλ@@ 72
πρ@@ 72
ল@@ 72
த@@ 72
ม@@ 72
⊙ 72
て@@ 72
オ@@ 72
景@@ 72
物@@ 72
Meter 71
cil 71
constr@@ 71
eser@@ 71
feh@@ 71
govern@@ 71
gran 71
jeres 71
kül@@ 71
novel@@ 71
stän@@ 71
teh@@ 71
ución 71
¦ 71
ük 71
̲ 71
Έ@@ 71
Μ 71
Ρ 71
σα 71
Ғ 71
ӳ 71
ི 71
ḱ@@ 71
ṣ 71
さ@@ 71
克@@ 71
凤@@ 71
头@@ 71
寿@@ 71
梧@@ 71
港@@ 71
神 71
靖@@ 71
ded@@ 70
dej@@ 70
mab@@ 70
military 70
pendant 70
political 70
sont 70
érieur 70
óg@@ 70
αθ@@ 70
ѓ@@ 70
Җ@@ 70
ք 70
ད@@ 70
♀ 70
あ@@ 70
お@@ 70
书@@ 70
代@@ 70
平 70
教@@ 70
潍@@ 70
矿@@ 70
郴@@ 70
Jahr 69
deren 69
design@@ 69
ieren 69
meng@@ 69
route 69
unca 69
woh@@ 69
ßen@@ 69
élec@@ 69
άδ@@ 69
λα@@ 69
մ 69
مَ@@ 69
پ@@ 69
ყ@@ 69
ṭ 69
き@@ 69
ラ 69
丰@@ 69
庄@@ 69
心@@ 69
怀@@ 69
普@@ 69
汕@@ 69
Produk@@ 68
autres 68
dies@@ 68
dows 68
guerra 68
jaw@@ 68
klär@@ 68
wana 68
ª 68
µ 68
üst@@ 68
Ŋ 68
ſ@@ 68
ɐ 68
ορ@@ 68
Ի@@ 68
Ո@@ 68
ம 68
འ@@ 68
ら@@ 68
テ@@ 68
右@@ 68
次@@ 68
而@@ 68
語 68
邵@@ 68
Durch@@ 67
chef 67
construc@@ 67
déc@@ 67
gradu@@ 67
gü@@ 67
isine 67
ológ@@ 67
rière 67
timm@@ 67
took 67
ême 67
ǐ@@ 67
ίου 67
λόγ@@ 67
οπο@@ 67
Ј 67
چ@@ 67
្ 67
ℓ 67
♥ 67
サ@@ 67
事@@ 67
女 67
浦@@ 67
省@@ 67
藤@@ 67
고@@ 67
biy@@ 66
both 66
izi 66
née 66
schnit@@ 66
signi@@ 66
television 66
ào 66
İstanbul 66
ɕ 66
αμ@@ 66
εν 66
ικά 66
τερ@@ 66
म 66
こ@@ 66
キ@@ 66
伊@@ 66
杜@@ 66
氏@@ 66
连@@ 66
里@@ 66
지@@ 66
alif@@ 65
ateurs 65
baş@@ 65
etzt 65
financi@@ 65
hio 65
ildi 65
ität 65
kommen 65
lég@@ 65
prepar@@ 65
represent@@ 65
reti@@ 65
third 65
transfer@@ 65
waf@@ 65
¢ 65
Ä 65
Ô 65
út 65
ď 65
ŏ@@ 65
œ 65
ɲ 65
ʌ 65
Παρ@@ 65
Ҳ@@ 65
من 65
র@@ 65
ர@@ 65
ტ 65
僮@@ 65
木 65
梅@@ 65
縣 65
绵@@ 65
许@@ 65
野@@ 65
joint 64
lagen 64
pour@@ 64
preu@@ 64
proxim@@ 64
sprech@@ 64
statt 64
tof@@ 64
until 64
ǔ@@ 64
ɜ 64
ˤ@@ 64
Ξ@@ 64
μου 64
νη 64
οσ@@ 64
ӓ 64
Գ@@ 64
ջ@@ 64
ւ 64
الله 64
في 64
محمد 64
း@@ 64
ὁ 64
₄ 64
の 64
コ@@ 64
中国@@ 64
壮@@ 64
星@@ 64
沂@@ 64
義@@ 64
교 64
국@@ 64
Jahrhunderts 63
Tür@@ 63
anı 63
autre 63
dose 63
famil@@ 63
fils 63
haben 63
hô@@ 63
incre@@ 63
investig@@ 63
Æ 63
Í 63
ên 63
ış 63
ļ 63
Π 63
Παν@@ 63
αί@@ 63
μά@@ 63
οί 63
ӳ@@ 63
الع@@ 63
ش 63
ع 63
ང 63
ာ@@ 63
ὑ@@ 63
く@@ 63
竹@@ 63
色@@ 63
谷@@ 63
部@@ 63
Ayr@@ 62
Haup@@ 62
Mei 62
Parlam@@ 62
andere 62
cet 62
lesia 62
llam@@ 62
meister@@ 62
mé 62
siz 62
Á 62
ôt 62
ʧ@@ 62
̦ 62
άγ@@ 62
ίκ@@ 62
αβ@@ 62
ην@@ 62
ιος 62
ѹ@@ 62
ὸ 62
♦ 62
⦁ 62
ク 62
主@@ 62
区@@ 62
双@@ 62
少@@ 62
臺@@ 62
魏@@ 62
Anf@@ 61
Francia 61
allem@@ 61
fang@@ 61
incia 61
indi 61
letz@@ 61
nord@@ 61
wich@@ 61
ɐ@@ 61
̮ 61
άσ@@ 61
έα 61
θος 61
τη@@ 61
όσ@@ 61
Ҫ@@ 61
Ӱ 61
Պ@@ 61
կ 61
ץ 61
ون 61
্ 61
ྲ@@ 61
Ἐ@@ 61
ὴ@@ 61
⁰ 61
一 61
主 61
恩@@ 61
明 61
經 61
者@@ 61
수@@ 61
Böl@@ 60
emper@@ 60
luk 60
manif@@ 60
nouv@@ 60
nouveau 60
within 60
ích 60
ʻ 60
απ@@ 60
αρχ@@ 60
μι@@ 60
οπ@@ 60
въз@@ 60
ذ@@ 60
ย@@ 60
ლ 60
ṅ@@ 60
█ 60
ニ@@ 60
ノ@@ 60
宿@@ 60
法 60
肇@@ 60
話 60
雄@@ 60
리 60
Campeonato 59
bildung 59
jeu 59
kuj@@ 59
ported 59
quali@@ 59
sü@@ 59
yü@@ 59
¨ 59
çal@@ 59
ġ@@ 59
ƶ 59
ɬ@@ 59
Ό@@ 59
νης 59
οι@@ 59
τέ@@ 59
υπ@@ 59
изку@@ 59
ското 59
Ү 59
न@@ 59
া 59
ன@@ 59
ம@@ 59
ா@@ 59
า@@ 59
မ@@ 59
ṃ@@ 59
ἔ@@ 59
♕ 59
ハ@@ 59
七@@ 59
上 59
伯@@ 59
名@@ 59
學@@ 59
我@@ 59
日 59
朱@@ 59
郑@@ 59
； 59
Teil 58
civil 58
entro 58
government 58
istre 58
kik@@ 58
ndi@@ 58
onales 58
otros 58
pou@@ 58
professi@@ 58
rar 58
schied@@ 58
uvo 58
çi 58
ık@@ 58
ǒ@@ 58
̇ 58
Ιερ@@ 58
γκ@@ 58
την 58
Ң 58
ջ 58
الح@@ 58
ْ 58
ு 58
ు 58
ง@@ 58
ུ@@ 58
ေ@@ 58
も@@ 58
れ@@ 58
之 58
了 58
史 58
字 58
崇@@ 58
德 58
无@@ 58
書 58
洋@@ 58
空@@ 58
記 58
邑@@ 58
银@@ 58
韶@@ 58
Jahrhundert 57
aliy@@ 57
angu 57
coup 57
gör@@ 57
kea 57
maya 57
nde@@ 57
quelques 57
rement 57
signific@@ 57
wala 57
ŭ@@ 57
ʲ@@ 57
μος 57
μπ@@ 57
σία 57
τον 57
υρ@@ 57
място 57
този 57
ӽ 57
յ 57
آ@@ 57
ی@@ 57
द 57
ে 57
ு@@ 57
མ@@ 57
တ@@ 57
‍ 57
₴ 57
し 57
イ 57
デ@@ 57
バ@@ 57
出@@ 57
和 57
年 57
所 57
扬@@ 57
渭@@ 57
红@@ 57
羅@@ 57
良@@ 57
酒@@ 57
龍@@ 57
Mais 56
arse 56
benz@@ 56
district 56
elik 56
isho 56
kati@@ 56
marqu@@ 56
material 56
oyn@@ 56
parti 56
scheid@@ 56
ustos 56
ái 56
çe 56
ɯ 56
ʹ@@ 56
Κα@@ 56
ών@@ 56
чети@@ 56
ҳ 56
ӊ 56
ӽ@@ 56
ե 56
ون@@ 56
ก@@ 56
อ@@ 56
Ἰ@@ 56
ὴ 56
を@@ 56
ィ@@ 56
ャ@@ 56
井@@ 56
字@@ 56
家 56
林 56
盐@@ 56
纳@@ 56
翼@@ 56
重@@ 56
阜@@ 56
陈@@ 56
도 56
Dez@@ 55
akter@@ 55
arded 55
atif 55
destin@@ 55
direction 55
following 55
gol 55
larg@@ 55
setz@@ 55
tés 55
visit@@ 55
zeit@@ 55
üş@@ 55
ŕ@@ 55
έλ@@ 55
Ӧ 55
ג 55
ף 55
گ@@ 55
। 55
ன 55
ப@@ 55
ய@@ 55
ல@@ 55
င 55
ẽ 55
♖ 55
♣ 55
ブ@@ 55
夷@@ 55
師 55
御@@ 55
手@@ 55
承@@ 55
锦@@ 55
陽 55
隆@@ 55
雁@@ 55
館 55
黎@@ 55
정@@ 55
Akad@@ 54
aña 54
cier@@ 54
ehe 54
endung 54
ersten 54
inten@@ 54
kua 54
leit@@ 54
million 54
neuen 54
population 54
premier 54
prä@@ 54
sett@@ 54
soit 54
tanto 54
vek@@ 54
wam@@ 54
wech@@ 54
zeh@@ 54
ʕ 54
Νικ@@ 54
είο 54
ηγ@@ 54
θη@@ 54
йския 54
съю@@ 54
џ@@ 54
җ 54
الت@@ 54
الس@@ 54
الش@@ 54
ز 54
مُ@@ 54
त@@ 54
ব@@ 54
র 54
ྱ@@ 54
事 54
元 54
後@@ 54
抚@@ 54
施@@ 54
月 54
盟 54
胡@@ 54
Sept@@ 53
arı 53
bere@@ 53
besonder@@ 53
capital 53
celle 53
ciudad 53
día 53
egem@@ 53
ekonom@@ 53
fahren 53
même 53
nun 53
quan 53
rece@@ 53
señ@@ 53
į 53
ŏ 53
ſ 53
Ɔ 53
Μον@@ 53
ει 53
κύ@@ 53
ού 53
προ@@ 53
њ 53
Լ@@ 53
الج@@ 53
ِ 53
ാ@@ 53
ི@@ 53
ἡ@@ 53
₹ 53
♘ 53
ア 53
ガ@@ 53
前@@ 53
宗@@ 53
岩@@ 53
村@@ 53
芜@@ 53
蕭@@ 53
衛@@ 53
言@@ 53
邯@@ 53
門 53
리@@ 53
인@@ 53
하@@ 53
： 53
Việt 52
adop@@ 52
anischen 52
centre 52
dass 52
excep@@ 52
jia 52
kwa 52
lieu 52
lık 52
nchini 52
recu@@ 52
uş@@ 52
Ê@@ 52
était 52
ɓ@@ 52
ˍ@@ 52
δε@@ 52
εια 52
εκ@@ 52
τική 52
τσ@@ 52
Русия 52
ѳ@@ 52
ҍ 52
Ӳ 52
ار 52
ين 52
र@@ 52
། 52
₇ 52
つ@@ 52
エ@@ 52
グ@@ 52
君@@ 52
帝@@ 52
廳 52
感@@ 52
楚@@ 52
羅 52
郸@@ 52
饶@@ 52
Dünya 51
Nga 51
Rück@@ 51
alı 51
anh 51
celebr@@ 51
conten@@ 51
declar@@ 51
dete 51
gek@@ 51
grab@@ 51
interpret@@ 51
juu 51
nete 51
reci@@ 51
success@@ 51
só@@ 51
trieb 51
ède 51
ét 51
óm 51
Ț@@ 51
̠ 51
ημ@@ 51
καλ@@ 51
όμ@@ 51
ց 51
ري@@ 51
ية 51
ட@@ 51
్ 51
් 51
ว@@ 51
ြ@@ 51
ḷ@@ 51
ọ 51
ⁿ 51
₃ 51
♠ 51
〜 51
仁 51
全@@ 51
分@@ 51
士 51
归@@ 51
愛@@ 51
時@@ 51
湛@@ 51
甘@@ 51
章@@ 51
赤@@ 51
기@@ 51
Cumhuriy@@ 50
Jahren 50
charg@@ 50
cuer@@ 50
died 50
emba 50
españ@@ 50
estim@@ 50
few 50
ifa 50
received 50
releas@@ 50
voll@@ 50
waka 50
wegen 50
él 50
öff@@ 50
ľ 50
ɬ 50
ɲ@@ 50
ʂ 50
ματα 50
πος 50
τικ@@ 50
όρ@@ 50
българ@@ 50
една 50
Բ@@ 50
ّ 50
ர 50
ἱ@@ 50
☀ 50
ュ@@ 50
下 50
局 50
岳@@ 50
斯@@ 50
株@@ 50
漢@@ 50
聖@@ 50
軍@@ 50
辽@@ 50
遵@@ 50
都 50
零@@ 50
鸡@@ 50
주 50
Mitte 49
adil@@ 49
complet@@ 49
famille 49
greso 49
gén@@ 49
propos@@ 49
tiy@@ 49
zwischen 49
È@@ 49
âte@@ 49
écn@@ 49
éré 49
ôle 49
úa 49
ˇ 49
ίσ@@ 49
θέ@@ 49
μον@@ 49
ս 49
क@@ 49
ด@@ 49
ེ@@ 49
က@@ 49
⁴ 49
に 49
ダ@@ 49
ド 49
充@@ 49
其@@ 49
外@@ 49
宮 49
密@@ 49
察@@ 49
島 49
布@@ 49
潮@@ 49
者 49
기 49
시@@ 49
Cuando 48
Kön@@ 48
Osman@@ 48
Zus@@ 48
among 48
consider@@ 48
desc@@ 48
europé@@ 48
gebiet 48
ihe 48
isant 48
orden@@ 48
organis@@ 48
particip@@ 48
puis 48
qued@@ 48
tourn@@ 48
unkt 48
àng 48
đ 48
ĝ@@ 48
ıl 48
ường 48
Ș@@ 48
ɵ@@ 48
ˆ 48
Δημ@@ 48
Ψ@@ 48
μβ@@ 48
νε@@ 48
ται 48
υσ@@ 48
Ѳ@@ 48
վ 48
ײ@@ 48
ار@@ 48
الن@@ 48
ام@@ 48
ف 48
لا@@ 48
ܐ 48
ः 48
द@@ 48
ா 48
ร@@ 48
た 48
ミ@@ 48
メ@@ 48
先@@ 48
原 48
在@@ 48
地 48
安 48
容@@ 48
江 48
海 48
烟@@ 48
相@@ 48
那@@ 48
陇@@ 48
音@@ 48
다 48
로 48
Fuß@@ 47
alar 47
appel@@ 47
cito 47
command@@ 47
commune 47
east 47
idades 47
ilen 47
kann 47
luk@@ 47
particu@@ 47
period 47
poco 47
popular 47
profes@@ 47
puer@@ 47
père 47
though 47
très 47
équ@@ 47
útbol 47
İ 47
Ř@@ 47
Ə 47
ʁ 47
Πρό@@ 47
Σχολ@@ 47
ίων 47
γραμμα 47
ιλ@@ 47
σσ@@ 47
υμ@@ 47
Ї 47
ѡ@@ 47
न 47
พ@@ 47
ု@@ 47
よ@@ 47
ェ@@ 47
京 47
始@@ 47
師@@ 47
徽@@ 47
戦@@ 47
泽@@ 47
稽@@ 47
英@@ 47
陽@@ 47
雷@@ 47
風@@ 47
학@@ 47
Bei 46
Durch 46
Kif@@ 46
Tanzania 46
Theo 46
Weit@@ 46
aband@@ 46
bul 46
clim@@ 46
conoc@@ 46
director 46
familia 46
fois 46
icios 46
import@@ 46
keiten 46
members 46
moja 46
north 46
police 46
wani 46
ài 46
âm 46
üz 46
ʂ@@ 46
στο@@ 46
τε@@ 46
ѫ 46
ҧ@@ 46
ז 46
ض@@ 46
ور 46
ে@@ 46
ರ@@ 46
ು 46
ᠠ@@ 46
ốc 46
で@@ 46
廣@@ 46
為@@ 46
藩 46
鄂@@ 46
陳@@ 46
사 46
장@@ 46
Ankara 45
Müz@@ 45
aiss@@ 45
favor@@ 45
grandes 45
ición 45
juli@@ 45
peu 45
première 45
sahi@@ 45
ılar 45
̧ 45
λος 45
φιλ@@ 45
Ѵ 45
Ӈ 45
ست@@ 45
ک 45
प 45
ত@@ 45
ర@@ 45
း 45
ṯ@@ 45
♗ 45
チ@@ 45
ム@@ 45
何@@ 45
兰 45
本 45
联@@ 45
邢@@ 45
郎@@ 45
防@@ 45
黃@@ 45
龍 45
가@@ 45
신@@ 45
화@@ 45
bora 44
cô@@ 44
denen 44
déf@@ 44
heute 44
kata 44
nungen 44
sud 44
suiv@@ 44
tener 44
uzi 44
wieder 44
ép 44
óng 44
ĭ@@ 44
Πολ@@ 44
έ 44
ήν@@ 44
για 44
δο@@ 44
ιστ@@ 44
κλη@@ 44
ξι@@ 44
συν@@ 44
χος 44
όγ@@ 44
όλ@@ 44
լ 44
ئ@@ 44
الك@@ 44
ح 44
ܝ@@ 44
ण 44
় 44
ེ 44
ჯ@@ 44
ẽ@@ 44
久@@ 44
于@@ 44
口 44
史@@ 44
吉 44
士@@ 44
学 44
志 44
於@@ 44
昌 44
玄@@ 44
盘@@ 44
科@@ 44
设@@ 44
산@@ 44
의 44
Este 43
amér@@ 43
bey@@ 43
divers@@ 43
elimin@@ 43
español 43
faz@@ 43
inaug@@ 43
kez@@ 43
leich 43
named 43
perman@@ 43
tü@@ 43
unos 43
È 43
öst@@ 43
üç@@ 43
ετ@@ 43
με 43
ρω@@ 43
σίας 43
υλ@@ 43
Љ@@ 43
днес 43
Ѧ 43
״ 43
الب@@ 43
لَ@@ 43
وال@@ 43
ை 43
ོ 43
ὄ@@ 43
∗ 43
す 43
夜@@ 43
大 43
如@@ 43
忠@@ 43
拉@@ 43
氏 43
祖 43
言 43
越@@ 43
邑 43
郁@@ 43
郭@@ 43
风@@ 43
allow@@ 42
aç 42
ağı 42
corresp@@ 42
deci@@ 42
huy@@ 42
iert 42
ilik 42
occas@@ 42
onu 42
pueblo 42
restaur@@ 42
rir 42
société 42
ually 42
vai 42
vuel@@ 42
État 42
äre 42
çı@@ 42
üy@@ 42
İs@@ 42
ıy@@ 42
ű 42
ƣ 42
ș 42
ʑ 42
Εθν@@ 42
ίλ@@ 42
δρ@@ 42
ικού 42
ριστ@@ 42
ση 42
τι 42
Դ@@ 42
Յ@@ 42
խ@@ 42
ير 42
व 42
व@@ 42
ন@@ 42
ச@@ 42
რ 42
‖ 42
∀ 42
せ@@ 42
だ@@ 42
ち 42
兵@@ 42
善@@ 42
夫 42
弘@@ 42
歌 42
瑞@@ 42
级 42
胜@@ 42
공@@ 42
동@@ 42
안@@ 42
－ 42
ABD 41
Anh 41
Liste 41
built 41
dipl@@ 41
ehir@@ 41
eleri 41
eshi 41
individu@@ 41
koa 41
lili@@ 41
mise 41
novi@@ 41
occup@@ 41
padre 41
registr@@ 41
toujours 41
uç@@ 41
vard@@ 41
zey@@ 41
áo 41
éta@@ 41
úbl@@ 41
ĩ@@ 41
Ī@@ 41
Ū@@ 41
ǰ@@ 41
ǵ@@ 41
ɯ@@ 41
ɾ 41
ʾ 41
ητ@@ 41
ιά 41
κά@@ 41
σε@@ 41
ът 41
Ґ 41
Һ 41
ӯ 41
ӷ 41
ծ@@ 41
بر@@ 41
نا 41
श 41
ক@@ 41
ি@@ 41
ส@@ 41
く 41
じ@@ 41
み@@ 41
ズ 41
中 41
中心 41
交@@ 41
基@@ 41
場 41
牛@@ 41
番@@ 41
社@@ 41
话 41
郡@@ 41
集 41
라@@ 41
주@@ 41
Nguy@@ 40
année 40
années 40
cette 40
contribu@@ 40
dado 40
fte 40
iye 40
maç@@ 40
mehr 40
ouvern@@ 40
proces@@ 40
reco@@ 40
umani 40
worked 40
xã 40
ĸ@@ 40
ɜ@@ 40
ʀ 40
̩ 40
Καλ@@ 40
γεν@@ 40
καν@@ 40
κατ@@ 40
ουλ@@ 40
ρου 40
σύ@@ 40
език 40
част 40
ҭ@@ 40
מ 40
נ 40
بي@@ 40
ور@@ 40
ې 40
अ@@ 40
য 40
ু@@ 40
ท@@ 40
ẹ 40
か 40
き 40
け@@ 40
す@@ 40
わ@@ 40
三 40
亭@@ 40
昆@@ 40
洪@@ 40
秀@@ 40
義 40
聊@@ 40
論 40
闽@@ 40
韓@@ 40
齐@@ 40
도@@ 40
미@@ 40
세@@ 40
우@@ 40
︎ 40
División 39
During 39
Lan 39
Thanh 39
aujour@@ 39
beim 39
compr@@ 39
estos 39
fik@@ 39
fiz@@ 39
gez@@ 39
gouvernement 39
neces@@ 39
seinen 39
teil 39
todo 39
yeni 39
Ý@@ 39
üş 39
ĉ@@ 39
ığ@@ 39
Ľ@@ 39
ŕ 39
ˀ 39
Αρ@@ 39
Προ@@ 39
Τα 39
επ@@ 39
κας 39
λογ@@ 39
πολι@@ 39
όκ@@ 39
през 39
الق@@ 39
ة@@ 39
لي@@ 39
مر@@ 39
क 39
இ@@ 39
ു@@ 39
ม 39
ပ@@ 39
῾ 39
ひ@@ 39
人民@@ 39
是@@ 39
浮@@ 39
管@@ 39
美 39
蒲@@ 39
黔@@ 39
ꙗ 39
국 39
Baş@@ 38
Kati 38
Nach 38
Proz@@ 38
alre@@ 38
including 38
insi 38
lado 38
landa 38
lü 38
nú@@ 38
ográ@@ 38
segu@@ 38
students 38
système 38
tay 38
tı 38
yay@@ 38
zwei 38
ército 38
Ł 38
ǯ 38
ɵ 38
̨ 38
έκ@@ 38
έχ@@ 38
λέ@@ 38
οτ@@ 38
πά@@ 38
τί@@ 38
ύλ@@ 38
Ѕ 38
ӹ 38
Վ 38
չ@@ 38
الأ@@ 38
ما 38
॥ 38
দ@@ 38
့ 38
រ@@ 38
∪ 38
ら 38
ム 38
利 38
孫@@ 38
宇@@ 38
宮@@ 38
島@@ 38
掖@@ 38
来@@ 38
歌@@ 38
武 38
汗 38
漳@@ 38
督 38
老@@ 38
里 38
金 38
銀@@ 38
경@@ 38
소@@ 38
Als 37
annten 37
capac@@ 37
concentr@@ 37
ensemble 37
important 37
individ@@ 37
luy@@ 37
lü@@ 37
mch@@ 37
pios 37
province 37
sau 37
tiempo 37
tiki 37
titul@@ 37
zul@@ 37
Ć@@ 37
Đ 37
Ō 37
Ƶ 37
ǣ@@ 37
ɓ 37
ˁ@@ 37
͜ 37
Καρ@@ 37
Με@@ 37
Πρ@@ 37
αδ@@ 37
βολ@@ 37
ιρ@@ 37
κυ@@ 37
πατ@@ 37
τυ@@ 37
Ђ 37
ѫ@@ 37
Ң@@ 37
Ҥ 37
ӣ@@ 37
ӹ@@ 37
Տ@@ 37
դ 37
اع@@ 37
با@@ 37
ج 37
دي 37
ति 37
স@@ 37
ന@@ 37
น 37
ฺ@@ 37
ལ 37
ḍ 37
ḳ@@ 37
ァ@@ 37
业@@ 37
乾@@ 37
佐@@ 37
使 37
典 37
军@@ 37
力@@ 37
向@@ 37
大学 37
府@@ 37
拳 37
故@@ 37
方 37
火@@ 37
燕@@ 37
片 37
線 37
花 37
茅@@ 37
野 37
陆@@ 37
雅@@ 37
黑@@ 37
Amerik@@ 36
Ağ@@ 36
Machi 36
almente 36
ambu@@ 36
armée 36
dedic@@ 36
fér@@ 36
grund 36
having 36
häng@@ 36
inté@@ 36
iyi 36
kale 36
médi@@ 36
nombre 36
pointed 36
ständi@@ 36
vili@@ 36
wenn 36
zug@@ 36
Ê 36
ách 36
ört 36
üf@@ 36
ĥ@@ 36
Ɛ 36
ǀ@@ 36
ɒ 36
̞ 36
άπ@@ 36
είας 36
ην 36
πί@@ 36
πολ@@ 36
τρι@@ 36
χρ@@ 36
ύρ@@ 36
пише 36
اد@@ 36
سي@@ 36
وا@@ 36
ज 36
प@@ 36
ष 36
़ 36
ি 36
క@@ 36
เ@@ 36
པ@@ 36
သ@@ 36
Ḫ@@ 36
ṛ 36
ὲ 36
代 36
修@@ 36
光 36
加@@ 36
勒@@ 36
卫@@ 36
情@@ 36
智@@ 36
洲@@ 36
深@@ 36
用@@ 36
登@@ 36
等@@ 36
虎@@ 36
要@@ 36
見@@ 36
陵 36
雲@@ 36
동 36
서@@ 36
스@@ 36
전@@ 36
 36
Cao 35
Familie 35
Yıl@@ 35
ases@@ 35
différ@@ 35
gün@@ 35
haup@@ 35
ifu 35
kend@@ 35
¸ 35
États 35
üne 35
Ę 35
ȗ@@ 35
ɟ 35
˛ 35
Γεν@@ 35
Ζ 35
Μακεδ@@ 35
έγ@@ 35
αλλ@@ 35
γραφ@@ 35
εσ@@ 35
λευ@@ 35
μφ@@ 35
σης 35
ѕ@@ 35
љ 35
ѵ@@ 35
Ҫ 35
ӡ 35
Տ 35
رو@@ 35
مو@@ 35
ग 35
ข@@ 35
ง 35
ย 35
ไ@@ 35
ར 35
ὰ@@ 35
え 35
み 35
セ@@ 35
パ@@ 35
プ@@ 35
二 35
刘@@ 35
坊@@ 35
塔@@ 35
孟@@ 35
徳@@ 35
會 35
樂@@ 35
沈@@ 35
灣@@ 35
灵@@ 35
界@@ 35
眉@@ 35
若@@ 35
草@@ 35
蘭@@ 35
谷 35
車@@ 35
边@@ 35
铁@@ 35
門@@ 35
馬 35
鲁@@ 35
조@@ 35
Juli 34
Kır@@ 34
März 34
alidad 34
amiento 34
angla@@ 34
avoir 34
bö@@ 34
escu@@ 34
ghi 34
hasta 34
isim@@ 34
mbal@@ 34
soll 34
south 34
Ë 34
ätz@@ 34
Ğ 34
ında 34
ızı 34
ț 34
ʉ 34
Μαρ@@ 34
ήρ@@ 34
ησ@@ 34
κος 34
μν@@ 34
φύ@@ 34
ϊ@@ 34
ѥ@@ 34
Ӑ 34
ӟ@@ 34
Զ@@ 34
Խ@@ 34
ղ 34
ات@@ 34
اه@@ 34
در@@ 34
ط 34
مي@@ 34
ول 34
وَ@@ 34
ా@@ 34
ಕ@@ 34
ಿ 34
ต@@ 34
ร 34
ད 34
ရ@@ 34
ἴ@@ 34
ὀ@@ 34
᾿ 34
⁺ 34
∑ 34
♔ 34
ゴ@@ 34
两@@ 34
共@@ 34
冶@@ 34
呼@@ 34
奉@@ 34
居@@ 34
应@@ 34
果@@ 34
汝@@ 34
流@@ 34
男 34
皇 34
第@@ 34
興@@ 34
莫@@ 34
莱@@ 34
陕@@ 34
魔@@ 34
강@@ 34
부@@ 34
산 34
선@@ 34
Barcel@@ 33
COVI@@ 33
Kig@@ 33
Londres 33
Sein 33
become 33
consist@@ 33
crit 33
etc. 33
gegen@@ 33
gün 33
imu 33
letzten 33
nda 33
partam@@ 33
played 33
poste 33
punkt 33
seit 33
siy@@ 33
started 33
tete 33
ılık 33
ına 33
ȧ 33
ɗ 33
Αλ@@ 33
Γι@@ 33
Επι@@ 33
ήσ@@ 33
αφ@@ 33
πε@@ 33
ρέ@@ 33
ρία 33
ς@@ 33
τε 33
όπουλ@@ 33
տ 33
ֲ@@ 33
ى@@ 33
ܪ@@ 33
ங 33
ೆ 33
ര@@ 33
ി@@ 33
พระ@@ 33
ล@@ 33
ག 33
አ@@ 33
ḏ@@ 33
ᾶ@@ 33
ま 33
ょ@@ 33
ソ@@ 33
ベ@@ 33
ョ@@ 33
专 33
今@@ 33
仙@@ 33
度@@ 33
廉@@ 33
总@@ 33
杓@@ 33
杨@@ 33
洱@@ 33
烏@@ 33
知@@ 33
程@@ 33
良 33
静@@ 33
구 33
성 33
원@@ 33
일@@ 33
Esta 32
Feb@@ 32
Hoa 32
Unidos 32
actual 32
aifa 32
ajes 32
aße 32
bajo 32
cinq 32
distrito 32
développ@@ 32
ezo 32
follow@@ 32
gestellt 32
haber 32
kent@@ 32
kte 32
kuz@@ 32
mayor 32
merc@@ 32
mujeres 32
propor@@ 32
prés@@ 32
respons@@ 32
several 32
verdi 32
çu 32
Ă 32
Ă@@ 32
ʿ 32
Αρχ@@ 32
Συν@@ 32
Φιλ@@ 32
άρχ@@ 32
βι@@ 32
ιδ@@ 32
μεν@@ 32
οκ@@ 32
ποι@@ 32
υγ@@ 32
дународ@@ 32
اب@@ 32
ام 32
ما@@ 32
ول@@ 32
وم 32
گ 32
ट 32
ந@@ 32
ி 32
ి 32
ಮ@@ 32
ವ@@ 32
ಾ@@ 32
ത@@ 32
ห@@ 32
མ 32
ზ 32
მ 32
Ṣ@@ 32
₆ 32
⩽ 32
ⲁ@@ 32
と 32
な 32
ゃ@@ 32
カ 32
ビ@@ 32
ヴ@@ 32
喜@@ 32
场 32
好@@ 32
崖@@ 32
扶@@ 32
楊@@ 32
毛@@ 32
民 32
滁@@ 32
珠@@ 32
礼@@ 32
祖@@ 32
經@@ 32
茂@@ 32
营@@ 32
袁@@ 32
開@@ 32
陸@@ 32
ꞌ@@ 32
가 32
민@@ 32
박@@ 32
오@@ 32
장 32
Lond@@ 31
ammen@@ 31
einige 31
espè@@ 31
fuer@@ 31
hunder@@ 31
ihm 31
inclus@@ 31
iş 31
kama 31
kij@@ 31
mehr@@ 31
meil@@ 31
música 31
nord 31
régi@@ 31
segunda 31
travail 31
zey 31
ác 31
Ą 31
į@@ 31
İl@@ 31
ţ 31
ǒ 31
ɢ@@ 31
ɹ@@ 31
˥ 31
Επ@@ 31
Κύ@@ 31
σχ@@ 31
τροπ@@ 31
τός 31
Ћ 31
ѡ 31
ո 31
ׁ 31
اء 31
خ 31
رة 31
مل@@ 31
من@@ 31
څ@@ 31
ܘ@@ 31
ग@@ 31
वा@@ 31
वि@@ 31
ह@@ 31
വ@@ 31
า 31
โ@@ 31
ྒ@@ 31
ု 31
ჿ 31
ḷ 31
ến 31
⇒ 31
∂ 31
め@@ 31
キ 31
タ 31
丁@@ 31
仲@@ 31
信 31
各@@ 31
后 31
学院 31
寧@@ 31
寶@@ 31
寺@@ 31
尚@@ 31
岭@@ 31
岳 31
庐@@ 31
教 31
晉@@ 31
曹@@ 31
朝 31
秋@@ 31
紫@@ 31
署@@ 31
股@@ 31
节@@ 31
萨@@ 31
萬@@ 31
西 31
资@@ 31
阳 31
音 31
馆 31
ꙗ@@ 31
마@@ 31
요 31
Minh 30
Unis 30
Zusammen@@ 30
aliza 30
canción 30
desde 30
drit@@ 30
ección 30
erten 30
geord@@ 30
hijo 30
kuu 30
köy 30
placed 30
reste 30
réalis@@ 30
schon 30
während 30
wür@@ 30
Ã 30
église 30
ôn 30
Ż 30
ʧ 30
ˤ 30
Απ@@ 30
Ορ@@ 30
Χρ@@ 30
ές 30
είου 30
ελλην@@ 30
ημα 30
ιο 30
ουσ@@ 30
σω@@ 30
τες 30
τζ@@ 30
τικός 30
τού@@ 30
υν@@ 30
ώσ@@ 30
ѵ 30
Թ@@ 30
Ն 30
װ@@ 30
الإ@@ 30
الد@@ 30
غ 30
فر@@ 30
يا 30
नि@@ 30
ം 30
ക@@ 30
ค@@ 30
วั@@ 30
อง@@ 30
ལ@@ 30
ἶ@@ 30
ὁ@@ 30
ℳ 30
∩ 30
❀ 30
え@@ 30
そ@@ 30
や@@ 30
別@@ 30
則@@ 30
北 30
堂@@ 30
大學 30
學 30
彝@@ 30
支@@ 30
滕@@ 30
独@@ 30
督@@ 30
空 30
胶@@ 30
范@@ 30
華 30
蘇@@ 30
親@@ 30
解@@ 30
趙@@ 30
遂@@ 30
郧@@ 30
酒 30
長 30
雄 30
鹃 30
남@@ 30
백@@ 30
연@@ 30
원 30
acces@@ 29
atta@@ 29
bierno 29
bà 29
dessen 29
elten 29
entre@@ 29
está 29
große 29
hilo 29
interpre@@ 29
jähr@@ 29
lerin 29
mej@@ 29
menos 29
mondi@@ 29
often 29
partie 29
À@@ 29
épo@@ 29
époque 29
üler 29
ıs@@ 29
œuvre 29
Ź@@ 29
ʤ 29
˧ 29
ΐ@@ 29
Ευ@@ 29
άζ@@ 29
ηθ@@ 29
θεια 29
ιμ@@ 29
ιχ@@ 29
μη@@ 29
μυ@@ 29
πέ@@ 29
τον@@ 29
όφ@@ 29
ώργ@@ 29
Њ 29
ђ 29
ӥ@@ 29
Ӱ@@ 29
ای@@ 29
در 29
ص 29
مة 29
ं 29
ति@@ 29
க 29
ನ@@ 29
บ@@ 29
လ@@ 29
⁵ 29
≫ 29
』 29
ど@@ 29
よ 29
ろ@@ 29
ツ 29
ツ@@ 29
ナ 29
ホ@@ 29
ワ@@ 29
个@@ 29
任@@ 29
余@@ 29
傳 29
发@@ 29
君 29
吳@@ 29
图@@ 29
嫩@@ 29
将@@ 29
师@@ 29
干@@ 29
得@@ 29
打@@ 29
技@@ 29
政 29
星 29
朔@@ 29
望@@ 29
校 29
死@@ 29
滨@@ 29
物 29
甲@@ 29
绍@@ 29
舟@@ 29
葉@@ 29
諸@@ 29
豫@@ 29
間@@ 29
颍@@ 29
구@@ 29
비@@ 29
일 29
전 29
진@@ 29
천@@ 29
Saison 28
arriv@@ 28
caract@@ 28
ierung 28
ngo@@ 28
oppos@@ 28
país 28
principal 28
propi@@ 28
quelle 28
trai 28
wann 28
ßer@@ 28
äuf@@ 28
çı 28
évol@@ 28
ública 28
Ţ@@ 28
ƛ 28
ȝ 28
ɫ@@ 28
˝ 28
̕ 28
Μουσ@@ 28
Στα@@ 28
Στρ@@ 28
Συ@@ 28
βά@@ 28
εξ@@ 28
εφ@@ 28
θμ@@ 28
κιν@@ 28
κτ@@ 28
μο@@ 28
νω@@ 28
που 28
σπ@@ 28
τή@@ 28
όδ@@ 28
начин 28
ѕ 28
ԥ@@ 28
ם@@ 28
اس@@ 28
الف@@ 28
له 28
نا@@ 28
रा@@ 28
री 28
ய 28
ற@@ 28
ತ@@ 28
ಸ@@ 28
ಾ 28
ิ 28
แ@@ 28
ᠠ 28
ḫ 28
♈ 28
ⲛ@@ 28
ⲟ@@ 28
『 28
も 28
南 28
吕@@ 28
命 28
尉 28
尼@@ 28
峡@@ 28
志@@ 28
敬@@ 28
桃@@ 28
桓@@ 28
森@@ 28
機 28
焦@@ 28
研究@@ 28
米@@ 28
级@@ 28
能@@ 28
航@@ 28
衢@@ 28
近@@ 28
雪@@ 28
電@@ 28
飛@@ 28
首@@ 28
ꞑ 28
보@@ 28
어 28
인 28
자@@ 28
해@@ 28
Après 27
Juni 27
Paşa 27
ayar@@ 27
beit@@ 27
coi 27
consid@@ 27
debut 27
deu@@ 27
dür@@ 27
einz@@ 27
emein@@ 27
fonc@@ 27
hata 27
ilim@@ 27
nje 27
ofu 27
osos 27
osto 27
oğ@@ 27
plusieurs 27
previ@@ 27
¤ 27
Õ 27
Ā 27
ını 27
ʐ 27
̭ 27
ήμ@@ 27
γι@@ 27
μένη 27
ολογ@@ 27
παν@@ 27
πόλε@@ 27
ρού@@ 27
συ@@ 27
σφ@@ 27
Җ 27
ּ 27
ات 27
اد 27
ال 27
الخ@@ 27
الدين 27
الص@@ 27
ده 27
لل@@ 27
ين@@ 27
ܡ@@ 27
ो 27
ো@@ 27
ழ@@ 27
ூ 27
യ@@ 27
ျ@@ 27
ṷ@@ 27
ἁ@@ 27
Ῥ@@ 27
⁶ 27
Ⅹ@@ 27
ぐ@@ 27
て 27
は 27
ポ@@ 27
办@@ 27
名 27
吾@@ 27
当@@ 27
摩@@ 27
曰@@ 27
校@@ 27
業@@ 27
楽@@ 27
正 27
洮@@ 27
淄@@ 27
由@@ 27
蘭 27
術@@ 27
鹰@@ 27
鹿@@ 27
ꜧ 27
라 27
선 27
성@@ 27
아 27
제@@ 27
지 27
 27
ﺮ@@ 27
Auch 26
St. 26
ailleurs 26
ancien 26
became 26
cional 26
connu 26
lte 26
medio 26
mois 26
msh@@ 26
muy 26
poder 26
toda 26
todos 26
various 26
weise 26
Â 26
âce 26
ıf@@ 26
ısı 26
ơ 26
ɦ 26
ʙ 26
ˁ 26
ήματα 26
ανδ@@ 26
από 26
γλ@@ 26
εδ@@ 26
καθ@@ 26
καρ@@ 26
ναι 26
νο@@ 26
νομ@@ 26
ουν@@ 26
πα@@ 26
παι@@ 26
ροι 26
του@@ 26
τρο@@ 26
ѳ 26
ѹ 26
Ӗ 26
ӥ 26
ԓ 26
Շ@@ 26
الي@@ 26
تر@@ 26
عبد 26
وم@@ 26
يد 26
कार 26
ना@@ 26
ष@@ 26
स@@ 26
আ@@ 26
ন 26
ం 26
ೂ 26
ೋ 26
ന 26
ธ@@ 26
นิ@@ 26
ะ@@ 26
ุ@@ 26
ཁ@@ 26
ခ@@ 26
ា@@ 26
ṉ@@ 26
ṷ 26
ẓ@@ 26
ỉ@@ 26
₩ 26
ⲙ@@ 26
を 26
ギ@@ 26
グ 26
ヒ@@ 26
モ@@ 26
リ 26
农@@ 26
后@@ 26
園 26
埠@@ 26
夜 26
孔@@ 26
店@@ 26
成 26
戸@@ 26
族 26
杭@@ 26
桥@@ 26
渡@@ 26
熊@@ 26
画@@ 26
紀@@ 26
舞@@ 26
茶@@ 26
落@@ 26
賀@@ 26
赵@@ 26
陰@@ 26
雍@@ 26
雲 26
順@@ 26
鸣@@ 26
鹤@@ 26
노@@ 26
여@@ 26
자 26
𝑦@@ 26
Oktober 25
Văn 25
began 25
biet 25
biri 25
compet@@ 25
created 25
eint 25
ellement 25
ellos 25
entw@@ 25
established 25
grün@@ 25
hombres 25
ierte 25
included 25
keine 25
municipio 25
nuevo 25
occu@@ 25
ografía 25
peut 25
produced 25
provincia 25
süd@@ 25
thị 25
worden 25
yük 25
ĝ 25
Ġ@@ 25
ġ 25
Ƣ 25
ǰ 25
ȝ@@ 25
Ελλάδ@@ 25
Ιωάν@@ 25
Σύ@@ 25
γιος 25
δος 25
δυ@@ 25
οδος 25
ρίας 25
τας 25
τολ@@ 25
τρο 25
ҟ@@ 25
ҹ@@ 25
՛ 25
թ 25
ء 25
به 25
زي 25
شر@@ 25
ض 25
مع@@ 25
می@@ 25
چ 25
ܬ@@ 25
या@@ 25
ि 25
গ@@ 25
ந 25
ெ@@ 25
ೀ 25
ೇ 25
ฑ@@ 25
დ 25
ῥ@@ 25
ῳ 25
┌ 25
ⲧ@@ 25
め 25
ゆ@@ 25
ザ@@ 25
乙@@ 25
列@@ 25
初@@ 25
勒 25
司 25
喀@@ 25
塘@@ 25
处@@ 25
夫@@ 25
季@@ 25
宋@@ 25
官 25
屋 25
屏@@ 25
底@@ 25
支 25
春 25
最@@ 25
歩 25
泸@@ 25
派 25
澧@@ 25
牡@@ 25
琼@@ 25
申@@ 25
电@@ 25
立 25
经@@ 25
術 25
街 25
衛 25
身@@ 25
連@@ 25
達@@ 25
邕@@ 25
鄭@@ 25
鉄@@ 25
驻@@ 25
魏 25
로@@ 25
만@@ 25
무@@ 25
상@@ 25
어@@ 25
영@@ 25
왕 25
유@@ 25
𝑖@@ 25
Unternehmen 24
ammen 24
aşa 24
communes 24
defe@@ 24
deven@@ 24
dieser 24
ebil@@ 24
frances@@ 24
halten 24
ileri 24
inspir@@ 24
joined 24
kuv@@ 24
lere 24
marri@@ 24
mpi@@ 24
muz 24
mış 24
otro 24
seinem 24
sız 24
topl@@ 24
waren 24
weit 24
wohl 24
Î 24
ìn 24
ít 24
ông 24
öne@@ 24
út@@ 24
Đông 24
ũ@@ 24
ǵ 24
ɫ 24
ɴ 24
̘ 24
Απο@@ 24
γράφ@@ 24
κι 24
λη@@ 24
λις 24
μάτων 24
νη@@ 24
οβ@@ 24
ρο 24
τά 24
φαν@@ 24
χει@@ 24
όβ@@ 24
ώς 24
Ѕ@@ 24
Њ@@ 24
вър@@ 24
името 24
манасти@@ 24
нася 24
тър@@ 24
ҕ 24
Ҷ@@ 24
ԓ@@ 24
Ա 24
Ւ@@ 24
Ք@@ 24
ְ 24
ַ 24
ائ@@ 24
الر@@ 24
ري 24
سر@@ 24
ظ 24
ظ@@ 24
ـ 24
هر 24
श@@ 24
ட 24
ೈ 24
ೊ 24
ೌ 24
ി 24
ณ@@ 24
ศ@@ 24
စ@@ 24
န 24
ွ@@ 24
ṇ 24
ế 24
Ⅰ 24
⊆ 24
ⲓ@@ 24
ⵎ@@ 24
お 24
で 24
ウ 24
ズ@@ 24
ロ 24
ヴ 24
体@@ 24
功@@ 24
古 24
圣@@ 24
姬@@ 24
康 24
影@@ 24
心 24
斗@@ 24
易@@ 24
業 24
津 24
火 24
玄 24
理 24
瑶@@ 24
真 24
羌@@ 24
羽@@ 24
翁@@ 24
茶 24
蓮@@ 24
語@@ 24
譜 24
進@@ 24
门 24
陀@@ 24
魚@@ 24
鳥@@ 24
당@@ 24
문@@ 24
스 24
왕@@ 24
해 24
ﬁ@@ 24
ﷺ 24
ﺍ@@ 24
adhi 23
bağ@@ 23
büt@@ 23
caso 23
cü 23
gibt 23
grub@@ 23
hari@@ 23
ieron 23
igten 23
join@@ 23
munici@@ 23
oría 23
partement 23
péri@@ 23
realiz@@ 23
vient 23
zurück 23
ço@@ 23
öß@@ 23
ương 23
ȁ 23
ȯ 23
ɢ 23
ʋ 23
ʝ@@ 23
ʤ@@ 23
͈ 23
͘ 23
Ί@@ 23
Βασιλ@@ 23
ήγ@@ 23
ίκης 23
αγγ@@ 23
αζ@@ 23
είς 23
εβ@@ 23
λί@@ 23
λα 23
μή@@ 23
μία 23
περι@@ 23
ραγ@@ 23
υνα@@ 23
υχ@@ 23
Љ 23
колко 23
малко 23
ък 23
џ 23
Ӷ 23
բ 23
ը@@ 23
ך@@ 23
المر@@ 23
دی@@ 23
عل@@ 23
مح@@ 23
ژ 23
ە@@ 23
ܠ@@ 23
ख@@ 23
ता@@ 23
दे@@ 23
ब 23
ப 23
ా 23
ಗ@@ 23
ದ@@ 23
ි@@ 23
จ@@ 23
สุ@@ 23
ည 23
ာ 23
წ 23
ት 23
ị 23
ῷ 23
Ⅱ 23
∇ 23
∧ 23
✿ 23
ⵉ@@ 23
ⵜ@@ 23
ご@@ 23
へ@@ 23
ネ@@ 23
仙 23
令 23
令@@ 23
伦@@ 23
伽@@ 23
動@@ 23
半@@ 23
台 23
吐@@ 23
園@@ 23
報 23
处 23
夢@@ 23
失@@ 23
守@@ 23
広@@ 23
店 23
応@@ 23
慶 23
慶@@ 23
房@@ 23
手 23
报 23
拳@@ 23
振@@ 23
智 23
李 23
機@@ 23
毕@@ 23
然@@ 23
版@@ 23
牟@@ 23
石 23
臣 23
菏@@ 23
藤 23
蚌@@ 23
豆@@ 23
貞@@ 23
車 23
陶@@ 23
齊@@ 23
랑@@ 23
시 23
양@@ 23
호 23
 23
ﺎ@@ 23
Estados 22
Hoàng 22
Janu@@ 22
Nguyễn 22
alipo@@ 22
alık 22
announced 22
culos 22
dont 22
découver@@ 22
especi@@ 22
establ@@ 22
fue 22
fut 22
huyện 22
incorpor@@ 22
liste 22
mejor 22
mita 22
nahme 22
président 22
remain@@ 22
selb@@ 22
steht 22
tiene 22
verschied@@ 22
wurde 22
öffent@@ 22
Ĳ 22
Ķ@@ 22
Ɨ 22
ˀ@@ 22
ˍ 22
Κυ@@ 22
Μεγάλ@@ 22
άμ@@ 22
έπ@@ 22
ηλ@@ 22
ηση 22
ιγ@@ 22
ιερ@@ 22
κρά@@ 22
ούς 22
σο@@ 22
τής 22
τικής 22
τών 22
преди 22
турата 22
ҵ@@ 22
ӡ@@ 22
է 22
ֿ@@ 22
الو@@ 22
بن@@ 22
ث 22
ث@@ 22
دي@@ 22
ذ 22
وي@@ 22
ِّ@@ 22
پ 22
मा@@ 22
ౌ 22
മ@@ 22
ข 22
ช@@ 22
ན@@ 22
ཕ@@ 22
အ@@ 22
္ 22
ḗ@@ 22
Ṭ@@ 22
⊗ 22
ⵏ 22
ボ@@ 22
ヤ@@ 22
五 22
井 22
什@@ 22
倭 22
健@@ 22
傣@@ 22
六 22
冀@@ 22
务@@ 22
匀@@ 22
區 22
協@@ 22
命@@ 22
园 22
堡 22
娄@@ 22
尾@@ 22
屋@@ 22
屯@@ 22
峰 22
式 22
意@@ 22
户@@ 22
所@@ 22
新 22
术@@ 22
树@@ 22
殿 22
比@@ 22
沅@@ 22
治 22
波 22
流 22
浪@@ 22
清 22
湾@@ 22
濮@@ 22
琅@@ 22
町@@ 22
画 22
盛@@ 22
禄@@ 22
穆@@ 22
至@@ 22
莆@@ 22
葛@@ 22
記@@ 22
詩@@ 22
越 22
足@@ 22
通 22
食@@ 22
鬼@@ 22
黒@@ 22
두@@ 22
바@@ 22
용@@ 22
！ 22
Anfang 21
Desde 21
acı 21
anah@@ 21
auti 21
casi 21
genannt 21
gesi 21
install@@ 21
konn@@ 21
lığı 21
opened 21
personn@@ 21
perten@@ 21
primer 21
schluss 21
sehr 21
selon 21
served 21
wango 21
wany@@ 21
xième 21
Ë@@ 21
äude 21
úc 21
Ě@@ 21
ğu 21
Ħ@@ 21
ıt 21
Ŋ@@ 21
Ś 21
ŝ@@ 21
ų@@ 21
ǃ@@ 21
ǯ@@ 21
Ʉ 21
ɳ 21
ɹ 21
ʀ@@ 21
Αθηνών 21
Ανα@@ 21
Ελλ@@ 21
Θεσσαλον@@ 21
Ρω@@ 21
άρι@@ 21
ίζ@@ 21
δί@@ 21
εργ@@ 21
θα 21
ιω@@ 21
ματ@@ 21
νόμ@@ 21
σμ@@ 21
στο 21
τους 21
χή 21
ωγ@@ 21
ϛ 21
собстве@@ 21
ѝ 21
ҷ 21
Ӯ 21
צ 21
بو@@ 21
دی 21
زي@@ 21
سر 21
سن@@ 21
لا 21
کو@@ 21
ې@@ 21
ध@@ 21
త 21
త@@ 21
ಿ@@ 21
ค 21
ภ@@ 21
ี 21
ཆ@@ 21
བ 21
ṯ 21
ἑ@@ 21
Ἑ@@ 21
Ὀ@@ 21
ὺ@@ 21
ῆ 21
ⁿ@@ 21
₀ 21
₮ 21
ℝ 21
∃ 21
ざ@@ 21
ふ@@ 21
エ 21
オ 21
チ 21
フ 21
伏@@ 21
使@@ 21
印@@ 21
友@@ 21
反@@ 21
团 21
团@@ 21
圓 21
坝@@ 21
坪@@ 21
基 21
墨@@ 21
奇@@ 21
委@@ 21
姚@@ 21
巢@@ 21
念@@ 21
怪@@ 21
格@@ 21
極@@ 21
樊@@ 21
狼@@ 21
玉 21
留@@ 21
盧@@ 21
禮 21
節@@ 21
篇 21
紅@@ 21
終@@ 21
群@@ 21
聖 21
艺@@ 21
英 21
菜 21
蜀@@ 21
邦@@ 21
钟@@ 21
际@@ 21
院@@ 21
非@@ 21
頭 21
香 21
나 21
내@@ 21
대 21
면 21
의@@ 21
최@@ 21
태@@ 21
한 21
️ 21
ﻮ@@ 21
Trung 20
acto 20
afu 20
annte 20
antigu@@ 20
atı 20
dernier 20
enton@@ 20
erst 20
französ@@ 20
fün@@ 20
hasa 20
huo 20
huri 20
ihn 20
ihrem 20
isini 20
khi 20
khi@@ 20
onya 20
pata 20
principales 20
selbst 20
septi@@ 20
sistema 20
spéci@@ 20
stamm@@ 20
telev@@ 20
toute 20
ungu 20
vement 20
yard@@ 20
Ï 20
äche 20
äß@@ 20
örd@@ 20
Ć 20
ıda 20
ŗ 20
ŝ 20
şu 20
Ɓ 20
Ɗ 20
ƞ@@ 20
˩ 20
̋ 20
̝ 20
Άν@@ 20
ένα 20
έρα 20
βί@@ 20
ηδ@@ 20
θρω@@ 20
ικών 20
ιών 20
λεύ@@ 20
μέν@@ 20
μένων 20
οικ@@ 20
οχ@@ 20
προσ@@ 20
ρον@@ 20
ρυ@@ 20
στά@@ 20
στι@@ 20
τικά 20
τικό 20
τρα@@ 20
χαρ@@ 20
ωνία 20
ωπ@@ 20
ύν@@ 20
вият 20
чните 20
ќ 20
Ѵ@@ 20
ѿ 20
Ӄ@@ 20
Ӓ 20
Ԓ 20
ժ@@ 20
ׂ@@ 20
على 20
كت@@ 20
ها 20
ܐ@@ 20
ं@@ 20
आ@@ 20
ल@@ 20
ॐ 20
হ@@ 20
ਾ@@ 20
ರ 20
ක@@ 20
ර@@ 20
ต 20
นา@@ 20
ป@@ 20
ཡ@@ 20
ྟ@@ 20
გ 20
ḻ 20
ṁ 20
ṅ 20
ṓ@@ 20
ế@@ 20
᾽ 20
◦ 20
ⵓ@@ 20
ⵔ@@ 20
あ 20
つ 20
ほ@@ 20
む@@ 20
ィ 20
为@@ 20
他@@ 20
伝@@ 20
儿 20
兆@@ 20
力 20
勝@@ 20
包@@ 20
固 20
型 20
室@@ 20
寨 20
巡@@ 20
忠 20
恋@@ 20
慕@@ 20
房 20
拓@@ 20
时@@ 20
時 20
曾@@ 20
期@@ 20
来 20
楼 20
楼@@ 20
楽 20
氣 20
浩@@ 20
渠@@ 20
潞@@ 20
澄@@ 20
爵 20
环@@ 20
球@@ 20
禾@@ 20
秋 20
第二@@ 20
縣@@ 20
经 20
羽 20
與@@ 20
苍@@ 20
蔡@@ 20
角 20
角@@ 20
豊@@ 20
贺@@ 20
起@@ 20
趙 20
際@@ 20
革@@ 20
군 20
다@@ 20
말 20
에@@ 20
호@@ 20
화 20
 20
Ces 19
Kongo 19
Teil@@ 19
adı 19
alik@@ 19
así 19
ayı 19
banda 19
bila 19
cargo 19
comer@@ 19
compte 19
cuar@@ 19
dispar@@ 19
duy@@ 19
ectos 19
erne@@ 19
eviz@@ 19
folg@@ 19
however 19
ihren 19
ispi@@ 19
kila 19
ligne 19
lors 19
mayo 19
miş 19
mtu 19
oblig@@ 19
oeste 19
préc@@ 19
présent@@ 19
quien 19
similar 19
série 19
weiter 19
¶ 19
Ï@@ 19
Ğ@@ 19
ĥ 19
Ĩ 19
ņ 19
ŵ@@ 19
Ÿ 19
Ź 19
ƒ@@ 19
ǁ@@ 19
ǟ@@ 19
ǧ@@ 19
ȍ@@ 19
ȟ@@ 19
ȣ@@ 19
ɤ 19
ʎ 19
ʦ@@ 19
ˑ@@ 19
Εν@@ 19
Υπ@@ 19
άν 19
έας 19
αία 19
ανα@@ 19
ασκ@@ 19
γέν@@ 19
διά 19
κω@@ 19
λει@@ 19
λυ@@ 19
στασ@@ 19
τιμ@@ 19
τις 19
όμεν@@ 19
όχ@@ 19
изче@@ 19
минава 19
пъл@@ 19
ѭ 19
҂ 19
Ӄ 19
Ӧ@@ 19
Ԯ 19
Ռ@@ 19
Փ@@ 19
գ 19
ء@@ 19
حي@@ 19
ری 19
سع@@ 19
سي 19
شا@@ 19
لم 19
لو@@ 19
مش@@ 19
ير@@ 19
يم 19
ڭ 19
का@@ 19
ड 19
ब@@ 19
চ@@ 19
প@@ 19
క 19
ీ 19
ొ 19
ಬ@@ 19
ട@@ 19
ว 19
สา@@ 19
ู 19
າ@@ 19
ཏ@@ 19
ီ@@ 19
ჟ@@ 19
უ 19
ჾ 19
᛫ 19
ḵ 19
ṋ@@ 19
ṙ@@ 19
ẋ@@ 19
ạ@@ 19
ỹ@@ 19
ἕ@@ 19
ἡ 19
‾ 19
Ⅰ@@ 19
⇔ 19
∨ 19
≅ 19
☃ 19
ⲉ@@ 19
ⲣ@@ 19
ⵜ 19
【 19
】 19
へ 19
れ 19
ケ@@ 19
ゲ@@ 19
マ 19
丘 19
丸 19
休@@ 19
体 19
你@@ 19
依@@ 19
傅@@ 19
入@@ 19
內@@ 19
典@@ 19
刀 19
剛@@ 19
勿@@ 19
叶@@ 19
周 19
團 19
坂@@ 19
夏 19
婦@@ 19
岐@@ 19
峰@@ 19
性@@ 19
条@@ 19
枝@@ 19
梨@@ 19
横@@ 19
母 19
用 19
的 19
祥@@ 19
第一@@ 19
維@@ 19
育@@ 19
芷@@ 19
蒙 19
融@@ 19
血@@ 19
計 19
记 19
速@@ 19
逸@@ 19
達 19
钱@@ 19
锡@@ 19
隊 19
韓 19
鼓@@ 19
니@@ 19
에 19
은 19
🇺 19
Burundi 18
Hindi 18
Namen 18
aları 18
anay@@ 18
condu@@ 18
descri@@ 18
durch@@ 18
dön@@ 18
espec@@ 18
göz@@ 18
hali 18
hatte 18
huu 18
intro@@ 18
kari@@ 18
kati 18
kır@@ 18
lider@@ 18
nueva 18
oldu 18
política 18
presidente 18
punto 18
río 18
tekn@@ 18
tragen 18
¯ 18
òng 18
último 18
đa 18
Ĕ 18
ği 18
Ũ 18
ƛ@@ 18
ư 18
ǃ 18
ǹ@@ 18
ɦ@@ 18
ʎ@@ 18
ˉ 18
˳ 18
̏ 18
̢ 18
Ξ 18
Οι 18
Παπ@@ 18
έρας 18
αντ@@ 18
αύ@@ 18
βλ@@ 18
δια@@ 18
θν@@ 18
θρ@@ 18
λεγ@@ 18
λύ@@ 18
ματος 18
μετα@@ 18
μια 18
μπο@@ 18
οξ@@ 18
προς 18
ραν@@ 18
ρη@@ 18
ρύ@@ 18
σε 18
στην 18
σύν@@ 18
τελ@@ 18
τω 18
ύγ@@ 18
Ћ@@ 18
кръ@@ 18
към 18
ѥ 18
Ѫ 18
Ӡ 18
المع@@ 18
اني 18
انی 18
او@@ 18
سم@@ 18
سی@@ 18
عة 18
علي 18
مد@@ 18
ند 18
ګ@@ 18
ड@@ 18
पा@@ 18
भ@@ 18
ु 18
জ@@ 18
ভ@@ 18
ண 18
த 18
ல 18
ை@@ 18
న@@ 18
స@@ 18
ూ 18
ే 18
ై 18
ో 18
ത 18
จ 18
ญ 18
ท 18
ยา@@ 18
รั@@ 18
รา@@ 18
ུ 18
၊ 18
ჲ 18
ስ@@ 18
ገ@@ 18
ᠶ@@ 18
ἢ 18
ὅ@@ 18
‪ 18
⇌ 18
≪ 18
✓ 18
こ 18
ユ@@ 18
乃@@ 18
义 18
凌@@ 18
功 18
呂@@ 18
回 18
団@@ 18
声 18
夷 18
守 18
客@@ 18
将 18
幽@@ 18
彭@@ 18
慈@@ 18
戰@@ 18
提@@ 18
柏@@ 18
步@@ 18
沔@@ 18
沟@@ 18
泾@@ 18
湖 18
湯@@ 18
爱@@ 18
父 18
爾@@ 18
皋@@ 18
章 18
翔@@ 18
考@@ 18
肃@@ 18
舒@@ 18
草 18
詩 18
象@@ 18
走@@ 18
邱@@ 18
鄞@@ 18
銃 18
鐵@@ 18
間 18
風 18
駒@@ 18
骨@@ 18
계@@ 18
드@@ 18
르@@ 18
삼@@ 18
중@@ 18
타@@ 18
𝕸 18
🔻 18
Beispi@@ 17
Japon 17
Quốc 17
beiden 17
dü 17
dün@@ 17
dır 17
dır@@ 17
ehemal@@ 17
embar@@ 17
empe@@ 17
enek@@ 17
enzi 17
fand 17
halb 17
iendo 17
ikuu 17
kı 17
llev@@ 17
moved 17
nte 17
partir 17
posición 17
premiers 17
projet 17
trấn 17
vur@@ 17
và 17
wali@@ 17
zun@@ 17
zös@@ 17
 17
Üniversitesi 17
áu 17
ält 17
ĉ 17
Ē 17
İz@@ 17
ĵ 17
Şark@@ 17
ʹ 17
ʽ@@ 17
̡ 17
Βι@@ 17
Κά@@ 17
Κορ@@ 17
Μπ@@ 17
Πέ@@ 17
Πρω@@ 17
ίδα 17
βασ@@ 17
δημ@@ 17
δικα@@ 17
εγ@@ 17
ειο 17
ελλ@@ 17
ημερ@@ 17
ιζ@@ 17
κι@@ 17
λά@@ 17
λευθερ@@ 17
μαν@@ 17
νέ@@ 17
ρακ@@ 17
στα 17
τού 17
τό 17
τύ@@ 17
φά@@ 17
φορ@@ 17
ωμα 17
όπ@@ 17
ални 17
нието 17
нията 17
обаче 17
Ұ 17
Ҳ 17
ԝ 17
ԯ 17
أبو 17
از 17
العربية 17
الغ@@ 17
دار 17
دة 17
عم@@ 17
مان 17
ند@@ 17
ني@@ 17
ڤ@@ 17
मन 17
रा 17
ल 17
सु@@ 17
ਰ@@ 17
ற 17
డ@@ 17
ప@@ 17
ె 17
౼ 17
ಹ@@ 17
ೃ 17
ා@@ 17
ด 17
ประ@@ 17
ราช@@ 17
ส 17
อย@@ 17
ื 17
ไทย 17
ཀ@@ 17
ྡ@@ 17
ေ 17
ှ@@ 17
ለ@@ 17
ḱ 17
ẓ 17
ọ@@ 17
ἅ@@ 17
ἱ 17
ὕ@@ 17
ὲ@@ 17
ῇ 17
※ 17
⁻ 17
ⲩ@@ 17
ⵢ@@ 17
ⵣ@@ 17
々@@ 17
さ 17
ず@@ 17
ば@@ 17
ヶ@@ 17
书 17
保 17
倉@@ 17
兴 17
冠@@ 17
前 17
华 17
协@@ 17
号@@ 17
呂 17
哲@@ 17
奴 17
奴@@ 17
孙@@ 17
宁 17
宏@@ 17
定 17
寒@@ 17
寛@@ 17
將 17
屈@@ 17
崎 17
崔@@ 17
幸@@ 17
微@@ 17
徳 17
恵@@ 17
惟@@ 17
戦 17
拔@@ 17
曰 17
會@@ 17
東 17
桑@@ 17
殷@@ 17
母@@ 17
濟 17
焉@@ 17
照@@ 17
瓯@@ 17
甲 17
短@@ 17
禮@@ 17
突@@ 17
端@@ 17
精@@ 17
紀 17
経 17
绿@@ 17
聞@@ 17
芝@@ 17
芦@@ 17
董@@ 17
观@@ 17
贝@@ 17
辖@@ 17
邓@@ 17
鎮@@ 17
鐘 17
难@@ 17
青 17
계 17
과 17
달@@ 17
물@@ 17
서 17
소 17
영 17
우 17
종@@ 17
치@@ 17
포@@ 17
현@@ 17
／ 17
𝑥@@ 17
Adem@@ 16
Bere@@ 16
Büyük 16
Durante 16
Hồ 16
afir@@ 16
ambazo 16
anlar 16
artí@@ 16
chaque 16
cual 16
doğ@@ 16
días 16
edrich 16
entwick@@ 16
gesam@@ 16
ihr@@ 16
junto 16
kez 16
kü 16
lassen 16
much@@ 16
mà 16
onnat 16
près 16
puesto 16
quy 16
quy@@ 16
quận 16
uzo 16
wrote 16
Þ 16
êm 16
óc 16
ôi 16
Ą@@ 16
Ě 16
İk@@ 16
ĵ@@ 16
ĺ@@ 16
Ň 16
Ǝ@@ 16
ɘ 16
ɚ 16
ɟ@@ 16
ʈ 16
ˆ@@ 16
̒ 16
͏ 16
Ελλάδας 16
Παλ@@ 16
άλλ@@ 16
έφ@@ 16
ήλ 16
ήλ@@ 16
ΰ@@ 16
αγγελ@@ 16
ακή 16
ατρ@@ 16
δία 16
δα 16
δρο@@ 16
δύνα@@ 16
θή@@ 16
μή 16
νύ@@ 16
ρά 16
στη 16
τή 16
ταγ@@ 16
ταλ@@ 16
τορ@@ 16
χν@@ 16
χω@@ 16
ално 16
години 16
група 16
няма 16
ѐ 16
Ѡ@@ 16
ӆ 16
Ӣ 16
Ս 16
ֻ@@ 16
כ 16
׳ 16
ابن 16
اج@@ 16
از@@ 16
اش@@ 16
الرا@@ 16
الط@@ 16
اله@@ 16
بح@@ 16
بل@@ 16
بي 16
تح@@ 16
دا@@ 16
را 16
زی@@ 16
فر 16
لی@@ 16
مج@@ 16
مه 16
مي 16
هم 16
ود 16
وی@@ 16
پی@@ 16
ܕ@@ 16
च 16
ज@@ 16
ध 16
रु@@ 16
ान 16
ং@@ 16
য@@ 16
ஞ@@ 16
ண@@ 16
ள@@ 16
చ@@ 16
య@@ 16
ల@@ 16
హ@@ 16
ಡ@@ 16
ಪ@@ 16
ಭ@@ 16
ු@@ 16
ช 16
วิ@@ 16
ะ 16
็ 16
ཚ@@ 16
တ 16
ူ@@ 16
Ⴀ@@ 16
Ⴍ@@ 16
ሰ@@ 16
ᠰ@@ 16
ᵸ 16
ḵ@@ 16
ṟ@@ 16
Ἄ@@ 16
Ἱ@@ 16
ᾳ 16
□ 16
⚫ 16
々 16
べ@@ 16
ゅ@@ 16
ジ 16
ピ@@ 16
ペ@@ 16
ヨ@@ 16
ㅇ 16
乾 16
儿@@ 16
内 16
冷@@ 16
剑@@ 16
即@@ 16
受@@ 16
号 16
合 16
味@@ 16
土 16
坊 16
塔 16
太 16
奥@@ 16
如 16
宕@@ 16
宿 16
實@@ 16
岛 16
弥@@ 16
律@@ 16
性 16
愛 16
我 16
战@@ 16
拜@@ 16
放@@ 16
敷@@ 16
末@@ 16
樂 16
気@@ 16
沁@@ 16
沢@@ 16
源 16
演@@ 16
潘@@ 16
瀬@@ 16
烈@@ 16
狄@@ 16
異@@ 16
盛 16
碧@@ 16
祥 16
秘@@ 16
符@@ 16
素@@ 16
维@@ 16
羊@@ 16
胡 16
舞 16
船@@ 16
色 16
蔵@@ 16
謂@@ 16
護@@ 16
诸@@ 16
貞 16
贡@@ 16
车@@ 16
迷@@ 16
造@@ 16
遠@@ 16
长 16
雨 16
韩@@ 16
额@@ 16
高 16
鱼@@ 16
鳳@@ 16
Ꜧ 16
간@@ 16
거@@ 16
게 16
는 16
모@@ 16
방@@ 16
법 16
야 16
예@@ 16
월@@ 16
정 16
창@@ 16
처@@ 16
청@@ 16
평@@ 16
𐌰@@ 16
𝑙 16
🇷 16
However 15
Jahrhunder@@ 15
alement 15
altı 15
announc@@ 15
asının 15
ausge@@ 15
celui 15
centro 15
deki 15
dieses 15
dirig@@ 15
dres 15
escri@@ 15
estudi@@ 15
founded 15
frü@@ 15
gewäh@@ 15
habitants 15
imani 15
importante 15
incor@@ 15
kiye 15
kuf@@ 15
mals 15
mismo 15
ofici@@ 15
pili 15
sao 15
seines 15
siglo 15
sión 15
spä@@ 15
sür@@ 15
tuy@@ 15
urch 15
yük@@ 15
Ô@@ 15
Û 15
Ý 15
òn 15
Œ 15
ŗ@@ 15
ǟ 15
ǧ 15
ȳ@@ 15
ʑ@@ 15
ʟ 15
Αγίου 15
Αθήνα 15
Αλεξ@@ 15
Αντι@@ 15
Αργ@@ 15
Ιστορία 15
άντα 15
ίκη 15
αρκ@@ 15
αϊκ@@ 15
δη 15
δοκ@@ 15
δό@@ 15
ειν@@ 15
εμ@@ 15
ιτ@@ 15
κατα@@ 15
λεύθερ@@ 15
λη 15
λλην@@ 15
μαρ@@ 15
μαχ@@ 15
μερ@@ 15
μόν@@ 15
νά@@ 15
οί@@ 15
οίκ@@ 15
ολόγ@@ 15
ουσα 15
ούλ@@ 15
πν@@ 15
ρατ@@ 15
ριστιαν@@ 15
στη@@ 15
ταν@@ 15
ϋ@@ 15
Џ 15
гръ@@ 15
Ӕ@@ 15
Ծ@@ 15
Մ 15
Ւ 15
ձ@@ 15
օ@@ 15
־ 15
است 15
اط@@ 15
اق@@ 15
اك@@ 15
بر 15
تا@@ 15
تب@@ 15
تو 15
خر 15
رب@@ 15
سو@@ 15
لة 15
مس@@ 15
مص@@ 15
مه@@ 15
وا 15
ورة 15
ړ@@ 15
का 15
ण@@ 15
ता 15
ते 15
वर 15
शि@@ 15
ै 15
শ@@ 15
அ@@ 15
ள 15
బ@@ 15
శ@@ 15
ಂ@@ 15
ഡ@@ 15
പ@@ 15
න@@ 15
ය@@ 15
ල 15
ල@@ 15
ก 15
ตา@@ 15
ฟ 15
ี@@ 15
ู@@ 15
ང@@ 15
ྐ@@ 15
ထ@@ 15
ပ 15
ር@@ 15
በ@@ 15
ብ@@ 15
ን@@ 15
ግ@@ 15
ទ@@ 15
ន@@ 15
ḏ 15
ṉ 15
Ẽ 15
Ἁ@@ 15
Ἡ@@ 15
ῳ@@ 15
₡ 15
♡ 15
⠀ 15
⩾ 15
ⲡ@@ 15
じ 15
コ 15
シ 15
ミ 15
世 15
中华@@ 15
亭 15
伝 15
佳@@ 15
兵 15
刀@@ 15
刺@@ 15
助 15
卢@@ 15
四 15
圖 15
夢 15
奈@@ 15
姑 15
姑@@ 15
委员会 15
婺@@ 15
孤@@ 15
宛@@ 15
宫@@ 15
寿 15
尉@@ 15
尚 15
岛@@ 15
岡@@ 15
峨@@ 15
延 15
復@@ 15
恒@@ 15
悪@@ 15
才 15
护@@ 15
掌@@ 15
斗 15
旧@@ 15
机@@ 15
松 15
栗@@ 15
桐@@ 15
桥 15
極 15
次 15
欲@@ 15
毗@@ 15
泗@@ 15
洞 15
洲 15
涟@@ 15
涼@@ 15
熙@@ 15
猫@@ 15
琊@@ 15
申 15
男@@ 15
町 15
番 15
目@@ 15
礼 15
祝@@ 15
祭 15
童@@ 15
節 15
精 15
臣@@ 15
芒@@ 15
芸@@ 15
荣@@ 15
蓋@@ 15
蓝@@ 15
裕@@ 15
説@@ 15
语 15
賞 15
身 15
车 15
进@@ 15
鄯@@ 15
重 15
關@@ 15
雅 15
雒@@ 15
雙 15
雨@@ 15
韋 15
頭@@ 15
魂 15
魯@@ 15
鳥 15
Ꞑ 15
개@@ 15
고 15
괴@@ 15
니 15
들 15
문 15
반@@ 15
방 15
오 15
을 15
진 15
트 15
🥇 15
Eyl@@ 14
Gür@@ 14
Hà 14
Ngo@@ 14
avait 14
career 14
continued 14
cuatro 14
difer@@ 14
emble 14
existe 14
haa 14
inici@@ 14
kazi 14
kuna 14
kush@@ 14
ların 14
lerini 14
lleg@@ 14
logr@@ 14
lük 14
ması 14
miş@@ 14
moins 14
municipal@@ 14
result@@ 14
sistem@@ 14
spor 14
söz@@ 14
tü 14
ucu 14
uncu 14
zili@@ 14
zweiten 14
âu 14
ünya 14
üsü 14
üğü 14
Ū 14
ŷ@@ 14
ǀ 14
ǁ 14
ʘ 14
ʱ 14
ˇ@@ 14
˗ 14
̟ 14
̾ 14
͔ 14
Γεω@@ 14
Μά@@ 14
Περι@@ 14
Πλ@@ 14
έσ@@ 14
ανά@@ 14
απο@@ 14
αρι@@ 14
δού@@ 14
δρόμ@@ 14
δύο 14
επι@@ 14
ιάς 14
κα 14
κατά@@ 14
κερ@@ 14
μέρ@@ 14
οκα@@ 14
ούν@@ 14
πυ@@ 14
ροφ@@ 14
σας 14
φυ@@ 14
φω@@ 14
ϊκ@@ 14
ότ@@ 14
ύ 14
ϕ 14
Ѓ 14
Бълга@@ 14
тогава 14
ъм 14
ѓ 14
҄ 14
Ҕ 14
Ҙ 14
Ҷ 14
ӏ 14
ԁ@@ 14
Ե 14
Ղ@@ 14
չ 14
أل@@ 14
الز@@ 14
بط@@ 14
تق@@ 14
ربي 14
رض@@ 14
روز 14
ری@@ 14
علی 14
مهورية 14
نه 14
نو@@ 14
ني 14
نی@@ 14
يل 14
٠@@ 14
پر@@ 14
کی 14
ܒ@@ 14
ܢ 14
ܬ 14
݂ 14
मा 14
ह 14
ম 14
ী 14
ী@@ 14
ఝ@@ 14
ద@@ 14
ಅ@@ 14
ಧ@@ 14
ಶ@@ 14
പ 14
ു 14
ณ 14
ผ@@ 14
พ 14
พิ@@ 14
มหา@@ 14
รร@@ 14
ล 14
ั 14
ิ@@ 14
ཐ@@ 14
ཤ@@ 14
ྗ@@ 14
ဏ 14
ဖ@@ 14
မ 14
Ⴄ@@ 14
Ⴣ@@ 14
መ@@ 14
ን 14
ᑎ 14
ᖅ 14
ត@@ 14
ᠨ 14
ᠨ@@ 14
ᴅ 14
ᴏ@@ 14
ḡ@@ 14
ố 14
ủ 14
ỳ@@ 14
ὔ@@ 14
④ 14
▪ 14
◇ 14
⠇ 14
ⲏ@@ 14
ⲕ@@ 14
ⲱ@@ 14
け 14
せ 14
ぬ@@ 14
び 14
ゃ 14
や 14
ろ 14
ケ 14
ゼ@@ 14
ッ 14
ブ 14
东 14
久 14
亚@@ 14
亜@@ 14
俟@@ 14
傈@@ 14
僳@@ 14
共和@@ 14
動 14
医@@ 14
十 14
卷 14
去@@ 14
叔@@ 14
含@@ 14
員@@ 14
喇@@ 14
噶@@ 14
园@@ 14
場@@ 14
外 14
娘 14
婆@@ 14
宝 14
崎@@ 14
庙 14
座@@ 14
廟 14
录 14
形 14
彦 14
律 14
慧@@ 14
戎@@ 14
持@@ 14
旗@@ 14
日本 14
易 14
期 14
樓 14
橋 14
池 14
泉 14
泰 14
洋 14
浙@@ 14
港 14
满@@ 14
漠@@ 14
漫@@ 14
澳@@ 14
父@@ 14
片@@ 14
瑪@@ 14
發@@ 14
矢@@ 14
福 14
竹 14
笑@@ 14
編 14
繁@@ 14
绛@@ 14
缅@@ 14
艦@@ 14
蒼@@ 14
藝@@ 14
議@@ 14
輔@@ 14
遼@@ 14
鄧@@ 14
関@@ 14
间@@ 14
随@@ 14
靈@@ 14
須@@ 14
飞@@ 14
首 14
鬼 14
魚 14
ꞩ 14
교@@ 14
그@@ 14
단@@ 14
두 14
루@@ 14
명@@ 14
비 14
상 14
수 14
약@@ 14
유 14
재@@ 14
현 14
ﻴ@@ 14
𝑝 14
Công 13
Mitgli@@ 13
Osmanlı 13
Sơn 13
Thành 13
Tây 13
Weltkri@@ 13
abei 13
britanni@@ 13
cambi@@ 13
cinco 13
cuando 13
có 13
dann 13
described 13
doit 13
durante 13
dül@@ 13
ennent 13
entras 13
esine 13
estado 13
großen 13
isième 13
juego 13
liegt 13
malar@@ 13
mang 13
muş 13
ocup@@ 13
ouest 13
pueb@@ 13
públ@@ 13
sprüng@@ 13
tatu 13
trabaj@@ 13
troisième 13
tür 13
Ð 13
ói 13
üre@@ 13
ăng 13
Đức 13
Ĕ@@ 13
ğr@@ 13
ıp 13
ıs 13
ıt@@ 13
Ń 13
Ń@@ 13
œuv@@ 13
Ǝ 13
Ɣ 13
Ɵ 13
ȁ@@ 13
ɩ 13
˙ 13
̤ 13
͂ 13
Αθη@@ 13
Για 13
Κατ@@ 13
Λι@@ 13
Λου@@ 13
άρι 13
άφ@@ 13
αχ@@ 13
βαρ@@ 13
βασιλ@@ 13
βιβλ@@ 13
δικ@@ 13
δύ@@ 13
ειρ@@ 13
εφαλ@@ 13
ζω@@ 13
θη 13
ικοί 13
ιν 13
ισμός 13
κατά 13
κου@@ 13
κόσ@@ 13
μέρα 13
μη 13
μισ@@ 13
μουσ@@ 13
ξη 13
ολογία 13
ονομ@@ 13
ουν 13
ποδ@@ 13
πτ@@ 13
ρική 13
ριν@@ 13
ριο 13
ρό@@ 13
ταρ@@ 13
ωρ@@ 13
Ѓ@@ 13
Џ@@ 13
връ@@ 13
дър@@ 13
умира 13
Ӆ 13
ӆ@@ 13
ӝ 13
ӵ 13
Բ 13
פ 13
؟ 13
أم@@ 13
اف@@ 13
او 13
ایران 13
باش@@ 13
بلا@@ 13
به@@ 13
تك@@ 13
ست 13
ستان 13
عي 13
فة 13
فت@@ 13
قر@@ 13
قل@@ 13
لح@@ 13
وط@@ 13
وق@@ 13
يم@@ 13
ٍ 13
ٱ@@ 13
ښ@@ 13
ۇ@@ 13
ङ 13
ठ 13
धर 13
लि@@ 13
वे@@ 13
सं@@ 13
ृ@@ 13
ও 13
খ@@ 13
দ 13
ো 13
ಘ@@ 13
ಠ 13
ಯ@@ 13
ദ 13
സ@@ 13
න 13
ප@@ 13
ธิ@@ 13
ริ@@ 13
รี@@ 13
หา@@ 13
ລ@@ 13
ະ@@ 13
པ 13
ཨ@@ 13
ཱ 13
န@@ 13
ဝ@@ 13
ር 13
ት@@ 13
ይ@@ 13
ᐃ@@ 13
ស 13
ោ@@ 13
ᡳ@@ 13
ᴅ@@ 13
ᵢ 13
ẹ@@ 13
ị@@ 13
ờ 13
₣ 13
⅜ 13
↵ 13
♪ 13
ⲥ@@ 13
ⴻ@@ 13
だ 13
ォ@@ 13
丹 13
乎@@ 13
享@@ 13
亳@@ 13
份@@ 13
伯 13
僧@@ 13
儀 13
儒@@ 13
優@@ 13
八 13
再@@ 13
分 13
刊 13
动@@ 13
務@@ 13
勝 13
化 13
吾 13
唐 13
图 13
圖@@ 13
域 13
堡@@ 13
報@@ 13
复@@ 13
央@@ 13
容 13
尹@@ 13
尾 13
居 13
展@@ 13
広 13
彰@@ 13
恭@@ 13
息@@ 13
意 13
懷@@ 13
授 13
控@@ 13
救@@ 13
敦@@ 13
昆 13
昭 13
曲 13
条 13
根@@ 13
棠@@ 13
楚 13
樓@@ 13
殺@@ 13
永 13
洛 13
灣 13
狐@@ 13
玛@@ 13
矣 13
离@@ 13
秀 13
科 13
管 13
籌 13
納@@ 13
索@@ 13
统@@ 13
耳 13
耶@@ 13
莒@@ 13
葉 13
藥@@ 13
衡 13
要 13
見 13
護 13
诗@@ 13
语@@ 13
豆 13
貴 13
起 13
超@@ 13
辉@@ 13
辰@@ 13
迦@@ 13
遊@@ 13
鐸 13
離@@ 13
雪 13
露@@ 13
魂@@ 13
鶴@@ 13
黄 13
龙 13
강 13
레@@ 13
북@@ 13
승@@ 13
신 13
운 13
토@@ 13
ﺳ@@ 13
ﻳ@@ 13
？ 13
Bắc 12
Chuo 12
Februar 12
Ort 12
Trần 12
afin 12
amerikan@@ 12
anyika 12
aît 12
böl@@ 12
cerca 12
commen@@ 12
descu@@ 12
diese 12
donc 12
ehir 12
giai 12
gouvern@@ 12
hace 12
located 12
lý 12
lığ@@ 12
mito 12
mondiale 12
pequ@@ 12
pequeñ@@ 12
primera 12
saison 12
schri@@ 12
stieg 12
titre 12
yaş@@ 12
yı 12
Ò@@ 12
ày 12
éx@@ 12
üç 12
üğ@@ 12
Đại 12
Ģ 12
Ī 12
ının 12
Ļ@@ 12
Ɔ@@ 12
ƣ@@ 12
ưa 12
ȷ 12
ɳ@@ 12
ɻ 12
˃ 12
Βασ@@ 12
Ελ@@ 12
Ερ@@ 12
Λε@@ 12
Με 12
Μια 12
άβ@@ 12
άρκ@@ 12
έργ@@ 12
ήσεις 12
ίγ@@ 12
αιν@@ 12
αξ@@ 12
αξι@@ 12
αυτ@@ 12
βο@@ 12
γραμ@@ 12
δευ@@ 12
εχ@@ 12
εων 12
ητής 12
θω@@ 12
κολ@@ 12
κρατ@@ 12
μένο 12
μας 12
μεσ@@ 12
νας 12
ντ@@ 12
πιστ@@ 12
πλο@@ 12
πρω@@ 12
πρόσ@@ 12
ρι 12
τοκ@@ 12
τρα 12
υπο@@ 12
φυσ@@ 12
ωσης 12
όρος 12
ότητα 12
имат 12
ително 12
Ѧ@@ 12
ѩ 12
ѿ@@ 12
҆ 12
Ի 12
Ք 12
ծ 12
ճ@@ 12
և 12
ױ@@ 12
آل 12
آن 12
اح@@ 12
اس 12
السع@@ 12
اِ@@ 12
باب 12
بد@@ 12
برا@@ 12
بع@@ 12
تو@@ 12
حسن 12
خت@@ 12
رب 12
سية 12
شه@@ 12
شي@@ 12
شی@@ 12
صر 12
عب@@ 12
عش@@ 12
قو@@ 12
لي 12
مذ@@ 12
وب@@ 12
پاکستان 12
कर 12
कु@@ 12
तु@@ 12
थ 12
धा@@ 12
पु@@ 12
फ 12
महा@@ 12
यु@@ 12
रह 12
रि@@ 12
े@@ 12
ল 12
ூ@@ 12
ே@@ 12
ట@@ 12
ఢ@@ 12
భ@@ 12
ಢ@@ 12
ಥ@@ 12
ಫ@@ 12
ಮ 12
ಷ@@ 12
ക 12
ഠ@@ 12
ല 12
ോ@@ 12
ซ 12
นี 12
มา@@ 12
อา@@ 12
เด@@ 12
เอ@@ 12
ກ@@ 12
ບ@@ 12
က 12
င@@ 12
ဘ@@ 12
ျ 12
ჰ@@ 12
ል@@ 12
ማ@@ 12
ም 12
ደ@@ 12
ត 12
ម@@ 12
ᴢ 12
ṁ@@ 12
ạc 12
ền 12
ỹ 12
ἵ@@ 12
‟ 12
₅ 12
⊂ 12
① 12
┤ 12
☮ 12
ⲃ@@ 12
ね 12
ネ 12
プ 12
メ 12
介 12
仏@@ 12
伊 12
位 12
俱@@ 12
倭@@ 12
制@@ 12
升@@ 12
卿 12
厂 12
历@@ 12
句@@ 12
告@@ 12
図 12
场@@ 12
垦@@ 12
城市 12
塞@@ 12
增@@ 12
声@@ 12
壽@@ 12
多 12
姫 12
孜@@ 12
完@@ 12
实@@ 12
室 12
宫 12
寧 12
对@@ 12
导@@ 12
尺@@ 12
岗@@ 12
岷@@ 12
巨@@ 12
希@@ 12
庵@@ 12
庸@@ 12
廊@@ 12
弁 12
张 12
想@@ 12
扎@@ 12
投@@ 12
数@@ 12
早@@ 12
景 12
暗@@ 12
曼@@ 12
朗 12
格 12
梅 12
森 12
樹@@ 12
欧@@ 12
此@@ 12
死 12
沣@@ 12
洞@@ 12
淡@@ 12
淳@@ 12
湾 12
漢 12
热@@ 12
煌@@ 12
犬 12
犬@@ 12
猛@@ 12
现@@ 12
甸@@ 12
畫@@ 12
疏@@ 12
発@@ 12
直 12
眼@@ 12
筆 12
策 12
简@@ 12
纪@@ 12
翼 12
臨@@ 12
蓬@@ 12
蕲@@ 12
藝 12
虎 12
虞@@ 12
衣@@ 12
褒@@ 12
觀@@ 12
說@@ 12
農@@ 12
达 12
邪@@ 12
陣@@ 12
隆 12
霍@@ 12
霸@@ 12
騎@@ 12
马 12
麟@@ 12
麻 12
齊 12
ꙑ@@ 12
남 12
단 12
등@@ 12
래 12
루 12
무 12
부 12
분@@ 12
식 12
실@@ 12
와 12
파@@ 12
학 12
황@@ 12
희 12
ﬂ@@ 12
𝑘@@ 12
Cette 11
Genel 11
Januar 11
Maji 11
Nha 11
Tân 11
amı 11
annt 11
aría 11
aussi 11
ayant 11
besondere 11
constru@@ 11
crí@@ 11
dentro 11
deuxième 11
donde 11
düş@@ 11
elerin 11
ellik@@ 11
febr@@ 11
fünf 11
gön@@ 11
ió 11
mäß@@ 11
norte 11
ouvent 11
personas 11
représent@@ 11
rôle 11
secu@@ 11
sondern 11
tement 11
todas 11
uwe@@ 11
veces 11
về 11
wäh@@ 11
Ì@@ 11
Ð@@ 11
Ù 11
ánh 11
ăn 11
ċ 11
Į 11
ıcı 11
Ť@@ 11
Ơ 11
Ư 11
ǂ@@ 11
ǭ@@ 11
ȳ 11
ɖ 11
ɭ 11
ɽ 11
ʏ@@ 11
˘ 11
˜ 11
˨ 11
͆ 11
Ένω@@ 11
Αθή@@ 11
Αφ@@ 11
Κου@@ 11
άλασ@@ 11
έμ@@ 11
έξ@@ 11
έως 11
ήθ@@ 11
ίες 11
ίλι@@ 11
αίν@@ 11
αϊ@@ 11
βρα@@ 11
γε@@ 11
δεν 11
δυν@@ 11
ειδ@@ 11
ηρε@@ 11
θάνα@@ 11
ιώ@@ 11
κορ@@ 11
κυρι@@ 11
μένα 11
μεγάλ@@ 11
νι@@ 11
ούλιο 11
ούσ@@ 11
πολη 11
ρίου 11
ραβ@@ 11
ρκ@@ 11
σαν 11
σεις 11
σιο 11
σμα 11
στα@@ 11
στον 11
τελε@@ 11
όμα 11
ώδ@@ 11
ώρ@@ 11
годиш@@ 11
откри@@ 11
резул@@ 11
ският 11
Ѿ 11
Ҍ 11
Ҡ 11
ҭ 11
ҵ 11
Ӈ@@ 11
Ӊ 11
Ӵ 11
Դ 11
Է@@ 11
Օ@@ 11
Ֆ 11
ճ 11
إل@@ 11
اء@@ 11
است@@ 11
اص@@ 11
اض@@ 11
اعة 11
اي@@ 11
بار@@ 11
بی@@ 11
تش@@ 11
ته@@ 11
جی@@ 11
خان 11
خان@@ 11
خو@@ 11
دا 11
دار@@ 11
دان 11
سان 11
سين 11
عبد@@ 11
علم 11
فا@@ 11
كة 11
لق@@ 11
مان@@ 11
نی 11
وكان 11
يخ 11
ژ@@ 11
ڠ@@ 11
کر@@ 11
ܘ 11
ܝ 11
च@@ 11
ने@@ 11
बा@@ 11
मु@@ 11
ला@@ 11
सत 11
ত 11
ા@@ 11
ஒ@@ 11
ே 11
ொ@@ 11
ఫ@@ 11
వ@@ 11
ష@@ 11
ు@@ 11
ಕ 11
ಖ@@ 11
ಲ 11
ച 11
ല@@ 11
ള@@ 11
ව@@ 11
ා 11
ติ@@ 11
ปา@@ 11
ศ 11
เข@@ 11
เพ@@ 11
เส@@ 11
ັ@@ 11
ົ@@ 11
ཁ 11
ཞ@@ 11
ဆ@@ 11
ဒ@@ 11
ီ 11
ም@@ 11
ስ 11
ዳ@@ 11
វ@@ 11
ុ@@ 11
ḇ@@ 11
ḳ 11
ḻ@@ 11
ṙ 11
ẖ@@ 11
ạ 11
ảo 11
ấ@@ 11
Ὑ@@ 11
ὶ@@ 11
ᾰ@@ 11
ᾶ 11
₈ 11
℅ 11
⅕ 11
∫ 11
⌀ 11
⌊ 11
⌋ 11
② 11
ⱪ 11
ⱬ 11
Ɑ 11
ⲓ 11
ⵍ@@ 11
ⵏ@@ 11
ね@@ 11
べ 11
ダ 11
バ 11
ャ 11
ㄱ 11
与@@ 11
中国 11
丰 11
丸@@ 11
乘@@ 11
九 11
也@@ 11
亀 11
了@@ 11
亞@@ 11
亮@@ 11
仏 11
仓@@ 11
们@@ 11
你 11
侍@@ 11
俊@@ 11
候@@ 11
儀@@ 11
兼@@ 11
冬@@ 11
博 11
卜@@ 11
占@@ 11
参@@ 11
只@@ 11
启@@ 11
员 11
品@@ 11
問@@ 11
善 11
団 11
围@@ 11
團@@ 11
墨 11
头 11
奖 11
妙@@ 11
姜@@ 11
姬 11
孝 11
実@@ 11
射@@ 11
小 11
屯 11
已@@ 11
巻 11
常 11
幹 11
库@@ 11
度 11
廉 11
弁@@ 11
彌@@ 11
形@@ 11
彼@@ 11
徒@@ 11
必@@ 11
忍@@ 11
恩 11
情 11
憲@@ 11
技 11
攸@@ 11
政府 11
散@@ 11
斯 11
旅@@ 11
旭@@ 11
是 11
晉 11
晴@@ 11
暦@@ 11
曜@@ 11
服@@ 11
析@@ 11
梁 11
樹 11
止@@ 11
歸@@ 11
汤@@ 11
汧@@ 11
沃@@ 11
沢 11
浔@@ 11
润@@ 11
游@@ 11
濟@@ 11
濠@@ 11
熙 11
獣@@ 11
珍 11
珍@@ 11
班@@ 11
疆 11
白 11
目 11
相 11
睦@@ 11
破@@ 11
祿 11
站 11
符 11
筑@@ 11
米 11
総@@ 11
罕@@ 11
翟@@ 11
耀@@ 11
興 11
船 11
艦 11
苑 11
苦@@ 11
荒@@ 11
莲@@ 11
菜@@ 11
萧@@ 11
蔵 11
薛@@ 11
號 11
蜘@@ 11
衣 11
裴@@ 11
計@@ 11
論@@ 11
调@@ 11
貴@@ 11
賢 11
轄@@ 11
辰 11
迪@@ 11
運@@ 11
遠 11
邺@@ 11
錄 11
陰 11
靜@@ 11
面 11
鞍@@ 11
韋@@ 11
順 11
骨 11
鹿 11
麗@@ 11
Ꙗ 11
ꞑ@@ 11
관@@ 11
군@@ 11
길 11
너 11
드 11
랑 11
목@@ 11
미 11
보 11
용 11
울@@ 11
위@@ 11
음@@ 11
임 11
임@@ 11
조 11
좋@@ 11
천 11
프@@ 11
홍@@ 11
＝ 11
🔹 11
Bình 10
Gebiet 10
Hải 10
Personen 10
Ulus@@ 10
Vương 10
acción 10
acional 10
anın 10
caracter@@ 10
của 10
dedor 10
deter@@ 10
endet 10
gehört 10
groupe 10
hacer 10
hili 10
können 10
lise 10
mev@@ 10
millones 10
muş@@ 10
nuev@@ 10
octubre 10
onóm@@ 10
otras 10
prend 10
quay 10
risto 10
sinh 10
spé@@ 10
tarde 10
tlich 10
trabajo 10
ulus@@ 10
unun 10
weng@@ 10
yali@@ 10
èrement 10
óa 10
ùng 10
Ĉ 10
Ď@@ 10
Ę@@ 10
Ħ 10
ıc@@ 10
ĸ 10
ĺ 10
Ļ 10
Ņ 10
Ň@@ 10
Ŏ 10
Ő@@ 10
şir@@ 10
Ŭ 10
Ų 10
Ɖ 10
Ǻ 10
ȗ 10
ȟ 10
ȫ 10
ɚ@@ 10
ɷ 10
ʋ@@ 10
ʐ@@ 10
ʦ 10
ˊ 10
̚ 10
Ανατολ@@ 10
Ελλάδα 10
Ιστο@@ 10
Κοιν@@ 10
Κωνσταντ@@ 10
Μέ@@ 10
Μα@@ 10
Ομ@@ 10
άδα 10
άρα 10
έδ@@ 10
ίνα 10
αγωγ@@ 10
απε@@ 10
γλώσσα 10
ειας 10
επίσ@@ 10
ηλε@@ 10
θήκη 10
θε 10
θυν@@ 10
ισχ@@ 10
κε@@ 10
κρι@@ 10
μέσ@@ 10
νησ@@ 10
ογραφ@@ 10
πει@@ 10
ρου@@ 10
σημ@@ 10
σκευ@@ 10
σμός 10
σον 10
τηγ@@ 10
τια 10
τραγ@@ 10
όμε@@ 10
όπο@@ 10
όρι@@ 10
ϑ 10
ϑ@@ 10
Ϛ 10
ѩ@@ 10
ѻ 10
Ҙ@@ 10
ҹ 10
ҽ@@ 10
Ӟ@@ 10
Ӭ 10
ӭ 10
Չ@@ 10
Ջ@@ 10
Օ 10
ռ 10
ָ 10
ֹ 10
ؤ@@ 10
المملكة 10
بار 10
بی 10
حد@@ 10
رين 10
زار 10
سن 10
شت 10
عمر 10
لان 10
لی 10
نج@@ 10
نگ@@ 10
وأ@@ 10
وادي 10
وت@@ 10
وج@@ 10
وز@@ 10
وس@@ 10
وف@@ 10
پار@@ 10
ږ 10
ە 10
ܥ@@ 10
ܦ@@ 10
ܩ@@ 10
तो 10
थ@@ 10
दि@@ 10
मे@@ 10
या 10
राष 10
ा 10
ी 10
অ@@ 10
ঘ 10
ਵ@@ 10
ਸ 10
ਾ 10
ਿ@@ 10
ੀ 10
ீ 10
ோ 10
ோ@@ 10
ఒ@@ 10
గ 10
జ@@ 10
ද@@ 10
ස@@ 10
හ@@ 10
คา@@ 10
ญ@@ 10
ลา@@ 10
สิ@@ 10
อก@@ 10
อง 10
อำเ@@ 10
เท@@ 10
เร@@ 10
ນ@@ 10
ວ@@ 10
ສ@@ 10
ါ@@ 10
ံ@@ 10
Ⴈ 10
კ 10
ქ 10
ያ@@ 10
ድ@@ 10
ፍ@@ 10
ᐊ@@ 10
ស@@ 10
ិ 10
ᠣ@@ 10
ᠪ@@ 10
ᠮ@@ 10
ḡ 10
Ḳ@@ 10
ảng 10
ồng 10
ụ 10
ục 10
ἤ@@ 10
Ὄ@@ 10
‧ 10
₨ 10
₰ 10
Ⅹ 10
∝ 10
⑤ 10
┐ 10
△ 10
◆ 10
⠅ 10
げ@@ 10
そ 10
づ@@ 10
ば 10
ァ 10
ェ 10
テ 10
ビ 10
レ 10
ワ 10
丁 10
万 10
且@@ 10
个 10
乐 10
亨 10
位@@ 10
佐 10
何 10
作 10
倉 10
假@@ 10
偽@@ 10
傳@@ 10
像 10
允@@ 10
克 10
兖@@ 10
党 10
內 10
关 10
写@@ 10
冯@@ 10
刑@@ 10
剛 10
剣@@ 10
劇@@ 10
劍 10
勃@@ 10
千 10
卓@@ 10
厦 10
同 10
商 10
図@@ 10
塚 10
夕@@ 10
奇 10
契@@ 10
委 10
威 10
季 10
寶 10
対@@ 10
封 10
峄@@ 10
巴 10
师 10
庭 10
庭@@ 10
弘 10
彦@@ 10
影 10
徒 10
從@@ 10
快@@ 10
才@@ 10
招@@ 10
敏 10
數@@ 10
斎 10
昏@@ 10
映@@ 10
朗@@ 10
望 10
朴@@ 10
柱 10
柳 10
栖@@ 10
権@@ 10
步 10
歳@@ 10
毘@@ 10
气 10
汀@@ 10
汶@@ 10
沟 10
没@@ 10
洪 10
活@@ 10
澂@@ 10
澤@@ 10
点@@ 10
然 10
牧@@ 10
狂@@ 10
珠 10
瓦 10
皖@@ 10
盖@@ 10
眞@@ 10
知 10
磨@@ 10
示 10
祿@@ 10
积@@ 10
稲@@ 10
竜 10
笼@@ 10
粟@@ 10
紙 10
結@@ 10
統@@ 10
絵 10
署 10
群 10
耆@@ 10
肉@@ 10
肤@@ 10
肥@@ 10
能 10
舜@@ 10
舟 10
节 10
荊@@ 10
莎@@ 10
菅@@ 10
萌@@ 10
葛 10
螳@@ 10
補@@ 10
解 10
訓 10
許@@ 10
說 10
词 10
賀 10
贤@@ 10
輪@@ 10
辣@@ 10
連 10
選 10
遺@@ 10
那 10
邹@@ 10
醴@@ 10
量@@ 10
鈴@@ 10
陀 10
離 10
難@@ 10
霊@@ 10
面@@ 10
韦@@ 10
风 10
餅 10
體@@ 10
鮮@@ 10
鴻@@ 10
黒 10
齐 10
Ꙗ@@ 10
금@@ 10
너@@ 10
덕@@ 10
립@@ 10
마 10
만 10
말@@ 10
배@@ 10
뱅@@ 10
버@@ 10
본@@ 10
생@@ 10
알@@ 10
양 10
월 10
육@@ 10
짓@@ 10
피@@ 10
흥@@ 10
𐌻@@ 10
𐌽@@ 10
𐌿@@ 10
𐎠@@ 10
𝑝@@ 10
🥉 10
Ayn@@ 9
Doğu 9
Irel@@ 9
Karriere 9
Kilometer 9
Nội 9
Quân 9
Sau 9
Thái 9
Titel 9
akini 9
awala 9
bán 9
compañ@@ 9
después 9
dort 9
dài 9
département 9
dòng 9
esini 9
finale 9
ierten 9
inay@@ 9
jina 9
khai 9
kiş@@ 9
lugar 9
maları 9
married 9
membre 9
migu@@ 9
momento 9
mög@@ 9
müzik 9
müş@@ 9
ngày 9
oloj@@ 9
ommen 9
orta@@ 9
phong 9
polí@@ 9
segundo 9
söy@@ 9
tiem@@ 9
tigt 9
trouve 9
varios 9
veröffentlich@@ 9
wana@@ 9
yıl@@ 9
 9
 9
 9
áp 9
ãi 9
ían 9
ünden 9
ċ@@ 9
Ď 9
Đi@@ 9
ından 9
ĳ 9
ķ 9
Şampiyon@@ 9
şehir 9
Ţ 9
Ɲ 9
ước 9
ƴ 9
ǥ 9
ǥ@@ 9
Ǵ 9
Ʌ 9
ɉ 9
ɰ@@ 9
ʉ@@ 9
ʏ 9
̷ 9
̸ 9
̽ 9
Από 9
Βουλ@@ 9
Εθνική 9
Κο@@ 9
Πο@@ 9
Σερ@@ 9
Τζ@@ 9
άμε@@ 9
άχ@@ 9
έβ@@ 9
αμπ@@ 9
ανδρ@@ 9
αντι@@ 9
βαν@@ 9
δέ@@ 9
δελφ@@ 9
διδ@@ 9
εί 9
θυ@@ 9
κίν@@ 9
καλλ@@ 9
κη 9
κρί@@ 9
κόμ@@ 9
μέρος 9
μακ@@ 9
μελ@@ 9
μικρ@@ 9
μονα@@ 9
μορφ@@ 9
ξε@@ 9
ορι@@ 9
ουσι@@ 9
παί@@ 9
περί@@ 9
στις 9
συμ@@ 9
συμβ@@ 9
τεχν@@ 9
τιν@@ 9
τρί@@ 9
τυχ@@ 9
φρά@@ 9
χεί@@ 9
χορ@@ 9
ϊ 9
ύτερ@@ 9
ώματα 9
Ќ 9
ството 9
щата 9
Ѡ 9
Ҝ 9
Ҹ 9
ӟ 9
ӫ 9
Ӽ 9
Ԝ 9
Հ 9
Ր 9
զ 9
آباد 9
أر@@ 9
أن@@ 9
ائل 9
اب 9
الأم@@ 9
المح@@ 9
انية 9
تف@@ 9
تي@@ 9
تُ@@ 9
تی 9
تی@@ 9
جام@@ 9
جي@@ 9
دم 9
ران 9
رت 9
رية 9
رير 9
زا 9
سل@@ 9
سنة 9
سی 9
سید 9
شو@@ 9
فاق 9
فو@@ 9
كل 9
كل@@ 9
لم@@ 9
لية 9
ماء 9
مس 9
مصر 9
مق@@ 9
نة 9
يو@@ 9
٭ 9
څ 9
گا@@ 9
گی 9
یار 9
یو 9
ܢ@@ 9
अ 9
उप@@ 9
के 9
ख 9
गु@@ 9
चा@@ 9
जा@@ 9
दु@@ 9
देव 9
ना 9
नि 9
नी 9
भ 9
मि@@ 9
मी 9
ये@@ 9
यो@@ 9
ली 9
विध@@ 9
सन 9
हि@@ 9
हे@@ 9
ক 9
ਡ@@ 9
ਸ@@ 9
਼ 9
ெ 9
ொ 9
ௌ 9
డ 9
ಜ 9
ಡ 9
ದ 9
ನ 9
ಯ 9
ಲ@@ 9
ು@@ 9
ഗ 9
ര 9
ක 9
ซ@@ 9
นาง 9
บา@@ 9
บุ@@ 9
ป 9
ษ 9
ห 9
อ 9
ัย 9
เทศ@@ 9
ດ@@ 9
້ 9
ཟ@@ 9
ྱ 9
ླ@@ 9
ည@@ 9
Ⴑ@@ 9
ჲ@@ 9
ራ 9
ራ@@ 9
ባ@@ 9
እ@@ 9
ዘ@@ 9
የ@@ 9
ድ 9
ន 9
ិ@@ 9
ᠵ@@ 9
ᡩ@@ 9
ᵊ@@ 9
ẁ 9
ạm 9
ạn 9
ạng 9
Ẹ 9
ều 9
ọc 9
ống 9
ỗ 9
Ἔ@@ 9
Ὁ 9
₪ 9
₲ 9
↗ 9
③ 9
◄ 9
⚠ 9
✔ 9
ⱨ 9
ⲛ 9
ひ 9
ゆ 9
ゥ@@ 9
ザ 9
七 9
业 9
中國 9
乃 9
事件 9
云 9
亡@@ 9
亦@@ 9
亨@@ 9
介@@ 9
仪@@ 9
仲 9
住@@ 9
佤@@ 9
佧@@ 9
來 9
便@@ 9
俄@@ 9
俊 9
偶@@ 9
僕@@ 9
先 9
兒 9
兩@@ 9
出 9
刊@@ 9
刚 9
制 9
創@@ 9
加 9
助@@ 9
勾@@ 9
去 9
友 9
吴 9
哀@@ 9
哉 9
喜 9
器 9
在 9
圳@@ 9
坂 9
坎 9
堰@@ 9
壁@@ 9
奎@@ 9
套@@ 9
妻 9
実 9
寻@@ 9
導@@ 9
尹 9
局@@ 9
岚@@ 9
岭 9
幹@@ 9
庆 9
序 9
庙@@ 9
弓 9
強@@ 9
彩@@ 9
往@@ 9
征@@ 9
待@@ 9
循@@ 9
徽 9
思 9
惠 9
慎@@ 9
或@@ 9
托@@ 9
指@@ 9
揭@@ 9
撃@@ 9
撒@@ 9
放 9
敏@@ 9
术 9
杰 9
枹@@ 9
根 9
梨 9
榮 9
様@@ 9
橋@@ 9
橛 9
残@@ 9
段@@ 9
気 9
汲@@ 9
沙 9
泊@@ 9
泥@@ 9
浅@@ 9
淨@@ 9
渠 9
満@@ 9
溪 9
潢@@ 9
潼@@ 9
灰@@ 9
炎@@ 9
熟@@ 9
版 9
牛 9
猫 9
現@@ 9
瑟 9
瓦@@ 9
產@@ 9
界 9
發 9
皆@@ 9
盟@@ 9
監 9
砲 9
碑 9
示@@ 9
祭@@ 9
禹@@ 9
私@@ 9
箕@@ 9
範 9
範@@ 9
粵@@ 9
紇@@ 9
納 9
細@@ 9
總@@ 9
网@@ 9
考 9
耳@@ 9
耿@@ 9
聞 9
肉 9
致@@ 9
般@@ 9
艾@@ 9
芬@@ 9
苑@@ 9
苗 9
荥@@ 9
莊@@ 9
菊@@ 9
营 9
著 9
葭@@ 9
藏 9
虞 9
虹@@ 9
蛇@@ 9
血 9
表@@ 9
製@@ 9
観@@ 9
誠@@ 9
议@@ 9
讷@@ 9
豐@@ 9
豪@@ 9
辛 9
辛@@ 9
辺@@ 9
过@@ 9
過@@ 9
鄉@@ 9
録 9
鐘@@ 9
阁@@ 9
隧@@ 9
隰@@ 9
隸@@ 9
需@@ 9
食 9
館@@ 9
鸿@@ 9
鼎 9
ꙁ 9
Ꞩ 9
같@@ 9
개 9
과@@ 9
관 9
광@@ 9
권@@ 9
난 9
녀 9
년@@ 9
당 9
더@@ 9
떡 9
럼 9
를 9
름 9
명 9
박 9
베@@ 9
병@@ 9
봉@@ 9
불@@ 9
새@@ 9
심@@ 9
야@@ 9
요@@ 9
제 9
철@@ 9
초@@ 9
탕 9
허@@ 9
환@@ 9
회 9
희@@ 9
ﺍ 9
ﺫ 9
ﺭ@@ 9
￥ 9
𐍃 9
𐎼@@ 9
Daha 8
Diese 8
Hòa 8
Hội 8
Ils 8
Mỹ 8
Nguyên 8
Thiên 8
Từ 8
ainsi 8
améric@@ 8
asili 8
asında 8
cao 8
cual@@ 8
dağ@@ 8
denomin@@ 8
ecek 8
erreich@@ 8
esab@@ 8
etwa 8
futbol@@ 8
gab 8
größ@@ 8
ieurs 8
ilç@@ 8
itwa 8
jimbo 8
jini 8
karne 8
laş@@ 8
liği 8
luğ@@ 8
misma 8
mús@@ 8
nehmen 8
người 8
nying@@ 8
oldu@@ 8
ordu 8
oyun@@ 8
pesar 8
rund 8
sı@@ 8
tipo 8
ubwa 8
yao 8
yıl 8
zahl 8
zahl@@ 8
Ò 8
àm 8
çok 8
ình 8
öffentlich@@ 8
ümü 8
üçük 8
Đồng 8
đi 8
Ĝ 8
ģ 8
ıldı 8
ımı 8
Ĵ 8
Ķ 8
Ő 8
Ř 8
ƀ 8
Ɯ 8
ưng 8
ưu 8
Ʋ 8
Ƴ 8
ƶ@@ 8
ȣ 8
ɥ 8
ɰ 8
ʈ@@ 8
ʝ 8
ʨ 8
ʽ 8
˂ 8
˄ 8
ˉ@@ 8
ˠ@@ 8
˰ 8
̵ 8
Έλλην@@ 8
Ύ@@ 8
Αν 8
Αυ@@ 8
Ισ@@ 8
Καλλ@@ 8
Κόμ@@ 8
άδες 8
άλι 8
άνα@@ 8
άνω 8
άρια 8
ίδες 8
ίμ@@ 8
ΰ 8
διά@@ 8
είδ@@ 8
είν@@ 8
είναι 8
εισ@@ 8
ερι@@ 8
ζωή 8
ηφ@@ 8
θλ@@ 8
ικές 8
ισσ@@ 8
κομ@@ 8
λαδ@@ 8
μέχρι 8
μετρ@@ 8
μορ@@ 8
νών 8
ουσία 8
παλ@@ 8
ποι 8
που@@ 8
ρίς 8
ραση 8
ρη 8
στή@@ 8
στοιχ@@ 8
στολ@@ 8
ταμ@@ 8
ταυ@@ 8
τραγούδ@@ 8
τροφ@@ 8
υφ@@ 8
φέρ@@ 8
φυλ@@ 8
χλ@@ 8
χρόνια 8
ωλ@@ 8
ϋ 8
ότη@@ 8
ώπ@@ 8
ϩ@@ 8
Пър@@ 8
бър@@ 8
голям 8
лните 8
ниците 8
смър@@ 8
страни 8
тът 8
ълга@@ 8
Ѥ 8
Ҁ 8
Ҥ@@ 8
ҧ 8
ҩ@@ 8
Ӂ 8
ӊ@@ 8
ӭ@@ 8
Ӹ 8
Ԥ 8
Ց@@ 8
՝ 8
հ 8
շ 8
օ 8
ִ 8
ן@@ 8
أ 8
أكبر 8
إي@@ 8
احمد 8
ارا 8
اسلامی 8
الأر@@ 8
الرحمن 8
الل@@ 8
المج@@ 8
المص@@ 8
الي 8
اول@@ 8
بة 8
بل 8
ته 8
جا@@ 8
جان 8
جن@@ 8
حي 8
خل@@ 8
دو 8
دو@@ 8
دير 8
زبان 8
سة 8
سط@@ 8
سلام 8
طة 8
في@@ 8
فيه 8
قة 8
قد 8
كان 8
كر@@ 8
لام 8
لب 8
لس 8
مال 8
مد 8
مز@@ 8
مین 8
نظ@@ 8
نى 8
هي@@ 8
واحد 8
وار 8
والم@@ 8
وت 8
ودية 8
وه@@ 8
وی 8
ٙ@@ 8
ڬ@@ 8
گر@@ 8
ہ@@ 8
ے 8
ܓ@@ 8
ܗ@@ 8
ܙ@@ 8
ܟ@@ 8
ܣ@@ 8
ި@@ 8
ँ 8
अन 8
इ 8
इ@@ 8
उ@@ 8
घ@@ 8
ञ 8
तर@@ 8
भा@@ 8
रे@@ 8
ला 8
वत 8
शा@@ 8
षा 8
ि@@ 8
ु@@ 8
ू 8
ो@@ 8
ঁ@@ 8
এ@@ 8
ট 8
ণ@@ 8
শ 8
ਕ@@ 8
ਰ 8
ર@@ 8
எ@@ 8
ழ 8
మ@@ 8
ತ 8
യ 8
ശ@@ 8
ഷ 8
സ 8
െ 8
ං@@ 8
ත@@ 8
ය 8
ชน@@ 8
ทร 8
บ 8
หลวง 8
อน 8
อม@@ 8
อร 8
ำ@@ 8
ีย@@ 8
฿ 8
ใน@@ 8
ไท@@ 8
ຈ@@ 8
ນ 8
າ 8
ີ@@ 8
ཙ@@ 8
ཛ@@ 8
ཝ@@ 8
འ 8
྄ 8
Ⴈ@@ 8
Ⴊ@@ 8
Ⴐ@@ 8
შ 8
ჭ 8
ხ 8
ክ@@ 8
ው 8
ዓ@@ 8
ዮ@@ 8
ዲ@@ 8
ᒃ 8
ᓄ@@ 8
ᚱ@@ 8
ង 8
រ 8
េ@@ 8
ᠭ@@ 8
ᡤ@@ 8
ᵹ 8
ḿ 8
ṕ 8
ṗ@@ 8
ṡ 8
ṫ 8
ṱ@@ 8
ẏ@@ 8
ạch 8
ấy 8
ầu 8
ận 8
ắc 8
ẻ 8
ếu 8
ỉ 8
ịnh 8
ở 8
ἠ@@ 8
ἰ 8
Ἴ@@ 8
ῖ 8
₦ 8
₸ 8
℔ 8
⊥ 8
☗ 8
♁ 8
⚪ 8
✶ 8
❖ 8
➔ 8
ⱏ 8
ⲁ 8
が 8
び@@ 8
ぴ@@ 8
ぶ@@ 8
ゅ 8
ょ 8
サ 8
セ 8
ハ 8
ュ 8
ㄴ 8
ㄷ 8
ㅂ 8
严@@ 8
为 8
乱 8
亥 8
亮 8
仄@@ 8
伪@@ 8
佑@@ 8
佛 8
僕 8
僧 8
冥@@ 8
勤 8
卑@@ 8
印 8
又@@ 8
叔 8
取@@ 8
召@@ 8
吃@@ 8
吏 8
品 8
嗣 8
嘉 8
因@@ 8
圍@@ 8
坡 8
坡@@ 8
坤 8
型@@ 8
埃@@ 8
塞 8
増@@ 8
変@@ 8
夲@@ 8
奚 8
妻@@ 8
婆 8
宜 8
富 8
寨@@ 8
寸 8
尼 8
屠@@ 8
嵩@@ 8
帥 8
带@@ 8
幻@@ 8
庫@@ 8
庶@@ 8
廁 8
廈 8
弗@@ 8
強 8
役 8
従@@ 8
怒@@ 8
恋 8
悟@@ 8
悲@@ 8
想 8
應@@ 8
折@@ 8
报@@ 8
接@@ 8
推@@ 8
揚@@ 8
撃 8
斤 8
显@@ 8
晏@@ 8
暦 8
更 8
更@@ 8
服 8
未@@ 8
板@@ 8
柯@@ 8
梓@@ 8
梦@@ 8
棋 8
榮@@ 8
様 8
檀@@ 8
毅 8
求@@ 8
汇@@ 8
洗@@ 8
浑@@ 8
涪@@ 8
深 8
渤@@ 8
湯 8
溧@@ 8
瀬 8
為 8
煎@@ 8
燕 8
營@@ 8
牙@@ 8
特 8
獨@@ 8
玲 8
球 8
瓜@@ 8
略@@ 8
研@@ 8
硖@@ 8
磐@@ 8
祁@@ 8
祐 8
禄 8
禅 8
禺@@ 8
稷 8
端 8
第 8
算@@ 8
簿 8
粥 8
紙@@ 8
経@@ 8
絕@@ 8
網@@ 8
織@@ 8
置@@ 8
翠@@ 8
而 8
聯@@ 8
聲 8
背@@ 8
腾@@ 8
臺 8
舜 8
芬 8
芳@@ 8
芸 8
荀@@ 8
荷@@ 8
荼 8
菩@@ 8
菱@@ 8
蒸@@ 8
薄@@ 8
薩@@ 8
虔@@ 8
虢@@ 8
衍 8
視@@ 8
親 8
覺@@ 8
觀 8
訶@@ 8
詞 8
説 8
調@@ 8
講@@ 8
謝@@ 8
记@@ 8
说@@ 8
資@@ 8
賈@@ 8
賢@@ 8
贞@@ 8
贤 8
赫@@ 8
走 8
跳@@ 8
軒 8
迁@@ 8
造 8
遮@@ 8
邛@@ 8
鄜@@ 8
采@@ 8
鏡 8
閣 8
關 8
阗@@ 8
队 8
陝@@ 8
雀@@ 8
雒 8
雕@@ 8
雜@@ 8
震 8
靈 8
領@@ 8
项@@ 8
颇@@ 8
餘@@ 8
馮@@ 8
鲁 8
龜 8
ꙁ@@ 8
ꙋ 8
ꙋ@@ 8
근@@ 8
님 8
데@@ 8
독@@ 8
디@@ 8
래@@ 8
량 8
러@@ 8
려@@ 8
류@@ 8
림 8
림@@ 8
민 8
브@@ 8
석@@ 8
설@@ 8
손@@ 8
순 8
술@@ 8
운@@ 8
윤@@ 8
으@@ 8
작@@ 8
점 8
추@@ 8
투@@ 8
트@@ 8
회@@ 8
효@@ 8
ﺭ 8
ﻝ 8
ﻧ@@ 8
� 8
𐌹@@ 8
𛀁 8
𝐴 8
𝐾@@ 8
🥈 8
Agosti 7
Dân 7
Dương 7
Hồng 7
Kuzey 7
Nhà 7
Tras 7
agosto 7
asyon 7
bekannt 7
büyük 7
ciud@@ 7
conocida 7
daha 7
diesem 7
diesen 7
début 7
empres@@ 7
encuentr@@ 7
ganda 7
genommen 7
grupo 7
inah@@ 7
ishia 7
kazan@@ 7
không 7
kişi 7
lararası 7
luss 7
membres 7
mesi 7
mwan@@ 7
nó 7
nörd@@ 7
nın 7
quement 7
respectiv@@ 7
région 7
sanat@@ 7
sechs 7
siku 7
sowie 7
sân 7
sông 7
tamente 7
thứ 7
tober 7
trang 7
trận 7
uzak@@ 7
varias 7
versión 7
wechsel@@ 7
weiter@@ 7
wurden 7
yeye 7
yür@@ 7
yüz@@ 7
zaman 7
zao 7
zurück@@ 7
zusammen 7
Ì 7
ètres 7
ödül@@ 7
ölç@@ 7
öğ@@ 7
ùa 7
Ĉ@@ 7
Ġ 7
Ĭ 7
ıları 7
ıya 7
Ľ 7
Ť 7
Ů@@ 7
Ɛ@@ 7
Ɵ@@ 7
ư@@ 7
Ʊ 7
Ƶ@@ 7
Ʒ 7
Ǧ@@ 7
Ǫ 7
Ș 7
Ț 7
Ɉ 7
ɮ 7
ɻ@@ 7
ɿ 7
ʸ 7
ˈ 7
̺ 7
Βεν@@ 7
Γκ@@ 7
Δημοκρατ@@ 7
Εί@@ 7
Είναι 7
Εξ@@ 7
Κλ@@ 7
Μεγ@@ 7
Ου@@ 7
Σο@@ 7
Στο 7
άλογ@@ 7
έρν@@ 7
αντιν@@ 7
αση 7
βάλλ@@ 7
γνώ@@ 7
δήμ@@ 7
διακ@@ 7
διαφορ@@ 7
εθν@@ 7
επί 7
εω@@ 7
ιακ@@ 7
ιδι@@ 7
ιλι@@ 7
ιπ@@ 7
ισμού 7
καδημ@@ 7
κλει@@ 7
κοιν@@ 7
κον@@ 7
κοπ@@ 7
μάν@@ 7
μένης 7
μένοι 7
μέσα 7
ματική 7
μετ@@ 7
μετά 7
μμ@@ 7
μο 7
ογέν@@ 7
ογραφία 7
οκρατ@@ 7
ουμε 7
ουρ@@ 7
ούδ@@ 7
πέντε 7
πίσ@@ 7
πους 7
πρό@@ 7
ρίζ@@ 7
ραφ@@ 7
σεν@@ 7
στήρι@@ 7
στρατ@@ 7
συγ@@ 7
σχολ@@ 7
ταιν@@ 7
ταξ@@ 7
τεύ@@ 7
τικού 7
τρεις 7
φερ@@ 7
φθ@@ 7
χρόν@@ 7
χωρίς 7
ψη 7
ώντας 7
ώρα 7
ϝ 7
ϯ@@ 7
ϲ@@ 7
ϳ@@ 7
Ќ@@ 7
големи 7
зване 7
който 7
октом@@ 7
разполо@@ 7
рията 7
ъра 7
Ҟ@@ 7
ҩ 7
Ҭ 7
ҿ@@ 7
Ӝ 7
Ժ@@ 7
Փ 7
պ 7
أحمد 7
أس 7
أن 7
أه@@ 7
إن 7
إن@@ 7
ابو 7
اخ@@ 7
اضي 7
اق 7
الإم@@ 7
الذ@@ 7
العلا@@ 7
المغربية 7
الوطني 7
انق@@ 7
بان@@ 7
برو@@ 7
تا 7
تر 7
تم 7
تم@@ 7
تن@@ 7
ثم 7
جز@@ 7
جه@@ 7
حم@@ 7
خال@@ 7
رون 7
زی 7
سب@@ 7
سلطان 7
شر 7
عب 7
عر@@ 7
عم 7
عن@@ 7
غي@@ 7
فارسی 7
قال 7
قل 7
كتاب 7
كي 7
كي@@ 7
مخ@@ 7
مسجد 7
مغ@@ 7
مف@@ 7
مقاطعة 7
ملا@@ 7
مية 7
می 7
نط@@ 7
نه@@ 7
نگ 7
وری 7
وسف 7
يني 7
ً 7
کری@@ 7
ید 7
ین 7
ܒ 7
ܛ 7
݁ 7
ް@@ 7
ंग@@ 7
कर@@ 7
टी 7
डा 7
ती 7
दा@@ 7
पर 7
पर@@ 7
बि@@ 7
बु@@ 7
मस 7
मो@@ 7
यन 7
रीय 7
वन 7
षण 7
सा@@ 7
हा 7
हा@@ 7
ार 7
ार@@ 7
ी@@ 7
ই 7
ও@@ 7
জ 7
থ@@ 7
ধ@@ 7
ফ@@ 7
ਣ 7
ਨ@@ 7
ਲ@@ 7
ਹ@@ 7
જ@@ 7
ஆ@@ 7
வ 7
అ@@ 7
ఠ 7
ి@@ 7
ಜ@@ 7
ಬ 7
ಳ@@ 7
അ@@ 7
ങ 7
ൂ 7
െ@@ 7
ම 7
ො@@ 7
การ@@ 7
คร@@ 7
ฆ 7
ฑ 7
ธ 7
มิ 7
ยา 7
รี 7
ษ@@ 7
หม@@ 7
อน@@ 7
ัน 7
ัน@@ 7
าน 7
ำ 7
ื@@ 7
ุ 7
ฺ 7
ງ 7
ອ@@ 7
ເ@@ 7
ཧ@@ 7
ྣ@@ 7
ဍ 7
ဓ@@ 7
ှ 7
Ⴀ 7
Ⴅ@@ 7
Ⴌ@@ 7
Ⴢ 7
ფ 7
ღ 7
ჩ 7
ც 7
ላ@@ 7
ሐ@@ 7
ሞ@@ 7
ሠ 7
ቀ@@ 7
ተ 7
ታ@@ 7
ኢ@@ 7
Ꭹ 7
ᑎ@@ 7
ᛋ 7
ក@@ 7
ប@@ 7
វ 7
៑ 7
ᠩ@@ 7
ᡝ@@ 7
ᡠ@@ 7
ᴗ 7
ᴛ@@ 7
ᵐ@@ 7
᷉ 7
ṻ@@ 7
Ẓ@@ 7
ại 7
ạo 7
ấn 7
ặt 7
ệ 7
ộc 7
ụ@@ 7
ử 7
ὐ 7
ὤ@@ 7
ὺ 7
ὼ@@ 7
ῠ@@ 7
⁊ 7
⁠ 7
⁸ 7
ℓ@@ 7
ℕ 7
ℵ@@ 7
⅞ 7
∉ 7
∓ 7
∥ 7
┼ 7
☖ 7
☿ 7
♃ 7
♎ 7
⟹ 7
ⱁ@@ 7
ⱅ@@ 7
ⱱ 7
ⲅ@@ 7
ⲥ 7
ⴳ@@ 7
ⴷ@@ 7
ⴽ@@ 7
ⵙ@@ 7
⼤ 7
ぎ@@ 7
っ 7
ぱ@@ 7
む 7
わ 7
ゲ 7
ノ 7
ベ 7
ヨ 7
ヶ 7
ㄹ 7
ㅊ 7
ㅍ 7
ㅣ 7
丈@@ 7
両@@ 7
並@@ 7
乘 7
习@@ 7
亀@@ 7
亚 7
仆@@ 7
仑@@ 7
付@@ 7
件 7
任 7
伍@@ 7
伐 7
伐@@ 7
传@@ 7
來@@ 7
侍 7
倫 7
備@@ 7
億@@ 7
儋@@ 7
儒 7
党@@ 7
冀 7
准@@ 7
凰 7
凰@@ 7
初 7
刻 7
剣 7
勇 7
勣 7
匹@@ 7
區@@ 7
卜 7
厂@@ 7
叉@@ 7
叙@@ 7
句 7
可 7
右 7
吏@@ 7
吹@@ 7
咄@@ 7
哥@@ 7
喻@@ 7
器@@ 7
囚@@ 7
圓@@ 7
均@@ 7
坐@@ 7
堅@@ 7
壬@@ 7
备@@ 7
奶 7
妃 7
姫@@ 7
存@@ 7
宏 7
宙@@ 7
密 7
寇@@ 7
實 7
尊@@ 7
尺 7
岡 7
岸@@ 7
崂@@ 7
工 7
左 7
己 7
己@@ 7
市镇 7
布 7
广 7
庄 7
廟@@ 7
廷@@ 7
弋@@ 7
弦@@ 7
强 7
彌 7
役@@ 7
微 7
念 7
忽@@ 7
恭 7
懿@@ 7
戎 7
戰 7
抱@@ 7
括@@ 7
挽@@ 7
捷@@ 7
敦 7
文化 7
施 7
旺@@ 7
昔@@ 7
曹 7
曾 7
朐@@ 7
末 7
朱 7
杏@@ 7
果 7
枝 7
枯@@ 7
栄@@ 7
案 7
桜@@ 7
棘@@ 7
棱@@ 7
標@@ 7
橘 7
欽 7
欽@@ 7
歩@@ 7
段 7
氷@@ 7
汗@@ 7
汽@@ 7
沮@@ 7
油@@ 7
涅@@ 7
渋@@ 7
渔@@ 7
準 7
滚@@ 7
滩@@ 7
漆@@ 7
潤@@ 7
灯 7
烈 7
無 7
焼@@ 7
煤@@ 7
照 7
爪 7
狼 7
猛 7
獅@@ 7
琉@@ 7
瑞 7
産@@ 7
由 7
留 7
皮 7
盆@@ 7
県@@ 7
祉@@ 7
祜@@ 7
禁@@ 7
禅@@ 7
禪 7
禪@@ 7
秦 7
稚@@ 7
站@@ 7
笑 7
简 7
箆 7
箱 7
篠@@ 7
紇 7
級@@ 7
素 7
綫 7
綾@@ 7
红 7
织@@ 7
终@@ 7
罗 7
罠 7
羊 7
羌 7
老 7
肇 7
股 7
舒 7
艮 7
茂 7
莞@@ 7
落 7
藍@@ 7
處@@ 7
虫 7
蝶 7
蝶@@ 7
螂@@ 7
衍@@ 7
衙@@ 7
観 7
試@@ 7
说 7
诺@@ 7
豐 7
貝@@ 7
財@@ 7
賣@@ 7
跋@@ 7
跨@@ 7
転@@ 7
載@@ 7
輔 7
这@@ 7
追@@ 7
進 7
還@@ 7
邾@@ 7
郑 7
郢@@ 7
郭 7
鄣@@ 7
鑑@@ 7
铁 7
镜@@ 7
间 7
阪@@ 7
雞@@ 7
難 7
零 7
霊 7
韩 7
韵@@ 7
願@@ 7
领 7
饼 7
香港 7
駅 7
驿 7
鮮 7
鳌@@ 7
鷹@@ 7
鸭@@ 7
默@@ 7
黨 7
龜@@ 7
ꜣ 7
Ᵹ 7
간 7
견@@ 7
경 7
균 7
날 7
놀@@ 7
려 7
린@@ 7
막 7
머@@ 7
밀@@ 7
뱅 7
복 7
세 7
씨 7
씨@@ 7
악@@ 7
연 7
옥@@ 7
을@@ 7
저@@ 7
철 7
쳐 7
총@@ 7
타 7
통@@ 7
티@@ 7
했@@ 7
ﭘ@@ 7
ﺗ@@ 7
ﺩ@@ 7
ﺸ@@ 7
ﻔ@@ 7
ﻖ 7
ﻟ@@ 7
ﻣ@@ 7
２@@ 7
Alman 6
Châu 6
Dezember 6
Kanada 6
Kristo 6
Mannschaft 6
Mitglied 6
abril 6
acak 6
anlığı 6
atao 6
azini 6
aşı 6
bedeut@@ 6
cuenta 6
daki 6
ecek@@ 6
encu@@ 6
enero 6
estudio 6
están 6
exemple 6
frente 6
geleg@@ 6
gesetzt 6
gibi 6
gobierno 6
género 6
había 6
hizi 6
hizo 6
iliz 6
irika 6
jiji 6
jwa 6
kaç 6
kaç@@ 6
khu 6
kodi 6
kuto@@ 6
kı@@ 6
ladı 6
largo 6
larını 6
ledi 6
ließ@@ 6
lossen 6
lugha 6
mwa 6
nhi@@ 6
nhân 6
này 6
oloji 6
returned 6
sağ@@ 6
standen 6
también 6
taş@@ 6
tienen 6
toba 6
ufu 6
undan 6
utiliz@@ 6
uyên 6
uyền 6
wao 6
wenda 6
wieder@@ 6
ydi 6
 6
Ù@@ 6
ây 6
çık@@ 6
đi@@ 6
đồng 6
Ė 6
İm@@ 6
ŀ@@ 6
Ņ@@ 6
Ŗ 6
Ŝ 6
ƀ@@ 6
ƃ 6
ƅ 6
Ɩ 6
Ɨ@@ 6
ơi 6
ǚ 6
ǣ 6
Ƿ@@ 6
ȉ@@ 6
ɴ@@ 6
ɸ 6
ɽ@@ 6
ʜ@@ 6
ʡ 6
˅ 6
ˋ 6
ˑ 6
˞ 6
̉ 6
̙ 6
ͅ 6
͠ 6
Ά 6
Ή@@ 6
Αυτοκρα@@ 6
Κωνστ@@ 6
Οικ@@ 6
Πόλε@@ 6
Τσ@@ 6
άνθρω@@ 6
έλλ@@ 6
ίδας 6
ίνη 6
αδελφ@@ 6
ανά 6
αρίου 6
ασία 6
γαρ@@ 6
γεω@@ 6
διο 6
εντρ@@ 6
επιστη@@ 6
ερν@@ 6
ηματ@@ 6
θωμαν@@ 6
ιστο@@ 6
κε 6
κοσμ@@ 6
κυβ@@ 6
λαβ@@ 6
μάχ@@ 6
μένος 6
μένου 6
ματο@@ 6
μην@@ 6
μορφή 6
μπου@@ 6
νό@@ 6
ξης 6
οποι@@ 6
ορο@@ 6
ούμεν@@ 6
πο 6
πολί@@ 6
πού@@ 6
πρώ@@ 6
ρίσ@@ 6
σεων 6
σκοπ@@ 6
σταση 6
στερ@@ 6
στρα@@ 6
συμφ@@ 6
τέλος 6
τέσσ@@ 6
τοπ@@ 6
τό@@ 6
φορά 6
χής 6
χρον@@ 6
χωρ@@ 6
χώρα 6
ωνίας 6
όλου 6
ώσεις 6
ϝ@@ 6
ϡ 6
ϰ@@ 6
Ϲ 6
български 6
вън@@ 6
заедно 6
повече 6
работи 6
често 6
Ѩ 6
Ѯ 6
Ѱ 6
Ҧ 6
Ҭ@@ 6
ұ 6
ҽ 6
ӂ 6
ӝ@@ 6
Ӟ 6
Ӡ@@ 6
ӫ@@ 6
Ӯ@@ 6
ӵ@@ 6
Ԟ 6
ԟ 6
ԫ 6
Գ 6
Ը 6
Ղ 6
Ճ@@ 6
Յ 6
Ո 6
խ 6
փ 6
ׂ 6
ײ 6
إلى 6
ارات 6
ارة 6
ارت 6
افغانستان 6
البر@@ 6
العرا@@ 6
المغ@@ 6
المن@@ 6
اور 6
اپ@@ 6
بد 6
بها 6
تض@@ 6
تع@@ 6
تغ@@ 6
تور@@ 6
تون@@ 6
تي 6
جب@@ 6
جع@@ 6
جمع@@ 6
جوا@@ 6
حة 6
حد 6
حزب 6
خوا@@ 6
راء 6
راب 6
رات 6
رش@@ 6
رو 6
زل 6
سك@@ 6
سل 6
سلط@@ 6
شع@@ 6
صاحب 6
صل 6
طر@@ 6
عد@@ 6
عص@@ 6
عظ@@ 6
عي@@ 6
غم 6
فت 6
فلسط@@ 6
فی 6
قب@@ 6
قص@@ 6
قط@@ 6
لاب 6
لات 6
لال 6
لف@@ 6
لك 6
ليل 6
مار@@ 6
مر 6
مض@@ 6
مط@@ 6
مين 6
نام@@ 6
نش@@ 6
هٔ 6
وار@@ 6
وان 6
وري 6
وش@@ 6
وك@@ 6
ولد 6
وله 6
ولي 6
يت@@ 6
يك@@ 6
يه 6
يه@@ 6
ٌ@@ 6
َّة 6
١@@ 6
ڠ 6
کش@@ 6
گر 6
ھ 6
ۇ 6
ۋ 6
یا 6
یل 6
ܠ 6
ܦ 6
ܫ@@ 6
ܵ@@ 6
ަ@@ 6
ंग 6
अन@@ 6
उ 6
ओ@@ 6
की 6
को@@ 6
गा@@ 6
गि@@ 6
गो@@ 6
छ@@ 6
ट@@ 6
ढ 6
ढ@@ 6
णी 6
तः 6
थि@@ 6
दा 6
देव@@ 6
दो@@ 6
धि@@ 6
नो 6
पद 6
पुर 6
भु@@ 6
मह@@ 6
मान@@ 6
मै@@ 6
योग 6
रक 6
रत 6
लक 6
षद 6
संस 6
सू@@ 6
ित 6
े 6
ौ@@ 6
ট@@ 6
ূ@@ 6
ੁ@@ 6
ી 6
உ@@ 6
ஞ 6
చ 6
ర 6
ಸ 6
ച@@ 6
ണ 6
റ@@ 6
ජ@@ 6
ම@@ 6
ු 6
คณะ@@ 6
คริ@@ 6
งค@@ 6
ชาว@@ 6
ทอง 6
บาง@@ 6
ผ 6
มว@@ 6
ยุ@@ 6
รว@@ 6
รัฐ@@ 6
ราช 6
ราย 6
รุ@@ 6
ฤ@@ 6
ลิ@@ 6
วง@@ 6
ศาส@@ 6
ศาสต@@ 6
สม@@ 6
ั@@ 6
ัก@@ 6
าน@@ 6
ิน 6
ือ@@ 6
เล@@ 6
ທ@@ 6
ວ 6
ິ@@ 6
ཅ@@ 6
ྫ@@ 6
ྲ 6
ဂ@@ 6
ဌ 6
ဎ 6
ဲ 6
။ 6
Ⴃ@@ 6
Ⴇ@@ 6
პ 6
ჳ 6
ረ 6
፡ 6
Ꭰ@@ 6
ᐅ@@ 6
ᓂ@@ 6
ᛁ@@ 6
ក 6
ខ 6
ប 6
ព 6
យ@@ 6
ែ@@ 6
ᡠ 6
ᴀ 6
ᵘ 6
Ḍ 6
Ḍ@@ 6
Ḵ@@ 6
Ṣ 6
Ṭ 6
ṳ 6
ẜ@@ 6
ạnh 6
ả 6
ất 6
ật 6
ằng 6
ếp 6
Ọ 6
ỏ@@ 6
ố@@ 6
ổ 6
ổi 6
ứ 6
Ỹ 6
Ἡ 6
Ὁ@@ 6
ὖ@@ 6
ὠ@@ 6
ὡ@@ 6
ῃ 6
⁹ 6
₺ 6
⃣ 6
℗ 6
ℝ@@ 6
⅘ 6
⅝ 6
Ⅸ 6
≃ 6
⊞ 6
┬ 6
║ 6
♉ 6
♌ 6
✧ 6
ⰴ@@ 6
ⰵ@@ 6
ⰺ@@ 6
ⱀ@@ 6
ⲗ@@ 6
ⵖ@@ 6
ず 6
ぼ@@ 6
ゐ 6
ヰ 6
ヱ 6
ㅅ 6
ㅈ 6
世界 6
丞 6
丞@@ 6
于 6
亜 6
亲@@ 6
从@@ 6
仔@@ 6
企@@ 6
优@@ 6
伤@@ 6
但@@ 6
健 6
僖@@ 6
充 6
兒@@ 6
兹@@ 6
冰@@ 6
冲@@ 6
凡@@ 6
凭@@ 6
函@@ 6
切@@ 6
刑 6
則 6
剧 6
副@@ 6
劉 6
办 6
勇@@ 6
升 6
及@@ 6
叢@@ 6
向 6
吳 6
唱@@ 6
嘎@@ 6
嚴@@ 6
圭 6
均 6
块 6
坪 6
垂@@ 6
垣@@ 6
域@@ 6
執@@ 6
培@@ 6
壽 6
够 6
失 6
奏@@ 6
奔@@ 6
妇@@ 6
妓 6
妙 6
姓 6
孚@@ 6
宣 6
寂@@ 6
寄@@ 6
寓@@ 6
對@@ 6
就@@ 6
屎@@ 6
岱@@ 6
嶽 6
巩@@ 6
已 6
币 6
幌@@ 6
幕@@ 6
幡@@ 6
干 6
并@@ 6
幸 6
座 6
建 6
弟@@ 6
强@@ 6
彬 6
徵 6
忘@@ 6
恵 6
戌 6
戚@@ 6
拜 6
按@@ 6
提 6
搜@@ 6
摩 6
播@@ 6
改@@ 6
故 6
敢@@ 6
数 6
敵@@ 6
料@@ 6
既@@ 6
旦 6
昊 6
晓@@ 6
暨@@ 6
暮@@ 6
有 6
朋@@ 6
板 6
极 6
极@@ 6
枣@@ 6
柔@@ 6
柚@@ 6
桌@@ 6
检 6
楷@@ 6
欢@@ 6
歡 6
歳 6
歴@@ 6
歸 6
毒 6
毒@@ 6
汪@@ 6
沈 6
沖@@ 6
沱@@ 6
沼@@ 6
泥 6
注 6
混@@ 6
渾 6
湟@@ 6
滑@@ 6
滿 6
潮 6
澜@@ 6
炎 6
熊 6
燃@@ 6
燒@@ 6
爆@@ 6
牙 6
狗@@ 6
狩@@ 6
独 6
猪@@ 6
猿@@ 6
玖@@ 6
環@@ 6
瓜 6
甫@@ 6
看 6
県 6
着@@ 6
祇@@ 6
種@@ 6
稽 6
穂 6
穴 6
窟@@ 6
竜@@ 6
笔@@ 6
笠@@ 6
筆@@ 6
等 6
答@@ 6
筠 6
簡@@ 6
籍 6
系 6
紹@@ 6
絵@@ 6
継@@ 6
続@@ 6
維 6
編@@ 6
縁@@ 6
繼@@ 6
线 6
绛 6
络@@ 6
羲 6
翅@@ 6
翊@@ 6
習@@ 6
耶 6
胜 6
至 6
舂@@ 6
舊@@ 6
舍 6
荣 6
荼@@ 6
萍@@ 6
萬 6
葫@@ 6
蒋@@ 6
蒲 6
蓮 6
蔷@@ 6
虏@@ 6
虚@@ 6
虛 6
蛛 6
表 6
装@@ 6
裏@@ 6
視 6
觚@@ 6
試 6
話@@ 6
詹@@ 6
誠 6
談 6
謙 6
谁@@ 6
谢@@ 6
谯@@ 6
象 6
豹@@ 6
買@@ 6
贸@@ 6
费@@ 6
贾@@ 6
赤 6
輪 6
辅@@ 6
输 6
農 6
过 6
近 6
远 6
送@@ 6
運 6
違@@ 6
邏@@ 6
邦 6
邳@@ 6
邽@@ 6
郢 6
鄉 6
酉@@ 6
酸@@ 6
釋@@ 6
銅@@ 6
錦@@ 6
鏡@@ 6
铁路 6
镶@@ 6
閭@@ 6
闇@@ 6
阎@@ 6
阗 6
阜 6
阪 6
附@@ 6
除@@ 6
陳 6
陸 6
隊@@ 6
階@@ 6
隔@@ 6
障@@ 6
雀 6
雑@@ 6
雩@@ 6
震@@ 6
霜 6
霜@@ 6
霸 6
静 6
非 6
頼@@ 6
題@@ 6
類@@ 6
顧@@ 6
顶@@ 6
顿 6
顿@@ 6
颜@@ 6
飛 6
飯@@ 6
養@@ 6
餘 6
髪@@ 6
鳳 6
鳴@@ 6
麓@@ 6
麗 6
鼎@@ 6
鼠 6
鼻 6
龟 6
Ꙁ 6
꞉ 6
ꞓ 6
감@@ 6
건 6
공 6
규@@ 6
내 6
노 6
누@@ 6
던 6
된@@ 6
들@@ 6
룡@@ 6
막@@ 6
메@@ 6
몰@@ 6
묵 6
반 6
발@@ 6
밴@@ 6
번@@ 6
벌 6
벌@@ 6
법@@ 6
별@@ 6
병 6
복@@ 6
봐 6
삼 6
석 6
송@@ 6
순@@ 6
안 6
여 6
역 6
역@@ 6
은@@ 6
음 6
입@@ 6
재 6
종 6
죽 6
준 6
줘 6
차 6
차@@ 6
체@@ 6
최 6
치 6
카@@ 6
코 6
파 6
팔@@ 6
포 6
플@@ 6
할@@ 6
혁 6
 6
 6
ﯽ 6
ﺎ 6
ﺪ@@ 6
ﻁ 6
ﻕ 6
ﻛ@@ 6
ﻠ@@ 6
ﻥ 6
･ 6
𐌷@@ 6
𐌺@@ 6
𐒰 6
𐓘 6
𝑏 6
𝑖 6
𝓔@@ 6
𝖘@@ 6
🇪 6
Avrupa 5
Hàn 5
Mungu 5
Một 5
Ngày 5
Người 5
Nisan 5
Năm 5
aient 5
alcanz@@ 5
aliye@@ 5
ancak 5
asyonu 5
baad@@ 5
bilin@@ 5
cái 5
công 5
dabei 5
depor@@ 5
deş@@ 5
dével@@ 5
dığı 5
dış@@ 5
espèce 5
eği 5
finales 5
fueron 5
gehör@@ 5
geç@@ 5
harek@@ 5
hatten 5
hành 5
idir 5
kinh 5
kuli@@ 5
kuwa 5
köy@@ 5
larda 5
leş@@ 5
ließ 5
llamado 5
línea 5
milioni 5
một 5
ndani 5
ngay 5
năm 5
obras 5
olduğ@@ 5
otball 5
partici@@ 5
permet@@ 5
quân 5
sebe@@ 5
septiembre 5
seç@@ 5
sonr@@ 5
souvent 5
stütz@@ 5
sát 5
sın@@ 5
sır@@ 5
sử 5
tamam@@ 5
theo 5
thương 5
tient 5
trên 5
tình 5
tư 5
tại 5
unid@@ 5
uvu 5
vya 5
wais@@ 5
wakazi 5
wili 5
xem 5
yön@@ 5
zwa 5
Ã@@ 5
Ödül@@ 5
équipe 5
êu 5
íses 5
ülk@@ 5
Ċ 5
Ė@@ 5
Ģ@@ 5
ıyor 5
ŉ 5
ŧ 5
Ɣ@@ 5
ơ@@ 5
Ƣ@@ 5
ược 5
ǂ 5
ǖ@@ 5
ǜ 5
Ǧ 5
ǩ 5
ǽ@@ 5
Ƞ 5
ȼ 5
ȼ@@ 5
Ƀ 5
ɞ 5
ɱ 5
ɶ 5
ɺ@@ 5
ʖ 5
ʜ 5
ʩ 5
ʺ 5
ˌ 5
ˠ 5
ˣ 5
̶ 5
̻ 5
ͤ 5
Γερμαν@@ 5
Επίσ@@ 5
Σου@@ 5
Στη 5
Του@@ 5
άλυ@@ 5
άνδρ@@ 5
άσκ@@ 5
άτων 5
έζ@@ 5
έλευ@@ 5
έργα 5
ήματος 5
ήσεων 5
ίνου 5
αίνει 5
αγι@@ 5
αγων@@ 5
ακό 5
αργ@@ 5
βαθμ@@ 5
γλώσ@@ 5
γνω@@ 5
γον@@ 5
γρ@@ 5
γράμ@@ 5
γρα@@ 5
διατ@@ 5
δρά@@ 5
δυνα@@ 5
είες 5
είων 5
ελ 5
επαρχ@@ 5
εται 5
ηχ@@ 5
θάνατο 5
θερ@@ 5
θεω@@ 5
θεωρ@@ 5
ιστορ@@ 5
καταστ@@ 5
λάβ@@ 5
λεπ@@ 5
λλογ@@ 5
μεγ@@ 5
μυθ@@ 5
νες 5
νώ@@ 5
ξεις 5
οθέ@@ 5
οργ@@ 5
οφόρ@@ 5
πεδ@@ 5
πολλ@@ 5
πολυ@@ 5
πον@@ 5
πορ@@ 5
ποταμ@@ 5
ράφ@@ 5
ρίσκ@@ 5
ροφή 5
σκην@@ 5
σπουδ@@ 5
συνα@@ 5
ταν 5
τεκ@@ 5
τημα 5
τοιχ@@ 5
τσι 5
υζ@@ 5
υζαντιν@@ 5
υπό 5
χειρ@@ 5
χιλι@@ 5
χολ@@ 5
χώρ@@ 5
ψε 5
ωνα 5
όλε@@ 5
όλη 5
όνο 5
ότητας 5
ώνα 5
ϟ 5
ϳ 5
През 5
ането 5
ването 5
възра@@ 5
дъл@@ 5
лната 5
намира 5
рът 5
стъп@@ 5
цията 5
ърк@@ 5
Ѭ 5
Ѯ@@ 5
ѱ@@ 5
ѷ@@ 5
Ѹ 5
ҋ 5
Ҝ@@ 5
Ӌ 5
ӌ 5
Ӥ 5
Ӫ 5
Խ 5
՞ 5
ֆ@@ 5
ֱ@@ 5
آب@@ 5
أُ@@ 5
إلا 5
ئ 5
ئة 5
اة 5
ادي 5
اره 5
اع 5
البي@@ 5
السلام 5
السي@@ 5
العلوم 5
المف@@ 5
المُ@@ 5
الی 5
اه 5
اً 5
اک@@ 5
با 5
باد@@ 5
باز 5
بال@@ 5
بخ@@ 5
بش@@ 5
بط 5
بند@@ 5
بير 5
تاج 5
جامعة 5
جو@@ 5
حسین 5
خود 5
دائ@@ 5
دع@@ 5
دن 5
دین 5
رئيس 5
رس@@ 5
زب@@ 5
زم 5
زند@@ 5
سب 5
شی 5
صح@@ 5
صف@@ 5
صن@@ 5
علی@@ 5
عه 5
فتح 5
فري@@ 5
فض@@ 5
فق@@ 5
قی@@ 5
كم 5
لاح 5
لاح@@ 5
لك@@ 5
لو 5
مار 5
مرا@@ 5
مست@@ 5
مك@@ 5
نح@@ 5
نصف 5
هة 5
هذه 5
وب 5
وح@@ 5
وسط@@ 5
وق 5
وما 5
وهو 5
يت 5
يون 5
ًا 5
٥@@ 5
ټ@@ 5
ځ 5
ځ@@ 5
ڈ 5
ړ 5
ښ 5
کار 5
کشمیر 5
کل@@ 5
کی@@ 5
ھ@@ 5
ہ 5
یر 5
یم 5
ۍ 5
۱@@ 5
ܓ 5
ܚ@@ 5
ܫ 5
އ@@ 5
अस 5
ए@@ 5
को 5
खा@@ 5
गल 5
चार@@ 5
चि@@ 5
चो@@ 5
जि@@ 5
झ@@ 5
ती@@ 5
तु 5
नी@@ 5
नु@@ 5
बो@@ 5
भारतीय 5
भाषा 5
मी@@ 5
यक 5
यत 5
यु 5
री@@ 5
रो@@ 5
ली@@ 5
ळ 5
वा 5
विश 5
वै@@ 5
शै@@ 5
सद 5
सा 5
सी@@ 5
से@@ 5
ा@@ 5
ूर 5
অ 5
ঙ 5
স 5
ৰ 5
৳ 5
ਗ@@ 5
ਣ@@ 5
ਫ 5
ਵ 5
ੌ@@ 5
੍ 5
ગ@@ 5
ો@@ 5
ஓ@@ 5
ం@@ 5
గ@@ 5
య 5
ల 5
ొ@@ 5
ಞ 5
ಣ@@ 5
ೂ@@ 5
ೆ@@ 5
ೊ@@ 5
ഡ 5
ഭ@@ 5
ൂ@@ 5
ൃ 5
ൈ 5
ൊ 5
ോ 5
ත 5
ශ 5
ී 5
ේ@@ 5
ขา@@ 5
งาน@@ 5
ฉ@@ 5
ชา@@ 5
ชุ@@ 5
ดิ@@ 5
ดี@@ 5
ที 5
นคร 5
บั@@ 5
ภู@@ 5
หน@@ 5
หาร 5
อย 5
อุ@@ 5
ิน@@ 5
ือ 5
เป@@ 5
เว@@ 5
ใ@@ 5
ให@@ 5
ຊ@@ 5
ໄ@@ 5
ཉ@@ 5
ཱ@@ 5
ྤ@@ 5
ྩ@@ 5
ྭ@@ 5
စ 5
ဋ 5
ဏ@@ 5
ဲ@@ 5
Ⴣ 5
ჟ 5
ყ 5
ჯ 5
ჷ 5
ሕ@@ 5
ሥ@@ 5
ሳ@@ 5
ባ 5
ታ 5
ነ 5
ነ@@ 5
ዊ 5
ዊ@@ 5
ዛ@@ 5
ጋ@@ 5
Ꮃ@@ 5
Ꮒ@@ 5
Ꮝ@@ 5
Ꮳ@@ 5
ᑐ@@ 5
ᑦ 5
ᒑ@@ 5
ᖃ@@ 5
ᖅ@@ 5
ᚨ@@ 5
ᛃ 5
ᛏ@@ 5
ᛟ 5
គ 5
ជ@@ 5
ព@@ 5
ម 5
ឥ 5
ា 5
័ 5
᠎ 5
ᠤ@@ 5
ᠯ@@ 5
ᠲ@@ 5
ᠴ@@ 5
ᡝ 5
᭄ 5
᷍ 5
ḇ 5
ḑ 5
ḑ@@ 5
Ḥ 5
Ḱ 5
Ḵ 5
ṗ 5
Ṛ@@ 5
ṱ 5
ẏ 5
ẞ 5
ẞ@@ 5
ấm 5
ần 5
ập 5
ắ@@ 5
ắng 5
ặng 5
ện 5
ộng 5
ữ 5
ữu 5
ự 5
ἁ 5
Ἠ@@ 5
ἷ@@ 5
⁷ 5
₥ 5
⅙ 5
Ⅶ 5
Ⅽ@@ 5
Ↄ 5
↘ 5
↦ 5
⇨ 5
∘ 5
⊃ 5
⊢ 5
Ⓒ 5
╳ 5
▲ 5
○ 5
◡ 5
◻ 5
◾ 5
☺ 5
♋ 5
♏ 5
♙ 5
♟ 5
⠊ 5
⠐ 5
⠹ 5
⧼ 5
⧽ 5
⨁ 5
ⰰ 5
ⰸ@@ 5
ⱃ@@ 5
ⱏ@@ 5
Ⱨ 5
Ⱪ 5
ⲉ 5
ⴰ 5
ⴱ@@ 5
ⴼ@@ 5
ⵉ 5
ⵙ 5
ぜ@@ 5
ぬ 5
ふ 5
ぷ@@ 5
ほ 5
ぽ@@ 5
ゑ 5
ゔ 5
゚ 5
ゥ 5
ガ 5
ソ 5
ヌ@@ 5
ヒ 5
ヘ 5
ヘ@@ 5
ポ 5
モ 5
ㅏ 5
ㅗ 5
ㆁ 5
上海 5
丑@@ 5
丫@@ 5
丽 5
举 5
乳@@ 5
产@@ 5
仇 5
仕@@ 5
以 5
仪 5
仮@@ 5
传 5
供@@ 5
係 5
俞@@ 5
俣@@ 5
修 5
候 5
倫@@ 5
働 5
像@@ 5
儉 5
優 5
允 5
兄@@ 5
児 5
兜@@ 5
入 5
养@@ 5
円 5
処@@ 5
凱@@ 5
切 5
则@@ 5
刚@@ 5
动 5
勤@@ 5
匈@@ 5
匡@@ 5
单@@ 5
卡@@ 5
厉@@ 5
厦@@ 5
厨@@ 5
变 5
叫@@ 5
吧 5
味 5
咏@@ 5
哉@@ 5
員 5
哥 5
唄 5
啟 5
喬@@ 5
嗣@@ 5
嘗@@ 5
圈 5
地方 5
坟 5
坤@@ 5
埔 5
埔@@ 5
堅 5
堯@@ 5
塚@@ 5
墓@@ 5
墳 5
壱@@ 5
夔@@ 5
夾@@ 5
奈 5
姉@@ 5
姐@@ 5
委员@@ 5
姜 5
婢 5
婦 5
嬴@@ 5
存 5
孫 5
宇 5
宋 5
宙 5
客 5
害@@ 5
宴 5
宽@@ 5
寅 5
寅@@ 5
寇 5
寛 5
寫@@ 5
專@@ 5
尊 5
尤@@ 5
届@@ 5
展 5
岑@@ 5
峠 5
崖 5
崩@@ 5
嶋 5
嶋@@ 5
嶺@@ 5
巫 5
差 5
巳@@ 5
巽 5
幫 5
幼@@ 5
庚@@ 5
庵 5
弓@@ 5
弥 5
弾 5
彰 5
征 5
後 5
得 5
從 5
御 5
徵@@ 5
徹 5
怡@@ 5
恆@@ 5
恒 5
恥 5
悉@@ 5
悌 5
悠@@ 5
愍@@ 5
慈 5
憂 5
應 5
懋@@ 5
戀 5
戈 5
戍 5
戏@@ 5
戒 5
戒@@ 5
战 5
戲 5
戴@@ 5
户 5
戸 5
打 5
批@@ 5
抗@@ 5
拱@@ 5
振 5
探@@ 5
摂@@ 5
摇@@ 5
撫 5
擊@@ 5
操 5
整@@ 5
敵 5
敷 5
斌 5
斎@@ 5
斛@@ 5
斡@@ 5
无 5
旺 5
昼@@ 5
晃@@ 5
朔 5
札@@ 5
机 5
权@@ 5
杉 5
束@@ 5
柄@@ 5
核@@ 5
栾@@ 5
條 5
植@@ 5
榜@@ 5
歼 5
氷 5
汀 5
沉@@ 5
沒@@ 5
沽@@ 5
泊 5
泣@@ 5
派@@ 5
浩 5
涧@@ 5
淇@@ 5
淖@@ 5
淵 5
淵@@ 5
淸@@ 5
済@@ 5
減@@ 5
溝@@ 5
滇@@ 5
滝@@ 5
滦@@ 5
滿@@ 5
漂@@ 5
澳 5
濉@@ 5
灌@@ 5
炳@@ 5
烦@@ 5
烧@@ 5
煙@@ 5
爰@@ 5
牌 5
牌@@ 5
牧 5
犍@@ 5
狮@@ 5
猴 5
猴@@ 5
猿 5
獯@@ 5
率@@ 5
珊 5
班 5
珲@@ 5
現 5
琪 5
琳 5
琴 5
琴@@ 5
環 5
甘 5
甫 5
畜 5
略 5
畫 5
畹@@ 5
疆@@ 5
疫@@ 5
発 5
皮@@ 5
益 5
监 5
盡@@ 5
盤 5
看@@ 5
眼 5
睢@@ 5
矢 5
砀@@ 5
碑@@ 5
禎 5
禦@@ 5
移@@ 5
程 5
積@@ 5
窮@@ 5
笛 5
篤@@ 5
簡 5
籍@@ 5
粮@@ 5
系@@ 5
索 5
組 5
絡@@ 5
綿@@ 5
编 5
编@@ 5
羡@@ 5
翔 5
肖@@ 5
脚 5
脚@@ 5
腔 5
腹@@ 5
自 5
自己 5
舎@@ 5
艹 5
芥@@ 5
芳 5
苻@@ 5
范 5
茄@@ 5
荔@@ 5
荡@@ 5
莊 5
菱 5
萝@@ 5
著@@ 5
葵@@ 5
蔡 5
蔣@@ 5
薇 5
薛 5
薬@@ 5
處 5
蛇 5
蛛@@ 5
蜜@@ 5
蝦@@ 5
蟠@@ 5
袋 5
裂@@ 5
裕 5
裳 5
覚@@ 5
覺 5
討@@ 5
設 5
設@@ 5
誘@@ 5
警@@ 5
讓@@ 5
讷 5
论 5
论@@ 5
试@@ 5
贊 5
赞 5
赞@@ 5
足 5
跡 5
軌 5
軽@@ 5
轉 5
轉@@ 5
辞@@ 5
辭@@ 5
辻@@ 5
迎@@ 5
返@@ 5
迭@@ 5
送 5
遂 5
邠@@ 5
郷@@ 5
郿@@ 5
配@@ 5
量 5
釣@@ 5
銭 5
錫@@ 5
鍾@@ 5
鎧 5
鎮 5
閉@@ 5
開 5
関 5
閻@@ 5
闕@@ 5
降@@ 5
険 5
險@@ 5
隴@@ 5
雷 5
電 5
霞 5
霞@@ 5
頁 5
項@@ 5
頓@@ 5
頡@@ 5
題 5
顓@@ 5
顕@@ 5
願 5
顯 5
顯@@ 5
顺 5
领@@ 5
饒@@ 5
騎 5
験@@ 5
骊@@ 5
體 5
魔 5
鲜@@ 5
鳩@@ 5
鷄@@ 5
鸟 5
鹅 5
麟 5
黎 5
黑 5
黙 5
鼓 5
ꙃ 5
ꚉ 5
ꚋ 5
Ꚏ 5
ꝗ 5
ꞩ@@ 5
갑 5
거 5
검@@ 5
골 5
궁 5
그 5
근 5
김 5
깃 5
꽃@@ 5
년 5
늘 5
덕 5
돌 5
돌@@ 5
따@@ 5
령 5
류 5
망@@ 5
맨@@ 5
물 5
백 5
범 5
불 5
블@@ 5
빅@@ 5
빈 5
빛@@ 5
살 5
샤 5
속@@ 5
숙 5
술 5
심 5
애 5
올@@ 5
워 5
윤 5
잠@@ 5
쟁@@ 5
절@@ 5
줄@@ 5
즈 5
직@@ 5
찌@@ 5
침 5
탑 5
특@@ 5
퍼 5
편 5
후@@ 5
 5
﬩ 5
ﭺ 5
ﺑ@@ 5
ﺘ@@ 5
ﺩ 5
ﺱ 5
ﺹ 5
ﺽ 5
ﻅ 5
ﻗ@@ 5
ﻨ@@ 5
ﻫ@@ 5
＞ 5
Ｍ@@ 5
𐌰 5
𐎹@@ 5
𝐾 5
𝑇@@ 5
🇲 5
🌒 5
🔺 5
0er 4
Chúng 4
Cumhur@@ 4
Cộng 4
Danh 4
Después 4
Fue 4
Giải 4
Güney 4
Kanisa 4
Khi 4
Ligi 4
Liên 4
Nhân 4
Pháp 4
Selon 4
Trường 4
aliwa 4
allem 4
américain 4
arbeitete 4
aştır@@ 4
befin@@ 4
beledi@@ 4
bió 4
carrière 4
chuy@@ 4
chí 4
cá 4
còn 4
cô 4
cổ 4
damit 4
diciembre 4
diferentes 4
diğ@@ 4
dogo 4
doğru 4
durant 4
dù 4
düz@@ 4
encontr@@ 4
escrit@@ 4
fark@@ 4
fuat@@ 4
führte 4
geführt 4
gegründet 4
hakk@@ 4
iliy@@ 4
iliş@@ 4
imleri 4
iriki 4
ishwa 4
için 4
julio 4
kisi@@ 4
kısm@@ 4
lamu 4
lerine 4
lerinin 4
liko 4
luego 4
lên 4
lık@@ 4
mji 4
musste 4
müc@@ 4
mẹ 4
nahmen 4
nguyên 4
nommé 4
nữ 4
okana 4
olmuştur 4
pobl@@ 4
primeros 4
quá 4
rün@@ 4
seph 4
sezon@@ 4
shule 4
sẽ 4
tarih@@ 4
territoire 4
thuộc 4
thắng 4
trí 4
uzun 4
vua 4
với 4
wanza 4
weitere 4
zeichnet 4
 4
ª@@ 4
ành 4
àu 4
álb@@ 4
ãng 4
ächst 4
çek@@ 4
çev@@ 4
équi@@ 4
êng 4
ính 4
ísticas 4
Ċ@@ 4
đó 4
Ĥ 4
Ĥ@@ 4
ındaki 4
ĳ@@ 4
Ĺ 4
Ŝ@@ 4
Ŭ@@ 4
Ů 4
Ű 4
ŵ 4
ƌ 4
ƕ 4
Ʀ 4
Ʃ 4
Ư@@ 4
ưởng 4
ượng 4
ƿ 4
ǘ 4
ǚ@@ 4
Ǟ 4
Ǩ 4
ȏ@@ 4
Ȫ 4
ɤ@@ 4
ɭ@@ 4
ʅ 4
ʇ 4
ʗ 4
ʙ@@ 4
ʛ 4
ʥ 4
ʮ 4
ʯ 4
ˎ 4
ˢ@@ 4
ˮ 4
˯ 4
̔ 4
̴ 4
̹ 4
ͅ@@ 4
͕ 4
ͳ 4
Έχ@@ 4
Αμερ@@ 4
Αυτό 4
Βαλ@@ 4
Βασίλ@@ 4
Νο@@ 4
Πολιτ@@ 4
Σε 4
Στην 4
Ϊ 4
άλλη 4
άσεις 4
ήμερα 4
ίο 4
αίσ@@ 4
αρχι@@ 4
βιβ@@ 4
βορ@@ 4
γιο 4
διαφ@@ 4
δρα@@ 4
εικ@@ 4
ειλ@@ 4
ειών 4
ενός 4
επισ@@ 4
επιστ@@ 4
ερα 4
ζή@@ 4
ησε 4
ητή 4
ητική 4
θεν@@ 4
ικούς 4
ισμ@@ 4
ιστική 4
κο 4
κυκλ@@ 4
λίου 4
λιο 4
μέρες 4
μεγαλ@@ 4
μενα 4
μικ@@ 4
μόνο 4
οσπον@@ 4
παρα@@ 4
πηγ@@ 4
πολύ 4
πουδ@@ 4
πυρ@@ 4
πως 4
πόλ@@ 4
ρή@@ 4
ρού 4
σίες 4
στατ@@ 4
στε 4
στικά 4
στρ@@ 4
στρατιω@@ 4
συγκ@@ 4
σώ@@ 4
τερ 4
τευ@@ 4
τηρ@@ 4
τικών 4
τιο 4
τρία 4
τρια 4
φάν@@ 4
ψηφ@@ 4
όμενη 4
όνα 4
όπου 4
ϕ@@ 4
Ϙ 4
Ϡ 4
Южна 4
във 4
голяма 4
държав@@ 4
когато 4
което 4
ноември 4
смъртта 4
стта 4
създа@@ 4
февру@@ 4
чната 4
ѭ@@ 4
Ҍ@@ 4
ҏ 4
ҝ 4
Ҟ 4
Ҵ 4
Ӕ 4
Ӗ@@ 4
Ӵ@@ 4
ԍ 4
ԑ 4
Ծ 4
Կ 4
Չ 4
Ռ 4
ױ 4
آ 4
أح@@ 4
أخ@@ 4
أس@@ 4
أص@@ 4
أف@@ 4
أي@@ 4
إذا 4
ائر 4
ائية 4
اج 4
ادی 4
اذ@@ 4
ارد 4
ارف 4
اري 4
اری 4
اسلام 4
اط 4
اف 4
اك 4
الأس@@ 4
البا@@ 4
البح@@ 4
التص@@ 4
الث@@ 4
الدي@@ 4
الرح@@ 4
الرو@@ 4
الري@@ 4
الشر@@ 4
الض@@ 4
العام 4
العامة 4
العظ@@ 4
العل@@ 4
الفر@@ 4
الفل@@ 4
القر@@ 4
اللغة 4
الم 4
المس@@ 4
المش@@ 4
المق@@ 4
الملك 4
امام 4
امل 4
امي 4
امی@@ 4
اور@@ 4
این 4
باب@@ 4
بيل 4
تب 4
تج@@ 4
تخ@@ 4
تست@@ 4
تص@@ 4
تين 4
جان@@ 4
جر@@ 4
جم 4
حال 4
حر@@ 4
حض@@ 4
خار@@ 4
خت 4
خر@@ 4
خص@@ 4
خط@@ 4
خي@@ 4
خی@@ 4
داء 4
داد 4
دان@@ 4
درا@@ 4
دس 4
دل 4
دولة 4
دون 4
دون@@ 4
دى 4
رار 4
رانی 4
رج@@ 4
رف@@ 4
رق@@ 4
رین 4
زمان@@ 4
سات 4
سال 4
سام@@ 4
سرائ@@ 4
سفر 4
سم 4
سور@@ 4
شام 4
ضاء 4
طف@@ 4
علا@@ 4
فيها 4
قي 4
قي@@ 4
كث@@ 4
لش@@ 4
لغ@@ 4
لن 4
لن@@ 4
مت 4
مز 4
مسي@@ 4
مع 4
مل 4
ملی 4
نان 4
نز@@ 4
نف@@ 4
نم@@ 4
نو 4
نوا@@ 4
هذا 4
واء 4
واز 4
والا 4
وان@@ 4
وث@@ 4
وس 4
وغ@@ 4
ولا@@ 4
وي 4
يف 4
يني@@ 4
يُ@@ 4
ّة 4
٠ 4
٣@@ 4
٤@@ 4
٬ 4
ٹ 4
پاک@@ 4
پور@@ 4
چا 4
چار 4
چل@@ 4
چی 4
ڑ 4
کان 4
کو 4
کے 4
گی@@ 4
ۋ@@ 4
۸@@ 4
ܕ 4
ܡ 4
ܥ 4
ܼ 4
ݪ@@ 4
ރ@@ 4
ު@@ 4
ँ@@ 4
अम@@ 4
आत 4
आर 4
ई 4
उपा@@ 4
ऐ@@ 4
और 4
कै@@ 4
खा 4
ङ@@ 4
चंद 4
चार 4
छ 4
जय 4
जय@@ 4
जी 4
झ 4
ठ@@ 4
णा@@ 4
तक 4
तत 4
तन 4
तम 4
था@@ 4
दर 4
देवी 4
धी 4
नर 4
ने 4
पत 4
पश 4
पा 4
पार 4
पाल 4
बर 4
भि@@ 4
भू@@ 4
मर 4
मान 4
यम 4
यान 4
ळ@@ 4
वस 4
वी@@ 4
शु@@ 4
सम@@ 4
सि@@ 4
हन 4
हिंदी 4
हिन 4
हु@@ 4
१ 4
আ 4
ই@@ 4
গ 4
ছ@@ 4
ঠ@@ 4
ড 4
প 4
ব 4
ਆ@@ 4
ਖ 4
ਖ@@ 4
ਤ@@ 4
ਦ@@ 4
ਮ 4
ੰ@@ 4
ત@@ 4
ા 4
ુ@@ 4
ங@@ 4
ச 4
న 4
ె@@ 4
ಇ@@ 4
ಚ@@ 4
಼ 4
ം@@ 4
ണ@@ 4
ധ 4
ധ@@ 4
മ 4
റ 4
വ 4
ഷ@@ 4
ാ 4
ീ 4
ീ@@ 4
േ 4
േ@@ 4
ർ 4
ට@@ 4
ඩ@@ 4
ස 4
กร@@ 4
กล@@ 4
กุ@@ 4
จำ@@ 4
ตร 4
ตัว@@ 4
ติ 4
ถ 4
ทธ@@ 4
ธา@@ 4
พล@@ 4
พุทธ@@ 4
มั@@ 4
มิ@@ 4
รัก 4
รา 4
ราม 4
วง 4
วน 4
วา@@ 4
สัง@@ 4
สี@@ 4
หญิง 4
หล@@ 4
ฬ@@ 4
ฮ 4
ัง@@ 4
ัย@@ 4
ึ 4
ึ@@ 4
เจ@@ 4
เมือง 4
แล@@ 4
โค@@ 4
ຍ@@ 4
ດ 4
ຕ@@ 4
ບ 4
ພ@@ 4
ະ 4
ົ 4
ཀ 4
ཝ 4
ྶ@@ 4
ྷ@@ 4
ဗ@@ 4
ယ 4
ယ@@ 4
Ⴒ@@ 4
Ⴕ@@ 4
Ⴖ@@ 4
Ⴡ 4
ᄒ 4
ሃ@@ 4
ል 4
ሕ 4
ሬ 4
ሰ 4
ቅ@@ 4
በ 4
ና 4
ና@@ 4
አ 4
ያ 4
ይ 4
ደ 4
ጠ@@ 4
ጵ@@ 4
ፋ@@ 4
Ꭶ@@ 4
ᓯ@@ 4
ᕽ 4
ᚾ@@ 4
ᛏ 4
ᛒ 4
ᛚ@@ 4
គ@@ 4
ង@@ 4
ជ 4
ទ 4
ល 4
អ@@ 4
ី@@ 4
ᠯ 4
ᠸ@@ 4
ᡵ@@ 4
ᱚ@@ 4
ᴗ@@ 4
ᵏ 4
ᵖ 4
ᵗ 4
ᶣ 4
ḃ 4
ḋ 4
ḗ 4
Ḣ@@ 4
ḧ 4
Ḷ 4
ḿ@@ 4
Ṇ 4
Ṡ 4
ṵ 4
ṽ@@ 4
ẕ 4
ạt 4
ầm 4
ậ@@ 4
ậu 4
ắ 4
ết 4
ề@@ 4
ễ 4
ệt 4
ệu 4
ọa 4
ọn 4
ối 4
ớ 4
ời 4
ợ 4
Ụ 4
ἀ 4
ἥ@@ 4
ὤ 4
ὥ@@ 4
ὼ 4
ᾱ@@ 4
ᾴ@@ 4
ῐ@@ 4
ῑ@@ 4
ῤ@@ 4
ῶ 4
‼ 4
‽ 4
⁣ 4
₠ 4
₧ 4
₫ 4
₱ 4
₵ 4
₷ 4
₼ 4
₾ 4
₿ 4
ℛ@@ 4
℥ 4
Ⅲ 4
ↀ 4
⇄ 4
⇢ 4
∎ 4
≲ 4
⊊ 4
⌈ 4
⌉ 4
Ⓐ 4
ⓒ 4
▼ 4
◊ 4
♑ 4
♒ 4
♜ 4
♩ 4
✻ 4
❤ 4
⠟ 4
⠭ 4
⠱ 4
⠵ 4
⠺ 4
⠻ 4
ⰲ@@ 4
ⰿ@@ 4
ⱄ@@ 4
Ⱬ 4
Ɱ 4
Ɒ 4
ⲇ@@ 4
ⲟ 4
ⲣ 4
ⴷ 4
ⵡ@@ 4
〇 4
〇@@ 4
〵 4
ぁ 4
ぐ 4
ど 4
ゝ 4
ゝ@@ 4
ギ 4
デ 4
ニ 4
ホ 4
ボ 4
ヤ 4
ヲ 4
ㄧ@@ 4
ㅁ 4
ㅇ@@ 4
ㅋ 4
ㅓ 4
ㅡ 4
ㆍ 4
不 4
乙 4
予@@ 4
争 4
争@@ 4
互@@ 4
亹@@ 4
仇@@ 4
仓 4
仔 4
价@@ 4
伏 4
伟 4
伦 4
似@@ 4
伽 4
佳 4
例 4
便 4
倍 4
借@@ 4
倶@@ 4
偕 4
側 4
傅 4
傷@@ 4
僚@@ 4
兆 4
兌 4
児@@ 4
兗@@ 4
全 4
兮 4
共和国 4
具@@ 4
円@@ 4
冉@@ 4
冒@@ 4
冬 4
凌 4
凤 4
凯@@ 4
凶 4
列 4
到@@ 4
刷 4
剌@@ 4
剑 4
剧@@ 4
劇 4
劳@@ 4
勉@@ 4
勐@@ 4
勿 4
匠@@ 4
匪@@ 4
医 4
匿 4
午 4
卦 4
卦@@ 4
卧@@ 4
危@@ 4
厥 4
厥@@ 4
厳@@ 4
又 4
双 4
反 4
变@@ 4
叠@@ 4
叡 4
只 4
吟 4
听 4
哲 4
唯@@ 4
啜 4
喋@@ 4
嘴@@ 4
因 4
国家 4
圏 4
圣 4
圭@@ 4
圳 4
址 4
坑 4
坛 4
坛@@ 4
垠 4
埋@@ 4
堀 4
堤@@ 4
堯 4
塗@@ 4
塘 4
壮 4
壹@@ 4
壺@@ 4
奄@@ 4
奚@@ 4
奧@@ 4
奶@@ 4
妹@@ 4
姐 4
姚 4
娑@@ 4
娜@@ 4
婁 4
婚 4
嬴 4
孔 4
宅@@ 4
宓@@ 4
宰@@ 4
寒 4
尔 4
尖@@ 4
尸 4
属 4
岔@@ 4
岫@@ 4
峦@@ 4
峻@@ 4
嵊@@ 4
嵩 4
嶺 4
巍@@ 4
巫@@ 4
巷 4
巷@@ 4
帆 4
帖 4
席@@ 4
帶 4
幾@@ 4
庁@@ 4
序@@ 4
库 4
应 4
廖@@ 4
廢@@ 4
廷 4
引@@ 4
弟 4
弦 4
張 4
弾@@ 4
很@@ 4
徐 4
忆 4
忍 4
応 4
怪 4
恆 4
恨@@ 4
惡@@ 4
愈 4
慰@@ 4
憂@@ 4
懿 4
戾@@ 4
扒 4
承 4
把 4
抚 4
抽@@ 4
拱 4
拼@@ 4
拿@@ 4
持 4
捕@@ 4
援 4
摘 4
摘@@ 4
撮@@ 4
撰@@ 4
擒@@ 4
攝@@ 4
敎 4
敕@@ 4
敖@@ 4
敞 4
整 4
數 4
斉@@ 4
斑@@ 4
斤@@ 4
斬 4
於 4
旅 4
昇@@ 4
映 4
昨@@ 4
昴@@ 4
晟@@ 4
晨@@ 4
晩@@ 4
暴@@ 4
曉@@ 4
朋 4
朴 4
朶@@ 4
杉@@ 4
杞@@ 4
杯 4
枫@@ 4
柴@@ 4
栎@@ 4
栖 4
栗 4
样@@ 4
桂 4
桜 4
條@@ 4
梦 4
植 4
椒@@ 4
楊 4
楓@@ 4
榴@@ 4
構@@ 4
槐@@ 4
標 4
橐@@ 4
權 4
欣 4
欣@@ 4
止 4
歴 4
歷 4
殷 4
毅@@ 4
每@@ 4
毛 4
汉 4
汪 4
決@@ 4
沐@@ 4
没 4
沪@@ 4
沾@@ 4
洵@@ 4
浜@@ 4
浦 4
涂@@ 4
消@@ 4
涉@@ 4
涌 4
涞@@ 4
淑@@ 4
淦@@ 4
渊@@ 4
渓@@ 4
渝 4
渝@@ 4
渡 4
温 4
渾@@ 4
湛 4
湿@@ 4
溫 4
滃@@ 4
滋@@ 4
滴@@ 4
漸@@ 4
澎@@ 4
澤 4
濃 4
炉@@ 4
炭@@ 4
点 4
焉 4
燈@@ 4
爲 4
爾 4
牍 4
犁 4
犁@@ 4
狄 4
狗 4
献@@ 4
獎 4
獸 4
獻@@ 4
琛 4
琦 4
琮 4
琰 4
瑟@@ 4
瑤 4
瓯 4
瓶@@ 4
甄@@ 4
甚@@ 4
產 4
畢 4
畢@@ 4
疑@@ 4
病@@ 4
百 4
盂@@ 4
盈@@ 4
监@@ 4
監@@ 4
眾@@ 4
砂@@ 4
碗 4
碾@@ 4
祈@@ 4
祐@@ 4
祚 4
祯@@ 4
禁 4
禧 4
禿@@ 4
種 4
稲 4
穎@@ 4
穰@@ 4
突 4
窑 4
窦@@ 4
竇@@ 4
童 4
筠@@ 4
筮@@ 4
篆@@ 4
粉 4
紅 4
紹 4
終 4
結 4
統 4
綱 4
綴@@ 4
綺@@ 4
緑@@ 4
緒 4
緒@@ 4
緣@@ 4
緯 4
緯@@ 4
織 4
纯@@ 4
纺@@ 4
组@@ 4
络 4
统 4
继@@ 4
绪 4
罢@@ 4
翁 4
聚 4
聚@@ 4
肺@@ 4
胥 4
腺 4
臧 4
臧@@ 4
臭 4
臭@@ 4
與 4
舉@@ 4
舌@@ 4
舎 4
艇 4
芋@@ 4
芝 4
芽 4
苏 4
若 4
荆 4
荫@@ 4
药@@ 4
萊@@ 4
萨 4
葬 4
葵 4
蒗@@ 4
蓄@@ 4
蓼@@ 4
蕃 4
薄 4
薬 4
藩@@ 4
藻 4
號@@ 4
蛟@@ 4
蛮@@ 4
蝴@@ 4
螺@@ 4
蠡@@ 4
蠶@@ 4
蠻@@ 4
裔@@ 4
裡@@ 4
裳@@ 4
製 4
襲 4
規 4
覚 4
訓@@ 4
訟 4
詔@@ 4
読@@ 4
談@@ 4
謀@@ 4
謐 4
識@@ 4
譚 4
議 4
譲@@ 4
變@@ 4
让@@ 4
谈 4
豊 4
豪 4
負@@ 4
賓 4
贝 4
赉@@ 4
赵 4
趣 4
跌@@ 4
軒@@ 4
載 4
輝@@ 4
輸@@ 4
輿 4
转@@ 4
软@@ 4
轻@@ 4
辉 4
辑@@ 4
辣 4
込@@ 4
还@@ 4
述@@ 4
迹@@ 4
退@@ 4
逆@@ 4
逢@@ 4
過 4
遗@@ 4
遷@@ 4
選@@ 4
邊@@ 4
邗@@ 4
郃@@ 4
郯@@ 4
郾@@ 4
鄧 4
酃@@ 4
醉@@ 4
醫@@ 4
釜@@ 4
釵 4
鎬 4
鐵 4
鑑 4
钢@@ 4
钧 4
铺 4
锡 4
閭 4
闇 4
问@@ 4
阝 4
阮@@ 4
阶@@ 4
陈 4
陛@@ 4
険@@ 4
隋@@ 4
隱@@ 4
雙@@ 4
雞 4
露 4
靜 4
響 4
頊 4
须@@ 4
饅@@ 4
饭@@ 4
馀@@ 4
馨@@ 4
駕@@ 4
验@@ 4
魁 4
鱼 4
鳖 4
鳖@@ 4
鴨@@ 4
鵬 4
鷺 4
鸳@@ 4
鹑@@ 4
鹰 4
鹽@@ 4
黃 4
黾@@ 4
鼠@@ 4
ꆈ@@ 4
Ꙋ@@ 4
ꙑ 4
Ꚍ 4
ꚍ 4
ꚏ 4
ꚓ 4
ꞌ 4
Ꞓ 4
ꟈ 4
꭪ 4
꭫ 4
각@@ 4
감 4
갓@@ 4
검 4
게@@ 4
겠@@ 4
격@@ 4
곡@@ 4
골@@ 4
궁@@ 4
권 4
글 4
깨@@ 4
꼬@@ 4
꿈@@ 4
낙@@ 4
넌 4
널 4
네 4
녀@@ 4
녕 4
놈 4
농@@ 4
담@@ 4
디 4
때@@ 4
란 4
란@@ 4
러 4
록 4
립 4
매@@ 4
맥 4
목 4
묵@@ 4
밥 4
번 4
별 4
본 4
봉 4
브 4
살@@ 4
숙@@ 4
쉬@@ 4
쌀 4
았@@ 4
애@@ 4
언 4
업@@ 4
예 4
옹@@ 4
완@@ 4
왜 4
읍 4
있@@ 4
적@@ 4
절 4
점@@ 4
중 4
즈@@ 4
채 4
채@@ 4
청 4
체 4
춘@@ 4
춤 4
칠@@ 4
크 4
키@@ 4
터 4
톡@@ 4
티 4
퍼@@ 4
편@@ 4
표 4
함 4
행@@ 4
헌@@ 4
형 4
형@@ 4
혼@@ 4
효 4
훈 4
 4
ﮐ@@ 4
ﺖ 4
ﺙ 4
ﺝ 4
ﺡ 4
ﻉ 4
ﻋ@@ 4
ﻙ 4
ﻭ 4
ﻰ 4
％ 4
＆ 4
８@@ 4
Ａ 4
Ｎ 4
𐎢@@ 4
𐎭@@ 4
𐎺@@ 4
𐏁 4
𐏁@@ 4
𐒖 4
𐤅 4
𐤌 4
𐤏@@ 4
𐤔 4
𐤕 4
𐭐@@ 4
𐭯@@ 4
𒀭@@ 4
𒊩@@ 4
𝑃 4
𝑆@@ 4
𝑜@@ 4
𝓟 4
𝖚 4
𝜑 4
🇦 4
🌘 4
Amerikan 3
Başkan@@ 3
Bộ 3
Chính 3
Eylül 3
Febru@@ 3
Gebäude 3
Hán 3
Kilom@@ 3
Kwa 3
Lý 3
Mã 3
Nó 3
Seit 3
Thế 3
Zweiten 3
acuer@@ 3
acuerdo 3
adamente 3
ambao 3
amment 3
amoja 3
andı 3
anlam@@ 3
arası 3
başkan@@ 3
başkanı 3
besteht 3
bilg@@ 3
bên 3
caractér@@ 3
châu 3
conocido 3
construcción 3
cuales 3
cảnh 3
desarrollo 3
değ@@ 3
duğu 3
dès 3
eceğ@@ 3
económ@@ 3
ejempl@@ 3
ejemplo 3
ensuite 3
entonces 3
eğ@@ 3
febrero 3
folgen@@ 3
gegrün@@ 3
gestell@@ 3
geçir@@ 3
göster@@ 3
hecho 3
hiyo 3
hiệu 3
huko 3
hàng 3
hóa 3
hội 3
imbali 3
imeh@@ 3
irse 3
junio 3
kilom@@ 3
konnte 3
kurul@@ 3
lenen 3
lã@@ 3
lại 3
lịch 3
lợi 3
marzo 3
miembros 3
muốn 3
nchi 3
nghĩa 3
nghị 3
ngữ 3
nhau 3
nhất 3
nombr@@ 3
número 3
nước 3
okea 3
oliki 3
partido 3
película 3
phóng 3
phố 3
programa 3
puede 3
rağ@@ 3
retir@@ 3
schließlich 3
sido 3
sollte 3
sonra 3
starb 3
takım 3
tarihi 3
thay 3
thành 3
thì 3
través 3
tritt 3
tượng 3
tế 3
từ 3
udur 3
unzi 3
usieurs 3
utilis@@ 3
vierte 3
văn 3
watoto 3
watu 3
weiten 3
wengi 3
wezi 3
yake 3
yote 3
zunächst 3
zuri 3
 3
 3
Û@@ 3
ãn 3
également 3
étaient 3
önem@@ 3
úp 3
ünü 3
ünün 3
Đảng 3
Đế 3
Độ 3
đo@@ 3
đoàn 3
đô 3
đường 3
đầu 3
ĩnh 3
Į@@ 3
İlk 3
ıca 3
ıkları 3
ılan 3
ılı 3
ısında 3
Ĳ@@ 3
şark@@ 3
ŷ 3
Ƃ 3
Ƒ 3
Ɠ 3
Ƙ 3
ƙ 3
Ơ@@ 3
ơn 3
ƨ 3
ƫ 3
ươ@@ 3
ướng 3
Ʊ@@ 3
ƽ 3
Ǥ 3
ǭ 3
Ǯ@@ 3
Ƕ@@ 3
Ǽ@@ 3
ȅ@@ 3
Ȝ 3
ȥ 3
ȧ@@ 3
ȩ 3
ȸ 3
ȹ 3
ȿ 3
ɀ 3
Ɂ 3
Ɂ@@ 3
ɠ 3
ɥ@@ 3
ɧ 3
ɮ@@ 3
ɺ 3
ʄ 3
ʍ 3
ʞ 3
ʡ@@ 3
ʣ 3
˦ 3
̛ 3
̜ 3
̬ 3
̼ 3
͍ 3
Έτσι 3
Ώ@@ 3
Αυγ@@ 3
Δήμ@@ 3
Ιω@@ 3
Μακ@@ 3
ΠΑ 3
Σεπ@@ 3
Τον 3
Φρ@@ 3
Ϋ@@ 3
άνει 3
ένας 3
έρχεται 3
έστ@@ 3
ήρω@@ 3
ήταν 3
ήχ@@ 3
ίδι 3
ίδι@@ 3
ίδια 3
ίζει 3
ανθρ@@ 3
ανου@@ 3
αντί@@ 3
αρχαι@@ 3
ασίας 3
αυτο@@ 3
γαλ@@ 3
γκ 3
γμα 3
γνωστ@@ 3
δίας 3
δη@@ 3
δημιουργ@@ 3
δοση 3
εδρος 3
εκ 3
εκκλη@@ 3
εμπ@@ 3
ενέργ@@ 3
επικ@@ 3
ερ 3
ημάτων 3
θέσεις 3
θρη@@ 3
ικαν@@ 3
ισμό 3
ιστορία 3
κάπο@@ 3
καλλι@@ 3
καλύ@@ 3
κατέ@@ 3
κατο@@ 3
κοντά 3
κόρ@@ 3
λίγ@@ 3
λαμβ@@ 3
λειτουργ@@ 3
λεξ@@ 3
μαζί 3
μετά@@ 3
μεταξύ 3
μιο 3
νερ@@ 3
ξει 3
ογράφ@@ 3
οικονομ@@ 3
οπλ@@ 3
οποί@@ 3
οχή 3
πέν@@ 3
παιδιά 3
παλαι@@ 3
παράδ@@ 3
πλη@@ 3
πολλά 3
πρι@@ 3
προστ@@ 3
πρόεδρος 3
ριβ@@ 3
σύστημα 3
τάν@@ 3
τήρ@@ 3
τηλε@@ 3
τησε 3
τηση 3
τοπο@@ 3
τουργ@@ 3
υψ@@ 3
φή 3
χο 3
χώ@@ 3
όδου 3
όχι 3
ώνες 3
Ϝ 3
ϣ@@ 3
Ϫ 3
ϫ@@ 3
ϰ 3
ϲ 3
ϵ 3
Ϻ 3
баща 3
които 3
кът 3
окръг 3
продъл@@ 3
пър@@ 3
сън 3
съще@@ 3
херцо@@ 3
църква 3
щето 3
ѯ 3
ѱ 3
Ѹ@@ 3
ѻ@@ 3
ҁ 3
҅ 3
Ҋ 3
Ҏ 3
ҏ@@ 3
ҝ@@ 3
ҟ 3
Ҧ@@ 3
Ҩ 3
Ҽ 3
ӂ@@ 3
Ӆ@@ 3
ӌ@@ 3
Ӎ 3
Ӑ@@ 3
ӛ 3
Ӳ@@ 3
ӿ 3
Ԁ 3
Ԃ 3
Ԅ 3
Ԍ 3
Ԑ 3
Ԛ 3
ԛ 3
ԣ 3
ԥ 3
Ԧ 3
Ԫ 3
Է 3
Ը@@ 3
Թ 3
Լ 3
Ձ 3
Ձ@@ 3
Ճ 3
Պ 3
Ջ 3
Ց 3
ՠ 3
ձ 3
֏ 3
֫ 3
ֿ 3
װ 3
؛ 3
أي 3
ابة 3
اث@@ 3
اجتم@@ 3
ادب 3
اسم@@ 3
اض 3
اعظم 3
افظ 3
الإسلا@@ 3
الات 3
الاست@@ 3
الان@@ 3
التح@@ 3
التر@@ 3
الجام@@ 3
الجز@@ 3
الحر@@ 3
الحزب 3
الدین 3
العمل 3
القدي@@ 3
المؤ@@ 3
المه@@ 3
انگ@@ 3
اون 3
اية 3
اُ@@ 3
اک 3
ایل 3
بات@@ 3
باد 3
بالإ@@ 3
بغ@@ 3
بلا 3
بند 3
بني 3
بو 3
بين 3
بیان 3
ةً 3
تاب 3
ترا@@ 3
تش 3
ثق@@ 3
جب 3
جد@@ 3
حضرت 3
حل@@ 3
خلا@@ 3
دری@@ 3
دست@@ 3
دش@@ 3
دية 3
ديدة 3
دُ@@ 3
ذر@@ 3
ذكر 3
ذلك 3
رام 3
راً 3
رر 3
رم 3
زة 3
زر@@ 3
زمین 3
زن 3
زيرة 3
سما@@ 3
سیم 3
سے 3
شار@@ 3
شاعر 3
شاہ 3
شب@@ 3
شل 3
شن@@ 3
شک@@ 3
صدر 3
ضي@@ 3
طرح 3
طي@@ 3
عند 3
عی@@ 3
غير 3
فار@@ 3
فرو@@ 3
فضل 3
فن@@ 3
فی@@ 3
قات 3
كان@@ 3
كر 3
كرة 3
كري@@ 3
كز 3
كو@@ 3
لاد 3
لار@@ 3
لان@@ 3
لت 3
لف 3
للا@@ 3
مب@@ 3
مبار@@ 3
مثل 3
مجلس 3
ملک 3
مون@@ 3
مى 3
نادي 3
ناصر 3
نامج 3
ندي 3
نق@@ 3
هد 3
هما 3
هو 3
هي 3
وجد 3
ود@@ 3
ورا@@ 3
ورية 3
وع@@ 3
ولاية 3
وني 3
ويك@@ 3
ويل 3
يح@@ 3
يس 3
يع@@ 3
يف@@ 3
يق@@ 3
يل@@ 3
يمية 3
يو 3
ً@@ 3
٢ 3
٣ 3
ٰ@@ 3
پر 3
پور 3
چو@@ 3
چھ@@ 3
چی@@ 3
ڌ@@ 3
ڕ@@ 3
ږ@@ 3
کت@@ 3
کن@@ 3
ڭ@@ 3
ڮ 3
گن@@ 3
گو@@ 3
ڵ@@ 3
ۀ 3
ہی@@ 3
ۆ@@ 3
ێ@@ 3
۲ 3
۳@@ 3
۷@@ 3
۸ 3
ܚ 3
ܟ 3
ܪ 3
ܶ@@ 3
ހ@@ 3
ރ 3
ދ@@ 3
ޔ@@ 3
ޖ@@ 3
߾ 3
ंच@@ 3
ंड@@ 3
ंत 3
अक 3
अग 3
इतिहास 3
इन 3
उत 3
ऋ@@ 3
ए 3
कन 3
कवि@@ 3
कश 3
कि@@ 3
की@@ 3
गर 3
गां@@ 3
गी 3
चन 3
चित 3
चु@@ 3
छा@@ 3
जन 3
जन@@ 3
जीवन 3
जे@@ 3
टा 3
टा@@ 3
डो@@ 3
तान 3
ते@@ 3
तो@@ 3
दास 3
दि 3
दुर 3
देश 3
धि 3
नन 3
नो@@ 3
पार@@ 3
पि@@ 3
पे@@ 3
पै@@ 3
फ@@ 3
बंध 3
बी@@ 3
भव 3
भारत 3
भाव 3
भो@@ 3
मार@@ 3
मुख 3
मृत 3
यास 3
ये 3
राजा 3
रूप 3
रे 3
लाल 3
लु@@ 3
ले@@ 3
वाद 3
वार 3
वी 3
वो@@ 3
शक 3
शास 3
साहित 3
सिं@@ 3
सिंह 3
सिद 3
सो@@ 3
हिं@@ 3
हो@@ 3
िक 3
ीय 3
ृ 3
ै@@ 3
० 3
३@@ 3
८ 3
॰ 3
উ 3
উ@@ 3
খ 3
ঢ 3
ধ 3
ষ 3
ਂ 3
ਂ@@ 3
ਅ 3
ਏ 3
ਘ 3
ਤ 3
ਮ@@ 3
ੂ 3
ક@@ 3
ત 3
ન@@ 3
પ@@ 3
લ@@ 3
વ@@ 3
ஃ 3
ஈ 3
ஈ@@ 3
ஊ@@ 3
ஏ@@ 3
ஐ@@ 3
ஸ 3
ீ@@ 3
అ 3
ఖ 3
ఝ 3
థ 3
ద 3
ధ 3
బ 3
స 3
ో@@ 3
ಂ 3
ಒ 3
ಘ 3
ಝ 3
ಣ 3
ಪ 3
ಷ 3
ೀ@@ 3
ೈ@@ 3
ೋ@@ 3
ങ@@ 3
ജ@@ 3
ദ@@ 3
ബ@@ 3
ൈ@@ 3
ൊ@@ 3
ൌ 3
ඇ@@ 3
ට 3
ණ 3
ී@@ 3
กั@@ 3
กา@@ 3
คล@@ 3
คำ@@ 3
ฅ 3
จิ@@ 3
ชา 3
ชาติ 3
ฐ@@ 3
ฒ 3
ดา 3
ดี 3
ตร@@ 3
ตะ@@ 3
ตุ@@ 3
ถ@@ 3
ทั@@ 3
ทา@@ 3
ธรรม 3
นา 3
บร@@ 3
ปร@@ 3
ปรา@@ 3
พล 3
ภา 3
ภา@@ 3
ภาษา@@ 3
มพ@@ 3
มาร@@ 3
รถ@@ 3
ลา 3
ลำ@@ 3
ลูก@@ 3
ศัก@@ 3
ศิลป@@ 3
ษฎ@@ 3
สน@@ 3
สอง 3
หัว@@ 3
อนุ@@ 3
อั@@ 3
อำ@@ 3
อำเภอ 3
อิน@@ 3
ักษ@@ 3
เก@@ 3
เช@@ 3
เซ@@ 3
เธอ 3
เบ@@ 3
แดง 3
แผ@@ 3
แม@@ 3
แส@@ 3
โย@@ 3
ไฟ 3
ๆ 3
ຄ@@ 3
ງ@@ 3
ມ 3
ມ@@ 3
ຣ@@ 3
ີ 3
ຸ@@ 3
ཡ 3
ཾ 3
ྙ@@ 3
ྟ 3
ྷ 3
ဇ@@ 3
ဌ@@ 3
ဍ@@ 3
ဟ 3
ဟ@@ 3
ဦ@@ 3
ံ 3
ြ 3
၏ 3
ႆ@@ 3
Ⴂ@@ 3
Ⴋ@@ 3
Ⴍ 3
Ⴔ@@ 3
Ⴗ@@ 3
Ⴥ 3
ძ 3
ჰ 3
ჶ 3
ჸ 3
ሄ@@ 3
ህ@@ 3
ለ 3
ሊ@@ 3
ላ 3
ሎ@@ 3
ሐ 3
ሲ@@ 3
ብ 3
ቦ@@ 3
ተ@@ 3
ቱ@@ 3
ቶ@@ 3
ኀ 3
ከ 3
ከ@@ 3
ክ 3
ዋ@@ 3
ዐ@@ 3
ዕ@@ 3
ዬ 3
ጎ@@ 3
ጽ@@ 3
ፀ 3
ፈ@@ 3
ፋ 3
ፍ 3
፻ 3
Ꭲ 3
Ꭺ@@ 3
Ꮼ@@ 3
Ꮿ 3
ᐋ@@ 3
ᐟ 3
ᐸ 3
ᑖ@@ 3
ᑭ@@ 3
ᑲ 3
ᓱ@@ 3
ᓴ@@ 3
ᔨ@@ 3
ᔭ@@ 3
ᕋ@@ 3
ᕐ@@ 3
ᕙ 3
ᚢ 3
ᚢ@@ 3
ᚦ 3
ᚨ 3
ᚲ 3
ᚴ 3
ᚷ 3
ᚺ@@ 3
ᚾ 3
ᛁ 3
ᛖ@@ 3
ᛞ 3
ᛦ 3
᜔ 3
ខ@@ 3
ឃ 3
ច@@ 3
ហ@@ 3
ី 3
េ 3
ះ@@ 3
ៈ 3
់ 3
ᠢ@@ 3
ᠦ@@ 3
ᠩ 3
ᠬ@@ 3
ᠷ 3
ᡳ 3
ᥠ 3
᩠ 3
ᱟ@@ 3
ᱤ 3
ᴀ@@ 3
ᴙ@@ 3
ᵀ 3
ᵐ 3
ᵑ@@ 3
ᵛ@@ 3
ᵻ 3
ᶑ 3
ḋ@@ 3
Ḡ 3
Ḡ@@ 3
Ḧ 3
ḩ@@ 3
Ṕ 3
ṕ@@ 3
ṟ 3
ṡ@@ 3
ṧ@@ 3
Ṯ@@ 3
ẃ 3
Ẍ 3
ẍ 3
Ẑ 3
ẑ 3
Ẓ 3
ẟ 3
ạp 3
ản 3
ảy 3
Ấ@@ 3
ặ 3
ếm 3
ề 3
ể 3
ễ@@ 3
ễn 3
ệm 3
Ị 3
ồ 3
ộ@@ 3
ội 3
ới 3
ụng 3
ức 3
ử@@ 3
Ữ@@ 3
ự@@ 3
ực 3
ἂ@@ 3
ἃ@@ 3
ἓ@@ 3
ἠ 3
ἦ@@ 3
Ἥ@@ 3
ὀ 3
ὦ 3
ᾱ 3
῀ 3
ῃ@@ 3
ῴ@@ 3
‴ 3
⁃ 3
₯ 3
₳ 3
₶ 3
ℂ 3
℉ 3
ℨ@@ 3
Ⅳ 3
Ⅴ@@ 3
Ⅻ 3
ↄ 3
⇆ 3
∟ 3
∽ 3
⋃ 3
⋮ 3
⌘ 3
⑧ 3
┘ 3
▐ 3
◘ 3
◤ 3
☑ 3
☨ 3
☰ 3
☵ 3
☾ 3
♄ 3
♐ 3
♚ 3
♛ 3
♞ 3
✡ 3
✦ 3
✳ 3
❜ 3
❬ 3
❭ 3
⠁ 3
⠃ 3
⠄ 3
⠈ 3
⠉ 3
⠋ 3
⠏ 3
⠔ 3
⠙ 3
⠚ 3
⠛ 3
⠝ 3
⠞ 3
⠥ 3
⠧ 3
⠬ 3
⠮ 3
⠸ 3
⠽ 3
Ⱆ 3
ⰰ@@ 3
Ɽ 3
ⱪ@@ 3
Ɐ 3
ⲙ 3
ⲭ@@ 3
ⲱ 3
ⴲ 3
ⵆ 3
ⵌ@@ 3
ⵍ 3
ⵟ@@ 3
⸨ 3
⸩ 3
⺼ 3
〃 3
〢@@ 3
ぇ 3
ぇ@@ 3
ぞ@@ 3
ぢ 3
ぢ@@ 3
づ 3
ぶ 3
ォ 3
ゼ 3
ヌ 3
ㅉ 3
ㅜ 3
䨺 3
丈 3
丑 3
丙@@ 3
丛@@ 3
丝 3
两 3
中央 3
举@@ 3
乂@@ 3
乎 3
乞@@ 3
乱@@ 3
乳 3
亅 3
予 3
亘 3
些@@ 3
亥@@ 3
仄 3
今 3
们 3
伎 3
众 3
伴 3
伸 3
伸@@ 3
低@@ 3
余 3
佬 3
侃 3
侗@@ 3
供 3
侨@@ 3
係@@ 3
促@@ 3
俗 3
俗@@ 3
俳@@ 3
俺@@ 3
倒@@ 3
借 3
倪 3
倪@@ 3
倹 3
偏@@ 3
停@@ 3
傑 3
備 3
兑 3
兔@@ 3
兜 3
其 3
兽@@ 3
冑 3
冥 3
冰 3
决@@ 3
冶 3
净 3
几 3
几@@ 3
凡 3
凶@@ 3
击 3
刃@@ 3
刈@@ 3
刘 3
则 3
删@@ 3
判 3
别 3
刹 3
刺 3
剌 3
剖@@ 3
剡@@ 3
劃 3
劍@@ 3
努@@ 3
劫@@ 3
労@@ 3
势@@ 3
勉 3
務 3
勳 3
勳@@ 3
包括 3
匐 3
匠 3
匮@@ 3
卅 3
午@@ 3
卍 3
卐 3
卒@@ 3
卖 3
卖@@ 3
卩 3
历 3
厚@@ 3
厲@@ 3
取 3
叟 3
吝 3
吻 3
吻@@ 3
呈@@ 3
告 3
咲@@ 3
哈 3
售@@ 3
唱 3
啊 3
問 3
喇 3
喊 3
喪@@ 3
喫@@ 3
單@@ 3
営@@ 3
噠 3
嚈@@ 3
嚴 3
坎@@ 3
塊 3
填@@ 3
境 3
境@@ 3
墅@@ 3
墩 3
墩@@ 3
壇 3
壊 3
壘 3
夲 3
奉 3
奎 3
奔 3
奕@@ 3
奢@@ 3
奥 3
好 3
妖@@ 3
姆 3
姆@@ 3
姓@@ 3
娃@@ 3
娄 3
娇 3
娘@@ 3
娜 3
婁@@ 3
婴 3
媛 3
媪@@ 3
孚 3
孰@@ 3
孱@@ 3
完 3
宍@@ 3
宴@@ 3
宵 3
察 3
寬@@ 3
对 3
射 3
尋@@ 3
尧@@ 3
尽@@ 3
屍@@ 3
層@@ 3
屬 3
屿@@ 3
岐 3
岑 3
岢@@ 3
岩 3
岬 3
岸 3
峪@@ 3
峯 3
峻 3
崇 3
巖 3
巧@@ 3
巳 3
巽@@ 3
巾 3
希 3
帖@@ 3
席 3
帯 3
帯@@ 3
帰@@ 3
帶@@ 3
帽@@ 3
幽 3
庁 3
庇@@ 3
廁@@ 3
廃@@ 3
廓@@ 3
廣 3
廬@@ 3
廮@@ 3
异@@ 3
弄@@ 3
引 3
弗 3
弼 3
当 3
彗@@ 3
彙 3
彩 3
彪@@ 3
往 3
径@@ 3
忆@@ 3
忘 3
怜@@ 3
急@@ 3
怨 3
恢@@ 3
息 3
悔 3
悔@@ 3
悝 3
悦@@ 3
悲 3
悼@@ 3
惊@@ 3
惡 3
惹@@ 3
愉@@ 3
憐@@ 3
憶 3
懐@@ 3
懷 3
戊 3
戮@@ 3
戯@@ 3
戴 3
戶@@ 3
折 3
拂@@ 3
拔 3
拘@@ 3
挥@@ 3
挺@@ 3
捧@@ 3
掠@@ 3
掩@@ 3
掻@@ 3
握@@ 3
搂@@ 3
搜 3
摺@@ 3
撫@@ 3
擊 3
操@@ 3
改 3
攻@@ 3
效@@ 3
敖 3
教育 3
敬 3
斛 3
斜@@ 3
斥@@ 3
斬@@ 3
断@@ 3
旃@@ 3
旋@@ 3
旬@@ 3
时 3
旻 3
昏 3
昔 3
昴 3
晃 3
晋 3
普 3
晴 3
晶@@ 3
暉 3
暑@@ 3
暖@@ 3
曇 3
曉 3
曙@@ 3
曳@@ 3
曽 3
替@@ 3
最 3
朕@@ 3
朵@@ 3
权 3
杜 3
杨 3
杯@@ 3
析 3
枞@@ 3
枪 3
枳@@ 3
柔 3
柘@@ 3
查 3
查@@ 3
柱@@ 3
柿@@ 3
栃 3
栏@@ 3
栒@@ 3
桐 3
桑 3
桔@@ 3
桶@@ 3
梵@@ 3
检@@ 3
棘 3
棱 3
検@@ 3
楞 3
楢@@ 3
榕@@ 3
槃@@ 3
槊 3
槍@@ 3
槐 3
模 3
横 3
樺 3
樺@@ 3
橘@@ 3
橫@@ 3
檜@@ 3
檢 3
歙@@ 3
歲@@ 3
殊 3
殖@@ 3
殺 3
毋 3
毋@@ 3
毓 3
毗 3
毫 3
氐@@ 3
氵 3
汁@@ 3
求 3
汴@@ 3
沐 3
油 3
泡@@ 3
泫@@ 3
泽 3
洹@@ 3
洺@@ 3
测@@ 3
浏@@ 3
浓 3
浚 3
浴@@ 3
涌@@ 3
涙 3
涿@@ 3
淀@@ 3
淘@@ 3
渎@@ 3
渚@@ 3
渥@@ 3
游 3
準@@ 3
溝 3
溥@@ 3
溫@@ 3
滩 3
漁@@ 3
漏@@ 3
演 3
漫 3
漯@@ 3
潁@@ 3
潔 3
潔@@ 3
潜@@ 3
澄 3
澶@@ 3
濃@@ 3
濑@@ 3
濡@@ 3
濫@@ 3
濱@@ 3
瀋@@ 3
瀑@@ 3
瀚@@ 3
瀛@@ 3
灯@@ 3
灸@@ 3
焕@@ 3
焼 3
煮 3
營 3
燮 3
爐 3
爵@@ 3
爷@@ 3
爺 3
爽 3
牟 3
牢@@ 3
犀@@ 3
狁 3
狐 3
狱@@ 3
猗@@ 3
猷 3
獄 3
獣 3
獲@@ 3
獵@@ 3
玖 3
玩@@ 3
玲@@ 3
珧 3
琢 3
琬 3
瑗 3
瑚 3
瑛 3
璞 3
璧 3
璧@@ 3
瓊@@ 3
瓶 3
甌 3
甌@@ 3
産 3
畤@@ 3
異 3
當 3
畿 3
畿@@ 3
症 3
痕@@ 3
痛@@ 3
癸@@ 3
登 3
皋 3
皿@@ 3
盡 3
盲@@ 3
眾 3
着 3
瞻@@ 3
矣@@ 3
矩@@ 3
砖@@ 3
砧@@ 3
破 3
硬 3
硬@@ 3
碰@@ 3
磁@@ 3
礻 3
祁 3
祉 3
祚@@ 3
祠 3
祢 3
祺 3
禎@@ 3
禧@@ 3
禰 3
禰@@ 3
禹 3
禽@@ 3
禾 3
种@@ 3
秣@@ 3
稣@@ 3
稱@@ 3
稼@@ 3
穀@@ 3
穂@@ 3
穆 3
積 3
穴@@ 3
究@@ 3
穿@@ 3
窓@@ 3
窝@@ 3
窟 3
竪@@ 3
競@@ 3
竺@@ 3
竿@@ 3
笛@@ 3
笠 3
笹@@ 3
箇 3
算 3
箭@@ 3
箱@@ 3
築@@ 3
簪 3
籌@@ 3
类 3
粋 3
粤 3
粲 3
粵 3
糊@@ 3
糞@@ 3
系列 3
約 3
紐@@ 3
純 3
純@@ 3
紗 3
紗@@ 3
絞@@ 3
給@@ 3
絲 3
絹@@ 3
綜@@ 3
総 3
線@@ 3
緞 3
縄@@ 3
縦@@ 3
繇 3
繞@@ 3
繫@@ 3
繹 3
约@@ 3
纪 3
纳 3
细@@ 3
给@@ 3
缠@@ 3
缽@@ 3
网 3
罪@@ 3
羯 3
羯@@ 3
翟 3
翰 3
翰@@ 3
翻@@ 3
耀 3
耆 3
耽@@ 3
聪 3
聰 3
聲@@ 3
職@@ 3
聽 3
聿@@ 3
肅@@ 3
肋@@ 3
肝@@ 3
肯@@ 3
育 3
脑 3
脩@@ 3
腐 3
膀 3
膏 3
膏@@ 3
膳@@ 3
臥@@ 3
臨 3
臻 3
臼 3
臼@@ 3
舍@@ 3
舱 3
舵@@ 3
艺 3
芙@@ 3
芮@@ 3
芹@@ 3
苇@@ 3
苌@@ 3
苾@@ 3
茗 3
茫@@ 3
莉@@ 3
莎 3
莘@@ 3
莫 3
莽 3
莽@@ 3
菓@@ 3
菖@@ 3
菟 3
菲 3
萍 3
萩@@ 3
葡@@ 3
葦@@ 3
葬@@ 3
葷@@ 3
蔚@@ 3
蕉@@ 3
蕨 3
薇@@ 3
薩 3
薫 3
藍 3
藥 3
蘇 3
虑@@ 3
虔 3
虚 3
虛@@ 3
虹 3
蜀 3
蜜 3
螂 3
融 3
螺 3
蟬@@ 3
袈@@ 3
被 3
被@@ 3
裁 3
裂 3
裏 3
補 3
裟@@ 3
複@@ 3
襄 3
覽 3
覽@@ 3
见@@ 3
视@@ 3
觚 3
託@@ 3
許 3
評@@ 3
詧 3
詳@@ 3
誅@@ 3
誌 3
誕@@ 3
請@@ 3
謁 3
謙@@ 3
講 3
譙@@ 3
譚@@ 3
譯 3
譽@@ 3
變 3
讓 3
讯@@ 3
设 3
评@@ 3
识@@ 3
译@@ 3
话@@ 3
请@@ 3
调 3
谈@@ 3
谭 3
豫 3
豬@@ 3
豳@@ 3
貝 3
貨 3
貰@@ 3
賊 3
賦 3
贞 3
财@@ 3
贯@@ 3
贵 3
赫 3
超 3
趾 3
跃@@ 3
跌 3
踊@@ 3
踏@@ 3
踐 3
躬 3
軾 3
輝 3
轨 3
辯 3
辶 3
边 3
辺 3
辻 3
运 3
连 3
迪 3
述 3
週@@ 3
逸 3
遍 3
遍@@ 3
遏@@ 3
遜 3
遥 3
邕 3
邨 3
邮@@ 3
邺 3
郅@@ 3
郗@@ 3
郷 3
鄒@@ 3
鄢@@ 3
鄮@@ 3
鄱@@ 3
酉 3
酸 3
醇@@ 3
醜@@ 3
醬 3
釈@@ 3
釐@@ 3
鉅@@ 3
錄@@ 3
錢 3
錢@@ 3
錬@@ 3
钓@@ 3
钟 3
钧@@ 3
钱 3
铺@@ 3
销@@ 3
閃@@ 3
閔@@ 3
閱@@ 3
闘 3
闘@@ 3
闭@@ 3
闽 3
阁 3
阙@@ 3
阴 3
阵 3
阿 3
陂@@ 3
附 3
陆 3
隅@@ 3
隠 3
隠@@ 3
雁 3
雇@@ 3
雛@@ 3
雫@@ 3
霧 3
靖 3
韜 3
韦 3
韶 3
響@@ 3
頂@@ 3
頃@@ 3
頗@@ 3
領 3
顏@@ 3
類 3
题@@ 3
颛@@ 3
飞 3
飲@@ 3
養 3
餓@@ 3
餠 3
馨 3
馮 3
駄@@ 3
駅@@ 3
験 3
騶@@ 3
驍@@ 3
驗 3
驚@@ 3
骆@@ 3
鬲 3
魯 3
鮎@@ 3
鰂@@ 3
鴉 3
鵬@@ 3
鶏@@ 3
鶴 3
鷟 3
鸞@@ 3
鸟@@ 3
鸡 3
鸿 3
鹏 3
鹵@@ 3
麦 3
麦@@ 3
麵 3
麾@@ 3
黔 3
黙@@ 3
鼐 3
齋 3
龐@@ 3
龟@@ 3
ꁱ@@ 3
ꂷ 3
ꌠ@@ 3
ꙙ 3
ꙟ@@ 3
ꚅ 3
Ꚋ 3
ꚗ 3
ꜜ@@ 3
ꜣ@@ 3
ꜥ 3
ꝉ@@ 3
Ꝺ 3
ꝿ 3
ꝿ@@ 3
Ꞩ@@ 3
Ɬ 3
Ʝ 3
Ꟈ 3
ꦫ@@ 3
ꦱ 3
갈@@ 3
갓 3
걸@@ 3
견 3
겸 3
겹@@ 3
곡 3
광 3
규 3
균@@ 3
금 3
급 3
길@@ 3
난@@ 3
네@@ 3
눈@@ 3
담 3
던@@ 3
떡@@ 3
또@@ 3
락@@ 3
랐@@ 3
량@@ 3
련@@ 3
렬 3
룹 3
름@@ 3
린 3
맹 3
못@@ 3
뭔@@ 3
뮤@@ 3
발 3
밤 3
밤@@ 3
변@@ 3
빔 3
빠 3
새 3
설 3
섬 3
섶 3
셔 3
션 3
손 3
송 3
숭@@ 3
슬@@ 3
실 3
십@@ 3
싸@@ 3
쌈@@ 3
악 3
억 3
억@@ 3
엄@@ 3
엠@@ 3
열 3
열@@ 3
염@@ 3
온 3
욱 3
움@@ 3
육 3
율@@ 3
융@@ 3
응@@ 3
잖@@ 3
잡@@ 3
쟁 3
족@@ 3
좌 3
좌@@ 3
준@@ 3
증@@ 3
책 3
책@@ 3
출@@ 3
침@@ 3
캔@@ 3
코@@ 3
클@@ 3
키 3
탄@@ 3
택@@ 3
테@@ 3
팅 3
품@@ 3
픽@@ 3
할 3
함@@ 3
합 3
합@@ 3
핫@@ 3
항@@ 3
향@@ 3
헤@@ 3
협 3
협@@ 3
혜@@ 3
환 3
황 3
 3
 3
 3
ﬃ@@ 3
ﭽ@@ 3
ﯓ 3
ﷲ 3
﷼ 3
ﺧ@@ 3
ﺮ 3
ﺯ 3
ﺷ@@ 3
ﺻ@@ 3
ﻄ@@ 3
ﻓ@@ 3
ﻘ@@ 3
ﻜ@@ 3
ﻞ 3
ﻤ@@ 3
ﻩ 3
ﻪ@@ 3
ﻭ@@ 3
＃ 3
＊ 3
３ 3
３@@ 3
７@@ 3
Ｅ@@ 3
Ｉ@@ 3
Ｓ@@ 3
］ 3
ｰ@@ 3
￡ 3
𐆖 3
𐌱@@ 3
𐌲@@ 3
𐌴@@ 3
𐌽 3
𐌾@@ 3
𐍂@@ 3
𐎫@@ 3
𐎹 3
𐎿@@ 3
𐒍@@ 3
𐒒@@ 3
𐒕@@ 3
𐒖@@ 3
𐤁@@ 3
𐤄 3
𐤇 3
𐤋 3
𐤓 3
𐩣@@ 3
𐭥@@ 3
𐭧@@ 3
𐰇@@ 3
𒆤@@ 3
𒇲 3
𓊖 3
𝐵@@ 3
𝐸@@ 3
𝐹 3
𝐺 3
𝐿 3
𝑆 3
𝑒@@ 3
𝑙@@ 3
𝑛 3
𝑟@@ 3
𝛾@@ 3
🇩 3
🇬 3
🇸 3
🇹 3
🇿 3
💥 3
🜨 3
Además 2
Aynı 2
Birleş@@ 2
Birleşik 2
Chiến 2
Cumhuriyeti 2
Haziran 2
Kasım 2
Kupası 2
Kỳ 2
Makala 2
Nachdem 2
Nhật 2
Rusya 2
Tarih@@ 2
Trong 2
Tổng 2
Xã 2
adlı 2
alors 2
açık@@ 2
biên 2
biển 2
blieb 2
bulun@@ 2
bulunan 2
bzw. 2
bóng 2
büyü@@ 2
bır@@ 2
bảng 2
bầu 2
bằng 2
bọ 2
chiến 2
chương 2
chữ 2
cáo 2
cũng 2
cả 2
dahil 2
devient 2
devlet 2
duy 2
dân 2
düşün@@ 2
dương 2
dạng 2
effet 2
embargo 2
eneo 2
equipo 2
erstmals 2
estudios 2
eyal@@ 2
fasst 2
folgenden 2
führt 2
gebaut 2
gewählt 2
giữ 2
göre 2
habían 2
hacia 2
hakkında 2
hariki 2
hayat@@ 2
hazır@@ 2
hoàn 2
hoàng 2
huwa 2
huy 2
hát 2
hệ 2
hộ 2
ilir 2
inş@@ 2
isiwa 2
itig 2
içinde 2
jewe@@ 2
karakter@@ 2
kendi 2
kundi 2
kupitia 2
kıs@@ 2
kısa 2
lanan 2
larla 2
larına 2
larında 2
larının 2
lerinde 2
lerinden 2
linal@@ 2
linois 2
liên 2
liğ@@ 2
luğu 2
làm 2
lâu 2
lượng 2
lập 2
lực 2
malar 2
mayan 2
maye 2
mayı 2
mehrere 2
merkezi 2
mientras 2
minh 2
miştir 2
miền 2
mto 2
mô 2
môi 2
mắt 2
mặt 2
nahm 2
neben 2
nghiệp 2
nghệ 2
ngoại 2
niveau 2
nivel 2
niên 2
núi 2
nội 2
olarak 2
olewa 2
ongozi 2
parç@@ 2
peuvent 2
phim 2
phương 2
phải 2
phục 2
phủ 2
población 2
producción 2
proy@@ 2
présente 2
región 2
sasa 2
savaş@@ 2
savun@@ 2
sensa 2
siendo 2
sigui@@ 2
später 2
sáng 2
sız@@ 2
sản 2
số 2
sống 2
taifa 2
tenía 2
tháng 2
thích 2
thông 2
thư 2
thần 2
thời 2
thủ 2
timu 2
tiên 2
tiếng 2
tiền 2
triển 2
trò 2
trúc 2
trường 2
trị 2
tuần 2
tài 2
tên 2
título 2
tır@@ 2
tương 2
tướng 2
tưởng 2
tỉnh 2
tổ 2
umri 2
uvent 2
viên 2
vió 2
vàng 2
vì 2
vô 2
vẫn 2
vệ 2
weiteren 2
weza 2
wote 2
yapılan 2
yıld@@ 2
zahlreich@@ 2
zaman@@ 2
zote 2
 2
 2
 2
 2
Ông 2
ßerdem 2
çalış@@ 2
çoc@@ 2
èrent 2
época 2
ìm 2
önc@@ 2
úng 2
üdür 2
üncü 2
ăm 2
đánh 2
được 2
đế 2
Ĝ@@ 2
ğin 2
ĩa 2
İng@@ 2
ığı 2
ığında 2
ışt@@ 2
Ŀ 2
Ŀ@@ 2
ŀ 2
şehir@@ 2
Ŧ 2
Ŧ@@ 2
ũng 2
Ŵ 2
Ÿ@@ 2
Ɓ@@ 2
Ƃ@@ 2
Ƅ 2
Ƅ@@ 2
ƈ 2
Ƌ@@ 2
ƕ@@ 2
Ɯ@@ 2
Ƨ@@ 2
ƪ 2
Ƭ 2
ƭ 2
Ʈ 2
ướ@@ 2
ười 2
ǖ 2
ǘ@@ 2
ǩ@@ 2
Ǭ 2
Ǵ@@ 2
Ƕ 2
ǹ 2
Ȃ 2
Ȣ 2
Ȥ 2
ȫ@@ 2
ȱ 2
Ȼ 2
ɋ 2
Ɍ 2
ɍ 2
ɝ@@ 2
ɱ@@ 2
ɶ@@ 2
ʆ 2
ʣ@@ 2
ʱ@@ 2
ʳ 2
ʴ 2
ʺ@@ 2
ˊ@@ 2
ˏ 2
̖ 2
̗ 2
͓ 2
ͣ 2
Ͳ 2
Ϳ 2
Ή 2
Ώ 2
Γαλλ@@ 2
Ευρώπη 2
Ιν@@ 2
Κατά 2
Μάρ@@ 2
Παγκόσ@@ 2
Πανεπιστήμιο 2
Στα 2
Την 2
Χ. 2
Ως 2
Ϊ@@ 2
άμεις 2
έγινε 2
έμου 2
έργο 2
έρον@@ 2
έρχ@@ 2
έτος 2
ίδιος 2
αισ@@ 2
αιώνα 2
ακόμα 2
αναγ@@ 2
ανακ@@ 2
ανο@@ 2
αντι 2
από@@ 2
αριθμ@@ 2
αρμ@@ 2
ασε 2
ατο@@ 2
αυτό 2
γυναίκ@@ 2
δίν@@ 2
δεί@@ 2
δελ@@ 2
δηλ@@ 2
δημο@@ 2
δική 2
δομ@@ 2
δρομ@@ 2
δυνατ@@ 2
είτε 2
είχαν 2
εγκ@@ 2
επαν@@ 2
επισκ@@ 2
επο@@ 2
εποχή 2
ζυγ@@ 2
ηματο@@ 2
ησαν 2
ησης 2
ηχαν@@ 2
θήκ@@ 2
θαν@@ 2
θερμ@@ 2
θεση 2
θηκε 2
θησαν 2
ιου@@ 2
ιση 2
κέν@@ 2
καλύτερ@@ 2
καν 2
καταλ@@ 2
κει@@ 2
κοινων@@ 2
λευτα@@ 2
λο 2
μές 2
μέτρ@@ 2
μαϊκ@@ 2
μει@@ 2
μητ@@ 2
μηχαν@@ 2
μιας 2
μό 2
νησι@@ 2
ξε 2
οθε@@ 2
οιν@@ 2
ολο@@ 2
ονται 2
οντας 2
οσφ@@ 2
ουλευ@@ 2
ούν 2
ούνται 2
ούσε 2
παρά@@ 2
περιοδ@@ 2
πολιτι@@ 2
πραγ@@ 2
πραγματ@@ 2
πρώτα 2
πρώτο 2
ρν@@ 2
ρυθμ@@ 2
σει 2
σημαν@@ 2
σταθμ@@ 2
στασης 2
στημα 2
συλλ@@ 2
συλλογ@@ 2
σχέ@@ 2
σχε@@ 2
σύγ@@ 2
σύζυγ@@ 2
τέλε@@ 2
τίου 2
ταγων@@ 2
ταχ@@ 2
τικές 2
τούς 2
τρου 2
υπέ@@ 2
υργ@@ 2
φαλ@@ 2
φορές 2
χρή@@ 2
ωβ@@ 2
ωση 2
όλα 2
όλων 2
όμενο 2
όνομα 2
όρε@@ 2
όσο 2
ότε 2
ότερ@@ 2
ότητες 2
ώνει 2
ϐ 2
ϖ@@ 2
ϗ 2
ϙ 2
Ϛ@@ 2
Ϟ 2
Ϟ@@ 2
Ϧ 2
ϩ 2
ϭ@@ 2
Ϸ@@ 2
ϸ 2
ϻ 2
Ѐ 2
Ѝ 2
Ѝ@@ 2
Гър@@ 2
април 2
ваща 2
върху 2
върш@@ 2
гръц@@ 2
декември 2
държа@@ 2
дъщер@@ 2
ждат 2
изпол@@ 2
изслед@@ 2
която 2
могат 2
мър@@ 2
ността 2
окръ@@ 2
октомври 2
остава 2
поради 2
септември 2
страната 2
съвет@@ 2
съществу@@ 2
циите 2
яват 2
Ѱ@@ 2
Ѻ 2
Ѽ 2
Ѿ@@ 2
Ҕ@@ 2
Ҹ@@ 2
Ҿ 2
ҿ 2
ӎ 2
Ӛ 2
Ӝ@@ 2
Ӷ@@ 2
ԁ 2
ԃ 2
ԅ 2
Ԇ 2
ԇ 2
Ԉ 2
ԉ 2
Ԋ 2
ԋ 2
Ԏ 2
ԏ 2
ԑ@@ 2
Ԓ@@ 2
Ԕ 2
ԕ 2
Ԗ 2
ԗ 2
Ԙ 2
ԙ 2
ԡ 2
Ԣ 2
ԧ 2
Զ 2
Ժ 2
Շ 2
ժ 2
ֆ 2
֊ 2
֔ 2
֣ 2
ף@@ 2
؋ 2
آخر 2
آر@@ 2
آز@@ 2
آغ@@ 2
أغ@@ 2
أو 2
أول 2
ؤ 2
ائد 2
ائي 2
ائی 2
ائی@@ 2
ابی 2
اتب 2
اتحاد 2
اته 2
اجتماع@@ 2
اخت@@ 2
ادة 2
ادر 2
ارب 2
ازی 2
اسم 2
اسی 2
افة 2
الآ@@ 2
الأص@@ 2
الات@@ 2
الاتحاد 2
الاق@@ 2
البري@@ 2
الة 2
الت 2
التي 2
الثاني 2
الثق@@ 2
الجزائر 2
الخار@@ 2
الذي 2
الذين 2
السل@@ 2
العالم 2
اللا@@ 2
المتح@@ 2
المست@@ 2
المسل@@ 2
المنا@@ 2
المي@@ 2
النظ@@ 2
النق@@ 2
الوط@@ 2
الی@@ 2
امة 2
امت 2
امن 2
امیر 2
انا 2
انت@@ 2
اند@@ 2
انگ 2
اول 2
اگر 2
باء 2
بال 2
بالق@@ 2
بت@@ 2
بري@@ 2
بس@@ 2
بع 2
بعة 2
بعد 2
بق@@ 2
بلو@@ 2
بنا@@ 2
بور@@ 2
بية 2
تار@@ 2
تاريخ 2
تت@@ 2
تحت 2
ترکی 2
تعل@@ 2
تل 2
تل@@ 2
تلا@@ 2
تون 2
ثار 2
ثر 2
ثلا@@ 2
جا 2
جائ@@ 2
جة 2
جد 2
جل 2
جما@@ 2
جنة 2
جنوب 2
جية 2
حص@@ 2
حق 2
حقوق 2
خاندان 2
خط 2
خلی@@ 2
داری 2
داً 2
دخ@@ 2
دف@@ 2
دور@@ 2
دول@@ 2
ذا 2
ذي 2
راد 2
رته 2
رح@@ 2
رد 2
رسول 2
رل 2
روس 2
روف 2
رکن 2
ریز 2
زب 2
سا 2
سا@@ 2
سائ@@ 2
ساح@@ 2
سف@@ 2
سلا@@ 2
سلم 2
سلی@@ 2
سمي 2
سو 2
سيا 2
سپ@@ 2
شادی 2
شاع@@ 2
شري@@ 2
صة 2
صف 2
صول 2
صی@@ 2
ضة 2
طالب 2
طب@@ 2
طريق 2
طلا@@ 2
طور 2
ظر 2
ظم 2
ظه@@ 2
عات 2
عالم 2
عام@@ 2
عت 2
عد 2
عرا@@ 2
عرب 2
عز@@ 2
عشر 2
عط@@ 2
عق@@ 2
عل 2
علوم 2
عليه 2
عمل 2
عية 2
غل@@ 2
فإن 2
فا 2
فائ@@ 2
فاع 2
فع@@ 2
قائ@@ 2
قت 2
قد@@ 2
قرار 2
قية 2
قيق 2
قیام 2
كام@@ 2
كانت 2
كبير 2
كتب 2
كما 2
كو 2
كول@@ 2
كون 2
كية 2
لاء 2
للإ@@ 2
ليس 2
لين 2
مؤ@@ 2
مات 2
مال@@ 2
مانية 2
مانی 2
مت@@ 2
مدينة 2
مرکزی 2
معر@@ 2
مقرا@@ 2
ممل@@ 2
منطقة 2
منی 2
موال@@ 2
موت 2
مود 2
مک@@ 2
نائ@@ 2
نام 2
نان@@ 2
نت@@ 2
ندر 2
نز 2
نس@@ 2
نص@@ 2
نف 2
نور 2
نک@@ 2
هار@@ 2
واج 2
واس@@ 2
واش@@ 2
واقع 2
وال 2
وخ@@ 2
ورت 2
وز 2
وص 2
وص@@ 2
وط 2
وف 2
ولی 2
ومن 2
وير 2
يار 2
يران 2
يرة 2
يز 2
يز@@ 2
يش@@ 2
يلي 2
ينا 2
ٖ@@ 2
١ 2
٤ 2
٦ 2
٦@@ 2
٨ 2
٩@@ 2
٫ 2
ٰ 2
ٸ 2
ٸ@@ 2
پی 2
ڈ@@ 2
ڑ@@ 2
ڤ 2
ڨ@@ 2
کا@@ 2
کار@@ 2
کان@@ 2
کت 2
کتاب 2
کر 2
کرو@@ 2
کل 2
کم@@ 2
کور@@ 2
گو 2
گور@@ 2
ں 2
ڼ 2
ڼ@@ 2
ہو 2
یت 2
یو@@ 2
ۚ 2
۞ 2
ۥ@@ 2
۵@@ 2
۶ 2
ܗ 2
ܙ 2
ܛ@@ 2
ܣ 2
ܩ 2
ܲ@@ 2
ܵ 2
ܸ 2
ܺ@@ 2
ܼ@@ 2
ݣ 2
ݪ 2
ހ 2
ށ 2
ނ 2
ނ@@ 2
ބ 2
ޅ 2
ކ 2
އ 2
ވ 2
ވ@@ 2
މ 2
މ@@ 2
ފ 2
ދ 2
ތ 2
ތ@@ 2
ލ 2
ލ@@ 2
ގ 2
ގ@@ 2
ޏ 2
ސ 2
ސ@@ 2
ޑ 2
ޒ 2
ޓ 2
ޔ 2
ޕ 2
ޖ 2
ޗ 2
ާ@@ 2
ު 2
ެ 2
ߊ 2
ߓ@@ 2
ߖ@@ 2
߬ 2
߲ 2
ࡀ@@ 2
ࡉ@@ 2
ंद@@ 2
ंब@@ 2
अंतर@@ 2
अध 2
अनु@@ 2
अर 2
आन 2
आम 2
इं@@ 2
इस 2
ई@@ 2
ऊ 2
ऋ 2
ऌ 2
एँ 2
एक 2
ऐ 2
ओ 2
कल 2
काव 2
कुछ 2
कृ@@ 2
कृष 2
के@@ 2
खण 2
खो@@ 2
गं@@ 2
गत 2
गम 2
गी@@ 2
घा@@ 2
घो@@ 2
चक 2
चर 2
चल 2
चे 2
चौ@@ 2
जग@@ 2
जल@@ 2
जो@@ 2
ञ@@ 2
ञा@@ 2
ञान 2
ठा 2
ठी 2
णि@@ 2
णु 2
तर 2
तव 2
तृ@@ 2
था 2
थिति 2
थी 2
दक 2
दान 2
दिल 2
दी 2
दृ@@ 2
धान 2
धार@@ 2
नाथ 2
निम 2
परि@@ 2
पहा@@ 2
पुरा@@ 2
पूर 2
पो@@ 2
फु@@ 2
बन 2
बे 2
भग@@ 2
भगवान 2
मद 2
माता 2
मि 2
मे 2
यद 2
ययन 2
यी 2
रकार 2
रकाश 2
रच@@ 2
रति@@ 2
रन 2
रपति 2
रभा@@ 2
रम 2
रस 2
रस@@ 2
राम 2
रिय@@ 2
रु 2
रू 2
रू@@ 2
रो 2
लू 2
लो 2
लो@@ 2
वाई 2
वान 2
वि 2
विज 2
विद 2
विशे@@ 2
विष 2
शं@@ 2
शत 2
शा 2
शी 2
शी@@ 2
शीर 2
शे@@ 2
षा@@ 2
षि 2
षि@@ 2
षे@@ 2
संख 2
सक 2
समा@@ 2
सह@@ 2
सागर 2
सी 2
से 2
हर 2
हस 2
हो 2
िय@@ 2
िया 2
िल 2
ृत 2
ोर 2
ौ 2
ौर 2
ॠ 2
ॡ 2
१@@ 2
२ 2
३ 2
४ 2
५ 2
६ 2
ঁ 2
ঃ 2
থ 2
হ 2
৲ 2
ਅ@@ 2
ਉ@@ 2
ਕ 2
ਗ 2
ਜ 2
ਜ@@ 2
ਬ 2
ਬ@@ 2
ਭ@@ 2
ਯ 2
ਿ 2
ੇ 2
ੈ 2
ੰ 2
ੱ@@ 2
ੲ 2
ગ 2
ભ@@ 2
મ@@ 2
ી@@ 2
ૈ@@ 2
ો 2
କ@@ 2
ପ@@ 2
ର@@ 2
ା 2
ା@@ 2
ି@@ 2
ୁ@@ 2
୍ 2
ஃ@@ 2
இ 2
ஊ 2
ஐ 2
ஔ 2
ஔ@@ 2
ஜ@@ 2
ஸ@@ 2
ஹ 2
ఛ 2
జ 2
ట 2
ణ 2
ఫ 2
ష 2
హ 2
ీ@@ 2
ూ@@ 2
ృ 2
ై@@ 2
ಇ 2
ಚ 2
ಥ 2
ಫ 2
ೃ@@ 2
ೇ@@ 2
ഃ 2
ഇ@@ 2
ഉ 2
ഒ 2
ഘ 2
ജ 2
ട 2
ഫ 2
ഭ 2
ള 2
ൃ@@ 2
ൗ 2
ൻ 2
ൽ 2
ൾ 2
උ@@ 2
ග 2
ග@@ 2
ඩ 2
ද 2
ධ@@ 2
බ@@ 2
ර 2
ව 2
ෂ@@ 2
ි 2
กระ@@ 2
กระท@@ 2
กรุง@@ 2
กลา@@ 2
กอง@@ 2
กัด 2
กัน 2
กัน@@ 2
การ 2
กำ@@ 2
กิ@@ 2
กุล 2
คน@@ 2
คม 2
คั@@ 2
คุ@@ 2
งาน 2
จน 2
จา@@ 2
ชาย 2
ชิ@@ 2
ฌ 2
ฎ 2
ฏ 2
ฏ@@ 2
ณา@@ 2
ดา@@ 2
ดิ 2
ดิน@@ 2
ตว@@ 2
ถุ@@ 2
ทหาร 2
ทิ@@ 2
ที@@ 2
ทุ@@ 2
ธรรม@@ 2
นต@@ 2
นว@@ 2
นัก@@ 2
[...]
